۔ 1107595
کے 1040117
میں 919807
، 848254
کی 795866
ہے 701535
اور 643422
سے 507658
کا 492854
اس 358348
نے 343987
پر 322457
کو 316808
ایک 312979
ہیں 217047
) 208652
( 204095
. 194605
جو 183122
کیا 164165
ان 160592
یہ 151208
کہ 148248
&quot; 143715
تھا 142926
واقع 136912
بھی 133031
کر 119085
وہ 109287
تھے 107392
@-@ 105482
و 100386
لیے 99619
گیا 95441
بعد 83509
: 81598
یا 79726
جس 73931
آبادی 70956
ہو 70902
بن 67781
ساتھ 67150
تھی 66699
نہیں 65012
مجموعی 61820
افراد 61395
کرنے 61174
; 59939
تک 59668
دیا 59468
اپنے 58719
تفصیلات 58629
مشتمل 57796
&amp; 57439
طور 55996
کاؤنٹی 55743
جاتا 55355
ہوئے 53990
تو 52992
آپ 50912
ہی 49261
پاکستان 49125
ہوا 47374
نام 46818
متحدہ 45813
شہر 43219
دی 41079
اللہ 41029
زیادہ 40394
ضلع 40259
امریکا 40196
انہوں 39922
گئے 39817
اپنی 39748
علاقہ 39104
سطح 38869
ریاستہائے 37871
نہ 37718
شپ 37262
میٹر 36626
گئی 36613
جب 36516
حاصل 36074
دو 35907
محمد 35871
لیکن 35703
کرتے 35397
مربع 35345
ک@@ 35152
رقبہ 34672
ہوئی 34599
ٹاؤن 34572
ی@@ 33807
بہت 33536
بلندی 33427
پ@@ 33085
کیلومیٹر 32807
اسے 32633
سب 32621
سال 31677
وقت 31346
کہا 31189
وں 30608
پہلے 30462
ہونے 30437
شامل 30262
ہوتا 30216
گ@@ 30140
والے 29948
کچھ 29939
/ 29549
کسی 29392
رہے 28827
gt 28612
سی 28575
lt 28445
خان 28198
ہ@@ 28103
ای@@ 27398
بی@@ 27152
چ@@ 26980
وجہ 26895
اسی 26788
س@@ 26498
ن@@ 26327
آباد 26193
طرح 26087
می@@ 26039
سی@@ 26026
‘ 25626
حکومت 25507
رہائشی 25380
جنگ 25378
جن 25324
ڈ@@ 25243
و@@ 25096
ری@@ 24889
کام 24765
علی 24734
ہ 24335
ر@@ 23869
ب@@ 23737
سو 23668
طرف 23516
ان@@ 23181
کی@@ 23162
دور 23072
سمندر 23033
ٹ@@ 22958
کوئی 22640
لے 22595
د@@ 22481
لیا 22444
شاہ 22323
خلاف 22180
ل@@ 22166
کم 22148
ش@@ 22039
استعمال 21898
حضرت 21799
ز@@ 21789
آ@@ 21784
فلم 21493
دے 21478
’ 21464
انہیں 21455
پی@@ 21377
زبان 21021
ار@@ 20978
تعلیم 20971
بھارت 20887
لی@@ 20881
ک 20676
مطابق 20429
شروع 20374
صوبہ 20363
پیدا 20274
ے 19903
زندگی 19860
وی@@ 19660
لا 19610
رہا 19598
ج@@ 19591
م@@ 19562
والی 19394
ٹ 19386
ہر 19385
پھر 19272
لا@@ 19234
نی@@ 19189
لی 18942
تھیں 18860
تمام 18826
را@@ 18814
کو@@ 18796
رو@@ 18752
دوران 18653
صرف 18188
عام 18174
ِ 18159
س 18133
گا 18086
اب 18046
ملک 17979
کرکٹ 17964
مقام 17936
مشہور 17863
لئے 17804
کتاب 17797
ری 17794
یہاں 17747
کیے 17616
ٹی 17497
کئی 17493
تین 17455
کر@@ 17391
بی 17340
ہوتی 17331
جہاں 17283
غیر 17178
اے 17076
کرنا 17033
کرتا 17000
خود 16997
پیش 16994
ن 16981
لوگوں 16959
مختلف 16865
اسلام 16815
تا 16719
عبد 16703
موجود 16670
تاریخ 16655
بر@@ 16625
ف@@ 16611
ڈ 16428
بے 16413
حصہ 16385
جاتی 16384
&#124; 16312
ہم 16311
اور@@ 16217
ال@@ 16116
دنیا 16065
عمر 16058
پر@@ 16056
ت@@ 16024
امام 16015
فرانسیسی 15818
قائم 15672
دوسرے 15657
اہم 15653
دار 15636
پہلی 15584
ابن 15442
جائے 15413
آف 15367
ا 15341
سینٹ 15319
ہوائی 15294
احمد 15277
دونوں 15222
ریاست 15195
تی 15125
نا 15029
جا 14977
وفات 14927
&#93; 14925
یں 14916
ا@@ 14826
دریا 14798
بات 14759
انی 14724
- 14661
دی@@ 14657
اردو 14655
جنوبی 14650
&#91; 14592
ڈی 14583
الدین 14524
علاوہ 14452
ی 14383
جانے 14372
ائی 14352
یعنی 14316
اس@@ 14301
بین 14300
ہزار 14291
م 14276
ہو@@ 14217
بڑے 14197
من@@ 14187
ل 14156
of 14128
؛ 14095
وی 14069
مو@@ 13981
ڈی@@ 13965
ح@@ 13893
&apos; 13867
بار 13856
فوج 13749
دیگر 13745
ون 13741
پی 13733
فہرست 13677
پور 13619
ہی@@ 13582
پاس 13501
علیہ 13438
شی@@ 13424
سلطنت 13397
یونیورسٹی 13397
ور@@ 13380
جیسے 13360
اسٹیشن 13346
بڑا 13297
لوگ 13266
رہی 13248
بڑی 13198
ہندوستان 13189
لو@@ 13175
ور 13166
ایران 13140
ہوں 13112
دن 13108
سید 13103
ش 13101
نی 13022
نا@@ 12983
ہوتے 12981
جبکہ 12979
, 12890
اگر 12884
ٹی@@ 12844
ز 12817
خاندان 12767
سو@@ 12746
صدی 12718
گی 12716
علم 12712
خواتین 12702
اڈا 12651
تے 12585
لینڈ 12558
خ@@ 12523
ام@@ 12493
وا@@ 12492
ابو 12448
ریلوے 12410
کھ@@ 12406
دوسری 12383
قومی 12377
شمالی 12361
ق@@ 12327
سر 12297
جی@@ 12254
ین 12192
مگر 12173
بھ@@ 12161
جاری 12073
صدر 12062
اپنا 12052
رہ 12009
مغربی 11996
سن 11974
بیان 11973
تر 11973
سر@@ 11943
بارے 11936
گی@@ 11862
عدد 11853
پنجاب 11836
ابتدائی 11773
درمیان 11738
آئی 11719
او@@ 11692
یوں 11663
خاص 11648
ت 11611
بنا 11593
تعلق 11575
اب@@ 11517
ر 11512
ٹیسٹ 11512
عمل 11474
جسے 11452
ع@@ 11451
آغاز 11439
فرانس 11407
کرتی 11350
تاہم 11339
والد 11333
ھ 11293
نیو 11282
علاقے 11259
جاتے 11216
حسین 11144
زی@@ 11144
نظر 11127
تھ@@ 11016
والا 10967
کردار 10954
کالج 10935
گن 10897
چار 10880
کل 10844
الاقوامی 10827
تعمیر 10752
امریکی 10745
نگ 10729
گاؤں 10646
سیاسی 10633
ٹیم 10629
کار 10573
گے 10573
بو@@ 10569
با@@ 10563
2 10486
فی@@ 10486
گھر 10445
فی 10407
ون@@ 10396
عرب 10379
تعداد 10373
– 10328
انگریزی 10302
چین 10297
صاحب 10293
جی 10283
جگہ 10270
ممالک 10217
سکتا 10182
شادی 10178
تی@@ 10172
مسجد 10156
چی@@ 10140
پیدائش 10111
کیونکہ 10055
دھ@@ 10027
شیخ 10015
مسلم 9997
مکمل 9927
می 9889
کہتے 9836
اسلامی 9834
“ 9803
قریب 9759
کار@@ 9748
لاہور 9743
1 9728
دہ 9725
اری 9697
کس 9672
وزیر 9652
گ 9637
حیثیت 9588
یونین 9541
قبل 9477
عربی 9458
اک@@ 9454
مر@@ 9450
مشرقی 9404
سلطان 9367
چھ@@ 9314
مولانا 9290
ذریعہ 9280
نو@@ 9268
مدد 9233
قدیم 9228
آئے 9215
3 9171
ٹر 9166
ار 9158
الینوائے 9104
اں 9100
رکھا 9092
ایس 9046
قتل 9037
نظام 9026
عظیم 9023
سن@@ 9014
شائع 8997
فرمایا 8979
حملہ 8960
جو@@ 8953
انہ 8946
نو 8924
ب 8921
ٹن 8918
وہاں 8837
” 8832
ج 8817
ھ@@ 8811
بلکہ 8759
علاقوں 8754
واپس 8752
آیا 8736
ذکر 8720
اختیار 8701
بعض 8662
ختم 8655
کن@@ 8620
د 8615
ما@@ 8601
تحریک 8576
ق 8574
فتح 8568
بنایا 8551
نگ@@ 8533
میچ 8529
شخص 8525
ط@@ 8521
فوجی 8516
قرآن 8493
پ 8493
مین 8462
زمین 8443
گو@@ 8418
ك@@ 8415
ص@@ 8393
لہ 8364
را 8360
ؓ 8346
دینے 8327
پہلا 8312
اعظم 8291
کوشش 8257
مل 8250
ادا 8247
تقسیم 8229
مزید 8162
برطانوی 8150
جان 8149
پاکستانی 8130
ایم 8127
رسول 8114
انھوں 8111
رنز 8083
ئ@@ 8082
ائے 8081
غ@@ 8081
دو@@ 8058
جانب 8048
وغیرہ 8038
لکھا 8033
آخری 8014
خدمات 8012
اد@@ 7995
اسکول 7947
ام 7936
تیار 7914
20 7903
کاونٹی 7903
بھائی 7899
مارچ 7894
ترکی 7886
پانی 7886
پانچ 7869
كاونٹي 7862
كاؤنٹي 7861
4 7854
جمہوریہ 7818
ۃ 7817
بولا 7805
ال 7780
اتی 7778
آج 7776
ویں 7766
چند 7752
قرار 7748
این 7686
بنیاد 7686
تو@@ 7684
5 7681
وری 7677
انجام 7662
ایسے 7639
حسن 7625
دین 7612
هٔ 7591
مار@@ 7582
کبھی 7552
خیال 7544
کراچی 7542
مسلمانوں 7540
سٹ@@ 7536
خدا 7532
من 7483
ف 7481
ترقی 7468
روس 7466
ترین 7460
موجودہ 7452
ي@@ 7450
مرکزی 7425
وا 7418
شمار 7414
10 7407
متعلق 7404
عالم 7365
اہل 7361
تم 7333
کونسل 7313
آزاد 7301
تحت 7280
گر@@ 7269
مینیسوٹا 7260
سندھ 7254
حدیث 7252
بادشاہ 7234
عالمی 7229
ایسا 7214
آزادی 7210
کرکے 7210
بنیادی 7200
ذیل 7181
اگست 7169
دل 7156
مقامی 7138
قیام 7136
انے 7130
سلسلہ 7120
متعدد 7113
گروپ 7104
پارٹی 7096
سرکاری 7093
ادب 7088
انڈیانا 7084
ول@@ 7076
رکھنے 7064
انا 7054
قانون 7036
رکھتے 7028
جنوری 7017
سفر 7003
آخر 6998
سنگھ 6990
6 6987
اش@@ 6985
ما 6980
حکم 6978
موت 6955
مشی 6953
دیتے 6950
اصل 6936
زیر 6914
پوری 6904
ہند 6896
اکتوبر 6887
اگ@@ 6887
قسم 6887
مسلمان 6878
دسمبر 6874
قبضہ 6870
فر@@ 6838
ولی 6831
دوبارہ 6826
در@@ 6824
جون 6795
انتخابات 6774
مئی 6757
تر@@ 6754
ذریعے 6741
ء 6740
بیٹے 6731
کافی 6723
ہاتھ 6715
فن 6708
قابل 6700
اعلان 6699
جدید 6669
ستمبر 6661
مہ@@ 6653
اپ@@ 6652
شمال 6647
رکن 6642
بل@@ 6636
گئیں 6632
قوم 6613
بھارتی 6604
ائ@@ 6599
جولائی 6592
چھ 6580
درجہ 6567
صورت 6566
جانا 6560
دان 6557
حق 6556
گھ@@ 6515
ٹس 6512
نومبر 6507
دہلی 6500
لاطینی 6497
ات@@ 6495
از 6495
مش@@ 6489
منتخب 6487
آسٹریلیا 6482
ملا 6477
بہترین 6475
سامنے 6469
جن@@ 6452
چ 6439
مذہبی 6437
عوامی 6434
کیریئر 6432
ي 6428
سکتے 6426
لفظ 6424
ات 6418
مع@@ 6416
اکثر 6404
جرمنی 6398
لندن 6397
کیں 6394
مح@@ 6388
آنے 6380
بنانے 6372
بار@@ 6355
اسمبلی 6315
شکست 6285
ایسی 6279
ڈاکٹر 6275
بہ 6269
جنوب 6268
ول 6264
دیں 6250
ذ@@ 6246
روسی 6228
اپریل 6218
یت 6198
بہ@@ 6181
فارسی 6179
انتقال 6170
ٹا 6163
مل@@ 6147
رات 6143
برطانیہ 6140
بطور 6136
؟ 6131
ابی 6131
پو@@ 6131
جھ@@ 6121
کریں 6103
بنائے 6093
آ 6082
سوویت 6080
فروری 6078
مقرر 6078
سا 6071
تقریباً 6070
جامعہ 6064
کرے 6058
تحصیل 6043
12 6041
توں 6035
15 6025
جنرل 6020
قبول 6018
جات 5992
8 5980
کامیاب 5977
رے 5972
بد@@ 5971
شن 5959
نئی 5948
بند 5944
تاریخی 5917
دہائی 5908
دیکھا 5903
پسند 5902
سین 5897
عہد 5879
مہ 5875
لو 5868
پھ@@ 5862
مان@@ 5861
کل@@ 5851
ٹاون 5841
ظاہر 5837
رین 5836
بچوں 5835
ست@@ 5830
7 5819
امیر 5819
شاعری 5808
انگ@@ 5807
روایت 5804
میر 5795
000 5785
شام 5775
شی 5774
الم@@ 5770
ہوئیں 5769
چنانچہ 5764
السلام 5763
ٹو@@ 5757
خانہ 5755
حالات 5751
مرکز 5749
سک@@ 5747
شریف 5735
اول 5728
ۂ 5710
بن@@ 5709
شاعر 5709
مس@@ 5707
اف@@ 5704
مذہب 5703
آئیووا 5676
صلی 5672
رائے 5664
اندر 5662
اثر 5655
جماعت 5647
وس@@ 5640
شکل 5634
یو@@ 5634
بھر 5627
سیاست 5615
غلام 5614
ند@@ 5613
چھوٹا 5606
نتیجے 5599
ٹر@@ 5598
بنی 5588
موقع 5572
9 5566
مشرق 5565
ڑ 5560
فیصد 5552
اسرائیل 5551
_ 5534
میری 5526
افغانستان 5522
معلوم 5521
قصبہ 5520
سکے 5502
دس 5500
نئے 5500
او 5499
الی 5493
ِ@@ 5488
الگ 5487
شدہ 5487
حصے 5479
اِس 5470
ہر@@ 5468
کن 5436
تاکہ 5435
اگرچہ 5432
یہی 5432
11 5421
کلومیٹر 5380
وال@@ 5359
درج 5353
یر 5345
دریائے 5337
انسان 5335
ترک 5320
روں 5311
لیگ 5310
19 5309
اُس 5289
فیصلہ 5288
داخل 5280
نمبر 5277
انسانی 5276
ہندو 5274
کاری 5267
از@@ 5260
فٹ 5260
دا 5253
یل 5248
اوہائیو 5246
پائی 5246
ترجمہ 5227
حد 5217
ع 5197
علامت 5195
حقوق 5187
کردیا 5185
انداز 5180
ملی 5179
14 5175
آر 5174
الی@@ 5169
ٹھ@@ 5162
سات 5161
لوں 5149
مصر 5147
کنساس 5144
حال 5140
خواجہ 5140
جواب 5137
چو@@ 5130
فراہم 5119
مت 5114
کردہ 5112
دیے 5109
چکے 5109
ایل 5105
والوں 5088
جمع 5087
کتب 5078
رکھی 5077
ہندوستانی 5066
باہر 5063
آر@@ 5061
ں 5056
مقصد 5051
ث@@ 5046
رو 5044
رام 5043
اُن 5040
معروف 5038
کمپنی 5038
اداکارہ 5032
زمانے 5019
ئی 5014
چی 5012
وسلم 4999
مراد 4993
ئے 4987
30 4977
شاہی 4975
بر 4954
ادارہ 4946
گر 4937
سابق 4936
لگا 4925
اجازت 4922
محل 4920
دا@@ 4918
دوسرا 4918
باوجود 4916
پڑا 4914
رنگ 4913
سیریز 4903
16 4898
پس 4897
وسطی 4884
ثابت 4873
قلعہ 4869
مرتبہ 4862
تشکیل 4858
کلی@@ 4854
حمایت 4848
عوام 4841
نٹ 4835
اتحاد 4828
سل@@ 4826
اج@@ 4823
داری 4822
18 4821
باقی 4820
تنظیم 4819
واشنگٹن 4819
نس 4814
حملے 4810
چھوڑ 4809
تا@@ 4801
ضرورت 4801
برائے 4799
25 4793
پار@@ 4793
13 4784
ہونا 4777
بغیر 4775
تعلیمی 4774
مغرب 4764
کا@@ 4750
زمانہ 4746
یہودی 4738
وس 4734
مدینہ 4728
برا@@ 4724
ﷺ 4713
منتقل 4701
کیلیفورنیا 4694
مک@@ 4684
یو 4672
جے 4661
سمجھا 4656
علامہ 4648
کشمیر 4647
انگلینڈ 4629
در 4625
17 4621
کمیون 4619
اسٹ@@ 4618
3@@ 4616
نوں 4616
خدمت 4609
گو 4606
زی 4601
اي@@ 4580
الفاظ 4578
کھیل 4574
کھلاڑی 4567
سری 4561
حالت 4558
نڈ@@ 4550
مد@@ 4545
Saint 4543
خلافت 4522
ڈے 4516
پاک 4509
جڑواں 4508
بغاوت 4499
اعلیٰ 4492
ماں 4489
نماز 4486
ڑ@@ 4485
فلموں 4479
! 4473
روز 4470
میرے 4468
آگے 4430
ئر 4424
یورپ 4423
چھوٹے 4416
بری@@ 4410
قی@@ 4408
ناول 4399
است@@ 4398
سينٹ 4394
ریہ 4384
ایف 4381
افواج 4379
اولاد 4377
عبد@@ 4376
سٹ 4375
حلقہ 4373
جلد 4372
نک@@ 4371
معنی 4367
تعلقات 4366
وار 4366
حوالے 4365
میدان 4363
چکی 4358
پرو@@ 4355
ایوارڈ 4349
طاقت 4348
ڈا 4347
تربیت 4343
سنہ 4342
ہوگا 4342
مقابلہ 4336
کامیابی 4333
1,@@ 4332
سماجی 4330
رہتے 4321
ے@@ 4318
سکتی 4316
سخت 4314
تبدیل 4313
دیتا 4310
فری@@ 4310
نسل 4298
رہنے 4297
متاثر 4290
خاتون 4286
وم@@ 4285
= 4279
دیکھ 4279
کیوں 4279
امن 4265
انتہائی 4263
نہایت 4259
تیں 4255
پنسلوانیا 4250
گری@@ 4244
ولادت 4239
پولینڈ 4239
پا 4237
جرمن 4236
سائنس 4234
اضافہ 4223
نور 4222
کرو@@ 4220
ادبی 4217
مصنف 4214
باعث 4211
نامی 4209
گڑھ 4207
ٹری@@ 4197
کری@@ 4193
الح@@ 4192
جنہوں 4192
مملکت 4187
نقل 4183
کہانی 4182
وج@@ 4181
عثمانی 4169
ہدایت 4157
نیشنل 4149
مج@@ 4140
بتایا 4139
لینے 4133
واقعہ 4130
انھیں 4122
ذیلی 4118
کپ 4117
بلند 4115
باز 4113
علمی 4113
.@@ 4110
میل 4109
ٹیلی 4107
نس@@ 4101
نیا 4099
پری@@ 4097
مال@@ 4094
موسیقی 4087
کلاس 4079
جیسا 4078
چونکہ 4077
بندی 4076
the 4075
فیلڈ 4075
لگے 4073
نز 4067
گنتی 4066
مت@@ 4061
شر@@ 4057
مثال 4055
خط 4053
الہ 4051
یاد 4045
ہلاک 4043
محبت 4040
سم@@ 4037
چینی 4037
بانی 4035
وسیع 4035
مالک 4033
با 4026
مون@@ 4024
سعودی 4023
حی@@ 4021
مابین 4019
بیٹی 4017
انڈیا 4014
ٹو 4013
10@@ 4011
کور@@ 4010
Canton 4008
ه@@ 4007
عراق 4001
چلے 4001
منظر 3997
واقعات 3997
لاکھ 3992
روزہ 3976
محمود 3968
جر@@ 3967
مست@@ 3963
حوالہ 3962
ض@@ 3955
مہم 3955
کان@@ 3954
24 3949
گاہ 3945
اقبال 3944
پہنچ 3944
مي@@ 3942
قدر 3940
ہار@@ 3940
بنگلہ 3939
ویل 3935
اعزاز 3934
ای 3934
دیش 3932
راج 3927
ژ@@ 3919
بنے 3918
مسائل 3904
ویسٹ 3903
شریک 3902
مجھے 3902
اضلاع 3898
21 3894
وار@@ 3892
7@@ 3887
پورے 3886
جارجیا 3878
ڈھ@@ 3878
22 3871
تسلیم 3868
ماہ 3857
مکہ 3856
پردیش 3851
عددی 3850
طویل 3844
یم 3835
قیادت 3832
کون@@ 3830
شہروں 3826
نبی 3817
بل 3815
بجائے 3814
ورلڈ 3813
جزیرہ 3805
وت@@ 3795
ایرانی 3793
8@@ 3792
ہسپانوی 3791
23 3789
واضح 3787
تقریبا 3780
ميں 3780
سردار 3779
9@@ 3777
پیر 3774
چاہیے 3774
ح 3772
ذمہ 3770
علوم 3770
کول@@ 3769
افریقہ 3767
اح@@ 3766
ولی@@ 3762
کلام 3759
قبیلہ 3758
ٹیکساس 3752
لکھی 3751
انگ 3746
عباس 3746
اُ@@ 3741
ہندی 3738
لحاظ 3737
نظاموں 3726
آل 3718
گور@@ 3718
نگار 3712
شہری 3711
پولیس 3707
فل@@ 3706
انتخاب 3704
کش@@ 3702
پایا 3701
شکار 3700
برو@@ 3698
موں 3698
چلا 3695
ري@@ 3694
ڈو@@ 3688
بلحاظ 3685
خلیفہ 3685
مقابلے 3683
والدہ 3680
مقبول 3676
ڑی 3676
آٹھ 3671
مور@@ 3671
تحریر 3657
اینڈ 3655
ہائی 3655
نمایاں 3654
کینیڈا 3650
اہمیت 3648
فرسٹ 3642
کتابیں 3641
چکا 3640
جاپان 3638
13@@ 3635
وطن 3635
ملکی 3634
محفوظ 3631
علما 3620
توجہ 3614
ﺎ@@ 3610
اہ@@ 3609
اقوام 3608
ڑا 3608
یورپی 3605
رکھتا 3601
مضامین 3601
صوبے 3596
مار 3596
ریکارڈ 3593
مسیح 3593
وادی 3589
مطلب 3587
فلمی 3586
گروہ 3586
حکمران 3585
ڈگری 3575
2@@ 3569
رہیں 3569
ایشیا 3559
وسکونسن 3559
ند 3556
بہتر 3555
مقامات 3555
ابھی 3552
لڑائی 3552
صحیح 3549
County 3545
مخصوص 3545
حیات 3544
مختار 3544
بچے 3543
نور@@ 3537
رہ@@ 3529
آتا 3528
گورنر 3528
پیمانے 3527
حقیقت 3526
تحقیق 3525
شیعہ 3523
نگر 3523
پور@@ 3522
ہمیشہ 3520
خ 3511
مر 3510
کردی 3508
زبانوں 3506
معاہدے 3506
ہجرت 3504
بنائی 3502
6@@ 3499
موسم 3498
وب@@ 3495
بیٹا 3494
2018 3492
نار@@ 3490
ريلوے 3489
دار@@ 3486
جسم 3485
ابراہیم 3482
اظہار 3482
یوسف 3481
مجموعہ 3473
شو@@ 3471
ماہر 3470
چھوٹی 3465
آتے 3455
وي@@ 3448
اسٹيشن 3446
پورا 3445
جان@@ 3443
لین 3443
اوسط 3442
ضروری 3442
شہرت 3441
e 3437
صحت 3435
عمارت 3431
انکار 3430
ممتاز 3429
اروں 3427
بلے 3426
نڈ 3422
مب@@ 3417
ذاتی 3416
معاہدہ 3416
سب@@ 3406
26 3405
ؒ 3401
لائن 3399
پہاڑ 3399
اق@@ 3396
لائ@@ 3394
چل 3393
عی@@ 3392
یارک 3392
ائی@@ 3387
نواب 3387
کنٹرول 3387
سمیت 3385
كي 3381
پیچھے 3376
معلومات 3375
سا@@ 3374
چیز 3374
مختصر 3370
نتیجہ 3369
بال 3367
گرد 3363
عیسوی 3361
قانونی 3361
طریقہ 3359
كے 3359
پروگرام 3359
ونی 3355
28 3353
نج@@ 3352
27 3348
نامہ 3347
خی@@ 3345
ورجینیا 3345
مبنی 3344
یات 3340
تباہ 3338
دولت 3337
شخصیت 3335
فو@@ 3329
ئی@@ 3328
مال 3327
روڈ 3326
زندہ 3324
پنجابی 3322
وے 3321
جنگی 3319
امی@@ 3318
اقتدار 3316
یونانی 3313
بیوی 3310
جہاز 3309
کہیں 3308
بری 3306
آیت 3304
انقلاب 3300
انی@@ 3300
کتابوں 3297
ٹے 3293
0ء 3290
رب@@ 3289
گل 3289
ثقافت 3288
باپ 3282
سارے 3282
واحد 3279
ڈو 3271
ظ@@ 3260
جائیں 3256
قہ 3254
برس 3251
ستان 3248
نصف 3247
انعام 3243
کھیلے 3242
District 3238
نیز 3237
طالب 3232
سعید 3228
دورہ 3226
اع@@ 3222
عبداللہ 3219
عرصہ 3218
بینک 3216
شہید 3212
الق@@ 3208
نسب 3202
ریاستوں 3199
ارہ 3194
سلسلے 3191
نش@@ 3191
حافظ 3188
آواز 3187
لیک 3187
پورٹ 3184
عرصے 3181
ہاں 3181
روانہ 3179
ك 3176
ایچ 3173
وَ@@ 3172
مان 3171
ملین 3169
تصور 3159
سٹی 3159
روم 3158
طرز 3157
ملتا 3154
محکمہ 3152
سان 3150
ڈن 3149
وال 3147
ط 3146
4@@ 3143
الع@@ 3143
بیت 3140
ولا 3137
کرا@@ 3137
پارک 3128
اوپر 3127
شرح 3127
لکھتے 3127
پروفیسر 3126
ایڈ@@ 3123
نما 3123
وق@@ 3123
تھی@@ 3118
بڑھ 3117
پہنچا 3117
پل 3115
مندرجہ 3114
کھیلا 3113
َ@@ 3110
نر 3109
بننے 3108
وجود 3106
ﺍ@@ 3106
0 3105
الحکومت 3101
عورت 3099
مطالعہ 3099
زور 3092
شرکت 3092
مق@@ 3088
منصوبہ 3083
ویب 3081
مرزا 3080
رن 3075
نیوزی 3075
ين@@ 3072
فرماتے 3070
چک 3070
تھ 3069
لنکا 3069
بھیجا 3068
14@@ 3062
ء@@ 3062
نمائندگی 3054
ہمارے 3053
وکٹیں 3052
کمی 3051
50 3050
باب 3050
اخبار 3048
اداکار 3044
تلاش 3042
سپ@@ 3036
اک 3035
سیزن 3035
بخش 3033
معاشی 3029
اصطلاح 3025
پائے 3025
رس 3024
نجی 3022
in 3021
بیعت 3021
حصوں 3015
سربراہ 3014
جاسکتا 3013
جنسی 3013
مدرسہ 3008
29 3006
ابتدا 3006
دریافت 2998
انتظام 2997
ثقافتی 2997
تن@@ 2995
سٹی@@ 2995
وف@@ 2995
سامنا 2993
قبائل 2991
روایات 2989
کہنا 2984
لیں 2983
ادی 2980
نقصان 2978
جل@@ 2977
استاد 2976
ڈر 2976
بان@@ 2972
فضل 2972
-@@ 2968
خبر 2968
ہیپلو 2968
اد 2967
اِ@@ 2966
تخت 2966
مشترکہ 2964
شدید 2962
تجارت 2961
خصوصی 2961
یاں 2961
رہتا 2958
زائد 2956
سبب 2956
امریکہ 2955
2019 2952
الج@@ 2952
بال@@ 2952
مرد 2950
آدمی 2948
رس@@ 2946
آئ@@ 2942
روایتی 2942
ندی 2941
ممکن 2940
بیس 2931
ڈز 2931
عہدے 2925
سالوں 2924
وم 2923
ترتیب 2922
لگایا 2921
کان 2920
عملی 2917
ائیں 2915
عثمان 2914
100 2913
فار@@ 2912
فقہ 2911
ازاں 2910
درس 2907
ادارے 2905
مجبور 2904
لان@@ 2898
اٹھ@@ 2896
ارا 2895
وو 2894
منٹ 2890
ہا 2889
اکبر 2887
کوٹ 2886
برقرار 2883
شاہ@@ 2883
بیشتر 2882
کیرولائنا 2879
مز@@ 2874
ویژن 2874
سون@@ 2872
وو@@ 2870
% 2868
شہنشاہ 2863
قاضی 2863
ناکام 2859
تشدد 2858
عدالت 2856
لان 2855
ُ@@ 2855
بدھ 2853
قید 2849
اگلے 2847
صوبائی 2846
اننگز 2845
1ء 2844
شیر 2844
کہ@@ 2844
2013 2842
ؤ 2842
مضبوط 2841
گرفتار 2839
پیشہ 2834
ؤ@@ 2832
خون 2831
کمیونٹی 2831
ونگ 2830
کس@@ 2827
طے 2824
دوم 2821
سہ 2820
نظ@@ 2819
بلوچستان 2815
حل 2815
تیز 2811
پرا@@ 2810
2ء 2803
دینا 2803
اسٹی@@ 2800
کرکٹر 2800
رضا 2798
نظم 2797
ّ@@ 2797
الا 2796
کام@@ 2796
ns 2793
رہنما 2791
تجارتی 2789
model 2788
اعلی 2785
دہشت 2785
کرو 2785
5ء 2782
پہنچے 2782
تعریف 2781
رکھ 2781
کمیٹی 2781
ڑے 2779
2,@@ 2776
کنارے 2774
حالانکہ 2773
کشی 2772
مخالف 2771
انٹرنیشنل 2768
format 2767
الب@@ 2766
0@@ 2765
بہار 2765
contributor 2764
timestamp 2764
مغل 2763
وابستہ 2763
9ء 2762
ص 2759
سائ@@ 2758
کوڈ 2758
لز 2755
فوجیوں 2753
ہاتھوں 2753
مند 2746
جیت 2745
مشکل 2742
راستے 2740
زمرہ 2737
انڈ@@ 2736
موضوع 2736
‌ 2736
کانگریس 2734
مص@@ 2731
لکھے 2730
روشنی 2729
شا@@ 2727
تفسیر 2726
کلب 2721
ہجری 2718
لوک 2715
شا 2714
حکمرانی 2705
ملاقات 2702
چر 2702
راہ 2699
سنی 2697
وہی 2697
مرا@@ 2695
مسوری 2695
نظریہ 2692
مستقل 2691
username 2686
طلبہ 2686
قی 2685
ملے 2679
بول@@ 2677
بہن 2676
سرحد 2674
بنگال 2670
br 2669
نامزد 2669
فیض 2665
موسیٰ 2665
رکھتی 2661
راجا 2660
شعبہ 2660
بي@@ 2658
گرا@@ 2656
خوش 2653
سابقہ 2652
حیدرآباد 2648
عطا 2648
تبدیلی 2647
نیٹ 2647
عل@@ 2646
ہار 2646
تع@@ 2644
دیتی 2644
رضی 2642
باغ 2639
مالی 2638
راست 2637
نیچے 2637
میچوں 2629
نوازا 2629
برابر 2628
شہ@@ 2628
ہوگئے 2628
آن 2627
40 2626
محدود 2625
ئ 2624
سکا 2619
بحیرہ 2618
جنہیں 2618
اختتام 2616
بارہ 2613
دیر 2612
پناہ 2612
دنوں 2611
12@@ 2610
ایا 2607
اعداد 2606
اباد 2602
سي@@ 2601
خیبر 2600
رائ@@ 2600
وان 2599
دینی 2596
میڈیا 2594
ورا 2594
دہ@@ 2593
واں 2590
یافتہ 2588
5@@ 2587
مبارک 2586
سان@@ 2583
سنت 2583
نسبت 2583
ذات 2582
انتظامی 2581
سزا 2581
منعقد 2581
الف@@ 2576
ني@@ 2576
ہوکر 2569
یمن 2569
لي@@ 2568
برگ 2567
تعالیٰ 2564
دوست 2563
مزار 2563
7ء 2562
میاں 2561
گیند 2560
میرا 2559
ساری 2557
بلدیہ 2555
کریم 2555
4ء 2552
ى 2551
6ء 2550
بور@@ 2548
2018ء 2547
mtDNA 2546
امور 2546
اؤ 2545
ود 2545
نزدیک 2544
انوں 2543
انگلستان 2542
آئین 2541
بالکل 2541
بنت 2540
جا@@ 2538
خطے 2536
ٹری 2534
جھیل 2532
فلسطین 2527
معمولی 2526
لہذا 2525
سلیمان 2523
مخالفت 2523
8ء 2520
آب 2520
دفاع 2520
اتے 2518
آتی 2516
2015 2515
مز 2514
مندر 2512
2013ء 2507
كا 2505
چلی 2503
comment 2502
لایا 2502
بورڈ 2501
دوں 2500
بیرونی 2499
وسط 2499
لائے 2497
2014 2496
فرق 2496
کون 2496
ارکان 2491
تنقید 2491
ملتان 2489
دعوت 2486
جامع 2484
کمال 2482
سکی 2481
and 2480
راستہ 2479
بازی 2478
تصنیف 2478
مدت 2475
جہ@@ 2473
حاضر 2473
گا@@ 2472
بیگم 2471
زہ 2470
وکٹ 2466
شن@@ 2465
ه 2463
نٹ@@ 2461
16@@ 2459
3ء 2459
آبشار 2457
الزام 2456
بازار 2456
اداکاری 2455
اتا 2454
پتہ 2451
اختلاف 2450
دفتر 2450
روک 2450
اشاعت 2449
1@@ 2446
31 2446
اداروں 2441
مجلس 2440
کارکردگی 2440
سعد 2438
ثانی 2437
حر@@ 2437
كي@@ 2437
حامل 2436
اوقات 2435
اصول 2432
سام@@ 2431
مثلاً 2431
تہ 2430
اص@@ 2429
اورا@@ 2429
تیسری 2428
ئن 2427
مقدس 2427
جاپانی 2426
سورج 2425
ملتی 2425
العلوم 2422
بحری 2422
شماری 2422
وزارت 2418
وف 2418
سنگ 2415
عبادت 2411
قر@@ 2409
تعاون 2408
Gmina 2404
پابندی 2404
پن 2403
تب 2402
رز 2402
ساز 2402
لقب 2397
شخصیات 2395
اخ@@ 2393
حضور 2392
جنھوں 2387
اندازہ 2386
ذرائع 2386
اکثریت 2385
پہ 2385
پیداوار 2379
ہند@@ 2379
ائن 2377
مضمون 2375
T@@ 2372
محسوس 2372
formula 2369
کثیر 2369
اعتبار 2365
فروغ 2364
لشکر 2364
منسلک 2364
چہ 2361
ٰ@@ 2356
ین@@ 2356
تخ@@ 2353
کوریا 2352
قوت 2349
بند@@ 2348
خطاب 2348
اقسام 2347
لگ 2345
مفتی 2344
مول@@ 2344
نام@@ 2343
آمد 2342
جیسی 2342
تخلیق 2339
سائٹ 2339
بزرگ 2338
گن@@ 2336
فیصل 2335
لیتے 2334
میہ 2332
ين 2330
گل@@ 2329
نیو@@ 2325
حقیقی 2321
لاس 2321
چیف 2320
شوہر 2318
2008 2315
لال 2315
نز@@ 2315
كو@@ 2314
کٹ@@ 2312
نائب 2311
مطالبہ 2304
دل@@ 2299
رہتی 2299
زر 2299
یک 2299
parentid 2298
داد 2298
دشمن 2298
کٹ 2298
َ 2297
جزائر 2296
جنس 2296
فکر 2296
سکھ 2295
اوائل 2294
ریاستی 2294
ونا 2293
تذکرہ 2291
زم 2291
ملازمت 2291
ووڈ 2291
ہوگی 2291
انگریزوں 2289
درخواست 2288
کے@@ 2284
نيو 2281
ﻣ@@ 2280
تک@@ 2278
ڈراما 2278
لر 2277
مردم 2276
اری@@ 2275
الن@@ 2275
سال@@ 2274
نشان 2274
الحق 2273
پہاڑی 2273
وز@@ 2272
مسلسل 2271
تہذیب 2270
رقم 2269
رک 2269
دفعہ 2264
ایئر 2262
اء 2259
2012 2257
علاقائی 2256
ریڈیو 2255
ایمان 2254
آذربائیجان 2253
شہادت 2253
منظور 2253
آگ 2246
محض 2246
آرمی 2245
نوا@@ 2243
آثار 2241
تشریف 2238
والدین 2238
اتر 2237
رون 2237
مقیم 2235
بابا 2233
وائ@@ 2233
2010 2232
سلی@@ 2232
15@@ 2231
ساحل 2231
ابھ@@ 2230
ملا@@ 2230
خان@@ 2229
چار@@ 2228
خوبصورت 2227
غازی 2226
مین@@ 2226
کوں 2226
الس@@ 2224
باقاعدہ 2224
تجویز 2223
اٹ@@ 2221
18@@ 2219
معاشرے 2219
پشاور 2217
4,@@ 2215
شان 2214
یقین 2214
سور@@ 2213
کلا@@ 2210
بغداد 2209
بلا@@ 2208
مُ@@ 2208
عنوان 2206
گار@@ 2205
آسٹریا 2204
خانے 2204
لوٹ 2204
چے 2204
خط@@ 2202
بورو 2201
عدم 2201
دست@@ 2200
چا 2200
ڈالر 2200
سار@@ 2197
عت 2197
الو@@ 2196
عثمانیہ 2196
مسیحی 2193
رپورٹ 2192
اچھی 2189
معاملات 2189
گرو@@ 2186
قدم 2183
پے 2182
کال@@ 2180
ٹوں 2178
جر 2177
تیزی 2175
لم 2175
زخمی 2174
x 2173
اکیڈمی 2171
رد 2170
قبیلے 2170
ڈویژن 2169
2017 2168
انڈین 2168
طریقے 2168
رت 2167
روحانی 2167
پزیر 2162
رہائش 2159
ؤں 2158
ماؤنٹ 2158
پال 2157
صحابہ 2156
2016 2155
شناخت 2153
تحفظ 2152
ﻮ@@ 2151
جارج 2148
سامان 2147
شو 2147
يا 2147
چاہتے 2147
ایئرپورٹ 2145
لف@@ 2144
گان 2141
بس 2136
٪ 2136
زا 2134
صنعت 2134
سونے 2133
میونسپل 2133
کھانے 2129
بالا 2128
بت 2128
شہرستان 2127
غور 2126
شاید 2125
جلال 2124
شمولیت 2123
پڑ@@ 2122
ہائے 2121
تب@@ 2120
3,@@ 2119
اکی@@ 2119
زن 2118
فروخت 2118
پتھر 2117
بخاری 2116
چر@@ 2116
خالد 2110
نکل 2108
آئیں 2104
دائیں 2104
صبح 2104
نسلی 2104
عمرو 2103
واپسی 2103
60 2102
بدر 2102
سٹن 2102
پالیسی 2101
صلاحیت 2099
صی@@ 2098
پھی@@ 2098
ورک 2096
ہمیں 2096
دربار 2095
گجرات 2095
دیکھنے 2094
سالہ 2094
تِ 2092
190@@ 2091
اطلاع 2089
تاج 2089
مے 2089
ٰ 2088
2011 2086
غالب 2085
نشانہ 2085
ہٹ 2085
حرکت 2084
ہری 2083
انس@@ 2081
ہزاروں 2081
فائدہ 2079
دارالحکومت 2073
بنو 2068
وش@@ 2065
ائر 2064
رخ 2064
سہ@@ 2064
براہ 2061
ـ 2061
مخ@@ 2061
بولی 2059
ٹورنامنٹ 2058
ڈیبیو 2058
اف 2057
2008ء 2056
شاخ 2055
لائی 2055
قیمت 2054
نوجوان 2053
جگ@@ 2052
بالآخر 2050
دھا 2050
زے 2049
مانی 2045
اتفاق 2044
اہ 2044
باب@@ 2042
بھی@@ 2042
روح 2037
سازی 2037
فارس 2036
موجودگی 2034
اسکور 2033
خصوصیات 2033
سوی@@ 2033
جانی 2032
حروف 2032
سفید 2032
رک@@ 2031
۱@@ 2031
آہستہ 2030
خوا@@ 2030
بدل 2029
یار 2028
الرحمن 2026
اڑ@@ 2026
داخلہ 2026
یکم 2024
ریل 2022
فا@@ 2020
ٹاؤنشپ 2020
آؤٹ 2019
بوں 2018
تصانیف 2018
جعفر 2016
تل@@ 2015
ساتھی 2015
ارے 2014
ﯿ@@ 2014
غلط 2013
پختونخوا 2012
بحر 2011
حفاظت 2011
ریوں 2011
لانے 2010
بچپن 2009
ست 2009
ملکہ 2008
سوال 2007
فلپائن 2007
مردوں 2007
کش 2004
ڈائریکٹر 2003
ہل 2002
یاد@@ 2001
فائز 2000
جیل 1999
ہوگئی 1999
بحث 1997
مغ@@ 1997
افغان 1996
کین 1996
ہوگیا 1996
قدرتی 1995
مقدار 1995
مائ@@ 1994
سرزمین 1993
وفاقی 1993
انڈیز 1992
متعارف 1992
نیویارک 1992
لن 1991
ممبئی 1989
فر 1988
نوبل 1987
تار@@ 1984
دستخط 1984
کوہ 1984
حج 1983
1.@@ 1982
رفتار 1981
مجھ 1981
میکسیکو 1981
اون@@ 1980
جدوجہد 1980
اپ 1979
ڈکوٹا 1979
کھا 1979
مسیسپی 1977
سمجھتے 1976
ریا 1975
سلیم 1973
آئرلینڈ 1972
وہیں 1972
ریڈ 1971
شوں 1970
مسلح 1970
پاشا 1970
اسماعیل 1969
اثرات 1968
یہودیوں 1968
بلوچ 1967
خواہش 1967
شعر 1967
یون@@ 1967
بکر 1966
دراصل 1966
ماؤنٹین 1965
تق@@ 1964
چرچ 1964
کہہ 1964
de 1963
علاج 1962
فورڈ 1960
ُ 1960
کپتان 1960
مَ@@ 1956
ادہ 1955
وڈ 1954
ٰی 1954
لیس 1953
ادی@@ 1952
سربراہی 1950
قوانین 1950
دورے 1949
تیسرے 1948
رسم 1947
تیس 1946
حملوں 1946
20@@ 1945
خاتمہ 1945
طر@@ 1945
17@@ 1944
مسئلہ 1944
ثبوت 1943
الت@@ 1942
فائ@@ 1942
بہادر 1940
ْ@@ 1937
ٹیوٹ 1937
کمیشن 1936
البتہ 1935
نان@@ 1935
اتنا 1934
لگ@@ 1934
منصوبے 1934
ڈال 1929
برصغیر 1928
عی 1928
رج@@ 1926
ندر 1926
شمس 1925
سٹر 1922
2020 1921
رانی 1921
نر@@ 1920
طی@@ 1919
متعلقہ 1917
کینٹکی 1917
بلی@@ 1916
جانوروں 1916
کور 1916
کولمبیا 1915
کربلا 1910
تصویر 1908
خاتمے 1908
قبرص 1908
احادیث 1907
تم@@ 1906
بو 1903
ترا@@ 1902
لَ@@ 1902
انت@@ 1901
قاسم 1901
اسرائیلی 1898
کنگ 1898
الجزائر 1896
عہ 1896
فورس 1894
آپریشن 1893
صوفی 1891
ماہرین 1891
کوفہ 1888
سندھی 1887
2009 1886
دری@@ 1886
دور@@ 1886
تکمیل 1885
وک 1883
کرلی 1880
پوچھا 1878
پیرس 1878
نگرانی 1875
عم@@ 1874
80 1873
کرایا 1870
فری 1868
کارروائی 1867
189@@ 1866
انگریز 1866
فہ 1865
حصول 1864
مارشل 1862
2007 1861
کرام 1858
طلب 1857
نیپال 1857
عورتوں 1855
اوی@@ 1854
تش@@ 1854
خوف 1854
پن@@ 1854
اَ@@ 1853
لکھ@@ 1852
مط@@ 1852
دلچسپی 1850
اؤں 1849
راہ@@ 1849
کمپیوٹر 1849
2019ء 1848
تص@@ 1848
کین@@ 1848
ہتھیار 1848
عمران 1847
سالانہ 1846
شار@@ 1846
منہ 1844
زر@@ 1841
فاطمہ 1841
عرض 1840
قطب 1840
کانفرنس 1840
خو@@ 1838
تیاری 1837
دری 1837
رومی 1837
صفحات 1837
گلی@@ 1837
باری 1836
تیل 1834
ضد 1834
اسک@@ 1833
خد@@ 1832
سنگ@@ 1832
دفن 1831
ٹل 1831
گرم 1831
200 1829
نواز 1828
پي@@ 1828
اسلامیہ 1826
ایل@@ 1826
شے 1826
ڑوں 1826
خوب 1825
سلا@@ 1825
نق@@ 1824
ائي 1823
دعا 1823
اتنی 1821
اشارہ 1820
پیک 1820
0.@@ 1817
انسٹی 1817
ماضی 1815
پرست 1815
مواد 1814
امی 1813
اٹلی 1813
دم 1813
زئی 1813
قل@@ 1813
معیشت 1813
آرکنساس 1812
ولا@@ 1812
سرخ 1811
مولوی 1811
فاصلے 1809
دادا 1808
5,@@ 1806
ﺮ@@ 1806
eh 1804
عنہ 1804
دیوی 1802
بیماری 1801
کاروبار 1801
خارجہ 1800
درست 1799
سوانح 1799
قط@@ 1799
گردی 1797
منظم 1796
الش@@ 1795
دیو 1795
سینٹر 1794
وت 1794
ٹیکنالوجی 1793
70 1792
بچ@@ 1791
عزیز 1789
سائنسی 1788
مرتب 1788
ستہ 1787
بائیں 1786
کوئ@@ 1786
سوں 1784
عائد 1784
ماحول 1781
نک 1780
h 1779
نیبراسکا 1778
آب@@ 1777
آپ@@ 1777
فرار 1777
اجلاس 1776
راج@@ 1776
شک@@ 1776
چاہتا 1776
یزید 1776
رب 1774
نظریات 1774
رکھے 1773
خاں 1771
La 1770
صاف 1770
پرستی 1770
35 1769
منی 1767
لکھنے 1766
چلتا 1766
مہاراشٹر 1765
2.@@ 1764
تصدیق 1763
دستیاب 1763
ران 1763
عروج 1762
قریبی 1761
سوار 1760
ﯽ 1760
نہ@@ 1759
گیت 1759
لکھنؤ 1758
بیل 1757
سرمایہ 1756
abad 1754
غزل 1754
قبضے 1754
ود@@ 1753
24@@ 1752
ہنگری 1752
188@@ 1751
اسٹیٹ 1751
انتظامیہ 1751
حاجی 1751
تفصیل 1750
کوس@@ 1750
جزیرے 1749
کٹر 1749
معاویہ 1748
بلا 1747
لار@@ 1747
وٹ 1747
ہمراہ 1747
لس 1746
مارے 1742
انوے 1741
اول@@ 1741
خفیہ 1741
فارم 1741
ووٹ 1740
آس 1739
ابہام 1739
رار 1737
یوم 1736
انہی 1735
عب@@ 1735
کورٹ 1734
لگی 1731
عہدہ 1729
حرارت 1727
بجلی 1726
ورا@@ 1722
ڈبلیو 1722
ساؤتھ 1720
معاشرتی 1720
آلہ 1718
جہ 1717
نقطہ 1716
اساتذہ 1715
ٹنگ 1715
شہریوں 1714
یونان 1714
ﺑ@@ 1713
اما 1712
ایسوسی 1712
باشندوں 1711
مارٹن 1711
اك@@ 1709
سپر 1709
منسوب 1708
توانائی 1707
پلا@@ 1707
مسعود 1704
احتجاج 1703
ایسٹ 1703
لڑکی 1703
23@@ 1701
روپے 1701
انصاف 1700
متحرک 1700
کرم 1700
انیس 1699
تری@@ 1699
سلام 1699
لیہ 1699
نامور 1698
ایشن 1696
سربیا 1694
2015ء 1693
برادری 1692
الص@@ 1691
فلوریڈا 1691
وضاحت 1691
2006 1690
نگاری 1690
پڑے 1690
احساس 1689
لي 1689
جیتا 1687
کم@@ 1687
موضوعات 1686
2021 1685
امداد 1685
لباس 1685
ٹھ 1685
بیچ 1684
کھانا 1684
گاندھی 1684
ریس 1683
انتخابی 1682
غ 1682
کہلاتا 1682
2016ء 1681
روشن 1678
بح@@ 1677
طالبان 1676
دروازہ 1674
پلی@@ 1674
سند 1673
گانے 1673
سنچری 1672
نتائج 1671
شیا 1670
ہل@@ 1670
بیک 1668
ٹرو@@ 1667
سک 1666
چاند 1666
وقوع 1664
کائنات 1664
ٹک 1663
پارلیمنٹ 1662
وین 1661
بون@@ 1660
ملنے 1659
اہتمام 1656
يو@@ 1656
ایشیائی 1655
دگی 1655
کاروں 1654
کھیلی 1654
سلوک 1652
500 1650
آنحضرتﷺ 1650
مصروف 1650
19@@ 1649
گرو 1649
فرد 1647
مظاہرہ 1647
نف@@ 1647
پان@@ 1647
گول@@ 1647
2014ء 1646
حمل 1645
سلو@@ 1645
مستقبل 1645
خطرہ 1643
an 1642
ریت 1642
تس@@ 1641
قلعے 1641
کھیلنے 1641
تھائی 1640
فرائض 1639
قص@@ 1639
وائٹ 1639
سروس 1638
تدریس 1636
حیدر 1635
روکنے 1635
قائد 1635
ریلویز 1634
کروڑ 1634
کھلاڑیوں 1633
27@@ 1631
ائیر 1629
جرسی 1629
امت 1628
ث 1628
زبردست 1627
صحافی 1626
خیر 1624
مپ@@ 1624
ہسپتال 1624
سڑک 1621
معیار 1621
ٹرز 1621
پھیل 1621
گھروں 1621
زون 1620
کمزور 1620
ریلیز 1619
محافظہ 1619
باد 1618
​ 1618
آنحضرت 1617
برج 1616
جنم 1615
مف@@ 1615
ملتے 1615
مٹی 1615
دکھائی 1614
توسیع 1612
ہال 1612
ادیب 1610
کھیلوں 1610
فرو@@ 1608
گفتگو 1608
گنج 1608
مہدی 1607
اسد 1605
قول 1605
درد 1604
دباؤ 1603
ماد@@ 1603
کلو 1602
چڑھ@@ 1601
کھو@@ 1600
امر 1599
2000 1598
بک 1597
طب 1597
قبرستان 1597
ﯾ@@ 1596
کوم@@ 1595
ئیر 1594
بھیج 1594
تہ@@ 1594
ستی 1594
راولپنڈی 1593
سیاہ 1593
سکیں 1592
ویلز 1592
کمیونسٹ 1592
خلیج 1591
45 1590
خر@@ 1590
جیکسن 1589
ایوان 1588
بالی 1587
Z 1586
ناتھ 1586
نکال 1586
گرام 1586
لن@@ 1584
وان@@ 1584
خواب 1582
بان 1581
طبی 1581
ہن@@ 1581
اشعار 1580
تجربہ 1580
آبائی 1578
زید 1578
کمانڈر 1578
28@@ 1576
دع@@ 1576
شوق 1576
نگی 1576
ڈالا 1576
آز@@ 1573
کھڑے 1573
تھیٹر 1572
پک@@ 1572
کروں 1572
6,@@ 1571
اؤ@@ 1571
درجے 1571
جناب 1570
حکمت 1570
مناسب 1570
یس 1570
2017ء 1569
ابی@@ 1569
ڈر@@ 1569
شعبے 1568
غریب 1567
وز 1567
تاب@@ 1566
نیم 1566
زبانیں 1565
بع@@ 1564
عقائد 1564
رشتہ 1563
لینا 1563
چن 1563
ناموں 1562
29@@ 1561
خاطر 1561
اندرونی 1559
ماڈل 1559
وہ@@ 1559
یے 1559
رجوع 1558
صادق 1558
مور 1558
دي@@ 1557
گون@@ 1557
برٹش 1556
بھاری 1556
درخت 1556
عامر 1556
الْ@@ 1555
ﮐ@@ 1555
ير 1553
پہلو 1553
عین 1552
فون 1552
کرلیا 1552
خراسان 1551
نافذ 1551
پول@@ 1551
خیل 1549
چلنے 1548
گرین 1548
جمال 1547
الے 1546
تف@@ 1546
ظلم 1546
شہ 1545
حزب 1544
نائ@@ 1544
دیکھتے 1543
فرا@@ 1541
مہارت 1541
گورنمنٹ 1541
آسان 1537
صح@@ 1537
عموماً 1537
الغ@@ 1536
ٹائ@@ 1536
داروں 1534
جموں 1533
پہ@@ 1533
پندرہ 1532
ہماری 1532
رَ@@ 1531
کوششوں 1531
الخ@@ 1530
پہنچ@@ 1530
ڈیم 1529
برعکس 1528
اختر 1527
الاباما 1527
زوال 1527
سرگرمیوں 1527
انج@@ 1526
دروازے 1526
اغ@@ 1525
جون@@ 1525
عباسی 1525
یادگار 1525
أَ@@ 1524
حکام 1524
شمالي 1524
في@@ 1524
ؔ 1523
جام@@ 1523
ڈنگ 1523
گھریلو 1521
الز@@ 1518
فت 1518
2011ء 1517
پال@@ 1517
آیات 1515
سیر 1515
ہاؤس 1514
a 1513
اسم 1513
سری@@ 1513
مارا 1513
ٹوئنٹی 1513
چچا 1512
باس@@ 1510
بولنے 1510
پہنچنے 1510
شریعت 1509
شہزادہ 1509
قب@@ 1508
پٹ@@ 1508
کابل 1506
انجمن 1505
حدود 1505
زوں 1505
s 1504
صدیوں 1504
غی@@ 1504
لیوں 1504
ویل@@ 1504
4.@@ 1503
کرنسی 1503
پائ@@ 1502
فلمیں 1501
پا@@ 1501
3.@@ 1500
آسانی 1499
اصلاح 1499
جین 1499
ڈین 1499
دعویٰ 1498
اردن 1497
کہنے 1496
مزاحمت 1495
بِ@@ 1494
تج@@ 1494
پڑی 1494
ڈری@@ 1493
ﺎ 1493
انقلابی 1492
تمہارے 1492
حبیب 1491
حکیم 1491
امین 1490
علی@@ 1490
الله 1489
فلسفہ 1488
ڑہ 1488
سکول 1487
مراکش 1487
ٹنے 1487
جائزہ 1486
صحابی 1486
پرانے 1486
اقدامات 1485
يل 1484
ڈیل 1484
مصری 1483
جانور 1481
سیرت 1481
زي@@ 1480
+ 1479
اسحاق 1479
بلغاریہ 1479
تینوں 1479
90 1478
بت@@ 1478
جہاد 1478
تمل 1477
صوبوں 1477
دہی 1476
اوا 1475
بشمول 1475
نادر 1475
ارشاد 1474
مجید 1474
چل@@ 1474
ایک@@ 1473
ریاضی 1473
معاون 1473
کاموں 1473
کوچ 1473
شر 1471
وری@@ 1471
بیگ 1470
زار 1470
مہینے 1470
میک 1468
چھی@@ 1468
نشر 1467
آن@@ 1466
راؤ 1466
ناک 1466
300 1465
اعتماد 1465
حاکم 1465
میر@@ 1465
ناصر 1464
تَ@@ 1463
مس 1463
سوسائٹی 1462
شت 1460
کیوبک 1460
کولوراڈو 1459
wiki 1458
استنبول 1458
حی 1458
غز@@ 1458
وب 1457
سنسکرت 1456
خی 1454
علا@@ 1454
فار 1454
فرمائی 1453
لات 1453
يہ 1453
لينڈ 1452
یر@@ 1451
امید 1450
انڈونیشیا 1450
جسمانی 1449
text 1448
تحقیقی 1448
6.@@ 1446
گیارہ 1446
رسائی 1445
عشق 1445
افسر 1444
فائنل 1444
فرزند 1444
شک 1443
فیصلے 1443
187@@ 1442
ونیا 1442
سکندر 1441
مو 1441
نیوز 1440
سين 1439
آسٹریلوی 1438
افریقی 1437
وکٹوریہ 1437
راس 1435
سُ@@ 1435
قبر 1434
تیسرا 1433
خیالات 1433
ندہ 1433
اصلاحات 1432
حکمرانوں 1432
محنت 1432
مشن 1432
مقاصد 1432
شاندار 1431
عائشہ 1431
1,0@@ 1428
رق@@ 1428
رہنماؤں 1428
قلم 1428
چھو@@ 1428
5.@@ 1427
Rural 1427
اسکواڈ 1427
مری@@ 1427
شاگرد 1426
وبی 1426
پیغام 1426
اکرم 1425
تور@@ 1425
سمجھ 1425
ولیم 1425
پڑھنے 1425
کمار 1425
2005 1422
رومانیہ 1422
غرض 1422
نوٹ 1422
بمطابق 1421
عَ@@ 1421
ومی 1421
کامل 1421
مسل@@ 1420
ممکنہ 1420
اط@@ 1419
حساب 1419
اوریگون 1418
رواج 1418
بلی 1417
دعوی 1417
یک@@ 1416
ارادہ 1415
فور@@ 1414
ہا@@ 1414
32 1413
ائیوں 1413
انڈيانا 1413
امیدوار 1412
عزت 1411
فرقہ 1410
كر@@ 1410
نے@@ 1409
30@@ 1408
شائر 1408
محلہ 1408
مہر 1408
یور@@ 1408
جانشین 1407
تعارف 1406
پانے 1405
کُ@@ 1405
ہیمپشائر 1405
2009ء 1404
ٹینیسی 1404
معاملہ 1403
توڑ 1402
7,@@ 1401
فق@@ 1401
نت 1401
اصحاب 1399
بڑھ@@ 1399
جناح 1399
درا@@ 1399
مات 1399
مد 1399
امتحان 1398
مری 1398
انیہ 1397
اِن 1397
باضابطہ 1396
شور 1396
33 1395
نازل 1394
26@@ 1393
حوصلہ 1393
محدث 1393
2004 1392
وزن 1392
زیارت 1391
تری 1390
علماء 1390
زب@@ 1389
سول 1389
گروہوں 1387
آندھرا 1386
فوری 1386
L@@ 1385
نڈر 1385
2012ء 1384
revision 1384
186@@ 1383
اعتراف 1383
جار@@ 1382
لکھ 1382
wikitext 1381
ارب 1381
داس 1381
معاملے 1381
نارتھ 1379
گلو@@ 1379
ؑ 1378
بم 1378
مون 1378
شین 1376
لڑ@@ 1376
یہود 1376
داؤد 1375
سکور 1375
صدیق 1375
1990 1374
اطالوی 1374
تبلیغ 1373
مقدمہ 1373
عمر@@ 1372
مند@@ 1372
ناقابل 1372
پہاڑوں 1372
تقریب 1371
جوش 1371
صف@@ 1370
9.@@ 1369
خطوط 1369
شدت 1369
عمان 1369
گوئی 1369
دیہ 1367
ڈرامے 1367
اوہائيو 1366
قادری 1366
ض 1365
امہ 1364
دیوار 1364
پیپلز 1363
اني 1362
رقص 1361
اچھا 1360
دُ@@ 1360
پرورش 1360
ونی@@ 1358
ﺭ@@ 1358
عراقی 1357
2020ء 1356
قریش 1356
مینار 1356
پاس@@ 1355
بلدیات 1354
پیری 1354
2007ء 1352
انِ 1352
زراعت 1352
34 1351
تصوف 1351
شرف 1351
اث@@ 1350
ye 1349
روا@@ 1349
بھگ 1348
پڑتا 1348
نم@@ 1347
2010ء 1346
36 1346
لون@@ 1346
کارکن 1346
بوس@@ 1344
ساز@@ 1344
ٹي 1344
پانچویں 1344
‎ 1344
عبرانی 1343
خاندانی 1341
صنعتی 1341
مساوات 1341
ورڈ 1341
فا 1339
منافع 1339
بنگالی 1338
جرم 1338
پشتو 1338
ماس@@ 1337
مداخلت 1337
مشورہ 1337
منصور 1337
ہوگئیں 1337
ﮧ 1337
رف@@ 1336
معین 1336
جوا@@ 1335
سوا 1334
75 1333
لیتا 1333
عبور 1332
لگتا 1332
انصاری 1331
مکان 1331
ڈیزائن 1331
گھنٹے 1331
سون 1330
نان 1330
25@@ 1329
مذاہب 1329
آئی@@ 1328
جنت 1326
روی 1326
لہ@@ 1326
بوسنیا 1325
township 1324
جد 1324
سي 1324
پار 1324
پریس 1324
کیفیت 1324
اچھے 1321
غزوہ 1321
نبوی 1321
امیہ 1320
محمد@@ 1320
چارلس 1320
گری 1320
ہارون 1320
سل 1317
انور 1316
ملکیت 1316
نکاح 1315
بڑھا 1314
تہران 1314
حہ 1314
دان@@ 1314
نیک 1314
نگٹن 1313
امارات 1312
حامی 1312
گار 1312
ائل 1311
وصول 1311
ممبر 1309
نل 1309
ير@@ 1309
بچ 1308
روزنامہ 1307
عش@@ 1307
پون@@ 1307
کھ 1307
ہرا 1307
دائرہ 1306
سط@@ 1305
مونٹانا 1305
گنی 1305
وسائل 1304
اٹھایا 1303
* 1302
شمار@@ 1302
اسٹیڈیم 1301
ریاستیں 1301
مرحوم 1301
سلم 1300
کاس@@ 1300
سرا@@ 1299
ظفر 1299
فرما 1299
کھو 1299
گھرانے 1299
اقتصادی 1298
انو@@ 1298
کاروباری 1298
رنگ@@ 1296
1947ء 1295
الينوائے 1295
سم 1295
آکر 1293
بلو@@ 1293
لبنان 1292
جنگل 1290
ساتھیوں 1289
چندر 1289
ڈائ@@ 1289
گوشت 1289
ہائ@@ 1289
ﺳ@@ 1289
خواہ 1288
سیوں 1288
مرض 1288
7.@@ 1287
سادہ 1287
شراکت 1287
ناگ@@ 1287
دیہی 1286
ماسٹر 1286
لت 1285
پرچم 1284
عمومی 1283
مرو@@ 1283
نوعیت 1283
چالیس 1283
آور 1282
تح@@ 1282
رومن 1282
پرانی 1281
2006ء 1280
اتحادی 1280
سسٹم 1280
مقبرہ 1279
ٹھی 1279
9,@@ 1278
اخلاق 1278
اق 1278
لائنز 1278
ﮯ 1278
الحسن 1277
پہچان 1277
خراب 1276
سبھا 1276
ماسکو 1276
وفد 1276
یقینی 1276
سین@@ 1275
ہیڈ 1275
ﻨ@@ 1275
اذ@@ 1274
خالی 1274
مقبولیت 1274
الد@@ 1273
الف 1273
الہ@@ 1273
بحریہ 1273
سمجھ@@ 1273
فَ@@ 1273
قو@@ 1273
ہوا@@ 1272
نشین 1271
دمشق 1270
سنا 1270
ﻭ@@ 1270
55 1269
بھائیوں 1269
فضائی 1268
امتیاز 1267
برازیل 1267
برقی 1267
رحمہ 1267
نین 1267
پریفیکچر 1267
چاندی 1267
کنیت 1267
کیسے 1267
The 1266
آرٹ 1266
اعزازات 1266
ہول@@ 1266
شعرا 1265
طبیعیات 1264
پڑ 1264
قابو 1263
بد 1262
چینل 1259
کاپ@@ 1258
تباہی 1255
دکھایا 1255
چوتھی 1255
کثرت 1254
گیس 1254
ائمہ 1252
اڈ@@ 1251
بڑھتی 1251
بائی 1250
آدم 1249
ترمیم 1249
سٹھ 1249
عر@@ 1249
ماتحت 1249
میڈیکل 1249
کئے 1249
آغا 1248
جم@@ 1248
محاصرہ 1248
نیل 1247
وآلہ 1247
یحییٰ 1247
پیغمبر 1246
رائج 1245
یار@@ 1245
انسانوں 1244
الر@@ 1243
بلیک 1243
دکن 1243
کشن 1243
آپس 1242
ازبکستان 1242
جیمز 1242
ضرور 1242
جمہوری 1241
رض@@ 1241
بَ@@ 1240
بچہ 1240
پیٹ 1239
رمضان 1238
مانا 1237
پڑھا 1237
38 1236
آمدنی 1236
خوشی 1236
کریک 1236
بستی 1235
ورو 1235
تنگ 1234
ں@@ 1234
ارد 1233
دست 1233
پچاس 1233
گناہ 1233
گنا 1232
K@@ 1230
منڈی 1230
ہوجاتا 1230
دون@@ 1229
لِ@@ 1229
دیو@@ 1228
سفیر 1228
وعدہ 1228
یہیں 1228
احترام 1227
عناصر 1227
کھی@@ 1227
علمائے 1226
عقیدہ 1225
نبوت 1225
8.@@ 1224
برف 1224
نمائش 1224
وائی 1224
ارت 1223
تي 1222
سیف 1222
42 1221
زرعی 1221
چوں 1221
گول 1221
افریقا 1220
برا 1220
فارغ 1220
فوجوں 1220
مواقع 1220
ّ 1219
2003 1218
8,@@ 1218
شری@@ 1218
بازو 1217
جہلم 1217
مسترد 1217
ٹیکس 1217
2004ء 1216
وجوہات 1216
جنوبي 1215
خطہ 1215
رسالہ 1215
الاسلام 1214
جوہر 1214
مستحکم 1214
کاش@@ 1214
ئل 1213
بھٹو 1213
ﻧ@@ 1213
انٹرنیٹ 1212
روابط 1212
اون 1211
سپرد 1211
ئم 1210
ویلی 1210
37 1209
ﺗ@@ 1209
انانکارپوریٹڈ 1208
دودھ 1208
سافٹ 1208
ٹور@@ 1208
دہلوی 1207
گز@@ 1207
سمت 1206
ابو@@ 1205
دِ@@ 1205
ائیاں 1204
ارک 1204
مجمع 1203
اوکلاہوما 1202
تقریر 1201
لڈ 1201
رکھنا 1200
قت 1200
لنگ 1200
شب 1199
منفرد 1199
کھڑا 1199
بندرگاہ 1198
تنظیموں 1198
سنی@@ 1196
سکھوں 1196
ویڈیو 1196
بھاگ 1195
تنازع 1195
صد@@ 1195
جنگوں 1194
رحمت 1193
منزل 1193
پارلیمان 1193
آسمان 1192
اشیاء 1192
بش@@ 1192
سمی@@ 1192
سوم 1192
سے@@ 1192
ابوال@@ 1191
بحال 1191
دوسروں 1191
خصوصیت 1190
دیکھیے 1190
سبز 1190
اٹھا 1189
تحقیقات 1189
پت 1189
گائے 1189
حکومتی 1187
کلاسیکی 1187
اسپین 1186
ڈیرہ 1186
کنگ@@ 1186
بادشاہت 1185
رسوخ 1185
فوراً 1185
معیاری 1185
انیوں 1184
بارش 1184
دیوان 1184
رُ@@ 1184
طاقتور 1184
65 1182
اند@@ 1182
سرگرم 1182
ایوب 1181
باہمی 1181
ایڈیشن 1180
بیرون 1180
رابطہ 1180
جانتے 1178
فاتح 1178
پوسٹ 1178
ہور@@ 1178
برہ@@ 1177
زین 1177
ﺟ@@ 1177
بحالی 1176
خلی@@ 1176
زو@@ 1175
یروشلم 1175
ورہ 1174
کہتا 1174
d 1173
متن 1173
غم 1172
مِ@@ 1172
داد@@ 1171
عالیہ 1171
پڑھ 1171
ادائیگی 1170
لل@@ 1170
فل 1168
مساجد 1168
وسی 1168
ویوں 1168
ﻠ@@ 1168
ران@@ 1167
ﺩ@@ 1167
ملکوں 1166
400 1165
بصرہ 1165
بنانا 1165
دیوبند 1165
سماج 1165
فض@@ 1165
مورخین 1165
تعلیمات 1164
یوکرین 1164
1990ء 1163
افسانہ 1163
بھو@@ 1163
کرا 1163
محبوب 1162
سما@@ 1161
ملی@@ 1161
نسی 1161
ہسپانیہ 1161
الط@@ 1160
2002 1159
انو 1158
قد@@ 1158
پہنچی 1158
کابینہ 1157
تصاویر 1156
حرف 1156
فعال 1156
یری 1156
سور 1155
نت@@ 1155
وصال 1155
بط@@ 1154
فعل 1154
لکڑی 1154
S@@ 1153
اولین 1153
راضی 1153
سکی@@ 1153
روز@@ 1151
لائبریری 1151
2005ء 1150
47 1150
لڑکے 1150
چودہ 1150
ﺮ 1150
39 1149
A@@ 1149
شامی 1149
شنل 1149
عصر 1148
لڑکیوں 1148
وول@@ 1148
پاكستان 1148
جغرافیائی 1147
لڑنے 1147
ٹیوں 1147
44 1146
48 1146
اخذ 1146
جاوید 1146
داستان 1146
ري 1146
منی@@ 1146
ٹھا 1146
1980 1145
انٹر@@ 1145
مرکوز 1145
دي 1144
پھول 1144
الک@@ 1143
فراہمی 1143
مینی@@ 1143
وبا 1143
تون@@ 1142
حیرت 1142
چکوال 1142
کری 1142
الملک 1141
جم 1141
محاذ 1141
کیر@@ 1141
یاتی 1141
اشرف 1140
صدارتی 1140
قرض 1140
متبادل 1140
پل@@ 1140
52 1139
مات@@ 1139
نشست 1139
چیئرمین 1139
عن@@ 1138
َّ@@ 1138
انس 1137
پڑھ@@ 1137
گاڑی 1136
بیٹنگ 1135
مرک@@ 1135
منگ 1135
کاؤنٹیاں 1135
سع@@ 1134
سفیان 1134
چیت 1134
صدیقی 1133
طلاق 1133
ویک 1132
پچ@@ 1132
سك@@ 1131
جذبات 1130
سنیما 1130
عارضی 1130
رضوی 1129
سیٹ 1129
41 1128
بحرین 1128
مانہ 1128
مشرف 1128
پسندوں 1128
گوا@@ 1128
زیریں 1127
قطر 1127
ڑھ@@ 1127
اش 1126
ربیع 1126
قبائلی 1126
ھا 1126
185@@ 1125
راجہ 1124
سز@@ 1124
سعود 1124
سند@@ 1124
منایا 1124
باتیں 1123
عربوں 1123
مہیا 1122
کالم 1122
ایکٹ 1120
تنازعات 1120
منصب 1120
منفی 1120
شراب 1118
فخر 1118
في 1118
ہرات 1118
خشک 1117
سپی@@ 1117
موسی 1117
43 1116
اہے 1116
جمعہ 1116
طریقوں 1116
ٹوٹ 1116
١@@ 1115
کمیون@@ 1115
حالیہ 1114
ہوجاتی 1114
اٹک 1113
جوہری 1113
فرض 1113
ﭘ@@ 1113
M@@ 1112
ملائیشیا 1112
پورہ 1112
این@@ 1110
لگانے 1110
وند 1110
85 1109
رش@@ 1109
عمدہ 1109
ٹون@@ 1109
58 1108
ڈچ 1108
کپور 1107
وش 1106
پیار 1106
ہیرو 1106
آتش 1105
اتحادیوں 1105
بوس 1105
پبلک 1105
محروم 1104
کروایا 1104
گیم 1104
اڈے 1103
رح@@ 1103
واس 1103
وي 1103
ﻤ@@ 1103
مہاجرین 1102
نکلا 1102
ویتنام 1102
ہے@@ 1102
اخبارات 1101
اسلحہ 1101
خاک 1101
خوراک 1101
عقیدت 1101
راوی 1100
مشي 1100
پھانسی 1099
حسب 1098
ولہ 1098
پردہ 1098
بائبل 1097
المعروف 1095
دانوں 1095
46 1094
بنا@@ 1094
سرور 1094
فت@@ 1094
لک 1094
کلو@@ 1094
گس 1094
آرٹس 1093
بہاؤ 1093
تہوار 1093
راء 1093
فوت 1093
بمبئی 1092
جنازہ 1092
مائی 1092
بیر 1091
واٹر 1090
چک@@ 1090
2021ء 1089
واقعے 1089
جایا 1088
سمندری 1088
ویر 1088
العزیز 1087
بُ@@ 1087
خارج 1087
عبید 1087
وائرس 1087
گیری 1087
تیرہ 1086
چاروں 1086
کلی 1086
ناٹ 1085
ٹاونشپ 1085
آئینی 1084
بھرپور 1084
علیحدگی 1084
ڈالی 1084
ہہ 1084
ا- 1083
اسلا@@ 1083
برداشت 1083
برسوں 1083
بٹ 1083
ساتویں 1083
ظاہری 1083
ہیلی 1083
اُسے 1082
جماعتوں 1082
شمسی 1082
فرم@@ 1082
فنون 1082
قیس 1082
سورت 1081
عسکری 1081
لازمی 1081
وک@@ 1081
پوزیشن 1081
ar 1080
دفاعی 1080
مانے 1080
نائی 1080
وید 1080
گلی 1080
حرام 1079
رحمۃ 1079
34@@ 1078
سہولت 1078
تعینات 1077
نعت 1077
ذی@@ 1076
سیل 1076
شاہراہ 1075
صالح 1075
آلات 1074
اختیارات 1074
امان 1074
مارکیٹ 1074
میوزک 1074
کمان 1074
منورہ 1073
یل@@ 1073
بحران 1072
دھ 1072
ڈالنے 1072
احکام 1071
سرے 1071
گلوکار 1071
نم 1070
آنکھوں 1069
ریجنل 1069
گزر 1069
جگہوں 1068
مث@@ 1068
منظوری 1068
يں 1068
گویا 1068
ترا 1067
شاہد 1067
عبدالرحمن 1067
عیسائی 1067
وقف 1067
چاہ@@ 1067
سوچ 1066
ابشار 1065
بادشاہوں 1065
دکھ@@ 1065
ناروے 1065
کیمپ 1065
کیو 1065
57 1064
ایجاد 1064
گرامی 1064
ماخذ 1063
نمونہ 1063
پنسلوانيا 1063
1945 1062
اوی 1062
حارث 1062
حضرات 1062
سولہ 1062
کالونی 1062
54 1061
صوبهٔ 1061
میڈی@@ 1061
2001 1060
محقق 1060
دلیل 1059
پھیلا 1059
اض@@ 1058
طبقے 1058
القرآن 1057
قم 1057
مقابلوں 1057
دراز 1056
چیک 1056
184@@ 1055
33@@ 1055
اخلاقی 1055
لف 1055
پولی@@ 1055
کنی@@ 1055
ایوارڈز 1054
کات@@ 1054
ایڈیٹر 1053
باشندے 1053
بگ@@ 1053
خانقاہ 1053
P@@ 1052
on 1052
شل 1052
میوزیم 1052
ٹین 1052
آصف 1051
ئي 1051
چند@@ 1051
یعقوب 1051
53 1050
محرم 1050
ظہور 1049
عجائب 1049
مونٹ 1049
جرائم 1048
جہازوں 1048
کیلئے 1048
بجے 1047
بس@@ 1046
نسخہ 1046
گاوں 1046
نژاد 1045
عمری 1044
کپڑے 1044
گانا 1043
مایا 1042
مفہوم 1042
وارڈ 1042
95 1041
روپ 1041
سادات 1041
پیش@@ 1041
ہفتہ 1041
خرچ 1039
مصنفین 1039
چیزوں 1039
جنگ@@ 1038
صلح 1038
چاہے 1037
56 1036
مي 1036
مڈ@@ 1036
ھی 1036
2000ء 1035
الان@@ 1035
جوان 1035
درہ 1035
شور@@ 1035
مک 1035
گھوڑے 1034
ref 1033
باد@@ 1032
عبدالعزیز 1032
عصمت 1032
فن@@ 1032
مبتلا 1032
مثبت 1032
پیروی 1032
49 1031
آفس 1030
صحافت 1030
الت 1029
جیتنے 1029
رجحان 1029
مادہ 1029
2002ء 1028
to 1028
تنازعہ 1028
حج@@ 1028
خت@@ 1028
عات 1028
مراکز 1028
مڈل 1028
جي@@ 1027
فیروز 1027
مریم 1027
ولید 1027
آی@@ 1026
ڈیا 1026
ریز 1025
شرائط 1025
فطرت 1025
ءمیں 1024
عمرؓ 1024
Ch@@ 1023
آرمینیائی 1023
ورانہ 1023
بول 1022
سارا 1022
61 1021
B@@ 1021
مرے 1021
انعقاد 1020
راک 1020
فے 1020
لڑی 1020
وما 1020
1980ء 1019
تجزیہ 1018
ریاض 1018
فرمان 1018
مشکلات 1018
مظفر 1018
ٹرافی 1018
گراؤنڈ 1018
Q@@ 1017
تالیف 1017
تیوں 1017
جد@@ 1017
سپریم 1017
محیط 1016
وین@@ 1016
کاشت 1016
طاقتوں 1015
میساچوسٹس 1015
گریجویشن 1015
ھو 1015
انگلش 1014
سویڈن 1014
فال@@ 1014
يم 1014
ابوبکر 1012
دلی 1012
مذکورہ 1012
کوئٹہ 1012
72 1011
مشیر 1011
کیپ 1011
y 1010
فلسطینی 1010
تازہ 1009
خاندانوں 1009
فیڈریشن 1009
قاری 1009
اء@@ 1008
سنچریاں 1008
شری 1008
نامے 1008
ٹي@@ 1008
کرناٹک 1008
کرنل 1008
۲@@ 1008
راز 1007
فاؤنڈیشن 1007
نجات 1007
امکان 1006
وح@@ 1006
ْ 1006
کیتھولک 1006
ہوم 1006
دِ 1005
میت 1005
پروڈیوسر 1005
بون 1004
رکھ@@ 1004
چان@@ 1004
انڈر 1003
لسٹ 1003
چون@@ 1003
عط@@ 1002
G@@ 1001
انیسویں 1001
تن 1001
ناد@@ 1001
... 1000
پسندی 999
کرداروں 999
ایجنسی 997
کلکتہ 997
استفادہ 996
ترجیح 996
سینئر 996
قصبے 996
مشاہدہ 996
مينيسوٹا 996
وانی 995
51 994
کویت 994
اتھ 993
اطراف 993
تیمور 993
جہانگیر 993
راجپوت 993
شعبوں 993
2001ء 992
جوں 992
عوض 992
عید 992
ہان 992
افسران 991
انگیز 991
رہنمائی 991
صلاحیتوں 991
اقدام 990
رل 990
عز@@ 990
مخدوم 990
چھوڑ@@ 990
ید 990
64 989
D@@ 989
ربی 989
شعری 989
H@@ 988
جہان 988
صفحہ 988
وقار 988
زن@@ 987
علاحدہ 987
فیئر 987
قرا@@ 987
پتی 987
تبادلہ 985
رشید 985
مجموعے 985
نن 985
پین 985
صد 984
نما@@ 984
وکیل 984
چنے 984
افزائی 983
تیلگو 983
سفارتی 983
طاہر 983
کیچ 983
باز@@ 982
فنی 982
مذاکرات 982
88 981
اجتماعی 981
ارات 981
دیکھی 981
مسیحیت 981
چوتھے 981
وارث 980
واقف 980
کوی@@ 980
2003ء 979
مبر@@ 979
مرحلے 979
کٹی@@ 979
اسپی@@ 978
اٹھارہ 978
بروز 978
زمینی 978
لاتے 978
نگا 978
دخل 977
رسمی 977
ریسرچ 977
اين 976
بدولت 976
فاصلہ 976
پو 976
86 975
بیٹھے 975
حکومتوں 975
انفرادی 974
سرحدی 974
لہٰذا 974
نفس 974
ٹیک 974
بچانے 973
تد@@ 973
نج 973
وکٹوں 973
گولی 973
رائل 972
سانتا 972
طبقہ 972
68 971
اجی 971
اکی 970
شرط 970
نٹس 970
ولے 970
ٹک@@ 970
ٹیموں 970
پیرو 970
87 969
برلن 969
لائٹ 969
ہے- 969
خرید 968
1970ء 967
ایت 967
بائ@@ 967
بیٹوں 967
زمبابوے 967
مالا 967
فین 966
کیل 966
ینی 966
رز@@ 965
سہولیات 965
طل@@ 965
فتوحات 965
قائ@@ 965
اضافی 964
سول@@ 964
مرہ 964
مِ 964
ہن 964
آرام 963
سورہ 963
شیں 963
ﮨ@@ 963
انٹرویو 962
دیوتا 962
سرو@@ 962
عالم@@ 962
کوششیں 962
— 962
افی 961
ایئر@@ 961
خیز 961
ستر 961
ہتھیاروں 961
اراکین 960
شعور 960
فورسز 960
یز 960
عارف 959
ڈي@@ 959
دماغ 958
قدیمہ 958
وك@@ 958
آرڈر 957
قسطنطنیہ 957
کمی@@ 957
گیر 957
ہيں 957
ئر@@ 956
الرحمٰن 956
اچانک 956
لم@@ 956
احاطہ 955
سعادت 955
فاضل 955
وع@@ 955
اترپردیش 954
الل@@ 954
انڈی@@ 954
اگر@@ 954
ترکوں 954
شہزادی 954
قرون 954
مرشد 954
1970 953
J@@ 953
یرہ 953
لمبائی 952
مظ@@ 952
مہمان 952
63 951
66 951
قَ@@ 951
ھے 951
جیو 950
حمید 950
96 949
سیل@@ 949
فاروق 949
نسن 949
62 948
بیر@@ 948
درمیانی 948
سپر@@ 948
كھ@@ 948
جب@@ 947
شکر 947
عجیب 947
سفارت 946
پچھلے 946
1992 945
سلمان 945
سود 945
سینی@@ 945
لون 945
لیٹ 945
پاؤں 945
انکا 944
بالخصوص 944
بیٹھ 944
تلوار 944
چشتی 944
1991 943
تناسب 943
جاسکے 943
جغرافیہ 943
جمہوریت 943
سالار 943
1948ء 942
1999 942
92 942
باؤلنگ 942
باغی 942
بنتا 942
ریٹ 942
متوفی 942
ٹہ 942
ازی 941
تي@@ 941
علي 941
مظہر 941
ٹاور 941
مذ@@ 940
ورثہ 940
پرویز 940
اتنے 939
جوزف 939
سنائی 939
فقیہ 939
ادات 938
سَ@@ 938
چوٹی 938
کرنی 938
انحصار 937
يو 937
الاس@@ 936
تحری@@ 935
موبائل 935
اطلاعات 934
زیاد 934
لک@@ 934
چترال 934
67 933
ادھ@@ 933
الحدیث 933
سترہ 933
مذکور 933
پکڑ 933
ہاشم 933
یونس 933
ایام 932
سکونت 932
طبع 932
لغت 932
مؤ@@ 932
میگزین 932
منگ@@ 931
جاسکتی 930
جسٹس 930
ہندوؤں 930
تعالی 929
داخلی 929
حرم 928
زیوں 928
سلامتی 928
کہلاتے 928
اٹ 927
چلانے 927
بز@@ 926
قریشی 926
قیامت 926
کت@@ 926
آگیا 925
بغ@@ 925
ریٹائرمنٹ 925
عظمت 924
مورخ 924
کہانیاں 924
1960 923
93 923
99 923
بہاولپور 923
شافعی 923
شیو 923
کوش@@ 923
ماہی 922
تاہے 921
زند@@ 921
سیالکوٹ 921
عقل 921
عیسیٰ 921
محسن 921
ناز 921
نوجوانوں 921
پُ@@ 920
1950 919
بخ@@ 919
صدارت 919
مدیر 919
تیر 918
جملہ 918
صاح@@ 918
ضبط 918
قد 918
Municipality 917
قدرت 917
زمان 916
صنف 916
طوفان 916
غزنوی 916
مراٹھی 916
عص@@ 915
گاہوں 915
74 914
بناتے 914
بھال 914
وسكونسن 914
بیسویں 913
ذہن 913
فرید 913
فضائیہ 913
مزاحیہ 913
59 912
الخط 912
ٹيكساس 912
حفظ 911
ہوسکتا 911
جل 910
ناظم 910
1947 909
باللہ 909
لسانی 909
نہر 909
03 908
73 908
آنکھ 908
شع@@ 908
فورٹ 908
لز@@ 908
مزاج 908
پوجا 908
کرد 908
کہاں 908
گرما 908
زیب 907
پٹی 907
ادوں 906
جائز 906
دیت 906
ویہ 906
پرانا 906
اوس@@ 905
قدمی 905
150 904
بدلے 904
تکلیف 904
جام 904
ساخت 904
ویت 904
الي@@ 903
لاکھوں 903
اسکولوں 902
مدار 902
77 901
آرمینیا 901
مسند 901
میڈ@@ 901
1999ء 900
98 900
ذخیرہ 900
شہاب 900
مبینہ 900
کوٹ@@ 900
گلگت 900
83 899
ایڈاہو 899
فضا 899
گنگا 899
توا@@ 898
ہون 898
بھر@@ 897
جنگجو 897
حمد 897
دامن 897
زبیر 897
اعمال 896
بي 896
جائ@@ 896
قیاس 896
ندا 896
رابرٹ 895
سیریل 895
نیت 895
تمہیں 894
کیٹ 894
بیش 893
سیکرٹری 893
فرینکلن 893
موا@@ 893
ڈیوڈ 893
گیٹ 893
جارجيا 892
شي@@ 892
فیل@@ 892
نگاہ 892
پھل 892
ڈراموں 892
کاو@@ 892
کینی@@ 892
A 891
ماہ@@ 891
نازی 891
ويل 891
پلیٹ 891
اً 890
کنیکٹیکٹ 890
کوہ@@ 890
اجداد 889
گزار 889
94 888
اوراس 888
مرنے 888
يَ@@ 888
کلے 888
11@@ 887
راجستھان 887
فیس 887
ﻋ@@ 887
10.@@ 886
امراض 886
سیاحت 886
عثمانیوں 886
ٹار@@ 886
76 885
لیاں 885
97 884
84 883
ایکشن 883
سرپرستی 883
صفر 883
نصب 883
چیزیں 883
یونٹ 883
قاہرہ 882
لنکن 882
مغربي 882
نکلے 882
يارك 882
جنگلات 881
مصنوعات 881
ڈبلن 881
کال 881
ہوسکتی 881
بھیجے 880
ضیاء 880
کہانیوں 880
جنکشن 879
نظامی 879
کارکنوں 879
1998ء 878
خلا@@ 878
وج 878
چیمپئن 878
کشتی 878
1998 877
ائیڈ 877
یسوع 877
تاً 876
دھی 876
دہائیوں 876
مغلیہ 876
ڑنے 876
89 875
اوری@@ 875
حق@@ 875
خیر@@ 875
ظ 875
78 874
بیٹھ@@ 874
فران@@ 874
ورجينيا 874
کشمیری 874
ہوچکی 874
ریو 873
فورا 873
ویئر 873
یکساں 873
1960ء 872
دیہات 872
سرد 872
سیا 872
ٹائم 872
کبیر 872
کھی 872
اہی 871
ریں 871
پڑھی 871
گنے 871
ﮐﮯ 871
91 870
اصولوں 870
اطالیہ 870
تلامذہ 870
خالص 870
خلیل 870
كس 870
ڈینی@@ 870
اچ@@ 869
حص@@ 869
متحد 869
ونٹ 869
اختلافات 868
اخراجات 868
روزانہ 868
ٹرک 868
تعین 867
سمجھنے 867
قفقاز 867
کاک@@ 867
کینیا 867
گنبد 867
ترو@@ 866
خراج 866
ستانی 866
سلمہ 866
ضروریات 866
ضی@@ 866
ماخوذ 866
پنج@@ 866
اوب@@ 865
خانوں 865
لمبی 865
مفید 865
» 864
اننگ 864
سازش 864
ژاں 864
گلیشیر 864
گہری 864
69 862
کمپنیوں 862
کوک 862
باغیوں 861
سرکار 861
لیتی 861
منصوبوں 861
يون@@ 861
پٹ 861
ڈرا@@ 861
ڈھانچے 861
82 860
بقول 860
خام 860
لام 860
حَ@@ 859
عرف 859
موری@@ 859
نوری 859
کیمیائی 859
ﺘ@@ 859
تابعین 858
جزوی 858
خل@@ 858
ٔ 858
چھٹی 858
گزشتہ 858
ماہنامہ 857
نوب@@ 857
آنا 856
اج 856
بھاگ@@ 856
خاموش 856
سبھی 856
عمارتوں 856
مع 856
ڈیٹا 856
district 855
بیل@@ 855
دوستی 855
عنصر 855
متی 855
09 854
خطرے 854
سڈنی 854
نوآبادیاتی 854
کھیلتے 854
آٹھویں 853
إِ@@ 853
انتہا 853
بچنے 853
ذوق 853
فحش 853
موہن 853
يك@@ 853
کوا@@ 853
است 852
اصلی 852
بالائی 852
رفتہ 852
عہدوں 852
غالباً 852
سوائے 851
سورۃ 851
معمول 851
نفرت 851
نون 851
وئی 851
ڈس 851
اڑ 850
بگ 850
دیئے 850
صلاح 850
مربوط 850
لاک 849
کونسلیں 849
گہرا 849
افت 848
الحال 848
الوں 848
سس 848
پرواز 848
سج@@ 847
مذمت 847
مہینوں 847
نصر 847
ورژن 847
گوئ@@ 847
یٰ 847
1,4@@ 846
سوئ@@ 846
لارڈ 846
پشتون 846
81 845
انصار 845
فسادات 845
وط@@ 845
ٹیاں 845
انڈسٹری 844
ساحلی 844
سوشل 844
قرارداد 844
ليك 844
پریشان 844
چودھری 844
71 843
الا@@ 843
اہلیہ 843
ریٹائر 843
لگائے 843
نگز 843
1ھ 842
N@@ 842
انتداب 842
سدھ@@ 842
مول 842
ذہنی 841
زان 841
شروعات 841
صارفین 841
معی@@ 841
ني 841
کیہ 841
ایلن 840
سینکڑوں 840
نڈی 840
کیس 840
05 839
تاجر 839
تجربات 839
سپاہی 839
غلطی 839
600 838
اکائی 838
جلا 838
خش@@ 838
رن@@ 838
نیوں 838
چھوڑنے 838
پوتے 837
بلایا 836
تاب 836
دستاویزات 836
دوس@@ 836
ساک@@ 836
علوی 836
قلب 836
کاٹ 836
زل 835
میڈیسن 835
United 834
al 834
انت 834
خلائی 834
نِ 834
پھیلی 834
ہنری 834
1989 833
دش@@ 833
آفتاب 832
امامت 832
تلفظ 832
گرانٹ 832
انتظار 831
تحریری 831
تدفین 831
پہنچایا 831
چوک 831
1997 830
ah 830
بات@@ 830
لِ 830
نمائندہ 830
گورن@@ 830
یان 830
بسر 829
میزبانی 829
وص@@ 829
یوگنڈا 829
حتمی 828
رم 828
شوکت 828
مدھ@@ 828
تھامس 827
کلارک 827
گلوکارہ 827
ہوچکا 827
ارجنٹائن 826
الزامات 826
بابر 826
سرگودھا 826
لانگ 826
میجر 826
جج 825
دشمنی 825
قین 825
800 824
آگ@@ 824
اُردو 824
حلقوں 824
فلا@@ 824
مدی@@ 824
کف@@ 824
گز 824
گھاٹ 824
1,6@@ 823
امارت 823
حک@@ 823
رِ@@ 823
مدارس 823
پڑھتے 823
کوب@@ 823
زاد 822
سونا 822
لطف 822
ناب@@ 822
نص@@ 822
نظیر 822
ٹیک@@ 822
پلے 822
ہرزیگووینا 822
ادھر 821
برآمد 821
توپ 821
باتوں 820
پین@@ 820
الیس 819
خزانہ 818
رومان@@ 818
لیل 818
اموات 817
ایلی@@ 817
سیکس 817
وچ 817
ٹز 817
پوپ 817
کھر 817
R@@ 816
minor 816
رتی 816
پنے 816
کشش 816
ہٹلر 816
الام@@ 815
درآمد 814
سمجھے 814
چاہئے 814
آغ@@ 813
حلقے 813
زادہ 813
متع@@ 813
ہری@@ 813
1992ء 812
جور@@ 812
جیفرسن 812
شرا@@ 812
ہفتے 812
1940 811
79 811
is 811
ایشیاء 811
حیاتیات 811
نصیر 811
یہودیت 811
بھرتی 810
تار 810
تبہ 810
تمہاری 810
نَ@@ 810
کالا 810
کالی 810
تقی 809
تھوڑی 809
ستارے 809
معاشیات 809
افرا@@ 808
رہنا 808
پچیس 808
1950ء 807
تض@@ 807
كار@@ 807
مساوی 807
ٹائمز 807
کھڑی 807
municipality 806
آگاہ 806
ئس 806
احد 806
اریوں 806
اسلوب 806
الیہ 806
سمجھی 806
ہاکی 806
اسلم 805
اکر 805
راں 805
غلامی 805
کرسکتے 805
کسی@@ 805
ہؓ 805
1996 804
انسانیت 804
توب@@ 804
جمعیت 804
عد 804
ماؤ@@ 804
وایا 804
پوچھ@@ 804
الدين 803
انجن 803
ایہ 803
لب 803
پیٹر 803
ڈاک@@ 803
اولمپکس 802
جاؤ 802
جات@@ 802
دستور 802
قات 802
وَ 802
پرتگالی 802
گان@@ 802
ہمارا 802
بولتے 801
عن 801
قائل 801
وتی 801
پھر@@ 801
ادوار 800
اپنایا 800
بزرگوں 800
درو@@ 800
رانا 800
مرکب 800
ناکامی 800
وسعت 800
06 799
جوڑے 799
خری@@ 799
مض@@ 799
ہتر 799
ئیں 798
جاکر 798
کمرے 798
دوستوں 797
دول@@ 797
1918 796
الیکشن 796
تل 796
سالم@@ 796
ورزی 796
پہن@@ 796
کینٹ 796
اشی 795
بلتستان 795
لٹن 795
میزائل 795
میک@@ 795
یاب 795
دف@@ 794
مثالیں 794
پیٹر@@ 794
استحکام 793
اصفہان 793
عد@@ 793
فطری 793
مالیاتی 793
مگ@@ 793
ٹرین 793
اثنا 792
تز@@ 792
رنجیت 792
ساس@@ 792
موسیقار 792
پش@@ 792
کیم 792
02 791
الرشید 791
تُ@@ 791
عنایت 790
لیبیا 790
مائل 790
ہاشمی 790
النہار 789
جینی@@ 789
ریاں 789
نثر 789
ویر@@ 789
بیہ 788
وْ@@ 788
گور 788
رول 787
لاش 787
وري 787
ڈھاکہ 787
کارپوریشن 787
دوا 786
دھو@@ 786
كل@@ 786
مسٹر 786
منڈ 786
بلقان 785
حجر 785
کہلاتی 785
الاسکا 784
الحاق 784
توقع 784
قیمتی 784
ملوث 784
منتقلی 784
يت 784
چو 784
ڈاک 784
ہوچکے 784
افضل 783
اگلی 783
بٹلر 783
موقف 783
نیہ 783
گراف 783
تراجم 782
محققین 782
کانگ 782
رپور@@ 781
پیرش 781
کرہ 781
گایا 781
كو 780
مراحل 780
مسافر 780
گرینڈ 780
1997ء 779
رام@@ 779
لٹ 779
میز 779
والہ 779
07 778
دیکھے 778
پریمیئر 778
تحریروں 777
غلبہ 777
لوئس 777
گرجا 777
ہوٹل 777
1993 776
تسلط 776
خطیب 776
نذر 776
ولد 776
ٹھیک 776
یہو@@ 776
نظریاتی 775
ڈون@@ 775
04 774
آسام 774
اوران 774
بازنطینی 774
جیک 774
ذی 774
مارکس 774
مثلا 774
ملت 774
کرمان 774
کلیسیا 774
ائز 773
ترقیاتی 773
دسویں 773
شجرہ 773
08 772
علامات 772
لکھیں 772
پرائمری 772
چکر 772
تیرے 771
جوڑ 771
روزگار 771
1920 770
i 770
بادشاہی 770
گریٹ 770
گیلانی 770
93.@@ 769
قدامت 769
مستعمل 769
موثر 769
کارروائیوں 769
ﮭ@@ 769
اضافے 768
تیری 768
سز 768
عزم 768
لارنس 768
موضع 768
وائیومنگ 768
۰@@ 768
بج@@ 767
مرو 767
ولایت 767
بڑ@@ 766
خطرناک 766
ساوتھ 766
طارق 766
نصاب 766
کپتانی 766
States 765
امجد 765
اونٹ 765
ثر 765
مچھلی 765
تخمینہ 764
جلدوں 764
حجاز 764
نمودار 764
انوی 763
راش@@ 763
لیکر 763
کیرئیر 763
گزرنے 763
ہرے 763
1993ء 762
Ohio 762
اسی@@ 762
سروے 762
سوڈان 762
کنی 762
قیدیوں 761
1971ء 760
ایکسپریس 760
شرعی 760
طیارے 760
پوں 760
گرفتاری 760
1996ء 759
sur 759
ارض 759
ارڈ 759
جنگجوؤں 759
قربانی 759
نفاذ 759
نچ 759
ووڈ@@ 759
250 758
الٰہی 758
دائ@@ 758
ستارہ 758
مانتے 758
میری@@ 758
نکالا 758
وروں 758
ونڈ 758
ڈور 758
المومنین 757
ایتھ@@ 757
بحیثیت 757
جدا 757
خام@@ 757
دیکھیں 757
سائی@@ 757
مریض 757
مشغول 757
وینی@@ 757
کارڈ 757
اولی@@ 756
مسلک 756
نقشہ 756
یوٹاہ 756
تشریح 755
برٹ 754
دوب@@ 754
ستاروں 754
سیلاب 754
فوجیں 754
O@@ 753
q@@ 753
اعی 753
ضرب 753
كول@@ 753
کمان@@ 753
کیپ@@ 753
ہوجائے 753
ہیرو@@ 753
یلی 753
ضم 752
طبقات 752
میٹرک 752
ناڈو 752
هُ 752
اوبلاست 751
برو 751
سختی 751
سين@@ 751
ماجد 751
چوری 751
ڈان 751
بخارا 750
بقیہ 750
قری@@ 750
کرائی 750
کعب 750
700 749
آلو@@ 749
ازیں 749
خار@@ 749
منع 749
مکتب 749
چا@@ 749
ہمہ 749
فلی@@ 748
متعین 748
ﻟ@@ 748
برز@@ 747
تکنیکی 747
خصوصاً 747
خلفاء 747
1941 746
احمد@@ 746
بالترتیب 746
بوجھ 746
بڑھانے 746
ثق@@ 746
قلمی 746
مام 746
ڑھی 746
1,3@@ 745
10,@@ 745
تعالٰی 745
زیں 745
کھول 745
تاجکستان 744
ثی 744
جبل 744
جز@@ 744
رحیم 744
کلنٹن 744
ہائی@@ 744
11.@@ 743
1988ء 743
} 743
المن@@ 743
تحلیل 743
حامد 743
مدنی 743
مقالہ 743
مکی 743
ٹون 743
ہمت 743
ہٹا 743
1,8@@ 742
ضی 742
مقابل 742
آم@@ 741
رسالت 741
لوی 741
لکھنا 741
مجاہدین 741
افسانے 740
بنگ@@ 740
بہتری 740
طریقت 740
فقیر 740
نقش 740
تائید 739
سوی 739
طلباء 739
مائی@@ 739
مسئلے 739
نْ@@ 739
گرا 739
بٹ@@ 738
تھر@@ 738
فلو@@ 738
لمبے 738
مزدور 738
پایہ 738
ڑیاں 738
انچ 737
فرنٹ 737
کرشن 737
1,7@@ 736
آسٹ@@ 736
جذبہ 736
فيلڈ 736
وابستگی 736
کیمبرج 736
1988 735
جلاوطنی 735
خلیات 735
صاحبزادے 735
معاش@@ 735
پسندیدہ 735
کرن 735
کیلی 735
ورنہ 734
کرانے 734
1977ء 733
اصرار 733
بلاک 733
ساٹھ 733
قات@@ 733
ماری@@ 733
البم 732
مریخ 732
چوہدری 732
ڈنمارک 732
I 731
اورنگ 731
دید 731
رئیس 731
فرن@@ 731
لیم 731
لیڈر 731
ملازم 731
واہ 731
ڈینس 731
01 730
آل@@ 730
فلکیات 730
مبی@@ 730
مسوري 730
واک 730
ورمونٹ 730
يس 730
پڑھائی 730
گولڈ 730
14.@@ 729
دشمنوں 729
رون@@ 729
ستم 729
شکایت 729
قبر@@ 729
نقاد 729
چراغ 729
1,5@@ 728
آئندہ 728
اتِ 728
نویں 728
نکلنے 728
1985ء 727
آسٹریلیائی 727
جنگلی 727
حمزہ 727
زینب 727
شب@@ 727
معرکہ 727
نصیب 727
پیرا 727
پیچیدہ 727
en 726
اتر@@ 726
الاول 726
اوور 726
بتاتے 726
حقائق 726
شیعوں 726
وجے 726
پلی 726
پینے 726
کلمہ 726
183@@ 724
2ھ 724
امتیازی 724
اُنہوں 724
سرگرمیاں 724
سزائے 724
مفت 724
اسود 723
منسوخ 723
پوس@@ 723
ہول 723
جانتا 722
زِ 722
سرائیکی 722
سکریٹری 722
شیطان 722
فائر 722
وائس 722
اسٹو@@ 721
دَ@@ 721
سکون 721
ندے 721
پیرا@@ 721
کیا@@ 721
ﺪ@@ 721
مائیکل 720
مستند 720
يم@@ 720
چش@@ 720
1995ء 719
بک@@ 719
سیکیورٹی 719
لیو 719
ڈپٹی 719
حنفی 718
سنبھال 718
عورتیں 718
W@@ 717
at 717
قواعد 717
نظمیں 717
پابند 717
ہوجاتے 717
پارلیمانی 716
پوائنٹ 716
چوبیس 716
کھلے 716
منقسم 715
میلبورن 715
نفسیات 715
ۃ@@ 715
اسپ@@ 714
باکس 714
عالمگیر 714
an@@ 713
اسباب 713
بیوں 713
صحبت 713
ِّ@@ 713
چہرے 713
گروپوں 713
اسٹریٹ 712
رسائل 712
لنے 712
پول 712
ہیر 712
1939 711
بیڑے 711
فانی 711
فیہ 711
مرید 711
ٹکڑے 711
ڑو 711
کوری@@ 711
1971 710
انکشاف 710
دستے 710
رحم 710
عاش@@ 710
کعبہ 710
1944 709
1982ء 709
Sh@@ 709
تھک 709
خطبہ 709
میم 709
واج 709
پیر@@ 709
کانوں 709
کسانوں 709
ہزارہ 709
ﮐﯽ 709
40@@ 708
فوائد 708
مجدد 708
ڈرامہ 708
1989ء 707
name 707
C@@ 706
e@@ 706
بزنس 706
تقری@@ 706
جاوا 706
رخصت 706
ضے 706
قز@@ 706
وصیت 706
وِ@@ 706
13.@@ 705
سرائے 705
سنگاپور 705
پروڈکشن 705
چم@@ 705
کاس 705
گرہن 705
ائم 704
براعظم 704
سرگرمی 704
قمر 704
ٹرا@@ 704
چوتھا 704
ہیم 704
روپیہ 703
مہاراجا 703
نٹن 703
یْ@@ 703
« 702
فرقے 702
زو 701
نفسیاتی 701
کھل 701
ہٹ@@ 701
ؐ 700
تھر 700
جھڑ@@ 700
دانی 700
فون@@ 700
مخلوق 700
کرائے 700
1995 699
بیمار 699
جز 699
خت 699
لانگ@@ 699
نیدرلینڈز 699
ٹا@@ 699
پھو@@ 699
ڈي 699
# 698
12.@@ 698
اوهایو 698
تنقیدی 698
سار 698
فرعون 698
لاتی 698
نمونے 698
کھلی 698
کیپر 698
گلا@@ 698
گھوم@@ 698
ہانگ 698
اسم@@ 697
الو 697
اُنہیں 697
شہر@@ 697
مدر@@ 697
ویکیپیڈیا 697
پتا 697
کات 697
الدولہ 696
دیستریک 696
سوت@@ 696
غار 696
قابض 696
منط@@ 696
منگول 696
میا 696
یز@@ 696
180@@ 695
1979ء 695
Z@@ 695
جھنگ 695
دلچسپ 695
دیسی 695
مبر 695
میٹروپولیٹن 695
نظریے 695
پاک@@ 695
گذ@@ 695
گریڈ 695
1948 694
V@@ 694
اموی 694
بینک@@ 694
رگ@@ 694
شیر@@ 694
قادر 694
موسوم 694
ڈیلاویئر 694
کانتی 694
تنہا 693
خور@@ 693
راشد 693
رِ 693
ستا 693
سینا 693
سیکنڈ 693
مکھ@@ 693
نغمہ 693
ڑھ 693
گردش 693
گوا 693
ینگ 693
آگرہ 692
اٹھ 692
اہلِ 692
زد 692
فات 692
ماحولیاتی 692
کورس 692
ئے@@ 691
سوا@@ 691
نائی@@ 691
ڈن@@ 691
E@@ 690
لہجہ 690
چنا 690
ابرا@@ 689
امرتسر 689
تغ@@ 689
قیدی 689
ویو 689
پارہ 689
کب 689
آس@@ 688
ایریزونا 688
جائداد 688
دھرم 688
کھلا 688
ﮩ@@ 688
اغوا 687
تارکین 687
تسم@@ 687
سلط@@ 687
لطیف 687
رين 686
سارہ 686
صورتحال 686
مطالعے 686
کھوار 686
گھی@@ 686
120 685
z@@ 685
اصطلاحات 685
العلماء 685
امِ 685
بینڈ 685
عکس 685
پیمائش 685
1974ء 684
استحصال 684
بائیس 684
قصہ 684
اسپتال 683
ایتھوپیا 683
رجب 683
قیہ 683
سیدہ 682
صف 682
غربت 682
منا 682
مناظر 682
ھو@@ 682
1994 681
ترجمان 681
جابر 681
جھگ@@ 681
دفاتر 681
رویہ 681
سراج 681
قابلِ 681
مجاہد 681
ندوی 681
چاہتی 681
b 680
دستاویز 680
مخالفین 680
ولو 680
ٹاپ 680
پورٹو 680
اجن@@ 679
اشع@@ 679
سفار@@ 679
عذاب 679
میزبان 679
پونچھ 679
چٹ@@ 679
ارتقا 678
ایکس 678
باقر 678
تھو@@ 678
فس@@ 678
فوں 678
ٹیوب 678
گوجرانوالہ 678
احسان 677
اگو 677
بظاہر 677
بلین 677
تاری@@ 677
قندھار 677
مطلق 677
نتالیس 677
وراثت 677
وکالت 677
ارد@@ 676
انڈے 676
اپیل 676
بلغ@@ 676
تبدیلیاں 676
توحید 676
خرا@@ 676
مرحلہ 676
ٹیلی@@ 676
پاد@@ 676
پروگراموں 676
ہد@@ 676
ہمایوں 676
ہي@@ 676
رئ@@ 675
سرب@@ 675
ملٹری 675
اعوان 674
انیاں 674
ایڈورڈ 674
دیواروں 674
رکاوٹ 674
لتا 674
ٹیز 674
1000 673
بنائیں 673
بين@@ 673
ریکو 673
زلزلے 673
نمبر@@ 673
ۓ 673
ابت 672
اتھ@@ 672
برتن 672
داعش 672
سکاٹ 672
شنز 672
چھت 672
ڈک@@ 672
ڈیجیٹل 672
کث@@ 672
گرمی 672
بڑھنے 671
حان 671
خالق 671
ریٰ 671
سپاہیوں 671
فنڈ 671
میٹ@@ 671
ناس@@ 671
وضع 671
ومت 671
2022 670
افسوس 670
انٹر 670
بناتا 670
حجاج 670
لیت 670
1984ء 669
village 669
اکا 669
درحقیقت 669
متنازع 669
نذیر 669
واری 669
پاور 669
گھر@@ 669
1930 668
22@@ 668
اط 668
افتتاح 668
الرحمان 668
بہرائچ 668
بیٹھا 668
زیدی 668
سٹوں 668
سچ 668
لیز 668
يور@@ 668
گہرائی 668
2,0@@ 667
آدمیوں 667
شاپ@@ 667
غائب 667
ّی 667
گنگ@@ 667
یاس@@ 667
المع@@ 666
امر@@ 666
امرا 666
بڑھتے 666
جھو@@ 666
داغ 666
ملازمین 666
میں@@ 666
ہروں 666
1965ء 665
Y@@ 665
بہادری 665
تدریسی 665
زبانی 665
سٹر@@ 665
طہ 665
نعیم 665
چہرہ 665
اري 664
سائز 664
لال@@ 664
ڈیموکریٹک 664
1972ء 663
اوس 663
كنساس 663
مصطفی 663
پیروکار 663
چیچن 663
کھاتے 663
گہ 663
ﺣ@@ 663
ایس@@ 662
بردار 662
خوبصورتی 662
عکاسی 662
وارانہ 662
ڈار@@ 662
ہالی 662
00 661
بنتی 661
1975ء 660
خور 660
زدہ 660
سوشلسٹ 660
لڑکا 660
مشین 660
الکاہل 659
الیون 659
محترم 659
پرتگال 659
چنگ 659
کائ@@ 659
انکی 658
سویں 658
شہریت 658
فلسفی 658
ٍ 658
ٹران@@ 658
کمانڈ 658
الذکر 657
اواخر 657
ایجن@@ 657
بري@@ 657
جنھیں 657
ریزی 657
سنبھ@@ 657
فاروقی 657
نگے 657
پاپ@@ 657
گاڑیوں 657
F@@ 656
بھٹی 656
دھی@@ 656
سڑکوں 656
عادل 656
معزول 656
مين 656
سرداروں 655
متفق 655
مسی@@ 655
میئن 655
چھتیس 655
دینار 654
صحرا 654
لگائی 654
مارک 654
گریجویٹ 654
تفصیلی 653
مْ 653
مہی@@ 653
کیوبا 653
c 652
بیری 652
تامل 652
تشیع 652
روسیوں 652
لفظی 652
مولا 652
نزول 652
ٹکٹ 652
کارنامہ 652
آبی 651
ادي 651
اِسی 651
ثہ 651
خوان 651
درانی 651
مؤرخ 651
مپ 651
کاف@@ 651
آرتھر 650
اص 650
بچا 650
زکریا 650
لوزیانا 650
ونس 650
ً 650
کچ@@ 650
by 649
جال 649
دات 649
سواری 649
قصور 649
میرا@@ 649
چاول 649
1984 648
آمادہ 648
تلا@@ 648
خاصی 648
سیارے 648
عظ@@ 648
عقبہ 648
مرضی 648
1986 647
et 647
اسٹالن 647
ذر 647
مرا 647
واڈور 647
d@@ 646
اوٹ@@ 646
ایگزیکٹو 646
بازوں 646
رهٔ 646
روٹی 646
معجز@@ 646
وجی 646
ّہ 646
1956ء 645
بصری 645
نجف 645
ونڈ@@ 645
الاح@@ 644
الہی 644
موڑ 644
تبریز 643
تہجی 643
خمینی 643
درہم 643
صفائی 643
ہوش 643
35@@ 642
استدلال 642
اندازے 642
جادو 642
حف@@ 642
دوچار 642
ماننے 642
گرافی 642
ﮔ@@ 642
11,@@ 641
بچھ@@ 641
دبئی 641
رچرڈ 641
سیال 641
ممالك 641
کسان 641
1979 640
دھماکے 640
فائرنگ 640
لیون 640
چیسٹر 640
۳@@ 640
خلاصہ 639
ذ 639
شل@@ 639
كور@@ 639
معصوم 639
پڑتی 639
ڈین@@ 639
00@@ 638
احکامات 638
رسومات 638
سائی 638
صر 638
لاً 638
گنی@@ 638
یوری@@ 638
1,9@@ 637
اطاعت 637
بے@@ 637
نوح 637
1991ء 636
تعبیر 636
تمغا 636
شاخیں 636
پرنسپل 636
1987ء 635
اؤن@@ 635
بین@@ 635
جدہ 635
دوڑ 635
سات@@ 635
لگیں 635
مدھیہ 635
ندیم 635
ونسب 635
پائی@@ 635
کاغذ 635
کلیدی 635
ہدف 635
ہشام 635
1994ء 634
بائی@@ 634
بندر 634
تلاوت 634
تیر@@ 634
روش 634
ستون 634
سٹي 634
كيرولائنا 634
یا@@ 634
آرتھوڈوکس 633
أ@@ 633
نقوی 633
کورونا 633
ﺴ@@ 633
u 632
تصوی@@ 632
رہائی 632
پودوں 632
پینٹ@@ 632
چلتے 632
ڈال@@ 632
گندم 632
افسانوں 631
افسانوی 631
تیاں 631
فور 631
نوم@@ 631
انجیل 630
اٹھانے 630
اینٹی 630
جشن 630
داء 630
دلائل 630
جلیل 629
قحط 629
قوں 629
كان@@ 629
نڈے 629
ڈل 629
ھر 629
ہدایات 629
اکیس 628
بابل 628
لازم 628
ویس 628
ڈومیسٹک 628
la 627
اعتراض 627
ایجوکیشن 627
بشیر 627
تذ@@ 627
سہارا 627
سیدنا 627
فِ 627
مردہ 627
نپولین 627
وارن 627
چلائی 627
بیٹیاں 626
شات 626
شاگردوں 626
ظر 626
مجسمہ 626
وریا 626
چشمہ 626
1985 625
اتھارٹی 625
جئے 625
شان@@ 625
فتنہ 625
مصنوعی 625
{ 624
اسٹار 624
زیادتی 624
عدی 624
متصل 624
يْ@@ 624
پیشکش 624
ڈیو@@ 624
گیندوں 624
36@@ 623
اندلس 623
ایسٹ@@ 623
سجاد 623
شنوں 623
كيليفورنيا 623
لوئر 623
لینڈ@@ 623
ماری 623
ٹرا 623
پیری@@ 623
چڑھ 623
کمشنر 623
بنتے 622
بولنگ 622
تاجروں 622
سپہ 622
عج@@ 622
فیشن 622
پہنچانے 622
کیرولینا 622
ہیملٹن 622
اقدار 621
اقوال 621
اکٹھا 621
ساح@@ 621
ساڑھے 621
مروان 621
میانمار 621
پیدا@@ 621
ابلاغ 620
اصغر 620
النجوم 620
الیکٹ@@ 620
بڑھایا 620
رای@@ 620
17.@@ 619
as 619
جاتاہے 619
رکھیں 619
سرہ@@ 619
عے 619
لاد 619
نیازی 619
1986ء 618
New 618
اکاؤن@@ 618
بنیں 618
ظہ 618
عرفان 618
مفادات 618
ملہ 618
نامعلوم 618
ہنگ@@ 618
ﻣﯿﮟ 618
I@@ 617
اینڈ@@ 617
سرپرست 617
سفر@@ 617
نہرو 617
ورم 617
کیپٹن 617
آنکھیں 616
استع@@ 616
بارگاہ 616
عابد 616
مسیحیوں 616
چلتی 616
گم 616
گون 616
1930ء 615
رشتے 615
سوات 615
سینٹرل 615
فراغت 615
قاد@@ 615
وژن 615
ہالینڈ 615
یف 615
12,@@ 614
j@@ 614
سکھ@@ 614
مترجم 614
ٌ 614
گام@@ 614
ﺷ@@ 614
آئس 613
باؤلر 613
دوری 613
راب 613
لش@@ 613
ماریون 613
ولف 613
وٹ@@ 613
.com 612
16.@@ 612
ایٹمی 612
بانو 612
برن 612
تبصرہ 612
حتی 612
روا 612
نمائندے 612
ننگ 612
کروائی 612
گہرے 612
آپری@@ 611
اونچی 611
لح@@ 611
مقدونیہ 611
ورٹ 611
ڈفورڈ 611
ہجوم 611
براؤن 610
تعمیرات 610
روکا 610
محی 610
نسواں 610
وحید 610
1987 609
راغب 609
شائ@@ 609
فقہی 609
لغ@@ 609
چائے 609
ڑھے 609
گرے 609
ہموار 609
ﺋ@@ 609
آخ@@ 608
بمباری 608
تصادم 608
دود 608
سیاحوں 608
قوتوں 608
لنک@@ 608
وحی 608
گھنٹہ 608
1978ء 607
1981ء 607
اسٹاک 607
رومیوں 607
سد@@ 607
سننے 607
فصل 607
منشی 607
اجزاء 606
ادے 606
تقویت 606
جلدی 606
سولہویں 606
مقبرے 606
آزادانہ 605
اخراج 605
خود@@ 605
ربانی 605
مزاح 605
میوں 605
يات 605
چھوڑا 605
ہِ 605
1975 604
or 604
اخت@@ 604
الشان 604
امریکیوں 604
تردید 604
جاگیر@@ 604
جٹ 604
ضل@@ 604
فوق@@ 604
معافی 604
ٹیج 604
ینگ@@ 604
1919 603
48@@ 603
اطلاق 603
خسرو 603
دیوبندی 603
سخن 603
سنبھالا 603
معنوں 603
پاتے 603
کاؤن@@ 603
کمپ@@ 603
کوت@@ 603
کِ@@ 603
انجینئری 602
تحسین 602
حس@@ 602
عار@@ 602
قیصر 602
کرسٹ@@ 602
کہے 602
200@@ 601
q 601
الزبتھ 601
تقویم 601
جوانی 601
سلی 601
شاهٔ 601
مرتض@@ 601
پتے 601
پشت 601
باقیات 600
جَ@@ 600
حجم 600
غلاموں 600
مبل 600
مکانی 600
مینے 600
نیات 600
چہارم 600
گيا 600
ہلال 600
ہیڈ@@ 600
اچھ@@ 599
تھوڑا 599
جک@@ 599
حلقهٔ 599
سینٹی 599
غزنی 599
نانا 599
نڈز 599
ایڈی@@ 598
خدا@@ 598
درکار 598
غزوات 598
فاط@@ 598
قازقستان 598
پھینک@@ 598
179@@ 597
T20 597
بجٹ 597
تبت 597
غہ 597
لك@@ 597
مینی 597
نویس 597
پذیر 597
گنجائش 597
گیوں 597
1958ء 596
اکھ@@ 596
بنی@@ 596
تسمیہ 596
روک@@ 596
عامہ 596
مود 596
موزوں 596
نمک 596
وق 596
پھیلاؤ 596
گارڈ 596
1974 595
آکسفورڈ 595
جع@@ 595
سرحدوں 595
عام@@ 595
لہر 595
پختہ 595
ﺭ 595
1942 594
زمرے 594
شرما 594
عوامل 594
لیفٹیننٹ 594
مائے 594
مقدمے 594
مگر@@ 594
نوا 594
انٹ@@ 593
ایبٹ 593
عطیہ 593
ٹرانس@@ 593
تمہارا 592
دنی@@ 592
دیل 592
سہیل 592
مومن 592
نیں 592
ڈكوٹا 592
یونی@@ 592
آش@@ 591
تختہ 591
رابطے 591
سائنسز 591
شاپیل 591
پرستوں 591
کیمپس 591
station 590
ایکڑ 590
بست@@ 590
ترغیب 590
جائی@@ 590
رسالے 590
پنڈ@@ 590
کوس 590
ہونی 590
1982 589
دت 589
دستاویزی 589
رع@@ 589
عقیل 589
لیاقت 589
مواصلات 589
میتھ@@ 589
٭ 589
1976ء 588
اتوں 588
اینگلو 588
بدلہ 588
تسلسل 588
جبو@@ 588
سیر@@ 588
كى 588
گوج@@ 588
1949ء 587
1978 587
بیانات 587
جاننے 587
دھمکی 587
لمبا 587
مختاری 587
ينا 587
بیٹ 586
حم@@ 586
روان 586
شاد 586
غل@@ 586
غوث 586
ماب@@ 586
1983 585
اگ 585
عبی@@ 585
فري@@ 585
معاشرہ 585
منعقدہ 585
مکانات 585
کیشن 585
آخرت 584
بِ 584
ذر@@ 584
سوالات 584
لمیٹڈ 584
نرم 584
گران@@ 584
1973ء 583
تال 583
حالی 583
قسمت 583
بعید 582
تقریبات 582
دھن 582
شاعروں 582
شم 582
مجد@@ 582
محدثین 582
مشق 582
n 581
بنیادوں 581
تخلص 581
سکو 581
لبرل 581
مارنے 581
متح@@ 581
ً@@ 581
کلاں 581
آبنائے 580
اعلٰی 580
بدن 580
بق@@ 580
بولے 580
دستہ 580
سمتیہ 580
سپین 580
مجرم 580
نظموں 580
کیاں 580
گروو 580
اسکاٹ 579
جانسن 579
شار 579
نکالنے 579
نیر 579
ائیووا 578
ریڈ@@ 578
سنگین 578
قدس 578
مظاہرے 578
ar@@ 577
lu 577
t 577
آئيووا 577
آفیسر 577
ائيووا 577
افعال 577
الي 577
اين@@ 577
بوت@@ 577
تول@@ 577
حب 577
فام 577
فو 577
لارا 577
لور@@ 577
متیں 577
اندا@@ 576
حض@@ 576
خاص@@ 576
دیوں 576
فنکار 576
منص@@ 576
ناقدین 576
چال 576
گولڈن 576
ہلاکتوں 576
انقرہ 575
ستائیس 575
عنہا 575
غزہ 575
ـ@@ 575
محافظ 575
معتبر 575
ڈھانچہ 575
ڈیو 575
جنگیں 574
رومانوی 574
صفات 574
قوموں 574
لونگ 574
معانی 574
نائٹ 574
عمارتیں 573
ّت 573
کیمی@@ 573
for 572
اللهٔ 572
ایٹ 572
دستوں 572
سف@@ 572
شیوں 572
صلیبی 572
عقیدے 572
فکری 572
لس@@ 572
يك 572
ٹیل 572
پولس 572
1946ء 571
1969ء 571
38@@ 571
افتخار 571
باطنی 571
توازن 571
رجی 571
رقبے 571
سراہا 571
شبہ 571
لانا 571
مقت@@ 571
مناسبت 571
نقشبندیہ 571
کلینڈ 571
0,@@ 570
ارو 570
اسماء 570
بھیجی 570
جنتا 570
زہر 570
صہی@@ 570
فک 570
كون@@ 570
منظ@@ 570
نگل 570
پریم 570
گھو@@ 570
ہاتھی 570
اوز@@ 569
اٹھائیس 569
بنوں 569
تھن 569
جي 569
دیشی 569
فضیلت 569
لڑے 569
مقصود 569
کفر 569
گي@@ 569
1962ء 568
باغات 568
جمیل 568
مانند 568
1973 567
k 567
آئرش 567
ابواب 567
جبر@@ 567
عمل@@ 567
لاگو 567
محور 567
پنڈت 567
پڑھے 567
s@@ 566
ریاض@@ 566
لوب 566
ہانی 566
1983ء 565
ak 565
المر@@ 565
اونچائی 565
جرمنوں 565
خاکہ 565
عموما 565
لوس 565
مثل 565
ڈوب@@ 565
کیرلا 565
کیری 565
اسٹیج 564
بریلوی 564
جارحیت 564
حد@@ 564
رياست@@ 564
سنہری 564
طبیعت 564
عملے 564
غر 564
نوع 564
ہندو@@ 564
1917 563
ازم 563
جڑے 563
زاہد 563
ظہیر 563
نال 563
وسی@@ 563
ٹھے 563
ٹینی@@ 563
چیلنج 563
ﻗ@@ 563
15.@@ 562
m 562
اناطولیہ 562
ایمی@@ 562
باؤ@@ 562
رغ@@ 562
واس@@ 562
www.@@ 561
الیا 561
ریور 561
سام 561
سرفراز 561
غر@@ 561
وغ@@ 561
ٹرسٹ 561
کرسکتا 561
1920ء 560
برپا 560
جبر 560
خلق 560
سلے 560
شہرہ 560
صفوی 560
مورگن 560
موہ@@ 560
نشریات 560
همپشائر 560
ڑیوں 560
1967ء 559
ئو 559
برما 559
تان 559
جاں 559
حیران 559
زبردستی 559
سماعت 559
سوری 559
شرو@@ 559
عاشق 559
قُ@@ 559
مظاہرین 559
ممبروں 559
گزارا 559
گیمز 559
اوم@@ 558
محاصرے 558
مدراس 558
نکل@@ 558
٫ 558
کالے 558
کبھار 558
کنڈ@@ 558
گین 558
ئرز 557
بنگلور 557
جانچ 557
دکان 557
ذا 557
سینے 557
مجر@@ 557
ویٹ 557
چي 557
گزار@@ 557
النا 556
برکت 556
تنا@@ 556
ثانوی 556
جواہر 556
جول@@ 556
زیہ 556
سوس@@ 556
عبارت 556
مجاز 556
چلایا 556
چي@@ 556
گرد@@ 556
تخلیقی 555
تقاض@@ 555
حامیوں 555
لُ@@ 555
مضامين 555
ملٹن 555
وفاق 555
1940ء 554
h@@ 554
احسن 554
الکریم 554
اه@@ 554
بھوپال 554
شجاع 554
ضہ 554
كيرولينا 554
يني 554
پادری 554
کاغذی 554
کافر 554
کوف 554
13,@@ 553
1954ء 553
جگر 553
ربط 553
غذا 553
قرآنی 553
مثنوی 553
پالیسیوں 553
استقبال 552
دیکھ@@ 552
فِ@@ 552
لینگ@@ 552
1956 551
تات@@ 551
جلاوطن 551
جُ@@ 551
راکٹ 551
سوم@@ 551
ووو 551
پیشے 551
چون 551
ڈسٹرکٹ 551
کراس 551
b@@ 550
افکار 550
المطلب 550
جتنی 550
دعوے 550
سلا 550
سورۂ 550
صفت 550
صفی 550
نُ@@ 550
وات 550
يونين 550
کفار 550
1967 549
1969 549
اسکالر 549
خطوں 549
درختوں 549
موم 549
ولر 549
ونگ@@ 549
چھبیس 549
کاہ@@ 549
گجراتی 549
1952ء 548
اشرافیہ 548
برہمن 548
جھوٹ 548
سانس 548
فرڈ 548
محافظ@@ 548
مزدوروں 548
پوش 548
گذر@@ 548
37@@ 547
ببر 547
تصنیفات 547
سید@@ 547
طی 547
لکشمی 547
مہار@@ 547
چن@@ 547
ڈرا 547
اموں 546
انجی@@ 546
بریگیڈ 546
تصورات 546
عیسائیوں 546
لینن 546
مبار@@ 546
پیروکاروں 546
1972 545
C 545
ئین 545
جیتے 545
راستوں 545
ویانا 545
ڈیڑھ 545
کاربن 545
Kh@@ 544
ایندھن 544
داشت 544
سلاطین 544
عسکریت 544
ملیالم 544
گوری 544
اتار 543
اعجاز 543
تبدیلیوں 543
جهٔ 543
پرنس 543
ہفتوں 543
,@@ 542
آگئے 542
بتیس 542
بڑھے 542
بھیجنے 542
جتنا 542
حات 542
دائرے 542
روئے 542
رواں 542
سالگرہ 542
سرطان 542
متعلقهٔ 542
میل@@ 542
پڑنے 542
گزر@@ 542
ہوسکتے 542
18.@@ 541
سکھر 541
مؤثر 541
میسر 541
پڑھیں 541
چونتیس 541
بیچلر 540
حریف 540
ستر@@ 540
مچھ@@ 540
نعمت 540
ولوں 540
۵@@ 540
۸@@ 540
50@@ 539
اشوک 539
ایڈمز 539
رف 539
سرما 539
سنٹر 539
عدالتی 539
غصہ 539
لَّ@@ 539
ہستی 539
ہوجائیں 539
ﺍﻭﺭ 539
اع 538
الثانی 538
حي@@ 538
سِ@@ 538
عق@@ 538
فارمی@@ 538
مشاہ@@ 538
ملاحظہ 538
گزاری 538
المص@@ 537
بتائی 537
جزیروں 537
دیوتاؤں 537
سمجھتا 537
عالی 537
علاء 537
مہمات 537
وفادار 537
ہد 537
یئ@@ 537
… 537
ﺖ 537
1914 536
اوت 536
تجربے 536
فوج@@ 536
ٹروں 536
ڈون 536
Airport 535
II 535
تاریخ@@ 535
تناؤ 535
تہائی 535
جامعات 535
حسینی 535
زیر@@ 535
متوجہ 535
منحصر 535
يري 535
ٹائی@@ 535
پتھروں 535
کتاب@@ 535
اسرار 534
اوسی@@ 534
اکتیس 534
بخت@@ 534
برس@@ 534
بھری 534
خادم 534
صبر 534
لاتا 534
لق@@ 534
ٹینک 534
پری 534
پھینک 534
پیدائشی 534
چیر@@ 534
کوارٹر 534
10ء 533
a@@ 533
انتیس 533
انقلا@@ 533
دانش 533
دیپ 533
ضمانت 533
غوری 533
قطع 533
مباح@@ 533
معر@@ 533
نکس 533
هِ 533
پکارا 533
چھپ 533
ڈبل 533
گانہ 533
1981 532
اسٹوڈیو 532
اطمینان 532
انص@@ 532
جمع@@ 532
حادثے 532
مصالح@@ 532
میڈیم 532
1955ء 531
بالش@@ 531
تحریکوں 531
ریب 531
لٹی 531
نسلوں 531
واد 531
واٹ@@ 531
کنندہ 531
کول 531
60@@ 530
آگئی 530
اسا 530
التحصیل 530
الیاس 530
عمومًا 530
لنگ@@ 530
لوہے 530
مہاجر 530
چرز 530
ادت 529
اسسٹنٹ 529
اولیاء 529
حلف 529
فرش@@ 529
فص@@ 529
متوا@@ 529
موری 529
ٹریٹ 529
پام@@ 529
پرساد 529
کھولا 529
ارِ 528
بہرحال 528
روٹ 528
سایہ 528
سفارش 528
سلطنتوں 528
فیل 528
متوقع 528
معاش 528
نوی@@ 528
واجب 528
گوتم 528
ﻌ@@ 528
اسیر 527
اقب 527
اہلکار 527
برے 527
تمغ@@ 527
زاب@@ 527
واقعی 527
ٹنڈ@@ 527
گال 527
یونیورسٹیوں 527
ﺍﻟ@@ 527
آرٹیکل 526
اراضی 526
خبروں 526
دھر@@ 526
سواں 526
عباس@@ 526
عمارات 526
ًا 526
ٹائی 526
پروجیکٹ 526
چاہا 526
کھڑ@@ 526
3ھ 525
International 525
اپن@@ 525
تقلید 525
جاندار 525
خلجی 525
دام@@ 525
دکھائے 525
ذرا 525
سیہ 525
متاثرہ 525
ڈویژ@@ 525
کروز 525
ہلاکت 525
تخلیقات 524
تفریح 524
سیاح 524
y@@ 523
ایشین 523
بیماریوں 523
عطاء 523
فاسو 523
لائیں 523
لالہ 523
لغوی 523
مرثیہ 523
مینا 523
گردن 523
الڈ 522
باغ@@ 522
راد 522
فہم 522
میٹرکس 522
ناراض 522
نعم@@ 522
ورس 522
پہاڑیوں 522
سویڈش 521
شواہد 521
عہدِ 521
قے 521
مصنفہ 521
130 520
اداکاروں 520
امات 520
رجمنٹ 520
سفی@@ 520
عہدیداروں 520
مشاور@@ 520
نول 520
ٸ@@ 520
ہج@@ 520
۰ 520
1968ء 519
45@@ 519
انیا 519
سائیڈ 519
ضائع 519
لڑکوں 519
پیغ@@ 519
39@@ 518
اترا 518
خلف@@ 518
رفیع 518
سنن 518
فش@@ 518
نتیس 518
نوی 518
پڑھنا 518
گواہی 518
ہز@@ 518
آد@@ 517
الاق@@ 517
رحمان 517
ویمن 517
کروا 517
1949 516
1951ء 516
ارجن 516
اسپورٹس 516
الٹ 516
ایڈمن@@ 516
تعاقب 516
جوابی 516
مك@@ 516
نگاروں 516
کاسٹ 516
کھین@@ 516
ہت 516
19.@@ 515
آرا@@ 515
بھوک 515
تال@@ 515
تجدید 515
ضلعی 515
لسانیات 515
مشورے 515
نیواڈا 515
گاہ@@ 515
اجتماع 514
انجینئر 514
اوورز 514
جھی@@ 514
حال@@ 514
خلا 514
سیت 514
سینہ 514
میئر 514
کمپلیکس 514
ہور 514
1976 513
1977 513
° 513
اہو 513
خوب@@ 513
دریاؤں 513
ذيلي 513
رونما 513
روی@@ 513
سکر@@ 513
عمروبن 513
نیاز 513
وشنو 513
ٹھوس 513
پولش 513
پیشوا 513
کھائی 513
1946 512
le 512
آرا 512
الیوں 512
بکھ@@ 512
دلائی 512
ذخائر 512
رکنیت 512
طول 512
مشائخ 512
کالی@@ 512
کمر@@ 512
کونے 512
گذشتہ 512
1964ء 511
آئوٹ 511
انبیا 511
بیورو 511
دۂ 511
روش@@ 511
ریزرو 511
سائڈ 511
شہزادے 511
قدر@@ 511
مای@@ 511
مسو@@ 511
مپٹن 511
نن@@ 511
پٹنہ 511
گھنٹوں 511
ہنر 511
؁ 510
اشتراکی 510
بیوہ 510
ترویج 510
تینتیس 510
جرا@@ 510
رورل 510
زلزلہ 510
سٹری 510
عیسی 510
لکھتا 510
مقدمات 510
نقصانات 510
ﯿﮟ 510
urban 509
آف@@ 509
اہوں 509
بسا@@ 509
بلوچی 509
رند 509
زمینوں 509
عون 509
كينٹكي 509
مدرس 509
مصوری 509
پالی@@ 509
کاب@@ 509
ﮑ@@ 509
ثم 508
جاب@@ 508
جاد@@ 508
حویلی 508
داخلے 508
وکمال 508
گوں 508
ہیئت 508
110 507
1965 507
900 507
List 507
بااثر 507
دارالعلوم 507
درگاہ 507
لاگت 507
معاف 507
موصول 507
نَ 507
کینسر 507
1958 506
اعزازی 506
عہ@@ 506
كر 506
كن 506
لمح@@ 506
لہجے 506
موازنہ 506
ولسن 506
ٹیلر 506
کمزوری 506
اودھ 505
حُ@@ 505
صغیر 505
لائف 505
مودی 505
چشم 505
کتابت 505
یوس@@ 505
النساء 504
بٹالین 504
بہرائچی 504
بیو@@ 504
حاضری 504
دادی 504
علیا 504
عْ@@ 504
قابلیت 504
معد@@ 504
مغلوں 504
ناممکن 504
ّے 504
پائلٹ 504
پڑوسی 504
پکڑنے 504
کلیئر 504
ہیکل 504
اظ@@ 503
اولمپک 503
اونٹاریو 503
بھیج@@ 503
توثیق 503
جیک@@ 503
شیرازی 503
لائی@@ 503
وام 503
کاظم 503
14,@@ 502
اجات 502
بارہویں 502
ثانیہ 502
كيوبك 502
نغ@@ 502
نیٰ 502
چور@@ 502
ڈا@@ 502
کلر 502
کپ@@ 502
201@@ 501
49@@ 501
kh@@ 501
حسن@@ 501
دھما@@ 501
زہرہ 501
عظمی 501
میچز 501
ورتھ 501
یام@@ 501
Qeshlaq 500
ation 500
اؤنڈ 500
بوٹ 500
توبہ 500
دستی 500
صنفی 500
٢@@ 500
پہلوی 500
کہتی 500
گلے 500
13ء 499
1936 499
بھا 499
جلوس 499
جواز 499
خبریں 499
راحت 499
زمیندار 499
سرا 499
غنیمت 499
مخلوط 499
نیس 499
کامیڈی 499
کک 499
کیتھرین 499
آرکی@@ 498
بسم@@ 498
عم 498
كين@@ 498
مظالم 498
مٹھ@@ 498
نقشبندی 498
نٹی 498
چین@@ 498
کاٹ@@ 498
گرہ 498
1962 497
آوا@@ 497
البرٹا 497
انات 497
جدول 497
حنیف 497
طرفہ 497
مدفون 497
نط@@ 497
ورے 497
پیس 497
چانسلر 497
گرفت 497
۷@@ 497
80@@ 496
جاگیر 496
سخ@@ 496
سوس 496
صدر@@ 496
نشینی 496
وخ@@ 496
ویک@@ 496
کیر 496
یونانیوں 496
65@@ 495
ایرانیوں 495
باندھ 495
تعمیراتی 495
حلال 495
ذب 495
شکوہ 495
لند@@ 495
مضافات 495
ڈیز 495
گھوڑوں 495
ہفت 495
ﺳﮯ 495
امری@@ 494
ايڈ@@ 494
شاہکار 494
موصوف 494
میموریل 494
l 493
انتقام 493
بیا 493
جڑی 493
سرفہرست 493
قل 493
كہ 493
مونٹگمری 493
میٹرو 493
نچلے 493
ولِ 493
کرسکے 493
کنو@@ 493
کولی@@ 493
یال 493
یش 493
Province 492
تھے@@ 492
جوڑی 492
دال 492
زخم 492
شورش 492
گوہر 492
یی@@ 492
X 491
ائیو 491
اسٹاف 491
اشا 491
اضی 491
جوڑا 491
خوش@@ 491
ذو 491
سحر 491
سٹک 491
فائل 491
فقہا 491
لیبر 491
مدرسے 491
چمک@@ 491
کیرول 491
اثاث@@ 490
سيد 490
فلسفے 490
مالٹا 490
مظاہروں 490
کارہ 490
کمپنیاں 490
کیت 490
ہریانہ 490
العاص 489
بریلی 489
تیرا 489
رضاک@@ 489
سیکھ@@ 489
شف@@ 489
قاسمی 489
وزیر@@ 489
چھپا 489
یکا 489
● 489
امپھؤ 488
تاج@@ 488
خز@@ 488
دلوں 488
ریشم 488
صلی@@ 488
صومالیہ 488
لعل 488
آمد@@ 487
اسلامک 487
بای@@ 487
تالیس 487
سکو@@ 487
مانوں 487
موئ@@ 487
يل@@ 487
اعظمی 486
بھتیجے 486
تان@@ 486
جری 486
جمہوريہ 486
حنبل 486
سالم 486
ضمن 486
غزوۂ 486
ودھ@@ 486
وینا 486
پروان 486
چادر 486
کتے 486
کنز 486
یوروپی 486
O 485
n@@ 485
ساسانی 485
شفیع 485
عادت 485
پیسے 485
ڈروں 485
کارا 485
کمائی 485
گزارے 485
گست@@ 485
اجرا 484
ارتی 484
بہبود 484
خانم 484
ربیعہ 484
رت@@ 484
ساہیوال 484
شماریات 484
لْ@@ 484
نمون@@ 484
نکتہ 484
وفا 484
ٹیڈ 484
پھولوں 484
کیف 484
ہاک@@ 484
ﮨﮯ 484
20.@@ 483
اتھا 483
بالغ 483
ة 483
جعفری 483
خر 483
دعو@@ 483
سردیوں 483
سنبھالنے 483
فریڈرک 483
لٹل 483
مایوس 483
معزز 483
منیر 483
مید 483
وسطیٰ 483
11ء 482
16,@@ 482
ایٹم 482
جاسوسی 482
جونز 482
سٹون 482
غیر@@ 482
مادی 482
مونٹ@@ 482
نڈن 482
گاہیں 482
ہڑ@@ 482
ﺒ@@ 482
ﺧ@@ 482
Regional 481
اجاگر 481
جعفرآباد 481
حادثہ 481
رفت 481
لت@@ 481
میز@@ 481
نار 481
پرندوں 481
گزرے 481
1945ء 480
امرو@@ 480
اہت 480
اینٹی@@ 480
زیرِ 480
سیکریٹری 480
لگاتے 480
نڈل 480
گھڑ@@ 480
B 479
آقا 479
برکینا 479
دارا 479
دهٔ 479
غسل 479
فلاح 479
میدانوں 479
نمائندوں 479
ورن 479
کاری@@ 479
گوگل 479
یع@@ 479
U@@ 478
al@@ 478
g 478
اکادمی 478
باطل 478
برداری 478
بکثرت 478
تنخواہ 478
جارجیائی 478
حوں 478
خطرات 478
زہد 478
سعد@@ 478
عملہ 478
عیت 478
فنکشن 478
مرمت 478
مسافروں 478
مظاہر 478
نظر@@ 478
واد@@ 478
کڑی 478
گلاب 478
یلے 478
ﻓ@@ 478
برآں 477
برن@@ 477
توہین 477
جذب 477
دھے 477
ذہبی 477
سیّد 477
عمار 477
مامور 477
مہینہ 477
نسخے 477
واسطہ 477
گوی@@ 477
ad 476
آریائی 476
ائس 476
باقاعدگی 476
دیس 476
رین@@ 476
قض@@ 476
لڑ 476
ماریہ 476
مزدوری 476
منسٹر 476
منگولوں 476
میانوالی 476
نصرت 476
نيبراسكا 476
پوشیدہ 476
کہی 476
گپتا 476
ہالٹ 476
بڑھتا 475
شعبان 475
قلی 475
مختص 475
مدعو 475
معاہدوں 475
ڈگلس 475
المجید 474
انک 474
بص@@ 474
جبری 474
جمادی 474
حیاتیاتی 474
سیمی 474
لاز@@ 474
مکرمہ 474
نٹل 474
نکات 474
نیکوسیا 474
وای@@ 474
کاظمی 474
کرس@@ 474
ہدایتکار 474
1963ء 473
آفاق 473
اخ 473
اشیا 473
الرحیم 473
تلے 473
حب@@ 473
قاتل 473
مادے 473
مسلمہ 473
کزن 473
کڑ@@ 473
گري@@ 473
ھم 473
ra@@ 472
اسکرین 472
القاعدہ 472
انسداد 472
تائیوان 472
جمی@@ 472
حراست 472
حسینؑ 472
درا 472
دیکھنا 472
رخ@@ 472
نایاب 472
ومن@@ 472
پہل 472
یونیسکو 472
town 471
بینٹن 471
ریح 471
شیلڈ 471
لاحق 471
مناظ@@ 471
میلہ 471
ہوتاہے 471
احوال 470
جاہلیت 470
دون 470
راسخ 470
زائ@@ 470
زینت 470
سیکھنے 470
مصطفٰی 470
مطالبات 470
نشستیں 470
نِ@@ 470
چتر@@ 470
چھین 470
ہلز 470
1957 469
1968 469
Olya 469
افتتاحی 469
تناظر 469
جوئی 469
خوبی 469
دوز@@ 469
عشر@@ 469
فاتح@@ 469
قلیل 469
موومنٹ 469
پنگ 469
کمیت 469
् 469
-دے 468
آنند 468
ائي@@ 468
اسن 468
اوٹ 468
ایش@@ 468
تقرری 468
درویش 468
ساب@@ 468
فرانسس 468
مَا 468
پاگئے 468
کاشت@@ 468
کیری@@ 468
46@@ 467
اﷲ 467
توج@@ 467
رفیق 467
فائیٹ 467
فیسٹیول 467
قادریہ 467
مناف@@ 467
نسی@@ 467
وسا 467
پانچواں 467
چارج 467
کارل 467
ھن 467
178@@ 466
ادارت 466
اقلیت 466
اورنج 466
خات@@ 466
قبیلوں 466
مسٹر@@ 466
مطلع 466
منوں 466
بخشی 465
جاس@@ 465
راتی 465
عری@@ 465
فورنیا 465
نع@@ 465
وقفے 465
ویلا 465
ٹکنالوجی 465
پکوان 465
پیدل 465
گنج@@ 465
المقدس 464
خداوند 464
سست 464
مخت@@ 464
معرفت 464
منگولیا 464
میرزا 464
ڈور@@ 464
کنارہ 464
1964 463
47@@ 463
ODI 463
اسماعیلی 463
تورات 463
دوا@@ 463
دیکھتا 463
سبزی 463
طالب@@ 463
عیسائیت 463
مشاع@@ 463
هم 463
چور 463
ڈیوز 463
کرشنا 463
آہنگی 462
به@@ 462
جونیئر 462
دانت 462
سیلی@@ 462
ڈالے 462
گذر 462
۴@@ 462
r 461
آذ@@ 461
برباد 461
تھام@@ 461
رود 461
شام@@ 461
طبیب 461
لائق 461
پہلوؤں 461
ڈیپارٹمنٹ 461
1963 460
om@@ 460
ئیے 460
اوت@@ 460
اوڈیشا 460
تدوین 460
خطاطی 460
سنگھ@@ 460
طلحہ 460
عب 460
متغیر 460
مردان 460
گرنے 460
امیر@@ 459
اکابر 459
باء 459
دیہ@@ 459
زاں 459
سجدہ 459
سوریہ 459
فرمائے 459
فریدی 459
كَ@@ 459
للہ 459
مہا 459
ولز 459
ویز 459
کشی@@ 459
p 458
آباد@@ 458
تھم 458
جيكسن 458
خاموشی 458
روضہ 458
زوجہ 458
ساو@@ 458
سوچا 458
لگنے 458
نشو 458
وسیم 458
پیرو@@ 458
کندہ 458
Sofla 457
es 457
اکہ 457
قاصر 457
قبی@@ 457
لڑتے 457
مقناطیسی 457
موٹر 457
نوے 457
ٗ 457
چارٹر 457
گروں 457
ہیں- 457
city 456
سیٹ@@ 456
لين@@ 456
ملیشیا 456
گندھ@@ 456
گولہ 456
15,@@ 455
1935 455
am 455
انگا 455
بلیو 455
تھام 455
سبی 455
شنکر 455
شیوخ 455
عرب@@ 455
ملاز@@ 455
مونرو 455
نعمان 455
پونے 455
چرا@@ 455
180 454
ارٹ 454
ایان 454
جیلانی 454
حر 454
خوشبو 454
داریاں 454
سامی 454
سلج@@ 454
عبوری 454
لانی 454
ماس 454
نجر 454
پیٹ@@ 454
ہیر@@ 454
1961ء 453
Ar@@ 453
https 453
آئینہ 453
ائیت 453
انگو@@ 453
بجا 453
جاہ 453
حاض@@ 453
داں 453
زخ@@ 453
لیول 453
مشرکین 453
موسی@@ 453
میسور 453
نسیم 453
پٹھان 453
پٹی@@ 453
چھی 453
کمر 453
codice 452
اسٹر@@ 452
انتشار 452
بالوں 452
جارحانہ 452
راہی 452
سبق 452
لتے 452
مادری 452
نجم 452
نڈر@@ 452
وگ@@ 452
ٹوی@@ 452
ڈائری@@ 452
کھیلتا 452
گبول 452
گرمیوں 452
گریز 452
1953ء 451
اللّٰ@@ 451
اورنگزیب 451
اکثریتی 451
دائی 451
دھات 451
صحن 451
فاق@@ 451
ماء 451
مائع 451
مشہد 451
ناولوں 451
نوکری 451
کرز 451
گوس@@ 451
1943 450
القادر 450
اوسط@@ 450
ایتھنز 450
بْ@@ 450
تالاب 450
تحصيل 450
سرم@@ 450
سمرقند 450
لاح@@ 450
لاگ 450
لد 450
معاوضہ 450
مٹ@@ 450
وکا 450
کونسل@@ 450
140 449
اندرون 449
بدعنوانی 449
بلال 449
خوزستان 449
ظالم 449
عا 449
فورم 449
میات 449
نٹو 449
وارد 449
کانگو 449
آئل 448
آوروں 448
انجینئرنگ 448
تحصی@@ 448
تفریحی 448
تقریبا@@ 448
راؤ@@ 448
سمتھ 448
شجاعت 448
شنگ@@ 448
صاحبزادہ 448
ضمیر 448
لیک@@ 448
محلے 448
پنچ@@ 448
1937ء 447
T 447
تباد@@ 447
تکنیک 447
رگ 447
سلووینیا 447
ملحقہ 447
منانے 447
پھوٹ 447
پہنچتا 447
• 447
L 446
آندرے 446
امل 446
اٹھائے 446
بولر 446
بھیڑ 446
تفویض 446
ریکار@@ 446
شعیب 446
صوب@@ 446
متاثرین 446
مریضوں 446
ولس 446
170 445
g@@ 445
t@@ 445
بینکوں 445
سنٹرل 445
قوی 445
منتشر 445
مندروں 445
ٹیکل 445
پودے 445
چپ@@ 445
گزارنے 445
گزرا 445
گود 445
البر@@ 444
ایکسچینج 444
بش 444
بیدار 444
تاخیر 444
خاک@@ 444
دال@@ 444
دلی@@ 444
سکوں 444
شنگ 444
مرگ 444
وقی 444
ٹم 444
ﺪ 444
1935ء 443
النبی 443
اندراج 443
اوپن 443
جامع@@ 443
درمی@@ 443
عامل 443
فنکاروں 443
معص@@ 443
وث@@ 443
پرنس@@ 443
پریشانی 443
0,000 442
1953 442
1966ء 442
ازبک 442
بھول 442
بینی 442
شق 442
فضائل 442
قرہ 442
وران 442
پرفارمنس 442
ہینری 442
ینہ 442
ﻦ 442
آری@@ 441
ارکنساس 441
باش@@ 441
بیج 441
جذباتی 441
طیارہ 441
عر 441
عمو@@ 441
فیت 441
لینڈز 441
منور 441
نکلتا 441
ٹیمیں 441
کوو 441
الناس 440
انفنٹری 440
جارہی 440
خون@@ 440
ستے 440
سینیٹ 440
شوال 440
ضا 440
طیاروں 440
فیئر@@ 440
لٹ@@ 440
مرجع 440
کروانے 440
کشف 440
الب 439
شَ@@ 439
طبی@@ 439
عاصم 439
فلپ 439
قبلہ 439
معطل 439
میراث 439
ودی@@ 439
وہب 439
پروپی@@ 439
ﯼ 439
Maz@@ 438
ئى 438
اپور 438
ایڈز 438
تس 438
شیخوپورہ 438
نسبتا 438
ٹریفک 438
پھیلانے 438
کت 438
ہما@@ 438
آخر@@ 437
ارباب 437
استعفیٰ 437
اسپیکر 437
الیگزینڈر 437
اوقیانوس 437
اہداف 437
باریک 437
تفتیش 437
سامعین 437
شاخوں 437
شرم 437
صر@@ 437
علاقهٔ 437
عوں 437
مامون 437
معاصر 437
ملائ@@ 437
ناجائز 437
پاپوا 437
ژو 437
گُ@@ 437
ہرا@@ 437
3,0@@ 436
رحمتہ 436
روانی 436
شنا@@ 436
فلٹن 436
مقبوضہ 436
ودی 436
کارٹون 436
کیم@@ 436
کیمیا 436
Central 435
o 435
اسامہ 435
اینی@@ 435
تلنگانہ 435
دانشور 435
ریج 435
عوف 435
مام@@ 435
منطق 435
ندیوں 435
نسل@@ 435
وڑ 435
ڈھان@@ 435
ڈھوک 435
کرپ@@ 435
کوسٹ 435
گردوں 435
ﺕ 435
اھ@@ 434
خیالی 434
دوس 434
سنبھالی 434
صارف 434
فیات 434
كلي@@ 434
مش 434
گواہ 434
1957ء 433
آہ@@ 433
ترکیب 433
حت 433
خرابی 433
خریدا 433
دھر 433
رنگین 433
قي@@ 433
لنا 433
مجموع@@ 433
مخاطب 433
وتھ 433
۶@@ 433
ing 432
ابات 432
اٹھاتے 432
ایجنٹ 432
جانشی@@ 432
دھوکا 432
رح 432
شم@@ 432
شناس 432
مرتفع 432
ممل@@ 432
نتھ 432
پروفی@@ 432
پھیلے 432
کریمیا 432
ﻡ 432
ایات 431
برانچ 431
بناتی 431
جتوئی 431
حن@@ 431
ختی 431
رائٹ 431
رْ@@ 431
زبرگ 431
سدھنوتی 431
سٹار 431
قلندر 431
مجسمے 431
ملیں 431
ویکی 431
چائ@@ 431
کتنی 431
یب 431
ابدالی 430
ادریس 430
اشخاص 430
البی@@ 430
بخت 430
بھارتیہ 430
تھوڑے 430
حتیٰ 430
داعی 430
روایتوں 430
رچلینڈ 430
سرحدیں 430
صحافیوں 430
قلات 430
ورکس 430
ٹلینڈ 430
پگھ@@ 430
ہادی 430
160 429
احتمال 429
اعت 429
اقدس 429
برتری 429
تھری 429
جارہا 429
جزو 429
حفاظتی 429
خیمہ 429
دوپہر 429
دھماکا 429
فیکلٹی 429
موس 429
میڈل 429
نسبتاً 429
نقاب 429
وقتی 429
ویلی@@ 429
پتلی 429
پي 429
پٹھ@@ 429
کنونشن 429
ہنگامی 429
199@@ 428
آمیز 428
ابویوسف 428
القاسم 428
ایر@@ 428
باکو 428
ترجمے 428
تعزی@@ 428
خا 428
سردی 428
عیہ 428
قال 428
لبرٹی 428
لوئیس 428
لگانا 428
مفصل 428
موز@@ 428
مين@@ 428
نائجیریا 428
ومن 428
گھاس 428
ﺁ@@ 428
2022ء 427
du 427
بعد@@ 427
بين 427
بہر 427
جدی@@ 427
جوانوں 427
دیہاتوں 427
صی 427
قربان 427
مروی 427
مشتاق 427
وئ@@ 427
واپ@@ 427
ویچ 427
ٹینس 427
ہون@@ 427
یتیم 427
یکجا 427
1937 426
اشاع@@ 426
اینڈرسن 426
بھرا 426
تنوع 426
جوی@@ 426
خَ@@ 426
راگ 426
زیل 426
غان 426
فاس@@ 426
قوت@@ 426
ليے 426
مصدر 426
منقطع 426
نشانات 426
وطہ 426
پخت@@ 426
کانسی 426
ہیٹ 426
101 425
68@@ 425
برک 425
بندہ 425
جاپ@@ 425
ربی@@ 425
طب@@ 425
فرقوں 425
لیون@@ 425
نگہ@@ 425
کردستان 425
کرکٹرز 425
کہکش@@ 425
گاڑیاں 425
1951 424
استونیا 424
الك@@ 424
انضمام 424
بستیوں 424
خدیجہ 424
طاری 424
نوآبادیات 424
کِ 424
اسکی@@ 423
اعلا@@ 423
بوی@@ 423
تشویش 423
ثناء 423
جری@@ 423
حلب 423
دیکھو 423
شد 423
فریم 423
قلعوں 423
ماموں 423
نشستوں 423
وثی 423
ﺎﺭ@@ 423
1952 422
6ھ 422
70@@ 422
بنادیا 422
ترکمانستان 422
جوڑ@@ 422
خزانے 422
خوانی 422
دربار@@ 422
لارنٹ 422
مقالے 422
نتی@@ 422
وتوں 422
َا 422
ٹین@@ 422
کھدائی 422
کیریبین 422
اجتہاد 421
احتیاط 421
ادیا 421
اعانت 421
بیڈ@@ 421
دکھ 421
رائی@@ 421
ریپبلکن 421
شفقت 421
شہز@@ 421
لبری@@ 421
کنبہ 421
گانوں 421
1932ء 420
ch@@ 420
تیہ 420
خودمختاری 420
سْ@@ 420
سیم 420
قا 420
نازک 420
یہ@@ 420
حل@@ 419
ذہ@@ 419
ذہانت 419
ریم 419
غیاث 419
قارئین 419
كري@@ 419
مطبوعہ 419
نصیحت 419
٣@@ 419
کوالا 419
اندازی 418
انکو 418
تحریریں 418
حماد 418
صاب@@ 418
ناد 418
واح@@ 418
1959ء 417
350 417
ااور 417
ربہ 417
روت 417
زي 417
عليہ 417
قطعی 417
مرح@@ 417
نشی@@ 417
یزی 417
ﮦ 417
ﻧﮯ 417
1912 416
1959 416
Republic 416
p@@ 416
ابہ 416
املاک 416
تاثر 416
تغلق 416
ریات 416
سیکڑوں 416
عاب@@ 416
عبدالقادر 416
معذ@@ 416
ورِ 416
ویسٹ@@ 416
ڈڈسمنٹ 416
گریٹر 416
گیتوں 416
ہلا@@ 416
1857ء 415
1938 415
بہرام 415
جرات 415
حنفیہ 415
دہائي 415
دیاں 415
رنگوں 415
سمو@@ 415
محفل 415
ومہ 415
گڈ@@ 415
گیارہویں 415
1944ء 414
63@@ 414
اتي 414
اشک@@ 414
اینجلس 414
بسٹر 414
تربیتی 414
تفریق 414
رایا 414
زنی 414
سنگم 414
سہرا 414
شوق@@ 414
فرانسسکو 414
لاء 414
مثالی 414
مستحق 414
مسکن 414
1936ء 413
1961 413
o@@ 413
اشتراک 413
جنی@@ 413
حصار 413
سد 413
سروسز 413
فیڈرل 413
مصور 413
معاذ 413
نگوں 413
چوٹ 413
ڈار 413
ڑھا 413
ہڑتال 413
1938ء 412
20ء 412
v@@ 412
اصط@@ 412
بننا 412
بیریا 412
دئے 412
ذوالفقار 412
سفلی 412
مقالات 412
نیند 412
پلان@@ 412
ڈائی@@ 412
ہنی 412
یحیی 412
20,@@ 411
us 411
آرائی 411
ائ 411
الذ@@ 411
بندر@@ 411
جاپانیوں 411
دماغی 411
رسل 411
طبق@@ 411
متص@@ 411
وفاداری 411
ينڈ 411
کھیلتی 411
گراں 411
ہنگامہ 411
am@@ 410
العابدین 410
اندی@@ 410
سلسل@@ 410
سیارہ 410
عدل 410
عُ@@ 410
فریق 410
محترمہ 410
نب@@ 410
ولن 410
وکی 410
گائی@@ 410
ہمدان 410
یان@@ 410
1933 409
44@@ 409
ادر 409
ارتھ 409
اسٹھ 409
اوزار 409
تیا 409
حسين 409
خودکار 409
لڑکیاں 409
لگتے 409
مآخذ 409
ملحق 409
نکولس 409
ویسے 409
ٹریک 409
چھاپ@@ 409
ہیل 409
یکے 409
17,@@ 408
T20I 408
j 408
k@@ 408
بخوبی 408
بنارس 408
ترکستان 408
جِ@@ 408
سٹو@@ 408
فلک 408
قمری 408
لوی@@ 408
متوسط 408
منصف@@ 408
منقول 408
وامی 408
پران 408
ہیریسن 408
ﻮ 408
198@@ 407
ad@@ 407
http 407
الطاف 407
ایٹ@@ 407
باہم 407
بوب@@ 407
جملے 407
دستبردار 407
روف 407
ریٹ@@ 407
سیکھا 407
شاه 407
شخصی 407
قدرے 407
لسن 407
لمپور 407
مہاراجہ 407
ناقص 407
ناٹ@@ 407
ٹیو@@ 407
ڈانس 407
ڈیوس 407
1954 406
5ھ 406
N 406
البانیا 406
امکانات 406
اٹلان@@ 406
اہلکاروں 406
باع@@ 406
بھرو@@ 406
تیونس 406
زاویہ 406
سندھ@@ 406
سوامی 406
صوف@@ 406
علموں 406
فٹ@@ 406
وض@@ 406
يس@@ 406
پزیرائی 406
گرمائی 406
گوشہ 406
ﺍ 406
1921 405
amp 405
اردگرد 405
حدیثیں 405
خورشید 405
شہباز 405
طبری 405
مؤرخین 405
معل@@ 405
ڈیزائ@@ 405
گوب@@ 405
67@@ 404
المح@@ 404
امریکن 404
اُٹھ@@ 404
بلديہ 404
جلوہ 404
حدی@@ 404
حنیفہ 404
زکو@@ 404
سوان@@ 404
ندوں 404
نسٹ 404
پاتا 404
III 403
ارتق@@ 403
ایمر@@ 403
تجزی@@ 403
تشخیص 403
تنہائی 403
خضر 403
سٹریشن 403
سہل 403
شیل 403
قاعدہ 403
مانگ 403
منت@@ 403
مکالم@@ 403
مینڈ@@ 403
واج@@ 403
پالی 403
ڈاؤن 403
el@@ 402
in@@ 402
اولا@@ 402
توڑنے 402
خارجی 402
خواص 402
صَ@@ 402
علیؓ 402
فنا 402
لاؤ@@ 402
موصل 402
پنجم 402
پکڑے 402
کنگز 402
کَ@@ 402
کیمیاء 402
گرلز 402
ۡ@@ 402
اسکندریہ 401
اعتدال 401
الک 401
بازی@@ 401
ترمذی 401
خوشحالی 401
رال 401
ساہتیہ 401
شاد@@ 401
فساد 401
كركٹ 401
نوف@@ 401
پیسہ 401
55@@ 400
75@@ 400
؍ 400
ابھر@@ 400
اصلاحی 400
بعہ 400
بہا 400
ثیت 400
حمی@@ 400
دآباد 400
داریوں 400
سیستان 400
شاست@@ 400
عاد 400
فیملی 400
قاف@@ 400
لدھی@@ 400
متوں 400
مشی@@ 400
نڈم 400
پیٹری@@ 400
کیمرون 400
1942ء 399
8ھ 399
المبارک 399
انخلا 399
بلاشبہ 399
توم@@ 399
حت@@ 399
خودکشی 399
زائرین 399
زبی@@ 399
صدی@@ 399
لتی 399
لوپ 399
مقدم 399
نسائیت 399
ویاں 399
وینس 399
کلیم 399
کوچنگ 399
کیل@@ 399
ہراس@@ 399
ہیل@@ 399
177@@ 398
\ 398
آبا@@ 398
ئہ 398
تابع 398
تجھ 398
سیری@@ 398
طیب 398
لکھنوی 398
لیکچ@@ 398
نانک 398
وبہ 398
پٹن 398
پیں 398
چارہ 398
گھانا 398
ہڈی 398
اندر@@ 397
انواع 397
بادل 397
تجرب@@ 397
جڑ 397
خواندگی 397
سٹائل 397
سیاں 397
فتہ 397
فیکٹری 397
قران 397
لوٹ@@ 397
مدا@@ 397
مینجمنٹ 397
نارتھ@@ 397
نبھایا 397
ڈان@@ 397
کتنے 397
گي 397
ہمسایہ 397
یوراگوئے 397
‏ 397
V 396
اریاں 396
اسٹریٹجک 396
اندرا 396
انفارمیشن 396
ایشی@@ 396
تسا 396
دب@@ 396
شیئر 396
طاہ@@ 396
فاسٹ 396
پدم 396
گیندیں 396
باً 395
بلخ 395
تنظیمیں 395
خلاء 395
شرقی 395
طیف 395
قاب@@ 395
مراعات 395
وائے 395
پاؤ@@ 395
پبل@@ 395
پت@@ 395
پہچ@@ 395
کوت 395
23.@@ 394
Sainte 394
آراستہ 394
ثقافتوں 394
جذ@@ 394
حسنی 394
ذبح 394
ذہین 394
فتویٰ 394
لارڈز 394
لوٹا 394
ماج@@ 394
مانچسٹر 394
منز@@ 394
منٹو 394
پيري 394
پکار@@ 394
کتوں 394
گشت 394
گوریلا 394
باط 393
تحفہ 393
تون 393
سیار@@ 393
میسن 393
پروا@@ 393
ڈاکٹریٹ 393
ڈرل 393
ہمالیہ 393
1931ء 392
59@@ 392
اجرت 392
بتاتا 392
ساختہ 392
سرنگ 392
سیس 392
كرا@@ 392
پوٹ@@ 392
۲ 392
176@@ 391
1928ء 391
58@@ 391
E 391
اقی 391
خصوصا 391
خوفناک 391
زنج@@ 391
عائ@@ 391
علیٰ 391
فس 391
فلاحی 391
قان 391
معراج 391
ورز 391
پردے 391
پروٹسٹنٹ 391
1966 390
بیلاروس 390
دریں 390
سائے 390
سروں 390
لوگن 390
ميري 390
نات@@ 390
پروین 390
پینس@@ 390
ڈرن 390
ڈزنی 390
ڈیس 390
ڈیوک 390
کاشی 390
کریٹ 390
کوی 390
کیش 390
$ 389
r@@ 389
ابا 389
اتوار 389
اوصاف 389
تور 389
جزی@@ 389
جنا 389
خریداری 389
خوشگوار 389
راً 389
رویے 389
سینڈ@@ 389
شیراز 389
لنگر 389
معاونت 389
نث@@ 389
نْ 389
یٹ 389
ﻞ 389
آتش@@ 388
البانی 388
بہتا 388
ثن@@ 388
خاصا 388
دیواریں 388
رر 388
سنجیدہ 388
سیراب 388
عصری 388
نجیب 388
ونیو 388
ٹرمپ 388
پولی 388
کہا@@ 388
گھون@@ 388
یوکرائن 388
اظہر 387
اقلیتوں 387
بتوں 387
بذریعہ 387
ترسیل 387
تھل 387
دارانہ 387
سالی 387
قسمیں 387
يز 387
ٹور 387
گزرتا 387
ہارڈ 387
ہیری 387
105 386
Dar@@ 386
sh@@ 386
ارتک@@ 386
اساط@@ 386
الیک@@ 386
ایڈمرل 386
بابو 386
بتا 386
برطان@@ 386
بھوٹان 386
زگور@@ 386
سٹیشن 386
شرک 386
ضعیف 386
قیم 386
لیات 386
مسيسپي 386
پرندے 386
چوہ@@ 386
کردیتے 386
کرچکے 386
کھایا 386
ہمدانی 386
یلا 386
175@@ 385
21.@@ 385
اشتہ@@ 385
الفر@@ 385
بھگوان 385
تارا 385
تقرر 385
خانی 385
خزاں 385
راجن 385
ریف 385
سادگی 385
عبدالح@@ 385
محب 385
نارائن 385
ﻮﮞ 385
21@@ 384
24.@@ 384
30ء 384
ائش 384
ائیر@@ 384
الہی@@ 384
بتاتی 384
بریک 384
تند@@ 384
جال@@ 384
جہنم 384
رياست 384
ضاب@@ 384
قلت 384
ماہانہ 384
يان 384
ٰۃ 384
پسماندہ 384
کچر 384
ابوب@@ 383
اسمتھ 383
اسٹائل 383
اسپن 383
اوول 383
بدوش 383
بوئ@@ 383
تبلیغی 383
خص@@ 383
رود@@ 383
كل 383
ناز@@ 383
نح@@ 383
نوشتہ 383
ڈیٹ 383
کینڈا 383
125 382
1929ء 382
1955 382
انعامات 382
بنگ 382
بورن 382
تبص@@ 382
تحف@@ 382
جرنیل 382
دلہن 382
زرخیز 382
زنا 382
سیکولر 382
صدام 382
لگتی 382
مالیہ 382
نعرہ 382
واسطے 382
ویسٹرن 382
کلچر 382
گھٹ@@ 382
1921ء 381
1922ء 381
1934ء 381
D 381
ed 381
بھان@@ 381
زرتش@@ 381
سویل 381
شاع@@ 381
قافلہ 381
قومیت 381
لطیفہ 381
ماننا 381
محصول 381
مشر@@ 381
مطلوبہ 381
منتظم 381
میو 381
وست@@ 381
پای@@ 381
چشتیہ 381
ڈوب 381
گرمین 381
ھائی 381
102 380
c@@ 380
التا 380
الرا@@ 380
بچایا 380
بہنے 380
ثالث 380
حاتم 380
خودمختار 380
سرکردہ 380
فصیل 380
وعد@@ 380
ٹوکیو 380
چاریہ 380
ڈیاں 380
ژ 380
ہمدر@@ 380
ہنس 380
ہولی 380
4ھ 379
7ھ 379
اعضاء 379
اناج 379
انفرا@@ 379
تاس@@ 379
ذمے 379
لودھی 379
مطمئن 379
میشن 379
نشاندہی 379
نصی@@ 379
نفیس 379
ونڈوز 379
پروڈیوس 379
کرافورڈ 379
یونی 379
القادری 378
بیداری 378
تاشقند 378
جانبدار 378
زیشن 378
طلائی 378
طنز 378
فکشن 378
لیث 378
نویسی 378
وکے 378
ویا 378
چنگ@@ 378
کیک 378
گھوڑا 378
یاسر 378
57@@ 377
Al@@ 377
اتو 377
باس 377
بھگت 377
تمھ@@ 377
درن 377
سنتے 377
صنع@@ 377
غی 377
محص@@ 377
منیسوٹا 377
نفوس 377
وزیراعظم 377
چھاپے 377
کتنا 377
کرامت 377
کروائے 377
197@@ 376
آبادیوں 376
ائیل 376
ابادی 376
الاز@@ 376
انسی 376
اولڈ 376
اوکاڑہ 376
اینٹوں 376
برخلاف 376
تام@@ 376
توت@@ 376
رتن 376
شاپور 376
شعل@@ 376
فرمائیں 376
نمٹنے 376
وظیفہ 376
ٹریننگ 376
ٹرینی@@ 376
1919ء 375
1934 375
22.@@ 375
el 375
آکسیجن 375
استح@@ 375
انا@@ 375
دنیاوی 375
شہد 375
لاؤ 375
لوڈ 375
نوک 375
نگران 375
وسکی 375
ٹرانسپورٹ 375
پچھلی 375
ڈسن 375
گوری@@ 375
اجسام 374
اینگ@@ 374
بشپ 374
دورِ 374
عتی@@ 374
قار@@ 374
متوازی 374
نبھ@@ 374
نقوش 374
کپڑا 374
2,8@@ 373
66@@ 373
الاع@@ 373
دقی@@ 373
راجیہ 373
زگ@@ 373
سٹری@@ 373
مایوسی 373
وامي 373
وجا 373
گھڑی 373
2,5@@ 372
اجر 372
انوالہ 372
باگو 372
بٹھ@@ 372
تجھے 372
جوب@@ 372
خوشحال 372
سپاہ 372
سگ@@ 372
شاعرہ 372
مزاح@@ 372
وکی@@ 372
چھٹے 372
ہوجانے 372
18,@@ 371
with 371
اركنساس 371
البانیہ 371
بوری 371
بڑھی 371
بیکر 371
تعل@@ 371
جمشید 371
زمیند@@ 371
سیاستدان 371
فرانسیسیوں 371
وحدت 371
ووا 371
ى@@ 371
پتھ@@ 371
کاش 371
کتب@@ 371
کندھ@@ 371
ہرن 371
ہیلتھ 371
1924ء 370
1932 370
Mar@@ 370
اح 370
بحق 370
برائ@@ 370
جاو@@ 370
داماد 370
رسوم 370
رضامندی 370
روہ 370
ستلج 370
سراغ 370
سلسلۂ 370
سماع 370
عباسیہ 370
عروہ 370
مذاق 370
منشیات 370
موج@@ 370
واز 370
ولادی@@ 370
پائیں 370
پلو@@ 370
ڈونلڈ 370
کروا@@ 370
.. 369
99@@ 369
ate 369
احمر 369
اونچا 369
جرسي 369
جڑ@@ 369
ختہ 369
سائنسدانوں 369
سٹریٹ 369
قر 369
مانی@@ 369
محراب 369
مصطفیٰ 369
نکا 369
ولي@@ 369
يش@@ 369
ٹیکنیکل 369
پکڑا 369
پہننے 369
ڈول 369
ڈول@@ 369
کارنامے 369
کرسمس 369
آپؒ 368
استاذ 368
الشیخ 368
اوق@@ 368
برائی 368
جماعتیں 368
روانڈا 368
سانحہ 368
سکہ 368
فاق 368
لانڈ@@ 368
متفقہ 368
نحو 368
نخ@@ 368
ولي 368
پاشی 368
گیتا 368
m@@ 367
اریہ 367
ترانہ 367
حکومتیں 367
دلکش 367
رہم 367
علیحدہ 367
مفسرین 367
مکتبہ 367
ناس 367
وسٹا 367
چورا@@ 367
کشمکش 367
گارڈن 367
گیاں 367
ہاڑی 367
Bot 366
ارستان 366
الائ@@ 366
الرزاق 366
تلقین 366
حاد@@ 366
ریڈی 366
صوفیہ 366
غنی 366
قامت 366
ماہر@@ 366
نغمے 366
194@@ 365
25.@@ 365
الٰ@@ 365
بشر 365
بغدادی 365
دلا@@ 365
دوستانہ 365
صفدر 365
عقی@@ 365
فیئرفیلڈ 365
متضاد 365
نیوٹن 365
ّا 365
ٹیو 365
پلانٹ 365
یوتھ 365
یوگوسلاویہ 365
آرمینی 364
آگاہی 364
آہنگ 364
افت@@ 364
اکرام 364
بارود 364
بمقابلہ 364
بیجنگ 364
تعصب 364
جیش 364
غیب 364
مددگار 364
نسائی 364
وري@@ 364
پک 364
l@@ 363
اہلسنت 363
بندوں 363
تانبے 363
جلا@@ 363
حبشہ 363
خض@@ 363
دشت 363
دلیپ 363
فرش 363
فقی@@ 363
لڑائیوں 363
معلم 363
ممنوع 363
موتی 363
مہر@@ 363
نظرانداز 363
يُ@@ 363
چیچنیا 363
ڈیشن 363
کبڈی 363
گزی@@ 363
ہینکوک 363
ﭼ@@ 363
اخبار@@ 362
اطلا@@ 362
افی@@ 362
الوہاب 362
بطن 362
بہنوں 362
خزرج 362
رچمنڈ 362
سیان 362
صداقت 362
صہ 362
عدالتوں 362
عزی@@ 362
مقررہ 362
نافع 362
نوش 362
نڈا 362
ٹينيسي 362
ڈھونڈ@@ 362
کلمات 362
کوالیفائر 362
کیمپوں 362
Region 361
re@@ 361
آکس@@ 361
ائف 361
اقلیتی 361
الوی 361
بقا 361
جیٹ 361
رجحانات 361
سٹا 361
سیدھے 361
مثلًا 361
منو@@ 361
موق@@ 361
میلے 361
نواح 361
وضو 361
گیر@@ 361
ہیرا 361
ﺯ@@ 361
1926ء 360
R 360
f 360
آدھی 360
ابیہ 360
بیٹھنے 360
تعظیم 360
تے@@ 360
دانشوروں 360
سانپ 360
سترہویں 360
سجادہ 360
عبدالملک 360
معمر 360
موسمی 360
نوج@@ 360
ورثے 360
پائن 360
پرائیویٹ 360
ڈوس 360
ڈھائی 360
یانگ 360
1913 359
ay 359
برانڈ 359
تزئین 359
خوارزم 359
دخ@@ 359
رموز 359
ریلی 359
زمانۂ 359
سہارنپور 359
سیاحتی 359
سیاروں 359
شاہین 359
صرا@@ 359
صنعتوں 359
فرہ@@ 359
والم@@ 359
کیلی@@ 359
کیلے 359
گمان 359
یَ@@ 359
۱۹@@ 359
آند@@ 358
امانت 358
امنی 358
انار@@ 358
اکنام@@ 358
اگیا 358
بیٹیوں 358
تاتار 358
جتنے 358
حسی@@ 358
عالمي 358
فیر 358
چناب 358
یاء 358
z 357
احتج@@ 357
ادویات 357
اوّل 357
بخار@@ 357
بشارت 357
بع 357
طلوع 357
لڑا 357
ٹيك@@ 357
چود@@ 357
کوم 357
کھنڈ 357
یی 357
90@@ 356
ur@@ 356
الیکٹران@@ 356
تلا 356
خودی 356
خوشاب 356
ذرات 356
سوئٹزرلینڈ 356
سوئی 356
ليا 356
معائ@@ 356
ندوۃ 356
ٹائٹل 356
چھا 356
ژن 356
کہلائے 356
ہارٹ 356
۱ 356
1922 355
1927ء 355
An@@ 355
انوار 355
اوک 355
اپر 355
بزر@@ 355
بیٹ@@ 355
حوال@@ 355
خورد 355
خٹک 355
روایتیں 355
رور@@ 355
علیہم 355
عِ@@ 355
مشتق 355
معمار 355
ملایا 355
پلاٹ 355
پُر 355
ڈرو 355
کٹرز 355
آسٹریلین 354
اذان 354
اردو@@ 354
الوج@@ 354
اندھی@@ 354
بھار@@ 354
بہنیں 354
ترے 354
تلو@@ 354
حجاب 354
حری@@ 354
سیاس@@ 354
شادیاں 354
صن@@ 354
مشترک 354
مفاد 354
مقد@@ 354
مندی 354
منز 354
مِنْ 354
مکرر 354
مہتمم 354
ڈرز 354
کامیابیوں 354
ہزار@@ 354
ﻲ 354
1923ء 353
1941ء 353
آنسو 353
ابوالحسن 353
اقرار 353
برادریوں 353
داللہ 353
درسگاہ 353
دلانے 353
شیائی 353
شیما 353
عظمیٰ 353
فلاں 353
فيئر@@ 353
مائیکرو@@ 353
منہاج 353
نعتیہ 353
نیپالی 353
وؤں 353
ڈیلٹا 353
کامران 353
۳ 353
امیدواروں 352
برق 352
بیڑا 352
جرائد 352
راؤنڈ 352
سہروردی 352
متنوع 352
میگ@@ 352
نَّ@@ 352
نٹی@@ 352
گند@@ 352
گوم@@ 352
ﻴ@@ 352
ازدواجی 351
الحسین 351
اوا@@ 351
بھا@@ 351
ثقہ 351
قازق 351
لیڈی 351
ندھ@@ 351
نقد 351
نوس 351
پہنچتی 351
ڈویلپمنٹ 351
کولا 351
19,@@ 350
220 350
9ھ 350
آسمانی 350
ادم 350
الٹی 350
بدای@@ 350
جہیز 350
زاہ@@ 350
زروی@@ 350
قضا 350
قیمتوں 350
مادر 350
میان@@ 350
ويسٹ 350
چٹان 350
174@@ 349
27.@@ 349
ابل 349
ادبیات 349
ادیبوں 349
اشارے 349
امتزاج 349
بام@@ 349
بیح 349
تئیس 349
تہذیبی 349
حے 349
زویل 349
سبی@@ 349
سنہ@@ 349
سٹس 349
سیکنڈری 349
فرینک 349
فصلوں 349
منت 349
ناش@@ 349
ڈاڈ 349
کوریائی 349
۹@@ 349
انتظامات 348
اڑا 348
جریدے 348
ذوال@@ 348
ساگر 348
شیواجی 348
فال 348
مانسہرہ 348
ہات 348
یوحنا 348
ﮨﻮ@@ 348
108 347
2,6@@ 347
240 347
5000 347
امدادی 347
اڈوں 347
براؤ@@ 347
بچی 347
تیرہویں 347
جذبے 347
جلی 347
جیکٹ 347
خوار@@ 347
رستم 347
ستی@@ 347
سینی 347
قدیمی 347
نیٹو 347
چغتائی 347
کاٹنے 347
کرائ@@ 347
کھیتی 347
ﮐﺎ 347
1931 346
ارادے 346
اساس 346
اقب@@ 346
ایڈیلیڈ 346
بخش@@ 346
تاثیر 346
تعمیل 346
جنیوا 346
سمر@@ 346
طاق@@ 346
لار 346
مرہٹہ 346
مزہ 346
مشرقي 346
مطابقت 346
میٹ 346
ناص@@ 346
نثار 346
نَّ 346
کرین 346
2,4@@ 345
43@@ 345
Kandi 345
آرٹسٹ 345
بتائے 345
توق@@ 345
جاگ@@ 345
جمعرات 345
حز@@ 345
رائی 345
طر 345
مارٹل 345
معز@@ 345
موج 345
ناگپور 345
ٹھہ 345
ڈائی 345
ڈنٹ 345
کھلا@@ 345
کیوبیک 345
ہم@@ 345
ﻢ 345
1933ء 344
2,7@@ 344
JarBot 344
اعدادوشمار 344
برززن@@ 344
دانہ 344
روپ@@ 344
سچائی 344
كن@@ 344
لگاتار 344
مجیب 344
نیکی 344
پانڈ@@ 344
پچھ@@ 344
ڈاٹ 344
ینے 344
آمنہ 343
ئیس 343
القدر 343
اناؤ 343
تِ@@ 343
حجت 343
شایع 343
لائسنس 343
ماڈلنگ 343
منگل 343
میامی 343
والح@@ 343
وور@@ 343
ویدک 343
ٹھو@@ 343
چوڑائی 343
کٹس 343
i@@ 342
بھرے 342
خانق@@ 342
سوز 342
عک@@ 342
فوٹو 342
فہ@@ 342
قف 342
لانچ 342
لَا 342
لیب 342
مانگی 342
مير 342
وين 342
پوم@@ 342
ڈٹ 342
کنو 342
ہیومن 342
Bar@@ 341
آرائش 341
انیں 341
بدقسمتی 341
بندوق 341
بہم 341
حساس 341
راجپوتوں 341
رینی 341
سنے 341
ضابطہ 341
غت 341
فنان@@ 341
كام@@ 341
لیلی 341
مایہ 341
مبلغ 341
مکران 341
ٹیبل 341
کرسکتی 341
کھنڈر 341
گاری 341
گنگ 341
یارکشائر 341
ﷲ 341
104 340
ur 340
اجل 340
اٹھانا 340
بھٹ 340
ثعلبہ 340
جند@@ 340
حافظہ 340
خدشہ 340
ستیہ 340
صلا@@ 340
فیصلوں 340
لوگو 340
مجاہ@@ 340
منڈل 340
نباتات 340
پود@@ 340
پھیلنے 340
کتابی 340
کھیلنا 340
ہمدردی 340
ہُ@@ 340
اخلاقیات 339
اك 339
بھکر 339
تھو 339
داہ 339
دھم@@ 339
ذخی@@ 339
سپلائی 339
قسط 339
قصیدہ 339
مئ@@ 339
مالی@@ 339
مانگ@@ 339
ماچ@@ 339
مجتہد 339
مهٔ 339
وزڈن 339
وینزویلا 339
چینگ 339
ڈومینیکن 339
کررہی 339
کمپیو@@ 339
1939ء 338
اکس 338
تجاویز 338
جار 338
جسامت 338
زاوی@@ 338
صفہ 338
فز@@ 338
قافلے 338
لڑاکا 338
مرتک@@ 338
مردانہ 338
مفاہ@@ 338
ونَ 338
پہنچتے 338
چھاپہ 338
کلائ@@ 338
کوئینز 338
ہوشی@@ 338
یونٹوں 338
F 337
G 337
بوسٹن 337
جالندھر 337
جک 337
جھنڈے 337
دري@@ 337
سوز@@ 337
فیئرویو 337
قرضوں 337
قصر 337
ليس 337
مہلک 337
نَا 337
وارانسی 337
ومِ 337
ٓ@@ 337
کتا 337
کرسکیں 337
کنڑ 337
گلہ 337
گنیز 337
یونائیٹڈ 337
1929 336
2,9@@ 336
آلو 336
ادراک 336
العین 336
ایمپ@@ 336
حا 336
خوں 336
رسد 336
زیورات 336
فاؤن@@ 336
فول@@ 336
كَ 336
مکھی 336
میدانی 336
ناف 336
نستعلیق 336
ٹانگ@@ 336
پرور@@ 336
ڈرامائی 336
ڈپلو@@ 336
کررہا 336
یمنی 336
1914ء 335
Iowa 335
ائب 335
ابوس@@ 335
استوار 335
البرٹ 335
انط@@ 335
تھانہ 335
سیکر@@ 335
غصے 335
قت@@ 335
كت 335
ناظرین 335
نگو 335
ها 335
وارا 335
وزراء 335
ویژ@@ 335
ٹویا 335
پان 335
چرچل 335
چمپ@@ 335
ڈونگ 335
کز@@ 335
ﻝ 335
193@@ 334
California 334
er@@ 334
باڈی 334
بلدی@@ 334
عان 334
عبدالمطلب 334
علامتی 334
غربی 334
قومي 334
لنک 334
لکیر 334
مشاہدات 334
مضبوطی 334
مم@@ 334
نہر@@ 334
٠@@ 334
ٹام 334
چیل@@ 334
کثافت 334
کردیتا 334
115 333
as@@ 333
اعتراضات 333
اپوزیشن 333
اۃ 333
ایشز 333
بالٹک 333
بلو 333
درپیش 333
دنیائے 333
ربن 333
صحی@@ 333
طفیل 333
طیبہ 333
فقط 333
لنگٹن 333
منزلیں 333
مۃ 333
والی@@ 333
چری 333
کاؤ@@ 333
کٹک 333
ہدایتکاری 333
1917ء 332
78@@ 332
اشتہارات 332
اصد 332
اونی 332
بدنام 332
توی 332
دائر@@ 332
دروازوں 332
راف 332
عَلَ@@ 332
قان@@ 332
معالج@@ 332
نسر 332
نیول 332
واق@@ 332
ورو@@ 332
پہنا 332
کلیسی@@ 332
یائے 332
ﺤ@@ 332
190 331
are 331
آلپ 331
افسروں 331
الث@@ 331
اورحضرت 331
بندوبست 331
تبتی 331
تحقی@@ 331
حفیظ 331
رشد 331
ستوں 331
سنایا 331
شوگر 331
شکاگو 331
عدنان 331
عنو@@ 331
لتھو@@ 331
میٹنگ 331
کانیں 331
کرایہ 331
کردیئے 331
کھجور 331
کیشنز 331
ہان@@ 331
ہما 331
ہوی 331
56@@ 330
on@@ 330
آرک@@ 330
باڑی 330
جس@@ 330
ریٹائرڈ 330
سچے 330
صوفیا 330
عمیر 330
فریضہ 330
ماریا 330
منصف 330
منہدم 330
ونت 330
چائنا 330
چیوان 330
گزرتی 330
1925ء 329
· 329
آئرن 329
آركنساس 329
آزمائش 329
ائیے 329
اٹھارویں 329
اکلو@@ 329
ترجم@@ 329
تونس 329
جاسکتے 329
حْ@@ 329
دوم@@ 329
رج 329
رینہ 329
صاحبِ 329
فرخ 329
قادی@@ 329
لبن@@ 329
لنڈ@@ 329
لوا 329
مالیت 329
نبرگ 329
ٹریڈ 329
پڑھایا 329
کووڈ 329
100@@ 328
NA 328
South 328
آدھے 328
ايل 328
بخار 328
بصیرت 328
سوچ@@ 328
شفیق 328
شکلوں 328
فجر 328
مضافاتی 328
معذور 328
منبر 328
پرتاپ 328
پرہ@@ 328
ڈوں 328
کماری 328
گراڈ 328
یۃ 328
ﺎﻧ@@ 328
1924 327
1943ء 327
ani 327
ia 327
العل@@ 327
بایزید 327
تشہیر 327
خندق 327
دوڑ@@ 327
دکھانے 327
رضاکارانہ 327
ساہ@@ 327
سیو 327
شوٹنگ 327
شيخ 327
صالح@@ 327
صور 327
صور@@ 327
طف@@ 327
قرطبہ 327
قي 327
ملتانی 327
میلا 327
نہاد 327
نہيں 327
ينگ 327
پرامن 327
پینل 327
ڈھیر 327
کشیدگی 327
کمونے 327
کوفی 327
ہلکی 327
ہندوستانیوں 327
یقیناً 327
130@@ 326
54@@ 326
ir 326
آمدات 326
اسناد 326
برفانی 326
بور 326
تخت@@ 326
تریا 326
جانبد@@ 326
جمہوری@@ 326
حذی@@ 326
ذائقہ 326
رم@@ 326
روزمرہ 326
رینج 326
زنجی@@ 326
سوتی 326
شعبۂ 326
طبعی 326
عرس 326
فرنس@@ 326
لفظوں 326
لیو@@ 326
متنازعہ 326
واٹر@@ 326
پیچھا 326
پیچی@@ 326
کھیتوں 326
ہاؤ@@ 326
‍ 326
1500 325
195@@ 325
آداب 325
آراء 325
اصفہانی 325
اله@@ 325
انگو 325
جریدہ 325
خونی 325
دبانے 325
روح@@ 325
رونا 325
سٹین 325
شتر 325
فلسطینیوں 325
كتاب 325
لکی 325
مترادف 325
مشنری 325
مڈوے 325
نایا 325
ونیت 325
ينَ 325
اتباع 324
المعارف 324
امتحانات 324
اکر@@ 324
بحي@@ 324
بز 324
تالوں 324
تمغے 324
طائف 324
فلوريڈا 324
مداف@@ 324
معارف 324
میلان 324
ناگ 324
والیہ 324
وين@@ 324
ََ 324
ٹھہرا@@ 324
کاک 324
کردوں 324
یوٹیوب 324
64@@ 323
Haj@@ 323
اللَّ@@ 323
بارڈر 323
باش 323
باہ 323
تساب 323
ثقل 323
حاملہ 323
سٹل 323
غریبوں 323
قرار@@ 323
قصے 323
لب@@ 323
محكمہ 323
میکس 323
وقفہ 323
يد 323
ٹیپو 323
پرت@@ 323
پسندانہ 323
ہدی 323
ہسپانویوں 323
یوکری@@ 323
106 322
آرگنائزیشن 322
اینڈریو 322
جسٹ 322
حارثہ 322
رحمانی 322
ردعمل 322
سائیکل 322
سیالوی 322
سیکشن 322
شیشے 322
طبر@@ 322
فلسفیانہ 322
كُ@@ 322
نش 322
پلٹ 322
پہلوان 322
ڈاکٹروں 322
کھینچ 322
کیسل 322
گھا@@ 322
اداک@@ 321
ارشد 321
اسکے 321
المق@@ 321
اونچے 321
بدترین 321
جنوں 321
خُ@@ 321
داستانوں 321
رہو 321
ستھ@@ 321
سمجھنا 321
ضخ@@ 321
ضیا 321
ظات 321
فرات 321
فرمان@@ 321
مطالعات 321
٩@@ 321
پارے 321
چنگیز 321
گلستان 321
گنڈا 321
ﻼ@@ 321
👈 321
155 320
1912ء 320
360 320
ارون 320
اُن@@ 320
جزيرہ 320
حاوی 320
داست@@ 320
دران 320
رائٹس 320
ربا 320
رکنی 320
سخی 320
شوز 320
لیف@@ 320
مماثلت 320
مورس 320
مہاتما 320
میرٹھ 320
نیلی 320
پہا@@ 320
کمرہ 320
ﺗﮭ@@ 320
94.@@ 319
اسکو@@ 319
اوپری 319
جعلی 319
خریدنے 319
درستی 319
ریاضت 319
سولو 319
صحرائے 319
عتبہ 319
محمدی 319
مرغ@@ 319
مصیبت 319
نگھم 319
وزی@@ 319
وطی 319
٢ 319
پیشرفت 319
چھٹا 319
گجر 319
107 318
114 318
Minnesota 318
افری@@ 318
الحرام 318
الم 318
تمیم 318
جیانگ 318
خروج 318
درجنوں 318
رعایا 318
روزے 318
رومانی 318
فرح 318
قرب 318
محتاط 318
نامکمل 318
نانی 318
ٹري@@ 318
ٹڈ 318
کاپی 318
گارڈ@@ 318
گراہم 318
گوش 318
ید@@ 318
109 317
235 317
it 317
ئیم 317
اسٹری@@ 317
انڈرگراؤنڈ 317
تیزاب 317
جانداروں 317
جین@@ 317
خم 317
دادو 317
دب 317
سادھ@@ 317
علالت 317
فاف 317
ماؤ 317
معام@@ 317
يني@@ 317
ڈیفنس 317
۵ 317
112 316
امپائر 316
اڑیسہ 316
تھلگ 316
حالت@@ 316
ریکارڈنگ 316
طان@@ 316
لمحہ 316
مجالس 316
پذیری 316
گذرے 316
گناہوں 316
117@@ 315
25,@@ 315
450 315
at@@ 315
f@@ 315
أت 315
ارض@@ 315
اونٹ@@ 315
ایلی 315
برڈ 315
تاتاری 315
تحصیلوں 315
تہذیبوں 315
جلسہ 315
سوراخ 315
شہزاد 315
غذائی 315
فان@@ 315
لاہوری 315
مملوک 315
پشتون@@ 315
پنڈی 315
کاؤ 315
یع 315
28.@@ 314
آبادکاری 314
آسو@@ 314
ائٹ 314
اسٹڈیز 314
السّلام 314
املا 314
انسائیکلوپیڈیا 314
بلوم 314
بوٹ@@ 314
بچاؤ 314
بیروت 314
جست@@ 314
خالصہ 314
دہند@@ 314
روانگی 314
رکوع 314
سڑ@@ 314
سیداں 314
شبلی 314
طوسی 314
عدلیہ 314
فتو@@ 314
مبصرین 314
معقول 314
میون@@ 314
نجد 314
پابندیوں 314
پولو 314
یقینا 314
1918ء 313
des 313
آئلینڈ 313
افہ 313
التے 313
انگلی 313
اولمپ@@ 313
بھڑ@@ 313
تعجب 313
خانیوال 313
راشدی 313
رانہ 313
شکلیں 313
فائی 313
پسپا 313
چھپی 313
ہرہ 313
w@@ 312
اقتب@@ 312
اندوز 312
انسپکٹر 312
اِسے 312
اٹھے 312
اہلیت 312
بسا 312
بنگلا 312
به 312
تعری@@ 312
جنید 312
حسد 312
خواہشات 312
دائے 312
دک 312
سلطنت@@ 312
سپرنگ 312
سیون 312
شیفیلڈ 312
طریق@@ 312
عتی 312
فہر@@ 312
قاتی 312
محاور@@ 312
واضع 312
وٹو 312
ٹرائے 312
کالجوں 312
commune 311
ابنِ 311
اِن@@ 311
ایکسپ@@ 311
تالیفات 311
جید 311
شعر@@ 311
صوتی 311
ممبران 311
منگٹن 311
نووڈ 311
وعہ 311
پرائز 311
پہچانا 311
چاکر 311
چز 311
کولمبس 311
ہٹانے 311
128 310
اخلا@@ 310
امپیریل 310
اوتار 310
بخود 310
بروک 310
بفیلو 310
جھارکھنڈ 310
جیتی 310
حصّہ 310
صدقہ 310
كرو@@ 310
متھ@@ 310
محک@@ 310
ملر 310
نفی 310
ٹرانس 310
پد@@ 310
پرکاش 310
پیا 310
چھوڑے 310
کیلنڈر 310
گرجاگھر 310
ہرگز 310
124@@ 309
اجمیر 309
الحارث 309
الکبیر 309
انچارج 309
خا@@ 309
زرداری 309
سمند@@ 309
سمٹ 309
عماد 309
قائدین 309
قح@@ 309
مارکی@@ 309
مستعفی 309
منظوم 309
مڈ 309
نریندر 309
والیس 309
ٹیس 309
پطرس 309
چرو@@ 309
کاتھولک 309
کسر 309
کوہستان 309
گاروں 309
ہلیری 309
32@@ 308
آو@@ 308
ابِ 308
اصناف 308
الرحم@@ 308
اوند 308
ایریا 308
برہم 308
بنک 308
تاث@@ 308
تمباکو 308
تنزانیہ 308
توسط 308
جیا 308
خال@@ 308
رسن 308
صل 308
صورتوں 308
مدتی 308
مروجہ 308
مہاراج 308
واب 308
ٹھہر@@ 308
پروٹوکول 308
پست 308
پوشی 308
پیارے 308
کرۂ 308
گیور@@ 308
یق 308
ﮐﺮ@@ 308
ﻥ 308
1908ء 307
23,@@ 307
Qar@@ 307
en@@ 307
آجائے 307
ارنے 307
ارو@@ 307
اوكلاہوما 307
اوپننگ 307
بًا 307
تاجک 307
رقاص@@ 307
سرب 307
سینما 307
شادیوں 307
ضمنی 307
طباعت 307
عقلی 307
ماف@@ 307
محکمے 307
منائی 307
منبع 307
واقفیت 307
وعظ 307
ٹومب 307
پس@@ 307
چیمپیئن 307
گلوکاروں 307
ھوں 307
ہارٹ@@ 307
1915ء 306
اض 306
التو 306
جھنڈا 306
دبا 306
درجن 306
دکھا 306
شیروں 306
فارسٹ 306
فضاء 306
قاجار 306
قع 306
لعنت 306
ماسٹرز 306
ميڈي@@ 306
نوٹس 306
نکی 306
ٹکڑوں 306
پہن 306
چنا@@ 306
ڈارون 306
کوہاٹ 306
گود@@ 306
ہوت 306
ہیا 306
ہیو@@ 306
اشاریہ 305
باں 305
ثے 305
خراسانی 305
دبا@@ 305
ریشن 305
شعب@@ 305
صحیفہ 305
طریق 305
كشن 305
لگاؤ 305
مسودہ 305
ملاپ 305
منج@@ 305
ولوجی 305
وُ@@ 305
پاتی 305
پاپ 305
پیشاب 305
کرک 305
گرل 305
گرین@@ 305
53@@ 304
x@@ 304
اسلح@@ 304
الض@@ 304
اپا 304
بتدریج 304
برطرف 304
بستر 304
تمنا 304
دائر 304
رسول@@ 304
سائیں 304
عزاداری 304
علمبر@@ 304
غزلیں 304
فریقین 304
فہمی 304
لادن 304
موس@@ 304
میونسپ@@ 304
نون@@ 304
واڑ 304
ٹیں 304
پندرہویں 304
پکا 304
چرل 304
کاراب@@ 304
کانپور 304
کوئنز 304
103 303
126 303
3000 303
ab 303
آئر 303
آبادي 303
احم@@ 303
الرحمہ 303
بھلا 303
بہاؤالدین 303
بیور 303
تمدن 303
ثالث@@ 303
دريا 303
رشوت 303
سنجر 303
سنٹ 303
صفین 303
طواف 303
مشابہت 303
منزلہ 303
واٹ 303
ٹیل@@ 303
ڈھال 303
گلزار 303
گھرا 303
114@@ 302
ic 302
اسکوا@@ 302
افغانی 302
المؤمنین 302
اکائیوں 302
تسخیر 302
ریست@@ 302
شخ@@ 302
شي 302
فلمس@@ 302
مدح 302
نوشی 302
وتہ 302
وسٹن 302
پہنے 302
چمک 302
چُ@@ 302
کپڑوں 302
۴ 302
196@@ 301
ów 301
اسٹیل 301
ايك@@ 301
ایڈ 301
بھگ@@ 301
تشبیہ 301
دگار 301
رؤ@@ 301
روزگاری 301
سرٹی@@ 301
سمر 301
سنان 301
طالبات 301
فرضی 301
قرأت 301
مزارات 301
مفسر 301
ممانعت 301
مویشی 301
مویشیوں 301
نامزدگی 301
وفضل 301
ہاک 301
er 300
ol 300
الاش@@ 300
ایلیٹ 300
جمالی 300
دالہ 300
شاعرانہ 300
صابر 300
مخط@@ 300
مسن 300
مشابہ 300
وارسا 300
وبائی 300
وزرائے 300
ووس@@ 300
پنڈ 300
کاتب 300
ہائیڈروجن 300
ہڈسن 300
116@@ 299
1915 299
es@@ 299
آرزو 299
ارس@@ 299
استعم@@ 299
افادیت 299
تقویٰ 299
روزویلٹ 299
زہ@@ 299
ساؤ 299
سیک@@ 299
صفیہ 299
فالز 299
فرحت 299
مديرية 299
نقشے 299
وراڈو 299
ورما 299
پير@@ 299
ڑیا 299
کارانہ 299
کریاں 299
کلثوم 299
گزین 299
گیلری 299
یابی 299
یول 299
ﺎﻥ 299
116 298
2.5 298
21,@@ 298
76@@ 298
79@@ 298
98@@ 298
M 298
احاطے 298
باک 298
جاؤں 298
جمنا 298
درباری 298
روبی 298
زع@@ 298
سبرگ 298
ستگی 298
سلطانہ 298
سڑکیں 298
شہنش@@ 298
عبدالحمید 298
فصی@@ 298
فیچر 298
قطعہ 298
مبارکہ 298
متون 298
مودودی 298
مُ 298
نووی 298
چوتھائی 298
ہوائي 298
29.@@ 297
ICC 297
آرمینی@@ 297
ادر@@ 297
استعفی 297
باج@@ 297
جیب 297
روکنا 297
زنگ 297
شانہ 297
شتی 297
على 297
غداری 297
فیفا 297
لاڑکانہ 297
مٹ 297
نواحی 297
وتو 297
وجوہ 297
ٹوپی 297
چٹانوں 297
ڈسپ@@ 297
کامرس 297
کھانوں 297
گرس 297
122 296
26.@@ 296
260 296
that 296
ئیل 296
احباب 296
افزائ@@ 296
ايئر 296
باطن 296
جوار 296
جڑیں 296
حوزہ 296
دھول 296
رانجھا 296
روہ@@ 296
طار 296
مجوزہ 296
مرہٹوں 296
مسر@@ 296
منڈے 296
نیش 296
کریڈٹ 296
گائوں 296
گھڑ 296
ہڈیوں 296
ﺍﺱ 296
124 295
165@@ 295
22,@@ 295
ؤڈ 295
اتراکھنڈ 295
ایوان@@ 295
بیاہ 295
بیلی 295
بیمار@@ 295
تعامل 295
رمز 295
ريس 295
سیکی@@ 295
شاب@@ 295
طورپر 295
طہ@@ 295
لهٔ 295
نيك@@ 295
ٹوئ@@ 295
پابندیاں 295
پارسی 295
چڑیا 295
129 294
ag@@ 294
ابوحنی@@ 294
اکٹھے 294
بائیکاٹ 294
بزرگوار 294
تحائف 294
تحویل 294
حاشیہ 294
داود 294
دھوپ 294
ریک 294
صوفیانہ 294
عمرہ 294
فیف 294
كولمبيا 294
كُمْ 294
پٹیل 294
پھلوں 294
کھولی 294
کیرو@@ 294
برابری 293
برتاؤ 293
برنز@@ 293
تسل@@ 293
جامی 293
حرکات 293
راکی 293
رساں 293
سائبیریا 293
غیرت 293
لۂ 293
مختص@@ 293
مقدسہ 293
ملانے 293
هُ@@ 293
وفیات 293
ولٹ 293
ویلنگٹن 293
ٹرون 293
پومیرانیان 293
کانام 293
گریس 293
گزرتے 293
یدہ 293
166 292
280 292
74@@ 292
railway 292
آق@@ 292
انیت 292
بھ 292
بھتی@@ 292
بینی@@ 292
تعلقہ 292
خاصہ 292
دھار 292
سوب@@ 292
شباب 292
ظاہ@@ 292
غارت 292
قِ 292
لوئی 292
محم@@ 292
مْ@@ 292
نات 292
وائسرائے 292
ورت 292
يون 292
پائیدار 292
پروگرامنگ 292
پریری 292
پوٹی@@ 292
کامی@@ 292
کمب@@ 292
کوالی@@ 292
ہیکٹر 292
135 291
88@@ 291
آبا 291
النسل 291
الوجی 291
تدبیر 291
تفہیم 291
حسرت 291
خدائی 291
خرد 291
دج@@ 291
ساحہ 291
ستیں 291
فتاویٰ 291
لیف 291
منڈ@@ 291
میکان@@ 291
ندگان 291
نسو@@ 291
نمائی 291
واست@@ 291
وك 291
پاکپتن 291
پلس 291
H 290
S 290
ul@@ 290
اچی@@ 290
تقاریب 290
تمغہ 290
جعفراباد 290
رش 290
سمن@@ 290
علمِ 290
قرب@@ 290
قزوین 290
مکالمہ 290
میرپور 290
نقطۂ 290
نوائے 290
نڈہ 290
پوک 290
چاہیں 290
چوہان 290
کمالات 290
کھولنے 290
ہیڈکوارٹر 290
یکجہتی 290
164@@ 289
ab@@ 289
י@@ 289
ادیں 289
افغانوں 289
المسلمین 289
برہان 289
جملوں 289
خلو@@ 289
درک 289
روحانیت 289
ريك@@ 289
سقوط 289
قطار 289
مراہ 289
مساب@@ 289
وفی 289
يوسف 289
ٹھٹہ 289
کلیہ 289
ﷺ@@ 289
121 288
آث@@ 288
الار@@ 288
اللہ@@ 288
اونٹوں 288
ایج@@ 288
بدر@@ 288
بیلجیم 288
جمیکا 288
جنا@@ 288
جوابات 288
خالہ 288
دانی@@ 288
ساؤ@@ 288
سٹوڈیو 288
شاکر 288
فرشتہ 288
قیوں 288
لیبار@@ 288
متا@@ 288
مشاہیر 288
معبود 288
نف 288
نمو 288
پورم 288
پیٹرو@@ 288
کاتا 288
کنواں 288
کوٹی 288
کپاس 288
کیتھی@@ 288
ھویں 288
ہید 288
1857 287
320 287
U 287
Y 287
آشنا 287
ابان 287
ادو 287
اقامت 287
اقتصادیات 287
بہاول@@ 287
تصادفی 287
جلتی 287
جڑا 287
حاج@@ 287
ریش@@ 287
زہری@@ 287
سیکٹر 287
شائقین 287
شبیر 287
عینی 287
قبولیت 287
مشتعل 287
مچ@@ 287
نتیج@@ 287
نکلتی 287
ونز 287
ونہ 287
پاکیزہ 287
چاڈ 287
کمبو@@ 287
یخ 287
175 286
1916 286
آستانہ 286
ادیوں 286
بسنے 286
بمب@@ 286
تاکید 286
تنظی@@ 286
جرو@@ 286
جریر 286
خبردار 286
دھیان 286
سرسید 286
سواروں 286
شتوں 286
صاحبزادی 286
صغ@@ 286
لط@@ 286
لووی@@ 286
مسرت 286
مطالب@@ 286
میرین 286
مینٹ 286
ناظ@@ 286
ڈرائی@@ 286
ڑي 286
ہلاکتیں 286
132 285
210 285
De@@ 285
آوری 285
اسپر@@ 285
اوے 285
بکری 285
بیویوں 285
جھٹ@@ 285
دانت@@ 285
عس@@ 285
علاؤ 285
فف 285
لح 285
لول 285
ماحولیات 285
ماڈ@@ 285
نيا 285
واش@@ 285
وني 285
ونگسٹن 285
پارٹ@@ 285
پگ@@ 285
ڈرائیور 285
گوس 285
1.5 284
115@@ 284
230 284
270 284
29,@@ 284
87@@ 284
آک@@ 284
انیات 284
بمقام 284
بیاء 284
تلی 284
حقی@@ 284
داڑھی 284
دق 284
قنا@@ 284
قونصل 284
لیوس 284
مرسر 284
نعرے 284
يت@@ 284
پاناما 284
پرتھ 284
پیادہ 284
چوان 284
کرانی 284
کیمس@@ 284
گڑھی 284
گھس 284
ہران 284
ہيمپشائر 284
170@@ 283
18ء 283
1923 283
آپریٹنگ 283
اجمل 283
اربعہ 283
العظ@@ 283
انٹرٹینمنٹ 283
انٹیلی 283
اوور@@ 283
اوکس@@ 283
اٹل 283
اپی@@ 283
اگلا 283
ایلس 283
برتنوں 283
بلوچوں 283
بندے 283
جلیں 283
زریں 283
مبرگ 283
متقی 283
مسم@@ 283
نابینا 283
ناپید 283
ولینڈ 283
پارٹیوں 283
پاگل 283
پکڑ@@ 283
چوکی 283
ہنٹ@@ 283
یاری 283
120@@ 282
ءکو 282
اسکالرز 282
الین 282
اچ 282
بالہ 282
تعدد 282
تنا 282
تواریخ 282
جھيل 282
حلیف 282
خودکش 282
درود 282
دشوار 282
سلفی 282
سٹرڈ 282
سیب 282
شیریں 282
صاحبز@@ 282
فراموش 282
فیاض 282
قالین 282
قربت 282
لائیڈ 282
لکش@@ 282
لیلیٰ 282
نافرمانی 282
نکاراگوا 282
نگیں 282
وزیرستان 282
ووٹوں 282
ٹیمپ@@ 282
پرستش 282
چول@@ 282
کرافٹ 282
ﺠ@@ 282
Ali 281
ł@@ 281
اسکالر@@ 281
اکیلے 281
برنار@@ 281
توس@@ 281
ثواب 281
حلیم 281
خانیت 281
دورانیہ 281
ديش 281
صحافتی 281
قند@@ 281
لوہا 281
ملنا 281
مولی 281
وانگ 281
وانیا 281
وینی 281
ٹوبا 281
ٹھنڈا 281
ٹھی@@ 281
پرائ@@ 281
کھون 281
گولیاں 281
ہاتھ@@ 281
یوروپ 281
اجماع 280
اسکرپٹ 280
اسکوائر 280
الیکٹرک 280
ایری@@ 280
بیب 280
جند 280
خو 280
رائن 280
شاپ 280
عہدیدار 280
فتا@@ 280
ملالہ 280
مندوں 280
نوابی 280
نواں 280
وبی@@ 280
ورق 280
ولین 280
پڑھانے 280
چٹاگانگ 280
کالونیوں 280
ہست@@ 280
ﺅ@@ 280
1926 279
3,5@@ 279
اجزا 279
الحک@@ 279
امار@@ 279
امي 279
اکمل 279
بارٹن 279
بالع@@ 279
برمنگھم 279
دہندگان 279
رد@@ 279
زد@@ 279
سنچریوں 279
ظہر 279
فخر@@ 279
قِ@@ 279
لہر@@ 279
معدوم 279
مورا@@ 279
میدی 279
نووا 279
ّد 279
پسند@@ 279
پڑھاتے 279
ڈالتے 279
ڈرڈ 279
کتہ 279
گوپال 279
117 278
160@@ 278
1906ء 278
is@@ 278
u@@ 278
الاعتقاد 278
انحراف 278
تقدیر 278
جلسے 278
سپرنگز 278
سچ@@ 278
شہی@@ 278
عي@@ 278
مجلس@@ 278
ٹائن 278
چیانگ 278
ڑک@@ 278
Township 277
was 277
ابت@@ 277
اعشار@@ 277
التی 277
الخلافہ 277
اورینٹل 277
بالی@@ 277
بغاوتوں 277
تاک@@ 277
جلی@@ 277
جیوں 277
خلل 277
خوفزدہ 277
دیگرے 277
زیرقیادت 277
سرہندی 277
فعالیت 277
مثال@@ 277
مظلوم 277
منیلا 277
نبات@@ 277
ندي 277
يز@@ 277
پرہیز 277
پیئ@@ 277
کنویں 277
یونیور@@ 277
ﺩ 277
1900 276
الوا 276
ایڈور@@ 276
بالواسطہ 276
تجاوز 276
رہائ@@ 276
ریپ@@ 276
سائنس@@ 276
ساجد 276
سبکدوش 276
ستار 276
معتدل 276
وپ@@ 276
کاز@@ 276
یزد 276
ﮐﻮ 276
192@@ 275
19ء 275
24,@@ 275
69@@ 275
اترے 275
تائی 275
دانِ 275
دنا 275
راہب 275
رحلت 275
ستور 275
سلجوق 275
طاس 275
فتوی 275
فقدان 275
مصرو@@ 275
مناف 275
وسیلہ 275
پیکر 275
چھاؤنی 275
ڈیکی@@ 275
ہتھ@@ 275
ہود 275
ہویں 275
ﮏ 275
140@@ 274
3,6@@ 274
3,8@@ 274
Martin 274
um 274
اسمِ 274
انسٹی@@ 274
بحر@@ 274
بنام 274
حاجت 274
ساسک@@ 274
شاذ 274
شت@@ 274
شتہ 274
شیلبی 274
صوم@@ 274
مؤلف 274
مشروط 274
کشور 274
کلین 274
ﮕ@@ 274
ﮞ 274
111 273
144 273
1916ء 273
77@@ 273
ology 273
اشترا@@ 273
المج@@ 273
انچ@@ 273
انھ@@ 273
اوج@@ 273
ترک@@ 273
خوآن 273
رحم@@ 273
رچر@@ 273
سنکی@@ 273
ٹاریو 273
گزینوں 273
۷ 273
123 272
K 272
os@@ 272
un@@ 272
آٹھ@@ 272
اخان 272
الوداع 272
انڈونی@@ 272
بپ@@ 272
جراث@@ 272
جماع@@ 272
رجال 272
رضوان 272
طبع@@ 272
طرابلس 272
لائبری@@ 272
لغاری 272
مجتہ@@ 272
معتمد 272
موافق 272
يكا 272
کہو 272
113 271
118 271
137 271
26ء 271
آؤ 271
آسم@@ 271
ئرو@@ 271
اتب 271
الفضل 271
برخ@@ 271
ختر 271
خرم 271
داران 271
دوروں 271
ربان 271
شطرنج 271
عبرت 271
مازندران 271
پسپ@@ 271
ڈمین 271
یحی@@ 271
ﺻ@@ 271
26,@@ 270
ari 270
آرٹ@@ 270
اختصار 270
الغ 270
سہر@@ 270
لاپتہ 270
لر@@ 270
منو 270
میٰ 270
پرو 270
کہلا@@ 270
گوال@@ 270
المال 269
حِ@@ 269
شفا 269
شق@@ 269
غروب 269
مبا@@ 269
مراقبہ 269
مصائب 269
وبر@@ 269
وینیا 269
پریش@@ 269
ڈیموکری@@ 269
138 268
4,0@@ 268
se@@ 268
حنا 268
ريا 268
سنو 268
صبا 268
ضوابط 268
فلورنس 268
قرم 268
ماور@@ 268
نجوم 268
هُمْ 268
يران 268
131 267
150@@ 267
ایکس@@ 267
سلور 267
لل 267
مؤخر 267
منہ@@ 267
ُّ@@ 267
145 266
بریگی@@ 266
تائ@@ 266
حائل 266
حسین@@ 266
سلاسل 266
فردوس 266
قصد 266
مرث@@ 266
da 265
na 265
ارون@@ 265
اعتقاد 265
شغف 265
عمال 265
غضب 265
مباد@@ 265
متنا@@ 265
مورو 265
ٹرول 265
چودھ@@ 265
ہمی@@ 265
85@@ 264
community 264
poem 264
آنس 264
اران 264
افسر@@ 264
باق 264
بسم 264
درجات 264
رازی 264
زرد 264
لاو 264
وصف 264
چوب@@ 264
ﻘ@@ 264
750 263
North 263
تاريخ 263
تبع 263
شعاع@@ 263
عثمانؓ 263
مبا 263
مثلث 263
منشور 263
نسا 263
وع 263
کارکن@@ 263
ہمس@@ 263
330 262
Khan 262
territorial 262
é 262
استغ@@ 262
انتق@@ 262
باتی 262
ربت 262
متن@@ 262
ناسا 262
ڈیوں 262
کٹو 262
142 261
City 261
entity 261
les 261
اختلا@@ 261
الاب@@ 261
ایاں 261
بالاد@@ 261
جوا 261
حمد@@ 261
غرنا@@ 261
لغات 261
نیدر@@ 261
ونو 261
ٖ@@ 261
ڪ@@ 261
ہین 261
۶ 261
119 260
27,@@ 260
region 260
تبر@@ 260
حمام 260
رچ@@ 260
شمع 260
فاش@@ 260
مباحث 260
نسخ@@ 260
اتفاق@@ 259
انیان 259
ایجو@@ 259
داغستان 259
داً 259
سنجی@@ 259
سپورٹ 259
طغرل 259
عضو 259
فریڈ@@ 259
واقع@@ 259
وتر 259
وود@@ 259
133 258
3,7@@ 258
Qal@@ 258
ak@@ 258
ka 258
ابتد@@ 258
درج@@ 258
مشغ@@ 258
واع@@ 258
گولی@@ 258
134 257
86@@ 257
P 257
اطفال 257
ايس 257
لاب 257
مصلح@@ 257
ﻻ@@ 257
1,000 256
28,@@ 256
3,9@@ 256
ئرنگ 256
حیدر@@ 256
ضر 256
طس 256
فید 256
مخلص 256
میٹر@@ 256
12ء 255
1878 255
1905 255
az@@ 255
الات 255
بط 255
ته@@ 255
زمان@@ 255
لاش@@ 255
مہاراش@@ 255
نصر@@ 255
1910 254
ابع 254
الدو@@ 254
المش@@ 254
توس 254
شرق 254
غاس@@ 254
فوس@@ 254
کارپو@@ 254
17ء 253
1925 253
205 253
or@@ 253
ot@@ 253
العار@@ 253
بروس 253
حسان 253
حوص@@ 253
سلو 253
طاعون 253
طل 253
ملو@@ 253
موجو@@ 253
from 252
اختراع 252
سرائی@@ 252
سعيد 252
سوشل@@ 252
قسمتی 252
قطر@@ 252
مذہ@@ 252
نری@@ 252
ڈش 252
203 251
X@@ 251
ah@@ 251
آذرب@@ 251
اسب 251
افل 251
دوار 251
طا 251
غذ@@ 251
ــ 251
مانس 251
وکٹو@@ 251
۸ 251
un 250
ارہویں 250
اسو 250
ترن 250
تنے 250
حوا@@ 250
سرز 250
سرچ 250
محلات 250
وانات 250
پرتگ@@ 250
یتی@@ 250
192 249
1927 249
As@@ 249
ו@@ 249
ارك 249
جدت 249
داغ@@ 249
سنا@@ 249
عقد 249
ــ@@ 249
قوس 249
مپی@@ 249
چیمپ@@ 249
1928 248
206 248
232 248
le@@ 248
level 248
الرسول 248
الفقار 248
بوز@@ 248
ترکی@@ 248
توف@@ 248
ثنا 248
مفل@@ 248
نجا 248
وون 248
کز 248
136 247
146 247
il@@ 247
ity 247
ازان 247
جاسوس 247
ذول 247
ضر@@ 247
مانیہ 247
معظ@@ 247
مینہ 247
نری 247
نشا@@ 247
هَ@@ 247
واسط@@ 247
والد@@ 247
وفر 247
یورو@@ 247
201 246
225 246
India 246
؎ 246
قون@@ 246
منتظ@@ 246
منق@@ 246
ناٹک 246
نیوی@@ 246
ولات 246
185 245
94@@ 245
id 245
برد 245
ثات 245
جلو@@ 245
جنو@@ 245
خي@@ 245
دانش@@ 245
ده 245
صادر 245
نظری@@ 245
نمائ@@ 245
کھول@@ 245
159 244
1908 244
97@@ 244
W 244
برل@@ 244
بولا@@ 244
حصص 244
روب 244
قاط 244
وزر 244
یاف@@ 244
158 243
167 243
1870 243
1911 243
256 243
ائد 243
اقت 243
اوغ@@ 243
تلمذ 243
حوض 243
زیانا 243
صفو@@ 243
يلي 243
153 242
193 242
650 242
ang 242
ائنٹ 242
الحاج 242
الَّذِ@@ 242
تقار@@ 242
حمص 242
دیث 242
صحر@@ 242
يرا 242
ڈس@@ 242
کیات 242
30.@@ 241
Par@@ 241
th@@ 241
تاش 241
جنون 241
جھا 241
دفت@@ 241
رافع 241
زِ@@ 241
علت 241
كريك 241
مرات 241
مرتب@@ 241
184 240
1848 240
1890 240
Pakistan 240
no 240
اعل@@ 240
الامام 240
جہانگ@@ 240
حاک@@ 240
رك@@ 240
لين 240
مَ 240
155@@ 239
262 239
Jean 239
ابہ@@ 239
ازد@@ 239
المد@@ 239
بیلجی@@ 239
جبل@@ 239
سیکری@@ 239
عفان 239
لوت 239
گائ@@ 239
ﺸ@@ 239
159@@ 238
1907 238
ans 238
ol@@ 238
المدارس 238
خال 238
رَ 238
مست 238
مصطف@@ 238
١ 238
165 237
168@@ 237
255 237
Air 237
Am@@ 237
ir@@ 237
top 237
ابتداء 237
البا@@ 237
درات 237
قاع@@ 237
له 237
متناسب 237
ﻔ@@ 237
152 236
186 236
1880 236
ism 236
اقوت 236
تط@@ 236
جرح 236
درخوا@@ 236
عادات 236
كوم@@ 236
واب@@ 236
کمل 236
129@@ 235
القر@@ 235
رسم@@ 235
سسٹ@@ 235
شعراء 235
عود@@ 235
غالبا 235
كان 235
لائل 235
معبد 235
ورد 235
181 234
550 234
Re@@ 234
ay@@ 234
ابي 234
تعال 234
سح@@ 234
سلاو 234
صدور 234
كال@@ 234
وبر 234
ویٰ 234
يار@@ 234
٣ 234
کیتھ@@ 234
149 233
163 233
187 233
Se@@ 233
ine 233
ارم 233
بلان@@ 233
ذری@@ 233
طان 233
علاق@@ 233
فق 233
لاہ@@ 233
لری 233
وراث@@ 233
ٹوم@@ 233
کلاسی@@ 233
156 232
194 232
92.@@ 232
96@@ 232
الر 232
الن 232
ثت 232
ريفي@@ 232
طَ@@ 232
كاس@@ 232
معاص@@ 232
نمائند@@ 232
هن@@ 232
يان@@ 232
پہلو@@ 232
141 231
166@@ 231
84@@ 231
Ab@@ 231
China 231
ai 231
انق@@ 231
اوہ@@ 231
زبور@@ 231
عدالت@@ 231
فلت 231
لبر@@ 231
ماتا 231
ڈرو@@ 231
162 230
183 230
247 230
265 230
D8 230
eh@@ 230
الشام 230
الیگزی@@ 230
برٹ@@ 230
بلد 230
حرب 230
شِ@@ 230
فیلو 230
لوا@@ 230
مبالغ@@ 230
مصر@@ 230
ندیاں 230
واح 230
ہارا 230
171 229
us@@ 229
راز@@ 229
رمز@@ 229
سانی 229
مجل@@ 229
وزیرا@@ 229
221 228
West 228
unincorporated 228
العباس 228
العرب 228
اند 228
ساخت@@ 228
فرینک@@ 228
منازل 228
میوزی@@ 228
پہر 228
پیشر@@ 228
ہاٹ 228
176 227
217 227
3.5 227
اسرائی@@ 227
العلم 227
تعی@@ 227
جمل 227
حس 227
زور@@ 227
سطو 227
طبا@@ 227
عدن 227
عرا@@ 227
متم@@ 227
مصعب 227
مضر 227
ممن@@ 227
ورٹی 227
کوئی@@ 227
ہیز 227
148 226
154 226
1860 226
195 226
Ho@@ 226
Tol@@ 226
ana 226
ائیہ 226
المت@@ 226
اوڈی@@ 226
درس@@ 226
فیکٹ@@ 226
كا@@ 226
معظم 226
وافر 226
۹ 226
ﻭ 226
147 225
156@@ 225
189 225
1909 225
197 225
268 225
World 225
ac 225
ائر@@ 225
فع 225
قسط@@ 225
متر 225
٤@@ 225
204 224
Department 224
Jersey 224
آبادیاتی 224
استقلال 224
سري@@ 224
سغ@@ 224
سوي@@ 224
معدن 224
مورخ@@ 224
هر 224
کتیں 224
139 223
168 223
89@@ 223
Bol@@ 223
Es@@ 223
Pierre 223
الموت 223
بلن 223
درو 223
دلت 223
ستون@@ 223
صفا 223
مخلو@@ 223
227 222
275 222
v 222
تماش@@ 222
ثبت 222
ساط 222
فُ@@ 222
ڈومینی@@ 222
کرش@@ 222
5,0@@ 221
آبادیات 221
الج 221
العاص@@ 221
حدیث@@ 221
زَ@@ 221
سڈ@@ 221
٠ 221
15ء 220
191 220
209 220
259 220
بذات 220
بیتی 220
توب 220
زرا@@ 220
سبا 220
غرق 220
ﺐ 220
207 219
ارف 219
المست@@ 219
زت 219
ساس 219
صع@@ 219
عاشور 219
مخطوطات 219
مرق@@ 219
161 218
164 218
241 218
In@@ 218
domain 218
اللَّهِ 218
حك@@ 218
دام 218
ذَ@@ 218
زستان 218
غض@@ 218
فعل@@ 218
متو@@ 218
ملك 218
182 217
1897 217
253 217
32.@@ 217
bot 217
اضاف@@ 217
تد 217
دوز 217
ساج@@ 217
لاج 217
مطبو@@ 217
وزار@@ 217
2.2 216
London 216
ang@@ 216
area 216
man 216
ā@@ 216
اینٹ@@ 216
باط@@ 216
حانہ 216
داز 216
دين 216
لَ 216
ندو 216
وردی 216
وسط@@ 216
ہف@@ 216
یوکر@@ 216
113@@ 215
127 215
1895 215
ec@@ 215
ثور 215
دف 215
دوان 215
هِ@@ 215
وطنی 215
پمنٹ 215
178 214
245 214
305 214
ترج@@ 214
جزي@@ 214
حذف 214
حضرموت 214
خلف 214
صنعاء 214
ضان 214
مدن 214
وظائف 214
ّر 214
212 213
30,@@ 213
Bal@@ 213
county 213
ابر 213
بري 213
تث@@ 213
جمال@@ 213
جونی@@ 213
زبر@@ 213
سرخ@@ 213
سمع@@ 213
ميون@@ 213
ينس 213
گوئے 213
218 212
272 212
be 212
tube 212
ؒ@@ 212
آبادی@@ 212
اي 212
ایو 212
قسم@@ 212
واز@@ 212
وانوں 212
٦@@ 212
کشائر 212
1200 211
202 211
222 211
254 211
Qu@@ 211
Sar@@ 211
Sea 211
ارس 211
اینج@@ 211
راو 211
ﻬ@@ 211
1876 210
242 210
370 210
4000 210
Th@@ 210
جواد 210
حماس 210
خبر@@ 210
غلا@@ 210
محاذ@@ 210
مَنْ 210
ويا 210
پیڈیا 210
38.@@ 209
University 209
reh 209
قذ@@ 209
مني@@ 209
مہاج@@ 209
نیاں 209
وکٹ@@ 209
া@@ 209
169 208
1901 208
? 208
Mal@@ 208
Tr@@ 208
ard 208
ong 208
ville 208
اثناء 208
الوا@@ 208
زوج@@ 208
طق 208
عِ 208
ﺰ@@ 208
172 207
ary 207
الست@@ 207
بالغ@@ 207
بدلا 207
بود 207
ةِ 207
تبلی@@ 207
حديث 207
شعار 207
غَ@@ 207
مطلوب 207
وائی@@ 207
کاون@@ 207
143 206
284 206
beh 206
القدس 206
سوٹا 206
عل 206
عَلَيْ@@ 206
عیات 206
مقدون@@ 206
196 205
198 205
Japan 205
il 205
one 205
اجا 205
البلا@@ 205
الما 205
اہل@@ 205
ترجی@@ 205
عار 205
عض@@ 205
فرائ@@ 205
لوي 205
مفع@@ 205
موز 205
موسم@@ 205
پختون@@ 205
کولمب@@ 205
118@@ 204
1906 204
95@@ 204
Mon@@ 204
Mor@@ 204
استعداد 204
انجین@@ 204
ایگزی@@ 204
باخت@@ 204
تعال@@ 204
توت 204
ريكي 204
رہن 204
غون 204
ویکی@@ 204
173 203
213 203
244 203
Sal@@ 203
اقل 203
الين@@ 203
بران@@ 203
حرا@@ 203
عباد 203
فِي 203
كس@@ 203
لوان 203
وتن 203
ﭖ 203
14ء 202
177 202
1812 202
380 202
اسماعی@@ 202
انشاء 202
شاء 202
عیب 202
لاج@@ 202
لور 202
مائي 202
معاو@@ 202
پروڈ@@ 202
139@@ 201
151 201
1896 201
271 201
310 201
34.@@ 201
agh 201
العالم 201
المنا@@ 201
بوقت 201
تورا@@ 201
جوق 201
رض 201
غوث@@ 201
مري 201
ناء 201
ويلي 201
154@@ 200
302 200
36.@@ 200
ou@@ 200
اوم 200
بسن 200
خالص@@ 200
سباق 200
شارع 200
عاط@@ 200
فان 200
نفر 200
ونيا 200
پروگرا@@ 200
کاغ@@ 200
ہیں@@ 200
158@@ 199
269 199
299 199
340 199
Kar@@ 199
se 199
الحر@@ 199
روما 199
فاعل 199
فقت 199
كسيكو 199
لوف 199
وراء 199
ٴ 199
1- 198
174 198
1877 198
1904 198
199 198
252 198
39.@@ 198
420 198
ian 198
li 198
أُ@@ 198
اضطراب 198
تمث@@ 198
نٹین 198
پارٹمنٹ 198
1898 197
215 197
228 197
249 197
290 197
326 197
ra 197
اطی 197
الدار 197
المغ@@ 197
بوج@@ 197
تالی@@ 197
ثار 197
دن@@ 197
شال 197
ولم 197
يلا 197
َّا 197
پرائی@@ 197
2- 196
224 196
gh@@ 196
اسي 196
الاف@@ 196
بولو 196
ستانیوں 196
فرغ@@ 196
كش@@ 196
مقر@@ 196
نسق 196
نوف 196
وائف 196
ويك 196
یونیورسٹی@@ 196
157 195
188 195
216 195
37.@@ 195
av@@ 195
ji 195
ère 195
أ 195
الزمان 195
الوط@@ 195
امون 195
سائل 195
مب 195
متناس@@ 195
معالج 195
پاك@@ 195
ہرزی@@ 195
ہسپ@@ 195
﴾ 195
16ء 194
273 194
انتظ@@ 194
ناشر 194
والت 194
1800 193
211 193
223 193
239 193
251 193
National 193
ki 193
os 193
الأ@@ 193
تاس 193
صباح 193
فيصل 193
كوس@@ 193
ويل@@ 193
کالج@@ 193
277 192
4.5 192
ed@@ 192
جیریا 192
شُ@@ 192
مودا 192
وراس 192
وه 192
َّ 192
ٹزرلینڈ 192
243 191
291 191
35,@@ 191
Be@@ 191
Park 191
اسات 191
استث@@ 191
اقلی@@ 191
الور@@ 191
ايم 191
بوا@@ 191
داؤ@@ 191
ستاني 191
طور@@ 191
عنق@@ 191
گاؤ 191
1.6 190
1899 190
اوي@@ 190
حکوم@@ 190
ساو 190
سپی 190
شیل@@ 190
عذ@@ 190
عرفات 190
فتاری 190
فتح@@ 190
فرت 190
كلا@@ 190
موف 190
کاررو@@ 190
2.3 189
208 189
279 189
301 189
de@@ 189
it@@ 189
ستان@@ 189
مانع 189
کامیاب@@ 189
1.2 188
233 188
Chapelle 188
aq 188
افري@@ 188
الات@@ 188
باح 188
بلج@@ 188
جور 188
درز 188
دوق 188
راض 188
شمع@@ 188
لونا 188
لگو 188
مارش 188
هَا 188
231 187
248 187
292 187
430 187
San 187
اشتق@@ 187
انک@@ 187
جوس 187
روض 187
واجد 187
واصل 187
واڈا 187
پیپ@@ 187
کردگی 187
Ag@@ 186
Man@@ 186
ac@@ 186
انڈر@@ 186
جماع 186
صاب 186
قانون@@ 186
مصادر 186
مَّ@@ 186
وست 186
10,000 185
214 185
263 185
285 185
286 185
37,@@ 185
im@@ 185
اتم 185
تائی@@ 185
جما@@ 185
رفع 185
ضرور@@ 185
قسطنط@@ 185
وض 185
﴿ 185
234 184
Kal@@ 184
ابراہ@@ 184
الواحد 184
داخ@@ 184
ذِ@@ 184
صب 184
فاء 184
قوف 184
مپیئن 184
پاگ@@ 184
پیدائ@@ 184
گنا@@ 184
ﺌ@@ 184
ﻳ@@ 184
1830 183
283 183
288 183
303 183
33.@@ 183
34,@@ 183
Pennsylvania 183
borough 183
اسما@@ 183
بیات 183
تقسيم 183
لیڈ 183
مشرو@@ 183
مير@@ 183
پاکی@@ 183
33,@@ 182
Sa@@ 182
ins 182
je@@ 182
اجز 182
بوا 182
راما 182
نقش@@ 182
واء 182
ٹاہ 182
ﮢ@@ 182
219 181
35.@@ 181
آزاد@@ 181
اكي 181
الناصر 181
الِ@@ 181
بادشاہ@@ 181
تاء 181
رفی@@ 181
زلز@@ 181
شهد 181
عث@@ 181
عليا 181
غازي 181
مرز@@ 181
نقاط 181
وحد@@ 181
يوم 181
ٖ 181
پیو@@ 181
ﮬ@@ 181
2.6 180
238 180
ers 180
ic@@ 180
البر 180
التر@@ 180
الجن@@ 180
تصرف 180
جالندھ@@ 180
سكي 180
فراز 180
نبو@@ 180
٥ 180
ﻃ@@ 180
1882 179
2,000 179
2.7 179
human 179
انح@@ 179
دد 179
شاف@@ 179
غاف@@ 179
فقر 179
نوال 179
وتع@@ 179
کینٹ@@ 179
125@@ 178
1892 178
257 178
293 178
5,000 178
id@@ 178
language 178
ؓ@@ 178
افات 178
الَ 178
بناء 178
عاد@@ 178
فلي 178
كِ@@ 178
نجرز 178
نشاط 178
نٹری 178
وائل 178
٧ 178
297 177
ap@@ 177
ze@@ 177
ائع 177
تاؤ 177
رابط@@ 177
صل@@ 177
عجب 177
قصی@@ 177
ممد@@ 177
مملو@@ 177
مه@@ 177
1.1 176
246 176
258 176
281 176
295 176
89.@@ 176
Morocco 176
ti@@ 176
آذربائی@@ 176
احب 176
اخر 176
بلاد 176
جول 176
دما@@ 176
راست@@ 176
سکری@@ 176
محلول 176
2.9 175
226 175
278 175
306 175
307 175
Gu@@ 175
ash@@ 175
آمر 175
الظ@@ 175
توقعات 175
جرز 175
حش@@ 175
صلى 175
فخ@@ 175
قْ@@ 175
مِنَ 175
السل@@ 174
باف@@ 174
بوم@@ 174
تت@@ 174
زاب 174
سورا@@ 174
طي@@ 174
علا 174
فتار 174
مماثل 174
يرس 174
٦ 174
ﮍ@@ 174
ﺏ 174
179 173
1881 173
1894 173
264 173
ical 173
البحر 173
النَّ@@ 173
بك@@ 173
رُ 173
مخالف@@ 173
وادي 173
چیئر@@ 173
کوز 173
2.0 172
266 172
312 172
Airlines 172
Br@@ 172
ie 172
الفق@@ 172
جمہوري@@ 172
حلق@@ 172
خرید@@ 172
راس@@ 172
ربا@@ 172
سلف 172
عاص@@ 172
مدار@@ 172
ناف@@ 172
٨@@ 172
1871 171
1902 171
325 171
Autonomous 171
Kingdom 171
St@@ 171
section 171
ָ@@ 171
استن@@ 171
بذ@@ 171
زار@@ 171
سرت 171
سورة 171
شْ@@ 171
عظيم 171
قیات 171
مة 171
هو@@ 171
وسطي 171
وشی 171
ولک 171
يع@@ 171
٤ 171
236 170
294 170
31.@@ 170
Bo@@ 170
Q 170
Voivodeship 170
di 170
hi 170
ya 170
أبو 170
القض@@ 170
بجانب 170
تاو 170
ستول 170
سپاہ@@ 170
قب 170
مَّ 170
پتن 170
کوان 170
46.@@ 169
du@@ 169
qi 169
اجتماعات 169
المنصور 169
دانا 169
دز@@ 169
غرب 169
ــــــــ@@ 169
فرو 169
كم 169
ملكي 169
نسخ 169
٧@@ 169
ٹیکس@@ 169
1903 168
229 168
267 168
311 168
AD 168
In 168
administrative 168
ai@@ 168
صلاحی@@ 168
عرو@@ 168
فاض@@ 168
فیظ 168
كار 168
لائي 168
پریفی@@ 168
ہیپ@@ 168
1815 167
1887 167
289 167
all 167
az 167
em@@ 167
ha 167
land 167
تعلی@@ 167
حلو@@ 167
خاد@@ 167
ديا 167
ساب 167
مسقط 167
مصباح 167
پرچ@@ 167
ہاش@@ 167
1.7 166
276 166
36,@@ 166
Con@@ 166
ent 166
ow@@ 166
الخالق 166
امو 166
بحی@@ 166
ذاب 166
رع 166
زدگی 166
زیاد@@ 166
ساد 166
ستو 166
سك 166
شه@@ 166
غا 166
لاحی 166
مخز@@ 166
وند@@ 166
يب 166
ِل 166
٥@@ 166
ton 165
اجز@@ 165
العمل 165
المط@@ 165
جسم@@ 165
رزق 165
زام@@ 165
ساد@@ 165
ساچوسٹس 165
صق@@ 165
فع@@ 165
ماح@@ 165
معترف 165
وآ@@ 165
ودا 165
ّم 165
چائی 165
ﻄ@@ 165
1.8 164
1884 164
261 164
296 164
365 164
410 164
Bag@@ 164
Mah@@ 164
di@@ 164
ابتدا@@ 164
ارن 164
الحك@@ 164
الواق@@ 164
الوقت 164
شريف 164
عاز@@ 164
عود 164
فرانز 164
فوق 164
فْ@@ 164
قاز@@ 164
مجسم@@ 164
نسب@@ 164
چیس 164
298 163
DNA 163
Lower 163
Wisconsin 163
احترا@@ 163
باربرا 163
بشر@@ 163
دُ 163
شير 163
ووك@@ 163
کمز@@ 163
1.3 162
237 162
282 162
309 162
England 162
te 162
ادیاں 162
التف@@ 162
العزيز 162
انف@@ 162
تاح 162
حار@@ 162
حفا@@ 162
زيانا 162
محر@@ 162
معاہ@@ 162
وقائع 162
ومح@@ 162
پذی@@ 162
1.4 161
2.4 161
province 161
ר@@ 161
الینڈ 161
تها 161
خن 161
ظم 161
فلور@@ 161
میٹڈ 161
وير 161
يوان 161
ﮮ 161
2.1 160
2.8 160
287 160
han 160
ice 160
iy@@ 160
local 160
اعتق@@ 160
حسام 160
سيل@@ 160
قدی@@ 160
لاك 160
ويك@@ 160
يار 160
کانگری@@ 160
0.7 159
1879 159
850 159
East 159
She@@ 159
lu@@ 159
yn@@ 159
ازات 159
الفطر 159
تين 159
حف 159
حید 159
دائم 159
سوال@@ 159
سيل 159
سیال@@ 159
معلوم@@ 159
ندو@@ 159
نوت@@ 159
والي 159
يش 159
---- 158
274 158
321 158
Col@@ 158
Le 158
River 158
ons 158
آں 158
بتا@@ 158
بلغراد 158
توان@@ 158
تُ 158
خلدون 158
خلي@@ 158
شخصی@@ 158
عاً 158
عرق 158
مونا 158
وظ@@ 158
يشن 158
ٌ@@ 158
8.5 157
has 157
og@@ 157
ous 157
البلد 157
جراح 157
رفعت 157
شید 157
صال 157
فرسن 157
قبائ@@ 157
كاري 157
لط 157
ماد 157
موجب 157
پند@@ 157
,000 156
2500 156
af@@ 156
he@@ 156
ne 156
w 156
ּ@@ 156
اگوا 156
بام 156
حرب@@ 156
حور 156
خوان@@ 156
ستاد 156
صار@@ 156
غير 156
وسف 156
وه@@ 156
1886 155
1891 155
ari@@ 155
ge@@ 155
tic 155
type 155
מ@@ 155
الصباح 155
اویہ 155
ثلاث@@ 155
جيم@@ 155
حضر 155
خواہ@@ 155
ريل 155
زحل 155
فرز@@ 155
قضاء 155
لق 155
میکسی@@ 155
نای@@ 155
ويت 155
يرو 155
يوك@@ 155
پارلی@@ 155
گوار 155
ہسپان@@ 155
ﺼ@@ 155
128@@ 154
313 154
460 154
Mohammad 154
Per@@ 154
li@@ 154
اوکا@@ 154
بازن@@ 154
حا@@ 154
سوخ 154
ويلز 154
چیچ@@ 154
் 154
333 153
375 153
Islands 153
geographic 153
ina 153
were 153
ائزیشن 153
اريو 153
جلي@@ 153
دين@@ 153
راك 153
ره 153
رومان 153
رين@@ 153
عیل 153
لطی@@ 153
مفر@@ 153
يد@@ 153
1864 152
329 152
6000 152
Ma@@ 152
Mo@@ 152
People 152
au 152
ce 152
et@@ 152
ri@@ 152
اختی@@ 152
بود@@ 152
جاز 152
حساب@@ 152
طرا@@ 152
غن 152
لام@@ 152
نقص 152
هْ@@ 152
وجد 152
وح 152
0.8 151
109@@ 151
1856 151
1885 151
Az@@ 151
Gen@@ 151
age 151
tion 151
الرو@@ 151
امتی@@ 151
بيت 151
جاسک@@ 151
حسب@@ 151
خول 151
دارفور 151
ضح@@ 151
ضعف 151
غا@@ 151
كوي@@ 151
مقناطی@@ 151
نصوص 151
وارنر 151
1813 150
3- 150
308 150
316 150
317 150
334 150
390 150
Shu@@ 150
ek 150
to@@ 150
زيد 150
عظام 150
علي@@ 150
عنا@@ 150
فوف 150
متق@@ 150
مدين@@ 150
ملاح@@ 150
مکر@@ 150
نه@@ 150
هن 150
کابی@@ 150
کعب@@ 150
ہیری@@ 150
ﻀ@@ 150
1814 149
324 149
Go@@ 149
ę@@ 149
اكي@@ 149
السَّ@@ 149
تفاعل 149
شای@@ 149
طاق 149
طاقم 149
عشر 149
قاس@@ 149
لتھ 149
نى 149
304 148
315 148
Har@@ 148
Mi@@ 148
Mississippi 148
ali 148
aw@@ 148
meh 148
ola 148
انَ 148
بني 148
بوتر 148
جہتی 148
خص 148
دْ@@ 148
زات 148
ساع@@ 148
سترو@@ 148
صاد@@ 148
غلاف 148
كيا 148
لُ 148
مسي@@ 148
ووا@@ 148
ٔ@@ 148
٨ 148
پاب@@ 148
32,@@ 147
Al 147
Ru@@ 147
country 147
man@@ 147
this 147
جْ@@ 147
خوارز@@ 147
رة 147
ریجن@@ 147
عند@@ 147
فران 147
قور@@ 147
لوے 147
میٹرو@@ 147
وجل 147
وّ@@ 147
٬ 147
ڈگ@@ 147
ۡ 147
135@@ 146
1850 146
480 146
787 146
Ber@@ 146
En@@ 146
Germain 146
ahr@@ 146
ch 146
افس@@ 146
الدر@@ 146
الرجال 146
النے 146
بئر 146
توا 146
حو 146
رقام 146
شوا@@ 146
عدا@@ 146
قرط@@ 146
مقاب@@ 146
نفس@@ 146
680 145
Shah@@ 145
ph@@ 145
ابوح@@ 145
اده 145
اطب 145
الخطاب 145
بوت 145
تداد 145
تقد 145
تك@@ 145
خار 145
ذات@@ 145
سوق 145
فاس 145
لوح 145
ماً 145
مقبر@@ 145
ورث@@ 145
ومو 145
ڙ@@ 145
0.5 144
1.9 144
520 144
br@@ 144
ni@@ 144
́ 144
ؔ@@ 144
ئا 144
اعز@@ 144
ده@@ 144
ذت 144
سكو 144
طون 144
لؤ@@ 144
مسان 144
هر@@ 144
1889 143
314 143
322 143
323 143
Gol@@ 143
Su@@ 143
aux 143
ro@@ 143
state 143
tr@@ 143
É@@ 143
آباء 143
أبي 143
اري@@ 143
العالم@@ 143
الوجود 143
اير@@ 143
تركي 143
تصنی@@ 143
جمش@@ 143
سليمان 143
صار 143
فرآباد 143
لص@@ 143
مطالب 143
نض@@ 143
چوس@@ 143
← 143
1893 142
39,@@ 142
York 142
الان 142
باور 142
بيل 142
ثُ@@ 142
رق 142
سؤ@@ 142
سانت@@ 142
سبت 142
4.2 141
Co@@ 141
Mas@@ 141
iz@@ 141
ly 141
اغ 141
الرَّ@@ 141
جسد 141
حوا 141
داع@@ 141
دوش 141
دَ 141
شج@@ 141
طرت 141
عجائ@@ 141
عي 141
مصی@@ 141
مطالع@@ 141
موضوع@@ 141
ولت 141
يوس 141
ہمی 141
1867 140
332 140
State 140
aj@@ 140
ez@@ 140
احتی@@ 140
ارجن@@ 140
الاص@@ 140
الشر@@ 140
الفتح 140
انٹرو@@ 140
بؤ@@ 140
تفر@@ 140
تنی 140
دروس 140
ذن 140
شون 140
طائ@@ 140
ڈومی@@ 140
یانہ 140
1888 139
440 139
BC 139
Me@@ 139
Sey@@ 139
ek@@ 139
ica 139
its 139
א@@ 139
الثق@@ 139
المنت@@ 139
ةً 139
شعاع 139
عدت 139
عرش 139
لاف 139
لیری 139
وكا 139
ياتي 139
ہتھی@@ 139
110@@ 138
6,0@@ 138
J 138
Parish 138
bdi 138
chi 138
co@@ 138
government 138
not 138
style 138
ائخ 138
اتح@@ 138
بير@@ 138
ةَ 138
حافظ@@ 138
زونا 138
شرات 138
فاص@@ 138
كلارك 138
مقدار@@ 138
ملحوظ 138
منح@@ 138
وث 138
٩ 138
پروڈی@@ 138
ہین@@ 138
328 137
352 137
40,@@ 137
7.5 137
od@@ 137
الحافظ 137
الوار@@ 137
شرع 137
قوم@@ 137
ماني 137
مندر@@ 137
نب 137
ندن 137
يلي@@ 137
کھیل@@ 137
1700 136
327 136
40.@@ 136
48.@@ 136
D9 136
Nebraska 136
Or@@ 136
U.S. 136
ثمر 136
جوان@@ 136
رابع 136
سیکول@@ 136
شيا 136
عقب 136
فرج 136
وني@@ 136
چہار@@ 136
335 135
38,@@ 135
381 135
45.@@ 135
Tar@@ 135
Un@@ 135
^ 135
اعتم@@ 135
الآثار 135
بدو 135
تَ 135
رونی 135
سبقت 135
غار@@ 135
غل 135
كْ@@ 135
مالك 135
مم 135
ولوج@@ 135
گھن@@ 135
ﭽ@@ 135
ﻑ 135
ﻫ@@ 135
0.6 134
59.@@ 134
Ne@@ 134
ance 134
ci@@ 134
ru@@ 134
ə@@ 134
الجام@@ 134
امک@@ 134
تبا@@ 134
خزر@@ 134
ريو 134
سري 134
سہار@@ 134
ضَ@@ 134
فروع 134
لات@@ 134
لیکس 134
مونٹگ@@ 134
ودر@@ 134
ينز 134
پنس@@ 134
ڈیل@@ 134
র@@ 134
345 133
372 133
395 133
41.@@ 133
560 133
CO@@ 133
Indian 133
Mont@@ 133
ala 133
ator 133
ing@@ 133
world 133
بج 133
تناز@@ 133
جاب 133
ضاء 133
لزم 133
معرو@@ 133
مینیا 133
وولف 133
ﭩ@@ 133
Car@@ 132
Com@@ 132
Moh@@ 132
Ur@@ 132
au@@ 132
bi@@ 132
rural 132
zy@@ 132
اوقیان@@ 132
اوي 132
اکیڈ@@ 132
صوت@@ 132
قهٔ 132
كيرو@@ 132
وتا 132
وتق@@ 132
يف@@ 132
گوان 132
گہر@@ 132
318 131
336 131
354 131
44,@@ 131
47.@@ 131
Gar@@ 131
Khan@@ 131
Santa 131
Ver@@ 131
ne@@ 131
é@@ 131
ש@@ 131
المذ@@ 131
تاز@@ 131
تحمل 131
تفاوت 131
ثقاف@@ 131
ثَ@@ 131
رصد 131
رضي 131
سوسائ@@ 131
عليه 131
قرص 131
كوك 131
مہات@@ 131
ومنٹ 131
چینج 131
338 130
348 130
Dash@@ 130
Her@@ 130
Pr@@ 130
qu@@ 130
states 130
الخوار@@ 130
ايا 130
بير 130
تانی 130
تحريك 130
تز 130
كام 130
مناس@@ 130
منسو@@ 130
ولان 130
-- 129
1849 129
20,000 129
339 129
45,@@ 129
College 129
John 129
Le@@ 129
Shar@@ 129
als 129
and@@ 129
ik@@ 129
uy@@ 129
الدع@@ 129
الغرض 129
بشار 129
ريكو 129
قن 129
كاون@@ 129
موا 129
ينو 129
ٗ@@ 129
119@@ 128
31@@ 128
Far@@ 128
Ro@@ 128
del 128
oc@@ 128
ś@@ 128
ة@@ 128
تانا 128
تعليم 128
طین 128
فنک@@ 128
وزو 128
ويس 128
1858 127
1a 127
357 127
363 127
49.@@ 127
570 127
8000 127
Korea 127
Lan@@ 127
ara 127
end 127
re 127
ל@@ 127
البغ@@ 127
الجامع 127
الرؤ@@ 127
انگری@@ 127
حام@@ 127
حول 127
حیات@@ 127
دير 127
رالف 127
رط@@ 127
سيا 127
عثمان@@ 127
قاق 127
كتب 127
كوك@@ 127
كير@@ 127
لاق 127
مصنف@@ 127
مطاب@@ 127
ملائی@@ 127
نص 127
1840 126
344 126
362 126
540 126
Ali@@ 126
Bas@@ 126
aj 126
ant 126
cities 126
ma@@ 126
ni 126
te@@ 126
ְ@@ 126
أن 126
ئت 126
ابلا@@ 126
ادائی@@ 126
العصر 126
بكر 126
تمر 126
حنی@@ 126
طلال 126
غرا@@ 126
فضلا 126
كول 126
متز@@ 126
ٽ@@ 126
0.9 125
1873 125
319 125
331 125
337 125
355 125
5.5 125
Ab 125
CC 125
Laurent 125
ha@@ 125
ts 125
ؑ@@ 125
اه 125
تفری@@ 125
جود 125
سرگر@@ 125
فیڈری@@ 125
مقتل 125
موی@@ 125
ولیت 125
ਰ@@ 125
ﮫ 125
.p@@ 124
1300 124
3.3 124
364 124
530 124
Di@@ 124
Tal@@ 124
UN@@ 124
dan 124
he 124
ics 124
jan 124
pa@@ 124
ב@@ 124
المخت@@ 124
تري@@ 124
زُ@@ 124
صدا@@ 124
صدق 124
غور@@ 124
قبہ 124
مصط@@ 124
معرض 124
0.2 123
1861 123
351 123
356 123
Time 123
ber@@ 123
si 123
ה@@ 123
ضرر 123
عين 123
غو@@ 123
مجھ@@ 123
مراجع 123
والق@@ 123
وزہ 123
کیمپ@@ 123
گفت@@ 123
یوگوسلا@@ 123
3.4 122
3.6 122
6.5 122
640 122
Char@@ 122
Kur@@ 122
ane 122
bar@@ 122
ta 122
ה 122
ازت 122
الآ@@ 122
انوس 122
اویر 122
خصائص 122
خصوص@@ 122
عمار@@ 122
فرنس 122
قن@@ 122
ماو 122
مران 122
کمال@@ 122
1875 121
347 121
366 121
396 121
57.@@ 121
Prefecture 121
Sub@@ 121
able 121
no@@ 121
ob@@ 121
po@@ 121
th 121
افغ@@ 121
براون 121
خدی@@ 121
زين@@ 121
ستانہ 121
صِ@@ 121
ظن 121
عظم 121
غال 121
فاح 121
وسي@@ 121
وص 121
گوجران@@ 121
0.3 120
000@@ 120
1804 120
490 120
Ku@@ 120
Loire 120
ash 120
object 120
ot 120
استم@@ 120
البي@@ 120
اناط@@ 120
ةٍ 120
تْ 120
خرو@@ 120
طراز 120
ظت 120
قتال 120
كاؤن@@ 120
كات@@ 120
متعل@@ 120
پسم@@ 120
چغ@@ 120
3,000 119
346 119
367 119
385 119
48,@@ 119
639 119
Hu@@ 119
Li@@ 119
Shah 119
adi@@ 119
ama 119
ةُ 119
ترو 119
حاش@@ 119
سلک 119
سہارن@@ 119
قصائد 119
قفق@@ 119
لول@@ 119
مقص@@ 119
پولین 119
﻿ 119
3.1 118
342 118
343 118
7,0@@ 118
IS@@ 118
Is@@ 118
do 118
eb@@ 118
era 118
ho@@ 118
× 118
المتو@@ 118
بعنوان 118
جين@@ 118
خيل 118
راجپ@@ 118
روج 118
زين 118
ساق@@ 118
طعام 118
فرانس@@ 118
فري 118
قلا@@ 118
لما 118
مارس 118
ٴ@@ 118
8,0@@ 117
Bi@@ 117
Mir@@ 117
ul 117
السع@@ 117
بقاء 117
حضر@@ 117
صت 117
كين 117
ماتح@@ 117
مقبوض@@ 117
ویش 117
ﺨ@@ 117
1400 116
1839 116
1872 116
349 116
Bel@@ 116
Ham@@ 116
Ser@@ 116
ig@@ 116
ok@@ 116
اؤن 116
المثل 116
المز@@ 116
النج@@ 116
بصی@@ 116
روق 116
سكا 116
شمس@@ 116
ضي 116
عبر@@ 116
عیس@@ 116
فوربس 116
نك@@ 116
يول@@ 116
ِّ 116
ّن 116
یوگ@@ 116
ﺲ 116
￼ 116
1600 115
369 115
96.@@ 115
99.@@ 115
AR@@ 115
Ba@@ 115
Lab@@ 115
Pi@@ 115
ated 115
ite 115
op@@ 115
ִ@@ 115
ئون 115
ائیس 115
اكا 115
اندل@@ 115
اني@@ 115
انيا 115
بالم@@ 115
بلي@@ 115
تناس@@ 115
جزئ@@ 115
حيدر 115
راض@@ 115
ساء 115
صول 115
فائی@@ 115
فرانسی@@ 115
قرآ@@ 115
مركزي 115
مسئ@@ 115
موسو@@ 115
پروٹ@@ 115
ﺿ@@ 115
1865 114
353 114
359 114
368 114
42.@@ 114
44.@@ 114
9.7 114
It 114
Kor@@ 114
Po@@ 114
Poland 114
esh@@ 114
ley 114
ong@@ 114
system 114
ارانہ 114
الاد@@ 114
المقد@@ 114
بلي 114
بيا 114
ثاني 114
حبيب 114
روای@@ 114
نزدی@@ 114
نفا@@ 114
کاروب@@ 114
کالون@@ 114
ݨ 114
ਾ@@ 114
་ 114
ﻏ@@ 114
ﻱ 114
378 113
5.2 113
Lin@@ 113
Russia 113
ille 113
ish@@ 113
par@@ 113
st@@ 113
اکث@@ 113
جغرا@@ 113
خطر 113
خیص 113
راع 113
رنا 113
ساتھ@@ 113
قار 113
ملبورن 113
ومي 113
يام@@ 113
ﺅ 113
1.0 112
386 112
Av@@ 112
Bor@@ 112
Gal@@ 112
Now@@ 112
ach@@ 112
افر 112
بم@@ 112
ریلو@@ 112
ساف@@ 112
ستار@@ 112
عز 112
قصص 112
ماز@@ 112
مونت@@ 112
্ 112
0.1 111
379 111
403 111
470 111
630 111
999 111
Cor@@ 111
Ha@@ 111
So@@ 111
Sol@@ 111
department 111
ex@@ 111
mar@@ 111
استف@@ 111
تعالى 111
تعم@@ 111
جاسم 111
خمس@@ 111
دائرة 111
عقاب 111
فين@@ 111
كيلي 111
لسان 111
− 111
1828 110
1859 110
1862 110
1883 110
341 110
393 110
5.4 110
6,000 110
Hasan 110
em 110
ey@@ 110
me@@ 110
ءت 110
المقابل 110
زیز 110
عروض 110
قرن 110
كت@@ 110
مناصب 110
مه 110
نقط@@ 110
يه@@ 110
1838 109
371 109
376 109
391 109
4- 109
4.0 109
46,@@ 109
88.@@ 109
Kam@@ 109
Lake 109
Peru 109
im 109
people 109
ve 109
ès 109
ادق 109
المخ@@ 109
المهدي 109
انز@@ 109
اہب 109
بوي@@ 109
رك 109
سيان 109
صوت 109
عة 109
عيل 109
فلسفی@@ 109
كاس 109
كريم 109
384 108
IV 108
Mac@@ 108
Nord 108
Ph@@ 108
Ra@@ 108
UTC 108
ja 108
ou 108
ą@@ 108
اشرا@@ 108
الثاني 108
سمرق@@ 108
صندوق 108
طری@@ 108
قيس 108
لد@@ 108
منس 108
مِّ@@ 108
وكي 108
ﺍﻭ@@ 108
1832 107
1853 107
50,@@ 107
79.@@ 107
Georges 107
Pal@@ 107
languages 107
our 107
pi@@ 107
their 107
ˈ@@ 107
ַ@@ 107
اسکر@@ 107
انتون 107
بوب 107
تات 107
جروں 107
رضام@@ 107
صحيح 107
طن 107
فح@@ 107
وأ@@ 107
وَّ@@ 107
ﻒ 107
1863 106
404 106
5.6 106
54,@@ 106
660 106
960 106
Bu@@ 106
Ex@@ 106
Ger@@ 106
Taz@@ 106
eg@@ 106
estan 106
geographical 106
have 106
lès 106
ma 106
ng@@ 106
noinclude 106
osis 106
pr@@ 106
آئر@@ 106
آسٹری@@ 106
استر@@ 106
الحاد 106
الشاف@@ 106
بعل@@ 106
حاص@@ 106
فلوری@@ 106
قاض@@ 106
قديم 106
مقب@@ 106
ناہ 106
وير@@ 106
ویات 106
ٹورنام@@ 106
گت 106
1866 105
398 105
405 105
412 105
5.8 105
610 105
720 105
Ban@@ 105
Ko@@ 105
RE@@ 105
Si@@ 105
Ta@@ 105
est 105
go@@ 105
ment 105
um@@ 105
اسل 105
الس 105
بعث 105
بیو 105
تام 105
تروی@@ 105
تکلی@@ 105
خوا 105
دح@@ 105
سندر 105
غن@@ 105
فلسف@@ 105
لکھن@@ 105
مصنع 105
نساء 105
والع@@ 105
وصی@@ 105
ٰن 105
05@@ 104
1,200 104
1806 104
373 104
399 104
435 104
481 104
49,@@ 104
510 104
58,@@ 104
60,@@ 104
AM@@ 104
Ac@@ 104
Empire 104
Maryland 104
Paul 104
more 104
pur 104
إ@@ 104
بغض 104
بيل@@ 104
ثلث 104
حزم 104
رخص@@ 104
سوف 104
شري@@ 104
شك@@ 104
كز@@ 104
كون 104
لفظ@@ 104
يف 104
گجرا@@ 104
100,000 103
1826 103
1846 103
1851 103
1869 103
3.2 103
361 103
401 103
408 103
55,@@ 103
760 103
91.@@ 103
Fer@@ 103
Julien 103
Lam@@ 103
Lar@@ 103
St. 103
gu@@ 103
اسکند@@ 103
الرضا 103
اللحم 103
المس@@ 103
تخصص 103
تکنی@@ 103
سنس 103
صاص 103
متش@@ 103
ومو@@ 103
425 102
78.@@ 102
AL@@ 102
Carni@@ 102
No@@ 102
San@@ 102
la@@ 102
lam@@ 102
me 102
ؤٹ 102
ادری 102
التح@@ 102
اوج 102
براء 102
بنات 102
خمس 102
سبک@@ 102
وسي 102
وقعت 102
ومع@@ 102
یکس@@ 102
ﭨ@@ 102
358 101
387 101
394 101
406 101
47,@@ 101
Bon@@ 101
Nas@@ 101
mon@@ 101
oli 101
ov@@ 101
ut@@ 101
za 101
اشم 101
العلا@@ 101
النور 101
انگل@@ 101
اکین 101
بوط 101
جارج@@ 101
جت 101
داول 101
ذائ@@ 101
زال 101
غي@@ 101
ــــ@@ 101
قشت@@ 101
كلين@@ 101
لاح 101
نوي@@ 101
وقت@@ 101
ّل 101
″ 101
 101
1834 100
1854 100
382 100
388 100
50,000 100
525 100
620 100
661 100
830 100
Arabic 100
At@@ 100
Bois 100
IA@@ 100
Sad@@ 100
Stadium 100
be@@ 100
der 100
ford 100
ill@@ 100
si@@ 100
ter 100
ure 100
ó@@ 100
آرگن@@ 100
اظ 100
البق@@ 100
جاء 100
خِ@@ 100
سوتا 100
سپ 100
مبل@@ 100
محاص@@ 100
نع 100
نوتی 100
ٹیکنی@@ 100
0.4 99
377 99
392 99
69.@@ 99
730 99
Bur@@ 99
Em@@ 99
English 99
Union 99
Val@@ 99
ais 99
الاست@@ 99
الروا@@ 99
المو@@ 99
انش@@ 99
رہنما@@ 99
شغل 99
كيو 99
لوم 99
کیوب@@ 99
گلگ@@ 99
یقی@@ 99
0,0@@ 98
1831 98
397 98
424 98
452 98
590 98
7.7 98
AS@@ 98
Ad@@ 98
Ah@@ 98
ast@@ 98
deh 98
ty 98
you 98
á@@ 98
اجد 98
بح 98
تناول 98
جديد 98
حذ@@ 98
ريز 98
ریاست@@ 98
شنو 98
قندھ@@ 98
لوث 98
لّ@@ 98
ماي@@ 98
مشار@@ 98
ڈویل@@ 98
کھوں 98
1821 97
1835 97
383 97
4,000 97
428 97
441 97
445 97
Pro@@ 97
bi 97
ca 97
cr@@ 97
division 97
do@@ 97
field 97
lar 97
ti 97
ze 97
الشمس 97
ةٌ 97
تصر 97
تطوان 97
توم 97
دري 97
دز 97
ساك@@ 97
سیاست@@ 97
فتوں 97
مفتاح 97
وزير 97
يق@@ 97
ٹان 97
1790 96
1818 96
1820 96
1845 96
3.9 96
374 96
4.7 96
56,@@ 96
Archiv@@ 96
COVID 96
Internet@@ 96
hi@@ 96
ita 96
owo 96
population 96
sa 96
ter@@ 96
wa 96
ادیت 96
زه 96
غات 96
مظاہ@@ 96
معي@@ 96
مك 96
نمر 96
ولاد 96
ّس 96
ٕ@@ 96
ۖ 96
07@@ 95
09@@ 95
1874 95
423 95
438 95
El@@ 95
Lo@@ 95
Now 95
Ow@@ 95
also 95
car@@ 95
ji@@ 95
line 95
rah@@ 95
which 95
ادل 95
بني@@ 95
جزء 95
ربع 95
ربيع 95
شوار@@ 95
طيف 95
عبدالله 95
كوا@@ 95
مساف@@ 95
ملال 95
وسل@@ 95
يمي 95
کریا 95
ہائیڈرو@@ 95
1809 94
1868 94
415 94
433 94
493 94
495 94
6.4 94
950 94
97.@@ 94
Bah@@ 94
Council 94
Trans@@ 94
appe@@ 94
ati@@ 94
ba@@ 94
ence 94
ie@@ 94
per@@ 94
single 94
الصح@@ 94
العب@@ 94
النص@@ 94
الوہ@@ 94
بقدر 94
حم 94
سبن@@ 94
شمل 94
ضوں 94
طول@@ 94
قاء 94
قوط 94
لج@@ 94
لوج 94
ميا 94
نقاش 94
هـ 94
وجود@@ 94
وزي@@ 94
ٍ@@ 94
ٹاؤن@@ 94
1799 93
389 93
426 93
473 93
5.9 93
656 93
670 93
7000 93
For@@ 93
IC@@ 93
Island 93
Mol@@ 93
Mosque 93
ali@@ 93
ations 93
ge 93
oma 93
ابن@@ 93
الجرا@@ 93
الجز@@ 93
الفار@@ 93
المُ@@ 93
انکارپو@@ 93
بعل 93
تقد@@ 93
ته 93
دلچ@@ 93
راي@@ 93
سعودي 93
غری@@ 93
قبض 93
ليل 93
نظري@@ 93
وتي 93
وذ@@ 93
ٹرل 93
₹ 93
ﮪ 93
432 92
442 92
455 92
57,@@ 92
58.@@ 92
8.1 92
978 92
Haute 92
Hilaire 92
IN@@ 92
Tang 92
Western 92
ada 92
ale 92
ئری 92
الشعر@@ 92
المغرب 92
تقال 92
جہاز@@ 92
حدث 92
قبل@@ 92
مرش@@ 92
مسا@@ 92
ورات 92
ولون 92
ونسو 92
يزيد 92
ہدای@@ 92
ি@@ 92
001 91
3.0 91
30,000 91
4.6 91
418 91
456 91
Games 91
Lag@@ 91
Sar 91
Sav@@ 91
ets 91
ish 91
ku@@ 91
yn 91
افز@@ 91
الحج 91
الحجاج 91
باخ 91
برادری@@ 91
برکی@@ 91
تخلی@@ 91
تنز@@ 91
جه@@ 91
حضرت@@ 91
حيات 91
خات 91
دوغ@@ 91
ديل 91
شخصيات 91
موسي@@ 91
نوت 91
نکھ 91
وذ 91
ڊ@@ 91
409 90
43.@@ 90
465 90
7.6 90
Borough 90
Dow@@ 90
Dynasty 90
Sab@@ 90
air@@ 90
alism 90
ey 90
son 90
yan 90
التص@@ 90
السّ@@ 90
المسلمون 90
بعمر 90
تدار 90
جيك 90
راعات 90
روبن 90
شخص@@ 90
صنف@@ 90
صُ@@ 90
عات@@ 90
عال@@ 90
قوا@@ 90
كيم 90
ليون 90
محافظات 90
مصح@@ 90
مقاتل 90
ممبر@@ 90
وتم 90
وّر 90
پنسلو@@ 90
کستان 90
ਸ@@ 90
3.7 89
4.9 89
439 89
444 89
545 89
586 89
786 89
860 89
940 89
980 89
AN@@ 89
Ash@@ 89
Gol 89
Gr@@ 89
Great 89
History 89
Islamic 89
Lac@@ 89
Tak@@ 89
US 89
over 89
Étienne 89
آسٹریلی@@ 89
المث@@ 89
امپ@@ 89
تنظيم 89
ضي@@ 89
عنص@@ 89
لاه@@ 89
مترا 89
وسلا@@ 89
️ 89
105@@ 88
1100 88
1855 88
3.8 88
411 88
485 88
543 88
6.1 88
6.3 88
Cas@@ 88
DB 88
Sur@@ 88
System 88
ao 88
elle 88
ens 88
ette 88
ghost 88
html 88
ik 88
most 88
om 88
ran 88
space 88
تیب 88
خصوصًا 88
دلال 88
ظروف 88
مجتمع 88
نفوذ 88
واسط 88
ياس@@ 88
یروش@@ 88
1,500 87
1789 87
413 87
421 87
422 87
446 87
454 87
737 87
Bad@@ 87
Ni@@ 87
Ray@@ 87
Sy@@ 87
bot@@ 87
bu@@ 87
can 87
che 87
hu@@ 87
number 87
war 87
ادیث 87
تلف 87
رًا 87
رَّ@@ 87
غام@@ 87
فرق@@ 87
قري@@ 87
ماق 87
مالي 87
موش 87
ميري@@ 87
ناک@@ 87
نه 87
ਦ@@ 87
1801 86
1847 86
4.8 86
402 86
416 86
417 86
448 86
484 86
580 86
68.@@ 86
7,000 86
André 86
Bey@@ 86
Lahore 86
Mad@@ 86
Ou@@ 86
Spain 86
ano 86
lo@@ 86
נ@@ 86
ازي 86
اعتب@@ 86
الاث@@ 86
البشر 86
الحديث 86
الخوارز@@ 86
باح@@ 86
بعض@@ 86
جعل 86
جين 86
زز 86
طرب 86
غز 86
كاك@@ 86
مري@@ 86
وفى 86
़ 86
ক@@ 86
ﭙ@@ 86
ﯽ@@ 86
1837 85
300@@ 85
407 85
414 85
437 85
5- 85
515 85
64,@@ 85
930 85
975 85
Deh@@ 85
Gor@@ 85
Romania 85
VI 85
Zum@@ 85
aki 85
ba 85
bo@@ 85
ess@@ 85
fac@@ 85
non 85
time 85
آندھ@@ 85
اجتہ@@ 85
انعام@@ 85
تؤ@@ 85
تاد@@ 85
ثا 85
جمي@@ 85
خليج 85
دفع 85
زق 85
سلر 85
صنا@@ 85
صي@@ 85
لك 85
متھ 85
وتن@@ 85
کمو@@ 85
1810 84
1817 84
419 84
427 84
494 84
499 84
5.3 84
548 84
6.9 84
642 84
652 84
740 84
790 84
AC@@ 84
Bak@@ 84
Jon@@ 84
Muhammad 84
Pan@@ 84
Valley 84
adi 84
den 84
ju@@ 84
ome 84
parish 84
sp@@ 84
tu@@ 84
use 84
الاخ@@ 84
البل@@ 84
انسائی@@ 84
بالت@@ 84
بض 84
سيف 84
فرانسي@@ 84
مرہ@@ 84
مًا 84
هو 84
ية 84
ੀ 84
ﻊ 84
08@@ 83
112@@ 83
1829 83
1842 83
459 83
468 83
486 83
544 83
632 83
8,000 83
Est 83
Ge@@ 83
House 83
Hungary 83
Jan@@ 83
Las 83
PO@@ 83
ata 83
est@@ 83
mo@@ 83
settlements 83
uz@@ 83
va 83
ver@@ 83
Ś@@ 83
إلى 83
ازن 83
المرا@@ 83
تسو@@ 83
داع 83
ديه 83
سير 83
شح@@ 83
شیدہ 83
مى 83
ميل 83
نابلس 83
وظ 83
وعمل 83
پید 83
1520 82
1844 82
436 82
457 82
483 82
507 82
51.@@ 82
549 82
6.6 82
840 82
Do@@ 82
Inter@@ 82
Mat@@ 82
anti@@ 82
har@@ 82
ke 82
s.@@ 82
will 82
ye@@ 82
yg@@ 82
ō@@ 82
ע@@ 82
امتح@@ 82
بیلار@@ 82
تى 82
حدگی 82
طع 82
كوب@@ 82
لى 82
ماري 82
متر@@ 82
محق@@ 82
مخد@@ 82
منتج 82
نين 82
پسمان@@ 82
1807 81
429 81
5.1 81
527 81
565 81
59,@@ 81
6.2 81
810 81
910 81
Aubin 81
Kah@@ 81
La@@ 81
Mur@@ 81
ST@@ 81
core 81
countries 81
rate 81
width 81
yk@@ 81
ائص 81
اعترا@@ 81
الاغ@@ 81
السن@@ 81
بارات 81
باو 81
تش 81
راگوئے 81
روان@@ 81
ريت 81
ريم 81
زيل 81
سى 81
طلق 81
فیٰ 81
كاب@@ 81
مجرد 81
وظی@@ 81
يحي@@ 81
يكي 81
کمش@@ 81
ﮈ@@ 81
ﺀ 81
ﺯ 81
ﻈ@@ 81
4.3 80
447 80
512 80
555 80
7.3 80
870 80
El 80
He@@ 80
Land@@ 80
Pl@@ 80
Road 80
Var@@ 80
class 80
had 80
his 80
ip 80
ko 80
mu@@ 80
two 80
ys@@ 80
آرتھو@@ 80
اتذ@@ 80
بغ 80
تبات 80
ثعل@@ 80
دوج@@ 80
دّ@@ 80
راد@@ 80
سرائ@@ 80
شفاء 80
صدي@@ 80
فورنيا 80
كث@@ 80
مني 80
ميك@@ 80
ميني 80
نعر@@ 80
يي 80
ﷲ@@ 80
434 79
466 79
497 79
516 79
518 79
643 79
Bay@@ 79
Chesh@@ 79
DA 79
Jar@@ 79
Lu@@ 79
SA@@ 79
TV 79
VII 79
end@@ 79
ino 79
ion 79
life 79
ran@@ 79
ta@@ 79
way 79
ć 79
احت 79
البرو@@ 79
المل@@ 79
تاد 79
ترقي@@ 79
تکمی@@ 79
شاخ@@ 79
شيما 79
طلاح 79
عرص@@ 79
مباش@@ 79
مدي@@ 79
موريس 79
واجبات 79
وبي 79
وفو 79
ہمد@@ 79
ਿ@@ 79
ﭦ 79
1000@@ 78
1707 78
449 78
458 78
463 78
478 78
5.0 78
551 78
602 78
625 78
674 78
780 78
AB@@ 78
CEO 78
Nar@@ 78
Netherlands 78
Qur@@ 78
ant@@ 78
ative 78
ency 78
que 78
str@@ 78
they 78
ura 78
ابق 78
ابوی@@ 78
اشي 78
اصف@@ 78
اكت@@ 78
المف@@ 78
بالن@@ 78
بدا@@ 78
بولي@@ 78
بوم 78
تست@@ 78
تعلم 78
توقف 78
ثم@@ 78
راجستھ@@ 78
طلا@@ 78
عضلات 78
فلا 78
قاط@@ 78
لقت 78
لًا 78
وسر 78
يلو 78
يَّ@@ 78
ہوما 78
ہيم@@ 78
ব@@ 78
․ 78
🔹 78
--- 77
1526 77
467 77
5.7 77
572 77
726 77
820 77
970 77
ae 77
cell 77
ell@@ 77
ile 77
settlement 77
sk 77
tan@@ 77
ts@@ 77
urdu 77
ת 77
اث 77
ارتباط 77
الباس@@ 77
الجما@@ 77
الملك 77
ترکمان@@ 77
ثبات 77
سترا@@ 77
عند 77
فط@@ 77
كلو@@ 77
مؤلف@@ 77
مارك 77
مقط@@ 77
مماث@@ 77
ميت 77
ميم 77
وئي 77
ينا@@ 77
ন 77
ﮌ@@ 77
ﺫ@@ 77
431 76
453 76
475 76
536 76
6.7 76
651 76
7.2 76
76,@@ 76
AT@@ 76
Hill 76
Kas@@ 76
Punjab 76
Quebec 76
SE@@ 76
Tur@@ 76
ability 76
dar@@ 76
iec 76
mer@@ 76
quot 76
uk@@ 76
zi@@ 76
استطاعت 76
اسط@@ 76
الإمام 76
الخلا@@ 76
الون 76
باست@@ 76
جارجی@@ 76
جدل 76
دًا 76
ذُ@@ 76
سكي@@ 76
غام 76
كور 76
لسان@@ 76
ويد 76
پندر@@ 76
1770 75
1819 75
4.4 75
482 75
511 75
552 75
589 75
594 75
6.8 75
65,@@ 75
7.9 75
98.@@ 75
American 75
Burkina 75
CA@@ 75
Cal@@ 75
Chi@@ 75
ES@@ 75
Hasan@@ 75
Khar@@ 75
Les 75
ME@@ 75
MO@@ 75
Ol@@ 75
RC 75
Sweden 75
bar 75
begin 75
esh 75
ev@@ 75
function 75
hou 75
ut 75
اختر@@ 75
النس@@ 75
الواقع 75
اندا 75
برش@@ 75
ترقی@@ 75
حلول 75
حمل@@ 75
دَّ@@ 75
دیوار@@ 75
روي@@ 75
ريكا 75
سني 75
شرقي 75
ظل 75
كيني@@ 75
لاند 75
مخر@@ 75
مسح 75
ومات 75
کب@@ 75
ਤ@@ 75
1795 74
1824 74
25,000 74
43,@@ 74
462 74
469 74
479 74
505 74
508 74
539 74
672 74
717 74
777 74
880 74
Air@@ 74
British 74
Dis@@ 74
Faso 74
Sam@@ 74
Sor@@ 74
WT@@ 74
gen@@ 74
gr@@ 74
her@@ 74
ist 74
istan 74
ke@@ 74
ole 74
public 74
ue 74
£ 74
ères 74
الجزائ@@ 74
الشيخ 74
باع 74
بيان 74
تقر@@ 74
حوادث 74
خير 74
دورا 74
شير@@ 74
طري@@ 74
فات@@ 74
قاً 74
مشک@@ 74
هون 74
ّات 74
ۂ@@ 74
ﺱ 74
1453 73
15,000 73
1783 73
1836 73
4.1 73
42@@ 73
451 73
477 73
506 73
521 73
522 73
6- 73
612 73
711 73
72.@@ 73
911 73
A. 73
Ay@@ 73
Ram@@ 73
Shir@@ 73
Tri@@ 73
XI 73
arg@@ 73
ates 73
con@@ 73
eng@@ 73
row 73
yr@@ 73
ֹ@@ 73
اة 73
ازب@@ 73
التن@@ 73
الرب 73
الرح@@ 73
الصدر 73
بب 73
بلدي@@ 73
بَ 73
جمہ@@ 73
لانو 73
مؤرخ@@ 73
مِن 73
ناج@@ 73
نساس 73
ڈیز@@ 73
۞ 73
ﮯ@@ 73
1803 72
1833 72
501 72
509 72
532 72
542 72
559 72
603 72
685 72
705 72
718 72
722 72
914 72
Ang@@ 72
Bab@@ 72
SA 72
Seine 72
`@@ 72
ain 72
ami 72
arr@@ 72
ati 72
ault 72
com@@ 72
ent@@ 72
ep@@ 72
fi@@ 72
form 72
list 72
national 72
ubi 72
van 72
wikipedia.org 72
š@@ 72
ם 72
اختبار 72
افي 72
التار@@ 72
بة 72
جاد 72
حص 72
خل 72
خوس@@ 72
زرلینڈ 72
سبع 72
سیع 72
غوا@@ 72
قام@@ 72
لازما 72
لحم 72
متہ 72
نزاع 72
ّق 72
٘ 72
کنون@@ 72
1793 71
491 71
500@@ 71
502 71
517 71
52.@@ 71
524 71
534 71
576 71
577 71
585 71
588 71
66,@@ 71
67,@@ 71
69,@@ 71
690 71
7.1 71
70,@@ 71
745 71
868 71
CA 71
Colombia 71
George 71
Maurice 71
Portugal 71
Str@@ 71
This 71
Vi@@ 71
aza 71
ebo@@ 71
ham@@ 71
lah 71
mi@@ 71
ny 71
oph@@ 71
qa 71
tics 71
ā 71
ارتفاع 71
الحوز 71
النفس 71
اله 71
ترك@@ 71
تصف 71
تیش 71
جورج 71
راف@@ 71
ستي@@ 71
سرح 71
غزو@@ 71
فة 71
فلي@@ 71
لمع@@ 71
مراء 71
مرت 71
مفتوح 71
موض@@ 71
مولر 71
ميامي 71
نشر@@ 71
نوي 71
نيل 71
ولاية 71
يرا@@ 71
ڏ@@ 71
ڙ 71
10000 70
1788 70
474 70
528 70
537 70
557 70
584 70
604 70
609 70
659 70
775 70
844 70
920 70
Asian 70
Azerbaijan 70
Can@@ 70
European 70
Fo@@ 70
IW@@ 70
Ju@@ 70
Kan@@ 70
Khal@@ 70
Na@@ 70
Sud 70
book 70
dis@@ 70
gi@@ 70
oh@@ 70
ors 70
ps 70
trans@@ 70
wi@@ 70
ابد 70
الدار@@ 70
السلا@@ 70
املات 70
ایتھو@@ 70
تك 70
خسر@@ 70
خليل 70
دستان 70
سليم 70
غالبًا 70
فيض 70
لیٰ 70
مشتر@@ 70
نافر@@ 70
واث@@ 70
وتر@@ 70
وفي 70
ٶ 70
1792 69
1843 69
1852 69
461 69
464 69
533 69
558 69
60.@@ 69
601 69
626 69
636 69
644 69
673 69
683 69
746 69
815 69
86,@@ 69
Beau@@ 69
Bou@@ 69
Company 69
Division 69
Egypt 69
Er@@ 69
Hey@@ 69
IM@@ 69
Islam 69
Koh@@ 69
Lang@@ 69
Michel 69
Qas@@ 69
RNA 69
Reg@@ 69
ach 69
ag 69
historic 69
hol@@ 69
illy 69
ography 69
ory 69
other 69
oux 69
pe@@ 69
pol@@ 69
ren@@ 69
ri 69
sc@@ 69
ud 69
up@@ 69
wo 69
ī@@ 69
الخوا@@ 69
السلط@@ 69
بيس 69
تجاو@@ 69
تقدم 69
حدہ 69
حي 69
دخول 69
رقت 69
شمال@@ 69
شين@@ 69
عاب 69
غول 69
كمال 69
ليو 69
ماه 69
مقعد 69
ملي 69
نيس 69
ويلك@@ 69
ويلي@@ 69
ویم 69
ِّي 69
ﮎ 69
ﻖ 69
0.0 68
1791 68
1825 68
20I 68
3D 68
504 68
538 68
567 68
575 68
622 68
655 68
664 68
698 68
7.4 68
710 68
762 68
770 68
AK@@ 68
Airways 68
My@@ 68
RA@@ 68
ess 68
ki@@ 68
omali 68
sous 68
آکسی@@ 68
أن@@ 68
اقتص@@ 68
الآخر 68
البد@@ 68
الغز@@ 68
اللغ@@ 68
النوع 68
اٹھار@@ 68
تنوں 68
تّ@@ 68
جغرافی@@ 68
حصن 68
خف@@ 68
ريد 68
سخ 68
قبال 68
مقاط@@ 68
هي@@ 68
ومي@@ 68
وى 68
يب@@ 68
ې 68
ー@@ 68
1762 67
1776 67
1805 67
200,000 67
3500 67
471 67
526 67
571 67
582 67
597 67
628 67
657 67
678 67
731 67
73@@ 67
915 67
95.@@ 67
Bala 67
Denis 67
Diz@@ 67
Gur@@ 67
Hal@@ 67
Human 67
Metropolitan 67
Min@@ 67
Mu@@ 67
Rah@@ 67
School 67
Tor@@ 67
US@@ 67
ann@@ 67
ht 67
lan@@ 67
mad 67
mad@@ 67
pl@@ 67
place 67
var 67
who 67
á 67
الد 67
المؤ@@ 67
ایوار@@ 67
تغلب 67
جوز 67
حاس@@ 67
ربي@@ 67
روع 67
زمی@@ 67
طبي@@ 67
فيت 67
كوت@@ 67
مبي@@ 67
وصل 67
يكو 67
يمي@@ 67
پرفار@@ 67
چسٹر 67
گیند@@ 67
਼ 67
ﺝ 67
1808 66
1827 66
514 66
535 66
593 66
613 66
662 66
699 66
841 66
853 66
Ahmad 66
Mak@@ 66
Ouest 66
Tomb 66
War 66
William 66
ain@@ 66
any 66
atic 66
dec@@ 66
gar@@ 66
gene 66
group 66
mont 66
od 66
table 66
up 66
č@@ 66
ן 66
اتذہ 66
افسان@@ 66
البند@@ 66
العاب@@ 66
القاد@@ 66
الیٰ 66
انز 66
ثان@@ 66
دة 66
دراج 66
سعو@@ 66
سيني 66
شہن@@ 66
فتاء 66
فظ 66
كروز 66
كلار@@ 66
كوريا 66
كير 66
مركز 66
مصالح 66
ميدان 66
يعقوب 66
يكس 66
پرست@@ 66
ۓ@@ 66
ﻐ@@ 66
476 65
487 65
496 65
519 65
547 65
553 65
561 65
624 65
629 65
633 65
637 65
681 65
736 65
819 65
823 65
892 65
997 65
@ 65
AI@@ 65
Cr@@ 65
Eastern 65
Il@@ 65
Mus@@ 65
OS 65
Sc@@ 65
Sha@@ 65
Vis@@ 65
a.@@ 65
ap 65
arrondissement 65
ast 65
ating 65
bl@@ 65
constituency 65
ine@@ 65
onlyinclude 65
so@@ 65
tions 65
ular 65
uri 65
vernorate 65
ä@@ 65
البح@@ 65
الرض@@ 65
القص@@ 65
بارا 65
برز 65
دول 65
ديو 65
ذان 65
شيل@@ 65
ضات 65
ضل 65
طم 65
غالب@@ 65
فير@@ 65
كاش@@ 65
نك 65
ولیہ 65
يِّ@@ 65
ٱ@@ 65
ﺬ@@ 65
472 64
541 64
573 64
587 64
62.@@ 64
634 64
635 64
665 64
68,@@ 64
707 64
712 64
765 64
825 64
Bank 64
Chen@@ 64
Chinese 64
Cricket 64
Development 64
Ghar@@ 64
Kol@@ 64
Louis 64
Mand@@ 64
Nag@@ 64
Ri@@ 64
Sel@@ 64
Upper 64
alu 64
aq@@ 64
arab@@ 64
don 64
eng 64
gov@@ 64
ham 64
ira 64
than 64
zi 64
ד@@ 64
أح@@ 64
ئين 64
الشعراء 64
الموس@@ 64
النبي 64
ایران@@ 64
برت 64
تاف@@ 64
جرت 64
جزر 64
جع 64
خرج 64
خوف@@ 64
دروا@@ 64
شوف 64
طفل 64
طُ@@ 64
عبيد 64
غان@@ 64
فضل@@ 64
فلسطين 64
قوق 64
كرك@@ 64
كيل 64
مفس@@ 64
موال@@ 64
نائس 64
ناك 64
نسي 64
هاي 64
واجی 64
وغ 64
يمز 64
ম@@ 64
ਹ@@ 64
ி@@ 64
ﭔ@@ 64
.org 63
1740 63
1763 63
1774 63
1798 63
1841 63
443 63
488 63
492 63
598 63
627 63
67.@@ 63
675 63
747 63
776 63
9,000 63
9.1 63
941 63
990 63
Dam@@ 63
Grand 63
IX 63
Jam@@ 63
Kr@@ 63
L4 63
Mag@@ 63
Mir 63
SO@@ 63
Te@@ 63
Ukraine 63
Washington 63
bad 63
ban 63
bat 63
ib@@ 63
ids 63
jiang 63
lin@@ 63
my 63
out 63
tes 63
uk 63
ve@@ 63
would 63
ż@@ 63
ائح 63
اتصال 63
الاول@@ 63
الحفاظ 63
الحن@@ 63
بلوچ@@ 63
تري 63
تفاض@@ 63
حدو@@ 63
رتا 63
ريش 63
مجال 63
مکن 63
وط 63
। 63
স@@ 63
005 62
498 62
53.@@ 62
54.@@ 62
568 62
581 62
595 62
631 62
638 62
641 62
645 62
692 62
704 62
804 62
814 62
826 62
833 62
849 62
878 62
890 62
AM 62
Ahmad@@ 62
CH@@ 62
Carolina 62
Cl@@ 62
Du@@ 62
Im@@ 62
James 62
Missouri 62
NH 62
NO@@ 62
Socialist 62
Tu@@ 62
Women 62
ath@@ 62
dar 62
hir 62
ider 62
men 62
poly@@ 62
privileg@@ 62
sar@@ 62
ser@@ 62
su@@ 62
ush@@ 62
ə 62
أهل 62
الملو@@ 62
بالس@@ 62
بموجب 62
تير@@ 62
تين@@ 62
ذي 62
سيات 62
شعب 62
عسک@@ 62
لمب@@ 62
مراج@@ 62
نست@@ 62
وفاء 62
ونات 62
يه 62
چوسٹس 62
◼ 62
ﺛ@@ 62
ﺦ 62
1519 61
1524 61
1540 61
400@@ 61
563 61
6.0 61
616 61
695 61
7.8 61
799 61
8.6 61
9.5 61
90,@@ 61
AC 61
AS 61
Baba 61
Bay 61
Bengal 61
Bl@@ 61
Chal@@ 61
Dr@@ 61
Has@@ 61
Index 61
MI@@ 61
Mil@@ 61
Northern 61
Pol@@ 61
Retrieved 61
Wiel@@ 61
astr@@ 61
but 61
ix 61
ological 61
pref@@ 61
sub@@ 61
we 61
ائق 61
البص@@ 61
التَّ@@ 61
المدر@@ 61
المسائل 61
بہرائ@@ 61
تاکی@@ 61
تنظ@@ 61
جاج 61
داب 61
عربي 61
قاضي 61
كاي@@ 61
كش 61
كيلي@@ 61
مصف@@ 61
وريا 61
ویلٹ 61
ু@@ 61
ਮ@@ 61
1750 60
1765 60
50.@@ 60
529 60
658 60
721 60
725 60
733 60
757 60
758 60
764 60
77.@@ 60
782 60
793 60
795 60
8.9 60
895 60
Arab 60
Ben@@ 60
Chile 60
Cro@@ 60
Der@@ 60
Gh@@ 60
IC 60
L2 60
Marie 60
Mos@@ 60
Naz@@ 60
PA 60
Party 60
Sultan 60
ars 60
ase 60
aska 60
aye 60
first 60
following 60
gan 60
hal@@ 60
ind@@ 60
mal@@ 60
ry 60
ski 60
tri@@ 60
wood 60
­ 60
ë@@ 60
Ł@@ 60
إل@@ 60
إن 60
اجتماع@@ 60
البط@@ 60
الح 60
اللسان 60
المحد@@ 60
امين 60
باي@@ 60
بوش 60
تأ@@ 60
رص@@ 60
سرگو@@ 60
سير@@ 60
سہرہ 60
عنه 60
عو 60
موص@@ 60
مونت 60
نمو@@ 60
ومان 60
يتا 60
ينيا 60
ڈیمو@@ 60
া 60
ਾ 60
1780 59
503 59
569 59
607 59
65.@@ 59
677 59
709 59
715 59
735 59
784 59
8.2 59
847 59
854 59
88,@@ 59
919 59
945 59
A7 59
Bonn@@ 59
Ground 59
IT@@ 59
Is 59
L1 59
Mer@@ 59
PS 59
To@@ 59
acid 59
ages 59
all@@ 59
aya 59
cells 59
co 59
ene 59
inn@@ 59
io 59
lat@@ 59
million 59
only 59
osh@@ 59
oth@@ 59
sion 59
st 59
und 59
ת@@ 59
ادئ 59
البرا@@ 59
الحسين 59
الموا@@ 59
بروك@@ 59
جيك@@ 59
رجاء 59
ریتی 59
سمع 59
سه@@ 59
صورتی 59
غربي 59
فتي 59
كيس 59
لوك 59
مودو@@ 59
ناً 59
وائد 59
واسع 59
وبان 59
وران@@ 59
وقد 59
ومحمد 59
وکال@@ 59
يوم@@ 59
ہمای@@ 59
আ@@ 59
ল@@ 59
1325 58
1699 58
1718 58
1761 58
1811 58
2000@@ 58
556 58
562 58
564 58
583 58
591 58
618 58
719 58
724 58
781 58
785 58
836 58
865 58
921 58
925 58
949 58
952 58
962 58
Aer@@ 58
Af@@ 58
Cou@@ 58
General 58
Gulf 58
IE@@ 58
Ir@@ 58
Kon@@ 58
L5 58
Meh@@ 58
Power 58
Saône 58
St 58
Sz@@ 58
arch@@ 58
awa 58
azi 58
der@@ 58
jpg 58
kan 58
team 58
well 58
zad@@ 58
اذ 58
بوف@@ 58
بيلي@@ 58
تمو@@ 58
جري@@ 58
حمز@@ 58
حميد 58
خسر 58
دراجات 58
دى 58
روي 58
شاري 58
كتاب@@ 58
لمان 58
متف@@ 58
محدث@@ 58
ميني@@ 58
هار 58
هذ@@ 58
ورك 58
يح@@ 58
ّف 58
ো@@ 58
ਕ@@ 58
ਲ@@ 58
000,000 57
1648 57
1772 57
1802 57
523 57
546 57
574 57
605 57
608 57
647 57
663 57
667 57
686 57
697 57
7- 57
768 57
78,@@ 57
875 57
931 57
969 57
Arrondissement 57
Cape 57
Croix 57
Garonne 57
Green 57
IS 57
King 57
M. 57
Mexico 57
Nigeria 57
Sak@@ 57
Sham@@ 57
Soviet 57
aire 57
ath 57
berg 57
ding 57
ens@@ 57
ga 57
inf@@ 57
kar@@ 57
ly@@ 57
oa 57
ov 57
uc@@ 57
xi@@ 57
yria 57
ys 57
~ 57
כ@@ 57
أحمد 57
أو 57
اديث 57
اعت@@ 57
البلاد 57
تاريخي 57
ستي 57
فضی@@ 57
لوي@@ 57
مازند@@ 57
نسو 57
هي 57
وجہد 57
يتي@@ 57
يوب 57
ّب 57
پولیٹن 57
چھاؤ@@ 57
୍ 57
్ 57
004 56
1796 56
513 56
531 56
579 56
596 56
599 56
619 56
668 56
691 56
761 56
806 56
837 56
838 56
856 56
858 56
869 56
888 56
9.3 56
973 56
Asia 56
Coast 56
France 56
French 56
LO@@ 56
Life 56
Pon@@ 56
Saf@@ 56
Sauveur 56
Sir 56
Street 56
ana@@ 56
apo@@ 56
aran 56
been 56
dynasty 56
eri 56
ings 56
inter@@ 56
ire@@ 56
istic 56
ok 56
set 56
ting 56
tive 56
web 56
xi 56
ֶ@@ 56
اقتصادي 56
اكو 56
الشرق 56
الصلا@@ 56
العق@@ 56
الفض@@ 56
المرتب@@ 56
اليس 56
انیف 56
بغرض 56
ترام 56
حون 56
دٍ 56
راول@@ 56
ره@@ 56
ريق 56
زيز 56
سجن 56
سيدي 56
قط 56
مائش 56
موسى 56
وات@@ 56
ياس 56
پڑوں 56
یسہ 56
್ 56
ﮟ 56
008 55
1660 55
1720 55
1775 55
1816 55
1822 55
250@@ 55
578 55
611 55
648 55
688 55
701 55
708 55
727 55
734 55
743 55
755 55
756 55
8.3 55
817 55
862 55
863 55
886 55
89,@@ 55
896 55
9000 55
903 55
939 55
986 55
Bri@@ 55
Cer@@ 55
Dash 55
Do 55
Don@@ 55
ISBN 55
Lap@@ 55
Lithuania 55
Léger 55
Mam@@ 55
NKVD 55
Pe@@ 55
Sau@@ 55
Sind@@ 55
Ti@@ 55
court 55
ecture 55
electric 55
fra@@ 55
ho 55
ization 55
sac 55
tra 55
ud@@ 55
vi@@ 55
å@@ 55
ח@@ 55
פ@@ 55
اليا 55
اُر@@ 55
بالف@@ 55
بيك@@ 55
بيون 55
تدری@@ 55
حاق 55
خدم@@ 55
دع 55
راق 55
سفي@@ 55
سنة 55
ضعی@@ 55
ضًا 55
عقد@@ 55
عنوانی 55
فى 55
لة 55
نقشبند@@ 55
وقال 55
يمس 55
ڑائی 55
ਨ@@ 55
ﺡ 55
.jpg 54
1739 54
489 54
500,000 54
554 54
614 54
623 54
684 54
687 54
689 54
7.0 54
714 54
773 54
774 54
818 54
822 54
828 54
845 54
876 54
898 54
934 54
944 54
956 54
965 54
996 54
A.@@ 54
AP@@ 54
Act 54
As 54
Cre@@ 54
DC 54
Dom@@ 54
EC@@ 54
Hor@@ 54
Ji@@ 54
Kus@@ 54
Maj@@ 54
Mel@@ 54
Mé@@ 54
Por@@ 54
Pot@@ 54
Res@@ 54
TR@@ 54
White 54
about 54
bal 54
bol@@ 54
hr@@ 54
ida 54
ist@@ 54
ites 54
land@@ 54
money 54
ona 54
ota 54
ros@@ 54
sa@@ 54
schools 54
shan 54
skie 54
yed 54
zyn 54
اتش 54
اره 54
اللغات 54
النظ@@ 54
بمع@@ 54
توئی 54
خوض 54
سینک@@ 54
طلاب 54
عال 54
فين 54
كسي@@ 54
لوز@@ 54
مجموعات 54
محی@@ 54
مساعد 54
منگول@@ 54
نسان 54
نيوز@@ 54
هما 54
هنري 54
وائي 54
يمور 54
يين 54
1570 53
1580 53
1687 53
1784 53
1823 53
566 53
679 53
741 53
751 53
79,@@ 53
792 53
805 53
821 53
871 53
872 53
882 53
887 53
891 53
904 53
916 53
918 53
982 53
987 53
Abbas 53
Assembly 53
Banner 53
Baz@@ 53
Bil@@ 53
Charente 53
Church 53
Guinea 53
MS 53
Oxford 53
RI@@ 53
Ter@@ 53
bers 53
cel@@ 53
computer 53
data 53
date 53
energy 53
fl@@ 53
for@@ 53
ich@@ 53
khan 53
known 53
locality 53
port 53
pro@@ 53
second 53
years 53
ym@@ 53
آت 53
الإ@@ 53
الخط@@ 53
السج@@ 53
امپی@@ 53
انون 53
انکارپوریٹڈ 53
بيكر 53
خطر@@ 53
سٹنٹ 53
صدار@@ 53
غال@@ 53
غو 53
قون 53
كند@@ 53
مترا@@ 53
محافظة 53
مہاراج@@ 53
نيك 53
هل 53
ويب 53
يونس 53
ੰ@@ 53
ﺶ 53
003 52
1515 52
1556 52
1605 52
1683 52
1760 52
1769 52
606 52
617 52
653 52
706 52
716 52
728 52
732 52
752 52
80,@@ 52
802 52
855 52
859 52
864 52
866 52
884 52
9- 52
923 52
974 52
993 52
Ak@@ 52
BE 52
Capital 52
Day 52
Fir@@ 52
Henry 52
LC 52
Mer 52
R. 52
Rec@@ 52
Sil@@ 52
We@@ 52
Zar@@ 52
abi 52
amb@@ 52
anga 52
anj@@ 52
ann 52
arak 52
aro@@ 52
eth@@ 52
eville 52
ier 52
ila 52
ili@@ 52
lines 52
mer 52
ng 52
ome@@ 52
out@@ 52
ow 52
per 52
tem@@ 52
theory 52
ula 52
we@@ 52
work 52
yl@@ 52
án 52
í 52
ń 52
ū@@ 52
الحروف 52
الخ 52
الورم 52
انسپ@@ 52
بك 52
بيري 52
تردد 52
ذكر 52
رقب@@ 52
شياء 52
عرض@@ 52
فیکل@@ 52
لأ@@ 52
لج 52
لفاء 52
معتم@@ 52
منش@@ 52
مينيا 52
نين@@ 52
هذا 52
واخت@@ 52
واط 52
وكو 52
ينيك 52
ﻩ 52
007 51
1550 51
1757 51
42,@@ 51
52,@@ 51
654 51
669 51
694 51
723 51
738 51
742 51
744 51
77,@@ 51
796 51
8.8 51
812 51
842 51
861 51
883 51
917 51
929 51
968 51
97,@@ 51
972 51
99,@@ 51
994 51
America 51
Bat@@ 51
Beh@@ 51
Bos@@ 51
CC@@ 51
Ci@@ 51
De 51
Federal 51
Florida 51
For 51
Local 51
Nor@@ 51
Pont 51
Pre@@ 51
Qesh@@ 51
Rad@@ 51
Rem@@ 51
Urdu 51
aa 51
awn 51
background 51
bridge 51
civil 51
hem@@ 51
ire 51
ko@@ 51
nin 51
och@@ 51
oni 51
onne 51
pa 51
site 51
so 51
title 51
â@@ 51
التزام 51
الخز@@ 51
القمر 51
باري 51
بدا 51
بروك 51
ترال 51
ترك 51
خلال 51
عه 51
قاہ@@ 51
كم@@ 51
كيمي@@ 51
ليوس 51
ماري@@ 51
مّ@@ 51
پورٹس 51
ন@@ 51
র 51
ﺜ@@ 51
--@@ 50
002 50
1250 50
1492 50
1560 50
1618 50
1686 50
53,@@ 50
600@@ 50
702 50
729 50
754 50
8- 50
8.7 50
803 50
808 50
813 50
816 50
824 50
839 50
843 50
874 50
905 50
909 50
912 50
943 50
947 50
Armenia 50
CE@@ 50
DF 50
Dec@@ 50
ER@@ 50
Government 50
Gow@@ 50
IA 50
Language 50
Mau@@ 50
Mes@@ 50
NS@@ 50
PS@@ 50
Pas@@ 50
Pod@@ 50
RO@@ 50
Sch@@ 50
Town 50
aff@@ 50
ago 50
agu@@ 50
alan 50
animation 50
bal@@ 50
cri@@ 50
during 50
ee 50
ena 50
ide 50
je 50
killed 50
lan 50
nica 50
of@@ 50
ori 50
oz@@ 50
php 50
power 50
ster@@ 50
tery 50
them 50
thi 50
tor@@ 50
uch@@ 50
university 50
vi 50
water 50
ː 50
ֵ@@ 50
ائنات 50
افع 50
البلدان 50
النظر 50
بالج@@ 50
تران@@ 50
تفسير 50
جانات 50
راني 50
رى 50
رياض 50
سلي@@ 50
سيم 50
طبق 50
فرط 50
فيد 50
محد@@ 50
محك@@ 50
معا 50
ميك 50
مّ 50
وابن 50
ورجی@@ 50
وكس 50
ويت@@ 50
يج@@ 50
க@@ 50
ﭧ 50
1721 49
1758 49
1st 49
31,@@ 49
52@@ 49
55.@@ 49
615 49
62@@ 49
769 49
788 49
801 49
846 49
857 49
902 49
906 49
932 49
942 49
958 49
961 49
983 49
AF 49
An 49
Ap@@ 49
Centre 49
Cy@@ 49
D. 49
Elec@@ 49
First 49
Greater 49
IP 49
Ireland 49
Juan 49
Maritime 49
My 49
Nations 49
Port 49
Pu@@ 49
Red 49
Roche 49
Sp@@ 49
Tahir 49
Vil@@ 49
act 49
against 49
ahar 49
ahi 49
arm@@ 49
aum 49
ber 49
capital 49
ean 49
enne 49
ez 49
go 49
independent 49
kin@@ 49
law 49
ler@@ 49
link 49
nes 49
net 49
pe 49
school 49
sive 49
total 49
tro@@ 49
und@@ 49
uv@@ 49
اتل 49
اعتز@@ 49
الدعوة 49
السي@@ 49
النا@@ 49
بالق@@ 49
بلغ 49
ذيب 49
رواد 49
رياضي 49
رکو@@ 49
سجل 49
سمس 49
علام 49
قائق 49
لع@@ 49
لينز 49
نفیہ 49
وخ 49
يانا 49
ত@@ 49
ਸ 49
ା@@ 49
市 49
12,000 48
1350 48
1606 48
1650 48
1735 48
1785 48
1794 48
646 48
649 48
693 48
739 48
767 48
771 48
797 48
798 48
800@@ 48
832 48
848 48
897 48
9.2 48
913 48
95,@@ 48
951 48
96,@@ 48
992 48
AD@@ 48
Aq@@ 48
Belg@@ 48
CI@@ 48
Group 48
Institute 48
Je@@ 48
Kho@@ 48
Latvia 48
Self 48
Sen@@ 48
Zone 48
ame@@ 48
current 48
divisions 48
dr@@ 48
engineering 48
ever 48
han@@ 48
ichi 48
if@@ 48
ium 48
ney 48
ora 48
science 48
tar 48
tier 48
½ 48
البخار@@ 48
الذي 48
المقال 48
برات 48
بلديات 48
تعمی@@ 48
دستاوی@@ 48
دينار 48
روك 48
روني 48
ريج 48
صحف 48
متاث@@ 48
موند 48
هان 48
هور 48
وائز 48
واع 48
ومنین 48
ياء 48
يع 48
ٍّ 48
ّع 48
ݙ@@ 48
ে@@ 48
ਪ@@ 48
﷤ 48
ﻪ 48
1571 47
1598 47
1603 47
1746 47
1747 47
1773 47
40,000 47
66.@@ 47
682 47
713 47
748 47
749 47
753 47
763 47
807 47
852 47
873 47
899 47
924 47
926 47
937 47
953 47
984 47
Arch@@ 47
Center 47
Dur@@ 47
FI@@ 47
Fre@@ 47
Hes@@ 47
How@@ 47
Jal@@ 47
Kuh@@ 47
Lim@@ 47
Long@@ 47
Main 47
Muslim 47
One 47
Royal 47
Singh 47
Sw@@ 47
Switzerland 47
The@@ 47
Ul@@ 47
acy 47
ard@@ 47
ass@@ 47
ational 47
canton 47
cin@@ 47
enc@@ 47
gu 47
hai 47
has@@ 47
ier@@ 47
ign@@ 47
igny 47
ini 47
ise 47
old 47
ore 47
phot@@ 47
ska 47
tan 47
ui 47
ung@@ 47
value 47
¿ 47
і@@ 47
أس@@ 47
افترا@@ 47
امیدو@@ 47
انه 47
بعيد 47
بق 47
بلس 47
تيس 47
جاني 47
زرو 47
سلي 47
سيو 47
ضمان@@ 47
قازق@@ 47
كه 47
مخص@@ 47
مطار 47
وتص@@ 47
وقي 47
ٶ@@ 47
′ 47
ﺹ 47
0000@@ 46
1620 46
1659 46
1690 46
1696 46
1737 46
703 46
74.@@ 46
778 46
794 46
885 46
901 46
928 46
935 46
971 46
98,@@ 46
985 46
988 46
All 46
Asi@@ 46
Cos@@ 46
Dag@@ 46
Dor@@ 46
GDP 46
God 46
Hel@@ 46
Jab@@ 46
LE@@ 46
Press 46
Raj@@ 46
Sultan@@ 46
XVI 46
af 46
air 46
ania 46
article 46
ax@@ 46
century 46
cor@@ 46
cy@@ 46
down 46
ese 46
ew@@ 46
hat@@ 46
munici@@ 46
ted 46
territories 46
wan 46
wor@@ 46
Ż@@ 46
י 46
؂ 46
ازي@@ 46
الشرق@@ 46
المرو@@ 46
المنص@@ 46
بالح@@ 46
بيد 46
تجار@@ 46
جري 46
جعل@@ 46
ديس 46
شاف 46
شديد 46
فريد 46
فصول 46
فقد 46
ليم 46
ماك@@ 46
نيوك@@ 46
وفاد@@ 46
ٲ@@ 46
پوت 46
ې@@ 46
ۚ 46
ਵ@@ 46
1320 45
1517 45
1532 45
1709 45
1777 45
1778 45
51@@ 45
56.@@ 45
666 45
73.@@ 45
766 45
8.4 45
831 45
879 45
894 45
908 45
933 45
938 45
955 45
959 45
977 45
991 45
995 45
998 45
Africa 45
Association 45
B. 45
Bre@@ 45
Cap@@ 45
Cat@@ 45
Châte@@ 45
DE@@ 45
E. 45
Gold 45
Gon@@ 45
Hy@@ 45
IR@@ 45
Jaf@@ 45
Ke@@ 45
Ker@@ 45
Lot 45
Naj@@ 45
Shi@@ 45
Twenty20 45
UR@@ 45
Verde 45
Xi@@ 45
body 45
bor@@ 45
cad@@ 45
ds 45
ella 45
eux 45
gold 45
har 45
hid 45
history 45
ingen 45
into 45
iv@@ 45
new 45
osta 45
point 45
pu@@ 45
res@@ 45
some 45
ten@@ 45
under 45
zów 45
ée 45
ē@@ 45
استخراج 45
اطر 45
المَ@@ 45
النحو 45
الَّ@@ 45
اهل 45
ايت 45
بيريا 45
بيك 45
جه 45
دیوب@@ 45
فض 45
كاد@@ 45
كثير 45
ليون@@ 45
مح 45
منتق@@ 45
موث@@ 45
ميز@@ 45
ناق@@ 45
هل@@ 45
واري 45
والمع@@ 45
وبا@@ 45
وتم@@ 45
وجب 45
وسر@@ 45
ﻪ@@ 45
.1 44
1379 44
1565 44
1610 44
1622 44
1689 44
1759 44
60,000 44
779 44
783 44
811 44
827 44
889 44
927 44
936 44
966 44
AT 44
B.@@ 44
Bridge 44
C.@@ 44
CD 44
Carroll 44
Chad 44
Congo 44
Fort 44
IP@@ 44
LA 44
Loup 44
Lub@@ 44
M.@@ 44
Mey@@ 44
Mount 44
Op@@ 44
Pain 44
SI 44
Sard@@ 44
Sem@@ 44
Vel@@ 44
War@@ 44
You 44
ade 44
ality 44
burg 44
colspan 44
day 44
edi@@ 44
ef@@ 44
hab@@ 44
ide@@ 44
ih@@ 44
ines 44
military 44
orr@@ 44
programming 44
ray 44
rec@@ 44
su 44
ub@@ 44
view 44
year 44
zar 44
à 44
ž@@ 44
ׁ@@ 44
ק@@ 44
إن@@ 44
اخرا@@ 44
ارة 44
اعتد@@ 44
الأنص@@ 44
التون@@ 44
الفت@@ 44
الفور 44
الوث@@ 44
خي 44
ذار 44
رجان 44
شاه@@ 44
شهر 44
ضع@@ 44
عہدی@@ 44
فك 44
فيل@@ 44
كوز@@ 44
هد 44
واض@@ 44
يري@@ 44
پانچ@@ 44
ੇ 44
ﮉ@@ 44
ﹰ 44
ﺰ 44
ﻇ@@ 44
ﻉ 44
� 44
1290 43
1530 43
1722 43
671 43
676 43
789 43
834 43
954 43
957 43
964 43
976 43
AU 43
Agu@@ 43
CG 43
Cant@@ 43
Ga@@ 43
Gav@@ 43
Germany 43
Gironde 43
I.@@ 43
II@@ 43
Just 43
Kuch@@ 43
Log@@ 43
Man 43
Men@@ 43
Of 43
PI@@ 43
Paris 43
Pir@@ 43
Rivière 43
Tah@@ 43
Theory 43
Turkish 43
VIII 43
ave@@ 43
between 43
ches 43
des@@ 43
ec 43
elles 43
ement 43
ert 43
fer@@ 43
gues 43
her 43
mes@@ 43
mi 43
mis@@ 43
sey 43
una 43
ust 43
± 43
él@@ 43
اشتر@@ 43
الباب 43
الحرب 43
الداخل 43
العام@@ 43
القصص 43
انع 43
بالر@@ 43
تداء 43
ثي 43
رشاد 43
علان 43
عيد 43
غي 43
فاد@@ 43
لمن 43
مخطط 43
مما 43
مینان 43
هار@@ 43
وء 43
وبل@@ 43
َّى 43
ٸ 43
کاغذ@@ 43
کورہ 43
है 43
ੁ@@ 43
県 43
ﮓ 43
1541 42
1697 42
1753 42
1756 42
20000 42
2400 42
70.@@ 42
759 42
851 42
893 42
907 42
922 42
963 42
Abu 42
Akh@@ 42
All@@ 42
BR 42
Bro@@ 42
C. 42
Caucas@@ 42
Christophe 42
Computer 42
Cruz 42
Cup 42
DE 42
Greece 42
H. 42
Highway 42
I. 42
Joseph 42
Karachi 42
Kat@@ 42
Lou@@ 42
Middle 42
Oblast 42
SH@@ 42
Screen 42
Sin@@ 42
Southern 42
Standard 42
TE@@ 42
Teh@@ 42
Victoria 42
Wal@@ 42
Wood 42
after 42
age@@ 42
aine 42
avan 42
development 42
ely 42
ff 42
ies 42
kh 42
king 42
lands 42
log@@ 42
m.@@ 42
mass 42
mud@@ 42
na@@ 42
news 42
organization 42
ote 42
owice 42
small 42
special 42
subs@@ 42
ug@@ 42
uil 42
ó 42
ר 42
آدامز 42
أم@@ 42
السلطان 42
المثال 42
الند@@ 42
انى 42
تعز 42
تفصی@@ 42
تقلی@@ 42
جسر 42
جيني@@ 42
حة 42
حيث@@ 42
ختلف 42
خيال 42
ريك 42
ساعد 42
سبور@@ 42
ستن 42
سلات 42
سنچ@@ 42
شين 42
عبر 42
عیسی@@ 42
فيق 42
قبض@@ 42
كولوم@@ 42
لوح@@ 42
ليبيا 42
ماغ@@ 42
مذی 42
مريم 42
مشابہ@@ 42
نائي 42
واحد@@ 42
وتف@@ 42
وليد 42
ہدایت@@ 42
ਗ@@ 42
් 42
 42
-1 41
1257 41
1409 41
15000 41
1666 41
1729 41
1768 41
300,000 41
41,@@ 41
772 41
867 41
946 41
Blue 41
Cyr 41
Din 41
Div@@ 41
Fal@@ 41
K2 41
Lal@@ 41
Land 41
Liv@@ 41
Marne 41
Mirza 41
Mont 41
Nam@@ 41
No 41
Pap@@ 41
Pur@@ 41
Pyrénées 41
Robert 41
SP@@ 41
Som@@ 41
Tam@@ 41
aw 41
ban@@ 41
bat@@ 41
death 41
direct 41
e.@@ 41
ff@@ 41
fo@@ 41
font 41
him 41
ick 41
ides 41
iri 41
isi@@ 41
ize 41
ju 41
kr@@ 41
mat@@ 41
micro@@ 41
neur@@ 41
org@@ 41
organ@@ 41
see 41
sil 41
tel 41
uan 41
æ@@ 41
ô@@ 41
ț 41
ؐ@@ 41
إلا 41
اضر 41
الداخ@@ 41
العد@@ 41
الكبير 41
المار@@ 41
انض@@ 41
تقي 41
جنوب@@ 41
حفاظ@@ 41
خصوصی@@ 41
روسي 41
ريني 41
ریلوی 41
ساي@@ 41
غنی@@ 41
فقال 41
قام 41
قلال 41
كك 41
ماع 41
مخرج 41
مكت@@ 41
نژ@@ 41
واني 41
وسيا 41
ڈیجی@@ 41
یووا 41
ਰ 41
ு@@ 41
ﻼ 41
006 40
12.5 40
1323 40
1411 40
1521 40
1525 40
1535 40
1595 40
1658 40
1672 40
1710 40
1714 40
592 40
621 40
696 40
877 40
967 40
ACA 40
AN 40
CD@@ 40
Category 40
Cher 40
Desert 40
Dá@@ 40
EB 40
ET 40
High 40
J. 40
Jah@@ 40
KO@@ 40
Las@@ 40
Mari@@ 40
NE@@ 40
No. 40
Nu@@ 40
On 40
PLC 40
Plan@@ 40
Rab@@ 40
Rock 40
S. 40
Sat@@ 40
Sho@@ 40
Sim@@ 40
Vo@@ 40
aga 40
akh 40
align 40
ans@@ 40
bur@@ 40
cultural 40
del@@ 40
device 40
etic 40
fe@@ 40
ft 40
ich 40
iss@@ 40
let 40
low 40
mir@@ 40
now 40
red 40
sh 40
sky 40
ties 40
tin 40
ty@@ 40
èze 40
ؕ 40
آي@@ 40
اختيار 40
اعي 40
الخبر 40
السر@@ 40
بخ 40
بلت@@ 40
تعرض 40
تيم@@ 40
جمہو@@ 40
حاء 40
حکمر@@ 40
خاط@@ 40
رفي@@ 40
ريف 40
سرح@@ 40
طف 40
فاب@@ 40
فرز 40
فرنان@@ 40
قلق 40
لوك@@ 40
ماريا 40
مزيد 40
مسار 40
معين 40
ناط@@ 40
نتوں 40
ورش 40
وقتل 40
وقع 40
يق 40
ٹاون@@ 40
پبلکن 40
ம@@ 40
ர@@ 40
⇽ 40
ﭜ@@ 40
1258 39
1562 39
1642 39
1708 39
1713 39
1744 39
1749 39
1764 39
2030 39
835 39
979 39
AA 39
Aj@@ 39
Ari@@ 39
Au@@ 39
Aur@@ 39
Award 39
BL 39
Cham 39
Champ@@ 39
Dakota 39
Dav@@ 39
Del@@ 39
Free 39
GC 39
German 39
Jan 39
Lincoln 39
Mc@@ 39
Nan@@ 39
Neuv@@ 39
Nur@@ 39
Old 39
Pat@@ 39
Pen@@ 39
Public 39
Ros@@ 39
SS 39
Sul@@ 39
Tre@@ 39
Vol@@ 39
Zi@@ 39
ail 39
amu 39
atory 39
bert 39
center 39
chen@@ 39
ell 39
ere 39
illon 39
index@@ 39
institution 39
int@@ 39
ks 39
lig@@ 39
mac@@ 39
min@@ 39
otic 39
oy@@ 39
pap@@ 39
penetr@@ 39
rights 39
san 39
sch@@ 39
sub 39
tar@@ 39
ther@@ 39
there 39
tig@@ 39
ung 39
uni 39
when 39
za@@ 39
ç@@ 39
ג@@ 39
ז@@ 39
ל 39
الاعتق@@ 39
الحج@@ 39
الحمراء 39
القائم 39
انخ@@ 39
اونت 39
بھار 39
تبدی@@ 39
تزل 39
تيل 39
رجل 39
رّ@@ 39
زوج 39
سهل 39
عري@@ 39
عقدہ 39
فاظ 39
فرانسوا 39
فیص@@ 39
قوش 39
لع 39
موط@@ 39
وبات 39
وة 39
وتح@@ 39
وتش@@ 39
ودي@@ 39
يخ@@ 39
ٰذا 39
܂ 39
த@@ 39
1522 38
1542 38
1627 38
1656 38
1684 38
1695 38
1703 38
2,500 38
8.0 38
809 38
948 38
Amir 38
Anti@@ 38
Châ@@ 38
Cour@@ 38
Cur@@ 38
Des@@ 38
Education 38
FA 38
FL 38
Gi@@ 38
Gl@@ 38
Gul@@ 38
H.@@ 38
Jav@@ 38
Lach@@ 38
Lav@@ 38
Mans@@ 38
Municipal 38
Neu@@ 38
Nicolas 38
Norway 38
Sah@@ 38
Sain@@ 38
Social 38
XV 38
Zey@@ 38
aba 38
akan 38
asa 38
asi@@ 38
asti@@ 38
bas@@ 38
bury 38
cl@@ 38
code 38
col@@ 38
college 38
control 38
eli@@ 38
ery 38
esis 38
force 38
gas 38
ignan 38
illa 38
ists 38
light 38
mail@@ 38
nay 38
ness 38
ode 38
ois 38
played 38
pos@@ 38
sin 38
sk@@ 38
stan 38
the@@ 38
tical 38
ua 38
ush 38
yp@@ 38
èvre 38
Š@@ 38
ա@@ 38
اترا@@ 38
اقتصاد 38
اكر 38
التعداد 38
انسون 38
باشا 38
بحري 38
بشير 38
بیچل@@ 38
تلاف 38
تمان 38
تہذی@@ 38
حاف@@ 38
دافع 38
ربي 38
طرق 38
طغ@@ 38
كلي 38
موح 38
نًا 38
وافق 38
وفق 38
ومد@@ 38
ياب@@ 38
يتي 38
يث@@ 38
پروٹو@@ 38
ਂ 38
☆ 38
1296 37
1380 37
1568 37
1574 37
1576 37
1604 37
1723 37
1797 37
250,000 37
2600 37
400,000 37
989 37
Abbas@@ 37
Black 37
Book 37
CO 37
Canada 37
Château 37
Commission 37
Côte 37
David 37
Finland 37
Fl@@ 37
Fr@@ 37
Franklin 37
G. 37
Hur@@ 37
ISO 37
Isère 37
Kav@@ 37
Kel@@ 37
L. 37
Law 37
MP@@ 37
PC@@ 37
Peace 37
Pos@@ 37
Romain 37
Rus@@ 37
Sang@@ 37
Society 37
Ste@@ 37
Strait 37
Super@@ 37
TO@@ 37
V. 37
W. 37
West@@ 37
Wyoming 37
alia 37
aman 37
ani@@ 37
areas 37
ato 37
aug@@ 37
ayas 37
cu@@ 37
dish 37
ea 37
eli 37
fan 37
gl@@ 37
hy@@ 37
las 37
lin 37
min 37
mus@@ 37
nucle@@ 37
ny@@ 37
pel@@ 37
qui@@ 37
right 37
ro 37
ruled 37
sz@@ 37
tic@@ 37
uf 37
ves 37
vol@@ 37
zor@@ 37
ław@@ 37
ɛ@@ 37
أخ@@ 37
افا 37
الاج@@ 37
البع@@ 37
الجمع@@ 37
الرق@@ 37
الصالح 37
الطب 37
امرت@@ 37
انفص@@ 37
اوف 37
ايات 37
بما 37
بيروت 37
تعظ@@ 37
تماث@@ 37
توح 37
جة 37
جماعة 37
جير@@ 37
حتى 37
درك 37
دواء 37
ريات 37
زى 37
ستس 37
سوء 37
ضرو@@ 37
عيسى 37
غير@@ 37
فورد 37
فوس 37
قة 37
قرأ 37
قوب 37
لائنا 37
معان@@ 37
ملح@@ 37
موسيقي 37
ميد@@ 37
نبات 37
نة 37
وقامت 37
وكي@@ 37
ينت@@ 37
ੋ@@ 37
ா@@ 37
ﭺ 37
ﻻ 37
1236 36
1340 36
1528 36
1572 36
1701 36
1715 36
1716 36
1730 36
1736 36
1754 36
1787 36
1920@@ 36
75.@@ 36
829 36
981 36
AG@@ 36
AP 36
African 36
Alpes 36
Charles 36
Cir@@ 36
Corporation 36
Din@@ 36
ER 36
Hab@@ 36
Hed@@ 36
Indonesia 36
Internet 36
Iran 36
Ki@@ 36
May@@ 36
Moldova 36
Mul@@ 36
Neg@@ 36
PL@@ 36
Pak@@ 36
SC 36
Science 36
Soci@@ 36
Sum@@ 36
TH@@ 36
Trade 36
Virginia 36
Wayne 36
aan 36
acc@@ 36
ains 36
alm@@ 36
atr@@ 36
bei 36
bit 36
cas@@ 36
dan@@ 36
eed 36
effect 36
ein 36
engine 36
ents 36
house 36
iki 36
ima 36
lab@@ 36
lar@@ 36
ling 36
lymph@@ 36
mathematics 36
may 36
mutation 36
ner 36
pas 36
tal 36
ten 36
tim@@ 36
tumor 36
ven@@ 36
vor@@ 36
wh@@ 36
أم 36
اريا 36
الحجر 36
الرحيم 36
الغرب 36
النصر 36
امز 36
تنام 36
جاذ@@ 36
حث 36
رقاء 36
شارل 36
شیخو@@ 36
طائر 36
عور@@ 36
فيل 36
قه 36
كاز@@ 36
كاست@@ 36
كز 36
كيمياء 36
لفات 36
مشتق@@ 36
مصنو@@ 36
ممت@@ 36
مناق@@ 36
مکش 36
میوز@@ 36
نسي@@ 36
وقر@@ 36
ومار@@ 36
ومج@@ 36
يحيى 36
ڄ@@ 36
ۤ 36
শ@@ 36
ﻢ@@ 36
10.5 35
1390 35
1405 35
1545 35
1593 35
1616 35
1645 35
1702 35
1743 35
1748 35
1752 35
1766 35
1786 35
35,000 35
881 35
ACC 35
Allah 35
And 35
Ann@@ 35
Army 35
Assam 35
Authority 35
Battle 35
Belgium 35
Bis@@ 35
Bot@@ 35
CS@@ 35
Earth 35
Ed@@ 35
Haz@@ 35
IN 35
Kab@@ 35
Kashmir 35
Lah@@ 35
Mach@@ 35
Mali 35
Money 35
Nak@@ 35
Nic@@ 35
Non 35
Os@@ 35
P. 35
PK 35
Peter 35
Puy 35
Regi@@ 35
Richard 35
Rémy 35
Station 35
USA 35
VI@@ 35
Vas@@ 35
WA 35
ally 35
amm@@ 35
ask@@ 35
ava 35
con 35
cricket 35
czy@@ 35
das 35
eal 35
ect 35
educational 35
eo 35
esia 35
even 35
fourth 35
hal 35
hu 35
kam@@ 35
mic 35
nam@@ 35
ombe 35
page 35
pak@@ 35
path@@ 35
plat@@ 35
political 35
pp@@ 35
rel 35
rule 35
sal@@ 35
sar 35
self 35
standard 35
stone 35
tab@@ 35
technology 35
these 35
three 35
tron 35
try 35
tu 35
tw@@ 35
ão 35
ë 35
í@@ 35
û@@ 35
ابد@@ 35
ارع 35
استق@@ 35
الجل@@ 35
الدم 35
العمال 35
العمر 35
القلب 35
النق@@ 35
بروكلين 35
بلاك 35
جبال 35
جمل@@ 35
حاً 35
دث@@ 35
ريح 35
سبا@@ 35
سه 35
شکل@@ 35
فقار 35
محفو@@ 35
مرك@@ 35
واقب 35
والن@@ 35
ورث 35
وروب@@ 35
ونسن 35
وهو 35
يغ@@ 35
ښ@@ 35
کاتھ@@ 35
ڪ 35
হ@@ 35
ମ@@ 35
ର@@ 35
ང 35
ﻕ 35
ﻦ@@ 35
0.0@@ 34
1030 34
1150 34
1336 34
1360 34
1389 34
1420 34
1516 34
1611 34
1629 34
1694 34
1712 34
1751 34
1755 34
2200 34
791 34
80,000 34
Anj@@ 34
Bagh@@ 34
Bres@@ 34
Butler 34
CP 34
Cel@@ 34
Chak@@ 34
Cyprus 34
Dev@@ 34
Gaz@@ 34
Global 34
Gran@@ 34
He 34
IB@@ 34
Maine 34
Met@@ 34
Montana 34
NSW 34
Nov@@ 34
PE@@ 34
PKK 34
PT@@ 34
Pri@@ 34
S.@@ 34
Sag@@ 34
Sir@@ 34
Sun@@ 34
Territory 34
They 34
Thomas 34
Tir@@ 34
UK 34
XIII 34
achi 34
ales 34
alp@@ 34
amo@@ 34
amp@@ 34
anc@@ 34
ants 34
around 34
asse 34
ax 34
based 34
cal@@ 34
ech@@ 34
els 34
fication 34
head 34
ick@@ 34
if 34
ight 34
ingham 34
inh 34
jar 34
jer@@ 34
long 34
mag@@ 34
mail 34
mine 34
mor@@ 34
nia 34
onia 34
ord@@ 34
our@@ 34
res 34
scope 34
sea 34
ser 34
star 34
teachers 34
té 34
van@@ 34
vet@@ 34
wave 34
ws 34
zan 34
Év@@ 34
ī 34
ō 34
آيت 34
أب@@ 34
إذا 34
اختبارات 34
الاخت@@ 34
البن@@ 34
القرا@@ 34
الكر@@ 34
النجم 34
الين 34
بالله 34
بها 34
تمتع 34
ثوم 34
جح 34
جوؤں 34
حیت 34
درت 34
روبر@@ 34
ریلو 34
زلي 34
سيس 34
سیاح@@ 34
شغ@@ 34
طات 34
عدي 34
غون@@ 34
فرع 34
قس 34
كري 34
كنز 34
لكي 34
للو@@ 34
مبارك 34
معاد@@ 34
مقار@@ 34
مواز@@ 34
هد@@ 34
ومر@@ 34
وینز@@ 34
يح 34
يوني 34
ٓ 34
ٹینمنٹ 34
ړ@@ 34
گریجوی@@ 34
ݨ@@ 34
জ@@ 34
ਬ@@ 34
ப@@ 34
1010 33
1147 33
1287 33
1433 33
1512 33
1555 33
1566 33
1589 33
1590 33
1612 33
1621 33
1628 33
1632 33
1640 33
1663 33
1711 33
1741 33
1779 33
2nd 33
Afghanistan 33
Ahmed 33
CT@@ 33
Catedral 33
Cher@@ 33
Community 33
Croatia 33
DL@@ 33
Dam 33
Ecuador 33
FO@@ 33
Grande 33
Had@@ 33
IT 33
Kom@@ 33
Madagascar 33
Mary 33
Miy@@ 33
Mug@@ 33
Museum 33
N. 33
PN@@ 33
Pul@@ 33
Raz@@ 33
Red@@ 33
Rock@@ 33
Rom@@ 33
Rud@@ 33
Sand@@ 33
Sid@@ 33
Tan@@ 33
Tul@@ 33
UC@@ 33
Val 33
Wil@@ 33
Yu@@ 33
Zav@@ 33
Zh@@ 33
aches 33
aka 33
ake 33
alb@@ 33
amarca 33
anne 33
any@@ 33
aria 33
art 33
aud@@ 33
audi@@ 33
back 33
blog@@ 33
c.@@ 33
cha 33
cz@@ 33
da@@ 33
din 33
economic 33
ei 33
ential 33
ger@@ 33
gi 33
ial 33
ington 33
iz 33
ja@@ 33
ków 33
mas@@ 33
metropolitan 33
och 33
ocy@@ 33
oid 33
ols 33
pil@@ 33
rom@@ 33
sin@@ 33
son@@ 33
story 33
til@@ 33
towns 33
ulation 33
uli 33
unit 33
val 33
women 33
yo 33
ér@@ 33
ń@@ 33
ская 33
اختص@@ 33
الأح@@ 33
الحس@@ 33
الحم@@ 33
السن 33
الصف@@ 33
الطالب 33
العاش@@ 33
الغطاء 33
الفي@@ 33
اللّ@@ 33
المساجد 33
النو@@ 33
الوق@@ 33
اليم 33
جزائ@@ 33
حقوق@@ 33
دج 33
روبن@@ 33
سمبر 33
سينا 33
صحاف@@ 33
طاب@@ 33
عمد 33
عمود 33
غريب 33
فز 33
قاج@@ 33
كارل 33
كوس 33
كيات 33
لقد 33
لله 33
مؤس@@ 33
مرور 33
نطق 33
نيت 33
نيوز 33
واف 33
يخ 33
ڳ@@ 33
প@@ 33
ੂ@@ 33
ﺚ 33
-2 32
1.5@@ 32
1206 32
1260 32
1270 32
1351 32
1398 32
1414 32
1529 32
1534 32
1547 32
1569 32
1601 32
1653 32
1745 32
1767 32
1781 32
51,@@ 32
80.@@ 32
Anti 32
Appal@@ 32
Area 32
Australia 32
B1 32
BA 32
Biał@@ 32
Bosnia 32
Che@@ 32
DO@@ 32
Dan@@ 32
Edward 32
Hamilton 32
Hindu 32
Hus@@ 32
ION 32
Library 32
Oc@@ 32
Philosophy 32
Point 32
SE 32
SF@@ 32
SI@@ 32
See 32
Sok@@ 32
Sri 32
To 32
Tran@@ 32
Villeneuve 32
Vir@@ 32
Za@@ 32
aceae 32
ami@@ 32
aur@@ 32
civilians 32
common 32
cos@@ 32
cur@@ 32
din@@ 32
disease 32
eb 32
eland 32
emia 32
equ@@ 32
es.@@ 32
eu 32
hk 32
ii 32
inum 32
ière 32
jan@@ 32
jure 32
kin 32
mes 32
oblast 32
original 32
oscop@@ 32
ost@@ 32
populated 32
por@@ 32
post 32
profile 32
regional 32
sexual 32
uz 32
wala 32
yc@@ 32
yed@@ 32
án@@ 32
ór@@ 32
اداری 32
ادمی 32
اطع 32
التي 32
السما@@ 32
العام 32
الفل@@ 32
القضاء 32
الورا@@ 32
باك 32
بيري@@ 32
تفاق 32
توي@@ 32
حدائق 32
حصل 32
خوز@@ 32
داي@@ 32
روك@@ 32
زمن 32
صديق 32
فرسان 32
كالي@@ 32
كبير 32
كرم 32
مصمم 32
وراق 32
وعل@@ 32
وفي@@ 32
ويم 32
کھیں 32
ۀ 32
یوال 32
গ@@ 32
ੱ@@ 32
☃ 32
ﮅ@@ 32
🐢 32
.net 31
1001 31
1316 31
1341 31
1404 31
1407 31
1450 31
1498 31
1502 31
1527 31
1578 31
1594 31
1599 31
1624 31
1635 31
1639 31
1670 31
1704 31
1706 31
1717 31
2050 31
4500 31
AE@@ 31
AR 31
Aegean 31
Delhi 31
Est@@ 31
Europe 31
Fe@@ 31
Gan@@ 31
Gre@@ 31
Hak@@ 31
K. 31
Kaz@@ 31
Kin@@ 31
Kit@@ 31
Lak@@ 31
Lat@@ 31
MS@@ 31
May 31
Name 31
Ostr@@ 31
PC 31
Peri@@ 31
Phot@@ 31
Sang 31
Tarn 31
That 31
Tib@@ 31
U.@@ 31
ands 31
att@@ 31
ayi 31
ays 31
bin 31
brothers 31
cancer 31
ector 31
ern@@ 31
eu@@ 31
ful 31
genes 31
graphy 31
igu@@ 31
inal 31
international 31
modern 31
ms 31
negative 31
osa 31
oth 31
period 31
press 31
reaction 31
side 31
social 31
support 31
third 31
tica 31
tissue 31
tribune 31
tric 31
tv 31
ual 31
uy 31
vaj@@ 31
war@@ 31
yi 31
Республика 31
р@@ 31
اجم 31
استقرار 31
التق@@ 31
الحار@@ 31
الخص@@ 31
الرشيد 31
الصرف 31
المبار@@ 31
الموضوعات 31
النّ@@ 31
الوطن 31
انتخ@@ 31
بسط 31
بہاؤ@@ 31
تت 31
حاد 31
حزب@@ 31
حكم 31
دادي 31
داف@@ 31
صلاح@@ 31
طي 31
عسكري 31
قطاع 31
قيام 31
قيل 31
كات 31
للا@@ 31
مبيا 31
مراكش 31
مُن@@ 31
وبرو@@ 31
وحيد 31
وعات 31
ولين 31
يج 31
ٻ@@ 31
ڈیلا@@ 31
ফ@@ 31
ਜ@@ 31
ੇ@@ 31
ರ@@ 31
ﻆ 31
0.00 30
1291 30
1370 30
1499 30
1561 30
1564 30
1585 30
1630 30
1644 30
1680 30
1688 30
2700 30
3,500 30
AL 30
Academy 30
Age 30
Austria 30
Bains 30
Bau@@ 30
Bes@@ 30
CP@@ 30
Chap@@ 30
Civ@@ 30
Cop@@ 30
Dal@@ 30
Dem@@ 30
Didier 30
EL@@ 30
Economic 30
Four 30
Francisco 30
Gers 30
Gir@@ 30
Golden 30
HV@@ 30
Hay@@ 30
Indies 30
Ka@@ 30
King@@ 30
Lau@@ 30
Macedonia 30
Mash@@ 30
Middlesex 30
Mog@@ 30
Mot@@ 30
NET 30
Olympi@@ 30
PG 30
Pacific 30
Paraguay 30
Pin@@ 30
Quentin 30
RS 30
Rio 30
Service 30
Syria 30
TS 30
Tag@@ 30
Test 30
Thailand 30
Tour 30
Tro@@ 30
Up@@ 30
Vill@@ 30
Wood@@ 30
agn@@ 30
agne@@ 30
agon 30
ail@@ 30
alization 30
ams 30
ark@@ 30
atomic 30
band 30
being 30
cap@@ 30
charge 30
chia 30
df 30
dir 30
ected 30
eem 30
een 30
fr@@ 30
home 30
hor@@ 30
ill 30
ived 30
km 30
kow@@ 30
las@@ 30
like 30
may@@ 30
nan 30
nik 30
ning 30
ond@@ 30
part 30
press@@ 30
published 30
references 30
ret 30
such 30
sy@@ 30
test 30
tion@@ 30
tional 30
tor 30
tr 30
vers 30
wa@@ 30
zew 30
è@@ 30
ê@@ 30
ابون 30
احتم@@ 30
ارٹی 30
استبد@@ 30
اعد 30
اعداد@@ 30
اكس 30
السبع 30
الغر@@ 30
القول 30
الكتاب 30
اللا@@ 30
المؤمن@@ 30
النار 30
بلدية 30
تمہ@@ 30
توافق 30
جاك@@ 30
جزء@@ 30
حدي@@ 30
ختوں 30
خصوص 30
ذي@@ 30
ذير 30
رأ@@ 30
رائد 30
رشيد 30
ریٹجک 30
سواء 30
سياسي 30
شيك@@ 30
ضع 30
ضمام 30
طار@@ 30
فمن 30
فيه 30
ماث@@ 30
ماش 30
مشروع 30
مقر 30
منتخ@@ 30
ميل@@ 30
نزي 30
نود 30
وشمار 30
وغير@@ 30
يض@@ 30
ُّ 30
ۤ@@ 30
ம 30
് 30
ﮠ 30
ﮧ@@ 30
ﺢ 30
1160 29
1281 29
1285 29
1299 29
1301 29
1357 29
1392 29
1431 29
1494 29
1511 29
1533 29
1538 29
1539 29
1552 29
1563 29
1586 29
1588 29
1592 29
1596 29
1607 29
1678 29
1727 29
1731 29
1734 29
Akbar 29
Archi@@ 29
B3 29
Band 29
Bir@@ 29
Caribbean 29
Cham@@ 29
Club 29
DP 29
Day@@ 29
Dol@@ 29
EN@@ 29
Eure 29
Ey@@ 29
Gang@@ 29
Gel@@ 29
Gro@@ 29
Hill@@ 29
Hom@@ 29
Hydro@@ 29
IJ@@ 29
IL 29
Ind@@ 29
Industrial 29
January 29
Kang@@ 29
Khor@@ 29
Kos@@ 29
Landes 29
Lord 29
Los 29
Ly@@ 29
Macau 29
March 29
Med@@ 29
Mehr@@ 29
Mem@@ 29
Military 29
Mobile 29
Mong@@ 29
Nav@@ 29
OF 29
Or 29
Prince 29
Puerto 29
RA 29
Ras@@ 29
Right 29
Ry@@ 29
ST 29
Sahi@@ 29
Savoie 29
Second 29
Technology 29
There 29
Ty@@ 29
Uni@@ 29
W.@@ 29
Yam@@ 29
abl@@ 29
aci@@ 29
active 29
archaeological 29
ats 29
aus@@ 29
avi 29
bank 29
ble 29
cer@@ 29
cs 29
den@@ 29
dia 29
dol@@ 29
enti@@ 29
enz@@ 29
etary 29
fa@@ 29
family 29
former 29
fre@@ 29
here 29
ht@@ 29
ider@@ 29
ignac 29
ili 29
ind 29
institutions 29
ities 29
kar 29
ky 29
ler 29
mani 29
nation 29
off 29
ometer 29
ont 29
operation 29
pre@@ 29
qu 29
reg@@ 29
sen 29
tis 29
ult 29
vo 29
vo@@ 29
won 29
yl 29
ín 29
ú@@ 29
ס@@ 29
الة 29
الرياض 29
المؤمنين 29
امة 29
بيلي 29
تبر 29
تسي@@ 29
تعريف 29
تق 29
خلاص 29
سيون 29
شراف 29
شمول@@ 29
شيو@@ 29
صات 29
صغير 29
ضت 29
علن 29
فاد 29
فلسط@@ 29
فه 29
فیسر 29
كيت 29
لتر 29
ماج 29
مداخ@@ 29
مذاک@@ 29
معالم 29
موع 29
نابی@@ 29
نيف 29
ورى 29
ولیات 29
ومز@@ 29
ڈوکس 29
ە@@ 29
ह@@ 29
ன 29
ར@@ 29
： 29
0s 28
1050 28
1238 28
1314 28
1335 28
1342 28
1346 28
1371 28
1397 28
1399 28
1402 28
1410 28
1415 28
1475 28
1510 28
1548 28
1553 28
1582 28
1609 28
1719 28
1725 28
1732 28
1738 28
1771 28
350@@ 28
70,000 28
AB 28
AH 28
Ach@@ 28
Allier 28
Amir@@ 28
Argentina 28
Astronom@@ 28
August 28
Band@@ 28
Bin@@ 28
CE 28
Campagne 28
Chang@@ 28
Columbia 28
Cze@@ 28
DI 28
Davis 28
Dong@@ 28
Dé@@ 28
ES 28
Express 28
Field 28
Forest 28
GNU 28
HTML 28
Haut 28
Hautes 28
Hen@@ 28
Hol@@ 28
ID 28
Information 28
Islam@@ 28
Keynes 28
Kul@@ 28
Lee 28
Loir 28
MC 28
Maria 28
Mask@@ 28
Oregon 28
Pay@@ 28
Pom@@ 28
President 28
Rost@@ 28
Sep@@ 28
Space 28
Tav@@ 28
Tom@@ 28
Tour@@ 28
Venezuela 28
Wah@@ 28
Yan@@ 28
action 28
aqu@@ 28
aun@@ 28
avi@@ 28
ayan 28
before 28
blo@@ 28
cat@@ 28
cell@@ 28
char@@ 28
cher 28
color 28
computing 28
dom 28
dy 28
dz@@ 28
ef 28
eign 28
ema 28
eter 28
free 28
freguesia 28
genetic 28
hin@@ 28
inc@@ 28
indi@@ 28
ip@@ 28
iran 28
jin 28
just 28
ks@@ 28
ld@@ 28
many 28
mil@@ 28
mill@@ 28
mit@@ 28
movement 28
ner@@ 28
nom@@ 28
o.@@ 28
olog@@ 28
pal@@ 28
particle 28
ports 28
position 28
positive 28
process 28
sel@@ 28
tab 28
tag@@ 28
urs 28
used 28
vais 28
var@@ 28
your 28
² 28
â 28
ï@@ 28
ö 28
ă@@ 28
о 28
צ@@ 28
أر@@ 28
احاط@@ 28
اختصاص@@ 28
افظ 28
الترج@@ 28
التع@@ 28
الدي@@ 28
السماء 28
العراق 28
المسجد 28
المفر@@ 28
الموض@@ 28
المي@@ 28
النسب 28
النف@@ 28
انج 28
بعين 28
بلاغ 28
بوك 28
تتبع 28
تحقيق 28
تياز 28
حادث 28
حيم 28
دوري 28
ديوان 28
رأس 28
رينا 28
سبي@@ 28
سیکنڈ@@ 28
طینی 28
غص@@ 28
فارمیشن 28
فكر 28
فنس 28
فيس 28
قى 28
كاف@@ 28
كينٹ@@ 28
كيوب@@ 28
ليف@@ 28
مأ@@ 28
مصطفى 28
موریل 28
ميلي@@ 28
نتي@@ 28
وإن 28
وامر 28
واي@@ 28
وعبد 28
وعن 28
ومست@@ 28
ونظ@@ 28
څ@@ 28
کلوپیڈیا 28
۽ 28
۾ 28
ਨ 28
ਲ 28
క@@ 28
ོ@@ 28
ﭤ@@ 28
ﮂ@@ 28
----@@ 27
1020 27
11,000 27
1215 27
1234 27
1280 27
1313 27
1319 27
1324 27
1328 27
1330 27
1347 27
1348 27
1365 27
1394 27
1480 27
150,000 27
1537 27
1602 27
1608 27
1613 27
1623 27
1631 27
1649 27
1675 27
1724 27
1742 27
AK 27
Arab@@ 27
Bahr@@ 27
Bar 27
Bash@@ 27
Big 27
Bourg 27
Bus@@ 27
Carbon 27
Chiba 27
Clark 27
Commonwealth 27
Cumberland 27
Dh@@ 27
Dr. 27
Fa@@ 27
Fais@@ 27
Fi@@ 27
Hem@@ 27
Heritage 27
IO@@ 27
IR 27
Jac@@ 27
Kir@@ 27
Kot@@ 27
LG 27
Lane 27
ML 27
Marcel 27
Mis@@ 27
Modern 27
Mountain 27
PR@@ 27
Pad@@ 27
RT 27
Railway 27
Rev@@ 27
Rights 27
Salvador 27
Smith 27
Sus@@ 27
São 27
Ther@@ 27
Three 27
Ud@@ 27
Ville@@ 27
WW@@ 27
Wa@@ 27
Wi@@ 27
XII 27
Xin@@ 27
Yang@@ 27
Yar@@ 27
aks 27
andi@@ 27
angi 27
arc@@ 27
arian 27
ator@@ 27
ave 27
bu 27
census 27
chain 27
currency 27
dium 27
esti@@ 27
ev 27
fruits 27
gir 27
hey@@ 27
hua 27
illac 27
interface 27
ison 27
ix@@ 27
ker 27
kings 27
lb 27
les@@ 27
lier 27
lists 27
make 27
medicine 27
men@@ 27
ments 27
minute 27
natural 27
network 27
num 27
odi@@ 27
oll 27
oll@@ 27
oning 27
org 27
ori@@ 27
ost 27
ovi@@ 27
owi@@ 27
philosophy 27
pot@@ 27
pur@@ 27
ram@@ 27
riz 27
ron 27
sciences 27
since 27
tal@@ 27
tide 27
tiv@@ 27
ton@@ 27
tre 27
tur@@ 27
very 27
wan@@ 27
where 27
yang 27
är@@ 27
ş@@ 27
أي 27
اعات 27
التاب@@ 27
الحص@@ 27
الشري@@ 27
العقل 27
العين 27
الكريم 27
المجمو@@ 27
انتش@@ 27
بارد 27
بدار 27
بنفس 27
بيب 27
تاز 27
تخار 27
جامعة 27
جميل 27
جيريا 27
حاب 27
داني 27
ديم 27
دیق 27
ساه@@ 27
صلات 27
ضب 27
طفل@@ 27
عوا 27
فد 27
قق 27
كوا 27
كيميائي 27
لاسي@@ 27
ليت 27
مؤسس 27
ملف 27
ناه 27
يست@@ 27
يكن 27
يور 27
یونائی@@ 27
ۙ 27
দ@@ 27
ল 27
ী 27
ਜ 27
੍ 27
ა@@ 27
1099 26
1115 26
1180 26
1214 26
1265 26
1284 26
1294 26
1298 26
13,000 26
1344 26
1391 26
1413 26
1421 26
1490 26
1513 26
1531 26
1551 26
1597 26
1614 26
1636 26
1647 26
1654 26
1661 26
1664 26
1681 26
1691 26
1782 26
2300 26
600,000 26
AF@@ 26
Aub@@ 26
Barr@@ 26
Boh@@ 26
Brown 26
Business 26
By 26
Bé@@ 26
Ca@@ 26
Chel@@ 26
Clinton 26
Constitu@@ 26
Democratic 26
F. 26
Fam@@ 26
Fin@@ 26
Forêt 26
Freedom 26
Gand@@ 26
Hum@@ 26
Ivory 26
Iz@@ 26
JC 26
Ja@@ 26
Jiang@@ 26
Kash@@ 26
Khali@@ 26
Ky@@ 26
Langu@@ 26
Lawrence 26
Les@@ 26
Lon@@ 26
Lyon 26
Manche 26
Market 26
Maul@@ 26
Mauritania 26
Micro@@ 26
Monroe 26
NT@@ 26
Nepal 26
News 26
Nova 26
ON@@ 26
Our 26
Pa@@ 26
Palace 26
Post 26
Priest 26
Priv@@ 26
Ran@@ 26
Rhône 26
Russian 26
SQL 26
Shan@@ 26
Sig@@ 26
Sk@@ 26
Sow@@ 26
Spanish 26
Sud@@ 26
Swedish 26
T.@@ 26
Tanzania 26
Tel@@ 26
Thi@@ 26
Tum@@ 26
UR 26
Urban 26
Wh@@ 26
Zak@@ 26
agent 26
apelle 26
app@@ 26
arat 26
asi 26
asp@@ 26
banks 26
bian 26
bin@@ 26
blood 26
bo 26
bra@@ 26
chemical 26
council 26
cul@@ 26
dari 26
die 26
dig@@ 26
double 26
ect@@ 26
ej@@ 26
els@@ 26
ems 26
exchange 26
fab@@ 26
gan@@ 26
hol 26
ina@@ 26
index 26
ins@@ 26
interaction 26
ion@@ 26
khi 26
member 26
met@@ 26
mod@@ 26
mond 26
nod 26
nuclear 26
olan 26
onde 26
px 26
rat 26
sen@@ 26
sol@@ 26
sur@@ 26
tak@@ 26
ules 26
uni@@ 26
ward 26
worth 26
yu@@ 26
ár@@ 26
î@@ 26
х@@ 26
الإسلام 26
البار@@ 26
الحرم 26
العش@@ 26
القانون 26
المب@@ 26
الملائ@@ 26
النخ@@ 26
الى 26
اوپن@@ 26
بالي@@ 26
بريل 26
بلاء 26
بيني 26
ترض 26
ترف 26
جاح 26
ديان 26
ديك@@ 26
ریٹڈ 26
سائر 26
سلف@@ 26
شف 26
شفی@@ 26
ضاً 26
ضوء 26
طاء 26
فإن 26
قلي@@ 26
قين 26
كامل 26
كتي@@ 26
كسي 26
للش@@ 26
لّ 26
مفو@@ 26
ناطيسي 26
نزع 26
نفو@@ 26
والخ@@ 26
ڈسٹر@@ 26
ڌ@@ 26
ನ@@ 26
‬ 26
√ 26
 26
ﮒ 26
0.01 25
1174 25
12.7 25
1221 25
1240 25
1244 25
1303 25
1305 25
1308 25
1310 25
1339 25
1349 25
1378 25
1406 25
1422 25
1435 25
1441 25
1518 25
1523 25
1651 25
ABC 25
Arabia 25
Aviation 25
Black@@ 25
Bran@@ 25
Bud@@ 25
Bul@@ 25
Calvados 25
Chin@@ 25
Cog@@ 25
Cu@@ 25
Data 25
Dod@@ 25
Douglas 25
Emir@@ 25
Fair@@ 25
Gau@@ 25
Gem@@ 25
HO@@ 25
Herzegovina 25
IF@@ 25
ING 25
Inner 25
Israel 25
Kak@@ 25
Kand@@ 25
Laur@@ 25
Lig@@ 25
Line 25
Lor@@ 25
Luc@@ 25
Luis 25
MA 25
Martial 25
Nah@@ 25
Ny@@ 25
OR@@ 25
Pasha 25
Persian 25
Prot@@ 25
Qing@@ 25
Radi@@ 25
Ren@@ 25
SS@@ 25
Sarthe 25
Sports 25
Studies 25
T. 25
Tong@@ 25
Twenty 25
Ven@@ 25
Vie@@ 25
We 25
Wor@@ 25
XVIII 25
Yus@@ 25
ades 25
aling 25
anat 25
ancy 25
anka 25
ares 25
aud 25
azan 25
base 25
both 25
building 25
business 25
chrom@@ 25
chron@@ 25
committee 25
cy 25
duc@@ 25
eau 25
elli 25
emp@@ 25
enay 25
esi 25
ett 25
fran@@ 25
ger 25
hep@@ 25
him@@ 25
hur@@ 25
isti@@ 25
köping 25
lieu 25
los 25
mal 25
mel@@ 25
municipalities 25
olithic 25
onian 25
onic 25
ories 25
resort 25
sain 25
spot@@ 25
status 25
subdivision 25
then@@ 25
tom@@ 25
tors 25
tus 25
ule 25
ver 25
vil@@ 25
villages 25
western 25
zer@@ 25
zh@@ 25
zhou 25
å 25
ón 25
ān 25
ź@@ 25
ɔ@@ 25
א 25
آنحضرت@@ 25
أص@@ 25
اعل 25
الاتحاد 25
التج@@ 25
الثالث 25
العرا@@ 25
الفتا@@ 25
الفن 25
القل@@ 25
الوز@@ 25
بالب@@ 25
بث 25
بدون 25
بلح@@ 25
بنك 25
تصاد@@ 25
تعمل 25
تلامذ@@ 25
تيا 25
جيت 25
دية 25
ذیر 25
رسون 25
رير 25
ريون 25
سانت 25
طلع 25
ظفار 25
ظمی 25
ظهر 25
عرفت 25
فاً 25
فما 25
قريب 25
قًا 25
كاني 25
كه@@ 25
كوين@@ 25
لاحات 25
له@@ 25
مختبر 25
مصري 25
ناطی@@ 25
ها@@ 25
هز@@ 25
واخر 25
وتعل@@ 25
وجام@@ 25
يرن 25
ينج 25
ہیڈکو@@ 25
ल@@ 25
ঙ 25
় 25
ా@@ 25
ಿ@@ 25
€ 25
↑ 25
﷫ 25
ﺵ 25
.S. 24
1.0@@ 24
1111 24
1286 24
1288 24
1304 24
1306 24
1326 24
1333 24
1343 24
1375 24
1382 24
1425 24
1430 24
1481 24
1493 24
1509 24
1573 24
1617 24
1619 24
1625 24
1669 24
1674 24
1682 24
Ardèche 24
Art 24
Ben 24
Bid@@ 24
Bru@@ 24
CB 24
CT 24
Chil@@ 24
Committee 24
Cs 24
Cum@@ 24
Cz@@ 24
Dad@@ 24
Dul@@ 24
E.@@ 24
EU 24
Eff@@ 24
Ep@@ 24
FIFA 24
Faz@@ 24
Fe 24
Fou@@ 24
Fres@@ 24
Ful@@ 24
GB 24
Gard 24
Gil@@ 24
Grant 24
Grove 24
Hind@@ 24
Kil@@ 24
Laf@@ 24
Madison 24
Maur@@ 24
Medical 24
Nev@@ 24
New@@ 24
Number 24
OH 24
ON 24
Oise 24
On@@ 24
Out@@ 24
Pel@@ 24
Pey@@ 24
Phys@@ 24
Pomeranian 24
Pres@@ 24
Provence 24
Put@@ 24
Queen 24
RT@@ 24
Rash@@ 24
Revolution 24
SD@@ 24
SR 24
Seoul 24
Sev@@ 24
Shab@@ 24
Shak@@ 24
Square 24
Sun 24
Tab@@ 24
Tunisia 24
Two 24
UP 24
Van 24
Village 24
Ville 24
Virgin 24
Vä@@ 24
Zah@@ 24
a.org 24
aca 24
access 24
ation@@ 24
aur 24
azar 24
bil@@ 24
books 24
chi@@ 24
cular 24
defined 24
dic@@ 24
eira 24
ele 24
emb@@ 24
entr@@ 24
esz@@ 24
face 24
gar 24
general 24
ges 24
heim 24
included 24
ized 24
ky@@ 24
lang 24
lard 24
later 24
lic 24
lis 24
main 24
major 24
mam 24
mand@@ 24
met 24
mph 24
new@@ 24
ogy 24
order 24
oro 24
oug@@ 24
own 24
play 24
qi@@ 24
ques 24
several 24
sko 24
sper@@ 24
sun 24
sw@@ 24
tax 24
tia 24
using 24
usta 24
ux 24
various 24
vir@@ 24
vor 24
wi 24
à@@ 24
ø@@ 24
أي@@ 24
الاي@@ 24
الجمال 24
الطر@@ 24
العربي 24
الفات@@ 24
الفرا@@ 24
النض@@ 24
النوا@@ 24
امتد@@ 24
انستان 24
بالخ@@ 24
باني 24
بيات 24
تغل 24
جوي@@ 24
حجة 24
حصر 24
دراسات 24
درب 24
ذلك 24
زاً 24
زرق 24
طيب 24
طين 24
عداد 24
فيلي@@ 24
قوله 24
كفر 24
كما 24
مؤتمر 24
متاز 24
وإ@@ 24
والدين 24
وفر@@ 24
وله 24
ولوجي 24
ومق@@ 24
ومنگ 24
يوت@@ 24
ٕ 24
گھم 24
टो 24
दूर 24
१ 24
ੀ@@ 24
♦ 24
1014 23
1095 23
1125 23
1156 23
1192 23
1220 23
1225 23
1228 23
1241 23
1268 23
1292 23
1302 23
1321 23
1322 23
1334 23
1337 23
1352 23
1366 23
1385 23
1395 23
1403 23
1424 23
1440 23
1451 23
1543 23
1615 23
1633 23
1646 23
1676 23
1733 23
Abdul 23
Ain 23
Alb@@ 23
Alexander 23
Aw@@ 23
Bad 23
Bang@@ 23
Bec@@ 23
Bell 23
Benton 23
Bon 23
CAD 23
CIA 23
Cam@@ 23
Cathedral 23
Champs 23
Change 23
Circle 23
Complex 23
Da@@ 23
Encyclopedia 23
Equ@@ 23
Essex 23
Ev@@ 23
Exchange 23
Eyalet 23
Falken@@ 23
Fayette 23
Federation 23
File 23
Flor@@ 23
Force 23
Gabriel 23
Guatemala 23
HS 23
Haw@@ 23
Hez@@ 23
Jo@@ 23
LE 23
Lamb@@ 23
Leg@@ 23
Li 23
Little 23
Love 23
Marion 23
Marseille 23
Moselle 23
Motte 23
Muslims 23
Nos@@ 23
O. 23
Organization 23
Peninsula 23
Prov@@ 23
Rez@@ 23
Riz@@ 23
Rob@@ 23
Ré@@ 23
Son@@ 23
Sur 23
TF 23
Tem@@ 23
Texas 23
Tus@@ 23
UM@@ 23
Vienne 23
Warren 23
Was@@ 23
aban 23
ack 23
aic 23
akh@@ 23
alar 23
anus 23
arde 23
astronom@@ 23
bes 23
bomb 23
can@@ 23
chol@@ 23
complex 23
construction 23
dat@@ 23
dé@@ 23
ects 23
elec@@ 23
electr@@ 23
eni 23
enn@@ 23
estimate 23
etes 23
eto 23
fol@@ 23
gay 23
gener@@ 23
geometry 23
hel@@ 23
hood 23
including 23
iron 23
islam@@ 23
kan@@ 23
kon@@ 23
made 23
mechanics 23
municipal 23
museum 23
normal 23
nucleus 23
ogen 23
ogen@@ 23
oi 23
ond 23
oni@@ 23
ont@@ 23
otte 23
ox@@ 23
oy 23
pep@@ 23
product 23
pt 23
quad@@ 23
records 23
regul@@ 23
series 23
shi@@ 23
sil@@ 23
ster 23
sy 23
telec@@ 23
then 23
theorem 23
times 23
usa 23
uses 23
val@@ 23
vel@@ 23
video 23
yan@@ 23
yd@@ 23
you@@ 23
zone 23
ène 23
Ş@@ 23
š 23
и 23
ֲ@@ 23
ابة 23
اجتم@@ 23
اعلات 23
البيضاء 23
الحض@@ 23
الزي@@ 23
الشع@@ 23
الشعر 23
الصد@@ 23
الفنون 23
القرن 23
المتق@@ 23
المسل@@ 23
النبلاء 23
انتخاب@@ 23
بـ@@ 23
تقري@@ 23
تلنگ@@ 23
جدي@@ 23
جرى 23
خدم 23
خطاء 23
راوي 23
ريال 23
ريه 23
زاك@@ 23
زام 23
شارك 23
ضابط 23
طت 23
طلاع 23
عمرات 23
عمق 23
عنا 23
غب 23
فاع 23
فيا 23
كوري 23
كولي@@ 23
ليب 23
ملي@@ 23
ميد 23
ندق 23
نقص@@ 23
هان@@ 23
وجه 23
وجي@@ 23
وسع 23
وكان 23
يمين 23
ّة 23
ٽ 23
گھنٹ@@ 23
म 23
য 23
வ@@ 23
 23
ﻛ@@ 23
1.4@@ 22
1080 22
1120 22
1140 22
1143 22
1155 22
1242 22
1273 22
1279 22
1293 22
1297 22
13.5 22
1327 22
1338 22
1386 22
1434 22
1437 22
1459 22
1501 22
1503 22
1514 22
1536 22
1546 22
1559 22
1567 22
1655 22
1662 22
1667 22
20th 22
2800 22
5500 22
AW@@ 22
Abu@@ 22
Adobe 22
Agency 22
Agr@@ 22
Anne 22
Arthur 22
Baj@@ 22
Blood 22
Bolívar 22
Bretagne 22
Bulgaria 22
CS 22
Cab@@ 22
Castel@@ 22
Celle 22
Century 22
Chu@@ 22
Clair 22
Clément 22
Code 22
Cot@@ 22
Dôme 22
EM 22
Electr@@ 22
FC 22
FF 22
Fix@@ 22
Flu@@ 22
Gate 22
Gilles 22
Gom@@ 22
Gun@@ 22
Hall 22
Hancock 22
Hash@@ 22
Hat@@ 22
Hello 22
Holy 22
Home 22
Isle 22
Jacques 22
June 22
Kad@@ 22
Ken@@ 22
Knox 22
Kum@@ 22
League 22
Ltd 22
ME 22
MOS 22
MR@@ 22
Mal 22
Management 22
Mar 22
Medi@@ 22
Mother 22
Méd@@ 22
NH@@ 22
NT 22
Nucle@@ 22
Path@@ 22
Pis@@ 22
Plat@@ 22
Pou@@ 22
Prof@@ 22
Qi@@ 22
Rel@@ 22
Rou@@ 22
SN@@ 22
Sarg@@ 22
Saudi 22
Sci@@ 22
Sciences 22
Seg@@ 22
Sou@@ 22
Statistical 22
Story 22
TCP 22
TRA@@ 22
Tas@@ 22
Tash@@ 22
UN 22
VA 22
Vit@@ 22
Vosges 22
Vé@@ 22
Wo@@ 22
Wy@@ 22
Yen@@ 22
Zealand 22
` 22
ader 22
ads 22
afa 22
agne 22
alar@@ 22
alu@@ 22
anism 22
anti 22
anz@@ 22
apa 22
ark 22
articles 22
asis 22
aul@@ 22
ayet 22
bility 22
brah@@ 22
bs 22
central 22
coma 22
come 22
cre@@ 22
dale 22
dian 22
different 22
differenti@@ 22
directing 22
disorder 22
districts 22
dos 22
doux 22
ective 22
eer 22
ela 22
electron 22
ello 22
enburg 22
ental 22
eth 22
eus 22
ex 22
gen 22
get 22
gor@@ 22
hist@@ 22
hom@@ 22
hundreds 22
idal 22
ils 22
imperi@@ 22
itic 22
jus@@ 22
kary@@ 22
ker@@ 22
kg 22
kor 22
machine 22
media 22
my@@ 22
nh@@ 22
numbers 22
oe 22
onn@@ 22
oo 22
ort 22
osh 22
osome 22
ough@@ 22
oł@@ 22
park 22
pay@@ 22
person 22
phen@@ 22
pin@@ 22
popular 22
potential 22
prime 22
production 22
publi@@ 22
reh@@ 22
rière 22
sab@@ 22
sam@@ 22
sav@@ 22
saw 22
ses 22
sham 22
ship 22
sites 22
software 22
stop 22
through 22
tigen 22
trans 22
ture 22
ump 22
uss@@ 22
while 22
yar 22
Ö@@ 22
ës 22
ö@@ 22
ü@@ 22
ʃ@@ 22
أثر 22
إ 22
احت@@ 22
اصطنا@@ 22
اعر 22
البو@@ 22
البيان 22
الحدود 22
الحكم 22
الحُ@@ 22
السو@@ 22
العدل 22
العز@@ 22
العم@@ 22
العن@@ 22
القي@@ 22
الكتب 22
المسلمين 22
المند@@ 22
النح@@ 22
الولا@@ 22
امتداد 22
اهر 22
اورنگ@@ 22
تبلغ 22
تمام@@ 22
تمر@@ 22
تمي@@ 22
جمه@@ 22
جوم 22
دث 22
دني 22
ذك@@ 22
شتو@@ 22
شروط 22
شعبية 22
شك 22
شيد 22
صیل 22
عك@@ 22
فير 22
قانوني 22
لاست@@ 22
لاع 22
لينا 22
ماسات@@ 22
ممن 22
ميس 22
نسبتا@@ 22
هب 22
هذه 22
واص@@ 22
واق 22
ونکہ 22
پومیر@@ 22
ڤ@@ 22
ڻ 22
का 22
र 22
ਆ@@ 22
ਭ@@ 22
ತ@@ 22
ි@@ 22
ე@@ 22
ﭻ 22
ﮄ@@ 22
1070 21
1097 21
1187 21
1205 21
1211 21
1212 21
1218 21
1259 21
1272 21
1331 21
1377 21
1383 21
1417 21
1419 21
1436 21
1469 21
1479 21
1485 21
1491 21
1508 21
1579 21
1591 21
1638 21
1643 21
1657 21
1671 21
1698 21
1705 21
1726 21
1728 21
18,000 21
2100 21
Adam 21
Atomic 21
Ax@@ 21
BP 21
Bangladesh 21
Beach 21
Bell@@ 21
Bill 21
Boy@@ 21
Brazil 21
But@@ 21
By@@ 21
CL 21
Chev@@ 21
Clay 21
Coul@@ 21
Court 21
Cross 21
DR 21
Dun@@ 21
EP 21
Economics 21
Estonia 21
Eth@@ 21
Fol@@ 21
Fon@@ 21
Foundation 21
GE 21
GO@@ 21
Google 21
Guy@@ 21
HIV 21
Hack@@ 21
Haf@@ 21
Han@@ 21
Haye 21
Health 21
Hun@@ 21
IL@@ 21
Italy 21
Jol@@ 21
Jun@@ 21
Justice 21
Kach@@ 21
Kay@@ 21
Key@@ 21
Kow@@ 21
Kut@@ 21
Latin 21
Lev@@ 21
Ma 21
Mahmud 21
Manz@@ 21
Mars 21
Michael 21
Morgan 21
Mou@@ 21
Mun@@ 21
Order 21
Organisation 21
Ori@@ 21
P.@@ 21
PR 21
Page 21
Philippines 21
Pic@@ 21
Post@@ 21
Rev. 21
Rh@@ 21
Rid@@ 21
Rot@@ 21
Roy@@ 21
SL@@ 21
Say@@ 21
Shal@@ 21
Sheikh 21
Source 21
South@@ 21
Sup@@ 21
TA 21
Taiwan 21
Temple 21
Third 21
Thous@@ 21
Tim@@ 21
UNESCO 21
Var 21
Vau@@ 21
Vieux 21
Vin@@ 21
Water 21
X.@@ 21
XIV 21
Yous@@ 21
act@@ 21
administration 21
aft 21
ais@@ 21
alla 21
amba 21
ame 21
ange 21
aph@@ 21
arif 21
author 21
azi@@ 21
bach 21
bacteri@@ 21
bb@@ 21
board 21
ck 21
com 21
cou@@ 21
dat 21
diseases 21
dun@@ 21
edi 21
elected 21
emi 21
emy 21
estimated 21
eti@@ 21
fa 21
film 21
game 21
great 21
had@@ 21
hand 21
ico 21
ign 21
int 21
internal 21
itation 21
iti@@ 21
ka@@ 21
keh@@ 21
kl@@ 21
less 21
live 21
located 21
mann 21
mat 21
matrix 21
maus@@ 21
mo 21
mobile 21
nar@@ 21
nav@@ 21
op 21
otr@@ 21
ova 21
ovo 21
plex@@ 21
protein 21
ption 21
rah 21
ras@@ 21
record 21
record@@ 21
regions 21
research 21
result 21
rian 21
sac@@ 21
san@@ 21
shi 21
socialist 21
sover@@ 21
start 21
statistics 21
ston 21
tain@@ 21
tel@@ 21
uddin 21
ulan 21
ures 21
uta 21
vector 21
velocity 21
watch 21
wo@@ 21
xx 21
ysis 21
zac 21
ôme 21
ú 21
Łódź 21
Ō@@ 21
ʁ@@ 21
π 21
А@@ 21
к 21
н 21
اصر 21
اقد@@ 21
الأن@@ 21
الحميد 21
الشرف 21
المتع@@ 21
المض@@ 21
المعتمد 21
المعر@@ 21
انفجار 21
اویز 21
بالص@@ 21
برنامج 21
بسبب 21
بعة 21
بورت 21
ثان 21
ثي@@ 21
جوع 21
جيا 21
جيم 21
حبي@@ 21
خذ 21
خري@@ 21
داث 21
رئيس 21
روط 21
ريان 21
رية 21
سمات 21
سوري 21
سيمات 21
صح 21
فلس@@ 21
كلير 21
لتون 21
لحن 21
لدي@@ 21
لعب@@ 21
ليف 21
محتر@@ 21
وتي@@ 21
ودي 21
ګ@@ 21
य 21
ে 21
ਅ@@ 21
ਤ 21
ସ@@ 21
ା 21
ୁ@@ 21
ನ 21
ი 21
რ@@ 21
ﺾ 21
1060 20
1077 20
1122 20
1186 20
1256 20
1262 20
1266 20
1282 20
1309 20
1312 20
1345 20
1358 20
1368 20
1418 20
1432 20
1461 20
1463 20
1470 20
1504 20
1507 20
1554 20
1577 20
2023 20
AND 20
Aff@@ 20
Alaska 20
BM@@ 20
Bit@@ 20
Brunswick 20
Bug@@ 20
Calais 20
Capo@@ 20
Castle 20
Channel 20
Chemical 20
Child 20
Christian 20
Co 20
Country 20
D.@@ 20
Death 20
Den@@ 20
Dig@@ 20
Digital 20
Dordogne 20
Dou@@ 20
Dynam@@ 20
ED@@ 20
EM@@ 20
ET@@ 20
Elizabeth 20
Emp@@ 20
Fak@@ 20
Film 20
Fru@@ 20
Granada 20
H5@@ 20
HR 20
Ha 20
Hi@@ 20
IM 20
Ille 20
Ish@@ 20
Jas@@ 20
Jin@@ 20
Jing@@ 20
KA 20
Kaf@@ 20
Kn@@ 20
L.@@ 20
LP 20
Laval 20
Marshall 20
Me 20
Model 20
Most 20
Mut@@ 20
NY@@ 20
Nez@@ 20
Nicol@@ 20
Nuclear 20
Open 20
Oper@@ 20
Pas 20
Phil@@ 20
Ping@@ 20
Political 20
Pun@@ 20
Rai@@ 20
Research 20
Roch@@ 20
SM@@ 20
SR@@ 20
SW@@ 20
Sac@@ 20
Services 20
Syn@@ 20
Taylor 20
These 20
UL@@ 20
Um@@ 20
V.@@ 20
Van@@ 20
Vermont 20
Vietnam 20
Vilaine 20
Ye@@ 20
Year 20
Zir@@ 20
aja 20
alam@@ 20
alg@@ 20
alif@@ 20
ambi@@ 20
andi 20
ary@@ 20
assi@@ 20
atitis 20
ayat 20
azia 20
ben@@ 20
birth 20
borg 20
brahim 20
bro@@ 20
by@@ 20
cantonal 20
cardi@@ 20
codes 20
colonial 20
culture 20
design 20
does 20
ech 20
ection 20
electrom@@ 20
enberg 20
eph@@ 20
erg@@ 20
ero 20
ers@@ 20
esa 20
esian 20
esser 20
eti 20
etus 20
far 20
far@@ 20
frequency 20
fusion 20
gate 20
gn@@ 20
hat 20
hay@@ 20
heli@@ 20
ians 20
ict 20
ien 20
ignes 20
ij@@ 20
ika 20
imi 20
inces 20
iny 20
ior 20
kup 20
largest 20
lia 20
lon 20
mar 20
matter 20
mission 20
motion 20
mun@@ 20
nam 20
names 20
ons@@ 20
opo@@ 20
ord 20
origin 20
osia 20
ous@@ 20
ouv@@ 20
pack 20
pas@@ 20
pen@@ 20
phone 20
physical 20
pi 20
plantation 20
plur@@ 20
polyg@@ 20
quality 20
ref@@ 20
ret@@ 20
say 20
sborough 20
secre@@ 20
serving 20
sey@@ 20
skaya 20
society 20
source 20
sr@@ 20
stan@@ 20
stat@@ 20
sv@@ 20
territory 20
tha 20
thi@@ 20
tification 20
took 20
tract 20
true 20
trus@@ 20
uli@@ 20
usha 20
vehicle 20
vic 20
vis 20
what 20
wr@@ 20
xin 20
xy 20
y.@@ 20
ya@@ 20
yar@@ 20
yo@@ 20
zar@@ 20
zer 20
ê 20
ì 20
ñ@@ 20
ǎ@@ 20
ɪ@@ 20
ος 20
؀ 20
ادة 20
ادى 20
ارٹر 20
الأر@@ 20
الأس@@ 20
الشعب@@ 20
الشعور 20
العربية 20
القد@@ 20
اللو@@ 20
انتح@@ 20
باك@@ 20
بض@@ 20
بمث@@ 20
تبع@@ 20
تخصص@@ 20
تخطيط 20
ترجم 20
تشار 20
تلك 20
تواری@@ 20
جھار@@ 20
حلي@@ 20
دوي@@ 20
رمض@@ 20
سابقًا 20
شاب 20
ظه@@ 20
غاز 20
فراباد 20
فوت@@ 20
قرر 20
قص 20
قوا 20
كانا 20
لاي@@ 20
لعب 20
مج 20
محتا@@ 20
مدع@@ 20
هاشم 20
هج@@ 20
هند@@ 20
هيم 20
وبد@@ 20
ورة 20
وشي@@ 20
وليات 20
چنان@@ 20
ڈکو@@ 20
क 20
ज 20
त 20
न 20
দ 20
ੈ@@ 20
ି@@ 20
ག 20
◾ 20
 20
ﻡ@@ 20
1.9@@ 19
1002 19
1024 19
1025 19
1040 19
1110 19
1130 19
1137 19
1139 19
1154 19
1170 19
1194 19
1209 19
1216 19
1235 19
[...]
