. 2559933
، 2410930
في 2350817
من 1313903
على 616365
( 584198
) 583747
إلى 468975
&quot; 413254
وال@@ 354929
ب@@ 336722
ل@@ 311237
لل@@ 305565
أن 291322
عام 285741
هو 266304
التي 236146
مع 232002
: 224661
ي@@ 214660
عن 213158
أو 212144
و 207107
و@@ 196276
ك@@ 192166
كان 179538
أ@@ 154066
ما 151966
الم@@ 150406
هي 143295
ه 143012
المتحدة 138840
بعد 138736
ف@@ 136127
ت@@ 136113
بين 132852
« 131089
» 131019
ها 127395
ي 126891
الذي 126435
ين 126156
وت@@ 123572
الت@@ 122499
ذلك 121761
هذه 121529
وي@@ 120512
ه@@ 116097
تم 113325
هذا 111533
لا 110425
- 109085
الأ@@ 105076
غ@@ 104857
حيث 104632
كانت 104084
ولد 103511
وم@@ 101465
ية 100830
@-@ 98351
الح@@ 94230
قبل 94018
وقد 93369
خلال 92591
الولايات 90626
بي@@ 89787
ح@@ 89629
إ@@ 88754
لي@@ 87775
بن 86844
سي@@ 86638
كما 86187
ة 85916
ان 85887
ًا 85167
د@@ 84607
وأ@@ 84263
هم 84191
ع@@ 83311
ج@@ 82938
ق@@ 82315
ش@@ 82196
وفي 81919
ز@@ 80889
سنة 80772
في@@ 78732
الس@@ 78281
ون 78138
قد 78056
ال@@ 76672
الع@@ 76671
ري@@ 76524
لم 75668
ص@@ 75148
والم@@ 75118
له 74969
ن@@ 74912
غير 74427
م 73967
مثل 73792
وب@@ 73669
ط@@ 73384
م@@ 72956
الق@@ 72340
الف@@ 71567
ت 71230
وهو 71191
كل 71095
عدد 69009
س@@ 68865
/ 68064
مي@@ 67944
حتى 67893
ته 67290
ك 66749
ان@@ 66483
دي 65994
را@@ 65723
ين@@ 65600
دي@@ 65380
الج@@ 64790
كرة 64546
ب 63903
ا 63546
لا@@ 63253
الك@@ 63244
وا@@ 63106
ات 62353
ثم 62293
ى 61968
ور@@ 61880
رو@@ 61491
ر@@ 61368
ون@@ 61141
الب@@ 60792
المملكة 59871
ست@@ 59626
ق 59524
ث@@ 59297
لاعب 58968
بعض 58492
أكثر 57294
أمريكي 57245
يمكن 57077
الش@@ 56964
الن@@ 56759
ول@@ 55813
س 55723
ل 55476
وهي 55045
ر 54388
بي 53508
د 53474
ض@@ 53427
لها 53139
– 53083
لة 53035
أنه 53027
بشكل 52470
% 52011
يا 51871
الص@@ 51745
خ@@ 51623
وس@@ 51301
ار@@ 51223
ف 50810
است@@ 50681
تي@@ 50477
تها 50286
أي 50166
الإ@@ 50007
ير 50005
ن 50002
تش@@ 49870
وق@@ 49736
ز 49678
ع 49606
سي 49393
اً 49244
مة 49089
بة 48930
قدم 48630
ني@@ 48123
من@@ 47905
مدينة 47743
رة 47522
؛ 47444
وك@@ 47132
الخ@@ 46940
عة 46920
وكان 46802
تح@@ 46536
عبد 46356
بها 46168
, 45828
لي 45756
الر@@ 45747
يتم 45663
لو@@ 45613
ال 45418
العديد 45265
بال@@ 45082
الد@@ 44639
ّ@@ 44124
أخرى 43804
تر@@ 43056
دة 42482
والتي 42286
1 42150
يل 42127
أول 42091
وج@@ 42017
مو@@ 41874
به 41868
بر@@ 41811
القرن 41674
يد 41669
مت@@ 41488
ج 41395
ار 41289
وا 41038
تحت 40917
ومن 40784
مارس 40700
ح 40653
نادي 40469
ور 40038
الأول 39975
مجلس 39960
فيها 39949
عندما 39846
هناك 39772
عشر 39743
ولكن 39537
الط@@ 39356
وح@@ 39170
ام@@ 38964
بسبب 38891
العالم 38810
محمد 38586
حسب 38378
الذين 38155
تي 37962
منذ 37786
ذ@@ 37780
مركز 37677
تق@@ 37560
يكون 37502
مح@@ 37490
مر@@ 37327
الأولى 37130
أن@@ 37064
رات 37031
يات 36949
منها 36905
2 36871
وتوفي 36827
العام 36734
جميع 36662
غ 36638
مع@@ 36576
يت@@ 36556
عند 36496
بو@@ 36186
الي@@ 36132
ط 35901
3 35880
أيضًا 35844
أحد 35793
الغ@@ 35739
لعب 35572
جي@@ 35547
قة 35520
نسمة 35395
اني 35336
الله 35328
اب@@ 35228
مي 35164
ش 35016
كي@@ 34997
تم@@ 34903
تع@@ 34840
اء 34771
المح@@ 34589
إي@@ 34546
2004 34505
مرة 34348
جامعة 33921
حول 33891
وف@@ 33724
المع@@ 33599
الحرب 33332
بن@@ 33240
ري 33190
الأمريكية 33047
رية 32863
با@@ 32839
وع@@ 32832
مايو 32443
اد@@ 32370
زي@@ 32286
لات 32238
ما@@ 32188
ات@@ 32131
يُ@@ 32098
مجموعة 32083
هي@@ 31856
تلك 31836
حة 31780
يناير 31752
تف@@ 31699
منطقة 31609
دون 31595
تكون 31581
فبراير 31505
وص@@ 31485
ول 31041
ير@@ 31025
ود@@ 30996
تك@@ 30908
علي 30863
المت@@ 30810
أبريل 30796
نا@@ 30705
يوم 30605
أكتوبر 30592
4 30390
ني 30386
فقد 30314
إلا 30298
آ@@ 30269
ُ@@ 30242
وس 30045
مان 29967
&#93; 29939
الثاني 29904
الز@@ 29863
&#91; 29702
رين 29693
بـ 29580
فة 29542
ام 29447
يونيو 29396
ولا 29377
شي@@ 29372
اله@@ 29358
العمل 29327
يوليو 29325
سياسي 29322
اي@@ 29302
ديسمبر 29297
عضو 29203
وإ@@ 29136
سبتمبر 29050
يين 29048
يقع 29037
لكرة 28939
شركة 28804
العربية 28778
مما 28746
فيه 28690
اف@@ 28676
تين 28675
لية 28625
قي@@ 28615
دية 28598
اس@@ 28537
فر@@ 28527
نة 28358
عليه 28299
أنها 28295
كي 28240
5 28132
لت@@ 28112
دا 28064
نوفمبر 28014
القدم 28011
فإن 27917
ولاية 27699
َ@@ 27644
اع@@ 27536
إن 27521
أغسطس 27518
تو@@ 27418
اد 27259
ضد 27253
وي 27213
6 27207
عدة 27159
بح@@ 27070
بار@@ 27059
طريق 26989
ث 26948
فقط 26744
ارة 26682
الأخرى 26680
المدينة 26674
مست@@ 26618
بدأ 26574
سك@@ 26562
الوقت 26471
ذات 26448
مس@@ 26427
10 26424
مية 26403
والأ@@ 26402
تن@@ 26365
عمل 26222
المست@@ 26202
مار@@ 26119
تُ@@ 26060
تص@@ 26019
علم 25966
ود 25863
أما 25812
بل@@ 25746
إحدى 25709
سل@@ 25690
اس 25580
أكبر 25470
باسم 25413
المنطقة 25336
فية 25329
بت@@ 25230
يق@@ 25193
نا 25178
ائ@@ 25124
دا@@ 25109
مج@@ 25107
بما 25092
رت 25081
إذا 24821
حالة 24801
الحزب 24795
أر@@ 24710
استخدام 24635
بع@@ 24582
المص@@ 24560
ارات 24538
الاست@@ 24510
ص 24453
يه 24318
وكانت 24283
ند@@ 24275
عليها 24270
وذلك 24224
سب@@ 24130
نظام 24096
انية 23990
وش@@ 23989
حين 23976
مق@@ 23915
.@@ 23901
عبر 23892
لكن 23862
والذي 23860
رئيس 23857
كبير 23837
ا@@ 23765
هما 23762
أيضا 23741
جون 23646
بد@@ 23615
حوالي 23599
مص@@ 23571
ّ 23541
قام 23505
ٍ 23494
الل@@ 23446
نفس 23393
الرسمي 23333
الثانية 23231
ةً 23229
يع@@ 23221
تا@@ 23089
آخر 23086
أل@@ 23053
عل@@ 23036
عي 23024
واحد 23016
مقاطعة 22859
وه@@ 22827
20 22816
8 22811
الحكومة 22802
اسم 22787
مل@@ 22780
لت 22703
َّ@@ 22615
اب 22563
ضمن 22555
ِ@@ 22546
جهة 22505
بالإضافة 22467
وم 22466
مواليد 22425
الرغم 22414
يت 22380
تج@@ 22364
أس@@ 22305
يك@@ 22298
ونادي 22282
7 22240
يس 22212
بية 22176
سن@@ 22171
المن@@ 22161
بإ@@ 22034
فترة 21997
لإ@@ 21989
يًا 21971
وجود 21964
الي 21947
عملية 21913
15 21829
لق@@ 21816
العامة 21773
ض 21769
وية 21670
داخل 21645
الث@@ 21643
مُ@@ 21598
لك@@ 21591
فيلم 21579
12 21572
يقدر 21560
بري@@ 21551
حي@@ 21532
عية 21473
مك@@ 21428
كار@@ 21426
تاريخ 21424
دين 21397
بات 21386
الوطني 21364
أثناء 21274
بور@@ 21257
ظ@@ 21220
برا@@ 21199
تب@@ 21143
; 21126
ّة 21092
بالت@@ 21084
ينتمي 21015
المغربية 20988
جي 20935
در@@ 20913
را 20899
للسكان 20888
والإ@@ 20861
أم@@ 20818
تقع 20792
تضم 20728
شارك 20692
واحدة 20666
الية 20657
بينما 20657
مد@@ 20630
لف@@ 20609
اته 20585
سن 20523
ده 20522
الض@@ 20439
الدولة 20435
العالمية 20333
جنوب 20325
كم 20266
مش@@ 20248
وري 20202
لأ@@ 20168
ورة 20138
لسنة 20113
تا 20109
انتخب 20079
المر@@ 20015
الاتحاد 20010
9 19955
نية 19950
بل 19943
19 19940
كبيرة 19806
لح@@ 19786
مه@@ 19774
بط@@ 19759
اليوم 19704
إن@@ 19694
نسبة 19627
نحو 19575
درجة 19562
نشط 19521
أجل 19514
2010 19469
بأن 19457
التعليم 19413
ومع 19402
الملك 19399
بر 19364
11 19358
نوع 19355
عم@@ 19322
تد@@ 19280
قية 19273
إقليم 19252
سنوات 19237
الخاصة 19201
الإحصاء 19188
رون 19115
سو@@ 19068
مصر 19058
لين 19057
سة 19000
اك@@ 18949
هـ 18947
30 18945
فو@@ 18907
أصبح 18880
جن@@ 18843
سون 18843
دو@@ 18772
يم 18656
وقت 18647
موسم 18596
مات 18546
نج@@ 18542
ابن 18456
تخ@@ 18440
عين 18417
14 18394
16 18382
معظم 18370
عات 18316
الحياة 18292
برو@@ 18291
ست 18287
والسكنى 18262
الة 18219
الفترة 18177
مون 18154
كة 18142
يون 18142
اح@@ 18121
كت@@ 18121
الجيش 18111
مؤ@@ 18106
ولدت 18089
حزبياً 18061
قال 18059
فرنسا 18036
مان@@ 18025
كس 18018
الوطنية 18015
18 18005
فا@@ 17915
منتخب 17861
دات 17853
دور 17847
ائية 17827
25 17773
الو@@ 17772
2013 17732
وط@@ 17728
ثلاثة 17727
كل@@ 17696
خ 17695
يح@@ 17692
أُ@@ 17674
يو@@ 17634
وز@@ 17613
17 17560
عمر 17533
يست@@ 17517
وغ@@ 17483
فيما 17478
الان@@ 17392
اق@@ 17343
راء 17307
اه@@ 17283
اف 17271
13 17267
تس@@ 17260
نهاية 17225
عد@@ 17196
المُ@@ 17178
مه 17176
غي@@ 17161
تون 17123
شكل 17115
ولم 17110
الدين 17098
كو@@ 17073
يبلغ 17017
الأرض 17000
شر@@ 16990
عت 16953
نق@@ 16952
سم 16941
أبو 16938
ائي 16875
التاريخ 16855
رب 16846
مر 16829
وبعد 16783
أص@@ 16779
للأ@@ 16750
مين 16746
ابة 16745
دت 16737
ـ@@ 16720
&amp; 16709
كون@@ 16667
اش@@ 16628
الرا@@ 16613
آيت 16611
وض@@ 16609
بلغ 16603
ئة 16593
كا 16593
بطولة 16592
بريطاني 16591
2009 16576
21 16514
تهم 16512
مليون 16475
2007 16341
الفيلم 16318
أك@@ 16301
فت@@ 16301
ألمانيا 16292
از@@ 16290
حصل 16278
2008 16268
ينا 16264
أحمد 16249
بني 16242
بالم@@ 16228
سية 16204
نو@@ 16158
مت 16118
جة 16081
خاصة 16054
بت 16048
وان@@ 16048
سم@@ 16022
والح@@ 16019
لو 15992
أ 15941
أي@@ 15914
كية 15887
يجب 15884
مختلفة 15847
دو 15821
حزب 15772
المق@@ 15770
إل@@ 15745
الآن 15741
بدأت 15739
بناء 15683
ليس 15655
كتاب 15629
عي@@ 15627
وب 15621
24 15617
اللغة 15617
عدم 15615
وت 15589
سكانها 15561
طة 15544
2016 15520
المس@@ 15517
الأمريكي 15506
وعلى 15486
فر 15480
الثالث 15457
لعام 15447
كر@@ 15435
توفي 15432
المركز 15415
يوجد 15388
إنتاج 15383
كأس 15324
َ 15315
أح@@ 15308
السكان 15296
حر@@ 15294
نفسه 15288
بق@@ 15284
تز@@ 15276
2006 15268
ادة 15268
لمدة 15266
كتب 15253
اري 15248
سكانه 15226
جو@@ 15213
ئ@@ 15204
إذ 15174
واست@@ 15172
ترا@@ 15117
خط@@ 15094
الدوري 15065
دها 15065
يش@@ 15018
بأ@@ 14998
جديدة 14991
اج@@ 14946
مز@@ 14930
2011 14919
البي@@ 14891
حص@@ 14881
يو 14856
برنامج 14844
الشيخ 14831
ته@@ 14831
عادة 14806
شمال 14800
المج@@ 14788
دير 14779
فق@@ 14778
بجماعة 14774
يني 14773
النظام 14765
لدى 14754
حد 14753
22 14745
23 14743
أنواع 14720
تو 14718
إدارة 14684
أيضاً 14670
ضة 14670
يف@@ 14662
ئ 14652
سكان 14644
انا 14641
قرية 14628
المش@@ 14613
الدوّار 14612
مل 14612
أفضل 14598
لمشيخة 14597
دُوَّار 14584
حي 14576
وكذلك 14576
اص@@ 14570
اط@@ 14544
وات 14538
القوات 14525
شه@@ 14525
اة 14505
الرئيس 14471
أوروبا 14463
الكويكب 14451
رب@@ 14395
اتها 14373
از 14355
الآ@@ 14341
ولا@@ 14316
وما 14313
مباراة 14288
دار 14266
فريق 14255
مها 14241
كان@@ 14238
ابات 14234
مجال 14226
2012 14207
منه 14185
بش@@ 14183
ء 14165
تت@@ 14160
شخص 14155
الأطفال 14112
وتح@@ 14104
أمريكية 14103
أصبحت 14081
منصب 14063
زي 14055
ظهر 14044
كندا 14023
القانون 14019
ينة 13960
الرئيسي 13950
كلية 13925
دولة 13922
المناطق 13900
سبيل 13896
زة 13874
ولي 13849
البلاد 13772
عرض 13771
تض@@ 13760
الجديدة 13754
النساء 13748
وتم 13748
السي@@ 13710
نشر 13698
حية 13695
عالم 13691
شا@@ 13684
2000 13681
نف@@ 13637
هار@@ 13634
الشمالية 13629
قي 13626
ولة 13624
دًا 13619
قانون 13589
عه 13576
ُ 13569
مسيرته 13552
القديمة 13545
للإ@@ 13537
الشركة 13513
مث@@ 13496
الدولي 13494
عب@@ 13494
لهم 13466
الدولية 13461
27 13439
شرق 13431
ره 13399
_ 13398
وف 13395
مغ@@ 13374
اغ@@ 13364
المؤ@@ 13352
سلسلة 13351
28 13326
لان@@ 13310
26 13288
نس@@ 13232
ثلاث 13196
البحر 13173
بواسطة 13173
الكثير 13162
نه@@ 13159
الغربية 13151
أعمال 13150
كو 13113
انة 13098
راً 13093
أقل 13092
2015 13088
بداية 13075
موقع 13074
قائمة 13073
بان@@ 13065
يم@@ 13043
نيويورك 13042
حركة 13028
لاً 13026
الناس 13011
أو@@ 13001
جانب 12972
2014 12968
خي@@ 12960
العربي 12959
2005 12948
عاماً 12947
التح@@ 12922
الدول 12908
مستوى 12904
تل@@ 12898
َّة 12878
أعلى 12866
الاسم 12857
لم@@ 12852
وحدة 12840
فوق 12820
الإنسان 12816
فات 12814
الأعمال 12813
فاز 12810
مدرسة 12797
داً 12766
الات 12746
محافظة 12729
نش@@ 12721
اللا@@ 12708
دولار 12706
ادات 12694
لين@@ 12673
تتبع 12662
طر@@ 12625
الهند 12606
لان 12604
دائرة 12596
الطاقة 12591
صي@@ 12574
يلعب 12563
منظمة 12552
وار@@ 12521
ارية 12505
الأمر 12492
دان 12470
مط@@ 12446
المثال 12442
المياه 12439
فري@@ 12436
وري@@ 12429
المغ@@ 12413
حياته 12408
المجلس 12402
عر@@ 12387
وخ@@ 12376
يف 12372
ادية 12348
مب@@ 12347
فل@@ 12310
ِّ@@ 12308
الدفاع 12307
ذكر 12298
-@@ 12259
مون@@ 12254
الفي@@ 12242
وضع 12239
البر@@ 12222
وزارة 12196
جر@@ 12192
الاجتماعية 12183
لأن 12168
الذ@@ 12167
أخ@@ 12153
أد@@ 12142
كور@@ 12115
فت 12069
قص@@ 12028
كر 12017
29 12013
بات@@ 12000
بول@@ 12000
تر 11990
داء 11987
المجتمع 11986
وهذا 11972
يكن 11963
ولي@@ 11960
باستخدام 11939
لب 11939
ينية 11915
نظ@@ 11894
مض@@ 11889
تل 11883
الرئيسية 11876
إعادة 11866
جر 11851
العشرين 11848
لوا 11842
قب@@ 11839
نتيجة 11789
مف@@ 11764
سين 11759
تصنيف 11719
نقل 11719
ثة 11696
العسكرية 11684
اخت@@ 11676
دراسة 11675
الجنوبية 11652
بالإ@@ 11651
ممثل 11650
لف 11631
المرأة 11622
وين@@ 11611
سان@@ 11607
الأكثر 11589
منهم 11586
المه@@ 11582
با 11567
السياسية 11541
يك 11537
الكتاب 11534
جائزة 11524
سر@@ 11523
سان 11509
لكل 11508
جوائز 11506
التع@@ 11503
يل@@ 11500
بيل 11492
وث@@ 11469
فين 11468
بين@@ 11443
جمهورية 11433
خارج 11432
&apos; 11425
الفرنسية 11417
أث@@ 11403
الدم 11403
سر 11358
رقم 11333
كانوا 11248
يس@@ 11231
داد 11229
ياً 11225
قد@@ 11220
قامت 11219
درا@@ 11213
= 11209
رها 11201
سا@@ 11189
أق@@ 11185
مخ@@ 11180
تور@@ 11179
الصين 11142
شهر 11127
لذلك 11119
الأر@@ 11114
ورية 11111
المط@@ 11103
الشرقية 11100
2003 11097
2020 11092
الجديد 11078
لهذا 11075
مور@@ 11062
دون@@ 11056
يعتبر 11036
در 11032
الألعاب 11008
حالات 11001
أمام 10981
المخ@@ 10977
قر@@ 10972
جورج 10958
بالنسبة 10956
شار@@ 10937
2017 10924
شع@@ 10918
أغ@@ 10915
قسم 10911
حرب 10904
كام@@ 10904
السعودية 10870
للا@@ 10859
٪ 10843
التر@@ 10803
المعلومات 10801
جمعية 10801
ادي 10791
هر 10791
يلي 10779
شي 10777
اللي@@ 10767
تعتبر 10742
ينات 10739
وني 10733
وله 10710
خر@@ 10700
نز@@ 10699
أولاد 10695
قل 10690
أدى 10689
الحكم 10685
يز@@ 10675
تستخدم 10674
غرب 10668
السابق 10653
وسط 10650
البريطانية 10621
الحركة 10600
كذلك 10599
متر 10597
جزء 10589
وسي@@ 10588
بأنه 10584
كلي@@ 10584
والع@@ 10572
رج@@ 10557
أشهر 10554
به@@ 10550
لندن 10545
يب 10544
خص@@ 10523
أربعة 10516
الإسلامية 10509
التالية 10509
بير@@ 10507
أمريكا 10493
خط 10476
السل@@ 10458
ؤ@@ 10447
كريكت 10447
إنشاء 10437
يز 10429
النا@@ 10428
أور@@ 10418
فا 10417
تطوير 10412
نت 10399
اض@@ 10398
زا 10380
ذا 10379
جو 10374
زيادة 10372
طل@@ 10361
الشرق 10360
رار 10347
قط@@ 10344
جان@@ 10341
هدف 10337
والت@@ 10332
نهر 10330
قل@@ 10313
اي 10299
ومن@@ 10296
أصل 10276
أستراليا 10273
جيمس 10264
عبارة 10240
جه@@ 10236
انتقل 10233
مكان 10228
الرو@@ 10227
كندي 10225
تقدم 10216
حكم 10214
أهم 10208
عها 10193
فار@@ 10183
التالي 10177
وبالتالي 10176
يستخدم 10173
بلا@@ 10172
تست@@ 10140
يقوم 10134
العليا 10125
مال@@ 10116
العراق 10104
وبة 10097
كن 10095
وار 10087
مرا@@ 10058
الصحة 10050
كري@@ 10050
عمليات 10048
او@@ 10042
رًا 10034
إس 10029
هيئة 10025
2002 10000
السنة 9989
كويكبات 9982
المواد 9981
اله 9980
قوة 9980
سجل 9973
دف@@ 9966
أش@@ 9964
وفي@@ 9962
تعداد 9952
2018 9951
.. 9950
ممثلة 9950
نص@@ 9946
لون 9933
... 9931
سين@@ 9928
اوي 9917
مشروع 9902
رجل 9898
الجزء 9897
دوار 9896
قاعدة 9881
رس@@ 9876
العاصمة 9873
عنه 9873
عد 9865
فور@@ 9851
الجامعة 9843
لاند 9839
الخلايا 9833
ميل 9826
حكومة 9809
نت@@ 9808
حد@@ 9807
أفريقيا 9788
طول 9784
الجمعية 9783
جزيرة 9783
أعضاء 9746
روا 9712
يون@@ 9708
قه 9697
ذ 9687
جل@@ 9686
التص@@ 9681
قصة 9676
بص@@ 9671
المي@@ 9653
يخ@@ 9629
2019 9624
الماء 9617
جية 9613
توجد 9594
صغيرة 9591
جين 9589
2001 9588
القرية 9581
الدي@@ 9575
لأول 9573
تعلم 9566
الحديث 9565
عهد 9562
إليه 9551
العلمي 9551
حدث 9548
ويمكن 9541
التاسع 9531
تشمل 9519
اما 9514
مناطق 9514
تحديد 9507
31 9502
100 9488
مجلة 9477
كون 9473
أنحاء 9471
الشخصية 9469
يعمل 9469
المختلفة 9466
عص@@ 9461
وأن 9454
الفرنسي 9452
الجزائر 9451
ويل 9448
أهل 9439
جل 9439
وفق 9439
حياة 9438
العلوم 9437
حات 9435
الديمقراطي 9432
معركة 9431
ألف 9428
عقد 9428
وسياسي 9427
التابعة 9415
ترك 9415
البحرية 9408
الرابع 9402
الحالات 9395
تعمل 9395
المجموعة 9375
العصر 9373
مرحلة 9363
بيت 9359
تط@@ 9357
بالأ@@ 9355
النوع 9353
دين@@ 9349
جديد 9345
سطح 9343
وجه 9341
دد 9338
اليد 9337
خت@@ 9333
الموقع 9331
ٌ 9330
يرا 9325
كرا@@ 9323
قوات 9312
غرا@@ 9310
المدرسة 9304
قات 9304
المز@@ 9303
بان 9300
ملك 9298
حل 9293
طي@@ 9292
يان 9271
طلب 9269
ويليام 9269
البل@@ 9265
غري@@ 9259
الخاص 9248
الأخيرة 9225
حقوق 9216
اع 9199
شو@@ 9173
ونية 9169
التجارية 9166
وَ@@ 9166
ورا@@ 9162
ارد 9140
مختلف 9136
إسبانيا 9135
انه 9127
فه 9123
توضيح 9119
ضية 9117
صح@@ 9115
سل 9096
إضافة 9079
الألمانية 9071
الدراسات 9070
عائلة 9067
هن 9064
وتع@@ 9064
المحلية 9056
الاجتماعي 9035
روسيا 9027
إيطاليا 9020
اليابان 9007
ثر 9005
جان 8993
لويس 8989
تقوم 8972
أف@@ 8968
الشمس 8954
قائ@@ 8947
الخارجية 8934
شخصية 8928
سب 8927
العملية 8911
المك@@ 8909
أفلام 8889
لال 8887
البعض 8882
دع@@ 8877
العظمى 8875
وة 8863
عُ@@ 8860
صل 8859
الأشخاص 8858
المف@@ 8849
اه 8825
دورة 8818
معه 8812
تأثير 8806
البحث 8800
يؤدي 8797
بار 8794
مصطلح 8787
وادي 8785
وى 8783
نطاق 8779
وغيرها 8777
هام 8762
والد@@ 8757
الأح@@ 8749
الفريق 8740
إليها 8733
زل 8726
كول@@ 8719
ِ 8717
سبب 8707
العلاج 8702
ظهرت 8700
فض@@ 8693
الهجوم 8689
قت 8689
رك@@ 8686
وفاة 8684
الوسط 8683
يه@@ 8681
المغرب 8680
دى 8677
اح 8668
ند 8667
طور 8658
آل 8635
أمر 8635
كن@@ 8621
اك 8620
والده 8619
عاد 8618
دول 8616
دن 8615
ارا 8611
باب 8610
سع@@ 8607
بول 8600
هر@@ 8591
سط@@ 8586
العالمي 8581
لغ@@ 8574
شك@@ 8566
النواب 8560
نظرية 8557
طريقة 8556
وتر@@ 8550
وتق@@ 8547
ماء 8543
الحديثة 8539
الأراضي 8528
الشمال 8515
فين@@ 8513
ترو@@ 8505
وحتى 8501
سيدي 8496
صر 8489
الأساسية 8488
الفر@@ 8488
ارت 8484
1999 8482
الملكية 8482
دخل 8482
ةٍ 8463
مرض 8462
الكبير 8458
باء 8458
صدر 8457
دار@@ 8455
أج@@ 8443
باريس 8438
العمر 8436
الأمير 8434
الثورة 8434
البرو@@ 8431
الجسم 8424
ماك@@ 8424
نات 8423
عب 8418
الجنوب 8404
يق 8402
معسكر 8388
البا@@ 8380
أع@@ 8377
امة 8374
ـ 8372
الحصول 8366
تحتوي 8355
وصف 8349
أم 8343
سام@@ 8342
وزير 8336
مؤسسة 8334
يعد 8334
مار 8328
سابقاً 8323
أيام 8318
للح@@ 8316
الكنيسة 8311
الأم@@ 8308
لديها 8292
مذ@@ 8290
تان 8289
هة 8284
بالق@@ 8282
اتهم 8280
فرقة 8278
أواخر 8277
دوري 8273
نين 8273
الأوروبي 8263
الانتخابات 8263
روس 8261
ستون 8258
لام 8258
الام@@ 8254
الحيوانات 8254
جمع 8251
شبكة 8248
الاس@@ 8244
ضي@@ 8242
كثير 8230
ء@@ 8228
آسيا 8228
تري@@ 8225
عامي 8220
ريك@@ 8217
الجزيرة 8216
تصل 8210
واق@@ 8207
عامة 8200
50 8186
الدرجة 8174
الميلاد 8173
الجوية 8169
خدمة 8149
يري 8147
طي 8139
1998 8136
حسن 8135
روبرت 8128
عا 8127
دور@@ 8111
ندي 8107
فرة 8092
أبي 8088
الداخلية 8075
الكبرى 8074
مسلسل 8068
الحالة 8066
الإمبراطورية 8065
رأس 8051
يوس 8045
معهد 8044
الأولمبية 8034
وك 8028
1990 8024
ستر 8022
قين 8017
قها 8012
ريد 8010
بعدها 7996
جبل 7996
تحقيق 7994
تأ@@ 7987
كوم@@ 7979
المرحلة 7977
السلطة 7974
الوصول 7971
البيانات 7970
إسرائيل 7950
تغ@@ 7949
دعم 7932
المنا@@ 7922
علماء 7916
رواية 7910
حاليا 7894
واسع 7889
طات 7887
لجنة 7881
المد@@ 7871
عنها 7871
رق@@ 7866
1996 7849
لق 7844
كين@@ 7835
السياسي 7827
افة 7823
الطب 7822
كين 7821
اعات 7813
تصميم 7812
الأمم 7801
كاتب 7801
فيروس 7794
عط@@ 7793
فرا@@ 7789
مقابل 7775
1992 7767
خلالها 7765
الطبية 7758
فيل 7757
لقد 7757
عالية 7756
تعد 7755
الوسطى 7754
حق 7752
جم 7749
بالقرب 7744
الإنترنت 7742
يني@@ 7741
قناة 7732
مًا 7714
تقديم 7711
طويلة 7711
زم 7709
وصل 7707
العرب 7700
اره 7694
رام 7692
انت@@ 7690
بير 7690
صناعة 7688
جهاز 7687
باً 7685
الحدود 7683
عيد 7683
أفراد 7681
عامًا 7681
ملا@@ 7680
وفقًا 7679
أوائل 7674
خاص 7673
فن 7669
سوريا 7655
1997 7652
الإسلام 7651
الصحية 7651
بع 7647
بلدية 7645
لكنه 7640
الإن@@ 7639
بوت@@ 7634
فون 7632
المث@@ 7631
عم 7631
نى 7622
الوزراء 7620
لـ 7614
الموسم 7611
أس 7608
وقال 7606
صة 7602
خرج 7587
قيادة 7586
ظل 7574
الطبيعية 7573
ودي@@ 7569
وليس 7553
ديد 7551
راد 7547
أة 7545
تمثل 7531
الشر@@ 7529
هنري 7527
اث@@ 7519
البداية 7508
التش@@ 7507
الإنجليزية 7505
أعلن 7502
وسائل 7499
له@@ 7496
نصف 7494
جنس 7492
يّة 7490
الألماني 7488
البطولة 7488
بلو@@ 7487
هام@@ 7485
الأكبر 7484
نقطة 7484
القر@@ 7482
شبه 7482
الشكل 7474
المض@@ 7466
مات@@ 7460
ايا 7457
حت 7456
الأمن 7455
الأن@@ 7455
النادي 7449
يص@@ 7445
0 7442
كات@@ 7438
اوية 7435
اتحاد 7433
الطريق 7432
شيء 7430
للو@@ 7426
بحلول 7425
سابق 7425
الأس@@ 7424
المسيحية 7422
موا 7418
ورد 7418
إنجلترا 7417
ظهور 7417
للم@@ 7413
ْ@@ 7412
الشعب 7408
اذ@@ 7403
بك@@ 7398
عشرة 7396
يشير 7383
لقب 7378
بأنها 7373
السابقة 7369
عق@@ 7366
وان 7365
المصرية 7364
جه 7359
formula 7356
الخامس 7352
gt 7349
معهم 7346
رح@@ 7345
دفع 7342
عام@@ 7341
روا@@ 7335
ونة 7330
المرض 7328
المسلمين 7328
مباشرة 7325
جيش 7323
والك@@ 7306
يوم@@ 7290
ائر 7287
1991 7282
البريطاني 7277
بهم 7275
الموجودة 7273
اليمن 7261
اسية 7259
سوق 7258
الحرارة 7256
التق@@ 7255
1994 7254
مَ@@ 7253
قيمة 7251
بس@@ 7249
الموا@@ 7238
نفسها 7236
وفاته 7235
حجم 7234
تار@@ 7227
الأحيان 7220
الجمهوري 7219
كاليفورنيا 7217
كامل 7209
العلاقات 7208
امي 7204
المدارس 7203
فان 7200
سا 7194
الدينية 7193
تشير 7189
تون@@ 7189
معدل 7187
تمت 7176
يتبع 7173
فئة 7167
lt 7166
شاركت 7166
ذو 7163
بون@@ 7161
سات 7156
الها 7147
وست@@ 7139
اللعب 7133
بالك@@ 7132
عش@@ 7124
أول@@ 7121
طرق 7118
البرلمان 7111
فها 7109
قرار 7107
1995 7101
رك 7098
كلمة 7091
الصغيرة 7087
اعة 7082
يحدث 7079
متوسط 7077
رغم 7076
وو@@ 7075
برامج 7068
يرة 7061
الرجال 7058
وهناك 7051
خار@@ 7049
جنسية 7048
المكان 7046
ألعاب 7043
فع 7043
الثالثة 7042
القلب 7029
خمسة 7028
لاست@@ 7020
1980 7009
إبراهيم 7008
1993 7005
ماً 7005
شركات 7003
سوف 7001
النظر 7000
العلمية 6997
الغربي 6989
ناحية 6989
يش 6989
سيتي 6982
جاء 6980
الشركات 6979
اعي 6978
العزيز 6976
الاقتصادية 6974
بالع@@ 6973
بغ@@ 6970
قتل 6969
النباتات 6968
العمال 6964
اسي 6959
1989 6958
لًا 6958
اق 6954
الصيفية 6954
اط 6953
طن 6953
بذلك 6952
الشرطة 6947
يعرف 6945
بط 6941
تنظيم 6928
؟ 6924
رو 6919
الحر@@ 6916
اتي 6915
سو 6911
شر 6909
لوس 6896
سكي 6894
اية 6892
اج 6891
ولكنه 6889
تشكل 6886
درس 6885
ويُ@@ 6882
انتخابات 6877
اللجنة 6873
of 6872
توماس 6870
سلة 6868
انيا 6867
ديفيد 6866
سام 6866
يته 6866
لهذه 6865
لاحق 6864
مساحة 6844
الأسرة 6841
اخ@@ 6840
لما 6840
سير 6834
الأوروبية 6822
الجهاز 6822
بالح@@ 6822
دل@@ 6814
الجمهورية 6813
بًا 6810
قيم 6810
النق@@ 6808
أسرة 6806
أه@@ 6806
1988 6804
الإشارة 6799
اعية 6790
الشعبية 6789
بحيث 6787
عمال 6787
خان 6780
حه 6779
مدى 6779
يكا 6774
بريطانيا 6773
سانت 6771
بعة 6769
بغداد 6768
منتصف 6768
زية 6767
الطريقة 6765
واء 6762
قو@@ 6753
العلماء 6745
إجراء 6744
معينة 6732
رف 6731
أعلنت 6729
لن 6725
خدم 6722
كيف 6722
إي 6717
فهو 6712
المدن 6709
سوس 6707
1984 6704
أهمية 6703
مرات 6701
طلق 6699
لصالح 6699
السادس 6697
يعني 6697
بنسبة 6695
تسمى 6691
الخامسة 6686
المتح@@ 6685
فهي 6683
الإنتاج 6681
ربة 6676
البط@@ 6675
فلسطين 6675
تبلغ 6673
تظهر 6668
خدمات 6668
شة 6655
الكبيرة 6652
لِ@@ 6651
غل 6650
غر@@ 6649
نها 6649
انات 6648
تحدث 6644
1986 6643
افي 6640
العلم 6639
يسمى 6637
صف@@ 6635
تحمل 6634
ضع 6634
قيد 6633
وقف 6628
مول@@ 6626
بعنوان 6624
جار@@ 6623
ارتفاع 6622
حق@@ 6621
تأسيس 6615
ديا 6615
تس 6612
تولى 6606
لاح@@ 6606
تش 6604
علاج 6600
لن@@ 6600
politician 6598
الشباب 6597
تنفيذ 6596
تعرف 6590
أنهم 6588
بلدة 6581
تنا@@ 6581
قر 6578
تشارلز 6577
الأحداث 6575
40 6566
الثقافة 6565
ذي 6564
حدود 6561
فهم 6560
مهمة 6560
مين@@ 6553
2@@ 6551
الجن@@ 6549
خل@@ 6548
سوي@@ 6548
صورة 6548
مدر@@ 6546
ارب 6545
أساس 6544
هول@@ 6542
مته 6537
هل 6536
محطة 6535
بيع 6534
منة 6533
أوب@@ 6530
10@@ 6527
أشكال 6526
مال 6521
الآخر 6508
جعل 6501
هؤلاء 6501
ريا 6500
عًا 6498
فكرة 6496
هد 6495
الواقع 6491
الأسر 6489
1982 6488
التابع 6482
لك 6481
يقول 6476
صحيفة 6467
ائل 6466
كات 6464
فص@@ 6458
يناهز 6455
نقاط 6443
يعود 6434
1979 6433
امات 6429
صور 6420
حصلت 6417
باب@@ 6414
أوك@@ 6407
القديم 6401
المعروف 6401
عز@@ 6401
يظهر 6398
أغنية 6397
1987 6390
فرد 6385
ائد 6384
البرنامج 6381
3@@ 6379
تأسست 6379
خو@@ 6376
ضر@@ 6375
المحيط 6374
كرو@@ 6371
باد@@ 6366
المالية 6364
وكاتب 6362
المباراة 6357
الإسلامي 6348
وبين 6348
رائ@@ 6342
الا 6340
تمكن 6340
200@@ 6338
ليون 6333
1948 6331
ها@@ 6330
المحكمة 6329
بِ@@ 6329
رف@@ 6324
الأق@@ 6323
1985 6322
الري@@ 6322
أخذ 6321
علاقة 6319
1945 6317
فورد 6315
تَ@@ 6313
المصري 6311
سيا 6310
أحداث 6305
السلام 6297
ولية 6294
لل 6292
كتابة 6285
امه 6283
متعددة 6282
غالبًا 6277
دم 6276
امية 6273
بخ@@ 6267
الأقل 6266
المادة 6261
ظه@@ 6257
فن@@ 6253
بو 6252
المخت@@ 6247
ريك 6247
واسعة 6246
الظ@@ 6244
جا@@ 6242
التن@@ 6238
هير@@ 6234
موا@@ 6229
البيضاء 6221
شري@@ 6210
يحتوي 6210
1970 6205
العق@@ 6205
مجموعات 6202
الخدمة 6199
الهواء 6198
بوب 6194
والص@@ 6193
وفر 6189
رجال 6185
ينغ 6182
نه 6181
بدون 6178
ظر 6178
إم 6177
رد 6176
قائد 6172
الشرقي 6167
تونس 6166
بنفس 6164
أهداف 6163
الأنواع 6157
ادت 6155
معلومات 6154
الأبيض 6153
يصل 6153
ومة 6151
وين 6151
منح 6148
سرطان 6145
القط@@ 6142
فتح 6141
الإعلام 6138
متها 6132
ونسبة 6132
واشنطن 6130
ئات 6125
الطلاب 6125
الأحمر 6122
1967 6121
التاريخية 6121
ولها 6116
البشرية 6113
ورا 6112
ناء 6104
تكن 6101
الحالي 6098
القوة 6085
ستة 6085
وير 6085
رض@@ 6083
وحمل 6083
ضي 6082
1983 6075
ائه 6075
مير 6070
جا 6066
حض@@ 6066
التقليدية 6063
الصح@@ 6055
قا 6054
الأمراض 6052
بَ@@ 6048
والق@@ 6047
الـ 6046
المجال 6046
نظر 6038
لأنه 6034
ورات 6034
باللغة 6031
فير@@ 6030
يوسف 6019
المستوى 6015
الفنية 6014
فول@@ 6014
غا 6004
وهم 5999
الإدارة 5995
جزر 5993
ً 5991
فيد 5982
ثي 5981
ربية 5974
الثانوية 5971
أربع 5969
النهاية 5967
الأخير 5959
لبريطانيا 5959
نسخة 5958
ستي@@ 5949
سون@@ 5947
محاولة 5947
1981 5945
الدراسة 5944
تحول 5943
وأن@@ 5943
المنش@@ 5941
لغة 5941
انو 5936
الشخص 5934
المتوسط 5934
السنوات 5933
عديدة 5933
ماس@@ 5933
التهاب 5932
إيران 5931
الغرب 5929
ضم 5925
عَ@@ 5925
زات 5924
وأيرلندا 5923
الحكومية 5921
شخص@@ 5921
البشر 5915
حسين 5915
سياسة 5914
! 5913
أند@@ 5912
ابي 5911
البار@@ 5910
ظ 5902
القاهرة 5896
القصة 5895
منع 5894
والش@@ 5893
بقيادة 5882
نور@@ 5882
الشه@@ 5880
الثامن 5879
هية 5876
مسل@@ 5872
مرك@@ 5861
بشأن 5856
بيانات 5856
حب 5854
دز 5854
للت@@ 5854
لى 5854
ضغط 5852
مدن 5851
الرعاية 5846
تغيير 5846
العل@@ 5845
طروادة 5843
دمشق 5842
السلطان 5841
تركيا 5840
كنيسة 5837
قاد@@ 5836
الماضي 5833
إطلاق 5832
جير@@ 5832
الجنسية 5826
الاقتصاد 5825
ملة 5824
بعضها 5823
دوا 5821
الرواية 5814
واع@@ 5813
مسي@@ 5809
البيئة 5806
الكويت 5805
+ 5804
زين 5801
عرف 5800
ومؤ@@ 5792
سواء 5788
حم@@ 5787
مياه 5787
الفضاء 5786
السياسة 5780
للغاية 5778
سار@@ 5774
مدة 5772
الاحترافية 5771
وافق 5758
اكتشف 5752
تزال 5749
عمل@@ 5748
اند 5742
لز 5734
اللو@@ 5732
ارها 5729
النفس 5722
خد@@ 5719
1974 5711
وني@@ 5708
الخدمات 5705
سميث 5703
تعل@@ 5697
نيو 5697
رفض 5696
سلام 5696
اعد 5691
ثي@@ 5690
سلا@@ 5689
يمي 5689
1975 5687
زر 5686
يتعلق 5686
الكتب 5684
1978 5683
دبليو 5679
نغ@@ 5678
ثورة 5677
سعيد 5677
مكتب 5676
1976 5675
جدا 5674
أَ@@ 5673
عن@@ 5672
فيلد 5669
يج@@ 5667
اللون 5666
واح@@ 5666
جار 5660
وتش@@ 5659
تابعة 5654
أط@@ 5653
انت 5652
فصل 5651
المتعلقة 5649
ويتم 5649
والث@@ 5648
الطفل 5647
الكلية 5643
السابع 5641
القي@@ 5640
حل@@ 5637
ناف@@ 5636
تبا@@ 5634
برت 5629
بون 5627
ساب@@ 5627
وع 5626
الأوسط 5622
شهادة 5619
التجارة 5615
اليهود 5614
َّ 5610
الثامنة 5609
بالإنجليزية 5609
خلايا 5607
طية 5607
الروسية 5600
نان@@ 5592
وجد 5592
1973 5591
باس@@ 5591
عمان 5589
البلدان 5587
ائها 5585
الأفراد 5584
درجات 5580
والف@@ 5578
كلا@@ 5573
انضم 5569
وز 5568
وذ@@ 5566
حت@@ 5561
مدير 5561
يكي 5556
الطبيعي 5555
المرا@@ 5554
الموسيقى 5552
ديل 5551
شغل 5549
فرق 5549
الور@@ 5546
المنظمة 5545
بهذا 5545
الرومانية 5529
نتائج 5529
امل 5524
قطاع 5522
ستان 5521
ظة 5521
تين@@ 5519
الأمريكيين 5516
الطائرة 5514
ليست 5513
الأعلى 5512
والعشرين 5512
اسمه 5498
قطع 5497
حال 5496
جات 5491
لاحقًا 5489
ويات 5488
تية 5486
ولكنها 5486
طب 5484
عصر 5482
وُ@@ 5480
بد 5477
او 5472
أجهزة 5471
الأكاديمية 5471
الساعة 5470
ليل 5469
باست@@ 5467
ورت 5467
الخي@@ 5464
ومح@@ 5464
نقص 5463
فير 5462
اض 5460
عليهم 5453
لَ@@ 5448
مخت@@ 5447
مملكة 5445
وق 5445
يزيد 5445
ماري 5444
تشكيل 5440
دواوير 5439
الأردن 5438
ناد@@ 5434
1972 5432
بج@@ 5427
هان@@ 5427
طائرة 5426
فس@@ 5423
الولاية 5422
جز@@ 5422
الزواج 5421
دائ@@ 5421
المشروع 5420
حملة 5420
أمراض 5419
طف@@ 5419
علا@@ 5419
القدرة 5414
يخ 5408
فق 5403
وال 5403
الرحمن 5402
لاء 5402
العمليات 5401
وانتخب 5398
الشعر 5395
العثمانية 5390
حرارة 5383
هان 5382
الرياضية 5381
السوق 5381
المرضى 5380
موت 5380
خطر 5371
طالب 5371
حدوث 5368
لر 5368
الأعضاء 5365
البرازيل 5362
الضغط 5358
باشا 5354
تسجيل 5354
سلو@@ 5351
المعروفة 5348
لبنان 5345
زن 5343
عكس 5340
موسيقى 5337
الفن 5336
الجنسي 5334
مانية 5333
المكسيك 5332
الطرق 5331
انتق@@ 5331
أجزاء 5329
غر 5327
ولين 5327
توا@@ 5315
ثاني 5313
قرر 5313
سكو 5311
1968 5304
الآثار 5304
دري@@ 5302
مسجد 5302
كتابه 5300
فيا 5297
ران 5294
جبال 5292
لش@@ 5290
1960 5288
جرا@@ 5286
يَ@@ 5286
يها 5285
1977 5284
يَّة 5284
اند@@ 5274
عمله 5274
60 5271
رير 5271
تتضمن 5266
تقنية 5261
ران@@ 5261
والن@@ 5260
خمس 5257
الأفلام 5255
وقعت 5253
1971 5252
بلاد 5252
تطور 5252
مالية 5243
تاج 5242
يونايتد 5237
مفهوم 5233
النوادي 5228
راب 5228
تقد@@ 5226
عادةً 5222
غار@@ 5221
هند@@ 5221
كت 5208
الزي@@ 5206
روب 5206
سيد 5203
آثار 5202
تتكون 5202
العسكري 5199
صالح 5198
ولت 5197
تب 5195
هات 5195
إيه 5193
لس 5191
ودة 5191
سري@@ 5189
صاحب 5185
فرض 5184
تقريبًا 5182
التأ@@ 5181
دان@@ 5181
التف@@ 5180
الهدف 5175
الدكتور 5174
ريق 5174
يزال 5169
سه@@ 5168
1969 5164
بطريقة 5162
القص@@ 5160
1964 5158
بالن@@ 5158
كاب@@ 5157
صف 5154
السيد 5146
ّر 5144
النووي 5140
رَ@@ 5139
مو 5139
سلم 5138
” 5135
المسلسل 5134
المعهد 5132
وه 5131
تدريب 5130
الجانب 5129
ريف 5129
السورية 5126
المنزل 5121
وأصبح 5120
عاً 5118
الوحيد 5117
تعرض 5116
بالف@@ 5115
تطبيق 5115
العدد 5112
كوب@@ 5111
نو 5109
بوس@@ 5106
وعندما 5101
يض@@ 5099
تذ@@ 5098
يران 5098
ومي@@ 5095
جيل 5092
غي 5092
ونات 5090
واله@@ 5089
the 5084
اكتشاف 5084
إصدار 5083
الأل@@ 5078
ينيات 5078
إنه 5074
وممثل 5073
يؤ@@ 5069
رش@@ 5068
ساعة 5067
المهنية 5066
فع@@ 5064
انظر 5060
1963 5058
شعر 5055
بس 5053
الصينية 5049
خلا@@ 5049
سُ@@ 5048
معرفة 5047
ريتشارد 5046
قصيرة 5046
جرة 5044
الحالية 5043
جري@@ 5039
4@@ 5036
نواب 5033
بموجب 5032
تعود 5031
مطار 5029
تعتمد 5028
وغير 5026
انس@@ 5025
نان 5022
زت 5020
قض@@ 5020
مهم 5020
حياتها 5016
1950 5010
لتح@@ 5007
آخرين 5005
ألف@@ 5005
السيطرة 5005
مقارنة 5004
سلطة 4995
البرا@@ 4994
صنع 4994
رر 4993
اء@@ 4990
القدس 4989
الأساسي 4988
جام@@ 4985
كلا 4985
الأص@@ 4984
لديه 4983
إير@@ 4982
النار 4982
النقطة 4982
امرأة 4979
شرف 4979
حماية 4977
زيد 4975
ونصف 4973
ابل 4972
ذهب 4972
نر 4970
ألي@@ 4969
اختبار 4968
أكد 4967
الإي@@ 4966
الأدب 4963
أمين 4961
دول@@ 4958
العصور 4957
مصدر 4954
ساهم 4952
محامي 4950
سبق 4949
القرآن 4947
الأصل 4945
كتاب@@ 4943
فإنه 4938
ءات 4937
قصر 4936
فو 4935
تسبب 4934
ربما 4933
الحيوية 4932
الآخرين 4928
فًا 4927
الإغريق 4926
بدلاً 4923
والس@@ 4923
فضل 4921
قت@@ 4921
دخ@@ 4919
فان@@ 4913
الإصابة 4909
بذ@@ 4907
1962 4906
الثقافية 4902
خة 4902
الجنس 4899
هنا 4899
المحور 4898
أنظمة 4892
ماسة 4892
نح@@ 4890
آنذاك 4887
المركزية 4887
كيلومتر 4887
تز 4883
تقل 4883
تاب@@ 4879
ستر@@ 4879
عاصمة 4879
مارك 4879
مالك 4877
ئي 4872
جوا@@ 4872
فل 4869
العائلات 4868
وزي@@ 4868
عل 4866
1965 4865
الثلاثة 4865
الرسمية 4860
قبة 4858
جد@@ 4855
رز 4847
&#124; 4846
ويبلغ 4846
إل 4845
المبكرة 4842
شية 4841
الذكور 4839
رض 4838
1956 4837
النقل 4837
مد 4837
البناء 4834
الفرقة 4833
إست@@ 4832
اختيار 4831
ازات 4830
وصلت 4829
تة 4824
الأسود 4823
عزلة 4822
الإل@@ 4820
لار@@ 4817
بك 4816
وقع 4815
بم@@ 4814
ريات 4813
امين 4812
ينو 4803
ّل 4803
حقق 4801
* 4796
القوى 4796
توزيع 4796
رعاية 4794
انها 4793
نُ@@ 4793
خطوط 4792
يار 4792
بنية 4790
ابية 4788
بتاريخ 4788
العالي 4787
نائ@@ 4785
تحليل 4783
مواقع 4776
طاقة 4775
وعية 4774
المشاركة 4773
الإنجليزي 4770
السبب 4768
مز 4767
العنف 4766
بري 4765
يسمح 4765
ادا 4764
يعتقد 4764
الاقتصادي 4762
وفقا 4762
مادة 4761
مليار 4760
المنتخب 4759
والغ@@ 4758
أسترالي 4756
جور@@ 4755
الدور 4751
انج@@ 4749
وخاصة 4746
الاع@@ 4744
زال 4743
مدرب 4742
متحف 4741
مهرجان 4741
بنا@@ 4737
ريح 4736
إما 4734
القائمة 4733
مربع 4732
توفير 4731
ئية 4729
لديهم 4726
المؤتمر 4725
السلة 4722
المصطلح 4722
مصادر 4718
000 4717
للش@@ 4710
السلطات 4709
الصناعية 4708
الممكن 4707
تصوير 4706
تكوين 4705
قدرة 4705
الشيوخ 4704
العائلة 4704
شن 4702
المحلي 4701
امن 4701
لكنها 4701
النمو 4699
1958 4698
مؤتمر 4696
مرور 4696
الشمالي 4693
مدار 4693
آسفي 4691
السكاني 4690
دخول 4690
طع 4690
روما 4687
ملعب 4686
كث@@ 4685
أسس 4684
ريس 4684
5@@ 4678
العرض 4678
8@@ 4672
طبي@@ 4671
السودان 4667
جوزيف 4667
ملكة 4667
• 4667
يتكون 4665
يغ@@ 4665
وتم@@ 4663
سليمان 4661
إص@@ 4660
تقييم 4660
الحقوق 4659
1966 4658
ماني 4658
العلاقة 4654
نع 4654
يرو 4654
المدنية 4653
طر 4653
ومات 4652
ريب 4647
انتشار 4646
13@@ 4644
ذية 4644
لز@@ 4643
مواد 4642
بسرعة 4641
الفلسطينية 4638
النهائي 4634
غو 4633
كثيرة 4632
cricketer 4629
نائب 4628
1961 4627
كه 4626
ليف 4626
إصابة 4621
رفع 4621
جد 4618
يبدو 4618
ديه 4617
سما@@ 4617
الته@@ 4615
صغير 4615
المال 4614
مكان@@ 4614
والي 4613
نز 4611
خر 4609
أبناء 4607
قياس 4607
كيم 4605
سري 4604
قبل@@ 4604
الإج@@ 4603
نون 4599
صوت 4596
يان@@ 4595
جب@@ 4594
نموذج 4592
طرف 4591
لور@@ 4591
مستويات 4589
الديمقراطية 4587
بيتر 4587
ربي 4585
والاست@@ 4582
s 4580
اسمها 4580
200 4578
وراء 4576
المسجد 4575
المل@@ 4575
المعركة 4571
كوك 4569
إدوارد 4566
تمل 4566
سيل 4565
كوريا 4565
الـ@@ 4563
The 4554
وكالة 4554
الخط@@ 4553
أنَّ 4549
يمي@@ 4545
خارجية 4542
أعماله 4541
ريين 4539
بينها 4535
شعار 4535
فصيلة 4535
مام 4533
واي 4530
أطلق 4529
مدريد 4528
قًا 4526
المصادر 4524
مم 4524
النظ@@ 4523
الفرق 4522
يع 4522
قَ@@ 4521
شار 4519
غل@@ 4519
إطار 4518
أسماء 4517
برلين 4514
سيناريو 4510
مستشفى 4509
اده 4508
ثية 4507
هاي@@ 4507
ونيا 4503
كورونا 4502
أبرز 4501
ناش@@ 4501
نس 4500
خالد 4496
العهد 4495
تلا@@ 4493
اها 4492
عامل 4492
منح@@ 4491
الزراعة 4490
القيادة 4490
فعل 4490
ولوجية 4488
النج@@ 4483
تعريف 4483
ندا 4483
الذاتية 4482
لفترة 4482
1944 4481
محمود 4478
وبعض 4477
قبيلة 4476
موق@@ 4476
جب 4475
فض 4474
للع@@ 4474
الولادة 4473
تعني 4473
إلي 4472
نار@@ 4470
وهذه 4470
رى 4468
1949 4467
سه 4464
ّن 4464
1947 4462
جون@@ 4462
دهم 4462
سوى 4462
هات@@ 4458
وظ@@ 4458
عرا@@ 4457
الخليج 4456
دقيقة 4454
80 4453
أمير 4452
زواج 4452
المزيد 4448
زوجته 4443
وتُ@@ 4441
ولوجيا 4441
جدًا 4438
الشبكة 4437
1946 4432
معالجة 4432
لمحافظة 4430
غان 4429
أرض 4428
بورغ 4427
تشي@@ 4425
عملت 4423
قُ@@ 4423
يمثل 4421
داف@@ 4420
الجنوبي 4417
قرى 4416
الطعام 4415
الاستقلال 4414
بوي@@ 4413
قرا@@ 4413
بهدف 4412
حس@@ 4409
5.@@ 4407
الجوي 4405
حالياً 4405
التعداد 4401
P@@ 4400
بالر@@ 4400
كُ@@ 4398
ذر 4396
جين@@ 4395
بعين 4394
لعبة 4393
بجامعة 4390
فرع 4387
الروسي 4386
بُ@@ 4386
فرو@@ 4385
أنجلوس 4384
يد@@ 4381
المؤسسات 4380
أقدم 4376
ونا 4374
المجموعات 4373
بالس@@ 4373
موسى 4373
بز@@ 4372
H@@ 4370
الضوء 4368
ينز 4367
نمو 4365
الإمام 4363
هد@@ 4362
1940 4357
جماعة 4357
بمدينة 4356
علوم 4356
للحصول 4356
التصميم 4355
أكاديمية 4352
اليمنية 4350
تحرير 4350
ارًا 4349
مراكش 4346
الحد 4344
1941 4342
صلاح 4339
الملكي 4337
الهيئة 4337
النووية 4336
الوا@@ 4336
رابطة 4336
بصورة 4332
هار 4331
الأصلية 4330
الطبقة 4330
عون 4330
1939 4329
افات 4329
تعيين 4328
تعليم 4327
سمح 4327
المستخدمة 4325
الاح@@ 4323
خلف 4323
أسلوب 4319
التحكم 4317
الصحي 4314
لكي 4314
شارع 4313
وجدت 4313
للعمل 4311
زب@@ 4310
1959 4309
1957 4305
“ 4305
أدت 4303
ترك@@ 4302
7@@ 4293
سد 4292
الشخصيات 4291
يكية 4291
ثات 4290
الإمبراطور 4289
كوي@@ 4288
سياسية 4284
سف@@ 4282
1955 4281
أساس@@ 4281
عائ@@ 4280
الوحدة 4277
ترف 4277
البرامج 4276
قطر 4275
نشرت 4274
قضية 4273
تأث@@ 4272
دس 4271
جغرافيا 4270
ابه 4267
الإمارات 4267
ففي 4267
المناخ 4266
عسكرية 4262
كاف@@ 4262
القدر 4260
footballer 4258
الهندية 4258
ومي 4256
كيلو@@ 4252
برج 4249
تاون 4249
يعتمد 4248
المؤقت 4246
نات@@ 4246
هجوم 4246
مثال 4243
المدر@@ 4242
قوانين 4241
تقدي@@ 4240
دام 4239
طان 4238
وشارك 4236
بيا 4234
1@@ 4233
لد 4233
نوا@@ 4233
لس@@ 4231
الوضع 4229
بنى 4228
الاستخدام 4226
واج@@ 4226
أثر 4224
النفط 4222
بحسب 4219
بيه 4219
القرار 4218
D@@ 4217
القسم 4217
الني@@ 4217
ومع@@ 4216
توفر 4215
العثور 4214
النظرية 4214
رمز 4213
1954 4212
التركية 4212
وّ@@ 4212
سباق 4211
تبر@@ 4210
الحاكم 4208
مور 4205
تختلف 4204
صد@@ 4204
الرابعة 4201
تدخل 4200
عظ@@ 4200
اكت@@ 4198
الات@@ 4197
ليا 4197
1952 4192
تجاه 4192
روة 4191
مدي@@ 4191
وبلغ 4191
مسؤ@@ 4190
سرعة 4185
ليات 4185
500 4184
إنج@@ 4182
كيفية 4182
قري@@ 4181
الحال 4180
وبي 4178
الرجل 4174
مجتمع 4174
لاعبة 4172
المريض 4169
بيئة 4168
صلة 4168
بلغت 4165
حاول 4164
يعيش 4162
اليونانية 4161
زوجها 4161
استخدم 4160
النبي 4160
بينهم 4160
لوك@@ 4158
الهي@@ 4157
اش 4156
كشف 4155
يحمل 4155
الهندسة 4154
الصوت 4153
تقرير 4153
لون@@ 4153
فائ@@ 4152
كمية 4151
واض@@ 4150
زان 4147
تجمع 4145
المطلق 4142
الأهلية 4140
آن 4139
اليين 4139
فاء 4139
إخراج 4137
رحلة 4132
النشاط 4131
يتح@@ 4131
قلب 4128
محددة 4128
المسلحة 4127
ثقافة 4126
الإنسانية 4125
الحمل 4125
بنت 4124
برلمان 4123
معين 4122
زراعة 4119
باح@@ 4116
ذوي 4114
فأ@@ 4114
قلعة 4114
ده@@ 4113
فاف 4113
الاتصال 4111
المعرفة 4109
ديات 4108
يدة 4107
اهر 4104
إحصائيات 4101
خاص@@ 4100
متح@@ 4100
بوا@@ 4097
رسالة 4096
روي 4096
الكندي 4093
برة 4092
للق@@ 4092
يط 4087
نام@@ 4086
الطائرات 4084
لمح@@ 4084
الت 4082
الطبيعة 4080
الكر@@ 4080
تعيش 4080
زون 4080
تاريخية 4079
طلاق 4077
الدقيقة 4076
قرب 4075
ماد@@ 4074
باكستان 4071
ّم 4071
جذ@@ 4069
دراسات 4069
عناصر 4069
القمر 4067
الدماغ 4065
المشتري 4063
ْ 4063
تغير 4062
خلاف 4061
A 4060
ومنها 4060
واجه@@ 4055
الصي@@ 4053
زوج@@ 4053
للاست@@ 4052
البيئية 4050
بحث 4050
ارض 4049
بالفعل 4047
كيل 4047
والخ@@ 4047
1943 4046
التصوير 4045
تؤدي 4044
الإسباني 4043
جزءًا 4043
صد 4041
الفصل 4040
نيات 4040
احتف@@ 4039
امها 4039
الطيران 4036
عبة 4036
افية 4028
الدعم 4027
ندية 4027
هب 4024
C@@ 4022
قدر 4022
الأصلي 4021
بور 4020
وعين 4020
35 4018
14@@ 4015
مشار@@ 4014
لاحظ 4011
تشغيل 4010
G@@ 4009
الإيطالي 4007
ثانية 4007
John 4006
أراضي 4005
الأم 4005
المرتبة 4002
أيرلندا 4001
بحر 4001
حاليًا 3997
طوله 3997
العش@@ 3996
انخفاض 3996
لفة 3995
الفنون 3994
6@@ 3993
عاد@@ 3991
1953 3990
متنوعة 3990
الحفاظ 3987
معل@@ 3987
منزل 3987
الملا@@ 3985
فَ@@ 3985
الأسلحة 3982
ُّ@@ 3979
كانون 3978
فرنسي 3977
أصول 3974
طري@@ 3973
لط@@ 3973
هن@@ 3973
المثليين 3972
ائع 3971
تث@@ 3971
دته 3971
شن@@ 3971
غة 3971
شرطة 3970
أغاني 3969
الخط 3968
دوية 3968
علاقات 3968
لأنها 3968
يطلق 3968
B@@ 3965
رؤية 3963
ضعف 3963
إج@@ 3961
العص@@ 3960
آر@@ 3959
تجارة 3959
طبقة 3957
الاخت@@ 3956
السكانية 3956
ولون 3956
70 3953
براون 3953
النهائية 3951
البلدة 3950
السفر 3950
العناصر 3950
خطة 3948
1942 3947
اللغات 3945
1951 3944
راج@@ 3942
ة.@@ 3941
فيف 3940
آلاف 3936
السوفيتي 3935
طه 3935
شير 3934
معاهدة 3934
رس 3933
سك 3933
الرقم 3931
بلة 3930
الكيميائية 3929
قليل 3927
ضات 3926
بعضهم 3924
يصبح 3924
دل 3922
دارة 3917
فقة 3915
القيام 3914
قدمت 3914
آي 3911
جاك 3908
اول@@ 3907
شو 3907
عنوان 3904
مارتن 3902
كاس@@ 3900
and 3899
مى 3899
فيديو 3898
حلب 3897
المسرح 3895
تفاعل 3895
الحص@@ 3894
وممثلة 3894
زوجة 3892
ويست@@ 3892
بهذه 3891
شيو@@ 3890
يّ 3889
تدري@@ 3888
ساك@@ 3888
ائب 3887
جري 3887
أغلب 3886
حك@@ 3886
ضيف 3886
F@@ 3881
معروف 3879
ابع 3878
الخلية 3878
الناحية 3878
أساسي 3877
بدء 3877
تناول 3877
الزراعية 3876
كريست@@ 3875
خلق 3872
فعل@@ 3871
مناصب 3871
هُ 3870
الأولية 3869
الاحتلال 3868
تنظ@@ 3868
كمال 3868
مقر 3866
الكار@@ 3865
تمث@@ 3865
والج@@ 3864
قوا@@ 3863
الانتق@@ 3862
شت@@ 3861
يقصد 3861
اور@@ 3857
نجاح@@ 3856
ترجمة 3854
S@@ 3853
ابنة 3853
اكتش@@ 3852
اللعبة 3850
وسجل 3850
شهد 3849
البرلمانية 3847
أمي@@ 3846
إد@@ 3846
ولعب 3846
اور 3844
جمع@@ 3844
البع@@ 3843
الجليد 3842
المرجعية 3841
كير@@ 3840
الحض@@ 3839
الاب@@ 3838
النتائج 3837
1936 3834
اربة 3834
ثنائي 3834
مني 3834
مِ@@ 3834
بالج@@ 3833
برغ 3833
محرك 3832
مول 3831
هج@@ 3829
N@@ 3828
العوامل 3828
القبائل 3828
بمثابة 3828
راف 3828
تحويل 3826
التأثير 3825
طين 3825
لب@@ 3825
محكمة 3823
أطفال 3821
أنّ 3820
عاما 3814
بالكامل 3813
كاملة 3812
وصول 3809
التمييز 3805
سرا@@ 3805
ألماني 3804
البيض 3803
ارس 3802
هير 3802
90 3801
الواقعة 3800
وحصل 3800
مير@@ 3799
تلقى 3798
زر@@ 3798
النسخة 3797
بالغ@@ 3797
تاح 3797
فري 3797
الذاتي 3796
توس@@ 3795
للسيدات 3794
بكثير 3792
كارل 3792
أداء 3790
موجودة 3788
حساب 3787
الأي@@ 3786
رئاسة 3786
ولقد 3786
ويعتبر 3785
بقية 3784
بيان 3784
شباط 3783
حيات 3782
الجوائز 3781
الفني 3773
قوى 3773
إلغاء 3772
الأحياء 3772
لقى 3769
وجه@@ 3768
تمثيل 3766
ودية 3766
in 3765
التج@@ 3765
فلكية 3765
مقاومة 3764
الفرد 3762
الأدوية 3759
ًّا 3758
القانونية 3756
9@@ 3755
لإقليم 3755
ينت@@ 3755
مجالات 3754
الإسرائيلية 3753
حاكم 3753
المواقع 3751
الإسرائيلي 3750
التدريب 3750
العين 3749
تجربة 3748
مشاركة 3748
لقي 3747
موس 3747
المهمة 3746
رغ@@ 3745
هور 3745
ادل 3744
القرى 3744
T@@ 3740
السعودي 3740
جونز 3740
أخر 3739
ترض 3739
الإناث 3737
واد 3736
اقة 3733
روح 3731
M@@ 3729
تقد 3726
سلطان 3723
مج 3723
يرون 3722
إم@@ 3721
غز@@ 3721
واصل 3720
الخارج 3719
والتح@@ 3718
الموارد 3717
بيروت 3717
حلقة 3716
العقد 3714
الإسبانية 3712
مدارس 3712
أسط@@ 3708
روز@@ 3707
جنب 3705
R@@ 3704
الأبحاث 3704
الزمن 3704
اثنين 3703
1920 3702
إدار@@ 3702
متلازمة 3701
تصبح 3699
كار 3699
الكويكبات 3697
جما@@ 3696
دليل 3696
طوال 3695
مبنى 3695
ذه@@ 3693
ضل@@ 3692
السع@@ 3691
الإست@@ 3689
كوك@@ 3687
لشركة 3687
ّه 3687
شيكاغو 3686
المذ@@ 3684
سائ@@ 3683
عضوًا 3682
الملحق 3681
مبي@@ 3681
حام@@ 3678
المؤسسة 3677
ربط 3677
لص@@ 3677
اليهودية 3676
الصور 3675
ناب@@ 3675
استمر 3670
يث@@ 3670
جرى 3669
فقال 3669
الفيديو 3668
النطاق 3668
ّد 3668
البشري 3667
النش@@ 3667
أسب@@ 3664
ينغ@@ 3663
ممارسة 3662
وج 3661
أست@@ 3660
المعد@@ 3660
بولاية 3660
جدي@@ 3659
وتن@@ 3659
استخدامها 3658
المسل@@ 3657
تان@@ 3656
تفسير 3656
تميز 3656
علام 3656
المنتجات 3655
المشتركة 3654
السفن 3653
جمال 3652
الكاثوليكية 3651
لذا 3651
ليين 3649
300 3648
فشل 3647
فوز 3647
ظروف 3646
مصطفى 3646
جداً 3645
أصغر 3644
فته 3644
وكي 3644
الأعراض 3643
الغذائية 3643
خت 3643
ائدة 3642
ملايين 3642
نظم 3642
التصويت 3641
مراكز 3641
سلالة 3640
سعود 3639
وحدات 3639
تسل@@ 3638
معروفة 3638
مشاكل 3635
ولى 3634
201@@ 3633
الا@@ 3633
دَ@@ 3633
ومست@@ 3631
وقام 3630
طويل 3628
تول@@ 3627
هندسة 3627
استمرت 3626
اعتب@@ 3625
المجاورة 3625
مسرحية 3625
كه@@ 3621
مايكل 3621
عود 3620
وريا 3620
ذة 3619
اليونان 3617
سفر 3617
مبار@@ 3617
روم 3616
مشيخات 3616
اتفاقية 3614
السويد 3614
قوية 3612
كبار 3612
والط@@ 3612
توس 3610
نظرًا 3610
جسم 3608
درب 3608
ليب 3608
طبيعة 3607
سرية 3605
زمن 3604
صرف 3603
بلا 3602
باي 3601
ينه 3601
تحسين 3600
معها 3599
داخ@@ 3598
مباريات 3598
قاء 3593
التعاون 3591
الدستور 3591
ابنه 3590
صب 3590
عاش 3590
البلد 3589
سيما 3589
جاك@@ 3588
ائح 3587
كب 3585
سلاح 3583
حًا 3580
جمي@@ 3578
خض@@ 3578
نيين 3578
شعبية 3576
سور 3573
فكان 3573
أض@@ 3572
خاض 3572
وبات 3572
كويكب 3570
الأخ@@ 3569
البرية 3568
فيل@@ 3568
ويع@@ 3568
التك@@ 3564
زار 3563
مديرية 3563
2.@@ 3561
دث 3561
قواعد 3561
محل 3561
ولاعب 3557
L@@ 3556
الموت 3556
لندي 3556
نزالا 3555
الكتابة 3554
مصري 3554
إر@@ 3551
تأسس 3549
قيق 3549
أري@@ 3547
منش@@ 3546
وسيلة 3546
مساعدة 3545
فتح@@ 3544
زو 3542
كولومبيا 3542
متع@@ 3541
جونسون 3534
تيك 3532
الساحل 3531
انيين 3531
تأليف 3530
نشاط 3530
الأغنية 3529
المسيحيين 3529
تبدأ 3528
نع@@ 3528
الشام 3524
الأور@@ 3522
تكساس 3522
حيل 3522
لندية 3522
فز 3521
فلا@@ 3520
التحرير 3518
ويلز 3517
كش@@ 3516
تزوج 3515
كمة 3515
تسمية 3514
تقسيم 3514
مراقبة 3514
وعدد 3513
1930 3511
ةِ 3511
اضطراب 3510
رتبة 3509
وبي@@ 3509
شل 3508
السوي@@ 3507
بولندا 3507
كتلة 3507
ليكون 3507
موضوع 3507
ميت 3507
الإنج@@ 3506
الطيور 3506
دولية 3504
قاب@@ 3504
ّا 3503
توق@@ 3502
زها 3502
أنفسهم 3501
سيطرة 3501
قبائل 3501
مبر@@ 3500
يعانون 3500
المركزي 3499
وأصبحت 3499
المنافسة 3498
تام@@ 3498
حمض 3498
ساحة 3498
كا@@ 3497
البرتغال 3496
النجوم 3496
ضى 3495
ظم 3495
الحق 3492
إسباني 3491
الأك@@ 3490
وإلى 3490
تقليل 3488
32 3487
شف 3485
ماريا 3485
مرو@@ 3485
الحي@@ 3483
ويل@@ 3483
البحرين 3481
الدر@@ 3481
الإعلان 3480
حدة 3479
الأرجنتين 3478
دراسته 3478
السينما 3477
بـ@@ 3477
النخ@@ 3476
وفة 3476
المتحف 3473
رئيسي 3473
محترف 3473
الحديد 3472
الوحيدة 3471
مشاركًا 3470
سس 3468
فرنسية 3468
قيام 3468
كاث@@ 3468
التطور 3467
رم 3467
1938 3466
وتي 3466
اليم 3465
ستين 3465
وفا 3465
ّى 3465
الداخلي 3462
ماي@@ 3461
1933 3459
مداره 3456
الجلد 3455
بيد 3455
لله@@ 3453
بكر 3452
مواسم 3452
والد 3451
يرية 3451
حف@@ 3450
التنمية 3449
العثماني 3448
سال@@ 3447
بقي 3445
وإن 3445
وتعتبر 3445
x 3444
تضمن 3444
سبعة 3444
علامة 3444
ضاء 3443
واخت@@ 3442
مجرد 3441
العودة 3440
ومنذ 3440
الرياضي 3439
حج@@ 3437
1937 3436
الحجم 3436
رؤ@@ 3436
المنظمات 3435
اون@@ 3435
تشرين 3435
رُ@@ 3434
الأسماك 3433
روز 3433
القيمة 3432
جها 3432
الجزائرية 3429
مراجع 3429
القناة 3427
قليلة 3426
الفعل 3424
ميم 3423
وزن 3423
تخرج 3422
كباقي 3422
كز 3422
مشكلة 3422
انتقلت 3420
يرى 3419
العالية 3418
واجه 3417
المساعدة 3416
القتال 3414
تمامًا 3414
وخلال 3414
التحق 3413
الحجر 3413
الشعبي 3413
تصر 3412
المجتمعات 3411
باح 3411
تشار@@ 3410
الحاجة 3409
اللح@@ 3409
الكهربائية 3408
راع 3408
يتها 3408
التمثيل 3407
فرانك 3407
الدورة 3406
خراج 3406
ثق@@ 3404
خز@@ 3403
بال 3400
الشع@@ 3399
صل@@ 3399
أز@@ 3398
الته 3397
الصحافة 3394
اليابانية 3394
يمر 3394
حدي@@ 3393
الإطلاق 3392
للأطفال 3392
وإداريًا 3391
عزل 3389
فاق 3389
نجم 3388
الشي@@ 3386
E@@ 3385
تتميز 3385
الاتصالات 3384
يب@@ 3384
بث@@ 3383
فور 3383
جح 3379
الجنرال 3378
جريدة 3378
مستقلة 3377
الترا@@ 3375
ذك@@ 3375
رصده 3374
حُ@@ 3373
للمرة 3371
موض@@ 3370
الدار 3369
للط@@ 3369
199@@ 3368
القصر 3368
ضافة 3368
عمره 3368
نشا@@ 3368
قف 3366
فرط 3364
ائط 3363
السرطان 3363
السيارات 3363
تبة 3363
يلا 3362
شاعر 3360
نيوزيلندا 3360
والدها 3360
عهم 3359
غزو 3359
الار@@ 3358
يرًا 3357
سعد 3356
ثين 3355
لاغرانج 3355
لاف 3355
الثقافي 3354
ــ@@ 3354
الجامعات 3353
المقاومة 3352
حال@@ 3352
العراقية 3349
المرتبطة 3347
سيس 3346
ونغ 3346
تسمح 3343
التقنية 3342
الهندي 3342
بحرية 3342
القضاء 3341
عوامل 3339
خوان 3338
سيارة 3338
بوا 3336
1918 3335
التط@@ 3334
الناتج 3334
يبدأ 3334
والر@@ 3333
الكريم 3332
الأساس 3330
انتقال 3330
عض@@ 3330
أرا@@ 3329
مكتبة 3329
الأصليين 3328
السجن 3327
قلي@@ 3327
الكاتب 3326
يقدم 3326
أوغ@@ 3324
إجمالي 3324
إف 3322
الروماني 3322
الإلكترونية 3321
الخص@@ 3321
درة 3321
آر 3320
تبع@@ 3319
خطط 3319
ديك@@ 3319
سلطنة 3319
صار@@ 3319
مساع@@ 3319
وعمل 3319
الإص@@ 3318
تعديل 3318
بعدما 3317
ثان@@ 3317
45 3316
التز@@ 3316
مس 3316
قول 3314
الحمض 3312
الحرة 3311
المعل@@ 3310
خفض 3307
مسافة 3307
احة 3304
شهدت 3304
ويكون 3304
الب 3303
طفل 3303
ورو 3302
1935 3296
أصدر 3296
الفلسفة 3296
الحملة 3294
أعم@@ 3293
صيف 3293
لمدارات 3293
اتية 3291
واش@@ 3291
لتحديد 3290
المبنى 3289
يتين 3289
لمداره 3288
أسباب 3287
التعين 3287
A@@ 3286
ّت 3286
لوب 3284
لته 3283
فيليب 3282
التواصل 3281
نط@@ 3281
MPO@@ 3280
تتم 3280
نيل 3280
باع 3279
الجنود 3278
ميز 3278
إمكانية 3276
تدفق 3274
مرت 3273
وتوفيت 3272
التشريعية 3271
القوانين 3271
يضم 3271
الحسن 3270
طًا 3270
وأخ@@ 3270
إسماعيل 3269
1.@@ 3267
اعتم@@ 3267
دعى 3267
السوري 3265
باقي 3264
65 3261
هدف@@ 3261
يمات 3261
ينت 3261
y 3260
الصورة 3260
الدكتوراه 3258
زيارة 3257
غرفة 3257
شد 3256
اللاتينية 3255
بالرغم 3255
الوزن 3253
غول@@ 3253
القومية 3252
يشمل 3252
الاشتراكية 3251
سيكون 3251
فاس 3251
الكائنات 3249
البنية 3248
الظروف 3246
العراقي 3246
منت 3243
عقب 3242
قبول 3238
الكربون 3237
التعبير 3236
المحيطة 3236
جع 3236
يتع@@ 3236
المستخدم 3235
وظيفة 3235
الروا@@ 3233
سكوت 3232
سفينة 3231
القضايا 3230
المار@@ 3230
ريم 3230
القومي 3229
متز@@ 3229
عداد 3228
المقدس 3227
مسرح 3226
برية 3225
الحين 3224
رسم 3224
كلو@@ 3223
O@@ 3222
استق@@ 3222
الجر@@ 3221
الحمراء 3220
قب 3220
رئيسية 3217
فران@@ 3217
هولندا 3217
طبق 3216
ربع 3215
ويا 3215
لفات 3213
المستقبل 3212
جن 3212
للعلوم 3210
وبدأ 3209
وته 3207
وره 3207
يسون 3207
وهي@@ 3206
1931 3205
استعمال 3205
ونش@@ 3205
الرابطة 3204
نجاح 3204
إعلان 3203
صات 3203
وهكذا 3203
ويوجد 3203
وعلم 3202
يْ@@ 3202
تقنيات 3201
قيقة 3200
العصبية 3199
تشي 3198
وأر@@ 3198
أصحاب 3196
عمو@@ 3196
الحديدية 3192
ساعد 3192
كثافة 3192
تقريبا 3190
1929 3188
الغاز 3188
مراحل 3188
ونظ@@ 3187
1934 3186
إلكترو@@ 3184
نجد 3183
حظ@@ 3182
تبادل 3181
لول 3181
الشري@@ 3180
الأنظمة 3179
التركيز 3179
سج@@ 3179
ضابط 3179
طلا@@ 3179
البكتيريا 3177
حَ@@ 3177
سمي 3175
الزوج@@ 3174
دوا@@ 3174
تحدي@@ 3172
صحفي 3172
ميات 3172
قيل 3170
يتضمن 3169
الحقيقي 3168
للص@@ 3168
0@@ 3167
كجزء 3167
ليصبح 3167
نوعة 3167
ذه 3166
قصير 3166
طها 3164
سلط@@ 3163
يوب 3162
اءات 3161
الأربعة 3161
الخارجي 3161
وائ@@ 3161
أنا 3160
طالب@@ 3158
كافة 3158
انتهاء 3157
استح@@ 3156
الحكومي 3156
هول 3156
البلا@@ 3155
غان@@ 3155
ينبغي 3155
ميناء 3154
القاعدة 3153
تمتلك 3152
توم 3152
سور@@ 3151
النمسا 3149
تعزيز 3149
ثا 3149
المستشفى 3147
اسة 3146
استخد@@ 3145
الفنان 3143
ثمانية 3142
راس 3141
طبيب 3140
تجارية 3139
دُ@@ 3139
وبية 3138
تعامل 3137
كوفيد 3136
الكه@@ 3135
المدى 3135
الوحدات 3135
إس@@ 3134
الكلمة 3134
يفة 3132
ءً 3131
الطبي 3131
غير@@ 3131
الفل@@ 3130
ستيف@@ 3130
يجعل 3130
ترتيب 3129
ضت 3129
ملي@@ 3129
يول@@ 3129
آي@@ 3128
الإيطالية 3127
أكسيد 3126
العب@@ 3126
القطاع 3125
خلفية 3121
اهد 3120
النفسي 3117
الجز@@ 3116
تاين 3116
تخصص 3116
ساع@@ 3116
مظ@@ 3116
صيب 3115
إند@@ 3114
درج 3114
إزالة 3113
ائن 3113
إح@@ 3111
التسمية 3110
اولة 3110
المتع@@ 3109
باستثناء 3109
درو@@ 3109
كيين 3109
اصل 3107
وأيضا 3107
اللاعب 3106
طرح 3106
الحي 3105
الفق@@ 3105
ذها 3105
أكاد@@ 3103
المدني 3103
20@@ 3102
سليم 3102
ناق@@ 3102
المتك@@ 3100
الكث@@ 3099
تشر 3099
لاك 3099
ملت 3099
ريض 3097
تلعب 3096
حرية 3096
ً@@ 3095
الد 3093
يقرب 3092
الأجهزة 3091
وتقع 3090
باط 3087
غية 3087
معايير 3087
2م 3086
ندر 3086
أوس@@ 3085
غون 3085
ادها 3082
صن@@ 3082
ولو 3082
خش@@ 3081
تتراوح 3080
وح 3080
المطاف 3077
a 3076
وسط@@ 3075
1922 3074
سلات 3071
استخدامه 3070
الملكة 3070
كوس@@ 3070
ألبوم 3069
أماكن 3069
الوج@@ 3069
400 3068
تدور 3068
وتشمل 3068
المقاطعة 3067
جاب@@ 3067
عان 3067
تري 3066
بحيرة 3065
طوي@@ 3065
الرئي@@ 3064
توب@@ 3063
حن 3063
اقتصاد 3062
التعليمية 3058
شخصيات 3058
خصائص 3055
النهر 3054
ولذلك 3053
التعامل 3048
المسرحية 3047
الأسباب 3044
الكرة 3044
المحافظة 3044
شعب 3044
شرا@@ 3042
مكة 3042
الجبل 3041
جامع 3039
لعبت 3039
ريال 3038
الأفريقية 3037
يستطيع 3036
الرأس 3035
أنط@@ 3033
نَ@@ 3033
وجهة 3033
الحقيقة 3031
الدرا@@ 3031
روف 3031
ياس 3031
ائيات 3029
ياباني 3029
ذت 3028
عمار 3028
وجامعة 3028
الصد@@ 3027
بطل 3027
عسكري 3027
بيب 3026
زه 3026
الثلاث 3025
انس 3025
ناصر 3025
نتج 3025
دونالد 3023
تبع 3022
البطولات 3021
ارين 3018
ميس 3017
الهجرة 3016
عثمان 3016
وغيرهم 3016
النصف 3015
تكلفة 3014
خص 3013
طبق@@ 3013
تعاون 3012
ملاكم 3012
منتج 3012
الصغير 3010
الحية 3009
الكامل 3009
المباني 3009
جم@@ 3009
كس@@ 3009
قوس 3008
1928 3005
12@@ 3003
المسيرة 3002
وتف@@ 3000
ائق 2999
ليلة 2998
الهر@@ 2997
1919 2996
أسر@@ 2996
عمه 2995
الحادي 2994
والتعليم 2994
السر@@ 2993
جيد 2992
الأماكن 2991
السفينة 2991
القائد 2991
فيين 2990
موسيقي 2990
مجموع 2989
تهدف 2988
العصبي 2987
الصراع 2986
انتخاب 2986
ترح 2986
وتو 2986
قاط@@ 2985
القلعة 2984
شرح 2984
غلا@@ 2984
علاق@@ 2982
برات 2981
جلة 2981
كبيرًا 2980
أعداد 2979
مقتل 2979
الأصول 2977
المؤس@@ 2976
إنها 2975
الدموية 2975
طلاب 2975
عامين 2973
قاد 2973
ناف 2973
أظهرت 2969
اطي 2968
مباشر 2968
غور@@ 2967
الحرية 2966
حيوانات 2966
كونه 2965
الجمهور 2963
حمل 2963
يحيى 2963
تسم@@ 2962
ستيفن 2962
أعراض 2960
نوف@@ 2960
الدائرة 2959
لبعض 2959
الشيوعي 2957
اقات 2956
للأمم 2956
المتج@@ 2955
تال 2954
يرا@@ 2954
أنشطة 2953
الفوز 2953
سَ@@ 2952
عج@@ 2952
يدعى 2950
السريع 2948
ينتج 2948
الصحراء 2947
صفات 2947
ويد 2947
سياس@@ 2945
واستمر 2945
اتجاه 2944
والعلوم 2944
شاه@@ 2942
النه@@ 2941
منظ@@ 2939
قضايا 2937
الأدبية 2936
قع 2936
مالي 2935
الأهداف 2934
1924 2933
رون@@ 2933
موسكو 2933
تصنيع 2931
خوسيه 2930
ارع 2929
يمة 2927
الرحلة 2926
عوا 2925
وآ@@ 2925
ورها 2925
ريان 2923
نهائي 2922
أبطال 2921
الطلب 2921
كم@@ 2921
أجريت 2920
الجبهة 2919
التجارب 2918
تصدر 2918
1932 2917
اطة 2917
بقاء 2915
إضافية 2914
تتح@@ 2914
ساعات 2914
موند 2914
والمع@@ 2914
وند 2914
زع@@ 2913
نظيم 2913
فازت 2912
طت 2911
رسمية 2910
سمى 2910
فه@@ 2910
النموذج 2908
انتهت 2908
الواحد 2907
حمل@@ 2907
آخرون 2906
الأداء 2906
الحماية 2906
جرت 2906
فعال 2906
بشدة 2905
كونها 2905
يلية 2905
منتجات 2904
بينهما 2903
مؤلف 2903
اللازمة 2902
سيطر 2902
توم@@ 2900
وكي@@ 2900
دخلت 2899
إض@@ 2898
أقصى 2897
الشاعر 2897
1م 2895
انق@@ 2893
لد@@ 2893
مم@@ 2893
أستاذ 2890
الموسيقية 2890
خف@@ 2890
السلسلة 2889
الفئة 2889
بارك 2889
بدي@@ 2889
هاج@@ 2889
وص 2889
الأغ@@ 2887
باي@@ 2886
24@@ 2885
زيم 2885
البابا 2882
فيز 2882
الغذاء 2881
فلم 2881
مجمع 2881
الإدارية 2880
كَ@@ 2879
المائية 2877
المنتج 2877
لوك 2877
روي@@ 2874
الرياضيات 2873
صدرت 2872
تؤ@@ 2869
هاب 2869
حا 2868
ديف 2868
لجميع 2867
وط 2867
1921 2866
الأسنان 2866
33 2865
التشري@@ 2865
برز 2865
الجه@@ 2864
الحب 2860
الست@@ 2860
للك@@ 2860
أصدرت 2857
دست@@ 2857
قق 2857
نوبل 2857
ويين 2856
الجدول 2855
1923 2854
ددة 2854
التل@@ 2853
باعتبارها 2853
النفسية 2851
باك 2850
والمست@@ 2850
ترا 2849
تركي@@ 2849
وتص@@ 2849
تنفي@@ 2848
ظات 2847
خليج 2846
دعي 2846
غب 2844
وبر@@ 2844
وش 2844
باع@@ 2843
فرانسيسكو 2843
للفنون 2843
de 2842
ثه 2842
عالم@@ 2842
ؤون 2841
الإلكتروني 2841
واضحة 2841
وبذلك 2841
نب 2840
ادرة 2839
العموم 2838
عرب 2838
الأنشطة 2837
جز 2837
هذ@@ 2837
وسام 2837
وسي 2836
مركب 2835
يره 2835
البقاء 2834
حها 2834
ستخد@@ 2834
يأتي 2834
بكل 2833
سيم 2833
بح 2832
تدمير 2832
تقدير 2831
ساء 2831
التعلم 2830
يتي@@ 2830
متا@@ 2829
يرجع 2827
تنتج 2825
وحيد 2825
1917 2824
الاجتماع 2823
الدخول 2823
ونها 2823
اثر 2822
كلها 2822
كوا@@ 2822
مح 2822
نقاذ 2822
الأسترالي 2821
الفيروس 2821
النحو 2821
توج@@ 2821
سقوط 2821
مري 2821
الأمثلة 2820
علمية 2820
C 2819
يلة 2819
استطاع 2818
الغالب 2818
بدا@@ 2818
بيك 2818
تاريخ@@ 2818
كاست@@ 2818
للمست@@ 2818
القديس 2817
للغ@@ 2815
جودة 2814
قطعة 2814
قوق 2812
واقع 2812
W@@ 2811
سوء 2811
التنفيذي 2810
الكي@@ 2809
1000 2808
جول@@ 2808
فارس 2807
مناسبة 2807
أقيمت 2806
ّف 2806
الموج@@ 2805
صبح 2803
المباشر 2802
عملها 2801
ميد 2801
ريت 2800
ساحل 2799
وعدم 2799
كتش@@ 2798
خلي@@ 2797
وظائف 2797
الجرا@@ 2795
القانوني 2795
معدلات 2795
ترتبط 2794
حز@@ 2794
توقف 2791
أولى 2790
الهم 2790
سيين 2790
واة 2789
قيب 2788
غار 2787
يعيشون 2787
التجاري 2786
نم@@ 2786
ماية 2785
أجن@@ 2784
استخدمت 2783
سمة 2782
شان@@ 2782
العظ@@ 2781
عيسى 2781
ونه 2781
فما 2780
75 2779
نسب 2779
دبي 2778
سلامة 2778
الكروية 2777
الميلادي 2777
الدع@@ 2776
وقة 2776
الأخضر 2775
يتم@@ 2775
كتي@@ 2774
والمج@@ 2774
لع@@ 2773
افتتاح 2772
باول 2772
دوم@@ 2772
سيف 2772
1925 2771
الكت@@ 2771
قيه 2771
ماث@@ 2771
العلوي 2770
مناف@@ 2770
الاش@@ 2769
التخ@@ 2767
عاص@@ 2766
طا 2765
لقت 2765
الصف@@ 2764
الفرا@@ 2764
ضوء 2764
ازة 2762
ريز 2761
ليو 2760
صحة 2758
البيت 2757
الشمسية 2756
دستور 2756
قط 2756
ورئيس 2755
إفريقيا 2754
تاب 2754
يمكن@@ 2754
آرثر 2753
أت 2753
دال@@ 2753
غذ@@ 2753
اتل 2751
أطول 2750
ظاهرة 2750
نًا 2750
فيس 2749
لوحة 2749
اتا 2747
الأثرية 2747
التقليدي 2746
قاع@@ 2746
1927 2745
المنصب 2745
لاب 2745
لوية 2744
مساعد 2744
التد@@ 2743
التغييرات 2743
الصيني 2743
النز@@ 2743
القضية 2742
كونغ 2742
ميخائيل 2742
المصابين 2741
وربما 2741
البلدية 2740
تبقى 2739
عدام 2739
الألبوم 2738
تن 2738
جيم 2738
صحيح 2738
إحصاء 2736
بناءً 2736
تركز 2735
حمد 2735
داث 2735
المحرك 2734
جنوب@@ 2734
راي 2734
لتون 2733
منز@@ 2733
اعم 2732
قدر@@ 2732
جات@@ 2731
يخت@@ 2731
الأوراق 2730
قاعة 2729
الأز@@ 2728
العاملة 2728
بيين 2728
أبر@@ 2727
فاي@@ 2727
مرتين 2727
مسار 2727
وفقاً 2727
قادة 2726
أدوات 2725
اللقب 2725
لج@@ 2725
القبض 2724
تقلي@@ 2723
مهندس 2723
الاد@@ 2722
التونسية 2722
ثلاث@@ 2722
فقدان 2722
إنش@@ 2721
لاس 2721
انع 2720
خليفة 2720
born 2719
التعل@@ 2719
امرة 2719
بق 2719
ذر@@ 2718
مواجهة 2718
لفين 2717
الوطن 2715
{ 2714
بيري 2714
نف 2714
الموس@@ 2713
زيل 2713
غالبا 2713
تركيز 2712
تشري@@ 2712
قصص 2712
انغ 2711
جع@@ 2711
روع 2711
والأر@@ 2711
V@@ 2710
العظيم 2710
منخفضة 2709
ديم 2708
الأطباء 2707
وإذا 2707
الانتخابية 2706
حر 2705
الوقود 2704
قلة 2704
بوم@@ 2703
يُعرف 2703
الحس@@ 2702
فى 2702
طرد 2701
وعند 2700
الإيرانية 2698
بريطانية 2698
جُ@@ 2697
الخطوط 2694
198@@ 2693
رسول 2693
نشأت 2693
ينها 2693
1914 2692
فظ 2692
يذكر 2692
للج@@ 2691
اردو 2690
اعت@@ 2690
فتها 2690
لتحقيق 2690
ارض@@ 2689
والتر@@ 2689
أولي@@ 2688
الأصغر 2688
الكبد 2688
بلغ@@ 2688
بنك 2688
فإن@@ 2688
الفلسطيني 2687
ذاته 2687
وهما 2686
يشكل 2686
حضر 2683
سات@@ 2683
سميت 2683
ألمانية 2682
التركيب 2682
التوالي 2682
زوج 2682
سبي@@ 2682
فلا 2682
منط@@ 2682
الف 2681
نمط 2681
يرات 2681
والدته 2679
الحج@@ 2678
المفتوحة 2678
توي@@ 2678
رح 2678
رسوم 2677
قيين 2676
ويت 2676
وأس@@ 2674
البحوث 2673
التربية 2673
المتوقع 2673
الفردية 2672
رن 2671
رين@@ 2671
عربية 2671
إصدار@@ 2669
الإجمالي 2669
تاي@@ 2669
تتطلب 2669
سابقة 2669
فاً 2669
ساف@@ 2668
قته 2668
الذهبية 2667
لأي 2667
أدي@@ 2666
عتها 2666
تفع 2665
حف 2665
قمة 2664
تؤثر 2663
K@@ 2662
النص 2662
المواطنين 2661
لعدة 2661
فنان 2660
ويلسون 2660
أشار 2658
بدلا 2658
بمعنى 2658
ديث 2657
معتم@@ 2657
المرة 2656
غام@@ 2656
كسي@@ 2656
باش@@ 2655
وائي 2654
1926 2653
الكشف 2653
باعتباره 2653
طى 2653
ائف 2652
الجبال 2652
الطر@@ 2651
التربة 2650
الفكرة 2650
شرات 2650
لائ@@ 2649
أبحاث 2648
ساح@@ 2648
تشكي@@ 2647
شف@@ 2647
عباس 2647
نشأ 2647
اكي 2646
0.@@ 2645
الأسط@@ 2645
تقول 2645
العلامة 2644
بته 2644
طرة 2643
فلسفة 2643
اللبنانية 2642
داي 2642
7م 2640
فاد@@ 2640
اتصال 2639
الحيوان 2639
الأول@@ 2638
المعارضة 2638
شب@@ 2638
الصناعة 2636
ونت 2635
باك@@ 2634
حينها 2634
رِ@@ 2634
الملعب 2633
ساب 2633
قاً 2633
فرصة 2632
طاء 2630
ويض 2630
خل 2629
شغ@@ 2629
لاه@@ 2629
موي 2628
يكو 2628
النرويج 2627
بلي@@ 2627
مماثلة 2627
التشغيل 2626
الأمريك@@ 2625
اليومية 2625
مؤسس 2624
شا 2623
المصدر 2620
الأفكار 2619
النبات 2619
ليون@@ 2619
S 2618
8م 2617
الجيل 2617
الكندية 2617
ذكرت 2617
رئي@@ 2617
سابقًا 2617
مكافحة 2617
I@@ 2614
تابع 2614
الهادئ 2613
الآسيوية 2612
عالمية 2612
الإجراءات 2611
التذ@@ 2611
طيف 2610
يسبب 2610
السلوك 2608
ومج@@ 2608
1912 2607
ّي 2607
الأمور 2605
الكون 2604
الكون@@ 2604
فعالية 2604
تلق@@ 2602
جورجيا 2602
ريو 2602
علامات 2602
لمة 2602
تات 2601
لاق 2601
وأكثر 2601
وكل 2601
توأمة 2600
هُ@@ 2600
اعتماد 2599
ٌ@@ 2599
الصحف 2598
إقامة 2597
الحسين 2596
مشاريع 2596
هور@@ 2596
وزراء 2596
جنود 2595
أشخاص 2594
قوي 2594
وعي 2594
المشاكل 2593
بث 2592
عمدة 2591
وتكون 2591
زمة 2590
لبن@@ 2590
للدولة 2590
خان@@ 2589
داول 2589
الخلفية 2588
الشرا@@ 2588
اليا 2588
حكوم@@ 2588
توفيت 2587
وضعت 2587
شديدة 2586
34 2585
الإض@@ 2585
ولات 2584
يحصل 2584
عك@@ 2583
مساحتها 2583
اذ 2582
زعيم 2582
إشارة 2580
العرش 2578
تزيد 2577
ثنائية 2577
هيل 2577
الذاكرة 2576
الطوارئ 2576
سلوك 2576
طبيعية 2576
قالت 2576
وايت 2575
التلفزيون 2571
الين 2570
ثت 2569
معرض 2569
الأدلة 2568
الحروب 2568
ثرة 2568
الأرضية 2566
المحتمل 2566
للتح@@ 2566
عبد@@ 2565
مود 2565
لوي 2564
ممث@@ 2563
ناه 2562
تاد 2561
فحص 2561
ويك@@ 2561
التحليل 2560
فمن 2560
مغنية 2560
المقاطعات 2559
وض 2559
الفضائية 2558
تيل 2558
عرفت 2557
هوكي 2557
وأك@@ 2557
واص@@ 2557
ينش@@ 2557
ترنت 2556
افر 2555
الأف@@ 2555
رياضة 2555
0م 2554
شهرة 2553
افع 2552
الكهرباء 2550
الأث@@ 2548
الاختبار 2548
نيك@@ 2548
أحيانًا 2547
العضوية 2547
دتها 2547
مسر@@ 2547
سياسات 2546
الأيام 2545
ضرب 2545
جيدة 2544
وصلات 2544
قِبل 2543
أوت@@ 2542
إز@@ 2542
الكتلة 2542
باري 2542
خيص 2542
شاع@@ 2539
يتطلب 2539
السيدة 2538
طق 2538
بلد 2537
بوس 2537
بيلي 2537
قادرة 2536
مجموع@@ 2535
5م 2534
إتش 2534
الكلي 2534
المجالات 2534
الجائزة 2533
آت 2532
تمام 2532
كاي@@ 2532
اريا 2530
لنا 2530
الغابات 2529
الفار@@ 2529
ايدة 2528
O 2527
فيتش 2527
متعدد 2527
إرسال 2526
لإنتاج 2525
موز@@ 2525
الرياض 2524
تشخيص 2524
التركي 2523
مسابقة 2523
الغير 2522
6م 2521
William 2521
اعتق@@ 2521
الليبرالي 2521
الوفاة 2521
البول@@ 2520
الرباط 2520
الهند@@ 2520
كومة 2520
وفاز 2520
يور@@ 2520
3م 2519
التكنولوجيا 2519
حدثت 2519
الإث@@ 2518
نك@@ 2518
أولئك 2517
بلاده 2516
تسع 2516
جهزة 2515
سبع 2515
علاوة 2515
وإي@@ 2515
وطنية 2515
المهني 2513
كريس 2513
مخرج 2513
رت@@ 2512
عادت 2512
للنساء 2512
والمح@@ 2512
اختياره 2511
الجل@@ 2511
حقيقة 2511
الأشياء 2510
المنف@@ 2510
صندوق 2510
رئ@@ 2509
الأد@@ 2508
الإسك@@ 2508
صية 2508
لتكون 2508
السير 2507
36 2506
الجهة 2506
الرئاسية 2506
سمع@@ 2506
التحالف 2505
الحاسوب 2505
النسبة 2505
مبدأ 2505
معد@@ 2505
مقاطعات 2505
عته 2504
196@@ 2503
اقترح 2503
الاشتراكي 2502
سيتم 2501
ثقاف@@ 2500
غرق 2500
الرأي 2499
السيرة 2499
مغني 2499
مأ@@ 2497
غزة 2496
كيلو 2496
ءة 2495
ضر 2495
قان 2495
نيس 2495
وام 2495
يختلف 2495
اشية 2494
آلة 2493
ليبيا 2492
المركبات 2491
بجانب 2491
عى 2491
معنى 2490
هِ 2490
وعة 2489
بدور 2488
تسب@@ 2488
عار@@ 2488
الألمان 2487
طائرات 2487
يقارب 2487
سكنية 2486
صُ@@ 2486
قص 2485
بعاد 2484
درك 2484
اللاحقة 2483
تشيلي 2483
نجوم 2482
الاهتمام 2481
تد 2481
اليون@@ 2480
باخت@@ 2480
دانيال 2480
دود 2480
لدعم 2480
الإر@@ 2477
رود 2477
التراث 2476
تقريباً 2476
الاعتراف 2475
25@@ 2474
نص 2473
السادسة 2472
فرز 2472
اسب 2471
المناعة 2471
أساليب 2470
أنش@@ 2470
مقدمة 2470
الأسبوع 2469
طل 2469
قار@@ 2469
تيس 2468
مؤسسات 2468
37 2467
نجح 2466
الحقيقية 2463
وبعدها 2463
برشلونة 2462
قضاء 2461
متص@@ 2461
القراءة 2460
السن 2459
الأسب@@ 2458
دورًا 2458
السرعة 2457
تمييز 2456
سوية 2456
شرك@@ 2456
غوا@@ 2456
كاه@@ 2456
الطبيب 2455
زالت 2455
197@@ 2454
زرا@@ 2454
لـ@@ 2454
كلارك 2453
B 2452
نانة 2452
القنيطرة 2451
المؤرخ 2451
خري@@ 2451
دري 2451
يرتبط 2451
البق@@ 2449
اللاعبين 2449
والمعلومات 2449
والمن@@ 2448
وعادة 2448
تتعلق 2447
حديقة 2447
المعر@@ 2446
اني@@ 2446
سورية 2446
التقدم 2445
تينية 2445
الفردي 2444
بأي 2444
موظ@@ 2444
ميث@@ 2444
أمريك@@ 2443
تمد 2443
الأدنى 2442
i 2441
ادم 2441
تدريس 2440
كثيرا 2440
إندونيسيا 2439
التفاعل 2439
المضادة 2439
بوسطن 2439
ولاد 2439
الأب 2438
فريدريك 2438
ائلة 2437
التغذية 2437
دراك 2435
التدريس 2433
وأُ@@ 2433
تقارير 2432
المساواة 2431
حفل 2431
لنادي 2431
لج 2430
وليام 2430
ياس@@ 2430
الأولي 2429
الرومان 2429
الضفة 2429
تيني 2429
الممتاز 2428
ثابت 2428
والرابعة 2427
بوجود 2426
دوق 2426
مله 2426
القصيرة 2425
اهتمام 2425
لقة 2425
مثلا 2425
المقابل 2424
الموضوع 2424
جس@@ 2424
الشهير 2423
قامة 2423
هيكل 2423
48 2422
السطح 2421
سويسرا 2421
الأمة 2420
الصناعي 2420
مند@@ 2420
موقف 2420
يح 2420
واضح 2419
الوظائف 2418
عند@@ 2418
بالد@@ 2417
أسفل 2416
أنشأ 2416
كلم 2416
ابر 2415
اسكتلندا 2415
الأغاني 2415
يستخد@@ 2414
فذ 2412
باني 2411
وأنه 2411
4م 2410
باد 2410
بوت 2410
تكار 2410
سالم 2410
فضاء 2410
قديمة 2410
ضح 2409
لوي@@ 2408
رسمي 2407
منهما 2407
ويعد 2406
ؤ 2405
الجماعة 2405
تعرض@@ 2405
حظر 2404
صال 2404
كاري 2404
صار 2403
الأشعة 2402
الإسكندرية 2402
نيسان 2402
ومرا@@ 2401
فورت 2399
لأكثر 2399
هدفًا 2399
سول@@ 2398
عازف 2398
16@@ 2397
جاه@@ 2397
المنق@@ 2396
شبكات 2396
الإم@@ 2395
الطرف 2395
مقاطعه 2395
مواط@@ 2395
تبه 2394
هاري 2394
اجتماع 2393
اشتهر 2393
السوداء 2393
سيلف@@ 2393
ويه 2393
} 2392
شديد 2392
بالش@@ 2391
ترج@@ 2391
سند@@ 2391
احتج@@ 2390
فلي@@ 2390
أفكار 2389
طان@@ 2389
هتلر 2389
يتميز 2389
التفكير 2388
الابن 2387
الممثل 2387
نيت 2386
بمع@@ 2385
فيات 2385
اتفاق 2384
الوق@@ 2384
قابلة 2384
لغات 2384
إع@@ 2383
البح@@ 2383
كلمات 2383
نج 2381
الليل 2380
المشترك 2380
موج@@ 2380
نظمة 2380
يكس 2378
15@@ 2377
اث 2377
شح 2376
9م 2375
أعط@@ 2375
انته@@ 2375
مري@@ 2375
وليد 2375
1910 2374
الباب 2374
دولارًا 2374
رسميًا 2374
توقع 2373
دب@@ 2373
ملكية 2373
الأموال 2372
تمتد 2372
سال 2372
كتبت 2372
محتر@@ 2372
إيجابية 2371
سبورغ 2371
مانويل 2371
والستين 2370
دج 2369
بحوث 2368
حدو@@ 2368
قدي@@ 2367
ريًا 2366
الأه@@ 2365
الإقليمية 2365
سوا 2365
قتها 2364
قراءة 2363
James 2362
الديني 2362
جندي 2362
حركات 2362
صدي@@ 2362
وحد@@ 2362
الشؤون 2361
تصني@@ 2361
قاضي 2361
الأصوات 2360
ريل 2360
عمرو 2360
الوعي 2359
منظمات 2359
بوب@@ 2358
150 2356
السري@@ 2356
55 2355
باه@@ 2355
اسات 2354
لاحقا 2354
ميز@@ 2354
يلي@@ 2354
الماجستير 2353
المشاريع 2353
الوجه 2353
صاد@@ 2353
الحلفاء 2352
الحلقة 2352
الطويل 2352
تلفزيوني 2352
ثلاثين 2352
اجتماعية 2351
البلو@@ 2351
الحدث 2351
مراجعة 2350
تارودانت 2349
1915 2348
الجامعي 2348
الضرائب 2347
عمرها 2347
الْ@@ 2346
صاح@@ 2346
الدنمارك 2345
رمضان 2345
قرة 2345
منصبه 2345
والتر 2345
غيرها 2344
شات 2343
الغر@@ 2342
الموجود 2342
افي@@ 2340
التشخيص 2338
الميث@@ 2338
غالباً 2338
38 2337
الشتاء 2337
النيل 2337
نعة 2337
فإنها 2335
تشبه 2334
منية 2334
التيار 2333
ولوجي 2333
ماساتشوستس 2332
وتي@@ 2332
المقام 2331
ناث 2331
البروتين 2330
الجزر 2330
جاكسون 2330
التصنيف 2329
وارد 2329
كنت 2328
هرة 2328
P 2327
الجزائري 2327
تحاد 2327
مقبرة 2327
أشعة 2326
الدخل 2326
الرسوم 2326
تجارب 2326
جبهة 2326
سيرة 2326
آذار 2324
الكنائس 2324
ةٌ 2324
لتصبح 2324
النمط 2323
سلا 2323
المعنى 2322
طراز 2322
فترات 2322
فلور@@ 2322
أساسية 2321
جاءت 2321
للولايات 2321
E 2320
اعتبارًا 2318
البحري 2318
وخسر 2318
التنظيم 2317
وقية 2317
الكل@@ 2316
مرتبطة 2316
لدراسة 2315
الخصائص 2314
بتون 2314
اجي 2313
ألا@@ 2312
الكلمات 2312
بسهولة 2312
بنتيجة 2312
الذهبي 2311
المدير 2310
الموافقة 2310
ظاه@@ 2310
مشرو@@ 2310
خرية 2309
جهود 2307
ريش 2307
عر 2307
تدعى 2305
تعليم@@ 2305
us 2304
العمارة 2304
الكويتي 2304
بقوة 2304
رضي 2304
كسي 2304
نبات 2304
الأطراف 2303
اللغ@@ 2303
المقدسة 2303
طبيعي 2303
ادر 2302
تخذ 2302
لمنع 2302
ورغم 2301
الياباني 2300
الانتقال 2299
المحافظين 2299
الملح@@ 2299
خام@@ 2299
ديان 2299
لأفضل 2299
كهرب@@ 2298
مقد@@ 2298
on 2297
أسود 2297
أكيد 2297
بلي 2297
خم 2297
الك 2296
المعايير 2296
اقتر@@ 2295
الصيف 2295
صنعاء 2295
واحدًا 2295
اكا 2294
سعر 2294
أسابيع 2293
المغربي 2292
عائلته 2292
n 2291
فلوريدا 2291
المعالجة 2290
بني@@ 2289
العائ@@ 2288
العضلات 2288
النف@@ 2287
بسي@@ 2287
محطات 2287
ألبرت 2286
ابها 2286
صور@@ 2286
الشريف 2285
لإعادة 2285
ائهم 2284
الأجن@@ 2283
هيدرو@@ 2283
تقي@@ 2282
اتخاذ 2281
البريد 2281
مسألة 2281
العض@@ 2280
عضوا 2280
مونت@@ 2280
بوي 2279
فيلي@@ 2279
ضعي@@ 2278
الذهب 2277
النصوص 2277
الفض@@ 2276
الفيدرالية 2276
الكلاسيكية 2276
شراء 2275
أين 2274
البكالوريوس 2274
غادر 2274
نور 2274
وست 2274
تايلور 2273
سجلت 2273
ترجم 2272
والز@@ 2272
3.@@ 2271
تماما 2271
رج 2271
إيجاد 2270
ثالث 2270
هونغ 2270
للحزب 2269
ومنتخب 2269
رسون 2268
ستخدم 2268
التخطيط 2267
نفسي 2267
النقاد 2266
وريين 2266
خذ 2265
عيين 2265
قام@@ 2265
والتع@@ 2265
الأردنية 2264
الغلاف 2264
سؤ@@ 2264
I 2263
الأش@@ 2263
سرى 2263
إثر 2261
روسية 2261
شاه 2261
J@@ 2259
البنك 2259
للرجال 2259
الكات@@ 2258
أت@@ 2257
سطات 2257
محلية 2257
سارة 2256
غاز 2256
ويقع 2256
التحديد 2255
وتر 2254
لاح 2253
التض@@ 2251
زاد 2251
طُ@@ 2251
الصلة 2250
ضخم 2250
خلف@@ 2249
فيينا 2249
بيات 2248
الانق@@ 2247
الغزو 2247
سكر 2247
للسي@@ 2247
الأمطار 2246
الجو 2246
ربي@@ 2246
D 2245
إجراءات 2245
الكيمياء 2245
تطبيقات 2245
حضور 2245
كبي@@ 2245
برتغ@@ 2244
18@@ 2243
42 2243
خرة 2243
الجامعية 2242
القتل 2242
الكام@@ 2242
المسيح 2242
النصر 2242
الهوية 2242
وبدأت 2242
وها 2242
2021 2241
أمثلة 2240
أقسام 2239
احتي@@ 2239
الناتجة 2239
ڤ@@ 2239
ة- 2238
قون 2238
أرسل 2237
المبكر 2237
ريون 2237
الوث@@ 2236
التاريخي 2235
رأ@@ 2235
1916 2234
تصف 2234
نماذج 2234
هيك@@ 2234
الأجنبية 2233
خوا@@ 2233
1913 2231
المشكلة 2231
الواق@@ 2231
بلدان 2231
تتألف 2231
دينية 2231
رئيسًا 2231
رته 2231
كير 2231
ناً 2231
وأم@@ 2231
آدم 2230
الافترا@@ 2229
المكتب 2229
مصنع 2229
ويت@@ 2229
سلبية 2228
مارات 2228
ناز@@ 2227
بريد 2226
بند@@ 2226
تعليمه 2226
ذن 2226
كانا 2226
هاء 2226
اعتزل 2225
العاملين 2225
ترى 2225
وعن 2225
ونتيجة 2225
الكثافة 2224
بجائزة 2224
تمر 2224
عودة 2224
الج 2223
روك 2222
اهم 2221
حصول 2221
مؤشر 2221
الأنسجة 2220
دوره 2220
تخصص@@ 2219
مشتركة 2219
قبال 2218
الابتدائية 2217
رمز@@ 2216
سابقا 2216
لاحقاً 2216
مضرب 2216
موضع 2216
أخيه 2215
استُ@@ 2215
عراض 2215
السوفيتية 2214
ديين 2214
زاوية 2214
ورن 2214
ومية 2214
يعقوب 2214
ومث@@ 2213
دني 2211
فيلادلفيا 2211
إصلاح 2210
بلقب 2210
زايد 2210
وجيزة 2210
الوا 2209
ولكن@@ 2209
amp 2208
الهيكل 2208
تربية 2208
التحقيق 2207
سها 2207
الرئة 2206
حاج@@ 2206
ميد@@ 2206
R 2205
بعده 2205
الجميع 2203
بقايا 2203
قررت 2203
الصدر 2202
رع@@ 2202
ولهم 2202
ضا 2201
عدا 2201
العام@@ 2200
العمو@@ 2200
للمركز 2199
يمور 2199
الخليفة 2198
العم@@ 2198
هزيمة 2198
والعديد 2198
أندية 2197
طرية 2197
فرج 2197
وسيا 2197
المستوط@@ 2196
الموافق 2196
بمساعدة 2196
دمج 2195
فح@@ 2195
محدودة 2195
وعضو 2195
أون@@ 2194
روبر@@ 2194
مائ@@ 2194
تبعد 2193
تحالف 2193
طلاع 2193
للمدينة 2193
195@@ 2192
ثلاثي 2192
إكس 2191
زف 2191
ممن 2191
الباحثين 2190
القيم 2190
1908 2189
النتيجة 2189
مترو 2189
الفنانين 2188
إنس@@ 2187
المستقلة 2187
النجم 2187
تعيينه 2187
دمان 2187
أسعار 2185
ئاب 2185
النجاح 2185
جميل 2185
دراجات 2185
قانونية 2185
الإع@@ 2184
المجر 2184
يوفر 2184
بلجيكا 2183
فاس@@ 2183
النهضة 2182
فيصل 2182
مكناس 2182
أدلة 2181
دن@@ 2180
قن@@ 2180
وير@@ 2180
السائل 2179
تسجي@@ 2179
السفلي 2178
املة 2178
ماي 2178
زًا 2177
فرت 2177
للمرأة 2177
ابا 2176
الاتحادية 2176
الكمبيوتر 2176
المخاطر 2176
عال 2176
المب@@ 2175
تح 2175
سكا 2175
نال 2174
الأشجار 2173
المنازل 2172
ناس@@ 2172
الحم@@ 2171
المجلة 2171
اعل@@ 2170
الأجزاء 2170
المسيحي 2169
آلية 2168
شراف 2168
طري 2168
غيرات 2168
لحقوق 2168
معرو@@ 2168
اعتبار 2167
دّ 2167
طار 2167
كتور 2167
وبري@@ 2167
الفكر 2166
بيض 2166
فون@@ 2166
كها 2166
17@@ 2165
الدف@@ 2165
السلو@@ 2164
اليه 2164
كد 2164
مقياس 2164
ينين 2164
تخزين 2163
حاجة 2163
مستقل 2163
بديل 2162
روسي 2162
والسي@@ 2162
وتعد 2162
تعرضت 2161
الطويلة 2160
جرائم 2160
فريد 2160
يعاني 2160
متق@@ 2159
وبل@@ 2159
ياته 2159
الرسالة 2157
العاشر 2157
تساعد 2157
الأحزاب 2156
ولل@@ 2156
الأخبار 2155
النازية 2154
جسر 2154
نسي@@ 2154
المتعددة 2153
سفي@@ 2153
نيه 2153
والتق@@ 2153
الأسواق 2152
الترتيب 2152
منص@@ 2152
يونغ 2152
مئات 2151
مشترك 2151
وفية 2151
السوفي@@ 2148
ليد 2148
أسيس 2147
القاضية 2147
حكومية 2147
مبادئ 2147
ناول 2147
ومو@@ 2147
L4 2146
إِ@@ 2146
ضباط 2145
للقوات 2145
الكحول 2144
بارة 2144
وسع 2144
بعثة 2143
الشهيرة 2142
الفرعية 2142
القارة 2142
سافر 2142
عاية 2142
للحكومة 2142
معبد 2142
كثيرًا 2141
ماة 2141
ينس 2141
الفن@@ 2140
وكتب 2140
المخرج 2139
بحوالي 2138
والمؤ@@ 2138
ءه 2137
ميلي@@ 2137
الاق@@ 2136
الدراسية 2136
المور@@ 2136
كافية 2136
أنطونيو 2135
تزوجت 2135
ديها 2135
معًا 2135
يانا 2135
سرعان 2134
كارلوس 2134
مئوية 2134
رسل 2133
زيرة 2133
أل 2132
انى 2132
مائة 2132
الأطلسي 2131
تبين 2130
تصمي@@ 2130
ثها 2130
L 2129
المخط@@ 2129
كشاف 2129
انيون 2128
التدري@@ 2127
وبسبب 2127
تستطيع 2126
تفاع 2126
شين@@ 2126
المجموع 2125
حجر 2125
الرياضة 2124
الكاملة 2124
الإذاعة 2123
العظام 2123
وعبد 2123
اتصالات 2122
مقابلة 2122
جائحة 2121
متن 2121
اتفاقيات 2120
انًا 2120
تايمز 2120
شرة 2120
فال@@ 2120
التغ@@ 2119
الطبقات 2119
أطلقت 2118
أندرو 2118
المهام 2118
دولي 2118
الموض@@ 2117
علن 2117
كبيرا 2117
كيز 2117
أب@@ 2116
ألكسندر 2115
ازي 2114
نظرة 2114
استقلال 2113
الأقصى 2113
نساء 2113
ئين 2112
سهل 2112
غالبية 2112
كوكب 2112
إدخال 2111
التطبيقات 2111
القادر 2111
بحاث 2111
جاي 2111
عنصر 2111
فوا 2111
الفري@@ 2110
والذين 2110
العدالة 2109
القصص 2108
صعوبة 2108
صفحة 2108
الدواء 2107
ق.م 2107
مبكر 2107
أقرب 2106
ألا 2106
المسي@@ 2106
سى 2106
كالي@@ 2106
مانشستر 2106
يقل 2106
الأشكال 2105
19@@ 2104
التركيبة 2104
العنص@@ 2104
المكت@@ 2103
الإداري 2102
الدوائر 2102
المجمع 2102
فتاة 2102
قدره 2102
64 2101
ابت 2101
اعدة 2101
افترا@@ 2101
السكنية 2101
العقل 2101
علان 2101
مقرها 2101
الإصلاح 2100
باف@@ 2100
ينا@@ 2099
التونسي 2098
الرقمية 2098
جنيه 2098
قى 2098
ماك 2098
هورة 2098
روض 2097
إنهاء 2096
الجماعية 2096
الجميلة 2096
بابا 2096
دائمًا 2096
ملاح@@ 2096
ومحمد 2095
ورم 2094
الأبعاد 2093
الرس@@ 2093
شائ@@ 2093
شيخ 2093
وهات 2093
إدو@@ 2092
الوادي 2091
ايت 2091
ديز 2091
لاحات 2091
وود 2091
ازية 2090
الصوتية 2090
ومخرج 2090
600 2089
فات@@ 2089
باغ@@ 2088
تنتمي 2088
صيد 2088
وديو 2088
الحوا@@ 2087
النس@@ 2087
جًا 2087
ليك 2087
إليزابيث 2086
الناج@@ 2086
محدد 2086
دامة 2085
لحماية 2085
القائم 2084
يرها 2084
T 2083
الرحم 2083
السياسات 2083
الكومي@@ 2083
بيرغ 2083
دام@@ 2083
يُعتبر 2083
الصار@@ 2082
سجن 2081
الباب@@ 2080
سانتا 2080
عضوية 2080
اللواء 2079
حققت 2079
13.@@ 2078
التعرض 2077
القاد@@ 2077
خمس@@ 2077
معة 2076
1911 2075
اكس 2075
الجماعات 2075
صنا@@ 2075
القضائية 2074
قاموا 2074
واج 2074
جَ@@ 2073
إخ@@ 2072
اكم 2072
قوا 2072
كانية 2072
للعديد 2072
للكريكت 2072
يؤثر 2072
إعداد 2071
المكتبة 2071
سلي@@ 2071
طبقات 2071
° 2070
إغلاق 2070
خي 2070
محركات 2070
مركبات 2070
ةُ 2069
جريمة 2069
مخط@@ 2069
مارة 2068
استي@@ 2067
حديث 2067
ؤدي 2066
السينمائي 2066
تخطيط 2066
تقري@@ 2066
نك 2066
وعالم 2066
المتحركة 2065
لعلاج 2064
العدوى 2063
كاتبة 2063
1905 2062
أداة 2062
الفيزياء 2062
درو 2062
وضح 2061
والولايات 2060
الحيوي 2059
بيون 2059
افتتا@@ 2058
البروتينات 2058
أستاذ@@ 2057
الأكسجين 2057
بفضل 2057
صر@@ 2057
عقود 2057
اليمين 2056
تكنولوجيا 2056
جاج 2056
حفظ 2055
وثيقة 2055
الحرارية 2054
الصخور 2053
تشاب@@ 2053
جامعي 2053
استجابة 2052
القل@@ 2052
خصوصا 2052
يهود 2052
الأمين 2051
عضاء 2051
موريس 2051
الأفريقي 2050
هود 2050
أخبار 2049
للإحصاء 2049
موافقة 2049
اوا 2048
وبحلول 2048
عرض@@ 2046
بسيطة 2045
فار 2045
ميين 2045
اجات 2044
والاجتماعية 2044
السيارة 2043
طاق@@ 2043
مجة 2043
تبط 2042
الأفارقة 2041
للجيش 2041
معاد@@ 2041
الهولندية 2040
تغي@@ 2040
جوانب 2040
يساعد 2040
السلا@@ 2039
تحصل 2039
راتيجية 2039
مايك 2039
منا 2039
اريس 2038
البالغ 2038
التفا@@ 2038
الثدي 2038
وائية 2038
تسعة 2037
تور 2037
كال 2037
39 2036
M 2036
ثمار 2036
فنلندا 2036
مجد@@ 2036
أحد@@ 2035
عنف 2035
كيت 2035
مجتم@@ 2035
اص 2034
المساحة 2034
تيد 2033
حان 2033
للطاقة 2033
ارته 2032
الساح@@ 2032
فيكتوريا 2032
مالا 2032
نصر 2032
احات 2031
بارية 2031
تخرج@@ 2031
يقال 2031
سلي 2028
سيرته 2028
لبناء 2028
ملوك 2028
الأخلا@@ 2027
القاطنين 2027
بلية 2027
قوم 2027
وائل 2027
ابق 2026
السود 2026
غيير 2026
والدتها 2026
َّا 2026
المركبة 2025
ذور 2025
قاسم 2025
أية 2024
القطع 2024
المتص@@ 2024
المستمر 2024
ساي@@ 2024
احتلال 2023
نخ@@ 2023
امت 2021
خفاض 2021
لاعب@@ 2021
للكتلة 2021
النقد 2020
تياز 2020
جت 2020
رق 2020
وتست@@ 2020
التغيير 2019
بدلًا 2019
بنات 2019
تجميع 2019
وطة 2019
وظي@@ 2019
أراد 2018
افه 2018
الأند@@ 2018
مركبة 2018
معر@@ 2018
X 2017
أعد@@ 2017
بعينيات 2017
زيمة 2017
قِ@@ 2017
السلع 2016
بروتين 2015
الفرنسيين 2014
الممثلة 2014
جيب 2014
ينيين 2014
التقارير 2013
الصيد 2013
ضبط 2013
وور@@ 2013
الرب@@ 2012
توني 2012
قرن 2012
وإعادة 2012
التحول 2011
الدفع 2011
تدى 2011
المول@@ 2010
طيلة 2010
غضون 2010
لواء 2010
متم@@ 2010
الدما@@ 2009
جعفر 2009
دعا 2009
شاب 2009
معي@@ 2009
العدل 2008
رأى 2008
للتع@@ 2008
يشبه 2007
أفغانستان 2006
الرئ@@ 2006
المقرر 2006
اول 2006
لفت 2006
هى 2006
أوهايو 2005
الأزرق 2005
وُلد 2005
1909 2004
السكك 2004
رياض@@ 2004
تضمنت 2003
للمر@@ 2003
ألك@@ 2002
العادية 2002
شيوعًا 2002
يط@@ 2002
الإجه@@ 2001
التنفس 2001
ودي 2001
49 2000
جهات 2000
الرسم 1999
باتجاه 1999
شمس 1999
غال 1999
مشاه@@ 1999
نموذ@@ 1999
الخلي@@ 1998
أقوى 1997
يتمكن 1997
اجتماعي 1996
متط@@ 1996
منفصلة 1996
يشار 1996
تفاضة 1995
تِ@@ 1995
ساس@@ 1995
صباح 1995
الاتجاه 1994
الغذائي 1994
تأتي 1994
وبشكل 1994
جمه@@ 1993
نباتي 1992
هوب@@ 1992
ستا 1991
ؤه 1990
ستان@@ 1990
كميات 1990
وغرا@@ 1990
الاستعمار 1989
الرياح 1989
دعوة 1989
سار 1989
مرضى 1989
عث@@ 1988
تراجع 1987
وكما 1987
الاحتي@@ 1985
الواحدة 1985
الوفيات 1985
بْ@@ 1985
جذب 1984
زيت 1984
مكت@@ 1984
ميلر 1984
الطي@@ 1983
تاريخها 1983
تحتاج 1983
ربيع 1983
عرضة 1983
الشائعة 1982
اوف 1982
قابل 1982
أخت@@ 1981
بالب@@ 1981
بالضربة 1981
هارفارد 1981
يمتد 1981
التحتية 1980
خري 1980
شارة 1980
التعرف 1979
بدرجة 1979
يومًا 1979
شخصًا 1978
ستيوارت 1977
الخضراء 1976
رفض@@ 1976
كاز@@ 1976
كثرة 1976
ّع 1976
القاضي 1975
صفوف 1975
صي 1975
كيلي 1975
لولاية 1975
أخلا@@ 1974
انفص@@ 1974
مثلاً 1974
250 1973
رادات 1973
التحر@@ 1972
الأج@@ 1971
والعمل 1971
إله 1970
العاط@@ 1970
القواعد 1970
بام@@ 1970
معارضة 1970
وقت@@ 1970
المنظ@@ 1969
يدي 1969
قرط@@ 1968
زن@@ 1967
أنثى 1966
دورات 1966
صفة 1966
كته 1966
ونس 1966
يهدف 1966
أبو@@ 1965
الحاج 1965
الغز@@ 1965
بروس 1965
تمي@@ 1965
جانية 1965
سوري 1965
بران@@ 1964
ثناء 1964
أطل@@ 1962
الصرف 1962
مائية 1962
الشعوب 1961
المعادن 1961
روايات 1961
مكونات 1961
الأجسام 1960
ديدة 1960
ديلات 1960
غم 1960
يجري 1960
أوري@@ 1959
مثلت 1959
واحي 1959
القليل 1958
توجيه 1958
طقة 1958
ولاً 1958
الحر 1957
الوح@@ 1957
ثارة 1957
مناه@@ 1957
نوب@@ 1957
اتين 1956
السابعة 1956
العلامات 1956
المنط@@ 1956
ارو 1955
الكونغرس 1955
حافظ@@ 1955
التجربة 1954
أصوات 1953
العمي@@ 1953
اليس 1953
مويل 1953
الخلا@@ 1952
المتوسطة 1952
تجه 1952
تشارك 1952
روية 1952
شت 1951
أولاً 1950
عامر 1950
نشاء 1950
نيا 1950
فردي 1949
d 1948
ذب 1948
طيع 1948
ظهار 1948
وريات 1948
الأسماء 1947
الإقليم 1947
البوذية 1947
الين@@ 1947
طوي 1947
تاف@@ 1946
صحية 1946
أكدت 1945
أوروب@@ 1945
تلال 1945
توحيد 1945
يسجل 1945
الويب 1944
مساح@@ 1944
اراً 1943
علية 1943
متلكات 1943
ثلاثية 1942
يّ@@ 1942
بالتعاون 1941
رومانيا 1941
غن 1941
التي@@ 1940
الجيولوج@@ 1940
بولي@@ 1940
1906 1939
ضاف 1939
كيب 1939
جماعات 1938
هز@@ 1938
المراكز 1937
حدد 1937
خطاب 1937
ظلت 1937
95 1936
المنخفضة 1936
بعي@@ 1936
فيهم 1936
وقبل 1936
زاب@@ 1935
لتطوير 1935
ماذا 1935
اليمنى 1934
جامعات 1934
القن@@ 1933
بدل 1933
ضيق 1933
قاط 1932
ولوج@@ 1932
المفهوم 1931
عددًا 1931
أثار 1930
السلاح 1930
تقي 1930
جيا 1930
George 1929
آلات 1929
800 1928
أسو@@ 1928
التلفزيونية 1928
الرومان@@ 1928
شملت 1928
طبية 1928
فروع 1928
للاتحاد 1928
الألوان 1927
التدخل 1927
التعريف 1927
عمق 1927
وأص@@ 1927
دائما 1926
زرع 1926
سيات 1926
شجرة 1926
المهاجرين 1925
الناش@@ 1925
كلي 1925
لمجموعة 1925
يحاول 1925
إيطالي 1924
المحليين 1924
بالط@@ 1924
سلطات 1924
مجرة 1924
نفسية 1924
أزمة 1923
الآداب 1923
دوب@@ 1923
سفن 1923
بوصف@@ 1922
ستكون 1922
ارعة 1921
شائعة 1921
عالي 1921
السماح 1920
العبيد 1920
الغرض 1920
المشاة 1920
ضرورة 1920
فيتنام 1920
كوف 1920
لدرجة 1920
وجنوب 1920
وده 1919
احية 1918
توى 1918
السياحة 1917
حرف 1917
إعطاء 1916
الصوديوم 1916
بعدم 1916
واجهة 1916
30@@ 1915
استعادة 1915
التسويق 1915
الكرا@@ 1914
كلما 1914
سيًا 1913
والمرا@@ 1913
44 1912
دائم 1911
راض 1911
ستيف 1911
أندرسون 1910
الانتشار 1910
البور@@ 1910
الطالب 1910
العدو 1910
تج 1910
حافظ 1909
حديثة 1909
رال 1909
الجينات 1908
افا 1907
العد@@ 1907
بالخ@@ 1907
وزيادة 1907
41 1906
أنماط 1906
البرتغ@@ 1906
اللق@@ 1906
المحي@@ 1906
الهيدرو@@ 1906
إنتاجه 1905
الداخل 1905
الزاوية 1905
السباق 1905
بادة 1905
وأحي@@ 1905
U@@ 1904
الاعتبار 1904
بعيد 1904
ويجب 1904
الإله 1903
الثلاث@@ 1903
طاع 1903
لاز@@ 1903
القرا@@ 1902
راضي 1902
عرضه 1902
الأدوات 1901
الحاضر 1901
الخيرية 1901
الموظفين 1901
والأربعين 1901
ارتبا@@ 1900
المقدمة 1900
بيل@@ 1900
تدعم 1900
سير@@ 1900
محاولات 1900
85 1899
سائل 1899
عدن 1899
تردد 1898
مارسة 1898
مهنة 1898
هاي 1898
قصيدة 1897
أبيض 1896
السريرية 1896
المائة 1896
يورو 1896
الخز@@ 1895
تكري@@ 1894
لإنشاء 1894
لتلك 1894
لمدينة 1894
لُ@@ 1894
آب 1893
الاتفاق 1893
الكلام 1893
واريخ 1893
F 1892
بصفة 1892
رْ@@ 1892
شون 1892
اليهودي 1891
تموز 1891
شان 1891
لوف 1891
بعض@@ 1890
نْ@@ 1890
اشي 1889
الإمبراط@@ 1889
الثلا@@ 1889
الحضرية 1889
جناح 1889
راق 1889
المسافة 1888
علمي 1888
لند@@ 1888
هاب@@ 1888
نفس@@ 1887
الاستجابة 1886
اتٍ 1885
الشديد 1885
دعم@@ 1885
ضه 1885
إسرائ@@ 1884
تفق 1884
1907 1883
56 1883
المغناطيسي 1883
استن@@ 1882
مخطط 1882
البة 1881
جراء 1881
ارتك@@ 1880
الجناح 1880
بشكلٍ 1880
تيم 1880
طلقت 1880
— 1880
أوكرانيا 1879
ثمان@@ 1879
لاخت@@ 1879
والبي@@ 1879
يمتلك 1879
اتخ@@ 1878
ثار 1878
جيمي 1878
حصار 1878
قيات 1878
الفم 1877
مهام 1877
1900 1876
اختي@@ 1876
يصف 1876
يُعد 1876
أغلبية 1875
السماء 1875
مسقط 1875
أنشأت 1874
القريبة 1874
تاز 1874
رول 1874
مسيرة 1874
أسماك 1873
أونتاريو 1873
باتريك 1873
حزيران 1873
دوس 1873
ضغ@@ 1873
المحاكم 1872
المعدنية 1872
فعلى 1872
البروتست@@ 1871
الحركات 1871
مالة 1871
منصور 1870
الجمعة 1869
داخلية 1869
خطأ 1867
ويب 1867
إث@@ 1866
إمارة 1866
الجودة 1866
المناسبة 1866
مرمى 1866
47 1865
إذ@@ 1865
أشجار 1864
الروايات 1864
وجهات 1864
أظهر 1863
النظم 1863
بقيت 1863
جزائ@@ 1863
سعة 1863
المتط@@ 1862
شاء 1862
ماد 1862
X@@ 1861
التقنيات 1861
الفضل 1861
ميزات 1861
الإصدار 1860
الكيميائي 1860
طوكيو 1860
فريق@@ 1860
لعب@@ 1860
H 1859
العملاء 1859
بنفسه 1859
الصعب 1858
تفظ 1858
توف@@ 1858
أعقاب 1857
تملك 1857
يشارك 1857
الممارسة 1856
تجة 1856
دورا 1856
زالة 1856
يمث@@ 1856
المبادئ 1855
شمل 1855
فرص 1855
هري 1855
شريك 1854
طم 1854
المراجع 1853
تشجيع 1853
كريستيان 1853
أرسل@@ 1852
أسست 1852
رسائل 1852
مطلع 1852
القادة 1851
اليون 1851
ختلف 1851
طرا@@ 1851
متوا@@ 1851
الكهربائي 1850
النقاط 1850
الهاتف 1850
بنحو 1850
غهام 1850
كيميائي 1850
ومق@@ 1850
الأندية 1849
ضخمة 1849
رواد 1848
الفقر 1847
ثبت 1847
كثيراً 1847
مؤلفاته 1847
يتان 1847
الحراري 1846
الموسيقي 1846
حصن 1846
قرابة 1846
لاع 1846
ضع@@ 1845
وتعل@@ 1845
وغالبًا 1845
أيار 1844
التنفيذ 1844
السنين 1844
كتبها 1844
اختلاف 1843
ارتفاع@@ 1843
سعى 1843
نسبيًا 1843
نوا 1843
الهيدروجين 1842
بالعمل 1842
تطوي@@ 1842
مسا@@ 1842
ميلان 1842
ّب 1842
أعيد 1841
الربيع 1841
المؤلف 1841
بوش 1841
مؤس@@ 1841
1904 1840
البيئي 1840
الرئاسة 1840
لتها 1840
لعدم 1840
بدوره 1839
تتمتع 1839
الرق@@ 1838
المدرب 1838
مكسيكي 1838
نشر@@ 1838
43 1837
الاعتماد 1837
التقلي@@ 1837
المخدرات 1837
وامت@@ 1837
بلان@@ 1836
تركيب 1836
حوض 1836
مدادات 1836
مرش@@ 1836
مناقشة 1836
وذكر 1836
ولهذا 1836
إك@@ 1835
اسم@@ 1835
t 1833
الفيروسات 1833
شكلت 1833
قصد 1833
ميكان@@ 1833
تحدد 1832
خطاء 1832
صرا@@ 1832
والدين 1832
استمرار 1831
واط 1831
David 1830
عربي 1830
الأوعية 1829
وأول 1829
بورت 1827
فتاء 1827
شروط 1826
الشيء 1825
دقة 1825
فكانت 1825
روج 1824
لمجلس 1824
خار 1823
أعوام 1822
انتهى 1822
194@@ 1821
الحربية 1821
المشاركين 1821
الده@@ 1820
الاختلافات 1819
تقدر 1819
الشرعية 1818
المتو@@ 1818
خروج 1818
اخر 1817
منه@@ 1817
استئ@@ 1816
تخفيف 1816
تيار 1816
إسحاق 1815
الجريمة 1815
المناخية 1815
ساس 1815
فُ@@ 1815
محاض@@ 1815
مريض 1815
خسر 1814
الفات@@ 1813
مره 1813
يمت@@ 1813
إسك@@ 1812
الآلهة 1812
تطورت 1812
لإدارة 1812
اضطرابات 1811
الجلي@@ 1811
الوط@@ 1811
للف@@ 1811
الناصر 1810
الوزير 1810
53 1809
كينغ 1809
يدخل 1809
الاختبارات 1808
المحتوى 1808
المساه@@ 1808
خوة 1808
شه 1808
46 1807
المسلمون 1807
الهولندي 1807
طلبات 1807
مقاب@@ 1807
استر@@ 1806
الجراحة 1806
بمعدل 1806
ديب 1806
سيدني 1806
أهمها 1805
المرمى 1805
الذات 1804
ديس 1804
متف@@ 1804
البريطانيين 1803
الترجمة 1803
للمح@@ 1803
الشهر 1802
سياق 1802
شاشة 1802
الاصطنا@@ 1801
الرك@@ 1801
المرو@@ 1801
ملية 1801
موجود 1801
دورها 1800
سيل@@ 1799
ماس 1799
أرض@@ 1798
انهيار 1798
درا 1798
زين@@ 1798
موية 1798
نغ 1798
52 1797
http 1797
الخل@@ 1797
انح@@ 1797
غياب 1797
خرا@@ 1796
فيفة 1796
للحفاظ 1796
مشابهة 1796
تُعرف 1795
اظ 1794
الاستثمار 1794
بلوم 1794
جاز 1794
رّ@@ 1794
غلي@@ 1794
p 1793
افت 1793
الإحص@@ 1793
كًا 1793
الاث@@ 1792
ضمان 1792
ارف 1791
التشريعي 1791
المراحل 1791
لح 1791
المعارك 1790
التشي@@ 1789
المباشرة 1789
سنتين 1789
صلاة 1789
مازي@@ 1789
نافس 1789
ادين 1788
الفائ@@ 1788
شيا 1788
علي@@ 1788
بقيمة 1787
مقات@@ 1787
ملح@@ 1786
وجين 1786
وقوع 1786
حضارة 1785
وعد@@ 1785
يث 1785
الخمسة 1784
تُستخدم 1784
راز 1784
عضواً 1784
مكون 1784
الشبكات 1783
ترامب 1783
ذين 1783
التقرير 1782
المعاصرة 1782
صرح 1782
مشاهدة 1782
والخدمات 1782
وَّ@@ 1782
أسي@@ 1781
أنشئت 1781
الأسلوب 1781
الريفية 1781
المالي 1781
محمية 1781
تمان 1780
جدول 1780
رياضي 1780
وقيل 1780
الحكومات 1779
عمة 1779
كور 1779
مصرية 1779
وإن@@ 1779
وخ 1779
المري@@ 1778
بالذ@@ 1778
وتا 1778
الفلبين 1777
دينام@@ 1777
رأس@@ 1777
انون 1776
ثابتة 1776
حراسة 1776
خرى 1776
نيوزلندي 1776
اقتصادي 1775
خرجت 1775
عاء 1775
الثقافات 1774
رأسه 1774
رئيسة 1774
ريه 1774
اؤه 1773
رع 1773
قطار 1773
ويس 1773
b 1772
يء 1772
أوف 1771
نام 1771
وفد 1771
الأستاذ 1770
رسام 1770
ثانوية 1769
ربا 1769
قطر@@ 1769
ماكس 1769
يعطي 1769
الحرس 1768
الغدة 1768
بعدة 1768
ديون 1768
الاغ@@ 1767
متطلبات 1767
وإنما 1767
بز 1766
لوت 1766
ذيب 1765
فإذا 1765
هاد@@ 1765
يتحدث 1765
أبن@@ 1764
جراحة 1764
c 1763
تواصل 1763
توسيع 1763
شعب@@ 1763
المطار 1762
تقدات 1762
ليه 1762
ميلا@@ 1762
تاجر 1761
المبار@@ 1760
المكونات 1760
يعر@@ 1760
1- 1759
الفت@@ 1759
الجامع 1758
الأرثوذكسية 1757
العسك@@ 1757
المعمارية 1757
راجع 1757
غور 1757
هامة 1757
تنا 1756
شين 1756
طون 1756
كتبه 1756
ينج 1756
أوق@@ 1755
ائفة 1755
سمية 1755
مرتبة 1755
www.@@ 1754
بإنشاء 1754
الفور 1753
ديرة 1753
رفي@@ 1753
عسك@@ 1753
موسيقية 1753
\ 1752
بأن@@ 1752
وليامز 1752
يحتاج 1752
باعة 1751
شاركة 1751
وابن 1751
وبد@@ 1751
يده 1751
1901 1750
السك@@ 1750
المحطة 1750
تخت@@ 1750
Robert 1749
اجتماع@@ 1749
الحضارة 1749
المثل 1749
تعري@@ 1749
ومد@@ 1749
الأض@@ 1748
الانتهاء 1747
القول 1747
الملوك 1747
قم 1747
ليني 1747
أعظم 1746
الشخصي 1746
تجاوز 1746
نظرا 1746
واب@@ 1746
وفو 1746
الكري@@ 1745
المجتم@@ 1745
المسار 1745
درست 1745
سيارات 1745
ميدان 1745
is 1744
مسلم 1744
صنف 1743
لأسباب 1743
التنفيذية 1742
ديو 1741
غتون 1741
الشريعة 1740
هنالك 1740
وريد 1740
اقترا@@ 1739
التقسيم 1739
المخابرات 1739
طاقم 1739
ومحامي 1739
أنفاق 1738
الخطاب 1738
دنا 1738
لوصف 1738
ووص@@ 1738
حيثُ 1737
منصة 1737
أعمالها 1735
التكلفة 1735
لاحية 1735
هج 1735
120 1734
العقلية 1734
دريس 1734
فردة 1734
للد@@ 1734
ليم 1734
وابن@@ 1734
أحيانا 1733
الأهمية 1733
مترا 1733
يُعتقد 1733
اجية 1732
الهجمات 1732
ديفيس 1732
سيمات 1732
ادق 1731
يعملون 1731
1903 1730
الوكالة 1730
دعاء 1730
كوت@@ 1730
التقى 1729
الوس@@ 1729
بيني 1729
العرقي 1728
ذاك 1728
اللاجئين 1727
النسائية 1727
سمه 1727
لتقديم 1727
مارسات 1727
وقامت 1727
يجيد 1727
يُستخدم 1727
اءة 1726
التنظ@@ 1726
عبيد 1726
لدي@@ 1726
يرس 1726
الأوق@@ 1725
اهتم@@ 1725
عادل 1725
متكر@@ 1725
أحكام 1724
الجهود 1724
سعودي 1724
مبراطورية 1724
يتراوح 1724
أثينا 1723
اعتبر 1723
تطبي@@ 1723
رضا 1723
مؤرخ 1723
متابعة 1723
ويح@@ 1723
السكر 1722
ايات 1722
جنة 1722
الجري@@ 1721
القرون 1721
الورم 1721
كفاءة 1721
البري@@ 1720
جنا@@ 1720
كري 1720
54 1719
الرح@@ 1719
تجار@@ 1719
وشي@@ 1719
ومان 1719
الصناعات 1718
الموقف 1718
حقيقية 1718
داود 1718
ذاتية 1718
ووضع 1718
الدب@@ 1717
ساو 1717
to 1716
التقاليد 1716
دِ@@ 1716
قضى 1716
أسبوع 1715
السج@@ 1715
تشف 1715
سحب 1715
يدع@@ 1715
فنية 1714
نيك 1714
والثقافة 1714
وقتها 1714
الجهد 1713
المتاحة 1713
الاستعمارية 1712
رشيد 1712
شاهد 1712
ندق 1712
الشيوعية 1711
العامل 1711
شام@@ 1711
شح@@ 1711
d@@ 1710
الأردني 1710
الدعوة 1710
الصغرى 1710
الفتيات 1710
اللاه@@ 1710
كسية 1710
هوارد 1710
إسب@@ 1709
استبدال 1709
اعلات 1709
ذاتها 1709
الأهلي 1708
المأ@@ 1708
الياب@@ 1708
بعينات 1708
ستن 1708
مهما 1708
جال 1707
طف 1707
كتوراه 1707
للإشارة 1707
محر@@ 1707
مخاطر 1707
نسخ 1707
ومركز 1707
الكاثوليك 1706
المقالات 1706
الأوك@@ 1705
الصيغة 1705
دمت 1705
ستار@@ 1705
شُ@@ 1705
ويقول 1705
يتي 1705
شقي@@ 1704
غرين 1704
مسيرتها 1704
‌ 1704
اؤها 1703
المؤرخين 1703
الهض@@ 1703
رومان@@ 1703
اءً 1702
تعالى 1702
صياغة 1702
طرت 1702
القادمة 1701
تلى 1701
شير@@ 1701
an 1700
الخمس@@ 1700
جير 1700
رحلات 1700
اصط@@ 1699
الحقبة 1699
دال 1699
رأي 1699
قانوني 1699
واني 1699
الأزمة 1698
الدرافت 1698
المتقدمة 1698
المشرو@@ 1698
باستمرار 1698
جاي@@ 1698
كينيدي 1698
مستقبل 1698
يمه 1698
قريبة 1697
الماضية 1696
بضعة 1696
ذكره 1696
المظ@@ 1695
الوزارة 1695
قلبية 1695
نجليزية 1695
أمل 1694
إلينوي 1694
تلفزيونية 1694
سمع 1694
موجة 1694
ادو 1693
المنح@@ 1693
مكسي@@ 1693
ملاحظة 1693
ناية 1693
وّل 1693
e@@ 1692
درت 1692
عف 1692
مفتوحة 1692
المو@@ 1691
دث@@ 1691
سح@@ 1691
والتنمية 1691
اشترا@@ 1690
شق@@ 1690
مدين@@ 1690
يمها 1690
الزمني 1689
سبت 1689
شائع 1689
القرارات 1688
بدورها 1688
بقى 1688
دران 1688
وتضم 1688
2- 1687
جغرا@@ 1687
سيب 1687
مساه@@ 1687
يسوع 1687
الألم 1686
النسيج 1686
رؤساء 1686
رايت 1686
الرصاص 1685
طيران 1685
1898 1684
اختبارات 1684
تجري@@ 1684
لزيادة 1684
الرسائل 1683
أفريقي 1682
الطلبة 1682
الميدالية 1682
نائية 1682
نسون 1682
وفيات 1682
أدب 1681
صلات 1681
واهر 1681
يي 1681
هلاك 1680
وحي@@ 1680
النفايات 1679
سترا@@ 1679
كله 1679
أمور 1678
تحقق 1678
تشرة 1678
تناسب 1678
النماذج 1677
تغطي 1677
وإدارة 1677
1902 1676
حلقات 1676
مترًا 1676
آث@@ 1675
تفوق 1675
رسميا 1675
فقات 1675
وث 1675
التها 1674
الحشرات 1674
تيبة 1674
جهد 1674
حارس 1674
خلية 1674
كولن 1674
المادية 1673
المباريات 1673
تيا 1673
صلا@@ 1673
ممكن 1673
منخفض 1673
تفاصيل 1672
فرانسيس 1672
51 1671
الخض@@ 1671
الوظيفة 1671
صاص 1671
عرضت 1671
فوج@@ 1671
وقعة 1671
الفلك 1670
بنيت 1670
تكاليف 1670
مكانة 1670
الجسيمات 1669
تأثيرات 1669
فرعية 1669
مقالات 1669
الأجانب 1668
الصادر 1668
النص@@ 1668
ذكور 1668
روح@@ 1668
يتمتع 1668
أسرع 1667
شَ@@ 1667
كيك 1667
.com 1666
خور 1666
أحمر 1665
تجنب 1664
ضحايا 1664
ممة 1664
193@@ 1663
آنا 1663
إضاف@@ 1663
كرب@@ 1663
متخصصة 1663
موسمين 1663
نزي 1663
الفص@@ 1662
المطلوبة 1662
النشر 1662
الوجود 1662
حيوان 1662
راج 1662
الضر@@ 1661
تُعتبر 1661
سائر 1661
صع@@ 1661
الأندلس 1660
التطوير 1660
الروح 1660
الما 1660
شيئ@@ 1660
فعالة 1660
يتك@@ 1660
يحد@@ 1660
الضباط 1659
دلي 1659
سنت 1659
عارضة 1659
كولوم@@ 1659
ؤها 1658
الشرف 1658
اليوناني 1658
برازيلي 1658
بكلية 1658
زز 1658
فني 1658
وعاد 1658
ويعتقد 1658
العضل@@ 1657
محاك@@ 1657
وياً 1657
الواضح 1656
يأ@@ 1656
الأيمن 1655
الحدي@@ 1655
دوغلاس 1655
ويًا 1655
الره@@ 1654
ديمقراطية 1654
اقتصادية 1653
غاية 1653
لأن@@ 1653
وانات 1653
التوجه 1652
ذى 1652
رخ 1652
فندق 1652
نحن 1652
الباحثون 1651
السبا@@ 1651
وبلغت 1651
وبناء 1651
84 1650
ناطيسية 1650
هجمات 1650
أبي@@ 1649
دنية 1649
صراع 1649
ينما 1649
الأسد 1648
عنا@@ 1648
72 1647
ارهم 1647
تاريخه 1647
ساو@@ 1647
عتبر 1647
الصلبة 1646
حكمه 1646
زائ@@ 1646
عمارة 1646
يرن 1646
26@@ 1645
الأسطول 1645
حلة 1645
عرق 1645
ونشر 1645
الملابس 1644
الهامة 1644
تجار 1644
عمومًا 1644
تصور 1643
23@@ 1642
احتمال 1642
بعث 1642
تسون 1642
سًا 1642
التغيرات 1641
المذهب 1641
جواز 1641
درالية 1641
محور 1641
وأستاذ 1641
وسية 1641
ألين 1640
الاحترا@@ 1640
تميز@@ 1640
وتسمى 1640
نهج 1639
وأه@@ 1639
ارك 1638
السويدية 1638
بنظام 1638
قات@@ 1638
وفرنسا 1638
c@@ 1637
حيين 1637
للتعليم 1637
مغادرة 1637
هت 1637
وتطوير 1637
إقلي@@ 1636
اؤ@@ 1636
صدار 1636
فيك 1636
مّ@@ 1636
نيفة 1636
يوود 1636
× 1635
الصباح 1635
بيري@@ 1634
ربين 1633
العُ@@ 1632
بوز@@ 1632
عراق 1632
ماليزيا 1632
ملي 1632
وأف@@ 1632
واستخد@@ 1632
آخ@@ 1631
اليسار 1631
سخ@@ 1631
الساحلية 1630
العادة 1630
العرقية 1630
فرجينيا 1630
ليبر@@ 1630
ألبوم@@ 1629
ازد@@ 1629
امنة 1629
جزي@@ 1629
واح 1629
أفلا@@ 1628
البصرة 1628
حينما 1628
يمية 1628
وطن 1627
ينظر 1627
جنرال 1626
سيمون 1626
فلسط@@ 1626
لوث 1626
مسؤولية 1626
يملك 1626
انضمام 1625
فضلاً 1625
استث@@ 1624
الثقة 1624
الزيتون 1624
السنوي 1624
عطاء 1624
كريم 1624
لط 1624
وبا 1624
وتار@@ 1624
حاً 1623
حبي@@ 1623
شرط 1623
لفزيون 1623
التأثيرات 1622
الخطة 1622
عْ@@ 1622
مستخد@@ 1622
إيجاب@@ 1621
الأزواج 1621
تميزة 1621
أبد@@ 1620
اقد 1620
ذاكرة 1620
اعتمد 1619
خطيرة 1619
رص@@ 1619
أوبلاست 1618
ضًا 1618
عشرات 1618
ى@@ 1618
ألان 1617
الأميرة 1617
المسب@@ 1617
تُعد 1617
المناسب 1616
معا 1616
الاتفاقية 1615
الرؤية 1615
جاني 1615
ملائ@@ 1615
والثاني 1615
الأدبي 1614
تنسيق 1614
داني 1614
فوكس 1614
فيزياء 1614
ورقة 1613
57 1612
N 1612
الدهون 1612
النوم 1612
للوصول 1612
ةَ 1611
تحكم 1611
حادث 1611
لضمان 1611
اختراع 1610
البه@@ 1610
الكورية 1610
المحتر@@ 1610
وتية 1610
وضعها 1610
ومر@@ 1610
الكسندر 1609
المحتملة 1609
تفعات 1609
كبيراً 1609
متر@@ 1609
هزم 1609
هون@@ 1609
er 1608
تايوان 1608
ثان 1608
دراج 1608
قرارات 1608
لْ@@ 1608
28@@ 1607
بورن 1607
حجم@@ 1607
دش@@ 1607
للبحث 1607
البيولوجية 1606
الحادث 1606
داع 1606
سينما 1606
طيب 1606
v 1605
الأعصاب 1605
الجدد 1605
باق 1605
زيا 1605
نيسة 1605
المرش@@ 1604
ديق 1604
منت@@ 1604
يريد 1604
القطب 1603
رفضت 1603
سريع 1603
لنظام 1603
اقتراح 1602
المخطط 1602
الى 1602
ولًا 1602
الجهات 1601
مرية 1601
700 1600
بيكر 1600
حيز 1600
خير 1600
موقعها 1600
أحدث 1599
اجة 1599
المغول 1599
بارزة 1599
بشر 1599
دوائر 1599
ميل@@ 1599
الذكاء 1598
براطور 1598
تمويل 1598
لعدد 1598
مانة 1598
ماير 1598
أر 1597
تواجد 1597
جوه@@ 1597
ولما 1597
َّى 1597
بوط 1596
تبات 1596
جيال 1596
لنقل 1596
موسي@@ 1596
هارت 1596
واحل 1596
ببناء 1595
تداء 1595
حديد 1595
يكفي 1595
NGC 1594
أحياء 1594
المحددة 1594
المذكورة 1594
تبدو 1594
متو@@ 1594
1890 1593
إلقاء 1593
ازي@@ 1593
البث 1593
المهندس 1593
بمنطقة 1593
مكونة 1593
الجذ@@ 1592
بتقديم 1592
جلي@@ 1592
دوج 1592
سوم@@ 1592
غيره 1592
ويستخدم 1592
1899 1591
الأوب@@ 1591
البوا@@ 1591
الدوا@@ 1591
تجديد 1591
ذان 1591
كليات 1591
العمرية 1590
مركزية 1590
أحر@@ 1589
عارض 1589
عودته 1588
اطع 1587
السرية 1587
انتشرت 1587
رقام 1587
مطالب@@ 1587
يحدد 1587
تهر 1586
نظريات 1586
كبرى 1585
نغال 1585
أوراق 1584
الاً 1584
المناصب 1584
بصفته 1584
بى 1584
توقيع 1584
وأحد 1584
ودا 1584
أدوار 1583
الحديقة 1583
حقي@@ 1583
و0.@@ 1583
00 1582
حرة 1582
كلين@@ 1582
وقتل 1582
جماع 1581
كوف@@ 1580
متهم 1580
الجماعي 1579
هاجر 1579
يأخذ 1579
ابون 1578
الدول@@ 1578
الًا 1578
جزيئات 1578
حاد 1578
هيو@@ 1578
² 1577
الرياض@@ 1577
الوصف 1577
راحة 1577
صت 1577
قسم@@ 1577
62 1576
s@@ 1576
قيس 1576
ونسو 1576
العلا@@ 1575
الفرنسي@@ 1575
جوجل 1574
مستعمرة 1574
مسيحية 1574
موط@@ 1574
ومص@@ 1574
يدل 1574
o 1573
المركب 1573
بشير 1573
زلي 1573
ميذ 1573
هوف@@ 1573
58 1572
رائد 1572
قصور 1572
إليهم 1570
إنتر@@ 1570
التمويل 1570
الجنسين 1570
برئاسة 1570
وتعني 1570
29@@ 1569
تماث@@ 1569
دفن 1569
كوم 1569
معية 1569
الصلي@@ 1568
باها 1568
البن@@ 1567
ديوان 1567
طيور 1567
قناع 1567
كوين 1567
وقود 1567
الساحة 1566
ة@@ 1566
جوز 1566
موارد 1566
اكمة 1565
غاد@@ 1565
القرنين 1564
فيت 1564
كوين@@ 1564
الحصار 1563
الخصوص 1563
الكول@@ 1563
تصاب 1563
تماماً 1563
سينمائي 1563
اشات 1562
المهاج@@ 1562
هوي@@ 1562
يكونوا 1562
12.@@ 1561
حكام 1561
فاق@@ 1561
فبلغ 1561
وروب@@ 1561
الاضطرابات 1560
فيكتور 1560
التاسعة 1559
الممارسات 1559
دقائق 1559
مونت 1559
الأدوار 1558
الدستورية 1558
الفحص 1558
ببساطة 1558
مختلف@@ 1558
البارزة 1557
الجغرافي 1557
بتح@@ 1557
سوا@@ 1557
الأيسر 1556
ريبة 1556
قوائم 1556
ليصل 1556
الخطر 1555
فهد 1555
يقات 1555
جعله 1554
قيدة 1554
كفر 1554
وتستخدم 1554
الصف 1553
المحافظ 1553
المناف@@ 1553
بحة 1553
سكان@@ 1553
مجل@@ 1553
هلة 1553
ومنهم 1553
1896 1552
الملاح@@ 1552
تنافس 1552
رخ@@ 1552
66 1551
Charles 1551
إيفان@@ 1551
بيضاء 1551
جوم 1551
لندا 1551
واقف 1551
إشراف 1550
الرسول 1550
الوثائق 1550
اوى 1550
رويج 1550
وضاع 1550
أمن 1549
الإلكترو@@ 1549
التوا@@ 1549
القوية 1549
المدنيين 1549
تذكر 1549
الثنائي 1548
معظمها 1548
الشارع 1547
المصريين 1547
بمو@@ 1547
بيتا 1547
لهما 1547
محتوى 1547
الاج@@ 1546
الاقتراع 1546
المتق@@ 1546
باحث 1546
بطولات 1546
تجعل 1546
قديم 1546
لتع@@ 1546
مينيسوتا 1546
يصنف 1546
السف@@ 1545
القذ@@ 1545
بطال 1545
بلغاريا 1545
تنقسم 1545
وتوزع 1545
السبعينيات 1544
السلط@@ 1544
المعماري 1544
رودري@@ 1544
عشرين 1544
كوكبة 1544
يج 1544
يوت 1544
المعبد 1543
المكسي@@ 1543
بنجاح 1543
تجهي@@ 1543
تسويق 1543
شؤون 1543
ضمت 1543
غاري 1543
مناس@@ 1543
نواة 1543
هين@@ 1543
ببعض 1542
تأثر 1542
موث@@ 1542
امتداد 1541
ره@@ 1541
للجدل 1540
الفلا@@ 1539
بمجرد 1539
خاض@@ 1539
فاهيم 1539
قريب 1539
نوبة 1539
وطات 1539
جام 1538
جوا 1538
عما 1538
وفيها 1538
ادى 1537
بيلة 1537
عمالة 1537
للدفاع 1537
y@@ 1536
السيدات 1536
المتبقية 1536
المستشفيات 1536
ثقافية 1536
جاع 1536
رياضية 1536
قراطية 1536
متس@@ 1536
1,@@ 1535
المسؤولين 1535
المفو@@ 1535
عيم 1535
مهاج@@ 1535
الجولة 1534
الطفولة 1534
المالك@@ 1534
وزوجته 1534
صَ@@ 1533
عملة 1533
مضاد 1533
وجيه 1533
البالغين 1532
الجنين 1532
تلقت 1532
طلبت 1532
مكن 1532
نب@@ 1532
وقالت 1532
الحدو@@ 1531
بعون 1531
جند@@ 1531
ضين 1531
مزي@@ 1531
الشعور 1530
بدءًا 1530
حادثة 1530
رتها 1530
كست@@ 1530
موم 1530
واز@@ 1530
وانية 1530
يتألف 1530
يعرض 1530
استف@@ 1529
الدو@@ 1529
تنتشر 1529
موسم@@ 1529
الأوائل 1528
الإيراني 1528
وكث@@ 1528
الجي@@ 1527
الرط@@ 1527
الشيعة 1527
الهلال 1527
بوضع 1527
زيين 1527
عاش@@ 1527
كوميدي 1527
أهيل 1526
الحبوب 1526
بالمدينة 1526
جيف 1526
يتون 1526
يمكنها 1526
المنورة 1525
امًا 1525
قدام 1525
1897 1524
بدر 1524
تلو@@ 1524
دٍ 1524
صموئيل 1524
فيروسات 1524
ائرات 1523
ازت 1523
الخلافة 1523
بادل 1523
بوابة 1523
تدل 1523
عالمي 1523
للمساعدة 1523
67 1522
الخروج 1522
بدعم 1522
خطوة 1522
ساد 1522
Z@@ 1521
ابت@@ 1521
السنوية 1521
النقدية 1521
شباب 1521
شياء 1521
غرام 1521
كيس 1521
الأساليب 1520
أخذت 1519
المرور 1519
باين 1519
وانتقل 1519
بخ 1518
بيته 1518
طرابلس 1518
لقاء 1518
لمع@@ 1518
وبرا@@ 1518
وطني 1518
داي@@ 1517
الجانبية 1516
رواح 1516
نسان 1516
يوغ@@ 1516
احي 1515
الظاهرة 1515
براط@@ 1515
سول 1515
عاب 1515
سلمان 1514
آب@@ 1513
بطاقة 1513
سنين 1513
ويقوم 1513
يتجاوز 1513
اندلاع 1512
بيرو 1512
تركي 1512
تصوي@@ 1512
توب 1512
نديين 1512
الجغرافية 1511
بعمل 1511
كارولاينا 1511
بعيدة 1510
دسون 1510
موجو@@ 1510
السوفييتي 1509
ويست 1509
ّق 1509
البحيرة 1508
جزاء 1508
ربات 1508
كاني 1508
والمق@@ 1508
ولايات 1508
يشغل 1508
يقد@@ 1508
88 1507
الحرم 1507
السلامة 1507
تهما 1507
حاصل 1507
كتابات 1507
نوكيا 1507
البدي@@ 1506
التسجيل 1506
الفقه 1506
الكالسيوم 1506
الند@@ 1506
طنة 1506
G 1505
أوز@@ 1505
الإشع@@ 1505
الإفري@@ 1505
ومُ@@ 1505
اعل 1504
الصهي@@ 1504
وات@@ 1504
يكتب 1504
النباتية 1503
بغض 1503
ريكي 1503
كريات 1503
p@@ 1502
الاستيلاء 1502
السريعة 1502
الفلس@@ 1502
تفسي@@ 1502
تير@@ 1502
ادته 1501
الموال@@ 1501
الهوائية 1501
بروتوكول 1501
قائه 1501
ميتش@@ 1501
رئيسا 1500
زمي@@ 1500
فتر@@ 1500
كوا 1500
وأما 1500
Y@@ 1499
التكوين 1499
الخطأ 1499
الصعيد 1499
تحولت 1499
للشباب 1499
مارشال 1499
Thomas 1498
المرافق 1498
جزءا 1498
ساوث 1498
86 1497
الصحفي 1497
انتص@@ 1497
جيري 1497
كرى 1497
ملف 1497
ورك 1497
الخيال 1496
الفتاة 1496
الفدرالي 1496
انضمت 1496
بفيروس 1496
تصرف 1496
ديًا 1496
لطة 1496
يجد 1496
البك@@ 1495
المعاهدة 1495
اوض 1495
توجه 1495
مسب@@ 1495
يبقى 1495
التناس@@ 1494
الثلاثي 1494
باليد 1494
حساس 1494
فلو@@ 1494
نصوص 1494
هندي 1494
اجم 1493
النض@@ 1493
تشو 1493
غيرة 1493
قطاب 1493
لينا 1493
أبيه 1492
تناف@@ 1492
لتعزيز 1492
ماري@@ 1492
اعفات 1491
الكواكب 1491
المحركات 1491
عرفة 1491
ناة 1491
يري@@ 1491
50@@ 1490
a@@ 1490
أمثال 1490
ببطولة 1490
بعدد 1490
ترجع 1490
سرب 1490
صيغة 1490
المحدودة 1489
الوليد 1489
الثمانينيات 1488
الغناء 1488
تدريجي@@ 1488
صربيا 1488
11.@@ 1487
63 1487
الإعلامية 1487
ريقة 1487
مفر@@ 1487
يقة 1487
إذاعة 1486
افت@@ 1486
قرأ 1486
لرئيس 1486
مدخل 1486
وحصلت 1486
أدنى 1485
التخصصات 1485
التمرد 1485
بروكلين 1485
جده 1485
ذكرى 1485
مولاي 1485
27@@ 1484
حقل 1484
دوى 1484
شدة 1484
فقه 1484
وشمال 1484
1895 1483
ألق@@ 1483
اغ 1483
النسخ 1483
روق 1483
وامل 1483
وبالرغم 1483
الاز@@ 1482
التكن@@ 1482
التنوع 1482
التوص@@ 1482
قري 1482
مشاة 1482
الفرصة 1481
جبت 1481
كسر 1481
ومنتج 1481
الشاب 1480
المميزة 1480
عِ@@ 1480
ميزة 1480
يحت@@ 1480
الأسترالية 1479
بدقة 1479
كتب@@ 1479
ئذ 1478
الاول@@ 1478
تات@@ 1478
خلاله 1478
طفول@@ 1478
قرون 1478
يهودية 1478
أخير 1477
اكر 1477
الأفضل 1477
الحاكمة 1477
خلت 1477
خُ@@ 1477
شاب@@ 1477
نصب 1477
ref 1476
أفري@@ 1476
باه 1476
تقر 1476
كوبا 1476
إنسان 1475
الاي@@ 1475
المعدة 1475
99 1474
السما@@ 1474
القياس 1474
رأي@@ 1474
فيلا 1474
لتوفير 1474
بتها 1473
ديدات 1473
وتوجد 1473
ومس@@ 1473
الخام 1472
الستينيات 1472
المشا@@ 1472
الهنود 1472
الوار@@ 1472
تتمثل 1472
مستمر 1472
وامر 1472
b@@ 1471
اقية 1471
الاستقرار 1471
التجري@@ 1471
10.@@ 1470
الأع@@ 1470
الجبلية 1470
الحوز 1470
ايد 1470
راعات 1470
عددهم 1470
الإندوني@@ 1469
البرمجيات 1469
تعاني 1469
موس@@ 1469
هَ@@ 1469
ائة 1468
الذهاب 1468
تلفزيون 1468
تنق@@ 1468
غرار 1468
وأم 1468
واستمرت 1468
يراً 1468
الإس@@ 1467
الزوجي 1467
فريات 1467
كروا@@ 1467
لتحسين 1467
مبيعات 1467
وعشرين 1467
r 1466
مختبر 1466
القبيلة 1465
توث@@ 1465
رجان 1465
ودور 1465
1892 1464
um 1464
أعطى 1464
الاتح@@ 1464
القض@@ 1464
الخشب 1463
الدنيا 1463
سيو 1463
متوسطة 1463
مريم 1463
يتس 1463
أعض@@ 1462
المثلية 1462
المستعمرات 1462
انتظار 1462
دراما 1462
فضل@@ 1462
فضلا 1462
وكانوا 1462
ويرجع 1462
الرمز 1461
العضلة 1461
القياسية 1461
ددت 1461
ريني 1461
صه 1461
m 1460
السلبية 1460
العقود 1460
طب@@ 1460
قنوات 1460
َّه 1460
احترا@@ 1459
الفارسية 1459
قُتل 1459
مسرحي 1459
بياً 1458
شور@@ 1458
استهلاك 1457
الخار@@ 1457
الفصيلة 1457
الكيان 1457
مقال 1457
والثانية 1457
ياء 1457
اضي 1456
الحجري 1456
سماح 1456
والمر@@ 1456
أمر@@ 1455
أنغ@@ 1455
بدايات 1455
حدى 1455
هاوس 1455
هيرو@@ 1455
المبيعات 1454
المَ@@ 1454
قتين 1454
e 1453
الأساطير 1453
الأط@@ 1453
الفرسان 1453
المراه@@ 1453
بمرض 1453
بيك@@ 1453
توت@@ 1453
ضها 1453
يقو@@ 1453
أمه 1452
الرحلات 1452
الساخ@@ 1452
تار 1452
تك 1452
دادي 1452
طنجة 1452
فيسور 1452
كتات@@ 1452
ويعمل 1452
البصري 1451
المطلوب 1451
النازي 1451
بتهمة 1451
حتها 1451
لمساعدة 1451
يابانية 1451
التخلص 1450
الجسر 1450
المدف@@ 1450
قن 1450
ناها 1450
الآلاف 1449
باز 1449
ربت 1449
طلبة 1449
فلات 1449
الإعدام 1448
الخش@@ 1448
المعنية 1448
براج 1448
بروك 1448
بعد@@ 1448
مالك@@ 1448
وكات@@ 1448
اخ 1447
النواة 1447
رغبة 1447
سباقات 1447
كريستوفر 1447
للتكنولوجيا 1447
للشركة 1447
وتعمل 1447
وقدم 1447
ولادة 1447
بالص@@ 1446
سجلات 1446
بغ 1445
غاب@@ 1445
ملم 1445
نوعًا 1445
ويندوز 1445
اصر 1444
الثوري 1444
الشح@@ 1444
الفتح 1444
المراقبة 1444
بكة 1444
حاض@@ 1444
فيق 1444
وتخرج 1444
أسواق 1443
المستخدمين 1443
بالعديد 1443
تعدد 1443
جاهات 1443
05 1442
المرء 1442
بض@@ 1442
بوج@@ 1441
تعلق 1441
ساهمت 1441
للحياة 1441
نبذة 1441
الانتباه 1440
المسؤول 1440
يعادل 1440
· 1439
الأتراك 1439
توليد 1439
11@@ 1438
الترب@@ 1438
شبي@@ 1438
ندرية 1438
هيم 1438
الأورام 1437
التقويم 1437
القليلة 1437
المفترض 1437
ماركوس 1437
متراً 1437
إرنست 1436
اريات 1436
المسؤولية 1436
بجدية 1436
فاكيا 1436
لحزب 1436
للاح@@ 1436
ّها 1436
أشارت 1435
الولا@@ 1435
انج 1435
ربا@@ 1435
زادت 1435
سجين 1435
شعوب 1435
كيميائية 1435
وذك@@ 1435
أيلول 1434
السياق 1434
الطول 1434
العذ@@ 1434
ظى 1434
لاحقة 1434
موه@@ 1434
َة 1434
الاكت@@ 1433
الجوانب 1433
المتخصصة 1433
المساجد 1433
المنزلية 1433
خليل 1433
رسم@@ 1433
كليزية 1433
نقابة 1433
يمل@@ 1433
الصلب 1432
تسلسل 1432
سوس@@ 1432
شرو@@ 1432
طارق 1432
ميا 1432
مسؤول 1431
البوسنة 1430
التعد@@ 1430
المقات@@ 1430
كتها 1430
مباشر@@ 1430
وأل@@ 1430
احمد 1429
الزراعي 1429
بسيط 1429
بطول 1429
دارات 1429
مواطن 1429
ورين 1429
ويم 1429
ينص 1429
59 1428
اقتصاد@@ 1428
رهم 1428
فد 1428
الجمه@@ 1427
العيش 1427
تسعى 1427
داد@@ 1427
زيف 1427
سنان 1427
منافسة 1427
مونتريال 1427
ابد 1426
البيع 1426
التلفزيوني 1426
الجغرافيا 1426
الحة 1426
توص@@ 1426
مبارك 1426
ميونخ 1426
اته@@ 1425
التطبي@@ 1425
الضحايا 1425
المعاصر 1425
قانون@@ 1425
الأمامية 1424
البيزنط@@ 1424
بالسجن 1424
عبين 1424
قهم 1424
لاري 1424
متزايد 1424
ممك@@ 1424
وأغ@@ 1424
وصفه 1424
تأكيد 1423
تجاري 1423
ثًا 1423
راك 1423
سبير 1423
طيل 1423
لمن 1423
ليلعب 1423
الأمنية 1422
مسة 1422
أود@@ 1421
إمبراطورية 1421
تخضع 1421
درز 1421
فاطمة 1421
لَّ@@ 1421
وافقت 1421
يشن 1421
3000 1420
إين@@ 1420
الصلاة 1420
سلحة 1420
يتسبب 1420
إسطنبول 1419
لقب@@ 1419
الكهرو@@ 1418
برنام@@ 1418
تجاو@@ 1418
تغطية 1418
توصيل 1418
جولة 1418
السياسيين 1417
بإعادة 1417
عال@@ 1417
للحرب 1417
هال 1417
هين 1417
ارتف@@ 1416
الراحل 1416
اللبناني 1416
مثّل 1416
أنصار 1415
اغتيال 1415
بالفرنسية 1415
جعل@@ 1415
ذرة 1415
سبانيا 1415
فيلم@@ 1415
96 1414
الجاذبية 1414
بولو 1414
تنمية 1414
جدة 1414
لاي@@ 1414
الاص@@ 1413
زب 1413
ماش 1413
ياب@@ 1413
71 1412
n@@ 1412
البعثة 1412
بيدرو 1412
جوي 1412
حرم 1412
سيدة 1412
عرضها 1412
لكية 1412
أى 1411
الأغذية 1411
فِي 1411
مقارن@@ 1411
ديك 1410
زياء 1410
شقيقه 1410
مدافع 1410
وبطولة 1410
الفائز 1409
تباد@@ 1409
تورونتو 1409
فج@@ 1409
منزله 1409
والتكنولوجيا 1409
68 1408
بحوا 1408
وبقي 1408
1889 1407
أيدي 1407
النزاع 1407
انتخ@@ 1407
انقلاب 1407
باليابانية 1407
داثة 1407
صلى 1407
ميلاد 1407
وعل@@ 1407
الموجات 1406
جدار 1406
طاقات 1406
لفظ 1406
هرباء 1406
ياتها 1406
أنتوني 1405
المدار@@ 1405
المشر@@ 1405
حن@@ 1405
داف 1405
رسال 1405
لكن@@ 1405
نظراً 1405
سامي 1404
مغربي 1404
مميزة 1404
ابهة 1403
الأخلاقية 1403
الإقليمي 1403
حار@@ 1403
مزيج 1403
يجمع 1403
3- 1402
ئون 1402
الأرقام 1402
الطف@@ 1402
المستويات 1402
ردود 1402
فتي 1402
فلونزا 1402
مرافق 1402
وليات 1402
ويورك 1402
اري@@ 1401
الاستح@@ 1401
باس 1401
جوة 1401
سوة 1401
فحسب 1401
المعالم 1400
اين 1400
بره 1400
تتواجد 1400
عيان 1400
نباتات 1400
الاستث@@ 1399
العروض 1399
الفكرية 1399
غون@@ 1399
وبرو@@ 1399
يمنع 1399
بيريا 1398
ليت 1398
35@@ 1397
أولا 1397
إعلا@@ 1397
المهارات 1397
النسوية 1397
تعليمية 1397
عدوى 1397
قليات 1397
كييف 1397
وتبلغ 1397
وتقوم 1397
الروس 1396
العي@@ 1396
بوية 1396
حاولت 1396
حياتهم 1396
ديزني 1396
عدل 1396
التوازن 1395
الركاب 1395
الستة 1395
المان@@ 1395
جيه 1395
لحم 1395
مهند@@ 1395
واس 1395
القابلة 1394
تدي 1394
عالمي@@ 1394
لعملية 1394
American 1393
أتباع 1393
الغرفة 1393
جزئ@@ 1393
فئات 1393
5000 1392
ابو 1392
است 1392
الم 1392
رياض 1392
ضوئية 1392
الجدار 1391
بالتالي 1391
جزئة 1391
متعل@@ 1391
أصيب 1390
الجمع 1390
الميناء 1390
خسائر 1390
صالح@@ 1390
طيات 1390
للمشاركة 1390
واري 1390
والته@@ 1390
ويحمل 1390
يمكنه 1390
1885 1389
الفلسطينيين 1389
عاب@@ 1389
أمرًا 1388
الحميد 1388
العرا@@ 1388
العظم 1388
جولي@@ 1388
ستي 1388
سلسل 1388
غيت 1388
مصلحة 1388
ميشيل 1388
1894 1387
الصحيح 1387
القنوات 1387
الو 1387
اوة 1387
بكالوريوس 1387
بمحافظة 1387
عاط@@ 1387
هوم@@ 1387
ائرة 1386
كلاهما 1386
مضادات 1386
’ 1386
61 1385
ألفا 1385
المعلمين 1385
المنت@@ 1385
شمال@@ 1385
لوزارة 1385
مبادرة 1385
هرمون 1385
ومار@@ 1385
ارتباط 1384
شتوكة 1384
مقاط@@ 1384
ميكرو@@ 1384
40@@ 1383
الرئوي 1383
الطراز 1383
القياسي 1383
القيود 1383
نادق 1383
الليبرالية 1382
هاريس 1382
1891 1381
اشتهرت 1381
افظ 1381
الرؤ@@ 1381
النظريات 1381
برع 1381
تحوي 1381
راتيجيات 1381
سنويًا 1381
صنة 1381
كك 1381
مناخ 1381
وْ@@ 1381
g 1380
البول 1380
المعدات 1380
تالية 1380
صديق 1380
ومجموعة 1380
69 1379
98 1379
بؤ 1379
عمر@@ 1379
موث 1379
وكس 1379
يتر@@ 1379
أنت 1378
إداريّاً 1378
ائنات 1378
الأحكام 1378
التجمع 1378
تشتهر 1378
روى 1378
مقالة 1378
الريف 1377
الشعرية 1377
حث 1377
أعاد 1376
إنجليزي 1376
داية 1376
مبكرة 1376
وتك@@ 1376
جميعها 1375
فوس 1375
هل@@ 1375
واستخدام 1375
اظ@@ 1374
الصادرة 1374
قيا 1374
والاتحاد 1374
أوقات 1373
التقدي@@ 1373
كامبريدج 1373
لفت@@ 1373
بيير 1372
جعلها 1372
سنغافورة 1372
عيون 1372
مخص@@ 1372
والسياسية 1372
الاغتصاب 1371
السياحية 1371
رادة 1371
هلا@@ 1371
وبالإضافة 1371
وغواي 1371
ومنطقة 1371
بلديات 1370
تمع 1370
حديثًا 1370
دّ@@ 1370
عنهم 1370
غا@@ 1370
مترات 1370
والمه@@ 1370
الفحم 1369
اناً 1369
اورة 1369
بتع@@ 1369
دييغو 1369
طبيق 1369
نيكولاس 1369
وكو 1369
الإطار 1368
التحقيقات 1368
الحسيمة 1368
الوراثية 1368
تركت 1368
ضب 1368
وجاء 1368
اسبة 1367
العمود 1367
بئر 1367
قادر 1367
لأغراض 1367
مجتمعات 1367
مكاف@@ 1367
نيلسون 1367
1893 1366
t@@ 1366
الأمير@@ 1366
التوسع 1366
فرانكلين 1366
يوزي@@ 1366
82 1365
أهداف@@ 1365
النحاس 1365
حى 1365
صناعات 1365
صوت@@ 1365
عاز@@ 1365
وأثناء 1365
وائد 1365
83 1364
اجر 1364
اييس 1364
كوتا 1364
لتق@@ 1364
لمكافحة 1364
نيف 1364
73 1363
المحاصيل 1363
لوح@@ 1363
ناسا 1363
نوعها 1363
الاجتماع@@ 1362
ثور@@ 1362
نفذ 1362
يقلل 1362
الآباء 1361
البصرية 1361
امر 1361
تزايد 1361
مناص@@ 1361
واللا@@ 1361
أتي 1360
بينه 1360
لاع@@ 1360
نادرة 1360
al 1359
الارتفاع 1359
فرنسي@@ 1359
قيت 1359
قيود 1359
لَ 1358
مسح 1358
هشام 1358
هولة 1358
وتحدي@@ 1358
يربط 1358
Q@@ 1357
الإشارات 1357
النارية 1357
انسحاب 1357
تنتهي 1357
خلاص 1357
ليفزي@@ 1357
وملحن 1357
الدراسي 1356
توية 1356
خصوصاً 1356
راسة 1356
فوس@@ 1356
لات@@ 1356
موظف 1356
ائز 1355
نهم 1355
نوية 1355
الأميركية 1354
الغشاء 1354
المنزلي 1354
باولو 1354
فرنسيس 1354
ليند@@ 1354
هوا@@ 1354
النح@@ 1353
ذهبية 1353
سبا@@ 1353
فضت 1353
قان@@ 1353
1888 1352
V 1352
الكش@@ 1352
الوص@@ 1352
تنشأ 1352
روبنسون 1352
فلما 1352
ويعود 1352
البضائع 1351
المضي@@ 1351
طاني 1351
يدعم 1351
الخمس 1350
الوظيفي 1350
زيز 1350
مقب@@ 1350
اصيل 1349
الشوارع 1349
النمساوية 1349
بروتينات 1349
تعليق 1349
حاس@@ 1349
روابط 1349
ماغ@@ 1349
أعلاه 1348
ابن@@ 1348
الاستراتيجية 1348
الباردة 1348
التفسير 1348
تشابه 1348
شرقي 1348
فال 1348
وجائزة 1348
وسلو@@ 1348
وسيط 1348
عدداً 1347
مهاجمة 1347
يوان 1347
انض@@ 1346
بنسلفانيا 1346
تعلمت 1346
حمد@@ 1346
سكن 1346
سْ@@ 1346
كونت 1346
مخصصة 1346
أجرا@@ 1345
التصنيع 1345
الدقيق 1345
تسهيل 1345
جنيد 1345
منيوم 1345
1880 1344
اعتقال 1344
المعتم@@ 1344
بأكملها 1344
شك 1344
وكا 1344
يكون@@ 1344
اقفة 1343
تأخذ 1343
نسي 1343
البرج 1342
شقيق 1342
والنساء 1342
76 1341
87 1341
المعلم 1341
تخصيص 1341
تى 1341
ثون 1341
سطة 1341
قوم@@ 1341
التوزيع 1340
الثدييات 1340
الطرفين 1340
الكائن 1340
النبلاء 1340
النموذ@@ 1340
الوسطي 1340
بحاجة 1340
كيه 1340
وفر@@ 1340
الديانة 1339
الشهادة 1339
بالذكر 1339
طئ 1339
مقدار 1339
C. 1338
التأمين 1338
الخلفي 1338
الدليل 1338
جعلت 1338
حسن@@ 1338
سمت 1338
ورًا 1338
الجما@@ 1337
المهند@@ 1337
اون 1337
الزجاج 1336
وء 1336
التس@@ 1335
تأسيسها 1335
تكرار 1335
تمثال 1335
للاستخدام 1335
لمنظمة 1335
وانتهت 1335
الوقاية 1334
بسون 1334
قوش 1334
تعم@@ 1333
ستوك@@ 1333
أمم 1332
الهيك@@ 1332
دوين 1332
مشاهد 1332
معارك 1332
1884 1331
الإيمان 1331
العملا@@ 1331
تمرد 1331
حصان 1331
شيات 1331
ضعاف 1331
مؤلف@@ 1331
مزرعة 1331
وأخذ 1331
4.@@ 1330
79 1330
أكسفورد 1330
ألبر@@ 1330
ابتد@@ 1330
قائلاً 1330
قلت 1330
نسجة 1330
ودين 1330
ونال 1330
الكويتية 1329
نائي 1329
ويسمى 1329
ويف 1329
الإبلاغ 1328
التسلسل 1328
بريل 1328
ثم@@ 1328
للكاتب 1328
والرا@@ 1328
أتلان@@ 1327
الآلات 1327
برا 1327
فلت 1327
الأديان 1326
الوراثة 1326
دوي 1326
ستار 1326
قتال 1326
كذا 1326
واحت@@ 1326
الاحتفال 1325
الاعتقاد 1325
التقييم 1325
بانيا 1325
حصة 1325
دوس@@ 1325
شعره 1325
مشواره 1325
ميه 1325
وتعادل 1325
أجر@@ 1324
بطة 1324
عرش 1324
كيمياء 1324
ورث 1324
أدار 1323
الكبار 1323
رياضيات 1323
فوف 1323
وقاضي 1323
البلدين 1322
الخوا@@ 1322
الدنمار@@ 1322
الضخمة 1322
المهدي 1322
تطلب 1322
مجه@@ 1322
مكانه 1322
استقل@@ 1321
الجرائم 1321
تتوفر 1321
ثى 1321
ذرو@@ 1321
وعُ@@ 1321
الأحوال 1320
البترو@@ 1320
تيكو 1320
درسة 1320
شعاع 1320
كلات 1320
ماب@@ 1320
هض@@ 1320
وعد 1320
يتهم 1320
الحاس@@ 1319
العادي 1319
تصويت 1319
192@@ 1318
93 1318
ارعين 1318
بمدرسة 1318
زعم 1318
شارية 1318
وسين 1318
وظل 1318
يمين 1318
الموجة 1317
ثاً 1317
خلص 1317
وأيضاً 1317
والشيخ 1317
ابتك@@ 1316
التدخ@@ 1316
حتي 1316
عشرون 1316
قلق 1316
معات 1316
أفكار@@ 1315
العبودية 1315
خسارة 1315
ريتش@@ 1315
لاستخدام 1315
نض@@ 1315
اثنان 1314
اكو 1314
الأعداد 1314
الفئات 1314
دائية 1314
الناص@@ 1313
تأمين 1313
تواجه 1313
لتف@@ 1313
ويبدو 1313
ئت 1312
تميل 1312
كره 1312
مجموعه 1312
والمس@@ 1312
وايا 1312
وسيع 1312
حاص@@ 1311
افتتح 1310
الزمان 1310
الكونغو 1310
باط@@ 1310
والتف@@ 1310
نشرها 1309
وليكي 1309
ابير 1308
الدبلوماسية 1308
السوبر 1308
رجاء 1308
شاير 1308
غارسيا 1308
ملحوظ 1308
والاقتصادية 1308
البحار 1307
المتز@@ 1307
انتظام 1307
عددها 1307
عروض 1307
غلو@@ 1307
قدرها 1307
وأيضًا 1307
78 1306
الجيوش 1306
تنش@@ 1306
جوان 1306
عبادة 1306
ناجحة 1306
وأبو 1306
ذي@@ 1305
كروز 1305
والمي@@ 1305
احتلت 1304
الإفرا@@ 1304
الفيزي@@ 1304
تعاون@@ 1304
جائ@@ 1304
يؤكد 1304
احتياجات 1303
الجدل 1303
الهجري 1303
شارل 1303
صها 1303
للنظام 1303
لورانس 1303
موجات 1303
وكاتبة 1303
بطري@@ 1302
دَّ@@ 1302
غازي 1302
منتج@@ 1302
السن@@ 1301
المسر@@ 1301
الفعلي 1300
دوران 1300
فائدة 1300
لتشكيل 1300
نوعية 1300
1886 1299
البغ@@ 1299
السابقين 1299
الكليات 1299
تحقي@@ 1299
تشكلت 1299
حاك@@ 1299
فقر 1299
مفاج@@ 1299
وبما 1299
1870 1298
أقيم 1298
الصومال 1298
الظهر 1298
تراث 1298
حقبة 1298
حملات 1298
دوجة 1298
كامبل 1298
ومغني 1298
ابقة 1297
المتا@@ 1297
الوسائل 1297
تمكنت 1297
للملك 1297
والمملكة 1297
وسلافيا 1297
تحلي@@ 1296
كولورادو 1296
1887 1295
إريك 1295
اوت@@ 1295
ترو 1295
داس 1295
زيمات 1295
ظاهر 1295
هوية 1295
81 1294
آراء 1294
الباحث 1294
السود@@ 1294
العقوبات 1294
العكس 1294
اللجوء 1294
جاو@@ 1294
متاحة 1294
إيطالية 1293
داخلي 1293
عنص@@ 1293
مهارات 1293
نمو@@ 1293
هداف 1293
والحزب 1293
وجوده 1293
وقي 1293
ووصل 1293
ووكر 1293
تنتقل 1292
سمك 1292
فيتامين 1292
مروان 1292
معسك@@ 1292
بدا 1291
شريف 1291
كوري 1291
لعائلة 1291
1500 1290
الإذ@@ 1290
الإرهاب 1290
الدينام@@ 1290
الفعلية 1290
الموصل 1290
انطلا@@ 1290
بيانو 1290
تقام 1290
ثيو@@ 1290
دائمة 1290
راشد 1290
احتمالية 1289
الثقيلة 1289
الظاه@@ 1289
تستمر 1289
جوية 1289
زمنية 1289
ملها 1289
موظفي 1289
العثمانيين 1288
الون 1288
انوس 1288
تنص 1288
زام 1288
مواضيع 1288
الأحد 1287
الأنهار 1287
الثمانينات 1287
طولها 1287
لعلم 1287
للقيام 1287
ودفن 1287
أمير@@ 1286
النسبية 1286
كرم 1286
للغة 1286
منتخ@@ 1286
ينتقل 1286
يومنا 1286
actor 1285
الإخ@@ 1285
الذرية 1285
تيح 1285
سرائيل 1285
غرو@@ 1285
فشلت 1285
وحر@@ 1285
وراس 1285
يستمر 1285
انهم 1284
تلقائ@@ 1284
لث 1284
وصحفي 1284
الأغلبية 1283
الاثنين 1283
الخير 1283
الفوس@@ 1283
القلق 1283
عاشت 1283
كنوا 1283
معتزل 1283
1878 1282
أنتج 1282
الاحتفاظ 1282
جنوبي 1282
دراستها 1282
عثر 1282
كوز@@ 1282
للبلاد 1282
لمنطقة 1282
موسو@@ 1282
نفط 1282
اسل 1281
التعادل 1281
الفلاح@@ 1281
المتس@@ 1281
المشكلات 1281
بتة 1281
نما@@ 1281
ويعرف 1281
وتقديم 1280
وّر 1280
ارتفع 1279
المقص@@ 1279
الهادي 1279
بالقاهرة 1279
مهور 1279
ميزوري 1279
يلون 1279
البيزنطية 1278
الشديدة 1278
المفرو@@ 1278
بلوماسي 1278
روجر 1278
طائفة 1278
عمران 1278
لإجراء 1278
مرشح 1278
يدية 1278
77 1277
بسط 1277
سلسل@@ 1277
مورغان 1277
ولان 1277
أهالي 1276
الجزي@@ 1276
الحرف 1276
الكوكب 1276
نشأته 1276
والثقافية 1276
وفى 1276
تتجاوز 1275
روائي 1275
أنهى 1274
التسعينات 1274
الظهور 1274
ربه 1274
صناعية 1274
طبع@@ 1274
فلادي@@ 1274
فوذ 1274
قصف 1274
مفيدة 1274
وحده 1274
أوسكار 1273
الأرجح 1273
الإمار@@ 1273
رسمياً 1273
سمات 1273
مرسوم 1273
مقدم 1273
ودرس 1273
1882 1272
New 1272
العملة 1272
الفساد 1272
لأحد 1272
es 1271
الجمعيات 1271
انتقادات 1271
دارس 1271
كَ 1271
ليوم 1271
الأسعار 1270
خبرة 1270
وصى 1270
ومه@@ 1270
يقومون 1270
الأربع 1269
تسي@@ 1269
تملة 1269
سينا 1269
لينغ 1269
مجرى 1269
يشعر 1269
أقام 1268
السين@@ 1268
الغدد 1268
المجر@@ 1268
بحكم 1268
مارية 1268
مدع@@ 1268
مواصلة 1268
نِ@@ 1268
هدفين 1268
وصفت 1268
k 1267
ءها 1267
الشامل 1267
بنو 1267
شارات 1267
لكين 1267
هاجم 1267
ووفقًا 1267
البطن 1266
امهم 1266
لع 1266
نيجيريا 1266
وشركة 1266
اضطهاد 1265
الآسي@@ 1265
بأنهم 1265
بعضهما 1265
طار@@ 1265
ماق 1265
مزيد 1265
نار 1265
وفيتش 1265
أجرى 1264
الأمامي 1264
الصواريخ 1264
محافظ@@ 1264
1881 1263
جرات 1263
شاطئ 1263
مذهب 1263
وسل@@ 1263
04 1262
أبرزها 1262
أسلحة 1262
الاعتق@@ 1262
القضاة 1262
المتمردين 1262
المسته@@ 1262
بشر@@ 1262
الاختيار 1261
التوق@@ 1261
خبر@@ 1261
روني 1261
فران 1261
لوان 1261
ابلة 1260
العاب@@ 1260
المنس@@ 1260
انتخابه 1260
رشاد 1260
سرد 1260
ماكن 1260
مقعد 1260
اجتم@@ 1259
البطل 1259
العناية 1259
خين 1259
طاب@@ 1259
فاب@@ 1259
معدات 1259
الأنص@@ 1258
الاختلاف 1258
المفاهيم 1258
تعطي 1258
حدر 1258
قيض 1258
ڭ@@ 1258
الصحيفة 1257
المعادلة 1257
بحق 1257
تومسون 1257
جريت 1257
سفة 1257
طهران 1257
أصد@@ 1256
المكونة 1256
تتع@@ 1256
روحة 1256
عري@@ 1256
لجامعة 1256
والدة 1256
يحي@@ 1256
D8 1255
أنتجت 1255
أوسع 1255
الشاطئ 1255
المحتلة 1255
ناد 1255
هاين@@ 1255
وألمانيا 1255
وضعه 1255
i@@ 1254
الاستوائية 1254
الشعراء 1254
سبانية 1254
لفاء 1254
وبحسب 1254
وغيره 1254
أندريه 1253
بالغ 1253
غال@@ 1253
أذربيجان 1252
العصب 1252
لبة 1252
ائم 1251
افها 1251
العبرية 1251
العمل@@ 1251
المحر@@ 1251
الهول@@ 1251
بود@@ 1251
رينا 1251
عله 1251
وردت 1251
وسلم 1251
يطلب 1251
الإنساني 1250
الخبراء 1250
اهرة 1250
مرتب@@ 1250
ميشيغان 1250
يدي@@ 1250
المهاجم 1249
بّي 1249
شور 1249
عضلة 1249
غلال 1249
وو 1249
أرجنتيني 1248
الاستخدامات 1248
الاقترا@@ 1248
الوع@@ 1248
اولات 1248
داع@@ 1248
روك@@ 1248
شعبة 1248
فرانك@@ 1248
وانضم 1248
الائ@@ 1247
بحاث@@ 1247
برل@@ 1247
بلاي 1247
جزءاً 1247
جوهر 1247
راس@@ 1247
كينز 1247
موح 1247
مَّ@@ 1247
id 1246
اقبة 1246
تحديث 1246
جنبا 1246
خلل 1246
ّز 1246
g@@ 1245
الخري@@ 1245
حاز 1245
دَ 1245
ضمنها 1245
فاد 1245
كشفت 1245
مرتفعة 1245
البولندية 1244
التمي@@ 1244
الخبرة 1244
تْ 1244
طائر 1244
نابليون 1244
التجار 1243
الصندوق 1243
الميكرو@@ 1243
بضع 1243
تصفيات 1243
دواء 1243
روجين 1243
فِ@@ 1243
أخذ@@ 1242
الاشترا@@ 1242
بأك@@ 1242
بلاك 1242
تسع@@ 1242
سينغ 1242
صفر 1242
مسؤولة 1242
وثائق 1242
ائيين 1241
الزيادة 1241
الفيدرالي 1241
بمتوسط 1241
تألفت 1241
لجائزة 1241
للطلاب 1241
et 1240
الآلية 1240
الانح@@ 1240
المبدأ 1240
ولمدة 1240
أحدهما 1239
الثانوي 1239
تلاف 1239
جيني 1239
دقيق 1239
راتيجي 1239
نيوتن 1239
ّات 1239
انتقد 1238
برد 1238
حاف@@ 1238
عبور 1238
كول 1238
ليان 1238
بإجراء 1237
تربط 1237
صوب@@ 1237
قوله 1237
قيرة 1237
مونات 1237
والمناطق 1237
غينيا 1236
لوحات 1236
مراد 1236
1.5 1235
أتل@@ 1235
أهمي@@ 1235
التحضير 1235
الحاد 1235
الشروط 1235
يجعل@@ 1235
l 1234
الأمي@@ 1234
المملو@@ 1234
المناه@@ 1234
رويجية 1234
طانية 1234
مستشار 1234
البدء 1233
بروسيا 1233
حيح 1233
سند 1233
فنزويلا 1233
ميني 1233
وأش@@ 1233
الرقص 1232
الشائع 1232
رد@@ 1232
ريج 1232
للدراسات 1232
وتبعد 1232
يتج@@ 1232
ّس 1232
E. 1231
إه@@ 1231
الظه@@ 1231
القاسم 1231
خصوصًا 1231
طيار 1231
فاع 1231
محت 1231
ونقل 1231
ينيا 1231
تغييرات 1230
فيزيائي 1230
مراء 1230
أسلو@@ 1229
إلي@@ 1229
ابط 1229
التعديل 1229
الروم 1229
المدع@@ 1229
راض@@ 1229
طلقة 1229
متين 1229
مهمًا 1229
74 1228
ادهم 1228
جوناثان 1228
هولم 1228
89 1227
إطلا@@ 1227
اختار 1227
الإعلا@@ 1227
الميكانيكية 1227
تصالات 1227
ليفربول 1227
مايكروسوفت 1227
عوام 1226
يتخ@@ 1226
استبد@@ 1225
الزع@@ 1225
بعيدًا 1225
تاي 1225
ثقافي 1225
شأنه 1225
معظمهم 1225
والموس@@ 1225
وبها 1225
بدأ@@ 1224
جأ 1224
خلفه 1224
لكنهم 1224
1861 1223
92 1223
عظم 1223
فاظ 1223
يعل@@ 1223
يورك 1223
الزمنية 1222
جيت 1222
شاري 1222
وتط@@ 1222
إحص@@ 1221
الأثر 1221
الأوس@@ 1221
الصوم@@ 1221
النهار 1221
حروب 1221
سورة 1221
أموال 1220
إثبات 1220
استم@@ 1220
المسائل 1220
بمق@@ 1220
غرف 1220
كرئيس 1220
ليوب@@ 1220
وشاعر 1220
يتا 1220
يوحنا 1220
U 1219
الثابتة 1219
المزمن 1219
خزين 1219
صابة 1219
نست@@ 1219
نورث 1219
الأزهر 1218
المواقف 1218
انف@@ 1218
رفت 1218
ضئ@@ 1218
أكمل 1217
إيقاف 1217
الحارث 1217
المساع@@ 1217
بيتر@@ 1217
صحي@@ 1217
مكث@@ 1217
وفن@@ 1217
الجزيئات 1216
السائدة 1216
السبع 1216
زاً 1216
سوب@@ 1215
فنون 1215
يعاب 1215
أمن@@ 1214
الاه@@ 1214
التحاق 1214
التكاليف 1214
المسابقة 1214
باركر 1214
تلي@@ 1214
مبلغ 1214
معاً 1214
وآخرون 1214
الأحماض 1213
الخلوي 1213
الفيزيائية 1213
المحمولة 1213
ليلى 1213
يار@@ 1213
1883 1212
المرجح 1212
المعيشية 1212
بداع 1212
ترشيح 1212
رومان 1212
للرئيس 1212
يجوز 1212
الجام@@ 1211
الزعيم 1211
حو 1211
داني@@ 1211
والمواد 1211
اعتُ@@ 1210
الأرز 1210
الشاف@@ 1210
المبر@@ 1210
المسيحي@@ 1210
الهندسية 1210
تشيل@@ 1210
ضير 1210
عقدت 1210
ملابس 1210
ويسكونسن 1210
1876 1209
الطبي@@ 1209
المشهد 1209
المعقدة 1209
شق 1209
فرناندو 1209
قدرات 1209
كيفن 1209
لبية 1209
لينز 1209
معالج@@ 1209
البسيطة 1208
ضرر 1208
معقدة 1208
وحدها 1208
وكار@@ 1208
00@@ 1207
اتح@@ 1207
استراتيجية 1207
الدراما 1207
الضروري 1207
اللهجة 1207
المسؤولة 1207
عددا 1207
كاتدرائية 1207
للأشخاص 1207
وارث 1207
W. 1206
إيفان 1206
الأكاديمي 1206
الأوسكار 1206
الحوار 1206
القوق@@ 1206
بعاثات 1206
تحاول 1206
للمنطقة 1206
نسب@@ 1206
والبحث 1206
والتاريخ 1206
يركز 1206
ٍّ 1206
خيال 1205
محاص@@ 1205
مستشار@@ 1205
ناس 1205
وفاتها 1205
الإح@@ 1204
الجنائية 1204
الفرس 1204
اِ@@ 1204
كارتر 1204
مستقبلات 1204
91 1203
تمرات 1203
فيليبس 1203
كال@@ 1203
كوس 1203
مبل@@ 1203
واب 1203
ويقال 1203
الخطوة 1202
ربون 1202
قز@@ 1202
مادي 1202
هربرت 1202
Henry 1201
أمتار 1201
الدرقية 1201
ثماني 1201
سِ@@ 1201
صحف 1201
لحق 1201
نانين 1201
يوش 1201
السبت 1200
تمال 1200
للجنة 1200
وأعلن 1200
وطلب 1200
ويك 1200
أهلها 1199
الخوف 1199
المستقبلية 1199
المقط@@ 1199
بالي@@ 1199
تاً 1199
ساعدت 1199
سيطر@@ 1199
لمسافة 1199
يسعى 1199
التّ@@ 1198
انتية 1198
ثيوبيا 1198
فاه 1198
فيرجينيا 1198
مستمرة 1198
مليات 1198
التجريبية 1197
التغير 1197
بزيادة 1197
عليا 1197
فسي@@ 1197
فيزي@@ 1197
وانة 1197
إمام 1196
ابته 1196
اللوحة 1196
المسمى 1196
المفاوضات 1196
تيان 1196
خاط@@ 1196
خَ@@ 1196
كيو 1196
وعازف 1196
التخص@@ 1195
الهبوط 1195
خِ@@ 1195
سريعة 1195
سنويا 1195
مَّ 1195
وتعرف 1195
يهودي 1195
التفاعلات 1194
التَّ@@ 1194
تجد 1194
منى 1194
L5 1193
العاشرة 1193
العنوان 1193
الهندوسية 1193
الوهاب 1193
فرسان 1193
وسرعان 1193
يدرس 1193
أسطورة 1192
ابين 1192
اشتراك 1192
حلول 1192
ساه@@ 1192
شيرة 1192
ليًا 1192
مارتين@@ 1192
محدود 1192
ing 1191
الصحي@@ 1191
بمقدار 1191
تجري 1191
تشارلي 1191
غيل 1191
مكاتب 1191
وتز@@ 1191
1860 1190
آبار 1190
الثق@@ 1190
السكري 1190
السوائل 1190
بطر@@ 1190
دهار 1190
زام@@ 1190
لمان 1190
ويتكون 1190
يحضر 1190
التطبيق 1189
الدا@@ 1189
بالدوري 1189
تخلص 1189
حبيب 1189
مساهمة 1189
وحسب 1189
يوهان 1189
آليات 1188
أدبية 1188
اختص@@ 1188
الإصابات 1188
الملح 1188
توسع 1188
جوني 1188
إحياء 1187
اقل 1187
السمات 1187
دوم 1187
كرات 1187
هيو 1187
ودعم 1187
ورى 1187
الإسرائ@@ 1186
كتيبة 1186
نُشرت 1186
ويؤ@@ 1186
يجعلها 1186
يميل 1186
1871 1185
al@@ 1185
أحياناً 1185
التسعينيات 1185
الجماهير 1185
الكرو@@ 1185
المئة 1185
توح 1185
شعراء 1185
غت 1185
قلاع 1185
معان@@ 1185
إسلامية 1184
الغوا@@ 1184
القصي@@ 1184
غوردون 1184
المطبو@@ 1183
بوصة 1183
سكة 1183
كبري@@ 1183
وشه@@ 1183
يستعمل 1183
f@@ 1182
أب 1182
الألياف 1182
بالكانا 1182
تخفيض 1182
حزمة 1182
حيط 1182
دع 1182
ِبة 1182
الس 1181
حذ@@ 1181
سقطت 1181
طرنج 1181
لاد 1181
والمص@@ 1181
وكلية 1181
الثنائية 1180
الفوت@@ 1180
امتلا@@ 1180
تمت@@ 1180
توظيف 1180
دف 1180
شريط 1180
غلاديش 1180
لفية 1180
وتج@@ 1180
ونق@@ 1180
الانفص@@ 1179
الطوائف 1179
فلسطينية 1179
كيات 1179
لتجنب 1179
موع 1179
ميدالية 1179
وتين 1179
01 1178
أوتو 1178
الكور@@ 1178
المريخ 1178
الورق 1178
خيار 1178
يتواجد 1178
أيرلندي 1177
الاك@@ 1177
السوفياتي 1177
جميلة 1177
حالت@@ 1177
حزاب 1177
عيل 1177
غضب 1177
فوزه 1177
منتظ@@ 1177
حياء 1176
دبلوماسي 1176
ستراليا 1176
واجز 1176
ومت@@ 1176
اسا 1175
اعتقد 1175
الحلقات 1175
الذكر 1175
الضوئي 1175
تلاند 1175
طانة 1175
لمركز 1175
لود@@ 1175
أبدًا 1174
اتذة 1174
اوم 1174
بغرض 1174
خام 1174
زملائ@@ 1174
نتي@@ 1174
يةً 1174
اجل 1173
الأمعاء 1173
المقالة 1173
اُ@@ 1173
خطورة 1173
صيني 1173
للمجتمع 1173
واقع@@ 1173
وعرض 1173
وود@@ 1173
يمس 1173
1879 1172
أوم@@ 1172
بالولايات 1172
دافع 1172
دبل@@ 1172
دفاع 1172
راث 1172
لقياس 1172
واف 1172
والأن@@ 1172
80@@ 1171
آد@@ 1171
الارتباط 1171
المنه@@ 1171
طيين 1171
ـة 1171
مناز@@ 1171
ناج@@ 1171
ويلي@@ 1171
يدور 1171
اعف 1170
الأصفر 1170
تسليم 1170
تغيرات 1170
تفورد 1170
راي@@ 1170
طرس 1170
عدّ 1170
فاست@@ 1170
لحركة 1170
وسر@@ 1170
أدر@@ 1169
استع@@ 1169
بشرية 1169
حرق 1169
سيادة 1169
مقدون@@ 1169
إستر@@ 1168
المحافظ@@ 1168
اطية 1167
الذرة 1167
السط@@ 1167
تايلاند 1167
حميد 1167
ريخ 1167
وعم@@ 1167
ابيع 1166
الانضمام 1166
الكرب@@ 1166
دلي@@ 1166
قياس@@ 1166
ليتم 1166
منحة 1166
واللغة 1166
ينيون 1166
for 1165
أثير 1165
المعرض 1165
الممثلين 1165
بالمقارنة 1165
جذور 1165
شيف 1165
صباح@@ 1165
عشاب 1165
يَّ@@ 1165
الدوران 1164
الصالح 1164
تنمو 1164
جور 1164
دالة 1164
عمرة 1164
فؤاد 1164
فعال@@ 1164
لوجود 1164
نسبيا 1164
أورا@@ 1163
اختر@@ 1163
الأسهم 1163
الظهير 1163
الهاش@@ 1163
بارات 1163
توصل 1163
حري@@ 1163
ديترويت 1163
وبهذا 1163
وجيه@@ 1163
وول@@ 1163
أيدي@@ 1162
الطابع 1162
صوفيا 1162
عاة 1162
عضلات 1162
قضائية 1162
كوز 1162
نسيج 1162
آند 1161
ألة 1161
الثقيل 1161
بنشر 1161
جراءات 1161
مسبق@@ 1161
ملو@@ 1161
الانقلاب 1160
الهواتف 1160
ببط@@ 1160
سوداء 1160
عائلات 1160
عقوبة 1160
فيًا 1160
للصحة 1160
لمواجهة 1160
والت 1160
9.@@ 1159
ادعى 1159
استقال 1159
اضطر 1159
جزئيًا 1159
حامل 1159
فاية 1159
فقدت 1159
أغني@@ 1158
أولا@@ 1158
التاب@@ 1158
الشاملة 1158
الملفات 1158
جيدًا 1158
ستانلي 1158
فاش@@ 1158
لائحة 1158
ابتن 1157
الجزائ@@ 1157
الجمال 1157
تراكم 1157
جلد 1157
شفاء 1157
متش@@ 1157
ميلو@@ 1157
نوي 1157
وتد@@ 1157
يُطلق 1157
أطف@@ 1156
المشاهد 1156
بالله 1156
بست@@ 1156
شعور 1156
طيرة 1156
فيشر 1156
للز@@ 1156
للعلاج 1156
هرب 1156
97 1155
أسهم 1155
الانفجار 1155
المنصور 1155
ترشح 1155
ريفي@@ 1155
غونز@@ 1155
مصالح 1155
نقد 1155
الحادثة 1154
المرتبط 1154
تقدون 1154
توت 1154
دورية 1154
فش@@ 1154
لوبيز 1154
مكعب 1154
مملو@@ 1154
34@@ 1153
ادًا 1153
المصطلحات 1153
النائب 1153
سفير 1153
وجي@@ 1153
وصفها 1153
ويش@@ 1153
يتعرض 1153
الثة 1152
الحج 1152
بتر@@ 1152
بحي@@ 1152
دلالة 1152
صفقة 1152
كندية 1152
أبوظبي 1151
إبرا@@ 1151
إنتاجها 1151
الصع@@ 1151
رومانية 1151
ضريبة 1151
عدات 1151
محاكمة 1151
مواطنين 1151
أنوا@@ 1150
تصار 1150
تياغو 1150
عملاء 1150
غراهام 1150
ماثيو 1150
يُمكن 1150
الأعظم 1149
ثُ@@ 1149
درات 1149
سبور@@ 1149
الاستخبارات 1148
القدي@@ 1148
النهج 1148
الوباء 1148
دق 1148
دوراً 1148
سيون 1148
مشهد 1148
همة 1148
09 1147
ئران 1147
البد@@ 1147
المؤقتة 1147
انتح@@ 1147
انيه 1147
جست@@ 1147
حوله 1147
طبا@@ 1147
عراقي 1147
كوبر 1147
كيون 1147
مساء 1147
ورق 1147
يوضح 1147
# 1146
الاستفادة 1146
الجسدية 1146
الدستوري 1146
مثلما 1146
إسلا@@ 1145
الأعراق 1145
فوائد 1145
لر@@ 1145
نرويجي 1145
وقي@@ 1145
Michael 1144
أوامر 1144
المنخفض 1144
حمام 1144
للسيطرة 1144
ويكيبيديا 1144
يتش 1144
البر 1143
الموجهة 1143
حكمت 1143
مهورية 1143
يابان 1143
ارن 1142
انط@@ 1142
اهي 1142
سياً 1142
شأنها 1142
نسية 1142
البخار@@ 1141
حيوية 1141
واتي 1141
ولف 1141
الاخ@@ 1140
الربع 1140
العقيدة 1140
القسطنطينية 1140
المشاعر 1140
النامية 1140
بوف@@ 1140
ضربات 1140
ماركس 1140
تمنح 1139
حون 1139
سرا 1139
شاملة 1139
إشارات 1138
الأسئلة 1138
السهل 1138
القة 1138
المقر 1138
ملحن 1138
نيًا 1138
والدراسات 1138
أخرة 1137
البريدي 1137
الديمو@@ 1137
الفرع 1137
الكبريت 1137
المناعي 1137
عز 1137
وبا@@ 1137
استناد@@ 1136
الأرمن 1136
الاستئ@@ 1136
الانتداب 1136
الير@@ 1136
دولف 1136
طلع 1136
كنة 1136
للأسر 1136
مشتق@@ 1136
هاشم 1136
يام@@ 1136
التحلي@@ 1135
التقدمي 1135
بالضرورة 1135
تبت 1135
قلال 1135
قوط 1135
هائلة 1135
العيون 1134
المبادرة 1134
الهياكل 1134
تتحدث 1134
تفشي 1134
صديقه 1134
أعمارهم 1133
برمن@@ 1133
تجاه@@ 1133
جابر 1133
صحافة 1133
فتيات 1133
قصائد 1133
معاملة 1133
وفيما 1133
ومه 1133
Richard 1132
ألوان 1132
اخرى 1132
الوز@@ 1132
سوريّة 1132
شباب@@ 1132
عقد@@ 1132
قليلاً 1132
مستوطنة 1132
وجودها 1132
أبواب 1131
أثبتت 1131
الثورية 1131
الحملات 1131
المهم 1131
اميم 1131
برنار@@ 1131
تشتمل 1131
خلات 1131
غرة 1131
كلير 1131
مشابه 1131
ia 1130
المرك@@ 1130
جامين 1130
زى 1130
مهاجم 1130
هيد 1130
الشاشة 1129
المند@@ 1129
حمص 1129
غلاق 1129
وأمريكا 1129
واحد@@ 1129
الإط@@ 1128
المجلات 1128
المعرو@@ 1128
امرات 1128
كارول 1128
كتين 1128
كلاعب 1128
K 1127
أنجي@@ 1127
الكمية 1127
ظت 1127
علاء 1127
قبض 1127
هوائية 1127
وبر 1127
احتل 1126
التخلي 1126
المشي@@ 1126
امتصاص 1126
تيم@@ 1126
غز 1126
لتر@@ 1126
مئ@@ 1126
يوما 1126
الإسبان 1125
الانسحاب 1125
الحروف 1125
السينمائية 1125
المدي@@ 1125
روان 1125
عموما 1125
قومية 1125
كاش@@ 1125
وأوروبا 1125
وصية 1125
$ 1124
أستر@@ 1124
حولها 1124
راديو 1124
وتشير 1124
ومدرسة 1124
ومصر 1124
التسل@@ 1123
الدير 1123
تير 1123
ثيقة 1123
عندها 1123
فلس@@ 1123
كند@@ 1123
لأنهم 1123
مام@@ 1123
مقيمة 1123
مناسب 1123
الخضر 1122
القصور 1122
رجانات 1122
ساد@@ 1122
مصمم 1122
مِن 1122
واحدا 1122
المعارض 1121
باغ 1121
بيس 1121
سبرغ 1121
يذهب 1121
أنشأ@@ 1120
الخرطوم 1120
بخصوص 1120
تمتع 1120
البولي@@ 1119
توفيق 1119
تيري 1119
رفية 1119
لسوف 1119
الأمد 1118
البية 1118
التجمعات 1118
الرقمي 1118
الشار@@ 1118
القصير 1118
بب 1118
كاد@@ 1118
ناعة 1118
نر@@ 1118
اتيح 1117
التحقق 1117
الكلى 1117
تبره 1117
زرق 1117
شال 1117
للحد 1117
ويليامز 1117
ينيسي 1117
التين 1116
المتف@@ 1116
المعم@@ 1116
امتدت 1116
ذكرها 1116
روت 1116
سوبر 1116
مجمة 1116
التدفق 1115
الحكام 1115
الدائم 1115
تمّ 1115
سرح 1115
نادر 1115
ائحة 1114
استولى 1114
الغابة 1114
ساءة 1114
معادلة 1114
واث@@ 1114
1867 1113
أخر@@ 1113
الأرجن@@ 1113
الأنف 1113
المستهلك 1113
ريتشار@@ 1113
قنا@@ 1113
موراي 1113
ميك 1113
وجير@@ 1113
جرز 1112
خبر 1112
دريك 1112
لهلم 1112
مبنية 1112
والإي@@ 1112
والفنون 1112
اسط@@ 1111
الأوروبيين 1111
الزرقاء 1111
القمح 1111
ايك@@ 1111
بعملية 1111
مسعود 1111
ميغيل 1111
نزاع 1111
والأطفال 1111
وتوفي@@ 1111
أرضية 1110
إحدا@@ 1110
السويدي 1110
الكفاءة 1110
اللغوية 1110
تأسي@@ 1110
سترو@@ 1110
لاي 1110
مُن@@ 1110
وذ 1110
أسسها 1109
أليكس 1109
انش@@ 1109
شعر@@ 1109
مؤكدة 1109
والمعروفة 1109
وسة 1109
َّل 1109
or 1108
الاحتياجات 1108
القطبية 1108
القوا@@ 1108
المؤتمرات 1108
المجرات 1108
براءة 1108
تبني 1108
تتك@@ 1108
زو@@ 1108
طفل@@ 1108
فالن@@ 1108
فكر 1108
ملفات 1108
منظور 1108
مْ@@ 1108
الإقامة 1107
بدراسة 1107
تنقل 1107
شفيات 1107
ليوس 1107
وتحتوي 1107
94 1106
اجز 1106
الأرث@@ 1106
الألو@@ 1106
اليمني 1106
بائ@@ 1106
صح 1106
فيون 1106
مدني 1106
والأدب 1106
وقر@@ 1106
2.5 1105
إلخ 1105
الطاقم 1105
جس 1105
مارغريت 1105
منازل 1105
موني 1105
نفو@@ 1105
وراً 1105
الرض@@ 1104
الرموز 1104
الشريان 1104
الضرر 1104
بوضوح 1104
راوي 1104
عتين 1104
هو@@ 1104
اعتز@@ 1103
البلج@@ 1103
انتهاكات 1103
جنيف 1103
لتص@@ 1103
مسمى 1103
el 1102
أراضيها 1102
الإنجليز 1102
السجناء 1102
المادي 1102
ترتفع 1102
تفاق 1102
حرس 1102
كّ@@ 1102
للن@@ 1102
منهج 1102
أساسا 1101
إدارية 1101
الإسلا@@ 1101
القدرات 1101
الميزانية 1101
اير 1101
صين 1101
قالة 1101
نورمان 1101
as 1100
انخفض 1100
بتطوير 1100
خطوات 1100
ميلادي 1100
والصحة 1100
آخر@@ 1099
اكتشفت 1099
العوا@@ 1099
انتُ@@ 1099
تؤكد 1099
زيه 1099
صحيحة 1099
عينة 1099
فريدة 1099
مركزي 1099
يحمل@@ 1099
يخص 1099
أحادي 1098
الطقس 1098
سلكية 1098
عمود 1098
غوط 1098
4,@@ 1097
الإضافية 1097
السيادة 1097
الصفات 1097
العميل 1097
القوي 1097
المنهج 1097
جابة 1097
لحة 1097
واي@@ 1096
03 1095
33@@ 1095
آدامز 1095
اديين 1095
اربين 1095
الاعتداء 1095
المئ@@ 1095
سعودية 1095
شرع 1095
عالة 1095
عمها 1095
مَ 1095
واز 1095
والمث@@ 1095
وثائ@@ 1095
الأقسام 1094
الأُ@@ 1094
البريطانيون 1094
الرغبة 1094
ررة 1094
عقدة 1094
موضوع@@ 1094
افل 1093
غريب 1093
فك 1093
متحركة 1093
نشأة 1093
المسرحي 1092
بلندن 1092
تنز@@ 1092
ساي 1092
طفاء 1092
عرب@@ 1092
لاقة 1092
أثرت 1091
إجرا@@ 1091
انتخابية 1091
عُرف 1091
مؤسسي 1091
ناط@@ 1091
إلا@@ 1090
استغلال 1090
الديمقرا@@ 1090
بؤ@@ 1090
تمر@@ 1090
توضع 1090
مؤخرًا 1090
1877 1089
L. 1089
الفطريات 1089
بأمر 1089
بفعل 1089
بكين 1089
رصد 1089
غربي 1089
يحقق 1089
الإغريقية 1088
بحري 1088
بروك@@ 1088
خوض 1088
كنز 1088
للفريق 1088
ملحوظ@@ 1088
مّ 1088
الأطعمة 1087
الراديو 1087
ترشي@@ 1087
جلب 1087
خية 1087
سطين 1087
غيز 1087
والكتابة 1087
وغو 1087
يرين 1087
الكلاب 1086
جمعيات 1086
حجة 1086
ظاهرات 1086
لاستخد@@ 1086
ماج 1086
ناضول 1086
نقلة 1086
هجرة 1086
وتمت 1086
ونظام 1086
أرمينيا 1085
الجراحية 1085
العالم@@ 1085
المة 1085
بارز 1085
دخال 1085
سرقة 1085
قتصاد 1085
متتالية 1085
نفا@@ 1085
يخرج 1085
08 1084
احب 1084
البشرة 1084
تاريخي 1084
تستعمل 1084
دوي@@ 1084
شبيلية 1084
شج@@ 1084
للمص@@ 1084
موعد 1084
ووزير 1084
Paul 1083
m@@ 1083
أزياء 1083
اختلا@@ 1083
الشمسي 1083
الكومنولث 1083
توافق 1083
جلال 1083
ذكر@@ 1083
لتر 1083
ماجستير 1083
وتتكون 1083
وران 1083
وكندا 1083
07 1082
1873 1082
أسقف 1082
إد 1082
القهوة 1082
المشاه@@ 1082
الناشئة 1082
تمرير 1082
توزع 1082
دفورد 1082
شى 1082
ضرورية 1082
طاً 1082
هذة 1082
وغالبا 1082
التنظيمية 1081
بانية 1081
خه 1081
رئيساً 1081
شامل 1081
لويد 1081
الحمام 1080
الدين@@ 1080
الممتدة 1080
بطرق 1080
تام 1080
فيت@@ 1080
ومغنية 1080
برايان 1079
تاد@@ 1079
تاس@@ 1079
تدهور 1079
ترأس 1079
خب 1079
ق.م. 1079
قليم 1079
محسن 1079
نسا 1079
هلك 1079
والمؤسسات 1079
أبا 1078
الجدران 1078
السفلى 1078
المحدد 1078
المذك@@ 1078
المفاج@@ 1078
اندلعت 1078
تيريا 1078
جال@@ 1078
صنّف 1078
قاتل 1078
للاع@@ 1078
مامة 1078
يحة 1078
ُّ 1078
x@@ 1077
التعليمي 1077
برمجة 1077
تخب 1077
صاروخ 1077
لتك@@ 1077
وأد@@ 1077
1848 1076
أسم@@ 1076
اعر 1076
الدائمة 1076
الكلاسيكي 1076
المزارع 1076
المنتخ@@ 1076
جيرات 1076
خريطة 1076
راتي@@ 1076
كنتاكي 1076
والان@@ 1076
يرز 1076
يعبر 1076
2,@@ 1075
الأشهر 1075
الانتح@@ 1075
المعتمد 1075
تاجية 1075
خال@@ 1075
شاط 1075
ِيَّة 1075
Mc@@ 1074
f 1074
أصدقاء 1074
التسم@@ 1074
الدقة 1074
العاص@@ 1074
القشرة 1074
المقتر@@ 1074
انتصار 1074
بجوار 1074
خضع 1074
وتقدم 1074
وتولى 1074
التوتر 1073
تعقي@@ 1073
دارية 1073
عار 1073
والي@@ 1073
ومقر@@ 1073
on@@ 1072
أولمبي@@ 1072
إثارة 1072
السح@@ 1072
المجرة 1072
تثبيت 1072
دح@@ 1072
رموز 1072
مؤلفة 1072
وسبة 1072
14.@@ 1071
900 1071
الاحتجاجات 1071
السمك 1071
الصغار 1071
وتتميز 1071
العنا@@ 1070
المكرمة 1070
بوك 1070
صم@@ 1070
فرق@@ 1070
لفه 1070
ماريو 1070
والمنظ@@ 1070
يوف 1070
أقر@@ 1069
اتخذ 1069
الإيدز 1069
باله@@ 1069
بيًا 1069
تفجير 1069
قدمها 1069
نشاطه 1069
وأنها 1069
o@@ 1068
استعم@@ 1068
الباكستانية 1068
البرتغالي 1068
البيان 1068
الحيوانية 1068
الكاث@@ 1068
المقي@@ 1068
ثبات 1068
حاسوب 1068
سيئة 1068
كارولينا 1068
نجحت 1068
َا 1068
الإشعاع 1067
بعرض 1067
سلمين 1067
متجر 1067
أخيرًا 1066
الحوض 1066
العنصر 1066
تجاهل 1066
تفر@@ 1066
أيمن 1065
الفقراء 1065
فاة 1065
كاي 1065
هابية 1065
الإخوان 1064
الالتزام 1064
الفسي@@ 1064
المجرية 1064
المرسوم 1064
باسمه 1064
تدابير 1064
جمعت 1064
السودانية 1063
الشوا@@ 1063
تق 1063
ضخ@@ 1063
لحظة 1063
هيل@@ 1063
الجين 1062
الملو@@ 1062
تطوان 1062
ثمّ 1062
جنبًا 1062
صدام 1062
غطية 1062
37@@ 1061
اعتمادًا 1061
روط 1061
شراكة 1061
متازة 1061
هياكل 1061
وجميع 1061
in@@ 1060
ابنته 1060
الرأسمالية 1060
بنان 1060
جبر 1060
حمي@@ 1060
رجع 1060
روش 1060
غوري 1060
مباني 1060
son 1059
أركان 1059
أنابيب 1059
إذن 1059
الإغلاق 1059
التوقيع 1059
السطحية 1059
سلو 1059
طعام 1059
لونغ 1059
1875 1058
آكل 1058
البحثية 1058
الحاف@@ 1058
والمعروف 1058
1866 1057
أوج@@ 1057
العلاجات 1057
تسميتها 1057
تيت 1057
جاب 1057
خرو@@ 1057
صدا@@ 1057
والمنا@@ 1057
والهرسك 1057
يبي 1057
1865 1056
en 1056
آباد 1056
إعد@@ 1056
الحقائق 1056
تاج@@ 1056
خبراء 1056
هاميلتون 1056
ی@@ 1056
قبر 1055
ميني@@ 1055
أتى 1054
ادلة 1054
الإعلانات 1054
البالغة 1054
الباً 1054
البيولوجي 1054
دياد 1054
طلحات 1054
قيح 1054
كيني@@ 1054
مضادة 1054
1864 1053
أخو@@ 1053
الجزيئية 1053
المصالح 1053
طور@@ 1053
عاءات 1053
معماري 1053
190@@ 1052
السيناريو 1052
اموا 1052
اوي@@ 1052
بلغة 1052
حيم 1052
كاً 1052
البندقية 1051
الخفيفة 1051
المواضيع 1051
بينية 1051
روش@@ 1051
طاة 1051
للسلام 1051
منفصل 1051
والل@@ 1051
1868 1050
استقرار 1050
السلالة 1050
المخصصة 1050
المعدل 1050
النبات@@ 1050
بتي@@ 1050
دانة 1050
ديني 1050
زيلي 1050
قمر 1050
نيون 1050
هارون 1050
هيوستن 1050
إمكان@@ 1049
اطير 1049
الجوفية 1049
بيعة 1049
جوي@@ 1049
خصص 1049
قوب 1049
للحركة 1049
معيار 1049
نابلس 1049
نمية 1049
وأخرى 1049
130 1048
الغازات 1048
جاد 1048
دريش 1048
شأن 1048
صفحات 1048
العذراء 1047
العَ@@ 1047
المؤرخون 1047
تعادل 1047
صول 1047
عدي 1047
للتنمية 1047
واكه 1047
أدولف 1046
التث@@ 1046
القرص 1046
بيرو@@ 1046
حمز@@ 1046
صادق 1046
والمجتمع 1046
ويشمل 1046
بمفرده 1045
تقليدية 1045
ثقة 1045
حوا 1045
رَ 1045
عائلتها 1045
Al@@ 1044
آلهة 1044
التوجيه 1044
الدائ@@ 1044
الصليب 1044
المتعدد 1044
المسح 1044
النور 1044
كيان 1044
لدت 1044
ويحتوي 1044
العرق 1043
ثروبولوجيا 1043
110 1042
Smith 1042
الإيجابية 1042
بغي 1042
تولي 1042
حقيقي 1042
سوم 1042
وحقق 1042
180 1041
الاندماج 1041
الجانبين 1041
الزوج 1041
المكث@@ 1041
تتعرض 1041
سيه 1041
مقام 1041
نشطة 1041
ومعظم 1041
man 1040
الاقتص@@ 1040
كنائس 1040
الحُ@@ 1039
الموضوعات 1039
تباع 1039
صحراء 1039
والآخر 1039
يسم@@ 1039
الجليل 1038
مرتبط 1038
نوم@@ 1038
المدخل 1037
المرتفعة 1037
المكون 1037
الملائ@@ 1037
اوم@@ 1037
ساً 1037
سينات 1037
طيع@@ 1037
فراز 1037
كليفلاند 1037
football 1036
تمكين 1036
خرفة 1036
خصية 1036
شوا@@ 1036
شيك@@ 1036
عو 1036
عين@@ 1036
وتعزيز 1036
.و 1035
اعتراف 1035
الضعي@@ 1035
المدافع 1035
النوا@@ 1035
النّ@@ 1035
تقال 1035
جونيور 1035
خفض@@ 1035
سقط 1035
ضاً 1035
كِ@@ 1035
06 1034
المنص@@ 1034
زاك@@ 1034
سامسون@@ 1034
مشر@@ 1034
معالم 1034
نته 1034
السبعة 1033
انغ@@ 1033
ذاعة 1033
مفو@@ 1033
ولوا 1033
الصليبية 1032
العز@@ 1032
الناخبين 1032
لّ@@ 1032
محافظات 1032
محيط 1032
إنجاز@@ 1031
التطورات 1031
الوظي@@ 1031
ترب 1031
زهرة 1031
سته 1031
سيان 1031
سُج@@ 1031
نجة 1031
وبان 1031
ودها 1031
توازن 1030
حساب@@ 1030
الطابق 1029
جلا@@ 1029
كدة 1029
لكون 1029
للقانون 1029
ينر 1029
الآراء 1028
الأذ@@ 1028
الأسفل 1028
انقراض 1028
بوبي 1028
محلي 1028
4- 1027
البسي@@ 1027
الحجاز 1027
القدماء 1027
جهاد 1027
دائماً 1027
شيئا 1027
وانتهى 1027
لمد@@ 1026
مصانع 1026
1872 1025
r@@ 1025
ابتداء 1025
خلافة 1025
سيناء 1025
للذ@@ 1025
وسلا@@ 1025
ينيك 1025
لتحرير 1024
ومز@@ 1024
ابًا 1023
تتأ@@ 1023
تمديد 1023
فك@@ 1023
كلاً 1023
وارع 1023
البنوك 1022
جاذ@@ 1022
عمار@@ 1022
60@@ 1021
an@@ 1021
أند 1021
المقر@@ 1021
تاء 1021
كام 1021
مماثل 1021
1869 1020
مسئ@@ 1020
اعده 1019
خصوص@@ 1019
عصره 1019
قبرص 1019
نفر 1019
يوت@@ 1019
الميكان@@ 1018
انز@@ 1018
بارد 1018
حلق@@ 1018
والسك@@ 1018
ذار 1017
ستاني 1017
قشت@@ 1017
نازل 1017
وِ@@ 1017
at 1016
اقم 1016
التاج 1016
الخمسينيات 1015
الدي 1015
الفة 1015
النقاش 1015
شوف 1015
كلاسي@@ 1015
اختصاص@@ 1014
المسؤ@@ 1014
دائق 1014
عهده 1014
غام 1014
لفظ@@ 1014
أسد 1013
بعات 1013
راعة 1013
رقص 1013
سيليا 1013
شخ@@ 1013
علانات 1013
فلك 1013
وشر@@ 1013
الخليل 1012
العن@@ 1012
حوادث 1012
خوف 1012
طلي@@ 1012
طواف 1012
يُع@@ 1012
الرشيد 1011
النانوية 1011
ستو 1011
تعبير 1010
مفتاح 1010
اعه 1008
المشار@@ 1008
رجب 1008
1874 1007
ئًا 1007
رل 1007
ئمة 1006
استقبال 1006
الحصن 1006
تال@@ 1006
تند@@ 1006
ثمان 1006
فاح 1006
بعاء 1005
تغل 1005
اديث 1004
الث 1004
تيال 1004
روبن 1004
طَ@@ 1004
قس 1004
ماج@@ 1004
وجب 1004
ومغ@@ 1004
W 1003
السّ@@ 1003
جزائر 1003
سلاسل 1003
ضل 1003
مزارع 1002
المفر@@ 1001
تعز 1001
حص 1001
زونا 1001
لله 1001
وفان 1001
S. 1000
ارضة 1000
الميد@@ 1000
انتشر 1000
بعه 1000
حزب@@ 1000
شيش@@ 1000
صيلة 1000
عظام 1000
لار 1000
بولس 998
جنين 998
حور 998
طرب 998
الجان@@ 997
روماني 996
ِّ 996
نظري@@ 995
160 994
الفصول 994
مقط@@ 994
الإير@@ 993
الشب@@ 993
خات 993
قائق 993
الجة 992
خدمت 992
ريكو 992
عجاب 992
إنتا@@ 991
الطب@@ 991
توزي@@ 991
سد@@ 991
ظفار 991
ندو 991
اصة 990
قائم 990
اوضات 989
مشتق 989
Y 988
احترام 988
فوت@@ 988
يلو 988
ديمقرا@@ 987
شِ@@ 987
بدء@@ 986
وولف 986
احت@@ 985
خول 985
كاس 985
متنا@@ 985
نزوي@@ 985
بيرة 984
جوع 984
حْ@@ 984
مرا 984
واقب 984
ابتدا@@ 983
خور@@ 983
سيني 983
فريقيا 983
لترا 983
مناق@@ 983
يونس 983
l@@ 982
الحساب 982
انفجار 982
قذ@@ 982
الرحيم 980
الليبر@@ 980
ٍ@@ 980
ماه 979
أحي@@ 978
إيق@@ 978
02 977
تخص@@ 977
فرن@@ 977
نين@@ 977
بابل 976
تشك@@ 976
شخاص 976
عمد 976
لص 976
صادر 975
بعل 974
رفعت 974
عذ@@ 974
وجا 974
1863 973
عبر@@ 973
ar 972
اعترا@@ 972
بض 972
ذُ@@ 972
عود@@ 972
خدم@@ 971
ed 970
باعتب@@ 970
جول 970
R. 969
لازمة 969
زق 968
اين@@ 967
خدمين 967
صدور 967
ازن 966
انتباه 966
انتش@@ 966
ثلث 966
زار@@ 966
فاءة 966
مشوار@@ 966
تراوح 965
تقرر 965
حاق 965
أكس@@ 964
لانو 964
تت 963
وسا 963
la 962
الحجاج 962
حدائق 962
مجالس 962
زيانا 961
سبة 961
ياتي 961
D9 960
اتو 960
5,@@ 959
u 959
القد@@ 959
الهج@@ 959
تشار 959
بنا 958
كيمي@@ 958
هيار 958
ورئ@@ 958
الاف@@ 957
انتخاب@@ 957
خسر@@ 957
شل@@ 957
ويلك@@ 957
تجرب@@ 956
ونز 956
الزب@@ 955
قسطنط@@ 955
برس 954
رقت 954
شمالي 954
نفوذ 954
h 953
غض@@ 953
فرانسوا 953
مقر@@ 953
B. 952
en@@ 952
لّ 952
نزع 952
1857 951
اقب 951
رط@@ 951
وعض@@ 951
الرب 950
فيدة 950
هون 950
حلي@@ 949
بواب 948
مرتفع 948
النفا@@ 947
داعش 947
كولي@@ 947
تغلب 946
سكي@@ 946
الإدار@@ 945
تنوع 945
عنا 945
فصول 945
رم@@ 944
0,000 943
38@@ 943
90@@ 943
h@@ 943
الوك@@ 943
جسم@@ 943
رز@@ 943
مباد@@ 943
مرق@@ 943
Ch@@ 942
اهل 942
بلو 942
رش 942
ضربة 942
نقاش 942
الإغ@@ 941
المقال 941
قرص 941
مصف@@ 941
برو 940
قتة 940
حقوق@@ 939
خيرة 939
رالف 939
رَّ@@ 939
اتباع 938
حاد@@ 938
غات 938
نيوك@@ 938
تلة 937
ذير 937
مولر 937
نوي@@ 937
بقدر 936
لسان 936
نيوز 936
يوني 936
نبول 935
1850 934
ميري@@ 933
انخ@@ 932
طه@@ 932
غرنا@@ 932
مَا 932
or@@ 931
استخراج 931
النسب 931
مقت@@ 931
طائ@@ 930
نطق 930
ئلة 929
انسداد 929
مشتر@@ 929
1862 928
فوج 928
350 927
الإيط@@ 927
تكن@@ 927
وران@@ 927
وفاء 927
بنفس@@ 926
II 925
جيني@@ 925
قس@@ 925
مفتوح 925
ائعة 924
الإيجاب@@ 924
الخبر 924
^ 923
التزام 923
ممت@@ 923
اصرة 922
الرغ@@ 922
النمس@@ 922
بروز 922
ابعة 921
انسون 921
شيد 921
قطب 921
استطاعت 920
المعارف 920
براطورية 920
حيدة 920
عرو@@ 920
مائي 920
وزوج@@ 919
آداب 918
الذك@@ 918
املات 918
تجت 918
قاق 918
مخر@@ 918
الاحتف@@ 917
مطبو@@ 917
الاستي@@ 916
تعي@@ 916
اوج 915
ختم 915
كتورا@@ 915
لزم 915
1859 914
الورا@@ 913
ماز@@ 913
22@@ 911
المؤمنين 911
الزرا@@ 910
حدات 910
داة 910
قوت@@ 910
ميري 910
7.@@ 909
خيل 909
ذات@@ 909
اتش 908
رُ 908
مبيوتر 908
محد@@ 908
دوج@@ 906
شام 906
جِ@@ 905
رن@@ 905
مك 905
ميامي 905
وئية 905
D. 904
series 904
י@@ 904
بارا 904
تران@@ 904
حيدر 904
راد@@ 903
مصور 903
وراق 903
3,@@ 902
الإنس@@ 902
اقتص@@ 901
فف 900
لازما 899
الكوك@@ 898
مش 898
انتون 897
باور 897
جلو@@ 896
ستول 896
غول 896
موضوعات 896
عبدالله 894
وَ 894
اجتماعات 893
انوية 893
حوا@@ 893
دروس 893
معلم 893
يرلندا 893
الغطاء 892
تجات 892
ورس 892
كى 891
استط@@ 890
النسي@@ 890
ذج 890
بلوماسية 889
حصر 889
فوق@@ 889
خوف@@ 888
شوار@@ 888
ماض 888
اختلافات 887
المقارنة 887
حسان 887
تسو@@ 886
زع 886
الحن@@ 885
الشيو@@ 885
بعمر 884
غلاف 884
البص@@ 883
دما@@ 883
مسائل 883
6.@@ 882
سيق 882
شنا@@ 882
طرابات 882
قبض@@ 881
واجبات 881
لبر@@ 880
نون@@ 880
لاج@@ 879
4000 878
ائزة 878
j@@ 877
اللحم 877
امام 877
ation 876
وزيع 876
باتات 875
بورو 875
سطو 875
ميك@@ 875
Joseph 874
اشتر@@ 873
دستان 873
Edward 872
مشق 872
نم 872
النَّ@@ 871
حفا@@ 871
دينار 871
ئك 870
المتب@@ 870
المقد@@ 869
حِ@@ 869
125 868
المستقبل@@ 868
مثلًا 868
هيرة 868
الابتد@@ 867
محلول 867
1856 866
70@@ 866
اصطنا@@ 865
خادم 865
راني 865
ريكا 865
معز@@ 865
نجلي@@ 865
الخ 864
دوان 864
مؤخر@@ 864
? 863
يمز 861
يِّ@@ 861
ac@@ 860
متلك@@ 860
الذه@@ 858
36@@ 857
Ar@@ 857
توي 857
Re@@ 856
خوارز@@ 856
واسط 856
ine 855
k@@ 855
اقتب@@ 855
v@@ 854
العباس 854
الجنا@@ 853
سنا 853
تهي 852
خات@@ 852
منتظم 852
1849 850
39@@ 850
Australian 850
os@@ 849
باز@@ 849
الباكست@@ 848
المتمر@@ 848
خن 848
نجر 848
ايل 847
تّ@@ 847
دِ 847
وارنر 847
تمو@@ 846
حضرموت 845
قلا@@ 845
مجيات 845
ملبورن 845
140 844
ar@@ 844
اوت 844
جوب@@ 844
فرنان@@ 844
مساجد 844
ترام 843
رابع 843
أته 842
ظن 842
مثال@@ 842
ملال 842
الجس@@ 841
انز 841
شيل@@ 840
نْ 840
1840 839
ولن 839
المسا@@ 838
رخص@@ 837
لوز@@ 837
مِنْ 837
البحي@@ 836
افظ@@ 835
الباس@@ 835
سوت@@ 835
2022 834
احتم@@ 833
واضع 833
Frank 831
السو@@ 831
دُ 831
مساب@@ 831
سخ 830
1854 829
الأكاد@@ 829
كلار@@ 829
مجر@@ 829
نوت 829
ِل 829
راف@@ 828
لُ 828
ورز 828
1830 827
er@@ 827
اللسان 827
بيلي@@ 827
صق@@ 827
غَ@@ 827
1858 826
مرد 826
name 825
قران 825
مسان 825
ch@@ 824
مرغ@@ 824
توا 823
ويند@@ 823
Peter 822
ديش 822
المخص@@ 821
جسد 821
زلز@@ 821
5- 820
قيلة 820
الموظ@@ 819
سرت 819
رتا 818
ضاب@@ 817
ضان 817
om@@ 816
الح 816
مطلو@@ 816
منفص@@ 815
100@@ 814
وند@@ 814
بريت 813
تداد 813
محافظ 813
ورش 813
فقت 812
لائل 812
تيجة 811
قرار@@ 811
كرية 811
مباب@@ 811
45@@ 809
خلاء 809
6,@@ 808
Z 807
ركة 807
غن@@ 807
واجد 807
بعل@@ 805
وغ 805
as@@ 802
أغراض 802
الأوروب@@ 802
الداخ@@ 802
جاس@@ 802
كلين 802
1800 801
Mar@@ 801
رنا 801
فارقة 801
التشخ@@ 799
شيما 799
الدار@@ 798
تلف 798
حاء 798
رئيس@@ 798
ol@@ 797
ناظ@@ 797
وصح@@ 797
الأطل@@ 796
جراح 796
شعبان 795
ae 794
el@@ 794
عشر@@ 794
فخر 794
مخالف@@ 793
الاستعم@@ 792
حماس 792
ثرو@@ 791
فجر 791
An@@ 790
وعش@@ 790
امر@@ 789
ضَ@@ 789
عظيم 789
عنق@@ 788
تمرار 787
رود@@ 787
عمرات 787
استغ@@ 786
الاحتج@@ 786
جدل 786
فتو@@ 786
مثيل 786
حلف 785
مران 785
450 783
div 783
قرض 783
تقدمة 782
حب@@ 781
زَ@@ 781
موسوم 781
النسل 780
قبلات 780
250@@ 779
العثمان@@ 779
شمس@@ 779
طانيا 779
صيل 778
ممل@@ 778
ولز 778
افس@@ 777
بلاغ 777
سني 776
فساد 776
نمر 776
ic@@ 775
اتب 775
ازان 775
نَ 775
هِ@@ 775
حاب 774
طبع 774
كنساس 773
لوم 773
ate 772
محم@@ 772
مُ 772
ِّي 772
الجنوب@@ 771
اوب@@ 771
حامد 770
قبر@@ 770
188@@ 769
بوقت 769
7,@@ 768
واس@@ 768
ab@@ 767
حوال@@ 767
z@@ 766
درائية 766
مسم@@ 766
مورا@@ 766
الأولمب@@ 765
ו@@ 764
اندا 764
ترقي@@ 764
نبو@@ 764
15.@@ 763
w@@ 763
اوس 763
جئين 763
ثَ@@ 762
سعد@@ 762
صنف@@ 761
سبن@@ 760
مصنف@@ 760
ويلي 760
اختصار 759
فاص@@ 759
وليكية 759
خاد@@ 758
عات@@ 758
عدنان 758
ميون@@ 758
النات@@ 757
صلح 756
نبات@@ 756
اَ@@ 755
زمان 755
اطئ 754
نوت@@ 754
نَّ@@ 753
AS@@ 752
باخ 752
سطس 752
بَ 751
طس 751
لونة 751
معالج 751
ائي@@ 750
ظبي 750
189@@ 748
عضو@@ 748
هَا 748
101 747
الحكوم@@ 747
صدر@@ 747
In@@ 746
ذَ@@ 746
غرس 746
القاع@@ 745
تمام@@ 745
نيكولا@@ 744
طلال 743
حلو@@ 742
Brown 741
الاتفاق@@ 741
الخوارز@@ 741
ندوق 741
1851 740
السفل@@ 740
دارفور 740
واق 740
360 739
صلاح@@ 739
z 738
باش 738
درس@@ 738
مْ 738
آن@@ 737
اير@@ 737
ستور 737
قطت 737
وليك 737
جيك 736
زور 736
CO@@ 735
كاك@@ 735
غط 734
1853 732
ie 732
ئل 732
اتنا 731
ذرات 731
فتا@@ 730
كيا 729
− 729
1200 728
المحد@@ 728
تانا 728
تيب 728
عنو@@ 728
فرو 728
كيلي@@ 728
ناطيسي 728
Car@@ 727
استعداد 727
الله@@ 727
المعاد@@ 727
غو@@ 727
3.5 726
الحك@@ 726
سبقت 726
كلة 726
نوس 726
بنظ@@ 725
باربرا 724
فادة 724
برن@@ 723
جنون 722
خطر@@ 722
ربان 722
65@@ 721
اريو 721
خاطر 721
مب 720
os 719
Martin 718
التركي@@ 718
ملكي 718
16.@@ 717
أعل@@ 717
1847 716
باو 716
مستوط@@ 716
وفات 716
1835 715
حوص@@ 715
فط@@ 715
مقاتل 715
واد@@ 715
10000 714
CD@@ 714
التقد@@ 714
المتعل@@ 714
طول@@ 714
وراث@@ 714
1839 713
بحت 713
ودر@@ 713
1852 712
am 712
الأو@@ 712
السياس@@ 711
1837 710
ley 710
جواب 710
دْ@@ 710
الان 709
امتد@@ 709
ساق@@ 709
مصح@@ 709
مِّ@@ 709
Scott 708
المعيش@@ 708
تسوي@@ 708
حزم 708
منق@@ 708
عدا@@ 707
1845 706
ائر@@ 706
ينَ 706
1832 705
1855 704
th@@ 704
الَ 704
لول@@ 704
ؤلاء 703
كاون@@ 703
لاسي@@ 702
ليف@@ 702
ا- 701
ot@@ 700
ترن 699
فرانز 699
105 698
Le@@ 698
راش@@ 698
لوج 698
ad@@ 697
di@@ 697
اضر 697
اطق 697
متض@@ 696
مدد 696
قرب@@ 695
بلس 694
Lee 693
17.@@ 692
55@@ 692
ئر 692
دب 692
8.@@ 691
is@@ 691
آ 691
1820 690
codice 690
ايير 690
البوس@@ 689
موال@@ 689
1844 688
am@@ 688
راست@@ 688
زنج@@ 688
فيض 688
سانت@@ 687
187@@ 686
46@@ 686
طالبان 686
نوات 686
J 685
جيع 685
ونيسيا 685
1834 684
Mark 683
جرم 683
سمو@@ 683
محلات 683
مطالب 683
1846 682
آل@@ 682
المباد@@ 682
مرح@@ 682
ST@@ 681
ميلة 681
G. 680
le 680
baseball 679
اطب 678
حم 678
استخدامات 677
اشا 677
سود 677
مدرس 677
آش@@ 676
براسكا 676
خا 676
كز@@ 676
Tom 675
التقي@@ 675
1843 674
184@@ 674
Joe 674
id@@ 674
اتِ 674
فاض@@ 674
مسو@@ 674
معدن 673
1815 671
Bill 671
الشعر@@ 671
الغ 671
رجح 671
فاروق 671
ماو 671
تناس@@ 670
قاض@@ 670
مصالح@@ 670
نجا 670
اغو 669
النسب@@ 669
تِ 669
فلاح 669
8,@@ 668
اتفاق@@ 668
عزم 668
it@@ 667
السَّ@@ 667
بِ 667
عماد 667
by 666
23.@@ 665
اضط@@ 665
ic 664
فرح 664
قار 664
ونيو 663
وون 663
ana 661
der 661
فز@@ 661
مصر@@ 661
حتم@@ 660
ظلم 660
يرلندي 660
نقش 659
AD@@ 658
at@@ 658
أمة 658
الِ@@ 658
1.2 657
اولا@@ 657
دودة 656
Jack 655
le@@ 655
جند 655
دلال 655
De@@ 654
اسلا@@ 654
10,000 653
1838 653
عموماً 653
Alexander 652
La 652
Sh@@ 652
es@@ 651
بلج@@ 651
علومات 651
1842 650
Daniel 650
الرضا 650
بدو 650
ولس 650
6- 649
اومة 649
جوس 649
معترف 649
نسل@@ 649
1812 648
اوس@@ 648
فْ@@ 648
لوح 648
منظم 648
جاسم 646
زد 646
170 645
آز@@ 645
صوف@@ 645
1836 644
انص@@ 644
بطن 644
درج@@ 644
ثوم 643
صاب@@ 643
Con@@ 642
مدا@@ 642
مشغ@@ 642
2500 641
صغ@@ 641
صِ@@ 641
مِ 641
اللبن@@ 640
انتظ@@ 640
فوربس 640
راو 639
رقاء 639
محفو@@ 639
يوك@@ 639
قيقات 638
واتف 638
Q 637
oc@@ 637
ثمر 637
داب 637
48@@ 636
فلي 636
1821 635
اعون 635
5,000 634
بخار 634
تُ 634
ستاد 634
مداف@@ 634
‘ 634
9,@@ 633
اعتقاد 633
فس 633
واجب 633
1841 632
Williams 631
ترجم@@ 631
علما 631
كْ@@ 631
وعات 631
البرل@@ 630
لازم 630
بريدج 629
وبيا 629
47@@ 628
AC@@ 628
رسومات 628
ومو 627
AL@@ 625
آرا@@ 625
بج 625
ضائع 625
شاف@@ 624
ئا 623
بشار 623
ملا 623
75@@ 622
بتت 622
تمي 622
حرا@@ 622
حضرات 622
شوق@@ 622
لؤ@@ 622
لِ 622
موجب 622
نامج 622
وجود@@ 622
Co@@ 621
التنفي@@ 621
سماع 621
ماجد 621
اثناء 620
جود 620
البو@@ 619
هوم 619
186@@ 618
مولا 618
1833 617
اصمة 617
جنو@@ 617
يص 617
220 616
Jim 616
https 616
نعت 616
تصاد@@ 615
25.@@ 614
جج 614
عوض 614
وائف 613
19.@@ 612
اعتراض 612
الانف@@ 612
دوز 612
لتا 612
IS@@ 611
اونت 610
قْ@@ 610
لسون 610
20.@@ 609
الألي@@ 609
خضر 609
ذربي@@ 609
فنا 609
خراسان 608
صدق 608
1831 607
ur@@ 607
24.@@ 606
Na@@ 606
ice 606
ستخدام 606
وسف 606
تراك 605
خمة 605
شستر 605
اعت 604
عقاب 604
SP@@ 603
تعال 603
سفر@@ 603
Bob 602
ea 602
ton 601
الممث@@ 601
توكول 601
محرم 601
بلاء 600
وارئ 600
José 599
da 599
Johnson 598
سانس 598
ناك 598
اسكت@@ 597
التصني@@ 597
ووا@@ 597
18.@@ 596
غالب 596
لحن 596
لور 596
128 595
وافر 595
التسوي@@ 594
انتقام 594
بالتر@@ 594
بندر 594
قيمت 594
لام@@ 594
49@@ 593
تاز@@ 593
خواص 593
240 592
Mike 592
التون@@ 592
اللّ@@ 592
بسم@@ 592
فائز 592
وغير@@ 592
بلوماس@@ 591
زُ@@ 591
وزو 591
وفاق 591
32@@ 590
تائج 590
100,000 589
140@@ 589
22.@@ 589
et@@ 589
انَ 589
مخلو@@ 589
Jones 588
ella 588
اقب@@ 588
تحريك 587
خو 587
لاج 587
لسن 587
نسن 587
68@@ 586
SS 586
ul@@ 586
idae 585
one 585
اشة 585
21.@@ 584
6000 584
Arthur 584
ina 584
آباء 584
برش@@ 584
تزوج@@ 584
26.@@ 583
27.@@ 583
re@@ 583
الترج@@ 583
102 581
حسام 581
Canadian 580
University 580
ob@@ 580
سوز@@ 580
عباد 580
نَّ 579
ap@@ 578
it 578
حضرت 578
الرَّ@@ 577
حاول@@ 577
عه@@ 577
عَلَ@@ 577
وسعت 577
ومجمو@@ 577
Chris 576
ti@@ 576
اللَّ@@ 576
الوسط@@ 576
تاجها 576
حروف 576
Walter 575
co@@ 575
بمب@@ 575
جْ@@ 575
جدت 574
اغوا 573
اليب 573
بوتر 573
ter 572
الساب@@ 572
ترال 572
صاب 572
نوح 572
وجام@@ 572
1810 570
انسان 570
كتوريا 570
خال 569
دريا 569
لاية 569
57@@ 568
اجا 568
مترا@@ 568
1826 567
AT@@ 567
1814 566
IC@@ 566
ارون 566
شم@@ 566
ata 565
شم 565
عدت 565
67@@ 564
7- 564
ph@@ 564
ابرا@@ 564
اقوت 564
2.0 563
Cor@@ 563
نسخ@@ 563
نقاد 563
135 562
ensis 562
تفاوت 562
ثور 562
جزء@@ 562
شروع 562
مونرو 562
… 562
جاد@@ 560
دماغ 560
زبر@@ 560
عصاب 560
وانين 560
1825 559
ءت 559
توظ@@ 559
ثعل@@ 559
رانيا 559
مقدار@@ 559
نقوش 559
53@@ 558
DNA 558
u@@ 558
انوي 558
محص@@ 558
مساف@@ 558
750 557
ملون 557
موز 557
ندن 557
الفلسط@@ 556
نِ 556
اطفال 554
كلٍ 554
ثالث@@ 553
ضيع 553
مقبول 553
0.5 552
Taylor 552
اشتق@@ 552
حذف 552
مثلث 552
محق@@ 552
4.5 551
آغا 551
ستير 551
ضح@@ 551
فيلا@@ 551
قدرت 551
هوة 551
104 550
خوذ 550
ملازم 550
وزع 550
Di@@ 549
حرب@@ 549
رويجي 549
الممت@@ 548
حاتم 548
صنعت 548
معتدل 548
320 547
World 547
مانيا 547
متوقع 547
هْ@@ 547
ونو 547
الموسيق@@ 546
103 545
109 545
آمر 545
الحقي@@ 545
الكوي@@ 545
فخ@@ 545
مارش 545
مبل 545
28.@@ 544
الخالق 544
زمان@@ 544
زنط@@ 544
غارت 544
56@@ 543
Th@@ 543
ايم 543
بند 543
ونَ 543
توسط 542
1829 541
per 541
تناز@@ 541
نجرز 541
تَ 540
شب 540
ورث@@ 539
Andrew 538
وإدار@@ 537
basketball 536
ادئ 536
الشخص@@ 536
اندر 536
وقائع 536
1828 535
ica 535
ويلة 535
1824 534
99@@ 534
AC 534
مراج@@ 534
پ@@ 534
115 533
امو 533
بقا 533
مختص@@ 533
جيم@@ 532
ــــ@@ 532
اكي@@ 531
مفصل 531
صنع@@ 530
لوا@@ 530
مواز@@ 530
44@@ 529
66@@ 529
الرزاق 529
توقعات 529
جواد 529
غرض 529
قوف 529
ناض@@ 529
190 528
White 528
Br@@ 527
COVID 527
Col@@ 527
SO@@ 527
لوبي@@ 527
1600 526
المقاط@@ 526
دانا 526
غاف@@ 526
معمر 526
107 525
امور 525
جرو@@ 525
راما 525
مينيا 525
قرآن 524
Wilson 523
ناص@@ 523
الحار@@ 522
الحافظ 522
سمر 522
ضلع 522
قور@@ 522
مشي 522
st@@ 520
with 520
خلو@@ 520
210 519
أراض@@ 519
جبر@@ 519
عوف 519
111 518
1819 518
الهات@@ 518
امان 517
روان@@ 517
1822 516
ارتق@@ 516
خون 516
اطلاع 515
سلر 515
مقار@@ 515
تاو 514
خبارات 514
وئ@@ 514
تارا 513
حا@@ 513
طفال 513
Cr@@ 512
Francis 512
سلف 512
لقات 512
ed@@ 511
ne 511
فرانس 511
معاص@@ 511
1.3 510
58@@ 510
ازم 510
تعال@@ 510
شْ@@ 510
نسل 509
Se@@ 507
جوش 507
مصط@@ 506
106 505
108 505
7.5 505
Steve 505
قح@@ 505
des 504
البريطان@@ 504
حماد 504
CA@@ 503
TV 503
ag@@ 503
أنفس@@ 503
أوه@@ 503
ملحق 503
1.6 502
ro@@ 502
حقائق 502
سرو@@ 502
محمد@@ 502
معتمد 502
→ 502
آذ@@ 501
الصلا@@ 501
ولر 501
ک@@ 501
w 500
كريك 500
Samuel 499
ers 498
op@@ 498
اهدة 498
بام 498
شفى 498
1808 497
230 497
بلغراد 497
غاس@@ 497
سيمة 496
غسل 496
قند@@ 496
1806 495
~ 495
تاس 495
AR@@ 494
WWE 494
بتا@@ 494
محاذ@@ 494
مطلوب 494
Allen 493
رِ 493
لائي 493
ad 492
ma 492
افراد 492
حنا 492
رضية 492
قوان@@ 492
ينوي 492
Cl@@ 491
MS 491
الملك@@ 491
علا 491
نظر@@ 491
1827 490
افري@@ 490
section 489
حسب@@ 489
As@@ 488
المطلب 488
9- 487
AN@@ 487
th 487
جامع@@ 487
تنام 486
نث@@ 486
Davis 485
Mor@@ 485
تقر@@ 485
راؤ@@ 485
نعم@@ 485
ظفر 484
1.1 483
ase 483
صالات 483
1804 482
na 482
ائمة 482
مرجع 482
117@@ 481
30.@@ 481
5.5 481
SA 481
التجار@@ 481
تمعات 481
مختار 481
مط 481
والا 481
1789 480
29.@@ 480
8- 480
Albert 480
ta 480
إلغ@@ 480
الفطر 480
لونا 480
يناء 480
sen 479
ائيل 479
بولا 478
ذِ@@ 478
عادات 478
لادن 478
78@@ 477
q@@ 477
131 476
1818 476
الخوار@@ 476
وسطي 476
III 475
مورو 475
175 474
بخار@@ 474
0.1 473
St@@ 473
ستون@@ 472
شطرنج 472
1.4 471
AS 471
الحرام 471
مؤرخ@@ 471
MA 470
li@@ 470
استاد 470
بالا 470
مثلة 470
IM@@ 469
المبي@@ 469
جمال@@ 469
نقط@@ 469
Al 468
ick 468
تصاص 468
رونا 468
سجيل 468
الرأسم@@ 467
كيبي@@ 467
185@@ 466
Lewis 466
ec@@ 466
سفار@@ 466
330 465
AP@@ 465
SE@@ 465
اجستير 465
جاه 465
ممتاز 465
وئي 465
واع 465
1823 464
Don 464
سرز 464
سنا@@ 464
طلح 464
قاف@@ 464
270 463
א@@ 463
الكوا@@ 463
ثن@@ 463
ذاب 463
فاضل 463
1813 462
59@@ 462
Bar@@ 462
ist 462
ناقص 462
‍ 462
ch 461
امتحان 461
حائل 461
ماف@@ 461
نوال 461
54@@ 460
الجب@@ 460
حلال 460
لمب@@ 460
121 459
88@@ 459
Par@@ 459
بحر@@ 459
شمول@@ 459
OS 458
ter@@ 458
اتم 458
جرح 458
زحل 458
ماع 458
مناظ@@ 458
International 457
افرا@@ 457
القاط@@ 457
مخز@@ 457
يور 457
1300 456
ER@@ 456
Harry 456
Miller 456
Stephen 456
اترا 456
المشتر@@ 456
برس@@ 456
116@@ 455
1790 455
us@@ 455
ר@@ 455
مقص@@ 455
1809 454
US@@ 454
hockey 454
im@@ 454
القان@@ 454
برن 454
جلوس 454
مرو 454
منشور 454
٬ 454
چ@@ 454
1,000 453
43@@ 453
اجن@@ 453
تدو@@ 453
عقل 453
نيوز@@ 453
محفوظ 452
معلوم@@ 452
المجمو@@ 451
ثنا 451
دماج 451
طغرل 451
مطلق 451
PS 450
Tr@@ 450
ملر 450
1811 449
ent 449
tr@@ 449
ya 449
2000@@ 448
Ray 448
lo@@ 448
العاش@@ 448
نست 448
Anderson 447
اندل@@ 447
عزت 447
ir@@ 446
سنو 446
مونا 446
1798 445
2,000 445
اغة 445
الامام 445
خلدون 445
ناشر 445
وارن 445
0,@@ 444
1700 444
1816 444
550 444
74@@ 444
El@@ 444
ارد@@ 444
اوق@@ 444
تزل 444
قسمت 444
مبر 444
132 443
Ex@@ 443
King 443
po@@ 443
بلال 443
رابط@@ 443
قاس@@ 443
7000 442
RA@@ 442
il@@ 442
أرجن@@ 442
المنز@@ 442
منتق@@ 442
وجل 442
ity 441
to@@ 441
لاو 441
مغرب 441
ممن@@ 441
69@@ 440
حج 440
عاصم 440
112 439
114@@ 439
1807 439
280 439
Brian 439
أيض@@ 439
عارف 439
نما 439
1.8 438
from 438
الارتبا@@ 438
منطق 438
123 437
Fred 437
عس@@ 437
كريك@@ 437
† 437
yl@@ 436
ھ@@ 436
145 435
حش@@ 435
وروبا 435
95@@ 434
1801 433
المكر@@ 433
جوان@@ 433
ميش@@ 433
ە@@ 433
زِ@@ 432
نوك 432
Howard 431
Ad@@ 430
التحض@@ 430
عرفات 430
ماذج 430
,000 429
8000 429
ATP 429
اسما@@ 429
انحراف 429
113 428
63@@ 428
98@@ 428
IP 428
RNA 428
Young 428
الق 428
ايو 428
حصص 428
117 427
1776 427
1792 427
20,000 427
em@@ 427
الإند@@ 427
صاف 427
كسيكو 427
260 426
Er@@ 426
اضاف@@ 426
تدار 426
شكال 426
1400 425
Alan 425
ES@@ 425
ديز@@ 425
رزق 425
AT 424
الأستر@@ 424
دج@@ 424
قومي 424
Hall 423
α 423
اليف 423
CS@@ 422
se@@ 422
جماع@@ 422
سسات 422
نافع 422
36.@@ 421
ai 421
مشاع@@ 421
NO@@ 420
bi@@ 420
j 420
musician 420
ضرور@@ 420
مرز@@ 420
33.@@ 419
sh@@ 419
מ@@ 419
اثنا 419
اجد 419
عائد 419
مسلح 419
نوف 419
اتر 418
بمفر@@ 418
مصباح 418
مولة 418
نود 418
واً 418
1,0@@ 417
1799 417
1817 417
2.2 417
CT@@ 417
ell 417
قلم 417
AP 416
Frederick 416
جمل 416
Clark 415
day 415
onlyinclude 415
البند@@ 415
العاص 415
فورا 415
شاد 414
ــ 414
فوت 414
نزول 414
Gordon 413
Retrieved 413
تماش@@ 413
116 412
ator 412
av@@ 412
ler 412
q 412
ارم 412
راجا 412
التسع@@ 411
باطن 411
تحصيل 411
PA 410
actress 410
انشاء 410
21@@ 409
77@@ 409
Am@@ 409
تهرت 409
روبن@@ 409
وابط 409
text 408
المرج@@ 408
خدرات 408
صوم@@ 408
10,@@ 407
64@@ 407
ing@@ 407
الإغري@@ 407
تسا 407
خدا@@ 407
مسافر 407
واخر 407
2030 406
A. 406
York 406
فاتح 406
مشرف 406
ممالك 406
124 405
34.@@ 405
PC 405
الكلاسي@@ 405
الجمع@@ 404
Jackson 403
ah 403
ner 403
طاق 403
قصى 403
مانا 403
مجلس@@ 403
موف 403
British 402
CP@@ 402
Mon@@ 402
be 402
امون 402
1795 401
1803 401
الناخ@@ 401
Li@@ 400
og@@ 400
und 400
وبط@@ 400
114 399
جنا 399
مخد@@ 399
مدار@@ 399
1783 398
SS@@ 398
do@@ 398
رحم@@ 398
سوفت 398
Mo@@ 397
سحر 397
الصنا@@ 396
تفاض@@ 396
155 395
180@@ 395
K. 395
de@@ 395
ly 395
Kevin 394
ans 394
ay 394
اعضاء 394
انواع 394
1.7 393
te 393
اسو 392
برق 392
ضمان@@ 392
ماط 392
You 391
un@@ 391
حايا 391
144 390
فاعل 390
متصل 390
AM@@ 389
UN@@ 389
فنان@@ 389
مخطوطات 389
وظ 389
1805 388
79@@ 388
Carlos 388
se 388
زبان 388
مدح 388
گ@@ 388
650 387
Gr@@ 387
الكيمي@@ 387
متناس@@ 387
ممد@@ 387
1793 386
340 386
Be@@ 386
J. 386
Man@@ 386
Bur@@ 385
CE@@ 385
di 385
ستاذ 385
13,@@ 384
Patrick 384
end 384
مدت 384
Com@@ 383
Jean 383
Lab 383
National 383
ni@@ 383
زند@@ 383
عبرت 383
か@@ 383
AB@@ 382
Green 382
OH 382
Ryan 382
Thompson 382
احتجاج 382
تقاض@@ 382
مترجم 382
En@@ 381
az@@ 381
class 381
دأ 381
صدار@@ 381
MI@@ 380
Walker 380
معام@@ 380
122 379
2.4 379
الحيو@@ 379
براء 379
رقي 379
مارا 379
وديوم 379
إيط@@ 378
اسوب 378
مشيخة 378
مناظر 378
6.5 377
Rec@@ 377
جوار 377
فرات 377
نجات 377
يكرو@@ 377
76@@ 376
Bruce 376
English 376
IN@@ 376
ارنة 376
1780 375
35.@@ 375
Eric 375
129 374
MP@@ 374
ology 373
زائد 373
85@@ 372
A7 372
CI@@ 372
In 372
Pr@@ 372
RE@@ 372
Wi@@ 372
مِنَ 372
133 371
Cal@@ 371
اطلاق 371
11,@@ 370
خطيط 370
ذوق 370
كيرو@@ 370
.org 369
Str@@ 369
ey 369
ov@@ 369
ב@@ 369
الفقار 369
152 368
Alfred 368
si@@ 368
تقار@@ 368
لفزي@@ 368
معاملات 368
منفرد 368
يعيش@@ 368
1788 367
For@@ 367
Moore 367
Robinson 367
are 367
علت 367
ووس@@ 367
136 366
Black 365
ME@@ 365
فيرج@@ 365
138 364
Dan 364
IV 364
ard 364
1775 363
1791 363
Donald 363
Roy 363
دارا 363
نعمان 363
120@@ 362
225 362
IC 362
IS 362
html 362
od@@ 362
ائس 362
معاصر 362
نقص@@ 362
ولث 362
يولوج@@ 362
Ap@@ 361
Juan 361
بولا@@ 361
حيث@@ 361
خا@@ 361
127 360
اورا@@ 360
86@@ 359
ens 359
les 359
اطر 359
مبا 359
منظر 359
1100 358
1802 358
CA 358
SA@@ 358
انعقاد 358
ايس 358
حاضر 358
صحن 358
عطا 358
12,@@ 357
ak@@ 357
حجاج 357
مانع 357
134 356
ol 356
s.@@ 356
اعداد 356
منسوب 356
H2O 355
Love 355
جنت 355
مفع@@ 355
Hill 354
الأحي@@ 354
تعاقب 354
لسان@@ 354
لمذ 354
مودا 354
124@@ 353
1784 353
الثمان@@ 353
خوار@@ 353
دز@@ 353
LE@@ 352
Qu@@ 352
no@@ 352
بوم 352
رسن 352
لال@@ 352
-- 351
1.0 351
300@@ 351
Mar 351
صورت 351
نن 351
201 350
Zone 350
ep@@ 350
اعمال 350
الإسب@@ 350
113@@ 349
118 349
119 349
Gary 349
برز@@ 349
حصاء 349
عجب 349
معاش@@ 349
3,000 348
Ac@@ 348
Harris 348
بساطة 348
تساب 348
تصادم 348
مني@@ 348
1796 347
ri@@ 347
التاريخ@@ 347
التدف@@ 347
اندر@@ 347
دلت 347
ميخ@@ 347
وذكسية 347
38.@@ 346
39.@@ 346
O2 346
ak 346
ism 346
اعلا@@ 346
شمع@@ 346
عابد 346
89@@ 345
Billy 345
Ro@@ 345
ti 345
نيوزي@@ 345
130@@ 344
Wright 344
الرحمان 344
CH@@ 343
ה@@ 343
جاح 343
126 342
1797 342
20000 342
Dave 342
اخذ 342
بدر@@ 342
صفت 342
ی 342
154 341
Campbell 341
Russell 341
style 341
ל@@ 341
ابرات 341
تلامذ@@ 341
مستع@@ 341
380 340
De 340
بود 340
سرب@@ 340
1794 339
Tony 339
ty 339
حالي@@ 339
سوان@@ 339
وتن 339
14,@@ 338
Per@@ 338
ah@@ 338
e.@@ 338
فرز@@ 338
قتص@@ 338
2.3 337
235 337
CD 337
Louis 337
صفو@@ 337
معاء 337
184 336
Ross 336
mon@@ 336
السيوم 336
لاش 336
0.000 335
Bo@@ 335
ir 335
ابيب 335
قسط@@ 335
تلا 334
رضوان 334
ومت 334
146 333
CC@@ 333
Ag@@ 332
باج@@ 332
دلائل 332
سالم@@ 332
Lawrence 331
Sch@@ 331
Sp@@ 331
eb@@ 331
حاش@@ 331
32.@@ 330
802.@@ 330
Charlie 330
Gar@@ 330
خاصا 330
دراست@@ 330
فلوري@@ 330
لاش@@ 330
مائل 330
Har@@ 329
ada 329
den 329
mo@@ 329
vi@@ 329
CC 328
ous 328
فرعون 328
موص@@ 328
Alex 327
Ian 327
School 327
So@@ 327
atus 327
اضية 327
تاث@@ 327
ناز 327
نش 327
142 326
143 326
1787 326
8.5 326
96@@ 326
97@@ 326
Ne@@ 326
field 326
تبر 326
غوث@@ 326
ناطي@@ 326
000@@ 325
Sam 325
model 325
درالي 325
ذبح 325
001 324
AI@@ 324
Benjamin 324
IP@@ 324
Luis 324
سوار 324
غروب 324
معقول 324
137 323
202 323
211 323
Baker 323
Herbert 323
اعتد@@ 323
مرشد 323
0.2 322
165 322
Her@@ 322
Mac@@ 322
go@@ 322
ns 322
sa 322
هُمْ 322
وامي 322
161 321
185 321
87@@ 321
oph@@ 321
par@@ 321
ساؤ@@ 321
لانا 321
193 320
37.@@ 320
اولاد 320
115@@ 319
206 319
Dis@@ 319
انتهاك@@ 319
طاس 319
مختصر 319
153 318
205 318
30,000 318
850 318
Douglas 318
Gu@@ 318
HD 318
157 317
1763 317
179@@ 317
Craig 317
Ed 317
Stewart 317
ale 317
kh@@ 317
بلح@@ 317
فرار 317
ونتو 317
148 316
1785 316
Des@@ 316
ary 316
public 316
● 316
168 315
Group 315
MP 315
ite 315
رور@@ 315
ضوابط 315
وفيا 315
ووك@@ 315
50,000 314
Bell 314
Te@@ 314
car@@ 314
ש@@ 314
مَنْ 314
16,@@ 313
Andy 313
Carl 313
Graham 313
My@@ 313
Tim 313
ts 313
عَلَيْ@@ 313
كترو@@ 313
171 312
ex@@ 312
oma 312
β 312
اصطلاح 312
شوال 312
151 311
Wil@@ 311
شراب 311
عثمان@@ 311
نسق 311
1.9 310
17,@@ 310
Le 310
Me@@ 310
format 310
ra 310
May 309
do 309
un 309
رحم 309
مخلوق 309
ويسك@@ 309
176 308
Marshall 308
Ph@@ 308
TS 308
qu@@ 308
اجزاء 308
اران 308
اعتراضات 308
اوا@@ 308
بسن 308
زور@@ 308
شاف 308
1786 307
3500 307
49.@@ 307
Kelly 307
Po@@ 307
ps 307
الباح@@ 307
تحف@@ 307
تحفظ 307
فِ 307
139 306
CR@@ 306
Evans 306
Pro@@ 306
im 306
ka 306
زوال 306
سارا 306
غزوات 306
0.3 305
181 305
land 305
منز 305
منو@@ 305
وكيو 305
84@@ 304
eg@@ 304
خاتون 304
Ma@@ 303
Simon 303
all 303
tic 303
tion 303
فرغ@@ 303
لعل 303
Anthony 302
il 302
شعاع@@ 302
147 301
1781 301
He@@ 301
Zealand 301
ov 301
تأس@@ 301
تورا@@ 301
لارا 301
موصل 301
166 300
256 300
AM 300
PO@@ 300
Roger 300
align 300
ance 300
الرز@@ 300
1770 299
Un@@ 299
ano 299
ik@@ 299
انِ 299
ثلا@@ 299
قِ 299
معجز@@ 299
1774 298
عِ 298
167 297
195 297
Christopher 297
age 297
ig@@ 297
جوء 297
شرائط 297
نَا 297
156 296
2.6 296
48.@@ 296
94@@ 296
النا 296
غص@@ 296
لَا 296
نهار 296
192 295
be@@ 295
over@@ 295
per@@ 295
tri@@ 295
بلدي@@ 295
199 294
P. 294
غزل 294
0.4 293
158 293
2.1 293
3.6 293
9000 293
Jason 293
Mas@@ 293
af@@ 293
ida 293
إ 293
معص@@ 293
173 292
Larry 292
von 292
ثقل 292
زد@@ 292
Adams 291
able 291
أعلا@@ 291
النو@@ 291
زستان 291
سرور 291
212 290
310 290
ISO 290
Ken 290
Lo@@ 290
Manuel 290
My 290
RS 290
no 290
st 290
اخراج 290
برى 290
خائر 290
فرانسي@@ 290
169 289
208 289
3.7 289
film 289
ختر 289
مند 289
١@@ 289
163 288
Adam 288
DA 288
ve 288
آم@@ 288
141 287
2.7 287
20,@@ 287
4,000 287
Or@@ 287
داز 287
داغ@@ 287
مؤثر 287
ま@@ 287
1,4@@ 286
15,@@ 286
204 286
737 286
Hugh 286
Jimmy 286
RO@@ 285
TO@@ 285
berg 285
boxer 285
du 285
ke 285
159 284
سنجر 284
217 283
Norman 283
mar@@ 283
اتذ@@ 283
سبا 283
نن@@ 283
い@@ 283
186 282
365 282
420 282
Ca@@ 282
MS@@ 282
Morgan 282
TE@@ 282
ini 282
ذربيجان 282
لوع 282
3.2 281
Pol@@ 281
Ron 281
دييات 281
ظالم 281
290 280
DE@@ 280
Jonathan 280
Ly@@ 280
Mitchell 280
RI@@ 280
اكرة 280
جلا 280
فنزوي@@ 280
DS 279
Jeff 279
Mal@@ 279
ay@@ 279
اليه@@ 279
عفان 279
لباس 279
215 278
DO@@ 278
Dennis 278
ER 278
br@@ 278
ارير 278
13.5 277
Bi@@ 277
Nelson 277
ics 277
te@@ 277
um@@ 277
بلن 277
سندر 277
2.8 276
Antonio 276
Christian 276
del 276
ene 276
era 276
נ@@ 276
الإنجلي@@ 276
غلام 276
1750 275
Keith 275
M. 275
type 275
yl 275
نوج@@ 275
209 274
301 274
ence 274
اعلان 274
تاش 274
غريت 274
معظ@@ 274
194 273
216 273
West 273
co 273
value 273
ā@@ 273
الشعب@@ 273
لائق 273
مثبت 273
172 272
Murray 272
background 272
الإضافة 272
177 271
ABC 271
الإقلي@@ 271
مقدس 271
196 270
ISBN 270
LA 270
Ward 270
جمعات 270
دوغ@@ 270
نعر@@ 270
し@@ 270
179 269
Terry 269
pr@@ 269
الَّ@@ 269
رستم 269
ضرو@@ 269
غرى 269
191 268
200,000 268
203 268
207 268
Ben 268
ge 268
اوج@@ 268
000,000 267
Ab@@ 267
Matt 267
TNA 267
آفاق 267
اصد 267
جراث@@ 267
سرائ@@ 267
た@@ 267
15000 266
1777 266
1779 266
ati@@ 266
± 266
اوند 266
بازار 266
تخطي@@ 266
جانات 266
طالبات 266
さ@@ 266
Dick 265
Miguel 265
تمبر 265
محصول 265
164 264
480 264
El 264
Morris 264
ani 264
bo@@ 264
مبا@@ 264
3.3 263
4.6 263
500@@ 263
8,000 263
Fe@@ 263
London 263
آغ@@ 263
بش 263
روفة 263
ساج@@ 263
فاط@@ 263
ماؤ@@ 263
مختص 263
178 262
au 262
ical 262
ins 262
sp@@ 262
ut@@ 262
23,@@ 261
Hamilton 261
ys 261
عاشور 261
كش 261
NE@@ 260
RA 260
ara 260
ca 260
انقلا@@ 260
زنا 260
1772 259
182 259
183 259
One 259
PS@@ 259
SD@@ 259
ce 259
ole 259
فاسو 259
متنوع 259
149 258
19,@@ 258
221 258
370 258
DC 258
Stanley 258
Turner 258
ci@@ 258
ابان 258
مبيا 258
1778 257
222 257
228 257
232 257
787 257
AD 257
Mil@@ 257
Ver@@ 257
ach@@ 257
امتحانات 257
بوض@@ 257
طنين 257
عشق 257
0.8 256
12.5 256
275 256
Ber@@ 256
Day 256
Sal@@ 256
South 256
con@@ 256
الاختلا@@ 256
الميز@@ 256
مضمون 256
موج 256
0.6 255
162 255
3.1 255
4.2 255
47.@@ 255
Edwards 255
FA 255
Hol@@ 255
Mer@@ 255
begin 255
الَّذِ@@ 255
٢@@ 255
CN@@ 254
Hor@@ 254
IT@@ 254
contributor 254
int 254
ita 254
timestamp 254
اواخر 254
خوا 254
علی 254
174 253
AR 253
ne@@ 253
new 253
soccer 253
username 253
اديمية 253
ثروبولوج@@ 253
田@@ 253
0.7 252
CM@@ 252
ber@@ 252
ell@@ 252
tis 252
سولو 252
طرز 252
منبر 252
1782 251
18,@@ 251
243 251
Bor@@ 251
IEEE 251
IF@@ 251
Warren 251
als 251
درد 251
طروا@@ 251
كُمْ 251
منتشر 251
189 250
198 250
IBM 250
STS 250
تلر 250
188 249
281 249
400@@ 249
PE@@ 249
Tommy 249
comment 249
der@@ 249
ino 249
ver@@ 249
ה 249
اندا@@ 249
218 248
238 248
BM@@ 248
HTML 248
ane 248
آند@@ 248
اصغر 248
بسا@@ 248
مطالبات 248
1,5@@ 247
110@@ 247
Bobby 247
Me 247
Ralph 247
ys@@ 247
آس@@ 247
بخت@@ 247
حالت 247
مدراس 247
187 246
AA 246
Ger@@ 246
US 246
tu@@ 246
متعلق 246
محب 246
AB 245
AE@@ 245
Francisco 245
Inter@@ 245
Lin@@ 245
Man 245
ho@@ 245
اقت 245
الفتا@@ 245
المرتب@@ 245
سراج 245
فوراً 245
منج@@ 245
وارا 245
213 244
3.8 244
PC@@ 244
Red 244
lin@@ 244
أمت@@ 244
اسن 244
برئ@@ 244
تعل 244
قلات 244
كشن 244
Cook 243
Raymond 243
Reg@@ 243
sw@@ 243
ura 243
جيك@@ 243
متبادل 243
Dr@@ 242
SN 242
United 242
ated 242
ies 242
sc@@ 242
wood 242
الشرق@@ 242
شرت 242
224 241
Matthew 241
Mel@@ 241
NH@@ 241
a.@@ 241
ha 241
ou@@ 241
was 241
العث@@ 241
تصوف 241
توان@@ 241
رحال 241
مطاب@@ 241
معارف 241
1769 240
H2@@ 240
Journal 240
Park 240
man@@ 240
اوغ@@ 240
داغستان 240
رشد 240
لنج 240
Mr 239
ab 239
tin 239
الن 239
جانا 239
ماتا 239
214 238
46.@@ 238
6,000 238
All 238
As 238
Jordan 238
223 237
Johnny 237
Max 237
ot 237
رافع 237
وزار@@ 237
وعاز@@ 237
-1 236
Roberts 236
pi@@ 236
المؤر@@ 236
غانستان 236
فلورنس 236
مرتض@@ 236
500,000 235
AN 235
EC@@ 235
Go@@ 235
Les 235
Mat@@ 235
NA 235
pe 235
توضي@@ 235
ساط 235
صفا 235
,@@ 234
242 234
27,@@ 234
40,000 234
A.@@ 234
Bennett 234
Cl 234
Oliver 234
ac 234
if 234
pe@@ 234
رنز 234
مضر 234
وسر 234
Bernard 233
Carter 233
EC 233
Gal@@ 233
Ge@@ 233
ker 233
حرام 233
داغ 233
197 232
SC 232
Si@@ 232
دفتر 232
سنن 232
صابر 232
IL 231
time 231
لايات 231
مزار 231
262 230
com@@ 230
ge@@ 230
ko 230
é 230
الفح@@ 230
مست 230
1765 229
255 229
Eddie 229
NS@@ 229
io 229
حس 229
や@@ 229
118@@ 228
21,@@ 228
26,@@ 228
460 228
Maria 228
SI@@ 228
Sc@@ 228
التار@@ 228
باقر 228
بدار 228
رجوع 228
سرخ@@ 228
كرك@@ 228
Leonard 227
Murphy 227
امز 227
حنبل 227
ڨ@@ 227
ひ@@ 227
100.000 226
22,@@ 226
3D 226
cr@@ 226
sson 226
tic@@ 226
اصول 226
تلفزي@@ 226
ٱ@@ 226
0.9 225
241 225
Cooper 225
Fre@@ 225
Kar@@ 225
Parker 225
Sol@@ 225
Wallace 225
Wood 225
aths 225
em 225
ons 225
اثات 225
زاب 225
ھا 225
5.6 224
B1 224
CO 224
Ernest 224
Franklin 224
Price 224
ant 224
ן 224
تصورات 224
سماعيل 224
واضيع 224
き 224
--@@ 223
245 223
251 223
284 223
325 223
GA 223
Is@@ 223
aria 223
ire 223
re 223
su@@ 223
£ 223
ד@@ 223
تشدد 223
سست 223
سی@@ 223
مصعب 223
1768 222
239 222
24,@@ 222
99.@@ 222
Dean 222
MC 222
ations 222
colspan 222
ent@@ 222
est 222
اهز 222
فرائ@@ 222
لوبة 222
226 221
5.3 221
Gray 221
IG@@ 221
ant@@ 221
that 221
احت 221
عرفان 221
هاد 221
् 221
し 221
1,6@@ 220
264 220
440 220
Cameron 220
Conn@@ 220
II@@ 220
ang@@ 220
بتا 220
خندق 220
مقرر 220
1,8@@ 219
Barry 219
HA 219
Jerry 219
MO@@ 219
Ros@@ 219
San@@ 219
Vi@@ 219
alis 219
cher 219
gen@@ 219
ger 219
ome 219
singer 219
ע@@ 219
آتش@@ 219
اخبار 219
فاض 219
ناظم 219
257 218
4.3 218
Mary 218
Philip 218
net 218
width 218
دبا@@ 218
موش 218
1760 217
252 217
AF 217
Con 217
Life 217
We@@ 217
ales 217
ens@@ 217
fo@@ 217
اخلا@@ 217
الأفري@@ 217
زخ@@ 217
ڤ 217
430 216
Far@@ 216
Fox 216
Grant 216
Jay 216
McDonald 216
aceae 216
he@@ 216
me 216
خلفاء 216
فربول 216
ماسات@@ 216
متاز 216
0.0@@ 215
150@@ 215
1773 215
410 215
Award 215
Little 215
Neil 215
Ser@@ 215
System 215
Wayne 215
osa 215
wiki 215
جاسوس 215
شنطن 215
مماث@@ 215
منس 215
227 214
285 214
313 214
375 214
CN 214
CS 214
Co 214
Kenneth 214
eb 214
ma@@ 214
تخصي@@ 214
جيريا 214
12.7 213
4.7 213
A1 213
Can@@ 213
Foster 213
Micro@@ 213
Nick 213
SI 213
SN@@ 213
Val@@ 213
center 213
gr@@ 213
iro 213
php 213
تعظ@@ 213
1596 212
247 212
249 212
3.4 212
30,@@ 212
Connor 212
FI@@ 212
House 212
It 212
Time 212
dis@@ 212
ht@@ 212
ium 212
lis 212
شجاع 212
1740 211
Aaron 211
News 211
ess 211
lin 211
شتو@@ 211
معاذ 211
منبع 211
نفوس 211
286 210
390 210
AG@@ 210
Collins 210
Im@@ 210
ks 210
بالاد@@ 210
بذات 210
خوان@@ 210
نسر 210
CF@@ 209
DP 209
Gil@@ 209
ion 209
parentid 209
الخام@@ 209
رام@@ 209
شاد@@ 209
لاست 209
محض 209
مصنف 209
25,@@ 208
3.0 208
Gene 208
Music 208
Pedro 208
TE 208
ala 208
mann 208
me@@ 208
ق.@@ 208
كارول@@ 208
معلوم 208
می@@ 208
يّاً 208
← 208
253 207
272 207
3.9 207
300,000 207
AG 207
BO@@ 207
Fr@@ 207
González 207
Google 207
Rogers 207
TA 207
Watson 207
ek@@ 207
اساس 207
تغلق 207
شنو 207
محقق 207
1756 206
4500 206
640 206
BA 206
Harold 206
Long 206
On 206
VA 206
up 206
إسط@@ 206
1,7@@ 205
254 205
Blue 205
Edwin 205
FM 205
Min@@ 205
SH 205
Stone 205
TP 205
cor@@ 205
ja 205
si 205
اسد 205
244 204
263 204
4.8 204
BR@@ 204
Brooks 204
Doug 204
Du@@ 204
and@@ 204
yr@@ 204
ת 204
ادب 204
اكل 204
الجغرا@@ 204
راز@@ 204
229 203
Fernando 203
H. 203
LO@@ 203
Press 203
Windows 203
ington 203
اللَّهِ 203
اوز@@ 203
تايل@@ 203
تلمذ 203
سغ@@ 203
な@@ 203
269 202
DS@@ 202
Danny 202
Lloyd 202
anus 202
ō 202
البالغ@@ 202
فی 202
233 201
248 201
At@@ 201
Curtis 201
Gilbert 201
N1 201
Pierre 201
Sullivan 201
TV@@ 201
Vincent 201
ok@@ 201
の@@ 201
265 200
273 200
Austin 200
H5@@ 200
Pe@@ 200
Todd 200
ei 200
immer 200
inae 200
án 200
تائ@@ 200
جبل@@ 200
سعو@@ 200
٠@@ 200
あ@@ 200
1,9@@ 199
DR@@ 199
García 199
Harrison 199
Pre@@ 199
Sar@@ 199
Shar@@ 199
hi@@ 199
lu@@ 199
جمل@@ 199
غالب@@ 199
مفل@@ 199
1689 198
1755 198
302 198
333 198
5.1 198
5.2 198
5.4 198
Bel@@ 198
Do@@ 198
Kr@@ 198
Phillips 198
ors 198
́ 198
ادر@@ 198
اقسام 198
بستر 198
ذخائر 198
274 197
305 197
9.5 197
AF@@ 197
Hy@@ 197
NET 197
Su@@ 197
Washington 197
pl@@ 197
ry 197
ارس@@ 197
تحال 197
درن 197
زبور@@ 197
قرآ@@ 197
مقرا@@ 197
1759 196
Tak@@ 196
om 196
ula 196
نوان 196
1758 195
1771 195
306 195
Ko@@ 195
March 195
To@@ 195
eh@@ 195
tes 195
tia 195
ա@@ 195
باعث 195
ضمام 195
وی@@ 195
15,000 194
237 194
258 194
45.@@ 194
EP 194
Earl 194
Harvey 194
RT@@ 194
اثان 194
براير 194
1766 193
4.4 193
950 193
CO2 193
Duncan 193
Fin@@ 193
Gre@@ 193
Prince 193
ari@@ 193
illa 193
ru@@ 193
بدن 193
جائز 193
رقب@@ 193
وائز 193
واسط@@ 193
1660 192
1764 192
234 192
7,000 192
Art 192
Bryan 192
Die 192
Karl 192
Research 192
ain 192
gi@@ 192
kin 192
mi@@ 192
osis 192
י 192
مومن 192
1762 191
2.9 191
283 191
31@@ 191
470 191
540 191
6.4 191
747 191
College 191
DM 191
Ho@@ 191
How@@ 191
Ke@@ 191
Pi@@ 191
Richardson 191
Ronald 191
Shaw 191
Star 191
row 191
ser@@ 191
tor@@ 191
خالص@@ 191
1,3@@ 190
323 190
6.2 190
Hunter 190
ML@@ 190
Mur@@ 190
Perry 190
Pl@@ 190
Stuart 190
hy@@ 190
za 190
دی@@ 190
متن@@ 190
1757 189
246 189
288 189
44.@@ 189
CT 189
City 189
Cu@@ 189
Es@@ 189
Pat 189
Power 189
Sa@@ 189
ack 189
so@@ 189
اندرا 189
بخش 189
قدة 189
مستند 189
1517 188
2100 188
240@@ 188
5.7 188
777 188
Allan 188
Association 188
DVD 188
FC 188
Ford 188
ID 188
LS 188
eri 188
ide 188
ili@@ 188
out 188
ָ@@ 188
بلخ 188
خراب 188
طريات 188
مقصود 188
∈ 188
276 187
Ellis 187
die 187
ou 187
ּ@@ 187
اطراف 187
حفاظ@@ 187
سوع 187
مجرم 187
محراب 187
1492 186
303 186
CP 186
Clarke 186
Hal@@ 186
Jacob 186
Marcus 186
Rodríguez 186
Society 186
ari 186
du@@ 186
sch@@ 186
ō@@ 186
تراجم 186
خلا 186
سمرقند 186
قاز@@ 186
متفق 186
1350 185
60,000 185
660 185
AL 185
Rose 185
SH@@ 185
Service 185
ian 185
ure 185
ئم 185
صحت 185
فورس 185
مقدمات 185
4.1 184
Center 184
Martínez 184
Mus@@ 184
chi@@ 184
cu@@ 184
iz@@ 184
li 184
pro@@ 184
امراض 184
بانو 184
قرأت 184
كاليف 184
مبالغ@@ 184
يونين 184
′ 184
‹ 184
160@@ 183
297 183
720 183
Arnold 183
Davies 183
Dec@@ 183
Justin 183
Mason 183
RC 183
Steven 183
ist@@ 183
بمث@@ 183
داست@@ 183
نفاذ 183
25,000 182
293 182
296 182
312 182
Bailey 182
Bl@@ 182
Black@@ 182
Ul@@ 182
end@@ 182
its 182
ki 182
system 182
á@@ 182
ارِ 182
ازدوا@@ 182
رسك 182
فرمان 182
231 181
28,@@ 181
321 181
Cy@@ 181
Hughes 181
IE@@ 181
Live 181
North 181
T. 181
Ter@@ 181
Victor 181
of@@ 181
ro 181
tro@@ 181
عبدالرحمن 181
ميع 181
282 180
36,@@ 180
Az@@ 180
Club 180
N2 180
RT 180
Science 180
Spencer 180
Tom@@ 180
ber 180
cap@@ 180
cer@@ 180
ev@@ 180
ock 180
oney 180
الحاد@@ 180
طغ@@ 180
مولانا 180
1714 179
2,0@@ 179
267 179
277 179
324 179
520 179
610 179
7.1 179
B.@@ 179
Butler 179
List 179
Media 179
Robertson 179
back 179
ox@@ 179
خوزستان 179
راغب 179
فضائل 179
ملاز@@ 179
268 178
501 178
630 178
BBC 178
IR@@ 178
Silva 178
Tri@@ 178
ang 178
ath@@ 178
ابتة 178
تناظر 178
پس 178
1250 177
1720 177
Rick 177
Rob 177
ach 177
volleyball 177
well 177
التغي@@ 177
بقول 177
عرس 177
نسو 177
﴾ 177
5.8 176
BS 176
Ba@@ 176
Bow@@ 176
Ig@@ 176
Rob@@ 176
ama 176
ech@@ 176
ni 176
sin@@ 176
thi@@ 176
الفرنس@@ 176
خوس@@ 176
رائم 176
رخين 176
ری@@ 176
﴿ 176
10.5 175
219 175
278 175
322 175
5.9 175
560 175
680 175
GP@@ 175
Hernández 175
Porter 175
VI@@ 175
au@@ 175
bl@@ 175
data 175
sy@@ 175
ur 175
خوارزم 175
ديي@@ 175
نگ@@ 175
1742 174
236 174
33,@@ 174
@ 174
AI 174
EM@@ 174
IB@@ 174
Is 174
López 174
Reid 174
Trans@@ 174
mer@@ 174
ona 174
العبو@@ 174
مورس 174
1718 173
1754 173
287 173
8.1 173
Cox 173
Met@@ 173
Patterson 173
br 173
cy@@ 173
ver 173
الكهرب@@ 173
ستم 173
شعل@@ 173
كويك@@ 173
1550 172
1610 172
1648 172
1650 172
1745 172
4.0 172
6.1 172
BC 172
Eugene 172
Fl@@ 172
Hir@@ 172
Knight 172
Mills 172
Ni@@ 172
Op@@ 172
SL@@ 172
SM@@ 172
Super 172
cc 172
ii 172
› 172
1767 171
1920@@ 171
266 171
525 171
570 171
Bro@@ 171
DI 171
GE 171
Health 171
Men@@ 171
Microsoft 171
PR@@ 171
Pérez 171
Tel@@ 171
if@@ 171
ito 171
sel@@ 171
ue 171
ung 171
آف 171
الر 171
انتداب 171
اوائل 171
خسرو 171
ین 171
170@@ 170
1730 170
29,@@ 170
338 170
7.8 170
Air 170
Av@@ 170
CE 170
CL@@ 170
Entertainment 170
History 170
Lane 170
Mario 170
Pan@@ 170
WHO 170
ek 170
for@@ 170
ting 170
vin 170
ם 170
اصحاب 170
تاريو 170
ثبوت 170
1688 169
1741 169
1761 169
315 169
6.3 169
7.6 169
A2 169
Bu@@ 169
FDA 169
Gibson 169
Page 169
This 169
USB 169
Vol@@ 169
ative 169
ensen 169
sk@@ 169
this 169
van 169
آبادي 169
اشخاص 169
سورا@@ 169
عجائب 169
فخر@@ 169
10.000 168
304 168
4.9 168
Char@@ 168
ES 168
Elliott 168
St. 168
ebes 168
est@@ 168
ora 168
امِ 168
تلفظ 168
2O@@ 167
Bal@@ 167
Company 167
Gen@@ 167
No 167
ng 167
ory 167
ח@@ 167
ק@@ 167
تاكي 167
تسلط 167
لی@@ 167
مداخ@@ 167
1748 166
2050 166
317 166
Brien 166
CR 166
Carroll 166
LP 166
NXT 166
cin@@ 166
ford 166
fr@@ 166
احم@@ 166
الوداع 166
1707 165
307 165
America 165
Em@@ 165
Henderson 165
Mag@@ 165
Network 165
State 165
ap 165
cal@@ 165
jo 165
line 165
onia 165
yn@@ 165
العار@@ 165
سنغاف@@ 165
غلبية 165
34,@@ 164
490 164
Bas@@ 164
Cap@@ 164
Chapman 164
Cur@@ 164
GSM 164
Royal 164
Van 164
Vo@@ 164
dr@@ 164
ill@@ 164
str@@ 164
ə@@ 164
مصنو@@ 164
نجليزي 164
يلتون 164
1640 163
271 163
6.7 163
Cs 163
Hay@@ 163
Kent 163
Night 163
P.@@ 163
RN@@ 163
Reed 163
ce@@ 163
ez@@ 163
ore 163
محبوب 163
مطلب 163
1620 162
35,@@ 162
505 162
6.8 162
7.7 162
Business 162
Colin 162
Fisher 162
GS 162
Institute 162
No@@ 162
Sam@@ 162
Sean 162
TC 162
athlete 162
cases 162
icus 162
ters 162
بابر 162
2200 161
261 161
299 161
620 161
C.@@ 161
High 161
IA 161
Isaac 161
Jamie 161
Kay 161
Kennedy 161
PP@@ 161
Show 161
ass@@ 161
ba 161
color 161
سمن@@ 161
مرتب 161
نافذ 161
6.9 160
EL@@ 160
EN@@ 160
FS 160
Greg 160
Hunt 160
Reynolds 160
SD 160
ann@@ 160
lam@@ 160
اشع@@ 160
Dale 159
Foundation 159
Hart 159
Johnston 159
Neill 159
Owen 159
XX 159
ax@@ 159
bit 159
ette 159
return 159
انفرا@@ 159
انو@@ 159
خوب@@ 159
زخم 159
فارغ 159
مواصلات 159
12,000 158
139@@ 158
298 158
311 158
395 158
8.2 158
AK@@ 158
Brandon 158
Crawford 158
ME 158
MT@@ 158
Red@@ 158
SO4 158
ates 158
can@@ 158
oa 158
que 158
ye 158
تاق 158
شرم 158
نواز 158
37,@@ 157
960 157
Best 157
Dar@@ 157
Derek 157
GB 157
Lucas 157
Ted 157
ao 157
ax 157
bar@@ 157
ides 157
à 157
ارو@@ 157
خالق 157
دست 157
ستس 157
ー@@ 157
1603 156
600@@ 156
7.9 156
Cer@@ 156
Coleman 156
Education 156
F. 156
LED 156
SR 156
Wells 156
acteri@@ 156
anti@@ 156
bu@@ 156
ra@@ 156
السكان@@ 156
متناسب 156
ممنوع 156
نول 156
1538 155
425 155
André 155
ED@@ 155
Ed@@ 155
IT 155
July 155
Kim 155
Leslie 155
PT@@ 155
Ther@@ 155
art 155
low 155
out@@ 155
pal@@ 155
right 155
tive 155
حالف 155
1644 154
1715 154
294 154
295 154
39,@@ 154
7.2 154
Big 154
Hel@@ 154
Lind@@ 154
Pat@@ 154
Prot@@ 154
RAM 154
Super@@ 154
War 154
inter@@ 154
we 154
ר 154
الاول 154
المؤمن@@ 154
خون@@ 154
دشت 154
غوث 154
259 153
337 153
512 153
6.6 153
Jan 153
Mah@@ 153
Maurice 153
UC@@ 153
Win@@ 153
ade 153
ett 153
ney 153
سوتا 153
مظفر 153
نبذ@@ 153
1749 152
1752 152
399 152
Anna 152
Fraser 152
IL@@ 152
Oscar 152
Pa@@ 152
Simpson 152
TT@@ 152
WA 152
ess@@ 152
ly@@ 152
ment 152
occus 152
استاذ 152
سمر@@ 152
مصلح@@ 152
مندر 152
يكروسوفت 152
1701 151
279 151
291 151
309 151
Active 151
Fi@@ 151
Fletcher 151
Golden 151
Jar@@ 151
LGBT 151
S.@@ 151
ish@@ 151
more 151
va 151
wan 151
web 151
ִ@@ 151
اسلوب 151
بحال 151
سعار 151
مسن 151
نانا 151
ونسب 151
ED 150
Junc@@ 150
Por@@ 150
SL 150
char@@ 150
ef@@ 150
ish 150
mer 150
ta@@ 150
α@@ 150
دوست 150
سطنط@@ 150
صحاف@@ 150
طاعون 150
فرش 150
مقبر@@ 150
289 149
316 149
336 149
Armstrong 149
Brad 149
Bradley 149
Freeman 149
San 149
ash@@ 149
ation@@ 149
ba@@ 149
hi 149
min@@ 149
tica 149
і@@ 149
البشر@@ 149
شغف 149
ــــــــ@@ 149
قبائ@@ 149
قدس 149
مردم 149
1260 148
1743 148
319 148
7.3 148
Anne 148
DR 148
Nicholas 148
Thomson 148
ali@@ 148
all@@ 148
ema 148
ents 148
eria 148
ff@@ 148
ile 148
my@@ 148
our 148
ְ@@ 148
ولِ 148
159@@ 147
331 147
Gerald 147
Law 147
Mul@@ 147
Pro 147
Sub@@ 147
Times 147
Tor@@ 147
Will 147
dium 147
ler@@ 147
ong 147
tra 147
vir@@ 147
void 147
ym@@ 147
الكويك@@ 147
تينات 147
سلاو 147
عصمت 147
ゆ@@ 147
ら 147
31.@@ 146
359 146
404 146
7.4 146
978 146
Chuck 146
Cohen 146
EP@@ 146
Gregory 146
Os@@ 146
PH 146
Phil 146
Torres 146
aw@@ 146
he 146
ier 146
ji 146
ola 146
rom@@ 146
ל 146
كيوب@@ 146
مخالف 146
مناف 146
نصر@@ 146
お@@ 146
1735 145
292 145
346 145
354 145
760 145
9.3 145
An 145
Carr 145
Cross 145
IN 145
SE 145
UM@@ 145
Willis 145
edi@@ 145
ex 145
ome@@ 145
pos@@ 145
اندوز 145
دلا@@ 145
وزر 145
1630 144
1746 144
2400 144
Ali 144
CY@@ 144
LC 144
LE 144
Malcolm 144
Project 144
Randy 144
Ti@@ 144
Wrestling 144
ating 144
don 144
elli 144
آخذ 144
باطل 144
つ@@ 144
129@@ 143
510 143
89.@@ 143
Andrews 143
Gro@@ 143
Guy 143
Lu@@ 143
María 143
Rafael 143
Rice 143
UT@@ 143
acid 143
ato 143
atum 143
dia 143
ena 143
ese 143
ip@@ 143
iv@@ 143
mu@@ 143
سوخ 143
مزاج 143
い 143
1744 142
1751 142
353 142
355 142
367 142
Cole 142
FL@@ 142
HC 142
HP 142
ISC 142
Il@@ 142
Mol@@ 142
Na 142
PDF 142
PI 142
Pearson 142
States 142
Ste@@ 142
micro@@ 142
oides 142
ον 142
ندو@@ 142
نسبت 142
子 142
1450 141
530 141
580 141
625 141
Barnes 141
Ben@@ 141
Burns 141
IO@@ 141
Leon 141
Mu@@ 141
PI@@ 141
Powell 141
S2 141
alism 141
chi 141
folia 141
ick@@ 141
sub@@ 141
the@@ 141
uk 141
ئن 141
التا 141
نائس 141
み@@ 141
1624 140
332 140
345 140
347 140
385 140
93.@@ 140
DI@@ 140
DL 140
Linux 140
Mad@@ 140
Otto 140
Sánchez 140
V. 140
Wal@@ 140
ame 140
can 140
col@@ 140
her@@ 140
writer 140
الدست@@ 140
تمم 140
پ 140
گان 140
と@@ 140
も@@ 140
大@@ 140
20.000 139
Burton 139
CI 139
Dav@@ 139
FO@@ 139
OC 139
Ricardo 139
Rus@@ 139
Sur@@ 139
go 139
org@@ 139
up@@ 139
مانس 139
ورو@@ 139
1000@@ 138
401 138
98.@@ 138
April 138
Arch@@ 138
August 138
CDC 138
Ferguson 138
Holmes 138
Inc. 138
Poly@@ 138
Row@@ 138
Walsh 138
aga 138
ally 138
amp@@ 138
ids 138
ng@@ 138
tics 138
tw@@ 138
ve@@ 138
פ@@ 138
إليزاب@@ 138
ستيو@@ 138
محدث 138
منصف 138
318 137
32,@@ 137
342 137
5.000 137
59.@@ 137
AK 137
AV@@ 137
Claude 137
For 137
H2 137
PG 137
SW@@ 137
Wh@@ 137
ati 137
ison 137
mat@@ 137
my 137
oth@@ 137
π 137
آس 137
تخصصة 137
دفاتر 137
ذول 137
شقند 137
مطالع@@ 137
1430 136
362 136
366 136
670 136
Cre@@ 136
Davidson 136
Great 136
HT@@ 136
Hayes 136
MacDonald 136
Morton 136
Nathan 136
Office 136
PP 136
RI 136
Rock 136
Timothy 136
U.S. 136
Women 136
mayor 136
é@@ 136
ابو@@ 136
رعة 136
شوق 136
فردوس 136
فرنس@@ 136
فورنيا 136
معمول 136
نواع 136
だ 136
1,500 135
1680 135
2600 135
329 135
351 135
363 135
536 135
Blair 135
DF 135
FF 135
Hansen 135
Ltd 135
Mann 135
Marc 135
NBC 135
PR 135
To 135
Up 135
Virginia 135
ds 135
oh@@ 135
use 135
you 135
اطلا@@ 135
لاؤ@@ 135
1649 134
1753 134
2025 134
371 134
389 134
Cas@@ 134
DSM 134
Dixon 134
Li 134
NP 134
PD 134
Paris 134
Robin 134
SF@@ 134
Santos 134
Tyler 134
aki 134
ets 134
pre@@ 134
syndrome 134
اعتدال 134
توبر 134
جرائد 134
حبش@@ 134
دولت 134
فرانس@@ 134
مخلوط 134
ورما 134
150,000 133
1702 133
1710 133
1721 133
327 133
8.3 133
C1 133
C6@@ 133
COM 133
Corporation 133
DE 133
Gi@@ 133
Gl@@ 133
HS 133
Kyle 133
Management 133
Percy 133
Power@@ 133
air 133
ali 133
ela 133
eng@@ 133
has 133
tions 133
γ 133
وانب 133
1521 132
1580 132
1616 132
1713 132
2,5@@ 132
326 132
386 132
999 132
Bir@@ 132
Boyd 132
Bre@@ 132
Ir@@ 132
Leo 132
Milton 132
NT@@ 132
PD@@ 132
Pete 132
Tar@@ 132
Willie 132
XX@@ 132
aj@@ 132
arg@@ 132
ines 132
oo 132
so 132
الجاذ@@ 132
سجاد 132
قون@@ 132
لائف 132
112@@ 131
1325 131
1683 131
1733 131
314 131
AND 131
Dev@@ 131
Gabriel 131
Jesse 131
Jo@@ 131
Joel 131
Kenny 131
Mi@@ 131
Net@@ 131
Open 131
PL@@ 131
Ram@@ 131
Ramírez 131
Rich 131
SR@@ 131
Tam@@ 131
Woods 131
enc@@ 131
ger@@ 131
ira 131
lock 131
met@@ 131
sen@@ 131
und@@ 131
yp@@ 131
ַ@@ 131
اشم 131
الكومن@@ 131
امار@@ 131
تنازع 131
ربن 131
لغت 131
يزاب@@ 131
1570 130
1605 130
1727 130
2023 130
349 130
8.9 130
Dunn 130
Greene 130
Je@@ 130
McK@@ 130
NI@@ 130
Proc@@ 130
Ru@@ 130
elle 130
fer@@ 130
gu@@ 130
pu@@ 130
revision 130
ts@@ 130
ut 130
we@@ 130
כ@@ 130
ס@@ 130
ابِ 130
قوت 130
ميشي@@ 130
山@@ 130
2300 129
415 129
429 129
8.4 129
9.7 129
Ang@@ 129
BB@@ 129
CH 129
CO3 129
Kn@@ 129
Morrison 129
PE 129
Systems 129
Union 129
War@@ 129
df 129
eta 129
ha@@ 129
his 129
ima 129
net@@ 129
not 129
way 129
ؤاد 129
بسم 129
دادا 129
عقائد 129
250,000 128
381 128
384 128
412 128
422 128
780 128
911 128
96.@@ 128
Awards 128
Burke 128
Cul@@ 128
Edgar 128
France 128
Gor@@ 128
Nag@@ 128
Riley 128
Stevens 128
artist 128
eo 128
inger 128
od 128
orum 128
por@@ 128
tar@@ 128
ty@@ 128
ای@@ 128
جيات 128
حيد 128
صبر 128
نقصان 128
٩@@ 128
き@@ 128
こ 128
.net 127
1066 127
1516 127
1737 127
1739 127
2,4@@ 127
3,8@@ 127
3200 127
328 127
476 127
508 127
8.8 127
810 127
AMD 127
Clarence 127
Duke 127
ET 127
Gardner 127
Lynn 127
Marie 127
Mir@@ 127
OR 127
Ren@@ 127
ST 127
Sy@@ 127
Web 127
ie@@ 127
lard 127
och@@ 127
tom@@ 127
wikitext 127
צ@@ 127
اتار 127
انا@@ 127
1340 126
1420 126
1662 126
393 126
707 126
710 126
9.1 126
BI 126
C2 126
Del@@ 126
Fran@@ 126
French 126
GP 126
Grand 126
Nor@@ 126
Pres@@ 126
Warner 126
für 126
ri 126
scale 126
ul 126
ος 126
اسمِ 126
الدن@@ 126
سخت 126
عاشق 126
す@@ 126
0.0 125
1590 125
1672 125
1731 125
2,6@@ 125
2,7@@ 125
308 125
334 125
383 125
4,0@@ 125
405 125
70,000 125
767 125
80,000 125
870 125
980 125
A4 125
Cle@@ 125
Dawson 125
Der@@ 125
GR@@ 125
Ha@@ 125
Hugo 125
Lynch 125
Ol@@ 125
Palmer 125
Preston 125
Ps 125
Saint 125
Sand@@ 125
Street 125
asp@@ 125
dy 125
eck 125
eus 125
firm@@ 125
hu@@ 125
la@@ 125
lar@@ 125
left 125
ms 125
ord@@ 125
tor 125
uc@@ 125
اعظم 125
العرق@@ 125
حجاب 125
خفضة 125
مجاز 125
مشروط 125
کان 125
-2 124
1453 124
3,5@@ 124
369 124
509 124
790 124
Alberto 124
CF 124
Cam@@ 124
Data 124
GT@@ 124
Lam@@ 124
Montgomery 124
NT 124
WCW 124
Whit@@ 124
ai@@ 124
aur@@ 124
hydro@@ 124
onas 124
phen@@ 124
unc@@ 124
رحلت 124
طبر@@ 124
عقاد 124
€ 124
1642 123
1696 123
730 123
9.2 123
Au@@ 123
Diego 123
FF@@ 123
Global 123
Irish 123
LD 123
Mos@@ 123
PLC 123
UI 123
USA 123
aya 123
dic@@ 123
iko 123
mb@@ 123
pa 123
quot 123
sey 123
ת@@ 123
جينيا 123
ورِ 123
وفضل 123
1150 122
1609 122
1729 122
2,8@@ 122
431 122
451 122
Barrett 122
Bou@@ 122
Bryant 122
CM 122
CoV 122
Hem@@ 122
Island 122
Jan@@ 122
Ran@@ 122
Sk@@ 122
UL@@ 122
VI 122
ard@@ 122
ros@@ 122
tel@@ 122
دبا 122
う@@ 122
1632 121
1747 121
2700 121
361 121
373 121
449 121
705 121
All@@ 121
BP 121
Japan 121
Pal@@ 121
Sarah 121
Tur@@ 121
aa 121
aka 121
atic 121
disease 121
ere 121
ga 121
ling 121
ok 121
urus 121
ترويت 121
مسند 121
335 120
356 120
403 120
454 120
94.@@ 120
Academy 120
CBS 120
Cunningham 120
Donn@@ 120
Ham@@ 120
M.@@ 120
MB 120
MR 120
ON@@ 120
PN@@ 120
Pablo 120
Pur@@ 120
ROM 120
Richards 120
Sun 120
TCP 120
UK 120
cl@@ 120
ein 120
ik 120
isa 120
language 120
m.@@ 120
ost@@ 120
wer 120
اشرف 120
التأث@@ 120
التلفزي@@ 120
فی@@ 120
معزول 120
منافع 120
1390 119
1631 119
1670 119
1734 119
3,0@@ 119
343 119
368 119
392 119
411 119
57.@@ 119
97.@@ 119
Deb@@ 119
European 119
Fil@@ 119
Go 119
Gra@@ 119
Jeffrey 119
Khan 119
Lake 119
Lord 119
MIT 119
Maxwell 119
O3 119
Ri@@ 119
SM 119
SV@@ 119
Trevor 119
WWF 119
ami 119
bor@@ 119
cas@@ 119
ement 119
ency 119
group 119
ib@@ 119
inc@@ 119
ings 119
una 119
بزر@@ 119
لطف 119
مطابق 119
128@@ 118
178@@ 118
357 118
417 118
426 118
590 118
6.0 118
600,000 118
970 118
AO@@ 118
Ann 118
Barbara 118
But@@ 118
Chi@@ 118
EA 118
First 118
Force 118
Human 118
India 118
La@@ 118
Lar@@ 118
Medi@@ 118
Miles 118
Rap@@ 118
Rh@@ 118
Scottish 118
Sky 118
Tim@@ 118
Ur@@ 118
ago 118
ail@@ 118
article 118
fil@@ 118
hom@@ 118
ich@@ 118
inus 118
loc@@ 118
بی@@ 118
سز 118
لادي 118
お 118
は@@ 118
000.000 117
1520 117
1625 117
1699 117
465 117
5.0 117
8.6 117
820 117
975 117
Ak@@ 117
Berry 117
Blake 117
Cecil 117
Der 117
Herman 117
Jeremy 117
Series 117
Shi@@ 117
Star@@ 117
fl@@ 117
inf@@ 117
lum 117
mal@@ 117
mi 117
pes 117
yc@@ 117
š@@ 117
افز@@ 117
التحت@@ 117
خرم 117
دائر@@ 117
شتر 117
ん@@ 117
1560 116
1712 116
1722 116
421 116
42@@ 116
639 116
Ball 116
Cat@@ 116
Glenn 116
Jenkins 116
ability 116
adi@@ 116
ages 116
ast 116
bus 116
lan@@ 116
minor 116
اجز@@ 116
حی@@ 116
دفت@@ 116
شروعات 116
■ 116
中@@ 116
1.0@@ 115
1385 115
1434 115
1585 115
1690 115
364 115
377 115
88.@@ 115
910 115
Casey 115
Edmund 115
Hen@@ 115
Ker@@ 115
MTV 115
Server 115
Sm@@ 115
Travis 115
arab@@ 115
com 115
ee 115
ki@@ 115
ont 115
ten 115
Ángel 115
اسباب 115
راست 115
عذاب 115
منقطع 115
ندس 115
″ 115
1370 114
1526 114
1647 114
1654 114
2,9@@ 114
341 114
376 114
379 114
394 114
40,@@ 114
400,000 114
504 114
73@@ 114
880 114
Barr@@ 114
East 114
Game 114
HD@@ 114
Hale 114
Javier 114
Line 114
MAC 114
MD 114
Nu@@ 114
Radio 114
Roberto 114
ine@@ 114
mus@@ 114
ori@@ 114
ster 114
trans@@ 114
tur@@ 114
1724 113
1725 113
374 113
378 113
38,@@ 113
475 113
605 113
6500 113
Ay@@ 113
Clifford 113
Fernández 113
Fleming 113
Hans 113
Luke 113
Newton 113
Open@@ 113
Payne 113
Res@@ 113
`@@ 113
bas@@ 113
bur@@ 113
hand@@ 113
icum 113
index@@ 113
ness 113
poly@@ 113
self 113
vo@@ 113
آق@@ 113
امتز@@ 113
井@@ 113
1348 112
1547 112
1623 112
1717 112
1732 112
1736 112
40.000 112
447 112
8.7 112
AMC 112
B2 112
GPS 112
Hu@@ 112
Jackie 112
Jane 112
Kam@@ 112
Ken@@ 112
Reichs@@ 112
Stan 112
What 112
Wisconsin 112
action 112
book 112
elly 112
ense 112
essman 112
iki 112
ko@@ 112
oni 112
ops 112
oy@@ 112
ski 112
yer 112
½ 112
عور@@ 112
فنس 112
ماور@@ 112
مذاق 112
مصرو@@ 112
يزيا 112
よ@@ 112
1431 111
1540 111
1704 111
3,7@@ 111
372 111
387 111
416 111
461 111
58.@@ 111
Bruno 111
Championship 111
Costa 111
Dow@@ 111
Drew 111
General 111
Jon 111
Of 111
Public 111
Schmidt 111
Sec@@ 111
Syn@@ 111
T.@@ 111
Ta@@ 111
Tucker 111
bre@@ 111
des@@ 111
log@@ 111
oshi 111
which 111
zo 111
§ 111
آصف 111
روسات 111
طوفان 111
متعارف 111
مقصد 111
نذر 111
1380 110
1402 110
1415 110
1598 110
202@@ 110
3,9@@ 110
626 110
AMP 110
Ban@@ 110
Bet@@ 110
Cruz 110
Floyd 110
Good 110
Holland 110
Logan 110
Michel 110
PM 110
Sherman 110
Sho@@ 110
Sim@@ 110
Vir@@ 110
Webb 110
ail 110
ake 110
cat@@ 110
org 110
ow@@ 110
res@@ 110
tus 110
xx 110
اسود 110
باؤ@@ 110
تخت 110
تعارف 110
حضر@@ 110
1530 109
1618 109
1664 109
1665 109
1711 109
344 109
348 109
382 109
DB 109
Don@@ 109
Dur@@ 109
E.@@ 109
Harper 109
Lindsay 109
On@@ 109
PW 109
Rom@@ 109
Team 109
UR@@ 109
Vernon 109
Wilhelm 109
acter 109
ani@@ 109
ash 109
awa 109
cul@@ 109
dec@@ 109
ding 109
fer 109
je 109
mel@@ 109
ong@@ 109
son@@ 109
ther@@ 109
uk@@ 109
ón 109
ג@@ 109
آرام 109
آزاد 109
اتر@@ 109
خدا 109
سز@@ 109
فرش@@ 109
فرم@@ 109
وحنا 109
ھ 109
1608 108
1655 108
1667 108
1685 108
358 108
396 108
616 108
632 108
661 108
830 108
A5 108
African 108
Book 108
Film 108
Ja@@ 108
Josh 108
MT 108
Nov@@ 108
P1 108
Romero 108
Steele 108
Tre@@ 108
ania 108
director 108
ery 108
ici@@ 108
iner 108
kl@@ 108
mor@@ 108
mot@@ 108
ological 108
ser 108
ui 108
world 108
انور 108
متنازع 108
وعظ 108
1433 107
1513 107
1621 107
352 107
391 107
428 107
612 107
840 107
860 107
Cup 107
Field 107
GO@@ 107
Ga@@ 107
German 107
Hart@@ 107
ID@@ 107
Ivan 107
Jake 107
Kal@@ 107
Myers 107
Ras@@ 107
Republic 107
Sw@@ 107
Wade 107
Wales 107
Wilkinson 107
ace 107
ain@@ 107
deria 107
esis 107
ew@@ 107
jpg 107
title 107
ائج 107
اباد 107
امتح@@ 107
تعجب 107
خانم 107
ساز@@ 107
سلف@@ 107
فتوحات 107
گو@@ 107
ⴰ@@ 107
1080 106
1437 106
1638 106
1666 106
1674 106
1681 106
1697 106
432 106
479 106
503 106
614 106
7500 106
9,000 106
Bishop 106
Forbes 106
Griffin 106
June 106
Moreno 106
O4 106
Pen@@ 106
TH@@ 106
We 106
Your 106
bal@@ 106
congr@@ 106
den@@ 106
esp@@ 106
judge 106
men 106
pp@@ 106
ran@@ 106
rie 106
set 106
true 106
ture 106
ud@@ 106
ular 106
ves 106
yi 106
yn 106
جوزف 106
ری 106
سنس 106
موئيل 106
.000 105
.jpg 105
1604 105
1656 105
1695 105
1738 105
200.000 105
444 105
486 105
Abraham 105
Apple 105
Bot@@ 105
Cel@@ 105
DH@@ 105
H.@@ 105
Julian 105
League 105
Men 105
Mes@@ 105
PCR 105
PH@@ 105
Plat@@ 105
Rad@@ 105
Ty@@ 105
` 105
ares 105
atr@@ 105
cell 105
gen 105
ister 105
mag@@ 105
news 105
off 105
omy@@ 105
oz@@ 105
tical 105
tim@@ 105
ø@@ 105
الی@@ 105
بغا@@ 105
فاتح@@ 105
معاون 105
وغالب@@ 105
0000@@ 104
0s 104
1572 104
2024 104
339 104
427 104
539 104
555 104
740 104
Be 104
Christ@@ 104
Core 104
EX@@ 104
Eduardo 104
Family 104
GmbH 104
HO@@ 104
Jennings 104
Jensen 104
Kas@@ 104
May@@ 104
NAD@@ 104
Potter 104
Rem@@ 104
UTC 104
Wagner 104
Wo@@ 104
bert 104
coach 104
eter 104
fe@@ 104
function 104
gol@@ 104
ill 104
los@@ 104
sal@@ 104
ten@@ 104
آسام 104
اسحاق 104
بلقان 104
شاخ 104
مباح@@ 104
مباش@@ 104
と 104
む@@ 104
1399 103
1659 103
1676 103
1708 103
1728 103
3,6@@ 103
418 103
585 103
770 103
CW 103
Clayton 103
DT@@ 103
Garrett 103
HBO 103
Home 103
IF 103
Ireland 103
Marsh 103
Med@@ 103
Multi@@ 103
Pas@@ 103
RH 103
SY@@ 103
Sat@@ 103
Sergio 103
agan 103
ants 103
cur@@ 103
first 103
iss@@ 103
king 103
lat@@ 103
ota 103
pH 103
pan@@ 103
sion 103
tan@@ 103
ó@@ 103
ˈ@@ 103
Δ@@ 103
الغذ@@ 103
القسطنط@@ 103
شنز 103
عروج 103
قاصر 103
村@@ 103
1050 102
1240 102
1525 102
1652 102
1716 102
522 102
618 102
715 102
BM 102
Banks 102
Barton 102
Che@@ 102
Digital 102
Fuller 102
Geoffrey 102
Gill 102
Gutiérrez 102
Gómez 102
Hod@@ 102
Intel 102
L1 102
NF 102
PL 102
Quinn 102
Ramos 102
SP 102
Stephens 102
Texas 102
Wang 102
Williamson 102
eli@@ 102
inn@@ 102
itz 102
men@@ 102
plex 102
tion@@ 102
vis 102
جاوا 102
قائل 102
う 102
1368 101
1515 101
1541 101
1627 101
1669 101
457 101
641 101
800@@ 101
Barker 101
Bat@@ 101
Bert 101
Canada 101
Di 101
Dor@@ 101
François 101
Israel 101
Kan@@ 101
Kir@@ 101
Meyer 101
Morales 101
OR@@ 101
Pin@@ 101
Pot@@ 101
Pratt 101
SAT 101
Sil@@ 101
Way 101
ero 101
ial 101
sky 101
u.@@ 101
were 101
غائب 101
کو@@ 101
け@@ 101
ろ@@ 101
1349 100
1360 100
1613 100
1687 100
419 100
44,@@ 100
527 100
633 100
642 100
711 100
Archibald 100
Brent 100
Cad@@ 100
Cos@@ 100
Den@@ 100
England 100
Ep@@ 100
Fac@@ 100
HIV 100
Ing@@ 100
João 100
Ku@@ 100
LT@@ 100
ML 100
Meth@@ 100
Muñoz 100
River 100
Shane 100
Sin@@ 100
Thi@@ 100
Tro@@ 100
act@@ 100
bri@@ 100
ika 100
ila 100
journalist 100
pha 100
port 100
rec@@ 100
service 100
sol@@ 100
ulus 100
water 100
® 100
المباش@@ 100
انار@@ 100
شدت 100
محك@@ 100
مخلص 100
نواح 100
نی@@ 100
٠ 100
《 100
1290 99
1503 99
1524 99
1559 99
1606 99
1709 99
438 99
604 99
627 99
741 99
California 99
Central 99
Dudley 99
GE@@ 99
Head 99
IW@@ 99
Sun@@ 99
amine 99
ast@@ 99
ays 99
che 99
cho@@ 99
eme 99
iah 99
ich 99
ius 99
ow 99
uli@@ 99
ville 99
ør@@ 99
ט@@ 99
صارف 99
本@@ 99
1070 98
1346 98
1389 98
1612 98
1645 98
1658 98
1661 98
1684 98
408 98
467 98
518 98
638 98
CSS 98
Dan@@ 98
EF@@ 98
Ear@@ 98
Gard@@ 98
Harr@@ 98
Hopkins 98
I. 98
Mack 98
O. 98
Randall 98
SPD 98
Sher@@ 98
Simmons 98
Stu@@ 98
WO@@ 98
XML 98
ans@@ 98
ath 98
ech 98
ender 98
ker@@ 98
ori 98
ost 98
pp. 98
super@@ 98
sus 98
اوه@@ 98
دانت 98
ذائ@@ 98
مائع 98
مقامات 98
نل 98
1395 97
30.000 97
406 97
575 97
581 97
628 97
Ash@@ 97
Battle 97
Bul@@ 97
Chase 97
Chry@@ 97
Gol@@ 97
Haw@@ 97
Kerr 97
Klein 97
Marco 97
Marvin 97
Medical 97
NA@@ 97
Nak@@ 97
Not@@ 97
Out 97
Pap@@ 97
Ronnie 97
S1 97
Sidney 97
Solomon 97
Video 97
WW@@ 97
asi@@ 97
ats 97
ault 97
ca@@ 97
eda 97
ise 97
oni@@ 97
op 97
red 97
theory 97
thr@@ 97
you@@ 97
ائيو 97
احسن 97
اوقات 97
خالص 97
شفا 97
فارد 97
み 97
川@@ 97
1204 96
1280 96
1607 96
1651 96
1694 96
177@@ 96
2O3 96
423 96
455 96
481 96
50.000 96
565 96
636 96
656 96
And 96
Anti@@ 96
Atkinson 96
Control 96
Elizabeth 96
F2 96
FR 96
Friedrich 96
Garcia 96
Hawkins 96
Holt 96
Howe 96
Hudson 96
Jesús 96
Kirk 96
Laura 96
Martín 96
NS 96
Pierce 96
Wolf 96
anda 96
ho 96
phy@@ 96
pol@@ 96
sa@@ 96
state 96
tery 96
ua 96
yg@@ 96
دی 96
رانا 96
م. 96
مباحث 96
نسو@@ 96
ٰ 96
گ 96
藤@@ 96
1010 95
1330 95
1637 95
1675 95
350@@ 95
458 95
499 95
725 95
801 95
920 95
BT 95
Baldwin 95
CL 95
ECW 95
Ernst 95
Kor@@ 95
Shannon 95
Shor@@ 95
Technology 95
The@@ 95
aba 95
acet@@ 95
amb@@ 95
eman 95
gar@@ 95
har@@ 95
have 95
ins@@ 95
mas@@ 95
min 95
reg@@ 95
tis@@ 95
æ@@ 95
ī@@ 95
جمش@@ 95
روشن 95
شمع 95
محدث@@ 95
ورادو 95
ە 95
1230 94
1320 94
1396 94
1502 94
1555 94
1679 94
1686 94
388 94
488 94
541 94
586 94
690 94
925 94
Alejandro 94
Bank 94
Billboard 94
Ca 94
Calvin 94
Girl 94
HMS 94
Heart 94
Hicks 94
Jacques 94
Joan 94
Kat@@ 94
Lawson 94
MR@@ 94
Matthews 94
Newman 94
Northern 94
O.@@ 94
Out@@ 94
Pennsylvania 94
Road 94
Three 94
VO@@ 94
Wesley 94
Who 94
ald 94
aph@@ 94
ars 94
ava 94
code 94
del@@ 94
edu 94
eri@@ 94
gl@@ 94
lan 94
less 94
lo 94
nia 94
odi@@ 94
ster@@ 94
t.@@ 94
tha 94
ub@@ 94
uki 94
É@@ 94
ú@@ 94
ē@@ 94
اعداد@@ 94
بلت@@ 94
صبا 94
1220 93
1344 93
1401 93
1403 93
1406 93
1428 93
1432 93
1519 93
1578 93
1636 93
2,500 93
424 93
442 93
471 93
533 93
930 93
Ahmed 93
Ashley 93
Bon@@ 93
Buchanan 93
Castillo 93
Denis 93
Hardy 93
Internet 93
Jerome 93
Joyce 93
Kh@@ 93
Kur@@ 93
Mic@@ 93
Mun@@ 93
N. 93
Parsons 93
Rhodes 93
Rod 93
T1 93
TR@@ 93
ae@@ 93
af 93
enzie 93
etta 93
fa@@ 93
nor@@ 93
ادوار 93
زِ 93
مفس@@ 93
ََ 93
125@@ 92
1404 92
1511 92
1534 92
1611 92
1617 92
1693 92
1703 92
414 92
433 92
435 92
478 92
492 92
617 92
ATM 92
Ach@@ 92
CIA 92
Cro@@ 92
Fischer 92
Fowler 92
Georgia 92
Gerry 92
Glen 92
Gold 92
Hand@@ 92
Horace 92
Julius 92
MBC 92
Mand@@ 92
October 92
P2 92
Sanders 92
Sor@@ 92
Sph@@ 92
Wat@@ 92
air@@ 92
eth@@ 92
nd@@ 92
osaurus 92
vi 92
برائ@@ 92
بولوج@@ 92
معاو@@ 92
وپ@@ 92
》 92
1258 91
1410 91
1719 91
397 91
456 91
485 91
506 91
532 91
574 91
624 91
791 91
907 91
Berlin 91
Bio@@ 91
Byrne 91
Cab@@ 91
Clay 91
DF@@ 91
Dam@@ 91
Development 91
Fe 91
G.@@ 91
GC 91
L.@@ 91
Last 91
Margaret 91
Paulo 91
Perkins 91
SB 91
Two 91
Vit@@ 91
Whitney 91
app@@ 91
ey@@ 91
fill 91
gov@@ 91
key 91
lia 91
old 91
ote 91
oto 91
string 91
two 91
une 91
ware 91
yo@@ 91
ze@@ 91
ä@@ 91
ð@@ 91
ā 91
احمر 91
اصلاح 91
التاس@@ 91
بخت 91
نجف 91
472 90
4G 90
515 90
572 90
Abbott 90
BL 90
Blan@@ 90
Chambers 90
D.@@ 90
EM 90
Kaz@@ 90
MHz 90
Mac 90
NO 90
Nathaniel 90
Neal 90
Peters 90
Point 90
Queen 90
R.@@ 90
Singh 90
arch@@ 90
ational 90
lett 90
omys 90
opus 90
ray 90
sul@@ 90
ted 90
انی@@ 90
اُن@@ 90
تامل 90
تتح 90
دانت@@ 90
موافق 90
پي@@ 90
1328 89
1510 89
1542 89
1622 89
1629 89
1657 89
434 89
436 89
446 89
45,@@ 89
484 89
502 89
523 89
727 89
814 89
Adrian 89
Android 89
Buck 89
Cooke 89
Jennifer 89
Saunders 89
Sel@@ 89
She@@ 89
Social 89
Summer 89
ave 89
az 89
band 89
bul@@ 89
c.@@ 89
ect@@ 89
ele 89
flora 89
hr@@ 89
ken 89
pon@@ 89
pun@@ 89
sin 89
sor@@ 89
team 89
vin@@ 89
ū@@ 89
بالخصوص 89
تعصب 89
زرو 89
مشرق 89
وحدت 89
か 89
り@@ 89
わ@@ 89
0.01 88
1099 88
109@@ 88
1337 88
1409 88
1425 88
1493 88
1588 88
1615 88
1626 88
1641 88
1726 88
402 88
439 88
514 88
542 88
5500 88
685 88
732 88
API 88
Adri@@ 88
Augustus 88
Block 88
Brett 88
CPU 88
Card@@ 88
Chen 88
Ci@@ 88
Eur@@ 88
Everett 88
Games 88
Gau@@ 88
IM 88
Inc 88
Ortiz 88
RE 88
Ricky 88
Rodney 88
Roland 88
Small 88
composer 88
down 88
ear@@ 88
gie 88
kar@@ 88
ny@@ 88
pen@@ 88
ren@@ 88
var 88
wikipedia.org 88
í@@ 88
λ 88
جاتا 88
خصوص 88
معاش 88
معزز 88
منو 88
05@@ 87
1215 87
1266 87
1436 87
1535 87
43.@@ 87
448 87
534 87
562 87
Andrés 87
Boy 87
Cerat@@ 87
Chil@@ 87
Death 87
Down 87
Enrique 87
GT 87
J.@@ 87
Jiménez 87
Kin@@ 87
Kon@@ 87
Lang 87
Lang@@ 87
Lisa 87
Mel 87
Ok@@ 87
Oliveira 87
Pop@@ 87
Ra@@ 87
Rivera 87
TED 87
Wall 87
act 87
cells 87
dat@@ 87
dir@@ 87
ect 87
ev 87
ff 87
gi 87
p.@@ 87
rell 87
tho@@ 87
wi@@ 87
wing 87
β@@ 87
سردار 87
فام 87
قسط 87
مقاصد 87
نثر 87
٫ 87
007 86
1170 86
1187 86
119@@ 86
1327 86
1386 86
1527 86
1563 86
1593 86
1671 86
1705 86
473 86
495 86
552 86
569 86
655 86
666 86
69.@@ 86
718 86
751 86
815 86
B3 86
Brady 86
Bush 86
Can 86
Carl@@ 86
Computer 86
DN@@ 86
Daily 86
EL 86
Ern@@ 86
Fab@@ 86
GM 86
ISA 86
IV@@ 86
Jaime 86
Mayer 86
Name 86
Olsen 86
Osborne 86
Pic@@ 86
Pul@@ 86
Records 86
Rel@@ 86
Review 86
Schneider 86
Seymour 86
TM 86
aca 86
aea 86
chn@@ 86
date 86
enia 86
file 86
history 86
ide@@ 86
ind@@ 86
kin@@ 86
ks@@ 86
nes 86
original 86
scope 86
static 86
ung@@ 86
yo 86
ֹ@@ 86
اجرت 86
رطوم 86
نقش@@ 86
野@@ 86
1,200 85
1381 85
1438 85
1512 85
1574 85
1595 85
1635 85
1691 85
1692 85
1723 85
18,000 85
183@@ 85
35,000 85
407 85
413 85
459 85
464 85
487 85
543 85
549 85
582 85
694 85
774 85
79.@@ 85
AH@@ 85
ARC 85
Africa 85
Ali@@ 85
Allison 85
Angel 85
Booth 85
Bull 85
CH3 85
Caldwell 85
Cl2 85
DV@@ 85
Deutsche 85
Enter@@ 85
Gn@@ 85
Hammond 85
Hope 85
Hydro@@ 85
Int@@ 85
Light 85
Mam@@ 85
NC 85
Nova 85
Software 85
Under@@ 85
Uni@@ 85
Ware 85
Winter 85
X. 85
asis 85
aus 85
def 85
eth 85
hal@@ 85
house 85
ites 85
ning 85
nom@@ 85
not@@ 85
ocar@@ 85
ography 85
ologist 85
ough 85
ova 85
over 85
rot@@ 85
ther 85
uh@@ 85
vol@@ 85
watch 85
worth 85
اجرا 85
الی 85
بابو 85
شاست@@ 85
ٰ@@ 85
ま 85
1001 84
1279 84
1310 84
1375 84
1377 84
1424 84
1495 84
1565 84
1568 84
1614 84
2800 84
437 84
468 84
516 84
571 84
588 84
601 84
635 84
68.@@ 84
745 84
792 84
875 84
ART 84
BL@@ 84
Back 84
Bluetooth 84
CG 84
Carey 84
Díaz 84
EG@@ 84
EN 84
FIFA 84
Fer@@ 84
GL@@ 84
IR 84
Jr 84
Mem@@ 84
Norton 84
People 84
RD 84
Real 84
Search 84
Sky@@ 84
TF 84
Western 84
aci@@ 84
andi 84
any 84
baller 84
based 84
ection 84
els 84
gram@@ 84
hem@@ 84
len 84
leton 84
oo@@ 84
اصلاحات 84
انصار 84
تورات 84
شاذ 84
لاغر@@ 84
じ@@ 84
1,5 83
1392 83
1417 83
1440 83
1564 83
1569 83
1592 83
1599 83
1628 83
1633 83
1677 83
1706 83
577 83
634 83
644 83
722 83
802 83
808 83
990 83
Adap@@ 83
BE 83
BR 83
Benson 83
Br 83
Buddy 83
C2@@ 83
CAS 83
Cli@@ 83
Conrad 83
Earth 83
Elmer 83
FL 83
Hum@@ 83
Julie 83
Mickey 83
Mis@@ 83
Nash 83
Noel 83
Norris 83
Ontario 83
Pand@@ 83
Pictures 83
R2 83
Reyes 83
TR 83
Te 83
Tran@@ 83
UN 83
Welsh 83
ache 83
ci 83
een 83
emia 83
fi@@ 83
iy@@ 83
list 83
o.@@ 83
oid 83
radi@@ 83
su 83
tal@@ 83
top 83
γ@@ 83
التو 83
ای 83
خرد 83
راسخ 83
نصرت 83
وفاد@@ 83
پي 83
ン@@ 83
木@@ 83
1314 82
1397 82
1480 82
1514 82
1536 82
1634 82
1682 82
168@@ 82
409 82
498 82
5,0@@ 82
524 82
619 82
637 82
654 82
AX 82
Berg 82
Child 82
Da 82
Darren 82
Dwight 82
Erik 82
Fo@@ 82
Food 82
Hur@@ 82
IX 82
Irving 82
Jacob@@ 82
Ka@@ 82
Mak@@ 82
Nam@@ 82
Nature 82
New@@ 82
PV@@ 82
Pereira 82
Phel@@ 82
Rex 82
Sab@@ 82
Spe@@ 82
Sto@@ 82
Strong 82
Susan 82
Test 82
Theodore 82
ert 82
general 82
ham 82
ight 82
ix@@ 82
kr@@ 82
mac@@ 82
mes@@ 82
national 82
page 82
source 82
wal@@ 82
ó 82
آف@@ 82
پرو@@ 82
ず@@ 82
小@@ 82
1024 81
1427 81
1504 81
1506 81
1533 81
1537 81
1601 81
176@@ 81
452 81
493 81
526 81
595 81
667 81
704 81
890 81
976 81
AE 81
AW@@ 81
BT@@ 81
Beck 81
Blu@@ 81
CV 81
Chad 81
Dy@@ 81
Fire 81
Flynn 81
Gam@@ 81
Hom@@ 81
Honor 81
I.@@ 81
Kendall 81
LM 81
MBA 81
Magazine 81
Mohammad 81
Moses 81
Ober@@ 81
Phone 81
Song 81
Sports 81
Sutton 81
UV 81
V8 81
Weber 81
Willard 81
Yas@@ 81
about 81
ag 81
alb@@ 81
body 81
cre@@ 81
ello 81
enn@@ 81
eon 81
into 81
ky 81
leg@@ 81
mp@@ 81
other@@ 81
virus 81
ín 81
ո@@ 81
بم 81
بولر 81
مئن 81
‚ 81
た 81
002 80
1016 80
1391 80
1470 80
1505 80
1698 80
463 80
583 80
602 80
615 80
664 80
681 80
733 80
768 80
A3 80
AV 80
Bay 80
Das 80
Dem@@ 80
Dro@@ 80
Emma 80
Foley 80
Forrest 80
Hippo@@ 80
Impact 80
Jefferson 80
Ki@@ 80
Kurt 80
Lem@@ 80
Lor@@ 80
Lun@@ 80
MB@@ 80
MD@@ 80
NY@@ 80
Nat@@ 80
Now 80
Party 80
Stor@@ 80
Story 80
Sul@@ 80
Sz@@ 80
Year 80
ami@@ 80
computer 80
dan 80
eller 80
enton 80
esh 80
ived 80
lav@@ 80
light 80
max 80
mes 80
ough@@ 80
rh@@ 80
tam@@ 80
ton@@ 80
web.archive.org 80
الوريوس 80
ܐ 80
1418 79
1528 79
1653 79
462 79
469 79
496 79
521 79
631 79
7.0 79
757 79
771 79
798 79
811 79
825 79
940 79
Aur@@ 79
Australia 79
Fitz@@ 79
Free 79
Hi@@ 79
Higgins 79
Il 79
Julia 79
L2 79
Moh@@ 79
Old 79
Online 79
PM@@ 79
Post 79
Roman 79
Sing@@ 79
Skinner 79
Standard 79
Sydney 79
Tracy 79
Walton 79
ack@@ 79
ais 79
ality 79
anc@@ 79
anner 79
asc@@ 79
chr@@ 79
führer 79
ham@@ 79
len@@ 79
let 79
macro@@ 79
mus 79
oxide 79
ques 79
sia 79
their 79
tiv@@ 79
val 79
yon 79
í 79
μ@@ 79
الساد@@ 79
بارود 79
بالآخر 79
دوش 79
1180 78
1241 78
1270 78
1373 78
1429 78
1441 78
1483 78
1523 78
1602 78
1673 78
1A 78
443 78
52.@@ 78
535 78
544 78
556 78
589 78
629 78
651 78
708 78
775 78
805 78
855 78
Act 78
Alvin 78
Andre 78
CH3@@ 78
Castro 78
César 78
ET@@ 78
Flores 78
Grace 78
Griff@@ 78
Hanson 78
Hyper@@ 78
If 78
Language 78
Log@@ 78
MA@@ 78
Moon 78
R1 78
Short 78
Space 78
Studies 78
Troy 78
UK@@ 78
Universal 78
Weiss 78
apo@@ 78
cos@@ 78
eira 78
enti@@ 78
lig@@ 78
number 78
osaur@@ 78
pel@@ 78
pil@@ 78
print 78
umi 78
war@@ 78
xi@@ 78
xy 78
Álvarez 78
ö@@ 78
δ@@ 78
الوظ@@ 78
حسد 78
محترم 78
وسطن 78
▪ 78
1259 77
1324 77
1347 77
3600 77
545 77
587 77
609 77
645 77
647 77
683 77
714 77
717 77
914 77
Alice 77
Alonso 77
Andersen 77
Ann@@ 77
Arts 77
China 77
Cop@@ 77
Dana 77
FX 77
Fi 77
Gross 77
Hello 77
Lac@@ 77
Los 77
Lou 77
MI 77
Marion 77
NR@@ 77
Nik@@ 77
Och@@ 77
SF 77
SHA 77
Tw@@ 77
Wa@@ 77
Zo@@ 77
aus@@ 77
cus 77
ering 77
form 77
ico 77
lier 77
line@@ 77
main 77
olen 77
stein 77
til@@ 77
tra@@ 77
ust 77
y.@@ 77
δ 77
احمد@@ 77
افتخار 77
سپ@@ 77
شوستس 77
فرائض 77
قربان 77
ماح@@ 77
مشائخ 77
----@@ 76
0,0@@ 76
1.5@@ 76
1371 76
1426 76
1497 76
1539 76
1619 76
2.000 76
483 76
51@@ 76
551 76
567 76
622 76
658 76
659 76
672 76
912 76
985 76
Age 76
Bay@@ 76
Bond 76
Byron 76
Carolina 76
County 76
Doyle 76
Eg@@ 76
Emer@@ 76
Eth@@ 76
Gold@@ 76
Hoffman 76
Joshua 76
Jud@@ 76
Julio 76
Mach@@ 76
Manning 76
Mich@@ 76
NJ@@ 76
Owens 76
Pet@@ 76
Pter@@ 76
Ruiz 76
Sims 76
Spec@@ 76
Stevenson 76
Sus@@ 76
VC 76
Var@@ 76
WH@@ 76
ado 76
ary@@ 76
cel@@ 76
cha 76
driver 76
ean 76
ely 76
eng 76
ges 76
ille 76
kes 76
las 76
los 76
ond@@ 76
tional 76
val@@ 76
wa 76
zi@@ 76
اصطلاحات 76
المكون@@ 76
زرد 76
فورم 76
Ἀ@@ 76
--- 75
1095 75
1154 75
1235 75
1490 75
1494 75
1529 75
3G 75
50,@@ 75
507 75
65,@@ 75
668 75
781 75
793 75
865 75
Bus@@ 75
CG@@ 75
Children 75
Cliff 75
Design 75
Dol@@ 75
Europe 75
Fun@@ 75
Gran@@ 75
H1 75
Hay 75
Heath 75
Iris 75
Jacobs 75
Joy 75
Kid@@ 75
MRI 75
Net 75
Neur@@ 75
Nic@@ 75
Nicholson 75
Omar 75
Ruth 75
Sha@@ 75
Sinclair 75
Sn@@ 75
That 75
Thornton 75
Walt 75
Way@@ 75
aer@@ 75
ams 75
bel@@ 75
bol@@ 75
businessman 75
da@@ 75
governor 75
ichi 75
ig 75
isha 75
ix 75
jav@@ 75
lie 75
ocy@@ 75
oidea 75
phon@@ 75
side 75
sim@@ 75
umb@@ 75
ven@@ 75
view 75
θ 75
ς 75
σ@@ 75
ր@@ 75
داؤ@@ 75
ووا 75
ک 75
こ@@ 75
わ 75
1264 74
1271 74
1354 74
1394 74
14,000 74
1422 74
1509 74
1552 74
1587 74
1589 74
1594 74
1597 74
1646 74
1678 74
1980s 74
1990s 74
40.@@ 74
441 74
445 74
453 74
46,@@ 74
491 74
528 74
598 74
6.000 74
646 74
7,0@@ 74
701 74
796 74
Af@@ 74
Asian 74
Boy@@ 74
Brennan 74
CAD 74
Chandler 74
Dun@@ 74
Eng@@ 74
Fal@@ 74
Final 74
Fol@@ 74
HR 74
Marty 74
Meg@@ 74
Middle 74
Mill@@ 74
Mohamed 74
N.@@ 74
Nielsen 74
Peder@@ 74
Ring 74
SU@@ 74
Sir 74
Tab@@ 74
Tag 74
Tan@@ 74
Television 74
Up@@ 74
ady 74
aq 74
ders 74
ead 74
ector 74
etes 74
ever 74
hol@@ 74
isi@@ 74
mea 74
ode 74
off@@ 74
ogen@@ 74
ones 74
osh 74
pa@@ 74
protein 74
px 74
sula 74
var@@ 74
wo@@ 74
ão 74
دلفيا 74
عمارات 74
فضا 74
كتيريا 74
مدفون 74
وسكون@@ 74
ܝ@@ 74
↑ 74
1011 73
1185 73
1246 73
1301 73
1342 73
1586 73
1663 73
497 73
500.000 73
529 73
563 73
578 73
599 73
703 73
719 73
778 73
923 73
969 73
AO 73
Aus@@ 73
Bac@@ 73
Est@@ 73
Fair@@ 73
Gould 73
Houston 73
How 73
LAN 73
M2 73
Mari@@ 73
Myr@@ 73
ND 73
Nol@@ 73
Not 73
ON 73
Reginald 73
Sammy 73
Set@@ 73
Soci@@ 73
Spir@@ 73
T2 73
Us@@ 73
Wild 73
Will@@ 73
With 73
acc@@ 73
aden@@ 73
core 73
entr@@ 73
gri@@ 73
ju@@ 73
ku@@ 73
mm 73
officer 73
oscop@@ 73
print@@ 73
syn@@ 73
uz@@ 73
vo 73
zi 73
ائش 73
اخلاق 73
اشرا@@ 73
اشعار 73
شعرا 73
طلوع 73
مزاح@@ 73
چ 73
ち 73
09@@ 72
13,000 72
1316 72
1382 72
1421 72
1583 72
398 72
42.@@ 72
477 72
51.@@ 72
537 72
547 72
579 72
597 72
6,0@@ 72
606 72
613 72
62@@ 72
657 72
693 72
716 72
812 72
833 72
835 72
931 72
981 72
AA@@ 72
Anton 72
Baby 72
Body 72
C4 72
CV@@ 72
EF 72
Emerson 72
Eva 72
Ferr@@ 72
Gallagher 72
Goodman 72
Hancock 72
Helen 72
Jessica 72
Ka 72
Lambert 72
Larsen 72
Lyon 72
MO 72
Ma 72
PT 72
Ramón 72
Rotten 72
SARS 72
Sharp 72
alia 72
author 72
bi 72
coronavirus 72
head 72
idea 72
itas 72
ke@@ 72
like 72
olog@@ 72
ories 72
orus 72
player 72
ug@@ 72
vor@@ 72
wick 72
ác@@ 72
án@@ 72
ئس 72
اسلام 72
وصال 72
ومِ 72
یا 72
市 72
003 71
11,000 71
1190 71
1274 71
1311 71
1339 71
1365 71
1383 71
1414 71
1522 71
1551 71
1554 71
1558 71
1571 71
1584 71
1591 71
466 71
511 71
553 71
568 71
678 71
686 71
78.@@ 71
858 71
973 71
ACE 71
Bak@@ 71
Bundes@@ 71
Catherine 71
Dead 71
End 71
Express 71
F.@@ 71
Franz 71
Gil 71
Gir@@ 71
Heinrich 71
Hogan 71
John@@ 71
Junior 71
Land 71
Laugh@@ 71
M1 71
Maz@@ 71
Messier 71
ND@@ 71
Nar@@ 71
Ohio 71
Over@@ 71
Phot@@ 71
RP 71
Santiago 71
Sr@@ 71
Stein 71
Suárez 71
Today 71
Top 71
Trust 71
UNIX 71
VII 71
Web@@ 71
Werner 71
Wong 71
also 71
anth@@ 71
arr@@ 71
atos 71
cia 71
ein@@ 71
etus 71
full 71
inal 71
ini@@ 71
lers 71
lon 71
ock@@ 71
ons@@ 71
ony@@ 71
ott 71
phis 71
rey 71
sevi@@ 71
try 71
version 71
wh@@ 71
will 71
wor@@ 71
ze 71
ä 71
ée 71
ν 71
جناب 71
مجسم@@ 71
٢ 71
کر@@ 71
1248 70
1276 70
1329 70
1351 70
1398 70
1442 70
1556 70
1643 70
4,5 70
474 70
50.@@ 70
611 70
653 70
688 70
755 70
824 70
859 70
919 70
936 70
955 70
Air@@ 70
Browne 70
CON@@ 70
Carson 70
Del 70
Drake 70
E1 70
Elec@@ 70
Evan 70
FID 70
Franco 70
GO 70
God 70
HF 70
HI 70
Héctor 70
Johan 70
Jump 70
Kirby 70
Kramer 70
LF 70
Lester 70
Louise 70
Moran 70
Ms 70
Organization 70
Ot@@ 70
Ox@@ 70
P3 70
Pav@@ 70
Shig@@ 70
Theory 70
Us 70
Victoria 70
adi 70
ando 70
ate@@ 70
bs@@ 70
dom@@ 70
don@@ 70
double 70
ental 70
illus 70
ische 70
ista 70
je@@ 70
kg 70
olo@@ 70
ots 70
pin@@ 70
point 70
private 70
sten 70
stone 70
stroke 70
sy 70
ual 70
uke 70
ulation 70
yan@@ 70
Ö@@ 70
ç@@ 70
ω 70
ב 70
ببر 70
مضبو@@ 70
نصاب 70
کان@@ 70
り 70
-3 69
1,2 69
1257 69
1275 69
1341 69
1369 69
1408 69
[...]
