de 1
, 1
. 0.9066455766203465
la 1
en 1
el 1
y 1
&quot; 1
a 1
que 1
del 1
los 1
se 1
un 1
por 1
con 1
una 1
) 0.90964228883215
( 0.9094060752664969
las 1
su 1
es 1
al 1
como 1
para 1
El 1
En 1
fue 1
@-@ 0.3892018092848847
La 1
o 1
más 1
ado 1
: 1
no 1
ó 1
lo 1
sus 1
ada 1
ar 1
as 0.7019752613842191
os 1
; 1
ados 1
ación 1
entre 1
era 1
dos 1
años 1
ando 1
también 1
Los 1
adas 1
año 1
son 1
le 0.4107293452066611
hasta 1
este 1
an 0.45382616794675856
parte 1
pero 1
sobre 1
donde 1
« 0.7598966171906187
» 0.7600169111493996
ía 1
ha 1
aron 1
ser 1
desde 1
esta 1
Se 1
aba 1
re@@ 1
durante 1
in@@ 1
A 1
% 1
des@@ 1
ales 1
ciudad 1
e 1
&apos; 0.6361232324219647
ya 1
Las 1
antes 1
primera 1
ón 1
después 1
había 1
está 1
aciones 1
fueron 1
ante 1
San 1
/ 0.7835249311249921
cuando 1
primer 1
Su 1
1 0.8009668395260684
nombre 1
tiene 1
otros 1
uno 1
sin 1
mismo 1
población 1
al@@ 1
2 0.8365539009567319
tres 1
vez 1
eran 1
gran 1
puede 1
&#93; 1
&#91; 1
Fue 1
cual 1
ano 1
forma 1
í@@ 1
ido 1
encuentra 1
ar@@ 1
ida 1
ador 1
c@@ 1
aban 1
ana 1
muy 1
así 1
familia 1
lugar 1
da 1
an@@ 1
contra 1
P@@ 1
sido 1
km 1
A@@ 1
Es 1
to 0.07012734921274469
3 0.8476181815424465
es@@ 1
ina 1
equipo 1
Estados 1
p@@ 1
ese 1
siglo 1
arse 1
C@@ 1
junto 1
ente 1
S@@ 0.9061137743746112
tiempo 1
Unidos 1
embargo 1
con@@ 1
L@@ 1
The 0.1223625124316542
T@@ 1
grupo 1
han 1
mayor 1
idad 1
bajo 1
- 0.6173581835957713
ista 1
estado 1
ac@@ 1
todo 1
en@@ 1
serie 1
solo 1
cada 1
4 0.8408326466331109
ero 1
España 1
Universidad 1
estaba 1
quien 1
ta 1
De 1
otras 1
or@@ 1
Nacional 1
ad@@ 1
ia 1
do 1
siendo 1
También 1
ción 1
personas 1
án 1
ario 1
o@@ 1
municipio 1
ían 1
aunque 1
mientras 1
á@@ 1
tras 1
amente 1
todos 1
tanto 1
Por 1
vida 1
nuevo 1
adores 1
Al 1
M@@ 1
temporada 1
país 1
as@@ 1
O@@ 1
ones 1
t@@ 1
hacia 1
día 1
entes 1
final 1
5 0.8508131776875412
io 1
ica 1
gobierno 1
v@@ 1
G@@ 0.8364429203988204
álbum 1
si 1
general 1
mayo 1
ella 1
ico 1
6 0.8766400506683816
E@@ 1
Juan 1
R@@ 0.8971918665697735
B@@ 0.798598250426888
tuvo 1
2010 1
F@@ 0.9585906868999771
V@@ 1
enero 1
ó@@ 1
marzo 1
esa 1
s@@ 0.7291455007951263
octubre 1
encia 1
septiembre 1
D@@ 0.8238393695235807
di@@ 1
Sin 1
historia 1
² 1
película 1
— 0.27164113847779514
julio 1
total 1
varios 1
on@@ 1
s 0.4293652790939076
10 0.8539668745779384
r@@ 1
” 1
cuatro 1
“ 0.44374233194846885
el@@ 1
l@@ 1
junio 1
N@@ 0.9392573883461642
Historia 1
tenía 1
él 1
región 1
sur 0.585108867981204
at@@ 1
&amp; 0.6135333732506048
diciembre 1
partido 1
ino 1
er@@ 0.8613914540027671
habitantes 1
abril 1
Este 1
agosto 1
José 1
d@@ 1
idos 1
obra 1
especie 1
número 1
entonces 1
debido 1
u@@ 1
g@@ 1
car@@ 1
noviembre 1
ch@@ 0.936943547877546
ex@@ 1
f@@ 1
er 0.2023279206882567
Durante 1
b@@ 1
algunos 1
ab@@ 1
mundo 1
pueden 1
río 1
de@@ 1
luego 1
am@@ 1
Al@@ 1
Ar@@ 1
amiento 1
est@@ 1
anos 1
im@@ 1
través 1
estos 1
n@@ 1
qu@@ 1
i@@ 1
istas 1
principal 1
Con@@ 1
además 1
Según 1
i 1
sistema 1
cu@@ 1
su@@ 1
e@@ 0.9411025787154299
norte 1
ec@@ 1
ismo 1
tr@@ 1
febrero 1
banda 1
Esta 1
par@@ 1
á 1
or 0.29056156184811976
guerra 1
agua 1
of 0.023987507982268636
j@@ 1
México 1
ita 1
otro 1
les 0.1755161327263665
segundo 1
20 0.9779021907643878
idas 1
ic@@ 1
ciones 1
hizo 1
7 0.8474184257530111
provincia 1
siguiente 1
per@@ 1
trabajo 1
aría 1
tarde 1
J@@ 1
unos 1
zona 1
co@@ 1
m 0.875707791461957
endo 1
ores 1
ellos 1
canción 1
están 1
cuenta 1
Para 1
ara 1
partir 1
8 0.8194934659191754
H@@ 0.7443261694016245
I 0.7482084690116824
icos 1
segunda 1
uso 1
inter@@ 1
ag@@ 1
estadounidense 1
presidente 1
largo 1
nacional 1
Con 1
aria 1
in 0.022118752336074066
dentro 1
Mar@@ 1
Santa 1
2011 0.9044120468998929
oso 1
15 0.9634472255059091
pre@@ 1
Nueva 1
co 1
I@@ 1
is@@ 1
conocido 1
carrera 1
osa 1
Después 1
muerte 1
María 1
Un 1
Además 1
ul@@ 1
12 0.8289100074366298
ci@@ 1
ol@@ 1
eron 1
ent@@ 1
ti@@ 1
centro 1
cor@@ 1
dio 1
varias 1
Una 1
z@@ 0.9284467177608026
m@@ 1
momento 1
a@@ 1
obras 1
– 0.19575187205840935
ato 1
ito 1
Guerra 1
género 1
is 0.07124998806548899
arios 1
ur@@ 1
tipo 1
ap@@ 1
sub@@ 1
on 0.08033728392210768
tos 1
il@@ 1
it@@ 1
Mundial 1
medio 1
Desde 1
Tras 1
español 1
poco 1
época 1
muchos 1
grandes 1
nueva 1
hay 1
estas 1
hijo 1
An@@ 1
bien 1
menos 1
ín 1
comenzó 1
2012 0.87178984961815
último 1
título 1
No 1
ot@@ 1
mayoría 1
30 0.9886352314917313
misma 1
com@@ 1
otra 1
0 1
eta 1
hace 1
eros 1
según 1
et@@ 1
rey 1
2014 0.8576852607996094
días 1
importante 1
icas 1
aje 1
cerca 1
2015 0.8721381315918568
ir@@ 1
música 1
padre 1
esto 1
ías 1
Entre 1
tienen 1
h@@ 0.8720724349179965
casa 1
2008 0.868049747749612
poder 1
almente 1
diferentes 1
manera 1
2016 0.8760198062778215
és 0.9328596812655623
localidad 1
Car@@ 1
Madrid 1
frente 1
2013 0.858121395063233
9 0.7898378769231317
ándose 1
os@@ 1
us 0.7515898292696797
caso 1
ca 1
línea 1
producción 1
Estado 1
Carlos 1
mejor 1
ir 1
hecho 1
nivel 1
lado 1
Francia 1
2009 0.8357234539936853
primeros 1
edad 1
16 0.974555947939782
millones 1
política 1
18 0.8866010280979589
u 1
2007 0.8867071165900409
Z@@ 0.8651786765981424
un@@ 0.4877617224223235
programa 1
av@@ 1
vi@@ 1
República 1
Argentina 1
pueblo 1
11 0.8523073872457059
za 1
rec@@ 1
oc@@ 1
the 0.009953836735589625
convirtió 1
ro@@ 1
2000 1
llamado 1
II 1
versión 1
K@@ 0.5647130092008543
ejemplo 1
le@@ 1
om@@ 1
ares 1
puesto 1
Ch@@ 0.9688336310776594
af@@ 1
metros 1
haber 1
In@@ 1
U@@ 1
cargo 1
tico 1
das 0.23653392209431226
illa 1
algunas 1
mar@@ 1
tan 1
cinco 1
res@@ 1
distrito 1
í 1
veces 1
Como 1
va 1
14 0.9564359213686557
ona 1
inas 1
2006 0.8569426306249688
able 0.853857039065472
25 1
todas 1
13 0.9951014293619946
2018 0.8110460320975409
capital 1
club 1
miembros 1
ología 1
cuales 1
década 1
finales 1
ata 1
desarrollo 1
17 1
habían 1
punto 1
mujeres 1
col@@ 1
partidos 1
construcción 1
hacer 1
tica 1
Biografía 1
Luis 1
az@@ 1
ri@@ 1
19 0.9533061113588756
bi@@ 1
orden 1
us@@ 1
2017 0.8037084386460414
pesar 1
base 1
y@@ 0.8132056592167045
director 1
Com@@ 1
actual 1
dis@@ 0.8476758144518088
id@@ 1
ubicado 1
ena 1
estudio 1
ley 1
pr@@ 1
d 0.36865344447802545
siguientes 1
toda 1
adora 1
br@@ 1
mon@@ 1
Francisco 1
especies 1
principales 1
estudios 1
casi 1
Y@@ 1
Europa 1
miembro 1
ello 1
ora 1
Chile 1
juego 1
En@@ 1
Copa 1
inglés 1
condado 1
2019 0.7920127801911496
llegó 1
éxito 1
fútbol 1
posición 1
proyecto 1
ura 1
hombres 1
área 1
acuerdo 1
ven@@ 1
Cuando 1
Campeonato 1
Re@@ 1
puntos 1
mediante 1
inos 1
tener 1
op@@ 1
na 1
ed@@ 1
países 1
cualquier 1
televisión 1
estilo 1
Club 1
ja 1
cal@@ 1
2005 0.8838968244181455
_ 0.6996385441601845
24 1
li@@ 1
fuera 1
cre@@ 1
conocida 1
Partido 1
aj@@ 1
tierra 1
ú@@ 1
em@@ 1
oro 1
21 1
C. 1
isla 1
gu@@ 1
origen 1
po@@ 1
libro 1
super@@ 1
te@@ 1
eo 1
York 0.8063646135999086
equipos 1
22 1
militar 1
papel 1
anas 1
porque 1
$ 0.9632091620526803
recibió 1
Cor@@ 1
pi@@ 1
edificio 1
ver@@ 0.5057027004084564
Antonio 1
pas@@ 1
Alemania 1
ñ@@ 1
ant@@ 1
color 1
ni 1
Pedro 1
grupos 1
oeste 1
estación 1
enta 1
relación 1
te 0.42359871911071545
Sus 1
Real 1
fin 1
alrededor 1
2020 0.7348850610382682
última 1
ento 1
estuvo 1
ob@@ 1
Gran 1
C 0.9867629010692726
edición 1
encuentran 1
2004 0.8440625422738485
contr@@ 1
23 1
et 0.05245479088015997
oficial 1
ambos 1
proceso 1
can@@ 1
principalmente 1
elecciones 1
and@@ 1
público 1
superficie 1
mar 1
iglesia 1
W@@ 0.4441098814507658
canciones 1
ea 1
División 1
pl@@ 1
General 1
ganó 1
ter@@ 1
principios 1
and 0.015225230799276738
mucho 1
empresa 1
Bar@@ 1
servicio 1
incluso 1
estaban 1
enc@@ 1
fr@@ 1
estar 1
ra 1
territorio 1
cambio 1
eras 1
idades 1
disco 1
meses 1
cas@@ 1
sería 1
importantes 1
sino 1
arte 1
du@@ 1
ver 1
llamada 1
é@@ 0.8799261050530929
ela 1
Reino 1
jo 1
l 0.2830428217928291
z 1
é 0.4016260897787749
cabo 1
sal@@ 1
propio 1
reg@@ 1
pasó 1
político 1
América 1
seis 1
Mon@@ 1
gr@@ 1
Tr@@ 1
B 1
Unión 1
internacional 1
campo 1
ejército 1
Es@@ 1
ota 1
finalmente 1
tor@@ 1
ma 1
pos@@ 1
º 1
término 1
muchas 1
bar@@ 1
encias 1
original 1
eg@@ 1
amp 0.5755331911587378
Primera 1
trans@@ 1
Liga 1
medios 1
densidad 1
Norte 1
musical 1
Segunda 1
Per@@ 1
man 0.42448695090325966
Buenos 1
28 1
conjunto 1
cuerpo 1
.@@ 1
arias 1
hu@@ 1
unas 1
debe 1
Aires 1
John 0.604741216123407
sede 1
Par@@ 1
siempre 1
100 0.8364017274040567
departamento 1
to@@ 1
des 0.04599925806810233
Internacional 1
Col@@ 1
francés 1
27 1
madre 1
tal 1
movimiento 1
2003 0.879295854426852
obtuvo 1
Aunque 1
sólo 1
ig@@ 1
dec@@ 1
° 1
26 1
Manuel 1
resto 1
compañía 1
ería 1
n 0.5622233401494453
posteriormente 1
mujer 1
ense 1
Gu@@ 1
Sur 1
arr@@ 1
entos 1
lista 1
Or@@ 1
hijos 1
esp@@ 1
illo 1
Iglesia 1
alto 1
ará 1
realizó 1
Italia 1
primero 1
categoría 1
osos 1
man@@ 1
mes 1
ellas 1
nombrado 1
cer@@ 1
igual 1
Esto 1
central 1
aún 1
Cu@@ 1
sa 0.3922365431875337
especialmente 1
eto 1
tores 1
2001 0.8178721889435928
anterior 1
ativa 1
t 0.3128582011946119
dice 1
Co@@ 1
fuerzas 1
social 1
publicado 1
sí 1
hija 1
alta 1
local 0.9405464378473041
Ciudad 1
hoy 1
española 1
único 1
organización 1
formación 1
um 0.3245679810212273
atr@@ 1
cha 1
ubicada 1
acción 1
2002 0.797807026560249
batalla 1
media 1
Barcelona 1
resultado 1
pres@@ 1
ama 1
censo 1
ati@@ 1
Instituto 1
ay@@ 1
período 1
hermano 1
dirección 1
x@@ 1
control 1
án@@ 1
um@@ 0.8898336348722162
Santiago 1
París 1
jugador 1
estr@@ 1
inc@@ 1
incluyendo 1
vol@@ 1
medi@@ 1
profesional 1
agu@@ 1
ión 1
escuela 1
sencillo 1
Geografía 1
tema 1
investigación 1
alización 1
revista 1
-@@ 1
Man@@ 1
O 0.9508522742976273
x 0.9747588612920378
hombre 1
ru@@ 1
As@@ 1
ables 1
ro 1
ov@@ 1
modo 1
1990 0.9078172033938465
29 1
fecha 1
torneo 1
ancia 1
llegar 1
paso 1
mal@@ 1
2021 0.7295094370417927
mo@@ 1
Est@@ 1
ativo 1
end@@ 1
der 0.02645671417975876
Le@@ 0.9368265292738607
! 0.7560843450284292
antiguo 1
der@@ 1
actividad 1
apoyo 1
Juegos 1
tu@@ 1
ev@@ 1
50 0.9107916691158006
1999 0.8411236454974957
formula 0.5887193315025125
datos 1
lo@@ 0.8885818515596413
sea 1
francesa 1
min@@ 1
actualmente 1
llevó 1
nació 1
decir 1
mor@@ 1
... 1
alidad 1
Perú 1
popular 1
osas 1
ahora 1
modelo 1
espacio 1
comunidad 1
gen@@ 1
superior 1
Qu@@ 1
pues 1
Luego 1
servicios 1
derecho 1
bal@@ 1
Miguel 1
ativas 1
eso 1
ática 1
aparece 1
personal 1
ciudades 1
elegido 1
joven 1
Cas@@ 1
problemas 1
Mor@@ 1
bas@@ 1
etas 1
participó 1
tas 1
Cal@@ 1
si@@ 1
situada 1
interior 1
autor 1
posible 1
of@@ 1
vo 1
creación 1
nos 1
cine 1
personaje 1
información 1
sol@@ 1
Si 1
iz@@ 1
at 0.05723669451123501
Centro 1
no@@ 1
Gobierno 1
k@@ 0.43123401859463395
primeras 1
Des@@ 1
Te@@ 1
propia 1
única 1
Museo 1
Unido 1
ari@@ 1
capacidad 1
diseño 1
tras@@ 1
menor 1
cantante 1
anunció 1
itos 1
logró 1
Río 1
ce 0.3803379078184772
aproximadamente 1
ten@@ 1
ío 1
ios 1
re 0.7207405933562105
dijo 1
ónica 1
Consejo 1
victoria 1
Am@@ 1
rom@@ 1
Premio 1
Val@@ 1
Escuela 1
situación 1
casos 1
ña 1
real 1
nunca 1
1998 0.8477417650315069
Inglaterra 1
anti@@ 1
ala 1
Demografía 1
objetivo 1
calle 1
mat@@ 1
publicó 1
Más 1
nuevos 1
natural 1
dar 1
Japón 1
ticos 1
temas 1
dado 1
Brasil 1
común 1
alemán 1
pe@@ 1
Pero 1
ne@@ 1
El@@ 1
allí 1
ve 0.2688735942777214
volvió 1
cantidad 1
Colombia 1
partes 1
tenían 1
principio 1
China 1
h 0.616387181527519
especial 1
tercer 1
000 1
r 0.9800445364798124
división 1
pequeño 1
cultura 1
k 0.49314978357218037
trata 1
elementos 1
III 1
oper@@ 1
Ejército 1
diversos 1
últimos 1
1980 1
decidió 1
0.@@ 1
estructura 1
Londres 1
ín@@ 1
Está 1
ni@@ 1
escribió 1
cur@@ 1
periodo 1
ticas 1
fuerza 1
selección 1
campaña 1
altura 1
Distribución 1
muestra 1
c 0.5389033010713461
ol 1
actor 1
derechos 1
grande 1
Fernando 1
situado 1
esposa 1
mer@@ 1
tropas 1
antigua 1
actividades 1
31 0.9936439288636276
sin@@ 1
planta 1
1996 0.8704887792474224
ativos 1
tivo 1
ér@@ 1
tur@@ 1
participación 1
ocho 1
atos 1
De@@ 1
og@@ 1
od@@ 1
X 1
pel@@ 1
presencia 1
entr@@ 1
Así 1
zonas 1
incluye 1
nuevas 1
ber@@ 1
Ber@@ 1
Sh@@ 0.7803772471880704
Pr@@ 1
Y 1
ez 1
fer@@ 1
libre 1
Censo 1
Di@@ 1
longitud 1
V 1
1997 0.8467645643481613
for@@ 0.8183622047600354
tiva 1
Su@@ 1
X@@ 1
ajes 1
clase 1
sitio 1
g 0.5744167418810252
grado 1
vía 1
0,@@ 1
40 0.896248285031948
tar@@ 1
mu@@ 1
dicho 1
profesor 1
1995 0.8814694977078755
Carrera 1
mo 1
películas 1
algo 1
cel@@ 1
aca 1
arlo 1
so 0.35751247895699906
compuesto 1
comuna 1
ali@@ 1
siete 1
1992 0.8608872922199784
se@@ 0.7123214906661073
zo 1
ár@@ 1
esc@@ 1
novela 1
so@@ 1
amos 1
sum@@ 1
causa 1
qui@@ 1
tercera 1
dr@@ 1
Esp@@ 1
jefe 1
teatro 1
ye 1
persona 1
imagen 1
costa 1
referencia 1
sociedad 1
ayuda 1
fal@@ 1
campeón 1
cant@@ 1
cuyo 1
N 1
XIX 1
ser@@ 1
1994 0.8565375982423866
alismo 1
California 1
tamaño 1
sión 1
quienes 1
her@@ 1
mitad 1
ola 1
personajes 1
cos 1
fuerte 1
noche 1
lucha 1
menudo 1
Her@@ 1
= 0.5495882433033323
au@@ 0.9856380060159176
pu@@ 1
similar 1
perteneciente 1
Estos 1
matrimonio 1
León 1
ª 1
podría 1
niños 1
Sal@@ 1
1.@@ 1
gracias 1
pudo 1
luz 1
Mientras 1
ici@@ 1
prueba 1
mercado 1
Central 1
vio 1
realizar 1
fi@@ 1
tales 1
pequeña 1
Ac@@ 1
ocasiones 1
D 0.835993318508446
oma 1
quedó 1
1970 0.9914717518559591
mediados 1
Imperio 1
Posteriormente 1
ins@@ 1
bo@@ 0.7623861243778732
Ver@@ 0.47578585113908556
diversas 1
má@@ 1
presenta 1
ua 1
Br@@ 0.8550371810902339
E 1
Ex@@ 1
eno 1
García 1
libros 1
medida 1
sobre@@ 1
actualidad 1
XX 1
ist@@ 1
Gr@@ 1
Tor@@ 1
1991 0.8262849106285488
acciones 1
premio 1
interés 1
función 1
cri@@ 1
educación 1
aña 1
idea 1
Actualmente 1
mano 1
lleva 1
Tiene 1
me 0.7404076636989326
razas 1
plantas 1
artistas 1
diferencia 1
Fútbol 1
ministro 1
ell@@ 1
mando 1
uc@@ 1
trabajos 1
Venezuela 1
do@@ 1
gt 0.5170769748227125
episodio 1
ae 1
Ha 1
mundial 1
David 0.9546862832944081
én 1
pal@@ 1
Congreso 1
cm 1
etapa 1
am 0.15143731136727917
murió 1
go 1
Vi@@ 1
leg@@ 1
horas 1
Cruz 1
lanzado 1
Roma 1
centr@@ 1
1993 0.8363577132085417
imiento 1
Ab@@ 0.5550726631590623
pat@@ 1
pen@@ 1
medalla 1
inf@@ 1
jugó 1
gobernador 1
den 0.05944414528450424
Festival 1
compr@@ 1
aire 0.94821920622718
ase 1
itas 1
mejores 1
ing 0.10345388093161927
mas@@ 1
ete 1
usa 1
energía 1
honor 1
Gal@@ 1
ataque 1
adi@@ 1
Hu@@ 1
geográfica 1
cuya 1
illas 1
Oficina 1
L 0.6325506544658639
red 1
Rusia 1
gira 1
valor 1
cio 1
mi@@ 1
cion@@ 1
Bal@@ 1
defensa 1
permite 1
gan@@ 1
canal 1
presentó 1
ill@@ 1
amientos 1
’ 0.08417936689376823
cabeza 1
características 1
lugares 1
pro@@ 1
gener@@ 1
Del 1
plaza 1
pol@@ 1
dirigida 1
relaciones 1
influencia 1
kilómetros 1
actriz 1
baja 1
lt 0.5186542242989364
tor 1
ah@@ 1
barrio 1
formar 1
fase 1
significa 1
Academia 1
Pro@@ 1
one 0.11983314143925028
ác@@ 1
armas 1
ad 0.7877026839979745
ático 1
propiedad 1
Inter@@ 1
frontera 1
ga 1
bu@@ 1
ba 1
mil@@ 1
cho 0.6233023492937478
S 0.8514522832344785
distancia 1
Ma@@ 1
importancia 1
incluyen 1
dejó 1
ño 1
añ@@ 1
jas 1
formó 1
1989 0.8432626580912548
Casa 1
Pi@@ 1
etc. 1
verano 1
Tierra 1
tierras 1
ang@@ 0.8060041679220339
jugadores 1
ate 0.2381674768045085
Bel@@ 1
material 1
cl@@ 1
b 0.5299122523332025
Jorge 1
diez 1
ing@@ 0.7865674800020033
vista 1
inició 1
trabajó 1
dic@@ 1
camino 1
respecto 1
terminó 1
ieron 1
ens@@ 0.7142527744856065
sociales 1
tes 0.6160569279403972
dicha 1
port@@ 1
sector 1
New 0.1933765772823479
+ 0.9026066800198413
Mal@@ 1
condiciones 1
tir@@ 1
generalmente 1
comercial 1
mil 1
rel@@ 1
Se@@ 0.6960289546690017
tura 1
&#124; 0.8760303986044418
debut 1
ba@@ 1
ú 1
esas 1
ira 1
Saint 0.4525179404910266
minutos 1
carácter 1
1960 0.9589368903299228
entrada 1
calidad 1
liga 1
aguas 1
campeonato 1
sigue 1
cr@@ 0.7787873663191561
aga 1
blanco 1
sistemas 1
acto 1
Cr@@ 1
R 0.8007575689024318
escritor 1
ran@@ 1
considerado 1
locales 1
irse 1
mm 1
ep@@ 1
Po@@ 1
goles 1
be@@ 0.4152373704066834
manos 1
acceso 1
pasado 1
combate 1
ut@@ 0.9229475711616917
ológico 1
ización 1
Cer@@ 1
60 0.9962005390589918
unidades 1
dieron 1
parque 1
presión 1
lanzó 1
ay 0.863540432858897
ach@@ 0.7574126197653946
rock 1
Can@@ 1
trabajar 1
artista 1
én@@ 1
productos 1
dem@@ 1
marca 1
todavía 1
eng@@ 1
semana 1
p 0.5494503993658502
tar 1
juegos 1
seguridad 1
Algunos 1
Mo@@ 1
sentido 1
realidad 1
san@@ 1
militares 1
van 1
consiguió 1
ila 1
municipal 1
Australia 0.9198928514694128
vas 1
nuevamente 1
fines 1
crear 1
apareció 1
ge@@ 0.5202390172162064
all@@ 1
ai 0.7921281477765751
nacionales 1
descrita 1
có 0.3230962774739743
For@@ 1
radio 1
1988 0.8274524004158498
M 0.8874120680226427
Ley 1
Enrique 1
tom@@ 1
coordenadas 1
pública 1
humanos 1
acu@@ 1
civil 1
Martín 1
creó 1
voz 1
eles 1
India 0.915347860578198
neg@@ 1
Ro@@ 1
líder 1
Rec@@ 1
administr@@ 1
americano 1
Grupo 1
contrato 1
Sol@@ 1
? 0.9950464706240111
tri@@ 1
eza 1
restos 1
ición 1
versiones 1
formas 1
áreas 1
lanzamiento 1
produjo 1
lam@@ 1
ie 0.31933082842259614
empezó 1
cambios 1
conoce 1
ambas 1
jos 1
empresas 1
Pablo 1
por@@ 1
Lo@@ 1
don@@ 1
fil@@ 1
Ser@@ 1
éndose 1
cat@@ 1
enci@@ 1
anc@@ 1
Asociación 1
realizado 1
bol@@ 1
cantón 1
escrito 1
italiano 1
Jesús 1
Puerto 1
programas 1
ton 0.5209115051536097
teoría 1
iendo 1
jóvenes 1
1985 0.8988886849643933
islas 1
Costa 1
encontrar 1
San@@ 1
ka 0.7277220840139362
1987 0.8650898509082428
liber@@ 1
cuarto 1
utiliza 1
velocidad 1
1986 0.8683982778181298
IV 1
mayores 1
Ministerio 1
numerosos 1
del@@ 1
eb@@ 0.7844615782855828
cultural 1
80 1
estudi@@ 1
vuelta 1
tivos 1
espec@@ 1
tra@@ 1
il 0.09753425312984731
st@@ 0.3037356319732633
Debido 1
obtener 1
formado 1
Pacífico 1
creado 1
comienza 1
2@@ 0.9916339685545551
Descripción 1
lengua 1
iro 1
Mat@@ 1
cul@@ 1
mol@@ 1
anza 1
dan 1
Finalmente 1
prec@@ 1
Castilla 1
amor 1
plata 1
cab@@ 1
esti@@ 1
figura 1
alista 1
hermanos 1
favor 1
existe 1
elo 1
industria 1
idae 1
comunicación 1
padres 1
cit@@ 1
particular 1
etes 1
líneas 1
lu@@ 1
posee 1
resultados 1
ningún 1
Estas 1
ini 1
utilizado 1
Presidente 1
pueblos 1
soldados 1
extr@@ 1
administración 1
observ@@ 1
1984 0.8494495976959578
Teatro 1
1982 0.9065573869333375
edi@@ 1
gente 1
blancos 1
anteriores 1
tuvieron 1
tí@@ 1
vas@@ 1
África 1
López 1
dólares 1
texto 1
ias 1
construido 1
cont@@ 1
misión 1
ingresos 1
1983 0.90119428146767
ección 1
internacionales 1
estim@@ 1
prim@@ 1
histórico 1
iones 1
unidad 1
200 0.8995676211617241
pequeños 1
considera 1
Cam@@ 1
oficiales 1
falta 1
inicio 1
ao 1
jugar 1
parece 1
tera 1
Hay 1
posterior 1
ológica 1
T 0.769083989471502
evento 1
di 0.8072976780237043
sección 1
contiene 1
Vill@@ 1
evitar 1
animales 1
motor 1
podía 1
sur@@ 0.7614785399731862
tamente 1
auto@@ 1
Le 0.11508901111280347
viaje 1
hab@@ 1
orio 1
coloc@@ 1
raza 1
che 0.9999963341563936
me@@ 1
bronce 1
mi 1
elección 1
Dios 1
argentino 1
británico 1
palabra 1
poblacional 1
ra@@ 1
Sociedad 1
suelo 1
oblig@@ 1
bor@@ 1
aran 1
tipos 1
esper@@ 1
madera 1
demás 1
Pas@@ 1
James 0.6520430558300809
aci@@ 1
apo@@ 1
presente 1
existen 1
cá@@ 1
2.@@ 1
cost@@ 1
gal@@ 1
buena 1
efecto 1
ti 1
gol 1
aco 1
ál@@ 1
present@@ 1
ólogo 1
crítica 1
estados 1
salud 1
distribu@@ 1
Er@@ 0.6069052696167874
cómo 1
economía 1
Valencia 1
ef@@ 1
pocos 1
piedra 1
tradicional 1
funciones 1
Fr@@ 1
unió 1
cuanto 1
encontraba 1
constitu@@ 1
jug@@ 1
Bo@@ 0.8196261181632223
políticas 1
existencia 1
izquierda 1
ue 0.880427897724781
edificios 1
loc@@ 1
ór@@ 1
políticos 1
ind@@ 1
Otros 1
anta 1
Trayectoria 1
prepar@@ 1
gar@@ 1
palabras 1
aya 1
cara 1
tro 1
domin@@ 1
puerto 1
puestos 1
nacido 1
conven@@ 1
llegada 1
familias 1
acompañ@@ 1
ez@@ 1
representa 1
1979 0.8552297667236861
Ur@@ 1
temporadas 1
alcanzó 1
ninguna 1
ej@@ 1
castillo 1
templo 1
form@@ 1
occidental 1
obispo 1
det@@ 1
bur@@ 1
mantuvo 1
ema 1
aves 1
val@@ 1
aqu@@ 1
numerosas 1
Canadá 1
completo 1
70 1
regiones 1
tomó 1
González 1
haciendo 1
F 0.7215518550214796
Comisión 1
1976 0.8804031892392561
atención 1
tradición 1
Be@@ 0.5342800115504859
eses 1
90 1
torno 1
será 1
integr@@ 1
oficialmente 1
aquel 1
colección 1
Felipe 1
amb@@ 1
influ@@ 1
ganar 1
crecimiento 1
hall@@ 1
Santo 1
llev@@ 1
Selección 1
Córdoba 1
az 1
Olímpicos 1
eña 1
aza 1
policía 1
cons@@ 1
sac@@ 1
fic@@ 1
ivo 1
españoles 1
Artes 1
Pan@@ 1
imientos 1
inform@@ 1
gi@@ 1
ografía 1
referirse 1
Men@@ 1
pruebas 1
independiente 1
áticos 1
icio 1
adoras 1
Un@@ 0.7667969736876192
1950 0.8244969160462443
pan@@ 1
alcanzar 1
Bor@@ 1
William 0.5662390123082726
pa 1
casas 1
isa 1
hicieron 1
ronda 1
económica 1
clasificación 1
10@@ 0.813053532628232
determin@@ 1
Ter@@ 1
taron 1
uras 1
dir 1
cin@@ 1
dur@@ 1
emple@@ 1
be 0.07377751904472343
directamente 1
1978 0.858143386387276
conserv@@ 1
ta@@ 1
rev@@ 1
son@@ 1
probablemente 1
prop@@ 1
ne 0.2103852331187763
distintos 1
Gar@@ 1
not@@ 1
Pal@@ 1
asa 1
sem@@ 1
den@@ 1
1973 0.8728149181416017
arían 1
Cat@@ 1
votos 1
artículo 1
fac@@ 1
St@@ 0.44231861514863796
prot@@ 1
emperador 1
Paul 0.5920411609158891
per 0.5103005974056235
hor@@ 1
ayo 1
Departamento 1
Robert 0.6585179651644748
continuó 1
1981 0.8119605848739445
práctica 1
entrenador 1
pasar 1
Em@@ 1
3@@ 0.8117152893431999
toma 1
proyectos 1
compar@@ 1
derecha 1
negro 1
transporte 1
estudiantes 1
bot@@ 1
FC 0.835824213574617
obstante 1
casó 1
viol@@ 1
fuente 1
Vida 1
ilo 1
futbolista 1
Don 1
atorio 1
Provincia 1
ines 0.9332107733009123
tiempos 1
curso 1
dinero 1
organiz@@ 1
gobern@@ 1
carretera 1
sab@@ 1
1975 0.791506275941118
fuentes 1
gas 1
plan@@ 1
amigo 1
pes@@ 1
Mer@@ 1
So@@ 1
Ciencias 1
hubo 1
ónico 1
pon@@ 1
aro 1
ped@@ 1
fondo 1
Virgen 1
algún 1
web 1
qué 1
eca 1
ju@@ 1
lin@@ 1
Rey 1
P 0.8341141495670754
declaró 1
educ@@ 1
Ad@@ 0.9515245609365712
vir@@ 1
ret@@ 1
esos 1
eci@@ 1
termin@@ 1
Diego 1
tic@@ 1
Por@@ 1
ística 1
escena 1
realiza 1
estableció 1
gran@@ 1
autoridades 1
colabor@@ 1
orden@@ 1
fin@@ 1
doble 1
emos 1
pequeñas 1
plan 0.9348393391848339
regresó 1
fundó 1
4@@ 0.8107029107648372
Fernández 1
bat@@ 1
autores 1
Rodríguez 1
tel@@ 1
alguna 1
títulos 1
dor@@ 1
produce 1
tal@@ 1
mand@@ 1
ular 1
ib@@ 1
ego 1
ende 0.7013319780171648
Ne@@ 0.7091657307788323
Cl@@ 1
tenido 1
denomin@@ 1
ide@@ 1
ers 0.15132548262423662
ex 1
atoria 1
lago 1
signific@@ 1
distribución 1
1977 0.8610767794177611
pe 1
tem@@ 1
icamente 1
Orden 1
celebr@@ 1
mantener 1
análisis 1
cru@@ 1
decisión 1
aliz@@ 1
Distrito 1
consider@@ 1
escrita 1
hermana 1
trat@@ 1
objeto 1
ey 0.7852270923351421
George 0.585682141840323
efectos 1
valle 1
distintas 1
publicación 1
produc@@ 1
cap@@ 1
dirigido 1
nada 1
eño 1
segu@@ 1
naturaleza 1
Bu@@ 1
lanz@@ 1
disput@@ 1
pul@@ 1
incorpor@@ 1
dido 1
atac@@ 1
futuro 1
ote 1
act@@ 1
cadena 1
originalmente 1
500 0.9035494294763294
men@@ 1
llega 1
Bi@@ 0.9154929820024755
1974 0.7932766069342614
siglos 1
vac@@ 1
consecuencia 1
hab 1
Cre@@ 1
larga 1
radi@@ 1
construir 1
fundada 1
Mas@@ 1
dia 1
A. 1
isión 1
mad@@ 1
enfermedad 1
problema 1
literatura 1
continu@@ 1
Nuevo 1
defin@@ 1
ani 0.8869359801763433
prom@@ 1
habit@@ 1
Era 1
Alfonso 1
conde 1
libertad 1
ruso 1
siguió 1
ques 0.8477970920280018
abr@@ 1
imágenes 1
Federación 1
recursos 1
artículos 1
inici@@ 1
Ri@@ 1
pintura 1
expres@@ 1
chas 1
1972 0.7494880992825784
var@@ 1
Pol@@ 0.986143395902617
tomar 1
experiencia 1
sola 1
clima 1
Villa 1
asi@@ 1
aparición 1
técnica 1
tó 1
variedad 1
Á@@ 1
bastante 1
verde 1
jer@@ 1
exterior 1
concepto 1
rápidamente 1
til@@ 1
elimin@@ 1
f 0.5812595538573733
pur@@ 1
modific@@ 1
nombres 1
ece 1
perdió 1
arquitectura 1
v 0.8385664356866653
permitió 1
1968 0.7735625180682222
Mc@@ 0.5889385596515337
adop@@ 1
serv@@ 1
sonido 1
Educación 1
fundado 1
oto 1
Jean 0.5420130262401603
visión 1
dad 1
Ros@@ 1
capitán 1
peso 1
actuación 1
Portugal 1
ampli@@ 1
corte 1
Alberto 1
encuentro 1
enas 1
salida 1
bio 1
corresponden 1
reino 1
inferior 1
Ni@@ 1
eventos 1
generación 1
sel@@ 1
mis@@ 1
fundación 1
Az@@ 1
operaciones 1
crisis 1
Pre@@ 1
universidad 1
isi@@ 1
titular 1
XVIII 1
Ger@@ 0.9753914111831848
Ese 1
Lo 1
vari@@ 1
Mad@@ 1
ed 0.08607793757574181
Pérez 1
independencia 1
semanas 1
und@@ 0.9731924093773135
Ángeles 1
edit@@ 1
especi@@ 1
World 0.2383083692481182
Ti@@ 1
ch 0.4038240745293093
Popular 1
Mi@@ 1
conocidos 1
productor 1
Ben@@ 1
clases 1
vos 1
contaba 1
griego 1
par 0.0660572836767597
mes@@ 1
Cur@@ 1
debajo 1
Mac@@ 1
ine 0.28344239442411345
estadio 1
lar@@ 1
razón 1
sh@@ 0.3301419069024791
35 0.9294714597926074
derrota 1
enti@@ 0.9626892561472652
Salvador 1
venta 1
máxima 1
U 0.5465853012801839
llam@@ 1
Son 0.9454552232678256
favor@@ 1
1,@@ 1
fuego 1
cam@@ 1
respuesta 1
Dos 1
mit@@ 1
w@@ 0.24277076432376304
TV 0.6119962373419224
Uruguay 1
Tur@@ 1
reconocimiento 1
gestión 1
representación 1
ard@@ 1
puesta 1
Reg@@ 1
puso 1
Lima 1
Valle 1
emp@@ 1
onal 1
salv@@ 1
altitud 1
dej@@ 1
deben 1
ima 1
cosas 1
exten@@ 1
Radio 1
Lu@@ 1
represent@@ 1
th@@ 0.27794313009714433
máximo 1
escu@@ 1
firme 1
ánica 1
vivo 1
comercio 1
1969 0.7970312142011702
participar 1
llevar 1
ras@@ 1
ell 0.6113742923248419
1930 0.9021711926838937
Mag@@ 1
siones 1
antiguos 1
indic@@ 1
med@@ 1
Sevilla 1
Pres@@ 1
oni@@ 1
dirigió 1
piezas 1
afect@@ 1
uta 1
ca@@ 1
Li@@ 0.8772907676859627
Palacio 1
ió 1
mal 1
adelante 1
registr@@ 1
nueve 1
completamente 1
pareja 1
acerca 1
Rafael 1
trasladó 1
imp@@ 1
def@@ 1
ciencia 1
producto 1
arla 1
amento 1
puente 1
Civil 1
ética 1
colaboración 1
Th@@ 0.4959458769541728
fundador 1
asc@@ 1
abilidad 1
aquellos 1
actu@@ 1
promedio 1
Michael 0.691768508856693
regreso 1
fall@@ 1
Asia 1
comenzaron 1
fir@@ 1
ecto 1
turas 1
composición 1
anteriormente 1
Camp@@ 1
fot@@ 1
iles 1
términos 1
ás 1
1940 0.7867617402986833
caus@@ 1
municipios 1
ud@@ 1
establec@@ 1
ental 1
ulares 1
materiales 1
museo 1
oras 1
ros@@ 1
Av@@ 1
Parque 1
firma 1
hi@@ 0.8692448536251984
activ@@ 1
metro 1
óp@@ 1
actos 1
áticas 1
diario 1
Dis@@ 1
flores 1
XVI 1
respectivamente 1
conduc@@ 1
fabric@@ 1
azo 1
1971 0.7242752395667036
llegaron 1
amigos 1
candidato 1
alcalde 1
video 0.7158464650841356
oriental 1
temperatura 1
dió 1
conocer 1
ur 0.7299162334129864
prensa 1
pasa 1
villa 1
Comité 1
entró 1
je 0.9916812196114573
Records 0.8881703815484587
ler@@ 0.8952943998091915
onia 1
comp@@ 1
8@@ 0.9199492362723775
pos 1
conflicto 1
hom@@ 1
go@@ 1
periodista 1
musicales 1
objetos 1
É@@ 0.9709425402946054
culo 1
titulado 1
inst@@ 1
juega 1
it 0.048896086707635615
iba 1
1945 0.5095828176832438
Plaza 1
conocimiento 1
Federal 1
Martínez 1
orr@@ 1
illos 1
torre 1
Sab@@ 1
Características 1
extremo 1
hora 1
arc@@ 1
lleg@@ 1
mismos 1
motivo 1
listas 1
ecer 1
generales 1
pronto 1
Tri@@ 1
hacen 1
1967 0.770425916172384
creada 1
pin@@ 1
mos 1
Eduardo 1
Constitución 1
Estadio 1
City 0.30610587902231085
modelos 1
continuación 1
traslad@@ 1
posteriores 1
rojo 1
Chi@@ 1
unión 1
Bur@@ 0.8642992958848176
Municipio 1
ext@@ 1
lig@@ 1
volver 1
extensión 1
menores 1
conquist@@ 1
Sol 1
vino 1
igu@@ 1
rango 1
paz 1
niveles 1
uro 1
noroeste 1
mostr@@ 1
vivir 1
forman 1
1@@ 1
Washington 0.6993888771731156
construyó 1
1936 0.9720971877191636
emb@@ 1
calles 1
Colegio 1
régimen 1
oposición 1
Asamblea 1
adamente 1
Española 1
ak@@ 0.41825639623958416
incluido 1
Austria 1
vec@@ 1
alizado 1
Tour 0.8787401171499059
decide 1
protección 1
separ@@ 1
hojas 1
ónimo 1
League 0.29626031089581234
ban@@ 1
parti@@ 1
Plata 1
premios 1
ón@@ 1
llama 1
H 0.8555390507224717
institución 1
Mar 1
inicialmente 1
estrella 1
aut@@ 1
iva 1
frecuencia 1
sim@@ 1
basada 1
cierto 1
D. 1
Arte 1
tadas 1
ruta 1
if@@ 0.9257258840685672
ecimiento 1
llegando 1
von 0.03068332911568345
amar@@ 1
ganado 1
alemana 1
Ecuador 1
rum@@ 1
acion 1
control@@ 1
Alejandro 1
Charles 0.5135533202599223
compositor 1
conten@@ 1
contenido 1
Pin@@ 1
hogar 1
producido 1
Mil@@ 1
Ju@@ 1
Mel@@ 1
firmó 1
til 1
clubes 1
1964 0.7598956453830638
có@@ 1
aviones 1
carga 1
apar@@ 1
operación 1
seg@@ 1
estadounidenses 1
clasific@@ 1
estrenó 1
ov 0.9609687085946286
figuras 1
ific@@ 1
sala 1
Derecho 1
acional 1
tero 1
au 0.05679101224497496
económico 1
45 0.8213003460125735
acab@@ 1
Ganó 1
Polonia 1
latinos 1
ríos 1
idioma 1
realiz@@ 1
ice 0.6005661342033801
íes 1
disputó 1
secretario 1
encontró 1
lido 1
edo 1
terreno 1
impuls@@ 1
desarrolló 1
formato 1
Cab@@ 1
sil@@ 1
médico 1
usar 1
ais@@ 1
Pl@@ 0.9690846733918563
onía 1
Os@@ 1
Sierra 1
agr@@ 1
vis@@ 1
elas 1
maestro 1
ler 0.3093426703061844
ascenso 1
1966 0.7696329893724105
eti@@ 1
ún 1
comandante 1
ah 0.609136049417107
eños 1
comerci@@ 1
Antes 1
Cultura 1
0@@ 0.9538341464495873
ram@@ 1
Har@@ 0.6837357658996847
Du@@ 1
necesidad 1
Junta 1
pens@@ 1
Categoría 1
visto 1
buen 1
iti@@ 1
competición 1
tratamiento 1
británica 1
tir 1
tora 1
Ella 1
habría 1
resistencia 1
Fundación 1
ancho 1
eció 1
seguir 1
alter@@ 1
instalaciones 1
suele 1
basado 1
Torneo 1
gl@@ 1
provincias 1
posibilidad 1
vivió 1
etos 1
Vol@@ 1
Tar@@ 1
iría 1
lados 1
entemente 1
similares 1
proporcion@@ 1
reina 1
Daniel 1
capit@@ 1
Cataluña 1
alt@@ 1
sta 1
sent@@ 1
tió 1
ades 1
queda 1
hechos 1
cional 1
Media 1
mezcla 1
Ana 1
aplicación 1
Thomas 0.541570245088843
Me@@ 0.6168986598921196
levant@@ 1
narr@@ 1
ender 1
críticas 1
intento 1
Isabel 1
detrás 1
mexicano 1
atura 1
ilio 1
Hor@@ 1
Sch@@ 0.25866296452096726
ania 1
convertirse 1
utilizar 1
1965 0.7386984085504937
limit@@ 1
vuelve 1
32 0.8809692404448595
ale 0.28728344456788085
vieron 1
señ@@ 1
recibe 1
K 0.6745242290856235
contacto 1
5@@ 0.766914480209977
tecnología 1
compuesta 1
ánico 1
interpretó 1
tida 1
Mundo 1
Bol@@ 1
acus@@ 1
1920 0.7790736783611214
Uno 1
marcha 1
ner 0.40054461179279977
Deportivo 1
instituciones 1
ak 0.5501238821158985
aplic@@ 1
colores 1
refle@@ 1
dispar@@ 1
carta 1
sir@@ 1
método 1
dist@@ 1
oria 1
ik@@ 0.46524511402523633
territorios 1
eda 1
Min@@ 0.9589012182929703
ion@@ 1
grafía 1
idor 1
suces@@ 1
F. 1
G 0.5848412795049244
reun@@ 1
barr@@ 1
Israel 1
ocup@@ 1
Mayor 1
cree 1
tra 1
yo 1
ístico 1
Hasta 1
endi@@ 1
Q@@ 0.68189192564952
Bas@@ 1
Cuba 1
humano 1
ter 0.21585823666763093
9@@ 0.9202642102991933
tido 1
metal 1
estaciones 1
aumento 1
arán 1
diferente 1
secre@@ 1
cambi@@ 1
pista 1
desarrollado 1
necesario 1
escuelas 1
sec@@ 1
Guillermo 1
pintor 1
poeta 1
solamente 1
Cámara 1
vuelo 1
ega 1
1962 0.768184320631218
debía 1
provoc@@ 1
don 1
Paz 1
posiciones 1
publicada 1
arquitecto 1
refer@@ 1
propios 1
dando 1
memoria 1
Mu@@ 1
Cap@@ 1
pot@@ 1
pidió 1
americana 1
capaz 1
carreras 1
Peter 0.6065659593460312
anz@@ 1
naturales 1
Andrés 1
periódico 1
décadas 1
niño 1
met@@ 1
denominado 1
1963 0.7576634645278008
parroquia 1
Guatemala 1
cic@@ 1
comun@@ 1
Berlín 1
lan@@ 1
1939 0.6972183533603135
Edad 1
Europeo 1
ost@@ 1
7@@ 0.7950730218920878
órdenes 1
Ren@@ 1
Facultad 1
300 0.9175355368956519
Sar@@ 1
comienzo 1
Revolución 1
convierte 1
ideas 1
CD 1
apa 1
bres 1
japonés 1
hispanos 1
avión 1
Ol@@ 1
Cada 1
anes 1
debutó 1
convoc@@ 1
Ángel 1
fund@@ 1
técnicas 1
ard 0.42275103322702234
gen 0.9959855057576993
príncipe 1
abor@@ 1
vin@@ 1
ayud@@ 1
difícil 1
complejo 1
tratado 1
Julio 1
coron@@ 1
6@@ 0.7816698192456476
construida 1
centros 1
Desarrollo 1
realizada 1
# 0.8684994882911656
nombr@@ 1
diputado 1
nave 1
¿ 1
comerciales 1
autor@@ 1
residiendo 1
ast@@ 1
palacio 1
pertenece 1
estudió 1
abandon@@ 1
puerta 1
anunci@@ 1
Nu@@ 1
Vicente 1
soci@@ 1
inicial 1
vincul@@ 1
endió 1
Sánchez 1
ambiente 1
Castillo 1
atribu@@ 1
aquí 1
ech@@ 1
alb@@ 1
2,@@ 1
ren@@ 0.6500391846205947
escal@@ 1
azul 1
gado 1
coc@@ 1
asign@@ 1
exposición 1
anim@@ 1
Asimismo 1
designado 1
enz@@ 1
Domingo 1
Fl@@ 0.8289824457680696
iciones 1
simplemente 1
alemanes 1
ger@@ 0.6778407123388218
je@@ 1
can 0.1610549036711374
activo 1
Mur@@ 1
anot@@ 1
Ramón 1
caracteriz@@ 1
conciertos 1
psic@@ 1
cambió 1
desp@@ 1
conseguir 1
católica 1
ava 1
directo 1
eco 1
resid@@ 1
populares 1
mont@@ 1
ofrece 1
habla 1
Corea 1
pie 1
ave 1
diendo 1
cas 1
Bolivia 1
dominio 1
acia 1
medallas 1
Music 0.5921446226096322
1958 0.7584254165966633
sello 1
destaca 1
Del@@ 1
bandas 1
endas 1
Cristo 1
ficación 1
ari 1
Allí 1
estatal 1
mac@@ 1
trabajadores 1
elos 1
mente 1
Otras 1
deportiva 1
científicamente 1
ónicas 1
olo 1
iv@@ 1
3.@@ 1
J. 0.8346817302814304
tab@@ 1
destacan 1
sen@@ 0.8988891302000346
teniendo 1
avanz@@ 1
Grande 1
pérdida 1
une 0.040590423304259056
identific@@ 1
altos 1
presidencia 1
alar@@ 1
pasando 1
considerada 1
Ag@@ 1
Naciones 1
ite 0.3786637934076181
pop 1
capilla 1
ubic@@ 1
ger 0.8059035144450676
No@@ 1
cámara 1
deportista 1
duque 1
células 1
Aragón 1
Ya 1
organizaciones 1
pag@@ 1
comunidades 1
berg 0.4742197164964282
poca 1
1944 0.5682366849938294
guar@@ 1
árabe 1
producir 1
dirig@@ 1
leyes 1
bosques 1
apertura 1
campos 1
decor@@ 1
actores 1
tam@@ 1
caída 1
interes@@ 1
completa 1
astr@@ 1
complet@@ 1
ori@@ 1
Pu@@ 1
indi@@ 1
experiment@@ 1
vió 1
Soviética 1
cuenca 1
din@@ 1
península 1
amplia 1
nacimiento 1
enseñ@@ 1
salió 1
recuper@@ 1
falleció 1
italiana 1
oportunidad 1
ma@@ 0.8780896771158503
Martin 0.6813823872286074
famoso 1
transform@@ 1
stas 1
estructuras 1
valores 1
hon@@ 1
1941 0.6080312621683798
estrellas 1
responsable 1
ac 0.8907387455227641
múltiples 1
papa 1
series 0.22427504522803293
flor@@ 1
ot 0.6268822107362025
movimientos 1
XVII 1
física 1
Is@@ 0.8479971132608466
americanos 1
bul@@ 1
golpe 1
hacía 1
direc@@ 1
1956 0.7248038508512858
hábitat 1
Banco 1
Richard 0.6534626977825524
lá@@ 1
cum@@ 1
1948 0.7027014709423836
entreg@@ 1
números 1
clave 1
1961 0.7261790890247966
argum@@ 1
histórica 1
indica 1
competencia 1
uales 1
err@@ 1
tan@@ 1
envi@@ 1
vecinos 1
eos 1
edor 1
oa 1
Poco 1
ético 1
mir@@ 1
cau@@ 1
oca 1
Algunas 1
diseñ@@ 1
aliza 1
Todos 1
vot@@ 1
Lin@@ 1
montaña 1
ocupó 1
refiere 1
Mir@@ 1
elli 1
Ci@@ 1
rep@@ 1
vers@@ 1
lar 1
agreg@@ 1
lit@@ 1
ancias 1
grabación 1
Bot@@ 1
Sub@@ 1
quiere 1
indígenas 1
br 0.6313465845992453
concierto 1
usado 1
dico 1
har@@ 0.6403722035546418
ensis 1
sabe 1
cursos 1
viaj@@ 1
técnico 1
Rom@@ 1
lenguas 1
dir@@ 1
vías 1
tismo 1
tesis 1
abierto 1
peces 1
dejar 1
ten 0.13207123391177006
humana 1
vic@@ 1
poner 1
pun@@ 1
lider@@ 1
concentr@@ 1
escala 1
formada 1
record@@ 1
Maria 0.8694753143193966
fica 1
escenario 1
señor 1
anzas 1
aus@@ 0.27702551747913534
bus@@ 1
concurso 1
escribir 1
ment@@ 1
contrario 1
ejecut@@ 1
sufrió 1
progres@@ 1
compitió 1
result@@ 1
cargos 1
sangre 1
guitarra 1
Justicia 1
aspecto 1
cad@@ 1
for 0.015578511509666812
ámbito 1
aliment@@ 1
ong 0.6200639334111452
ecta 1
aparecen 1
pic@@ 1
franceses 1
vive 1
culos 1
anía 1
cuarta 1
Isla 1
Victoria 1
Batalla 1
totalmente 1
dida 1
prisión 1
embar@@ 1
gol@@ 1
contribu@@ 1
Irlanda 1
permaneció 1
recibido 1
interpretación 1
400 0.8717915362636435
consiste 1
cula 1
busca 1
tes@@ 1
Mont@@ 1
expresión 1
medidas 1
Red 0.7873611355511762
código 1
utilizando 1
recién 1
by 0.017919016897444073
ord@@ 1
inv@@ 1
alizar 1
consecu@@ 1
Nuestra 1
Rica 1
anual 1
judíos 1
núcleo 1
proces@@ 1
Me 1
intención 1
puertas 1
declar@@ 1
tro@@ 1
enes 1
revel@@ 1
cias 1
noreste 1
Él 1
vel@@ 1
plano 1
tre 1
Pe@@ 0.840593319089998
Medi@@ 1
entren@@ 1
denominada 1
ás@@ 1
límite 1
industrial 1
Gómez 1
elev@@ 1
bil@@ 1
episodios 1
resultó 1
descubierto 1
mut@@ 1
1959 0.7186351401002437
adapt@@ 1
llamó 1
Premios 1
Ho@@ 0.8203700049172924
fe 1
rot@@ 1
desempeñó 1
electoral 1
ocasión 1
ataques 1
land 0.20162479146485088
You 0.7995749033235839
nor@@ 1
Gener@@ 1
condición 1
quit@@ 1
Dr. 0.9855518259162546
Avenida 1
funcion@@ 1
1957 0.7373489183653149
gar 1
podían 1
Islas 1
altas 1
expedición 1
fiesta 1
ológicas 1
Nació 1
ula 1
asociación 1
acer@@ 1
oz@@ 1
1955 0.759600061332441
propuesta 1
romano 1
cop@@ 1
Leg@@ 1
zar 1
plant@@ 1
burgo 1
33 0.9492118112096809
Granada 1
asiáticos 1
letras 1
culturales 1
pies 1
Park 0.38335423054823303
cruz@@ 1
encima 1
tado 1
1943 0.6129493580023815
identidad 1
participantes 1
piloto 1
Oro 1
seguido 1
origin@@ 1
dejando 1
Países 1
sexual 1
estudiar 1
Ricardo 1
comienzos 1
masa 1
Municipal 1
Egipto 1
‘ 0.9014986028536924
Suecia 1
public@@ 1
apoy@@ 1
asesinato 1
ili@@ 1
corto 1
marco 1
hidro@@ 1
textos 1
únicamente 1
1942 0.6111947170694272
bo 1
combin@@ 1
Región 1
cos@@ 1
em 0.4473483956607989
renov@@ 1
dios 1
bre 1
accidente 1
discos 1
encu@@ 1
Estación 1
didos 1
ble 1
urbano 1
invierno 1
Estudios 1
abajo 1
abogado 1
Alto 1
ordenó 1
doc@@ 1
mul@@ 1
ciendo 1
conf@@ 1
VI 1
escudo 1
recibir 1
adr@@ 1
enfer@@ 1
poblaciones 1
trabaj@@ 1
regional 1
amp@@ 1
demasiado 1
aument@@ 1
utilizan 1
reconocido 1
apenas 1
Ge@@ 0.5670981369742784
encontrado 1
Grecia 1
denominación 1
encontr@@ 1
Ru@@ 1
últimas 1
financi@@ 1
íos 1
ganador 1
erse 1
ferrocarril 1
Vil@@ 1
conoció 1
visita 1
ben@@ 1
Díaz 1
nav@@ 1
resp@@ 1
dot@@ 1
Pel@@ 1
públicas 1
00 1
Man 0.8206900735668802
He@@ 0.5571527698675063
cionales 1
nación 1
tivas 1
árboles 1
Str@@ 0.46637354547260607
res 1
emas 1
dev@@ 1
intent@@ 1
Atlético 1
micro@@ 1
ax@@ 1
argentina 1
Nor@@ 1
ere 0.564889166275714
salir 1
ciudadanos 1
ect@@ 1
mencion@@ 1
Mario 1
afroamericanos 1
Texas 0.7034200055529928
encabez@@ 1
especiales 1
rod@@ 1
Canal 1
vídeo 1
ho@@ 0.5421853234492777
1946 0.6282666571577752
anci@@ 1
autoridad 1
hospital 1
plataforma 1
Nicolás 1
labor 1
comunes 1
tis 1
entrar 1
iga 1
oría 1
natal 1
ville 0.24043131821162653
Economía 1
Social 1
arle 1
bandera 1
gió 1
femenino 1
cierta 1
ológicos 1
conc@@ 1
reconoc@@ 1
fér@@ 1
ces 0.37322470508024597
ayudar 1
1952 0.7079309694992353
exp@@ 1
Señora 1
fuertes 1
gas@@ 1
1949 0.6754355273487342
claro 1
estimada 1
Hospital 1
pir@@ 1
quinto 1
36 0.9091833037991102
involucr@@ 1
ago 1
igo 1
ahí 1
doce 1
coronel 1
Sistema 1
lenguaje 1
arco 1
baj@@ 1
sureste 1
describe 1
procesos 1
convertido 1
coleóptero 1
reemplaz@@ 1
Parlamento 1
Sa@@ 1
propias 1
só@@ 1
propiedades 1
destino 1
ican 1
religión 1
estándar 1
récord 1
ki 0.736564746818338
Mol@@ 1
lograr 1
lav@@ 1
letra 1
vehículos 1
atas 1
ko 0.8149513322759111
ides 0.6683633155196427
fun@@ 1
usando 1
directa 1
regular 0.922373335060034
juicio 1
activa 1
bra 1
Go@@ 0.7727479889409884
vig@@ 1
pasajeros 1
tador 1
flu@@ 1
Federico 1
som@@ 1
Ram@@ 1
1954 0.704956477415883
reclam@@ 1
jur@@ 1
bajas 1
moderna 1
públicos 1
romana 1
Fil@@ 1
cuadr@@ 1
reinado 1
pint@@ 1
Europea 1
transmi@@ 1
duc@@ 1
Ten@@ 1
he@@ 0.4517555175961843
búsqueda 1
34 0.9425646017438747
1938 0.6554370596066953
conquista 1
reunión 1
fusión 1
ificación 1
teniente 1
regres@@ 1
Suiza 1
ke 0.3749145885288808
1937 0.7298856424333333
violencia 1
protagonista 1
Superior 1
retiró 1
1947 0.6681029042301802
elabor@@ 1
Taxonomía 1
géneros 1
1953 0.723345557507113
luch@@ 1
catedral 1
ang 0.538571516950198
filosofía 1
tran@@ 1
Fer@@ 1
divi@@ 1
tradicionales 1
aspectos 1
equip@@ 1
Bajo 1
copias 1
encial 1
corazón 1
profesionales 1
ier@@ 1
hum@@ 1
suficiente 1
trabajando 1
viene 1
Trans@@ 1
mur@@ 1
ce@@ 1
du 0.023732717736865264
raíz 1
potencia 1
Serie 1
convirtiéndose 1
ible 1
tia 1
suelen 1
ventas 1
j 0.8482168579306057
ojos 1
mina 1
patr@@ 1
baloncesto 1
forz@@ 1
entorno 1
autom@@ 1
contó 1
may@@ 1
inicios 1
conclu@@ 1
ou 0.11145696966670086
Ministro 1
Love 0.9153351756812865
mantiene 1
acc@@ 1
categorías 1
diócesis 1
Roberto 1
Javier 1
compañeros 1
lev@@ 1
reforma 1
Rock 1
rit@@ 1
B. 0.5871300125491721
clásico 1
Chicago 0.6975962621854005
ono 1
presentan 1
endido 1
Compañía 1
Otro 1
relacionados 1
Cine 1
abrió 1
Fuerza 1
Organización 1
bre@@ 0.6096045472338727
aer@@ 1
álbumes 1
American 0.1308450905648759
ub@@ 1
amerindios 1
poesía 1
ens 0.2059223091875257
planeta 1
Fu@@ 1
desarroll@@ 1
ísticos 1
Florida 0.9123486502768473
bios 1
alm@@ 1
Zaragoza 1
ates 0.28777713490932766
corriente 1
zación 1
Sur@@ 1
documentos 1
fachada 1
cuerpos 1
Paraguay 1
ejas 1
nu@@ 1
materia 1
segundos 1
arlos 1
sosten@@ 1
establecer 1
distingu@@ 1
Bretaña 1
artes 1
invasión 1
deriv@@ 1
Occidental 1
Kar@@ 0.5268502456675677
elemento 1
Lee 0.8968335578973569
correc@@ 1
Existen 1
parlament@@ 1
desc@@ 1
enfrent@@ 1
nov@@ 1
Cel@@ 1
aquella 1
simple 1
envió 1
Sebastián 1
retir@@ 1
Henry 0.5611720426657884
tropical 1
volumen 1
allá 1
Fre@@ 0.6797822004281702
impacto 1
aja 1
civiles 1
agricultura 1
músico 1
po 1
im 0.03122586133265715
bosque 1
barco 1
ber 0.6009823210663983
secundaria 1
Música 1
montañas 1
75 0.9083620165170764
cuadro 1
suroeste 1
Rosario 1
familiar 1
promoción 1
recorrido 1
ces@@ 1
conect@@ 1
patri@@ 1
escenas 1
Sec@@ 1
Corte 1
latín 1
2022 0.6864610955472491
descrito 1
Frente 1
grabado 1
cambiar 1
llevado 1
Tom@@ 1
arque@@ 1
Comunidad 1
Pen@@ 1
localidades 1
restaur@@ 1
Super@@ 1
nac@@ 1
pieza 1
página 1
coordin@@ 1
sirvió 1
Mus@@ 0.7920570986596086
Ang@@ 0.9420489110130165
iso 1
ficción 1
corta 1
ond@@ 1
ve@@ 0.9509456327798953
quería 1
icios 1
char@@ 0.9104928478532125
Far@@ 1
alistas 1
duración 1
1931 0.8566351931025883
guerr@@ 1
disponible 1
evolución 1
Joseph 0.5224573680091557
At@@ 0.8881214193179493
historiador 1
Santos 1
mas 1
dig@@ 1
Smith 0.6688131989689898
mel@@ 0.9399418311811352
europeos 1
ensa 1
monasterio 1
expansión 1
desempeñ@@ 1
riesgo 1
muerto 1
ich@@ 0.7304588432283768
formes 1
oy@@ 1
College 0.27611269586187587
alg@@ 1
dedicó 1
dedicado 1
M. 0.8237091324240221
Ayuntamiento 1
Unidas 1
Sant@@ 1
formando 1
EE 1
fondos 1
seleccion@@ 1
impres@@ 1
ly 0.19437773980780265
prove@@ 1
destac@@ 1
multi@@ 1
J 0.8490675375043828
incluida 1
reci@@ 1
aeropuerto 1
1933 0.6692902481969897
Moscú 1
Tres 1
cola 1
residencia 1
consum@@ 1
Bajos 1
privada 1
chino 1
editorial 1
ster 0.7140439304004615
diseñado 1
úr@@ 1
mexicana 1
ám@@ 1
conocidas 1
int@@ 0.9893293312769978
ís 1
reales 1
Fe 1
egas 1
pico 1
bombar@@ 1
adero 1
prefer@@ 1
esqu@@ 1
oh@@ 0.9778738157353943
federal 1
sub 1
Participó 1
Ay@@ 1
emente 1
Muchos 1
into 0.0904097449582158
isl@@ 1
oles 1
contexto 1
ecas 1
decreto 1
aleg@@ 1
redes 1
piano 1
voc@@ 1
ont@@ 1
árbol 1
habl@@ 1
Hi@@ 1
Carmen 1
implic@@ 1
XIII 1
Torre 1
lic@@ 1
38 0.9011473677083048
S. 0.9505767877488133
normalmente 1
iste 0.5632299558315764
usuarios 1
celebró 1
terminar 1
ene 0.3791794364472438
alizada 1
ans@@ 0.9633477945010809
Ir@@ 1
enda 1
llevaron 1
entas 1
Cuenta 1
crítico 1
haya 1
aur@@ 1
cubierta 1
entrevista 1
explor@@ 1
zos 1
w 0.4533614897683798
Res@@ 1
ou@@ 0.3376221016700417
ulación 1
incluyó 1
Nov@@ 1
juntos 1
arro@@ 1
recur@@ 1
presentación 1
Panamá 1
CO@@ 1
traduc@@ 1
chi@@ 1
nombró 1
Rosa 1
desarrollar 1
hel@@ 1
utilizó 1
Junto 1
diferencias 1
pion@@ 1
ís@@ 1
Bl@@ 0.6361959501854892
sor@@ 0.9600003804831763
isiones 1
particularmente 1
deja 1
uros 1
Inf@@ 1
Loc@@ 1
británicos 1
eléctrica 1
comarca 1
mandato 1
presentado 1
planes 1
udo 1
IN@@ 1
itación 1
marcó 1
captur@@ 1
antiguas 1
tin@@ 1
lad@@ 1
Otra 1
deci@@ 1
once 0.5702586888589399
dientes 1
Seg@@ 1
arm@@ 1
65 0.6524850723627716
ubicación 1
Char@@ 0.7054260807117404
ade 0.48541650910863093
1934 0.7328527744986241
dedicada 1
ándole 1
org@@ 1
pertenecían 1
grab@@ 1
logra 1
dura 1
pocas 1
enses 1
1951 0.6956918974860555
reacción 1
llamados 1
erías 1
ajo 1
dedic@@ 1
incluía 1
fon@@ 1
Castro 1
objetivos 1
sustitu@@ 1
artístico 1
trono 1
Monte 1
publicaciones 1
actuales 1
practic@@ 1
Ing@@ 1
¡ 1
festival 1
relativamente 1
historias 1
representante 1
producida 1
tramo 1
bl@@ 0.34846575399718593
4.@@ 1
eri@@ 1
tabla 1
pobreza 1
entidad 1
red@@ 1
ectos 1
ocupa 1
corresponde 1
sol 1
uma 1
ore 0.5270986558091107
consumo 1
flota 1
activos 1
ng@@ 1
bar 0.6486581950430995
breve 1
religiosa 1
cercano 1
ge 0.3749666191517965
blanca 1
tec@@ 1
derrot@@ 1
entales 1
bles 1
originales 1
transmisión 1
Oriental 1
revolución 1
homenaje 1
miento 1
externos 1
músicos 1
fa 1
Administración 1
popularidad 1
quer@@ 1
espacios 1
destacar 1
comparti@@ 1
onales 1
Mejor 1
Sp@@ 0.5014787862767975
itar 1
provincial 1
propósito 1
razones 1
poderes 1
difun@@ 1
investigaciones 1
Mes@@ 1
icidad 1
Gor@@ 1
rol 1
prob@@ 1
científico 1
constante 1
Sin@@ 1
protagonizada 1
dil@@ 1
comedia 1
ándolo 1
mix@@ 1
ciclo 1
históricos 1
mañana 1
aproxim@@ 1
límites 1
ilustr@@ 1
precio 1
sup@@ 1
1935 0.7019669082700328
bienes 1
motivos 1
ocupación 1
puestas 1
trac@@ 1
film@@ 1
característica 1
bir@@ 1
St 0.5799511981511175
ual 1
óg@@ 1
cabecera 1
sali@@ 1
estad@@ 1
hem@@ 1
muestran 1
figur@@ 1
cir 1
arreg@@ 1
cia 1
compañero 1
líderes 1
uni@@ 1
chil@@ 1
ans 0.13024033191042383
School 0.18114287892095712
qued@@ 1
registro 1
sindic@@ 1
lí@@ 1
marido 1
EP 1
enos 1
1929 0.7189433500771967
conservación 1
All 0.31244735125330925
críticos 1
la@@ 0.9118792712949995
adaptación 1
muertos 1
visit@@ 1
enviado 1
ediciones 1
opinión 1
Ul@@ 1
cientos 1
afirmó 1
podrían 1
formaron 1
revistas 1
abandonó 1
1932 0.7539408158405678
diámetro 1
Ó@@ 1
úa 1
far@@ 1
42 0.9463736571141605
sen 0.46068367229842483
mejorar 1
ph@@ 0.31369505175969825
deber@@ 1
chileno 1
Nav@@ 1
jar 1
Tro@@ 1
comand@@ 1
motores 1
Ali@@ 1
entrega 1
ick 0.5930374582079001
usión 1
tren 1
moderno 1
encarg@@ 1
aí@@ 1
document@@ 1
fábrica 1
misiones 1
identes 1
porte 1
quedando 1
zar@@ 1
femenina 1
1918 0.5904344380508986
quién 1
tron@@ 1
elec@@ 1
cuyos 1
europeo 1
guard@@ 1
machos 1
VII 1
q@@ 0.8853719735958466
regresar 1
utilizada 1
const@@ 1
bases 1
Dr@@ 0.6588848352198096
Tribunal 1
estre 1
Lar@@ 1
barcos 1
desaparec@@ 1
Defensa 1
To@@ 0.8432409282158512
dinastía 1
instrumentos 1
éste 1
verse 1
Centr@@ 1
inal 1
Toledo 1
Billboard 1
consul@@ 1
naval 1
obteniendo 1
notable 1
Ob@@ 1
digital 1
mag@@ 1
iller@@ 1
oni 1
víctimas 1
sectores 1
ices 1
Dec@@ 0.9927410850712163
venc@@ 1
añadi@@ 1
Plan@@ 1
Armada 1
elenco 1
Kr@@ 0.5375774386876214
consagr@@ 1
allas 1
Marina 1
inmediatamente 1
gir@@ 1
rá@@ 1
comportamiento 1
ingeniero 1
métodos 1
conserva 1
tienda 1
áng@@ 1
ém@@ 1
Estudió 1
Ban@@ 0.847125142158143
frag@@ 1
.. 1
ecu@@ 1
rápido 1
Tel@@ 1
ri 1
corona 1
establecido 1
César 1
64 0.7571202670111821
audiencia 1
afirma 1
Biblioteca 1
Oriente 1
avi@@ 1
Catedral 1
ple@@ 0.9567143181139033
prácticamente 1
oral 1
fan@@ 1
emiti@@ 1
óst@@ 1
aport@@ 1
contrat@@ 1
all 0.08016697772379941
victorias 1
37 0.8952011727974392
bel@@ 0.8200423035191501
Navarra 1
artística 1
mismas 1
recib@@ 1
provocó 1
apreci@@ 1
cir@@ 1
inferiores 1
Bélgica 1
ticamente 1
1928 0.6916190908534497
olí@@ 1
Aeropuerto 1
documental 1
atrás 1
neur@@ 1
realizaron 1
siguen 1
veinte 1
pinturas 1
ty 0.308780606702764
siguiendo 1
poli@@ 1
hierro 1
Hab@@ 1
superiores 1
pil@@ 1
profundidad 1
ingreso 1
Royal 0.37921623923810593
Louis 0.4118679701903098
fu@@ 1
informe 1
chi 0.6851497824786478
les@@ 1
orient@@ 1
Il@@ 1
msnm 1
genes 1
increm@@ 1
Primer 1
Campo 1
rem@@ 1
escri@@ 1
señal 1
aldo 1
Aut@@ 1
fe@@ 0.5939935886875028
omo 1
pantalla 1
Bon@@ 1
científicos 1
Tam@@ 1
tasa 1
espectadores 1
Franco 1
Gabriel 1
National 0.14244233162454867
alej@@ 1
usos 1
Lorenzo 1
mec@@ 1
acta 1
ría 1
excepción 1
Ba@@ 1
ieren 0.9992452788842536
intentó 1
cron@@ 1
habitual 1
diplom@@ 1
mant@@ 1
destacado 1
logr@@ 1
química 1
Barr@@ 1
alimentos 1
cultivo 1
diferenci@@ 1
descar@@ 1
caron 1
someti@@ 1
design@@ 1
Tratado 1
compañías 1
apun@@ 1
ton@@ 1
enseñanza 1
azar 1
demanda 1
excepto 1
dol@@ 1
ben 0.7198228928091797
mejor@@ 1
55 0.9222654617775193
tráfico 1
investig@@ 1
empate 1
48 0.8954313532703364
ciertos 1
Movimiento 1
Pap@@ 1
noticias 1
monumento 1
mos@@ 1
histori@@ 1
Internet 1
ógrafo 1
escritos 1
rosa 1
1000 1
viviendas 1
ingresó 1
actuaciones 1
grados 1
* 0.19705095723052088
presentes 1
norte@@ 1
deleg@@ 1
ey@@ 1
distritos 1
justo 1
úan 1
ich 0.5699098604124364
edió 1
Cultural 1
amplio 1
Joaquín 1
él@@ 1
ani@@ 1
serían 1
software 1
que@@ 1
program@@ 1
trayectoria 1
XV 1
orqu@@ 1
King 0.36137082406166027
transport@@ 1
Carolina 0.8774272465389586
otorg@@ 1
legal 0.9156560403704173
caza 1
pone 1
May@@ 1
factores 1
miles 1
adquir@@ 1
entó 1
hid@@ 1
alizó 1
consolid@@ 1
negocios 1
Doctor 1
permanente 1
empleo 1
1914 0.6648616572908597
eado 1
ü@@ 0.7377563050065427
deportivo 1
graduó 1
jardín 1
Condado 1
proviene 1
piel 1
cita 1
símbolo 1
isti@@ 1
finalizó 1
ford 0.45210314341768726
titulada 1
acces@@ 1
treinta 1
uela 1
termina 1
Black 0.5466926370656092
alidades 1
edia 1
amor@@ 1
mem@@ 1
West 0.2418024298038993
ceremonia 1
repar@@ 1
cal 1
finaliz@@ 1
Ca@@ 1
justicia 1
batería 1
ofrec@@ 1
ejos 1
vil@@ 1
legisl@@ 1
conver@@ 1
Pon@@ 1
confi@@ 1
éxitos 1
Mos@@ 1
guion 1
desaf@@ 1
44 0.7851606029290267
Hol@@ 0.6066825703906246
orado 1
estreno 1
bió 1
posiblemente 1
éc@@ 1
Bellas 1
XII 1
altar 1
1919 0.6023632624330832
ane 0.451343370645599
ópera 1
Militar 1
Pat@@ 1
interna 1
itaria 1
consta 1
escap@@ 1
describió 1
encontraban 1
eh@@ 0.38793247458086655
forme 0.6231569182018806
familiares 1
Bat@@ 1
solar 1
clar@@ 1
íp@@ 1
cumplir 1
global 1
culto 1
Sam@@ 0.797112124483739
Hungría 1
realmente 1
asumió 1
fich@@ 1
anda 1
Viena 1
monte 1
ā@@ 0.6782267982405067
accion@@ 1
52 0.9925264786165843
irá 1
lat@@ 0.9582906190157603
intervención 1
Ignacio 1
Tre@@ 0.9443017462624315
sitios 1
ubica 1
Street 0.35121599136019277
dica 1
Salud 1
enemigo 1
informó 1
Bus@@ 1
funcionamiento 1
uz@@ 1
escritura 1
camp@@ 1
yen 1
viven 1
Fin@@ 1
ampliamente 1
eje 1
yó 1
orquesta 1
1910 0.7742659704026241
aces 1
3,@@ 1
disputa 1
obten@@ 1
neo 1
abandonar 1
Gi@@ 0.807684752173369
pronunci@@ 1
ectiv@@ 1
W 0.6300401301147165
ai@@ 1
Televisión 1
municipales 1
mann 0.40093419582159323
pant@@ 1
Luna 1
intereses 1
Concepción 1
peligro 1
1924 0.6913242640622677
recientemente 1
portes 1
fiestas 1
E. 0.9039904680417115
ros 1
denunci@@ 1
colonia 1
efic@@ 1
participaron 1
llegado 1
1917 0.6595811400557107
consejo 1
extranjero 1
primavera 1
utiliz@@ 1
acept@@ 1
representantes 1
Ha@@ 0.8739829963462843
Esc@@ 1
japonesa 1
documento 1
entar 1
Prot@@ 1
Cru@@ 1
perman@@ 1
Dentro 1
comunic@@ 1
pá@@ 1
Luc@@ 1
Habita 1
osis 1
onda 1
eter@@ 1
sean 1
arriba 1
deriva 1
ácido 1
buscar 1
basa 1
continuar 1
poblado 1
Tercera 1
ólogos 1
poder@@ 1
evidencia 1
iente 1
posibles 1
Noruega 1
Rico 1
ganando 1
ys 0.594557407984078
ō 0.9826992705736362
ron@@ 1
Católica 1
biblioteca 1
39 0.9275822865019913
ivos 1
ski 0.7910203364094615
Sobre 1
fl@@ 0.37915490871088564
agente 1
Tomás 1
Comenzó 1
export@@ 1
NBA 1
ariamente 1
oci@@ 1
Atlántico 1
retirada 1
fama 1
International 0.2373747864846603
Reyes 1
cristianos 1
pueda 1
onte 1
Senado 1
Agustín 1
gradu@@ 1
uch@@ 1
viendo 1
órica 1
debió 1
otr@@ 1
canales 1
etapas 1
alcanz@@ 1
organizado 1
asegur@@ 1
Dor@@ 1
Jack 0.8681110234214973
actuó 1
dulce 1
dictadura 1
iniciativa 1
permanec@@ 1
tiles 1
nia 1
incluidos 1
acos 1
vehículo 1
escol@@ 1
momentos 1
medicina 1
proteg@@ 1
exig@@ 1
sion@@ 1
R. 0.9634263570202467
clásica 1
orios 1
componentes 1
omas 1
terrenos 1
empleados 1
edades 1
ños 1
Company 0.3930507056477606
enciales 1
dea 1
cápita 1
esfuerzos 1
individual 0.7951154266104248
1925 0.7009319411561982
programación 1
calific@@ 1
ángulo 1
CE@@ 1
solución 1
triunfo 1
enfrentó 1
rea 1
à 0.013087816816333975
papeles 1
ónicos 1
deo 1
tit@@ 1
reciente 1
demostr@@ 1
ette 0.3699262573523131
acabó 1
mot@@ 0.8495731999530441
aceae 1
gráfico 1
cercana 1
Ruta 1
asesinado 1
odi@@ 1
sorpr@@ 1
inspir@@ 1
str@@ 0.2856768687326236
Má@@ 1
establece 1
Torres 1
enfermedades 1
jugando 1
eja 1
1927 0.6918982151889844
Mé@@ 1
proclam@@ 1
Montevideo 1
quil@@ 1
negra 1
enso 1
Gen@@ 0.6228336504670929
Do@@ 0.7717552871456989
añas 1
Seguridad 1
finalizar 1
sus@@ 1
Bogotá 1
convento 1
terror@@ 1
colectiv@@ 1
Ucrania 1
alianza 1
dar@@ 1
li 0.7030922846526038
abierta 1
DVD 1
egr@@ 1
trabaja 1
científica 1
ñas 1
óm@@ 1
pide 1
normal 1
izado 1
sirve 1
cosa 1
reserva 1
Escocia 1
itario 1
ísticas 1
deporte 1
continente 1
ép@@ 1
fera 1
cancel@@ 1
margen 1
istió 1
ástica 1
recopil@@ 1
saber 1
Mis@@ 1
plante@@ 1
atraves@@ 1
órgano 1
europea 1
uer@@ 1
core@@ 1
iano 1
guitarrista 1
Dest@@ 1
ace 0.8234855264160295
Álvarez 1
daños 1
Mendoza 1
ug@@ 0.8896091379681089
ución 1
tendencia 1
atus 1
1912 0.6963979337566549
conden@@ 1
Super 0.7687808775668884
golpe@@ 1
Sub 1
novelas 1
isleños 1
ído 1
extranjeros 1
cán@@ 1
idores 1
1922 0.6814844886086184
proy@@ 1
rural 0.9432436662084817
celebra 1
afirm@@ 1
individuos 1
person@@ 1
ciertas 1
Im@@ 0.6324943667134822
import@@ 1
juez 1
recomend@@ 1
fundamental 1
infantil 1
Vel@@ 1
carne 1
correspondiente 1
delante 1
tig@@ 1
san 1
coment@@ 1
inglesa 1
Ven@@ 1
ejecución 1
deb@@ 1
Medio 1
Tal@@ 1
amarillo 1
firm@@ 1
ejemplos 1
colegio 1
pasaron 1
perder 1
undo 1
religioso 1
Andalucía 1
icia 1
mostró 1
hacerse 1
estructur@@ 1
41 0.9157755298409802
inicia 1
P. 0.9605252031424961
Argumento 1
car 0.3353458340840056
comisión 1
rama 1
Edi@@ 1
crea 1
definición 1
ocu@@ 1
divide 1
Independencia 1
declarado 1
editor 1
alcal@@ 1
Cant@@ 1
artes@@ 1
600 0.9488782578480314
piso 1
repeti@@ 1
invit@@ 1
1926 0.6633517127670967
5.@@ 1
estu@@ 1
los@@ 1
nes 0.9619759995667846
tiv@@ 1
Mary 0.5359924093903281
cartas 1
alar 1
Sil@@ 1
patrocin@@ 1
significado 1
diciendo 1
obr@@ 1
insecto 1
43 0.9508032854436356
leyenda 1
confirmó 1
iden 1
Servicio 1
Cos@@ 1
secu@@ 1
Sim@@ 1
ases@@ 1
enf@@ 0.9140440121217062
descubrió 1
Star 0.6631549784363422
ust@@ 1
romanos 1
aplicaciones 1
perdido 1
Ko@@ 0.6104294512687245
alumnos 1
critic@@ 1
Jug@@ 1
Deb@@ 1
n.º 1
cero 1
comput@@ 1
Mari@@ 0.9726095857119463
requer@@ 1
actuar 1
pelig@@ 1
alas 1
1923 0.6889268367751549
Galicia 1
hablar 1
yendo 1
conexión 1
Nar@@ 1
ejo 1
field 0.2261200308857453
Lí@@ 1
Cir@@ 1
País 1
regul@@ 1
innov@@ 1
Lista 1
ocur@@ 1
ial 1
extiende 1
eri 1
ek 0.5508652641329036
empres@@ 1
ent 0.08143223690336304
Zelanda 1
id 0.4498963925392887
desarrolla 1
sufr@@ 1
totalidad 1
fechas 1
Alonso 1
Cul@@ 1
enorme 1
mucha 1
amenaz@@ 1
estat@@ 1
grabó 1
alia 1
azado 1
Director 1
afir@@ 1
porta 1
espectáculo 1
áb@@ 1
establecimiento 1
elle 0.08817805903239512
logrando 1
encuentros 1
agrup@@ 1
ambi@@ 1
concentración 1
iglesias 1
Jaime 1
encargado 1
ear 1
posesión 1
efectu@@ 1
presentar 1
Sen@@ 1
tap@@ 1
Cop@@ 1
Tu@@ 1
infancia 1
rendimiento 1
800 0.9479305007000366
150 0.8589676336624993
estro 1
yente 1
portada 1
Sudáfrica 1
particip@@ 1
th 0.18939733746452808
tratar 1
Brown 0.7311656196778585
endr@@ 1
asuntos 1
sacerdote 1
reo 1
probable 1
negocio 1
resolución 1
ficado 1
enemigos 1
pacientes 1
absoluta 1
show 0.2438149772695853
adultos 1
económicos 1
expan@@ 1
Tol@@ 1
eli@@ 1
hielo 1
asoci@@ 1
Bre@@ 0.614750107455826
roc@@ 1
Dem@@ 1
caz@@ 1
47 0.9228685004273267
Ap@@ 0.820355854841053
Hom@@ 1
sitúa 1
apr@@ 1
organizó 1
osamente 1
ví@@ 1
Alianza 1
Van 0.8937702468354042
Oeste 1
ausencia 1
grave 1
ras 1
mentos 1
gráfica 1
columnas 1
oj@@ 1
cáncer 1
Investigación 1
Not@@ 0.9019043200419896
económicas 1
• 1
representan 1
reco@@ 1
lab@@ 1
animal 1
arri@@ 1
allo 1
acho 1
Jur@@ 1
cuestión 1
Negro 1
Í@@ 1
lec@@ 1
urban@@ 1
regionales 1
tim@@ 0.8086969971254867
eciendo 1
necesit@@ 1
1900 0.6910899852614987
Todo 1
predomin@@ 1
anex@@ 1
arma 1
sar@@ 1
Oc@@ 1
resulta 1
divisiones 1
intenta 1
ánea 1
otas 1
agü@@ 1
participado 1
continúa 1
ográfica 1
Hoy 1
alla 1
menciona 1
Regional 1
adquirió 1
pez 1
natur@@ 1
llevan 1
ale@@ 1
cionalmente 1
graf@@ 1
universidades 1
ús 1
vali@@ 1
edores 1
físico 1
rode@@ 1
jó 1
Aer@@ 1
religiosas 1
institu@@ 1
comparación 1
Miss 1
constituye 1
estuvieron 1
utilizados 1
ciencias 1
unirse 1
temprana 1
dispon@@ 1
oscuro 1
Pierre 0.515881381451529
foc@@ 1
pensamiento 1
celebración 1
liter@@ 1
elo@@ 1
austr@@ 1
tex@@ 1
presidencial 1
hered@@ 1
arg@@ 1
aun 1
incur@@ 1
Reina 1
encontraron 1
Si@@ 0.891942807072575
Pir@@ 1
rar 1
dada 1
Direc@@ 1
complic@@ 1
ecido 1
oficinas 1
Alrededor 1
Hugo 1
oides 1
naveg@@ 1
ons@@ 0.7557216348468248
organismos 1
sexo 1
secreto 1
Enlaces 1
tocar 1
ejemplares 1
Honduras 1
are 0.0278039747115159
fusion@@ 1
cayó 1
playa 1
coalición 1
deos 1
consideran 1
esfuerzo 1
Caracas 1
aldea 1
reduc@@ 1
rí@@ 1
1921 0.6431914575328056
borde 1
ador@@ 1
ólico 1
ker 0.3634722386698209
fel@@ 1
rech@@ 1
onio 1
lejos 1
My 0.7882299920608732
efectiv@@ 1
acha 1
46 0.9162923960669053
alizados 1
dom@@ 1
desplaz@@ 1
individuales 1
51 0.9384326434973363
espera 1
plazo 1
rusa 1
verdadero 1
famosa 1
riqu@@ 1
Socialista 1
Tab@@ 1
XIV 1
denomina 1
capítulo 1
Asturias 1
Relaciones 1
Línea 1
destacados 1
fabricación 1
rebotes 1
ciales 1
log@@ 0.8505982565364325
judicial 1
renta 1
DC 1
comida 1
Fuerzas 1
Ambos 1
Dinamarca 1
debut@@ 1
rac@@ 0.9289870951992331
UN@@ 1
Jun@@ 1
Aérea 1
combinación 1
enterr@@ 1
difusión 1
realización 1
quinta 1
completar 1
griega 1
ocurrió 1
icias 1
afric@@ 1
viajó 1
Dur@@ 1
tercero 1
aturas 1
minuto 1
contar 1
Gir@@ 1
derrotó 1
negoci@@ 1
pec@@ 1
licenci@@ 1
Agu@@ 1
Estr@@ 1
Riv@@ 1
viento 1
eleg@@ 1
duró 1
Vic@@ 1
laterales 1
opción 1
Gran@@ 1
existentes 1
Política 1
sonora 1
bon@@ 1
Lor@@ 1
atl@@ 1
amenaza 1
Turquía 1
cripción 1
ester@@ 1
Guardia 1
ts 0.11193279689348003
Málaga 1
Patrimonio 1
mod@@ 0.9576661186357389
transfer@@ 1
lob@@ 1
realizan 1
avance 1
Caribe 1
cultiv@@ 1
United 0.09103249315355794
viajes 1
culp@@ 1
Sud@@ 1
destrucción 1
barrios 1
dañ@@ 1
Latina 1
disposición 1
eliminar 1
empr@@ 1
previamente 1
ventaja 1
acumul@@ 1
discurso 1
caracteriza 1
trop@@ 1
bahía 1
ocupado 1
integrantes 1
afili@@ 1
Frank 0.7215460046688347
determinar 1
diputados 1
quem@@ 1
sencillos 1
audi@@ 1
territorial 1
seres 1
ántica 1
menes 1
otes 1
presidi@@ 1
amo 1
Víctor 1
cent@@ 1
Mark 0.5944214116505231
estudiante 1
ezas 1
Tom 0.8195366345526102
Jones 0.7166140425237256
São 1
atorias 1
voto 1
ligeramente 1
Prim@@ 1
ele 0.9010802763327035
potencial 1
incorporó 1
cial 1
aprobación 1
data 0.5877065307702382
fus@@ 1
Obras 1
Blanca 1
ons 0.15335522236297996
fotografía 1
imperio 1
Cuerpo 1
usan 1
exclusivamente 1
sal 1
fortaleza 1
nó 0.8524380625749398
recuperar 1
ejecutivo 1
fom@@ 1
presa 1
religiosos 1
manifest@@ 1
Ke@@ 0.6619912887494488
ven 1
lidos 1
directora 1
eder@@ 1
ati 0.8541315112860849
lograron 1
ui@@ 1
Antecedentes 1
entrenamiento 1
chos 1
cuid@@ 1
compra 1
libr@@ 1
Marcos 1
pier@@ 1
restauración 1
acor@@ 1
llamadas 1
Rob@@ 1
tu 1
rez 1
gru@@ 1
Red@@ 0.7724545998512795
Fund@@ 1
mic@@ 1
aumentar 1
exces@@ 1
art 0.21372466360912348
empieza 1
reducir 1
Marco 1
ográficos 1
Pueblo 1
escultura 1
espacial 1
85 0.9998710410333309
corpor@@ 1
entado 1
oficina 1
One 0.2529828331743089
pago 1
disponibles 1
Mah@@ 0.7440655568713735
explic@@ 1
dese@@ 1
ibilidad 1
maron 1
Fun@@ 1
pap@@ 1
quedaron 1
lanzada 1
ésta 1
asesin@@ 1
ós 1
vit@@ 1
aver@@ 1
esposo 1
Jo@@ 0.8564987368633792
Autónoma 1
suj@@ 1
descubrimiento 1
fenómeno 1
habilidades 1
uca 1
paral@@ 1
conmemor@@ 1
partida 1
comúnmente 1
Nación 1
uto 1
Provincial 1
organismo 1
aw@@ 0.42628993063418547
rig@@ 1
49 0.9008030172746635
viejo 1
culmin@@ 1
estratég@@ 1
Vir@@ 1
pas 0.1351146547525296
escritores 1
permiten 1
aprovech@@ 1
tarea 1
bras 1
filas 1
juventud 1
administrativa 1
ocul@@ 1
Georgia 0.8755490707781363
zó 1
agrad@@ 1
consigue 1
20@@ 0.788793290559621
orilla 1
personales 1
éticas 1
derrotado 1
Cic@@ 1
gia 0.4326084124314723
integrado 1
och@@ 0.9043433492425745
moda 1
1913 0.6844828273869646
etti 0.9781293918823422
convers@@ 1
Alta 1
Ruiz 1
minas 1
Sel@@ 0.8207009015459077
privado 1
océano 1
relacionadas 1
didas 1
instalación 1
sp@@ 0.2114401651645646
Valladolid 1
participa 1
izar 1
independientes 1
istán 1
tropicales 1
consideró 1
uf@@ 1
traducción 1
Grand 0.3144426216936864
definitivamente 1
masculino 1
tendría 1
tarse 1
trenes 1
verdad 1
competi@@ 1
Hernández 1
sa@@ 0.7452267659011396
US 0.15494994945361548
95 0.976642454510091
opu@@ 1
S.@@ 1
reyes 1
Mot@@ 1
cuartos 1
columna 1
solitario 1
ult@@ 1
kh@@ 0.3846203936309672
urbana 1
Rus@@ 1
fácil 1
Dirección 1
Sor@@ 1
gobiernos 1
Scott 0.7887531367634331
Jackson 0.8832182732765669
invitado 1
moder@@ 1
descenso 1
caballo 1
Chil@@ 1
prácticas 1
Don@@ 0.9164186772837681
abil@@ 1
ach 0.3478807318381036
publica 1
interpretado 1
semifinales 1
licencia 1
ip@@ 1
roca 1
usuario 1
aliados 1
baile 1
declaración 1
podemos 1
ei 0.54860829071044
Paulo 1
ame 0.8560095292319599
descripción 1
otom@@ 1
uco 1
CA@@ 1
fen@@ 1
imagin@@ 1
Teresa 1
capa 1
elegida 1
L. 0.9564762804056127
ji 0.8459252468504217
Wil@@ 0.6189289912810075
emitió 1
pedi@@ 1
neces@@ 1
patrimonio 1
mide 1
enario 1
La@@ 0.7583992721605831
Pública 1
off 0.17465479590968655
corr@@ 1
Día 1
pudieron 1
color@@ 1
aud@@ 1
prolong@@ 1
vicepresidente 1
obtiene 1
conv@@ 1
evo 1
buque 1
ejerc@@ 1
gio 1
uo 1
rival 1
egip@@ 1
Flor@@ 1
Disney 1
medieval 1
coche 1
constitución 1
propuso 1
sucesor 1
explotación 1
poemas 1
recor@@ 1
motiv@@ 1
rico 1
Virginia 0.5453083849114994
realizadas 1
Primeros 1
invent@@ 1
videojuego 1
Hur@@ 1
ramas 1
castellano 1
Williams 0.7198851820143921
aprove@@ 1
sexto 1
cruz 1
agentes 1
Solo 1
odo 1
ole 0.5398246923476382
cinta 1
mantenimiento 1
aso 1
ern@@ 0.5805786462736283
Hal@@ 0.7090811832694658
ái 1
oscur@@ 1
excep@@ 1
post@@ 0.7641070627525708
antec@@ 1
Soci@@ 1
XI 1
Filipinas 1
Lic@@ 1
quilla 1
pros@@ 1
pan 1
prohib@@ 1
ori 1
Baja 1
Big 0.6197145669979379
fantas@@ 1
dimensiones 1
ivamente 1
ante@@ 1
Flores 1
AN@@ 1
Times 0.60947251756739
separación 1
seguidores 1
pelea 1
suma 1
anotó 1
mudó 1
AS@@ 0.8099359392882463
conform@@ 1
edra 1
introducción 1
circuito 1
SE@@ 1
requiere 1
negó 1
Jac@@ 1
Entertainment 1
top@@ 1
relacionado 1
pistas 1
eria 1
Cerro 1
otorgó 1
vención 1
deseo 1
reos 1
supl@@ 1
recientes 1
conferencia 1
pasos 1
conoc@@ 1
Hacia 1
portugués 1
responsabilidad 1
asociado 1
asistencia 1
rechaz@@ 1
ova 1
rob@@ 1
proteger 1
amistad 1
Elecciones 1
usi@@ 1
Tuvo 1
Plan 1
Tokio 1
Blanco 1
up@@ 0.400844359736548
ól@@ 1
investigadores 1
Corona 1
hacerlo 1
lim@@ 1
umb@@ 1
doctor 1
oamérica 1
Falleció 1
cierre 1
56 0.9579590351110032
cerr@@ 1
destacó 1
disputar 1
report@@ 1
mus@@ 0.7930654947080025
Ed@@ 1
adap@@ 1
incap@@ 1
hac@@ 1
ocurre 1
Guadalajara 1
actitud 1
oferta 1
inn@@ 0.8025225826711433
fico 1
egu@@ 1
ision@@ 1
ical 0.21841762882957913
diver@@ 1
anal@@ 1
hal@@ 0.5855163936177865
AR@@ 1
ile 0.19505462681319122
orígenes 1
debil@@ 1
buques 1
empresario 1
inauguró 1
1911 0.6940924230989748
reas 1
Moreno 1
detalles 1
estrenada 1
ayudó 1
pre 0.7676478242456806
Lam@@ 1
imperial 1
descubre 1
pará@@ 1
china 1
curs@@ 1
age 0.0773536664515249
euros 1
gencia 1
ivas 1
órbita 1
combustible 1
gan 1
escapar 1
aloj@@ 1
delantero 1
pesc@@ 1
pri@@ 1
instrumento 1
54 0.9294725731484704
Med@@ 1
Estatal 1
funcionarios 1
deportes 1
1916 0.7003504176725256
descri@@ 1
esor 1
ango 1
Escu@@ 1
ES@@ 1
fo 1
hubiera 1
did@@ 1
frecuentemente 1
vid@@ 1
6.@@ 1
Z 0.6854667012601692
Actu@@ 1
mam@@ 1
Bolívar 1
canadiense 1
espíritu 1
vá@@ 1
dificultades 1
izo 1
rar@@ 1
necesidades 1
alcance 1
bieron 1
estima 1
lida 1
torneos 1
Vega 1
explica 1
teatral 1
modernos 1
primiti@@ 1
bordo 1
libres 1
cot@@ 1
eclesi@@ 1
250 0.9806802861452295
decidieron 1
Secretario 1
juvenil 1
q 0.7841193020585105
arqu@@ 1
candidatos 1
belleza 1
Met@@ 1
Final 0.9394658579251226
colombiano 1
Fi@@ 1
primaria 1
Hum@@ 1
pedido 1
VIII 1
debían 1
roja 1
53 0.9467291530057872
entación 1
entra 1
1915 0.6711907984225944
ul 0.9280531993820599
inaugurado 1
registros 1
ritmo 1
mero 1
bit@@ 1
hectáreas 1
turismo 1
personalidad 1
alcanza 1
Hel@@ 0.6984157105386878
colonial 1
intr@@ 1
fueran 1
aprobó 1
tono 1
fácilmente 1
enden 0.29071923820949946
profesora 1
beb@@ 1
zada 1
avenida 1
Puente 1
sale 1
div@@ 1
estilos 1
Atenas 1
tiz@@ 1
ánicos 1
Burgos 1
páginas 1
tareas 1
cumpli@@ 1
banco 1
ampa 1
evit@@ 1
Señor 1
azgo 1
ofreció 1
Hall 0.35608247584085423
lag@@ 0.9145140661837476
Sem@@ 1
hisp@@ 1
imas 1
esía 1
edr@@ 1
ets 0.23296112010679418
duda 1
Hen@@ 1
ingeniería 1
cristiana 1
House 0.22609129794466368
I. 0.5436531556006985
autónoma 1
situ@@ 1
IX 1
Jefe 1
explot@@ 1
tax@@ 1
rap@@ 0.9232361991472103
decoración 1
ásico 1
izquierdo 1
pertenecientes 1
AC 0.8150994668720297
eva 1
nuestra 1
Max 0.8113859358561777
Cá@@ 1
Ale@@ 1
áceas 1
confianza 1
mensaje 1
ográfico 1
Mariano 1
cementerio 1
taria 1
Año 1
urgo 1
conflictos 1
transición 1
cuyas 1
acompañado 1
Ste@@ 0.46819817824617327
botánico 1
debate 1
Años 1
parec@@ 1
Decreto 1
prisioneros 1
Dar@@ 0.5929094746943677
uy@@ 1
sucedió 1
Murcia 1
patrón 1
let@@ 1
57 0.9708957854033885
etta 1
reconocida 1
literaria 1
máquina 1
ográficas 1
producen 1
enter@@ 1
artillería 1
probar 1
raíces 1
ão 1
exposiciones 1
Fal@@ 1
Recepción 1
perf@@ 1
constitucional 1
obligado 1
Hollywood 1
equ@@ 0.8140005565396836
torio 1
aki 1
aceptó 1
representar 1
define 1
reglas 1
pese 1
Comunista 1
Form@@ 1
sesión 1
proxim@@ 1
imos 1
cen@@ 1
Gol@@ 0.9772024609335077
concre@@ 1
campañas 1
consideraba 1
uli@@ 1
Cádiz 1
surgió 1
temperaturas 1
submar@@ 1
guerras 1
tác@@ 1
var 1
arca 1
rica 1
72 0.9539487362113137
Young 0.6739230546186844
zo@@ 1
ami 0.7631348947504679
españolas 1
Et@@ 1
Lim@@ 1
Clasificación 1
compens@@ 1
creciente 1
Policía 1
tío 1
destinado 1
princesa 1
Deportes 1
flujo 1
cay@@ 1
abog@@ 1
peruano 1
constru@@ 1
brasileño 1
enfoque 1
Zona 1
reducción 1
nuestro 1
Center 0.3583749901079184
crec@@ 1
señal@@ 1
ace@@ 1
Hist@@ 1
permitir 1
pedir 1
fol@@ 1
emo@@ 1
dial@@ 1
Vasco 1
cular 1
fut@@ 1
AC@@ 1
Derechos 1
dul@@ 1
casado 1
Nic@@ 1
abarca 1
acio 1
fortal@@ 1
teles 1
Príncipe 1
human@@ 1
aniversario 1
aten@@ 1
ok@@ 0.4540671444707622
ítica 1
suministr@@ 1
dirige 1
factor 1
junta 1
ide 0.6610482351793147
izada 1
reclut@@ 1
comenz@@ 1
inmedi@@ 1
introduc@@ 1
Salamanca 1
cocina 1
videojuegos 1
emigr@@ 1
emisión 1
agres@@ 1
acog@@ 1
lateral 1
vesti@@ 1
ariz@@ 1
Pic@@ 1
residentes 1
órico 1
Plat@@ 1
vendió 1
ain 0.3853682509675506
58 0.9520014242171522
rati@@ 1
asentamiento 1
debería 1
recol@@ 1
otoño 1
Sand@@ 0.8119754691627439
ede 1
senador 1
62 0.9668619935745539
ahu@@ 1
Alexander 0.5310425200009973
ish@@ 0.5529676339043624
adul@@ 1
cios 1
esclavos 1
toc@@ 1
aceler@@ 1
idiomas 1
bin@@ 1
democrá@@ 1
itado 1
rápida 1
pagar 1
ADN 1
Dom@@ 0.7511920482896137
adicionales 1
chilena 1
ort@@ 1
ash@@ 0.6318293289139966
1908 0.6753719507100917
casco 1
4,@@ 1
coro 1
montañ@@ 1
recog@@ 1
compone 1
Milán 1
ali 0.7774724019261018
Pos@@ 1
Joe 0.7825110388694724
Libro 1
acontecimientos 1
cometi@@ 1
itud 1
kin 0.766565823890242
neas 1
enciado 1
virus 1
discu@@ 1
titul@@ 1
ejer@@ 1
In 0.014536939963687347
magnitud 1
Sinopsis 1
recinto 1
Calle 1
jar@@ 1
agrícola 1
secciones 1
crom@@ 1
producciones 1
ámico 1
milit@@ 1
On@@ 1
inteligencia 1
oga 1
Wal@@ 0.4681940408586238
trabajado 1
gica 1
rat@@ 1
introdujo 1
1905 0.6479555539682457
caja 1
petición 1
usó 1
Salón 1
extra@@ 1
wood 0.3869401343027859
encar@@ 1
mari@@ 1
suger@@ 1
igualmente 1
asistió 1
Chris 0.8982531327085619
caballos 1
sierra 1
candidatura 1
eas 1
existente 1
Guinea 1
Live 0.8212997479718
olas 1
Sig@@ 1
ómica 1
Walter 0.7385384810641341
It 0.03543688695774272
divor@@ 1
ic 0.14468156045674188
niña 1
asent@@ 1
cañones 1
naves 1
Rel@@ 1
pes 1
fos@@ 1
fruto 1
s. 1
inversión 1
pera 1
cañón 1
recuperación 1
RE@@ 1
integración 1
H. 0.6906745195916197
tecn@@ 1
White 0.41870548249242023
propietario 1
xi@@ 1
Ford 0.9532825876589057
influencias 1
endía 1
pudiera 1
ayuntamiento 1
orias 1
Producción 1
68 1
Boston 0.6328048341519885
techo 1
cóm@@ 1
estancia 1
surg@@ 1
Gre@@ 0.610513075974485
ocupar 1
ks 0.2192338433972032
cielo 1
fran@@ 1
jado 1
oya 1
solicit@@ 1
Top 0.6650766661413327
confun@@ 1
adura 1
nas@@ 1
mov@@ 1
iza 1
Hábitat 1
Mun@@ 1
gico 1
umen 1
habiendo 1
und 0.006743435635045383
trató 1
Puebla 1
paredes 1
rocas 1
cincuenta 1
rebeldes 1
huy@@ 1
Augusto 1
rutas 1
calor 1
A.@@ 1
médicos 1
hecha 1
lesión 1
volúmenes 1
Sir@@ 1
reemplazado 1
Gracias 1
Sac@@ 1
jurisdicción 1
UU 1
atacar 1
Contr@@ 1
moral 1
Hot 0.9787530968119904
punta 1
ogr@@ 1
Entonces 1
liberación 1
tampoco 1
fortific@@ 1
domés@@ 1
ant 0.07688341425569498
lanza 1
Tem@@ 1
temporal 1
udi@@ 1
cali@@ 1
respon@@ 1
indios 1
vegetación 1
Alfredo 1
disminu@@ 1
quince 1
Roc@@ 1
iner@@ 1
llevaba 1
Colonia 1
yeron 1
Cortes 1
combati@@ 1
canto 1
igos 1
promover 1
concej@@ 1
acceder 1
buenas 1
modalidad 1
polí@@ 1
notables 1
estrategia 1
intentos 1
promo@@ 1
lia 1
aparecer 1
universo 1
verso 1
Fon@@ 1
reformas 1
hotel 1
asta 1
controlar 1
alguien 1
sti@@ 0.6357828018026768
Din@@ 1
crito 1
regresa 1
Todas 1
Johnson 0.6470713737187667
ejerció 1
lor@@ 1
ilar 1
matar 1
acero 1
march@@ 1
Debutó 1
expuls@@ 1
poseen 1
pisos 1
Esteban 1
ches 0.31370112811689577
ropa 1
causas 1
nadie 1
específicamente 1
Venecia 1
revolucion@@ 1
Hijo 1
Comercio 1
Jar@@ 1
preten@@ 1
Jose 1
trataba 1
ernos 1
Sudamérica 1
naciones 1
celebrado 1
mercados 1
len@@ 0.5646199884055778
Servicios 1
sever@@ 1
productores 1
Football 0.3831453296970727
carriles 1
land@@ 0.49682718184348745
creció 1
ong@@ 0.6815473760884405
nombrada 1
Jerusalén 1
66 0.9529062678875072
estando 1
llegan 1
mesa 1
erio 1
cuentan 1
éticos 1
jazz 1
equivalente 1
acion@@ 1
nace 1
opa 1
daba 1
ud 1
Econ@@ 1
musulmanes 1
pró@@ 1
Edward 0.535481776547558
impresion@@ 1
carbono 1
liz@@ 1
Peri@@ 1
descubr@@ 1
disol@@ 1
dirigir 1
esclav@@ 1
ecciones 1
grabaciones 1
Team 0.3927243500228259
63 0.9758112970209011
ciento 1
estren@@ 1
aparec@@ 1
bes@@ 0.7529932066751913
Leon@@ 1
numer@@ 1
a.@@ 1
retras@@ 1
desaparición 1
mala 1
poema 1
reparto 1
catalán 1
nd@@ 1
paisaje 1
xa 1
considerar 1
Ríos 1
ric@@ 1
Trabajo 1
apellido 1
grabar 1
Cristi@@ 1
Cristóbal 1
Gl@@ 0.783330155531702
umbral 1
libre@@ 1
cárcel 1
59 0.9782272740365656
Agr@@ 1
alternativa 1
Lucas 1
Natur@@ 0.9919129820194375
tiro 1
C.@@ 1
toneladas 1
fiscal 1
historiadores 1
rebelión 1
error 1
ts@@ 0.31850373603714377
étr@@ 1
SS 0.8054834792991854
ecía 1
Vietnam 1
normas 1
presidenta 1
anto 1
mite 1
Arturo 1
gratu@@ 1
Gales 1
comprende 1
comenzar 1
interpretar 1
profun@@ 1
ánicas 1
fórmula 1
mencionado 1
Rojo 1
alo 1
obtenido 1
PC 0.9781575274591543
luchar 1
calcul@@ 1
Familia 1
Les 0.0718715718563561
revela 1
proteínas 1
estric@@ 1
manga 1
cuadrados 1
cubr@@ 1
Show 0.734353961722362
negros 1
Murió 1
Medicina 1
voluntad 1
Pod@@ 1
democracia 1
dici@@ 1
emia 1
ha@@ 0.5319859298215515
ofici@@ 1
.com 1
dúo 1
millas 1
graves 1
nota 1
preparación 1
ō@@ 1
anal 1
Marie 0.4677223766367695
entidades 1
escritora 1
Ferrocarril 1
igualdad 1
bal 1
bilidad 1
próximo 1
asistente 1
dest@@ 1
he 0.01764368405373597
arra 1
Conde 1
Fox 0.9556098814013311
mez@@ 1
Liber@@ 1
incluir 1
variedades 1
morir 1
cí@@ 1
74 1
secuencia 1
nacion@@ 1
hin@@ 0.7582696856697491
hipótesis 1
dividido 1
tomando 1
Orquesta 1
Cuatro 1
implement@@ 1
98 1
útil 1
juz@@ 1
sueño 1
1906 0.6748842464430349
Columbia 0.6614012488460168
teatr@@ 1
rebel@@ 1
1909 0.694051383051781
Gab@@ 1
oz 1
lio 1
Gustavo 1
realizados 1
.C. 1
salas 1
… 0.34828102030107955
quin@@ 1
nuclear 1
drama 0.7880768598549894
boca 1
idente 1
árabes 1
alis 1
siguieron 1
ector 1
admir@@ 1
Emilio 1
Sc@@ 0.582447954583591
88 1
Bahía 1
nacida 1
compromiso 1
marcas 1
arena 1
radic@@ 1
uj@@ 1
endémica 1
Rem@@ 0.8992735638484118
voces 1
compuestos 1
Bru@@ 1
tensión 1
apariencia 1
archivos 1
ige 0.29056023173725776
expedi@@ 1
om 0.5508346689546533
destruy@@ 1
pesca 1
ejercicio 1
Lig@@ 1
Uni@@ 1
claramente 1
vul@@ 1
fundadores 1
Universal 1
conocen 1
reveló 1
acas 1
Hill 0.4623680984160189
rescat@@ 1
encarcel@@ 1
continental 1
ion 0.42878536080665663
telenovela 1
hun@@ 1
sc@@ 0.3654459512316742
Bern@@ 1
ecos 1
Pri@@ 1
retirarse 1
ire 0.37108455064456003
renac@@ 1
1907 0.6624614435442292
dolor 1
Raúl 1
Profesional 1
Nat@@ 1
renuncia 1
definitiva 1
Campeones 1
ley@@ 1
comprometi@@ 1
Pun@@ 1
periódicos 1
frecuente 1
mostrar 1
SA 0.9466300014988811
representado 1
derrotar 1
embajador 1
liberal 1
sustituy@@ 1
Gutiérrez 1
opon@@ 1
Mediterráneo 1
polic@@ 1
ró@@ 1
Gim@@ 1
convirtieron 1
endiendo 1
honor@@ 1
ff@@ 0.3784698265751025
glob@@ 1
doctorado 1
ple 1
tros 1
supone 1
Interior 1
arzobispo 1
ítimo 1
Irán 1
pilotos 1
recibieron 1
mica 1
teras 1
publicados 1
Vo@@ 0.8613890758946237
amentos 1
salvo 1
Dic@@ 1
depende 1
Som@@ 1
Polí@@ 1
Tak@@ 0.7716444047528263
gus@@ 1
exilio 1
Vis@@ 1
encargó 1
rus@@ 1
tripulación 1
amin@@ 1
construc@@ 1
udos 1
Sergio 1
sig@@ 1
º@@ 1
cav@@ 1
erra 1
mínimo 1
Argentino 1
sugiere 1
Finlandia 1
ún@@ 1
fron@@ 1
ab 0.1333866262867926
Pro 0.9392217237707784
obo 1
ibles 1
Pa@@ 1
tidos 1
clientes 1
gios 1
relato 1
equilibrio 1
descendientes 1
Tanto 1
Apo@@ 1
Son@@ 1
costas 1
itan 1
admi@@ 1
Ben 0.920234415839286
logrado 1
limpi@@ 1
fres@@ 1
herramientas 1
dibujos 1
prest@@ 1
agrupación 1
tiendas 1
feder@@ 1
aprendizaje 1
café 1
enlace 1
impuestos 1
domingo 1
defensi@@ 1
gos 1
Windows 0.8930606713904182
ardo 1
tormenta 1
Tran@@ 1
astronomía 1
cinturón 1
eltas 1
hijas 1
cuarenta 1
trama 1
Silva 1
vendido 1
noticia 1
renunci@@ 1
extraordin@@ 1
depend@@ 1
ats 0.29771136953687305
taría 1
Metro 1
introdu@@ 1
pad@@ 1
Anna 0.7623117826695112
alizadas 1
atur@@ 1
editado 1
inmigrantes 1
alrededores 1
eren 0.4323208579920482
lada 1
Township 0.8534328515528192
hospit@@ 1
lin 0.5783409044750255
Grandes 1
adicional 1
empleado 1
estrecho 1
comunas 1
perdiendo 1
Bernardo 1
Prom@@ 1
AS 0.9596950112919371
estatus 1
distin@@ 1
Haw@@ 1
letas 1
entista 1
onas 1
Democrática 1
Emp@@ 1
holand@@ 1
apia 1
abuelo 1
asalto 1
respet@@ 1
evas 1
Human@@ 1
1904 0.6811700758914614
claus@@ 1
cion 1
ine@@ 0.8253272438927308
gana 1
jornada 1
vapor 1
plane@@ 1
ólica 1
moneda 1
disfrut@@ 1
empezaron 1
escar@@ 1
99 0.9790594831755685
climá@@ 1
suerte 1
ónomo 1
Secretaría 1
orial 1
ox@@ 1
yentes 1
reunió 1
Exteriores 1
Illinois 0.6742354452872105
integró 1
ut 0.4642802534314324
Sau@@ 1
ojo 1
reproduc@@ 1
ilidad 1
onios 1
afluente 1
académico 1
millón 1
visitantes 1
cac@@ 1
hí@@ 1
iller 1
ientes 1
continua 1
Peña 1
ender@@ 1
09 1
University 0.07211955316942059
ky 0.5572420093750811
aquellas 1
caballería 1
terrestre 1
tomado 1
67 0.95062763077023
salto 1
trá@@ 1
coinci@@ 1
establecieron 1
italianos 1
ek@@ 0.2595171625512397
fuese 1
pudiendo 1
Mike 0.7879304842712586
interpretada 1
š@@ 0.6347216891744494
als 0.021733167359662454
adrón 1
instituto 1
trof@@ 1
gri@@ 1
haci@@ 1
electrónica 1
Bob 0.8429686154765873
Albert 0.6080392114251315
nea 1
ardia 1
We@@ 0.4259458892462031
1890 0.7820657790031753
84 1
River 0.18459539321007015
prof@@ 1
dan@@ 1
pregun@@ 1
inda 1
Janeiro 1
fuertemente 1
destru@@ 1
zu@@ 0.6717281515341397
arcos 1
nico 1
76 0.9540924621776533
Ori@@ 1
plat@@ 1
costo 1
estabilidad 1
92 1
Sala 1
revis@@ 1
itz 0.45363770959800603
Rodrigo 1
hogares 1
colecciones 1
discográfica 1
Wilson 0.7775107849271992
ebr@@ 1
heridos 1
dobl@@ 1
Maz@@ 1
recuerda 1
apariciones 1
estatua 1
integrada 1
causó 1
elegir 1
décimo 1
Referencias 1
ré@@ 0.18413466621084473
ámica 1
abol@@ 1
Fran@@ 1
ins 0.15273433137869652
ándola 1
Bilbao 1
rab@@ 1
ús@@ 1
danza 1
creando 1
versi@@ 1
Clar@@ 1
compil@@ 1
Jiménez 1
incendio 1
anillo 1
intercambio 1
taller 1
eves 1
Cabo 1
ij@@ 1
dispositivos 1
monedas 1
decisiones 1
crist@@ 1
Time 0.6968803082401166
verdadera 1
vor@@ 0.1983570064652097
Ramírez 1
adecu@@ 1
organizar 1
esis 1
negociaciones 1
brillante 1
venir 1
Rivera 1
onen 0.5744028082428928
calendario 1
soporte 1
Santander 1
ital 1
terminal 1
dé@@ 0.11823961092240431
semillas 1
Confederación 1
Arquitectura 1
murieron 1
simb@@ 1
brado 1
enterrado 1
abri@@ 1
tradiciones 1
Fe@@ 0.6386452240540307
restantes 1
reloj 1
Div@@ 1
Design@@ 1
demand@@ 1
78 1
contienen 1
colonias 1
berto 1
enio 1
inmediato 1
fallecido 1
proporciona 1
capaces 1
RA@@ 1
paron 1
sexuales 1
700 0.9411014368537703
Ante 1
rio 1
tieron 1
Oscar 1
auxili@@ 1
éndole 1
alma 1
existía 1
realizando 1
viera 1
cambia 1
instaló 1
Nacido 1
Gobernador 1
7.@@ 1
Jugó 1
alberga 1
120 0.8559007618073854
evolucion@@ 1
tumba 1
ure 0.24342095643027323
Pensilvania 1
darse 1
llen@@ 1
perspectiva 1
Christian 0.31380655295529136
comité 1
satisfac@@ 1
ance 0.15826525399529554
My@@ 0.732910734178639
Operación 1
tribu 1
Represent@@ 1
apoyar 1
las@@ 1
61 0.9327939789949928
conferencias 1
gem@@ 0.8456054688351415
mani@@ 1
Lug@@ 1
colaboró 1
Miami 1
acred@@ 1
servir 1
Conferencia 1
ung 0.09023879003297977
Cad@@ 1
Morfología 1
infantería 1
inver@@ 1
oll@@ 0.9721179055450652
ee 0.423067248981966
teros 1
derri@@ 1
Español 1
observar 1
Ph@@ 0.4298927646589319
presupuesto 1
procedentes 1
fre@@ 0.41282310198731215
gris 1
Wrestling 1
cho@@ 0.8411112035327604
Kim 0.878641180587673
eléctrico 1
Verde 1
ír@@ 1
1903 0.7008938015586464
96 0.9886434040105005
físicas 1
construyeron 1
Unidad 1
escultor 1
G. 0.8284468211160694
racia 1
sky 0.620904747633212
Ta@@ 0.7883439222339461
cional@@ 1
protagoniz@@ 1
Art 0.2396427256120095
centrales 1
Joan 1
est 0.011732066605421995
torres 1
tada 1
Capitán 1
Rev@@ 1
aéreo 1
habilidad 1
rió 1
dispositivo 1
Croacia 1
Siria 1
cami@@ 1
CI@@ 1
occidentales 1
Libertad 1
Tony 0.9338476706553662
marc@@ 1
vivientes 1
Dol@@ 0.8093198211803456
solista 1
empez@@ 1
Padre 1
crip@@ 1
Sus@@ 1
cuello 1
mecanismo 1
Marruecos 1
autonomía 1
clara 1
adir 1
Gil@@ 0.9317912474726819
ortodo@@ 1
desa 1
previ@@ 1
ett 0.46220714037696076
nomin@@ 1
escribe 1
vent@@ 1
esia 1
puedan 1
Cent@@ 1
Catalina 1
onado 1
héroe 1
Card@@ 1
Constitu@@ 1
ation 0.04052025096386401
vo@@ 0.7614032045413324
Arg@@ 1
dat@@ 1
esen 1
metál@@ 1
ecen 1
Eur@@ 1
petróleo 1
sobres@@ 1
óric@@ 1
acionales 1
frase 1
Pese 1
ció 1
Life 0.4056774086470201
empu@@ 1
ung@@ 0.3376178066959212
Herrera 1
huevos 1
Bir@@ 0.7792153414599671
Población 1
Transporte 1
pared 1
ui 1
mejora 1
república 1
tradu@@ 1
Nicaragua 1
olvid@@ 1
ucran@@ 1
señaló 1
BBC 0.6080682657050669
socialista 1
gul@@ 1
regimiento 1
die 0.007229821230113402
firmado 1
moviliz@@ 1
experim@@ 1
nat@@ 1
dismo 1
ofensiva 1
bis@@ 1
anti 0.42225569298475274
soviético 1
largas 1
variante 1
pesos 1
europeas 1
aspir@@ 1
oportunidades 1
ísmo 1
Formación 1
departamentos 1
Siglo 1
parcialmente 1
Brian 1
UEFA 1
08 1
brazo 1
limitada 1
Parti@@ 1
bien@@ 1
fracaso 1
defender 1
XXI 1
IC@@ 1
absor@@ 1
individuo 1
Gregorio 1
predic@@ 1
carr@@ 1
lectura 1
habitación 1
japoneses 1
ps 0.32935072577809005
chica 1
agón 1
máquinas 1
vocalista 1
Lav@@ 1
noctur@@ 1
Zamora 1
supuso 1
Filosofía 1
rein@@ 1
usada 1
9,@@ 1
riqueza 1
Hitler 1
tribut@@ 1
Person@@ 1
Peñ@@ 1
elaboración 1
Steve 0.8164883103741796
IS@@ 0.8267948986876946
recorr@@ 1
ajas 1
ingleses 1
sat@@ 1
tiendo 1
tomaron 1
ator 0.1891336645941615
tram@@ 1
señala 1
conservan 1
nam@@ 1
compró 1
iana 1
agencia 1
trato 1
diseños 1
dependiendo 1
caminos 1
competiciones 1
regulares 1
partió 1
06 1
cordillera 1
localizado 1
volvieron 1
paqu@@ 1
aparte 1
vuelos 1
Hy@@ 0.7752897969334227
ys@@ 0.47150003124705375
igió 1
Asunción 1
1902 0.6880390693401518
69 0.9671807562434642
clas@@ 1
propi@@ 1
confirm@@ 1
maestros 1
clásicos 1
Bill 0.5982101522102271
Kir@@ 0.7752565059522785
siglas 1
82 1
Ev@@ 1
86 1
anga 1
versos 1
votación 1
cantidades 1
trib@@ 1
ho 1
convirti@@ 1
noble 1
Regimiento 1
Harry 0.8168378679929676
ulos 1
latino 1
ie@@ 0.4590419953951235
otorgado 1
aventura 1
quita 1
concedió 1
parecer 1
ok 0.5738097080949219
dividida 1
sost@@ 1
Mujeres 1
disciplina 1
organizada 1
postul@@ 1
duras 1
informes 1
77 0.9659538516409168
tribus 1
Ohio 0.5753149603112895
cerámica 1
ater@@ 1
asisti@@ 1
Bautista 1
completó 1
idi@@ 0.9998568110623915
encontrarse 1
Programa 1
1880 0.8316757235355745
situaciones 1
Ár@@ 1
aérea 1
Fueron 1
estable 1
piedras 1
Latinoamérica 1
Mi 1
tari@@ 1
tima 1
Guerrero 1
frío 1
nativos 1
aceite 1
dispone 1
marcado 1
vidas 1
ilia 1
fallecimiento 1
círculo 1
umbr@@ 1
galard@@ 1
War@@ 0.4315672862859042
exili@@ 1
Kal@@ 0.45484074623788856
complement@@ 1
bautiz@@ 1
ry 0.4373040231564154
terr@@ 1
placa 1
herencia 1
Kong 0.686795121444116
Independiente 1
esperanza 1
egos 1
AD@@ 1
campeonatos 1
83 1
indígena 1
iniciar 1
afec@@ 1
halla 1
muros 1
seguro 1
gada 1
universal 1
uvo 1
Libre 1
Imperial 1
FA 0.7853252471323648
determinado 1
fotografías 1
bail@@ 1
ísima 1
5,@@ 1
Cañ@@ 1
benefici@@ 1
fauna 1
Sá@@ 1
ejecu@@ 1
necesaria 1
Carl 0.6328831343241644
volun@@ 1
itarios 1
competir 1
71 0.9406513268942086
apel@@ 1
serán 1
Colón 1
Var@@ 0.9155547222389124
jardines 1
73 0.9706614810920692
hermanas 1
ence 0.21193392373695616
perci@@ 1
High 0.22348347530718346
Princip@@ 1
circunstancias 1
oy 1
Checa 1
llan@@ 1
daño 1
polaco 1
ómico 1
iy@@ 0.8290756568476118
orillas 1
contin@@ 1
genérico 1
Supremo 1
seleccionado 1
sagr@@ 1
parecen 1
formal 1
retrato 1
manej@@ 1
perfec@@ 1
ruedas 1
art@@ 1
variable 1
estatales 1
protestas 1
vender 1
elevado 1
laz@@ 1
existi@@ 1
Mercedes 1
fos 1
sepul@@ 1
93 1
vienen 1
sufrag@@ 1
considerable 1
alimentación 1
corri@@ 1
culturas 1
capítulos 1
Na@@ 0.8342387179483243
04 1
precios 1
griegos 1
portuguesa 1
02 1
filme 1
flora 1
interrump@@ 1
hier@@ 1
bajos 1
condu@@ 1
referencias 1
Adri@@ 1
auto 1
comple@@ 1
destin@@ 1
superar 1
Félix 1
Bro@@ 0.6654708029958447
conciencia 1
animación 1
católico 1
Tes@@ 1
patio 1
AP@@ 0.9634307272940089
nucle@@ 1
tard@@ 1
OS 0.9954610898343378
emblem@@ 1
Morales 1
Turismo 1
mp@@ 1
tas@@ 1
cuentos 1
recre@@ 1
Antár@@ 1
atrap@@ 1
conse@@ 1
pena 1
templ@@ 1
timos 1
bloque 1
Inicialmente 1
productora 1
st 0.2466130331053547
cerro 1
ev 0.7977381645362976
suprim@@ 1
― 1
asum@@ 1
administrativo 1
uk@@ 0.5002315340488512
ótica 1
nervi@@ 1
largos 1
eliminado 1
jurado 1
hubi@@ 1
interpre@@ 1
Papa 1
landia 1
veter@@ 1
zado 1
oner 1
Activ@@ 1
separado 1
candid@@ 1
fijo 1
intentar 1
inscripción 1
depresión 1
saga 1
notas 1
Óscar 1
Bay@@ 0.8588441318095297
lej@@ 1
asen 1
Observatorio 1
cro@@ 0.7896468115565921
infraestructura 1
lis 0.7078211131635485
Taylor 0.7294998927105767
implica 1
exfutbolista 1
rusos 1
consecuencias 1
merc@@ 1
exitosa 1
justific@@ 1
rurales 1
apropi@@ 1
embarc@@ 1
pist@@ 1
sch@@ 0.10494672903037354
Vall@@ 1
ope 1
teorías 1
dicas 1
Ari@@ 1
empe@@ 1
alos 1
adu@@ 1
Green 0.48827804988295437
Álvaro 1
91 1
cuidado 1
Racing 1
Kor@@ 0.43703427329940014
cultivos 1
Air 0.25959064079317096
gui@@ 1
Fab@@ 1
guionista 1
plum@@ 1
especialista 1
1898 0.7213643873686623
Hotel 0.8703934211766552
03 1
secuestr@@ 1
abast@@ 1
tividad 1
rasgos 1
Fórmula 1
Karl 0.4326017525438121
tif@@ 1
melod@@ 1
contempl@@ 1
lares 1
igen 0.27941198797237277
desembar@@ 1
onom@@ 1
Situ@@ 1
Andes 1
Apertura 1
Dominicana 1
particulares 1
resolver 1
transformación 1
víctima 1
ini@@ 1
suel@@ 1
comentó 1
haberse 1
Palma 1
mun@@ 1
pleno 1
cú@@ 1
Kur@@ 0.3959314114239481
compon@@ 1
frac@@ 1
parejas 1
quedan 1
Af@@ 1
partículas 1
polis 1
emin@@ 1
profesores 1
marcador 1
Nú@@ 1
87 1
judía 1
índice 1
North 0.13242595023596035
construcciones 1
vivían 1
Romero 1
incendi@@ 1
gestion@@ 1
dejado 1
arbus@@ 1
cer 1
Mul@@ 0.7919801931007591
fur@@ 0.9898498857392155
dirse 1
edific@@ 1
edentes 1
sublev@@ 1
marqués 1
considerados 1
mezcl@@ 1
subterrá@@ 1
seno 1
ablemente 1
desambiguación 1
valor@@ 1
automóvil 1
ain@@ 0.4308553668540292
filial 1
zi 1
Pil@@ 0.996226908632707
Society 0.2925180463096026
femen@@ 1
cámaras 1
concluyó 1
detall@@ 1
ref@@ 0.6960710364296553
bloque@@ 1
Llan@@ 1
ann@@ 0.38569496173881174
1870 0.7566116780894282
dades 1
Segundo 1
tric@@ 1
ventanas 1
chó 1
bos@@ 1
Ernesto 1
atorios 1
Temporada 1
adver@@ 1
Ib@@ 1
intelig@@ 1
duro 1
ebre 1
virtu@@ 1
incidente 1
ensayos 1
orientación 1
81 0.9629691977724011
gama 1
Nápoles 1
diente 1
ax 0.9970725579984973
tér@@ 1
Habana 1
Pur@@ 0.8295746323776433
jo@@ 1
permitía 1
hi 0.7375753224972339
Q 0.7051000061147976
abe 0.9743060025817131
ísimo 1
Alc@@ 1
ster@@ 0.4942145884531386
confes@@ 1
cima 1
telef@@ 1
caer 1
evalu@@ 1
conspir@@ 1
alu@@ 1
circul@@ 1
ordin@@ 1
asco 1
Aur@@ 1
Muerte 1
representada 1
uncia 1
gim@@ 1
ais 0.4957931840972746
ruinas 1
qui 0.03081140359628224
elia 1
profunda 1
sucesión 1
fichó 1
acusado 1
vivienda 1
catalog@@ 1
ularidad 1
vencer 1
ER@@ 1
Medina 1
ét@@ 0.5846860141874012
arquía 1
gest@@ 0.5116920767809726
beneficios 1
ignor@@ 1
rechazó 1
mán 1
ington 0.5249682780259274
prestigi@@ 1
anismo 1
ingres@@ 1
már@@ 1
desper@@ 1
tión 1
proyect@@ 1
Existe 1
tando 1
Muchas 1
lismo 1
ileg@@ 1
omb@@ 1
comunista 1
Canarias 1
privadas 1
instal@@ 1
exc@@ 1
dicos 1
agn@@ 1
cribió 1
igi@@ 1
cens@@ 1
atar 1
č@@ 0.678218380714401
laboratorio 1
ástico 1
79 0.9958707698019458
iéndose 1
publicar 1
retiro 1
ceros 1
Conserv@@ 1
demol@@ 1
Asuntos 1
semej@@ 1
predec@@ 1
presidenciales 1
lanzar 1
Trinidad 1
matemáticas 1
legado 1
crearon 1
prometi@@ 1
típ@@ 1
parcial 1
vuelto 1
Vas@@ 1
tut@@ 1
Avi@@ 1
tería 1
Blue 0.5768470111988186
acabar 1
enfrentamiento 1
tad@@ 1
vín@@ 1
Island 0.2794578542816891
Produc@@ 1
ninguno 1
ejércitos 1
eve 1
vivía 1
prov@@ 1
decim@@ 1
sueco 1
ki@@ 0.4626938882805442
sesiones 1
Oper@@ 1
94 1
COVID 0.8108557630185212
eliminación 1
ume 0.9403115891555768
cinematográfica 1
interno 1
acuerdos 1
lus@@ 1
Magdalena 1
reuniones 1
Arthur 0.6018122219739526
persecución 1
07 1
blancas 1
05 0.9899529322818162
Tenía 1
quir@@ 1
estal 1
America 0.23574997017916932
jeros 1
1901 0.6386953637219838
docente 1
pertenecía 1
Hacienda 1
pár@@ 1
séptimo 1
muestras 1
iban 1
específico 1
secundarios 1
dioses 1
proporcionar 1
plazas 1
liderazgo 1
argumento 1
reconstrucción 1
universitario 1
Sinf@@ 1
fasc@@ 1
supervis@@ 1
Roger 0.8889043502183159
archivo 1
homónimo 1
Guzmán 1
cuestiones 1
esperaba 1
imb@@ 1
aparentemente 1
Davis 0.7298235680289084
ornam@@ 1
pobres 1
porcentaje 1
cercanos 1
ary 0.13541646066196386
aka 0.7050270193015806
literario 1
pis@@ 1
hol@@ 0.4602960197102585
AM@@ 1
utilización 1
lluvias 1
yr@@ 0.6143240413219084
diversidad 1
Cro@@ 0.6745818595940455
Regres@@ 1
circular 1
corrientes 1
Gonzalo 1
invitados 1
Có@@ 1
elio 1
venció 1
inger 0.4013396090918046
Juana 1
vistas 1
escoc@@ 1
T. 0.8312642906147235
visible 1
89 0.9971567573595517
Cristina 1
Puede 1
decía 1
South 0.10313279189098778
lov@@ 1
Inici@@ 1
continuaron 1
ferroviaria 1
Rojas 1
soport@@ 1
pertenecen 1
ear@@ 0.696872543280477
detenido 1
escaños 1
intelectual 1
renunció 1
alfab@@ 1
cráter 1
Múnich 1
primo 1
gráficos 1
energ@@ 1
tidae 1
Kat@@ 0.5679504733153583
12@@ 0.8692303340331331
Viejo 1
1895 0.7231399054962954
decisi@@ 1
Ál@@ 1
imen 1
Sk@@ 0.545839410233467
bano 1
circulación 1
áticamente 1
Carre@@ 1
anime 1
senc@@ 1
ermita 1
extinción 1
unci@@ 1
inae 1
cristianismo 1
elegidos 1
interpretando 1
arran@@ 1
dibujo 1
Bri@@ 0.8607931102616955
Ga@@ 1
bia 1
Doc@@ 1
Acción 1
imposible 1
óricos 1
Cuenca 1
órganos 1
desarrol@@ 1
97 1
Aran@@ 1
Pes@@ 1
oración 1
kg 0.7845578577380883
fronteras 1
perdieron 1
antigüedad 1
agrícolas 1
famosos 1
supuesto 1
kar@@ 0.49875529214286846
dueño 1
Ham@@ 0.715142503397563
muro 1
13@@ 0.973820421656116
automóviles 1
presentaron 1
conocimientos 1
excav@@ 1
01 0.965913849621792
Cartagena 1
long@@ 1
industriales 1
retor@@ 1
Fuente 1
hormig@@ 1
dó@@ 1
solicitó 1
Indonesia 1
alcanzando 1
ensayo 1
Aqu@@ 1
mento 1
jesu@@ 1
entro 1
teo 1
tol@@ 1
tus 1
pobl@@ 1
intensidad 1
zas 1
premi@@ 1
aparecido 1
priv@@ 0.9643153380447168
alguno 1
icaciones 1
vocal 1
insectos 1
Úl@@ 1
Der@@ 0.8062595905370323
ocional 1
Posee 1
asegurar 1
talleres 1
combates 1
osidad 1
otipo 1
barra 1
V. 0.7542513925282887
abrir 1
7,@@ 1
retirado 1
representaciones 1
Hong 0.6439110332734728
Serbia 1
Suprema 1
multitud 1
santo 1
Hon@@ 0.8410090732590071
crimen 1
abre 1
caí@@ 1
retablo 1
frecuentes 1
ist 0.017990865854759067
herido 1
Kaz@@ 1
coches 1
Night 0.7845704318066408
W. 0.5568896558901026
reducido 1
ambiental 1
lán 1
ves@@ 1
almac@@ 1
bro 1
hiper@@ 1
Series 0.4655674491836477
comentarios 1
Ly@@ 0.624384994856962
estrecha 1
liberales 1
rir 1
buenos 1
Jersey 0.5885237815020576
naci@@ 1
electo 1
médica 1
composiciones 1
salvar 1
Juventud 1
dero 1
Pá@@ 1
yn@@ 0.5024551188164714
icul@@ 1
musul@@ 1
Entr@@ 1
flan@@ 1
monarca 1
8.@@ 1
buscando 1
cón 1
Simón 1
Lan@@ 0.9861579443025258
ricos 1
Apar@@ 1
captura 1
dichos 1
limita 1
académica 1
ciclista 1
Astr@@ 1
enfoc@@ 1
Mec@@ 1
tin 0.3103097325519205
stein 0.3752233068938726
extendió 1
secuencias 1
proteína 1
campamento 1
remodel@@ 1
trabajaba 1
Varios 1
deuda 1
osaurus 1
conceptos 1
propor@@ 1
1899 0.6862333677436816
refuer@@ 1
jurí@@ 1
Mill@@ 1
éu@@ 1
icidio 1
sk@@ 0.27370844870575567
Stone 0.9117104471923851
Lisboa 1
uel@@ 1
fracas@@ 1
asimismo 1
Héctor 1
Miranda 1
Especies 1
reglam@@ 1
católicos 1
marina 1
jugado 1
tigo 1
trece 1
produjeron 1
pio 1
Jardín 1
ules 0.9760205007676875
creía 1
electr@@ 1
azúcar 1
copa 1
helic@@ 1
Ce@@ 1
vientos 1
humanidad 1
nica 1
autora 1
ficas 1
comprar 1
Proyecto 1
Mem@@ 1
experiencias 1
nacionalidad 1
Elena 1
protagonistas 1
Obra 1
resol@@ 1
pregunta 1
cano 1
adoptó 1
Neg@@ 1
maíz 1
AL@@ 1
ney 0.48380485386962563
Dev@@ 0.6831985244241767
Fo@@ 0.6874179045383104
drogas 1
nobleza 1
interpreta 1
mision@@ 1
Samuel 0.818266267657799
originaria 1
permiso 1
sá@@ 1
ásticos 1
ógico 1
clasificado 1
Arizona 0.8529550283467118
exclu@@ 1
mb@@ 1
ves 0.2681303646259064
cionario 1
relieve 1
Alcal@@ 1
terremoto 1
Gan@@ 1
variantes 1
ná@@ 1
eres 1
pac@@ 1
comienzan 1
lluvia 1
Suárez 1
nobles 1
condenado 1
seguía 1
Artí@@ 1
aé@@ 1
compite 1
Incluso 1
Irak 1
peregr@@ 1
concejo 1
ister@@ 1
nieto 1
Diputados 1
ling 0.23595465139219685
Cum@@ 1
sesenta 1
Oli@@ 1
Ingeniería 1
amas 1
Rio 0.8268868557759913
band@@ 1
Rugby 0.986526601611638
inspiración 1
Maj@@ 0.9023614725901283
sober@@ 1
madur@@ 1
marrón 1
especializado 1
síntomas 1
Amar@@ 1
ós@@ 1
ótico 1
Marvel 1
ika 0.7215808756189496
tara 1
aumentó 1
grav@@ 0.9072902628624288
much@@ 1
provenientes 1
zan 1
visi@@ 1
usiones 1
posicion@@ 1
tendrá 1
Group 0.24529311072962842
ativamente 1
oridad 1
relatos 1
enl@@ 1
tribunal 1
Sajonia 1
Fel@@ 0.884703525586616
darle 1
Cin@@ 1
Capital 1
ign@@ 0.5486740905294542
manten@@ 1
poseía 1
Alicante 1
plena 1
entregó 1
Margarita 1
econom@@ 1
box@@ 1
apu@@ 1
perro 1
curre 1
eñ@@ 1
íaco 1
Adi@@ 1
Guar@@ 1
AM 0.900763855345079
cualquiera 1
Den@@ 0.9333025060313161
colonos 1
autop@@ 1
Laguna 1
jan 1
comunicaciones 1
aline@@ 1
lara 1
visitó 1
roso 1
Claudio 1
BA 1
leche 1
acord@@ 1
hoja 1
WWE 1
aceptar 1
carreteras 1
Sagr@@ 1
generar 1
1897 0.6803412874239133
Bou@@ 0.6111243358738703
Jacques 0.5692025078363327
burg 0.35100382181003315
Chrysomelidae 1
Kan@@ 0.4570565623527699
ofrecer 1
requ@@ 1
Quito 1
pron@@ 1
disolución 1
bir 0.09487518169066084
test@@ 1
LP 1
cuadros 1
ganadería 1
establecida 1
gusto 1
Obr@@ 1
ik 0.34050490275769985
incremento 1
presentaciones 1
televisi@@ 1
cien 1
Petr@@ 1
ponen 1
sas 1
viajar 1
costumbres 1
señales 1
heredero 1
hembras 1
manifestaciones 1
Lake 0.3005697170995868
dez 1
convocado 1
archipiélago 1
excelente 1
bana 1
Ciencia 1
cuestion@@ 1
confir@@ 1
nacional@@ 1
delan@@ 1
inauguración 1
ocupada 1
manipul@@ 1
zap@@ 1
inser@@ 1
anuales 1
talento 1
inten@@ 1
asis 1
lis@@ 1
conjuntos 1
citado 1
homosexu@@ 1
congreg@@ 1
1896 0.6752183297853203
Ejecutivo 1
contratado 1
14@@ 0.9327836285288994
Bul@@ 0.8966376988384283
proc@@ 1
sufri@@ 1
Semana 1
alternati@@ 1
cari@@ 1
usieron 1
cabe 1
oli 1
propuestas 1
israelí 1
almacen@@ 1
aventuras 1
rug@@ 1
olímpico 1
Au@@ 0.6688106561164924
ier 0.3185558796537094
NA 1
fís@@ 1
Benito 1
Pot@@ 0.7866677597303736
ismos 1
relacionada 1
obligó 1
íl@@ 1
ill 0.35757444912346664
obst@@ 1
satélite 1
sof@@ 1
profesión 1
uelo 1
tis@@ 0.49800480222451965
demostrado 1
Florencia 1
Hidalgo 1
brazos 1
plas@@ 1
Barrio 1
dobles 1
ges@@ 0.32541104483792843
Universitario 1
corrupción 1
negativa 1
Libertadores 1
9.@@ 1
Poder 1
Bé@@ 1
condujo 1
sk 0.8401940459261721
ideal 1
Estuvo 1
1860 0.7896699515428318
belga 1
homónima 1
bas 1
acom@@ 1
cardenal 1
bos 1
definir 1
solic@@ 1
visual 1
eligió 1
idamente 1
erte 0.32479881200443644
ficos 1
recu@@ 1
Histórico 1
discípul@@ 1
enza 1
escritas 1
hábit@@ 1
presas 1
lea 1
magn@@ 1
espiritual 1
abord@@ 1
sociedades 1
Norteamérica 1
Ku@@ 0.7215165388189009
jada 1
andal@@ 1
cooperación 1
partidarios 1
sobrino 1
Duque 1
cifra 1
ean 0.9507721334223245
radical 1
seco 1
paciente 1
Simon 0.646474212449461
Republic@@ 1
itu@@ 1
erg@@ 0.8311893096669474
Premier 0.4909001550467524
Reb@@ 1
ecuatori@@ 1
campeones 1
metropolitana 1
Dan@@ 0.8424734769358039
típico 1
seca 1
batallas 1
Molina 1
necesita 1
apos@@ 1
Muñoz 1
cep@@ 1
Alpes 1
indican 1
Medalla 1
asteroide 1
publicidad 1
Vit@@ 1
alim@@ 1
retorno 1
FIFA 1
humor 1
gabinete 1
depos@@ 1
1889 0.7355974980341057
Realizó 1
chinos 1
Mayo 1
escenarios 1
profundo 1
sam@@ 1
penetr@@ 1
restr@@ 1
Lewis 0.7150673994343867
mitología 1
móvil 1
Cabe 1
únicos 1
asociados 1
llevando 1
Ped@@ 1
Patr@@ 1
migr@@ 1
desaparecido 1
Gil 1
demostró 1
Baviera 1
paro 1
Juega 1
Cup 0.14919297135710258
cobertura 1
inde@@ 1
bord@@ 1
esculturas 1
Massachusetts 0.5745696417501562
cortos 1
jugaba 1
cobre 1
Castell@@ 1
aparecieron 1
quet@@ 1
misteri@@ 1
parecía 1
sexta 1
Hizo 1
terror 1
Kh@@ 0.38560590420207447
oli@@ 1
afr@@ 1
desierto 1
ity 0.09357194921587782
rumbo 1
mono@@ 1
mecánica 1
Ot@@ 0.9947020086927676
neutr@@ 1
jefes 1
ambre 1
Vargas 1
tradicionalmente 1
muere 1
discre@@ 1
reconoció 1
repres@@ 1
edas 1
Origen 1
alc@@ 1
30@@ 0.627786140660173
flot@@ 1
opl@@ 1
Bell@@ 1
bomba 1
unieron 1
Alej@@ 1
cercanías 1
entender 1
Aquí 1
parlamento 1
Institu@@ 1
ecida 1
semi@@ 1
Ep@@ 1
especializada 1
penal 1
enor@@ 1
valenci@@ 1
puertos 1
posibilidades 1
revisión 1
planos 1
Colorado 0.8071941052999545
pura 1
Lord 0.4182380424026576
Kam@@ 0.582952123690102
históricas 1
llamar 1
ganaron 1
Sav@@ 0.7273277208885992
exit@@ 1
matem@@ 1
salón 1
esquina 1
judío 1
próxima 1
actúa 1
1891 0.7510888089836376
soldado 1
cerrado 1
reconoce 1
sson 1
castell@@ 1
Lago 1
ancha 1
yl@@ 0.308035655356545
AT@@ 0.7991978280792889
propietarios 1
consciente 1
constituyen 1
promulg@@ 1
novia 1
ofreci@@ 1
ópo@@ 1
expertos 1
positi@@ 0.9256135416713834
Giovanni 1
cooper@@ 1
basados 1
ectar 1
pares 1
creador 1
pensar 1
alcanzado 1
Código 1
esco@@ 1
Microsoft 1
Rein@@ 1
procedimiento 1
preci@@ 1
ald@@ 1
recuer@@ 1
reforz@@ 1
Lib@@ 1
Alex 1
construidos 1
Recibió 1
verti@@ 1
endida 1
Literatura 1
igas 1
Originalmente 1
trag@@ 0.6076014931311257
Day 0.38823193282492546
tot@@ 0.8610411865842821
coster@@ 1
cubre 1
bati@@ 1
sex@@ 1
consegu@@ 1
gn@@ 1
puntuación 1
fósiles 1
asteroides 1
esi@@ 1
arquitect@@ 1
hacían 1
almirante 1
construy@@ 1
Sum@@ 0.8751296821346558
UCI 1
certific@@ 1
procedente 1
8,@@ 1
jus@@ 1
imit@@ 1
incluidas 1
tienden 1
propuesto 1
viuda 1
tecnologías 1
dal@@ 1
aní 1
sustituido 1
intensi@@ 1
contraste 1
precisamente 1
Azul 1
latino@@ 1
venezol@@ 1
olla 1
aficionados 1
Guay@@ 1
amiga 1
Bulgaria 1
cristiano 1
entradas 1
siente 1
campesinos 1
ífico 1
Capit@@ 1
diz@@ 1
prol@@ 1
15@@ 0.9816112305944122
aeron@@ 1
armada 1
ze@@ 0.44808464824397415
extensa 1
cerebro 1
subfamilia 1
iniciales 1
Mak@@ 0.6855627595655521
ígenes 1
Honor 1
Información 1
asociaciones 1
vér@@ 1
ántico 1
llevada 1
representó 1
Estudi@@ 1
localiza 1
Diario 1
´ 1
Elizabeth 0.5686709397939818
Antiguo 1
frutos 1
AP 1
compuso 1
plataformas 1
masas 1
conseguido 1
asist@@ 1
bula 1
FI@@ 1
legales 1
guía 1
atmósfera 1
icismo 1
funciona 1
icon@@ 1
consiguiendo 1
our 0.23362903427882048
Tim@@ 0.8614764734964819
quis@@ 1
cubierto 1
Championship 0.22960100468610378
bando 1
Alb@@ 1
nuestros 1
blan@@ 1
privileg@@ 1
pose@@ 1
Navidad 1
sonidos 1
cedido 1
espectáculos 1
astre 1
continuidad 1
odoro 1
1888 0.7599724204013193
Ra@@ 0.7638250202276703
sentencia 1
arto 1
nido 1
viviendo 1
abandonado 1
centra 1
dy 0.4928184240512032
parecido 1
dejaron 1
Mand@@ 0.7134038191428339
acep@@ 1
dirigentes 1
evacu@@ 1
awa 0.8199253997027636
Tan@@ 0.7704906887477625
Lac@@ 1
federales 1
Hans 0.45860506440564763
correspondientes 1
Oficial 1
esco 1
imperi@@ 1
well 0.062236451032546256
acús@@ 1
Esa 1
ih@@ 0.7261880215996226
Integr@@ 1
libras 1
ñado 1
Rum@@ 1
aer 1
Humanos 1
paralelo 1
arlas 1
Han@@ 0.5844955540236093
quera 1
relacion@@ 1
simples 1
cercanas 1
usados 1
inspec@@ 1
CA 0.9120191762289624
Gro@@ 0.5700615610674973
Veracruz 1
Camino 1
instancia 1
antil 1
disputado 1
asión 1
celular 1
mer 0.2281757064582634
cionado 1
realista 1
Laura 1
deportivos 1
eñas 1
nombramiento 1
Medellín 1
US@@ 0.6315981291889847
miedo 1
sucedido 1
ogía 1
carbón 1
Rol@@ 1
inmun@@ 1
extremadamente 1
asentamientos 1
× 0.58626183500484
ingo 1
lanzaron 1
suficientemente 1
impresión 1
Yo 1
catorce 1
descubrir 1
sustan@@ 1
popul@@ 1
SC 0.5479955329498424
Dado 1
destacando 1
protagonizó 1
Union 0.16056884810796582
concreto 1
sí@@ 1
reemplazo 1
tilla 1
estacion@@ 1
Dal@@ 0.8305859940791933
venezolano 1
glaci@@ 1
técnicos 1
previa 1
DE@@ 1
caci@@ 1
limitado 1
recaud@@ 1
Association 0.1877275807582918
Prado 1
Ant@@ 1
timo 1
gram@@ 1
blind@@ 1
erras 1
adyac@@ 1
leer 1
localizada 1
aler@@ 1
lingü@@ 1
espir@@ 1
suspendi@@ 1
respectiv@@ 1
Oviedo 1
sistem@@ 1
temática 1
inar 1
play 0.1284389176920281
óxido 1
positivo 1
bancos 1
terminado 1
Área 1
Adam 0.7079088658628875
Adolfo 1
refugio 1
dición 1
protesta 1
abildo 1
oxid@@ 1
tenga 1
Mauricio 1
respondió 1
Paso 1
cadá@@ 1
fam@@ 1
Archivo 1
Little 0.5290389129305968
consist@@ 1
Perman@@ 1
punk 1
uv@@ 0.8813644832788515
Congo 1
Coruña 1
apoyó 1
gobernante 1
banqu@@ 1
laboral 1
ener@@ 0.8374953009575398
nazi 1
acán 1
heter@@ 1
oxígeno 1
PS@@ 1
clan 1
eter 0.5588170911074962
tenis 1
escolar 1
inclinación 1
Napoleón 1
Cav@@ 1
sé@@ 0.6196990077592213
vidrio 1
Lag@@ 1
SA@@ 0.8845778479529866
festivales 1
ren 1
responsables 1
conforman 1
tea 1
rodaje 1
à@@ 1
directores 1
cadenas 1
discrimin@@ 1
ocupando 1
ícula 1
dónde 1
Kon@@ 0.29864814685054203
elevada 1
facilit@@ 1
pasan 1
François 0.48771752517064987
Ortiz 1
VI@@ 1
Log@@ 1
pendientes 1
valid@@ 1
asignado 1
socio 1
espada 1
yar@@ 1
fili@@ 1
latina 1
ian 0.24287008569233048
contenidos 1
sujeto 1
usualmente 1
contribuyó 1
desempeña 1
asistencias 1
rol@@ 1
iz 1
Liberal 0.9964892451273341
frecu@@ 1
onista 1
sey 0.6040997762223352
emis@@ 1
agos 1
necesarios 1
mana 1
utilizadas 1
virtud 1
amante 1
brig@@ 1
quizás 1
Sir 0.36874973433281627
extrem@@ 1
Pop@@ 1
aprobado 1
pobladores 1
side 0.11810413282216235
emitido 1
discográfico 1
kl@@ 0.34050022703245647
garanti@@ 1
men 0.09074673048344908
fundamentalmente 1
Administr@@ 1
crucero 1
Ú@@ 1
destruir 1
éndolo 1
Boys 1
héroes 1
áneo 1
Jan@@ 0.671294710410098
dram@@ 1
encio 1
Mexicana 1
ider@@ 1
1893 0.6907399059162876
Sam 0.8298446925099779
top 0.1600554385221188
capac@@ 1
Op@@ 0.4977638384083381
ath@@ 0.3714607005108533
anuncio 1
vena 1
prestigio 1
francesas 1
tratados 1
reproducción 1
AT 1
1500 0.9891418947438975
uas 1
cambiado 1
Lanz@@ 1
ille 0.3510205091036095
ejercer 1
varía 1
convertiría 1
renovación 1
Tiempo 1
permanece 1
ny@@ 0.8246781187207366
fases 1
Trabajó 1
inga 1
armado 1
Madre 1
vieran 1
Dam@@ 0.7162212608182619
recep@@ 1
dichas 1
dificultad 1
altamente 1
calificación 1
copia 1
incorporación 1
trazado 1
acidad 1
cé@@ 1
Mancha 1
modern@@ 1
soberanía 1
Letras 1
inaugurada 1
invadi@@ 1
ongo 1
bus 0.4406360387533032
fiere 1
tre@@ 0.37732304186230214
dos@@ 1
tent@@ 1
cuar@@ 1
mental 0.8918278923578979
investigador 1
torado 1
Legisl@@ 1
Lem@@ 1
East 0.17435557502351945
10.@@ 0.7987009803009295
anus 0.8932479737275735
oter@@ 1
permitir@@ 1
formalmente 1
visitar 1
arcas 1
bier@@ 1
eficiente 1
avia 1
contemporánea 1
Cand@@ 1
anarqu@@ 1
respeto 1
Sex@@ 1
inspirado 1
caballero 1
tillo 1
Eric 0.8852990740718294
Forma 1
descrip@@ 1
dias 1
Lab@@ 1
Ciudad@@ 1
Revista 1
uda 1
radiación 1
ificaciones 1
artificial 1
diarios 1
iscal 1
Romano 1
beneficio 1
idén@@ 1
Bibli@@ 1
asio 1
ulo 1
futbol@@ 1
fina 1
Mateo 1
aumenta 1
habilit@@ 1
Awards 0.2748327241657064
bolivi@@ 1
participando 1
ologías 1
comunistas 1
consistía 1
mis 0.5402318378696574
Canción 1
precisión 1
DE 1
reserv@@ 1
unido 1
recibiendo 1
emergencia 1
irland@@ 1
coinc@@ 1
Convención 1
colap@@ 1
Indias 1
doctrina 1
ascendido 1
brind@@ 1
renom@@ 1
arina 1
débil 1
propul@@ 1
componente 1
lave 1
emisiones 1
icion@@ 1
republic@@ 1
destacada 1
pérdidas 1
absoluto 1
entan 1
Duc@@ 1
masculina 1
Nintendo 1
Brigada 1
certamen 1
Blan@@ 1
16@@ 0.8559977572817383
tanques 1
enviar 1
bó@@ 1
osaur@@ 1
adecuado 1
Valparaíso 1
mamíferos 1
astron@@ 1
LA 0.9294085338197148
Francesa 1
sufrido 1
c. 1
pandemia 1
sabor 1
Ejempl@@ 1
ascendencia 1
obispos 1
with 0.006736574812095614
Campos 1
superfici@@ 1
ingen@@ 1
mera 1
Natural 1
6,@@ 1
pierde 1
Había 1
bol 1
permitiendo 1
codific@@ 1
diseñada 1
Agencia 1
mención 1
nic@@ 1
seguida 1
Lev@@ 0.9546102503697249
acre 1
competencias 1
identificación 1
supre@@ 1
digitales 1
exitoso 1
gigante 1
Bes@@ 0.9232765881599619
huir 1
reform@@ 1
1892 0.6832636972080902
Paraná 1
fo@@ 0.35099776642823743
ampliación 1
mapa 1
hero@@ 1
contenía 1
1800 1
matriz 1
monumentos 1
soviética 1
Hay@@ 0.7559140082733119
estaría 1
positiva 1
trasladado 1
S.A. 1
1868 0.8466500639830744
isco 1
árqu@@ 1
ass@@ 0.18064423959042575
navegación 1
1885 0.6774578281724626
vern@@ 0.7111021972033199
mascul@@ 1
peruana 1
clasificó 1
líquido 1
tend@@ 0.7470128192720026
isto 1
peor 1
pa@@ 0.8056963125703399
cae 1
retratos 1
selecciones 1
mé@@ 0.5827829877407191
rugby 0.6505018690337103
LE@@ 1
núcleos 1
MTV 1
filosó@@ 1
Pau@@ 1
errores 1
sostiene 1
Luisa 1
Rad@@ 0.4347736131719273
tocó 1
iko 1
foro 1
lumin@@ 1
semin@@ 1
ano@@ 1
emer@@ 1
E.@@ 1
iten 0.5817440956205772
magné@@ 1
excel@@ 1
eus 1
pecho 1
fieles 1
meteor@@ 1
Alan 0.8999757583328264
Ferro@@ 1
andra 1
ñez 1
orías 1
uniforme 1
préstamo 1
ochenta 1
portero 1
cortometr@@ 1
concesión 1
Roja 1
delegación 1
Praga 1
muer@@ 1
ū@@ 0.8114816338082619
Cantabria 1
Ray 0.8874414227385949
magistr@@ 1
refleja 1
Aun 1
arroyo 1
visitas 1
Exposición 1
enamor@@ 1
congres@@ 1
clasificados 1
Tecn@@ 1
traje 1
acont@@ 1
cúpula 1
Banda 1
cantar 1
setenta 1
emplea 1
previsto 1
Pamplona 1
clav@@ 1
incluían 1
símbolos 1
académicos 1
itarias 1
exteriores 1
Friedrich 0.3433977727317384
vag@@ 1
cose@@ 1
restabl@@ 1
1894 0.6761792020642713
lieg@@ 1
1886 0.7354531100568442
Mam@@ 1
estrat@@ 1
modificaciones 1
eer 1
Lov@@ 1
conclusión 1
ticul@@ 1
It@@ 1
entada 1
fragmentos 1
Carr@@ 1
Ahora 1
Guadalupe 1
Sony 1
adquisición 1
leta 1
bera 1
Cy@@ 0.891308503732765
imi@@ 1
legislación 1
comprom@@ 1
Rab@@ 1
talla 1
iliz@@ 1
Vuelta 1
cobr@@ 1
asistir 1
sit@@ 0.9712909211235077
mentación 1
autén@@ 1
boda 1
preocupación 1
anualmente 1
regla 1
Sport 0.7912460527980685
Metropolitana 1
Cot@@ 1
enfrentarse 1
lan 0.8676190370722835
adelant@@ 1
cionar 1
identi@@ 0.8871504881557073
minerales 1
rehabilit@@ 1
Game 0.5591599651333586
Quir@@ 1
bert 0.540974149226079
perfil 1
yan 0.6788019185314552
defens@@ 1
gor@@ 1
suspensión 1
Punta 1
azada 1
ham@@ 1
Mic@@ 1
iniciaron 1
celebrar 1
períodos 1
Sigu@@ 1
ci 0.22879151345379847
suelos 1
fundamentales 1
bau@@ 0.40999861619216554
labor@@ 1
fle@@ 0.6826389964910827
pref@@ 1
Anti@@ 0.820389153293728
Atlanta 0.9310212683628947
Reserva 1
americanas 1
llamarse 1
escul@@ 1
verdes 1
operativo 1
diplomático 1
Han 1
vein@@ 1
Fac@@ 1
yn 0.701691127694003
Infantería 1
PSOE 1
viernes 1
Presidencia 1
epíteto 1
ko@@ 0.5063098293864491
zi@@ 0.38808831326246085
distinción 1
Antigua 1
conductor 1
Toronto 0.5337241353679671
Mallorca 1
ses@@ 1
Blo@@ 1
Tucumán 1
octavo 1
rayos 1
valles 1
prende 1
cuán@@ 1
esté 1
sens@@ 1
moderni@@ 1
dific@@ 1
defensor 1
participan 1
asedio 1
galería 1
manejo 1
extremos 1
privados 1
nit@@ 1
Sede 1
encargada 1
Je@@ 0.6103516436420479
deste 1
casarse 1
vacío 1
ecuación 1
acr@@ 1
poderoso 1
utos 1
Star@@ 0.6490391547219442
iki 0.45435906867179626
palest@@ 1
Corporation 0.49720375985985743
armon@@ 1
compi@@ 1
Jim 0.6657753794914066
rector 1
olog@@ 1
ódromo 1
Ball@@ 0.7097836743419983
tendr@@ 1
Kansas 0.6705545351589093
orum 1
alemanas 1
franquicia 1
soviéticos 1
comenzado 1
pi 1
épocas 1
ø@@ 0.629634962169376
Sep@@ 1
Diseño 1
gre@@ 0.8881174187566294
veget@@ 1
observa 1
YouTube 1
escas@@ 1
iliano 1
jin@@ 1
sudeste 1
configuración 1
explosión 1
lé@@ 1
Sofía 1
rest@@ 0.712301789806455
festiv@@ 1
egan 1
jun@@ 1
Lara 1
sacerdotes 1
publicaron 1
precipit@@ 1
cotidi@@ 1
low 0.17784259317473078
capturado 1
And@@ 1
impl@@ 1
hici@@ 1
reconocer 1
ífica 1
ítul@@ 1
sustitución 1
cruce 1
erie 0.5772423038005163
identificar 1
vivido 1
Rot@@ 0.5965912026708194
asunto 1
Comp@@ 1
Douglas 0.7667861818568288
electrónico 1
sospe@@ 1
ff 0.4473520851292476
erá 1
agot@@ 1
erig@@ 1
dosis 1
mejoras 1
tantos 1
var. 1
financiera 1
1884 0.7403258262993931
Coronel 1
formar@@ 1
tejido 1
Jan 0.7625776245136062
manteniendo 1
supuestamente 1
Ka@@ 0.73705776830926
Catal@@ 1
van@@ 1
Templo 1
negras 1
parroquial 1
registrado 1
Anderson 0.8004993249887126
Yugoslavia 1
film 0.04877782385491399
mecanismos 1
desarrollada 1
jeron 1
Dolores 1
oriente 1
acudi@@ 1
ami@@ 1
Tenerife 1
bajista 1
Caballero 1
escasa 1
heridas 1
misa 1
reputación 1
inclin@@ 1
asim@@ 1
lano 1
dro@@ 0.5639440120707118
marchó 1
detener 1
divid@@ 1
diera 1
eira 1
ceb@@ 1
Reforma 1
remot@@ 1
{ 0.6093914496641047
ibérica 1
vertical 1
ocurrido 1
vieja 1
campus 0.5894900507698084
ABC 0.9101396950990664
celebrada 1
traslado 1
Monumento 1
evid@@ 1
1879 0.7801005643220477
alfabetización 1
bizant@@ 1
esperar 1
orbital 1
autoriz@@ 1
conocía 1
tista 1
expon@@ 1
jero 1
Gri@@ 1
biendo 1
ish 0.25032596454838085
lac@@ 1
Ferr@@ 1
compositores 1
ogén@@ 1
ladr@@ 1
represión 1
mens@@ 1
Sr. 1
Oxford 0.5769200987442765
Stephen 0.6493846274031588
ofrecen 1
mm. 1
proclamó 1
Spider 1
Suc@@ 1
MA 0.8009926676486342
Tir@@ 1
cuerdas 1
socios 1
electorales 1
otorga 1
af 1
consig@@ 1
obtuvieron 1
circ@@ 1
monarquía 1
transferencia 1
Pav@@ 1
uti@@ 0.922984836415786
desnu@@ 1
Studios 0.8048013291253238
wa 0.22872224488791598
Beach 0.6255961313924256
critas 1
custo@@ 1
Aten@@ 1
alberg@@ 1
mang@@ 1
utilizaron 1
percep@@ 1
Belgrano 1
adquirido 1
Cí@@ 1
antiles 1
atleta 1
gust@@ 1
ll@@ 1
remonta 1
conduce 1
culas 1
algorit@@ 1
érico 1
Ak@@ 0.3556320293650784
Esti@@ 1
nec@@ 1
periodistas 1
espalda 1
repertorio 1
separados 1
ball@@ 0.7506252170921727
elles 0.21866221041959766
habitualmente 1
MS 0.7070693655398419
kov 1
entando 1
uruguayo 1
Ric@@ 1
Jr 0.700373124435779
universitaria 1
sentimientos 1
infr@@ 1
visitante 1
carp@@ 1
inund@@ 1
santuario 1
acercarse 1
austri@@ 1
Tit@@ 1
quedar 1
unda 1
mati@@ 1
mármol 1
aflu@@ 1
lógica 1
Bos@@ 0.722199233790937
uri 0.9343280278224425
sorpresa 1
filósofo 1
teléfono 1
ónom@@ 1
barroco 1
registró 1
Conc@@ 1
discusión 1
rostro 1
Kn@@ 0.4871759636525922
resist@@ 1
env@@ 1
900 1
Sant 1
conversión 1
Land@@ 0.22107322659334536
Tex@@ 1
Caballer@@ 1
terci@@ 1
sio 1
ificar 1
Ner@@ 1
cil@@ 1
Broadway 0.951850610033459
arroz 1
senti@@ 1
tripul@@ 1
Clara 1
relativa 1
templos 1
describir 1
pí@@ 1
Publ@@ 1
enne 0.2726302321595431
ze 0.27344440677772397
húmed@@ 1
neos 1
Jose@@ 1
observación 1
paragu@@ 1
rodeado 1
IM@@ 1
Minnesota 0.6222667731433668
generaciones 1
1887 0.7107855388177448
bibliot@@ 1
atacó 1
demostrar 1
cuartel 1
infin@@ 1
opera 0.9342600451382813
bado 1
adquirir 1
activamente 1
URSS 1
clín@@ 1
urbanos 1
Barran@@ 1
Boca 1
idencia 1
modos 1
mínima 1
nova 1
Armenia 1
Juárez 1
encontramos 1
marino 1
personalidades 1
básicos 1
cina 1
formaba 1
jud@@ 1
variaciones 1
republicano 1
Lincoln 0.7635225274797396
Sun 0.5657237513916632
recepción 1
veinti@@ 1
Mik@@ 0.9068809422486372
asociada 1
Comun@@ 1
ero@@ 1
ess 0.17348694974854023
Justo 1
colocó 1
Salv@@ 1
Marcelo 1
previo 1
intelectuales 1
dula 1
disminución 1
Andrea 1
alqu@@ 1
vecino 1
Francis 0.5408799463279542
Ast@@ 1
dam@@ 0.8383747236644091
Carl@@ 1
vangu@@ 1
fradía 1
actuando 1
enfrentaron 1
isten 0.3967435903619357
zano 1
desconocido 1
dor 1
entrevistas 1
representando 1
Biblia 1
Pet@@ 0.9789444786920892
arial 1
fra@@ 1
mita 1
omor@@ 1
amina 1
firió 1
rescate 1
franc@@ 1
canc@@ 1
dependiente 1
esquel@@ 1
Constantinopla 1
pudieran 1
Proces@@ 1
créditos 1
retr@@ 1
surge 1
integrante 1
deg@@ 1
irlo 1
enfrentamientos 1
verdad@@ 1
brevemente 1
rse 1
característico 1
controversia 1
electricidad 1
Asi@@ 1
plen@@ 1
24@@ 0.5502117675330337
ner@@ 0.40132949584251854
Johann 0.35694422173494994
Yucatán 1
abellón 1
exclus@@ 1
sud@@ 1
Afganistán 1
formaciones 1
FM 0.510580284115033
kr@@ 0.4332342959040148
Ret@@ 1
mús@@ 1
stru@@ 1
procede 1
Andrew 0.5656033925439168
estra 1
modernas 1
tel 0.4877344889925832
Particip@@ 1
colina 1
distribuye 1
flor 1
Bartolomé 1
Maestro 1
ifica 1
permanecer 1
pertenec@@ 1
ógica 1
Laur@@ 1
Bet@@ 0.9517053994614625
volcán@@ 1
IC 0.9753512247463868
comerciantes 1
complejos 1
Pío 1
serpi@@ 1
compl@@ 0.4818218117714914
presentada 1
Radi@@ 0.87272648532059
Ávila 1
Nac@@ 1
declaraciones 1
tía 1
aren@@ 1
plantilla 1
secundario 1
Vivi@@ 1
variables 1
On 0.03740362060029921
significativa 1
1850 0.7612937375951419
suc@@ 1
abar@@ 1
laguna 1
sombr@@ 1
azón 1
capas 1
interven@@ 1
ole@@ 1
ow@@ 0.2877761514208965
ajus@@ 1
efectivo 1
Flora 1
abl@@ 1
TE@@ 1
Plant@@ 1
sis 1
Ah@@ 0.9009670061889711
set 0.11212684967418084
1881 0.7226327652359252
iguales 1
hir@@ 1
incorpora 1
map@@ 1
favorable 1
dominante 1
desempeño 1
roqu@@ 1
Pakistán 1
Obtuvo 1
pati@@ 1
Deportiva 1
1876 0.7441802009792645
específicos 1
restaurante 1
apartam@@ 1
contrajo 1
dinámica 1
contemporáneo 1
Indiana 0.7036754210423657
critos 1
promedió 1
anfitri@@ 1
centímetros 1
logo 1
bill@@ 1
sospech@@ 1
hechas 1
procur@@ 1
Tailandia 1
Pad@@ 1
bás@@ 1
lesiones 1
busc@@ 1
subcampeón 1
dibuj@@ 1
mir 1
firmar 1
veno 1
ganadora 1
lunes 1
ap 0.4588774416992391
isc@@ 1
Iván 1
Señ@@ 1
Taiwán 1
Zú@@ 1
mencionar 1
ventana 1
Hispan@@ 1
enerse 1
Eus@@ 1
ix@@ 1
británicas 1
acaba 1
onada 1
clor@@ 1
asumir 1
asesor 1
DA 1
quebr@@ 1
Fort 0.4095373234862071
evidente 1
bic@@ 1
colectivo 1
gravedad 1
vertebr@@ 1
Electoral 1
tela 1
cuento 1
dem 0.016315172345453644
parada 1
costumbre 1
perros 1
ácidos 1
espe@@ 1
Capilla 1
financiero 1
Leonardo 1
Ash@@ 0.5935029614500958
azos 1
1871 0.6740406719349002
cable 1
Palestina 1
ordenado 1
Anteriormente 1
impulso 1
MI@@ 1
crímenes 1
empat@@ 1
Emperador 1
alp@@ 1
Ramos 1
inéd@@ 1
ingresar 1
iny@@ 1
curr@@ 1
explicar 1
opciones 1
úl 1
Road 0.21110133275956802
mán@@ 1
Mérida 1
varones 1
arquitectos 1
medicam@@ 1
Alfred 0.6289528218698531
bóveda 1
incu@@ 1
reservas 1
rotación 1
tuviera 1
acepta 1
camar@@ 1
Campeón 1
Clausura 1
cura 1
nar 1
ham 0.46730110811572345
redon@@ 1
atis@@ 1
Alber@@ 1
mej@@ 1
edido 1
Nelson 0.9720864293055259
temprano 1
criterios 1
saque@@ 1
Kevin 0.8900383706634791
Miller 0.6910285105274869
Zo@@ 1
cerró 1
Estudiantes 1
Galería 1
irían 1
ónimos 1
degrad@@ 1
preocup@@ 1
estí@@ 1
Monte@@ 1
destruc@@ 1
áculo 1
sm@@ 1
átom@@ 1
echos 1
labores 1
cord@@ 1
Johnny 0.9910143114601383
Sicilia 1
Eva 1
alcohol 1
coste 1
lleno 1
suyo 1
ander@@ 1
bloques 1
trav@@ 1
abund@@ 1
rivales 1
cliente 1
Whit@@ 0.6046490280251035
N.º 1
dedica 1
Tal 1
huesos 1
Occidente 1
interiores 1
Bak@@ 0.8101218837947968
arro 1
char 1
Michel 0.5805031209009752
patas 1
ors 0.0937641918377285
cantantes 1
ándol@@ 1
Alg@@ 1
Bruce 0.930789536537596
anfi@@ 1
Naval 0.8595815945848744
ásticas 1
Nick 1
mantienen 1
Míchigan 1
perif@@ 1
reciben 1
Fut@@ 1
nativa 1
oceno 1
arti@@ 1
videos 1
mico 1
Hip@@ 1
diseñó 1
Video 0.8568378792112514
Manz@@ 1
tercio 1
Niño 1
Rose 0.7024044412283251
ideología 1
implant@@ 1
típica 1
ath 0.36651094257063815
iss@@ 0.38830395023384756
Bab@@ 0.7716421794193069
amba 1
bulo 1
www.@@ 1
Meg@@ 1
conservador 1
out 0.043411361611753914
Let@@ 1
Mach@@ 0.9606444914397632
Da@@ 0.8911397525898281
atraviesa 1
ieran 1
constantemente 1
cueva 1
Lit@@ 0.9927173116183358
Buc@@ 0.965520462927998
1878 0.6785356047486549
ganadores 1
ck 0.4983824889556485
llamaba 1
reconoci@@ 1
ensos 1
Editorial 1
allón 1
inoc@@ 1
Junior 0.6059528889902195
turístico 1
gótico 1
abundante 1
ome@@ 0.8893435363840703
gel@@ 0.21790422114296645
quedado 1
Rally 1
Victor 0.6988926131397616
ubicados 1
escuchar 1
ocurr@@ 1
Warner 1
fonos 1
ć 0.7218683926127851
gü@@ 1
sacrif@@ 1
tural 1
internas 1
almacenamiento 1
Howard 0.7047765824449146
ingen 0.23929383846988012
PC@@ 1
Arn@@ 1
Pekín 1
espaci@@ 1
expl@@ 1
ógeno 1
Fuentes 1
Ges@@ 0.6626239545445961
contemporáneos 1
Jimmy 0.9593860249362249
Rod@@ 1
jamás 1
áculos 1
enderse 1
Escrit@@ 1
1882 0.7137117984359723
propone 1
combatir 1
ocult@@ 1
real@@ 1
industrias 1
carro@@ 1
conecta 1
presid@@ 1
Lat@@ 0.6413351018834639
bi 0.7254927480030641
congreso 1
sos 1
Siendo 1
polin@@ 1
circun@@ 1
onga 1
Ki@@ 0.6079775467879281
procesión 1
iluminación 1
capacidades 1
lana 1
pobre 1
rección 1
seri@@ 1
State 0.08990119581715628
ítima 1
declarada 1
Ecu@@ 1
guila 1
Verano 1
etr@@ 1
repos@@ 1
vivieron 1
23@@ 0.6964924411908292
Julián 1
Long 0.428588283122656
pelo 1
tall@@ 1
nasia 1
ism@@ 1
ificado 1
comedi@@ 1
cumbre 1
cito 1
izas 1
Evangel@@ 1
ril 1
audio 1
destruido 1
igna 1
Termin@@ 1
osc@@ 1
atribuye 1
Gas@@ 0.6900134438817148
Ingenier@@ 1
humanas 1
Golfo 1
interacción 1
depen@@ 1
Azerbaiyán 1
Franc@@ 1
1864 0.6938169424576357
Etimología 1
conformado 1
ruptura 1
exper@@ 1
Allen 0.753025910928184
Sw@@ 0.47914199922036055
opía 1
sobr@@ 1
ecosist@@ 1
rente 1
Marta 1
examin@@ 1
estética 1
quel 1
Juli@@ 1
asia 1
finalidad 1
reinos 1
imo 1
Gobern@@ 1
mater@@ 1
Tradi@@ 1
enem@@ 1
Hem@@ 0.9146519172087031
sedi@@ 1
refugiados 1
integral 1
persa 1
telev@@ 1
onal@@ 1
orientales 1
1883 0.7300458492543986
Arti@@ 1
Estonia 1
aceptadas 1
luchó 1
ándolos 1
delito 1
Sho@@ 0.6557526475269213
acerc@@ 1
instalar@@ 1
tratando 1
km. 1
básica 1
cabezas 1
rueda 1
sel 0.6107733940438885
amarca 1
roj@@ 1
álisis 1
Win@@ 0.5169417164145033
herramienta 1
grabada 1
poniendo 1
facilitar 1
muertes 1
ingu@@ 1
Arri@@ 1
But@@ 0.9117430720691394
cripciones 1
definido 1
húngaro 1
Boy 0.9461618657944201
dama 1
CF 1
deportivas 1
añadió 1
permitido 1
tránsito 1
banc@@ 1
disminuy@@ 1
terio 1
Chu@@ 1
generó 1
sú@@ 1
marcada 1
Armadas 1
regularmente 1
indio 1
Especi@@ 1
Madonna 1
Valent@@ 1
síntesis 1
genética 1
onto 0.7434438977755186
laron 1
K. 0.7075269381825356
Arts 0.2561698004467532
comenzando 1
Anthony 0.7178351617191255
Carab@@ 1
Hermandad 1
consejero 1
Base 1
urg@@ 0.6301873670128358
Ali 0.551462173042509
impuso 1
Monasterio 1
caracteres 1
suspen@@ 1
ME@@ 0.9811041849719842
desapareció 1
1865 0.7003165484099007
esión 1
interpret@@ 1
Argelia 1
enam@@ 1
vil 1
gubernamentales 1
cartu@@ 1
ígen@@ 1
Femenino 1
placas 1
beca 1
evi@@ 1
nitr@@ 1
nominado 1
Alem@@ 1
God@@ 0.8707159808989599
Ef@@ 1
ites 0.262778473234319
delitos 1
aprendi@@ 1
Alcalá 1
pase 1
ueve 1
way 0.089984488197505
significativo 1
Especial 1
liberado 1
apart@@ 1
expresa 1
ake 0.3032111143602047
Dist@@ 1
célebre 1
hot@@ 1
incluyeron 1
its 0.020166916830405834
existían 1
postura 1
recuperó 1
adecuada 1
mata 1
Malasia 1
dispers@@ 1
colombiana 1
jubil@@ 1
pers@@ 1
instrucciones 1
adolescente 1
3000 1
alimento 1
literalmente 1
preserv@@ 1
experimental 1
teri@@ 1
abandono 1
crédito 1
otomano 1
maestra 1
gastos 1
ondas 1
polémica 1
ache 0.5200253632616689
alias 1
giras 1
ód@@ 1
Herr@@ 1
Mit@@ 0.3977651399950529
aman@@ 1
sburgo 1
Clima 1
mulo 1
químico 1
ques@@ 1
1830 0.8787049365268114
Def@@ 1
apoder@@ 1
fabricante 1
Fall@@ 1
continuo 1
niñas 1
1848 0.6584704492695013
Arque@@ 1
ime 1
Long@@ 0.7727905899517693
internet 1
tramos 1
aux 0.04011195501802452
simul@@ 1
usual 1
post 0.2267418564589145
pusieron 1
ick@@ 0.2836017726543535
Monterrey 1
exactamente 1
plato 1
mantenido 1
marinos 1
iter@@ 1
Bell 0.7801230816735033
patrones 1
responde 1
ulado 1
reconocidos 1
folcl@@ 1
genera 1
podido 1
elación 1
probabilidad 1
INE 1
Vera 1
nad@@ 1
André 0.6961878472505315
Kepler 1
establ@@ 1
boc@@ 1
model@@ 1
activista 1
creencia 1
Paris 0.09669390327920546
uri@@ 1
CV 1
Mujer 1
disfr@@ 1
funer@@ 1
pasión 1
emper@@ 1
ablo 1
golfo 1
proporción 1
bits 1
móviles 1
bio@@ 1
rechazo 1
ministros 1
anj@@ 1
sufrir 1
vuel@@ 1
pent@@ 1
grabados 1
levantamiento 1
caudal 1
Guayaquil 1
Fis@@ 1
curva 1
Arena 0.9291653857995564
específica 1
1840 0.85711920265892
aband@@ 1
redact@@ 1
acon@@ 1
ases 0.9948973771504389
realistas 1
identificado 1
Estaba 1
luc@@ 1
Hir@@ 0.7461808336973724
Navarro 1
Lady 0.5295643844484095
Pilar 1
Prusia 1
módul@@ 1
aprobada 1
turco 1
amistoso 1
puentes 1
logros 1
paisajes 1
determinada 1
suficientes 1
vamente 1
fortuna 1
petrol@@ 1
1867 0.7048430798530814
revuelta 1
gráficas 1
presion@@ 1
Tap@@ 1
contando 1
ises 0.29554759741392955
montes 1
ópteros 1
Comics 1
Igu@@ 1
aragon@@ 1
od 0.5370373564061701
Iber@@ 1
extra 0.9186440873252567
UC@@ 1
igiendo 1
impuesto 1
uz 1
ladrillo 1
uelto 1
casada 1
huelga 1
quiso 1
aprender 1
armados 1
hil@@ 1
abstr@@ 1
fij@@ 1
legend@@ 1
London 0.1089177274830697
luna 1
dramatur@@ 1
eli 0.7761715287443389
prefectura 1
Rodolfo 1
legi@@ 1
dirigente 1
ólicos 1
Josep 1
armad@@ 1
alli@@ 0.6939900705087251
mobili@@ 1
aug@@ 1
ein@@ 0.087188853448288
vice@@ 1
Sy@@ 0.5231958125779174
neum@@ 1
asamblea 1
regi@@ 1
Les@@ 0.7525250586308803
descubri@@ 1
Bay 0.2702235335927674
progreso 1
1873 0.719635659962545
Cambridge 0.5970234136554282
ligas 1
cuerda 1
enfrentar 1
madril@@ 1
enia 1
Composición 1
arqueológicos 1
Secre@@ 1
cubri@@ 1
experimentos 1
gam@@ 1
muebles 1
meta 1
Agricultura 1
efectiva 1
nieve 1
exhibición 1
part@@ 0.8271132560886307
smo 1
ficar 1
clandest@@ 1
Ran@@ 0.6926372426841391
requisitos 1
organiza 1
tira 1
Cus@@ 1
cubrir 1
olina 1
RI@@ 0.9713102414343298
sucedi@@ 1
asientos 1
sul@@ 0.8522439107325684
cup@@ 1
romper 1
ATP 1
explí@@ 1
brasileña 1
aplica 1
concedi@@ 1
universitarios 1
cerrada 1
iniciado 1
australiano 1
Esqu@@ 1
cip@@ 1
ésimo 1
Universo 1
soluciones 1
Pach@@ 1
fri@@ 0.7131975407261486
entera 1
externa 1
tag@@ 1
llanura 1
invas@@ 1
mensajes 1
1861 0.6665472808537009
asesino 1
rop@@ 1
Limita 1
Arist@@ 1
rara 1
Valenciana 1
restaurantes 1
12.@@ 1
fanes 1
difíciles 1
emisora 1
reiv@@ 1
tubo 1
arre@@ 1
sinc@@ 1
interesante 1
Cub@@ 1
itó 1
suy@@ 1
desembocadura 1
desarrollaron 1
abora 1
hos@@ 1
Bruselas 1
Morgan 0.8620987481952398
empar@@ 1
misiles 1
ponerse 1
meridional 1
evaluación 1
pianista 1
herb@@ 1
Británica 1
Go 0.880053962986112
presentaba 1
Pit@@ 1
falt@@ 1
diec@@ 1
entados 1
designación 1
esquema 1
haría 1
promovi@@ 1
Qui@@ 1
periodos 1
Puerta 1
destacadas 1
lagos 1
ous 0.08398925915140402
Lang@@ 0.4009584067052235
esencial 1
depósitos 1
considerablemente 1
creencias 1
destitu@@ 1
expresó 1
yer@@ 1
liger@@ 1
veía 1
Perón 1
Zar@@ 1
Film 0.14132457408732046
toler@@ 1
1,5 0.9545707502720019
Queen 0.3554142574856195
tru@@ 1
túnel 1
provision@@ 1
constituyó 1
1875 0.7068605797897151
Trujillo 1
documentación 1
els 0.1368993439513778
ken 0.1439102495826023
promot@@ 1
Moore 0.7680958717611012
alumno 1
pulgadas 1
Lau@@ 0.7776228308668278
cc 1
Ker@@ 0.4788933145312281
Ilus@@ 1
Cis@@ 1
Mej@@ 1
faro 1
poetas 1
reacciones 1
ligero 1
afa 1
anunciado 1
bueno 1
eu 0.41620722402581184
tario 1
derivados 1
migración 1
AR 1
Is 0.6027760409211325
Rioja 1
toros 1
consiguieron 1
Pale@@ 1
lava 1
Cáceres 1
1872 0.7195472406355976
kg. 1
Google 0.936285953655021
concretamente 1
vestido 1
públicamente 1
UU. 1
dedicarse 1
mundiales 1
redacción 1
She@@ 0.7472086263779814
separadas 1
ess@@ 0.20936930887114183
oriales 1
1869 0.7576067786883327
contribución 1
ener 0.32391845662920465
Uri@@ 1
ate@@ 1
inco 1
vertic@@ 1
Patri@@ 1
Americana 1
mantuvieron 1
descanso 1
ecidos 1
cend@@ 1
esperado 1
house 0.11714664970474041
secuela 1
despleg@@ 1
polo 1
temporalmente 1
nas 1
Danubio 1
tocando 1
card@@ 1
Orleans 1
ífero 1
egios 1
Pertenece 1
enviados 1
escuch@@ 1
ogen@@ 0.878622208531108
ambientales 1
bí@@ 1
equiv@@ 1
tamb@@ 1
PlayStation 1
Vía 1
provoca 1
femin@@ 1
retroc@@ 1
Ortega 1
peri@@ 1
aceptación 1
científicas 1
obisp@@ 1
diálogo 1
camiseta 1
intas 1
Núñez 1
110 0.8036707748975878
tranqu@@ 1
cifras 1
Cantón 1
desvi@@ 1
tox@@ 1
26@@ 0.7765918021399995
TA 0.8651763415060162
dera 1
ps@@ 1
Bec@@ 1
Julia 1
any@@ 0.5317177168940479
sufre 1
ventajas 1
Jane 0.8128509118346156
crimin@@ 1
áneas 1
Obispo 1
Bank 0.3129285001355655
Eg@@ 0.858550785363553
Up 0.7406175993250134
licenciatura 1
eur@@ 1
Fondo 1
narra 1
trajo 1
Industrial 1
Tecnología 1
hidrógeno 1
provisional 1
vigor 1
exhib@@ 1
óf@@ 1
aparato 1
bet@@ 0.9751153514891223
integra 1
conducta 1
apoyado 1
seud@@ 1
Sag@@ 1
prototipo 1
Houston 0.7161150552351059
futura 1
apareciendo 1
castig@@ 1
norma 1
ji@@ 1
lineal 1
Elec@@ 0.9221241785377045
positivas 1
químicos 1
conflu@@ 1
pintores 1
bombas 1
Nom@@ 1
Pul@@ 0.8584080583183124
11.@@ 0.8695172002286032
Pop 1
facultad 1
logos 1
lucr@@ 1
ack 0.4254433942889361
computadora 1
garantizar 1
Bad@@ 0.608257466337915
a. 0.41673717407538413
defensores 1
prima 1
retom@@ 1
mér@@ 1
diosa 1
Que 1
erlo 1
vigilancia 1
jorn@@ 1
onmano 1
1863 0.6742993185164611
Digital 1
1874 0.7020470279860811
Ryan 0.8230026832026587
Audiencia 1
coreano 1
Isidro 1
Your 0.8295741680918237
élite 1
tribun@@ 1
dieta 1
Gru@@ 0.9866168380309087
Henri 0.5171755590944112
demuestra 1
editó 1
terminaron 1
TV@@ 1
bom@@ 1
Sídney 1
Fus@@ 1
creen 1
3D 0.9695678206629023
Clubes 1
tejidos 1
induc@@ 1
mosa 1
onde 1
umin@@ 1
selva 1
simultáneamente 1
Corazón 1
afueras 1
condi@@ 1
itor 1
turistas 1
Eurovisión 1
descendencia 1
célula 1
ix 0.7426540003612349
Vig@@ 1
dibu@@ 1
guardia 1
tej@@ 1
tenemos 1
arch@@ 0.33378907025942356
cuentas 1
baterista 1
consult@@ 1
deciden 1
impos@@ 1
Men 0.4178618630584553
investigar 1
húng@@ 1
rectangular 1
News 0.4316187245806476
ascendió 1
ócratas 1
religi@@ 1
terrestres 1
Misuri 1
intensa 1
ager 0.4235878264376523
PS 0.5328886652402643
mencionada 1
Ry@@ 0.8481683136301855
Cabrera 1
Sat@@ 0.804381819643645
Soto 1
alab@@ 1
Técn@@ 1
tray@@ 1
chicas 1
carn@@ 1
prosper@@ 1
cañ@@ 1
pino 1
convertir 1
produciendo 1
Clark 0.7211201633704811
emplaz@@ 1
ator@@ 0.9050426085642302
Segovia 1
juveniles 1
Batallón 1
encaden@@ 1
estrechamente 1
Coc@@ 1
anales 1
ert 0.15980767359924913
ampl@@ 1
onias 1
recurso 1
abreviado 1
entretenimiento 1
fotos 1
difer@@ 1
correspon@@ 1
vera 1
frontal 1
Petersburgo 1
transcurso 1
frustr@@ 1
Rib@@ 1
financieros 1
auge 1
profesion@@ 1
horario 1
segmento 1
invern@@ 1
exploración 1
aterrizaje 1
10,@@ 1
ban 0.3153592524259879
configur@@ 1
invitada 1
lujo 1
internos 1
educativo 1
museos 1
velocidades 1
virrey 1
ferencia 1
pro 0.3884105118242614
aviación 1
Iglesias 1
ayudante 1
vivos 1
meros 1
periodismo 1
iler 0.5222244016905916
potencias 1
ualmente 1
live 0.19850961144466378
anch@@ 1
bec@@ 1
Baloncesto 1
relevancia 1
Colo 1
op 0.4720729583563219
derivado 1
Matt 0.941531816624452
Vin@@ 1
pretendía 1
Conse@@ 1
existir 1
edes 1
umi 1
solicitud 1
ferrovi@@ 1
apres@@ 1
separa 1
bicic@@ 1
oph@@ 0.3236120463329371
ativ@@ 1
oslov@@ 1
Iz@@ 1
alizaciones 1
ept@@ 1
ock 0.3923942590791229
perteneció 1
Energ@@ 1
siva 1
grup@@ 1
parques 1
quesa 1
variación 1
ajed@@ 1
guarnición 1
voluntarios 1
dedi@@ 1
sexu@@ 0.756452778460642
testimonio 1
triunf@@ 1
dirigidos 1
Fase 1
Vázquez 1
suave 1
Llegó 1
Bau@@ 0.20061403593743657
alba 1
cler@@ 1
proced@@ 1
sintetiz@@ 1
che@@ 0.5531911110130339
entero 1
gi 1
Harvard 0.7263818405416822
O. 1
ž@@ 0.6867464541602453
afu@@ 1
ondo 1
olo@@ 0.9525782599764392
élites 1
EE.UU. 1
Viol@@ 1
picamente 1
ína 1
ST@@ 0.6579677639460523
ONU 1
diá@@ 1
crece 1
definitivo 1
aco@@ 1
directiva 1
onóm@@ 1
anchura 1
eng 0.5207581795571734
Ministr@@ 1
Velasco 1
Varsovia 1
fest@@ 0.7407632108716566
ministerio 1
Corn@@ 1
mensu@@ 1
utili@@ 1
contribuciones 1
bizantino 1
rendi@@ 1
terioridad 1
azgos 1
llena 1
masiva 1
búlgar@@ 1
aquia 1
1857 0.8290513392278913
encargo 1
Resultados 1
fisi@@ 1
fren@@ 1
originario 1
descendiente 1
Billy 0.8990302588535158
centrocampista 1
ies 0.14360794744657387
signos 1
éndol@@ 1
1866 0.5595354742985473
RA 0.9827295427470064
encontrados 1
aderos 1
prohi@@ 1
SP@@ 0.6392422277036999
bailar@@ 1
basadas 1
híbr@@ 1
té 0.4818597175016025
avances 1
Sociales 1
11@@ 1
dieciséis 1
cuad@@ 1
hembra 1
inus 0.9205754543016494
cráneo 1
básico 1
caud@@ 1
escribiendo 1
localización 1
eden 0.949648654834798
mineral 1
Journal 0.47636092741008856
nio 1
contra@@ 1
fiel 0.8709705746559924
tación 1
Continu@@ 1
Dir@@ 1
Open 0.2865624078008579
componen 1
corteza 1
trasera 1
Filadelfia 1
divis@@ 1
comienda 1
pasados 1
130 0.8356050218318376
reúne 1
franqu@@ 1
Kit@@ 0.7812415965003625
goleador 1
Jaén 1
áñez 1
óticos 1
colonización 1
Rin 1
ash 0.5003385313337625
trigo 1
condados 1
Conservatorio 1
Cri@@ 1
armen@@ 1
facto 1
franco 1
causar 1
intérprete 1
Lucía 1
hipot@@ 1
vigente 1
revolucionario 1
Charlie 0.9265111183829973
nosotros 1
Nacionales 1
farmac@@ 1
guitarr@@ 1
umer@@ 1
idez 1
vs 1
arbitr@@ 1
Dob@@ 1
geográfico 1
Construc@@ 1
referente 1
Jú@@ 1
comer 1
disper@@ 1
meg@@ 1
CD@@ 0.9001686038354075
peg@@ 1
máxim@@ 1
paseo 1
neerlandés 1
ustr@@ 1
trin@@ 1
gó@@ 1
ecieron 1
Bach@@ 1
Investigaciones 1
situados 1
27@@ 0.761114126261411
Detroit 0.7726288422750857
venganza 1
Kas@@ 0.42095243843414704
PR@@ 1
Feria 1
convertir@@ 1
Bien@@ 1
Franklin 0.8660605094368256
Ambas 1
convencional 1
operar 1
ticismo 1
funcionar 1
1877 0.6684226192222111
geografía 1
sábado 1
culpa 1
lema 1
testigo 1
Domin@@ 1
Holanda 1
Luz 1
fort 0.30740744621887384
joy@@ 1
\ 0.9642537245584271
tonos 1
alternativo 1
vegetales 1
Rolling 1
ejes 1
Shi@@ 0.6089213043333657
gracia 1
influenci@@ 1
resultaron 1
forzar 1
Olímpico 1
geométr@@ 1
suministro 1
isario 1
mara 1
rad@@ 0.8694924278050252
detención 1
juntas 1
erna 1
Ámsterdam 1
sabía 1
artís@@ 1
escuadra 1
diagnóstico 1
Andr@@ 1
conceb@@ 1
Hombre 1
sensación 1
Embaj@@ 1
caf@@ 1
presentarse 1
únicas 1
autobuses 1
1862 0.6415493959034385
Anne 0.4492738210104914
via 0.2044244640806943
cier@@ 1
git@@ 1
izos 1
Roca 1
dola 1
correo 1
pirat@@ 1
sped 1
dependencia 1
ciudadanía 1
comb@@ 1
diseñador 1
reper@@ 1
articul@@ 1
laje 1
quint@@ 1
00@@ 0.7411836837524822
Dan 0.80311236754
Jerónimo 1
hacienda 1
ester 0.6311988378293174
ópolis 1
noru@@ 1
ranking 1
otipos 1
undos 1
sucesos 1
more 0.03556952084256953
matr@@ 1
Chávez 1
sustancias 1
gados 1
memor@@ 1
terminando 1
perpet@@ 1
toras 1
Calderón 1
Demócrata 1
separada 1
usaba 1
ail@@ 0.4330499199601187
period@@ 1
quedarse 1
extrema 1
profundamente 1
viv@@ 1
Iowa 0.6688816492896908
munici@@ 1
marav@@ 1
uos 1
AI@@ 0.779129392091882
elevación 1
destinada 1
ilegal 1
proveniente 1
ultades 1
sintió 1
Fol@@ 0.5872004099657767
catálogo 1
convenc@@ 1
ny 0.5067518746249046
intern@@ 1
ídos 1
Tac@@ 1
cómic 1
Girl 0.901559849948983
Mov@@ 1
carg@@ 1
habrían 1
filtr@@ 1
cortas 1
prision@@ 1
motocic@@ 1
concepción 1
combus@@ 1
Fri@@ 0.7527713734564275
peculi@@ 1
Hil@@ 0.736222079104793
delic@@ 1
Kennedy 0.8104473038476366
vocales 1
Gordon 0.695853403216657
conforme 1
Apple 0.8844978035903309
Corpor@@ 1
Oliver 0.9770792960355014
erup@@ 1
Democrático 1
Eugenio 1
lero 1
mito 1
I.@@ 1
oco 1
sing@@ 0.8296708772215464
ran 0.2516124773983969
cristi@@ 1
desconoce 1
redujo 1
sombra 1
traducido 1
éntr@@ 1
tanque 1
tendencias 1
marin@@ 1
Cali 1
faz 1
ū 1
Dakota 1
hayan 1
recoge 1
Amor 1
Chap@@ 1
dispuesto 1
itz@@ 0.43086087299142106
bella 1
estros 1
Corr@@ 1
Dep@@ 1
Agua 1
regulación 1
provinciales 1
ars 0.19414452711017083
Grab@@ 0.6991543748290151
estabiliz@@ 1
Patrick 0.5386057392217348
Nigeria 0.9102191957812585
accident@@ 1
unen 1
relevantes 1
poblada 1
polvo 1
gubernamental 1
ofensi@@ 1
Diputación 1
asesinatos 1
proyección 1
simbol@@ 1
cómics 1
Pom@@ 0.9403235773420474
cirugía 1
giro 1
triun@@ 1
Constitucional 1
himno 1
fábricas 1
quet 0.9512714460775179
Dicho 1
Eti@@ 1
Comandante 1
asesinados 1
ium 0.445554617879714
derr@@ 1
publicadas 1
maqu@@ 1
SO@@ 0.8728566560766927
ush@@ 0.7001049690219496
dens@@ 1
plac@@ 1
sacar 1
receptor 1
Creek 0.3666587183083329
conducción 1
secos 1
Oaxaca 1
aliado 1
expulsión 1
inclusión 1
opiniones 1
medir 1
cusión 1
Inicios 1
calificó 1
p. 1
Almería 1
yacimiento 1
Democ@@ 1
apost@@ 1
riz@@ 1
vivi@@ 1
ólicas 1
ibn 1
Zap@@ 1
dimensión 1
desarrollan 1
redu@@ 1
valo 1
Got@@ 1
psicología 1
equival@@ 1
17@@ 0.7722921316865738
Jud@@ 0.7200902203291021
jueces 1
constantes 1
moléculas 1
planificación 1
humedad 1
ichi 1
Alt@@ 0.5880442701591406
ke@@ 0.31396113721648816
polit@@ 1
compati@@ 1
locomot@@ 1
} 0.5883956626748167
étn@@ 1
Extremadura 1
fil 1
marx@@ 1
entrevist@@ 1
ocia 1
adi 0.7646777111127826
metales 1
ingre@@ 1
Salta 1
cancha 1
Jor@@ 1
acost@@ 1
Rumania 1
ficamente 1
és@@ 1
playas 1
naranja 1
aplicar 1
apodo 1
embr@@ 0.9124252517848594
AE@@ 1
burgu@@ 1
conces@@ 1
pav@@ 1
N. 0.9678682508961126
ters 0.17816977037124543
endieron 1
Marte 1
Montes 1
domic@@ 1
Dicha 1
Parte 1
perten@@ 1
queta 1
detenidos 1
afirmando 1
tillas 1
Clas@@ 1
óc@@ 1
angular 1
mató 1
istos 1
federado 1
ocasionalmente 1
tumb@@ 1
Nag@@ 0.6074116255788314
décima 1
expresidente 1
ológicamente 1
peras 1
28@@ 0.7749836962054995
Renacimiento 1
Kol@@ 0.4191694748064353
hispan@@ 1
bé 1
considerarse 1
matrim@@ 1
Reci@@ 1
potente 1
teor@@ 1
oscura 1
astur@@ 1
erud@@ 1
grima 1
ops 0.602831609442634
distinto 1
árbi@@ 1
1810 1
irlandés 1
derrotas 1
Datos 1
Cortés 1
construidas 1
necesarias 1
venen@@ 1
bri@@ 0.8936348577070731
biología 1
húmedo 1
feo 1
lera 1
Leopoldo 1
restricciones 1
iros 1
http 1
tina 1
raci@@ 1
dominios 1
inspiró 1
significativamente 1
socialistas 1
Mich@@ 0.8336574398522926
medias 1
1820 0.785049618574619
dramática 1
eck 0.3841350435130029
macul@@ 1
caliente 1
Hamburgo 1
autonóm@@ 1
argentinos 1
conoci@@ 1
dicen 1
rosas 1
dices 1
llaman 1
tul@@ 1
conexiones 1
producidos 1
alit@@ 1
manzana 1
volcán 1
DJ 0.8431615759111328
bros 1
Estat@@ 1
icus 1
rano 1
Industria 1
lap@@ 1
refin@@ 1
caras 1
formaban 1
protec@@ 1
cubiertas 1
Fá@@ 1
Mut@@ 0.8515059051876206
conservadores 1
podr@@ 1
Home 0.4480935954774956
Sang@@ 1
jera 1
frutas 1
multiplic@@ 1
subur@@ 1
rito 1
solía 1
Sarah 0.7519958601736026
écn@@ 1
manifestación 1
aldeas 1
ocl@@ 1
mostrando 1
Declar@@ 1
Montreal 0.7965412675383147
bru@@ 1
relev@@ 1
intenso 1
comunicado 1
cruzar 1
prohibición 1
podrá 1
entino 1
Ind@@ 1
Otto 0.5136226478976189
armadas 1
transit@@ 1
introducido 1
ída 1
Manhattan 1
aclar@@ 1
alejarse 1
Arz@@ 1
Kelly 0.7930268114413254
cinemat@@ 1
dinosaur@@ 1
policial 1
Días 1
Sporting 1
ocasion@@ 1
ebra 1
financiación 1
marqu@@ 1
franja 1
popularmente 1
vuelven 1
Vegas 1
Autor@@ 1
Ubicación 1
Dun@@ 0.5112815176080637
béisbol 1
emitida 1
encerr@@ 1
macho 1
nom@@ 0.4932934874032889
Ras@@ 0.8676966142143673
acan@@ 1
fenómenos 1
Borbón 1
Russell 0.7973110567599703
deteri@@ 1
nominada 1
cumplimiento 1
Cinco 1
fundar 1
tili@@ 1
combinado 1
cálculo 1
diput@@ 1
Liberación 1
bierto 1
Abu 1
ingenieros 1
capturar 1
eral 1
ciudadano 1
Cientí@@ 1
Jord@@ 1
isos 1
síndrome 1
aca@@ 1
ciona 1
excavaciones 1
hablan 1
adoptado 1
ografías 1
entraron 1
preguntas 1
colaboradores 1
irregular 1
Chin@@ 0.9509221583059805
remon@@ 1
bab@@ 1
novel@@ 1
orbitales 1
Británico 1
propag@@ 1
abundantes 1
mí 1
delimit@@ 1
odio 1
Bravo 1
corre 1
enfrenta 1
beta 1
gases 1
Ví@@ 1
autobi@@ 1
automovil@@ 1
Americ@@ 1
ius 0.5999159853308131
Bil@@ 0.46249192336371825
Wisconsin 0.5612364778677167
acusaciones 1
silencio 1
quidiócesis 1
ular@@ 1
omun@@ 1
Minas 1
requieren 1
descubierta 1
Ginebra 1
empezar 1
Técnica 1
evangel@@ 1
aseguró 1
ametrall@@ 1
gerente 1
destruida 1
ormente 1
Albacete 1
finland@@ 1
ec 1
armamento 1
específicas 1
pretende 1
favorables 1
Estadística 1
ð@@ 1
eibol 1
Bohemia 1
Rubén 1
Aguirre 1
Bandera 1
PP 1
29@@ 0.8232854742394253
sirven 1
Sun@@ 0.7261970609608895
deten@@ 1
olos 1
UE 1
eliz 1
Network 0.5221124661856804
entimiento 1
improvis@@ 1
ráp@@ 1
Pis@@ 1
Ross 0.7482348654355551
testimon@@ 1
Christopher 0.7830131194563279
condena 1
uelos 1
mini@@ 1
escalera 1
maquin@@ 1
maestría 1
tados 1
sucede 1
up 0.034831102628913764
· 0.07010631654141346
embalse 1
inales 1
monjes 1
eléctricos 1
Vélez 1
irán 1
contaminación 1
Hubo 1
GT 1
campan@@ 1
galardonado 1
1833 1
Arabia 1
liderado 1
1812 0.90354043109646
avanzada 1
mig@@ 1
Negra 1
Mesa 1
asi 1
depósito 1
Old 0.31544778345275276
maya 1
primarias 1
zón 1
ien 0.2038080645582285
mio 1
Público 1
parroquias 1
portal 1
Pictures 1
comprensión 1
Singapur 1
habitaciones 1
mexicanos 1
énfasis 1
legislatura 1
comparte 1
conservado 1
gén@@ 1
abad 0.8034822824321536
buscaba 1
CC@@ 0.7879579704321609
ly@@ 0.3611883021261023
membrana 1
derrotados 1
promedi@@ 1
Casas 1
blemente 1
matemático 1
sobren@@ 1
Seminario 1
larse 1
planetas 1
25@@ 0.8265508104622359
MP@@ 0.7286311958408428
NO@@ 0.7976777314819299
secund@@ 1
USA 0.22765974575003708
suizo 1
aceptado 1
izados 1
ámicas 1
Fir@@ 0.9643239058836626
Tin@@ 1
cría 1
enen 0.19746498096398446
Estocolmo 1
examen 1
Pirineos 1
subordin@@ 1
1821 1
atriz 1
campeona 1
observaciones 1
ernas 1
ku@@ 0.5268534044972608
Kom@@ 0.3367313493242978
confirmado 1
estándares 1
ansi@@ 1
camin@@ 1
alan 0.649411052953358
ics 0.17866776313244714
Die 0.014254718441579543
orro 1
razon@@ 1
peti@@ 1
permiti@@ 1
D.@@ 1
deportistas 1
reemplazar 1
tano 1
vener@@ 1
cargas 1
muralla 1
R.@@ 1
Vizcaya 1
dividió 1
France 0.057827848320845254
implementación 1
oth@@ 0.34152092602373574
air@@ 0.21967115623965358
avera 1
disc@@ 1
corredor 1
zor@@ 1
procedimientos 1
Sección 1
mpica 1
accede 1
ectiva 1
Ty@@ 0.6459070446082296
Maxim@@ 1
Gloria 1
eau 0.18496870219016398
encarga 1
him@@ 1
fech@@ 1
telé@@ 1
ómicas 1
cuadrado 1
desarrollando 1
min 0.6114284830415305
Mr 1
metod@@ 1
fer 0.19203417296153444
provocando 1
abadía 1
ds 0.18697195921924437
embajada 1
Alba 1
lie 0.36574600746963326
expect@@ 1
extracción 1
ii 1
reflex@@ 1
crónica 1
siquiera 1
tempor@@ 1
Alicia 1
vir 1
acuñ@@ 1
vamp@@ 1
maneras 1
censura 1
iment@@ 1
interpretaciones 1
profes@@ 1
Mod@@ 0.7951455467875732
jugaron 1
valió 1
Intel@@ 1
defici@@ 1
eal 1
Hamilton 0.5560919096656254
Jer@@ 1
ití 1
úl@@ 1
maf@@ 1
ł@@ 0.4146629191486817
Glob@@ 1
piensa 1
muñ@@ 1
nominación 1
australiana 1
ferro@@ 1
Registro 1
Wilhelm 0.3263537445822437
m. 1
margin@@ 1
centen@@ 1
We 0.3532761038209504
Comunicación 1
notablemente 1
pendiente 1
redonde@@ 1
emig@@ 1
180 0.8586260375033159
Amp@@ 1
achi 1
abuela 1
avoz 1
ement@@ 1
transmitir 1
permitieron 1
animada 1
virtual 1
trabajan 1
Bosnia 1
amenazas 1
funcionario 1
chico 1
cinematográfico 1
facilidad 1
ise 0.09608333877141605
abiertos 1
put@@ 1
realismo 1
agregó 1
enberg 0.4258207321564454
desci@@ 1
AD 0.5889960213819896
preparar 1
Cementerio 1
protegida 1
manuscrito 1
Aplic@@ 1
caracter@@ 1
utilizaba 1
causando 1
escog@@ 1
oi 0.8997194723556167
send@@ 1
Institute 0.18010140154265555
luces 1
ray@@ 1
congel@@ 1
Empe@@ 1
vu@@ 1
rompió 1
1859 0.6879938586644407
celebran 1
agricul@@ 1
vierten 1
violación 1
Oro@@ 1
Grammy 1
alum@@ 1
engo 1
apro@@ 1
clasificar 1
mapas 1
poblados 1
Angel 1
litros 1
afro@@ 1
republicanos 1
avanzar 1
Nevada 1
atractivo 1
jidad 1
René 0.9819842741140324
cambiando 1
manifi@@ 1
artísticas 1
reseñas 1
Franz 0.4329379719406696
Lleg@@ 1
alumin@@ 1
Camb@@ 1
Legislatura 1
alis@@ 0.5333000587100523
gig@@ 1
séptima 1
anuncia 1
arric@@ 1
estuario 1
quedaba 1
transpar@@ 1
Will 0.8617276130697229
uertos 1
Playa 1
agon@@ 1
Estructura 1
éticamente 1
reduce 0.7898805698644733
Tig@@ 1
caballeros 1
teología 1
pensó 1
ingos 1
hebreo 1
conjunta 1
pendientemente 1
Crist@@ 1
Power 0.5159795138197869
renombr@@ 1
pasaba 1
Adel@@ 1
odos 1
Song 0.3852648145878941
aconse@@ 1
arquitectónico 1
involuc@@ 1
ome 0.35841819639194494
fino 1
aparente 1
bloqueo 1
rut@@ 1
direcciones 1
Can 1
Juniors 1
obreros 1
Rub@@ 1
íaca 1
Acu@@ 1
Toro 1
perfor@@ 1
Arch@@ 0.6525156222628765
Sólo 1
Territorio 1
cátedra 1
nazis 1
Carter 0.8554356915307534
altad 1
destinados 1
señores 1
protegido 1
tablas 1
televisiva 1
hur@@ 0.592527468376567
mayoritariamente 1
datan 1
lingüística 1
distinta 1
Fur@@ 0.9500512439132519
13,@@ 1
Arroyo 1
filo 1
ficó 1
academia 1
electrones 1
infección 1
Lagos 1
surgieron 1
Monum@@ 1
Sindic@@ 1
obtenidos 1
sust@@ 1
galax@@ 1
itada 1
50@@ 0.7179312207263067
platos 1
16,@@ 1
autas 1
odía 1
adolescentes 1
elaborado 1
ílica 1
Reconoc@@ 1
concer@@ 1
tena 1
bach 0.22638279107416992
eada 1
recuerdo 1
2,5 0.9846506596041241
arrestado 1
rich 0.5953607630627388
Autom@@ 0.9992472375988992
Jason 0.8968755918495354
signo 1
0.000 1
jurídica 1
óloga 1
Túnez 1
arta 1
Aguilar 1
Aparte 1
fundaron 1
use 0.05698764084558583
Kil@@ 0.466069791330139
beros 1
divulg@@ 1
plic@@ 1
catedrático 1
quím@@ 1
TC 0.9057641128323058
euc@@ 1
obligados 1
ria 1
Villanueva 1
yacimientos 1
atentado 1
baño 1
magia 1
rivalidad 1
escrit@@ 1
Simpson 1
internacion@@ 1
Gau@@ 0.5553904644581821
latitud 1
intentaron 1
roco 1
Feder@@ 1
Gén@@ 1
quot 1
Andy 0.8885639843280728
taba 1
finca 1
Telec@@ 1
tril@@ 1
civilización 1
explicación 1
Euroc@@ 1
Universitaria 1
desplazamiento 1
judici@@ 1
portugueses 1
bautizado 1
emento 1
alz@@ 1
aun@@ 0.5783374903921785
erró@@ 1
Tul@@ 1
reunir 1
defendió 1
crita 1
aerolínea 1
ascend@@ 1
bordes 1
especialidad 1
propaganda 1
ciudad@@ 1
Wi@@ 0.5066657445630535
ciclismo 1
situadas 1
Fuego 1
AB@@ 0.8629713159926216
óx@@ 1
Austin 0.7984884024582497
carbon@@ 1
feminista 1
daría 1
mercancías 1
oide 1
aud 0.6748057900441384
intens@@ 1
quel@@ 1
violín 1
Diana 1
relevante 1
ech 0.6373047547212697
tarjeta 1
decorado 1
inmigración 1
oe 0.84595120073115
videoclip 1
Estrella 1
oniendo 1
estatura 1
tropología 1
rog@@ 1
ógraf@@ 1
arqueológico 1
Control 1
Eli@@ 1
cubano 1
enga 1
sequ@@ 0.872783901886554
Hierro 1
Jes@@ 1
llevaban 1
turcos 1
Bárbara 1
Estadísticas 1
expulsado 1
jam@@ 1
Donald 0.7058197908704882
Primero 1
amist@@ 1
lent@@ 1
octava 1
uciones 1
ferroviario 1
auta 1
eventualmente 1
próximos 1
confeder@@ 1
erle 1
350 0.9012288320384246
Corrientes 1
juicios 1
sentimiento 1
sustancia 1
uelas 1
rindi@@ 1
occidente 1
Valley 0.2896537636607081
criminal 0.814054117731987
eléctricas 1
³ 1
arist@@ 1
Athletic 0.8255221210078776
exhi@@ 1
Macedonia 1
oamericana 1
robo 1
asume 1
conec@@ 1
Garr@@ 1
listado 1
Toponimia 1
cual@@ 1
tornos 1
ñón 1
incre@@ 1
ricas 1
disparo 1
Diócesis 1
judic@@ 1
lina 1
Dav@@ 0.6477613637159378
aven@@ 1
cería 1
gadas 1
sia 1
Who 0.838629061801644
gradualmente 1
Ellos 1
ámb@@ 1
cristal 1
rever@@ 1
amateur 0.8091390775995152
ejecutado 1
West@@ 0.23885511751804425
intendente 1
eramente 1
sugirió 1
nati@@ 1
albergar 1
instaur@@ 1
indicar 1
Equipo 1
posesiones 1
lidas 1
organ@@ 0.484128227045354
simpli@@ 1
Océano 1
tible 1
tral 1
Lyon 0.6424098488624953
Pascual 1
instalado 1
partí@@ 1
bél@@ 1
pios 1
Jalisco 1
ique 0.2707578750922169
Do 0.6315100884332958
cerem@@ 1
clínica 1
ses 0.039926663839462424
aldas 1
ays 0.20087822464713617
noventa 1
certificado 1
epí@@ 1
danés 1
noc@@ 1
constituido 1
IT@@ 0.9312274633808074
Tito 1
a- 1
pp@@ 0.3272820527855996
Vent@@ 1
nacionalista 1
conjuntamente 1
royos 1
fija 1
1858 0.7612999797520201
designó 1
reducida 1
humor@@ 1
allos 1
altern@@ 1
Física 1
xi 1
detalle 1
nativo 1
Adams 0.7557703382222678
Argent@@ 1
bola 1
exclusiva 1
abiertas 1
equi@@ 1
Eslovaquia 1
Twitter 1
luchas 1
cilindros 1
compartir 1
etto 1
brica 1
extranjeras 1
ison 0.46792359054226773
Public@@ 1
creados 1
Gur@@ 0.9295698020302569
Chec@@ 1
mantenía 1
platino 1
1856 0.7259661912802712
dispuso 1
coleccion@@ 1
asiático 1
correspondencia 1
adorn@@ 1
bacterias 1
edic@@ 1
att@@ 0.22459636088272172
optera 1
funcional 1
urbanas 1
atracción 1
conformada 1
partid@@ 1
Matr@@ 1
amo@@ 0.9063808019967734
noches 1
repe@@ 1
Parroquia 1
evolu@@ 1
agas 1
antigu@@ 1
uk 0.6426432752209971
Paralímpicos 1
antemente 1
lando 1
12,@@ 1
Esperanza 1
santos 1
dedicados 1
200@@ 0.9447824072717121
worth 0.35722061615572165
Abraham 1
éndum 1
largometraje 1
pilares 1
acial 1
ès 0.3698464482685322
iev@@ 1
CS@@ 0.7333728067710078
Bruno 1
nodo 1
exter@@ 1
consideradas 1
campes@@ 1
cabello 1
British 0.07224445338703454
ló@@ 1
Paula 1
AL 1
anticip@@ 1
infl@@ 1
veza 1
uano 1
supervivencia 1
suya 1
véase 1
5.000 1
AN 1
Frontera 1
Out 0.6142169207566981
Ky@@ 0.8077980664778472
estelar 1
enzo 1
acios 1
tomada 1
ligera 1
pesado 1
ting 0.08637837243459875
existió 1
denominados 1
manual 1
Dá@@ 1
biografía 1
amplió 1
Soria 1
Profesor 1
Sudamericana 1
ficticio 1
ste@@ 0.17444574755181647
funda 1
sar 1
Test@@ 1
érica 1
baron 1
pau@@ 1
Fiestas 1
vinos 1
cher 0.2150402903788742
oposit@@ 1
buscó 1
electrónicos 1
uelve 1
soc@@ 1
cones 1
plástico 1
venía 1
CN@@ 1
aeronaves 1
correr 1
quiz@@ 1
ícola 1
marcando 1
descarga 1
precipitaciones 1
Miembro 1
Públicas 1
ont 0.05567677587694629
Isaac 1
ajust@@ 1
torn@@ 1
arga 1
tiros 1
fuga 1
net 0.3138947781123514
cuanti@@ 1
manifiesto 1
pacto 1
Theatre 0.3361853778290597
uría 1
mí@@ 1
port 0.180543145280336
manuscritos 1
novio 1
Batman 1
hueso 1
luchador 1
maci@@ 1
bro@@ 0.37659751738382635
espor@@ 1
instrucción 1
Igualmente 1
Draft 0.8540777145479873
disciplin@@ 1
PA 0.5870276780695552
Viv@@ 1
perió@@ 1
arista 1
espectro 1
reanud@@ 1
Tras@@ 1
Shar@@ 0.610221390088457
Mercado 1
ilustraciones 1
éstos 1
M.@@ 0.6948906333473064
ensamb@@ 1
Rick 1
nar@@ 0.7314463276002382
írculos 1
Gam@@ 1
sugi@@ 1
Raw 1
atil@@ 1
1854 0.7481743885240484
costos 1
old 0.09075983122559173
olor 1
Tec@@ 1
Atle@@ 1
Rosas 1
victori@@ 1
volvería 1
Lituania 1
bíbl@@ 1
censada 1
music@@ 1
puntu@@ 1
entregado 1
explicó 1
norm@@ 1
vial 1
acompañada 1
habituales 1
Roque 1
procesamiento 1
rodeada 1
All@@ 0.4631344861761984
ánimo 1
HD 0.8447459576676378
viva 1
Pac@@ 1
porción 1
compuestas 1
demócrata 1
lento 1
contactos 1
representaba 1
Inclu@@ 1
1814 0.9257283471929175
bury 0.47046986153264425
Sonora 1
Bad 0.4570996018057498
repi@@ 1
básicamente 1
embri@@ 1
ocol@@ 1
also 0.013198598330652822
Siete 1
Walker 0.7115317929981341
circuns@@ 1
oficio 1
paci@@ 1
aj 0.8396081824192029
militantes 1
Od@@ 0.9897446907424726
Alice 0.7220247162899399
Clemente 1
escándalo 1
fila 1
Sancho 1
125 0.8863036126443915
Escudo 1
dorado 1
1855 0.7448052983440642
Post 0.34875134765005705
crecer 1
colon@@ 1
inflam@@ 1
inundaciones 1
cifr@@ 1
net@@ 0.7279269089182427
eficiencia 1
tortu@@ 1
queso 1
Conv@@ 1
singular 1
descu@@ 1
Biz@@ 1
huracán 1
line@@ 1
respectivos 1
ads@@ 1
encomend@@ 1
prud@@ 1
señorío 1
Alaska 0.9357336285495202
cerebral 1
Salazar 1
es.@@ 1
fit@@ 1
materias 1
40@@ 0.7296138313386747
acordó 1
contratos 1
Ebro 1
any 0.07571621660038881
consistente 1
Ray@@ 1
Wood@@ 0.5388015391206641
Casi 1
lamiento 1
aster@@ 0.950516654261651
back 0.07014872647907601
volver@@ 1
aff@@ 0.26601683020043493
Vice@@ 1
160 0.871142918517506
Brooklyn 0.799728019312148
Conce@@ 1
Il 0.023769903833119395
espar@@ 1
expresiones 1
Agrilus 1
ál 1
Band 0.20785709224790025
dij@@ 1
cónsul 1
fusil@@ 1
eas@@ 1
catalana 1
cono 1
osp@@ 1
Airlines 0.9755588834633063
Izquierda 1
Cob@@ 1
Bernard 0.5732183401946188
Caj@@ 1
preser@@ 1
relata 1
Fiesta 1
istr@@ 1
querían 1
Kiev 1
testig@@ 1
Comer@@ 1
from 0.006443009088575653
Kin@@ 0.48298787447660085
Camer@@ 1
Nec@@ 1
Terr@@ 0.9853763808737716
discipl@@ 1
Badajoz 1
eman 0.47886104331146795
desemboc@@ 1
13.@@ 0.9955148502040183
Channel 0.5303081799990508
ON@@ 1
Bran@@ 0.6741804546919992
esencialmente 1
Lisa 1
ow 0.2613336941406286
Bac@@ 1
toca 1
formarse 1
reparti@@ 1
esca 1
Villar@@ 1
señora 1
compleja 1
palos 1
aber@@ 1
tributo 1
Vid@@ 1
raf@@ 1
istir 1
ith 0.5607106616295824
geo 1
hr@@ 0.3803285650121626
uza 1
Sara 1
ejempl@@ 1
quier@@ 1
timas 1
marcar 1
gato 1
escondi@@ 1
aristoc@@ 1
Jonathan 0.8764944857771889
ensas 1
fresco 1
presos 1
rup@@ 1
excentr@@ 1
list@@ 0.6531876746728289
materi@@ 1
amen@@ 1
brasil@@ 1
controver@@ 1
nik 0.7601164101438626
Marc 0.7047753916338858
corresp@@ 1
Benjamin 0.6812276949254996
Francesco 1
Micro@@ 1
Basílica 1
Che@@ 0.6703826121869692
Sports 0.37190214562156365
psiqui@@ 1
gesti@@ 1
angu@@ 1
franquista 1
mill@@ 0.9489975185505718
Dance 0.7206727801534426
Malvinas 1
edía 1
artic@@ 1
arum 1
cipes 1
informa 1
Roy 0.7170973386309227
Liverpool 0.652303068279396
orte 1
Las@@ 1
Ñ@@ 1
subir 1
sult@@ 1
Harris 0.6899506453114052
catalan@@ 1
Tim 0.7500505471687584
icana 1
Dave 0.7446938746042281
Monta@@ 1
yo@@ 0.8768568779359167
teca 1
arrastr@@ 1
15,@@ 1
agan 1
Edificio 1
perfecto 1
Quebec 0.7288256181132875
niega 1
toman 1
Laborat@@ 1
Polit@@ 1
itudes 1
promovido 1
africana 1
veng@@ 1
Liceo 1
iri 0.7281398732273886
Arias 1
o.@@ 1
IP 0.7618660354386579
Biel@@ 1
radicales 1
reinato 1
vela 1
ă@@ 0.6343576114918025
protoc@@ 1
Equi@@ 1
Imag@@ 1
Radical 1
Contempor@@ 1
neerland@@ 1
ries@@ 1
ym@@ 0.42653063942204256
ectar@@ 1
alcanzaron 1
Him@@ 1
huer@@ 1
Borgo@@ 1
Acuerdo 1
aduc@@ 1
tech@@ 1
refugi@@ 1
Lorena 1
fug@@ 1
vej@@ 1
opo 1
Quin@@ 1
explosi@@ 1
tez 1
Sak@@ 0.6616199434919475
cercan@@ 1
14.@@ 0.9519261510291451
Psic@@ 1
israel@@ 1
alizan 1
Carlo 1
CBS 0.783798740154202
superficial 1
Vari@@ 0.6555618700110881
ticia 1
Almir@@ 1
atori@@ 1
tidas 1
extenso 1
vital 1
Palmar@@ 1
Chihuahua 1
molecular 1
Congreg@@ 1
sangu@@ 1
óleo 1
Municipal@@ 1
Sí@@ 1
poli 1
sensibil@@ 1
5000 1
Gé@@ 1
consol@@ 1
Amér@@ 1
sula 1
11,@@ 1
yug@@ 1
1851 0.7546860313707122
ado@@ 1
inclu@@ 1
Hid@@ 1
ilumin@@ 1
Black@@ 0.6524715664347748
Jam@@ 0.8321900765308207
subor@@ 1
Jon 1
udes 1
Marqués 1
mira 1
artifici@@ 1
but@@ 0.5234414308475177
PE@@ 1
alle 0.15742123789140855
Asoci@@ 1
Parker 0.8911935014390923
Van@@ 0.9506947399733806
tarj@@ 1
Press 0.4587342185785442
compañera 1
instrum@@ 1
Quím@@ 1
140 0.8523508065125764
subsidi@@ 1
Méndez 1
áu@@ 1
Amazonas 1
Dro@@ 0.6658703789005198
Cham@@ 1
coral 1
1842 0.8878385792915785
Rap@@ 0.7530115065205717
devo@@ 1
14,@@ 1
1835 0.8869492405236693
stan@@ 1
Coordin@@ 1
folia 1
ional 1
UTC 1
Of 0.3654307662185295
Poc@@ 1
veres 1
reside 1
conting@@ 1
Wa@@ 0.5321647019356397
itales 1
flam@@ 1
silla 1
armente 1
ocasi@@ 1
Ej@@ 1
imprim@@ 1
Nan@@ 0.9715862855972124
Dead 0.9410274503680395
Ken@@ 0.6478723139107851
patria 1
proce@@ 0.7595195387301316
corred@@ 1
Normand@@ 1
Serrano 1
atu@@ 1
históric@@ 1
na@@ 0.9186672776574771
Claude 0.5688212646445181
enaje 1
Wayne 0.8774898682976686
Co 0.40851260188589167
decad@@ 1
supo 1
Mora 1
dedor 1
depre@@ 1
Marshall 0.7617041175474447
flex@@ 1
EN@@ 1
Né@@ 1
bili@@ 1
front@@ 1
Leng@@ 1
rado 1
Award 0.13217152983512445
bin 0.4483616624742691
Jacob 0.7148728108245799
Tá@@ 1
lug@@ 1
eonatos 1
Robin 0.9421223414562846
amar 1
octav@@ 1
Chac@@ 1
risto 1
emite 1
tern@@ 0.7125453067194469
Dallas 0.7332225463067692
Pontificia 1
aa 0.998612566911818
tango 1
Jeff 0.8472225424057942
insur@@ 1
fant@@ 1
peru@@ 1
anco 1
RO@@ 0.8398169296131853
Modelo 1
igencia 1
Angeles 0.19419845777991332
Femenina 1
remol@@ 1
atado 1
Rá@@ 1
To 0.1948318766937304
1825 1
yi 0.6107499638061481
Cré@@ 1
da@@ 0.8356864828952963
ximo 1
Lind@@ 0.593188051002518
imper@@ 1
contamin@@ 1
Carta 1
Cher@@ 0.9375418307160355
Li 0.664543752784219
eti 0.8607761073987165
Pob@@ 1
radios 1
Hus@@ 0.631520149742211
Naz@@ 1
írculo 1
DS 0.6848496787715349
bis 0.022548280784728456
Trabajadores 1
Jos@@ 1
mortal 1
tuario 1
Boy@@ 1
Armando 1
Organiz@@ 1
Fern@@ 0.7342092657715592
Rog@@ 1
Luxemb@@ 1
AF@@ 0.8316972995957779
nado 1
Revolucionario 1
Sarmiento 1
pais@@ 1
blast 1
infloresc@@ 1
Di 1
Georges 0.5562019125073849
Merc@@ 1
doctor@@ 1
80@@ 0.7857955173391437
idel@@ 1
Arc@@ 1
NASA 1
Polo 1
Salom@@ 1
azar@@ 1
Wright 0.7425893492217499
Us@@ 1
1853 0.7569042110205823
PN@@ 1
Canaria 1
estand@@ 1
icor@@ 1
horizontal 1
Pequ@@ 1
Zagreb 1
Bis@@ 0.9015893288104436
Lucha 1
cim@@ 1
Ober@@ 0.12340374050969556
orto@@ 1
len 0.26434759561463106
Be 0.8338590017010797
intos 1
ovia 1
Cervantes 1
omer@@ 1
vica 1
Beatriz 1
ror@@ 1
Proc@@ 0.9752709914170896
fes@@ 1
apl@@ 1
pagos 1
Gibraltar 1
monet@@ 1
Linux 1
Women 0.18605143879254293
sep@@ 1
Golden 0.4144122318682763
inosa 1
itali@@ 1
mont 0.4580530561634116
PO@@ 1
anna 0.7204181525902201
gento 1
vulner@@ 1
agru@@ 1
individu@@ 1
santa 1
usias@@ 1
Antioquia 1
Omar 1
hop 0.9423952376830079
jab@@ 1
Ces@@ 1
Comunicaciones 1
asci@@ 1
Bog@@ 0.6805574849699574
bina 1
Nobel 1
tín 1
eador 1
Aus@@ 0.10184768081123327
Orlando 1
ig 0.42174907113749927
geometr@@ 1
Magazine 0.5521587850549448
eba 1
iterr@@ 1
Bien 0.7992351932882874
dorsal 1
Nas@@ 0.7318353865938426
Restaur@@ 1
Raj@@ 0.5235699040930326
Global 0.6320466867369553
feria 1
mago 1
Leo 0.8666059639680497
Nova 0.8501722104807211
Shin@@ 1
35@@ 0.7309126824718528
espect@@ 1
Hernán 1
ns 0.24846696573116953
Barry 0.8785023051149828
New@@ 0.4793837921235968
deser@@ 1
anderas 1
Vigo 1
Š@@ 0.6239413060522692
eiro 1
Mac 0.9657580241894783
Montaña 1
contradic@@ 1
Evol@@ 1
Alemán 1
etc 0.5971718876094897
instrumental 1
Idi@@ 1
recta 1
atum 1
estrech@@ 1
Khan 0.4774807020055931
Mozart 1
afin@@ 1
proven@@ 1
apo 1
Potosí 1
acar@@ 1
cig@@ 1
disco@@ 1
plut@@ 1
Libr@@ 1
sic@@ 1
Cass@@ 0.9142791538049188
distur@@ 1
ensi@@ 0.815464290854985
regu@@ 1
transvers@@ 1
Flam@@ 1
curi@@ 1
Conoc@@ 1
defi@@ 1
nen 0.21711881705049732
aper@@ 1
deliber@@ 1
Hern@@ 1
Trabaj@@ 1
inete 1
Conn@@ 0.6232552648896731
bac@@ 0.9981936777221329
viz@@ 1
mín@@ 1
Inc 1
crit@@ 1
Lugo 1
plica 1
Constantino 1
court 0.14525451252298244
onalista 1
Post@@ 0.45498105525994886
interrup@@ 1
Metal 0.8970148245711161
Interpre@@ 1
1845 0.7826158906291332
kiló@@ 1
Square 0.552542880678512
Xavier 1
ambul@@ 1
ág@@ 1
Best 0.17909654904736705
Gijón 1
bibli@@ 1
roman@@ 1
1847 0.768502364223982
Sul@@ 0.6336728109161398
1834 0.8915690062387632
ange 0.43265371631062977
món 1
semifinal 1
alif@@ 1
UK 0.1627322398784573
triple 1
hip 0.400704488537052
alda 1
ventr@@ 1
Tí@@ 1
1852 0.7206349363341235
Baden 0.6110099367581056
adic@@ 1
haber@@ 1
partici@@ 1
Ponce 1
https 1
Nog@@ 1
ault 0.3693395579306518
egi@@ 1
iler@@ 1
SI@@ 1
úz@@ 1
agin@@ 1
metr@@ 1
gir 1
otor@@ 1
Juvenil 1
dif@@ 1
persist@@ 1
romance 1
urugu@@ 1
tum@@ 1
Delgado 1
Good 0.6314947638031562
tiende 1
amer@@ 0.9548141572450728
Anton@@ 1
Brun@@ 0.834203000794247
egro 1
eus@@ 1
Heinrich 0.3131760340358017
eth 0.6594379295870427
lax@@ 1
Nak@@ 0.7794535307627346
circu@@ 1
atl 1
septentrional 1
Barrios 1
let 0.2506914848102055
inista 1
entina 1
distingue 1
líqu@@ 1
relati@@ 1
ucion@@ 1
Naci@@ 1
Siempre 1
17,@@ 1
Grant 0.667265049372619
ní@@ 1
Lob@@ 1
Dark 0.8540222668173469
toro 1
asar 1
omin@@ 1
planet@@ 1
uelta 1
eni 0.7402597272403147
monit@@ 1
Beatles 1
garg@@ 1
detect@@ 1
Air@@ 0.520239763712939
vierte 1
desemb@@ 1
Circu@@ 1
Emma 1
Lom@@ 1
Museum 0.14748297390145673
clás@@ 1
arru@@ 1
last@@ 1
Bom@@ 1
1849 0.6732086530625789
Games 0.21750493401338808
epid@@ 1
Jordan 0.6365324870579123
eces 1
unir 1
adhes@@ 1
Ann@@ 0.4442791804285593
Abr@@ 0.8631015043595022
Venus 1
Lawrence 0.621212286935268
diam@@ 1
ref 0.5234994798826156
narc@@ 1
antas 1
Alf@@ 1
yan@@ 0.6612744847731179
monot@@ 1
Cordillera 1
inaugur@@ 1
coa 1
atle@@ 1
Hun@@ 0.6212178154023995
porno@@ 1
Vati@@ 1
gh@@ 0.4771581024668338
Sz@@ 0.658646089005972
Docum@@ 1
oscil@@ 1
rique 1
Inés 1
MO@@ 0.8405705638115353
This 0.03059321011560738
Meridi@@ 1
Expedi@@ 1
adolesc@@ 1
Prec@@ 1
ganad@@ 1
vi 0.5697197993209874
extranj@@ 1
ted 0.05363204110481712
Eng@@ 0.5092748161430909
Tarragona 1
Fro@@ 0.8251513678665333
diagnos@@ 1
navales 1
plasma 1
engu@@ 1
Qué 1
porte@@ 1
japon@@ 1
Canc@@ 1
Profes@@ 1
estad 1
preval@@ 1
tz@@ 0.8982436657386018
Aé@@ 1
villas 1
descubier@@ 1
Paseo 1
Te 1
hong@@ 1
iras 1
unca 1
Girls 0.6990229858828958
amaz@@ 1
mería 1
sos@@ 1
Port 0.35119252352792846
mortal@@ 1
2.000 1
Say@@ 1
heim 0.2792885221514811
Pand@@ 1
males 0.4394034902879569
NBC 0.73776784096256
georgi@@ 1
201@@ 1
robus@@ 1
MC 0.7033538109697924
minis@@ 1
anés 1
mayorit@@ 1
Jazz 0.545924707609754
oven 1
Boeing 1
aros 1
æ@@ 0.7163975323484185
umi@@ 1
Academy 0.16203904353313714
Charlotte 0.6236841535300885
dale 0.5206433113896793
dimi@@ 1
1824 1
reh@@ 1
1836 0.8169699482381163
só 1
salt@@ 1
arte@@ 1
dad@@ 1
ings 0.07535471109167827
Norm@@ 1
titudes 1
Vieja 1
mientos 1
Arau@@ 1
Ton@@ 0.5431466581485905
Cé@@ 1
intermedi@@ 1
territoriales 1
acat@@ 1
Pep@@ 1
reta 1
Robinson 0.6967087582483125
ogo 1
ng 0.824395719891082
Port@@ 1
air 0.12489164724762868
Cooper 0.8147520186889451
Manchester 0.42153212609397306
Renault 1
ficha 1
agonal 1
galle@@ 1
Pér@@ 1
ovich 1
lers 0.20264855994072276
losa 1
cm. 1
plaz@@ 1
Palmas 1
anca 1
deu@@ 1
unc@@ 0.5841712316145572
Apolo 1
Mart@@ 1
Dul@@ 1
vierno 1
queo 1
Zel@@ 1
actr@@ 1
hipo@@ 1
óptero 1
BC 0.3167871652335244
Inform@@ 1
Caja 1
Crimea 1
360 0.9245580364054459
Sid@@ 0.8897463273935021
asem@@ 1
interrog@@ 1
Ig@@ 0.8103602454149514
Pseud@@ 1
riz 1
Albania 1
Thor@@ 0.6418461631931414
atorial 1
avent@@ 1
suicid@@ 1
Patria 1
Sea 0.3221145117512712
maz@@ 1
etz@@ 0.4956569143610134
puer@@ 1
101 0.7633858443930318
mezc@@ 1
Faus@@ 1
uga 1
cog@@ 1
Chic@@ 1
lector 1
tier@@ 0.9741921611166561
Jamaica 1
Francis@@ 1
Horacio 1
Mez@@ 1
1823 1
ensor 1
Soledad 1
Rég@@ 1
ingi@@ 1
lés 1
nh@@ 0.22919560178950285
Ecol@@ 1
Hermanos 1
Mau@@ 0.7684193916449825
Point 0.40538583241472015
ocar@@ 1
ory 0.18260013244941484
abrevi@@ 1
filogen@@ 1
Chiapas 1
indu@@ 1
opo@@ 0.8277785377584901
tino 1
ère 0.12803065323744456
Mér@@ 1
alan@@ 0.9275677409540597
Misiones 1
criti@@ 1
visibles 1
stone 0.20282012010761033
vill@@ 0.7241959448764033
Ambiente 1
Caz@@ 1
Telev@@ 1
caj@@ 1
Ful@@ 0.9313327443334367
Harrison 0.818006174174759
å@@ 0.6804550763139007
urn@@ 0.7919351046939223
Chal@@ 0.9420048089853825
compet@@ 1
gon@@ 1
yes 1
Coch@@ 1
16.@@ 1
1846 0.7281570000820743
Vé@@ 1
absorb@@ 1
próxim@@ 1
ump@@ 0.48177834187207286
eu@@ 0.49706890145233806
ker@@ 0.2982422238602294
dis 0.7787765728020903
promin@@ 1
1837 0.7870527464491577
1839 0.8159484635268678
venti@@ 0.8612852507032591
HMS 0.774041031245448
cuart@@ 1
aficion@@ 1
distr@@ 0.8787223625867738
IA 1
ble@@ 0.6396130756067934
Lucio 1
normales 1
aut 0.4235660875804524
conson@@ 1
tren@@ 1
CO 0.8081052915573914
minim@@ 0.8782803712872875
Scar@@ 0.8127866518895321
teres 1
Lun@@ 1
even 0.11081843170721722
Fig@@ 1
Labor@@ 1
J.@@ 0.7843012446779454
sella 1
departam@@ 1
Java 0.9936914220837424
Usos 1
hex@@ 1
Alabama 0.5566393954556436
Colombi@@ 1
Octav@@ 1
Cali@@ 1
Ze@@ 0.38974373191374606
consci@@ 1
Maurice 0.5679383910740821
Way 0.6939147399705736
rantes 1
oshi 1
Inst@@ 1
petr@@ 1
infante 1
Philip 0.519027827816764
UFC 1
aurus 1
opsis 1
Escal@@ 1
Gary 0.7370782318591701
Fair@@ 0.5887065342179427
Nam@@ 0.6068644492809976
salen 1
cach@@ 1
iar 1
CE 0.7296743524250162
Steven 0.9542432487379467
Salinas 1
landes 1
oce@@ 1
coles 1
Play 0.6841205020085586
nig@@ 1
ée 0.03472308787685488
lem@@ 0.5315089273461371
aprob@@ 1
formul@@ 1
inqui@@ 1
Jerez 1
garr@@ 1
Malta 1
System 0.26437339479156924
Provin@@ 1
file 0.8838286776674041
Palencia 1
nes@@ 1
feud@@ 1
problem@@ 1
fragment@@ 1
itio 1
chu@@ 1
pale@@ 1
Magallanes 1
tific@@ 1
CC 0.6600648471230393
Cecilia 1
Homer 1
Montenegro 1
gast@@ 1
cher@@ 0.5090320409076281
della 1
blues 1
Down 0.8203194725893469
Alvarado 1
resc@@ 1
chin@@ 0.9447259474924208
Armas 1
Consider@@ 1
Stanley 0.6295243582446707
visu@@ 1
antic@@ 1
loven@@ 1
Thi@@ 0.5280665683798557
plana 1
1844 0.7830804561183267
nutr@@ 1
princip@@ 1
Gra@@ 0.7331196028889659
aller@@ 1
kan@@ 0.34657956422583475
Gig@@ 1
gall@@ 1
1815 0.7044396307055628
Princ@@ 1
acá 1
mueb@@ 1
angél@@ 1
ritual 1
teria 1
mania 1
rompi@@ 1
Matías 1
metropolit@@ 1
Ning@@ 1
Observ@@ 1
independ@@ 1
univers@@ 1
ä@@ 0.11176056873400825
ulla 1
Ed 0.9432858238547515
è@@ 0.4319844536234574
chor@@ 0.8377704832096743
capitales 1
corporal 1
RC 0.5898121740072755
15.@@ 0.9497858978749977
bran@@ 0.8200231277577681
RS 0.7084241183731822
pét@@ 1
Superman 1
tigu@@ 1
Crisis 1
Tw@@ 0.7716756254835401
Benav@@ 1
ili 0.5952061396138894
áneamente 1
Metropolitano 1
yac@@ 1
mud@@ 1
bul 1
Brit@@ 1
Patricia 1
empi@@ 1
Giuseppe 1
Garden 0.6498784195306946
Ler@@ 1
Rep@@ 0.9823238047511536
prác@@ 1
Mant@@ 1
OTAN 1
Germán 1
750 1
Iron 0.738274599028235
ken@@ 0.274256287249743
Cov@@ 1
Murray 0.6501351393274069
Perry 0.9387230246280482
numér@@ 1
Vlad@@ 1
Dubl@@ 1
Paral@@ 1
Memorial 0.4466182680515118
Fron@@ 1
oros 1
Baz@@ 1
Raf@@ 1
105 0.8293056055126832
Már@@ 1
Triple 1
cardi@@ 1
ibo 1
alada 1
Lad@@ 0.6426957251824205
titu@@ 1
té@@ 1
duplic@@ 1
uria 1
Bag@@ 0.7280116954358707
álogo 1
UNAM 1
bes 0.39186089863524354
yu 1
Huesca 1
Tier@@ 0.8067706871398367
alco@@ 1
audiovis@@ 1
Huelva 1
DO@@ 0.8414806060526875
legitim@@ 1
Hisp@@ 1
roles 0.3833495664839782
emo 1
iera 1
ino@@ 1
vend@@ 1
we@@ 0.1533799411322942
alina 1
Seattle 0.6129561206536321
Bow@@ 0.5166352011109384
dri@@ 0.505206492118431
Cast@@ 0.9794033044033363
Gü@@ 1
jef@@ 1
Gerardo 1
Domínguez 1
Fom@@ 1
War 0.059357194492234186
salsa 1
EA 1
Lon@@ 1
kur@@ 0.35812057666849156
Moon 0.7148516563251293
Bál@@ 1
Chaco 1
Silv@@ 1
end 0.03822338342380017
Figueroa 1
Great 0.16856124401533293
ask@@ 0.6589798530053905
1811 1
aque 1
1838 0.7723398816915257
Madison 0.8978853545946017
Jay 0.8206943713120974
Valdivia 1
Graham 0.6918018545957618
ament@@ 1
diales 1
Quintana 1
posa 1
protestantes 1
ag 0.4623172769538355
Fle@@ 0.6384301763988404
Town 0.2463973021951776
laur@@ 1
cump@@ 1
fum@@ 1
hockey 0.35511746163944974
Callao 1
yer 0.2121052026172789
lot 0.28453890622156897
industri@@ 1
aseg@@ 1
enn@@ 0.20584029668798173
Trump 0.6296676074395755
emerg@@ 1
itis 1
Uso 1
What 0.4996556192113916
satis@@ 0.6724071598100447
Isl@@ 1
Gh@@ 0.55524394294292
Det@@ 0.7550468537774183
metal@@ 1
Valdés 1
Arequipa 1
Kent 0.6229162292443287
Tag@@ 0.709717902786135
respir@@ 1
umo 1
nub@@ 1
Lec@@ 1
trom@@ 1
1200 1
deter@@ 1
Munici@@ 1
Sad@@ 0.7713975732187781
Cost@@ 1
Thompson 0.6283592022265433
Ronda 1
NE@@ 0.7705635552778125
ances 0.23372970323950307
ast 0.22006553677278445
estruc@@ 1
semic@@ 1
Higgins 1
Tennessee 0.4438386402616635
Pens@@ 1
radial 1
Band@@ 0.550104810335803
Neu@@ 0.28695178398229493
cus 0.6521051346521215
Heart 0.6521522276600685
allar 1
Magn@@ 1
Nicolas 0.5715453860809647
ust 0.3015510053729103
1841 0.7651251182513206
ots 0.2372561259565305
simult@@ 1
sed@@ 1
embre 1
Vila 1
Ibn 1
bala 1
CIA 1
analiz@@ 1
kil@@ 0.9246443899295342
Moh@@ 0.5664589796071621
N.@@ 1
nutri@@ 1
Diez 1
Atlas 1
Fiat 1
lut@@ 1
tos@@ 1
Toda 1
pig@@ 0.9780760505882049
sentir 1
AG@@ 0.8504564683796593
pet@@ 0.9691020875831601
Oce@@ 1
Darío 1
Hidro@@ 1
Clinton 0.8218924721189581
Pardo 1
dispos@@ 0.7025635719605984
precis@@ 1
declin@@ 1
vers 0.08293072699606348
Facebook 0.9082812099297549
ezan 1
Cour@@ 0.3520866438964633
avo 1
Campbell 0.6391713605097815
Fru@@ 1
Caus@@ 1
lante 1
monumental 1
1822 1
€ 0.70039303302013
tang@@ 1
compatible 1
dose 1
Science 0.2184381738497339
Brasil@@ 1
municipal@@ 1
Tot@@ 1
Patricio 1
evos 1
rent@@ 1
abier@@ 1
Television 0.4573301216573922
desambigu@@ 1
Bosque 1
Studio 0.5313501273608672
Orange 0.6765078221786605
Penal 1
hosp@@ 1
Division 0.09196963633135165
Xi@@ 0.8321212881114113
yp@@ 0.48641895619225467
Lis@@ 0.9585734576265265
Num@@ 0.8798377482420721
aina 1
castil@@ 1
Kenia 1
compatri@@ 1
ilde 1
infra@@ 1
sun@@ 0.4636022831277126
grad@@ 1
atmos@@ 1
Sou@@ 0.4365740496928613
Margaret 0.5414518334990198
Castel@@ 1
Fray 1
minister@@ 1
Ian 0.7493636127615589
Oklahoma 0.5530684640972737
Edgar 1
Pacheco 1
Spin@@ 1
gil 1
onial 1
írit@@ 1
Recon@@ 1
enal 1
Cau@@ 1
exclusiv@@ 1
militante 1
Austr@@ 1
Mix@@ 1
piz@@ 1
Educ@@ 1
Hudson 0.8067596732480093
Perten@@ 1
CON@@ 1
shows 0.1862864030739225
TVE 1
Fen@@ 1
Mom@@ 1
Turner 0.7706514429044465
ríquez 1
tibles 1
íritu 1
1843 0.7737946147974568
permanentes 1
tempr@@ 1
Ró@@ 1
Och@@ 1
occ@@ 1
Fot@@ 0.8478788770940023
vet@@ 0.990157254080976
Japon@@ 1
hep@@ 1
ska 0.7763049570197914
Mexicano 1
labr@@ 1
Jerry 0.8573495061063431
aris 1
isbol 1
cál@@ 1
prominente 1
oriano 1
row 0.2622501844823215
Cárdenas 1
Stalin 1
apor@@ 1
intim@@ 1
Hin@@ 0.4632650098807925
embaj@@ 1
Ech@@ 1
yc@@ 0.4883481977795174
Um@@ 0.20460494511567542
Goya 1
Ribera 1
Stewart 0.6114575607904555
Presid@@ 1
comport@@ 1
encer 1
quisi@@ 1
rana 1
Diput@@ 1
ím@@ 1
uki 1
Sot@@ 1
éndez 1
Civ@@ 1
hemis@@ 1
As 0.045786721552655556
Vincent 0.5767188853346658
cipi@@ 1
Indi@@ 0.9254636957760396
adel@@ 1
Perci@@ 1
equili@@ 1
ulas 1
Madagascar 1
feld 0.2599719053884942
soy 1
ston 0.5302139411655186
LO@@ 1
Terry 0.885020053808623
tour 0.11647805944027934
Porto 1
estan@@ 1
onc@@ 0.8484812385234559
Opera 0.6019673156113419
aus 0.01769995503031919
Univers@@ 1
especí@@ 1
lum 0.5538490184558552
tarios 1
escape 0.5820105115097962
agro 1
1808 0.9491098394093992
Influ@@ 1
reson@@ 1
1813 0.8320260435268626
Cret@@ 1
abiliz@@ 1
ashi 1
foto 1
uh@@ 0.6165317432831715
time 0.019657541308890067
Space 0.4639838190020181
VA 0.9132801015008023
Ludwig 0.3599368802623912
Melbourne 0.4079664519484168
flamenco 1
pit@@ 0.7293196009387459
Maryland 0.44598681193261913
Stadium 0.3235078513673591
medicin@@ 1
Shakespeare 1
CH@@ 0.5051855835781799
astro 1
tha 0.6851433599106268
curios@@ 1
H.@@ 0.8836395110188543
Vidal 1
isi 0.4814108255865062
rif@@ 0.7739335940170237
Sup@@ 0.5182031023523969
Castellón 1
sil 1
Arkansas 0.6471962018550794
Quinta 1
mandos 1
Márquez 1
Jefferson 0.9020898957959299
tion 0.06791109797941901
60@@ 0.7829263823218411
permit@@ 1
electro@@ 1
maj@@ 0.930901597139264
cuer@@ 1
Eddie 0.937452728827851
17.@@ 0.9456665912496175
Phoenix 0.8018302812916689
orn@@ 0.8653141538551533
segreg@@ 1
imento 1
Vive 1
estes 1
Continental 1
Vista 1
erro 1
uba 1
Resist@@ 1
ö@@ 0.15885500002695543
Brothers 0.6166399107225065
Deleg@@ 1
bó 1
gay 0.8324588249861472
Cron@@ 1
Cleveland 0.567477558745796
Sas@@ 1
enz 0.33319401935098425
tago 1
Baby 0.9457353382988604
ube 1
solem@@ 1
Balear@@ 1
Mass@@ 0.6800132952255138
Pru@@ 1
divin@@ 1
dita 1
invers@@ 1
xo 1
ariz 1
ović 0.7564299177906184
Hat@@ 0.6277272645791968
bate 1
Dylan 1
ī@@ 0.6446893316836084
Death 0.3660040343441103
IS 0.6297038840195184
insular 1
Sever@@ 1
Dy@@ 0.8893211813717212
The@@ 0.2741673502084169
mpicos 1
Cár@@ 1
herman@@ 1
Mog@@ 1
Consul@@ 1
Copenhague 1
Honda 1
dign@@ 1
AG 0.34108559982391057
ég@@ 0.331274895557422
cun@@ 1
radar 0.9621975002347826
Hér@@ 1
Pent@@ 0.9999964407580819
topo@@ 1
ux 0.4560506258311777
ape@@ 1
win 0.10068811742445945
aye 0.5986582993490961
Guy 0.6410396590688223
Sky 0.7260983700099821
450 0.9005788687825006
hostili@@ 1
Llu@@ 1
Lérida 1
tz 0.5934476799922852
semestre 1
respirat@@ 1
Boc@@ 1
compañ@@ 1
sentim@@ 1
Cli@@ 1
bil 1
18@@ 0.6259368100598519
ry@@ 0.705638361542563
Challenger 1
panel 0.8790938284349916
choc@@ 1
Local 0.6008594430356136
antos 1
seman@@ 1
umba 1
Eu@@ 0.9985522711032511
ien@@ 1
orno 1
een 0.49175433425166315
correspond@@ 0.7002393684064918
leon@@ 1
1600 1
efici@@ 1
Lot@@ 0.7813845456387838
Yam@@ 1
piter 1
ein 0.011715615615355526
Rat@@ 0.5913723851474839
itano 1
Nombre 1
Godo@@ 1
diagr@@ 1
económ@@ 1
Onthophagus 1
Beng@@ 1
TO@@ 0.9615164605164334
tof@@ 1
Milit@@ 1
Tipo 1
Tib@@ 0.8685301398066639
semi 0.2851664110238512
concurr@@ 1
Maldonado 1
lex@@ 1
Bob@@ 1
mosa@@ 1
1826 0.883084405513331
Utah 0.6522233956911055
mona 1
Bush 0.6884345499433003
incen@@ 1
cines 1
Cook 0.7810501285764367
Ferrari 1
Play@@ 0.7403445139826366
telec@@ 1
Cach@@ 1
oid@@ 1
files 1
Alar@@ 1
zu 0.011462101309518814
Quil@@ 1
rell 0.8925623717473756
cultivar 1
Conqu@@ 1
Rid@@ 0.5695185753896671
ça 0.7660065619516537
claves 1
opat@@ 1
opin@@ 1
amm@@ 0.4318299484761561
polar@@ 1
mó@@ 1
illy 0.5262795549821028
sax@@ 1
Cou@@ 0.5437389687633426
asteri@@ 1
Ferrer 1
métr@@ 1
Sl@@ 0.6050625864126685
oko 0.9785913018168784
meridi@@ 1
alog@@ 1
Imp@@ 1
wan@@ 0.44935039082366235
Ann 0.615682033320178
Claudia 1
Bach 0.6951107554495888
Lap@@ 0.9233223068150003
Pan 0.7376549256434898
india 1
has@@ 0.4780515995271395
pastor 1
Budapest 0.8811988375776287
otti 1
Quer@@ 1
gin@@ 1
Cons@@ 1
USS 0.6981132612862757
pec 1
Baj@@ 1
Ji@@ 0.8331372557919587
Apr@@ 1
egio 1
Norman 0.6146683134870924
Pepe 1
IP@@ 0.8462738521939636
agi@@ 1
tio 1
ents 0.08681092252639386
tw@@ 0.17640835528676355
reli@@ 0.7461657803680334
Nancy 0.7854092376456685
idu@@ 1
oda 1
ayos 1
chan 1
Berg@@ 0.2542383774050362
Epis@@ 1
intérpre@@ 1
fraude 1
Bra@@ 0.6829301929844476
Cueva 1
insignia 1
Gav@@ 1
XX@@ 1
Vitoria 1
Tabasco 1
bias 1
Evans 0.6941317700076018
acomp@@ 1
vik@@ 1
Ontario 0.31110990801717625
Gilbert 0.7617052354523043
Sound 0.5744427459857879
cartel 1
Pereira 1
Angola 1
Morelos 1
aul@@ 0.41048160100293263
cogni@@ 1
cázar 1
Urban@@ 1
brillantes 1
ofer@@ 1
Arm@@ 0.9109202929531725
P.@@ 0.9904526068600339
ballet 1
telescop@@ 1
Angel@@ 1
Cór@@ 1
Sucre 1
Estrada 1
cilindr@@ 1
ë@@ 0.6951101226500371
wal@@ 0.284967610918319
Disco@@ 1
Songs 0.5116779626216809
Delta 0.8812740730507733
fis@@ 1
skaya 1
Kate 1
há@@ 1
Disput@@ 1
atis 1
Express 0.5094322141291049
wan 0.5289145162969617
Piñ@@ 1
lip@@ 0.8333840762031907
lex 1
lee 1
Last 0.6275460125546953
judi@@ 1
1829 0.8269044323034275
inge 0.5902392382803743
fono 1
uni 0.7570697590569286
Guip@@ 1
Cen@@ 1
macro@@ 1
Latino@@ 1
igr@@ 1
Art@@ 1
Calvo 1
Pay@@ 1
siti@@ 1
bern@@ 1
alien@@ 1
ostr@@ 1
Chart 0.6224209257296383
ados@@ 1
Pag@@ 1
adilla 1
Instruc@@ 1
Fred 0.6458384930854527
polar 1
Catalunya 1
bit 0.3985201805720786
Judicial 1
terap@@ 1
Toc@@ 1
nov 1
trig@@ 0.8918584880112449
Cairo 1
EM@@ 1
Shang@@ 1
funeral 1
Vul@@ 0.8469384120833291
1831 0.7478685031257262
silv@@ 1
Dub@@ 1
18,@@ 1
Emer@@ 0.822950480394195
Yu@@ 0.9857890531655817
oba 1
codice 0.6137551353922917
ues 0.2585082106558684
tier 0.2817934936250309
áneos 1
Casta@@ 1
hardware 1
inaugural 0.8329437263000815
County 0.04635507469951209
nan 1
Sha@@ 0.824344831860797
rante 1
Negr@@ 1
patin@@ 1
Marx 1
cua 1
the@@ 0.17916644210328514
USD 0.9129345593070716
argent@@ 1
empl@@ 1
Ernst 0.4002433238606123
Valle@@ 1
n. 1
Wh@@ 0.40167304630502443
Anim@@ 1
1828 0.8026440043944989
Adolf 0.6143188821001068
Reich 0.5110900210506121
Liv@@ 0.7147784599647591
Ron@@ 1
episcopal 1
pice 1
Kos@@ 0.5276760651775221
Pant@@ 1
iformes 1
Latin 0.2646817316099239
eman@@ 1
ç@@ 0.2569676538935574
Tales 1
Danny 0.9685464406105027
ort 0.3102811169276751
3.000 1
Ach@@ 0.49088363532151863
ocer@@ 1
zur@@ 0.8026840112713123
LGBT 1
Defin@@ 1
normati@@ 1
Wo@@ 0.5255329320795858
colas 1
aine 0.2764576600156362
Morris 0.650494895184135
Ok@@ 0.5463330673921294
Phil@@ 0.4813026315832588
inia 1
sell@@ 1
oo 0.6229279914721998
20.@@ 0.9674271724806305
Maur@@ 0.672397835779084
ew@@ 0.2343436642893521
1832 0.7024030744178518
Bond 1
Georg 0.3353590645261507
Cuer@@ 1
Herbert 0.5539626476244892
fa@@ 0.30594281081967806
Musical 0.8861354367214443
Da 0.21507523853416932
Gall@@ 1
ords 1
protestante 1
dal 0.9237697164703004
Amber@@ 1
gala 1
3,5 1
Chir@@ 1
isp@@ 1
Humberto 1
Gun@@ 0.5732916357199874
Lou@@ 0.6008270378995332
ndi@@ 1
Moder@@ 1
imonio 1
He 0.009097296056227201
Herman@@ 1
Gel@@ 0.3713593859310134
Gold@@ 0.39786338826129064
Bobby 0.8299782033998233
alen 0.2135189975168807
rap 0.9501201622025274
vin 0.5318569557579711
past@@ 1
Bundesliga 0.5164842633802189
haz@@ 1
jed@@ 1
Research 0.1924055978390415
enko 0.8857568161233194
town 0.05932052634381033
alpa 1
teza 1
osh@@ 0.8727990700354051
curv@@ 1
Dre@@ 0.4073657045466129
cela 0.48524214415218475
cubier@@ 1
ulan 1
Baker 0.6417515273122083
Has@@ 0.5244345995772236
Kentucky 0.4490975926725728
tiller@@ 1
är@@ 0.2146148362134992
Wagner 0.8482919344698864
islam 1
cár@@ 1
elem@@ 1
travi@@ 1
Japan 0.11482539043568742
hy@@ 0.29769564247283214
Doña 1
Ye@@ 0.7805269941313905
infer@@ 1
Nikol@@ 1
fluvial 1
Xbox 1
grec@@ 1
nch@@ 1
anger 0.3679686832859892
panorama 1
sovi@@ 1
metabol@@ 1
gs 0.32424806867545114
ks@@ 0.2800795836113735
Compl@@ 1
For 0.06972561309876088
iria 1
That 0.2208290382921139
Light 0.4503969791043446
Yar@@ 1
Nebraska 0.8611643569599002
ina@@ 1
persu@@ 0.816638955512737
Supercopa 1
egui 1
Láz@@ 1
lep@@ 1
releg@@ 1
teg@@ 1
enco 1
evedo 1
trán 1
18.@@ 0.9376195335649499
Ma 0.7307261720560806
Michelle 1
Zen@@ 1
Netflix 1
Palermo 1
Warren 0.6905888996672237
Salas 1
tic 0.13314635200615288
Top@@ 0.7178625277486599
entor@@ 1
orn 0.5710695153652553
Muhammad 0.6430516730742788
dedores 1
zam@@ 1
lock 0.4118064557436784
ónima 1
Get@@ 1
Gold 0.29129070283592745
ecti@@ 1
An 0.08496659724975056
CP@@ 0.6587497705295265
DI 1
confront@@ 1
we 0.11407562114574633
s.@@ 1
simetr@@ 1
inhib@@ 1
Clo@@ 0.9211018689683286
Vancouver 0.6173466124559002
AF 0.6765082500024087
incer@@ 1
Fili@@ 0.8030050231995483
pé@@ 1
Nem@@ 1
reti@@ 1
aniz@@ 1
enten 0.29550268088927967
polio 1
Anth@@ 1
percus@@ 1
introduce 1
36@@ 0.7804810997960288
refriger@@ 1
Masters 0.672679591778415
First 0.11622813650713873
arteri@@ 1
ures 0.22650299465987703
EL@@ 1
ense@@ 0.956790864361828
guatem@@ 1
Honor@@ 1
Guido 1
Helena 1
Stu@@ 0.4335399430525007
reú@@ 1
ásquez 1
sang@@ 1
reto 1
Kurt 0.7114358035006274
Back 0.6470791246419049
Neil 0.8016654546472547
ager@@ 1
Sher@@ 0.6380183148752178
sist@@ 1
46@@ 1
Force 0.16373782794548244
ř@@ 0.5499408038377716
Aurora 1
fé@@ 1
ga@@ 1
acan 1
chim@@ 1
Compostela 1
ass 0.26724713509111386
Benedic@@ 1
Dion@@ 1
SE 0.853077250051357
sacri@@ 1
abi 0.8850455014447773
utor 1
SN@@ 0.8549177767804129
académ@@ 1
coincide 1
colombi@@ 1
Tommy 0.8775408923889085
olar 1
34@@ 0.7638287629440832
Avell@@ 1
ínsula 1
Connecticut 0.4992400953960249
Grace 0.8438895064614471
Phil 0.7673004070116776
Solar 1
F.C. 0.6837283798427847
hind@@ 1
electrom@@ 1
cabec@@ 1
Mij@@ 1
Escobar 1
GP 1
inta 1
X. 1
envol@@ 1
33@@ 0.7282919472027017
37@@ 0.7944801936129006
chen 0.12917325749970934
Arnold 0.6705374181500862
abul@@ 1
ovi@@ 1
caric@@ 1
Pref@@ 1
IE@@ 1
adía 1
ímetros 1
Roland 0.8971707307478239
Palacios 1
Dean 0.5587656900514821
lun@@ 1
Aj@@ 1
May 0.042249682189808534
aller 0.23914288750696303
L.@@ 0.9055718018121439
Yo@@ 0.6800677952849432
rin@@ 1
Tun@@ 0.6898988665852764
RT@@ 0.6853806643068114
19,@@ 1
SS@@ 0.5472532598964912
Tu 1
resur@@ 1
Zu@@ 0.5926887415676277
Basil@@ 1
Arsenal 1
tens@@ 1
habr@@ 1
IF@@ 0.8590897566760016
Gamb@@ 1
Web 0.9198777026076443
fiscales 1
doctr@@ 1
ft 0.18917820265686675
Carras@@ 1
izquier@@ 1
Dragon 0.8524434560538943
audit@@ 1
orit@@ 1
Comple@@ 1
Hills 0.5523113125259979
Gaspar 1
Master 0.30811552874048975
SmackDown 1
absol@@ 1
oscop@@ 1
IBM 0.9182769746737672
Bic@@ 1
Atl@@ 1
óstico 1
Vor@@ 0.07903074315368666
Like 0.34939392077300674
Contin@@ 1
edras 1
20,@@ 1
Sob@@ 1
bad 0.4129724035101336
Line 0.20690983960039508
RT 0.7030594497708043
Story 0.6403210697862151
Avenue 0.2633060107319381
Dim@@ 1
superi@@ 1
ther@@ 0.25011895727594524
Pico 1
acres 0.7437412601767996
etim@@ 1
Spe@@ 0.35932356433981033
ósitos 1
espos@@ 1
kan 0.49390805651507486
Larry 0.8375394319649542
Prepar@@ 1
diese 0.09544751064987908
Bug@@ 0.9246810734923959
odon 1
agog@@ 1
alli 1
− 0.2937146038752534
Bella 1
Beau@@ 0.6242364795597108
Kl@@ 0.29168797259652623
pora 1
isio 1
Champ@@ 1
Liz@@ 1
Ele@@ 0.9988680797784676
composit@@ 1
Dra@@ 0.8522846080269354
Sky@@ 0.8576993139872469
temp@@ 0.9926790931596273
Sist@@ 1
promov@@ 1
afor@@ 1
reconcili@@ 1
Ja@@ 1
eler@@ 0.970052378971523
Carrillo 1
bolch@@ 1
ime@@ 1
Maine 0.5320450311043431
facil@@ 1
brut@@ 1
Allende 1
pand@@ 1
avi 0.8536124513031148
sales 0.37387407735815387
eccion@@ 1
múlti@@ 1
ARC 1
Shu@@ 0.8253987170856079
boy 0.35591826479092714
bay@@ 1
dial 1
Hog@@ 1
hereder@@ 1
off@@ 0.1786585746931194
ionales 1
Newton 0.8548378195531636
Farm@@ 1
ack@@ 0.2509566715909487
fusil 1
ely 0.11685879166403479
Matthew 0.6120682588151554
UNESCO 0.8454464865990644
portu@@ 1
AA 0.5026352381309458
Sri 0.40317289687928326
tortur@@ 1
fab@@ 1
finanz@@ 1
Gul@@ 0.738710542897616
Harold 0.7738221674886812
racial 0.5500375412533421
polici@@ 1
icación 1
Leon 1
bud@@ 0.895858633780147
coloniales 1
rej@@ 0.5020544374791667
DT 1
F.@@ 1
erno 1
owski 0.6141501239850755
Blas 1
ES 1
Financi@@ 1
Normal 1
mach@@ 0.8246852184493749
sy@@ 0.3517250398722446
Ec@@ 0.6907831918234149
obia 1
Had@@ 0.5640311100795135
Superliga 1
Paco 1
angre@@ 1
ever@@ 1
imbo 1
Déc@@ 1
Jordi 1
Kel@@ 0.4643603720309105
omar 1
Stars 0.5660790029421073
rist@@ 1
orig@@ 1
Walt 1
Py@@ 0.7376195237715095
dium 0.8365410582215643
Capr@@ 1
restric@@ 1
vibr@@ 1
nier 0.45087304183642335
uva 1
ires 0.3276499316128987
Dream 0.8087101250853033
esh@@ 0.4188538958571955
fó@@ 1
ulia 1
adém@@ 1
longitud@@ 1
dato 1
ios@@ 1
anne 0.6576222218815515
ulosa 1
Pompe@@ 1
éri@@ 0.4424393449193893
Sonic 1
ír 1
Resol@@ 1
my 0.19866687714070186
oth 0.39540595886986857
prést@@ 1
Cay@@ 1
cules 1
presu@@ 1
Antigu@@ 1
coma 1
similitudes 1
Contro@@ 1
molé@@ 1
Beg@@ 0.43514227013848905
stor 1
Building 0.4165275095311021
Len@@ 0.5717815042905889
Program@@ 1
didae 1
Siberia 1
aden 0.4061800180174885
tiliz@@ 1
ges 0.19626232783615266
Mariana 1
mites 1
O.@@ 1
áce@@ 1
Antoine 0.5564167081392162
mia 1
ilan 1
GT@@ 0.8802241551339566
ê@@ 0.4102353994996649
Desarr@@ 1
Mid@@ 0.47317225725698725
oleta 1
Audi@@ 1
EF 1
hél@@ 1
Fantas@@ 1
Ball 0.7060938948362004
esi 0.40547456191752446
Plate 1
Rh@@ 0.527582687888599
Ná@@ 1
oneta 1
Cle@@ 0.6833801396996623
Ide@@ 0.971365640432531
1816 0.7764694060726156
ants 0.061166002877944416
partam@@ 1
ARN 1
Santi@@ 1
leo 1
Sebastian 0.8275116361012178
vora 1
Raim@@ 1
indo 1
Sto@@ 0.39786970370817587
Teruel 1
erer 0.6662894285236837
hibe 1
ail 0.27811335435146495
Gon@@ 0.9973308587680414
dob@@ 1
kov@@ 0.7281949315570262
crá@@ 1
Cerr@@ 1
bek@@ 0.4906009725650789
line 0.04966775286263587
45@@ 0.7568806856632396
Films 0.5152872097357959
ku 0.7408171598254596
otos 1
Wood 0.5360450427482694
ann 0.40221577342797676
uss@@ 0.3009323035755172
hito 1
1817 0.8391199369069641
encialmente 1
clim@@ 1
Dante 1
quiera 1
debates 1
sacer@@ 1
vigil@@ 1
quisición 1
odo@@ 1
grano 1
Equ@@ 0.8920650047927046
Jon@@ 1
extin@@ 1
trim@@ 1
sand@@ 0.4686608734399369
amino@@ 1
Baltimore 0.5205498039881397
Elo@@ 1
Serena 1
Miles 1
iger@@ 1
Raymond 0.5901961893489525
key 0.16885870697607305
Tah@@ 1
Tod@@ 1
ron 0.7162030991583699
Kot@@ 0.6754217173772855
Palm@@ 1
B.@@ 0.7042144937313671
Sean 0.9549981508409333
Velázquez 1
gua 1
replic@@ 1
Frances@@ 1
eller 0.22856217052877723
onne 0.34081146818867114
Sali@@ 1
Segu@@ 1
berger 0.322943199337759
playoffs 0.8003916367179096
Ny@@ 0.6487722135699923
Hermann 0.4357620146072333
ranza 1
foros 1
Land 0.14856898471884913
Tan 1
ísica 1
Bail@@ 1
Correa 1
dominic@@ 1
Ambi@@ 1
ett@@ 0.24887619803456218
bach@@ 1
anova 1
catedr@@ 1
Torre@@ 1
ana@@ 1
atri@@ 1
bet 1
lopedia 1
PIB 1
salm@@ 1
cruci@@ 1
Histori@@ 1
odon@@ 1
Andre@@ 1
Mongolia 1
Patagonia 1
Rita 1
distor@@ 1
Conference 0.21709282091714216
Rig@@ 1
lunar 1
cy 0.4962584650822917
oti@@ 0.999100422778141
yd@@ 0.47965384730361266
Gand@@ 1
za@@ 1
Clem@@ 1
igual@@ 1
udan 1
ectura 1
nior 1
1819 0.8556693296566454
daf@@ 1
chic@@ 1
tades 1
inca 1
Nazar@@ 1
delta 1
dent@@ 1
Huerta 1
arom@@ 1
carbur@@ 1
õ@@ 1
hard 0.2672708555098554
T.@@ 1
alles 1
Mitchell 0.6246756191997607
lez 1
basan 1
Jal@@ 1
Lane 0.5523370888559783
han@@ 0.5205465992636765
idal 1
o- 1
notori@@ 1
Michoacán 1
latin@@ 1
termo@@ 1
Roman@@ 0.6722198122684181
Unesco 1
actus 1
iterráneo 1
Pietro 1
lati@@ 1
osoma 1
pología 1
spe@@ 0.2994409016124095
Expl@@ 1
Ayala 1
Guil@@ 1
Inca 1
ough 0.3368310453512082
din 0.5627834600277087
placer 1
Soccer 0.7105389291361922
ifer@@ 1
ausp@@ 1
cem@@ 1
Martha 1
Nos@@ 1
extern@@ 1
alber@@ 1
gresa 1
Fire 0.4558124717046176
Cinemat@@ 1
Family 0.26005638972579825
River@@ 1
val 0.5075638379286167
kat@@ 0.39038514788203393
Cauca 1
Pich@@ 1
ETA 1
prel@@ 1
util@@ 1
ici 0.5085448274302895
Susan 0.8318053410599662
Luigi 1
Nicol@@ 0.937038508988207
destro@@ 1
hus@@ 1
ontes 1
alo@@ 1
Amy 1
Café 1
Levante 1
jon@@ 1
Dich@@ 1
Multi@@ 0.757413157053152
estamp@@ 1
Leipzig 0.37268880163352264
fec@@ 1
Bá@@ 1
Herzegovina 1
Hesse 1
Rav@@ 0.7107195690206874
Rubio 1
dum@@ 1
revi@@ 0.983823066446102
Arenas 1
Bart 1
creci@@ 1
iche 0.4849895174844492
170 0.8518469266176996
Sainte 0.41234539780550167
UE@@ 1
ago@@ 0.9704231891226291
estri@@ 1
alist@@ 1
igh@@ 0.26228108153232427
Orientales 1
pol 1
triz 1
aleta 1
calibre 1
andi@@ 0.6848763228980653
fología 1
demu@@ 1
dre@@ 0.21161124564742473
Iv@@ 1
bares 1
ling@@ 0.5737754375320492
TS 0.7447213077762203
Selec@@ 1
Tat@@ 0.6041675943344085
Buen@@ 1
Ken 0.7545324421709905
inaria 1
remoto 1
João 1
mac 1
ris 1
isca 1
19.@@ 0.9085700811775779
Ley@@ 1
Lloyd 0.6504623455120347
Lus@@ 0.9649991111313299
kin@@ 0.39821456218713847
Teh@@ 1
bero 1
End 0.5211880283194311
sech@@ 1
gieron 1
tula 1
iral 1
ueras 1
Guadal@@ 1
cables 1
Héro@@ 1
responsabil@@ 1
column@@ 1
privil@@ 1
oku 1
Bit@@ 0.652572870256917
Urbano 1
buc@@ 1
insul@@ 1
21.@@ 0.9588999593314578
Barbara 0.5010742715878139
Blues 0.5848751591328782
pseud@@ 0.9690729271259643
Roosevelt 0.8014746156937794
comprim@@ 1
requis@@ 1
Out@@ 0.49522766165701876
decre@@ 1
1809 0.8125225028832594
Amaz@@ 1
acias 1
Dé@@ 0.27441218944069035
horizont@@ 1
cribe 1
sensible 1
Format@@ 1
heb@@ 1
silenci@@ 1
Krasnodar 1
ful@@ 0.46833573375645304
38@@ 0.7106036386218473
Acosta 1
album 0.028708197710653825
xico 1
paralel@@ 1
ward 0.17242739108232535
Ceb@@ 1
Joaqu@@ 1
inio 1
Two 0.15180367394581512
greso 1
intest@@ 1
Yan@@ 1
bon 0.3652307943907239
refu@@ 1
Pinto 1
comi@@ 1
tant@@ 1
hormon@@ 1
ministr@@ 1
nev@@ 1
Islam 0.5531108694403436
verd@@ 1
enfri@@ 1
ery 0.1981575695504694
ior 1
ò@@ 1
country 0.07409118598743394
hibi@@ 1
1827 0.8029708523913099
ples 0.8026675716138009
Edwards 0.7783196069762551
kins 0.7427463988207006
Campus 0.8311059013490654
verb@@ 0.6315555075906885
Querétaro 1
zh@@ 1
Lorca 1
Sap@@ 0.9886505333062008
acular 1
Cross 0.28971650596608745
Pizarro 1
gris@@ 1
Mang@@ 0.5788244259034934
obe@@ 1
Marino 1
Spor@@ 0.946159493795673
PP@@ 1
DI@@ 1
com 0.830772547187487
1.5 0.6094962800067232
enarios 1
Summer 0.16853749026366677
oval 1
Frederick 0.41170548384540434
Almag@@ 1
you 0.13394886461709093
UC 1
hip@@ 1
istic@@ 1
Mó@@ 1
Helsinki 0.9600181560575831
intend@@ 1
Voc@@ 1
Zor@@ 1
horiz@@ 1
monstr@@ 1
2.0 0.9129766303903687
Daily 0.5312794325844629
lemente 1
Map@@ 1
tele@@ 1
Ey@@ 0.950505550650183
digit@@ 1
Europe 0.07368654889406975
ésim@@ 1
hái 1
Samp@@ 1
confin@@ 1
eton 0.4507414987890341
iti 0.8545590528575191
resul@@ 1
condens@@ 1
vivencia 1
tual 1
incorrec@@ 1
aret 1
Linda 1
Europ@@ 0.48600680002932517
Prince 0.1973690881992583
Ariel 1
Plas@@ 1
ring 0.21958018142932564
Ballet 1
Dick 0.7252105830521238
tú 1
102 0.7641345473020837
final@@ 1
trap@@ 1
Ox@@ 0.7966400799282028
oux 0.6129664654226294
transmit@@ 1
descendi@@ 1
Haz@@ 0.6654557638362473
Viz@@ 1
ael 1
dop@@ 1
perí@@ 1
Bros 1
Gaz@@ 1
ego@@ 1
Carac@@ 1
paro@@ 1
Nob@@ 1
Olga 1
indis@@ 1
Moderna 1
eb 0.6523064502137959
australi@@ 1
confer@@ 1
Rachel 1
Rogers 0.7407426484084377
borg 0.9819579180162206
4000 1
berg@@ 0.42663301003742027
ibe 1
Aire 1
médic@@ 1
Guanaj@@ 1
Dig@@ 0.8799128445326828
primor@@ 1
azz@@ 1
preced@@ 1
vis 0.5475840643205656
Č@@ 0.6052910590806884
Chico 1
Denis 0.6326571412181723
inde 0.41306467213476433
Collins 0.6544385776241805
Portugu@@ 1
Parra 1
ost 0.29365863473997283
Project 0.34111255976349936
Woman 0.691617695246668
Pier@@ 0.9063485590249647
fach@@ 0.7597211107364101
morales 1
Uz@@ 1
ô@@ 0.40940318586709107
vector 1
exige 1
plur@@ 1
bie 0.5656657773754895
residi@@ 1
ris@@ 0.3829006317300696
sho@@ 0.22385213662054051
Val 0.6118712585222393
128 0.8922341630370655
inski 1
tepec 1
Aren@@ 1
blas@@ 1
Chelsea 0.8765076051110892
endi 1
triangular 1
Acces@@ 1
Cit@@ 0.7785856294344421
100.000 1
terior 1
Campe@@ 1
Compar@@ 1
fruc@@ 1
Green@@ 0.5119439147744942
Sah@@ 0.7490811254847374
puls@@ 1
uel 0.7016861044967019
matricul@@ 1
ding 0.15433294079463572
1.000 1
Ron 0.7906389165053835
mini 0.7602377272661398
agros 1
uer 0.6692922987963563
Nik@@ 0.5985376324380633
king 0.09438083520779618
Jennifer 1
diversi@@ 1
usti@@ 1
kal@@ 0.2561084740472243
Bass@@ 0.5328663427174687
atina 1
descend@@ 1
entu@@ 1
Ralph 0.7056897201487645
jal@@ 1
Will@@ 0.5616381721543869
olig@@ 1
Buena 1
zer 0.29748251587449887
1818 0.7057685357608317
Romeo 1
cón@@ 1
éli@@ 0.6306760945815076
Narc@@ 1
insurg@@ 1
Eul@@ 1
hú@@ 1
EC 0.701776506485663
22.@@ 0.9045680113709811
Afr@@ 1
Guevara 1
tún@@ 1
üe 1
Proven@@ 1
indefin@@ 1
orada 1
tac@@ 0.39408877984528756
ations 0.025828015830052134
Centre 0.15883602038600847
cel 1
Wang 0.6605156497403272
Ord@@ 1
dimensional 1
People 0.20327418911354964
obo@@ 1
tum 0.5880983342369733
sín@@ 1
uses 0.09786251339263478
ciano 1
Nah@@ 0.5768525664434248
fat@@ 0.9405394798119875
ló 1
Bun@@ 0.6146922997563988
Rangers 0.5945073027246935
Lep@@ 1
Pueb@@ 1
atra 1
nup@@ 1
civiliz@@ 1
Bryan 1
ju 0.9027110762128219
IB@@ 0.9570727303001989
SI 0.9409615289070874
Afric@@ 1
Emilia 1
uke 1
Anton 0.5452687965561971
Inv@@ 1
infect@@ 1
Slam 1
Sv@@ 0.9513609485927366
impul@@ 1
MP 0.3731493563805959
Establ@@ 1
Gad@@ 1
Arquit@@ 1
Garcia 1
Boh@@ 0.5574192208179498
EL 1
Luke 0.7218163986860944
concili@@ 1
factor@@ 1
ovski 1
Cuz@@ 1
absolut@@ 1
ateral 1
Oreg@@ 1
pris@@ 0.7648949550626337
trau@@ 1
clo@@ 0.5276274128428841
20.000 1
RF@@ 1
ordenadas 1
Sier@@ 1
iTunes 1
wick 0.5489487340526907
war@@ 0.09736129726620023
AB 0.6203981554151675
Oh 1
ark@@ 0.3125599499279913
blo@@ 0.3906665644164105
infiltr@@ 1
Dow@@ 0.4849168355799112
reten@@ 1
Personal 0.20192665753010453
Wit@@ 0.4072286823430113
ów 0.4369837296040968
ats@@ 0.3803190907918166
ose 0.26148672832395264
Camar@@ 1
Ich@@ 1
Tos@@ 1
α 0.32018610653967333
Bah@@ 0.3892200939876714
Singles 0.3754679509451963
propiet@@ 1
ste 0.15927620592286343
gros@@ 0.6047074127548487
Martin@@ 1
NFL 0.328105624057581
interc@@ 1
Foundation 0.21388527753453204
tomas 1
Guardi@@ 1
aid@@ 1
pren@@ 1
e.@@ 1
kon@@ 0.15045533282718854
Primo 1
Portland 0.5438415798269765
Wild 0.6092710875895306
mantel@@ 1
tonal@@ 1
SU@@ 1
70@@ 0.6831199674925074
pulmon@@ 1
47@@ 0.8933078843378999
Party 0.07962448951267746
aula 1
Varela 1
morfol@@ 1
Ronald 0.9206665759291586
Tang@@ 1
Yak@@ 1
aro@@ 0.6057783661300553
say@@ 1
Max@@ 0.9701604670014511
produ@@ 1
obi@@ 1
struc@@ 1
laborat@@ 1
ment 0.05923784142625682
ocic@@ 1
yen@@ 1
Aquit@@ 1
Que@@ 1
reality 0.5127210866370088
íferos 1
Philippe 0.3643722780130393
Blu@@ 0.5249720167952556
lanceol@@ 1
CM@@ 0.9237430555286942
intervenir 1
guil@@ 1
ols 0.2901033746032176
ep 0.39338846890210927
Vec@@ 1
onz@@ 1
liquid@@ 1
100@@ 0.7598365993825998
ISO 0.9394321111165802
Manila 0.9961367650167026
1806 0.6266032064465823
oqu@@ 1
paleont@@ 1
Prix 0.2050068779495608
cili@@ 1
frut@@ 1
humo 1
ollo 1
mones 1
uato 1
Fres@@ 0.7793672606503242
Hunter 0.628054528958965
Liter@@ 1
pers 0.3424872826903583
Roberts 0.6657889096235846
10.000 1
amon@@ 1
metaf@@ 1
ave@@ 0.5563242766414347
cut@@ 0.8027261462132785
ameda 1
ometr@@ 1
PM 0.8458739095571279
homosexual 1
Johannes 0.3339754825506384
Ghana 0.6970387906609846
ako 1
profund@@ 1
Proy@@ 1
heavy 0.23571170688834167
Gin@@ 1
lard 0.5178464209474385
Saf@@ 0.6431853157030613
UA 1
advoc@@ 0.5144695389642067
iero 1
Ivan 0.6643662002427543
intermedia 1
protagon@@ 0.8841348291377941
Ambro@@ 1
FO@@ 1
tori@@ 1
Darwin 1
Software 0.6370866594342997
ege 0.584706425739285
oke 0.3989054582083053
afi@@ 1
oidea 1
Jr. 0.7519600485418312
Birmingham 0.49705390453929205
FBI 0.9322264541370152
devast@@ 1
sant@@ 1
Montana 0.7576325786193437
Shir@@ 0.9505766003033188
alición 1
perd@@ 1
Venez@@ 1
déj@@ 1
igny 0.7646635830197517
pasa@@ 1
eh 0.404810237367313
Dj@@ 0.8306962535078934
Tanzania 1
Wolf 0.5505315230822577
didad 1
Ernest 0.6515406394518902
ennes 0.25724248352282847
wi@@ 0.321053063787741
caro 1
1700 0.9630662477886505
Basket 1
Wat@@ 0.5874481774909268
Keith 0.7094598824712156
Carri@@ 1
104 0.7675351213061056
perturb@@ 1
Hag@@ 0.6221284604125786
cis@@ 1
potable 1
glomer@@ 1
oyen 1
Verg@@ 1
Motor 0.4156028055763823
greg@@ 1
22@@ 0.6131995673943268
Cole@@ 1
Gos@@ 0.6735729750011573
scrip@@ 0.7887018271349738
Cres@@ 1
ty@@ 0.1835246181037083
Dennis 0.723390444507787
Pist@@ 1
Up@@ 0.5660852078902177
elig@@ 1
ET 1
PL@@ 0.8348466117458507
Silver 0.5306197721594975
bacteri@@ 1
Pastor 1
fluor@@ 1
biodi@@ 1
Audit@@ 1
Resp@@ 1
BO@@ 0.9995063407008501
anatom@@ 1
conjun@@ 1
Stein@@ 0.21240146708107088
miel 1
Zh@@ 0.9463061205166118
Gray 0.6435316879362765
manif@@ 0.8730396420942865
aia 1
D.C. 0.44509994344426396
anar@@ 1
Ultimate 1
ells 0.26259540927837094
Marcel 0.7087114735909992
Lie@@ 1
astía 1
Princi@@ 1
ocampista 1
nis 0.3562823603621989
eland 0.3726891212875261
borough 0.34524800783557946
Tay@@ 1
n.@@ 1
Flash 1
tires 1
ovo 0.7394170331230826
Kun@@ 0.4798291591415881
Progres@@ 1
Tet@@ 1
abra 1
erios 1
recipi@@ 1
Sacramento 1
convic@@ 1
adounid@@ 1
folk 0.4866901506904411
ader 0.3552009163856924
Enti@@ 1
multin@@ 1
aku 1
star@@ 0.3552457256045477
Serra 1
caria 1
thi@@ 0.35349262446614205
Atlantic 0.27366474203894947
Wikipedia 1
acet@@ 1
vot 1
Mans 0.9858004141679105
Natalia 1
Place 0.44662629595276826
Sm@@ 0.5399547726905298
atan 1
tuber@@ 1
115 0.8192556937518223
108 0.7918662791294725
Cun@@ 1
abrup@@ 1
terrible 1
CP 0.7390902082640424
head 0.0684319192797497
her 0.011161215428834454
isha 0.7364590651659384
estig@@ 1
lom@@ 1
mutu@@ 1
ders 0.16652466598284432
less 0.07622304377337864
103 0.793901647751083
Stor@@ 0.5351167145449972
NCAA 0.32064427310701626
Rut@@ 0.89285174127375
andi 0.8968916526951571
Euphorbia 1
particular@@ 1
NT@@ 1
thr@@ 0.2904484068289821
yg@@ 0.6379671106925577
CR@@ 0.7541831076899759
Itur@@ 1
Elba 1
Paolo 1
reptiles 1
Dram@@ 1
ezo 1
arz@@ 1
AI 0.8767734219026311
ret 0.41211291001296224
Investig@@ 1
detective 1
Ses@@ 1
uti 1
sch 0.19902286307196237
taur@@ 1
membr@@ 1
1,2 1
ander 0.5745066776723929
Pati@@ 1
acul@@ 1
Moldav@@ 1
escu 0.8925485937977524
kel 0.31943637777900585
39@@ 0.732021870346375
aré 1
ctu@@ 1
Abel 1
Spencer 0.8229250824500421
patron@@ 1
binom@@ 1
similit@@ 1
II@@ 0.7462302876558754
ejec@@ 1
£ 0.2019850668861118
Country 0.31086582066083274
Eugenia 1
109 0.8095540293158197
pastor@@ 1
Justin 0.815499244828263
1789 0.7202518454830412
Ix@@ 1
Tigre 1
Vladimir 0.6747628739686407
nau@@ 1
21,@@ 1
Hall@@ 0.6598069470861978
unto 1
Ves@@ 1
Moc@@ 1
GB 0.5730893198932572
Magic 0.7566511628182829
Hard@@ 0.5562038183189773
Wor@@ 0.3085253359055484
Jung 1
Four 0.3025999940942922
Mata 1
Murphy 0.7069579888418047
abo 1
porta@@ 1
49@@ 0.7036184597387212
Von 0.07501271373458257
By@@ 0.6382276191510209
Forest 0.31333502331048196
lluvi@@ 1
andro 1
corro@@ 1
ondr@@ 1
melan@@ 1
tun@@ 0.5486162488853169
Led@@ 1
Luciano 1
atamente 1
úcar 1
Helen 0.686074977552699
circunst@@ 1
Come 1
Leb@@ 0.4223685195237839
Bowl 0.38166207787831496
Bar 0.5271105633719454
Urugu@@ 1
carse 1
Ax@@ 0.8964284519507204
ursos 1
lengu@@ 1
non 0.04635881691057101
Jesus 0.3703796407846059
ck@@ 0.33459997872031
ibilit@@ 1
ë 0.826972464605167
Oslo 0.7915100252549533
Rin@@ 0.9665451805336374
explo@@ 0.25170103999601157
EC@@ 0.8692955572058974
huel@@ 1
precursor 1
aura 0.8422436853779371
Acta 1
ois 0.3314369066545411
sets 0.3001480618885453
Earth 0.23834295424874086
out@@ 0.0916935714354388
cera 1
ike 0.3456797317077381
prolifer@@ 1
Rural 0.431287917107457
Sent@@ 1
ocon@@ 1
Fuj@@ 1
istes 0.18496433815752222
jard@@ 1
menta 1
murales 1
ologia 1
Berkeley 0.696974569306452
220 0.7705200118915766
versario 1
Benjam@@ 1
opar@@ 1
So 0.1271964711455942
Coron@@ 1
Camp 0.4530755818517866
leuc@@ 1
Nepal 0.7139777042639885
rie 0.4539837925219084
Taekwondo 1
ingia 1
has 0.008775564105965781
Over@@ 0.35845489786872187
yl 0.2959408436086357
manz@@ 1
ustre 1
CI 0.974896212485649
og 0.6544741681397495
ísim@@ 1
Lanka 0.5438780297852674
fascin@@ 1
valdo 1
Armstrong 0.8598424961125997
sigui@@ 1
Nev@@ 1
adra 1
Tari@@ 1
one@@ 1
Kub@@ 1
Acc@@ 0.7251732142437766
Cari@@ 1
Glasgow 0.4787980225646123
Irene 1
lang@@ 0.353183870546197
Jacinto 1
Garc@@ 1
Knight 0.5286581981685967
Ted 0.8425016734260582
ister 0.32130864851783936
filó@@ 1
Book 0.2705027224670042
1.0@@ 1
sign@@ 0.3337660126367349
doctoral 1
our@@ 0.1962363432026893
ör@@ 0.2491755479398364
Gabriela 1
persp@@ 1
Org@@ 1
Cho@@ 1
Once 0.43231579182956215
Six@@ 0.7075960166403966
dance 0.2647569309215186
Esmer@@ 1
U. 1
asso 1
Industri@@ 0.5891742040358214
Productions 0.6702620137801295
dible 1
UD 1
heredit@@ 1
imi 0.6036663182022174
Palatin@@ 1
Lenin 1
ague 0.7562429192553212
Fat@@ 0.9802654942644421
Jessica 1
Call@@ 0.7766441004473744
Jus@@ 0.7965927736010492
bs 0.159247596329827
lon 0.8680204241366299
August 0.02661686041489984
mural 1
opus 0.9173457535794584
Tob@@ 1
1790 0.6818546019569873
Alco@@ 1
IG@@ 0.8712680308488597
Miy@@ 1
anth@@ 0.42573579845393866
uli 0.809338505735543
agio 1
1793 0.6274528650474245
Catherine 0.4240149313317416
dán 1
fes 1
Og@@ 0.7571072585626498
eclip@@ 1
Amad@@ 1
but 0.010850102046985523
rid 1
aram@@ 1
ei@@ 0.5901462393283888
neamente 1
Gram@@ 1
Cabr@@ 1
uche 1
Dame 0.3585163759008999
Grim@@ 0.7329119977465206
chocolate 1
22,@@ 1
Buda 1
Lost 0.8180461351918046
Miembr@@ 1
uten 0.601025733294491
Constru@@ 1
Til@@ 0.7237614797522368
Ou@@ 0.49722611555025914
Cannes 0.9994613329247899
Disco 1
jan@@ 0.8480862729780773
Android 0.9347625895454488
Leonard 0.7276680577515621
ampo 1
arab@@ 0.7875479576387375
cala 1
lor 1
240 0.8876887689036856
quen 1
Bour@@ 0.439004631614702
usta 1
MS@@ 0.5534081916597213
Durango 1
Ni 1
aup@@ 0.6761050436828105
Bed@@ 0.5070478553975742
neu@@ 0.4896737317823863
Gem@@ 0.49022481284366864
alti@@ 1
U.@@ 0.6966591659819543
toral 1
~ 0.65358747928119
inata 1
AV@@ 0.9087765443079382
eme 0.39758650467258344
oja 1
arme 1
fabr@@ 1
Isid@@ 1
cuta 1
eville 0.6861834154913669
hilo 1
rid@@ 0.6496495925946885
corn@@ 1
ï@@ 0.19265357073863915
Botan@@ 1
Finanz@@ 0.49229736161157023
chen@@ 0.25609092167914105
23.@@ 0.8037577138173425
enburg 0.3033416012334668
tenor 1
zen 0.1757891209554029
manch@@ 1
Good@@ 0.5968602986909516
Tad@@ 1
Stuart 0.6269204541519638
al. 1
Zam@@ 1
Just 0.4807692098598712
Kim@@ 0.8735562043436199
Tru@@ 0.9216192504925662
Bin@@ 0.7796644565492624
Cole 0.8404332732147821
Vier@@ 0.4649583011088862
Pete 0.9094787404558683
Italiano 1
hegem@@ 1
Terminal 1
indem@@ 1
Champions 0.36839414084639743
Edit@@ 1
1753 1
investi@@ 1
ric 0.7377970381400112
inclusive 1
Rob 0.8559159597587219
balance 0.6826614602500605
š 0.6817557047159344
odor@@ 1
2.5 0.6172909094344532
Andorra 1
Fauna 1
uchi 1
Wall 0.5493147109136195
etano 1
paramilit@@ 1
MI 1
Car 0.6062219706889838
Mountain 0.27854809734642666
Santana 1
esma 1
ore@@ 1
26,@@ 1
Myr@@ 0.9392587298440259
singles 0.22868880200279867
G.@@ 0.8932522419813205
Gy@@ 0.7217345809206136
24,@@ 1
Pass@@ 0.43016483468493627
Louise 0.5071065644039394
MX 1
urus 1
bron@@ 1
Asp@@ 0.8158959311950054
Gó@@ 1
Western 0.1033110286818836
Village 0.3759056482023759
Watson 0.7090600941440212
Electric 0.5914616705207738
Saav@@ 1
Bonaparte 1
Cristiano 1
Tower 0.47423027602191736
ER 0.8352223708909974
Let 0.6332810491513704
abamba 1
peste 1
conceptual 1
25,@@ 1
antagon@@ 1
Bud@@ 0.5430552223476129
ML@@ 0.9168507810053019
zy@@ 0.34236300169155764
Hart 0.7549724174502936
bel 0.4118369604084912
Der 0.01561094387346544
Row@@ 0.556651580720738
Sib@@ 0.9394604601414186
unter@@ 0.09689963998509199
marketing 0.5567439383704955
Ques@@ 1
adia 1
agi 0.9662760253491782
sid@@ 0.5862649311886762
Dum@@ 0.6232952261570524
eon@@ 1
ā 0.6324828738910269
Lola 1
Sic@@ 1
Haya 1
Metr@@ 1
ady 0.4745942904455019
rapid@@ 1
sag@@ 0.7928632593656122
Free 0.3268541268312948
obsol@@ 1
Antonia 1
lete 1
zz@@ 0.683307879770687
far 0.15424320249728957
Jab@@ 1
Put@@ 0.7852078258596606
wald 0.29964563641184794
mate 0.6530823991283978
master@@ 1
isés 0.7440572022002164
Llor@@ 1
ě@@ 0.5570346891269087
Infer@@ 1
zan@@ 1
alent@@ 1
atro 1
4.000 1
Contra 1
icum 1
Gom@@ 1
Toulouse 0.6293687926952466
Vu@@ 1
Cameron 0.7690765485835983
Latino 0.7413524926817584
Beethoven 1
Distr@@ 1
Zero 1
Pacific 0.16139247058718906
107 0.8008945148525374
Zapata 1
fas@@ 0.4415957359036533
vaj@@ 1
deton@@ 1
prostitu@@ 1
anum 1
day 0.04042438117376297
intu@@ 1
ord 0.39889501540327665
North@@ 0.5277217719757182
got@@ 0.6580832452678329
Trav@@ 0.5672398145077819
Laz@@ 1
prior@@ 1
Rotten 1
Betty 1
telenov@@ 1
chal@@ 1
ográ@@ 1
Priv@@ 0.8074819108573831
0,5 0.9582992723263394
Const@@ 1
Universit@@ 1
onder@@ 0.8167214562329334
solid@@ 1
Craig 0.6892978782106095
Mega 1
Hig@@ 1
imin@@ 1
taro 1
ally 0.04401148423372055
lino 1
Tyler 0.9640764891129945
ayan 0.47362249476433105
capul@@ 1
conce@@ 1
onces@@ 1
lau@@ 0.5152305741694666
Áng@@ 1
anthus 1
zon@@ 1
Silvia 1
Ubic@@ 1
robot 1
odes 0.6440845771653935
plural 1
Carbon@@ 1
ayor 1
106 0.7541535651108704
ś@@ 0.586712853506571
ambo 1
canadi@@ 1
inventor 1
kW 0.8067689488746294
set@@ 0.6616283687234501
aras 1
Peru@@ 1
Bras@@ 1
mon 0.45292576498253173
mexic@@ 1
muda 1
lav 0.858310399802965
ardi 1
Erik 1
Niv@@ 1
111 0.7951211541521367
echua 1
trio 0.7744061641428603
ball 0.15133058881002992
icula 1
Fra@@ 1
Wallace 0.6967600356388135
abras 1
cand@@ 1
ekwondo 1
hen@@ 0.8903582960160595
Big@@ 0.7091323871111263
ae@@ 0.8435416037209111
19@@ 0.7660748192771506
socio@@ 1
tev@@ 1
Josh 0.9554607823336008
Introduc@@ 1
irre@@ 1
jurisdic@@ 1
Rich@@ 0.4668916664140496
Antioqu@@ 1
Model 0.4956931997374765
vietnam@@ 1
Alegre 1
IT 0.5545254731739276
epit@@ 1
hat@@ 0.38103999979043396
Ble@@ 0.4716509568319839
DP 0.5007641068947786
Jules 0.6215976751522163
Holstein 0.7242340740236727
135 0.8018763406198165
fi 0.7981743220796466
mandad 1
neutral 1
1792 0.6797373525712657
Amen@@ 1
Are 0.80394212350602
Uganda 0.7687426094992906
Morrison 1
Ath@@ 0.48090292839178567
quier 1
iya 1
FF 0.6194704617818214
† 0.07585526798143792
desto 1
4,5 1
inho 1
adio 1
Blake 0.8943005302365444
alls 0.36083096677333126
uru 0.8591627656822249
Total 0.8826872178075188
ochet 1
McCartney 1
ness 0.11807904426326384
olan 0.12119758212737411
óvenes 1
Hugh 0.581883938478404
Obama 0.6811636411698758
Rock@@ 0.5535844347219668
lech@@ 1
.S. 0.7419078883750874
BM@@ 0.6631991121621811
Cord@@ 1
vila 1
Alternati@@ 1
obj@@ 0.4010578560338821
iel 1
esh 0.4244149971560499
Jin 1
ozo@@ 1
nominal 1
Brag@@ 1
ombo 1
112 0.7943482511925
refr@@ 1
Aaron 0.7703164568855633
rag@@ 0.5185847870118206
Jin@@ 1
monoc@@ 1
Nicholas 0.5108201090039307
Emir@@ 1
Nord@@ 0.14478482926906214
Augusta 1
Import@@ 1
Sullivan 0.6950479958376952
Now 0.4211701187660644
draft 0.37492432191954367
Get 0.8759286940165928
fru@@ 1
rita 1
90@@ 0.727058053113802
gro@@ 0.28319378176997906
pasta 1
Senegal 1
Bod@@ 0.3878025739510415
Kosovo 0.8489201240783767
Yas@@ 0.9694047887029331
Candid@@ 1
Luz@@ 1
demo 1
Italiana 1
enverg@@ 1
depres@@ 1
rim@@ 1
aux@@ 1
uerto 1
CS 0.466520396981848
anat@@ 1
né@@ 0.5448241850928028
ométr@@ 1
Pino 1
Hell@@ 0.7628735036507501
promet@@ 1
futbol 1
interfer@@ 1
Harvey 0.7129519580605301
haz 1
Aguilera 1
CN 1
lanes 1
Parma 1
alus 1
dimen@@ 1
tice 1
Mozambique 1
Wolfgang 0.48362994274562826
Match 0.8817395385339554
Stan 1
anol 1
institut@@ 0.7825567113627807
iss 0.45666424966803165
Luch@@ 1
Olimpia 1
Jag@@ 0.6862411173312299
Thor 1
Zi@@ 0.35240974717548573
Lucy 0.8880213376854684
Principal 1
pula 1
1807 0.6838872032531446
1801 0.6300634746366126
Christ@@ 0.3882308834255614
Persia 1
Silesia 1
Water@@ 0.47896556002312984
app@@ 0.21138219029196811
scar@@ 0.7780946557264964
Dou@@ 0.35516103850788355
ectu@@ 1
Shaw 0.7644205537621508
kir@@ 0.4521000053846961
Blood 0.759006250025326
Business 0.25128850879241393
Heli@@ 1
Mug@@ 0.8266767593158287
ères 0.13376233379423041
ms 0.16262525348345847
23,@@ 1
reempl@@ 1
perc@@ 1
tromp@@ 1
Fam@@ 1
Palmer 0.8187970518465651
foli@@ 1
revol@@ 0.4736930334217423
stor@@ 0.23776024110313135
énez 1
Rud@@ 0.6287346681731768
Ré@@ 0.24161229740803436
sulf@@ 1
Joel 1
glu@@ 1
Open@@ 0.6020014006405303
éni@@ 0.8523238278065884
Aman@@ 1
single 0.043125129603237354
Claire 0.8682450388024066
Jov@@ 1
Revolucion@@ 1
hes@@ 1
pter@@ 1
ond 0.23051553511275183
Greg 0.7591805612022052
Lynch 1
ote@@ 1
continentales 1
Spir@@ 0.5755142897038721
Reed 0.8182572514186947
name 0.028327063563847617
verg@@ 0.5405142746004142
Wol@@ 0.350989090364522
Ez@@ 1
.000 1
48@@ 0.7915894649842664
istan 0.8559429362354136
fundament@@ 1
Extr@@ 1
27,@@ 1
gras@@ 1
Antil@@ 1
asp@@ 0.9196880922273127
reactor 1
motor@@ 0.3199365664206047
drag@@ 1
Aleksandr 1
Bristol 0.49609293950488653
Field 0.2447483003800255
lación 1
Alma 1
Emily 0.8668661676923404
Owen 0.785346004095698
epa 1
Rac@@ 0.6509872965235708
señor@@ 1
Wel@@ 0.3203094419306837
solidar@@ 1
RCA 1
conclusi@@ 1
oslav@@ 1
ider 0.2830234728551277
dog@@ 1
etermin@@ 1
arit@@ 1
Johan 1
dioc@@ 1
Hot@@ 0.8725798998544183
Cha@@ 1
TE 0.986771704888947
guerrilla 1
pseudo@@ 1
Hulk 1
ebol 1
mares 1
agar 1
édi@@ 0.6043222534706879
Andrade 1
King@@ 0.5578453724310335
Ruth 0.7319160383881342
gel 0.663962268023756
insist@@ 0.7474959543911865
cán 1
hist@@ 1
ucci 1
ute 0.21789633770701025
afe 1
low@@ 0.2679345052702269
onn@@ 0.18442957928583628
Bernardino 1
till@@ 1
320 0.9454478200189315
Guill@@ 1
apan 1
Carol 0.9886548217634888
Dil@@ 0.9421119047919941
Hop@@ 0.5804232049496546
Madame 1
Lennon 1
PE 1
fric@@ 1
Marcel@@ 1
Tou@@ 0.706785447007668
ony@@ 0.5747532766139392
EP@@ 0.7984035831939131
aerod@@ 1
Flu@@ 0.5976269566583273
BMW 0.8587614180558459
Major 0.18092020002596096
trep@@ 1
aman 0.694822361120102
Chevrolet 1
vich 1
Hispania 1
Chad 1
dict@@ 0.6114341571484708
Monroe 1
NXT 1
Not 0.3663059399669469
quez 1
eder 0.4996860213489489
eka 0.748238832809823
coronavirus 1
fotograf@@ 1
herr@@ 0.8761603632464735
toria 1
Mexic@@ 1
aloa 1
pilot@@ 1
Archi@@ 1
dell 1
Ramon 1
gli@@ 0.5568821697028393
ox 1
obje@@ 1
Coqu@@ 1
ray 0.42192014118301996
ater 0.26424787513586284
év@@ 0.28619557764687786
titud 1
Sena 1
NS@@ 0.48863070029495215
extraterres@@ 1
molec@@ 0.7988779729619372
Milan 0.3699740148479263
Boliv@@ 1
gravit@@ 1
déficit 1
Feli@@ 1
Sandra 1
Spar@@ 0.39815286104482767
aden@@ 0.7366374498868307
Neb@@ 0.5177768010212679
Sis@@ 1
nez 1
hib@@ 1
Identi@@ 0.8490654039338764
RAM 1
1794 0.686407336695165
seria 1
Artiller@@ 1
History 0.045352019183957364
Lamb@@ 0.978243513089247
ispa 1
ther 0.33090197830770635
fem@@ 1
Tel 0.8636731308388711
ī 0.6168733797903944
Sed@@ 0.925849122911032
aica 1
conqu@@ 0.4624377514585829
esin@@ 1
Mount 0.20579883802437998
prac@@ 1
Lenin@@ 1
mom@@ 1
trol@@ 0.6356891444979276
ET@@ 0.9145634579424373
Queensland 0.2998295820444622
basal 1
ye@@ 0.2850409908711705
2500 1
Music@@ 1
Kab@@ 0.39819625708742445
vale 1
Stuttgart 0.40745671092058555
Ve@@ 0.7727259173465116
Nab@@ 0.9393153150679328
Ward 0.4758545223840131
dru@@ 1
sha 0.8480905027770024
25.@@ 0.8020588172561023
1803 0.5790205080385834
Coy@@ 1
imal 1
Gibson 0.8675571104330947
amur@@ 1
UR@@ 1
crucial 1
atiz@@ 1
ated 0.020604144573327363
star 0.16028580620406957
Giro 1
manda 1
ingles@@ 1
ata@@ 1
atio 1
gy 0.45999410151069525
Kap@@ 0.28817266966671257
lot@@ 0.974113679423034
Hit@@ 0.5739010040923036
Mina 1
TR@@ 1
1300 1
Bull 0.7738750710602308
Celebr@@ 1
Springs 0.5864269339225483
uber@@ 1
itt 0.519200887447986
Hey@@ 0.6327790548477433
Guardian 0.6499100586666118
cis 1
Mercur@@ 1
lama 1
Dresde 1
Juan@@ 1
PRI 1
oka 0.8465766710868665
fati@@ 1
Picasso 1
1805 0.673224448080533
Edge 1
Stan@@ 0.5893730504893598
uck 0.4944628702038164
Law 0.158307270556196
Gustav 0.5292983029536288
ott 0.390248148992157
European 0.06384724519718563
consor@@ 1
ef 0.36380787911200196
Matil@@ 1
camis@@ 1
alin@@ 1
eir@@ 1
Ofici@@ 1
Mohamed 0.9293752629513703
jes 1
Chen 0.7722752545825796
bor 0.5199999742196655
relat@@ 1
Jard@@ 1
membran@@ 1
Diam@@ 1
Ani@@ 1
Fidel 1
Mall@@ 1
Elimin@@ 1
Guerr@@ 1
ME 0.881832978262151
Soul 0.7292117265204128
AE 1
Cec@@ 1
Marin@@ 0.7213384066912467
maestr@@ 1
Zhang 0.7988377112092603
ams 0.18036387593642098
tex 1
Balt@@ 1
elen 0.503194836164498
epis@@ 1
ST 0.6945783300841833
gina 1
Ō@@ 0.760349200834228
Valenci@@ 1
abal 1
sufici@@ 1
Probl@@ 1
cle 0.6907992685712412
fan 0.4069717147504298
minorit@@ 1
ull@@ 1
usur@@ 1
Mason 0.6977490227277205
exhaus@@ 0.7548820984124701
telegr@@ 1
Ž@@ 0.6531773792649984
extermin@@ 1
IR@@ 0.7236879901010973
wich 0.6359409931572751
igen@@ 1
sei 0.13480634298635982
subsist@@ 1
contempor@@ 1
etno@@ 1
pt@@ 1
jord@@ 1
Rou@@ 0.4508586224513526
archi@@ 0.7304936979538038
Olimpi@@ 1
ficios 1
face 0.08022581188326741
pp 1
réc@@ 1
Ins@@ 1
Kus@@ 0.7282183644318684
Salm@@ 1
190 0.8537023365660411
antino 1
chan@@ 0.5358674175103536
Brande@@ 1
Bucarest 1
Tomatoes 1
pay@@ 0.31294765007907005
paradig@@ 1
ages 0.056734550539906684
Emmy 0.8516914408855334
palm@@ 1
Bello 1
fusi@@ 0.8413663304777254
Montserrat 1
Om@@ 0.716226495376006
Maya 1
lier 0.25171441236928793
papal 1
Clarke 0.690048605990679
Kids 0.9739187520828002
Stark 1
Euc@@ 1
aida 1
idir 1
Holmes 0.75913618327809
Karen 0.9782583695622754
Race 0.5461740889485748
yev 1
ífer@@ 1
pia 1
PR 0.5899729625269388
iner 0.3148816827591835
Hope 0.5949955588245818
Pomerania 1
Zeus 1
sinu@@ 1
amn@@ 1
cialmente 1
Sud 0.18641361199917497
Relig@@ 1
anom@@ 1
Pittsburgh 0.4120371501794466
Plus 0.33994695412535464
Alexandre 0.480925675244018
Price 0.6963335111660766
Ore@@ 1
aks 0.26538505706512505
bu 0.1087230849839925
AFC 0.7475400688745726
Ciud@@ 1
More 0.29362793884512817
Seb@@ 1
Drag@@ 1
famili@@ 0.7697383051472136
max@@ 1
Net@@ 0.5916063250081096
treg@@ 1
1795 0.6641540374888358
Pra@@ 0.6874171727679727
Was@@ 0.45701218038331815
oug@@ 0.38969780766086254
Españ@@ 1
disi@@ 1
Inter 0.7615990231652657
apit@@ 1
Denver 0.612577684682138
Hughes 0.6275370118300186
eum 0.5730633999294621
istar 1
Shim@@ 0.8480547769414076
ame@@ 0.7004020503912068
28,@@ 1
Kane 1
Telef@@ 1
Jen@@ 1
Sci@@ 0.8170365007521422
Desp@@ 1
Gaza 1
Toyota 0.9016800375482514
neb@@ 1
́ 0.05057749093197094
excit@@ 0.9964989091032609
icks 0.4875730040053164
escop@@ 1
Isa@@ 1
pina 1
Dí@@ 1
lov 1
ulus 0.6442147692968807
xia 1
Wu 0.7372702178987434
automati@@ 1
Autonom@@ 1
Battle 0.13976419086706882
asse 0.24067799031286607
axi@@ 1
ié 1
Machine 0.7343319544262571
rostr@@ 1
44@@ 0.7900605126329086
muscul@@ 1
24.@@ 0.7691643693460385
Nur@@ 0.5998302739059643
hara 1
Mexico 0.13142197981881742
ONG 1
paus@@ 1
Sanc@@ 1
urs 0.1508163724364739
soprano 1
Rudolf 0.41080622777407355
fugi@@ 1
santi@@ 1
anglo 1
tona 1
ws 0.17946415111919012
Salz@@ 0.7198663626838894
sible 0.8089070943779737
Wells 0.6540926722308675
Wes@@ 0.3829640784646768
auc@@ 0.5310934374221584
Boul@@ 0.5809118673792252
LC 0.7868152552010789
ka@@ 0.8193682314707493
rang@@ 0.7907061139392425
xen@@ 1
Kō@@ 1
Alfa 1
Dami@@ 1
comparable 1
satur@@ 1
parent@@ 1
Volun@@ 1
GI 1
Euse@@ 1
icho 1
Panzer 1
1804 0.6633456975621839
Hardy 1
Roman 0.09583624916236846
bell@@ 1
ID 0.6709472357489109
Schleswig 0.6460433920610604
Derr@@ 1
[...]
