. 1
, 1
на 1
и 1
в 1
е 1
от 1
се 1
( 1
) 1
за 1
@-@ 1
с 1
„ 1
“ 1
&quot; 0.4918441169158076
да 1
по 1
са 1
– 1
г. 1
като 1
през 1
г 1
си 1
до 1
година 1
През 1
В 1
а 1
му 1
но 1
че 1
не 1
: 0.9166063907204809
ни 1
ните 1
това 1
към 1
ната 1
които 1
най 1
при 1
който 1
след 1
или 1
На 1
ски 1
ва 1
фон 1
във 1
; 0.7713173388439767
има 1
ния 1
ска 1
ка 1
не@@ 1
ли 1
част 1
време 1
ската 1
т 1
на@@ 1
която 1
години 1
След 1
което 1
ския 1
със 1
пре@@ 1
той 1
те 1
ното 1
А@@ 1
за@@ 1
из@@ 1
град 1
1 1
л 1
ват 1
ци 1
ти 1
ване 1
По 1
та 1
н 1
раз@@ 1
Е@@ 1
/ 1
д 1
ко@@ 1
България 1
става 1
я 1
у@@ 1
около 1
ла 1
к 1
век 1
между 1
много 1
2 1
ско 1
От 1
Той 1
го 1
ди 1
село 1
ре@@ 1
е@@ 1
ите 1
ра 1
ли@@ 1
но@@ 1
ри@@ 1
по@@ 1
ни@@ 1
† 1
О@@ 1
ят 1
може 1
ските 1
с@@ 1
ѝ 1
ското 1
един 1
съ@@ 1
ви 1
където 1
ът 1
от@@ 1
до@@ 1
к@@ 1
ди@@ 1
ка@@ 1
ката 1
о@@ 1
война 1
лен 1
както 1
то 1
други 1
ният 1
де@@ 1
ден 1
също 1
под 1
р 1
3 1
ването 1
им 1
ти@@ 1
те@@ 1
този 1
м 1
а@@ 1
ки 1
ви@@ 1
о 1
започва 1
ците 1
си@@ 1
в@@ 1
ри 1
Ко@@ 1
С@@ 1
късно 1
ле@@ 1
само 1
ро@@ 1
ра@@ 1
Ка@@ 1
мо@@ 1
още 1
про@@ 1
я@@ 1
л@@ 1
ма@@ 1
И@@ 1
За 1
4 1
души 1
над 1
при@@ 1
него 1
ници 1
път 1
една 1
лите 1
По@@ 1
ми@@ 1
срещу 1
то@@ 1
ва@@ 1
У@@ 1
лни 1
се@@ 1
ма 1
така 1
I 1
края 1
когато 1
вид 1
д@@ 1
ми 1
рите 1
Биография 1
м@@ 1
та@@ 1
ст 1
п@@ 1
5 1
български 1
началото 1
ло 1
няколко 1
ще 1
всички 1
Ма@@ 1
селото 1
II 1
m 1
г@@ 1
ло@@ 1
ла@@ 1
т@@ 1
ята 1
й@@ 1
ени 1
km 1
10 1
семейство 1
пе@@ 1
6 1
тях 1
Д@@ 1
лно 1
ция 1
па@@ 1
да@@ 1
чен 1
ник 1
река 1
20 1
София 1
цията 1
з@@ 1
чни 1
две 1
под@@ 1
би@@ 1
май 1
септември 1
нов 1
На@@ 1
града 1
ко 1
ките 1
Ми@@ 1
га 1
бо@@ 1
ме@@ 1
заедно 1
ш@@ 1
Това 1
тя 1
пи@@ 1
ве@@ 1
га@@ 1
Б@@ 1
% 0.5686248246382648
рат 1
получава 1
тези 1
граф 1
място 1
К@@ 1
тази 1
х@@ 1
Според 1
ща 1
ен 1
дъщеря 1
ският 1
имат 1
ност 1
януари 1
ш 1
- 0.5711989699987193
намира 1
октомври 1
лна 1
За@@ 1
САЩ 1
и@@ 1
преди 1
Де@@ 1
върху 1
юни 1
ата 1
П@@ 1
Са@@ 1
юли 1
името 1
август 1
два 1
Не@@ 1
ги 1
различни 1
Македония 1
во 1
бъде 1
ба@@ 1
б@@ 1
чрез 1
март 1
област 1
го@@ 1
април 1
вата 1
н@@ 1
би 1
син 1
че@@ 1
ноември 1
С 1
работи 1
три 1
декември 1
община 1
зи@@ 1
бе@@ 1
ството 1
въз@@ 1
Ба@@ 1
7 1
ков 1
Из@@ 1
ран 1
тите 1
са@@ 1
ку@@ 1
рен 1
об@@ 1
15 1
8 1
щи 1
История 1
&amp; 0.6747232837631326
някои 1
ци@@ 1
група 1
ността 1
у 1
ван 1
Па@@ 1
често 1
жени 1
су@@ 1
чи@@ 1
рия 1
дни 1
12 1
де 1
во@@ 1
При 1
Се@@ 1
ки@@ 1
страната 1
чна 1
Ха@@ 1
Тя 1
В@@ 1
со@@ 1
ниците 1
февруари 1
30 1
сти 1
щата 1
ране 1
При@@ 1
език 1
й 1
рани 1
х 1
вече 1
Те 1
Ви@@ 1
М@@ 1
ду@@ 1
могат 1
сред 1
ч@@ 1
ч 1
прави 1
център 1
пр.н.е. 1
ц 1
Бо@@ 1
Ли@@ 1
империя 1
Съ@@ 1
з 1
9 1
Ро@@ 1
Ра@@ 1
тен 1
Ме@@ 1
Разпространение 1
ф@@ 1
Видът 1
нията 1
повече 1
ство 1
сто@@ 1
университет 1
Италия 1
Г@@ 1
Пре@@ 1
завършва 1
отново 1
ст@@ 1
Северна 1
ста@@ 1
без 1
нието 1
роден 1
бил 1
използва 1
ница 1
щ 1
лната 1
000 1
вите 1
лата 1
Мо@@ 1
участва 1
вайки 1
страна 1
Бе@@ 1
Х@@ 1
Ку@@ 1
жители 1
води 1
зи 1
училище 1
ру@@ 1
чно 1
Т@@ 1
16 1
хи@@ 1
ето 1
части 1
населението 1
сезон 1
височина 1
Ф@@ 1
Ди@@ 1
рана 1
Ру@@ 1
Най 1
Ле@@ 1
вен 1
ен@@ 1
поради 1
гу@@ 1
Ал@@ 1
световна 1
трябва 1
сти@@ 1
нея 1
Си@@ 1
първата 1
периода 1
кон@@ 1
Про@@ 1
14 1
ча@@ 1
сен 1
малко 1
ги@@ 1
обаче 1
чи 1
йски 1
11 1
според 1
бу@@ 1
18 1
ин@@ 1
зо@@ 1
Ре@@ 1
&apos; 0.22556183902294574
име 1
ля@@ 1
19 1
голяма 1
хо@@ 1
III 1
ха@@ 1
ца 1
Я@@ 1
вани 1
ява 1
п 1
Германия 1
ж@@ 1
Ар@@ 1
фи@@ 1
пред@@ 1
Франция 1
Пе@@ 1
ан@@ 1
своя 1
член 1
Русия 1
13 1
край 1
ър 1
тата 1
армия 1
Ш@@ 1
25 1
ба 1
тът 1
система 1
умира 1
Свети 1
17 1
2010 0.7553996122443462
били 1
ф 1
* 1
До@@ 1
три@@ 1
смъртта 1
р@@ 1
лу@@ 1
Ри@@ 1
Да@@ 1
км 1
ника 1
чев 1
Гърция 1
2011 0.8357499472170761
нен 1
лия 1
он 1
вия 1
църква 1
население 1
ю@@ 1
Иван 1
Европа 1
йн 1
Пи@@ 1
Мар@@ 1
ман 1
Георги 1
Въпреки 1
вър@@ 1
нови 1
ено 1
З@@ 1
Та@@ 1
докато 1
днес 1
кра@@ 1
Н@@ 1
То@@ 1
лните 1
дава 1
Ва@@ 1
ха 1
ъ@@ 1
първи 1
Ла@@ 1
играе 1
едно 1
ши@@ 1
Мария 1
времето 1
б 1
пише 1
Раз@@ 1
сън 1
деца 1
отбор 1
вана 1
зе@@ 1
Роден 1
ста 1
стите 1
ше@@ 1
страни 1
групата 1
баща 1
живот 1
ту@@ 1
ман@@ 1
ге@@ 1
тъй 1
нова 1
печели 1
Населението 1
му@@ 1
Би@@ 1
големи 1
Ки@@ 1
първия 1
света 1
ров 1
Бу@@ 1
Те@@ 1
крал 1
период 1
окръг 1
сили 1
тни 1
дени 1
мен 1
рано 1
ние 1
ващи 1
остава 1
Южна 1
Лу@@ 1
без@@ 1
брат 1
От@@ 1
стра@@ 1
ев 1
лят 1
Има 1
дена 1
Ан@@ 1
кът 1
ск@@ 1
мата 1
бург 1
тъ@@ 1
провинция 1
пла@@ 1
жи@@ 1
21 1
жда 1
2000 0.988669241234263
първите 1
др 1
войната 1
ства 1
ани 1
бъдат 1
па 1
лов 1
рането 1
пред 1
ар@@ 1
ча 1
Су@@ 1
мен@@ 1
це@@ 1
места 1
почти 1
начин 1
йки 1
вал 1
няма 1
фе@@ 1
пра@@ 1
2012 0.7421604673783887
2009 0.7654123208356589
голям 1
Га@@ 1
24 1
2007 0.817225319282044
Ве@@ 1
ц@@ 1
2008 0.7619791959943721
ке@@ 1
полу@@ 1
22 1
ции 1
Го@@ 1
продължава 1
чните 1
циите 1
филм 1
ша 1
включва 1
ня@@ 1
Александър 1
цел 1
известен 1
Първата 1
берг 1
2006 0.8146045236311117
Р@@ 1
ля 1
хора 1
пи 1
използват 1
двете 1
ж 1
рата 1
данни 1
Кар@@ 1
Ло@@ 1
щите 1
гра@@ 1
все 1
Л@@ 1
работа 1
же@@ 1
всеки 1
ан 1
лния 1
била 1
лъ@@ 1
кри@@ 1
вали 1
Димитър 1
̀ 1
американски 1
Ти@@ 1
ор@@ 1
50 1
пу@@ 1
над@@ 1
щ@@ 1
А 1
семейството 1
нат 1
успява 1
Хо@@ 1
там 1
къ@@ 1
ро 1
чната 1
резултат 1
север 1
областта 1
сът 1
района 1
същата 1
награда 1
23 1
Ю@@ 1
море 1
йската 1
Фридрих 1
кия 1
дейност 1
ве 1
територията 1
император 1
Гра@@ 1
Ц@@ 1
дите 1
ново 1
ле 1
100 1
дъ@@ 1
чу@@ 1
юг 1
Ни@@ 1
четири 1
председател 1
ши 1
Но@@ 1
бра@@ 1
Втората 1
ран@@ 1
Като 1
степен 1
съюз 1
2013 0.665484324996939
малки 1
първият 1
отбора 1
партия 1
заради 1
пъти 1
генерал 1
своите 1
мите 1
2014 0.6378526551421758
дори 1
регион 1
република 1
изток 1
албум 1
хе@@ 1
2005 0.8400431282423654
лното 1
своята 1
жена 1
26 1
вания 1
27 1
us 0.5697352375770879
ел 1
28 1
Со@@ 1
вода 1
дата 1
площ 1
множество 1
кар@@ 1
мача 1
преминава 1
лото 1
голямата 1
например 1
възраст 1
° 1
ща@@ 1
обикновено 1
тна 1
участие 1
тън 1
близо 1
IV 1
църквата 1
само@@ 1
живота 1
тра@@ 1
жен 1
филма 1
съпруга 1
2001 0.9946147630129952
род 1
Към 1
управление 1
фа@@ 1
idae 1
ху@@ 1
ер@@ 1
рът 1
ър@@ 1
лин 1
.@@ 1
ска@@ 1
дължина 1
острови 1
ну@@ 1
разпространен 1
организация 1
Кон@@ 1
остров 1
щайн 1
ръ@@ 1
2015 0.6081660407293501
Карл 1
мъ@@ 1
тро@@ 1
ша@@ 1
войски 1
Хи@@ 1
излиза 1
ьо@@ 1
история 1
среща 1
2004 0.8316153790671312
1944 1
40 1
кан@@ 1
надморска 1
ат@@ 1
Република 1
йския 1
ал@@ 1
стта 1
Османската 1
тогава 1
мо 1
Му@@ 1
ек@@ 1
включително 1
Ду@@ 1
До 1
2002 0.9456871867237407
Когато 1
общината 1
ак@@ 1
достига 1
що 1
сни 1
линия 1
_ 0.6146977604766685
групи 1
ме 1
кариера 1
съвет 1
сия 1
жи 1
съпругата 1
състои 1
чо 1
ващ 1
The 0.0440227001337693
особено 1
кли@@ 1
избран 1
Хе@@ 1
запад 1
Освен 1
министър 1
брой 1
gt 0.8673321129789324
лен@@ 1
създава 1
лин@@ 1
средата 1
форма 1
власт 1
предимно 1
живее 1
География 1
вото 1
ден@@ 1
ген 1
историята 1
вида 1
жа 1
добре 1
анти@@ 1
e 0.37714798592733506
² 1
започват 1
гла@@ 1
ари 1
втората 1
херцог 1
вен@@ 1
Ин@@ 1
българи 1
Ню 1
вероятно 1
право 1
И 1
Ж@@ 1
чер@@ 1
йска 1
вете 1
кръ@@ 1
тно 1
29 1
lt 0.8682587895983468
връзка 1
въпреки 1
Ч@@ 1
Ге@@ 1
чески 1
ваща 1
тре@@ 1
вер@@ 1
силно 1
нарича 1
Хайнрих 1
отнася 1
нява 1
сл 1
служба 1
тия 1
договор 1
ън 1
състава 1
тър@@ 1
майка 1
бър@@ 1
сте@@ 1
лю@@ 1
1990 1
Така 1
бата 1
кс 1
ер 1
защото 1
Кара@@ 1
Ор@@ 1
влиза 1
Гу@@ 1
Йохан 1
годишна 1
казва 1
видове 1
Никола 1
2016 0.5322898267770058
V 1
Завършва 1
чния 1
шка 1
60 1
№ 1
ждат 1
Петър 1
лан@@ 1
застрашен 1
носи 1
&#93; 0.5027719882669828
било 1
жа@@ 1
българска 1
роля 1
лка 1
гръцки 1
Разпространен 1
никът 1
ати@@ 1
големите 1
Пловдив 1
ител 1
Бер@@ 1
&#91; 0.49831784762536335
Кри@@ 1
изчезване 1
чка 1
ако 1
неговата 1
мир 1
ствата 1
представлява 1
Об@@ 1
Ке@@ 1
ждане 1
назначен 1
вни 1
мач 1
общо 1
район 1
пар@@ 1
бро@@ 1
2003 0.8128787452162913
Вер@@ 1
ско@@ 1
дж@@ 1
Чер@@ 1
хората 1
шо@@ 1
Рим 1
тип 1
2017 0.5375124604462703
ит@@ 1
кла@@ 1
повечето 1
Че@@ 1
фо@@ 1
песни 1
ген@@ 1
Джон 1
състав 1
Васил 1
0 0.7483094319384734
стре@@ 1
яване 1
гле@@ 1
Кра@@ 1
спо@@ 1
вла@@ 1
свят 1
дя@@ 1
графиня 1
всяка 1
гъ@@ 1
ян 1
спа@@ 1
втори 1
нал 1
комитет 1
Йо@@ 1
рен@@ 1
ални 1
провежда 1
метра 1
Хар@@ 1
Англия 1
академия 1
31 1
редица 1
Ту@@ 1
дър@@ 1
човек 1
държава 1
Щ@@ 1
пер@@ 1
пр 1
жението 1
сла@@ 1
рията 1
електро@@ 1
милиона 1
ъ 1
Ста@@ 1
стро@@ 1
джи@@ 1
българската 1
дия 1
Испания 1
свързани 1
учи 1
ано 1
Фа@@ 1
ря@@ 1
зна@@ 1
вена 1
яват 1
нски 1
руски 1
Нова 1
лени 1
въ@@ 1
Париж 1
дено 1
80 1
он@@ 1
Стефан 1
манастир 1
вя@@ 1
тан@@ 1
полк 1
1912 1
командир 1
Филип 1
Ай@@ 1
Бра@@ 1
живеят 1
сло@@ 1
сила 1
ално 1
пет 1
бързо 1
пле@@ 1
известни 1
лена 1
водо@@ 1
род@@ 1
Америка 1
Три@@ 1
образование 1
Великобритания 1
музика 1
голямо 1
неговите 1
друг 1
йските 1
връх 1
дивизия 1
гимназия 1
Китай 1
1991 1
връща 1
бен 1
разположен 1
Африка 1
развитие 1
политически 1
ред 1
коле@@ 1
ък 1
цата 1
10@@ 1
ус 1
Рай@@ 1
мия 1
Христо 1
ато@@ 1
Фи@@ 1
чат 1
1945 1
Умира 1
движение 1
друга 1
месеца 1
вски 1
разположени 1
лица 1
отношение 1
Бре@@ 1
кото 1
приема 1
гат 1
Сто@@ 1
сите 1
стил 1
заема 1
театър 1
продължение 1
вени 1
Кор@@ 1
пло@@ 1
Ша@@ 1
бор@@ 1
основно 1
тор 1
вар@@ 1
рин@@ 1
1999 0.7689876406307139
мина@@ 1
2018 0.44938192038160574
реката 1
чното 1
1913 1
еди@@ 1
ред@@ 1
СССР 1
70 1
нос 1
правителство 1
следва 1
цар 1
ческа 1
+ 1
То 1
произход 1
Бар@@ 1
ези@@ 1
дву@@ 1
жава 1
държави 1
мът 1
C 0.6676620866826585
Този 1
ск 1
литература 1
ате@@ 1
директор 1
кова 1
създаването 1
първенство 1
ур@@ 1
— 0.09228850997819532
лятото 1
жда@@ 1
Япония 1
вано 1
мястото 1
чета 1
пол@@ 1
Йорк 1
гите 1
нена 1
Въз@@ 1
новата 1
ъл 1
останалите 1
ний 1
сина 1
английски 1
управлението 1
птица 1
бива 1
of 0.009806390223954504
тел 1
Мон@@ 1
известна 1
= 0.62118953391548
цялата 1
лски 1
Първият 1
1992 0.9122695350974114
вна 1
Българската 1
първото 1
точка 1
Мак@@ 1
лд 1
1941 1
стен 1
политик 1
дел@@ 1
1989 1
ок 1
Николай 1
действия 1
книги 1
френски 1
Вилхелм 1
решава 1
свет@@ 1
центъра 1
Во@@ 1
бите 1
s 0.1384356421657908
XIX 1
ити 1
намират 1
Анна 1
кан 1
1998 0.7937680877598818
служи 1
Полша 1
Западна 1
поли@@ 1
запа@@ 1
дер 1
Св 1
мар@@ 1
напуска 1
другите 1
бар@@ 1
зия 1
тър 1
Михаил 1
малка 1
двата 1
же 1
Ши@@ 1
Някои 1
ителите 1
чени 1
епископ 1
стават 1
йн@@ 1
formula 0.50958968023712
роман 1
щат 1
Москва 1
правителството 1
ре 1
ет@@ 1
същото 1
бя@@ 1
футболист 1
200 1
нин 1
разположено 1
рена 1
дьо 1
албума 1
стри@@ 1
1997 0.8457378578474434
децата 1
Ча@@ 1
лът 1
ролята 1
бряг 1
едва 1
щати 1
гата 1
бан@@ 1
гри@@ 1
Във 1
Тази 1
неговото 1
превръща 1
сен@@ 1
Там 1
! 0.6283937080461306
значение 1
означава 1
ет 1
1996 0.8311114792581156
Намира 1
последните 1
битката 1
дат 1
тове 1
Азия 1
вър 1
Тези 1
щия 1
Ман@@ 1
военни 1
учител 1
разлика 1
стъ@@ 1
началник 1
песента 1
лига 1
главен 1
мм 1
Турция 1
1995 0.8561980896722232
мин@@ 1
сел@@ 1
вала 1
Селото 1
княз 1
дра@@ 1
скоро 1
тира 1
пан@@ 1
жение 1
1994 0.8549004330614512
книга 1
оби@@ 1
Поради 1
йни 1
едно@@ 1
успех 1
Индия 1
цен@@ 1
сту@@ 1
напълно 1
рин 1
мер@@ 1
зъм 1
ше 1
главно 1
изкуство 1
лек@@ 1
информация 1
течение 1
ати 1
90 1
малък 1
Света 1
издава 1
двамата 1
много@@ 1
йско 1
1980 0.8999407466214596
Елизабет 1
ня 1
Описание 1
дро@@ 1
компания 1
гре@@ 1
Сан@@ 1
тната 1
Сърбия 1
кораба 1
бри@@ 1
ос@@ 1
територия 1
стена 1
ствено 1
ително 1
ствена 1
кораби 1
президент 1
ствени 1
ващите 1
нала 1
пис@@ 1
въстание 1
влияние 1
тя@@ 1
изследвания 1
Сан 1
Константин 1
Варна 1
поле 1
М 1
Д 1
развитието 1
хар@@ 1
Лудвиг 1
ита 1
све@@ 1
работ@@ 1
кови 1
събрание 1
кръг 1
тук 1
градове 1
планина 1
Це@@ 1
лер 1
им@@ 1
исторически 1
защита 1
це 1
тон 1
политика 1
шки 1
­ 1
тните 1
кре@@ 1
Участва 1
фи 1
писател 1
Австралия 1
опит 1
ван@@ 1
известно 1
mm 1
вли@@ 1
официално 1
фер@@ 1
производство 1
българските 1
половина 1
Дже@@ 1
Мал@@ 1
дар@@ 1
целия 1
чки 1
случай 1
професор 1
вно 1
завръща 1
водата 1
ална 1
идва 1
изцяло 1
1993 0.8526250060670183
членове 1
лява 1
ционни 1
Поли@@ 1
произведения 1
рий 1
зата 1
преброяването 1
неговия 1
Лондон 1
развива 1
обявява 1
култура 1
Украйна 1
рени 1
ъл@@ 1
участват 1
ций 1
топ@@ 1
правят 1
следващите 1
появява 1
ери 1
2019 0.3970709787917623
след@@ 1
сестра 1
стка 1
Лю@@ 1
съд 1
ление 1
музей 1
планината 1
ницата 1
точ@@ 1
ю 1
Но 1
кораб 1
села 1
1943 1
чин 1
вица 1
вод@@ 1
първо 1
десет 1
игра@@ 1
зен 1
Ху@@ 1
Бразилия 1
К 1
1878 1
състояние 1
рал 1
сме@@ 1
тин@@ 1
Под@@ 1
ьор@@ 1
Източна 1
клуб 1
всичко 1
автор 1
Пет@@ 1
ители 1
посо@@ 1
ора 1
стър 1
против 1
земи 1
дът 1
първоначално 1
преда@@ 1
ще@@ 1
игри 1
вестник 1
дер@@ 1
ори 1
годината 1
хи 1
Май@@ 1
условия 1
пен 1
плани@@ 1
слу@@ 1
гола 1
Сред 1
ителна 1
1970 0.9000995661442523
br 1
мов 1
диа@@ 1
помощта 1
значително 1
лет@@ 1
1900 1
нар@@ 1
сна 1
Разположено 1
себе 1
Бал@@ 1
райони 1
техните 1
зона 1
системи 1
издаден 1
син@@ 1
километра 1
проект 1
езици 1
морски 1
открива 1
годините 1
Фе@@ 1
1918 1
флот 1
a 0.01021362099761458
Фамилия 1
столицата 1
Ше@@ 1
нина 1
формата 1
институт 1
записва 1
цели 1
рон 1
представител 1
сър@@ 1
елементи 1
мати@@ 1
рай@@ 1
мост 1
ком@@ 1
включват 1
Ер@@ 1
разположена 1
пръв 1
българско 1
компанията 1
шампион 1
хра@@ 1
Стара 1
Марк 1
пара@@ 1
ланд 1
книгата 1
ос 1
ена 1
военен 1
ера 1
тор@@ 1
нали 1
основава 1
селище 1
дове 1
точки 1
ент@@ 1
позволява 1
смята 1
участието 1
близост 1
сто 1
Австрия 1
шен 1
Пред@@ 1
пътя 1
секретар 1
следващата 1
версия 1
зу@@ 1
слав 1
Вла@@ 1
решение 1
наре@@ 1
the 0.004335856636061287
Къ@@ 1
Дра@@ 1
ън@@ 1
макар 1
1960 0.9644481964029984
освен 1
Чи@@ 1
ата@@ 1
Други 1
обща 1
унищо@@ 1
гор@@ 1
пъ@@ 1
часа 1
предлага 1
средства 1
джа@@ 1
брак 1
титлата 1
толкова 1
нов@@ 1
ем@@ 1
спи@@ 1
обя@@ 1
тика 1
Между 1
1940 1
изключително 1
нения 1
ФК 1
ново@@ 1
мета@@ 1
ности 1
лска 1
кият 1
оказва 1
армията 1
йна 1
песен 1
сезона 1
Дж@@ 1
cm 1
военна 1
сметка 1
Ек@@ 1
со 1
работата 1
пръ@@ 1
вин@@ 1
дело 1
1942 1
Джа@@ 1
Хай@@ 1
мини@@ 1
коло@@ 1
езерото 1
мет@@ 1
Мексико 1
оста@@ 1
ниво 1
израз@@ 1
такива 1
шко 1
процес 1
поставя 1
шест 1
Първоначално 1
Не 1
къщи 1
заместник 1
филми 1
сигурност 1
ческо 1
втория 1
вено 1
помощ 1
Унгария 1
ета 1
500 1
добър 1
гия 1
понякога 1
Ен@@ 1
Гор@@ 1
губи 1
призна@@ 1
големият 1
ностите 1
тур@@ 1
показва 1
своето 1
гър@@ 1
Б 1
гер 1
насо@@ 1
2020 0.3742009301301291
температура 1
омъжва 1
Пу@@ 1
ителни 1
Т 1
награди 1
сле@@ 1
ителен 1
следните 1
ся@@ 1
консул 1
завър@@ 1
али@@ 1
българския 1
ед@@ 1
теле@@ 1
сграда 1
образу@@ 1
Стра@@ 1
мон@@ 1
Църквата 1
гр 1
новия 1
дали 1
ул 1
Много 1
опа@@ 1
представя 1
ващо 1
мрежа 1
Канада 1
възможност 1
Же@@ 1
класи@@ 1
права 1
рок 1
йт 1
дин@@ 1
послед@@ 1
събития 1
Пар@@ 1
Пла@@ 1
лий 1
1986 0.9002802552855884
ствен 1
наслед@@ 1
отказва 1
основа 1
бер@@ 1
зите 1
острова 1
дружество 1
щият 1
Мари@@ 1
започ@@ 1
лина 1
висока 1
Централна 1
определя 1
тръ@@ 1
бре@@ 1
позиция 1
ити@@ 1
Още 1
1988 0.8223568726833392
продъл@@ 1
говори 1
проблеми 1
нито 1
праз@@ 1
П 1
списание 1
ин 1
южната 1
лено 1
Йоан 1
годишен 1
Кирил 1
вели@@ 1
животни 1
1950 0.9720977831723491
минава 1
съдържа 1
създадена 1
Ел@@ 1
Дей@@ 1
ум 1
достигат 1
кул@@ 1
съществува 1
бъ@@ 1
форми 1
мя@@ 1
Преди 1
... 0.6962421449011306
новите 1
твър@@ 1
1934 1
властта 1
рамките 1
лс 1
области 0.9575275783963973
извършва 1
ционен 1
Тре@@ 1
1905 1
опитва 1
ров@@ 1
ясно 1
сон 1
авто@@ 1
месец 1
оръдия 1
пости@@ 1
треньор 1
двама 1
Ако 1
они 1
Тра@@ 1
родена 1
мени 1
хайм 1
лите@@ 1
Египет 1
дъл@@ 1
пъл@@ 1
ква 1
културата 1
приток 1
програма 1
тски 1
сви@@ 1
същия 1
лов@@ 1
северната 1
300 1
публикува 1
впоследствие 1
хиляди 1
националния 1
смърт 1
фор@@ 1
дна 1
.. 1
извън 1
вра@@ 1
ева 1
басейн 1
изобраз@@ 1
границата 1
поло@@ 1
шу@@ 1
основните 1
бе 1
Румъния 1
вил 1
Пра@@ 1
управля@@ 1
ене 1
чите 1
тото 1
избори 1
чо@@ 1
ческите 1
яването 1
футбол 1
попада 1
гори 1
ков@@ 1
гли@@ 1
Бър@@ 1
ково 1
наградата 1
О 1
нати 1
доста 1
мили@@ 1
жат 1
ал 1
построена 1
кара 1
тялото 1
изпра@@ 1
модел 1
юр@@ 1
1985 0.8580323584469823
чава 1
рий@@ 1
Бан@@ 1
лет 1
1920 1
чена 1
доб@@ 1
рис 1
анд@@ 1
установява 1
ем 1
принцеса 1
начело 1
поема 1
кита@@ 1
1987 0.8262529276466806
причина 1
Ак@@ 1
Името 1
Население 1
срещат 1
фа 1
35 1
изпълнява 1
немски 1
деец 1
жените 1
оп@@ 1
жу@@ 1
създаден 1
лението 1
сно 1
тер@@ 1
вият 1
случаи 1
капитан 1
езеро 1
представители 1
Г 1
сега 1
1984 0.8409002888199015
фамилията 1
Пан@@ 1
кариерата 1
произ@@ 1
ват@@ 1
довете 1
зира 1
i 0.25177685914742276
зва@@ 1
получават 1
присъ@@ 1
1939 1
Първите 1
отношения 1
кър@@ 1
ум@@ 1
1981 0.8972351043831288
нер 1
Произход 1
връ@@ 1
форми@@ 1
1968 0.9345001416968437
състав@@ 1
Вели@@ 1
мир@@ 1
Борис 1
национален 1
Берлин 1
офицер 1
плат@@ 1
четата 1
ун@@ 1
Виена 1
скорост 1
ческия 1
високо 1
клас 1
основни 1
1974 0.9228703018680338
бур@@ 1
енергия 1
Балканската 1
дем 1
региона 1
тер 1
точно 1
обе@@ 1
статут 1
ланд@@ 1
из 0.19630515038752974
Джеймс 1
пак 1
митрополит 1
так@@ 1
път@@ 1
Също 1
войници 1
въл@@ 1
Баща 1
епархия 1
промени 1
четвър@@ 1
XX 1
положение 1
ян@@ 1
май@@ 1
подоб@@ 1
ционна 1
тов 1
негов 1
1979 0.8822930016821496
хода 1
гора 1
планински 1
план 1
как 0.3342862566251114
Фу@@ 1
среда 1
настоя@@ 1
занимава 1
ьо 1
ета@@ 1
ител@@ 1
храм 1
производството 1
долината 1
трите 1
Вал@@ 1
обра@@ 1
1978 0.9072220920591664
1948 1
VI 1
Дъ@@ 1
жен@@ 1
1971 0.9173560401954679
големия 1
изда@@ 1
дом 1
западната 1
чието 1
типа 1
действие 1
Мор@@ 1
Административен 1
Ги@@ 1
съществу@@ 1
турнира 1
пат@@ 1
лог 1
цар@@ 1
лова 1
дру@@ 1
лев 1
Гла@@ 1
посока 1
широко 1
дове@@ 1
убит 1
няват 1
разши@@ 1
ход@@ 1
1928 1
2@@ 0.8947769699888262
земя 1
Кал@@ 1
контрол 1
инди@@ 1
физи@@ 1
дре@@ 1
разде@@ 1
влизат 1
създа@@ 1
ут@@ 1
ляне 1
1982 0.8471835477154163
нос@@ 1
нето 1
чност 1
-@@ 0.5778320311543198
фу@@ 1
логи@@ 1
рав@@ 1
is 0.021607415234530202
сед@@ 1
реали@@ 1
1976 0.8887140511521956
отбелязва 1
Вол@@ 1
Разположен 1
уме@@ 1
лич@@ 1
дълго 1
местообитание 1
уч@@ 1
иг@@ 1
победа 1
1946 1
дават 1
пти@@ 1
открити 1
рио@@ 1
тин 1
иска 1
винаги 1
Левски 1
пове@@ 1
школа 1
кове 1
европейски 1
кратко 1
мон 1
рода 1
кто@@ 1
45 1
йо@@ 1
Й@@ 1
тичен 1
Владимир 1
бах 1
пър@@ 1
практика 1
гът 1
проекта 1
италиански 1
войни 1
вет@@ 1
оригина@@ 1
ръководството 1
ок@@ 1
гори@@ 1
1972 0.8451126209926634
сградата 1
Гре@@ 1
твърди 1
есте@@ 1
столица 1
тични 1
кор@@ 1
използвани 1
Гри@@ 1
момент 1
S@@ 0.13080941611519142
шава 1
гнат 1
местните 1
представ@@ 1
1930 1
т.нар. 1
чест 1
мент 1
de 0.004829126846175255
университета 1
мат@@ 1
вяр@@ 1
позна@@ 1
дел 1
сва@@ 1
пока@@ 1
гене@@ 1
правител@@ 1
взема 1
жни 1
откри@@ 1
ито 1
собстве@@ 1
тори 1
лската 1
т.е. 1
бал@@ 1
дял 1
творчество 1
къща 1
нени 1
остават 1
зем@@ 1
източната 1
ните@@ 1
тена 1
турската 1
йското 1
Димитров 1
цялото 1
Нико@@ 1
Градът 1
дале@@ 1
рено 1
еле@@ 1
зву@@ 1
Всички 1
1975 0.8175791764236456
мни 1
редактор 1
използва@@ 1
общество 1
присъединява 1
1947 1
океан 1
тен@@ 1
Калифорния 1
постепенно 1
Син@@ 1
жителите 1
стру@@ 1
гол 1
обла@@ 1
нение 1
Ев@@ 1
дж 1
ръководител 1
свързва 1
лният 1
тар@@ 1
тан 1
Днес 1
Зе@@ 1
наричат 1
разпростра@@ 1
два@@ 1
чават 1
1969 0.9126169370991711
дан 1
Солун 1
Ото 1
ев@@ 1
битка 1
1973 0.8631855750249265
мал@@ 1
Площта 1
вът 1
организацията 1
бой@@ 1
нични 1
1983 0.7993598173635381
Започва 1
ган 1
вид@@ 1
отива 1
земята 1
ил 1
пет@@ 1
пол 1
забра@@ 1
ели@@ 1
рова 1
Кла@@ 1
дете 1
гро@@ 1
православна 1
Кру@@ 1
зад 1
заминава 1
1927 1
революция 1
вол@@ 1
йл 1
Югославия 1
полуостров 1
Луи 1
дан@@ 1
M@@ 0.17282214538744084
Тодор 1
сгради 1
стрел@@ 1
Саксония 1
чват 1
нически 1
парк 1
спор@@ 1
организации 1
1919 1
реките 1
кло@@ 1
турски 1
съответно 1
вец 1
специално 1
държавата 1
1923 1
1967 0.9054977085894677
ца@@ 1
Един 1
алните 1
рии 1
бивш 1
Шу@@ 1
нор@@ 1
различните 1
Въ@@ 1
ган@@ 1
народен 1
Джи@@ 1
мин 1
тична 1
Земята 1
лан 1
трети 1
описва 1
чет@@ 1
Мла@@ 1
изпраща 1
ита@@ 1
джа 1
дън 1
актьор 1
българското 1
пълно@@ 1
семейства 1
дей@@ 1
обществе@@ 1
край@@ 1
сор@@ 1
вре@@ 1
колек@@ 1
стът 1
Пер@@ 1
Лан@@ 1
кен@@ 1
науки 1
станция 1
щето 1
издание 1
почи@@ 1
дворец 1
1962 0.9841672379723881
манастира 1
Бургас 1
Павел 1
майор 1
шката 1
отделни 1
организира 1
противо@@ 1
зависимост 1
раст@@ 1
актриса 1
въве@@ 1
основата 1
съгла@@ 1
сата 1
успешно 1
зва 1
граф@@ 1
граница 1
коре@@ 1
лация 1
Сер@@ 1
изо@@ 1
местността 1
1966 0.9264543247885709
Анти@@ 1
подписва 1
уни@@ 1
военно 1
ите@@ 1
статистиката 1
материали 1
Бур@@ 1
отде@@ 1
Тро@@ 1
кралство 1
транс@@ 1
крайна 1
открит 1
Бру@@ 1
консу@@ 1
шите 1
титла 1
дол@@ 1
Сре@@ 1
дълго@@ 1
ален 1
сравнително 1
господар 1
1965 0.9034382633286747
вторият 1
нския 1
стига 1
БКП 1
системата 1
дения 1
зация 1
радио@@ 1
Георг 1
P@@ 0.13988536667172013
Община 1
ей 1
Дру@@ 1
1977 0.8381169588025149
дин 1
когото 1
1959 1
1964 0.8859303376572765
Бай@@ 1
Тук 1
плъ@@ 1
дри@@ 1
1915 1
зат@@ 1
e@@ 0.19136526824635292
гара 1
лист 1
нен@@ 1
лност 1
Бор@@ 1
Жан 1
Уилям 1
епоха 1
ствие 1
Уе@@ 1
управлява 1
V@@ 0.19394194111602317
Тогава 1
сов 1
южно 1
наме@@ 1
следващия 1
Кай@@ 1
паметник 1
папа 1
стане 1
нер@@ 1
1949 1
лския 1
Работи 1
1938 1
Формула 1
тив@@ 1
2021 0.3585197911842716
Ау@@ 1
Иванов 1
приемат 1
зе 1
подкрепа 1
факултет 1
ква@@ 1
смър@@ 1
имало 1
наречен 1
стън 1
щото 1
кон 1
лянето 1
първа 1
градът 1
Сла@@ 1
лон 1
чен@@ 1
лати@@ 1
женията 1
E@@ 0.1877371403125893
лизи@@ 1
романа 1
родния 1
градски 1
политическа 1
32 1
дже@@ 1
нейната 1
изя@@ 1
борба 1
ке 0.7446677562832631
1961 0.9699866196134599
територии 1
пови@@ 1
логия 1
Източ@@ 1
Заедно 1
мира 1
Н 1
тния 1
юго@@ 1
1956 0.9607061476995592
художник 1
Голяма 1
посещава 1
северно 1
вой@@ 1
поддържа 1
Гвинея 1
изку@@ 1
ане 1
орден 1
обучение 1
1963 0.9238049060204805
вместо 1
Швеция 1
възможно 1
1000 1
лис 1
стени 1
D@@ 0.1414239547786175
защит@@ 1
миналото 1
ули@@ 1
теория 1
A@@ 0.15783700071859635
Търново 1
маса 1
глава 1
дома 1
1958 0.9592026939084033
пите 1
българите 1
Скопие 1
долара 1
ждането 1
източници 1
действа 1
отколкото 1
магни@@ 1
стойност 1
Йе@@ 1
премества 1
състоя@@ 1
Докато 1
известните 1
Кле@@ 1
шев 1
Нор@@ 1
негово 1
средно 1
клуба 1
кт 1
Р 1
шно 1
активно 1
око@@ 1
оти@@ 1
1936 1
алната 1
обект 1
проте@@ 1
1924 1
селата 1
свой 1
водят 1
училището 1
мери@@ 1
разполага 1
Тан@@ 1
400 1
прода@@ 1
Член 1
бо 1
рядко 1
сп@@ 1
музиката 1
Константинопол 1
наследство 1
Тракия 1
режисьор 1
ун 1
къс@@ 1
подобни 1
пли@@ 1
революционер 1
? 0.717368153474568
съвет@@ 1
C@@ 0.16291192115503622
центра@@ 1
яне 1
1926 1
живо@@ 1
лу 1
цяло 1
езика 1
ствената 1
никога 1
Кариера 1
Етнография 1
превод 1
Уи@@ 1
дно 1
Мъ@@ 1
зма 1
пя@@ 1
Хер@@ 1
зан 1
успяват 1
горе@@ 1
вич 1
1903 1
гръ@@ 1
работят 1
Гер@@ 1
вате@@ 1
римски 1
Фо@@ 1
ради@@ 1
Е 1
годишно 1
мей@@ 1
Основ@@ 1
нем@@ 1
техника 1
добра 1
люби@@ 1
създават 1
Тъй 1
образува 1
статистика 1
броя 1
пор@@ 1
носител 1
et 0.020222496564812238
раните 1
закри@@ 1
контра@@ 1
кси@@ 1
използването 1
ото 1
B@@ 0.13020141700492688
скъ@@ 1
нин@@ 1
тически 1
операция 1
сли@@ 1
стан@@ 1
пря@@ 1
обита@@ 1
режисьора 1
Лин@@ 1
млн. 1
постав@@ 1
продължават 1
A 0.09853167568838204
връзки 1
погре@@ 1
крайцери 1
достатъчно 1
линии 1
рам@@ 1
T@@ 0.13394061370170574
бен@@ 1
Ци@@ 1
германски 1
150 1
северо@@ 1
гар@@ 1
бели 1
майстор 1
Сте@@ 1
бира 1
герой 1
между@@ 1
отбеля@@ 1
нар 1
демокра@@ 1
микро@@ 1
определени 1
ене@@ 1
партията 1
Бро@@ 1
ческата 1
християн@@ 1
мъже 1
Швейцария 1
число 1
Крал@@ 1
рал@@ 1
ръко@@ 1
залив 1
ву@@ 1
издадена 1
последния 1
революционна 1
Тур@@ 1
научни 1
Фор@@ 1
храма 1
високи 1
лат@@ 1
она 0.8922470491316911
1935 1
бли@@ 1
Тър@@ 1
бъде@@ 1
база 1
реки 1
роман@@ 1
търговски 1
цо 1
1952 0.9775806562356237
дълбочина 1
чиято 1
дума 1
един@@ 1
еми 1
1929 1
модер@@ 1
свои 1
1914 1
сингъл 1
пода@@ 1
ара 1
Първа 1
фронт 1
ология 1
размери 1
Джордж 1
Ян@@ 1
пен@@ 1
цки 1
X 0.5969948617883626
зани 1
Елена 1
Дю@@ 1
няване 1
отво@@ 1
ѐ@@ 1
ООН 1
имена 1
Софийския 1
1925 1
собственост 1
минути 1
Колумбия 1
счита 1
стен@@ 1
стика 1
срещ@@ 1
Пол@@ 1
обез@@ 1
административен 1
1921 1
графи@@ 1
лей@@ 1
чение 1
номер 1
използван 1
християни 1
чето 1
централната 1
in 0.005048480695614115
Ран@@ 1
зов 1
хан 1
ански 1
Бен@@ 1
гли 1
3@@ 0.6793330931843168
ВМОРО 1
мна 1
вяват 1
прав@@ 1
цвят 1
Кан@@ 1
жъл@@ 1
временно 1
т.н. 1
храна 1
войска 1
вало 1
Около 1
тел@@ 1
птици 1
творби 1
Тех@@ 1
Кур@@ 1
тяхната 1
кър 1
оце@@ 1
разкри@@ 1
нението 1
рей@@ 1
седем 1
сел 1
стран@@ 1
тното 1
Доб@@ 1
човека 1
Вър@@ 1
лство 1
наследник 1
главния 1
икономически 1
полски 1
покри@@ 1
дво@@ 1
мото 1
стър@@ 1
ващата 1
1908 1
Националната 1
1922 1
нове 1
тирани 1
ьор 1
построен 1
производ@@ 1
Министерството 1
есента 1
фон@@ 1
кула 1
американската 1
войвода 1
думи 1
споменава 1
прекра@@ 1
финала 1
Пър@@ 1
Мин@@ 1
епи@@ 1
серия 1
държавен 1
линията 1
иде@@ 1
Русе 1
брега 1
Сти@@ 1
спе@@ 1
тона 1
дор 1
1951 1
вин 1
ничен 1
ражда 1
такъв 1
Ф 1
владе@@ 1
висо@@ 1
втора 1
Чу@@ 1
помага 1
продукти 1
Брат 1
комплекс 1
поп 1
формира 1
жна 1
1953 0.9788546226928693
Римската 1
мощ@@ 1
създаване 1
ход 1
цо@@ 1
обеди@@ 1
1877 1
Велики 1
Ол@@ 1
чението 1
0@@ 0.9648467143077113
бол@@ 1
зар@@ 1
Белгия 1
1933 0.9577627499240453
жки 1
игра 1
бър 1
променя 1
изди@@ 1
върха 1
код 1
после 0.5574798301751283
спече@@ 1
1957 0.9149754188579768
обратно 1
грани@@ 1
крайцера 1
жо@@ 1
военно@@ 1
Горна 1
рец 1
власти 1
Ам@@ 1
причи@@ 1
Джу@@ 1
Руската 1
пристига 1
провеждат 1
Загора 1
поредица 1
ец 1
укра@@ 1
нев 1
зае@@ 1
защитава 1
Съединените 1
Луций 1
прави@@ 1
мията 1
уз@@ 1
1937 0.9684845398193415
оръ@@ 1
структура 1
транспор@@ 1
характер 1
Филмът 1
изкуството 1
кали@@ 1
братя 1
Але@@ 1
щение 1
1904 1
премах@@ 1
кани 1
G@@ 0.12288368218205227
дела 1
дълги 1
щи@@ 1
бъл 1
пролетта 1
допъл@@ 1
фото@@ 1
ски@@ 1
сий 1
нейните 1
стар@@ 1
сан@@ 1
L@@ 0.1184091066006902
вижда 1
Университета 1
Джо@@ 1
склонове 1
1917 1
цент@@ 1
чване 1
Под 1
роли 1
селища 1
възра@@ 1
тар 1
налага 1
образуват 1
единствено 1
употреба 1
френския 1
дената 1
направи 1
принц 1
ането 1
проф 1
проце@@ 1
гане 1
беше 1
държа@@ 1
Бел@@ 1
лага 1
загу@@ 1
затова 1
последната 1
пехотен 1
пари 1
VII 1
именно 1
военните 1
гръцката 1
дне@@ 1
рак@@ 1
осъществява 1
зъ@@ 1
четири@@ 1
Франц 1
футболен 1
мор 1
Фри@@ 1
изключение 1
Една 1
отряд 1
камък 1
гот@@ 1
електри@@ 1
осем 1
стан 1
У 1
наричан 1
включ@@ 1
Гро@@ 1
Купата 1
тиран 1
взима 1
засе@@ 1
бле@@ 1
нари@@ 1
Сюжет 1
комисия 1
дейността 1
Спи@@ 1
евре@@ 1
1954 0.9000565827475857
Ед@@ 1
американска 1
интерес 1
тру@@ 1
тият 1
международни 1
кат@@ 1
ѝ@@ 1
използване 1
растения 1
пада 1
Гай 1
заявява 1
намалява 1
Кръ@@ 1
кти@@ 1
беле@@ 1
задъл@@ 1
поста 1
старите 1
Мартин 1
отдел 1
мар 1
унгар@@ 1
благодарение 1
преподава 1
сена 1
дар 1
труд 1
заповед 1
хо 1
пуснат 1
Дунав 1
Кли@@ 1
стоя@@ 1
Кам@@ 1
дка 1
появяват 1
’ 0.051428177241495336
жът 1
текст 1
1932 1
ърс 1
местни 1
кин@@ 1
пост 1
произве@@ 1
основан 1
нещо 1
сведения 1
кмет 1
теро@@ 1
нама@@ 1
изпратен 1
рас@@ 1
алното 1
Съюза 1
1910 1
корпус 1
чения 1
носят 1
Повечето 1
Сту@@ 1
дените 1
побеждава 1
оръжие 1
нено 1
следва@@ 1
сериал 1
смя@@ 1
западните 1
обекти 1
щане 1
Бри@@ 1
австри@@ 1
рез@@ 1
уби@@ 1
подчи@@ 1
кам@@ 1
наречена 1
постъпва 1
веднага 1
Индонезия 1
нд 1
Робърт 1
телевизия 1
опера@@ 1
тво@@ 1
маси@@ 1
идеята 1
ковски 1
and 0.005235903739662045
ландски 1
1955 0.8804408827223401
замък 1
кори@@ 1
народ@@ 1
ево 1
насят 1
крепост 1
пит@@ 1
алния 1
проек@@ 1
командването 1
стки 1
Вар@@ 1
биват 1
хард 1
добри 1
Фердинанд 1
начало 1
лейтенант 1
федерация 1
рак 1
ЦСКА 1
жаване 1
Конрад 1
кот@@ 1
св 1
дости@@ 1
старо@@ 1
нови@@ 1
хими@@ 1
лож@@ 1
цяла 1
срещи 1
в. 1
лично 1
um 0.12625559063100153
обработ@@ 1
относно 1
компози@@ 1
просто 1
изви@@ 1
мно 1
благород@@ 1
едновременно 1
режим 1
материал 1
Спо@@ 1
чина 1
федера@@ 1
лки 1
открито 1
част@@ 1
Атина 1
самия 1
стадион 1
чийто 1
Въл@@ 1
склю@@ 1
тяхното 1
жения 1
4@@ 0.6207978895079721
Кре@@ 1
северозапад 1
количество 1
раната 1
ску@@ 1
училища 1
все@@ 1
пад@@ 1
полета 1
ема 1
пространство 1
математи@@ 1
тяло 1
Междусъюзническата 1
коми@@ 1
бни 1
чове@@ 1
ад@@ 1
рите@@ 1
Аржентина 1
произлиза 1
сова 1
постоянно 1
Автор 1
Анто@@ 1
стват 1
типи@@ 1
Ернст 1
изве@@ 1
негови 1
Ню@@ 1
тран@@ 1
щаб 1
Албания 1
нача@@ 1
Южен 1
броне@@ 1
план@@ 1
Томас 1
изпълнение 1
прекарва 1
R@@ 0.12236430421875655
спрямо 1
изключ@@ 1
Вел@@ 1
щава 1
бва 1
кос@@ 1
Бъ@@ 1
разработ@@ 1
лър 1
Край@@ 1
орган 1
запла@@ 1
ческото 1
F@@ 0.12960776912821945
европей@@ 1
резер@@ 1
зване 1
прото@@ 1
ращи 1
рение 1
паша 1
действието 1
квартал 1
поч@@ 1
хвър@@ 1
има@@ 1
свър@@ 1
нската 1
ствените 1
чният 1
75 1
източно 1
00 1
пуска 1
йският 1
промен@@ 1
Хитлер 1
канал 1
Един@@ 1
Стру@@ 1
Рей@@ 1
добрите 1
ам@@ 1
кция 1
професиона@@ 1
убе@@ 1
Богородица 1
какво 1
лово 1
La 0.05563353847931438
зала 1
основен 1
Пор@@ 1
фина@@ 1
33 1
образ@@ 1
Тер@@ 1
кол@@ 1
Впоследствие 1
Село 1
дипло@@ 1
играят 1
победата 1
западно 1
превър@@ 1
важна 1
вка 1
amp 0.18920928198098563
голямото 1
мани@@ 1
президента 1
вина 1
Х 1
1931 1
сан 1
Пол 1
поредицата 1
тек@@ 1
ства@@ 1
тема 1
Откри@@ 1
лището 1
Учи 1
печат@@ 1
гърци 1
од@@ 1
1@@ 0.9581499950977402
Например 1
документи 1
нейния 1
O@@ 0.14660924794604502
програмата 1
сравнение 1
мента@@ 1
звез@@ 1
съответ@@ 1
тай@@ 1
жка 1
берт 1
Обикновено 1
атор 1
ляват 1
Ара@@ 1
нг 1
Едуард 1
сериала 1
високата 1
тима 1
чката 1
тическа 1
полковник 1
ствието 1
библиотека 1
нико@@ 1
Вен@@ 1
нените 1
североизток 1
истин@@ 1
негова 1
руския 1
райки 1
нове@@ 1
съюз@@ 1
чиито 1
гло@@ 1
38 1
Става 1
бой 1
тивни 1
Мер@@ 1
достав@@ 1
общини 1
чева 1
менти 1
рява 1
даден 1
Кали@@ 1
лката 1
кин 1
югоизток 1
побе@@ 1
икономика 1
хро@@ 1
въпроси 1
Корея 1
кал@@ 1
обича@@ 1
древ@@ 1
коп@@ 1
високо@@ 1
сна@@ 1
Вин@@ 1
градовете 1
общност 1
рове 1
Албрехт 1
турнир 1
зват 1
Зо@@ 1
Илия 1
класа 1
Следва@@ 1
ръководи 1
1916 1
зването 1
изградена 1
руската 1
Мит@@ 1
н.в. 1
приет 1
устието 1
причини 1
сътрудничество 1
зен@@ 1
конгрес 1
зин@@ 1
вната 1
британски 1
ванията 1
Злат@@ 1
Дейвид 1
всяко 1
Пара@@ 1
кур@@ 1
висок 1
нейното 1
разбира 1
чено 1
Макар 1
разли@@ 1
1906 1
лев@@ 1
мор@@ 1
моно@@ 1
всичките 1
обикнове@@ 1
Север@@ 1
важни 1
получи 1
сове 1
дълбо@@ 1
34 1
Жи@@ 1
определен 1
преси@@ 1
фици@@ 1
Първото 1
хидро@@ 1
показват 1
аб@@ 1
крепостта 1
съществуват 1
Пен@@ 1
извън@@ 1
правото 1
византи@@ 1
първонача@@ 1
тност 1
лови 1
лива 1
цът 1
ления 1
тина 1
36 0.9986495603286348
Родена 1
благо@@ 1
погребан 1
основната 1
разказва 1
Първи 1
популяр@@ 1
учени 1
повре@@ 1
върне 1
мента 1
потреб@@ 1
дис 1
краля 1
страните 1
заве@@ 1
Йор@@ 1
царство 1
км2 1
обхваща 1
полет 1
Ботев 1
приятел 1
изследване 1
философия 1
сцена 1
Бело@@ 1
стои 1
яр@@ 1
Иран 1
изи@@ 1
km2 1
ителя 1
мит@@ 1
поет 1
търговия 1
преве@@ 1
румъ@@ 1
затвор 1
Кър@@ 1
големина 1
сам 1
фаза 1
десе@@ 1
жител@@ 1
лекар 1
ниче@@ 1
рит 1
Август 1
въоръжение 1
вдъх@@ 1
италиан@@ 1
племена 1
победи 1
рина 1
Обитава 1
ана 1
зо 1
представляват 1
жено 1
извър@@ 1
тация 1
труд@@ 1
ционните 1
свещеник 1
Само@@ 1
бия 1
Американ@@ 1
моби@@ 1
технологи@@ 1
тура 1
подвод@@ 1
седмици 1
бригада 1
основана 1
санд@@ 1
индустри@@ 1
рев@@ 1
произвежда 1
вените 1
джи 1
стаби@@ 1
оценка 1
I@@ 0.1917197390362627
Стан@@ 1
уре@@ 1
Хр 1
вън 1
сред@@ 1
Израел 1
изграждането 1
джиев 1
a@@ 0.24614031539862832
дски 1
бю@@ 1
600 1
Двамата 1
проекти 1
кат 1
лесно 1
източник 1
ул@@ 1
тира@@ 1
крайбрежие 1
каза 1
поход 1
N@@ 0.12267504064109953
Национален 1
държи 1
селището 1
времен@@ 1
види@@ 1
стин@@ 1
нес 1
премина@@ 1
нямат 1
предизвиква 1
къл 1
1911 1
дов 1
постига 1
y@@ 0.1850571733379555
гол@@ 1
слав@@ 1
Хесен 1
кар 1
осигурява 1
лон@@ 1
мест@@ 1
зло@@ 1
стата 1
образованието 1
специалност 1
рису@@ 1
спомена@@ 1
рали 1
уче@@ 1
ensis 1
лар@@ 1
независимост 1
дъж@@ 1
затвора 1
автомоби@@ 1
обявен 1
тежки 1
форд 1
ль@@ 0.4732948273791315
събира 1
55 1
град@@ 1
сията 1
Долна 1
въгле@@ 1
притежава 1
чаване 1
общ 1
1902 1
югозапад 1
друго 1
лай@@ 1
кро@@ 1
гер@@ 1
науките 1
Георгиев 1
флота 1
прове@@ 1
прием@@ 1
Малко 1
Мюнхен 1
граждани 1
правата 1
Гар@@ 1
низи@@ 1
жан@@ 1
албан@@ 1
Климент 1
Све@@ 1
Спа@@ 1
графство 1
лира 1
руските 1
хор@@ 1
разпреде@@ 1
1907 1
главната 1
организи@@ 1
сберг 1
фен@@ 1
Фили@@ 1
Хенри 1
ителните 1
Вай@@ 1
мини 1
машини 1
Нидерландия 1
Христос 1
лице 1
свеще@@ 1
вис@@ 1
изъм 1
преподавател 1
Петров 1
бойни 1
медал 1
убийството 1
членовете 1
Адолф 1
западния 1
ъм 1
нася@@ 1
рово 1
мер 1
сии 1
atus 1
вариант 1
улица 1
Дан@@ 1
месе@@ 1
хил. 1
Голямата 1
далеч 1
претен@@ 1
нас 1
увеличава 1
йс 1
тивна 1
Кънчов 1
владетел 1
Тай@@ 1
архитектура 1
открита 1
размер 1
x 0.3256534023799554
снати 1
Свет@@ 1
H@@ 0.11913825477961452
Коста 1
общ@@ 1
ранните 1
яна 1
дат@@ 1
главата 1
графски 1
симво@@ 1
сми@@ 1
1909 1
близ@@ 1
поне 1
поръ@@ 1
силата 1
тка 1
зимата 1
меха@@ 1
лични 1
ментите 1
Стоян 1
дон 1
освобо@@ 1
планини 1
народна 1
олимпийски 1
Вътрешната 1
публику@@ 1
соци@@ 1
бизнес 1
династията 1
120 1
чани 1
ширина 1
автори 1
еро@@ 1
бед@@ 1
национално 1
ръковод@@ 1
Мате@@ 1
сък 1
ент 1
бан 1
йд 1
мили 1
гел 1
поставят 1
функции 1
инструменти 1
няването 1
войските 1
Част 1
залива 1
Кро@@ 1
къщата 1
Милано 1
Ну@@ 1
най@@ 1
загуби 1
ника@@ 1
произведен 1
рения 1
арестуван 1
Португалия 1
действа@@ 1
преминават 1
колкото 1
ъра 1
сне@@ 1
Европейския 1
команд@@ 1
лив 1
лище 1
публиката 1
Словения 1
Ели@@ 1
арти@@ 1
ела 1
стъл@@ 1
стъп@@ 1
избухването 1
отборът 1
ол@@ 1
янето 1
рих 1
стер@@ 1
документа@@ 1
Атанас 1
гласу@@ 1
запазени 1
Насау 1
дърво 1
интер@@ 1
рания 1
фил@@ 1
култури 1
37 1
Скоро 1
шата 1
технически 1
Зи@@ 1
1885 1
шни 1
каза@@ 1
единственият 1
съдържание 1
ващия 1
взе@@ 1
тора 1
воде@@ 1
лева 1
пе 1
Рабо@@ 1
Антон 1
постро@@ 1
писва 1
сер@@ 1
радио 1
Конго 1
1873 1
нео@@ 1
проекти@@ 1
Втора 1
япон@@ 1
фт 1
взри@@ 1
Ла 1
мена 1
пое@@ 1
разру@@ 1
кле@@ 1
устройство 1
наблюдава 1
логията 1
родо@@ 1
Виктор 1
анали@@ 1
спек@@ 1
Светов@@ 1
езера 1
Дар@@ 1
Сред@@ 1
подобно 1
минера@@ 1
въпрос 1
каз@@ 1
дал 1
42 1
старата 1
числе@@ 1
чужбина 1
ителната 1
йците 1
Цариград 1
ар 1
изработ@@ 1
надесет 1
участник 1
бежанци 1
жите 1
меди@@ 1
Тор@@ 1
успеш@@ 1
подгот@@ 1
ност@@ 1
подготовка 1
разви@@ 1
целта 1
ефектив@@ 1
търси 1
0,@@ 0.9800410108477695
полож@@ 1
пояснение 1
ae 0.5969654229702174
осъ@@ 1
поставени 1
Съвета 1
жката 1
придобива 1
армен@@ 1
Велико 1
продуци@@ 1
Численост 1
нис 1
региона@@ 1
кралица 1
реш@@ 1
фелд 1
&#124; 0.4221757678853821
Кат@@ 1
o 0.0772156661079636
Гру@@ 1
нали@@ 1
стандар@@ 1
ис@@ 1
накрая 1
отстъп@@ 1
g 0.23368341582826613
Олимпи@@ 1
съветник 1
съветски 1
предло@@ 1
кръст 1
македон@@ 1
стопанство 1
Херман 1
скри@@ 1
слабо 1
чва 1
гането 1
комуни@@ 1
твърде 1
Среща 1
риа@@ 1
Бавария 1
дебютира 1
закон 1
дс 1
участ@@ 1
Майкъл 1
нска 1
носе@@ 1
повърхността 1
национални 1
ов@@ 1
краси@@ 1
водите 1
турци 1
дейности 1
осъщест@@ 1
програми 1
вода@@ 1
категория 1
статии 1
ученици 1
македоно 1
крайцер 1
ничка 1
местен 1
процеса 1
Ирландия 1
Оскар 1
убива 1
младеж@@ 1
лият 1
Руско 1
единици 1
източните 1
обществото 1
партии 1
експедиция 1
звезда 1
пясъ@@ 1
Кралство 1
броят 1
Тру@@ 1
звание 1
фестивал 1
65 0.7279864915776216
журналист 1
медицина 1
онова 1
шена 1
миш@@ 1
жават 1
смятат 1
художе@@ 1
Димит@@ 1
Методий 1
чил 1
фак@@ 1
рос 1
хия 1
Сю@@ 1
духов@@ 1
джу@@ 1
Виетнам 1
кович 1
лие 1
национална 1
разби@@ 1
музикални 1
250 1
Оли@@ 1
Хел@@ 1
архиепископ 1
динами@@ 1
Ван@@ 1
Ей@@ 1
американския 1
графия 1
такава 1
Лос 1
етап 1
любов 1
всъщност 1
оло@@ 1
ръка 1
илю@@ 1
използвана 1
метод 1
ге 1
играч 1
ia 0.20899976664878456
компании 1
разруш@@ 1
ралните 1
изиграва 1
чар@@ 1
доби@@ 1
изборите 1
фло@@ 1
ана@@ 1
малките 1
ническа 1
Белград 1
вди@@ 1
органи@@ 1
подава 1
Националния 1
отстра@@ 1
промяна 1
характеристики 1
скали 1
границите 1
Стоянов 1
она@@ 1
Норвегия 1
Съветския 1
включени 1
вци 1
градче 1
s@@ 0.08424360197472214
дефини@@ 1
добро 1
чването 1
ката@@ 1
ционната 1
Николов 1
отделя 1
тично 1
пру@@ 1
име@@ 1
водни 1
дължи 1
1901 1
Юж@@ 1
поле@@ 1
компютър@@ 1
предава 1
нася 1
фикация 1
чита 1
времена 1
хаузен 1
800 1
Хю@@ 1
мисия 1
дието 1
зър@@ 1
мат 1
I. 0.8679013412337273
помощник 1
последният 1
сексу@@ 1
ляв 1
отбори 1
възник@@ 1
племен@@ 1
турците 1
напред@@ 1
лей 1
глас 1
мунд 1
ура 1
знак 1
атака 1
разделя 1
второ 1
династия 1
8@@ 0.6437571461764983
специални 1
неговият 1
необходи@@ 1
VIII 1
Ган@@ 1
Бил 1
британ@@ 1
пило@@ 1
против@@ 1
приблизително 1
Босна 1
годишната 1
B 0.2575311031508947
предизви@@ 1
функция 1
Ска@@ 1
десен 1
културно 1
основател 1
n 0.16144776882744796
черно@@ 1
премест@@ 1
Л 1
херцо@@ 1
ЦК 1
борбата 1
публи@@ 1
сръбски 1
новото 1
оните 1
Фло@@ 1
издате@@ 1
Института 1
едноименния 1
елемент 1
забав@@ 1
запознава 1
офици@@ 1
бун@@ 1
предполага 1
базата 1
въстанието 1
самолети 1
чът 1
пазар 1
Теле@@ 1
араб@@ 1
здра@@ 1
принуден 1
t 0.09564971187919045
източна 1
ваните 1
движението 1
пари@@ 1
убити 1
братята 1
островите 1
морската 1
силите 1
K@@ 0.10658605595769599
Баден 1
нахлу@@ 1
дорф 1
свързан 1
окупи@@ 1
on 0.013775586840469872
индивиду@@ 1
пример 1
думата 1
окръ@@ 1
операции 1
уста@@ 1
свързана 1
отговаря 1
управител 1
Окръг 1
кино@@ 1
конфликт 1
теж@@ 1
играта 1
изкуства 1
равнина 1
Кюстендил 1
изглежда 1
стични 1
Кол@@ 1
став@@ 1
Ана@@ 1
двора 1
сценарий 1
мс 1
изма 1
световно 1
освободен 1
певица 1
изпъл@@ 1
повод 1
съсед@@ 1
единица 1
пери@@ 1
чените 1
избира 1
Както 1
преслед@@ 1
новен 1
Пле@@ 1
гон 1
списък 1
съще@@ 1
Пъ@@ 1
местното 1
гео@@ 1
сбург 1
отбраната 1
маните 1
сцената 1
зер@@ 1
Асен 1
иска@@ 1
създадени 1
фен 1
писмо 1
фран@@ 1
замъка 1
поля@@ 1
Сър@@ 1
дати@@ 1
вземат 1
сар@@ 1
рието 1
Македо@@ 1
академи@@ 1
Герман@@ 1
Пот@@ 1
епизод 1
спечели 1
Съединени 1
теоре@@ 1
Ричард 1
Перу 1
Мен@@ 1
Рек@@ 1
Ръ@@ 1
Сар@@ 1
варя@@ 1
стопан@@ 1
ори@@ 1
шкия 1
смисъл 1
новски 1
оставя 1
Списък 1
дията 1
западна 1
кампания 1
светлина 1
частично 1
клон 1
завръщането 1
къл@@ 1
отговор 1
т. 1
1895 1
комплек@@ 1
член@@ 1
c@@ 0.14060241394966702
опис@@ 1
онът 1
съдеб@@ 1
присъеди@@ 1
драма 1
тери@@ 1
морето 1
трудно 1
тик 1
филмо@@ 1
Ной@@ 1
публикуван 1
рес 1
ърк@@ 1
нощта 1
църкви 1
долина 1
реди@@ 1
архи@@ 1
лети 1
труда 1
Андрей 1
основна 1
стените 1
знае 1
изби@@ 1
дълга 1
мачове 1
пан 1
писате@@ 1
Фран@@ 1
болница 1
възраст@@ 1
дър 1
пъту@@ 1
космически 1
Ком@@ 1
бург@@ 1
главните 1
право@@ 1
стия 1
аку@@ 1
прехвър@@ 1
нару@@ 1
ходите 1
ав@@ 1
памет 1
повлия@@ 1
притоци 1
футбо@@ 1
средновеков@@ 1
o@@ 0.14035422185826893
дови@@ 1
рация 1
хан@@ 1
Плевен 1
запазва 1
фамилия 1
ционно 1
Вой@@ 1
Рудолф 1
Хор@@ 1
генера@@ 1
журнали@@ 1
истори@@ 1
лъчеперка 1
офицери 1
изпълняват 1
разкази 1
b@@ 0.12586978060788886
Европей@@ 1
строителството 1
Тран@@ 1
империята 1
био@@ 1
граници 1
вери@@ 1
второто 1
физика 1
Гали@@ 1
вещества 1
испански 1
издига 1
рийски 1
пътища 1
фин@@ 1
френската 1
вява 1
традицион@@ 1
възможността 1
народ 1
позиции 1
южните 1
бла@@ 1
ливи 1
хът 1
Дон@@ 1
революцион@@ 1
дадена 1
Шо@@ 1
вест@@ 1
прину@@ 1
нична 1
Същата 1
пехотна 1
политиката 1
см 1
Област 1
посе@@ 1
Получава 1
борда 1
Вашингтон 1
Сен 1
екзархия 1
Сейнт 1
удар 1
традиция 1
1896 1
родителите 1
съдове 1
лас 1
Битоля 1
режи@@ 1
северните 1
Вра@@ 1
Петербург 1
приятели 1
Международ@@ 1
Христов 1
Стро@@ 1
Габрово 1
лд@@ 1
соли@@ 1
доктор 1
веднъж 1
световен 1
ас 1
товете 1
достъп 1
художествена 1
символ 1
завладя@@ 1
ръцете 1
семей@@ 1
мало@@ 1
намира@@ 1
подо@@ 1
ай@@ 1
водосборния 1
крат@@ 1
полза 1
увели@@ 1
състезания 1
дните 1
определят 1
морска 1
лист@@ 1
Бол@@ 1
пис 1
Българска 1
Кипър 1
испан@@ 1
ске@@ 1
диалект 1
мина 1
тежко 1
методи 1
ителното 1
учеб@@ 1
48 0.9650407891308636
извърш@@ 1
скулп@@ 1
пози@@ 1
колони@@ 1
купата 1
изисква 1
дския 1
герман@@ 1
ителят 1
лети@@ 1
технологии 1
пка 1
прие@@ 1
кара@@ 1
придру@@ 1
чан@@ 1
ено@@ 1
въоръ@@ 1
съдържа@@ 1
надпис 1
нителна 1
национа@@ 1
мър@@ 1
Дания 1
СС 1
вкарва 1
позицията 1
Луис 1
банка 1
текстове 1
дебют 1
чия 1
g@@ 0.12217411719204159
рик 1
американските 1
мнение 1
природата 1
домини@@ 1
стари 1
Северен 1
уника@@ 1
Групата 1
актьор@@ 1
популярност 1
важен 1
44 0.8662677695295145
жно 1
чов 1
дов@@ 1
домакинства 1
излъ@@ 1
комуника@@ 1
ниска 1
стати@@ 1
гар 1
двор 1
раждането 1
ВМРО 1
европейските 1
зави@@ 1
регистри@@ 1
метро@@ 1
събират 1
кило@@ 1
Създа@@ 1
император@@ 1
линг 1
жанра 1
останали 1
подходя@@ 1
стката 1
Черна 1
бори 1
престъп@@ 1
W@@ 0.10452231989611363
рон@@ 1
конкурс 1
траки@@ 1
ъри 1
поя@@ 1
опълчение 1
телевизион@@ 1
горната 1
дол 1
39 1
техниче@@ 1
Бат@@ 1
автор@@ 1
кана 1
лагер 1
гау 1
цов 1
Мел@@ 1
вят 1
вън@@ 1
музикален 1
лос 1
навлиза 1
директно 1
конститу@@ 1
процеси 1
свири 1
утвър@@ 1
важ@@ 1
Венеция 1
желез@@ 1
концер@@ 1
отхвър@@ 1
прекъс@@ 1
Ама@@ 1
Черно 1
тече 1
1899 1
хите 1
лийски 1
съм 1
двигател 1
трима 1
актив@@ 1
уда@@ 1
лечение 1
романи 1
Йосиф 1
Кристиан 1
Малайзия 1
корабите 1
независимо 1
свобода 1
транспорт 1
каче@@ 1
бази@@ 1
признава 1
чево 1
институции 1
пътува 1
съл 1
9@@ 0.6450057936911399
източния 1
португа@@ 1
l 0.06915286947590198
курс 1
мести 1
турата 1
L 0.25409820422342655
Или@@ 1
звезди 1
Али@@ 1
научна 1
тат@@ 1
нс 1
отношенията 1
Анджелис 1
Често 1
интернет 1
Ур@@ 1
лег@@ 1
природни 1
карта 1
внимание 1
значителни 1
тех@@ 1
обшир@@ 1
поро@@ 1
ръководство 1
заре@@ 1
споразумение 1
наука 1
промишленост 1
Оби@@ 1
трябвало 1
ут 1
41 1
мона@@ 1
i@@ 0.17326198035291696
Гьо@@ 1
Санкт 1
чината 1
археологически 1
въста@@ 1
n@@ 0.1193848067079384
бер 1
кано@@ 1
тари@@ 1
криза 1
сови 1
Гю@@ 1
хай@@ 1
ърът 1
самата 1
Прав@@ 1
застра@@ 1
слава 1
Йордан 1
изва@@ 1
копия 1
опити 1
загуба 1
тивно 1
Хаджи@@ 1
тат 1
военната 1
аристокра@@ 1
кули 1
риал@@ 1
Няколко 1
кой 0.5618387547305753
Йозеф 1
широка 1
разстояние 1
Балкан@@ 1
останки 1
съчета@@ 1
ненията 1
задача 1
прести@@ 1
трона 1
японски 1
следи 1
услуги 1
млади 1
рекла@@ 1
Римска 1
гне@@ 1
излъчва 1
инженер 1
Каролина 1
преврат 1
нищо 1
окончателно 1
врата 1
определена 1
третата 1
F 0.37168430695774907
едни 1
метър 1
стване 1
равни@@ 1
латински 1
огън 1
ползва 1
пресел@@ 1
яв@@ 1
Ген@@ 1
Сити 1
Радо@@ 1
живе@@ 1
43 1
изка@@ 1
пътеше@@ 1
to 0.00524125174954111
гру@@ 1
старши 1
украин@@ 1
Пау@@ 1
видео 1
купа 1
работе@@ 1
ходът 1
кг 1
разгле@@ 1
славян@@ 1
мра@@ 1
насочва 1
събор 1
варят 1
установ@@ 1
ЕС 1
измер@@ 1
потвър@@ 1
$ 0.19523486484846386
Агнес 1
състезате@@ 1
дебю@@ 1
наличието 1
ока@@ 1
ней@@ 1
откло@@ 1
разтво@@ 1
сериозно 1
реша@@ 1
тови 1
идеи 1
носа 1
чак 1
воден 1
жп 1
отве@@ 1
злат@@ 1
освобод@@ 1
тово 1
1876 1
Шан@@ 1
зони 1
клет@@ 1
инте@@ 1
цу@@ 1
държа 1
неу@@ 1
Тайланд 1
вали@@ 1
Световната 1
сце@@ 1
финал 1
d@@ 0.11321091296017353
Стар@@ 1
дет@@ 1
малкото 1
силен 1
кови@@ 1
мощност 1
прило@@ 1
7@@ 0.5573551877252032
гна@@ 1
остав@@ 1
обо@@ 1
поддържа@@ 1
модели 1
недостатъ@@ 1
обви@@ 1
меж@@ 1
парламент 1
съпротива 1
Уол@@ 1
течението 1
граничи 1
климат 1
предаване 1
избя@@ 1
любо@@ 1
Само 1
Със 1
географ@@ 1
бор 1
високите 1
лагане 1
разглежда 1
лил 1
нарежда 1
наци@@ 1
влиянието 1
хва@@ 1
лии 1
напре@@ 1
торпе@@ 1
клетки 1
метъл 1
слън@@ 1
Вил@@ 1
sa 0.10293599882758984
Симеон 1
кер 1
1894 1
47 1
бин 1
издания 1
стве@@ 1
ровка 1
Ловеч 1
Шумен 1
направени 1
трета 1
Син 1
Сирия 1
Национа@@ 1
бани 1
дире@@ 1
d 0.06900831676238657
дружина 1
6@@ 0.5494840061354991
герои 1
икономиката 1
Шарл 1
газ 1
католи@@ 1
омъжена 1
специфи@@ 1
участък 1
Хон@@ 1
они@@ 1
рие 1
фре@@ 1
бившия 1
ду 0.9178248048960485
Анхалт 1
Сли@@ 1
лез@@ 1
положението 1
сра@@ 1
Хал@@ 1
адмирал 1
Ля@@ 1
Британ@@ 1
кандидат 1
редов@@ 1
Попов 1
ку 0.4339726474002606
органи 1
Югоизточна 1
картини 1
гъл 1
земите 1
изграден 1
место@@ 1
основано 1
забележител@@ 1
художници 1
имената 1
самият 1
домакин@@ 1
чността 1
Лау@@ 1
Ханс 1
хал@@ 1
киселина 1
Пло@@ 1
важните 1
700 1
анализ 1
третия 1
клю@@ 1
поста@@ 1
XVIII 1
недо@@ 1
проблем 1
ралната 1
връзката 1
Бой@@ 1
шър 1
Охридски 1
декора@@ 1
Кос@@ 1
листа 1
държат 1
продуцент 1
щен 1
Хърватия 1
изстре@@ 1
факта 1
Христо@@ 1
ционния 1
денията 1
нараст@@ 1
нан@@ 1
различен 1
Хъ@@ 1
арабски 1
гъл@@ 1
построени 1
шест@@ 1
изпълните@@ 1
Армения 1
льо 1
хърват@@ 1
женен 1
наследява 1
пита@@ 1
чини 1
стар 1
Маргарета 1
Дължината 1
Меди@@ 1
ато 1
гимназията 1
кер@@ 1
познат 1
пия 1
Стой@@ 1
махала 1
обявена 1
писатели 1
лек 1
търгов@@ 1
S 0.3238399570121175
даде 1
назна@@ 1
ствения 1
Тръ@@ 1
качеството 1
науката 1
Ал 1
въздуха 1
бял 1
Бранденбург 1
Обе@@ 1
известния 1
създаде 1
ь@@ 0.6677290559962744
лагат 1
тон@@ 1
Ангел 1
Танзания 1
Тек@@ 1
населени 1
бреговете 1
дев 1
настъп@@ 1
Вюртемберг 1
научен 1
изградени 1
олимпи@@ 1
няко@@ 1
песните 1
1880 1
1898 1
XIV 1
Мадрид 1
итите 1
Прага 1
прияте@@ 1
мъж 1
нира 1
Луиза 1
дие 1
Оу@@ 1
роди@@ 1
шко@@ 1
посредством 1
приета 1
озву@@ 1
Авто@@ 1
помо@@ 1
1897 1
Аб@@ 1
асоциация 1
Съществуват 1
изпит@@ 1
градина 1
екра@@ 1
Битката 1
Заради 1
Пала@@ 1
международен 1
остро@@ 1
съдържат 1
ресурси 1
кру@@ 1
сет 1
левия 1
плоча 1
сня@@ 1
съвместно 1
държавна 1
оцен@@ 1
лича 1
вътрешните 1
швед@@ 1
Ща@@ 1
деня 1
нав@@ 1
Цент@@ 1
събра@@ 1
чик 1
Мю@@ 1
Съвет@@ 1
осъден 1
поставен 1
рев 1
биологи@@ 1
изго@@ 1
кари@@ 1
образовате@@ 1
графска 1
мюсюлман@@ 1
йка 1
устройства 1
ata 0.3699217763472914
зон@@ 1
разпространение 1
Цве@@ 1
външните 1
градската 1
спу@@ 1
хов@@ 1
опита 1
англи@@ 1
бере 1
маркграф 1
мски 1
някой 1
решават 1
Лай@@ 1
Хър@@ 1
африкан@@ 1
мъж@@ 1
тем@@ 1
английския 1
Дъл@@ 1
вор@@ 1
рил 1
маща@@ 1
отраз@@ 1
ственото 1
лате@@ 1
откриват 1
тс 1
Локомотив 1
Основните 1
граждан@@ 1
Черно@@ 1
държавни 1
сната 1
императора 1
рото 1
тим 1
ждани 1
закона 1
наше@@ 1
придоби@@ 1
ристи@@ 1
Македоно 1
бин@@ 1
сражение 1
Всяка 1
После@@ 1
Торино 1
награден 1
жела@@ 1
лството 1
наб@@ 1
синът 1
лидер 1
пропаганда 1
рио 1
5@@ 0.4892372529535899
Популацията 1
композитор 1
народи 1
Кир@@ 1
лиза 1
Тар@@ 1
дви@@ 1
калибър 1
пер 1
твор@@ 1
турне 1
Виктория 1
тират 1
гнати 1
пригот@@ 1
природ@@ 1
тегло 1
вните 1
парале@@ 1
Голе@@ 1
лацията 1
ждават 1
Играе 1
ети@@ 1
кни@@ 1
гроб@@ 1
продава 1
метри@@ 1
земедел@@ 1
пилот 1
64 0.7084991229692585
Кате@@ 1
Св. 1
Майка 1
буди@@ 1
дръ@@ 1
седмица 1
бло@@ 1
обуча@@ 1
опит@@ 1
приложение 1
възниква 1
одринска 1
последователно 1
източ@@ 1
поме@@ 1
зана 1
Бей@@ 1
аре@@ 1
лагането 1
” 0.14084818407650723
52 0.9624492286948969
уд 1
Ала@@ 1
леп@@ 1
напрежение 1
длъжността 1
ктори 1
мора@@ 1
перси@@ 1
цял 1
вътре 1
новени 1
шат 1
класа@@ 1
рика 1
варя 1
лян 1
налягане 1
решения 1
учен 1
десетилетия 1
пър 1
гард 1
първенството 1
N 0.4224010027547367
пом@@ 1
ъгъл 1
лове 1
нау 1
предмети 1
чичо 1
ря 1
ологи@@ 1
отсъ@@ 1
енти 1
XVI 1
Сал@@ 1
годиш@@ 1
46 1
аси@@ 1
предотвра@@ 1
тска 1
Чехия 1
сегаш@@ 1
екзеку@@ 1
З 1
Френ@@ 1
куп@@ 1
тис 1
сира 1
средната 1
Всеки 1
въоръжени 1
кос 1
продължи 1
дядо 1
йно 1
привърже@@ 1
стове 1
суб@@ 1
латин@@ 1
теми 1
IX 1
Стре@@ 1
лища 1
председате@@ 1
президент@@ 1
техния 1
Ян 1
включен 1
летище 1
професионален 1
вицата 1
кино 1
Ден@@ 1
артилерийски 1
водещ 1
гат@@ 1
бежан@@ 1
бозайник 1
нива 1
падат 1
принадлежи 1
лед@@ 1
отделение 1
Иса@@ 1
законодате@@ 1
вследствие 1
договора 1
Връ@@ 1
Лъ@@ 1
изоста@@ 1
самолет 1
психо@@ 1
версии 1
диаметър 1
другата 1
повърхност 1
покрай 1
допълнително 1
контрола 1
хов 1
ходи 1
довежда 1
обу@@ 1
самолета 1
нан 1
цвет@@ 1
Средна 1
университе@@ 1
оттегля 1
поколение 1
Ней@@ 1
имал 1
индиан@@ 1
оке@@ 1
съобщава 1
Кю@@ 1
горски 1
малката 1
мето 1
социални 1
бей 1
музика@@ 1
патриаршия 1
свобод@@ 1
срав@@ 1
уд@@ 1
ел@@ 1
Класи@@ 1
подкрепя 1
ефект 1
силни 1
управ@@ 1
Глав@@ 1
f@@ 0.10727789271881233
плу@@ 1
различна 1
пее 1
Сил@@ 1
ниски 1
поведение 1
фла@@ 1
Пал@@ 1
спорт 1
p@@ 0.10480819353215387
хт 1
1890 1
оказват 1
брони@@ 1
енен 1
изме@@ 1
явява 1
наси@@ 1
съществуването 1
Санта 1
изпис@@ 1
нка 1
шението 1
1500 1
изучава 1
дате@@ 1
излъчване 1
Тео@@ 1
започне 1
гов 1
тическата 1
Офици@@ 1
части@@ 1
шампион@@ 1
грама 1
зано 1
стер 1
затво@@ 1
самото 1
дотогава 1
принцип 1
софи@@ 1
Международната 1
Свето@@ 1
възмож@@ 1
нараства 1
поезия 1
фонд 1
мени@@ 1
нау@@ 1
on@@ 0.11728683011832744
госпо@@ 1
митология 1
продукт 1
чуж@@ 1
световното 1
хер 1
бъл@@ 1
деление 1
опера 1
многобройни 1
учи@@ 1
Ново@@ 1
дълъг 1
оръжия 1
тий 1
Втори 1
теорията 1
лицето 1
провинции 1
окръга 1
вока@@ 1
излизат 1
линей@@ 1
облек@@ 1
титли 1
добав@@ 1
чита@@ 1
зна 1
Судан 1
пазара 1
енерги@@ 1
завод 1
1879 1
гаран@@ 1
двореца 1
единствен 1
заемат 1
зар 1
ранен 1
реду@@ 1
състезание 1
четирите 1
боя 1
каме@@ 1
Мат@@ 1
чин@@ 1
1891 1
вземе 1
Трен@@ 1
успе@@ 1
идея 1
свързано 1
Все 1
мисле@@ 1
ic@@ 0.21382582379502849
разделят 1
Затова 1
особ@@ 1
нят 1
средна 1
тил 1
търговията 1
Поп@@ 1
конкурен@@ 1
определя@@ 1
шкото 1
командване 1
Изпъл@@ 1
духо@@ 1
реги@@ 1
Хен@@ 1
камъни 1
огра@@ 1
приключва 1
археологи@@ 1
гии 1
изтреб@@ 1
стра 1
́ 0.2827440154843427
нично 1
паци@@ 1
спира 1
уст@@ 1
вице@@ 1
устойчи@@ 1
химия 1
карти 1
офи@@ 1
Христи@@ 1
Чрез 1
мерки 1
Световното 1
баро@@ 1
липсата 1
собствена 1
зират 1
ял 1
муску@@ 1
философ@@ 1
тела 1
Бя@@ 1
думите 1
мената 1
ранг 1
иденти@@ 1
парти@@ 1
стие 1
щни 1
Херцеговина 1
знаме 1
скоростта 1
kg 1
Хан@@ 1
бар 1
десния 1
отдале@@ 1
преимену@@ 1
чле@@ 1
Брауншвайг 1
Народно 1
длъжност 1
изра@@ 1
индустрия 1
Неговият 1
Сливен 1
единствената 1
y 0.010439725576538422
Ката@@ 1
тов@@ 1
Бог 1
вя 1
зане 1
етаж 1
наричана 1
съзна@@ 1
широк 1
Лей@@ 1
събитие 1
съпруг 1
пома@@ 1
землището 1
1,@@ 0.6547891607433732
Катарина 1
планините 1
Неапол 1
свързва@@ 1
въвежда 1
лизира 1
момента 1
пътна 1
Българското 1
публикувани 1
Z@@ 0.12040444205601256
лика 1
ствия 1
хен@@ 1
Обще@@ 1
отбрана 1
торът 1
56 1
85 1
одринското 1
теат@@ 1
ано@@ 1
добива 1
народни 1
възпита@@ 1
резултати 1
X@@ 0.31387954633454296
Сара@@ 1
вета 1
дели 1
икони 1
рекор@@ 1
Прусия 1
обръща 1
проти@@ 1
стария 1
Цезар 1
забележителности 1
фай@@ 1
Албумът 1
Чо@@ 1
вероя@@ 1
разпо@@ 1
сво@@ 1
нович 1
стартира 1
съвремен@@ 1
Мала 1
депутат 1
еска@@ 1
пристанище 1
взаимо@@ 1
тиране 1
фигури 1
1870 1
Венецуела 1
отгле@@ 1
откриването 1
Фон@@ 1
лта 1
сор 1
историк 1
Основната 1
датира 1
бого@@ 1
двойки 1
колеж 1
лицата 1
музикална 1
приятел@@ 1
реше@@ 1
широ@@ 1
Цари@@ 1
сно@@ 1
правила 1
or@@ 0.11867874033361075
архитек@@ 1
ковете 1
ума 1
la 0.0045187256039421276
дания 1
контроли@@ 1
лар 1
лат 1
частни 1
манд@@ 1
нало@@ 1
предвид 1
варира 1
купува 1
Държав@@ 1
информа@@ 1
откъдето 1
републикан@@ 1
свойства 1
карто@@ 1
македонски 1
нато 1
отка@@ 1
монети 1
падането 1
дес 1
дъщери 1
изсел@@ 1
Народна 1
Теодор 1
Висо@@ 1
Кул@@ 1
местния 1
писателка 1
Интер@@ 1
кате@@ 1
днешна 1
Най@@ 1
етите 1
средното 1
научно 1
раб@@ 1
Бю@@ 1
световната 1
принос 1
архитект 1
църков@@ 1
жената 1
молеку@@ 1
серио@@ 1
тежка 1
тки 1
76 1
Освобождението 1
обър@@ 1
студиен 1
Междувременно 1
ангажи@@ 1
социали@@ 1
фри@@ 1
лес 1
Кьо@@ 1
ател 1
северозападно 1
тогаваш@@ 1
успехи 1
Ос@@ 1
ителството 1
вара 1
денбург 1
златен 1
протежение 1
Гео@@ 1
еволю@@ 1
певец 1
тръгва 1
Дя@@ 1
телевизионен 1
насле@@ 1
седалище 1
яни 1
Произве@@ 1
конференция 1
разделени 1
el@@ 0.09467732707846342
сай@@ 1
изче@@ 1
култур@@ 1
пото@@ 1
Песента 1
исля@@ 1
низ@@ 1
тиката 1
анима@@ 1
ство@@ 1
Бон@@ 1
Шар@@ 1
гря@@ 1
попу@@ 1
самостоятелно 1
цялост@@ 1
Дър@@ 1
девет 1
дървета 1
интерпре@@ 1
религиозни 1
търсене 1
нощ 1
обособ@@ 1
първо@@ 1
систе@@ 1
парламента 1
Спартак 1
евреи 1
сар 1
тивен 1
беля@@ 1
фор 1
1893 1
оба@@ 1
раща 1
Следва 1
щат@@ 1
Василий 1
важно 1
ник@@ 1
патриар@@ 1
сени 1
Живо@@ 1
дото 1
изгра@@ 1
отличава 1
цио@@ 1
Хоен@@ 1
ХХ 1
дение 1
рира 1
агре@@ 1
близки 1
брази@@ 1
конкре@@ 1
последното 1
грамо@@ 1
класира 1
тичната 1
извършват 1
средство 1
центрове 1
Марко 1
данъ@@ 1
демо@@ 1
любовта 1
свидетел@@ 1
християнски 1
германските 1
изчис@@ 1
чув@@ 1
коро@@ 1
оли@@ 1
решението 1
сблъ@@ 1
зацията 1
случая 1
условията 1
наречени 1
паз@@ 1
Мишев 1
Уо@@ 1
протича 1
третият 1
Пари@@ 1
координа@@ 1
мет 1
новете 1
оглавява 1
успешен 1
J@@ 0.10989225926969495
италианския 1
ращ 1
ползват 1
сица 1
хла@@ 1
Али 1
бек 1
зан@@ 1
ктор 1
съхра@@ 1
Коле@@ 1
1889 1
издадени 1
пълна 1
сните 1
укреп@@ 1
Книгата 1
пълно 1
Рейн@@ 1
отделните 1
лското 1
днев@@ 1
in@@ 0.06458903125945702
Мет@@ 1
галерия 1
оркестър 1
Хаб@@ 1
Чети@@ 1
растение 1
Коло@@ 1
гнез@@ 1
Изда@@ 1
мюсюлмани 1
1892 1
гов@@ 1
секретаря 1
XVII 1
Бран@@ 1
Еквадор 1
лиан@@ 1
пал@@ 1
съвсем 1
риба 1
Петко 1
периоди@@ 1
съвременните 1
1886 1
връщане 1
зина 1
подчер@@ 1
поту@@ 1
Воен@@ 1
ес 1
зни 1
морските 1
торите 1
югозападно 1
бел 1
опитват 1
гор 1
дам 1
палу@@ 1
появата 1
ляво 1
последва@@ 1
допълнителни 1
студенти 1
цве@@ 1
революционен 1
сро@@ 1
C. 0.5013989987049419
живопис 1
пов 1
фер 1
басейни 1
нич@@ 1
вато@@ 1
задачи 1
издигнат 1
крити@@ 1
лам@@ 1
лета 1
текста 1
уско@@ 1
концерти 1
пове 1
етата 1
фал@@ 1
51 0.9288862724118908
Богородично 1
масо@@ 1
обхва@@ 1
силна 1
канад@@ 1
предаването 1
заме@@ 1
трен@@ 1
72 1
рю@@ 1
малкия 1
щението 1
Пат@@ 1
пряко 1
етно@@ 1
шил 1
списъка 1
Австри@@ 1
Вале@@ 1
Пфалц 1
дии 1
жде@@ 1
ринг 1
стоки 1
тието 1
автомобили 1
литератур@@ 1
оне@@ 1
евро 1
риите 1
снаб@@ 1
ток 1
гроби@@ 1
южно@@ 1
Български 1
Внук 1
патриарх 1
фанта@@ 1
ядре@@ 1
живо 1
поре@@ 1
провинцията 1
вов 1
кап@@ 1
сели@@ 1
Никола@@ 1
изследва 1
пояс 1
Последният 1
консул@@ 1
кръсто@@ 1
сектор 1
служители 1
храни 1
общи 1
Демократична 1
Между@@ 1
Сицилия 1
дясно 1
отне@@ 1
позво@@ 1
худож@@ 1
Може 1
завърш@@ 1
обръ@@ 1
яйки 1
комунистиче@@ 1
купу@@ 1
напред 1
лес@@ 1
меда@@ 1
подкрепата 1
политическата 1
Софи@@ 1
зад@@ 1
Чили 1
заслу@@ 1
капацитет 1
моти@@ 1
предви@@ 1
1881 1
наричани 1
официален 1
шаване 1
вертика@@ 1
новена 1
подви@@ 1
ina 0.19801513060827985
културни 1
циви@@ 1
изли@@ 1
катедралата 1
нация 1
случва 1
това@@ 1
значи@@ 1
чеш@@ 1
балкан@@ 1
изпълнението 1
седми@@ 1
обек@@ 1
плавате@@ 1
Семейство 1
британската 1
тният 1
хове 1
Кала@@ 1
изгар@@ 1
комедия 1
невро@@ 1
проучвания 1
сис 1
опи@@ 1
Полу@@ 1
изпълня@@ 1
мпи@@ 1
нини 1
малната 1
рел 1
екипа 1
Благо@@ 1
Косово 1
мате@@ 1
бяга 1
реак@@ 1
слой 1
ужа@@ 1
Кения 1
пъте@@ 1
стъпва 1
шево 1
Мир@@ 1
Род@@ 1
зато@@ 1
D 0.24197412118731756
Академията 1
администрация 1
криста@@ 1
нър 1
ценни 1
Пон@@ 1
54 0.9916376276244091
простира 1
дра 1
йе@@ 1
комунистическа 1
вки 1
вну@@ 1
нк@@ 1
сигур@@ 1
екземпля@@ 1
лична 1
отбра@@ 1
развиват 1
сов@@ 1
психологи@@ 1
учред@@ 1
УЕФА 1
зависи 1
инвести@@ 1
ту 0.6737022717748863
Бого@@ 1
приеме 1
делят 1
концерт 1
отрицате@@ 1
сцени 1
Сей@@ 1
кримина@@ 1
стату@@ 1
сръб@@ 1
Видин 1
Холандия 1
непре@@ 1
рабо@@ 1
ограни@@ 1
видни 1
съпер@@ 1
БАН 1
последовате@@ 1
сума 1
малкият 1
приклю@@ 1
вети 1
дебе@@ 1
мация 1
функциона@@ 1
вет 1
интензи@@ 1
настан@@ 1
състезава 1
тели 1
Пав@@ 1
Улрих 1
котловина 1
1,5 1
ним 1
шаването 1
Пиер 1
среща@@ 1
циона@@ 1
мето@@ 1
помежду 1
проявява 1
er@@ 0.07211005306267348
германската 1
мъжка 1
напусне 1
стотата 1
диалек@@ 1
дната 1
съда 1
идват 1
осве@@ 1
финанси@@ 1
1884 1
Солу@@ 1
Тексас 1
мърт@@ 1
парка 1
сбор@@ 1
тю@@ 1
шан@@ 1
грижи 1
дебелина 1
паметници 1
Изгра@@ 1
рисува 1
Наполеон 1
печелят 1
прочу@@ 1
уро@@ 1
фрайхер 1
значителна 1
обществени 1
Вис@@ 1
поставена 1
ученик 1
засел@@ 1
поз@@ 1
произведение 1
1883 1
Науч@@ 1
обучението 1
разкрива 1
термин 1
Две 1
ели 1
популярни 1
Окръ@@ 1
бронзо@@ 1
насър@@ 1
сета 1
Съвремен@@ 1
лива@@ 1
Ори@@ 1
боли@@ 1
Пале@@ 1
зале@@ 1
наши 1
относително 1
подло@@ 1
югоизточно 1
юн@@ 1
Средната 1
дадено 1
обслуж@@ 1
промиш@@ 1
шампионат 1
Жу@@ 1
вълна 1
ия 1
виде@@ 1
лун@@ 1
риту@@ 1
желание 1
преговори 1
специален 1
Гло@@ 1
Фла@@ 1
крило 1
Запад@@ 1
супер@@ 1
жния 1
начина 1
вяване 1
ниско 1
62 1
висше 1
стичен 1
състезанието 1
чете 1
бав@@ 1
лва 1
пена 1
плочи 1
3000 1
ch@@ 0.0797029000926186
дска 1
сухо@@ 1
шна 1
бит@@ 1
вел 1
неутра@@ 1
астроно@@ 1
машина 1
поли 1
представяне 1
армии 0.9931849884759164
зася@@ 1
мю@@ 1
продължител@@ 1
58 1
изтег@@ 1
казват 1
юри@@ 1
написана 1
притежа@@ 1
49 0.8897576337867937
изклю@@ 1
обем 1
отря@@ 1
преми@@ 1
древно@@ 1
листи 1
офор@@ 1
План@@ 1
ленд 1
званието 1
сва 1
Гал@@ 1
ителния 1
мото@@ 1
нато@@ 1
подобен 1
религия 1
родното 1
североизточно 1
Четвър@@ 1
Бори@@ 1
народа 1
съвременни 1
градския 1
засне@@ 1
музея 1
писана 1
протестан@@ 1
цветове 1
общата 1
строй@@ 1
тава 1
шоу 1
Джовани 1
гон@@ 1
зин 1
родни 1
шън 1
ot@@ 0.1571597868840293
възможности 1
конструкция 1
южния 1
Диа@@ 1
вие 1
глу@@ 1
долната 1
закони 1
османски 1
придвиж@@ 1
Дне@@ 1
Казахстан 1
жната 1
просвет@@ 1
рене 1
Финландия 1
квалифика@@ 1
95 0.960981269121323
космиче@@ 1
що@@ 1
Ари@@ 1
влива 1
ничеството 1
асистент 1
половината 1
Егейска 1
борд 1
присъства 1
предоставя 1
Сел@@ 1
бит 1
дълбоко 1
ерата 1
документ 1
енберг 1
нелега@@ 1
лизация 1
необходимо 1
Военно@@ 1
епизода 1
импера@@ 1
националната 1
Българ@@ 1
рито@@ 1
Фал@@ 1
седем@@ 1
Windows 1
Дани@@ 1
ковите 1
съгласно 1
1860 1
НАСА 1
меч@@ 1
Сим@@ 1
Френска 1
бел@@ 1
чисто 1
53 0.9750959880554426
Миха@@ 1
нивото 1
съвременната 1
базиран 1
Административно 1
детай@@ 1
народно 1
синте@@ 1
човешки 1
групи@@ 1
творчеството 1
характерни 1
абат@@ 1
емо@@ 1
злато 1
Атлан@@ 1
египет@@ 1
деле@@ 1
доба@@ 1
интереси 1
Еле@@ 1
Републикански 1
мос 1
свети@@ 1
източно@@ 1
кват 1
нало 1
сение 1
писите 1
преобразу@@ 1
емата 1
лята 1
кандидат@@ 1
Река 1
обозна@@ 1
допълнение 1
млад 1
Истори@@ 1
горното 1
еписко@@ 1
многократно 1
двой@@ 1
обса@@ 1
римската 1
Грузия 1
лян@@ 1
противника 1
оз@@ 1
бат 1
експер@@ 1
намаляване 1
съсе@@ 1
щането 1
линген 1
пристигат 1
удостоен 1
Пей@@ 1
Шотландия 1
електрически 1
запис@@ 1
олог 1
чаването 1
верига 1
континента@@ 1
свободен 1
фигура 1
Божи@@ 1
Фар@@ 1
ез@@ 1
фирма 1
57 1
XV 1
геро@@ 1
играчи 1
създадено 1
гръцките 1
мерите 1
кет 1
обсъ@@ 1
тра 1
Юго@@ 1
Византия 1
площад 1
упраж@@ 1
хран@@ 1
активи@@ 1
десан@@ 1
направен 1
рим@@ 1
северния 1
Ир@@ 1
Кей@@ 1
бог 1
женски 1
кола 1
обре@@ 1
представен 1
тици 1
реакция 1
липса 1
наем 1
ряване 1
електрон@@ 1
оча@@ 1
градска 1
рка 1
уе@@ 1
дизайн 1
педагоги@@ 1
руп@@ 1
Молдова 1
Фил@@ 1
местност 1
сътруд@@ 1
акт 1
сътрудник 1
комен@@ 1
68 1
Уелс 1
вари@@ 1
околната 1
собствени 1
лекар@@ 1
XII 1
Рели@@ 1
лер@@ 1
продукция 1
валу@@ 1
затвор@@ 1
кис 1
оръдие 1
привлича 1
централна 1
Population 1
Юли@@ 1
влияте@@ 1
тана 1
Добруджа 1
оборудване 1
македонска 1
общински 1
световни 1
ов 1
стична 1
O 0.19428292979870113
десетки 1
назначава 1
Без@@ 1
Тодоров 1
медицински 1
предлагат 1
топо@@ 1
чество 1
вътрешността 1
книжо@@ 1
марка 1
политическите 1
сите@@ 1
хар 1
камен@@ 1
активна 1
Лига 1
изразява 1
ol@@ 0.15028329261184398
Мето@@ 1
черен 1
Macédoine 1
дей 1
плато 1
реч@@ 1
съвмест@@ 1
училищ@@ 1
лищ@@ 1
агенция 1
пълен 1
събитията 1
Джор@@ 1
алпи@@ 1
двигатели 1
кел 1
Chrétienne 1
дък 1
почетен 1
Благоевград 1
Носител 1
змът 1
площта 1
изследовате@@ 1
тал 1
1888 1
Вторият 1
Епи@@ 1
корпуса 1
мската 1
мъжете 1
рението 1
глав@@ 1
французите 1
лип@@ 1
гледна 1
хор 1
вието 1
полага 1
служ@@ 1
възлиза 1
доли@@ 1
усп@@ 1
епохата 1
разкло@@ 1
om@@ 0.16201229182781435
Фер@@ 1
Дел@@ 1
дейци 1
съоръжения 1
Европейската 1
минават 1
предложение 1
селскостопан@@ 1
зало@@ 1
Смит 1
ралното 1
сей 1
фестивала 1
лови@@ 1
мис@@ 1
Нар@@ 1
гориво 1
Зиг@@ 1
Слънцето 1
собствен 1
нами@@ 1
тската 1
издаването 1
Мей@@ 1
Хари 1
пиано 1
сура 1
Над 1
публикувана 1
армей@@ 1
ней 0.687935987366856
подар@@ 1
читалище 1
стри 1
Ада@@ 1
Нови 1
занима@@ 1
фрон@@ 1
63 1
ac@@ 0.13454013380669314
спан@@ 1
сино@@ 1
близък 1
капита@@ 1
услу@@ 1
четвърти 1
Ана 1
избирате@@ 1
известната 1
полицията 1
фабрика 1
вай@@ 1
мална 1
Дом 1
Кня@@ 1
ключо@@ 1
екип 1
изпълнители 1
класацията 1
стила 1
Златен 1
въздух 1
плодове 1
учители 1
Климатът 1
Мил@@ 1
доказателства 1
Предполага 1
леко 1
макси@@ 1
посланик 1
рица 1
Балканите 1
бита 1
лец 1
неин 1
пля@@ 1
успешни 1
Джей@@ 1
Сай@@ 1
Григорий 1
лства 1
слънче@@ 1
Ас@@ 1
Голям 1
новият 1
An@@ 0.11481329492727653
каменни 1
собственик 1
форма@@ 1
Ъ@@ 1
идентифици@@ 1
мозъ@@ 1
Апосто@@ 1
вътреш@@ 1
морския 1
обиколка 1
реле@@ 1
бие 1
вече@@ 1
писа@@ 1
представена 1
рота 1
Сергей 1
ам 1
руска 1
ентите 1
изне@@ 1
тила 1
апарат 1
биха 1
коли@@ 1
номина@@ 1
усилия 1
Северо@@ 1
дина 1
кува 1
свободно 1
нападение 1
уве@@ 1
червен 1
Золмс 1
ънс 1
Гъ@@ 1
Дитрих 1
германския 1
произвеждат 1
Беларус 1
Зал@@ 1
Рейн 1
дене 1
защитник 1
непосредствено 1
нско 1
стратеги@@ 1
явление 1
изграждане 1
Чар@@ 1
съеди@@ 1
цу 1
ьорите 1
Над@@ 1
ети 1
фек@@ 1
хен 1
понеже 1
частици 1
Бла@@ 1
Благодарение 1
жните 1
леви 1
достигне 1
мъжки 1
подпома@@ 1
позволяват 1
ари@@ 1
инду@@ 1
часов@@ 1
Ата@@ 1
Квинт 1
ани@@ 1
вий 1
гост 1
Касте@@ 1
дани 1
личности 1
предпочита@@ 1
Мър@@ 1
бас 1
инициатива 1
чужди 1
al@@ 0.07789119124700279
детска 1
дина@@ 1
лищата 1
специална 1
Макси@@ 1
местната 1
бена 1
мел@@ 1
мостта 1
надесе@@ 1
отлич@@ 1
Сградата 1
басейна 1
войската 1
личните 1
низъм 1
претърпява 1
1848 1
поддръ@@ 1
популярен 1
хвърля 1
сценарист 1
филмът 1
югослав@@ 1
Каме@@ 1
действията 1
зията 1
черве@@ 1
Представ@@ 1
Червената 1
едноименната 1
R 0.2415039007585449
блок 1
Обединеното 1
гражданска 1
предприятия 1
сек@@ 1
тера@@ 1
дател 1
прогре@@ 1
строителство 1
южна 1
Хил@@ 1
входа 1
напускат 1
телевизионни 1
Констан@@ 1
Смята 1
автономен 1
одоб@@ 1
XI 1
Пиемонт 1
Юлий 1
Него@@ 1
наи@@ 1
представени 1
гнали 1
1882 1
h 0.14352569293646422
детски 1
id@@ 0.17049240850742173
нации 1
Питър 1
маг@@ 1
превъз@@ 1
тността 1
бяха 1
гради@@ 1
контро@@ 1
напад@@ 1
Мери 1
изображения 1
литературата 1
настъпва 1
считат 1
Върховния 1
Целта 1
Враца 1
отваря 1
кост 1
сключва 1
зел 1
наред 1
Спор@@ 1
кора 1
орбита 1
прости@@ 1
фика@@ 1
характеризира 1
вска 1
структури 1
китара 1
зада@@ 1
служе@@ 1
сни@@ 1
Горно 1
вниманието 1
златни 1
1871 1
водно 1
роб@@ 1
шан 1
американ@@ 1
жаването 1
бове 1
джан@@ 1
финансови 1
брака 1
говорят 1
гръцкия 1
лизъм 1
ряват 1
XIII 1
гър 1
древните 1
начал@@ 1
Вероятно 1
календар 1
ta 0.17374829720438545
АД 1
Гвиана 1
Коли@@ 1
Ско@@ 1
вения 1
еца 1
упо@@ 1
Зеландия 1
Флорида 1
сериозни 1
съкра@@ 1
артилерия 1
знание 1
гиган@@ 1
нителен 1
Аделхайд 1
1887 1
отговор@@ 1
Източен 1
равно@@ 1
ракети 1
структурата 1
географски 1
издават 1
сват 1
Адам 1
дово 1
полице@@ 1
построява 1
ar@@ 0.08175707293801909
Киев 1
Личен 1
фър 1
бело@@ 1
дението 1
кмет@@ 1
филология 1
наблюда@@ 1
театъра 1
икономи@@ 1
мън 1
тене 1
хово 1
шия 1
ьори 1
Ирак 1
зирани 1
оставка 1
поко@@ 1
сформи@@ 1
тския 1
екипажа 1
имперски 1
Неговата 1
математика 1
нагоре 1
нист 1
основите 1
th@@ 0.12477056681894397
Пакистан 1
бна 1
бук@@ 1
опе@@ 1
Демокра@@ 1
благотворите@@ 1
загива 1
историческа 1
меня@@ 1
растителност 1
стина 1
въз 1
рова@@ 1
червено 1
Остро@@ 1
доброволци 1
парламентар@@ 1
ракет@@ 1
тета 1
69 1
Охрид 1
год@@ 1
прибли@@ 1
цена 1
аз 1
интелекту@@ 1
ничество 1
Преди@@ 1
активни 1
получа@@ 1
Вит@@ 1
Публи@@ 1
Понякога 1
секунди 1
Букурещ 1
работен 1
тино 1
хер@@ 1
мисии 1
работници 1
бащата 1
въпроса 1
Сле@@ 1
активност 1
тие 1
джамия 1
маши@@ 1
очер@@ 1
такова 1
низина 1
популярна 1
мотиви 1
нува 1
традиции 1
Три 1
бат@@ 1
бърг 1
изти@@ 1
провъзгла@@ 1
римляните 1
проуч@@ 1
Ан 1
дели@@ 1
изво@@ 1
стор 1
територи@@ 1
сър 1
властите 1
издателство 1
Вален@@ 1
Да 1
Пазарджик 1
ническия 1
северна 1
дължината 1
Дон 1
Управ@@ 1
бул 1
иконоста@@ 1
минута 1
духовник 1
разширява 1
киното 1
пси@@ 1
oc@@ 0.19893537291902735
Гър@@ 1
вам 1
стабилна 1
уси@@ 1
футболна 1
Антонио 1
въздушни 1
икономическа 1
проя@@ 1
мексикан@@ 1
пределите 1
Си 1
гват 1
творче@@ 1
180 1
Вито@@ 1
говора 1
изоли@@ 1
природа 1
цикъл 1
числа 1
es 0.016991897743466145
Съюз@@ 1
наименование 1
трени@@ 1
20@@ 0.7008374348437807
мп@@ 1
опазване 1
практически 1
профи@@ 1
Цър@@ 1
върхо@@ 1
местно 1
съхранява 1
1875 1
Дисни 1
повърх@@ 1
психоанали@@ 1
газо@@ 1
ждата 1
пътуване 1
мал 1
основателите 1
разполо@@ 1
снимки 1
тинг 1
t@@ 0.07159591234887334
Кьолн 1
доброто 1
рови 1
представля@@ 1
рид 1
Емил 1
годишния 1
действ@@ 1
88 1
b 0.1530858320424125
Дер@@ 1
Пловдив@@ 1
Франк 1
успеха 1
намери 1
пур@@ 1
смен@@ 1
спът@@ 1
трето 1
тури 1
Основни 1
Холщайн 1
вне@@ 1
последен 1
празник 1
съседните 1
час 1
вар 1
дската 1
ляни 1
възстановяване 1
температурата 1
чките 1
Икономика 1
жилищ@@ 1
знач@@ 1
изследовател 1
сим@@ 1
сход@@ 1
шен@@ 1
Бир@@ 1
Петков 1
британските 1
говор 1
лските 1
обеща@@ 1
разнообразие 1
• 1
Вирджиния 1
братовчед 1
докла@@ 1
младите 1
формират 1
хоризонта@@ 1
чан 1
архитектур@@ 1
Асе@@ 1
Друг 1
Мест@@ 1
вло@@ 1
гласа 1
Международния 1
гне 1
сява 1
жесто@@ 1
усе@@ 1
Главен 1
Дор@@ 1
Историята 1
Специ@@ 1
турска 1
вал@@ 1
изложби 1
шени 1
1872 1
гент@@ 1
инструмент 1
строежа 1
Невро@@ 1
гръцка 1
рият 1
спира@@ 1
Охри@@ 1
музикант 1
обяснява 1
православ@@ 1
Цвет@@ 1
века 0.6187182582802224
крайбре@@ 1
оцеле@@ 1
планинска 1
самостоятелна 1
софтуер 1
Куба 1
влю@@ 1
норма@@ 1
ЕЦ 1
вул@@ 1
избор 1
леку@@ 1
Родо@@ 1
ляна 1
мати 1
полската 1
Ах@@ 1
Хоенлое 1
музиканти 1
приложения 1
студио 1
агент 1
заболявания 1
слага 1
температури 1
забеля@@ 1
сев 1
НАТО 1
връщат 1
действат 1
фра@@ 1
U@@ 0.12453510059451917
вената 1
качества 1
отго@@ 1
поддръжка 1
озна@@ 1
съответствие 1
експло@@ 1
зрите@@ 1
римския 1
сада 1
сним@@ 1
търговец 1
82 1
c 0.12345818370350034
Максимилиан 1
Теодо@@ 1
ливо 1
независимостта 1
снабдя@@ 1
нататък 1
изнася 1
ителство 1
летите 1
слуш@@ 1
59 0.9771459320170616
Манасти@@ 1
личен 1
название 0.8671297715224949
ремонт 1
съставена 1
тропи@@ 1
циони@@ 1
Кот@@ 1
дисертация 1
нет 1
чувства 1
Музика@@ 1
насам 1
аген@@ 1
корабо@@ 1
побед@@ 1
бет 1
мемо@@ 1
посочва 1
построяването 1
хребет 1
Зна@@ 1
66 0.9430785070971346
Боливия 1
ментът 1
Вир@@ 1
видна 1
помогне 1
френските 1
може@@ 1
експлоатация 1
покрива 1
Ar@@ 0.11794385496160928
k@@ 0.09150287339493704
лах 1
Супер@@ 1
Ця@@ 1
инста@@ 1
люб@@ 1
ляване 1
Лен@@ 1
Леополд 1
белите 1
пече@@ 1
адвокат 1
вле@@ 1
мара 1
низация 1
покрити 1
предварително 1
западно@@ 1
пто@@ 1
шампионата 1
орът 1
Инди@@ 1
Рио 1
местности 1
том@@ 1
долното 1
псевдонима 1
стично 1
мато@@ 1
участници 1
функциони@@ 1
популяри@@ 1
чане 1
Няма 1
мито@@ 1
ждан 1
коман@@ 1
основаването 1
тации 1
Свобо@@ 1
линко@@ 1
лит 1
свободна 1
шоуто 1
Серия 1
стин 1
фирмата 1
административно 1
ваме 1
обработка 1
поражение 1
Истанбул 1
Организацията 1
изгот@@ 1
окол@@ 1
тък 1
дребни 1
нати@@ 1
нята 1
психи@@ 1
разпространени 1
юноше@@ 1
World 0.10042589998700724
губят 1
звук 1
славянски 1
съединения 1
мед 1
M 0.2580578357929987
Награди 1
Папуа 1
автобу@@ 1
аро@@ 1
Мианмар 1
белги@@ 1
организират 1
основават 1
почви 1
Анри 1
остатъ@@ 1
Самият 1
Сен@@ 1
бълга@@ 1
догово@@ 1
летни 1
телевизията 1
дио 1
дока@@ 1
китайски 1
личност 1
етнически 1
ръце 1
Орга@@ 1
общественик 1
чие 1
долу 1
Анаста@@ 1
доброволец 1
международно 1
никата 1
полис 1
каква 1
класифици@@ 1
религиоз@@ 1
Кари@@ 1
Обеди@@ 1
искат 1
къде 1
мах@@ 1
немския 1
познати 1
тяване 1
Хуан 1
жани 1
земетре@@ 1
подножието 1
подобна 1
стотици 1
тексто@@ 1
вици 1
държав@@ 1
функционира 1
цъф@@ 1
Неговите 1
визи@@ 1
една@@ 1
засил@@ 1
мий 1
поддържат 1
представят 1
расте@@ 1
петро@@ 1
дент@@ 1
цин@@ 1
загубата 1
оператив@@ 1
Варшава 1
миси@@ 1
ровете 1
an@@ 0.0647824298664199
включена 1
онлайн 1
You 0.4284940995961091
загиват 1
критика 1
иконо@@ 1
повторно 1
приз@@ 1
специализи@@ 1
Аре@@ 1
вод 1
хин@@ 1
Марица 1
Чарлз 1
ковен 1
певицата 1
сят 1
брига@@ 1
предприе@@ 1
рън 1
Юнайтед 1
вечер 1
животните 1
квар@@ 1
лага@@ 1
разделена 1
шките 1
Прин@@ 1
потъ@@ 1
Би 1
жертви 1
проби@@ 1
Барселона 1
Известен 1
130 1
Карлос 1
Североизточна 1
гледа 1
социална 1
съпрово@@ 1
бом@@ 1
леки 1
Михайлов 1
ващото 1
направление 1
срещата 1
британския 1
официални 1
пехот@@ 1
проучване 1
вит@@ 1
ph@@ 0.21418219061047997
Хей@@ 1
културен 1
намерени 1
черни 1
шение 1
нки 1
2,5 1
преде@@ 1
регули@@ 1
сестри 1
Заема 1
активен 1
достига@@ 1
пони@@ 1
преди@@ 1
списания 1
it@@ 0.11948351367887187
x@@ 0.2311733172253378
дец 1
доро@@ 1
знаци 1
селе@@ 1
албуми 1
Франческо 1
заглавие 1
населе@@ 1
носи@@ 1
пресича 1
Бракът 1
Мило@@ 1
кръст@@ 1
спортни 1
Уот@@ 1
особености 1
Нов 1
вулка@@ 1
ителността 1
цбург 1
вач 1
лността 1
службата 1
имали 1
мит 1
общото 1
отблъ@@ 1
пускането 1
цеп@@ 1
Кало@@ 1
максимална 1
h@@ 0.08763879295865405
навод@@ 1
ниите 1
ничните 1
67 0.9686327290220176
Войната 1
установяват 1
ждания 1
стъплението 1
фю@@ 1
кавале@@ 1
марк@@ 1
ном 0.1839107896393139
останалата 1
разпространява 1
Уай@@ 1
атаки 1
деви@@ 1
z@@ 0.08384942436688639
майката 1
султан 1
изследователи 1
5000 1
мната 1
предход@@ 1
реч 1
свободата 1
Ломбардия 1
Стивън 1
данните 1
лита 1
полити@@ 1
раждане 1
Народ@@ 1
клубове 1
пата 1
посветен 1
постъп@@ 1
редно 1
светов@@ 1
ica 0.24492048426776306
Публий 1
написва 1
номиниран 1
Либе@@ 1
главна 1
зова@@ 1
книгите 1
лации 1
Пис@@ 1
говоре@@ 1
заселват 1
коли 1
момиче 1
талан@@ 1
тичните 1
удоб@@ 1
провод@@ 1
племе 1
теленове@@ 1
върховенството 1
излъчен 1
масово 1
ау@@ 1
r@@ 0.07713538948855667
Хр. 1
планове 1
присти@@ 1
студент@@ 1
Даниел 1
зор 1
интегра@@ 1
палуба 1
съобще@@ 1
m@@ 0.09318777662705735
лока@@ 1
реда 1
вдо@@ 1
гни@@ 1
австрали@@ 1
обх@@ 1
избрана 1
търже@@ 1
тях@@ 1
централен 1
Монтана 1
вила 1
връщането 1
външната 1
забеле@@ 1
медицин@@ 1
обекта 1
E 0.24853279691690092
Кита@@ 1
Тю@@ 1
гнал 1
европейската 1
лежи 1
несени 1
поред@@ 1
строй 1
тант 1
Лазар 1
Цан@@ 1
литературен 1
поди@@ 1
резиденция 1
сърде@@ 1
шпи@@ 1
Рим@@ 1
кня@@ 1
Уилямс 1
дит 1
мове 1
сей@@ 1
социалистиче@@ 1
съветските 1
формация 1
шават 1
Обла@@ 1
контакт 1
къси 1
преодо@@ 1
надолу 1
прили@@ 1
експери@@ 1
Кова@@ 1
християнството 1
читате@@ 1
брюкен 1
вежда 1
пристани@@ 1
Вод@@ 1
женитба 1
каф@@ 1
околните 1
секре@@ 1
Използва 1
Македонската 1
виден 1
престола 1
скоро@@ 1
di 0.2505866785352513
Нан@@ 1
Представлява 1
ленбург 1
мяна 1
независи@@ 1
низма 1
посет@@ 1
преброяванията 1
сара@@ 1
светлината 1
старото 1
1869 1
WWE 1
Средновековието 1
войните 1
жил 1
нарича@@ 1
Народното 1
ликата 1
марки@@ 1
съпротив@@ 1
Союз 1
гово 1
доведе 1
турен 1
Лий 1
богат 1
ждение 1
игрален 1
разделен 1
‰ 1
1867 1
Александ@@ 1
научава 1
чувств@@ 1
швейцар@@ 1
1864 1
alis 0.9661351030874944
p 0.15490327729966386
защитата 1
изобре@@ 1
способността 1
сул@@ 1
центри@@ 1
декла@@ 1
пев@@ 1
поток 1
Основан 1
Роб@@ 1
административ@@ 1
способност 1
писа 1
физически 1
Йерусалим 1
звайки 1
мирен 1
сон@@ 1
Тихия 1
Фера@@ 1
кв. 1
61 0.9511279219010164
влечу@@ 1
обединение 1
проник@@ 1
Дой@@ 1
Нем@@ 1
зим@@ 1
моду@@ 1
ровки 1
Джак 1
зени@@ 1
дирек@@ 1
карти@@ 1
вдовица 1
региони 1
чене 1
Атанасов 1
записи 1
младия 1
73 1
лината 1
тъл@@ 1
финалите 1
T 0.23700037514439642
Водо@@ 1
Произлиза 1
бал 1
отразява 1
сово 1
осигури 1
осъще@@ 1
P 0.28713506623855384
Том 1
външен 1
количества 1
нарко@@ 1
споделя 1
Каро@@ 1
пел 1
превръщат 1
Австро 1
вино 1
дете@@ 1
крайцерите 1
приемането 1
чената 1
Анд@@ 1
клетъ@@ 1
писта 1
увеличаване 1
Панама 1
Съгласно 1
съдбата 1
съди@@ 1
Изенбург 1
Любо@@ 1
глежда 1
зер 1
изстрел@@ 1
рели@@ 1
съдия 1
ъгъл@@ 1
110 1
900 1
дий 1
дини 1
дома@@ 1
малцин@@ 1
среднове@@ 1
учител@@ 1
вяра 1
ждава 1
лик 1
съставлява 1
неза@@ 1
потенци@@ 1
пул@@ 1
МС 1
Реги@@ 1
Уин@@ 1
трибу@@ 1
италианската 1
мил@@ 1
писи 1
Кер@@ 1
модела 1
стено@@ 1
колони 1
фийлд 1
френска 1
98 1
зима 1
ид 1
порно@@ 1
G 0.26193422411161943
Добрич 1
категори@@ 1
мрежи 1
Деца 1
Друга 1
Скот 1
Успе@@ 1
зиран 1
копи@@ 1
международна 1
псевдоним 1
Пише 1
описание 1
Ману@@ 1
благоприя@@ 1
докторска 1
рек 1
къв 1
мандат 1
мащаб 1
морета 1
фактори 1
фар@@ 1
язовир 1
иза 1
карва 1
присъединяват 1
сяват 1
Италиан@@ 1
мова 1
стихове 1
бити@@ 1
Бавар@@ 1
Мюн@@ 1
Слън@@ 1
препоръ@@ 1
скала 1
хълми@@ 1
Афганистан 1
Кристоф 1
Льо@@ 1
ползва@@ 1
представителите 1
Йотинген 1
независима 1
реб@@ 1
самолетоноса@@ 1
ада 1
бърн 1
племето 1
живява 1
удъл@@ 1
Терминът 1
бавно 1
неща 1
претър@@ 1
редки 1
Алън 1
изпълнител 1
моне@@ 1
Мака@@ 1
писателя 1
попадат 1
фелс 1
награ@@ 1
Пирин 1
класиране 1
морско 1
Хасково 1
кса 1
отношението 1
сков 1
Ени@@ 1
Закона 1
Йоа@@ 1
Послед@@ 1
Словакия 1
дух 1
освет@@ 1
уа 1
драмати@@ 1
либера@@ 1
сиг@@ 1
характеристика 1
l@@ 0.07420791796773311
Лихтен@@ 1
Мадагаскар 1
апосто@@ 1
конституция 1
щаст@@ 1
Успение 1
Флоренция 1
закон@@ 1
концентри@@ 1
наречено 1
нец 1
съставен 1
шо 1
очите 1
Мора@@ 1
Хау@@ 1
настъпление 1
съпру@@ 1
Васи@@ 1
Долно 1
Конгре@@ 1
Кърджали 1
Тайван 1
компи@@ 1
сау 1
сърби 1
Еберхард 1
Луната 1
зал@@ 1
краи@@ 1
месеци 1
батальон 1
Ст@@ 1
скан@@ 1
Тон@@ 1
качество 1
отмъ@@ 1
укре@@ 1
Погребан 1
азиат@@ 1
дова 1
осем@@ 1
циф@@ 1
Резултат@@ 1
музе@@ 1
профе@@ 1
хло@@ 1
бяло 1
месо 1
богата 1
бърт 1
енбург 1
84 1
дърве@@ 1
картина 1
ковци 1
критие 1
запи@@ 1
Физи@@ 1
ат 1
сма@@ 1
сърцето 1
тютю@@ 1
написан 1
стически 1
тос 1
Азербайджан 1
Мозамбик 1
Сталин 1
говор@@ 1
защо 1
наде@@ 1
ников 0.5471678412370625
печат 1
приказ@@ 1
1200 1
бойна 1
гръцкото 1
Манчестър 1
Ранни 1
ню@@ 1
рала 1
тясно 1
Car@@ 0.16792078532018298
Адрианопол 1
Ери@@ 1
лагера 1
превоз@@ 1
факти 1
еки@@ 1
кване 1
населя@@ 1
сбо@@ 1
бяла 1
врати 1
късната 1
лом 0.5784804302588059
рато@@ 1
царе@@ 1
op@@ 0.15197868293499006
Петро@@ 1
кай@@ 1
ляз@@ 1
противоре@@ 1
хоро@@ 1
щур@@ 1
160 1
j@@ 0.10104052007977617
Василев 1
бомбарди@@ 1
гражданин 1
движения 1
енето 1
рят 1
шков 1
изпада 1
морското 1
учениците 1
богат@@ 1
вою@@ 1
кас 1
мино@@ 1
носо@@ 1
бездетен 1
мол@@ 1
Магдалена 1
Ю 1
госту@@ 1
периоди 1
предприема 1
линг@@ 1
майстори 1
миграция 1
су 1
усъвършен@@ 1
Дебютира 1
Маври@@ 1
Милан 1
мани 1
матери@@ 1
национали@@ 1
хит 1
вяне 1
кратно 1
кс@@ 1
нон 1
служат 1
Де 1
бана@@ 1
диви 1
ждения 1
защита@@ 1
преоблада@@ 1
съоръ@@ 1
топ 1
финансо@@ 1
os@@ 0.13835552229569464
бойните 1
желанието 1
уеб 1
79 1
Апри@@ 1
бру@@ 1
католическата 1
бран@@ 1
експедицията 1
интерес@@ 1
колежа 1
Берлин@@ 1
Франсоа 1
море@@ 1
посветена 1
сам@@ 1
фили@@ 1
вер 1
данов 1
планетата 1
промо@@ 1
шения 1
шин@@ 1
обявено 1
отпечат@@ 1
състеза@@ 1
ента@@ 1
осман@@ 1
нова@@ 1
област@@ 1
ико@@ 1
осъзна@@ 1
Републикан@@ 1
ента 1
клу@@ 1
любов@@ 1
свръх@@ 1
турнири 1
внук 1
глави 1
личе@@ 1
охла@@ 1
ралния 1
статия 1
военното 1
какв@@ 1
резултатите 1
стой@@ 1
схема 1
фан@@ 1
ЮНЕСКО 1
авио@@ 1
леги@@ 1
лили 1
римска 1
Жак 1
гръцко 1
налите 1
полиция 1
бремен@@ 1
ълъ@@ 1
ор 1
отсе@@ 1
Бли@@ 1
Кен@@ 1
Любомир 1
алу@@ 1
бра 1
възела 1
командва 1
en@@ 0.04916132759501574
избяга 1
вътрешни 1
дже 1
публикации 1
1874 1
Дал@@ 1
Едва 1
артилерий@@ 1
различно 1
школата 1
Пин@@ 1
Тъ@@ 1
дървени 1
импер@@ 1
милиарда 1
остане 1
отделен 1
рените 1
ресторан@@ 1
славата 1
стрелба 1
кили@@ 1
локо@@ 1
осигур@@ 1
плаване 1
селски 1
изкуствата 1
мък 1
орбит@@ 1
публично 1
установка 1
иму@@ 1
спорта 1
степен@@ 1
трилър 1
Al@@ 0.10697429310249276
Бил@@ 1
зиране 1
срок 1
ѫ@@ 1
1868 1
Кристина 1
шната 1
кал 1
Жив@@ 1
губернатор 1
конфликти 1
крайбрежието 1
мони@@ 1
обкръ@@ 1
популярните 1
запис 1
мални 1
мият 1
търсят 1
Максим 1
аеро@@ 1
здраве 1
покров@@ 1
Нау@@ 1
Ул@@ 1
дъното 1
изостав@@ 1
никой 1
am@@ 0.10452955833222183
Игра@@ 1
Мари 1
Северозападна 1
изпратени 1
прилага 1
фът 1
миче@@ 1
Именно 1
някога 1
сини 1
върнат 1
тенис 1
Англи@@ 1
Бот@@ 1
Тем@@ 1
варови@@ 1
вард 1
папата 1
синовете 1
74 0.9288862964435207
бров@@ 1
вари 1
глед 1
огъня 1
посла@@ 1
трай@@ 1
78 0.9673212339741095
водач 1
евреите 1
изло@@ 1
психология 1
1866 0.9048071789740103
вой 0.3733231265690227
сре@@ 1
фос@@ 1
v@@ 0.10602544370640941
Общата 1
арте@@ 1
гръбна@@ 1
брего@@ 1
еви 1
корабна 1
наблюдават 1
Двете 1
Еди@@ 1
мъжкото 1
разве@@ 1
сръбската 1
указ 1
2,@@ 0.629459332798372
86 1
видно 1
тява 1
Народен 1
мисията 1
сие 1
юриди@@ 1
затворен 1
маха@@ 1
чис@@ 1
96 0.9429570767563096
Им@@ 1
имо@@ 1
посрещ@@ 1
Запа@@ 1
конкурса 1
сенатор 1
Нигерия 1
Роу@@ 1
експеримента@@ 1
приблизителна 1
Варнен@@ 1
едната 1
използвайки 1
колекция 1
лекции 1
ситуация 1
употребата 1
Алберт 1
посочено 1
югоизточната 1
Макс 1
Френската 1
Ър@@ 1
аз@@ 1
архив 1
принуждава 1
слад@@ 1
участия 1
Папа@@ 1
лън 1
моли 1
редовно 1
ру 1
колко@@ 1
отборите 1
яд@@ 1
щайки 1
Гале@@ 1
92 0.9661100896866559
лост 1
патри@@ 1
интере@@ 1
музикално 1
орке@@ 1
1861 1
Известни 1
вку@@ 1
еванге@@ 1
състоянието 1
универса@@ 1
художника 1
Реал 1
екзархисти 1
лежа@@ 1
нацията 1
разпръ@@ 1
Ерик 1
er 0.01418406485644859
Доротея 1
симфо@@ 1
спечелва 1
членки 1
Монте@@ 1
задвиж@@ 1
сферата 1
хожда@@ 1
гате@@ 1
опти@@ 1
разработва 1
същите 1
Records 0.32735898633951416
Ново 1
АТ@@ 1
Рика 1
литературни 1
полети 1
списанието 1
Андер@@ 1
евро@@ 1
определено 1
процеду@@ 1
сайт 1
Илиев 1
зая@@ 1
Завръ@@ 1
автоно@@ 1
велик 1
разузнавате@@ 1
серията 1
чуждестранни 1
вка@@ 1
зрители 1
филмите 1
ърд 1
възстановява 1
диагно@@ 1
кторите 1
разположение 1
Вест@@ 1
преме@@ 1
размно@@ 1
стото 1
Вто@@ 1
Сви@@ 1
вател 1
гале@@ 1
земеделието 1
иск@@ 1
отличие 1
съветската 1
дипломат 1
летът 1
македонския 1
мил 1
рус 1
ряването 1
види 1
класически 1
опреде@@ 1
продук@@ 1
факт 1
филмов 1
Перник 1
ази@@ 1
подзем@@ 1
Люксембург 1
очаква 1
партизан@@ 1
ври 1
непрекъснато 1
председателя 1
сму@@ 1
кол 1
националните 1
общин@@ 1
quot 1
Ези@@ 1
Сингапур 1
демонстри@@ 1
департамент 1
емигран@@ 1
ранени 1
фоку@@ 1
Защ@@ 1
Комисията 1
личния 1
синове 1
Дим@@ 1
Цар@@ 1
пенсиони@@ 1
плодо@@ 1
ІІ 1
Аз 1
Тол@@ 1
другия 1
емост 1
зали@@ 1
рас 1
рес@@ 1
тани 1
турските 1
учре@@ 1
близките 1
изигра@@ 1
основния 1
подготовката 1
сяване 1
днешния 1
историческата 1
лицен@@ 1
мур 1
немските 1
фия 1
Имат 1
НС 1
възстановяването 1
двадесет 1
лиш@@ 1
is@@ 0.1034171824371878
инфек@@ 1
кор 1
ническите 1
отхвърля 1
верен 1
присъстват 1
пускат 1
гани 1
жар@@ 1
щаба 1
Ел 1
социално 1
Кинг 1
избухва 1
огла@@ 1
стара 1
Жен@@ 1
Ред@@ 1
говорен 1
монах 1
притежават 1
фите 1
Вън@@ 1
диску@@ 1
дуин 1
замъ@@ 1
минист@@ 1
спон@@ 1
чети 1
завършват 1
Джо 1
въглища 1
джаз 1
мисли 1
разнообразни 1
ранната 1
350 1
бол 1
джър 1
жо 1
спря@@ 1
повя@@ 1
жертва 1
черно 1
княжество 1
крака 1
майки 1
дрехи 1
запазена 1
лом@@ 1
мене@@ 1
погребе@@ 1
различават 1
русна@@ 1
лско 1
написани 1
ническата 1
тради@@ 1
фин 1
Държавния 1
Едно 1
дълбока 1
83 0.9960518122237714
87 0.9973363288817727
Сед@@ 1
лието 1
президентът 1
сли 1
тията 1
Памет@@ 1
вили 1
истории 0.7913744398160597
кота 1
писане 1
преводач 1
снима 1
Одрин 1
апси@@ 1
досто@@ 1
изслед@@ 1
обли@@ 1
прието 1
Уязвим 1
моде@@ 1
нил 1
секс 1
бозайници 1
Ву@@ 1
Естония 1
ничи 1
състезател 1
Романът 1
блоки@@ 1
дост 1
преброяване 1
търговска 1
Лет@@ 1
екологи@@ 1
реформи 1
Роман@@ 1
печ@@ 1
Продъл@@ 1
баба 1
лека 1
натиск 1
проблемите 1
став 1
съзнание 1
Браун 1
Камерун 1
водена 1
земеделски 1
Анге@@ 1
бени 1
влия@@ 1
евенту@@ 1
плен 1
пора@@ 1
хау@@ 1
камера 1
пола 1
as 0.007086895789379733
Проду@@ 1
дипломати@@ 1
епо@@ 1
мб@@ 1
обявяват 1
средно@@ 1
цев 0.5356871386558096
Фин@@ 1
Хам@@ 1
атели 1
гал 1
матика 1
говете 1
заслуги 1
крепост@@ 1
маги@@ 1
нското 1
признание 1
K 0.26842875378456543
Храмът 1
болести 1
меня 1
миро@@ 1
служби 1
Кана@@ 1
Литва 1
двигателя 1
заболяване 1
околностите 1
отправя 1
диско@@ 1
домакин 1
140 1
Иконо@@ 1
кана@@ 1
холанд@@ 1
германците 1
жество 1
нада 1
разпада 1
твърдят 1
1863 1
бое@@ 1
въоръжена 1
двор@@ 1
гражданите 1
живи 1
замест@@ 1
сното 1
хожда 1
Панай@@ 1
виждат 1
образ 1
предпа@@ 1
произхожда 1
Средиземно 1
ФИ@@ 1
нататъ@@ 1
триум@@ 1
флу@@ 1
базилика 1
основното 1
пиеси 1
терен 1
цин 1
деноно@@ 1
медии 1
насти@@ 1
предим@@ 1
Радио 1
менти@@ 1
бакалавърска 1
мала@@ 1
водеща 1
едноимен@@ 1
хъл@@ 1
атаку@@ 1
възвишение 1
господ@@ 1
напа@@ 1
отри@@ 1
подготвя 1
Западен 1
излъч@@ 1
тет 1
тъм 1
хранене 1
замяна 1
Густав 1
Македонски 1
конгре@@ 1
родината 1
Мав@@ 1
добавя 1
магистрала 1
рам 1
НО@@ 1
гур@@ 1
двойка 1
рекорд 1
стади@@ 1
участниците 1
Давид 1
Стамбо@@ 1
Шуленбург 1
континента 1
окупа@@ 1
ордена 1
помещения 1
туристически 1
Бий@@ 1
Костур@@ 1
административни 1
астронав@@ 1
вост 1
нападател 1
югозападната 1
Оре@@ 1
графовете 1
основа@@ 1
правило 1
принудени 1
Годи@@ 1
Държавната 1
атакува 1
емигрира 1
кръв 1
разбира@@ 1
специал@@ 1
стая 1
Алжир 1
Веро@@ 1
бай@@ 1
листни 1
посеща@@ 1
предостав@@ 1
1850 0.9927245511166164
Москов@@ 1
нел 1
обединява 1
пистата 1
свързват 1
сква 1
тън@@ 1
държавната 1
натруп@@ 1
разпозна@@ 1
сос 1
станцията 1
яните 1
Владислав 1
Ог@@ 1
гам 1
пустин@@ 1
съвременния 1
вътрешната 1
йци 1
район@@ 1
самостоятелен 1
годишнината 1
грузин@@ 1
деля 1
номини@@ 1
открития 1
Антио@@ 1
Чехословакия 1
дъщерята 1
механиз@@ 1
насе@@ 1
широко@@ 1
лято 1
пад 1
графството 1
доцент 1
насекоми 1
нах 0.9482161231353423
плен@@ 1
прин@@ 1
1865 0.9643859723222977
комбинация 1
Лар@@ 1
абсолю@@ 1
албумът 1
движи 1
моста 1
насил@@ 1
нителни 1
огромен 1
пребива@@ 1
стойности 1
Хан 1
съгласява 1
необходими 1
огром@@ 1
слото 1
бити 1
заплаха 1
команди@@ 1
отказват 1
продадени 1
Цар 1
английската 1
кучета 1
нително 1
опас@@ 1
подход 1
принци@@ 1
тенбург 1
щен@@ 1
Етиопия 1
напом@@ 1
онен 1
сингъла 1
следват 1
фигу@@ 1
Влиза 1
дил 1
препят@@ 1
променят 1
сложни 1
тирана 1
цити@@ 1
Диони@@ 1
Служи 1
дипломирането 1
Почти 1
триъгъл@@ 1
естествено 1
линейни 1
нужда@@ 1
рецеп@@ 1
свое 1
сдру@@ 1
убийство 1
1830 1
Ад@@ 1
Пос@@ 1
вечер@@ 1
заселе@@ 1
институ@@ 1
манастир@@ 1
мбо@@ 1
повди@@ 1
постижения 1
самостоятелни 1
Драго@@ 1
владения 1
кир@@ 1
кира 1
коалиция 1
повто@@ 1
Етнически 1
бележи 1
дере 1
изгражда 1
постоянен 1
търговци 1
мява 1
отнасят 1
традиционно 1
Атлантическия 1
Два@@ 1
кел@@ 1
Шарлота 1
дови 1
дят 1
евич 1
for 0.007431512997835287
Авра@@ 1
Амалия 1
Беле@@ 1
Стран@@ 1
дес@@ 1
катастро@@ 1
ром 0.30536627458287996
Пери@@ 1
ремон@@ 1
седа@@ 1
Такива 1
вълни 1
диск 1
истински 1
пети 1
присъствие 1
фолк 1
Раковски 1
Так@@ 1
впечат@@ 1
немската 1
разкопки 1
Княжество 1
Старо@@ 1
граждански 1
кит@@ 1
нините 1
обсадата 1
ранна 1
строеж 1
херцогиня 1
Ангола 1
Ат@@ 1
Отборът 1
избират 1
пазар@@ 1
СД@@ 1
Чикаго 1
главни 1
пато@@ 1
пки 1
1800 1
Сестра 1
еврейски 1
обществено 1
специалисти 1
споразуме@@ 1
масата 1
отец 1
пос@@ 1
рацията 1
шампи@@ 1
Ямбол 1
бина 1
десет@@ 1
североизточната 1
хол@@ 1
джо 1
нената 1
Апо@@ 1
алният 1
възможни 1
османските 1
потвърждава 1
произведени 1
Сак@@ 1
вещество 1
причината 1
Негов 1
алтерна@@ 1
вся@@ 1
гията 1
молба 1
туризъм 1
Арабия 1
древни 1
организа@@ 1
северозападната 1
тух@@ 1
умения 1
Твор@@ 1
полузащитник 1
зако@@ 1
измъ@@ 1
магистра@@ 1
ническо 1
пов@@ 1
увре@@ 1
фентъзи 1
Лука 1
Феде@@ 1
букви 1
завърши 1
международната 1
писан 1
химиче@@ 1
днешно 1
заку@@ 1
климати@@ 1
конту@@ 1
операцията 1
Кири@@ 1
нейният 1
отли@@ 1
ств@@ 1
забран@@ 1
значителен 1
Вътреш@@ 1
автомати@@ 1
ефекти 1
компютри 1
тоест 1
ВИ@@ 1
Свещената 1
заменен 1
териториите 1
тини 1
дем@@ 1
дис@@ 1
замър@@ 1
известният 1
маз@@ 1
моря@@ 1
U 0.1840443336117369
Зим@@ 1
Купа 1
курор@@ 1
тане 1
философ 1
89 0.9743377218253858
Love 0.4377055731857318
77 0.8764113832054656
93 0.9289317157902948
І 1
ида 1
идеите 1
комеди@@ 1
логични 1
наблюдение 1
присъствието 1
ti@@ 0.11247494594823237
Стари 1
ливо@@ 1
организми 1
тео@@ 1
Барбара 1
Симон 1
Хосе 1
канали 1
копа@@ 1
сион 1
съществуване 1
ing 0.023503639856351618
Делчев 1
адапти@@ 1
визу@@ 1
воя 1
трудо@@ 1
употре@@ 1
Шри 1
евски 1
корона 1
пивовар@@ 1
радика@@ 1
смесено 1
Характер@@ 1
богати 1
станции 1
Голя@@ 1
Държавна 1
Камбоджа 1
вро@@ 1
завършен 1
81 0.9137819424784563
Министерство 1
екс@@ 1
лето 1
моги@@ 1
мии 1
рибо@@ 1
ur@@ 0.1133466099663159
Желе@@ 1
мба@@ 1
национал@@ 1
позната 1
рер 1
удар@@ 1
Франциско 1
деното 1
напада 1
отделно 1
сил@@ 1
сили@@ 1
Парла@@ 1
Родопи 1
лента 1
разузнаване 1
туристи@@ 1
Готфрид 1
бота@@ 1
ваната 1
водени 1
електронни 1
Гос@@ 1
Дол@@ 1
листата 1
определяне 1
Зем@@ 1
драта 1
нология 1
посвещава 1
Санд@@ 1
Смо@@ 1
гос 1
дика 1
изпре@@ 1
бившата 1
военния 1
самите 1
сения 1
Ербах 1
Кло@@ 1
участъци 1
Вре@@ 1
Мини@@ 1
арх@@ 1
държане 1
пати@@ 1
въдство 1
извори 1
корени 1
лем 0.9021187616753741
представи 1
прослед@@ 1
хълма 1
чеството 1
векове 1
земни 1
мните 1
вилаетите 1
сем@@ 1
достъ@@ 1
категории 1
курфюрст 1
манов 1
отра@@ 1
състоят 1
РБ 1
войниците 1
годишни 1
ментар@@ 1
мляко 1
охра@@ 1
последно 1
тримата 1
трудове 1
r 0.1664654152167894
Лам@@ 1
Творчество 1
битки 1
вестници 1
мска 1
Побед@@ 1
детето 1
лиев 1
постоян@@ 1
пристигането 1
същевременно 1
технология 1
отделят 1
ръкопи@@ 1
тит@@ 1
черна 1
Древен 1
Национална 1
Оттогава 1
използвано 1
масло 1
наследници 1
огромни 1
Общината 1
зависи@@ 1
кьой 1
Джоунс 1
Мета@@ 1
иран@@ 1
кожата 1
особе@@ 1
разказ 1
хипоте@@ 1
зор@@ 1
кина 1
средновековна 1
типове 1
Илинденско 1
дю@@ 1
изложба 1
свидетелства 1
отразяваща 1
христи@@ 1
боле@@ 1
запозна@@ 1
хим@@ 1
драматичен 1
емите 1
зали 1
харес@@ 1
цигу@@ 1
Кума@@ 1
яй@@ 1
Брюксел 1
Марс 1
Опера@@ 1
Подобно 1
акту@@ 1
възстанов@@ 1
домо@@ 1
ственият 1
дружеството 1
католически 1
лит@@ 1
направ@@ 1
убие 1
зирана 1
кенщайн 1
кратък 1
нак 1
Ис@@ 1
държавните 1
науч@@ 1
склон 1
общо@@ 1
партиза@@ 1
публика 1
темпера@@ 1
явления 1
английска 1
домаш@@ 1
херцогство 1
Алфред 1
върш@@ 1
допри@@ 1
нии 0.3193275716062915
политическо 1
бът 1
геоло@@ 1
наброява 1
специали@@ 1
Гоце 1
византийски 1
висши 1
ителка 1
съдържанието 1
Архи@@ 1
Мом@@ 1
зас 1
кратен 1
нината 1
предмет 1
автомобил 1
деми@@ 1
никакви 1
равнище 1
къла 1
ниската 1
снат 1
черти 1
Фол@@ 1
административна 1
допринася 1
естествени 1
катедрала 1
кау@@ 1
конструкцията 1
майсторство 1
направена 1
селското 1
сри@@ 1
DVD 0.6519248562264196
Забеле@@ 1
Монастир 1
здрав@@ 1
товар@@ 1
Марков 1
налата 1
продаж@@ 1
танци 1
целе@@ 1
лм 1
разрешение 1
Соци@@ 1
градини 1
интервю 1
обществена 1
пин 1
фе 1
характери@@ 1
целите 1
2022 0.3336003721654139
71 0.8364712486877796
Крис 1
словен@@ 1
фурт 1
ала 1
зря@@ 1
легенда 1
нуждите 1
фона 1
шните 1
Осман@@ 1
азбука 1
войводство 1
гс 1
лизат 1
рази@@ 1
социалните 1
БЗНС 1
Сава 1
Смър@@ 1
Фрай@@ 1
разнообраз@@ 1
рю 1
Близкия 1
Изток 1
Музиката 1
набро@@ 1
Бернхард 1
Министер@@ 1
отда@@ 1
Център 1
ара@@ 1
лаго@@ 1
офанзи@@ 1
произведенията 1
Испан@@ 1
колония 1
османците 1
хата 1
ana 0.12415878745975478
Одрин@@ 1
избра@@ 1
названието 1
операта 1
ориен@@ 1
потоци 1
резерват 1
спор 1
1856 1
Търговище 1
гласи 1
изхвър@@ 1
повишен 1
птемврий@@ 1
строе@@ 1
… 0.291450884621794
Волфганг 1
катастрофа 1
рич 1
червени 1
първенства 1
студент 1
91 0.931883397031926
Дире@@ 1
водна 1
подпис@@ 1
сте 1
третото 1
л. 1
Премиерата 1
контролира 1
лай 1
порт 1
Латин@@ 1
Хол@@ 1
Швар@@ 1
дивизи@@ 1
парт@@ 1
цента 1
Антаркти@@ 1
диригент 1
изпъ@@ 1
континентален 1
океан@@ 1
очаква@@ 1
половин 1
тайно 1
тиче@@ 1
дн 1
известност 1
общия 1
отстъпва 1
писма 1
плате@@ 1
регистър 1
железопътна 1
ителност 1
наградите 1
сайта 1
Дет@@ 1
зеленчу@@ 1
1862 0.9123636483145732
Екатерина 1
Холи@@ 1
височината 1
мраз@@ 1
предвижда 1
произхода 1
румънски 1
сътрудничи 1
товата 1
Влади@@ 1
взет 1
древността 1
незия 1
ниан 1
режись@@ 1
рицар 1
родители 1
Битка 1
болест 1
бора 1
Мери@@ 1
личността 1
скон@@ 1
фикацията 1
постанов@@ 1
практику@@ 1
ас@@ 1
вход 1
набор 1
понятието 1
прекратява 1
прия@@ 1
прова@@ 1
развити 1
94 0.9320073924922135
Дунав@@ 1
критично 1
общности 1
откриване 1
съветска 1
Салоника 1
зай@@ 1
1859 1
Исус 1
лизацията 1
проход 1
руското 1
Ради@@ 1
възрастни 1
ещ 1
ческият 1
ѣ@@ 1
завършването 1
запази 1
морфо@@ 1
сх@@ 1
Гватемала 1
Елеонора 1
Комнин 1
владичество 1
коне 1
памет@@ 1
яйца 1
Централ@@ 1
зова 1
историческите 1
йните 1
подножие 1
щица 1
ПФК 1
планинските 1
раства 1
термо@@ 1
Големия 1
Хра@@ 1
Щолберг 1
имоти 1
литературна 1
хара 1
lo@@ 0.13046733624791176
интели@@ 1
душно 1
лини 1
прозо@@ 1
Аполо@@ 1
Шампионската 1
менидж@@ 1
предназначени 1
Герхард 1
Реле@@ 1
Трай@@ 1
ваше 1
мла@@ 1
тман 1
99 0.7827158470197141
ul@@ 0.11131877751828004
бързо@@ 1
жиз@@ 1
картината 1
преживя@@ 1
ella 0.22008615426523864
Дебър@@ 1
Преображенското 1
Форд 1
вършва 1
захран@@ 1
зеле@@ 1
лани 1
як 1
Шва@@ 1
формат 1
Либия 1
Прилеп 1
вестника 1
огромна 1
потребителите 1
Ройс 1
застава 1
изображение 1
интересу@@ 1
йната 1
лията 1
Селището 1
Състеза@@ 1
бета 1
железопъ@@ 1
земеделие 1
лъж@@ 1
морф@@ 1
овла@@ 1
отворен 1
предшестве@@ 1
цветни 1
Хондурас 1
# 0.32216650760420085
ващият 1
веро@@ 1
лингви@@ 1
падане 1
съюзници 1
жително 1
информацията 1
тур 1
формации 1
Вазов 1
Византи@@ 1
зараз@@ 1
станал 1
кви 1
маршал 1
неделя 1
организирани 1
тания 1
дири@@ 1
превземането 1
сит@@ 1
явайки 1
Липе 1
базирана 1
зоната 1
коди@@ 1
разпространението 1
рида 1
Гон@@ 1
владение 1
доне@@ 1
душ@@ 1
наем@@ 1
значението 1
оси@@ 1
османската 1
смес@@ 1
Американската 1
Фьо@@ 1
възрожденска 1
външни 1
гас 1
лето@@ 1
натова@@ 1
отличия 1
юрист 1
отиват 1
Кристи@@ 1
Парти@@ 1
наименованието 1
расте 1
фро@@ 1
u 0.08622712963396947
Генерал 1
Председател 1
акти@@ 1
главният 1
западното 1
зон 1
рит@@ 1
совете 1
k 0.08370773000097562
Последните 1
Тря@@ 1
вита@@ 1
сер 1
стената 1
тацията 1
Уганда 1
вярва 1
привле@@ 1
сол 1
Участ@@ 1
марки 1
просве@@ 1
фалши@@ 1
os 0.052263107355877345
Неговото 1
влезе 1
горите 1
ландграф 1
незакон@@ 1
отток 1
разбиране 1
ляр@@ 1
as@@ 0.08227177373398974
Стани@@ 1
действителност 1
опер@@ 1
прикри@@ 1
служител 1
стиката 1
церемо@@ 1
шва 1
широки 1
Марти@@ 1
аресту@@ 1
защитен 1
рус@@ 1
същ@@ 1
Парк 1
гьо@@ 1
молит@@ 1
оправ@@ 1
рей 1
Централния 1
амби@@ 1
градите 1
коефици@@ 1
нейни 1
рини 1
учебни 1
генерален 1
образуването 1
разка@@ 1
Битол@@ 1
Рафа@@ 1
изчезна@@ 1
опасност 1
свиде@@ 1
хиля@@ 1
H 0.2805434215822451
готов@@ 1
добро@@ 1
японската 1
Вместо 1
аргу@@ 1
валежи 1
държавите 1
помощ@@ 1
справ@@ 1
техники 1
Ван 1
Уни@@ 1
благородник 1
крайно 1
отре@@ 1
умират 1
Британската 1
Майнц 1
Никарагуа 1
водещи 1
получил 0.48183184626620845
работил@@ 1
116@@ 1
Бяла 1
Особено 1
Тене@@ 1
алкохо@@ 1
гражданство 1
изгнание 1
нави@@ 1
престо@@ 1
удари 1
Тома 1
монар@@ 1
раното 1
графа 1
кръстонос@@ 1
лагери 1
лега@@ 1
незастрашен 1
прево@@ 1
пусната 1
фан 1
бъдещия 1
възгледи 1
гари 1
наказате@@ 1
отпада 1
спортен 1
съхраняват 1
али 1
развита 1
Атанасий 1
пани 1
съчи@@ 1
Военното 1
лато@@ 1
пиесата 1
цер 1
Тони 1
земната 1
паметта 1
промишле@@ 1
рьо@@ 1
турите 1
хит@@ 1
Нобелова 1
одобре@@ 1
почит@@ 1
Антоний 1
Игна@@ 1
постоянна 1
Културни 1
дона 1
етническите 1
кампанията 1
равни 1
случайно 1
събрани 1
номинации 1
останките 1
почет@@ 1
Силистра 1
богато 1
варианти 1
вкус 1
двигате@@ 1
министерство 1
пап@@ 1
бно 1
максима@@ 1
ох@@ 1
слож@@ 1
младият 1
обича 1
измисле@@ 1
купи 1
ръкоположен 1
Клавдий 1
Мохамед 1
метали 1
могила 1
отсла@@ 1
преработ@@ 1
специ@@ 1
Съеди@@ 1
околия 1
проведени 1
световния 1
термина 1
трон 1
фини@@ 1
щина 1
il@@ 0.12219787688078548
Дори 1
Произ@@ 1
католиче@@ 1
намиращ 1
насилие 1
прозор@@ 1
ap@@ 0.10752213127423893
Ил@@ 1
Професиона@@ 1
Ца@@ 1
завършена 1
подпомага 1
чата 1
Мароко 1
изучаване 1
статистическа 1
характер@@ 1
хранителни 1
ea 0.2863837183767739
Лаза@@ 1
Сомалия 1
почита@@ 1
суфектконсул 1
Араб@@ 1
Коро@@ 1
Останалите 1
Рот@@ 1
историци 1
пожар 1
частност 1
графията 1
коремоного 1
терена 1
114@@ 1
Висконти 1
Иван@@ 1
хотел 1
зана@@ 1
масив 1
na 0.11340339524451015
Прави 1
ковата 1
ноафрикан@@ 1
Всичко 1
Холмс 1
бунтов@@ 1
мине 1
нади@@ 1
роби 1
северно@@ 1
спаси 1
щатски 1
05 0.8712004931944102
руско 1
тец 1
Ланд@@ 1
източното 1
тома 1
удо@@ 1
Мехмед 1
Тат@@ 1
еро 1
мяната 1
нес@@ 1
рязко 1
храната 1
Коб@@ 1
банд@@ 1
бият 1
исляма 1
лея 1
фолклор@@ 1
концентра@@ 1
митрополия 1
новци 1
писме@@ 1
пристанището 1
утвърждава 1
фронта 1
цилин@@ 1
ьон 1
Земя 1
Оря@@ 1
Славия 1
доброво@@ 1
експеди@@ 1
ис 1
кръвта 1
лак 1
атмосферата 1
пова 1
сдел@@ 1
фами@@ 1
Сяр 1
дивизии 1
жник 1
мети@@ 1
нужда 1
славя@@ 1
творба 1
водещите 1
изчезва 1
кожи 1
престол 1
провеждане 1
чко 1
Чле@@ 1
але@@ 1
дейки 1
ография 1
ракета 1
рд 1
Тейлър 1
настоява 1
обика@@ 1
тей 1
тивната 1
Сарафов 1
групите 1
кции 1
монт 1
подкре@@ 1
после@@ 1
прекалено 1
теже@@ 1
фабри@@ 1
9,@@ 1
Райн@@ 1
вед@@ 1
голе@@ 1
магистърска 1
хищ@@ 1
Състои 1
дик@@ 1
ro@@ 0.11980002444428399
доку@@ 1
изте@@ 1
испанския 1
метрия 1
мица 1
слов@@ 1
списъ@@ 1
спре 1
Щи@@ 1
актьори 1
буле@@ 1
гел@@ 1
гени 1
динг 1
дли@@ 1
жанр 1
задължително 1
колко 1
пишат 1
постигне 1
разрабо@@ 1
степ@@ 1
Коста@@ 1
Общин@@ 1
героите 1
заети 1
иди 1
символи 1
фли@@ 1
Разград 1
задачата 1
рели 1
Геро@@ 1
Група 1
Краси@@ 1
бий 1
манасти@@ 1
младежки 1
смесени 1
спорове 1
ук 1
флан@@ 1
ВМС 1
Ц 1
Якоб 1
Два 1
бари@@ 1
близко 1
вз@@ 1
излизането 1
нът 1
перу@@ 1
разре@@ 1
астро@@ 1
ванов 1
късните 1
неправи@@ 1
образни 1
рито 1
anus 0.9134429937293675
at@@ 0.08158638104590936
Гръц@@ 1
Домини@@ 1
алдемокра@@ 1
стреми 1
em@@ 0.1029991229343618
западен 1
колата 1
честота 1
Габри@@ 1
добит@@ 1
ежегодно 1
медали 1
мом@@ 1
Компанията 1
Кръстьо 1
Систе@@ 1
конфликта 1
мъче@@ 1
риби 1
селек@@ 1
успо@@ 1
фактор 1
Твър@@ 1
влади@@ 1
гове 1
ТВ 1
единственото 1
женска 1
поляр@@ 1
Костов 1
корпора@@ 1
кус 1
нските 1
пещер@@ 1
социалистическа 1
стома@@ 1
събиране 1
церемония 1
изделия 1
намере@@ 1
шното 1
Проектът 1
гсбург 1
оборуд@@ 1
очи 1
тения 1
et@@ 0.09679628287629016
Видове 1
бунт 1
лед 1
no@@ 0.19549649347261533
Вардарска 1
Виен@@ 1
работил 1
фо 1
Остров 1
изиск@@ 1
колонии 1
мънд 1
турско 1
Боя@@ 1
Есте@@ 1
бараба@@ 1
животински 1
инспектор 1
охлю@@ 1
чков 1
4000 1
Ch@@ 0.07745858046068001
Емилия 1
Негови 1
Общо 1
еквивален@@ 1
емо 1
кли 1
консер@@ 1
оттам 1
преименуван 1
храброст 1
хри@@ 1
og@@ 0.215993429417134
Вран@@ 1
Маргарита 1
соленост 1
цело@@ 1
st@@ 0.07127950035676758
Евро@@ 1
Фредерик 1
починал 1
слебен 1
ящи 1
Гене@@ 1
Живот 1
Зеле@@ 1
отдава 1
полагат 1
теглото 1
бомбардирова@@ 1
тивните 1
виру@@ 1
източен 1
императрица 1
плава 1
тиви@@ 1
105 1
Весе@@ 1
танкова 1
Кин@@ 1
Себасти@@ 1
ави@@ 1
мисъл 1
уи@@ 1
Охайо 1
гната 1
деспо@@ 1
доклад 1
заоби@@ 1
пота@@ 1
алност 1
владетели 1
зелени 1
курсове 1
премине 1
сфер@@ 1
въоръжените 1
десни 1
изма@@ 1
мерно 1
правоъгъл@@ 1
приключ@@ 1
Лайнинген 1
Обя@@ 1
еваку@@ 1
летните 1
совата 1
хам@@ 1
Управление 1
достатъ@@ 1
лого@@ 1
Джей 1
Дмитрий 1
ним@@ 1
берто 1
вто@@ 1
гно@@ 1
лок 1
престъпления 1
секция 1
тени 1
23@@ 0.8089781738864109
Електро@@ 1
инициати@@ 1
лизма 1
разгра@@ 1
сблъсъ@@ 1
стира 1
т.ч. 1
Интер 1
заглавието 1
1858 1
западни 1
заселници 1
обле@@ 1
орга@@ 1
свой@@ 1
собствените 1
среди 0.5461736125719048
събира@@ 1
съм@@ 1
Андже@@ 1
Велико@@ 1
Художе@@ 1
българо 1
дос 1
лата@@ 1
различава 1
устро@@ 1
чифли@@ 1
Ланка 1
дърво@@ 1
посред@@ 1
приети 1
снаряди 1
учебната 1
бивша 1
кафя@@ 1
лиза@@ 1
православен 1
тогавашния 1
Карло 1
Разположена 1
Троица 1
валежите 1
дясната 1
изуча@@ 1
крайбрежи@@ 1
слабо@@ 1
цени 1
бази 1
скро@@ 1
способ@@ 1
стенописи 1
увелич@@ 1
Бала@@ 1
епизоди 1
разполагат 1
шири@@ 1
Стокхолм 1
к.с. 1
скла@@ 1
стъпка 1
сутринта 1
Господ@@ 1
Пана@@ 1
Сибир 1
Югозападна 1
кулата 1
мнозинство 1
мус 1
пилоти 1
Интере@@ 1
Салвадор 1
пирами@@ 1
пролет@@ 1
тениси@@ 1
традиционните 1
97 0.8681118282156881
at 0.008929376509556147
Брайън 1
вгра@@ 1
депре@@ 1
завършване 1
украински 1
Валтер 1
сет@@ 1
дея@@ 1
жив 1
метал 1
чник 1
Бохемия 1
Фре@@ 1
кореспондент 1
продължителност 1
чуп@@ 1
Жо@@ 1
гва 1
дисципли@@ 1
женските 1
някъде 1
Следват 1
дира 1
композиция 1
некро@@ 1
спома@@ 1
1840 0.9998453264168269
кръво@@ 1
наля@@ 1
общинския 1
техни 1
човешкото 1
Заха@@ 1
бавар@@ 1
влаж@@ 1
десетте 1
младежи 1
откро@@ 1
сборник 1
Петер 1
Сек@@ 1
канала 1
полския 1
формирането 1
хил 1
Добро@@ 1
Сло@@ 1
високото 1
въвеждането 1
дио@@ 1
констан@@ 1
новено 1
отделна 1
присъедини 1
сигнал 1
шено 1
Мол@@ 1
Сега 1
Шен@@ 1
боевете 1
вилает 1
пита 1
рист 1
аржен@@ 1
принадлежат 1
Ани@@ 1
Джорджия 1
Нос@@ 1
Палестина 1
Проце@@ 1
албански 1
избрани 1
издъл@@ 1
кен 1
куче 1
механизъм 1
определи 1
превземат 1
убий@@ 1
чит@@ 1
aceae 0.5787950527007294
bTV 1
Бул@@ 1
Маха@@ 1
Първо 1
драматург 1
жеството 1
завива 1
легендата 1
стандарт 1
фено@@ 1
яко@@ 1
1300 1
Емили@@ 1
Фро@@ 1
Хън@@ 1
пространството 1
сражения 1
вис 1
градуса 1
жителен 1
парчета 1
рико 1
тежък 1
успешна 1
кожа 1
мския 1
отличават 1
победител 1
фирми 1
баня 1
бръ@@ 1
възста@@ 1
гнато 1
маси 1
професионални 1
творбите 1
циан 1
Кавказ 1
Федера@@ 1
записани 1
кван@@ 1
консервати@@ 1
турни@@ 1
Основният 1
производител 1
Въоръ@@ 1
Сиера 1
Трета 1
вния 1
заменя 1
зре@@ 1
изпове@@ 1
реца 1
смятан 1
Искър 1
датират 1
достъп@@ 1
милион 1
подкреп@@ 1
серти@@ 1
тари 1
фей 1
Будапеща 1
Динамо 1
Подоб@@ 1
осигуряване 1
стъра 1
фат 1
чест@@ 1
In@@ 0.10497182256645927
di@@ 0.08615282295838739
Валд@@ 1
Гана 1
Западните 1
видят 1
Сала@@ 1
атаката 1
ик 1
непосредствена 1
порта 1
равенство 1
ч. 1
Дона@@ 1
Уор@@ 1
буквално 1
мел 1
неф@@ 1
Шиш@@ 1
втори@@ 1
графско 1
катедра 1
легендар@@ 1
приемане 1
сменя 1
Par@@ 0.14162764701726335
Родж@@ 1
Семейството 1
Уругвай 1
всякакви 1
гърба 1
случа@@ 1
терминът 1
ьос@@ 1
позволя@@ 1
струк@@ 1
Броят 1
Главният 1
Корнелий 1
ждащ 1
уволнен 1
четен 1
Алексей 1
Мати@@ 1
избора 1
изисквания 1
комунистически 1
ценберг 1
Вселе@@ 1
британците 1
остана@@ 1
режима 1
26@@ 0.9281876388808302
възвишения 1
ждайки 1
квартала 1
страници 1
усилията 1
1600 1
Средно@@ 1
изпълнителен 1
израз 1
концерта 1
лигата 1
младши 1
предупре@@ 1
сват@@ 1
гали 1
извор 1
изгле@@ 1
пейза@@ 1
проду@@ 1
редовен 1
съюза 1
човешката 1
450 1
Роман 1
Сце@@ 1
Токио 1
похода 1
сок 1
съединение 1
уха@@ 1
ционното 1
Доми@@ 1
ленията 1
нор 1
отро@@ 1
ранни 1
m3 1
Допъл@@ 1
Помпей 1
алността 1
англичаните 1
гин 1
говорът 1
кора@@ 1
мах 1
новява 1
поте@@ 1
Авре@@ 1
Япон@@ 1
иници@@ 1
комисар 1
урата 1
Много@@ 1
зиви 1
съгласие 1
трапе@@ 1
ува@@ 1
форму@@ 1
чере@@ 1
ys 0.31067792952634765
Ангелов 1
гравита@@ 1
делът 1
кръстен 1
получаване 1
пускане 1
ракетата 1
читалището 1
Шварцбург 1
взето 1
жките 1
компютър 1
параклис 1
полага@@ 1
портре@@ 1
пункт 1
дървен 1
отряда 1
предста@@ 1
Бела@@ 1
Военната 1
духовна 1
противопоставя 1
бюро 1
външ@@ 1
затори 1
контак@@ 1
предиш@@ 1
Град 1
Кръст@@ 1
Нед@@ 1
Сам 1
Сезон 1
бана 1
изгу@@ 1
мъл@@ 1
ничната 1
приспособ@@ 1
Британска 1
Док@@ 1
Спе@@ 1
Струма 1
броня 1
годишният 1
квадра@@ 1
назад 1
пресе@@ 1
скоп 1
Ирина 1
заво@@ 1
W 0.3213125568285015
Ем@@ 1
жаба 1
противник 1
al 0.018340715837340003
ескадра 1
княже@@ 1
копие 1
народите 1
означа@@ 1
Манд@@ 1
метео@@ 1
поне@@ 1
препратки 1
сил 0.9736080302597424
темата 1
1849 1
Гил@@ 1
Древна 1
Латвия 1
Скоп@@ 1
архитектурно 1
вселе@@ 1
горе 1
надесет@@ 1
ограниче@@ 1
организирана 1
посветени 1
приме@@ 1
следния 1
тайна 1
яща 1
мански 1
фера 1
Филипини 1
външна 1
гимнази@@ 1
изход@@ 1
сладководни 1
техниката 1
частен 1
Витгенщайн 1
Редовни 1
избух@@ 1
корабът 1
матри@@ 1
независими 1
оръдията 1
подобряване 1
пс 1
ВВС 1
Вардар 1
градско 1
издръ@@ 1
неоча@@ 1
стови 1
тури@@ 1
ходен 1
Обаче 1
дния 1
картеч@@ 1
парак@@ 1
празници 1
признат 1
съвременен 1
филмова 1
ьора 1
Дружеството 1
гайки 1
Tr@@ 0.1130849695029296
Кава@@ 1
Спорт 1
колеба@@ 1
пожар@@ 1
съединява 1
Юта 1
базирани 1
ембле@@ 1
ир@@ 1
принадлежа@@ 1
цови 1
чешки 1
icus 1
Северно 1
бов 1
десетилетие 1
освобождението 1
ръб@@ 1
Режи@@ 1
актрисата 1
инг 1
полез@@ 1
реално 1
човешките 1
Графство 1
Лом 1
задължения 1
сп 1
Народния 1
гвардей@@ 1
даже 0.8439832142104384
дипломатически 1
смо@@ 1
футболисти 1
24@@ 0.5899316326224708
вяването 1
разгро@@ 1
ti 0.2536497708714299
Александра 1
Виде@@ 1
дести@@ 1
изяви 1
кардинал 1
намеса 1
пуск 1
реаги@@ 1
фантастика 1
военноморски 1
гласовете 1
критик 1
лошо 1
модул 1
мян 1
нападения 1
рион 1
спортна 1
Велес 1
Фюр@@ 1
акции 1
клави@@ 1
съби@@ 1
Сара 1
ост@@ 1
принципи 1
тока 1
унгарски 1
Региона@@ 1
кварта@@ 1
нуж@@ 1
опазването 1
³ 1
Първонача@@ 1
керамика 1
командващ 1
лур@@ 1
предстоя@@ 1
тят 1
Пру@@ 1
Шлезвиг 1
дизай@@ 1
пин@@ 1
предполага@@ 1
серии 1
Главната 1
Известно 1
Стюарт 1
анек@@ 1
взимат 1
гроз@@ 1
емоциона@@ 1
индо@@ 1
онези 1
пале@@ 1
сния 1
сова@@ 1
сфера 1
Пит@@ 1
Рилски 1
интегри@@ 1
озагла@@ 1
правосъ@@ 1
услож@@ 1
Образование 1
ПС 1
електрическа 1
подроб@@ 1
1806 1
изследванията 1
око 1
окупация 1
сама 1
Google 1
завою@@ 1
относ@@ 1
свети 1
съхранение 1
Георги@@ 1
Президент@@ 1
безплат@@ 1
дици 1
израства 1
погребана 1
полка 1
рат@@ 1
строи 1
шар@@ 1
Андреа 1
Гражданската 1
космоса 1
потом@@ 1
чици 1
Me 0.46278168471281944
въздействие 1
диференци@@ 1
птиците 1
финансова 1
Лайпциг 1
Новият 1
Станислав 1
Тит 1
мулти@@ 1
наистина 1
помагат 1
спасява 1
Конституцията 1
бивши 1
международните 1
поета 1
попа@@ 1
производители 1
ферен@@ 1
бъдеще 1
защитени 1
космонав@@ 1
ну 0.8908803635998911
цик@@ 1
Аристо@@ 1
Обер@@ 1
Рак@@ 1
духа 1
икономическо 1
клубът 1
окончате@@ 1
провеждането 1
Саудитска 1
Тунис 1
гаш@@ 1
ефек@@ 1
жле@@ 1
компоненти 1
населено 1
носни 1
отглеждат 1
риан@@ 1
чело 1
шенията 1
Лъв 1
Мано@@ 1
делото 1
ерн 1
кралски 1
подходящи 1
посещение 1
Идеята 1
Матилда 1
Футбо@@ 1
зно 1
инженер@@ 1
министер@@ 1
мур@@ 1
програмиране 1
учените 1
Изабела 1
нава 1
небето 1
нета 1
рисунки 1
римско 1
Край 1
Постепенно 1
изриг@@ 1
предоста@@ 1
чането 1
Георгиос 1
либе@@ 1
сигурността 1
скор@@ 1
създате@@ 1
хълм 1
цената 1
Лиг@@ 1
Наслед@@ 1
Ник@@ 1
избегне 1
личане 1
непо@@ 1
прив@@ 1
страда 1
тев 1
циклопе@@ 1
1854 1
Мике@@ 1
Парагвай 1
парамет@@ 1
стопански 1
теории 1
New 0.038159105266996715
Трите 1
дор@@ 1
киселини 1
кислород 1
платформа 1
съобщения 1
30@@ 0.5657660753274453
Дъщеря 1
кодът 1
обичайно 1
ограничена 1
онер 1
парите 1
писателите 1
Пир@@ 1
Факул@@ 1
девой@@ 1
екипаж 1
кири@@ 1
подкрепят 1
рище 1
ec@@ 0.11395116498920346
възрожден@@ 1
изв@@ 1
икономиче@@ 1
препода@@ 1
противополож@@ 1
редакти@@ 1
случаите 1
летя@@ 1
мър 1
оспор@@ 1
предварите@@ 1
Замбия 1
Мех@@ 1
Фройд 1
момче 1
подполковник 1
Ивай@@ 1
Избран 1
дадени 1
желязо 1
историческо 1
пън 1
слоеве 1
ственик 1
сяването 1
Малта 1
Сардиния 1
Софийската 1
полска 1
собствено 1
трибун 1
Аба@@ 1
Юрий 1
наимену@@ 1
нери 1
рум 1
феновете 1
шисти 1
es@@ 0.060606492579573706
or 0.016484142928192655
Ав@@ 1
Специали@@ 1
австрийски 1
личната 1
мениджър 1
стихосбир@@ 1
сури 1
съответните 1
codice 1
Кръсте@@ 1
забелязва 1
кореспон@@ 1
опере@@ 1
отчасти 1
пощен@@ 1
Интернет 1
запазен 1
изре@@ 1
обикаля 1
разработен 1
релеф 1
склон@@ 1
съвременна 1
тизъм 1
търа 1
Бек@@ 1
Ордена 1
бъдещето 1
гости 1
комуникация 1
критику@@ 1
предавания 1
тист 1
централния 1
вор 1
деб@@ 1
експо@@ 1
изтъ@@ 1
класическа 1
обнов@@ 1
резерва 1
Гун@@ 1
Съществува 1
енергията 1
компа@@ 1
мана 1
образец 1
отправ@@ 1
постове 1
регент@@ 1
специалист 1
укри@@ 1
четник 1
Исландия 1
средиземно@@ 1
събота 1
съз@@ 1
Понастоящем 1
измерване 1
осигуряват 1
пъл 1
ансам@@ 1
ауди@@ 1
зии 1
конструи@@ 1
лявата 1
същество 1
учителка 1
Великата 1
Светия 1
гството 1
постоянни 1
примери 1
трав@@ 1
италианските 1
итен 1
насочени 1
тхайм 1
формат@@ 1
Боб@@ 1
Валдек 1
Изра@@ 1
Пътят 1
Рам@@ 1
Хим@@ 1
глобус 1
джин@@ 1
пази 1
поведението 1
практи@@ 1
рови@@ 1
Култура 1
Смолян 1
Филипините 1
ака@@ 1
жд 1
заклю@@ 1
съю@@ 1
тическия 1
цифри 1
Мишел 1
Северния 1
въпро@@ 1
върхове 1
записан 1
мовете 1
разпадането 1
революцио@@ 1
романът 1
ръката 1
виж 1
дри 1
мрежата 1
основният 1
потребители 1
превежда 1
професионална 1
Ливърпул 1
Уч@@ 1
буква 1
вярата 1
кралят 1
мед@@ 1
първи@@ 1
реван@@ 1
Microsoft 0.9076390461302701
могъ@@ 1
почвата 1
04 0.7864184429730021
Горно@@ 1
Каза@@ 1
Сао 1
били@@ 1
девет@@ 1
надежд@@ 1
ag@@ 0.08283275059277802
en 0.0030173276316157165
Вернер 1
Независимо 1
Средиземно@@ 1
датата 1
карбо@@ 1
количеството 1
комунистическата 1
костенур@@ 1
основи 1
продават 1
улиците 1
юри 1
1853 1
водоро@@ 1
гунда 1
животно@@ 1
изпитания 1
керами@@ 1
наги 1
премиера 1
Климат 1
ид@@ 1
телефонният 1
фов 1
u@@ 0.09249206975954853
Евровизия 1
Юлия 1
изпращат 1
политическия 1
шев@@ 1
102 1
1857 0.954552094522888
Алек@@ 1
Боте@@ 1
Европейски 1
Константи@@ 1
Микро@@ 1
Сръб@@ 1
библиотеката 1
партньор@@ 1
рет 1
тренира 1
des 0.00541533097873969
Без 1
Симе@@ 1
Централната 1
елимини@@ 1
зда@@ 1
летен 1
организиран 1
пей@@ 1
рад 1
риос 1
тара 1
Дале@@ 1
ХІ@@ 1
гробище 1
кабинета 1
партизански 1
преподавате@@ 1
пълни 1
сражението 1
съд@@ 1
тинския 1
хля@@ 1
Мала@@ 1
Рос@@ 1
архиепископия 1
мигран@@ 1
рита 1
убежище 1
117@@ 1
денберг 1
навли@@ 1
ограничен 1
равна 1
стойността 1
страта 1
тропически 1
ур 1
шница 1
БНТ 1
Гол@@ 1
Карта@@ 1
Унгар@@ 1
автономна 1
договори 1
ецът 1
кава 1
основате@@ 1
произнася 1
санти@@ 1
стана 1
старият 1
турнето 1
Джърси 1
Стария 1
европейска 1
йерар@@ 1
поти@@ 1
Коми@@ 1
Мекленбург 1
Хуго 1
зки 1
лоза 1
научната 1
някаква 1
плана 1
хе 1
хилядолетие 1
ценности 1
гората 1
опро@@ 1
Асоциацията 1
Дейвис 1
Ким 1
прости 1
сериали 1
терми@@ 1
Ня@@ 1
комплекса 1
нишки 1
смяна 1
царски 1
четирима 1
лак@@ 1
мандата 1
опусто@@ 1
проф@@ 1
следването 1
Вул@@ 1
Самоа 1
въздуш@@ 1
изпълнена 1
литов@@ 1
организма 1
Бълга@@ 1
дим 1
класическата 1
низацията 1
оцвет@@ 1
бод@@ 1
видовете 1
гото@@ 1
офицер@@ 1
ровски 1
терапия 1
хранят 1
КНР 1
СП@@ 1
апарати 1
ждението 1
замръ@@ 1
коруп@@ 1
младата 1
наблюдения 1
обвинява 1
оре@@ 1
предгра@@ 1
противопостав@@ 1
регент 1
рецът 1
споменат 1
ствията 1
тес 1
музикалната 1
пас@@ 1
собствената 1
фата 1
Дрезден 1
архитектурата 1
бридж 1
възел 1
експози@@ 1
кафяви 1
фрагменти 1
хирур@@ 1
заснет 1
премиер 1
принципа 1
Тун@@ 1
вале@@ 1
детството 1
дон@@ 1
мери 1
поде@@ 1
пче@@ 1
римските 1
съкрови@@ 1
Александров 1
гу 0.7591029104500683
катедрата 1
ким 1
ловци 1
плати@@ 1
предишните 1
протока 1
разработка 1
разрушен 1
Евгений 1
Костур 1
ант 1
др. 1
инструмента@@ 1
мигри@@ 1
преместен 1
ращите 1
страх 1
философията 1
po@@ 0.10992657986004402
Фун@@ 1
Шампи@@ 1
квадратни 1
лизиран 1
с.@@ 1
стоят 1
тските 1
вирту@@ 1
вътрешен 1
гана 1
денов 1
йк 1
оценява 1
реформа 1
траге@@ 1
27@@ 0.8747022294798559
urus 1
Последната 1
Хамбург 1
находища 1
предават 1
ьов 1
кааза 1
каменна 1
предната 1
режисиран 1
хберг 1
германска 1
земно@@ 1
кратки 1
минало 1
ниско@@ 1
вратар 1
подкрепя@@ 1
Ръковод@@ 1
Сидни 1
нара@@ 1
Еги@@ 1
Тен@@ 1
инва@@ 1
стандарти 1
тий@@ 1
Гай@@ 1
Прото@@ 1
Франкфурт 1
капиту@@ 1
кац@@ 1
причините 1
ърт 1
Дебю@@ 1
вличат 1
формацията 1
юж@@ 1
1700 1
Джен@@ 1
лидери 1
лт 1
мис 1
регистрирани 1
симпто@@ 1
усво@@ 1
болестта 1
експерименти 1
начини 1
парламентарните 1
сал 1
× 0.5232077378744111
Свищов 1
Север 1
Фила@@ 1
Ш 1
запове@@ 1
космическа 1
лъчи 1
находки 1
нисък 1
превзема 1
табли@@ 1
токси@@ 1
хаген 1
Кем@@ 1
мелия 1
огле@@ 1
планира 1
правя 1
специализира 1
сюже@@ 1
цер@@ 1
автоматично 1
мре@@ 1
тински 1
издигната 1
нападат 1
подписан 1
последователни 1
постра@@ 1
произведе@@ 1
растеж 1
Хаджи 1
вянето 1
надпре@@ 1
налия 1
оттег@@ 1
селяните 1
тъмно@@ 1
Местоположение 1
Ску@@ 1
Стай@@ 1
здраво@@ 1
изследователски 1
паза@@ 1
устройството 1
Балканския 1
Кит@@ 1
ктор@@ 1
направено 1
ниските 1
носители 1
рестав@@ 1
танка 1
Хоенцолерн 1
апарта@@ 1
енерге@@ 1
извършени 1
корей@@ 1
охрана 1
Джонсън 1
Стефанов 1
жкия 1
изгон@@ 1
портрети 1
стръмни 1
формите 1
Гам@@ 1
Печели 1
подчинение 1
el 0.005445586618025709
inus 1
{ 0.5872773095522588
Любен 1
Тим@@ 1
брегове 1
долини 1
комбини@@ 1
уто 1
цето 1
Вижте 1
генери@@ 1
зам@@ 1
предприятие 1
продажба 1
религията 1
Music 0.19034514290752194
an 0.006477014248889415
Мед@@ 1
естествен 1
затор 1
метални 1
сребърен 1
Малък 1
Рей 1
автора 1
данъци 1
мило@@ 1
млада 1
пост@@ 1
розо@@ 1
стръ@@ 1
Ната@@ 1
живял 1
новосъзда@@ 1
устрой@@ 1
Гръцката 1
Йохана 1
Медичи 1
Хро@@ 1
занаят@@ 1
контакти 1
опитите 1
радо@@ 1
скални 1
Con@@ 0.11020919099504214
Брай@@ 1
момичета 1
функцията 1
z 0.09895032681459652
Земе@@ 1
лине@@ 1
реакции 1
Българския 1
Главните 1
партн@@ 1
Рождество 1
аспекти 1
изработени 1
мически 1
установки 1
фара@@ 1
і@@ 1
Отече@@ 1
библиоте@@ 1
жертвите 1
оценки 1
попадения 1
ренесан@@ 1
спуска@@ 1
125 1
Бен 1
Непал 1
Украин@@ 1
борби 1
мощен 1
мъжките 1
семинария 1
Кот 1
бовете 1
османска 1
племенник 1
четвърт@@ 1
СУ 1
авиация 1
вание 0.8020131467070496
грамата 1
гробница 1
здравето 1
медицинска 1
превърне 1
преминаването 1
равно 1
съюзниците 1
управляват 1
Женева 1
Съпру@@ 1
Хед@@ 1
газове 1
мас 1
обгра@@ 1
09 0.6961040702375684
Сръбско 1
акция 1
блокове 1
игу@@ 1
ликвиди@@ 1
мънт 1
Нача@@ 1
грешка 1
днешните 1
разширение 1
синьо 1
Казанлък 1
Катерина 1
земе@@ 1
реми@@ 1
Кни@@ 1
партньор 1
тежките 1
Ере@@ 1
дала 1
момиче@@ 1
телевизионна 1
том 0.1156886925058616
UTC 1
домашни 1
призовава 1
химик 1
Андре@@ 1
Хари@@ 1
Хри@@ 1
взети 1
длъж@@ 1
дует 1
местата 1
мп 1
хомосексу@@ 1
ЗС 1
Тит@@ 1
живопис@@ 1
фолкло@@ 1
Кораб@@ 1
водие 1
водосбор@@ 1
днешен 1
дско 1
ключ@@ 1
оки@@ 1
порта@@ 1
стъпки 1
тери 1
храмът 1
цка 1
ob@@ 0.13564034975524422
Киев@@ 1
военачалник 1
образно 1
обща@@ 1
потре@@ 1
сат 1
унищожени 1
Лим@@ 1
Размно@@ 1
Соломо@@ 1
включваща 1
държавно 1
лик@@ 1
мело@@ 1
привлечен 1
турни 1
Запад 1
демокрация 1
диктат@@ 1
ещи 1
печал@@ 1
пещерата 1
схайм 1
Отно@@ 1
лищен 1
нападението 1
отговорност 1
сението 1
среден 1
шин 1
St@@ 0.10139718723770252
Архитектура 1
Думата 1
Мансфелд 1
бови 1
играл 1
иту@@ 1
медиите 1
одът 1
поети 1
честот@@ 1
Велика 1
Дво@@ 1
Леон 1
Лотарингия 1
Сол@@ 1
знал 1
имену@@ 1
качва 1
Генералния 1
Монако 1
прово@@ 1
сула 1
червена 1
le 0.005626261456538951
Бангладеш 1
накло@@ 1
сег@@ 1
споме@@ 1
Джоузеф 1
Използва@@ 1
Лек@@ 1
Марин 1
Намибия 1
вене@@ 1
водоизместимост 1
подхран@@ 1
пораз@@ 1
реализира 1
3,5 1
българският 1
излезе 1
прогон@@ 1
Александрия 1
Бели@@ 1
Рила 1
венец 1
виз@@ 1
делник 1
ителски 1
ками@@ 1
лиса 1
надви@@ 1
нологи@@ 1
обединени 1
предназначение 1
сами 1
ru@@ 0.17564632188326287
Аш@@ 1
Година 1
КП 1
Кан 1
Мани@@ 1
изпълнения 1
озаглавен 1
отвъд 1
пусти@@ 1
ръка@@ 1
траги@@ 1
Бланкен@@ 1
Първи@@ 1
окръжен 1
склоновете 1
следователно 1
стихотворения 1
яващи 1
Археологи@@ 1
Първия 1
доктри@@ 1
младеж 1
площи 1
разходи 1
тори@@ 1
фаши@@ 1
Бюдинген 1
множеството 1
ора@@ 1
свободни 1
чности 1
Богдан 1
Масачузетс 1
Монголия 1
Роберт 1
Слу@@ 1
Софийска 1
болницата 1
дация 1
електронна 1
кръстоносен 1
нефт 1
нит 1
правилата 1
сбли@@ 1
стория 1
чащи 1
ir@@ 0.10111786108757634
руи@@ 1
дал@@ 1
дебюта 1
ограничени 1
приятелски 1
стаи 1
субек@@ 1
театрални 1
Алексий 1
див@@ 1
легион 1
освобождава 1
география 1
записват 1
монаси 1
общините 1
ограничения 1
покрай@@ 1
сърце 1
течения 1
3,@@ 0.6354447352718198
Основа@@ 1
Родопите 1
масови 1
трево@@ 1
Бати@@ 1
Зак@@ 1
вес 1
гинята 1
ере@@ 1
запаз@@ 1
пещера 1
преход 1
Аги@@ 1
Завър@@ 1
тирането 1
турския 1
уча@@ 1
компютърни 1
крайната 1
Мисисипи 1
Рьо@@ 1
възстанови 1
заси@@ 1
извършено 1
компак@@ 1
концепция 1
кули@@ 1
нейна 1
покрив 1
преминаване 1
славяни 1
Включва 1
покрита 1
растенията 1
стота 1
li@@ 0.09270744855119957
Брат@@ 1
изми@@ 1
капе@@ 1
краката 1
писец 1
последва 1
ситуацията 1
установи 1
хипер@@ 1
храни@@ 1
образа 1
тичния 1
университети 1
чове 1
ш. 1
ed@@ 0.120844964393977
Ето 1
изоби@@ 1
кура@@ 1
надесети 1
пере@@ 0.13421077375609747
промяната 1
сливането 1
социалната 1
Лаос 1
групо@@ 1
печата@@ 1
предаде 1
прилож@@ 1
хме 1
Дре@@ 1
Началото 1
Създаден 1
атакуват 1
бившите 1
изкачва 1
спечел@@ 1
Етимология 1
заливи 1
застъп@@ 1
сериалът 1
Живее 1
културна 1
недовол@@ 1
нощ@@ 1
чано 1
Брю@@ 1
Диего 1
Крал 1
атент@@ 1
гин@@ 1
гово@@ 1
депутати 1
дроб 1
избро@@ 1
магазин 1
шел@@ 1
Куни@@ 1
зя@@ 1
имала 1
иро@@ 1
критиката 1
обществен 1
разоча@@ 1
разред 1
стов 0.6943800434708034
студиото 1
Y@@ 0.08318893359008
Източната 1
Същевременно 1
братовче@@ 1
жба 1
петте 1
религиозна 1
Библията 1
дом@@ 1
карват 1
невъзможно 1
условие 1
Яко@@ 1
мун@@ 1
синг 1
тическите 1
храмове 1
Все@@ 1
Новата 1
Резолюция 1
биография 1
дружества 1
миналия 1
министъра 1
разслед@@ 1
своеобраз@@ 1
11@@ 1
1821 1
Западната 1
Училището 1
вое@@ 1
започнали 1
обичай@@ 1
описани 1
тско 1
убиват 1
художествени 1
170 1
Айн@@ 1
Всъщност 1
метода 1
наказание 1
норве@@ 1
официална 1
пеене 1
редак@@ 1
тюр@@ 1
Ева 1
Отли@@ 1
вратата 1
кръга 1
кул 1
хартия 1
частна 1
Плат@@ 1
Пример 1
екзархията 1
задълбо@@ 1
рево 1
снаряда 1
стилове 1
характерен 1
ценен 1
чист 1
Кама@@ 1
Остава 1
амат@@ 1
анимационен 1
влизането 1
днешното 1
ефективно 1
фрайин 1
Лип@@ 1
побеждават 1
портрет 1
практики 1
разглеждат 1
Жер@@ 1
Крит 1
Лоръ@@ 1
виг 1
китарист 1
неиз@@ 1
рап 1
риболов 1
селяни 1
Емануил 1
Йохан@@ 1
Крум 1
Трети 1
лял 1
наблюдате@@ 1
силните 1
толо@@ 1
увол@@ 1
Джаксън 1
Леген@@ 1
Франци@@ 1
вац 1
държан@@ 1
кръгове 1
способен 1
Дат@@ 1
Кьониг@@ 1
войник 1
дуз@@ 1
заведения 1
осе@@ 1
продажби 1
френ@@ 1
цивилизация 1
ъс 1
tr@@ 0.06257932987616587
Нари@@ 1
Пъл@@ 1
въпросите 1
паметника 1
прехвърля 1
Джули@@ 1
Древ@@ 1
кралицата 1
чар 1
чувство 1
шотланд@@ 1
Лондон@@ 1
После 0.19796519995574138
Сандански 1
почва 1
тълку@@ 1
човечеството 1
Къщата 1
Ов@@ 1
анда 1
значимите 1
поръчка 1
преглед 1
сръбските 1
Мно@@ 1
андар@@ 1
богатите 1
гън 1
институция 1
македонските 1
негати@@ 1
полето 1
получат 1
северното 1
тюрк@@ 1
101 1
АС@@ 1
Пенсилвания 1
академик 1
визия 1
звукозапис@@ 1
намаля@@ 1
проведен 1
бестселъри 1
добив 1
доказва 1
лник 1
направят 1
Проек@@ 1
американците 1
варират 1
гражданската 1
инженерство 1
мая 0.3357757826994459
научно@@ 1
предизвикват 1
хори@@ 1
Кейм@@ 1
Мур@@ 1
изкопа@@ 1
1815 1
Черномо@@ 1
главнокомандващ 1
едър 1
подписват 1
родени 1
старо 1
физиката 1
In 0.008958782899282758
дой@@ 1
православни 1
съставени 1
f 0.13693196934349214
le@@ 0.07634600402803925
oph@@ 0.3523190966585884
Йемен 1
Опреде@@ 1
боговете 1
бу 1
говори@@ 1
джо@@ 1
ловата 1
метеоро@@ 1
продължа@@ 1
царя 1
ял@@ 1
Възможно 1
Гюнтер 1
Катрин 1
Мя@@ 1
Чад 1
задържа 1
прате@@ 1
тол@@ 1
фикси@@ 1
цвета 1
01 0.6937793940996974
Бак@@ 1
Рав@@ 1
Ранен 1
Теодора 1
взаимно 1
дисциплини 1
моз@@ 1
ниц 1
паси@@ 1
ринген 1
сбир@@ 1
специфични 1
Българско 1
Върху 1
Нейният 1
възприема 1
тежи 1
фир@@ 1
щения 1
1831 1
ЗИП 1
мле@@ 1
мнения 1
него@@ 1
оранже@@ 1
родната 1
1812 1
Дължина 1
Ливан 1
данък 1
етническа 1
жител 1
подразделения 1
упа@@ 1
Блан@@ 1
воля 1
възникват 1
живеещи 1
изобра@@ 1
мисте@@ 1
църковна 1
Августа 1
блат@@ 1
жал@@ 1
мега@@ 1
ръст 1
чук 1
Води 1
Марина 1
Преми@@ 1
Форт 1
зирането 1
почивка 1
сието 1
28@@ 0.8444616810275417
манастирът 1
мож@@ 1
поглед 1
софтуер@@ 1
хли@@ 1
1835 1
Опит@@ 1
Солунската 1
бути@@ 1
дари 1
дент 1
клетка 1
сезо@@ 1
финансите 1
цит@@ 1
Дупница 1
Уест 1
ивица 1
пустинята 1
Грай@@ 1
МВР 1
адаптация 1
бей@@ 1
боже@@ 1
взаимодействие 1
индиви@@ 1
многобройните 1
подре@@ 1
строителни 1
удовлетво@@ 1
Валерий 1
крайните 1
обще@@ 0.7495216218234555
окси@@ 1
осигу@@ 1
сек 1
хот@@ 1
шампиони 1
1829 1
My 0.37873532378174984
Бургундия 1
Вилхел@@ 1
Изи@@ 1
Ти 1
борн 1
венството 1
обикол@@ 1
пите@@ 1
подредени 1
ura 0.26884775854196014
Бене@@ 1
вклю@@ 1
законо@@ 1
конвен@@ 1
отдавна 1
оттеглят 1
тест 1
Хил 1
вното 1
връзките 1
идването 1
родните 1
хърватски 1
Гран@@ 1
археоло@@ 1
забранява 1
ктивен 1
мач@@ 1
разработването 1
стомана 1
таря 1
туристи 1
вката 1
глаго@@ 1
денец 1
кю@@ 1
лиде@@ 1
мигра@@ 1
08 0.6645811281206704
Стър@@ 1
Хората 1
намаляваща 1
отглеждане 1
политан@@ 1
турското 1
Киргиз@@ 1
Фау@@ 1
бестселър 1
инцидент 1
лодки 1
млрд. 1
пасища 1
програми@@ 1
специализирани 1
чила 1
240 1
Малави 1
СО@@ 1
Сенегал 1
Ювентус 1
ей@@ 1
липсва 1
незабавно 1
нужди 1
бъри 1
вериги 1
изненад@@ 1
историческия 1
разв@@ 1
знания 1
кад@@ 1
нинг 1
регу@@ 1
07 0.7032671838836143
Брон@@ 1
Дармщат 1
Обо@@ 1
Територията 1
бак@@ 1
въдството 1
изпълнени 1
насла@@ 1
фект 1
целу@@ 1
Лудогорец 1
промените 1
риален 1
спада 1
усил@@ 1
хорн 1
Куин@@ 1
Мила@@ 1
бургграф 1
валд 1
гарнизон 1
официалната 1
родна 1
сал@@ 1
строго 1
тракийски 1
ДНК 1
Образу@@ 1
Страсбург 1
атия 1
води@@ 1
външния 1
древногръцката 1
здраве@@ 1
цион@@ 1
Кирхберг 1
Стри@@ 1
предложението 1
прозра@@ 1
равен 1
разрушена 1
езе@@ 1
лязъл 1
османското 1
присъда 1
телно 1
Ивоар 1
Педро 1
Тях@@ 1
Фернандо 1
арски 1
бронзов 1
изтък@@ 1
крепости 1
тта 1
хет@@ 1
шах@@ 1
щер@@ 1
Кара 1
вътрешно 1
змия 1
понятие 1
инфра@@ 1
комисията 1
лоя@@ 1
нейно 1
перка 1
разграни@@ 1
способни 1
татор 1
1855 0.8902600140893479
29@@ 0.8977040232339937
Лон@@ 1
запъл@@ 1
идеологи@@ 1
ними 1
съществено 1
телите 1
Исторически 1
враже@@ 1
въведен 1
горния 1
инфраструктура 1
кцията 1
стиче@@ 1
стова 1
титуляр 1
eus 0.9406630446425898
АС 1
Накрая 1
Стен@@ 1
мину@@ 1
народната 1
полица@@ 1
риална 1
сани@@ 1
стигне 1
съвмести@@ 1
цио 1
ядро 1
Сам@@ 1
затрудне@@ 1
изпита@@ 1
младо@@ 1
огромно 1
потомци 1
север@@ 1
съотбор@@ 1
тили 1
товите 1
Воде@@ 1
Колорадо 1
Фра@@ 1
кадри 1
природен 1
сватбата 1
Карл@@ 1
Продължител@@ 1
Сон@@ 1
бара@@ 1
кост@@ 1
кости 1
кухня 1
менно 1
съобраз@@ 1
употреб@@ 1
фрак@@ 1
храните@@ 1
Йон@@ 1
бло 1
знамени@@ 1
плановете 1
субтропи@@ 1
фондация 1
06 0.7155725703183344
Рен@@ 1
защитена 1
знаме@@ 1
менена 1
позициите 1
убеждава 1
фаса@@ 1
Ренесан@@ 1
артилерията 1
блата 1
ирланд@@ 1
попад@@ 1
разстоянието 1
адре@@ 1
вай 1
градчето 1
дублаж 1
открие 1
резо@@ 1
хуманитар@@ 1
Външни 1
Чове@@ 1
антрополо@@ 1
глобал@@ 1
избягва 1
прекъсва 1
стадиона 1
статус 1
театрална 1
Константинов 1
Попо@@ 1
Съветът 1
Тирол 1
Щип 1
магне@@ 1
намираща 1
фур@@ 1
вътрешна 1
критици 1
теку@@ 1
Зай@@ 1
Малки 1
Хру@@ 1
етническата 1
изобщо 1
необ@@ 1
фило@@ 1
хижа 1
Държавен 1
Разпростра@@ 1
котлови@@ 1
монаше@@ 1
напр. 1
проведе 1
рифове 1
способности 1
унд 1
църковни 1
Бистрица 1
Рю@@ 1
държавния 1
екран 1
крайцерът 1
прека@@ 1
разно@@ 1
техническо 1
функциите 1
Саар@@ 1
Славей@@ 1
освобождаването 1
пожа@@ 1
− 0.5075761543461529
1852 0.9325973644379167
ждавайки 1
лда 1
лево 1
научните 1
отнема 1
предше@@ 1
1845 1
Cor@@ 0.13430071542997876
Тя@@ 1
византийския 1
ляването 1
мови 1
посве@@ 1
страница 1
шов 1
Херцогство 1
вуд 1
изследването 1
късния 1
обвинения 1
покривка 1
1828 1
Съю@@ 1
зат 1
обикновен 1
риана 1
Лимбург 1
великия 1
запазват 1
знанието 1
низиран 1
спомени 1
съкратено 1
франк@@ 1
хали@@ 1
Ебер@@ 1
коне@@ 1
концепцията 1
линкори 1
пит 1
роднини 1
съпротивата 1
токла@@ 1
Ой@@ 1
Стеф@@ 1
магазини 1
ориенти@@ 1
стни 1
тическо 1
фолклор 1
Илинойс 1
ените 1
кве@@ 1
конг 1
предоставят 1
съсредото@@ 1
хребета 1
цветовете 1
Арнолд 1
Епир 1
Тради@@ 1
възви@@ 1
въздушна 1
кутия 1
мрамор@@ 1
мюзи@@ 1
необходимостта 1
орел 1
смес 1
спътник 1
Гръ@@ 1
Флавий 1
вене 1
задово@@ 1
кабинет 1
сето 1
твърдо 1
терито@@ 1
ута 1
ССР 1
гарт 1
железопътната 1
ит 1
композиции 1
минг 1
правен 1
преименува 1
разработката 1
участвал 1
матизи@@ 1
новска 1
оттогава 1
репу@@ 1
сдорф 1
стък@@ 1
тясна 1
Кенеди 1
Литекс 1
въздушните 1
гиня 1
ейки 1
ког@@ 1
линни 1
отвори 1
писание 1
повишаване 1
разследване 1
рангли@@ 1
растителни 1
стрем@@ 1
чай@@ 1
Леоне 1
американското 1
животно 1
казате@@ 1
образци 1
отличен 1
отте@@ 1
полезни 1
протести 1
работена 1
речни 1
стващи 1
характерна 1
w@@ 0.05845798697817045
Основен 1
Самоков 1
Среден 1
кинс 1
показате@@ 1
ректор 1
спомагате@@ 1
спуска 1
фестивали 1
Веднага 1
Григор 1
Музеят 1
горо@@ 1
еги@@ 1
изтла@@ 1
искане 1
обединяват 1
персона@@ 1
платото 1
семина@@ 1
черта 1
Африкан@@ 1
Корне@@ 1
Пере@@ 1
Университе@@ 1
вика@@ 1
висшето 1
жата 1
кълбо 1
лаборатория 1
правени 1
тив 1
Гради@@ 1
Хене@@ 1
анге@@ 1
женската 1
ники 0.3437217738608274
противоречи@@ 1
скане 1
традицията 1
Col@@ 0.13453714878635867
Гей@@ 1
Младеж@@ 1
Пай@@ 1
атите 1
възстановен 1
дското 1
заболяването 1
заповядва 1
овце 1
около@@ 1
Висшата 1
Фландрия 1
икономическата 1
мало 1
някакъв 1
оставят 1
фелдмаршал 1
Скор@@ 1
боеве 1
борът 1
корабостроител@@ 1
пласти@@ 1
поручик 1
фогт 1
химични 1
1820 0.8158747829251638
Майк 1
Одеса 1
Фести@@ 1
Централен 1
бир@@ 1
богатство 1
ковица 1
площа@@ 1
прак@@ 1
различия 1
4,@@ 0.6121166750153094
Звез@@ 1
Ман 1
вето@@ 1
избе@@ 1
магистър 1
Re@@ 0.07735066212218554
Палеолог 1
двойно 1
заседание 1
надписи 1
плаща 1
френското 1
Кюстенди@@ 1
обслужва 1
събитието 1
съществувала 1
1837 1
Гур@@ 1
Петка 1
Фан@@ 1
включващ 1
днешната 1
занимават 1
истината 1
мачовете 1
намали 1
писанието 1
покрит 1
предизвикате@@ 1
т.@@ 1
трасето 1
цене@@ 1
шведски 1
Акть@@ 1
Екс@@ 1
Закон 1
Островът 1
Уилсън 1
гей@@ 1
цветя 1
one 0.019223585416694233
мохаме@@ 1
отнася@@ 1
сори 1
старта 1
атмосфера 1
готите 1
дание 1
конкур@@ 1
крите@@ 1
напу@@ 1
рая 1
революцията 1
стките 1
Почи@@ 1
гач 1
геометри@@ 1
звездите 1
историко 1
правомо@@ 1
Стопан@@ 1
администрацията 1
законите 1
изграждат 1
моди@@ 1
преговорите 1
My@@ 0.444190404145528
НИ@@ 1
гал@@ 1
добавят 1
заря@@ 1
машин@@ 1
опозиция 1
сана 1
1814 1
Кристо@@ 1
ждана 1
загина@@ 1
започна 1
ограничава 1
правни 1
Еки@@ 1
Желез@@ 1
Клуб 1
Поме@@ 1
арестувани 1
заловен 1
лиан 1
листите 1
нанася 1
оформя 1
служил 1
хребе@@ 1
Операция 1
горните 1
костур@@ 1
общества 1
свето@@ 1
сио 1
счит@@ 1
трудности 1
хем@@ 1
Езерото 1
Импе@@ 1
Общото 1
биографи@@ 1
изложени 1
имението 1
лете 1
мнението 1
ог@@ 1
пят 1
форт 1
1847 0.9586454775580725
STS 1
Ака@@ 1
Бог@@ 1
Боян 1
дзи@@ 1
древен 1
настав@@ 1
професия 1
дват 1
класове 1
нима@@ 1
примирие 1
проблема 1
християнско 1
Крим 1
Мали 1
гено@@ 1
дама 1
живели 1
зането 1
номера 1
отбележи 1
практиката 1
спеди@@ 1
южното 1
Сръбска 1
внучка 1
навлизат 1
образуване 1
уеб@@ 1
хектара 1
to@@ 0.1122031493425465
Павлов 1
Чет@@ 1
критиците 1
наложи 1
нея@@ 1
1841 1
Варшав@@ 1
РП 1
Сяр@@ 1
вход@@ 1
добрата 1
средни 1
Алпи 1
Даун 1
Индийския 1
единствения 1
загиналите 1
момчета 1
обстоятелства 1
предназначен 1
пренебре@@ 1
трафи@@ 1
шах 1
152 1
220 1
Бела 1
Зондер@@ 1
Кукуш 1
автен@@ 1
веца 1
възстановена 1
доказателство 1
поглъ@@ 1
пот 1
прохода 1
ску 1
съставено 1
Балтийско 1
възобнов@@ 1
гърците 1
задната 1
изменения 1
легенди 1
местообита@@ 1
старт 1
Бурга@@ 1
Клубът 1
опъл@@ 1
попъл@@ 1
разказа 1
разпределение 1
секун@@ 1
хармония 1
Архангел 1
Сфорца 1
Шьонбург 1
желяз@@ 1
исто@@ 1
комерси@@ 1
монархия 1
ползване 1
танцу@@ 1
Цвай@@ 1
вината 1
значими 1
красива 1
международния 1
поемат 1
помещава 1
появи@@ 1
представянето 1
прояви 1
танкове 1
тег@@ 1
Коре@@ 1
Револю@@ 1
влак 1
камъ@@ 1
мут 1
намиращи 1
наподобя@@ 1
подобрява 1
ръчно 1
спокой@@ 1
Вави@@ 1
Калифорни@@ 1
Нюрнберг 1
Партията 1
Провинции 1
Третия 1
Юриди@@ 1
венециан@@ 1
излиза@@ 1
мисля 1
опашката 1
основание 1
проток 1
фони 1
БСП 1
Еге@@ 1
атрак@@ 1
дява 1
еко@@ 1
класификация 1
ранния 1
скулптура 1
спортове 1
тей@@ 1
юби@@ 1
TV 0.13739606635913576
Джузепе 1
Опа@@ 1
Теса@@ 1
денци 1
епископ@@ 1
зет 1
кратка 1
осно@@ 1
програ@@ 1
топло@@ 1
Източници 1
враг 1
затворени 1
изучаването 1
испанската 1
комите@@ 1
линкора 1
мените 1
тесни 1
​ 1
Театър 1
градските 1
жове 1
композирана 1
нели 1
похо@@ 1
риск 1
скват 1
учения 1
шима 1
Алфонсо 1
Висшия 1
Гот@@ 1
Националният 1
Отде@@ 1
Стади@@ 1
жак 1
традиционни 1
цизма 1
Тиберий 1
биология 1
какъв 1
партизани 1
същества 1
феода@@ 1
ът@@ 1
Ети@@ 1
ОО@@ 1
Фило@@ 1
изпълни 1
марката 1
мюсюл@@ 1
образи 1
рациона@@ 1
рити 1
скалите 1
следовате@@ 1
цигани 1
Долни 1
Стои@@ 1
Челси 1
идва@@ 1
късно@@ 1
телство 1
установено 1
физик 1
Клу@@ 1
Морис 1
Осе@@ 1
Царе@@ 1
авиа@@ 1
вателна 1
изискванията 1
колона 1
повтар@@ 1
рог 1
стъкло 1
Библиоте@@ 1
Загреб 1
Монте 1
Сиг@@ 1
Ще@@ 1
гю@@ 1
сръбска 1
шанс 1
International 0.1010831592745396
Болоня 1
Вселенската 1
Марио 1
бог@@ 1
ерите 1
икона 1
кораб@@ 1
предишния 1
съставля@@ 1
Бел 1
Габон 1
Копривщица 1
Синът 1
апарата 1
ватели 1
достъпни 1
зът 1
критикува 1
лози 1
мъртно 1
народното 1
носец 1
оста 1
0,5 1
Стати@@ 1
епархията 1
навсякъде 1
поря@@ 1
престой 1
топка 1
Mar@@ 0.06946751490688849
Големият 1
ТА 1
Таймс 1
брия 1
докто@@ 1
енец 1
ловете 1
минген 1
осу@@ 1
пил 1
постигане 1
соции@@ 1
църковно 1
da 0.040913761651704406
Буда 1
Каспи@@ 1
Кларк 1
Млади 1
Ок@@ 1
въплъ@@ 1
завръщат 1
как@@ 1
понастоящем 1
препоръчва 1
приходи 1
продуцент@@ 1
произво@@ 1
скалата 1
Берн@@ 1
Перси@@ 1
Родителите 1
Том@@ 1
Чър@@ 1
движ@@ 1
обединението 1
обмен 1
пиеса 1
потенциал 1
щети 1
1851 0.8698987171471676
Ваймар 1
Фак@@ 1
Шей@@ 1
жерт@@ 1
личното 1
отначало 1
придоб@@ 1
расли 1
ственост 1
хай 1
боен 1
дора 1
ир 1
робо@@ 1
5,@@ 0.6908266923549538
Дълго@@ 1
Московския 1
Праз@@ 1
географската 1
издигат 1
контин@@ 1
откра@@ 1
поеме 1
студи@@ 1
съответства 1
търговско 1
цару@@ 1
Авгу@@ 1
Гран 1
Търнов@@ 1
автомобила 1
гористи 1
преобладават 1
принуд@@ 1
японските 1
Добри 1
Широ@@ 1
бюджет 1
галакти@@ 1
душата 1
какви 1
моменти 1
ографи@@ 1
отмен@@ 1
пиро@@ 1
работниците 1
социа@@ 1
станало 1
съвпада 1
дана 1
оглед 1
светилище 1
ув@@ 1
хипо@@ 1
шили 1
1844 1
Джейн 1
Транспорт 1
мити@@ 1
натиска 1
оператор 1
следната 1
слънцето 1
съв@@ 1
улици 1
ядрото 1
Z 0.3360042854006955
врагове 1
завладява 1
изри@@ 1
поредни 1
продукцията 1
стиму@@ 1
тестове 1
1846 0.9270061729802734
360 1
Примери 1
алкохол 1
братство 1
губ@@ 1
нидерланд@@ 1
отговаря@@ 1
пън@@ 1
ходни 1
6000 1
Октавиан 1
сборника 1
сбур@@ 1
сложна 1
спре@@ 1
трея 1
юта 1
Златна 1
Комунистиче@@ 1
бела@@ 1
болшеви@@ 1
гит@@ 1
итер 1
пехота 1
подписването 1
провинци@@ 1
ранното 1
рената 1
сме 1
турби@@ 1
цир@@ 1
ІІІ 1
Арсенал 1
Артур 1
геров 1
заменени 1
икономическите 1
напояване 1
поражението 1
призе@@ 1
пътуването 1
убийства 1
Смърт 1
купол 1
лаг 1
писал 1
чански 1
03 0.7278565394279181
Армен@@ 1
Занима@@ 1
Септември 1
измест@@ 1
испанците 1
купол@@ 1
обвър@@ 1
предпочита 1
театрален 1
чести 1
ar 0.028961582193380322
Йоси@@ 1
Сми@@ 1
адата 1
графи 1
грешки 1
движат 1
пай@@ 1
равнове@@ 1
ризма 1
цари 1
четвъртият 1
1836 1
Амстердам 1
Доктор 1
Ж 1
Пь@@ 1
гова 1
гран@@ 1
денти 1
ждали 1
каже 1
късометра@@ 1
ландия 1
опла@@ 1
пласт@@ 1
предшественик 1
резервата 1
финансиране 1
Дву@@ 1
Лит@@ 1
Наградата 1
Узу@@ 1
Чав@@ 1
копри@@ 1
литра 1
натовар@@ 1
обвинен 1
числения 1
Никифор 1
кали 1
континент 1
обит@@ 1
пфалцграф 1
съставя 1
хели@@ 1
астеро@@ 1
видеокли@@ 1
вицепрезидент 1
еднак@@ 1
рой 0.9664032827152071
спас@@ 1
Команд@@ 1
Нейната 1
анализа 1
католическа 1
летището 1
пространства 1
сване 1
цен 1
Зимбабве 1
Комитета 1
МО@@ 1
Нил 1
Скопския 1
интерв@@ 1
короната 1
оръдей@@ 1
студентите 1
факул@@ 1
чели 1
чиев 1
Евро 1
НР 1
Патрик 1
Пламен 1
Юр@@ 1
легат 1
разузна@@ 1
фактически 1
lidae 1
Колев 1
Ун@@ 1
кръгла 1
маршру@@ 1
обявяването 1
Live 0.4172585838470107
Залм 1
свален 1
трупа 1
цър@@ 1
Индиана 1
Нер@@ 1
Орегон 1
донася 1
нител 1
сика 1
стратегически 1
сушата 1
Бата@@ 1
Грей@@ 1
Драмати@@ 1
Здра@@ 1
Зевс 1
каса@@ 1
онер@@ 1
пие@@ 1
руда 1
сала 1
сребърни 1
строят 1
ця@@ 1
Вор@@ 1
Ръко@@ 1
Узбекистан 1
жието 1
начина@@ 1
оте@@ 1
ig@@ 0.10669235474722598
Вати@@ 1
Вет@@ 1
Сул@@ 1
ателите 1
екипа@@ 1
монархи@@ 1
Гней 1
Създадена 1
безопасност 1
извест@@ 1
планета 1
схе@@ 1
героя 1
игло@@ 1
изобразява 1
ларов 1
посещават 1
съща 1
ядрени 1
Q@@ 0.17002796537724674
Уа@@ 1
въл 1
кралството 1
претор 1
стван 1
Валентин 1
започнал 1
максимум 1
обстановка 1
прокурор 1
рополи@@ 1
смет@@ 1
френско 1
хождат 1
цита@@ 1
Bo@@ 0.14528940988121494
ДС 1
Следовате@@ 1
ТК@@ 1
брат@@ 1
постановки 1
проза 1
7,@@ 0.7961222569635591
Мра@@ 1
Районът 1
Сатурн 1
йм 1
механика 1
пулос 1
серий@@ 1
шум 1
1400 1
Тома@@ 1
американско 1
конструк@@ 1
принадлежност 1
роза 1
численост 1
чъл 1
ьон@@ 1
Ая@@ 1
Второто 1
Чарли 1
категорията 1
поканен 1
постройка 1
строени 1
цлав 1
8,@@ 0.8289186559165387
Люнебург 1
Социалистическа 1
бизнеса 1
дас 1
зема 1
каз 1
странен 1
1792 1
2500 1
ops 0.5912503628707211
Оператор 1
Паи@@ 1
арт 1
международното 1
наблю@@ 1
чудови@@ 1
готов 1
размера 1
Нел@@ 1
Позна@@ 1
изискват 1
коп 1
мнозина 1
отбор@@ 1
CD 0.27654885109828287
Върхов@@ 1
Есте 1
Сената 1
Тур 1
бои 1
катедра@@ 1
пазари 1
сив@@ 1
ed 0.019164716764974606
Производ@@ 1
Фир@@ 1
блус 1
зовава 1
компро@@ 1
лим@@ 1
мония 1
Буш 1
Фриде@@ 1
деш 1
душен 1
пау@@ 1
ями 0.5008693556627224
J 0.2709523972937876
дистан@@ 1
залож@@ 1
патрио@@ 1
писто@@ 1
подпоручик 1
слов 1
телефон@@ 1
Анда@@ 1
Висшето 1
Райх@@ 1
брон@@ 1
длъжности 1
ланка 1
океана 1
прах 1
сребро 1
Берг 1
Надежда 1
Оста@@ 1
Спас 1
Теат@@ 1
желае 1
журналистика 1
площадка 1
постройки 1
снение 1
туберку@@ 1
Зон@@ 1
Клю@@ 1
Лор@@ 1
Птолемей 1
жилища 1
заем@@ 1
лице@@ 1
пон@@ 1
смарк 1
ci@@ 0.1310030818484215
йв 1
коали@@ 1
машино@@ 1
рока 1
семена 1
скорост@@ 1
ale 0.0721500474264883
Балти@@ 1
ГДР 1
лее 1
Андроник 1
бате@@ 1
орна@@ 1
der 0.002815566300639805
Ахмед 1
СВ 1
врий@@ 1
последователи 1
репер@@ 1
юноши 1
дили 1
мено 1
спонсо@@ 1
тъм@@ 1
Агри@@ 1
предска@@ 1
сюжета 1
феде@@ 1
цент 1
мане 1
омъ@@ 1
учат 1
юно@@ 1
язовира 1
4,5 1
Tour 0.1946468451296689
Плу@@ 1
Хенри@@ 1
берг@@ 1
демонстра@@ 1
лук@@ 1
напис@@ 1
отпадъ@@ 1
програм@@ 1
Вене@@ 1
Венера 1
Пекин 1
Персия 1
Провин@@ 1
Шпи@@ 1
вели 1
майму@@ 1
страда@@ 1
чай 1
вада 1
впечатля@@ 1
гарни@@ 1
кона 1
предате@@ 1
Анастасия 1
Ахе@@ 1
гей 1
изложение 1
нера@@ 1
Борисов 1
Йоахим 1
Наум 1
ing@@ 0.11036810951833413
Волга 1
Жана 1
архе@@ 1
завеща@@ 1
заряд 1
летате@@ 1
рето 1
чино 1
шу 1
odon 1
Бруно 1
Мало@@ 1
Рок@@ 1
ад 1
кафе 1
ряд@@ 1
Яков 1
дарения 1
набе@@ 1
сру@@ 1
статуя 1
Мустафа 1
Поч@@ 1
Тау@@ 1
национал 1
представления 1
тун@@ 1
Бога 1
Хайн@@ 1
лорд 1
снато 1
стипендия 1
строител@@ 1
eri 0.4307701164561029
безу@@ 1
могли 1
монумента@@ 1
музикан@@ 1
прене@@ 1
приемник 1
Алекс 1
Вайсен@@ 1
Маркс 1
Рене 1
Юлиана 1
етна@@ 1
конфи@@ 1
правну@@ 1
сь@@ 1
1839 0.9785790830899359
1843 0.9979260441377387
костю@@ 1
лона 1
разстоя@@ 1
арка 1
гвардия 1
диоксид 1
люс 1
поколения 1
it 0.011403193323624905
Дек@@ 1
Мара@@ 1
боя@@ 1
календар@@ 1
ad@@ 0.05099375788058516
БН@@ 1
мак 1
нус 1
ово@@ 1
пробле@@ 1
хоф 1
шести 1
Тереза 1
бела 1
жре@@ 1
ситуации 1
тизма 1
Гранд 1
Лацио 1
Пене@@ 1
Руска 1
внимате@@ 1
коно@@ 1
нек 1
спла@@ 1
Кук 1
Мори@@ 1
носите@@ 1
тера 1
учение 1
ходя@@ 1
Обу@@ 1
апара@@ 1
тенберг 1
фланг 1
Андре 1
ГЕ@@ 1
Наци@@ 1
защите@@ 1
рея 1
Пик@@ 1
Тоскана 1
лък 1
разбо@@ 1
фундамента@@ 1
Иванова 1
Херцо@@ 1
мембра@@ 1
co@@ 0.06874022935742341
Каледония 1
Разработ@@ 1
Сва@@ 1
Суринам 1
психиат@@ 1
хим 1
106 1
вера 1
гове@@ 1
медици@@ 1
СК 1
жили 1
жица 1
ся 1
Боле@@ 1
Типи@@ 1
видео@@ 1
лога 1
носен 1
рона 1
Иск@@ 1
Камен@@ 1
снима@@ 1
Y 0.272529838745002
Димитров@@ 1
Зан@@ 1
КП@@ 1
Рой@@ 1
бив@@ 1
пун@@ 1
хва 1
зал 1
миниат@@ 1
фраг@@ 1
атмосфер@@ 1
царица 1
акт@@ 1
артист 1
бла 1
мово 1
нитет 1
сценари@@ 1
280 1
запом@@ 1
палата 1
Шве@@ 1
клуб@@ 1
космо@@ 1
проро@@ 1
цилиндри@@ 1
am 0.02059937822071997
onidae 1
Оде@@ 1
Спар@@ 1
ату 1
дисциплина 1
опо@@ 1
сате@@ 1
серви@@ 1
Поло@@ 1
Самар@@ 1
Сор@@ 1
движе@@ 1
ела@@ 1
загла@@ 1
мания 1
минимум 1
нака@@ 1
неа@@ 1
стратегия 1
тексти@@ 1
хин 1
шахмат 1
шила 1
Ac@@ 0.19001896020582937
Рено 1
Чин@@ 1
Шекспир 1
вос@@ 0.6318972621220652
ter@@ 0.0769451647100318
псевдо@@ 1
фат@@ 1
.д. 1
opus 1
Чита@@ 1
делегация 1
живя@@ 1
корен@@ 1
лейман 1
боеприпа@@ 1
поклон@@ 1
равнин@@ 1
сков@@ 1
Бундеслига 1
Дио@@ 1
Награ@@ 1
дола@@ 1
заим@@ 1
увеличе@@ 1
шал 1
One 0.11239430648728341
Бари 1
Сме@@ 1
Фели@@ 1
близка 1
плит@@ 1
резиден@@ 1
Освобо@@ 1
м. 1
партий@@ 1
сман 1
Джан@@ 1
Музей 1
Фул@@ 1
майсто@@ 1
шина 1
Философ@@ 1
Франсис 1
завода 1
мине@@ 1
прите@@ 1
тано 1
Конститу@@ 1
Марк@@ 1
адрес 1
баскетбо@@ 1
завод@@ 1
Феликс 1
дето 1
жити@@ 1
оти 1
Цер@@ 1
кология 1
ri@@ 0.10339040530364917
автоном@@ 1
поправ@@ 1
1818 1
ab@@ 0.03964752900369582
Кау@@ 1
етро 1
тали@@ 1
Копен@@ 1
Миро@@ 1
атив@@ 1
величина 1
помещение 1
чили 1
жества 1
персонал 1
прими@@ 1
1832 0.9551687894482102
Бос@@ 1
Стандар@@ 1
Стив 1
гати 1
огне@@ 1
Ленинград 1
МКС 1
Орден 1
наличие 1
освобождение 1
покой@@ 1
вак 1
единство 1
стици@@ 1
съсредо@@ 1
формула 1
1838 0.9282417887342276
допуска 1
сезон@@ 1
скре@@ 1
1834 0.9681788551781066
par@@ 0.07236148886835604
Евре@@ 1
Уил@@ 1
волейбол 1
сбах 1
скло@@ 1
авторите@@ 1
архипелага 1
зий 1
талант 1
Дай@@ 1
департамента 1
резул@@ 1
салон 1
02 0.6750419041902394
Рад@@ 1
Силезия 1
можен 1
химически 1
шахмат@@ 1
шести@@ 1
Вестер@@ 1
Топ 1
Фиджи 1
анто@@ 1
мари@@ 1
чате@@ 1
ber@@ 0.10997903130445727
Ски@@ 1
кий 0.6663383423569229
прекрат@@ 1
снен@@ 1
формули@@ 1
Клод 1
митрополи@@ 1
радиа@@ 1
суша 1
Как@@ 1
гроб 1
кок 1
лю 0.9163543783452638
мук 1
тии 0.9552452175622005
трофе@@ 1
Адриан 1
стал 0.16495535063478634
творчески 1
тинген 1
Ива@@ 1
богосло@@ 1
ила 1
каните 1
красота 1
намерен 1
провод 1
.com 0.49216734807622275
Браун@@ 1
Маги@@ 1
Тал@@ 1
вед 1
гроба 1
ограничено 1
пира@@ 1
схо@@ 1
750 1
безо@@ 1
мбу@@ 1
полуострова 1
1810 1
Вюр@@ 1
ард 1
бивши@@ 1
института 1
манипу@@ 1
справедливо@@ 1
Рос 1
анато@@ 1
депутат@@ 1
Айова 1
Мичиган 1
мона 1
нак@@ 1
разгрома 1
сив 1
стор@@ 1
Дж 1
коса 1
патру@@ 1
счето@@ 1
фенбю@@ 1
34,@@ 1
Еванге@@ 1
Русен@@ 1
Юн@@ 1
борг 1
пано@@ 1
Вила 1
Тюрингия 1
заговор 1
определение 1
ресур@@ 1
столи@@ 1
шек 1
1793 1
Настоя@@ 1
дубли@@ 1
освобожда@@ 1
рим 1
футбола 1
наклон 1
скал 1
члена 1
янов 1
108 1
вести@@ 1
дки 1
публики 1
Того 1
отло@@ 1
127 1
Гонзага 1
гени@@ 1
мид 1
ова@@ 1
пара 1
1842 0.8982997045060649
Бей 1
Хом@@ 1
Цюрих 1
жила 1
кала 1
заплат@@ 1
модифици@@ 1
положения 1
йо 1
камер@@ 1
оре 1
фира 1
ВП 1
Пело@@ 1
Царство 1
1.@@ 0.23937642998950062
Hy@@ 0.41282401473800606
Шара@@ 1
дек@@ 1
маршрут 1
ол 1
реда@@ 1
свобо@@ 1
фюр@@ 1
Алексан@@ 1
Смир@@ 1
вей 1
виц 1
гама 1
дея 1
подробно 1
прони@@ 1
Здрав@@ 1
консерватория 1
нест 1
благодар@@ 1
зате@@ 1
нила 1
поези@@ 1
покан@@ 1
ховен 1
Боб 1
Зигфрид 1
Капа@@ 1
Клин@@ 1
Норман@@ 1
дник 1
ледник 1
Реген@@ 1
гимнасти@@ 1
считан 1
ционе@@ 1
1825 1
Гав@@ 1
Ленин 1
проже@@ 1
Построена 1
акть@@ 1
кампании 1
предлага@@ 1
сали@@ 1
1100 1
Баба 1
вземан@@ 1
едино@@ 1
мба 1
спект 1
тематика 1
яния 1
All 0.10192941360772464
didae 1
пети@@ 1
спи 1
Порт 1
анти 1
впечатление 1
кош@@ 1
лайн 1
модернизация 1
1822 1
Хара@@ 1
ежедне@@ 1
кономиче@@ 1
н. 0.9065945209528917
резултат@@ 1
св@@ 1
характерно 1
Ди 1
Музи@@ 1
логично 1
номе@@ 1
среди@@ 1
танц@@ 1
фри 1
190 1
кой@@ 1
конден@@ 1
плов@@ 1
случи@@ 1
францу@@ 1
Шер@@ 1
дун 1
изобретате@@ 1
педагог 1
финансов 1
флаг 1
хаус 1
Life 0.21688521278596742
автобиографи@@ 1
банки 1
навига@@ 1
регистра@@ 1
силия 1
1813 0.99478946876473
други@@ 1
описан 1
Бле@@ 1
Ли 1
жина 1
отделения 1
провин@@ 1
урба@@ 1
чица 1
Co@@ 0.10088362850299173
im@@ 0.05831623601096217
неприя@@ 1
показатели 1
прокура@@ 1
пропове@@ 1
шахмати@@ 1
It 0.01722618614779168
Инте@@ 1
Клуб@@ 1
администра@@ 1
апо@@ 1
оформ@@ 1
сим 1
103 1
Дипло@@ 1
Католиче@@ 1
Мориц 1
Принц 1
Сино@@ 1
Южно@@ 1
Яро@@ 1
драв@@ 1
одрин@@ 1
de@@ 0.053503527884367436
re@@ 0.017776213028550633
ТИ@@ 1
кола@@ 1
материал@@ 1
320 1
БА@@ 1
Клау@@ 1
Лили 1
Погре@@ 1
Слав@@ 1
Соб@@ 1
чака 1
Богда@@ 1
Неа@@ 1
Шьон@@ 1
скандал 1
Реда@@ 1
второ@@ 1
ола 1
стро 1
бр 1
въд@@ 1
обсервато@@ 1
пера 1
сребър@@ 1
113@@ 1
80@@ 0.7951505456965263
АК 1
Джим 1
Крон@@ 1
гради 1
ориентация 1
отдела 1
алгори@@ 1
каш 1
компю@@ 1
структури@@ 1
форум 1
10,@@ 0.8624400779034237
Пя@@ 1
вои@@ 1
дало 1
ченко 1
Айрес 1
аналоги@@ 1
вез@@ 1
ношение 1
приле@@ 1
Кун@@ 1
Оригина@@ 1
Пли@@ 1
лекарства 1
мотор@@ 1
наби@@ 1
ma 0.11200234124883644
Жорж 1
Злато@@ 1
Кора@@ 1
пион 1
Group 0.15171222998062855
Граф 1
Доро@@ 1
Маргарет 1
Медицин@@ 1
Самуил 1
Хиро@@ 1
голове 1
канцлер 1
обстоятел@@ 1
пене 1
104 1
Учи@@ 1
затруд@@ 1
новер 1
уле@@ 1
йорк@@ 1
лио 1
работник 1
риан 1
Архитек@@ 1
Прак@@ 1
Принци@@ 1
Тринидад 1
вира 1
жия 1
незе 1
фикации 1
Дома@@ 1
Рон@@ 1
Сухо@@ 1
Тере@@ 1
нички 1
сат@@ 1
сбург@@ 1
ули 1
Секре@@ 1
вас 1
рай 1
Cal@@ 0.18018988975259098
OS 0.5148183516597709
блин 1
зрение 1
примити@@ 1
стон 1
V. 0.4276490071549515
Кампания 1
бомба 1
ниста 1
комик@@ 1
Близ@@ 1
Граждан@@ 1
българ@@ 1
звука 1
зя 1
показа@@ 1
преподаватели 1
слон 1
Billboard 0.33721720904609814
дово@@ 1
заги@@ 1
очевидно 1
странно 1
que 0.005279181924743446
Академия 1
Хали@@ 1
гава 1
замен@@ 1
коорди@@ 1
кред@@ 1
припис@@ 1
скоп@@ 1
направления 1
степени 0.7447434540734027
тетра@@ 1
Les 0.03543042765572312
Аг@@ 1
гун@@ 1
измен@@ 1
пусне 1
Институт 1
Пано@@ 1
внезапно 1
рот 1
сток 1
Нигер 1
Урал 1
вик 1
дворцо@@ 1
нио 1
сюл@@ 1
финансово 1
ханд@@ 1
1789 1
per@@ 0.07805523096564734
Леонардо 1
Сем@@ 1
Тот@@ 1
саунд@@ 1
свире@@ 1
стието 1
толе@@ 1
Бази@@ 1
Бернар@@ 1
Халки@@ 1
блестя@@ 1
мали 1
махта 1
стери@@ 1
учението 1
Мали@@ 1
зян 1
предназна@@ 1
труп@@ 1
щит 1
1795 1
Юпитер 1
кнове@@ 1
марке@@ 1
нисти@@ 1
норвеж@@ 1
чно@@ 1
кини 1
предложения 1
тенденция 1
109 1
Black 0.1798897840028939
Дама@@ 1
бокс 1
дли 1
направил 1
пат 1
рила 1
35,@@ 1
Осо@@ 1
трак@@ 1
Mus@@ 0.2174284896474335
ждал 1
заменена 1
строена 1
търсен@@ 1
фауна 1
язвим 1
1803 1
orum 0.8489484452661122
лоша@@ 1
меж 1
начи@@ 1
нили 1
нома@@ 1
нта 1
обяс@@ 1
флаг@@ 1
зово 1
имение 1
коня 1
лера 1
обвиня@@ 1
религио@@ 1
Гера@@ 1
Комплек@@ 1
гство 1
нарушения 1
тернати@@ 1
хари 1
Профе@@ 1
завое@@ 1
комитета 1
престоло@@ 1
пшеница 1
урав@@ 1
фман 1
tus 0.5816573206979031
Кили@@ 1
заведение 1
пала@@ 1
пус@@ 1
сиа@@ 1
ствола 1
128 1
per 0.0836876954686087
Клет@@ 1
Румъ@@ 1
Стат@@ 1
архипе@@ 1
чуждестран@@ 1
1797 1
º 0.6296797540669068
куп 1
лоу 1
нем 0.7090602769901828
чев@@ 1
шир 1
ьой 1
Грен@@ 1
Торонто 1
демия 1
понти@@ 1
следствие 1
филосо@@ 1
Лион 1
НК 1
Наблю@@ 1
конферен@@ 1
привър@@ 1
Велич@@ 1
атов 1
джия 1
кала@@ 1
проверка 1
пропорциона@@ 1
църк@@ 1
Th@@ 0.09421887741713661
Алабама 1
Гел@@ 1
Манту@@ 1
Участник 1
горска 1
греб@@ 1
дене@@ 1
мец 1
напитки 1
основополож@@ 1
увеличение 1
Barbus 1
Ред 1
Рона@@ 1
даря 1
демон@@ 1
дошли 1
предназначена 1
риз@@ 1
стройство 1
хина 1
230 1
Бон 1
Дви@@ 1
Лици@@ 1
Орле@@ 1
Путин 1
Структура 1
мнозин@@ 1
предприя@@ 1
Ибра@@ 1
кандид@@ 1
транспорта 1
цензу@@ 1
1790 1
Зам@@ 1
Он@@ 1
вален@@ 1
жие 1
En@@ 0.09902723123884581
pr@@ 0.08785602420482223
взаим@@ 1
опери@@ 1
протест 1
рами@@ 1
Ex@@ 0.12273716383634724
фасада 1
Sh@@ 0.07801132216122625
гла 1
pi@@ 0.11854487169886377
Дева 1
Лие@@ 1
Нат@@ 1
кода 1
лири@@ 1
плаз@@ 1
режиси@@ 1
Оклахома 1
зака@@ 1
un@@ 0.024109372397114286
Лоренцо 1
авиацион@@ 1
ваку@@ 1
литур@@ 1
онов 1
преду@@ 1
пур 1
регла@@ 1
риев 1
хти@@ 1
чал 1
Di@@ 0.09855833425275122
впа@@ 1
простран@@ 1
тас 1
Капитан 1
москов@@ 1
1819 1
ha 0.06605645864918024
Беатри@@ 1
господство 1
индивида 1
лекси@@ 1
пенди@@ 1
родом 1
руд@@ 1
спери@@ 1
тла@@ 1
Канди@@ 1
конвенция 1
ционер 1
Люб@@ 1
ПК 1
небе@@ 1
поми@@ 1
фокуси@@ 1
107 1
j 0.21776366517094276
us@@ 0.06826084132716709
Алекси@@ 1
Бурун@@ 1
Канта@@ 1
Корпу@@ 1
Краков 1
Сигиз@@ 1
англо@@ 1
дуар@@ 1
Rock 0.25648094441132485
Иде@@ 1
друго@@ 1
завладе@@ 1
обору@@ 1
разновидности 1
имен@@ 1
обще 1
Вид 1
Константино@@ 1
интерфейс 1
кине@@ 1
участъ@@ 1
Моно@@ 1
ОК 1
Особ@@ 1
допи@@ 1
екзархи@@ 1
жден 1
параз@@ 1
политиче@@ 1
счита@@ 1
1833 0.8943573835226294
Британия 1
Император@@ 1
вариа@@ 1
провизи@@ 1
Клара 1
Хин@@ 1
поче@@ 1
1,2 1
1805 1
Бара@@ 1
Боро@@ 1
каби@@ 1
квалификация 1
мила 1
оперативно 1
офис 1
Робер 1
Соло@@ 1
руб@@ 1
статуи 1
Арена 1
Бенеди@@ 1
Мемо@@ 1
построено 1
хру@@ 1
Веле@@ 1
анг@@ 1
вати@@ 1
дано 1
дино 1
коко@@ 1
позити@@ 1
пропуска 1
пъти@@ 1
саксо@@ 1
6,@@ 0.6599284616832539
vi@@ 0.10886816047782644
Бун@@ 1
Жа@@ 1
Тимо@@ 1
Тюбин@@ 1
лари 1
мезо@@ 1
ске 0.5023023296298657
Un@@ 0.1165366107976245
te 0.027445154348934724
Анато@@ 1
Бет@@ 1
австро 1
продукции 1
сутри@@ 1
укрепления 1
хоре@@ 1
Вану@@ 1
Корей@@ 1
Юни@@ 1
абстрак@@ 1
купола 1
лодка 1
орто@@ 1
Le@@ 0.07540133661895632
Wrestling 0.6413927683408789
Верса@@ 1
Дур@@ 1
Посе@@ 1
Яку@@ 1
музеи 1
снаряд 1
305 1
Сели@@ 1
бри 1
зах@@ 1
канди@@ 1
мес 1
фит@@ 1
ДП 1
Уче@@ 1
интерни@@ 1
можем 1
проведена 1
термина@@ 1
v 0.13919001625178173
Вестфа@@ 1
комби@@ 1
паро@@ 1
строен@@ 1
Мале@@ 1
Нав@@ 1
Назна@@ 1
Таджикистан 1
Чай@@ 1
веще@@ 1
пр@@ 1
сувере@@ 1
титу@@ 1
Касти@@ 1
Кевин 1
дай@@ 1
звуко@@ 1
находи@@ 1
Java 0.9880711731330908
Se@@ 0.08368017516663873
Играл 1
Саксо@@ 1
анархи@@ 1
балет 1
верто@@ 1
вулкана 1
провер@@ 1
прогно@@ 1
реставри@@ 1
таун 1
цова 1
Хат@@ 1
бля@@ 1
гражда@@ 1
сети 1
уру 1
12@@ 0.44902210367119805
36@@ 0.9359459981114089
ula 0.4448984624017989
Цо@@ 1
отвле@@ 1
Джона@@ 1
або@@ 1
гала 1
княгиня 1
монта@@ 1
нар. 1
науча@@ 1
оса 1
религии 1
решено 1
ринга 1
1808 1
бала@@ 1
компонент 1
наказа@@ 1
организатор 1
повядва 1
процент 1
стали 0.4423701321708452
210 1
lu@@ 0.16328166922398898
oma 0.2928776956475853
Канзас 1
Роди@@ 1
варианта 1
венство 1
доста@@ 1
жд@@ 1
методи@@ 1
пнев@@ 1
проведено 1
сиро@@ 1
Геб@@ 1
мита 1
нева 1
статистиче@@ 1
банкно@@ 1
бук 1
мей 1
наместник 1
шич 1
яс 1
w 0.12560663465806024
Бло@@ 1
енер@@ 1
зархи@@ 1
математик 1
р.@@ 1
служеб@@ 1
НА 1
Състе@@ 1
адвокат@@ 1
анка 1
колум@@ 1
палео@@ 1
таблица 1
1816 0.971606085642223
Лонг 1
Оди@@ 1
ожесто@@ 1
1799 1
Бод@@ 1
Патриар@@ 1
Хасан 1
Чен@@ 1
тибе@@ 1
чиновник 1
Коман@@ 1
Лука@@ 1
Рин@@ 1
гун 1
ляните 1
натри@@ 1
нера 1
сест@@ 1
бараб@@ 1
композитора 1
лане 1
логически 1
понятия 1
правед@@ 1
рез 1
соло 1
Рем@@ 1
вокали@@ 1
йнс 1
мида 1
стат@@ 1
Mon@@ 0.09141727060788406
Рико 1
Франклин 1
хат@@ 1
1750 1
вта 1
гра 1
перифе@@ 1
първен@@ 1
хондри@@ 1
Инду@@ 1
Ирак@@ 1
Уайт 1
Филип@@ 1
аван@@ 1
диска 1
ком 0.210063562301896
леген@@ 1
пород@@ 1
публици@@ 1
сабон 1
40@@ 0.632756720757638
Гала@@ 1
Ква@@ 1
адап@@ 1
1796 1
Лод@@ 1
Саму@@ 1
Стефа@@ 1
единстве@@ 1
получили 1
стя@@ 1
текто@@ 1
шел 1
ca 0.13847841423308482
Закон@@ 1
СС@@ 1
Скри@@ 1
ак 1
обстрел 1
прозви@@ 1
1817 1
Str@@ 0.11336199437911339
Осман 1
Теофи@@ 1
геоде@@ 1
концентрация 1
ова 1
отказа@@ 1
патро@@ 1
покло@@ 1
ходство 1
34@@ 0.9039643892205902
Приме@@ 1
Разви@@ 1
Установ@@ 1
аранжи@@ 1
док 1
щет 1
Аляска 1
Библи@@ 1
губерния 1
зап@@ 1
запас 1
наса@@ 1
рати@@ 1
социализма 1
Am@@ 0.1032449266769306
Ага@@ 1
Ази@@ 1
Мур 1
Туркмени@@ 1
уи 1
Ph@@ 0.2013215776800078
Месопота@@ 1
авторство 1
pe@@ 0.1192168441273546
героиня 1
конструкции 1
синг@@ 1
bi@@ 0.07601414223586761
con@@ 0.05652606782806099
конкретно 1
радиус 1
Куз@@ 1
Моги@@ 1
Постоян@@ 1
Рома 1
оне 1
приве@@ 1
сати@@ 1
115 1
Юсти@@ 1
антарк@@ 1
инвестиции 1
темати@@ 1
Адамс 1
нарушение 1
нинген 1
прототип 1
уна 1
хре@@ 1
1826 0.9512101631903502
Бурбон 1
Кози@@ 1
Магде@@ 1
Сина@@ 1
Скоро@@ 1
заяв@@ 1
сприн@@ 1
si 0.09528113872496367
Топ@@ 1
кономи@@ 1
лод@@ 1
EP 0.31596695529606933
Бору@@ 1
Ромео 1
алге@@ 1
върх@@ 1
мари 1
нестаби@@ 1
qu@@ 0.0799853848125505
Аз@@ 1
Иисус 1
Кел@@ 1
ждите 1
лато 1
лус 1
int 0.7027995626722663
Вследствие 1
Ники 1
бара 1
видеоклип 1
нъж 1
реклама 1
свин@@ 1
фина 1
щу@@ 1
1801 0.9799700029120146
mo@@ 0.10529654291269147
Люби@@ 1
напит@@ 1
непри@@ 1
обогат@@ 1
отча@@ 1
товар 1
яма 1
Apple 0.6491248460363682
библиотеки 1
венти@@ 1
графика 1
пуска@@ 1
сол@@ 1
фоне@@ 1
1807 1
Бонапар@@ 1
Макла@@ 1
eg@@ 0.08550998101748175
Блу@@ 1
Брен@@ 1
РК 1
Чир@@ 1
назначение 1
сур@@ 1
щие 0.7916696268894506
яла 1
Бое@@ 1
Пие@@ 1
Противо@@ 1
Шах@@ 1
две@@ 1
Вя@@ 1
Гово@@ 1
Хир@@ 1
вит 1
дек 1
лаборато@@ 1
убед@@ 1
Аку@@ 1
Шампион@@ 1
Шон 1
англ 1
заключ@@ 1
кук@@ 1
рах 0.639023056450611
Построен 1
Православ@@ 1
зис 1
работо@@ 1
Пото@@ 1
Пробле@@ 1
вампи@@ 1
полуфинал 1
сирий@@ 1
скандина@@ 1
35@@ 0.6602323937176152
Гиз@@ 1
Кап@@ 1
звания 1
кна 1
насеком@@ 1
рако@@ 1
султана 1
Ne@@ 0.10772570455754142
ens 0.053052683927271374
Чан@@ 1
езда@@ 1
конфигу@@ 1
пий 1
репре@@ 1
Турни@@ 1
Филипи@@ 1
архимандрит 1
нане@@ 1
проб@@ 1
слова@@ 1
Казимир 1
Литера@@ 1
Църк@@ 1
Шам@@ 1
меч 1
несение 1
характера 1
260 1
Плей@@ 1
ентъ@@ 1
климата 1
репор@@ 1
Гуан@@ 1
Мун@@ 1
хам 1
Конвен@@ 1
бактерии 1
веков@@ 1
стройка 1
550 1
Can@@ 0.2004081873215943
Entertainment 0.3605043885264038
Книга 1
нео 1
системати@@ 1
1635 1
Аризона 1
Я 0.6923892957595837
баси@@ 1
жин@@ 1
лада 1
хате@@ 1
яро@@ 1
11,@@ 0.9079087943852128
Алта@@ 1
компенси@@ 1
р. 1
чек 1
1648 1
650 1
Петер@@ 1
развит 1
сценария 1
еже@@ 1
протокол 1
цк 1
Магнус 1
Фолк@@ 1
драматур@@ 1
литературно 1
модерна 1
новременно 1
привиле@@ 1
разреша@@ 1
Соко@@ 1
Тури@@ 1
анс 1
направи@@ 1
1804 1
Лот@@ 1
Родри@@ 1
интри@@ 1
ору@@ 1
риско@@ 1
учителя 1
Преоблада@@ 1
назем@@ 1
подразделение 1
рое 1
ура@@ 1
ях 0.49604973664910224
блока@@ 1
вей@@ 1
гуа 1
кля@@ 1
лила 1
минима@@ 1
плюс 1
omys 1
заса@@ 1
имуще@@ 1
паке@@ 1
Зу@@ 1
баланс 1
гъла 1
куку@@ 1
Денис 1
безопас@@ 1
бс 1
разделение 1
1794 1
25@@ 0.6221023067564857
зира@@ 1
кури@@ 1
порода 1
270 1
ax 0.45886767601321227
bo@@ 0.07426005947535551
банов 1
новение 1
нян 1
прибав@@ 1
саксон@@ 1
схва@@ 1
Адриати@@ 1
Основана 1
или@@ 1
рар@@ 1
физ@@ 1
МиГ 1
Наталия 1
Плани@@ 1
Тобаго 1
командира 1
остро 1
ското@@ 1
car@@ 0.07331148251490686
Рузве@@ 1
Учред@@ 1
Яр@@ 1
кация 1
призо@@ 1
стандарти@@ 1
фабрики 1
фун@@ 1
язови@@ 1
ni@@ 0.10774734467798318
Бед@@ 1
Вера 1
кату@@ 1
преце@@ 1
удостоена 1
se 0.006216349315990542
кардина@@ 1
курса 1
неизвестен 1
религиозно 1
330 1
380 1
ei 0.19270773369144067
Благове@@ 1
Ся@@ 1
ведом@@ 1
дизе@@ 1
интереса 1
пили 1
хон@@ 1
Лев 1
графо@@ 1
ото@@ 1
пада@@ 1
плей@@ 1
2.@@ 0.21430563214474466
Севи@@ 1
Сне@@ 1
атак@@ 1
гано 1
излож@@ 1
раста@@ 1
султан@@ 1
тум 1
1791 1
Пове@@ 1
Рикар@@ 1
иначе 1
необходима 1
сената 1
цвет 1
123 1
ad 0.08293358591581242
cus 0.6430368977094448
Виз@@ 1
Розен@@ 1
квалифици@@ 1
кисло@@ 1
стеро@@ 1
ov@@ 0.12199429788102814
абсолютно 1
загра@@ 1
рун@@ 1
учебно 1
Q 0.3296112438638049
Дуна@@ 1
Остин 1
Роберто 1
Филосо@@ 1
Шума@@ 1
верси@@ 1
казар@@ 1
клон@@ 1
II@@ 0.9876926699095435
Per@@ 0.0913304579340042
ator 0.08751426132991513
Дин@@ 1
Император 1
Перу@@ 1
слави@@ 1
сора 1
io 0.12699016833977414
Бобо@@ 1
взаимоотношения 1
вокалист 1
ксе@@ 1
ктора 1
успоко@@ 1
шеф 1
13,@@ 0.8224574811793246
Андреас 1
Илинден@@ 1
Мона@@ 1
Фут@@ 1
Ям@@ 1
бок@@ 1
бус 1
кинг 1
разу@@ 1
раке@@ 1
111 1
era 0.038537487808940556
Арханге@@ 1
Астро@@ 1
Госпо@@ 1
Куку@@ 1
Литератур@@ 1
Паоло 1
риса 1
тение 1
Le 0.015763645924302547
und 0.0027683492192215223
Биз@@ 1
Грант 1
Пил@@ 1
Популяр@@ 1
ФА 1
кви@@ 1
курорт 1
натура@@ 1
публицист 1
танк 1
терн 1
Мир 1
брата 1
фу 1
12,@@ 0.8541482692268312
1772 1
ation 0.018611466322916853
ch 0.06501576325450441
Арти@@ 1
детекти@@ 1
макро@@ 1
пару@@ 1
поражения 1
хова 1
чаров 1
De@@ 0.0889795273960601
gr@@ 0.07834894609249542
Администра@@ 1
азбу@@ 1
имущество 1
кум 1
маркси@@ 1
пропаганд@@ 1
14@@ 0.45927752572227964
tis 0.283857300159186
Ник 1
батарея 1
бюдже@@ 1
лову@@ 1
оксид 1
предо@@ 1
титуляр@@ 1
уз 1
щу 1
Вак@@ 1
Име@@ 1
Пиро@@ 1
Юно@@ 1
бон 1
1824 0.8798330887589277
33@@ 0.8026514395239448
Дона 1
Изо@@ 1
емигри@@ 1
синхро@@ 1
яно 1
Академик 1
Вся@@ 1
СА@@ 1
Университет 1
общи@@ 1
чества 1
1680 1
od@@ 0.10453531634049915
Цу@@ 1
раса 1
стой 1
WWF 1
Венециан@@ 1
Оцен@@ 1
ате 1
бка 1
мно@@ 1
уш 1
1576 1
1798 1
Дро@@ 1
клин 1
Tro@@ 0.2815973158224535
ach@@ 0.08365256402933315
СА 1
Франсиско 1
гай@@ 1
инструкции 1
кевич 1
одобрение 1
приятеля 1
унд@@ 1
аудито@@ 1
блъ@@ 1
корпу@@ 1
кун@@ 1
мура 1
тено 1
.-@@ 1
1634 1
1660 1
De 0.0649937471521318
Micro@@ 0.8727383777749763
Зат@@ 1
зания 1
лук 1
отказ 1
синтез 1
сю@@ 1
юни@@ 1
135 1
1827 0.9482436371830898
Ави@@ 1
Казан@@ 1
Тин@@ 1
буд@@ 1
взи@@ 1
кипе@@ 1
хип 1
Фай@@ 1
Ход@@ 1
кале 1
материа@@ 1
множе@@ 1
пропа@@ 1
станови@@ 1
тотали@@ 1
уточ@@ 1
цина 1
1823 0.9644126828727623
XXI 1
Федерация 1
Щер@@ 1
дет 1
кало@@ 1
модернизи@@ 1
същност 1
целя@@ 1
112 1
za 0.13534719016886917
І@@ 1
Жанейро 1
зага@@ 1
зун@@ 1
уса 1
Ино@@ 1
Мой@@ 1
Нике@@ 1
Окс@@ 1
Пантеле@@ 1
атлан@@ 1
кипа@@ 1
15,@@ 0.9209802414276882
1640 1
авари@@ 1
дане 1
диапазон 1
познания 1
Qu@@ 0.09992936756797371
кмета 1
1688 1
Кън@@ 1
Осло 1
вация 1
ист 1
строен 1
уважение 1
хоп 1
ют 0.16221239180893357
No 0.15563329609692825
Нобе@@ 1
Проте@@ 1
дела@@ 0.9661748980560163
мотив 1
никс 1
префектура 1
чинов@@ 1
1570 1
203 1
37@@ 0.8521707332848402
Джер@@ 1
Пап@@ 1
Уста@@ 1
Худо@@ 1
докторан@@ 1
мизи@@ 1
оказа@@ 1
приключен@@ 1
стол 1
Двой@@ 1
Пий 1
Финан@@ 1
Франс 1
ежеднев@@ 1
ест 1
запаса 1
инжен@@ 1
175 1
Оке@@ 1
Сприн@@ 1
Фокс 1
Швед@@ 1
боро@@ 1
вакан@@ 1
1780 1
br@@ 0.06023555492521335
Крепо@@ 1
Сици@@ 1
аро 1
герб 1
закреп@@ 1
шот@@ 1
щин@@ 1
3D 0.6171369266675174
Доне@@ 1
Монт@@ 1
Сци@@ 1
монго@@ 1
ринг@@ 1
шлем 1
8000 1
Оси@@ 1
Патри@@ 1
мас@@ 1
1530 1
Маг@@ 1
Майер 1
отлично 1
спир@@ 1
Арка@@ 1
Капи@@ 1
Корин@@ 1
Сво@@ 1
добровол@@ 1
недвижи@@ 1
реконструкция 1
челю@@ 1
oides 0.8397093687974125
Ками@@ 1
Монре@@ 1
люция 1
облик 1
Company 0.1147881863991881
ore 0.13057776508561258
ДК 1
Лас 1
бро 1
небург 1
ного 0.05719368997392945
сочи@@ 1
туна 1
Прован@@ 1
лео@@ 1
1606 1
бизнесмен 1
жете 1
роу 1
титуля@@ 1
Дос@@ 1
ангел 1
теля 1
шоко@@ 1
Музея 1
Онтарио 1
дизайна 1
пала 1
ra 0.056340193353446845
Иници@@ 1
Каби@@ 1
бино 1
влияния 1
несота 1
чет 1
124 1
1763 1
Or@@ 0.09925239580834173
Скала 1
вокал 1
единени 1
енс 1
инер@@ 1
наход@@ 1
нидер@@ 1
паде@@ 1
пейзажи 1
Кори@@ 1
Тихоокеан@@ 1
Чал@@ 1
арк@@ 1
бери 1
брук 1
дистри@@ 1
к. 1
цито@@ 1
1676 1
1802 0.9556194293601417
so@@ 0.11289928516435849
Ила@@ 1
Коз@@ 1
Места 1
лакти@@ 1
логии 0.8650435797375752
ориента@@ 1
семе@@ 1
хек@@ 1
7,5 1
ides 0.14461280744549063
si@@ 0.09954777658457267
Скандина@@ 1
дият 1
окла@@ 1
сля@@ 1
AC 0.2770433069795178
РО 1
англо 1
дого@@ 1
матът 1
нести 1
сюжет 1
1809 0.9185806811008237
Абу 1
говорите 1
нула 1
скопи@@ 1
Антвер@@ 1
Франко 1
Шал@@ 1
албу@@ 1
вете@@ 1
пела@@ 1
структур@@ 1
сян 1
ула@@ 1
уравнения 1
хромо@@ 1
22@@ 0.7567392396306625
ОС 1
няк 1
отстоя@@ 1
пно 1
положен 1
риат 1
стик 1
ie 0.03685320887061055
СО 1
деса 1
ира 1
конфлик@@ 1
лектри@@ 1
обши@@ 1
перспекти@@ 1
разуме@@ 1
словно 1
спад 1
Импера@@ 1
стрелка 1
114 1
Br@@ 0.07643954002597515
Знач@@ 1
Тир@@ 1
ализация 1
арми@@ 1
декан 1
записана 1
пиз@@ 1
10.@@ 0.4110876953818422
Кому@@ 1
Тита@@ 1
Чудо@@ 1
силвания 1
снаря@@ 1
соб@@ 1
ati@@ 0.10592521448988593
ep@@ 0.10977308714527707
Марта 1
военноплен@@ 1
жандар@@ 1
лков 1
развито 1
117 1
17,@@ 0.8879691361930545
à 0.0039009317488257512
Армстро@@ 1
Гибрал@@ 1
Рок 1
бек@@ 1
некти@@ 1
пана 1
разновид@@ 1
редакция 1
1650 1
Pro@@ 0.1073247965503043
Карпат@@ 1
вземането 1
реконструи@@ 1
уми@@ 1
яваща 1
1623 1
Фрон@@ 1
бира@@ 1
грав@@ 1
кисе@@ 1
кодекс 1
кух@@ 1
сери@@ 1
сперан@@ 1
стинг 1
указа@@ 1
Развитие 1
записано 1
зв@@ 1
интен@@ 1
модели@@ 1
флоти@@ 1
Кастилия 1
инцидента 1
нити 1
Аф@@ 1
Поле@@ 1
антро@@ 1
отказа 1
1618 1
aria 0.1833403196401029
КО@@ 1
архиеписко@@ 1
казано 1
мад 1
фору@@ 1
циан@@ 1
Война 1
Приз@@ 1
измене@@ 1
инструктор 1
македо@@ 1
мероприятия 1
модификации 1
плата 1
сне 1
ству@@ 1
16@@ 0.4367054722745231
Михай@@ 1
дефи@@ 1
дман 1
раст 1
соз@@ 1
теч@@ 1
яр 1
ans 0.03313873913412944
Тим 1
лович 1
пави@@ 1
понен@@ 1
спора 1
хле@@ 1
чат@@ 0.9455079466537948
Ser@@ 0.14772273574307587
no 0.017949900409967894
Цин@@ 1
баскет@@ 1
риф 1
снего@@ 1
1740 1
КА 1
кане 1
разбой@@ 1
рино 1
→ 0.9427329442169206
School 0.04565815212296788
Вед@@ 1
Диана 1
Ита@@ 1
РС@@ 1
глюко@@ 1
дивизион@@ 1
зов@@ 1
мага@@ 1
пера@@ 1
пох@@ 1
Каси@@ 1
Категория 1
Строе@@ 1
време@@ 1
усло@@ 1
хирурги@@ 1
цифро@@ 1
av@@ 0.06060960094453914
Албу@@ 1
Герман 1
Партия 1
Поня@@ 1
виса 1
притво@@ 1
1787 1
Гарсия 1
Квебек 1
Срав@@ 1
гес 1
капитал 1
1770 1
38@@ 0.7879686923747145
osa 0.17237188586180643
Брак 1
Ора@@ 1
ава@@ 1
бег 1
коме@@ 1
нукле@@ 1
зена 1
Cr@@ 0.13878368772976202
WTA 1
oth@@ 0.24323957593416218
Еф@@ 1
лям 1
невероя@@ 1
неж@@ 1
самоубийство 1
харти@@ 1
Time 0.2680970403198167
Концер@@ 1
Тара@@ 1
бря@@ 1
мора 1
рези@@ 1
сус 1
As@@ 0.10285757442644654
do 0.04357732328367034
phus 1
Мок@@ 1
Порт@@ 1
амино@@ 1
жило 1
сфери@@ 1
терапев@@ 1
Бургун@@ 1
Гим@@ 1
Конструкция 1
Средновекови@@ 1
рике 1
фар 1
Атлетико 1
Евдо@@ 1
дзе 1
персонаж 1
татар@@ 1
Леонид 1
атор@@ 1
неблагоприя@@ 1
подразде@@ 1
yl@@ 0.15260922146541508
конференции 1
разда@@ 1
туризма 1
унт 1
1610 1
ka 0.07878228838425506
Анали@@ 1
Виш@@ 1
Кариб@@ 1
Уит@@ 1
док@@ 1
жди 1
Луиджи 1
Ту 1
барон 1
ложение 1
природо@@ 1
сьор 1
1625 1
Види@@ 1
Люксем@@ 1
придвор@@ 1
референдум 1
филд 1
Андреев 1
Сент 1
като@@ 1
проло@@ 1
самоуправление 1
14,@@ 0.7999108504914244
1632 1
1774 1
ον 1
Антан@@ 1
Квин@@ 1
МИ@@ 1
Фабри@@ 1
дейл 1
инци@@ 1
мористи@@ 1
порти@@ 1
ј@@ 1
1768 1
бад 1
индуст@@ 1
символизи@@ 1
щал 1
щате@@ 1
ent@@ 0.049328059884941114
Темпера@@ 1
воли 1
герои@@ 1
дта 1
капа@@ 1
миз@@ 1
нберг 1
соли 1
шед@@ 1
16,@@ 0.8775711530303604
Кастро 1
Непосред@@ 1
Фей@@ 1
екто@@ 1
фотография 1
tor@@ 0.10376543664195084
Избра@@ 1
Млад@@ 1
Расте@@ 1
бис 1
експлоата@@ 1
каро@@ 1
потока 1
рел@@ 1
рили 1
тун 1
Ч 1
ада@@ 1
красо@@ 1
пал 1
яние 1
ii 0.6624082735477763
СБ@@ 1
миров 1
нена@@ 1
страст@@ 1
физиологи@@ 1
явно 1
7000 1
ani 0.11706146938577856
Блей@@ 1
Петрова 1
Фернан@@ 1
Цице@@ 1
дера 1
каде@@ 1
пиг@@ 1
пр.н@@ 1
Vi@@ 0.18533629881398295
Калу@@ 1
воз@@ 0.24681638143125254
построе@@ 1
привлекате@@ 1
разработки 1
слово 1
1560 1
tra 0.18343656026703967
Глу@@ 1
Кейт 1
СИ@@ 1
г.@@ 1
нужно 1
работка 1
сатири@@ 1
шли 1
Васили@@ 1
Голд@@ 1
РИ@@ 1
СТ@@ 1
вице 1
забо@@ 1
заседа@@ 1
нт 1
пише@@ 1
сент 1
13@@ 0.4068769057678995
50@@ 0.48935410296017867
ация 1
гент 1
рован 0.6507915876756568
тихо@@ 1
1776 1
Архе@@ 1
Вита@@ 1
Лове@@ 1
секции 1
Антония 1
Директор 1
винов@@ 1
гля@@ 1
квизи@@ 1
лесо@@ 1
пие 1
референ@@ 1
Око@@ 1
впис@@ 1
дара 1
отражение 1
притока 1
1775 1
1811 0.8846387768156978
деж@@ 1
десети@@ 1
критики 1
надеж@@ 1
описана 1
рь@@ 1
спер@@ 1
събо@@ 1
25,@@ 1
480 1
del 0.00631698568358624
Ей 1
Леон@@ 1
ждан@@ 1
кварти@@ 1
мик 1
1616 1
ps 0.1315001254446502
Барба@@ 1
Бин@@ 1
Психо@@ 1
Флора 1
дубла@@ 1
€ 0.6058392797512936
Азиат@@ 1
Ару@@ 1
Сра@@ 1
бай 1
дя 1
ина 1
кологи@@ 1
Илин@@ 1
Свобода 1
спокойно 1
статистически 1
стояние 1
Li@@ 0.12214675143958631
Кил@@ 1
Контро@@ 1
Образ@@ 1
Отец 1
Чап@@ 1
доставки 1
риска 1
стере@@ 1
форм@@ 1
Empire 0.16609148683576272
SS 0.275139049842497
Уим@@ 1
Фур@@ 1
включено 1
инструк@@ 1
подобие 1
пор 0.8963538517319003
фармацев@@ 1
ярко 1
1630 1
Каре@@ 1
Независи@@ 1
Прогре@@ 1
глад@@ 1
душе@@ 1
хат 1
aur@@ 0.2964059975541929
Детро@@ 1
Соф@@ 1
Сур@@ 1
жу 1
лито@@ 1
мара@@ 1
ная 0.06311749756804294
посещения 1
Bar@@ 0.0657298507557701
ai 0.07907347788788288
à@@ 1
Ало@@ 1
Ви 1
Окта@@ 1
Рига 1
Убий@@ 1
излиш@@ 1
тус 1
12.@@ 0.5618916473604211
Каса@@ 1
Место@@ 1
Пазар@@ 1
архие@@ 1
казал 1
ate 0.023418142337205707
дискримина@@ 1
кав@@ 1
Й 1
бово 1
велосипе@@ 1
врага 1
неподви@@ 1
1701 1
ЕЛ@@ 1
ИК 1
Петрович 1
Центра@@ 1
низа@@ 1
нок@@ 1
шеб@@ 1
em 0.08668990624343656
ne 0.026846909035099738
Там@@ 1
нете 1
рт 1
Нами@@ 1
биоти@@ 1
ваго@@ 1
покуп@@ 1
раж 1
удосто@@ 1
фик@@ 1
yr@@ 0.25561322157983773
Папа 1
Ря@@ 1
Шел@@ 1
зора 1
фраз@@ 1
чести@@ 1
American 0.028151819813057342
ni 0.09875657136062765
БМ@@ 1
Зад@@ 1
Политбюро 1
апте@@ 1
заложен 1
кет@@ 1
майстор@@ 1
с. 1
121 1
1598 1
1788 1
osus 1
алгорит@@ 1
докумен@@ 1
лежат 1
лечеб@@ 1
банк 1
шал@@ 1
1627 1
Квар@@ 1
правосла@@ 1
суро@@ 1
тенденции 1
шер 1
1683 1
IBM 0.8694636945005855
mar@@ 0.08057417392518704
Шин@@ 1
блу@@ 1
Робин@@ 1
Серафи@@ 1
писания 1
удара 1
щината 1
NO@@ 0.5054956381483094
Sc@@ 0.20229296248030249
ref 0.40802327985490744
Командир 1
Препода@@ 1
Раду@@ 1
Уру@@ 1
кур 1
повтор@@ 1
условно 1
1651 1
MS 0.3577489372603771
Sp@@ 0.11187236751298672
com@@ 0.08385672733704091
Гаври@@ 1
Законодате@@ 1
Известна 1
Курт 1
ПО 1
Служба 1
ская 0.075329759014408
фамилии 1
яз@@ 1
1540 1
Бах@@ 1
Гау@@ 1
Лун@@ 1
РНК 1
порт@@ 1
разо@@ 1
следванията 1
цикло@@ 1
Аби@@ 1
Канад@@ 1
Хоу@@ 1
мпе@@ 1
нич 1
обвинение 1
Зар@@ 1
Ум@@ 1
изменение 1
фт@@ 1
Бар 1
Дит@@ 1
СИ 1
вмест@@ 1
депор@@ 1
мели@@ 1
Pi@@ 0.13346392288137446
Леона@@ 1
Мау@@ 1
sus 0.034580385723067944
Декла@@ 1
Постро@@ 1
комендан@@ 1
короно@@ 1
никова 1
разговор 1
характеристи@@ 1
шенко 1
Времен@@ 1
Институ@@ 1
Лейк 1
Луизи@@ 1
Пти@@ 1
Рат@@ 1
заба@@ 1
инфор@@ 1
облож@@ 1
тони 1
Двигате@@ 1
СК@@ 1
СП 1
оно@@ 1
цирку@@ 1
цово 1
1667 1
XX@@ 1
балти@@ 1
душа 1
метро 1
резерв 1
риста 1
118 1
1450 1
1567 1
Hot 0.3083268067757334
Традиционно 1
Харт@@ 1
Шах 1
ISO 0.9912133184242753
Гли@@ 1
Мага@@ 1
Меха@@ 1
вон 1
лаков 1
неш@@ 1
цари@@ 1
Андро@@ 1
Лак@@ 1
Служ@@ 1
избира@@ 1
кла 1
метаболи@@ 1
ответ@@ 1
сад@@ 1
1638 1
vir@@ 0.32090967086411026
Комп@@ 1
допу@@ 1
достиг 1
нометра@@ 1
1704 1
Ag@@ 0.16825892790104974
Mark 0.16588269686484505
Брази@@ 1
Жене@@ 1
Исма@@ 1
Яна 1
город@@ 0.7252284414992939
зоо@@ 1
ключ 1
латви@@ 1
нормати@@ 1
чии 1
Of 0.26595719337276996
ine 0.039056445550841784
ini 0.10912523713887834
Как 0.5052244307832958
агро@@ 1
лана 1
причис@@ 1
фора 1
хват@@ 1
5,5 1
Дем@@ 1
препра@@ 1
вник 1
женит@@ 1
привет@@ 1
тряб@@ 1
15@@ 0.4216869987764752
Lo@@ 0.1208337242014706
gi@@ 0.11957750396303798
Од@@ 1
Рит@@ 1
аре 1
дро 1
ибн 1
магазина 1
тона@@ 1
118@@ 1
1550 1
cor@@ 0.08170717692798164
ter 0.03493033489574971
Иг@@ 1
ежегод@@ 1
симпати@@ 1
1622 1
SI 0.962184537772824
АН@@ 1
Абду@@ 1
Ами@@ 1
Граф@@ 1
Запада 1
атом 1
инспек@@ 1
пожела@@ 1
1605 1
Mo@@ 0.09682090674168917
biidae 1
Каш@@ 1
Мексикан@@ 1
вията 1
дере@@ 1
констру@@ 1
пианист 1
словие 1
шева 1
1526 1
1631 1
1665 1
du@@ 0.11810776038263132
Сира@@ 1
Скар@@ 1
Шек@@ 1
гона 1
рации 1
стимули@@ 1
129 1
155 1
Cyprinidae 1
Disney 0.33781137366570146
MHz 1
me 0.06000440735133803
Ил 1
Карло@@ 1
Симп@@ 1
Фле@@ 1
втор@@ 1
въгли@@ 1
ландшаф@@ 1
маро@@ 1
намест@@ 1
офице@@ 1
спра@@ 1
финиши@@ 1
шат@@ 1
For@@ 0.0973891156326467
Диско@@ 1
лект@@ 1
ориги@@ 1
ренно 1
топли@@ 1
цате@@ 1
1585 1
МА 1
РУ 1
Сокра@@ 1
леднико@@ 1
1619 1
Go@@ 0.14399781277100313
tidae 1
дай 1
неизвестна 1
неното 1
присво@@ 1
репли@@ 1
вес@@ 1
достовер@@ 1
н.@@ 1
наро@@ 1
ский 0.04827099131511297
1783 1
19,@@ 1
Network 0.3236601128949842
Герой 1
Неф@@ 1
але 1
енко 1
закуп@@ 1
написано 1
броненос@@ 1
мул@@ 1
надле@@ 1
русали@@ 1
тара@@ 1
1636 1
Ет@@ 1
Фишер 1
Шарло@@ 1
вещи 1
дром 1
прила@@ 1
Севасто@@ 1
възгле@@ 1
рун 1
ver@@ 0.023614776857117676
Павлович 1
баланси@@ 1
пина 1
ропо@@ 1
хон 1
1568 1
man 0.02270424176576326
Автомоби@@ 1
Анг@@ 1
Славян@@ 1
лицензи@@ 1
лси 1
полуфинала 1
полю@@ 1
свръ@@ 1
стани@@ 1
тираж 1
Pr@@ 0.08582166418966058
Грей 1
арест 1
гина@@ 1
персонажи 1
софту@@ 1
шествие 1
1620 1
1668 1
Po@@ 0.11687205648809305
Су 1
дз@@ 1
заменя@@ 1
кта 1
куби@@ 1
луч@@ 1
мь@@ 1
1711 1
Tur@@ 0.15790206916131375
АП 1
Кав@@ 1
второстепен@@ 1
катор 1
уравнение 1
1666 1
Афа@@ 1
ампли@@ 1
атлети@@ 1
неравно@@ 1
плението 1
1785 1
Михайлов@@ 1
войско@@ 1
градо@@ 1
джик 1
кантон 1
лаге@@ 1
мам 1
рово@@ 1
слер 1
1559 1
БР 1
Еману@@ 1
Лопес 1
Оксфор@@ 1
Саха@@ 1
Юг 1
зачислен 1
лад 1
леп 1
старин@@ 1
1569 1
1621 1
1661 1
Доку@@ 1
них 0.15433290171383024
оро@@ 1
IP 0.5039135534352748
du 0.004773445206337984
ers 0.01892384486763133
ФИФА 1
жим 1
маркетин@@ 1
пу 1
сну@@ 1
спорт@@ 1
стипен@@ 1
1612 1
1670 1
RA@@ 0.3318532721427802
sp@@ 0.060693488527199246
Мад@@ 1
ветери@@ 1
наследника 1
прови@@ 1
1595 1
Linux 0.7812266405786561
Лоб@@ 1
Пушкин 1
дюй@@ 1
зара@@ 1
преки 1
Gr@@ 0.07761392115373553
yn@@ 0.20115909326714002
Олег 1
оле@@ 1
фео@@ 1
1250 1
Acro@@ 1
Аа@@ 1
Председате@@ 1
бомбардиров@@ 1
герба 1
канали@@ 1
факто 1
базо@@ 1
имити@@ 1
метра@@ 1
развали@@ 1
убил 1
умно@@ 1
1547 1
18,@@ 0.9173529328716135
tes 0.05404131071707615
Дик@@ 1
Ленинград@@ 1
лауреат 1
39@@ 0.7690369054101368
ho@@ 0.09819938796107963
Сали@@ 1
Сбор@@ 1
Южно 1
актри@@ 1
библей@@ 1
дю 1
лам 1
лън@@ 1
норма 1
страции 1
1536 1
1715 1
20,@@ 0.9863007574602317
Жозеф 1
Обра@@ 1
дир 1
листо@@ 1
финан@@ 1
1,6 1
1572 1
6,5 1
Ca@@ 0.36940054090069957
Man 0.14252827308355356
Tri@@ 0.13079886081459904
КС 1
Лорен@@ 1
Минск 1
ПВО 1
Роза 1
бере@@ 0.7209310697592395
дъщер@@ 1
яйце@@ 1
′ 1
Робин 1
вир@@ 1
победителя 1
свит@@ 1
яну@@ 1
1626 1
1686 1
Год@@ 1
СБ 1
Сталин@@ 1
индек@@ 1
пра 1
1675 1
1784 1
Право@@ 1
гва@@ 1
декват@@ 1
оче@@ 1
пакет 1
пиани@@ 1
раздел 1
1769 1
On 0.019158342339387013
è@@ 0.33205905076369435
авангар@@ 1
инстру@@ 1
организ@@ 1
пява 1
Вли@@ 1
вила@@ 1
палестин@@ 1
плато@@ 1
сго@@ 1
щена 1
1590 1
340 1
Be@@ 0.05826595783713803
Com@@ 0.08373316346711678
pra@@ 1
Еврази@@ 1
Симо@@ 1
Хит@@ 1
дзу@@ 1
прикреп@@ 1
Генера@@ 1
тива 1
165 1
sch@@ 0.040183743030305384
Хун@@ 1
лич 1
сигна@@ 1
116 1
AS@@ 0.21890120817010333
Баку 1
Замест@@ 1
вни@@ 1
кабе@@ 1
контей@@ 1
пож@@ 1
пори@@ 1
спар@@ 1
сценарии 1
тита@@ 1
ху 1
1521 1
1699 1
mon@@ 0.05371229623050604
вое 0.44477205941027326
дека@@ 1
знака 1
кати@@ 1
проводи@@ 1
Cichlidae 1
Times 0.16730023963642437
Лав@@ 1
Спен@@ 1
батальона 1
борец 1
бур 1
веща@@ 1
видо@@ 1
сена@@ 1
1492 1
Die 0.008955651291510389
lar@@ 0.17983954819975742
джун@@ 1
епископа 1
наименования 1
сепара@@ 1
122 1
ce 0.02482847583517372
cu@@ 0.0950807937255202
} 0.33353810597519434
£ 0.21879397736426215
Багда@@ 1
разкоп@@ 1
рама 1
типо@@ 1
ulus 0.7904248693253
АР@@ 1
ЮАР 1
оба 1
пович 1
хронологи@@ 1
1538 1
1637 1
1722 1
Раст@@ 1
газ@@ 1
концеп@@ 1
PC 0.29203495362423026
Адми@@ 1
Офи@@ 1
Чере@@ 1
заблу@@ 1
инвали@@ 1
кио 1
музи@@ 1
постановка 1
предвод@@ 1
провода 1
Ge@@ 0.09780218551998249
are 0.007407004626067992
Военно 1
ловина 1
нито@@ 1
ях@@ 1
1,3 1
DJ 0.46744232723222634
Като@@ 1
арки 1
бул@@ 1
генерал@@ 1
ние@@ 1
cop@@ 0.3344578744736113
ion 0.1372765726885628
крипто@@ 1
литературо@@ 1
цей 1
1480 1
1577 1
1664 1
КБ 1
Усп@@ 1
вме@@ 1
зу 0.762590250425252
резолю@@ 1
фрей@@ 1
ist@@ 0.10713690534683883
Абдул 1
Ола@@ 1
кума 1
летие 1
манифе@@ 1
перспек@@ 1
плоско@@ 1
полупровод@@ 1
танков 1
геноци@@ 1
привилеги@@ 1
1580 1
m2 1
tic@@ 0.18596492513217297
Глаз@@ 1
Никита 1
дт 1
привати@@ 1
спектак@@ 1
1757 1
Григо@@ 1
Прай@@ 1
детство 1
жур@@ 1
социация 1
фрид 1
1690 1
ne@@ 0.07186853815485666
α 0.32194311142611315
Гин@@ 1
Зор@@ 1
ганов 1
интервен@@ 1
кома 0.9445510561545213
нано@@ 1
рентге@@ 1
риал 1
133 1
145 1
1603 1
1744 1
1762 1
ran@@ 0.11666002826637109
ya 0.029473053361736386
библи@@ 1
биз@@ 1
обмен@@ 1
1607 1
1689 1
Кури@@ 1
Николаев 1
Фина@@ 1
фаво@@ 1
1649 1
To 0.13275783147386208
Your 0.4215595371133843
Лок@@ 1
Хло@@ 1
бога 1
ирак@@ 1
кай 1
рефлек@@ 1
Бенга@@ 1
вирус@@ 1
гам@@ 1
голо@@ 0.99953747557475
лондон@@ 1
народо@@ 1
eb@@ 0.0710250761941312
Ка 1
Моцар@@ 1
Президент 1
енто@@ 1
импе@@ 1
назначена 1
1453 1
1643 1
1767 1
гви@@ 1
написал 0.9002118319931265
115@@ 1
1778 1
Cer@@ 0.2163979519094685
do@@ 0.10281831100843015
ent 0.02035612613351543
Академи@@ 1
комплект 1
0.@@ 0.13869225060285095
1633 1
1743 1
27,@@ 1
Мах@@ 1
аква@@ 1
величе@@ 1
Mal@@ 0.08358695240459844
tica 0.20138212130495925
Побе@@ 1
Тет@@ 1
онто@@ 1
разногла@@ 1
сило@@ 1
склад 1
съста@@ 1
1673 1
1786 1
Аро@@ 1
Португа@@ 1
катали@@ 1
пеше@@ 1
скар@@ 1
los@@ 0.34844001299255456
uridae 1
Дис@@ 1
Зву@@ 1
НА@@ 1
Нин@@ 1
Теория 1
лейбу@@ 1
ходи@@ 1
1586 1
1659 1
MTV 0.5424487444739644
Ro@@ 0.08824136469199063
chem 1
Воло@@ 1
Нек@@ 1
Сун@@ 1
Франк@@ 1
126 1
406 1
Кой@@ 1
азербайджан@@ 1
извле@@ 1
1702 1
Te@@ 0.10163240023517539
Нови@@ 1
клат@@ 1
небес@@ 1
неизбе@@ 1
питан@@ 1
1737 1
станов@@ 1
1766 1
225 1
é 0.018930389375827878
Камчат@@ 1
Развити@@ 1
мик@@ 1
1,8 1
1663 1
1707 1
US@@ 0.2546161973724861
oni 0.23876780724422622
te@@ 0.06318712131828222
Вени@@ 1
Куро@@ 1
Нет@@ 1
стара@@ 1
флей@@ 1
1535 1
28,@@ 1
45@@ 0.6504249834759895
por@@ 0.13140452398274372
Дела@@ 1
Лоу@@ 1
атрибу@@ 1
капаците@@ 1
огъ@@ 1
публикация 1
уязви@@ 1
1503 1
1672 1
FI@@ 0.39367754226931745
ius 0.331613807398852
ПП 1
Тбилиси 1
бик 1
драт 1
об 0.2866093052738459
сад 1
144 1
1735 1
Колумби@@ 1
Пак@@ 1
документа 1
иниции@@ 1
окра@@ 1
театра@@ 1
1712 1
Томп@@ 1
Яну@@ 1
династи@@ 1
имено@@ 1
увен@@ 1
113 0.9612245064902302
1563 1
1604 1
1748 1
NXT 1
годи@@ 1
ив@@ 1
лост@@ 1
националистиче@@ 1
сектора 1
1328 1
КПСС 1
дне 1
застре@@ 1
получила 0.525080766924664
фонов 1
1760 1
24,@@ 1
co 0.05064221805961275
ita 0.09613414477926081
ite 0.05721595200031572
public 0.046077661791225945
Бау@@ 1
знагра@@ 1
11.@@ 0.4234719971527168
1656 1
1728 1
ВМ@@ 1
вражде@@ 1
долф 1
дур 1
зили 1
1. 0.08224349128176676
1644 1
199 1
АН 1
ВМФ 1
оборо@@ 1
турбо@@ 1
1541 1
60@@ 0.5759689687187406
Ver@@ 0.03442277038297526
um@@ 0.045547654677825226
епизо@@ 1
зем 1
литет 1
сканда@@ 1
такси 1
1589 1
1596 1
Гне@@ 1
аф@@ 1
зион@@ 1
мез@@ 1
прито@@ 1
пфалц@@ 1
трамва@@ 1
фотографи@@ 1
юк 1
1771 1
Ванку@@ 1
имения 1
мка 1
обращение 1
1724 1
At@@ 0.15326380862718528
IN@@ 0.28855144110439845
ex 0.16735792061093077
АР 1
гиз@@ 1
кого 0.49375305481477927
1575 1
1652 1
Warner 0.4615096820557069
Тулу@@ 1
близо@@ 1
ек 1
1781 1
апе@@ 1
бакте@@ 1
видимо 1
гай 1
пояса 1
проходи@@ 1
хилядо@@ 1
1519 1
un 0.003186133936938339
ut@@ 0.0734885010731449
Гад@@ 1
демонстрации 1
млн 0.5429114291000702
проли@@ 1
1370 1
1756 1
ara 0.08167577546350573
Лидия 1
благосло@@ 1
дъх@@ 1
кредит@@ 1
мелоди@@ 1
нрав@@ 1
отлича@@ 1
00@@ 0.3755886494884739
1444 1
1777 1
CO@@ 0.26385033565272625
`@@ 1
Бож@@ 1
количе@@ 1
моя 1
опор@@ 1
1573 1
1653 1
1720 1
1773 1
Населе@@ 1
Тип 1
нике@@ 1
1721 1
ala 0.12272104752229421
name 0.03220416693547065
Махму@@ 1
авторитет 1
нев@@ 1
стандарта 1
строения 1
шевич 1
Демо@@ 1
Моло@@ 1
Сало@@ 1
каре@@ 1
курфюр@@ 1
маски@@ 1
отрасли 1
1746 1
tri@@ 0.09695918748182768
Яма@@ 1
материала 1
ранов 1
1260 1
1584 1
1641 1
1658 1
Air 0.08948504774575691
агломе@@ 1
арха@@ 1
достиг@@ 1
лидер@@ 1
стви@@ 1
кир 1
лино 1
маршрута 1
търго@@ 1
швили 1
168 1
клип 1
литера@@ 1
соно@@ 1
хун@@ 1
1270 1
1290 1
1739 1
System 0.18489199101970946
Зада@@ 1
Наполе@@ 1
буква@@ 1
волейбо@@ 1
сложно 1
1520 1
1592 1
Арте@@ 1
Вси@@ 1
олицетво@@ 1
организато@@ 1
психиатри@@ 1
1741 1
индекс 1
куляр@@ 1
политики 1
самостоя@@ 1
теран@@ 1
1190 1
1525 1
1726 1
Йорк@@ 1
Начало 1
1601 1
1692 1
Изуча@@ 1
Лем@@ 1
гастро@@ 1
квартира 1
недово@@ 1
получи@@ 1
1642 1
26,@@ 1
re 0.04142403627652492
Кавказ@@ 1
НБА 1
Портре@@ 1
Признание 1
дад 1
декре@@ 1
нима 1
основания 1
пострада@@ 1
рар 1
1558 1
420 1
Ι@@ 0.8059615023606495
Абра@@ 1
Гоме@@ 1
Президиума 1
книго@@ 1
кове@@ 1
проститу@@ 1
сла 1
стойчи@@ 1
55@@ 0.8654797574114328
age 0.020605907563621642
Бере@@ 1
Еже@@ 1
възгла@@ 1
основателя 1
разме@@ 0.552317203432995
1782 1
Club 0.06164221458852058
il 0.008884986824203942
болез@@ 1
глоба@@ 1
зви@@ 1
описания 1
скорости 1
1678 1
1729 1
1738 1
фта 1
хотели 1
ядра 1
1420 1
1566 1
can@@ 0.10319959293401365
ida 0.07637290513807805
sc@@ 0.10707135099334116
Берг@@ 1
годно 1
1,4 1
ДР 1
Либер@@ 1
Форми@@ 1
лидера 1
нераз@@ 1
ници@@ 1
1578 1
1709 1
ino 0.07170550477318616
Швей@@ 1
кая 0.512382210206882
метрополи@@ 1
продукта 1
слан 1
lan@@ 0.1567455258459413
se@@ 0.045380385074961754
with 0.0028360254544476018
оттен@@ 1
скле@@ 1
тно@@ 1
фелд@@ 1
хър@@ 1
1308 1
1554 1
1745 1
Conus 1
вере@@ 1
взо@@ 1
иди@@ 1
космос 1
теж 1
Fe@@ 0.18919031265299405
Участие 1
даго@@ 1
кратер 1
Ad@@ 0.09265912537092606
Бенджа@@ 1
декс 1
зка 1
обер@@ 1
1347 1
1350 1
1655 1
208 1
BBC 0.18431575909896797
IS@@ 0.24738760795022108
Иванович 0.6078106994111525
ализма 1
пропуск@@ 1
укрепление 1
фигур@@ 1
фред 1
1340 1
1611 1
1629 1
1708 1
Corporation 0.20345998898722556
by 0.00280889831028736
ola 0.16041266038118226
ЛС 1
богослу@@ 1
многобро@@ 1
1614 1
1706 1
850 1
Среднове@@ 1
олето@@ 1
стихотво@@ 1
ците@@ 1
1608 1
1639 1
High 0.07261749098368225
sh@@ 0.03737541488151678
Концеп@@ 1
Фрей@@ 1
безработи@@ 1
гона@@ 1
директора 1
масла 1
помест@@ 1
цла@@ 1
1548 1
1571 1
1593 1
Night 0.2610531348024668
ili@@ 0.15044858228911268
Ричар@@ 1
Така@@ 1
Фото@@ 1
гау@@ 1
дог@@ 1
приорите@@ 1
1371 1
1730 1
No@@ 0.16524738326984384
\ 0.4520382772989325
Крей@@ 1
Нина 1
бюджета 1
ведение 1
гена 1
каска@@ 1
пехо@@ 1
про 1
рога 1
стили@@ 1
1562 1
1685 1
AR@@ 0.2529681165624394
ell@@ 0.08082497255903597
неви@@ 1
способна 1
ть@@ 0.6287209283603967
1669 1
1733 1
1764 1
3.@@ 0.21489202652118825
Маса@@ 1
вше@@ 1
катало@@ 1
справед@@ 1
бито 1
сено@@ 1
1557 1
El 0.012618197837892385
Star 0.1397507216443872
Up 0.33787292200362845
ys@@ 0.14487004491972652
Жан@@ 1
Шот@@ 1
комер@@ 1
молекуляр@@ 1
палат@@ 1
ряда 0.7826432482207301
шип 1
ь 0.1155268686311116
Hydro@@ 0.8770714232213666
Open 0.141293646499857
To@@ 0.14911513702148962
Добру@@ 1
Кост@@ 1
СМ 1
значения 0.5037152912833899
сак@@ 1
134 1
1415 1
1508 1
1582 1
1682 1
1714 1
1723 1
Ethno@@ 1
new 0.02121673856233846
деяте@@ 1
консервато@@ 1
приори@@ 1
там@@ 1
1522 1
HTML 1
Is 0.2747803468430092
Участи@@ 1
Шай@@ 1
рера 1
тура@@ 1
1662 1
iidae 1
tude 1
Геор@@ 1
Ура@@ 1
допусти@@ 1
ню 1
тики 0.8615479146172081
1380 1
Best 0.11241107136913121
graphique 1
Мем@@ 1
мала 1
мене 1
настрое@@ 1
окс 1
пес@@ 1
1597 1
Grecs 1
Ottoman 0.44570630134346834
АЗ 1
запада 1
именова@@ 1
песен@@ 1
префек@@ 1
132 1
SP@@ 0.3002048165493798
Statisti@@ 1
глъ@@ 1
года 0.010442846506518765
1617 1
1657 1
Pol@@ 0.09783372964476382
eph@@ 0.6166068223414765
Хоп@@ 1
аце@@ 1
жизне@@ 1
крепо@@ 1
синхрон@@ 1
фестива@@ 1
фонда 1
1671 1
1679 1
1681 1
Bl@@ 0.10751517908750684
Пес@@ 1
кинемато@@ 1
лор@@ 1
насий 1
оптими@@ 1
столетия 1
тенден@@ 1
формирования 1
138 1
1615 1
1705 1
1765 1
185 1
Dis@@ 0.12167433164757463
atidae 1
ve 0.015807632730481583
Елиза@@ 1
Людмила 1
гови@@ 1
дила 1
непосред@@ 1
непрекъ@@ 1
развлекате@@ 1
ревизи@@ 1
социологи@@ 1
1204 1
1440 1
1574 1
1628 1
Awards 0.10696808262207584
Флорен@@ 1
ант@@ 1
моле@@ 1
пионе@@ 1
скал@@ 1
слоя 1
205 1
48@@ 0.7750452498678633
DC 0.22468965090217866
kW 0.7590251921995435
Луч@@ 1
Шко@@ 1
желе@@ 1
.е. 1
1579 1
1599 1
University 0.021373561550675862
ma@@ 0.11582247133645689
Демография 1
Мино@@ 1
чер 1
1710 1
Fox 0.24661401357223697
Red 0.10926797601401454
atr@@ 0.173532869848299
Австрали@@ 1
Олимпиа@@ 1
пас 1
шей@@ 1
1304 1
be@@ 0.03183865152643595
АП@@ 1
Тей@@ 1
балет@@ 1
вени@@ 1
довате@@ 1
доров@@ 1
йнт 1
камени@@ 1
отбо@@ 1
тали 1
1360 1
1410 1
1495 1
1581 1
Il 0.013690551504086778
Смолен@@ 1
степи 1
числен 1
1488 1
1684 1
alb@@ 0.1918016768448389
illa 0.12867092990949264
Алиса 1
ФРГ 1
бище 1
1693 1
Лео 1
антисемит@@ 1
власт@@ 1
генщайн 1
1758 1
est 0.003570205197920462
МТ@@ 1
Султан 1
инжене@@ 1
несено 1
образи@@ 1
ское 0.09610955612869455
1588 1
1645 1
1742 1
23,@@ 0.9487328562216562
3500 1
au@@ 0.05933553023269048
Мели@@ 1
Нак@@ 1
хотела 1
шер@@ 1
1731 1
1754 1
1761 1
MI 0.9444988526010801
Колум@@ 1
делега@@ 1
строя 1
1531 1
YouTube 0.3745839881822715
á@@ 0.07893002752368443
зур@@ 1
последствия 1
принце@@ 1
1718 1
City 0.03520907490178881
atum 0.5702405343863474
ena 0.12024339387800483
è 0.8675916400536372
бакала@@ 1
жан 1
лаборатор@@ 1
мада 1
охраня@@ 1
роз@@ 1
310 1
USS 0.475571194327417
thr@@ 0.2594642355327403
Адмирал@@ 1
Ват@@ 1
Кома@@ 1
Сена@@ 1
влюб@@ 1
зино 1
итава 1
конвер@@ 1
конку@@ 1
поставки 1
1426 1
Bi@@ 0.08712627179817374
Pictures 0.4907902933959215
This 0.01920168287102726
ari@@ 0.10287878023933167
dae 1
Герма@@ 1
Характеристики 1
горно@@ 1
1677 1
1716 1
36,@@ 1
Лом@@ 1
Тихо@@ 1
монд 1
самбле@@ 1
точен 1
1594 1
Inc. 0.3010655052995282
Организация 1
дав@@ 1
кафе@@ 1
сч@@ 1
1515 1
1613 1
Blue 0.17924496356762734
Рах@@ 1
Теоре@@ 1
клад@@ 1
скрип@@ 1
хтен@@ 1
Chaet@@ 1
Me@@ 0.0727066235180587
for@@ 0.04703741263204355
Бок@@ 1
Нидерланд@@ 1
бах@@ 1
комбинат 1
описа@@ 1
пения 1
рейтинг 1
1390 1
1482 1
1553 1
1736 1
Media 0.18296720306756686
UN@@ 0.2558725219786016
ity 0.033504700694168055
Лео@@ 1
пушки 1
фей@@ 1
1460 1
1485 1
1609 1
El@@ 0.05728785098133776
Коно@@ 1
Необходи@@ 1
Серги@@ 1
анар@@ 1
компенса@@ 1
1587 1
Cas@@ 0.111389135347836
chi@@ 0.1598181588898536
Извест@@ 1
афро@@ 1
образо@@ 0.752778464422444
разго@@ 1
рака 1
стихотворение 1
1654 1
1779 1
Светлана 1
бон@@ 1
вот 1
могло 1
неизвестно 1
пр. 1
синтеза 1
скул@@ 1
тау 1
We 0.17757473744612504
· 0.035682176605876394
Система 1
кани@@ 1
тормо@@ 1
1330 1
1527 1
1602 1
Fr@@ 0.08873852340915062
ST@@ 0.29191015093935574
ist 0.006035109526981518
Георгий 1
жертво@@ 1
зента@@ 1
моло@@ 0.4569560669370981
пропор@@ 1
шке@@ 1
cin@@ 0.20334053496679116
ic 0.03720868078617258
š@@ 0.17024639169145073
балан@@ 1
бокс@@ 1
мана@@ 1
1759 1
all 0.014649583140727297
ā@@ 0.12292389358546735
зме@@ 1
ордина@@ 1
рович 1
уте@@ 1
филологи@@ 1
1305 1
1493 1
22,@@ 0.9518151795130586
370 1
Миси@@ 1
Тибе@@ 1
избо@@ 1
пореди@@ 1
студия 1
1240 1
1259 1
1565 1
ath@@ 0.13446999776147756
Зенит 1
Татар@@ 1
планет@@ 1
1348 1
1583 1
1753 1
Краснояр@@ 1
оформление 1
представление 1
сиона@@ 1
1552 1
1703 1
Mor@@ 0.06533273343253627
National 0.02608806295580893
SO@@ 0.3888566525516945
dia 0.23430829203058598
thi@@ 0.30267187387884753
Мерку@@ 1
дев@@ 1
км@@ 1
нок 0.46438633929578266
1220 1
1647 1
loc@@ 0.1208614550012723
Сит@@ 1
пограни@@ 1
поколе@@ 1
тамо@@ 1
44@@ 0.775425770905701
Thr@@ 0.7012939749906721
olo@@ 0.40392636474399357
ornis 1
Издате@@ 1
Нот@@ 1
Ток@@ 1
боло@@ 1
вини@@ 1
отече@@ 1
поку@@ 1
0,1 1
1277 1
1545 1
ang@@ 0.0539842984320707
Вите@@ 1
Уро@@ 1
доход 1
методо@@ 1
прино@@ 1
1475 1
1561 1
1694 1
ES@@ 0.2675782567306118
Mac@@ 0.1051655742339675
ev@@ 0.0686232776485201
Марий 1
уез@@ 1
чим 1
1646 1
1687 1
325 1
Алан 1
Езе@@ 1
дева 1
зета 1
ути@@ 1
щера 1
1356 1
Арсе@@ 1
решил 0.9310559130390813
фори@@ 1
1624 1
otus 1
Дрей@@ 1
Конструк@@ 1
безуспешно 1
дворя@@ 1
запу@@ 1
инструмента 1
човете 1
and@@ 0.06230248173166357
pora 0.8753337114253178
СМ@@ 1
бата@@ 1
батареи 1
исти@@ 1
лум@@ 1
победи@@ 1
разрешено 1
1505 1
1539 1
154 1
1691 1
1695 1
Перио@@ 1
17@@ 0.3423069555001195
Pic@@ 0.2960478501864378
ef@@ 0.127118564086472
pl@@ 0.04950385353784696
Крас@@ 1
вси@@ 1
гръц@@ 1
подра@@ 1
1524 1
AG 0.2239277967354661
AT@@ 0.2572806950370359
Ab@@ 0.03531082162490447
Channel 0.27214716139192885
воар 1
обвин@@ 1
1230 1
147 1
1751 1
Cl@@ 0.1429305405763785
e.@@ 1
hy@@ 0.20901883171369834
ona 0.09811846204673973
блока 1
геологи@@ 1
зю@@ 1
косве@@ 1
недостат@@ 1
1385 1
176 1
Майн@@ 1
Моро@@ 1
архива 1
схват@@ 1
чел 0.5811876949838507
1752 1
Acanth@@ 1
Ap@@ 0.15649962673285436
Studios 0.28983963918504113
end 0.0242499429811517
yi 0.32304506854105386
Гроз@@ 1
арбит@@ 1
ремонта 1
146 1
1529 1
1713 1
1749 1
Sor@@ 0.20724180299458067
Sph@@ 0.8755858632835579
onia 0.2292023001945684
Поля@@ 1
астрономиче@@ 1
делег@@ 1
дзи 1
ете 1
монографии 1
оси 1
1280 1
1532 1
1564 1
1725 1
out 0.017782055636520265
tu@@ 0.0831211845932961
зиди@@ 1
предполо@@ 1
1282 1
136 1
166 1
1674 1
1698 1
Pter@@ 1
ja 0.08386016356090158
Лев@@ 1
МВ@@ 1
ПО@@ 1
обознача@@ 1
съвършен@@ 1
‘ 0.11722059277744491
Intel 1
` 1
phy@@ 0.4310171207768976
Джак@@ 1
Джон@@ 1
акционер@@ 1
внезап@@ 1
гали@@ 1
гани@@ 1
звали 1
кубин@@ 1
1346 1
1365 1
46@@ 0.7020025213805399
OH 1
ectus 1
och@@ 0.18304337767030543
Лед@@ 1
Митро@@ 1
горя@@ 1
зян@@ 1
механизи@@ 1
неве@@ 1
рева 1
1732 1
1734 1
mat@@ 0.09787377851060457
Δ@@ 0.6085144432941337
Симво@@ 1
блю@@ 1
лазер@@ 1
просто@@ 1
ряз@@ 1
сфе@@ 1
чив 1
1504 1
162 1
ant@@ 0.07328474076361115
be 0.0067030561410856134
li 0.12778883473303654
Аман@@ 1
Пси@@ 1
бера 1
двери 1
заинтересо@@ 1
нам 0.35281430491837057
ной 0.027403468791885714
1511 1
1542 1
MA 0.28368161820261095
su@@ 0.06459159193073875
Гонса@@ 1
Духов@@ 1
бец 1
бозай@@ 1
кации 1
съвърш@@ 1
шай@@ 1
Rhin@@ 1
agri@@ 1
min@@ 0.06902937508855815
Викто@@ 1
прида@@ 1
фру@@ 1
148 1
1516 1
SE@@ 0.2568097754124454
ora 0.11298203341613249
Соли@@ 1
едо@@ 1
поощ@@ 1
1727 1
Not@@ 0.16760366239347588
Phyl@@ 1
mac@@ 0.302627844760104
РО@@ 1
аграр@@ 1
лано 1
напра@@ 1
хта 1
шка@@ 1
1313 1
bar@@ 0.05388045630135555
ke 0.05388059024787511
www.@@ 0.621324312968312
Анатолий 1
вичи 1
воло@@ 0.5955937347972968
1506 1
1697 1
Er@@ 0.048906454343238336
ok@@ 0.10387482563772885
Вклю@@ 1
Пря@@ 1
оско@@ 1
фау@@ 1
харе@@ 1
1510 1
1546 1
192 1
US 0.0335113902078347
ler 0.0341713516504115
Ма 1
Нюр@@ 1
газе@@ 1
конструктор 1
разло@@ 1
Char@@ 0.10617697862227697
York 0.025927006469614097
КН@@ 1
пеще@@ 1
поиска@@ 1
чали 1
щта 1
Mer@@ 0.08997794064275107
cap@@ 0.09883379292060425
cer@@ 0.1124363145543378
Жур@@ 1
Харак@@ 1
концепции 1
прав 1
риф@@ 1
1180 1
1533 1
1537 1
Sch@@ 0.029270477753899668
ium 0.19503985817382086
Литов@@ 1
Мид@@ 1
оставил 1
119 0.9904794757656569
1315 1
1396 1
1494 1
1549 1
2. 0.12480635930537039
ba@@ 0.0984892708091647
Движение 1
Песни 1
Тян@@ 1
зил 1
комбинации 1
опровер@@ 1
постановление 1
131 1
arius 0.8250300738938315
Автоно@@ 1
Рекор@@ 1
бека 1
осмо@@ 1
рене@@ 1
чужде@@ 1
шие 0.3758690389141295
1430 1
HMS 0.42179772520431413
Радио@@ 1
дино@@ 1
зает 1
круп@@ 0.7659136057588884
огнестре@@ 1
опозна@@ 1
помощи 0.6131073414748902
разнообрази@@ 1
сково 1
цет@@ 1
Аки@@ 1
Баш@@ 1
публика@@ 1
шав@@ 1
1,7 1
Man@@ 0.05741680088258197
NGC 0.2707061176655789
col@@ 0.06995366941392983
pal@@ 0.12478875670530329
Поз@@ 1
Терито@@ 1
зации 0.6989118715036041
мео 1
мология 1
сенато@@ 1
1528 1
1534 1
Pe@@ 0.10350427324805209
ex@@ 0.03581404512145116
Дени@@ 1
Род 1
жината 1
резонан@@ 1
8,5 1
Big 0.1276589334769474
O2 1
Pan@@ 0.1207712415850615
Вей@@ 1
Николаевич 0.8103963553079947
Ом@@ 1
бак 1
коат@@ 1
полито@@ 1
сбор 1
чети@@ 1
1717 1
1755 1
Si@@ 0.16343689770758837
ak@@ 0.04318580369592628
lin@@ 0.08690455151959453
Досто@@ 1
Христа 1
кавказ@@ 1
льон 1
препара@@ 1
теше@@ 1
янка 1
1291 1
1479 1
4.@@ 0.260058523025923
MW 0.7653791765845299
Pro 0.21885975602836977
ik@@ 0.05123033000955079
Критика 1
Магни@@ 1
РСФСР 0.557754514228222
персо@@ 1
церемонии 1
юрисдик@@ 1
1463 1
Em@@ 0.12761897393659152
ema 0.21897119465014014
Хок@@ 1
бам 1
его 0.024839800180366686
ковод@@ 1
кохо@@ 1
примерно 0.39652093009657846
1395 1
1551 1
5.@@ 0.29196616539569575
Don 0.1394010396336836
les 0.0035218247800623322
граду@@ 1
тело 1
1279 1
142 1
151 1
Cu@@ 0.15528890675331164
ost@@ 0.1457570405151263
pin@@ 0.265015567442275
жене 1
йство 1
посвет@@ 1
см@@ 1
тай 1
1498 1
2,3 1
70@@ 0.5051327329217047
Na@@ 0.21557334931791572
Сат@@ 1
Съществу@@ 1
дарение 1
желя@@ 1
неизмен@@ 1
стр 1
тре 1
iz@@ 0.06603291014751486
Фердинан@@ 1
вопро@@ 1
гини 1
зав@@ 1
метров 0.28100004076273133
очи@@ 1
скара 1
сона 0.6201802282243783
цивилизации 1
Голо@@ 1
Окон@@ 1
Поб@@ 1
Скан@@ 1
бака 1
нино 1
семи@@ 1
1378 1
He@@ 0.07226003424509088
Новгород 1
кавалерий@@ 1
латино@@ 1
продо@@ 1
туро@@ 1
уто@@ 1
1310 1
1517 1
az@@ 0.06053748394494567
Евгения 1
Иванов@@ 1
глав 1
предположение 1
1298 1
1483 1
Департа@@ 1
Запоро@@ 1
шир@@ 1
1719 1
yp@@ 0.28065176018542665
Армия 1
Производство 1
креп@@ 1
могла 1
различ@@ 1
тая 0.6122251808238452
1470 1
Bal@@ 0.07666704282410838
Sci@@ 0.7227682744140973
галактика 1
интерфей@@ 1
названия 0.7594309159488989
органа 1
1591 1
ge 0.056424028936285224
inc@@ 0.08659373059024189
ly 0.02850218414696896
ur 0.06886568608728517
Дости@@ 1
Етно@@ 1
пос 1
раз 0.20331796690560788
1362 1
1543 1
Be 0.40334368448084895
Оса@@ 1
санитар@@ 1
сас 1
стихо@@ 1
1312 1
1501 1
235 1
430 1
uc@@ 0.1375650438583995
Сили@@ 1
площадки 1
предпоч@@ 1
ука@@ 1
1150 1
1435 1
1499 1
if 0.047616232285575946
Учеб@@ 1
картин@@ 1
неже@@ 1
телеско@@ 1
1393 1
1497 1
1512 1
275 1
356 1
Mel@@ 0.12510232602109558
melan@@ 1
the@@ 0.11434307269618788
гда 1
дено@@ 1
мали@@ 1
тони@@ 1
1332 1
161 1
Do@@ 0.12905374782149232
hi@@ 0.07943224605768752
Боли@@ 1
атри@@ 1
опу@@ 1
ѐ 1
TV@@ 0.397744366047352
class 0.07400271154830443
odontidae 1
ularis 1
Комитет 1
княжества 1
команда 0.5009445224190054
принца 1
секретар@@ 1
функ@@ 1
1331 1
1555 1
1747 1
MP@@ 0.3054717288063989
SS@@ 0.3500463568795214
Studio 0.2991760169515266
Su@@ 0.08579227470574978
chromis 1
yg@@ 0.47384523627041103
Бо 1
Об 1
Характеристи@@ 1
балета 1
вариан@@ 1
водохранилище 1
реабили@@ 1
1364 1
IC@@ 0.24667548814893572
ser@@ 0.0679220112229322
Аса@@ 1
Слова@@ 1
букв 1
0,3 1
1306 1
1355 1
eo 0.1297007939917342
mg 1
общава 1
пилота 1
уго@@ 0.71817999196687
ходо@@ 1
ям 0.3432019231873258
0,2 1
440 1
90@@ 0.5869852092694121
КГБ 1
Кули@@ 1
великолеп@@ 1
дисквали@@ 1
ниса 1
цете 1
1302 1
182 1
For 0.04532459556303618
cal@@ 0.10396021424312771
q 0.15490982352335994
Лебе@@ 1
надий 1
пше@@ 1
речи 1
1307 1
Бона@@ 1
Месо@@ 1
гера 1
летий 1
ману@@ 1
петербург@@ 1
поиска 1
социации 1
хии 1
шар 1
1402 1
21,@@ 0.8602085553345267
bl@@ 0.05086554459359457
ons 0.02982703753616033
Атлети@@ 1
Звезда 1
адми@@ 1
бетон@@ 1
букси@@ 1
минонос@@ 1
09.@@ 1
47@@ 0.617852069807474
ates 0.03923162362676321
go@@ 0.1335340495999807
q@@ 0.12653793729712653
Резо@@ 1
отъ@@ 1
псе@@ 1
Cy@@ 0.27620564436298783
Grand 0.06153716949009494
Her@@ 0.06348299566006901
Mur@@ 0.13362777401329218
War@@ 0.10938459613910566
chil@@ 0.6002264381012699
Кинг@@ 1
бух@@ 1
вил@@ 1
пропу@@ 1
сюр 1
техни@@ 1
1316 1
ak 0.05642720601154733
ous 0.03273292429489875
Щ 1
вобо@@ 1
дисерта@@ 1
зао@@ 1
клана 1
кратера 1
1389 1
Bel@@ 0.07117562356615137
th 0.03437945086421558
Оба@@ 1
виан 1
носа@@ 1
церите 1
1225 1
1275 1
1284 1
1361 1
137 1
1490 1
217 1
la@@ 0.1272625765943511
ts 0.021399960151242344
Ставро@@ 1
овладе@@ 1
1556 1
Tor@@ 0.08477054820489002
Рома@@ 1
ареста 1
рисун@@ 1
1422 1
1696 1
AN@@ 0.2378051509448833
CE@@ 0.24127994802588892
Адриа@@ 1
ВС 1
Суво@@ 1
гломе@@ 1
ежедневно 1
сигнала 1
стациона@@ 1
163 1
A. 0.08266520259241575
Sol@@ 0.09111348272469555
Ниж@@ 1
диск@@ 1
историка 1
мами 0.7362675855730417
неде@@ 1
смар@@ 1
формирова@@ 0.8257994314093301
цко 1
193 1
43@@ 0.7596570639887235
AS 0.21019585831386278
Ава@@ 1
Грузин@@ 1
парламен@@ 1
1253 1
1368 1
1478 1
195 1
290 1
mor@@ 0.08595671392329786
Мак 1
Разу@@ 1
вши@@ 1
1474 1
AT 0.3194149024094148
ellus 1
ich@@ 0.09563425341689186
ty 0.04704688239020402
Валентина 1
Западно 1
Михайлович 0.8906613214915386
Преобра@@ 1
баш@@ 0.9146272674505039
засу@@ 1
мович 1
шок 1
156 1
Day 0.11433887874158984
omy@@ 1
воро@@ 0.9185325669632088
грави@@ 1
нно 1
юрис@@ 1
1237 1
201 1
Dark 0.4035810811396124
Like 0.2200531200810304
San 0.027735708153594364
Норве@@ 1
ваш@@ 1
запад@@ 1
оф@@ 1
тога@@ 1
учреждения 1
256 1
Do 0.26786607495899206
Estr@@ 0.7907306518390611
man@@ 0.055402510325157285
диапа@@ 1
дроб@@ 1
друже@@ 1
йти 1
пожара 1
1322 1
1404 1
141 1
ABC 0.2812402207203338
МО 1
гоно@@ 1
граждане 1
треш@@ 1
2.0 0.585655421055427
Death 0.20686205725151768
Sal@@ 0.07524333720388668
волю@@ 1
главно@@ 1
постепен@@ 1
светло 1
спектра@@ 1
1320 1
1481 1
der@@ 0.04586197951214455
etta 0.23129516097958203
mi@@ 0.09890569015976834
nus 0.7213671248407504
Ниц@@ 1
таго@@ 1
фотографии 1
1386 1
Android 0.6674415537176761
return 0.08989056676214231
Маро@@ 1
комплекто@@ 1
1,1 1
1218 1
1285 1
1418 1
Nov@@ 0.1754644389080397
Τ@@ 0.3932036160690822
куб@@ 1
sin@@ 0.09879527789717153
str@@ 0.047146517973643075
жоу 1
иск 1
моли@@ 1
пизо@@ 1
1258 1
1341 1
1354 1
1377 1
1459 1
950 1
ano 0.04473754116358573
Бит@@ 1
мера 1
рецен@@ 1
1327 1
1342 1
1425 1
164 1
CA@@ 0.19635384771247297
yth@@ 0.7114299061368758
АМ@@ 1
кут@@ 1
1314 1
1484 1
196 1
204 1
Go 0.301672078400698
hynchus 1
Гага@@ 1
Дау@@ 1
враждеб@@ 1
мирането 1
повсе@@ 1
пул 1
560 1
oni@@ 0.15160084531649767
Литература 1
гами 0.6449027290312207
европе@@ 1
телевизи@@ 1
172 1
2,4 1
460 1
Pseud@@ 0.805674086656816
ann@@ 0.09730551459432381
ge@@ 0.03214188843549964
Изабе@@ 1
гет@@ 1
1349 1
1467 1
1514 1
Интерес@@ 1
заста@@ 1
мов@@ 1
показан 1
предме@@ 1
54@@ 0.8980485882897549
H2O 1
Line 0.1282572855934395
alus 1
land 0.02375619168595054
Казах@@ 0.9098884136919426
Фреде@@ 1
Чика@@ 1
вив 1
ключе@@ 1
пуск@@ 1
хана 1
1185 1
167 1
206 1
410 1
49@@ 0.48800356307959714
Проект 1
архиепископа 1
зит 1
изгна@@ 1
крайцер@@ 1
легиона 1
унс 1
чехослова@@ 1
1455 1
1502 1
АО 1
ням 1
поня@@ 0.8229584519919347
рк 1
фракции 1
шеви@@ 1
1518 1
215 1
520 1
Centr@@ 0.47319614586566416
den 0.003362964872881255
ki 0.08650408886118408
ster@@ 0.12243548549527433
Гора 1
Капита@@ 1
Ким@@ 1
Образо@@ 1
вери 1
диза@@ 1
орбита@@ 1
фашист@@ 1
1397 1
188 1
29,@@ 0.971857723033489
im 0.004143228790742947
Поро@@ 1
ученика 1
чище 1
1235 1
1412 1
Open@@ 0.462350135374428
dus 0.9521517561028443
inidae 1
Ибн 1
Печ@@ 1
Свеще@@ 1
жок 1
сло 1
1254 1
1274 1
1303 1
Zo@@ 0.35081174556944966
flav@@ 0.5258503281847895
é@@ 0.026916960960555587
Α@@ 0.40797687397614646
Дин 1
Дуп@@ 1
Счита@@ 1
дивизион 1
персонала 1
рецензии 1
ук@@ 1
139 1
SA 0.19227137408509873
So@@ 0.09043416903559212
omus 1
ou@@ 0.04493620311086315
Комите@@ 1
Петербург@@ 1
ере 1
клин@@ 1
листиче@@ 1
сибир@@ 1
0,6 1
1476 1
all@@ 0.06924818748222757
from 0.002890527335090875
gu@@ 0.06549486363568882
magister 1
ДП@@ 1
лем@@ 1
линий 1
чу 0.4583123186439116
1439 1
CBS 0.33068370495119265
Out 0.25141746530681525
bu@@ 0.07165436320258804
Ники@@ 1
железо@@ 1
кава@@ 1
неуда@@ 0.8200309356105825
подписа@@ 1
1271 1
1335 1
1383 1
Hel@@ 0.12841808044809033
IM@@ 0.34398651238121863
Ur@@ 0.09469011859591463
tar@@ 0.10078235517205272
tion 0.03750239957308398
инспе@@ 1
кей 1
разрушения 1
Av@@ 0.12817550602879954
Bur@@ 0.07328792952666681
United 0.01622259682620817
What 0.25189701319199553
mi 0.1262258928530474
героин@@ 1
гости@@ 1
казахстан@@ 1
скет@@ 1
1344 1
212 1
est@@ 0.04649751366944586
Ко 1
Търгови@@ 1
гуна 1
див 1
заро@@ 1
императри@@ 1
свое@@ 1
1245 1
1246 1
1451 1
178 1
184 1
197 1
ant 0.016075025966289035
cul@@ 0.13091823077964976
nig@@ 0.6568865621050705
view 0.12262610915125725
ЛГБТ 1
Спу@@ 1
брод@@ 1
достой@@ 1
конструктор@@ 1
ом 1
служили 1
филиал 1
чика 0.7777405003858444
1311 1
1469 1
1523 1
186 1
720 1
COVID 0.1923311512045235
zi 0.24071534876092374
Статистика 1
Трини@@ 1
скур@@ 1
1417 1
1468 1
Labr@@ 1
RI@@ 0.31325754506584663
cr@@ 0.04322894067760197
uli@@ 0.2064261113692806
Разполо@@ 1
биат@@ 1
изящ@@ 1
174 1
SA@@ 0.23880572326165794
che 0.06333464492620108
k.@@ 0.9111580863226746
Сав@@ 1
англича@@ 1
губернатора 1
построй@@ 1
сеп@@ 1
щем 1
1373 1
1472 1
365 1
Home 0.1684120339421596
PS 0.1853421664182472
fer@@ 0.054439912470955275
Кок@@ 1
пром 1
1160 1
1170 1
1299 1
1416 1
AC@@ 0.21313390106237373
SQL 1
ali@@ 0.09627436975403691
yc@@ 0.24929335434419989
Ле 1
Регу@@ 1
Ск@@ 1
Стер@@ 1
офицера 1
принадлеж@@ 1
припа@@ 1
1247 1
1296 1
1382 1
Val@@ 0.07828969412164058
Адри@@ 1
Ростов 1
рейтин@@ 1
синаго@@ 1
султа@@ 1
149 1
177 1
2,6 1
otis 1
~ 0.44944943872459475
Детство 1
Нагор@@ 1
Оле@@ 1
бя 1
купе@@ 1
нах@@ 1
рол 1
1436 1
1513 1
9.@@ 0.29813420587765316
bur@@ 0.0845171469098518
iv@@ 0.11422318133554248
ò@@ 1
Абха@@ 1
Букуре@@ 1
Площа@@ 1
Почет@@ 1
парла@@ 1
преимуще@@ 1
1267 1
1318 1
1363 1
1466 1
ene 0.04832489886218786
Леопол@@ 1
Сене@@ 1
азо@@ 1
жин 1
зови@@ 1
кок@@ 1
стари@@ 1
страхо@@ 1
узна@@ 0.6515412383882458
1265 1
183 1
74@@ 1
Gal@@ 0.09612071590597915
Съще@@ 1
денти@@ 1
жер 1
игро@@ 0.7920125263815504
креди@@ 1
ровна 1
стокра@@ 1
фанзи@@ 1
1353 1
169 1
Bre@@ 0.09609815500666156
Radio 0.09102676086659374
pes 0.19800367130884647
ателя 1
вило 1
обозначение 1
пенси@@ 1
репети@@ 1
транскрип@@ 1
ходят 0.9633308586318712
1272 1
1309 1
1323 1
1544 1
213 1
254 1
Bol@@ 0.15912116809834173
Fl@@ 0.07825670280218469
opsis 0.5681248957484647
Красно@@ 0.7763914318906396
Ми 1
бесе@@ 1
наве@@ 1
новения 1
оло 1
1345 1
1507 1
153 1
Ho@@ 0.08492755712519938
Scar@@ 0.36694693007528906
aup@@ 0.45672879960374657
ere 0.06274991453648501
графства 1
друж@@ 1
стратегии 1
так 0.07430246750248602
64@@ 0.8654415903438498
Sun 0.1685100955191443
Кампа@@ 1
бизне@@ 1
колеп@@ 1
семит@@ 1
фове 1
1324 1
211 1
65@@ 0.6048227030259026
Inter@@ 0.0694669152539394
John 0.019335479302273684
č@@ 0.15685349329656925
Оз@@ 1
убит@@ 1
шле@@ 1
1266 1
1509 1
67@@ 0.8320023448160714
Груп@@ 1
Кузне@@ 1
Степан 1
рук 1
увле@@ 1
юго 0.220054444396072
1248 1
3,2 1
3,6 1
56@@ 0.7645925368488574
me@@ 0.061460382487040124
ostris 1
доктор@@ 1
рем 0.9570642528202425
рождение 1
Space 0.23252129376575553
cas@@ 0.08057851342207543
ine@@ 0.16392774066659146
pa@@ 0.21883322915174883
va 0.0598465687836613
низации 0.841248970947136
редо@@ 1
Heart 0.3096886603707752
aris 0.5852112903346299
bre@@ 0.0700604404710083
Решение 1
демоби@@ 1
дум 1
216 1
58@@ 0.79259301184206
Award 0.0573988212701101
Bros. 0.7881654183481893
Facebook 0.4215141107887749
ill@@ 0.05545392827279496
капитана 1
стот@@ 1
1443 1
1486 1
Cre@@ 0.11170993803346019
Royal 0.051144277297733284
ales 0.028626883587780903
eri@@ 0.25855064761900304
Гле@@ 1
ТУ 1
включа@@ 0.6855661015275829
кото@@ 1
наказания 1
ное 0.038144258971904696
прокуро@@ 1
сладковод@@ 1
уна@@ 1
1388 1
143 0.9970916246826478
202 1
здание 0.4737022869004973
невер@@ 1
1423 1
191 1
Лавре@@ 1
авгу@@ 1
агент@@ 0.9506956893699484
брю@@ 1
компон@@ 1
копий 1
лке 1
мону@@ 1
холо@@ 1
1293 1
1496 1
2,2 1
bi 0.21720713502824493
dr@@ 0.0482657879091256
ВМО@@ 1
Чем@@ 1
зане@@ 1
купи@@ 1
обусло@@ 1
1288 1
1317 1
1359 1
gen@@ 0.05058140237910872
заключение 1
прице@@ 1
царства 1
0,8 1
1241 1
1252 1
1375 1
218 1
Cric@@ 1
asi@@ 0.15863143275864364
bus 0.11929117253135227
Глава 1
Француз@@ 1
баков 1
басе@@ 1
заду@@ 1
шино 1
,@@ 0.9226970286040056
390 1
9000 1
HD 0.3176378723252319
Ma@@ 0.05665891053123057
Mag@@ 0.0953316789263523
RE@@ 0.22960257639341317
Show 0.13808833282688282
Tyrann@@ 1
etus 0.7488994207059276
летия 1
родила 1
1189 1
1334 1
King 0.049495569595637064
ota 0.1208542300649524
ë 0.5171328758787292
гато 1
ланда 1
ожи@@ 1
старто@@ 1
строение 1
шла 0.670187975405603
1207 1
1295 1
1419 1
1464 1
59@@ 0.8082012092040068
Dance 0.2791251651298501
Χ@@ 0.4844129214448057
Николаев@@ 1
ап@@ 1
епархи@@ 1
командирован 1
псевдони@@ 1
1429 1
Psittac@@ 1
Top 0.12039300661786487
WCW 1
km@@ 0.7378635362288597
ol 0.060990819433597604
von 0.002694054428937396
Кази@@ 1
Луган@@ 1
Нава@@ 1
Юсу@@ 1
68@@ 0.6801332623624805
A.@@ 0.18025446052851463
Mac 0.3850646019015345
Por@@ 0.10429101934473693
icidae 1
und@@ 0.06975140974891793
ve@@ 0.1051112741641463
Влияние 1
Гиб@@ 1
Люд@@ 1
Фланд@@ 1
насто@@ 1
определения 1
1261 1
1367 1
189 1
sub@@ 0.035125779618854734
Плато@@ 1
процент@@ 1
слова 0.5468869178623731
справо@@ 1
футболи@@ 1
1264 1
1292 1
1448 1
1458 1
157 1
640 1
РА@@ 1
Социалистиче@@ 1
ФР@@ 1
верса@@ 1
оконча@@ 1
1357 1
187 1
API 1
inae 0.3226524857627024
je 0.0746375782531308
Пед@@ 1
СР 1
зеф 1
кое 0.38852046045567135
остат@@ 1
приви@@ 1
противотан@@ 1
285 1
7.@@ 0.2972875282684691
News 0.14041846174843545
Кеме@@ 1
Музе@@ 1
─ 0.3771983570623931
House 0.040054587191485726
Sony 0.34364816099244144
USAF 1
ay 0.044620398930636726
cic@@ 0.5104237547444948
кибер@@ 1
лой 0.4033999151041476
показано 1
страте@@ 1
1411 1
Journal 0.15667152627118996
bor@@ 0.08589809038252423
etidae 1
style 0.04665287961668537
новка 0.9990516933006648
1130 1
1205 1
1403 1
98@@ 1
Hem@@ 0.26139398821194365
otr@@ 0.3225958158454843
Александрович 0.634527967536189
диана 1
компонен@@ 1
радиостанции 1
рост 1
услови@@ 1
1471 1
ca@@ 0.24472070465555054
he@@ 0.04909590526058567
ip@@ 0.17967672636655715
sk@@ 0.06493873997757564
вити@@ 1
характе@@ 1
хок@@ 1
1281 1
1394 1
1487 1
200@@ 0.3346882390119421
Du@@ 0.09203733658495089
General 0.03698079673242162
HBO 0.8377021872276047
Pom@@ 0.3012729769152017
ari 0.0915144231714576
rom@@ 0.11824526740955241
Ломбар@@ 1
доров 1
ленко 1
сервато@@ 1
1343 1
1392 1
Cat@@ 0.14117866467219767
Lov@@ 0.26421081763222437
Uni@@ 0.18334060465136207
able 0.017560264691696477
ta@@ 0.08426499289304974
tera 0.2916688935668372
сун@@ 1
1337 1
AP@@ 0.1945240307260792
Ber@@ 0.0439734945813862
Can 0.36819021454369305
Center 0.06285936343025822
και 0.012156886492404415
Амери@@ 1
Калинин@@ 1
Мура@@ 1
закре@@ 1
мъжва 1
пели 1
показания 1
техникум 1
1050 1
1333 1
2,7 1
HD@@ 1
Reg@@ 0.07196725135660118
XML 1
Xen@@ 1
ard@@ 0.08928649680868449
Мира 1
бий@@ 1
полуфина@@ 1
1283 1
1319 1
1452 1
238 1
99@@ 0.8688018829266516
end@@ 0.041076772962205674
eps 0.49303739363258037
oa 0.20305958039556568
Каз@@ 1
Марга@@ 1
ПУ 1
ФЛ 1
династии 1
ляли 1
пут@@ 1
шинг@@ 1
ѣ 1
1191 1
1409 1
540 1
Camb@@ 0.5792659121475086
DOS 0.9237004830422791
Hz 1
Way 0.2935745309800166
БА 1
Значение 1
Шми@@ 1
381 1
Зав@@ 1
взаимодействия 1
динген 1
йто 1
олон@@ 1
ститу@@ 1
1268 1
4500 1
Super@@ 0.11150928930104737
VA 0.40627348551672404
ay@@ 0.053973963770529224
reg@@ 0.05807937649946024
± 0.8904810193322793
Кино@@ 1
нами 0.15917614545308995
оку@@ 1
флага 1
Bor@@ 0.06964806189406063
Eur@@ 0.2029746505717334
Unix 1
ah 0.04906093633385897
eu@@ 0.21142074073151423
vit@@ 0.2975287644228744
гизи@@ 1
дря@@ 1
евна 0.57542841871818
леност 1
1329 1
1336 1
1489 1
2,8 1
33,@@ 0.9745308244419814
ilia 0.5251500390519535
Газ@@ 1
Коне@@ 1
Лат@@ 1
ждено 1
лики 1
посто@@ 1
соф@@ 1
тря@@ 1
222 1
Street 0.04644084145372463
USB 1
ani@@ 0.14452231479324357
atis 0.811404723828378
bius 1
Рус@@ 0.7772290016856728
дера@@ 1
жте 1
1352 1
1454 1
1461 1
306 1
680 1
ua 0.13538273062573478
Ору@@ 1
словия 1
1387 1
198 1
209 1
PO@@ 0.3770319424535719
ry@@ 0.32232012140836586
ther@@ 0.1316291157094725
завла@@ 1
зефа 1
играли 1
капит@@ 1
окон@@ 1
отпу@@ 1
1325 1
1369 1
1424 1
173 1
179 1
af@@ 0.03950677863064027
tur@@ 0.06730416016381784
измерения 1
мощности 1
фигури@@ 1
шру@@ 1
ъф@@ 1
1406 1
88@@ 0.8516774044944548
Lib@@ 0.24076403403083982
sim@@ 0.21502127411958158
Турке@@ 1
Шоу 1
студии 0.6624020174111834
тений 1
1326 1
75@@ 0.557173527913275
VI@@ 0.33805642177772244
Плов@@ 1
Торпедо 1
въд 1
йор@@ 1
лаборатории 1
нистиче@@ 1
случай@@ 1
терна@@ 1
1249 1
1255 1
1263 1
1381 1
207 1
RT@@ 0.3385251790875894
Ο@@ 0.4976794911299909
Антар@@ 1
кисели@@ 1
1273 1
1297 1
1366 1
1413 1
1431 1
171 1
343 1
Cro@@ 0.14201488797488007
ai@@ 0.12605196106655484
ax@@ 0.1136761313032965
Черни@@ 1
старей@@ 1
1212 1
1408 1
470 1
бест@@ 1
инженерно 1
кам 0.21132742504408578
очевид@@ 1
спешно 1
1384 1
AB 0.34527179401336916
ER@@ 0.2398281559640643
Good 0.24589157963822383
SMS 1
VHS 1
anthus 0.8818876275073982
Бота@@ 1
Шат@@ 1
венства 1
лагер@@ 1
шлю@@ 1
229 1
GB 0.33550199896163896
dic@@ 0.10213752147616896
gens 0.3021211874863577
Крю@@ 1
Моха@@ 1
Снеж@@ 1
Хаба@@ 1
деля@@ 1
1234 1
395 1
Universal 0.28241975408433806
ell 0.04311611044046917
ž@@ 0.2060847185306858
Гви@@ 1
Уд@@ 1
мок 1
ремо@@ 1
1256 1
1465 1
355 1
TNA 1
eil@@ 0.3349779588725909
ny@@ 0.1947249626554849
sen@@ 0.07558696032224729
Постанов@@ 1
гимназии 1
миря@@ 1
0,4 1
6.@@ 0.24652127013758918
Im@@ 0.08336873072611281
Pal@@ 0.08871447170743461
ah@@ 0.04903508924058251
ος 0.22001993331662376
Бундесли@@ 1
Игра 1
лиц 0.7623822582946
обстанов@@ 1
ba 0.07521058479770308
cur@@ 0.06841545616593848
void 1
Вз@@ 1
Количе@@ 1
Ль@@ 1
анало@@ 1
ж. 1
мля@@ 1
феро@@ 1
1438 1
Leg@@ 0.16577532954378896
ot 0.05495454643966378
text 0.1246561068057019
Мост 1
географи@@ 0.6768356640962512
премия 1
1276 1
245 1
3. 0.11066642592668943
375 1
Meg@@ 0.2827410684524042
ГК 1
Муста@@ 1
заи@@ 1
срочно 1
чинки 1
ATP 0.31901132397623966
Buf@@ 1
Cl 1
DO@@ 0.33949055129844813
Festival 0.05908731755408966
arch@@ 0.10058170790484983
Новосибир@@ 1
ану 1
водил 1
живу@@ 1
славо@@ 1
социацията 1
удив@@ 1
001 0.8522445458409179
1428 1
1442 1
1473 1
America 0.050180741816905974
nis 0.20460882898130303
pay 0.16210985281303433
sec@@ 0.10312634351994436
ten@@ 0.03779021958783602
Сочи 1
Тав@@ 1
здания 0.46295922606643936
магистрали 1
реши@@ 1
рование 0.3493166032668635
хая 1
1219 1
Hol@@ 0.0735354492197676
char@@ 0.09140287577914058
ess 0.04669414353125222
eum 0.3846309191409955
mer@@ 0.03897772310442902
Вну@@ 1
Сибир@@ 1
осново@@ 1
стров 1
1449 1
ada 0.01537456891203198
amp@@ 0.10722567526901502
dium 0.40103559282570506
elli 0.11852664166097228
fer 0.06466651514579679
ву 0.3387397080871328
дуб@@ 1
зиден@@ 1
ноги 1
подве@@ 1
подно@@ 1
тата@@ 1
тник 1
1125 1
1262 1
1294 1
AD@@ 0.2010309728662298
MO@@ 0.3145061597423559
ile 0.03070235538700765
opterus 1
Вашинг@@ 1
бок 1
гом 0.2296695946178869
д. 1
комедии 1
0,7 1
1289 1
don@@ 0.13308297219606574
if@@ 0.0659364821123573
β 0.39442407798250906
Павлов@@ 1
Рас@@ 0.5875671767126466
ледо@@ 1
орде@@ 1
пци@@ 1
ранга 1
1414 1
9,5 1
Ach@@ 0.22644027981460157
S.@@ 0.19721043634812715
SM 0.49391494746722164
lam@@ 0.087671146494542
ocephalus 1
Σ@@ 0.21070631546123272
лезе 1
приятие 1
статъ@@ 1
3,3 1
College 0.02938105844133562
DA 0.27448389782469346
Des@@ 0.07380103228566665
гина 1
зра@@ 1
лого 0.8671324767778895
негатив@@ 1
1223 1
1401 1
1445 1
AL@@ 0.21144903891909322
Ferrari 0.45039881242321195
Ger@@ 0.06193308876706618
довни 1
меда 1
радо 1
1321 1
194 1
255 1
960 1
Bath@@ 0.6941632546501317
EN@@ 0.45431120702278993
milit@@ 0.4826135180402097
ure 0.04536245415164114
Клав@@ 1
Мос@@ 1
Семей@@ 1
аспиран@@ 1
итуа@@ 1
щали 1
1339 1
219 1
53@@ 0.6903932897739204
BMW 0.525300821290948
First 0.05655245854696307
Project 0.18198906029221049
nem@@ 0.851724531916871
Из 0.21241929018259045
Лис@@ 1
агита@@ 1
пластин@@ 1
стройки 1
тности 0.8308885348804622
устойчиво@@ 1
1198 1
Dead 0.32088322027239574
FM 0.13011442437180581
Homo 1
cre@@ 0.057883962746162816
веду@@ 0.5019833121896501
решили 1
тоне 1
Eu@@ 0.4112044442352273
Girl 0.2584397632428152
ick 0.064828049933147
ty@@ 0.10354085193847883
« 0.002810844111903699
Общество 1
баталь@@ 1
зани@@ 1
лерн 1
уг@@ 0.9264730695739978
1477 1
2200 1
dor@@ 0.12318166772698522
спози@@ 1
тика@@ 1
159 1
M. 0.08112912601574371
White 0.06745551377398298
ae@@ 0.4874170483719916
til@@ 0.11695375795648903
Иркут@@ 1
Петра 0.8441707580070901
жем 0.8365634676371854
океа@@ 1
1018 1
1251 1
1278 1
DE@@ 0.2556021704044758
Plan@@ 0.15744146229726871
vus 0.8215138950412001
дур@@ 1
‎ 1
fr@@ 0.052526592011323536
ir 0.039060118404264224
las 0.005180411466512682
pa 0.11525750328073077
ë@@ 0.29867145824585084
Мурман@@ 1
оса@@ 0.6754109258343004
стей@@ 1
530 1
86@@ 1
880 1
TE@@ 0.28287306950047336
Ter@@ 0.09069087501620401
ovo 0.39075688052897967
tia 0.16850927849503544
ulidae 1
Иси@@ 1
Локо@@ 1
калибра 1
лъче@@ 1
цера 1
шве@@ 1
1228 1
1399 1
1437 1
18@@ 0.26268938878346204
251 1
PP@@ 0.4888871932187078
НКВД 1
гло 1
занятия 1
подхода 1
1227 1
1462 1
335 1
Kiss 0.7407942147368868
Lady 0.14168250390212053
anth@@ 0.24107923444141513
mel@@ 0.08983165644880353
Круп@@ 1
Ташкен@@ 1
деления 1
фарма@@ 1
1197 1
1244 1
1358 1
1434 1
181 1
610 1
Cur@@ 0.10292336100152634
phidae 1
дистанции 1
нат@@ 1
подро@@ 1
ряд 0.24673539965024102
1338 1
158 0.9390424767260701
970 1
AN 0.3909587295466676
ard 0.03343955136890056
Вороне@@ 1
Завод 1
Нов@@ 0.9778448385887651
занти@@ 1
рождения 0.5419583501938741
рополия 1
сержант 1
шриф@@ 1
1216 1
232 1
66@@ 0.7439834391992438
chi 0.07452331292799787
mal@@ 0.06788229961492165
soni 1
НЕ@@ 1
чечен@@ 1
221 1
2400 1
323 1
Cartoon 1
Lin@@ 0.09427437954957385
Ni@@ 0.0890035700141121
TA 0.22824998882596872
We@@ 0.07329999831772313
Web 0.40382223240104914
cat@@ 0.07834073209166674
вру@@ 0.7630293623494082
множества 1
тала 1
шля@@ 1
1372 1
Dr@@ 0.06950086184169707
Hello 1
Min@@ 0.06841202498235896
ake 0.08083237544670534
anti@@ 0.056699827814539104
fus@@ 0.21247855331082127
ori@@ 0.09848496472869274
Зако@@ 1
Слобо@@ 1
вмести@@ 1
восток 0.597807687504627
жени@@ 1
одо@@ 1
ради 1
чника 1
1226 1
Gu@@ 0.04585996508870237
icum 0.5974142264943466
rich@@ 0.15506899743747166
барди@@ 1
бизнес@@ 1
бре 1
доказате@@ 1
зван 1
мета 1
поставил 1
талантли@@ 1
1441 1
265 1
Championship 0.051004031030188884
Co 0.14092053133998408
Press 0.15625533026007135
Vol@@ 0.10259203645850815
ance 0.028339725078414885
bul@@ 0.08887758291635493
pu@@ 0.0733865523651688
Охот@@ 1
Рау@@ 1
департа@@ 1
ключва 1
цери 1
1080 1
1202 1
1286 1
1407 1
283 1
Book 0.15110815888558557
Del@@ 0.08611457751223522
Down 0.3014857474545244
Mk 0.9225522431981698
ariidae 1
optera 0.834313282559694
ˈ@@ 1
Дома 1
Лер@@ 1
Президента 1
Проти@@ 1
ранже@@ 1
шут@@ 1
1398 1
1421 1
And 0.1694901452056517
Are 0.44883655125461835
UT@@ 0.7265330775576281
пл@@ 1
1,9 1
1456 1
253 1
D. 0.08996340057849571
ITF 1
Ros@@ 0.07025759728341366
Song 0.11960968782005629
als 0.003833221027222957
go 0.046847345329724156
lia 0.20578403235436316
long@@ 0.23639051523901736
Воро@@ 1
Джонс 1
Риг@@ 1
воен@@ 1
късо@@ 1
окли@@ 1
парата 1
плав@@ 0.755097333445625
президен@@ 1
формирование 1
1391 1
301 0.9203536047491483
334 1
MC 0.24938299194739372
NE@@ 0.29141475856360083
TS 0.34746819411032887
ess@@ 0.057563137763859455
ice 0.04179357857071188
illus 0.921494811985997
iss@@ 0.09777219601477263
son 0.0047858965173480945
tro 0.1572329029944427
Активно 1
Жена 1
вок@@ 1
завоевания 1
08.@@ 1
1351 1
303 1
Twitter 0.38535852377087326
her@@ 0.04050173310436202
ley 0.025924405967412974
lis 0.12644011401093103
Медве@@ 1
Юго 0.9984500229342508
приблиз@@ 1
сериа@@ 1
слуша@@ 1
15.@@ 0.3415942446090026
214 1
B. 0.05414189444407885
Der 0.009102328010306313
Last 0.25972718804909023
Little 0.11413096906981254
ato 0.06657035330303185
ici@@ 0.10607802467584196
Наи@@ 1
пии 1
234 1
Camp@@ 0.17798724835007837
Cham@@ 0.3454772550076456
IT@@ 0.27650265038096355
bal@@ 0.06760050640998179
estes 0.9428424550643306
Алма 1
дами 0.24412745455845922
дой 0.30802599178660656
канц@@ 1
тем 0.14476939549101753
трам@@ 1
06.@@ 1
224 1
GNU 1
Model 0.27967823233444356
Pap@@ 0.12348026505916407
arus 1
eni 0.2538425172653861
Владими@@ 1
Изна@@ 1
рос@@ 0.933252541229473
холм 1
1152 1
262 1
38,@@ 1
Visual 0.7336819685803972
ass@@ 0.041520281242921245
Храм 1
епархии 0.6919695628625447
туда 1
57@@ 0.5799747393436883
CO 0.285164437537523
Columb@@ 1
E. 0.09775408887066074
Super 0.08856307179117302
Vo@@ 0.13254315673534345
War 0.023449674065303315
eh@@ 0.04366558274548805
isti@@ 0.17560876893580996
leuc@@ 1
Оло@@ 1
год 0.05129492555020069
кл 1
срока 1
14.@@ 0.2953071871164358
32,@@ 1
Dec@@ 0.09785338664486791
Dol@@ 0.13186803394194033
Haplo@@ 1
Internet 0.13485928781386008
NBC 0.2548643685686354
RO@@ 0.2695752048509476
cel@@ 0.11068815949349152
ets 0.03400677222268229
tel@@ 0.07127272116825033
Лота@@ 1
Рожде@@ 1
дислоци@@ 1
левич 1
ье 0.12476707660087849
1040 1
1239 1
284 1
580 1
Rem@@ 0.13534586211054211
Sep@@ 0.35487802885989467
aga 0.13705724306462494
ticus 0.9079760072741033
vic@@ 0.16670966442442395
Дъщер@@ 1
Па 1
Сатур@@ 1
попада@@ 1
сравни@@ 1
ято 1
425 1
Gro@@ 0.11821802586354493
Productions 0.34712874905617574
RAM 0.6928390378437904
cha 0.08206658417060426
id 0.05451673683866059
opo@@ 0.28672119390930045
st 0.04490694713256647
time 0.008096426224368411
η 0.02867128139065975
Куту@@ 1
[...]
