् 1
के 1
। 1
में 1
, 0.5055259269655215
है 1
प 1
की 1
और 1
़ 1
से 1
स 1
का 1
को 1
एक 1
य 1
) 0.8437984322121981
( 0.8407624192349947
हैं 1
क 1
&quot; 0.329140398064883
पर 1
त 1
ट 1
ने 1
. 0.10724167540081185
र 1
@-@ 0.44152131383829074
व 1
द 1
किया 1
था 1
लिए 1
भी 1
यह 1
कर 1
न 1
इस 1
गया 1
म 1
या 1
कि 1
वर 1
ग 1
ज 1
रूप 1
ड 1
जो 1
उन 1
ध 1
जाता 1
कार 1
फ 1
ही 1
साथ 1
करने 1
श 1
उत 1
हो 1
ष 1
वारा 1
थे 1
&apos; 1
राज 1
ब 1
भारत 1
: 0.7372817547748398
री 1
नहीं 1
र@@ 1
तक 1
तर 1
बाद 1
निर 1
म@@ 1
अन 1
तथा 1
अपने 1
थी 1
दिया 1
यक 1
ता 1
ण 1
ति 1
ी 1
ल 1
षेत 1
न@@ 1
वह 1
होंने 1
ली 1
अ@@ 1
पूर 1
होता 1
क@@ 1
रा@@ 1
य@@ 1
दी 1
व@@ 1
ा 1
जा 1
स@@ 1
हुआ 1
वि@@ 1
ब@@ 1
वे 1
थित 1
इन 1
सर 1
कुछ 1
रा 1
थ 1
आ@@ 1
हें 1
नाम 1
राष 1
विश 1
ल@@ 1
रीय 1
ना 1
प@@ 1
सम 1
च 1
त@@ 1
करते 1
हुए 1
तो 1
गाँव 1
दर 1
- 1
समय 1
ए@@ 1
इसके 1
एवं 1
ना@@ 1
ट@@ 1
रो@@ 1
े 1
रि@@ 1
ला 1
नी 1
होने 1
कई 1
उनके 1
वा@@ 1
संस 1
षा 1
मा@@ 1
ज@@ 1
; 0.4385966176442387
भारतीय 1
द@@ 1
अधिक 1
रे@@ 1
का@@ 1
वाले 1
जन 1
सन 1
ला@@ 1
बड 1
मार 1
सबसे 1
कारण 1
ती 1
रों 1
को@@ 1
अपनी 1
कम 1
करता 1
होती 1
मुख 1
पत 1
पहले 1
ं@@ 1
टी 1
थान 1
अर 1
गए 1
जी 1
दो 1
सु@@ 1
रकार 1
सकता 1
सि@@ 1
ग@@ 1
टर 1
फिल 1
ह@@ 1
किसी 1
शन 1
या@@ 1
&#93; 1
जब 1
गई 1
&#91; 1
ते 1
ले 1
सी@@ 1
कहा 1
श@@ 1
यों 1
च@@ 1
वी 1
लेकिन 1
सं@@ 1
बा@@ 1
‍ 1
बर 1
रदेश 1
यू@@ 1
नि@@ 1
ये 1
राप 1
जाती 1
हुई 1
बहुत 1
सी 1
लिया 1
शामिल 1
मा 1
ता@@ 1
सा 1
रक 1
बन 1
सा@@ 1
ड@@ 1
पा@@ 1
देश 1
जैसे 1
ई 1
ख 1
ले@@ 1
री@@ 1
होते 1
भाषा 1
जिले 1
रम 1
/ 0.5451261640895049
दक 1
मे@@ 1
लो@@ 1
बे@@ 1
गत 1
लि@@ 1
रहे 1
षण 1
जा@@ 1
वास 1
धर 1
ध@@ 1
मन 1
इ@@ 1
उनकी 1
उस 1
विद 1
जाने 1
रस 1
यालय 1
ए 1
बीच 1
चित 1
मि@@ 1
उ@@ 1
उसके 1
उद 1
रहा 1
सभी 1
ओ@@ 1
तरह 1
रत 1
जिसमें 1
पश 1
भाग 1
इसे 1
रह 1
के@@ 1
कु@@ 1
दा@@ 1
आर 1
इसका 1
अनुसार 1
रिया 1
मान 1
बार 1
तहसील 1
मो@@ 1
तान 1
माण 1
रमुख 1
करना 1
काम 1
पड 1
मी 1
उसे 1
अध 1
ई@@ 1
भ 1
शिक 1
कोई 1
लोगों 1
ह 1
यात 1
अक 1
महत 1
थ@@ 1
पी@@ 1
ख@@ 1
वे@@ 1
बढ 1
ञान 1
राम 1
उपयोग 1
पार 1
ति@@ 1
मण 1
ने@@ 1
अल 1
जीवन 1
हिन 1
वाली 1
गो@@ 1
ा@@ 1
से@@ 1
जाते 1
मक 1
ली@@ 1
चार 1
पुर 1
&#124; 1
भ@@ 1
नगर 1
दोनों 1
आदि 1
ियों 1
सिंह 1
डी 1
शब 1
गु@@ 1
मूल 1
शहर 1
लिये 1
मध 1
लक 1
लगभग 1
मु@@ 1
फ@@ 1
रयोग 1
दौरान 1
यहाँ 1
सो@@ 1
नों 1
िल 1
बी@@ 1
.@@ 1
ंग 1
साहित 1
रेस 1
अंग 1
ओर 1
कों 1
सरकार 1
काल 1
वार 1
डल 1
अब 1
तीन 1
गा@@ 1
शुरू 1
विज 1
फिर 1
ठ 1
हा@@ 1
बि@@ 1
लोग 1
टी@@ 1
पास 1
% 0.5988360701723286
षिण 1
जिसे 1
टा@@ 1
अलग 1
शक 1
विकास 1
ण@@ 1
1 0.5327693278316067
पे@@ 1
नी@@ 1
बल 1
करती 1
ऑफ 1
कै@@ 1
तन 1
वस 1
पो@@ 1
ष@@ 1
गर 1
मे 1
हर 1
केवल 1
अंतर 1
कि@@ 1
जिन 1
तु 1
बो@@ 1
जाना 1
रिकेट 1
युद 1
यान 1
सकते 1
बी 1
विशेष 1
मंदिर 1
इसकी 1
पि@@ 1
डे@@ 1
ि@@ 1
पद 1
दा 1
&amp; 0.5922102526917089
रु@@ 1
विस 1
यम 1
सिद 1
दिन 1
जर 1
कभी 1
तों 1
करण 1
जी@@ 1
वी@@ 1
ों 1
भा@@ 1
उनका 1
विभिन 1
सदस 1
टीम 1
ं 1
टो@@ 1
वा 1
उप@@ 1
यु@@ 1
इतिहास 1
रू@@ 1
पन 1
नो@@ 1
चर 1
योंकि 1
साल 1
उच 1
इसमें 1
राज@@ 1
2 0.5148667563801973
शा@@ 1
हे@@ 1
नदी 1
ंग@@ 1
वपूर 1
कृत 1
माना 1
अपना 1
इसी 1
टे@@ 1
योग 1
राजा 1
कहते 1
हालांकि 1
शि@@ 1
थिति 1
रण 1
रही 1
हिस 1
संख 1
रदर 1
दे@@ 1
रता 1
किए 1
दिल 1
वाला 1
षित 1
टा 1
महा@@ 1
रसिद 1
रथम 1
परि@@ 1
लों 1
छ@@ 1
आ 1
अनु@@ 1
रे 1
कल 1
हि@@ 1
रित 1
॰ 1
चा@@ 1
तब 1
जे@@ 1
टि@@ 1
दु@@ 1
वविद 1
पहली 1
कुल 1
सत 1
आवश 1
रदान 1
पुरस 1
कन 1
अस 1
बु@@ 1
पी 1
मै@@ 1
रिय 1
बै@@ 1
डी@@ 1
बना 1
सू@@ 1
टन 1
संयुक 1
ंट 1
घ@@ 1
वन 1
पक 1
दूसरे 1
जिसके 1
पर@@ 1
अमेरिका 1
जल 1
वीं 1
केंद 1
मी@@ 1
दि@@ 1
तु@@ 1
े@@ 1
थापित 1
सक 1
दे 1
पै@@ 1
ंस 1
रन 1
उल 1
डि@@ 1
ठ@@ 1
टेशन 1
भर 1
ंड 1
तत 1
मों 1
तमान 1
उसकी 1
ो@@ 1
रति@@ 1
धि 1
जबकि 1
सामान 1
एस 1
यहां 1
नर 1
डा@@ 1
संग 1
मात 1
अप 1
लैंड 1
जिसका 1
खा@@ 1
कृष 1
पाकिस 1
बच 1
सभा 1
तियों 1
लड 1
यो@@ 1
मित 1
अव@@ 1
आज 1
पु@@ 1
माध 1
हो@@ 1
थापना 1
3 0.5027292712154595
तौर 1
िले 1
यता 1
यू 1
समर 1
ँ@@ 1
चि@@ 1
कर@@ 1
मिक 1
’ 0.6247544282948614
रति 1
ी@@ 1
२ 1
एल 1
अत 1
की@@ 1
‘ 1
पिता 1
रिक 1
मर 1
टि 1
ु@@ 1
घर 1
फि@@ 1
गढ 1
मंत 1
है@@ 1
हार 1
रै@@ 1
जि@@ 1
गयी 1
वाद 1
रखा 1
यवस 1
मृत 1
बनाया 1
नामक 1
अनेक 1
दार 1
आधार 1
पुस 1
ते@@ 1
कोड 1
गि@@ 1
यास 1
ओं 1
अप@@ 1
बारे 1
जु@@ 1
डा 1
उसने 1
परिवार 1
विक 1
सेना 1
ो 1
20 0.8429170110501667
चाहिए 1
देने 1
बात 1
आम 1
जो@@ 1
वै@@ 1
मान@@ 1
ययन 1
समूह 1
देशों 1
जारी 1
वत 1
तार 1
संगीत 1
बिहार 1
सेवा 1
उपलब 1
षक 1
रो 1
ऐसा 1
अच 1
षों 1
यु 1
जिला 1
सकती 1
१ 1
दो@@ 1
भू@@ 1
लै@@ 1
रभाव 1
पुत 1
राचीन 1
केन 1
दूर 1
दृष 1
लु@@ 1
ऐसे 1
जहां 1
डो@@ 1
िया 1
महिला 1
चक 1
था@@ 1
बनाने 1
चिम 1
परिवर 1
थीं 1
अलावा 1
छोड 1
दुर 1
कॉ@@ 1
अफ 1
आई@@ 1
देता 1
लम 1
भूमिका 1
शे@@ 1
ऐ@@ 1
शास 1
दी@@ 1
मैच 1
करके 1
माता 1
वक 1
लर 1
तराखण 1
जुड 1
दों 1
५ 1
निम 1
चिकित 1
जिससे 1
येक 1
अं@@ 1
खिलाफ 1
सार 1
ऑस 1
यदि 1
लेख 1
4 0.48058064478875284
ार 1
टिक 1
वतंत 1
धार 1
कंपनी 1
रोग 1
पता 1
रान 1
यन 1
काफी 1
अभि@@ 1
सामाजिक 1
समस 1
ताओं 1
दुनिया 1
कूल 1
लेकर 1
दू 1
धा@@ 1
5 0.5624889962640313
चुनाव 1
वान 1
उसका 1
यर 1
जिस 1
मस 1
एँ 1
तरी 1
आई 1
सम@@ 1
कप 1
नई 1
ियाँ 1
हम 1
शताब 1
झ@@ 1
कला 1
10 0.5796381780117212
रिटिश 1
पहला 1
चन 1
लाल 1
जोड 1
खु@@ 1
गये 1
परीक 1
अथवा 1
टों 1
सुरक 1
ओ 1
पानी 1
वों 1
खेल 1
तर@@ 1
समान 1
०@@ 1
३ 1
पादन 1
इंग 1
जन@@ 1
इसलिए 1
किये 1
ंद 1
शुरुआत 1
आगे 1
धन 1
अमेरिकी 1
छोटे 1
जहाँ 1
कृति 1
– 0.09718527373336634
कता 1
तेमाल 1
गे@@ 1
राम@@ 1
रणाली 1
उम 1
वरूप 1
= 1
आधारित 1
ंड@@ 1
३@@ 1
एस@@ 1
रेन 1
रकाशित 1
एं 1
वीप 1
6 0.56337967443245
चे@@ 1
गा 1
तित 1
उदाहरण 1
रेज 1
लगा 1
साम 1
रेलवे 1
चु@@ 1
जनवरी 1
ढ@@ 1
समाज 1
पूरी 1
इससे 1
फर 1
राजस 1
मुक 1
बाहर 1
इनके 1
अंत 1
आन 1
शासन 1
नियंत 1
विकसित 1
लू@@ 1
होगा 1
वो 1
मद 1
लोक 1
गांव 1
४ 1
पति 1
गी 1
पदार 1
रॉ@@ 1
कार@@ 1
इं@@ 1
मत 1
रहता 1
भगवान 1
संघ 1
दस 1
दशक 1
बनी 1
ती@@ 1
फे@@ 1
मुद 1
थल 1
रेणी 1
निया 1
बने 1
सै@@ 1
एम@@ 1
वित 1
ंक 1
रंग 1
सब 1
आत 1
देते 1
जिनमें 1
रहते 1
० 1
अन@@ 1
ु 1
सर@@ 1
अतिरिक 1
आधुनिक 1
! 1
होकर 1
बा 1
एम 1
हा 1
अधिकांश 1
यी 1
मई 1
रृंखला 1
नु@@ 1
शरीर 1
शीर 1
रमण 1
वाल 1
ान 1
६ 1
रेजी 1
रात 1
चे 1
gt 0.8762160627825175
लोकप 1
थिक 1
पा 1
हस 1
अगस 1
नए 1
डे 1
शर 1
देखा 1
टै@@ 1
९ 1
यादा 1
ढ 1
णन 1
बांग 1
संक 1
ू@@ 1
बस 1
टूबर 1
देव 1
ित 1
तो@@ 1
चा 1
मिल 1
खो@@ 1
अधिकार 1
lt 0.9359188961446495
ू 1
डर 1
निक 1
हु@@ 1
मानव 1
उसी 1
एन@@ 1
सिस 1
दूसरी 1
विभाग 1
राइ@@ 1
भिन 1
रैल 1
शी 1
कड 1
८ 1
आप 1
वाचन 1
संबंध 1
जून 1
मल 1
चीन 1
भूमि 1
जगह 1
छा@@ 1
नाथ 1
the 0.005700821158474501
मिश 1
राजधानी 1
जुलाई 1
देवी 1
पूरा 1
ऊपर 1
ंत 1
ूर 1
७ 1
-@@ 0.9018418020900769
ही@@ 1
थन 1
िया@@ 1
चिमी 1
तव 1
वैज 1
रोत 1
लो 1
सह@@ 1
थि@@ 1
राजनीतिक 1
पल 1
विचार 1
पष 1
सूची 1
तैयार 1
of 0.009901166082316655
विषय 1
बिना 1
सप 1
मीटर 1
जों 1
ौ@@ 1
ाई 1
दन 1
अग 1
णा 1
सीमा 1
जीत 1
टेस 1
यार 1
छा 1
ियां 1
किन 1
विधानसभा 1
लेने 1
लन 1
युग 1
रचना 1
४@@ 1
राय 1
लता 1
समा@@ 1
ञानिक 1
युत 1
धा 1
पृथ 1
वयं 1
निष 1
अंतिम 1
खिलाड 1
लिखा 1
मू@@ 1
चों 1
जनसंख 1
गै@@ 1
आकर 1
लिंग 1
ञ 1
थानीय 1
कोर 1
फा@@ 1
वादी 1
रपति 1
ार@@ 1
मानित 1
जे 1
वृद 1
उर 1
ॅ@@ 1
रास 1
समुद 1
सहायता 1
योजना 1
टूर 1
ीन 1
हल 1
आने 1
युक 1
नीचे 1
टिंग 1
रह@@ 1
ऑ@@ 1
मूर 1
यापक 1
करा@@ 1
ऐसी 1
संगठन 1
कहानी 1
चौ@@ 1
होना 1
समाप 1
हिंदी 1
9 0.5930479437187778
पढ 1
छात 1
अभी 1
टल 1
पात 1
पाया 1
तुलना 1
कॉलेज 1
रहने 1
चंद 1
ीय 1
नो 1
रकाश 1
णा@@ 1
8 0.5077355829999419
आक 1
15 0.5134884898415221
रवेश 1
तम 1
वें 1
मिला 1
शैली 1
नाटक 1
7 0.49334072736941736
भाई 1
रिस 1
६@@ 1
सूर 1
लीग 1
वितीय 1
रण@@ 1
किलोमीटर 1
पूरे 1
खे@@ 1
चात 1
विशिष 1
सों 1
रभावित 1
सहित 1
षमता 1
सदी 1
धान 1
ची 1
दूरी 1
रं@@ 1
सौ@@ 1
दृश 1
अवधि 1
निश 1
कू@@ 1
सिर 1
अवस 1
दल 1
मं@@ 1
फो@@ 1
संबंधित 1
जै@@ 1
बहु@@ 1
12 0.5266846152140853
पहाड 1
एंड 1
वल 1
सल 1
एन 1
सूत 1
शी@@ 1
दास 1
रयास 1
वश 1
लगे 1
2008 0.4472471278283845
यंत 1
णी 1
आबादी 1
दान 1
किमी 1
कुमाऊँ 1
हों 1
विधि 1
देव@@ 1
ऐतिहासिक 1
मिलता 1
मुस 1
पोर 1
बुद 1
मैं 1
बोर 1
बे 1
वहाँ 1
उड 1
यकता 1
कं@@ 1
षा@@ 1
खान 1
इनमें 1
रीका 1
वंश 1
हत 1
पित 1
रियों 1
रिया@@ 1
धि@@ 1
आर@@ 1
नक 1
गति 1
तंत 1
रेष 1
५@@ 1
सिक 1
यिक 1
तहत 1
काव 1
घोषणा 1
यापार 1
रहती 1
ोर 1
लाम 1
2007 0.4537827013171485
एं@@ 1
तुत 1
वीकार 1
आकार 1
दिए 1
विधान 1
0 0.6890973270698438
टे 1
आता 1
लिम 1
शा 1
पुरुष 1
बू@@ 1
दूसरा 1
जनगणना 1
भक 1
आते 1
चरण 1
रेट 1
ि 1
७@@ 1
हाल 1
आयोजित 1
कांग 1
सके 1
कारी 1
हाथ 1
गीत 1
नियम 1
८@@ 1
19 0.625205857584753
ऊर 1
ंगे 1
नौ@@ 1
मदद 1
रेलिया 1
लिस 1
एशिया 1
बौद 1
जिसने 1
दू@@ 1
लादेश 1
बनाए 1
टर@@ 1
रम@@ 1
इनका 1
दिखाई 1
विवाह 1
2018 0.44314143709155834
टो 1
पह@@ 1
नै@@ 1
2019 0.4468375839251588
चल 1
थात 1
बाल 1
थर 1
जाए 1
टम 1
कालीन 1
आया 1
जाति 1
पण 1
2009 0.40056976956449
नामेंट 1
हेतु 1
कारों 1
धांत 1
साइ@@ 1
लास 1
रखने 1
याय 1
गन 1
तुम 1
बताया 1
रव 1
सामने 1
अंतरराष 1
शादी 1
बैंक 1
थानों 1
30 0.5010483999675938
पू@@ 1
महिलाओं 1
11 0.5561127050955751
बम 1
मिली 1
रारंभिक 1
नन 1
उपन 1
पांच 1
लिन 1
शो@@ 1
लॉ@@ 1
राह 1
साक 1
घा@@ 1
रप 1
नियुक 1
पुलिस 1
ै@@ 1
रशिक 1
कश 1
बंद 1
मास 1
नेतृत 1
हे 1
पुनर 1
मह@@ 1
२@@ 1
कवि 1
ची@@ 1
कुमार 1
९@@ 1
नि 1
हवाई 1
ठा 1
‌ 1
रेल 1
कक 1
नस 1
बं@@ 1
चला 1
अम 1
रद 1
सात 1
घटना 1
किस 1
अधि@@ 1
कस 1
सांस 1
मार@@ 1
18 0.4393056868796677
रिका 1
परिषद 1
फरवरी 1
मेंट 1
रिकॉर 1
सफल 1
लग@@ 1
लेखक 1
पैदा 1
राकृतिक 1
िय@@ 1
दिशा 1
संरक 1
बर@@ 1
डॉ 1
मौ@@ 1
मीर 1
वेस 1
लाइ@@ 1
छत 1
मैन 1
बंगाल 1
मनुष 1
मिलियन 1
अरब 1
सब@@ 1
वती 1
यवहार 1
धी 1
नृत 1
रल 1
शु@@ 1
सितंबर 1
गैर 1
विन 1
जानकारी 1
वापस 1
वामी 1
कला@@ 1
ईस 1
१८@@ 1
जित 1
खड 1
फै@@ 1
2006 0.39620676144390743
जनता 1
थे@@ 1
आश 1
लाभ 1
गार 1
गोल 1
षिणी 1
षी 1
वजनिक 1
ंडा 1
दिनों 1
मनी 1
छोटी 1
सैन 1
तिक 1
नल 1
ारा 1
लू 1
समुदाय 1
यूरोप 1
सड 1
टार 1
भे@@ 1
भीतर 1
हासिल 1
पुष 1
25 0.5321420355920352
राव 1
खि@@ 1
वेल 1
कृ@@ 1
ँ 1
कानून 1
14 0.4764099656794841
कथा 1
वृत 1
कब 1
इनकी 1
भी@@ 1
इन@@ 1
चै@@ 1
खोज 1
आमतौर 1
लं@@ 1
तल 1
16 0.4480749069369682
अगर 1
अड 1
शित 1
ारी 1
बजे 1
देती 1
लब 1
धीरे 1
सरकारी 1
रां@@ 1
छी 1
सामग 1
ठी 1
पहचान 1
राजमार 1
शिव 1
3@@ 0.4551254831008079
गुप 1
पीछे 1
इलेक 1
खा 1
कृतिक 1
सिटी 1
रतिशत 1
षिक 1
जिम 1
2010 0.30051070644198025
उपस 1
कृषि 1
जिसकी 1
तू@@ 1
डन 1
मेल 1
तरफ 1
मिस 1
यत 1
ॉर 1
समिति 1
विष 1
पाठ 1
दिसंबर 1
परिणाम 1
लगता 1
लिक 1
सागर 1
यही 1
जल@@ 1
परा@@ 1
? 1
रहण 1
१९@@ 1
जैसा 1
सहायक 1
ऊ@@ 1
अभिनय 1
नवंबर 1
बिल 1
लित 1
वो@@ 1
डिग 1
शै@@ 1
चीनी 1
a 0.010226557444405173
लाख 1
महान 1
अनुसंधान 1
ईसा 1
किंग 1
मौजूद 1
बॉ@@ 1
टीवी 1
ठा@@ 1
वर@@ 1
रौद 1
सेंट 1
वार@@ 1
कमी 1
नलिखित 1
ये@@ 1
पंजाब 1
खुद 1
ञात 1
ंद@@ 1
एल@@ 1
तिगत 1
हॉ@@ 1
अकादमी 1
ताकि 1
जीता 1
जैन 1
वजह 1
तानी 1
तीय 1
21 0.5726999768401203
अपेक 1
बिन 1
लौ@@ 1
आधिकारिक 1
यतः 1
टेक 1
तीर 1
निजी 1
ः 1
गुरु 1
निय@@ 1
पाद 1
घु@@ 1
सिन 1
णों 1
थों 1
रांस 1
भाषाओं 1
नता 1
7@@ 0.503854482877195
रिलीज 1
सिं@@ 1
6@@ 0.4843019906425124
बदल 1
नव@@ 1
औसत 1
याप 1
धारित 1
जीव 1
रेम 1
धारा 1
जाएगा 1
एकल 1
आंदोलन 1
योगदान 1
नेपाल 1
पॉ@@ 1
बाहरी 1
रेड 1
यूरोपीय 1
विशाल 1
ञा@@ 1
पिक 1
तः 1
भाव 1
उससे 1
17 0.4832869428450642
िला 1
5@@ 0.42971813716666507
बाजार 1
शाह 1
यूटर 1
वेद 1
ीं 1
लय 1
अनुमति 1
रेक 1
रु 1
उनमें 1
वहां 1
दिर 1
गम 1
पट 1
पृष 1
जैसी 1
मुंबई 1
फी@@ 1
ें 1
रोक 1
किंतु 1
अली 1
2014 0.30088884466903915
पालन 1
यद 1
सूचना 1
पूजा 1
यस 1
2011 0.2781031542839289
भि@@ 1
कान 1
मंडल 1
2016 0.30560210990850345
हाइड 1
रिश 1
ठीक 1
णय 1
चू@@ 1
लियों 1
रबंधन 1
8@@ 0.5184392901398103
_ 0.3187854894018905
गों 1
विजय 1
2017 0.3199542564216774
लाई 1
चुके 1
दर@@ 1
सेन 1
फोर 1
नीति 1
ारों 1
डब 1
संचालित 1
रधान 1
भु@@ 1
संदर 1
देखने 1
विरोध 1
एच@@ 1
सीमित 1
कविता 1
रांत 1
धित 1
आसपास 1
अनुवाद 1
आस 1
रतियोगिता 1
13 0.4398673845927691
2005 0.38638886382404064
जय@@ 1
राय@@ 1
फल 1
रानी 1
9@@ 0.5226801314180055
लागू 1
ंगा 1
लगाया 1
रीन 1
मामले 1
धी@@ 1
छि@@ 1
एफ@@ 1
सफलता 1
रच@@ 1
मन@@ 1
देश@@ 1
and 0.006605404285026518
मनो@@ 1
सुधार 1
लाने 1
नेटवर 1
करें 1
शासक 1
चलता 1
मॉ@@ 1
छ 1
शल 1
चो@@ 1
पटना 1
बन@@ 1
महीने 1
+ 1
तियां 1
रवा@@ 1
संघर 1
इंडिया 1
भोजन 1
योगिकी 1
4@@ 0.3689413044038162
इत 1
शो 1
महाराष 1
१९९@@ 1
गंज 1
बावजूद 1
बार@@ 1
बद 1
जॉन 1
टॉ@@ 1
मिलती 1
शुक 1
बनाई 1
नया 1
पं@@ 1
ऑक 1
वीर 1
गंगा 1
मोड 1
तविक 1
भारी 1
शुद 1
2012 0.27323369253223867
घंटे 1
निस 1
सेल 1
पना 1
जू@@ 1
शिष 1
बैंड 1
जापान 1
षम 1
परन 1
पाए 1
रिटेन 1
अधिनियम 1
भार 1
कहीं 1
डिंग 1
आं@@ 1
णु 1
षर 1
चरित 1
सुन 1
2@@ 0.5862495063746408
लेट 1
संबंधी 1
आए 1
धारण 1
2000 0.3782191900701097
मॉडल 1
रिय@@ 1
संभव 1
रयुक 1
छह 1
निक@@ 1
अभिनेता 1
याख 1
तमिल 1
पाल 1
१९८@@ 1
आय@@ 1
गठन 1
आती 1
गं@@ 1
संकेत 1
राट 1
औ@@ 1
मिट 1
झील 1
परम 1
नात 1
तुर 1
नम 1
शों 1
ौर 1
वाड 1
पेन 1
2020 0.3275347065576471
50 0.5428181573996206
रेखा 1
मिनट 1
परंतु 1
फु@@ 1
हिंदू 1
करोड 1
लाइन 1
24 0.46385204789069284
लाया 1
माल 1
पीड 1
कोशिश 1
उपचार 1
रिपोर 1
गी@@ 1
लस 1
परिचय 1
संरचना 1
गौ@@ 1
आरम 1
रतिनिधित 1
विवरण 1
परियोजना 1
लोक@@ 1
माँ 1
वज 1
100 0.41554358685986953
गड 1
टू@@ 1
रूस 1
तरा@@ 1
तुओं 1
छोटा 1
मीडिया 1
मामलों 1
दत 1
अम@@ 1
कंप 1
होगी 1
हर@@ 1
साधारण 1
मानते 1
चले 1
मील 1
झा@@ 1
माने 1
22 0.5157256883763401
रसाद 1
रिज 1
तट 1
मुरादाबाद 1
तृत 1
नेता 1
ंगी 1
डॉ@@ 1
रोड 1
ंच@@ 1
रतिक 1
लेखन 1
आइ@@ 1
कौ@@ 1
विपरीत 1
तेज 1
2015 0.25782334340289376
अधिकारी 1
धु@@ 1
भव 1
ियन 1
संविधान 1
एफ 1
जान 1
अभियान 1
दीन 1
सही 1
भागों 1
ारे 1
2004 0.35755837059344864
रि 1
देना 1
महल 1
in 0.0038892937765754127
घट@@ 1
आयोजन 1
पुराने 1
समझ@@ 1
तियाँ 1
बद@@ 1
रकाशन 1
लेषण 1
रंग@@ 1
सहयोग 1
चिन 1
अनुभव 1
ऊ 1
टाइ@@ 1
कम@@ 1
रतिष 1
रकृति 1
पों 1
आईसीसी 1
अगले 1
वं@@ 1
याओं 1
पाई 1
ंज 1
वॉ@@ 1
पार@@ 1
नियों 1
आचार 1
पुरी 1
घोषित 1
शं@@ 1
डॉलर 1
फाइनल 1
१९७@@ 1
कोट 1
लगातार 1
इच 1
वेक 1
लेते 1
खंड 1
चुका 1
नत 1
एक@@ 1
मुहम 1
विधायक 1
पेट 1
पदक 1
भविष 1
दित 1
मेन 1
वीडियो 1
तेल 1
2013 0.24815149812232573
शाखा 1
शाही 1
१@@ 1
इस@@ 1
रश 1
ओलंपिक 1
संसद 1
आयु 1
लेक 1
डु@@ 1
लंदन 1
रतिस 1
बनने 1
रचित 1
गुण 1
लगा@@ 1
बह@@ 1
इल 1
गांधी 1
समीक 1
कीय 1
अतः 1
िक 1
2021 0.3605896936943863
नें 1
घरेलू 1
धिक 1
उसमें 1
विभाजित 1
निवास 1
पिछले 1
विदेशी 1
करीब 1
अर@@ 1
खेलों 1
भवन 1
लगी 1
बाज 1
रंथ 1
रशासनिक 1
नामित 1
राजनीति 1
गुजरात 1
ियो@@ 1
यादि 1
वायु 1
अज 1
योगिक 1
रज 1
षेप 1
हित 1
जम 1
रमा@@ 1
किनारे 1
इसने 1
यि@@ 1
बोली 1
निकट 1
सेट 1
२० 1
आदेश 1
नेस 1
धो@@ 1
रखते 1
जिनके 1
लाह 1
शेष 1
“ 0.04944133185442678
डिजाइन 1
$ 0.33851966988820664
पकड 1
वालों 1
युवा 1
सूक 1
लग 1
टिन 1
चारों 1
23 0.5055443680015571
यायालय 1
फॉर 1
दौरा 1
रौ@@ 1
ऋ@@ 1
इलाहाबाद 1
आठ 1
रचलित 1
सुविधा 1
मेट 1
पवित 1
लने 1
हरा 1
यूज 1
उपकरण 1
मिलकर 1
मानक 1
गल 1
चुना 1
माइक 1
परिणामस 1
थायी 1
नेट 1
वृ@@ 1
थोड 1
शोध 1
ै 1
” 0.704787854656404
पारंपरिक 1
हमारे 1
बिक 1
गो 1
टु@@ 1
26 0.5415133629872012
ताव 1
ताक 1
केट 1
रार 1
लें 1
तस 1
अनुमान 1
ाने 1
ंडर 1
मैचों 1
,@@ 1
नारायण 1
अभिनेत 1
तरीके 1
वाधिक 1
नाइट 1
नार 1
रारंभ 1
सारे 1
ंस@@ 1
रू 1
भिक 1
यपि 1
खेला 1
औद 1
चेन 1
दिसम 1
आदर 1
रवर 1
ंक@@ 1
वप 1
दावा 1
रिंग 1
ृ@@ 1
नाइ@@ 1
​ 1
लिखी 1
बंधित 1
पाँच 1
रोह 1
नान 1
१९६@@ 1
रख 1
है- 1
नपुर 1
यवसाय 1
यादातर 1
घ 1
नीय 1
बता@@ 1
रीलंका 1
भावना 1
तकों 1
छे 1
गैस 1
वृक 1
आगरा 1
अभ 1
समाचार 1
विल 1
आग 1
राथमिक 1
विकेट 1
विख 1
टिस 1
फोन 1
चैनल 1
मौत 1
लिय@@ 1
नवम 1
नागरिक 1
नियमित 1
नातक 1
शील 1
टस 1
लेखनीय 1
बजाय 1
अधीन 1
लेन 1
रतीक 1
पथ 1
ंडी 1
शिव@@ 1
2003 0.35183474040003637
ूल 1
I 0.15454817065437285
मानी 1
संपर 1
लिपि 1
रुप 1
40 0.4944276522305181
कलाकार 1
मना@@ 1
खाने 1
थाओं 1
बेल 1
घाट 1
डिस 1
कॉर 1
निभा@@ 1
रेरित 1
अवसर 1
बाई 1
28 0.5103394174414201
दोस 1
कारक 1
रचार 1
सार@@ 1
वां 1
2002 0.3587812320606483
साइड 1
2001 0.3585282757156722
लेता 1
सॉफ 1
इ 1
संत 1
धों 1
मंड@@ 1
आरंभ 1
यधिक 1
सामना 1
धियों 1
अद 1
नॉ@@ 1
विकल 1
रामीण 1
थो@@ 1
वैश 1
दु 1
वाक 1
मिलते 1
हमेशा 1
घाटी 1
१० 1
संचार 1
फी 1
सुन@@ 1
भट 1
दियों 1
27 0.506189580855257
विवाद 1
पुरा 1
थितियों 1
लामी 1
खाद 1
षि@@ 1
उप 1
ईश 1
पुनः 1
रशासन 1
आँ@@ 1
घो@@ 1
लना 1
निवेश 1
1990 0.4483442405104347
मैदान 1
टेट 1
रैक 1
हरि@@ 1
जॉर 1
बां@@ 1
नष 1
तीसगढ 1
रोज 1
जनरल 1
पेश 1
एकमात 1
खी 1
देशक 1
जिनका 1
जीवित 1
रमा 1
परिस 1
नेशनल 1
रधानमंत 1
लिखित 1
याय@@ 1
मैक 1
वायु@@ 1
एड@@ 1
मधु@@ 1
१७@@ 1
तै@@ 1
रमों 1
कनाडा 1
खंड@@ 1
तीसरे 1
धति 1
वेन 1
परमाणु 1
संपत 1
बों 1
मोर 1
हराया 1
तं@@ 1
10@@ 0.5622392410816883
पेड 1
चाहते 1
वाइ@@ 1
अंतरिक 1
यज 1
ताप 1
वेश 1
अधिकतर 1
ंब@@ 1
रेडियो 1
एका@@ 1
हीं 1
जान@@ 1
टेड 1
विष@@ 1
पे 1
यो 1
आलोचना 1
जांच 1
मू 1
इंड@@ 1
तें 1
काल@@ 1
रुद 1
लार 1
वाई 1
सां@@ 1
खण 1
मिले 1
बेटे 1
निंग 1
बत 1
माइ@@ 1
राशि 1
हाउस 1
ियर 1
पुरुषों 1
गेम 1
सव 1
बेहतर 1
यमान 1
गणित 1
रकट 1
रत@@ 1
ढा@@ 1
फा 1
रिकेटर 1
चढ 1
चुकी 1
शय 1
टक 1
लि 1
जनक 1
रारम 1
लियन 1
नायक 1
इंजन 1
तापमान 1
तात 1
षणों 1
मां@@ 1
करियर 1
पताल 1
याद 1
रका@@ 1
केरल 1
परिक 1
परंपरा 1
दम 1
जेल 1
मांग 1
ईसाई 1
जिद 1
सिंग 1
कीर 1
फाइ@@ 1
णित 1
बराबर 1
लंबे 1
टवेयर 1
नज 1
ेक 1
सैनिक 1
महासागर 1
हद 1
समारोह 1
शहरों 1
ॉ@@ 1
अंदर 1
संचालन 1
... 0.593372118521688
टाइम 1
मेलन 1
हालाँकि 1
लकर 1
मियों 1
राव@@ 1
ंच 1
रासायनिक 1
तीव 1
विमान 1
पंच@@ 1
गंभीर 1
टिकोण 1
वहीं 1
ंप@@ 1
धिकार 1
भाषा@@ 1
मिलित 1
इज 1
काम@@ 1
विषयों 1
मौसम 1
उनसे 1
यावरण 1
लगाने 1
नू@@ 1
तारा 1
to 0.006260183247206595
टियों 1
लेस 1
देख 1
मां 1
रांति 1
डो 1
मृ@@ 1
आयोग 1
विलियम 1
कत 1
रालय 1
रोम 1
अरबी 1
तथ 1
नाग@@ 1
१९५@@ 1
थापक 1
बंध@@ 1
जड 1
भौतिक 1
शारीरिक 1
सान 1
इतना 1
गुरु@@ 1
देखें 1
यूट 1
महाराज 1
रायः 1
घटनाओं 1
थव 1
डिज 1
कल@@ 1
लागत 1
सितम 1
ताल 1
ञा 1
पाने 1
लिखे 1
समूहों 1
हमला 1
किले 1
तोड 1
हैं- 1
पुल 1
एच 1
वन@@ 1
फॉ@@ 1
बेटी 1
मोहन 1
वाणिज 1
खर 1
लते 1
शान 1
खों 1
मक@@ 1
सुल 1
यकार 1
डाय@@ 1
कपड 1
वही 1
तकनीक 1
परिसर 1
संप 1
हम@@ 1
दिक 1
सीधे 1
अंक 1
टू 1
गे 1
कपूर 1
विरोधी 1
चली 1
सेक 1
ताह 1
धार@@ 1
फुटबॉल 1
विभाजन 1
दिखाया 1
दुल 1
अधिकारियों 1
इक 1
१९४@@ 1
मिलने 1
सच 1
षीय 1
सें@@ 1
गाने 1
ंसी 1
रॉन 1
भग@@ 1
भेद 1
वोच 1
ियो 1
पौ@@ 1
हवा 1
निभाई 1
रियाओं 1
लोकसभा 1
रहालय 1
चलने 1
दौर 1
तेजी 1
२०@@ 1
निकल 1
नित 1
वानों 1
अध@@ 1
झु@@ 1
थक 1
यप 1
कुं@@ 1
बल@@ 1
रिम 1
देशित 1
विजेता 1
शंकर 1
कैरियर 1
सभ 1
रोमन 1
रूसी 1
सिल 1
1980 0.5088584341979356
कैसे 1
मुझे 1
राजवंश 1
शकों 1
सह 1
गण@@ 1
सतह 1
षात 1
भित 1
ॉन 1
भाव@@ 1
विरुद 1
भूत 1
अश 1
पहुंच 1
राक 1
याग 1
विचारों 1
माला 1
अलीगढ 1
दि 1
यूक 1
1999 0.333328529075402
तकनीकी 1
सेवाओं 1
षत 1
भेजा 1
छु@@ 1
s 0.07238321756875502
सोवियत 1
बेस 1
मर@@ 1
रख@@ 1
रखता 1
॥ 1
देखते 1
चट 1
चिह 1
दिवस 1
भुगतान 1
उपाधि 1
वेंटी 1
यावसायिक 1
29 0.4770475926985415
कोश 1
घू@@ 1
रजा@@ 1
शांति 1
कथा@@ 1
नैनीताल 1
31 0.5211767927879472
डै@@ 1
जोखिम 1
देवता 1
पसंद 1
एशियाई 1
चतुर 1
देशन 1
दौरे 1
आये 1
तिब 1
रियल 1
लंबी 1
इब 1
रवृत 1
लत 1
यमंत 1
जग@@ 1
पुराण 1
वातावरण 1
सरल 1
डॉक 1
0@@ 0.6678094992731719
उचित 1
सचिव 1
टने 1
रभावी 1
विशेषज 1
अंततः 1
तार@@ 1
लैक 1
नेवाले 1
संभावना 1
धातु 1
हन 1
दौ@@ 1
जलवायु 1
तिष 1
डिया 1
हरा@@ 1
जिसमे 1
लीय 1
करेगा 1
थिर 1
नियमों 1
कोलकाता 1
ः@@ 1
वाह 1
करी 1
कण 1
टीमों 1
इंस 1
चय 1
डों 1
अंग@@ 1
रोजन 1
कॉन 1
कास 1
लैण 1
लती 1
पत@@ 1
यटन 1
चलते 1
जेम 1
यूजीलैंड 1
गवर 1
मंग@@ 1
जापानी 1
टिव 1
मेर 1
नार@@ 1
1998 0.3356635343337098
मोहम 1
इकाई 1
गतिविधियों 1
हज 1
हड 1
१५@@ 1
पद@@ 1
दिखा@@ 1
13@@ 0.3335794500792866
कट@@ 1
०० 1
हाइ@@ 1
कंपनियों 1
यकाल 1
कू 1
घे@@ 1
ङ 1
चार@@ 1
जीव@@ 1
रमाण 1
गद 1
मानना 1
formula 0.21178000152442433
इंडियन 1
जस 1
शैक 1
हिल 1
चैम 1
रस@@ 1
दबाव 1
वोल 1
मजबूत 1
अल@@ 1
करा 1
H@@ 0.10821792701576267
सारी 1
नर@@ 1
शत 1
फैसला 1
रिप 1
पैमाने 1
यौगिक 1
कराया 1
गति@@ 1
टेलीविजन 1
लाना 1
वाहन 1
ञ@@ 1
दोलन 1
बना@@ 1
गान 1
फू@@ 1
कैंसर 1
ियाई 1
दीक 1
पुराना 1
खाड 1
उपयोगकर 1
शायद 1
नुसार 1
शाह@@ 1
दै@@ 1
रॉक 1
सीरीज 1
३० 1
थियों 1
वरी 1
चयन 1
कां@@ 1
रेजों 1
आरोप 1
करे 1
भा 1
यूयॉर 1
i 0.06544253828033907
उनको 1
यर@@ 1
सीजन 1
P@@ 0.08542271899018522
परिवहन 1
यालयों 1
हाई 1
हमें 1
बुल 1
मोबाइल 1
यूनाइटेड 1
रसारण 1
अना@@ 1
मेश 1
वनि 1
विशेषता 1
ठे 1
भो@@ 1
आवाज 1
फुट 1
यूनिवर 1
नं@@ 1
हास 1
तन@@ 1
14@@ 0.3241518551159881
लपुर 1
उपयुक 1
जंक 1
टेडियम 1
१५ 1
जानी 1
डाला 1
भूषण 1
मतलब 1
पोस 1
हूँ 1
रदाय 1
सत@@ 1
सिया 1
शिकार 1
निवासी 1
मानसिक 1
असम 1
कट 1
वेब 1
मेरे 1
B@@ 0.08894911928745118
बई 1
भार@@ 1
गृह 1
खेती 1
ढंग 1
रदा@@ 1
रोल 1
विशेष@@ 1
यें 1
रूपों 1
सीज 1
रसा@@ 1
सैनिकों 1
रव@@ 1
° 0.6842771041872824
निदेशक 1
बाह 1
पुरानी 1
लभ 1
बॉक 1
60 0.4858082093918521
किल 1
बहन 1
अति@@ 1
रपुर 1
आप@@ 1
संभा@@ 1
१६@@ 1
वारी 1
इंटरनेट 1
उज 1
सस 1
तीसरी 1
नज@@ 1
मिंग 1
लीन 1
शुल 1
जुन 1
रॉफी 1
यं@@ 1
सित 1
तू 1
अनुप 1
गईं 1
ञापन 1
राफ 1
ुक 1
कृतियों 1
णु@@ 1
रखी 1
मैक@@ 1
ताएं 1
रवाह 1
विविध 1
उष 1
टरी 1
जगत 1
जिक 1
ियम 1
ईरान 1
ावा 1
गुज@@ 1
वैदिक 1
रफल 1
इंटर@@ 1
गूगल 1
यकर 1
1996 0.3231901747242505
बिंदु 1
मज 1
लकड 1
सुंदर 1
संसार 1
थशास 1
समझ 1
तरण 1
पाद@@ 1
यव@@ 1
पेक 1
शिल 1
M@@ 0.09427613353989896
आपूर 1
कियों 1
जातियों 1
वली 1
हरी 1
बनिक 1
गिर@@ 1
चुने 1
नही 1
१२ 1
निधन 1
गिर 1
लेना 1
पाइ@@ 1
बिजली 1
णि@@ 1
जीन 1
षकों 1
वामित 1
पाल@@ 1
कहना 1
उठा@@ 1
परिभाषित 1
विदेश 1
हरियाणा 1
मिर 1
गिरफ 1
नॉर 1
आय 1
अनंतपुर 1
खेले 1
लघु 1
इटली 1
रसार 1
संधि 1
चम 1
पशु 1
कहा@@ 1
बिया 1
लखनऊ 1
गणराज 1
योग@@ 1
सौ 1
षियों 1
T@@ 0.07828299347911391
हजार 1
रुखाबाद 1
अपराध 1
बीमारी 1
तने 1
टता 1
1970 0.4535483179124045
रशा@@ 1
पें@@ 1
भर@@ 1
A 0.0680124062878922
मृति 1
कानूनी 1
दिये 1
बाबा 1
रेशन 1
C@@ 0.10206824727062658
आसानी 1
सल@@ 1
महाभारत 1
उपा@@ 1
लिमिटेड 1
कहलाता 1
निका@@ 1
बैठ@@ 1
वु@@ 1
कारणों 1
12@@ 0.37605668551124805
पट@@ 1
पीढ 1
अनिवार 1
आंतरिक 1
ारि@@ 1
धारी 1
आंकड 1
पौड 1
रज@@ 1
साबित 1
आयरलैंड 1
परा 1
is 0.010089883717886532
नेताओं 1
टेल 1
नव 1
1997 0.31154518614702964
टिप 1
खास 1
राग 1
टरों 1
हृदय 1
अवार 1
एयर 1
नौ 1
रीकी 1
तय 1
देकर 1
षिप 1
वितरण 1
उपग 1
दीर 1
x 0.3240671897002434
गल@@ 1
मिशन 1
सफ 1
जोर 1
महाराजा 1
याम 1
चारण 1
पीठ 1
चौड 1
जनों 1
जहा@@ 1
धता 1
G@@ 0.07949175063439327
वानी 1
एड 1
फार 1
सदर 1
वोत 1
गुणवत 1
हैदराबाद 1
डेटा 1
एकत 1
कठिन 1
जमीन 1
निगम 1
दिवसीय 1
होटल 1
रीक 1
मो 1
नुकसान 1
काशी 1
रोस 1
सो 1
अस@@ 1
अभिव 1
गाड 1
समझा 1
रियन 1
जाकर 1
पहुँच 1
रसन 1
शिया 1
हिं@@ 1
बचपन 1
लान 1
1@@ 0.5305565229875955
यानी 1
E@@ 0.09775894840096847
रीज 1
लिख@@ 1
महसूस 1
आपको 1
नंबर 1
साफ 1
09 1
दें 1
परे@@ 1
The 0.009102066267200117
ऋषि 1
तिशाली 1
राल 1
संज 1
रोकने 1
चना 1
बैक 1
किरदार 1
धु 1
वनडे 1
मनाया 1
रंथों 1
साम@@ 1
बहा@@ 1
दारी 1
रचनाओं 1
वनस 1
कोरिया 1
चाहता 1
रेय 1
रेलियाई 1
मज@@ 1
बारी 1
तीनों 1
कमा@@ 1
मेह@@ 1
मुगल 1
रियता 1
ऊंचाई 1
पंक 1
हमले 1
वाणी 1
जय 1
लॉक 1
पनी 1
नियो@@ 1
सेंटर 1
विवा@@ 1
साथी 1
आनंद 1
साधन 1
अ 1
काओं 1
वां@@ 1
चं@@ 1
ारण 1
फीट 1
मुश 1
खेलने 1
राजाओं 1
1992 0.3040015639796312
में@@ 1
घरों 1
इंजीनियरिंग 1
तारों 1
उपज 1
जहाज 1
डार 1
पुरा@@ 1
सुर 1
जक 1
दिख@@ 1
चला@@ 1
तृतीय 1
यिकी 1
१०@@ 1
गीकरण 1
अनुपात 1
कने 1
जयपुर 1
समृद 1
ाया 1
धारावाहिक 1
कोल 1
— 0.28990587279961466
पादों 1
मल@@ 1
होंगे 1
अहमद 1
रायगढ 1
छेद 1
दुओं 1
लु 1
रीष 1
दूध 1
मुख@@ 1
रॉनिक 1
तारे 1
रीट 1
कैम@@ 1
जिनकी 1
चूंकि 1
बाँ@@ 1
टुकड 1
डेल 1
तता 1
नूलु 1
D@@ 0.08042534130677012
षता 1
1994 0.29526216921384596
रोगी 1
200 0.44241254364922755
यानि 1
मंच 1
बंगाली 1
रय 1
जरूरत 1
रसारित 1
बनाये 1
गुण@@ 1
जरी 1
आउट 1
मिलाकर 1
कोण 1
गायक 1
ठित 1
डाइ@@ 1
खत 1
तुरंत 1
किला 1
अफ@@ 1
तभी 1
1960 0.4638676479530656
पांड@@ 1
खाना 1
इलाज 1
भौगोलिक 1
-- 1
उन@@ 1
रिन 1
गणना 1
पियनशिप 1
जाया 1
रीमियर 1
रचना@@ 1
चिं@@ 1
जातीय 1
धू@@ 1
अंड@@ 1
चीज 1
हार@@ 1
मेरी 1
ोन 1
गण 1
जार 1
मिन 1
रुचि 1
1991 0.3107394749013662
गुज 1
भूगोल 1
I@@ 0.13430831490225648
औपचारिक 1
ताएँ 1
जनसांख 1
जिल 1
तया 1
रवरी 1
णीय 1
काफ 1
काली 1
1995 0.2930436857868797
कुर 1
पान 1
टोन 1
भागलपुर 1
हाथों 1
रगति 1
एयर@@ 1
नौज 1
गुड 1
कदम 1
संपूर 1
अधिकतम 1
आध 1
भाषाएँ 1
संबद 1
1993 0.3081160994835075
कलाकारों 1
ऑर 1
बोल 1
रतिनिधि 1
कोशिकाओं 1
दीप 1
गू@@ 1
रग 1
सौर 1
हरे 1
डू@@ 1
उपकरणों 1
करेंगे 1
हाट 1
रहित 1
सिनेमा 1
अपना@@ 1
तीसरा 1
बदलाव 1
70 0.5085766478193483
छे@@ 1
तनी 1
माल@@ 1
उपयोगी 1
बीज 1
धक 1
महाविद 1
80 0.4962467644365005
रती 1
गेंद 1
बाकी 1
नाल 1
पौधों 1
मिल@@ 1
35 0.49401164990120777
नाट 1
वात 1
रांसीसी 1
A@@ 0.08623838773914393
मारक 1
देवताओं 1
शू@@ 1
आदमी 1
पंचायत 1
भै@@ 1
केश 1
परिभाषा 1
कालिक 1
जात 1
पाय@@ 1
ेन 1
,००० 1
फूल 1
यूनि@@ 1
निरा@@ 1
मराठी 1
ऊँचाई 1
दार@@ 1
घाटन 1
बनाकर 1
रेरणा 1
समझने 1
मय 1
हॉल 1
बनाता 1
माह 1
नाग 1
20@@ 1
नाक 1
योज@@ 1
हिमालय 1
अति 1
इट 1
इण 1
कह 1
लिका 1
लॉन 1
अवधारणा 1
रहस 1
शुरुआती 1
निहित 1
समु@@ 1
मद@@ 1
२५ 1
टूडियो 1
अंश 1
वेत 1
जॉ@@ 1
धन@@ 1
सफेद 1
डिजिटल 1
वायरस 1
हटा 1
इमारत 1
जीतने 1
रीम 1
थु@@ 1
लौट 1
हिंसा 1
घं@@ 1
थानांतरित 1
सीट 1
दृढ 1
दैनिक 1
नग@@ 1
पन@@ 1
मुसलमानों 1
बनाते 1
मारे 1
तना 1
रुक 1
मचारियों 1
जटिल 1
फलस 1
शस 1
किंगडम 1
षे@@ 1
रॉयल 1
सरस 1
महे@@ 1
यौन 1
लिखने 1
तीं 1
500 0.4364833057037198
S@@ 0.06739442061486169
पेशेवर 1
रशंसा 1
सद 1
इम 1
पू 1
बस@@ 1
बाग 1
यल 1
झू@@ 1
अधिकारों 1
मोटर 1
याल 1
रभा@@ 1
इंटरनेशनल 1
पुन 1
उपभोक 1
एलि@@ 1
संबंधों 1
ंडे@@ 1
आदि@@ 1
११ 1
आयुर 1
कित 1
परस 1
यातायात 1
कोशिका 1
पोषण 1
हीन 1
कच 1
शन@@ 1
चुनावों 1
लट 1
गां@@ 1
तांत 1
महात 1
१९३@@ 1
ंगों 1
रसायन 1
षाकृत 1
सवीं 1
फैला 1
रूप@@ 1
सक@@ 1
रतीत 1
टेन 1
यकारी 1
घात 1
मचारी 1
सज 1
डेन 1
अमरीका 1
अला@@ 1
खो 1
पेस 1
शराब 1
शृंखला 1
ोड 1
कह@@ 1
डाल 1
PM 1
उभ@@ 1
एव@@ 1
इलाकों 1
अपरा@@ 1
उ 1
कौशल 1
जीवनी 1
५० 1
सुपर 1
डेविड 1
लाइट 1
घोड 1
करी@@ 1
काउंटी 1
नील 1
डोर 1
लंबाई 1
45 0.4655459521008282
अशोक 1
रष 1
नवा@@ 1
राजनैतिक 1
याण 1
चम@@ 1
तह@@ 1
पंजाबी 1
१४ 1
नक@@ 1
हूं 1
अमेरिकन 1
कोच 1
शीलता 1
ऍ@@ 1
झ 1
इतनी 1
सलाह 1
होम 1
रखना 1
ठभूमि 1
पृथक 1
अभाव 1
संगठनों 1
ठोस 1
नड 1
बंदी 1
पौराणिक 1
बनता 1
शे 1
कराने 1
तिरु@@ 1
षरता 1
समीप 1
मशीन 1
विधा@@ 1
खेत 1
गेट 1
सेस 1
90 0.4560045513072771
अरु@@ 1
संहिता 1
वरों 1
ऋण 1
यपाल 1
शौ@@ 1
जब@@ 1
पादित 1
समानता 1
शां@@ 1
आविष 1
मेदार 1
चलती 1
लगती 1
मिथ 1
लेखों 1
दाता 1
साह@@ 1
ऊपरी 1
तल@@ 1
बनाना 1
महाद 1
रथ 1
रोटीन 1
सूच@@ 1
तां@@ 1
रोफेसर 1
यिका 1
सुबह 1
रशं@@ 1
बास 1
वचा 1
शाला 1
गलत 1
जंगल 1
रांड 1
हान 1
रर 1
रणी 1
रेगोरी 1
बसा 1
वतन 1
किताब 1
यांकन 1
भाग@@ 1
काले 1
विवे@@ 1
माइकल 1
ंगल 1
मेक 1
कॉम 1
बरी 1
माया 1
रेंच 1
२१ 1
खे 1
जमा 1
नेत 1
विरासत 1
बॉलीवुड 1
वाचित 1
इंच 1
पहुंचती 1
शनिक 1
सन@@ 1
मठ 1
सकारात 1
नये 1
पंडित 1
टेज 1
तकालय 1
दूत 1
राजनीतिज 1
खरी@@ 1
सुनिश 1
यार@@ 1
रमशः 1
C 0.20410664043116583
अभ@@ 1
समाधान 1
माउ@@ 1
रुप@@ 1
लिश 1
षि 1
समन 1
सुझाव 1
भूमि@@ 1
शिखर 1
अलं@@ 1
नदियों 1
पिंग 1
मिया 1
वैसे 1
N@@ 0.07993972762872527
जीवों 1
नाम@@ 1
दवा 1
बेन 1
लेती 1
ौ 1
मीद 1
जवाब 1
थी@@ 1
बायो@@ 1
मेला 1
वत@@ 1
शायर 1
टिल 1
रोध 1
जिंग 1
टॉक 1
रुपये 1
एसोसिएशन 1
शह@@ 1
नेवाली 1
शून 1
निकाला 1
तौ@@ 1
बंग@@ 1
कंप@@ 1
सका 1
चि 1
टकर 1
देखी 1
1989 0.28271086686971064
२४ 1
फील 1
ठों 1
थलों 1
साध@@ 1
सीन 1
राउंड 1
वयस 1
रजातियों 1
संभावित 1
विंग 1
यम@@ 1
रेम@@ 1
हिर 1
करवाया 1
बुक 1
जीवन@@ 1
नवी@@ 1
रखण 1
तिथि 1
कैलंडर 1
गुणों 1
शीघ 1
बीमा 1
बो 1
मंदिरों 1
सात@@ 1
मोह@@ 1
अकबर 1
केशन 1
टेनिस 1
नतम 1
amp 0.10461297379763844
मना 1
समझौते 1
मानों 1
पारी 1
शेयर 1
१६ 1
थाई 1
देखकर 1
वाय@@ 1
सुप 1
1950 0.42019534136256215
संकट 1
थि 1
एप 1
बक 1
ऑन 1
चाहे 1
ईट 1
कथित 1
रणा@@ 1
सियों 1
यूरो@@ 1
सालों 1
R@@ 0.07520475718993856
पुट 1
वरिष 1
कुल@@ 1
गुना 1
विलय 1
किम 1
१८ 1
W@@ 0.07863528443860711
मगध 1
याव@@ 1
संवेद@@ 1
कुत 1
कैम 1
नाएं 1
रें 1
वाज 1
कौन 1
यथा 1
चालक 1
यहीं 1
रेखांश 1
लह@@ 1
वंद 1
साइट 1
खराब 1
विच 1
लाभ@@ 1
षु@@ 1
ंत@@ 1
लोर 1
सफ@@ 1
चुम 1
पौधे 1
लेखकों 1
जीते 1
लॉजी 1
सिख 1
ऑनलाइन 1
खेलते 1
ञानिकों 1
मालिक 1
संग@@ 1
जाये 1
बाल@@ 1
रेखा@@ 1
दोष 1
नोट 1
रभु 1
हू@@ 1
होल 1
कहता 1
ेश 1
ठाकुर 1
२०११ 1
पांच@@ 1
बदले 1
बैठक 1
एट 1
निरंतर 1
मत@@ 1
चौधरी 1
लाहौर 1
आंध 1
रखे 1
सास 1
इड 1
ऐल 1
गोस 1
संसाधन 1
सकें 1
15@@ 0.7351987166579717
कारियों 1
महि@@ 1
वाँ 1
हुये 1
बाब 1
तरित 1
धांतों 1
सांसद 1
तृ@@ 1
दंड 1
32 0.438605698771631
यहूदी 1
ا@@ 1
टैक 1
संदेश 1
देन 1
यूब 1
टेंट 1
यापारिक 1
लगते 1
आहार 1
दौड 1
बीसी 1
शहरी 1
इरा@@ 1
कवर 1
रचनात 1
चोट 1
राणी 1
कॉल 1
पारित 1
यूनानी 1
धारा@@ 1
रहों 1
लेबाज 1
बुनियादी 1
कलकत 1
हेनरी 1
दीवार 1
छवि 1
शॉ@@ 1
नियन 1
बिस 1
जना 1
जिलों 1
थना 1
विड 1
भू 1
तमिलनाडु 1
मनोविज 1
रोगों 1
कोष 1
जला@@ 1
जैक 1
कवि@@ 1
१४@@ 1
दायित 1
देखभाल 1
१३ 1
डबल 1
रॉस 1
शुरूआत 1
अनुबंध 1
करणों 1
संशोधन 1
1947 0.44449791717076187
नैतिक 1
रथा 1
देख@@ 1
जवा@@ 1
संकल 1
यंजन 1
भूति 1
याज 1
यायाधीश 1
यादव 1
फिक 1
२०१४ 1
1986 0.3036427937483315
नौकरी 1
पनिक 1
बहादुर 1
निकाल 1
मती 1
तुल 1
नने 1
कैथोलिक 1
बेगूसराय 1
यांत 1
रिकी 1
ारी@@ 1
औरंगाबाद 1
णुओं 1
समकालीन 1
रतिद 1
हारी 1
पने 1
मनोरंजन 1
संयोजन 1
अज@@ 1
दय 1
नामों 1
बृ@@ 1
राइट 1
भाष 1
सेवन 1
निको@@ 1
भव@@ 1
राफी 1
ऑफिस 1
कोशि@@ 1
ारो@@ 1
गीतों 1
रॉबर 1
1988 0.276655890987621
L@@ 0.0602302653315373
अष 1
किसान 1
इंद 1
वेग 1
यंग 1
सुधार@@ 1
तक@@ 1
आपके 1
रबंध 1
१२@@ 1
खू@@ 1
राई 1
गॉ@@ 1
नमू@@ 1
मांस 1
देर 1
ंश 1
चालन 1
रयासों 1
योजन 1
धरती 1
हजारों 1
छूटती 1
वरण 1
नेहरू 1
अफगानिस 1
शासकों 1
सिंगापुर 1
1984 0.299676324707839
नद@@ 1
नेल 1
बागेश 1
रयत 1
कुश 1
याकरण 1
बोस 1
अपनाया 1
शनल 1
१९ 1
ठि@@ 1
विचार@@ 1
बोध 1
अदालत 1
हिट 1
पाण 1
पीटर 1
गुर 1
यय 1
शाली 1
संभ@@ 1
पेश@@ 1
ंडों 1
दूर@@ 1
निदान 1
मानव@@ 1
रताप 1
एंटी@@ 1
कॉटलैंड 1
राजपूत 1
लव 1
तकें 1
शाम 1
बू 1
चेस 1
पुणे 1
ौली 1
बालक 1
मीन 1
षाओं 1
जैव 1
निया@@ 1
D 0.21984425304413735
खै@@ 1
दश@@ 1
पैरा@@ 1
वेबसाइट 1
षणिक 1
कीमत 1
राजकुमार 1
भौतिकी 1
कैप 1
मैन@@ 1
हल@@ 1
टाई 1
निन 1
टीन 1
दिष 1
रवाई 1
वाही 1
हिमाचल 1
ंती 1
नवीन 1
नियां 1
पादक 1
विविधता 1
मुर 1
मौजूदा 1
पदों 1
* 0.06896503177719669
तरीय 1
भद 1
भरी 1
सिम 1
अवश 1
मकालीन 1
कमाई 1
तनाव 1
यरत 1
1.@@ 0.5426386628574987
वापसी 1
फेस 1
बचाने 1
लोन 1
नंद 1
रुव 1
वैकल 1
गिल 1
रोगियों 1
असफल 1
१७ 1
रामायण 1
उद@@ 1
पहुंचा 1
पैर 1
आरो@@ 1
निवे@@ 1
जनजाति 1
चमोली 1
नास 1
निवासियों 1
रतिमा 1
विध@@ 1
वेट 1
सेवाएं 1
1985 0.29277679403328627
आकाश 1
पुन@@ 1
V@@ 0.07795904752337647
आवृत 1
करार 1
भास 1
हुसैन 1
चाल 1
रहे@@ 1
सामूहिक 1
डिवीजन 1
रभावशाली 1
रामा@@ 1
सॉ@@ 1
पाठ@@ 1
योजित 1
आजकल 1
अनुकूल 1
कठोर 1
बनाती 1
135 1
AM 1
पसंख 1
सुविधाओं 1
इसको 1
पेरिस 1
बिता@@ 1
काई 1
जैविक 1
पस 1
रोटो@@ 1
लिं@@ 1
औष@@ 1
गोली 1
तकर 1
रहना 1
समी@@ 1
br 0.6564773332871419
अनुरूप 1
जुर 1
लिप 1
हज@@ 1
• 1
करनी 1
जाम 1
अनुक 1
वादियों 1
वुड 1
ढू@@ 1
चालित 1
पतन 1
बंदरगाह 1
बारा 1
सजा 1
तराधिकारी 1
संघीय 1
ाइन 1
कोस 1
गृ@@ 1
तरल 1
रैंक 1
नकर 1
खिताब 1
तरों 1
मानु@@ 1
पौडी 1
रमित 1
विपणन 1
खाते 1
दरबार 1
M 0.26856816793957466
केल 1
बेहद 1
फाय@@ 1
1987 0.2725526680868441
चतम 1
घटक 1
बताते 1
मि 1
वास@@ 1
रबन 1
संभवतः 1
हमारी 1
आग@@ 1
खोला 1
डस 1
मूल@@ 1
ॉ 1
फाई 1
वें@@ 1
ंचा@@ 1
मछली 1
याया@@ 1
वि 1
ोल 1
1962 0.3671271200359218
देखे 1
षय 1
1971 0.31712189975761246
O@@ 0.07719157085121331
तप 1
उपजिला 1
काएँ 1
मौलिक 1
वजन 1
आवास 1
सकों 1
आंशिक 1
शुरु 1
ओवर 1
नियाँ 1
पॉल 1
तथापि 1
बरा 1
मुम 1
रने 1
वच 1
0.@@ 0.5854543065589386
मंगल 1
रीति 1
वाहि@@ 1
संके@@ 1
बचा@@ 1
संसदीय 1
बचाव 1
मेरा 1
टिया 1
दशा 1
b@@ 0.07276566751096748
शिय@@ 1
दरवा@@ 1
T 0.24099542499877838
जिस@@ 1
लाओं 1
समझौता 1
राहक 1
शासनकाल 1
बिलियन 1
मेडिकल 1
सहा@@ 1
सीमा@@ 1
२२ 1
तुल@@ 1
वट 1
डियो@@ 1
पहुंच@@ 1
नीत 1
मजबूर 1
लोगो 1
शतक 1
दिग 1
पुरम 1
1972 0.27381617422002796
75 0.46976694079842857
1967 0.32831986093988963
यथार 1
जेन 1
शरी@@ 1
सांख 1
२०१० 1
J@@ 0.0874442688047129
नरी 1
मारा 1
टाचार 1
आगमन 1
बातचीत 1
राजनेता 1
आपने 1
मोन 1
रहीं 1
नयी 1
बांध 1
हेल 1
अधिग 1
तुकला 1
रियासत 1
सेज 1
डिक 1
बाइ@@ 1
मारने 1
सें 1
चलाने 1
वाना 1
कथाओं 1
टार@@ 1
मुताबिक 1
सोने 1
जानते 1
कहानियों 1
गार@@ 1
डीज 1
दपुर 1
पिन 1
भीड 1
विचारधारा 1
अनि@@ 1
मपुर 1
लिप@@ 1
बिल@@ 1
n 0.11076255655479722
जानवरों 1
नाय@@ 1
यटक 1
रजनन 1
लैटिन 1
रयोगों 1
पंचा@@ 1
मनोवैज 1
1952 0.3795405659973693
उठ@@ 1
रिं@@ 1
बंध 1
१३@@ 1
लॉस 1
हौ@@ 1
धारणा 1
B 0.14305324361281796
महीनों 1
माध@@ 1
देशी 1
बदला 1
ऊष 1
घायल 1
योगों 1
गाया 1
ंगु@@ 1
कागज 1
चौथे 1
ओपन 1
मूत 1
F@@ 0.0674888054264829
आध@@ 1
सहयोगी 1
ुदा 1
36 0.46729727374027313
जू 1
रोजगार 1
लंबा 1
राण 1
गिनी 1
मौखिक 1
हानि 1
विशेषकर 1
२००९ 1
मिनल 1
जिन@@ 1
नेश 1
पटकथा 1
रारूप 1
बौ@@ 1
रामक 1
अमरीकी 1
नशील 1
फारसी 1
शेर 1
उदाह@@ 1
संपादक 1
तिम 1
रतिबंध 1
लव@@ 1
लोड 1
नां@@ 1
कलन 1
रतिभा 1
रेंस 1
अदिलाबादु 1
पीय 1
डिय@@ 1
हनुमान 1
# 0.4394444182428505
300 0.46058594055318536
घि@@ 1
मलयालम 1
आपस 1
ऑपरे@@ 1
णिक 1
वेयर 1
रावण 1
विजय@@ 1
नागरिकों 1
संयंत 1
कमल 1
शनों 1
लाइव 1
बदलने 1
बचने 1
रब 1
p@@ 0.07126840798543521
टेली@@ 1
बरा@@ 1
रयाग 1
गठबंधन 1
टाउन 1
अंत@@ 1
इतने 1
सरदार 1
बान 1
रशांत 1
उदय 1
भरा 1
राहकों 1
साई 1
हट 1
कवियों 1
कुशल 1
गामी 1
समेत 1
चेतना 1
टोरिया 1
मणि 1
रमिक 1
पेशकश 1
तरीकों 1
रपात 1
विट 1
वेद@@ 1
कारा@@ 1
चावल 1
कव@@ 1
महादेव 1
रिचर 1
2.@@ 0.49440344327799723
मुं@@ 1
गोवा 1
महर 1
उपनाम 1
तनों 1
सुविधा@@ 1
एण 1
भागीदारी 1
यां 1
दिव 1
हिम 1
L 0.2022456246030921
काएं 1
मशी@@ 1
मुसलमान 1
सुपर@@ 1
णता 1
पिल 1
किसानों 1
सौंप@@ 1
धाम 1
ईंधन 1
एकीकृत 1
लनों 1
55 0.5207194094940615
on 0.007236599876383792
अंचल 1
अवतार 1
वय 1
33 0.4698628642927428
जोकि 1
ढाका 1
नेवाला 1
K@@ 0.0493475816308135
इनकार 1
शम 1
घड 1
तपुर 1
तावित 1
वेज 1
कोप 1
नाएँ 1
एडि@@ 1
थापन 1
रिड 1
हुईं 1
किट 1
गेंदबाज 1
ताज 1
दारों 1
रेल@@ 1
वंशज 1
सारा 1
00@@ 0.8667206215634704
1977 0.29772474357503054
1982 0.27269143608727286
भेज 1
टें 1
ंगे@@ 1
गहराई 1
फसल 1
मशहूर 1
मता 1
पहुंचने 1
दूसरों 1
मलेशिया 1
रयो@@ 1
लेख@@ 1
वयं@@ 1
ियाना 1
इतिहासकार 1
इलाके 1
टेन@@ 1
पशुओं 1
मानवीय 1
अमीर 1
आखिरी 1
ऑल 1
शोषण 1
घनत 1
बलों 1
उपाध 1
संपन 1
ील 1
ओड 1
ञान@@ 1
परंपरागत 1
तज 1
बेथ 1
विपक 1
नमक 1
नू 1
रें@@ 1
बीस 1
आउट@@ 1
ईं 1
ॆ@@ 1
नति 1
सुल@@ 1
जाय 1
रजाति 1
रोतों 1
N 0.26523863920928065
ंगर 1
गज 1
पाता 1
संगम 1
सेवानिवृत 1
जलि 1
मैंने 1
गठित 1
लेज 1
शासित 1
उपर 1
भाषण 1
रणालियों 1
दुष 1
वालीफायर 1
नेपाली 1
वाराणसी 1
गीकृत 1
जाएगी 1
जोधपुर 1
जोन 1
ठान 1
जं@@ 1
धे@@ 1
यवाद 1
लाल@@ 1
S 0.20409347741580713
साझा 1
ऐ 1
007@@ 1
यावहारिक 1
वीपों 1
नाओं 1
रीस 1
सोम@@ 1
खुले 1
पराजित 1
पाते 1
रोन 1
कडप 1
दाब 1
सूरज 1
चौथी 1
जंगली 1
यक@@ 1
उसको 1
चाहिये 1
जितना 1
परिवारों 1
काला 1
गीता 1
यटकों 1
विकार 1
काश 1
जनपद 1
महाकाव 1
आशा 1
एजे@@ 1
गतिविधि 1
as 0.006870246666255879
बाज@@ 1
गरीब 1
राजन@@ 1
टॉप 1
रेड@@ 1
बिग 1
मला 1
खें 1
णात 1
तुति 1
बारह 1
तरीका 1
बताता 1
रवि@@ 1
परत 1
सवाल 1
झा 1
संगत 1
रेख 1
परामर 1
आदिवासी 1
कमजोर 1
संघ@@ 1
अगली 1
शाक 1
दाद 1
पाली 1
बाढ 1
डम 1
गदर 1
भारती 1
वचन 1
दण 1
विमानक 1
अखिल 1
लेयर 1
साय@@ 1
णक 1
दवाओं 1
विं@@ 1
२३ 1
निज 1
साँ@@ 1
1975 0.2630458936202209
पिस 1
बैंग@@ 1
पणी 1
मेजबानी 1
नामकरण 1
यौ@@ 1
समीकरण 1
हाथी 1
.. 1
or 0.02093004467259892
अमर 1
उस@@ 1
फोट 1
खी@@ 1
गाँ@@ 1
चैंपियनशिप 1
वॉल 1
गणेश 1
एजेंसी 1
दाय@@ 1
यमिक 1
राइल 1
वड 1
खींच@@ 1
बहती 1
यवसा@@ 1
अभिया@@ 1
बेटा 1
००० 1
चलाया 1
सिंह@@ 1
पहचा@@ 1
पहुँच@@ 1
आरंभिक 1
धम@@ 1
बिट 1
मरा@@ 1
सहज 1
आसान 1
सृष 1
रियो 1
डियन 1
रमुख@@ 1
संगीतकार 1
लेश 1
यापारी 1
विंडोज 1
हं@@ 1
1973 0.2684393765479499
चुनौती 1
रखती 1
1979 0.25880324495181517
भावनाओं 1
अनू@@ 1
राओं 1
अंतर@@ 1
इला@@ 1
इसीलिए 1
उपाय 1
झारखंड 1
लियम 1
हाइट 1
खतरा 1
नीतियों 1
मने 1
कठ@@ 1
कारा 1
नाडु 1
यताओं 1
रसू@@ 1
आलोचकों 1
लुक 1
शांत 1
सैण 1
कहने 1
खर@@ 1
बाजी 1
हटा@@ 1
1948 0.3179664257856855
डाक 1
पब 1
मगर 1
अनुरोध 1
टाइप 1
डू 1
वायत 1
कुम 1
ीकरण 1
२६ 1
कैलिफोर 1
हक 1
आना 1
ञों 1
शीतकालीन 1
साव@@ 1
कोटा 1
गिरजाघर 1
पैसे 1
समग 1
कुण 1
मुंगेर 1
राणा 1
सरे 1
ऋतु 1
तापूर 1
सूचीबद 1
२००८ 1
सदन 1
२७ 1
लिंक 1
सिको 1
४० 1
दगी 1
यूनतम 1
लिखते 1
रतिरोध 1
वादक 1
खरीद 1
पला@@ 1
किशोर 1
कूलों 1
घिरा 1
छः 1
जाए@@ 1
किं@@ 1
जमी@@ 1
1930 0.38991459595076877
अयोध 1
करो 1
गिरावट 1
चलकर 1
चिंता 1
धे 1
किता@@ 1
बोलने 1
मानता 1
समुदायों 1
1983 0.24729098051076592
रफ 1
वाहक 1
1956 0.3183744121172013
फार@@ 1
भोज@@ 1
मैग 1
सुख 1
y@@ 0.05875573168570087
घा 1
दुश 1
अवशेष 1
चाँ@@ 1
टूट 1
संदेह 1
ंडे 1
काट 1
लियाँ 1
हथियार 1
जियम 1
तपस 1
तोष 1
नजर 1
पिथोरागढ 1
अका@@ 1
आनन 1
बती 1
आईटी 1
इराक 1
इसलिये 1
दया@@ 1
रूद 1
भेड 1
नकारात 1
बिं@@ 1
लगने 1
अग@@ 1
सुंद@@ 1
34 0.4350541334972276
an 0.005905059587901626
मेदारी 1
संपादित 1
समि@@ 1
सोसाइटी 1
1957 0.33233055587692373
कटि@@ 1
भाँति 1
37 0.4887049855165875
लां@@ 1
२८ 1
पहुंचा@@ 1
for 0.006542197908366386
याँ 1
सहमति 1
d 0.07640715928447721
उक 1
वालियर 1
शेख 1
षांश 1
वाभाविक 1
आमंत 1
ऑपरेशन 1
गंगा@@ 1
चरणों 1
हारे 1
१९०@@ 1
मरण 1
योतिष 1
ऊंच@@ 1
गतिशील 1
शाब 1
38 0.44438773930062486
कांक 1
जौ@@ 1
यूनियन 1
रेटर 1
विकिरण 1
सहमत 1
ारित 1
कमरे 1
बसे 1
मासिक 1
वाह@@ 1
निकाय 1
यकताओं 1
यूरो 1
वैद 1
रूढ 1
विर 1
संगठित 1
असामान 1
गरी@@ 1
मुल 1
योद 1
सलाहकार 1
२०१३ 1
E 0.19048133323531205
गाना 1
बटा@@ 1
ऊँचा 1
संतुलन 1
एकता 1
गाय@@ 1
डच 1
विज@@ 1
65 0.31514737707976515
कारकों 1
पाती 1
संसाधनों 1
सीता 1
ताई 1
नौसेना 1
बीन 1
मोत 1
दुस 1
मुग 1
रदेशों 1
k@@ 0.046644191656335716
आधे 1
गुफा 1
निकालने 1
खनिज 1
मीदवार 1
गुजराती 1
विया 1
कुन 1
षति 1
रिये 1
आजादी 1
खन 1
रथ@@ 1
रामपुर 1
२००६ 1
भोपाल 1
रयोगशाला 1
रिकाओं 1
एडवर 1
वैष 1
.एस@@ 1
नूर 1
पुरु@@ 1
मुनि 1
ृ 1
II 0.1281184046274236
आरक 1
जीवी 1
साहब 1
विफल 1
कु 1
तैयारी 1
वाष 1
वीकृति 1
संवाद 1
अमीरात 1
पो 1
1978 0.2434055452922177
मथुरा 1
वासियों 1
हरण 1
o 0.036590968188081545
उल@@ 1
दोनो 1
नवाब 1
निगरानी 1
फौ@@ 1
रनाथ 1
सेवा@@ 1
1965 0.2791074594912882
निकलने 1
गाँधी 1
टीट 1
बजट 1
बुलाया 1
माताओं 1
रंगों 1
शियम 1
संशोधित 1
पशु@@ 1
1981 0.24931279928304695
आठ@@ 1
टोक 1
विशे@@ 1
F 0.20895184529526603
धूम 1
पियन 1
कही 1
टिकट 1
मोक 1
रहा@@ 1
लियो@@ 1
शुष 1
जातियाँ 1
नंद@@ 1
निरीक 1
फिया 1
वासी 1
सुना@@ 1
जाल 1
पायी 1
कानपुर 1
मौका 1
शरण 1
संवत 1
कोरियाई 1
छोर 1
जाँच 1
भय 1
राची@@ 1
सभा@@ 1
1976 0.2402391643398828
सिविल 1
हमने 1
चाप 1
नामांकन 1
रेमी 1
नीदरलैंड 1
शती 1
टोर 1
दरा 1
मेले 1
मोदी 1
लॉर 1
केश@@ 1
जेक 1
लूम 1
सबूत 1
m 0.053637789396317345
अनुकू@@ 1
रचनाएँ 1
R 0.18050844782510903
डाटा 1
ञानी 1
यां@@ 1
400 0.3682173278487114
लंघन 1
अनुमानित 1
टइंडीज 1
गहरा 1
मेगा@@ 1
२००७ 1
पुरातत 1
शानदार 1
52 0.5090628079370255
नती 1
रीकरण 1
पाये 1
पोल 1
बहुमत 1
मिनी 1
राणियों 1
लाइसेंस 1
रियर 1
रिल 1
विकास@@ 1
संकलन 1
d@@ 0.05350435459817235
आकृति 1
पटेल 1
महामारी 1
यून 1
1969 0.2471549469399189
1974 0.22968395703654285
फैल 1
भुत 1
राधा 1
साग@@ 1
रकारों 1
काला@@ 1
लाव 1
वाओं 1
हिंदुस 1
ँग 1
नगरों 1
शाया 1
48 0.4611392887698769
तावेज 1
निशा@@ 1
मिति 1
वंशी 1
अनुसरण 1
दशकों 1
मानचित 1
सौंदर 1
भूमिकाओं 1
काने 1
कृतियाँ 1
कैं@@ 1
टीका 1
तेलुगु 1
माप 1
कॉमिक 1
झी@@ 1
बाड 1
रॉय 1
अनुष 1
जिनसे 1
लेट@@ 1
बली 1
गायन 1
पाक 1
भारत@@ 1
मादा 1
अकेले 1
कें 1
ारसी 1
पावत 1
पॉलि@@ 1
पोरेशन 1
एलबम 1
गोर 1
तंभ 1
भुज 1
वकील 1
विशा@@ 1
नगरीय 1
हिक 1
बनते 1
विनो@@ 1
होनी 1
एथली@@ 1
नोबेल 1
शाता 1
गरम 1
गहरी 1
नागरी 1
निपट@@ 1
मापन 1
निचले 1
बख 1
सदा 1
सीखने 1
उठाया 1
१.@@ 1
यमुना 1
यापन 1
रियम 1
लीप 1
समझी 1
सहारा 1
टिने@@ 1
मैदा@@ 1
सेफ 1
निकटतम 1
बाला 1
मोटे 1
शिला@@ 1
शिशु 1
अवय@@ 1
डीन 1
पठार 1
यड 1
शिप 1
गीय 1
गोपाल 1
डियो 1
नाथ@@ 1
वभाव 1
आखि@@ 1
भंग 1
विधियों 1
खिला@@ 1
ळ@@ 1
नरेश 1
काय 1
डिप 1
निकलती 1
बातों 1
विशेषताओं 1
साहिब 1
सिंहासन 1
रही@@ 1
सियस 1
रामा 1
रायद 1
ईरानी 1
उग 1
एकड 1
जाय@@ 1
रूम 1
टिकल 1
पहल 1
लिटी 1
केस 1
रोह@@ 1
अचानक 1
अनन 1
आतंक@@ 1
टी20आई 1
X 0.22395599239457678
कना@@ 1
मुखी 1
रणीय 1
रमश 1
कॉमेडी 1
रती@@ 1
रांतिकारी 1
हेक 1
गौतम 1
मिले@@ 1
वाई@@ 1
अथ@@ 1
अभयारण 1
42 0.43630704608253296
इतालवी 1
डक 1
विनिर 1
ंगो 1
माई 1
पल@@ 1
रणार 1
हंडिया 1
भाजपा 1
रियाई 1
वैत 1
असमर 1
संवैधानिक 1
सूचित 1
सैद 1
सोर 1
चाई 1
दं@@ 1
नाटकों 1
बहु 1
भूमध 1
सीता@@ 1
हिष 1
दलों 1
निरू@@ 1
गाय 1
रभावों 1
ारस 1
किरा@@ 1
मरी 1
रेश 1
साधना 1
गोल@@ 1
दावली 1
पुण 1
जिया 1
भों 1
मौर 1
रमंडल 1
सेवक 1
घन 1
डु 1
सिय@@ 1
गोत 1
मतदान 1
रघु@@ 1
सख 1
२०१६ 1
1,@@ 0.3856853801057541
कांस 1
वयन 1
अंकित 1
नुक 1
बचा 1
रतिरक 1
धड 1
रेंज 1
वीन 1
सोच 1
६० 1
इकट 1
इज@@ 1
युगल 1
रीकृष 1
हॉकी 1
२०१२ 1
कैल 1
पारिवारिक 1
लेंडर 1
सापेक 1
दायक 1
देशा@@ 1
बनती 1
रबंधक 1
उपमहाद 1
जायेगा 1
मिकता 1
डि 1
तरार 1
नहर 1
वध 1
शेखर 1
सटीक 1
कंट 1
नागपुर 1
निधि 1
मातृ@@ 1
रकारिता 1
हाँ 1
64 0.3523610084718337
भौ@@ 1
याति 1
लगाए 1
ोत 1
.com 0.9061656561102001
44 0.3810000085002132
करवा@@ 1
तिज 1
रेणियों 1
वल@@ 1
चरम 1
मेज 1
वंश@@ 1
टाटा 1
फाउंडेशन 1
असली 1
करे@@ 1
खाली 1
गीर 1
लाज 1
अनुभ@@ 1
कमे@@ 1
पहुंचे 1
शूटिंग 1
51 0.4845351091331959
खुला 1
महारानी 1
संगीत@@ 1
हराकर 1
सीमाओं 1
g 0.09765932495359003
खून 1
नींव 1
रतियोगि@@ 1
P 0.22826264562293191
तख 1
जानने 1
रुस 1
रोसे@@ 1
सिल@@ 1
२००० 1
असर 1
पहुँचा@@ 1
रवासी 1
लॉग 1
समाजवादी 1
al 0.05340170809514023
م@@ 1
अवैध 1
सैयद 1
अंडर 1
टेबल 1
तालाब 1
बहस 1
बेल@@ 1
भंड@@ 1
शिंगटन 1
U@@ 0.07686703936943425
राण@@ 1
निरपेक 1
मैरी 1
विकिपीडिया 1
हैरी 1
रोधी 1
इंग@@ 1
टान 1
बच@@ 1
बुरी 1
महिलाएं 1
वाद@@ 1
सफलतापूर 1
सहस 1
गयीं 1
फस@@ 1
उठा 1
उतर@@ 1
चौथा 1
चौहान 1
1920 0.3083788919073623
जरूरी 1
थॉमस 1
मूलतः 1
1000 0.5123366031167191
बोलते 1
आकाश@@ 1
चारिक 1
रिकार 1
दादा 1
नेक 1
फास 1
मिन@@ 1
यवादी 1
कुश@@ 1
वारों 1
२०१५ 1
लाक 1
ीक 1
ृत 1
बेडकर 1
रांसिस 1
पूंजी 1
बनवाया 1
1968 0.21776128723790544
खतरे 1
बाध 1
बाबू 1
रानी@@ 1
c 0.138039640339439
परिणामों 1
https 1
बेह@@ 1
अनुच 1
उदा@@ 1
खाता 1
रतिवर 1
लात 1
1964 0.23748634394916293
3.@@ 0.5496456261315497
उपनिवे@@ 1
पम 1
रखकर 1
रबल 1
हिसाब 1
किन@@ 1
थै@@ 1
G 0.1896962784092268
कुमारी 1
टें@@ 1
दरी 1
16@@ 0.7903573846065868
ओल 1
देगा 1
पेज 1
रोडक 1
लोहे 1
छो@@ 1
तिस 1
पूछ@@ 1
सिफारि@@ 1
चेहरे 1
माँ@@ 1
सीसी 1
चिड 1
सकीय 1
1966 0.24983893193298928
बातें 1
मैसूर 1
सवार 1
िम 1
रधा@@ 1
रन@@ 1
रेत 1
रोहित 1
िस 1
तगा@@ 1
भाषी 1
39 0.42582006767062863
इर 1
बाला@@ 1
रतिदिन 1
रुत 1
सेना@@ 1
j@@ 0.06917579772690215
टाइन 1
मेमो@@ 1
रमाणित 1
शनी 1
घास 1
भरे 1
मुखर 1
रणनीति 1
खाल 1
परियोजनाओं 1
पूं@@ 1
फिलिप 1
इनर 1
काठ@@ 1
काण 1
नीज 1
बाधा 1
रोसॉफ 1
सू 1
तलाश 1
परंपरा@@ 1
आनुवं@@ 1
नियर 1
मांस@@ 1
by 0.006413710014199795
रगुप 1
गौरव 1
झो@@ 1
निकाल@@ 1
छू@@ 1
पालिका 1
ोसी 1
गिरी 1
ंटी 1
कुंड 1
रजत 1
लाखों 1
संपादन 1
तटीय 1
शाखा@@ 1
विल@@ 1
सुख@@ 1
परो@@ 1
रजा 1
ओडि@@ 1
कालेज 1
कुट 1
टेलि@@ 1
दूरदर 1
बित 1
ऐक 1
चलन 1
दबा@@ 1
सेप 1
g@@ 0.05451899429418281
जानवर 1
रनों 1
रिटी 1
लाइफ 1
लीला 1
43 0.470738667398056
घूर 1
रतिभा@@ 1
लाय@@ 1
वेदी 1
सूरा 1
m@@ 0.05504842141072625
मुकाबले 1
99 0.5214076509020433
ंडि@@ 1
गानों 1
हारों 1
बदलकर 1
रवादी 1
लेंस 1
लैंगिक 1
विभक 1
अधिका@@ 1
आवासीय 1
ऋग 1
गणितीय 1
टाइल 1
पीछा 1
यमकेश 1
रोही 1
सिंचाई 1
जीती 1
मग@@ 1
05 0.6170536977919763
छन 1
वेली 1
हितों 1
08 0.6224502178445017
होली 1
ाव 1
47 0.4767612841600806
दिशा@@ 1
कूट 1
95 0.47077904434446444
खूबसूरत 1
छिद 1
टेम 1
ंची 1
कायम 1
कैन 1
जरू@@ 1
संतान 1
कानों 1
रना 1
शियन 1
करों 1
पूल 1
युनिस 1
राधिकरण 1
शुभ 1
२९ 1
एव 1
फान 1
मले@@ 1
लेबाजी 1
गिरि 1
ठे@@ 1
तिपूर 1
नातकोत 1
वीकृत 1
समक 1
सशस 1
हू 1
n@@ 0.05154705001632145
अबू 1
जाट 1
रमे@@ 1
रूज 1
शिला 1
हफ 1
अण 1
पीने 1
षी@@ 1
षेक 1
हिमा@@ 1
de 0.024127187427959166
थम 1
मिला@@ 1
युनि@@ 1
वयुद 1
सीबी@@ 1
एज 1
कथन 1
तारीख 1
रिसर 1
अनुसूचित 1
फैशन 1
मणि@@ 1
शेल 1
l 0.0730582516010349
अके@@ 1
तीस 1
रहमान 1
कात 1
डिजा@@ 1
ताइ@@ 1
मसा@@ 1
लयों 1
सिने@@ 1
इंदिरा 1
डाउन 1
माज 1
मामला 1
रदूषण 1
साउ@@ 1
अंगों 1
दाम 1
आधार@@ 1
मराठा 1
सैकड 1
हसन 1
तालिका 1
राजकीय 1
रीमती 1
19वीं 1
जेट 1
रिपब 1
विहार 1
मतों 1
योति@@ 1
विधि@@ 1
सोनी 1
अखबार 1
याप@@ 1
१०० 1
06 0.6880800649148686
लिट 1
लेखा@@ 1
वाट 1
ऑटो@@ 1
आपकी 1
नाई 1
पारिस 1
रखा@@ 1
विभागों 1
वेशन 1
सोल 1
आया@@ 1
इंजीनियर 1
एयरलाइन 1
वराज 1
शोधकर 1
साधारण@@ 1
सिया@@ 1
मुफ 1
रेटिंग 1
षेपण 1
ंदी 1
चाय 1
दीवारों 1
नु 1
56 0.4907514359707206
इक@@ 1
डित 1
ंदगी 1
चाहती 1
07 0.6364886021345055
किशो@@ 1
लीस 1
विध 1
योगि@@ 1
बकीय 1
रते 1
राहुल 1
रैंड 1
वहन 1
एर 1
लोकन 1
वागत 1
t@@ 0.03992232972081572
दांत 1
यापी 1
रोजेक 1
साद 1
जिब 1
थिएटर 1
पहुँचने 1
बादशाह 1
भूतपूर 1
िये 1
इनसे 1
1940 0.24569613500754756
अहमदाबाद 1
गहरे 1
जमा@@ 1
नबर 1
50@@ 0.7440933684014782
p 0.10093210211683216
काउंसिल 1
जीर 1
टीना 1
पूँ@@ 1
लें@@ 1
चुंबकीय 1
फन 1
मैट 1
बयान 1
विरो@@ 1
अकाल 1
गंगो@@ 1
घटित 1
मेवाड 1
सरकारों 1
हिप 1
उदयपुर 1
णकटिबंधीय 1
53 0.4817415151601661
भले 1
मछ@@ 1
सामं@@ 1
ईसा@@ 1
टी20ई 1
फोटोग 1
संहार 1
टील 1
ओस 1
पुर@@ 1
बुन 1
सरी 1
मानस 1
लेफ 1
वाकर 1
िन 1
खनन 1
देह 1
रचलन 1
शिवाजी 1
रवाल 1
कविताओं 1
काउ@@ 1
ढा 1
बारा@@ 1
बारिश 1
लेम 1
एपिसोड 1
तिमान 1
लोराइड 1
c@@ 0.060438116631713286
कमी@@ 1
सोलहवीं 1
एकदिवसीय 1
कहलाते 1
काइ@@ 1
नली 1
समाज@@ 1
1961 0.2415406667807277
छाया 1
धारक 1
30@@ 1
s@@ 0.0403911768053148
ई० 1
एसिड 1
फूलपुर 1
राह@@ 1
वीय 1
षदों 1
an@@ 0.034931027236734045
चैंपियन 1
णव 1
फैक 1
यायिक 1
सीधा 1
N.Z.A. 1
O 0.10516218886034659
ंचल 1
लिफ 1
अतीत 1
कटिक 1
मॉर 1
राथ@@ 1
राने 1
शियाई 1
that 0.0074170309848558815
जंगलों 1
थिरता 1
नती@@ 1
भेद@@ 1
रेगिस 1
वाहनों 1
तरा 1
पेय 1
मेजर 1
हटाने 1
१,@@ 1
1963 0.23672466689426439
बॉम 1
ंडो 1
कहलाती 1
केप 1
मिया@@ 1
खरी 1
परिचित 1
फेयर 1
कथानक 1
कनेक 1
भूकंप 1
रायल 1
विभा@@ 1
२००१ 1
८० 1
उतना 1
औरंग@@ 1
गुरुत 1
तीत 1
राइव 1
शाखाओं 1
68 0.48525262851367423
पॉप 1
सुविधाएं 1
ेद 1
85 0.44207052226564086
अणु 1
औषधि 1
औसतन 1
कुरान 1
पतियों 1
पहुँचा 1
पाश 1
युग@@ 1
योगी 1
रैंकिंग 1
भोग 1
सेनाओं 1
ंट@@ 1
जीवि@@ 1
दां@@ 1
पनों 1
लीफ 1
टवर 1
वनी 1
साहन 1
V 0.18577838321610357
अव 1
कीं 1
फल@@ 1
गली 1
जूनियर 1
तरराष 1
निकला 1
विनाश 1
a@@ 0.06953997891787321
ar 0.06331374915102292
रवाद 1
लेशन 1
षु 1
04 0.5967609410487348
41 0.4113448149350883
शु 1
अनुयायी 1
दल@@ 1
दोषी 1
बुर 1
वसा 1
सिलि@@ 1
ar@@ 0.050982368106117885
अमे@@ 1
कलात 1
मॉड@@ 1
साउथ 1
रतिनि@@ 1
वितरित 1
e@@ 0.06001242187084911
असम@@ 1
आस@@ 1
परिकल 1
योहार 1
अपरि@@ 1
गले 1
जाये@@ 1
पंद 1
150 0.4831550864655205
46 0.43975187883735045
गेंदबाजी 1
तिकता 1
मीरी 1
मैने@@ 1
लियो 1
सदा@@ 1
हवीं 1
अनेकों 1
जागरू@@ 1
बिहारी 1
मानने 1
राजा@@ 1
लौटने 1
वोट 1
आईपी@@ 1
खोल 1
चस 1
टेलीविज 1
महावीर 1
मानकों 1
आधा 1
इकाइयों 1
काँ@@ 1
णि 1
वसन 1
कालि@@ 1
तकनीकों 1
तिया 1
मालि@@ 1
वासन 1
टाने 1
देहरादून 1
भोज 1
मुलाकात 1
पैदल 1
वेतन 1
दीकी 1
मांड@@ 1
इंडोनेशिया 1
गीत@@ 1
हि 1
इलाक 1
कणों 1
किर@@ 1
गोवि@@ 1
निशान 1
पुराणों 1
बॉल 1
टिका 1
तिर@@ 1
लखीसराय 1
लाए 1
पोरेट 1
रिको@@ 1
1955 0.2594031492493119
पाठक 1
रेडिट 1
शहीद 1
तिका 1
लबर 1
षरों 1
अपील 1
फेफड 1
हानि@@ 1
जागरण 1
डनी 1
रूर 1
१८९@@ 1
अवसरों 1
आरा@@ 1
ताम 1
नाना 1
घातक 1
दाहि@@ 1
वीपसमूह 1
डेक 1
रभु@@ 1
सिग 1
सीरिया 1
आधु@@ 1
रांतीय 1
शिलालेख 1
ोस 1
राउ@@ 1
40@@ 0.8913648340119384
कोटि 1
ङ@@ 1
पायर 1
होनें 1
जने 1
ेगा 1
डालने 1
तरिक 1
नगरी 1
विषा@@ 1
असाधारण 1
परे 1
रवास 1
पारस 1
भाइयों 1
भारतीयों 1
01 0.5606922315311427
आईएस@@ 1
जगहों 1
पठ@@ 1
यवर 1
राजील 1
संलग 1
54 0.44136078623523656
इंदौर 1
डाई 1
डेन@@ 1
रावधान 1
लौकिक 1
वेदों 1
खबर 1
पण@@ 1
रया@@ 1
अनुयाई 1
रोग@@ 1
गोविन 1
पाउंड 1
फें@@ 1
रूपांतरण 1
ास 1
1949 0.24289543178885845
3,@@ 0.4630616586243383
किक 1
चय@@ 1
विवेचन 1
72 0.46295396714476433
बहुसंख 1
हारा 1
२००५ 1
अमी@@ 1
कली 1
रीन@@ 1
हृ@@ 1
25@@ 1
छुट 1
ई.पू. 1
तेन 1
आल 1
इमारतों 1
भेजने 1
मिसाइल 1
लेखा 1
88 0.480383077546031
रविष 1
राना 1
x@@ 0.14915636759394532
अनाज 1
कहती 1
जनित 1
मच 1
राइड 1
एलेक 1
विला@@ 1
सके@@ 1
h@@ 0.05950933588564025
आम@@ 1
किर 1
तगाली 1
नून 1
महाराणा 1
षार 1
सकी 1
ر@@ 1
जर@@ 1
जोशी 1
पावर 1
कहे 1
रभाव@@ 1
राजकुमारी 1
रिट 1
संश 1
अंडे 1
टमैन 1
देहा@@ 1
मुहा@@ 1
रहें 1
वरुप 1
गहन 1
समापन 1
1945 0.11691715311692659
H 0.2552466681084547
असल 1
ताजी 1
सना@@ 1
ीसा 1
थानी 1
लिया@@ 1
तला@@ 1
भीम@@ 1
मंगो@@ 1
संतुष 1
चाह@@ 1
शार@@ 1
हमलों 1
खाया 1
फेट 1
विलुप 1
टीज 1
तराखंड 1
याएं 1
योजनाओं 1
ववर 1
उजा@@ 1
पिछली 1
पिया 1
मिं@@ 1
सोडियम 1
ाना 1
अनुपस 1
गणतंत 1
नाटकीय 1
पहलुओं 1
रधान@@ 1
रहेगा 1
at 0.006769118255534956
आवेदन 1
कबी@@ 1
फैस@@ 1
बराम@@ 1
याह 1
वनों 1
u 0.05328256505475
बसा@@ 1
२००४ 1
थाप@@ 1
धारणा@@ 1
रहकर 1
आख 1
खुदाई 1
बैंकों 1
यूरे@@ 1
सेकंड 1
हदी@@ 1
चिल 1
डियों 1
पुनरा@@ 1
बेर 1
मांकन 1
मोडा 1
राजीव 1
उपनि@@ 1
बिज@@ 1
सपुर 1
सराय 1
एम.@@ 1
कारोबार 1
गणि@@ 1
बलि@@ 1
रतिबंधित 1
ओलि@@ 1
गांवों 1
फैले 1
नीयता 1
मग 1
यूके 1
येष 1
लीवुड 1
संक@@ 1
समाजशास 1
1954 0.24744073478090414
रुख 1
सिंध 1
i@@ 0.05257878101214551
उपदेश 1
रभुत 1
विटामिन 1
विषाणु 1
शनीय 1
हमारा 1
--@@ 1
v@@ 0.05697437391812884
गाई 1
नैदानिक 1
मोनो@@ 1
अमृत@@ 1
डेट 1
निकलता 1
फूलों 1
फेड@@ 1
रमि@@ 1
सांरगढ 1
जगन 1
पंजीकृत 1
पोप 1
भां@@ 1
षिणपूर 1
ाइल 1
एनिमे@@ 1
दिलचस 1
वियतनाम 1
अभिक 1
आराम 1
एगा 1
कबीर 1
जलप 1
टु 1
17@@ 0.8480728516489158
1946 0.21226128138652975
w@@ 0.06398416875943568
ंदा 1
एयरलाइ@@ 1
कोरो@@ 1
मापी 1
खगोलीय 1
पेनिश 1
बनकर 1
ताल@@ 1
फे 1
बैंकिंग 1
रकाश@@ 1
लेड 1
गायत 1
चालू 1
लगाकर 1
सबर 1
कष 1
टॉम 1
निषे@@ 1
योर 1
लाई@@ 1
ारक 1
X@@ 0.15186866769918508
Y@@ 0.07585927873282508
अंटार 1
औपनिवेशिक 1
रआन 1
विनिमय 1
86 0.4711511449781707
चलचित 1
थता 1
लीज 1
लैश 1
आइस@@ 1
इयों 1
छंद 1
राउन 1
लाकर 1
सती 1
सदैव 1
एंड@@ 1
छिक 1
रेजि@@ 1
लामिक 1
वालामुखी 1
वाली@@ 1
चौद@@ 1
तरंग 1
नाश 1
बैठे 1
मोल 1
600 0.436613417274612
डाउन@@ 1
रोकार 1
सतत 1
यूएस 1
आंग 1
49 0.4003814854385834
आवर 1
कामया@@ 1
डेमोक 1
सीय 1
२०१७ 1
62 0.45733105244014693
b 0.09987516847613553
अत@@ 1
गमन 1
तुएँ 1
पूछा 1
बोल@@ 1
रकला 1
18@@ 1
उठाने 1
भरत@@ 1
66 0.4229939959038604
लिंग@@ 1
अलेक 1
गरी 1
लिब 1
8.@@ 0.5977032681182807
जटि@@ 1
फुल 1
भीम 1
यॉर 1
पसं@@ 1
उपरांत 1
एजेंट 1
लघु@@ 1
ियंस 1
1958 0.222107209422248
उपासना 1
पदा 1
अंगू@@ 1
काया 1
कॉट 1
थाईलैंड 1
रवाहित 1
७० 1
छड 1
जेब 1
रोक@@ 1
63 0.42692521073788536
किरण 1
77 0.44556620898917887
इनको 1
कोलंबिया 1
गोरखपुर 1
पहल@@ 1
बनाम 1
बहने 1
रवि 1
58 0.4577863145172532
आदित 1
बॉन 1
लोबल 1
पहलू 1
फंड 1
माँग 1
लोकतंत 1
सीक 1
ृंग@@ 1
ॊ@@ 1
जम@@ 1
मुकाबला 1
ऊँची 1
चोटी 1
फाल 1
भरने 1
रीम@@ 1
साथियों 1
आपात@@ 1
तलाक 1
तेह@@ 1
दुः@@ 1
बिलकुल 1
मुकदमा 1
सूचक 1
२०१८ 1
1951 0.24832790703547158
चेतावनी 1
निंदा 1
फैली 1
ओलम 1
रंगमंच 1
षद 1
खासकर 1
गना 1
टेयर 1
थिये@@ 1
सेनानी 1
दुबई 1
बँ@@ 1
मणिपुर 1
हिम@@ 1
ंकी 1
आद@@ 1
घोष 1
यथा@@ 1
रिफ 1
खतरनाक 1
धाओं 1
बाघ 1
महोत 1
सद@@ 1
ँसी 1
अक@@ 1
गोप@@ 1
रतों 1
राहत 1
रोधक 1
00 0.3801607179258303
71 0.4196195930914166
t 0.03970559400937855
एह@@ 1
तेलंगाना 1
दिखाने 1
नाट@@ 1
वभौ@@ 1
1959 0.22671732746635637
अट@@ 1
गौड 1
भाषाई 1
यौगिकों 1
उपयोगि@@ 1
थापत 1
मॉन 1
साइंस 1
सामुदायिक 1
आलो@@ 1
बरेली 1
रक@@ 1
राफिक 1
सं 1
ंडिंग 1
इका@@ 1
चंडी@@ 1
नगरपालिका 1
लौर 1
अंतराल 1
कुमार@@ 1
बीकानेर 1
हांगकांग 1
ऊंची 1
घटन 1
चोरी 1
जावा 1
परक 1
लेन@@ 1
सृ@@ 1
एथ@@ 1
धातुओं 1
पिथौरागढ 1
लॉ 1
57 0.4252496335003504
ंपिक 1
चल@@ 1
पृ@@ 1
मुला@@ 1
2,@@ 0.3944765130757735
आलोच@@ 1
जीवाश 1
ताप@@ 1
पाट 1
पारि@@ 1
लगाव 1
५०० 1
ंदर 1
दशी 1
धीय 1
सकल 1
करेगी 1
गास 1
देखता 1
नामी 1
पारम 1
बीर 1
माम@@ 1
y 0.03912635249195975
कैद 1
तावादी 1
फलन 1
बी.@@ 1
रेंद 1
वांछित 1
शिवा@@ 1
शीत@@ 1
सदियों 1
असं@@ 1
ईसवी 1
गुरू 1
गृह@@ 1
बनावट 1
सऊदी 1
सचेंज 1
काशी@@ 1
बुल@@ 1
मतभेद 1
मिका 1
वनाथ 1
वय@@ 1
4.@@ 0.6645449232336267
काना 1
कीट 1
ढी 1
थियो@@ 1
नाज 1
यी@@ 1
योजक 1
वदेशी 1
h 0.0843182250610667
कानू@@ 1
पूरक 1
बाँध 1
मातृभाषा 1
यासों 1
98 0.4536475812007329
चमक 1
जिकल 1
जिनमे 1
बाद@@ 1
भूटान 1
सृजन 1
इतिहासकारों 1
नांक 1
पहचाना 1
मुन 1
आयात 1
तिन 1
मंद 1
खार 1
जीवा@@ 1
दमन 1
मता@@ 1
वादा 1
ँकि 1
इंटर 1
इंडीज 1
ऑव 1
तमाम 1
तरंग@@ 1
निकटता 1
जीरिया 1
तेलुगू 1
रॉ 1
डीसी 1
बीमार@@ 1
ययनों 1
वतों 1
सु 1
झिल 1
मदर 1
पंथ 1
वेश@@ 1
खगोल@@ 1
पैरों 1
ॉल 1
मंजूरी 1
रणों 1
रांस@@ 1
साझेदारी 1
२००३ 1
जाइ@@ 1
समतल 1
एना@@ 1
खुला@@ 1
गुफा@@ 1
तली 1
राब 1
२००@@ 1
जें 1
बेचने 1
यापार@@ 1
विधियाँ 1
सेनापति 1
ैर 1
अजय 1
खारिज 1
गेंद@@ 1
बचे 1
संजय 1
बेड 1
लौह 1
हरि 1
en 0.03378545195547091
निवार@@ 1
रीब 1
लाद 1
समू@@ 1
भागी@@ 1
रूपां@@ 1
with 0.004983182698774629
एकीकरण 1
छूट 1
पिछड 1
फायर 1
मालवा 1
लरी 1
वैध 1
उपनिषद 1
जें@@ 1
डेस 1
परेशान 1
मानन 1
लुप 1
वसनीय 1
पेशियों 1
लाब 1
समे@@ 1
साप 1
are 0.01162584236287733
जरिए 1
दूता@@ 1
भट@@ 1
मिड@@ 1
शंस 1
काउं@@ 1
चिंग 1
जानता 1
टीरिया 1
दायी 1
नाड 1
रकरण 1
000 1
अटलांटिक 1
तिग 1
धुरी 1
लॆ 1
अकार 1
दाएं 1
निबंध 1
परास 1
संन 1
9.@@ 0.5676993947107224
झे@@ 1
धृत 1
निका 1
पास@@ 1
बानी 1
माम 1
रायन 1
साधनों 1
was 0.002692639779052274
अनुमो@@ 1
अली@@ 1
ढाई 1
रीयता 1
रोशनी 1
चमत 1
तनत 1
ताना 1
धीन 1
निकी 1
लाश 1
विधेयक 1
,000 0.6434342174930047
गंध 1
नेन 1
मिलन 1
रियो@@ 1
सेमी@@ 1
टियाँ 1
तारित 1
देरी 1
61 0.4357248218049599
96 0.414957030734701
एसए 1
चिका 1
चौक 1
धियाँ 1
पियर 1
मानवा@@ 1
रपान 1
सीधी 1
तुलनात 1
यकों 1
लगाना 1
वाइस 1
गुस 1
धांतिक 1
महमूद 1
रेरी 1
विय@@ 1
शिवलिंग 1
76 0.4218968494709701
अतिथि 1
ऊतक 1
घट 1
भागवत 1
वैन 1
नामांकित 1
निग@@ 1
पहुँचे 1
फलों 1
आसन 1
इंजीनिय@@ 1
टबॉल 1
तैनात 1
पं 1
पाप 1
मलिक 1
सिरे 1
ंगरी 1
रताप@@ 1
शप 1
समाधि 1
अभिप 1
करु@@ 1
कुड 1
तृप 1
नामा 1
मनु 1
मिलान 1
रचु@@ 1
लियां 1
बेच 1
यकृत 1
राही 1
67 0.40149405935183863
कायम@@ 1
कोय@@ 1
टमेंट 1
पैक 1
वरु@@ 1
षस 1
आवागमन 1
याद@@ 1
वस@@ 1
सुनाई 1
ऊँचे 1
थेन 1
भण 1
मस@@ 1
अनिश 1
उदार@@ 1
जरु@@ 1
डीएनए 1
विदेशों 1
वेर 1
शोथ 1
करनेवाले 1
तिहाई 1
थरों 1
पाँच@@ 1
पैलेस 1
मूली 1
रतियो@@ 1
लगाते 1
वंशा@@ 1
सशक 1
जीवाणु 1
डेवल@@ 1
तारा@@ 1
तावाद 1
परिष 1
84 0.44832486209368744
तारामंडल 1
भिकिया@@ 1
लेबल 1
खुश 1
सैंण 1
सोसायटी 1
तरीन 1
पंथी 1
रोम@@ 1
सीख@@ 1
03 0.6012256026996502
7.@@ 0.596505236397463
कमान 1
कीकरण 1
कोयला 1
खरीदने 1
णिया 1
बोट 1
संबोधित 1
आपसी 1
कहकर 1
णिमा 1
सौंप 1
हथियारों 1
इंट 1
झारखण 1
पदा@@ 1
सराह@@ 1
ुद 1
१८५@@ 1
जेने@@ 1
तिलक 1
देखना 1
पुरू@@ 1
बग 1
बलि 1
संवर 1
ढांचे 1
पितृ@@ 1
राँ@@ 1
विधा 1
वीडन 1
ीर 1
02 0.5910502391339939
गलती 1
गिक 1
टित 1
पिट 1
रुवीय 1
.सी@@ 1
ंडा@@ 1
कठिनाई 1
दीदा 1
पथ@@ 1
रभाग 1
शिकायत 1
गरु@@ 1
नाव 1
रेण@@ 1
वेब@@ 1
मुड 1
रतिबद 1
वरन 1
1857 0.7228628969276807
चाचा 1
भंडार 1
मेजबा@@ 1
शिकागो 1
सफर 1
अधिकृत 1
तुतः 1
नीकरण 1
बृहस 1
सकर 1
रोफ 1
३१ 1
1942 0.19316297604538624
आयी 1
जितनी 1
नारी 1
विवादास 1
सांप 1
साइकिल 1
कज 1
गुला@@ 1
घम 1
जंग 1
पंच 1
रशस 1
74 0.42043601869407615
अनिय@@ 1
दाज 1
दिखने 1
बैं@@ 1
वियों 1
सरोवर 1
11@@ 0.7901784628144499
आतंकवादी 1
आपका 1
कांत 1
कैबिनेट 1
टेशनों 1
ठार@@ 1
यौहार 1
U 0.0983670027656208
खल@@ 1
नागा@@ 1
नेर 1
२.@@ 1
तीफा 1
पीएच@@ 1
पैटर 1
रवी@@ 1
१९९० 1
अंकों 1
जता 1
भया@@ 1
वतीय 1
आनु@@ 1
800 0.38521814905907475
al@@ 0.03847309478450879
in@@ 0.031119336542067465
परमा@@ 1
87 0.43401992096982717
III 0.2302364215810695
आजा@@ 1
नय 1
राजपू@@ 1
1953 0.21377279521942394
होत 1
2022 0.22730367348347988
78 0.4190096986453164
महिला@@ 1
उंड 1
गु 1
तरी@@ 1
मारी 1
दाई 1
ب@@ 1
ंगटन 1
चने 1
बंधन 1
4,@@ 0.3528644966365801
k 0.05343031562642889
73 0.441034568352037
आतं@@ 1
नुष 1
97 0.43661283670524703
ंकि 1
कुमा@@ 1
अमृ@@ 1
कठि@@ 1
26@@ 1
و@@ 1
83 0.4219555610694114
us@@ 0.0976941030150868
ref 0.7212483640294503
92 0.4301557943566107
चारी 1
r 0.08863000212802072
तिकी 1
धां@@ 1
59 0.4022919434486103
ال@@ 1
5.@@ 0.6589838459330778
24@@ 0.8780166219702314
e 0.0338106989204831
1936 0.20529079071825196
5,@@ 0.39138394080086353
दृ@@ 1
est@@ 0.13932566448098607
di@@ 0.06431652121460218
नाइटेड 1
81 0.4133065251015906
us 0.04056342979391372
94 0.40239631532100895
www.@@ 1
कारि@@ 1
राश@@ 1
http 1
खरीद@@ 1
शुरू@@ 1
निरं@@ 1
अहम@@ 1
विका@@ 1
सूरत 1
1939 0.15400103330238338
जाग@@ 1
ृंख@@ 1
91 0.41054443913784716
अदा@@ 1
शोर 1
69 0.38420804418412974
am 0.008729732731552493
82 0.4068827527482413
नाराय@@ 1
दिला@@ 1
षिण@@ 1
93 0.39194555959310395
o@@ 0.04651266620405437
1941 0.17119617363470305
1937 0.20228482432916575
लख@@ 1
am@@ 0.05356329347366145
ताब 1
1900 0.23640414854133718
6.@@ 0.6339126698199508
from 0.005690416307456381
णे 1
पां@@ 1
1919 0.1959980067178259
मुकद@@ 1
250 0.43458800772326656
23@@ 0.8251853904225421
अख@@ 1
वाया 1
web 0.8386510178247989
89 0.3987891893423791
US 0.038160627883488125
ंडल 1
इमार@@ 1
K 0.1255390840679573
रयोग@@ 1
ل@@ 1
1932 0.22315749709982963
79 0.3895428265109158
सरों 1
टिश 1
धिकारी 1
मुरा@@ 1
28@@ 1
it@@ 0.056719186868097154
Y 0.3579105366842771
ंव 1
चुनौ@@ 1
web.archive.org 1
मति 1
यहू@@ 1
लका@@ 1
सरो@@ 1
120 0.4556123881198615
बाव@@ 1
लंका 1
सामा@@ 1
ur 0.10689211763389532
ई.@@ 1
पंजी@@ 1
ंडो@@ 1
{ 1
AS@@ 0.2662749468781812
it 0.008927520455669457
ن@@ 1
पि 1
धानी 1
उपभो@@ 1
जनन 1
r@@ 0.05122175377900889
अने@@ 1
ियान 1
मेडि@@ 1
Q@@ 0.12144071085088477
Z 0.24569338744800992
par@@ 0.10948377948167545
6,@@ 0.3611831946601366
700 0.436204560179302
संतु@@ 1
हां 1
া@@ 1
गाह 1
1928 0.1982702052971867
27@@ 0.8836352407621625
tim@@ 0.3821834933517163
डियम 1
दिल@@ 1
आधि@@ 1
ऊँ@@ 1
२०१@@ 1
नागरि@@ 1
f@@ 0.03119980087727842
l@@ 0.03293828207463673
मीद@@ 1
1931 0.22137855395041825
ns 0.2165465078575063
‎ 1
रभ@@ 1
ad@@ 0.05157733704507591
1,000 0.6490081681890524
ch@@ 0.03564437107159559
दाबाद 1
1935 0.18510782189131397
model 0.1889712192951689
आज@@ 1
राबाद 1
1934 0.17961189690810755
201@@ 1
£ 0.2553845122929126
ंगो@@ 1
1921 0.21364934510239034
} 1
1924 0.20650246463813682
लाह@@ 1
ॅ 1
1918 0.1674497027588411
1944 0.1278705917589548
हाबाद 1
ं- 1
समारो@@ 1
संचा@@ 1
1938 0.13810793260358215
7,@@ 0.3606345719866986
29@@ 1
f 0.10023666249386722
ي@@ 1
पंड@@ 1
चैंप@@ 1
v 0.10530665168682272
Z@@ 0.03509756481172355
आयु@@ 1
at@@ 0.04029566851023294
be 0.009434256390211301
س@@ 1
ن 1
सैं@@ 1
पहा@@ 1
यनों 1
A4 1
National 0.0341824893626759
िश 1
contributor 1
सिए@@ 1
um 0.011514829724921133
टलैंड 1
दरगाह 1
5,000 0.5481727637968618
कोलं@@ 1
पहुँ@@ 1
ic 0.07136896708715668
लियर 1
45@@ 1
W 0.16538022819104267
एसि@@ 1
1943 0.1406574065327699
1912 0.20244306055093333
`@@ 1
format 0.28492990387239836
कारिता 1
ंडी@@ 1
हाला@@ 1
10,000 0.6747220604244659
ईं@@ 1
थॉ@@ 1
विक@@ 1
ation 0.040020655282248865
एनए 1
₹ 1
शोध@@ 1
भीर 1
1922 0.1986697161664538
1929 0.17708656918514937
ia 0.0450866555769267
कड@@ 1
22@@ 0.6959728736601433
आवे@@ 1
बह 1
रैं@@ 1
दिरा 1
8,@@ 0.3863502917116757
पहु@@ 1
सरण 1
− 0.40305131296722363
1933 0.12451465470158783
ername 1
1925 0.18707705403909392
2.5 0.9056408013524336
ap@@ 0.05939385789561545
IS@@ 0.3238050905821522
रबंध@@ 1
थानां@@ 1
ॐ 1
1914 0.1676620952211125
pur 0.460650707045206
आका@@ 1
u@@ 0.03985628151257722
1917 0.1984018763263681
India 0.09146347385052303
तिहासिक 1
es 0.006816058216341956
1926 0.19052242102630687
कारिक 1
रांति@@ 1
ag@@ 0.05128232813366942
1.5 0.7892646164292559
कैलि@@ 1
सचि@@ 1
th@@ 0.04201692061424659
पाँ@@ 1
रिए 1
अमेरि@@ 1
वाला@@ 1
which 0.0072102180334128055
as@@ 0.05120661164589502
200@@ 1
मजब@@ 1
सना 1
उदय@@ 1
1927 0.17297303251210666
ँच 1
झे 1
गठ@@ 1
रेली 1
ing 0.022699827762990593
or@@ 0.03184500490068757
enti@@ 0.19235920591851116
ya 0.08863136666323182
बज@@ 1
ीज 1
एपि@@ 1
पराज@@ 1
मही@@ 1
ढांच@@ 1
संगठ@@ 1
टली 1
1908 0.20698392897533935
ab@@ 0.020708510069443783
शिका@@ 1
1910 0.17433711969316498
तिहा@@ 1
· 1
ra@@ 0.049925039654180534
संहि@@ 1
10.@@ 0.40412463786321867
one 0.010195733735960964
विजे@@ 1
1905 0.20848797595480287
1923 0.17390989253032835
op@@ 0.04629988240829036
comment 1
د@@ 1
ak@@ 0.05155698225004185
× 0.2424018235082556
1911 0.19217115131962953
नेह@@ 1
रिके@@ 1
ंप 1
इसी@@ 1
शोक 1
सील 1
परिणा@@ 1
re@@ 0.02044346955391591
रगढ 1
हनु@@ 1
थार 1
राधि@@ 1
wik@@ 1
सानी 1
80@@ 0.6487714378805489
en@@ 0.014977517798235283
his 0.004381817722804862
ine 0.04617762920703757
is@@ 0.03508193411561363
कहला@@ 1
टोग 1
1916 0.19821736975256785
ंतु 1
5000 0.6184501714125691
लैंग@@ 1
सचे@@ 1
सुझा@@ 1
Ch@@ 0.04248229368074604
… 0.1804363668394313
In 0.0032418386318910464
OS 0.3032320472564397
а@@ 0.4987308097295808
ऽ@@ 1
DVD 0.2847328857243946
ی@@ 1
आवा@@ 1
बादी 1
ओल@@ 1
खिक 1
तकनी@@ 1
50,000 0.7314301048139786
निकों 1
00,000 1
es@@ 0.03260524425229599
संपा@@ 1
CO@@ 0.29881965782576525
on@@ 0.03022067005813933
एनि@@ 1
यीं 1
रागढ 1
35@@ 0.8185500824655144
भग 1
एसोसिए@@ 1
ح@@ 1
नानी 1
नेशिया 1
12.@@ 0.5154245460533705
ع@@ 1
WWE 0.8724897556028847
Windows 0.3611649341754966
कद@@ 1
9,@@ 0.34807542345566217
di 0.09063816311284607
ळ 1
ra 0.0587503354459135
1915 0.1800302646537344
तारी@@ 1
गेश 1
विजन 1
и@@ 0.42879599993981776
वाता@@ 1
विकि@@ 1
la 0.05614009895557818
un@@ 0.014277515283688086
11.@@ 0.5020946825309617
1906 0.1863007431812807
नगर@@ 1
1500 0.3526173470720239
J 0.1608406866827243
IN@@ 0.27852692403839724
रदू@@ 1
180 0.4583931486243934
1901 0.20899403108133086
el@@ 0.020386194175268924
हुल 1
मश@@ 1
इंडो@@ 1
दिरों 1
निवृत 1
ac@@ 0.04654731168496375
iki 0.481376212080232
্ 1
160 0.49283131087594473
er@@ 0.013747079078538903
е@@ 0.39773024504755483
900 0.42683157459550203
் 1
लुओं 1
वज@@ 1
NBC 0.44785764444817905
1904 0.18871149347225719
AL@@ 0.33466660678025434
SO@@ 0.35389415440195304
थाई@@ 1
चुंब@@ 1
रोफे@@ 1
An@@ 0.021970331076338282
de@@ 0.03216379021114946
li@@ 0.03760335817221279
1896 0.2215800286007297
2,000 0.5919949443370439
1909 0.17877623691863861
he 0.004344573194933474
ro@@ 0.03630495948765942
CH@@ 0.37488275286649536
IV 0.21912490240449992
1913 0.1539554170391129
रेडि@@ 1
Microsoft 0.44042237513711185
ana 0.05370611768642084
यारी 1
350 0.48389644111679975
130 0.4005764146287548
मनोरं@@ 1
have 0.010141946362408722
चुना@@ 1
In@@ 0.03333433824080303
j 0.11802142167835723
भूत@@ 1
हिब 1
तुर@@ 1
यायाधी@@ 1
किया@@ 1
ER@@ 0.2936949167251509
UK 0.08617960531069853
ol@@ 0.03612226168729834
ूत 1
घोष@@ 1
་ 1
थिय@@ 1
1907 0.16242790336668503
विधान@@ 1
et@@ 0.028957204753413023
jp@@ 1
110 0.37214086163571414
ai 0.05976550409110492
align 0.5042581725809789
सूस 1
CD@@ 0.4401467400641034
टती 1
ism 0.07754636037352497
2.0 0.7722229984898416
डिवी@@ 1
3.5 0.7917691054374412
thumb 1
चान 1
HIV 0.744335638311455
जंग@@ 1
has 0.006845761579149204
not 0.008902048483705335
z 0.028903412006792115
د 1
परी 1
1890 0.20086107764356254
3000 0.4060314144000214
फिस 1
0,@@ 0.2048893254293704
वाहिक 1
ate 0.02781848339994
140 0.46198862228390786
टीय 1
ैतिक 1
परियोज@@ 1
मौजू@@ 1
कोत 1
60@@ 0.8038580505889972
100,000 0.6209925169919644
108 0.7519290623635839
em@@ 0.03413082332991442
अनुसं@@ 1
किलो@@ 1
center 0.09729814525728188
ed 0.025398766117118974
hi@@ 0.07595829242574172
यूजी@@ 1
AT 0.3815749726254075
----@@ 1
13.@@ 0.49571541118844764
34@@ 0.7991083888190602
55@@ 1
MS 0.24198135675303462
also 0.005674031275594482
कैल@@ 1
खतर@@ 1
text 0.15284049161045504
वैधानिक 1
Q 0.2190578608386899
ha@@ 0.07417739378721981
1902 0.17329845740611646
meridian 1
रोजग@@ 1
Al@@ 0.026859255094437335
av@@ 0.059306199660379595
ऊँ 1
हरिया@@ 1
AC 0.16371498328490905
le@@ 0.032163613777464406
रासत 1
ad 0.05392489001556082
le 0.025638415205357718
name 0.02237810752954118
कारो@@ 1
गोरख@@ 1
о@@ 0.39201269068669925
MA 0.20720326277692774
खूब@@ 1
Indian 0.06846197201070173
ang@@ 0.06343465045755556
70@@ 0.7855538875762134
ite 0.06160799556424155
रामी@@ 1
14.@@ 0.5152595449481964
ic@@ 0.05299029410318507
1880 0.21095371305508637
125 0.4349498965692624
छित 1
NET 1
ur@@ 0.035178004903100524
ot@@ 0.030861885970841805
ph@@ 0.06712780415013558
IC@@ 0.2292091794344413
ology 0.09271624245541454
ऱ 1
3,000 0.5956593900511059
н@@ 0.4132550159197681
गोरी 1
1800 0.31032311751713193
1899 0.17392398609722526
सफल@@ 1
Rousseau 1
ंख@@ 1
किंग@@ 1
20,000 0.6931614468973409
Ar@@ 0.03544866273105058
ST@@ 0.2498200694744084
et 0.02651104832986589
sh@@ 0.03309930221393503
गिस 1
यमु@@ 1
TV 0.0481488889618839
पिछ@@ 1
CA@@ 0.21023012069395988
st@@ 0.017755983082093443
समे 1
this 0.008581527879830669
पेशे@@ 1
मिसाइ@@ 1
codice 0.4158653369736284
er 0.0017940664979381518
ة 1
ت@@ 1
पीडिया 1
1895 0.17789321762617427
q 0.15893954500046664
ri@@ 0.0341323221155344
ˈ@@ 1
α 0.5403410407685091
1903 0.153274659066982
ر 1
AS 0.19813537184292773
NA 0.3944626850194897
PA 0.2046112386711513
संबंध@@ 1
FI@@ 0.277636171161563
ec@@ 0.053375428994515715
1860 0.21500349590137185
SC 0.11605845728309437
1898 0.16325318348337706
Highway 0.12800909610946906
747 1
om@@ 0.03337129755631516
यारण 1
1858 0.29611711544749064
AT@@ 0.19094537192452435
Sh@@ 0.03594535964249362
a.@@ 0.6769325517829847
अंतरा@@ 1
1889 0.19068395074686106
CD 0.10065172627813006
विनि@@ 1
1870 0.1796261651655587
ay@@ 0.08305184983383476
इनल 1
AD@@ 0.29850800099742336
z@@ 0.0156239642781105
फड 1
वियत@@ 1
105 0.47299068359382873
ht@@ 0.7009324304283914
ma 0.05337340286286058
डकर 1
1885 0.1853181546717025
36@@ 0.5906091120520356
oc@@ 0.04929888933013658
101 0.4055856085632991
1891 0.188090950443177
IP@@ 0.3556549230971801
si@@ 0.037410172938388504
² 0.09319681515049259
1887 0.20132078212859983
DC 0.19802355431190036
ext 1
im@@ 0.03510245361535619
র@@ 1
ha 0.07397075769281189
ka 0.03659182159331973
AM@@ 0.2210564366645616
NT@@ 0.5761642337608667
एटर 1
ov@@ 0.04924872617138377
revision 1
शासन@@ 1
360 0.4820205518964934
SP@@ 0.20915301539929637
रिष 1
सटी@@ 1
10,@@ 0.35310114047809826
ed@@ 0.04968432325108149
ی 1
104 0.5435611265852215
1897 0.16450219226631885
ul@@ 0.031028789790142917
River 0.032115709510229316
TS 0.40184798329482413
can 0.01454694731490171
right 0.048580382042057293
system 0.026035011508875834
हिए 1
1894 0.1777305672199214
AN 0.3400774573508257
il@@ 0.034942833393153204
os@@ 0.03198961462525975
लाइसे@@ 1
1888 0.17497101163143186
log@@ 0.18651819801507868
me 0.04104235609657819
ব@@ 1
47@@ 0.734534486910266
AI@@ 0.2416067694750948
AN@@ 0.21204589436840923
ج@@ 1
थौ@@ 1
230 0.716743608122044
1882 0.19720868472244743
Cl@@ 0.09756834744567394
ـ@@ 1
15.@@ 0.47229112713041593
WWF 1
DNA 0.20221111790022275
निर@@ 1
38@@ 0.5055572626890711
Man@@ 0.043376678741576705
झार@@ 1
AR@@ 0.13868964714079465
MP@@ 0.295079893432781
1886 0.18685339847892377
BS 0.3038199631743913
विविध@@ 1
शुरु@@ 1
As 0.019507662927844865
ISO 0.5532404607001477
id@@ 0.04322016398571427
CI@@ 0.29301307969019585
संशो@@ 1
ous 0.06698688149324422
ंदु 1
कील 1
टकों 1
1892 0.16300759378728613
ah@@ 0.055992231565772196
अवै@@ 1
BC 0.12289309098612153
\ 0.3629917365233595
man 0.008692173223429578
л@@ 0.4817471548935652
विप@@ 1
16.@@ 0.46701823386589014
RE@@ 0.21773038415527282
Th@@ 0.04194402464090245
हारिक 1
102 0.4908239333419436
1893 0.15697209161597928
4,000 0.6659943123791744
Con@@ 0.0349755771977632
co@@ 0.057710398482288594
its 0.005780207757897223
NS@@ 0.2235838048701514
PC 0.1743667218372734
भवतः 1
फाउ@@ 1
ি@@ 1
21@@ 1
750 0.4238421832887537
ae 0.06789652251024578
their 0.005650644798098421
U.S. 0.03473340565451842
ā@@ 0.08814817122520018
100@@ 0.8632682476791356
time 0.008547012376137697
1.2 0.6711005119264407
id 0.06706108362519231
os 0.018061395100484625
अनंत@@ 1
जोखि@@ 1
^ 1
all 0.008924362079507314
war 0.0022346941369686276
1884 0.17872451320113494
ani 0.05898535144027854
ml 1
two 0.006639974555622636
शही@@ 1
05@@ 1
1200 0.3948353377662062
IC 0.20201901747199222
आयर@@ 1
ti@@ 0.031871383682345836
ش@@ 1
90@@ 0.5603566978572049
LA 0.22553425855057957
ob@@ 0.034291632850676435
α@@ 0.4363466739683986
गू 1
समझौ@@ 1
30,000 0.7031101649528959
hi 0.165728464412579
q@@ 0.0926043988576439
ॠ@@ 1
33@@ 0.5473366320687479
ii 0.21177797308687557
FA 0.13519385798315178
18.@@ 0.4647284551229286
27.@@ 0.5991020868882664
450 0.4299866191574281
~ 0.5932386311948948
37@@ 0.5579895222726183
ari 0.08225998805469356
ers 0.012334179718419774
km 0.017282060456677708
Institute 0.048757517023639584
ऎ@@ 1
106 0.5078303546081016
ep@@ 0.040734548007130375
had 0.004195572644901649
1850 0.16738037123829033
1881 0.17088528856760174
Di@@ 0.03250332196394183
SM 0.32679923957692136
SE@@ 0.1942545672185162
Sam@@ 0.0895662966009338
more 0.009576239552849797
na 0.04076716214681232
og@@ 0.04825776746518737
م 1
अटलां@@ 1
4000 0.5755506403276814
0,000 0.7253125056725496
48@@ 0.6770154948535342
IT 0.23508897604847037
were 0.003039999232046817
ه@@ 1
119@@ 0.45887543775187073
1867 0.1717272381674002
Par@@ 0.03402794001619241
St@@ 0.017065199533534844
ing@@ 0.03297509696016796
इसे@@ 1
0.5 0.7749751998594029
103 0.49290125460846673
120@@ 0.33496755356349006
CS@@ 0.22194008057591408
w 0.06032557177347594
राजनी@@ 1
.-@@ 0.3128005831070826
con@@ 0.03900271035329482
od@@ 0.04450943412732471
് 1
US@@ 0.12569680047141446
ut@@ 0.0359958472616815
हासन 1
1872 0.1715357386749304
1876 0.17055951902393487
amp@@ 0.08796612333956283
ath@@ 0.07157564257913338
um@@ 0.01698449275604185
first 0.004471314727629935
number 0.01693560395590671
115 0.49187172258432377
Bar@@ 0.025887180386957347
but 0.005613194595603587
लखी@@ 1
1883 0.1707326096802372
170 0.3906494547541041
190@@ 1
DA 0.23132575556027343
सवी 1
UN@@ 0.17531769706666958
CE@@ 0.19191121101707495
ach@@ 0.038305962320616525
Google 0.32044109688314554
MTV 0.333201156897892
se 0.03558903475242054
गानिस 1
→ 0.40498537238247134
RA@@ 0.15463185100439483
This 0.009865144861739549
World 0.013349539733384694
ator 0.04034525354300574
1700 0.4336458143304913
1848 0.14051976895731472
1878 0.16443468594608754
Mar@@ 0.020607466658365194
other 0.007808085083473539
ंचाई 1
बोधित 1
109 0.4956046236031986
aya 0.10037405716868666
IM@@ 0.27540258971067433
been 0.006264768787260873
It 0.004779749137909435
Re@@ 0.033823271678481884
SC@@ 0.21311817996133578
able 0.0226499787400986
ম@@ 1
1871 0.14008541435814714
SA 0.11589284663759852
ak 0.03918775868924137
ch 0.022841878337331357
ي 1
योगकर 1
32@@ 0.6033664068572795
GE 0.658767329022806
IT@@ 0.21762119403538444
vi@@ 0.04486148591230796
ف@@ 1
1865 0.1549434717285934
SE 0.3024916430359606
ke 0.023985877444983084
KM 1
da 0.013263895675201361
per@@ 0.0378149858435068
sp@@ 0.02508272247209096
औ 1
21.@@ 0.48914836502425235
IP 0.2252712765202758
LC 0.40062382801215113
RS 0.2779926312820671
ium 0.07025636511438409
р@@ 0.4239463250727062
सानों 1
€ 0.23012798153680863
AP@@ 0.1848441629354945
hap@@ 0.6436195553062946
गापुर 1
000,000 0.9596936675277542
220 0.4252977717367697
Mah@@ 0.08337956962493576
University 0.009247817215430425
1868 0.15901259551378735
22.@@ 0.5065679491590032
6,000 0.6173542783290099
Bo@@ 0.04129726093457957
International 0.021657284497943192
XX@@ 0.27133101615447847
than 0.011842587535762946
ق@@ 1
यण 1
001 0.8147802757830324
1861 0.15098934632549046
HD 0.31395509704285735
Kh@@ 0.09729337642734381
ik@@ 0.0316184394681109
107 0.48850960132873456
17.@@ 0.386401564567598
1875 0.15179924110165316
56@@ 0.8719994141499767
SP 0.27881663169073295
1873 0.15730519343463353
oo@@ 0.1010492468373273
रंगा@@ 1
1877 0.16585925278120964
78@@ 1
इतिहास@@ 1
साब 1
్ 1
0.1 0.7642557683039706
AB@@ 0.23386538011120087
PE@@ 0.3039582843784333
ata 0.046448323672998025
law 0.0299768367907678
नदार 1
9.5 1
En@@ 0.03108851031333881
Per@@ 0.033883519502274945
SI 0.3279741289888569
no@@ 0.05679358404647052
ক@@ 1
19@@ 0.7271973470148099
age 0.012782334149895136
1.3 0.6599943636190015
1.6 0.6500388142121489
126 0.5844385669063357
1879 0.14580430761609947
CE 0.2567351475791455
टतम 1
भारती@@ 1
ant 0.027768254052553863
ه 1
್ 1
1856 0.18292397643777245
320 0.5740876239567418
FDA 0.9446113213966167
NS 0.1426196071696071
ST 0.24767444575001707
ated 0.025064611152120848
poem 0.15907391267520543
used 0.010117473752702768
who 0.004722180991119409
ল@@ 1
1600 0.34648948881870256
1859 0.17756575228686672
46@@ 0.610307287948821
CP 0.3569295277507553
LS 0.5610278174933262
ρ@@ 0.46158021650041786
1830 0.20147727097185106
19.@@ 0.4216142188566871
AC@@ 0.15107621452835712
sub@@ 0.040186264623823686
128 0.4252710934408152
1840 0.18338726583186793
4.5 0.5827789058263023
GB 0.23091239664815752
ara 0.05177119718038993
ol 0.051412436595282926
सोसिए@@ 1
1.1 0.5749204632881941
MS@@ 0.619125902906791
NH@@ 0.7165549665618065
WCW 1
ip@@ 0.07972410519054836
َ@@ 1
114 0.5177513539581406
1866 0.14148791885397832
2500 0.6817517828314098
49@@ 0.6181733547477449
eb@@ 0.03017477596640058
जूरी 1
1,0@@ 0.5115573349545168
VI 0.21922745696100748
ala 0.07129981222386005
and@@ 0.03574148584887092
घु 1
Am@@ 0.029733785232822378
Kal@@ 0.05097824151617518
NO@@ 0.24151062959700675
qu@@ 0.027649369471883165
1863 0.14751251726075396
20.@@ 0.3791686496519952
function 0.09661470902148082
आउ@@ 1
7.5 0.6705073425695464
re 0.017419498135766345
भुग@@ 1
AD 0.13865113412701308
SS 0.07685406548248917
Sc@@ 0.05022984138398641
া 1
112 0.42953922464029404
ND@@ 0.8749670175389662
east 0.03494163313725293
ical 0.048999902978717064
west 0.03387192088438424
к@@ 0.40807503970883374
380 0.7159351548910894
40,000 0.6653451951156468
CP@@ 0.21460049361479208
GP@@ 0.3097999410885653
ore 0.048438527651220725
सफे@@ 1
ISBN 1
car@@ 0.04352904002478264
हिंद@@ 1
ন 1
EC@@ 0.2383163148474747
IS 0.15866312101041238
e.@@ 0.4970472257829867
116 0.5334292272029866
122 0.5008594605383218
138 0.578378551593264
1818 0.22671191624636539
25.@@ 0.426946528405564
Un@@ 0.02047373283729675
el 0.014549695672927899
दून 1
ऱ@@ 1
॒ 1
1.8 0.6850811504002765
12,@@ 0.2554672839469734
1854 0.17660271344091563
1874 0.13365101516395173
CA 0.15591061820197302
no 0.011510404800403619
roup 1
ta 0.04680425746939409
रेर@@ 1
Pro@@ 0.02954787428200157
ge@@ 0.011668552673263268
ian 0.028536906006477604
ran@@ 0.04467961306716586
11,@@ 0.3025864569941911
190 0.4965637623209281
File 1
value 0.08812025808740405
1.4 0.6294361520337781
111 0.40129906832342216
HTML 1
ah 0.036054813214599586
type 0.05202670001226092
в@@ 0.43306034105443847
39@@ 0.4251486699244891
BBC 0.08362603068308837
CO2 0.5542918442699507
ics 0.06122299558501976
ity 0.052585522861201335
μ@@ 0.43286334390860226
परी@@ 1
1,4@@ 0.8082655431970165
1869 0.14333467138060632
SI@@ 0.26970017608743424
har@@ 0.0575829922918162
ki 0.05595151531346685
ri 0.07028585248024885
124 0.4972009606199808
@ 0.8011652739909869
org 1
such 0.009253084452942529
ا 1
240 0.4303893957413718
57@@ 0.6743366210937359
New 0.005871257684338808
parallel 0.10027388172414421
ə@@ 0.45112743226801616
घरेल@@ 1
जूद 1
साझे@@ 1
1815 0.16688769448088892
2.4 0.7447097467507569
23.@@ 0.42143246652190375
AP 0.17126835748058714
ai@@ 0.07858219862394122
use 0.013782787965684882
पात@@ 1
Pan@@ 0.06100711258435185
ang 0.03295047490834166
सलाह@@ 1
44@@ 0.6080540806138732
OH 0.6827961012583054
glas 0.821737168374821
ino 0.03936770044083384
man@@ 0.03686564662061217
they 0.0059896086970477975
भाषित 1
ু@@ 1
SD@@ 0.3603044400684599
aj@@ 0.06910918588314753
ations 0.027596650023344844
ng 0.21649087998638689
ud@@ 0.06207148010990048
My@@ 0.08119786159183587
S.@@ 0.18953911314510458
WHO 0.7891719438223445
up 0.007159599854369146
णकटि@@ 1
র 1
1864 0.12393044712192891
500,000 0.5886550574860592
der 0.00023691797136646186
hai 0.2754827958796145
pH 0.6016671346818105
144 0.6162342227358021
BM@@ 0.22965321116523252
English 0.022135495159324173
energy 0.07302740495772582
1820 0.22388386427349796
He 0.0026984124745140442
O2 0.7342912987701625
ative 0.04890636902464623
с@@ 0.41058979815222546
AO@@ 0.3763254361336202
Ac@@ 0.044827705217444884
Sp@@ 0.021606886307305343
ans 0.022647454697378316
β 0.4411347933768251
ॄ@@ 1
1,6@@ 0.7289884204507321
117 0.45622841950025345
14,@@ 0.2940795619816849
6000 0.5908531990249184
650 0.4617292896675511
CC@@ 0.21620139992549062
TA 0.1415699554964973
bit 0.11835324848152218
ina 0.020805608495520822
ir@@ 0.028426303898900017
over 0.007059007216544435
point 0.028858080604221945
æ@@ 0.18849862094718978
а 0.34480290792844137
ل 1
काब@@ 1
मलया@@ 1
1855 0.1593787879761853
ATA 0.7426993245910354
Ab@@ 0.010987429155583003
ary 0.04045842489888093
end@@ 0.025250576825862164
hy@@ 0.08472503244031206
into 0.005970146522326833
121 0.4931284168145229
SW@@ 0.29193392305638177
between 0.007909206661729933
ho@@ 0.0583333966278501
se@@ 0.0194161217487361
­ 0.49840034890217816
خ@@ 1
ک@@ 1
118 0.5050061606226668
123 0.46650530394980866
agar 0.5012264887344307
ig@@ 0.02724980684509134
li 0.08421473420471605
124@@ 0.2613450539094209
1803 0.20056713439560211
line 0.015735866245077758
113 0.4280537950300618
25,000 0.5954694401392218
Bh@@ 0.22599617424809895
theory 0.07220215729869311
बुनिया@@ 1
.org 0.9537167144287452
1.0 0.5629011757050951
210 0.44870169418430367
26.@@ 0.3903424023822622
550 0.4500644935591991
Kar@@ 0.026987885899807183
Sar@@ 0.04570574376508194
only 0.007482137566491607
145 0.5165687698997101
BE 0.5241484806185588
ada 0.05685395644405993
atic 0.08099003317836748
ent 0.026376897650782896
ma@@ 0.040945117502991964
д@@ 0.4093090044830342
ॆ 1
330 0.5479897100455104
Ad@@ 0.03422635529498487
Ph@@ 0.07276818908538284
1400 0.4177383679797688
Cl 1
ant@@ 0.030131593760691702
language 0.03139451693415459
ne@@ 0.024191333111867556
औप@@ 1
पंजा@@ 1
132 0.514121607604154
15,@@ 0.3126059086969957
2.1 0.597643168406273
2.3 0.6543365914961962
66@@ 0.7515110917897297
mon@@ 0.027994446274665137
ز@@ 1
तका@@ 1
भाल 1
16,@@ 0.3189839868261272
1851 0.1622774873825312
CR@@ 0.3308932109178551
SQL 1
th 0.04319774146730547
up@@ 0.04729180151935195
ι@@ 0.39016937365931986
ে@@ 1
Bal@@ 0.03975947441227933
IQ 1
bi@@ 0.032892385496243605
ː@@ 1
13,@@ 0.2550045396704855
1845 0.16809598142706836
John 0.00967891583733534
als 0.0011424845174182957
left 0.01711090154556828
ɪ@@ 1
175 0.38866815346536093
1835 0.1892029296531745
1853 0.1658643907185169
43@@ 0.7058543211001225
H.@@ 0.2810800226029286
Har@@ 0.02247568847112789
Ram@@ 0.05972728059952502
des 0.0007763342414491397
gh@@ 0.04193297522387394
power 0.02524787215495387
τ@@ 0.36699848656226786
लखन@@ 1
1,8@@ 0.7414561185249042
COVID 0.09574093126240257
UR@@ 0.39367974393872146
languages 0.0914693529395209
out 0.007158177705761396
yl@@ 0.03759788842600229
1,500 0.5622464546718657
1,5@@ 0.6695813553542866
2.2 0.6167973786091582
De@@ 0.026815349186267535
PS 0.07364866013671754
` 1
2023 0.5090208245644033
dia 0.11755739368705434
ent@@ 0.011449091057329544
most 0.00797557942283525
te 0.007183337434595052
wa 0.0625223734708652
सूची@@ 1
हैद@@ 1
63@@ 1
Div@@ 0.8879924165055657
IR@@ 0.18776334214494386
ation@@ 0.05929474703939015
bar@@ 0.02985795658706969
eg@@ 0.02408606881371306
so 0.0054495248633339875
where 0.006855319736275598
लिमि@@ 1
24.@@ 0.34907579905515806
CT 0.32841919169923417
DE@@ 0.12709815121739967
Na@@ 0.10753406550793988
ex@@ 0.032223641294517553
nam@@ 0.16455385076754084
ong 0.03470144362982403
will 0.011337886294397945
ο@@ 0.3428675867162676
1819 0.23468643581904722
CM@@ 0.2813577208402488
all@@ 0.02982688419404806
ve 0.03403860235296204
у@@ 0.46497687198886584
স@@ 1
12,000 0.7710019383366862
1817 0.2211839301503778
5.5 0.6020913639368021
850 0.5345006052082985
DS 0.14482000122439356
OR@@ 0.17837179250378807
au@@ 0.02030128717629559
if 0.0196405183307652
les 0.030639873812533282
su@@ 0.0389107397820013
शः 1
MC 0.1734862174070208
USB 0.7389799904481249
ating 0.027285875067759095
pl@@ 0.030205514881554985
ting 0.028093708625514593
ك@@ 1
BMW 0.27214488399250525
SS@@ 0.15991809737963766
United 0.006951518298122301
colspan 0.20938309762360294
state 0.011919725676224718
ter 0.010535089192568906
ula 0.05937487363256386
ताराम@@ 1
ौद 1
॑ 1
দ@@ 1
1843 0.17560825639529976
Mal@@ 0.026667773657507353
Open 0.04004926898209791
ash@@ 0.0626486507029619
ath 0.05584272611920548
be@@ 0.00922517639150784
ons 0.020701938876822392
ry 0.034418310717269994
141 0.5632611471717485
15,000 0.5358962331391129
280 0.4578171018948929
CL@@ 0.4453031777472191
000@@ 0.719747615293499
131 0.44568869697547453
On 0.005889532616691827
ari@@ 0.05173661505280965
do 0.01596502880488986
to@@ 0.038558849892235084
ו@@ 0.8575965880677225
गोलीय 1
59@@ 0.7327337564367931
8,000 0.5477271191384513
CO 0.26062090489414347
DI@@ 0.2867044339005494
RA 0.18476958304211055
aceae 0.1097523953432669
ali 0.10599199903044133
ance 0.039407947478057655
λ@@ 0.45461350888491464
जबा@@ 1
यौगि@@ 1
165 0.4990159112927531
76@@ 0.586315534600176
AA 0.14064588159083688
Co@@ 0.034268458582740025
Qu@@ 0.025331003957369546
il 0.03552941410681595
ish@@ 0.05410921969228227
π 1
ி@@ 1
133 0.48192865741723634
201 0.5731766708427097
apur 0.55469703610302
bu@@ 0.03513345531916548
ene 0.02138621442722493
esh@@ 0.12653728661286104
lo@@ 0.03280343144643046
may 0.010680273803336854
ter@@ 0.016106648112647958
́ 1
मुकाब@@ 1
1847 0.14821260709016307
6.5 0.568531730079783
IF@@ 0.28007406910538735
LT@@ 0.5248880455803113
Pal@@ 0.040436494285756526
TC 0.16123742195628493
az@@ 0.03198799990842805
current 0.03604523937105252
her 0.0032764840239976243
धरी 1
1.7 0.5645270348698819
127 0.4000672547860764
137 0.47794150935278457
Kan@@ 0.045790288857238876
USA 0.0226740386724552
ates 0.026168399238299306
body 0.03048256844382364
ci@@ 0.033903553416740534
when 0.00593861489381374
ா@@ 1
1862 0.10090822914835974
200,000 0.5350482847866517
3.1 0.6076298648357413
GDP 0.570637742286553
garh 0.7246323227031818
pro@@ 0.0346610749440644
some 0.008349303928544228
ন@@ 1
7,000 0.5926054282218934
EC 0.1388254295544662
NT 0.4447816946893203
PO@@ 0.22199810412639143
TE@@ 0.1908981419310086
ies 0.022059564176813047
ru@@ 0.02713429959777004
series 0.010200338895349968
world 0.016409957275142426
ऽ 1
136 0.4663825716940997
1844 0.16001785496856663
270 0.4627102679799729
29.@@ 0.4046137985292675
CC 0.14863732607778032
Raj@@ 0.11340577461332291
water 0.018796761220177274
т@@ 0.3021752778489902
तीस@@ 1
राजी@@ 1
1839 0.1645930544775203
ME@@ 0.13194143404400607
UM@@ 0.5165702891436594
iz@@ 0.026694954010840384
ura 0.06321790950149517
ν@@ 0.40819889981282176
м@@ 0.4385026625916791
י@@ 0.806118217258302
142 0.5226254413155769
CEO 0.12630338061522015
Nag@@ 0.09825274943392923
RO@@ 0.1427888718413991
Si@@ 0.05434589967035221
VO@@ 0.4069659712308745
dis@@ 0.01817408651832171
set 0.014624641418457193
ε@@ 0.39921894788221063
ص@@ 1
मोली 1
148 0.6411340138817199
17,@@ 0.2856759962641921
NZ@@ 0.7063576040385182
Se@@ 0.023431981982178173
any 0.01278851058334491
her@@ 0.03112815615393426
kh@@ 0.14609933430792216
शारी@@ 1
65@@ 0.7305422209418441
8.5 0.6950333781798388
8000 0.6637212942481874
Cal@@ 0.03810752845561979
Ex@@ 0.032118375374036945
HT@@ 0.3936646542808075
Ne@@ 0.0291332603090123
cor@@ 0.04587213738140277
ea 0.06126593762671505
form 0.014397958007427289
ial 0.06892689417123375
mi 0.08235383213971326
style 0.025382470921833416
uk@@ 0.05301230487807189
ت 1
इतिहा@@ 1
जाघर 1
় 1
】 1
115@@ 0.30951658748391114
1849 0.11961993719184973
68@@ 0.45358936258797683
Cs 0.3827553519420542
DP 0.15018534260494598
Hindi 0.26862079358826224
ati@@ 0.04151370273191483
force 0.041231875366116
ung@@ 0.029121309759953043
أ@@ 1
0.2 0.5851322817730391
134 0.46352431601063854
A.@@ 0.10649992335658089
Al 0.04307158042872591
Car@@ 0.017064622950640766
SAP 0.9485972401839872
ist 0.0008994580076081035
ji 0.06171773021597342
tri@@ 0.0320649907996259
मथु@@ 1
राती 1
【 1
1789 0.2389292189418513
1838 0.16003560186560564
54@@ 0.6319654059072457
AI 0.24898610894175668
Fe@@ 0.05384282376199792
M.@@ 0.19479890912297387
RNA 0.22324703860811518
South 0.010076516354214395
itis 0.16437208607218143
war@@ 0.03105222910669121
we 0.025715454750971225
б@@ 0.5982235343606905
हराई 1
ত@@ 1
க@@ 1
3.2 0.609743342087961
Research 0.04209525165042409
after 0.004117770691257859
ati 0.07554212984890386
him 0.006501749156635575
light 0.03037651121248924
mo@@ 0.0434131437558955
per 0.015007012656358936
ς 0.4544507081107292
1100 0.40863880785667356
146 0.5913425569613576
152 0.5182406073149204
1837 0.1569271357711624
American 0.006230151070840896
Me@@ 0.02938210201672828
System 0.034889540421870174
ane 0.03160088775254529
data 0.040655120809361664
hal@@ 0.04514455941803931
many 0.008439247793287042
दाय 1
ऩ@@ 1
119 0.4308650819458614
1832 0.15245128144716222
1842 0.15403800385442656
185 0.5411445370463401
3.0 0.4967458909594268
58@@ 0.5773325308550118
end 0.007578081871705035
lu@@ 0.03721232588325527
po@@ 0.049244324354644764
ric@@ 0.07308293128475028
yn@@ 0.040501804323480474
σ@@ 0.47790468340894104
ా@@ 1
118@@ 0.29949275128018515
1300 0.30154139876451214
154 0.5800326404806092
155 0.42464774963626256
199@@ 0.7034438405828665
FS 0.3915956405275179
iv@@ 0.05931138481593108
ne 0.01937813142022633
116@@ 0.3639889707260438
153 0.5701440143196406
300@@ 0.9465212678509377
Az@@ 0.0777754210953085
UEFA 0.10283900090447136
ac 0.04613584413851014
ora 0.05545264577550746
ot 0.03395670402287965
well 0.006695555717244332
1,7@@ 0.6038465969288345
166 0.592090985048325
1770 0.31924849823634316
1801 0.19710784358597297
1805 0.20736641089987928
3.3 0.5841307349292374
AG 0.0386582581120019
Cor@@ 0.023275227875805944
abad 0.12512509708714603
he@@ 0.03216683264443747
kar@@ 0.05869489919327558
oh@@ 0.041134854513298263
pr@@ 0.05651710901631992
same 0.009970192625821937
´ 0.5411697556105983
κ@@ 0.4348961906384503
129 0.40891750105448177
260 0.3816907984979676
264 0.9554348785186467
B.@@ 0.1872162597841416
BA 0.11431935691476423
Com@@ 0.037359852534056964
For 0.015201776792247273
ale 0.014011606281201013
alism 0.08389702341938468
157 0.6760092644450265
AB 0.14289452029750244
DR@@ 0.2681456372537684
HSV 0.9772742627303103
NH 0.6620709290956446
Rh@@ 0.10159235273580626
V6 0.8797380838668154
YouTube 0.14011100540936347
ank@@ 0.04931667608534284
att@@ 0.03725417757984111
field 0.015064715018127499
mar@@ 0.027113761209646724
oid 0.12595857687193687
psychology 0.27647365366294135
title 0.018702257388856457
ts 0.011655785442937699
इंजी@@ 1
कॉमे@@ 1
यादा@@ 1
ர@@ 1
225 0.5059140468186472
340 0.515261188561255
Act 0.03035897328167416
Be@@ 0.013225530966953579
Bi@@ 0.026649318519711345
First 0.024450872040003662
MP 0.08661869150617234
Oracle 0.8655988153133789
RFC 0.6495141037759051
Tri@@ 0.028502199820768855
ie 0.011481331016584462
ind@@ 0.049809252586264084
inter@@ 0.02361182079024483
land 0.009139934848968094
mass 0.07420240946105376
mm 0.026615143556353627
non 0.01910212929617701
ou@@ 0.021976221492479343
sc@@ 0.02856332027231128
va 0.039938795193022764
सामू@@ 1
1,3@@ 0.5718350132112988
1824 0.17585317360816
3D 0.16087403477375625
IA 0.22717938842377583
MI@@ 0.2450269531021582
Sal@@ 0.022864544023342846
ab 0.005046618782485567
about 0.006376087383939807
anti@@ 0.04970106808799808
ica 0.035509017256536456
ion 0.03463972607501865
met@@ 0.04412096211716985
सिफ@@ 1
য 1
1846 0.129796617797211
400@@ 0.7418670821438904
500@@ 0.7338167715697079
ABC 0.10965604245235251
GP 0.23927939366916443
P.@@ 0.2558534611002649
adi 0.1187989854514203
ge 0.01328385881231977
han@@ 0.11630010482081096
mart@@ 0.5347399588445925
ंने 1
चेता@@ 1
ো@@ 1
143 0.499400428859026
149 0.643876420086139
28.@@ 0.31405779309457105
GA 0.18484164178320303
SL@@ 0.2203163003072521
du@@ 0.03664843103489534
hat@@ 0.12640575908674564
ization 0.05833851883762744
é@@ 0.020227031489038982
ī@@ 0.10737877528821149
नुक@@ 1
॓ 1
1,9@@ 0.6242196150633933
1707 0.5404448227796047
18,@@ 0.26015402827311496
Group 0.023165639377452953
IBM 0.2292275896459959
ICAO 1
cy@@ 0.09708371900571054
la@@ 0.031514308815670904
й 0.5421368854683323
151 0.5059674104647437
1799 0.22496272924041238
1833 0.15974947247473686
1841 0.14354764627721553
202 0.5393174281036628
DR 0.21281463041098211
IB@@ 0.21244625691620544
IX 0.22425806916448313
PL@@ 0.22867518311661827
PN@@ 0.42978122209561526
ऑन@@ 1
बंगा@@ 1
182 0.5450592837885826
AL 0.14905975167780086
Inter@@ 0.032093694746078726
La 0.018951418786299922
Lee 0.04157186773848352
Ro@@ 0.02316124327135095
air 0.022481413535307977
ast@@ 0.02609583738468005
color 0.06309004735385902
em 0.015937048417374148
idae 0.047907874555768414
people 0.008018216464397444
zo@@ 0.0980868392412085
कैथो@@ 1
भाँ@@ 1
156 0.49929915981201384
1826 0.17580810158419277
205 0.4998893479441793
7000 0.6129078092185155
Ak@@ 0.026045043163096273
Dis@@ 0.0419092645288649
EF@@ 0.41563281411378444
Le@@ 0.017332584207085215
UP@@ 0.34735637647702317
ay 0.024581149603927793
based 0.009881567576628909
esia 0.1853633085079008
ins 0.010737752656107038
through 0.0072514812819063044
158 0.5601821319077167
235 0.5868201633550767
67@@ 0.6147639806576994
TE 0.2844585876602575
af@@ 0.02184724898718458
electric 0.08142371760117986
ipe@@ 1
ok@@ 0.02189341839332515
ub@@ 0.03217610558273618
अधिक@@ 1
नशिप 1
159 0.594637778909977
1775 0.265717488181924
1806 0.1297121985780567
1814 0.13580634428612853
2.7 0.564401959643368
DM@@ 0.25591542898062336
Ge@@ 0.022934952076532258
NY@@ 0.29615542172677617
Po@@ 0.0369947513875469
Sa@@ 0.041649634304280966
VII 0.17507736918485128
called 0.008676681575823566
ir 0.03506562025500054
oph@@ 0.05827333686644043
s.@@ 0.44757682283546657
sa 0.06396410990964026
three 0.005540275588465267
139 0.4355659005011478
30.@@ 0.33006912364115754
86@@ 0.8184667466305017
CB@@ 0.18841728207852523
Gar@@ 0.03058640545741393
Or@@ 0.021150799010121044
Su@@ 0.02746368298470822
Technology 0.06466976878231606
ca 0.04106374359058108
era 0.02869567904896543
и 0.5359071689488489
वजन@@ 1
DL@@ 0.3574053247061014
EMI 0.457383028602113
MR@@ 0.3165274359452799
TP 0.3817208780178865
XP 0.8524172780711596
known 0.005830537336928079
process 0.028502888108085746
second 0.006854315919961045
º 1
و 1
मुसल@@ 1
978 0.9824825406319138
CS 0.11471312453799135
NI@@ 0.3558970920291689
bo@@ 0.030653929717897557
gr@@ 0.03870584323087808
micro@@ 0.07575173047758649
om 0.02633071038636959
pur@@ 0.07472071556948617
sis 0.0699597951698461
there 0.006527205445831835
tic 0.06617094723532801
would 0.004737133052137317
सोलह@@ 1
163 0.5805858198694531
1750 0.27224767499283814
1852 0.1098790725359696
370 0.5322675812277418
4.2 0.6632535950442806
Hu@@ 0.03709335410719452
if@@ 0.034799547349777644
ver@@ 0.005021924245974568
1825 0.15676602096018227
3.6 0.5867791298494929
640 0.7662446547027892
AF@@ 0.1451758719082669
NE@@ 0.12278278919265774
PC@@ 0.17029473148412724
ann@@ 0.03222942996552039
das 0.0007917507181048238
each 0.010638745155881965
pal@@ 0.0816836850833002
ster 0.02112479316068432
172 0.5818893037674137
Mas@@ 0.04285353259063575
NA@@ 0.25739955561260713
Pakistan 0.05870616531342352
RT@@ 0.17615764208295565
SD 0.14742061602143183
SR@@ 0.23255083090704737
Singh 0.11542866759848783
WA 0.21647998681541042
net 0.03853609023296788
नात@@ 1
′ 0.24184718697931568
164 0.5530424268877029
1793 0.17691879527407153
2,500 0.5561735942019997
211 0.5665993429036955
3.4 0.6149243259839012
79@@ 0.7578334509232649
99@@ 0.4666705989355259
AR 0.1444885619796701
F1 0.4227398002191639
Mo@@ 0.023468711957457616
TV@@ 0.16097363551975127
film 0.005813790289607659
ly 0.013422947181024233
½ 0.25003922641025317
डिजि@@ 1
1834 0.13706479252130765
75@@ 0.614521565838828
77@@ 0.5867570372617725
SAT 0.8167854774461571
San 0.013400518426835557
aw@@ 0.03099742801669321
osis 0.195242632293569
pe@@ 0.04515084861998111
tr@@ 0.029703554510869288
un 0.025461160158268003
width 0.16459935477051837
ب 1
सेक@@ 1
த@@ 1
1761 0.3992524043203319
1836 0.13047684552606692
98@@ 0.839731959086785
AV@@ 0.20913735851647056
An 0.012316122281630593
Corporation 0.049736264878635306
MO@@ 0.14865372375598274
Nar@@ 0.04489240527397537
Sah@@ 0.12533312822190823
Ter@@ 0.03585766546112055
app@@ 0.04324396318834829
ih@@ 0.056263447845010715
é 0.017359970391439536
महमू@@ 1
ర@@ 1
192 0.5482415599399072
AF 0.14233292310649515
Mon@@ 0.01677016551863478
der@@ 0.012705598195687633
int 0.12926471885840515
me@@ 0.031901593603634225
် 1
1.9 0.5071700174430587
147 0.4421860897567028
1776 0.24217974995606337
195 0.4640791663277865
20,@@ 0.25248869840780136
256 0.4655018492411151
RAM 0.3696365706486167
RC 0.11393059965670148
ain@@ 0.04755612377778006
del 0.019174984622105283
ei@@ 0.019136802846001378
ens 0.009531403988554017
like 0.011473637129182415
mal@@ 0.04377499516329905
г@@ 0.4495165873962455
ंडिया 1
আ@@ 1
168 0.48428157849965703
169 0.5497250350536647
1783 0.2322757941322429
1821 0.13928809420478752
1831 0.14085225023179246
60,000 0.6133443952636243
ID 0.17408595257655957
SM@@ 0.17522085517775715
Tar@@ 0.03651497200332203
amb@@ 0.042083183637447126
aur@@ 0.06782386202131101
both 0.007018180888060159
ding 0.027610286274662176
distance 0.05711699855710891
during 0.004603544064232076
mp@@ 0.04461810476009172
new 0.004844967025181496
ст@@ 0.6459858995609159
बंधीय 1
প@@ 1
1792 0.18431273285512115
1829 0.1528198381201957
2.8 0.5137146211189224
212 0.5060472387141624
9000 0.8683511407039292
MHz 0.24740087226025712
RE 0.32643922532370906
State 0.008896552244846622
aon 0.6195295929108598
com 0.17575721721599322
im 0.000532746741629819
ological 0.047625694666369255
sin@@ 0.04052556937219794
ug@@ 0.03843924915561325
ος 0.5374017506229649
0.4 0.5349158370049809
0.6 0.5608905058732045
161 0.5066851862514623
4.1 0.6074393481847851
H2@@ 1
Inc. 0.07373366115508513
LO@@ 0.219950516733378
ner 0.010566503055099674
our 0.023004626940746335
ozo@@ 0.28675472720748
these 0.008579412839645377
ton 0.012944155884871278
0.3 0.3917613602230437
114@@ 0.2512324223652578
167 0.48292270508707436
1765 0.32545257379701986
188 0.5533185374751448
19,@@ 0.259877170492051
203 0.5173684630064208
206 0.5214190346029123
217 0.6110039563111691
4.0 0.4807045561791941
480 0.46249605026331553
999 0.7945702208428327
II@@ 0.28036499947075844
Te@@ 0.03562159601366779
VI@@ 0.14887090908699283
common 0.022767621083913718
pra@@ 0.09712233111720692
ron 0.04330518080138865
پ@@ 1
0.7 0.5520409129226616
1526 0.6225847345568611
1772 0.26493934324572993
4.4 0.7145017721390748
CBS 0.11342715632707813
For@@ 0.024977078189282274
Igl@@ 0.5520409129226616
Last 0.1021003938809142
M. 0.03395069687088673
Mad@@ 0.04151276951411334
Ver@@ 0.005846007283962279
XI 0.22267907990592026
ase 0.03227807027538017
ide 0.06954721215685955
ks@@ 0.07314194463408563
ov 0.02455631555690752
son 0.007156005288566106
ר@@ 1
नीदर@@ 1
ारिज 1
● 1
150@@ 0.8118215094463976
1804 0.1606956785901493
1827 0.16051637075864947
1828 0.13734463573983355
2.6 0.49707937620560344
Apple 0.12242959274374608
Chi@@ 0.03168467721111441
El@@ 0.015688227564332323
Long@@ 0.10568231815596653
PT@@ 0.2330009256137053
complex 0.04289306800462212
ell@@ 0.017703023809242144
method 0.06120437860530192
news 0.04781770092870019
nm 0.39716944084456557
order 0.014367374255827823
then 0.004828702435381169
uc@@ 0.05564981488352094
मोबा@@ 1
सोड 1
1773 0.30298210639698836
1812 0.11649728858030352
300,000 0.5021944427383486
53@@ 0.6425734123045235
BR@@ 0.22381090271536322
Cap@@ 0.042480710238194726
Patt@@ 0.31489788521684337
Samsung 0.4612387794470657
Sub@@ 0.02915291745400575
ber@@ 0.012763539085931305
bl@@ 0.01684228484899238
day 0.009492153265387705
ev@@ 0.02532927824858593
for@@ 0.02157017629463076
include 0.01127678562887846
year 0.0044471384617277504
π@@ 0.48214743859656056
σ 1
1816 0.12424392311191919
1823 0.1596097605973151
365 0.5327954499033395
420 0.4462414482439474
AIDS 0.20836894070895065
Av@@ 0.05429162278873527
BO@@ 0.21483687496102397
EM@@ 0.17422358616039604
PR@@ 0.18398591897887015
Temple 0.07968777188417708
cl@@ 0.04045349671204657
code 0.05335605556057175
dic@@ 0.06465964197856061
gi@@ 0.0319566326160846
indi@@ 0.1549163860263166
ists 0.03737975066832176
ms 0.03229284896033689
ola 0.030157374134816724
tive 0.03299775503047232
tu@@ 0.0422170775697838
± 0.37233859236388434
सहम@@ 1
ு@@ 1
162 0.46681844325643057
1764 0.3309484278268495
1788 0.22363096514171188
204 0.5261806079745169
DM 0.12478480156997378
Hy@@ 0.04709684994599495
RI@@ 0.17574617441521312
Ser@@ 0.029804118313861528
Sony 0.14632643398161393
States 0.0063236456268369115
circuit 0.13191737936203227
est 0.021805919361318815
inc@@ 0.04019624234052613
á@@ 0.02420204983727186
विटा@@ 1
सामु@@ 1
জ@@ 1
1780 0.20644831143795567
1790 0.17026403266330906
1798 0.15222727140095413
250,000 0.5299419165067646
Ap@@ 0.04696461112519265
College 0.009577219408945414
EG 0.25241766941484745
FO@@ 0.21292163691187868
H2O 0.6129505175879126
Khan 0.06423985205660743
One 0.01331450923423889
ali@@ 0.04802954613926505
constant 0.12370674850407953
ist@@ 0.022598175689211786
less 0.015229086538869886
under 0.005099872508536243
ym@@ 0.04498792445273716
ہ 1
विधे@@ 1
হ@@ 1
ಾ@@ 1
1,200 0.5793700521541804
1774 0.2616224796912851
4.3 0.6059842241612629
5.0 0.6102972791374995
AX 0.2804473187859974
Category 0.14126320876246903
Pl@@ 0.022468119018392768
San@@ 0.03260023485175124
aur 0.3496300416669468
gen@@ 0.013882462950044513
ili@@ 0.03955109212122634
ish 0.02632287573870106
ric 0.07925755537268048
wave 0.09015299536740039
work 0.006182342184364659
years 0.004007068956607237
� 1
6.2 0.8234111498506156
87@@ 0.6917659863816271
CN@@ 0.20560357101294122
Col@@ 0.026277046210225818
E. 0.03768106271504093
LP 0.08492489043964968
NSA 0.6348730828287457
North 0.008916171607801096
ja 0.019262581484340662
ly@@ 0.04302452331539412
och@@ 0.03700371492683069
ode 0.06772148326455565
ole 0.0439287505578607
period 0.014437213325967693
public@@ 0.5504977298434018
south 0.014042380490878904
ye 0.040146220591380996
वीप@@ 1
हथिय@@ 1
ਾ@@ 1
1757 0.33666379154302606
1784 0.20470306010437192
181 0.5600784808517619
3.7 0.5095865571992166
64@@ 0.46421963802827193
Bu@@ 0.022377054407949636
DI 0.18368494142626052
KP 0.3839350773418756
Ma@@ 0.017338684250624205
ROM 0.4493348400153414
SB 0.14348426951855078
area 0.00689025501416625
ax 0.0714677279539913
ena 0.032785214968219824
eng@@ 0.023010100075358877
ga@@ 0.1736330034855359
high 0.009025402937151527
ley 0.01183500343977349
north 0.013198097859415414
numbers 0.048567094260141955
te@@ 0.020015302035378525
using 0.014869888042774915
ط@@ 1
￼ 1
38.@@ 0.4098426537717996
Association 0.015450153398115677
Gu@@ 0.022087165866718876
ICC 0.30494245072306514
J. 0.023028052708384022
LE@@ 0.12249297634341996
etic 0.08593474998440959
ile 0.033586883472649876
ser@@ 0.021202582292164346
super@@ 0.050549852932005646
ty 0.026551621113071574
ν 0.5007476032926123
नामां@@ 1
ാ@@ 1
178 0.5216252921324229
1795 0.17667051694945943
2,8@@ 0.7924691938165656
By 0.016069959522664032
CI 0.26693699160136947
Central 0.01858326858104235
Des@@ 0.03817138709288384
Em@@ 0.03275870071324005
SN@@ 0.15008749584688882
Web 0.17960620246673456
back 0.008327873102301098
du 0.026985403726737713
fer@@ 0.023477224371719934
hin@@ 0.028243065720941637
ors 0.017884619141088878
phot@@ 0.11171371895211497
pp@@ 0.032004969140108856
ure 0.029156025880223868
ό@@ 0.5654668690011857
о 0.522451956620747
0.8 0.49975070913598074
183 0.4567350777687829
215 0.45387651330430523
37.@@ 0.409714015148519
All 0.01152239294773658
CF@@ 0.17625558361641663
Ig@@ 0.196293060490704
Tra@@ 0.024391749238791793
U.@@ 0.18328402868059276
imp@@ 0.04159546403234917
io 0.027788752336679472
ion@@ 0.03820160527548088
ography 0.05690770129318955
our@@ 0.039140895120335285
sk@@ 0.012399772515608915
wal@@ 0.0507759783827284
117@@ 0.25892364048408784
192@@ 1
2,9@@ 0.8187762775764248
22,@@ 0.26639772495166975
As@@ 0.034735696473158356
FC 0.013327855480757546
HC 0.10004870419820336
HE@@ 0.3555390660472202
I.@@ 0.16329991987052556
Society 0.018054174808780927
ba 0.04490577526816343
change 0.025601968969516074
ee 0.03550895855591706
ella 0.026760054803355252
ging 0.010313294960133449
gu@@ 0.029218203663853422
ni 0.07215620272621458
rate 0.025044174569017218
ted 0.016544111939351545
ts@@ 0.018921955508268626
unit 0.033852878635843374
way 0.010177302965022986
ί@@ 0.5131171429768063
θ 1
1556 0.5941956690371816
177 0.4937100694084999
1802 0.14166951914114945
184 0.5034287715622106
193@@ 0.5688207650213589
404 0.7240708265957048
5.2 0.6037342208536425
5.6 0.6129957237622314
9,000 0.6445106248830719
Co 0.04562907078818208
DE 0.15284593351279163
EP 0.04730703217787698
IO@@ 0.3182451666918902
asa 0.08629430960777532
au 0.010317994672541068
electro@@ 0.15544725015414718
ita 0.03072933480169217
ling 0.019074960913061857
list 0.019078945417445238
oda 0.07634084058316506
ox@@ 0.0579125489025369
que 0.029520479263274883
ram 0.06804539590080964
them 0.005898376676820955
vol@@ 0.062085311699748236
तमिल@@ 1
1760 0.2599402616106063
180@@ 0.5123033172147495
3.8 0.493906789039981
80,000 0.73398445099793
Ban@@ 0.03417384664363269
HP 0.17892946740956325
PR 0.16939614371090111
Res@@ 0.0718562858330739
ability 0.02884669661059662
ek@@ 0.020254653031988208
ga 0.037027833836262396
heat 0.09370476847752009
minor 0.04477668766880507
my 0.03088575039102834
ong@@ 0.05165275506247168
rh@@ 0.06859965269003748
st 0.018604287131269572
ung 0.004622493820988913
पसी 1
ம@@ 1
1822 0.132746957938173
195@@ 0.5589595121753784
221 0.5230030523278395
4.6 0.6434066327198601
6.0 0.7212380802262948
Dev@@ 0.065150864151985
Mac@@ 0.025690850855073208
School 0.006165217234436878
Siemens 0.2126476405015027
T. 0.05130170069953486
aria 0.05960531787455241
equation 0.18953516610245955
ets 0.017289953978027614
mat@@ 0.03252972998890225
pressure 0.05233965835936995
rec@@ 0.031197221988160856
ular 0.059810323267070205
yp@@ 0.05049073744950592
گ@@ 1
ہ@@ 1
धारण@@ 1
ల@@ 1
ರ@@ 1
193 0.476442085009717
2,0@@ 0.47244447788911675
25,@@ 0.2611191865567589
310 0.4271549727673325
3500 0.5311961496677806
5.1 0.46886806246224993
AG@@ 0.14638967395713356
Ag@@ 0.029248900194211943
Comp@@ 0.05884795349288667
DO@@ 0.11192170410419806
DT 0.2952215016742765
MT@@ 0.2364025612643634
V8 0.273333941091188
ce 0.019811115356724415
cell 0.049681135037509594
dh@@ 0.13843869255981942
gle@@ 0.4352598106202615
made 0.004162828140312206
pre@@ 0.021282160276007014
si 0.0684240731896412
systems 0.02506575113365569
ti 0.054777988017390304
γ 0.7694095782765616
हमे@@ 1
171 0.4423933338547584
176 0.43240279985098123
1787 0.19519425530068185
23,@@ 0.26791201022686506
232 0.5318704578028128
48.@@ 0.4820729877174197
69@@ 0.46700820685125033
Can@@ 0.034886680372877094
Council 0.013808590268386378
Development 0.037477201503996596
Great 0.02155548873839368
MV 0.3587322994079862
NR@@ 0.15642450022691867
R. 0.03752310413306635
Social 0.04755256246711993
dar 0.029402311405961917
mer@@ 0.019197730523525514
neur@@ 0.06669367229659741
tor 0.025465058284727997
« 0.04398842468151629
н 0.7018496762758767
मचार@@ 1
सऊ@@ 1
179 0.4794737533742473
2,7@@ 0.6990251721626858
245 0.6054493748901585
275 0.4347595582963046
325 0.5519624993306453
5.4 0.6433703017675676
CV 0.275604740457048
Cy@@ 0.0536189351734096
ET 0.31714014875198776
EU 0.04080078256799843
GE@@ 0.12303183602619744
ML@@ 0.23017653789025772
S. 0.026743218792032855
William 0.010372855430965968
cos@@ 0.10265156237551637
district 0.011652211494752146
do@@ 0.04539736511348679
osa 0.04960343953716227
ro 0.028914829401958424
ther@@ 0.03106539670229374
und@@ 0.028942446239973666
β@@ 0.6386246831033178
720 0.6217789223457022
Company 0.01473982247980467
DB@@ 0.3743878083330774
FIFA 0.0845528115589303
H1 0.5964128170559769
MB 0.23115884347908097
R.@@ 0.14999871900431855
SL 0.12091887858407442
acid 0.08214264507897176
ber 0.015693841309696983
co 0.010192230460325066
da@@ 0.04585684960150385
dr@@ 0.03854629460715478
fl@@ 0.015779778363597653
han 0.06447185986245636
my@@ 0.07498059558934912
off 0.007956287580190837
pi@@ 0.05322277403136715
ऋ 1
1813 0.09958584308089133
2.9 0.46055550739507783
227 0.6305690829973033
30,@@ 0.29651572687216865
35.@@ 0.36164425748472556
Ha@@ 0.026878965083324196
Is@@ 0.033041693406403096
PG 0.22208128063599292
Pat@@ 0.0370043037843342
Prot@@ 0.044549788652195804
Pur@@ 0.05015102276144049
Red@@ 0.041809616845416175
Sur@@ 0.03421072019031889
adi@@ 0.03655022125038325
being 0.004755079605123545
eth@@ 0.05464505743684568
fac@@ 0.09126019061084914
ini 0.01986643444219953
kar 0.12328097712509675
ps 0.03607418526063327
rot@@ 0.03623960247110939
sur@@ 0.04095736166510953
п@@ 0.3559969597702493
ి@@ 1
1540 0.379582250578804
173 0.46403404187939307
B. 0.010933623022847104
Cat@@ 0.04562315077795994
GI 0.3403455254899381
General 0.009988836345400327
Ma 0.13090797294922346
Ni@@ 0.041880448398861896
Pre@@ 0.02273988262498248
Ti@@ 0.044483870580164966
UI 0.3110801459095931
alp@@ 0.12469680742418585
angle 0.1364234159435925
ants 0.032726993237305865
ational 0.04512087111353248
ds 0.01877602982295359
eh@@ 0.018679681112148953
ell 0.012857033057513019
given 0.01309694059964856
life 0.005993689992981054
ota 0.059968791046114134
rac@@ 0.05447299887477214
space 0.023458951883027396
א@@ 0.8893399012043602
बिनेट 1
बीका@@ 1
ச@@ 1
ക@@ 1
1550 0.35009972916609167
1763 0.22766799676616173
1785 0.19084817251972389
2,5@@ 0.6939102416405769
28,@@ 0.29789976954749703
39.@@ 0.4229306947225413
88@@ 0.4192583587336336
AE@@ 0.11606872030646669
C. 0.026253513899858704
GNU 0.6637056721304487
K. 0.054983398345974724
Mag@@ 0.024281914834040803
Mc@@ 0.014320334439828025
Rajasthan 0.4004250530545139
Science 0.025082902674020854
VC 0.16765481822045186
West 0.007878588740871077
ales 0.0336653914223393
development 0.013234395097642394
esh 0.08877203183237041
group 0.007196897884334443
gs@@ 0.09894382714649617
km2 0.08976220786520242
ometer 0.23952668531206353
place 0.00731787935752206
product 0.048008538550822905
trans@@ 0.03484155452615043
ী 1
ப@@ 1
1620 0.35009480968587403
174 0.44921969305575676
1807 0.12405352147413687
1809 0.12096200816179302
194 0.4937544040052499
196@@ 0.4648986271478002
226 0.5665233517765479
26,@@ 0.26165148864599813
265 0.5308203045839573
74@@ 0.6884075825073196
99.@@ 0.4405808528046846
AH 0.3843994017758993
BD 0.7141584895836532
CT@@ 0.18387001882699516
London 0.0075998501757615034
Mer@@ 0.019159533974914364
Mor@@ 0.013331357415592252
Ta@@ 0.038270420195515825
asp@@ 0.05957511011504992
atti 0.14089916571859532
cc 0.31010022124855974
company 0.008065610159495435
example 0.017367793942813087
following 0.006457143759890981
ganj 0.7168399357272716
iti@@ 0.03511250053004475
let 0.02677676992267835
я 0.41654916992442903
ऴ 1
ॊ 1
ા@@ 1
ར@@ 1
1756 0.27189969525566676
1810 0.10381352751188304
208 0.42372392628914535
400,000 0.588456513016942
BE@@ 0.1473438744201713
Ca@@ 0.0779638018898634
Chinese 0.0196260978200769
E.@@ 0.11076015760561499
Is 0.05011022090132762
LLC 0.25778468375332336
Li@@ 0.02063029028871349
Pra@@ 0.0387047152688567
RT 0.12543655340622606
SMS 0.35380947845143634
Server 0.19183163860464186
VIII 0.13834192705823514
WW@@ 0.18493798285602683
ard 0.012929860799467776
bh@@ 0.24774405493317206
class 0.015827746058331885
ery 0.03342950073947668
gl@@ 0.018497424046604958
men 0.005950002790800048
ocene 0.2215636655664572
sm@@ 0.021073415684111908
tor@@ 0.023844621773400368
ua 0.073442548718513
ِ@@ 1
मुता@@ 1
वाभा@@ 1
ਸ@@ 1
1,2@@ 0.4286859941751007
1782 0.19615540757310884
199 0.5008372626665232
290 0.3871524030439491
47.@@ 0.4681466296221812
5.3 0.5363712582919524
70,000 0.6958149532319732
A. 0.021829062837463182
Char@@ 0.0292698803117515
GH 0.32188447778970447
History 0.008385071830667981
Linux 0.1638170490185963
Met@@ 0.03507430861432642
Mi@@ 0.026958135235086084
Pr@@ 0.027447513609974803
SF 0.15557153014418978
Year 0.028929321667106548
ama 0.03058025704594438
ass@@ 0.017567443001994233
ato 0.042708238979960796
effect 0.03479507540729608
gas 0.038541868577230895
hu@@ 0.05455775525633962
human 0.021117138094462723
inf@@ 0.044837318457842945
key 0.027648276287363174
ko 0.02747177481823347
ose 0.02609184377587363
out@@ 0.021559859041101682
sol@@ 0.046146599224491165
tel@@ 0.02848738274765793
ов@@ 0.3551969666022263
अनुया@@ 1
222 0.4457865155441248
3.9 0.5180649290297232
630 0.5982416442367042
Ga@@ 0.05546054773499696
HP@@ 0.5090011779693505
SR 0.05453584049671613
Union 0.010995251606689635
act@@ 0.07605603732453421
ap 0.05216829740229471
br@@ 0.027490316255953582
champ 0.5617634951978808
dy@@ 0.0942177056885486
magnetic 0.1686318728720911
ment 0.023498353990593208
min@@ 0.024007612563505525
section 0.02251171978312827
tion 0.02887912226501827
ut 0.021210823808553575
you 0.02002446220882864
ск@@ 0.3968236032122862
ы@@ 0.5617634951978808
यावसा@@ 1
■ 1
0.9 0.4960175623532452
1660 0.27115955121694285
194@@ 0.8054798468302699
530 0.567687459616344
DV@@ 0.20446100192846237
Dynasty 0.1924296462829186
East 0.011492084260662085
Gan@@ 0.1251696851136656
He@@ 0.016777736901718063
Life 0.021710874459367216
N1 0.6394793163359753
P. 0.036289144537904376
Sanctuary 0.4152968335748463
UTC 0.20538372927827112
XML 0.48978953914880985
ag 0.036279501504744766
ally 0.018371638839767303
anti 0.025203772205599176
book 0.010405368038848468
city 0.006026898305440974
ck@@ 0.01301328065936527
com@@ 0.03726223636400948
cre@@ 0.03900545219276644
ere 0.014333359653314164
free 0.017617760376505674
har 0.18619684151071358
hind@@ 0.46557147156941425
ise 0.020079246126587357
kg 0.0383292627843152
later 0.003793705835591637
mod@@ 0.052541402362028373
ophy@@ 0.14439855530167184
phase 0.043678743993515394
real 0.026236624364685223
res@@ 0.021051396814082298
side 0.00837895785554602
small 0.009349048792257387
sw@@ 0.02115824013602429
vi 0.10822737537671877
while 0.00486621046950727
à@@ 0.1472008992320547
γ@@ 0.4393526437256018
শ@@ 1
1748 0.3132725859623294
1791 0.1587100303110124
1794 0.1285948493509252
191 0.44145285845100757
24,@@ 0.2513771635727545
305 0.4083689576284112
6.1 0.6331636068393559
950 0.4491718509801259
Book 0.04398690419334077
China 0.011757964102596581
HA 0.17207508549509767
Kam@@ 0.03287558004918832
Vi@@ 0.030287765595818944
Vis@@ 0.04443619382431064
ality 0.032294982820110826
ash 0.025875642413043517
cells 0.049378068011636723
ck 0.015406848489950626
ents 0.022660480258217725
ey 0.013176087954353261
ib@@ 0.03479683887164621
near 0.010536032363179062
onic 0.06244419412283033
part 0.003949826054365898
radi@@ 0.05633410537041888
ste@@ 0.04231354561354861
surface 0.032827566057757634
ulation 0.0680786715077147
uri 0.11125085440856491
í@@ 0.024988669308279192
ɛ@@ 1
δ@@ 0.47403813095529984
औपनिवे@@ 1
দ 1
৷ 1
1536 0.44252113779347135
196 0.43176292536737393
Air 0.013592067397212672
Bas@@ 0.04217489510831469
C.@@ 0.10987738707018756
Day 0.024651619391261717
FM 0.039187661805188255
Health 0.0341382360417338
High 0.011294978904482403
Ho@@ 0.01998257697570939
Law 0.027699269555671403
ML 0.210591086918316
Mand@@ 0.04788311763308524
asi@@ 0.03342086625914813
base 0.023749462864551103
dec@@ 0.04889377350677613
den@@ 0.010720014685888402
ess 0.026148186587325258
ice 0.016458019025216677
oma 0.05470179157118475
tag@@ 0.07625525259815936
tal@@ 0.04293967197802542
ā 0.10767895107181477
ō@@ 0.04520579076050734
आरं@@ 1
ਰ@@ 1
வ@@ 1
150,000 0.47830500616322524
207 0.4209084054236382
228 0.527189886552653
29,@@ 0.30030565455453634
2O@@ 0.6479501315019061
302 0.48761400072247235
560 0.5743837410257071
96@@ 0.6293486923200331
API 0.3710405548515851
CL 0.24517032002774825
CPU 0.3707790745451358
ET@@ 0.15743133057437095
Her@@ 0.011314498758726645
James 0.009905591768418483
King 0.011681775944837757
Mur@@ 0.0266316818576406
No@@ 0.03521892407654781
You 0.021471413107229338
ek 0.023902212737577127
ence 0.02598200033479248
long 0.007753135184856512
nagar 0.4406495031654504
oth@@ 0.07356480799490321
pan@@ 0.046335139302470074
prot@@ 0.04217857197206572
self 0.02558153871636834
গ@@ 1
ര@@ 1
1605 0.4175848582441768
1739 0.3410870411396953
198@@ 0.3734547546051445
214 0.40489132007463446
238 0.5268514844378864
301 0.3360126543698292
303 0.4482101498324038
7.2 0.6311975257056572
Bhar@@ 0.1817619187039034
Black 0.017608744234288872
CR 0.12813901422194277
Do@@ 0.03270227029623896
Music 0.013597412932042611
Real@@ 0.12820226151425368
Santa 0.02745207227478497
Tr@@ 0.019706963719869346
century 0.0069984717643951115
control 0.015322858936220754
functions 0.0597373003283988
gar@@ 0.02878618883163892
ings 0.01306265247575327
ized 0.032544515953875204
science 0.029347243865078584
source 0.03189706273214761
tw@@ 0.02296430589521931
ul 0.04339450034715195
दैव 1
ਿ@@ 1
ി@@ 1
1740 0.21757132818496572
189 0.4287756024514751
198 0.42913441048699935
21,@@ 0.25965347875036165
233 0.5555965552892353
AE 0.19610539982101882
BD@@ 0.5200969782271443
Far@@ 0.02463801386239859
GHz 0.5755506403276814
Island 0.013422033149212559
Kingdom 0.02139316759968146
MT 0.21086168607399844
aka 0.04048437834783013
art@@ 0.0360072757008822
ax@@ 0.04236395047765091
different 0.010067447102987244
sam@@ 0.06786866338432561
sin 0.10744094291472119
tha 0.07141284229661109
umb@@ 0.05746477146256883
und 0.00012487702508835592
ে 1
197 0.4576452779459064
2,6@@ 0.609092271249305
2030 0.4300388083331967
234 0.5011442350575965
375 0.41117439269550976
DL 0.2157526331663139
H. 0.027006492231788096
IN 0.15398712424952007
KO 0.13351508240785345
Pu@@ 0.0390160855167018
SH 0.15375324344112165
So@@ 0.02733907731490615
Sol@@ 0.02355746427479161
ain 0.03060376548812942
analysis 0.041862184881992594
case 0.01452258564279036
chromosome 0.43559008382803144
els 0.014189158931603848
ich@@ 0.020909475664401725
ill@@ 0.022834777470367794
illa 0.0361024020975872
lan@@ 0.04527331640502437
led 0.007246530715384441
mg 0.2227797875916252
page 0.06299386153181985
public 0.00793646006974681
ren@@ 0.021355878545553878
so@@ 0.03901307826485066
sources 0.04118100052137112
table 0.0341282231412698
temperature 0.05725095321888615
آ@@ 1
ى 1
ंडेशन 1
वारिक 1
চ@@ 1
243 0.5495002577385927
4.9 0.5382497136685137
At@@ 0.02673816895692847
DOS 0.2520160112433808
Da@@ 0.03455522201898172
EP@@ 0.17606476358279194
GT 0.11998456264337756
MA@@ 0.4080847502323372
SEC 0.22849759116394364
UL@@ 0.4313434665668227
cal@@ 0.04321271167785974
comm@@ 0.04667312037790887
electron 0.2261184854161977
fi@@ 0.042219232041617843
found 0.00591098226435015
hr@@ 0.023393393325420606
ke@@ 0.03831958068925054
last 0.008497571226831471
run 0.012508031609264805
sing@@ 0.11067931182902299
» 0.036067278091153204
מ@@ 0.7218146449196253
ང 1
1768 0.22149923198228721
1778 0.17766250582573503
27,@@ 0.2639720359724633
737 0.39680820544330836
89@@ 0.5549952603159786
Aj@@ 0.1359922161039153
At 0.006292511474069394
Ba@@ 0.026091153113483458
Bah@@ 0.06972775766278848
ED@@ 0.19441254089175108
Gi@@ 0.027239031181152326
Mu@@ 0.027355450219837315
Ob@@ 0.032421274334622
Pe@@ 0.023479551746574037
RCA 0.2631264234706829
SH@@ 0.1961145209552682
air@@ 0.03238080099609652
char@@ 0.04455214167063723
cr@@ 0.046158639239541915
cycle 0.06690684104813861
ix 0.0496210019291773
lic 0.1019519634175815
pura 0.4597348798139823
sa@@ 0.04266607143629028
social 0.015038777918299379
tom@@ 0.06733649284883031
ə 0.8424543438642547
ά@@ 0.42412718688518847
С@@ 0.3281197011721631
в 0.5310730508196002
е 0.34903384643101204
ऍ 1
ன 1
ు@@ 1
ོ@@ 1
1786 0.16764684415061976
1797 0.1229890837431817
1808 0.09841616357020187
186 0.40582291154991423
209 0.4176768453924375
218 0.3801218514752129
237 0.5543624264957779
5.8 0.5456519057652046
540 0.4310069574794302
8.1 0.530759659428818
DB 0.09778275302429551
Dh@@ 0.21332858623817344
Foundation 0.028052382899820975
George 0.00917070675739988
NC 0.15288548680402428
Power 0.041162970793057085
TH@@ 0.15065876914682283
To 0.01834141351479976
Ur@@ 0.019313385295228906
action 0.01947741869463552
cur@@ 0.028065337876626295
den 0.0002887990353305121
des@@ 0.02913500617467473
go@@ 0.03913514030723636
m2 0.4166031259955418
od 0.043823314227221674
ost@@ 0.02174407835935405
ote 0.03554696556531383
points 0.013943724669079567
return 0.017008670866106818
standard 0.02502964621276757
very 0.008667781209427657
ū@@ 0.04524670526168425
ّ@@ 1
ী@@ 1
1530 0.3405652733757142
187 0.3833060790671507
191@@ 0.333924724869781
1st 0.023139309217439827
216 0.39826902401412423
223 0.4848492466258903
251 0.4771302536447816
307 0.5763412318665931
322 0.5715326637818898
85@@ 0.5036931774296276
EE@@ 0.22769036320655534
ME 0.21875725589096967
Mak@@ 0.036274748839776494
Medical 0.04072321910089219
NBA 0.05633410537041888
Op@@ 0.03551180514796753
Sch@@ 0.004698142408396664
Sir 0.0209249391217056
XX 0.36548468362271763
background 0.042574438862914454
bs@@ 0.18442919419730983
chi 0.05155530640931142
dit 0.10139900717128474
family 0.004465015782194588
go 0.012993250370220987
information 0.01723637328946821
iv 0.14557252729599438
ow@@ 0.017626021132622884
red 0.0166521706109531
region 0.01094085755482809
wara 0.17545404497365732
ó@@ 0.02662202447884774
ра@@ 0.42322674749603306
रासाय@@ 1
ি 1
ಿ@@ 1
.1 0.44109697928098296
273 0.6070038020400691
CAM 0.578063522969699
DO 0.2551840052829001
David 0.009924982931159116
Framework 0.42908889454556604
Gang@@ 0.06758947424088248
Mes@@ 0.05664302369300596
NC@@ 0.4520611489380628
Sanskrit 0.17663651915921322
Space 0.04847318931719259
To@@ 0.030575878550870596
UV 0.1776318413933936
Yam@@ 0.09363484391865619
bar 0.011553925665572343
ean 0.07329963754289472
ens@@ 0.009926441384440628
int@@ 0.032572567458098355
ites 0.033327880024613316
ka@@ 0.10033014253961675
lie 0.03568185645858842
mm@@ 0.09667878997939353
now 0.0062704676009708755
tical 0.08117698914836287
ven@@ 0.026038323887071245
word 0.026331215156989295
ئ@@ 1
परिव@@ 1
ত 1
430 0.3762679730955787
ANC 0.40787053251567984
Centre 0.025979159580129398
DD 0.2483729454797134
ER 0.18006798712453537
GO@@ 0.1864038459277977
Gen@@ 0.019854180770215155
Lo@@ 0.02321346505329991
MIT 0.1907512351331514
Robert 0.009371904524473746
Shah@@ 0.12593085323215075
War@@ 0.016357755040892003
acy 0.03484535605541685
ao 0.028949082132726154
cat@@ 0.04436159659962147
ensis 0.04132577064669994
hab@@ 0.05666658790147344
hel@@ 0.03401897392479729
identity 0.052558739421129874
ines 0.022645165330811776
ond@@ 0.03908417326168863
ratio 0.09116073888647283
single 0.007059939102059879
those 0.008505208958922556
version 0.010810843834274563
we@@ 0.014691205327747833
224 0.43599248153854864
241 0.4842319025728454
248 0.582428486111065
2nd 0.026245706524737577
309 0.5444740231535904
35,@@ 0.346036201462071
36,@@ 0.349457091666639
4.8 0.46230993515254554
Bag@@ 0.05667687167509007
CY@@ 0.5140224558631211
District 0.008046789863795445
Ds 0.22896665448013465
Earth 0.03454119629747672
Er@@ 0.0070071526134342305
Fe 0.160452540342748
Gra@@ 0.015322465924498358
Han@@ 0.0296992228747903
House 0.007985543313898972
However 0.006512884088857823
Information 0.051743731059748936
Je@@ 0.032565805084092576
La@@ 0.019004800477321355
Man 0.015124278420933066
N. 0.06778818048998823
Nu@@ 0.06326212493689844
PP@@ 0.19688777872392044
Pradesh 0.09248059479606165
Var@@ 0.03872059955692874
anda 0.04170775780918772
art 0.00822627323657639
dae 0.05850981353980523
down 0.008281122964420642
hat 0.002733592744749655
head 0.00917768919217971
kHz 0.28471875808031616
ker 0.013131102855801527
level 0.011161644738812034
ll 0.12001464495733358
motion 0.06390433535553196
mu@@ 0.04126210609155341
pa 0.06956343862271121
pat@@ 0.048356947862951735
reaction 0.06771825457436344
rop@@ 0.05486997916914989
х@@ 0.716904954043105
ה@@ 0.7936719784829538
अयो@@ 1
खाबाद 1
बात@@ 1
‚ 0.03857109917253905
1658 0.39142275922025804
1689 0.27053532402499314
1699 0.3127597599570708
1759 0.2291883261223879
1767 0.2118223257333202
286 0.5660951655222982
34.@@ 0.31125507382669315
410 0.37929324323102054
625 0.5211462973738074
7.1 0.49766607958004233
7.3 0.5502747659998038
BL 0.14985973938379832
Br@@ 0.017253081352350128
CIA 0.13502568050621302
Cav@@ 0.07062946544258243
Cu@@ 0.039407947478057655
EL@@ 0.14336059905597928
ES 0.17560144723452445
Equ@@ 0.10225245708237493
Gh@@ 0.0702242413425087
Kha@@ 0.20879489738028517
List 0.01701454455490245
MGM 0.2393637063519231
No 0.02780428121425826
Open@@ 0.1664985780947936
See 0.019382672048698417
Wildlife 0.12884100495528836
ction 0.07766697520456843
ft 0.02102391404381591
hum@@ 0.061332087272188314
itt@@ 0.03322398447786946
loc@@ 0.05256832645593019
m.@@ 0.578385865156882
mi@@ 0.027344290086815513
ori 0.04740173041844657
rule 0.03279097331242043
star 0.024184349696562992
therapy 0.10418130490403463
voltage 0.19060443283579065
য@@ 1
1720 0.20860971916505228
1769 0.19735346718002955
213 0.38466912870176445
236 0.4892721373838233
244 0.5024957086644671
610 0.5019304716468468
BSD 0.5082188944123539
Ber@@ 0.010673496371191856
Bur@@ 0.01587844955142149
City 0.004835406955863578
Delhi 0.0736208858759358
Dr. 0.015575279740795377
EPA 0.38073053694031295
Fer@@ 0.02675157010156156
GT@@ 0.09284564904162439
Gal@@ 0.02515736535457218
Indi@@ 0.059203421692191435
Micro@@ 0.10224935593355793
Nap@@ 0.11677995009004105
Office 0.02888317621166721
Park 0.0075118041361241505
Some 0.014357944182188262
TR@@ 0.17362497637900653
UFC 0.18205474879398076
arh 0.3890289357402326
before 0.003989808468370128
ces 0.03671352553019967
cu@@ 0.07050342697014486
cul@@ 0.0505742025721463
due 0.00659449034647228
flu@@ 0.05035163499142934
frequency 0.07756234821728608
ler 0.0062584671280266875
low 0.011859251296817275
much 0.009596253452634396
over@@ 0.013939899696783718
properties 0.048777458383695536
river 0.01873913108071757
tic@@ 0.05999142098602404
ue 0.024889345676820995
uk 0.046733995527235735
wan 0.07423327055299397
चीत 1
सनिक 1
మ@@ 1
မ@@ 1
.S. 0.09168882898837194
1545 0.4517535931862848
1680 0.2265753846238428
1729 0.29109685176838085
1752 0.23368221486988572
1766 0.2079263226917006
219 0.43434411676902673
231 0.39887136676066703
252 0.4462499961119341
510 0.5613745161816796
520 0.42346459168618017
A1 0.14397518708491813
Ash@@ 0.03654441687481336
Bel@@ 0.015301686492037007
COM 0.24392688466717816
Cent@@ 0.07239068612817112
Charles 0.010474852755290495
England 0.006954233647701284
Go@@ 0.02862253344860683
IG@@ 0.2417801134049808
Kat@@ 0.02738668200437726
Le 0.01982662364322305
Tal@@ 0.0251404853677794
Tit@@ 0.07356589894062845
anth@@ 0.058397269319816
are@@ 0.04176306376914537
col@@ 0.041195524477062324
device 0.06466915494633736
e.g. 0.0481705475255074
edral 0.46811101828568163
electrons 0.3488541636271866
history 0.00807755381903183
king 0.016845107924053616
mah@@ 0.28140604748415815
mer 0.01579830522122902
of@@ 0.02415940673685034
oil 0.028115405281454207
ona 0.026753271221561476
ram@@ 0.044426546004675056
rit@@ 0.029887553285527644
root 0.11443797088525254
scope 0.08388477980348379
ē@@ 0.19623046704029243
ч 0.7779756569385045
س 1
सोसाइ@@ 1
1690 0.26689044577463833
1781 0.16416242057127922
266 0.5135187461998378
4.7 0.3824172288396319
440 0.3148336749428824
5.9 0.4472069246347761
App@@ 0.03904891782847405
Hol@@ 0.021998999036815903
IK 0.28592886594878686
Live 0.02889249836791452
Ltd 0.06833406520070455
OR 0.24063163037602184
On@@ 0.03292988764996678
Pro 0.034922257425497205
Ros@@ 0.01566591767258218
Service 0.018833861346376476
Shi@@ 0.03009568291479862
WD 0.37906856659059834
aj 0.0770415203855603
alis 0.051181875507976274
ero@@ 0.1640380079751661
ham 0.022086546073799146
how 0.013710530912981038
ness 0.02308780282914471
ok 0.04241170795007968
poly@@ 0.047791598923213
range 0.015281569579443072
scale 0.034501976810908046
she 0.002246652842963714
tes 0.008153854759685508
tro@@ 0.02467629841227061
ush@@ 0.06119540614171096
van@@ 0.08097573944004177
ves 0.020851418671858933
ys 0.01485931085183343
É@@ 0.03478475717528833
ō 0.02357181067500481
धानिक 1
า@@ 1
1650 0.2085305087684303
1779 0.16995070172355325
1811 0.09378137732071981
3,0@@ 0.5321302870445338
304 0.4563558457416184
333 0.4421539003347215
335 0.5191673080665914
6.7 0.4950480370762736
Army 0.009627021116265875
BI 0.22720488268799124
Cr@@ 0.03679844253843318
FIA 0.20832666662887173
French 0.007268820408306273
HO@@ 0.19156690333603218
HS 0.11318012743565362
Human 0.045718798661661654
PI 0.24013316051981498
She 0.003193619000656888
She@@ 0.0497358646350842
Syn@@ 0.03921939270543537
These 0.009262182140478314
Trans@@ 0.03545174747755731
ami 0.03599361255891501
ard@@ 0.029086690318184224
cent@@ 0.05283703482368558
chemical 0.0602454218971974
i.@@ 0.41503053546511354
ida 0.040033470453899836
kan@@ 0.028387369958219884
lia 0.04603481584649223
lin@@ 0.020137785123437193
log 0.10873376528639582
oli 0.04685460700480066
omet@@ 0.0893764646514304
ott@@ 0.03981284886256973
oy@@ 0.036091139705560674
political 0.01000977783858606
tions 0.024222103763293264
true 0.037988980385264846
М@@ 0.41952397630184207
ھ@@ 1
ऑ 1
ऩ 1
ৰ@@ 1
ಕ@@ 1
‏ 1
1520 0.3007716249454335
1580 0.2919808050096589
1670 0.271219403231338
247 0.5154501434875673
259 0.4994957342843807
BAFTA 0.4022784437189644
Cer@@ 0.04302465307617718
Code 0.05104335970789292
EM 0.06645176065867593
Global 0.050460182417183384
Hydro@@ 0.0954016409274397
Joseph 0.011348798160690267
Lad@@ 0.06011123449840685
Name 0.00844252116380699
Net@@ 0.07350673034318148
Network 0.037522484063573586
Plus 0.12894173841391512
Por@@ 0.028386199634590343
Republic 0.016768300567455832
Sea 0.027316172968677072
Ten@@ 0.05095038455359804
UT@@ 0.18434816203817217
Vol@@ 0.024787405730423574
Xbox 0.17388164807247403
above 0.016651179331648537
book@@ 0.13856552734441208
charge 0.032104707077732025
could 0.00617205673431715
ear@@ 0.02851933230008699
factor 0.061153828421349636
hyper@@ 0.08610228130492095
ins@@ 0.025246790829705747
je@@ 0.027109673502544406
lis 0.03365496244476456
major 0.007893600045130749
mes@@ 0.07916536166016601
negative 0.04046450157188541
non@@ 0.055950982370833416
old 0.0069463994039747
position 0.009134928845417688
quad@@ 0.11309337380023715
reg@@ 0.021761133592597886
sson 0.06156660554642404
sy@@ 0.047576416464324735
ten@@ 0.01007217074678637
what 0.008973552982417175
ב@@ 0.7559935437817655
ל@@ 0.6822380760957395
वसीय 1
ল 1
ు 1
1610 0.2869468197881085
1710 0.22539108825059395
1728 0.2650298290597485
1755 0.1973788115081683
255 0.3487470216850406
321 0.4634303857183929
BP 0.173203218823443
Ben@@ 0.0223936479025483
CN 0.2541024453385158
Center 0.011520142668724384
Cha@@ 0.03439824005957082
D.@@ 0.10504107699696975
DH@@ 0.20054224073583685
Dar@@ 0.01827387474221491
HF 0.1500968642948339
His 0.00495650446145734
IEC 0.3767486073677811
IST 0.45325628284861474
Language 0.08559628392933004
Nagar 0.3338047483226258
Road 0.011670571031770952
Systems 0.04784109299908332
Time 0.028091467016469696
Tor@@ 0.013987211601066633
VE 0.4008897802670758
VE@@ 0.178597090689917
Wal@@ 0.013470670853589797
ages 0.020898697928691572
atus 0.048698723160170786
bi 0.055180605863301896
bs 0.024450288588055903
cap@@ 0.04571199752851634
dar@@ 0.023839066663303973
four 0.004281766909401966
ids 0.040418605488947545
ika 0.03247986106151877
istic 0.053632481319013915
ius 0.021347075100816217
large 0.006754064277595656
often 0.007912550995019413
onom@@ 0.079976074699804
particles 0.14747016916967431
ray 0.04843594999121268
result 0.012027160482205758
sion 0.03288336972804715
sive 0.04363483817764853
tec@@ 0.27112046859821937
test 0.025992475996165686
è@@ 0.042617037225212935
і@@ 0.5469092366557458
غ@@ 1
ُ@@ 1
वियत 1
ു@@ 1
1527 0.4091203731634404
1618 0.2526470961139903
1724 0.25679932398944144
1730 0.18738769859377138
229 0.4141249037220146
405 0.3872798194006638
460 0.32319533058973454
911 0.36798598781820324
FF 0.09033945531494249
IL 0.1189275557819954
IUCN 0.1340780628882166
Jag@@ 0.07154923045989721
Red 0.015265341395231516
SV@@ 0.1562525117504986
Theory 0.15500058395699975
There 0.0053473100080461255
ail@@ 0.03464283538426676
amm@@ 0.023226603999273704
another 0.007575031801594159
axis 0.13134708391571173
books 0.017334721392357755
bra@@ 0.02958681309091081
dead 0.038010528681820394
ema 0.07159967052366872
ger 0.008162186939732311
gra@@ 0.0215189644870648
great 0.014275151289620026
ham@@ 0.05281546159013213
hand 0.017983114096378927
ier 0.013315956948811705
ki@@ 0.07329181500113591
kr@@ 0.07523269084283266
lic@@ 0.03601564987156882
na@@ 0.049859662561523854
positive 0.02398350141987699
pus 0.1189275557819954
several 0.004553475499067422
since 0.004856507083528144
than@@ 0.12400992996071317
village 0.006801663020497519
ī 0.07101145438757146
ɑ@@ 1
η@@ 0.32921923059262265
υ@@ 0.35574127018502305
إ@@ 1
ृद 1
ి 1
― 1
262 0.43481674366431405
285 0.4115309860221469
46.@@ 0.3305182691708061
6.8 0.49887214410425046
De 0.019485862750646343
Eric@@ 0.38056817850238533
European 0.008314362735430071
FF@@ 0.14150020801257246
Gor@@ 0.02521432278063507
Government 0.01675949282504318
HR 0.19939949472430368
HR@@ 0.287479559300363
Ki@@ 0.03361909704084676
Kumar 0.1487147701628227
Limited 0.06261306603376757
MI 0.17172178230661994
Me 0.028390521309236562
N.@@ 0.1395239481241287
Out@@ 0.05162079672232329
RN@@ 0.17603373895484783
Ref@@ 0.20888478171850736
SB@@ 0.14384326401278064
Sk@@ 0.01328269470241672
Sw@@ 0.02447009108557897
USD 0.08396650292656116
War 0.004995519338769419
aph@@ 0.09541465793397913
comp@@ 0.04180755256617541
ey@@ 0.03665687436267357
government 0.005217551117389434
home 0.00570909358689447
international 0.009095590727414577
isher@@ 0.965209148375615
itive 0.05613888556160503
kn@@ 0.016921303723375167
linear 0.0763317263471833
media 0.014669478246237322
nam 0.15404648705763477
oo 0.04847708206084005
res 0.01774959300970571
see 0.008576322353733493
structure 0.017793062045930383
thi 0.1602874398024487
total 0.00904432998568432
tube 0.10253954001219004
К@@ 0.4073359708741127
ол@@ 0.49639327630745916
، 1
ض@@ 1
ऒ@@ 1
ੰ@@ 1
ం@@ 1
త@@ 1
1250 0.26712212393182383
1688 0.23557352776001972
1749 0.2539991236610943
1753 0.19549086781279246
36.@@ 0.2531808275152789
37,@@ 0.31359668340280356
501 0.24635526288634035
6.3 0.43708191802415225
6.4 0.4905576083691796
960 0.4905576083691796
Bl@@ 0.011173130240665173
C1 0.2518824642972518
CV@@ 0.21878432310897153
Commission 0.021234079670560003
Ed@@ 0.024823845113634016
Energy 0.05574360112125307
Engineering 0.042088329509823566
Ford 0.03230855486792574
From 0.009102287389184666
G. 0.028299362211286483
Jump 0.2956633892428238
MR 0.18491136202527664
March 0.004234048578765063
Moh@@ 0.055350985251966876
Pa@@ 0.03181673233228444
RIAA 0.4574349759065342
Ran@@ 0.04821308519063961
T.@@ 0.13840670810275196
White 0.013847011463640022
around 0.00560529299587328
aus@@ 0.0035291914271163996
because 0.0064424292416007485
can@@ 0.03248752743313046
country 0.007858890063875535
det@@ 0.03432060828925783
early 0.00443060024923284
edi@@ 0.04598439371605768
esis 0.09438785594612367
fier 0.20790298640408086
frame 0.052757336775471654
general 0.008760738524563294
hem@@ 0.07582721812113331
hor@@ 0.03624208119384918
lam@@ 0.05083926048695987
lex@@ 0.06781785369411682
main 0.006993995306391956
material 0.01698084028970237
mo 0.048878796405487354
music 0.005363517346251251
oli@@ 0.02327272235866577
ord@@ 0.023554528492010122
own 0.005859566117951548
phy@@ 0.10447664033600448
shi@@ 0.062036097932382836
tra@@ 0.017751824906424796
ture 0.04739315454151645
utt@@ 0.05826462697267391
var@@ 0.06672383160192102
xx 0.3416840385249677
ْ@@ 1
1534 0.3505233223048286
1703 0.285075056221344
1754 0.20287641868693335
1796 0.10641231437463392
2025 0.3192369431239018
311 0.43895079679536486
49.@@ 0.296679493993795
680 0.4682141832483892
AK@@ 0.131745123185512
Archiv@@ 0.10539609854840958
BB@@ 0.10251504808384318
BCE 0.13125270172610298
Bor@@ 0.013398893516248261
British 0.004708452092052818
Cam@@ 0.026092725018908476
Gov@@ 0.2168875357551494
Hel@@ 0.017906392600589707
IL@@ 0.12154710546882352
Internet@@ 0.13125270172610298
Ko@@ 0.014683977084312365
Lin@@ 0.022066649596110887
Publ@@ 0.5526133064090432
TO@@ 0.11981287257441721
Thomas 0.007610163938293886
ential 0.08222152004681164
final 0.006057532009470598
gam@@ 0.08187297608730841
ik 0.010912387738853073
including 0.003052316053321331
ks 0.012763992372861948
nu 0.25463197177318464
ont@@ 0.038416380027839
open 0.012310430912738897
plane 0.05097343641856969
por@@ 0.02612448946164758
row 0.02228562286851215
software 0.03529252637550672
stan@@ 0.05222778544888062
states 0.014849371513470998
ster@@ 0.014628922597232384
wari 0.29531857888373175
മ@@ 1
★ 1
1665 0.28758845307282527
1758 0.1764838484686794
242 0.38114132334952744
257 0.43584013554090634
258 0.45408703116761884
31.@@ 0.46808478182013485
312 0.4194660310012479
39,@@ 0.30763108432425396
America 0.009468168754829386
Bad@@ 0.03849287751532442
Chand@@ 0.1283790186189142
EE 0.39216607237203444
Education 0.015370344078716064
FE@@ 0.15850386557667198
Fi@@ 0.033428738821427384
Fre@@ 0.020635831596875917
GC 0.15817364919005392
Hem@@ 0.044131220420382394
June 0.004234478444334341
K.@@ 0.12281357426597521
Media 0.026671591235588377
Mel@@ 0.01829302033809413
PD 0.10064070998306716
Paul 0.006797685702500302
Psych@@ 0.05020057630998801
Rec@@ 0.034498069616151344
SO 0.12085856671637357
Tir@@ 0.09440854465459571
W. 0.020935132523913824
act 0.020583243401622802
ats 0.014952605879003046
bre@@ 0.021641682803496345
ff@@ 0.014148966010291813
house 0.006723878955261068
ine@@ 0.03939567850312675
iy@@ 0.06331166745432444
mal 0.01780148924061568
ments 0.02576118064984591
mic 0.09070890276132124
must 0.014902711029565792
ni@@ 0.028965112014049242
nuclear 0.04575901133752765
object 0.05761371347034897
odi@@ 0.03736385413938281
physical 0.03002109593168283
research 0.010316513793410587
ry@@ 0.037754028648048665
sem@@ 0.03915189336387473
should 0.013081662292157873
son@@ 0.02906490759177164
sum 0.050307018030231826
syn@@ 0.041629209129962645
tran@@ 0.027588427184311724
uses 0.01649145306295362
wal 0.17566717170575166
won 0.003836838064040119
yan 0.047440234698341584
yu 0.11451485914212048
ар@@ 0.42086115083828085
ор@@ 0.43138267960923793
धपुर 1
ਨ@@ 1
ட@@ 1
ల 1
1603 0.2620919289756413
1627 0.3126209680908111
282 0.4703112420332127
306 0.4001682563651691
3rd 0.02519127422710825
470 0.34758323852035194
580 0.41905260104757036
Airport 0.02461436212594625
Force 0.014543628721429483
Games 0.015693533134118982
Gy@@ 0.05293922142403657
Hal@@ 0.019223587182739945
Intel 0.17584008247634966
Kur@@ 0.01292968677179191
MH 0.44452540516369204
Public 0.018718972843421885
Ret@@ 0.04769268733150098
Sud@@ 0.06216983079385524
Suk@@ 0.19516316846276172
VA 0.059040179663184686
ace 0.037217524691381856
ach 0.010297554114869335
against 0.003190801342621702
ail 0.03974814184507488
ame 0.02785338423691842
arith@@ 0.17617232637332905
atomic 0.19986967574080258
ators 0.02248217583533291
black 0.013978367187599327
cross 0.02539194001445654
ear 0.06177850172806652
emia 0.13478742859860413
forces 0.013413782726670178
gen 0.006408963533970368
ger@@ 0.008051049454544892
ination 0.06061381682631848
industry 0.016974186006387112
inn@@ 0.021896131916417403
modern 0.012362253138398277
natural 0.019607634453095928
net@@ 0.05374791971931656
ocar@@ 0.15260098810652112
ocy@@ 0.11034225293856142
onlyinclude 0.02447383784581256
search 0.042347770515764466
tur@@ 0.021840994081303446
variable 0.08740492499000178
without 0.009512263184358744
ys@@ 0.02758148313358509
ñ@@ 0.05510591237179929
ʲ@@ 1
А@@ 0.44826540256290576
з@@ 0.2941299802305502
रारं@@ 1
ਹ@@ 1
క@@ 1
ಮ@@ 1
1517 0.4101868665269271
1533 0.42841739392812384
1648 0.17351817707652575
1704 0.2563309109926843
1713 0.2355606892659459
188@@ 0.7126398284212955
249 0.4274175867077548
308 0.38802634725481555
313 0.44999615701295564
345 0.43451586216909355
390 0.34233352505471576
401 0.2999974380086371
7th 0.03412173933940809
All@@ 0.021858030302455297
Business 0.028556706307674894
D. 0.026130465958663564
Facebook 0.09039903055492247
Green 0.018003385029418357
HBO 0.18726833937042223
Khar@@ 0.16359842421105222
L. 0.027642960667764387
Mac 0.07838580607929507
Management 0.027853157311880913
My 0.022068735498767676
NAS@@ 0.28090250905563335
Pap@@ 0.02782565115531342
Poly@@ 0.035473258939429195
Series 0.01767330270233262
Sim@@ 0.02784045540841726
Tel@@ 0.03392580085288005
The@@ 0.034494478934791024
Thir@@ 0.1067920909062816
Visual 0.15633669304675452
cer@@ 0.03902587596511249
conver@@ 0.09057786147590155
did 0.005164202337636344
disease 0.03235552264009769
eda 0.044856339922672774
education 0.009927013518213118
endra 0.15429522822600922
ese 0.016627939162401646
even 0.008236572940469191
fo@@ 0.030575698815404496
hand@@ 0.024918154544799037
iri 0.07432972236374713
iss@@ 0.01798305620347321
ities 0.027615867898714255
ition 0.039205487724343985
lab@@ 0.0597060915743351
mann 0.005897930502826553
ou 0.02042243932920082
physics 0.07923358680695346
pol@@ 0.02680744085249897
potential 0.027305022125124555
published 0.00575712175730524
rat@@ 0.021756763590433943
resist@@ 0.2787647426244641
term 0.010526982176357797
una 0.041050865382555854
val@@ 0.03060891383041246
vector 0.1225893145276258
θ@@ 0.5410588948427562
چ@@ 1
हांग@@ 1
୍ 1
న@@ 1
བ@@ 1
1531 0.41101363278257613
1542 0.3188270644368388
1555 0.2935811662732687
1630 0.2211789229303531
1708 0.24836804467179155
1725 0.2329254719460843
254 0.3488234031859885
281 0.45010879685200766
Au@@ 0.015567350388916722
August 0.00203955588458498
Bay 0.013238981361485519
Bre@@ 0.013488239458603838
Cur@@ 0.028076893487762832
F. 0.026602332175808426
GS 0.10555824146896219
If 0.018015174507075796
Ke@@ 0.018142406733832123
Kon@@ 0.00871107977921168
Long 0.02714855655505051
NASA 0.08556672107655344
NG@@ 0.22090720435181455
Pi@@ 0.016659112872186126
RM 0.1899825296802716
Raw@@ 0.1469105100836414
Royal 0.00795586515982555
SF@@ 0.10678056077338306
Sab@@ 0.03144229136953612
TD 0.23202382495790588
Tam@@ 0.03332748852606377
Val@@ 0.017088136875641646
Western 0.010822006761096356
alli 0.15913138437378502
ania 0.03595650156816178
ask@@ 0.03258466328574378
atory 0.038779052047094476
bank 0.016987243336864303
bul@@ 0.03781671174392788
c.@@ 0.23444389092878365
cm 0.014534308466082854
dig@@ 0.03228918375693609
ete 0.01187822203932867
gy@@ 0.10777252882372015
mag@@ 0.036452151701272466
mean 0.05648451840501871
nature 0.02510554475984322
pet@@ 0.04322559238999449
ref@@ 0.056018213190771673
sus 0.06636592151407163
ten 0.002066071470257337
ver 0.018278878205070098
â@@ 0.04781134388257832
ε 0.6747409543804017
В@@ 0.38259247732420654
ни@@ 0.345472553971906
ক 1
ம 1
ல@@ 1
ས@@ 1
ṭ@@ 0.3263493000769094
中@@ 0.5717598230282259
2,4@@ 0.43310059578032195
2024 0.2585911982131593
246 0.42578647232926703
253 0.38159674114698633
295 0.37116402267188475
April 0.0021160548025643843
BF 0.41821917720493174
BR 0.13375406804128928
Bil@@ 0.04610462193847471
Brah@@ 0.09646815675347428
DF 0.08793646874961694
ED 0.19415675773430274
HM 0.2278741030090138
I. 0.010749695016474674
Inf@@ 0.0875438952284133
Jean 0.013437016466594176
MG 0.12830860980042255
MW 0.08430307751635117
Middle 0.02498775205726762
Mul@@ 0.02793865644775704
Pri@@ 0.0222670316402323
Project 0.03390097825210934
Records 0.01201582875684104
Reg@@ 0.013883067278700586
Region 0.007749560585776815
Tur@@ 0.017548820998357483
VT 0.25467314975538413
Web@@ 0.057422642843820135
avi@@ 0.048699915226402095
del@@ 0.018740482376477963
duc@@ 0.08630244145744802
equ@@ 0.04192125719251335
ess@@ 0.014348657949632616
hydro@@ 0.03997927121542218
indic@@ 0.09884541740715833
ission 0.08778338362620304
mil@@ 0.03761076031549945
mol 0.26263168568523987
ory 0.0246062729564979
pri@@ 0.025900864804884238
property 0.018308884566676818
py@@ 0.08546658246028145
rep@@ 0.027602204063259493
rho@@ 0.19863645782834125
rpm 0.2971186747146148
rut@@ 0.4197110410950802
sp 0.4978518837249117
species 0.005507692322446673
team 0.002554139608105489
terms 0.018833474845852224
the@@ 0.031069182779769597
top 0.007181773496123266
women 0.006535037593930395
æ 0.5863405075763495
ð 0.37391629826373135
р 0.6128072665988931
ָ@@ 1
ذ@@ 1
कारात 1
दमी 1
મ@@ 1
ய@@ 1
గ@@ 1
ನ@@ 1
1564 0.3484074873613387
1640 0.2007635028621279
1659 0.30566376208046836
1751 0.19401514982474546
1777 0.12488894426151124
197@@ 0.2718344132159895
406 0.4088749025232239
5.7 0.333960503796693
6th 0.03130691036315048
7.7 0.420287672860644
Academy 0.010362878674920573
Amb@@ 0.12850354079301324
Baz@@ 0.11193181720658392
CoV 0.4280803985626337
Court 0.01039304490838397
Cre@@ 0.021356502370323795
Dec@@ 0.02198280071329
EX@@ 0.3072910758093795
Edward 0.015916768197314583
France 0.007604678138716966
Hi@@ 0.038655769889180784
ISA 0.23368221486988572
Im@@ 0.020357220928589857
Jam@@ 0.048517377758079384
Lake 0.010836969754268882
Other 0.01187440570674338
Pul@@ 0.037836451702957574
Ri@@ 0.014269346618754456
Standard 0.03584320455776968
UC@@ 0.09940213617599616
Vista 0.17238279862477385
ade@@ 0.06473215746489171
among 0.007554414903849457
anc@@ 0.03020645812796953
bal@@ 0.034907473282649995
diff@@ 0.1377553868087393
inary 0.08988244028994827
index 0.09472566806268344
kal@@ 0.02690050042233732
med@@ 0.041047415246790404
nic@@ 0.09906093891223418
optera 0.2998415951836976
said 0.005522869301776077
sal@@ 0.020531007969953205
sar@@ 0.07125865070723676
stage 0.011377038187817694
support 0.007465016434669138
technology 0.023341446548302936
tia 0.0791220110662944
ulus 0.08251537823139639
¤ 1
§ 0.038207970260058545
à 0.03220056182586431
ð@@ 0.07923062055300174
ں 1
मुंगे@@ 1
ప@@ 1
ག@@ 1
″ 0.19903278300986818
1450 0.2433073777316468
1528 0.34944146019894945
1543 0.36133733969508397
1598 0.26127469177952223
1612 0.2786358484933379
1743 0.21402463724850593
1762 0.15976345216998067
1771 0.15886674429999012
2200 0.4152287277669669
43,@@ 0.34170734337362063
9th 0.034829481061667236
Bha@@ 0.2811730954580951
FD@@ 0.26999769420777336
Hor@@ 0.01558346023643691
July 0.003841623020000892
Kor@@ 0.013015177963496912
Maj@@ 0.03941709403659962
Na 0.12104672106677794
PL 0.19265859291740153
UN 0.04165527340119928
Value 0.3601878041499246
Wy@@ 0.0487732767537879
XIV 0.23473192765264608
XV 0.2345698199678031
anus 0.050148693239831524
ass 0.02933642246617541
average 0.010114862993251308
best 0.006789339955892279
bin@@ 0.03202499522094842
ble 0.0219388386069874
d.@@ 0.24157688429116564
dist@@ 0.04430695268893541
emb@@ 0.03468720376974866
ern@@ 0.011567914287629552
ex 0.02956882556919813
gn@@ 0.04570197784087445
hol@@ 0.028660627737184953
hu 0.08671358164753099
hyp@@ 0.10129946296253471
inae 0.07070297654316797
lat@@ 0.03014351254112344
leg@@ 0.025823545906894164
lines 0.015592044588385002
make 0.007530698607928051
metal 0.027529348299025685
ox 0.0656976981263789
phone 0.04272416343564514
present 0.008948706378790677
rom@@ 0.03937140365287804
specific 0.020117098987999224
str@@ 0.014476903048051269
tion@@ 0.025018937780891197
uli@@ 0.04094720907937057
ute 0.02286329424565017
vo@@ 0.034665962371236876
yl 0.03133946293720049
zero 0.07707218046593577
zi@@ 0.015594192154326197
Δ@@ 0.4880130737261191
й@@ 0.6384531941980807
पिथो@@ 1
ম 1
ਮ@@ 1
√ 1
▪ 1
大@@ 0.4817831195934452
1492 0.3283995623171471
1661 0.23237763865288708
1702 0.2310875476679994
4th 0.02551897894011703
512 0.3572930860403296
620 0.41417556739998407
Ari@@ 0.037061453109581206
Bank 0.013228871610900491
Bra@@ 0.016992251680848457
C2 0.2186455391921124
Dan@@ 0.021730433058573948
Du@@ 0.012439191490085438
Dur@@ 0.02814377587809222
Internet 0.027119240670216403
Min@@ 0.013245183413133414
Nam@@ 0.04089367016942001
Phot@@ 0.05363136675625498
Pol@@ 0.015108078407948242
RO 0.3326644916978893
Sat@@ 0.03634943305202348
Sciences 0.02702021715267666
Son@@ 0.026804890621394763
Studies 0.03190544756056215
Super 0.017393426805410662
V. 0.018345939958657218
asis 0.07998970842891837
features 0.011756298541556475
get 0.011348435953705728
important 0.0092826681958461
isa 0.06629447664534882
iya 0.08171709354345698
jan 0.042263885796368465
map@@ 0.22699192650960273
ope 0.0397846064742637
plac@@ 0.10762674731402301
ral 0.05702982637259585
short 0.008861728083391095
tab@@ 0.05186871591738118
tar@@ 0.037185612081472606
times 0.008604355344554074
udi 0.17334573461196626
von 0.00016792290013372787
wan@@ 0.06826509966986206
yan@@ 0.13240443586067085
ze 0.00989266974212255
zy@@ 0.028296835162269475
έ@@ 0.4736801652767954
ز 1
ف 1
ধ@@ 1
ভ@@ 1
ವ@@ 1
1541 0.3131835058213008
1631 0.26770895247399135
1715 0.14686643252286025
1719 0.2097282860320022
1722 0.2091905211960227
1727 0.19742118152800692
272 0.40288544822937705
8th 0.03334054077092311
Ali 0.029095685901015998
Android 0.1318534194205234
Ay@@ 0.02744866793387126
BW 0.22336564891567107
Bab@@ 0.0293521508423993
Canada 0.008397334492969878
Del@@ 0.01734268018631001
Detail 0.33782320193146526
Fin@@ 0.021313905888955355
GN@@ 0.30188456342811787
German 0.005875715035394228
HI 0.3880347361067722
IEEE 0.2127361232501926
Ku@@ 0.021486516530536966
Land 0.007943750470188055
Ly@@ 0.018946656587656492
MB@@ 0.1697904334369383
OP 0.3364301165626757
October 0.003676210578639128
Of 0.02334815862243653
Old 0.01667623348488913
PA@@ 0.3662594983903428
Sad@@ 0.05490195374592789
Sem@@ 0.031825357232864775
Vo@@ 0.03948901416575453
andi 0.13006664530322654
anga 0.05624564168662451
asi 0.05523649510253816
beam 0.09431711360283104
bus 0.01472242231642134
computer 0.02503161870566813
dium 0.0689639080866009
double 0.02238559562805566
dy 0.02030091527625477
ef@@ 0.023095344166015244
endish 0.40690425569301175
equal 0.04274226759211466
fact 0.018021714881035752
learning 0.03581793579912144
lec@@ 0.04808977498759143
let@@ 0.034046657596848766
lig@@ 0.027299415514956956
mot@@ 0.04508042727804882
ori@@ 0.02913985293917273
principle 0.07568117186126981
radiation 0.10489785055152535
sil@@ 0.02961049025186421
square 0.02086288281970307
sts 0.021696510409267695
study 0.011432377406403764
sv@@ 0.14256758980593945
sy 0.0486489584176797
tin@@ 0.05326215326681825
tit@@ 0.04795550522642108
uru 0.11684110743494286
white 0.010804794658338423
za 0.01734360188487433
І 1
ь@@ 0.25102862543522725
נ@@ 0.6386246831033178
दूस@@ 1
ಿ 1
ು@@ 1
വ@@ 1
ร@@ 1
ས 1
း@@ 1
1638 0.25615165860737477
1666 0.2480040883956584
1672 0.22640033282011593
189@@ 0.24533942436070888
20th 0.02021354852620953
34,@@ 0.2412658641071726
Bak@@ 0.04206279867657943
Board 0.015438871338839163
CF 0.09328195796381783
CH 0.1261551972936084
Dhar@@ 0.15594013167902618
Dig@@ 0.07712358744077291
Egypt 0.03862702633421987
Electro@@ 0.2906156999472761
Henry 0.009485128028424878
OT 0.3579812653325909
PE 0.20387580991199214
Pa 0.1968456095701993
Pale@@ 0.18871149347225719
Ra@@ 0.02506289846664082
Sang@@ 0.07936377108788573
Station 0.012526538790830865
Tu@@ 0.020865300564062637
aff@@ 0.022033032596457624
atics 0.1246305145972724
ayan 0.06697617220657945
bur@@ 0.018720852069688668
course 0.015778739878677377
ders 0.013506729336741748
don 0.01626856335582716
ency 0.06622690489786692
form@@ 0.01476092117754092
forms 0.017209155358634997
gle 0.11015757062095233
ie@@ 0.008738888219075577
ls 0.01842626491106137
matter 0.03563451899922011
orph@@ 0.07212934791110191
ow 0.007090074297862041
ration 0.03466463564758227
ron@@ 0.016648990674548392
sel@@ 0.013678958919212824
third 0.005394850647056901
uch@@ 0.023555911129762262
uli 0.07940319670690603
values 0.04286367255859529
yi 0.051544222821993495
ysis 0.1608843834635147
án 0.023438468358530952
ω 0.6577721603744932
ּ@@ 1
ੀ 1
ி 1
జ@@ 1
ိ@@ 1
ြ@@ 1
.C. 0.07510012639592417
1350 0.24842644985572376
1572 0.23376947484556532
1576 0.34549373820994694
1632 0.21468952456667484
1718 0.19333991773824086
184@@ 0.29982502568794245
315 0.33229015585797445
5th 0.025322977657002827
AA@@ 0.2939129829278985
Ann@@ 0.024431574056994376
Cop@@ 0.04887077702079812
January 0.003450063120736839
Jav@@ 0.08763083057620714
Krish@@ 0.23731412192434567
LD 0.17389851489900665
Location 0.09566544218160511
Louis 0.01099966007724679
Mach@@ 0.03968775539726283
Non 0.05983890782225425
Pad@@ 0.052838846525694115
Pakistani 0.10347680225395436
Sudan 0.08226473766575873
Sy@@ 0.02381084183920675
Test 0.034190860384294045
WT@@ 0.11060682926438585
When 0.006096117140596567
ade 0.012522195736216823
aire 0.03206816174758856
ast 0.018693181655312745
ban@@ 0.02440680910863251
below 0.015709778008442254
born 0.00229185759652515
business 0.00910119288280208
by@@ 0.035851257223480926
ce@@ 0.040514797672561734
che 0.011692840000680311
come 0.015034453737666278
direct 0.021468952456667488
emp@@ 0.0187368207122119
eral 0.06589838459330778
eta 0.029496544178120233
etics 0.09880597437443558
food 0.01640466049044662
half 0.007895704944461
having 0.007023049737900201
icity 0.1080114999372712
kin@@ 0.04185842829877132
land@@ 0.013551706936453889
late 0.006019448218653717
m3 0.28301747451917897
ner@@ 0.02017644236291169
ook@@ 0.11068505191591653
organic 0.07294740778797762
others 0.0095101575869907
output 0.05843145917831098
particle 0.14695649146394926
post@@ 0.0208123222618492
quantum 0.10891347488455529
sha@@ 0.06832947540236017
sl@@ 0.014272825079486205
take 0.007696705766510412
thal@@ 0.08017861854974691
thus 0.014827214571465679
ton@@ 0.03451889356177899
took 0.004159256515163995
ule 0.041936940892043396
ɔ@@ 1
ɡ@@ 1
ʁ@@ 1
Δ 1
י 1
ع 1
ོ 1
1535 0.2839271396611865
1628 0.23279436450943783
1642 0.21913975943806882
1652 0.238410415326397
1667 0.24449910909371125
1734 0.19040235158136742
1744 0.17749558730847056
261 0.3726975470735039
2A 0.29917713251408223
33,@@ 0.21589667631742082
395 0.3591528531001409
44,@@ 0.2747599853761616
After 0.002658890676049472
Aqu@@ 0.03747949396799855
Asia 0.020475697346238483
B1 0.305745891910599
CG 0.18726001448314195
CM 0.13561637171067736
Deb@@ 0.03800017163165718
E9E9E9 0.31648490051076467
Fl@@ 0.009765935087485501
Gon@@ 0.06337554482714526
Ka@@ 0.02237655274957419
Kol@@ 0.020306050486804547
Library 0.024029914792879456
MD 0.08064158560000531
Mang@@ 0.04251420811746047
Mil@@ 0.016810655382705233
Mobile 0.07223706288479609
Mos@@ 0.02078549316062285
Mus@@ 0.02330777417029977
PP 0.08552690778738699
People 0.017144629452930785
Pos@@ 0.02472618108913803
Rat@@ 0.024660499371683183
SARS 0.315182493512778
Services 0.02981870582970802
Sha@@ 0.033724943163190246
Shar@@ 0.046530586830865764
Super@@ 0.017091067430651058
aries 0.027562517651319854
article 0.02417020778654203
asia 0.07240779572073272
back@@ 0.03151500706660017
blog@@ 0.285781141505989
blood 0.029844849848457883
bor@@ 0.015467907891266293
bridge 0.014126314552239599
cin@@ 0.046396696000972314
eli 0.07194865751395496
engineering 0.0329664676309502
hra 0.12398113463958728
iPhone 0.2602866471490401
ig 0.008135901837589169
ila 0.030489389300798187
ira 0.03838583933021177
ire 0.021220293945724195
isation 0.035831272946715814
kW 0.049064283102886
management 0.014642834513642108
million 0.005624435618322719
motor 0.03424518038167004
mus@@ 0.039740223595073315
nucleus 0.18589647068836176
onal 0.03498029044238641
pi 0.2211966669273792
quot 0.0947301743025418
stic 0.05126462243882533
story 0.008258279205715292
symbol 0.057705289827541945
tt@@ 0.020591301498482335
unn@@ 0.04960449865518461
नवं@@ 1
ॿ@@ 1
ਤ@@ 1
ர 1
ಂ@@ 1
ུ@@ 1
1558 0.2915344752632572
1560 0.21907707644051785
1606 0.2719577500640911
1716 0.1999315814347088
1745 0.1530630442138041
178@@ 0.4197443145246897
ACS 0.3405652733757142
Church 0.0065900881889884655
Economic 0.04906637861339693
FP 0.24345852199076234
God 0.019196607774188343
Index 0.06533626347735523
KO@@ 0.12774826963794905
Lord 0.014443250147982095
NWA 0.23160544093557064
PO 0.13926460993058942
Py@@ 0.0377785756423331
Richard 0.00817728350806626
Screen 0.1454841944517614
Sin@@ 0.02964952914232573
Sing@@ 0.041303395889006125
Sul@@ 0.03295189011221863
Tamil 0.04136610635895492
Ther@@ 0.045443129730193856
Um@@ 0.007471329508404468
York 0.0028439418924723473
ava 0.04260091550399836
cc@@ 0.11010192526474226
dem@@ 0.016260508956140656
design 0.008712388167406855
engine 0.017164801865442638
fil@@ 0.03580186842320254
fin@@ 0.01450125516865672
ft@@ 0.03133599336790343
full 0.007992784312210061
gang@@ 0.06637817066902069
gro@@ 0.027528009605091254
input 0.0904883576602139
lar@@ 0.034771718362992046
magnitude 0.11566863781189829
national 0.005087205332880032
path@@ 0.047920921101795404
pole 0.046667306224015645
population 0.004020032468654055
ras@@ 0.04247412706499836
stone 0.014006516828089378
sul@@ 0.0409646583612122
tics 0.06578082541058569
ud 0.04091991269396893
van 0.01174501079949165
wi@@ 0.019530624996456726
within 0.004815731855617252
wood 0.011300382360040287
zu 0.0003331878136607375
ç@@ 0.038080996260562695
ʊ@@ 1
ч@@ 0.2979099806865094
ש@@ 0.5158303624279319
ং@@ 1
వ@@ 1
1596 0.2746368298470822
1597 0.2666401250653655
1611 0.2458368267171449
1624 0.23146721757254085
1644 0.20665549890468032
1671 0.25727611716140186
1709 0.1970662390362049
1717 0.17037063805048644
Also 0.021203871016413654
Award 0.0064338799773160475
BL@@ 0.1460805072018129
Bang@@ 0.12093994942089835
CIS 0.30024333754798843
El 0.014487442401089469
Euler 0.24770709843350525
Hume 0.24896983640342962
JP 0.32451550104854565
Jan@@ 0.019834675608964174
Journal 0.023355184302768527
Kad@@ 0.051491389465267386
Les 0.03289599207979757
Ny@@ 0.034438535368061664
ODI 0.22199810412639143
Pres@@ 0.03346705087332534
Sag@@ 0.057969831344577
Sav@@ 0.027556657649693127
Security 0.0327819104426487
Sil@@ 0.02431644655603989
Sri 0.02968370111900696
Ul@@ 0.023843571802020888
Us 0.08481548406565462
WH@@ 0.12818788164778508
Water 0.03476951796948703
ano 0.009579206219046017
bri@@ 0.02729484886799895
condition 0.03305182691708061
defined 0.025911884114142428
ds@@ 0.06993735022597534
dur@@ 0.05152760637363051
elements 0.020189988800250566
event 0.0075796667816879215
exp@@ 0.03560601427057554
ged 0.02818210208182696
hav@@ 0.15480057973948055
hom@@ 0.021741912557266412
ions 0.024766522772721154
kon@@ 0.01020752046282697
length 0.014198929036090546
lex 0.049085007947543835
lo 0.02895055299810677
map 0.04454134328117293
mathematical 0.1151424351461048
medium 0.039296968948214654
mel@@ 0.014569556875992479
ool 0.056856324688947746
oral 0.0451800026899224
products 0.02061611773229469
sh 0.13164308061403268
size 0.011968041553883467
templ@@ 0.2500319944085638
trade 0.01596325638431316
uti@@ 0.0302287494787329
vis 0.07007113760086961
worth 0.0180519618953266
zone 0.02035972329930082
φ@@ 0.478819440272609
ύ@@ 0.49921209105082914
П@@ 0.32131304544609285
ה 0.7235493764119425
শ 1
ਜ@@ 1
ದ@@ 1
≤ 0.7651109593912185
1512 0.3393098984870201
1582 0.2919241124597808
1685 0.19194206053823387
1705 0.20339314937716263
1712 0.19207079431458415
1714 0.17677626810064503
1726 0.2032487965387118
1746 0.16975551530708058
ABA 0.22443382000238635
ARC 0.1775434310744234
Alt@@ 0.01332112542204135
Arch@@ 0.030106975853978653
BAS@@ 0.1591870785564452
CB 0.11006055123867983
CBE 0.3341628405169719
Class 0.03014183289370013
Control 0.05225867779617609
Cro@@ 0.02116768085764247
Department 0.009340124403086819
Dy@@ 0.0486540187432968
End 0.03814298805581313
HD@@ 0.20012407709506985
IJ@@ 0.22460984652787838
IR 0.15088385370023444
Jal@@ 0.09202363570791933
Mania 0.23944611565471985
María 0.06859342618516047
May 0.0029699513022872176
Organ@@ 0.043469574123109436
Pen@@ 0.021021621839759596
Period 0.2076704527360732
RB 0.1386816243695133
RF 0.2318846593708866
Spec@@ 0.039251309528926116
Sum@@ 0.0345824845215608
They 0.003347917959329019
Tro@@ 0.014203826719722494
UR 0.1329515108277832
We@@ 0.014492057806945244
aa 0.06598561159517165
ae@@ 0.04981345526579318
ais@@ 0.03828576929452473
alam 0.21228877266348775
bit@@ 0.04465578579807344
block 0.023194100131452577
chemistry 0.07636734781947865
compound 0.08001608111848141
countries 0.010808739547954142
critical 0.024318746121182486
does 0.01038578205276873
ela 0.023748035021398536
element 0.041128472543881224
hot@@ 0.11121458420312426
i.e. 0.0321881032171569
igh@@ 0.04094032227634667
independent 0.0138066509653382
integ@@ 0.04814686521907279
medicine 0.044627949871130584
memory 0.03208712093255406
min 0.025026440122611637
mph 0.09995726154382023
mul@@ 0.04399716612736902
ng@@ 0.14390831875529897
ones 0.01672473014793231
operating 0.022976376309615288
oth 0.03431726235147333
otic 0.05763283443812536
phon@@ 0.06296779998307936
post 0.009501893039684295
ros 0.02750985151998511
sea 0.014120484903261423
som@@ 0.04267921822996199
spectrum 0.11514980069282064
under@@ 0.013475322526023195
until 0.002645984554545786
written 0.006635407547048007
ƒ 1
ɾ@@ 1
ʃ@@ 1
χ@@ 0.44957229878029037
ω@@ 0.3553071393586166
ְ@@ 1
ث@@ 1
ظ@@ 1
ನ 1
പ@@ 1
င 1
↑ 1
.A. 0.09605687197776554
1565 0.2621533375813057
1568 0.2552167985394646
1575 0.2689592415377435
1616 0.24558174819951994
1622 0.19894566941625405
1653 0.22449246484691268
1731 0.19810029121760145
425 0.3057023073215882
ACP 0.23805754144617297
AW@@ 0.09702310482110761
Ah@@ 0.02673142308861365
And 0.025871033222276473
Arm@@ 0.027305506755100864
Bud@@ 0.042157891665298146
DJ 0.03909947039408068
DT@@ 0.11487376229948798
Division 0.0049506665581007985
Dr@@ 0.025465915076406886
Grand 0.008332120318109476
IF 0.06977241486636399
Ind@@ 0.076972375123625
Industrial 0.055854155590905195
Kot@@ 0.04935902791587316
Kun@@ 0.028265724656351375
MM 0.234859455247064
MO 0.16610309453637365
Malaysia 0.035456662593389934
News 0.01873401722585582
Oc@@ 0.03431275897929995
Od@@ 0.053147940566075094
Paris 0.005466117116433533
Post 0.015423335421220404
Ray@@ 0.05382289998061443
SA@@ 0.10298881119265582
SU 0.0732628630694744
Soci@@ 0.05603317532036322
Star@@ 0.01669357908804328
Sun@@ 0.04351549645290187
Tab@@ 0.03182587452488943
XII 0.14177273755664127
aga 0.037566157829606935
aram 0.1640572499702365
av 0.13638108785921657
band 0.0037714564590620252
became 0.002075734002191021
board 0.009952238354773118
cla@@ 0.049081875978110756
cognitive 0.13390024471003026
die 8.27997308657942e-05
dynasty 0.043007012792013105
electrical 0.06341365023787196
equations 0.1400689089630712
face 0.015191311095381155
fe@@ 0.019542905833805156
gal@@ 0.05973043160351339
gan@@ 0.028203025932572415
gi 0.06345680834828793
good 0.010369512926756376
green 0.021649969907062944
hara 0.11193181720658392
health 0.012273160949464842
here 0.017075734765841722
ili 0.050164564418804375
immun@@ 0.1132918635881949
itation 0.038619026811991336
jo 0.025806588356790592
kt@@ 0.017970935509107177
kum@@ 0.10515699669144858
lead 0.007983492056947034
local 0.004263208120454387
making 0.007320534184748841
mis@@ 0.018338530859454086
mor@@ 0.018390375489760236
mus 0.0403400073837977
oper@@ 0.030822877267135344
original 0.005614677356013835
phi@@ 0.06243696678554759
production 0.006532710803850092
rak@@ 0.038349000712812345
ran 0.009573796460938947
rays 0.10547421236774253
ree 0.0438566339290143
san@@ 0.022556052834388614
school 0.002880271957980263
script 0.03873668622064163
tract 0.1160653988378644
ules 0.13046530373099496
units 0.012415340044352118
ville 0.009407332050825761
vis@@ 0.03590726716293366
ying 0.020193301414904215
Ú@@ 0.12306098160987823
ː 1
μ 0.6906607683932178
ת 1
། 1
0.0 0.23278573578470713
1615 0.24891309760753097
1669 0.2542436388039679
1687 0.21183682550462488
1723 0.1667018730619423
1736 0.16793214518786068
185@@ 0.22735859123685384
1A 0.17616623746803967
2D 0.22381776071759135
49,@@ 0.21332630318395426
Art 0.00430914621294146
Arthur 0.016864780932336575
Big 0.013205226234426033
Blue 0.01674481315235552
CAD 0.27498254589673865
CNN 0.1555884148578128
Conc@@ 0.06125115928117126
FT 0.20686186975413748
Ger@@ 0.007390723436243746
Gop@@ 0.17325994167224715
Gur@@ 0.033021848842116515
HM@@ 0.13639244159613462
IM 0.12922748134191267
Khan@@ 0.16469099401415047
Kin@@ 0.019619030613267818
Lam@@ 0.02242036850935721
MDR 0.33097899160662
Magnet@@ 0.07442291307589574
Many 0.013889702837146422
Men@@ 0.01639887502705312
Nations 0.021446565195999176
Os@@ 0.020863208135350052
Pun@@ 0.054383124492224946
September 0.0015769915742644368
Sn@@ 0.04085854677172849
Source 0.06792479305359739
Two 0.011074694519608269
Wik@@ 0.06765551736260195
Wrestle@@ 0.32938198802830093
aja 0.03976374953771101
alb@@ 0.017770250427922782
ature 0.07735344704687294
aut@@ 0.01700975942661568
boo@@ 0.05500758825049586
calcul@@ 0.10729181456796129
cel@@ 0.04627311778943594
circle 0.0673883682318513
cus 0.04543388819891206
difference 0.04149812584733457
dir 0.11382145397059669
elle 0.007331588123602768
ely 0.01822206660496907
ement 0.017074641575504094
ett@@ 0.016905501985850762
films 0.01081073988738069
former 0.003520780701370126
fraction 0.19588068011152185
groups 0.009673291344603282
ho 0.04414836993944405
hur@@ 0.06435485931545168
iTunes 0.13652883403773075
image 0.026611214119039224
inal 0.07735344704687294
ip 0.23120886373874805
ised 0.023448490173934
jun@@ 0.058937549768068524
kh 0.11386891913071788
ky 0.019217233308147053
les@@ 0.02663717374650878
lob@@ 0.04648581342789607
machine 0.028901107967343506
mol@@ 0.04089526255435996
node 0.1299655726204005
oids 0.0988622983618615
ome 0.025108751087398757
oor 0.1556771197693623
play@@ 0.059881067560408216
possible 0.01212135073802377
price 0.034183483735035235
quar@@ 0.034403133183250785
rat 0.009540799024299843
ruled 0.03319446487666685
service 0.005037964355635821
six 0.005639240578993855
ta@@ 0.04147291434924992
ths 0.022688630500661524
tree 0.023690583730302053
trig@@ 0.16449257112979607
ulum 0.10931051564269875
ve@@ 0.04262529941858593
yst@@ 0.03035998088452985
ze@@ 0.01805339954217927
η 0.46676524457343843
ق 1
య@@ 1
ా 1
1485 0.30203823690665504
1529 0.24666456014043492
1562 0.26143054460419013
1588 0.22071062547777112
1623 0.20699123927868665
1675 0.18159354120768217
1698 0.19588068011152185
1701 0.16383623920766896
1721 0.17468703275519326
1733 0.16393706150871984
179@@ 0.3450747732534582
183@@ 0.28461295400819414
96.@@ 0.23471165193979715
Ach@@ 0.020877564651384774
Ask@@ 0.09627673471328865
Bin@@ 0.039448796823881194
Cin@@ 0.05081017069457748
Electronics 0.1687129353715451
FBI 0.07038249007970138
Free 0.02564228751098948
Ka 0.15292636334768642
Korea 0.01956074050603346
LE 0.17748016319231827
LED 0.17209155358634995
LV 0.2637601237145245
MM@@ 0.16957207189794382
Military 0.022399539641105668
NCAA 0.02588396083867759
Natural 0.042501232442831806
Nav@@ 0.06458126665495023
Neur@@ 0.04055377149515447
Note 0.04244029392252186
O. 0.05223484802973916
Point 0.021675974365473534
Rem@@ 0.016546442543581973
Rep@@ 0.023583368002095408
Ru@@ 0.011080514306283576
Shri 0.23450503957013183
TRA@@ 0.3030690841315924
U2 0.22906081251218377
Ud@@ 0.09589550934185376
VM 0.259141755789562
alization 0.04219159406900059
ancy 0.03794298888358777
ander 0.027183441321598955
ans@@ 0.023662970772043858
arch@@ 0.021609160038260036
ars 0.011707217093019985
bel@@ 0.009791874033362851
chain 0.034193007951696795
children 0.004751078542413543
cho@@ 0.07793965036619944
considered 0.007018223429887499
cos 0.18487003813439953
culture 0.01323781181433461
days 0.006288601221653126
emission 0.19969844449150653
enc@@ 0.03101976303582554
eng 0.019663251029795523
enta 0.11818887531129979
ep 0.04840074944616093
eric 0.11983703326660806
exchange 0.02784548185969162
gener@@ 0.0291686986698423
generation 0.022804119581550226
ges 0.01466867050006441
ides 0.04769024793262974
imal 0.13474846987944852
itor 0.03492824504414183
kur@@ 0.016656103848422518
mac@@ 0.05132904141650669
membrane 0.11709790107765702
multip@@ 0.08257834003461555
notation 0.15292636334768642
onia 0.024532436223562916
play 0.004642369387837545
problem 0.022085700957691076
processing 0.05087809873026542
record 0.00540744392472688
rem@@ 0.020833481266260244
resistance 0.03559563401278324
show 0.004450420570869372
sia 0.0525646655390035
star@@ 0.027136368030118135
station 0.003295492471908529
still 0.00487898985278053
vul@@ 0.062329837377554924
wall 0.018258925630683327
works 0.006091039988834592
yc@@ 0.04950710368921571
zz@@ 0.028358284538180723
φ 0.7858339969075803
ж@@ 0.43387251620793116
ц@@ 0.3334139235940798
ִ@@ 1
ד@@ 0.8048269636002107
ِ 1
गोलिक 1
विपरी@@ 1
প 1
ਾ 1
ന@@ 1
ി 1
ု@@ 1
≥ 0.7420549441550689
1510 0.25514516878966403
1515 0.2728338044410483
1553 0.25464488414497843
1561 0.2739850019281413
1625 0.1831719194836939
1643 0.19812187782446836
1664 0.20630483068139635
1668 0.21662867541941452
1683 0.1652275965826196
1706 0.19751922572462205
1742 0.128646746819157
40.@@ 0.31181006221834096
Basic 0.12368465801327523
Bhag@@ 0.16932058789301044
Bir@@ 0.024406857905269495
Bro@@ 0.013544234334248213
Cast@@ 0.020752459398200543
EN 0.11312621159750783
Electric 0.04806398627458882
FI 0.18619195829955412
Feature 0.1457563309920752
G.@@ 0.08813633587644316
Hindu@@ 0.21590838057180214
INS@@ 0.30811124771990267
Ja@@ 0.04662318826563956
Kas@@ 0.024817292358864703
Lim@@ 0.0268102582398718
NG 0.1663919166097873
OECD 0.31293708653961205
Path@@ 0.057173185522315206
Revolution 0.015984847180003568
SG 0.03756150134893391
Second 0.011815392886679616
Sen 0.25464488414497843
Sir@@ 0.07680005376341749
Tru@@ 0.02845194236256742
UF@@ 0.16910011837752473
Vel@@ 0.021905859983796745
XVI 0.21255137629122584
af 0.05016179641326342
aha 0.11142761983177948
apuram 0.26422968649834994
aris 0.05546397220326243
ater 0.02245312775137258
awa 0.020013698707649713
cat 0.06178348758988535
chlor@@ 0.0819103695452154
cis 0.1619312854288516
ech@@ 0.018073744473444994
ental 0.02369221762545635
equivalent 0.036962826501761484
eter 0.0168125951082839
etes 0.045448430766032895
every 0.007734204264892295
few 0.006440152285534155
fire 0.009291281768122982
flow 0.028052465906456204
gran@@ 0.042110535315803825
held 0.0032463164832880636
ibn 0.049853700926656044
idea 0.01802858206620934
izing 0.047414710081759404
jag@@ 0.15876392532266378
ju@@ 0.032046610959639475
ktop 0.17020824497239712
lip@@ 0.04982501090118511
mad@@ 0.06078581367373695
market 0.011330386574240011
means 0.0130975635029942
multiple 0.015735961579297103
omi 0.11166714609968958
results 0.013474672225974163
sar 0.08373236035714958
sec@@ 0.040138739271809304
ship 0.007162809051565771
span 0.06141825060957153
spec@@ 0.03801782520899854
stad 0.0786369306169779
substance 0.11118911893316695
top@@ 0.025474478406029618
trac@@ 0.05449806584722577
udi@@ 0.03657248406475331
var 0.06704640728649405
vers@@ 0.015805865138920343
waves 0.07308322505005009
ān 0.10146007102651483
ʒ@@ 1
Г@@ 0.410977502892212
ফ@@ 1
વ@@ 1
ு 1
ം 1
ത@@ 1
ല@@ 1
ན 1
្ 1
.D. 0.0570637742286553
1519 0.26362274865008983
1539 0.24909236092921877
1570 0.17611540619630217
1609 0.19392937831730747
1732 0.15554876380091348
38,@@ 0.18064085560605728
AU 0.1088506833135855
Aer@@ 0.046831576370112184
Agency 0.03718998364497961
Alpha 0.0701629716396136
Ass@@ 0.022213450250512263
Authority 0.039463252565739314
BB 0.07801413030335581
Best 0.008451140008818747
Committee 0.009689415318507073
Common 0.0476516359826937
Computer 0.03583656736109972
DA@@ 0.13133255770839972
DF@@ 0.06656439734457818
Dat@@ 0.030139078087898806
Defence 0.04412865539739952
Elec@@ 0.058637126669158074
FCC 0.14975020041661907
Fi 0.15680163488481177
Gam@@ 0.033334804887261094
Gl@@ 0.013174275830509435
ITV 0.11222964022354158
Industries 0.08388393725690628
Intelligence 0.06278289226099883
KA 0.06757752702378805
KI 0.22616428838613606
L.@@ 0.08567293117944694
Lat@@ 0.028094786712265344
Mat@@ 0.012094520368176166
May@@ 0.02025270796287502
New@@ 0.022408167053664444
ON 0.17834942826221722
Peter 0.004925034809171491
Ps 0.10755539256442254
Ren@@ 0.022495807884807664
Right 0.06632018833964524
Sel@@ 0.012356109691635888
Shiv@@ 0.265280753358581
Software 0.03205545772059357
Su 0.12736680357528246
Technologies 0.12945157989978837
Vid@@ 0.052429633044144656
Yahoo 0.27241963262011437
aer@@ 0.04267754446949178
always 0.016034837401259976
amine 0.07975979788972148
ams 0.027189282198548156
ats@@ 0.023439644225626215
az 0.02915307438130241
cip@@ 0.060894571391743556
din 0.038584820659259986
enia 0.09290669555950304
enth@@ 0.03275664492675204
equilibrium 0.18554093746633887
exc@@ 0.06221185808851678
fundamental 0.07445655742985768
geometry 0.11831596012346249
ils 0.025419630243479936
index@@ 0.26472577270301906
jan@@ 0.0545896977359979
ku 0.05192405389907391
lica 0.06174136099148237
mechanics 0.13051977241056537
meter 0.0377502742697026
military 0.006448007304748815
needed 0.020141491341351868
network 0.012711091848522664
oning 0.04433739290541105
optical 0.10225367220367121
oun@@ 0.029006056011929657
ova 0.02027379946359739
oy 0.03311670226433999
parts 0.01034152658973873
plant 0.011449931624851207
religious 0.014034150651809806
ros@@ 0.026384261749800485
sen 0.0051283275994262545
sky 0.012632416826599093
speed 0.015878895639608877
statement 0.031298273398971836
stra@@ 0.018350941824674515
stri@@ 0.01747654434804822
tera 0.15507220508828815
ters 0.009590277718143404
tet@@ 0.08839603168148315
theorem 0.08492544922955914
thro@@ 0.05747850072770526
tivity 0.07514187609978808
tt 0.3625757001491207
ure@@ 0.06727215276557318
ush 0.040120139299950265
vic@@ 0.038269747271145654
wheel 0.0473131124890795
your 0.03205545772059357
á 0.01716596613335727
ś@@ 0.04476084872728798
δ 0.4923693360001678
ء 1
भाज@@ 1
याता@@ 1
ৰ 1
ା@@ 1
ರ 1
≡ 1
1150 0.23379306981052608
1552 0.24253729879950245
1617 0.22179828585085012
1649 0.20900584866861283
1694 0.20033975250430447
1738 0.1570541080817683
AO 0.10746528372450696
AV 0.0858598939304162
Age 0.032759624512137
By@@ 0.03992512890153832
Chau@@ 0.08851217513660004
Dal@@ 0.022615445629615868
Data 0.0594637778909977
December 0.0029588373907962645
Ec@@ 0.04973115955202714
Ep@@ 0.02831738629973506
FT@@ 0.18767547264302703
Fort 0.013007701413655749
GM 0.0667618248659698
Gr@@ 0.009272545459277309
Hill 0.009953061458126444
Hz 0.16275950830930946
ISS 0.1405692501884167
IV@@ 0.14835514484063486
Kn@@ 0.010281978451985918
Love 0.012619342222578711
Lu@@ 0.008994338634897781
Med@@ 0.022924727470489768
Meg@@ 0.027612942131364244
Moto@@ 0.3005096287564567
Mun@@ 0.023326192311652262
November 0.0015329834742217098
Pay@@ 0.064238241809253
S.A. 0.12407749022169913
Search 0.1468521427772911
Special 0.02025796576621954
Star 0.010956288985829643
Tim@@ 0.025333391136043434
VHS 0.1687793805344483
Vir@@ 0.040656310110591405
We 0.01470098410573288
Wh@@ 0.029199892828569083
Wil@@ 0.011754896511963674
addition 0.007156653565877512
ads 0.02381079288629766
ake 0.0220824353060574
astic 0.0714876401451391
basic 0.029082721064592764
box 0.019396874652101267
built 0.003610254129079108
carbon 0.04299736443557747
certain 0.014858773250138357
cha 0.039345025639516924
count 0.041062805462472006
cri@@ 0.058993989844456425
diagram 0.23854588149108857
division 0.009407776718218398
economic 0.012751909313821906
edit 0.253255802240796
fixed 0.03746661024483723
fre@@ 0.01609522505423217
game 0.0028654576443124624
gram 0.11723020722183372
height 0.028113850037683342
higher 0.011964356942138982
ign@@ 0.023877703060106056
included 0.0041207005949882025
ith 0.023072836664821583
iti 0.05752051717560563
itic 0.05754738336765401
kl@@ 0.009228789018399854
ko@@ 0.031466976833136824
lands 0.011375583767902063
lb 0.2646808760260951
leaf 0.052653396491515916
limit 0.04241271868851885
literature 0.021598553385949206
mit@@ 0.010673448069489085
nar@@ 0.026804948937266884
nav@@ 0.09770733369559655
olog@@ 0.026496547911859625
oris 0.16820334169303378
osphere 0.16728981370013205
ots 0.01748016567924342
pen@@ 0.02058801032503087
psych@@ 0.02661387791125332
rap@@ 0.039617025012909084
related 0.009962316376805924
released 0.0024468066287388988
rif@@ 0.0362059793682478
solar 0.0545896977359979
solid 0.04649394256231972
sphere 0.12103040057971243
supply 0.024878131810226602
thes@@ 0.059868293386854836
tiv@@ 0.02573555045225008
tre@@ 0.014116515557991205
view 0.013719608907092841
wing 0.011609247883741378
wrote 0.0055099927458587385
zh@@ 0.06564142130535283
Ω 0.5923507105295541
λ 0.3980902998066147
ρ 0.818664104917922
Б@@ 0.34854016347990735
Р@@ 0.3586868931299775
ן 0.8079275264927689
ح 1
ई.पू@@ 1
वासीय 1
ॾ@@ 1
த 1
ே@@ 1
ర 1
ന 1
อ@@ 1
ေ@@ 1
1525 0.14891798289223773
1532 0.23413862544580347
1601 0.2146445411427957
1602 0.2146445411427957
1608 0.21068361375791103
1641 0.18218689396390786
1646 0.20921287299869348
1651 0.20668789004870927
1657 0.20903047293505034
40,@@ 0.2895627445126845
46,@@ 0.20976198815092104
ART 0.167780232649757
Civil 0.01580057680614886
Dom@@ 0.015518314074854548
Dor@@ 0.012137799445983028
Exchange 0.054990356068005224
F.@@ 0.07832667509196431
FX 0.18528435274845653
Ham@@ 0.013439347110790515
Hindu 0.04802843598888277
Hom@@ 0.02032536049987307
ICA@@ 0.29673013917884006
Kap@@ 0.02037372131683402
Ker@@ 0.01908141284970177
M1 0.16813320649123614
Machine 0.06509854804683757
Martin 0.006601810514538721
Most 0.010984466599005944
NFL 0.01999649311563826
Nil@@ 0.10693931866926974
Nim@@ 0.0888980172252513
Player 0.032970015464315564
Process 0.1899825296802716
Radi@@ 0.0232008856644574
Ramp@@ 0.10176483550785347
Saint 0.005241871323301838
Sak@@ 0.03336459121298396
Shim@@ 0.10952853013088294
Sun 0.01873694533108024
Tata 0.2752674540258356
Tre@@ 0.01401683440260174
Van@@ 0.037567839620260536
Women 0.00809938357058654
Wor@@ 0.024274369996608564
Young 0.013378603451621158
access 0.012944495867428072
active 0.009646266443633183
adu 0.1652363559314285
ais 0.023113655881278585
aki 0.024793997151654888
alia 0.03216932140835942
animals 0.025755500317596172
away 0.00679162518997515
ba@@ 0.062242459100857406
bil@@ 0.03165121484574294
bin 0.023830429624938154
cause 0.01647141745373061
child 0.011652311064176845
cru@@ 0.05154976401988878
cs 0.03361721150539859
curve 0.0865552174933223
earth 0.05333881033515078
enn@@ 0.010287391764202469
environment 0.023672783615373495
escence 0.10580668687400827
esian 0.09956725600353106
ever 0.008966265985658294
ew@@ 0.018195184978106002
far 0.011471672366339844
father 0.004723084775456588
fields 0.020772652266201938
five 0.003758668596859954
formation 0.01712067641077569
ground 0.009409283484027423
jal@@ 0.2101296691117465
jo@@ 0.03257138329798978
just 0.005112982010929429
kot 0.2640506084322718
lag@@ 0.024714766772137176
long@@ 0.08168925126286294
marathon 0.10272405846465414
medi@@ 0.02932818990293612
ogen@@ 0.04245757968062737
otrop@@ 0.14504413336751526
plants 0.019966518359135804
polym@@ 0.19749419477471397
quantity 0.13810941961780113
ria 0.034914511789209665
rics 0.06871824375365514
ring 0.012396357605940891
shi 0.06169787762648038
sor@@ 0.019834377271385074
started 0.004871742846679863
tax 0.02035469500437242
tournament 0.010475268807082435
towards 0.011342508868223236
user 0.028005834885702928
ust 0.024995616394547827
variables 0.11916399227460375
void 0.13866856706564648
whose 0.010478931488483513
yal 0.12705773845071688
yr@@ 0.023882652899342837
® 0.3917613602230437
³ 0.03413896517962449
è 0.1298093949412576
ˌ@@ 1
פ@@ 0.9402272645353049
पिथौ@@ 1
ট@@ 1
ਦ@@ 1
མ@@ 1
ာ@@ 1
ー@@ 0.6427827143605972
日@@ 0.9402272645353049
￸ 1
0s 0.05976872034172077
1521 0.20999820660604593
1613 0.19974122479238304
1614 0.20664717139424735
1619 0.18752856744385438
1629 0.17780168522708698
1636 0.19122068033856524
1696 0.18588358001013636
98.@@ 0.17726084359901978
Acc@@ 0.04600315952885554
According 0.005792406175953258
Ang@@ 0.025161702216397994
BI@@ 0.2174421728849916
California 0.005632427433435085
Cel@@ 0.04044733807612546
Chak@@ 0.12518690082315306
DN@@ 0.10264113136623118
Die 0.00023433577087446998
Fever 0.26854609370127996
GB@@ 0.11910986680261165
Hello 0.17985957510240047
Hills 0.03037503379368139
Java 0.053758765990016374
Jo@@ 0.01883772501476572
Kos@@ 0.02209459804101526
Ky@@ 0.02251937101079229
L2 0.2517257120223661
League 0.002406197837734697
Mod@@ 0.029446438773712863
Mot@@ 0.025739621171898302
Mountains 0.026167266427111698
Muk@@ 0.07052889843652375
NB@@ 0.22199810412639143
NO 0.1436216939819538
Nay@@ 0.10861976203760997
Peri@@ 0.060061326805645715
Population 0.051456514201481465
President 0.00599963989840191
Railway 0.011845614865977794
Rights 0.03171833029428644
Sen@@ 0.01937961500937072
Sik@@ 0.0637053865353132
TR 0.2550306447841477
TT@@ 0.19424834111059253
Tan@@ 0.02182770009670484
UC 0.07869615439996996
UP 0.08470131153078161
acc@@ 0.02808071429137586
along 0.003566207324215703
amount 0.018616564917555388
areas 0.006573918701920893
array 0.08327903155866774
atch 0.14828117642029964
ayam 0.2805030196542852
basis 0.014961361317889025
berg 0.003798302226412537
chin@@ 0.05357343354003931
cou@@ 0.04641537421997431
cro@@ 0.043007012792013105
date 0.010692078773116417
devices 0.038106589722529186
ect 0.04724321226848622
ending 0.012398170806484282
entary 0.05585861714179512
external 0.04982856120836063
fa 0.057941339630303505
figure 0.021005497822178157
fluid 0.07977344604131109
gin@@ 0.05771181216457316
hard 0.015128375475902843
ib 0.06592138272983908
ically 0.014359515144009795
ique 0.03426400254780406
isp@@ 0.02558704822532503
ker@@ 0.020753027896430826
las@@ 0.07207730653454267
mail 0.051834113705294865
mann@@ 0.020089460426847453
marker 0.13007701413655748
mb@@ 0.027054086505653552
ney 0.013599650486155834
normal 0.022794642023539115
ny@@ 0.06446294505882494
ophyl@@ 0.12620357841511154
person 0.009636131018301406
phones 0.07772524485919007
pos@@ 0.029250597230858454
primary 0.01065834519125336
produced 0.005128669072226865
programming 0.02932419289630281
put@@ 0.0947552883466305
qui@@ 0.02388299275949908
rather 0.009828309201531011
ru 0.05925216302305822
rum 0.04986053675566011
ss 0.16380745560977583
ss@@ 0.013493372464990508
start 0.008635498437843553
stat@@ 0.021442186489992732
sted 0.024663846083241035
storage 0.036754653001058187
stress 0.056249519626619456
tel 0.015301169051641788
temple 0.024779207965633147
tial 0.12052637504276681
tra 0.03704672748453767
vas@@ 0.12015361305809845
wh@@ 0.028827357078000375
worm 0.14725079553550918
ь 0.4147651411614075
ك 1
ਰ 1
ર@@ 1
ି@@ 1
க 1
ಗ@@ 1
ಸ@@ 1
1480 0.2118223257333202
1574 0.24374388181799708
1583 0.2209151865452871
1590 0.16504232230970792
1626 0.16760774700882256
1639 0.2114267658346585
1674 0.19622016135954876
1695 0.16504232230970792
1711 0.14524571277031384
1735 0.13723519164176926
1737 0.13096475778422167
187@@ 0.40291470855679584
55,@@ 0.2530034259317534
A2 0.12089592429734076
Battle 0.011066813264694749
Boo@@ 0.059761959939012746
Chief 0.012231961225633064
Country 0.0192108311028183
Digital 0.03616066212215255
Direc@@ 0.0562579046481787
Dra@@ 0.016274117163211102
Four@@ 0.0757317947187021
Fox 0.020134987214024475
Ghar@@ 0.2686098057045306
Gran@@ 0.020194244734586576
IW@@ 0.11401715317669651
Image 0.09992853760323005
Ji@@ 0.03601687071877195
Khal@@ 0.05898360672282346
LL@@ 0.22243424971406608
Lak@@ 0.042238027645759985
Line 0.01101834782779034
Log@@ 0.03895373580060541
Medicine 0.03559787237995901
Mir@@ 0.028808914275943925
Mis@@ 0.022085054736069372
Mount 0.013500957918490299
Order 0.013482468961531364
Organization 0.037403050249243355
Plant 0.07285652065924043
Political 0.026012414268686876
Rag@@ 0.04921496766114307
So 0.0044512210534276755
St. 0.0026686552451817805
Tag@@ 0.02376554011428624
Techn@@ 0.029952125159909956
Total 0.06834834476574683
UNI@@ 0.16625408679068962
Uttar 0.1183061996911804
Valley 0.01083228407046112
acet@@ 0.06495641600944328
again 0.004570812801956384
ago 0.01995224832222392
akh@@ 0.09514204462559633
anna 0.02239079068613856
aqu@@ 0.033348757910002844
architecture 0.02386070244561847
ave 0.03529821764753223
ays 0.01991189467190637
become 0.005117707051686463
bility 0.03874047326072186
bro@@ 0.013492913014474988
chi@@ 0.05658122593926018
cia 0.022379725855793564
cli@@ 0.0465730288377045
cont@@ 0.033721231006540474
cular 0.10387067257289875
dan@@ 0.03003954181598823
def@@ 0.019463474833154484
differential 0.11606256597074284
duction 0.11861606401724425
dus 0.040464272017319385
ein@@ 0.0020496769966863028
elec@@ 0.03951798712197544
eri 0.0403632916593439
eri@@ 0.021083618827646117
ering 0.018926618706863862
ession 0.03505233223048286
fish 0.014784412784599065
fold 0.06103451919377877
foreign 0.014985973938379832
gre@@ 0.025428193847155448
ide@@ 0.022069986959933653
ill 0.013180329814256068
ink@@ 0.023750583827241375
iting 0.018174658175529275
ji@@ 0.04904441546651923
kam 0.0023761051250699833
liquid 0.06960899668272956
lit@@ 0.04745139694235525
living 0.0071283153752099504
load 0.041185534050367276
macro@@ 0.17957023490001528
magnet@@ 0.09326114753250382
mechanical 0.053017575792301395
methods 0.023445647774789736
morph@@ 0.04702763576509227
named 0.003016117883330482
nec@@ 0.040969434812541936
omy@@ 0.09927140123144203
ort@@ 0.02073798573211093
pap@@ 0.05665200555639712
physi@@ 0.048076022549664386
popular 0.007008513609487118
put 0.009175333936096246
quality 0.01704592488775363
rane 0.1283662506853284
row@@ 0.03798021908905053
secondary 0.019562683905738166
ses 0.01536840411354142
similar 0.0067907652184411235
society 0.0146904156097651
tem@@ 0.08249109880106349
thesis 0.046098954847092685
tools 0.04357091903192597
tus 0.03484734783147419
uma 0.032807601595033216
uv@@ 0.07728261645355607
vibr@@ 0.1405574588509741
vit@@ 0.03866110059909839
win 0.005179871124532066
words 0.014726721267489546
yn 0.014801808485352288
ô@@ 0.05494735894416872
ے 1
एकी@@ 1
नैनी@@ 1
യ@@ 1
က@@ 1
1.0@@ 0.169581885096549
1544 0.24072083579970155
1547 0.18609493910679722
1554 0.22541345957448977
1569 0.21379194852638864
1585 0.19640582938796025
1635 0.14859913663632693
1693 0.18088734410298563
177@@ 0.3255972193853741
Af@@ 0.03513077415043599
Africa 0.008092573940832445
Ancient 0.057745171593570024
Anti@@ 0.019959869501873357
Bio@@ 0.08302913603518229
Borough 0.04459783341824828
Bou@@ 0.019389335958105648
Christian 0.005510157024648436
Compar@@ 0.08693754868873715
Def@@ 0.03815592414672352
Europe 0.006621418507023606
Fat@@ 0.06208421556077049
February 0.0029269406973834373
Film 0.0027864457626737265
Geneva 0.07610045813196936
Gro@@ 0.010860749312370405
HS@@ 0.17582249846810202
Hans 0.006619424223996371
Home 0.016031667013285254
Hospital 0.013590880161098728
Io@@ 0.11184637307131172
Jay@@ 0.06357481142178986
Kak@@ 0.05631004947095248
Korean 0.01991104575875408
MK 0.17197036235143
Mai@@ 0.05488964113015173
Mary 0.008015248836073215
Multi@@ 0.06439441051424774
Museum 0.004940166406337159
Navy 0.009022831229375463
Near 0.08528448703342162
Net 0.11305459006436601
PT 0.1284501011602148
Pin@@ 0.01932285239011144
Plan@@ 0.027936713243310988
RB@@ 0.11740284352838008
Rah@@ 0.042346459168618025
Rel@@ 0.03327954619702113
SCO 0.3035609434877452
Sharma 0.19177846691546904
Si 0.11317102115609037
Tran@@ 0.024940776564358547
Trich@@ 0.09022090438634135
Video 0.022168461073746974
WL@@ 0.13097623545001638
WS 0.12430889314769657
Wi@@ 0.018998800405007565
Win@@ 0.013743863616104529
absorption 0.16854150543338
across 0.0067653180780991055
animal 0.0283987754341811
anta 0.05170033476479124
aran 0.06299172344085054
arc@@ 0.04958892668888257
arg@@ 0.053383075804014454
bers 0.020761205657011856
chem 0.1631611901151652
codes 0.062242459100857406
cop@@ 0.0338850020174418
cut 0.014697928381269815
density 0.01954625783396723
disorder 0.07215302793339709
distribution 0.01782321977821162
ebo 0.14890116740184792
electronic 0.03193521114285492
ended 0.007590858394125912
eous 0.07179945216763395
eth 0.026996452903221658
ford 0.008438075830650676
formed 0.00597677915493113
gon@@ 0.033911143818103305
graph 0.0738749993563454
help 0.007857637579017787
him@@ 0.06315463307043895
however 0.005400617350660462
icus 0.0444085922580577
iner@@ 0.06874511200660856
interest 0.010265208925040986
ising 0.03218306092914446
isot@@ 0.09226621456134657
ista 0.04567292665941968
jaz@@ 0.21316985750254852
ject 0.1312892013650702
kind 0.018033816614845946
ky@@ 0.03870696074060013
lap@@ 0.08625515034738129
latitude 0.17724042184284478
mani 0.11752840806691311
mid 0.009042878665451264
moment 0.03553405385369887
nucle@@ 0.0860862213416089
och 0.0448069567961524
oidea 0.21255137629122584
ologist 0.02333844356855979
oom 0.07044170611702806
para 0.11288039192867362
pt 0.055248396954531806
rag@@ 0.048484033330052405
rates 0.012986180754261847
relative 0.02948458855448451
round 0.005338048263021654
runs 0.010062640130265444
rus 0.059351369993283165
sex 0.01782321977821162
sid@@ 0.04538994694034026
signal 0.025856249774720886
simple 0.023829353039697226
sometimes 0.01053737944503656
syndrome 0.06460262289392343
territory 0.018145485723673013
tors 0.021031399338289715
transfer 0.02273018130986943
une 0.02240804680721121
velocity 0.09820291469398013
weight 0.016818038191393294
whole 0.015680516772626107
yo 0.03287139142762901
ér@@ 0.04455262985711079
ón 0.01641237570645415
ע@@ 0.5635336489362245
۝ 1
ਕ@@ 1
ਗ@@ 1
ਲ@@ 1
ತ@@ 1
ර@@ 1
ྱ@@ 1
ရ@@ 1
⁄ 1
1,1 0.12369017989630632
1,2 0.07040574164563454
1586 0.21680384533197944
1589 0.21038319838236502
1591 0.22084785488221323
1621 0.1615755723740226
1633 0.17298553568290242
1682 0.17104187797860015
1697 0.15798234244724668
1747 0.12054195699170576
45,@@ 0.18860015925781928
48,@@ 0.184837970478175
97.@@ 0.16355961624047258
ACE 0.17627641022442994
Bri@@ 0.012731074071764383
Cant@@ 0.04152731487944968
Chal@@ 0.03333617706262096
Cit@@ 0.051677541212739035
Cogn@@ 0.16754573896331432
Dam@@ 0.019033507185972652
Dragon 0.05400866192633953
Entertainment 0.02000733946313704
Es 0.0015179141320019356
Fac@@ 0.03634348225807227
Forest 0.018975886382453545
GPS 0.13336556943763192
JT@@ 0.1877693215518377
Juan 0.01850305434635664
Kab@@ 0.03209611143996021
Kum@@ 0.042487675430888314
Lap@@ 0.04145461582597467
Ling@@ 0.10645263734332457
Low 0.05325291853106841
Lun@@ 0.04355572858396399
MD@@ 0.18451790472842924
Major 0.011445044839768851
Mosque 0.13114964920697586
NGO 0.19392009095662946
Nik@@ 0.021824698408738942
OC 0.1707677724049165
Party 0.004577477124475617
Persian 0.04464142856332966
Pras@@ 0.25492605258532985
Sap@@ 0.0483261179050648
Sens@@ 0.051677541212739035
Sev@@ 0.076716407473483
Sl@@ 0.023595901235754627
Som@@ 0.02943214748810051
Tech 0.04083506034898176
Tul@@ 0.03886890023004483
UCLA 0.09608574389600351
XIII 0.13261865585646285
acceler@@ 0.11482660558261626
activity 0.015306915173549939
ado 0.019311179771777435
aji 0.09780549791708848
alle 0.0028601092406975305
amer@@ 0.039327953489820225
atha 0.0938433201062685
capital 0.010108052549864152
che@@ 0.026346665837722313
com. 0.1859669982210609
composed 0.012721954391197218
concept 0.017731773022825175
definition 0.03623226452929884
degree 0.008056179782314045
desh 1
direction 0.017403085085851363
dis 0.024228988172048178
display 0.02552313532471087
dra@@ 0.015716679938151606
economy 0.022412259960178333
eh 0.02670319257753863
either 0.008134592158530317
ele 0.017377542397369192
expression 0.03346179619427473
fal@@ 0.028745370914666276
fall 0.0066913086330089725
ful 0.01467756060339778
further 0.005946875574443613
gest@@ 0.010045163082642148
gh 0.02565525219228792
gly@@ 0.07361595162740442
hex@@ 0.09278109706631944
immune 0.09926324171464172
increase 0.013015645533243908
induc@@ 0.12931928395712122
ington 0.0152652517700262
ive 0.04134203297019123
jav@@ 0.13010877897517448
kin 0.01478037172906136
last@@ 0.029379401704071655
lens 0.08480627933200788
ler@@ 0.011943408426436661
live 0.006363826329879536
longitude 0.2546214814352877
match 0.005475238412324936
mature 0.05986465729251006
meg@@ 0.06527356200959748
member 0.0028393421170190888
mit 0.0001648435743649777
mobile 0.028614148759577844
names 0.012516484404847348
nor@@ 0.021847071241551594
ographic 0.046942330387959426
oni 0.023959323210942754
oni@@ 0.06471854842433519
ons@@ 0.019766108325109978
opter@@ 0.09862016657165007
personal 0.010772249290403142
proportional 0.09582651976678767
race 0.006370484245870024
received 0.0030477237685205398
rights 0.008230089977267263
risk 0.020627001544844734
running 0.010449530765449168
sch@@ 0.0021072435133022444
sen@@ 0.012170531663602066
services 0.0066636914502325
shows 0.008567220612692385
sound 0.013792271548106123
static 0.096827887306377
thor@@ 0.05571717123172178
thought 0.011958822735050546
ural 0.1063463971862953
uram 0.2903517438165338
volume 0.023057251970284083
wa@@ 0.02172237080433552
you@@ 0.1366142179239332
ü@@ 0.0070220158142120515
т 0.3661824397961096
ج 1
ަ@@ 1
कोलका@@ 1
मशह@@ 1
समुदा@@ 1
খ@@ 1
ன@@ 1
ద@@ 1
ಲ@@ 1
් 1
ད@@ 1
国@@ 0.6037342208536425
1679 0.15180752708642944
1684 0.15372914135334628
1686 0.16129549752933128
2,3 0.12173245096553303
47,@@ 0.18820258599593803
AW 0.1369086451177348
Administration 0.022288485030502434
Am 0.0013601570382603865
BM 0.15724161221442806
BT 0.1364562041226332
Band@@ 0.015905873408131283
Bat@@ 0.018094499284622614
Beg@@ 0.021636788601712854
Blood 0.051821846595769085
Bol@@ 0.015527845730862218
Books 0.03647672028931873
CW 0.11350095483097529
Cell 0.1417982395862253
Child 0.048819635099915826
Coll@@ 0.037159509869968334
Comm@@ 0.022720175727692752
Congress 0.01117621592797835
Da 0.004968193205254212
Dum@@ 0.03450747732534582
FR@@ 0.11611824344068844
Federation 0.01872127646332463
Financial 0.045992033156057925
Glacier 0.09711111798567452
Gn@@ 0.0521359183933192
J.@@ 0.049403741765385034
Kod@@ 0.08024027859990053
Lag@@ 0.021591532821328595
Little 0.013264261923388632
Lor@@ 0.01621951738844717
Madhya 0.2036077286366312
Ms 0.14559819241011568
Mut@@ 0.027634618770920095
NW@@ 0.0881170451718071
No. 0.009027864656851809
Pass@@ 0.024175437568799068
Philosophy 0.06820556221920847
Press 0.018123089610037224
Rap@@ 0.03674287895311337
Rud@@ 0.041457477276615265
Scientific 0.059361195180432445
Script 0.1521431369473427
Sec@@ 0.029259954200332207
Since 0.007243132081025261
Sm@@ 0.019121815026168755
TM 0.20960227090105996
Times 0.010179884465141958
USSR 0.08045917257893376
UT 0.1011058946315103
Up@@ 0.029502463109108895
Van 0.014053382127666193
Vari@@ 0.04971303559777126
Ven@@ 0.02366012340563191
Vik@@ 0.04301213267448834
Village 0.02435797980622275
You@@ 0.09059159141621063
acea 0.22563741730879128
age@@ 0.032865048843926145
alai 0.2446187640255261
alg@@ 0.06868204818281572
alist 0.014997692636753162
aly@@ 0.041641435425079476
amus 0.13573848575775413
ands 0.021125369573062932
anic 0.05942954428254002
announced 0.004127843826726328
aq 0.08362018502938195
arch 0.041324707133215385
atta 0.04930934722654503
attack 0.008426522869986696
bab@@ 0.05300596581194969
bes 0.020829119939219536
big 0.015859443604051622
bon 0.044256856771177716
broad@@ 0.09679242233358838
cal 0.04235040755641929
chen 0.004608751408298414
components 0.03490418205199392
conduc@@ 0.10105640569630155
controlled 0.023024226255999113
ded 0.014391345102296393
developed 0.00584685329890244
dimensional 0.05682858156827526
don@@ 0.025746132539910715
dor@@ 0.01695059415743383
eal 0.05900492621821779
edic 0.12760088803309272
ev 0.036297158375095645
evidence 0.011917469224055878
ext@@ 0.07437256370228532
female 0.008597053376537333
gence 0.07106996104562618
get@@ 0.015781855743582332
gs 0.013463204228075908
haw@@ 0.1377306449883549
hr 0.036986427237109286
identities 0.18222262739412537
iers 0.013609639870635732
ind 0.06315638936602753
inga 0.06166614003510873
internal 0.02585899759989279
ira@@ 0.08876106484847121
ital 0.03429538817899403
kWh 0.1840091237411266
largest 0.00696717297734094
little 0.009795892808765612
lor@@ 0.05416008311583002
measure 0.03239576915699734
nel 0.04697570804039682
not@@ 0.015706218093384863
op 0.018023416572461287
operation 0.012174680790042696
oprot@@ 0.22563741730879128
orum 0.0393703731574264
osper@@ 0.24432927436395743
performance 0.007290964326642795
pin@@ 0.07397285447421857
pm 0.04124215677937356
polar 0.09354700355122068
prop@@ 0.039392909146640724
radio 0.007928199256462657
ret@@ 0.018039164424424995
sab@@ 0.05162746607590499
scopic 0.18466747480996784
shift 0.047494418412133435
significant 0.009359789502110076
sil 0.13380313469704735
site 0.0049871548586295006
solution 0.03435245205283594
spot@@ 0.11034646543962802
step 0.027158410528485142
sun@@ 0.044843231285304964
sure 0.05042946674097314
tan 0.057001169750840436
tissue 0.06802577820017926
today 0.011724586111507982
tox@@ 0.060051843175550915
upon 0.007882191304453253
vel@@ 0.023176721692584647
vent@@ 0.034582619235769524
via 0.006638528515676657
ward 0.014193471527398875
writing 0.00863119719220502
zer 0.012153180882831648
án@@ 0.04369486493916276
ø@@ 0.01760087270567298
И@@ 0.4364867586417422
ַ@@ 0.8976445079893219
ם 0.571906473234194
ॲ@@ 1
অ@@ 1
ব 1
ਪ@@ 1
ର@@ 1
ல 1
డ@@ 1
ಪ@@ 1
ು 1
† 0.0024890380223220134
1522 0.2283409071014312
1524 0.19665186389148848
1634 0.12815798185615926
1647 0.18414589282373484
1691 0.16733525436662672
Ali@@ 0.029758458998175794
Amazon@@ 0.11555713922137208
DP@@ 0.16733525436662672
Doc@@ 0.043960020619087416
EA 0.09024313175869571
Emp@@ 0.030323007089657354
FL 0.042610000792013714
Fur@@ 0.02105356098142806
Go 0.028228072013810727
IGN 0.16567022695999362
ION 0.2767289386617068
Ir@@ 0.016299420273597022
Ju@@ 0.014600869169376814
Kashmir 0.10101025971372714
Method 0.1890239297197278
Pet@@ 0.010700422756734806
Physi@@ 0.04351955863945813
Prin@@ 0.051734410593928616
Rock 0.009462834787996225
S2 0.18813398654778934
SK 0.03573569910816532
Self 0.07699356212476004
Sub 0.10136899731798696
Survey 0.04183381359165668
TNA 0.2055538001170291
Teh@@ 0.12050560537620766
Tha@@ 0.05457478659212027
UB 0.13258015508543616
VW 0.09638123189278934
WB@@ 0.12669517673668504
What 0.021878919591957105
Wo 0.12857033057513018
Xia@@ 0.1250302213477799
amar@@ 0.09633476071058453
amba 0.04404724288222052
andra 0.06937440753949732
better 0.010879889659864533
binary 0.12094327706643601
birds 0.02135509766072598
bis 0.00036154996184285706
central 0.0075937172176562
conservation 0.044056955614939865
cra@@ 0.021766891133429816
dale 0.021816804292831657
dro@@ 0.023259405554569533
emat@@ 0.054530101996111434
eps 0.0735905317546049
established 0.003967400590026853
eti 0.05601297833298354
false 0.04365267505216349
follow 0.020956397494624742
fu@@ 0.024807337188198695
fusion 0.05557671591481288
give 0.011396856637599241
greater 0.018938226892298796
hang@@ 0.08004739331480461
hari 0.15958330168830054
ico 0.02236381169842761
idi@@ 0.030545527245643217
instead 0.00861905412681732
instrument 0.035337512153122086
ize 0.020060069649975133
lan 0.028445087373825784
larger 0.011924696730155315
laws 0.017533856403137545
lization 0.15182241163658988
logic 0.07832155770825257
loss 0.008870856178739613
love 0.01053566197604684
maps 0.05565412081163017
materials 0.018792164570518462
matic 0.05971258030895167
members 0.0031729627866688734
men@@ 0.012445390165301625
meth@@ 0.0486482331905898
num@@ 0.06381293315673979
ologists 0.03863823123452955
ood 0.034561199396947295
operations 0.009717343208684028
ops 0.02305276262994719
oscill@@ 0.15124776208459675
oul@@ 0.03661992186835636
pa@@ 0.05062029230143205
pig@@ 0.09065258335469704
print 0.03079030570407648
pu@@ 0.042701067260900255
radius 0.08728627947302416
resi@@ 0.031043861670875125
ris 0.020070145023983153
seen 0.006680653148552255
seven 0.006789624960538019
shell 0.04054348492568026
status 0.01012919106280113
taken 0.0066406851368947485
tan@@ 0.04065072099974614
tar 0.07441277233286864
tering 0.05623368807029336
then@@ 0.06985954325655674
town 0.0029010932730325584
usually 0.007634631016956526
virus 0.044767710892617586
vision 0.028010415493306087
wor@@ 0.015875907327274716
yet 0.014612615644975667
zation 0.051640809954446185
¾ 0.706001037857782
ã@@ 0.1627021935779742
ı@@ 0.02040840589517388
Д@@ 0.3248752743313046
Х@@ 0.9469113446149398
к 0.3599969256103645
м 0.5071022683090161
ш@@ 0.32915699129118997
ু 1
ବ@@ 1
ந@@ 1
ோ@@ 1
ತ 1
മ 1
1440 0.2304753586992369
1537 0.21749814255626188
1645 0.1462061700151102
AJ@@ 0.2202261694298296
Alexander 0.006692946272653448
Ant@@ 0.01879143321560231
Ath@@ 0.02934787275337495
Au 0.12317496848849525
BT@@ 0.16108286120930823
Bis@@ 0.02737221521966561
Bruno 0.03356009567158307
Bureau 0.021471745479706563
CEF 0.1948923820282145
Cham@@ 0.041777709407302736
Chemical 0.07150623864863405
Cos@@ 0.020952305336294268
Coun@@ 0.04731463757715839
Dand@@ 0.13496740083155875
Det@@ 0.026731951638748867
FL@@ 0.10149151370991095
Festival 0.005964926359367509
Food 0.036586162263678834
Frederick 0.021161208566885126
Fu@@ 0.016919697817780164
Fun@@ 0.03613439674274285
Gandhi 0.08587743467761697
Gener@@ 0.025456484854350935
God@@ 0.024701157512464583
Greek 0.009912664267602164
Gun@@ 0.02768611677034985
Hat@@ 0.03143527841633472
Hir@@ 0.02416343683097217
Hyper@@ 0.05011373912557358
ID@@ 0.1596184715619509
Inc 0.08299886144819964
KS 0.08229158525349832
Kir@@ 0.01641634939141186
Light 0.021080370070940904
Lingu@@ 0.07896089558052352
Modern 0.022161600756163
Mol@@ 0.016089499382702478
Mont@@ 0.010693668711032642
More 0.01994612729422292
NATO 0.03536684683939948
ND 0.08149297493247282
NF 0.182034260687993
Naval 0.021732682636430804
O.@@ 0.07349252305554055
Ol@@ 0.010426384721980164
Organisation 0.012146302156465665
Page 0.054528049291349676
Ped@@ 0.0558849394068173
RD 0.2039475719006975
Ram 0.08916821356877219
Roman 0.005181722710540084
Russian 0.006716453977951056
Sand@@ 0.010596277532778874
Sear@@ 0.14159703122431125
Sid@@ 0.04006188562330649
Top@@ 0.01743283243884471
VR 0.08074345760449857
W.@@ 0.08278540531074177
Wei@@ 0.013139557152864858
Wel@@ 0.01688567499475088
acter@@ 0.19728125698668086
although 0.005793165679533295
ances 0.024067084185664868
applied 0.018439789057662838
arc 0.08135566579189578
asc@@ 0.042881516560826054
assi@@ 0.018524683540184207
ator@@ 0.03408724860394644
award 0.010360943650553112
bah@@ 0.19993618073494882
bat 0.027275575567004738
began 0.0022779778332247514
bird 0.028068354976015196
bo 0.020377542792779126
came 0.004091134118281695
cavity 0.20546633041485166
changes 0.010504642151091077
death 0.003393571777800512
domain 0.036202127570751745
dot 0.13329078715663256
e- 0.058829835695997736
eb 0.05003584212175144
ein 0.00022384573194373392
erg@@ 0.015103092789330667
ette 0.006848877680495055
eus 0.04982929581784328
expon@@ 0.09981310108008297
exposure 0.04834501892114157
famous 0.011574180535144757
fever 0.11462216652223178
gave 0.006322868807371196
genic 0.17638205533329732
heter@@ 0.05013975872013514
hypo@@ 0.12997197213321707
inus 0.026854609370127996
ious 0.021550809037040902
issi@@ 0.038154553652698646
jar 0.10361499495169559
k.@@ 0.1206360715739916
legal 0.01073229332018007
lim@@ 0.023047535869923697
located 0.0024674649384209386
los 0.008831604124100808
lost 0.005038698457905104
lumin@@ 0.10181252007905142
medical 0.010885326640926594
movement 0.00860496104210116
never 0.006331989724934776
ods 0.05010073945264865
oms 0.021433620085446737
paras@@ 0.07041135639444424
philosophy 0.02734508715700985
read 0.018658907408942185
relationship 0.011149887460452637
rest 0.009281927652343355
rhe@@ 0.13746501821349505
ris@@ 0.01792300952022648
rist@@ 0.024550444971394504
runners 0.05577197533640212
security 0.013624319313625885
sing 0.02343058966273936
spor@@ 0.027485178680797005
steel 0.0248569305778585
tered 0.03402719355002829
upp@@ 0.03584601904045296
various 0.004443435112270753
vid 0.09348419680056175
vin@@ 0.020663137968327864
vism 0.24824980795624751
wala 0.19469591793342797
ware 0.04391504106183732
Ü@@ 0.03504597180002913
Н@@ 0.29577082785598857
ش 1
স 1
ಯ@@ 1
ത 1
ེ@@ 1
ྲ@@ 1
1548 0.20051441663028904
1581 0.19526534813211394
1599 0.17139559509758162
1673 0.16286323796171948
AAA 0.10619499286228293
ACT 0.1403148287932045
Ara@@ 0.019481655606578437
Area 0.016477724438116886
Arts 0.0066369508298454935
Bam@@ 0.06921989883673675
Billboard 0.015251362351040224
Bos@@ 0.019829690287767845
Cass@@ 0.04584031648627552
Don@@ 0.011412387237831629
Falls 0.025513532284330113
Ferrari 0.047498320801367504
Fil@@ 0.01796516449577734
Hin@@ 0.014586859157240988
Jod@@ 0.14202468200012858
KL@@ 0.16343418708691396
Main 0.008868100031680084
Max 0.00905630651576751
NY 0.03969314760880562
Nor@@ 0.009270153483106423
Now 0.0258746229313402
OS@@ 0.17139559509758162
Ox@@ 0.03876889968111618
Pand@@ 0.06263970690835366
PlayStation 0.05318836493615768
Proc@@ 0.054975945597337504
Pter@@ 0.12557468516240322
RI 0.16724520848983748
RS@@ 0.2015982783418041
Raw 0.09092072523947772
SV 0.01286146682296495
Shock 0.19775016698427234
Street 0.004114432130842372
Study 0.05500837978353062
Swar@@ 0.10589347385926677
TI 0.12349563408355552
Technical 0.038465018041701486
Tol@@ 0.03259542168609838
UD 0.11206635064072644
UM 0.10162311033578682
Urdu 0.12565930422248572
Vin@@ 0.03361182542649041
Vit@@ 0.025087906291694984
Wa@@ 0.018512698050845707
Washington 0.004713812119973934
Zo@@ 0.026947746743666012
absolute 0.04213249151969472
ack@@ 0.013645427152507595
acts 0.018745316391854523
akk@@ 0.10791574506144028
amy 0.06631522313875135
ater@@ 0.023788545409640108
bing 0.02786587081084411
birth 0.016253674493695528
blue 0.01754265357160572
bon@@ 0.03067583606944708
building 0.0030267555180355267
ching 0.023429879063471392
colors 0.042977277590728
complete 0.010479847559074341
conc@@ 0.02256515095185973
content 0.0161285597185754
crystal 0.11363705512868301
deep 0.01784140905723008
dens@@ 0.042937694558178405
differenti@@ 0.07805709814406396
digital 0.015426737877743945
discrete 0.181222942143993
duct 0.15322794368625212
edia 0.08229408979089534
ei 0.009449121229600649
eling 0.028965269876695995
ender 0.0063142385624951345
enk@@ 0.00429832213410863
enter@@ 0.052991874812778866
expansion 0.019645849922689508
ez 0.020926765510736037
files 0.06342802975039756
financial 0.011590428706953123
forest 0.017174286928179114
growth 0.01314338930548131
head@@ 0.019212693948708923
illary 0.15965617077582944
induction 0.16845384594956533
inst@@ 0.0330284108158287
inverse 0.18779295817338248
iron 0.022176050358683412
issa 0.05050877775356685
levels 0.01304044807455726
middle 0.011897308119571827
office 0.005440336303240331
ogram 0.1353254045472923
omy 0.1284286552797306
ophi@@ 0.07227845250626698
oscience 0.17509709621236508
partial 0.04693642271990154
pent@@ 0.06436948825204308
plan@@ 0.01769412728590652
plate 0.038441230151756094
played 0.0017762385813799
ras 0.020496637444072194
rel@@ 0.01608543150747596
sand 0.044178727189331635
scat@@ 0.15424185894637618
sequence 0.026971132118335087
sides 0.016525913458540306
stroke 0.03683887938881249
studies 0.008888812978033692
sub 0.02612840233517848
thermal 0.07261620228433364
tional 0.0326125231665213
together 0.005063357882814326
translation 0.03145722123248462
tures 0.02651477427359147
tz@@ 0.010291302840296291
ures 0.02195413320769588
urg@@ 0.04893162095674857
vap@@ 0.12407079671734451
vet 0.05257355722192524
write 0.019720643767572845
¿ 1
ç 0.12940902669407967
ö@@ 0.006768234881902179
Đ@@ 0.054414475478893734
ɪ 1
ֹ@@ 1
כ@@ 0.7519290623635839
सदीय 1
এ@@ 1
ਵ@@ 1
ੋ@@ 1
ે 1
ந 1
ూ@@ 1
ె@@ 1
ย@@ 1
ད 1
≈ 0.3613922625313349
ン@@ 0.7227845250626698
本@@ 0.8287929220718614
1420 0.1976027080685462
1559 0.15622803157461082
1592 0.16436788331113078
1595 0.16588419219776482
1604 0.14125566719746824
1607 0.1669623624348905
1662 0.1397190865131135
1741 0.10023325771592925
AMD 0.18789808186246298
ASS 0.2029553773615994
Agricultural 0.06788163999334733
Alt 0.04424666937558491
Asian 0.011256241899366326
Australian 0.004857201705582698
Awards 0.006161542774889565
Bay@@ 0.01580543766743228
Beach 0.014418929062815897
Bihar 0.11038579763190734
Bul@@ 0.018088568991286295
CAP 0.1792806224749522
CCC 0.21230043015628933
Chang@@ 0.05715780811900098
Club 0.00389310148178954
Conference 0.009809528358648033
Declaration 0.10503414973269687
Der@@ 0.016816465383183116
Early 0.00505932317659043
Environment 0.05596590860329196
Era 0.10602503793772233
Family 0.013978425399749462
Fr@@ 0.014734387442017131
Gau@@ 0.016699337327486727
Germany 0.005305161951390384
Gir@@ 0.026389560367240546
GmbH 0.009789235360791392
Graph@@ 0.09216733180029578
HL 0.027311431400725558
Imp@@ 0.032777700390517146
Integ@@ 0.04338201793543475
Intel@@ 0.09086329678745683
Iron 0.029096838890352278
It@@ 0.034316500828697916
Jacques 0.02347806036589334
Japanese 0.005865685814926183
KN@@ 0.1775108236351205
Lab@@ 0.025216444305479885
Later 0.007993708128134122
Legal 0.05387012113312674
Lep@@ 0.046440719096688295
Lin 0.08793078940947534
Mess@@ 0.015209207844233873
Must@@ 0.04914415532724162
Neg@@ 0.025488088496438986
Nep@@ 0.044214031065251305
Nokia 0.14885634465428565
Nov@@ 0.01263036203851774
Num@@ 0.03954661630577899
Ori@@ 0.040490534641381914
PS@@ 0.08207141229684028
Palae@@ 0.2166487522197314
Punjab 0.05085363810587586
Rak@@ 0.053247990625518826
Real 0.020666413555037014
Shah 0.03927024772709698
Smith 0.006322953139786106
Southern 0.009026125105028465
Tak@@ 0.014127786324825352
Trade 0.027357137432280097
Training 0.019959869501873357
Vas@@ 0.02861984153149404
Vic@@ 0.025600578636443206
aba 0.041672877020249605
aic 0.04911730793290824
angles 0.08398807302306262
ary@@ 0.0825233888675434
ase@@ 0.13612298587613705
bad 0.016659112872186126
billion 0.016833782469797515
chan@@ 0.04251027525824517
charged 0.023259405554569533
chemicals 0.11031807628366692
cher 0.00842596243579856
ches 0.01239443509390523
cle 0.10358206471335085
clear 0.01576248810855339
college 0.007053364099096927
compounds 0.06824230145820762
concentration 0.039082474319143024
constellation 0.16527432384409657
copy 0.04115780827245984
court 0.006386959733692444
dev@@ 0.05624600073267973
died 0.0027862416613836354
epi@@ 0.049184481494085636
ern 0.0019993158143470874
error 0.05130341350709759
ert 0.0044715388755751
especially 0.008091911814525114
etc 0.02201768878932008
eur 0.040200863926308304
eved 0.1566362929811647
fication 0.04681553354396695
fly 0.029092131425720282
formes 0.1775108236351205
frac@@ 0.052856691458664624
gar 0.015937114627526106
glass 0.020174852949890843
gold 0.008796950459487161
[...]
