. 8625567
, 6402979
der 5254449
und 4099110
die 3367560
in 3094970
&quot; 2860843
@-@ 2224260
von 1971048
den 1661408
) 1578326
( 1576997
des 1433280
im 1385767
mit 1289363
er 1198713
wurde 1104933
dem 1066575
ist 1028015
das 1004182
Die 991390
als 963424
zu 896309
auf 881776
für 864663
ein 859114
eine 834171
an 811043
sich 793523
war 762224
aus 579215
auch 555353
bis 550406
am 526915
nach 526628
: 515870
“ 513836
„ 510490
bei 497811
Der 488027
sie 455283
einer 450354
zum 448852
es 436619
durch 362955
– 362666
einem 357129
Im 349174
werden 341141
nicht 339487
Das 338693
sind 336897
um 318916
; 317106
wird 314847
In 314522
zur 310870
einen 308733
über 305487
oder 288081
wurden 283005
dass 254652
/ 253827
Er 249373
Jahr 241743
unter 241115
wie 213773
vor 208522
sowie 200696
vom 199699
- 196202
seiner 195024
Nach 193788
nur 188597
hatte 186892
seine 182762
noch 180405
de 179204
Jahre 177679
Sie 171632
zwei 171554
aber 170553
waren 167526
ab 165363
hat 163516
er@@ 163505
en@@ 163376
* 158521
eines 155689
Jahren 151225
zwischen 150541
Am 149276
sein 149019
ten 144851
dieser 142984
ver@@ 141894
en 141604
gegen 140997
s 139535
a 139427
Es 139247
te 134864
ersten 129186
an@@ 128673
Zeit 128025
k@@ 126222
ung 125327
jedoch 125232
seit 124689
of 124331
Stadt 123490
ab@@ 123478
ische 121541
so 120457
man 119053
etwa 118790
i 118312
ischen 117941
drei 116911
wieder 113225
Geschichte 112265
Ver@@ 111291
K@@ 109930
G@@ 109366
Als 108696
Leben 108296
m 108191
seinem 107935
s@@ 107799
ein@@ 107514
un@@ 107344
aus@@ 106923
t@@ 106617
seinen 103346
später 103273
T@@ 103074
beim 103030
1 102980
Von 102796
Bei 102751
B@@ 102484
liegt 102468
S@@ 102053
mehr 101736
L@@ 101677
o 100802
P@@ 100517
Ende 99674
diese 99518
1. 99354
ihre 99075
ungen 98715
el@@ 98192
t 98054
sch@@ 97082
kann 96562
z@@ 95177
kam 94683
2 93899
H@@ 93772
konnte 93484
D@@ 93372
wo 93147
erste 92983
da 92500
Mit 92380
Gemeinde 92077
An@@ 92053
Sch@@ 91105
ihm 90742
be@@ 90039
isch 89467
August 89129
e 89080
ge@@ 89002
Mai 88335
März 88170
E@@ 87994
M@@ 87776
ern 87590
Ab@@ 87376
Teil 87198
Januar 87152
Oktober 86267
auf@@ 86267
heute 85825
n@@ 85723
R@@ 85585
haben 84579
ihrer 84367
al@@ 84321
dann 83848
ungs@@ 83829
bereits 83407
dort 83146
’ 82995
st@@ 82984
&amp; 82619
September 82406
† 82050
Juni 81469
April 81253
in@@ 80781
f@@ 80653
Juli 80554
Universität 80440
l@@ 80337
W@@ 80122
Kirche 79834
ihn 79475
anderen 79292
b@@ 79103
d@@ 79072
US 78894
während 78819
erhielt 78647
ent@@ 78582
Dezember 78519
ter 77358
vier 77345
um@@ 77239
A@@ 77144
gab 76956
November 76856
über@@ 76815
Ein 76780
Saison 76686
km 76431
m@@ 76060
beiden 75985
F@@ 75757
ihr 75702
Diese 75568
N@@ 75130
% 74109
g@@ 73816
3 73626
Platz 73373
dessen 72993
Seit 72932
alle 72682
können 72451
Deutschland 72321
diesem 72070
gibt 71727
Z@@ 71531
Berlin 71054
ischer 70529
Jahrhundert 70416
V@@ 70010
O@@ 69646
Vor@@ 68507
Mitglied 68478
Februar 68411
Eine 68371
vor@@ 67863
St@@ 66071
ar@@ 65806
deutschen 65469
Auch 65149
l 65025
Ober@@ 65011
Ein@@ 64794
zurück 64685
damit 64179
Für 63598
i@@ 63538
C@@ 63103
deren 63013
zunächst 62814
Auf 62615
4 62293
ers 62214
as 61921
ende 61842
us 61814
ens 61724
z 61554
ihren 61549
Familie 61525
keine 61508
Aus@@ 61465
enden 61133
zusammen 61099
befindet 60941
ins 60814
_ 60736
or@@ 60702
Ort 60477
sehr 60365
y@@ 60257
ch@@ 60123
weitere 59698
Namen 59121
d 58840
begann 58823
steht 58741
Film 58361
nahm 58268
at 58194
Sohn 57852
worden 57806
es@@ 57646
bekannt 57295
spielte 57207
gewann 56983
Personen 56397
liche 56389
on@@ 56308
allem 56282
el 56246
Er@@ 56232
on 56211
bzw. 56103
ebenfalls 55837
h@@ 55745
2011 55732
n 55621
is@@ 55568
anderem 55379
lich 55340
2010 55331
denen 54906
os 54722
statt 54721
iert 54492
J@@ 54258
j@@ 54101
mann 54077
et@@ 53445
gen 53267
p@@ 53249
at@@ 53229
was 53194
e@@ 52984
Unter@@ 52571
ohne 52516
w@@ 52417
k 52303
ging 52128
selbst 51978
U@@ 51907
2009 51869
2015 51686
neuen 51685
2012 51606
v@@ 51513
re@@ 51500
I@@ 51305
lichen 51221
2008 51184
dabei 51104
le 51104
trat 51086
ler 51013
gehörte 50757
2014 50705
berg 50687
2013 50553
führte 50444
o@@ 50414
ner 50361
Bau@@ 50309
2. 50124
and 50037
formula 49959
r@@ 49901
Während 49857
hier 49841
19. 49740
deutscher 49731
&apos; 49716
2016 49555
Meter 49542
neue 49540
erstmals 49138
a@@ 49098
2007 48975
stand 48887
Jahrhunderts 48831
5 48828
Haupt@@ 48754
au 48603
immer 48429
Ab 48181
u@@ 48039
-@@ 47976
tes 47816
bezeichnet 47647
is 47627
Al@@ 47598
al 47469
sei 47424
New 47347
ale 47100
fünf 47070
2017 47026
The 47010
St. 46769
u 46758
2006 46671
Seine 46615
Name 46590
gehört 46584
zu@@ 46457
ie 46397
g 46179
sten 45934
y 45866
Titel 45807
wegen 45645
the 45537
Deutschen 45504
zweiten 45376
10 45264
arbeitete 45223
schon 45150
Un@@ 45095
ge 45007
Band 44802
Zu 44705
th@@ 44591
et 44556
2018 44503
fand 44316
Be@@ 44304
seines 44298
sondern 44276
einige 44188
Gruppe 44187
2019 44050
ke 44033
it@@ 43914
igen 43786
Sein 43773
So 43755
In@@ 43751
der@@ 43740
20 43608
Liste 43577
erst 43487
ter@@ 43208
unter@@ 43100
rund 43024
ihrem 42983
neben 42785
hatten 42723
6 42623
chen 42500
studierte 42492
Menschen 42407
Karriere 42303
2005 42256
ierte 42182
Friedrich 42029
mehrere 42022
besteht 41620
andere 41517
ar 41500
dieses 41177
deutsche 41040
20. 41033
Anfang 40988
em 40802
teil 40799
Tod 40750
großen 40733
A 40675
ol@@ 40636
3. 40623
genannt 40571
B. 40567
Über@@ 40455
Art 40453
de@@ 40448
2000 40394
gt 40365
Durch 40336
18. 40126
letzten 39992
enk@@ 39976
15 39934
ber@@ 39853
1945 39825
wenn 39803
sollte 39790
ige 39686
amp 39634
4@@ 39598
Kilometer 39510
ot@@ 39496
große 39405
Da 39361
diesen 39296
ger@@ 39266
2004 39224
wechselte 39221
erfolgte 39193
Unternehmen 39165
tätig 39040
straße 38914
14@@ 38909
weiter 38749
alen 38691
Gebiet 38678
allerdings 38634
2020 38593
sen 38514
le@@ 38463
13@@ 38449
Johann 38277
wobei 38261
isches 38234
bach 38167
sp@@ 38154
3@@ 37867
Einwohner 37675
sk@@ 37634
Straße 37609
soll 37512
ur@@ 37499
Sp@@ 37414
führt 37285
ieren 37255
ens@@ 37228
Mitte 37211
Land@@ 37195
gegründet 37137
end 37127
gen@@ 37085
ro@@ 36885
ag@@ 36868
Mar@@ 36864
erreichte 36847
Frau 36762
am@@ 36701
Mannschaft 36656
ad@@ 36555
15. 36551
Nachdem 36544
blieb 36529
5@@ 36456
Verein 36456
8 36397
nun 36265
Auf@@ 36191
ä@@ 36159
Region 36139
musste 36130
Zweiten 36119
folgenden 36118
den@@ 36075
übernahm 36041
em@@ 35971
jeweils 35941
Um@@ 35857
Karl 35854
z. 35836
sechs 35809
weiteren 35792
ken 35788
schließlich 35741
au@@ 35689
viele 35642
Gebäude 35589
ch 35526
ak@@ 35519
li@@ 35456
di@@ 35212
us@@ 35175
ert 35135
Landes@@ 35116
16. 34981
Bis 34978
4. 34881
Kon@@ 34815
ow 34776
7 34742
a. 34645
Stadt@@ 34532
je 34512
ul@@ 34456
ene 34453
17. 34421
Vater 34419
op@@ 34399
B 34342
2003 34327
Norden 34322
2001 34300
USA 34222
lang 34211
ia 34087
ierten 34084
ik@@ 33953
6@@ 33906
30 33896
erhalten 33817
Bereich 33782
Form 33700
ts 33662
ger 33646
2002 33642
An 33622
neu 33587
zog 33500
gewählt 33484
aufgrund 33483
u. 33404
insgesamt 33337
5. 33320
welche 33300
ien 33163
7@@ 33144
100 33102
16 33088
Dort 33069
h 32999
acht 32997
University 32965
lt 32916
darauf 32822
Album 32742
Haus 32727
Dabei 32716
ig 32707
entstand 32688
c@@ 32664
dazu 32627
verwendet 32585
Tochter 32563
verschiedenen 32562
Land 32520
alten 32460
om@@ 32401
licher 32396
Bundes@@ 32372
U 32343
2021 32194
Wilhelm 32185
Her@@ 32147
13. 32134
FC 32127
Groß@@ 32109
Bar@@ 32063
ka 32048
München 32031
allen 32004
König 32002
ließ 31995
Bau 31964
finden 31954
14. 31936
Amt 31934
se@@ 31921
folgender 31851
Süden 31839
Ch@@ 31775
ing 31680
Nord@@ 31652
erneut 31624
stein 31619
stellte 31615
Kinder 31574
Hoch@@ 31567
erschien 31552
ere 31547
os@@ 31524
Ar@@ 31514
Rahmen 31500
Werk 31479
Prozent 31438
18 31418
ben 31402
elle 31307
Wien 31279
0 31192
ten@@ 31057
Mal 31053
Arbeit 31021
1999 30976
Weltkrieg 30951
Dies 30934
Stand 30898
12. 30872
John 30811
konnten 30810
6. 30803
gilt 30798
or 30782
meist 30780
errichtet 30715
Rolle 30709
Millionen 30707
Lage 30678
Entwicklung 30612
Dieser 30565
Einsatz 30545
insbesondere 30502
eigenen 30474
Spiel@@ 30452
Neben 30438
Süd@@ 30436
Bevölkerung 30426
Schul@@ 30386
Heinrich 30332
werk 30317
Neu@@ 30310
land 30278
r 30250
Dorf 30188
8. 30079
8@@ 30056
Provinz 30052
Osten 30034
Richtung 30034
14 30018
end@@ 30004
1990 29921
ra@@ 29899
enen 29858
12 29804
9@@ 29791
starb 29763
davon 29745
Westen 29733
7. 29712
gel@@ 29707
Frankreich 29678
ing@@ 29605
bestand 29539
9. 29529
Staaten 29499
as@@ 29448
West@@ 29329
ier@@ 29213
il@@ 29211
ste 29184
eingesetzt 29181
Musik@@ 29132
Frauen 29129
Hans 29066
b 29052
si@@ 29043
bar 29028
kommt 29021
be 29020
innerhalb 29019
ri@@ 29010
Gesellschaft 28973
fast 28943
ingen 28914
9 28912
Seite 28908
Schule 28905
Beginn 28884
12@@ 28854
durch@@ 28852
habe 28831
1998 28803
Bedeutung 28781
York 28758
oft 28737
50 28726
damals 28717
II. 28699
men 28692
eten 28670
zeit 28649
ina 28637
eln 28581
lag 28575
Partei 28548
Aus 28478
Grund@@ 28462
I 28454
Peter 28448
ation 28429
Paris 28389
eren 28319
burg 28270
also 28226
zweite 28214
Folge 28196
Wasser@@ 28184
Jahres 28180
Außerdem 28152
ei@@ 28096
Beispiel 28062
ne 28062
10. 28037
dies 27988
gut 27980
Um 27951
stark 27925
Paul 27887
Ge@@ 27877
ik 27864
darunter 27765
feld 27730
Landkreis 27710
se 27700
ü@@ 27678
O 27672
Regierung 27643
ehemaligen 27622
Höhe 27617
Zur 27571
Ger@@ 27557
la 27554
ap@@ 27536
Unter 27486
geht 27483
Di@@ 27439
heutigen 27384
ck@@ 27353
erte 27277
kurz 27264
folgte 27253
ell@@ 27203
Musik 27186
11. 27156
Kar@@ 27097
ne@@ 27085
eb@@ 27065
ierung 27005
ie@@ 27004
1994 26952
zurück@@ 26922
p 26899
Nach@@ 26840
enz@@ 26749
C 26719
lange 26630
1997 26604
gegenüber 26594
13 26489
it 26421
ach 26400
ob@@ 26383
1996 26376
1992 26351
Team 26348
eg@@ 26325
Österreich 26320
sowohl 26287
Serie 26282
Mittel@@ 26274
kon@@ 26226
veröffentlicht 26217
= 26198
zahlreiche 26127
ete 26115
ti@@ 26107
weil 26105
me 26069
Spiel 26051
stellen 26007
Y@@ 25998
Film@@ 25996
ismus 25952
Burg 25948
französischen 25899
Ber@@ 25796
zudem 25760
1995 25750
geboren 25750
findet 25747
sehen 25743
ell 25722
recht 25719
lassen 25709
Kreis 25666
Berg@@ 25660
Krieg 25630
Welt 25607
1991 25606
ca. 25527
iger 25514
nen 25453
muss 25442
I. 25441
é@@ 25415
é 25371
&#91; 25366
geb@@ 25357
25 25356
&#93; 25329
erst@@ 25296
zehn 25285
Zum 25278
danach 25275
im@@ 25275
verschiedene 25267
Liga 25222
setzte 25195
Sitz 25181
re 25171
ut@@ 25135
1993 25120
ö@@ 25106
ok@@ 25089
Mon@@ 25070
30. 25037
ig@@ 24990
stehen 24975
besuchte 24972
Alter 24968
17 24961
ts@@ 24959
Ost@@ 24937
del 24916
gemeinsam 24916
ender 24904
gleichen 24904
schrieb 24900
innen 24889
Insel 24841
besonders 24823
Stein@@ 24777
40 24762
21. 24758
ellen 24735
heim 24731
ach@@ 24724
leben 24654
Professor 24574
itz 24573
ung@@ 24559
Pro@@ 24503
Kl@@ 24332
zeigt 24323
machte 24316
Vertrag 24311
2@@ 24249
Par@@ 24236
Sommer 24223
stadt 24204
Hamburg 24200
Gemeinden 24192
schule 24185
beispielsweise 24165
El@@ 24161
Maria 24154
zuvor 24092
aten 24080
schloss 24076
Zu@@ 24074
1989 24066
meisten 24061
doch 24029
rat 24026
nach@@ 24018
London 24013
inger 23994
sieben 23960
f 23919
Spieler 23918
19 23887
ß@@ 23863
kommen 23852
kamen 23833
Mutter 23828
erk@@ 23798
ber 23792
ologie 23739
amerikanischen 23729
teilweise 23635
hinaus 23628
befinden 23571
gehören 23558
Am@@ 23551
spielen 23543
bereich 23493
gebiet 23482
ine 23452
Mann 23451
Staats@@ 23400
Schweiz 23398
Werke 23372
gelang 23356
Europa 23267
hin 23242
genutzt 23239
fen 23170
Georg 23152
ster 23129
DDR 23112
and@@ 23099
25. 23075
Schloss 23056
League 23034
haus 23028
ich 23005
11 22983
ihnen 22930
bl@@ 22914
schaft 22910
Har@@ 22896
Vereinigten 22892
26. 22887
eigene 22865
Strecke 22856
enb@@ 22826
En@@ 22800
st 22789
22. 22787
daher 22785
Schw@@ 22769
Armee 22754
Per@@ 22725
absolvierte 22704
Rück@@ 22702
Le@@ 22696
stellt 22666
veröffentlichte 22657
nachdem 22605
ationen 22592
Re@@ 22586
enten 22585
bau 22574
schen 22574
aller 22521
gründete 22520
ir@@ 22516
Franz 22505
Spielen 22485
liches 22485
Car@@ 22481
iz@@ 22479
Betrieb 22420
Studium 22374
sh@@ 22355
ker 22340
Mitglieder 22320
Fach@@ 22303
Danach 22240
Kur@@ 22214
handelt 22175
etwas 22166
Ausbildung 22164
zen 22160
Reihe 22145
28. 22144
kleinen 22139
Deutsche 22113
24. 22097
enst@@ 22070
ations@@ 22067
häufig 22020
Saint 21997
bel@@ 21989
est@@ 21964
Ludwig 21948
aufgenommen 21929
Tag 21926
kl@@ 21913
Bruder 21891
kein 21879
isten 21870
einigen 21862
möglich 21853
Weitere 21844
23. 21827
liegen 21814
S 21808
entstanden 21800
arbeiten 21777
Bl@@ 21765
Ersten 21764
ern@@ 21762
id@@ 21744
1972 21724
beide 21724
Qu@@ 21703
1988 21687
weg 21673
1933 21668
erin 21659
La 21633
Kunst@@ 21609
deutlich 21581
kleine 21551
letzte 21536
Th@@ 21535
Hier 21531
Zwischen 21494
Politiker 21477
27. 21441
dorf 21412
tern 21379
Arten 21359
ja 21347
ans 21283
erreicht 21270
to 21267
gruppe 21265
G 21247
Bahnhof 21224
folgende 21216
hinter 21203
ep@@ 21195
Bereits 21188
all@@ 21138
Michael 21121
1980 21114
Olympischen 21109
ek@@ 21105
zwar 21104
D 21094
ed@@ 21087
schw@@ 21086
somit 21056
ze 21026
lässt 20998
außerdem 20977
Nieder@@ 20975
Museum 20955
bau@@ 20953
Buch 20949
ß 20899
ck 20892
ant@@ 20890
Mal@@ 20859
ursprünglich 20852
vielen 20841
ate 20809
Bi@@ 20796
1987 20765
29. 20764
te@@ 20758
erten 20752
² 20747
1970 20727
wer@@ 20719
geschichte 20692
els 20690
Nähe 20685
Or@@ 20685
Se@@ 20681
Jugend@@ 20665
enberg 20660
Sal@@ 20650
ra 20650
Ziel 20639
County 20629
Den 20629
qu@@ 20628
ernannt 20600
Thomas 20597
Stelle 20560
mehreren 20516
kehrte 20504
ur 20500
E 20483
direkt 20482
Sport@@ 20417
Linie 20416
che 20413
1939 20412
Über 20407
eh@@ 20406
Finale 20398
Berliner 20330
Wal@@ 20315
gehen 20303
Wasser 20197
Fl@@ 20196
AG 20188
platz 20185
her@@ 20182
ser@@ 20168
ener 20163
Siehe 20161
selben 20148
gewesen 20137
na 20133
dafür 20123
Präsident 20122
1974 20116
1938 20103
südlich 20103
Volks@@ 20098
erwähnt 20065
anschließend 20040
He@@ 20038
gesch@@ 20035
L 20009
1986 20003
Kor@@ 19990
Klein@@ 19974
24 19949
pro 19935
mer@@ 19930
Robert 19928
Zudem 19927
1984 19908
Bezeichnung 19889
dritten 19867
60 19861
ru@@ 19859
Gründung 19857
San 19825
gebaut 19799
Holz@@ 19791
eng@@ 19785
21 19777
31. 19774
Einwohnern 19757
ana 19747
mit@@ 19745
ons 19735
Erfolg 19724
Spiele 19707
Mor@@ 19701
weniger 19659
Lebens@@ 19655
Man@@ 19654
Ur@@ 19629
Preis 19622
Ihre 19606
entwickelte 19597
Martin 19579
verheiratet 19570
1985 19564
National 19564
1975 19557
ac@@ 19497
mm 19482
ort 19468
führen 19462
spiel 19448
ensch@@ 19445
erster 19430
Chr. 19425
1978 19396
heiratete 19347
Reichs@@ 19320
1944 19310
Produktion 19307
cm 19303
10@@ 19243
tigen 19232
Dieses 19227
enh@@ 19197
stammt 19196
größten 19167
Nachfolger 19153
ihres 19153
bahn 19141
x@@ 19133
Klasse 19126
amerikanischer 19106
Sprache 19092
ff@@ 19080
Kriegs@@ 19071
erung 19062
Schweizer 19049
1976 19027
1968 19017
Ak@@ 19004
Mit@@ 19001
len 18998
fl@@ 18972
stieg 18957
see 18925
Buch@@ 18920
x 18917
International 18916
Kultur@@ 18909
c 18897
K 18890
V 18873
1969 18853
ist@@ 18850
1983 18834
Ma@@ 18834
1979 18809
halten 18807
af@@ 18783
ier 18780
1973 18773
mer 18759
Weg 18746
diente 18744
1982 18734
Tor@@ 18720
nördlich 18693
bel 18691
Köln 18688
los 18684
bildet 18666
1971 18665
Grund 18664
Beim 18654
ausge@@ 18651
Rang 18648
West 18647
ges@@ 18641
Einzel@@ 18622
weit 18617
befand 18607
1960 18588
ums 18573
Institut 18548
politischen 18546
tung 18542
Familienname 18539
welches 18534
ben@@ 18529
di 18524
umfasst 18514
her 18500
är@@ 18457
ganz 18436
ster@@ 18429
od@@ 18414
Alt@@ 18410
Damit 18399
City 18368
mon@@ 18368
Teile 18343
isch@@ 18337
Euro 18326
200 18321
Besitz 18311
Meister 18310
R 18308
amt 18284
ang@@ 18272
Truppen 18265
Zeit@@ 18260
Verbindung 18238
dar 18234
Frankfurt 18229
Kloster 18229
Tage 18222
Kaiser 18209
1950 18192
ität 18179
Bo@@ 18135
ehemalige 18131
! 18121
Johannes 18116
Staffel 18106
fer@@ 18091
spielt 18084
1981 18082
Joseph 18080
Ne@@ 18065
Fahr@@ 18043
Carl 18039
England 18025
Raum 17991
einmal 17984
art 17963
Anschließend 17953
elt 17948
Militär@@ 17939
Tri@@ 17927
benannt 17922
1946 17877
Wahl 17864
größte 17861
fanden 17851
Otto 17843
Italien 17836
Wald@@ 17826
gestellt 17807
enn@@ 17793
tige 17769
hohen 17767
gl@@ 17743
ob 17739
Sieg 17728
gest@@ 17726
per@@ 17718
Bischof 17717
Hälfte 17710
22 17687
damaligen 17683
1964 17681
Zuge 17666
v. 17655
Nr. 17647
Ro@@ 17646
Leitung 17634
stelle 17632
Rennen 17628
ov@@ 17611
Politik 17570
System 17565
age 17562
we@@ 17555
nahe 17549
belegte 17537
GmbH 17494
1977 17486
Landes 17481
wenig 17465
Orts@@ 17453
Grenze 17431
one 17426
gew@@ 17413
enburg 17371
Wer@@ 17324
Runde 17312
französische 17307
Pl@@ 17304
1967 17294
Verwaltungs@@ 17292
Ernst 17275
ebenso 17228
Länge 17217
ma 17208
Ihr 17207
Kirchen@@ 17186
britischen 17167
gel 17158
Begriff 17142
fer 17127
Arbeiten 17123
Leipzig 17109
500 17098
meister 17088
fest 17083
Division 17063
besitzt 17058
entfernt 17057
Kunst 17055
Bad 17047
Tour 17046
Bor@@ 17034
Kanton 17029
Nationalmannschaft 17029
Ortsteil 17013
1965 17012
Sk@@ 17002
Rechts@@ 16999
nieder@@ 16994
sogar 16988
Herrschaft 16954
Gra@@ 16952
Kom@@ 16948
bevor 16947
mal 16944
einzige 16911
machen 16897
ator 16890
ut 16888
cht 16881
zug 16880
Gr@@ 16868
Aufgrund 16863
geführt 16863
Lehr@@ 16857
Ehe 16856
Con@@ 16850
östlich 16832
beträgt 16819
brachte 16811
See 16801
Stil 16799
dern 16787
Ent@@ 16779
National@@ 16778
deutsch 16768
1961 16761
á@@ 16735
esch@@ 16734
Teil@@ 16720
Leiter 16714
Christian 16709
Zentrum 16703
alte 16694
westlich 16694
1962 16679
Hof@@ 16670
weiterhin 16655
ausgezeichnet 16646
land@@ 16624
späteren 16621
1940 16602
1966 16596
ard 16583
Bel@@ 16580
Fall 16578
entwickelt 16578
raum 16576
1963 16568
ange@@ 16557
Republik 16548
agen 16534
wohl 16523
Gesamt@@ 16514
endorf 16512
bisher 16501
hielt 16495
Wohn@@ 16478
ich@@ 16470
Bayern 16457
ant 16452
Welt@@ 16440
Feld@@ 16422
Männer 16418
sdorf 16417
anischen 16415
frühen 16393
besch@@ 16392
1956 16390
verbunden 16387
1952 16369
Sachsen 16361
anz@@ 16351
° 16343
sche 16339
1949 16337
zi@@ 16335
Firma 16321
internationalen 16321
1941 16311
ette 16306
ess@@ 16303
1942 16287
eher 16273
ersch@@ 16261
enz 16255
Theater 16254
Wie 16250
Ad@@ 16249
v 16242
tig 16239
1948 16232
Haus@@ 16232
betrieb 16226
ang 16204
alt@@ 16203
Später 16200
ah@@ 16200
hin@@ 16179
erzielte 16178
Zahl 16176
Polen 16175
1943 16156
II 16153
Fläche 16138
str@@ 16131
det 16127
ente 16121
1958 16083
enthält 16082
Park 16075
ai 16073
Natur@@ 16067
mar@@ 16065
aktiv 16055
Hilfe 16042
Geographie 16040
legte 16040
ast@@ 16031
verlor 16028
Fest@@ 16014
T 16002
geben 16000
F 15959
tet 15945
Erst 15944
müssen 15919
Arbeits@@ 15916
Reg@@ 15869
80 15862
Literatur 15857
Gemeinde@@ 15854
Kreuz@@ 15817
ran@@ 15817
ling 15816
lediglich 15802
Kn@@ 15789
Meisterschaft 15787
sm@@ 15785
auer 15781
ph@@ 15768
Sh@@ 15758
vier@@ 15757
Wirtschaft 15743
Kultur 15722
Gen@@ 15717
og@@ 15712
ass@@ 15693
Akademie 15656
Vor 15652
Sozial@@ 15650
Cor@@ 15644
William 15632
schaften 15632
David 15631
Wahl@@ 15631
gef@@ 15617
War@@ 15605
Wiener 15605
ett 15591
90 15565
General 15512
Ö@@ 15510
1957 15497
ou@@ 15492
sollten 15484
ak 15481
Kal@@ 15473
beteiligt 15473
1959 15464
Beschreibung 15441
tr@@ 15438
Bahn 15436
Mo@@ 15427
Regel 15421
Gattung 15418
College 15417
Weltmeisterschaft 15412
M 15407
X@@ 15402
Tr@@ 15401
Funktion 15393
1947 15387
ad 15382
genommen 15382
son 15382
35 15378
Vorsitzender 15376
Schiff 15372
politische 15360
Version 15357
mel@@ 15354
wuchs 15320
gleich@@ 15312
De@@ 15309
fiel 15303
70 15302
man@@ 15302
Schlacht 15276
bi@@ 15264
nimmt 15264
Bürgermeister 15263
N 15259
Abschluss 15258
Li@@ 15248
Alexander 15245
yl@@ 15243
Verwendung 15241
amerikanische 15233
az@@ 15233
ys 15224
Schl@@ 15214
Lu@@ 15206
23 15194
hohe 15192
ersetzt 15184
Richard 15176
bar@@ 15168
Gast@@ 15164
Kinder@@ 15151
Ex@@ 15144
Bu@@ 15134
du 15118
Br@@ 15100
Inter@@ 15100
ino 15095
Zeitpunkt 15081
Ros@@ 15059
erreichen 15051
würde 15044
1934 15041
1954 15039
zer@@ 15038
Wirtschafts@@ 15037
Ko@@ 15035
sel@@ 15035
wollte 15033
1936 15025
Best@@ 15021
1920 15013
1953 15002
lebte 15000
viel 14981
ton 14959
spieler 14953
Uhr 14948
1919 14939
zahlreichen 14927
1955 14925
.@@ 14898
neun 14897
1918 14893
äre 14858
Mitarbeiter 14857
langen 14850
Ru@@ 14833
Union 14818
Pf@@ 14817
heraus 14798
verläuft 14763
Position 14757
sch 14753
zwei@@ 14746
Dollar 14739
Cup 14733
form@@ 14732
süd@@ 14728
ation@@ 14722
tz@@ 14695
hausen 14689
gebracht 14681
Künstler 14679
Me@@ 14675
Man 14672
lebten 14671
sollen 14650
per 14649
trägt 14645
wenige 14636
Gruppen 14609
Spielzeit 14602
ow@@ 14601
School 14599
siehe 14595
Hochschule 14593
Projekt 14590
av@@ 14583
eröffnet 14574
weisen 14574
bald 14562
pl@@ 14557
nahmen 14544
he 14540
erb@@ 14536
beendete 14534
hauptsächlich 14529
… 14524
Tra@@ 14523
ss@@ 14506
knapp 14504
lichkeit 14502
bilden 14485
nächsten 14485
Roman 14477
folgten 14476
Heute 14475
besten 14471
For@@ 14465
all 14452
are 14449
hr@@ 14445
itz@@ 14440
Hermann 14426
Anzahl 14420
Sonder@@ 14404
fest@@ 14403
weise 14396
fall 14382
Rom 14366
32 14363
verband 14353
‘ 14346
Verfügung 14342
gesamte 14342
ic@@ 14340
früher 14327
erfolgreich 14308
Vertreter 14305
keinen 14303
Mer@@ 14293
berger 14289
1937 14282
Baden 14280
form 14278
1951 14270
ost@@ 14258
ehemaliger 14250
wirkte 14247
betrug 14230
Tätigkeit 14217
gegeben 14211
verkehr 14211
cher 14209
Not@@ 14207
China 14204
Bahn@@ 14190
lebt 14188
Handlung 14178
Stadtteil 14177
ano 14165
spiel@@ 14156
Gegensatz 14137
mussten 14136
Unterstützung 14131
+ 14122
Eis@@ 14119
1935 14115
gehörten 14110
Bild@@ 14109
lage 14105
ta 14061
Trainer 14060
Organisation 14058
Fernseh@@ 14055
Halb@@ 14051
gem@@ 14048
macht 14044
Eltern 14042
Max 14039
darüber 14037
vermutlich 14029
zusammen@@ 14029
kur@@ 14014
ei 14007
Ri@@ 14000
Jean 13991
gefunden 13989
Bal@@ 13973
seite 13972
Flug@@ 13960
Verkehr 13958
1930 13956
onen 13940
Au@@ 13935
Metern 13932
führung 13930
James 13927
nie 13923
tor@@ 13922
Du@@ 13917
eller 13916
kn@@ 13906
45 13901
Dresden 13894
ft 13893
for 13888
Ho@@ 13883
George 13836
oben 13833
hof 13826
ör@@ 13826
Berg 13808
ent 13806
World 13804
anlage 13801
Außen@@ 13796
werke 13783
Anlage 13781
vollständig 13778
Su@@ 13773
Kreis@@ 13770
dadurch 13769
istische 13765
gleichzeitig 13741
Verlag 13738
daraufhin 13738
dienst 13729
Soldaten 13717
Gymnasium 13708
om 13701
hoch@@ 13700
bet@@ 13688
ler@@ 13688
26 13675
leitete 13670
End@@ 13655
ini 13653
1@@ 13646
Schüler 13645
gleich 13644
gesellschaft 13643
ski 13642
bietet 13631
Pol@@ 13621
Kr@@ 13609
system 13600
setzt 13583
Hel@@ 13551
einzelnen 13547
zw@@ 13547
frei 13543
Weltmeisterschaften 13542
erwarb 13510
aler 13509
denn 13490
buch 13489
hal@@ 13484
Rot@@ 13481
Dienst 13478
istischen 13471
verließ 13466
Ton@@ 13463
Reich 13445
Dr. 13436
Hof 13436
III. 13419
schul@@ 13408
überwiegend 13402
en- 13400
par@@ 13395
Alle 13391
Hauptstadt 13390
1914 13385
tor 13383
spiele 13379
Stiftung 13376
öffentlichen 13372
do 13368
1928 13367
Anschluss 13367
lagen 13366
Mannschaften 13349
28 13348
Kan@@ 13327
Jugend 13323
indem 13320
nis 13320
Hannover 13297
Verlauf 13292
0@@ 13289
zuletzt 13281
Artikel 13280
Wein@@ 13258
ischem 13253
Fluss 13243
Zwei 13241
nehmen 13235
La@@ 13228
übernommen 13224
leicht 13213
wiederum 13212
baren 13208
gemacht 13205
Einfluss 13198
verb@@ 13197
1929 13193
Dazu 13193
Main 13186
zeigen 13185
ausschließlich 13172
historischen 13172
will 13171
vi@@ 13170
Luft@@ 13157
Bundesliga 13154
ma@@ 13152
š@@ 13152
kirche 13150
Mag@@ 13149
Doppel@@ 13135
Rad@@ 13125
27 13115
Forschungs@@ 13112
einge@@ 13110
van 13101
ober@@ 13091
Pal@@ 13088
400 13087
ose 13087
Kirch@@ 13083
Direktor 13078
Sol@@ 13076
tt@@ 13069
verloren 13059
Rhein@@ 13051
gingen 13044
sogenannten 13043
Minuten 13032
oren 13027
Basis 13022
iten 13021
stellung 13020
Japan 13015
Auftrag 13006
zentrum 13004
isierung 13001
Zusammenhang 12997
aden 12987
mindestens 12987
schl@@ 12978
kt@@ 12975
geh@@ 12961
il 12961
Walter 12957
war@@ 12952
Zusammenarbeit 12949
Verwaltung 12939
gesamten 12939
P 12933
zerstört 12926
Lied 12920
erh@@ 12904
Friedhof 12874
ub@@ 12870
Zeitung 12869
galt 12862
verkauft 12862
pp@@ 12861
la@@ 12856
Papst 12831
jeder 12824
Ha@@ 12823
í@@ 12822
seien 12820
Zeitschrift 12808
Bildung 12805
führten 12805
Dem@@ 12802
1932 12785
Nord 12778
startete 12777
Seiten 12773
entlang 12770
American 12765
kaum 12761
Monate 12759
bestehen 12756
Gl@@ 12755
Anna 12735
Darüber 12730
heutige 12725
oh@@ 12725
sen@@ 12715
Hand@@ 12709
ley 12708
ha 12696
eil 12687
Schauspieler 12686
Grenz@@ 12681
Wappen 12679
no@@ 12676
Graf 12671
Orte 12669
« 12662
V. 12660
Gu@@ 12658
iges 12644
Fußball@@ 12643
sel 12639
1900 12636
River 12631
Umgebung 12618
gebäude 12618
Josef 12617
w 12617
Ländern 12615
Club 12612
oc@@ 12605
Bre@@ 12593
lo@@ 12591
heißt 12589
Charles 12580
tsch@@ 12575
Abteilung 12564
» 12563
Zentral@@ 12558
tel@@ 12551
iss@@ 12542
jährigen 12536
j 12535
wagen 12534
tw@@ 12528
Post@@ 12524
ausgetragen 12520
Gar@@ 12515
Kritik 12504
Kapelle 12503
ium 12502
kt 12494
folgt 12491
großer 12488
eil@@ 12483
erfolgt 12479
tri@@ 12474
ür@@ 12470
br@@ 12457
zer 12457
SV 12451
Mark 12445
Pre@@ 12441
bringen 12427
ex@@ 12417
1970er 12406
Bur@@ 12399
Thema 12395
Selbst@@ 12389
durchgeführt 12389
Autor 12381
weist 12380
Einige 12379
welcher 12378
Stuttgart 12372
katholischen 12368
entdeckt 12359
ata 12354
wald 12350
lin@@ 12346
Em@@ 12342
Darstellung 12339
bildete 12333
Russland 12330
Geb@@ 12323
betrieben 12315
arbeitet 12313
Zürich 12312
tre@@ 12307
Recht 12301
un 12293
Brücke 12275
regelmäßig 12268
bare 12265
1925 12261
1980er 12261
erstes 12248
europäischen 12246
fahrt 12232
österreichischen 12218
Bezirk 12213
Zug@@ 12212
Turm 12197
vers@@ 12196
Fußball 12192
zwölf 12187
Insgesamt 12184
Neben@@ 12183
weiterer 12179
Le 12174
Punkte 12173
Obwohl 12161
voll@@ 12161
Ser@@ 12154
X 12142
Bild 12139
Sub@@ 12135
zusätzlich 12133
Erd@@ 12121
südlichen 12121
erbaut 12116
endes 12115
wahrscheinlich 12098
Hintergrund 12093
Dom@@ 12092
1927 12089
ane 12088
mittel@@ 12086
ün@@ 12083
Verfahren 12081
Bahnstrecke 12079
Schutz@@ 12078
gi@@ 12057
ae 12048
1924 12045
Finanz@@ 12044
ey 12042
eter 12040
if@@ 12039
General@@ 12029
SC 12019
gang 12016
sin@@ 12008
Pr@@ 11999
fort 11996
he@@ 11992
Co@@ 11991
Sar@@ 11974
Vom 11972
sodass 11965
Département 11962
Bürger@@ 11955
kan@@ 11952
Geschäfts@@ 11951
leiter 11948
300 11945
beginnt 11944
Daneben 11926
fin@@ 11922
ya 11916
russischen 11903
Nordosten 11892
Award 11890
ann@@ 11883
führer 11881
ci@@ 11880
‚ 11870
Laufbahn 11862
ay 11853
Privat@@ 11844
erei 11840
gebildet 11839
ats 11837
lief 11835
deshalb 11830
Stück 11821
SPD 11818
Tal@@ 11816
standen 11813
ec@@ 11805
ol 11803
rat@@ 11802
Wochen 11785
no 11784
fe 11783
ati@@ 11781
ade 11778
io 11762
Hei@@ 11749
by 11749
1910 11745
Pi@@ 11733
ett@@ 11732
Schutz 11728
ven 11727
Wil@@ 11724
rechts 11716
TV 11715
75 11712
äl@@ 11710
zeit@@ 11707
weitgehend 11699
ki 11692
genden 11691
Sel@@ 11688
anten 11688
ica 11686
asch@@ 11682
gewinnen 11662
Min@@ 11661
Siedlung 11659
wieder@@ 11659
1960er 11653
Markt 11643
verliehen 11643
Song 11640
lu@@ 11630
1921 11622
Mont@@ 11621
eck@@ 11619
men@@ 11619
anlagen 11597
Königreich 11590
United 11590
verein 11587
1990er 11586
än@@ 11584
Verkehrs@@ 11581
selten 11579
ius 11578
Herbst 11576
endete 11565
ot 11560
rä@@ 11555
relativ 11537
neu@@ 11532
bu@@ 11529
Gold@@ 11528
Erst@@ 11524
1931 11522
Doch 11521
größere 11519
dritte 11514
Mel@@ 11513
anderer 11491
Gegen@@ 11484
geschrieben 11476
alität 11472
Tro@@ 11471
Weltkriegs 11469
bekam 11465
ha@@ 11464
Po@@ 11463
Südwesten 11462
Dor@@ 11455
Amts@@ 11451
Grün@@ 11447
sieht 11432
1923 11417
1926 11415
Halle 11412
Lo@@ 11408
Single 11407
Ortschaft 11404
vertreten 11388
ters 11382
gericht 11379
Daten 11378
dient 11377
Lehrer 11376
gung 11373
Fahrzeuge 11371
erschienen 11362
Anteil 11352
weltweit 11351
reich 11345
italienischen 11341
? 11338
Allerdings 11338
berufen 11337
Hol@@ 11334
Herkunft 11332
Dre@@ 11326
Angaben 11320
Wei@@ 11319
schwer 11319
gr@@ 11318
Grand 11317
Fußballspieler 11313
Open 11296
Chor@@ 11287
36 11285
ō 11285
ill@@ 11281
Tur@@ 11267
inen 11248
rechten 11243
prä@@ 11242
to@@ 11241
westlichen 11234
bei@@ 11230
We@@ 11229
1922 11223
inzwischen 11223
stammen 11223
laut 11222
gespielt 11220
Cal@@ 11213
Teilnehmer 11211
Führung 11206
preis 11205
Burg@@ 11203
Kre@@ 11201
Bet@@ 11196
alt 11196
ek 11196
Sammlung 11193
Reich@@ 11190
pf@@ 11189
Tor 11186
reichen 11183
ug@@ 11182
Hinter@@ 11173
65 11162
Kampf 11155
Festival 11153
Wieder@@ 11151
Großen 11148
hi@@ 11148
1912 11143
All@@ 11139
alb@@ 11139
jährlich 11133
Stunden 11130
Rudolf 11119
Forschung 11110
Laufe 11109
Nordwesten 11103
Tier@@ 11101
Auswahl 11093
min@@ 11093
Nor@@ 11089
Spanien 11084
nördlichen 11075
hoch 11073
Staat 11071
geprägt 11066
tel 11058
versch@@ 11058
größeren 11055
vorhanden 11045
genannten 11039
Maler 11020
fahr@@ 11020
bt 11006
geworden 11003
Kategorie 11001
Schriftsteller 10992
dt 10991
reg@@ 10988
Beide 10982
tragen 10982
ank@@ 10981
englischen 10980
schnell 10980
iker 10979
Hu@@ 10977
Philosophie 10974
Louis 10972
Weise 10971
Ges@@ 10970
ko 10959
sw@@ 10952
att@@ 10948
Möglichkeit 10944
mannschaft 10943
Mi@@ 10937
Ag@@ 10932
Betriebs@@ 10930
rück@@ 10929
Programm 10927
dagegen 10927
Punkten 10925
kal@@ 10925
ors 10921
stre@@ 10917
Stamm@@ 10911
Steuer@@ 10905
Regie 10901
etz@@ 10900
1,@@ 10894
Wolfgang 10892
ales 10883
sogenannte 10881
fallen 10879
Südosten 10877
ungsp@@ 10877
verfügt 10875
ks 10872
arten 10871
inne 10870
Großbritannien 10854
stein@@ 10850
Kind 10849
Typ 10835
Größe 10831
Fern@@ 10826
Hor@@ 10826
Sa@@ 10818
Wol@@ 10817
Stimmen 10807
Ba@@ 10804
Veröffentlichung 10798
th 10797
Ergebnis 10793
Abschnitt 10784
Württemberg 10779
unternehmen 10771
Modell 10761
Mat@@ 10759
Städte 10755
ner@@ 10746
Hal@@ 10744
nord@@ 10742
Ter@@ 10739
amm@@ 10737
iner 10737
produziert 10735
arbeit 10732
leitung 10731
vierten 10730
trug 10718
enbach 10712
Familien 10697
Handels@@ 10696
beschrieben 10687
0,@@ 10685
Q@@ 10684
und@@ 10679
Wind@@ 10677
bes@@ 10676
Gelände 10675
jeweiligen 10674
berg@@ 10673
.000 10671
me@@ 10670
wichtige 10670
Dar@@ 10660
eingestellt 10653
Lang@@ 10650
Albert 10642
weiter@@ 10632
höchsten 10629
Erfolge 10616
Verbreitung 10609
Gleich@@ 10607
Z 10603
At@@ 10601
dem@@ 10601
Sand@@ 10592
Krieges 10584
früheren 10577
Te@@ 10576
Nutzung 10574
Renn@@ 10573
29 10566
Aufgaben 10565
jungen 10563
sah 10561
Folgen 10555
außerhalb 10554
kre@@ 10553
Juden 10547
Wirken 10544
lauf 10543
Bewegung 10538
les 10533
31 10526
darin 10515
rü@@ 10513
ziehen 10510
Gel@@ 10505
tungen 10504
ön@@ 10503
enthalten 10496
dar@@ 10494
Ehefrau 10492
Tore 10489
H 10487
get@@ 10487
mat@@ 10485
33 10473
Vier@@ 10471
ßen 10471
ds 10463
onlyinclude 10457
Familien@@ 10456
ese 10455
hervor 10452
erw@@ 10450
gek@@ 10433
Boden 10431
best@@ 10424
San@@ 10423
co 10423
1913 10413
eingeführt 10408
Hessen 10407
bestritt 10407
gelegenen 10407
Kern@@ 10399
Frage 10397
Eisenbahn@@ 10395
Los 10395
könnte 10394
34 10393
Rei@@ 10392
Royal 10389
ren@@ 10385
uss@@ 10384
Qualifikation 10381
ani 10376
ologische 10374
enti@@ 10371
č@@ 10368
film 10356
Voll@@ 10348
Kol@@ 10342
internationale 10338
hält 10332
inn@@ 10332
bekannten 10331
Lau@@ 10327
Körper@@ 10326
Turnier 10323
mehrfach 10305
Dienst@@ 10299
Tal 10299
Kopf 10297
Vergleich 10296
rechte 10296
zeigte 10291
Mark@@ 10290
öl@@ 10282
Grafen 10278
tionen 10276
nichts 10272
Merkmale 10266
gesetz 10264
els@@ 10259
bedeutet 10252
punkt 10249
Orgel 10243
Lin@@ 10238
Schwester 10237
1911 10235
elf 10235
gerade 10233
Herzog 10231
Motor 10219
su@@ 10214
Wert 10212
Island 10211
Regierungs@@ 10211
ce 10209
ähnlich 10203
fläche 10199
1000 10195
assen 10194
ev@@ 10188
wissenschaftlichen 10186
Inseln 10184
S. 10179
sberg 10170
SS 10168
gesetzt 10167
hätte 10164
trotz 10163
Vaters 10158
hingegen 10151
Hand 10140
64 10139
Wagen 10131
wäre 10129
Pet@@ 10125
neuer 10120
Ungarn 10115
anz 10113
wei@@ 10113
Schön@@ 10112
Bundesstaat 10108
Washington 10108
Westfalen 10108
offiziell 10106
Durch@@ 10103
Nur 10094
unterstützt 10082
Fre@@ 10071
Is@@ 10071
Kat@@ 10067
Architektur 10066
Bremen 10052
gleichnamigen 10052
Ol@@ 10051
Gro@@ 10050
Sprach@@ 10048
anische 10048
aufgelöst 10040
ms 10039
verfahren 10038
gegründeten 10035
jahr 10034
Herren 10033
bo@@ 10027
gruppen 10012
abge@@ 10010
teils 10010
lich@@ 10002
Süd 9986
igkeit 9984
Frühjahr 9980
kar@@ 9979
katholische 9967
Kindern 9963
König@@ 9962
Schweden 9962
Mari@@ 9961
W 9954
of@@ 9952
Rö@@ 9948
Themen 9948
Val@@ 9944
erhielten 9941
Frauen@@ 9937
wert 9935
Jazz 9927
geschlossen 9923
stoff@@ 9923
zählt 9923
verwaltung 9922
alter 9921
55 9918
Gi@@ 9918
bild 9917
formen 9917
ron@@ 9912
EU 9909
38 9908
inter@@ 9905
Chi@@ 9895
Quellen 9895
Grundlage 9892
Bank 9891
ordnung 9890
äu@@ 9889
1907 9884
Innen@@ 9884
rit@@ 9884
sheim 9884
Tar@@ 9876
aufge@@ 9874
zugleich 9873
1.@@ 9845
Heiligen 9845
Landwirtschaft 9845
Com@@ 9844
gemeinde 9843
Hör@@ 9842
ara 9838
Opfer 9826
ns 9824
Sowjetunion 9821
Bes@@ 9818
ve 9817
wider@@ 9812
heit 9807
Deutsch 9798
umbenannt 9797
jährige 9790
yn@@ 9790
Met@@ 9785
Schulen 9781
obwohl 9781
Teilen 9780
entspricht 9779
ari@@ 9777
d. 9777
emp@@ 9775
ver 9775
Wald 9774
mp@@ 9771
verantwortlich 9768
bewegung 9767
wenigen 9763
tal 9761
ül@@ 9761
ären 9751
Winter 9749
Aufgabe 9740
tigkeit 9739
ite 9736
namens 9735
entsprechend 9734
stellten 9732
1905 9725
ville 9723
ord@@ 9720
üch@@ 9707
Schon 9694
Tre@@ 9693
werde 9690
rich@@ 9689
Rückkehr 9686
linie 9679
Schiffe 9677
gh@@ 9677
2022 9670
sl@@ 9670
schließen 9666
Noch 9658
legen 9655
ó@@ 9652
erweitert 9649
erg@@ 9643
pr@@ 9643
ore 9640
Straßen@@ 9630
weiteres 9630
sur 9629
Ebene 9626
unbe@@ 9626
1917 9623
neues 9621
asse 9619
Wettbewerb 9618
Hin@@ 9617
traf 9616
Söhne 9614
eit 9614
west@@ 9614
1908 9613
Sinne 9612
Aufbau 9611
och@@ 9610
verlassen 9609
Christ@@ 9604
ella 9601
ise 9594
Tiere 9587
wichtigsten 9587
Distrikt 9586
solche 9586
ase 9585
sprache 9585
aren 9584
Teams 9583
gebiete 9575
Adolf 9570
ierter 9569
dahin 9568
linken 9568
chen@@ 9567
Marie 9553
Viele 9553
Grab@@ 9550
bestimmt 9547
Rat 9546
änge 9545
Brand@@ 9542
Präsidenten 9541
Il@@ 9530
Kurz@@ 9530
versuchte 9529
Ost 9521
Wort 9518
ola 9509
höchste 9508
Prä@@ 9505
met@@ 9504
gte 9502
weiß 9499
× 9493
traten 9490
Technik 9489
Heimat@@ 9485
Berufs@@ 9484
isiert 9481
Person 9480
Dreh@@ 9479
schied 9470
junge 9469
Moskau 9468
A. 9463
Star@@ 9463
est 9460
strecke 9460
Leit@@ 9458
WM 9449
beg@@ 9442
Pan@@ 9441
gemäß 9432
Werdegang 9431
Müller 9427
Station 9421
Bro@@ 9417
britische 9407
Sam@@ 9398
groß 9396
Bei@@ 9394
band 9393
Motor@@ 9392
res@@ 9388
PS 9378
älteste 9376
Band@@ 9375
Air 9371
Ban@@ 9368
art@@ 9367
aw@@ 9363
gemeinschaft 9357
Gest@@ 9356
tungs@@ 9355
hergestellt 9352
Frank 9349
äh@@ 9347
Düsseldorf 9343
Regional@@ 9339
burger 9332
fuhr 9331
ag 9326
flächen 9326
ven@@ 9326
Arbeit@@ 9324
Leistung 9324
bekannte 9324
eingerichtet 9323
1906 9318
Aufstieg 9318
37 9317
Objekte 9317
fließt 9315
gehalten 9305
fach@@ 9304
Gründen 9303
mann@@ 9298
1950er 9297
elt@@ 9294
bauten 9288
ack@@ 9284
klasse 9284
kg 9283
pro@@ 9282
Sc@@ 9276
grenzt 9272
blieben 9270
fällt 9266
kreis 9264
Hektar 9263
del@@ 9261
schrift 9260
Heim@@ 9259
42 9257
Laut 9257
15@@ 9250
Niederlage 9247
Gesetz 9245
44 9242
Musiker 9239
Medien 9236
De 9234
h. 9232
zogen 9232
abteilung 9230
dung 9228
Polizei 9220
oberen 9220
Andreas 9216
römisch 9215
Super@@ 9213
ath@@ 9211
mal@@ 9210
Ergebnisse 9207
ir 9207
etten 9206
que 9205
amp@@ 9203
Halbfinale 9202
baute 9196
Wegen 9192
Werner 9190
Gal@@ 9189
Col@@ 9187
Vol@@ 9187
versucht 9185
aut@@ 9183
Lei@@ 9178
ly 9178
besaß 9176
Dem 9172
Zwei@@ 9172
ies 9171
lingen 9171
Philipp 9170
liegenden 9168
preußischen 9167
Win@@ 9166
mo@@ 9166
CDU 9154
Interesse 9153
san@@ 9153
Im@@ 9151
mi@@ 9145
Gut 9143
iel@@ 9143
Architekten 9142
Einführung 9142
tion@@ 9141
zählen 9141
allein 9131
äch@@ 9130
mittels 9125
fte 9112
tritt 9111
Ortes 9109
dargestellt 9107
Del@@ 9106
Weiteren 9105
&#124; 9103
Abitur 9101
Wenn 9101
tions@@ 9098
Ben@@ 9097
wissenschaftliche 9096
gewicht 9091
4,@@ 9089
Brandenburg 9080
Kraft 9080
erscheint 9077
ah 9072
kom@@ 9070
So@@ 9067
ro 9064
Wirkung 9059
jüdischen 9059
erklärt 9057
Zentimeter 9051
verbreitet 9047
Char@@ 9043
verlegt 9041
Ach@@ 9040
eck 9036
1909 9035
ion@@ 9031
erer 9030
Sommer@@ 9018
angeboten 9015
Sprachen 9009
zahlen 9008
Winter@@ 8999
á 8995
beschäftigt 8994
mehr@@ 8993
J. 8982
wodurch 8980
unden 8974
tra@@ 8972
Europäischen 8971
kleiner 8966
Bonn 8965
Company 8965
ligen 8964
ebenda 8963
setzen 8962
Gold 8961
Weltkrieges 8961
Australien 8959
Aut@@ 8958
südwestlich 8957
Auszeichnungen 8952
Vi@@ 8948
eit@@ 8944
oli@@ 8942
bus 8929
Records 8927
nationalen 8926
Dach@@ 8912
nominiert 8905
Chor 8901
stell@@ 8899
Bra@@ 8895
Werk@@ 8893
Wel@@ 8887
39 8885
unmittelbar 8883
Mur@@ 8882
Raum@@ 8878
du@@ 8875
römischen 8871
digen 8869
gezeigt 8868
genau 8865
ze@@ 8862
zeichen 8858
zuerst 8857
isen 8854
östlichen 8853
kel 8852
esen 8849
Hamburger 8848
eins 8848
teil@@ 8839
ologe 8838
ian 8835
Kap@@ 8834
Jahres@@ 8831
Rock 8831
nisse 8829
Verband 8827
wirtschaft 8821
Punkt 8820
1904 8818
Fritz 8818
Mehr@@ 8814
brücke 8813
Fer@@ 8812
breit 8810
Les@@ 8805
Alfred 8804
Anton 8804
Bücher 8803
Bezirks@@ 8792
Erste 8792
ther@@ 8786
Si@@ 8781
Nummer 8780
Boden@@ 8774
ann 8772
res 8762
ander@@ 8760
tiert 8758
Mess@@ 8749
südöstlich 8743
ł@@ 8740
1915 8735
chten 8731
fahren 8731
unterschiedlichen 8725
Rat@@ 8722
Heimat 8715
ren 8714
essen 8713
Liebe 8711
historische 8709
gende 8706
schafts@@ 8705
ungs- 8705
Studien 8704
alismus 8703
48 8701
gs 8700
Partei@@ 8693
freien 8693
gra@@ 8692
ges 8690
Rein@@ 8688
Angeles 8684
Gesch@@ 8679
tem 8676
Rhein 8674
cht@@ 8674
cker 8672
lei@@ 8664
französischer 8662
Standort 8660
lin 8653
Nacht 8642
Mil@@ 8639
2,@@ 8626
Des 8624
bleibt 8622
Kra@@ 8617
Fernsehen 8616
wasser@@ 8613
Sie@@ 8612
Daniel 8607
ars 8606
mühle 8606
sk 8602
Ausgabe 8601
Debüt 8601
Häuser 8600
Gew@@ 8599
Schauspielerin 8598
Preußen 8595
Internationalen 8594
mittel 8593
Henry 8589
Ham@@ 8587
Tsch@@ 8584
bestimmten 8584
cke 8581
Kurz 8579
Sport 8576
Leistungen 8575
Pe@@ 8571
net 8570
Elisabeth 8562
theorie 8556
Mos@@ 8551
Quelle 8551
app@@ 8549
Seiten@@ 8548
Mc@@ 8547
Lauf 8544
beste 8544
würden 8542
zweimal 8542
Fel@@ 8540
Por@@ 8540
tiger 8539
Parlament 8523
Flughafen 8522
off 8522
Fe@@ 8521
gelten 8520
Text 8516
ho@@ 8513
Regisseur 8512
geschaffen 8512
Ku@@ 8510
Villa 8510
ca 8505
dienst@@ 8503
wand 8503
Start 8502
State 8501
Theater@@ 8500
atoren 8499
ante 8494
tierte 8494
tro@@ 8494
belegt 8484
spielten 8484
teten 8478
Pat@@ 8477
utz@@ 8475
ure 8472
Kanada 8462
Trotz 8460
anzu@@ 8458
1903 8457
gegründete 8453
vertrat 8449
As@@ 8448
Auflösung 8446
nordwestlich 8437
Films 8435
ion 8435
Sänger 8424
Weg@@ 8424
Stre@@ 8423
forschung 8420
Des@@ 8419
Han@@ 8419
Informationen 8417
Nürnberg 8412
uten 8411
Situation 8406
entschied 8406
Bri@@ 8405
kurze 8405
errichtete 8401
Pfarrkirche 8399
schließt 8398
for@@ 8393
polnischen 8391
Richter 8390
Wall@@ 8383
verkaufte 8381
Aufnahme 8380
nordöstlich 8374
bildung 8366
sport@@ 8363
zugeordnet 8363
Probleme 8362
Erzbischof 8359
reicht 8359
gewonnen 8358
ov 8357
Straf@@ 8356
erkennen 8352
heraus@@ 8349
Durchmesser 8343
Christoph 8342
lose 8341
uch@@ 8339
Men@@ 8338
ehe 8336
ew@@ 8335
Gre@@ 8332
Sti@@ 8331
Autoren 8330
turm 8327
erklärte 8322
1916 8320
bezeichnete 8317
ierungen 8312
Top 8310
min 8305
800 8296
Ob@@ 8292
stätte 8289
CD 8286
South 8286
Ac@@ 8281
wesen 8281
Rem@@ 8280
Pfarrer 8266
Radio 8266
52 8265
verfasste 8264
Fisch@@ 8263
Ferdinand 8262
ets 8260
iel 8258
Bon@@ 8255
Straßen 8251
Münster 8250
Beziehungen 8247
Fakultät 8247
bleiben 8247
station 8245
51 8244
Ball@@ 8244
Kin@@ 8244
jetzt 8243
zunehmend 8242
Kommission 8239
Besch@@ 8238
zug@@ 8238
Ehren@@ 8237
va 8233
ologischen 8231
Freiburg 8222
Mittelalter 8222
asi@@ 8221
Ausstellung 8218
Literatur@@ 8218
angelegt 8217
Freund 8215
up@@ 8212
erstreckt 8211
Fenster 8206
Kirchen 8206
za 8198
1902 8197
ā@@ 8192
5,@@ 8189
Dorf@@ 8187
Dis@@ 8179
Erde 8176
Far@@ 8175
Bewohner 8174
§ 8173
id 8171
ong 8165
gu@@ 8161
Prot@@ 8157
organisation 8156
übertragen 8154
werken 8149
eng 8139
bert 8137
Schwer@@ 8128
sport 8125
ganze 8124
Ich 8119
Ke@@ 8109
ga 8108
geborene 8106
Besetzung 8104
barkeit 8104
promoviert 8104
tur@@ 8104
Kam@@ 8103
löste 8102
fälle 8098
Bach 8097
scher 8095
House 8093
Kosten 8093
Öffentlichkeit 8092
bestimmte 8091
name 8089
600 8087
lang@@ 8086
ena 8079
Regiment 8077
daran 8077
Formen 8075
Filme 8074
modernen 8074
Geld 8073
41 8070
unk@@ 8070
jede 8068
kor@@ 8066
Ä@@ 8053
Einheit 8051
fe@@ 8050
ice 8050
spricht 8050
Teilnahme 8047
85 8046
rechts@@ 8045
dr@@ 8039
gem 8039
Brüder 8037
eig@@ 8037
stets 8035
lands 8033
1901 8029
gelegene 8026
Eigenschaften 8025
außer 8023
japanischen 8020
lung 8020
Gustav 8018
züge 8016
weit@@ 8010
dienen 8007
Revolution 8005
Ni@@ 8001
gar 8001
Königs 8000
ind@@ 7998
teilen 7994
Geh@@ 7992
rot@@ 7979
Anwendung 7975
besitzen 7975
Titel@@ 7974
ou 7973
stoff 7969
achten 7965
öffentliche 7965
lers 7962
43 7961
starken 7960
Mädchen 7958
Hil@@ 7957
Mu@@ 7957
enstein 7955
ud@@ 7953
6,@@ 7952
Spitze 7948
eigentlich 7946
ierungs@@ 7945
är 7943
elten 7941
wa 7940
umfasste 7938
Dadurch 7935
anstalt 7932
Szene 7930
beck 7928
Anti@@ 7926
zuständig 7925
Bürger 7923
Weiß@@ 7920
Infrastruktur 7915
gelegt 7915
Herstellung 7913
seitdem 7913
ließen 7905
Music 7904
IV. 7898
adi@@ 7895
Society 7893
Länder 7892
Lö@@ 7889
150 7887
wasser 7885
95 7878
geschlagen 7876
Deutschlands 7873
1848 7869
alles 7868
Gas@@ 7866
Pri@@ 7856
Pfalz 7851
tete 7851
ats@@ 7848
elte 7843
aufgestellt 7840
fabrik 7838
nahezu 7834
Jung@@ 7828
Polizei@@ 7826
len@@ 7820
unde 7819
unterhalb 7818
ken@@ 7817
7,@@ 7816
gens 7815
Rom@@ 7813
ili@@ 7808
Geografie 7807
po@@ 7806
mündet 7805
Bern@@ 7802
hen 7800
mittlerweile 7800
North 7796
aufgeführt 7796
Fri@@ 7794
Theologie 7794
gesehen 7794
freie 7789
schn@@ 7789
Tradition 7788
markt 7787
ons@@ 7787
Drei 7786
Glas@@ 7784
itt@@ 7783
Salz@@ 7782
Schauspiel@@ 7782
Stein 7770
mün@@ 7770
Nar@@ 7768
grenze 7768
ele 7766
2.@@ 7765
Kraft@@ 7765
osen 7763
1898 7761
ita 7760
fel@@ 7750
Don@@ 7747
1899 7741
46 7741
Str@@ 7740
entweder 7736
gten 7725
alisierung 7716
Jan 7715
Bilder 7714
III 7713
Stahl@@ 7713
tive 7713
Pap@@ 7712
leitet 7708
bor@@ 7701
Fin@@ 7699
har@@ 7699
Alben 7694
aufgebaut 7694
ft@@ 7692
Küste 7687
ay@@ 7687
losen 7686
vertrag 7685
brach 7684
ders 7684
museum 7681
wesentlich 7681
ula 7680
ac 7679
ser 7679
49 7676
verstarb 7672
bahn@@ 7670
Gebiete 7669
unteren 7667
Hoh@@ 7666
Pra@@ 7665
Indien 7658
ker@@ 7658
schlag 7656
Bildungs@@ 7654
begonnen 7653
cken 7649
abgeschlossen 7645
ip@@ 7645
ada 7644
gaben 7644
71 7643
hätten 7640
Mitgliedern 7637
besetzt 7634
ursprünglichen 7634
Wild@@ 7630
NS 7627
eröffnete 7625
Kalifornien 7623
47 7622
Ring@@ 7618
ef@@ 7617
hol@@ 7613
C. 7612
lichem 7612
Eck@@ 7610
nahme 7608
abzu@@ 7605
dre@@ 7605
gemeinsamen 7600
Bas@@ 7593
kleinere 7593
1890 7590
itäts@@ 7585
Vereine 7584
begannen 7584
gekommen 7582
Bezug 7577
voll 7577
Stadion 7576
Einheiten 7574
treten 7573
Hockey 7572
Tagen 7572
Parteien 7570
schiff 7570
Millimeter 7568
Pos@@ 7568
Lehre 7564
ym@@ 7562
Radi@@ 7556
Aufnahmen 7555
Neubau 7551
Entstehung 7547
Tu@@ 7544
iti@@ 7544
Macht 7541
Ul@@ 7540
zahl 7539
Vereins 7538
bot 7536
53 7534
Körper 7531
rei@@ 7531
Sor@@ 7530
ften 7528
54 7527
Zusammen 7527
aj@@ 7521
ard@@ 7521
Ehr@@ 7520
56 7519
verbrachte 7519
É@@ 7519
Gem@@ 7518
spar@@ 7518
Besuch 7517
li 7517
Stellung 7516
Baum@@ 7515
Umwelt@@ 7515
nitz 7514
uk@@ 7514
wal@@ 7513
weite 7510
jedes 7509
Konzept 7507
iken 7506
zy@@ 7506
plan@@ 7504
schuf 7500
ausgestattet 7497
angegeben 7496
graben 7495
stehenden 7494
Daher 7491
Kos@@ 7490
Untersuchungen 7488
Hall 7483
ings 7483
späten 7478
Landtag 7477
Druck 7476
Große 7475
Chicago 7472
pol@@ 7472
spätere 7471
ff 7469
Druck@@ 7467
Pierre 7467
musik 7466
jedem 7458
älteren 7456
hinzu 7454
Sau@@ 7453
zählte 7453
Geld@@ 7452
Santa 7452
links 7449
felder 7447
lag@@ 7442
einzigen 7439
Ly@@ 7438
dortigen 7438
Mac@@ 7432
M. 7431
lauf@@ 7430
Kampf@@ 7428
Meer 7427
63 7424
Formel 7420
Fil@@ 7415
Sen@@ 7415
hei@@ 7415
zweiter 7414
Wahlkreis 7413
hren 7413
Erb@@ 7411
Licht@@ 7409
öh@@ 7409
ort@@ 7407
liegende 7404
Status 7403
erhoben 7403
Sim@@ 7401
Rechte 7399
0er 7395
Ir@@ 7394
unten 7394
ari 7391
Eigen@@ 7389
1895 7388
dor@@ 7386
Gericht 7384
Zunächst 7384
acher 7383
1896 7381
bild@@ 7381
Theorie 7378
Gerichts@@ 7377
Kontakt 7377
Mas@@ 7377
kennen 7377
68 7376
Hotel 7373
Lieder 7371
Sieger 7371
ali@@ 7371
befördert 7371
1870 7370
Mio. 7370
Städten 7369
serie 7367
Daraufhin 7365
fre@@ 7365
struktur 7365
Figuren 7363
Stra@@ 7362
Ausland 7356
Nordrhein 7356
Jakob 7353
Zeiten 7351
Züge 7351
Bus@@ 7348
bro@@ 7348
í 7347
mar 7341
lern 7338
Ap@@ 7336
schlug 7336
verschiedener 7333
Tode 7332
mäßig 7332
Medizin 7330
üt@@ 7329
Werken 7328
besondere 7328
96 7326
Prozess 7323
Lie@@ 7321
Bank@@ 7316
zeiten 7315
uren 7310
Kammer@@ 7309
ech@@ 7308
theater 7306
por@@ 7304
schwer@@ 7302
Angriff 7300
ack 7298
Prag 7297
Meisterschaften 7296
Förderung 7294
Schleswig 7294
uf@@ 7294
66 7292
Entscheidung 7292
72 7291
anti@@ 7291
geplant 7288
ministerium 7288
Fr@@ 7284
ographie 7284
unterschiedliche 7284
ika 7283
Heidelberg 7281
rau@@ 7280
iers 7278
ř@@ 7272
Ka@@ 7271
ri 7270
tische 7270
ai@@ 7269
Wehr@@ 7268
Basel 7266
recht@@ 7259
Kreuz 7258
Ziel@@ 7257
Ram@@ 7256
kop@@ 7256
Rand 7255
rich 7255
Amtszeit 7254
Früh@@ 7253
Mannschafts@@ 7253
Kloster@@ 7252
kurzen 7250
Mühl@@ 7246
Cl@@ 7245
griechischen 7245
1,5 7242
bew@@ 7242
Association 7234
Einwohnerzahl 7233
beziehungsweise 7232
gern 7230
handelte 7229
spanischen 7228
Die@@ 7225
ž@@ 7224
Zustand 7219
benutzt 7219
arbeit@@ 7209
Schriften 7208
Institute 7204
Markt@@ 7204
Netz@@ 7204
Spezial@@ 7203
1897 7202
High 7201
Rund@@ 7201
tu@@ 7200
Elemente 7196
reihe 7192
wirken 7191
57 7189
Beziehung 7188
verl@@ 7186
Gleichzeitig 7184
Sankt 7183
ativen 7183
achen 7182
witz 7178
vorwiegend 7175
ierenden 7173
1871 7172
Hy@@ 7172
völlig 7170
tä@@ 7169
zufolge 7168
Gut@@ 7165
Feuer@@ 7164
zentrale 7163
gute 7158
m. 7157
Marine 7156
beschreibt 7156
Vereinigung 7154
Wand@@ 7153
67 7152
Verhältnis 7152
amen 7150
wi@@ 7150
des@@ 7149
treffen 7149
schaft@@ 7148
Boot 7145
Elektro@@ 7145
Gemein@@ 7145
werks 7144
Wander@@ 7141
bislang 7138
Dra@@ 7131
Nachbargemeinden 7130
wir@@ 7130
Heinz 7128
Abgeordneter 7127
Jan@@ 7123
Sei@@ 7123
Charts 7117
ed 7117
Natur 7112
My@@ 7110
Sehenswürdigkeiten 7108
Farb@@ 7105
Figur 7105
Mexiko 7104
Einrichtungen 7102
hervor@@ 7099
Test@@ 7097
Schwerpunkt 7094
Einsatz@@ 7091
ältesten 7090
versehen 7087
Ebenfalls 7084
Reise 7084
übrigen 7084
Tau@@ 7083
Lig@@ 7082
Mainz 7080
park 7079
eben 7077
Leg@@ 7073
Beruf 7072
Wi@@ 7072
tal@@ 7072
bern 7071
British 7068
sa@@ 7068
Arrondissement 7065
großes 7065
Staat@@ 7061
99 7059
nieder 7057
erinnert 7056
besser 7055
Friedens@@ 7053
Universitäten 7050
Fragen 7049
Strom@@ 7046
ative 7046
ück@@ 7044
Can@@ 7040
produktion 7039
sprechen 7039
aff@@ 7038
leg@@ 7038
Öl@@ 7035
aner 7033
Gott 7030
88 7028
Kauf@@ 7025
Ritter@@ 7020
hel@@ 7018
Idee 7016
ungefähr 7014
politisch 7013
Komponist 7010
Ufer 7007
Arts 7004
starke 7004
wechsel 7004
Bistum 7001
ora 6998
Holz 6997
Top@@ 6996
win@@ 6995
digung 6991
schutz@@ 6990
natur@@ 6987
dig 6984
Zeitraum 6983
Sil@@ 6980
enes 6980
Do@@ 6978
Produktions@@ 6975
Industri@@ 6974
benannte 6974
geb 6971
rates 6970
62 6969
Gau@@ 6968
endet 6968
ih@@ 6967
könne 6967
verurteilt 6965
Klaus 6964
schweren 6960
Bol@@ 6959
eigen@@ 6957
76 6956
pre@@ 6956
Ju@@ 6953
Son@@ 6952
seh@@ 6952
Tonnen 6950
AS@@ 6946
Schn@@ 6946
eich@@ 6941
owa 6940
98 6939
Wahlen 6939
Bundesrepublik 6934
Ph@@ 6933
kirchen 6933
Songs 6930
satz 6930
istisch 6929
Abs 6928
fs 6927
Einrichtung 6926
atz@@ 6926
parallel 6926
legt 6925
All 6923
Schwarz@@ 6921
asen 6921
Pu@@ 6917
Silber@@ 6917
shaus 6916
österreichischer 6916
wir 6914
Jur@@ 6912
son@@ 6912
Ausstattung 6908
Sach@@ 6908
Academy 6907
vorgesehen 6902
hoher 6898
ät@@ 6896
einschließlich 6891
05 6888
erhält 6880
ick@@ 6879
Ann@@ 6875
Zwischen@@ 6875
iens 6875
Inhalt 6870
Ker@@ 6870
leistung 6867
Hersteller 6866
Op@@ 6863
bin@@ 6861
Ausnahme 6859
Hö@@ 6858
ona 6858
Poly@@ 6856
Veranstaltungen 6856
1893 6854
ast 6853
grund@@ 6852
weder 6851
Lake 6850
hand@@ 6846
wirtschaftlichen 6845
op 6843
Zivil@@ 6841
04 6840
Breite 6838
Wissenschaften 6838
rot 6837
Grafschaft 6832
wollen 6829
Syn@@ 6828
Dänemark 6826
Lebens 6826
Handel 6825
chte 6825
Ant@@ 6824
elles 6820
Nicht 6818
Oper 6817
58 6813
international 6812
Klosters 6811
Rau@@ 6811
Nov@@ 6806
ls 6801
Braunschweig 6800
Pil@@ 6800
entlassen 6800
bung 6798
Ta@@ 6797
Lor@@ 6794
folge 6793
amb@@ 6792
Mol@@ 6791
Gor@@ 6787
gezogen 6787
minister 6787
promovierte 6787
Bernhard 6785
Kurt 6783
schutz 6783
Eich@@ 6781
Monaten 6779
Gegner 6778
Sonn@@ 6778
Lag@@ 6776
Schmidt 6776
ans@@ 6776
Minister 6774
nannte 6773
1850 6770
61 6770
77 6770
ös@@ 6770
El 6769
Da@@ 6768
falls 6768
Zweit@@ 6766
fen@@ 6766
verein@@ 6765
folgen 6762
lernte 6760
Struktur 6759
ote 6756
Metal 6755
nung 6754
³ 6753
Weibchen 6752
einzelne 6752
Gemeindegebiet 6750
Pfarr@@ 6747
74 6745
Großteil 6745
Herz@@ 6745
Mehrheit 6742
Halbinsel 6740
dens 6738
damalige 6735
Kir@@ 6734
unterscheiden 6732
nennt 6731
Türkei 6730
Ed@@ 6728
Mus@@ 6728
Zugang 6728
Bauern@@ 6726
nationale 6725
Go@@ 6724
Maßnahmen 6724
Vorder@@ 6724
betrachtet 6723
zweit@@ 6722
Lam@@ 6719
breite 6719
heit@@ 6719
deutschsprachigen 6716
bestätigt 6714
öffentlich 6714
Aktivitäten 6710
technischen 6710
erungs@@ 6709
verpflichtet 6709
Theodor 6708
groß@@ 6706
No@@ 6703
Besitzer 6702
Initiative 6695
Nachbar@@ 6692
Roten 6691
Label 6686
Landschaft 6686
oph@@ 6686
Kas@@ 6685
Bayerischen 6683
Reis@@ 6682
möglicherweise 6682
ile 6679
1880 6678
Kun@@ 6676
Dan@@ 6672
Rezeption 6671
atur 6671
Š@@ 6670
Zug 6669
Regionen 6665
Fällen 6664
Europameisterschaften 6663
Fal@@ 6663
Energie@@ 6662
derzeit 6659
1892 6657
reise 6657
versetzt 6657
Sy@@ 6656
Neue 6654
berichtet 6653
führenden 6653
ě@@ 6651
urkundlich 6650
Tag@@ 6649
Versuch 6649
fein@@ 6646
Zeichen 6645
Schiff@@ 6644
Ritter 6642
bur@@ 6642
94 6640
heiligen 6637
sprach 6637
86 6636
Belgien 6634
Eing@@ 6633
elli 6633
Kiel 6629
8,@@ 6627
Europameisterschaft 6627
erreichten 6626
59 6625
Essen 6625
ologisch 6625
Studenten 6624
licht 6624
stri@@ 6623
Roh@@ 6621
kraft 6618
tion 6614
ganzen 6613
ins@@ 6612
rie@@ 6612
ly@@ 6610
druck 6609
ppe 6607
08 6606
Bru@@ 6606
familie 6603
erne 6601
getrennt 6599
Gegen 6598
bs 6598
eigenes 6595
ny 6588
ide@@ 6586
Königin 6585
zeitweise 6585
Erz@@ 6582
Ulrich 6582
Rheinland 6580
3,@@ 6579
Ordnung 6574
1885 6573
Os@@ 6572
Heil@@ 6570
förmig 6569
The@@ 6567
angesehen 6565
gelegentlich 6564
industrie 6564
Aber 6562
Kongress 6562
ativ 6562
Bestandteil 6561
Klub 6561
Mittel 6560
ole 6560
bruch 6559
Hall@@ 6555
namen 6555
ock@@ 6555
ute 6552
tum 6550
Beg@@ 6548
Infanterie 6548
schlag@@ 6548
garten 6547
einfach 6546
nt 6545
zieht 6545
Errichtung 6543
Group 6543
iere 6543
richtung 6543
Bern 6542
sozial@@ 6541
reich@@ 6540
blatt 6537
Fuß 6535
fünf@@ 6534
1888 6533
vorher 6533
wel@@ 6532
tag 6531
gemeinsame 6528
far@@ 6527
Untersuchung 6525
ahl 6525
Alten@@ 6522
anders 6521
miteinander 6520
Fort@@ 6516
getragen 6514
gefähr@@ 6512
Energie 6509
Silber 6509
the@@ 6509
werk@@ 6509
tieren 6507
Hafen 6502
auszu@@ 6502
wirtschaftliche 6502
Person@@ 6500
93 6498
anfangs 6498
Seg@@ 6496
befanden 6496
bek@@ 6496
à 6496
q@@ 6495
Lan@@ 6493
Pflanzen 6493
Center 6490
Gouverneur 6490
Holstein 6490
erlangte 6488
sal@@ 6485
ib@@ 6483
tigt 6481
Bronzemedaille 6479
H. 6477
tiv@@ 6477
offiziellen 6475
gend 6471
Football 6469
gers 6469
tliche 6467
wen@@ 6467
Bibliothek 6463
ø@@ 6463
Cap@@ 6462
78 6456
Star 6456
Trau@@ 6456
dungen 6455
uss 6455
direktor 6452
früh@@ 6452
hl 6444
Spitz@@ 6443
verbindet 6443
Wissenschaft 6442
mor@@ 6442
fünften 6441
klassischen 6441
Kul@@ 6440
plätze 6440
schwedischen 6439
ée 6438
lehrer 6437
einiger 6433
Namens@@ 6431
ernannte 6429
Grab 6427
Vel@@ 6414
bank 6411
go 6409
mittleren 6408
Gegend 6405
Science 6403
Simon 6403
sor@@ 6403
Tief@@ 6401
Woche 6401
ermöglicht 6400
rand 6400
Tages@@ 6399
ahn@@ 6398
aktiven 6397
ille 6397
1891 6391
73 6390
stammte 6390
1894 6388
ausbildung 6383
Blatt@@ 6382
Internationale 6382
Kriegsende 6382
ky 6382
Black 6380
heiten 6380
Ki@@ 6379
verbandes 6379
Material 6375
wür@@ 6374
ys@@ 6374
Göttingen 6373
1930er 6370
87 6370
Beruf@@ 6369
83 6368
84 6366
ala 6366
schluss 6365
07 6364
istin 6364
maßnahmen 6364
studium 6364
fenster 6363
69 6362
Texte 6361
gar@@ 6360
Ot@@ 6358
Ra@@ 6358
Hauses 6357
Frankfurter 6354
1889 6350
da@@ 6349
ama 6348
ager 6347
ink@@ 6345
benachbarten 6344
shausen 6344
stehende 6344
Nutz@@ 6342
dige 6341
endgültig 6339
Funktionen 6337
Je@@ 6334
Linien 6334
Salzburg 6334
ates 6334
ien@@ 6334
omm@@ 6333
1874 6332
wand@@ 6332
Julius 6331
Pa@@ 6331
punkte 6330
issen 6328
Kron@@ 6327
ask@@ 6327
ni@@ 6324
Sender 6322
elli@@ 6322
Sä@@ 6318
Gerhard 6317
fort@@ 6312
Pfarrei 6311
Sendung 6310
atz 6307
widmete 6306
Bir@@ 6305
Brasilien 6305
Beispiele 6302
ott@@ 6302
eri@@ 6300
Verfassung 6299
Filmen 6298
Schach@@ 6295
ain 6294
bauen 6294
Sicherheit 6293
Variante 6293
wor@@ 6293
bringt 6292
Bü@@ 6291
Höhen@@ 6290
Ortschaften 6290
Unternehmens 6290
09 6289
grün@@ 6282
è@@ 6281
tlichen 6278
fern 6277
geriet 6276
1860 6272
Dann 6272
atische 6270
sozialen 6268
ais 6266
forderte 6265
entsteht 6264
Kontrolle 6262
politik 6262
Güter@@ 6261
tischen 6261
bes 6259
russische 6259
Chemie 6257
chinesischen 6257
fertiggestellt 6256
NSDAP 6254
Satz 6254
oll@@ 6254
ura 6252
82 6251
Lü@@ 6251
sagte 6250
Ukraine 6244
rischen 6243
oten 6239
Produkte 6237
Dr@@ 6236
Form@@ 6235
reiche 6235
meisterschaft 6234
Smith 6233
Vill@@ 6233
Arn@@ 6232
je@@ 6232
Wechsel 6231
ke@@ 6231
stand@@ 6231
scheiterte 6229
zen@@ 6228
sowjetischen 6225
Feld 6224
existiert 6224
Einen 6223
rad@@ 6222
91 6220
fern@@ 6219
italienische 6217
Fran@@ 6216
Gebieten 6216
gestaltet 6214
bestehenden 6213
Weltcup 6211
vergeben 6211
zentralen 6210
owski 6205
mehrerer 6203
Sicherheits@@ 6201
hieß 6200
scheint 6200
81 6196
Show 6195
kampf 6195
Todes@@ 6194
unterlag 6194
01 6192
früh 6191
Generation 6190
Blut@@ 6188
unabhängig 6186
lau@@ 6185
To@@ 6184
einzu@@ 6183
mark@@ 6183
ry 6183
stellvertretender 6183
angenommen 6182
Förder@@ 6179
guten 6178
Joachim 6176
Mak@@ 6176
entstehen 6175
Konrad 6173
rats 6172
programm 6169
1879 6168
Fischer 6167
Mau@@ 6167
Auflage 6166
Trans@@ 6166
für@@ 6165
ick 6164
nah@@ 6163
bisherigen 6162
nte 6161
Arzt 6159
Phase 6158
ba 6158
ea 6157
Widerstand 6155
offizielle 6154
enhaus 6152
92 6151
gebieten 6151
Nationalsozialismus 6149
97 6148
holte 6147
errichten 6146
1866 6145
Portugal 6137
entwicklung 6133
Volkszählung 6131
post@@ 6129
Fried@@ 6128
our 6128
komm@@ 6126
Saison@@ 6124
ori@@ 6124
Cam@@ 6123
Mad@@ 6123
Dat@@ 6122
darf 6122
Kader 6120
old 6120
gelangte 6119
kleineren 6119
Lager 6117
ausgeführt 6117
Groß 6113
Pop@@ 6112
Hom@@ 6111
Kop@@ 6111
Arthur 6110
schreibt 6110
Hen@@ 6109
89 6108
material 6107
Besonders 6104
Eduard 6104
verhindern 6098
uti@@ 6097
1875 6094
enheit 6094
abgesch@@ 6093
Schließlich 6092
itäten 6092
schaffen 6091
welt 6091
Medi@@ 6090
1500 6089
weg@@ 6089
Kopf@@ 6087
entin 6086
sofort 6084
J 6083
ergibt 6083
stes 6082
Historiker 6081
Wir@@ 6080
Behandlung 6076
Bay 6074
00 6073
Naturschutzgebiet 6073
aur@@ 6073
ständig 6073
ebene 6072
klar 6072
Praxis 6069
Lauf@@ 6068
Weiterhin 6068
Orden 6065
lan@@ 6064
Fund@@ 6059
Spieltag 6058
Metall@@ 6057
Israel 6056
Patienten 6055
isp@@ 6053
manchmal 6053
ost 6053
zumeist 6049
Bauern 6046
daraus 6045
Geg@@ 6042
Medien@@ 6041
organisiert 6040
stra@@ 6040
Kölner 6037
odi@@ 6037
ue 6035
genannte 6034
Paar 6032
zumindest 6032
Volk@@ 6027
trifft 6026
toren 6025
stück 6024
cks 6022
pe 6021
ologen 6020
feierte 6018
Jo@@ 6017
Repräsentantenhaus 6017
79 6016
mung 6016
Studio 6015
Ti@@ 6015
hören 6014
wechsel@@ 6013
Live 6011
eingesch@@ 6011
Mühle 6010
án 6010
britischer 6008
onischen 6008
schaffte 6007
Engagement 6004
Gran@@ 6004
Tak@@ 6004
Cast@@ 6002
unterstützte 6001
Gemälde 6000
tiv 6000
uns 5998
acht@@ 5997
Anlagen 5996
iv@@ 5995
ierende 5994
Gemeinschaft 5993
außen 5993
Dro@@ 5989
Studien@@ 5989
Gol@@ 5988
Zusätzlich 5987
Dorfes 5986
dennoch 5986
Dam@@ 5985
fra@@ 5984
ín 5984
Dol@@ 5982
ath 5981
liga 5981
Off@@ 5980
Eig@@ 5979
Massen@@ 5978
Spielklasse 5978
Publikum 5976
Flügel@@ 5973
Junioren 5972
haft 5972
ron 5971
tz 5970
wertung 5970
Oberliga 5969
räume 5969
1887 5968
existieren 5967
Bedingungen 5966
untergebracht 5966
österreichische 5965
1867 5961
Stad@@ 5961
Red@@ 5959
ish@@ 5959
Charakter 5958
Rep@@ 5958
Super 5958
erzählt 5957
ic 5957
ursprüngliche 5955
Krankenhaus 5954
sicher@@ 5953
aut 5952
spro@@ 5952
stedt 5950
our@@ 5948
spitze 5948
Erfahrungen 5945
Angebot 5941
hän@@ 5941
ón 5941
eis@@ 5938
entsprechenden 5938
Eisenbahn 5933
Klima 5933
Industrie 5932
fall@@ 5932
regierung 5929
Verhalten 5928
langer 5928
Rest 5927
Schrift 5927
ame 5926
enzen 5926
tak@@ 5920
produzierte 5918
baus 5914
Flu@@ 5913
Dörfer 5910
gleiche 5910
Recht@@ 5909
Wa@@ 5908
ografie 5908
unterricht 5908
überhaupt 5904
Ausdruck 5902
King 5901
höheren 5900
old@@ 5898
Mand@@ 5896
nächste 5896
wehr@@ 5896
Plan 5895
halb@@ 5895
lig@@ 5894
Sw@@ 5892
Plan@@ 5890
Vorbild 5890
Brand 5889
Ebenso 5889
W. 5888
ros 5887
Vis@@ 5886
Sü@@ 5883
druck@@ 5883
Vorstand 5882
Ursprünglich 5880
Ausbau 5879
ko@@ 5879
umgebaut 5879
Augen@@ 5878
do@@ 5878
wies 5878
Architekt 5877
Mikro@@ 5876
Fahrer 5875
Francisco 5875
setzten 5875
englische 5874
jeden 5872
debütierte 5871
fr@@ 5870
gabe 5869
bestanden 5867
Augen 5865
ō@@ 5864
schulen 5863
schreiben 5861
viel@@ 5856
Alb@@ 5853
kaufte 5853
yn 5850
SA 5848
pen@@ 5846
Entwurf 5845
Fahrzeug 5843
Deutscher 5840
ú@@ 5840
Nah@@ 5839
haltung 5839
desselben 5838
Garten@@ 5836
appen 5836
Gestaltung 5835
Kassel 5835
arzt 5834
liste 5834
250 5833
Oster@@ 5832
rie 5832
Eröffnung 5831
1886 5830
Neuen 5829
nutzen 5829
ode 5828
ste@@ 5828
Verbindungen 5827
breiten 5827
mark 5827
ock 5823
erie 5822
erungen 5821
Bund 5820
Dennoch 5820
Männchen 5820
Sängerin 5820
Río 5819
Andere 5817
anne 5817
gegen@@ 5815
tatsächlich 5814
weshalb 5814
Künste 5812
nis@@ 5812
rö@@ 5812
06 5810
Religion 5810
geweiht 5810
Monat 5808
Operation 5808
getötet 5808
Erich 5805
Sicht 5805
niederländischen 5803
Meister@@ 5802
Ruf 5797
Fü@@ 5796
Dec@@ 5795
Party 5794
buch@@ 5793
Rio 5791
versammlung 5791
1873 5790
setzung 5789
Internet 5785
Woiwodschaft 5785
Würzburg 5783
weißen 5783
Krieg@@ 5782
9,@@ 5780
120 5778
volle 5777
Systematik 5776
Wag@@ 5776
gründen 5776
gesp@@ 5773
terin 5773
unterschrieb 5772
1872 5770
Verfassungs@@ 5770
Bereichen 5769
Norwegen 5763
basiert 5763
komplett 5763
gewannen 5760
... 5759
1868 5757
Zukunft 5757
1884 5754
Niederlande 5753
oberhalb 5753
Chef 5752
bildeten 5751
Wach@@ 5750
lige 5749
illa 5746
Freien 5745
schm@@ 5745
700 5744
körper 5743
Post 5736
üh@@ 5733
stände 5728
yp@@ 5728
wissenschaftler 5727
Seit@@ 5726
Edward 5724
Tanz@@ 5723
gan@@ 5723
Stellen 5722
onie 5722
bayerischen 5721
fungierte 5721
José 5719
lokalen 5719
tlich 5719
förmigen 5712
änder 5711
Software 5709
womit 5709
Münchner 5708
emann 5708
Landschafts@@ 5706
Veröffentlichungen 5706
arm@@ 5703
eilen 5703
Verb@@ 5702
Flucht 5700
umgeben 5699
Instituts 5697
Grenzen 5693
stei@@ 5693
wissenschaft 5693
deten 5692
nor@@ 5692
car@@ 5691
Farbe 5690
Orten 5690
führ@@ 5689
Pokal 5688
stätten 5688
allgemein 5686
drei@@ 5686
Sz@@ 5685
assi@@ 5685
ausgebaut 5684
itzer 5684
Kö@@ 5681
film@@ 5681
Bou@@ 5679
AC 5678
straßen 5678
1878 5674
ehemals 5674
Camp@@ 5672
Maschinen 5670
iss 5669
jüdische 5668
leb@@ 5668
Entwicklungs@@ 5667
1882 5666
isierte 5666
Hir@@ 5662
Gener@@ 5661
Mis@@ 5661
App@@ 5659
Kri@@ 5659
selbst@@ 5658
Gemeinderat 5656
ı@@ 5656
lie@@ 5654
Denkmalschutz 5652
ckt 5652
technik 5652
fels 5648
Reste 5647
stil 5647
ähnliche 5647
Behörden 5646
mb@@ 5646
Pin@@ 5644
Viertelfinale 5643
istik 5642
bestehende 5641
Reaktion 5640
Wolf 5635
alis@@ 5634
Bö@@ 5632
flügel 5632
zeichnete 5632
hab@@ 5631
erinnen 5629
geleitet 5628
Mik@@ 5627
Bronze 5623
Denkmal 5622
Herbert 5622
Jagd@@ 5622
militärischen 5622
Bot@@ 5621
beigesetzt 5621
tende 5620
lebens@@ 5619
1876 5618
verk@@ 5617
Schm@@ 5616
lat@@ 5616
staatlichen 5616
States 5614
zone 5613
Vergangenheit 5612
ring 5612
etten@@ 5611
Adam 5610
Magdeburg 5610
awa 5610
aux 5608
privaten 5608
braun 5607
Zahn@@ 5603
10.000 5600
1881 5599
Zuschauer 5595
sburg 5593
Vielzahl 5590
Ren@@ 5589
denk@@ 5589
Ste@@ 5588
Fu@@ 5587
ausschuss 5586
Lösung 5585
sucht 5585
Auszeichnung 5584
stoffe 5581
notwendig 5579
Sitz@@ 5577
vereins 5577
wär@@ 5577
2,5 5576
nes 5576
veröffentlichten 5576
ps 5575
lautet 5574
beschäftigte 5573
dra@@ 5573
Mathematik 5571
ungs 5571
ement 5570
Rollen 5569
lager 5569
Blüten 5568
Luft 5568
Methode 5565
psych@@ 5565
etz 5564
enge 5563
bezieht 5560
mu@@ 5557
schwarz 5556
kel@@ 5555
lungs@@ 5554
Wunsch 5553
moderne 5552
eien 5549
orte 5549
1883 5548
Alten 5547
fahrer 5547
kul@@ 5546
ahl@@ 5545
1920er 5542
lehrte 5542
ahr@@ 5541
Route 5536
Sur@@ 5534
wahl 5533
Mensch 5530
Posten 5527
Anerkennung 5523
ged@@ 5522
erscheinen 5521
rak@@ 5521
verwendete 5518
igung 5516
Schlag@@ 5515
geschäft 5514
Zw@@ 5512
sieg 5512
Frei@@ 5511
onn@@ 5511
christlichen 5509
heim@@ 5508
Brau@@ 5507
Festung 5506
eigener 5505
3.@@ 5503
lig 5503
vollen 5502
Übersetzung 5502
artigen 5499
last@@ 5499
Universitäts@@ 5498
sbach 5498
Studie 5495
1864 5493
Ruhestand 5493
verfügte 5492
omen 5491
dis@@ 5488
Etwa 5487
On@@ 5487
beschlossen 5487
Tel@@ 5486
behandelt 5485
Video 5484
ensi@@ 5484
erworben 5483
Modelle 5482
siegte 5482
Don 5481
Europ@@ 5481
tenden 5481
wichtigen 5479
Gründungs@@ 5477
bedeutende 5477
Anhalt 5476
üblich 5476
bieten 5475
welt@@ 5475
Leistungs@@ 5474
ello 5473
Organisationen 5471
ont@@ 5470
ban@@ 5469
Gründer 5468
Kast@@ 5466
durfte 5464
ère 5464
Start@@ 5463
enne 5463
mes 5463
runde 5463
Studi@@ 5461
nämlich 5460
Kirchengemeinde 5459
fragen 5459
Thi@@ 5458
stellungen 5456
Problem 5455
nachgewiesen 5454
Tan@@ 5453
ekt@@ 5453
schwere 5446
technische 5446
Verkauf 5444
Waffen 5444
aufen 5444
eu@@ 5444
wer 5444
1861 5443
Niedersachsen 5443
ū@@ 5443
dig@@ 5442
sub@@ 5441
offen 5434
Nik@@ 5433
Brenn@@ 5432
Senat 5431
Farben 5429
Rh@@ 5429
1869 5428
Kle@@ 5428
France 5426
Kro@@ 5425
Herr@@ 5420
verhaftet 5420
vierte 5420
angel@@ 5417
Roman@@ 5416
Maschine 5415
grün 5415
Reiches 5413
blätter 5413
Aachen 5411
Jazz@@ 5411
Stand@@ 5410
1862 5409
ache 5408
bers 5407
Hause 5406
int@@ 5404
Garten 5403
Höh@@ 5403
fielen 5403
zul@@ 5403
Rab@@ 5401
1815 5397
Frieden 5397
sicher 5396
stärker 5395
oper@@ 5392
Kaiser@@ 5391
ester 5389
istischer 5389
Zweck 5388
Fol@@ 5382
ris@@ 5382
Magazin 5379
Inschrift 5377
Kanal 5376
Verein@@ 5375
Einzel 5374
Online 5374
E. 5372
Street 5372
fortan 5372
Allgemeinen 5371
1865 5370
Erwähnung 5370
eim 5369
Hauptrolle 5368
Baureihe 5367
Fort 5367
schie@@ 5367
halle 5366
ao 5362
gert 5362
Prix 5361
behörde 5361
linien 5359
Lar@@ 5358
ee 5358
Kombination 5357
Ziele 5356
engagierte 5351
machten 5350
tig@@ 5350
Datum 5349
Sem@@ 5347
Der@@ 5345
lö@@ 5341
Fernsehserie 5340
Wolf@@ 5340
anhand 5340
bücher 5339
Design 5337
rennen 5335
Stefan 5334
Stau@@ 5332
lis 5332
kreuz 5331
unterscheidet 5331
ennen 5328
beschloss 5327
dürfen 5327
netz 5327
Bühne 5325
era 5325
ý 5325
Kabinett 5324
sa 5323
Und 5322
angeb@@ 5322
Plätze 5321
aden@@ 5321
Bericht 5319
Silbermedaille 5318
schlossen 5318
Gemeinsam 5317
Hau@@ 5315
Sekunden 5315
Lok@@ 5314
abgerissen 5314
eingegliedert 5312
shof 5311
Biografie 5309
Projekte 5307
jener 5307
not@@ 5306
ungsh@@ 5306
Amateur@@ 5305
offenen 5305
verstärkt 5304
Frau@@ 5303
Brü@@ 5302
Mod@@ 5300
Mun@@ 5300
dert 5300
gebietes 5299
Erster 5298
Töchter 5298
fle@@ 5298
frei@@ 5297
angebracht 5295
solchen 5295
Afrika 5294
Herausgeber 5294
Flugzeug@@ 5292
kreis@@ 5292
Jürgen 5291
Partner 5291
beit@@ 5290
ermöglichen 5290
5.000 5288
Veränderungen 5288
zweier 5287
Neustadt 5286
Hon@@ 5285
Seinen 5285
ße 5285
Mary 5284
1877 5282
Lat@@ 5282
kammer 5282
ausen 5281
hierbei 5280
Sab@@ 5276
SG 5274
Volk 5274
dete 5274
gesellschaften 5274
laufen 5274
rem@@ 5274
änderte 5274
Dach 5272
Schau@@ 5272
atik 5272
förmige 5272
n. 5270
Einer 5269
ford 5269
gefangen 5268
Siegen 5265
Insbesondere 5262
Marke 5262
entsprechende 5262
reiste 5262
tief@@ 5262
bogen 5260
lein 5260
Stern@@ 5259
Thüringen 5259
Cre@@ 5258
halt 5258
Priester 5257
fällen 5257
Amsterdam 5255
atischen 5254
Gesundheits@@ 5253
rom@@ 5252
rad 5251
Pul@@ 5250
wissenschaftlicher 5249
beendet 5248
miss@@ 5248
Jahr@@ 5247
aktive 5247
ausgestrahlt 5247
plan 5247
stat@@ 5246
G. 5245
Bran@@ 5244
rische 5244
1849 5242
Lokomotiven 5241
ond@@ 5241
Menge 5240
Schnell@@ 5240
Texas 5239
roman@@ 5239
soziale 5237
Ausstellungen 5234
Licht 5234
vorgestellt 5233
Beiträge 5232
Funk@@ 5232
Fluss@@ 5231
Bos@@ 5230
mach@@ 5230
seither 5230
Entfernung 5227
Staates 5226
bezirk 5225
Journalist 5223
iden 5223
mittlere 5222
Landgemeinde 5220
Suche 5220
dienten 5220
Auto 5219
isse 5219
kenn@@ 5219
Albrecht 5218
Erweiterung 5218
äd@@ 5218
verbindung 5217
standes 5215
bedingungen 5213
ret@@ 5212
les@@ 5210
Technischen 5207
verp@@ 5207
entwickeln 5206
Final@@ 5205
eres 5203
Antonio 5202
Regel@@ 5199
erhöht 5199
Back@@ 5198
Darmstadt 5198
Spar@@ 5198
Botschafter 5195
Red 5194
glich 5193
ump@@ 5193
Rie@@ 5192
03 5191
Port@@ 5191
Regionalliga 5190
anen 5190
Standard 5189
ensis 5189
wur@@ 5189
spr@@ 5185
Fuß@@ 5184
Geheim@@ 5183
arbeiter 5183
Lee 5181
Straß@@ 5181
Mecklenburg 5180
anlässlich 5180
Graz 5179
infolge 5179
uli@@ 5179
Kommandeur 5176
Karlsruhe 5173
Sul@@ 5170
Tübingen 5168
sitz 5163
Pass@@ 5160
Flügel 5155
hre 5154
Assistent 5153
ail@@ 5153
größe 5153
satz@@ 5153
sicherte 5153
Hier@@ 5152
ass 5150
bergs 5150
heits@@ 5150
Bildhauer 5148
Führ@@ 5148
entschieden 5148
kW 5147
Management 5144
Niederlanden 5144
Pro 5143
läuft 5143
Küsten@@ 5142
Übernahme 5141
− 5141
abe 5140
Fur@@ 5139
Jungen 5139
Schrift@@ 5139
chter 5139
Gruppen@@ 5138
Rock@@ 5138
bedingt 5138
entwickelten 5138
Hochschul@@ 5137
its 5137
Arbeiter 5136
Mutter@@ 5136
born 5135
atur@@ 5133
Kenn@@ 5131
Ah@@ 5130
Drittel 5128
Nationen 5127
Gefängnis 5124
fähigkeit 5123
Mei@@ 5122
Psych@@ 5120
Bab@@ 5119
Mann@@ 5119
Wehrmacht 5119
kol@@ 5118
Unabhängigkeit 5117
we 5117
Hem@@ 5116
Wesentlichen 5116
Medaille 5114
nissen 5114
Haup@@ 5113
decken 5113
errichteten 5113
größer 5113
fü@@ 5112
yr@@ 5112
Ky@@ 5110
Co. 5107
Baron 5104
Trag@@ 5104
höhere 5104
Partien 5100
Saisonende 5100
log@@ 5099
Trieb@@ 5098
mauer 5098
anzen 5097
une 5097
Bevölkerungs@@ 5094
bewer@@ 5093
Pläne 5092
Venedig 5092
Fahrzeug@@ 5090
Donau 5087
steigen 5085
Güter 5084
Kandidaten 5084
Sek@@ 5084
Stimme 5084
Hugo 5082
ots 5082
bil@@ 5081
wege 5081
Besatzung 5080
Chem@@ 5080
ros@@ 5080
gut@@ 5076
yer 5074
sis 5073
weiten 5071
ater 5069
Av@@ 5068
Eg@@ 5068
Mission 5068
Offizier 5068
ham 5067
unver@@ 5067
mag@@ 5066
Fi@@ 5065
Fraktion 5065
erfolgten 5064
Stücke 5062
manns 5062
Flotte 5061
Pen@@ 5061
eingeweiht 5061
Gewinn 5059
Mah@@ 5059
Minute 5059
gs@@ 5059
möglichst 5059
Wohnung 5057
mitglieder 5056
schlagen 5053
Oscar 5052
ader 5051
begrenzt 5051
mir 5051
stufe 5051
Besucher 5050
Tom@@ 5050
begleitet 5050
bin 5049
Klein 5048
02 5047
militärische 5047
städtischen 5047
wert@@ 5047
jahren 5046
Altstadt 5045
Anhänger 5045
Gipfel 5044
tiges 5044
ji 5039
Abstand 5038
ax@@ 5038
Funde 5037
Anspruch 5036
Kommando 5036
gener@@ 5036
rach@@ 5036
leh@@ 5034
verboten 5033
Bay@@ 5031
Künstler@@ 5030
bre@@ 5030
Stern 5029
teile 5028
gn@@ 5026
Daten@@ 5024
höher 5024
traditionellen 5023
einheiten 5022
Best 5021
paar 5021
Alters@@ 5020
zus@@ 5019
tier@@ 5018
ire 5017
Zahlen 5016
star@@ 5016
Hill 5014
auff@@ 5014
Promotion 5013
Arbeiter@@ 5012
Dur@@ 5011
Force 5011
möglichen 5010
Besitz@@ 5009
kin 5008
ott 5008
evangelischen 5007
usi@@ 5007
dungs@@ 5006
einst 5005
Art@@ 5004
definiert 5003
wärts 5003
werte 4999
eigenständige 4998
Physik 4997
AS 4996
Dampf@@ 4995
könnten 4995
vorbei 4994
Ass@@ 4992
kommission 4992
ältere 4992
ellen@@ 4991
Wechsel@@ 4988
führende 4988
wissenschaften 4987
Rich@@ 4986
flug 4985
zugänglich 4983
up 4982
ide 4981
Vorkommen 4980
ves 4980
Netz 4978
derung 4978
Anwesen 4976
Mes@@ 4976
disch 4974
1800 4973
verlängert 4971
Front 4970
esischen 4970
Dep@@ 4969
Leichtathletik 4967
ato 4967
Tom 4966
bezeichnung 4965
ix 4965
Reit@@ 4964
Malerei 4962
bereit 4958
Et@@ 4956
Indi@@ 4956
Krankheit 4953
Wit@@ 4953
Č@@ 4953
See@@ 4950
Weltmeister 4950
einz@@ 4950
Prinz 4949
dänischen 4949
Lim@@ 4948
sky 4948
Ensemble 4947
Tat@@ 4947
wahr@@ 4947
KZ 4946
zeug@@ 4946
Altar 4945
Gewalt 4945
beschädigt 4944
horn 4944
Geschäftsführer 4941
versorgung 4940
Hein@@ 4939
Orchester 4939
Ara@@ 4938
Angel@@ 4937
Krone 4936
Orgel@@ 4935
Griechenland 4934
ding 4934
ska 4934
Augsburg 4932
Grad 4931
solcher 4931
verändert 4931
ehr@@ 4930
hell@@ 4930
akademie 4929
ela 4929
frühere 4928
Eingang 4924
achse 4924
geblieben 4924
stan@@ 4923
Major 4921
Al 4920
con@@ 4920
grad 4920
anerkannt 4919
betreibt 4919
ständen 4919
ändern 4919
1863 4918
wirkt 4918
Tour@@ 4917
Var@@ 4917
sächsischen 4916
verteilt 4915
getreten 4913
20@@ 4912
Ereignisse 4911
sä@@ 4911
Ehren 4909
brechen 4909
Freiheit 4908
e. 4908
Mündung 4906
Sonnen@@ 4906
heimer 4906
ain@@ 4905
theit 4905
00@@ 4903
ses 4903
trä@@ 4902
Seel@@ 4901
verlauf 4901
Tempel 4900
Bauwerk 4897
F. 4894
Planung 4893
weis@@ 4892
Gö@@ 4889
staatliche 4889
Awards 4888
Ferner 4885
ida 4885
übersetzt 4885
tigung 4883
Ü@@ 4881
Zusammen@@ 4880
Verhandlungen 4879
mehrmals 4878
Dortmund 4877
Fassung 4877
owitsch 4877
gezählt 4876
Brut@@ 4875
Drehbuch 4873
Mannheim 4872
Ang@@ 4871
Boston 4870
Techn@@ 4870
Tab@@ 4869
isierten 4869
ks@@ 4868
übernehmen 4868
Beh@@ 4867
Komponisten 4866
aya 4866
besonderen 4866
evangelische 4866
tei@@ 4865
Auftritt 4864
bedeut@@ 4864
Pariser 4863
hy@@ 4863
Master 4862
einheit 4862
osa 4862
fri@@ 4861
gänge 4861
Meinung 4860
zusätzliche 4860
asp@@ 4859
Co 4856
Methoden 4856
schützen 4856
Rathaus 4855
artige 4855
ti 4852
Expedition 4850
Gebäudes 4850
ionen 4850
Brief 4848
ther 4846
zut@@ 4846
grund 4844
Blick 4843
wandte 4843
haus@@ 4842
vern@@ 4840
Adel@@ 4838
Panzer@@ 4838
bekanntesten 4837
erter 4837
ton@@ 4837
Tourismus 4836
ers@@ 4834
ktion 4834
tin 4834
Hitler 4832
q 4831
off@@ 4830
sech@@ 4830
flu@@ 4829
Wider@@ 4828
sitz@@ 4827
ppen 4826
Vog@@ 4825
aire 4824
R. 4822
direkte 4822
Hierbei 4821
D. 4820
Gesang 4819
Sin@@ 4819
Wes@@ 4819
mod@@ 4816
then 4816
freund@@ 4814
use 4814
wahlen 4814
Kapit@@ 4813
Herren@@ 4812
Wur@@ 4811
Irland 4809
Na@@ 4809
spielerin 4808
Unterschied 4804
aria 4804
Wege 4803
stattdessen 4802
Vorgänger 4801
auen 4801
Tran@@ 4800
altet 4799
kern 4798
sprachen 4798
italienischer 4797
Preis@@ 4796
Has@@ 4795
zustellen 4795
gebauten 4794
Mass@@ 4793
erlaubt 4793
Freunde 4792
Web@@ 4792
Bin@@ 4791
festgelegt 4791
Cy@@ 4790
Milliarden 4790
gedreht 4789
Lübeck 4788
ye 4788
Geburt 4781
deckt 4779
Pir@@ 4778
Viertel 4778
westliche 4778
enth@@ 4777
Register 4776
etzen 4776
Rede 4775
Schlos@@ 4774
Will@@ 4774
ausgebildet 4774
Ägypten 4771
Vier 4770
Vorgänger@@ 4769
let 4768
Nachfolge 4767
Rostock 4767
hundert 4767
häuser 4767
tau@@ 4767
Helmut 4766
enheim 4766
1856 4764
Konstruktion 4764
Pot@@ 4764
überliefert 4763
Bord 4762
Mich@@ 4762
Mul@@ 4762
ils 4762
Mailand 4761
Geschichts@@ 4760
unterschieden 4760
Hum@@ 4759
mil@@ 4759
emen 4758
kosten 4758
legung 4758
Standard@@ 4757
Play 4756
tag@@ 4756
kat@@ 4755
orf 4754
wirk@@ 4751
arbeiteten 4749
bekommen 4749
Histor@@ 4748
Gottes 4747
Unternehmens@@ 4747
fol@@ 4747
Stat@@ 4746
Je 4745
Pau@@ 4744
cker@@ 4743
kapelle 4743
länger 4743
bereiche 4742
Dissertation 4741
Modus 4741
verg@@ 4740
gesprochen 4738
sz@@ 4738
Normal@@ 4737
ufen 4736
wiederholt 4736
erfolgreichen 4735
erheblich 4735
Exemplare 4734
Möglichkeiten 4734
NGC 4734
Dichter 4732
Jack 4731
sol@@ 4731
Barbara 4729
gelangen 4728
Sebastian 4727
Oberfläche 4725
Verlängerung 4725
ian@@ 4724
Justiz@@ 4723
wettbewerb 4723
beeinflusst 4722
Gefahr 4721
Kilometern 4721
Service 4721
errang 4721
Lebensweise 4720
Amerika 4719
ting 4719
Wort@@ 4714
boden 4714
platten 4714
beteiligte 4713
hielten 4713
Kindheit 4711
are@@ 4711
lungen 4711
és 4708
inneren 4707
Kreises 4706
angeschlossen 4705
gol@@ 4705
lo 4705
Ursprung 4703
Computer@@ 4701
Schwarz 4701
Van 4701
ez@@ 4700
Leopold 4699
sonst 4699
Williams 4698
aktuellen 4698
Tokio 4697
Verteidigung 4697
haf@@ 4697
Wissenschaftler 4695
lös@@ 4695
lehr@@ 4694
Nationalsozialisten 4693
Siedlungs@@ 4693
OS 4691
inf@@ 4691
field 4690
ahn 4689
Cat@@ 4688
1859 4687
Systems 4687
so@@ 4687
Barcelona 4686
Franzosen 4686
Med@@ 4686
Singles 4685
Tabelle 4684
tran@@ 4682
Ok@@ 4681
deck@@ 4681
Les 4680
ländischen 4679
ty 4679
esse 4678
wirkung 4678
Ansicht 4677
ome 4677
Bestand 4676
Pel@@ 4675
ffer 4675
Cas@@ 4674
Leh@@ 4674
linge 4674
1840 4673
Klavier@@ 4673
private 4673
Roll@@ 4672
dan@@ 4672
richtete 4672
Mé@@ 4670
Reb@@ 4670
Rumänien 4670
flug@@ 4670
yst@@ 4670
Matthias 4669
Morgen 4669
zehn@@ 4668
Neur@@ 4667
Wirtschaft@@ 4665
You 4665
Flächen 4663
Verkehr@@ 4663
örtlichen 4663
Englisch 4662
East 4661
Höhepunkt 4659
na@@ 4659
systeme 4659
AR@@ 4658
Madrid 4658
verzeichnet 4658
Stock@@ 4655
ffen 4654
Jones 4653
Kunden 4653
reisen 4652
Kupfer@@ 4651
letztlich 4651
engl 4650
ergänzt 4650
kun@@ 4650
Diplom 4649
hauses 4649
Qualität 4646
Miss@@ 4645
Weiter@@ 4644
aum 4643
Übergang 4643
Aussage 4641
Umsetzung 4640
Zer@@ 4639
bahnhof 4639
Dal@@ 4638
ong@@ 4637
assen@@ 4636
Brown 4633
Personal@@ 4633
Hell@@ 4630
ermittelt 4630
Breslau 4629
May@@ 4627
mittelalterlichen 4626
NHL 4625
hör@@ 4625
Südafrika 4624
eter@@ 4624
Prinzip 4623
pe@@ 4623
Hab@@ 4622
Hilfs@@ 4622
inus 4622
richter 4621
verletzt 4621
ander 4620
diesmal 4620
lau 4620
1806 4619
direkten 4618
eile 4618
Bad@@ 4617
Unterricht 4617
gemein@@ 4617
techn@@ 4617
Jena 4616
digt 4615
region 4612
Nikolaus 4611
Fro@@ 4608
maximal 4607
Engel@@ 4606
Zo@@ 4606
Abgeordneten 4605
unbekannt 4604
Weiß 4603
benötigt 4600
fried@@ 4598
sion 4598
ritt 4597
Bil@@ 4595
Len@@ 4595
speziell 4595
unterstützen 4594
Pod@@ 4592
mi 4592
Strecken 4590
anischer 4589
gehende 4589
lie 4589
Glocken 4588
allgemeinen 4588
unterschiedlich 4588
Emil 4586
thal 4585
nutzte 4584
Objekt 4583
beobachtet 4582
derer 4581
tierten 4581
Reform@@ 4580
aufzu@@ 4580
iter@@ 4580
lerin 4579
nummer 4579
Kant@@ 4577
darstellt 4577
rein 4577
Umbau 4576
atten 4576
Turm@@ 4575
Mach@@ 4574
grenzen 4574
kap@@ 4574
Mount 4573
Original@@ 4573
gelegen 4569
geringen 4569
Now@@ 4566
Schall@@ 4566
beschrieb 4566
Schwe@@ 4565
Columbia 4563
Herzogtum 4563
IC 4563
tert 4563
chs@@ 4561
rein@@ 4561
testen 4561
Arm@@ 4560
staaten 4560
EM 4559
Konzerte 4559
Wor@@ 4558
ents 4558
Bands 4557
hr 4557
ash@@ 4556
aufnahmen 4555
Modell@@ 4554
Persönlichkeiten 4554
gelände 4554
Mund@@ 4553
Positionen 4553
abhängig 4553
fahrten 4553
Corps 4550
einfachen 4549
fäl@@ 4549
Bachelor 4546
Meg@@ 4546
diert 4546
sam@@ 4545
schau@@ 4545
ş@@ 4545
übergeben 4544
Typ@@ 4543
Sir 4542
Schne@@ 4541
Werte 4540
dien@@ 4540
este 4540
roten 4540
uz@@ 4540
ER@@ 4539
täglich 4539
e.V. 4538
holz 4538
Premiere 4537
Big 4536
Regensburg 4536
Unternehmer 4536
fo@@ 4536
letzter 4536
ähnlichen 4536
Eur@@ 4535
Fassade 4534
Stationen 4533
Interessen 4532
Rücktritt 4532
Wetter@@ 4531
ment@@ 4531
Reformation 4530
Kli@@ 4528
Männern 4528
Prof@@ 4528
Wies@@ 4528
unternahm 4527
Es@@ 4526
lebenden 4526
untersucht 4525
Militär 4524
Wie@@ 4524
nern 4523
Szenen 4522
kanadischen 4521
mitt@@ 4521
verkehrs@@ 4521
Emp@@ 4520
datiert 4518
dep@@ 4518
Varianten 4516
kommun@@ 4516
Altar@@ 4514
ater@@ 4514
gerät 4513
Meeres@@ 4512
ania 4512
imm@@ 4512
orn 4512
regionalen 4512
gearbeitet 4511
becken 4510
Vo@@ 4509
hofen 4508
organisierte 4507
ungsver@@ 4507
suchen 4506
anc@@ 4504
sam 4504
Quell@@ 4502
Det@@ 4501
Mot@@ 4501
Vereins@@ 4501
dreimal 4501
Betrieb@@ 4500
Nachkommen 4498
abgelöst 4498
vertrieben 4498
Arnold 4497
Kern 4497
saß 4497
Kapitän 4496
schen@@ 4496
länge 4494
Vogel@@ 4493
Weiler 4493
low 4492
wichtiger 4491
Somit 4490
unterstellt 4490
Kamera 4488
üm@@ 4488
Plänen 4486
Harry 4484
Virginia 4484
Streit 4483
Bauten 4482
jüngeren 4481
kopf 4481
unterrichtete 4479
Premierminister 4478
Rot 4478
Stoff@@ 4475
sechsten 4475
Ga@@ 4474
od 4474
leit@@ 4471
Bundesstraße 4470
Patri@@ 4469
Rob@@ 4469
unterteilt 4469
kreuz@@ 4468
Kollegen 4467
mak@@ 4467
Heimatstadt 4466
umgewandelt 4465
Erhebung 4464
Haf@@ 4464
ras@@ 4464
siedlung 4464
1830 4462
1857 4462
er- 4462
lik@@ 4462
Jurist 4461
ener@@ 4461
via 4461
diverse 4460
Zell@@ 4458
ines 4458
eingemeindet 4457
qualifizierte 4457
urs 4457
zeichnet 4456
Cur@@ 4454
Rod@@ 4454
European 4452
flügel@@ 4452
Dun@@ 4451
Potsdam 4451
Alpen 4450
dis 4450
Beteiligung 4449
ernen 4449
Cu@@ 4447
Tim@@ 4447
ess 4447
stücke 4447
Joe 4446
Ep@@ 4445
Tunnel 4445
reichte 4445
1855 4444
Stro@@ 4442
Lab@@ 4441
esische 4441
3000 4440
lehnte 4440
besitzer 4439
Europas 4438
Lord 4438
Denk@@ 4437
1854 4436
Dek@@ 4436
Königs@@ 4435
derten 4435
etes 4435
schnitt 4435
dauer 4434
Kolonial@@ 4433
Navy 4433
Zweiter 4433
DE@@ 4432
Ari@@ 4429
Definition 4429
geeignet 4428
schwarzen 4428
ul 4428
trafen 4427
eth@@ 4425
schiff@@ 4423
utsch@@ 4423
val@@ 4423
Gewicht 4422
Umfang 4422
Autor@@ 4421
Stadtgebiet 4420
Klin@@ 4417
Schiffs@@ 4417
Wen@@ 4417
insel 4416
Innsbruck 4414
Juan 4414
Kü@@ 4414
Ther@@ 4414
Gegenwart 4412
gestorben 4412
ox@@ 4412
tern@@ 4412
ners 4411
Series 4410
Feuer 4409
Meyer 4409
Mobil@@ 4408
Einsätzen 4407
hardt 4407
uc@@ 4407
wa@@ 4407
ängen 4407
Carolina 4406
Presse 4406
türkischen 4406
gebildeten 4405
leich@@ 4405
leiten 4405
hier@@ 4401
Grünen 4400
Alte 4398
aufgegeben 4398
schicht 4398
Abt 4397
größtenteils 4396
tief 4396
Deshalb 4395
Ziegel@@ 4395
Marin@@ 4394
Witwe 4393
enhausen 4391
erstraße 4391
ausstellung 4390
Spe@@ 4388
Streitkräfte 4388
andererseits 4387
trag@@ 4387
sorgte 4386
Gemarkung 4383
Eber@@ 4382
sich@@ 4382
Sav@@ 4381
gebaute 4380
ova 4380
Love 4379
Wagner 4378
enter 4378
aceae 4377
geändert 4376
Quer@@ 4374
Zwar 4374
funktion 4374
Seitdem 4373
Programm@@ 4372
don 4371
mögliche 4371
ausgewiesen 4370
gegangen 4370
platte 4370
reform 4370
1803 4369
kunst 4369
Automobil@@ 4368
jek@@ 4367
klein@@ 4367
ekt 4366
gerufen 4365
positiv 4364
Bell@@ 4363
Albums 4362
Regeln 4362
Schwierigkeiten 4362
Goldmedaille 4361
Museums 4361
Ty@@ 4361
One 4360
schläge 4358
co@@ 4357
phen 4357
Florida 4356
steine 4356
Ry@@ 4355
IN@@ 4353
gegliedert 4353
hinter@@ 4353
Schottland 4350
Massachusetts 4349
Rü@@ 4349
beider 4349
Nationalpark 4348
dro@@ 4348
Horn@@ 4347
Frank@@ 4346
Research 4346
Tschechien 4346
Inneren 4345
lim@@ 4345
ule 4345
Innerhalb 4344
oli 4343
gründeten 4341
Ring 4339
ney 4339
Versionen 4337
einander 4337
icht 4336
Langen@@ 4335
etc. 4334
Fle@@ 4333
gelassen 4329
Bereiche 4327
Evangelischen 4327
gefördert 4327
seiten 4327
fertigte 4326
François 4325
afen 4325
einerseits 4325
amm 4324
bahnen 4324
europäische 4324
geln 4324
zun@@ 4324
Trennung 4323
Sinn 4322
Gri@@ 4321
tun 4321
brau@@ 4320
chs 4319
eich 4319
griff 4319
höhe 4319
Konflikt 4318
1852 4317
nde 4317
nei@@ 4317
aufgeteilt 4316
Kammer 4315
Leipziger 4315
fach 4312
maßgeblich 4312
Herz 4310
wahl@@ 4310
Macht@@ 4308
Dieter 4306
ec 4306
erlebte 4305
Art. 4304
Typs 4304
Publikationen 4303
ball 4302
Gottfried 4300
1858 4298
geteilt 4297
Earl 4296
Monuments 4296
Neuseeland 4296
brachten 4295
sprech@@ 4295
ums@@ 4295
Cha@@ 4294
oni 4293
ç@@ 4293
Jahrzehnten 4291
Eisen@@ 4290
Synagoge 4289
Rek@@ 4288
Zuvor 4288
Ausgaben 4287
ith 4287
Athen 4286
IV 4286
Wales 4285
derselben 4284
imp@@ 4284
vorhandenen 4284
Rechtsanwalt 4283
cia 4283
Ordens@@ 4282
politischer 4282
reduziert 4281
ätze 4280
Eigentümer 4279
Schneider 4279
Samuel 4277
tisch 4276
Petersburg 4273
Regen@@ 4273
mei@@ 4273
Herr 4272
Team@@ 4272
indischen 4272
Erscheinung 4270
Vit@@ 4270
eta 4270
anda 4269
gehenden 4269
onia 4269
Nahrungs@@ 4268
Dynastie 4266
hängt 4266
Träger 4265
Wür@@ 4261
US@@ 4259
edi@@ 4259
sichtbar 4259
verpasste 4259
Botschaft 4258
integriert 4257
owo 4257
sum@@ 4257
pi@@ 4256
Wissen 4254
kurzer 4254
bilder 4252
Cro@@ 4251
Kinos 4251
Weit@@ 4251
Frucht@@ 4250
ball@@ 4250
run@@ 4250
teren 4249
Shi@@ 4248
Sl@@ 4248
P. 4247
klin@@ 4247
Stell@@ 4245
Urkunde 4244
nten 4244
sil@@ 4244
erforderlich 4243
itions@@ 4243
vermutet 4243
stands 4241
erfolgen 4238
lar@@ 4238
mus 4238
Western 4237
breit@@ 4235
Jedoch 4234
ütz@@ 4234
.-@@ 4233
Bucht 4233
Lind@@ 4233
wichtigste 4233
Championship 4232
Organ@@ 4232
Transport 4232
Beitrag 4231
Brief@@ 4231
sau@@ 4231
bezüglich 4230
Rand@@ 4228
illi@@ 4228
sang 4227
Ausbildungs@@ 4226
engl@@ 4226
tour@@ 4226
kämpfte 4224
lehre 4222
St.-@@ 4221
Fürst@@ 4220
tim@@ 4218
spor@@ 4217
ßt 4216
mus@@ 4215
baum 4214
kündigte 4213
Arch@@ 4212
atus 4212
offenbar 4212
entspringt 4211
verbindungen 4211
Abend 4210
Analyse 4210
Ersatz@@ 4210
lösen 4210
polnische 4208
Auftritte 4207
wes@@ 4207
Gang@@ 4206
Rechtswissenschaften 4205
wählte 4205
Bundeswehr 4204
ric@@ 4204
radi@@ 4203
verst@@ 4203
Comp@@ 4202
menschlichen 4202
stattfand 4202
bedient 4200
zes 4200
zugunsten 4200
übte 4200
wollten 4199
Feder@@ 4198
Kalk@@ 4198
Katharina 4197
spe@@ 4196
voneinander 4196
Spr@@ 4195
Änderungen 4194
Mauer 4193
Edel@@ 4191
rang 4190
Sprecher 4189
Studiums 4188
Ernennung 4187
ecke 4187
rel@@ 4187
Geschwindigkeit 4186
Kaufmann 4186
Scott 4186
eigentlichen 4185
inge 4185
kritisiert 4185
ufer 4185
vol@@ 4185
Verteidigungs@@ 4183
ito 4182
fil@@ 4181
funktion@@ 4180
Jacques 4179
Kriminal@@ 4179
Original 4179
bedeutendsten 4179
ust@@ 4179
Ehemann 4178
vers 4177
verlief 4176
Den@@ 4175
figur 4175
eingebaut 4172
derte 4171
Neu 4170
ammer 4169
IS@@ 4166
Pennsylvania 4166
White 4166
regionale 4166
viertel 4166
seitig 4165
ʿ@@ 4165
Central 4164
Horst 4164
Wohl@@ 4164
idae 4164
Giovanni 4163
Siedlungen 4162
erischen 4162
richten 4161
Marburg 4160
pass@@ 4160
Anne 4159
Sing@@ 4159
bedeutenden 4159
nennen 4157
singen 4157
Chef@@ 4156
Veranstaltung 4156
Fra@@ 4154
ling@@ 4153
verwendeten 4153
tene 4152
deutsch@@ 4150
stag 4150
Kamer@@ 4149
verantwor@@ 4149
älter 4149
Jacob 4148
Kathedrale 4148
burg@@ 4147
domin@@ 4147
Budapest 4146
1818 4145
Lehrstuhl 4145
gas@@ 4145
zo@@ 4145
gesetz@@ 4144
karriere 4144
Handel@@ 4142
Komposition 4142
Systeme 4142
japanische 4142
Hart@@ 4141
Tam@@ 4141
aller@@ 4141
abel 4140
DVD 4139
1845 4138
Bat@@ 4138
Einsätze 4138
äm@@ 4138
Nag@@ 4137
Pflanz@@ 4137
Toren 4137
eingetragen 4137
wiesen 4136
Fürsten 4135
Provinzen 4135
Felix 4134
gebirge 4134
lichkeiten 4134
pat@@ 4134
Part@@ 4133
berichtete 4131
isieren 4131
umfangreiche 4131
Nordamerika 4130
verbände 4130
Dietrich 4129
Ay@@ 4128
Heer 4128
ünd@@ 4128
Autobahn 4126
verz@@ 4126
1851 4125
Bergen 4124
jähriger 4124
nisses 4124
hierfür 4123
kunde 4123
1813 4122
1847 4122
friedhof 4119
spek@@ 4119
Gesam@@ 4117
Kardinal 4117
üblichen 4117
Park@@ 4115
fähig 4115
igt 4115
medi@@ 4114
T. 4113
persönlichen 4113
sinn@@ 4113
eist@@ 4112
einfache 4111
nicht@@ 4111
Gil@@ 4110
Rohr@@ 4110
sten@@ 4110
Mittelpunkt 4109
Sig@@ 4109
Stei@@ 4107
daten 4107
icht@@ 4106
Hügel 4104
Existenz 4103
Haltung 4102
Lad@@ 4102
Tru@@ 4102
Turnier@@ 4101
ariat 4101
weiße 4101
Auswirkungen 4100
Führungs@@ 4100
chron@@ 4100
finanziellen 4100
lieferte 4100
Argentinien 4098
gesichert 4097
strecken 4097
australischen 4096
kr@@ 4096
üsse 4096
Dsch@@ 4095
Rec@@ 4094
gau 4092
ê@@ 4092
pos@@ 4091
Amt@@ 4088
Karte 4088
Roth@@ 4088
gefertigt 4088
starben 4088
antiken 4086
olog@@ 4086
Sekretär 4084
bereit@@ 4084
getroffen 4084
mont 4084
Castle 4083
Transport@@ 4083
Fas@@ 4082
Schritt 4082
dauerte 4082
ossen 4082
Got@@ 4081
Mitt@@ 4081
Verdienste 4081
Zoll@@ 4081
entgegen@@ 4081
ico 4081
Begriffsklärung 4080
Vorsitzende 4078
Spielern 4075
äußeren 4074
Flusses 4073
hart 4073
ado 4072
Az@@ 4071
englischer 4071
Kran@@ 4070
besucht 4070
feld@@ 4070
benen 4069
Kapitel 4067
Erstmals 4066
Verlust 4065
jew 4065
ram@@ 4065
Ausbruch 4064
etti 4064
maschinen 4064
Vil@@ 4063
ati 4063
englisch 4063
kes 4063
leistete 4063
ank 4062
bezogen 4062
eler 4062
litz 4061
Österreichischen 4061
110 4060
1846 4060
engagiert 4060
Anders 4059
nochmals 4059
räumen 4058
Informations@@ 4057
Verleihung 4056
Block@@ 4055
aja 4054
östliche 4054
ator@@ 4053
kow 4053
Rücken 4052
rol@@ 4052
Karten 4051
möchte 4051
Doppel 4050
aturen 4050
Ford 4049
ear@@ 4049
ergeben 4049
geschickt 4049
ę@@ 4048
Text@@ 4047
filme 4047
tar@@ 4047
Sturm 4045
Landkreises 4043
Zeitschriften 4043
alis 4043
1816 4042
Inn@@ 4042
gasse 4042
historiques 4041
EP 4040
Flugzeug 4040
geschwindigkeit 4040
herrschaft 4040
wehr 4040
Mün@@ 4039
Neb@@ 4038
Rez@@ 4038
anteil 4038
ental 4036
kleines 4036
küste 4036
Französischen 4035
Rub@@ 4034
rate 4033
Gur@@ 4032
Korps 4032
Strukturen 4032
ennung 4032
Hauptort 4031
Onkel 4031
grundsätzlich 4031
Sonne 4030
fehlen 4029
präsentiert 4029
anschließenden 4027
nehm@@ 4027
rän@@ 4027
Sat@@ 4026
dicht 4024
erstellt 4024
Gru@@ 4023
Leo 4023
ermordet 4023
verstanden 4023
Buchstaben 4022
Ministerium 4022
asien 4022
Gall@@ 4021
az 4020
sprach@@ 4020
Fehl@@ 4019
Bill 4018
hu@@ 4018
Linz 4017
Zerstörung 4015
ergab 4015
freier 4015
laufenden 4015
zugelassen 4014
Gebrauch 4013
Gedenk@@ 4013
debüt 4013
nunmehr 4013
Instrument 4012
Misch@@ 4012
Schu@@ 4012
los@@ 4012
Kommunikation 4011
geplanten 4010
Mang@@ 4009
rig@@ 4008
Innenstadt 4007
São 4006
4.@@ 4003
gemeinden 4002
Produzent 4001
Blätter 4000
Army 3999
bir@@ 3999
Ämter 3999
ziel@@ 3998
Berge 3997
beginnen 3997
verfolgt 3997
Aufmerksamkeit 3996
Johnson 3996
Lebensraum 3996
Häusern 3992
GB 3991
Spielzeiten 3991
L. 3990
ecken 3990
farben 3990
stor@@ 3990
Deutsch@@ 3989
Ortsteile 3985
Turn@@ 3984
herr 3984
ags 3983
iertes 3983
weiler 3983
Geist 3981
ni 3979
Get@@ 3978
Trier 3978
Tür@@ 3978
einrichtungen 3978
zweites 3978
Bis@@ 3977
FDP 3977
Komm@@ 3977
offizier 3976
ux 3976
Finnland 3974
bewusst 3974
natürlichen 3974
Maß@@ 3973
dener 3973
wie@@ 3973
ausgewählt 3971
ras 3968
10,@@ 3967
Sprint 3967
St 3967
amtes 3967
Bekannt 3966
Victoria 3966
helfen 3966
Breit@@ 3965
Versorgung 3964
over@@ 3964
Urteil 3963
besiedelt 3963
Davis 3961
Schil@@ 3961
Hann@@ 3960
Mut@@ 3960
let@@ 3960
Wiederaufbau 3959
lad@@ 3959
ori 3959
erkannt 3958
wächst 3958
Weil 3957
evangelisch 3957
med@@ 3956
teilte 3956
maschine 3955
â@@ 3955
Bach@@ 3953
Gitarre 3953
Vorsitzenden 3953
gro@@ 3953
äng@@ 3953
Tot@@ 3952
usw. 3952
Warschau 3951
bund 3951
bestehend 3950
nam@@ 3950
rief 3949
Ideen 3948
age@@ 3948
Treffer 3947
vater 3947
Moritz 3946
Landtag@@ 3945
RA@@ 3945
entdeckte 3945
seit@@ 3944
Forst@@ 3943
geliefert 3943
Erfurt 3942
1853 3941
Rest@@ 3941
1814 3940
Damen 3939
50@@ 3938
Front@@ 3938
Py@@ 3938
Stimm@@ 3938
Reisen 3935
bo 3935
berechtigt 3934
Stadtrat 3933
samt 3933
zügen 3933
Führer 3932
Plat@@ 3932
zeigten 3932
out 3931
Aktion 3930
Charlotte 3930
arch@@ 3930
durchschnittlich 3930
André 3928
Lob@@ 3928
ok 3928
Schwestern 3927
Schluss 3926
Tiefe 3926
restlichen 3925
August@@ 3924
aka 3924
geschlossenen 3924
Ohio 3923
fal@@ 3923
tend 3923
nehmer 3922
gestaltete 3921
tit@@ 3920
Weimar 3919
fel 3919
ign@@ 3919
änder@@ 3919
Kritiken 3918
sämtliche 3918
etta 3917
gefahren 3917
Umfeld 3916
ax 3916
bester 3916
Mike 3915
Räume 3915
Treffen 3915
Witt@@ 3914
DM 3913
stammten 3913
Cr@@ 3911
SK 3911
ungarischen 3911
Mö@@ 3910
Dienste 3909
jo 3909
langsam 3908
Lem@@ 3907
ald 3907
ary 3903
klein 3903
Befehl 3902
Darstellungen 3902
Flagge 3902
Einzugsgebiet 3899
Est@@ 3899
Liter 3899
spann@@ 3899
ausgestellt 3896
gefärbt 3896
Strecken@@ 3893
Bour@@ 3892
Wend@@ 3892
figuren 3892
hinein 3892
ī@@ 3892
Aussagen 3891
Fürst 3891
Hun@@ 3891
Line 3891
Tschechoslowakei 3891
aro 3891
Heeres@@ 3890
beginn 3890
Highway 3888
Abstieg 3887
Refer@@ 3887
Basketball 3886
trugen 3886
Namens 3885
Drei@@ 3884
kürz@@ 3883
Bruno 3881
rh@@ 3881
zig 3881
gerin 3879
geringe 3879
endem 3878
Weber 3877
ota 3877
uh@@ 3877
Pop 3876
Beste 3875
Cer@@ 3875
gezwungen 3875
onien 3875
row 3875
endlich 3874
upp@@ 3874
archiv 3873
Ret@@ 3872
version 3872
Europäische 3870
ust 3870
First 3868
keiner 3868
krieg 3868
Fertigstellung 3867
Forsch@@ 3866
Phot@@ 3866
Punkt@@ 3866
unterbrochen 3866
German@@ 3865
ches 3864
schar@@ 3864
Nat@@ 3863
Studenten@@ 3863
ermöglichte 3861
fahrzeuge 3861
mm@@ 3859
lieg@@ 3858
Bür@@ 3857
Motoren 3857
pri@@ 3856
vertre@@ 3856
mt 3855
Berater 3854
ungspro@@ 3854
Ingenieur 3853
angeordnet 3853
durchsetzen 3853
herr@@ 3853
äußerte 3853
Bundes 3852
Saar@@ 3852
Verordnung 3850
ams 3850
voller 3850
platz@@ 3849
sagen 3849
konz@@ 3848
modell 3848
Christus 3847
Polit@@ 3847
Michel 3845
meistens 3845
Dür@@ 3844
Liebes@@ 3844
ift 3844
bacher 3843
kraft@@ 3843
Oberst 3842
Zweite 3842
ran 3842
römische 3842
staat 3842
Ausführung 3841
Sonstiges 3841
ologischer 3841
Famili@@ 3839
Ny@@ 3838
Schei@@ 3838
gericht@@ 3838
Umwelt 3837
herausgegeben 3837
Erklärung 3835
rückte 3835
macher 3834
130 3833
ministeriums 3833
Ž@@ 3833
Games 3831
reis 3831
umstritten 3831
Falle 3830
umgesetzt 3830
Herrscher 3829
gefährdet 3829
# 3828
Young 3828
leute 3828
Einstellung 3826
Mär@@ 3826
stimm@@ 3826
sweise 3826
real@@ 3824
Kräfte 3823
Fusion 3822
motor 3822
meisters 3821
Boh@@ 3820
spät@@ 3820
Istanbul 3819
Stich@@ 3819
kämpfen 3819
oy@@ 3819
Grundschule 3818
Gestalt 3817
Jerusalem 3817
Pic@@ 3817
Vorrunde 3817
ständigen 3817
sichern 3816
Kooperation 3815
bal@@ 3815
AT@@ 3814
Peter@@ 3814
ă@@ 3814
Auff@@ 3813
Maximilian 3812
achtet 3812
beauftragt 3812
vari@@ 3811
lia 3810
änger 3810
mo 3809
0.000 3808
zz@@ 3808
Schäden 3807
Ten@@ 3807
Künstlern 3806
Verk@@ 3805
brech@@ 3805
Schlei@@ 3803
streifen 3803
Ball 3802
ont 3802
lem 3801
ikan@@ 3799
IS 3798
riffen 3798
Flieg@@ 3795
esp@@ 3795
religiösen 3795
seits 3795
udi@@ 3795
bten 3794
ferner 3794
Christen 3793
angeblich 3793
zusammengefasst 3793
Champions 3792
si 3792
spezielle 3792
Junioren@@ 3791
Parlament@@ 3790
änen 3789
opp@@ 3788
Alp@@ 3787
betriebe 3787
oda 3786
arischen 3785
quelle 3785
handel 3784
vorsitzender 3784
Green 3783
ju@@ 3783
Spor@@ 3782
$ 3781
reifen 3781
Weißen 3780
ris 3780
Preise 3779
aktion 3779
wohnte 3779
Vers@@ 3778
Presse@@ 3777
berücksichtigt 3777
Anlass 3775
Landgericht 3775
Brem@@ 3774
Sektion 3774
Luxemburg 3773
aufnahme 3773
ausgesetzt 3773
erzeugt 3773
ital@@ 3773
üst@@ 3773
abschloss 3772
woraufhin 3772
beschränkt 3771
900 3770
rechtlichen 3770
3,5 3769
Kamp@@ 3769
Auseinandersetzung 3768
Fenster@@ 3768
Reserv@@ 3768
Auseinandersetzungen 3767
Spuren 3767
dürfte 3767
erkennbar 3765
lichsten 3765
s- 3764
enor@@ 3763
Verbreitungsgebiet 3762
zin@@ 3762
Kontra@@ 3761
Rose 3760
Österreichs 3760
Hül@@ 3759
Abtei 3758
Wohnhaus 3757
tigte 3757
Anforderungen 3756
ritten 3756
erfolgreiche 3755
glichen 3755
ial@@ 3755
reib@@ 3755
Jesu 3753
ehen 3753
low@@ 3752
Fahrt 3751
Geschichten 3751
Legende 3751
Ven@@ 3751
gelb 3751
uk 3751
Res@@ 3750
Konzert 3749
wachsen 3749
Professur 3748
by@@ 3748
welchem 3748
180 3747
engen 3746
erbaute 3746
teilung 3746
1843 3745
Studios 3745
Francis 3744
Sitze 3743
möglichkeiten 3743
Böh@@ 3742
Meistertitel 3742
liger 3742
Dreißigjährigen 3741
durchschnittliche 3741
eigentliche 3741
meisterschaften 3741
verwenden 3741
vieler 3741
abgelehnt 3740
1844 3737
alisiert 3737
utz 3737
zeichnung 3737
stieß 3735
zeugen 3735
Bast@@ 3734
Bul@@ 3734
California 3734
Keller 3733
Friedrich@@ 3732
Gedichte 3732
MA 3732
jan 3732
Bud@@ 3731
Renaissance 3731
ez 3731
aktuelle 3730
Brüssel 3729
Dom 3728
festen 3728
stadt@@ 3728
gender 3727
Akadem@@ 3725
Schie@@ 3725
digten 3725
herren 3725
Einz@@ 3724
unden@@ 3723
” 3723
Jesus 3722
Kie@@ 3721
bürger@@ 3721
statt@@ 3721
Konz@@ 3720
Serien@@ 3720
kurzzeitig 3720
erhältlich 3719
ausgeschlossen 3718
steigt 3718
Flach@@ 3717
Pres@@ 3717
allgemeine 3717
any 3717
Galerie 3715
Jahrzehnte 3714
Königsberg 3714
dy 3714
klassen 3714
zi 3713
1842 3712
Kolle@@ 3712
Pon@@ 3711
deut@@ 3711
steinen 3711
Council 3710
freiheit 3710
entstandenen 3708
kers 3708
bekleidete 3707
gleicher 3707
Mein@@ 3705
oo@@ 3705
uch 3705
Musi@@ 3704
aufmerksam 3704
Funktion@@ 3703
Marx 3703
annten 3703
Gab@@ 3702
erhaltenen 3701
Fall@@ 3699
bru@@ 3699
vergleich@@ 3699
1835 3698
KG 3698
Betriebe 3697
benannten 3696
stiegen 3696
trainer 3696
Blue 3695
gerichts 3695
rech@@ 3695
VI. 3694
landes 3694
Code 3693
FA 3692
Maj@@ 3692
Stockholm 3692
Produktionen 3691
Charakter@@ 3690
entgegen 3690
schottischen 3690
vorstand 3690
darstellen 3689
dierte 3689
Manager 3688
bad 3688
Carlos 3687
Prüfung 3687
dende 3687
diversen 3686
Fremd@@ 3685
raten 3685
Imp@@ 3684
demokratischen 3684
Verbindungs@@ 3683
zäh@@ 3683
1832 3682
beinhaltet 3682
ffer@@ 3682
gekennzeichnet 3680
Fels@@ 3679
Industrie@@ 3679
drehte 3677
ativ@@ 3676
historisch 3676
nete 3676
Centre 3674
Demokratischen 3674
Durchbruch 3674
Pak@@ 3674
ares 3674
elektrische 3674
rücken 3674
HC 3673
Johann@@ 3673
Schreib@@ 3673
Reserve 3672
Seen 3671
ieder@@ 3671
itä@@ 3671
Gesundheit 3669
Christi 3668
darauffolgenden 3668
12,@@ 3667
festgestellt 3667
lokale 3667
Grundstück 3666
iern 3665
königlichen 3665
Geographische 3664
lied 3664
organis@@ 3664
sta@@ 3664
Stab@@ 3663
vin@@ 3663
Aqu@@ 3662
Bier@@ 3662
Y 3662
iter 3662
näher 3662
red@@ 3662
zustand 3662
16@@ 3660
Dafür 3660
Gef@@ 3660
nungen 3659
Formation 3658
Dob@@ 3657
Kredit@@ 3656
bauer 3656
ragen 3656
Amerikaner 3655
Kino 3655
Wende 3655
ky@@ 3655
Fortsetzung 3654
Generalmajor 3654
enver@@ 3654
å@@ 3654
laden 3653
skirche 3653
träger 3653
Briten 3652
Gang 3652
geld 3652
öck@@ 3652
Blues 3651
daneben 3651
geschützt 3651
qualifizierten 3651
zählten 3651
Kantons 3650
Wich@@ 3650
lebende 3650
Bod@@ 3648
Wo@@ 3648
Hi@@ 3647
enhof 3647
igkeiten 3647
leuch@@ 3647
verstorbenen 3647
vert@@ 3647
Alt 3646
Schle@@ 3646
sicht 3646
Gei@@ 3645
ands 3645
begründete 3645
verw@@ 3645
Oblast 3644
Religions@@ 3644
Deb@@ 3643
bri@@ 3643
iziert 3643
Folgezeit 3642
Oxford 3642
Sta@@ 3642
filmen 3642
rasch 3642
ions@@ 3641
ë@@ 3641
5000 3640
Dresdner 3640
besetzten 3640
erschienenen 3640
tens 3640
ollen 3639
Town 3637
auten 3637
Kok@@ 3636
Sammel@@ 3636
е@@ 3636
Koch 3635
Was 3635
ey@@ 3635
Committee 3634
sammelte 3634
brü@@ 3633
suchte 3633
behielt 3632
enten@@ 3632
anus 3630
Präfektur 3629
haupt@@ 3629
rist@@ 3629
bra@@ 3628
Life 3627
Rit@@ 3627
südliche 3627
Eroberung 3626
Fabrik 3626
Hohen@@ 3626
weibliche 3626
steh@@ 3625
Ursache 3623
netz@@ 3623
top@@ 3623
Sm@@ 3622
Arbeitsk@@ 3620
national@@ 3620
ring@@ 3619
abgebrochen 3618
schei@@ 3618
systems 3618
Zweitligisten 3617
Anton@@ 3616
isation 3616
Henri 3615
Schwei@@ 3615
ry@@ 3615
Blüten@@ 3614
Neub@@ 3614
ash 3614
Bob 3613
gene 3613
schwarze 3613
Nacht@@ 3612
Sowohl 3612
Zir@@ 3611
bst@@ 3611
ères 3611
brand 3610
eiche 3610
längere 3610
Bischof@@ 3609
Ide@@ 3609
aufgehoben 3609
rop@@ 3609
genaue 3608
sson 3608
hor@@ 3607
Genf 3606
vo@@ 3606
Bass 3604
Bester 3604
Zi@@ 3604
ausger@@ 3604
Volksschule 3603
Tages 3602
Freiherr 3601
Gottes@@ 3601
rechtliche 3600
Holl@@ 3599
nördliche 3599
Iran 3598
Nicht@@ 3598
Stunde 3598
Bewer@@ 3597
ziert 3597
Punk@@ 3596
auftreten 3596
sth@@ 3596
strah@@ 3596
Belagerung 3595
enthal 3595
kten 3595
Fron@@ 3593
Klavier 3593
Kolonie 3593
runden 3593
Erbe 3592
geplante 3592
Kopenhagen 3591
Toronto 3591
Rektor 3590
sicherheit 3589
Baum 3588
ami 3588
maler 3588
bte 3586
phase 3586
Bruch@@ 3585
Folgende 3585
Kritiker 3585
kommenden 3585
Gir@@ 3584
Autom@@ 3583
Schwimm@@ 3582
steller 3582
ila 3580
Ben 3579
anisch 3579
Kommunal@@ 3578
Stan@@ 3578
blau 3578
gesetzes 3578
zugs@@ 3578
Chile 3577
esten 3577
IC@@ 3576
dien 3576
olen 3575
fi@@ 3574
wald@@ 3574
1839 3573
Einzug 3573
Geburtstag 3573
anien 3573
kos@@ 3573
Gun@@ 3572
Point 3572
UEFA 3572
elen 3572
entsprach 3572
s. 3572
typischen 3572
zieh@@ 3572
Boote 3571
Diözese 3571
Illinois 3571
spanische 3571
Eh@@ 3570
Konkurrenz 3570
Runden 3570
Glauben 3569
Sydney 3569
Victor 3569
det@@ 3567
enthielt 3567
Parti@@ 3566
Road 3566
erzielt 3566
armee 3565
kultur 3565
Ze@@ 3564
musikalische 3564
Klassen 3563
Ski@@ 3563
Wir 3563
ZDF 3563
pan@@ 3563
vorgenommen 3563
Stephan 3562
essi@@ 3562
sfeld 3561
stimmen 3561
verlieh 3561
Powiat 3560
1810 3559
Günther 3559
durchaus 3559
gehörenden 3558
ikation 3558
ogen 3558
abgeleitet 3557
atorium 3557
enzeit 3557
musikalischen 3557
norwegischen 3557
dau@@ 3556
Ostpreußen 3555
ells 3555
dru@@ 3553
yl 3553
Feu@@ 3552
Flugzeuge 3552
Tirol 3552
aup@@ 3552
utt@@ 3552
Sicht@@ 3550
Ortsname 3549
fu@@ 3549
Geis@@ 3547
Olympi@@ 3546
Rettungs@@ 3544
Serien 3544
heben 3544
Rech@@ 3543
fassung 3543
kulturellen 3543
abgest@@ 3542
mäch@@ 3540
Liber@@ 3539
Wind 3539
fass@@ 3539
Computer 3538
Hinzu 3538
innere 3538
Zusammensetzung 3537
öst@@ 3537
Manfred 3536
NS@@ 3536
Oldenburg 3535
Pokal@@ 3535
Thor@@ 3535
mangel@@ 3535
fehlt 3534
qui@@ 3534
una 3534
versuchen 3534
USD 3533
hinten 3532
legten 3532
But@@ 3531
bibliothek 3531
wo@@ 3531
anna 3530
öl 3530
praktisch 3529
Französisch 3528
gerechnet 3528
1836 3527
Spiegel 3527
Zeitungen 3527
gewidmet 3527
Nachrichten 3526
Erinnerung 3524
Roger 3524
Volksrepublik 3524
diger 3524
geringer 3524
ó 3523
kan 3522
ücken 3522
album 3521
1837 3520
Alter@@ 3520
ref 3520
rin@@ 3520
beziehen 3519
entliche 3519
RE@@ 3518
gekauft 3518
D.C. 3517
Verwaltungssitz 3517
vorkommen 3517
Brigade 3516
aster 3516
Brunnen 3515
Lokal@@ 3515
SO@@ 3515
1834 3514
Drama 3514
Gebäuden 3513
enkt 3512
entscheiden 3512
Bä@@ 3511
Naturschutz@@ 3510
Peking 3510
Verbesserung 3510
kin@@ 3510
Ihm 3509
Münz@@ 3509
Patrick 3509
befasste 3509
got@@ 3509
such@@ 3509
zt 3509
natürliche 3508
1838 3507
stellungs@@ 3507
Times 3506
Änderung 3504
Arg@@ 3503
PC 3503
haften 3503
Zellen 3502
ais@@ 3502
pen 3502
deg@@ 3501
Partie 3499
Port 3499
cher@@ 3499
ütte 3499
Wirk@@ 3497
sy@@ 3496
Bag@@ 3495
beteiligten 3495
künstlerische 3495
äußerst 3495
duk@@ 3493
katholischer 3493
ähn@@ 3493
Lern@@ 3492
Nachrichten@@ 3492
schütz@@ 3492
1841 3491
Ausschuss 3491
char@@ 3491
hafte 3491
vielleicht 3491
bedeckt 3490
stern 3490
ständiger 3489
aben 3488
umb@@ 3488
Fach 3487
sur@@ 3487
Spitzen@@ 3486
Kontakte 3485
ruh@@ 3485
schwei@@ 3485
well 3485
Büch@@ 3484
Philadelphia 3484
Versuche 3484
schau 3484
Ehrungen 3483
Jar@@ 3483
Kaisers 3483
stoffen 3483
Psychologie 3482
barer 3482
Entdeckung 3480
SP@@ 3480
klassische 3480
persönliche 3480
DS 3479
air 3479
mis@@ 3478
olo 3478
Museen 3477
Wilson 3477
betroffen 3477
frühe 3477
ht 3477
Bew@@ 3476
Corporation 3476
Institutionen 3476
Schlosses 3476
ög@@ 3476
hoff 3475
saal 3475
lach 3474
Windows 3473
asser 3473
decke 3473
altung 3472
stands@@ 3472
Maur@@ 3471
offene 3471
steuer@@ 3471
tus 3470
leistungs@@ 3469
verhältnis 3469
Kä@@ 3468
manchen 3468
1820 3467
Abstammung 3467
karten 3467
Franken 3466
Kab@@ 3466
Preußischen 3465
erfährt 3465
zie@@ 3464
Cos@@ 3463
Haft 3463
Säulen 3463
UN@@ 3463
keiten 3463
kulturelle 3463
Dau@@ 3462
Scher@@ 3462
Schluss@@ 3462
gelagert 3462
proz@@ 3462
zahl@@ 3462
eingestuft 3461
fährt 3461
Archiv@@ 3460
Orchestra 3460
ance 3460
1821 3459
Hü@@ 3459
läufer 3459
Anf@@ 3458
krank@@ 3458
scheid 3458
и@@ 3458
def@@ 3456
5.@@ 3455
bli@@ 3455
gre@@ 3455
Finanzierung 3454
Prinzessin 3454
Rel@@ 3454
Saale 3454
öll@@ 3454
AN@@ 3453
Oper@@ 3453
finanzielle 3453
plätzen 3453
tik 3453
Aufstand 3452
Plattform 3452
Schülern 3452
verblieb 3452
160 3451
Dritter 3451
1812 3450
unn@@ 3450
grenz@@ 3449
Ras@@ 3447
länder 3447
üssen 3447
Auß@@ 3446
Main@@ 3446
pal@@ 3446
ü 3446
Bauwerke 3444
artig 3444
habilitierte 3443
iff@@ 3443
zellen 3443
Church 3442
Taylor 3442
bat 3442
aken 3441
leisten 3441
Heirat 3440
Rev@@ 3440
Rote 3440
Toten 3440
ielle 3440
Doktor@@ 3439
vel@@ 3439
Jugendliche 3438
Weihnachts@@ 3438
angen 3438
thaus 3437
aal 3436
Glocke 3435
Komödie 3435
zusamm@@ 3435
punkten 3433
Direkt@@ 3432
keits@@ 3431
näh@@ 3431
Gewässer 3430
kti@@ 3430
Dün@@ 3429
Vizepräsident 3429
Werkstatt 3429
eiler 3429
Medizin@@ 3428
las 3428
ausgabe 3427
Geschlecht 3426
Pandemie 3426
angehörte 3426
Lev@@ 3425
Zusammenschluss 3425
ake 3425
Böhmen 3424
Marien@@ 3424
denken 3424
Mir@@ 3423
afrikanischen 3423
1808 3422
Wiesbaden 3422
gelingt 3422
zung 3422
000 3421
wood 3421
Braun@@ 3420
Gesamtwertung 3420
Brit@@ 3419
Eigentum 3419
Durchführung 3417
Mem@@ 3417
Steve 3417
fung 3417
gon@@ 3417
100.000 3416
dritt@@ 3416
Erstligisten 3414
Verfolgung 3414
Vorbereitung 3414
kehr@@ 3414
Test 3413
gangs 3413
Bremer 3412
Ersatz 3412
Schar@@ 3412
rati@@ 3411
Pur@@ 3410
Verantwortung 3410
bus@@ 3410
erneuert 3410
Koll@@ 3409
Schnei@@ 3409
berge 3409
bevölkerung 3409
entierte 3409
erische 3409
parti@@ 3409
Freundin 3408
Rin@@ 3407
männlichen 3407
Jackson 3406
Kommun@@ 3406
Nu@@ 3406
Südwest@@ 3406
Jura 3405
Zulassung 3405
Interview 3404
müsse 3403
Hex@@ 3402
erzielen 3402
halt@@ 3402
Sum@@ 3401
eindeutig 3401
preis@@ 3401
Tieren 3400
ilfe 3400
Parks 3398
Stif@@ 3398
Stil@@ 3398
änden 3398
Konzer@@ 3396
Sciences 3396
Such@@ 3396
Technische 3396
Fähigkeiten 3395
Terror@@ 3394
Jänner 3393
arte 3393
Symbol 3392
Episoden 3391
Feuerwehr 3391
Kad@@ 3391
projekt 3391
Kategorien 3390
Tätigkeiten 3390
ı 3390
40@@ 3389
Ordens 3389
Strom 3389
funk@@ 3389
Archiv 3388
Büro 3388
nahen 3388
Arena 3387
Beck@@ 3387
analy@@ 3387
arische 3387
Grundriss 3386
Zone 3386
sc@@ 3386
struktur@@ 3386
Dauer 3385
Fass@@ 3383
Hollywood 3383
verstehen 3383
bezog 3382
ial 3382
fan@@ 3381
marsch@@ 3381
strö@@ 3381
uen 3381
Angelegenheiten 3380
Unfall 3379
terung 3379
tiven 3379
My 3378
Tournee 3377
Vermögen 3377
Douglas 3376
Sozi@@ 3376
lings@@ 3376
zahlreicher 3376
ias 3375
Helm@@ 3374
solle 3374
person@@ 3373
weiblichen 3373
ied@@ 3372
winkel 3371
Abkürzung 3370
Aff@@ 3370
Werft 3370
alter@@ 3370
Log@@ 3369
Viel@@ 3369
restauriert 3369
ungsin@@ 3369
FK 3368
beherbergt 3368
dest@@ 3368
dich@@ 3368
strom 3368
teilnehmen 3368
inischen 3367
Geräte 3366
Schlesien 3366
Vorschlag 3366
russischer 3366
Oliver 3365
UN 3365
itionen 3365
titel 3365
Benjamin 3364
genug 3364
halte 3364
optim@@ 3364
wohn@@ 3364
AL@@ 3363
Jersey 3363
Me 3363
Elbe 3362
Stattdessen 3361
Zustimmung 3361
verhalten 3361
Luftwaffe 3360
owitz 3360
persönlich 3360
K. 3359
künstlerischen 3359
ATP 3358
Koordin@@ 3358
erhaus 3358
Hav@@ 3357
Markus 3357
Schlüssel@@ 3357
Unterschiede 3357
sign@@ 3357
Vorstellung 3356
kräfte 3356
angs@@ 3355
Abgeordnete 3354
kanal 3354
Lav@@ 3353
Pseudonym 3353
11@@ 3352
Stor@@ 3352
fluss 3352
Samen 3350
Schre@@ 3349
Küh@@ 3348
iste 3347
oll 3347
wolle 3347
Insel@@ 3346
erfolglos 3346
verfügen 3346
Chris 3345
Schild@@ 3345
theim 3345
Lewis 3344
erenden 3344
mich 3344
regulären 3344
enau 3343
Dou@@ 3342
Südseite 3342
Londoner 3341
hard 3341
üs@@ 3341
Eishockey@@ 3340
außer@@ 3340
erinnern 3340
50.000 3339
Nam@@ 3339
aki 3339
erhaltene 3339
sagt 3339
Autorin 3338
Dev@@ 3337
Fehler 3337
genen 3337
oftmals 3337
reicher 3337
tos 3337
Hütte 3336
Tax@@ 3336
Erzählung 3335
antrat 3335
onische 3335
schiffe 3335
walde 3335
1833 3334
Asien 3334
MS 3334
team 3333
1828 3332
Auge 3332
typische 3331
mess@@ 3330
oms 3329
richtungen 3329
DB 3328
Klinik 3328
orten 3328
soli@@ 3328
sul@@ 3328
Auffassung 3327
Frankreichs 3327
ages 3327
rats@@ 3327
verkauften 3327
æ@@ 3327
Langhaus 3326
geschätzt 3326
siebten 3326
umen 3324
Flor@@ 3323
stabil@@ 3322
Lud@@ 3320
Zun@@ 3320
bekannter 3320
ki@@ 3320
verbot 3320
dus 3319
Sophie 3317
entwarf 3317
feste 3317
handeln 3317
bezirke 3316
Gliederung 3315
Invest@@ 3315
eingezogen 3315
ept@@ 3315
seitigen 3315
Denkmal@@ 3314
dia 3314
oz@@ 3314
sper@@ 3313
rote 3312
Eberhard 3311
üb@@ 3311
lernen 3310
eff@@ 3308
gebiets 3308
tö@@ 3308
zweigt 3308
Antrag 3307
punkt@@ 3307
umliegenden 3307
Weich@@ 3306
ielen 3306
ök@@ 3306
Chin@@ 3305
bedarf 3305
oun@@ 3304
Blu@@ 3303
Hochschullehrer 3303
Tony 3303
frage 3301
wichtig 3301
Zwisch@@ 3300
zeichn@@ 3299
Wurzeln 3298
anger@@ 3298
räum@@ 3298
Ton 3297
gener 3297
kus 3297
Stol@@ 3296
Training 3296
ausgerichtet 3296
besiegte 3296
bildungs@@ 3296
Weimarer 3294
Bauer 3293
kost@@ 3293
verfasst 3293
1817 3292
angesiedelt 3292
staats@@ 3290
Initi@@ 3288
Bedarf 3287
Endrunde 3287
ogen@@ 3287
zeichnen 3287
Kh@@ 3286
spolitik 3286
appe 3285
erlitt 3285
Nahrung 3284
Rekord 3284
Bezeichnungen 3283
fs@@ 3283
komponierte 3283
under@@ 3283
tiere 3282
wirtschaftlich 3282
Festivals 3281
Pas@@ 3281
gewölbe 3281
pflich@@ 3281
Freundschaft 3280
gefolgt 3280
š 3280
Becken 3279
erhebt 3279
warf 3279
Identität 3278
begründet 3278
län@@ 3277
Ob 3276
Zauber@@ 3276
handlung 3276
Ré@@ 3275
ord 3275
sichtlich 3275
Challenger 3274
gewöhnlich 3274
ät 3274
1200 3273
AM@@ 3273
laufbahn 3273
о@@ 3273
go@@ 3272
ão 3272
Tit@@ 3270
sions@@ 3270
Brun@@ 3269
Lehen 3269
same 3269
teur 3269
Hä@@ 3268
grau 3268
Beton@@ 3267
Reihen 3267
ements 3267
nischen 3267
Gletscher 3266
begleitete 3266
arm 3265
feh@@ 3265
kosten@@ 3265
tigten 3265
Gam@@ 3264
Spielfilm 3264
Spät@@ 3264
zeichneten 3264
ów 3264
öß@@ 3264
bemerk@@ 3262
Statistik 3261
rug 3261
Bun@@ 3260
COVID 3260
Herrschafts@@ 3260
ental@@ 3260
CO@@ 3259
Winterspielen 3259
elektrischen 3259
verbreit@@ 3259
Brauerei 3258
Spek@@ 3258
erfüllt 3258
Women 3257
anderes 3257
klei@@ 3257
bewegen 3255
teilt 3255
Koh@@ 3254
Hochzeit 3253
befindlichen 3253
ekten 3253
Maschinen@@ 3252
Rundfunk 3252
350 3251
Fans 3251
Bochum 3250
Kub@@ 3250
rang@@ 3250
Antike 3248
Ministerpräsident 3248
Regierungsbezirk 3248
schnei@@ 3248
zeich@@ 3248
ès 3248
1831 3247
Ecke 3247
Mehrere 3247
hang 3247
Din@@ 3246
Duo 3245
Erhaltung 3245
Materialien 3245
ST@@ 3245
Siege 3245
menge 3245
jewitsch 3244
Ausrichtung 3243
Gross@@ 3243
Entwickl@@ 3242
Nebenfluss 3242
DJ 3241
Konferenz 3241
Media 3241
sicherung 3241
äne 3241
Reh@@ 3240
esk@@ 3240
ücke 3240
Gattungen 3239
Mig@@ 3239
ausschusses 3239
belgischen 3239
Sieg@@ 3238
ungst@@ 3238
Til@@ 3237
hä@@ 3237
position 3237
Achtelfinale 3236
Angehörigen 3236
Vir@@ 3236
Cab@@ 3235
Slowakei 3235
Deck@@ 3234
Goethe 3233
Nun 3233
fäh@@ 3233
itter@@ 3233
listen 3232
sieb@@ 3232
CA@@ 3231
organisationen 3231
Klima@@ 3230
Att@@ 3229
Tex@@ 3229
holen 3229
а@@ 3229
trag 3228
Vorsprung 3227
trau@@ 3227
Gesetz@@ 3225
Textil@@ 3225
reihen 3225
Neg@@ 3224
chn@@ 3224
stationiert 3224
Ath@@ 3223
Ek@@ 3223
sem@@ 3223
cal@@ 3222
Oder 3221
abschnitt 3221
ersetzte 3221
sied@@ 3221
Areal 3220
Vorteil 3220
Kohl@@ 3219
Sax@@ 3219
realisiert 3219
vgl. 3219
Besonderheit 3218
Bit@@ 3218
aub@@ 3218
willi@@ 3218
Nassau 3217
Territorium 3217
rolle 3217
grünen 3216
Erfahrung 3215
Verhältnisse 3215
Wissenschafts@@ 3214
angepasst 3214
jahre 3214
lte 3214
qualifizieren 3214
integ@@ 3213
list@@ 3213
Papier@@ 3211
Stars 3211
Box@@ 3210
Romane 3210
rechtlich 3210
gebung 3209
140 3208
Ran@@ 3208
ique 3208
Kandidat 3207
einst@@ 3207
otte 3207
Schloss@@ 3206
Schreiben 3206
rin 3206
Ablauf 3205
Neuzeit 3205
Stück@@ 3205
emann@@ 3205
schein@@ 3205
Parallel 3204
erfuhr 3204
ope 3204
rif@@ 3204
tlicher 3204
Hinweis 3203
Sammlungen 3203
Val 3203
schwedische 3202
vielfach 3202
Run@@ 3200
Zy@@ 3199
behörden 3199
Temperatur 3198
erende 3198
Poli@@ 3197
Straßburg 3197
hom@@ 3197
tin@@ 3197
Leute 3196
arti@@ 3196
entiert 3196
regel@@ 3196
vollständige 3196
Bundestag 3195
Mengen 3195
Schlagzeuger 3195
wechseln 3195
Fein@@ 3194
Hamilton 3194
Intern@@ 3194
Tisch@@ 3194
inische 3194
neun@@ 3194
therapie 3194
Produzenten 3193
aches 3192
alle@@ 3192
orientierte 3192
Lein@@ 3191
unterrichtet 3191
verbliebenen 3191
beln 3190
ex 3190
circa 3189
enger 3189
verfügbar 3188
entworfen 3187
ends 3186
Hirsch@@ 3185
Integ@@ 3185
ii 3185
jur@@ 3185
Pflanzen@@ 3184
Train@@ 3184
seinerzeit 3183
übernahmen 3183
DFB 3182
Ott@@ 3182
diskutiert 3182
Anwendungen 3180
Nachwuchs@@ 3180
Palast 3180
gesucht 3180
sowjetische 3180
Gebietsreform 3179
ine@@ 3179
AB 3178
Lager@@ 3178
stoß 3178
säure 3178
1824 3177
Andrew 3177
aun@@ 3177
erweiterte 3177
portugiesischen 3177
ähr@@ 3177
zei@@ 3176
1825 3175
Information 3175
Klar@@ 3175
Tennis@@ 3175
engruppe 3175
quar@@ 3175
Ulm 3174
Vas@@ 3174
Cambridge 3173
Erforschung 3173
Neapel 3173
ingt 3173
seltener 3173
Hay@@ 3172
ichte 3172
turen 3170
Dreharbeiten 3169
Gleis@@ 3169
internationaler 3169
Eindruck 3168
Evangel@@ 3168
Gründe 3168
Spreng@@ 3168
nik 3168
Anbau 3167
Projekt@@ 3167
abgebaut 3167
geräte 3167
äss@@ 3167
Schiffen 3165
Uraufführung 3165
gesetzten 3165
iger@@ 3165
scher@@ 3165
Stahl 3164
endung 3164
hinsichtlich 3164
Adler 3163
Amtsgericht 3163
Fünf@@ 3163
Handlungs@@ 3163
angebaut 3163
ition@@ 3163
Jer@@ 3162
Lebensmittel@@ 3162
Partner@@ 3162
lösung 3162
Flora 3161
Phar@@ 3161
ensystem 3161
Enkel 3160
bene 3160
Jak@@ 3159
Ort@@ 3159
Vorpommern 3159
Blut 3158
Real 3158
Sou@@ 3158
Zeichnungen 3158
krit@@ 3158
Tatsache 3157
chi 3157
eichen 3157
versteht 3157
Effekt 3156
Liv@@ 3156
sog. 3156
ür 3156
Schicksal 3155
flüch@@ 3155
liz@@ 3155
schriften 3155
Bed@@ 3154
Fälle 3154
Hinweise 3154
Mandat 3154
dynam@@ 3154
gering 3154
vermeiden 3154
Angst 3153
Flug 3153
Rechts 3153
Kompositionen 3151
Leich@@ 3151
Vertrags@@ 3151
annen 3151
Dame 3150
Vik@@ 3150
gebene 3150
durften 3149
err@@ 3149
20.000 3148
Junge 3148
anden 3148
ays 3148
management 3148
trägen 3148
ände 3148
Cou@@ 3146
Bla@@ 3145
Rückzug 3145
ios 3145
symbol@@ 3145
uth 3145
Rou@@ 3144
bestätigte 3144
Organis@@ 3143
punk@@ 3143
Juli@@ 3142
verlegte 3142
Besitzungen 3141
Nation 3141
brenn@@ 3141
drän@@ 3141
Dru@@ 3140
jüngere 3140
mittelalterliche 3140
richtet 3139
Himmel 3138
IT 3137
Anteile 3136
Niederösterreich 3136
inger@@ 3136
System@@ 3135
Valley 3135
wort 3135
Theologe 3134
einziger 3134
aine 3133
Bedeut@@ 3132
Firmen 3131
And@@ 3130
Kreisstadt 3130
Stütz@@ 3129
dokumentiert 3129
ulen 3129
wil 3129
Geschäft 3128
akt 3128
Angehörige 3127
Anordnung 3127
Dozent 3127
Platzierung 3127
Umgang 3127
verbundenen 3127
Gebirge 3126
Kel@@ 3126
Mineral@@ 3126
Phil@@ 3126
Gebirgs@@ 3125
ario 3125
Exil 3124
Format 3124
Hauptmann 3124
orden 3124
platzierten 3124
Bündnis 3122
Eva 3122
Journalisten 3122
fuhren 3122
Haushalte 3121
Haut 3121
lav@@ 3121
aktiv@@ 3120
rieren 3120
Bühnen@@ 3119
bogen@@ 3119
weichen 3119
Abend@@ 3118
Hauptrollen 3118
Rundfunk@@ 3117
mischen 3117
Dass 3116
Journal 3116
Zuschauern 3116
anst@@ 3116
händler 3116
Beschluss 3115
Had@@ 3112
dri@@ 3112
kum 3112
Stellvertreter 3111
befasst 3111
begriff 3111
ichten 3111
verhältnisse 3111
Alternative 3109
club 3109
Duisburg 3108
fordert 3108
Athleten 3107
Löwen 3107
ero 3107
felde 3107
körper@@ 3107
Kot@@ 3106
Million 3106
abger@@ 3106
ständige 3106
Krist@@ 3105
Sicherheit@@ 3105
ill 3105
nden 3105
offen@@ 3105
uts 3105
vergleichsweise 3105
Spiels 3104
aktionen 3104
klassi@@ 3104
landschaft 3104
arbeits@@ 3103
lieb@@ 3103
Individu@@ 3102
ava 3102
Landtagswahl 3100
dienstes 3100
identisch 3100
rom 3100
vertretung 3100
1822 3099
erien 3099
wendet 3099
Ansatz 3098
Lou@@ 3098
Diskussion 3097
zip@@ 3097
ą@@ 3097
geber 3096
Wik@@ 3095
ta@@ 3095
ume 3095
Fot@@ 3094
Hagen 3094
Redakteur 3094
iz 3094
digte 3093
epp@@ 3093
Restaur@@ 3092
Inhaber 3091
ausreichend 3091
hinzu@@ 3091
Vorstellungen 3090
Platte 3089
alia 3089
hn@@ 3089
neur@@ 3088
sahen 3088
AD@@ 3087
Kontext 3087
Schrif@@ 3087
motoren 3087
Bogen@@ 3086
Eugen 3086
Masse 3086
Verständnis 3086
iller 3086
religiöse 3086
uer@@ 3086
Besiedlung 3085
Rum@@ 3085
vögel 3085
Komp@@ 3084
Ruhr 3084
kultur@@ 3084
medizinischen 3084
veranstaltet 3084
üblicherweise 3084
Alex@@ 3083
Ausstellungs@@ 3083
Hus@@ 3083
ī 3083
Amtes 3082
erl@@ 3082
Fachwerk@@ 3081
SED 3081
tier 3081
ärer 3081
Werbe@@ 3080
bisherige 3080
lass@@ 3080
gewisse 3079
öch@@ 3079
Grundlagen 3077
gefallen 3077
rollen 3076
Dritten 3075
GE@@ 3074
Schlaf@@ 3074
verkehr@@ 3074
Ist 3073
Mart@@ 3073
Steine 3073
einrichtung 3073
umfassende 3073
1807 3072
Marc 3072
häufiger 3072
hö@@ 3072
Bundesstaates 3070
Jeder 3070
Lit@@ 3070
sorge 3070
Museums@@ 3069
Zugehörigkeit 3069
rieg@@ 3069
1809 3068
spl@@ 3068
Begegnung 3067
Q 3067
Wohnungen 3067
bergen 3067
famili@@ 3067
partei@@ 3067
sion@@ 3067
Def@@ 3066
dichte 3066
krimin@@ 3066
Lange 3065
Sper@@ 3065
eo 3065
1798 3064
Eishockey 3064
Weil@@ 3064
arius 3064
enko 3064
13,@@ 3063
Mitarbeitern 3062
begraben 3062
anstelle 3061
hessischen 3061
mut@@ 3061
publizierte 3061
America 3060
Schi@@ 3060
Sommerspielen 3060
Wid@@ 3060
Wy@@ 3060
schlecht 3060
Hoffmann 3059
New@@ 3059
bein 3059
sichts@@ 3059
Annahme 3058
Express 3058
Zeich@@ 3058
erhal@@ 3058
griechisch 3058
stab@@ 3058
Ess@@ 3057
Osnabrück 3057
Sens@@ 3057
bedeutete 3057
letztes 3057
ufe 3057
vorübergehend 3057
Jury 3055
Oran@@ 3055
Well@@ 3055
able 3055
Benz@@ 3054
Programme 3054
Leon@@ 3053
denz 3053
einfluss@@ 3053
eth 3053
Distanz 3052
Loh@@ 3052
raum@@ 3052
vorge@@ 3052
Lich@@ 3051
Objek@@ 3051
Segel@@ 3051
Straßenbahn 3051
jap 3051
jene 3051
Bekanntheit 3050
Opern@@ 3050
Element 3049
dunkel@@ 3049
erhöhte 3049
Bestimmung 3048
Erdgeschoss 3048
prü@@ 3048
Bundesregierung 3047
1829 3046
Günter 3046
Hammer@@ 3046
Streck@@ 3046
heißen 3046
Rekord@@ 3045
acken 3045
jährliche 3045
weis 3045
Great 3044
SE@@ 3044
eilung 3044
entieren 3044
schwach 3044
Reihenfolge 3042
→ 3042
preußische 3041
Rap@@ 3040
Thron@@ 3040
bezeichneten 3040
existierte 3040
indi@@ 3040
Musical 3039
Piloten 3039
verwaltet 3039
124@@ 3038
1826 3038
Kommandant 3038
XX@@ 3038
voraus@@ 3038
Endspiel 3036
Florenz 3036
meldete 3036
Act 3034
Landrat 3034
kritisierte 3034
aufweisen 3033
mitteln 3033
verbreitete 3033
Mond@@ 3032
Stärke 3032
besitz 3032
Publik@@ 3031
strom@@ 3031
Mario 3030
VA 3030
Draft 3029
Großvater 3029
brunnen 3029
ofen 3029
unterschiedlicher 3029
belieb@@ 3028
borg 3028
gler 3028
kampf@@ 3028
€ 3028
angrenzenden 3027
beruht 3027
Haushalten 3026
kamer@@ 3026
Gesellschaften 3025
Hit@@ 3025
besuchen 3024
lautete 3024
vereinigung 3024
versuchten 3024
Panz@@ 3023
Produkt@@ 3023
enf@@ 3023
ME@@ 3022
Bie@@ 3021
Lieb@@ 3021
gestaltung 3021
chens 3020
jew@@ 3020
räder 3020
tik@@ 3020
CE@@ 3019
Luc@@ 3019
Politische 3019
aktuell 3019
oth 3019
tenberg 3019
Edition 3018
Kass@@ 3018
Stift 3018
adel@@ 3018
verwandt 3018
Lis@@ 3017
staat@@ 3017
weiß@@ 3017
verteilung 3016
Überreste 3016
1802 3015
Donau@@ 3015
Golden 3015
kolle@@ 3014
Doktor 3013
Wahrheit 3013
ständigkeit 3013
nutz@@ 3012
Marathon 3011
Versicherungs@@ 3011
achte 3011
bach@@ 3011
einsatz 3011
nungs@@ 3011
Reichsk@@ 3010
aer 3010
dank 3010
120@@ 3009
Polar@@ 3009
mes@@ 3009
spezialisiert 3009
wurf 3008
Eishockeyspieler 3007
Etappe 3007
Ex 3007
Mauer@@ 3007
verbesserte 3007
Gy@@ 3006
Manuel 3006
baut 3006
beauftragte 3006
Amerikan@@ 3005
Them@@ 3005
Bühn@@ 3004
Ethn@@ 3004
entstandene 3004
fang 3004
Bände 3003
Dörfern 3003
einziges 3003
quellen 3003
Heb@@ 3002
Zahlreiche 3002
bi 3002
Graf@@ 3001
Kolon@@ 3001
Restaurant 3000
eto 3000
fränkischen 2999
ert@@ 2998
DNA 2997
aust@@ 2997
Fellow 2996
Seh@@ 2996
brunn 2996
della 2995
verhindert 2995
Linden@@ 2994
Zäh@@ 2994
moder@@ 2994
urg 2994
Ca@@ 2993
Heck@@ 2993
Schriftstellerin 2993
Wapp@@ 2993
aft 2993
itze 2993
bevorzugt 2992
Forschungen 2991
kauf@@ 2991
Gallen 2990
Hit 2990
Hoffnung 2990
Magn@@ 2990
atisch 2990
folgend 2990
Kleine 2989
Okres 2989
Soldat 2989
Zugleich 2989
gewächse 2989
rücke 2989
Sportliche 2988
zwanzig 2987
Gü@@ 2986
Nationalen 2986
Weiterentwicklung 2986
Schichten 2985
Aktiv@@ 2984
Motiv 2984
entsprechen 2984
Karls 2983
Stufe 2983
Wart@@ 2983
eg 2983
inner@@ 2983
selber 2983
Sieben@@ 2982
gesellschaftlichen 2982
gestellten 2982
rah@@ 2982
Beförderung 2979
Nachkriegszeit 2979
Bog@@ 2978
Streifen 2978
Past@@ 2977
division 2977
oss@@ 2977
traditionelle 2977
1811 2974
1819 2974
eton 2974
gemeldet 2974
Jahrhunderte 2973
Kanzel 2973
osp@@ 2973
rath 2973
traditionell 2973
oma 2972
seln 2972
unge@@ 2972
Ei@@ 2971
Netzwerk 2971
deck 2971
männliche 2971
orum 2971
Jag@@ 2970
Turniers 2970
Gemeinder@@ 2969
Gießen 2969
Historic 2969
analyse 2969
rund@@ 2969
Rä@@ 2968
Engel 2967
Innere 2967
eda 2967
verzichtete 2967
Fünf 2966
Statue 2965
ied 2965
ský 2965
Kleinstadt 2964
empfing 2964
Trotzdem 2963
Vin@@ 2963
enswert 2963
tiefe 2963
äure 2963
Gabriel 2962
Viz@@ 2962
pil@@ 2962
ap 2961
betreut 2961
erreichbar 2961
öff@@ 2961
portal 2960
Kais@@ 2959
Verbandes 2959
Nordseite 2958
arisch 2958
stammende 2958
Jäger 2957
erlernte 2957
prim@@ 2957
Klei@@ 2956
Saarbrücken 2956
Weiter 2956
otischen 2956
Carlo 2955
Prince 2954
Time 2954
erfahren 2953
griechische 2953
finanziert 2952
ütz 2952
Graben 2951
wären 2951
zuführen 2951
ś@@ 2951
Bistums 2950
Originaltitel 2950
Portal 2950
eiten 2950
glück@@ 2950
Hag@@ 2949
iki 2949
ops 2949
Alpen@@ 2948
Völker@@ 2948
Berichte 2947
Span@@ 2947
net@@ 2947
worauf 2947
Aspekte 2946
Einkommen 2946
Eric 2946
Koblenz 2946
Tat 2946
achsen 2946
ruf 2946
Reise@@ 2945
Vide@@ 2945
big 2945
entstammte 2945
keit 2945
neten 2944
start 2944
Fab@@ 2942
Flüsse 2942
erkannte 2942
esch 2942
stärke 2942
verbessern 2942
Chal@@ 2941
niederländische 2941
Kath@@ 2940
darum 2940
hain 2940
schlüsse 2940
Hügel@@ 2939
Milch@@ 2939
Trio 2939
ahnen 2939
erneu@@ 2939
ragt 2939
vereine 2939
н@@ 2939
Zehn@@ 2938
bezirks 2938
Für@@ 2937
Gegenstand 2937
Ruine 2937
Sees 2937
keln 2937
transportiert 2937
Beach 2936
Produkt 2936
Zentr@@ 2936
setz@@ 2936
Creek 2935
Darin 2935
chem@@ 2935
chor 2935
ereien 2935
omb@@ 2935
Hilf@@ 2934
medizin 2934
rechn@@ 2934
spiegel 2934
tsch 2934
Kreise 2933
amer@@ 2933
Fest 2932
Klim@@ 2932
Vereinigte 2932
herum 2932
sts 2932
typisch 2932
0,5 2931
Ali 2931
Van@@ 2931
auftritt 2931
deutet 2931
Atom@@ 2930
Schwester@@ 2930
spätestens 2930
wass@@ 2930
Dub@@ 2929
Mord 2929
ativer 2929
stock 2929
Kommune 2928
Zimmer 2928
blü@@ 2928
intensiv 2928
kow@@ 2928
Geschäfte 2926
Hallen@@ 2926
Menschen@@ 2926
Verbände 2926
erfasst 2926
ital 2926
ARD 2925
Aussehen 2925
Instrumente 2925
Mannes 2924
Plätzen 2924
Vertretern 2924
mär@@ 2924
stit@@ 2924
verwaltungs@@ 2924
bundes@@ 2923
ira 2923
malerei 2922
ía 2922
Dah@@ 2921
Details 2921
chinesische 2921
prüfung 2921
Offiziere 2920
inghausen 2920
feiern 2919
gie@@ 2919
zwang 2919
Little 2917
Integration 2916
nische 2916
Interpretation 2915
idi@@ 2915
lam@@ 2915
Hey@@ 2914
erbte 2914
Summe 2913
welle 2913
Bär@@ 2912
Ern@@ 2912
Verluste 2912
Davon 2911
motor@@ 2911
schef 2911
Quadratkilometer 2910
ovice 2910
rup@@ 2910
zel 2910
Yorker 2909
stur@@ 2909
verkaufen 2909
1801 2908
Platz@@ 2908
geist@@ 2908
Rast@@ 2907
Vorsitz 2907
lichste 2907
125 2906
Sound 2906
veranstaltungen 2906
Dorn@@ 2905
EC 2905
Sak@@ 2905
ali 2905
univers@@ 2905
dorfer 2904
gliederung 2904
pper 2904
Gesicht 2903
1804 2902
Erziehung 2902
Gräfin 2902
Pass 2902
Sech@@ 2902
Aufenthalt 2901
Ingenieur@@ 2900
arabischen 2900
farbe 2900
stammenden 2900
vort@@ 2900
Debütalbum 2899
Gelegenheit 2899
Mitbegründer 2899
Claude 2898
Karl@@ 2898
Volksk@@ 2898
fördern 2898
grab 2898
din@@ 2897
höh@@ 2897
öpfe 2897
Pseud@@ 2896
tierung 2896
wissen 2896
Bak@@ 2895
basi@@ 2895
fun@@ 2895
iser 2895
mol@@ 2895
pers@@ 2894
werfen 2894
Last@@ 2893
Premier 2892
Bauarbeiten 2891
Dial@@ 2891
äuser 2891
Vizemeister 2890
ügen 2890
Büro@@ 2889
Dän@@ 2889
gesagt 2889
jekt 2889
otten 2889
Termin@@ 2888
Vorlage 2888
immer@@ 2888
installiert 2888
verm@@ 2888
Stamm 2887
erkennt 2887
klassigen 2887
strafe 2887
ätz@@ 2887
Bielefeld 2886
Brücken 2886
bed@@ 2886
menschliche 2886
nutzt 2886
Elizabeth 2885
Railway 2885
angen@@ 2885
deb@@ 2885
übernimmt 2885
Johanna 2884
Lizenz 2884
ektor 2884
landwirtschaftliche 2884
line 2884
spartei 2884
uer 2884
Diplom@@ 2883
Geburts@@ 2883
Knoten 2883
Manchester 2883
versamm@@ 2883
westlicher 2883
überw@@ 2883
Türk@@ 2882
geg@@ 2882
taucht 2882
Internet@@ 2881
Vereinten 2881
aue 2880
Erkrankung 2879
Prozess@@ 2879
gebunden 2879
iff 2879
linke 2879
Gn@@ 2878
Lyon 2878
Maschin@@ 2878
1805 2877
Verteidiger 2877
pflanzen 2877
Hoff@@ 2876
Monte 2876
Russischen 2876
Tennis 2875
bü@@ 2875
kunst@@ 2875
Acker@@ 2873
Bulgarien 2873
gedacht 2873
kra@@ 2873
nationalsozialistischen 2873
senk@@ 2873
umpf 2873
Anfangs@@ 2872
geordnet 2872
Mill@@ 2871
Verbot 2871
Vögel 2871
Chance 2870
Gesetze 2870
ival@@ 2870
änderung 2870
1.000 2869
Worten 2869
inc@@ 2869
sank 2869
stütz@@ 2868
Kauf 2867
Klu@@ 2867
frau 2867
Sanierung 2866
lateinischen 2866
musik@@ 2866
bericht 2865
mensch@@ 2865
ohn 2865
1827 2864
Atelier 2864
Schwerin 2864
erklären 2864
merk@@ 2864
more 2864
pa 2864
1793 2863
Bernard 2863
Kulturdenkmale 2863
Michigan 2863
bekommt 2863
blick 2863
Agrar@@ 2862
Hierzu 2862
Tol@@ 2862
nachfolgenden 2862
spanischer 2862
iele 2861
oge 2861
Klassi@@ 2860
antreten 2860
eingeladen 2860
inform@@ 2860
4,5 2859
Chron@@ 2859
Entscheidungen 2859
Jos@@ 2859
Step@@ 2859
Treib@@ 2859
uliert 2859
Austausch 2858
NATO 2858
konferenz 2858
tenen 2858
Flugplatz 2857
geöffnet 2857
weich@@ 2857
Höhle 2856
Roland 2856
isten@@ 2856
Priv@@ 2855
altar 2855
ausgerüstet 2855
isen@@ 2855
neben@@ 2855
Eier 2854
ński 2854
Aufhebung 2853
Büchern 2853
Versammlung 2853
nen@@ 2853
Autobahn@@ 2852
LP 2852
ansonsten 2851
technisch 2851
umfassen 2851
Epi@@ 2850
UNESCO 2850
igungen 2850
kast@@ 2850
11,@@ 2849
Rosen@@ 2849
Technologie 2849
ertes 2849
FI@@ 2848
Kongres@@ 2848
essor 2848
rachten 2848
Fres@@ 2847
6.@@ 2846
Moderne 2846
gefeiert 2846
ls@@ 2846
prot@@ 2846
row@@ 2846
zo 2846
Brust@@ 2845
Tabellen@@ 2845
eis 2845
obere 2845
Aufsichts@@ 2844
BBC 2844
Darunter 2844
Messe 2844
Wein 2844
ange 2844
ular@@ 2844
überraschend 2844
jüngste 2843
tausend 2843
Mitteleuropa 2842
agen@@ 2842
oden 2842
speziellen 2842
Bildern 2841
Rosa 2841
front 2841
Früchte 2840
Gewinner 2840
Zar@@ 2840
rer 2840
Kommand@@ 2839
Tauf@@ 2839
ringen 2839
erz@@ 2838
gehabt 2838
itischen 2838
marsch 2838
bestattet 2837
din 2837
fassade 2837
Heiligen@@ 2836
stattfinden 2835
Anwalt 2834
Geologie 2834
Gewerbe@@ 2834
Jac@@ 2834
Jugoslawien 2834
Sonntag 2834
Zentimetern 2834
Fahrzeugen 2833
It 2833
Zuletzt 2833
berichten 2833
liefer@@ 2833
retten 2833
Gedanken 2832
Harvard 2832
belie@@ 2832
dach 2832
ili 2832
Kämpfe 2831
ations 2831
ram 2831
ér@@ 2831
Dist@@ 2830
Esp@@ 2830
Inzwischen 2830
Oh@@ 2830
bestellt 2830
europ@@ 2830
firma 2830
bessere 2829
itsch 2829
kreisen 2829
1823 2828
Maxim@@ 2828
ständ@@ 2828
tums 2828
Nördlich 2827
Rolf 2827
anze 2827
bestimmen 2827
lesen 2827
mannschaften 2826
14,@@ 2825
Mischung 2825
Innenraum 2824
entlich 2824
HL 2823
lenk@@ 2823
nötig 2823
Zufluss 2822
gehalt 2822
zeitung 2822
ühl@@ 2822
Besatzungs@@ 2821
Gespräch 2821
Janeiro 2821
Samm@@ 2821
Siegfried 2821
don@@ 2821
histor@@ 2821
Day 2820
Theat@@ 2820
Zusatz@@ 2820
alisierten 2820
Ja@@ 2819
Maße 2818
Südamerika 2818
wenden 2818
Lady 2817
Zwecke 2817
äuf@@ 2817
Tum@@ 2816
gemessen 2816
meter 2816
Geor@@ 2815
Jud@@ 2815
Pfund 2815
belegen 2815
christliche 2815
greifen 2815
Andrea 2814
Gesellschafts@@ 2814
HK 2814
Nest@@ 2814
abgegeben 2814
hierzu 2814
ho 2814
stoßen 2814
wirklich 2814
Jen@@ 2813
Wass@@ 2813
luft@@ 2813
Demokratie 2812
Klass@@ 2812
ards 2812
Wis@@ 2811
1,2 2810
Berufung 2810
alleine 2810
Alex 2809
Danzig 2809
Grupp@@ 2809
keinem 2809
ländische 2809
reform@@ 2809
1600 2808
Aufklärung 2808
Hain@@ 2808
Rog@@ 2808
förderung 2808
musi@@ 2808
Italien@@ 2807
Palais 2807
spannung 2807
Gitarrist 2806
Kristall@@ 2806
onne 2806
Bäume 2805
Krise 2805
Bridge 2804
gotischen 2804
Kraftwerk 2803
beut@@ 2803
Waren 2802
eben@@ 2802
hau@@ 2802
ult@@ 2802
Personal 2800
wör@@ 2800
Country 2799
ret 2799
ū 2799
Fiction 2798
Vorgeschichte 2798
verpflich@@ 2798
Jap@@ 2797
bef@@ 2796
emb@@ 2796
IT@@ 2795
Straßenbahn@@ 2795
vorne 2795
Lediglich 2794
blo@@ 2794
Übertragung 2794
Latein@@ 2793
Mast@@ 2793
gebenden 2793
deckung 2792
geleg@@ 2792
unmittelbarer 2792
Freizeit@@ 2791
berühmten 2791
gewachsen 2791
elemente 2790
vis@@ 2790
Grä@@ 2789
Regiments 2789
TSV 2789
enab@@ 2789
stür@@ 2789
Quar@@ 2788
Sv@@ 2788
ington 2788
kompon@@ 2788
mas 2788
sn@@ 2788
eim@@ 2787
Generalleutnant 2786
dün@@ 2786
fertig@@ 2786
regelmäßigen 2786
wohl@@ 2786
Allen 2785
Gulden 2785
Prozesse 2785
Wilhelms 2785
Business 2784
Redak@@ 2784
gesperrt 2784
human@@ 2784
Geschäft@@ 2783
Oskar 2783
gang@@ 2783
hagen 2783
marke 2783
By@@ 2782
Jugendlichen 2781
Tap@@ 2781
zusätzlichen 2781
Andre@@ 2780
ystem 2780
zurückzuführen 2780
Eu@@ 2779
Triebwagen 2779
kriegs@@ 2779
schlägt 2779
schu@@ 2779
stie@@ 2779
Königreichs 2778
Rajon 2778
hersteller 2778
rob@@ 2778
Schwarzen 2777
feier 2777
wovon 2777
Vorläufer 2776
poly@@ 2776
verkehrs 2776
zeitlichen 2776
Allgemeine 2775
landwirtschaftlich 2775
zit@@ 2775
Bernd 2774
Clubs 2774
Titelverteidiger 2774
deh@@ 2774
schlech@@ 2774
unklar 2774
Begriffe 2773
Entwicklungen 2773
Grube 2773
Haar@@ 2773
Los@@ 2773
Pflanze 2773
Schaf@@ 2773
erfolgreichsten 2773
fot@@ 2773
sionen 2773
ächte 2773
Hob@@ 2772
zugeschrieben 2772
Blau 2771
Golf 2771
Rah@@ 2771
Zie@@ 2770
geschw@@ 2770
mern 2770
Antrieb 2769
Architektur@@ 2769
Nationalversammlung 2769
amt@@ 2769
Übersicht 2769
Luis 2768
Nacional 2768
Pommern 2768
agne 2768
24@@ 2767
Trock@@ 2767
verlässt 2767
Ausgrabungen 2766
Europe 2766
Foundation 2766
Jagd 2766
erfüllen 2766
ua 2766
Linien@@ 2765
Racing 2764
TA 2764
Anthony 2763
Kil@@ 2763
Miller 2763
angestellt 2763
mitte 2763
Dritte 2762
Opposition 2761
Power 2761
platzierte 2761
ummer 2761
Bohr@@ 2760
Testament 2760
geschehen 2760
jährlichen 2760
seitige 2760
Forum 2759
Kroatien 2759
ois 2759
aill@@ 2758
turnier 2758
ğ@@ 2758
bricht 2757
orientiert 2757
medizinische 2756
profit@@ 2756
Louise 2755
besaßen 2755
iro 2755
Bürgerkrieg 2754
Human@@ 2754
orts 2754
Sec@@ 2753
cl@@ 2753
innen@@ 2753
Fähr@@ 2752
ansässigen 2752
kehrt 2752
show 2752
non 2751
uma 2751
Cra@@ 2749
Platten@@ 2749
herz@@ 2748
Ox@@ 2747
Staatsexamen 2747
Therapie 2746
literatur 2746
Gast 2745
Krem@@ 2745
anger 2745
cor@@ 2745
jahres 2744
zugeteilt 2743
Eines 2742
prakti@@ 2742
überführt 2742
Anth@@ 2741
Hospital 2741
schaftlichen 2741
SS@@ 2740
Steiermark 2740
Wahr@@ 2740
ession 2740
hrt 2740
ka@@ 2739
wählen 2739
Bett@@ 2738
Eis 2738
Falls 2738
ink 2738
werks@@ 2738
wesens 2738
wid@@ 2738
Georges 2737
Wachstum 2736
ators 2736
reiben 2736
Dokumentation 2735
Evangelisch 2735
Glaubens@@ 2735
Hafen@@ 2735
Liefer@@ 2735
Sohnes 2735
etter@@ 2735
gehend 2735
kandidierte 2735
Abkommen 2734
Badminton 2734
Hände 2734
Katholiken 2734
ansässig 2734
schwerer 2734
Stephen 2732
unterzeichnete 2732
Laut@@ 2731
Streit@@ 2731
schi 2731
untere 2731
mäßige 2730
och 2730
positive 2730
KPD 2729
War 2729
hinteren 2729
vorderen 2729
Korn@@ 2728
Magnet@@ 2728
Minnesota 2728
leistungen 2728
gliedert 2727
Erzbistum 2726
Vorfeld 2726
gelangt 2726
Kühl@@ 2725
beenden 2725
not 2725
Aires 2724
Lebensjahr 2723
qualifiziert 2722
Synchron@@ 2721
chemische 2721
opf 2721
ult 2721
Eff@@ 2719
ando 2719
Deg@@ 2718
Fabrik@@ 2718
Hauptbahnhof 2718
Mechan@@ 2718
Skel@@ 2718
offs 2718
Männer@@ 2717
Siedler 2717
Waffen@@ 2717
Bald 2716
derungen 2716
dlich 2716
Ärz@@ 2716
Asien@@ 2715
Fo@@ 2715
ises 2715
spur@@ 2715
Forscher 2714
Glück 2714
Letz@@ 2714
Thailand 2714
han 2714
länd@@ 2714
AC@@ 2713
Pferde 2713
aufgaben 2713
bewohnt 2713
oth@@ 2713
worth 2713
fassen 2712
japanischer 2712
vorbereit@@ 2712
Salzburger 2711
Alliierten 2710
Che@@ 2710
Komponenten 2710
erfahr@@ 2710
konserv@@ 2710
mö@@ 2710
wissenschaftlich 2710
Fak@@ 2709
fliehen 2709
jan@@ 2709
ović 2709
werten 2708
Brück@@ 2707
Nau@@ 2707
Nürnberger 2707
Standorte 2707
agn@@ 2707
ence 2707
trieb@@ 2707
District 2706
Verletzungen 2706
Wer 2706
ändischen 2706
Still@@ 2705
losigkeit 2705
umfangreichen 2705
verbinden 2705
vorerst 2705
Schlagzeug 2704
Typen 2704
Wohnungs@@ 2704
bas@@ 2704
bay@@ 2704
sum 2704
Temperaturen 2703
denkmalgeschützten 2703
Lissabon 2702
Moder@@ 2702
NFL 2702
ril@@ 2702
Forderungen 2701
Kim 2701
Schreibweise 2701
eur@@ 2701
Voraussetzungen 2700
ci 2700
DC 2699
Diesen 2699
Leicht@@ 2699
Sit@@ 2699
Holland 2698
Long 2698
Stadtbezirk 2698
enbau 2698
klinik 2698
nahme@@ 2698
phi@@ 2698
ächer 2698
Aufführung 2697
Cour@@ 2697
Model 2697
Schwein@@ 2697
Vermutlich 2697
kub@@ 2697
kurz@@ 2697
ühle 2697
Gäste 2696
br 2696
großem 2696
pra@@ 2696
Kriterien 2695
Problemen 2695
Sand 2695
Schnitt@@ 2695
digungen 2695
Marcus 2694
Mensch@@ 2694
jahr@@ 2694
itel 2693
acker 2692
Barock@@ 2691
Buenos 2691
ade@@ 2691
reibung 2691
ßer 2691
abweich@@ 2690
Heide 2689
Minister@@ 2689
Planungen 2689
kette 2689
spruch 2689
tere 2689
Erzählungen 2688
nationaler 2688
o- 2688
unweit 2688
zel@@ 2688
Mai@@ 2687
Szen@@ 2687
malte 2687
rieg 2687
assung 2686
burgs 2686
erneuten 2686
rigen 2686
Münzen 2685
Rath@@ 2685
eid 2685
irischen 2685
wesentliche 2684
Affäre 2683
Qualifikations@@ 2683
SC@@ 2683
Versorgungs@@ 2683
Waffe 2683
otische 2683
plante 2683
Wert@@ 2682
erschossen 2682
pres@@ 2682
Bamberg 2681
ild 2681
Pflicht@@ 2680
versor@@ 2680
ć 2680
Artillerie 2679
Website 2679
arium 2679
zurückzu@@ 2679
23@@ 2678
Kaserne 2678
Provinz@@ 2678
erwies 2678
sey 2678
splatz 2678
án@@ 2678
lichung 2677
wend@@ 2677
Esc@@ 2676
häusern 2676
studi@@ 2676
Grande 2675
Sieben 2675
Umgeben 2675
cken@@ 2675
22@@ 2674
Diet@@ 2674
artikel 2674
7.@@ 2673
Eng@@ 2673
Bewertung 2672
Erlangen 2672
Regelung 2672
AI@@ 2671
Sam 2671
system@@ 2671
Obergeschoss 2670
ministers 2670
mische 2670
stillgelegt 2670
vorher@@ 2670
zweig 2670
ñ@@ 2670
Repräsent@@ 2669
dens@@ 2669
fliegen 2669
Verletzung 2668
Bogen 2667
Nordwest@@ 2667
Rang@@ 2667
schlechten 2667
Clemens 2666
DP 2666
Kapital@@ 2666
Pflege 2666
kaiserlichen 2666
zü@@ 2666
verschie@@ 2665
inklusive 2664
versorgt 2664
Baudenkmäler 2663
Heilig@@ 2663
Süß@@ 2663
russisch 2663
ssen 2663
Reinhard 2662
kamp@@ 2662
Längs@@ 2661
Pfer@@ 2661
Redaktion 2661
Rumpf 2661
erhebliche 2661
gän@@ 2661
10.@@ 2660
Entlassung 2660
Haushalts@@ 2660
bewegt 2660
lock@@ 2660
strukturen 2660
Ander@@ 2659
tors 2659
feu@@ 2658
ichts@@ 2658
karte 2658
unzu@@ 2658
Ech@@ 2657
Verteilung 2657
forsch@@ 2657
ürz@@ 2657
Ali@@ 2656
Gebietes 2656
Ron@@ 2656
Selb@@ 2656
etzung 2656
immt 2656
25@@ 2655
Motive 2655
Prakti@@ 2655
hängen 2655
ärz@@ 2655
30@@ 2654
dekor@@ 2654
Lokomotive 2652
Stri@@ 2652
position@@ 2652
Luther 2651
Rainer 2651
landwirtschaftlichen 2651
Prop@@ 2650
inen@@ 2650
rig 2650
syn@@ 2650
ächter 2650
It@@ 2649
höfe 2649
sig@@ 2649
zwischenzeitlich 2649
Chemnitz 2648
lex@@ 2648
onom@@ 2648
vereinigt 2648
Ausscheiden 2647
Bataillon 2647
demnach 2647
ä 2647
Howard 2646
Jim 2646
knoten 2646
soweit 2646
übergab 2646
1700 2645
Drehbuchautor 2645
Lot@@ 2645
Nie@@ 2645
geschah 2645
igem 2645
Bass@@ 2644
Islam 2644
Queen 2644
geregelt 2644
krise 2644
Aer@@ 2643
Kurs 2643
Produktion@@ 2643
Rus@@ 2643
Township 2643
automatisch 2643
ement@@ 2643
gerichts@@ 2643
leitungen 2643
mund 2643
Episode 2642
Lip@@ 2642
dienste 2642
frem@@ 2642
Woll@@ 2641
ede 2641
graf@@ 2641
klär@@ 2641
Öff@@ 2641
Könige 2640
Moh@@ 2640
geführte 2640
äufe 2640
UdSSR 2639
bit@@ 2639
doppelt 2639
endeten 2639
vorzu@@ 2639
AB@@ 2638
AP@@ 2638
Free 2638
Oslo 2638
elung 2638
etts 2638
rone 2638
vielmehr 2638
with 2638
Einflüsse 2637
Mül@@ 2636
sex@@ 2636
8.@@ 2635
Hydro@@ 2635
Song@@ 2635
esz@@ 2635
maximale 2635
Hubraum 2634
SD 2634
Sprech@@ 2634
chin@@ 2634
ques 2634
Asteroid 2633
Fla@@ 2633
Kirchspiel 2633
junger 2633
sieg@@ 2633
Costa 2632
anken 2632
ere@@ 2632
schlägen 2632
Antrieb@@ 2631
Ev@@ 2631
Peri@@ 2631
dritter 2631
Miner@@ 2630
Sommerspiele 2630
lic@@ 2629
sees 2629
Evangelische 2628
ege 2628
linger 2628
Überlieferung 2628
A.@@ 2627
Blei@@ 2627
Dum@@ 2627
Lap@@ 2627
behin@@ 2627
verteidigen 2627
Ast@@ 2625
Kali@@ 2624
fläch@@ 2624
spä@@ 2624
1794 2623
Pferd 2623
Ross 2623
entw@@ 2623
igungs@@ 2623
nar@@ 2622
Enzy@@ 2621
Horn 2621
kanische 2621
Disziplin 2620
KW 2620
Täter 2620
Tür 2620
finnischen 2620
gewählte 2620
loch 2620
schneller 2620
läufe 2619
Film- 2618
Hochschulen 2618
Ray 2618
alli@@ 2618
verlaufen 2617
Napoleon 2616
asa 2616
zell@@ 2616
Dram@@ 2615
akademischen 2615
Mön@@ 2614
Voraussetzung 2614
oi 2614
Bill@@ 2613
elektro@@ 2613
Lé@@ 2612
gleichnamige 2612
hinweg 2611
sab@@ 2611
Ausrüstung 2610
Paulo 2610
Turin 2610
einger@@ 2610
trennen 2610
Airport 2609
mel 2609
Brian 2608
Studioalbum 2608
alien 2608
dei 2608
grüne 2608
Mid@@ 2607
Schüler@@ 2607
under 2607
waffen 2607
wen 2607
Montreal 2606
Wett@@ 2606
gewöl@@ 2606
goldenen 2606
Aur@@ 2605
Kampagne 2605
deutschsprachige 2605
OR@@ 2604
mans 2604
Personen@@ 2603
Profi@@ 2603
kombin@@ 2603
Fun@@ 2602
Guts@@ 2602
Senator 2602
gefasst 2602
zehnten 2602
Ful@@ 2601
Luzern 2601
Nachfol@@ 2601
Priesterweihe 2601
enbau@@ 2601
erschlossen 2601
17@@ 2600
Las@@ 2600
aufnehmen 2600
geordnete 2600
katholisch 2600
Conrad 2599
Dauer@@ 2599
Unterscheidung 2599
Vic@@ 2599
Wand 2599
bereichen 2599
bürgerlichen 2599
dat@@ 2599
lten 2599
zentrums 2599
Wesen 2598
steuer 2598
issi@@ 2597
sus 2596
Elementen 2595
Telefon@@ 2595
Theatre 2595
entwickl@@ 2595
kommiss@@ 2595
Wochen@@ 2594
etzt 2594
förder@@ 2594
ows 2594
swahl 2594
way 2594
betrieb@@ 2593
chef 2593
ý@@ 2593
1790 2592
Lehrer@@ 2592
Tatsächlich 2592
bestritten 2592
Tempel@@ 2591
absol@@ 2591
zucht 2591
Ankunft 2590
Blatt 2590
effek@@ 2590
ison 2590
loc@@ 2590
näch@@ 2590
Kleinen 2589
Som@@ 2589
gelöst 2589
Julia 2588
Jun@@ 2588
Konstanz 2588
Vogel 2588
ausgelegt 2588
irgend@@ 2588
unabhängige 2588
versi@@ 2588
Lorenz 2587
Saal 2587
angekündigt 2587
gewissen 2587
kli@@ 2586
Bör@@ 2585
Lichten@@ 2585
altern@@ 2585
Konzert@@ 2584
Römer 2584
Turnieren 2584
bares 2584
literarischen 2584
union 2584
Bevölkerungsdichte 2583
Gedicht 2583
Islam@@ 2583
Kugel@@ 2583
Mom@@ 2583
Schö@@ 2583
Westseite 2583
antrieb 2583
unterhält 2583
Verleger 2582
Zeh@@ 2582
elektron@@ 2582
gebrochen 2582
resi@@ 2582
Erben 2581
Herrn 2581
Kap 2581
bek 2581
ried 2581
Gebiets@@ 2580
NBA 2580
Zeche 2580
anget@@ 2580
fünfte 2580
č 2580
Asch@@ 2579
Oberbürgermeister 2579
bungen 2579
feuer@@ 2579
kommando 2579
Mord@@ 2578
ense 2578
Ärzte 2578
Handball@@ 2577
schlei@@ 2576
wil@@ 2576
zweifel@@ 2576
Arbeitgeber 2574
Kell@@ 2574
Sende@@ 2574
ago 2574
ew 2574
funk 2574
Hotels 2573
Ner@@ 2573
Sache 2573
Unentschieden 2573
gerech@@ 2573
ild@@ 2573
namentlich 2573
.de 2572
1797 2572
Coll@@ 2572
Stadium 2572
Südlich 2572
Zensus 2572
ilen 2572
ysi@@ 2572
Abgrenzung 2571
Bus 2571
Dessen 2571
Reform 2571
studieren 2571
äuse 2571
Güterverkehr 2570
Muster 2570
Trä@@ 2570
enbahn 2570
entes 2570
etablierte 2570
sprung 2569
Aussch@@ 2568
God@@ 2568
Insekten 2568
halben 2568
ment 2568
Bord@@ 2567
Domin@@ 2567
Firmen@@ 2567
bat@@ 2567
jüngerer 2567
shaupt@@ 2567
ds@@ 2566
ish 2566
Hän@@ 2565
Vorjahr 2565
betont 2565
ismen 2565
längeren 2565
Helsinki 2564
Ple@@ 2564
bedroht 2564
bul@@ 2564
geschaffenen 2564
hofer 2564
maß 2564
Bob@@ 2563
gesammelt 2563
mauern 2563
Nad@@ 2562
liefern 2562
tot@@ 2562
welchen 2562
1940er 2561
besonderer 2561
stern@@ 2561
Begründung 2560
Koalition 2560
ichen 2560
lex 2560
liebe 2560
ografische 2560
renoviert 2560
verursacht 2560
1792 2559
Musikern 2559
Seil@@ 2559
1789 2558
Meth@@ 2558
Umbenennung 2558
thalle 2558
zeitgenössischen 2558
Harald 2557
VfL 2557
meister@@ 2557
Leser 2556
Zit@@ 2556
én@@ 2556
Becker 2555
Weis@@ 2555
enkirche 2555
gigen 2555
Überblick 2555
Kart@@ 2554
Kün@@ 2554
Strah@@ 2553
koordin@@ 2553
Inhalte 2552
Laub@@ 2552
bö@@ 2552
markt@@ 2552
Landesstraße 2551
forscher 2551
geschoss 2551
kurs 2551
mente 2551
pa@@ 2551
seitlich 2551
Hauptrunde 2550
Sn@@ 2550
Zusamm@@ 2550
antike 2550
fahrzeug 2550
gesetzte 2550
ition 2550
oss 2549
vul@@ 2549
IP 2548
Jörg 2548
codice 2548
seitens 2548
Höchst@@ 2547
Verkaufs@@ 2547
metall@@ 2547
moral@@ 2547
Bundestag@@ 2546
Fotos 2546
Mercedes 2546
izierung 2546
kirchlichen 2546
tropischen 2546
werkes 2546
Ausgangs@@ 2545
Vorlesungen 2545
gehandelt 2545
gungen 2545
trans@@ 2545
Angriffe 2544
gefäl@@ 2544
konzentrierte 2544
Proz@@ 2543
gegeneinander 2543
kte 2543
ová 2543
Bah@@ 2542
att 2542
elin 2542
erfolgreichste 2542
lieder 2542
zur@@ 2542
öhe 2542
Ganz@@ 2541
Leb@@ 2541
angesch@@ 2541
sterben 2541
teilnahm 2541
Key@@ 2540
Stipendium 2540
ersetzen 2540
dauerhaft 2539
liter@@ 2539
älterer 2539
Willen 2538
aufweist 2538
cha 2538
eri 2538
pflanz@@ 2538
tom@@ 2538
Fut@@ 2537
Gordon 2537
nit@@ 2537
verwal@@ 2537
Achse 2536
Heilbronn 2536
Tet@@ 2536
beobachten 2536
autor 2535
fur@@ 2535
itter 2535
trotzdem 2535
Glasgow 2534
amin@@ 2534
präsentierte 2534
Fleisch@@ 2533
Meer@@ 2533
Römischen 2533
Sicherung 2533
Sterne 2533
dot@@ 2533
lip@@ 2533
stru@@ 2533
Diskografie 2532
VII. 2532
Zwangs@@ 2532
Eigenschaft 2531
Gregor 2531
tage 2531
riffe 2530
teilten 2530
ungszeit 2530
Benedikt 2529
Francesco 2529
Sprung 2529
Thom@@ 2529
Vordergrund 2529
angebot 2529
ecker 2529
lio 2529
schwierig 2529
anschau@@ 2528
lehnt 2528
Gör@@ 2527
Versch@@ 2527
\ 2526
alp@@ 2526
französisch 2526
inseln 2526
lichkeits@@ 2526
tha 2526
Game 2525
Saal@@ 2525
Texten 2525
ekte 2525
oner 2525
ones 2525
Bergbau 2524
Brüdern 2524
Küche 2524
ehel@@ 2524
kanischen 2524
Ereignis 2523
Flüchtlinge 2523
Sandstein 2523
beliebt 2523
greift 2523
Real@@ 2522
mund@@ 2522
sitzt 2522
Asp@@ 2521
Block 2521
itas 2521
teln 2521
Armen@@ 2520
Kür@@ 2520
Zucker@@ 2520
e- 2520
saison 2520
zunehmen 2520
Drogen@@ 2519
Heilige 2519
Immun@@ 2519
Pedro 2519
finanz@@ 2519
modi@@ 2519
Genehmigung 2518
Lamp@@ 2518
Hinsicht 2517
Loire 2517
Net@@ 2517
davor 2517
icus 2517
jährig 2517
verteidigte 2517
Ey@@ 2516
Fulda 2516
Georgia 2516
Hop@@ 2516
Parlaments 2516
DA 2515
aver@@ 2515
lav 2515
Aufstellung 2514
Viol@@ 2514
stadion 2514
äs@@ 2514
Vieh@@ 2513
BMW 2512
Hauptsitz 2512
Mitteln 2512
Wuppertal 2512
schaf@@ 2512
gerichtet 2511
sigen 2511
Mitglieds@@ 2510
tiefen 2510
zy 2510
Morgen@@ 2509
Soziologie 2509
Spiegel@@ 2509
Chefredakteur 2508
Verbrechen 2508
gebäudes 2508
rierten 2508
verschoben 2508
Diego 2507
Gemäß 2507
dortige 2507
krieg@@ 2506
mag 2506
verzeichnis 2506
Historische 2505
Restaurierung 2505
Schal@@ 2505
aktu@@ 2505
ark 2505
dauert 2505
töten 2505
Gep@@ 2504
Periode 2504
extrem 2504
frucht@@ 2504
Rande 2503
Zier@@ 2503
kov@@ 2503
Bomben@@ 2501
bot@@ 2501
verließen 2501
Kämpfen 2500
Staatlichen 2500
historischer 2500
kritisch 2500
schaftliche 2500
verwand@@ 2500
30.000 2499
Kit@@ 2499
mäßigen 2499
Bug@@ 2498
Mou@@ 2498
gutes 2498
sturm 2498
umen@@ 2498
Archäologie 2497
Philip 2497
Russ@@ 2497
Tä@@ 2497
Zürcher 2497
promin@@ 2497
Geistlicher 2496
PA 2496
Peru 2496
Phosph@@ 2496
Romans 2496
vergleichbar 2496
Humboldt 2495
Konservatorium 2495
Schenk@@ 2494
alls 2494
ble 2494
gerne 2494
Nan@@ 2493
Wick@@ 2493
geordneten 2493
unterschied 2493
Biografien 2492
Continental 2492
pon@@ 2492
serien 2492
Fließ@@ 2491
RS 2491
Südost@@ 2491
aten@@ 2491
iegen 2491
iell 2491
vermein@@ 2491
Alice 2490
Jakob@@ 2490
Vereinen 2490
dänische 2490
harmon@@ 2490
verarbeitet 2490
Dinge 2489
Kosten@@ 2489
arz@@ 2489
ister 2489
Lenk@@ 2488
Sports 2488
erm@@ 2488
liefert 2488
Ehepaar 2487
Neum@@ 2487
Uhr@@ 2487
denden 2487
Gärten 2486
Handball 2486
Lehn@@ 2486
Ord@@ 2486
albahn 2486
7,5 2485
Behörde 2485
Juden@@ 2485
Pius 2485
farb@@ 2485
ić 2485
dach@@ 2484
publiziert 2484
Schließung 2483
tags@@ 2483
Fame 2482
Maz@@ 2482
landete 2482
AN 2481
Paderborn 2481
finale 2481
markiert 2481
rechnung 2481
stä@@ 2481
Ble@@ 2480
Stanley 2480
beschleun@@ 2480
chemischen 2480
Beau@@ 2479
Begleit@@ 2479
Diplomat 2479
Haltepunkt 2479
SB 2479
Sinn@@ 2479
flachen 2479
ologie@@ 2478
Daraus 2477
MP@@ 2477
Neckar 2477
Bruders 2476
Lizenz@@ 2476
Winkel 2476
schnell@@ 2476
verkehren 2476
Dies@@ 2475
René 2475
abend 2475
Landwirtschafts@@ 2474
Mr. 2474
Wellen@@ 2474
rek@@ 2474
Ausdehnung 2473
Gefangenschaft 2473
Ken@@ 2473
samm@@ 2473
Fürstentum 2472
Mü@@ 2472
Univers@@ 2472
sein@@ 2472
auses 2471
nerin 2471
nomin@@ 2471
Schacht 2470
flüs@@ 2470
atte 2469
völk@@ 2469
Hur@@ 2468
Inspek@@ 2468
forderten 2468
türkische 2468
Austragung 2467
Mythologie 2467
registriert 2467
seg@@ 2467
Pier@@ 2466
Dy@@ 2465
bezeichnen 2465
galten 2465
gewählten 2464
wä@@ 2464
Bibel 2463
Fast 2463
Missouri 2463
Umzug 2463
zimmer 2463
Kurfürsten 2462
Lith@@ 2462
Olympische 2462
Sturm@@ 2462
angs 2462
rand@@ 2462
Hyper@@ 2461
Litauen 2461
Physi@@ 2461
bän@@ 2461
Hotel@@ 2460
magazin 2460
oe 2460
Tschech@@ 2459
stitel 2459
Distri@@ 2458
Mission@@ 2458
Nationale 2458
enhauses 2458
geschäfts@@ 2458
umfassenden 2458
Kies@@ 2457
rien 2457
Ster@@ 2456
vornehmlich 2456
ory 2455
Junior 2454
Ou@@ 2454
Schmal@@ 2454
fache 2454
fing 2454
Landesregierung 2453
Beut@@ 2452
Nit@@ 2452
Tanz 2452
Trasse 2452
Veränderung 2452
angetrieben 2452
erd@@ 2452
wahr 2452
Abbau 2451
Cheftrainer 2451
Fertig@@ 2451
bekannteste 2451
pp 2451
stif@@ 2451
0ern 2450
Gum@@ 2450
Syrien 2450
besetzte 2450
ikern 2450
ünst@@ 2450
Petro@@ 2449
set 2449
sige 2449
Ged@@ 2448
Moor@@ 2448
stil@@ 2448
Durchschnitt 2447
Höhen 2447
Mathematiker 2447
Abwehr@@ 2446
Index 2446
Nei@@ 2446
hil@@ 2446
polnischer 2446
Anstellung 2445
CS 2445
Verd@@ 2445
ower 2445
schuss 2445
ämp@@ 2444
Eid@@ 2443
Germanistik 2443
empel 2443
geehrt 2443
ings@@ 2443
26@@ 2442
Ausgangspunkt 2442
Ax@@ 2442
Bahnhofs 2442
Herrenhaus 2442
erneute 2442
00.000 2441
asi 2441
erwartet 2441
fertigung 2441
schön@@ 2441
Sche@@ 2440
aga 2440
angesichts 2440
anth@@ 2440
Riv@@ 2439
bedeutender 2439
empfin@@ 2439
fuß 2439
hütte 2439
präsident 2439
quote 2439
ve@@ 2439
1799 2438
Opp@@ 2438
Regime 2438
Selbst 2438
sorgen 2438
verbessert 2438
Sob@@ 2437
ennetz 2437
terte 2437
tschechischen 2437
Bemühungen 2436
Finn@@ 2436
Pé@@ 2436
Stürmer 2436
passi@@ 2436
vermehrt 2436
DF@@ 2435
Strau@@ 2435
ria 2435
Abraham 2434
Wladimir 2434
bestes 2434
fangen 2434
hinterließ 2434
strich 2434
vent@@ 2434
zeitschrift 2434
170 2433
Colorado 2433
Freunden 2433
Konzern 2433
Patron@@ 2433
besitz@@ 2433
bewertet 2433
gebende 2433
gemeinschaften 2433
poem 2433
riff@@ 2433
Alexand@@ 2432
Nachlass 2432
bewaff@@ 2431
bühne 2431
gründung 2431
ikum 2431
sofern 2431
Meh@@ 2430
frag@@ 2430
plötzlich 2430
Labor@@ 2429
Pastor 2429
Reederei 2429
Zweig@@ 2429
andau@@ 2429
bestimm@@ 2429
Edinburgh 2428
Projek@@ 2428
still@@ 2428
Komplex@@ 2427
Nak@@ 2427
kommende 2427
Ukra@@ 2426
Konstruk@@ 2425
Lippe 2425
Struktur@@ 2425
revolution 2425
stätigkeit 2425
Alber@@ 2424
Australian 2424
Austria 2424
Flag@@ 2424
damp@@ 2424
derin 2424
ration@@ 2424
Admiral 2423
Auslands@@ 2423
Hat@@ 2423
Rost@@ 2423
Satz@@ 2423
differenz@@ 2423
entierung 2423
issen@@ 2423
schwe@@ 2423
Dok@@ 2422
Eintritt 2422
Esch@@ 2422
ahlen 2422
steil 2422
Alan 2421
Out@@ 2421
Taus@@ 2421
Leutnant 2420
Thüringer 2420
komplette 2420
unabhängigen 2420
Personenverkehr 2419
reis@@ 2419
saniert 2419
stad@@ 2419
Airlines 2418
Kanon@@ 2418
Moskauer 2418
Pferde@@ 2418
Schnitt 2418
TU 2418
jo@@ 2418
ziehung 2418
Moore 2417
Serbien 2417
geschlossene 2417
schle@@ 2417
Brunn@@ 2416
Dich@@ 2416
Schütz@@ 2416
ausstellungen 2416
eckt 2416
Borussia 2415
Dör@@ 2415
Sternbild 2415
angriff 2415
119@@ 2414
Ci@@ 2414
Donald 2414
Jede 2414
Umständen 2414
denberg 2414
prof@@ 2414
Geburt@@ 2413
Kunstgeschichte 2413
Mountains 2413
Oft 2413
Streich@@ 2413
familien 2413
jugend@@ 2413
undet 2413
Bezirk@@ 2412
Böden 2412
ems 2412
fertigen 2412
geschäfte 2412
wanderung 2412
wirtschaft@@ 2412
Ostsee 2411
Tim 2411
dreh@@ 2411
omet@@ 2411
wendung 2411
Kolonien 2410
Kurzfilm 2410
Lac@@ 2410
dit 2410
sieger 2410
Gotth@@ 2409
Teilung 2409
konstruktion 2409
Christopher 2408
Mauern 2408
Mör@@ 2408
Ontario 2408
betreiben 2408
dierung 2408
duktion 2408
eingeschränkt 2408
ammlung 2407
autom@@ 2407
No 2406
Passagiere 2406
Pfle@@ 2406
leben@@ 2406
Santiago 2405
Spä@@ 2405
Vater@@ 2405
regeln 2405
sach@@ 2405
Generationen 2404
beinahe 2404
strasse 2404
äden 2404
Manche 2403
Trainer@@ 2403
heil@@ 2403
herausge@@ 2403
Exemplaren 2402
Römer@@ 2402
geprägten 2402
usen 2402
äf@@ 2402
Johnny 2401
Marc@@ 2401
Moschee 2401
eingewechselt 2401
Las 2400
wesentlichen 2400
Dokumente 2399
übertrug 2399
Aufsteiger 2398
Faktoren 2398
Gott@@ 2398
Mindest@@ 2398
VfB 2398
allmählich 2398
speich@@ 2398
15,@@ 2397
itis 2397
tot 2397
NRW 2396
Pflege@@ 2396
wein 2396
Nominierung 2395
Nord- 2395
barocke 2395
bewaffneten 2395
hi 2395
sammeln 2395
Akt 2394
Aktionen 2394
Damals 2394
Gemeinschafts@@ 2394
Adresse 2393
Dank 2393
Public 2393
betreute 2393
kran@@ 2393
ukrainischen 2393
750 2392
Basi@@ 2392
haupt 2392
pflege 2392
Cav@@ 2391
Freie 2391
Fürsten@@ 2391
U.S. 2391
plast@@ 2391
stufen 2391
vertritt 2391
Lun@@ 2390
Old 2390
eingenommen 2390
för@@ 2390
verd@@ 2390
östlicher 2390
Sow@@ 2389
Stal@@ 2389
küh@@ 2389
mas@@ 2389
Eil@@ 2388
Ermordung 2388
Künstlerin 2388
Löwen@@ 2388
kontin@@ 2388
zusetzen 2388
Big@@ 2387
Flus@@ 2387
Harmon@@ 2387
tan@@ 2387
Forderung 2386
Länder@@ 2386
enburger 2386
schoss 2386
zerstörten 2386
Naturpark 2385
Vorlauf 2385
ham@@ 2385
vit@@ 2385
Dienstleistungen 2384
Mitgliedschaft 2384
gig 2384
hilfe 2384
konservativen 2384
maßen 2384
Ära 2384
ösen 2384
Spring@@ 2383
Takt 2383
sitzen 2383
Düsseldorfer 2382
Rund 2382
Sep@@ 2382
büchern 2382
offensichtlich 2382
Cli@@ 2381
Ostseite 2381
Skulpturen 2381
Sowjet@@ 2381
mutter 2381
Hak@@ 2380
Kennzeichen 2380
Niederlagen 2380
Schwar@@ 2380
burgischen 2380
geholt 2380
polnisch 2380
gebildete 2379
oto 2379
­ 2379
105 2378
Wiedervereinigung 2378
wälder 2378
BSG 2377
Maurice 2377
Bein@@ 2376
Marco 2376
abschluss 2376
gerung 2376
gungs@@ 2376
ms@@ 2376
Duke 2375
Kleidung 2375
Südkorea 2375
befindliche 2375
wall 2375
eger 2374
wan@@ 2374
Jes@@ 2373
Nachbarorte 2373
Unterstütz@@ 2373
VP 2373
essel@@ 2373
normalen 2373
ths 2373
wachsenden 2373
Lungen@@ 2372
Torped@@ 2372
daß 2372
iche 2372
ungser@@ 2372
Burgh@@ 2371
Luf@@ 2371
entsp@@ 2371
äche 2371
Haut@@ 2370
Schwanz@@ 2370
Tier 2370
auseinander@@ 2370
ausschied 2370
Dokumentarfilm 2369
Eb@@ 2369
Risiko 2369
tischer 2369
abgehalten 2368
behaart 2368
bs@@ 2368
helm 2367
kas 2367
olz 2367
dic@@ 2366
ellip@@ 2366
fizierung 2366
zugewiesen 2366
ergruppe 2365
Minder@@ 2364
Oc@@ 2364
aufeinander 2364
verletzung 2364
Lov@@ 2363
Residenz 2363
geschäf@@ 2363
stetten 2363
9.@@ 2362
Entertainment 2362
Eth@@ 2362
Ferrari 2362
Kapazität 2362
Technology 2362
ammen 2362
gran@@ 2362
ähnelt 2362
Nic@@ 2361
Stuttgarter 2361
Unfall@@ 2361
vog@@ 2361
27@@ 2360
Loch 2360
Qualitäts@@ 2360
avi@@ 2359
osi@@ 2359
träge 2359
äst@@ 2359
Staffeln 2358
geborenen 2358
unbekannten 2358
vorzeitig 2358
einzeln 2357
genauer 2357
ocken 2357
sek@@ 2357
these 2357
ud 2357
BGB 2356
Befreiung 2356
Disziplinen 2356
konstruk@@ 2356
Einnahmen 2355
Erreichen 2355
Kommunalwahl 2355
Regist@@ 2355
bindung 2355
floh 2355
part@@ 2355
reichsten 2355
sie@@ 2355
Hess@@ 2354
Vincent 2354
ahrt 2354
belegten 2354
erkrank@@ 2354
guter 2354
kristall@@ 2354
riss 2354
teste 2354
Zus@@ 2353
dik@@ 2353
funde 2353
tiefer 2353
Betreiber 2352
Ji@@ 2352
unterwegs 2352
Bron@@ 2351
Giuseppe 2351
Space 2351
entr@@ 2351
kün@@ 2351
raums 2351
ulation 2351
zeitigen 2351
Felsen 2350
Stur@@ 2350
geomet@@ 2350
kirch@@ 2350
liberalen 2350
Ç@@ 2350
Whit@@ 2349
Zin@@ 2349
gestalten 2349
schrieben 2349
Eisen 2348
Gymnasiums 2348
Sarah 2348
architekt@@ 2348
ordnungen 2348
rede 2348
Beamten 2347
Night 2347
archie 2347
besseren 2347
gewal@@ 2347
ichtete 2347
sta 2347
Beendigung 2346
Gras@@ 2346
Kiew 2346
Region@@ 2346
Wern@@ 2346
schluss@@ 2346
Adams 2345
Af@@ 2345
Bundesstaaten 2345
Volkes 2345
neug@@ 2345
professor 2345
äußersten 2345
CH@@ 2344
deswegen 2344
eigenständigen 2344
schä@@ 2344
Hard@@ 2343
Weser 2343
berief 2343
gestartet 2343
lan 2343
trop@@ 2343
unterstand 2343
üren 2343
Sun 2342
schlüssel@@ 2342
Air@@ 2341
Nachweis 2341
Vorhaben 2341
gött@@ 2341
schießen 2341
vergangenen 2341
verzichtet 2341
arab@@ 2340
uraufgeführt 2340
ð@@ 2340
gend@@ 2339
objek@@ 2339
Bade@@ 2338
Heiz@@ 2338
Nerv@@ 2337
Over@@ 2337
Politik@@ 2337
büro 2337
eur 2337
sat@@ 2337
Fauna 2336
USS 2336
rt 2336
Basis@@ 2335
Bewohnern 2335
Christine 2335
Pacific 2335
Sturz 2335
ku@@ 2335
niedrigen 2335
öfen 2335
Lausanne 2334
Offiz@@ 2334
Seele 2334
Wär@@ 2334
namens@@ 2334
qualität 2334
stiftung 2334
Erwin 2333
Herzogs 2333
LE@@ 2333
Luise 2333
Schatz@@ 2333
Stämme 2333
beruh@@ 2333
entierten 2333
unken 2333
zeuge 2333
Bar 2332
Fred 2332
Klang@@ 2332
links@@ 2332
reine 2331
Ark@@ 2330
Kolum@@ 2330
angegriffen 2330
bol@@ 2330
pul@@ 2330
verarbeitung 2330
befestigt 2329
erhöh@@ 2329
gerecht 2329
taus@@ 2329
wander@@ 2329
win 2329
Grun@@ 2328
Roth 2328
Staffel@@ 2328
ckte 2328
Moment 2327
Übergangs@@ 2327
Chief 2326
Infolge 2326
Königlichen 2326
Tageszeitung 2326
ografischen 2326
Bergh@@ 2325
Kansas 2325
Kob@@ 2325
Niveau 2325
Verst@@ 2325
lat 2325
ässe 2325
Hals@@ 2324
loss 2324
zerstörte 2324
Bestimmungen 2323
Bewegungen 2323
Maß 2323
Pist@@ 2323
ennamen 2323
graph@@ 2323
lossenen 2323
zeitgleich 2323
Erl@@ 2322
Welle 2322
platzes 2322
Death 2321
beur@@ 2321
brannte 2321
fertig 2321
ty@@ 2321
Uni@@ 2320
aris 2320
esisch 2320
Direk@@ 2319
Jimmy 2319
Lub@@ 2319
Sus@@ 2319
Wälder 2319
brasilianischen 2319
erstre@@ 2319
geraten 2319
Charlie 2318
Fa@@ 2318
befür@@ 2318
Briefe 2317
Individuen 2316
dium 2316
fran@@ 2316
konzipiert 2316
zeitliche 2316
Dan 2315
band@@ 2315
mers 2315
neunten 2315
Board 2314
Zwer@@ 2314
last 2314
beruf@@ 2313
ländern 2313
Gon@@ 2312
Viertel@@ 2312
dirig@@ 2312
Ernährung 2311
Panzer 2311
Stock 2311
Tank@@ 2311
basis 2311
manche 2311
verliebt 2311
Vulkan@@ 2310
Anti 2309
Denn 2309
Hammer 2309
abin@@ 2309
met 2309
sequ@@ 2309
stunden 2309
Biographie 2308
Platten 2308
Wirbel@@ 2308
aufgelistet 2308
entwässert 2308
atin 2307
stechn@@ 2307
übergreif@@ 2307
Erdbeben 2306
Fei@@ 2306
Hits 2306
Ursachen 2306
Wettbewerbe 2306
Wird 2306
größter 2306
ics 2306
Bé@@ 2305
Felder 2305
Gegenzug 2305
kirchen@@ 2305
oper 2305
Atmosphäre 2304
Hed@@ 2304
Völker 2304
cio 2304
register 2304
schieden 2304
sig 2304
İ@@ 2304
Kombin@@ 2303
May 2303
Petrus 2303
gestre@@ 2303
kritischen 2303
Detroit 2302
Greifswald 2302
Nachricht 2302
Willy 2302
bachs 2302
ix@@ 2302
450 2301
BA 2301
Mayer 2301
Nachwuch@@ 2301
Naz@@ 2301
Solo 2301
stuhl 2301
Gerät 2300
Sed@@ 2300
Strafe 2300
dam@@ 2300
stationen 2300
Cru@@ 2299
Rechtswissenschaft 2299
geschm@@ 2299
betätigte 2298
tat 2298
Adelsgeschlecht 2297
agentur 2297
braucht 2297
kas@@ 2297
springen 2297
Schild 2296
UK 2296
CSU 2295
Campus 2295
Clark 2295
produzierten 2295
spor 2295
verlust 2295
Cent@@ 2294
Fortsch@@ 2294
deutliche 2294
ub 2294
Dekanat 2293
Dritt@@ 2293
Hohl@@ 2293
sekretär 2293
stücken 2293
Reaktionen 2292
Stufen 2292
Unterseite 2292
verletz@@ 2292
viermal 2292
Erstausstrahlung 2291
Philologie 2291
Seither 2291
betre@@ 2291
eau 2291
entums 2291
gestanden 2291
Außer 2290
Blank@@ 2290
Material@@ 2290
Münster@@ 2290
aik@@ 2290
ashi 2290
gebenen 2290
î@@ 2290
glaubt 2289
sand@@ 2289
sätze 2289
Gos@@ 2288
Schein@@ 2288
Wisconsin 2288
direktion 2288
jenigen 2288
rufen 2288
äus@@ 2288
Anderson 2287
Bischöfe 2287
Perspektive 2287
Planeten 2287
Reiter 2287
Vorstandsmitglied 2287
nau 2287
orientierten 2287
ramm 2287
schnellen 2287
Gegenstände 2286
Order 2286
Vize 2286
jüdischer 2286
schung 2286
stechnik 2286
Konflikten 2285
Law 2285
Talent 2285
ima 2285
stro@@ 2285
Court 2284
Geschwister 2284
Kulturen 2284
Syndrom 2284
Nikolai 2283
kirch 2283
Anlehnung 2282
Bisch@@ 2282
Dirigent 2282
Hildesheim 2282
Kno@@ 2282
Straßenb@@ 2282
enberger 2282
ista 2282
maß@@ 2282
spezi@@ 2282
verkehrt 2282
Kooper@@ 2281
Pump@@ 2281
vogel 2281
Politikerin 2280
Vall@@ 2280
ij@@ 2280
og 2280
verfassungs@@ 2280
verpflichtete 2280
überzeugen 2280
Weblinks 2279
aufzunehmen 2279
eigenem 2279
griffen 2279
nahm@@ 2279
sens 2279
them@@ 2279
Polizisten 2278
enschule 2278
produkte 2278
Buches 2277
adt 2277
Cla@@ 2276
Prager 2276
Seminar 2276
akte 2276
Lied@@ 2275
Rugby 2275
abgesetzt 2275
fluss@@ 2275
rahmen 2275
Bahnhofs@@ 2274
Naturschutz 2274
Schaffung 2274
Schlach@@ 2274
auffäl@@ 2274
sätzen 2274
vir@@ 2274
Hut@@ 2273
Kontroll@@ 2273
Trocken@@ 2273
ausgesprochen 2273
bevor@@ 2273
ppen@@ 2273
scha 2273
stab 2273
Generalsekretär 2272
Glas 2272
gan 2272
GT@@ 2271
Verfilmung 2271
posten 2271
BM@@ 2270
Bruch 2270
Hang@@ 2270
Kavallerie 2270
Untersuchungs@@ 2270
bundes 2270
dorthin 2270
erhöhen 2270
vermögen 2270
Arti@@ 2269
Derzeit 2269
Gleise 2269
Ori@@ 2269
bis@@ 2269
enza 2269
gerichte 2269
klu@@ 2269
schmalen 2269
städter 2269
zonen 2269
Nas@@ 2268
Vergleich@@ 2268
Wirklichkeit 2268
ema 2268
gelungen 2268
jung@@ 2268
undes 2268
DO@@ 2267
mut 2267
samen 2267
vorherigen 2267
Abteilungen 2266
Kla@@ 2266
Risik@@ 2266
Billy 2265
División 2265
Häufig 2265
Schauspiel 2265
lik 2265
omin@@ 2265
refer@@ 2265
Cel@@ 2264
Damp@@ 2264
Temperatur@@ 2264
absolviert 2264
Kette 2263
ergaben 2263
Laur@@ 2262
eingeteilt 2262
latein@@ 2262
olle@@ 2262
stuf@@ 2262
Blum@@ 2261
Fuchs 2261
befreit 2261
ordnen 2261
Allianz 2260
Cross@@ 2260
Vermittlung 2260
klass@@ 2260
leichter 2260
pfle@@ 2260
tex@@ 2260
Assistenz@@ 2259
Mittelmeer 2259
aften 2259
erteilt 2259
marken 2259
projek@@ 2259
Is 2258
Wittenberg 2258
langjährigen 2258
Zentrale 2257
entfernten 2257
tagen 2257
tivität 2257
Handlungen 2256
führungs@@ 2256
herrn 2256
ländlichen 2256
meyer 2256
natürlich 2256
16,@@ 2255
Conference 2255
Mä@@ 2255
Playoffs 2255
planung 2255
Max@@ 2254
Strand 2254
innehatte 2254
rachte 2254
Lexikon 2253
kanten 2253
Ō@@ 2253
Ohne 2252
selb@@ 2252
Berechnung 2251
Sequ@@ 2251
fragt 2251
misst 2251
tags 2251
Rud@@ 2250
hof@@ 2250
Komment@@ 2249
Räumen 2249
leichten 2249
Krit@@ 2248
Seeh@@ 2248
manu@@ 2248
spendete 2248
steiner 2248
Aug@@ 2247
Welter@@ 2247
aks 2247
dos 2247
finanziell 2247
vorhandene 2246
Mainzer 2245
Schwanz 2245
blättern 2245
esischer 2245
gal@@ 2245
statist@@ 2245
Kärnten 2244
fungen 2244
1300 2243
Bebauung 2243
Metz@@ 2243
nitten 2243
Profi 2242
beanspru@@ 2242
Anführer 2241
Gelehr@@ 2241
Heraus@@ 2241
Militärdienst 2241
agon@@ 2241
CA 2240
Vertretung 2240
dliche 2240
Black@@ 2239
Fähigkeit 2239
Willi 2239
abermals 2239
normalerweise 2239
origin@@ 2239
ppt 2239
Benz 2238
Ihren 2238
Passagier@@ 2238
flieg@@ 2238
reten 2238
Memorial 2237
dokum@@ 2237
Belgrad 2236
Musikvideo 2236
adi 2236
deutsches 2236
fließen 2236
Arm 2235
Diam@@ 2235
Fokus 2235
Sportler 2235
Wertung 2235
eder 2235
provisor@@ 2235
ritte 2235
schafft 2235
Außenminister 2234
Sag@@ 2234
Spann@@ 2234
demokratische 2234
orie 2234
enfeld 2233
äußer@@ 2233
Départements 2232
Kreuzung 2232
Spieler@@ 2232
Tem@@ 2232
ef 2232
ographischen 2232
Lüneburg 2231
Vermess@@ 2231
Wohnsitz 2231
aly@@ 2231
kehrten 2231
kü@@ 2231
rhein@@ 2231
Hanau 2230
ission 2230
Angabe 2229
spreis 2229
Kontin@@ 2228
Sultan 2228
anhal@@ 2228
fers 2228
Anwesenheit 2227
Medaillen 2227
Zweig 2227
durchquert 2227
qual@@ 2227
rierte 2227
Afri@@ 2226
Bock@@ 2226
Bürgermeister@@ 2226
Hunder@@ 2226
größerer 2226
lier 2226
wirtschafts@@ 2226
Aussicht@@ 2225
Kinder- 2225
dist@@ 2225
identifiziert 2225
landes@@ 2225
101 2224
Dim@@ 2224
Irak 2224
achsenen 2224
blauen 2224
genü@@ 2224
Home 2223
Schaden 2223
fordern 2223
keinerlei 2223
koh@@ 2223
zustande 2223
1796 2222
arischer 2222
Beine 2221
litt 2221
ortes 2221
Schaff@@ 2220
Spannung 2220
omot@@ 2220
taler 2220
Abbildung 2219
Liedern 2219
Miet@@ 2219
Schicht 2219
basierte 2219
gestellte 2219
wände 2219
Amp@@ 2218
EG 2218
Privates 2218
Zoll 2218
bst 2218
einzelner 2218
risch 2218
wig 2218
älern 2218
Dorfkirche 2217
Quad@@ 2217
SP 2217
agt 2217
dol@@ 2217
kommend 2217
preußischer 2217
stärksten 2217
Vorfahren 2216
Zerstörer 2216
bauf@@ 2216
flossen 2216
igsten 2216
versuch 2216
Öl 2216
Cham@@ 2215
Kompanie 2215
Projekten 2215
Siemens 2215
VIII. 2215
ausgesch@@ 2215
1,3 2214
2.000 2214
Auswärts@@ 2214
eland 2214
genie@@ 2214
otes 2214
streit 2214
Bess@@ 2213
Fußballnationalmannschaft 2213
Gesangs@@ 2213
amba 2213
südwestlichen 2213
Hinter 2212
Leiden 2212
Reak@@ 2212
Verwandten 2212
könig@@ 2212
rechter 2212
skon@@ 2212
überall 2212
Long@@ 2211
Speich@@ 2211
Stab 2211
Städ@@ 2211
Wenige 2211
ö 2211
Legislaturperiode 2210
Marken 2210
ahr 2210
thal@@ 2210
Antwort 2209
Aufzeichnungen 2209
Entsprechend 2209
Feldzug 2209
Melbourne 2209
Pupp@@ 2209
Scho@@ 2209
gültigen 2209
notwendigen 2209
wohnten 2209
Flecken 2208
Sant@@ 2208
erzeugen 2208
verwundet 2208
Antarctic 2207
Gründungsmitglied 2207
Kru@@ 2207
Marcel 2207
Opfer@@ 2207
Professorin 2207
plant 2207
spezifische 2207
unverändert 2207
Du 2206
Merk@@ 2206
Offizier@@ 2206
Wissenschaft@@ 2206
forderungen 2206
lebens 2206
regelmäßige 2206
sächsische 2206
heiraten 2205
häufigsten 2205
mechan@@ 2205
Papier 2204
Philippinen 2204
Raub@@ 2204
aschen 2204
erner 2204
ophon 2204
änderungen 2204
1795 2203
Biologie 2203
Lothringen 2203
herzustellen 2203
ÖVP 2203
Begegnungen 2202
Erhalt 2202
Hinder@@ 2202
Schäd@@ 2202
chter@@ 2202
enswerte 2202
sprecher 2202
vergrößert 2202
Communauté 2201
Nachfrage 2201
Vorteile 2201
deuten 2201
eingesetzten 2201
hohem 2201
neutr@@ 2201
kritische 2200
richtig 2200
status 2200
vollendet 2200
1784 2199
Bronz@@ 2199
Indianer 2199
Partnerschaft 2199
geführten 2199
Kranken@@ 2198
Länderspiele 2198
Reichweite 2198
Walther 2198
förderte 2198
Eintracht 2197
Firm@@ 2197
betriebs@@ 2197
garanti@@ 2197
trock@@ 2197
verli@@ 2197
freiwillig 2196
gas 2196
schwarz@@ 2196
beschreiben 2195
hü@@ 2195
verständnis 2195
ßen@@ 2195
Reichstag 2194
asiatischen 2194
gab@@ 2194
Speicher@@ 2193
itzen 2193
oo 2193
Ortsteilen 2192
Rittergut 2192
boten 2192
kro@@ 2192
viert@@ 2192
UCI 2191
Wahlbezirk 2191
forst@@ 2191
niedrig@@ 2191
val 2191
verlag 2191
Paare 2190
Rückseite 2190
Chan@@ 2189
Garde 2189
Spielbetrieb 2189
geschichtlichen 2189
mü@@ 2188
struppen 2188
Bergbau@@ 2187
NE@@ 2187
dustrie 2187
erobert 2187
sechs@@ 2187
Feier@@ 2186
Lai@@ 2186
Mississippi 2186
Vertre@@ 2186
affen@@ 2186
enstraße 2186
interessiert 2186
physi@@ 2186
Bibel@@ 2185
Darauf 2185
Kurfürst 2185
enbild 2185
ston 2185
Bildhau@@ 2184
Erkenntnisse 2184
Europameister 2184
Schwarze 2184
erheblichen 2184
zusammengeschlossen 2184
äße 2184
Bewegungs@@ 2183
ernden 2183
port 2183
Junior@@ 2182
Werkes 2182
ous 2182
reiches 2182
vollständigen 2182
École 2182
17,@@ 2181
Renovierung 2181
lobte 2181
Experim@@ 2180
Haag 2180
Kak@@ 2180
Werbung 2180
dé@@ 2180
hoben 2180
18,@@ 2179
Erlaubnis 2179
Veranstaltungs@@ 2179
entschloss 2179
zahlung 2179
äußere 2179
AM 2178
Dialog@@ 2178
issionen 2178
kund@@ 2177
4000 2176
Bauch@@ 2176
Bell 2176
SM 2176
can@@ 2176
minim@@ 2176
Copa 2175
Path@@ 2175
Wirkungs@@ 2175
schlan@@ 2175
sekret@@ 2175
Bac@@ 2174
Baumeister 2174
Zuf@@ 2174
eister 2174
Mediziner 2173
Unterarten 2173
keit@@ 2173
ll@@ 2173
verfassung 2173
versicherung 2173
Astronomen 2172
Indiana 2172
begleit@@ 2172
güter 2172
hung 2172
Händen 2171
bewegungen 2171
kanadische 2171
Hessischen 2170
Krank@@ 2170
Thur@@ 2170
U23 2170
schriftlich 2170
üd@@ 2170
Roy 2169
Sakristei 2169
brand@@ 2169
rac@@ 2169
spartner 2169
zurückkehrte 2169
ünde 2169
Epoche 2168
Kuba 2168
Mahl@@ 2168
afrika 2168
dies@@ 2168
dram@@ 2168
ehren@@ 2168
vereinzelt 2168
Fli@@ 2167
Olympiasieger 2167
kischen 2167
ungarische 2167
Absicht 2166
Anlässlich 2166
Militä@@ 2166
Regelungen 2166
niemals 2166
ui 2166
Cop@@ 2165
Trupp@@ 2165
Ve@@ 2165
ku 2165
lutherischen 2165
Pfei@@ 2164
Verz@@ 2164
genossenschaft 2164
hren@@ 2164
sle@@ 2164
Kreuzer 2163
atten@@ 2163
mos@@ 2163
verweist 2163
Kaiserreich 2162
U20 2162
erwähnte 2162
ester@@ 2162
ität@@ 2162
stör@@ 2162
systemen 2162
wendungen 2162
Ansichten 2161
Invasion 2161
abhäng@@ 2161
air@@ 2161
anti 2161
erlaubte 2161
partei 2161
Darstell@@ 2160
Fj@@ 2160
Jam@@ 2160
Kau@@ 2160
Metall 2160
Wohnhäuser 2160
oberfläche 2160
80@@ 2159
Mont 2159
Porträts 2159
jäger 2159
over 2159
städtische 2159
Are@@ 2158
Obersten 2158
suche 2158
FF 2157
SPÖ 2157
Thron 2157
beleuch@@ 2157
rei 2157
Area 2156
Ash@@ 2156
Banken 2156
Entscheidungs@@ 2156
Sportarten 2156
Standards 2156
boot 2156
fes 2156
wehren 2156
alteten 2155
bess@@ 2155
cus 2155
städte 2155
trainierte 2155
Ansiedlung 2154
Gas 2154
szene 2154
Blütezeit 2153
kehr 2153
oko 2153
ranten 2153
täglichen 2153
dischen 2152
dur@@ 2152
ensen 2152
musiker 2152
straf@@ 2152
zentren 2152
Dekan 2151
Wester@@ 2151
gemeint 2151
äle 2151
Fon@@ 2150
Mountain 2150
Pit@@ 2150
Server 2150
Tower 2150
Trepp@@ 2150
Vorschriften 2150
affen 2150
einfacher 2150
gä@@ 2150
tra 2150
üste 2150
aug@@ 2149
zugrunde 2149
Anfänge 2148
Flur@@ 2148
Landschaft@@ 2148
Mam@@ 2148
Range 2148
Weltrangliste 2148
ains 2148
ethn@@ 2148
stetig 2148
Pfeil@@ 2147
Türen 2147
Waff@@ 2147
Wirt@@ 2147
wöch@@ 2147
Municipio 2146
Platt@@ 2146
lug 2146
som@@ 2146
1,6 2145
Dance 2145
Darsteller 2145
Koch@@ 2145
Last 2145
esi 2145
iga 2145
Öffnung 2145
com@@ 2144
reden 2144
römischer 2144
Eingang@@ 2143
Gul@@ 2143
Porsche 2143
itt 2142
Dav@@ 2141
Ele@@ 2141
Ermittlungen 2141
Projekts 2141
Schad@@ 2141
detailli@@ 2141
islamischen 2141
typ@@ 2141
Paulus 2140
erinn@@ 2140
gymnasium 2140
rum 2140
zuständigen 2140
Leib@@ 2139
empfangen 2139
rige 2139
ï@@ 2139
Fox 2138
Mili@@ 2138
Wahrnehmung 2138
polizei 2138
stürzte 2138
örtliche 2138
Angeb@@ 2137
Erhöhung 2137
HMS 2137
Oze@@ 2137
Schmer@@ 2137
ae@@ 2137
meier 2137
verabschiedet 2137
Braun 2136
Dö@@ 2136
Ries@@ 2136
Wild 2136
feuer 2136
inden 2136
kau 2136
untereinander 2136
virtu@@ 2136
Abhängigkeit 2135
Beweis 2135
Cover 2135
Mineral 2135
These 2135
Vancouver 2135
gänzlich 2135
Helden 2134
Stick@@ 2134
digkeit 2134
essel 2134
isl@@ 2134
skomm@@ 2134
verkörperte 2134
Beis@@ 2133
Commonwealth 2133
aufbewahrt 2133
ausdrücklich 2133
rach 2133
seel@@ 2133
Cross 2132
Dokument@@ 2132
Unterrichts@@ 2132
pfar@@ 2132
Gesundheit@@ 2131
Himmels@@ 2131
Sperr@@ 2131
lernt 2131
Fac@@ 2130
Signal@@ 2130
Wör@@ 2130
heide 2130
maligen 2130
reinen 2130
spre@@ 2130
wonach 2130
wäl@@ 2130
Gip@@ 2129
Sap@@ 2129
auftrat 2129
prozess 2129
stirbt 2129
Baudenkmale 2128
Zeitungs@@ 2128
betroffenen 2128
gif@@ 2128
wirtschaftlicher 2128
Ähnlich 2128
Arizona 2127
Chronik 2127
Hahn 2127
Pakistan 2127
Weiße 2127
akti@@ 2127
organisierten 2127
rit 2127
Ägyp@@ 2127
Ind@@ 2126
Prinzen 2126
dner 2126
sien 2126
Bekämpfung 2125
Konserv@@ 2125
erhob 2125
interpretiert 2125
ohl 2125
1,4 2124
28@@ 2124
BS 2124
Feh@@ 2124
Goldenen 2124
Reformen 2124
igh@@ 2124
kennt 2124
out@@ 2124
IF 2123
Strategie 2123
back 2123
ennt 2123
half 2123
Ins@@ 2122
Institution 2122
mexikanischen 2122
studio 2122
untersuchte 2122
urkundliche 2122
Auguste 2121
Gewinn@@ 2121
flugzeug 2121
machung 2121
mitglied 2121
Begründer 2120
Florian 2120
Franc@@ 2120
Jedes 2120
schickte 2120
Fotografie 2119
Wiesen 2119
gelb@@ 2119
gendes 2119
kontinuierlich 2119
kör@@ 2119
voraus 2119
Multi@@ 2118
Schü@@ 2118
entre@@ 2118
Atlanta 2117
sonn@@ 2117
zylinder 2117
Bayreuth 2116
liga@@ 2116
resul@@ 2116
ätzen 2116
Revol@@ 2115
Standorten 2115
Wul@@ 2115
bekamen 2115
urg@@ 2115
emat@@ 2114
immen 2114
kup@@ 2114
schichten 2114
warten 2114
wirkten 2114
jeweilige 2113
pak@@ 2113
Manga 2112
Motors 2112
Railroad 2112
entscheidend 2112
vin 2112
yi 2112
öse 2112
Beispielsweise 2111
Bologna 2111
Heeres 2111
Male 2111
Ruhr@@ 2111
anzutreffen 2111
berühm@@ 2111
1780 2110
Cruz 2110
Sendungen 2110
Verlag@@ 2110
ckten 2110
personen 2110
sichten 2110
1791 2109
Gemeindeteil 2109
ingenieur 2109
kommunistischen 2109
ultur 2109
Landesliga 2108
Magazine 2108
gin 2108
komplex 2108
passen 2108
räte 2108
wohnt 2108
CS@@ 2107
Folgejahr 2107
bildern 2107
loser 2107
sar@@ 2107
zum@@ 2107
Jahrhunderten 2106
Naturdenkmale 2106
ausgeliefert 2106
billi@@ 2106
Jel@@ 2105
Kohle 2105
Ministerpräsidenten 2105
benötigte 2105
bergischen 2105
eingeb@@ 2105
herzog@@ 2105
komp@@ 2105
meinte 2105
phen@@ 2105
präch@@ 2105
AE@@ 2104
Bischofs 2104
Gefecht 2104
Hang 2104
Neug@@ 2104
assten 2104
behauptet 2104
niederländischer 2104
Cricket 2103
Microsoft 2103
Pom@@ 2103
Urkunden 2103
amtliche 2103
steuerung 2103
zeitige 2103
Obst@@ 2102
kus@@ 2102
Festland 2101
Geschlechts@@ 2101
Sizilien 2101
esi@@ 2101
geschieht 2101
Holding 2100
Teilnehmern 2100
erwerben 2100
flotte 2100
gering@@ 2100
ity 2100
Labor 2099
Masters 2099
Stammspieler 2099
hingerichtet 2099
plat@@ 2099
tur 2099
öpf@@ 2099
Bezirks 2098
Stadtteile 2098
falsch 2098
gangen 2098
komplex@@ 2098
vermittelt 2098
zähl@@ 2098
AZ 2097
Dublin 2097
Königlich 2097
Nicolas 2097
aufs 2097
kanadischer 2097
opro@@ 2097
Amerikanischen 2096
Bahnhof@@ 2096
Schiffes 2096
verliert 2096
Arz@@ 2095
Engl@@ 2095
Genre 2095
Grau@@ 2095
Lösungen 2095
Ozean 2095
Platzierungen 2095
Regie@@ 2095
a- 2095
feier@@ 2095
Fernsehserien 2094
Krankheiten 2094
Semin@@ 2094
Department 2093
Nenn@@ 2093
Opera 2093
Prim@@ 2093
dlichen 2093
erhof 2093
silber@@ 2093
ungewöhnlich 2093
ár@@ 2093
Aktiengesellschaft 2092
Norm 2092
Ric@@ 2092
Vari@@ 2092
empf@@ 2092
ș@@ 2092
Bischofsweihe 2091
Eröffnungs@@ 2091
Delegation 2090
Num@@ 2090
Psycho@@ 2090
Wat@@ 2090
beheimatet 2090
Minderheit 2089
Schaffen 2089
bett 2089
gige 2089
hydro@@ 2089
neg@@ 2089
Gerichtsbarkeit 2088
Gesetzes 2088
Hund 2088
Indian@@ 2088
Maine 2088
Posen 2088
Québec 2088
RTL 2088
annähernd 2088
esh@@ 2088
rett@@ 2088
Bereit@@ 2087
Besonderheiten 2087
Hubert 2087
Sto@@ 2087
sorgt 2087
wappen 2087
Unabhängigkeit@@ 2086
äusern 2086
Rückspiel 2085
gelben 2085
Gefangenen 2084
Händler 2084
Nordischen 2084
angaben 2084
führender 2084
live 2084
strand 2084
Beck 2083
Mittlerweile 2083
SR 2083
Tie@@ 2083
law@@ 2083
Sili@@ 2082
Tageb@@ 2082
Zehn 2082
beisp@@ 2082
enc@@ 2082
Arran@@ 2081
Freistil 2081
Gerichtsbezirk 2081
Konstantinopel 2081
Erziehungs@@ 2080
Jane 2080
fingen 2080
ichts 2080
malige 2080
trennte 2080
zene 2080
Videos 2079
anf@@ 2079
1785 2078
Breisgau 2078
Bäumen 2078
Höchstgeschwindigkeit 2078
Operationen 2078
atischer 2078
gedruckt 2078
rechnen 2078
var@@ 2078
Eingangs@@ 2077
Flo@@ 2077
Hals 2077
Verlags@@ 2077
Weißen@@ 2077
col@@ 2077
lokal 2077
spitzen 2077
AL 2076
Ruh@@ 2076
TE@@ 2076
aussch@@ 2076
Frü@@ 2075
Krakau 2075
bedürf@@ 2075
ikon 2075
skom@@ 2075
Ablehnung 2074
Haupts@@ 2074
Od@@ 2074
rumänischen 2074
sage 2074
vorsitzenden 2074
wahrgenommen 2074
Ebenen 2073
Kirchengebäude 2073
Liter@@ 2073
Reichs 2073
gehörende 2073
AT 2072
Staatsanwaltschaft 2072
Stettin 2072
Unmittelbar 2072
Untergrund 2072
egel@@ 2072
isa 2072
Agnes 2071
Just@@ 2071
MW 2071
Tests 2071
Verbrau@@ 2071
Wände 2071
fres@@ 2071
journal@@ 2071
passiert 2071
Gesang@@ 2070
Khan 2070
Knochen 2070
Monarchie 2070
Sieb@@ 2070
beträch@@ 2070
fru@@ 2070
ikerin 2070
starker 2070
Bayerische 2069
Schienen@@ 2069
Tul@@ 2069
istisches 2069
iums 2069
1750 2068
Abriss 2068
Chemiker 2068
Woh@@ 2068
chan@@ 2068
erzielten 2068
flut@@ 2068
klar@@ 2068
Hauptstraße 2067
Robin 2067
Sign@@ 2067
Southern 2067
Staatsbürgerschaft 2067
Up 2067
berechtigten 2067
furt 2067
ż@@ 2067
1787 2066
Blau@@ 2066
Brust 2066
Katholischen 2066
Uwe 2066
beför@@ 2066
fortgesetzt 2066
itor 2066
Oberösterreich 2065
Trin@@ 2065
fak@@ 2065
kaufen 2065
my@@ 2065
schwedischer 2065
ô@@ 2065
antes 2064
denkmal 2064
ligisten 2064
ophy@@ 2064
Cad@@ 2063
Connecticut 2063
Identif@@ 2063
Magist@@ 2063
Württem@@ 2063
deckte 2063
eröffneten 2063
streng 2063
Hongkong 2062
Ludwig@@ 2062
amts@@ 2062
besp@@ 2062
grau@@ 2062
orchester 2062
organ@@ 2062
Auswahl@@ 2061
Stadtzentrum 2061
Todes 2060
Verhaltens@@ 2060
bedingten 2060
esses 2060
gebend 2060
generell 2060
obersten 2060
oos 2060
ruppe 2060
ämter 2060
Stausee 2059
chtung 2059
fried 2059
DIN 2058
History 2058
Porträt 2058
ause 2058
berufliche 2058
ektion 2058
felden 2058
han@@ 2058
Anat@@ 2057
Höfe 2057
Komitee 2057
mithilfe 2057
scht 2057
Erwerb 2056
GT 2056
Luftsch@@ 2056
Stewart 2056
esa 2056
kommens 2056
mot@@ 2056
verbreiteten 2056
Auflagen 2055
Marsch@@ 2055
Worte 2055
konzentriert 2055
mehrheitlich 2055
orthodoxen 2055
Bruce 2054
Haft@@ 2054
Här@@ 2054
IP@@ 2054
Kriege 2054
Magnus 2054
Philippe 2054
Pie@@ 2054
Soundtrack 2054
beschreibung 2054
verfolgen 2054
Deren 2053
Rates 2053
Titeln 2053
behalten 2053
einander@@ 2053
negativ 2053
umente 2053
holz@@ 2052
südöstlichen 2052
Erkrankungen 2051
Techniken 2051
alog@@ 2051
fik@@ 2051
gräber 2051
inst@@ 2051
juristischen 2051
nitt@@ 2051
oa 2051
siv 2051
Bürgerschaft 2050
Freil@@ 2050
Neuf@@ 2050
Normandie 2050
fert 2050
rieb 2050
zial@@ 2050
CI@@ 2049
Fan@@ 2049
Massi@@ 2049
Weihbischof 2049
ande 2049
ängerin 2049
Kupfer 2048
Schwerpunkte 2048
Stief@@ 2048
Vertrieb 2048
fonds 2048
gerichtshof 2048
medizin@@ 2048
barocken 2047
leuten 2047
1400 2046
Hür@@ 2046
Unternehm@@ 2046
bury 2046
lov@@ 2046
pert 2046
CD@@ 2045
Fru@@ 2045
Kenntnisse 2045
Mog@@ 2045
Ressourcen 2045
Schatten 2045
Söhnen 2045
ographische 2045
ordens 2045
ruft 2045
ärm@@ 2045
Australia 2044
Car 2044
Geschütz@@ 2044
Liverpool 2044
Qualif@@ 2044
ries 2044
zeu@@ 2044
Deleg@@ 2043
Kilogramm 2043
Physiker 2043
dieren 2043
Auftreten 2042
Ermland 2042
Theorien 2042
aufwen@@ 2042
spir@@ 2042
Special 2041
ethnischen 2041
raft 2041
BC 2040
Erik 2040
Hop 2040
Stone 2040
halter 2040
lor@@ 2040
Abd@@ 2039
Chir@@ 2039
Nelson 2039
Performance 2039
binden 2039
iler 2039
sto@@ 2039
Kevin 2038
Kō@@ 2038
Meilen 2038
ausch 2038
formation 2038
gewiesen 2038
Schwed@@ 2037
Wolff 2037
Zut@@ 2037
Stadtmauer 2036
Stiftungs@@ 2036
nordöstlichen 2036
Festungs@@ 2035
PD 2035
Stammes@@ 2035
eser 2035
Gren@@ 2034
Kuh@@ 2034
Missions@@ 2034
Not 2034
Saf@@ 2034
Bedrohung 2033
Dominikan@@ 2033
brecher 2033
gelegten 2033
nica 2033
riebenen 2033
Abschnitte 2032
Experten 2032
Lincoln 2032
Umsatz 2032
Up@@ 2032
kä@@ 2032
verseh@@ 2032
verziert 2032
zeitlich 2032
Inszenierung 2031
Plak@@ 2031
Skulptur 2031
beweg@@ 2031
erkenn@@ 2031
orts@@ 2031
Margaret 2030
Trü@@ 2030
benachbarte 2030
onnen 2030
л@@ 2030
Gh@@ 2029
ielt 2029
nachzu@@ 2029
Meisterschafts@@ 2028
Om@@ 2028
Übersetzungen 2028
Challenge 2027
Chlor@@ 2027
Dag@@ 2027
Nomin@@ 2027
Sud@@ 2027
abgesehen 2027
gemälde 2027
morph@@ 2027
zentral 2027
Information@@ 2026
igte 2026
osch@@ 2026
Adel 2025
Meeresspiegel 2025
ausführ@@ 2025
breiter 2025
stimmte 2025
Erstbeschreibung 2024
Hinblick 2024
Sha@@ 2024
blu@@ 2024
lob@@ 2024
spon@@ 2024
vorgeschlagen 2024
wirft 2024
Allgemeines 2023
Konzerten 2023
Lübecker 2023
Tennessee 2023
chene 2023
gegenüber@@ 2023
Afghanistan 2022
Buck@@ 2022
Generalstab@@ 2022
Put@@ 2022
Turniere 2022
ades 2022
block@@ 2022
pol 2022
vorgesch@@ 2022
Edmund 2021
Hartmann 2021
Henn@@ 2021
Synchronisation 2021
Viktor 2021
beamter 2021
exter@@ 2021
angewiesen 2020
kreises 2020
liefen 2020
ores 2020
Cob@@ 2019
Fische 2019
Trink@@ 2019
Zwöl@@ 2019
grä@@ 2019
gängen 2019
iden@@ 2019
laufende 2019
riv@@ 2019
shofen 2019
äler 2019
Beschäftigung 2018
Kreisen 2018
Ligakonkurrenten 2018
bon@@ 2018
literarische 2018
molek@@ 2018
Wiederhol@@ 2017
oka 2017
ändert 2017
Decke 2016
Leist@@ 2016
Puerto 2016
inae 2016
loss@@ 2016
nat@@ 2016
tic@@ 2016
Berger 2015
Ell@@ 2015
Gottlieb 2015
Ruhe 2015
Spenden 2015
ausländischen 2015
rez@@ 2015
Burgen 2014
KA 2014
Kohlen@@ 2014
Programms 2014
Sitzung 2014
Verwal@@ 2014
ave 2014
bildenden 2014
demann 2014
gangene 2014
mitgliedern 2014
rückt 2014
siedelten 2014
sprüfung 2014
Café 2013
Hohen 2013
Nordost@@ 2013
Ufer@@ 2013
zub@@ 2013
Gastgeber 2012
Iv@@ 2012
Konstantin 2012
Singapur 2012
alem 2012
braune 2012
entscheidenden 2012
fasste 2012
lei 2012
rec@@ 2012
scheibe 2012
118@@ 2011
garde 2011
Lock@@ 2010
Neubau@@ 2010
Ruder@@ 2010
allgemein@@ 2010
pur@@ 2010
ypen 2010
Clar@@ 2009
Nick 2009
On 2009
Prototyp 2009
ium@@ 2009
now 2009
ordnete 2009
publi@@ 2009
Östlich 2009
Benennung 2008
Schieß@@ 2008
egg 2008
gemisch@@ 2008
streit@@ 2008
Kis@@ 2007
Leder@@ 2007
Störungen 2007
achs 2007
post 2007
Parlamentswahlen 2006
Pav@@ 2006
fahrts@@ 2006
gestiftet 2006
kant@@ 2006
pet@@ 2006
Abstimmung 2005
Lep@@ 2005
angeführt 2005
eigens 2005
produzieren 2005
wichtiges 2005
Basilika 2004
Pilot 2004
RO@@ 2004
Zweifel 2004
amo 2004
bet 2004
flo@@ 2004
genutzten 2004
Abenteuer 2003
BB 2003
Kirchturm 2003
etablieren 2003
itation 2003
Estland 2002
Freiheits@@ 2002
Frühe 2002
fahrzeugen 2002
Emma 2001
Tok@@ 2001
Vielfalt 2001
ce@@ 2001
produktionen 2001
schmie@@ 2001
Boris 2000
steins 2000
ID 1999
Südwest 1999
Westlich 1999
pump@@ 1999
ration 1999
wechselten 1999
Office 1998
Sachver@@ 1998
cer@@ 1998
getre@@ 1998
ohn@@ 1998
phil@@ 1998
Konflikte 1997
eistung 1997
а 1997
Einwander@@ 1996
Squ@@ 1996
geklärt 1996
öfe 1996
Denkmalliste 1995
Vorträge 1994
ble@@ 1994
lug@@ 1994
ritz 1994
station@@ 1994
Christentum 1993
Gefähr@@ 1993
Poll@@ 1993
serb@@ 1993
Dill@@ 1992
Faktor 1992
Jordan 1992
Riga 1992
Digit@@ 1991
Feier 1991
Landschaften 1991
Lothar 1991
Miami 1991
Modellen 1991
Stu@@ 1991
konzept 1991
tür@@ 1991
Achter 1990
Spannungen 1990
cre@@ 1990
eira 1990
hten 1990
mäß@@ 1990
zunehmenden 1990
α@@ 1990
Bayer 1989
Departamento 1989
Grim@@ 1989
Komplex 1989
Norbert 1989
Zentrums 1989
quer 1989
übliche 1989
Bekannte 1988
Global 1988
Kem@@ 1988
SE 1988
Säuget@@ 1988
TC 1988
entscheidende 1988
kleidung 1988
law 1988
LA 1987
Landschaftsschutzgebiet 1987
Möglicherweise 1987
Namensgeber 1987
Rent@@ 1987
Sklaven 1987
meint 1987
moderner 1987
Schmetter@@ 1986
Söl@@ 1986
Vorgehen 1986
ichi 1986
national 1986
wäldern 1986
Kum@@ 1985
Wall 1985
orps 1985
Dur 1984
Köl@@ 1984
trennt 1984
Antwerpen 1983
Gruben@@ 1983
Lipp@@ 1983
Schlu@@ 1983
Teils 1983
ausgegangen 1983
ligkeit 1983
ologin 1983
AD 1982
Jugen@@ 1982
Kriegsgefangenschaft 1982
Merkmal 1982
festgenommen 1982
gh 1982
inhaftiert 1982
konf@@ 1982
nd 1982
sons 1982
thei@@ 1982
zeugung 1982
115@@ 1981
Landstraße 1981
Programmier@@ 1981
Schulz 1981
ail 1981
akzep@@ 1981
deutlichen 1981
3D 1980
Goldene 1980
Kohle@@ 1980
Weltcup@@ 1980
erfolgreicher 1980
gi 1980
löst 1980
mitunter 1980
positiven 1980
zitiert 1980
3.000 1979
Edgar 1979
Prü@@ 1979
abgebildet 1979
attra@@ 1979
bewohner 1979
französ@@ 1979
ité 1979
yo 1979
zugesprochen 1979
Arab@@ 1978
Bres@@ 1978
IUCN 1978
Kommunistischen 1977
Premier@@ 1977
Sich@@ 1977
kind 1977
selbständige 1977
äuschen 1977
Comics 1976
Nachbarn 1976
Peg@@ 1976
etliche 1976
jenseits 1976
nordwestlichen 1976
reste 1976
Anfangs 1975
Arbeitsgemeinschaft 1975
Luftlinie 1975
Staub@@ 1975
acke 1975
eia 1975
iller@@ 1975
wechselt 1975
Box 1974
Länderspiel 1974
Speis@@ 1974
Sächsischen 1974
Ursula 1974
assistent 1974
eli 1974
mals 1974
40.000 1973
Champ@@ 1973
Lach@@ 1973
Theaters 1973
Vorname 1973
schnelle 1973
zeitweilig 1973
öp@@ 1973
Captain 1972
Gewerkschaft 1972
Lloyd 1972
Regierungsp@@ 1972
berechnet 1972
bittet 1972
zurückkehren 1972
Badminton@@ 1971
Roma 1971
Soli@@ 1971
alisierte 1971
ento 1971
erheb@@ 1971
esia 1971
nachweisen 1971
rag@@ 1971
sozi@@ 1971
Artillerie@@ 1970
Brasili@@ 1970
FFH 1970
Frederick 1970
ces 1970
Cottbus 1969
Gesetzes@@ 1969
dez@@ 1969
erisch 1969
hob 1969
illon 1969
ziger 1969
15.000 1968
2000er 1968
Clara 1968
Dog@@ 1968
Frit@@ 1968
Kult@@ 1968
Nutzer 1968
Pause 1968
Pianist 1968
atorin 1968
beton@@ 1968
iment 1968
Bauzeit 1967
Iwan 1967
enkrieg@@ 1967
institut 1967
meist@@ 1967
én 1967
Anwendungs@@ 1966
Autos 1966
Liechtenstein 1966
PE@@ 1966
afrikanische 1966
asten 1966
etzte 1966
gesungen 1966
schil@@ 1966
tels 1966
Anstieg 1965
Lawrence 1965
Nummern 1965
Speyer 1965
Suff@@ 1965
Will 1965
etische 1965
mine 1965
montiert 1965
AP 1964
Ansprüche 1964
Entw@@ 1964
Tochter@@ 1963
Verpflichtung 1963
Wahlgang 1963
ace 1963
atorischen 1963
olympischen 1963
zentr@@ 1963
Russell 1962
Schwieger@@ 1962
Via 1962
′ 1962
Nem@@ 1961
Zeugen 1961
dah@@ 1961
gliche 1961
nutzten 1961
rise 1961
visu@@ 1961
wettbewer@@ 1961
Ehrenmitglied 1960
IM@@ 1960
Kön@@ 1960
Letztere 1960
Zimmer@@ 1960
abwärts 1960
assist@@ 1960
etabliert 1960
fix@@ 1960
oy 1960
fachen 1959
zismus 1959
übersch@@ 1959
Basketball@@ 1958
Disney 1958
VG 1958
Zahlungs@@ 1958
did@@ 1958
funktionen 1958
Fabri@@ 1957
Raf@@ 1957
Sofia 1957
Wäldern 1957
gewässer 1957
mitten 1957
zün@@ 1957
Prin@@ 1956
Wiel@@ 1956
ehr 1956
osph@@ 1956
Äqu@@ 1956
Präsidentschafts@@ 1955
gärten 1955
ns@@ 1955
38@@ 1954
IB@@ 1954
Leben@@ 1954
Mönchengladbach 1954
Pest@@ 1954
Realität 1954
Schli@@ 1954
Wagen@@ 1954
beruflichen 1954
eigung 1954
ibn 1954
rohr 1954
ätten 1954
bun@@ 1953
Aufführungen 1952
Ausstrahlung 1952
Bürgern 1952
Erscheinungsbild 1952
Maul@@ 1952
Moderator 1952
mul@@ 1952
siedelte 1952
sträger 1952
Ausnahmen 1951
Ländereien 1951
Neumann 1951
bildungen 1951
otz@@ 1951
tätigkeit 1951
Gruppenphase 1950
Loc@@ 1950
Magdalena 1950
australische 1950
gebäuden 1950
gesellschaftliche 1950
iw@@ 1950
Kreisstraße 1949
angewendet 1949
arg@@ 1949
aufnahm 1949
behauptete 1949
Hot 1948
Ketten@@ 1948
Quint@@ 1948
Reichstag@@ 1948
Social 1948
dieselbe 1948
mond 1948
württembergischen 1948
Baudenkmal 1947
Gestapo 1947
che@@ 1947
vorbereitet 1947
zeug 1947
ästhet@@ 1947
ů@@ 1947
Sainte 1946
Studies 1946
VI@@ 1946
getrieben 1946
zweist@@ 1946
Dokumentar@@ 1945
Hip 1945
Keramik 1945
ausgew@@ 1945
enschutz@@ 1945
isoli@@ 1945
lien 1945
Besatz@@ 1944
Dj@@ 1944
Martin@@ 1944
Namen@@ 1944
Sever@@ 1944
Shanghai 1944
Steinen 1944
Systemen 1944
schein 1944
üst 1944
Haute 1943
Mönche 1943
Schweizerischen 1943
änd@@ 1943
Kunstakademie 1942
Motto 1942
Patent 1942
Revolution@@ 1942
Stoffe 1942
agte 1942
hard@@ 1942
hima 1942
sprü@@ 1942
stärkste 1942
Bundestagswahl 1941
Denis 1941
Konkurrenten 1941
Tann@@ 1941
bereich@@ 1941
Gle@@ 1940
Pall@@ 1940
pass 1940
schre@@ 1940
Forest 1939
Fund 1939
Gattin 1939
Inschriften 1939
KO 1939
Meteor@@ 1939
ammer@@ 1939
dominiert 1939
smittel 1939
uter 1939
äqu@@ 1939
Boy@@ 1938
Gebäude@@ 1938
Konzentration 1938
drück@@ 1938
einbezogen 1938
ersdorf 1938
muster 1938
ular 1938
Österreichische 1938
Dé@@ 1937
Eli@@ 1937
Hauptquartier 1937
Sierra 1937
Verbands@@ 1937
amin 1937
court 1937
fahrt@@ 1937
tow 1937
uft 1937
1783 1936
Laubblätter 1936
flach 1936
genauso 1936
haber 1936
1788 1935
Häftlinge 1935
Taiwan 1935
Tha@@ 1935
fang@@ 1935
herrschenden 1935
mächtigen 1935
ungsprozess 1935
20,@@ 1934
Mitglieder@@ 1934
archäologische 1934
elektronische 1934
methoden 1934
unmöglich 1934
Bibli@@ 1933
icke 1933
pler 1933
Atem@@ 1932
Habilitation 1932
Hl 1932
Orleans 1932
Roch@@ 1932
genügend 1932
riert 1932
tauchen 1932
Kolumbien 1931
Pent@@ 1931
Russlands 1931
alla 1931
kateg@@ 1931
opfer 1931
weltmeisterschaft 1931
Schlüssel 1930
berater 1930
schanze 1930
spät 1930
Instit@@ 1929
Masuren 1929
amtierte 1929
auseinander 1929
fürst@@ 1929
ray 1929
ská 1929
Adels@@ 1928
Antoine 1928
Einladung 1928
MC 1928
Mode 1928
aison 1928
frist@@ 1928
itu@@ 1928
nutzung 1928
360 1927
Franz@@ 1927
direk@@ 1927
nad 1927
olt 1927
zueinander 1927
Lüb@@ 1926
Wiederherstellung 1926
zurückgezogen 1926
Dick@@ 1925
Harris 1925
anerk@@ 1925
gebraucht 1925
gesellschaft@@ 1925
hessen 1925
reif@@ 1925
ulen@@ 1925
114@@ 1924
Steuerung 1924
absolvieren 1924
blatt@@ 1924
etto 1924
oxid 1924
sicht@@ 1924
stehe 1924
Dialekt 1923
Esk@@ 1923
Schalt@@ 1923
genau@@ 1923
ritt@@ 1923
spiels 1923
ässig 1923
Golf@@ 1922
Quadrat@@ 1922
Sieger@@ 1922
act@@ 1922
ering 1922
flüge 1922
from 1922
sterb@@ 1922
Aktivität 1921
Asi@@ 1921
Dres@@ 1921
Haushalt 1921
Jün@@ 1921
Laura 1921
Wöl@@ 1921
beabsich@@ 1921
kugel@@ 1921
ßerei 1921
Kletter@@ 1920
SW@@ 1920
ims 1920
Bukarest 1919
Dave 1919
Gotha 1919
Mans 1919
Place 1919
spiegel@@ 1919
verglichen 1919
vormals 1919
0.@@ 1918
DE 1918
Karten@@ 1918
Mixed 1918
Republi@@ 1918
israelischen 1918
ordentlicher 1918
pokal 1918
viol@@ 1918
Alkohol@@ 1917
deutschland 1917
inter 1917
olf 1917
aul@@ 1916
blei@@ 1916
elbach 1916
forder@@ 1916
gebe 1916
izi@@ 1916
ral@@ 1916
tru@@ 1916
zelle 1916
ziemlich 1916
1786 1915
ORF 1915
niederlage 1915
ziel 1915
Stadtverwaltung 1914
einkommen 1914
gelegte 1914
rik@@ 1914
Indonesien 1913
Michel@@ 1913
S.@@ 1913
Uruguay 1913
cz@@ 1913
gewe@@ 1913
gotische 1913
o. 1913
steiger 1913
220 1912
Benn@@ 1912
NO@@ 1912
Preisträger 1912
aufgest@@ 1912
garten@@ 1912
heilige 1912
rank@@ 1912
restaur@@ 1912
Abfahrt 1911
Frie@@ 1911
Notwendigkeit 1911
itären 1911
Gegenüber 1910
Truppe 1910
abstra@@ 1910
aktik 1910
bestimmung 1910
enser 1910
gerettet 1910
gewinnung 1910
än 1910
klingen 1909
überlassen 1909
Kongo 1908
Krimin@@ 1908
Kulturdenkmäler 1908
Leucht@@ 1908
Oli@@ 1908
Sad@@ 1908
Spur 1908
bedeutendste 1908
zumal 1908
Ausgang 1907
Gefährdung 1907
Grün 1907
Krat@@ 1907
elsberg 1907
klagte 1907
phys@@ 1907
Aufschwung 1906
Trophy 1906
vorn 1906
Auto@@ 1905
Lichtjahre 1905
Religionen 1905
Vä@@ 1905
festival 1905
leichte 1905
Überlegungen 1905
Kabar@@ 1904
Nachfolge@@ 1904
Ordin@@ 1904
allee 1904
dreif@@ 1904
ährung 1904
ärin 1904
18@@ 1903
Bit 1903
Haltestelle 1903
messen 1903
text 1903
Debatte 1902
Justiz 1902
Pflanzenart 1902
eds 1902
osaur@@ 1902
29@@ 1901
Nachbarschaft 1901
TS 1901
armen 1901
auswahl 1901
inspiriert 1901
massiv 1901
Gotteshaus 1900
Kirchenschiff 1900
Ler@@ 1900
Protagonisten 1900
Radsport@@ 1900
länder@@ 1900
spitz@@ 1900
1,8 1899
Kommunikations@@ 1899
Oberstleutnant 1899
Persönlichkeit 1899
Touristen 1899
Vig@@ 1899
Wikipedia 1899
getriebe 1899
historiker 1899
zugehörige 1899
Axel 1898
Fant@@ 1898
Lehrerin 1898
bedeutend 1898
bewoh@@ 1898
ritz@@ 1898
spunkt 1898
stitution 1898
wahren 1898
р@@ 1898
Beobachtungen 1897
Eltern@@ 1897
Iowa 1897
aqu@@ 1897
fähigen 1897
schel 1897
verh@@ 1897
ühl 1897
Lisa 1896
Signal 1896
brüche 1896
fa 1896
neueren 1896
wegs 1896
Epo@@ 1895
Hochaltar 1895
Plant@@ 1895
günst@@ 1895
ike 1895
will@@ 1895
Bek@@ 1894
Kindergarten 1894
kir@@ 1894
nachweisbar 1894
Berücksichtigung 1893
Dialog 1893
Flensburg 1893
Käfer 1893
Nörd@@ 1893
braunen 1893
Kantons@@ 1892
Klubs 1892
Pokalsieger 1892
Veter@@ 1892
illo 1892
unterstütz@@ 1892
Offen@@ 1891
aufzubauen 1891
cel@@ 1891
popul@@ 1891
äischen 1891
Marine@@ 1890
Zügen 1890
atti 1890
füllt 1890
greif@@ 1890
lust@@ 1890
sive 1890
studien 1890
ängern 1890
Coburg 1889
Kunsth@@ 1889
Sekret@@ 1889
bögen 1889
damm 1889
schenk@@ 1889
schnitten 1889
umgestaltet 1889
Mrd. 1888
SI@@ 1888
Spec@@ 1888
Wahrscheinlichkeit 1888
Lili@@ 1887
Ralph 1887
anim@@ 1887
herunter@@ 1887
my 1887
schließ@@ 1887
Beobachtung 1886
Wetter 1886
demselben 1886
eiförmig 1886
eman 1886
notwendige 1886
Kryp@@ 1885
Landtags 1885
Oberst@@ 1885
Werks@@ 1885
angest@@ 1885
ausgeliehen 1885
sherr@@ 1885
Sparkasse 1884
reibungen 1884
rode 1884
warum 1884
ückt 1884
Betreuung 1883
kowski 1883
rock 1883
tab@@ 1883
Bundesautobahn 1882
Sac@@ 1882
halb 1882
älen 1882
Kenntnis 1881
Pedal 1881
interpre@@ 1881
ning 1881
räfte 1880
Fleisch 1879
Himmel@@ 1879
Och@@ 1879
fabri@@ 1879
genehmigt 1879
104 1878
Jord@@ 1878
Nuk@@ 1878
Russen 1878
Send@@ 1878
neh@@ 1878
veranlasste 1878
vertreter 1878
Adri@@ 1877
Erzähler 1877
Genres 1877
berech@@ 1877
bos@@ 1877
nel 1877
schätzungsweise 1877
1770 1876
E.@@ 1876
Italiens 1876
Maximilians 1876
Morgan 1876
Vietnam 1876
bekann@@ 1876
gemäß@@ 1876
iet 1876
see@@ 1876
verlangt 1876
Hass@@ 1875
Herzog@@ 1875
Lom@@ 1875
Olympia 1875
Spanier 1875
Verschie@@ 1875
amtlichen 1875
edonien 1875
ktur 1875
pflicht 1875
produk@@ 1875
önen 1875
Haw@@ 1874
Mask@@ 1874
brücken 1874
ente@@ 1874
trags@@ 1874
Informatik 1873
Popularität 1873
häuf@@ 1873
Cann@@ 1872
Leonhard 1872
Sockel 1872
begangen 1872
entlichen 1872
nisch 1872
Seeb@@ 1871
Spektrum 1871
flog 1871
ph 1871
Feuerwehr@@ 1870
Forst 1870
Inner@@ 1870
elektronischen 1870
schriftliche 1870
verfolgte 1870
Amtsbezirk 1869
Auschwitz 1869
Hos@@ 1869
Kandidatur 1869
Ruth 1869
Schuld 1869
Yam@@ 1869
dy@@ 1869
ozän 1869
ächen 1869
Broadway 1868
Gedenken 1868
Innern 1868
brit@@ 1868
federn 1868
gehängt 1868
lon 1868
rau 1868
säm@@ 1868
verschwunden 1868
veröffentlichen 1868
wende 1868
wofür 1868
Antonius 1867
eventuell 1867
glas@@ 1867
hem@@ 1867
reuth 1867
time 1867
Apsis 1866
Knochen@@ 1866
Lon@@ 1866
geschichtliche 1866
skaja 1866
steig 1866
Ents@@ 1865
Mehr 1865
ep 1865
erweiterten 1865
jähriges 1865
olle 1865
sprüche 1865
verteidigung 1865
Politisch 1864
Verlegung 1864
größ@@ 1864
lok@@ 1864
mau@@ 1864
Angreifer 1863
Bevor 1863
Canada 1863
Skispr@@ 1863
Virus 1863
Hipp@@ 1862
Käl@@ 1862
VI 1862
iegel@@ 1862
lings 1862
solches 1862
starten 1862
verwandten 1862
Andererseits 1861
Kus@@ 1861
Schulzeit 1861
oter 1861
pend@@ 1861
veränderte 1861
1775 1860
Fahn@@ 1860
Nikol@@ 1860
Pfarrhaus 1860
gewöhn@@ 1860
motiv@@ 1860
Caspar 1859
Marokko 1859
Regen 1859
demokrat@@ 1859
gio 1859
uppen 1859
· 1859
Aufsicht 1858
Instrument@@ 1858
Regierungszeit 1858
Sage 1858
Stade 1858
Zwerg@@ 1858
kirchliche 1858
lon@@ 1858
oro 1858
verlaufenden 1858
Alpes 1857
Ann 1857
Farm 1857
Guer@@ 1857
Katal@@ 1857
Rotterdam 1857
nier 1857
tan 1857
zeitgenössische 1857
Bearbeitung 1856
Handeln 1856
Raymond 1856
Rig@@ 1856
belast@@ 1856
feldern 1856
linker 1856
Berat@@ 1855
Sof@@ 1855
ammern 1855
nah 1855
Gaz@@ 1854
Maryland 1854
Renault 1854
Sid@@ 1854
befreien 1854
Tos@@ 1853
altete 1853
besuchten 1853
emin@@ 1853
olit@@ 1853
Call@@ 1852
Neffe 1852
astronom@@ 1852
eils 1852
emm@@ 1852
interess@@ 1852
masse 1852
myth@@ 1852
sius 1852
verstärkte 1852
Instand@@ 1851
Niedergang 1851
Nutzen 1851
benutzte 1851
dae 1851
sü@@ 1851
verbands 1851
wach@@ 1851
Diensten 1850
Milli@@ 1850
Träger@@ 1850
beruflich 1850
nenn@@ 1850
Aufgebot 1849
Tuch@@ 1849
Zelle 1849
erlangen 1849
fei@@ 1849
iten@@ 1849
Lib@@ 1848
Pep@@ 1848
Sun@@ 1848
erstellte 1848
hrer 1848
tätigen 1848
verschieden@@ 1848
DV@@ 1847
Englischen 1847
Ludwigs 1847
annter 1847
gerten 1847
inmitten 1847
leiden 1847
sieben@@ 1847
störungen 1847
europäischer 1846
fähige 1846
gebräuch@@ 1846
hohes 1846
ischt 1846
oni@@ 1846
Angebote 1845
Gräber 1845
Rüst@@ 1845
einfach@@ 1845
schild 1845
Eingemeindung 1844
Metz 1844
Porto 1844
Weinbau 1844
abil@@ 1844
leger 1844
otti 1844
rieb@@ 1844
schäden 1844
sportlichen 1844
Demokraten 1843
Gewinnung 1843
Rückstand 1843
fft 1843
kämp@@ 1843
Doz@@ 1842
GP@@ 1842
Siegel 1842
Verdacht 1842
aa 1842
misch@@ 1842
ograph 1842
ötz@@ 1842
Benannt 1841
Stücken 1841
Verhältnissen 1841
arts 1841
communes 1841
geschaffene 1841
hl@@ 1841
inie 1841
opp 1841
spezifischen 1841
• 1841
Ank@@ 1840
Dorothea 1840
Isol@@ 1840
port@@ 1840
tigkeiten 1840
tro 1840
zugehörigen 1840
Cin@@ 1839
GG 1839
Ing@@ 1839
Quart@@ 1839
Rol@@ 1839
Slowenien 1839
Veget@@ 1839
beschei@@ 1839
besiegt 1839
darstellte 1839
erwähnten 1839
gestrichen 1839
minder@@ 1839
ograf@@ 1839
Ökologie 1839
Harz 1838
Völk@@ 1838
amts 1838
tener 1838
usst@@ 1838
Übersetzer 1838
Nova 1837
asche 1837
angenen 1836
dene 1836
rell 1836
zurzeit 1836
Abschluss@@ 1835
Nab@@ 1835
fehler 1835
itten 1835
verbänden 1835
ähnlicher 1835
Abgeordnet@@ 1834
Anim@@ 1834
Flüssig@@ 1834
Id@@ 1834
Kindes 1834
Organisations@@ 1834
Wettbewerben 1834
archen 1834
blau@@ 1834
flohen 1834
negative 1834
riff 1834
scharf 1834
Å@@ 1834
Konfession 1833
Pionier@@ 1833
Rücken@@ 1833
Schlacht@@ 1833
Teuf@@ 1833
Tiroler 1833
denburg 1833
poli@@ 1833
therapeut@@ 1833
Empore 1832
Synthese 1832
lock 1832
mechanische 1832
schaff@@ 1832
unst 1832
Gewer@@ 1831
Inv@@ 1831
Milchstraße 1831
Stoff 1831
gor@@ 1831
versuche 1831
Bart@@ 1830
Bowl 1830
Elb@@ 1830
Künstlers 1830
Trak@@ 1830
Volkspartei 1830
aud 1830
pap@@ 1830
hinzugefügt 1829
1772 1828
Gerd 1828
Hack@@ 1828
Lagen 1828
Mangel 1828
Mittel- 1828
Offensive 1828
Worms 1828
bemühte 1828
nachträglich 1828
own 1828
sexu@@ 1828
unt 1828
Aust@@ 1827
Kunden@@ 1827
Menschenrechte 1827
News 1827
Optim@@ 1827
gefordert 1827
überquert 1827
überzeugt 1827
Denken 1826
Mant@@ 1826
Zusammenbruch 1826
boote 1826
emer 1826
matischen 1826
urs@@ 1826
zweck@@ 1826
EC@@ 1825
Kreb@@ 1825
Pog@@ 1825
Schützen@@ 1825
Zuordnung 1825
get 1825
viert 1825
Avenue 1824
Philosophen 1824
Plateau 1824
Realschule 1824
berat@@ 1824
geladen 1824
schreit@@ 1824
Horiz@@ 1823
Themen@@ 1823
avancierte 1823
ees 1823
schenkte 1823
seltene 1823
CC 1822
Dopp@@ 1822
Journalistin 1822
Kennedy 1822
Lieder@@ 1822
Naturwissenschaften 1822
Stän@@ 1822
erium 1822
verfolgung 1822
wann 1822
weil@@ 1822
Johan 1821
Thr@@ 1821
gehörige 1821
ilde 1821
omp@@ 1821
paare 1821
verordnung 1821
Früher 1820
licht@@ 1820
prägte 1820
test@@ 1820
zin 1820
zuzu@@ 1820
Gly@@ 1819
Landeshauptstadt 1819
Rapper 1819
Teilnehmer@@ 1819
altungen 1819
ausländische 1819
iven 1819
ology 1819
porträ@@ 1819
schneiden 1819
stone 1819
typen 1819
Einteilung 1818
Energi@@ 1818
Jonathan 1818
Monument 1818
Senioren 1818
ausgelöst 1818
kredit@@ 1818
produkt 1818
yc@@ 1818
zia 1818
ämmer@@ 1818
Bauweise 1817
Erscheinen 1817
Nier@@ 1817
Pietro 1817
kov 1817
massiven 1817
1776 1816
Eisenbahnstrecke 1816
Konsum@@ 1816
ausch@@ 1816
ulus 1816
Palästina 1815
dichten 1815
itus 1815
öpfen 1815
Bilder@@ 1814
Bühnen 1814
End 1814
Lec@@ 1814
Philosoph 1814
diejenigen 1814
Bow@@ 1813
Büros 1813
Engagements 1813
Fie@@ 1813
Match 1813
af 1813
belag@@ 1813
block 1813
skoje 1813
usch 1813
Atlan@@ 1812
Folgejahren 1812
Loch@@ 1812
adap@@ 1812
fotograf@@ 1812
nördlicher 1812
к@@ 1812
Aktien 1811
Hills 1811
Hyp@@ 1811
genutzte 1811
gewertet 1811
scheinen 1811
stift 1811
tei 1811
Brücken@@ 1810
Passi@@ 1810
Pest 1810
Pfar@@ 1810
Satteldach 1810
meisterin 1810
osse 1810
ränken 1810
weisung 1810
Gewässer@@ 1809
Gitarristen 1809
Hamm 1809
Landung 1809
hut 1809
schaftlich 1809
Blüte 1808
Pend@@ 1808
Story 1808
Stör@@ 1808
ald@@ 1808
gesetzlichen 1808
glaub@@ 1808
teams 1808
Helene 1807
K.@@ 1807
Wunder@@ 1807
gin@@ 1807
Contest 1806
Dien@@ 1806
Einsch@@ 1806
High@@ 1806
Miguel 1806
Publikation 1806
betragen 1806
erwiesen 1806
kodi@@ 1806
Jung 1805
Meisterin 1805
Unterfamilie 1805
Verbleib 1805
baden 1805
besor@@ 1805
erhöhten 1805
erschienene 1805
schien 1805
umgekehrt 1805
wuch@@ 1805
übertragung 1805
Jäger@@ 1804
Philipp@@ 1804
Zwill@@ 1804
bestimmter 1804
staatlich 1804
unterschied@@ 1804
Bestände 1803
Busch@@ 1803
Cort@@ 1803
HD 1803
Hypo@@ 1803
Lay@@ 1803
Rats@@ 1803
Schnabel 1803
angelegten 1803
hinaus@@ 1803
höher@@ 1803
untersuch@@ 1803
uß@@ 1803
Á@@ 1803
Berner 1802
Plast@@ 1802
Schuss@@ 1802
Soci@@ 1802
Stadi@@ 1802
Standes@@ 1802
informiert 1802
sinn 1802
zunehmende 1802
ägyptischen 1802
Canadian 1801
Grundstein 1801
Klage 1801
N. 1801
Staatssekretär 1801
WDR 1801
achtete 1801
charakter@@ 1801
eignet 1801
fung@@ 1801
halts@@ 1801
inas 1801
letztendlich 1801
pu@@ 1801
ruppen 1801
schüler 1801
Admir@@ 1800
Mond 1800
Pensionierung 1800
Problem@@ 1800
Schuh@@ 1800
berühmte 1800
dunkel 1800
genossen 1800
herrscht 1800
orin 1800
schreiber 1800
tnis 1800
Cant@@ 1799
DR 1799
Franklin 1799
Färbung 1799
Millimetern 1799
Richtlinie 1799
drücken 1799
partner 1799
Graham 1798
Verfasser 1798
dend 1798
erfre@@ 1798
fahrzeug@@ 1798
komplexe 1798
lateinisch 1798
studiert 1798
Ö 1798
DI 1797
Kulturgüter 1797
O. 1797
afte 1797
dun@@ 1797
fär@@ 1797
orn@@ 1797
technischer 1797
AF 1796
Ale@@ 1796
Flächen@@ 1796
Hütten@@ 1796
Rechtsprechung 1796
durchgehend 1796
Franziskus 1795
Mars 1795
Rauch@@ 1795
Ruinen 1795
inos 1795
inspi@@ 1795
präsidenten 1795
102 1794
6,5 1794
Charaktere 1794
abgew@@ 1794
anga 1794
diagnost@@ 1794
sid@@ 1794
unen 1794
Auftritten 1793
Bundesministerium 1793
Einwohnerentwicklung 1793
Engineering 1793
anspruchs@@ 1793
glauben 1793
kleinste 1793
lowakischen 1793
oux 1793
schü@@ 1793
train@@ 1793
westfälischen 1793
Disk@@ 1792
Kup@@ 1792
izierte 1792
spart@@ 1792
Effekte 1791
Greg@@ 1791
Jon@@ 1791
Mittelalters 1791
dör@@ 1791
uner 1791
Großherzog@@ 1790
Houston 1790
Zähne 1790
iko 1790
kritiker 1790
regist@@ 1790
Aber@@ 1789
Ausschusses 1789
Flugzeugen 1789
Il 1789
Lucas 1789
Armen 1788
Bibliothek@@ 1788
Diskussionen 1788
Fußballverein 1788
Malers 1788
Miss 1788
Prinzipien 1788
Schröder 1788
Türme 1788
ikers 1788
Beschäftigten 1787
Näh@@ 1787
Oberlauf 1787
echte 1787
firm@@ 1787
niedersächsischen 1787
online 1787
teure 1787
Bassist 1786
GA 1786
Kaiserslautern 1786
Zimmermann 1786
ago@@ 1786
itiv 1786
wiedergewählt 1786
Bundesland 1785
Liz@@ 1785
Präsidentin 1785
ants 1785
areal 1785
feln 1785
vic@@ 1785
Cz@@ 1784
Student 1784
bad@@ 1784
eilt 1784
enhand@@ 1784
inski 1784
oul@@ 1784
prin@@ 1784
starteten 1784
vo 1784
Anbindung 1783
Rag@@ 1783
eus 1783
publiz@@ 1783
1777 1782
Absatz 1782
Dynamo 1782
ET@@ 1782
Zeichner 1782
Ś@@ 1782
Bürgermeisters 1781
RA 1781
hervorra@@ 1781
mikro@@ 1781
primär 1781
vorkommt 1781
Großherzogtum 1780
Minist@@ 1780
archäologischen 1780
fehlenden 1780
Anbieter 1779
Astron@@ 1779
Fid@@ 1779
Propaganda 1779
Pun@@ 1779
Sinf@@ 1779
drü@@ 1779
eroberte 1779
gard 1779
hoff@@ 1779
niedriger 1779
wirksam 1779
Fernsehsender 1778
bestand@@ 1778
fusionierte 1778
potenti@@ 1778
üre 1778
Frem@@ 1777
Zyklus 1777
absolute 1777
einstigen 1777
preise 1777
projekte 1777
werkstatt 1777
Chr@@ 1776
Ereignissen 1776
Kathar@@ 1776
Künstl@@ 1776
Pädagogik 1776
ardt 1776
erland 1776
heimische 1776
Emeritierung 1775
Fresken 1775
Latein 1775
Stap@@ 1775
Triathlon 1775
sters 1775
südlicher 1775
19,@@ 1774
Oberseite 1774
Traditionen 1774
angefertigt 1774
hört 1774
lab@@ 1774
lage@@ 1774
letz@@ 1774
trainiert 1774
ull 1774
überqu@@ 1774
AK 1773
Baby 1773
Impf@@ 1773
Phänomen 1773
Wais@@ 1773
dan 1773
gerungen 1773
siedlungen 1773
stän@@ 1773
Audi@@ 1772
Großer 1772
Peak 1772
Stru@@ 1772
Tote 1772
berin 1772
hölzerne 1772
irische 1772
pfälzischen 1772
Slaw@@ 1771
ols 1771
zusammenhän@@ 1771
äub@@ 1771
ík 1771
5,5 1770
Jens 1770
Nations 1770
Neust@@ 1770
brief 1770
echn@@ 1770
entran@@ 1770
leer 1770
Boeing 1769
Grundstück@@ 1769
Lak@@ 1769
Marseille 1769
Mittelfeld 1769
Palä@@ 1769
Statist@@ 1769
branche 1769
entkommen 1769
jenes 1769
philosophischen 1769
RC 1768
direkter 1768
genommenen 1768
ichtet 1768
num@@ 1768
spolit@@ 1768
äser 1768
Instanz 1767
Paaren 1767
kämpfe 1767
äufer 1767
Einweihung 1766
Gie@@ 1766
Interess@@ 1766
Us@@ 1766
Ves@@ 1766
Vul@@ 1766
gesell@@ 1766
usch@@ 1766
vi 1766
wag@@ 1766
ór@@ 1766
Arist@@ 1765
Li 1765
betonte 1765
einsätzen 1765
erbauten 1765
flächen@@ 1765
mob@@ 1765
Caroline 1764
Umwandlung 1764
Unterart 1764
distanz 1764
ruch 1764
tia 1764
Überwachung 1764
Aufträge 1763
Erneuerung 1763
Gan@@ 1763
Glock@@ 1763
Kemp@@ 1763
Klöster 1763
anschließende 1763
plung 1763
programm@@ 1763
riegen 1763
sherr 1763
vollkommen 1763
Andy 1762
Chinas 1762
FIFA 1762
Nordsee 1762
Northern 1762
Sop@@ 1762
YouTube 1762
vereinen 1762
ünden 1762
Erinnerungen 1761
Solche 1761
akust@@ 1761
gium 1761
house 1761
kompliz@@ 1761
oren@@ 1761
schreibung 1761
star 1761
Cousin 1760
Gleis 1760
Johannis@@ 1760
Konf@@ 1760
Parker 1760
Uran@@ 1760
Verwand@@ 1760
fro@@ 1760
loh@@ 1760
romanischen 1760
Österreich@@ 1760
Erfinder 1759
Gottesdienst 1759
SL 1759
digitalen 1759
gründer 1759
kostete 1759
ISO 1758
Nationalrat 1758
label 1758
Kreuzes 1757
Tochtergesellschaft 1757
Zeichnung 1757
ampf 1757
dom@@ 1757
zweck 1757
Unruhen 1756
erlau@@ 1756
halbes 1756
ohl@@ 1756
skapelle 1756
stiftete 1756
Bakterien 1755
frequ@@ 1755
spur 1755
DR@@ 1754
Ernest 1754
Klassenerhalt 1754
Spro@@ 1754
entschei@@ 1754
Erhebungen 1753
Gerichtshof 1753
Messung 1753
Repertoire 1753
bedro@@ 1753
gewinn 1753
Forstwirtschaft 1752
Gericht@@ 1752
Infanterie@@ 1752
Kairo 1752
gelangten 1752
gez@@ 1752
illustri@@ 1752
inszenierte 1752
ision 1752
1782 1751
Born@@ 1751
Etymologie 1751
Murray 1751
Spre@@ 1751
Wiederaufstieg 1751
cy 1751
jenige 1751
klassige 1751
ungsgebiet 1751
Abbruch 1750
Aktion@@ 1750
Deutschland@@ 1750
Stimmen@@ 1750
ausgetragenen 1750
dender 1750
einsetzte 1750
gewalt 1750
gü@@ 1750
invest@@ 1750
juristische 1750
theoretischen 1750
1778 1749
Beratung 1749
Recher@@ 1749
Rhône 1749
Wassi@@ 1749
Wh@@ 1749
fli@@ 1749
gesendet 1749
stattfindet 1749
übt 1749
Ansbach 1748
Benutz@@ 1748
Glaubens 1748
aufwärts 1748
böhmischen 1748
Bande 1747
Evans 1747
Stadtr@@ 1747
nice 1747
Comic@@ 1746
Empire 1746
entfernte 1746
geschwin@@ 1746
tigungs@@ 1746
universität 1746
Bünd@@ 1745
Fertigung 1745
Kay@@ 1745
Menschenrechts@@ 1745
Schönheit 1745
Steuern 1745
ault 1745
beacht@@ 1745
chi@@ 1745
gei@@ 1745
hum@@ 1745
präz@@ 1745
repräsentiert 1745
unmittelbaren 1745
Engländer 1744
Meißen 1744
digitale 1744
parall@@ 1744
ungenen 1744
Ans@@ 1743
Finanzen 1743
Gän@@ 1743
Larven 1743
Let@@ 1743
Regim@@ 1743
aufgeben 1743
but@@ 1743
kammer@@ 1743
trak@@ 1743
variiert 1743
verbind@@ 1743
wider 1743
Begleitung 1742
Giebel@@ 1742
Kör@@ 1742
Tw@@ 1742
begab 1742
grafschaft 1742
lieu 1742
Lang 1741
Nation@@ 1741
SI 1741
gräf@@ 1741
modern@@ 1741
vermitteln 1741
Crist@@ 1740
Entwürfe 1740
Pad@@ 1740
Zentralb@@ 1740
autor@@ 1740
nütz@@ 1740
stischen 1740
Abwehr 1739
Elf@@ 1739
German 1739
Holocaust 1739
Interessen@@ 1739
Laus@@ 1739
Melodie 1739
Präs@@ 1739
initi@@ 1739
lern@@ 1739
neter 1739
pazif@@ 1739
Amateur 1738
Glück@@ 1738
Philosoph@@ 1738
Sant 1738
Was@@ 1738
dunklen 1738
installi@@ 1738
komplexen 1738
red 1738
rik 1738
selbständig 1738
sozialistischen 1738
135 1737
Go 1737
Gymnasi@@ 1737
Häus@@ 1737
Luther@@ 1737
Moz@@ 1737
rel 1737
Herstell@@ 1736
Phasen 1736
Schriftstell@@ 1736
agten 1736
ausgel@@ 1736
norwegische 1736
wertet 1736
Genua 1735
Lieutenant 1735
Origin@@ 1735
Sprachraum 1735
Tunnel@@ 1735
Verkauf@@ 1735
atorische 1735
ämme 1735
Bewusstsein 1734
Bosnien 1734
Development 1734
Höch@@ 1734
drit@@ 1734
eits@@ 1734
kurse 1734
kurzfristig 1734
lar 1734
wirt 1734
Allee 1733
Beachtung 1733
Gläub@@ 1733
Kind@@ 1733
Ligaspiele 1733
Places 1733
Südtirol 1733
elter 1733
enzeit@@ 1733
stamm@@ 1733
unterlagen 1733
uri 1733
versteckt 1733
Alph@@ 1732
Erstellung 1732
Verarbeitung 1732
jet 1732
lica 1732
praktische 1732
var 1732
Altenburg 1731
Extrem@@ 1731
geheiratet 1731
Bahnen 1730
Blas@@ 1730
Countys 1730
Ergänz@@ 1730
Freitag 1730
Kelly 1730
Richtungen 1730
Verträge 1730
hir 1730
reibt 1730
scheinbar 1730
wachsende 1730
Dü@@ 1729
Fußballspielen 1729
Torhüter 1729
X. 1729
altes 1729
pel@@ 1729
stra 1729
Aussterben 1728
Beer@@ 1728
Insolvenz 1728
Kronprin@@ 1728
Ltd. 1728
Spanisch 1728
Entschei@@ 1727
Gera 1727
Meist 1727
NSG 1727
Uhrzeigersinn 1727
abel@@ 1727
interessierte 1727
zugesch@@ 1727
zugs 1727
Busch 1726
Hawaii 1726
IX. 1726
Monats@@ 1726
Stuck@@ 1726
Vereinig@@ 1726
Wettbewerbs 1726
ark@@ 1726
enden@@ 1726
endgültigen 1726
frauen 1726
großzü@@ 1726
ierend 1726
normale 1726
uche 1726
Apple 1725
Stralsund 1725
Turner 1725
widmet 1725
128 1724
Ansätze 1724
Community 1724
Kost@@ 1724
Polens 1724
Senior 1724
She@@ 1724
Versamm@@ 1724
dierten 1724
kommunalen 1724
kooper@@ 1724
zier@@ 1724
Austin 1723
Campbell 1723
Cher@@ 1723
Erkenn@@ 1723
Hubble 1723
Weiss 1723
bart 1723
Sandstein@@ 1722
Wasch@@ 1722
ident@@ 1722
neberg 1722
ziele 1722
annt 1721
prüfen 1721
Damen@@ 1720
MP 1720
Mitkonsekratoren 1720
Nationalspieler 1720
industriellen 1720
methode 1720
smitglied 1720
B.@@ 1719
anstatt 1719
positionen 1719
rill 1719
venti@@ 1719
vorrangig 1719
Marketing 1718
Sechs 1718
Sho@@ 1718
ausreich@@ 1718
gedeckt 1718
wit@@ 1718
äufer@@ 1718
Erfindung 1717
Muslime 1717
ST 1717
cur@@ 1717
etik 1717
ios@@ 1717
maz@@ 1717
Anstalt 1716
Phant@@ 1716
attungen 1716
ausgaben 1716
omorph@@ 1716
Bevölkerungsentwicklung 1715
Gär@@ 1715
Micha@@ 1715
Schmid 1715
Slalom 1715
Wandel 1715
Wettkampf 1715
einzig 1715
hörte 1715
iner@@ 1715
synchron@@ 1715
verheiratete 1715
Leiterin 1714
Rundbogen@@ 1714
asis 1714
beziehungen 1714
kasse 1714
ministerin 1714
strukturel@@ 1714
α 1714
Anime 1713
Handwerk@@ 1713
amerikas 1713
beklei@@ 1713
dale 1713
isi 1713
ites 1713
slager 1713
spezialisierte 1713
.com 1712
Bergwerk 1712
Kentucky 1712
Vok@@ 1712
andes 1712
su 1712
Ansehen 1711
Gerichte 1711
Hep@@ 1711
Islands 1711
Ryan 1711
Tradition@@ 1711
anschluss 1711
gezeichnet 1711
neuseel@@ 1711
spektive 1711
sphase 1711
vertik@@ 1711
äure@@ 1711
AG@@ 1710
Dallas 1710
Funk 1710
Germania 1710
stellvertretenden 1710
Ensembles 1709
Peters 1709
Stuart 1709
Walker 1709
goldene 1709
iana 1709
nischer 1709
wich 1709
Aufsehen 1708
Helm 1708
Stimmung 1708
Trich@@ 1708
Versuch@@ 1708
blüh@@ 1708
fuß@@ 1708
kot@@ 1708
sin 1708
steuerte 1708
swesen 1708
Comic 1707
Dagegen 1707
Iwan@@ 1707
Muster@@ 1707
Räumlichkeiten 1707
bayerische 1707
enk 1707
internen 1707
kraftwerk 1707
tner 1707
Überfall 1707
Filiale 1706
Vertrauen 1706
ganz@@ 1706
vä@@ 1706
ätte 1706
ingu@@ 1705
krö@@ 1705
Bindung 1704
Blättern 1704
Fell@@ 1704
Independent 1704
Vegetation 1704
deckten 1704
ever@@ 1704
olith@@ 1704
vention 1704
115 1703
Bauart 1703
Bänden 1703
Französische 1703
Symph@@ 1703
gewerb@@ 1703
Aluminium 1702
Salon 1702
intern 1702
manns@@ 1702
niemand 1702
thail@@ 1702
Agentur 1701
Allein@@ 1701
Nap@@ 1701
Network 1701
Symptome 1701
Vierter 1701
höchst@@ 1701
strahlung 1701
uz 1701
Paw@@ 1700
Umbauten 1700
alliierten 1700
igten 1700
ischsprachige 1700
sammlung 1700
spark 1700
Light 1699
Orchester@@ 1699
Solo@@ 1699
Spir@@ 1699
ihrerseits 1699
las@@ 1699
verkündete 1699
zahlte 1699
Binnen@@ 1698
Boot@@ 1698
Einfluss@@ 1698
Fernando 1698
Gewerkschafts@@ 1698
Korea 1698
erlassen 1698
lossen@@ 1698
müller 1698
DI@@ 1697
Gewässern 1697
Größen 1697
Hitlers 1697
Passau 1697
Planungs@@ 1697
Schel@@ 1697
Urban 1697
brück 1697
endgültige 1697
regional 1697
Filmmusik 1696
Logo 1696
Regisseurs 1696
bende 1696
enschutz 1696
lle 1696
Adolph 1695
Unterhaltungs@@ 1695
alist 1695
ffs 1695
ond 1695
präs@@ 1695
startet 1695
wunder@@ 1695
zufällig 1695
Augsburger 1694
Beobachter 1694
Darm@@ 1694
Elsass 1694
Klammern 1694
atsch@@ 1694
diplomatischen 1694
ektor@@ 1694
entri@@ 1694
franken 1694
steigenden 1694
theoretische 1694
thes@@ 1694
Gewerbe 1693
Kanz@@ 1693
Tennisturnier 1693
gesundheitlichen 1693
grös@@ 1693
rou@@ 1693
verdäch@@ 1693
ə@@ 1693
Apostolischen 1692
Bundesländern 1692
Dennis 1692
Feind@@ 1692
Herausge@@ 1692
Inf@@ 1692
[...]
