the 10382198
, 9760065
. 8593632
of 5737074
and 4953941
in 4382987
&quot; 3863842
a 3502307
to 3458611
was 2145648
@-@ 1911629
The 1739791
is 1617708
) 1477708
( 1476020
for 1378733
as 1360173
on 1345427
with 1196188
by 1186555
&apos;s 1065893
that 954293
at 914855
from 862988
his 759932
an 736349
In 690066
he 633891
were 564315
which 506871
are 497685
it 491304
He 457976
or 427108
be 417129
had 414729
also 414281
; 412912
: 399870
has 384899
– 383950
first 373388
It 331575
their 328586
one 323549
its 320935
who 307202
but 294980
her 294528
not 294285
two 273334
have 272604
this 264432
been 256004
&apos; 255026
after 228721
time 213975
they 211722
A 209419
other 206818
into 203007
she 192401
all 190771
more 177957
On 176659
% 176647
New 172713
1 172371
over 171439
when 171384
would 171371
years 171069
up 170828
/ 166141
i 166129
This 163527
during 163361
where 160984
year 159869
only 158150
season 156472
new 154437
out 153306
between 153126
three 150121
2 149918
made 148501
him 144792
then 144142
later 143895
used 143371
United 142657
s 141554
&amp; 141467
known 140452
o 140180
such 139817
most 139107
can 139012
about 138401
American 137962
part 135447
team 134865
became 134736
University 134113
well 133781
I 133274
under 133207
She 132908
born 131443
de 130231
than 128460
including 126528
ing 125578
film 124818
being 124555
there 124241
es 123257
3 121577
some 120975
second 119351
P@@ 117160
against 116771
through 116374
T@@ 116335
After 114659
re@@ 113993
while 112109
before 111742
many 111040
y 110733
work 110171
S@@ 109225
until 108201
them 107983
World 107925
family 107311
both 107108
people 106061
States 104970
played 104948
un@@ 104897
album 104617
no 104515
4 104240
C@@ 103219
National 102013
B@@ 101921
name 101729
al 101689
released 100684
in@@ 100060
G@@ 99669
D@@ 99573
man 99314
number 98613
series 98499
won 98288
M@@ 97803
age 97585
life 97271
As 97252
area 97071
y@@ 96959
school 96855
L@@ 96694
may 96410
four 96007
called 95906
K@@ 95209
A@@ 94223
May 94122
ed 92787
March 91841
p@@ 91690
September 90745
January 90695
city 89984
career 89868
state 89726
N@@ 89328
June 89284
several 89195
5 89074
October 88688
following 88679
early 88610
use 88445
July 88326
same 88245
August 87202
School 86944
John 86852
South 86228
son 86062
end 85911
c@@ 85795
game 85792
April 85556
based 85464
They 85237
10 85203
began 84778
found 84438
R@@ 83914
November 83888
these 83809
will 83751
since 83623
December 83231
6 83145
amp 83044
His 82695
so 82414
H@@ 82238
W@@ 81559
d@@ 81376
F@@ 81049
County 80502
ers 80335
group 79777
held 79372
E@@ 78847
place 78686
located 78271
At 77825
War 77262
back 77049
u 76735
former 76656
York 76623
government 76518
$ 76114
t@@ 75720
V@@ 75646
There 75468
State 75342
an@@ 75333
took 75238
February 75071
named 75058
member 74979
British 74971
each 74800
high 74342
day 74321
century 74172
population 74135
City 73913
League 73840
now 73401
served 73349
line 73298
ate 73278
O@@ 73058
- 73006
music 72932
any 72837
2010 72788
station 72592
’ 72248
ation 71585
7 71514
b@@ 71091
ar@@ 70966
company 70946
song 70909
However 70549
did 70324
around 69985
received 69920
home 69793
led 69586
J@@ 69277
ar 68949
s@@ 68794
2011 68461
North 68393
built 68212
8 67909
could 67889
e 67714
town 67682
able 67514
due 67458
land 67363
long 67242
er 67149
12 67019
off 66814
men 66450
us 66251
g@@ 65933
like 65721
single 65720
k@@ 65534
local 65507
2012 65343
20 65324
left 65279
own 65231
18 65228
along 65228
set 64949
band 64774
During 64702
system 64677
History 64660
died 64504
2014 64393
species 64002
five 63681
side 63662
published 63602
ch@@ 63381
public 63374
2016 63332
final 63268
include 63180
2015 63083
2013 63080
e@@ 62986
15 62944
members 62934
v@@ 62809
said 62639
within 62183
I@@ 62150
m@@ 62103
club 62076
al@@ 61954
f@@ 61939
2008 61764
9 61602
building 61365
2009 61322
large 61059
because 60923
way 60882
world 60646
i@@ 60468
d 60313
2017 59923
2018 59903
included 59793
village 59666
en@@ 59400
n@@ 59370
third 59219
Y@@ 58986
2019 58926
For 58580
t 58441
small 58311
2007 57958
j@@ 57675
French 57285
2006 57143
show 57107
11 56980
ated 56977
national 56926
College 56904
o@@ 56832
death 56815
h@@ 56505
last 56467
play 56392
children 56007
election 55844
football 55756
am@@ 55682
very 55674
moved 55606
2020 55531
main 55526
&#91; 55395
&#93; 55395
&apos;@@ 55292
30 55001
field 54992
West 54896
English 54880
l@@ 54729
those 54711
house 54697
16 54651
District 54402
war 54364
million 54357
re 54353
old 54282
history 54257
if 54143
still 53945
women 53928
down 53877
ia 53803
German 53801
another 53574
m 53472
service 53423
form 53256
II 53036
14 52922
major 52666
— 52569
do 52543
water 52284
often 52146
International 52120
book 52033
district 51948
late 51841
19 51777
U@@ 51544
a@@ 51462
ic 51433
or@@ 51395
London 51351
River 51240
at@@ 51226
near 51021
north 50915
U.S. 50914
different 50848
When 50668
father 50646
k 50531
established 50348
13 50184
games 50151
announced 50014
country 49877
am 49840
All 49721
25 49661
best 49515
on@@ 49473
House 49453
again 49429
ly 49369
order 49280
original 49257
started 49203
record 49187
er@@ 49174
ad@@ 48926
w@@ 48860
el@@ 48818
Cup 48792
dis@@ 48747
US 48683
Z@@ 48584
ine 48516
top 48464
head 48418
role 48415
co 48386
4@@ 48385
per 48369
south 48351
six 48322
17 48310
u@@ 48210
title 47980
went 47927
law 47778
de@@ 47761
One 47661
3@@ 47547
sh@@ 47264
came 47166
os 47050
period 47019
just 46627
_ 46626
worked 46548
what 46546
much 46401
di@@ 46385
support 46333
ab@@ 46329
joined 46186
24 46083
5@@ 45825
among 45784
st@@ 45669
produced 45437
Ch@@ 45199
Sh@@ 45199
England 45182
using 45092
2005 45029
p 44958
make 44953
2021 44935
Al@@ 44890
le 44749
wrote 44708
given 44698
th@@ 44648
power 44576
having 44552
less 44452
general 44434
described 44298
married 44247
become 44224
ley 44128
next 44080
non 43968
ac@@ 43887
These 43884
community 43796
21 43764
player 43747
development 43698
total 43644
European 43609
even 43582
returned 43502
ts 43475
various 43452
z@@ 43359
Park 43327
works 43198
General 43161
written 43098
ations 43022
East 42860
William 42795
created 42765
production 42735
2000 42719
position 42694
political 42514
From 42494
et 42364
2004 42340
ton 42152
days 42091
Church 42035
point 41875
as@@ 41825
Mar@@ 41669
right 41492
win 41386
Australia 41371
site 41266
n 41065
round 40967
level 40950
founded 40853
! 40852
= 40785
continued 40778
Party 40764
India 40763
ro@@ 40712
however 40686
Council 40662
es@@ 40603
By 40589
take 40468
elected 40435
formula 40421
few 40277
Army 40276
22 40244
According 40227
France 40114
op@@ 40112
B 40054
it@@ 40041
ra@@ 40002
li@@ 39993
High 39970
Street 39951
et@@ 39932
students 39840
O 39838
6@@ 39789
100 39741
r@@ 39684
west 39604
church 39594
signed 39482
Division 39438
h 39352
version 39251
military 39221
region 39216
James 39188
east 39182
George 39178
is@@ 39162
em@@ 39154
King 39138
um 39101
without 39079
party 38996
In@@ 38963
0 38858
run 38732
times 38567
le@@ 38565
match 38538
con@@ 38452
opened 38373
event 38361
ating 38330
San 38323
ist 38218
ted 38176
making 38147
lost 38116
St. 38082
C 38051
23 38015
President 38001
7@@ 37982
ap@@ 37949
considered 37947
recorded 37937
present 37913
art 37899
professional 37873
c 37841
ian 37841
television 37749
California 37651
appointed 37586
ot@@ 37544
half 37521
short 37465
An@@ 37385
full 37306
international 37121
Con@@ 37038
America 37034
ag@@ 37027
language 37016
Canada 36999
ri@@ 36941
story 36889
debut 36878
education 36813
l 36800
2003 36771
together 36765
formed 36724
research 36711
style 36709
&apos;t 36615
ies 36417
wife 36333
el 36217
ant 36073
program 36073
8@@ 35986
appeared 35935
With 35930
Association 35872
TV 35867
important 35835
further 35786
working 35728
g 35724
en 35611
ship 35544
Union 35456
areas 35411
developed 35305
2002 35207
28 35172
ol@@ 35141
Early 35111
class 35101
release 35007
lead 34987
video 34952
26 34942
im@@ 34869
b 34830
27 34816
Royal 34815
While 34739
points 34734
term 34662
Australian 34597
teams 34595
2001 34579
case 34567
away 34526
air 34440
9@@ 34390
addition 34343
result 34306
playing 34248
St@@ 34227
office 34185
business 34157
“ 34005
Indian 33994
ch 33867
ism 33846
control 33771
” 33754
Car@@ 33719
ting 33685
om@@ 33657
Award 33656
Club 33577
average 33558
every 33516
Ar@@ 33491
als 33395
Championship 33392
director 33339
although 33335
similar 33334
race 33332
low 33134
ans 33120
body 33027
example 32954
design 32950
list 32919
others 32872
Germany 32825
league 32793
First 32631
social 32630
ates 32605
himself 32543
x 32543
across 32443
ings 32285
popular 32268
Bar@@ 32254
ana 32212
lt 32081
project 32067
common 32039
David 32012
president 31985
we 31918
Mc@@ 31914
ul@@ 31867
services 31839
gt 31835
Road 31815
os@@ 31766
29 31763
ons 31738
living 31705
Company 31700
events 31698
D 31678
China 31676
... 31639
ra 31609
live 31405
ie 31332
Central 31316
finished 31304
sold 31193
ic@@ 31157
mother 31141
ak@@ 31136
though 31114
Court 31038
oc@@ 30895
daughter 30891
ent 30885
Group 30831
Some 30795
free 30788
how 30743
ti@@ 30522
gave 30517
se@@ 30507
go 30496
Japanese 30450
followed 30430
Europe 30426
road 30395
never 30374
der 30373
months 30371
sub@@ 30356
1999 30323
L 30308
Music 30300
ur@@ 30278
ina 30262
ad 30191
available 30180
coach 30169
Thomas 30161
r 30090
light 30088
taken 30070
white 30031
open 29965
character 29961
construction 29956
qu@@ 29955
z 29923
performed 29899
completed 29880
ec@@ 29870
Air 29828
Robert 29816
designed 29713
R 29693
Japan 29683
largest 29630
stage 29622
ite 29505
2@@ 29485
UK 29466
Washington 29452
reported 29426
Her 29406
modern 29405
Charles 29383
young 29377
seven 29372
Center 29353
T 29292
leading 29239
ten 29217
remained 29200
once 29111
An 29105
ai 29058
Western 28995
should 28947
players 28915
ey 28900
1998 28895
Hall 28884
track 28881
ally 28840
ended 28832
songs 28810
Other 28780
il@@ 28730
Institute 28720
process 28684
originally 28609
seen 28573
Department 28568
brother 28560
Russian 28519
Since 28467
study 28464
directed 28445
refer 28424
current 28400
return 28362
great 28359
co@@ 28302
ya 28285
features 28270
Chinese 28252
eight 28251
par@@ 28213
performance 28179
post 28132
si@@ 28103
1996 28088
official 28068
groups 28048
over@@ 28046
Although 28012
Island 27996
includes 27973
Paul 27958
ets 27948
throughout 27944
31 27925
training 27907
help 27906
inter@@ 27891
Society 27889
Canadian 27868
sc@@ 27858
50 27835
forces 27766
range 27711
see 27668
awarded 27566
featured 27548
get 27518
ah 27502
does 27492
Har@@ 27478
fire 27463
African 27434
schools 27338
currently 27319
involved 27319
av@@ 27304
1997 27245
added 27233
stated 27200
ard 27199
information 27169
red 27058
eventually 27049
X@@ 27048
Q@@ 26937
Minister 26909
sent 26899
episode 26818
Its 26790
E 26788
ical 26645
via 26639
good 26615
S 26585
you 26582
black 26520
Academy 26512
board 26486
countries 26475
la 26423
De@@ 26416
degree 26404
close 26386
replaced 26374
Act 26362
ous 26352
Women 26345
human 26330
central 26240
ary 26221
court 26217
either 26175
usually 26162
families 26136
Le@@ 26103
winning 26094
Par@@ 26064
ob@@ 26055
Di@@ 26040
special 26037
media 26028
our 26007
F 25986
M 25956
ors 25945
Africa 25932
private 25923
1995 25908
car 25904
fourth 25881
placed 25870
states 25848
competition 25824
police 25803
provided 25788
front 25781
x@@ 25741
rights 25705
upon 25644
1994 25581
.@@ 25571
1992 25570
killed 25566
40 25535
car@@ 25521
reached 25501
da 25496
Man@@ 25486
be@@ 25470
ka 25466
college 25426
ever 25415
owned 25415
center 25390
Great 25381
ran 25375
must 25372
previous 25359
listed 25337
To 25324
km 25306
Spanish 25297
U 25274
List 25245
Michael 25214
ground 25212
above 25165
ge@@ 25150
Italian 25140
ou@@ 25117
Henry 25114
Lake 25107
des 25100
change 25067
type 25045
radio 25037
least 25024
ak 24967
Best 24925
les 24897
X 24822
Football 24800
aircraft 24798
ry 24777
En@@ 24758
attended 24756
St 24740
saw 24740
active 24736
Re@@ 24671
related 24669
for@@ 24644
action 24614
king 24614
ov@@ 24581
space 24574
introduced 24537
scored 24506
contract 24494
Republic 24481
attack 24469
rock 24457
ter 24421
section 24389
campaign 24347
size 24346
ice 24323
decided 24320
Awards 24296
railway 24291
parts 24271
sp@@ 24243
White 24211
shows 24146
start 24049
v 24044
put 24023
female 23982
census 23962
films 23880
Career 23850
out@@ 23824
Ireland 23823
ology 23753
Saint 23742
1993 23730
Texas 23703
river 23701
success 23695
1990 23689
per@@ 23670
goal 23640
studio 23632
Th@@ 23559
Cor@@ 23557
previously 23556
Ab@@ 23548
Museum 23533
Following 23508
writing 23508
ong 23502
1991 23496
ish 23494
Am@@ 23486
era 23454
Education 23428
ator 23388
mid 23359
La 23349
Two 23344
Kingdom 23324
rather 23309
person 23282
books 23270
Mor@@ 23262
division 23216
Christian 23177
ur 23176
Be@@ 23174
instead 23145
Black 23121
almost 23109
wood 23100
represented 23099
ma 23096
ance 23073
provide 23066
buildings 23065
mon@@ 23027
force 23021
successful 22971
Government 22941
Peter 22938
Art 22914
model 22886
tournament 22885
week 22879
met 22863
whose 22852
novel 22851
ity 22850
Los 22824
Roman 22796
id@@ 22789
Paris 22784
behind 22757
health 22750
lived 22705
market 22668
brought 22627
me 22612
est 22609
ang 22603
ay 22556
10@@ 22512
units 22493
Committee 22485
data 22475
Later 22427
possible 22419
movement 22403
structure 22373
na 22342
ding 22323
ing@@ 22301
ve 22271
Grand 22254
&#124; 22234
defeated 22233
especially 22213
Catholic 22206
Smith 22206
ha@@ 22205
N 22204
approximately 22184
hi@@ 22170
base 22157
pre@@ 22147
allowed 22140
Mary 22136
Zealand 22122
P 22079
changed 22058
taking 22048
night 22046
significant 22038
den 22032
uses 22028
vi@@ 22014
organization 22011
outside 22007
industry 21952
plays 21888
1989 21871
Championships 21863
bar@@ 21859
primary 21828
northern 21820
rate 21762
soon 21753
disambiguation 21724
runs 21713
El@@ 21687
ex@@ 21685
ut@@ 21675
beginning 21665
ep@@ 21641
Soviet 21638
regular 21622
southern 21618
um@@ 21575
No. 21554
Life 21527
1988 21500
ke 21495
wide 21492
Richard 21474
lines 21458
Red 21419
ability 21412
island 21373
interest 21356
summer 21329
woman 21287
Olympics 21268
Festival 21226
ov 21205
hand 21197
ge 21172
date 21165
pl@@ 21162
Summer 21153
artist 21150
towards 21126
launched 21114
Se@@ 21100
Arts 21093
ne@@ 21093
systems 21092
Bay 21091
highest 21090
spent 21085
leader 21059
ce 21055
capital 21044
itself 20988
too 20979
hit 20966
ment 20956
Most 20953
little 20927
Per@@ 20910
studies 20885
ter@@ 20883
sometimes 20833
whom 20831
lower 20781
ford 20777
closed 20775
ds 20751
Chicago 20732
independent 20706
Virginia 20686
Force 20633
Un@@ 20614
opening 20608
Mon@@ 20600
length 20594
ir@@ 20593
traditional 20582
Pro@@ 20576
higher 20576
studied 20563
western 20544
operations 20534
Film 20513
wing 20512
come 20499
magazine 20491
room 20490
army 20478
ed@@ 20467
Second 20460
thus 20450
Records 20449
ani 20448
bridge 20417
far 20412
ty 20404
county 20372
seat 20364
running 20356
generally 20312
1st 20298
ler 20285
child 20271
self 20236
ships 20229
loss 20199
entered 20195
og@@ 20170
route 20147
course 20124
strong 20124
issues 20122
noted 20119
us@@ 20112
future 20084
collection 20060
ang@@ 20049
genus 20045
according 20022
culture 20019
ville 20011
te 19968
Ma@@ 19961
J. 19939
Games 19934
Navy 19925
pro@@ 19924
1987 19920
required 19916
below 19900
plant 19896
1986 19894
Mexico 19879
# 19875
Italy 19869
G 19865
ell 19862
network 19861
writer 19845
You 19839
month 19838
rest 19800
means 19785
K 19784
ata 19764
real 19763
tour 19762
Hill 19744
eb@@ 19726
companies 19721
sea 19713
ne 19710
operated 19686
ph@@ 19651
af@@ 19627
practice 19610
Sp@@ 19609
ner 19601
od@@ 19592
stone 19578
eg@@ 19575
bi@@ 19562
Northern 19557
Battle 19552
matches 19548
money 19541
Many 19534
1984 19517
anti 19507
park 19501
1980 19485
Russia 19467
selected 19466
earlier 19439
senior 19439
cases 19432
bl@@ 19397
ks 19391
If 19378
Angeles 19373
centre 19342
location 19341
Qu@@ 19312
13@@ 19310
gold 19297
economic 19292
1985 19266
results 19255
ents 19248
ig@@ 19247
property 19245
Greek 19243
id 19239
Ac@@ 19204
man@@ 19203
victory 19187
Ro@@ 19160
increased 19155
individual 19155
already 19146
é 19131
ics 19124
Bo@@ 19118
appearance 19115
Mal@@ 19099
author 19099
associated 19080
fl@@ 19013
majority 19001
numerous 18995
limited 18992
key 18984
contains 18946
older 18946
activities 18933
decision 18908
food 18900
unit 18895
Joseph 18891
becoming 18886
singer 18881
lo@@ 18878
shot 18868
natural 18853
issue 18848
serving 18848
V 18840
manager 18805
commercial 18803
Day 18793
find 18740
competed 18723
terms 18713
cover 18704
going 18696
Route 18641
personal 18638
move 18607
f 18604
my 18598
ending 18587
1983 18574
ver@@ 18573
artists 18567
caused 18565
love 18564
ent@@ 18562
nine 18546
ore 18546
award 18528
initially 18523
forms 18508
annual 18503
income 18478
access 18471
ay@@ 18455
cor@@ 18452
standard 18416
Board 18392
Sir 18374
Or@@ 18360
supported 18344
student 18335
changes 18331
Co@@ 18327
ists 18318
un 18311
Wales 18292
ative 18283
lies 18267
Service 18264
end@@ 18263
better 18259
goals 18258
mostly 18244
retired 18234
1982 18218
elections 18218
trade 18217
+ 18211
additional 18203
university 18187
Irish 18177
Pacific 18177
ci@@ 18175
Sc@@ 18170
forced 18161
se 18148
particularly 18144
staff 18143
Florida 18122
Research 18120
Sal@@ 18090
cast 18079
Mo@@ 18059
rec@@ 18055
fact 18053
ach@@ 18046
past 18035
eastern 18034
claimed 18013
characters 18012
religious 18003
Ad@@ 17998
act 17975
under@@ 17969
ins 17956
ev@@ 17946
chief 17934
husband 17934
ens 17932
14@@ 17900
Southern 17855
bu@@ 17853
1972 17849
word 17837
ara 17820
ah@@ 17818
subsequently 17816
ant@@ 17790
au@@ 17784
thought 17776
management 17774
passed 17774
Valley 17769
Assembly 17760
officer 17759
complete 17756
earned 17727
medical 17719
war@@ 17718
é@@ 17718
1979 17707
ling 17702
feature 17694
su@@ 17685
municipality 17684
plan 17676
Year 17666
face 17641
ane 17628
championship 17615
battle 17611
ise 17604
raised 17576
That 17567
create 17564
science 17561
today 17561
legal 17551
politician 17550
ale 17543
ence 17543
edition 17538
Public 17531
Parliament 17529
status 17525
musical 17517
remains 17498
Gu@@ 17495
Louis 17485
entire 17473
programs 17471
fall 17468
view 17458
give 17446
Congress 17444
sports 17438
Province 17437
tri@@ 17435
? 17397
Jewish 17382
engine 17375
Al 17346
-@@ 17328
65 17325
gh@@ 17323
19th 17310
ness 17294
relationship 17294
evidence 17291
1976 17289
Me@@ 17285
hours 17252
score 17241
ash 17234
1974 17231
ino 17217
ru@@ 17203
2nd 17190
sister 17189
report 17183
Old 17179
1@@ 17171
60 17167
om 17157
particular 17144
ion 17136
1981 17126
minutes 17114
mar@@ 17095
Queen 17081
Their 17081
material 17033
turn 17029
1945 17024
presented 17022
Spain 17005
1975 17003
helped 16997
1968 16980
energy 16977
star 16965
names 16956
Law 16950
Mac@@ 16936
1970 16923
Commission 16913
believed 16871
response 16868
1978 16858
referred 16838
shown 16835
specific 16834
az@@ 16830
Kar@@ 16829
meeting 16796
0.@@ 16795
Railway 16793
leaving 16793
Times 16775
weeks 16761
got 16758
Democratic 16750
larger 16748
composed 16747
Martin 16738
200 16724
complex 16718
basketball 16715
seasons 16709
III 16701
Science 16697
Despite 16685
Col@@ 16665
Line 16660
acquired 16659
houses 16656
famous 16646
vote 16641
ast@@ 16636
Personal 16630
longer 16625
let 16622
offered 16601
Green 16563
res@@ 16554
Empire 16551
der@@ 16540
certain 16533
parents 16528
carried 16513
fight 16503
People 16479
bo@@ 16479
takes 16473
1973 16457
remaining 16446
tions 16446
failed 16444
ages 16431
0@@ 16430
mainly 16429
ano 16426
multiple 16405
surface 16399
footballer 16398
starting 16398
deal 16375
he@@ 16373
increase 16371
promoted 16365
1977 16359
FC 16344
theory 16340
Eastern 16332
Series 16316
graduated 16313
regional 16313
Lord 16312
policy 16306
But 16302
stations 16299
Su@@ 16297
ality 16282
il 16281
need 16261
federal 16253
overall 16241
and@@ 16218
native 16199
source 16196
Chief 16186
ini 16183
cost 16177
A. 16165
ass@@ 16152
up@@ 16151
Town 16144
Big 16142
ines 16129
themselves 16128
ger 16127
ants 16123
ically 16109
Station 16099
1971 16092
proposed 16091
Conference 16076
financial 16062
subject 16062
to@@ 16049
ol 16048
Star 16035
Edward 16034
12@@ 16023
effect 16022
Ber@@ 16010
aged 16007
male 15998
ders 15984
ber@@ 15979
operation 15938
ess 15929
45 15912
1980s 15911
medal 15900
appearances 15896
troops 15883
th 15875
Radio 15869
variety 15868
consists 15866
1969 15854
separate 15850
latter 15829
individuals 15813
Carolina 15806
command 15803
est@@ 15799
Britain 15789
ized 15787
ves 15781
aw@@ 15775
allow 15757
ha 15755
Poland 15751
experience 15737
always 15730
turned 15720
done 15715
speed 15715
Man 15712
Bur@@ 15703
1967 15669
Brown 15660
cities 15658
cultural 15648
ma@@ 15638
middle 15626
cur@@ 15606
Mer@@ 15601
master 15599
Team 15585
influence 15584
appears 15576
square 15573
broadcast 15566
Dutch 15557
recording 15556
H 15553
marriage 15549
department 15542
w 15535
civil 15527
500 15524
friend 15522
train 15516
here 15514
historical 15514
meaning 15513
serve 15511
ot 15506
titled 15490
all@@ 15481
prior 15476
fifth 15472
professor 15462
conditions 15451
20th 15446
£ 15445
Both 15436
oil 15425
di 15423
ery 15396
producer 15391
despite 15374
society 15364
care 15345
Lee 15325
ae 15319
covered 15316
Ne@@ 15311
Open 15311
Biography 15310
attempt 15296
Bank 15281
don 15279
issued 15264
tracks 15257
responsible 15253
words 15250
discovered 15239
1964 15214
Dr. 15213
sound 15207
Creek 15193
1970s 15190
Prince 15181
arrived 15160
records 15159
provides 15150
Love 15148
Asian 15137
Another 15132
Ex@@ 15130
managed 15130
wanted 15102
nearly 15094
We 15092
test 15089
sky 15086
nearby 15070
foreign 15067
Mark 15063
ters 15007
sk@@ 15002
recent 14998
els 14982
Jones 14971
har@@ 14970
Under 14938
du@@ 14931
Bu@@ 14926
border 14920
Scotland 14918
constructed 14917
fish 14915
ends 14911
movie 14908
finally 14902
plans 14902
transferred 14899
news 14887
administrative 14869
sw@@ 14859
actor 14842
Bal@@ 14838
asked 14832
officially 14828
Latin 14822
technology 14781
Pennsylvania 14772
2022 14766
province 14764
bank 14760
told 14758
extended 14751
participated 14750
cut 14740
Theatre 14730
ization 14725
ster 14703
cl@@ 14698
iz@@ 14694
yl@@ 14693
enough 14682
del 14679
Senate 14673
likely 14671
God 14656
primarily 14649
35 14618
la@@ 14617
Development 14615
ck@@ 14613
W 14611
For@@ 14599
heavy 14598
ones 14598
ological 14594
1960 14592
table 14590
problems 14584
might 14577
value 14574
Foundation 14565
rural 14550
ella 14540
ta 14540
saying 14537
ir 14534
review 14534
1965 14533
ham 14533
inc@@ 14528
3rd 14525
cause 14511
Order 14509
ik@@ 14493
1966 14486
Gar@@ 14485
direct 14483
text 14481
C. 14458
editor 14458
br 14449
Michigan 14439
coming 14437
council 14435
candidate 14432
residents 14431
pre 14420
ber 14401
mission 14401
Com@@ 14400
alongside 14391
elements 14391
1944 14388
Ohio 14366
Men 14361
im 14361
yard 14357
Her@@ 14354
workers 14353
Civil 14351
double 14348
Health 14312
directly 14304
Cal@@ 14303
appear 14298
whether 14282
friends 14274
90 14273
Centre 14271
levels 14267
places 14261
function 14257
newspaper 14257
Francisco 14253
leave 14244
grew 14240
ath@@ 14237
nature 14233
channel 14232
acting 14221
positive 14209
products 14192
Governor 14186
we@@ 14178
cross 14160
ars 14149
ure 14142
1990s 14138
security 14126
growth 14125
ck 14122
va 14112
Boston 14105
Republican 14104
ded 14103
ways 14102
Young 14093
trans@@ 14085
ball 14079
produce 14079
ill 14075
Bre@@ 14070
80 14066
mm 14049
renamed 14048
households 14044
lives 14015
idea 14009
makes 14007
ran@@ 13995
projects 13993
ari 13983
70 13979
whole 13973
32 13971
Scottish 13968
Sar@@ 13963
Williams 13963
M. 13951
gu@@ 13949
call 13947
fully 13939
Asia 13927
ja 13919
ys 13909
ola 13900
host 13897
stars 13889
activity 13888
No 13882
continue 13880
Israel 13872
lack 13865
ators 13853
hospital 13848
Director 13847
chart 13838
Sea 13834
numbers 13818
ene 13816
label 13815
Polish 13809
Secretary 13808
parish 13804
divided 13793
ful 13782
planned 13775
executive 13759
res 13751
Three 13742
ordered 13729
ring 13729
1960s 13718
officers 13715
Johnson 13706
Major 13700
rule 13698
conducted 13689
tive 13681
prominent 13656
intended 13645
idae 13630
lands 13629
den@@ 13626
Columbia 13614
Alexander 13612
Georgia 13600
port 13584
Fort 13577
forward 13570
atic 13563
ats 13551
notable 13543
minor 13525
worth 13520
yards 13518
organized 13505
highly 13491
races 13491
Min@@ 13480
youth 13476
Mah@@ 13472
Ak@@ 13471
El 13458
row 13458
females 13457
Office 13451
stories 13445
Hospital 13430
ell@@ 13427
moving 13427
lu@@ 13426
coast 13420
ely 13416
letter 13416
ments 13412
BC 13405
Bl@@ 13403
soldiers 13397
Highway 13385
Tri@@ 13384
removed 13384
commonly 13372
revealed 13369
1962 13362
au 13362
no@@ 13357
CD 13351
stop 13348
ala 13343
me@@ 13338
Pre@@ 13332
formerly 13324
join 13323
1948 13322
administration 13321
Middle 13317
ren@@ 13316
1963 13310
Avenue 13300
scene 13297
yet 13290
basis 13269
ancient 13265
ica 13259
quality 13249
capacity 13244
ish@@ 13242
ok@@ 13240
color 13238
bus 13237
yn@@ 13231
Pl@@ 13227
My 13220
ade 13219
ub@@ 13210
effects 13206
1942 13192
Super 13187
att@@ 13186
Historic 13174
follows 13173
Bill 13170
tra@@ 13163
settlement 13162
ile 13150
distance 13146
ying 13145
treatment 13136
paper 13130
Sydney 13127
singles 13117
smaller 13113
awards 13110
quickly 13110
News 13104
dedicated 13102
ath 13101
ada 13090
Sk@@ 13082
purchased 13077
Also 13068
air@@ 13059
floor 13059
Corps 13048
ita 13046
Gra@@ 13039
B. 13036
ward 13029
Cl@@ 13028
charge 13024
fellow 13019
potential 13015
leaders 13014
press 12995
initial 12989
ble 12988
comes 12981
weight 12970
Tour 12967
drama 12955
historic 12948
1940 12944
ities 12936
facilities 12934
giving 12930
immediately 12925
ann@@ 12914
union 12913
ase 12905
assistant 12900
2.@@ 12899
War@@ 12895
Coast 12894
defeat 12893
Ver@@ 12885
assigned 12885
gl@@ 12861
firm 12855
4th 12853
Du@@ 12853
q@@ 12851
te@@ 12849
BBC 12845
focus 12842
positions 12842
pass 12839
ee 12835
respectively 12827
owner 12824
estimated 12818
Ministry 12814
ā@@ 12812
Chi@@ 12806
1939 12801
ney 12801
median 12798
1961 12797
1941 12788
winner 12781
Ho@@ 12780
Jack 12752
64 12750
efforts 12736
conference 12708
declared 12702
Jersey 12697
Bi@@ 12692
em 12688
serves 12680
identified 12663
article 12659
E. 12656
Of 12656
ker 12656
types 12655
1946 12652
clubs 12650
typically 12649
Little 12648
housing 12647
1956 12645
relations 12643
cars 12641
Far@@ 12639
pe@@ 12635
ze 12635
J 12633
1943 12632
mo@@ 12618
Blue 12612
ow@@ 12604
poor 12595
compared 12593
build 12587
physical 12585
green 12581
reach 12581
gun 12580
inside 12578
largely 12576
Ros@@ 12574
founder 12574
gained 12574
needed 12552
probably 12552
format 12551
Airport 12543
Federal 12532
tion 12527
agreed 12518
percent 12518
He@@ 12512
com@@ 12512
bre@@ 12511
Olympic 12509
featuring 12492
flight 12489
S. 12483
ites 12475
Victoria 12472
roles 12470
amount 12463
Kh@@ 12458
attention 12456
ash@@ 12453
que 12453
destroyed 12447
operating 12445
captured 12442
trial 12441
ena 12438
ud@@ 12433
hosted 12430
scale 12427
Illinois 12424
Pe@@ 12419
upper 12419
van 12416
votes 12404
1958 12403
museum 12401
Post 12400
website 12394
ational 12377
dy 12361
street 12353
branch 12352
Earth 12348
super@@ 12347
Justice 12329
gen@@ 12328
gas 12319
committee 12310
Berlin 12309
Sub@@ 12309
languages 12289
Rock 12283
Jean 12278
Pal@@ 12276
widely 12276
distribution 12273
1950 12271
paid 12267
ho@@ 12266
H. 12265
crew 12265
sl@@ 12261
sources 12261
W. 12245
ac 12242
acy 12241
mixed 12241
confirmed 12240
piece 12240
communities 12239
hold 12238
Tra@@ 12235
suffered 12233
online 12227
agreement 12217
wall 12215
accepted 12214
Scott 12208
direction 12200
occurred 12200
Mount 12199
Li@@ 12192
Lu@@ 12191
computer 12187
leadership 12187
cell 12183
ranked 12162
á@@ 12159
Each 12153
leaves 12152
Bel@@ 12146
semi 12145
meet 12139
Frank 12134
combined 12133
ye 12133
pay 12131
scoring 12128
miles 12118
sts 12109
bor@@ 12105
5th 12101
estate 12100
designated 12097
territory 12096
taught 12095
metal 12090
adopted 12088
Supreme 12083
episodes 12082
Iran 12079
academic 12078
alist 12071
hard 12067
nation 12067
job 12061
Corporation 12057
1947 12047
keep 12040
product 12033
Kong 12030
FM 12011
cre@@ 12011
recognized 12007
Dis@@ 12003
Elizabeth 12001
rep@@ 11997
net 11996
therefore 11993
von 11988
mer@@ 11986
fell 11980
plants 11979
1957 11978
Massachusetts 11978
concept 11969
formation 11966
Kal@@ 11962
Hong 11956
ama 11946
Islands 11939
mentioned 11938
Dar@@ 11936
approach 11936
pressure 11933
min@@ 11932
resulted 11923
bed 11922
code 11922
Korea 11921
teacher 11915
1959 11914
felt 11912
Before 11911
44 11909
bar 11898
camp 11896
ro 11896
ette 11894
ue 11893
sex 11892
ory 11890
reviews 11887
mass 11883
equipment 11876
iting 11859
alone 11854
titles 11843
purpose 11837
Sports 11828
analysis 11823
ms 11822
prison 11813
draw 11812
dance 11810
nominated 11803
ist@@ 11800
Bor@@ 11795
campus 11795
Sur@@ 11792
1952 11777
mis@@ 11775
recently 11765
heart 11761
critical 11747
Time 11745
urban 11743
ier 11729
presence 11729
io 11725
expanded 11718
Ke@@ 11714
Ram@@ 11700
method 11693
gar@@ 11686
Family 11682
champion 11680
tic 11676
Stadium 11675
albums 11671
silver 11639
ki 11638
platform 11638
store 11636
connected 11629
Duke 11622
account 11621
Born 11618
ca 11606
box 11603
parties 11589
Bishop 11580
Background 11579
ei@@ 11578
ese 11574
Professor 11563
Tom 11557
Swedish 11555
break 11550
ung 11546
1955 11545
offers 11541
secondary 11540
granted 11533
buried 11530
Pan@@ 11519
ised 11512
remain 11512
content 11511
R. 11507
Top 11499
Home 11486
ati@@ 11481
Police 11478
Santa 11471
voice 11466
Inter@@ 11462
difficult 11455
Prime 11453
birth 11449
losing 11444
marked 11444
Cross 11435
except 11435
sons 11418
1949 11411
versions 11410
growing 11409
imp@@ 11407
solo 11387
Library 11386
minister 11381
literature 11375
Pakistan 11373
expected 11369
clear 11368
Mad@@ 11364
organizations 11362
reduced 11357
newly 11354
Atlantic 11344
75 11340
1954 11338
36 11333
ett 11325
sites 11323
oo@@ 11322
Geography 11311
Joe 11309
Ser@@ 11309
ri 11302
Don 11301
rules 11301
Final 11300
minute 11295
defined 11294
tree 11283
painting 11282
De 11273
Ko@@ 11271
her@@ 11269
disease 11268
1.@@ 11265
models 11265
damage 11260
digital 11249
performances 11249
pop 11249
ser@@ 11243
sides 11235
finals 11234
fields 11230
spread 11228
density 11227
st 11219
ving 11218
background 11203
surname 11203
aya 11191
Jackson 11190
ski 11188
offer 11185
Toronto 11183
inspired 11182
resulting 11182
mountain 11177
Fl@@ 11174
ington 11173
ography 11170
problem 11166
Brazil 11151
tax 11150
Br@@ 11149
comedy 11148
laws 11146
Ontario 11144
quarter 11138
sign 11136
po@@ 11128
suggested 11125
if@@ 11118
Mas@@ 11117
true 11112
Val@@ 11102
couple 11095
amb@@ 11091
33 11086
existing 11080
sm@@ 11078
Rome 11073
aid 11066
figure 11063
ain@@ 11060
twice 11060
creation 11059
seats 11059
1953 11043
Po@@ 11040
continues 11039
males 11030
generation 11016
travel 11015
obtained 11002
allows 11000
Bridge 10997
Premier 10995
share 10993
Media 10992
sur@@ 10985
chairman 10971
Hor@@ 10970
eh@@ 10969
Nations 10962
Sch@@ 10960
Tr@@ 10959
Cre@@ 10958
contemporary 10955
La@@ 10952
ron 10946
1951 10940
Social 10937
twenty 10924
Military 10920
association 10916
develop 10911
providing 10910
kept 10903
ill@@ 10885
actually 10883
festival 10882
Mur@@ 10874
showed 10867
surrounding 10862
Korean 10861
6th 10859
Show 10857
1938 10856
ps 10856
lake 10855
Township 10846
spring 10843
cells 10842
1918 10840
sen 10835
uk@@ 10828
j 10827
finish 10820
split 10818
ek 10816
teaching 10816
guitar 10807
Ter@@ 10806
P. 10802
Tor@@ 10801
feet 10798
officials 10798
entry 10796
tr@@ 10795
aj@@ 10789
Game 10783
Philadelphia 10776
forest 10774
1936 10766
lin 10758
aries 10752
becomes 10751
Hu@@ 10748
occupied 10744
lot 10743
rank 10743
ao 10742
effort 10742
boat 10737
Tar@@ 10734
tried 10729
our@@ 10727
ial 10725
ther@@ 10723
sets 10721
USA 10718
Mag@@ 10713
arrested 10713
Me 10712
authorities 10708
claims 10705
politics 10705
Bra@@ 10702
Regiment 10692
injury 10684
die 10683
berg 10682
tor 10678
billion 10672
Over 10671
300 10670
‘ 10668
actions 10664
ear@@ 10663
Because 10660
Book 10660
receive 10660
ns 10659
allowing 10646
ches 10644
situated 10638
San@@ 10619
za 10618
alism 10615
34 10610
Wilson 10606
ten@@ 10600
Billboard 10596
regions 10594
tower 10594
stand 10589
unique 10581
1920 10579
Among 10576
gives 10574
met@@ 10572
ari@@ 10562
dead 10560
attacks 10550
Long 10549
ls 10548
Mr. 10541
greater 10537
tradition 10536
block 10534
anti@@ 10531
sixth 10526
Can@@ 10523
knowledge 10522
hour 10518
7th 10516
ging 10511
younger 10511
villages 10508
38 10504
impact 10500
ji 10500
opposition 10496
captain 10490
goes 10488
Captain 10486
blue 10485
visit 10483
dark 10478
interview 10476
sales 10476
micro@@ 10464
Sweden 10463
applied 10462
Sun 10454
Community 10447
Sw@@ 10438
traffic 10438
facility 10436
bur@@ 10434
Netherlands 10431
Lady 10426
ement 10422
succeeded 10413
AS@@ 10412
arms 10411
400 10408
Technology 10408
ens@@ 10408
comm@@ 10407
metres 10391
sal@@ 10383
ula 10379
hall 10374
figures 10367
Port 10358
scientific 10356
deep 10349
headquarters 10349
Between 10345
Wal@@ 10338
rating 10335
effective 10334
Like 10324
theatre 10323
Oxford 10319
Cap@@ 10313
ow 10312
Register 10290
bs 10290
claim 10290
Daniel 10289
hom@@ 10281
brothers 10280
1937 10279
climate 10279
software 10279
00 10272
Ri@@ 10270
1950s 10269
library 10268
approved 10261
und@@ 10261
bought 10260
risk 10258
baseball 10253
Death 10252
cannot 10251
Emperor 10247
ions 10247
ain 10245
Ag@@ 10244
says 10244
governor 10240
ip@@ 10232
electric 10227
Maria 10224
know 10223
promotion 10223
commander 10222
critics 10218
tells 10217
kind 10210
classes 10203
Medical 10200
Andrew 10197
1,@@ 10190
gra@@ 10187
Gro@@ 10186
look 10186
squad 10186
ces 10184
Due 10177
commissioned 10173
returning 10168
Mat@@ 10166
blood 10157
ab 10155
As@@ 10150
brand 10150
drive 10145
settled 10143
Shi@@ 10136
Field 10134
ek@@ 10132
trains 10132
completely 10128
mile 10126
Special 10123
aired 10122
simply 10118
image 10115
fighting 10111
Taylor 10109
1919 10104
environment 10104
bra@@ 10103
arts 10098
read 10096
advanced 10094
tw@@ 10093
Arthur 10081
big 10073
achieved 10071
Char@@ 10070
visited 10062
Mu@@ 10059
Americans 10057
Golden 10047
Castle 10046
faced 10046
Business 10043
ering 10042
gi@@ 10034
situation 10026
And 10023
industrial 10022
ged 10014
rise 10013
ins@@ 10007
Mike 10000
Le 9996
Mountain 9994
° 9994
fer@@ 9993
materials 9993
frequently 9991
Te@@ 9990
Van 9990
authority 9985
Press 9980
ably 9978
ou 9963
Dec@@ 9959
rates 9954
oldest 9949
cr@@ 9948
actress 9937
publication 9937
Sam@@ 9935
something 9935
reports 9934
ties 9932
chosen 9927
can@@ 9919
ind@@ 9919
sexual 9917
holds 9902
ver 9900
Francis 9896
ast 9892
supply 9889
murder 9880
acts 9878
amp@@ 9876
relatively 9876
refused 9873
Ash@@ 9872
Several 9868
Chris 9864
things 9862
Four 9859
Pi@@ 9855
wa 9849
48 9843
portion 9841
household 9835
ses 9831
tor@@ 9819
ach 9818
necessary 9816
Mi@@ 9815
1930 9803
racing 9789
Ly@@ 9786
pri@@ 9772
creating 9766
Bro@@ 9760
foot 9756
standing 9753
bring 9747
1933 9729
fans 9728
Master 9727
transport 9724
starring 9722
ea 9714
Del@@ 9711
kn@@ 9709
Gr@@ 9707
Today 9702
concert 9699
theme 9696
18th 9693
begins 9693
joint 9692
Junior 9688
ium 9680
consisted 9679
gr@@ 9674
perform 9671
focused 9670
enter 9669
conflict 9667
notes 9662
ths 9662
broke 9659
winter 9657
Federation 9656
1914 9654
founding 9651
scheduled 9647
1917 9645
methods 9636
Plot 9635
prot@@ 9628
Davis 9627
42 9625
Y 9624
principal 9624
head@@ 9613
iv@@ 9613
8th 9608
Prize 9602
selling 9599
performing 9597
agent 9594
origin 9593
beat 9587
Mil@@ 9585
begin 9582
ie@@ 9577
ora 9576
receiving 9576
del@@ 9574
alized 9572
ona 9572
safety 9570
unable 9568
articles 9565
transfer 9562
55 9561
9th 9561
1935 9559
Reg@@ 9556
audience 9546
Bob 9544
exchange 9544
dec@@ 9543
fought 9543
attempted 9540
rich 9540
des@@ 9538
ili@@ 9536
Beach 9535
retirement 9528
vice 9528
districts 9525
hy@@ 9522
pair 9522
tu@@ 9522
prevent 9512
follow 9506
attacked 9501
normal 9498
girls 9497
Network 9481
structures 9481
EP 9475
subsequent 9475
ges 9471
employed 9469
economy 9468
FA 9461
oh@@ 9456
AC 9455
Minnesota 9455
reason 9452
eng@@ 9448
yn 9448
So@@ 9447
covers 9447
partner 9445
ura 9445
Nar@@ 9441
try 9435
bro@@ 9434
setting 9433
Journal 9431
opposed 9423
reference 9421
Mexican 9420
ire 9420
architecture 9413
AR@@ 9412
kin 9411
Region 9409
ko 9405
expansion 9404
towns 9404
write 9404
morning 9402
shared 9398
daily 9396
Kansas 9394
temple 9390
Ger@@ 9389
defense 9385
boy 9383
dropped 9376
inv@@ 9375
machine 9367
converted 9365
Si@@ 9356
37 9353
System 9350
Er@@ 9349
Ben@@ 9342
1928 9340
NCAA 9337
Reception 9336
determined 9336
ologist 9333
q 9332
unknown 9331
protection 9328
app@@ 9316
du 9315
launch 9308
entitled 9307
Forest 9292
Inc. 9292
39 9289
Missouri 9289
animals 9289
ron@@ 9289
NFL 9288
representing 9284
To@@ 9281
Cro@@ 9278
fiction 9277
permanent 9272
Steve 9269
qualified 9263
L. 9261
girl 9261
shortly 9259
increasing 9256
Ham@@ 9253
je@@ 9245
Mel@@ 9239
Wil@@ 9239
crime 9236
presidential 9231
Ha@@ 9229
sense 9224
Jr 9221
volume 9219
ock 9216
Melbourne 9213
cat@@ 9210
Ru@@ 9209
Description 9205
attempts 9203
influenced 9200
mark 9199
D. 9198
educational 9195
trees 9192
engineering 9190
copies 9185
derived 9185
1929 9184
ts@@ 9182
ly@@ 9179
Ph@@ 9175
ut 9173
1934 9172
Sa@@ 9170
sport 9170
Lewis 9168
Au@@ 9167
Fe@@ 9167
Area 9161
back@@ 9160
ultimately 9159
Co 9156
Gold 9152
,000 9151
go@@ 9151
Ban@@ 9146
US@@ 9146
Moscow 9140
guest 9138
vehicles 9136
stay 9130
bronze 9118
represent 9117
e.g. 9115
int@@ 9113
Fox 9108
citizens 9106
Ed@@ 9101
properties 9099
ick 9098
Memorial 9096
Jim 9093
birds 9091
West@@ 9088
ai@@ 9088
extensive 9087
highway 9087
cancer 9081
global 9080
tran@@ 9078
Night 9069
airport 9068
constituency 9068
mer 9064
say 9063
Gor@@ 9061
resources 9058
contributed 9053
maximum 9053
Power 9050
tro@@ 9049
mayor 9048
containing 9047
Is 9039
learning 9037
onto 9037
Muslim 9036
powerful 9030
centuries 9028
Nor@@ 9027
simple 9024
ib@@ 9020
meant 9020
ots 9015
edge 9014
pieces 9013
ids 9010
Stephen 9009
Turkish 9002
flow 9000
Sunday 8997
Queensland 8991
hockey 8990
Country 8988
bury 8980
ga 8979
peace 8977
Live 8972
Wisconsin 8972
comp@@ 8972
laid 8972
tur@@ 8972
institutions 8964
drug 8963
guns 8961
passing 8952
application 8944
controlled 8941
ians 8938
locations 8931
Sciences 8928
Kan@@ 8926
More 8923
sector 8918
phase 8917
41 8914
post@@ 8911
Do@@ 8907
hands 8904
ole 8904
farm 8900
1924 8886
Cape 8883
walls 8880
i.e. 8879
domestic 8876
offices 8874
views 8874
headed 8873
atory 8867
holding 8865
memory 8865
Project 8864
pur@@ 8864
Vi@@ 8863
sought 8863
castle 8861
cra@@ 8861
card 8859
vehicle 8859
Des@@ 8854
armed 8854
1932 8852
slightly 8852
Television 8851
Tur@@ 8847
identity 8839
documentary 8838
beyond 8837
ven@@ 8834
condition 8833
1912 8826
temperature 8824
Vietnam 8820
lin@@ 8820
forming 8816
Song 8811
establishment 8811
Turkey 8810
developing 8801
Production 8794
Sel@@ 8794
letters 8792
recognition 8791
Cambridge 8789
supporting 8787
ads 8784
yellow 8783
Prior 8782
zone 8780
expressed 8777
Tennessee 8776
ago 8775
search 8770
iti@@ 8768
mor@@ 8768
í@@ 8766
reasons 8765
invited 8763
Norway 8762
mat@@ 8760
proved 8756
funding 8748
och@@ 8748
rail 8748
fin@@ 8745
Indiana 8743
aka 8743
lyrics 8743
consecutive 8731
height 8729
bit 8728
ize 8728
hill 8727
1922 8723
educated 8722
matter 8722
Philippines 8719
Point 8718
candidates 8716
glass 8715
producing 8713
Khan 8712
Super@@ 8712
want 8711
3.@@ 8710
occurs 8705
Upon 8696
Jews 8692
Tro@@ 8691
horse 8688
Christmas 8685
Cam@@ 8681
doing 8680
Lo@@ 8675
stock 8673
functions 8671
technical 8671
hotel 8669
screen 8668
Manchester 8667
rugby 8666
1927 8664
lie 8663
Hal@@ 8657
abandoned 8655
contained 8655
zed 8654
Dan@@ 8652
brown 8652
52 8651
lic@@ 8651
finishing 8650
bodies 8645
1921 8640
G. 8640
writers 8640
bands 8639
Go@@ 8633
Native 8633
loan 8628
F. 8625
orders 8624
factory 8619
journalist 8617
Labour 8616
Swiss 8616
Services 8613
needs 8612
speech 8612
ung@@ 8602
contact 8599
independence 8598
Notable 8597
Don@@ 8593
col@@ 8593
rac@@ 8590
dates 8588
successfully 8584
MP 8583
grade 8583
bound 8581
ning 8580
Hot 8576
patients 8568
category 8567
1925 8565
Pen@@ 8562
Land 8561
Maryland 8561
judge 8560
ric@@ 8554
bill 8552
dic@@ 8552
Affairs 8549
refers 8549
Gal@@ 8548
investigation 8548
Pet@@ 8547
1926 8545
1931 8544
fleet 8543
joining 8543
IV 8540
architect 8537
incorporated 8537
negative 8535
Class 8534
We@@ 8532
ular 8529
violence 8525
planning 8523
core 8521
Arizona 8520
royal 8519
uc@@ 8518
Norwegian 8514
oon 8508
Portuguese 8505
Building 8504
combat 8504
existence 8502
alternative 8497
COVID 8496
Then 8495
Harry 8493
ceremony 8492
Studies 8491
decades 8485
reaching 8479
Ol@@ 8473
operate 8465
Channel 8458
maintained 8457
ati 8456
rooms 8445
Tournament 8431
resigned 8431
multi 8430
Ge@@ 8421
1923 8420
Pol@@ 8420
basic 8416
hi 8415
roads 8415
voted 8412
Sol@@ 8410
Pur@@ 8409
PA 8408
composer 8400
arch@@ 8398
literary 8397
herself 8396
Oregon 8393
mine 8393
My@@ 8392
merged 8385
Infantry 8383
Pr@@ 8383
shape 8383
ades 8380
regarding 8379
rot@@ 8377
Austria 8376
graduate 8372
vers 8366
specifically 8365
ó@@ 8360
Cur@@ 8355
junior 8355
Colorado 8354
honor 8354
ose 8354
hired 8353
rear 8351
1910 8349
installed 8348
tly 8348
Hol@@ 8344
enemy 8340
cal@@ 8337
Bri@@ 8335
ries 8335
sel@@ 8335
Q 8334
Fre@@ 8325
establish 8325
ston 8324
adi@@ 8322
sted 8322
trained 8322
Foreign 8319
Walter 8316
Men@@ 8313
exhibition 8307
Kam@@ 8306
51 8305
shaped 8305
ute 8304
Dor@@ 8298
ess@@ 8297
ex 8297
Dun@@ 8295
straight 8295
reg@@ 8293
Entertainment 8290
observed 8290
secretary 8287
so@@ 8287
Ali 8285
1916 8278
49 8276
References 8275
illa 8274
collected 8273
fuel 8269
stating 8264
Representatives 8263
connection 8262
nuclear 8259
classical 8258
fi@@ 8257
registered 8257
ami 8254
argued 8254
pilot 8253
display 8252
1915 8245
Revolution 8244
of@@ 8242
No@@ 8236
New@@ 8235
wins 8232
ba 8228
ays 8224
ious 8224
ug@@ 8223
Sri 8222
passes 8222
ruled 8221
47 8219
Red@@ 8218
marine 8213
43 8210
funds 8203
wi@@ 8195
Medal 8189
affected 8188
worldwide 8186
Places 8184
1900 8183
Human 8178
def@@ 8178
Kn@@ 8177
About 8175
Gi@@ 8175
someone 8175
mental 8174
Switzerland 8171
Ta@@ 8169
representative 8168
scenes 8167
Political 8166
finds 8164
religion 8163
Census 8161
Cat@@ 8158
Holy 8154
exist 8154
Albert 8153
enti@@ 8152
95 8136
mal@@ 8134
Winter 8133
ato 8132
entrance 8131
etc 8126
question 8125
Egypt 8121
serious 8121
heard 8117
occur 8117
promote 8116
heavily 8115
Ford 8113
engaged 8107
ined 8106
ova 8103
ost@@ 8101
cap@@ 8096
ony 8093
importance 8092
T. 8090
protein 8089
yer 8088
Ba@@ 8085
iron 8084
At@@ 8080
9.@@ 8079
avoid 8073
regarded 8067
* 8062
Islamic 8062
choice 8062
Head 8061
ace 8058
46 8055
ion@@ 8054
SR 8053
carry 8051
meters 8047
statement 8046
Singapore 8044
Arab 8043
Only 8037
inhabitants 8036
Miller 8035
composition 8034
MA 8032
mann 8029
failure 8026
Though 8025
Design 8024
Hel@@ 8021
northeast 8017
Pope 8014
What 8014
Management 8007
Earl 8006
tie 8003
grounds 8001
roof 7998
DC 7996
Pri@@ 7996
8.@@ 7995
poet 7992
oy@@ 7991
dra@@ 7987
selection 7984
poetry 7978
3,@@ 7976
gate 7976
ster@@ 7976
ously 7974
programme 7974
price 7970
incident 7965
internal 7965
AD 7961
consisting 7959
sion 7959
powers 7957
improve 7953
storm 7951
praised 7949
concluded 7945
fre@@ 7945
Security 7943
oli@@ 7942
think 7942
onic 7939
Member 7938
Z 7938
toward 7938
Av@@ 7935
programming 7935
1930s 7934
Miss 7921
credited 7918
stadium 7917
compete 7914
fast 7903
page 7903
spot 7897
session 7895
sections 7894
Howard 7892
iers 7892
invasion 7890
17th 7887
adult 7882
det@@ 7882
Youth 7879
driver 7879
sey 7879
Professional 7878
wards 7876
twelve 7874
gain 7873
Mul@@ 7872
entirely 7872
May@@ 7869
homes 7869
Fer@@ 7868
Is@@ 7868
Regional 7868
85 7863
Im@@ 7861
Bureau 7860
protect 7858
stri@@ 7858
municipal 7856
hand@@ 7854
rare 7853
weapons 7852
Liberal 7845
Main 7842
passenger 7841
foundation 7839
not@@ 7839
causing 7837
Temple 7835
ym@@ 7834
conc@@ 7833
target 7831
ahead 7830
dem@@ 7830
SA 7829
iss@@ 7827
ky 7827
IS@@ 7825
trying 7824
divisions 7823
possibly 7821
Rem@@ 7820
agency 7817
users 7817
advance 7815
gets 7812
Forces 7811
cy@@ 7811
reserve 7810
Thus 7809
boys 7807
54 7804
Square 7804
kill 7803
1913 7799
peak 7794
quite 7794
pan@@ 7792
tors 7791
Israeli 7788
Ukraine 7788
inf@@ 7786
Em@@ 7785
closely 7785
Greece 7784
Tony 7782
Vice 7780
draft 7779
Je@@ 7777
Tu@@ 7777
Hamilton 7776
starred 7775
SS 7770
Operation 7766
ius 7765
Gen@@ 7764
environmental 7763
cricket 7762
Ay@@ 7761
66 7760
Hockey 7758
historian 7758
Free 7751
stra@@ 7751
Kentucky 7750
ff@@ 7750
Az@@ 7746
ently 7745
starts 7743
Ben 7741
Vol@@ 7740
pp@@ 7740
sale 7740
ich@@ 7737
door 7736
Whit@@ 7735
ake 7734
personnel 7732
Houston 7729
briefly 7728
15@@ 7726
asi@@ 7721
premiered 7717
charged 7714
standards 7713
calls 7711
Cha@@ 7710
believe 7709
steel 7709
employees 7698
animal 7697
AT@@ 7696
Naval 7696
exp@@ 7693
opera 7692
sa 7692
Brigade 7688
Da@@ 7687
ideas 7684
wind 7684
Hy@@ 7676
broken 7676
Cr@@ 7672
seconds 7669
escape 7664
Anne 7661
On@@ 7659
killing 7657
Jan@@ 7651
br@@ 7651
Senior 7648
ft 7648
improved 7646
accused 7644
northwest 7639
CA@@ 7635
Sand@@ 7635
ap 7635
án 7629
AM 7617
Lar@@ 7617
ures 7616
1911 7613
Fin@@ 7612
ong@@ 7612
sell 7607
equal 7601
corner 7600
ern@@ 7600
oph@@ 7600
ances 7599
stands 7597
opportunity 7594
chain 7592
Third 7588
Patrick 7587
user 7587
Administration 7586
agricultural 7586
ered 7584
Rural 7583
Stone 7583
paintings 7583
drawn 7576
sive 7573
char@@ 7571
seventh 7570
down@@ 7566
š@@ 7566
tim@@ 7562
describes 7560
Works 7559
distributed 7558
regularly 7556
sk 7554
val@@ 7544
Engineering 7543
ul 7543
Pat@@ 7541
your 7536
ik 7534
Squadron 7532
introduction 7531
Marine 7528
courses 7528
speaking 7528
ited 7523
istic 7519
Iowa 7518
tropical 7516
99 7515
rem@@ 7513
injured 7512
dr@@ 7511
Once 7509
chose 7504
water@@ 7501
really 7498
16th 7497
Ocean 7486
por@@ 7482
do@@ 7472
aff@@ 7471
residence 7470
Comm@@ 7468
extension 7468
ards 7467
ame 7464
Light 7463
resistance 7463
5,000 7459
Jesus 7456
wave 7456
und 7455
53 7452
rated 7451
Hotel 7450
ón 7450
reading 7449
reduce 7446
dale 7445
Brian 7444
fine 7444
fo@@ 7444
Prix 7440
CO@@ 7439
wh@@ 7438
applications 7432
Nov@@ 7431
Simon 7431
weather 7429
dating 7428
values 7420
owners 7418
ture 7418
mi@@ 7417
sing 7413
Ap@@ 7412
Bon@@ 7412
Tre@@ 7412
etic 7410
56 7409
rel@@ 7406
Space 7404
ail 7402
calling 7400
combination 7400
humans 7400
step 7399
eman 7398
dry 7396
inger 7396
I. 7395
sol@@ 7392
cer@@ 7388
objects 7383
67 7379
1908 7376
islands 7375
77 7370
awa 7368
cent@@ 7366
formal 7364
Samuel 7363
journal 7360
ban@@ 7356
neighborhood 7356
osa 7356
gene 7355
rose 7352
equ@@ 7351
63 7349
ethnic 7345
earliest 7343
ack 7337
racial 7337
Executive 7336
mind 7335
stages 7332
str@@ 7331
address 7328
stores 7328
Fame 7325
decade 7322
Anderson 7319
getting 7317
hal@@ 7317
strength 7316
itions 7311
nor 7310
ric 7310
advantage 7309
ned 7307
survived 7307
interior 7303
demand 7297
Danish 7294
Star@@ 7293
cul@@ 7292
debuted 7292
Communist 7291
frame 7286
yl 7285
57 7282
causes 7282
Diego 7279
Water 7277
replace 7276
Bat@@ 7272
engineer 7270
PC 7268
strike 7268
Lin@@ 7267
ey@@ 7266
factors 7263
organisation 7261
dated 7260
valley 7257
eye 7254
72 7253
Pro 7253
southeast 7253
DVD 7252
ank@@ 7250
looking 7248
Sam 7246
Out 7245
partnership 7238
hor@@ 7235
Rugby 7231
cycle 7231
experienced 7230
Modern 7226
plane 7224
ration 7223
mi 7215
adjacent 7214
Bowl 7209
Commonwealth 7208
Il@@ 7207
interests 7206
Oklahoma 7205
mill 7205
Mayor 7200
heads 7199
leads 7197
Raj@@ 7195
oned 7193
Alabama 7192
Gre@@ 7191
operates 7191
singing 7186
signing 7185
Heritage 7183
.com 7181
greatest 7180
K. 7179
typical 7179
Sm@@ 7175
notably 7175
onal 7175
criminal 7172
musician 7170
Philip 7166
hin@@ 7166
71 7165
engines 7165
Tokyo 7164
Program 7162
bass 7161
Children 7160
Ti@@ 7160
Frederick 7157
churches 7157
ys@@ 7148
goods 7145
leg 7140
lis 7135
ard@@ 7133
cher 7132
68 7131
Legislative 7130
committed 7130
ela 7130
pur 7130
painted 7128
Imperial 7127
script 7121
20@@ 7120
distinct 7120
link 7118
Mississippi 7117
contain 7117
So 7116
participate 7113
techniques 7110
Quebec 7107
bad 7106
Juan 7104
Allen 7102
reception 7102
designs 7097
mp@@ 7096
phone 7096
bri@@ 7093
mouth 7093
SC 7090
opposite 7090
tel@@ 7087
bottom 7084
seems 7084
ō 7080
Detroit 7078
Anthony 7075
Lieutenant 7073
Railroad 7069
ax@@ 7067
Village 7066
rejected 7064
ech@@ 7063
hundred 7063
Sha@@ 7060
Antonio 7058
ger@@ 7058
charges 7055
theater 7055
Han@@ 7054
vocals 7051
ali@@ 7050
Cu@@ 7045
philosophy 7045
Mak@@ 7043
Fire 7042
MS 7042
budget 7042
measures 7039
signal 7038
mining 7036
86 7033
Hungarian 7031
stood 7030
comic 7027
collaboration 7021
musicians 7019
Cemetery 7018
fired 7018
Christ 7016
Czech 7014
piano 7014
Baseball 7013
Hollywood 7012
chemical 7012
damaged 7011
elli 7011
Clark 7009
7.@@ 7007
Independent 7007
pi@@ 7006
Argentina 7004
examples 7004
equivalent 7003
gender 7003
plot 7000
southwest 7000
Adam 6999
Gallery 6997
didn 6997
emb@@ 6996
Douglas 6994
protected 6993
Magazine 6987
residential 6986
62 6982
coal 6982
details 6981
arm 6974
jazz 6968
76 6967
Local 6967
easily 6966
ado 6964
ord@@ 6962
Pra@@ 6961
anc@@ 6961
ali 6960
2,@@ 6957
Var@@ 6951
bul@@ 6946
duty 6941
Band 6939
motion 6939
58 6935
gro@@ 6934
emp@@ 6931
flying 6930
jo 6930
why 6930
Lincoln 6928
ental 6927
links 6927
sub 6926
form@@ 6925
ened 6923
ote 6921
skills 6921
ste@@ 6921
88 6919
acted 6917
capture 6912
Miami 6911
Rec@@ 6910
businesses 6910
Ob@@ 6909
criticized 6909
hr@@ 6907
Constitution 6901
purchase 6899
missions 6898
Moore 6893
lawyer 6892
accompanied 6891
winners 6891
Doctor 6889
Five 6886
Gordon 6886
secret 6885
96 6878
1906 6876
inner 6873
sequence 6871
aut@@ 6870
defeating 6861
Denmark 6860
tier 6860
actors 6856
Bell 6855
Iraq 6855
assumed 6853
passengers 6852
determine 6848
flag 6848
She@@ 6846
costs 6845
off@@ 6845
Up 6844
admitted 6844
Reserve 6843
champions 6841
pro 6838
items 6835
medium 6834
communication 6827
dar@@ 6827
reality 6827
Win@@ 6825
intelligence 6825
provincial 6824
1905 6822
Dur@@ 6821
electronic 6817
path 6816
69 6812
contrast 6811
maintain 6811
flat 6810
AC@@ 6809
borough 6809
Puerto 6808
freedom 6808
acid 6807
documents 6807
1907 6804
ke@@ 6804
Athletics 6801
78 6800
li 6797
ition 6793
images 6790
retained 6787
Rose 6786
delivered 6785
elling 6785
Dra@@ 6783
ni@@ 6782
acc@@ 6781
factor 6781
ching 6780
Hungary 6779
contest 6779
sil@@ 6777
reaction 6776
Louisiana 6774
bishop 6774
Ukrainian 6773
regiment 6773
non@@ 6772
Not 6771
extra 6771
habitat 6769
IC@@ 6768
oma 6768
74 6767
Belgium 6766
banks 6764
ih@@ 6764
routes 6763
arranged 6762
commission 6761
device 6761
request 6761
Harvard 6760
1,000 6757
61 6757
attached 6757
Ottoman 6754
amm@@ 6754
contributions 6753
Marie 6750
anda 6749
formally 6748
ello 6746
hydro@@ 6740
publications 6739
Anna 6735
Ju@@ 6731
driving 6731
heat 6729
Singles 6728
streets 6726
Tak@@ 6724
00@@ 6723
1909 6723
da@@ 6722
DNA 6719
prize 6714
reign 6711
showing 6711
chair 6704
inn@@ 6701
poem 6694
Trust 6691
Wh@@ 6690
visible 6690
ond@@ 6687
brief 6686
hel@@ 6686
caught 6684
sn@@ 6683
Ku@@ 6678
classified 6677
tures 6676
linked 6675
accident 6672
yp@@ 6671
ched 6668
deputy 6665
burg 6660
purposes 6660
Tam@@ 6650
anniversary 6650
persons 6648
tries 6648
hip 6647
Palace 6646
Demographics 6643
shooting 6641
Op@@ 6640
gs 6635
courts 6632
Kur@@ 6631
ownership 6631
ox@@ 6628
Dublin 6625
ked 6623
trip 6623
naval 6620
od 6620
59 6619
crisis 6615
Season 6613
Connecticut 6611
hosts 6611
colonial 6610
Brazilian 6605
represents 6602
biggest 6600
Good 6598
shop 6598
behavior 6597
ray 6596
painter 6594
attend 6593
ows 6592
onia 6590
pandemic 6589
profit 6588
600 6587
investment 6587
significantly 6585
Kim 6584
anna 6583
han 6583
12th 6581
87 6581
restored 6580
CEO 6577
Rights 6577
ail@@ 6574
nothing 6573
top@@ 6573
nar@@ 6571
interested 6569
Additionally 6567
ram 6565
RA@@ 6564
See 6564
fixed 6563
Age 6562
filed 6561
difference 6560
84 6558
Tamil 6558
save 6556
ere 6554
Max 6552
visual 6551
object 6549
Cas@@ 6545
boats 6545
folk 6542
guard 6541
sis 6541
understanding 6540
carrying 6539
fashion 6538
publishing 6535
translated 6535
Margaret 6531
ABC 6530
concerns 6527
flows 6525
separated 6524
sed 6523
Saturday 6522
Edinburgh 6520
policies 6518
eh 6517
Os@@ 6516
falls 6516
Cast@@ 6514
Cy@@ 6513
ef@@ 6513
ough 6512
franchise 6510
tied 6509
enc@@ 6506
13th 6505
stopped 6505
yan 6504
abad 6503
pr@@ 6501
dynasty 6500
ater 6499
ored 6499
adapted 6498
ancy 6496
Mountains 6495
actual 6495
98 6494
Internet 6494
chance 6494
appearing 6491
150 6490
Sy@@ 6490
Week 6489
degrees 6485
duties 6484
bird 6483
4,@@ 6482
land@@ 6474
sem@@ 6473
Kon@@ 6470
township 6470
syn@@ 6469
ila 6468
learned 6467
ises 6466
83 6464
require 6464
Cleveland 6463
note 6462
thing 6460
wounded 6458
ine@@ 6457
Gl@@ 6455
ti 6455
ł@@ 6455
competitions 6449
Montreal 6448
Portugal 6444
Mont@@ 6440
mobile 6440
ry@@ 6440
Austrian 6436
Metropolitan 6433
occupation 6433
IN@@ 6431
defensive 6431
1904 6428
arrival 6428
ass 6428
spec@@ 6428
Even 6426
institution 6426
ishing 6426
SP@@ 6423
eth@@ 6422
Rad@@ 6421
Ka@@ 6420
missing 6420
popularity 6417
Mus@@ 6416
membership 6411
81 6405
crossing 6405
flowers 6402
Ass@@ 6401
ign@@ 6401
qualifying 6401
tennis 6401
Deputy 6400
sin@@ 6398
Ra@@ 6397
filled 6396
medicine 6395
Broadway 6394
Guard 6394
lay 6394
ith 6393
oring 6392
Ray 6391
faculty 6390
fort 6389
Ryan 6388
daughters 6387
Atlanta 6386
Now 6385
Command 6384
legislation 6383
relative 6382
waters 6382
scholars 6379
A.@@ 6378
severe 6375
responsibility 6372
ensure 6370
hits 6369
Defense 6362
97 6360
Walker 6359
roughly 6359
Jo@@ 6357
che 6357
weekly 6357
15th 6354
pun@@ 6354
Colonel 6351
measure 6350
adding 6348
map 6348
Bay@@ 6346
CA 6346
lists 6346
79 6345
eta 6342
ingly 6341
Black@@ 6339
Battalion 6338
pal@@ 6338
verse 6338
Bol@@ 6337
locality 6337
testing 6336
covering 6335
suggests 6334
thousands 6334
perhaps 6333
Lan@@ 6331
aki 6331
92 6328
ales 6328
Global 6327
gh 6325
Comp@@ 6323
storage 6323
mean 6321
Lawrence 6320
peaked 6320
Indonesia 6319
cont@@ 6314
pet@@ 6314
800 6313
Malaysia 6313
1901 6311
Seattle 6309
involving 6299
AS 6298
priest 6298
Construction 6296
offensive 6292
wor@@ 6292
Fi@@ 6291
Li 6290
Welsh 6286
vision 6286
prepared 6285
stein 6283
poly@@ 6282
ok 6279
extremely 6274
Dev@@ 6272
successor 6272
ming 6271
turns 6270
José 6268
93 6263
fe@@ 6263
ze@@ 6263
practices 6262
ff 6261
stayed 6259
Dal@@ 6258
14th 6257
bringing 6255
windows 6255
Vis@@ 6254
94 6253
Sav@@ 6253
mid@@ 6251
brick 6250
narrow 6249
Chairman 6248
med 6247
ranking 6247
Por@@ 6241
aspects 6241
hu@@ 6236
ret@@ 6233
otherwise 6230
alization 6228
criticism 6227
qui@@ 6226
reform 6220
moth 6217
Champions 6213
10th 6212
subjects 6210
fan 6209
graduating 6208
Bul@@ 6207
č@@ 6201
16@@ 6199
expression 6199
commune 6198
ome 6198
coastal 6192
pol@@ 6192
vo@@ 6192
ito 6191
91 6190
challenge 6190
Mos@@ 6188
ban 6188
1903 6186
authors 6185
technique 6184
print 6183
Harris 6182
Studios 6181
walk 6180
explained 6177
1902 6176
ris 6175
respect 6173
Round 6172
cards 6169
Met@@ 6165
restaurant 6165
Sab@@ 6162
Schools 6162
cited 6162
AM@@ 6157
parliament 6156
justice 6154
prime 6149
son@@ 6149
dia 6147
returns 6145
talk 6145
chi 6144
che@@ 6142
context 6141
Eric 6136
pattern 6133
wear 6132
nations 6130
electoral 6129
ands 6128
heritage 6127
Nazi 6125
Upper 6123
pen@@ 6123
ising 6122
roll 6122
assembly 6121
poverty 6121
Singh 6120
Alan 6118
prisoners 6118
Sarah 6115
assistance 6115
leg@@ 6115
D.C. 6113
vol@@ 6113
edited 6111
teachers 6111
Liverpool 6109
82 6107
Kor@@ 6107
devices 6107
bal@@ 6106
Commander 6104
Cra@@ 6103
Through 6101
89 6100
neur@@ 6099
Vienna 6098
Disney 6095
Front 6095
breaking 6093
changing 6092
drop 6092
ensis 6092
Gil@@ 6087
plus 6085
Transport 6080
differences 6077
esh@@ 6070
description 6069
Culture 6067
alists 6067
Med@@ 6063
rig@@ 6063
universities 6063
lig@@ 6060
Pu@@ 6056
73 6053
forests 6051
innings 6050
oo 6050
OS 6049
window 6048
je 6044
stream 6042
pool 6041
replacement 6040
Track 6037
Gulf 6036
Officer 6036
Orchestra 6036
appointment 6034
credit 6033
loc@@ 6025
novels 6025
victims 6023
garden 6020
Pa@@ 6019
Dean 6017
Crown 6011
lock 6010
Wood 6009
parliamentary 6007
entering 6006
labor 6005
classic 6004
dae 6003
childhood 6002
grown 6000
Bab@@ 5999
sting 5995
Grant 5993
Ni@@ 5993
hat@@ 5993
ements 5989
markets 5989
Cathedral 5987
mounted 5987
LA 5986
Kat@@ 5983
Ball@@ 5981
evening 5981
ST@@ 5979
Meanwhile 5976
Kennedy 5974
tail 5974
fly 5973
brain 5972
capable 5972
listing 5971
scheme 5968
equipped 5966
Chart 5964
medieval 5964
10.@@ 5959
Boys 5959
Player 5959
parallel 5959
soil 5959
Basketball 5958
Alliance 5957
Ross 5957
guitarist 5952
depth 5949
safe 5948
1920s 5945
branches 5944
Rio 5940
10,000 5939
AN@@ 5938
Ann@@ 5937
elle 5937
grow 5937
Lor@@ 5935
Camp 5934
NBA 5932
replacing 5932
my@@ 5929
temporary 5929
ced 5928
ō@@ 5922
UN@@ 5920
eyes 5920
Review 5918
controversy 5915
requirements 5915
Birmingham 5914
spoken 5914
but@@ 5913
translation 5911
components 5907
Tom@@ 5905
coverage 5903
Your 5900
solution 5900
Conservative 5899
Rock@@ 5898
drawing 5898
ota 5896
Nag@@ 5895
hot 5895
threat 5895
TA 5892
offering 5892
01 5888
appeal 5888
fishing 5887
medals 5884
Carl 5883
Kelly 5881
ulate 5881
Kevin 5880
ean 5878
Baltimore 5877
Cer@@ 5877
downtown 5877
finding 5874
Agency 5872
Lower 5871
SE@@ 5870
critic 5868
Jordan 5866
Garden 5865
Hills 5863
Ry@@ 5861
facing 5860
wooden 5859
Athletic 5858
cy 5858
Trans@@ 5857
squadron 5857
Pittsburgh 5855
ă@@ 5855
debate 5853
opinion 5852
Arkansas 5851
studying 5851
slow 5850
itt@@ 5848
oid 5841
instance 5840
soccer 5836
cia 5835
struck 5835
vessels 5835
artistic 5833
Ltd 5830
ram@@ 5829
&apos;m 5828
Donald 5828
Fu@@ 5828
filmed 5827
Energy 5826
task 5822
Dem@@ 5820
declined 5820
ny 5819
Thompson 5818
PS 5814
are@@ 5814
Trump 5813
50@@ 5809
Jane 5808
itive 5808
ished 5806
threatened 5806
approval 5804
fac@@ 5803
broad 5802
powered 5800
processes 5799
Morgan 5798
Heart 5797
picture 5797
railroad 5797
uk 5797
Campbell 5796
Metro 5796
boundary 5796
friendly 5795
dam 5794
nomination 5793
Oc@@ 5788
AA 5787
element 5787
celebrated 5786
Opera 5784
1898 5783
losses 5783
denied 5779
proposal 5777
dog 5770
modified 5768
raise 5768
Voivodeship 5765
11th 5763
ida 5762
increasingly 5762
driven 5761
AP@@ 5757
Russell 5757
Sim@@ 5756
Cos@@ 5755
burn 5753
manufacturing 5752
voting 5750
Convention 5749
á 5748
eighth 5745
influential 5745
km2 5744
Here 5742
Test 5742
hair 5742
requires 5739
ented 5738
treated 5737
frequency 5735
skin 5735
tank 5735
Che@@ 5732
existed 5731
Pin@@ 5730
ately 5728
ei 5728
wine 5728
Murray 5727
ag 5727
ce@@ 5725
ust 5722
lasted 5719
feel 5718
ops 5718
v. 5714
Training 5713
pres@@ 5710
experiences 5709
Daily 5708
bility 5708
competing 5707
considerable 5707
instruments 5707
Information 5706
Rob@@ 5706
Roger 5706
Lane 5705
ison 5704
bert 5701
aria 5699
handed 5697
dig@@ 5696
Ker@@ 5695
Nelson 5695
End 5694
annually 5694
oral 5694
carbon 5693
outs 5693
Stewart 5691
NBC 5690
emergency 5690
Kent 5689
reputation 5689
Hom@@ 5685
sor@@ 5685
Arm@@ 5684
gun@@ 5684
vin@@ 5684
Orthodox 5683
Dan 5682
oms 5682
oy 5682
esh 5678
Kin@@ 5674
web 5674
fur@@ 5672
surrounded 5670
Tal@@ 5668
landing 5663
Haw@@ 5661
Ren@@ 5661
Girls 5660
message 5658
Bangladesh 5656
Bou@@ 5656
strategy 5655
achieve 5654
closure 5654
lane 5652
lat@@ 5652
questions 5650
Dallas 5648
Our 5646
sie 5643
suspended 5643
Peace 5641
papers 5640
hum@@ 5639
sli@@ 5638
Finland 5637
genre 5637
executed 5634
Authority 5633
ref@@ 5633
proper 5632
progress 5630
Hay@@ 5626
let@@ 5625
stat@@ 5625
Brothers 5624
1899 5623
BA 5622
involvement 5621
Austin 5620
All@@ 5619
portrayed 5619
sec@@ 5618
Wood@@ 5615
limit 5615
Franklin 5614
mut@@ 5614
strongly 5614
log@@ 5613
Around 5607
affairs 5607
collections 5607
colour 5607
uted 5605
visitors 5603
concrete 5601
artillery 5599
helping 5599
somewhat 5599
ort 5597
rounds 5597
secure 5597
vessel 5597
ori 5595
Alex 5592
F.C. 5590
completion 5590
meets 5590
indicated 5588
zz@@ 5586
09 5584
Medicine 5581
amateur 5580
charts 5580
mu@@ 5580
mod@@ 5578
Romania 5577
adaptation 5576
ulation 5573
AI@@ 5571
constant 5570
Pierre 5569
kar@@ 5566
Ten 5564
count 5564
movements 5563
tory 5562
itor 5561
Princess 5558
penalty 5557
Stanley 5555
preserved 5555
sions 5552
Originally 5551
drew 5549
survey 5549
fund 5547
championships 5546
CS@@ 5545
cs 5545
Fri@@ 5544
Ur@@ 5544
etta 5544
Real 5543
bo 5543
recordings 5543
Robinson 5542
touchdown 5542
AP 5541
Dance 5541
Senator 5541
Bruce 5540
favor 5540
Taiwan 5539
08 5538
expedition 5538
Mission 5537
Express 5535
huge 5535
funded 5529
Six 5528
sponsored 5527
owed 5526
grant 5519
CE@@ 5518
sy 5517
ú@@ 5517
dies 5516
soundtrack 5516
Dave 5514
enn@@ 5513
Trade 5512
Wright 5509
stic 5508
1890 5507
Ki@@ 5507
accounts 5503
&apos;re 5502
Baron 5502
han@@ 5501
CBS 5500
Unlike 5500
alleged 5500
elled 5500
ax 5496
distinguished 5495
Ga@@ 5493
V. 5491
ania 5490
Marshall 5489
deaths 5488
option 5488
rival 5488
Utah 5487
ulated 5487
uncle 5485
elevation 5483
ush 5480
populations 5477
decline 5476
eleven 5475
kers 5474
Way 5473
conf@@ 5473
Son@@ 5471
representation 5470
vel@@ 5469
eliminated 5468
Racing 5467
sees 5465
lec@@ 5462
surviving 5462
Lam@@ 5460
Adams 5459
ams 5458
cop@@ 5458
signs 5458
thirty 5458
í 5458
Belgian 5457
camera 5457
ide 5457
Critical 5456
definition 5456
Spring 5454
tered 5454
Organization 5453
Pap@@ 5452
junction 5452
gre@@ 5450
donated 5449
lia 5449
Christopher 5447
250 5446
zi@@ 5446
Economic 5444
Ok@@ 5443
Vel@@ 5443
Cab@@ 5442
cm 5441
dist@@ 5441
counties 5440
songwriter 5438
umb@@ 5436
ush@@ 5434
ika 5430
participation 5429
App@@ 5427
Camp@@ 5427
affiliated 5427
ved 5426
suit 5423
tic@@ 5422
Within 5421
oun@@ 5421
Brooklyn 5418
consider 5417
lo 5417
mountains 5416
arrest 5415
effectively 5414
Sound 5413
pped 5413
Ty@@ 5412
organised 5412
Na@@ 5410
classification 5410
illegal 5410
eng 5409
Spec@@ 5408
Carter 5406
doubles 5405
wa@@ 5404
Ste@@ 5402
Silver 5401
Just 5399
ready 5399
Ann 5394
ris@@ 5394
Victorian 5393
Nick 5390
Movement 5389
una 5389
Who 5383
themes 5383
izing 5380
grand 5376
05 5373
radi@@ 5373
Graham 5372
directors 5371
tons 5371
Norman 5369
pat@@ 5369
Instead 5368
contested 5368
Treaty 5366
UEFA 5365
1896 5363
benefit 5362
jobs 5360
load 5359
Portland 5358
ws 5358
relief 5357
lets 5356
widespread 5356
lieutenant 5355
emerged 5354
attributed 5353
organ 5353
oning 5350
itors 5349
Der@@ 5348
act@@ 5346
infrastructure 5344
tical 5343
discovery 5342
rh@@ 5342
Go 5341
cent 5341
wal@@ 5341
shares 5340
manner 5339
Rep@@ 5338
controversial 5336
tal@@ 5336
Bachelor 5335
Place 5335
Ah@@ 5334
happened 5333
Theater 5328
FIFA 5327
oth 5326
pick 5326
printed 5326
eling 5325
output 5324
sy@@ 5323
fer 5322
Jimmy 5320
Out@@ 5320
Wor@@ 5319
Victor 5318
Alfred 5314
Hi@@ 5312
Tel@@ 5311
conduct 5311
1897 5308
ham@@ 5307
5,@@ 5305
departure 5305
pping 5304
wheel 5304
recommended 5303
depending 5302
shore 5302
speak 5302
ū@@ 5302
Arch@@ 5300
occasionally 5300
spoke 5297
Trophy 5296
Tim 5295
pe 5294
tall 5294
Staff 5290
Sin@@ 5289
wild 5288
sign@@ 5284
Tower 5281
continuing 5281
Tim@@ 5280
tests 5280
Cultural 5279
circuit 5278
cos@@ 5277
rivers 5277
tes 5275
Carlos 5273
stable 5273
suicide 5271
agriculture 5270
couples 5269
runner 5268
Muhammad 5267
Thailand 5267
employment 5267
ø@@ 5267
1895 5266
demolished 5266
characteristics 5265
Mun@@ 5264
Shar@@ 5264
visiting 5264
dominated 5263
Egyptian 5260
si 5260
fruit 5258
minimum 5257
Leg@@ 5255
fit 5255
protest 5254
domain 5252
God@@ 5251
NHL 5250
ination 5246
Bad@@ 5245
gone 5245
landscape 5245
newspapers 5245
ear 5244
attracted 5243
ii 5243
videos 5243
Ky@@ 5241
itation 5240
meetings 5234
seed 5234
uch@@ 5232
Mand@@ 5231
posted 5231
solid 5230
whereas 5229
Serbian 5228
Tan@@ 5226
counter@@ 5226
Draft 5225
describe 5225
Shortly 5222
designer 5220
roots 5220
steam 5219
anything 5218
das 5218
bel@@ 5217
youngest 5217
tribe 5216
AL@@ 5214
olog@@ 5214
Mol@@ 5213
resolution 5213
Dam@@ 5212
Gran@@ 5209
Fair@@ 5207
Iron 5207
ction 5207
feed 5207
Wrestling 5206
channels 5205
Arabic 5204
ices 5203
journey 5201
ty@@ 5201
Matt 5200
whilst 5200
Fleet 5199
eda 5199
blocks 5198
don@@ 5198
venue 5197
1000 5196
Glasgow 5195
Girl 5194
ils 5194
traveled 5194
Romanian 5193
cold 5193
processing 5193
Judge 5192
chapel 5191
massive 5191
Richmond 5190
learn 5188
4.@@ 5187
ases 5187
bing 5187
kh@@ 5187
Further 5186
viewed 5185
Lov@@ 5184
satellite 5184
Defence 5183
mot@@ 5183
patient 5183
underground 5182
ander 5180
ez 5180
bers 5179
cousin 5178
Capital 5177
injuries 5177
chapter 5176
assault 5174
faith 5174
entertainment 5173
architectural 5172
trading 5171
Moon 5170
surgery 5170
versus 5170
RE@@ 5169
longest 5167
cin@@ 5166
ope 5166
platforms 5166
column 5165
FI@@ 5164
adi 5164
align 5164
Champion 5160
maintenance 5159
Windows 5157
remainder 5156
tools 5155
Limited 5154
accept 5154
1893 5153
CH@@ 5153
Benjamin 5152
mode 5151
aceae 5150
tre@@ 5149
Canal 5148
Prot@@ 5148
LP 5147
associate 5147
wings 5146
Afghanistan 5143
erected 5142
Jerusalem 5138
Serbia 5138
Sat@@ 5135
sentenced 5133
Boy 5132
belonging 5132
generated 5131
ras 5130
Lev@@ 5129
moment 5127
representatives 5127
07 5125
doctor 5125
motor 5124
missed 5122
Billy 5121
ruling 5121
Knight 5119
protests 5119
grave 5118
occasions 5117
lan@@ 5116
turning 5115
hundreds 5111
endemic 5110
ification 5110
Base 5107
Air@@ 5106
Gary 5104
document 5104
infantry 5103
shi@@ 5099
inch 5097
enh@@ 5095
keeping 5091
owing 5091
writes 5091
eth 5088
anth@@ 5087
hearing 5087
Maine 5085
everything 5083
phot@@ 5083
Mid@@ 5081
21st 5079
Roy 5079
ert 5079
agents 5078
centers 5078
scope 5078
ori@@ 5075
1889 5071
Sil@@ 5071
ree 5071
vocal 5071
Cricket 5070
ump@@ 5070
cancelled 5069
easy 5069
Distribution 5067
terminal 5065
rapidly 5064
diameter 5063
transition 5059
Historical 5058
integrated 5058
ira 5058
ks@@ 5057
Res@@ 5055
competitive 5054
suffering 5052
tenure 5052
Will 5050
counter 5050
encouraged 5049
Indians 5048
defence 5044
17@@ 5041
1894 5041
aker 5041
colspan 5041
les@@ 5041
watch 5041
Bas@@ 5040
Pres@@ 5039
concerned 5039
begun 5037
gers 5037
colony 5035
rat@@ 5034
Bush 5033
stroke 5033
producers 5032
Kir@@ 5031
transportation 5031
1892 5028
Nigeria 5028
bid 5028
governments 5028
Tru@@ 5027
Germans 5026
supplies 5025
regime 5024
aur@@ 5023
claiming 5023
Mediterranean 5022
Bell@@ 5021
South@@ 5021
Hampshire 5020
Seven 5019
defending 5015
doors 5015
bel 5013
bin 5012
Not@@ 5011
knew 5011
agencies 5009
aga 5006
grandfather 5002
Morris 5001
reportedly 5000
vis@@ 5000
1885 4999
periods 4997
Las 4996
ood 4996
exists 4992
marketing 4992
schedule 4990
Islam 4985
Matthew 4985
ratio 4984
by@@ 4983
descent 4982
Note 4981
Hur@@ 4980
ills 4979
Jam@@ 4978
N. 4978
elec@@ 4977
gan 4976
1891 4975
Ven@@ 4975
concern 4975
Chile 4974
memorial 4974
ni 4974
greatly 4973
steps 4973
Hispanic 4967
ix 4967
ud 4967
Fund 4966
Up@@ 4966
Last 4965
crowd 4965
iny 4965
kg 4965
assist 4964
cu@@ 4964
send 4964
short@@ 4964
thousand 4964
Madrid 4961
absence 4961
tell 4961
Kr@@ 4959
aks 4957
Municipality 4956
normally 4956
sentence 4956
categories 4955
relationships 4951
Bristol 4950
Finnish 4950
Stra@@ 4949
ig 4948
Natural 4947
supports 4947
CP@@ 4946
ologists 4946
EU 4945
jo@@ 4943
releases 4943
Ran@@ 4942
ua 4942
Delhi 4940
afterwards 4940
lap 4940
oe 4938
aire 4937
license 4937
Books 4936
athletes 4936
tional 4936
Ward 4935
ques 4935
supporters 4935
indigenous 4934
isation 4934
cabinet 4933
possession 4933
horses 4931
ranks 4931
Lanka 4930
characterized 4929
path@@ 4927
yr@@ 4927
gen 4926
inaugural 4926
É@@ 4926
Arena 4925
Maj@@ 4925
marks 4925
1888 4924
Johnny 4921
ple@@ 4921
Fr@@ 4920
6.@@ 4918
conservative 4917
audio 4915
lers 4915
Kil@@ 4911
ninth 4910
Back 4908
tar@@ 4908
Sem@@ 4907
Orleans 4906
Yorkshire 4906
Sor@@ 4905
concerts 4904
stor@@ 4904
Jan 4903
unusual 4903
participants 4901
CC 4899
RO@@ 4899
creative 4899
ride 4899
Wayne 4898
spending 4897
RC 4896
frequent 4896
06 4895
aqu@@ 4893
behalf 4893
seeking 4893
abroad 4892
resident 4892
Mitchell 4891
itz 4891
gradually 4890
avi@@ 4889
ense 4888
Until 4886
ship@@ 4886
Honours 4885
Sum@@ 4880
aro 4879
rows 4879
cro@@ 4876
honour 4876
profile 4876
art@@ 4875
ening 4874
obtain 4874
percentage 4874
aimed 4871
igh@@ 4871
zi 4868
04 4867
Ken@@ 4867
Rico 4867
any@@ 4867
researchers 4865
Ir@@ 4864
NS@@ 4864
styles 4864
picked 4863
Nicholas 4859
Zone 4858
aine 4856
relocated 4855
Greater 4854
shell 4854
ico 4853
bat@@ 4852
the@@ 4852
immediate 4850
advertising 4849
aw 4847
pra@@ 4847
Farm 4845
deployed 4845
earning 4844
fitted 4844
makeup 4844
ew@@ 4842
recovered 4842
sum 4842
Evans 4840
amongst 4839
commanded 4839
scholar 4838
ours 4837
segment 4837
Late 4834
panel 4834
produces 4832
statue 4829
vic@@ 4828
Alice 4827
seek 4827
Part 4826
publicly 4824
ther 4824
ridge 4823
rit@@ 4823
toured 4823
Pos@@ 4822
poems 4822
Transportation 4821
constitution 4821
ees 4821
exception 4821
fied 4820
SC@@ 4817
Work 4816
networks 4816
string 4815
lam@@ 4814
legs 4814
Kl@@ 4812
rebuilt 4812
territories 4811
compilation 4810
genetic 4810
ify 4810
bone 4809
Songs 4808
borders 4806
Nam@@ 4804
Charlie 4803
Jason 4803
Labor 4803
asing 4803
restoration 4803
star@@ 4801
Category 4800
mag@@ 4800
Fellow 4798
attending 4797
transmission 4797
sen@@ 4796
ée 4796
Beijing 4795
Pan 4795
dor@@ 4794
instrumental 4794
rain 4794
asa 4793
apparently 4792
cable 4791
symbol 4791
UN 4789
opportunities 4789
add 4788
ceased 4788
kl@@ 4788
component 4786
Sl@@ 4784
Vancouver 4783
Warner 4782
licensed 4782
onlyinclude 4782
CE 4781
ER@@ 4781
Jar@@ 4781
tom@@ 4781
rescue 4780
ased 4778
viewers 4778
pole 4775
1865 4774
abuse 4774
dual 4774
Members 4773
fair 4773
spiritual 4773
intersection 4771
identify 4769
ner@@ 4768
rapid 4767
rop@@ 4766
quar@@ 4762
cau@@ 4761
uz@@ 4761
2,000 4759
Andy 4759
Warren 4759
mel@@ 4759
significance 4757
substantial 4757
thesis 4756
asp@@ 4755
ball@@ 4755
oli 4754
band@@ 4752
Ul@@ 4750
convention 4750
Dr@@ 4748
Kol@@ 4745
voters 4745
Liga 4743
businessman 4742
assi@@ 4741
soci@@ 4741
Lim@@ 4740
apart 4740
legislative 4739
monument 4739
craft 4736
extent 4736
secured 4736
exposed 4733
perfect 4731
plate 4731
corporate 4729
S.@@ 4728
contribution 4728
submarine 4728
Milan 4727
Harrison 4726
Rom@@ 4726
IS 4723
Jeff 4722
assisted 4720
possibility 4720
1880 4719
Orange 4719
aver@@ 4719
boo@@ 4718
suitable 4718
wedding 4718
1870 4717
Challenge 4717
premiere 4717
mate 4716
beach 4715
operational 4715
Throughout 4714
Persian 4712
Bible 4711
duo 4711
gay 4711
une 4711
ask@@ 4710
kingdom 4710
yo 4707
ums 4706
Bak@@ 4705
sole 4705
Digital 4704
1861 4702
Gol@@ 4701
Lou@@ 4697
understand 4697
foot@@ 4695
enjoyed 4692
Stars 4689
adults 4687
detailed 4687
Fred 4686
customers 4685
rick 4685
700 4684
Hum@@ 4684
movies 4684
× 4684
establishing 4683
otic 4683
commented 4682
lan 4681
indicate 4680
ev 4678
everyone 4677
volumes 4675
balance 4674
Along 4673
Gold@@ 4673
Hawaii 4673
external 4673
none 4672
Ny@@ 4671
Results 4670
1940s 4668
implemented 4667
02 4666
Caribbean 4666
file 4666
publisher 4666
revenue 4666
Karl 4664
fled 4664
rap@@ 4664
Having 4661
animated 4661
az 4661
enters 4660
extreme 4657
Commissioner 4655
YouTube 4655
spar@@ 4655
tha 4655
utes 4655
bay 4654
Under@@ 4653
Som@@ 4652
ben@@ 4652
statistics 4652
coalition 4648
Hindu 4646
nearest 4645
6,@@ 4642
pm 4642
Pot@@ 4641
attorney 4640
CS 4638
eligible 4638
closing 4636
ille 4636
née 4636
responded 4636
Ara@@ 4634
Market 4634
width 4632
continuous 4630
rev@@ 4630
ender 4629
Count 4628
Diocese 4628
acres 4628
1.5 4626
eland 4626
mil@@ 4626
principles 4626
DA 4625
drafted 4624
wick 4624
1862 4623
insurance 4621
5.@@ 4620
looked 4620
1887 4618
broadcasting 4618
iro 4617
ken 4617
Friday 4616
partially 4616
qualify 4616
Bow@@ 4615
Bag@@ 4613
Section 4613
Sen@@ 4613
op 4612
benefits 4611
1864 4610
rich@@ 4610
Mik@@ 4609
ord 4609
Dou@@ 4608
assets 4608
jury 4608
numbered 4608
ols 4608
outbreak 4606
aim 4605
aming 4605
Iranian 4604
beautiful 4604
struggle 4604
Hen@@ 4603
activist 4603
buy 4602
ining 4602
oni 4602
violent 4601
Initially 4597
Baker 4596
SO@@ 4596
Soon 4596
Long@@ 4595
rat 4594
experimental 4593
Mis@@ 4592
hat 4591
leaf 4591
oda 4589
Charlotte 4588
scientists 4587
belonged 4585
ont@@ 4585
Communications 4584
substitute 4584
concentration 4582
chamber 4581
lights 4581
Manhattan 4580
Sun@@ 4580
texts 4580
Admiral 4578
fighter 4578
Alberta 4577
lic 4576
low@@ 4575
− 4575
belief 4574
zu@@ 4574
1881 4573
apartment 4573
palace 4573
partly 4572
restricted 4572
swimming 4572
Falls 4571
spaces 4570
Tigers 4569
Story 4568
ight 4568
McC@@ 4565
East@@ 4564
Sah@@ 4564
crossed 4564
physics 4564
som@@ 4564
enberg 4561
honorary 4560
Together 4559
abilities 4559
mul@@ 4557
Ari@@ 4556
disc 4556
Mot@@ 4555
swe@@ 4554
merchant 4553
connecting 4551
productions 4551
VI 4548
Municipal 4547
zo@@ 4546
Branch 4545
Soccer 4545
personality 4545
subsidiary 4545
rising 4544
AT 4543
Freedom 4543
120 4542
1886 4542
civilian 4542
Rangers 4541
atively 4541
drugs 4539
electricity 4538
Str@@ 4537
tab@@ 4537
useful 4537
12.@@ 4536
Common 4536
advice 4536
ified 4536
mathematics 4536
spirit 4536
destruction 4535
municipalities 4535
discussed 4534
cemetery 4533
opponents 4533
outer 4532
seeing 4532
zer 4531
she@@ 4529
conventional 4528
linear 4528
tend 4528
Code 4527
Bah@@ 4526
scholarship 4524
fee 4523
instrument 4523
ros 4523
Syria 4522
conservation 4522
lose 4520
immigrants 4519
relation 4519
1863 4518
displayed 4518
Philippine 4516
accessible 4515
sters 4514
Wars 4513
Aqu@@ 4512
arian 4512
ros@@ 4512
Cooper 4511
judges 4510
asts 4509
vs. 4509
squ@@ 4508
locally 4507
false 4505
fu@@ 4505
Fine 4504
Studio 4504
ME@@ 4499
throne 4499
&apos;ve 4498
Type 4498
ele 4498
ranging 4498
CI@@ 4497
Ev@@ 4497
aer@@ 4497
eo 4497
Muslims 4496
Wi@@ 4496
coaching 4494
settlers 4493
ashi 4492
neither 4488
faces 4483
sa@@ 4483
Bh@@ 4482
Trinity 4482
ans@@ 4482
Legacy 4481
bi 4481
med@@ 4481
lined 4480
withdrew 4480
dismissed 4479
11.@@ 4478
expensive 4478
Armenian 4477
ect 4477
terminus 4477
RAF 4476
aking 4475
provinces 4474
Barry 4473
Standard 4473
Est@@ 4471
solar 4470
wrestling 4470
lying 4468
playoffs 4467
initiated 4465
ongoing 4465
Be 4464
Universal 4464
matters 4463
repair 4463
retail 4463
asks 4462
crash 4462
Sport 4460
Moh@@ 4459
IT@@ 4458
Broadcasting 4457
Ian 4457
apply 4456
eless 4455
requested 4454
Nova 4453
cks 4453
Bar 4451
telling 4450
Cuba 4449
initiative 4448
diverse 4447
fictional 4447
cli@@ 4446
Jonathan 4445
Parker 4445
lowest 4445
suburb 4444
ren 4442
unsuccessful 4442
eri@@ 4440
cup 4439
oth@@ 4439
tribes 4439
wants 4438
Mir@@ 4437
flower 4437
men@@ 4435
tion@@ 4435
passage 4434
treaty 4434
guilty 4433
touring 4433
ria 4432
Att@@ 4431
Video 4430
clinical 4430
Kings 4429
illness 4429
modern@@ 4429
Ten@@ 4428
far@@ 4428
sang 4428
illi@@ 4427
metre 4427
Gmina 4426
Vic@@ 4425
completing 4425
dispute 4423
respective 4422
ez@@ 4421
Gh@@ 4420
ett@@ 4420
1884 4419
Deb@@ 4419
banned 4419
earth 4419
Adelaide 4417
Years 4417
aus@@ 4416
alis 4415
03 4413
Hudson 4411
appropriate 4411
domin@@ 4408
electrical 4407
Nat@@ 4406
IC 4404
ott@@ 4404
cru@@ 4403
ave 4401
cargo 4401
trac@@ 4399
essential 4397
50,000 4394
Socialist 4394
Ang@@ 4393
charity 4393
farmers 4393
sculpture 4393
ues 4393
hole 4392
rob@@ 4391
vor@@ 4391
Guinea 4389
Munich 4388
anyone 4388
qualification 4386
Turner 4383
minority 4383
ack@@ 4382
wel@@ 4382
lar@@ 4381
mal 4381
Abbey 4380
Clinton 4380
Meg@@ 4378
talent 4378
editions 4377
ive 4376
margin 4376
merger 4376
regulations 4375
partners 4374
NY 4373
TC 4373
CC@@ 4372
cla@@ 4372
Virgin 4371
Food 4370
IP 4370
pitch 4368
ž@@ 4368
2000s 4367
ović 4367
ui 4367
Furthermore 4366
arch 4366
emperor 4365
1882 4364
alia 4364
credits 4364
Brisbane 4361
lab@@ 4361
wan 4361
Allied 4359
Parish 4359
Saints 4359
Jay 4356
Technical 4355
Buffalo 4354
Grade 4354
sailed 4354
Action 4353
Fur@@ 4351
Fal@@ 4350
Wall 4350
Jacob 4349
Saudi 4349
honors 4349
weekend 4349
Mill@@ 4348
Gri@@ 4347
dominant 4347
arrangement 4346
dis 4346
Classic 4344
crown 4344
ographic 4341
soft 4341
trials 4341
Hunter 4340
shire 4340
vely 4340
EC 4339
ress 4338
Bir@@ 4337
copy 4335
decisions 4335
aging 4334
occasion 4333
Nik@@ 4332
sessions 4330
Gam@@ 4328
doesn 4328
colors 4327
Oblast 4325
int 4325
exclusively 4324
yst@@ 4324
King@@ 4323
cinema 4323
dge 4323
remove 4323
NE@@ 4322
dep@@ 4322
ju@@ 4322
Barbara 4321
PhD 4321
Industry 4320
Therefore 4320
ayan 4320
closer 4320
activated 4319
Tech 4318
Century 4317
alliance 4316
crimes 4316
utions 4316
Attorney 4315
Catherine 4315
Urban 4314
choose 4312
isolated 4312
moves 4312
But@@ 4310
Masters 4310
ska 4310
conversion 4309
Pel@@ 4308
iy@@ 4306
traded 4305
focuses 4304
Sec@@ 4303
Territory 4303
pursue 4303
conclusion 4298
hop 4298
play@@ 4298
Control 4297
Sky 4297
grey 4297
ş@@ 4297
Water@@ 4296
anger 4295
falling 4295
Buddhist 4294
Anglo 4293
negotiations 4293
IR@@ 4292
eldest 4292
ick@@ 4292
MC 4291
Thi@@ 4291
ott 4291
Dark 4289
Faculty 4289
wearing 4289
principle 4288
Such 4287
edi@@ 4286
hunting 4286
parent 4286
strategic 4286
eds 4285
Bengal 4284
Mrs. 4282
Sak@@ 4281
limits 4281
shift 4280
connections 4279
iness 4279
therapy 4278
Peninsula 4277
Woman 4275
communications 4275
recognised 4274
fifteen 4272
Language 4270
ral 4270
ín 4270
Ca@@ 4268
atus 4267
arm@@ 4266
akes 4265
Unit 4262
timber 4262
zy@@ 4262
mechanical 4261
Race 4260
vary 4259
à 4259
Cincinnati 4257
Ep@@ 4257
raising 4257
Um@@ 4256
conv@@ 4256
Nation 4254
submitted 4254
hope 4253
Alaska 4252
grows 4251
internationally 4250
organic 4250
Peru 4249
assists 4249
40@@ 4247
patterns 4247
sisters 4245
evolution 4243
jurisdiction 4243
Loc@@ 4242
dro@@ 4242
van@@ 4242
cash 4241
sufficient 4241
Cop@@ 4240
ng 4239
hol@@ 4238
manufactured 4238
rist@@ 4238
Gur@@ 4237
clothing 4237
vers@@ 4237
BS 4233
Microsoft 4233
angle 4233
circumstances 4233
ī@@ 4233
Conservation 4232
Mari@@ 4232
Dakota 4231
Springs 4231
pain 4231
ton@@ 4231
traditions 4231
mo 4230
Do 4229
Les 4228
alb@@ 4227
repeated 4227
Arg@@ 4225
apparent 4223
1876 4222
ost 4222
decides 4219
housed 4219
Pradesh 4217
alised 4217
ero 4217
iled 4217
itic 4217
operator 4216
travelled 4216
Model 4215
ests 4215
reviewed 4215
Cook 4214
DE@@ 4214
drummer 4214
influences 4214
beating 4213
Bran@@ 4211
pointed 4211
ink 4210
Down 4208
Hugh 4208
references 4208
Assistant 4206
Ice 4205
bas@@ 4205
marry 4205
ode 4203
reduction 4202
Green@@ 4201
drums 4201
monastery 4201
else 4200
tunnel 4200
soldier 4199
ów 4199
dian 4198
mention 4198
gan@@ 4195
resignation 4195
Mark@@ 4194
ains 4194
desire 4194
reveals 4194
mechanism 4193
intention 4191
Dol@@ 4190
Shah 4190
drivers 4190
fil@@ 4190
zero 4189
battalion 4187
Vincent 4186
Collins 4185
Pad@@ 4184
Kra@@ 4183
2.5 4181
Democrat 4179
Luis 4179
Will@@ 4179
Trail 4178
suggest 4178
etti 4177
cal 4176
tel 4176
Wild 4175
Bos@@ 4174
boundaries 4174
mix 4173
IT 4172
Pon@@ 4172
Baptist 4170
clearly 4169
tested 4169
1878 4168
sized 4167
1883 4165
Latino 4165
Wa@@ 4165
AD@@ 4164
Students 4164
Tw@@ 4163
ager 4163
delivery 4163
relevant 4163
venture 4163
ete 4162
temperatures 4162
Barcelona 4161
Oliver 4161
exhibited 4160
warm 4157
ler@@ 4156
fill 4153
Pictures 4151
involves 4151
uma 4151
Apple 4150
Current 4147
jan 4147
ST 4145
tone 4145
acquisition 4144
riding 4144
1871 4143
How 4142
tra 4142
Lloyd 4141
locomotives 4141
Nevada 4140
indicates 4140
convicted 4138
originated 4138
Pic@@ 4137
Hans 4136
MP@@ 4136
Nak@@ 4136
festivals 4134
fri@@ 4134
ı@@ 4134
Sn@@ 4133
manufacturer 4133
pay@@ 4132
promoting 4132
photography 4130
oa 4129
overseas 4125
Jazz 4124
eu@@ 4124
flights 4124
campaigns 4123
odi@@ 4123
100,000 4121
defended 4120
Colombia 4119
sun 4119
settlements 4118
Players 4117
stones 4116
thereafter 4116
tics 4115
Father 4114
Leeds 4113
survive 4112
topics 4112
romantic 4111
demonstrated 4109
layer 4109
Democrats 4108
ais 4107
discussion 4107
Jr. 4106
Wing 4106
Nepal 4105
Mit@@ 4103
rell 4103
cattle 4100
prec@@ 4098
ñ@@ 4098
Roberts 4097
gener@@ 4097
entary 4096
nec@@ 4096
deemed 4094
ank 4093
truth 4093
bles 4090
hyper@@ 4090
yi 4090
vest@@ 4087
Phoenix 4086
Christianity 4085
bomb 4085
shall 4085
stress 4085
sum@@ 4085
Top@@ 4083
Cul@@ 4082
Phil 4082
buses 4081
ann 4078
increases 4078
landed 4078
vertical 4076
Industrial 4075
Lau@@ 4075
electro@@ 4075
permission 4075
usual 4075
onian 4074
traditionally 4074
Dead 4073
boards 4073
cou@@ 4072
magazines 4072
mail 4071
past@@ 4070
Rev@@ 4069
CD@@ 4068
Let 4068
ingham 4067
rice 4064
nor@@ 4063
opponent 4063
expand 4062
Hun@@ 4061
bon@@ 4061
fear 4061
medi@@ 4061
origins 4061
twin 4061
patri@@ 4059
Ali@@ 4058
Wall@@ 4057
dependent 4057
debt 4055
ency 4055
eted 4055
Bla@@ 4054
Borough 4054
Jud@@ 4054
encing 4054
roster 4054
sch@@ 4054
compiled 4053
cour@@ 4053
giant 4053
The@@ 4052
wealth 4052
Those 4049
aj 4049
battery 4049
Herbert 4048
enrolled 4048
industries 4047
ading 4046
certified 4046
forcing 4045
1860 4043
ril@@ 4043
lift 4042
Fran@@ 4041
7,@@ 4040
Bernard 4040
Pop@@ 4040
Syn@@ 4040
Gy@@ 4039
teen 4039
bow 4037
Sad@@ 4036
circle 4035
ić 4035
lim@@ 4035
participating 4034
Fair 4033
Operations 4033
flu@@ 4033
contra@@ 4032
funeral 4032
departed 4031
machines 4030
eton 4029
photographs 4028
orchestra 4027
biological 4026
eggs 4025
shoot 4025
wealthy 4025
breeding 4023
extensively 4023
Cav@@ 4021
Azerbaijan 4017
DS 4017
black@@ 4017
nes 4017
1872 4014
vast 4014
Den@@ 4013
managing 4013
Tran@@ 4012
earn 4012
Cour@@ 4011
Madison 4011
enting 4011
cel@@ 4010
Rub@@ 4008
anga 4008
conver@@ 4008
1867 4006
Circuit 4005
canal 4005
playoff 4004
Finally 4003
Nebraska 4003
Non 4003
rarely 4003
eral 4002
cian 4000
win@@ 4000
30@@ 3999
aboard 3999
resumed 3999
cle@@ 3998
dy@@ 3998
Hebrew 3997
midfielder 3996
Py@@ 3995
finance 3995
unlike 3994
Gray 3993
decorated 3992
net@@ 3992
exposure 3990
NA 3989
run@@ 3989
sul@@ 3988
Hope 3987
Electric 3986
Much 3986
constitutional 3986
pages 3986
supposed 3986
interpretation 3985
walking 3985
Archbishop 3984
Side 3984
Symphony 3983
ential 3980
strip 3979
tanks 3979
Giants 3978
Wang 3978
ais@@ 3978
yed 3978
Formula 3976
delayed 3976
symptoms 3976
Mau@@ 3975
eller 3975
ien 3975
Sud@@ 3972
agan 3972
athlete 3972
dress 3970
identical 3970
legislature 3970
Lions 3968
kin@@ 3968
economics 3967
inter 3967
ve@@ 3967
mos@@ 3966
SS@@ 3965
bear 3964
mac@@ 3964
Costa 3963
fresh 3963
exercise 3962
ores 3961
preferred 3961
corresponding 3960
tax@@ 3959
placing 3958
soul 3958
IP@@ 3957
elsewhere 3954
ences 3954
lif@@ 3954
rocks 3954
usage 3954
1875 3953
peoples 3953
3,000 3952
mic 3951
Rail 3950
ides 3950
virus 3950
Formation 3949
Jerry 3949
Ret@@ 3948
aux 3948
describing 3948
implementation 3948
sburg 3948
Blues 3947
collaborated 3947
Primary 3946
regard 3946
Systems 3944
mines 3944
thin 3944
Athens 3942
Sho@@ 3941
ref 3941
asc@@ 3940
dri@@ 3940
Chamber 3938
filming 3937
USS 3936
baby 3936
deck 3936
ier@@ 3936
inherited 3936
Croatian 3935
Ji@@ 3935
incumbent 3935
Commons 3934
ava 3933
trail 3933
Confederate 3932
cooperation 3931
golf 3929
ment@@ 3929
Land@@ 3928
contributing 3928
sounds 3928
tribute 3928
multi@@ 3927
Neil 3926
sharing 3926
Sul@@ 3925
ury 3924
Warsaw 3923
ation@@ 3923
householder 3921
Tab@@ 3920
gang 3920
thick 3920
din@@ 3919
eding 3919
favour 3919
informed 3919
1868 3918
farming 3918
bright 3917
Kenya 3915
reaches 3915
variant 3915
DJ 3913
waste 3912
Af@@ 3911
zy 3911
Vill@@ 3909
wider 3909
dangerous 3908
exc@@ 3908
Haz@@ 3907
ante 3907
camps 3907
AF@@ 3906
Bet@@ 3906
Drive 3906
lighting 3906
aded 3905
ower 3905
Wy@@ 3904
alcohol 3904
Batt@@ 3903
Bulgarian 3903
Pul@@ 3903
clean 3903
proteins 3900
manage 3899
coat 3897
outstanding 3895
physician 3895
berry 3893
partial 3893
preparation 3893
work@@ 3893
Independence 3892
Newcastle 3892
charter 3891
connect 3891
prices 3891
concerning 3890
enforcement 3890
nominations 3890
planet 3890
Ed 3889
specialized 3889
zing 3889
meter 3888
correct 3887
Norfolk 3886
Policy 3886
uss@@ 3886
bases 3885
hard@@ 3885
unincorporated 3882
1879 3881
Shanghai 3881
Storm 3881
slaves 3881
0s 3880
Album 3879
NO@@ 3879
ministry 3879
Bus@@ 3878
RA 3878
bachelor 3878
pos@@ 3878
cker 3877
Mill 3876
Pedro 3876
Can 3872
Petersburg 3872
AR 3871
Derby 3870
Range 3870
recalled 3870
Fo@@ 3868
IM@@ 3868
dom 3868
expert 3867
trust 3866
Denver 3865
ician 3865
1873 3863
winds 3862
tru@@ 3861
Jefferson 3859
Nu@@ 3858
inducted 3858
Luc@@ 3857
automatic 3857
Terry 3855
Yale 3855
cus 3855
devoted 3855
sure 3855
resi@@ 3854
communist 3851
Plan 3850
lob@@ 3850
express 3849
EC@@ 3848
São 3848
ima 3848
moral 3848
ports 3848
diplomatic 3847
ble@@ 3846
exhibitions 3846
narrative 3845
Wo@@ 3844
difficulties 3843
plain 3843
High@@ 3842
Species 3841
iles 3841
Port@@ 3839
Luke 3838
brigade 3838
Over@@ 3835
sort 3835
uniform 3835
Š@@ 3835
1866 3834
1877 3833
25@@ 3833
Sultan 3832
Neg@@ 3831
seem 3830
11@@ 3829
Based 3829
flew 3829
oke 3829
eto 3828
Abu 3826
Argentine 3825
reporting 3825
speaker 3825
cri@@ 3824
evolved 3824
Eventually 3822
bly 3822
excellent 3822
inspiration 3821
cricketer 3819
Grace 3817
Rogers 3817
Sher@@ 3817
weapon 3816
Bru@@ 3815
approached 3815
designation 3813
iel 3813
Les@@ 3812
rie 3812
speakers 3812
var@@ 3811
Economy 3810
Murphy 3810
Fro@@ 3808
eer 3808
legacy 3808
unk@@ 3808
Florence 3806
Keith 3806
Ridge 3806
gallery 3806
gran@@ 3806
resses 3806
legend 3805
shops 3805
believes 3803
esses 3802
defend 3801
essing 3801
Architecture 3800
Gau@@ 3800
tournaments 3798
corruption 3797
Cle@@ 3796
imperial 3796
airing 3795
sand 3795
exclusive 3793
commenced 3792
Ottawa 3791
author@@ 3790
posts 3789
Comics 3788
Croatia 3788
punk 3788
zation 3787
Delaware 3785
gaining 3785
visits 3785
fication 3784
Sierra 3783
birthday 3783
mol@@ 3782
Kas@@ 3781
diseases 3781
mainstream 3781
Harold 3780
kes 3780
ool 3780
dre@@ 3779
Cent@@ 3778
Helen 3778
aling 3777
historians 3776
practical 3776
internet 3775
permitted 3775
saved 3775
ust@@ 3775
Sz@@ 3774
bit@@ 3774
Bulgaria 3772
Vegas 3771
liberal 3771
Release 3770
Nic@@ 3767
Stuart 3766
Cow@@ 3764
DP 3764
arriving 3764
oner 3764
vin 3764
whi@@ 3764
sugar 3763
HL 3761
fighters 3761
Christians 3758
aps 3758
worker 3758
Lebanon 3757
extend 3757
clan 3756
spend 3756
Vo@@ 3755
writings 3755
Dick 3754
Edwards 3753
Rab@@ 3753
hero 3753
historically 3752
Ken 3751
ordinary 3750
Ear@@ 3749
phrase 3749
tool 3749
Anti 3748
Workers 3748
reducing 3748
Eur@@ 3745
Hon@@ 3745
Ye@@ 3745
bin@@ 3745
promised 3744
€ 3744
ovo 3743
belongs 3742
challenges 3742
pa 3742
AB@@ 3741
Mart@@ 3741
grass 3741
spots 3740
exact 3739
removal 3739
Financial 3738
depression 3738
columns 3737
prove 3737
.D. 3736
Flight 3735
Fac@@ 3734
basin 3734
thinking 3734
Dennis 3733
Gregory 3733
Nature 3733
Climate 3732
mont 3732
alive 3730
asses 3730
copper 3730
departments 3730
pairs 3730
Obama 3729
burned 3729
ock@@ 3729
portrait 3729
real@@ 3729
attendance 3728
CDP 3726
Lat@@ 3726
Pil@@ 3726
decide 3726
carries 3725
cha 3725
chemistry 3724
coins 3724
Venice 3723
victim 3723
carrier 3722
din 3722
proof 3722
13.@@ 3721
Hat@@ 3721
Pas@@ 3721
oto 3721
Ach@@ 3720
ession 3720
clu@@ 3719
pitched 3719
shopping 3719
oriented 3717
root 3717
attempting 3716
Auckland 3715
Currently 3715
hur@@ 3715
pushed 3715
е@@ 3715
Campaign 3714
relegated 3714
execution 3713
looks 3713
Jose 3712
helps 3712
Hughes 3710
dean 3710
guests 3710
depicted 3709
ía 3708
Southeast 3707
cutting 3706
interviews 3706
measured 3706
beauty 3705
ein 3705
sitting 3705
actively 3704
coached 3704
lord 3704
backs 3703
red@@ 3703
Play 3702
affect 3702
till 3702
Es@@ 3701
Indonesian 3701
Rat@@ 3701
temporarily 3700
Mother 3699
gel 3699
latest 3699
part@@ 3699
predecessor 3699
variable 3699
Thai 3697
beetle 3697
distinction 3697
neck 3697
ox 3697
Kit@@ 3695
Contemporary 3694
psych@@ 3694
Protestant 3693
dollars 3691
és 3690
Robin 3688
span 3686
1874 3684
Eagles 3684
bling 3684
colleges 3684
printing 3684
oper@@ 3683
Stage 3682
namely 3682
escaped 3681
remote 3681
Acc@@ 3680
Bad 3680
orn 3680
1869 3679
Anglican 3679
recipient 3679
Cru@@ 3678
earthquake 3678
inary 3678
summit 3677
sun@@ 3677
tot@@ 3677
Thor@@ 3674
grandson 3674
ide@@ 3674
worst 3674
cing 3672
murdered 3672
oul@@ 3672
awareness 3671
.S. 3670
ici@@ 3670
Ghana 3669
characteristic 3667
functional 3667
bis@@ 3666
Bog@@ 3665
administered 3665
scores 3664
zo 3664
cat 3662
Craig 3661
fle@@ 3661
Syrian 3660
siege 3660
spin 3660
coaches 3659
citing 3658
pulled 3656
inj@@ 3654
tured 3654
bes 3653
abolished 3652
hence 3652
itt 3652
Child 3651
Perry 3651
Chapel 3649
Writing 3649
perspective 3649
1848 3648
Car 3648
authored 3647
sat 3646
simultaneously 3644
AL 3643
Bobby 3643
horror 3641
weak 3641
sung 3640
и@@ 3640
bat 3639
ep 3639
sample 3638
argument 3637
bearing 3637
gauge 3637
reporter 3637
Butler 3635
Hitler 3635
demands 3635
liber@@ 3634
lit@@ 3633
evil 3632
Wat@@ 3631
Aviation 3629
ily 3629
Next 3626
amed 3626
idi@@ 3626
studios 3626
cavalry 3625
diss@@ 3624
mes 3624
akers 3623
Amsterdam 3622
Swe@@ 3622
collapse 3622
disbanded 3622
slave 3622
Vid@@ 3621
spl@@ 3621
emotional 3620
Collection 3619
Manuel 3618
meat 3618
Ow@@ 3616
Protection 3616
1850 3615
Wellington 3615
Harbor 3614
North@@ 3614
pper 3614
recovery 3614
grades 3613
Finance 3612
ae@@ 3612
seemed 3611
supplied 3611
switched 3611
unless 3609
Sou@@ 3608
imm@@ 3608
Guy 3607
Provincial 3607
pil@@ 3606
ured 3606
Band@@ 3605
Dam 3605
atmosphere 3604
ruler 3604
jump 3603
Future 3602
TV@@ 3602
rif@@ 3602
Steven 3600
Albums 3599
uti@@ 3597
inst@@ 3595
ique 3595
prop@@ 3595
backed 3594
theories 3593
worn 3593
Former 3592
Lak@@ 3592
zes 3592
Han 3591
Short 3590
academy 3590
Sullivan 3589
amounts 3588
guide 3588
sia 3586
sle@@ 3586
AF 3585
ask 3585
tenth 3584
belt 3583
tube 3583
cap 3582
ump 3582
clar@@ 3581
targets 3581
insi@@ 3580
labour 3580
Venezuela 3579
Nan@@ 3577
asking 3577
ç@@ 3577
add@@ 3576
magn@@ 3576
ich 3575
restrictions 3575
ker@@ 3574
M.@@ 3572
Run 3572
bridges 3571
compound 3571
orph@@ 3571
receives 3571
Larry 3569
accurate 3568
Stanford 3567
raid 3567
â@@ 3567
Guardian 3566
organisations 3566
volunteers 3566
Clar@@ 3565
yc@@ 3563
clock 3562
nephew 3562
… 3562
affair 3561
inhabited 3561
documented 3559
Exchange 3558
Gilbert 3558
Males 3558
osis 3558
Ralph 3557
altitude 3557
anim@@ 3557
mon 3557
Vermont 3556
enko 3556
enz@@ 3556
slowly 3555
CB@@ 3554
dissolved 3554
hon@@ 3553
ocean 3553
regulation 3553
forty 3552
options 3552
aman 3550
cies 3550
indicating 3549
Agriculture 3548
outdoor 3548
sel 3548
Environmental 3547
alternate 3547
drove 3547
explains 3547
monthly 3547
destroy 3544
Every 3541
gathered 3540
FL 3538
bet@@ 3538
seeds 3538
ettes 3537
vent@@ 3536
comparison 3535
dur@@ 3535
elite 3535
Productions 3533
ashes 3533
binding 3533
mature 3533
vocalist 3532
rin 3530
crops 3529
tz 3529
Kerala 3528
Ray@@ 3528
feeling 3527
graduation 3527
3D 3526
improvements 3526
Key 3525
clay 3525
Computer 3524
Gul@@ 3523
Sheffield 3523
duc@@ 3522
tourism 3522
MO@@ 3521
pot@@ 3521
waves 3520
Cruz 3519
Mason 3519
bars 3518
Cabinet 3516
Secondary 3516
forth 3516
elementary 3515
reforms 3515
waiting 3515
ticket 3514
collective 3513
comprises 3513
connects 3512
ort@@ 3512
Mut@@ 3511
restaurants 3511
Ancient 3510
efficient 3510
hills 3510
8,@@ 3509
Mills 3509
maker 3509
Villa 3508
distinctive 3508
taxes 3508
Berkeley 3506
aggregate 3505
crosses 3505
ume 3504
reflect 3503
worship 3502
Artillery 3501
consistent 3501
maps 3501
Cou@@ 3500
allies 3500
challenged 3500
educ@@ 3500
essentially 3500
owns 3500
Cel@@ 3499
Ec@@ 3499
aic 3498
cant@@ 3498
Byzantine 3497
ety 3496
Report 3494
mus@@ 3494
AN 3492
ailed 3492
arc@@ 3492
jec@@ 3492
Nashville 3491
fal@@ 3491
Ci@@ 3490
Playing 3490
gest@@ 3490
na@@ 3489
ta@@ 3489
&apos;d 3488
.C. 3488
ault 3488
mit 3488
HMS 3487
breaks 3487
defender 3487
gap 3487
payment 3487
Hem@@ 3486
Monday 3486
ovich 3486
regul@@ 3486
residing 3485
revolution 3484
suspension 3484
OR@@ 3482
approaches 3482
leagues 3482
ility 3481
Jacques 3480
Joint 3480
favorite 3480
venues 3480
sha@@ 3479
structural 3478
disaster 3477
scientist 3477
shr@@ 3477
ups 3477
Student 3476
installation 3475
sta 3475
14.@@ 3474
Roosevelt 3474
literally 3472
vit@@ 3472
Beginning 3471
coup 3471
Poly@@ 3470
emphasis 3470
predominantly 3470
Eddie 3469
Esc@@ 3469
Horse 3469
retiring 3469
Holland 3468
asi 3467
Performance 3466
impossible 3465
aware 3464
thro@@ 3464
Sau@@ 3463
touchdowns 3463
Kom@@ 3462
citizen 3462
C.@@ 3461
sequel 3461
stem 3461
understood 3461
Fall 3460
Montana 3460
essed 3460
ook 3459
Watson 3458
battles 3458
descendants 3458
Bot@@ 3457
objective 3457
shots 3456
silent 3456
Methodist 3455
alle@@ 3455
Ant@@ 3454
Stat@@ 3454
fire@@ 3454
Small 3453
affiliate 3453
pul@@ 3453
ć 3453
1859 3452
Chal@@ 3452
Dep@@ 3452
Ot@@ 3452
Coach 3451
Van@@ 3451
parks 3451
Golf 3450
technologies 3450
otes 3449
elder 3447
Box 3446
Grey 3446
wer@@ 3446
failing 3444
tributary 3444
1857 3443
Armed 3442
stops 3442
Friends 3441
authorized 3441
Prefecture 3440
procedure 3440
Ma 3439
Mr 3439
ority 3439
difficulty 3438
threw 3438
arians 3436
loop 3436
ère 3436
Days 3435
Sony 3435
Wells 3435
gardens 3433
Hill@@ 3432
Susan 3432
Higher 3431
bombing 3430
eled 3430
anz@@ 3429
consumption 3428
uan 3428
External 3426
Mé@@ 3426
Yugoslavia 3426
dramatic 3426
intellectual 3426
patrol 3426
teach 3426
tz@@ 3425
Delta 3424
Google 3424
Mich@@ 3422
Dy@@ 3421
Rh@@ 3421
ful@@ 3421
answer 3419
phon@@ 3417
recruited 3417
Motor 3416
colleagues 3416
undergraduate 3416
exactly 3415
AG 3414
Tul@@ 3414
unt 3414
Economics 3413
Raymond 3413
casualties 3413
Starting 3412
illustrated 3412
elevated 3411
Tommy 3410
lex 3410
ERA 3409
error 3409
eter 3409
alls 3408
enk@@ 3408
è@@ 3408
dest@@ 3407
Cold 3406
Jun@@ 3406
ema 3406
ian@@ 3406
manuscript 3406
radical 3406
Cin@@ 3404
Gun@@ 3404
runners 3404
tering 3404
AFL 3403
Indies 3403
aspect 3403
referring 3403
truck 3402
dan 3401
Representative 3400
archaeological 3400
parking 3400
salt 3400
Nevertheless 3399
comments 3399
Call@@ 3398
dou@@ 3398
Rick 3397
cell@@ 3397
itis 3397
Cli@@ 3396
Interstate 3396
contracts 3396
fold 3396
ishes 3394
superior 3394
tourist 3394
argues 3392
consist 3392
Wallace 3391
By@@ 3390
Intelligence 3389
motor@@ 3389
pictures 3388
ails 3386
• 3386
secre@@ 3385
sustained 3385
orange 3384
gam@@ 3383
Lang@@ 3382
Post@@ 3382
Pass@@ 3380
Wei@@ 3380
Literature 3379
agree 3379
capita 3379
Price 3378
ambassador 3378
extinct 3378
Ivan 3377
logo 3377
Has@@ 3376
puts 3376
Finals 3375
inhib@@ 3375
rom@@ 3375
Angel 3374
developments 3374
judicial 3374
Conc@@ 3373
nickname 3373
Mes@@ 3372
Direc@@ 3371
ho 3371
Bern@@ 3370
Leo 3370
ous@@ 3370
Politics 3369
beam 3369
imprisoned 3369
metropolitan 3369
wich 3369
Private 3368
aviation 3368
inning 3368
politicians 3368
Ron 3367
examination 3367
pressed 3367
veteran 3366
af 3365
firing 3365
comprehensive 3363
Doc@@ 3361
Tat@@ 3361
engagement 3361
usi@@ 3361
cit@@ 3360
perceived 3360
fare 3359
rid@@ 3359
Ath@@ 3358
Dom@@ 3358
laboratory 3358
Arnold 3357
liz@@ 3357
ocks 3357
Dum@@ 3356
institute 3356
lav@@ 3356
onn@@ 3356
test@@ 3356
ells 3353
Dame 3352
quarterback 3351
wer 3351
Jon 3350
explain 3349
widow 3349
framework 3348
ods 3348
sequ@@ 3348
chers 3347
talks 3347
convinced 3346
willing 3346
oka 3345
renowned 3345
Palestinian 3344
hidden 3344
martial 3344
oxygen 3344
exhibit 3343
Commerce 3342
kick 3342
lem@@ 3342
mit@@ 3342
compositions 3341
Abraham 3340
astic 3340
locomotive 3340
mig@@ 3340
Ambassador 3339
shut 3339
Stor@@ 3338
dimensional 3337
Films 3336
beaten 3335
Cant@@ 3333
kilometers 3333
construct 3332
Gall@@ 3331
diocese 3331
sit 3331
Bour@@ 3330
Die 3328
with@@ 3328
putting 3327
extending 3326
ater@@ 3325
nik 3324
Newton 3323
20,000 3322
loaded 3322
Fel@@ 3321
aled 3320
efficiency 3320
Commercial 3319
kar 3319
Grammy 3318
radar 3318
syndrome 3318
Din@@ 3317
cons@@ 3317
Railways 3315
hem@@ 3315
Mach@@ 3313
eur@@ 3313
frac@@ 3313
Had@@ 3312
calendar 3312
Lem@@ 3310
shipping 3310
MTV 3309
bond 3308
imposed 3308
Competition 3307
Magic 3307
happy 3307
udi@@ 3307
Clarke 3306
Leonard 3306
thanks 3306
Elec@@ 3305
valuable 3305
Pit@@ 3304
Fourth 3303
O. 3303
icks 3302
iri 3302
Honor 3301
а@@ 3301
een 3300
cuts 3299
Romanized 3298
experiments 3298
Alb@@ 3297
Harvey 3297
ensi@@ 3296
enzyme 3295
Dream 3294
hospitals 3294
brook 3293
ght 3293
iser 3293
Overview 3292
equation 3292
graphic 3292
mainland 3291
Mars 3290
revised 3290
improvement 3289
integration 3289
tours 3289
Columbus 3288
Renaissance 3287
VA 3287
attacking 3287
virtual 3287
24@@ 3286
Phillips 3286
discontinued 3286
fifty 3285
accommodate 3284
founders 3284
bell 3283
gar 3282
input 3282
statements 3282
cam@@ 3281
ias 3281
rest@@ 3281
variation 3281
vi 3280
wasn 3280
ę@@ 3280
Ground 3279
Pop 3279
fundamental 3279
progressive 3278
Palestine 3277
ache 3277
immigration 3276
refugees 3276
wore 3275
Prague 3274
indic@@ 3274
Dr 3273
Vietnamese 3272
coll@@ 3272
eline 3272
altered 3271
hood 3271
pioneer 3271
aims 3270
Right 3269
contribute 3269
manga 3269
Dre@@ 3268
Weekly 3268
DO@@ 3267
Election 3267
Essex 3267
interesting 3266
detail 3265
ā 3265
Gabriel 3264
universe 3263
oting 3262
theatrical 3262
Law@@ 3261
lawsuit 3261
ires 3260
lit 3260
Hart 3259
preserve 3259
familiar 3258
ratings 3258
traveling 3258
wrong 3258
jun@@ 3257
optim@@ 3257
throw 3257
Montgomery 3256
Record 3256
ibn 3256
Ball 3255
Chair 3255
SP 3253
anch@@ 3253
drinking 3253
god 3252
Vladimir 3251
magnetic 3251
Shah@@ 3250
discrimination 3250
iner 3249
solutions 3249
Grove 3248
airline 3248
relay 3248
san@@ 3248
VII 3247
23@@ 3246
discuss 3246
ual 3246
victories 3246
aster 3245
fastest 3245
permanently 3245
controls 3243
thereby 3243
Pun@@ 3242
direc@@ 3242
signals 3242
exit 3241
psychology 3240
rian 3240
celebration 3239
len 3239
nov@@ 3239
Sus@@ 3238
cultures 3238
Cau@@ 3237
neighboring 3237
interaction 3236
ó 3236
E.@@ 3235
Kel@@ 3235
relating 3235
Blu@@ 3234
comics 3234
consumer 3234
matic 3234
universal 3234
experiment 3233
golden 3233
missile 3231
shorter 3231
Gir@@ 3230
Oscar 3230
aul@@ 3229
bach 3229
serial 3229
Statistics 3228
infection 3228
pin 3228
occup@@ 3227
underwent 3227
Bed@@ 3226
asia 3226
Article 3225
Revival 3225
Airlines 3224
biology 3224
artwork 3223
liquid 3222
literacy 3222
olo 3222
poll 3222
Len@@ 3221
Vil@@ 3221
bonus 3221
Congo 3220
Kun@@ 3220
handle 3220
molecular 3220
å@@ 3220
jur@@ 3219
Gothic 3218
Junction 3218
afternoon 3218
Ful@@ 3217
intense 3217
addressed 3216
diversity 3216
faster 3216
gift 3216
Pod@@ 3215
jet 3215
tivity 3215
Otto 3214
cave 3214
democracy 3214
populated 3214
cally 3213
fron@@ 3213
milk 3213
&apos;ll 3211
concepts 3211
gy 3211
aining 3210
ographer 3210
programmes 3210
travels 3210
centres 3209
lifetime 3209
Brit@@ 3208
SE 3208
magic 3207
sson 3207
Danny 3206
mem@@ 3205
Northwest 3204
ature 3204
1855 3203
Equ@@ 3203
gel@@ 3203
segments 3203
smooth 3203
empire 3202
Celtic 3201
Rolling 3201
proc@@ 3201
Minor 3200
renewed 3200
analy@@ 3199
feelings 3199
SL 3198
anian 3198
rics 3198
Mang@@ 3197
allegations 3197
focusing 3197
fli@@ 3196
genes 3196
Revolutionary 3194
ministers 3194
reflected 3194
mand@@ 3193
TE@@ 3192
app 3192
prevented 3192
rati@@ 3192
utt@@ 3192
Net@@ 3191
Soci@@ 3190
stown 3190
vo 3190
Od@@ 3189
governing 3189
ink@@ 3189
insur@@ 3189
rebounds 3189
110 3188
Elementary 3188
Survey 3188
TS 3187
posed 3187
catch 3186
makers 3186
los 3185
moderate 3185
readers 3184
artificial 3183
burial 3183
Laura 3182
Yam@@ 3181
iki 3180
oration 3179
revolutionary 3179
assembled 3178
Dragon 3176
currency 3176
zu 3176
Ton@@ 3175
flood 3175
stored 3175
Kab@@ 3174
exile 3174
prepare 3174
æ@@ 3174
1856 3173
Arabia 3172
Micro@@ 3172
Leader 3171
Scar@@ 3171
dogs 3171
Hunt 3170
RT@@ 3170
Saf@@ 3170
diesel 3170
sciences 3170
warning 3170
3.5 3169
Musical 3169
Population 3169
cylinder 3169
referendum 3169
retreat 3169
Brunswick 3168
fires 3168
Hin@@ 3167
initi@@ 3167
rolling 3167
arena 3166
extends 3166
broadcasts 3164
enemies 3164
wars 3164
Vit@@ 3163
Sig@@ 3162
Stakes 3162
editorial 3162
snow 3162
itting 3161
photographer 3161
rab@@ 3161
tape 3161
cathedral 3160
democratic 3160
J.@@ 3159
arrive 3159
new@@ 3159
Liberty 3158
Ph.D. 3158
allegedly 3158
confidence 3158
photo 3158
ght@@ 3156
stationed 3156
south@@ 3154
BM@@ 3153
fewer 3153
Bosnia 3151
Liu 3150
Rel@@ 3150
eventual 3150
fate 3150
bench 3149
demanded 3149
reverse 3149
Dav@@ 3148
Bennett 3147
Notes 3147
empty 3147
revival 3147
boxing 3146
lex@@ 3146
rel 3146
erg@@ 3145
samples 3145
1854 3144
Serie 3144
Perth 3143
SM 3143
anus 3143
lau@@ 3143
Mario 3142
Good@@ 3141
codes 3141
instruction 3140
Campus 3139
dialogue 3139
thirteen 3139
min 3138
prince 3138
ranges 3138
Jamaica 3136
emen 3136
fy 3136
portions 3136
1840 3135
Forum 3135
Milwaukee 3135
eing 3134
Khal@@ 3133
holiday 3133
maintaining 3133
aring 3132
fed 3132
Mac 3131
dered 3129
pure 3129
Iraqi 3128
telephone 3128
wise 3128
enabled 3127
ji@@ 3127
surprise 3126
Cameron 3125
Morning 3125
anime 3125
blu@@ 3125
fantasy 3125
1858 3124
Location 3124
aside 3124
ester 3124
independently 3124
Outstanding 3123
RT 3123
eness 3123
activists 3122
fun 3122
boarding 3121
followers 3121
hardware 3121
Panama 3120
eck 3120
generate 3120
lov@@ 3120
B.@@ 3119
Cher@@ 3119
Cork 3119
drum 3119
plates 3119
ule 3119
footage 3118
Eli@@ 3117
alty 3117
advocate 3116
row@@ 3116
uli@@ 3116
uri 3116
wire 3116
15.@@ 3115
RS 3115
inscription 3115
AB 3114
agreements 3113
continental 3113
tip 3113
Original 3112
colonies 3112
harmon@@ 3112
keys 3112
owski 3112
doctoral 3111
ovsky 3111
spell 3111
enlisted 3110
perc@@ 3110
18@@ 3109
Vas@@ 3109
ffs 3109
Name 3108
dubbed 3108
Dow@@ 3107
arrives 3107
Grande 3105
hear 3105
succession 3105
summary 3105
LE@@ 3104
Punjab 3104
criteria 3104
engage 3104
tery 3104
Spirit 3103
MD 3102
Paulo 3102
cking 3102
freight 3102
130 3100
Data 3100
Georgian 3099
Squ@@ 3099
9,@@ 3098
Shakespeare 3098
oss 3098
tiv@@ 3098
Sing@@ 3097
pitcher 3097
radiation 3097
rebellion 3097
resort 3097
Friedrich 3096
Pearl 3096
Joan 3095
fallen 3095
PO@@ 3094
Shaw 3094
ital 3094
Boulevard 3093
Wilhelm 3092
Pass 3091
handling 3091
anic 3090
flies 3090
ideal 3090
slavery 3090
How@@ 3089
Legal 3089
Alt@@ 3088
edly 3088
rivals 3088
select 3088
ashed 3087
dancing 3087
Anti@@ 3085
Site 3085
mixture 3085
announcement 3084
Esp@@ 3083
Indianapolis 3083
Lyn@@ 3083
Mass 3083
paint 3083
shifted 3083
Cardinal 3082
Coun@@ 3081
assessment 3081
employee 3081
kins 3081
neg@@ 3081
plastic 3081
predic@@ 3081
suff@@ 3081
ech 3080
experts 3080
Bis@@ 3079
aran 3079
realized 3079
Yu@@ 3078
animation 3077
geon 3077
HD 3076
fourteen 3076
journalists 3075
Mess@@ 3074
liner 3074
planes 3074
noting 3073
teeth 3073
Rod@@ 3072
eri 3072
pic@@ 3072
prisoner 3072
Flying 3071
releasing 3071
Marvel 3070
Thir@@ 3069
updated 3069
carp@@ 3067
generations 3067
PC@@ 3065
sin 3065
Sky@@ 3064
Where 3064
gon@@ 3064
tender 3064
Wolf 3063
conducting 3063
cut@@ 3063
fairly 3063
kan@@ 3063
layout 3063
eal 3062
Bil@@ 3061
athletic 3061
Kos@@ 3060
belong 3060
feld 3060
intervention 3059
Room 3058
cult 3058
requiring 3058
Hamburg 3057
isp@@ 3057
lakes 3057
phic 3057
RNA 3056
invented 3056
Maurice 3055
index 3055
notice 3055
ordin@@ 3055
repeatedly 3055
tin 3055
severely 3054
vir@@ 3054
ister 3053
switch 3053
Aboriginal 3052
Stri@@ 3052
specified 3052
reli@@ 3051
Rice 3050
specimens 3050
Louise 3049
computers 3049
Nine 3048
Penn 3048
sid@@ 3048
101 3047
Lost 3046
civilians 3046
confused 3045
Advanced 3044
acoustic 3044
remembered 3044
rises 3044
mere 3043
neighbouring 3043
Hop@@ 3042
eau 3042
oll@@ 3042
suspected 3042
centered 3041
sight 3041
wid@@ 3041
oga 3040
potentially 3040
upcoming 3040
ials 3039
variations 3038
fame 3037
wish 3037
Miguel 3036
disorder 3036
prestigious 3036
Greg 3035
plan@@ 3035
targeted 3034
900 3033
Ted 3033
topped 3033
manufacturers 3032
triple 3032
Kum@@ 3031
bon 3031
heir 3031
Ernest 3030
queen 3030
sending 3030
Aaron 3029
associations 3029
tus 3028
François 3027
eous 3027
Source 3026
tissue 3026
p.m. 3025
Guide 3024
signature 3024
Johann 3023
mar 3022
lion 3021
marking 3021
quad@@ 3021
Gab@@ 3020
Mobile 3020
cas@@ 3020
interpreted 3020
uts 3020
beliefs 3018
separation 3018
sou@@ 3018
uting 3018
voiced 3018
1852 3017
seriously 3017
eff@@ 3016
ordained 3016
Circle 3015
dh@@ 3013
sixteen 3012
rally 3011
sam@@ 3011
ware 3011
Hindi 3009
Manila 3009
book@@ 3009
planted 3009
Hil@@ 3008
assed 3007
sing@@ 3007
Low 3006
iel@@ 3006
matrix 3006
Blood 3005
Oakland 3005
Pakistani 3004
gor@@ 3004
lied 3004
oked 3004
streams 3004
surrender 3004
Hall@@ 3003
prof@@ 3003
volleyball 3003
Eagle 3002
findings 3002
dream 3001
py@@ 3001
bears 3000
freestyle 3000
rent 3000
naming 2999
personally 2999
Mam@@ 2998
ph 2998
situations 2998
U.@@ 2996
dialect 2996
displays 2996
ection 2996
friendship 2995
identification 2995
ons@@ 2995
Beg@@ 2994
Wildlife 2994
iya 2994
mad@@ 2994
reserves 2994
divorce 2993
professionals 2993
repe@@ 2993
Sussex 2992
indeed 2992
22@@ 2991
CR 2991
Somerset 2991
hu 2991
Laboratory 2990
essi@@ 2990
Bears 2989
Mumbai 2989
comprising 2989
patent 2989
presentation 2989
Cuban 2988
Uganda 2988
fusion 2987
tea 2987
Gate 2986
Secret 2986
behaviour 2986
presents 2985
rainfall 2985
80@@ 2984
Coll@@ 2984
ader 2984
commitment 2984
tives 2984
Facebook 2983
Lac@@ 2983
tackles 2983
Isaac 2981
camp@@ 2981
etics 2981
tag 2981
Academic 2980
Artists 2980
VIII 2980
noise 2980
Baby 2979
dealing 2979
Foster 2978
clients 2978
pilots 2978
pursued 2978
specialist 2978
Wit@@ 2977
circulation 2977
pit 2976
1851 2975
Bun@@ 2975
VI@@ 2975
iss 2975
quick 2974
ped@@ 2973
rant 2973
tasks 2973
Scientific 2972
adventure 2972
illo 2971
improving 2971
Are 2970
mb@@ 2970
thrown 2970
oes 2969
ellers 2968
goalkeeper 2968
nationally 2968
Play@@ 2967
Sid@@ 2967
societies 2967
Spencer 2966
cross@@ 2966
firms 2966
vector 2966
Fil@@ 2965
Lav@@ 2964
Teams 2963
eat 2963
ied 2963
rifle 2963
cast@@ 2962
oney 2962
vity 2962
о@@ 2962
Cole 2961
ein@@ 2961
riders 2961
suggesting 2961
Jur@@ 2959
horn 2959
pale 2959
shed 2959
considering 2958
Besides 2957
tale 2957
Annual 2956
aug@@ 2956
requirement 2956
Lind@@ 2955
cip@@ 2955
bal 2953
NASA 2952
SI@@ 2952
backing 2952
xi 2952
counts 2951
isa 2951
observation 2951
deb@@ 2950
Triple 2949
ats@@ 2949
enth@@ 2949
conductor 2948
desert 2948
tual 2948
Gardens 2947
oll 2947
tap@@ 2946
celebrate 2945
Manager 2944
concentrated 2944
eper 2944
praise 2944
Sean 2943
investigate 2943
psychological 2943
touch 2943
PE@@ 2942
biography 2942
favorable 2942
provisions 2942
Stockholm 2941
faction 2941
gear 2940
stim@@ 2940
transit 2940
unions 2940
Block 2938
arium 2938
izes 2937
pack@@ 2937
Idaho 2936
similarly 2936
GA 2934
Kap@@ 2934
Voice 2934
encourage 2934
plac@@ 2934
prey 2934
Albanian 2933
Reading 2933
Bus 2932
ichi 2932
merely 2931
decrease 2930
tin@@ 2930
Art@@ 2929
Knights 2929
procedures 2929
Justin 2928
iti 2928
Ages 2927
haz@@ 2927
variants 2927
boro 2926
Isle 2924
custom 2924
rage 2924
simul@@ 2924
skill 2924
Dob@@ 2923
PM 2923
chy 2923
hometown 2923
retain 2923
Jer@@ 2922
hyp@@ 2922
seized 2922
dering 2921
Jay@@ 2920
Thur@@ 2919
honours 2918
HIV 2917
agh 2917
chapters 2917
oi 2917
Durham 2915
commentary 2915
inal 2915
rol@@ 2915
Continental 2914
Kaz@@ 2914
duration 2914
codice 2913
floors 2913
pon@@ 2911
Fitz@@ 2910
Rhode 2910
Sant@@ 2910
creates 2910
messages 2910
correc@@ 2909
spac@@ 2909
heading 2907
ois 2907
Scotia 2906
H.@@ 2905
Wu 2905
alled 2905
list@@ 2905
manages 2905
Bud@@ 2904
Lancashire 2904
maintains 2904
Bird 2903
Owen 2903
axis 2903
fol@@ 2902
ju 2901
migration 2901
Examples 2900
varied 2899
Marc 2898
coffee 2898
alling 2897
doctors 2897
Ring 2895
ames 2895
package 2895
petition 2895
relatives 2895
Maur@@ 2894
17.@@ 2893
BCE 2893
ually 2893
Brah@@ 2892
arrangements 2892
brings 2892
siblings 2892
Lucas 2891
Newport 2891
divorced 2891
jail 2891
orbit 2891
Dist@@ 2890
Fisher 2889
discovers 2889
entation 2889
lon@@ 2889
AE@@ 2888
citizenship 2888
Buenos 2887
Drama 2887
Nancy 2887
Aires 2886
Sox 2886
journals 2886
sheet 2886
1853 2885
revol@@ 2885
tit@@ 2885
pianist 2884
Heights 2883
Kate 2883
Reed 2883
choir 2883
files 2883
survivors 2883
wind@@ 2883
Son 2882
ando 2882
antly 2882
hai 2882
threats 2882
yle 2882
apping 2881
lasting 2881
Morocco 2880
enable 2880
gent@@ 2880
Chelsea 2879
Tag@@ 2879
Lad@@ 2878
anese 2878
pu@@ 2878
recognize 2878
volunteer 2878
mini 2877
Chester 2876
Environment 2875
clim@@ 2875
Malta 2874
esc@@ 2874
Armenia 2873
Nav@@ 2873
SN@@ 2873
burning 2873
fluid 2873
Lithuania 2872
staged 2872
alli@@ 2871
Westminster 2870
banking 2869
congregation 2869
rebels 2869
Seg@@ 2868
acks 2868
att 2868
rever@@ 2868
16.@@ 2867
Jos@@ 2866
dan@@ 2866
cio 2865
pregnant 2865
sleep 2865
ull 2865
Maz@@ 2864
interchange 2863
streak 2863
vig@@ 2863
doctorate 2862
exterior 2862
ital@@ 2862
Cyprus 2861
acknowledged 2861
gin 2861
Salt 2860
master@@ 2860
Todd 2859
Tol@@ 2859
ec 2858
impressed 2858
lineup 2858
theorem 2858
circular 2857
sten 2857
towers 2857
Rovers 2856
averaged 2856
eting 2856
eva 2856
stability 2856
AFC 2855
Ferdinand 2855
Rob 2854
deeply 2854
grants 2854
onwards 2852
beer 2851
nest 2851
ept@@ 2850
yon 2848
Oak 2847
operators 2847
panels 2847
omin@@ 2846
Christ@@ 2845
Palmer 2843
Wol@@ 2843
check 2843
sequences 2843
DF 2842
Sv@@ 2842
Using 2842
ci 2842
prototype 2842
honored 2840
interface 2840
ulating 2839
ailing 2838
transformed 2838
Ruth 2837
achievement 2837
Oil 2836
entity 2836
knee 2836
pt 2836
destination 2834
intermediate 2834
advisor 2833
criticised 2833
colonel 2832
1849 2831
Rot@@ 2831
disappeared 2831
los@@ 2831
Hag@@ 2830
Hurricane 2830
nan@@ 2830
quot 2830
aca 2829
mentions 2829
26@@ 2828
bla@@ 2828
Rac@@ 2827
aves 2827
conflicts 2827
egg 2827
Ahmed 2826
Big@@ 2825
Vir@@ 2825
4,000 2824
Dig@@ 2824
carved 2824
Fighter 2823
quarters 2823
sus 2823
Rev. 2822
fortress 2822
Sag@@ 2821
Transit 2820
Marcus 2819
deliver 2819
headquartered 2819
hosting 2819
voyage 2819
warfare 2819
Rag@@ 2818
nationwide 2818
sharp 2818
stan 2818
stand@@ 2818
tle 2818
valid 2817
Santiago 2816
nut 2816
scandal 2816
school@@ 2816
scorer 2816
Pat 2814
Safety 2814
Stevens 2814
Yang 2814
aja 2813
corps 2813
medic@@ 2813
collegiate 2812
lecturer 2812
Chen 2811
Lisa 2811
Say@@ 2811
anta 2811
spor@@ 2810
Amendment 2808
Peak 2807
Tampa 2807
audiences 2806
larvae 2806
Cad@@ 2805
Diamond 2805
Raz@@ 2805
iling 2805
circum@@ 2804
danger 2804
Buck@@ 2803
R.@@ 2803
Still 2803
alt@@ 2803
ë@@ 2803
Living 2802
Pent@@ 2801
Relations 2801
cad@@ 2801
conjunction 2801
restore 2801
varies 2801
Copenhagen 2799
Giovanni 2799
etal 2799
ferry 2799
quantum 2799
receiver 2799
sand@@ 2799
1847 2798
Additional 2798
collect 2798
colours 2798
feeding 2798
travelling 2798
Tennis 2797
high@@ 2797
Artist 2796
SM@@ 2796
assignment 2796
atri@@ 2796
emerging 2795
enburg 2794
particles 2794
drink 2793
holder 2793
Sr. 2792
expanding 2792
180 2791
Hos@@ 2791
dam@@ 2791
heim 2791
neutral 2791
Gang@@ 2790
closest 2790
grid 2790
Chancellor 2788
Tiger 2788
inae 2788
morph@@ 2788
singers 2788
guidance 2787
Lag@@ 2786
Napoleon 2786
hoped 2786
presidency 2786
HC 2784
continent 2784
CM@@ 2783
alt 2783
eter@@ 2783
esis 2782
privately 2782
Solomon 2781
ario 2781
encountered 2781
ente 2781
suddenly 2781
Machine 2780
database 2780
publish 2780
pupils 2780
Aut@@ 2779
Fra@@ 2779
Franco 2779
graphics 2779
Radi@@ 2778
flooding 2778
indoor 2778
proceeded 2778
Lon@@ 2777
ven 2777
ê@@ 2777
Cla@@ 2776
register 2776
topic 2776
icity 2775
sailing 2775
rounded 2774
Parliamentary 2773
Princeton 2772
lication 2772
struggled 2772
AI 2770
prints 2770
quoted 2769
ss@@ 2769
stretch 2769
kings 2768
withdrawn 2768
{ 2768
Cit@@ 2767
SI 2767
trio 2767
Steel 2766
favourite 2766
н@@ 2766
advis@@ 2765
curve 2765
roy@@ 2765
survival 2765
tomb 2765
deposits 2763
lav 2763
march 2763
wet 2763
reads 2762
Aer@@ 2761
bee 2761
pen 2761
tro 2761
aked 2759
eon 2759
Distinguished 2758
Estate 2758
Herald 2758
provision 2758
LC 2757
properly 2757
aba 2756
autumn 2755
holes 2755
joins 2753
ret 2753
sar@@ 2753
Ja@@ 2752
Total 2752
paying 2752
Duncan 2751
ather@@ 2751
wheels 2751
og 2750
shelter 2750
Cardinals 2749
Davies 2749
Dub@@ 2749
upgraded 2749
Cavalry 2748
nineteenth 2747
Jac@@ 2746
graph 2746
Actor 2745
Cardiff 2745
muscle 2745
Holmes 2744
Ras@@ 2744
ili 2744
reliable 2744
Fun@@ 2743
Simpson 2743
clo@@ 2743
liked 2743
Advisory 2742
SD 2742
prompted 2741
cataly@@ 2740
evol@@ 2740
facts 2740
fr@@ 2740
liqu@@ 2740
ser 2740
Ober@@ 2739
achievements 2739
anne 2739
ady 2738
corporation 2737
illing 2737
occurring 2737
Left 2736
Plant 2736
Publishing 2736
conferences 2736
consultant 2736
27@@ 2735
Java 2735
Sabha 2735
imag@@ 2735
integ@@ 2735
sible 2735
chore@@ 2733
encounter 2733
punishment 2733
Desert 2732
deals 2732
farms 2732
itarian 2732
mur@@ 2732
reveal 2732
Stre@@ 2731
sley 2731
welfare 2731
wood@@ 2731
Canterbury 2730
Rud@@ 2730
acquire 2730
wickets 2730
Zh@@ 2729
CO 2728
Eugene 2728
XI 2728
imprisonment 2728
journalism 2728
nam@@ 2728
Rid@@ 2727
Rum@@ 2727
aly@@ 2727
relegation 2727
18.@@ 2726
Dynasty 2726
unn@@ 2726
Events 2725
Far 2725
ared 2725
discover 2725
oot 2725
Det@@ 2724
Nintendo 2724
Rus@@ 2724
cotton 2724
lectures 2724
Manitoba 2723
Geneva 2722
batting 2721
governed 2721
techn@@ 2721
uf@@ 2721
FBI 2720
impressive 2720
random 2720
rocket 2720
Belgrade 2719
formations 2719
soap 2719
trouble 2719
array 2718
Popular 2717
Chapter 2716
Phil@@ 2716
Soul 2716
Lithuanian 2715
amine 2715
chess 2715
Pre 2714
1846 2713
orting 2713
resource 2713
engineers 2712
Care 2711
Franz 2711
Sudan 2711
goal@@ 2711
person@@ 2711
com 2710
layers 2710
ku 2709
rape 2709
Jag@@ 2708
Personnel 2708
explore 2708
Indigenous 2707
lessons 2706
mall 2706
transported 2706
Queens 2705
Tit@@ 2705
airs 2705
edges 2705
eping 2705
consensus 2704
NC 2703
\ 2703
algorithm 2703
sensitive 2703
sur 2703
ś@@ 2703
atives 2702
blues 2702
varying 2702
Dominican 2701
reservoir 2701
treat 2701
attraction 2700
automatically 2700
fe 2699
strikes 2699
Aff@@ 2698
helicopter 2698
ring@@ 2698
Twitter 2697
mus 2696
performers 2696
dock 2695
Def@@ 2694
coh@@ 2694
enne 2694
rington 2694
Moreover 2693
gli@@ 2693
ution 2693
balls 2692
esch@@ 2692
Bradford 2691
Brussels 2691
Ellis 2691
practiced 2691
Lab@@ 2690
Techn@@ 2690
esp@@ 2690
Fifth 2689
investors 2689
north@@ 2689
Philosophy 2688
classi@@ 2688
CP 2687
Parks 2687
ected 2687
portraits 2687
rup@@ 2687
PR@@ 2686
enza 2686
ult 2685
zones 2685
Pau@@ 2684
reactions 2684
gence 2683
preliminary 2683
Fernando 2682
Shel@@ 2682
itable 2682
Armstrong 2681
distant 2681
Emily 2680
decreased 2680
drawings 2680
lip@@ 2680
1830 2678
prayer 2678
smith 2678
wo@@ 2678
Kenneth 2677
oop 2677
vis 2676
Julia 2675
Wind@@ 2675
poll@@ 2675
CF@@ 2673
eating 2673
Angels 2672
ü@@ 2672
Amateur 2671
Tree 2671
Yellow 2671
peer 2670
teammate 2670
twentieth 2670
IX 2669
estates 2669
tak@@ 2669
Engineers 2668
bow@@ 2668
curriculum 2668
rapper 2668
1812 2667
Emma 2667
oz@@ 2667
permit 2667
registration 2667
ux 2667
Legislature 2666
militia 2666
Subsequently 2665
client 2665
Mass@@ 2664
And@@ 2663
Nigerian 2663
varieties 2663
occasional 2662
offs 2662
phenomenon 2662
stolen 2662
Interior 2661
Lei@@ 2661
Tang 2661
ables 2661
ão 2661
AIDS 2660
beneath 2660
colored 2660
southeastern 2660
thor@@ 2660
20.@@ 2659
ade@@ 2659
customer 2659
hydrogen 2659
ives 2659
noble 2659
Andrews 2658
Hull 2658
priests 2658
renovation 2658
girlfriend 2657
pronounced 2657
shi 2657
Double 2656
sty@@ 2656
tight 2656
Hear@@ 2655
Return 2655
competitors 2655
dynamic 2655
watched 2655
solely 2654
Bes@@ 2653
ason 2653
terrain 2653
uli 2653
aftermath 2652
discipline 2652
governmental 2652
libraries 2652
Main@@ 2651
dense 2651
Ron@@ 2650
UC@@ 2650
bills 2650
hopes 2650
interactions 2650
shock 2650
Ronald 2649
absolute 2649
consequence 2649
intensity 2649
Basin 2648
genera 2648
wage 2648
Fol@@ 2647
ament 2647
ruins 2647
Again 2646
Brooks 2646
Comedy 2646
Eight 2646
delay 2646
handled 2646
starter 2646
Jon@@ 2645
Ng@@ 2645
grain 2645
mansion 2645
just@@ 2644
oids 2644
Bradley 2643
aces 2643
Lud@@ 2642
armies 2642
dancer 2642
rivalry 2641
tribal 2641
Saskatchewan 2640
dying 2640
oro 2640
quest 2640
rum@@ 2640
.. 2639
Guards 2639
eil 2638
ī 2638
1845 2637
Brid@@ 2636
Deep 2636
hull 2636
Zhang 2635
congressional 2635
embarked 2635
IA 2634
Stan@@ 2634
Universe 2634
ony@@ 2634
supporter 2634
witness 2634
Powell 2633
configuration 2633
dal 2633
fix@@ 2633
inclusion 2633
push 2633
XX@@ 2632
finite 2632
flowering 2632
Now@@ 2631
WA 2631
creator 2631
storyline 2631
Presbyterian 2630
Similarly 2630
kilometres 2630
territorial 2630
akh 2629
bol@@ 2629
striking 2629
furn@@ 2627
impro@@ 2627
sens@@ 2627
Colonial 2626
Without 2626
atta 2624
experim@@ 2624
theology 2624
withdrawal 2623
Eurovision 2622
Us 2622
compounds 2622
fran@@ 2622
ingen 2621
locked 2621
Aw@@ 2620
aerial 2620
nit@@ 2620
ald 2619
enger 2619
export 2618
pac@@ 2618
dozen 2617
Gibson 2616
Lodge 2616
Mod@@ 2616
cab@@ 2616
subspecies 2616
NR@@ 2614
Nep@@ 2614
scen@@ 2614
Henderson 2613
Wind 2613
Zam@@ 2613
hitting 2613
meth@@ 2613
southwestern 2613
tia 2613
tox@@ 2613
acclaim 2611
Actress 2610
conquest 2610
jud@@ 2610
viol@@ 2610
Naz@@ 2609
ammunition 2609
northeastern 2609
Progressive 2608
kills 2608
patron 2608
voc@@ 2608
observations 2607
ral@@ 2607
easier 2606
enb@@ 2606
dar 2605
road@@ 2604
sha 2604
Against 2603
Chase 2603
NATO 2603
stre@@ 2603
Aircraft 2601
Nas@@ 2601
define 2601
Gan@@ 2600
IBM 2600
Recording 2600
diet 2600
guards 2600
Page 2599
surfaces 2599
Bull 2598
Critics 2598
learns 2598
unclear 2598
workshops 2598
zh@@ 2598
Whe@@ 2597
bassist 2597
bud@@ 2597
garrison 2597
1,0@@ 2596
alisation 2596
hab@@ 2596
super 2596
get@@ 2595
Pac@@ 2594
Tus@@ 2594
accomplished 2594
allocated 2594
furniture 2593
trips 2593
Julian 2592
esia 2592
ras@@ 2592
125 2591
It@@ 2591
argue 2591
rotation 2591
anchor 2590
kt@@ 2590
Abdul 2589
Bryan 2588
borne 2588
chronic@@ 2588
fees 2588
moments 2588
watching 2588
bab@@ 2587
doctrine 2587
fraud 2587
trend 2587
counted 2586
hybrid 2586
standings 2586
tension 2586
Regular 2585
Vin@@ 2585
missionary 2585
omm@@ 2585
Surrey 2584
boss 2584
regardless 2584
Pav@@ 2583
elin 2583
collapsed 2582
ru 2582
stronger 2582
tram@@ 2582
Indi@@ 2581
Leon 2580
attitude 2580
theoretical 2580
Cross@@ 2579
Others 2579
Rap@@ 2579
environments 2579
show@@ 2579
Bear 2578
commanding 2578
investigated 2578
transformation 2578
Complex 2577
condemned 2577
val 2577
Brad@@ 2576
administ@@ 2576
fir@@ 2576
iter 2576
pack 2576
Capitol 2575
collecting 2575
incidents 2575
lith@@ 2575
magnitude 2575
pec@@ 2575
Liber@@ 2574
Study 2574
eni 2574
rough 2574
Proc@@ 2573
aches 2573
bishops 2573
hop@@ 2573
multip@@ 2573
vet 2573
accordance 2572
Saxon 2571
Fish 2570
estimate 2570
inus 2570
Dro@@ 2569
log 2569
ood@@ 2569
shoulder 2569
Mem@@ 2567
Orlando 2567
blocked 2567
mph 2567
Off 2566
committees 2566
interim 2566
locks 2566
Caroline 2565
Filipino 2565
GP@@ 2565
Kingston 2565
Legion 2565
manual 2565
moon 2565
nicknamed 2565
200@@ 2564
Michel 2564
settle 2564
Brighton 2563
Official 2563
ges@@ 2563
loved 2563
19.@@ 2562
ensemble 2562
oted 2562
rag@@ 2562
Kot@@ 2561
developer 2561
farmer 2561
hei@@ 2561
involve 2561
temples 2561
united 2561
MLB 2560
PlayStation 2560
equally 2559
habitats 2559
stick 2559
Republicans 2558
absorbed 2558
consent 2558
Agreement 2557
depicting 2557
ground@@ 2557
ounded 2557
snow@@ 2557
tain 2557
Lakes 2556
Leslie 2556
2.0 2555
shallow 2555
yu 2555
Bhar@@ 2554
Colin 2554
Hob@@ 2554
Kay@@ 2554
Mid 2554
omb@@ 2554
ı 2554
NS 2553
insects 2553
Chan@@ 2552
Iceland 2552
arity 2552
Shak@@ 2551
Wel@@ 2551
directing 2551
cians 2550
gathering 2550
organisms 2550
stake 2550
orth@@ 2549
photos 2549
Electoral 2548
Low@@ 2548
amo 2548
strict 2548
Plaza 2547
bacteria 2547
elimination 2547
Lyon 2546
Number 2546
Off@@ 2546
set@@ 2546
aut 2545
cleared 2545
consequences 2545
receptor 2545
Planning 2544
Resources 2543
coun@@ 2543
30,000 2542
expelled 2542
leton 2542
Lucy 2541
Pete 2541
renovated 2541
Arsenal 2540
LGBT 2540
Preston 2540
mutual 2540
projec@@ 2540
reconstruction 2540
25.@@ 2539
aters 2539
ballot 2539
conceived 2539
Ple@@ 2538
cket 2538
depends 2538
diagnosed 2538
introduce 2538
ologically 2538
sheep 2538
Aj@@ 2537
D.@@ 2537
Woods 2537
pose 2537
Pier@@ 2536
Tyler 2536
Canyon 2535
GT@@ 2535
Scot@@ 2535
promising 2535
rum 2535
Reform 2534
ached 2534
vegetation 2534
chron@@ 2533
lik@@ 2533
nan 2533
Eg@@ 2532
virtually 2532
calcul@@ 2531
intent 2531
Petro@@ 2530
Presidential 2530
ista 2530
overs 2530
compensation 2529
exploration 2529
CT 2528
tan@@ 2528
CR@@ 2527
advised 2527
casting 2527
healthy 2527
navig@@ 2527
Globe 2526
Memphis 2526
mathematical 2526
mond 2526
Course 2525
Episcopal 2525
verses 2525
Chap@@ 2524
aph@@ 2524
assassination 2524
considers 2524
inda 2524
physi@@ 2524
Estonia 2523
hima 2523
manufacture 2523
Gon@@ 2522
doubt 2522
law@@ 2522
logic 2522
pseud@@ 2522
thermal 2522
AG@@ 2521
WWE 2521
character@@ 2521
pace 2521
promise 2521
questioned 2521
ocene 2520
raw 2520
suburbs 2520
Om@@ 2519
Cob@@ 2518
EM@@ 2518
Robertson 2518
doc@@ 2518
genres 2518
nel 2518
stead 2518
1800 2517
Bailey 2517
Guar@@ 2517
ape 2517
escu 2517
heter@@ 2517
USSR 2516
ike 2516
proposals 2516
Josh 2515
clothes 2515
dev@@ 2515
onom@@ 2515
resolved 2515
Am 2514
Lap@@ 2514
1.2 2513
Located 2513
WW@@ 2512
bones 2512
Ahmad 2511
acet@@ 2511
elles 2511
gol@@ 2511
Cri@@ 2510
SU 2510
bowl 2510
separately 2510
massacre 2509
nose 2509
talking 2509
adoption 2508
upset 2508
estimates 2507
1844 2506
Asi@@ 2506
Blake 2506
Get 2506
I.@@ 2506
Amy 2505
Liberation 2505
Edition 2504
loading 2504
manor 2504
preparing 2504
tables 2504
thre@@ 2504
ultimate 2504
wan@@ 2504
Lun@@ 2503
Miles 2503
integral 2503
isi 2503
predicted 2503
350 2502
Allan 2502
Amazon 2502
Stock 2502
inches 2502
iz 2502
Oslo 2501
dly 2501
quet 2501
Arn@@ 2500
Alpha 2499
Curtis 2499
Windsor 2499
Hus@@ 2498
aa 2498
sporting 2498
alis@@ 2497
Naples 2496
apped 2496
feels 2496
160 2495
agu@@ 2495
bore 2495
kitchen 2495
wildlife 2495
1841 2494
HS 2494
Lis@@ 2494
Lub@@ 2494
autonomous 2494
bil@@ 2494
undertaken 2494
Hand@@ 2493
Sang@@ 2493
edy 2493
enly 2493
Notre 2492
servant 2492
6,000 2491
pink 2491
Rabbi 2490
Richardson 2490
constantly 2490
guided 2490
oh 2490
amy 2489
legally 2489
mort@@ 2489
ernmost 2488
phones 2488
Bod@@ 2487
Impact 2487
laps 2487
long@@ 2487
necessarily 2487
Cath@@ 2486
María 2486
amer@@ 2486
Krist@@ 2485
inaugurated 2485
Ast@@ 2484
Bau@@ 2484
Ess@@ 2484
oos 2484
que@@ 2484
probability 2483
ept 2482
kon@@ 2482
entries 2481
sword 2481
End@@ 2480
Hopkins 2480
Mann@@ 2480
Principal 2480
tourists 2480
Speaker 2479
synthes@@ 2479
walks 2479
26.@@ 2478
Cov@@ 2478
Hou@@ 2478
gee 2478
pounds 2478
Dj@@ 2477
confusion 2477
rowing 2477
sustainable 2477
24.@@ 2476
explosion 2476
las 2476
stab@@ 2476
supp@@ 2476
GP 2475
Sti@@ 2475
stere@@ 2475
Rachel 2474
SL@@ 2474
agrees 2474
bred 2474
rin@@ 2474
Henri 2473
Iv@@ 2473
Rou@@ 2473
revived 2473
stan@@ 2473
preservation 2472
abortion 2471
coin 2471
eck@@ 2471
instructions 2471
optical 2471
Fab@@ 2470
GM 2470
nucle@@ 2470
port@@ 2470
scar@@ 2470
spectrum 2470
uer@@ 2470
facade 2469
Boy@@ 2468
Frankfurt 2468
Kirk@@ 2468
knows 2468
Depression 2467
crowned 2467
Inn 2466
aly 2465
consideration 2465
issi@@ 2465
profession 2465
1837 2464
Nathan 2464
borg 2464
corn 2464
crop 2464
mers 2464
Literary 2463
Edmund 2461
ethn@@ 2460
exemp@@ 2460
manuscripts 2460
torpedo 2459
urs 2459
Albania 2458
badly 2458
cler@@ 2458
stepped 2458
tum@@ 2458
Num@@ 2457
monitoring 2457
poorly 2457
withdraw 2457
1839 2456
27.@@ 2455
certainly 2455
mechanisms 2455
VC 2454
itz@@ 2454
Agu@@ 2453
Classical 2453
Dog 2453
Sei@@ 2453
consistently 2453
ples 2453
rid 2453
screenplay 2453
unc@@ 2453
Boeing 2452
ashing 2452
happen 2452
α 2452
Being 2451
colon@@ 2451
ease 2451
oom 2451
Spider 2450
Support 2450
bold 2450
ritual 2450
Coalition 2449
Ever@@ 2449
asis 2449
ib 2449
1500 2448
Lutheran 2447
Pay@@ 2447
Cornwall 2446
Kumar 2446
symbols 2446
ö@@ 2446
28@@ 2445
Pick@@ 2445
autom@@ 2445
naturally 2445
1838 2444
Calgary 2444
Log@@ 2444
Reynolds 2444
140 2443
Milton 2443
advocated 2443
ector 2443
hen@@ 2443
Psych@@ 2442
apolog@@ 2442
xed 2442
Feder@@ 2441
Laz@@ 2441
cycles 2441
Ey@@ 2440
Nadu 2440
ories 2440
sits 2440
tackle 2440
administrator 2439
André 2438
gal@@ 2438
sal 2438
Inter 2437
capabilities 2437
developers 2437
sacred 2437
sculptor 2437
Yar@@ 2436
ologies 2436
acclaimed 2435
lay@@ 2435
ond 2435
1832 2434
Etymology 2434
oria 2434
researcher 2434
Administrative 2433
Glen 2433
assing 2433
use@@ 2433
icus 2432
landmark 2432
Rav@@ 2431
Tir@@ 2431
Chand@@ 2430
Salvador 2430
aggressive 2430
chorus 2430
enjoy 2430
Lords 2429
Plymouth 2429
premises 2429
statistical 2429
streaming 2429
town@@ 2429
gi 2428
marsh@@ 2428
orts 2428
Albany 2427
Slovenia 2426
Hab@@ 2425
athletics 2425
exec@@ 2425
gri@@ 2425
thriller 2425
Yor@@ 2424
interrupted 2424
vulnerable 2424
Founded 2423
Herzegovina 2423
arose 2423
cho@@ 2423
navy 2423
slopes 2423
Americas 2422
Fraser 2422
comprised 2422
oons 2422
thes@@ 2422
Thr@@ 2421
horizontal 2421
mented 2421
socialist 2421
Rah@@ 2419
fortune 2419
grass@@ 2419
Claude 2418
Patri@@ 2418
SH 2417
architects 2417
elt 2417
innovative 2417
unveiled 2417
Physics 2416
chem@@ 2416
dium 2416
measuring 2416
revenge 2416
shield 2416
Case 2415
Harbour 2415
delegation 2415
mills 2414
reader 2414
Belfast 2413
Emmy 2413
Nur@@ 2413
Prussian 2413
proclaimed 2413
ure@@ 2413
rus 2412
tig@@ 2412
25th 2411
Wis@@ 2411
aller 2411
eig@@ 2411
gle 2411
turn@@ 2411
Burns 2410
Domin@@ 2410
Eve 2410
Sisters 2410
Tropical 2410
considerably 2410
Kosovo 2409
viewing 2409
Cham@@ 2408
acle 2408
compact 2408
kov@@ 2408
opposing 2408
sex@@ 2408
Anton@@ 2407
Tah@@ 2407
bankruptcy 2407
elect 2407
interviewed 2407
promotional 2407
Porter 2406
adv@@ 2406
gn@@ 2406
orientation 2406
respec@@ 2406
succeed 2406
Reid 2405
atics 2405
depicts 2405
rushing 2405
otype 2404
wake 2404
wild@@ 2404
Cox 2403
rely 2403
vinyl 2403
Cass@@ 2402
Sep@@ 2402
beds 2402
conversation 2402
convert 2402
limestone 2402
semifinals 2402
gue 2401
ishment 2401
pass@@ 2401
Rain@@ 2400
circles 2400
northwestern 2400
Edmonton 2398
alla 2398
ares 2398
fas@@ 2397
orb@@ 2397
basement 2396
customs 2396
proportion 2396
Southwest 2395
discussions 2395
omes 2395
1836 2394
Musi@@ 2394
RI@@ 2394
bout 2394
Cinema 2393
Rosa 2393
refer@@ 2393
altern@@ 2392
iana 2392
vicinity 2392
Agricultural 2391
disputed 2391
iet 2391
nominee 2390
scattered 2390
pan 2389
shipped 2389
gie 2388
brands 2387
hub 2387
ū 2387
Penn@@ 2386
mas@@ 2386
terrorist 2386
Religion 2385
sar 2385
tiles 2385
Horn@@ 2384
interpre@@ 2384
Lancaster 2383
Paralympics 2383
fin 2383
lease 2383
4.5 2382
aton 2382
hurricane 2382
Crystal 2381
Muk@@ 2381
physically 2381
recover 2381
ulus 2381
Burton 2380
refuses 2380
suburban 2380
Contest 2379
cov@@ 2379
ped 2379
saving 2379
Andrea 2377
Beau@@ 2377
McDonald 2377
recreational 2377
thy 2377
Sik@@ 2376
eks 2376
mosque 2376
ppers 2376
Đ@@ 2376
Frank@@ 2375
Rivers 2375
Roman@@ 2375
repairs 2374
Catholics 2373
Jennifer 2373
summar@@ 2373
Us@@ 2372
Zar@@ 2372
explored 2372
healthcare 2372
oval 2372
usa 2371
23.@@ 2370
360 2370
attract 2370
eighteen 2370
itude 2370
outcome 2370
PP 2369
len@@ 2369
organize 2369
rain@@ 2369
Dru@@ 2368
Path@@ 2368
jointly 2368
leb@@ 2368
voltage 2368
Alexandria 2367
Hak@@ 2367
Halifax 2367
Jal@@ 2367
Wagner 2367
lica 2367
offense 2367
opens 2367
vital 2367
Movie 2366
UC 2366
clin@@ 2366
umps 2366
Til@@ 2365
Writers 2365
har 2365
kinds 2365
21.@@ 2364
Discovery 2364
Indo 2364
Rog@@ 2364
Tem@@ 2363
aris 2363
legendary 2363
ling@@ 2362
rulers 2362
scales 2361
dimensions 2360
ogen@@ 2360
0,000 2359
hamlet 2359
iff 2359
kit 2359
Near 2358
omet@@ 2358
uda 2358
gates 2357
noticed 2357
sponsor 2357
stal@@ 2357
trick 2357
Devon 2356
Organ@@ 2356
facilitate 2356
Bond 2355
aus 2355
batt@@ 2355
exhibits 2355
recurring 2355
Criminal 2354
Gene 2354
crucial 2354
desired 2353
Working 2352
feminist 2352
host@@ 2352
Dri@@ 2351
flagship 2351
inas 2351
organis@@ 2351
polic@@ 2351
woods 2351
P.@@ 2350
Springfield 2350
ern 2350
gall@@ 2350
lifting 2350
oak 2350
origin@@ 2350
Hell 2349
isha 2349
Physical 2348
Warriors 2348
blind 2348
caps 2348
rhythm 2348
til@@ 2348
uba 2348
Day@@ 2347
investigations 2347
rays 2347
sky@@ 2347
surrendered 2346
Istanbul 2345
Guild 2344
Seminary 2344
emigrated 2344
seal 2344
Phot@@ 2343
fic@@ 2343
implement 2343
responsibilities 2343
Bac@@ 2342
Never 2342
alize 2342
trophy 2342
1842 2341
excess 2341
murders 2341
FF 2340
Inf@@ 2340
bulk 2340
ext@@ 2340
mas 2340
tification 2340
alo 2339
molecules 2339
ove 2339
wait 2339
yne 2339
ș@@ 2339
Rein@@ 2338
lesser 2338
monks 2338
theor@@ 2338
ï@@ 2338
Brook 2337
MI@@ 2336
paras@@ 2336
sweet 2336
acre 2335
age@@ 2334
placement 2334
unity 2334
breed 2333
iv 2333
lanes 2333
wen 2333
Exhibition 2332
Martha 2332
Meh@@ 2332
Pir@@ 2332
eira 2332
instructor 2332
Hir@@ 2331
Macedonia 2331
finale 2331
wrestler 2331
NY@@ 2330
amin@@ 2330
conspiracy 2330
referee 2330
uki 2330
Monte 2329
Rich@@ 2329
Ut@@ 2329
ancing 2329
proceedings 2329
toll 2329
compatible 2328
elt@@ 2328
esian 2328
35@@ 2327
composers 2327
graduates 2327
novelist 2327
reserved 2327
substance 2327
synthesis 2327
umi 2327
NSW 2326
Sham@@ 2326
killer 2326
anza 2325
clerk 2325
CIA 2324
ID 2324
bun@@ 2324
1843 2323
CN@@ 2323
amba 2323
con 2323
prohibited 2323
stance 2323
Broad@@ 2322
Copa 2322
Rhine 2322
Tourism 2322
removing 2322
Compar@@ 2321
deployment 2320
Aber@@ 2319
Seoul 2319
availability 2319
cked 2319
dit 2319
emia 2319
cluster 2318
ehouse 2318
grandmother 2318
opes 2318
saf@@ 2318
pling 2317
Eff@@ 2316
Gos@@ 2316
Ve@@ 2316
boxes 2316
convoy 2316
distinguish 2316
sville 2316
Buddhism 2315
Wyoming 2315
typ@@ 2315
Zo@@ 2314
erst@@ 2314
subfamily 2314
Ellen 2313
minist@@ 2313
Portsmouth 2312
encies 2312
&apos;Brien 2311
Access 2311
marble 2311
Fellowship 2310
navigation 2310
priority 2310
sav@@ 2310
unsuccessfully 2310
Emer@@ 2309
kov 2308
vent 2308
drives 2307
uta 2307
Boo@@ 2306
Publications 2306
Theodore 2306
masters 2306
penet@@ 2306
purple 2306
1815 2305
Change 2305
constituted 2305
mann@@ 2305
otted 2305
presenter 2305
rendered 2305
tif@@ 2305
Train 2304
cali@@ 2304
certificate 2304
Poll@@ 2303
Richards 2303
filling 2303
Prussia 2302
capit@@ 2302
deser@@ 2302
fossil 2302
maj@@ 2302
decree 2301
essay 2301
Harper 2300
Kad@@ 2300
mineral 2300
arguments 2299
geographical 2299
rah 2299
Frances 2298
Head@@ 2298
beg@@ 2298
erb@@ 2298
Johnston 2297
ba@@ 2297
chen 2297
Full 2296
Speedway 2296
Gel@@ 2295
explanation 2295
estone 2294
peninsula 2294
rams 2294
Cohen 2293
Miss@@ 2293
NT@@ 2293
dressed 2293
sman 2293
izer 2292
Kim@@ 2291
Sweet 2291
aan 2291
arguing 2291
conserv@@ 2291
mes@@ 2291
pled 2291
propaganda 2291
bourne 2290
folded 2290
inland 2290
underlying 2290
utility 2290
highways 2289
Baltic 2288
Sla@@ 2288
eshi@@ 2288
hypothesis 2288
knocked 2288
remarkable 2288
Bob@@ 2287
liver 2287
1835 2286
IF@@ 2286
bits 2286
Beyond 2284
Rocky 2284
contracted 2284
eli 2284
innovation 2284
mythology 2283
Forbes 2282
Moses 2282
cameras 2282
itioned 2282
performer 2282
valued 2282
Sap@@ 2281
Various 2281
best@@ 2281
specimen 2281
Adri@@ 2280
Directors 2280
scrip@@ 2280
Apart 2279
Banks 2279
deer 2279
invitation 2279
notion 2279
pron@@ 2279
Single 2278
commerce 2278
maternal 2278
rings 2278
Factory 2277
Kyle 2277
bet 2277
cloud 2277
dus 2277
examined 2277
fra@@ 2277
rically 2277
tract 2277
29@@ 2276
Carlo 2276
Diana 2276
McG@@ 2276
Mercury 2276
Dat@@ 2275
Rich 2275
Self 2275
kel@@ 2275
runway 2275
spe@@ 2275
Barnes 2274
Bath 2274
ael 2274
dinner 2274
proximity 2274
Bronze 2273
Headquarters 2273
Jack@@ 2273
nia 2273
ody 2273
orum 2273
pollution 2273
rical 2273
Lum@@ 2271
ahan 2271
dic 2271
endorsed 2271
supervision 2271
Cann@@ 2270
Pep@@ 2270
Malaysian 2269
Hugo 2268
Manor 2268
pipe 2268
Chess 2267
Nacional 2267
gods 2267
philosopher 2267
salary 2267
ears 2266
nationalist 2266
DE 2265
Euro 2265
Wednesday 2265
highlighted 2265
lateral 2265
pine 2265
story@@ 2265
taste 2265
Churchill 2264
Fir@@ 2264
Sever@@ 2264
cool 2264
eries 2264
fying 2264
ocy@@ 2264
Faith 2263
Linda 2263
PL@@ 2263
Style 2263
su 2263
Ale@@ 2262
Morrison 2262
frag@@ 2262
inn 2262
Inside 2261
Salem 2261
lio 2261
obvious 2261
performs 2261
spelled 2261
ATP 2260
División 2260
Haj@@ 2260
inian 2260
Arctic 2259
lag@@ 2259
endangered 2258
iko 2258
sectors 2258
Learning 2257
Monroe 2257
aths 2257
chi@@ 2257
imported 2257
vik 2257
Fut@@ 2256
achieving 2256
download 2256
membrane 2256
Bros. 2255
Ulster 2255
nights 2255
PR 2254
bike 2254
dome 2254
gastropod 2254
presenting 2254
yth@@ 2254
28.@@ 2253
Ethiopia 2253
NASCAR 2253
Plat@@ 2253
geons 2253
Lines 2252
Spar@@ 2252
alumni 2252
diving 2252
gy@@ 2252
lifestyle 2252
Gaelic 2251
altar 2251
differ 2250
politically 2250
successive 2250
Snow 2249
ifying 2249
sely 2249
vacc@@ 2249
Baronet 2248
apartments 2248
human@@ 2248
phil@@ 2248
sculptures 2248
shar@@ 2248
Cornell 2247
industri@@ 2247
museums 2247
Stro@@ 2246
carriage 2246
frames 2246
minimal 2246
ancestry 2245
ceiling 2245
scor@@ 2245
Arc@@ 2244
arc 2244
bic@@ 2244
eb 2244
loyal 2244
mates 2244
regiments 2244
reopened 2244
rio 2244
ESPN 2243
Web 2243
protagonist 2243
Watch 2242
sively 2242
break@@ 2241
š 2241
Prison 2240
rier 2240
sided 2240
strategies 2240
tically 2240
Jav@@ 2239
Zimbabwe 2239
hero@@ 2239
DR 2238
Step@@ 2238
batteries 2238
bos@@ 2238
connec@@ 2238
cycling 2238
guar@@ 2238
manip@@ 2238
organizing 2238
prohib@@ 2238
Store 2237
adap@@ 2237
priv@@ 2237
disciplinary 2236
draws 2236
anism 2235
pull 2235
Karen 2234
SW@@ 2232
ennial 2232
gin@@ 2232
ounds 2232
stint 2232
Rochester 2231
ew 2231
fights 2231
forec@@ 2231
foundations 2231
obtaining 2231
tag@@ 2231
workshop 2231
Leicester 2230
ceremonies 2230
secular 2230
shut@@ 2230
velocity 2230
dges 2229
dle 2229
raids 2229
spotted 2229
delegates 2228
millions 2228
terminated 2228
Angel@@ 2227
Apollo 2227
Haven 2227
Picture 2227
declaration 2227
depot 2227
worthy 2227
bonds 2226
kids 2226
Beck@@ 2225
CT@@ 2225
Online 2225
class@@ 2225
national@@ 2225
pel@@ 2225
roy 2225
satis@@ 2225
tail@@ 2225
Thursday 2224
breast 2224
Chilean 2223
ki@@ 2223
ont 2223
www.@@ 2223
cabin 2222
hil@@ 2222
proven 2222
FK 2221
cow@@ 2221
voices 2221
Come 2220
Sons 2220
donations 2220
humanity 2220
22.@@ 2219
BE@@ 2219
preventing 2219
uchi 2219
aru 2218
battalions 2218
calculated 2218
longtime 2218
powder 2218
Cum@@ 2217
abe 2217
commissioner 2217
enes 2217
ga@@ 2216
tactics 2216
uff 2216
Chuck 2215
Kazakhstan 2215
allied 2215
escort 2215
Elliott 2214
accompanying 2214
consumers 2214
entities 2214
ouse 2214
Cot@@ 2213
Lynn 2213
Silva 2213
View 2213
bread 2213
consciousness 2213
fiscal 2213
tham 2212
Money 2211
shirt 2211
GB 2210
Testament 2210
bis 2210
flo@@ 2210
icon 2210
keeper 2210
SB 2209
stip@@ 2209
Kath@@ 2208
commercially 2208
Yankees 2207
chlor@@ 2207
dem 2207
factories 2207
ño 2207
Bast@@ 2206
initiatives 2206
Sheriff 2205
disabled 2205
induced 2205
Shu@@ 2204
Xi@@ 2204
bounded 2204
differenti@@ 2204
Chang@@ 2203
Nottingham 2203
Taxonomy 2203
lifted 2203
Carol 2202
Must@@ 2202
payments 2202
Jake 2201
Te 2201
Winnipeg 2201
managers 2201
Aberdeen 2200
Estonian 2200
Glenn 2200
Lec@@ 2200
escence 2200
throwing 2200
Swimming 2199
minim@@ 2199
motorcycle 2199
Combat 2198
accidentally 2198
iter@@ 2198
Hut@@ 2197
Level 2197
invested 2197
custody 2196
electron 2196
sla@@ 2196
Da 2195
Recent 2195
Slovakia 2195
companion 2195
dence 2195
neo 2195
phosph@@ 2195
ratic 2195
rations 2195
shaft 2195
Algeria 2194
Nobel 2194
UFC 2194
parade 2194
Devil 2193
Overall 2193
lady 2193
neutr@@ 2193
NA@@ 2192
depl@@ 2192
ough@@ 2192
² 2192
Newman 2191
milli@@ 2191
truly 2191
1814 2190
Dod@@ 2190
edo 2190
enhanced 2190
LO@@ 2189
acceptable 2189
aristoc@@ 2189
elli@@ 2189
romance 2189
ski@@ 2189
Gerald 2188
Islam@@ 2188
flowing 2188
sta@@ 2187
Software 2186
otypes 2186
Goo@@ 2185
ener 2185
lining 2185
wives 2185
Lion 2184
SD@@ 2184
UP 2184
demonstrate 2184
kick@@ 2184
Elections 2183
challenging 2183
directions 2183
evaluation 2183
gency 2183
ners 2183
Marines 2182
tern 2182
Ther@@ 2181
harbour 2181
Edwin 2179
Six@@ 2179
demonstration 2179
iors 2179
item 2179
snail 2179
IL 2178
Jesse 2178
Lebanese 2178
Vale 2178
heroes 2178
Del 2176
dup@@ 2176
artifacts 2175
atti 2175
contestants 2175
enterprise 2175
och 2175
Associate 2174
abol@@ 2174
acker 2174
adia 2174
alp@@ 2174
dible 2174
dict@@ 2173
ll 2173
veterans 2173
Choice 2172
Ori@@ 2172
bour@@ 2172
crashed 2172
trim 2172
1.6 2171
1834 2171
Bavaria 2171
Cat 2171
Santos 2171
Shin@@ 2171
Tok@@ 2171
disorders 2171
eans 2171
essays 2171
105 2170
ador@@ 2170
Julius 2169
Table 2169
complicated 2169
Ludwig 2168
Similar 2168
Tos@@ 2168
arg@@ 2168
asted 2168
settings 2168
~ 2168
Annie 2167
Hell@@ 2167
Leon@@ 2167
Wyn@@ 2167
achi 2167
pap@@ 2167
rectangular 2167
roman@@ 2167
yman 2167
comfortable 2166
meg@@ 2166
Nab@@ 2165
Raja 2165
fla@@ 2165
loans 2165
lover 2165
Ballet 2164
Thames 2164
boun@@ 2164
partnered 2164
Industries 2163
Kids 2163
Nem@@ 2163
regulated 2163
Hei@@ 2162
chan@@ 2162
diplomat 2162
labels 2162
orous 2162
rot 2162
Kid@@ 2161
Og@@ 2161
mammals 2161
merchants 2161
phy@@ 2161
1.1 2160
Heaven 2160
nomin@@ 2160
old@@ 2160
sponsorship 2160
sudden 2160
BL 2159
auction 2159
elderly 2159
gement 2159
itar@@ 2159
Fighting 2158
lap@@ 2158
miss 2158
BB@@ 2157
Crist@@ 2157
Kul@@ 2157
detection 2157
feder@@ 2157
marketed 2157
Antarctic 2156
Marion 2156
mystery 2156
ocking 2156
violin 2156
Constitutional 2155
uh@@ 2155
Walt 2154
chester 2154
convic@@ 2154
remin@@ 2154
Ecuador 2153
Sle@@ 2153
heating 2153
rod 2153
appropri@@ 2152
dropping 2152
steep 2152
bir@@ 2151
nic@@ 2151
epi@@ 2150
rescued 2150
rookie 2150
Mine 2149
careers 2149
insisted 2149
main@@ 2149
rub@@ 2149
sick 2149
absent 2148
gew@@ 2148
night@@ 2148
oku 2148
rebel 2148
AV@@ 2147
Ble@@ 2147
Grammar 2147
HA 2147
emissions 2147
hotels 2147
orchest@@ 2147
poets 2147
rap 2147
0.5 2146
Myanmar 2146
Nin@@ 2146
Nun@@ 2146
dom@@ 2146
scre@@ 2146
CF 2145
Edgar 2145
Heinrich 2145
accommodation 2145
boxer 2145
accuracy 2144
yang 2144
Hayes 2143
dol@@ 2143
fan@@ 2143
possessed 2143
protesters 2143
tobacco 2143
vacant 2143
Back@@ 2142
Emergency 2142
neighbourhood 2142
premier 2142
qualities 2142
rein@@ 2142
transm@@ 2142
var 2142
Gw@@ 2141
Index 2141
Individual 2141
may@@ 2141
activ@@ 2140
amma 2140
contrac@@ 2140
Brother 2139
Corn@@ 2139
BO@@ 2137
Ek@@ 2137
advancing 2137
dealt 2137
spite 2137
Colony 2136
Newfoundland 2136
enter@@ 2136
eur 2136
trucks 2136
Ladies 2135
adjust@@ 2135
fur 2135
parishes 2135
witnessed 2135
Dorothy 2134
Dul@@ 2134
chaired 2134
lengths 2134
metric 2134
reb@@ 2134
Yos@@ 2133
monuments 2133
rill 2133
editing 2132
hectares 2132
inos 2132
prominence 2132
Dale 2131
Jeremy 2131
Louisville 2131
Yu 2131
preceding 2131
α@@ 2131
Physi@@ 2130
enton 2130
specially 2130
Previously 2129
ander@@ 2129
continuously 2129
immigrant 2129
neighborhoods 2129
uprising 2129
Wimbledon 2128
Crawford 2127
Gospel 2127
amps 2127
count@@ 2127
fa 2127
hire 2127
500,000 2126
Chil@@ 2126
Religious 2126
endra 2126
fun@@ 2126
ild@@ 2126
reconnaissance 2126
shel@@ 2126
vari@@ 2126
Happy 2125
akh@@ 2125
enacted 2125
immune 2125
recommendations 2125
Carroll 2124
Flor@@ 2124
barrel 2124
chase 2124
Luxembourg 2123
harm 2123
particle 2123
recogn@@ 2123
rubber 2123
static 2123
0,@@ 2122
Chiefs 2122
Supp@@ 2122
ecting 2122
prev@@ 2122
t. 2122
Mall@@ 2121
Twin 2121
quit 2121
Housing 2120
Nap@@ 2120
Tel 2120
broad@@ 2120
elaborate 2120
itch 2120
oming 2120
Than@@ 2119
bu 2119
verb 2119
Stock@@ 2118
controlling 2118
cooking 2118
deceased 2118
lac@@ 2118
treating 2118
Grand@@ 2117
Malcolm 2117
Maritime 2117
Superior 2117
bad@@ 2117
ditions 2117
lens 2117
responses 2117
Ibn 2116
MW 2116
Speed 2116
Task 2116
errors 2116
geometry 2116
intact 2116
00,000 2115
Afghan 2115
Raiders 2115
agn@@ 2115
amen 2115
nurse 2115
Sherman 2114
invaded 2114
Jamie 2113
believing 2113
fail 2113
kan 2113
ould 2113
tern@@ 2113
Lay@@ 2112
Patriots 2112
kil@@ 2112
tos 2112
urged 2112
Constantinople 2111
holders 2111
Sev@@ 2110
Tasmania 2110
cular 2110
Film@@ 2109
Marco 2109
eph@@ 2109
proceeds 2109
undertook 2109
Burma 2107
GT 2107
protecting 2107
reinforced 2107
unk 2106
accounting 2105
diver@@ 2105
abstract 2104
cream 2104
issa 2104
oshi 2104
uka 2104
Drake 2103
FO@@ 2103
Just@@ 2103
appealed 2103
bra 2103
chest 2103
respond 2103
sac@@ 2103
skaya 2103
witnesses 2103
Pirates 2102
Spe@@ 2102
destroyer 2102
inspec@@ 2102
openly 2102
stran@@ 2102
ér@@ 2102
copyright 2101
perception 2101
rats 2101
warned 2101
Amar@@ 2100
Bug@@ 2100
Show@@ 2100
ems 2100
oping 2100
shan 2100
Charleston 2099
Doug 2099
Large 2099
Scout 2099
fat 2099
introducing 2099
uss 2099
Cairo 2098
Educational 2098
PGA 2098
Victory 2098
chard 2098
creek 2098
refuge 2098
Mall 2097
angles 2097
beck 2097
coloured 2097
Á@@ 2097
1831 2096
Laur@@ 2096
Shadow 2096
consecrated 2096
mandatory 2096
succ@@ 2096
volcanic 2096
én 2096
activation 2095
batted 2095
lacked 2095
Budapest 2094
Burke 2094
ballet 2094
eze 2094
gly@@ 2094
plat@@ 2094
reviewer 2094
tile 2094
Beatles 2093
Franc@@ 2093
eus 2093
Bit@@ 2092
ague 2092
broadcaster 2092
branded 2091
interference 2091
testimony 2091
HP 2090
Ho 2090
IB@@ 2090
monitor 2090
opted 2090
regist@@ 2090
thri@@ 2090
tune 2090
Eye 2089
Janeiro 2089
Metal 2089
Blair 2088
Gay@@ 2088
L.@@ 2088
climbing 2088
equality 2088
pursuit 2088
retire 2088
zen 2088
inned 2087
oxide 2087
phen@@ 2087
Joshua 2086
knowing 2086
lee 2086
raced 2086
1.3 2085
Tribune 2085
bull 2085
hap@@ 2085
storey 2085
Chemical 2083
Programme 2083
barrier 2083
bran@@ 2083
Statistical 2082
surgeon 2082
climb 2081
eption 2081
Indoor 2080
ensu@@ 2080
governance 2080
hide 2080
loose 2080
objectives 2080
odes 2080
oured 2080
outlets 2080
respected 2080
Adult 2079
Brun@@ 2079
Ernst 2079
disk 2079
eti 2079
infected 2079
uncertain 2079
Et@@ 2078
Minneapolis 2078
Summit 2078
Theory 2078
admission 2078
Claire 2077
Insurance 2077
Nuclear 2077
Well@@ 2077
aste 2077
ints 2077
adopt 2076
emig@@ 2076
Episode 2075
Gas@@ 2075
Ric@@ 2075
postponed 2075
professionally 2075
Fle@@ 2074
Sed@@ 2074
inga 2074
knockout 2074
Carnegie 2073
Glass 2072
Panthers 2072
Rak@@ 2072
owa 2072
rankings 2072
Glen@@ 2071
alities 2071
idal 2071
plantation 2071
polar 2070
Emp@@ 2069
Link 2069
Lip@@ 2069
Uruguay 2069
Yugoslav 2069
embassy 2069
onds 2069
Shore 2068
tain@@ 2068
Fall@@ 2067
Rig@@ 2067
cognitive 2067
1820 2066
flown 2066
Baldwin 2065
Chronicle 2065
Yan@@ 2065
Zi@@ 2065
aco 2065
news@@ 2065
seeks 2065
Madonna 2064
Raf@@ 2064
fragments 2064
à@@ 2064
Ox@@ 2063
constituencies 2063
hoo@@ 2063
loads 2063
narrowly 2063
pent@@ 2063
transmitter 2063
Fat@@ 2062
Nixon 2062
Vor@@ 2062
aided 2062
carriers 2062
rider 2062
120@@ 2061
Vari@@ 2061
Walsh 2061
collector 2061
disputes 2061
lab 2061
liter@@ 2061
oko 2061
Holocaust 2060
buying 2060
conquered 2060
gia 2060
icide 2060
profits 2060
reunited 2060
Chang 2059
Set 2059
Strait 2059
wel 2059
conviction 2058
overcome 2058
Romans 2057
Sty@@ 2057
Tag 2057
trails 2057
Appeals 2056
civic 2056
derives 2056
itated 2056
opp@@ 2056
slope 2056
ô@@ 2056
Aftermath 2055
Chin@@ 2055
Māori 2055
SF 2055
nal 2055
side@@ 2055
Mohammad 2054
Reb@@ 2054
Č@@ 2054
Ost@@ 2053
Pall@@ 2053
storms 2053
otta 2052
pick@@ 2052
platinum 2052
west@@ 2052
70@@ 2051
oct@@ 2051
toler@@ 2051
Bach 2050
preceded 2050
.A. 2049
Clay 2049
Dubai 2049
ace@@ 2049
diagnosis 2049
linking 2049
AO@@ 2048
SV 2048
aders 2048
crews 2048
divi@@ 2048
finger 2048
locals 2048
mount 2048
orship 2048
pression 2048
stabili@@ 2048
tica 2048
uru 2048
Pine 2047
amendment 2047
etto 2047
provider 2047
án@@ 2047
102 2046
Batman 2046
Succ@@ 2046
charted 2046
contents 2046
eable 2046
scripts 2046
Riv@@ 2045
sail 2045
wara 2045
1833 2044
Logan 2044
acceptance 2044
acon 2044
reasonable 2044
40,000 2043
Zu@@ 2043
dging 2043
gross 2043
yr 2043
Schedule 2042
themed 2042
Gren@@ 2041
a.@@ 2041
lar 2041
recreation 2041
Kenny 2040
arius 2040
smoke 2040
3000 2039
marched 2039
saint 2039
Zero 2038
dorsal 2038
eder 2038
Hed@@ 2037
Solar 2037
aud 2037
communic@@ 2037
missionaries 2037
terrorism 2037
Institution 2036
cand@@ 2036
mysterious 2036
server 2036
skating 2036
tac@@ 2036
complaints 2035
judgment 2035
projected 2035
Fire@@ 2034
dollar 2034
threatening 2034
zer@@ 2034
Berry 2033
Doubles 2033
F.@@ 2033
accoun@@ 2033
idd@@ 2033
natur@@ 2033
Hoo@@ 2032
hot@@ 2032
Arms 2031
Twenty 2031
organ@@ 2031
skilled 2031
tickets 2031
uring 2031
ð@@ 2031
Julie 2030
pot 2030
seating 2030
Hart@@ 2029
foli@@ 2029
itted 2029
luxury 2029
revolt 2029
stairs 2029
Observatory 2028
ision 2027
slot 2027
Enterprise 2026
Well 2026
Yak@@ 2026
atorial 2026
refin@@ 2026
Fon@@ 2025
Jin 2025
Jo 2025
Magn@@ 2025
Wid@@ 2025
andra 2025
capability 2025
7.5 2024
Female 2024
Hav@@ 2024
idity 2024
mir@@ 2024
wishes 2024
advantages 2023
ky@@ 2023
passion 2023
progres@@ 2023
yield 2023
Clara 2022
Edge 2022
ITV 2022
attractive 2022
protocol 2022
Ghost 2021
Sebastian 2021
agar 2021
pastor 2021
strings 2021
tively 2021
Communication 2020
Id@@ 2020
ny@@ 2020
perpet@@ 2020
pregnancy 2020
Settlement 2019
cone 2019
sizes 2019
detected 2018
enna 2018
neys 2018
rad@@ 2018
} 2018
Fen@@ 2017
Khar@@ 2017
Mathematics 2017
Pand@@ 2017
Rest@@ 2017
Vision 2017
arran@@ 2016
enclosed 2016
leased 2016
lock@@ 2016
wn 2016
esman 2015
essions 2015
yan@@ 2015
comedian 2014
dissolution 2014
Half 2013
deci@@ 2013
Liv@@ 2012
opinions 2012
Ing@@ 2011
bombs 2011
recei@@ 2011
wheat 2011
T.@@ 2010
Tot@@ 2010
complexity 2010
rets 2010
ą@@ 2010
Betty 2009
Johns 2009
Southampton 2009
Volume 2009
airfield 2009
geographic 2009
29.@@ 2008
50th 2008
Tap@@ 2008
eric 2008
eliminate 2007
ghton 2007
gray 2007
lawyers 2007
wished 2007
conduc@@ 2005
maritime 2005
resided 2005
Fund@@ 2004
Sund@@ 2004
contacts 2004
instruc@@ 2004
loaned 2004
measurement 2004
nesses 2004
Sta@@ 2003
Streets 2003
cats 2003
providers 2003
sphere 2003
MPs 2002
Mahar@@ 2002
Northeast 2002
certification 2002
chin 2002
Hood 2001
trafficking 2001
Holl@@ 2000
Leadership 2000
Planet 2000
councils 2000
inform@@ 2000
transform 2000
wit@@ 2000
Andre@@ 1999
Joel 1999
Lisbon 1999
Outside 1999
alien 1999
prosecution 1999
traction 1999
25,000 1998
Syracuse 1998
Willie 1998
ango 1998
blog 1998
odd 1998
Treasury 1997
Built 1996
dé@@ 1996
violation 1996
Conn@@ 1995
Poetry 1995
Wick@@ 1995
recoun@@ 1995
screened 1995
tensions 1995
ysi@@ 1995
Coc@@ 1994
Eng@@ 1994
Hero 1994
correspondence 1994
fi 1994
inge 1993
instances 1993
mechan@@ 1993
nursing 1993
snake 1993
750 1992
Augustus 1992
SO 1992
aults 1992
educator 1992
gravity 1992
Dag@@ 1991
Heat 1991
Krishna 1991
Qatar 1991
generating 1991
ords 1991
unlikely 1991
Bron@@ 1990
drainage 1990
extrem@@ 1990
Legend 1989
Merit 1989
freshman 1989
ishi 1989
skull 1989
Marc@@ 1988
artic@@ 1988
cloth 1988
propag@@ 1988
Felix 1987
Structure 1987
osi@@ 1987
oves 1987
rug@@ 1987
speeds 1987
tation 1987
walked 1987
Fern@@ 1986
Shield 1986
blo@@ 1986
comb@@ 1986
erk@@ 1986
secretly 1986
1880s 1985
Confederation 1985
Que@@ 1985
fossils 1985
Francesco 1984
Lock@@ 1984
Motor@@ 1984
TO@@ 1984
Vie@@ 1984
cation 1984
critically 1984
dose 1984
measurements 1984
shells 1984
theaters 1984
Salv@@ 1983
teamed 1983
trol@@ 1983
-- 1982
Nev@@ 1982
advisory 1982
asan 1982
autobiography 1982
comment 1982
grand@@ 1982
illustrations 1982
speaks 1982
spelling 1982
1,500 1981
ushes 1981
Gill@@ 1980
bombers 1980
kur@@ 1980
Creative 1979
Fe 1979
solve 1979
Ig@@ 1978
a.m. 1978
destroying 1978
entrepreneur 1978
epp@@ 1978
erous 1978
mak@@ 1978
1.4 1977
Fiction 1977
Plan@@ 1977
Sli@@ 1977
laser 1977
nice 1977
regulatory 1977
viral 1977
15,000 1976
Boris 1976
TH@@ 1976
enlarged 1976
isc@@ 1976
isn 1976
variables 1976
wicket 1976
Oak@@ 1975
aching 1975
finalist 1975
phases 1975
ruption 1975
Biology 1974
Kurt 1974
Lob@@ 1974
N.@@ 1974
Soli@@ 1974
extraordinary 1974
ka@@ 1974
kicked 1974
traces 1974
Heath 1973
Kok@@ 1973
Mohammed 1973
Ou@@ 1973
alley 1973
nave 1973
retro@@ 1973
Georges 1972
Oh 1972
ible 1972
termed 1972
trap 1972
PT@@ 1971
True 1971
awar@@ 1971
defunct 1971
railways 1971
veness 1971
Cay@@ 1970
Cowboys 1970
Greatest 1970
Sanskrit 1970
eps 1970
Dylan 1969
equations 1969
paths 1969
spir@@ 1969
Belarus 1968
Brand@@ 1968
Charter 1968
Ferguson 1968
Tuesday 1968
bag 1968
granite 1968
Monument 1967
berger 1967
hostile 1967
30.@@ 1966
Asp@@ 1966
Bry@@ 1966
comparable 1966
eson 1966
searching 1966
Anton 1965
Expedition 1965
adher@@ 1965
broader 1965
crater 1965
curved 1965
fruits 1965
staying 1965
termin@@ 1965
Bombay 1964
discre@@ 1964
formats 1964
itary 1964
Plus 1963
hanging 1963
Bin@@ 1962
Fay@@ 1962
abor@@ 1962
bordered 1962
entally 1962
stems 1962
Dim@@ 1961
contributor 1961
decoration 1961
infl@@ 1961
Given 1960
Take 1960
Tang@@ 1960
els@@ 1960
Brad 1959
Jacob@@ 1959
Run@@ 1959
flank 1959
peac@@ 1959
Any 1958
ctions 1958
Empress 1957
Sugar 1957
aku 1957
caf@@ 1957
likes 1957
Fam@@ 1956
Stein@@ 1956
absor@@ 1956
backup 1956
eme 1956
explicitly 1956
orities 1956
smallest 1956
Marathon 1955
chassis 1955
distingu@@ 1955
dit@@ 1955
iga 1955
tram 1955
36@@ 1954
Eu@@ 1954
Troy 1954
Whitney 1954
coordinator 1954
iller 1954
utilized 1954
Bengali 1953
Sofia 1953
accredited 1953
evident 1953
kh 1953
rode 1953
000 1952
Gaz@@ 1952
Palm 1952
ko@@ 1952
60@@ 1951
Medi@@ 1951
assume 1951
holy 1951
risks 1951
sculp@@ 1951
DI@@ 1950
Fantasy 1950
Sicily 1950
Trinidad 1950
informal 1950
sep@@ 1950
trainer 1950
Clo@@ 1949
Sir@@ 1949
Suffolk 1949
boom 1949
kal@@ 1949
machinery 1949
nica 1949
productive 1949
Cs 1948
Telugu 1948
philosophical 1948
Yuan 1947
butterfly 1947
celebrations 1947
demanding 1947
design@@ 1947
osp@@ 1947
tech 1947
Cont@@ 1946
Four@@ 1946
amalg@@ 1946
explo@@ 1946
ij@@ 1946
newer 1946
remix 1946
dil@@ 1945
gla@@ 1945
1821 1944
GS 1944
Honorary 1944
Rhodes 1944
Shan@@ 1944
Pain@@ 1943
oper 1943
worse 1943
Body 1942
Lic@@ 1942
Rhin@@ 1942
anthrop@@ 1942
lev@@ 1942
zon 1942
20s 1941
Mechan@@ 1941
Metro@@ 1941
SEC 1941
anate 1941
power@@ 1941
quot@@ 1941
Bedford 1940
Fas@@ 1940
elia 1940
slight 1940
spacecraft 1940
Generation 1939
Nah@@ 1939
automobile 1939
musi@@ 1939
nobility 1939
respon@@ 1939
uth 1939
Easter 1938
UNESCO 1938
dged 1938
pottery 1938
pred@@ 1938
than@@ 1938
Darwin 1937
Rush 1937
Turk@@ 1937
atro@@ 1937
submarines 1937
Garcia 1936
Kerry 1936
Use 1936
happens 1936
Adrian 1935
Chemistry 1934
basi@@ 1934
oud 1934
Bolton 1933
Counties 1933
Providence 1933
chim@@ 1933
memories 1933
surveillance 1933
Animal 1932
G.@@ 1932
Row@@ 1932
mechanics 1932
mess@@ 1932
Call 1931
Chan 1931
Floyd 1931
Mou@@ 1931
Pow@@ 1931
eit 1931
gameplay 1931
mask 1931
struggles 1931
trailer 1931
Cancer 1930
Marshal 1930
ancestors 1930
cav@@ 1930
sch 1930
structured 1930
voluntary 1930
TE 1929
dining 1929
divine 1929
enia 1929
rov@@ 1929
schemes 1929
wre@@ 1929
Associated 1928
rolled 1928
sworn 1928
ules 1928
Hawaiian 1927
Roll 1927
jan@@ 1927
reflects 1927
Gener@@ 1926
Thomson 1926
academ@@ 1926
asser@@ 1926
combe 1926
inquiry 1926
transmitted 1926
Terminal 1925
sued 1925
Border 1924
Sara 1924
shaw 1924
umping 1924
weak@@ 1924
1825 1923
defines 1923
editors 1923
paved 1923
ا@@ 1923
Cort@@ 1922
MR@@ 1922
Vy@@ 1922
avoided 1922
coordinates 1922
descended 1922
sper@@ 1922
Ž@@ 1922
Bolivia 1921
Nord@@ 1921
ication 1921
perf@@ 1920
ña 1920
38@@ 1919
Lé@@ 1919
Pak@@ 1919
Sax@@ 1919
anders 1919
maneu@@ 1919
Leipzig 1918
Sometimes 1918
Stu@@ 1918
hiding 1918
translator 1918
Karnataka 1917
LLC 1917
Vernon 1917
ben 1917
flee 1917
gains 1917
speci@@ 1917
Jorge 1916
aid@@ 1916
ause 1915
enrollment 1915
osh 1915
descendant 1914
dialects 1914
drag 1914
strictly 1914
vaccine 1914
Meth@@ 1913
Sacramento 1913
bled 1913
system@@ 1913
Mog@@ 1912
acute 1912
combining 1912
inser@@ 1912
angry 1911
listening 1911
л@@ 1910
Reagan 1909
colleague 1909
definitely 1909
encomp@@ 1909
guidelines 1909
lah 1909
tun@@ 1909
ulture 1909
104 1908
Chennai 1908
Every@@ 1908
bey 1908
decorative 1908
ective 1908
equity 1908
haven 1908
realistic 1908
screening 1908
Kw@@ 1907
Mic@@ 1907
Baz@@ 1906
Electronic 1906
Graduate 1906
Prin@@ 1906
settling 1906
1.8 1905
1828 1905
8,000 1905
Anat@@ 1905
Cumberland 1905
Heavyweight 1905
Mack@@ 1905
Partners 1905
Sex 1905
busy 1905
dancers 1905
electronics 1905
missiles 1905
Archives 1904
Downtown 1904
Gay 1904
hara 1904
livestock 1904
realizes 1904
tal 1904
Snow@@ 1903
licence 1903
lighter 1903
spectators 1903
Cloud 1902
Gat@@ 1902
Jacksonville 1902
Neur@@ 1902
anthology 1902
beta 1902
codi@@ 1902
hen 1902
keyboard 1902
Gru@@ 1901
counting 1901
fabric 1901
methyl@@ 1901
invention 1900
DM@@ 1899
Ferry 1899
Linux 1899
UP@@ 1899
couldn 1899
similarities 1899
tornado 1899
well@@ 1899
Derek 1898
Marriage 1898
Nau@@ 1898
bicycle 1898
exercises 1898
ought 1898
shortened 1898
trace 1898
aesthetic 1897
hus@@ 1897
ignored 1897
mass@@ 1897
modi@@ 1897
step@@ 1897
Casey 1896
Fuj@@ 1896
advocacy 1896
bigger 1896
celebrity 1896
enhance 1896
portfolio 1896
seemingly 1896
subtropical 1896
Herman 1895
floating 1895
ghost 1895
indie 1895
mans 1895
wingspan 1895
1810 1894
Maxwell 1894
Rol@@ 1894
canceled 1894
dust 1894
fel@@ 1894
oking 1894
ping 1894
SR@@ 1893
excluded 1893
goddess 1893
strain 1893
Below 1892
chains 1892
east@@ 1892
costume 1891
rist 1891
Kav@@ 1890
clergy 1890
ried 1890
sho@@ 1890
wound 1890
200,000 1889
graph@@ 1889
cruise 1888
differential 1888
garage 1888
lords 1888
rower 1888
Basel 1887
Webb 1887
diamond 1887
fru@@ 1887
swing 1887
tasked 1887
IF 1886
Wei 1886
audi@@ 1886
commanders 1886
ento 1886
leather 1886
seasonal 1886
servants 1886
Altern@@ 1885
Bloom@@ 1885
Bulldogs 1885
Mail 1885
Stories 1885
ede 1885
Internal 1884
Phase 1884
Rica 1884
prosec@@ 1884
ML@@ 1883
Mind 1883
myth@@ 1883
Past@@ 1882
Telegraph 1882
clos@@ 1882
icing 1882
peaceful 1882
swept 1882
Denis 1881
SF@@ 1881
adds 1881
traits 1881
10,@@ 1880
Battery 1880
Santo 1880
differs 1880
Ming 1879
Origin 1879
UTC 1879
cliffe 1879
computing 1879
engaging 1879
Duchy 1878
ios 1878
ograph 1878
websites 1878
Consi@@ 1877
Match 1877
replied 1877
sunk 1877
Stan 1876
struggling 1876
UCLA 1875
acking 1875
coupled 1875
legitimate 1875
partisan 1875
Bruno 1874
Cave 1874
Heavy 1874
Laws 1874
Madagascar 1874
Tales 1874
Things 1874
bot@@ 1874
eil@@ 1874
etus 1874
immun@@ 1874
Buddha 1873
Tanzania 1873
abbreviated 1873
bio@@ 1873
García 1872
Papua 1872
ebo@@ 1872
ft@@ 1872
hun@@ 1872
penalties 1872
retaining 1872
suffer 1872
ark 1871
bats 1871
ogs 1871
resign 1871
Worcester 1870
burgh 1870
filmmaker 1870
racy 1870
Fiji 1869
capturing 1869
investments 1869
orus 1869
serv@@ 1869
hunt 1868
Lep@@ 1867
discharge 1867
jective 1867
playwright 1867
revealing 1867
rit 1867
thi 1867
plaque 1866
rehear@@ 1866
DI 1865
gres@@ 1865
impression 1865
modes 1865
pin@@ 1865
seeded 1865
wat@@ 1865
anced 1864
illed 1864
requests 1864
Dragons 1863
Il 1863
aji 1863
bre 1863
Hits 1862
Tibetan 1862
aneous 1862
banner 1862
İ@@ 1862
Wings 1861
anning 1861
arding 1861
fs 1861
ind 1861
lich@@ 1861
persuaded 1861
shrine 1861
1824 1860
Editor 1860
Winston 1860
forts 1860
Scots 1859
expense 1859
Dixon 1858
Excellence 1858
Rafael 1858
Senators 1858
atomic 1858
chair@@ 1858
inception 1858
pleasure 1858
sham 1858
tant 1858
Unfortunately 1857
archives 1857
federation 1857
ilt 1857
monarchy 1857
gens 1856
Rao 1855
Rifle 1855
asse 1855
constitute 1855
cultiv@@ 1855
fault 1855
ushing 1855
Kid 1854
Non@@ 1854
Thunder 1854
Wer@@ 1854
designers 1854
epic 1854
Volunteer 1853
enabling 1853
stered 1853
strange 1853
GE@@ 1852
KO 1852
Medic@@ 1852
Wool@@ 1852
launching 1852
precise 1852
rides 1852
spreading 1852
stamps 1852
Ram 1851
ethics 1851
thirds 1851
Hardy 1850
bau@@ 1850
develops 1850
photograph 1850
Bill@@ 1849
acceler@@ 1849
alignment 1849
correspondent 1849
isot@@ 1849
sacrif@@ 1849
salv@@ 1849
rush 1848
stra 1848
weigh@@ 1848
Michelle 1847
Netflix 1847
Sug@@ 1847
acids 1847
valve 1847
0.1 1846
Maharashtra 1846
Mar 1846
Norton 1846
bowling 1846
fluor@@ 1846
isk 1846
lier 1846
Mann 1845
Wag@@ 1845
aik@@ 1845
lecture 1845
lip 1845
mouse 1845
proceed 1845
Ö@@ 1845
Highland 1844
Nad@@ 1844
Qing 1844
Siege 1844
addresses 1844
affiliation 1844
plain@@ 1844
precipitation 1844
quiet 1844
tracking 1844
Initiative 1843
Organisation 1843
duction 1843
excessive 1843
highlights 1843
thy@@ 1843
Hul@@ 1842
compl@@ 1842
resol@@ 1842
sixty 1842
steady 1842
trapped 1842
Flag 1841
Georgetown 1841
Meyer 1841
Sac@@ 1841
ë 1841
Gibraltar 1840
Lynch 1840
Toyota 1840
inscriptions 1840
parameters 1840
Lif@@ 1839
Pom@@ 1839
sank 1839
senator 1839
terrestrial 1839
Ç@@ 1839
Letters 1838
Or 1838
Walk 1838
unofficial 1838
xton 1838
ès 1838
Hampton 1837
awa@@ 1837
wers 1837
Sacred 1836
Tour@@ 1836
attained 1836
stained 1836
wed 1836
weed 1836
yar@@ 1836
1829 1835
Ax@@ 1835
Greene 1835
Pseud@@ 1835
cann@@ 1835
mach@@ 1835
manifest@@ 1835
&apos;an 1834
Pride 1834
Title 1834
determination 1834
sacrifice 1834
tongue 1834
tut@@ 1834
Break@@ 1833
construc@@ 1833
presumably 1833
Democracy 1832
Dodgers 1832
Lit@@ 1832
Powers 1832
alle 1832
religions 1832
reun@@ 1832
aunt 1831
1813 1830
MVP 1830
Rang@@ 1830
SA@@ 1830
apa 1830
financing 1830
Dut@@ 1829
Mercedes 1829
canton 1829
explaining 1829
ional 1829
resides 1829
substit@@ 1829
Fa@@ 1828
agi 1828
commod@@ 1828
ega 1828
him@@ 1828
impres@@ 1828
rela@@ 1828
zhou 1828
Civic 1827
eclip@@ 1827
Chapman 1826
Negro 1826
Synopsis 1826
Tunnel 1826
sometime 1826
Broncos 1825
Midland 1825
everyday 1825
itional 1825
mare 1825
peaking 1825
Hard 1824
Rox@@ 1824
decisive 1824
garnered 1824
olds 1824
tonnes 1824
uro 1824
HF 1823
Potter 1823
Rams 1823
Sandy 1823
chor@@ 1823
complications 1823
disc@@ 1823
ime 1823
Coleman 1822
amino 1822
dish 1822
hou 1822
identifying 1822
oversaw 1822
umped 1822
wartime 1822
én@@ 1822
Paper 1821
Ré@@ 1821
Talk 1821
Vall@@ 1821
arti@@ 1821
cid@@ 1821
crest 1821
delegate 1821
positioned 1821
routine 1821
B.A. 1820
Chi 1820
diplom@@ 1820
eit@@ 1820
landscapes 1820
loyalty 1820
tubes 1820
welcomed 1820
450 1819
Fla@@ 1819
Helena 1819
Dynam@@ 1818
Roh@@ 1818
consolidated 1818
duced 1818
prolific 1818
sacked 1818
Griffin 1817
PG 1817
Sources 1817
atsu 1817
posthumously 1817
sh 1817
Jets 1816
Recreation 1816
Timothy 1816
classroom 1816
communicate 1816
esville 1816
reversed 1816
Cambodia 1815
Carey 1815
commemorate 1815
lung 1815
sz@@ 1815
tis 1815
ester@@ 1814
ignor@@ 1814
Die@@ 1813
Yet 1813
contin@@ 1813
lad@@ 1813
olic 1813
unanimous 1813
whatever 1813
Honda 1812
Ped@@ 1812
Vasi@@ 1812
detention 1812
extant 1812
highlight 1812
tains 1812
tens 1812
ural 1812
Berg@@ 1811
Exeter 1811
igu@@ 1811
modest 1810
realm 1810
sends 1810
Canton 1809
anas 1809
embar@@ 1809
ranged 1809
tt@@ 1809
upgrade 1809
crow@@ 1808
eley 1808
ellip@@ 1808
possess 1808
pus 1808
tou@@ 1808
Math@@ 1807
esa 1807
foods 1807
Academ@@ 1806
Luther 1806
Soc@@ 1806
atha 1806
eses 1806
remember 1806
90@@ 1805
Aur@@ 1805
Castro 1805
effectiveness 1805
fiel@@ 1805
Alternative 1804
beats 1804
mandate 1804
1890s 1803
commit 1803
convince 1803
dynamics 1803
hang@@ 1803
icians 1803
tet@@ 1803
Baden 1802
Imp@@ 1802
Kashmir 1802
Prov@@ 1802
Saxony 1802
Vatican 1802
Visual 1802
cho 1802
intensive 1802
Guatemala 1801
boyfriend 1801
freshwater 1801
ingu@@ 1801
omo 1801
regards 1801
Crime 1800
Hau@@ 1800
Hawks 1800
infant 1800
quarterfinals 1800
Ś@@ 1800
1806 1799
continuation 1799
rocky 1799
rol 1799
tow@@ 1799
Confeder@@ 1798
fashi@@ 1798
securing 1798
sovereignty 1798
Co. 1797
Philippe 1797
affecting 1797
dun@@ 1797
ival 1797
103 1796
favored 1796
grove 1796
inqu@@ 1796
sandstone 1796
striker 1796
supervised 1796
170 1795
Hannah 1795
Montenegro 1795
ane@@ 1795
mentor 1795
vac@@ 1795
Kay 1794
advances 1794
Kri@@ 1793
adic 1793
bou@@ 1793
demolition 1793
dens 1793
gather 1793
oters 1793
reformed 1793
technological 1793
abin@@ 1792
bush 1792
Gas 1791
Kha@@ 1791
Roads 1791
annexed 1791
colli@@ 1791
ission 1791
wei@@ 1791
Morton 1790
Rules 1790
asha 1790
bei 1790
had@@ 1790
nu@@ 1790
ovic 1790
quantities 1790
republic 1790
solic@@ 1790
μ@@ 1790
1818 1789
Concert 1789
Kis@@ 1789
Nicolas 1789
Underground 1789
competitor 1789
mill@@ 1789
ound 1789
ysis 1789
Czechoslovakia 1788
Set@@ 1788
dings 1788
jumping 1788
prim@@ 1788
progressed 1788
UR@@ 1787
detective 1787
expertise 1787
lacking 1787
ooth@@ 1787
translations 1787
tren@@ 1787
Kenn@@ 1786
Roberto 1786
bler 1786
chronic 1786
geography 1786
isms 1786
skiing 1786
strongest 1786
Ana 1785
Jackie 1785
Soundtrack 1785
Swan 1785
Turks 1785
functioning 1785
istry 1785
modifications 1785
nell 1785
sanctuary 1785
stad 1785
torture 1785
Colombian 1784
Davidson 1784
Gom@@ 1784
hoping 1784
prizes 1784
avian 1783
encoded 1783
encounters 1783
Norwich 1782
phi@@ 1782
Gandhi 1781
commentator 1781
Paramount 1780
capac@@ 1780
cruiser 1780
mild 1780
remake 1780
Asc@@ 1779
Dawn 1779
combine 1779
cyclone 1779
utation 1779
Bank@@ 1778
Embassy 1778
contestant 1778
cuisine 1778
fitness 1778
imaging 1778
squadrons 1778
р@@ 1778
Liz@@ 1777
News@@ 1777
Part@@ 1777
Wild@@ 1777
accepting 1777
displaced 1777
scholarly 1777
108 1776
Roc@@ 1776
sup@@ 1776
Lima 1775
abundant 1775
stro@@ 1775
beside 1774
bomber 1774
migrated 1774
oners 1774
retri@@ 1774
1826 1773
Albion 1773
Pink 1773
Rule 1773
rak@@ 1773
Winners 1772
cultivated 1772
grammar 1772
joy 1772
lor@@ 1772
penn@@ 1772
woodland 1772
applies 1771
corridor 1771
ef 1771
ideology 1771
wyn 1771
Appeal 1770
Glacier 1770
Hermann 1770
resemble 1770
ste 1770
Adolf 1769
pension 1769
López 1768
statues 1768
Cran@@ 1767
Inspector 1767
Marsh 1767
acquain@@ 1767
nerve 1767
Ley@@ 1766
oc 1766
reward 1766
rey 1766
teaches 1766
bed@@ 1765
surprised 1765
tan 1765
Cities 1764
Fight 1764
Mort@@ 1764
aft 1764
interactive 1764
zan 1764
111 1763
Georg 1763
Hydro@@ 1763
Janet 1763
Latvia 1763
Madras 1763
Temp@@ 1763
incorporate 1763
suited 1763
adventures 1762
Carson 1761
Haiti 1761
Nothing 1761
expenses 1761
fing 1761
hiatus 1761
trustees 1761
Homer 1760
Kirk 1760
Kre@@ 1760
MS@@ 1760
Toledo 1760
integrity 1760
violations 1760
6.5 1759
Tet@@ 1759
aband@@ 1759
expired 1759
oun 1759
traced 1759
ulp@@ 1759
uniforms 1759
106 1758
Prepar@@ 1758
dru@@ 1758
Alberto 1757
Auth@@ 1757
Card 1757
Got 1757
WT@@ 1757
pub 1757
Xavier 1756
bark 1756
gifts 1756
humor 1756
osh@@ 1756
Crow@@ 1755
EM 1755
Lou 1755
MHz 1755
Night@@ 1755
assass@@ 1755
last@@ 1755
MT@@ 1754
arily 1754
engra@@ 1754
hib@@ 1754
now@@ 1754
sentences 1754
Ashley 1753
Cologne 1753
Down@@ 1753
interact 1753
remarked 1753
rica 1753
cals 1752
substantially 1752
totally 1752
Jeffrey 1751
Sporting 1751
consulting 1751
fielder 1751
matched 1751
1.7 1750
Boh@@ 1750
Slov@@ 1750
idation 1750
linguistic 1750
onomy 1750
ound@@ 1750
rection 1750
suggestion 1750
Analysis 1749
Stran@@ 1749
Xbox 1749
Yas@@ 1749
consci@@ 1749
eleventh 1749
spo@@ 1749
1.0 1748
Nob@@ 1748
Sut@@ 1748
ciples 1748
olls 1748
racism 1748
Cut@@ 1747
Rally 1747
Slovak 1747
Thunder@@ 1747
harsh 1747
rea 1747
stly 1747
complained 1746
financed 1746
systematic 1746
thoughts 1746
30th 1745
Fletcher 1745
Form@@ 1745
Gardner 1745
box@@ 1745
cc@@ 1745
Vig@@ 1744
applying 1744
dimension 1744
etz 1744
lengthy 1744
spire 1744
tial 1744
anywhere 1743
organs 1743
stopping 1743
tales 1743
tends 1743
Acting 1742
Imag@@ 1742
Poli@@ 1742
adian 1742
ateral 1742
employer 1742
Chad 1741
recur@@ 1741
sexually 1741
was@@ 1741
Brandon 1740
Deutsche 1740
Particip@@ 1740
Why 1740
proph@@ 1740
round@@ 1740
enham 1739
rope 1739
springs 1739
Trans 1738
hurst 1738
Burg@@ 1737
PD 1737
Ps 1737
Singer 1737
enda 1737
rite 1737
Ō@@ 1737
Alpine 1736
Jessica 1736
charitable 1736
freely 1736
quantity 1736
remnants 1736
Belle 1735
Freeman 1735
Northwestern 1735
Sidney 1735
enge 1735
melody 1735
Hit@@ 1734
Patricia 1734
adequate 1734
cartoon 1734
cc 1734
Achievement 1733
Kod@@ 1733
Slam 1733
defining 1733
evacuated 1733
finishes 1733
isolation 1733
less@@ 1733
Bundesliga 1732
Develop@@ 1732
Gem@@ 1732
Motion 1732
aint 1732
gang@@ 1732
hir 1732
Afterwards 1731
AllMusic 1731
KA 1731
Katherine 1731
O.@@ 1731
demonstrations 1731
domains 1731
eca 1731
emphasized 1731
mixing 1731
pts 1731
vich 1731
5.5 1730
ago@@ 1730
countryside 1730
enormous 1730
finest 1730
lots 1730
nam 1730
sitcom 1730
Baroque 1729
Nay@@ 1729
Truth 1729
eno 1729
mirror 1729
monarch 1729
occupy 1729
soils 1729
unified 1729
Ud@@ 1728
limitations 1728
osaurus 1728
pretty 1728
Engineer 1727
Munster 1727
Sheikh 1727
Tig@@ 1727
coined 1727
escal@@ 1727
shapes 1727
unemployment 1727
Adventures 1726
Away 1726
Riley 1726
Tha@@ 1726
approaching 1726
inhab@@ 1726
investigating 1726
lava 1726
radius 1726
Cust@@ 1725
FIBA 1725
Icelandic 1725
org@@ 1725
regained 1725
synchron@@ 1725
trademark 1725
vul@@ 1725
armor 1724
blow 1724
maiden 1724
mentally 1724
reflecting 1724
Kak@@ 1723
Past 1723
demo 1723
distances 1723
evo 1723
mix@@ 1723
Macedonian 1722
abbey 1722
abe@@ 1722
aler 1722
bias 1722
onally 1722
reflec@@ 1722
tactical 1722
1801 1721
220 1721
ISO 1721
Kyiv 1721
Russians 1721
andi 1721
autonomy 1721
ial@@ 1721
operative 1721
tex@@ 1721
Composition 1720
Raw@@ 1720
Was@@ 1720
dozens 1720
ira@@ 1720
sprint 1720
stit@@ 1720
Clare 1719
Get@@ 1719
Historically 1719
cher@@ 1719
lus 1719
mitting 1719
succeeding 1719
teenager 1719
Aviv 1718
FF@@ 1718
Hack@@ 1718
igs 1718
ix@@ 1718
mood 1718
ophy@@ 1718
Europa 1717
Jenkins 1717
Malay 1717
Male 1717
Maya 1717
chin@@ 1717
hin 1717
max 1717
metals 1717
mons 1717
otti 1717
prefer@@ 1717
talented 1717
Ivan@@ 1716
celebrities 1716
fatal 1716
interred 1716
mist@@ 1716
mistake 1716
submit 1716
Anth@@ 1715
Bergen 1715
Cali@@ 1715
Chat@@ 1715
atty 1715
Jab@@ 1714
blamed 1714
damages 1714
humanitarian 1714
mothers 1714
repeat 1714
Sharon 1713
complaint 1713
jer@@ 1713
screenwriter 1713
Auburn 1712
Polit@@ 1712
bapt@@ 1712
torn 1712
ğ@@ 1712
Drug 1711
Ultimate 1711
cens@@ 1711
hoe 1711
textile 1711
Coo@@ 1710
Origins 1710
Town@@ 1710
alter@@ 1710
myth 1710
orn@@ 1710
supposedly 1710
Consequently 1709
Eri@@ 1709
contrary 1709
saw@@ 1709
wireless 1709
Plains 1708
Rebecca 1708
Roy@@ 1708
aim@@ 1708
cycl@@ 1708
detect 1708
encouraging 1708
metaph@@ 1708
nis 1708
patch 1708
suspect 1708
ú 1708
Coventry 1707
attractions 1707
ects 1707
tar 1707
PP@@ 1706
preference 1706
Ibrahim 1705
Lok 1705
Voc@@ 1705
deo 1705
erson 1705
pound 1705
Churches 1704
Niz@@ 1704
ahi 1704
hart 1704
ilian 1704
teammates 1704
virtu@@ 1704
Canberra 1703
Mom@@ 1703
Monastery 1703
Sally 1703
Webster 1703
anu 1703
flora 1703
miners 1703
portrayal 1703
visions 1703
Investment 1702
Johannes 1702
Tax 1702
Ze@@ 1702
epis@@ 1702
planets 1702
prob@@ 1702
Almost 1701
Dh@@ 1701
Heb@@ 1701
Heroes 1701
Nordic 1701
W.@@ 1701
disciplines 1701
god@@ 1701
implies 1701
Ministers 1700
albeit 1700
aud@@ 1700
evi@@ 1700
feared 1700
iced 1700
publicity 1700
sacks 1700
Sophie 1699
Trevor 1699
facto 1699
fails 1699
keen 1699
pursuing 1699
Stefan 1698
Strong 1698
ulum 1698
β 1698
2.1 1697
Colon@@ 1697
Crus@@ 1697
Randy 1697
irregular 1697
prom@@ 1697
update 1697
Lew@@ 1696
Libya 1696
counsel 1696
eir 1696
frog 1696
urg@@ 1696
Adventure 1695
MIT 1695
Mrs 1695
Ts@@ 1695
UCI 1695
Cho@@ 1694
Slavic 1694
grat@@ 1694
halls 1694
teenage 1694
thal@@ 1694
112 1693
7,000 1693
Caesar 1693
Cotton 1693
Gle@@ 1693
Pablo 1693
RBI 1693
cath@@ 1693
compar@@ 1693
dez 1693
divide 1693
feedback 1693
ld 1693
seventeen 1693
som 1693
EL@@ 1692
Tin@@ 1692
hau@@ 1692
impacts 1692
Beautiful 1691
Carol@@ 1691
DM 1691
Erie 1691
Europeans 1691
River@@ 1691
child@@ 1691
exceptional 1691
formesFamily 1691
Dog@@ 1690
Tay@@ 1690
beaches 1690
designing 1690
ecological 1690
metro 1690
Gun 1689
Spring@@ 1689
Ston@@ 1689
Sutton 1689
asting 1689
gem@@ 1689
genome 1689
yland 1689
CL@@ 1688
atop 1688
ights 1688
knife 1688
myst@@ 1688
resur@@ 1688
Alex@@ 1687
Shiva 1687
silk 1687
Kub@@ 1686
Shane 1686
Sic@@ 1686
Va@@ 1686
discography 1686
evangel@@ 1686
Crisis 1685
Hamp@@ 1685
Lib@@ 1685
MT 1685
ampton 1685
courage 1685
gover@@ 1685
lon 1685
tailed 1685
Constantine 1684
Mary@@ 1684
Roland 1684
nav@@ 1684
ocar@@ 1684
sent@@ 1684
uns 1684
osyn@@ 1683
toxic 1683
115 1682
Hearts 1682
Power@@ 1682
Titans 1682
esy 1682
fier 1682
polis 1682
uble 1682
weakened 1682
Christine 1681
Eb@@ 1681
Lig@@ 1681
Swift 1681
cultivation 1681
determining 1681
lett 1681
oys 1681
peaks 1681
pig@@ 1681
switching 1681
1819 1680
CI 1680
SK 1680
Sister 1680
aying 1680
bes@@ 1680
crimin@@ 1680
hall@@ 1680
aar 1679
builder 1679
carefully 1679
heated 1679
rushed 1679
tiny 1679
adul@@ 1678
atur@@ 1678
vert 1678
Horn 1677
betra@@ 1677
ensuing 1677
publishers 1677
twelfth 1677
Allies 1676
Joyce 1676
assessed 1676
aurus 1676
cooling 1676
cyclist 1676
fix 1676
franch@@ 1676
GDP 1675
Max@@ 1675
Stoke 1675
esan 1675
ingo 1675
triangle 1675
vor 1675
Alexandra 1674
Helsinki 1674
Nazis 1674
Tob@@ 1674
dens@@ 1674
mortality 1674
rational 1674
recommendation 1674
.2@@ 1673
2.4 1673
Yard 1673
halt 1673
instructed 1673
ligh@@ 1673
snails 1673
Evening 1672
Facilities 1672
Midlands 1672
Reds 1672
Sixth 1672
anticipated 1672
sigh@@ 1672
Mov@@ 1671
Pierce 1671
Rather 1671
SH@@ 1671
arcade 1671
comeback 1671
wal 1671
watershed 1671
109 1670
Kane 1670
admir@@ 1670
outh 1670
45@@ 1669
5000 1669
Seventh 1669
Uni@@ 1669
itative 1669
lions 1669
nevertheless 1669
thers 1669
ub 1669
22nd 1668
Chau@@ 1668
RN@@ 1668
Tunisia 1668
ani@@ 1668
1809 1667
Euro@@ 1667
Navar@@ 1667
het 1667
lins 1667
pump 1667
ulates 1667
Drew 1666
Performing 1666
beings 1666
erial 1666
incomplete 1666
osity 1666
postal 1666
publishes 1666
stun@@ 1666
2.3 1665
Fields 1665
Inn@@ 1665
Iz@@ 1665
Lie@@ 1665
Open@@ 1665
Silver@@ 1665
Wak@@ 1665
azi 1665
destroyers 1665
Erik 1664
Hartford 1664
Hend@@ 1664
Sanders 1664
Stalin 1664
agog@@ 1664
cer 1664
ʻ@@ 1664
Blo@@ 1663
Kill@@ 1663
TR@@ 1663
bie 1663
ciary 1663
nervous 1663
omed 1663
personalities 1663
riot 1663
tendency 1663
Products 1662
clause 1662
console 1662
frontier 1662
generic 1662
honor@@ 1662
attributes 1661
corporations 1661
drag@@ 1661
ero@@ 1661
smoking 1661
trunk 1661
Basic 1660
Metacritic 1660
comfort 1660
motivated 1660
negotiated 1660
Hard@@ 1659
Holdings 1659
IL@@ 1659
Iber@@ 1659
Key@@ 1659
Ner@@ 1659
Rican 1659
della 1659
ken@@ 1659
paired 1659
contacted 1658
curator 1658
ernity 1658
eville 1658
intern@@ 1658
shoots 1658
surveys 1658
verteb@@ 1658
ä@@ 1658
Trent 1657
Wonder 1657
alising 1657
asserted 1657
distinc@@ 1657
dos 1657
fant@@ 1657
maxim@@ 1657
pist@@ 1657
Pes@@ 1656
Regul@@ 1656
anes 1656
auto 1656
desc@@ 1656
fever 1656
ief 1656
import 1656
omorph@@ 1656
Marqu@@ 1655
bak@@ 1655
Boyd 1654
Hang@@ 1654
Rey 1654
WH@@ 1654
balanced 1654
bath@@ 1654
keeps 1654
offshore 1654
restra@@ 1654
т@@ 1654
MI 1653
Mohamed 1653
doubled 1653
gram 1653
occ@@ 1653
Dhar@@ 1652
IN 1652
excluding 1652
oods 1652
overtime 1652
Ethn@@ 1651
Las@@ 1651
Zagreb 1651
auxiliary 1651
chap@@ 1651
gon 1651
tended 1651
ulative 1651
viewer 1651
Arlington 1650
Vik@@ 1650
call@@ 1650
ers@@ 1650
eve 1650
valleys 1650
Monica 1649
Spir@@ 1649
alter 1649
memoir 1649
rer@@ 1649
symbo@@ 1649
0.3 1648
Pag@@ 1648
armament 1648
dealer 1648
dramatically 1648
hous@@ 1648
Cecil 1647
Conrad 1647
amended 1647
spare 1647
Clyde 1646
Gent@@ 1646
abandon 1646
detained 1646
efully 1645
ophone 1645
pioneering 1645
posting 1645
televised 1645
DB 1644
Galaxy 1644
deeper 1644
dreams 1644
graded 1644
128 1643
Alexand@@ 1643
Tex@@ 1643
cement 1643
econom@@ 1643
stru@@ 1643
sufficiently 1643
Judaism 1642
Nash 1642
fake 1642
memor@@ 1642
ński 1642
SG 1641
addle 1641
egu@@ 1641
induc@@ 1641
sophomore 1641
1816 1640
Astr@@ 1640
Miz@@ 1640
Wong 1640
achment 1640
aligned 1640
binary 1640
dened 1640
ego 1640
imagery 1640
solved 1640
tough 1640
Hey@@ 1639
Middlesex 1639
Nielsen 1639
breakthrough 1639
modeling 1639
prevention 1639
undergo 1639
voy 1639
Cerambycidae 1638
Cord@@ 1638
Lil@@ 1638
Paradise 1638
Tucker 1638
liberation 1638
popul@@ 1638
sym@@ 1638
Gib@@ 1637
appro@@ 1637
brilliant 1637
dedication 1637
estim@@ 1637
Browns 1636
Collegiate 1636
ather 1636
enary 1636
flash 1636
unda 1636
Champ@@ 1635
Flu@@ 1635
González 1635
Ring@@ 1635
Stur@@ 1635
Worth 1635
archive 1635
mic@@ 1635
nucleus 1635
Hastings 1634
Islander 1634
Reservoir 1634
Vikings 1634
forum 1634
inspection 1634
sailors 1634
Prem@@ 1633
Very 1633
competes 1633
iva 1633
Fig@@ 1632
Litt@@ 1632
Primera 1632
Viscount 1632
ammer 1632
barely 1632
etary 1632
protective 1632
strengthen 1632
Bang@@ 1631
Coaching 1631
Know 1631
bott@@ 1631
ecclesiastical 1631
embedded 1631
gio 1631
nik@@ 1631
subdivision 1631
Matthews 1630
Moor@@ 1630
Motors 1630
Taj@@ 1630
esi 1630
graves 1630
onist 1630
vs 1630
Antoine 1629
Normandy 1629
Occup@@ 1629
ador 1629
este 1629
mentation 1629
satisfied 1629
sever@@ 1629
Juli@@ 1628
ambitious 1628
Hyderabad 1627
Mile 1627
NI@@ 1627
Rut@@ 1627
import@@ 1627
swimmer 1627
Conservatory 1626
Theological 1626
rail@@ 1626
telec@@ 1626
whereby 1626
Agnes 1625
Inner 1625
Raion 1625
answered 1625
decommissioned 1625
eves 1625
heart@@ 1625
mim@@ 1625
ossi@@ 1625
A1 1624
Pie@@ 1624
cinemat@@ 1624
ds@@ 1624
lian 1624
135 1623
37@@ 1623
EP@@ 1623
Hassan 1623
Rotten 1623
day@@ 1623
expectations 1623
grouped 1623
isher 1623
resolve 1623
ugh@@ 1623
uv@@ 1623
Kov@@ 1622
Progress 1622
accepts 1622
chemicals 1622
installations 1622
oso 1622
Cherry 1621
Geoffrey 1621
Princip@@ 1621
classrooms 1621
crystal 1621
exceptions 1621
matching 1621
pond 1621
villagers 1621
AU 1620
Investig@@ 1620
Philharmonic 1620
analog 1620
brass 1620
fiber 1620
Bass@@ 1619
GC 1619
Lanc@@ 1619
Malayalam 1619
ancestor 1619
leigh 1619
oci@@ 1619
teachings 1619
Giuseppe 1618
Inqu@@ 1618
Raw 1618
athy 1618
sanctioned 1618
1822 1617
1827 1617
Congressional 1617
Di 1617
Torres 1617
Winchester 1617
activism 1617
hear@@ 1617
mamm@@ 1617
thr@@ 1617
1817 1616
2.2 1616
Wan@@ 1616
itating 1616
ude 1616
yers 1616
33@@ 1615
Beck 1615
Companies 1615
compil@@ 1615
curves 1615
Leone 1614
Lom@@ 1614
alli 1614
emotions 1614
ican 1614
resembles 1614
riots 1614
Neo 1613
ator@@ 1613
collec@@ 1613
e.@@ 1613
employers 1613
speculation 1613
Hand 1612
Omaha 1612
Traditional 1612
VFL 1612
analyst 1612
ograph@@ 1612
ounding 1612
vel 1612
ο@@ 1612
MB 1611
Parkway 1611
endeav@@ 1611
podcast 1611
½ 1611
Autonomous 1610
declining 1610
estan 1610
galleries 1610
twe@@ 1610
Arabian 1609
ICC 1609
Psychology 1609
Quinn 1609
bays 1609
confined 1609
dell 1609
gaz@@ 1609
oly@@ 1609
porch 1609
wages 1609
1803 1608
Activities 1608
Bic@@ 1608
Chor@@ 1608
Jesuit 1608
MLS 1608
Roma 1608
accusations 1608
cheese 1608
jin 1608
tire 1608
Oriental 1607
Pearson 1607
Strategic 1607
Uttar 1607
accessed 1607
collision 1607
denti@@ 1607
elo 1607
intelligent 1607
narrator 1607
thinks 1607
ă 1607
000,000 1606
2010s 1606
34@@ 1606
Barb@@ 1606
Irving 1606
Mongolia 1606
Opposition 1606
Too 1606
outing 1606
promises 1606
relied 1606
spirits 1606
Dresden 1605
Newark 1605
Officers 1605
Tou@@ 1605
consequently 1605
processor 1605
pupil 1605
24th 1604
Angola 1604
dial 1604
fortified 1604
module 1604
zier 1604
Mickey 1603
Tall@@ 1603
bypass 1603
cannon 1603
deity 1603
incenti@@ 1603
pursu@@ 1603
yearly 1603
Brook@@ 1602
Ug@@ 1602
algebra 1602
vian 1602
vy 1602
Applied 1601
Auto 1601
Beth 1601
Duchess 1601
Hyde 1601
Venezuelan 1601
executives 1601
hra 1601
lingu@@ 1601
receptors 1601
Cash 1600
Gilli@@ 1600
Mosque 1600
anonymous 1600
darker 1600
ms@@ 1600
pip@@ 1600
susp@@ 1600
DR@@ 1599
Declaration 1599
Pool 1599
concentrations 1599
eaten 1599
laying 1599
Daw@@ 1598
chol@@ 1598
inct 1598
interrog@@ 1598
ration@@ 1598
seated 1598
subjected 1598
verb@@ 1598
wo 1598
Joy 1597
Wig@@ 1597
astro@@ 1597
welcome 1597
Hein@@ 1596
Rising 1596
deg@@ 1596
earth@@ 1596
email 1596
emin@@ 1596
itan 1596
lumin@@ 1596
yen 1596
1823 1595
Plain 1595
alpha 1595
hang 1595
rs 1595
Whi@@ 1594
besides 1594
corpor@@ 1594
discussing 1594
employs 1594
gent 1594
orial 1594
outcomes 1594
plains 1594
vey@@ 1594
Cao 1593
additions 1593
av 1593
bered 1593
circa 1593
framed 1593
judged 1593
symbolic 1593
Adi@@ 1592
Android 1592
Der 1592
Eden 1592
Restoration 1592
Zoo 1592
body@@ 1592
confluence 1592
consumed 1592
ift 1592
inher@@ 1592
iper 1592
Benedict 1591
Ethiopian 1591
incorporating 1591
iture 1591
seller 1591
.3@@ 1590
0.2 1590
CBC 1590
Fort@@ 1590
Kob@@ 1590
Sergeant 1590
ca@@ 1590
condem@@ 1590
vas@@ 1590
yal 1590
Face 1589
Gujarat 1589
Lindsay 1589
Llan@@ 1589
Reverend 1589
default 1589
fear@@ 1589
insky 1589
ceremonial 1588
filter 1588
irrigation 1588
pocket 1588
prevalent 1588
BW@@ 1587
Basque 1587
Fashion 1587
GO@@ 1587
encompasses 1587
purely 1587
relates 1587
simp@@ 1587
sponsors 1587
temp@@ 1587
verbs 1587
Conf@@ 1586
Patterson 1586
adviser 1586
blade 1586
fast@@ 1586
gaming 1586
guitars 1586
Hern@@ 1585
Hip 1585
Jord@@ 1585
Sas@@ 1585
clinic 1585
donation 1585
insufficient 1585
marker 1585
CB 1584
spanning 1584
vial 1584
Connec@@ 1583
comb 1583
destinations 1583
therap@@ 1583
treatments 1583
ān 1583
deciding 1582
drops 1582
marriages 1582
nie 1582
san 1582
tos@@ 1582
visu@@ 1582
Alam@@ 1581
Circ@@ 1581
KO@@ 1581
iff@@ 1581
incorporates 1581
intim@@ 1581
momentum 1581
disability 1580
handful 1580
palm 1580
reconc@@ 1580
1793 1579
Fru@@ 1579
Hop 1579
Savage 1579
Shi 1579
Teachers 1579
asset 1579
clusters 1579
onset 1579
rented 1579
sovereign 1579
Cand@@ 1578
Dudley 1578
capped 1578
forewings 1578
obe@@ 1578
Flora 1577
atures 1577
compression 1577
deter@@ 1577
pathway 1577
ACC 1576
Andhra 1576
Lopez 1576
Mt 1576
s. 1576
Innovation 1575
Miy@@ 1575
Pasha 1575
alistic 1575
emergence 1575
wagon 1575
1804 1574
23rd 1574
Rudolf 1574
Zor@@ 1574
aspir@@ 1574
choosing 1574
downstream 1574
loosely 1574
masses 1574
radic@@ 1574
synthetic 1574
void 1574
wounds 1574
12,@@ 1573
Gang 1573
HBO 1573
Tracy 1573
acquiring 1573
counterpart 1573
devi@@ 1573
lu 1573
owl 1573
1794 1572
Wave 1572
compromise 1572
cryp@@ 1572
hurt 1572
licated 1572
mina 1572
occupying 1572
recruit 1572
relieved 1572
1811 1571
Carlton 1571
Dundee 1571
Flash 1571
consult@@ 1571
parody 1571
rector 1571
Prairie 1570
Sup@@ 1570
Vau@@ 1570
barn 1570
gren@@ 1570
hosp@@ 1570
lineage 1570
repaired 1570
revenues 1570
surgical 1570
vill@@ 1570
Antwerp 1569
León 1569
Boxing 1568
Brady 1568
Features 1568
Wanderers 1568
analog@@ 1568
cellular 1568
chancellor 1568
chip 1568
edic 1568
itas 1568
privacy 1568
wreck 1568
Valencia 1567
Willis 1567
aha 1567
bay@@ 1567
occupies 1567
resistant 1567
1,6@@ 1566
Folk 1566
loves 1566
orbital 1566
scrapped 1566
107 1565
Ele@@ 1565
aggreg@@ 1565
financially 1565
oles 1565
rance 1565
rav@@ 1565
relate 1565
Chambers 1564
FCC 1564
Ferrari 1564
Iron@@ 1564
cock 1564
eyed 1564
consum@@ 1563
hardt 1563
shrub 1563
AX 1562
Abdullah 1562
onne 1562
successes 1562
testified 1562
1870s 1561
Charity 1561
Cherokee 1561
Wade 1561
ernal 1561
freed 1561
periph@@ 1561
rehabilitation 1561
rim 1561
Angela 1560
ET@@ 1560
Gates 1560
Have 1560
Rebellion 1560
Scouts 1560
displacement 1560
fts 1560
guaranteed 1560
mined 1560
optional 1560
1,5@@ 1559
AW@@ 1559
Acts 1559
Boat 1559
Braves 1559
commissions 1559
ethical 1559
gren 1559
ophi@@ 1559
pointing 1559
polls 1559
sack 1559
web@@ 1559
yar 1559
Cove 1558
Percy 1558
Variety 1558
cken 1558
feminine 1558
fting 1558
sleeping 1558
uary 1558
τ@@ 1558
Cock@@ 1557
Let@@ 1557
borrowed 1557
erosion 1557
tallest 1557
а 1557
Baj@@ 1556
Clinical 1556
Turn@@ 1556
Zen@@ 1556
ación 1556
aup@@ 1556
ever@@ 1556
gru@@ 1556
gubernatorial 1556
meteor@@ 1556
Cubs 1555
diff@@ 1555
opping 1555
wra@@ 1555
Giant 1554
Kro@@ 1554
NW@@ 1554
Shirley 1554
Taipei 1554
apur 1554
blin@@ 1554
hill@@ 1554
hn@@ 1554
monk 1554
Put@@ 1553
dances 1553
dive 1553
mapping 1553
painters 1553
utor 1553
ves@@ 1553
Augusta 1552
Classification 1552
Ide@@ 1552
Lin 1552
enterprises 1552
hung 1552
mollusk 1552
soli@@ 1552
Bang 1551
Bryant 1551
Indeed 1551
Kaw@@ 1551
Kolkata 1551
Make 1551
Standing 1551
electorate 1551
factions 1551
incur@@ 1551
labeled 1551
licate 1551
recall 1551
Beauty 1550
Ham 1550
LS 1550
Marina 1550
benef@@ 1550
cope 1550
emat@@ 1550
homeless 1550
ologic 1550
purchasing 1550
ulls 1550
к@@ 1550
124@@ 1549
Hour 1549
campuses 1549
governors 1549
shadow 1549
vid 1549
Lambert 1548
Samp@@ 1548
Supporting 1548
Tank 1548
ht@@ 1548
maid 1548
nom@@ 1548
reflection 1548
sheets 1548
Hence 1547
Map@@ 1547
aller@@ 1547
cliff 1547
collectively 1547
derivative 1547
erty 1547
iTunes 1547
Yi 1546
collaborative 1546
combines 1546
evolutionary 1546
mei@@ 1546
sbury 1546
trans 1546
1807 1545
Du 1545
cz@@ 1545
oman 1545
plasma 1545
Kut@@ 1544
asteroid 1544
isted 1544
nau@@ 1544
vibr@@ 1544
Ce@@ 1543
Kang@@ 1543
aea 1543
complement 1543
eed 1543
extra@@ 1543
preh@@ 1543
retali@@ 1543
uz 1543
Eleanor 1542
Johan 1542
Shal@@ 1542
Thirty 1542
Word 1542
athi 1542
catalogue 1542
special@@ 1542
throat 1542
tooth 1542
yah 1542
Bom@@ 1541
Carl@@ 1541
Ds 1541
Filming 1541
Nis@@ 1541
adj@@ 1541
liturg@@ 1541
objec@@ 1541
Amanda 1540
amoto 1540
commercials 1540
enables 1540
mobili@@ 1540
realize 1540
Barack 1539
vet@@ 1539
Carlisle 1538
Mixed 1538
Quarter 1538
constit@@ 1538
eria 1538
faithful 1538
observ@@ 1538
ě@@ 1538
Eva 1537
deliberately 1537
ific@@ 1537
iker 1537
ook@@ 1537
Bangkok 1536
Benson 1536
Elite 1536
alpine 1536
composite 1536
continuity 1536
councillors 1536
promotes 1536
Mei@@ 1535
Points 1535
Way@@ 1535
feat 1535
las@@ 1535
readily 1535
saves 1535
westward 1535
Autom@@ 1534
Burmese 1534
Hipp@@ 1534
Rahman 1534
bons 1534
nin@@ 1534
orious 1534
sealed 1534
ulous 1534
ís 1534
Barn@@ 1533
Bulls 1533
Italia 1533
conscious 1533
debris 1533
immer@@ 1533
ρ@@ 1533
BR@@ 1532
naked 1532
ollen 1532
1,4@@ 1531
11,@@ 1531
Belt 1531
Ferr@@ 1531
Leigh 1531
Venus 1531
jah 1531
pharmac@@ 1531
umes 1531
wald 1531
Pitt 1530
Real@@ 1530
diploma 1530
interval 1530
jected 1530
oides 1530
1795 1529
Brigadier 1529
Cameroon 1529
Cunningham 1529
Flo@@ 1529
Shim@@ 1529
contractor 1529
dissertation 1529
fat@@ 1529
iding 1529
lot@@ 1529
mice 1529
read@@ 1529
wrestlers 1529
ż@@ 1529
Eth@@ 1528
counterparts 1528
hunter 1528
iry 1528
poss@@ 1528
vegetables 1528
Gog@@ 1527
Jin@@ 1527
averaging 1527
deacon 1527
holdings 1527
ogenic 1527
participant 1527
senti@@ 1527
stock@@ 1527
Alfonso 1526
Bass 1526
Christie 1526
Diam@@ 1526
Emirates 1526
McCarthy 1526
Rick@@ 1526
debut@@ 1526
distur@@ 1526
ild 1526
mutations 1526
phenomena 1526
ères 1526
Archdiocese 1525
Coal 1525
Gaza 1525
Zel@@ 1525
cardi@@ 1525
cigar@@ 1525
Often 1524
Rodríguez 1524
Sinclair 1524
Tai@@ 1524
Tibet 1524
idated 1524
recip@@ 1524
suite 1524
tempo 1524
1805 1523
Clarence 1523
Murder 1523
flag@@ 1523
incre@@ 1523
oded 1523
ogo 1523
righ@@ 1523
screen@@ 1523
utter 1523
Carr 1522
Cedar 1522
antenna 1522
concer@@ 1522
employ 1522
ition@@ 1522
statute 1522
wr@@ 1522
Alps 1521
Beverly 1521
Cun@@ 1521
Superman 1521
definite 1521
scri@@ 1521
Jerome 1520
Mad 1520
magical 1520
nat@@ 1520
resting 1520
tian 1520
trilogy 1520
47@@ 1519
Barton 1519
Fox@@ 1519
Hale 1519
amin 1519
enst@@ 1519
exam@@ 1519
licensing 1519
primitive 1519
rack 1519
shooter 1519
tend@@ 1519
1808 1518
ER 1518
Known 1518
Promotion 1518
asian 1518
bek 1518
ecology 1518
enson 1518
guy 1518
harvest@@ 1518
physicians 1518
vault 1518
Carmen 1517
Lang 1517
Sub 1517
algorithms 1517
atoms 1517
centi@@ 1517
commands 1517
cooperative 1517
diat@@ 1517
documentation 1517
frequencies 1517
indi@@ 1517
lightweight 1517
mud 1517
oath 1517
transcription 1517
100@@ 1516
Aston 1516
Greg@@ 1516
ME 1516
Osaka 1516
Raj 1516
Tonight 1516
agi@@ 1516
associates 1516
discrimin@@ 1516
ingredients 1516
meal 1516
princess 1516
rau@@ 1516
shoes 1516
Credit 1515
Klein 1515
Mining 1515
affects 1515
lug@@ 1515
bag@@ 1514
cum 1514
explicit 1514
materi@@ 1514
upp@@ 1514
Alder@@ 1513
Viol@@ 1513
Yemen 1513
emer@@ 1513
finalists 1513
Crit@@ 1512
Ipswich 1512
Shire 1512
counsel@@ 1512
dishes 1512
feud 1512
infections 1512
lacks 1512
portal 1512
repertoire 1512
temper@@ 1512
ugh 1512
AK@@ 1511
CM 1511
CU 1511
JR 1511
Veterans 1511
afford 1511
dioc@@ 1511
mud@@ 1511
Neu@@ 1510
Porto 1510
billi@@ 1510
issu@@ 1510
reside 1510
safely 1510
Gov@@ 1509
Lorenzo 1509
Von 1509
alg@@ 1509
columnist 1509
foster 1509
steam@@ 1509
stripped 1509
tance 1509
в@@ 1509
Bermuda 1508
Coastal 1508
Era 1508
HM@@ 1508
Ind@@ 1508
Lt. 1508
authenti@@ 1508
helicopters 1508
mun@@ 1508
strengthened 1508
ulations 1508
î@@ 1508
AAA 1507
Reformed 1507
Schmidt 1507
breakdown 1507
fort@@ 1507
institutional 1507
Meeting 1506
aned 1506
nonprofit 1506
syndic@@ 1506
Game@@ 1505
Nel@@ 1505
distor@@ 1505
excavated 1505
hierarchy 1505
icism 1505
pseudonym 1505
Angelo 1504
Architects 1504
Calcutta 1504
Pharm@@ 1504
approxim@@ 1504
azar 1504
economist 1504
enthusi@@ 1504
recap@@ 1504
robin 1504
tide 1504
unt@@ 1504
ML 1503
Sek@@ 1503
explosive 1503
fauna 1503
spectro@@ 1503
uncommon 1503
Carpenter 1502
Kuwait 1502
Zap@@ 1502
catcher 1502
chiefs 1502
inspir@@ 1502
transactions 1502
undefeated 1502
39@@ 1501
Dawson 1501
Doyle 1501
PS@@ 1501
breach 1501
pistol 1501
reduces 1501
Clement 1500
Pratt 1500
Salisbury 1500
accommod@@ 1500
alous 1500
eas 1500
edi 1500
kel 1500
ono 1500
preparations 1500
trends 1500
Hot@@ 1499
McCl@@ 1499
Rib@@ 1499
creatures 1499
emann 1499
paternal 1499
qi 1499
sodium 1499
specializing 1499
1802 1498
Anniversary 1498
Candid@@ 1498
Investigation 1498
Kiss 1498
Warwick 1498
advocates 1498
ako 1498
atmospheric 1498
ballad 1498
edia 1498
influ@@ 1498
iza 1498
lear@@ 1498
phin 1498
rifles 1498
Gloucester 1497
Viv@@ 1497
dairy 1497
declaring 1497
expan@@ 1497
ido 1497
lunar 1497
memorable 1497
negotiate 1497
normal@@ 1497
proportional 1497
Ama@@ 1496
Made 1496
Mud@@ 1496
Neal 1496
Screen 1496
front@@ 1496
hair@@ 1496
molecule 1496
orials 1496
practicing 1496
singular 1496
smart 1496
sten@@ 1496
Gob@@ 1495
Mund@@ 1495
Parade 1495
Peterson 1495
Shep@@ 1495
medalist 1495
migrants 1495
Baghdad 1494
ES 1494
Hansen 1494
Pach@@ 1494
alen 1494
cancellation 1494
coordinated 1494
courtyard 1494
fro@@ 1494
lighthouse 1494
nationality 1494
numbering 1494
tumor 1494
Eyes 1493
Resolution 1493
Universities 1493
inmates 1493
need@@ 1493
tioned 1493
transfers 1493
&apos;Neill 1492
Kah@@ 1492
Stal@@ 1492
ahl 1492
aser 1492
elly 1492
enses 1492
outs@@ 1492
submerged 1492
univers@@ 1492
you@@ 1492
Brom@@ 1491
NE 1491
acknowle@@ 1491
belie@@ 1491
igh 1491
inheritance 1491
localities 1491
physicist 1491
spans 1491
threshold 1491
ulin 1491
unnamed 1491
Countess 1490
Gen. 1490
Phillip 1490
Riverside 1490
after@@ 1490
ilo 1490
minorities 1490
tips 1490
CL 1489
Genesis 1489
UT@@ 1489
You@@ 1489
distra@@ 1489
inflation 1489
minerals 1489
motto 1489
operas 1489
pillars 1489
submission 1489
triangular 1489
1792 1488
Stru@@ 1488
Paraguay 1487
Vul@@ 1487
excavations 1487
exclu@@ 1487
marathon 1487
rejoined 1487
1798 1486
Comic 1486
Hod@@ 1486
Turin 1486
a. 1486
facial 1486
iconic 1486
isphere 1486
lean 1486
stle 1486
survives 1486
Din 1485
Re 1485
Volleyball 1485
atum 1485
bedroom 1485
opsis 1485
plantations 1485
slogan 1485
suffrage 1485
Cheshire 1484
Compet@@ 1484
Engine 1484
ield 1484
lem 1484
ordination 1484
plum@@ 1484
polar@@ 1484
sberg 1484
wholly 1484
3.0 1483
Chak@@ 1483
Jim@@ 1483
Lab 1483
Latvian 1483
anthem 1483
canon 1483
moist 1483
Kes@@ 1482
Yang@@ 1482
iner@@ 1482
Devils 1481
Guer@@ 1481
Hap@@ 1481
Pale@@ 1481
arid 1481
dorf 1481
dragon 1481
ensuring 1481
exploring 1481
rituals 1481
CNN 1480
Fitzgerald 1480
Foot@@ 1480
Tehran 1480
discharged 1480
mathematician 1480
Antarctica 1479
Gustav 1479
Samoa 1479
Unity 1479
bottle 1479
iqu@@ 1479
legitim@@ 1479
omi 1479
transaction 1479
unic@@ 1479
Collec@@ 1478
avia 1478
bye 1478
exploitation 1478
sian 1478
summers 1478
Buc@@ 1477
Flanders 1477
Greeks 1477
brow@@ 1477
choices 1477
iring 1477
irs 1477
villain 1477
&apos;Connor 1476
1790 1476
Hanover 1476
block@@ 1476
flexible 1476
plast@@ 1476
sings 1476
specialty 1476
tunnels 1476
3.3 1475
Beat@@ 1475
olla 1475
pes 1475
surpassed 1475
Airways 1474
Evangelical 1474
Inclu@@ 1474
Mell@@ 1474
arches 1474
http 1474
Donn@@ 1473
Names 1473
Piano 1473
Tomatoes 1473
eagle 1473
excellence 1473
gestion 1473
Charl@@ 1472
McK@@ 1472
Tren@@ 1472
Waterloo 1472
compliance 1472
pet 1472
pools 1472
reconstructed 1472
Net 1471
etime 1471
lifelong 1471
listen 1471
underway 1471
Bucharest 1470
FE@@ 1470
Howe 1470
aken 1470
hit@@ 1470
stamp 1470
touched 1470
1.9 1469
Normal 1469
Squad 1469
aram 1469
delays 1469
interfer@@ 1469
inventor 1469
juvenile 1469
mastered 1469
merge 1469
mutation 1469
prose 1469
umin@@ 1469
vowel 1469
BR 1468
Elder 1468
Foot 1468
Nicol@@ 1468
Ranger 1468
Templ@@ 1468
escent 1468
liers 1468
nationalism 1468
warriors 1468
xi@@ 1468
Peruvian 1467
addressing 1467
floods 1467
nus 1467
Andreas 1466
Steelers 1466
detached 1466
fres@@ 1466
healing 1466
lement 1466
pending 1466
percussion 1466
separ@@ 1466
Stuttgart 1465
comparing 1465
manned 1465
spy 1465
steal 1465
ffer@@ 1464
notation 1464
rane 1464
rants 1464
stressed 1464
superintendent 1464
theological 1464
Hick@@ 1463
archy 1463
arise 1463
calcium 1463
facil@@ 1463
kiss 1463
sophisticated 1463
transferring 1463
1,3@@ 1462
Barker 1462
Wolf@@ 1462
criminals 1462
evacuation 1462
farm@@ 1462
harassment 1462
instituted 1462
picks 1462
praising 1462
Nikol@@ 1461
Trav@@ 1461
ackl@@ 1461
dening 1461
dent 1461
erie 1461
exiled 1461
holidays 1461
lesbian 1461
refugee 1461
stadt 1461
3.2 1460
Moss 1460
Vol 1460
grossing 1460
spra@@ 1460
Australians 1459
Barrett 1459
René 1459
Ski 1459
assuming 1459
them@@ 1459
Conservatives 1458
HO@@ 1458
Milli@@ 1458
USC 1458
hob@@ 1458
pipeline 1458
wanting 1458
Apostolic 1457
Isabella 1457
Mikhail 1457
Nationals 1457
Peters 1457
Semi 1457
coe 1457
costumes 1457
extr@@ 1457
supervis@@ 1457
Elisabeth 1456
Gloria 1456
Na 1456
Nick@@ 1456
alog@@ 1456
correctly 1456
explores 1456
glu@@ 1456
injection 1456
Bash@@ 1455
Packers 1455
Was 1455
corners 1455
delivering 1455
loses 1455
plots 1455
urai 1455
Ranch 1454
vacuum 1454
Aleksand@@ 1453
Anim@@ 1453
Perkins 1453
Tan 1453
boost 1453
councillor 1453
dioxide 1453
eded 1453
flooded 1453
globe 1453
ige 1453
licity 1453
marginal 1453
ozo@@ 1453
pressing 1453
Applications 1452
Bam@@ 1452
Basi@@ 1452
Behavi@@ 1452
Citizens 1452
Falcons 1452
Germanic 1452
Lot@@ 1452
Marcos 1452
Tell 1452
Whal@@ 1452
bags 1452
gambling 1452
granddaughter 1452
innocent 1452
residences 1452
sig@@ 1452
wells 1452
ř@@ 1452
Territorial 1451
Vista 1451
archs 1451
bro 1451
feasi@@ 1451
uke 1451
vil@@ 1451
1860s 1450
80s 1450
Chem@@ 1450
Lankan 1450
Pati@@ 1450
Pris@@ 1450
burst 1450
overwhel@@ 1450
skoye 1450
Sutherland 1449
defenders 1449
gospel 1449
113 1448
Weber 1448
ematic 1448
fixture 1448
generals 1448
istics 1448
kidnapped 1448
presidents 1448
pushing 1448
schooling 1448
sexuality 1448
visitor 1448
2.7 1447
3.1 1447
Adap@@ 1447
Clayton 1447
Joey 1447
NT 1447
Quar@@ 1447
Wein@@ 1447
Work@@ 1447
actic 1447
apple 1447
oni@@ 1447
prospect 1447
taining 1447
Jupiter 1446
Lombar@@ 1446
Revol@@ 1446
descriptions 1446
talents 1446
Monster 1445
Smart 1445
Stop 1445
bells 1445
depend 1445
humid 1445
kidney 1445
nie@@ 1445
po 1445
sketch 1445
timing 1445
uca 1445
Blu 1444
Bo 1444
Ha 1444
Hague 1444
Joh@@ 1444
Noah 1444
Stand 1444
Travis 1444
demonstrating 1444
exam 1444
frustr@@ 1444
observers 1444
parad@@ 1444
phosphate 1444
underwater 1444
Constituency 1443
Controversy 1443
Pius 1443
conventions 1443
enced 1443
eponymous 1443
illustr@@ 1443
outlet 1443
theft 1443
Benn@@ 1442
antine 1442
expect 1442
jour@@ 1442
loy@@ 1442
olle@@ 1442
para 1442
partnerships 1442
screens 1442
Evil 1441
Hammond 1441
Shannon 1441
Woo@@ 1441
outskirts 1441
postseason 1441
remarks 1441
Atlas 1440
BP 1440
Regist@@ 1440
coordinate 1440
exports 1440
manif@@ 1440
targeting 1440
virtue 1440
alth@@ 1439
apost@@ 1439
escapes 1439
flan@@ 1439
forested 1439
processed 1439
trauma 1439
util@@ 1439
worm 1439
CW 1438
Catal@@ 1438
Sports@@ 1438
accidents 1438
plateau 1438
similarity 1438
Dream@@ 1437
Preservation 1437
Sales 1437
convent 1437
parap@@ 1437
profitable 1437
ár@@ 1437
1,8@@ 1436
Avi@@ 1436
Dee 1436
Ecology 1436
Jakarta 1436
RCA 1436
Shab@@ 1436
Tracks 1436
altogether 1436
avern 1436
dominance 1436
niece 1436
precision 1436
rach@@ 1436
ross 1436
ubs 1436
Å@@ 1436
ás 1436
Pole 1435
Reich 1435
Wheeler 1435
atically 1435
branding 1435
nee 1435
oor 1435
osaur 1435
tragedy 1435
upstream 1435
yana 1435
Governorate 1434
Patt@@ 1434
vings 1434
Marketing 1433
Beat 1432
Koh@@ 1432
abundance 1432
advertisements 1432
consec@@ 1432
manship 1432
nutri@@ 1432
persecution 1432
reorganized 1432
Better 1431
Fork 1431
Hours 1431
Int@@ 1431
button 1431
captained 1431
hibition 1431
positively 1431
Burn@@ 1430
Human@@ 1430
Zhou 1430
bage 1430
complexes 1430
examine 1430
fence 1430
mascot 1430
observe 1430
otyp@@ 1430
vag@@ 1430
Challenger 1429
Das 1429
Expressway 1429
Holly 1429
accumulated 1429
airports 1429
motorway 1429
rolls 1429
triggered 1429
zzo 1429
1789 1428
BMW 1428
Bolshe@@ 1428
Chr@@ 1428
Highlands 1428
Honors 1428
Rita 1428
heavier 1428
theatres 1428
thrust 1428
trigger 1428
unanimously 1428
9.5 1427
Nit@@ 1427
akin 1427
debates 1427
metic 1427
newsc@@ 1427
bh@@ 1426
canc@@ 1426
creature 1426
ien@@ 1426
pamph@@ 1426
tones 1426
warrant 1426
Bé@@ 1425
kor@@ 1425
steering 1425
д@@ 1425
Omar 1424
Prec@@ 1424
Song@@ 1424
admiral 1424
bery 1424
cob@@ 1424
polo 1424
pret@@ 1424
voy@@ 1424
Survi@@ 1423
Trial 1423
Wesley 1423
blast 1423
cism 1423
grandchildren 1423
nitrogen 1423
omy@@ 1423
pipes 1423
subdivided 1423
whe@@ 1423
Valentine 1422
amid 1422
feast 1422
symph@@ 1422
Catholicism 1421
Present 1421
avoiding 1421
charging 1421
folding 1421
gab@@ 1421
incarnation 1421
ival@@ 1421
jee 1421
pride 1421
retains 1421
Canon 1420
Dau@@ 1420
Ib@@ 1420
Rouge 1420
Selected 1420
adop@@ 1420
catches 1420
coc@@ 1420
cred@@ 1420
overnight 1420
sim@@ 1420
venti@@ 1420
1,7@@ 1419
Brig@@ 1419
Gazette 1419
Jenny 1419
Recordings 1419
Ricky 1419
U. 1419
auses 1419
cleaning 1419
ladies 1419
predators 1419
prostit@@ 1419
reate 1419
tee 1419
ulu 1419
Catalan 1418
Mirror 1418
Naw@@ 1418
attitudes 1418
bodied 1418
izations 1418
podium 1418
treas@@ 1418
с@@ 1418
300,000 1417
Criticism 1417
HK 1417
Leopold 1417
PBS 1417
RB@@ 1417
Standards 1417
cel 1417
natives 1417
odds 1417
roller 1417
ț@@ 1417
Elena 1416
duet 1416
envel@@ 1416
green@@ 1416
waived 1416
Algerian 1415
Lily 1415
carbon@@ 1415
caves 1415
chances 1415
chicken 1415
folklore 1415
fuselage 1415
spatial 1415
tenants 1415
tenor 1415
warehouse 1415
Bihar 1414
Habitat 1414
Rain 1414
appointments 1414
bitter 1414
keyboards 1414
realism 1414
speeches 1414
wl 1414
agon 1413
batsman 1413
conqu@@ 1413
coordination 1413
fut@@ 1413
hammer 1413
hex@@ 1413
listeners 1413
uter@@ 1413
Isles 1412
dor 1412
inform 1412
mountainous 1412
sound@@ 1412
trau@@ 1412
Ris@@ 1411
blocking 1411
dict 1411
iron@@ 1411
occurrence 1411
tub@@ 1411
2,500 1410
Gain@@ 1410
Oh@@ 1410
Roth@@ 1410
XII 1410
det 1410
dians 1410
omer@@ 1410
traders 1410
Beh@@ 1409
Slav@@ 1409
accounted 1409
controller 1409
heavyweight 1409
listings 1409
suspects 1409
whenever 1409
1796 1408
HR 1408
II@@ 1408
Maple 1408
alphabet 1408
aten 1408
congress 1408
fits 1408
ionist 1408
matric@@ 1408
oxid@@ 1408
possessions 1408
prominently 1408
termination 1408
Buck 1407
EA 1407
Infrastructure 1407
Manning 1407
Ordin@@ 1407
broadly 1407
campaigned 1407
midnight 1407
satellites 1407
117 1406
12,000 1406
Connell 1406
Plate 1406
Rapids 1406
duke 1406
fears 1406
owo 1406
tent@@ 1406
underneath 1406
unexpected 1406
violated 1406
Assam 1405
ED 1405
Hug@@ 1405
Pla@@ 1405
Teaching 1405
aq 1405
candidacy 1405
expressing 1405
harbor 1405
ogen 1405
uch 1405
ü 1405
Augustine 1404
Donna 1404
Fu 1404
gable 1404
selective 1404
shor@@ 1404
13,@@ 1403
afterward 1403
viable 1403
Ard@@ 1402
Mick 1402
Pond 1402
announcing 1402
pageant 1402
sworth 1402
Everything 1401
Pac 1401
Pis@@ 1401
Tun@@ 1401
Voy@@ 1401
Walton 1401
appeals 1401
confir@@ 1401
decorations 1401
diary 1401
magnet@@ 1401
psychiat@@ 1401
unaware 1401
Blackburn 1400
Cal 1400
Nord 1400
Technologies 1400
Whilst 1400
adjoining 1400
antic 1400
eco 1400
ensions 1400
figured 1400
gins 1400
illumin@@ 1400
rebranded 1400
2.8 1399
Emmanuel 1399
Shepherd 1399
ahu 1399
bull@@ 1399
Bach@@ 1398
Fischer 1398
Zan@@ 1398
detachment 1398
forcement 1398
lasts 1398
Josef 1397
concludes 1397
declar@@ 1397
modification 1397
psycho@@ 1397
rom 1397
undergoing 1397
Chen@@ 1396
Fuller 1396
Marx 1396
Pioneer 1396
Taliban 1396
defeats 1396
ired 1396
pa@@ 1396
Greenwich 1395
Mets 1395
Ruby 1395
Sophia 1395
etz@@ 1395
obil@@ 1395
ovi@@ 1395
vitational 1395
Commodore 1394
Honduras 1394
Wonder@@ 1394
academics 1394
bann@@ 1394
delic@@ 1394
dow@@ 1394
extraction 1394
hiking 1394
introduces 1394
Hyper@@ 1393
Sunderland 1393
Yan 1393
anxiety 1393
glac@@ 1393
inging 1393
monster 1393
90s 1392
Harlem 1392
avi 1392
figur@@ 1392
loo@@ 1392
syndicated 1392
Bowie 1391
Rei@@ 1391
burnt 1391
disgu@@ 1391
fraction 1391
passive 1391
uters 1391
Con 1390
Dictionary 1390
Kand@@ 1390
Kend@@ 1390
Lus@@ 1390
Oli@@ 1390
barracks 1390
developmental 1390
prov@@ 1390
repet@@ 1390
specification 1390
Divis@@ 1389
Hyp@@ 1389
Namibia 1389
Vick@@ 1389
Waters 1389
adays 1389
answers 1389
automated 1389
celebrating 1389
corresponds 1389
sports@@ 1389
PN@@ 1388
Phar@@ 1388
acia 1388
complem@@ 1388
nosis 1388
osphere 1388
recruiting 1388
rod@@ 1388
sab@@ 1388
2.6 1387
Bronx 1387
Compos@@ 1387
Genoa 1387
Hé@@ 1387
Mim@@ 1387
impe@@ 1387
peasants 1387
photographic 1387
175 1386
Dwight 1386
Edith 1386
Flemish 1386
Inv@@ 1386
Jacobs 1386
agne 1386
assumption 1386
cham@@ 1386
este@@ 1386
identifies 1386
logical 1386
tigh@@ 1386
19@@ 1385
Corner 1385
Matt@@ 1385
Oz@@ 1385
Stand@@ 1385
Zak@@ 1385
aldo 1385
breathing 1385
constructing 1385
critic@@ 1385
fam@@ 1385
forbidden 1385
inserted 1385
ku@@ 1385
retreated 1385
č 1385
Bologna 1384
Hig@@ 1384
Lafayette 1384
Returning 1384
Tong@@ 1384
Twelve 1384
barriers 1384
bride 1384
gir@@ 1384
limiting 1384
perennial 1384
rie@@ 1384
Fleming 1383
Rex 1383
Somalia 1383
Williamson 1383
chambers 1383
fierce 1383
frigate 1383
lings 1383
nominal 1383
strips 1383
1850s 1382
Arabs 1382
Dick@@ 1382
Jubilee 1382
Randolph 1382
Tate 1382
assisting 1382
avan 1382
circul@@ 1382
civilization 1382
sinking 1382
spin@@ 1382
1797 1381
1799 1381
Camden 1381
Lead 1381
Rodriguez 1381
Via 1381
Weather 1381
aret 1381
deficit 1381
exceeded 1381
firm@@ 1381
illes 1381
ll@@ 1381
sandy 1381
yuan 1381
Cub@@ 1380
Geographic 1380
Kannada 1380
aden@@ 1380
deep@@ 1380
handic@@ 1380
intru@@ 1380
itate 1380
ongs 1380
reproduction 1380
residency 1380
vap@@ 1380
AV 1379
Dover 1379
astronomy 1379
boot 1379
Nim@@ 1378
für 1378
nap 1378
osaurs 1378
put@@ 1378
receptions 1378
tarian 1378
tations 1378
turing 1378
Fritz 1377
Hous@@ 1377
Kash@@ 1377
Rapid 1377
agenda 1377
cottage 1377
guarantee 1377
modeled 1377
progression 1377
yes 1377
Him@@ 1376
cane 1376
exported 1376
fortifications 1376
jar@@ 1376
originating 1376
styled 1376
udes 1376
Discography 1375
ary@@ 1375
elines 1375
jar 1375
ogue 1375
Bec@@ 1374
Exc@@ 1374
Nina 1374
alizing 1374
eters 1374
ová 1374
ι@@ 1374
Entry 1373
Midwest 1373
Stevenson 1373
c.@@ 1373
check@@ 1373
ength 1373
harmony 1373
inters 1373
teens 1373
vre 1373
ști 1373
Bavarian 1372
Event 1372
Instit@@ 1372
John@@ 1372
Monaco 1372
adow 1372
caste 1372
extrac@@ 1372
inscribed 1372
lyn 1372
sty 1372
throws 1372
ution@@ 1372
26th 1371
bru@@ 1371
eign 1371
expend@@ 1371
ilia 1371
lodge 1371
miniseries 1371
precursor 1371
wed@@ 1371
Journey 1370
Travel 1370
Tsu@@ 1370
endon 1370
genocide 1370
hav@@ 1370
Hundred 1369
buff@@ 1369
cogn@@ 1369
coral 1369
dams 1369
depiction 1369
notorious 1369
overlooking 1369
plural 1369
240 1368
Purple 1368
agon@@ 1368
ghts 1368
prescri@@ 1368
reinforcements 1368
reproductive 1368
rift 1368
scra@@ 1368
Bub@@ 1367
Credits 1367
DF@@ 1367
DT 1367
Wildcats 1367
drought 1367
genuine 1367
ios@@ 1367
subordinate 1367
Crew 1366
Dil@@ 1366
LT@@ 1366
cameo 1366
chan 1366
home@@ 1366
Clan 1365
Karachi 1365
bec@@ 1365
comedi@@ 1365
ditioned 1365
geological 1365
Rescue 1364
alike 1364
fellowship 1364
grace 1364
ject 1364
· 1364
1600 1363
Birds 1363
Jah@@ 1363
Polytechnic 1363
aluminum 1363
endi@@ 1363
lou@@ 1363
num@@ 1363
omy 1363
onymous 1363
tible 1363
[...]
