. 1
, 0.7956643835708209
der 1
und 1
die 1
in 0.9631144201399836
&quot; 0.9308159735159988
@-@ 1
von 1
den 1
) 1
( 1
des 1
im 1
mit 1
er 1
wurde 1
dem 1
ist 1
das 1
Die 1
als 1
zu 1
auf 1
für 1
ein 1
eine 1
an 1
sich 1
war 1
aus 1
auch 1
bis 1
am 1
nach 1
: 1
“ 1
„ 1
bei 1
Der 1
sie 1
einer 1
zum 1
es 1
durch 1
– 1
einem 1
Im 1
werden 1
nicht 1
Das 1
sind 1
um 1
; 0.9391586398686682
wird 1
In 0.6218374497820056
zur 1
einen 1
über 1
oder 1
wurden 1
dass 1
/ 1
Er 1
Jahr 1
unter 1
wie 1
vor 1
sowie 1
vom 1
- 1
seiner 1
Nach 1
nur 1
hatte 1
seine 1
noch 1
de 1
Jahre 1
Sie 1
zwei 1
aber 1
waren 1
ab 1
hat 1
er@@ 1
en@@ 1
* 1
eines 1
Jahren 1
zwischen 1
Am 1
sein 1
ten 1
dieser 1
ver@@ 1
en 1
gegen 1
s 1
a 0.05426551405990862
Es 1
te 1
ersten 1
an@@ 1
Zeit 1
k@@ 1
ung 1
jedoch 1
seit 1
of 0.029542956016200765
Stadt 1
ab@@ 1
ische 1
so 1
man 1
etwa 1
i 0.9562282245453346
ischen 1
drei 1
wieder 1
Geschichte 1
Ver@@ 1
K@@ 1
G@@ 1
Als 1
Leben 1
m 1
seinem 1
s@@ 1
ein@@ 1
un@@ 1
aus@@ 1
t@@ 1
seinen 1
später 1
T@@ 1
beim 1
1 0.7232446239491905
Von 1
Bei 1
B@@ 1
liegt 1
S@@ 1
mehr 1
L@@ 1
o 0.9725782465261811
P@@ 1
Ende 1
diese 1
1. 1
ihre 1
ungen 1
el@@ 1
t 1
sch@@ 1
kann 1
z@@ 1
kam 1
2 0.7596220379156067
H@@ 1
konnte 1
D@@ 1
wo 1
erste 1
da 1
Mit 1
Gemeinde 1
An@@ 1
Sch@@ 1
ihm 1
be@@ 1
isch 1
August 1
e 1
ge@@ 1
Mai 1
März 1
E@@ 1
M@@ 1
ern 1
Ab@@ 1
Teil 1
Januar 1
Oktober 1
auf@@ 1
heute 1
n@@ 1
R@@ 1
haben 1
ihrer 1
al@@ 1
dann 1
ungs@@ 1
bereits 1
dort 1
’ 1
st@@ 1
&amp; 0.6989069494430357
September 1
† 1
Juni 1
April 1
in@@ 1
f@@ 1
Juli 1
Universität 1
l@@ 1
W@@ 1
Kirche 1
ihn 1
anderen 1
b@@ 1
d@@ 1
US 1
während 1
erhielt 1
ent@@ 1
Dezember 1
ter 1
vier 1
um@@ 1
A@@ 1
gab 1
November 1
über@@ 1
Ein 1
Saison 1
km 1
m@@ 1
beiden 1
F@@ 1
ihr 1
Diese 1
N@@ 1
% 0.5079474910367435
g@@ 1
3 0.7374307372740759
Platz 1
dessen 1
Seit 1
alle 1
können 1
Deutschland 1
diesem 1
gibt 1
Z@@ 1
Berlin 1
ischer 1
Jahrhundert 1
V@@ 1
O@@ 1
Vor@@ 1
Mitglied 1
Februar 1
Eine 1
vor@@ 1
St@@ 1
ar@@ 1
deutschen 1
Auch 1
l 1
Ober@@ 1
Ein@@ 1
zurück 1
damit 1
Für 1
i@@ 1
C@@ 0.8145539116513232
deren 1
zunächst 1
Auf 1
4 0.7315504033263199
ers 1
as 0.062086871921744516
ende 1
us 1
ens 1
z 1
ihren 1
Familie 1
keine 1
Aus@@ 1
enden 1
zusammen 1
befindet 1
ins 1
_ 1
or@@ 1
Ort 1
sehr 1
y@@ 0.8365172946206056
ch@@ 1
weitere 1
Namen 1
d 1
begann 1
steht 1
Film 1
nahm 1
at 0.08675226535422396
Sohn 1
worden 1
es@@ 1
bekannt 1
spielte 1
gewann 1
Personen 1
liche 1
on@@ 1
allem 1
el 1
Er@@ 1
on 0.056976262345800915
bzw. 1
ebenfalls 1
h@@ 1
2011 1
n 1
is@@ 1
anderem 1
lich 1
2010 0.9614825637658796
denen 1
os 1
statt 1
iert 1
J@@ 1
j@@ 1
mann 1
et@@ 1
gen 1
p@@ 0.7797020081727093
at@@ 1
was 0.033833613923564744
e@@ 1
Unter@@ 1
ohne 1
w@@ 1
k 1
ging 1
selbst 1
U@@ 1
2009 1
2015 1
neuen 1
2012 1
v@@ 1
re@@ 0.6140759214190114
I@@ 1
lichen 1
2008 1
dabei 1
le 1
trat 1
ler 1
gehörte 1
2014 0.9947394637838624
berg 1
2013 1
führte 1
o@@ 1
ner 1
Bau@@ 1
2. 1
and 0.013776207694757809
formula 1
r@@ 1
Während 1
hier 1
19. 1
deutscher 1
&apos; 0.18960801083205356
2016 0.9875178488383365
Meter 1
neue 1
erstmals 1
a@@ 1
2007 1
stand 1
Jahrhunderts 1
5 0.6618705020345115
Haupt@@ 1
au 1
immer 1
Ab 1
u@@ 1
-@@ 1
tes 1
bezeichnet 1
is 0.04013288755035514
Al@@ 1
al 0.629915275317665
sei 1
New 0.3738557029159927
ale 1
fünf 1
2017 0.9868279112130482
The 0.03683902562468669
St. 1
u 0.8213542153174895
2006 1
Seine 1
Name 1
gehört 1
zu@@ 1
ie 1
g 1
sten 1
y 0.5608472429112793
Titel 1
wegen 1
the 0.005983096498509782
Deutschen 1
zweiten 1
10 0.6400129883395437
arbeitete 1
schon 1
Un@@ 1
ge 1
Band 1
Zu 1
th@@ 1
et 1
2018 0.908891403565425
fand 1
Be@@ 1
seines 1
sondern 1
einige 1
Gruppe 1
2019 0.913509760515865
ke 1
it@@ 1
igen 1
Sein 1
So 1
In@@ 1
der@@ 1
20 0.7525812845426328
Liste 1
erst 1
ter@@ 1
unter@@ 1
rund 1
ihrem 1
neben 1
hatten 1
6 0.620496564425788
chen 1
studierte 1
Menschen 1
Karriere 1
2005 1
ierte 1
Friedrich 1
mehrere 1
besteht 1
andere 1
ar 0.8094320192794783
dieses 1
deutsche 1
20. 1
Anfang 1
em 1
teil 1
Tod 1
großen 1
A 0.26198180766783385
ol@@ 1
3. 1
genannt 1
B. 1
Über@@ 1
Art 1
de@@ 1
2000 1
gt 1
Durch 1
18. 1
letzten 1
enk@@ 1
15 0.7692504044719575
ber@@ 1
1945 1
wenn 1
sollte 1
ige 1
amp 0.6368267457430045
4@@ 1
Kilometer 1
ot@@ 1
große 1
Da 1
diesen 1
ger@@ 1
2004 1
wechselte 1
erfolgte 1
Unternehmen 1
tätig 1
straße 1
14@@ 1
weiter 1
alen 1
Gebiet 1
allerdings 1
2020 0.8758401115073792
sen 1
le@@ 1
13@@ 1
Johann 1
wobei 1
isches 1
bach 1
sp@@ 1
3@@ 0.9684426489511077
Einwohner 1
sk@@ 1
Straße 1
soll 1
ur@@ 1
Sp@@ 1
führt 1
ieren 1
ens@@ 1
Mitte 1
Land@@ 1
gegründet 1
end 0.5890579959524321
gen@@ 1
ro@@ 1
ag@@ 1
Mar@@ 1
erreichte 1
Frau 1
am@@ 0.8880357488320841
Mannschaft 1
ad@@ 1
15. 1
Nachdem 1
blieb 1
5@@ 0.9733821270858807
Verein 1
8 0.6550450128914777
nun 1
Auf@@ 1
ä@@ 1
Region 1
musste 1
Zweiten 1
folgenden 1
den@@ 1
übernahm 1
em@@ 1
jeweils 1
Um@@ 1
Karl 1
z. 1
sechs 1
weiteren 1
ken 1
schließlich 1
au@@ 1
viele 1
Gebäude 1
ch 1
ak@@ 1
li@@ 1
di@@ 1
us@@ 1
ert 1
Landes@@ 1
16. 1
Bis 1
4. 1
Kon@@ 1
ow 1
7 0.5975035445466907
a. 1
Stadt@@ 1
je 1
ul@@ 1
ene 1
17. 1
Vater 1
op@@ 1
B 1
2003 1
Norden 1
2001 1
USA 1
lang 1
ia 0.8555196066179476
ierten 1
ik@@ 1
6@@ 1
30 0.7501788916213717
erhalten 1
Bereich 1
Form 1
ts 1
ger 1
2002 1
An 1
neu 1
zog 1
gewählt 1
aufgrund 1
u. 1
insgesamt 1
5. 1
welche 1
ien 1
7@@ 1
100 1
16 0.7460222831230603
Dort 1
h 1
acht 1
University 0.33500839605311167
lt 1
darauf 1
Album 1
Haus 1
Dabei 1
ig 1
entstand 1
c@@ 0.5133619365190927
dazu 1
verwendet 1
Tochter 1
verschiedenen 1
Land 1
alten 1
om@@ 1
licher 1
Bundes@@ 1
U 1
2021 0.8949943249547646
Wilhelm 1
Her@@ 1
13. 1
FC 1
Groß@@ 1
Bar@@ 1
ka 1
München 1
allen 1
König 1
ließ 1
Bau 1
finden 1
14. 1
Amt 1
se@@ 1
folgender 1
Süden 1
Ch@@ 0.9494859011515355
ing 0.34296199081454515
Nord@@ 1
erneut 1
stein 1
stellte 1
Kinder 1
Hoch@@ 1
erschien 1
ere 1
os@@ 1
Ar@@ 1
Rahmen 1
Werk 1
Prozent 1
18 0.5990615362536649
ben 1
elle 1
Wien 1
0 0.9236552336298067
ten@@ 1
Mal 1
Arbeit 1
1999 1
Weltkrieg 1
Dies 1
Stand 1
12. 1
John 0.4833879969445702
konnten 1
6. 1
gilt 1
or 0.0980669105608973
meist 1
errichtet 1
Rolle 1
Millionen 1
Lage 1
Entwicklung 1
Dieser 1
Einsatz 1
insbesondere 1
eigenen 1
Spiel@@ 1
Neben 1
Süd@@ 1
Bevölkerung 1
Schul@@ 1
Heinrich 1
werk 1
Neu@@ 1
land 0.6124446332730908
r 1
Dorf 1
8. 1
8@@ 0.997765010418043
Provinz 1
Osten 1
Richtung 1
14 0.6963418682839454
end@@ 1
1990 1
ra@@ 1
enen 1
12 0.5449010274975806
9@@ 1
starb 1
davon 1
Westen 1
7. 1
gel@@ 1
Frankreich 1
ing@@ 1
bestand 1
9. 1
Staaten 1
as@@ 0.9488350311208299
West@@ 1
ier@@ 1
il@@ 1
ste 1
eingesetzt 1
Musik@@ 1
Frauen 1
Hans 1
b 1
si@@ 1
bar 1
kommt 1
be 0.09484045594681738
innerhalb 1
ri@@ 1
Gesellschaft 1
fast 1
ingen 1
9 0.5666388083181814
Seite 1
Schule 1
Beginn 1
12@@ 1
durch@@ 1
habe 1
1998 1
Bedeutung 1
York 0.5121163769445402
oft 1
50 1
damals 1
II. 1
men 0.5887552327575315
eten 1
zeit 1
ina 1
eln 1
lag 1
Partei 1
Aus 1
Grund@@ 1
I 0.2835053747268351
Peter 1
ation 0.5376909483111947
Paris 1
eren 1
burg 1
also 0.09293587831182942
zweite 1
Folge 1
Wasser@@ 1
Jahres 1
Außerdem 1
ei@@ 1
Beispiel 1
ne 1
10. 1
dies 1
gut 1
Um 1
stark 1
Paul 1
Ge@@ 1
ik 1
darunter 1
feld 1
Landkreis 1
se 1
ü@@ 1
O 0.92363182439652
Regierung 1
ehemaligen 1
Höhe 1
Zur 1
Ger@@ 1
la 1
ap@@ 0.9756457333435662
Unter 1
geht 1
Di@@ 1
heutigen 1
ck@@ 1
erte 1
kurz 1
folgte 1
ell@@ 1
Musik 1
11. 1
Kar@@ 1
ne@@ 1
eb@@ 1
ierung 1
ie@@ 1
1994 1
zurück@@ 1
p 0.7975518252042747
Nach@@ 1
enz@@ 1
C 0.9111578864593332
lange 1
1997 1
gegenüber 1
13 0.6545956598173006
it 0.07331790263881645
ach 1
ob@@ 1
1996 1
1992 1
Team 1
eg@@ 1
Österreich 1
sowohl 1
Serie 1
Mittel@@ 1
kon@@ 1
veröffentlicht 1
= 0.6926107111731801
zahlreiche 1
ete 1
ti@@ 1
weil 1
me 1
Spiel 1
stellen 1
Y@@ 0.592032972665515
Film@@ 1
ismus 1
Burg 1
französischen 1
Ber@@ 1
zudem 1
1995 1
geboren 1
findet 1
sehen 1
ell 1
recht 1
lassen 1
Kreis 1
Berg@@ 1
Krieg 1
Welt 1
1991 1
ca. 1
iger 1
nen 1
muss 1
I. 1
é@@ 1
é 1
&#91; 0.36190234636468654
geb@@ 1
25 0.6220147382600208
&#93; 0.36078254264355253
erst@@ 1
zehn 1
Zum 1
danach 1
im@@ 0.9807207971653085
verschiedene 1
Liga 1
setzte 1
Sitz 1
re 0.629857445196856
ut@@ 1
1993 1
ö@@ 1
ok@@ 1
Mon@@ 1
30. 1
ig@@ 1
stehen 1
besuchte 1
Alter 1
17 0.6354810391968174
ts@@ 1
Ost@@ 1
del 1
gemeinsam 1
ender 1
gleichen 1
schrieb 1
innen 1
Insel 1
besonders 1
Stein@@ 1
40 1
21. 1
ellen 1
heim 1
ach@@ 1
leben 1
Professor 1
itz 1
ung@@ 1
Pro@@ 1
Kl@@ 1
zeigt 1
machte 1
Vertrag 1
2@@ 0.9676123623426837
Par@@ 1
Sommer 1
stadt 1
Hamburg 1
Gemeinden 1
schule 1
beispielsweise 1
El@@ 1
Maria 1
zuvor 1
aten 1
schloss 1
Zu@@ 1
1989 1
meisten 1
doch 1
rat 1
nach@@ 1
London 0.6373748298648593
inger 1
sieben 1
f 1
Spieler 1
19 0.5538828616972148
ß@@ 1
kommen 1
kamen 1
Mutter 1
erk@@ 1
ber 1
ologie 1
amerikanischen 1
teilweise 1
hinaus 1
befinden 1
gehören 1
Am@@ 1
spielen 1
bereich 1
gebiet 1
ine 0.6532433505505428
Mann 1
Staats@@ 1
Schweiz 1
Werke 1
gelang 1
Europa 1
hin 1
genutzt 1
fen 1
Georg 1
ster 1
DDR 1
and@@ 1
25. 1
Schloss 1
League 0.42569248927933884
haus 1
ich 1
11 0.4929293397770992
ihnen 1
bl@@ 1
schaft 1
Har@@ 1
Vereinigten 1
26. 1
eigene 1
Strecke 1
enb@@ 1
En@@ 1
st 1
22. 1
daher 1
Schw@@ 1
Armee 1
Per@@ 1
absolvierte 1
Rück@@ 1
Le@@ 1
stellt 1
veröffentlichte 1
nachdem 1
ationen 1
Re@@ 1
enten 1
bau 1
schen 1
aller 1
gründete 1
ir@@ 1
Franz 1
Spielen 1
liches 1
Car@@ 0.9063883486140015
iz@@ 1
Betrieb 1
Studium 1
sh@@ 0.6410628528059057
ker 1
Mitglieder 1
Fach@@ 1
Danach 1
Kur@@ 1
handelt 1
etwas 1
Ausbildung 1
zen 1
Reihe 1
28. 1
kleinen 1
Deutsche 1
24. 1
enst@@ 1
ations@@ 1
häufig 1
Saint 1
bel@@ 1
est@@ 1
Ludwig 1
aufgenommen 1
Tag 1
kl@@ 1
Bruder 1
kein 1
isten 1
einigen 1
möglich 1
Weitere 1
23. 1
liegen 1
S 1
entstanden 1
arbeiten 1
Bl@@ 1
Ersten 1
ern@@ 1
id@@ 1
1972 1
beide 1
Qu@@ 1
1988 1
weg 1
1933 1
erin 1
La 1
Kunst@@ 1
deutlich 1
kleine 1
letzte 1
Th@@ 1
Hier 1
Zwischen 1
Politiker 1
27. 1
dorf 1
tern 1
Arten 1
ja 1
ans 0.8724640205628469
erreicht 1
to 0.008387221056231338
gruppe 1
G 1
Bahnhof 1
folgende 1
hinter 1
ep@@ 1
Bereits 1
all@@ 1
Michael 1
1980 1
Olympischen 1
ek@@ 1
zwar 1
D 0.8617407200570161
ed@@ 1
schw@@ 1
somit 1
ze 1
lässt 1
außerdem 1
Nieder@@ 1
Museum 1
bau@@ 1
Buch 1
ß 1
ck 1
ant@@ 1
Mal@@ 1
ursprünglich 1
vielen 1
ate 0.3856370610175121
Bi@@ 1
1987 1
29. 1
te@@ 1
erten 1
² 1
1970 1
wer@@ 1
geschichte 1
els 1
Nähe 1
Or@@ 1
Se@@ 1
Jugend@@ 1
enberg 1
Sal@@ 1
ra 0.8791140382651561
Ziel 1
County 0.34979589613778167
Den 1
qu@@ 0.9336366942419916
ernannt 1
Thomas 0.9305677543535865
Stelle 1
mehreren 1
kehrte 1
ur 1
E 0.9937876400844811
direkt 1
Sport@@ 1
Linie 1
che 1
1939 1
Über 1
eh@@ 1
Finale 1
Berliner 1
Wal@@ 1
gehen 1
Wasser 1
Fl@@ 1
AG 1
platz 1
her@@ 1
ser@@ 1
ener 1
Siehe 1
selben 1
gewesen 1
na 1
dafür 1
Präsident 1
1974 1
1938 1
südlich 1
Volks@@ 1
erwähnt 1
anschließend 1
He@@ 1
gesch@@ 1
L 0.8580863773512004
1986 1
Kor@@ 1
Klein@@ 1
24 0.5373923810896905
pro 1
mer@@ 1
Robert 0.9103744101100816
Zudem 1
1984 1
Bezeichnung 1
dritten 1
60 1
ru@@ 1
Gründung 1
San 0.7041317639540349
gebaut 1
Holz@@ 1
eng@@ 1
21 0.5484945804343261
31. 1
Einwohnern 1
ana 0.8262183990726131
mit@@ 1
ons 0.8446908624348052
Erfolg 1
Spiele 1
Mor@@ 1
weniger 1
Lebens@@ 1
Man@@ 1
Ur@@ 1
Preis 1
Ihre 1
entwickelte 1
Martin 1
verheiratet 1
1985 1
National 0.26024226121861327
1975 1
ac@@ 0.6004739612252896
mm 1
ort 1
führen 1
spiel 1
ensch@@ 1
erster 1
Chr. 1
1978 1
heiratete 1
Reichs@@ 1
1944 1
Produktion 1
cm 1
10@@ 1
tigen 1
Dieses 1
enh@@ 1
stammt 1
größten 1
Nachfolger 1
ihres 1
bahn 1
x@@ 0.9766711300853212
Klasse 1
amerikanischer 1
Sprache 1
ff@@ 1
Kriegs@@ 1
erung 1
Schweizer 1
1976 1
1968 1
Ak@@ 1
Mit@@ 1
len 1
fl@@ 1
stieg 1
see 0.9318402424234075
Buch@@ 1
x 0.736928808222888
International 0.49331968165405576
Kultur@@ 1
c 0.6612460771321692
K 1
V 1
1969 1
ist@@ 1
1983 1
Ma@@ 1
1979 1
halten 1
af@@ 1
ier 1
1973 1
mer 1
Weg 1
diente 1
1982 1
Tor@@ 1
nördlich 1
bel 1
Köln 1
los 1
bildet 1
1971 1
Grund 1
Beim 1
ausge@@ 1
Rang 1
West 0.4630252316615044
ges@@ 1
Einzel@@ 1
weit 1
befand 1
1960 1
ums 1
Institut 1
politischen 1
tung 1
Familienname 1
welches 1
ben@@ 1
di 1
umfasst 1
her 0.08571212034525333
är@@ 1
ganz 1
ster@@ 1
od@@ 1
Alt@@ 1
Damit 1
City 0.33897811699725156
mon@@ 1
Teile 1
isch@@ 1
Euro 1
200 1
Besitz 1
Meister 1
R 0.8064684727525181
amt 1
ang@@ 1
Truppen 1
Zeit@@ 1
Verbindung 1
dar 1
Frankfurt 1
Kloster 1
Tage 1
Kaiser 1
1950 1
ität 1
Bo@@ 1
ehemalige 1
! 0.4893947951453638
Johannes 1
Staffel 1
fer@@ 1
spielt 1
1981 1
Joseph 1
Ne@@ 1
Fahr@@ 1
Carl 1
England 0.5438761376732535
Raum 1
einmal 1
art 0.6459297211188918
Anschließend 1
elt 1
Militär@@ 1
Tri@@ 1
benannt 1
1946 1
Wahl 1
größte 1
fanden 1
Otto 1
Italien 1
Wald@@ 1
gestellt 1
enn@@ 1
tige 1
hohen 1
gl@@ 1
ob 1
Sieg 1
gest@@ 1
per@@ 1
Bischof 1
Hälfte 1
22 0.5398578201878496
damaligen 1
1964 1
Zuge 1
v. 1
Nr. 1
Ro@@ 1
Leitung 1
stelle 1
Rennen 1
ov@@ 0.9658971777519793
Politik 1
System 1
age 0.2451503932017651
we@@ 1
nahe 1
belegte 1
GmbH 1
1977 1
Landes 1
wenig 1
Orts@@ 1
Grenze 1
one 0.07341446860504093
gew@@ 1
enburg 1
Wer@@ 1
Runde 1
französische 1
Pl@@ 1
1967 1
Verwaltungs@@ 1
Ernst 1
ebenso 1
Länge 1
ma 1
Ihr 1
Kirchen@@ 1
britischen 1
gel 1
Begriff 1
fer 1
Arbeiten 1
Leipzig 1
500 1
meister 1
fest 1
Division 0.5900684115239417
besitzt 1
entfernt 1
Kunst 1
Bad 1
Tour 1
Bor@@ 1
Kanton 1
Nationalmannschaft 1
Ortsteil 1
1965 1
Sk@@ 1
Rechts@@ 1
nieder@@ 1
sogar 1
Herrschaft 1
Gra@@ 1
Kom@@ 1
bevor 1
mal 1
einzige 1
machen 1
ator 0.9757830969313831
ut 1
cht 1
zug 1
Gr@@ 1
Aufgrund 1
geführt 1
Lehr@@ 1
Ehe 1
Con@@ 0.6164115282559157
östlich 1
beträgt 1
brachte 1
See 1
Stil 1
dern 1
Ent@@ 1
National@@ 1
deutsch 1
1961 1
á@@ 1
esch@@ 1
Teil@@ 1
Leiter 1
Christian 0.9828776004425243
Zentrum 1
alte 1
westlich 1
1962 1
Hof@@ 1
weiterhin 1
ausgezeichnet 1
land@@ 1
späteren 1
1940 1
1966 1
ard 0.829810983699026
Bel@@ 1
Fall 1
entwickelt 1
raum 1
1963 1
ange@@ 1
Republik 1
agen 1
wohl 1
Gesamt@@ 1
endorf 1
bisher 1
hielt 1
Wohn@@ 1
ich@@ 1
Bayern 1
ant 0.6189162960056498
Welt@@ 1
Feld@@ 1
Männer 1
sdorf 1
anischen 1
frühen 1
besch@@ 1
1956 1
verbunden 1
1952 1
Sachsen 1
anz@@ 1
° 1
sche 1
1949 1
zi@@ 1
Firma 1
internationalen 1
1941 1
ette 1
ess@@ 1
1942 1
eher 1
ersch@@ 1
enz 1
Theater 1
Wie 1
Ad@@ 1
v 0.8984643991839515
tig 1
1948 1
Haus@@ 1
betrieb 1
ang 0.9705250673677498
alt@@ 1
Später 1
ah@@ 1
hin@@ 1
erzielte 1
Zahl 1
Polen 1
1943 1
II 0.4056410919735778
Fläche 1
str@@ 1
det 1
ente 1
1958 1
enthält 1
Park 0.5057610918807403
ai 0.7448075975304846
Natur@@ 1
mar@@ 1
aktiv 1
Hilfe 1
Geographie 1
legte 1
ast@@ 1
verlor 1
Fest@@ 1
T 0.7063247496815042
geben 1
F 0.7980596098896394
tet 1
Erst 1
müssen 1
Arbeits@@ 1
Reg@@ 1
80 1
Literatur 1
Gemeinde@@ 1
Kreuz@@ 1
ran@@ 1
ling 1
lediglich 1
Kn@@ 1
Meisterschaft 1
sm@@ 1
auer 1
ph@@ 1
Sh@@ 0.4725487761042385
vier@@ 1
Wirtschaft 1
Kultur 1
Gen@@ 1
og@@ 1
ass@@ 1
Akademie 1
Vor 1
Sozial@@ 1
Cor@@ 0.9014331856858291
William 0.49764898688259596
schaften 1
David 0.665174988745782
Wahl@@ 1
gef@@ 1
War@@ 1
Wiener 1
ett 1
90 1
General 0.48968392216043743
Ö@@ 1
1957 1
ou@@ 0.837631547233577
sollten 1
ak 0.8385644132718949
Kal@@ 1
beteiligt 1
1959 1
Beschreibung 1
tr@@ 1
Bahn 1
Mo@@ 1
Regel 1
Gattung 1
College 0.36922252377716547
Weltmeisterschaft 1
M 0.7614749768436068
X@@ 0.7505767533819021
Tr@@ 1
Funktion 1
1947 1
ad 0.6872006731814678
genommen 1
son 0.24371137125512826
35 1
Vorsitzender 1
Schiff 1
politische 1
Version 1
mel@@ 1
wuchs 1
gleich@@ 1
De@@ 0.7862318155187866
fiel 1
70 1
man@@ 1
Schlacht 1
bi@@ 1
nimmt 1
Bürgermeister 1
N 0.8791746374049271
Abschluss 1
Li@@ 1
Alexander 1
yl@@ 1
Verwendung 1
amerikanische 1
az@@ 1
ys 1
Schl@@ 1
Lu@@ 1
23 0.49327480190711
hohe 1
ersetzt 1
Richard 0.9628515890195672
bar@@ 0.9402352346871002
Gast@@ 1
Kinder@@ 1
Ex@@ 1
Bu@@ 1
du 1
Br@@ 1
Inter@@ 1
ino 1
Zeitpunkt 1
Ros@@ 1
erreichen 1
würde 1
1934 1
1954 1
zer@@ 1
Wirtschafts@@ 1
Ko@@ 1
sel@@ 1
wollte 1
1936 1
Best@@ 1
1920 1
1953 1
lebte 1
viel 1
ton 0.48324387651424494
spieler 1
Uhr 1
1919 1
zahlreichen 1
1955 1
.@@ 0.41215913707477864
neun 1
1918 1
äre 1
Mitarbeiter 1
langen 1
Ru@@ 1
Union 0.5692571657433663
Pf@@ 1
heraus 1
verläuft 1
Position 1
sch 1
zwei@@ 1
Dollar 1
Cup 0.4120614764823565
form@@ 1
süd@@ 1
ation@@ 1
tz@@ 1
hausen 1
gebracht 1
Künstler 1
Me@@ 1
Man 1
lebten 1
sollen 1
per 0.41227962365515164
trägt 1
wenige 1
Gruppen 1
Spielzeit 1
ow@@ 1
School 0.2290014987399847
siehe 1
Hochschule 1
Projekt 1
av@@ 0.7193694348041125
eröffnet 1
weisen 1
bald 1
pl@@ 0.9320244968887264
nahmen 1
he 0.03129566820830338
erb@@ 1
beendete 1
hauptsächlich 1
… 1
Tra@@ 1
ss@@ 1
knapp 1
lichkeit 1
bilden 1
nächsten 1
Roman 0.865948187091714
folgten 1
Heute 1
besten 1
For@@ 1
all 0.10327949908643067
are 0.0395665267087422
hr@@ 1
itz@@ 1
Hermann 1
Anzahl 1
Sonder@@ 1
fest@@ 1
weise 1
fall 1
Rom 1
32 1
verband 1
‘ 0.7803352472414813
Verfügung 1
gesamte 1
ic@@ 0.6211562226169824
früher 1
erfolgreich 1
Vertreter 1
keinen 1
Mer@@ 1
berger 1
1937 1
Baden 1
form 0.36503455216410197
1951 1
ost@@ 1
ehemaliger 1
wirkte 1
betrug 1
Tätigkeit 1
gegeben 1
verkehr 1
cher 1
Not@@ 1
China 0.6106541511628005
Bahn@@ 1
lebt 1
Handlung 1
Stadtteil 1
ano 1
spiel@@ 1
Gegensatz 1
mussten 1
Unterstützung 1
+ 0.8338994983849336
Eis@@ 1
1935 1
gehörten 1
Bild@@ 1
lage 1
ta 1
Trainer 1
Organisation 1
Fernseh@@ 1
Halb@@ 1
gem@@ 1
macht 1
Eltern 1
Max 1
darüber 1
vermutlich 1
zusammen@@ 1
kur@@ 1
ei 1
Ri@@ 1
Jean 1
gefunden 1
Bal@@ 1
seite 1
Flug@@ 1
Verkehr 1
1930 1
onen 1
Au@@ 1
Metern 1
führung 1
James 0.4842325422497618
nie 1
tor@@ 1
Du@@ 1
eller 1
kn@@ 1
45 1
Dresden 1
ft 1
for 0.013738931442984294
Ho@@ 1
George 0.4812646320490593
oben 1
hof 1
ör@@ 1
Berg 1
ent 0.6068237540105295
World 0.17423133126905946
anlage 1
Außen@@ 1
werke 1
Anlage 1
vollständig 1
Su@@ 1
Kreis@@ 1
dadurch 1
istische 1
gleichzeitig 1
Verlag 1
daraufhin 1
dienst 1
Soldaten 1
Gymnasium 1
om 1
hoch@@ 1
bet@@ 1
ler@@ 1
26 0.4800181715507874
leitete 1
End@@ 1
ini 1
1@@ 0.9492873455875572
Schüler 1
gleich 1
gesellschaft 1
ski 1
bietet 1
Pol@@ 1
Kr@@ 1
system 0.2857348878746976
setzt 1
Hel@@ 1
einzelnen 1
zw@@ 1
frei 1
Weltmeisterschaften 1
erwarb 1
aler 1
denn 1
buch 1
hal@@ 1
Rot@@ 1
Dienst 1
istischen 1
verließ 1
Ton@@ 1
Reich 1
Dr. 1
Hof 1
III. 1
schul@@ 1
überwiegend 1
en- 1
par@@ 0.6328693732208868
Alle 1
Hauptstadt 1
1914 1
tor 1
spiele 1
Stiftung 1
öffentlichen 1
do 0.34631531688259537
1928 1
Anschluss 1
lagen 1
Mannschaften 1
28 0.46860009680401005
Kan@@ 1
Jugend 1
indem 1
nis 1
Hannover 1
Verlauf 1
0@@ 0.9347401237124633
zuletzt 1
Artikel 1
Wein@@ 1
ischem 1
Fluss 1
Zwei 1
nehmen 1
La@@ 1
übernommen 1
leicht 1
wiederum 1
baren 1
gemacht 1
Einfluss 1
verb@@ 1
1929 1
Dazu 1
Main 1
zeigen 1
ausschließlich 1
historischen 1
will 0.21428811995758656
vi@@ 0.8080911683450069
Luft@@ 1
Bundesliga 1
ma@@ 1
š@@ 1
kirche 1
Mag@@ 1
Doppel@@ 1
Rad@@ 1
27 0.4655801183977756
Forschungs@@ 1
einge@@ 1
van 1
ober@@ 1
Pal@@ 1
400 1
ose 1
Kirch@@ 1
Direktor 1
Sol@@ 1
tt@@ 1
verloren 1
Rhein@@ 1
gingen 1
sogenannten 1
Minuten 1
oren 1
Basis 1
iten 1
stellung 1
Japan 0.5981290232210688
Auftrag 1
zentrum 1
isierung 1
Zusammenhang 1
aden 1
mindestens 1
schl@@ 1
kt@@ 1
geh@@ 1
il 1
Walter 1
war@@ 0.9900455690240262
Zusammenarbeit 1
Verwaltung 1
gesamten 1
P 0.758506097578612
zerstört 1
Lied 1
erh@@ 1
Friedhof 1
ub@@ 1
Zeitung 1
galt 1
verkauft 1
pp@@ 1
la@@ 1
Papst 1
jeder 1
Ha@@ 1
í@@ 1
seien 1
Zeitschrift 1
Bildung 1
führten 1
Dem@@ 1
1932 1
Nord 1
startete 1
Seiten 1
entlang 1
American 0.12619490628610647
kaum 1
Monate 1
bestehen 1
Gl@@ 1
Anna 1
Darüber 1
heutige 1
oh@@ 1
sen@@ 1
Hand@@ 1
ley 0.39227822818542796
ha 1
eil 1
Schauspieler 1
Grenz@@ 1
Wappen 1
no@@ 1
Graf 1
Orte 1
« 1
V. 1
Gu@@ 0.9822000215179894
iges 1
Fußball@@ 1
sel 1
1900 1
River 0.33454152664845804
Umgebung 1
gebäude 1
Josef 1
w 1
Ländern 1
Club 0.5124094200949022
oc@@ 0.5512845289507798
Bre@@ 1
lo@@ 0.9031857886319183
heißt 1
Charles 0.583222416800379
tsch@@ 1
Abteilung 1
» 1
Zentral@@ 1
tel@@ 1
iss@@ 1
jährigen 1
j 1
wagen 1
tw@@ 1
Post@@ 1
ausgetragen 1
Gar@@ 1
Kritik 1
Kapelle 1
ium 1
kt 1
folgt 1
großer 1
eil@@ 1
erfolgt 1
tri@@ 0.9688034857300932
ür@@ 1
br@@ 1
zer 1
SV 1
Mark 1
Pre@@ 1
bringen 1
ex@@ 0.7758707133744824
1970er 1
Bur@@ 1
Thema 1
Selbst@@ 1
durchgeführt 1
Autor 1
weist 1
Einige 1
welcher 1
Stuttgart 1
katholischen 1
entdeckt 1
ata 0.8438444053291505
wald 1
lin@@ 1
Em@@ 1
Darstellung 1
bildete 1
Russland 1
Geb@@ 1
betrieben 1
arbeitet 1
Zürich 1
tre@@ 1
Recht 1
un 0.9107596828325294
Brücke 1
regelmäßig 1
bare 1
1925 1
1980er 1
erstes 1
europäischen 1
fahrt 1
österreichischen 1
Bezirk 1
Zug@@ 1
Turm 1
vers@@ 1
Fußball 1
zwölf 1
Insgesamt 1
Neben@@ 1
weiterer 1
Le 1
Punkte 1
Obwohl 1
voll@@ 1
Ser@@ 1
X 0.6359992718323021
Bild 1
Sub@@ 1
zusätzlich 1
Erd@@ 1
südlichen 1
erbaut 1
endes 1
wahrscheinlich 1
Hintergrund 1
Dom@@ 1
1927 1
ane 0.9287858345680873
mittel@@ 1
ün@@ 1
Verfahren 1
Bahnstrecke 1
Schutz@@ 1
gi@@ 1
ae 1
1924 1
Finanz@@ 1
ey 0.567295547727836
eter 1
if@@ 1
General@@ 1
SC 1
gang 1
sin@@ 1
Pr@@ 1
fort 1
he@@ 0.9916734035673013
Co@@ 0.8857416331428912
Sar@@ 1
Vom 1
sodass 1
Département 1
Bürger@@ 1
kan@@ 1
Geschäfts@@ 1
leiter 1
300 1
beginnt 1
Daneben 1
fin@@ 1
ya 0.5644956988783364
russischen 1
Nordosten 1
Award 0.4816993639838408
ann@@ 1
führer 1
ci@@ 0.8849637544246279
‚ 1
Laufbahn 1
ay 0.713430892217091
Privat@@ 1
erei 1
gebildet 1
ats 1
lief 1
deshalb 1
Stück 1
SPD 1
Tal@@ 1
standen 1
ec@@ 0.5336120754664341
ol 0.9908681394795551
rat@@ 1
Wochen 1
no 0.15363982666975803
fe 1
ati@@ 1
ade 1
io 1
Hei@@ 1
by 0.013505633978093448
1910 1
Pi@@ 1
ett@@ 1
Schutz 1
ven 1
Wil@@ 1
rechts 1
TV 0.4416984687233296
75 1
äl@@ 1
zeit@@ 1
weitgehend 1
ki 1
genden 1
Sel@@ 1
anten 1
ica 1
asch@@ 1
gewinnen 1
Min@@ 1
Siedlung 1
wieder@@ 1
1960er 1
Markt 1
verliehen 1
Song 1
lu@@ 1
1921 1
Mont@@ 1
eck@@ 1
men@@ 1
anlagen 1
Königreich 1
United 0.11079613432081259
verein 1
1990er 1
än@@ 1
Verkehrs@@ 1
selten 1
ius 1
Herbst 1
endete 1
ot 1
rä@@ 1
relativ 1
neu@@ 1
bu@@ 0.8740781748638718
Gold@@ 1
Erst@@ 1
1931 1
Doch 1
größere 1
dritte 1
Mel@@ 1
anderer 1
Gegen@@ 1
geschrieben 1
alität 1
Tro@@ 1
Weltkriegs 1
bekam 1
ha@@ 0.6931645741542538
Po@@ 1
Südwesten 1
Dor@@ 1
Amts@@ 1
Grün@@ 1
sieht 1
1923 1
1926 1
Halle 1
Lo@@ 1
Single 1
Ortschaft 1
vertreten 1
ters 1
gericht 1
Daten 1
dient 1
Lehrer 1
gung 1
Fahrzeuge 1
erschienen 1
Anteil 1
weltweit 1
reich 1
italienischen 1
? 0.6717131636960856
Allerdings 1
berufen 1
Hol@@ 1
Herkunft 1
Dre@@ 1
Angaben 1
Wei@@ 1
schwer 1
gr@@ 1
Grand 0.6929924120711562
Fußballspieler 1
Open 0.9968513852821863
Chor@@ 1
36 1
ō 1
ill@@ 1
Tur@@ 1
inen 1
rechten 1
prä@@ 1
to@@ 0.9469486622025056
westlichen 1
bei@@ 1
We@@ 1
1922 1
inzwischen 1
stammen 1
laut 1
gespielt 1
Cal@@ 1
Teilnehmer 1
Führung 1
preis 1
Burg@@ 1
Kre@@ 1
Bet@@ 1
alt 1
ek 1
Sammlung 1
Reich@@ 1
pf@@ 1
Tor 1
reichen 1
ug@@ 1
Hinter@@ 1
65 0.8161162777564003
Kampf 1
Festival 0.7163985728958124
Wieder@@ 1
Großen 1
hi@@ 0.6749545556239497
1912 1
All@@ 1
alb@@ 1
jährlich 1
Stunden 1
Rudolf 1
Forschung 1
Laufe 1
Nordwesten 1
Tier@@ 1
Auswahl 1
min@@ 1
Nor@@ 1
Spanien 1
nördlichen 1
hoch 1
Staat 1
geprägt 1
tel 1
versch@@ 1
größeren 1
vorhanden 1
genannten 1
Maler 1
fahr@@ 1
bt 1
geworden 1
Kategorie 1
Schriftsteller 1
dt 1
reg@@ 1
Beide 1
tragen 1
ank@@ 1
englischen 1
schnell 1
iker 1
Hu@@ 1
Philosophie 1
Louis 0.8544338710066754
Weise 1
Ges@@ 1
ko 1
sw@@ 1
att@@ 1
Möglichkeit 1
mannschaft 1
Mi@@ 1
Ag@@ 1
Betriebs@@ 1
rück@@ 1
Programm 1
dagegen 1
Punkten 1
kal@@ 1
ors 0.5725044141901658
stre@@ 1
Stamm@@ 1
Steuer@@ 1
Regie 1
etz@@ 1
1,@@ 1
Wolfgang 1
ales 1
sogenannte 1
fallen 1
Südosten 1
ungsp@@ 1
verfügt 1
ks 0.7631963532768005
arten 1
inne 1
Großbritannien 1
stein@@ 1
Kind 1
Typ 1
Größe 1
Fern@@ 1
Hor@@ 1
Sa@@ 1
Wol@@ 1
Stimmen 1
Ba@@ 1
Veröffentlichung 1
th 0.918557409719223
Ergebnis 1
Abschnitt 1
Württemberg 1
unternehmen 1
Modell 1
Mat@@ 1
Städte 1
ner@@ 1
Hal@@ 1
nord@@ 1
Ter@@ 1
amm@@ 1
iner 1
produziert 1
arbeit 1
leitung 1
vierten 1
trug 1
enbach 1
Familien 1
Handels@@ 1
beschrieben 1
0,@@ 1
Q@@ 0.5280647222190362
und@@ 1
Wind@@ 1
bes@@ 1
Gelände 1
jeweiligen 1
berg@@ 1
.000 1
me@@ 1
wichtige 1
Dar@@ 1
eingestellt 1
Lang@@ 1
Albert 1
weiter@@ 1
höchsten 1
Erfolge 1
Verbreitung 1
Gleich@@ 1
Z 1
At@@ 1
dem@@ 1
Sand@@ 1
Krieges 1
früheren 1
Te@@ 1
Nutzung 1
Renn@@ 1
29 0.41458910461153503
Aufgaben 1
jungen 1
sah 1
Folgen 1
außerhalb 1
kre@@ 1
Juden 1
Wirken 1
lauf 1
Bewegung 1
les 0.5738457065813066
31 0.4645702590778737
darin 1
rü@@ 1
ziehen 1
Gel@@ 1
tungen 1
ön@@ 1
enthalten 1
dar@@ 1
Ehefrau 1
Tore 1
H 0.8650697952502939
get@@ 1
mat@@ 1
33 1
Vier@@ 1
ßen 1
ds 0.6854937031912071
onlyinclude 1
Familien@@ 1
ese 1
hervor 1
erw@@ 1
gek@@ 1
Boden 1
best@@ 1
San@@ 1
co 0.29355540432705146
1913 1
eingeführt 1
Hessen 1
bestritt 1
gelegenen 1
Kern@@ 1
Frage 1
Eisenbahn@@ 1
Los 0.6216181389211054
könnte 1
34 1
Rei@@ 1
Royal 0.406778858143659
ren@@ 1
uss@@ 1
Qualifikation 1
ani 0.6836650386999727
ologische 1
enti@@ 1
č@@ 1
film 0.11316928280543981
Voll@@ 1
Kol@@ 1
internationale 1
hält 1
inn@@ 1
bekannten 1
Lau@@ 1
Körper@@ 1
Turnier 1
mehrfach 1
Dienst@@ 1
Tal 1
Kopf 1
Vergleich 1
rechte 1
zeigte 1
Mark@@ 1
öl@@ 1
Grafen 1
tionen 1
nichts 1
Merkmale 1
gesetz 1
els@@ 1
bedeutet 1
punkt 1
Orgel 1
Lin@@ 1
Schwester 1
1911 1
elf 1
gerade 1
Herzog 1
Motor 1
su@@ 0.7813226517983134
Wert 1
Island 0.49659640318982806
Regierungs@@ 1
ce 0.6590798303251311
ähnlich 1
fläche 1
1000 1
assen 1
ev@@ 0.7704840865162621
wissenschaftlichen 1
Inseln 1
S. 1
sberg 1
SS 1
gesetzt 1
hätte 1
trotz 1
Vaters 1
hingegen 1
Hand 1
64 0.9915228225478042
Wagen 1
wäre 1
Pet@@ 1
neuer 1
Ungarn 1
anz 1
wei@@ 1
Schön@@ 1
Bundesstaat 1
Washington 0.46812504113267456
Westfalen 1
offiziell 1
Durch@@ 1
Nur 1
unterstützt 1
Fre@@ 1
Is@@ 1
Kat@@ 1
Architektur 1
Bremen 1
gleichnamigen 1
Ol@@ 1
Gro@@ 1
Sprach@@ 1
anische 1
aufgelöst 1
ms 1
verfahren 1
gegründeten 1
jahr 1
Herren 1
bo@@ 0.8246333307504565
gruppen 1
abge@@ 1
teils 1
lich@@ 1
Süd 1
igkeit 1
Frühjahr 1
kar@@ 1
katholische 1
Kindern 1
König@@ 1
Schweden 1
Mari@@ 1
W 0.8928501369892973
of@@ 1
Rö@@ 1
Themen 1
Val@@ 1
erhielten 1
Frauen@@ 1
wert 1
Jazz 1
geschlossen 1
stoff@@ 1
zählt 1
verwaltung 1
alter 1
55 1
Gi@@ 1
bild 1
formen 1
ron@@ 1
EU 1
38 1
inter@@ 0.48253961986889954
Chi@@ 1
Quellen 1
Grundlage 1
Bank 0.8808335282499977
ordnung 1
äu@@ 1
1907 1
Innen@@ 1
rit@@ 1
sheim 1
Tar@@ 1
aufge@@ 1
zugleich 1
1.@@ 1
Heiligen 1
Landwirtschaft 1
Com@@ 0.9245934444375825
gemeinde 1
Hör@@ 1
ara 0.7447573375796056
Opfer 1
ns 1
Sowjetunion 1
Bes@@ 1
ve 0.5974159815204099
wider@@ 1
heit 1
Deutsch 1
umbenannt 1
jährige 1
yn@@ 0.999638380261468
Met@@ 1
Schulen 1
obwohl 1
Teilen 1
entspricht 1
ari@@ 1
d. 1
emp@@ 1
ver 1
Wald 1
mp@@ 1
verantwortlich 1
bewegung 1
wenigen 1
tal 1
ül@@ 1
ären 1
Winter 1
Aufgabe 1
tigkeit 1
ite 0.4450394822755952
namens 1
entsprechend 1
stellten 1
1905 1
ville 0.661980278207668
ord@@ 1
üch@@ 1
Schon 1
Tre@@ 1
werde 1
rich@@ 1
Rückkehr 1
linie 1
Schiffe 1
gh@@ 0.7552670950184895
2022 0.8463032231119129
sl@@ 1
schließen 1
Noch 1
legen 1
ó@@ 1
erweitert 1
erg@@ 1
pr@@ 1
ore 0.7019023868094117
Straßen@@ 1
weiteres 1
sur 1
Ebene 1
unbe@@ 1
1917 1
neues 1
asse 1
Wettbewerb 1
Hin@@ 1
traf 1
Söhne 1
eit 1
west@@ 1
1908 1
Sinne 1
Aufbau 1
och@@ 1
verlassen 1
Christ@@ 1
ella 0.8955472734806277
ise 0.7406179141311405
Tiere 1
wichtigsten 1
Distrikt 1
solche 1
ase 1
sprache 1
aren 1
Teams 1
gebiete 1
Adolf 1
ierter 1
dahin 1
linken 1
chen@@ 1
Marie 1
Viele 1
Grab@@ 1
bestimmt 1
Rat 1
änge 1
Brand@@ 1
Präsidenten 1
Il@@ 1
Kurz@@ 1
versuchte 1
Ost 1
Wort 1
ola 0.9269255312334778
höchste 1
Prä@@ 1
met@@ 1
gte 1
weiß 1
× 1
traten 1
Technik 1
Heimat@@ 1
Berufs@@ 1
isiert 1
Person 1
Dreh@@ 1
schied 1
junge 1
Moskau 1
A. 0.795108361420159
Star@@ 1
est 0.5686193493954348
strecke 1
Leit@@ 1
WM 1
beg@@ 1
Pan@@ 1
gemäß 1
Werdegang 1
Müller 1
Station 0.7965797788468802
Bro@@ 1
britische 1
Sam@@ 1
groß 1
Bei@@ 1
band 0.1978546290821739
Motor@@ 1
res@@ 0.7704567925588939
PS 1
älteste 1
Band@@ 1
Air 0.42778217578026967
Ban@@ 1
art@@ 1
aw@@ 0.8043787448469432
gemeinschaft 1
Gest@@ 1
tungs@@ 1
hergestellt 1
Frank 1
äh@@ 1
Düsseldorf 1
Regional@@ 1
burger 1
fuhr 1
ag 1
flächen 1
ven@@ 1
Arbeit@@ 1
Leistung 1
bekannte 1
eingerichtet 1
1906 1
Aufstieg 1
37 1
Objekte 1
fließt 1
gehalten 1
fach@@ 1
Gründen 1
mann@@ 1
1950er 1
elt@@ 1
bauten 1
ack@@ 1
klasse 1
kg 1
pro@@ 0.6312312574369747
Sc@@ 0.6891444196119166
grenzt 1
blieben 1
fällt 1
kreis 1
Hektar 1
del@@ 1
schrift 1
Heim@@ 1
42 1
Laut 1
15@@ 1
Niederlage 1
Gesetz 1
44 0.9618101397714223
Musiker 1
Medien 1
De 1
h. 1
zogen 1
abteilung 1
dung 1
Polizei 1
oberen 1
Andreas 1
römisch 1
Super@@ 1
ath@@ 0.8679455663374035
mal@@ 1
Ergebnisse 1
ir 0.8575074807693771
etten 1
que 1
amp@@ 1
Halbfinale 1
baute 1
Wegen 1
Werner 1
Gal@@ 1
Col@@ 0.7480704008037569
Vol@@ 1
versucht 1
aut@@ 1
Lei@@ 1
ly 0.2532101122038479
besaß 1
Dem 1
Zwei@@ 1
ies 0.3424046108624816
lingen 1
Philipp 1
liegenden 1
preußischen 1
Win@@ 1
mo@@ 0.9807386655516298
CDU 1
Interesse 1
san@@ 1
Im@@ 1
mi@@ 1
Gut 1
iel@@ 1
Architekten 1
Einführung 1
tion@@ 1
zählen 1
allein 1
äch@@ 1
mittels 1
fte 1
tritt 1
Ortes 1
dargestellt 1
Del@@ 1
Weiteren 1
&#124; 0.2614044308204067
Abitur 1
Wenn 1
tions@@ 1
Ben@@ 1
wissenschaftliche 1
gewicht 1
4,@@ 1
Brandenburg 1
Kraft 1
erscheint 1
ah 0.44714398360746466
kom@@ 1
So@@ 1
ro 1
Wirkung 1
jüdischen 1
erklärt 1
Zentimeter 1
verbreitet 1
Char@@ 1
verlegt 1
Ach@@ 1
eck 1
1909 1
ion@@ 1
erer 1
Sommer@@ 1
angeboten 1
Sprachen 1
zahlen 1
Winter@@ 1
á 1
beschäftigt 1
mehr@@ 1
J. 0.6119573067258388
wodurch 1
unden 1
tra@@ 0.9264377245740606
Europäischen 1
kleiner 1
Bonn 1
Company 0.38502052789259616
ligen 1
ebenda 1
setzen 1
Gold 1
Weltkrieges 1
Australien 1
Aut@@ 1
südwestlich 1
Auszeichnungen 1
Vi@@ 1
eit@@ 1
oli@@ 1
bus 0.9175562419935689
Records 0.594474766173758
nationalen 1
Dach@@ 1
nominiert 1
Chor 1
stell@@ 1
Bra@@ 1
Werk@@ 1
Wel@@ 1
39 1
unmittelbar 1
Mur@@ 1
Raum@@ 1
du@@ 0.8044699711364989
römischen 1
digen 1
gezeigt 1
genau 1
ze@@ 1
zeichen 1
zuerst 1
isen 1
östlichen 1
kel 1
esen 1
Hamburger 1
eins 1
teil@@ 1
ologe 1
ian 0.317087227060659
Kap@@ 1
Jahres@@ 1
Rock 0.9791971131771451
nisse 1
Verband 1
wirtschaft 1
Punkt 1
1904 1
Fritz 1
Mehr@@ 1
brücke 1
Fer@@ 1
breit 1
Les@@ 1
Alfred 1
Anton 1
Bücher 1
Bezirks@@ 1
Erste 1
ther@@ 1
Si@@ 1
Nummer 1
Boden@@ 1
ann 1
res 0.8661682148968428
ander@@ 1
tiert 1
Mess@@ 1
südöstlich 1
ł@@ 1
1915 1
chten 1
fahren 1
unterschiedlichen 1
Rat@@ 1
Heimat 1
ren 1
essen 1
Liebe 1
historische 1
gende 1
schafts@@ 1
ungs- 1
Studien 1
alismus 1
48 1
gs 1
Partei@@ 1
freien 1
gra@@ 1
ges 1
Rein@@ 1
Angeles 0.6118990911274584
Gesch@@ 1
tem 1
Rhein 1
cht@@ 1
cker 1
lei@@ 1
französischer 1
Standort 1
lin 1
Nacht 1
Mil@@ 1
2,@@ 1
Des 1
bleibt 1
Kra@@ 1
Fernsehen 1
wasser@@ 1
Sie@@ 1
Daniel 1
ars 0.8280826248101326
mühle 1
sk 1
Ausgabe 1
Debüt 1
Häuser 1
Gew@@ 1
Schauspielerin 1
Preußen 1
Internationalen 1
mittel 1
Henry 0.4660382511587919
Ham@@ 1
Tsch@@ 1
bestimmten 1
cke 1
Kurz 1
Sport 1
Leistungen 1
Pe@@ 0.9366748819633381
net 0.965787372088477
Elisabeth 1
theorie 1
Mos@@ 1
Quelle 1
app@@ 1
Seiten@@ 1
Mc@@ 0.36464836723795924
Lauf 1
beste 1
würden 1
zweimal 1
Fel@@ 1
Por@@ 1
tiger 1
Parlament 1
Flughafen 1
off 0.17390559924787455
Fe@@ 1
gelten 1
Text 1
ho@@ 0.9336996002920172
Regisseur 1
geschaffen 1
Ku@@ 1
Villa 1
ca 0.9899207437601318
dienst@@ 1
wand 1
Start 1
State 0.15381966727068155
Theater@@ 1
atoren 1
ante 1
tierte 1
tro@@ 1
belegt 1
spielten 1
teten 1
Pat@@ 1
utz@@ 1
ure 0.8122123331420216
Kanada 1
Trotz 1
anzu@@ 1
1903 1
gegründete 1
vertrat 1
As@@ 1
Auflösung 1
nordwestlich 1
Films 1
ion 0.6668712836979772
Sänger 1
Weg@@ 1
Stre@@ 1
forschung 1
Des@@ 1
Han@@ 1
Informationen 1
Nürnberg 1
uten 1
Situation 1
entschied 1
Bri@@ 1
kurze 1
errichtete 1
Pfarrkirche 1
schließt 1
for@@ 0.46296546089066226
polnischen 1
Richter 1
Wall@@ 1
verkaufte 1
Aufnahme 1
nordöstlich 1
bildung 1
sport@@ 1
zugeordnet 1
Probleme 1
Erzbischof 1
reicht 1
gewonnen 1
ov 0.5353151811919727
Straf@@ 1
erkennen 1
heraus@@ 1
Durchmesser 1
Christoph 1
lose 1
uch@@ 1
Men@@ 1
ehe 1
ew@@ 1
Gre@@ 1
Sti@@ 1
Autoren 1
turm 1
erklärte 1
1916 1
bezeichnete 1
ierungen 1
Top 0.9849413368061197
min 1
800 1
Ob@@ 1
stätte 1
CD 0.8270779615648227
South 0.13097882805899716
Ac@@ 0.583111347707629
wesen 1
Rem@@ 1
Pfarrer 1
Radio 0.7100457158652281
52 1
verfasste 1
Fisch@@ 1
Ferdinand 1
ets 0.40215658237163626
iel 1
Bon@@ 1
Straßen 1
Münster 1
Beziehungen 1
Fakultät 1
bleiben 1
station 0.15498396808740145
51 1
Ball@@ 1
Kin@@ 1
jetzt 1
zunehmend 1
Kommission 1
Besch@@ 1
zug@@ 1
Ehren@@ 1
va 0.7890223304738956
ologischen 1
Freiburg 1
Mittelalter 1
asi@@ 1
Ausstellung 1
Literatur@@ 1
angelegt 1
Freund 1
up@@ 0.6868255992460992
erstreckt 1
Fenster 1
Kirchen 1
za 1
1902 1
ā@@ 0.8544259229772051
5,@@ 1
Dorf@@ 1
Dis@@ 0.9205842204503302
Erde 1
Far@@ 0.8777308464924634
Bewohner 1
§ 1
id 0.5716507452694759
ong 0.47101755899933706
gu@@ 0.793258679963902
Prot@@ 1
organisation 1
übertragen 1
werken 1
eng 1
bert 1
Schwer@@ 1
sport 1
ganze 1
Ich 1
Ke@@ 0.9407814809599361
ga 1
geborene 1
Besetzung 1
barkeit 1
promoviert 1
tur@@ 1
Kam@@ 1
löste 1
fälle 1
Bach 1
scher 1
House 0.223118449733031
Kosten 1
Öffentlichkeit 1
bestimmte 1
name 0.10816872727785871
600 1
lang@@ 1
ena 0.8796680630396335
Regiment 1
daran 1
Formen 1
Filme 1
modernen 1
Geld 1
41 1
unk@@ 1
jede 1
kor@@ 1
Ä@@ 1
Einheit 1
fe@@ 1
ice 0.4503775972006511
spricht 1
Teilnahme 1
85 1
rechts@@ 1
dr@@ 1
gem 1
Brüder 1
eig@@ 1
stets 1
lands 0.8025285099307797
1901 1
gelegene 1
Eigenschaften 1
außer 1
japanischen 1
lung 1
Gustav 1
züge 1
weit@@ 1
dienen 1
Revolution 1
Ni@@ 1
gar 1
Königs 1
ind@@ 1
teilen 1
Geh@@ 1
rot@@ 1
Anwendung 1
besitzen 1
Titel@@ 1
ou 1
stoff 1
achten 1
öffentliche 1
lers 1
43 1
starken 1
Mädchen 1
Hil@@ 1
Mu@@ 1
enstein 1
ud@@ 0.8601862960807418
6,@@ 1
Spitze 1
eigentlich 1
ierungs@@ 1
är 1
elten 1
wa 1
umfasste 1
Dadurch 1
anstalt 1
Szene 1
beck 1
Anti@@ 1
zuständig 1
Bürger 1
Weiß@@ 1
Infrastruktur 1
gelegt 1
Herstellung 1
seitdem 1
ließen 1
Music 0.35523182984854235
IV. 1
adi@@ 1
Society 0.38505732739448584
Länder 1
Lö@@ 1
150 1
wasser 1
95 1
geschlagen 1
Deutschlands 1
1848 1
alles 1
Gas@@ 1
Pri@@ 1
Pfalz 1
tete 1
ats@@ 1
elte 1
aufgestellt 1
fabrik 1
nahezu 1
Jung@@ 1
Polizei@@ 1
len@@ 1
unde 1
unterhalb 1
ken@@ 1
7,@@ 1
gens 1
Rom@@ 1
ili@@ 1
Geografie 1
po@@ 0.9458141951156062
mündet 1
Bern@@ 1
hen 1
mittlerweile 1
North 0.1553950138754916
aufgeführt 1
Fri@@ 1
Theologie 1
gesehen 1
freie 1
schn@@ 1
Tradition 1
markt 1
ons@@ 1
Drei 1
Glas@@ 1
itt@@ 1
Salz@@ 1
Schauspiel@@ 1
Stein 1
mün@@ 1
Nar@@ 1
grenze 1
ele 1
2.@@ 0.7345290350171931
Kraft@@ 1
osen 1
1898 1
ita 0.8061658137895847
fel@@ 1
Don@@ 1
1899 1
46 1
Str@@ 1
entweder 1
gten 1
alisierung 1
Jan 1
Bilder 1
III 0.6001973560311603
Stahl@@ 1
tive 0.7637965192983759
Pap@@ 1
leitet 1
bor@@ 0.8652850926980236
Fin@@ 1
har@@ 0.6930864160847628
Alben 1
aufgebaut 1
ft@@ 1
Küste 1
ay@@ 0.558807578731084
losen 1
vertrag 1
brach 1
ders 0.6543705884231681
museum 0.8452985177375443
wesentlich 1
ula 0.9948205050793064
ac 0.8468532177721975
ser 1
49 1
verstarb 1
bahn@@ 1
Gebiete 1
unteren 1
Hoh@@ 1
Pra@@ 1
Indien 1
ker@@ 1
schlag 1
Bildungs@@ 1
begonnen 1
cken 1
abgeschlossen 1
ip@@ 0.9991980720345491
ada 0.786632831307516
gaben 1
71 1
hätten 1
Mitgliedern 1
besetzt 1
ursprünglichen 1
Wild@@ 1
NS 1
eröffnete 1
Kalifornien 1
47 1
Ring@@ 1
ef@@ 1
hol@@ 1
C. 0.7145114178372006
lichem 1
Eck@@ 1
nahme 1
abzu@@ 1
dre@@ 1
gemeinsamen 1
Bas@@ 1
kleinere 1
1890 1
itäts@@ 1
Vereine 1
begannen 1
gekommen 1
Bezug 1
voll 1
Stadion 1
Einheiten 1
treten 1
Hockey 1
Tagen 1
Parteien 1
schiff 1
Millimeter 1
Pos@@ 1
Lehre 1
ym@@ 1
Radi@@ 1
Aufnahmen 1
Neubau 1
Entstehung 1
Tu@@ 1
iti@@ 1
Macht 1
Ul@@ 1
zahl 1
Vereins 1
bot 1
53 1
Körper 1
rei@@ 1
Sor@@ 1
ften 1
54 1
Zusammen 1
aj@@ 0.935269824982085
ard@@ 1
Ehr@@ 1
56 1
verbrachte 1
É@@ 1
Gem@@ 1
spar@@ 1
Besuch 1
li 1
Stellung 1
Baum@@ 1
Umwelt@@ 1
nitz 1
uk@@ 0.9348250770790698
wal@@ 1
weite 1
jedes 1
Konzept 1
iken 1
zy@@ 1
plan@@ 1
schuf 1
ausgestattet 1
angegeben 1
graben 1
stehenden 1
Daher 1
Kos@@ 1
Untersuchungen 1
Hall 0.3533879793451078
ings 0.3156829244157546
späten 1
Landtag 1
Druck 1
Große 1
Chicago 0.49189586384059625
pol@@ 1
spätere 1
ff 1
Druck@@ 1
Pierre 1
musik 1
jedem 1
älteren 1
hinzu 1
Sau@@ 1
zählte 1
Geld@@ 1
Santa 0.8809526859354418
links 1
felder 1
lag@@ 1
einzigen 1
Ly@@ 1
dortigen 1
Mac@@ 0.5958201303315743
M. 0.721582612519959
lauf@@ 1
Kampf@@ 1
Meer 1
63 1
Formel 1
Fil@@ 1
Sen@@ 1
hei@@ 1
zweiter 1
Wahlkreis 1
hren 1
Erb@@ 1
Licht@@ 1
öh@@ 1
ort@@ 1
liegende 1
Status 1
erhoben 1
Sim@@ 1
Rechte 1
0er 1
Ir@@ 1
unten 1
ari 0.7082782362172534
Eigen@@ 1
1895 1
dor@@ 1
Gericht 1
Zunächst 1
acher 1
1896 1
bild@@ 1
Theorie 1
Gerichts@@ 1
Kontakt 1
Mas@@ 0.896380029028303
kennen 1
68 1
Hotel 1
Lieder 1
Sieger 1
ali@@ 1
befördert 1
1870 1
Mio. 1
Städten 1
serie 1
Daraufhin 1
fre@@ 1
struktur 1
Figuren 1
Stra@@ 1
Ausland 1
Nordrhein 1
Jakob 1
Zeiten 1
Züge 1
Bus@@ 1
bro@@ 1
í 1
mar 1
lern 1
Ap@@ 1
schlug 1
verschiedener 1
Tode 1
mäßig 1
Medizin 1
üt@@ 1
Werken 1
besondere 1
96 1
Prozess 1
Lie@@ 1
Bank@@ 1
zeiten 1
uren 1
Kammer@@ 1
ech@@ 1
theater 1
por@@ 1
schwer@@ 1
Angriff 1
ack 1
Prag 1
Meisterschaften 1
Förderung 1
Schleswig 1
uf@@ 1
66 1
Entscheidung 1
72 1
anti@@ 0.9334500449904979
geplant 1
ministerium 1
Fr@@ 1
ographie 1
unterschiedliche 1
ika 1
Heidelberg 1
rau@@ 1
iers 1
ř@@ 1
Ka@@ 1
ri 0.8632492817829949
tische 1
ai@@ 1
Wehr@@ 1
Basel 1
recht@@ 1
Kreuz 1
Ziel@@ 1
Ram@@ 0.8345851909617252
kop@@ 1
Rand 1
rich 1
Amtszeit 1
Früh@@ 1
Mannschafts@@ 1
Kloster@@ 1
kurzen 1
Mühl@@ 1
Cl@@ 0.7423270584644457
griechischen 1
1,5 1
bew@@ 1
Association 0.27456048847330705
Einwohnerzahl 1
beziehungsweise 1
gern 1
handelte 1
spanischen 1
Die@@ 1
ž@@ 1
Zustand 1
benutzt 1
arbeit@@ 1
Schriften 1
Institute 0.33935518289615424
Markt@@ 1
Netz@@ 1
Spezial@@ 1
1897 1
High 0.24547903628791465
Rund@@ 1
tu@@ 1
Elemente 1
reihe 1
wirken 1
57 1
Beziehung 1
verl@@ 1
Gleichzeitig 1
Sankt 1
ativen 1
achen 1
witz 1
vorwiegend 1
ierenden 1
1871 1
Hy@@ 1
völlig 1
tä@@ 1
zufolge 1
Gut@@ 1
Feuer@@ 1
zentrale 1
gute 1
m. 1
Marine 1
beschreibt 1
Vereinigung 1
Wand@@ 1
67 1
Verhältnis 1
amen 1
wi@@ 1
des@@ 1
treffen 1
schaft@@ 1
Boot 1
Elektro@@ 1
Gemein@@ 1
werks 1
Wander@@ 1
bislang 1
Dra@@ 1
Nachbargemeinden 1
wir@@ 1
Heinz 1
Abgeordneter 1
Jan@@ 1
Sei@@ 1
Charts 1
ed 0.1042927963676349
Natur 1
My@@ 1
Sehenswürdigkeiten 1
Farb@@ 1
Figur 1
Mexiko 1
Einrichtungen 1
hervor@@ 1
Test@@ 1
Schwerpunkt 1
Einsatz@@ 1
ältesten 1
versehen 1
Ebenfalls 1
Reise 1
übrigen 1
Tau@@ 1
Lig@@ 1
Mainz 1
park 0.4950758286225061
eben 1
Leg@@ 1
Beruf 1
Wi@@ 1
tal@@ 1
bern 1
British 0.12861496439632175
sa@@ 1
Arrondissement 1
großes 1
Staat@@ 1
99 1
nieder 1
erinnert 1
besser 1
Friedens@@ 1
Universitäten 1
Fragen 1
Strom@@ 1
ative 0.5208628425111129
ück@@ 1
Can@@ 0.9054756583364326
produktion 1
sprechen 1
aff@@ 1
leg@@ 1
Öl@@ 1
aner 1
Gott 1
88 1
Kauf@@ 1
Ritter@@ 1
hel@@ 1
Idee 1
ungefähr 1
politisch 1
Komponist 1
Ufer 1
Arts 0.4527472071711642
starke 1
wechsel 1
Bistum 1
ora 0.9835579614541533
Holz 1
Top@@ 1
win@@ 1
digung 1
schutz@@ 1
natur@@ 1
dig 1
Zeitraum 1
Sil@@ 1
enes 1
Do@@ 1
Produktions@@ 1
Industri@@ 1
benannte 1
geb 1
rates 0.9528440960363728
62 1
Gau@@ 1
endet 1
ih@@ 1
könne 1
verurteilt 1
Klaus 1
schweren 1
Bol@@ 1
eigen@@ 1
76 1
pre@@ 0.4270206817396609
Ju@@ 1
Son@@ 1
seh@@ 1
Tonnen 1
AS@@ 0.8538886265738523
Schn@@ 1
eich@@ 1
owa 1
98 1
Wahlen 1
Bundesrepublik 1
Ph@@ 1
kirchen 1
Songs 1
satz 1
istisch 1
Abs 1
fs 1
Einrichtung 1
atz@@ 1
parallel 1
legt 1
All 0.18972451221139006
Schwarz@@ 1
asen 1
Pu@@ 1
Silber@@ 1
shaus 1
österreichischer 1
wir 1
Jur@@ 1
son@@ 1
Ausstattung 1
Sach@@ 1
Academy 0.35499325679874544
vorgesehen 1
hoher 1
ät@@ 1
einschließlich 1
05 1
erhält 1
ick@@ 1
Ann@@ 1
Zwischen@@ 1
iens 1
Inhalt 1
Ker@@ 1
leistung 1
Hersteller 1
Op@@ 1
bin@@ 1
Ausnahme 1
Hö@@ 1
ona 0.9714818204309701
Poly@@ 1
Veranstaltungen 1
1893 1
ast 0.9413739156588451
grund@@ 1
weder 1
Lake 0.3717246108821895
hand@@ 1
wirtschaftlichen 1
op 1
Zivil@@ 1
04 1
Breite 1
Wissenschaften 1
rot 1
Grafschaft 1
wollen 1
Syn@@ 1
Dänemark 1
Lebens 1
Handel 1
chte 1
Ant@@ 1
elles 1
Nicht 1
Oper 1
58 1
international 0.25013685913702594
Klosters 1
Rau@@ 1
Nov@@ 1
ls 0.8763043032178955
Braunschweig 1
Pil@@ 1
entlassen 1
bung 1
Ta@@ 1
Lor@@ 1
folge 1
amb@@ 0.8276537673377412
Mol@@ 1
Gor@@ 1
gezogen 1
minister 0.8131817789970712
promovierte 1
Bernhard 1
Kurt 1
schutz 1
Eich@@ 1
Monaten 1
Gegner 1
Sonn@@ 1
Lag@@ 1
Schmidt 1
ans@@ 1
Minister 0.34346409306504677
nannte 1
1850 1
61 1
77 1
ös@@ 1
El 0.6844638717510064
Da@@ 1
falls 1
Zweit@@ 1
fen@@ 1
verein@@ 1
folgen 1
lernte 1
Struktur 1
ote 1
Metal 1
nung 1
³ 1
Weibchen 1
einzelne 1
Gemeindegebiet 1
Pfarr@@ 1
74 1
Großteil 1
Herz@@ 1
Mehrheit 1
Halbinsel 1
dens 1
damalige 1
Kir@@ 1
unterscheiden 1
nennt 1
Türkei 1
Ed@@ 1
Mus@@ 1
Zugang 1
Bauern@@ 1
nationale 1
Go@@ 1
Maßnahmen 1
Vorder@@ 1
betrachtet 1
zweit@@ 1
Lam@@ 1
breite 1
heit@@ 1
deutschsprachigen 1
bestätigt 1
öffentlich 1
Aktivitäten 1
technischen 1
erungs@@ 1
verpflichtet 1
Theodor 1
groß@@ 1
No@@ 1
Besitzer 1
Initiative 1
Nachbar@@ 1
Roten 1
Label 1
Landschaft 1
oph@@ 1
Kas@@ 1
Bayerischen 1
Reis@@ 1
möglicherweise 1
ile 0.6882079486742945
1880 1
Kun@@ 1
Dan@@ 1
Rezeption 1
atur 1
Š@@ 1
Zug 1
Regionen 1
Fällen 1
Europameisterschaften 1
Fal@@ 1
Energie@@ 1
derzeit 1
1892 1
reise 1
versetzt 1
Sy@@ 1
Neue 1
berichtet 1
führenden 1
ě@@ 1
urkundlich 1
Tag@@ 1
Versuch 1
fein@@ 1
Zeichen 1
Schiff@@ 1
Ritter 1
bur@@ 0.8651249457965314
94 1
heiligen 1
sprach 1
86 1
Belgien 1
Eing@@ 1
elli 1
Kiel 1
8,@@ 1
Europameisterschaft 1
erreichten 1
59 1
Essen 1
ologisch 1
Studenten 1
licht 1
stri@@ 1
Roh@@ 1
kraft 1
tion 0.7160992570490763
ganzen 1
ins@@ 0.8964529350900378
rie@@ 1
ly@@ 0.9723683311415268
druck 1
ppe 1
08 1
Bru@@ 1
familie 1
erne 1
getrennt 1
Gegen 1
bs 0.8701861506116194
eigenes 1
ny 1
ide@@ 1
Königin 1
zeitweise 1
Erz@@ 1
Ulrich 1
Rheinland 1
3,@@ 0.9993576511265979
Ordnung 1
1885 1
Os@@ 1
Heil@@ 1
förmig 1
The@@ 1
angesehen 1
gelegentlich 1
industrie 1
Aber 1
Kongress 1
ativ 1
Bestandteil 1
Klub 1
Mittel 1
ole 0.9944799140040238
bruch 1
Hall@@ 1
namen 1
ock@@ 1
ute 1
tum 1
Beg@@ 1
Infanterie 1
schlag@@ 1
garten 1
einfach 1
nt 1
zieht 1
Errichtung 1
Group 0.28852673420583275
iere 1
richtung 1
Bern 1
sozial@@ 1
reich@@ 1
blatt 1
Fuß 1
fünf@@ 1
1888 1
vorher 1
wel@@ 1
tag 1
gemeinsame 1
far@@ 1
Untersuchung 1
ahl 1
Alten@@ 1
anders 1
miteinander 1
Fort@@ 1
getragen 1
gefähr@@ 1
Energie 1
Silber 1
the@@ 1
werk@@ 1
tieren 1
Hafen 1
auszu@@ 1
wirtschaftliche 1
Person@@ 1
93 1
anfangs 1
Seg@@ 1
befanden 1
bek@@ 1
à 1
q@@ 0.6758797573913634
Lan@@ 1
Pflanzen 1
Center 0.30123120786653956
Gouverneur 1
Holstein 1
erlangte 1
sal@@ 0.8484800710890114
ib@@ 0.9725479581124781
tigt 1
Bronzemedaille 1
H. 0.7165519197540839
tiv@@ 1
offiziellen 1
gend 1
Football 0.356001650270324
gers 1
tliche 1
wen@@ 1
Bibliothek 1
ø@@ 1
Cap@@ 0.8466879010502754
78 1
Star 0.5484255975514781
Trau@@ 1
dungen 1
uss 1
direktor 1
früh@@ 1
hl 1
Spitz@@ 1
verbindet 1
Wissenschaft 1
mor@@ 0.998318067948032
fünften 1
klassischen 1
Kul@@ 1
plätze 1
schwedischen 1
ée 1
lehrer 1
einiger 1
Namens@@ 1
ernannte 1
Grab 1
Vel@@ 1
bank 0.5908504297032209
go 0.2862512330080916
mittleren 1
Gegend 1
Science 0.5208493783064128
Simon 1
sor@@ 1
Tief@@ 1
Woche 1
ermöglicht 1
rand 1
Tages@@ 1
ahn@@ 1
aktiven 1
ille 1
1891 1
73 1
stammte 1
1894 1
ausbildung 1
Blatt@@ 1
Internationale 1
Kriegsende 1
ky 1
Black 0.37547025098602815
heiten 1
Ki@@ 1
verbandes 1
Material 1
wür@@ 1
ys@@ 1
Göttingen 1
1930er 1
87 1
Beruf@@ 1
83 1
84 1
ala 0.6412439373911518
schluss 1
07 1
istin 1
maßnahmen 1
studium 1
fenster 1
69 1
Texte 1
gar@@ 0.7381187183188677
Ot@@ 1
Ra@@ 1
Hauses 1
Frankfurter 1
1889 1
da@@ 1
ama 0.7204360059941924
ager 1
ink@@ 1
benachbarten 1
shausen 1
stehende 1
Nutz@@ 1
dige 1
endgültig 1
Funktionen 1
Je@@ 1
Linien 1
Salzburg 1
ates 0.26398837312671525
ien@@ 1
omm@@ 1
1874 1
wand@@ 1
Julius 1
Pa@@ 1
punkte 1
issen 1
Kron@@ 1
ask@@ 1
ni@@ 1
Sender 1
elli@@ 1
Sä@@ 1
Gerhard 1
fort@@ 1
Pfarrei 1
Sendung 1
atz 1
widmete 1
Bir@@ 1
Brasilien 1
Beispiele 1
ott@@ 1
eri@@ 1
Verfassung 1
Filmen 1
Schach@@ 1
ain 0.8325859535162796
bauen 1
Sicherheit 1
Variante 1
wor@@ 1
bringt 1
Bü@@ 1
Höhen@@ 1
Ortschaften 1
Unternehmens 1
09 1
grün@@ 1
è@@ 1
tlichen 1
fern 1
geriet 1
1860 1
Dann 1
atische 1
sozialen 1
ais 1
forderte 1
entsteht 1
Kontrolle 1
politik 1
Güter@@ 1
tischen 1
bes 1
russische 1
Chemie 1
chinesischen 1
fertiggestellt 1
NSDAP 1
Satz 1
oll@@ 1
ura 0.8896995570737893
82 1
Lü@@ 1
sagte 1
Ukraine 1
rischen 1
oten 1
Produkte 1
Dr@@ 1
Form@@ 1
reiche 1
meisterschaft 1
Smith 0.3827570317887965
Vill@@ 1
Arn@@ 1
je@@ 0.9141031156257228
Wechsel 1
ke@@ 1
stand@@ 1
scheiterte 1
zen@@ 1
sowjetischen 1
Feld 1
existiert 1
Einen 1
rad@@ 1
91 1
fern@@ 1
italienische 1
Fran@@ 1
Gebieten 1
gestaltet 1
bestehenden 1
Weltcup 1
vergeben 1
zentralen 1
owski 1
mehrerer 1
Sicherheits@@ 1
hieß 1
scheint 1
81 1
Show 0.7773142323452871
kampf 1
Todes@@ 1
unterlag 1
01 1
früh 1
Generation 1
Blut@@ 1
unabhängig 1
lau@@ 1
To@@ 0.9027949101231959
einzu@@ 1
mark@@ 1
ry 0.33851596871941464
stellvertretender 1
angenommen 1
Förder@@ 1
guten 1
Joachim 1
Mak@@ 1
entstehen 1
Konrad 1
rats 1
programm 1
1879 1
Fischer 1
Mau@@ 1
Auflage 1
Trans@@ 1
für@@ 1
ick 0.923171593807637
nah@@ 1
bisherigen 1
nte 1
Arzt 1
Phase 1
ba 1
ea 0.852543127437913
Widerstand 1
offizielle 1
enhaus 1
92 1
gebieten 1
Nationalsozialismus 1
97 1
holte 1
errichten 1
1866 1
Portugal 1
entwicklung 1
Volkszählung 1
post@@ 0.9341200252386058
Fried@@ 1
our 0.3203339420541904
komm@@ 1
Saison@@ 1
ori@@ 1
Cam@@ 0.9565917680502253
Mad@@ 0.7286372754284772
Dat@@ 1
darf 1
Kader 1
old 0.15375029162650955
gelangte 1
kleineren 1
Lager 1
ausgeführt 1
Groß 1
Pop@@ 1
Hom@@ 1
Kop@@ 1
Arthur 0.8241362105593566
schreibt 1
Hen@@ 1
89 1
material 0.48781949805368313
Besonders 1
Eduard 1
verhindern 1
uti@@ 1
1875 1
enheit 1
abgesch@@ 1
Schließlich 1
itäten 1
schaffen 1
welt 1
Medi@@ 1
1500 1
weg@@ 1
Kopf@@ 1
entin 1
sofort 1
J 0.6346995766410014
ergibt 1
stes 1
Historiker 1
Wir@@ 1
Behandlung 1
Bay 0.39218521507225035
00 0.7399724306279918
Naturschutzgebiet 1
aur@@ 1
ständig 1
ebene 1
klar 1
Praxis 1
Lauf@@ 1
Weiterhin 1
Orden 1
lan@@ 1
Fund@@ 1
Spieltag 1
Metall@@ 1
Israel 0.5952614252997261
Patienten 1
isp@@ 1
manchmal 1
ost 1
zumeist 1
Bauern 1
daraus 1
Geg@@ 1
Medien@@ 1
organisiert 1
stra@@ 1
Kölner 1
odi@@ 1
ue 0.6889222541451006
genannte 1
Paar 1
zumindest 1
Volk@@ 1
trifft 1
toren 1
stück 1
cks 1
pe 1
ologen 1
feierte 1
Jo@@ 1
Repräsentantenhaus 1
79 1
mung 1
Studio 1
Ti@@ 1
hören 1
wechsel@@ 1
Live 0.9081269513322291
eingesch@@ 1
Mühle 1
án 1
britischer 1
onischen 1
schaffte 1
Engagement 1
Gran@@ 1
Tak@@ 1
Cast@@ 1
unterstützte 1
Gemälde 1
tiv 1
uns 1
acht@@ 1
Anlagen 1
iv@@ 0.8393046204811307
ierende 1
Gemeinschaft 1
außen 1
Dro@@ 1
Studien@@ 1
Gol@@ 1
Zusätzlich 1
Dorfes 1
dennoch 1
Dam@@ 1
fra@@ 1
ín 1
Dol@@ 1
ath 0.6157744237769995
liga 1
Off@@ 1
Eig@@ 1
Massen@@ 1
Spielklasse 1
Publikum 1
Flügel@@ 1
Junioren 1
haft 1
ron 0.7373491098540103
tz 1
wertung 1
Oberliga 1
räume 1
1887 1
existieren 1
Bedingungen 1
untergebracht 1
österreichische 1
1867 1
Stad@@ 1
Red@@ 0.979384652504263
ish@@ 0.6072360283887828
Charakter 1
Rep@@ 1
Super 0.614518623618405
erzählt 1
ic 0.1562599472279577
ursprüngliche 1
Krankenhaus 1
sicher@@ 1
aut 1
spro@@ 1
stedt 1
our@@ 0.7501829233880806
spitze 1
Erfahrungen 1
Angebot 1
hän@@ 1
ón 1
eis@@ 1
entsprechenden 1
Eisenbahn 1
Klima 1
Industrie 1
fall@@ 1
regierung 1
Verhalten 1
langer 1
Rest 1
Schrift 1
ame 1
enzen 1
tak@@ 1
produzierte 1
baus 1
Flu@@ 1
Dörfer 1
gleiche 1
Recht@@ 1
Wa@@ 1
ografie 1
unterricht 1
überhaupt 1
Ausdruck 1
King 0.20543543953948437
höheren 1
old@@ 1
Mand@@ 1
nächste 1
wehr@@ 1
Plan 1
halb@@ 1
lig@@ 1
Sw@@ 0.7662672932725463
Plan@@ 1
Vorbild 1
Brand 1
Ebenso 1
W. 0.653455770989339
ros 1
Vis@@ 1
Sü@@ 1
druck@@ 1
Vorstand 1
Ursprünglich 1
Ausbau 1
ko@@ 1
umgebaut 1
Augen@@ 1
do@@ 1
wies 1
Architekt 1
Mikro@@ 1
Fahrer 1
Francisco 0.5624475252087328
setzten 1
englische 1
jeden 1
debütierte 1
fr@@ 1
gabe 1
bestanden 1
Augen 1
ō@@ 1
schulen 1
schreiben 1
viel@@ 1
Alb@@ 1
kaufte 1
yn 0.8423256664310909
SA 0.9897361341350481
pen@@ 1
Entwurf 1
Fahrzeug 1
Deutscher 1
ú@@ 1
Nah@@ 1
haltung 1
desselben 1
Garten@@ 1
appen 1
Gestaltung 1
Kassel 1
arzt 1
liste 1
250 1
Oster@@ 1
rie 1
Eröffnung 1
1886 1
Neuen 1
nutzen 1
ode 1
ste@@ 1
Verbindungen 1
breiten 1
mark 0.8623881144964378
ock 0.8607697278221415
erie 1
erungen 1
Bund 1
Dennoch 1
Männchen 1
Sängerin 1
Río 1
Andere 1
anne 1
gegen@@ 1
tatsächlich 1
weshalb 1
Künste 1
nis@@ 1
rö@@ 1
06 1
Religion 1
geweiht 1
Monat 1
Operation 1
getötet 1
Erich 1
Sicht 1
niederländischen 1
Meister@@ 1
Ruf 1
Fü@@ 1
Dec@@ 0.7903147693252329
Party 0.19390322257571382
buch@@ 1
Rio 1
versammlung 1
1873 1
setzung 1
Internet 1
Woiwodschaft 1
Würzburg 1
weißen 1
Krieg@@ 1
9,@@ 1
120 1
volle 1
Systematik 1
Wag@@ 1
gründen 1
gesp@@ 1
terin 1
unterschrieb 1
1872 1
Verfassungs@@ 1
Bereichen 1
Norwegen 1
basiert 1
komplett 1
gewannen 1
... 0.22483460024408317
1868 1
Zukunft 1
1884 1
Niederlande 1
oberhalb 1
Chef 1
bildeten 1
Wach@@ 1
lige 1
illa 0.9395140200511044
Freien 1
schm@@ 1
700 1
körper 1
Post 0.629423661169094
üh@@ 1
stände 1
yp@@ 1
wissenschaftler 1
Seit@@ 1
Edward 0.4858203246346415
Tanz@@ 1
gan@@ 1
Stellen 1
onie 1
bayerischen 1
fungierte 1
José 1
lokalen 1
tlich 1
förmigen 1
änder 1
Software 1
womit 1
Münchner 1
emann 1
Landschafts@@ 1
Veröffentlichungen 1
arm@@ 1
eilen 1
Verb@@ 1
Flucht 1
umgeben 1
Instituts 1
Grenzen 1
stei@@ 1
wissenschaft 1
deten 1
nor@@ 1
car@@ 0.3020350341707298
Farbe 1
Orten 1
führ@@ 1
Pokal 1
stätten 1
allgemein 1
drei@@ 1
Sz@@ 1
assi@@ 1
ausgebaut 1
itzer 1
Kö@@ 1
film@@ 1
Bou@@ 1
AC 0.7888574861435753
straßen 1
1878 1
ehemals 1
Camp@@ 1
Maschinen 1
iss 1
jüdische 1
leb@@ 1
Entwicklungs@@ 1
1882 1
isierte 1
Hir@@ 1
Gener@@ 1
Mis@@ 1
App@@ 1
Kri@@ 1
selbst@@ 1
Gemeinderat 1
ı@@ 1
lie@@ 1
Denkmalschutz 1
ckt 1
technik 1
fels 1
Reste 1
stil 1
ähnliche 1
Behörden 1
mb@@ 1
Pin@@ 1
Viertelfinale 1
istik 1
bestehende 1
Reaktion 1
Wolf 1
alis@@ 1
Bö@@ 1
flügel 1
zeichnete 1
hab@@ 1
erinnen 1
geleitet 1
Mik@@ 1
Bronze 1
Denkmal 1
Herbert 1
Jagd@@ 1
militärischen 1
Bot@@ 1
beigesetzt 1
tende 1
lebens@@ 1
1876 1
verk@@ 1
Schm@@ 1
lat@@ 1
staatlichen 1
States 0.07294526876329716
zone 0.8684676822061835
Vergangenheit 1
ring 0.5566286625696534
etten@@ 1
Adam 1
Magdeburg 1
awa 1
aux 1
privaten 1
braun 1
Zahn@@ 1
10.000 1
1881 1
Zuschauer 1
sburg 1
Vielzahl 1
Ren@@ 1
denk@@ 1
Ste@@ 1
Fu@@ 1
ausschuss 1
Lösung 1
sucht 1
Auszeichnung 1
stoffe 1
notwendig 1
Sitz@@ 1
vereins 1
wär@@ 1
2,5 1
nes 1
veröffentlichten 1
ps 0.6954296849863972
lautet 1
beschäftigte 1
dra@@ 0.9488399210804274
Mathematik 1
ungs 1
ement 0.7268136733819832
Rollen 1
lager 1
Blüten 1
Luft 1
Methode 1
psych@@ 1
etz 1
enge 1
bezieht 1
mu@@ 1
schwarz 1
kel@@ 1
lungs@@ 1
Wunsch 1
moderne 1
eien 1
orte 1
1883 1
Alten 1
fahrer 1
kul@@ 1
ahl@@ 1
1920er 1
lehrte 1
ahr@@ 1
Route 0.4053975374945713
Sur@@ 0.6359314126770993
wahl 1
Mensch 1
Posten 1
Anerkennung 1
ged@@ 1
erscheinen 1
rak@@ 1
verwendete 1
igung 1
Schlag@@ 1
geschäft 1
Zw@@ 1
sieg 1
Frei@@ 1
onn@@ 1
christlichen 1
heim@@ 1
Brau@@ 1
Festung 1
eigener 1
3.@@ 0.7602122028754396
lig 1
vollen 1
Übersetzung 1
artigen 1
last@@ 1
Universitäts@@ 1
sbach 1
Studie 1
1864 1
Ruhestand 1
verfügte 1
omen 1
dis@@ 0.1532405744611246
Etwa 1
On@@ 0.9698773434438894
beschlossen 1
Tel@@ 1
behandelt 1
Video 1
ensi@@ 1
erworben 1
Modelle 1
siegte 1
Don 0.6608213418989836
Europ@@ 1
tenden 1
wichtigen 1
Gründungs@@ 1
bedeutende 1
Anhalt 1
üblich 1
bieten 1
welt@@ 1
Leistungs@@ 1
ello 1
Organisationen 1
ont@@ 1
ban@@ 1
Gründer 1
Kast@@ 1
durfte 1
ère 1
Start@@ 1
enne 1
mes 1
runde 1
Studi@@ 1
nämlich 1
Kirchengemeinde 1
fragen 1
Thi@@ 1
stellungen 1
Problem 1
nachgewiesen 1
Tan@@ 1
ekt@@ 1
schwere 1
technische 1
Verkauf 1
Waffen 1
aufen 1
eu@@ 1
wer 1
1861 1
Niedersachsen 1
ū@@ 1
dig@@ 1
sub@@ 0.24298473685138933
offen 1
Nik@@ 1
Brenn@@ 1
Senat 1
Farben 1
Rh@@ 1
1869 1
Kle@@ 1
France 0.18443584280932615
Kro@@ 1
Herr@@ 1
verhaftet 1
vierte 1
angel@@ 1
Roman@@ 1
Maschine 1
grün 1
Reiches 1
blätter 1
Aachen 1
Jazz@@ 1
Stand@@ 1
1862 1
ache 1
bers 1
Hause 1
int@@ 0.8033551542819592
Garten 1
Höh@@ 1
fielen 1
zul@@ 1
Rab@@ 1
1815 1
Frieden 1
sicher 1
stärker 1
oper@@ 1
Kaiser@@ 1
ester 1
istischer 1
Zweck 1
Fol@@ 1
ris@@ 1
Magazin 1
Inschrift 1
Kanal 1
Verein@@ 1
Einzel 1
Online 1
E. 0.5748804308207228
Street 0.18345442698443637
fortan 1
Allgemeinen 1
1865 1
Erwähnung 1
eim 1
Hauptrolle 1
Baureihe 1
Fort 0.538232561982544
schie@@ 1
halle 1
ao 0.6770876490242257
gert 1
Prix 0.9827210491049734
behörde 1
linien 1
Lar@@ 0.957237701018789
ee 0.5656673763675831
Kombination 1
Ziele 1
engagierte 1
machten 1
tig@@ 1
Datum 1
Sem@@ 1
Der@@ 1
lö@@ 1
Fernsehserie 1
Wolf@@ 1
anhand 1
bücher 1
Design 0.9052726392530491
rennen 1
Stefan 1
Stau@@ 1
lis 1
kreuz 1
unterscheidet 1
ennen 1
beschloss 1
dürfen 1
netz 1
Bühne 1
era 0.30834489876812143
ý 1
Kabinett 1
sa 0.9296949530667259
Und 1
angeb@@ 1
Plätze 1
aden@@ 1
Bericht 1
Silbermedaille 1
schlossen 1
Gemeinsam 1
Hau@@ 1
Sekunden 1
Lok@@ 1
abgerissen 1
eingegliedert 1
shof 1
Biografie 1
Projekte 1
jener 1
not@@ 0.9204848234242877
ungsh@@ 1
Amateur@@ 1
offenen 1
verstärkt 1
Frau@@ 1
Brü@@ 1
Mod@@ 1
Mun@@ 1
dert 1
gebietes 1
Erster 1
Töchter 1
fle@@ 1
frei@@ 1
angebracht 1
solchen 1
Afrika 1
Herausgeber 1
Flugzeug@@ 1
kreis@@ 1
Jürgen 1
Partner 1
beit@@ 1
ermöglichen 1
5.000 1
Veränderungen 1
zweier 1
Neustadt 1
Hon@@ 1
Seinen 1
ße 1
Mary 0.32541744034441183
1877 1
Lat@@ 1
kammer 1
ausen 1
hierbei 1
Sab@@ 1
SG 1
Volk 1
dete 1
gesellschaften 1
laufen 1
rem@@ 0.9533332927094416
änderte 1
Dach 1
Schau@@ 1
atik 1
förmige 1
n. 1
Einer 1
ford 0.3456847632029786
gefangen 1
Siegen 1
Insbesondere 1
Marke 1
entsprechende 1
reiste 1
tief@@ 1
bogen 1
lein 1
Stern@@ 1
Thüringen 1
Cre@@ 0.6520146920596771
halt 1
Priester 1
fällen 1
Amsterdam 1
atischen 1
Gesundheits@@ 1
rom@@ 1
rad 1
Pul@@ 1
wissenschaftlicher 1
beendet 1
miss@@ 1
Jahr@@ 1
aktive 1
ausgestrahlt 1
plan 0.40495554533070127
stat@@ 1
G. 0.8231903692226619
Bran@@ 1
rische 1
1849 1
Lokomotiven 1
ond@@ 1
Menge 1
Schnell@@ 1
Texas 0.3016634176867877
roman@@ 1
soziale 1
Ausstellungen 1
Licht 1
vorgestellt 1
Beiträge 1
Funk@@ 1
Fluss@@ 1
Bos@@ 1
mach@@ 1
seither 1
Entfernung 1
Staates 1
bezirk 1
Journalist 1
iden 1
mittlere 1
Landgemeinde 1
Suche 1
dienten 1
Auto 1
isse 1
kenn@@ 1
Albrecht 1
Erweiterung 1
äd@@ 1
verbindung 1
standes 1
bedingungen 1
ret@@ 1
les@@ 1
Technischen 1
verp@@ 1
entwickeln 1
Final@@ 1
eres 1
Antonio 1
Regel@@ 1
erhöht 1
Back@@ 1
Darmstadt 1
Spar@@ 1
Botschafter 1
Red 0.33013516566795065
glich 1
ump@@ 1
Rie@@ 1
03 1
Port@@ 1
Regionalliga 1
anen 1
Standard 1
ensis 1
wur@@ 1
spr@@ 1
Fuß@@ 1
Geheim@@ 1
arbeiter 1
Lee 0.45774636774985245
Straß@@ 1
Mecklenburg 1
anlässlich 1
Graz 1
infolge 1
uli@@ 1
Kommandeur 1
Karlsruhe 1
Sul@@ 1
Tübingen 1
sitz 1
Pass@@ 1
Flügel 1
hre 1
Assistent 1
ail@@ 1
größe 1
satz@@ 1
sicherte 1
Hier@@ 1
ass 1
bergs 1
heits@@ 1
Bildhauer 1
Führ@@ 1
entschieden 1
kW 1
Management 0.8711286259914798
Niederlanden 1
Pro 0.9595072007689566
läuft 1
Küsten@@ 1
Übernahme 1
− 1
abe 1
Fur@@ 1
Jungen 1
Schrift@@ 1
chter 1
Gruppen@@ 1
Rock@@ 1
bedingt 1
entwickelten 1
Hochschul@@ 1
its 0.02183402539748928
Arbeiter 1
Mutter@@ 1
born 0.053317753404050046
atur@@ 1
Kenn@@ 1
Ah@@ 1
Drittel 1
Nationen 1
Gefängnis 1
fähigkeit 1
Mei@@ 1
Psych@@ 1
Bab@@ 1
Mann@@ 1
Wehrmacht 1
kol@@ 1
Unabhängigkeit 1
we 0.21790262998063079
Hem@@ 1
Wesentlichen 1
Medaille 1
nissen 1
Haup@@ 1
decken 1
errichteten 1
größer 1
fü@@ 1
yr@@ 1
Ky@@ 1
Co. 1
Baron 1
Trag@@ 1
höhere 1
Partien 1
Saisonende 1
log@@ 1
Trieb@@ 1
mauer 1
anzen 1
une 1
Bevölkerungs@@ 1
bewer@@ 1
Pläne 1
Venedig 1
Fahrzeug@@ 1
Donau 1
steigen 1
Güter 1
Kandidaten 1
Sek@@ 1
Stimme 1
Hugo 1
ots 0.7665036629193565
bil@@ 1
wege 1
Besatzung 1
Chem@@ 1
ros@@ 1
gut@@ 1
yer 0.8546100242557774
sis 1
weiten 1
ater 1
Av@@ 0.8604995810870313
Eg@@ 1
Mission 1
Offizier 1
ham 0.4738944954106545
unver@@ 1
mag@@ 1
Fi@@ 1
Fraktion 1
erfolgten 1
Stücke 1
manns 1
Flotte 1
Pen@@ 0.8029889737255342
eingeweiht 1
Gewinn 1
Mah@@ 0.5040126637387661
Minute 1
gs@@ 1
möglichst 1
Wohnung 1
mitglieder 1
schlagen 1
Oscar 1
ader 1
begrenzt 1
mir 1
stufe 1
Besucher 1
Tom@@ 1
begleitet 1
bin 1
Klein 1
02 1
militärische 1
städtischen 1
wert@@ 1
jahren 1
Altstadt 1
Anhänger 1
Gipfel 1
tiges 1
ji 0.6463438362978525
Abstand 1
ax@@ 0.9628105411587705
Funde 1
Anspruch 1
Kommando 1
gener@@ 1
rach@@ 1
leh@@ 1
verboten 1
Bay@@ 1
Künstler@@ 1
bre@@ 0.5464191761544855
Stern 1
teile 1
gn@@ 1
Daten@@ 1
höher 1
traditionellen 1
einheiten 1
Best 0.2746107686682212
paar 1
Alters@@ 1
zus@@ 1
tier@@ 1
ire 0.7236052681386502
Zahlen 1
star@@ 1
Hill 0.3460670140868615
auff@@ 1
Promotion 1
Arbeiter@@ 1
Dur@@ 0.9957001518125383
Force 0.3306808324763861
möglichen 1
Besitz@@ 1
kin 0.7240664916399127
ott 1
evangelischen 1
usi@@ 1
dungs@@ 1
einst 1
Art@@ 1
definiert 1
wärts 1
werte 1
eigenständige 1
Physik 1
AS 1
Dampf@@ 1
könnten 1
vorbei 1
Ass@@ 1
kommission 1
ältere 1
ellen@@ 1
Wechsel@@ 1
führende 1
wissenschaften 1
Rich@@ 1
flug 1
zugänglich 1
up 0.03977301908662574
ide 1
Vorkommen 1
ves 0.4290755919541401
Netz 1
derung 1
Anwesen 1
Mes@@ 1
disch 1
1800 1
verlängert 1
Front 1
esischen 1
Dep@@ 1
Leichtathletik 1
ato 0.8253874260462748
Tom 0.5858985313584607
bezeichnung 1
ix 1
Reit@@ 1
Malerei 1
bereit 1
Et@@ 1
Indi@@ 1
Krankheit 1
Wit@@ 1
Č@@ 1
See@@ 1
Weltmeister 1
einz@@ 1
Prinz 1
dänischen 1
Lim@@ 1
sky 0.44667036693933954
Ensemble 1
Tat@@ 1
wahr@@ 1
KZ 1
zeug@@ 1
Altar 1
Gewalt 1
beschädigt 1
horn 1
Geschäftsführer 1
versorgung 1
Hein@@ 1
Orchester 1
Ara@@ 1
Angel@@ 1
Krone 1
Orgel@@ 1
Griechenland 1
ding 0.3002464166680948
ska 1
Augsburg 1
Grad 1
solcher 1
verändert 1
ehr@@ 1
hell@@ 1
akademie 1
ela 0.9381712207981246
frühere 1
Eingang 1
achse 1
geblieben 1
stan@@ 1
Major 0.48926448198778505
Al 0.3840602961200789
con@@ 0.173544530024807
grad 1
anerkannt 1
betreibt 1
ständen 1
ändern 1
1863 1
wirkt 1
Tour@@ 1
Var@@ 0.9562847174632368
sächsischen 1
verteilt 1
getreten 1
20@@ 0.720409526158717
Ereignisse 1
sä@@ 1
Ehren 1
brechen 1
Freiheit 1
e. 1
Mündung 1
Sonnen@@ 1
heimer 1
ain@@ 0.599314056416583
theit 1
00@@ 0.8127737604864894
ses 0.6785610432201448
trä@@ 1
Seel@@ 1
verlauf 1
Tempel 1
Bauwerk 1
F. 0.7698717713701992
Planung 1
weis@@ 1
Gö@@ 1
staatliche 1
Awards 0.2743709813191402
Ferner 1
ida 1
übersetzt 1
tigung 1
Ü@@ 1
Zusammen@@ 1
Verhandlungen 1
mehrmals 1
Dortmund 1
Fassung 1
owitsch 1
gezählt 1
Brut@@ 1
Drehbuch 1
Mannheim 1
Ang@@ 1
Boston 0.47085547789362714
Techn@@ 1
Tab@@ 1
isierten 1
ks@@ 1
übernehmen 1
Beh@@ 1
Komponisten 1
aya 0.581080123613362
besonderen 1
evangelische 1
tei@@ 1
Auftritt 1
bedeut@@ 1
Pariser 1
hy@@ 0.6841208851852973
Master 0.681032923279699
einheit 1
osa 0.8913693975033203
fri@@ 1
gänge 1
Meinung 1
zusätzliche 1
asp@@ 1
Co 0.7165841091775523
Methoden 1
schützen 1
Rathaus 1
artige 1
ti 1
Expedition 1
Gebäudes 1
ionen 1
Brief 1
ther 1
zut@@ 1
grund 1
Blick 1
wandte 1
haus@@ 1
vern@@ 1
Adel@@ 1
Panzer@@ 1
bekanntesten 1
erter 1
ton@@ 1
Tourismus 1
ers@@ 1
ktion 1
tin 1
Hitler 1
q 0.6820790062263267
off@@ 0.9607136804621931
sech@@ 1
flu@@ 1
Wider@@ 1
sitz@@ 1
ppen 1
Vog@@ 1
aire 1
R. 0.5675848264991645
direkte 1
Hierbei 1
D. 0.7111948370832853
Gesang 1
Sin@@ 1
Wes@@ 1
mod@@ 1
then 0.04558214681086515
freund@@ 1
use 0.07414984659440789
wahlen 1
Kapit@@ 1
Herren@@ 1
Wur@@ 1
Irland 1
Na@@ 1
spielerin 1
Unterschied 1
aria 1
Wege 1
stattdessen 1
Vorgänger 1
auen 1
Tran@@ 1
altet 1
kern 1
sprachen 1
italienischer 1
Preis@@ 1
Has@@ 1
zustellen 1
gebauten 1
Mass@@ 1
erlaubt 1
Freunde 1
Web@@ 1
Bin@@ 1
festgelegt 1
Cy@@ 0.9902675957070074
Milliarden 1
gedreht 1
Lübeck 1
ye 0.5342866062130696
Geburt 1
deckt 1
Pir@@ 1
Viertel 1
westliche 1
enth@@ 1
Register 0.6336844681072772
etzen 1
Rede 1
Schlos@@ 1
Will@@ 1
ausgebildet 1
Ägypten 1
Vier 1
Vorgänger@@ 1
let 0.3896152068886281
Nachfolge 1
Rostock 1
hundert 1
häuser 1
tau@@ 1
Helmut 1
enheim 1
1856 1
Konstruktion 1
Pot@@ 1
überliefert 1
Bord 1
Mich@@ 1
Mul@@ 0.8203784418421054
ils 1
Mailand 1
Geschichts@@ 1
unterschieden 1
Hum@@ 1
mil@@ 1
emen 1
kosten 1
legung 1
Standard@@ 1
Play 1
tag@@ 1
kat@@ 1
orf 1
wirk@@ 1
arbeiteten 1
bekommen 1
Histor@@ 1
Gottes 1
Unternehmens@@ 1
fol@@ 1
Stat@@ 1
Je 1
Pau@@ 1
cker@@ 1
kapelle 1
länger 1
bereiche 1
Dissertation 1
Modus 1
verg@@ 1
gesprochen 1
sz@@ 1
Normal@@ 1
ufen 1
wiederholt 1
erfolgreichen 1
erheblich 1
Exemplare 1
Möglichkeiten 1
NGC 1
Dichter 1
Jack 0.5058877849780732
sol@@ 0.8639881271535632
Barbara 1
gelangen 1
Sebastian 1
Oberfläche 1
Verlängerung 1
ian@@ 1
Justiz@@ 1
wettbewerb 1
beeinflusst 1
Gefahr 1
Kilometern 1
Service 0.35165706603956487
errang 1
Lebensweise 1
Amerika 1
ting 0.19035045316887797
Wort@@ 1
boden 1
platten 1
beteiligte 1
hielten 1
Kindheit 1
are@@ 1
lungen 1
és 1
inneren 1
Kreises 1
angeschlossen 1
gol@@ 1
lo 1
Ursprung 1
Computer@@ 1
Schwarz 1
Van 0.640476660325065
ez@@ 1
Leopold 1
sonst 1
Williams 0.45883974179621007
aktuellen 1
Tokio 1
Verteidigung 1
haf@@ 1
Wissenschaftler 1
lös@@ 1
lehr@@ 1
Nationalsozialisten 1
Siedlungs@@ 1
OS 0.9795906604399851
inf@@ 0.8137946299817816
field 0.11615358083045581
ahn 1
Cat@@ 0.7761906227756932
1859 1
Systems 1
so@@ 0.7651683113586369
Barcelona 1
Franzosen 1
Med@@ 1
Singles 0.9502855464061967
Tabelle 1
tran@@ 0.6997565572317301
Ok@@ 1
deck@@ 1
Les 1
ländischen 1
ty 0.3115577588647872
esse 1
wirkung 1
Ansicht 1
ome 1
Bestand 1
Pel@@ 1
ffer 1
Cas@@ 0.9735093592956782
Leh@@ 1
linge 1
1840 1
Klavier@@ 1
private 0.24593279479866953
Roll@@ 1
dan@@ 1
richtete 1
Mé@@ 1
Reb@@ 1
Rumänien 1
flug@@ 1
yst@@ 1
Matthias 1
Morgen 1
zehn@@ 1
Neur@@ 1
Wirtschaft@@ 1
You 0.3197643469494127
Flächen 1
Verkehr@@ 1
örtlichen 1
Englisch 1
East 0.14819070170169205
Höhepunkt 1
na@@ 1
systeme 1
AR@@ 0.655281736210799
Madrid 1
verzeichnet 1
Stock@@ 1
ffen 1
Jones 0.4239078348021738
Kunden 1
reisen 1
Kupfer@@ 1
letztlich 1
engl 1
ergänzt 1
kun@@ 1
Diplom 1
hauses 1
Qualität 1
Miss@@ 1
Weiter@@ 1
aum 1
Übergang 1
Aussage 1
Umsetzung 1
Zer@@ 1
bahnhof 1
Dal@@ 1
ong@@ 0.8214400171387065
assen@@ 1
Brown 0.40355857228682335
Personal@@ 1
Hell@@ 1
ermittelt 1
Breslau 1
May@@ 0.7989357957413883
mittelalterlichen 1
NHL 1
hör@@ 1
Südafrika 1
eter@@ 1
Prinzip 1
pe@@ 0.49495955041270506
Hab@@ 1
Hilfs@@ 1
inus 1
richter 1
verletzt 1
ander 1
diesmal 1
lau 1
1806 1
direkten 1
eile 1
Bad@@ 1
Unterricht 1
gemein@@ 1
techn@@ 1
Jena 1
digt 1
region 0.16027046487950203
Nikolaus 1
Fro@@ 1
maximal 1
Engel@@ 1
Zo@@ 1
Abgeordneten 1
unbekannt 1
Weiß 1
benötigt 1
fried@@ 1
sion 0.7826445579055828
ritt 1
Bil@@ 1
Len@@ 1
speziell 1
unterstützen 1
Pod@@ 1
mi 0.8517049685999413
Strecken 1
anischer 1
gehende 1
lie 0.7173465091957764
Glocken 1
allgemeinen 1
unterschiedlich 1
Emil 1
thal 1
nutzte 1
Objekt 1
beobachtet 1
derer 1
tierten 1
Reform@@ 1
aufzu@@ 1
iter@@ 1
lerin 1
nummer 1
Kant@@ 1
darstellt 1
rein 1
Umbau 1
atten 1
Turm@@ 1
Mach@@ 1
grenzen 1
kap@@ 1
Mount 0.5103784689821421
Original@@ 1
gelegen 1
geringen 1
Now@@ 1
Schall@@ 1
beschrieb 1
Schwe@@ 1
Columbia 0.45706580600863467
Herzogtum 1
IC 1
tert 1
chs@@ 1
rein@@ 1
testen 1
Arm@@ 1
staaten 1
EM 1
Konzerte 1
Wor@@ 1
ents 0.3219504629477606
Bands 1
hr 1
ash@@ 0.4931618110905489
aufnahmen 1
Modell@@ 1
Persönlichkeiten 1
gelände 1
Mund@@ 1
Positionen 1
abhängig 1
fahrten 1
Corps 0.47583747209410804
einfachen 1
fäl@@ 1
Bachelor 1
Meg@@ 1
diert 1
sam@@ 1
schau@@ 1
ş@@ 1
übergeben 1
Typ@@ 1
Sir 0.3361778108023364
Schne@@ 1
Werte 1
dien@@ 1
este 1
roten 1
uz@@ 1
ER@@ 1
täglich 1
e.V. 1
holz 1
Premiere 1
Big 0.38268208446909624
Regensburg 1
Unternehmer 1
fo@@ 0.8258360011952773
letzter 1
ähnlichen 1
Eur@@ 1
Fassade 1
Stationen 1
Interessen 1
Rücktritt 1
Wetter@@ 1
ment@@ 1
Reformation 1
Kli@@ 1
Männern 1
Prof@@ 1
Wies@@ 1
unternahm 1
Es@@ 1
lebenden 1
untersucht 1
Militär 1
Wie@@ 1
nern 1
Szenen 1
kanadischen 1
mitt@@ 1
verkehrs@@ 1
Emp@@ 1
datiert 1
dep@@ 1
Varianten 1
kommun@@ 1
Altar@@ 1
ater@@ 1
gerät 1
Meeres@@ 1
ania 1
imm@@ 1
orn 1
regionalen 1
gearbeitet 1
becken 1
Vo@@ 1
hofen 1
organisierte 1
ungsver@@ 1
suchen 1
anc@@ 0.8768365852628905
sam 1
Quell@@ 1
Det@@ 1
Mot@@ 1
Vereins@@ 1
dreimal 1
Betrieb@@ 1
Nachkommen 1
abgelöst 1
vertrieben 1
Arnold 1
Kern 1
saß 1
Kapitän 1
schen@@ 1
länge 1
Vogel@@ 1
Weiler 1
low 0.18471948201125352
wichtiger 1
Somit 1
unterstellt 1
Kamera 1
üm@@ 1
Plänen 1
Harry 0.7187073517406602
Virginia 0.2958177928063273
Streit 1
Bauten 1
jüngeren 1
kopf 1
unterrichtete 1
Premierminister 1
Rot 1
Stoff@@ 1
sechsten 1
Ga@@ 1
od 0.9126395259175392
leit@@ 1
Bundesstraße 1
Patri@@ 1
Rob@@ 1
unterteilt 1
kreuz@@ 1
Kollegen 1
mak@@ 1
Heimatstadt 1
umgewandelt 1
Erhebung 1
Haf@@ 1
ras@@ 1
siedlung 1
1830 1
1857 1
er- 1
lik@@ 1
Jurist 1
ener@@ 1
via 0.22836698947345255
diverse 1
Zell@@ 1
ines 0.37573009116048667
eingemeindet 1
qualifizierte 1
urs 1
zeichnet 1
Cur@@ 0.7231526455755004
Rod@@ 1
European 0.1391893567888482
flügel@@ 1
Dun@@ 0.7308352055437313
Potsdam 1
Alpen 1
dis 1
Beteiligung 1
ernen 1
Cu@@ 0.8535686185901565
Tim@@ 1
ess 0.3792512701625201
stücke 1
Joe 0.5360357026241345
Ep@@ 1
Tunnel 1
reichte 1
1855 1
Stro@@ 1
Lab@@ 1
esische 1
3000 1
lehnte 1
besitzer 1
Europas 1
Lord 0.370431374725623
Denk@@ 1
1854 1
Dek@@ 1
Königs@@ 1
derten 1
etes 1
schnitt 1
dauer 1
Kolonial@@ 1
Navy 0.3032528088388911
Zweiter 1
DE@@ 1
Ari@@ 1
Definition 1
geeignet 1
schwarzen 1
ul 0.7932676973134971
trafen 1
eth@@ 0.9278754812898027
schiff@@ 1
utsch@@ 1
val@@ 0.7946659670543142
Gewicht 1
Umfang 1
Autor@@ 1
Stadtgebiet 1
Klin@@ 1
Schiffs@@ 1
Wen@@ 1
insel 1
Innsbruck 1
Juan 0.8445037970853372
Kü@@ 1
Ther@@ 1
Gegenwart 1
gestorben 1
ox@@ 0.895843028103628
tern@@ 1
ners 1
Series 0.36777948481684836
Feuer 1
Meyer 1
Mobil@@ 1
Einsätzen 1
hardt 1
uc@@ 0.6975216883130498
wa@@ 1
ängen 1
Carolina 0.38050836838966934
Presse 1
türkischen 1
gebildeten 1
leich@@ 1
leiten 1
hier@@ 1
Grünen 1
Alte 1
aufgegeben 1
schicht 1
Abt 1
größtenteils 1
tief 1
Deshalb 1
Ziegel@@ 1
Marin@@ 1
Witwe 1
enhausen 1
erstraße 1
ausstellung 1
Spe@@ 1
Streitkräfte 1
andererseits 1
trag@@ 1
sorgte 1
Gemarkung 1
Eber@@ 1
sich@@ 1
Sav@@ 0.9498689229744557
gebaute 1
ova 0.7345484977833266
Love 0.3937170914019083
Wagner 1
enter 0.6169087362392291
aceae 1
geändert 1
Quer@@ 1
Zwar 1
funktion 1
Seitdem 1
Programm@@ 1
don 0.3893568038630713
mögliche 1
ausgewiesen 1
gegangen 1
platte 1
reform 0.9572126496539722
1803 1
kunst 1
Automobil@@ 1
jek@@ 1
klein@@ 1
ekt 1
gerufen 1
positiv 1
Bell@@ 1
Albums 1
Regeln 1
Schwierigkeiten 1
Goldmedaille 1
Museums 1
Ty@@ 1
One 0.12462375316931548
schläge 1
co@@ 0.20810067194626894
phen 1
Florida 0.32808475865107367
steine 1
Ry@@ 1
IN@@ 0.8635711359371923
gegliedert 1
hinter@@ 1
Schottland 1
Massachusetts 0.49538089499878313
Rü@@ 1
beider 1
Nationalpark 1
dro@@ 1
Horn@@ 1
Frank@@ 1
Research 0.3249118138707238
Tschechien 1
Inneren 1
lim@@ 1
ule 1
Innerhalb 1
oli 1
gründeten 1
Ring 1
ney 0.46151312965834845
Versionen 1
einander 1
icht 1
Langen@@ 1
etc. 1
Fle@@ 1
gelassen 1
Bereiche 1
Evangelischen 1
gefördert 1
seiten 1
fertigte 1
François 1
afen 1
einerseits 1
amm 1
bahnen 1
europäische 1
geln 1
zun@@ 1
Trennung 1
Sinn 1
Gri@@ 1
tun 1
brau@@ 1
chs 1
eich 1
griff 1
höhe 1
Konflikt 1
1852 1
nde 1
nei@@ 1
aufgeteilt 1
Kammer 1
Leipziger 1
fach 1
maßgeblich 1
Herz 1
wahl@@ 1
Macht@@ 1
Dieter 1
ec 1
erlebte 1
Art. 1
Typs 1
Publikationen 1
ball 0.41646932526408575
Gottfried 1
1858 1
geteilt 1
Earl 0.731969944977273
Monuments 1
Neuseeland 1
brachten 1
sprech@@ 1
ums@@ 1
Cha@@ 0.7543160826133193
oni 1
ç@@ 1
Jahrzehnten 1
Eisen@@ 1
Synagoge 1
Rek@@ 1
Zuvor 1
Ausgaben 1
ith 0.9102624543480746
Athen 1
IV 0.6529371004175446
Wales 0.3195639376427568
derselben 1
imp@@ 0.5083782458852554
vorhandenen 1
Rechtsanwalt 1
cia 0.9963411878333239
Ordens@@ 1
politischer 1
reduziert 1
ätze 1
Eigentümer 1
Schneider 1
Samuel 0.7916668528060284
tisch 1
Petersburg 1
Regen@@ 1
mei@@ 1
Herr 1
Team@@ 1
indischen 1
Erscheinung 1
Vit@@ 1
eta 0.9124710742971777
anda 0.854856615747812
gehenden 1
onia 0.8790968938414152
Nahrungs@@ 1
Dynastie 1
hängt 1
Träger 1
Wür@@ 1
US@@ 0.6186572540704042
edi@@ 1
sichtbar 1
verpasste 1
Botschaft 1
integriert 1
owo 1
sum@@ 1
pi@@ 0.8188646657919211
Wissen 1
kurzer 1
bilder 1
Cro@@ 0.6226625073360204
Kinos 1
Weit@@ 1
Frucht@@ 1
ball@@ 1
run@@ 1
teren 1
Shi@@ 0.5685463550956562
Sl@@ 1
P. 0.5327431165761397
klin@@ 1
Stell@@ 1
Urkunde 1
nten 1
sil@@ 0.8488544122863241
erforderlich 1
itions@@ 1
vermutet 1
stands 0.7616659241933953
erfolgen 1
lar@@ 1
mus 1
Western 0.19913674156266478
breit@@ 1
Jedoch 1
ütz@@ 1
.-@@ 1
Bucht 1
Lind@@ 1
wichtigste 1
Championship 0.17295467321439886
Organ@@ 1
Transport 0.9482843866852819
Beitrag 1
Brief@@ 1
sau@@ 1
bezüglich 1
Rand@@ 1
illi@@ 1
sang 1
Ausbildungs@@ 1
engl@@ 1
tour@@ 1
kämpfte 1
lehre 1
St.-@@ 1
Fürst@@ 1
tim@@ 0.6990510734217318
spor@@ 1
ßt 1
mus@@ 1
baum 1
kündigte 1
Arch@@ 1
atus 1
offenbar 1
entspringt 1
verbindungen 1
Abend 1
Analyse 1
Ersatz@@ 1
lösen 1
polnische 1
Auftritte 1
wes@@ 1
Gang@@ 1
Rechtswissenschaften 1
wählte 1
Bundeswehr 1
ric@@ 0.6601873381208916
radi@@ 1
verst@@ 1
Comp@@ 0.8941611818252588
menschlichen 1
stattfand 1
bedient 1
zes 1
zugunsten 1
übte 1
wollten 1
Feder@@ 1
Kalk@@ 1
Katharina 1
spe@@ 1
voneinander 1
Spr@@ 1
Änderungen 1
Mauer 1
Edel@@ 1
rang 1
Sprecher 1
Studiums 1
Ernennung 1
ecke 1
rel@@ 0.7689613707088485
Geschwindigkeit 1
Kaufmann 1
Scott 0.46749231430130833
eigentlichen 1
inge 1
kritisiert 1
ufer 1
vol@@ 0.9202332508966676
Verteidigungs@@ 1
ito 0.9198698875896814
fil@@ 1
funktion@@ 1
Jacques 1
Kriminal@@ 1
Original 1
bedeutendsten 1
ust@@ 1
Ehemann 1
vers 0.6801199707440341
verlief 1
Den@@ 1
figur 1
eingebaut 1
derte 1
Neu 1
ammer 1
IS@@ 0.6764733339690516
Pennsylvania 0.3848300265231249
White 0.2343546679856525
regionale 1
viertel 1
seitig 1
ʿ@@ 1
Central 0.18096632872766563
Horst 1
Wohl@@ 1
idae 0.4132182887759569
Giovanni 1
Siedlungen 1
erischen 1
richten 1
Marburg 1
pass@@ 1
Anne 0.7393529660676026
Sing@@ 1
bedeutenden 1
nennen 1
singen 1
Chef@@ 1
Veranstaltung 1
Fra@@ 1
ling@@ 1
verwendeten 1
tene 1
deutsch@@ 1
stag 1
Kamer@@ 1
verantwor@@ 1
älter 1
Jacob 1
Kathedrale 1
burg@@ 1
domin@@ 1
Budapest 1
1818 1
Lehrstuhl 1
gas@@ 1
zo@@ 1
gesetz@@ 1
karriere 1
Handel@@ 1
Komposition 1
Systeme 1
japanische 1
Hart@@ 1
Tam@@ 0.8433257166034682
aller@@ 1
abel 1
DVD 0.7301880125439308
1845 1
Bat@@ 0.7735943778668211
Einsätze 1
äm@@ 1
Nag@@ 0.9346672934048171
Pflanz@@ 1
Toren 1
eingetragen 1
wiesen 1
Fürsten 1
Provinzen 1
Felix 1
gebirge 1
lichkeiten 1
pat@@ 1
Part@@ 1
berichtete 1
isieren 1
umfangreiche 1
Nordamerika 1
verbände 1
Dietrich 1
Ay@@ 0.7216269995391217
Heer 1
ünd@@ 1
Autobahn 1
verz@@ 1
1851 1
Bergen 1
jähriger 1
nisses 1
hierfür 1
kunde 1
1813 1
1847 1
friedhof 1
spek@@ 1
Gesam@@ 1
Kardinal 1
üblichen 1
Park@@ 1
fähig 1
igt 1
medi@@ 1
T. 0.686147061786322
persönlichen 1
sinn@@ 1
eist@@ 1
einfache 1
nicht@@ 1
Gil@@ 0.9198904411657383
Rohr@@ 1
sten@@ 1
Mittelpunkt 1
Sig@@ 1
Stei@@ 1
daten 1
icht@@ 1
Hügel 1
Existenz 1
Haltung 1
Lad@@ 1
Tru@@ 1
Turnier@@ 1
ariat 1
weiße 1
Auswirkungen 1
Führungs@@ 1
chron@@ 1
finanziellen 1
lieferte 1
Argentinien 1
gesichert 1
strecken 1
australischen 1
kr@@ 1
üsse 1
Dsch@@ 1
Rec@@ 0.802280334556285
gau 1
ê@@ 1
pos@@ 1
Amt@@ 1
Karte 1
Roth@@ 1
gefertigt 1
starben 1
antiken 1
olog@@ 1
Sekretär 1
bereit@@ 1
getroffen 1
mont 1
Castle 0.5541221598585186
Transport@@ 1
Fas@@ 1
Schritt 1
dauerte 1
ossen 1
Got@@ 1
Mitt@@ 1
Verdienste 1
Zoll@@ 1
entgegen@@ 1
ico 1
Begriffsklärung 1
Vorsitzende 1
Spielern 1
äußeren 1
Flusses 1
hart 1
ado 0.7946613444110575
Az@@ 0.7049829373393802
englischer 1
Kran@@ 1
besucht 1
feld@@ 1
benen 1
Kapitel 1
Erstmals 1
Verlust 1
jew 1
ram@@ 0.9414578037128347
Ausbruch 1
etti 1
maschinen 1
Vil@@ 1
ati 0.6451690134746441
englisch 1
kes 1
leistete 1
ank 1
bezogen 1
eler 1
litz 1
Österreichischen 1
110 1
1846 1
engagiert 1
Anders 1
nochmals 1
räumen 1
Informations@@ 1
Verleihung 1
Block@@ 1
aja 1
östliche 1
ator@@ 1
kow 1
Rücken 1
rol@@ 1
Karten 1
möchte 1
Doppel 1
aturen 1
Ford 0.6764622066360492
ear@@ 0.5153877636238853
ergeben 1
geschickt 1
ę@@ 1
Text@@ 1
filme 1
tar@@ 1
Sturm 1
Landkreises 1
Zeitschriften 1
alis 1
1816 1
Inn@@ 1
gasse 1
historiques 1
EP 0.5762994007925009
Flugzeug 1
geschwindigkeit 1
herrschaft 1
wehr 1
Mün@@ 1
Neb@@ 1
Rez@@ 1
anteil 1
ental 0.791027909118674
kleines 1
küste 1
Französischen 1
Rub@@ 1
rate 0.2518964523707593
Gur@@ 1
Korps 1
Strukturen 1
ennung 1
Hauptort 1
Onkel 1
grundsätzlich 1
Sonne 1
fehlen 1
präsentiert 1
anschließenden 1
nehm@@ 1
rän@@ 1
Sat@@ 1
dicht 1
erstellt 1
Gru@@ 1
Leo 1
ermordet 1
verstanden 1
Buchstaben 1
Ministerium 1
asien 1
Gall@@ 1
az 1
sprach@@ 1
Fehl@@ 1
Bill 0.4157427237310456
hu@@ 0.867994499941637
Linz 1
Zerstörung 1
ergab 1
freier 1
laufenden 1
zugelassen 1
Gebrauch 1
Gedenk@@ 1
debüt 1
nunmehr 1
Instrument 1
Misch@@ 1
Schu@@ 1
los@@ 1
Kommunikation 1
geplanten 1
Mang@@ 1
rig@@ 0.8985340499951219
Innenstadt 1
São 1
4.@@ 0.8953548373017474
gemeinden 1
Produzent 1
Blätter 1
Army 0.1353441937735628
bir@@ 1
Ämter 1
ziel@@ 1
Berge 1
beginnen 1
verfolgt 1
Aufmerksamkeit 1
Johnson 0.3974711433977319
Lebensraum 1
Häusern 1
GB 1
Spielzeiten 1
L. 0.5847463706720433
ecken 1
farben 1
stor@@ 1
Deutsch@@ 1
Ortsteile 1
Turn@@ 1
herr 1
ags 1
iertes 1
weiler 1
Geist 1
ni 1
Get@@ 1
Trier 1
Tür@@ 1
einrichtungen 1
zweites 1
Bis@@ 1
FDP 1
Komm@@ 1
offizier 1
ux 1
Finnland 1
bewusst 1
natürlichen 1
Maß@@ 1
dener 1
wie@@ 1
ausgewählt 1
ras 1
10,@@ 1
Sprint 1
St 0.21877910713809948
amtes 1
Bekannt 1
Victoria 0.43380309956695284
helfen 1
Breit@@ 1
Versorgung 1
over@@ 0.19250879357459305
Urteil 1
besiedelt 1
Davis 0.5611605116959923
Schil@@ 1
Hann@@ 1
Mut@@ 1
let@@ 0.9528619252199847
Wiederaufbau 1
lad@@ 1
ori 0.9544717069013081
erkannt 1
wächst 1
Weil 1
evangelisch 1
med@@ 1
teilte 1
maschine 1
â@@ 1
Bach@@ 1
Gitarre 1
Vorsitzenden 1
gro@@ 0.7733173163899693
äng@@ 1
Tot@@ 1
usw. 1
Warschau 1
bund 1
bestehend 1
nam@@ 1
rief 1
Ideen 1
age@@ 1
Treffer 1
vater 1
Moritz 1
Landtag@@ 1
RA@@ 0.7911367877433773
entdeckte 1
seit@@ 1
Forst@@ 1
geliefert 1
Erfurt 1
1853 1
Rest@@ 1
1814 1
Damen 1
50@@ 0.7794291444395933
Front@@ 1
Py@@ 1
Stimm@@ 1
Reisen 1
bo 0.964179177278546
berechtigt 1
Stadtrat 1
samt 1
zügen 1
Führer 1
Plat@@ 1
zeigten 1
out 0.034969507905077156
Aktion 1
Charlotte 1
arch@@ 0.6358829033201744
durchschnittlich 1
André 1
Lob@@ 1
ok 0.8453419551045808
Schwestern 1
Schluss 1
Tiefe 1
restlichen 1
August@@ 1
aka 0.6074136296053423
geschlossenen 1
Ohio 0.3727484811471246
fal@@ 1
tend 1
nehmer 1
gestaltete 1
tit@@ 1
Weimar 1
fel 1
ign@@ 0.8310906765359882
änder@@ 1
Kritiken 1
sämtliche 1
etta 0.962013167927059
gefahren 1
Umfeld 1
ax 0.9552377904217323
bester 1
Mike 0.5342429410768966
Räume 1
Treffen 1
Witt@@ 1
DM 1
stammten 1
Cr@@ 0.6902326105752337
SK 1
ungarischen 1
Mö@@ 1
Dienste 1
jo 0.7654774670650943
langsam 1
Lem@@ 1
ald 1
ary 0.2018147695531482
klein 1
Befehl 1
Darstellungen 1
Flagge 1
Einzugsgebiet 1
Est@@ 1
Liter 1
spann@@ 1
ausgestellt 1
gefärbt 1
Strecken@@ 1
Bour@@ 1
Wend@@ 1
figuren 1
hinein 1
ī@@ 1
Aussagen 1
Fürst 1
Hun@@ 1
Line 0.3182181457462741
Tschechoslowakei 1
aro 1
Heeres@@ 1
beginn 1
Highway 0.3869824205394798
Abstieg 1
Refer@@ 1
Basketball 0.8900364515195225
trugen 1
Namens 1
Drei@@ 1
kürz@@ 1
Bruno 1
rh@@ 0.974559656046983
zig 1
gerin 1
geringe 1
endem 1
Weber 1
ota 0.8845621156188345
uh@@ 1
Pop 1
Beste 1
Cer@@ 0.8906547348200226
gezwungen 1
onien 1
row 0.39142417318962225
endlich 1
upp@@ 1
archiv 1
Ret@@ 1
version 0.13444198423953302
Europäische 1
ust 0.9176211683311057
First 0.16117601441227947
keiner 1
krieg 1
Fertigstellung 1
Forsch@@ 1
Phot@@ 1
Punkt@@ 1
unterbrochen 1
German@@ 1
ches 0.4943745630357037
schar@@ 1
Nat@@ 1
Studenten@@ 1
ermöglichte 1
fahrzeuge 1
mm@@ 1
lieg@@ 1
Bür@@ 1
Motoren 1
pri@@ 0.5358319248880724
vertre@@ 1
mt 1
Berater 1
ungspro@@ 1
Ingenieur 1
angeordnet 1
durchsetzen 1
herr@@ 1
äußerte 1
Bundes 1
Saar@@ 1
Verordnung 1
ams 0.9563968225852981
voller 1
platz@@ 1
sagen 1
konz@@ 1
modell 1
Christus 1
Polit@@ 1
Michel 1
meistens 1
Dür@@ 1
Liebes@@ 1
ift 1
bacher 1
kraft@@ 1
Oberst 1
Zweite 1
ran 0.20637504964394363
römische 1
staat 1
Ausführung 1
Sonstiges 1
ologischer 1
Famili@@ 1
Ny@@ 1
Schei@@ 1
gericht@@ 1
Umwelt 1
herausgegeben 1
Erklärung 1
rückte 1
macher 1
130 1
ministeriums 1
Ž@@ 1
Games 0.2616516495309243
reis 1
umstritten 1
Falle 1
umgesetzt 1
Herrscher 1
gefährdet 1
# 0.24377632406245253
Young 0.36990024853669196
leute 1
Einstellung 1
Mär@@ 1
stimm@@ 1
sweise 1
real@@ 1
Kräfte 1
Fusion 1
motor 1
meisters 1
Boh@@ 1
spät@@ 1
Istanbul 1
Stich@@ 1
kämpfen 1
oy@@ 0.6473039135853695
Grundschule 1
Gestalt 1
Jerusalem 1
Pic@@ 1
Vorrunde 1
ständigen 1
sichern 1
Kooperation 1
bal@@ 0.8458219996534281
AT@@ 0.6487922484861356
Peter@@ 1
ă@@ 0.8863330359744211
Auff@@ 1
Maximilian 1
achtet 1
beauftragt 1
vari@@ 1
lia 0.943541708014762
änger 1
mo 1
0.000 1
zz@@ 0.9241050233297567
Schäden 1
Ten@@ 1
Künstlern 1
Verk@@ 1
brech@@ 1
Schlei@@ 1
streifen 1
Ball 1
ont 1
lem 1
ikan@@ 1
IS 1
riffen 1
Flieg@@ 1
esp@@ 1
religiösen 1
seits 1
udi@@ 1
bten 1
ferner 1
Christen 1
angeblich 1
zusammengefasst 1
Champions 0.8330121095729437
si 0.9671530470756297
spezielle 1
Junioren@@ 1
Parlament@@ 1
änen 1
opp@@ 1
Alp@@ 1
betriebe 1
oda 1
arischen 1
quelle 1
handel 1
vorsitzender 1
Green 0.31080049785480063
ju@@ 1
Spor@@ 1
$ 0.0643860567298897
reifen 1
Weißen 1
ris 0.8317142322002934
Preise 1
aktion 1
wohnte 1
Vers@@ 1
Presse@@ 1
berücksichtigt 1
Anlass 1
Landgericht 1
Brem@@ 1
Sektion 1
Luxemburg 1
aufnahme 1
ausgesetzt 1
erzeugt 1
ital@@ 1
üst@@ 1
abschloss 1
woraufhin 1
beschränkt 1
900 1
rechtlichen 1
3,5 1
Kamp@@ 1
Auseinandersetzung 1
Fenster@@ 1
Reserv@@ 1
Auseinandersetzungen 1
Spuren 1
dürfte 1
erkennbar 1
lichsten 1
s- 1
enor@@ 1
Verbreitungsgebiet 1
zin@@ 1
Kontra@@ 1
Rose 0.7554791847654324
Österreichs 1
Hül@@ 1
Abtei 1
Wohnhaus 1
tigte 1
Anforderungen 1
ritten 1
erfolgreiche 1
glichen 1
ial@@ 1
reib@@ 1
Jesu 1
ehen 1
low@@ 1
Fahrt 1
Geschichten 1
Legende 1
Ven@@ 1
gelb 1
uk 0.8733276727210683
Res@@ 0.9941413952078172
Konzert 1
wachsen 1
Professur 1
by@@ 1
welchem 1
180 1
engen 1
erbaute 1
teilung 1
1843 1
Studios 0.8253433006843958
Francis 0.5153378828736512
Sitze 1
möglichkeiten 1
Böh@@ 1
Meistertitel 1
liger 1
Dreißigjährigen 1
durchschnittliche 1
eigentliche 1
meisterschaften 1
verwenden 1
vieler 1
abgelehnt 1
1844 1
alisiert 1
utz 1
zeichnung 1
stieß 1
zeugen 1
Bast@@ 1
Bul@@ 0.8177708670296586
California 0.13527526362741846
Keller 1
Friedrich@@ 1
Gedichte 1
MA 0.6067221969553134
jan 1
Bud@@ 1
Renaissance 1
ez 0.9780890404213971
aktuelle 1
Brüssel 1
Dom 1
festen 1
stadt@@ 1
gender 0.7260882666167658
Akadem@@ 1
Schie@@ 1
digten 1
herren 1
Einz@@ 1
unden@@ 1
” 0.13475518086919283
Jesus 0.6806322173680508
Kie@@ 1
bürger@@ 1
statt@@ 1
Konz@@ 1
Serien@@ 1
kurzzeitig 1
erhältlich 1
ausgeschlossen 1
steigt 1
Flach@@ 1
Pres@@ 0.9983816048179107
allgemeine 1
any 0.06953268794926888
Galerie 1
Jahrzehnte 1
Königsberg 1
dy 0.4085961188349061
klassen 1
zi 1
1842 1
Kolle@@ 1
Pon@@ 1
deut@@ 1
steinen 1
Council 0.1242875959335732
freiheit 1
entstandenen 1
kers 0.9236427859231292
bekleidete 1
gleicher 1
Mein@@ 1
oo@@ 0.4379558655494732
uch 1
Musi@@ 1
aufmerksam 1
Funktion@@ 1
Marx 1
annten 1
Gab@@ 1
erhaltenen 1
Fall@@ 1
bru@@ 1
vergleich@@ 1
1835 1
KG 1
Betriebe 1
benannten 1
stiegen 1
trainer 1
Blue 0.39869891503481875
gerichts 1
rech@@ 1
VI. 1
landes 1
Code 1
FA 0.518158049895899
Maj@@ 1
Stockholm 1
Produktionen 1
Charakter@@ 1
entgegen 1
schottischen 1
vorstand 1
darstellen 1
dierte 1
Manager 1
bad 0.7058993914654373
Carlos 0.9537353300126711
Prüfung 1
dende 1
diversen 1
Fremd@@ 1
raten 1
Imp@@ 1
demokratischen 1
Verbindungs@@ 1
zäh@@ 1
1832 1
beinhaltet 1
ffer@@ 1
gekennzeichnet 1
Fels@@ 1
Industrie@@ 1
drehte 1
ativ@@ 1
historisch 1
nete 1
Centre 0.3497710295026684
Demokratischen 1
Durchbruch 1
Pak@@ 1
ares 1
elektrische 1
rücken 1
HC 1
Johann@@ 1
Schreib@@ 1
Reserve 0.7314467112730665
Seen 1
ieder@@ 1
itä@@ 1
Gesundheit 1
Christi 1
darauffolgenden 1
12,@@ 1
festgestellt 1
lokale 1
Grundstück 1
iern 1
königlichen 1
Geographische 1
lied 1
organis@@ 1
sta@@ 1
Stab@@ 1
vin@@ 0.8753803905865271
Aqu@@ 1
Bier@@ 1
Y 0.48362186921113787
iter 1
näher 1
red@@ 1
zustand 1
16@@ 0.678104533705058
Dafür 1
Gef@@ 1
nungen 1
Formation 1
Dob@@ 1
Kredit@@ 1
bauer 1
ragen 1
Amerikaner 1
Kino 1
Wende 1
ky@@ 1
Fortsetzung 1
Generalmajor 1
enver@@ 1
å@@ 1
laden 1
skirche 1
träger 1
Briten 1
Gang 1
geld 1
öck@@ 1
Blues 1
daneben 1
geschützt 1
qualifizierten 1
zählten 1
Kantons 1
Wich@@ 1
lebende 1
Bod@@ 1
Wo@@ 1
Hi@@ 0.9282631564435985
enhof 1
igkeiten 1
leuch@@ 1
verstorbenen 1
vert@@ 1
Alt 1
Schle@@ 1
sicht 1
Gei@@ 1
ands 0.808000161735881
begründete 1
verw@@ 1
Oblast 1
Religions@@ 1
Deb@@ 1
bri@@ 0.6968953931762815
iziert 1
Folgezeit 1
Oxford 0.4807945400873173
Sta@@ 1
filmen 1
rasch 1
ions@@ 1
ë@@ 1
5000 1
Dresdner 1
besetzten 1
erschienenen 1
tens 1
ollen 1
Town 0.30735025352826245
auten 1
Kok@@ 1
Sammel@@ 1
е@@ 1
Koch 1
Was 1
ey@@ 0.6774256239380887
Committee 0.220283924586172
sammelte 1
brü@@ 1
suchte 1
behielt 1
enten@@ 1
anus 1
Präfektur 1
haupt@@ 1
rist@@ 1
bra@@ 0.4873340326995119
Life 0.22915904580692092
Rit@@ 1
südliche 1
Eroberung 1
Fabrik 1
Hohen@@ 1
weibliche 1
steh@@ 1
Ursache 1
netz@@ 1
top@@ 0.7480999199602862
Sm@@ 0.6862436002305478
Arbeitsk@@ 1
national@@ 1
ring@@ 1
abgebrochen 1
schei@@ 1
systems 0.2331654582580593
Zweitligisten 1
Anton@@ 1
isation 0.9913412968202439
Henri 1
Schwei@@ 1
ry@@ 0.7596605157224458
Blüten@@ 1
Neub@@ 1
ash 0.2849638511771668
Bob 0.5164137139464572
gene 0.6684894695238593
schwarze 1
Nacht@@ 1
Sowohl 1
Zir@@ 1
bst@@ 1
ères 1
brand 0.48505933796558437
eiche 1
längere 1
Bischof@@ 1
Ide@@ 1
aufgehoben 1
rop@@ 1
genaue 1
sson 1
hor@@ 0.6751565767096307
Genf 1
vo@@ 0.7885995167393818
Bass 1
Bester 1
Zi@@ 1
ausger@@ 1
Volksschule 1
Tages 1
Freiherr 1
Gottes@@ 1
rechtliche 1
Holl@@ 1
nördliche 1
Iran 0.40637859719352065
Nicht@@ 1
Stunde 1
Bewer@@ 1
ziert 1
Punk@@ 1
auftreten 1
sth@@ 1
strah@@ 1
Belagerung 1
enthal 1
kten 1
Fron@@ 1
Klavier 1
Kolonie 1
runden 1
Erbe 1
geplante 1
Kopenhagen 1
Toronto 0.4380582085652859
Rektor 1
sicherheit 1
Baum 1
ami 0.588921809054391
maler 1
bte 1
phase 0.5440516760398103
Bruch@@ 1
Folgende 1
Kritiker 1
kommenden 1
Gir@@ 1
Autom@@ 1
Schwimm@@ 1
steller 1
ila 0.7503422332799724
Ben 0.6308241699031313
anisch 1
Kommunal@@ 1
Stan@@ 1
blau 1
gesetzes 1
zugs@@ 1
Chile 0.9808462432290589
esten 1
IC@@ 0.6853268048177146
dien 1
olen 1
fi@@ 0.5856382120126294
wald@@ 1
1839 1
Einzug 1
Geburtstag 1
anien 1
kos@@ 1
Gun@@ 1
Point 0.5568402611848661
UEFA 0.8862087965577061
elen 1
entsprach 1
s. 1
typischen 1
zieh@@ 1
Boote 1
Diözese 1
Illinois 0.3922949565449768
spanische 1
Eh@@ 1
Konkurrenz 1
Runden 1
Glauben 1
Sydney 0.3710562857834908
Victor 0.9136904453232328
det@@ 0.6132704407349994
enthielt 1
Parti@@ 1
Road 0.15273128846379977
erzielt 1
armee 1
kultur 1
Ze@@ 1
musikalische 1
Klassen 1
Ski@@ 1
Wir 1
ZDF 1
pan@@ 0.618030672063561
vorgenommen 1
Stephan 1
essi@@ 1
sfeld 1
stimmen 1
verlieh 1
Powiat 1
1810 1
Günther 1
durchaus 1
gehörenden 1
ikation 1
ogen 1
abgeleitet 1
atorium 1
enzeit 1
musikalischen 1
norwegischen 1
dau@@ 1
Ostpreußen 1
ells 1
dru@@ 1
yl 0.6612413501433253
Feu@@ 1
Flugzeuge 1
Tirol 1
aup@@ 1
utt@@ 1
Sicht@@ 1
Ortsname 1
fu@@ 1
Geis@@ 1
Olympi@@ 1
Rettungs@@ 1
Serien 1
heben 1
Rech@@ 1
fassung 1
kulturellen 1
abgest@@ 1
mäch@@ 1
Liber@@ 1
Wind 1
fass@@ 1
Computer 1
Hinzu 1
innere 1
Zusammensetzung 1
öst@@ 1
Manfred 1
NS@@ 0.9381377102366854
Oldenburg 1
Pokal@@ 1
Thor@@ 1
mangel@@ 1
fehlt 1
qui@@ 0.7706318610199347
una 0.8862832626461815
versuchen 1
USD 1
hinten 1
legten 1
But@@ 1
bibliothek 1
wo@@ 1
anna 0.7283459168477362
öl 1
praktisch 1
Französisch 1
gerechnet 1
1836 1
Spiegel 1
Zeitungen 1
gewidmet 1
Nachrichten 1
Erinnerung 1
Roger 0.8415730639644845
Volksrepublik 1
diger 1
geringer 1
ó 1
kan 1
ücken 1
album 0.045946736861521634
1837 1
Alter@@ 1
ref 1
rin@@ 1
beziehen 1
entliche 1
RE@@ 0.8808145024002284
gekauft 1
D.C. 0.7826758262546634
Verwaltungssitz 1
vorkommen 1
Brigade 0.6240705806755428
aster 1
Brunnen 1
Lokal@@ 1
SO@@ 0.9546420567018478
1834 1
Drama 1
Gebäuden 1
enkt 1
entscheiden 1
Bä@@ 1
Naturschutz@@ 1
Peking 1
Verbesserung 1
kin@@ 1
Ihm 1
Münz@@ 1
Patrick 0.6306165452078026
befasste 1
got@@ 1
such@@ 1
zt 1
natürliche 1
1838 1
stellungs@@ 1
Times 0.28482078016157447
Änderung 1
Arg@@ 1
PC 0.6334572409069092
haften 1
Zellen 1
ais@@ 1
pen 1
deg@@ 1
Partie 1
Port 0.46022553167464575
cher@@ 1
ütte 1
Wirk@@ 1
sy@@ 0.8861947932110223
Bag@@ 1
beteiligten 1
künstlerische 1
äußerst 1
duk@@ 1
katholischer 1
ähn@@ 1
Lern@@ 1
Nachrichten@@ 1
schütz@@ 1
1841 1
Ausschuss 1
char@@ 0.6234426054485467
hafte 1
vielleicht 1
bedeckt 1
stern 1
ständiger 1
aben 1
umb@@ 0.8637988130066903
Fach 1
sur@@ 0.4299040607359399
Spitzen@@ 1
Kontakte 1
ruh@@ 1
schwei@@ 1
well 0.035529140701152394
Büch@@ 1
Philadelphia 0.4413306463204251
Versuche 1
schau 1
Ehrungen 1
Jar@@ 0.9904804037753502
Kaisers 1
stoffen 1
Psychologie 1
barer 1
Entdeckung 1
SP@@ 0.7055539881166023
klassische 1
persönliche 1
DS 1
air 0.13740555625032153
mis@@ 0.4018337971519869
olo 1
Museen 1
Wilson 0.44699667546411903
betroffen 1
frühe 1
ht 1
Bew@@ 1
Corporation 0.3898578333946323
Institutionen 1
Schlosses 1
ög@@ 1
hoff 1
saal 1
lach 1
Windows 0.842958852153707
asser 1
decke 1
altung 1
stands@@ 1
Maur@@ 1
offene 1
steuer@@ 1
tus 1
leistungs@@ 1
verhältnis 1
Kä@@ 1
manchen 1
1820 1
Abstammung 1
karten 1
Franken 1
Kab@@ 1
Preußischen 1
erfährt 1
zie@@ 1
Cos@@ 0.8174257725110214
Haft 1
Säulen 1
UN@@ 0.7666597483709661
keiten 1
kulturelle 1
Dau@@ 1
Scher@@ 1
Schluss@@ 1
gelagert 1
proz@@ 1
zahl@@ 1
eingestuft 1
fährt 1
Archiv@@ 1
Orchestra 0.782231297508775
ance 0.2033531986937362
1821 1
Hü@@ 1
läufer 1
Anf@@ 1
krank@@ 1
scheid 1
и@@ 1
def@@ 0.5745778927899599
5.@@ 0.870468420017543
bli@@ 1
gre@@ 0.8601510518007047
Finanzierung 1
Prinzessin 1
Rel@@ 1
Saale 1
öll@@ 1
AN@@ 0.755866248684126
Oper@@ 1
finanzielle 1
plätzen 1
tik 1
Aufstand 1
Plattform 1
Schülern 1
verblieb 1
160 1
Dritter 1
1812 1
unn@@ 1
grenz@@ 1
Ras@@ 1
länder 1
üssen 1
Auß@@ 1
Main@@ 1
pal@@ 0.7285197863781816
ü 1
Bauwerke 1
artig 1
habilitierte 1
iff@@ 1
zellen 1
Church 0.11167584672922896
Taylor 0.4638554565557156
bat 1
aken 1
leisten 1
Heirat 1
Rev@@ 1
Rote 1
Toten 1
ielle 1
Doktor@@ 1
vel@@ 0.8536770486941271
Jugendliche 1
Weihnachts@@ 1
angen 1
thaus 1
aal 1
Glocke 1
Komödie 1
zusamm@@ 1
punkten 1
Direkt@@ 1
keits@@ 1
näh@@ 1
Gewässer 1
kti@@ 1
Dün@@ 1
Vizepräsident 1
Werkstatt 1
eiler 1
Medizin@@ 1
las 1
ausgabe 1
Geschlecht 1
Pandemie 1
angehörte 1
Lev@@ 0.9079824742898065
Zusammenschluss 1
ake 0.6017384818675207
Böhmen 1
Marien@@ 1
denken 1
Mir@@ 1
afrikanischen 1
1808 1
Wiesbaden 1
gelingt 1
zung 1
000 1
wood 0.20179946392431028
Braun@@ 1
Gesamtwertung 1
Brit@@ 1
Eigentum 1
Durchführung 1
Mem@@ 1
Steve 0.5029851689987945
fung 1
gon@@ 1
100.000 1
dritt@@ 1
Erstligisten 1
Verfolgung 1
Vorbereitung 1
kehr@@ 1
Test 0.8049276718603348
gangs 1
Bremer 1
Ersatz 1
Schar@@ 1
rati@@ 1
Pur@@ 0.5478501329549567
Verantwortung 1
bus@@ 1
erneuert 1
Koll@@ 1
Schnei@@ 1
berge 1
bevölkerung 1
entierte 1
erische 1
parti@@ 1
Freundin 1
Rin@@ 1
männlichen 1
Jackson 0.4154162301042416
Kommun@@ 1
Nu@@ 1
Südwest@@ 1
Jura 1
Zulassung 1
Interview 1
müsse 1
Hex@@ 1
erzielen 1
halt@@ 1
Sum@@ 0.9431937522255643
eindeutig 1
preis@@ 1
Tieren 1
ilfe 1
Parks 1
Stif@@ 1
Stil@@ 1
änden 1
Konzer@@ 1
Sciences 0.5164308759886418
Such@@ 1
Technische 1
Fähigkeiten 1
Terror@@ 1
Jänner 1
arte 1
Symbol 1
Episoden 1
Feuerwehr 1
Kad@@ 1
projekt 1
Kategorien 1
Tätigkeiten 1
ı 1
40@@ 0.8781475407123608
Ordens 1
Strom 1
funk@@ 1
Archiv 1
Büro 1
nahen 1
Arena 0.9375970837350481
Beck@@ 1
analy@@ 1
arische 1
Grundriss 1
Zone 0.9484742571738146
sc@@ 0.16514945446788984
struktur@@ 1
Dauer 1
Fass@@ 1
Hollywood 0.6571951717297831
verstehen 1
bezog 1
ial 0.42474495257113704
fan@@ 1
marsch@@ 1
strö@@ 1
uen 1
Angelegenheiten 1
Unfall 1
terung 1
tiven 1
My 0.3474155351665905
Tournee 1
Vermögen 1
Douglas 0.658552743864026
Sozi@@ 1
lings@@ 1
zahlreicher 1
ias 1
Helm@@ 1
solle 1
person@@ 1
weiblichen 1
ied@@ 1
winkel 1
Abkürzung 1
Aff@@ 1
Werft 1
alter@@ 1
Log@@ 1
Viel@@ 1
restauriert 1
ungsin@@ 1
FK 1
beherbergt 1
dest@@ 1
dich@@ 1
strom 1
teilnehmen 1
inischen 1
Geräte 1
Schlesien 1
Vorschlag 1
russischer 1
Oliver 1
UN 0.9492133247164005
itionen 1
titel 1
Benjamin 0.8892211430999599
genug 1
halte 1
optim@@ 1
wohn@@ 1
AL@@ 0.813367921451764
Jersey 0.36139015478907577
Me 0.4262404304303015
Elbe 1
Stattdessen 1
Zustimmung 1
verhalten 1
Luftwaffe 1
owitz 1
persönlich 1
K. 0.6311589274058446
künstlerischen 1
ATP 1
Koordin@@ 1
erhaus 1
Hav@@ 1
Markus 1
Schlüssel@@ 1
Unterschiede 1
sign@@ 0.8660752440473726
Vorstellung 1
kräfte 1
angs@@ 1
Abgeordnete 1
kanal 1
Lav@@ 1
Pseudonym 1
11@@ 0.9776636944922599
Stor@@ 1
fluss 1
Samen 1
Schre@@ 1
Küh@@ 1
iste 1
oll 1
wolle 1
Insel@@ 1
erfolglos 1
verfügen 1
Chris 0.4627976024833472
Schild@@ 1
theim 1
Lewis 0.4968463873968425
erenden 1
mich 1
regulären 1
enau 1
Dou@@ 0.9871897184676361
Südseite 1
Londoner 1
hard 0.37691502158662443
üs@@ 1
Eishockey@@ 1
außer@@ 1
erinnern 1
50.000 1
Nam@@ 0.9391625496928633
aki 0.7159879089381433
erhaltene 1
sagt 1
Autorin 1
Dev@@ 0.7156714485040823
Fehler 1
genen 1
oftmals 1
reicher 1
tos 1
Hütte 1
Tax@@ 1
Erzählung 1
antrat 1
onische 1
schiffe 1
walde 1
1833 1
Asien 1
MS 0.6135420647834925
team 0.03372791837347608
1828 1
Auge 1
typische 1
mess@@ 1
oms 0.7958399826734905
richtungen 1
DB 1
Klinik 1
orten 1
soli@@ 1
sul@@ 1
Auffassung 1
Frankreichs 1
ages 0.27540845001007297
rats@@ 1
verkauften 1
æ@@ 1
Langhaus 1
geschätzt 1
siebten 1
umen 1
Flor@@ 1
stabil@@ 1
Lud@@ 1
Zun@@ 1
bekannter 1
ki@@ 1
verbot 1
dus 1
Sophie 1
entwarf 1
feste 1
handeln 1
bezirke 1
Gliederung 1
Invest@@ 1
eingezogen 1
ept@@ 1
seitigen 1
Denkmal@@ 1
dia 0.7165921489241406
oz@@ 1
sper@@ 1
rote 1
Eberhard 1
üb@@ 1
lernen 1
eff@@ 1
gebiets 1
tö@@ 1
zweigt 1
Antrag 1
punkt@@ 1
umliegenden 1
Weich@@ 1
ielen 1
ök@@ 1
Chin@@ 1
bedarf 1
oun@@ 0.8263253257274537
Blu@@ 1
Hochschullehrer 1
Tony 0.5788889172824241
frage 1
wichtig 1
Zwisch@@ 1
zeichn@@ 1
Wurzeln 1
anger@@ 1
räum@@ 1
Ton 1
gener 1
kus 1
Stol@@ 1
Training 0.7839699743932903
ausgerichtet 1
besiegte 1
bildungs@@ 1
Weimarer 1
Bauer 1
kost@@ 1
verfasst 1
1817 1
angesiedelt 1
staats@@ 1
Initi@@ 1
Bedarf 1
Endrunde 1
ogen@@ 1
zeichnen 1
Kh@@ 0.3535888065776034
spolitik 1
appe 1
erlitt 1
Nahrung 1
Rekord 1
Bezeichnungen 1
fs@@ 1
komponierte 1
under@@ 0.24884737482280567
tiere 1
wirtschaftlich 1
Festivals 1
Pas@@ 1
gewölbe 1
pflich@@ 1
Freundschaft 1
gefolgt 1
š 1
Becken 1
erhebt 1
warf 1
Identität 1
begründet 1
län@@ 1
Ob 1
Zauber@@ 1
handlung 1
Ré@@ 1
ord 0.9659357561416488
sichtlich 1
Challenger 1
gewöhnlich 1
ät 1
1200 1
AM@@ 0.6906624482453667
laufbahn 1
о@@ 1
go@@ 0.48430407118727625
ão 1
Tit@@ 1
sions@@ 1
Brun@@ 1
Lehen 1
same 0.05049812054584848
teur 1
Hä@@ 1
grau 1
Beton@@ 1
Reihen 1
ements 0.7424091736103545
nischen 1
Gletscher 1
begleitete 1
arm 0.6375377202544106
feh@@ 1
kosten@@ 1
tigten 1
Gam@@ 1
Spielfilm 1
Spät@@ 1
zeichneten 1
ów 1
öß@@ 1
bemerk@@ 1
Statistik 1
rug 1
Bun@@ 1
COVID 0.5136569304602898
Herrschafts@@ 1
ental@@ 1
CO@@ 0.5618729656424203
Winterspielen 1
elektrischen 1
verbreit@@ 1
Brauerei 1
Spek@@ 1
erfüllt 1
Women 0.16855848678557125
anderes 1
klei@@ 1
bewegen 1
teilt 1
Koh@@ 1
Hochzeit 1
befindlichen 1
ekten 1
Maschinen@@ 1
Rundfunk 1
350 1
Fans 1
Bochum 1
Kub@@ 1
rang@@ 1
Antike 1
Ministerpräsident 1
Regierungsbezirk 1
schnei@@ 1
zeich@@ 1
ès 1
1831 1
Ecke 1
Mehrere 1
hang 1
Din@@ 1
Duo 1
Erhaltung 1
Materialien 1
ST@@ 0.7004518560785977
Siege 1
menge 1
jewitsch 1
Ausrichtung 1
Gross@@ 1
Entwickl@@ 1
Nebenfluss 1
DJ 1
Konferenz 1
Media 0.40047939538716526
sicherung 1
äne 1
Reh@@ 1
esk@@ 1
ücke 1
Gattungen 1
Mig@@ 1
ausschusses 1
belgischen 1
Sieg@@ 1
ungst@@ 1
Til@@ 1
hä@@ 1
position 0.10336168790065832
Achtelfinale 1
Angehörigen 1
Vir@@ 1
Cab@@ 0.8084761329921796
Slowakei 1
Deck@@ 1
Goethe 1
Nun 1
fäh@@ 1
itter@@ 1
listen 1
sieb@@ 1
CA@@ 0.552926042174973
organisationen 1
Klima@@ 1
Att@@ 0.9895652950482076
Tex@@ 1
holen 1
а@@ 1
trag 1
Vorsprung 1
trau@@ 1
Gesetz@@ 1
Textil@@ 1
reihen 1
Neg@@ 1
chn@@ 1
stationiert 1
Ath@@ 1
Ek@@ 1
sem@@ 0.6738624294553218
cal@@ 0.5229382283436954
Oder 1
abschnitt 1
ersetzte 1
sied@@ 1
Areal 1
Vorteil 1
Kohl@@ 1
Sax@@ 1
realisiert 1
vgl. 1
Besonderheit 1
Bit@@ 1
aub@@ 1
willi@@ 1
Nassau 1
Territorium 1
rolle 1
grünen 1
Erfahrung 1
Verhältnisse 1
Wissenschafts@@ 1
angepasst 1
jahre 1
lte 1
qualifizieren 1
integ@@ 1
list@@ 1
Papier@@ 1
Stars 0.9329513118004313
Box@@ 1
Romane 1
rechtlich 1
gebung 1
140 1
Ran@@ 0.8757933116580625
ique 1
Kandidat 1
einst@@ 1
otte 1
Schloss@@ 1
Schreiben 1
rin 1
Ablauf 1
Neuzeit 1
Stück@@ 1
emann@@ 1
schein@@ 1
Parallel 1
erfuhr 1
ope 0.8386467027487785
rif@@ 1
tlicher 1
Hinweis 1
Sammlungen 1
Val 1
schwedische 1
vielfach 1
Run@@ 1
Zy@@ 1
behörden 1
Temperatur 1
erende 1
Poli@@ 1
Straßburg 1
hom@@ 0.422743262849882
tin@@ 1
Leute 1
arti@@ 1
entiert 1
regel@@ 1
vollständige 1
Bundestag 1
Mengen 1
Schlagzeuger 1
wechseln 1
Fein@@ 1
Hamilton 0.560144935950774
Intern@@ 1
Tisch@@ 1
inische 1
neun@@ 1
therapie 1
Produzenten 1
aches 1
alle@@ 1
orientierte 1
Lein@@ 1
unterrichtet 1
verbliebenen 1
beln 1
ex 0.5217138447906604
circa 1
enger 1
verfügbar 1
entworfen 1
ends 0.2913076631561808
Hirsch@@ 1
Integ@@ 1
ii 0.7890474938726196
jur@@ 1
Pflanzen@@ 1
Train@@ 1
seinerzeit 1
übernahmen 1
DFB 1
Ott@@ 1
diskutiert 1
Anwendungen 1
Nachwuchs@@ 1
Palast 1
gesucht 1
sowjetische 1
Gebietsreform 1
ine@@ 0.6662955194405118
AB 1
Lager@@ 1
stoß 1
säure 1
1824 1
Andrew 0.4246224609499093
aun@@ 1
erweiterte 1
portugiesischen 1
ähr@@ 1
zei@@ 1
1825 1
Information 0.7506126170685978
Klar@@ 1
Tennis@@ 1
engruppe 1
quar@@ 0.902516731953186
Ulm 1
Vas@@ 1
Cambridge 0.4917204640793396
Erforschung 1
Neapel 1
ingt 1
seltener 1
Hay@@ 0.7679893599969668
ichte 1
turen 1
Dreharbeiten 1
Gleis@@ 1
internationaler 1
Eindruck 1
Evangel@@ 1
Gründe 1
Spreng@@ 1
nik 1
Anbau 1
Projekt@@ 1
abgebaut 1
geräte 1
äss@@ 1
Schiffen 1
Uraufführung 1
gesetzten 1
iger@@ 1
scher@@ 1
Stahl 1
endung 1
hinsichtlich 1
Adler 1
Amtsgericht 1
Fünf@@ 1
Handlungs@@ 1
angebaut 1
ition@@ 1
Jer@@ 1
Lebensmittel@@ 1
Partner@@ 1
lösung 1
Flora 1
Phar@@ 1
ensystem 1
Enkel 1
bene 1
Jak@@ 1
Ort@@ 1
Vorpommern 1
Blut 1
Real 0.774071449873914
Sou@@ 1
Zeichnungen 1
krit@@ 1
Tatsache 1
chi 0.6934061596334644
eichen 1
versteht 1
Effekt 1
Liv@@ 1
sog. 1
ür 1
Schicksal 1
flüch@@ 1
liz@@ 1
schriften 1
Bed@@ 1
Fälle 1
Hinweise 1
Mandat 1
dynam@@ 1
gering 1
vermeiden 1
Angst 1
Flug 1
Rechts 1
Kompositionen 1
Leich@@ 1
Vertrags@@ 1
annen 1
Dame 1
Vik@@ 1
gebene 1
durften 1
err@@ 1
20.000 1
Junge 1
anden 1
ays 0.5204559337172253
management 0.24118547141620914
trägen 1
ände 1
Cou@@ 1
Bla@@ 1
Rückzug 1
ios 1
symbol@@ 1
uth 1
Rou@@ 1
bestätigte 1
Organis@@ 1
punk@@ 1
Juli@@ 1
verlegte 1
Besitzungen 1
Nation 1
brenn@@ 1
drän@@ 1
Dru@@ 1
jüngere 1
mittelalterliche 1
richtet 1
Himmel 1
IT 0.966796148523681
Anteile 1
Niederösterreich 1
inger@@ 1
System@@ 1
Valley 0.24041882620500682
wort 1
Theologe 1
einziger 1
aine 0.8774247770042186
Bedeut@@ 1
Firmen 1
And@@ 1
Kreisstadt 1
Stütz@@ 1
dokumentiert 1
ulen 1
wil 1
Geschäft 1
akt 1
Angehörige 1
Anordnung 1
Dozent 1
Platzierung 1
Umgang 1
verbundenen 1
Gebirge 1
Kel@@ 1
Mineral@@ 1
Phil@@ 1
Gebirgs@@ 1
ario 1
Exil 1
Format 1
Hauptmann 1
orden 1
platzierten 1
Bündnis 1
Eva 1
Journalisten 1
fuhren 1
Haushalte 1
Haut 1
lav@@ 1
aktiv@@ 1
rieren 1
Bühnen@@ 1
bogen@@ 1
weichen 1
Abend@@ 1
Hauptrollen 1
Rundfunk@@ 1
mischen 1
Dass 1
Journal 0.4489958733638115
Zuschauern 1
anst@@ 1
händler 1
Beschluss 1
Had@@ 1
dri@@ 1
kum 1
Stellvertreter 1
befasst 1
begriff 1
ichten 1
verhältnisse 1
Alternative 1
club 0.06836552775914051
Duisburg 1
fordert 1
Athleten 1
Löwen 1
ero 1
felde 1
körper@@ 1
Kot@@ 1
Million 1
abger@@ 1
ständige 1
Krist@@ 1
Sicherheit@@ 1
ill 0.30046195601709363
nden 1
offen@@ 1
uts 1
vergleichsweise 1
Spiels 1
aktionen 1
klassi@@ 1
landschaft 1
arbeits@@ 1
lieb@@ 1
Individu@@ 1
ava 1
Landtagswahl 1
dienstes 1
identisch 1
rom 1
vertretung 1
1822 1
erien 1
wendet 1
Ansatz 1
Lou@@ 0.898971461175893
Diskussion 1
zip@@ 1
ą@@ 1
geber 1
Wik@@ 1
ta@@ 1
ume 1
Fot@@ 1
Hagen 1
Redakteur 1
iz 1
digte 1
epp@@ 1
Restaur@@ 1
Inhaber 1
ausreichend 1
hinzu@@ 1
Vorstellungen 1
Platte 1
alia 0.9584938948154108
hn@@ 1
neur@@ 0.6809897996562304
sahen 1
AD@@ 0.9388822816118595
Kontext 1
Schrif@@ 1
motoren 1
Bogen@@ 1
Eugen 1
Masse 1
Verständnis 1
iller 1
religiöse 1
uer@@ 1
Besiedlung 1
Rum@@ 1
vögel 1
Komp@@ 1
Ruhr 1
kultur@@ 1
medizinischen 1
veranstaltet 1
üblicherweise 1
Alex@@ 1
Ausstellungs@@ 1
Hus@@ 1
ī 1
Amtes 1
erl@@ 1
Fachwerk@@ 1
SED 1
tier 0.61264940825213
ärer 1
Werbe@@ 1
bisherige 1
lass@@ 1
gewisse 1
öch@@ 1
Grundlagen 1
gefallen 1
rollen 1
Dritten 1
GE@@ 1
Schlaf@@ 1
verkehr@@ 1
Ist 1
Mart@@ 1
Steine 1
einrichtung 1
umfassende 1
1807 1
Marc 1
häufiger 1
hö@@ 1
Bundesstaates 1
Jeder 1
Lit@@ 1
sorge 1
Museums@@ 1
Zugehörigkeit 1
rieg@@ 1
1809 1
spl@@ 1
Begegnung 1
Q 0.48080569661659533
Wohnungen 1
bergen 1
famili@@ 1
partei@@ 1
sion@@ 1
Def@@ 1
dichte 1
krimin@@ 1
Lange 1
Sper@@ 1
eo 0.9272338215824857
1798 1
Eishockey 1
Weil@@ 1
arius 1
enko 1
13,@@ 1
Mitarbeitern 1
begraben 1
anstelle 1
hessischen 1
mut@@ 0.7424311754729822
publizierte 1
America 0.11263594400855548
Schi@@ 1
Sommerspielen 1
Wid@@ 1
Wy@@ 1
schlecht 1
Hoffmann 1
New@@ 0.5048246720301276
bein 1
sichts@@ 1
Annahme 1
Express 0.7510432135616407
Zeich@@ 1
erhal@@ 1
griechisch 1
stab@@ 1
Ess@@ 1
Osnabrück 1
Sens@@ 1
bedeutete 1
letztes 1
ufe 1
vorübergehend 1
Jury 1
Oran@@ 1
Well@@ 1
able 0.06156025270302719
Benz@@ 1
Programme 1
Leon@@ 1
denz 1
einfluss@@ 1
eth 0.8139470389784678
Distanz 1
Loh@@ 1
raum@@ 1
vorge@@ 1
Lich@@ 1
Objek@@ 1
Segel@@ 1
Straßenbahn 1
jap 1
jene 1
Bekanntheit 1
Opern@@ 1
Element 1
dunkel@@ 1
erhöhte 1
Bestimmung 1
Erdgeschoss 1
prü@@ 1
Bundesregierung 1
1829 1
Günter 1
Hammer@@ 1
Streck@@ 1
heißen 1
Rekord@@ 1
acken 1
jährliche 1
weis 1
Great 0.16315059863243295
SE@@ 0.6779665903693254
eilung 1
entieren 1
schwach 1
Reihenfolge 1
→ 1
preußische 1
Rap@@ 1
Thron@@ 1
bezeichneten 1
existierte 1
indi@@ 1
Musical 1
Piloten 1
verwaltet 1
124@@ 1
1826 1
Kommandant 1
XX@@ 1
voraus@@ 1
Endspiel 1
Florenz 1
meldete 1
Act 0.15633613842855942
Landrat 1
kritisierte 1
aufweisen 1
mitteln 1
verbreitete 1
Mond@@ 1
Stärke 1
besitz 1
Publik@@ 1
strom@@ 1
Mario 1
VA 1
Draft 0.7905669826462786
Großvater 1
brunnen 1
ofen 1
unterschiedlicher 1
belieb@@ 1
borg 1
gler 1
kampf@@ 1
€ 1
angrenzenden 1
beruht 1
Haushalten 1
kamer@@ 1
Gesellschaften 1
Hit@@ 1
besuchen 1
lautete 1
vereinigung 1
versuchten 1
Panz@@ 1
Produkt@@ 1
enf@@ 1
ME@@ 0.8876718747009651
Bie@@ 1
Lieb@@ 1
gestaltung 1
chens 1
jew@@ 1
räder 1
tik@@ 1
CE@@ 0.7150942073320316
Luc@@ 1
Politische 1
aktuell 1
oth 0.7677040437813055
tenberg 1
Edition 1
Kass@@ 1
Stift 1
adel@@ 1
verwandt 1
Lis@@ 1
staat@@ 1
weiß@@ 1
verteilung 1
Überreste 1
1802 1
Donau@@ 1
Golden 0.4087727766631071
kolle@@ 1
Doktor 1
Wahrheit 1
ständigkeit 1
nutz@@ 1
Marathon 1
Versicherungs@@ 1
achte 1
bach@@ 1
einsatz 1
nungs@@ 1
Reichsk@@ 1
aer 1
dank 1
120@@ 1
Polar@@ 1
mes@@ 1
spezialisiert 1
wurf 1
Eishockeyspieler 1
Etappe 1
Ex 1
Mauer@@ 1
verbesserte 1
Gy@@ 1
Manuel 1
baut 1
beauftragte 1
Amerikan@@ 1
Them@@ 1
Bühn@@ 1
Ethn@@ 1
entstandene 1
fang 1
Bände 1
Dörfern 1
einziges 1
quellen 1
Heb@@ 1
Zahlreiche 1
bi 0.9021776630614963
Graf@@ 1
Kolon@@ 1
Restaurant 1
eto 1
fränkischen 1
ert@@ 1
DNA 0.5833713552477832
aust@@ 1
Fellow 0.8519894601524403
Seh@@ 1
brunn 1
della 1
verhindert 1
Linden@@ 1
Zäh@@ 1
moder@@ 1
urg 1
Ca@@ 0.9387331807129816
Heck@@ 1
Schriftstellerin 1
Wapp@@ 1
aft 1
itze 1
bevorzugt 1
Forschungen 1
kauf@@ 1
Gallen 1
Hit 1
Hoffnung 1
Magn@@ 1
atisch 1
folgend 1
Kleine 1
Okres 1
Soldat 1
Zugleich 1
gewächse 1
rücke 1
Sportliche 1
zwanzig 1
Gü@@ 1
Nationalen 1
Weiterentwicklung 1
Schichten 1
Aktiv@@ 1
Motiv 1
entsprechen 1
Karls 1
Stufe 1
Wart@@ 1
eg 1
inner@@ 1
selber 1
Sieben@@ 1
gesellschaftlichen 1
gestellten 1
rah@@ 1
Beförderung 1
Nachkriegszeit 1
Bog@@ 1
Streifen 1
Past@@ 1
division 0.17479297017099912
oss@@ 1
traditionelle 1
1811 1
1819 1
eton 1
gemeldet 1
Jahrhunderte 1
Kanzel 1
osp@@ 1
rath 1
traditionell 1
oma 0.5925284021328586
seln 1
unge@@ 1
Ei@@ 1
Netzwerk 1
deck 1
männliche 1
orum 1
Jag@@ 1
Turniers 1
Gemeinder@@ 1
Gießen 1
Historic 0.30762226874535625
analyse 1
rund@@ 1
Rä@@ 1
Engel 1
Innere 1
eda 0.7709950628521868
verzichtete 1
Fünf 1
Statue 1
ied 1
ský 1
Kleinstadt 1
empfing 1
Trotzdem 1
Vin@@ 1
enswert 1
tiefe 1
äure 1
Gabriel 1
Viz@@ 1
pil@@ 1
ap 0.5237906627531583
betreut 1
erreichbar 1
öff@@ 1
portal 1
Kais@@ 1
Verbandes 1
Nordseite 1
arisch 1
stammende 1
Jäger 1
erlernte 1
prim@@ 1
Klei@@ 1
Saarbrücken 1
Weiter 1
otischen 1
Carlo 1
Prince 0.26526304410130747
Time 0.3415820549264232
erfahren 1
griechische 1
finanziert 1
ütz 1
Graben 1
wären 1
zuführen 1
ś@@ 1
Bistums 1
Originaltitel 1
Portal 1
eiten 1
glück@@ 1
Hag@@ 1
iki 1
ops 0.7004580523548802
Alpen@@ 1
Völker@@ 1
Berichte 1
Span@@ 1
net@@ 0.9939481990868776
worauf 1
Aspekte 1
Einkommen 1
Eric 0.6546446976542311
Koblenz 1
Tat 1
achsen 1
ruf 1
Reise@@ 1
Vide@@ 1
big 0.3979386119231502
entstammte 1
keit 1
neten 1
start 0.1668911496161528
Fab@@ 1
Flüsse 1
erkannte 1
esch 1
stärke 1
verbessern 1
Chal@@ 1
niederländische 1
Kath@@ 1
darum 1
hain 1
schlüsse 1
Hügel@@ 1
Milch@@ 1
Trio 1
ahnen 1
erneu@@ 1
ragt 1
vereine 1
н@@ 1
Zehn@@ 1
bezirks 1
Für@@ 1
Gegenstand 1
Ruine 1
Sees 1
keln 1
transportiert 1
Beach 0.4192098041441896
Produkt 1
Zentr@@ 1
setz@@ 1
Creek 0.263660932998464
Darin 1
chem@@ 1
chor 1
ereien 1
omb@@ 1
Hilf@@ 1
medizin 1
rechn@@ 1
spiegel 1
tsch 1
Kreise 1
amer@@ 1
Fest 1
Klim@@ 1
Vereinigte 1
herum 1
sts 0.3292501231421615
typisch 1
0,5 1
Ali 0.48016051231657236
Van@@ 1
auftritt 1
deutet 1
Atom@@ 1
Schwester@@ 1
spätestens 1
wass@@ 1
Dub@@ 1
Mord 1
ativer 1
stock 0.4598053506512756
Kommune 1
Zimmer 1
blü@@ 1
intensiv 1
kow@@ 1
Geschäfte 1
Hallen@@ 1
Menschen@@ 1
Verbände 1
erfasst 1
ital 1
ARD 1
Aussehen 1
Instrumente 1
Mannes 1
Plätzen 1
Vertretern 1
mär@@ 1
stit@@ 1
verwaltungs@@ 1
bundes@@ 1
ira 0.7818838968490657
malerei 1
ía 1
Dah@@ 1
Details 1
chinesische 1
prüfung 1
Offiziere 1
inghausen 1
feiern 1
gie@@ 1
zwang 1
Little 0.31410550393730724
Integration 1
nische 1
Interpretation 1
idi@@ 1
lam@@ 0.8167069791481526
Hey@@ 1
erbte 1
Summe 1
welle 1
Bär@@ 1
Ern@@ 1
Verluste 1
Davon 1
motor@@ 1
schef 1
Quadratkilometer 1
ovice 1
rup@@ 1
zel 1
Yorker 1
stur@@ 1
verkaufen 1
1801 1
Platz@@ 1
geist@@ 1
Rast@@ 1
Vorsitz 1
lichste 1
125 1
Sound 0.7297269673982304
veranstaltungen 1
Dorn@@ 1
EC 0.883331900718952
Sak@@ 0.9187306542108162
ali 0.5572797856158626
univers@@ 1
dorfer 1
gliederung 1
pper 1
Gesicht 1
1804 1
Erziehung 1
Gräfin 1
Pass 1
Sech@@ 1
Aufenthalt 1
Ingenieur@@ 1
arabischen 1
farbe 1
stammenden 1
vort@@ 1
Debütalbum 1
Gelegenheit 1
Mitbegründer 1
Claude 1
Karl@@ 1
Volksk@@ 1
fördern 1
grab 1
din@@ 1
höh@@ 1
öpfe 1
Pseud@@ 1
tierung 1
wissen 1
Bak@@ 0.8315816030017336
basi@@ 1
fun@@ 1
iser 1
mol@@ 1
pers@@ 1
werfen 1
Last@@ 1
Premier 0.3588486318748508
Bauarbeiten 1
Dial@@ 1
äuser 1
Vizemeister 1
ügen 1
Büro@@ 1
Dän@@ 1
gesagt 1
jekt 1
otten 1
Termin@@ 1
Vorlage 1
immer@@ 1
installiert 1
verm@@ 1
Stamm 1
erkennt 1
klassigen 1
strafe 1
ätz@@ 1
Bielefeld 1
Brücken 1
bed@@ 1
menschliche 1
nutzt 1
Elizabeth 0.3277189852655284
Railway 0.23406551485062904
angen@@ 1
deb@@ 1
übernimmt 1
Johanna 1
Lizenz 1
ektor 1
landwirtschaftliche 1
line 0.05358732132597921
spartei 1
uer 1
Diplom@@ 1
Geburts@@ 1
Knoten 1
Manchester 0.453731862694434
versamm@@ 1
westlicher 1
überw@@ 1
Türk@@ 1
geg@@ 1
taucht 1
Internet@@ 1
Vereinten 1
aue 1
Erkrankung 1
Prozess@@ 1
gebunden 1
iff 1
linke 1
Gn@@ 1
Lyon 1
Maschin@@ 1
1805 1
Verteidiger 1
pflanzen 1
Hoff@@ 1
Monte 1
Russischen 1
Tennis 1
bü@@ 1
kunst@@ 1
Acker@@ 1
Bulgarien 1
gedacht 1
kra@@ 1
nationalsozialistischen 1
senk@@ 1
umpf 1
Anfangs@@ 1
geordnet 1
Mill@@ 0.8992292862310599
Verbot 1
Vögel 1
Chance 1
Gesetze 1
ival@@ 1
änderung 1
1.000 1
Worten 1
inc@@ 0.2676833105753447
sank 1
stütz@@ 1
Kauf 1
Klu@@ 1
frau 1
Sanierung 1
lateinischen 1
musik@@ 1
bericht 1
mensch@@ 1
ohn 1
1827 1
Atelier 1
Schwerin 1
erklären 1
merk@@ 1
more 0.02194057495114715
pa 1
1793 1
Bernard 0.9656171340297695
Kulturdenkmale 1
Michigan 0.27058134836996445
bekommt 1
blick 1
Agrar@@ 1
Hierzu 1
Tol@@ 1
nachfolgenden 1
spanischer 1
iele 1
oge 1
Klassi@@ 1
antreten 1
eingeladen 1
inform@@ 1
4,5 1
Chron@@ 1
Entscheidungen 1
Jos@@ 1
Step@@ 1
Treib@@ 1
uliert 1
Austausch 1
NATO 1
konferenz 1
tenen 1
Flugplatz 1
geöffnet 1
weich@@ 1
Höhle 1
Roland 1
isten@@ 1
Priv@@ 1
altar 1
ausgerüstet 1
isen@@ 1
neben@@ 1
Eier 1
ński 1
Aufhebung 1
Büchern 1
Versammlung 1
nen@@ 1
Autobahn@@ 1
LP 0.7418174882597766
ansonsten 1
technisch 1
umfassen 1
Epi@@ 1
UNESCO 1
igungen 1
kast@@ 1
11,@@ 1
Rosen@@ 1
Technologie 1
ertes 1
FI@@ 0.7072278730104085
Kongres@@ 1
essor 1
rachten 1
Fres@@ 1
6.@@ 0.6868672919885196
Moderne 1
gefeiert 1
ls@@ 1
prot@@ 0.4002893036756006
row@@ 1
zo 1
Brust@@ 1
Tabellen@@ 1
eis 1
obere 1
Aufsichts@@ 1
BBC 0.2977210317241899
Darunter 1
Messe 1
Wein 1
ange 1
ular@@ 1
überraschend 1
jüngste 1
tausend 1
Mitteleuropa 1
agen@@ 1
oden 1
speziellen 1
Bildern 1
Rosa 1
front 0.15032872774198233
Früchte 1
Gewinner 1
Zar@@ 1
rer 1
Kommand@@ 1
Tauf@@ 1
ringen 1
erz@@ 1
gehabt 1
itischen 1
marsch 1
bestattet 1
din 1
fassade 1
Heiligen@@ 1
stattfinden 1
Anwalt 1
Geologie 1
Gewerbe@@ 1
Jac@@ 1
Jugoslawien 1
Sonntag 1
Zentimetern 1
Fahrzeugen 1
It 0.01165667475270842
Zuletzt 1
berichten 1
liefer@@ 1
retten 1
Gedanken 1
Harvard 0.5714593918938604
belie@@ 1
dach 1
ili 1
Kämpfe 1
ations 0.08944573169577372
ram 0.5802625668875204
ér@@ 1
Dist@@ 1
Esp@@ 1
Inzwischen 1
Oh@@ 1
bestellt 1
europ@@ 1
firma 1
bessere 1
itsch 1
kreisen 1
1823 1
Maxim@@ 1
ständ@@ 1
tums 1
Nördlich 1
Rolf 1
anze 1
bestimmen 1
lesen 1
mannschaften 1
14,@@ 1
Mischung 1
Innenraum 1
entlich 1
HL 1
lenk@@ 1
nötig 1
Zufluss 1
gehalt 1
zeitung 1
ühl@@ 1
Besatzungs@@ 1
Gespräch 1
Janeiro 1
Samm@@ 1
Siegfried 1
don@@ 0.7365607349162211
histor@@ 1
Day 0.20400099588623086
Theat@@ 1
Zusatz@@ 1
alisierten 1
Ja@@ 1
Maße 1
Südamerika 1
wenden 1
Lady 0.36860407636693293
Zwecke 1
äuf@@ 1
Tum@@ 1
gemessen 1
meter 0.9792790741967634
Geor@@ 1
Jud@@ 0.9436003824651136
Pfund 1
belegen 1
christliche 1
greifen 1
Andrea 1
Gesellschafts@@ 1
HK 1
Nest@@ 1
abgegeben 1
hierzu 1
ho 1
stoßen 1
wirklich 1
Jen@@ 1
Wass@@ 1
luft@@ 1
Demokratie 1
Klass@@ 1
ards 0.5123700113749035
Wis@@ 1
1,2 1
Berufung 1
alleine 1
Alex 0.6855725120993734
Danzig 1
Grupp@@ 1
keinem 1
ländische 1
reform@@ 1
1600 1
Aufklärung 1
Hain@@ 1
Rog@@ 1
förderung 1
musi@@ 1
Italien@@ 1
Palais 1
spannung 1
Gitarrist 1
Kristall@@ 1
onne 1
Bäume 1
Krise 1
Bridge 0.34739257668815504
gotischen 1
Kraftwerk 1
beut@@ 1
Waren 1
eben@@ 1
hau@@ 1
ult@@ 1
Personal 0.2296392770492657
wör@@ 1
Country 0.4235690265487742
ret 1
ū 1
Fiction 1
Vorgeschichte 1
verpflich@@ 1
Jap@@ 1
bef@@ 1
emb@@ 0.5416977288171967
IT@@ 0.8127749962638338
Straßenbahn@@ 1
vorne 1
Lediglich 1
blo@@ 1
Übertragung 1
Latein@@ 1
Mast@@ 1
gebenden 1
deckung 1
geleg@@ 1
unmittelbarer 1
Freizeit@@ 1
berühmten 1
gewachsen 1
elemente 1
vis@@ 0.7554843653070751
Grä@@ 1
Regiments 1
TSV 1
enab@@ 1
stür@@ 1
Quar@@ 1
Sv@@ 1
ington 0.3397074158720305
kompon@@ 1
mas 1
sn@@ 0.5673605000515877
eim@@ 1
Generalleutnant 1
dün@@ 1
fertig@@ 1
regelmäßigen 1
wohl@@ 1
Allen 0.5348608429171255
Gulden 1
Prozesse 1
Wilhelms 1
Business 0.3764072533949059
Redak@@ 1
gesperrt 1
human@@ 1
Geschäft@@ 1
Oskar 1
gang@@ 1
hagen 1
marke 1
By@@ 1
Jugendlichen 1
Tap@@ 1
zusätzlichen 1
Andre@@ 1
ystem 1
zurückzuführen 1
Eu@@ 1
Triebwagen 1
kriegs@@ 1
schlägt 1
schu@@ 1
stie@@ 1
Königreichs 1
Rajon 1
hersteller 1
rob@@ 0.8604284754276879
Schwarzen 1
feier 1
wovon 1
Vorläufer 1
poly@@ 0.5971385134162718
verkehrs 1
zeitlichen 1
Allgemeine 1
landwirtschaftlich 1
zit@@ 1
Bernd 1
Clubs 1
Titelverteidiger 1
deh@@ 1
schlech@@ 1
unklar 1
Begriffe 1
Entwicklungen 1
Grube 1
Haar@@ 1
Los@@ 1
Pflanze 1
Schaf@@ 1
erfolgreichsten 1
fot@@ 1
sionen 1
ächte 1
Hob@@ 1
zugeschrieben 1
Blau 1
Golf 1
Rah@@ 1
Zie@@ 1
geschw@@ 1
mern 1
Antrieb 1
Architektur@@ 1
Nationalversammlung 1
amt@@ 1
Übersicht 1
Luis 0.9019369557337454
Nacional 1
Pommern 1
agne 1
24@@ 0.925012379287049
Trock@@ 1
verlässt 1
Ausgrabungen 1
Europe 0.12398257557674983
Foundation 0.25798505735019966
Jagd 1
erfüllen 1
ua 0.7512204633961055
Linien@@ 1
Racing 0.6888745334903343
TA 0.6210754928341099
Anthony 0.5324332261035944
Kil@@ 0.7661026415402045
Miller 0.4686073797445921
angestellt 1
mitte 1
Dritte 1
Opposition 1
Power 0.4131929005712809
platzierte 1
ummer 1
Bohr@@ 1
Testament 1
geschehen 1
jährlichen 1
seitige 1
Forum 1
Kroatien 1
ois 1
aill@@ 1
turnier 1
ğ@@ 1
bricht 1
orientiert 1
medizinische 1
profit@@ 1
Louise 1
besaßen 1
iro 0.8116890605988959
Bürgerkrieg 1
Human@@ 1
orts 1
Sec@@ 0.8672442389901044
cl@@ 0.25389330801020754
innen@@ 1
Fähr@@ 1
ansässigen 1
kehrt 1
show 0.065747480082367
non 0.08516407321098685
uma 0.897468567921372
Cra@@ 0.6126633009661722
Platten@@ 1
herz@@ 1
Ox@@ 1
Staatsexamen 1
Therapie 1
literatur 1
Gast 1
Krem@@ 1
anger 0.8701449342127767
cor@@ 0.20151168037716038
jahres 1
zugeteilt 1
Eines 1
prakti@@ 1
überführt 1
Anth@@ 1
Hospital 0.27796576406373674
schaftlichen 1
SS@@ 0.9066620926015517
Steiermark 1
Wahr@@ 1
ession 0.996507137473096
hrt 1
ka@@ 1
wählen 1
Bett@@ 1
Eis 1
Falls 0.8128195736120529
ink 0.8862392648273665
werks@@ 1
wesens 1
wid@@ 1
Georges 1
Wachstum 1
ators 0.2685618408231836
reiben 1
Dokumentation 1
Evangelisch 1
Glaubens@@ 1
Hafen@@ 1
Liefer@@ 1
Sohnes 1
etter@@ 1
gehend 1
kandidierte 1
Abkommen 1
Badminton 1
Hände 1
Katholiken 1
ansässig 1
schwerer 1
Stephen 0.413521673386399
unterzeichnete 1
Laut@@ 1
Streit@@ 1
schi 1
untere 1
mäßige 1
och 1
positive 0.2611937574571232
KPD 1
War 0.04818641048339493
hinteren 1
vorderen 1
Korn@@ 1
Magnet@@ 1
Minnesota 0.3937108185920695
leistungen 1
gliedert 1
Erzbistum 1
Vorfeld 1
gelangt 1
Kühl@@ 1
beenden 1
not 0.012625163672476505
Aires 1
Lebensjahr 1
qualifiziert 1
Synchron@@ 1
chemische 1
opf 1
ult 1
Eff@@ 1
ando 1
Deg@@ 1
Fabrik@@ 1
Hauptbahnhof 1
Mechan@@ 1
Skel@@ 1
offs 1
Männer@@ 1
Siedler 1
Waffen@@ 1
Bald 1
derungen 1
dlich 1
Ärz@@ 1
Asien@@ 1
Fo@@ 0.9538743196530796
ises 0.5715891451305887
spur@@ 1
Forscher 1
Glück 1
Letz@@ 1
Thailand 0.7027100926713032
han 0.5552810308190892
länd@@ 1
AC@@ 0.5272633496284266
Pferde 1
aufgaben 1
bewohnt 1
oth@@ 0.8198373242894413
worth 0.273077634262732
fassen 1
japanischer 1
vorbereit@@ 1
Salzburger 1
Alliierten 1
Che@@ 0.6430186250593396
Komponenten 1
erfahr@@ 1
konserv@@ 1
mö@@ 1
wissenschaftlich 1
Fak@@ 1
fliehen 1
jan@@ 1
ović 0.8467408152645044
werten 1
Brück@@ 1
Nau@@ 1
Nürnberger 1
Standorte 1
agn@@ 1
ence 0.20972836829208855
trieb@@ 1
District 0.06782449410745349
Verletzungen 1
Wer 1
ändischen 1
Still@@ 1
losigkeit 1
umfangreichen 1
verbinden 1
vorerst 1
Schlagzeug 1
Typen 1
Wohnungs@@ 1
bas@@ 0.8744048895061411
bay@@ 1
sum 0.7535695945080482
Temperaturen 1
denkmalgeschützten 1
Lissabon 1
Moder@@ 1
NFL 0.395646382289013
ril@@ 0.9075047646894852
Forderungen 1
Kim 0.5591571767925204
Schreibweise 1
eur@@ 1
Voraussetzungen 1
ci 1
DC 0.44321758550811896
Diesen 1
Leicht@@ 1
Sit@@ 1
Holland 1
Long 0.34740599060628274
Stadtbezirk 1
enbau 1
klinik 1
nahme@@ 1
phi@@ 1
ächer 1
Aufführung 1
Cour@@ 0.9155098037996843
Model 0.8686436496537698
Schwein@@ 1
Vermutlich 1
kub@@ 1
kurz@@ 1
ühle 1
Gäste 1
br 0.22806959188092474
großem 1
pra@@ 0.7425489496401543
Kriterien 1
Problemen 1
Sand 1
Schnitt@@ 1
digungen 1
Marcus 1
Mensch@@ 1
jahr@@ 1
itel 1
acker 1
Barock@@ 1
Buenos 1
ade@@ 1
reibung 1
ßer 1
abweich@@ 1
Heide 1
Minister@@ 1
Planungen 1
kette 1
spruch 1
tere 1
Erzählungen 1
nationaler 1
o- 1
unweit 1
zel@@ 1
Mai@@ 1
Szen@@ 1
malte 1
rieg 1
assung 1
burgs 1
erneuten 1
rigen 1
Münzen 1
Rath@@ 1
eid 1
irischen 1
wesentliche 1
Affäre 1
Qualifikations@@ 1
SC@@ 0.7243556269838114
Versorgungs@@ 1
Waffe 1
otische 1
plante 1
Wert@@ 1
erschossen 1
pres@@ 0.6388173618529395
Bamberg 1
ild 1
Pflicht@@ 1
versor@@ 1
ć 1
Artillerie 1
Website 1
arium 1
zurückzu@@ 1
23@@ 0.9186532583107305
Kaserne 1
Provinz@@ 1
erwies 1
sey 0.46252245010458026
splatz 1
án@@ 1
lichung 1
wend@@ 1
Esc@@ 1
häusern 1
studi@@ 1
Grande 1
Sieben 1
Umgeben 1
cken@@ 1
22@@ 1
Diet@@ 1
artikel 1
7.@@ 0.46347644532591825
Eng@@ 1
Bewertung 1
Erlangen 1
Regelung 1
AI@@ 0.6212407079155212
Sam 0.5029907524778082
system@@ 1
Obergeschoss 1
ministers 1
mische 1
stillgelegt 1
vorher@@ 1
zweig 1
ñ@@ 0.8775439739884506
Repräsent@@ 1
dens@@ 1
fliegen 1
Verletzung 1
Bogen 1
Nordwest@@ 1
Rang@@ 1
schlechten 1
Clemens 1
DP 0.9311477405688623
Kapital@@ 1
Pflege 1
kaiserlichen 1
zü@@ 1
verschie@@ 1
inklusive 1
versorgt 1
Baudenkmäler 1
Heilig@@ 1
Süß@@ 1
russisch 1
ssen 1
Reinhard 1
kamp@@ 1
Längs@@ 1
Pfer@@ 1
Redaktion 1
Rumpf 1
erhebliche 1
gän@@ 1
10.@@ 0.5602691750674438
Entlassung 1
Haushalts@@ 1
bewegt 1
lock@@ 1
strukturen 1
Ander@@ 1
tors 0.46399533554078287
feu@@ 1
ichts@@ 1
karte 1
unzu@@ 1
Ech@@ 1
Verteilung 1
forsch@@ 1
ürz@@ 1
Ali@@ 0.8870361161259365
Gebietes 1
Ron@@ 1
Selb@@ 1
etzung 1
immt 1
25@@ 0.7486241956230366
Motive 1
Prakti@@ 1
hängen 1
ärz@@ 1
30@@ 0.7146889679863231
dekor@@ 1
Lokomotive 1
Stri@@ 1
position@@ 1
Luther 1
Rainer 1
landwirtschaftlichen 1
Prop@@ 1
inen@@ 1
rig 1
syn@@ 0.5543996196178849
ächter 1
It@@ 1
höfe 1
sig@@ 1
zwischenzeitlich 1
Chemnitz 1
lex@@ 1
onom@@ 1
vereinigt 1
Ausscheiden 1
Bataillon 1
demnach 1
ä 1
Howard 0.4568223024231126
Jim 0.39715817585333935
knoten 1
soweit 1
übergab 1
1700 1
Drehbuchautor 1
Lot@@ 1
Nie@@ 1
geschah 1
igem 1
Bass@@ 1
Islam 0.7210987200419104
Queen 0.21103888877695431
geregelt 1
krise 1
Aer@@ 1
Kurs 1
Produktion@@ 1
Rus@@ 1
Township 0.33260714397766783
automatisch 1
ement@@ 1
gerichts@@ 1
leitungen 1
mund 1
Episode 1
Lip@@ 1
dienste 1
frem@@ 1
Woll@@ 1
ede 1
graf@@ 1
klär@@ 1
Öff@@ 1
Könige 1
Moh@@ 0.7977775658400758
geführte 1
äufe 1
UdSSR 1
bit@@ 0.9439333913936016
doppelt 1
endeten 1
vorzu@@ 1
AB@@ 0.9083552250777531
AP@@ 0.6012735337952072
Free 0.46228064015316284
Oslo 1
elung 1
etts 1
rone 1
vielmehr 1
with 0.0030086656063966146
Einflüsse 1
Mül@@ 1
sex@@ 1
8.@@ 0.4020038668996575
Hydro@@ 1
Song@@ 1
esz@@ 1
maximale 1
Hubraum 1
SD 1
Sprech@@ 1
chin@@ 1
ques 0.7248875866496574
Asteroid 1
Fla@@ 1
Kirchspiel 1
junger 1
sieg@@ 1
Costa 0.9051477940394909
anken 1
ere@@ 1
schlägen 1
Antrieb@@ 1
Ev@@ 0.7966448114483685
Peri@@ 1
dritter 1
Miner@@ 1
Sommerspiele 1
lic@@ 0.41199964184900395
sees 0.6564266422436947
Evangelische 1
ege 1
linger 1
Überlieferung 1
A.@@ 0.549924916399318
Blei@@ 1
Dum@@ 1
Lap@@ 1
behin@@ 1
verteidigen 1
Ast@@ 1
Kali@@ 1
fläch@@ 1
spä@@ 1
1794 1
Pferd 1
Ross 0.599957975321161
entw@@ 1
igungs@@ 1
nar@@ 0.5417348467275915
Enzy@@ 1
Horn 1
kanische 1
Disziplin 1
KW 1
Täter 1
Tür 1
finnischen 1
gewählte 1
loch 1
schneller 1
läufe 1
Film- 1
Hochschulen 1
Ray 0.5576166485353484
alli@@ 1
verlaufen 1
Napoleon 1
asa 0.7305363350540831
zell@@ 1
Dram@@ 1
akademischen 1
Mön@@ 1
Voraussetzung 1
oi 1
Bill@@ 1
elektro@@ 1
Lé@@ 1
gleichnamige 1
hinweg 1
sab@@ 1
Ausrüstung 1
Paulo 1
Turin 1
einger@@ 1
trennen 1
Airport 0.28272363913539283
mel 1
Brian 0.4778139884528622
Studioalbum 1
alien 1
dei 1
grüne 1
Mid@@ 0.6980397243448997
Schüler@@ 1
under 0.026699256283687346
waffen 1
wen 1
Montreal 0.5514474995224052
Wett@@ 1
gewöl@@ 1
goldenen 1
Aur@@ 1
Kampagne 1
deutschsprachige 1
OR@@ 0.9753658962651268
mans 1
Personen@@ 1
Profi@@ 1
kombin@@ 1
Fun@@ 1
Guts@@ 1
Senator 0.6411258106576821
gefasst 1
zehnten 1
Ful@@ 1
Luzern 1
Nachfol@@ 1
Priesterweihe 1
enbau@@ 1
erschlossen 1
17@@ 0.5902473464951855
Las@@ 1
aufnehmen 1
geordnete 1
katholisch 1
Conrad 1
Dauer@@ 1
Unterscheidung 1
Vic@@ 0.7970310544263164
Wand 1
bereichen 1
bürgerlichen 1
dat@@ 1
lten 1
zentrums 1
Wesen 1
steuer 1
issi@@ 1
sus 1
Elementen 1
Telefon@@ 1
Theatre 0.2401980409655335
entwickl@@ 1
kommiss@@ 1
Wochen@@ 1
etzt 1
förder@@ 1
ows 0.5354635344308336
swahl 1
way 0.05807828624158372
betrieb@@ 1
chef 1
ý@@ 1
1790 1
Lehrer@@ 1
Tatsächlich 1
bestritten 1
Tempel@@ 1
absol@@ 1
zucht 1
Ankunft 1
Blatt 1
effek@@ 1
ison 0.6178743083454817
loc@@ 0.5803536298475614
näch@@ 1
Kleinen 1
Som@@ 0.7546390647192798
gelöst 1
Julia 1
Jun@@ 1
Konstanz 1
Vogel 1
ausgelegt 1
irgend@@ 1
unabhängige 1
versi@@ 1
Lorenz 1
Saal 1
angekündigt 1
gewissen 1
kli@@ 1
Bör@@ 1
Lichten@@ 1
altern@@ 1
Konzert@@ 1
Römer 1
Turnieren 1
bares 1
literarischen 1
union 0.27265653772043275
Bevölkerungsdichte 1
Gedicht 1
Islam@@ 1
Kugel@@ 1
Mom@@ 1
Schö@@ 1
Westseite 1
antrieb 1
unterhält 1
Verleger 1
Zeh@@ 1
elektron@@ 1
gebrochen 1
resi@@ 0.9076138945758262
Erben 1
Herrn 1
Kap 1
bek 1
ried 1
Gebiets@@ 1
NBA 0.5866825102432275
Zeche 1
anget@@ 1
fünfte 1
č 1
Asch@@ 1
Oberbürgermeister 1
bungen 1
feuer@@ 1
kommando 1
Mord@@ 1
ense 0.7168454616024781
Ärzte 1
Handball@@ 1
schlei@@ 1
wil@@ 1
zweifel@@ 1
Arbeitgeber 1
Kell@@ 1
Sende@@ 1
ago 0.3989385930756982
ew 1
funk 1
Hotels 1
Ner@@ 1
Sache 1
Unentschieden 1
gerech@@ 1
ild@@ 1
namentlich 1
.de 1
1797 1
Coll@@ 1
Stadium 0.3005923207816859
Südlich 1
Zensus 1
ilen 1
ysi@@ 1
Abgrenzung 1
Bus 1
Dessen 1
Reform 1
studieren 1
äuse 1
Güterverkehr 1
Muster 1
Trä@@ 1
enbahn 1
entes 1
etablierte 1
sprung 1
Aussch@@ 1
God@@ 0.664026201005173
Insekten 1
halben 1
ment 0.16664567428619767
Bord@@ 1
Domin@@ 1
Firmen@@ 1
bat@@ 0.7193540750803012
jüngerer 1
shaupt@@ 1
ds@@ 1
ish 0.14846496445629284
Hän@@ 1
Vorjahr 1
betont 1
ismen 1
längeren 1
Helsinki 1
Ple@@ 1
bedroht 1
bul@@ 0.5000853130347102
geschaffenen 1
hofer 1
maß 1
Bob@@ 1
gesammelt 1
mauern 1
Nad@@ 1
liefern 1
tot@@ 0.9469048771550626
welchen 1
1940er 1
besonderer 1
stern@@ 1
Begründung 1
Koalition 1
ichen 1
lex 1
liebe 1
ografische 1
renoviert 1
verursacht 1
1792 1
Musikern 1
Seil@@ 1
1789 1
Meth@@ 1
Umbenennung 1
thalle 1
zeitgenössischen 1
Harald 1
VfL 1
meister@@ 1
Leser 1
Zit@@ 1
én@@ 1
Becker 1
Weis@@ 1
enkirche 1
gigen 1
Überblick 1
Kart@@ 1
Kün@@ 1
Strah@@ 1
koordin@@ 1
Inhalte 1
Laub@@ 1
bö@@ 1
markt@@ 1
Landesstraße 1
forscher 1
geschoss 1
kurs 1
mente 1
pa@@ 1
seitlich 1
Hauptrunde 1
Sn@@ 0.8340879650258207
Zusamm@@ 1
antike 1
fahrzeug 1
gesetzte 1
ition 0.5083941539161472
oss 1
vul@@ 1
IP 0.7555935254095579
Jörg 1
codice 1
seitens 1
Höchst@@ 1
Verkaufs@@ 1
metall@@ 1
moral@@ 1
Bundestag@@ 1
Fotos 1
Mercedes 1
izierung 1
kirchlichen 1
tropischen 1
werkes 1
Ausgangs@@ 1
Vorlesungen 1
gehandelt 1
gungen 1
trans@@ 0.2451775845637418
Angriffe 1
gefäl@@ 1
konzentrierte 1
Proz@@ 1
gegeneinander 1
kte 1
ová 1
Bah@@ 0.7544697534541507
att 1
elin 1
erfolgreichste 1
lieder 1
zur@@ 1
öhe 1
Ganz@@ 1
Leb@@ 1
angesch@@ 1
sterben 1
teilnahm 1
Key@@ 1
Stipendium 1
ersetzen 1
dauerhaft 1
liter@@ 1
älterer 1
Willen 1
aufweist 1
cha 0.9210791376461326
eri 1
pflanz@@ 1
tom@@ 0.7137177581513391
Fut@@ 1
Gordon 0.5020632596475816
nit@@ 1
verwal@@ 1
Achse 1
Heilbronn 1
Tet@@ 1
beobachten 1
autor 1
fur@@ 0.6074067836568086
itter 1
trotzdem 1
Glasgow 0.6656991660112391
amin@@ 1
präsentierte 1
Fleisch@@ 1
Meer@@ 1
Römischen 1
Sicherung 1
Sterne 1
dot@@ 1
lip@@ 1
stru@@ 1
Diskografie 1
VII. 1
Zwangs@@ 1
Eigenschaft 1
Gregor 1
tage 1
riffe 1
teilten 1
ungszeit 1
Benedikt 1
Francesco 1
Sprung 1
Thom@@ 1
Vordergrund 1
angebot 1
ecker 1
lio 1
schwierig 1
anschau@@ 1
lehnt 1
Gör@@ 1
Versch@@ 1
\ 1
alp@@ 1
französisch 1
inseln 1
lichkeits@@ 1
tha 0.728807325788615
Game 0.3189628958286122
Saal@@ 1
Texten 1
ekte 1
oner 0.9136896310934643
ones 0.235458710341892
Bergbau 1
Brüdern 1
Küche 1
ehel@@ 1
kanischen 1
Ereignis 1
Flüchtlinge 1
Sandstein 1
beliebt 1
greift 1
Real@@ 1
mund@@ 1
sitzt 1
Asp@@ 1
Block 1
itas 1
teln 1
Armen@@ 1
Kür@@ 1
Zucker@@ 1
e- 1
saison 1
zunehmen 1
Drogen@@ 1
Heilige 1
Immun@@ 1
Pedro 0.8825145632586935
finanz@@ 1
modi@@ 1
Genehmigung 1
Lamp@@ 1
Hinsicht 1
Loire 1
Net@@ 1
davor 1
icus 1
jährig 1
verteidigte 1
Ey@@ 1
Fulda 1
Georgia 0.252429702415555
Hop@@ 1
Parlaments 1
DA 0.7046374108259361
aver@@ 0.7248676594795834
lav 1
Aufstellung 1
Viol@@ 1
stadion 1
äs@@ 1
Vieh@@ 1
BMW 1
Hauptsitz 1
Mitteln 1
Wuppertal 1
schaf@@ 1
gerichtet 1
sigen 1
Mitglieds@@ 1
tiefen 1
zy 0.8728659361625981
Morgen@@ 1
Soziologie 1
Spiegel@@ 1
Chefredakteur 1
Verbrechen 1
gebäudes 1
rierten 1
verschoben 1
Diego 0.46983881988004167
Gemäß 1
dortige 1
krieg@@ 1
mag 1
verzeichnis 1
Historische 1
Restaurierung 1
Schal@@ 1
aktu@@ 1
ark 1
dauert 1
töten 1
Gep@@ 1
Periode 1
extrem 1
frucht@@ 1
Rande 1
Zier@@ 1
kov@@ 1
Bomben@@ 1
bot@@ 1
verließen 1
Kämpfen 1
Staatlichen 1
historischer 1
kritisch 1
schaftliche 1
verwand@@ 1
30.000 1
Kit@@ 0.9183993277785788
mäßigen 1
Bug@@ 1
Mou@@ 1
gutes 1
sturm 1
umen@@ 1
Archäologie 1
Philip 0.4747420871278721
Russ@@ 1
Tä@@ 1
Zürcher 1
promin@@ 1
Geistlicher 1
PA 0.3897698318825534
Peru 0.8010713775620978
Phosph@@ 1
Romans 1
vergleichbar 1
Humboldt 1
Konservatorium 1
Schenk@@ 1
alls 0.9964960682227081
ble 0.26114173365419074
gerne 1
Nan@@ 0.9446743762422726
Wick@@ 1
geordneten 1
unterschied 1
Biografien 1
Continental 1
pon@@ 1
serien 1
Fließ@@ 1
RS 1
Südost@@ 1
aten@@ 1
iegen 1
iell 1
vermein@@ 1
Alice 0.7028252873790887
Jakob@@ 1
Vereinen 1
dänische 1
harmon@@ 1
verarbeitet 1
Dinge 1
Kosten@@ 1
arz@@ 1
ister 1
Lenk@@ 1
Sports 0.28674956441165633
erm@@ 1
liefert 1
Ehepaar 1
Neum@@ 1
Uhr@@ 1
denden 1
Gärten 1
Handball 1
Lehn@@ 1
Ord@@ 1
albahn 1
7,5 1
Behörde 1
Juden@@ 1
Pius 1
farb@@ 1
ić 0.8404110669983218
dach@@ 1
publiziert 1
Schließung 1
tags@@ 1
Fame 0.46179389682801425
Maz@@ 1
landete 1
AN 0.8920933177265955
Paderborn 1
finale 1
markiert 1
rechnung 1
stä@@ 1
Ble@@ 1
Stanley 0.6084300161530634
beschleun@@ 1
chemischen 1
Beau@@ 1
Begleit@@ 1
Diplomat 1
Haltepunkt 1
SB 1
Sinn@@ 1
flachen 1
ologie@@ 1
Daraus 1
MP@@ 0.7635622436991515
Neckar 1
Bruders 1
Lizenz@@ 1
Winkel 1
schnell@@ 1
verkehren 1
Dies@@ 1
René 1
abend 1
Landwirtschafts@@ 1
Mr. 0.3197388597875128
Wellen@@ 1
rek@@ 1
Ausdehnung 1
Gefangenschaft 1
Ken@@ 0.691734486228068
samm@@ 1
Fürstentum 1
Mü@@ 1
Univers@@ 1
sein@@ 1
auses 1
nerin 1
nomin@@ 1
Schacht 1
flüs@@ 1
atte 1
völk@@ 1
Hur@@ 0.6753917798554365
Inspek@@ 1
forderten 1
türkische 1
Austragung 1
Mythologie 1
registriert 1
seg@@ 1
Pier@@ 1
Dy@@ 0.9715455332420659
bezeichnen 1
galten 1
gewählten 1
wä@@ 1
Bibel 1
Fast 1
Missouri 0.3619701993668833
Umzug 1
zimmer 1
Kurfürsten 1
Lith@@ 1
Olympische 1
Sturm@@ 1
angs 1
rand@@ 1
Hyper@@ 1
Litauen 1
Physi@@ 1
bän@@ 1
Hotel@@ 1
magazin 1
oe 0.676592926988334
Tschech@@ 1
stitel 1
Distri@@ 1
Mission@@ 1
Nationale 1
enhauses 1
geschäfts@@ 1
umfassenden 1
Kies@@ 1
rien 1
Ster@@ 1
vornehmlich 1
ory 0.2806481497102623
Junior 0.3453680614857826
Ou@@ 1
Schmal@@ 1
fache 1
fing 1
Landesregierung 1
Beut@@ 1
Nit@@ 1
Tanz 1
Trasse 1
Veränderung 1
angetrieben 1
erd@@ 1
wahr 1
Abbau 1
Cheftrainer 1
Fertig@@ 1
bekannteste 1
pp 1
stif@@ 1
0ern 1
Gum@@ 1
Syrien 1
besetzte 1
ikern 1
ünst@@ 1
Petro@@ 1
set 0.05136318304826874
sige 1
Ged@@ 1
Moor@@ 1
stil@@ 1
Durchschnitt 1
Höhen 1
Mathematiker 1
Abwehr@@ 1
Index 1
Nei@@ 1
hil@@ 1
polnischer 1
Anstellung 1
CS 0.7012873900900858
Verd@@ 1
ower 0.8504784654340913
schuss 1
ämp@@ 1
Eid@@ 1
Germanistik 1
empel 1
geehrt 1
ings@@ 1
26@@ 0.9154398995827986
Ausgangspunkt 1
Ax@@ 1
Bahnhofs 1
Herrenhaus 1
erneute 1
00.000 1
asi 0.9478574592617939
erwartet 1
fertigung 1
schön@@ 1
Sche@@ 1
aga 0.6599250275848616
angesichts 1
anth@@ 0.6464780786431946
Riv@@ 1
bedeutender 1
empfin@@ 1
fuß 1
hütte 1
präsident 1
quote 1
ve@@ 0.8308224180968803
1799 1
Opp@@ 1
Regime 1
Selbst 1
sorgen 1
verbessert 1
Sob@@ 1
ennetz 1
terte 1
tschechischen 1
Bemühungen 1
Finn@@ 1
Pé@@ 1
Stürmer 1
passi@@ 1
vermehrt 1
DF@@ 1
Strau@@ 1
ria 0.744063362056391
Abraham 0.9910855395621441
Wladimir 1
bestes 1
fangen 1
hinterließ 1
strich 1
vent@@ 0.9316259641580794
zeitschrift 1
170 1
Colorado 0.3971478391482286
Freunden 1
Konzern 1
Patron@@ 1
besitz@@ 1
bewertet 1
gebende 1
gemeinschaften 1
poem 0.4805764650804086
riff@@ 1
Alexand@@ 1
Nachlass 1
bewaff@@ 1
bühne 1
gründung 1
ikum 1
sofern 1
Meh@@ 1
frag@@ 1
plötzlich 1
Labor@@ 1
Pastor 1
Reederei 1
Zweig@@ 1
andau@@ 1
bestimm@@ 1
Edinburgh 0.5081112950728628
Projek@@ 1
still@@ 1
Komplex@@ 1
Nak@@ 0.7972937443549739
kommende 1
Ukra@@ 1
Konstruk@@ 1
Lippe 1
Struktur@@ 1
revolution 0.9448693568798804
stätigkeit 1
Alber@@ 1
Australian 0.09558274431004549
Austria 0.39468776851413423
Flag@@ 1
damp@@ 1
derin 1
ration@@ 1
Admiral 0.7213457591528412
Auslands@@ 1
Hat@@ 0.8821577737266479
Rost@@ 1
Satz@@ 1
differenz@@ 1
entierung 1
issen@@ 1
schwe@@ 1
Dok@@ 1
Eintritt 1
Esch@@ 1
ahlen 1
steil 1
Alan 0.5392106160591776
Out@@ 0.614379382238431
Taus@@ 1
Leutnant 1
Thüringer 1
komplette 1
unabhängigen 1
Personenverkehr 1
reis@@ 1
saniert 1
stad@@ 1
Airlines 1
Kanon@@ 1
Moskauer 1
Pferde@@ 1
Schnitt 1
TU 1
jo@@ 0.6630378015453912
ziehung 1
Moore 0.4782463661417996
Serbien 1
geschlossene 1
schle@@ 1
Brunn@@ 1
Dich@@ 1
Schütz@@ 1
ausstellungen 1
eckt 1
Borussia 1
Dör@@ 1
Sternbild 1
angriff 1
119@@ 1
Ci@@ 0.9387080785617093
Donald 0.5651241536059947
Jede 1
Umständen 1
denberg 1
prof@@ 1
Geburt@@ 1
Kunstgeschichte 1
Mountains 0.5045082352701494
Oft 1
Streich@@ 1
familien 1
jugend@@ 1
undet 1
Bezirk@@ 1
Böden 1
ems 1
fertigen 1
geschäfte 1
wanderung 1
wirtschaft@@ 1
Ostsee 1
Tim 0.6213114762706502
dreh@@ 1
omet@@ 1
wendung 1
Kolonien 1
Kurzfilm 1
Lac@@ 1
dit 1
sieger 1
Gotth@@ 1
Teilung 1
konstruktion 1
Christopher 0.6025682439027948
Mauern 1
Mör@@ 1
Ontario 0.29477381321022583
betreiben 1
dierung 1
duktion 1
eingeschränkt 1
ammlung 1
autom@@ 1
No 0.23547539524741778
Passagiere 1
Pfle@@ 1
leben@@ 1
Santiago 1
Spä@@ 1
Vater@@ 1
regeln 1
sach@@ 1
Generationen 1
beinahe 1
strasse 1
äden 1
Manche 1
Trainer@@ 1
heil@@ 1
herausge@@ 1
Exemplaren 1
Römer@@ 1
geprägten 1
usen 1
äf@@ 1
Johnny 0.6651897983200185
Marc@@ 1
Moschee 1
eingewechselt 1
Las 0.6556002478201212
wesentlichen 1
Dokumente 1
übertrug 1
Aufsteiger 1
Faktoren 1
Gott@@ 1
Mindest@@ 1
VfB 1
allmählich 1
speich@@ 1
15,@@ 1
itis 0.9244616316544377
tot 1
NRW 1
Pflege@@ 1
wein 1
Nominierung 1
Nord- 1
barocke 1
bewaffneten 1
hi 0.376538876211946
sammeln 1
Akt 1
Aktionen 1
Damals 1
Gemeinschafts@@ 1
Adresse 1
Dank 1
Public 0.18576977460580926
betreute 1
kran@@ 1
ukrainischen 1
750 1
Basi@@ 1
haupt 1
pflege 1
Cav@@ 0.7983376011152353
Freie 1
Fürsten@@ 1
U.S. 0.06376782409283085
plast@@ 1
stufen 1
vertritt 1
Lun@@ 1
Old 0.18940313231043135
eingenommen 1
för@@ 1
verd@@ 1
östlicher 1
Sow@@ 1
Stal@@ 1
küh@@ 1
mas@@ 1
Eil@@ 1
Ermordung 1
Künstlerin 1
Löwen@@ 1
kontin@@ 1
zusetzen 1
Big@@ 1
Flus@@ 1
Harmon@@ 1
tan@@ 1
Forderung 1
Länder@@ 1
enburger 1
schoss 1
zerstörten 1
Naturpark 1
Vorlauf 1
ham@@ 0.6065966329850381
vit@@ 0.9287537723513075
Dienstleistungen 1
Mitgliedschaft 1
gig 1
hilfe 1
konservativen 1
maßen 1
Ära 1
ösen 1
Spring@@ 1
Takt 1
sitzen 1
Düsseldorfer 1
Rund 1
Sep@@ 1
büchern 1
offensichtlich 1
Cli@@ 0.9524610535597254
Ostseite 1
Skulpturen 1
Sowjet@@ 1
mutter 1
Hak@@ 1
Kennzeichen 1
Niederlagen 1
Schwar@@ 1
burgischen 1
geholt 1
polnisch 1
gebildete 1
oto 0.8677582155402545
­ 1
105 1
Wiedervereinigung 1
wälder 1
BSG 1
Maurice 1
Bein@@ 1
Marco 1
abschluss 1
gerung 1
gungs@@ 1
ms@@ 1
Duke 0.2787378879655145
Kleidung 1
Südkorea 1
befindliche 1
wall 0.26459060389251987
eger 1
wan@@ 1
Jes@@ 1
Nachbarorte 1
Unterstütz@@ 1
VP 1
essel@@ 1
normalen 1
ths 0.3338995440245965
wachsenden 1
Lungen@@ 1
Torped@@ 1
daß 1
iche 1
ungser@@ 1
Burgh@@ 1
Luf@@ 1
entsp@@ 1
äche 1
Haut@@ 1
Schwanz@@ 1
Tier 1
auseinander@@ 1
ausschied 1
Dokumentarfilm 1
Eb@@ 1
Risiko 1
tischer 1
abgehalten 1
behaart 1
bs@@ 1
helm 1
kas 1
olz 1
dic@@ 0.37309658847979466
ellip@@ 1
fizierung 1
zugewiesen 1
ergruppe 1
Minder@@ 1
Oc@@ 0.5536088658706503
aufeinander 1
verletzung 1
Lov@@ 0.6205374880765158
Residenz 1
geschäf@@ 1
stetten 1
9.@@ 0.3595505756487591
Entertainment 0.38750409913406875
Eth@@ 1
Ferrari 1
Kapazität 1
Technology 0.30619152231235475
ammen 1
gran@@ 0.838701979972359
ähnelt 1
Nic@@ 0.8507373516700013
Stuttgarter 1
Unfall@@ 1
vog@@ 1
27@@ 0.9446140539318526
Loch 1
Qualitäts@@ 1
avi@@ 0.6517023979047883
osi@@ 1
träge 1
äst@@ 1
Staffeln 1
geborenen 1
unbekannten 1
vorzeitig 1
einzeln 1
genauer 1
ocken 1
sek@@ 1
these 0.03834583740959596
ud 0.6420556016387258
BGB 1
Befreiung 1
Disziplinen 1
konstruk@@ 1
Einnahmen 1
Erreichen 1
Kommunalwahl 1
Regist@@ 1
bindung 1
floh 1
part@@ 0.8650126716118166
reichsten 1
sie@@ 1
Hess@@ 1
Vincent 0.7661231973456585
ahrt 1
belegten 1
erkrank@@ 1
guter 1
kristall@@ 1
riss 1
teste 1
Zus@@ 1
dik@@ 1
funde 1
tiefer 1
Betreiber 1
Ji@@ 0.8090592687913495
unterwegs 1
Bron@@ 1
Giuseppe 1
Space 0.42940347161428505
entr@@ 1
kün@@ 1
raums 1
ulation 0.5677026795749524
zeitigen 1
Felsen 1
Stur@@ 1
geomet@@ 1
kirch@@ 1
liberalen 1
Ç@@ 1
Whit@@ 0.4137074787518847
Zin@@ 1
gestalten 1
schrieben 1
Eisen 1
Gymnasiums 1
Sarah 0.5240632806553089
architekt@@ 1
ordnungen 1
rede 1
Beamten 1
Night 0.35239522712552945
archie 1
besseren 1
gewal@@ 1
ichtete 1
sta 0.9173575151023302
Beendigung 1
Gras@@ 1
Kiew 1
Region@@ 1
Wern@@ 1
schluss@@ 1
Adams 0.5858370036999576
Af@@ 0.8117645094371877
Bundesstaaten 1
Volkes 1
neug@@ 1
professor 0.20698210662142932
äußersten 1
CH@@ 0.5740329933101673
deswegen 1
eigenständigen 1
schä@@ 1
Hard@@ 1
Weser 1
berief 1
gestartet 1
lan 0.6790211526614515
trop@@ 1
unterstand 1
üren 1
Sun 0.30481442923470087
schlüssel@@ 1
Air@@ 0.622907440100551
Nachweis 1
Vorhaben 1
gött@@ 1
schießen 1
vergangenen 1
verzichtet 1
arab@@ 1
uraufgeführt 1
ð@@ 1
gend@@ 1
objek@@ 1
Bade@@ 1
Heiz@@ 1
Nerv@@ 1
Over@@ 0.8291779950861708
Politik@@ 1
büro 1
eur 1
sat@@ 1
Fauna 1
USS 0.8051783987819995
rt 1
Basis@@ 1
Bewohnern 1
Christine 1
Pacific 0.17515226361515382
Sturz 1
ku@@ 1
niedrigen 1
öfen 1
Lausanne 1
Offiz@@ 1
Seele 1
Wär@@ 1
namens@@ 1
qualität 1
stiftung 1
Erwin 1
Herzogs 1
LE@@ 0.9941372581233594
Luise 1
Schatz@@ 1
Stämme 1
beruh@@ 1
entierten 1
unken 1
zeuge 1
Bar 0.714348325669993
Fred 0.679148994776271
Klang@@ 1
links@@ 1
reine 1
Ark@@ 1
Kolum@@ 1
angegriffen 1
bol@@ 1
pul@@ 0.915957360345231
verarbeitung 1
befestigt 1
erhöh@@ 1
gerecht 1
taus@@ 1
wander@@ 1
win 0.07676858099862148
Grun@@ 1
Roth 1
Staffel@@ 1
ckte 1
Moment 1
Übergangs@@ 1
Chief 0.1957866068073148
Infolge 1
Königlichen 1
Tageszeitung 1
ografischen 1
Bergh@@ 1
Kansas 0.3377986032668469
Kob@@ 1
Niveau 1
Verst@@ 1
lat 1
ässe 1
Hals@@ 1
loss 0.1568504714707833
zerstörte 1
Bestimmungen 1
Bewegungen 1
Maß 1
Pist@@ 1
ennamen 1
graph@@ 1
lossenen 1
zeitgleich 1
Erl@@ 1
Welle 1
platzes 1
Death 0.3086725428437774
beur@@ 1
brannte 1
fertig 1
ty@@ 0.6070560009260956
Uni@@ 1
aris 1
esisch 1
Direk@@ 1
Jimmy 0.5944614625989576
Lub@@ 1
Sus@@ 0.9703039380331131
Wälder 1
brasilianischen 1
erstre@@ 1
geraten 1
Charlie 0.6571296640959224
Fa@@ 1
befür@@ 1
Briefe 1
Individuen 1
dium 1
fran@@ 1
konzipiert 1
zeitliche 1
Dan 0.5542066631137482
band@@ 0.6619142617251741
mers 1
neunten 1
Board 0.171327294589025
Zwer@@ 1
last 0.05587484192673802
beruf@@ 1
ländern 1
Gon@@ 1
Viertel@@ 1
dirig@@ 1
Ernährung 1
Panzer 1
Stock 1
Tank@@ 1
basis 0.23716021119012062
manche 1
verliebt 1
Vulkan@@ 1
Anti 0.8359715923206561
Denn 1
Hammer 1
abin@@ 1
met 0.13772166337445146
sequ@@ 0.9396270863312053
stunden 1
Biographie 1
Platten 1
Wirbel@@ 1
aufgelistet 1
entwässert 1
atin 1
stechn@@ 1
übergreif@@ 1
Erdbeben 1
Fei@@ 1
Hits 1
Ursachen 1
Wettbewerbe 1
Wird 1
größter 1
ics 0.16294979618513214
Bé@@ 1
Felder 1
Gegenzug 1
kirchen@@ 1
oper 1
Atmosphäre 1
Hed@@ 1
Völker 1
cio 1
register 1
schieden 1
sig 1
İ@@ 1
Kombin@@ 1
May 0.033390932401047964
Petrus 1
gestre@@ 1
kritischen 1
Detroit 0.4438485894688033
Greifswald 1
Nachricht 1
Willy 1
bachs 1
ix@@ 1
450 1
BA 0.5455933613255489
Mayer 1
Nachwuch@@ 1
Naz@@ 1
Solo 1
stuhl 1
Gerät 1
Sed@@ 1
Strafe 1
dam@@ 1
stationen 1
Cru@@ 0.847864937731048
Rechtswissenschaft 1
geschm@@ 1
betätigte 1
tat 1
Adelsgeschlecht 1
agentur 1
braucht 1
kas@@ 1
springen 1
Schild 1
UK 0.10492017729129711
CSU 1
Campus 0.9966077765318061
Clark 0.44653482249052273
produzierten 1
spor 1
verlust 1
Cent@@ 0.8147683563735466
Fortsch@@ 1
deutliche 1
ub 1
Dekanat 1
Dritt@@ 1
Hohl@@ 1
sekretär 1
stücken 1
Reaktionen 1
Stufen 1
Unterseite 1
verletz@@ 1
viermal 1
Erstausstrahlung 1
Philologie 1
Seither 1
betre@@ 1
eau 1
entums 1
gestanden 1
Außer 1
Blank@@ 1
Material@@ 1
Münster@@ 1
aik@@ 1
ashi 0.6932391157063351
gebenen 1
î@@ 1
glaubt 1
sand@@ 1
sätze 1
Gos@@ 1
Schein@@ 1
Wisconsin 0.34813081876779234
direktion 1
jenigen 1
rufen 1
äus@@ 1
Anderson 0.4260352775668325
Bischöfe 1
Perspektive 1
Planeten 1
Reiter 1
Vorstandsmitglied 1
nau 1
orientierten 1
ramm 1
schnellen 1
Gegenstände 1
Order 0.21460821438294914
Vize 1
jüdischer 1
schung 1
stechnik 1
Konflikten 1
Law 0.18318743242837018
Talent 1
ima 0.8075801124139643
stro@@ 1
Court 0.1002996682772293
Geschwister 1
Kulturen 1
Syndrom 1
Nikolai 1
kirch 1
Anlehnung 1
Bisch@@ 1
Dirigent 1
Hildesheim 1
Kno@@ 1
Straßenb@@ 1
enberger 1
ista 1
maß@@ 1
spezi@@ 1
verkehrt 1
Kooper@@ 1
Pump@@ 1
vogel 1
Politikerin 1
Vall@@ 1
ij@@ 1
og 1
verfassungs@@ 1
verpflichtete 1
überzeugen 1
Weblinks 1
aufzunehmen 1
eigenem 1
griffen 1
nahm@@ 1
sens 1
them@@ 1
Polizisten 1
enschule 1
produkte 1
Buches 1
adt 1
Cla@@ 1
Prager 1
Seminar 1
akte 1
Lied@@ 1
Rugby 0.42948411215352467
abgesetzt 1
fluss@@ 1
rahmen 1
Bahnhofs@@ 1
Naturschutz 1
Schaffung 1
Schlach@@ 1
auffäl@@ 1
sätzen 1
vir@@ 1
Hut@@ 1
Kontroll@@ 1
Trocken@@ 1
ausgesprochen 1
bevor@@ 1
ppen@@ 1
scha 1
stab 1
Generalsekretär 1
Glas 1
gan 0.6218791572866949
GT@@ 1
Verfilmung 1
posten 1
BM@@ 0.9279049884772046
Bruch 1
Hang@@ 1
Kavallerie 1
Untersuchungs@@ 1
bundes 1
dorthin 1
erhöhen 1
vermögen 1
Arti@@ 1
Derzeit 1
Gleise 1
Ori@@ 1
bis@@ 0.8390675444197665
enza 1
gerichte 1
klu@@ 1
schmalen 1
städter 1
zonen 1
Nas@@ 1
Vergleich@@ 1
Wirklichkeit 1
ema 0.8931272242520024
gelungen 1
jung@@ 1
undes 1
DO@@ 0.9211627377873831
mut 1
samen 1
vorherigen 1
Abteilungen 1
Kla@@ 1
Risik@@ 1
Billy 0.6033904827187193
División 1
Häufig 1
Schauspiel 1
lik 1
omin@@ 1
refer@@ 1
Cel@@ 0.8746493877808011
Damp@@ 1
Temperatur@@ 1
absolviert 1
Kette 1
ergaben 1
Laur@@ 1
eingeteilt 1
latein@@ 1
olle@@ 1
stuf@@ 1
Blum@@ 1
Fuchs 1
befreit 1
ordnen 1
Allianz 1
Cross@@ 1
Vermittlung 1
klass@@ 1
leichter 1
pfle@@ 1
tex@@ 1
Assistenz@@ 1
Mittelmeer 1
aften 1
erteilt 1
marken 1
projek@@ 1
Is 0.33788022921096433
Wittenberg 1
langjährigen 1
Zentrale 1
entfernten 1
tagen 1
tivität 1
Handlungen 1
führungs@@ 1
herrn 1
ländlichen 1
meyer 1
natürlich 1
16,@@ 1
Conference 0.1911894273596586
Mä@@ 1
Playoffs 1
planung 1
Max@@ 1
Strand 1
innehatte 1
rachte 1
Lexikon 1
kanten 1
Ō@@ 1
Ohne 1
selb@@ 1
Berechnung 1
Sequ@@ 1
fragt 1
misst 1
tags 1
Rud@@ 1
hof@@ 1
Komment@@ 1
Räumen 1
leichten 1
Krit@@ 1
Seeh@@ 1
manu@@ 1
spendete 1
steiner 1
Aug@@ 1
Welter@@ 1
aks 0.6180098808710514
dos 1
finanziell 1
vorhandene 1
Mainzer 1
Schwanz 1
blättern 1
esischer 1
gal@@ 1
statist@@ 1
Kärnten 1
fungen 1
1300 1
Bebauung 1
Metz@@ 1
nitten 1
Profi 1
beanspru@@ 1
Anführer 1
Gelehr@@ 1
Heraus@@ 1
Militärdienst 1
agon@@ 1
CA 0.4671214351659235
Vertretung 1
dliche 1
Black@@ 0.4804147019511576
Fähigkeit 1
Willi 1
abermals 1
normalerweise 1
origin@@ 1
ppt 1
Benz 1
Ihren 1
Passagier@@ 1
flieg@@ 1
reten 1
Memorial 0.3351786845350137
dokum@@ 1
Belgrad 1
Musikvideo 1
adi 0.5764318138155136
deutsches 1
fließen 1
Arm 1
Diam@@ 1
Fokus 1
Sportler 1
Wertung 1
eder 1
provisor@@ 1
ritte 1
schafft 1
Außenminister 1
Sag@@ 1
Spann@@ 1
demokratische 1
orie 1
enfeld 1
äußer@@ 1
Départements 1
Kreuzung 1
Spieler@@ 1
Tem@@ 1
ef 1
ographischen 1
Lüneburg 1
Vermess@@ 1
Wohnsitz 1
aly@@ 1
kehrten 1
kü@@ 1
rhein@@ 1
Hanau 1
ission 1
Angabe 1
spreis 1
Kontin@@ 1
Sultan 0.7913268953793643
anhal@@ 1
fers 1
Anwesenheit 1
Medaillen 1
Zweig 1
durchquert 1
qual@@ 1
rierte 1
Afri@@ 1
Bock@@ 1
Bürgermeister@@ 1
Hunder@@ 1
größerer 1
lier 1
wirtschafts@@ 1
Aussicht@@ 1
Kinder- 1
dist@@ 0.5531254048233831
identifiziert 1
landes@@ 1
101 0.9015437754673202
Dim@@ 1
Irak 1
achsenen 1
blauen 1
genü@@ 1
Home 0.26348069695788257
Schaden 1
fordern 1
keinerlei 1
koh@@ 1
zustande 1
1796 1
arischer 1
Beine 1
litt 1
ortes 1
Schaff@@ 1
Spannung 1
omot@@ 1
taler 1
Abbildung 1
Liedern 1
Miet@@ 1
Schicht 1
basierte 1
gestellte 1
wände 1
Amp@@ 1
EG 1
Privates 1
Zoll 1
bst 1
einzelner 1
risch 1
wig 1
älern 1
Dorfkirche 1
Quad@@ 1
SP 0.8692827177373168
agt 1
dol@@ 1
kommend 1
preußischer 1
stärksten 1
Vorfahren 1
Zerstörer 1
bauf@@ 1
flossen 1
igsten 1
versuch 1
Öl 1
Cham@@ 1
Kompanie 1
Projekten 1
Siemens 1
VIII. 1
ausgesch@@ 1
1,3 1
2.000 1
Auswärts@@ 1
eland 0.6530020653733162
genie@@ 1
otes 0.871610888296736
streit 1
Bess@@ 1
Fußballnationalmannschaft 1
Gesangs@@ 1
amba 1
südwestlichen 1
Hinter 1
Leiden 1
Reak@@ 1
Verwandten 1
könig@@ 1
rechter 1
skon@@ 1
überall 1
Long@@ 0.6418564103901392
Speich@@ 1
Stab 1
Städ@@ 1
Wenige 1
ö 1
Legislaturperiode 1
Marken 1
ahr 1
thal@@ 1
Antwort 1
Aufzeichnungen 1
Entsprechend 1
Feldzug 1
Melbourne 0.3273548380584667
Pupp@@ 1
Scho@@ 1
gültigen 1
notwendigen 1
wohnten 1
Flecken 1
Sant@@ 1
erzeugen 1
verwundet 1
Antarctic 1
Gründungsmitglied 1
Kru@@ 1
Marcel 1
Opfer@@ 1
Professorin 1
plant 0.15115829978932893
spezifische 1
unverändert 1
Du 1
Merk@@ 1
Offizier@@ 1
Wissenschaft@@ 1
forderungen 1
lebens 1
regelmäßige 1
sächsische 1
heiraten 1
häufigsten 1
mechan@@ 1
Papier 1
Philippinen 1
Raub@@ 1
aschen 1
erner 1
ophon 1
änderungen 1
1795 1
Biologie 1
Lothringen 1
herzustellen 1
ÖVP 1
Begegnungen 1
Erhalt 1
Hinder@@ 1
Schäd@@ 1
chter@@ 1
enswerte 1
sprecher 1
vergrößert 1
Communauté 1
Nachfrage 1
Vorteile 1
deuten 1
eingesetzten 1
hohem 1
neutr@@ 1
kritische 1
richtig 1
status 0.17109840702864626
vollendet 1
1784 1
Bronz@@ 1
Indianer 1
Partnerschaft 1
geführten 1
Kranken@@ 1
Länderspiele 1
Reichweite 1
Walther 1
förderte 1
Eintracht 1
Firm@@ 1
betriebs@@ 1
garanti@@ 1
trock@@ 1
verli@@ 1
freiwillig 1
gas 0.24172953199415814
schwarz@@ 1
beschreiben 1
hü@@ 1
verständnis 1
ßen@@ 1
Reichstag 1
asiatischen 1
gab@@ 1
Speicher@@ 1
itzen 1
oo 0.4900287271317983
Ortsteilen 1
Rittergut 1
boten 1
kro@@ 1
viert@@ 1
UCI 1
Wahlbezirk 1
forst@@ 1
niedrig@@ 1
val 1
verlag 1
Paare 1
Rückseite 1
Chan@@ 1
Garde 1
Spielbetrieb 1
geschichtlichen 1
mü@@ 1
struppen 1
Bergbau@@ 1
NE@@ 0.6721935609362393
dustrie 1
erobert 1
sechs@@ 1
Feier@@ 1
Lai@@ 1
Mississippi 0.4192328290718766
Vertre@@ 1
affen@@ 1
enstraße 1
interessiert 1
physi@@ 1
Bibel@@ 1
Darauf 1
Kurfürst 1
enbild 1
ston 0.35773512683134717
Bildhau@@ 1
Erkenntnisse 1
Europameister 1
Schwarze 1
erheblichen 1
zusammengeschlossen 1
äße 1
Bewegungs@@ 1
ernden 1
port 0.21913261139728207
Junior@@ 1
Werkes 1
ous 0.11183067532934225
reiches 1
vollständigen 1
École 1
17,@@ 1
Renovierung 1
lobte 1
Experim@@ 1
Haag 1
Kak@@ 1
Werbung 1
dé@@ 1
hoben 1
18,@@ 1
Erlaubnis 1
Veranstaltungs@@ 1
entschloss 1
zahlung 1
äußere 1
AM 0.31926092012390017
Dialog@@ 1
issionen 1
kund@@ 1
4000 1
Bauch@@ 1
Bell 0.43200023774928537
SM 0.8727572370745698
can@@ 0.29774159500920383
minim@@ 1
Copa 1
Path@@ 1
Wirkungs@@ 1
schlan@@ 1
sekret@@ 1
Bac@@ 1
Baumeister 1
Zuf@@ 1
eister 1
Mediziner 1
Unterarten 1
keit@@ 1
ll@@ 1
verfassung 1
versicherung 1
Astronomen 1
Indiana 0.33909713950114284
begleit@@ 1
güter 1
hung 1
Händen 1
bewegungen 1
kanadische 1
Hessischen 1
Krank@@ 1
Thur@@ 1
U23 1
schriftlich 1
üd@@ 1
Roy 0.5813326702766466
Sakristei 1
brand@@ 1
rac@@ 0.341243215301825
spartner 1
zurückkehrte 1
ünde 1
Epoche 1
Kuba 1
Mahl@@ 1
afrika 1
dies@@ 1
dram@@ 1
ehren@@ 1
vereinzelt 1
Fli@@ 1
Olympiasieger 1
kischen 1
ungarische 1
Absicht 1
Anlässlich 1
Militä@@ 1
Regelungen 1
niemals 1
ui 0.6731647529799639
Cop@@ 0.6894908962735936
Trupp@@ 1
Ve@@ 1
ku 1
lutherischen 1
Pfei@@ 1
Verz@@ 1
genossenschaft 1
hren@@ 1
sle@@ 0.8206894957802252
Kreuzer 1
atten@@ 1
mos@@ 0.7395734779095231
verweist 1
Kaiserreich 1
U20 1
erwähnte 1
ester@@ 1
ität@@ 1
stör@@ 1
systemen 1
wendungen 1
Ansichten 1
Invasion 1
abhäng@@ 1
air@@ 0.2246544066291445
anti 0.1506144429149295
erlaubte 1
partei 1
Darstell@@ 1
Fj@@ 1
Jam@@ 0.5862864880207692
Kau@@ 1
Metall 1
Wohnhäuser 1
oberfläche 1
80@@ 0.8458122660626639
Mont 1
Porträts 1
jäger 1
over 0.017175179009971762
städtische 1
Are@@ 1
Obersten 1
suche 1
FF 1
SPÖ 1
Thron 1
beleuch@@ 1
rei 1
Area 0.3203351708216484
Ash@@ 0.296192381231649
Banken 1
Entscheidungs@@ 1
Sportarten 1
Standards 1
boot 1
fes 1
wehren 1
alteten 1
bess@@ 1
cus 0.7551834181632551
städte 1
trainierte 1
Ansiedlung 1
Gas 1
szene 1
Blütezeit 1
kehr 1
oko 1
ranten 1
täglichen 1
dischen 1
dur@@ 0.8209272798591187
ensen 1
musiker 1
straf@@ 1
zentren 1
Dekan 1
Wester@@ 1
gemeint 1
äle 1
Fon@@ 1
Mountain 0.2933021742189863
Pit@@ 0.8849466866396186
Server 1
Tower 0.5539475673869816
Trepp@@ 1
Vorschriften 1
affen 1
einfacher 1
gä@@ 1
tra 0.70274554933771
üste 1
aug@@ 0.9872149636835564
zugrunde 1
Anfänge 1
Flur@@ 1
Landschaft@@ 1
Mam@@ 0.9739746212392707
Range 0.7527303861785022
Weltrangliste 1
ains 0.6959272863197542
ethn@@ 1
stetig 1
Pfeil@@ 1
Türen 1
Waff@@ 1
Wirt@@ 1
wöch@@ 1
Municipio 1
Platt@@ 1
lug 1
som@@ 0.6359685282221127
1,6 1
Dance 0.5270004898332172
Darsteller 1
Koch@@ 1
Last 0.5771662834062254
esi 1
iga 1
Öffnung 1
com@@ 0.23242626921447537
reden 1
römischer 1
Eingang@@ 1
Gul@@ 0.8244043806624449
Porsche 1
itt 0.7990289233483421
Dav@@ 0.9226895744756459
Ele@@ 1
Ermittlungen 1
Projekts 1
Schad@@ 1
detailli@@ 1
islamischen 1
typ@@ 1
Paulus 1
erinn@@ 1
gymnasium 1
rum 1
zuständigen 1
Leib@@ 1
empfangen 1
rige 1
ï@@ 1
Fox 0.319293886391445
Mili@@ 1
Wahrnehmung 1
polizei 1
stürzte 1
örtliche 1
Angeb@@ 1
Erhöhung 1
HMS 0.8328916419852997
Oze@@ 1
Schmer@@ 1
ae@@ 0.7982542877905622
meier 1
verabschiedet 1
Braun 1
Dö@@ 1
Ries@@ 1
Wild 0.6965020621825697
feuer 1
inden 1
kau 1
untereinander 1
virtu@@ 1
Abhängigkeit 1
Beweis 1
Cover 1
Mineral 1
These 0.0663258588978414
Vancouver 0.6085362937040363
gänzlich 1
Helden 1
Stick@@ 1
digkeit 1
essel 1
isl@@ 1
skomm@@ 1
verkörperte 1
Beis@@ 1
Commonwealth 0.4027881427123324
aufbewahrt 1
ausdrücklich 1
rach 1
seel@@ 1
Cross 0.254195527403203
Dokument@@ 1
Unterrichts@@ 1
pfar@@ 1
Gesundheit@@ 1
Himmels@@ 1
Sperr@@ 1
lernt 1
Fac@@ 0.7721886376160135
Signal@@ 1
Wör@@ 1
heide 1
maligen 1
reinen 1
spre@@ 1
wonach 1
wäl@@ 1
Gip@@ 1
Sap@@ 1
auftrat 1
prozess 1
stirbt 1
Baudenkmale 1
Zeitungs@@ 1
betroffenen 1
gif@@ 1
wirtschaftlicher 1
Ähnlich 1
Arizona 0.3407611530994662
Chronik 1
Hahn 1
Pakistan 0.25269461770915863
Weiße 1
akti@@ 1
organisierten 1
rit 1
Ägyp@@ 1
Ind@@ 1
Prinzen 1
dner 1
sien 1
Bekämpfung 1
Konserv@@ 1
erhob 1
interpretiert 1
ohl 1
1,4 1
28@@ 0.9168102068180191
BS 0.6411387760701734
Feh@@ 1
Goldenen 1
Reformen 1
igh@@ 0.5901242743519322
kennt 1
out@@ 0.12129290129518967
IF 1
Strategie 1
back 0.03757071339048724
ennt 1
half 0.07715357209990707
Ins@@ 1
Institution 1
mexikanischen 1
studio 0.12257838413933674
untersuchte 1
urkundliche 1
Auguste 1
Gewinn@@ 1
flugzeug 1
machung 1
mitglied 1
Begründer 1
Florian 1
Franc@@ 1
Jedes 1
schickte 1
Fotografie 1
Wiesen 1
gelb@@ 1
gendes 1
kontinuierlich 1
kör@@ 1
voraus 1
Multi@@ 1
Schü@@ 1
entre@@ 1
Atlanta 0.4524598734428298
sonn@@ 1
zylinder 1
Bayreuth 1
liga@@ 1
resul@@ 1
ätzen 1
Revol@@ 1
Standorten 1
Wul@@ 1
bekamen 1
urg@@ 1
emat@@ 1
immen 1
kup@@ 1
schichten 1
warten 1
wirkten 1
jeweilige 1
pak@@ 1
Manga 1
Motors 1
Railroad 0.4079059603865285
entscheidend 1
vin 0.7610153692194167
yi 0.69683113435775
öse 1
Beispielsweise 1
Bologna 1
Heeres 1
Male 1
Ruhr@@ 1
anzutreffen 1
berühm@@ 1
1780 1
Cruz 0.8172359316142408
Sendungen 1
Verlag@@ 1
ckten 1
personen 1
sichten 1
1791 1
Gemeindeteil 1
ingenieur 1
kommunistischen 1
ultur 1
Landesliga 1
Magazine 0.41149929709866
gin 0.9996617172309927
komplex 1
passen 1
räte 1
wohnt 1
CS@@ 0.49597599937792114
Folgejahr 1
bildern 1
loser 1
sar@@ 1
zum@@ 1
Jahrhunderten 1
Naturdenkmale 1
ausgeliefert 1
billi@@ 1
Jel@@ 1
Kohle 1
Ministerpräsidenten 1
benötigte 1
bergischen 1
eingeb@@ 1
herzog@@ 1
komp@@ 1
meinte 1
phen@@ 1
präch@@ 1
AE@@ 0.9655680449894745
Bischofs 1
Gefecht 1
Hang 1
Neug@@ 1
assten 1
behauptet 1
niederländischer 1
Cricket 0.5644190380042463
Microsoft 0.6171968285312985
Pom@@ 1
Urkunden 1
amtliche 1
steuerung 1
zeitige 1
Obst@@ 1
kus@@ 1
Festland 1
Geschlechts@@ 1
Sizilien 1
esi@@ 1
geschieht 1
Holding 1
Teilnehmern 1
erwerben 1
flotte 1
gering@@ 1
ity 0.12440247250311731
Labor 0.5959115192895112
Masters 0.6625984962458403
Stammspieler 1
hingerichtet 1
plat@@ 1
tur 1
öpf@@ 1
Bezirks 1
Stadtteile 1
falsch 1
gangen 1
komplex@@ 1
vermittelt 1
zähl@@ 1
AZ 1
Dublin 0.43163092435264416
Königlich 1
Nicolas 1
aufs 1
kanadischer 1
opro@@ 1
Amerikanischen 1
Bahnhof@@ 1
Schiffes 1
verliert 1
Arz@@ 1
Engl@@ 1
Genre 1
Grau@@ 1
Lösungen 1
Ozean 1
Platzierungen 1
Regie@@ 1
a- 1
feier@@ 1
Fernsehserien 1
Krankheiten 1
Semin@@ 1
Department 0.09987580899537755
Nenn@@ 1
Opera 0.49285042621020125
Prim@@ 1
dlichen 1
erhof 1
silber@@ 1
ungewöhnlich 1
ár@@ 1
Aktiengesellschaft 1
Norm 1
Ric@@ 1
Vari@@ 1
empf@@ 1
ș@@ 1
Bischofsweihe 1
Eröffnungs@@ 1
Delegation 1
Num@@ 1
Psycho@@ 1
Wat@@ 0.7824104493058652
beheimatet 1
Minderheit 1
Schaffen 1
bett 1
gige 1
hydro@@ 0.41985656132819155
neg@@ 0.9194344362032254
Gerichtsbarkeit 1
Gesetzes 1
Hund 1
Indian@@ 1
Maine 0.5602830844312736
Posen 1
Québec 1
RTL 1
annähernd 1
esh@@ 0.4579470415399711
rett@@ 1
Bereit@@ 1
Besonderheiten 1
Hubert 1
Sto@@ 1
sorgt 1
wappen 1
Unabhängigkeit@@ 1
äusern 1
Rückspiel 1
gelben 1
Gefangenen 1
Händler 1
Nordischen 1
angaben 1
führender 1
live 0.09050670176931573
strand 1
Beck 1
Mittlerweile 1
SR 0.34954448082668305
Tie@@ 1
law@@ 1
Sili@@ 1
Tageb@@ 1
Zehn 1
beisp@@ 1
enc@@ 0.4342390174900409
Arran@@ 1
Freistil 1
Gerichtsbezirk 1
Konstantinopel 1
Erziehungs@@ 1
Jane 0.48827338952160193
fingen 1
ichts 1
malige 1
trennte 1
zene 1
Videos 1
anf@@ 1
1785 1
Breisgau 1
Bäumen 1
Höchstgeschwindigkeit 1
Operationen 1
atischer 1
gedruckt 1
rechnen 1
var@@ 0.7330923665182082
Eingangs@@ 1
Flo@@ 1
Hals 1
Verlags@@ 1
Weißen@@ 1
col@@ 0.3274861035811734
lokal 1
spitzen 1
AL 0.7516141297781213
Ruh@@ 1
TE@@ 0.8478423222833668
aussch@@ 1
Frü@@ 1
Krakau 1
bedürf@@ 1
ikon 1
skom@@ 1
Ablehnung 1
Haupts@@ 1
Od@@ 0.8763869725661172
rumänischen 1
sage 1
vorsitzenden 1
wahrgenommen 1
Ebenen 1
Kirchengebäude 1
Liter@@ 1
Reichs 1
gehörende 1
AT 0.5747411079498077
Staatsanwaltschaft 1
Stettin 1
Unmittelbar 1
Untergrund 1
egel@@ 1
isa 0.9426443629886551
Agnes 1
Just@@ 1
MW 1
Tests 1
Verbrau@@ 1
Wände 1
fres@@ 1
journal@@ 1
passiert 1
Gesang@@ 1
Khan 0.32057000434400895
Knochen 1
Monarchie 1
Sieb@@ 1
beträch@@ 1
fru@@ 1
ikerin 1
starker 1
Bayerische 1
Schienen@@ 1
Tul@@ 0.8197271824668304
istisches 1
iums 1
1750 1
Abriss 1
Chemiker 1
Woh@@ 1
chan@@ 1
erzielten 1
flut@@ 1
klar@@ 1
Hauptstraße 1
Robin 0.7631285277848909
Sign@@ 1
Southern 0.1578150819678183
Staatsbürgerschaft 1
Up 0.41101795743497327
berechtigten 1
furt 1
ż@@ 1
1787 1
Blau@@ 1
Brust 1
Katholischen 1
Uwe 1
beför@@ 1
fortgesetzt 1
itor 0.5036036436765651
Oberösterreich 1
Trin@@ 1
fak@@ 1
kaufen 1
my@@ 0.4684031767264256
schwedischer 1
ô@@ 1
antes 1
denkmal 1
ligisten 1
ophy@@ 1
Cad@@ 1
Connecticut 0.42585245625705853
Identif@@ 1
Magist@@ 1
Württem@@ 1
deckte 1
eröffneten 1
streng 1
Hongkong 1
Ludwig@@ 1
amts@@ 1
besp@@ 1
grau@@ 1
orchester 1
organ@@ 1
Auswahl@@ 1
Stadtzentrum 1
Todes 1
Verhaltens@@ 1
bedingten 1
esses 0.7370262796477801
gebend 1
generell 1
obersten 1
oos 1
ruppe 1
ämter 1
Stausee 1
chtung 1
fried 1
DIN 1
History 0.04339802465253549
Porträt 1
ause 1
berufliche 1
ektion 1
felden 1
han@@ 0.4988037827274557
Anat@@ 1
Höfe 1
Komitee 1
mithilfe 1
scht 1
Erwerb 1
GT 1
Luftsch@@ 1
Stewart 0.4922025483204606
esa 1
kommens 1
mot@@ 0.5365120667185755
verbreiteten 1
Auflagen 1
Marsch@@ 1
Worte 1
konzentriert 1
mehrheitlich 1
orthodoxen 1
Bruce 0.5057349969412834
Haft@@ 1
Här@@ 1
IP@@ 0.6555167269844357
Kriege 1
Magnus 1
Philippe 1
Pie@@ 1
Soundtrack 1
beschreibung 1
verfolgen 1
Deren 1
Rates 1
Titeln 1
behalten 1
einander@@ 1
negativ 1
umente 1
holz@@ 1
südöstlichen 1
Erkrankungen 1
Techniken 1
alog@@ 1
fik@@ 1
gräber 1
inst@@ 0.7728966865832625
juristischen 1
nitt@@ 1
oa 0.6742607020205057
siv 1
Bürgerschaft 1
Freil@@ 1
Neuf@@ 1
Normandie 1
fert 1
rieb 1
zial@@ 1
CI@@ 0.5846340899600814
Fan@@ 1
Massi@@ 1
Weihbischof 1
ande 1
ängerin 1
Kupfer 1
Schwerpunkte 1
Stief@@ 1
Vertrieb 1
fonds 1
gerichtshof 1
medizin@@ 1
barocken 1
leuten 1
1400 1
Hür@@ 1
Unternehm@@ 1
bury 0.3105133679313843
lov@@ 0.8927383374594865
pert 1
CD@@ 0.624332059569465
Fru@@ 1
Kenntnisse 1
Mog@@ 1
Ressourcen 1
Schatten 1
Söhnen 1
ographische 1
ordens 1
ruft 1
ärm@@ 1
Australia 0.06741509078097747
Car 0.7616396514406557
Geschütz@@ 1
Liverpool 0.45665974192089054
Qualif@@ 1
ries 0.3343294216938496
zeu@@ 1
Deleg@@ 1
Kilogramm 1
Physiker 1
dieren 1
Auftreten 1
Ermland 1
Theorien 1
aufwen@@ 1
spir@@ 1
Special 0.2742669114498333
ethnischen 1
raft 1
BC 0.20344678837211255
Erik 1
Hop 1
Stone 0.36637549760776383
halter 1
lor@@ 1
Abd@@ 1
Chir@@ 1
Nelson 0.48804720289237996
Performance 0.8010996389347151
binden 1
iler 1
sto@@ 1
Kevin 0.47264412396501615
Kō@@ 1
Meilen 1
ausch 1
formation 0.23183269103333193
gewiesen 1
Schwed@@ 1
Wolff 1
Zut@@ 1
Stadtmauer 1
Stiftungs@@ 1
nordöstlichen 1
Festungs@@ 1
PD 1
Stammes@@ 1
eser 1
Gren@@ 1
Kuh@@ 1
Missions@@ 1
Not 0.40886260419872034
Saf@@ 0.8716242334330535
Bedrohung 1
Dominikan@@ 1
brecher 1
gelegten 1
nica 1
riebenen 1
Abschnitte 1
Experten 1
Lincoln 0.4003267291032522
Umsatz 1
Up@@ 0.5551859581119747
kä@@ 1
verseh@@ 1
verziert 1
zeitlich 1
Inszenierung 1
Plak@@ 1
Skulptur 1
beweg@@ 1
erkenn@@ 1
orts@@ 1
Margaret 0.4240412572909068
Trü@@ 1
benachbarte 1
onnen 1
л@@ 1
Gh@@ 0.6172389416526919
ielt 1
nachzu@@ 1
Meisterschafts@@ 1
Om@@ 1
Übersetzungen 1
Challenge 0.5859491414577833
Chlor@@ 1
Dag@@ 1
Nomin@@ 1
Sud@@ 0.6870500980896501
abgesehen 1
gemälde 1
morph@@ 0.9806654128650285
zentral 1
Information@@ 1
igte 1
osch@@ 1
Adel 1
Meeresspiegel 1
ausführ@@ 1
breiter 1
stimmte 1
Erstbeschreibung 1
Hinblick 1
Sha@@ 0.38887446278593507
blu@@ 0.8822930819147045
lob@@ 0.7101881091125299
spon@@ 1
vorgeschlagen 1
wirft 1
Allgemeines 1
Konzerten 1
Lübecker 1
Tennessee 0.3146834505002585
chene 1
gegenüber@@ 1
Afghanistan 0.5351059037652032
Buck@@ 0.9834739428303111
Generalstab@@ 1
Put@@ 1
Turniere 1
ades 0.3288007810296193
block@@ 1
pol 1
vorgesch@@ 1
Edmund 1
Hartmann 1
Henn@@ 1
Synchronisation 1
Viktor 1
beamter 1
exter@@ 1
angewiesen 1
kreises 1
liefen 1
ores 0.6927608094681017
Cob@@ 1
Fische 1
Trink@@ 1
Zwöl@@ 1
grä@@ 1
gängen 1
iden@@ 1
laufende 1
riv@@ 1
shofen 1
äler 1
Beschäftigung 1
Kreisen 1
Ligakonkurrenten 1
bon@@ 0.6737955997701985
literarische 1
molek@@ 1
Wiederhol@@ 1
oka 0.8178749390983834
ändert 1
Decke 1
Leist@@ 1
Puerto 0.4039359601450207
inae 0.96950321677639
loss@@ 1
nat@@ 1
tic@@ 0.5014428188063711
Berger 1
Ell@@ 1
Gottlieb 1
Ruhe 1
Spenden 1
ausländischen 1
rez@@ 1
Burgen 1
KA 1
Kohlen@@ 1
Programms 1
Sitzung 1
Verwal@@ 1
ave 0.619997532671026
bildenden 1
demann 1
gangene 1
mitgliedern 1
rückt 1
siedelten 1
sprüfung 1
Café 1
Hohen 1
Nordost@@ 1
Ufer@@ 1
zub@@ 1
Gastgeber 1
Iv@@ 1
Konstantin 1
Singapur 1
alem 1
braune 1
entscheidenden 1
fasste 1
lei 1
rec@@ 0.15135591395469886
scheibe 1
118@@ 1
garde 1
Lock@@ 1
Neubau@@ 1
Ruder@@ 1
allgemein@@ 1
pur@@ 0.3053892618886778
ypen 1
Clar@@ 0.7668053172534451
Nick 0.5084082705867605
On 0.015512437264604497
Prototyp 1
ium@@ 1
now 0.03733208051796022
ordnete 1
publi@@ 1
Östlich 1
Benennung 1
Schieß@@ 1
egg 0.9670184593648988
gemisch@@ 1
streit@@ 1
Kis@@ 1
Leder@@ 1
Störungen 1
achs 1
post 0.09725402111032484
Parlamentswahlen 1
Pav@@ 1
fahrts@@ 1
gestiftet 1
kant@@ 1
pet@@ 0.4300827194201189
Abstimmung 1
Lep@@ 1
angeführt 1
eigens 1
produzieren 1
wichtiges 1
Basilika 1
Pilot 1
RO@@ 0.5421113893867934
Zweifel 1
amo 1
bet 1
flo@@ 1
genutzten 1
Abenteuer 1
BB 1
Kirchturm 1
etablieren 1
itation 0.5177339823398449
Estland 1
Freiheits@@ 1
Frühe 1
fahrzeugen 1
Emma 1
Tok@@ 1
Vielfalt 1
ce@@ 0.47330913369488736
produktionen 1
schmie@@ 1
Boris 1
steins 1
ID 1
Südwest 1
Westlich 1
pump@@ 1
ration 0.3753554868181432
wechselten 1
Office 0.20179349438812205
Sachver@@ 1
cer@@ 0.36649797892498104
getre@@ 1
ohn@@ 1
phil@@ 1
Konflikte 1
eistung 1
а 1
Einwander@@ 1
Squ@@ 0.8751168535987357
geklärt 1
öfe 1
Denkmalliste 1
Vorträge 1
ble@@ 0.7041860597708981
lug@@ 1
ritz 1
station@@ 1
Christentum 1
Gefähr@@ 1
Poll@@ 1
serb@@ 1
Dill@@ 1
Faktor 1
Jordan 0.4629984222066941
Riga 1
Digit@@ 1
Feier 1
Landschaften 1
Lothar 1
Miami 0.3921360999027749
Modellen 1
Stu@@ 1
konzept 1
tür@@ 1
Achter 1
Spannungen 1
cre@@ 0.22466899503927484
eira 1
hten 1
mäß@@ 1
zunehmenden 1
α@@ 1
Bayer 1
Departamento 1
Grim@@ 1
Komplex 1
Norbert 1
Zentrums 1
quer 1
übliche 1
Bekannte 1
Global 0.4247561161154585
Kem@@ 1
SE 0.7880927938379152
Säuget@@ 1
TC 0.5995563468031323
entscheidende 1
kleidung 1
law 0.056543301986954286
LA 0.43363591663390255
Landschaftsschutzgebiet 1
Möglicherweise 1
Namensgeber 1
Rent@@ 1
Sklaven 1
meint 1
moderner 1
Schmetter@@ 1
Söl@@ 1
Vorgehen 1
ichi 0.9178947213763065
national 0.04759370569141509
wäldern 1
Kum@@ 0.8847847598529297
Wall 0.6197337570156697
orps 1
Dur 1
Köl@@ 1
trennt 1
Antwerpen 1
Gruben@@ 1
Lipp@@ 1
Schlu@@ 1
Teils 1
ausgegangen 1
ligkeit 1
ologin 1
AD 0.33129283262503273
Jugen@@ 1
Kriegsgefangenschaft 1
Merkmal 1
festgenommen 1
gh 0.42567246450861523
inhaftiert 1
konf@@ 1
nd 1
sons 0.2368282738387246
thei@@ 1
zeugung 1
115@@ 1
Landstraße 1
Programmier@@ 1
Schulz 1
ail 0.3626487757260904
akzep@@ 1
deutlichen 1
3D 0.7388000223692529
Goldene 1
Kohle@@ 1
Weltcup@@ 1
erfolgreicher 1
gi 1
löst 1
mitunter 1
positiven 1
zitiert 1
3.000 1
Edgar 1
Prü@@ 1
abgebildet 1
attra@@ 1
bewohner 1
französ@@ 1
ité 1
yo 0.5700219397327028
zugesprochen 1
Arab@@ 1
Bres@@ 1
IUCN 1
Kommunistischen 1
Premier@@ 1
Sich@@ 1
kind 0.2635139528752163
selbständige 1
äuschen 1
Comics 0.7112597236448076
Nachbarn 1
Peg@@ 1
etliche 1
jenseits 1
nordwestlichen 1
reste 1
Anfangs 1
Arbeitsgemeinschaft 1
Luftlinie 1
Staub@@ 1
acke 1
eia 1
iller@@ 1
wechselt 1
Box 0.7762320151937168
Länderspiel 1
Speis@@ 1
Sächsischen 1
Ursula 1
assistent 1
eli 1
mals 1
40.000 1
Champ@@ 1
Lach@@ 1
Theaters 1
Vorname 1
schnelle 1
zeitweilig 1
öp@@ 1
Captain 0.25656060431869765
Gewerkschaft 1
Lloyd 0.6493842213507992
Regierungsp@@ 1
berechnet 1
bittet 1
zurückkehren 1
Badminton@@ 1
Roma 1
Soli@@ 1
alisierte 1
ento 1
erheb@@ 1
esia 0.9896953638118161
nachweisen 1
rag@@ 1
sozi@@ 1
Artillerie@@ 1
Brasili@@ 1
FFH 1
Frederick 0.3742856118408353
ces 0.2623760029936828
Cottbus 1
Gesetzes@@ 1
dez@@ 1
erisch 1
hob 1
illon 1
ziger 1
15.000 1
2000er 1
Clara 1
Dog@@ 1
Frit@@ 1
Kult@@ 1
Nutzer 1
Pause 1
Pianist 1
atorin 1
beton@@ 1
iment 1
Bauzeit 1
Iwan 1
enkrieg@@ 1
institut 1
meist@@ 1
én 1
Anwendungs@@ 1
Autos 1
Liechtenstein 1
PE@@ 0.8478064613467786
afrikanische 1
asten 1
etzte 1
gesungen 1
schil@@ 1
tels 1
Anstieg 1
Lawrence 0.42335331688619465
Nummern 1
Speyer 1
Suff@@ 1
Will 0.5293587152935706
etische 1
mine 0.31888624380218894
montiert 1
AP 0.46763597516423616
Ansprüche 1
Entw@@ 1
Tochter@@ 1
Verpflichtung 1
Wahlgang 1
ace 0.33030064013749627
atorischen 1
olympischen 1
zentr@@ 1
Russell 0.4643255514923833
Schwieger@@ 1
Via 1
′ 1
Nem@@ 1
Zeugen 1
dah@@ 1
gliche 1
nutzten 1
rise 0.26693208564740517
visu@@ 1
wettbewer@@ 1
Ehrenmitglied 1
IM@@ 0.6512444710458478
Kön@@ 1
Letztere 1
Zimmer@@ 1
abwärts 1
assist@@ 1
etabliert 1
fix@@ 1
oy 0.4678257922250679
fachen 1
zismus 1
übersch@@ 1
Basketball@@ 1
Disney 0.43723142893281286
VG 1
Zahlungs@@ 1
did@@ 1
funktionen 1
Fabri@@ 1
Raf@@ 1
Sofia 1
Wäldern 1
gewässer 1
mitten 1
zün@@ 1
Prin@@ 1
Wiel@@ 1
ehr 1
osph@@ 1
Äqu@@ 1
Präsidentschafts@@ 1
gärten 1
ns@@ 1
38@@ 1
IB@@ 1
Leben@@ 1
Mönchengladbach 1
Pest@@ 1
Realität 1
Schli@@ 1
Wagen@@ 1
beruflichen 1
eigung 1
ibn 0.8096424298728
rohr 1
ätten 1
bun@@ 1
Aufführungen 1
Ausstrahlung 1
Bürgern 1
Erscheinungsbild 1
Maul@@ 1
Moderator 1
mul@@ 0.5793567894345012
siedelte 1
sträger 1
Ausnahmen 1
Ländereien 1
Neumann 1
bildungen 1
otz@@ 1
tätigkeit 1
Gruppenphase 1
Loc@@ 0.6255429173793549
Magdalena 1
australische 1
gebäuden 1
gesellschaftliche 1
iw@@ 1
Kreisstraße 1
angewendet 1
arg@@ 1
aufnahm 1
behauptete 1
Hot 0.30939740359869283
Ketten@@ 1
Quint@@ 1
Reichstag@@ 1
Social 0.2411442634268169
dieselbe 1
mond 1
württembergischen 1
Baudenkmal 1
Gestapo 1
che@@ 0.4305498532261546
vorbereitet 1
zeug 1
ästhet@@ 1
ů@@ 1
Sainte 1
Studies 0.3110700744997299
VI@@ 0.8612153991255083
getrieben 1
zweist@@ 1
Dokumentar@@ 1
Hip 1
Keramik 1
ausgew@@ 1
enschutz@@ 1
isoli@@ 1
lien 1
Besatz@@ 1
Dj@@ 1
Martin@@ 1
Namen@@ 1
Sever@@ 1
Shanghai 0.6831708960797999
Steinen 1
Systemen 1
schein 1
üst 1
Haute 1
Mönche 1
Schweizerischen 1
änd@@ 1
Kunstakademie 1
Motto 1
Patent 1
Revolution@@ 1
Stoffe 1
agte 1
hard@@ 0.6807158809339798
hima 1
sprü@@ 1
stärkste 1
Bundestagswahl 1
Denis 1
Konkurrenten 1
Tann@@ 1
bereich@@ 1
Gle@@ 1
Pall@@ 1
pass 0.20591291154518235
schre@@ 1
Forest 0.28392240387061296
Fund 0.5303069899217938
Gattin 1
Inschriften 1
KO 1
Meteor@@ 1
ammer@@ 1
dominiert 1
smittel 1
uter 1
äqu@@ 1
Boy@@ 1
Gebäude@@ 1
Konzentration 1
drück@@ 1
einbezogen 1
ersdorf 1
muster 1
ular 0.30684532137
Österreichische 1
Dé@@ 1
Eli@@ 0.8440989207332986
Hauptquartier 1
Sierra 0.6970379332254677
Verbands@@ 1
amin 1
court 0.1007682486914123
fahrt@@ 1
tow 1
uft 1
1783 1
Laubblätter 1
flach 1
genauso 1
haber 1
1788 1
Häftlinge 1
Taiwan 0.47634896206730143
Tha@@ 1
fang@@ 1
herrschenden 1
mächtigen 1
ungsprozess 1
20,@@ 1
Mitglieder@@ 1
archäologische 1
elektronische 1
methoden 1
unmöglich 1
Bibli@@ 1
icke 1
pler 1
Atem@@ 1
Habilitation 1
Hl 1
Orleans 0.5374359170898527
Roch@@ 1
genügend 1
riert 1
tauchen 1
Kolumbien 1
Pent@@ 0.9352146837747115
Russlands 1
alla 1
kateg@@ 1
opfer 1
weltmeisterschaft 1
Schlüssel 1
berater 1
schanze 1
spät 1
Instit@@ 1
Masuren 1
amtierte 1
auseinander 1
fürst@@ 1
ray 0.3955601710016133
ská 1
Adels@@ 1
Antoine 1
Einladung 1
MC 0.5911238111414003
Mode 1
aison 1
frist@@ 1
itu@@ 1
nutzung 1
360 0.9813163161121113
Franz@@ 1
direk@@ 1
nad 1
olt 1
zueinander 1
Lüb@@ 1
Wiederherstellung 1
zurückgezogen 1
Dick@@ 1
Harris 0.424927804117122
anerk@@ 1
gebraucht 1
gesellschaft@@ 1
hessen 1
reif@@ 1
ulen@@ 1
114@@ 1
Steuerung 1
absolvieren 1
blatt@@ 1
etto 1
oxid 1
sicht@@ 1
stehe 1
Dialekt 1
Esk@@ 1
Schalt@@ 1
genau@@ 1
ritt@@ 1
spiels 1
ässig 1
Golf@@ 1
Quadrat@@ 1
Sieger@@ 1
act@@ 0.48334547907830966
ering 0.260429000190169
flüge 1
from 0.003038092598605975
sterb@@ 1
Aktivität 1
Asi@@ 1
Dres@@ 1
Haushalt 1
Jün@@ 1
Laura 0.823976537354715
Wöl@@ 1
beabsich@@ 1
kugel@@ 1
ßerei 1
Kletter@@ 1
SW@@ 1
ims 1
Bukarest 1
Dave 0.47463527959563173
Gotha 1
Mans 1
Place 0.49026698042063754
spiegel@@ 1
verglichen 1
vormals 1
0.@@ 0.14200767114163781
DE 1
Karten@@ 1
Mixed 1
Republi@@ 1
israelischen 1
ordentlicher 1
pokal 1
viol@@ 1
Alkohol@@ 1
deutschland 1
inter 0.6580981061945477
olf 1
aul@@ 0.8036531123869833
blei@@ 1
elbach 1
forder@@ 1
gebe 1
izi@@ 1
ral@@ 0.9995761867862556
tru@@ 0.6752428706297446
zelle 1
ziemlich 1
1786 1
ORF 1
niederlage 1
ziel 1
Stadtverwaltung 1
einkommen 1
gelegte 1
rik@@ 1
Indonesien 1
Michel@@ 1
S.@@ 0.5311765341206782
Uruguay 1
cz@@ 1
gewe@@ 1
gotische 1
o. 1
steiger 1
220 1
Benn@@ 1
NO@@ 0.6384029666801881
Preisträger 1
aufgest@@ 1
garten@@ 1
heilige 1
rank@@ 1
restaur@@ 1
Abfahrt 1
Frie@@ 1
Notwendigkeit 1
itären 1
Gegenüber 1
Truppe 1
abstra@@ 1
aktik 1
bestimmung 1
enser 1
gerettet 1
gewinnung 1
än 1
klingen 1
überlassen 1
Kongo 1
Krimin@@ 1
Kulturdenkmäler 1
Leucht@@ 1
Oli@@ 1
Sad@@ 0.6376912070234878
Spur 1
bedeutendste 1
zumal 1
Ausgang 1
Gefährdung 1
Grün 1
Krat@@ 1
elsberg 1
klagte 1
phys@@ 1
Aufschwung 1
Trophy 0.490525543008252
vorn 1
Auto@@ 1
Lichtjahre 1
Religionen 1
Vä@@ 1
festival 0.2387655116260618
leichte 1
Überlegungen 1
Kabar@@ 1
Nachfolge@@ 1
Ordin@@ 1
allee 1
dreif@@ 1
ährung 1
ärin 1
18@@ 0.6389921650542353
Bit 1
Haltestelle 1
messen 1
text 0.17487663344622204
Debatte 1
Justiz 1
Pflanzenart 1
eds 0.6037611847464393
osaur@@ 1
29@@ 0.8897537086315906
Nachbarschaft 1
TS 0.742819567280581
armen 1
auswahl 1
inspiriert 1
massiv 1
Gotteshaus 1
Kirchenschiff 1
Ler@@ 1
Protagonisten 1
Radsport@@ 1
länder@@ 1
spitz@@ 1
1,8 1
Kommunikations@@ 1
Oberstleutnant 1
Persönlichkeit 1
Touristen 1
Vig@@ 1
Wikipedia 1
getriebe 1
historiker 1
zugehörige 1
Axel 1
Fant@@ 1
Lehrerin 1
bedeutend 1
bewoh@@ 1
ritz@@ 1
spunkt 1
stitution 1
wahren 1
р@@ 1
Beobachtungen 1
Eltern@@ 1
Iowa 0.344454105335019
aqu@@ 0.5256647895299388
fähigen 1
schel 1
verh@@ 1
ühl 1
Lisa 0.919568430017024
Signal 1
brüche 1
fa 1
neueren 1
wegs 1
Epo@@ 1
Hochaltar 1
Plant@@ 1
günst@@ 1
ike 1
will@@ 1
Bek@@ 1
Kindergarten 1
kir@@ 1
nachweisbar 1
Berücksichtigung 1
Dialog 1
Flensburg 1
Käfer 1
Nörd@@ 1
braunen 1
Kantons@@ 1
Klubs 1
Pokalsieger 1
Veter@@ 1
illo 0.8676936447543101
unterstütz@@ 1
Offen@@ 1
aufzubauen 1
cel@@ 0.6373139207399396
popul@@ 1
äischen 1
Marine@@ 1
Zügen 1
atti 1
füllt 1
greif@@ 1
lust@@ 1
sive 0.3379690118403943
studien 1
ängern 1
Coburg 1
Kunsth@@ 1
Sekret@@ 1
bögen 1
damm 1
schenk@@ 1
schnitten 1
umgestaltet 1
Mrd. 1
SI@@ 0.8188255496725666
Spec@@ 0.472878890179644
Wahrscheinlichkeit 1
Lili@@ 1
Ralph 0.7228668750990892
anim@@ 0.7206426693295536
herunter@@ 1
my 0.13782151301841086
schließ@@ 1
Beobachtung 1
Wetter 1
demselben 1
eiförmig 1
eman 0.3470259104227856
notwendige 1
Kryp@@ 1
Landtags 1
Oberst@@ 1
Werks@@ 1
angest@@ 1
ausgeliehen 1
sherr@@ 1
Sparkasse 1
reibungen 1
rode 1
warum 1
ückt 1
Betreuung 1
kowski 1
rock 0.10500066953066545
tab@@ 0.5604613893151978
Bundesautobahn 1
Sac@@ 1
halb 1
älen 1
Kenntnis 1
Pedal 1
interpre@@ 1
ning 0.2983740929193264
räfte 1
Fleisch 1
Himmel@@ 1
Och@@ 1
fabri@@ 1
genehmigt 1
104 1
Jord@@ 1
Nuk@@ 1
Russen 1
Send@@ 1
neh@@ 1
veranlasste 1
vertreter 1
Adri@@ 1
Erzähler 1
Genres 1
berech@@ 1
bos@@ 1
nel 1
schätzungsweise 1
1770 1
E.@@ 0.7714696928241611
Italiens 1
Maximilians 1
Morgan 0.44038503785698324
Vietnam 0.29022995809362206
bekann@@ 1
gemäß@@ 1
iet 1
see@@ 1
verlangt 1
Hass@@ 1
Herzog@@ 1
Lom@@ 1
Olympia 1
Spanier 1
Verschie@@ 1
amtlichen 1
edonien 1
ktur 1
pflicht 1
produk@@ 1
önen 1
Haw@@ 0.4508456044306685
Mask@@ 1
brücken 1
ente@@ 1
trags@@ 1
Informatik 1
Popularität 1
häuf@@ 1
Cann@@ 1
Leonhard 1
Sockel 1
begangen 1
entlichen 1
nisch 1
Seeb@@ 1
Spektrum 1
flog 1
ph 0.8452855534731263
Feuerwehr@@ 1
Forst 1
Inner@@ 1
elektronischen 1
schriftliche 1
verfolgte 1
Amtsbezirk 1
Auschwitz 1
Hos@@ 0.9087330368816299
Kandidatur 1
Ruth 0.8984937913956397
Schuld 1
Yam@@ 0.7846624746505588
dy@@ 0.6252688967320796
ozän 1
ächen 1
Broadway 0.3984932937574268
Gedenken 1
Innern 1
brit@@ 1
federn 1
gehängt 1
lon 1
rau 1
säm@@ 1
verschwunden 1
veröffentlichen 1
wende 1
wofür 1
Antonius 1
eventuell 1
glas@@ 1
hem@@ 0.7554806735422188
reuth 1
time 0.011897166852731577
Apsis 1
Knochen@@ 1
Lon@@ 0.9101916773902682
geschichtliche 1
skaja 1
steig 1
Ents@@ 1
Mehr 1
ep 0.6921068816252448
erweiterten 1
jähriges 1
olle 1
sprüche 1
verteidigung 1
Politisch 1
Verlegung 1
größ@@ 1
lok@@ 1
mau@@ 1
Angreifer 1
Bevor 1
Canada 0.06865500546499419
Skispr@@ 1
Virus 1
Hipp@@ 1
Käl@@ 1
VI 0.5341805746902751
iegel@@ 1
lings 1
solches 1
starten 1
verwandten 1
Andererseits 1
Kus@@ 1
Schulzeit 1
oter 1
pend@@ 1
veränderte 1
1775 1
Fahn@@ 1
Nikol@@ 1
Pfarrhaus 1
gewöhn@@ 1
motiv@@ 1
Caspar 1
Marokko 1
Regen 1
demokrat@@ 1
gio 1
uppen 1
· 1
Aufsicht 1
Instrument@@ 1
Regierungszeit 1
Sage 1
Stade 1
Zwerg@@ 1
kirchliche 1
lon@@ 0.8753292632459204
oro 0.9572468697685576
verlaufenden 1
Alpes 1
Ann 0.4693333797427975
Farm 0.5227502922413592
Guer@@ 1
Katal@@ 1
Rotterdam 1
nier 1
tan 1
zeitgenössische 1
Bearbeitung 1
Handeln 1
Raymond 0.7413615066865146
Rig@@ 1
belast@@ 1
feldern 1
linker 1
Berat@@ 1
Sof@@ 1
ammern 1
nah 1
Gaz@@ 1
Maryland 0.2956714232942806
Renault 1
Sid@@ 0.8448741838525821
befreien 1
Tos@@ 1
altete 1
besuchten 1
emin@@ 1
olit@@ 1
Call@@ 0.7421521807426372
Neffe 1
astronom@@ 1
eils 1
emm@@ 1
interess@@ 1
masse 1
myth@@ 1
sius 1
verstärkte 1
Instand@@ 1
Niedergang 1
Nutzen 1
benutzte 1
dae 0.4161968366722793
sü@@ 1
verbands 1
wach@@ 1
Diensten 1
Milli@@ 1
Träger@@ 1
beruflich 1
nenn@@ 1
Aufgebot 1
Tuch@@ 1
Zelle 1
erlangen 1
fei@@ 1
iten@@ 1
Lib@@ 1
Pep@@ 1
Sun@@ 0.5458786953106498
erstellte 1
hrer 1
tätigen 1
verschieden@@ 1
DV@@ 1
Englischen 1
Ludwigs 1
annter 1
gerten 1
inmitten 1
leiden 1
sieben@@ 1
störungen 1
europäischer 1
fähige 1
gebräuch@@ 1
hohes 1
ischt 1
oni@@ 1
Angebote 1
Gräber 1
Rüst@@ 1
einfach@@ 1
schild 1
Eingemeindung 1
Metz 1
Porto 1
Weinbau 1
abil@@ 1
leger 1
otti 1
rieb@@ 1
schäden 1
sportlichen 1
Demokraten 1
Gewinnung 1
Rückstand 1
fft 1
kämp@@ 1
Doz@@ 1
GP@@ 0.9078915540178019
Siegel 1
Verdacht 1
aa 0.9897125559344002
misch@@ 1
ograph 1
ötz@@ 1
Benannt 1
Stücken 1
Verhältnissen 1
arts 0.24854091932297295
communes 1
geschaffene 1
hl@@ 1
inie 1
opp 1
spezifischen 1
• 0.49546507335171014
Ank@@ 1
Dorothea 1
Isol@@ 1
port@@ 1
tigkeiten 1
tro 0.902345197412766
zugehörigen 1
Cin@@ 0.7290254767947314
GG 1
Ing@@ 1
Quart@@ 1
Rol@@ 1
Slowenien 1
Veget@@ 1
beschei@@ 1
besiegt 1
darstellte 1
erwähnten 1
gestrichen 1
minder@@ 1
ograf@@ 1
Ökologie 1
Harz 1
Völk@@ 1
amts 1
tener 1
usst@@ 1
Übersetzer 1
Nova 0.5618353868837106
asche 1
angenen 1
dene 1
rell 0.6100432902245798
zurzeit 1
Abschluss@@ 1
Nab@@ 1
fehler 1
itten 1
verbänden 1
ähnlicher 1
Abgeordnet@@ 1
Anim@@ 1
Flüssig@@ 1
Id@@ 1
Kindes 1
Organisations@@ 1
Wettbewerben 1
archen 1
blau@@ 1
flohen 1
negative 0.2912232268551556
riff 1
scharf 1
Å@@ 1
Konfession 1
Pionier@@ 1
Rücken@@ 1
Schlacht@@ 1
Teuf@@ 1
Tiroler 1
denburg 1
poli@@ 1
therapeut@@ 1
Empore 1
Synthese 1
lock 0.41438149924924733
mechanische 1
schaff@@ 1
unst 1
Gewer@@ 1
Inv@@ 1
Milchstraße 1
Stoff 1
gor@@ 0.8288598945465424
versuche 1
Bart@@ 1
Bowl 0.34638515935620223
Elb@@ 1
Künstlers 1
Trak@@ 1
Volkspartei 1
aud 1
pap@@ 1
hinzugefügt 1
1772 1
Gerd 1
Hack@@ 1
Lagen 1
Mangel 1
Mittel- 1
Offensive 1
Worms 1
bemühte 1
nachträglich 1
own 0.03822554111508831
sexu@@ 1
unt 0.7274105448569267
Aust@@ 1
Kunden@@ 1
Menschenrechte 1
News 0.18974443114924922
Optim@@ 1
gefordert 1
überquert 1
überzeugt 1
Denken 1
Mant@@ 1
Zusammenbruch 1
boote 1
emer 1
matischen 1
urs@@ 1
zweck@@ 1
EC@@ 0.6150702831043839
Kreb@@ 1
Pog@@ 1
Schützen@@ 1
Zuordnung 1
get 0.09038195432587999
viert 1
Avenue 0.18719720584377764
Philosophen 1
Plateau 1
Realschule 1
berat@@ 1
geladen 1
schreit@@ 1
Horiz@@ 1
Themen@@ 1
avancierte 1
ees 0.514771280625375
schenkte 1
seltene 1
CC 0.49268248253270014
Dopp@@ 1
Journalistin 1
Kennedy 0.41625733840488677
Lieder@@ 1
Naturwissenschaften 1
Stän@@ 1
erium 1
verfolgung 1
wann 1
weil@@ 1
Johan 1
Thr@@ 1
gehörige 1
ilde 1
omp@@ 1
paare 1
verordnung 1
Früher 1
licht@@ 1
prägte 1
test@@ 0.7345028907110353
zin 1
zuzu@@ 1
Gly@@ 1
Landeshauptstadt 1
Rapper 1
Teilnehmer@@ 1
altungen 1
ausländische 1
iven 1
ology 0.1030095811422849
porträ@@ 1
schneiden 1
stone 0.12655852783770816
typen 1
Einteilung 1
Energi@@ 1
Jonathan 0.5578990119674672
Monument 1
Senioren 1
ausgelöst 1
kredit@@ 1
produkt 1
yc@@ 0.6888961155268558
zia 1
ämmer@@ 1
Bauweise 1
Erscheinen 1
Nier@@ 1
Pietro 1
kov 1
massiven 1
1776 1
Eisenbahnstrecke 1
Konsum@@ 1
ausch@@ 1
ulus 1
Palästina 1
dichten 1
itus 1
öpfen 1
Bilder@@ 1
Bühnen 1
End 0.4316945361999163
Lec@@ 1
Philosoph 1
diejenigen 1
Bow@@ 0.535540083657039
Büros 1
Engagements 1
Fie@@ 1
Match 1
af 0.7271640031324426
belag@@ 1
block 0.23402347231377843
skoje 1
usch 1
Atlan@@ 1
Folgejahren 1
Loch@@ 1
adap@@ 1
fotograf@@ 1
nördlicher 1
к@@ 1
Aktien 1
Hills 0.4192159531418555
Hyp@@ 1
genutzte 1
gewertet 1
scheinen 1
stift 1
tei 1
Brücken@@ 1
Passi@@ 1
Pest 1
Pfar@@ 1
Satteldach 1
meisterin 1
osse 1
ränken 1
weisung 1
Gewässer@@ 1
Gitarristen 1
Hamm 1
Landung 1
hut 1
schaftlich 1
Blüte 1
Pend@@ 1
Story 0.5374351903075131
Stör@@ 1
ald@@ 1
gesetzlichen 1
glaub@@ 1
teams 0.07131951775685208
Helene 1
K.@@ 1
Wunder@@ 1
gin@@ 1
Contest 1
Dien@@ 1
Einsch@@ 1
High@@ 0.6381235129529598
Miguel 0.8108218526965593
Publikation 1
betragen 1
erwiesen 1
kodi@@ 1
Jung 1
Meisterin 1
Unterfamilie 1
Verbleib 1
baden 1
besor@@ 1
erhöhten 1
erschienene 1
schien 1
umgekehrt 1
wuch@@ 1
übertragung 1
Jäger@@ 1
Philipp@@ 1
Zwill@@ 1
bestimmter 1
staatlich 1
unterschied@@ 1
Bestände 1
Busch@@ 1
Cort@@ 1
HD 0.74458965260193
Hypo@@ 1
Lay@@ 1
Rats@@ 1
Schnabel 1
angelegten 1
hinaus@@ 1
höher@@ 1
untersuch@@ 1
uß@@ 1
Á@@ 1
Berner 1
Plast@@ 1
Schuss@@ 1
Soci@@ 0.7612153787085071
Stadi@@ 1
Standes@@ 1
informiert 1
sinn 1
zunehmende 1
ägyptischen 1
Canadian 0.08815727866305069
Grundstein 1
Klage 1
N. 0.4871969123181711
Staatssekretär 1
WDR 1
achtete 1
charakter@@ 1
eignet 1
fung@@ 1
halts@@ 1
inas 1
letztendlich 1
pu@@ 0.8455580524311588
ruppen 1
schüler 1
Admir@@ 1
Mond 1
Pensionierung 1
Problem@@ 1
Schuh@@ 1
berühmte 1
dunkel 1
genossen 1
herrscht 1
orin 1
schreiber 1
tnis 1
Cant@@ 0.7299115130572478
DR 1
Franklin 0.4369600144881051
Färbung 1
Millimetern 1
Richtlinie 1
drücken 1
partner 0.25991029009922106
Graham 0.45594111328409237
Verfasser 1
dend 1
erfre@@ 1
fahrzeug@@ 1
komplexe 1
lateinisch 1
studiert 1
Ö 1
DI 1
Kulturgüter 1
O. 0.7338981951556889
afte 1
dun@@ 1
fär@@ 1
orn@@ 1
technischer 1
AF 0.6627179402403737
Ale@@ 1
Flächen@@ 1
Hütten@@ 1
Rechtsprechung 1
durchgehend 1
Franziskus 1
Mars 0.7392733307310096
Rauch@@ 1
Ruinen 1
inos 1
inspi@@ 1
präsidenten 1
102 1
6,5 1
Charaktere 1
abgew@@ 1
anga 0.603728322370523
diagnost@@ 1
sid@@ 0.7949775410117532
unen 1
Auftritten 1
Bundesministerium 1
Einwohnerentwicklung 1
Engineering 0.3220153270640787
anspruchs@@ 1
glauben 1
kleinste 1
lowakischen 1
oux 1
schü@@ 1
train@@ 1
westfälischen 1
Disk@@ 1
Kup@@ 1
izierte 1
spart@@ 1
Effekte 1
Greg@@ 1
Jon@@ 0.920643803203673
Mittelalters 1
dör@@ 1
uner 1
Großherzog@@ 1
Houston 0.3161123598231626
Zähne 1
iko 1
kritiker 1
regist@@ 1
Aber@@ 1
Ausschusses 1
Flugzeugen 1
Il 1
Lucas 0.8445710118522769
Armen 1
Bibliothek@@ 1
Diskussionen 1
Fußballverein 1
Malers 1
Miss 0.3078353188853341
Prinzipien 1
Schröder 1
Türme 1
ikers 1
Beschäftigten 1
Näh@@ 1
Oberlauf 1
echte 1
firm@@ 1
niedersächsischen 1
online 0.19931123202717213
teure 1
Bassist 1
GA 0.7955639490142018
Kaiserslautern 1
Zimmermann 1
ago@@ 1
itiv 1
wiedergewählt 1
Bundesland 1
Liz@@ 1
Präsidentin 1
ants 0.15033238024874734
areal 1
feln 1
vic@@ 0.5008298841373702
Cz@@ 1
Student 0.6991024479610671
bad@@ 1
eilt 1
enhand@@ 1
inski 1
oul@@ 0.6579343405446672
prin@@ 1
starteten 1
vo 0.75948641368767
Anbindung 1
Rag@@ 0.8535440537097729
eus 1
publiz@@ 1
1777 1
Absatz 1
Dynamo 1
ET@@ 1
Zeichner 1
Ś@@ 1
Bürgermeisters 1
RA 0.602621329900397
hervorra@@ 1
mikro@@ 1
primär 1
vorkommt 1
Großherzogtum 1
Minist@@ 1
archäologischen 1
fehlenden 1
Anbieter 1
Astron@@ 1
Fid@@ 1
Propaganda 1
Pun@@ 0.7398253095083555
Sinf@@ 1
drü@@ 1
eroberte 1
gard 1
hoff@@ 1
niedriger 1
wirksam 1
Fernsehsender 1
bestand@@ 1
fusionierte 1
potenti@@ 1
üre 1
Frem@@ 1
Zyklus 1
absolute 0.9062816272259095
einstigen 1
preise 1
projekte 1
werkstatt 1
Chr@@ 1
Ereignissen 1
Kathar@@ 1
Künstl@@ 1
Pädagogik 1
ardt 1
erland 1
heimische 1
Emeritierung 1
Fresken 1
Latein 1
Stap@@ 1
Triathlon 1
sters 0.5354364430074214
südlicher 1
19,@@ 1
Oberseite 1
Traditionen 1
angefertigt 1
hört 1
lab@@ 0.5484646860361195
lage@@ 1
letz@@ 1
trainiert 1
ull 0.8412712933433497
überqu@@ 1
AK 1
Baby 0.8114833275291379
Impf@@ 1
Phänomen 1
Wais@@ 1
dan 0.708207947928443
gerungen 1
siedlungen 1
stän@@ 1
Audi@@ 1
Großer 1
Peak 0.8563856561073745
Stru@@ 1
Tote 1
berin 1
hölzerne 1
irische 1
pfälzischen 1
Slaw@@ 1
ols 0.5218916881043055
zusammenhän@@ 1
äub@@ 1
ík 1
5,5 1
Jens 1
Nations 0.21962727469518878
Neust@@ 1
brief 0.36121956703604813
echn@@ 1
entran@@ 1
leer 1
Boeing 0.9801922142674824
Grundstück@@ 1
Lak@@ 0.6660765625910305
Marseille 1
Mittelfeld 1
Palä@@ 1
Statist@@ 1
branche 1
entkommen 1
jenes 1
philosophischen 1
RC 0.4818020615646689
direkter 1
genommenen 1
ichtet 1
num@@ 1
spolit@@ 1
äser 1
Instanz 1
Paaren 1
kämpfe 1
äufer 1
Einweihung 1
Gie@@ 1
Interess@@ 1
Us@@ 1
Ves@@ 1
Vul@@ 1
gesell@@ 1
usch@@ 1
vi 0.7171617351001845
wag@@ 1
ór@@ 1
Arist@@ 1
Li 0.38152825615749447
betonte 1
einsätzen 1
erbauten 1
flächen@@ 1
mob@@ 1
Caroline 0.938568658758632
Umwandlung 1
Unterart 1
distanz 1
ruch 1
tia 0.9037025059567165
Überwachung 1
Aufträge 1
Erneuerung 1
Gan@@ 0.8974652836907399
Glock@@ 1
Kemp@@ 1
Klöster 1
anschließende 1
plung 1
programm@@ 1
riegen 1
sherr 1
vollkommen 1
Andy 0.5047496020441625
Chinas 1
FIFA 0.4440901981433411
Nordsee 1
Northern 0.1228493822562802
Sop@@ 1
YouTube 0.5022205852489517
vereinen 1
ünden 1
Erinnerungen 1
Solche 1
akust@@ 1
gium 1
house 0.043910423271841206
kompliz@@ 1
oren@@ 1
schreibung 1
star 0.14115372018002662
Cousin 1
Gleis 1
Johannis@@ 1
Konf@@ 1
Parker 0.5403431590533636
Uran@@ 1
Verwand@@ 1
fro@@ 1
loh@@ 1
romanischen 1
Österreich@@ 1
Erfinder 1
Gottesdienst 1
SL 0.730395602431333
digitalen 1
gründer 1
kostete 1
ISO 1
Nationalrat 1
label 0.17357357920727057
Kreuzes 1
Tochtergesellschaft 1
Zeichnung 1
ampf 1
dom@@ 1
zweck 1
Unruhen 1
erlau@@ 1
halbes 1
ohl@@ 1
skapelle 1
stiftete 1
Bakterien 1
frequ@@ 1
spur 1
DR@@ 1
Ernest 0.7885131060960802
Klassenerhalt 1
Spro@@ 1
entschei@@ 1
Erhebungen 1
Gerichtshof 1
Messung 1
Repertoire 1
bedro@@ 1
gewinn 1
Forstwirtschaft 1
Gericht@@ 1
Infanterie@@ 1
Kairo 1
gelangten 1
gez@@ 1
illustri@@ 1
inszenierte 1
ision 1
1782 1
Born@@ 1
Etymologie 1
Murray 0.41677448407697687
Spre@@ 1
Wiederaufstieg 1
cy 0.4071910135693305
jenige 1
klassige 1
ungsgebiet 1
Abbruch 1
Aktion@@ 1
Deutschland@@ 1
Stimmen@@ 1
ausgetragenen 1
dender 1
einsetzte 1
gewalt 1
gü@@ 1
invest@@ 1
juristische 1
theoretischen 1
1778 1
Beratung 1
Recher@@ 1
Rhône 1
Wassi@@ 1
Wh@@ 0.35497069505475976
fli@@ 0.7420409775119231
gesendet 1
stattfindet 1
übt 1
Ansbach 1
Benutz@@ 1
Glaubens 1
aufwärts 1
böhmischen 1
Bande 1
Evans 0.4924958270908936
Stadtr@@ 1
nice 1
Comic@@ 1
Empire 0.14381852205641704
entfernte 1
geschwin@@ 1
tigungs@@ 1
universität 1
Bünd@@ 1
Fertigung 1
Kay@@ 0.9284593591461524
Menschenrechts@@ 1
Schönheit 1
Steuern 1
ault 0.6791410249626645
beacht@@ 1
chi@@ 1
gei@@ 1
hum@@ 0.4174569328139175
präz@@ 1
repräsentiert 1
unmittelbaren 1
Engländer 1
Meißen 1
digitale 1
parall@@ 1
ungenen 1
Ans@@ 1
Finanzen 1
Gän@@ 1
Larven 1
Let@@ 1
Regim@@ 1
aufgeben 1
but@@ 0.4008246825900044
kammer@@ 1
trak@@ 1
variiert 1
verbind@@ 1
wider 0.6083067843908119
Begleitung 1
Giebel@@ 1
Kör@@ 1
Tw@@ 0.5695236717003762
begab 1
grafschaft 1
lieu 1
Lang 1
Nation@@ 1
SI 0.7952377268332839
gräf@@ 1
modern@@ 0.5361979619906803
vermitteln 1
Crist@@ 1
Entwürfe 1
Pad@@ 0.5614748943485228
Zentralb@@ 1
autor@@ 1
nütz@@ 1
stischen 1
Abwehr 1
Elf@@ 1
German 0.044089786266899064
Holocaust 1
Interessen@@ 1
Laus@@ 1
Melodie 1
Präs@@ 1
initi@@ 0.7477905481803195
lern@@ 1
neter 1
pazif@@ 1
Amateur 0.8877178088127308
Glück@@ 1
Philosoph@@ 1
Sant 1
Was@@ 1
dunklen 1
installi@@ 1
komplexen 1
red 0.08746294518822076
rik 1
selbständig 1
sozialistischen 1
135 0.7143085588675735
Go 0.44153871075038986
Gymnasi@@ 1
Häus@@ 1
Luther@@ 1
Moz@@ 1
rel 0.7474013285346184
Herstell@@ 1
Phasen 1
Schriftstell@@ 1
agten 1
ausgel@@ 1
norwegische 1
wertet 1
Genua 1
Lieutenant 0.3346198390179648
Origin@@ 1
Sprachraum 1
Tunnel@@ 1
Verkauf@@ 1
atorische 1
ämme 1
Bewusstsein 1
Bosnien 1
Development 0.16097154775903227
Höch@@ 1
drit@@ 1
eits@@ 1
kurse 1
kurzfristig 1
lar 1
wirt 1
Allee 1
Beachtung 1
Gläub@@ 1
Kind@@ 1
Ligaspiele 1
Places 0.288823640792969
Südtirol 1
elter 1
enzeit@@ 1
stamm@@ 1
unterlagen 1
uri 0.7400823476309046
versteckt 1
Alph@@ 1
Erstellung 1
Verarbeitung 1
jet 0.7311929430611988
lica 0.98323408642824
praktische 1
var 1
Altenburg 1
Extrem@@ 1
geheiratet 1
Bahnen 1
Blas@@ 1
Countys 1
Ergänz@@ 1
Freitag 1
Kelly 0.4012822634773609
Richtungen 1
Verträge 1
hir 1
reibt 1
scheinbar 1
wachsende 1
Dü@@ 1
Fußballspielen 1
Torhüter 1
X. 1
altes 1
pel@@ 1
stra 1
Aussterben 1
Beer@@ 1
Insolvenz 1
Kronprin@@ 1
Ltd. 1
Spanisch 1
Entschei@@ 1
Gera 1
Meist 1
NSG 1
Uhrzeigersinn 1
abel@@ 1
interessierte 1
zugesch@@ 1
zugs 1
Busch 1
Hawaii 0.5037379762213349
IX. 1
Monats@@ 1
Stuck@@ 1
Vereinig@@ 1
Wettbewerbs 1
ark@@ 1
enden@@ 1
endgültigen 1
frauen 1
großzü@@ 1
ierend 1
normale 1
uche 1
Apple 0.5531049707015779
Stralsund 1
Turner 0.5367185426725887
widmet 1
128 1
Ansätze 1
Community 0.22513205908476647
Kost@@ 1
Polens 1
Senior 0.3074393518457724
She@@ 0.3406303441000338
Versamm@@ 1
dierten 1
kommunalen 1
kooper@@ 1
zier@@ 1
Austin 0.41805409458239706
Campbell 0.40558455003709454
Cher@@ 0.7494075789153068
Erkenn@@ 1
Hubble 1
Weiss 1
bart 1
Sandstein@@ 1
Wasch@@ 1
ident@@ 1
neberg 1
ziele 1
annt 1
prüfen 1
Damen@@ 1
MP 0.26939251206457404
Mitkonsekratoren 1
Nationalspieler 1
industriellen 1
methode 1
smitglied 1
B.@@ 0.721022808034042
anstatt 1
positionen 1
rill 1
venti@@ 1
vorrangig 1
Marketing 1
Sechs 1
Sho@@ 0.591268957054379
ausreich@@ 1
gedeckt 1
wit@@ 1
äufer@@ 1
Erfindung 1
Muslime 1
ST 0.5372905489614109
cur@@ 0.14951200109181936
etik 1
ios@@ 1
maz@@ 1
Anstalt 1
Phant@@ 1
attungen 1
ausgaben 1
omorph@@ 1
Bevölkerungsentwicklung 1
Gär@@ 1
Micha@@ 1
Schmid 1
Slalom 1
Wandel 1
Wettkampf 1
einzig 1
hörte 1
iner@@ 1
synchron@@ 1
verheiratete 1
Leiterin 1
Rundbogen@@ 1
asis 0.936415687303073
beziehungen 1
kasse 1
ministerin 1
strukturel@@ 1
α 0.838746524218774
Anime 1
Handwerk@@ 1
amerikas 1
beklei@@ 1
dale 0.31287458395375173
isi 0.9273344627495219
ites 0.18641300135934116
slager 1
spezialisierte 1
.com 0.2785570525012762
Bergwerk 1
Kentucky 0.30159641645654306
Vok@@ 1
andes 1
su 1
Ansehen 1
Gerichte 1
Hep@@ 1
Islands 0.19526932542189446
Ryan 0.3656295100989393
Tradition@@ 1
anschluss 1
gezeichnet 1
neuseel@@ 1
spektive 1
sphase 1
vertik@@ 1
äure@@ 1
AG@@ 0.8931299359242686
Dallas 0.41306469435704846
Funk 1
Germania 1
stellvertretenden 1
Ensembles 1
Peters 1
Stuart 0.6187420750437423
Walker 0.3662914230753458
goldene 1
iana 0.9665602174771966
nischer 1
wich 0.6907271654795596
Aufsehen 1
Helm 1
Stimmung 1
Trich@@ 1
Versuch@@ 1
blüh@@ 1
fuß@@ 1
kot@@ 1
sin 0.7421741175919374
steuerte 1
swesen 1
Comic 1
Dagegen 1
Iwan@@ 1
Muster@@ 1
Räumlichkeiten 1
bayerische 1
enk 1
internen 1
kraftwerk 1
tner 1
Überfall 1
Filiale 1
Vertrauen 1
ganz@@ 1
vä@@ 1
ätte 1
ingu@@ 1
krö@@ 1
Bindung 1
Blättern 1
Fell@@ 1
Independent 0.33163933391440137
Vegetation 1
deckten 1
ever@@ 1
olith@@ 1
vention 1
115 1
Bauart 1
Bänden 1
Französische 1
Symph@@ 1
gewerb@@ 1
Aluminium 1
Salon 1
intern 1
manns@@ 1
niemand 1
thail@@ 1
Agentur 1
Allein@@ 1
Nap@@ 1
Network 0.24333131442385472
Symptome 1
Vierter 1
höchst@@ 1
strahlung 1
uz 1
Paw@@ 1
Umbauten 1
alliierten 1
igten 1
ischsprachige 1
sammlung 1
spark 1
Light 0.3096133862558861
Orchester@@ 1
Solo@@ 1
Spir@@ 1
ihrerseits 1
las@@ 1
verkündete 1
zahlte 1
Binnen@@ 1
Boot@@ 1
Einfluss@@ 1
Fernando 0.8630894275178753
Gewerkschafts@@ 1
Korea 0.19381809232614441
erlassen 1
lossen@@ 1
müller 1
DI@@ 1
Gewässern 1
Größen 1
Hitlers 1
Passau 1
Planungs@@ 1
Schel@@ 1
Urban 0.5364419807355703
brück 1
endgültige 1
regional 0.14193169044333054
Filmmusik 1
Logo 1
Regisseurs 1
bende 1
enschutz 1
lle 1
Adolph 1
Unterhaltungs@@ 1
alist 0.1912214790749262
ffs 0.7433865530885824
ond 0.9434008723052413
präs@@ 1
startet 1
wunder@@ 1
zufällig 1
Augsburger 1
Beobachter 1
Darm@@ 1
Elsass 1
Klammern 1
atsch@@ 1
diplomatischen 1
ektor@@ 1
entri@@ 1
franken 1
steigenden 1
theoretische 1
thes@@ 0.9405437382060479
Gewerbe 1
Kanz@@ 1
Tennisturnier 1
gesundheitlichen 1
grös@@ 1
rou@@ 1
verdäch@@ 1
ə@@ 1
Apostolischen 1
Bundesländern 1
Dennis 0.6181606842966285
Feind@@ 1
Herausge@@ 1
Inf@@ 0.9653432834168411
Kriegs 1
Reflex@@ 1
Stadtteils 1
abseits 1
dere 1
weisungen 1
zeichnungen 1
Besondere 1
Heimspiele 1
Level 1
Produk@@ 1
Regierungen 1
Schmuck@@ 1
Vie@@ 1
Zertif@@ 1
freiwilli@@ 1
gru@@ 1
philosoph@@ 1
rab@@ 0.7253223970155248
Ältere 1
Demnach 1
EN 1
Höl@@ 1
Sex 1
iy@@ 0.5288416003172886
reih@@ 1
María 0.9118112355350907
Relief 1
Seef@@ 1
assozi@@ 1
atoriums 1
bewahr@@ 1
reife 1
wirkungen 1
öffentlicher 1
Berkeley 0.6558353236061921
gewährt 1
ommer 1
rt@@ 1
Bismarck 1
Interviews 1
Planck 1
Streitigkeiten 1
Teilweise 1
Vorwürfe 1
komitees 1
rekord 1
ssitz 1
unterzeichnet 1
ängt 1
Angriff@@ 1
Boys 0.38525100453891015
Kaiserin 1
Schir@@ 1
Thompson 0.394765006365973
Wärme@@ 1
beginnend 1
gelbe 1
hilft 1
ordentlichen 1
teilgenommen 1
verbracht 1
Karosserie 1
Transpor@@ 1
derart 1
herangezogen 1
kab@@ 1
Befeh@@ 1
Gesp@@ 1
Madonna 1
Slam 1
Zwie@@ 1
giebel 1
konkur@@ 1
polizei@@ 1
protest@@ 1
Dessau 1
Klassen@@ 1
Statuen 1
Vort@@ 1
katal@@ 1
tzeit 1
ā 0.6869294139227898
Behin@@ 1
Brooklyn 0.4234581600692692
Malta 0.7973658340470996
cup 0.5157003373131926
verstorben 1
Öffentliche 1
änglichen 1
öffnen 1
Chol@@ 1
Fraktions@@ 1
Handwerk 1
Ortsnamen 1
Rechnung 1
gewinnt 1
kels 1
lateinische 1
museums 1
usa 0.9586667980532837
ös 1
Einnahme 1
KP@@ 1
abgetragen 1
erobern 1
heimlich 1
klassifiziert 1
nia 1
Birken@@ 1
Comedy 0.864373204942455
ogn@@ 1
ologien 1
umm@@ 1
weitergeführt 1
106 1
Historischen 1
Talsperre 1
gebirges 1
Überrasch@@ 1
36@@ 1
Abschied 1
Administration 0.30058909865763683
Kne@@ 1
Law@@ 0.6993241186546182
Matt 0.4401359408833564
Orientierung 1
Stere@@ 1
Tromp@@ 1
Vau@@ 1
aktion@@ 1
enkap@@ 1
iza 1
romanische 1
1763 1
Damm 1
Eul@@ 1
Gottesdienste 1
Klagenfurt 1
MO@@ 0.6291509147536801
Spl@@ 1
monati@@ 1
trin@@ 1
vorbei@@ 1
Fernsehfilm 1
Gün@@ 1
Lebensmittel 1
Wenig 1
internationales 1
zogene 1
ár 1
Fotograf 1
Zap@@ 1
itsch@@ 1
itäre 1
lé@@ 1
rio 1
spuren 1
uten@@ 1
Arten@@ 1
Bom@@ 1
Dokument 1
böh@@ 1
einheitlich 1
forts@@ 1
gie 0.9561013036462446
gleichung 1
kontrolle 1
physik 1
Gewal@@ 1
Resultat 1
Ut@@ 0.9722149603470156
Year 0.1286062381349179
ress 0.5246519712467922
sches 1
Bordeaux 1
Flö@@ 1
Pac@@ 0.8754395392857665
Stoll@@ 1
Tun@@ 1
Wiederauf@@ 1
anbau 1
erischer 1
figur@@ 1
geschlech@@ 1
lot 0.21198619581664255
symmet@@ 1
verlieren 1
Är@@ 1
Bier 1
Gleichung 1
Horror@@ 1
Lichtenberg 1
We 0.1507059390483589
begrün@@ 1
sofor@@ 1
äus 1
Ingolstadt 1
Ray@@ 0.638281474606873
Wiederwahl 1
anzut@@ 1
arme 1
feuch@@ 1
verschlech@@ 1
ügel@@ 1
Google 0.6206867203135599
Lini@@ 1
Papp@@ 1
Schnec@@ 1
Wahlbeteiligung 1
anfänglich 1
drittes 1
glänz@@ 1
ohle 1
rechteckigen 1
vereint 1
verhältnismäßig 1
Benedikt@@ 1
Leuch@@ 1
NA 0.5263492805999921
Nachkriegs@@ 1
Pilger@@ 1
Produz@@ 1
Quartett 1
Stolpersteine 1
führungen 1
repräs@@ 1
theaters 1
zubringen 1
Cass@@ 0.9360366262544363
Nass@@ 1
Rechn@@ 1
Rechten 1
Wahlperiode 1
aktiviert 1
atio 1
nacht 1
rangen 1
stags 1
1774 1
Katholische 1
Linke 1
ise@@ 1
nationalmannschaft 1
ollege 1
org@@ 1
scheiterten 1
transpor@@ 1
vertrau@@ 1
wachs@@ 1
weltweiten 1
Ähnlichkeit 1
Bauf@@ 1
Besuchern 1
Fachhochschule 1
Gebrau@@ 1
Limburg 1
Tobias 1
aph@@ 0.8791944376029835
beamten 1
lä@@ 1
panz@@ 1
prinzip 1
vollzogen 1
103 1
Out 0.3125221113902304
Spanischen 1
durchzuführen 1
hai 0.7395677978013108
jahresvertrag 1
komponiert 1
trieb 1
unserer 1
Carter 0.41958355246559514
Claus 1
Hirn@@ 1
Kardinal@@ 1
Schulden 1
Tö@@ 1
fische 1
Services 0.2618942792721854
gelt 1
jugoslaw@@ 1
tif@@ 0.977896750417358
ws 0.4222198034291293
Fäl@@ 1
Län@@ 1
Marktplatz 1
Prior@@ 1
Punk 1
Ski 1
bestände 1
etal 0.8062530333339623
königliche 1
splan 1
unterstützten 1
Bodendenk@@ 1
Wohn- 1
ausstattung 1
hess@@ 1
occ@@ 1
stellvertretende 1
treu 1
Fair@@ 0.43364879342329443
Math@@ 1
Strand@@ 1
Tas@@ 1
Variet@@ 1
ga@@ 0.976973112503063
øn@@ 1
Be 0.5044105717176168
Restaurants 1
Rudol@@ 1
Zei@@ 1
abgeschafft 1
anerkannte 1
anerkannten 1
theologischen 1
öpfung 1
Analy@@ 1
Kurve 1
Marmor 1
Medaillen@@ 1
Russisch 1
Satelliten 1
beein@@ 1
bewäl@@ 1
geeigneten 1
ll 1
ozi@@ 1
ßer@@ 1
Bestehen 1
Hé@@ 1
Kantone 1
Kontinental@@ 1
Wörter 1
festgehalten 1
german@@ 1
thematisiert 1
-Arten 1
Ausgleich 1
Berges 1
Brig@@ 1
Frühling 1
Sternen 1
stärk@@ 1
unfall 1
ässige 1
Beat@@ 1
Gehäuse 1
Meinungs@@ 1
Minden 1
head 0.046544852519008605
Amer@@ 1
BR@@ 1
Bremerhaven 1
Landeskirche 1
Sauerstoff 1
Softwar@@ 1
Weiterbildung 1
gesich@@ 1
gültig 1
him@@ 1
lasten 1
wörtlich 1
ässern 1
т@@ 1
Franco 0.810532070858324
Gedenkstätte 1
Religion@@ 1
Zypern 1
endorfer 1
ossi@@ 1
paar@@ 1
populär 1
rheinischen 1
Base 0.439555980788471
Claudia 1
Gesamtfläche 1
Industrialisierung 1
Sri 0.2725289621994815
Tauch@@ 1
Traum 1
moor 1
reißen 1
storbene 1
wan 0.5087453481348043
1740 1
Direkt 1
Guar@@ 0.8916273718910211
Parlamentswahl 1
SSR 1
Trivia 1
i. 1
programme 0.28205451190488956
Divis@@ 1
Ecken 1
Eri@@ 1
Freiwillige 1
KK 1
Kommunen 1
Reinhold 1
ensitz 1
erho@@ 1
gär@@ 1
interessi@@ 1
Bist@@ 1
Eddie 0.6476464686038761
Konsul@@ 1
Meil@@ 1
Rho@@ 1
marschall 1
pole 0.4665204437744103
reichend 1
33@@ 1
Eisenach 1
Guy 0.6216495854706977
Pelz@@ 1
g. 1
kam@@ 1
prop@@ 0.619763720760224
à@@ 1
Das@@ 1
Erleb@@ 1
Grant 0.37444114104042797
Hochwasser 1
Julian 0.862148930503066
Kurse 1
angestre@@ 1
atives 0.8266094825029395
drohte 1
empfunden 1
fehl@@ 1
genberg 1
getauft 1
jar@@ 1
rieben 1
swahlen 1
werfer 1
Großstadt 1
Lebzeiten 1
Logik 1
Ped@@ 1
Schwager 1
Warner 0.46848939186900473
aktiver 1
begonn@@ 1
bra 1
Blo@@ 1
Piet@@ 1
Rallye 1
Roß@@ 1
Schwert 1
Zü@@ 1
blut@@ 1
swissen@@ 1
voran 1
woh@@ 1
Fahrrad@@ 1
drückt 1
rüst@@ 1
seltenen 1
vergeblich 1
Ankl@@ 1
Mini@@ 1
abgekürzt 1
schlacht 1
tem@@ 1
1781 1
Land- 1
Rückrunde 1
but 0.007584159896961893
dl 1
energ@@ 1
gelesen 1
kombiniert 1
konstan@@ 1
propag@@ 1
ush@@ 0.4071779462411456
völ@@ 1
übersiedelte 1
Gesand@@ 1
Ohr@@ 1
Wasserk@@ 1
igs 1
tümer 1
volumen 1
Aussicht 1
Katalog 1
Maßnahme 1
Parallel@@ 1
Produkten 1
Rechen@@ 1
Wirtschafts- 1
appen@@ 1
betriebene 1
eld@@ 1
enhäuser 1
osten 1
unterrich@@ 1
Apost@@ 1
Camp 0.375878853654861
Hansen 1
Schwaben 1
Sportverein 1
format 0.1698567915968843
kunfts@@ 1
pfeiler 1
steil@@ 1
steuern 1
stoß@@ 1
Action 0.5110067207311183
Hauptdarsteller 1
Oregon 0.26603267940873254
Vorgang 1
aca 0.784548779879072
box@@ 1
flugzeuge 1
ides 0.5598020993272477
mexikan@@ 1
scheiden 1
vernichtet 1
Automobilen 1
IN 1
Mail@@ 1
Mathemati@@ 1
VW 1
Verwund@@ 1
arin 1
beschränk@@ 1
drücke 1
flanke 1
sei@@ 1
uta 0.9596926435080106
vorgeworfen 1
108 1
240 1
Abschaffung 1
Fir@@ 0.9775985106413442
Staatsstraße 1
Versuchs@@ 1
Warn@@ 1
beeinflussen 1
bon 0.7285694974799305
Kohlenstoff@@ 1
Neffen 1
Schwab@@ 1
antisemit@@ 1
ş 1
Agent 1
Kirchenkreis 1
Luigi 1
Schrau@@ 1
alistischen 1
gesteuert 1
iren 1
malen 1
zieren 1
Besatzungszone 1
Billboard 0.20959939182372847
Klosterkirche 1
NN 1
biet@@ 1
press@@ 1
regelmäß@@ 1
sportliche 1
tigungen 1
transport 0.22864605593339063
Nationalparks 1
Seoul 0.9579933926901446
efs 1
entwurf 1
gegossen 1
BK 1
Diesel@@ 1
Kommunisten 1
Runs 1
minist@@ 0.959470821269681
resultier@@ 1
sens@@ 0.8443634638204709
Bombar@@ 1
Gemahlin 1
Hohe 1
Jochen 1
Krä@@ 1
Lords 0.9128082448406715
Münch@@ 1
Neues 1
PC@@ 0.6978612484103721
Vision 1
engeren 1
itische 1
langjährige 1
Cooper 0.4919873286092911
Kapital 1
bün@@ 1
ernähren 1
faktor 1
rosa 1
vre 1
Feste 1
Field 0.21856429075070044
Krankenh@@ 1
Nadel@@ 1
Priester@@ 1
Reichsbahn 1
bereitung 1
bit 0.24909756521037524
einher@@ 1
iri 0.6612920766025809
protestantischen 1
zyklus 1
Anpassung 1
Fürth 1
Heimatland 1
Kommunikation@@ 1
betrachten 1
deter 1
echnik 1
fügte 1
gewalts@@ 1
währ@@ 1
ünscht 1
Alkohol 1
Alois 1
Professoren 1
Seen@@ 1
Zul@@ 1
bemerkt 1
fördert 1
nack@@ 1
ás 1
AfD 1
BE@@ 0.9617455028674514
Busse 1
Italiener 1
Krau@@ 1
Marianne 1
befahren 1
fungiert 1
gefahr 1
geho@@ 1
male 0.13833572472260008
mangels 1
nannten 1
1100 1
25.000 1
Gary 0.43311096246636466
Sätzen 1
Zagreb 1
rung 1
Einheits@@ 1
Kämpfer 1
Margarete 1
Solar@@ 1
Stadtverord@@ 1
Umland 1
moderierte 1
vorsitzende 1
Est 1
Type 0.4888960601366825
Tō@@ 1
Wrestling 0.4247677695522089
bezahlt 1
board 0.0833747653821755
kamp 1
reiter 1
ütten 1
Absol@@ 1
Abwesenheit 1
Austral@@ 1
Comm@@ 0.2947593663878205
alters 1
betrifft 1
decker 1
nig@@ 1
türkischer 1
Batter@@ 1
Bedingung 1
Gewerkschaften 1
Glockenturm 1
Hin- 1
Primera 1
Teich@@ 1
Verlu@@ 1
aker 0.43613725587881164
rhyth@@ 1
Heinrichs 1
Tante 1
gezielt 1
sebene 1
Emanuel 1
Hard 1
Herzen 1
Sok@@ 1
deportiert 1
eb 0.9706575565305807
eingeleitet 1
eschen 1
herausragende 1
omen@@ 1
tschechos@@ 1
Knight 0.4300642360986785
Pag@@ 1
Vorgaben 1
anteile 1
down 0.040873083054868295
professionellen 1
sowjetischer 1
ør@@ 1
1,1 1
Classic 0.5057548889056321
Pis@@ 1
Raj@@ 0.3000100818191749
Vorarlberg 1
längste 1
strau@@ 1
Opern 1
dreieck@@ 1
engag@@ 1
freigegeben 1
gesprä@@ 1
massi@@ 1
Anger@@ 1
Kai 1
Pfarre 1
Shō@@ 1
Spin@@ 1
asser@@ 1
betraut 1
islam@@ 1
kontrolliert 1
lies 0.12035674701573162
tempor@@ 1
vik 0.9742556334350015
wol@@ 1
Alltag 1
BB@@ 0.9929924101189992
Cot@@ 0.986313088974701
Sekunde 1
Wüste 1
königlich 1
Elite 1
Erkenntnis 1
Gemeindegliederung 1
Jonas 1
Ress@@ 1
Schles@@ 1
Synonym 1
Verschiedene 1
akten 1
führers 1
hir@@ 1
indungs@@ 1
stattfindenden 1
Europapokal 1
Krü@@ 1
Morris 0.4387352932657105
Silva 0.9926559482066933
egt 1
getragene 1
itar@@ 1
sperre 1
steigern 1
ysteme 1
Cleveland 0.3395796327711256
Heer@@ 1
Spitznamen 1
Stall@@ 1
Your 0.37109234717128586
gesetze 1
listet 1
pus 1
ältester 1
Alfons 1
Herstellers 1
Ramp@@ 1
Rue 1
Stipendi@@ 1
inn 0.9669533002861355
kritik 1
kräften 1
vermuten 1
yth@@ 0.9622881747145796
Görlitz 1
erringen 1
letztere 1
ng 0.4950670017686061
portugiesische 1
speicher 1
steigen@@ 1
Charlottenburg 1
Sey@@ 1
Tafel 1
architektur 1
flache 1
nder 1
sechste 1
smann 1
subjek@@ 1
vereinbar@@ 1
št@@ 1
Allgemein@@ 1
Anschluss@@ 1
Book 0.20388429157443302
archit@@ 1
eleg@@ 1
geworfen 1
muth 1
Äuß@@ 1
Massaker 1
Pauli 1
Ursprungs 1
Winkel@@ 1
gebau@@ 1
heutiger 1
unbedingt 1
Brothers 0.3880061381530627
Cul@@ 0.5341124788202233
Fächer 1
Protest 1
Regierung@@ 1
Satt@@ 1
Wähler 1
beschäftigen 1
freunde 1
ogenen 1
städten 1
unterhalten 1
Bedürf@@ 1
Boy 0.42467948576893905
Deh@@ 1
Java 0.7891066112825736
Kameramann 1
Mail 1
Paar@@ 1
Röntgen@@ 1
Training@@ 1
austausch 1
bereitet 1
initiierte 1
sko 1
ström 1
trockenen 1
übersetzte 1
AA 0.3675685723938488
Datenbank 1
Gefangen@@ 1
Grüne 1
Götter 1
Immobilien@@ 1
Sah@@ 0.4667649627642401
Zuschauer@@ 1
analog 1
aufenthalt 1
buddhist@@ 1
ernde 1
frequenz 1
int 0.49199550129203684
leitungs@@ 1
phy@@ 0.9839910025840737
relati@@ 1
2,2 1
AF@@ 0.5422490656285539
Denkmalpflege 1
Harold 0.576927784942008
Hub@@ 1
Proteste 1
entscheidet 1
kürzer 1
reformierten 1
roth 1
sturz 1
style 0.05923469646508095
ägyp@@ 1
с@@ 1
Blick@@ 1
Lil@@ 1
Märchen 1
Robinson 0.3933879283635905
Say@@ 0.7725670859435102
Sky@@ 0.7065186045027437
dichter 1
durchgesetzt 1
gewerk@@ 1
steilen 1
zwecken 1
ρ@@ 1
Catherine 0.5043636741125116
Dez@@ 1
Down 0.5167964359299331
Eurovision 0.8312482513108607
Liedes 1
Wenzel 1
aun 1
ents@@ 1
ländisch 1
vertraut 1
ässen 1
IR@@ 0.4887839559605882
Jason 0.45329704091373046
Mühlen 1
Norwe@@ 1
Teich 1
Zoo 1
einzel@@ 1
ny@@ 1
praktischen 1
verbund 1
Gefühl 1
Heim 1
Hybri@@ 1
Lukas 1
Schiedsrichter 1
Verbreitungs@@ 1
hervorgegangen 1
mangel 1
then@@ 1
thers 1
thin 0.5503243841688695
wiederhergestellt 1
Katholi@@ 1
atzes 1
bler 1
män@@ 1
Atlantik 1
Börse 1
Krebs 1
Matrix 1
Nähr@@ 1
Observatorium 1
Riesenslalom 1
Stifts@@ 1
Treppe 1
VEB 1
Wiss@@ 1
Zwickau 1
angeklagt 1
erteilte 1
flüsse 1
kräftig 1
zuges 1
äb@@ 1
ο@@ 1
Coast 0.16825652001919494
Commission 0.12806609271788597
Falken@@ 1
Munition 1
busch 1
dische 1
dopp@@ 1
hammer 1
unterhielt 1
wasserst@@ 1
öss@@ 1
Alabama 0.30198421216347493
Birmingham 0.3672311814187447
Bisher 1
Jules 1
Modernisierung 1
Republikaner 1
Territorien 1
Unterbrechung 1
Zahlung 1
eindeuti@@ 1
festes 1
hauser 1
messe 1
mmel 1
usses 1
ürt 1
1760 1
Championships 0.09917795826826524
Event 1
Keller@@ 1
Mittleren 1
Nobel@@ 1
Tir@@ 0.8725109126108479
besonderes 1
füh@@ 1
gewonnenen 1
här@@ 1
lass 1
ographien 1
ungsverfahren 1
verbundene 1
überarbeitet 1
Ever@@ 0.8833232341448307
Folgenden 1
Scheit@@ 1
befreundet 1
digkeiten 1
erbe 1
lehrerin 1
übergang 1
überlebte 1
Dienstleistungs@@ 1
Invent@@ 1
Linken 1
MTV 0.6100384286841921
Martha 0.9253421150420909
Nominierungen 1
Schnitz@@ 1
Survey 0.6737341751223178
issa 1
opol 1
seitlichen 1
tigkeits@@ 1
ė 1
Barock 1
Luftw@@ 1
Neutr@@ 1
aupt@@ 1
cs 0.3882299387255928
grundlegende 1
ní 1
theoret@@ 1
thol@@ 1
tilien 1
Autobi@@ 1
Berlins 1
eingang 1
schnitte 1
39@@ 1
Achsen 1
Aller@@ 1
Erfolg@@ 1
Europä@@ 1
FM 0.17897450277027233
Fün@@ 1
Gmina 0.48881425638024906
Griechen 1
RI@@ 0.86593866066241
Soh@@ 1
essions@@ 1
gelder 1
ions 0.210278953745541
vent 0.9315457223398032
verfügten 1
Head 0.2674849011106094
Stadtgemeinde 1
herrschte 1
manager 0.11497158030192861
nov@@ 0.6654201309167007
ungspolitik 1
£ 0.13434062774750138
Enth@@ 1
Grafik 1
Wohnplatz 1
nachts 1
onal 0.2993006699852087
ström@@ 1
öcken 1
1,7 1
109 1
Fachzeitschrift 1
enträger 1
ernsth@@ 1
haut 1
ordin@@ 0.7026300749665277
verschwand 1
Bolivien 1
Franchise 1
Richtlinien 1
Seiden@@ 1
anstalten 1
attung 1
einheitliche 1
koreanischen 1
lied@@ 1
Bezirke 1
Kent 0.37904661314618443
basierend 1
dahinter 1
ju 0.7372365944685358
reien 1
Ahr@@ 1
Cle@@ 0.5659724305326465
Profil 1
atori@@ 1
ausgeprä@@ 1
elberg 1
emigrierte 1
erreich@@ 1
mein 1
plant@@ 1
schiffen 1
ι@@ 1
-Klasse 1
Aufwand 1
Chart@@ 1
Konzentrationslager 1
Mine 1
Wahlrecht 1
amtlich 1
nehmer@@ 1
schlä@@ 1
Anhängern 1
Brom@@ 1
Gehalt 1
Geiger 1
Qualifikationsrunde 1
amme 1
defin@@ 1
storf 1
Gesellschafter 1
Grafik@@ 1
Malaysia 0.3385827105193696
Mariä 1
Rückgang 1
Venezuela 0.6001933404046288
anl@@ 1
benötigten 1
jenen 1
meer 1
schlechter 1
shagen 1
Befestigungs@@ 1
Inn 0.8698737208068401
Medical 0.20933876925959
Putz@@ 1
Rettung 1
Schwefel@@ 1
Snow@@ 1
Umstand 1
Widerstands@@ 1
geheim@@ 1
instrumente 1
themat@@ 1
1715 1
Akten 1
Alberto 1
Italia 1
bisch@@ 1
ierungsarbeiten 1
kaiser@@ 1
klassiz@@ 1
ogene 1
verbringen 1
wanderte 1
Matri@@ 1
archä@@ 1
beschriebenen 1
einsch@@ 1
gelte 1
meine 1
zutreten 1
Aufbau@@ 1
Gene 0.909420328511124
Gutachten 1
Hung@@ 1
Klassiker 1
Kopie 1
Lars 1
Spons@@ 1
formationen 1
skrieg 1
tons 0.3988537400643472
umzu@@ 1
züglich 1
älle 1
1773 1
Arabischen 1
Konföder@@ 1
Skilang@@ 1
bäuer@@ 1
erklär@@ 1
heimischen 1
lagen@@ 1
sektor 1
Befreiungs@@ 1
Drehbuch@@ 1
Rosenberg 1
aj 0.5210261060413421
blaue 1
echten 1
lutherische 1
onalen 1
Dichtung 1
Ortsgemeinde 1
SB@@ 1
Vegas 0.5679045898032864
ely 0.1591837789059966
ral 0.4958648409115732
AR 0.5366685448036879
Elektron@@ 1
Freimaur@@ 1
Verantwor@@ 1
entum 1
konkre@@ 1
wechselnden 1
zzo 1
üssel 1
Arme 1
Bonner 1
Kessel@@ 1
Menschheit 1
Parroquia 1
einsetz@@ 1
sichere 1
utter 1
utzung 1
wachstum 1
Grunde 1
Histori@@ 1
Marmor@@ 1
auftritte 1
durchgeführten 1
ierender 1
ränk@@ 1
verlaufende 1
Dichte 1
Wilhelm@@ 1
ads 0.2422259338707238
emit@@ 1
geräten 1
Heiden@@ 1
Leiche 1
Stoß@@ 1
antwor@@ 1
enswer@@ 1
feldes 1
gestalteten 1
gewährleisten 1
Gelegentlich 1
Japaner 1
Joan 0.6881471743442386
Kabel@@ 1
Mörder 1
Münchener 1
Pilot@@ 1
Vorgän@@ 1
Winterthur 1
asst 1
atta 0.8037455320683554
beibehalten 1
hann@@ 1
komme 1
reichende 1
Cun@@ 1
Gebiets 1
Muskel@@ 1
Nancy 0.7379166436420063
Thriller 1
Tob@@ 1
Werks 1
bom@@ 1
ffe 1
ies@@ 1
1779 1
Aquar@@ 1
Beamter 1
Beit@@ 1
Hund@@ 1
Normen 1
Susanne 1
Tast@@ 1
benutzen 1
verzichten 1
Herzogtums 1
Quartier 1
Schriftstellers 1
Volker 1
darstell@@ 1
regierte 1
rol 1
Château 1
Medium 1
Rundfahrt 1
aba 0.7648161112386426
begeister@@ 1
swahlkreis 1
vergröß@@ 1
öt@@ 1
Digital 0.44894849093732736
Sitzen 1
bereitete 1
ici@@ 0.5767673400382475
jenem 1
ständi@@ 1
wein@@ 1
107 1
1730 1
Bett 1
Moll 1
Rekorde 1
Schuld@@ 1
Untergang 1
Valentin 1
iedel@@ 1
licherseits 1
reit@@ 1
sist@@ 1
utes 0.4552907822970596
Bristol 0.4289958350219883
Held 1
Keramik@@ 1
Vermögens@@ 1
Volleyball 1
bran@@ 1
gegenseitig 1
kreuzt 1
liber@@ 0.5836229052277159
rap@@ 0.45190116465196467
t. 0.9899288793238051
Fundam@@ 1
Halt@@ 1
Präf@@ 1
Seattle 0.3364002673922993
Trump 0.36509408211742056
Verwaltungsgemeinschaft 1
ba@@ 0.9099966084495502
elie@@ 1
evangelischer 1
geboten 1
renommierten 1
schuldig 1
uter@@ 1
2,4 1
35@@ 0.7566536376593135
Kelch@@ 1
drehen 1
effizi@@ 1
erstreckte 1
erwarten 1
{ 0.6123107647898168
Österreicher 1
Müll@@ 1
Sergei 1
flü@@ 1
gebir@@ 1
owice 1
tages@@ 1
verab@@ 1
Anliegen 1
Autors 1
Fernstraße 1
Gefühle 1
Phil 0.5185820423310191
Santos 0.9746670768006184
Vereinbarung 1
bewahren 1
gross@@ 1
iet@@ 1
reguläre 1
umme 1
Apostel 1
Foto 1
Gewich@@ 1
Inbetriebnahme 1
Lett@@ 1
Niederlassung 1
bearbeitet 1
datum 1
elektrisch 1
geschützten 1
gewirkt 1
verlangte 1
Acht 1
Austragungsort 1
Kartoff@@ 1
Michail 1
Thai 0.5710187938295666
entalen 1
hügel@@ 1
iks 1
nörd@@ 1
äußert 1
Bretagne 1
Guido 1
Militärs 1
Russische 1
Vogt 1
Wahrscheinlich 1
einges@@ 1
kontra@@ 1
verständ@@ 1
Filmfest@@ 1
Ober 1
Project 0.23701526016599783
Prüf@@ 1
Strauss 1
Tisch 1
U18 1
agu@@ 0.8423535571543256
einheimischen 1
erkrankte 1
flanz@@ 1
kräf@@ 1
schi@@ 1
schmale 1
wind 0.27408443456104303
AV@@ 0.933318509670401
Agu@@ 0.8519966871255011
Empfangsgebäude 1
Entz@@ 1
Hou@@ 0.846193825073765
Neun@@ 1
Roc@@ 1
Schumacher 1
XVI. 1
bekanntgegeben 1
gramm@@ 1
stehend 1
traum 1
Diak@@ 1
Lyn@@ 0.6808820967316233
Lyrik 1
Offenbach 1
Solidar@@ 1
boden@@ 1
energie 1
hib@@ 1
ischsprachigen 1
mon 0.5915735705908162
Gedenktafel 1
Gom@@ 1
Mein 1
Rekonstruktion 1
Stür@@ 1
Theaterst@@ 1
egen 1
schöne 1
umer 1
11.@@ 0.42741361006404327
Baker 0.45806256515338145
Bois 1
Fili@@ 1
Gehö@@ 1
Großmutter 1
Hüt@@ 1
Prediger 1
Seek@@ 1
Verhaftung 1
dom 0.5426007528535035
formal 0.2854439979466298
horst 1
zuverl@@ 1
zweifelt 1
õ@@ 1
Schuss 1
anwesend 1
genauen 1
intensi@@ 1
kongress 1
pfalz 1
vereinbart 1
117@@ 1
Ammon@@ 1
Aufteilung 1
Innov@@ 1
Kontakt@@ 1
Lehmann 1
Mac 0.6607888731336128
Neut@@ 1
einigt 1
inhal@@ 1
separ@@ 1
sprinzip 1
Bahnhöfe 1
Chil@@ 0.9835942320185157
Gesamtlänge 1
SF 0.9835942320185157
Schiller 1
Spalte 1
dal 0.7930298010884301
gast@@ 1
hochwer@@ 1
indische 1
oten@@ 1
schew@@ 1
230 1
Académie 1
Albanien 1
Exper@@ 1
Handwerker 1
Louisiana 0.3101095538011091
Piano 1
Steinbruch 1
Stumm@@ 1
Tamb@@ 1
can 0.015091572396956047
fertigt 1
gefundenen 1
his 0.0027649283694572953
kri@@ 1
öcke 1
116@@ 1
Freizeit 1
Ian 0.47090486043375934
bauweise 1
hügel 1
ulierte 1
wies@@ 1
Henriette 1
Matthew 0.41962673855702415
Wright 0.379987730680302
angebunden 1
angegliedert 1
ery 0.1356380207828531
jüngsten 1
negativen 1
ries@@ 1
12.@@ 0.4191863588140758
Auswärtigen 1
Leih@@ 1
Salvador 0.8589631241192236
argentinischen 1
atiker 1
hell 1
reagiert 1
umfang@@ 1
Übersetz@@ 1
Ł@@ 1
34@@ 1
Befehlshaber 1
Beteilig@@ 1
behaupten 1
droht 1
individuellen 1
monat@@ 1
ulierung 1
в@@ 1
CO2 1
Erzähl@@ 1
Million@@ 1
Sang@@ 0.8247604632786669
Türken 1
Wellen 1
anzunehmen 1
eld 1
größen 1
klub 1
reduzieren 1
varianten 1
zivilen 1
EM@@ 0.7981520768578534
Ethnien 1
Hansestadt 1
Moos@@ 1
Westküste 1
com 0.742151328729627
elmann 1
fertigten 1
icum 1
kupp@@ 1
plus 0.3429988617220778
schrittweise 1
stal 1
Demokratische 1
Manhattan 0.45658502664897943
Schäfer 1
Wintersemester 1
untersuchen 1
Epp@@ 1
Joint 0.5974351541396277
Jubilä@@ 1
Lingu@@ 1
Zylinder 1
baum@@ 1
dul 1
enbank 1
geleiteten 1
ikations@@ 1
modelle 1
sozialer 1
strahlen 1
½ 1
Autonomen 1
Carol@@ 1
Gefängnis@@ 1
Griech@@ 1
Jährige 1
Oswald 1
Sogn 1
aar 1
arer 1
cul@@ 0.2840406559487364
eal@@ 1
tica 1
Alaska 0.4910413492267667
Belastung 1
Gespräche 1
Hul@@ 1
Keh@@ 1
Sex@@ 1
angelegte 1
erbach 1
erschaft 1
schir@@ 1
verknüpft 1
widmen 1
Entsteh@@ 1
Erklär@@ 1
För@@ 1
Iz@@ 1
Schädel 1
Statthalter 1
Toulouse 1
Wasserkraft@@ 1
Zentren 1
berühmt 1
fällig 1
gelistet 1
gewordenen 1
rick 0.4448166656924313
ří@@ 1
200.000 1
37@@ 1
Neuordnung 1
Zisterzienser@@ 1
betä@@ 1
dor 1
gewand@@ 1
nummern 1
verdient 1
175 1
Biathlon 1
Fantasy 1
Getriebe 1
Illu@@ 1
Rebellen 1
bereichs 1
ermitteln 1
fas@@ 0.862554421622842
fehlende 1
iegel 1
rücker 1
schlechte 1
τ@@ 1
Flüssen 1
Phoenix 0.5084013542084733
Rumän@@ 1
[...]
