the 1
, 1
. 1
of 1
and 1
in 1
&quot; 1
a 1
to 1
was 1
@-@ 0.9478335049240415
The 1
is 1
) 0.931344885742949
( 0.9317519758183915
for 1
as 1
on 1
with 1
by 1
&apos;s 1
that 1
at 1
from 1
his 1
an 1
In 1
he 1
were 1
which 1
are 1
it 1
He 1
or 1
be 1
had 1
also 1
; 1
: 0.8025266689203202
has 1
– 1
first 1
It 1
their 1
one 1
its 1
who 1
but 1
her 1
not 1
two 1
have 1
this 1
been 1
&apos; 1
after 1
time 1
they 1
A 1
other 1
into 1
she 1
all 1
more 1
On 1
% 1
New 1
1 1
over 1
when 1
would 1
years 1
up 1
/ 0.7141324451611197
i 1
This 1
during 1
where 1
year 1
only 1
season 1
new 1
out 1
between 1
three 1
2 1
made 1
him 1
then 1
later 1
used 1
United 1
s 1
&amp; 1
known 1
o 1
such 1
most 1
can 1
about 1
American 1
part 1
team 1
became 1
University 1
well 1
I 1
under 1
She 1
born 1
de 0.8946586586972757
than 1
including 1
ing 1
film 1
being 1
there 1
es 0.349251533471679
3 1
some 1
second 1
P@@ 1
against 1
through 1
T@@ 1
After 1
re@@ 1
while 1
before 1
many 1
y 1
work 1
S@@ 1
until 1
them 1
World 1
family 1
both 1
people 1
States 1
played 1
un@@ 1
album 1
no 1
4 1
C@@ 1
National 1
B@@ 1
name 1
al 1
released 1
in@@ 1
G@@ 1
D@@ 1
man 1
number 1
series 1
won 1
M@@ 1
age 1
life 1
As 1
area 1
y@@ 1
school 1
L@@ 1
may 1
four 1
called 1
K@@ 1
A@@ 1
May 1
ed 1
March 1
p@@ 1
September 1
January 1
city 1
career 1
state 1
N@@ 1
June 1
several 1
5 1
October 1
following 1
early 1
use 1
July 1
same 1
August 1
School 1
John 1
South 1
son 1
end 1
c@@ 1
game 1
April 1
based 1
They 1
10 1
began 1
found 1
R@@ 1
November 1
these 1
will 1
since 1
December 1
6 1
amp 1
His 1
so 0.8463885951725395
H@@ 1
W@@ 1
d@@ 1
F@@ 1
County 1
ers 1
group 1
held 1
E@@ 1
place 1
located 1
At 1
War 1
back 1
u 1
former 1
York 1
government 1
$ 1
t@@ 0.8708703695206874
V@@ 1
There 1
State 1
an@@ 0.7192837717469114
took 1
February 1
named 1
member 1
British 1
each 1
high 1
day 1
century 1
population 1
City 1
League 1
now 1
served 1
line 1
ate 1
O@@ 1
- 0.364030453391513
music 1
any 1
2010 1
station 1
’ 0.9174066329802218
ation 1
7 1
b@@ 1
ar@@ 1
company 1
song 1
However 1
did 1
around 1
received 1
home 1
led 1
J@@ 1
ar 1
s@@ 0.7827827995165864
2011 1
North 1
built 1
8 1
could 1
e 0.9333266539550862
town 1
able 1
due 1
land 1
long 1
er 0.0693744802118172
12 1
off 1
men 1
us 1
g@@ 1
like 1
single 1
k@@ 0.6364057258251731
local 1
2012 1
20 1
left 1
own 1
18 1
along 1
set 1
band 1
During 1
system 1
History 1
died 1
2014 1
species 1
five 1
side 1
published 1
ch@@ 1
public 1
2016 1
final 1
include 1
2015 1
2013 1
e@@ 1
15 1
members 1
v@@ 1
said 1
within 1
I@@ 1
m@@ 0.9965129886478667
club 1
al@@ 0.9011602694837033
f@@ 0.9435402123390005
2008 1
9 1
building 1
2009 1
large 1
because 1
way 1
world 1
i@@ 1
d 1
2017 1
2018 1
included 1
village 1
en@@ 0.44902174672277506
n@@ 0.8468688596047
third 1
Y@@ 1
2019 1
For 1
t 0.7313721374985312
small 1
2007 1
j@@ 1
French 1
2006 1
show 1
11 1
ated 1
national 1
College 1
o@@ 1
death 1
h@@ 1
last 1
play 1
children 1
election 1
football 1
am@@ 1
very 1
moved 1
2020 1
main 1
&#91; 1
&#93; 1
&apos;@@ 1
30 1
field 1
West 1
English 1
l@@ 0.8369598434925117
those 1
house 1
16 1
District 1
war 0.08832255622554641
million 1
re 1
old 1
history 1
if 1
still 1
women 1
down 1
ia 1
German 1
another 1
m 0.6049772006566881
service 1
form 1
II 1
14 1
major 1
— 1
do 1
water 1
often 1
International 1
book 1
district 1
late 1
19 1
U@@ 1
a@@ 1
ic 1
or@@ 1
London 1
River 1
at@@ 1
near 1
north 1
U.S. 1
different 1
When 1
father 1
k 1
established 1
13 1
games 1
announced 1
country 1
am 0.1170075112388888
All 1
25 1
best 1
on@@ 1
House 1
again 1
ly 1
order 1
original 1
started 1
record 1
er@@ 0.3715685475501304
ad@@ 1
w@@ 1
el@@ 0.6130798590483962
Cup 1
dis@@ 1
US 0.7574026540306307
Z@@ 0.834010666895906
ine 1
top 1
head 1
role 1
co 1
4@@ 1
per 1
south 1
six 1
17 1
u@@ 1
title 1
went 1
law 1
de@@ 1
One 1
3@@ 1
sh@@ 1
came 1
os 1
period 1
just 1
_ 0.8768119620142603
worked 1
what 1
much 1
di@@ 1
support 1
ab@@ 0.4628168501020189
joined 1
24 1
5@@ 1
among 1
st@@ 0.678945150691439
produced 1
Ch@@ 1
Sh@@ 1
England 1
using 1
2005 1
p 1
make 1
2021 1
Al@@ 1
le 1
wrote 1
given 1
th@@ 1
power 1
having 1
less 1
general 1
described 1
married 1
become 1
ley 1
next 1
non 1
ac@@ 1
These 1
community 1
21 1
player 1
development 1
total 1
European 1
even 1
returned 1
ts 1
various 1
z@@ 0.5624264358271717
Park 1
works 1
General 1
written 1
ations 1
East 1
William 1
created 1
production 1
2000 1
position 1
political 1
From 1
et 1
2004 1
ton 1
days 1
Church 1
point 1
as@@ 1
Mar@@ 1
right 1
win 1
Australia 1
site 1
n 0.8889034768010168
round 1
level 1
founded 1
! 1
= 1
continued 1
Party 1
India 1
ro@@ 1
however 1
Council 1
es@@ 0.8653247966415881
By 1
take 1
elected 1
formula 0.9477651094682831
few 1
Army 1
22 1
According 1
France 1
op@@ 1
B 1
it@@ 1
ra@@ 1
li@@ 1
High 1
Street 1
et@@ 0.9185995428732134
students 1
O 1
6@@ 1
100 1
r@@ 0.9717391417910471
west 1
church 1
signed 1
Division 1
h 1
version 1
military 1
region 1
James 1
east 1
George 1
is@@ 0.8652796288517741
em@@ 1
King 1
um 0.1515892360597961
without 1
party 1
In@@ 1
0 1
run 1
times 1
le@@ 1
match 1
con@@ 1
opened 1
event 1
ating 1
San 1
ist 0.046047558637273556
ted 1
making 1
lost 1
St. 1
C 1
23 1
President 1
7@@ 1
ap@@ 1
considered 1
recorded 1
present 1
art 1
professional 1
c 1
ian 1
television 1
California 1
appointed 1
ot@@ 1
half 1
short 1
An@@ 0.5007817562169641
full 1
international 1
Con@@ 1
America 1
ag@@ 1
language 1
Canada 1
ri@@ 1
story 1
debut 1
education 1
l 0.6892383446071405
2003 1
together 1
formed 1
research 1
style 1
&apos;t 1
ies 1
wife 1
el 0.7948091331874179
ant 1
program 1
8@@ 1
appeared 1
With 1
Association 1
TV 1
important 1
further 1
working 1
g 0.9340367397783141
en 0.3095701638541161
ship 1
Union 1
areas 1
developed 1
2002 1
28 1
ol@@ 1
Early 1
class 1
release 1
lead 1
video 1
26 1
im@@ 1
b 1
27 1
Royal 1
While 1
points 1
term 1
Australian 1
teams 1
2001 1
case 1
away 1
air 1
9@@ 1
addition 1
result 1
playing 1
St@@ 0.6392501928057676
office 1
business 1
“ 0.08133796216787426
Indian 1
ch 1
ism 1
control 1
” 1
Car@@ 1
ting 1
om@@ 1
Award 1
Club 1
average 1
every 1
Ar@@ 1
als 0.042932467017755244
Championship 1
director 1
although 1
similar 1
race 1
low 1
ans 1
body 1
example 1
design 1
list 1
others 1
Germany 1
league 1
First 1
social 1
ates 1
himself 1
x 1
across 1
ings 1
popular 1
Bar@@ 1
ana 1
lt 0.9451066785515981
project 1
common 1
David 1
president 1
we 1
Mc@@ 1
ul@@ 1
services 1
gt 0.7908910761297849
Road 1
os@@ 1
29 1
ons 1
living 1
Company 1
events 1
D 1
China 1
... 1
ra 1
live 1
ie 0.8341509846163334
Central 1
finished 1
sold 1
ic@@ 1
mother 1
ak@@ 1
though 1
Court 1
oc@@ 1
daughter 1
ent 1
Group 1
Some 1
free 1
how 1
ti@@ 1
gave 1
se@@ 1
go 1
Japanese 1
followed 1
Europe 1
road 1
never 1
der 0.007160509175431436
months 1
sub@@ 1
1999 1
L 1
Music 1
ur@@ 0.9907861443047035
ina 1
ad 1
available 1
coach 1
Thomas 1
r 1
light 1
taken 1
white 1
open 1
character 1
construction 1
qu@@ 1
z 0.5983506215425916
performed 1
completed 1
ec@@ 1
Air 1
Robert 1
designed 1
R 1
Japan 1
largest 1
stage 1
ite 1
2@@ 1
UK 1
Washington 1
reported 1
Her 1
modern 1
Charles 1
young 1
seven 1
Center 1
T 1
leading 1
ten 0.2497762748687996
remained 1
once 1
An 1
ai 1
Western 1
should 1
players 1
ey 1
1998 1
Hall 1
track 1
ally 1
ended 1
songs 1
Other 1
il@@ 1
Institute 1
process 1
originally 1
seen 1
Department 1
brother 1
Russian 1
Since 1
study 1
directed 1
refer 1
current 1
return 1
great 1
co@@ 1
ya 1
features 1
Chinese 1
eight 1
par@@ 1
performance 1
post 1
si@@ 1
1996 1
official 1
groups 1
over@@ 1
Although 1
Island 1
includes 1
Paul 1
ets 1
throughout 1
31 1
training 1
help 1
inter@@ 1
Society 1
Canadian 1
sc@@ 1
50 1
forces 1
range 1
see 1
awarded 1
featured 1
get 1
ah 1
does 1
Har@@ 1
fire 1
African 1
schools 1
currently 1
involved 1
av@@ 1
1997 1
added 1
stated 1
ard 1
information 1
red 1
eventually 1
X@@ 1
Q@@ 1
Minister 1
sent 1
episode 1
Its 1
E 1
ical 1
via 1
good 1
S 1
you 1
black 1
Academy 1
board 1
countries 1
la 1
De@@ 1
degree 1
close 1
replaced 1
Act 1
ous 1
Women 1
human 1
central 1
ary 1
court 1
either 1
usually 1
families 1
Le@@ 1
winning 1
Par@@ 1
ob@@ 1
Di@@ 1
special 1
media 1
our 1
F 1
M 1
ors 1
Africa 1
private 1
1995 1
car 1
fourth 1
placed 1
states 1
competition 1
police 1
provided 1
front 1
x@@ 1
rights 1
upon 1
1994 1
.@@ 0.8190187923472798
1992 1
killed 1
40 1
car@@ 1
reached 1
da 0.34058640551538977
Man@@ 1
be@@ 0.34980511627851424
ka 0.9747595015761724
college 1
ever 1
owned 1
center 1
Great 1
ran 1
must 1
previous 1
listed 1
To 1
km 0.4087477611478318
Spanish 1
U 0.9432207069855185
List 1
Michael 1
ground 1
above 1
ge@@ 0.349270843116176
Italian 1
ou@@ 1
Henry 1
Lake 1
des 0.021691526087563858
change 1
type 1
radio 1
least 1
ak 1
Best 1
les 1
X 1
Football 1
aircraft 1
ry 1
En@@ 1
attended 1
St 1
saw 1
active 1
Re@@ 1
related 1
for@@ 1
action 1
king 1
ov@@ 1
space 1
introduced 1
scored 1
contract 1
Republic 1
attack 1
rock 1
ter 0.3902601588089284
section 1
campaign 1
size 1
ice 1
decided 1
Awards 1
railway 1
parts 1
sp@@ 0.7823093073290782
White 1
shows 1
start 1
v 1
put 1
female 1
census 1
films 1
Career 1
out@@ 1
Ireland 1
ology 1
Saint 1
1993 1
Texas 1
river 1
success 1
1990 0.8752096741164231
per@@ 1
goal 1
studio 1
Th@@ 1
Cor@@ 1
previously 1
Ab@@ 0.3331594751284169
Museum 1
Following 1
writing 1
ong 1
1991 1
ish 1
Am@@ 1
era 1
Education 1
ator 1
mid 1
La 1
Two 1
Kingdom 1
rather 1
person 1
books 1
Mor@@ 1
division 1
Christian 1
ur 1
Be@@ 0.6460192109363004
instead 1
Black 1
almost 1
wood 1
represented 1
ma 1
ance 1
provide 1
buildings 1
mon@@ 1
force 1
successful 1
Government 1
Peter 0.9975232190589886
Art 0.7009857107953673
model 1
tournament 1
week 1
met 1
whose 1
novel 1
ity 1
Los 1
Roman 1
id@@ 1
Paris 0.9927428585567777
behind 1
health 1
lived 1
market 1
brought 1
me 1
est 1
ang 1
ay 1
10@@ 1
units 1
Committee 1
data 1
Later 1
possible 1
movement 1
structure 1
na 1
ding 1
ing@@ 0.9251334447674988
ve 1
Grand 1
&#124; 0.8003758974774037
defeated 1
especially 1
Catholic 1
Smith 1
ha@@ 1
N 1
approximately 1
hi@@ 1
base 1
pre@@ 1
allowed 1
Mary 1
Zealand 1
P 1
changed 1
taking 1
night 1
significant 1
den 0.016426970554023673
uses 1
vi@@ 1
organization 1
outside 1
industry 1
plays 1
1989 1
Championships 1
bar@@ 1
primary 1
northern 1
rate 1
soon 1
disambiguation 1
runs 1
El@@ 1
ex@@ 1
ut@@ 1
beginning 1
ep@@ 1
Soviet 1
regular 1
southern 1
um@@ 0.34490419289147234
No. 1
Life 1
1988 1
ke 0.6015014418094816
wide 1
Richard 1
lines 1
Red 1
ability 1
island 1
interest 1
summer 1
woman 1
Olympics 1
Festival 1
ov 1
hand 1
ge 0.5810438204493128
date 1
pl@@ 1
Summer 1
artist 1
towards 1
launched 1
Se@@ 1
Arts 1
ne@@ 0.958542638331658
systems 1
Bay 1
highest 1
spent 1
leader 1
ce 1
capital 1
itself 1
too 1
hit 1
ment 1
Most 1
little 1
Per@@ 1
studies 1
ter@@ 0.5965852380073334
sometimes 1
whom 1
lower 1
ford 1
closed 1
ds 1
Chicago 1
independent 1
Virginia 1
Force 1
Un@@ 0.5637567655945153
opening 1
Mon@@ 1
length 1
ir@@ 1
traditional 1
Pro@@ 1
higher 1
studied 1
western 1
operations 1
Film 0.4351709432942548
wing 1
come 1
magazine 1
room 1
army 1
ed@@ 1
Second 1
thus 1
Records 1
ani 1
bridge 1
far 1
ty 1
county 1
seat 1
running 1
generally 1
1st 1
ler 0.491952371449504
child 1
self 1
ships 1
loss 1
entered 1
og@@ 1
route 1
course 1
strong 1
issues 1
noted 1
us@@ 0.6923419065672871
future 1
collection 1
ang@@ 1
genus 1
according 1
culture 1
ville 1
te 0.1831892645298482
Ma@@ 1
J. 1
Games 1
Navy 1
pro@@ 1
1987 1
required 1
below 1
plant 1
1986 1
Mexico 1
# 1
Italy 1
G 1
ell 0.9533094716225037
network 1
writer 1
You 1
month 1
rest 1
means 1
K 1
ata 1
real 1
tour 1
Hill 1
eb@@ 0.8958625046729949
companies 1
sea 1
ne 0.8658069161798323
operated 1
ph@@ 1
af@@ 1
practice 1
Sp@@ 0.6460677862383949
ner 0.4810903539861407
od@@ 1
stone 1
eg@@ 0.915381967993829
bi@@ 1
Northern 1
Battle 1
matches 1
money 1
Many 1
1984 1
anti 1
park 1
1980 0.9967745414085414
Russia 1
selected 1
earlier 1
senior 1
cases 1
bl@@ 1
ks 1
If 1
Angeles 1
centre 1
location 1
Qu@@ 1
13@@ 0.5786150506444231
gold 1
economic 1
1985 1
results 1
ents 1
ig@@ 0.9472432334900893
property 1
Greek 1
id 1
Ac@@ 1
man@@ 1
victory 1
Ro@@ 1
increased 1
individual 1
already 1
é 0.9298606889214024
ics 1
Bo@@ 1
appearance 1
Mal@@ 1
author 1
associated 1
fl@@ 1
majority 1
numerous 1
limited 1
key 1
contains 1
older 1
activities 1
decision 1
food 1
unit 1
Joseph 1
becoming 1
singer 1
lo@@ 1
shot 1
natural 1
issue 1
serving 1
V 1
manager 1
commercial 1
Day 1
find 1
competed 1
terms 1
cover 1
going 1
Route 1
personal 1
move 1
f 0.9384142342285947
my 1
ending 1
1983 1
ver@@ 0.1620118478922157
artists 1
caused 1
love 1
ent@@ 0.2919971790039017
nine 1
ore 1
award 1
initially 1
forms 1
annual 1
income 1
access 1
ay@@ 1
cor@@ 1
standard 1
Board 1
Sir 1
Or@@ 1
supported 1
student 1
changes 1
Co@@ 1
ists 1
un 1
Wales 1
ative 1
lies 1
Service 1
end@@ 0.7494645568735743
better 1
goals 1
mostly 1
retired 1
1982 1
elections 1
trade 1
+ 1
additional 1
university 1
Irish 1
Pacific 1
ci@@ 1
Sc@@ 1
forced 1
se 0.8044954489265324
particularly 1
staff 1
Florida 1
Research 1
Sal@@ 1
cast 1
Mo@@ 1
rec@@ 1
fact 1
ach@@ 0.8952850772244009
past 1
eastern 1
claimed 1
characters 1
religious 1
Ad@@ 1
act 1
under@@ 1
ins 0.3650051190318177
ev@@ 1
chief 1
husband 1
ens 0.35922969555534234
14@@ 0.5320920602820849
Southern 1
bu@@ 1
1972 0.9469070296439672
word 1
ara 1
ah@@ 1
subsequently 1
ant@@ 1
au@@ 0.6144902507128291
thought 1
management 1
passed 1
Valley 1
Assembly 1
officer 1
complete 1
earned 1
medical 1
war@@ 1
é@@ 0.8591929888964145
1979 1
ling 1
feature 1
su@@ 1
municipality 1
plan 1
Year 1
face 1
ane 1
championship 1
battle 1
ise 1
raised 1
That 1
create 1
science 1
today 1
legal 1
politician 1
ale 0.46007611193454795
ence 1
edition 1
Public 1
Parliament 1
status 1
musical 1
remains 1
Gu@@ 1
Louis 1
entire 1
programs 1
fall 1
view 1
give 1
Congress 1
sports 1
Province 1
tri@@ 1
? 1
Jewish 1
engine 1
Al 1
-@@ 0.37779289692511725
65 1
gh@@ 1
19th 1
ness 1
relationship 1
evidence 1
1976 1
Me@@ 1
hours 1
score 1
ash 1
1974 0.9972739504846128
ino 1
ru@@ 1
2nd 1
sister 1
report 1
Old 1
1@@ 1
60 0.9425746320832079
om 1
particular 1
ion 1
1981 1
minutes 1
mar@@ 1
Queen 1
Their 1
material 1
turn 1
1945 0.5166014592658427
presented 1
Spain 1
1975 1
helped 1
1968 1
energy 1
star 1
names 1
Law 1
Mac@@ 1
1970 0.9000945954746233
Commission 1
believed 1
response 1
1978 1
referred 1
shown 1
specific 1
az@@ 1
Kar@@ 0.7643503805547098
meeting 1
0.@@ 1
Railway 1
leaving 1
Times 1
weeks 1
got 1
Democratic 1
larger 1
composed 1
Martin 1
200 1
complex 1
basketball 1
seasons 1
III 1
Science 1
Despite 1
Col@@ 1
Line 1
acquired 1
houses 1
famous 1
vote 1
ast@@ 1
Personal 1
longer 1
let 1
offered 1
Green 1
res@@ 1
Empire 1
der@@ 0.46721343732938514
certain 1
parents 1
carried 1
fight 1
People 1
bo@@ 1
takes 1
1973 1
remaining 1
tions 1
failed 1
ages 1
0@@ 1
mainly 1
ano 1
multiple 1
surface 1
footballer 1
starting 1
deal 1
he@@ 1
increase 1
promoted 1
1977 1
FC 0.6283155957842534
theory 1
Eastern 1
Series 1
graduated 1
regional 1
Lord 1
policy 1
But 1
stations 1
Su@@ 1
ality 1
il 1
need 1
federal 1
overall 1
and@@ 0.8618941986883907
native 1
source 1
Chief 1
ini 1
cost 1
A. 1
ass@@ 1
up@@ 1
Town 1
Big 1
ines 1
themselves 1
ger 0.592696578114412
ants 1
ically 1
Station 1
1971 0.9810367019833163
proposed 1
Conference 1
financial 1
subject 1
to@@ 1
ol 1
Star 1
Edward 1
12@@ 0.6323814524482797
effect 1
Ber@@ 0.7668516689214174
aged 1
male 1
ders 1
ber@@ 0.4953624152479373
operation 1
ess 1
45 1
1980s 1
medal 1
appearances 1
troops 1
th 1
Radio 1
variety 1
consists 1
1969 0.9751170706385378
separate 1
latter 1
individuals 1
Carolina 1
command 1
est@@ 0.8601432396307024
Britain 1
ized 1
ves 1
aw@@ 1
allow 1
ha 1
Poland 1
experience 1
always 1
turned 1
done 1
speed 1
Man 1
Bur@@ 1
1967 1
Brown 1
cities 1
cultural 1
ma@@ 1
middle 1
cur@@ 1
Mer@@ 1
master 1
Team 0.7322813371952797
influence 1
appears 1
square 1
broadcast 1
Dutch 1
recording 1
H 1
marriage 1
department 1
w 1
civil 1
500 0.9997416847935161
friend 1
train 1
here 1
historical 1
meaning 1
serve 1
ot 1
titled 1
all@@ 0.9002799232981721
prior 1
fifth 1
professor 1
conditions 1
20th 1
£ 1
Both 1
oil 1
di 1
ery 1
producer 1
despite 1
society 1
care 1
Lee 1
ae 1
covered 1
Ne@@ 1
Open 1
Biography 1
attempt 1
Bank 1
don 1
issued 1
tracks 1
responsible 1
words 1
discovered 1
1964 0.9996289937741407
Dr. 1
sound 1
Creek 1
1970s 1
Prince 1
arrived 1
records 1
provides 1
Love 1
Asian 1
Another 1
Ex@@ 1
managed 1
wanted 1
nearly 1
We 1
test 1
sky 1
nearby 1
foreign 1
Mark 1
ters 1
sk@@ 0.4925363303379472
recent 1
els 0.8937496362004785
Jones 1
har@@ 1
Under 1
du@@ 1
Bu@@ 1
border 1
Scotland 1
constructed 1
fish 1
ends 1
movie 1
finally 1
plans 1
transferred 1
news 1
administrative 1
sw@@ 1
actor 1
Bal@@ 1
asked 1
officially 1
Latin 1
technology 1
Pennsylvania 1
2022 1
province 1
bank 1
told 1
extended 1
participated 1
cut 1
Theatre 1
ization 1
ster 0.7834307516570929
cl@@ 1
iz@@ 0.8044384127337026
yl@@ 1
enough 1
del 0.726498222137795
Senate 1
likely 1
God 1
primarily 1
35 1
la@@ 1
Development 1
ck@@ 0.6598319710552385
W 1
For@@ 1
heavy 1
ones 1
ological 1
1960 0.8649445170285454
table 1
problems 1
might 1
value 1
Foundation 1
rural 1
ella 1
ta 1
saying 1
ir 1
review 1
1965 0.9819671998478959
ham 1
inc@@ 1
3rd 1
cause 1
Order 1
ik@@ 0.5252270105042492
1966 1
Gar@@ 1
direct 1
text 1
C. 1
editor 1
br 1
Michigan 1
coming 1
council 1
candidate 1
residents 1
pre 1
ber 0.7470004980150005
mission 1
Com@@ 1
alongside 1
elements 1
1944 0.8931082616356294
Ohio 1
Men 1
im 0.012836845173099288
yard 1
Her@@ 0.5517793892139691
workers 1
Civil 1
double 1
Health 1
directly 1
Cal@@ 1
appear 1
whether 1
friends 1
90 1
Centre 1
levels 1
places 1
function 1
newspaper 1
Francisco 1
leave 1
grew 1
ath@@ 1
nature 1
channel 1
acting 1
positive 1
products 1
Governor 1
we@@ 0.9965171592767805
cross 1
ars 1
ure 1
1990s 1
security 1
growth 1
ck 0.8341316213002841
va 1
Boston 1
Republican 1
ded 1
ways 1
Young 1
trans@@ 1
ball 1
produce 1
ill 1
Bre@@ 1
80 0.9631256939425412
mm 0.8872252530833001
renamed 1
households 1
lives 1
idea 1
makes 1
ran@@ 1
projects 1
ari 1
70 0.9874042089222839
whole 1
32 1
Scottish 1
Sar@@ 1
Williams 1
M. 1
gu@@ 1
call 1
fully 1
Asia 1
ja 0.8038960978676002
ys 1
ola 1
host 1
stars 1
activity 1
No 1
continue 1
Israel 1
lack 1
ators 1
hospital 1
Director 1
chart 1
Sea 1
numbers 1
ene 0.49454379529747133
label 1
Polish 1
Secretary 1
parish 1
divided 1
ful 1
planned 1
executive 1
res 1
Three 1
ordered 1
ring 1
1960s 1
officers 1
Johnson 1
Major 1
rule 1
conducted 1
tive 1
prominent 1
intended 1
idae 1
lands 1
den@@ 0.4668732096091322
Columbia 1
Alexander 1
Georgia 1
port 1
Fort 1
forward 1
atic 1
ats 1
notable 1
minor 1
worth 1
yards 1
organized 1
highly 1
races 1
Min@@ 1
youth 1
Mah@@ 1
Ak@@ 0.8722904131191762
El 1
row 1
females 1
Office 1
stories 1
Hospital 1
ell@@ 0.6090322938465795
moving 1
lu@@ 1
coast 1
ely 1
letter 1
ments 1
BC 1
Bl@@ 0.7607931603774372
soldiers 1
Highway 1
Tri@@ 0.9180008224712651
removed 1
commonly 1
revealed 1
1962 0.9027957129306792
au 0.3398993695267665
no@@ 1
CD 1
stop 1
ala 1
me@@ 1
Pre@@ 1
formerly 1
join 1
1948 0.9353969083851631
administration 1
Middle 1
ren@@ 1
1963 0.9352434561574624
Avenue 1
scene 1
yet 1
basis 1
ancient 1
ica 1
quality 1
capacity 1
ish@@ 1
ok@@ 0.6504710126374406
color 1
bus 1
yn@@ 1
Pl@@ 0.9413179908956786
My 1
ade 1
ub@@ 1
effects 1
1942 0.9533405958067657
Super 1
att@@ 1
Historic 1
follows 1
Bill 1
tra@@ 1
settlement 1
ile 1
distance 1
ying 1
treatment 1
paper 1
Sydney 1
singles 1
smaller 1
awards 1
quickly 1
News 1
dedicated 1
ath 1
ada 1
Sk@@ 0.9498240067384836
purchased 1
Also 1
air@@ 1
floor 1
Corps 1
ita 1
Gra@@ 0.9489823794360843
B. 0.39721836673805805
ward 1
Cl@@ 1
charge 1
fellow 1
potential 1
leaders 1
press 1
initial 1
ble 1
comes 1
weight 1
Tour 0.9414192079283457
drama 1
historic 1
1940 0.9063386668134318
ities 1
facilities 1
giving 1
immediately 1
ann@@ 1
union 1
ase 1
assistant 1
2.@@ 1
War@@ 1
Coast 1
defeat 1
Ver@@ 0.14328415506189401
assigned 1
gl@@ 0.8936573832582595
firm 1
4th 1
Du@@ 1
q@@ 1
te@@ 0.7630882739414583
BBC 1
focus 1
positions 1
pass 1
ee 1
respectively 1
owner 1
estimated 1
Ministry 1
ā@@ 1
Chi@@ 1
1939 0.7487155909259392
ney 1
median 1
1961 0.8889609735668108
1941 0.9286412978298498
winner 1
Ho@@ 1
Jack 1
64 1
efforts 1
conference 1
declared 1
Jersey 1
Bi@@ 0.751207248877804
em 0.3840169202252133
serves 1
identified 1
article 1
E. 1
Of 1
ker 0.6996372507145487
types 1
1946 0.8314703436110273
clubs 1
typically 1
Little 1
housing 1
1956 0.8811196097551787
relations 1
cars 1
Far@@ 1
pe@@ 1
ze 0.7426530881923241
J 1
1943 0.9334550289963959
mo@@ 1
Blue 1
ow@@ 1
poor 1
compared 1
build 1
physical 1
green 1
reach 1
gun 1
inside 1
largely 1
Ros@@ 1
founder 1
gained 1
needed 1
probably 1
format 1
Airport 1
Federal 1
tion 1
agreed 1
percent 1
He@@ 0.7703670417625182
com@@ 1
bre@@ 1
Olympic 1
featuring 1
flight 1
S. 1
ites 1
Victoria 1
roles 1
amount 1
Kh@@ 1
attention 1
ash@@ 1
que 1
destroyed 1
operating 1
captured 1
trial 1
ena 1
ud@@ 1
hosted 1
scale 1
Illinois 1
Pe@@ 1
upper 1
van 1
votes 1
1958 0.9020581449810902
museum 1
Post 1
website 1
ational 1
dy 1
street 1
branch 1
Earth 1
super@@ 1
Justice 1
gen@@ 0.41066599083889527
gas 1
committee 1
Berlin 0.21457754904017853
Sub@@ 1
languages 1
Rock 1
Jean 1
Pal@@ 1
widely 1
distribution 1
1950 0.7557539840432447
paid 1
ho@@ 1
H. 1
crew 1
sl@@ 1
sources 1
W. 1
ac 1
acy 1
mixed 1
confirmed 1
piece 1
communities 1
hold 1
Tra@@ 1
suffered 1
online 1
agreement 1
wall 1
accepted 1
Scott 1
direction 1
occurred 1
Mount 1
Li@@ 0.9850238664778777
Lu@@ 0.990758522020382
computer 1
leadership 1
cell 1
ranked 1
á@@ 0.8944471946318899
Each 1
leaves 1
Bel@@ 0.9039040274822204
semi 1
meet 1
Frank 1
combined 1
ye 1
pay 1
scoring 1
miles 1
sts 1
bor@@ 1
5th 1
estate 1
designated 1
territory 1
taught 1
metal 1
adopted 1
Supreme 1
episodes 1
Iran 1
academic 1
alist 1
hard 1
nation 1
job 1
Corporation 1
1947 0.8667525775442111
keep 1
product 1
Kong 1
FM 1
cre@@ 1
recognized 1
Dis@@ 1
Elizabeth 1
rep@@ 1
net 1
therefore 1
von 0.0075342053316415445
mer@@ 0.7415932211412823
fell 1
plants 1
1957 0.8796697370940147
Massachusetts 1
concept 1
formation 1
Kal@@ 0.9448733296259652
Hong 1
ama 1
Islands 1
mentioned 1
Dar@@ 1
approach 1
pressure 1
min@@ 1
resulted 1
bed 1
code 1
Korea 1
teacher 1
1959 0.9001577420218667
felt 1
Before 1
44 1
bar 0.5065179436204921
camp 1
ro 1
ette 0.9020024773320013
ue 1
sex 1
ory 1
reviews 1
mass 1
equipment 1
iting 1
alone 1
titles 1
purpose 1
Sports 1
analysis 1
ms 1
prison 1
draw 1
dance 1
nominated 1
ist@@ 0.7712231652236203
Bor@@ 0.8548777150658453
campus 1
Sur@@ 1
1952 0.8117326891465182
mis@@ 1
recently 1
heart 1
critical 1
Time 1
urban 1
ier 0.7711803795815979
presence 1
io 1
expanded 1
Ke@@ 1
Ram@@ 1
method 1
gar@@ 1
Family 1
champion 1
tic 1
Stadium 1
albums 1
silver 1
ki 1
platform 1
store 1
connected 1
Duke 1
account 1
Born 1
ca 1
box 1
parties 1
Bishop 1
Background 1
ei@@ 0.5084279229300294
ese 1
Professor 0.5827096982599835
Tom 1
Swedish 1
break 1
ung 0.1140398838505244
1955 0.8963318825991388
offers 1
secondary 1
granted 1
buried 1
Pan@@ 1
ised 1
remain 1
content 1
R. 1
Top 1
Home 1
ati@@ 1
Police 1
Santa 1
voice 1
Inter@@ 0.9324305000142417
difficult 1
Prime 1
birth 1
losing 1
marked 1
Cross 1
except 1
sons 1
1949 0.8147946961345061
versions 1
growing 1
imp@@ 1
solo 1
Library 1
minister 1
literature 1
Pakistan 1
expected 1
clear 1
Mad@@ 1
organizations 1
reduced 1
newly 1
Atlantic 1
75 1
1954 0.8767988797171299
36 1
ett 0.8986252202188519
sites 1
oo@@ 1
Geography 1
Joe 1
Ser@@ 1
ri 1
Don 1
rules 1
Final 1
minute 1
defined 1
tree 1
painting 1
De 1
Ko@@ 0.9250938903088547
her@@ 0.686701977437863
disease 1
1.@@ 1
models 1
damage 1
digital 1
performances 1
pop 1
ser@@ 0.6871795868892019
sides 1
finals 1
fields 1
spread 1
density 1
st 0.6073249791078309
ving 1
background 1
surname 1
aya 1
Jackson 1
ski 1
offer 1
Toronto 1
inspired 1
resulting 1
mountain 1
Fl@@ 0.683839497688764
ington 1
ography 1
problem 1
Brazil 1
tax 1
Br@@ 0.9105557274196072
comedy 1
laws 1
Ontario 1
quarter 1
sign 1
po@@ 1
suggested 1
if@@ 1
Mas@@ 1
true 1
Val@@ 1
couple 1
amb@@ 1
33 1
existing 1
sm@@ 0.8647356604630744
Rome 1
aid 1
figure 1
ain@@ 1
twice 1
creation 1
seats 1
1953 0.8637452429187708
Po@@ 1
continues 1
males 1
generation 1
travel 1
obtained 1
allows 1
Bridge 1
Premier 1
share 1
Media 1
sur@@ 1
chairman 1
Hor@@ 1
eh@@ 0.6630392522079649
Nations 1
Sch@@ 0.14891011212051838
Tr@@ 0.8770552683806376
Cre@@ 1
contemporary 1
La@@ 1
ron 1
1951 0.891019159884301
Social 1
twenty 1
Military 1
association 1
develop 1
providing 1
kept 1
ill@@ 1
actually 1
festival 1
Mur@@ 1
showed 1
surrounding 1
Korean 1
6th 1
Show 1
1938 0.648269113702416
ps 1
lake 1
Township 1
spring 1
cells 1
1918 0.8641262591363443
sen 0.3481616543690527
uk@@ 1
j 1
finish 1
split 1
ek 1
teaching 1
guitar 1
Ter@@ 1
P. 1
Tor@@ 0.712395331625111
feet 1
officials 1
entry 1
tr@@ 0.8597091840110028
aj@@ 1
Game 1
Philadelphia 1
forest 1
1936 0.8430373795437
lin 1
aries 1
becomes 1
Hu@@ 1
occupied 1
lot 1
rank 1
ao 1
effort 1
boat 1
Tar@@ 1
tried 1
our@@ 1
ial 1
ther@@ 1
sets 1
USA 0.38625132375411925
Mag@@ 1
arrested 1
Me 1
authorities 1
claims 1
politics 1
Bra@@ 1
Regiment 1
injury 1
die 0.003929808653114694
berg 0.26088862202392915
tor 0.9816577003416163
billion 1
Over 1
300 0.9784534135549903
‘ 0.4592205704571942
actions 1
ear@@ 1
Because 1
Book 1
receive 1
ns 1
allowing 1
ches 1
situated 1
San@@ 1
za 1
alism 1
34 1
Wilson 1
ten@@ 0.4219541007490798
Billboard 1
regions 1
tower 1
stand 0.2682258437026195
unique 1
1920 0.8090626590190434
Among 1
gives 1
met@@ 1
ari@@ 1
dead 1
attacks 1
Long 1
ls 1
Mr. 1
greater 1
tradition 1
block 1
anti@@ 1
sixth 1
Can@@ 1
knowledge 1
hour 1
7th 1
ging 0.24932425063637514
younger 1
villages 1
38 1
impact 1
ji 1
opposition 1
captain 1
goes 1
Captain 1
blue 1
visit 1
dark 1
interview 1
sales 1
micro@@ 1
Sweden 1
applied 1
Sun 1
Community 1
Sw@@ 1
traffic 1
facility 1
bur@@ 1
Netherlands 1
Lady 1
ement 1
succeeded 1
AS@@ 1
arms 1
400 0.8962437963281956
Technology 1
ens@@ 0.34567584262252127
comm@@ 1
metres 1
sal@@ 1
ula 1
hall 1
figures 1
Port 1
scientific 1
deep 1
headquarters 1
Between 1
Wal@@ 0.6284854348321354
rating 1
effective 1
Like 1
theatre 1
Oxford 1
Cap@@ 1
ow 0.3668285973268565
Register 1
bs 1
claim 1
Daniel 1
hom@@ 1
brothers 1
1937 0.8473222575330169
climate 1
software 1
00 1
Ri@@ 0.9053807105229613
1950s 1
library 1
approved 1
und@@ 1
bought 1
risk 1
baseball 1
Death 1
cannot 1
Emperor 1
ions 1
ain 1
Ag@@ 1
says 1
governor 1
ip@@ 1
electric 1
Maria 0.5239059044894475
know 1
promotion 1
commander 1
critics 1
tells 1
kind 1
classes 1
Medical 1
Andrew 1
1,@@ 1
gra@@ 1
Gro@@ 1
look 1
squad 1
ces 1
Due 1
commissioned 1
returning 1
Mat@@ 1
blood 1
ab 0.07601361051734186
As@@ 1
brand 1
drive 1
settled 1
Shi@@ 1
Field 1
ek@@ 0.5920498223849001
trains 1
completely 1
mile 1
Special 1
aired 1
simply 1
image 1
fighting 1
Taylor 1
1919 0.798467084409204
environment 1
bra@@ 1
arts 1
read 1
advanced 1
tw@@ 0.9918406541459562
Arthur 1
big 1
achieved 1
Char@@ 1
visited 1
Mu@@ 1
Americans 1
Golden 1
Castle 1
faced 1
Business 1
ering 1
gi@@ 1
situation 1
And 1
industrial 1
ged 1
rise 1
ins@@ 1
Mike 1
Le 1
Mountain 1
° 0.6499292731823775
fer@@ 0.6805532672513741
materials 1
frequently 1
Te@@ 1
Van 1
authority 1
Press 1
ably 1
ou 1
Dec@@ 1
rates 1
oldest 1
cr@@ 1
actress 1
publication 1
Sam@@ 1
something 1
reports 1
ties 1
chosen 1
can@@ 1
ind@@ 1
sexual 1
holds 1
ver 1
Francis 1
ast 1
supply 1
murder 1
acts 1
amp@@ 1
relatively 1
refused 1
Ash@@ 1
Several 1
Chris 1
things 1
Four 1
Pi@@ 1
wa 1
48 1
portion 1
household 1
ses 1
tor@@ 0.8684025025946749
ach 0.45972463941242053
necessary 1
Mi@@ 1
1930 0.7912877537672367
racing 1
Ly@@ 1
pri@@ 1
creating 1
Bro@@ 1
foot 1
standing 1
bring 1
1933 0.5415512214993631
fans 1
Master 1
transport 1
starring 1
ea 1
Del@@ 1
kn@@ 0.8611947990474038
Gr@@ 0.7113261742915594
Today 1
concert 1
theme 1
18th 1
begins 1
joint 1
Junior 1
ium 0.9415453478789437
consisted 1
gr@@ 1
perform 1
focused 1
enter 1
conflict 1
notes 1
ths 1
broke 1
winter 1
Federation 1
1914 0.8563775809754569
founding 1
scheduled 1
1917 1
methods 1
Plot 1
prot@@ 1
Davis 1
42 1
Y 1
principal 1
head@@ 1
iv@@ 1
8th 1
Prize 1
selling 1
performing 1
agent 1
origin 1
beat 1
Mil@@ 1
begin 1
ie@@ 0.43856002569417996
ora 1
receiving 1
del@@ 1
alized 1
ona 1
safety 1
unable 1
articles 1
transfer 1
55 1
9th 1
1935 0.801572296162181
Reg@@ 0.7434939800626841
audience 1
Bob 1
exchange 1
dec@@ 1
fought 1
attempted 1
rich 1
des@@ 1
ili@@ 1
Beach 1
retirement 1
vice 1
districts 1
hy@@ 1
pair 1
tu@@ 1
prevent 1
follow 1
attacked 1
normal 1
girls 1
Network 1
structures 1
EP 1
subsequent 1
ges 1
employed 1
economy 1
FA 1
oh@@ 0.910747301795726
AC 1
Minnesota 1
reason 1
eng@@ 0.5885608693205127
yn 1
So@@ 1
covers 1
partner 1
ura 1
Nar@@ 1
try 1
bro@@ 1
setting 1
Journal 1
opposed 1
reference 1
Mexican 1
ire 1
architecture 1
AR@@ 1
kin 1
Region 0.3220548325296131
ko 1
expansion 1
towns 1
write 1
morning 1
shared 1
daily 1
Kansas 1
temple 1
Ger@@ 0.4214447651257146
defense 1
boy 1
dropped 1
inv@@ 1
machine 1
converted 1
Si@@ 1
37 1
System 0.6541691900792677
Er@@ 0.20570648631453972
Ben@@ 1
1928 0.8239216509333741
NCAA 1
Reception 1
determined 1
ologist 1
q 1
unknown 1
protection 1
app@@ 1
du 0.7583204248762577
launch 1
entitled 1
Forest 1
Inc. 1
39 1
Missouri 1
animals 1
ron@@ 1
NFL 1
representing 1
To@@ 1
Cro@@ 1
fiction 1
permanent 1
Steve 1
qualified 1
L. 1
girl 1
shortly 1
increasing 1
Ham@@ 1
je@@ 1
Mel@@ 0.9892146582236239
Wil@@ 0.9731496977848253
crime 1
presidential 1
Ha@@ 0.8854418881785305
sense 1
Jr 1
volume 1
ock 1
Melbourne 1
cat@@ 1
Ru@@ 0.7670308471181941
Description 1
attempts 1
influenced 1
mark 1
D. 1
educational 1
trees 1
engineering 1
copies 1
derived 1
1929 0.8251435995411621
ts@@ 0.4539672079891569
ly@@ 1
Ph@@ 1
ut 0.6695806506062569
1934 0.7239846073588743
Sa@@ 1
sport 1
Lewis 1
Au@@ 0.8117821474120452
Fe@@ 1
Area 1
back@@ 1
ultimately 1
Co 1
Gold 1
,000 1
go@@ 1
Ban@@ 1
US@@ 1
Moscow 1
guest 1
vehicles 1
stay 1
bronze 1
represent 1
e.g. 1
int@@ 1
Fox 1
citizens 1
Ed@@ 1
properties 1
ick 1
Memorial 1
Jim 1
birds 1
West@@ 0.3836743267493635
ai@@ 1
extensive 1
highway 1
cancer 1
global 1
tran@@ 1
Night 1
airport 1
constituency 1
mer 0.5964634647883044
say 1
Gor@@ 1
resources 1
contributed 1
maximum 1
Power 1
tro@@ 1
mayor 1
containing 1
Is 1
learning 1
onto 1
Muslim 1
powerful 1
centuries 1
Nor@@ 1
simple 1
ib@@ 1
meant 1
ots 1
edge 1
pieces 1
ids 1
Stephen 1
Turkish 1
flow 1
Sunday 1
Queensland 1
hockey 1
Country 1
bury 1
ga 1
peace 1
Live 1
Wisconsin 1
comp@@ 1
laid 1
tur@@ 1
institutions 1
drug 1
guns 1
passing 1
application 1
controlled 1
ians 1
locations 1
Sciences 1
Kan@@ 0.8202871821165475
More 1
sector 1
phase 1
41 1
post@@ 1
Do@@ 1
hands 1
ole 1
farm 1
1924 0.8671750018108152
Cape 1
walls 1
i.e. 1
domestic 1
offices 1
views 1
headed 1
atory 1
holding 1
memory 1
Project 1
pur@@ 1
Vi@@ 1
sought 1
castle 1
cra@@ 1
card 1
vehicle 1
Des@@ 1
armed 1
1932 0.8116802733037457
slightly 1
Television 1
Tur@@ 0.9681631205468668
identity 1
documentary 1
beyond 1
ven@@ 1
condition 1
1912 0.9305184561761388
temperature 1
Vietnam 1
lin@@ 0.8804318371295685
forming 1
Song 0.9363481133087773
establishment 1
Turkey 1
developing 1
Production 1
Sel@@ 0.9290423389488295
letters 1
recognition 1
Cambridge 1
supporting 1
ads 1
yellow 1
Prior 1
zone 1
expressed 1
Tennessee 1
ago 1
search 1
iti@@ 1
mor@@ 1
í@@ 0.8416077072892176
reasons 1
invited 1
Norway 1
mat@@ 1
proved 1
funding 1
och@@ 1
rail 1
fin@@ 0.9052602642794247
Indiana 1
aka 1
lyrics 1
consecutive 1
height 1
bit 1
ize 1
hill 1
1922 0.9143675854258216
educated 1
matter 1
Philippines 1
Point 1
candidates 1
glass 1
producing 1
Khan 1
Super@@ 1
want 1
3.@@ 1
occurs 1
Upon 1
Jews 1
Tro@@ 0.9350664174923314
horse 1
Christmas 1
Cam@@ 1
doing 1
Lo@@ 0.9362723500809267
stock 1
functions 1
technical 1
hotel 1
screen 1
Manchester 1
rugby 1
1927 0.8499293082985523
lie 1
Hal@@ 0.9929847916994277
abandoned 1
contained 1
zed 1
Dan@@ 1
brown 1
52 1
lic@@ 1
finishing 1
bodies 1
1921 0.8721623419187888
G. 1
writers 1
bands 1
Go@@ 1
Native 1
loan 1
F. 1
orders 1
factory 1
journalist 1
Labour 1
Swiss 1
Services 1
needs 1
speech 1
ung@@ 0.4313512834026892
contact 1
independence 1
Notable 1
Don@@ 1
col@@ 1
rac@@ 1
dates 1
successfully 1
MP 1
grade 1
bound 1
ning 1
Hot 1
patients 1
category 1
1925 0.8259587999284839
Pen@@ 1
Land 0.32562595012701795
Maryland 1
judge 1
ric@@ 1
bill 1
dic@@ 1
Affairs 1
refers 1
Gal@@ 1
investigation 1
Pet@@ 1
1926 0.8831545864265825
1931 0.8683445794864554
fleet 1
joining 1
IV 1
architect 1
incorporated 1
negative 1
Class 1
We@@ 0.9376673666409718
ular 1
violence 1
planning 1
core 1
Arizona 1
royal 1
uc@@ 1
Norwegian 1
oon 1
Portuguese 1
Building 1
combat 1
existence 1
alternative 1
COVID 1
Then 1
Harry 1
ceremony 1
Studies 1
decades 1
reaching 1
Ol@@ 1
operate 1
Channel 1
maintained 1
ati 1
rooms 1
Tournament 1
resigned 1
multi 1
Ge@@ 0.3725405497064799
1923 0.8739540577572044
Pol@@ 0.7629757647086705
basic 1
hi 1
roads 1
voted 1
Sol@@ 0.7921421642218743
Pur@@ 1
PA 1
composer 1
arch@@ 1
literary 1
herself 1
Oregon 1
mine 1
My@@ 1
merged 1
Infantry 1
Pr@@ 0.8594559561394941
shape 1
ades 1
regarding 1
rot@@ 1
Austria 1
graduate 1
vers 1
specifically 1
ó@@ 1
Cur@@ 1
junior 1
Colorado 1
honor 1
ose 0.7857323897292302
hired 1
rear 1
1910 0.8428561109429239
installed 1
tly 1
Hol@@ 0.9067894876425606
enemy 1
cal@@ 1
Bri@@ 1
ries 1
sel@@ 0.6845683370483339
Q 1
Fre@@ 1
establish 1
ston 1
adi@@ 1
sted 1
trained 1
Foreign 1
Walter 0.7942796569218464
Men@@ 1
exhibition 1
Kam@@ 1
51 1
shaped 1
ute 1
Dor@@ 0.8945704348099636
ess@@ 0.6284097623412006
ex 1
Dun@@ 1
straight 1
reg@@ 0.9296276263377269
Entertainment 1
observed 1
secretary 1
so@@ 1
Ali 1
1916 1
49 1
References 1
illa 1
collected 1
fuel 1
stating 1
Representatives 1
connection 1
nuclear 1
classical 1
fi@@ 1
registered 1
ami 1
argued 1
pilot 1
display 1
1915 1
Revolution 1
of@@ 1
No@@ 1
New@@ 1
wins 1
ba 1
ays 1
ious 1
ug@@ 0.9019478794275918
Sri 1
passes 1
ruled 1
47 1
Red@@ 1
marine 1
43 1
funds 1
wi@@ 1
Medal 1
affected 1
worldwide 1
Places 1
1900 0.7579101015559364
Human 1
def@@ 1
Kn@@ 0.6400615978149226
About 1
Gi@@ 1
someone 1
mental 1
Switzerland 1
Ta@@ 1
representative 1
scenes 1
Political 1
finds 1
religion 1
Census 1
Cat@@ 1
Holy 1
exist 1
Albert 0.9478119183419877
enti@@ 0.9259714843483959
95 1
mal@@ 1
Winter 1
ato 1
entrance 1
etc 1
question 1
Egypt 1
serious 1
heard 1
occur 1
promote 1
heavily 1
Ford 1
engaged 1
ined 1
ova 1
ost@@ 0.7002628244591639
cap@@ 1
ony 1
importance 1
T. 1
protein 1
yer 1
Ba@@ 0.9207249347808835
iron 1
At@@ 0.937565743050148
9.@@ 1
avoid 1
regarded 1
* 0.062323886954609296
Islamic 1
choice 1
Head 1
ace 1
46 1
ion@@ 1
SR 1
carry 1
meters 1
statement 1
Singapore 1
Arab 1
Only 1
inhabitants 1
Miller 1
composition 1
MA 1
mann 0.18374110326283993
failure 1
Though 1
Design 1
Hel@@ 0.730131754973557
northeast 1
Pope 1
What 1
Management 1
Earl 1
tie 1
grounds 1
roof 1
DC 1
Pri@@ 1
8.@@ 1
poet 1
oy@@ 1
dra@@ 1
selection 1
poetry 1
3,@@ 1
gate 1
ster@@ 0.5344629925757286
ously 1
programme 1
price 1
incident 1
internal 1
AD 1
consisting 1
sion 1
powers 1
improve 1
storm 1
praised 1
concluded 1
fre@@ 1
Security 1
oli@@ 1
think 1
onic 1
Member 1
Z 0.8712273579250599
toward 1
Av@@ 1
programming 1
1930s 1
Miss 1
credited 1
stadium 1
compete 1
fast 0.3380355436329898
page 1
spot 1
session 1
sections 1
Howard 1
iers 1
invasion 1
17th 1
adult 1
det@@ 1
Youth 1
driver 1
sey 1
Professional 1
wards 1
twelve 1
gain 1
Mul@@ 1
entirely 1
May@@ 1
homes 1
Fer@@ 1
Is@@ 0.9593334291827905
Regional 1
85 1
Im@@ 1
Bureau 1
protect 1
stri@@ 1
municipal 1
hand@@ 1
rare 1
weapons 1
Liberal 1
Main 0.7351762530825776
passenger 1
foundation 1
not@@ 1
causing 1
Temple 1
ym@@ 1
conc@@ 1
target 1
ahead 1
dem@@ 0.911117178813621
SA 1
iss@@ 0.7697100186555502
ky 1
IS@@ 1
trying 1
divisions 1
possibly 1
Rem@@ 1
agency 1
users 1
advance 1
gets 1
Forces 1
cy@@ 1
reserve 1
Thus 1
boys 1
54 1
Square 1
kill 1
1913 0.8917621271591994
peak 1
quite 1
pan@@ 1
tors 1
Israeli 1
Ukraine 1
inf@@ 1
Em@@ 0.7751794691714626
closely 1
Greece 1
Tony 1
Vice 1
draft 1
Je@@ 1
Tu@@ 1
Hamilton 1
starred 1
SS 0.9277518913477544
Operation 1
ius 0.8263944935558316
Gen@@ 0.6092350105429319
environmental 1
cricket 1
Ay@@ 1
66 1
Hockey 1
historian 1
Free 1
stra@@ 1
Kentucky 1
ff@@ 0.5016799917312362
Az@@ 1
ently 1
starts 1
Ben 1
Vol@@ 1
pp@@ 0.7398350359779725
sale 1
ich@@ 0.5792666315501439
door 1
Whit@@ 1
ake 1
personnel 1
Houston 1
briefly 1
15@@ 0.8603846598879832
asi@@ 1
premiered 1
charged 1
standards 1
calls 1
Cha@@ 1
believe 1
steel 1
employees 1
animal 1
AT@@ 1
Naval 1
exp@@ 1
opera 1
sa 1
Brigade 1
Da@@ 1
ideas 1
wind 1
Hy@@ 1
broken 1
Cr@@ 1
seconds 1
escape 1
Anne 1
On@@ 1
killing 1
Jan@@ 1
br@@ 0.7558221244376279
Senior 1
ft 0.6786256757970066
improved 1
accused 1
northwest 1
CA@@ 1
Sand@@ 0.8905177237237571
ap 1
án 1
AM 1
Lar@@ 1
ures 1
1911 0.8772963056372567
Fin@@ 1
ong@@ 1
sell 1
equal 1
corner 1
ern@@ 0.43161559480440675
oph@@ 1
ances 1
stands 1
opportunity 1
chain 1
Third 1
Patrick 1
user 1
Administration 1
agricultural 1
ered 1
Rural 1
Stone 1
paintings 1
drawn 1
sive 1
char@@ 1
seventh 1
down@@ 1
š@@ 0.7112933132591363
tim@@ 1
describes 1
Works 1
distributed 1
regularly 1
sk 1
val@@ 1
Engineering 1
ul 1
Pat@@ 1
your 1
ik 0.3342550890072338
Squadron 1
introduction 1
Marine 1
courses 1
speaking 1
ited 1
istic 1
Iowa 1
tropical 1
99 1
rem@@ 1
injured 1
dr@@ 1
Once 1
chose 1
water@@ 1
really 1
16th 1
Ocean 1
por@@ 1
do@@ 1
aff@@ 1
residence 1
Comm@@ 1
extension 1
ards 1
ame 1
Light 1
resistance 1
5,000 1
Jesus 1
wave 1
und 0.0022529359858233975
53 1
rated 1
Hotel 1
ón 1
reading 1
reduce 1
dale 1
Brian 1
fine 1
fo@@ 1
Prix 1
CO@@ 1
wh@@ 1
applications 1
Nov@@ 1
Simon 1
weather 1
dating 1
values 1
owners 1
ture 1
mi@@ 0.9973007435224261
sing 1
Ap@@ 1
Bon@@ 1
Tre@@ 0.9437699437073738
etic 1
56 1
rel@@ 1
Space 1
ail 1
calling 1
combination 1
humans 1
step 1
eman 1
dry 1
inger 0.3815799877369211
I. 0.35933467843424327
sol@@ 1
cer@@ 1
objects 1
67 1
1908 0.9010296040409157
islands 1
77 1
awa 1
cent@@ 1
formal 1
Samuel 1
journal 1
ban@@ 1
neighborhood 1
osa 1
gene 1
rose 1
equ@@ 1
63 1
ethnic 1
earliest 1
ack 1
racial 1
Executive 1
mind 1
stages 1
str@@ 0.561215888325997
address 1
stores 1
Fame 1
decade 1
Anderson 1
getting 1
hal@@ 0.6652662308411511
strength 1
itions 1
nor 1
ric 1
advantage 1
ned 1
survived 1
interior 1
demand 1
Danish 1
Star@@ 0.9505019831713772
cul@@ 1
debuted 1
Communist 1
frame 1
yl 1
57 1
causes 1
Diego 1
Water 1
replace 1
Bat@@ 1
engineer 1
PC 1
strike 1
Lin@@ 0.8743504970648766
ey@@ 1
factors 1
organisation 1
dated 1
valley 1
eye 1
72 1
Pro 1
southeast 1
DVD 1
ank@@ 0.8079572892635415
looking 1
Sam 1
Out 1
partnership 1
hor@@ 1
Rugby 1
cycle 1
experienced 1
Modern 1
plane 1
ration 1
mi 1
adjacent 1
Bowl 1
Commonwealth 1
Il@@ 0.9342805676918284
interests 1
Oklahoma 1
mill 1
Mayor 1
heads 1
leads 1
Raj@@ 1
oned 1
Alabama 1
Gre@@ 1
operates 1
singing 1
signing 1
Heritage 1
.com 1
greatest 1
K. 1
typical 1
Sm@@ 1
notably 1
onal 1
criminal 1
musician 1
Philip 1
hin@@ 0.5453492179241877
71 1
engines 1
Tokyo 1
Program 1
bass 1
Children 1
Ti@@ 1
Frederick 1
churches 1
ys@@ 1
goods 1
leg 1
lis 1
ard@@ 1
cher 0.6206150315198822
68 1
Legislative 1
committed 1
ela 1
pur 1
painted 1
Imperial 1
script 1
20@@ 1
distinct 1
link 1
Mississippi 1
contain 1
So 0.20131208504280101
participate 1
techniques 1
Quebec 1
bad 1
Juan 1
Allen 1
reception 1
designs 1
mp@@ 0.889364530652259
phone 1
bri@@ 1
mouth 1
SC 0.7110626829400294
opposite 1
tel@@ 0.6948420956889118
bottom 1
seems 1
ō 0.7727452268008017
Detroit 1
Anthony 1
Lieutenant 1
Railroad 1
ax@@ 1
Village 1
rejected 1
ech@@ 1
hundred 1
Sha@@ 1
Antonio 1
ger@@ 0.22235402233150872
charges 1
theater 1
Han@@ 1
vocals 1
ali@@ 1
Cu@@ 1
philosophy 1
Mak@@ 1
Fire 1
MS 1
budget 1
measures 1
signal 1
mining 1
86 1
Hungarian 1
stood 1
comic 1
collaboration 1
musicians 1
Cemetery 1
fired 1
Christ 1
Czech 1
piano 1
Baseball 1
Hollywood 1
chemical 1
damaged 1
elli 1
Clark 1
7.@@ 1
Independent 1
pi@@ 1
Argentina 1
examples 1
equivalent 1
gender 1
plot 1
southwest 1
Adam 1
Gallery 1
didn 1
emb@@ 1
Douglas 1
protected 1
Magazine 1
residential 1
62 1
coal 1
details 1
arm 1
jazz 1
76 1
Local 1
easily 1
ado 1
ord@@ 0.8819389186473683
Pra@@ 1
anc@@ 1
ali 1
2,@@ 0.9025329058235986
Var@@ 1
bul@@ 1
duty 1
Band 0.19180195983297602
motion 1
58 1
gro@@ 1
emp@@ 0.8741679989254298
flying 1
jo 1
why 1
Lincoln 1
ental 1
links 1
sub 1
form@@ 0.5804225523784767
ened 1
ote 1
skills 1
ste@@ 1
88 1
acted 1
capture 1
Miami 1
Rec@@ 1
businesses 1
Ob@@ 1
criticized 1
hr@@ 0.5892800991927568
Constitution 1
purchase 1
missions 1
Moore 1
lawyer 1
accompanied 1
winners 1
Doctor 1
Five 1
Gordon 1
secret 1
96 1
1906 0.8717576952483662
inner 1
sequence 1
aut@@ 0.9226487076084238
defeating 1
Denmark 1
tier 1
actors 1
Bell 1
Iraq 1
assumed 1
passengers 1
determine 1
flag 1
She@@ 1
costs 1
off@@ 1
Up 1
admitted 1
Reserve 1
champions 1
pro 0.42456246418526683
items 1
medium 1
communication 1
dar@@ 0.8011788136026607
reality 1
Win@@ 0.9190962027712206
intelligence 1
provincial 1
1905 0.8250560957382227
Dur@@ 1
electronic 1
path 1
69 1
contrast 1
maintain 1
flat 1
AC@@ 1
borough 1
Puerto 1
freedom 1
acid 1
documents 1
1907 0.819041036320237
ke@@ 1
Athletics 1
78 1
li 1
ition 1
images 1
retained 1
Rose 1
delivered 1
elling 1
Dra@@ 1
ni@@ 1
acc@@ 1
factor 1
ching 1
Hungary 1
contest 1
sil@@ 1
reaction 1
Louisiana 1
bishop 1
Ukrainian 1
regiment 1
non@@ 1
Not 1
extra 1
habitat 1
IC@@ 1
oma 1
74 1
Belgium 1
banks 1
ih@@ 1
routes 1
arranged 1
commission 1
device 1
request 1
Harvard 1
1,000 1
61 1
attached 1
Ottoman 1
amm@@ 0.774848270729843
contributions 1
Marie 0.8736659129815472
anda 1
formally 1
ello 1
hydro@@ 1
publications 1
Anna 0.6546825604140909
Ju@@ 1
driving 1
heat 1
Singles 1
streets 1
Tak@@ 1
00@@ 1
1909 0.8805676704730178
da@@ 1
DNA 1
prize 1
reign 1
showing 1
chair 1
inn@@ 0.7991100856049564
poem 1
Trust 1
Wh@@ 1
visible 1
ond@@ 1
brief 1
hel@@ 1
caught 1
sn@@ 1
Ku@@ 0.966545544765295
classified 1
tures 1
linked 1
accident 1
yp@@ 1
ched 1
deputy 1
burg 0.291728193266543
purposes 1
Tam@@ 1
anniversary 1
persons 1
tries 1
hip 1
Palace 1
Demographics 1
shooting 1
Op@@ 1
gs 0.941403641628192
courts 1
Kur@@ 0.3688567589071077
ownership 1
ox@@ 1
Dublin 1
ked 1
trip 1
naval 1
od 1
59 1
crisis 1
Season 1
Connecticut 1
hosts 1
colonial 1
Brazilian 1
represents 1
biggest 1
Good 1
shop 1
behavior 1
ray 1
painter 1
attend 1
ows 1
onia 1
pandemic 1
profit 1
600 0.9017497076718156
investment 1
significantly 1
Kim 1
anna 1
han 1
12th 1
87 1
restored 1
CEO 1
Rights 1
ail@@ 1
nothing 1
top@@ 1
nar@@ 1
interested 1
Additionally 1
ram 1
RA@@ 1
See 0.48203455172826676
fixed 1
Age 1
filed 1
difference 1
84 1
Tamil 1
save 1
ere 0.2566964784728568
Max 0.5769940520737016
visual 1
object 1
Cas@@ 1
boats 1
folk 1
guard 1
sis 1
understanding 1
carrying 1
fashion 1
publishing 1
translated 1
Margaret 1
ABC 1
concerns 1
flows 1
separated 1
sed 1
Saturday 1
Edinburgh 1
policies 1
eh 1
Os@@ 1
falls 1
Cast@@ 1
Cy@@ 1
ef@@ 1
ough 1
franchise 1
tied 1
enc@@ 1
13th 1
stopped 1
yan 1
abad 1
pr@@ 0.8234557116095534
dynasty 1
ater 1
ored 1
adapted 1
ancy 1
Mountains 1
actual 1
98 1
Internet 1
chance 1
appearing 1
150 0.9003102049839501
Sy@@ 1
Week 1
degrees 1
duties 1
bird 1
4,@@ 0.8099515616418963
land@@ 0.48107188733302414
sem@@ 1
Kon@@ 0.22986016976495996
township 1
syn@@ 1
ila 1
learned 1
ises 1
83 1
require 1
Cleveland 1
note 1
thing 1
wounded 1
ine@@ 1
Gl@@ 0.625061545869239
ti 1
ł@@ 0.9132494696556847
competitions 1
Montreal 1
Portugal 1
Mont@@ 0.684792313568752
mobile 1
ry@@ 1
Austrian 1
Metropolitan 1
occupation 1
IN@@ 1
defensive 1
1904 0.8608610735667663
arrival 1
ass 1
spec@@ 1
Even 1
institution 1
ishing 1
SP@@ 1
eth@@ 1
Rad@@ 0.6048432344044019
Ka@@ 1
missing 1
popularity 1
Mus@@ 1
membership 1
81 1
crossing 1
flowers 1
Ass@@ 1
ign@@ 1
qualifying 1
tennis 1
Deputy 1
sin@@ 0.6539439871315315
Ra@@ 1
filled 1
medicine 1
Broadway 1
Guard 1
lay 1
ith 1
oring 1
Ray 1
faculty 1
fort 0.6591149218934571
Ryan 1
daughters 1
Atlanta 1
Now 1
Command 1
legislation 1
relative 1
waters 1
scholars 1
A.@@ 1
severe 1
responsibility 1
ensure 1
hits 1
Defense 1
97 1
Walker 1
roughly 1
Jo@@ 1
che 0.3848978782278092
weekly 1
15th 1
pun@@ 1
Colonel 1
measure 1
adding 1
map 1
Bay@@ 1
CA 1
lists 1
79 1
eta 1
ingly 1
Black@@ 1
Battalion 1
pal@@ 1
verse 1
Bol@@ 1
locality 1
testing 1
covering 1
suggests 1
thousands 1
perhaps 1
Lan@@ 1
aki 1
92 1
ales 0.7145930333300968
Global 1
gh 1
Comp@@ 1
storage 1
mean 1
Lawrence 1
peaked 1
Indonesia 1
cont@@ 1
pet@@ 1
800 0.8555413710099494
Malaysia 1
1901 0.922045770173926
Seattle 1
involving 1
AS 1
priest 1
Construction 1
offensive 1
wor@@ 1
Fi@@ 1
Li 1
Welsh 1
vision 1
prepared 1
stein 0.2460123859265288
poly@@ 1
ok 1
extremely 1
Dev@@ 1
successor 1
ming 1
turns 1
José 1
93 1
fe@@ 0.9587943641832962
ze@@ 0.8714550145985884
practices 1
ff 1
stayed 1
Dal@@ 1
14th 1
bringing 1
windows 1
Vis@@ 1
94 1
Sav@@ 1
mid@@ 1
brick 1
narrow 1
Chairman 1
med 1
ranking 1
Por@@ 0.8986761056493919
aspects 1
hu@@ 1
ret@@ 1
otherwise 1
alization 1
criticism 1
qui@@ 1
reform 1
moth 1
Champions 1
10th 1
subjects 1
fan 1
graduating 1
Bul@@ 1
č@@ 0.7395550972328052
16@@ 1
expression 1
commune 1
ome 1
coastal 1
pol@@ 1
vo@@ 1
ito 1
91 1
challenge 1
Mos@@ 0.8916662183116392
ban 1
1903 0.8714096988546661
authors 1
technique 1
print 1
Harris 1
Studios 1
walk 1
explained 1
1902 0.892636676728712
ris 1
respect 1
Round 1
cards 1
Met@@ 0.7738537062728782
restaurant 1
Sab@@ 1
Schools 1
cited 1
AM@@ 1
parliament 1
justice 1
prime 1
son@@ 1
dia 1
returns 1
talk 1
chi 1
che@@ 1
context 1
Eric 1
pattern 1
wear 1
nations 1
electoral 1
ands 1
heritage 1
Nazi 1
Upper 1
pen@@ 1
ising 1
roll 1
assembly 1
poverty 1
Singh 1
Alan 1
prisoners 1
Sarah 1
assistance 1
leg@@ 1
D.C. 1
vol@@ 1
edited 1
teachers 1
Liverpool 1
82 1
Kor@@ 0.37749175197781576
devices 1
bal@@ 1
Commander 1
Cra@@ 1
Through 1
89 1
neur@@ 1
Vienna 1
Disney 1
Front 1
breaking 1
changing 1
drop 1
ensis 1
Gil@@ 1
plus 1
Transport 1
differences 1
esh@@ 1
description 1
Culture 1
alists 1
Med@@ 1
rig@@ 1
universities 1
lig@@ 1
Pu@@ 1
73 1
forests 1
innings 1
oo 1
OS 1
window 1
je 0.21679604493353907
stream 1
pool 1
replacement 1
Track 1
Gulf 1
Officer 1
Orchestra 1
appointment 1
credit 1
loc@@ 1
novels 1
victims 1
garden 1
Pa@@ 1
Dean 1
Crown 1
lock 1
Wood 1
parliamentary 1
entering 1
labor 1
classic 1
dae 1
childhood 1
grown 1
Bab@@ 1
sting 1
Grant 1
Ni@@ 0.9178006844907131
hat@@ 1
ements 1
markets 1
Cathedral 1
mounted 1
LA 1
Kat@@ 0.7314420015157638
Ball@@ 0.8959158662952849
evening 1
ST@@ 1
Meanwhile 1
Kennedy 1
tail 1
fly 1
brain 1
capable 1
listing 1
scheme 1
equipped 1
Chart 1
medieval 1
10.@@ 1
Boys 1
Player 1
parallel 1
soil 1
Basketball 1
Alliance 1
Ross 1
guitarist 1
depth 1
safe 1
1920s 1
branches 1
Rio 1
10,000 1
AN@@ 1
Ann@@ 1
elle 0.23461520027188265
grow 1
Lor@@ 1
Camp 1
NBA 1
replacing 1
my@@ 1
temporary 1
ced 1
ō@@ 1
UN@@ 1
eyes 1
Review 1
controversy 1
requirements 1
Birmingham 1
spoken 1
but@@ 1
translation 1
components 1
Tom@@ 1
coverage 1
Your 1
solution 1
Conservative 1
Rock@@ 1
drawing 1
ota 1
Nag@@ 1
hot 1
threat 1
TA 1
offering 1
01 1
appeal 1
fishing 1
medals 1
Carl 0.40351156893293877
Kelly 1
ulate 1
Kevin 1
ean 1
Baltimore 1
Cer@@ 1
downtown 1
finding 1
Agency 1
Lower 1
SE@@ 1
critic 1
Jordan 1
Garden 1
Hills 1
Ry@@ 1
facing 1
wooden 1
Athletic 1
cy 1
Trans@@ 1
squadron 1
Pittsburgh 1
ă@@ 1
debate 1
opinion 1
Arkansas 1
studying 1
slow 1
itt@@ 0.9227441946626298
oid 1
instance 1
soccer 1
cia 1
struck 1
vessels 1
artistic 1
Ltd 1
ram@@ 1
&apos;m 1
Donald 1
Fu@@ 1
filmed 1
Energy 1
task 1
Dem@@ 0.5622974928197713
declined 1
ny 1
Thompson 1
PS 0.7544883397908466
are@@ 1
Trump 1
50@@ 1
Jane 1
itive 1
ished 1
threatened 1
approval 1
fac@@ 1
broad 1
powered 1
processes 1
Morgan 1
Heart 1
picture 1
railroad 1
uk 1
Campbell 1
Metro 1
boundary 1
friendly 1
dam 1
nomination 1
Oc@@ 1
AA 1
element 1
celebrated 1
Opera 1
1898 0.8852024084562435
losses 1
denied 1
proposal 1
dog 1
modified 1
raise 1
Voivodeship 1
11th 1
ida 1
increasingly 1
driven 1
AP@@ 1
Russell 1
Sim@@ 0.9563433028197148
Cos@@ 1
burn 1
manufacturing 1
voting 1
Convention 1
á 0.788285765242431
eighth 1
influential 1
km2 1
Here 1
Test 1
hair 1
requires 1
ented 1
treated 1
frequency 1
skin 1
tank 1
Che@@ 1
existed 1
Pin@@ 1
ately 1
ei 0.5055795829328531
wine 1
Murray 1
ag 0.7540997717808227
ce@@ 1
ust 1
lasted 1
feel 1
ops 1
v. 0.4004110383969902
Training 1
pres@@ 1
experiences 1
Daily 1
bility 1
competing 1
considerable 1
instruments 1
Information 1
Rob@@ 1
Roger 1
Lane 1
ison 1
bert 0.8652734649166881
aria 1
handed 1
dig@@ 1
Ker@@ 1
Nelson 1
End 1
annually 1
oral 1
carbon 1
outs 1
Stewart 1
NBC 1
emergency 1
Kent 1
reputation 1
Hom@@ 1
sor@@ 1
Arm@@ 1
gun@@ 1
vin@@ 1
Orthodox 1
Dan 1
oms 1
oy 1
esh 1
Kin@@ 0.8483904157920847
web 1
fur@@ 1
surrounded 1
Tal@@ 0.5909343404768336
landing 1
Haw@@ 1
Ren@@ 1
Girls 1
message 1
Bangladesh 1
Bou@@ 1
strategy 1
achieve 1
closure 1
lane 1
lat@@ 1
questions 1
Dallas 1
Our 1
sie 0.015353571903550566
suspended 1
Peace 1
papers 1
hum@@ 1
sli@@ 1
Finland 1
genre 1
executed 1
Authority 1
ref@@ 1
proper 1
progress 1
Hay@@ 1
let@@ 1
stat@@ 1
Brothers 1
1899 0.8610304232210252
BA 1
involvement 1
Austin 1
All@@ 0.6218314230537464
portrayed 1
sec@@ 1
Wood@@ 1
limit 1
Franklin 1
mut@@ 1
strongly 1
log@@ 1
Around 1
affairs 1
collections 1
colour 1
uted 1
visitors 1
concrete 1
artillery 1
helping 1
somewhat 1
ort 0.3556749508358532
rounds 1
secure 1
vessel 1
ori 1
Alex 1
F.C. 1
completion 1
meets 1
indicated 1
zz@@ 1
09 0.7920108971218385
Medicine 1
amateur 1
charts 1
mu@@ 1
mod@@ 1
Romania 1
adaptation 1
ulation 1
AI@@ 1
constant 1
Pierre 0.9207048274700284
kar@@ 0.6816058611691459
Ten 1
count 1
movements 1
tory 1
itor 1
Princess 1
penalty 1
Stanley 1
preserved 1
sions 1
Originally 1
drew 1
survey 1
fund 1
championships 1
CS@@ 1
cs 1
Fri@@ 0.8795941897435408
Ur@@ 0.3485875258104541
etta 1
Real 1
bo 1
recordings 1
Robinson 1
touchdown 1
AP 1
Dance 1
Senator 1
Bruce 1
favor 1
Taiwan 1
08 0.886247083351748
expedition 1
Mission 1
Express 1
huge 1
funded 1
Six 1
sponsored 1
owed 1
grant 1
CE@@ 1
sy 1
ú@@ 1
dies 0.24395520221907768
soundtrack 1
Dave 1
enn@@ 0.3830539476981616
Trade 1
Wright 1
stic 1
1890 0.8543564273285958
Ki@@ 1
accounts 1
&apos;re 1
Baron 1
han@@ 1
CBS 1
Unlike 1
alleged 1
elled 1
ax 1
distinguished 1
Ga@@ 1
V. 0.5351861034965388
ania 1
Marshall 1
deaths 1
option 1
rival 1
Utah 1
ulated 1
uncle 1
elevation 1
ush 1
populations 1
decline 1
eleven 1
kers 1
Way 1
conf@@ 1
Son@@ 0.9679290923262959
representation 1
vel@@ 1
eliminated 1
Racing 1
sees 1
lec@@ 1
surviving 1
Lam@@ 1
Adams 1
ams 1
cop@@ 1
signs 1
thirty 1
í 0.9172887245064086
Belgian 1
camera 1
ide 1
Critical 1
definition 1
Spring 1
tered 1
Organization 1
Pap@@ 0.8695638505272374
junction 1
gre@@ 1
donated 1
lia 1
Christopher 1
250 1
zi@@ 0.4117215712042821
Economic 1
Ok@@ 1
Vel@@ 1
Cab@@ 1
cm 0.348208694426321
dist@@ 1
counties 1
songwriter 1
umb@@ 1
ush@@ 1
ika 0.915813338185914
participation 1
App@@ 1
Camp@@ 1
affiliated 1
ved 1
suit 1
tic@@ 1
Within 1
oun@@ 1
Brooklyn 1
consider 1
lo 1
mountains 1
arrest 1
effectively 1
Sound 1
pped 1
Ty@@ 1
organised 1
Na@@ 1
classification 1
illegal 1
eng 0.819248600618002
Spec@@ 1
Carter 1
doubles 1
wa@@ 1
Ste@@ 1
Silver 1
Just 1
ready 1
Ann 1
ris@@ 1
Victorian 1
Nick 1
Movement 1
una 1
Who 1
themes 1
izing 1
grand 1
05 0.8295161685823186
radi@@ 1
Graham 1
directors 1
tons 1
Norman 1
pat@@ 1
Instead 1
contested 1
Treaty 1
UEFA 1
1896 0.8512043307134377
benefit 1
jobs 1
load 1
Portland 1
ws 1
relief 1
lets 1
widespread 1
lieutenant 1
emerged 1
attributed 1
organ 1
oning 1
itors 1
Der@@ 1
act@@ 1
infrastructure 1
tical 1
discovery 1
rh@@ 1
Go 1
cent 1
wal@@ 0.8693202395413044
shares 1
manner 1
Rep@@ 1
controversial 1
tal@@ 0.924245298574636
Bachelor 1
Place 1
Ah@@ 1
happened 1
Theater 0.405922018881727
FIFA 1
oth 1
pick 1
printed 1
eling 1
output 1
sy@@ 1
fer 0.38455781997930444
Jimmy 1
Out@@ 1
Wor@@ 1
Victor 1
Alfred 0.7457742061103751
Hi@@ 1
Tel@@ 1
conduct 1
1897 0.8754514919510845
ham@@ 1
5,@@ 0.7316633016476011
departure 1
pping 1
wheel 1
recommended 1
depending 1
shore 1
speak 1
ū@@ 1
Arch@@ 1
occasionally 1
spoke 1
Trophy 1
Tim 1
pe 1
tall 1
Staff 1
Sin@@ 1
wild 1
sign@@ 1
Tower 1
continuing 1
Tim@@ 1
tests 1
Cultural 1
circuit 1
cos@@ 1
rivers 1
tes 0.13647659758443484
Carlos 1
stable 1
suicide 1
agriculture 1
couples 1
runner 1
Muhammad 1
Thailand 1
employment 1
ø@@ 1
1895 0.844355012555371
demolished 1
characteristics 1
Mun@@ 1
Shar@@ 1
visiting 1
dominated 1
Egyptian 1
si 1
fruit 1
minimum 1
Leg@@ 0.9172692825092347
fit 1
protest 1
domain 1
God@@ 1
NHL 1
ination 1
Bad@@ 1
gone 1
landscape 1
newspapers 1
ear 1
attracted 1
ii 1
videos 1
Ky@@ 1
itation 1
meetings 1
seed 1
uch@@ 0.7727873907654598
Mand@@ 1
posted 1
solid 1
whereas 1
Serbian 1
Tan@@ 1
counter@@ 1
Draft 1
describe 1
Shortly 1
designer 1
roots 1
steam 1
anything 1
das 0.006436335620828506
bel@@ 0.2933762741441144
youngest 1
tribe 1
AL@@ 1
olog@@ 1
Mol@@ 0.9468960071739354
resolution 1
Dam@@ 1
Gran@@ 1
Fair@@ 1
Iron 1
ction 1
feed 1
Wrestling 1
channels 1
Arabic 1
ices 1
journey 1
ty@@ 1
Matt 1
whilst 1
Fleet 1
eda 1
blocks 1
don@@ 1
venue 1
1000 0.5656710852095788
Glasgow 1
Girl 1
ils 1
traveled 1
Romanian 1
cold 1
processing 1
Judge 1
chapel 1
massive 1
Richmond 1
learn 1
4.@@ 1
ases 1
bing 1
kh@@ 1
Further 1
viewed 1
Lov@@ 1
satellite 1
Defence 1
mot@@ 1
patient 1
underground 1
ander 1
ez 1
bers 1
cousin 1
Capital 1
injuries 1
chapter 1
assault 1
faith 1
entertainment 1
architectural 1
trading 1
Moon 1
surgery 1
versus 1
RE@@ 1
longest 1
cin@@ 1
ope 1
platforms 1
column 1
FI@@ 1
adi 1
align 1
Champion 1
maintenance 1
Windows 1
remainder 1
tools 1
Limited 1
accept 1
1893 0.8944238694142332
CH@@ 1
Benjamin 1
mode 1
aceae 1
tre@@ 0.5167326621690639
Canal 1
Prot@@ 0.7733821474977337
LP 1
associate 1
wings 1
Afghanistan 1
erected 1
Jerusalem 1
Serbia 1
Sat@@ 1
sentenced 1
Boy 1
belonging 1
generated 1
ras 1
Lev@@ 1
moment 1
representatives 1
07 0.8508197449273899
doctor 1
motor 1
missed 1
Billy 1
ruling 1
Knight 1
protests 1
grave 1
occasions 1
lan@@ 1
turning 1
hundreds 1
endemic 1
ification 1
Base 1
Air@@ 1
Gary 1
document 1
infantry 1
shi@@ 1
inch 1
enh@@ 0.32847531252613865
keeping 1
owing 1
writes 1
eth 1
anth@@ 1
hearing 1
Maine 1
everything 1
phot@@ 1
Mid@@ 1
21st 1
Roy 1
ert 0.17893841173459776
agents 1
centers 1
scope 1
ori@@ 1
1889 0.9408300262128219
Sil@@ 0.8943510941091987
ree 1
vocal 1
Cricket 1
ump@@ 1
cancelled 1
easy 1
Distribution 1
terminal 1
rapidly 1
diameter 1
transition 1
Historical 1
integrated 1
ira 1
ks@@ 1
Res@@ 1
competitive 1
suffering 1
tenure 1
Will 1
counter 1
encouraged 1
Indians 1
defence 1
17@@ 1
1894 0.933028280078378
aker 1
colspan 1
les@@ 1
watch 1
Bas@@ 0.8136999198509017
Pres@@ 1
concerned 1
begun 1
gers 0.9627840000571095
colony 1
rat@@ 0.5259413615353196
Bush 1
stroke 1
producers 1
Kir@@ 0.9215393084545971
transportation 1
1892 0.8971127700464637
Nigeria 1
bid 1
governments 1
Tru@@ 1
Germans 1
supplies 1
regime 1
aur@@ 1
claiming 1
Mediterranean 1
Bell@@ 1
South@@ 1
Hampshire 1
Seven 1
defending 1
doors 1
bel 0.3319828963542919
bin 1
Not@@ 0.43617161833236057
knew 1
agencies 1
aga 1
grandfather 1
Morris 1
reportedly 1
vis@@ 1
1885 0.8981477809315133
periods 1
Las 1
ood 1
exists 1
marketing 1
schedule 1
Islam 1
Matthew 1
ratio 1
by@@ 1
descent 1
Note 1
Hur@@ 1
ills 1
Jam@@ 1
N. 1
elec@@ 1
gan 1
1891 0.9182058856311145
Ven@@ 1
concern 1
Chile 1
memorial 1
ni 1
greatly 1
steps 1
Hispanic 1
ix 1
ud 1
Fund 1
Up@@ 1
Last 1
crowd 1
iny 1
kg 0.6567656133336784
assist 1
cu@@ 1
send 1
short@@ 1
thousand 1
Madrid 1
absence 1
tell 1
Kr@@ 0.4508423020386183
aks 1
Municipality 1
normally 1
sentence 1
categories 1
relationships 1
Bristol 1
Finnish 1
Stra@@ 0.8311807581469726
ig 0.18714470364679434
Natural 1
supports 1
CP@@ 1
ologists 1
EU 0.6125834097897612
jo@@ 1
releases 1
Ran@@ 1
ua 1
Delhi 1
afterwards 1
lap 1
oe 1
aire 1
license 1
Books 1
athletes 1
tional 1
Ward 1
ques 1
supporters 1
indigenous 1
isation 1
cabinet 1
possession 1
horses 1
ranks 1
Lanka 1
characterized 1
path@@ 1
yr@@ 1
gen 0.1144402419307605
inaugural 1
É@@ 0.8046277716869649
Arena 1
Maj@@ 1
marks 1
1888 0.8925694225017139
Johnny 1
ple@@ 1
Fr@@ 0.8336567171634872
6.@@ 1
conservative 1
audio 1
lers 0.7629912645913765
Kil@@ 1
ninth 1
Back 1
tar@@ 1
Sem@@ 1
Orleans 1
Yorkshire 1
Sor@@ 0.8041665373151193
concerts 1
stor@@ 1
Jan 0.785033574881196
unusual 1
participants 1
CC 1
RO@@ 1
creative 1
ride 1
Wayne 1
spending 1
RC 1
frequent 1
06 0.8767921371409628
aqu@@ 1
behalf 1
seeking 1
abroad 1
resident 1
Mitchell 1
itz 0.24635843076654637
gradually 1
avi@@ 1
ense 1
Until 1
ship@@ 1
Honours 1
Sum@@ 1
aro 1
rows 1
cro@@ 1
honour 1
profile 1
art@@ 0.6394661742370408
ening 1
obtain 1
percentage 1
aimed 1
igh@@ 1
zi 1
04 0.7642550641533399
Ken@@ 1
Rico 1
any@@ 1
researchers 1
Ir@@ 0.8116233594369417
NS@@ 1
styles 1
picked 1
Nicholas 1
Zone 1
aine 1
relocated 1
Greater 1
shell 1
ico 1
bat@@ 1
the@@ 0.9159747482286628
immediate 1
advertising 1
aw 1
pra@@ 1
Farm 1
deployed 1
earning 1
fitted 1
makeup 1
ew@@ 0.7165497983980817
recovered 1
sum 1
Evans 1
amongst 1
commanded 1
scholar 1
ours 1
segment 1
Late 1
panel 1
produces 1
statue 1
vic@@ 1
Alice 1
seek 1
Part 1
publicly 1
ther 1
ridge 1
rit@@ 0.6004724909514242
toured 1
Pos@@ 0.7845367075673833
poems 1
Transportation 1
constitution 1
ees 1
exception 1
fied 1
SC@@ 1
Work 1
networks 1
string 1
lam@@ 1
legs 1
Kl@@ 0.24477783254350238
rebuilt 1
territories 1
compilation 1
genetic 1
ify 1
bone 1
Songs 0.8581068119489205
borders 1
Nam@@ 1
Charlie 1
Jason 1
Labor 1
asing 1
restoration 1
star@@ 1
Category 1
mag@@ 1
Fellow 1
attending 1
transmission 1
sen@@ 0.46609036315635716
ée 0.9194140914815978
Beijing 1
Pan 1
dor@@ 0.8006978929562972
instrumental 1
rain 1
asa 1
apparently 1
cable 1
symbol 1
UN 1
opportunities 1
add 1
ceased 1
kl@@ 0.2702206610826957
component 1
Sl@@ 1
Vancouver 1
Warner 1
licensed 1
onlyinclude 0.5634843288760092
CE 1
ER@@ 1
Jar@@ 1
tom@@ 1
rescue 1
ased 1
viewers 1
pole 1
1865 1
abuse 1
dual 1
Members 1
fair 1
spiritual 1
intersection 1
identify 1
ner@@ 0.5472591160745748
rapid 1
rop@@ 1
quar@@ 1
cau@@ 1
uz@@ 1
2,000 1
Andy 1
Warren 1
mel@@ 0.382869106238171
significance 1
substantial 1
thesis 1
asp@@ 1
ball@@ 1
oli 1
band@@ 1
Ul@@ 0.7758793981959161
convention 1
Dr@@ 0.9368894184167887
Kol@@ 0.565852463243623
voters 1
Liga 0.23294603342495057
businessman 1
assi@@ 1
soci@@ 1
Lim@@ 1
apart 1
legislative 1
monument 1
craft 1
extent 1
secured 1
exposed 1
perfect 1
plate 1
corporate 1
S.@@ 1
contribution 1
submarine 1
Milan 1
Harrison 1
Rom@@ 0.74694288220861
IS 1
Jeff 1
assisted 1
possibility 1
1880 0.8304967688465387
Orange 1
aver@@ 1
boo@@ 1
suitable 1
wedding 1
1870 0.759276139398851
Challenge 1
premiere 1
mate 1
beach 1
operational 1
Throughout 1
Persian 1
Bible 1
duo 1
gay 1
une 1
ask@@ 0.9143892201807329
kingdom 1
yo 1
ums 0.31354608937658257
Bak@@ 1
sole 1
Digital 1
1861 1
Gol@@ 0.9689797790408866
Lou@@ 1
understand 1
foot@@ 1
enjoyed 1
Stars 1
adults 1
detailed 1
Fred 1
customers 1
rick 1
700 0.9028332008260908
Hum@@ 1
movies 1
× 0.5797291419431797
establishing 1
otic 1
commented 1
lan 1
indicate 1
ev 1
everyone 1
volumes 1
balance 1
Along 1
Gold@@ 0.5012453245020806
Hawaii 1
external 1
none 1
Ny@@ 1
Results 1
1940s 1
implemented 1
02 0.9782045520112082
Caribbean 1
file 1
publisher 1
revenue 1
Karl 0.16104281603079967
fled 1
rap@@ 1
Having 1
animated 1
az 1
enters 1
extreme 1
Commissioner 1
YouTube 1
spar@@ 0.7651033526336037
tha 1
utes 1
bay 1
Under@@ 1
Som@@ 1
ben@@ 0.3106834647772726
statistics 1
coalition 1
Hindu 1
nearest 1
6,@@ 0.6659501624397783
pm 1
Pot@@ 1
attorney 1
CS 1
eligible 1
closing 1
ille 0.8965105980917577
née 1
responded 1
Ara@@ 1
Market 1
width 1
continuous 1
rev@@ 1
ender 0.23000061513458608
Count 1
Diocese 1
acres 1
1.5 1
eland 1
mil@@ 1
principles 1
DA 1
drafted 1
wick 1
1862 1
insurance 1
5.@@ 1
looked 1
1887 0.909788264551645
broadcasting 1
iro 1
ken 0.159758381440522
Friday 1
partially 1
qualify 1
Bow@@ 1
Bag@@ 1
Section 1
Sen@@ 0.7670543140614325
op 0.8311486537982335
benefits 1
1864 1
rich@@ 0.5878977001350452
Mik@@ 1
ord 1
Dou@@ 1
assets 1
jury 1
numbered 1
ols 1
outbreak 1
aim 1
aming 1
Iranian 1
beautiful 1
struggle 1
Hen@@ 0.9317265856652825
activist 1
buy 1
ining 1
oni 1
violent 1
Initially 1
Baker 1
SO@@ 1
Soon 1
Long@@ 1
rat 0.23646559863439567
experimental 1
Mis@@ 0.9988656672935508
hat 0.034766642306373795
leaf 1
oda 1
Charlotte 1
scientists 1
belonged 1
ont@@ 1
Communications 1
substitute 1
concentration 1
chamber 1
lights 1
Manhattan 1
Sun@@ 1
texts 1
Admiral 1
fighter 1
Alberta 1
lic 1
low@@ 1
− 0.9892617358893925
belief 1
zu@@ 0.12191496205352571
1881 0.9667240439954097
apartment 1
palace 1
partly 1
restricted 1
swimming 1
Falls 1
spaces 1
Tigers 1
Story 1
ight 1
McC@@ 1
East@@ 1
Sah@@ 1
crossed 1
physics 1
som@@ 1
enberg 0.2733364314851594
honorary 1
Together 1
abilities 1
mul@@ 1
Ari@@ 1
disc 1
Mot@@ 1
swe@@ 1
merchant 1
connecting 1
productions 1
VI 1
Municipal 1
zo@@ 1
Branch 1
Soccer 1
personality 1
subsidiary 1
rising 1
AT 1
Freedom 1
120 0.8677668565401077
1886 0.919228932822424
civilian 1
Rangers 1
atively 1
drugs 1
electricity 1
Str@@ 0.7245592793686975
tab@@ 1
useful 1
12.@@ 1
Common 1
advice 1
ified 1
mathematics 1
spirit 1
destruction 1
municipalities 1
discussed 1
cemetery 1
opponents 1
outer 1
seeing 1
zer 0.44946937610276266
she@@ 1
conventional 1
linear 1
tend 1
Code 1
Bah@@ 1
scholarship 1
fee 1
instrument 1
ros 0.9448673221555458
Syria 1
conservation 1
lose 0.6709822456245109
immigrants 1
relation 1
1863 1
displayed 1
Philippine 1
accessible 1
sters 1
Wars 1
Aqu@@ 1
arian 1
ros@@ 1
Cooper 1
judges 1
asts 1
vs. 1
squ@@ 1
locally 1
false 1
fu@@ 1
Fine 1
Studio 0.9239155726045232
ME@@ 1
throne 1
&apos;ve 1
Type 1
ele 0.7145541653843331
ranging 1
CI@@ 1
Ev@@ 1
aer@@ 1
eo 1
Muslims 1
Wi@@ 0.7839008859352289
coaching 1
settlers 1
ashi 1
neither 1
faces 1
sa@@ 0.7775849171713547
Bh@@ 1
Trinity 1
ans@@ 0.8145939971961856
Legacy 1
bi 1
med@@ 1
lined 1
withdrew 1
dismissed 1
11.@@ 1
expensive 1
Armenian 1
ect 1
terminus 1
RAF 1
aking 1
provinces 1
Barry 1
Standard 1
Est@@ 1
solar 1
wrestling 1
lying 1
playoffs 1
initiated 1
ongoing 1
Be 1
Universal 1
matters 1
repair 1
retail 1
asks 1
crash 1
Sport 0.6436415688280158
Moh@@ 1
IT@@ 1
Broadcasting 1
Ian 1
apply 1
eless 1
requested 1
Nova 1
cks 0.9125471748518423
Bar 1
telling 1
Cuba 1
initiative 1
diverse 1
fictional 1
cli@@ 1
Jonathan 1
Parker 1
lowest 1
suburb 1
ren 0.6305398124148768
unsuccessful 1
eri@@ 0.8683680700737925
cup 1
oth@@ 1
tribes 1
wants 1
Mir@@ 1
flower 1
men@@ 0.47163270564892523
tion@@ 0.5976990195935955
passage 1
treaty 1
guilty 1
touring 1
ria 1
Att@@ 1
Video 0.9947173138229579
clinical 1
Kings 1
illness 1
modern@@ 1
Ten@@ 1
far@@ 0.8375901409778638
sang 1
illi@@ 1
metre 1
Gmina 1
Vic@@ 1
completing 1
dispute 1
respective 1
ez@@ 1
Gh@@ 1
ett@@ 0.4650868499851453
1884 0.9082841697903602
Deb@@ 1
banned 1
earth 1
Adelaide 1
Years 1
aus@@ 0.05113488540764482
alis 1
03 0.9024093644824721
Hudson 1
appropriate 1
domin@@ 1
electrical 1
Nat@@ 1
IC 1
ott@@ 0.8569976104456939
cru@@ 1
ave 1
cargo 1
trac@@ 1
essential 1
50,000 1
Socialist 1
Ang@@ 1
charity 1
farmers 1
sculpture 1
ues 1
hole 1
rob@@ 1
vor@@ 0.08013232479840461
Guinea 1
Munich 1
anyone 1
qualification 1
Turner 1
minority 1
ack@@ 0.5829460191181027
wel@@ 0.8280038636405999
lar@@ 1
mal 0.3192256065219198
Abbey 1
Clinton 1
Meg@@ 1
talent 1
editions 1
ive 1
margin 1
merger 1
regulations 1
partners 1
NY 1
TC 1
CC@@ 1
cla@@ 1
Virgin 1
Food 1
IP 1
pitch 1
ž@@ 0.7480025187098663
2000s 1
ović 1
ui 1
Furthermore 1
arch 1
emperor 1
1882 0.9066065816120604
alia 1
credits 1
Brisbane 1
lab@@ 1
wan 1
Allied 1
Parish 1
Saints 1
Jay 1
Technical 1
Buffalo 1
Grade 1
sailed 1
Action 1
Fur@@ 1
Fal@@ 0.8068201731504892
Wall 1
Jacob 1
Saudi 1
honors 1
weekend 1
Mill@@ 1
Gri@@ 1
dominant 1
arrangement 1
dis 1
Classic 1
crown 1
ographic 1
soft 1
trials 1
Hunter 1
shire 1
vely 1
EC 1
ress 1
Bir@@ 0.8468864470901845
copy 1
decisions 1
aging 1
occasion 1
Nik@@ 0.9819677314907702
sessions 1
Gam@@ 1
doesn 1
colors 1
Oblast 1
int 1
exclusively 1
yst@@ 1
King@@ 1
cinema 1
dge 1
remove 1
NE@@ 1
dep@@ 1
ju@@ 1
Barbara 1
PhD 1
Industry 1
Therefore 1
ayan 1
closer 1
activated 1
Tech 1
Century 1
alliance 1
crimes 1
utions 1
Attorney 1
Catherine 1
Urban 1
choose 1
isolated 1
moves 1
But@@ 1
Masters 1
ska 1
conversion 1
Pel@@ 1
iy@@ 1
traded 1
focuses 1
Sec@@ 1
Territory 1
pursue 1
conclusion 1
hop 1
play@@ 1
Control 1
Sky 1
grey 1
ş@@ 1
Water@@ 1
anger 1
falling 1
Buddhist 1
Anglo 1
negotiations 1
IR@@ 1
eldest 1
ick@@ 0.7710124580412541
MC 1
Thi@@ 0.9703656657728867
ott 1
Dark 1
Faculty 1
wearing 1
principle 1
Such 1
edi@@ 1
hunting 1
parent 1
strategic 1
eds 1
Bengal 1
Mrs. 1
Sak@@ 1
limits 1
shift 1
connections 1
iness 1
therapy 1
Peninsula 1
Woman 1
communications 1
recognised 1
fifteen 1
Language 1
ral 1
ín 0.8821962062346521
Ca@@ 1
atus 1
arm@@ 0.9232517956653592
akes 1
Unit 1
timber 1
zy@@ 0.6987477639219243
mechanical 1
Race 1
vary 1
à 0.805745528947498
Cincinnati 1
Ep@@ 1
raising 1
Um@@ 0.14685269185288768
conv@@ 1
Nation 1
submitted 1
hope 1
Alaska 1
grows 1
internationally 1
organic 1
Peru 1
assists 1
40@@ 1
patterns 1
sisters 1
evolution 1
jurisdiction 1
Loc@@ 1
dro@@ 1
van@@ 1
cash 1
sufficient 1
Cop@@ 1
ng 1
hol@@ 0.6850217978897857
manufactured 1
rist@@ 1
Gur@@ 1
clothing 1
vers@@ 0.42899618025980407
BS 1
Microsoft 1
angle 1
circumstances 1
ī@@ 1
Conservation 1
Mari@@ 0.5255713581689856
Dakota 1
Springs 1
pain 1
ton@@ 1
traditions 1
mo 1
Do 1
Les 1
alb@@ 0.4683703336308193
repeated 1
Arg@@ 1
apparent 1
1876 0.8910027874360287
ost 0.8619291961518603
decides 1
housed 1
Pradesh 1
alised 1
ero 1
iled 1
itic 1
operator 1
travelled 1
Model 1
ests 1
reviewed 1
Cook 1
DE@@ 1
drummer 1
influences 1
beating 1
Bran@@ 0.99042332128626
pointed 1
ink 1
Down 1
Hugh 1
references 1
Assistant 1
Ice 1
bas@@ 1
marry 1
ode 0.8780184291443198
reduction 1
Green@@ 1
drums 1
monastery 1
else 1
tunnel 1
soldier 1
ów 1
dian 1
mention 1
gan@@ 0.9014291303446493
resignation 1
Mark@@ 0.50407491441625
ains 1
desire 1
reveals 1
mechanism 1
intention 1
Dol@@ 0.864514485125555
Shah 1
drivers 1
fil@@ 1
zero 1
battalion 1
Vincent 1
Collins 1
Pad@@ 1
Kra@@ 0.5998927314023538
2.5 1
Democrat 1
Luis 1
Will@@ 1
Trail 1
suggest 1
etti 1
cal 1
tel 0.4663483150647464
Wild 1
Bos@@ 0.9834013449821231
boundaries 1
mix 1
IT 1
Pon@@ 1
Baptist 1
clearly 1
tested 1
1878 0.8726198260308125
sized 1
1883 0.890042285661286
Latino 1
Wa@@ 0.8692006620583684
AD@@ 1
Students 1
Tw@@ 1
ager 0.811119462548167
delivery 1
relevant 1
venture 1
ete 0.19702161906578897
temperatures 1
Barcelona 1
Oliver 1
exhibited 1
warm 1
ler@@ 0.3752497075831593
fill 1
Pictures 1
involves 1
uma 1
Apple 1
Current 1
jan 1
ST 1
tone 1
acquisition 1
riding 1
1871 0.6926210083547856
How 1
tra 1
Lloyd 1
locomotives 1
Nevada 1
indicates 1
convicted 1
originated 1
Pic@@ 1
Hans 0.17607650149725626
MP@@ 1
Nak@@ 1
festivals 1
fri@@ 1
ı@@ 0.9006634769559324
Sn@@ 1
manufacturer 1
pay@@ 1
promoting 1
photography 1
oa 1
overseas 1
Jazz 0.514531634050286
eu@@ 0.9351610094243619
flights 1
campaigns 1
odi@@ 0.8381269775084795
100,000 1
defended 1
Colombia 1
sun 1
settlements 1
Players 1
stones 1
thereafter 1
tics 1
Father 1
Leeds 1
survive 1
topics 1
romantic 1
demonstrated 1
layer 1
Democrats 1
ais 0.8073191215739205
discussion 1
Jr. 1
Wing 1
Nepal 1
Mit@@ 0.2671767204564965
rell 1
cattle 1
prec@@ 1
ñ@@ 1
Roberts 1
gener@@ 0.9998694185722427
entary 1
nec@@ 1
deemed 1
ank 1
truth 1
bles 1
hyper@@ 1
yi 1
vest@@ 1
Phoenix 1
Christianity 1
bomb 1
shall 1
stress 1
sum@@ 1
Top@@ 0.7199991543049258
Cul@@ 1
Phil 1
buses 1
ann 0.5744598693710521
increases 1
landed 1
vertical 1
Industrial 1
Lau@@ 0.4877846855351425
electro@@ 1
permission 1
usual 1
onian 1
traditionally 1
Dead 1
boards 1
cou@@ 1
magazines 1
mail 1
past@@ 1
Rev@@ 1
CD@@ 1
Let 1
ingham 1
rice 1
nor@@ 0.8793183417225398
opponent 1
expand 1
Hun@@ 1
bon@@ 1
fear 1
medi@@ 1
origins 1
twin 1
patri@@ 1
Ali@@ 1
Wall@@ 0.5990923145462071
dependent 1
debt 1
ency 1
eted 1
Bla@@ 1
Borough 1
Jud@@ 1
encing 1
roster 1
sch@@ 0.05171313143400838
compiled 1
cour@@ 1
giant 1
The@@ 0.7580174356667262
wealth 1
Those 1
aj 1
battery 1
Herbert 0.889908834922911
enrolled 1
industries 1
ading 1
certified 1
forcing 1
1860 0.7582804416423213
ril@@ 1
lift 1
Fran@@ 0.8031388945853207
7,@@ 0.5917150551432596
Bernard 1
Pop@@ 0.817765675882629
Syn@@ 0.7261645293676277
Gy@@ 1
teen 1
bow 1
Sad@@ 1
circle 1
ić 1
lim@@ 1
participating 1
Fair 1
Operations 1
flu@@ 1
contra@@ 1
funeral 1
departed 1
machines 1
eton 1
photographs 1
orchestra 1
biological 1
eggs 1
shoot 1
wealthy 1
breeding 1
extensively 1
Cav@@ 1
Azerbaijan 1
DS 1
black@@ 1
nes 0.8905214181788764
1872 0.8257252248651143
vast 1
Den@@ 1
managing 1
Tran@@ 1
earn 1
Cour@@ 1
Madison 1
enting 1
cel@@ 1
Rub@@ 1
anga 1
conver@@ 1
1867 0.7981034023397883
Circuit 1
canal 1
playoff 1
Finally 1
Nebraska 1
Non 1
rarely 1
eral 1
cian 1
win@@ 0.7059658347994185
30@@ 1
aboard 1
resumed 1
cle@@ 1
dy@@ 1
Hebrew 1
midfielder 1
Py@@ 1
finance 1
unlike 1
Gray 1
decorated 1
net@@ 1
exposure 1
NA 1
run@@ 1
sul@@ 1
Hope 1
Electric 1
Much 1
constitutional 1
pages 1
supposed 1
interpretation 1
walking 1
Archbishop 1
Side 1
Symphony 1
ential 1
strip 1
tanks 1
Giants 1
Wang 1
ais@@ 1
yed 1
Formula 1
delayed 1
symptoms 1
Mau@@ 0.795252641431163
eller 0.3533948870203647
ien 0.1484177574218386
Sud@@ 1
agan 1
athlete 1
dress 1
identical 1
legislature 1
Lions 1
kin@@ 1
economics 1
inter 1
ve@@ 1
mos@@ 1
SS@@ 1
bear 1
mac@@ 1
Costa 1
fresh 1
exercise 1
ores 1
preferred 1
corresponding 1
tax@@ 1
placing 1
soul 1
IP@@ 1
elsewhere 1
ences 1
lif@@ 1
rocks 1
usage 1
1875 0.7744663763517708
peoples 1
3,000 1
mic 1
Rail 1
ides 1
virus 1
Formation 1
Jerry 1
Ret@@ 1
aux 0.870241446606615
describing 1
implementation 1
sburg 0.8738175683275283
Blues 1
collaborated 1
Primary 1
regard 1
Systems 1
mines 1
thin 1
Athens 1
Sho@@ 1
ref 1
asc@@ 1
dri@@ 1
Chamber 1
filming 1
USS 1
baby 1
deck 1
ier@@ 0.1667826717067147
inherited 1
Croatian 1
Ji@@ 1
incumbent 1
Commons 1
ava 1
trail 1
Confederate 1
cooperation 1
golf 1
ment@@ 1
Land@@ 0.13075673292193504
contributing 1
sounds 1
tribute 1
multi@@ 1
Neil 1
sharing 1
Sul@@ 0.9323613956492901
ury 1
Warsaw 1
ation@@ 0.3264230985500953
householder 1
Tab@@ 0.9888150500036603
gang 0.4039992271687168
thick 1
din@@ 1
eding 1
favour 1
informed 1
1868 0.8105532938327902
farming 1
bright 1
Kenya 1
reaches 1
variant 1
DJ 1
waste 1
Af@@ 1
zy 1
Vill@@ 0.7757840406173052
wider 1
dangerous 1
exc@@ 1
Haz@@ 1
ante 0.568872401790784
camps 1
AF@@ 1
Bet@@ 0.43118228487679344
Drive 1
lighting 1
aded 1
ower 1
Wy@@ 1
alcohol 1
Batt@@ 1
Bulgarian 1
Pul@@ 0.9119221464054192
clean 1
proteins 1
manage 1
coat 1
outstanding 1
physician 1
berry 1
partial 1
preparation 1
work@@ 1
Independence 1
Newcastle 1
charter 1
connect 1
prices 1
concerning 1
enforcement 1
nominations 1
planet 1
Ed 1
specialized 1
zing 1
meter 1
correct 1
Norfolk 1
Policy 1
uss@@ 0.4629690065315532
bases 1
hard@@ 1
unincorporated 1
1879 0.7526233190626204
Shanghai 1
Storm 1
slaves 1
0s 1
Album 0.1467395540072309
NO@@ 1
ministry 1
Bus@@ 0.6529004323900756
RA 1
bachelor 1
pos@@ 1
cker 0.5524272587965909
Mill 1
Pedro 1
Can 1
Petersburg 1
AR 1
Derby 1
Range 1
recalled 1
Fo@@ 1
IM@@ 1
dom 1
expert 1
trust 1
Denver 1
ician 1
1873 0.7951910066960721
winds 1
tru@@ 1
Jefferson 1
Nu@@ 1
inducted 1
Luc@@ 1
automatic 1
Terry 1
Yale 1
cus 1
devoted 1
sure 1
resi@@ 1
communist 1
Plan 0.8059065836709998
lob@@ 1
express 1
EC@@ 1
São 1
ima 1
moral 1
ports 1
diplomatic 1
ble@@ 1
exhibitions 1
narrative 1
Wo@@ 1
difficulties 1
plain 1
High@@ 1
Species 1
iles 1
Port@@ 0.9140358318528194
Luke 1
brigade 1
Over@@ 1
sort 1
uniform 1
Š@@ 0.710449119027331
1866 0.7471345706130483
1877 0.8619160776617415
25@@ 1
Sultan 1
Neg@@ 1
seem 1
11@@ 1
Based 1
flew 1
oke 1
eto 1
Abu 1
Argentine 1
reporting 1
speaker 1
cri@@ 1
evolved 1
Eventually 1
bly 1
excellent 1
inspiration 1
cricketer 1
Grace 1
Rogers 1
Sher@@ 1
weapon 1
Bru@@ 0.7132504358532261
approached 1
designation 1
iel 0.5714396081377024
Les@@ 0.5349208209467188
rie 0.8077798507214563
speakers 1
var@@ 1
Economy 1
Murphy 1
Fro@@ 1
eer 1
legacy 1
unk@@ 0.5834663986546911
Florence 1
Keith 1
Ridge 1
gallery 1
gran@@ 1
resses 1
legend 1
shops 1
believes 1
esses 1
defend 1
essing 1
Architecture 1
Gau@@ 0.6729686182607951
tournaments 1
corruption 1
Cle@@ 1
imperial 1
airing 1
sand 1
exclusive 1
commenced 1
Ottawa 1
author@@ 1
posts 1
Comics 1
Croatia 1
punk 1
zation 1
Delaware 1
gaining 1
visits 1
fication 1
Sierra 1
birthday 1
mol@@ 1
Kas@@ 0.696591077827274
diseases 1
mainstream 1
Harold 1
kes 1
ool 1
dre@@ 0.6141958567585099
Cent@@ 1
Helen 1
aling 1
historians 1
practical 1
internet 1
permitted 1
saved 1
ust@@ 1
Sz@@ 0.8212202445934115
bit@@ 1
Bulgaria 1
Vegas 1
liberal 1
Release 1
Nic@@ 1
Stuart 1
Cow@@ 1
DP 1
arriving 1
oner 1
vin 1
whi@@ 1
sugar 1
HL 1
fighters 1
Christians 1
aps 1
worker 1
Lebanon 1
extend 1
clan 1
spend 1
Vo@@ 1
writings 1
Dick 1
Edwards 1
Rab@@ 0.8574681276188475
hero 1
historically 1
Ken 1
ordinary 1
Ear@@ 1
phrase 1
tool 1
Anti 1
Workers 1
reducing 1
Eur@@ 1
Hon@@ 0.8741816166497979
Ye@@ 1
bin@@ 0.6711923957697449
promised 1
€ 1
ovo 1
belongs 1
challenges 1
pa 1
AB@@ 1
Mart@@ 1
grass 1
spots 1
exact 1
removal 1
Financial 1
depression 1
columns 1
prove 1
.D. 1
Flight 1
Fac@@ 1
basin 1
thinking 1
Dennis 1
Gregory 1
Nature 1
Climate 1
mont 1
alive 1
asses 1
copper 1
departments 1
pairs 1
Obama 1
burned 1
ock@@ 0.7029003564794049
portrait 1
real@@ 1
attendance 1
CDP 1
Lat@@ 0.8676211958903771
Pil@@ 0.6766961973518261
decide 1
carries 1
cha 1
chemistry 1
coins 1
Venice 1
victim 1
carrier 1
din 1
proof 1
13.@@ 1
Hat@@ 1
Pas@@ 1
oto 1
Ach@@ 0.5075233481106961
ession 1
clu@@ 1
pitched 1
shopping 1
oriented 1
root 1
attempting 1
Auckland 1
Currently 1
hur@@ 1
pushed 1
е@@ 1
Campaign 1
relegated 1
execution 1
looks 1
Jose 1
helps 1
Hughes 1
dean 1
guests 1
depicted 1
ía 1
Southeast 1
cutting 1
interviews 1
measured 1
beauty 1
ein 0.005342219045741985
sitting 1
actively 1
coached 1
lord 1
backs 1
red@@ 1
Play 0.9610255064899546
affect 1
till 1
Es@@ 1
Indonesian 1
Rat@@ 0.5228985998427748
temporarily 1
Mother 1
gel 0.26667621115778506
latest 1
part@@ 1
predecessor 1
variable 1
Thai 1
beetle 1
distinction 1
neck 1
ox 1
Kit@@ 1
Contemporary 1
psych@@ 0.8168695766835324
Protestant 1
dollars 1
és 0.9653956059950775
Robin 1
span 1
1874 0.698563513408083
Eagles 1
bling 1
colleges 1
printing 1
oper@@ 0.8396166064678675
Stage 1
namely 1
escaped 1
remote 1
Acc@@ 1
Bad 0.267187918116314
orn 1
1869 0.8103701040810695
Anglican 1
recipient 1
Cru@@ 1
earthquake 1
inary 1
summit 1
sun@@ 1
tot@@ 1
Thor@@ 1
grandson 1
ide@@ 0.6875117065874417
worst 1
cing 1
murdered 1
oul@@ 1
awareness 1
.S. 1
ici@@ 1
Ghana 1
characteristic 1
functional 1
bis@@ 1
Bog@@ 1
administered 1
scores 1
zo 1
cat 1
Craig 1
fle@@ 0.8534480958744595
Syrian 1
siege 1
spin 1
coaches 1
citing 1
pulled 1
inj@@ 1
tured 1
bes 0.7194456014448273
abolished 1
hence 1
itt 1
Child 1
Perry 1
Chapel 1
Writing 1
perspective 1
1848 0.5570905899093802
Car 1
authored 1
sat 1
simultaneously 1
AL 1
Bobby 1
horror 1
weak 1
sung 1
и@@ 1
bat 1
ep 1
sample 1
argument 1
bearing 1
gauge 1
reporter 1
Butler 1
Hitler 0.9313370318951202
demands 1
liber@@ 1
lit@@ 1
evil 1
Wat@@ 1
Aviation 1
ily 1
Next 1
amed 1
idi@@ 1
studios 1
cavalry 1
diss@@ 1
mes 0.8201293058418249
akers 1
Amsterdam 0.8527005384038238
Swe@@ 1
collapse 1
disbanded 1
slave 1
Vid@@ 1
spl@@ 1
emotional 1
Collection 1
Manuel 1
meat 1
Ow@@ 1
Protection 1
1850 0.6369277027792094
Wellington 1
Harbor 1
North@@ 1
pper 1
recovery 1
grades 1
Finance 1
ae@@ 1
seemed 1
supplied 1
switched 1
unless 1
Sou@@ 1
imm@@ 0.9886235619111526
Guy 1
Provincial 1
pil@@ 1
ured 1
Band@@ 0.47478744873001044
Dam 1
atmosphere 1
ruler 1
jump 1
Future 1
TV@@ 1
rif@@ 1
Steven 1
Albums 1
uti@@ 0.725605014552282
inst@@ 1
ique 1
prop@@ 1
backed 1
theories 1
worn 1
Former 1
Lak@@ 1
zes 1
Han 1
Short 1
academy 1
Sullivan 1
amounts 1
guide 1
sia 1
sle@@ 1
AF 1
ask 1
tenth 1
belt 1
tube 1
cap 1
ump 1
clar@@ 1
targets 1
insi@@ 1
labour 1
Venezuela 1
Nan@@ 1
asking 1
ç@@ 1
add@@ 1
magn@@ 1
ich 0.1923258321229882
restrictions 1
ker@@ 0.5755164620755797
M.@@ 1
Run 1
bridges 1
compound 1
orph@@ 1
receives 1
Larry 1
accurate 1
Stanford 1
raid 1
â@@ 1
Guardian 1
organisations 1
volunteers 1
Clar@@ 1
yc@@ 1
clock 1
nephew 1
… 0.2938978699989386
affair 1
inhabited 1
documented 1
Exchange 1
Gilbert 1
Males 1
osis 1
Ralph 1
altitude 1
anim@@ 1
mon 1
Vermont 1
enko 1
enz@@ 0.16458005898798395
slowly 1
CB@@ 1
dissolved 1
hon@@ 1
ocean 1
regulation 1
forty 1
options 1
aman 1
cies 1
indicating 1
Agriculture 1
outdoor 1
sel 0.34714789593898304
Environmental 1
alternate 1
drove 1
explains 1
monthly 1
destroy 1
Every 1
gathered 1
FL 1
bet@@ 0.3198461340580399
seeds 1
ettes 1
vent@@ 1
comparison 1
dur@@ 1
elite 1
Productions 1
ashes 1
binding 1
mature 1
vocalist 1
rin 1
crops 1
tz 0.7300772266298919
Kerala 1
Ray@@ 1
feeling 1
graduation 1
3D 1
improvements 1
Key 1
clay 1
Computer 1
Gul@@ 1
Sheffield 1
duc@@ 1
tourism 1
MO@@ 1
pot@@ 1
waves 1
Cruz 1
Mason 1
bars 1
Cabinet 1
Secondary 1
forth 1
elementary 1
reforms 1
waiting 1
ticket 1
collective 1
comprises 1
connects 1
ort@@ 0.584685249661786
Mut@@ 1
restaurants 1
Ancient 1
efficient 1
hills 1
8,@@ 0.6024846239899525
Mills 1
maker 1
Villa 0.51047665553141
distinctive 1
taxes 1
Berkeley 1
aggregate 1
crosses 1
ume 1
reflect 1
worship 1
Artillery 1
consistent 1
maps 1
Cou@@ 1
allies 1
challenged 1
educ@@ 1
essentially 1
owns 1
Cel@@ 1
Ec@@ 1
aic 1
cant@@ 1
Byzantine 1
ety 1
Report 1
mus@@ 1
AN 1
ailed 1
arc@@ 1
jec@@ 1
Nashville 1
fal@@ 1
Ci@@ 1
Playing 1
gest@@ 0.24346150944159453
na@@ 0.9157098921854283
ta@@ 1
&apos;d 1
.C. 1
ault 1
mit 0.0033511157539517426
HMS 1
breaks 1
defender 1
gap 1
payment 1
Hem@@ 0.8348026890526539
Monday 1
ovich 1
regul@@ 1
residing 1
revolution 1
suspension 1
OR@@ 1
approaches 1
leagues 1
ility 1
Jacques 1
Joint 1
favorite 1
venues 1
sha@@ 1
structural 1
disaster 1
scientist 1
shr@@ 1
ups 1
Student 1
installation 1
sta 1
14.@@ 1
Roosevelt 1
literally 1
vit@@ 1
Beginning 1
coup 1
Poly@@ 0.6219958925902982
emphasis 1
predominantly 1
Eddie 1
Esc@@ 1
Horse 1
retiring 1
Holland 1
asi 1
Performance 1
impossible 1
aware 1
thro@@ 1
Sau@@ 0.5743663219776745
touchdowns 1
Kom@@ 0.25281202931517543
citizen 1
C.@@ 1
sequel 1
stem 1
understood 1
Fall 0.25839315639048754
Montana 1
essed 1
ook 1
Watson 1
battles 1
descendants 1
Bot@@ 0.7589064854792777
objective 1
shots 1
silent 1
Methodist 1
alle@@ 1
Ant@@ 0.6243678559628953
Stat@@ 0.8981513259684554
fire@@ 1
Small 1
affiliate 1
pul@@ 1
ć 1
1859 0.8720055729642116
Chal@@ 1
Dep@@ 0.8578365756903696
Ot@@ 0.6702688604728045
Coach 1
Van@@ 1
parks 1
Golf 1
technologies 1
otes 1
elder 1
Box 1
Grey 1
wer@@ 0.2058483252254223
failing 1
tributary 1
1857 0.8017229676464219
Armed 1
stops 1
Friends 1
authorized 1
Prefecture 1
procedure 1
Ma 1
Mr 1
ority 1
difficulty 1
threw 1
arians 1
loop 1
ère 0.7772999695103479
Days 1
Sony 1
Wells 1
gardens 1
Hill@@ 1
Susan 1
Higher 1
bombing 1
eled 1
anz@@ 0.2594882760047871
consumption 1
uan 1
External 1
Mé@@ 0.9053128621059134
Yugoslavia 1
dramatic 1
intellectual 1
patrol 1
teach 1
tz@@ 0.2881795764452834
Delta 1
Google 1
Mich@@ 0.88852473765627
Dy@@ 1
Rh@@ 0.7616665581972413
ful@@ 1
answer 1
phon@@ 1
recruited 1
Motor 0.413334514755458
colleagues 1
undergraduate 1
exactly 1
AG 0.2080807466159484
Tul@@ 1
unt 1
Economics 1
Raymond 1
casualties 1
Starting 1
illustrated 1
elevated 1
Tommy 1
lex 1
ERA 1
error 1
eter 0.34961894256362935
alls 1
enk@@ 0.105534656876249
è@@ 0.665585434916832
dest@@ 1
Cold 1
Jun@@ 1
ema 1
ian@@ 0.8890288298736275
manuscript 1
radical 1
Cin@@ 1
Gun@@ 1
runners 1
tering 1
AFL 1
Indies 1
aspect 1
referring 1
truck 1
dan 1
Representative 1
archaeological 1
parking 1
salt 1
Nevertheless 1
comments 1
Call@@ 1
dou@@ 1
Rick 1
cell@@ 1
itis 1
Cli@@ 1
Interstate 1
contracts 1
fold 1
ishes 1
superior 1
tourist 1
argues 1
consist 1
Wallace 1
By@@ 1
Intelligence 1
motor@@ 1
pictures 1
ails 1
• 1
secre@@ 1
sustained 1
orange 1
gam@@ 1
Lang@@ 0.39283636018879453
Post@@ 0.3338592542364725
Pass@@ 0.8066118655974311
Wei@@ 0.3689744619594876
Literature 1
agree 1
capita 1
Price 1
ambassador 1
extinct 1
Ivan 1
logo 1
Has@@ 0.8692926668305566
puts 1
Finals 1
inhib@@ 1
rom@@ 0.7884081136287373
Angel 1
developments 1
judicial 1
Conc@@ 1
nickname 1
Mes@@ 0.8276623431597683
Direc@@ 1
ho 1
Bern@@ 0.5339217622240852
Leo 1
ous@@ 1
Politics 1
beam 1
imprisoned 1
metropolitan 1
wich 1
Private 1
aviation 1
inning 1
politicians 1
Ron 1
examination 1
pressed 1
veteran 1
af 1
firing 1
comprehensive 1
Doc@@ 1
Tat@@ 0.8396017577924166
engagement 1
usi@@ 0.8279151157074158
cit@@ 1
perceived 1
fare 1
rid@@ 1
Ath@@ 1
Dom@@ 0.3429970923686305
laboratory 1
Arnold 0.9233192590359984
liz@@ 1
ocks 1
Dum@@ 1
institute 1
lav@@ 1
onn@@ 0.7508382064564787
test@@ 1
ells 1
Dame 1
quarterback 1
wer 0.7612685093354944
Jon 1
explain 1
widow 1
framework 1
ods 1
sequ@@ 1
chers 1
talks 1
convinced 1
willing 1
oka 1
renowned 1
Palestinian 1
hidden 1
martial 1
oxygen 1
exhibit 1
Commerce 1
kick 1
lem@@ 1
mit@@ 0.2092835931386575
compositions 1
Abraham 1
astic 1
locomotive 1
mig@@ 1
Ambassador 1
shut 1
Stor@@ 1
dimensional 1
Films 0.48935645685935303
beaten 1
Cant@@ 1
kilometers 1
construct 1
Gall@@ 1
diocese 1
sit 1
Bour@@ 1
Die 0.004158362891583652
with@@ 1
putting 1
extending 1
ater@@ 0.9068666995029677
nik 1
Newton 1
20,000 1
loaded 1
Fel@@ 0.4803308085169904
aled 1
efficiency 1
Commercial 1
kar 1
Grammy 1
radar 1
syndrome 1
Din@@ 1
cons@@ 1
Railways 1
hem@@ 1
Mach@@ 0.8881460780262083
eur@@ 1
frac@@ 1
Had@@ 1
calendar 1
Lem@@ 1
shipping 1
MTV 1
bond 1
imposed 1
Competition 1
Magic 1
happy 1
udi@@ 1
Clarke 1
Leonard 1
thanks 1
Elec@@ 1
valuable 1
Pit@@ 1
Fourth 1
O. 1
icks 1
iri 1
Honor 1
а@@ 1
een 1
cuts 1
Romanized 1
experiments 1
Alb@@ 0.6956740469734763
Harvey 1
ensi@@ 0.7422402356358236
enzyme 1
Dream 1
hospitals 1
brook 1
ght 1
iser 1
Overview 1
equation 1
graphic 1
mainland 1
Mars 1
revised 1
improvement 1
integration 1
tours 1
Columbus 1
Renaissance 1
VA 1
attacking 1
virtual 1
24@@ 1
Phillips 1
discontinued 1
fifty 1
accommodate 1
founders 1
bell 1
gar 0.5064425045530725
input 1
statements 1
cam@@ 1
ias 1
rest@@ 1
variation 1
vi 1
wasn 1
ę@@ 1
Ground 1
Pop 1
fundamental 1
progressive 1
Palestine 1
ache 0.7478862304364396
immigration 1
refugees 1
wore 1
Prague 1
indic@@ 1
Dr 1
Vietnamese 1
coll@@ 1
eline 1
altered 1
hood 1
pioneer 1
aims 1
Right 1
contribute 1
manga 1
Dre@@ 0.3571572401298161
Weekly 1
DO@@ 1
Election 1
Essex 1
interesting 1
detail 1
ā 1
Gabriel 1
universe 1
oting 1
theatrical 1
Law@@ 1
lawsuit 1
ires 1
lit 1
Hart 1
preserve 1
familiar 1
ratings 1
traveling 1
wrong 1
jun@@ 1
optim@@ 1
throw 1
Montgomery 1
Record 1
ibn 1
Ball 1
Chair 1
SP 1
anch@@ 1
drinking 1
god 1
Vladimir 1
magnetic 1
Shah@@ 1
discrimination 1
iner 0.3745082571366702
solutions 1
Grove 1
airline 1
relay 1
san@@ 0.4375858016203567
VII 1
23@@ 1
discuss 1
ual 1
victories 1
aster 1
fastest 1
permanently 1
controls 1
thereby 1
Pun@@ 1
direc@@ 1
signals 1
exit 1
psychology 1
rian 1
celebration 1
len 0.21111503230357
nov@@ 1
Sus@@ 1
cultures 1
Cau@@ 1
neighboring 1
interaction 1
ó 1
E.@@ 1
Kel@@ 1
relating 1
Blu@@ 1
comics 1
consumer 1
matic 1
universal 1
experiment 1
golden 1
missile 1
shorter 1
Gir@@ 1
Oscar 0.7912404908095952
aul@@ 1
bach 0.10476309173106461
serial 1
Statistics 1
infection 1
pin 1
occup@@ 1
underwent 1
Bed@@ 1
asia 1
Article 1
Revival 1
Airlines 1
biology 1
artwork 1
liquid 1
literacy 1
olo 1
poll 1
Len@@ 0.8661067983691328
Vil@@ 0.9758263683263865
bonus 1
Congo 1
Kun@@ 0.5937652912381632
handle 1
molecular 1
å@@ 1
jur@@ 1
Gothic 1
Junction 1
afternoon 1
Ful@@ 1
intense 1
addressed 1
diversity 1
faster 1
gift 1
Pod@@ 0.8654326942187981
jet 1
tivity 1
Otto 0.22295231634260806
cave 1
democracy 1
populated 1
cally 1
fron@@ 1
milk 1
&apos;ll 1
concepts 1
gy 1
aining 1
ographer 1
programmes 1
travels 1
centres 1
lifetime 1
Brit@@ 1
SE 1
magic 1
sson 1
Danny 1
mem@@ 1
Northwest 1
ature 1
1855 0.8575439239705074
Equ@@ 1
gel@@ 0.13351691689250747
segments 1
smooth 1
empire 1
Celtic 1
Rolling 1
proc@@ 1
Minor 1
renewed 1
analy@@ 1
feelings 1
SL 1
anian 1
rics 1
Mang@@ 0.9766764426436132
allegations 1
focusing 1
fli@@ 1
genes 1
Revolutionary 1
ministers 1
reflected 1
mand@@ 1
TE@@ 1
app 1
prevented 1
rati@@ 1
utt@@ 1
Net@@ 1
Soci@@ 1
stown 1
vo 1
Od@@ 1
governing 1
ink@@ 0.6192996749539015
insur@@ 1
rebounds 1
110 0.8844958192569593
Elementary 1
Survey 1
TS 1
posed 1
catch 1
makers 1
los 0.21084579983628926
moderate 1
readers 1
artificial 1
burial 1
Laura 1
Yam@@ 1
iki 1
oration 1
revolutionary 1
assembled 1
Dragon 1
currency 1
zu 0.004389346519789003
Ton@@ 0.2915834766736109
flood 1
stored 1
Kab@@ 1
exile 1
prepare 1
æ@@ 1
1856 0.7889787093041167
Arabia 1
Micro@@ 1
Leader 1
Scar@@ 1
dogs 1
Hunt 1
RT@@ 1
Saf@@ 1
diesel 1
sciences 1
warning 1
3.5 1
Musical 1
Population 1
cylinder 1
referendum 1
retreat 1
Brunswick 1
fires 1
Hin@@ 0.40676611388920925
initi@@ 1
rolling 1
arena 1
extends 1
broadcasts 1
enemies 1
wars 1
Vit@@ 0.9116575137894292
Sig@@ 0.9507439807568816
Stakes 1
editorial 1
snow 1
itting 1
photographer 1
rab@@ 1
tape 1
cathedral 1
democratic 1
J.@@ 1
arrive 1
new@@ 1
Liberty 1
Ph.D. 1
allegedly 1
confidence 1
photo 1
ght@@ 1
stationed 1
south@@ 1
BM@@ 1
fewer 1
Bosnia 1
Liu 1
Rel@@ 1
eventual 1
fate 1
bench 1
demanded 1
reverse 1
Dav@@ 1
Bennett 1
Notes 1
empty 1
revival 1
boxing 1
lex@@ 1
rel 1
erg@@ 0.40281283192637607
samples 1
1854 0.8399324815275598
Serie 0.14818578232482194
Perth 1
SM 1
anus 1
lau@@ 0.6280897117752349
Mario 1
Good@@ 1
codes 1
instruction 1
Campus 1
dialogue 1
thirteen 1
min 0.4656605361226173
prince 1
ranges 1
Jamaica 1
emen 0.8151188771410787
fy 1
portions 1
1840 0.7945208213800669
Forum 1
Milwaukee 1
eing 1
Khal@@ 1
holiday 1
maintaining 1
aring 1
fed 1
Mac 1
dered 1
pure 1
Iraqi 1
telephone 1
wise 1
enabled 1
ji@@ 1
surprise 1
Cameron 1
Morning 1
anime 1
blu@@ 1
fantasy 1
1858 0.8362124126774004
Location 1
aside 1
ester 0.7175952245264249
independently 1
Outstanding 1
RT 1
eness 1
activists 1
fun 1
boarding 1
followers 1
hardware 1
Panama 1
eck 0.4272646331722919
generate 1
lov@@ 1
B.@@ 1
Cher@@ 1
Cork 1
drum 1
plates 1
ule 0.8797352181529913
footage 1
Eli@@ 1
alty 1
advocate 1
row@@ 1
uli@@ 0.7380651429220068
uri 1
wire 1
15.@@ 1
RS 1
inscription 1
AB 1
agreements 1
continental 1
tip 1
Original 0.9176685368454268
colonies 1
harmon@@ 1
keys 1
owski 0.6207931599497001
doctoral 1
ovsky 1
spell 1
enlisted 1
perc@@ 1
18@@ 1
Vas@@ 1
ffs 1
Name 0.08252781919904788
dubbed 1
Dow@@ 1
arrives 1
Grande 1
hear 1
succession 1
summary 1
LE@@ 1
Punjab 1
criteria 1
engage 1
tery 1
Spirit 1
MD 1
Paulo 1
cking 1
freight 1
130 0.9035905884010039
Data 1
Georgian 1
Squ@@ 1
9,@@ 0.6146352360036896
Shakespeare 1
oss 1
tiv@@ 0.5891591055583417
Sing@@ 0.9125936298902055
pitcher 1
radiation 1
rebellion 1
resort 1
Friedrich 0.09119952505135802
Pearl 1
Joan 1
fallen 0.3523957750883452
PO@@ 1
Shaw 1
ital 1
Boulevard 1
Wilhelm 0.11892171915661315
Pass 1
handling 1
anic 1
flies 1
ideal 1
slavery 1
How@@ 1
Legal 1
Alt@@ 0.20730474600991142
edly 1
rivals 1
select 1
ashed 1
dancing 1
Anti@@ 0.480170636697456
Site 1
mixture 1
announcement 1
Esp@@ 1
Indianapolis 1
Lyn@@ 1
Mass 1
paint 1
shifted 1
Cardinal 1
Coun@@ 1
assessment 1
employee 1
kins 1
neg@@ 1
plastic 1
predic@@ 1
suff@@ 1
ech 1
experts 1
Bis@@ 0.9521331343443253
aran 1
realized 1
Yu@@ 1
animation 1
geon 1
HD 1
fourteen 1
journalists 1
Mess@@ 0.4339165187374995
liner 1
planes 1
noting 1
teeth 1
Rod@@ 0.852503087218429
eri 1
pic@@ 1
prisoner 1
Flying 1
releasing 1
Marvel 1
Thir@@ 1
updated 1
carp@@ 1
generations 1
PC@@ 1
sin 1
Sky@@ 1
Where 1
gon@@ 1
tender 1
Wolf 0.6722935222192662
conducting 1
cut@@ 1
fairly 1
kan@@ 0.3157810119345488
layout 1
eal 1
Bil@@ 0.8158233761420632
athletic 1
Kos@@ 0.503748605815242
belong 1
feld 0.1366611961482333
intervention 1
Room 1
cult 1
requiring 1
Hamburg 0.15648080154183103
isp@@ 0.6220420299135763
lakes 1
phic 1
RNA 1
invented 1
Maurice 1
index 1
notice 1
ordin@@ 1
repeatedly 1
tin 0.7807951910494376
severely 1
vir@@ 1
ister 1
switch 1
Aboriginal 1
Stri@@ 1
specified 1
reli@@ 1
Rice 1
specimens 1
Louise 1
computers 1
Nine 1
Penn 1
sid@@ 1
101 1
Lost 1
civilians 1
confused 1
Advanced 1
acoustic 1
remembered 1
rises 1
mere 1
neighbouring 1
Hop@@ 1
eau 1
oll@@ 0.6005434222923727
suspected 1
centered 1
sight 1
wid@@ 1
oga 1
potentially 1
upcoming 1
ials 1
variations 1
fame 1
wish 1
Miguel 1
disorder 1
prestigious 1
Greg 1
plan@@ 0.4991686696819355
targeted 1
900 0.893309755812437
Ted 1
topped 1
manufacturers 1
triple 1
Kum@@ 1
bon 1
heir 1
Ernest 1
queen 1
sending 1
Aaron 1
associations 1
tus 1
François 0.8618313196174269
eous 1
Source 1
tissue 1
p.m. 1
Guide 1
signature 1
Johann 0.09777991324736852
mar 0.5086459380315697
lion 1
marking 1
quad@@ 1
Gab@@ 1
Mobile 1
cas@@ 1
interpreted 1
uts 1
beliefs 1
separation 1
sou@@ 1
uting 1
voiced 1
1852 0.8421451410926727
seriously 1
eff@@ 1
ordained 1
Circle 1
dh@@ 1
sixteen 1
rally 1
sam@@ 0.8070115480046723
ware 1
Hindi 1
Manila 1
book@@ 1
planted 1
Hil@@ 0.4674809928781525
assed 1
sing@@ 1
Low 1
iel@@ 0.4069296696682903
matrix 1
Blood 1
Oakland 1
Pakistani 1
gor@@ 1
lied 1
oked 1
streams 1
surrender 1
Hall@@ 0.5656221721892477
prof@@ 1
volleyball 1
Eagle 1
findings 1
dream 1
py@@ 1
bears 1
freestyle 1
rent 1
naming 1
personally 1
Mam@@ 1
ph 1
situations 1
U.@@ 1
dialect 1
displays 1
ection 1
friendship 1
identification 1
ons@@ 0.4745091032228888
Beg@@ 0.5637555684072281
Wildlife 1
iya 1
mad@@ 1
reserves 1
divorce 1
professionals 1
repe@@ 1
Sussex 1
indeed 1
22@@ 1
CR 1
Somerset 1
hu 1
Laboratory 1
essi@@ 1
Bears 1
Mumbai 1
comprising 1
patent 1
presentation 1
Cuban 1
Uganda 1
fusion 1
tea 1
Gate 1
Secret 1
behaviour 1
presents 1
rainfall 1
80@@ 1
Coll@@ 1
ader 0.7306898495878653
commitment 1
tives 1
Facebook 1
Lac@@ 1
tackles 1
Isaac 1
camp@@ 1
etics 1
tag 0.5646549798806066
Academic 1
Artists 1
VIII 1
noise 1
Baby 1
dealing 1
Foster 1
clients 1
pilots 1
pursued 1
specialist 1
Wit@@ 0.7432261979493572
circulation 1
pit 1
1851 0.8574711044968547
Bun@@ 1
VI@@ 1
iss 0.6489541833293682
quick 1
ped@@ 1
rant 1
tasks 1
Scientific 1
adventure 1
illo 1
improving 1
Are 1
mb@@ 0.6476354232326017
thrown 1
oes 1
ellers 1
goalkeeper 1
nationally 1
Play@@ 1
Sid@@ 1
societies 1
Spencer 1
cross@@ 1
firms 1
vector 1
Fil@@ 0.49348688319781525
Lav@@ 1
Teams 0.3829068729964647
eat 1
ied 1
rifle 1
cast@@ 1
oney 1
vity 1
о@@ 1
Cole 1
ein@@ 0.03410633110282741
riders 1
suggesting 1
Jur@@ 0.5284114329464686
horn 0.7397760061250562
pale 1
shed 1
considering 1
Besides 1
tale 1
Annual 1
aug@@ 1
requirement 1
Lind@@ 0.8629502442610081
cip@@ 1
bal 1
NASA 1
SI@@ 1
backing 1
xi 1
counts 1
isa 1
observation 1
deb@@ 1
Triple 1
ats@@ 0.46325160726141396
enth@@ 0.758712808902079
conductor 1
desert 1
tual 1
Gardens 1
oll 1
tap@@ 1
celebrate 1
Manager 0.9854115663659657
concentrated 1
eper 1
praise 1
Sean 1
investigate 1
psychological 1
touch 1
PE@@ 1
biography 1
favorable 1
provisions 1
Stockholm 0.9860059070296607
faction 1
gear 1
stim@@ 1
transit 1
unions 1
Block 1
arium 1
izes 1
pack@@ 1
Idaho 1
similarly 1
GA 1
Kap@@ 0.40976553231502777
Voice 1
encourage 1
plac@@ 1
prey 1
Albanian 1
Reading 1
Bus 1
ichi 1
merely 1
decrease 1
tin@@ 1
Art@@ 0.7225062333514984
Knights 1
procedures 1
Justin 1
iti 1
Ages 1
haz@@ 1
variants 1
boro 1
Isle 1
custom 1
rage 1
simul@@ 1
skill 1
Dob@@ 0.9885322256618999
PM 1
chy 1
hometown 1
retain 1
Jer@@ 1
hyp@@ 1
seized 1
dering 1
Jay@@ 1
Thur@@ 1
honours 1
HIV 1
agh 1
chapters 1
oi 1
Durham 1
commentary 1
inal 1
rol@@ 0.8863728999044245
Continental 1
Kaz@@ 1
duration 1
codice 1
floors 1
pon@@ 1
Fitz@@ 1
Rhode 1
Sant@@ 1
creates 1
messages 1
correc@@ 1
spac@@ 1
heading 1
ois 1
Scotia 1
H.@@ 1
Wu 1
alled 1
list@@ 1
manages 1
Bud@@ 0.953473751703119
Lancashire 1
maintains 1
Bird 1
Owen 1
axis 1
fol@@ 0.75461353444136
ju 1
migration 1
Examples 1
varied 1
Marc 1
coffee 1
alling 1
doctors 1
Ring 0.8238702787131494
ames 1
package 1
petition 1
relatives 1
Maur@@ 1
17.@@ 1
BCE 1
ually 1
Brah@@ 1
arrangements 1
brings 1
siblings 1
Lucas 1
Newport 1
divorced 1
jail 1
orbit 1
Dist@@ 1
Fisher 1
discovers 1
entation 1
lon@@ 1
AE@@ 1
citizenship 1
Buenos 1
Drama 1
Nancy 1
Aires 1
Sox 1
journals 1
sheet 1
1853 0.8693552390542926
revol@@ 1
tit@@ 0.9004583995344411
pianist 1
Heights 1
Kate 1
Reed 1
choir 1
files 1
survivors 1
wind@@ 1
Son 1
ando 1
antly 1
hai 1
threats 1
yle 1
apping 1
lasting 1
Morocco 1
enable 1
gent@@ 1
Chelsea 1
Tag@@ 0.5336655134610969
Lad@@ 0.8560018806511156
anese 1
pu@@ 1
recognize 1
volunteer 1
mini 1
Chester 1
Environment 1
clim@@ 1
Malta 1
esc@@ 1
Armenia 1
Nav@@ 1
SN@@ 1
burning 1
fluid 1
Lithuania 1
staged 1
alli@@ 1
Westminster 1
banking 1
congregation 1
rebels 1
Seg@@ 0.5456703881778151
acks 1
att 1
rever@@ 1
16.@@ 1
Jos@@ 1
dan@@ 0.7544373800103114
cio 1
pregnant 1
sleep 1
ull 1
Maz@@ 1
interchange 1
streak 1
vig@@ 1
doctorate 1
exterior 1
ital@@ 0.9332527339126266
Cyprus 1
acknowledged 1
gin 1
Salt 1
master@@ 1
Todd 1
Tol@@ 1
ec 0.8178498410578913
impressed 1
lineup 1
theorem 1
circular 1
sten 0.0770420158991488
towers 1
Rovers 1
averaged 1
eting 1
eva 1
stability 1
AFC 1
Ferdinand 0.42740248716541007
Rob 1
deeply 1
grants 1
onwards 1
beer 1
nest 1
ept@@ 1
yon 1
Oak 1
operators 1
panels 1
omin@@ 1
Christ@@ 0.3665870236954052
Palmer 1
Wol@@ 0.3253478114282122
check 1
sequences 1
DF 1
Sv@@ 1
Using 1
ci 1
prototype 1
honored 1
interface 1
ulating 1
ailing 1
transformed 1
Ruth 1
achievement 1
Oil 1
entity 1
knee 1
pt 1
destination 1
intermediate 1
advisor 1
criticised 1
colonel 1
1849 0.6510162495130918
Rot@@ 0.259875845581847
disappeared 1
los@@ 0.8702294134310237
Hag@@ 1
Hurricane 1
nan@@ 1
quot 1
aca 1
mentions 1
26@@ 1
bla@@ 1
Rac@@ 1
aves 1
conflicts 1
egg 1
Ahmed 1
Big@@ 1
Vir@@ 1
4,000 1
Dig@@ 1
carved 1
Fighter 1
quarters 1
sus 1
Rev. 1
fortress 1
Sag@@ 1
Transit 1
Marcus 1
deliver 1
headquartered 1
hosting 1
voyage 1
warfare 1
Rag@@ 1
nationwide 1
sharp 1
stan 1
stand@@ 0.5598011898645029
tle 1
valid 1
Santiago 1
nut 1
scandal 1
school@@ 1
scorer 1
Pat 1
Safety 1
Stevens 1
Yang 1
aja 0.8509710017709324
corps 1
medic@@ 1
collegiate 1
lecturer 1
Chen 1
Lisa 1
Say@@ 1
anta 1
spor@@ 0.819832753557731
Amendment 1
Peak 1
Tampa 1
audiences 1
larvae 1
Cad@@ 1
Diamond 1
Raz@@ 1
iling 1
circum@@ 1
danger 1
Buck@@ 1
R.@@ 1
Still 1
alt@@ 0.2139588586336697
ë@@ 0.9495045985140349
Living 1
Pent@@ 1
Relations 1
cad@@ 1
conjunction 1
restore 1
varies 1
Copenhagen 1
Giovanni 0.8303120552134503
etal 1
ferry 1
quantum 1
receiver 1
sand@@ 1
1847 0.8106043847106534
Additional 1
collect 1
colours 1
feeding 1
travelling 1
Tennis 1
high@@ 1
Artist 1
SM@@ 1
assignment 1
atri@@ 1
emerging 1
enburg 0.1991936679804499
particles 1
drink 1
holder 1
Sr. 1
expanding 1
180 0.8237962340201225
Hos@@ 1
dam@@ 1
heim 0.13974668744927263
neutral 1
Gang@@ 0.8080977322033762
closest 1
grid 1
Chancellor 1
Tiger 1
inae 1
morph@@ 1
singers 1
guidance 1
Lag@@ 0.5070190724899931
Napoleon 1
hoped 1
presidency 1
HC 0.9148013897459296
continent 1
CM@@ 1
alt 0.30757092031345706
eter@@ 0.742049600902613
esis 1
privately 1
Solomon 1
ario 1
encountered 1
ente 0.21346334089449853
suddenly 1
Machine 1
database 1
publish 1
pupils 1
Aut@@ 0.3831931513356059
Fra@@ 0.8267548682994916
Franco 1
graphics 1
Radi@@ 0.4532887879413157
flooding 1
indoor 1
proceeded 1
Lon@@ 1
ven 0.29322619199640765
ê@@ 0.8351856480946479
Cla@@ 1
register 1
topic 1
icity 1
sailing 1
rounded 1
Parliamentary 1
Princeton 1
lication 1
struggled 1
AI 1
prints 1
quoted 1
ss@@ 0.23589982367876627
stretch 1
kings 1
withdrawn 1
{ 1
Cit@@ 1
SI 1
trio 1
Steel 1
favourite 1
н@@ 1
advis@@ 1
curve 1
roy@@ 1
survival 1
tomb 1
deposits 1
lav 1
march 1
wet 1
reads 1
Aer@@ 1
bee 1
pen 0.9736148556003489
tro 1
aked 1
eon 1
Distinguished 1
Estate 1
Herald 1
provision 1
LC 1
properly 1
aba 1
autumn 1
holes 1
joins 1
ret 1
sar@@ 1
Ja@@ 1
Total 1
paying 1
Duncan 1
ather@@ 1
wheels 1
og 1
shelter 1
Cardinals 1
Davies 1
Dub@@ 1
upgraded 1
Cavalry 1
nineteenth 1
Jac@@ 1
graph 1
Actor 1
Cardiff 1
muscle 1
Holmes 1
Ras@@ 0.9810243859733285
ili 1
reliable 1
Fun@@ 1
Simpson 1
clo@@ 1
liked 1
Advisory 1
SD 1
prompted 1
cataly@@ 1
evol@@ 1
facts 1
fr@@ 0.5764766173918353
liqu@@ 1
ser 0.4408174445718346
Ober@@ 0.05218640268317253
achievements 1
anne 0.5824988033741652
ady 1
corporation 1
illing 1
occurring 1
Left 1
Plant 1
Publishing 1
conferences 1
consultant 1
27@@ 1
Java 1
Sabha 1
imag@@ 1
integ@@ 1
sible 1
chore@@ 1
encounter 1
punishment 1
Desert 1
deals 1
farms 1
itarian 1
mur@@ 1
reveal 1
Stre@@ 0.40103665022114715
sley 1
welfare 1
wood@@ 1
Canterbury 1
Rud@@ 1
acquire 1
wickets 1
Zh@@ 1
CO 1
Eugene 1
XI 1
imprisonment 1
journalism 1
nam@@ 0.8212463671007909
Rid@@ 1
Rum@@ 1
aly@@ 1
relegation 1
18.@@ 1
Dynasty 1
unn@@ 0.9659471434561002
Events 1
Far 1
ared 1
discover 1
oot 1
Det@@ 0.7449169153256728
Nintendo 1
Rus@@ 1
cotton 1
lectures 1
Manitoba 1
Geneva 1
batting 1
governed 1
techn@@ 0.7292854274728375
uf@@ 0.4610528307727335
FBI 1
impressive 1
random 1
rocket 1
Belgrade 1
formations 1
soap 1
trouble 1
array 1
Popular 1
Chapter 1
Phil@@ 1
Soul 1
Lithuanian 1
amine 1
chess 1
Pre 1
1846 0.801728744606522
orting 1
resource 1
engineers 1
Care 1
Franz 0.14918129487799003
Sudan 1
goal@@ 1
person@@ 0.9918397254262586
com 1
layers 1
ku 1
rape 1
Jag@@ 1
Personnel 1
explore 1
Indigenous 1
lessons 1
mall 1
transported 1
Queens 1
Tit@@ 1
airs 1
edges 1
eping 1
consensus 1
NC 1
\ 1
algorithm 1
sensitive 1
sur 0.3469905660004557
ś@@ 1
atives 1
blues 1
varying 1
Dominican 1
reservoir 1
treat 1
attraction 1
automatically 1
fe 0.28351596605697793
strikes 1
Aff@@ 0.9888357970891498
helicopter 1
ring@@ 0.9174485298274296
Twitter 1
mus 0.7803241605289948
performers 1
dock 1
Def@@ 1
coh@@ 1
enne 0.6091092936606807
rington 1
Moreover 1
gli@@ 1
ution 1
balls 1
esch@@ 0.19911823697573686
Bradford 1
Brussels 1
Ellis 1
practiced 1
Lab@@ 0.7458269126616858
Techn@@ 0.6795176683875229
esp@@ 0.8730297735845984
Fifth 1
investors 1
north@@ 1
Philosophy 1
classi@@ 1
CP 1
Parks 0.979011254448991
ected 1
portraits 1
rup@@ 1
PR@@ 1
enza 1
ult 1
zones 1
Pau@@ 0.700130950617125
reactions 1
gence 1
preliminary 1
Fernando 1
Shel@@ 1
itable 1
Armstrong 1
distant 1
Emily 1
decreased 1
drawings 1
lip@@ 1
1830 0.7091682606218557
prayer 1
smith 1
wo@@ 0.9360860957079686
Kenneth 1
oop 1
vis 1
Julia 1
Wind@@ 0.310017096318009
poll@@ 1
CF@@ 1
eating 1
Angels 1
ü@@ 0.119453495557465
Amateur 1
Tree 1
Yellow 1
peer 1
teammate 1
twentieth 1
IX 1
estates 1
tak@@ 0.5572796192906645
Engineers 1
bow@@ 1
curriculum 1
rapper 1
1812 0.9288339595598211
Emma 1
oz@@ 0.9933440752117509
permit 1
registration 1
ux 0.8261721415739645
Legislature 1
militia 1
Subsequently 1
client 1
Mass@@ 0.6876736848319318
And@@ 1
Nigerian 1
varieties 1
occasional 1
offs 1
phenomenon 1
stolen 1
Interior 1
Lei@@ 0.35885365043137357
Tang 1
ables 1
ão 1
AIDS 1
beneath 1
colored 1
southeastern 1
thor@@ 1
20.@@ 1
ade@@ 1
customer 1
hydrogen 1
ives 1
noble 1
Andrews 1
Hull 1
priests 1
renovation 1
girlfriend 1
pronounced 1
shi 1
Double 1
sty@@ 1
tight 1
Hear@@ 1
Return 1
competitors 1
dynamic 1
watched 1
solely 1
Bes@@ 0.33406376138175276
ason 1
terrain 1
uli 1
aftermath 1
discipline 1
governmental 1
libraries 1
Main@@ 0.9466825302324748
dense 1
Ron@@ 1
UC@@ 1
bills 1
hopes 1
interactions 1
shock 1
Ronald 1
absolute 1
consequence 1
intensity 1
Basin 1
genera 1
wage 1
Fol@@ 0.6073507173887753
ament 1
ruins 1
Again 1
Brooks 1
Comedy 1
Eight 1
delay 1
handled 1
starter 1
Jon@@ 1
Ng@@ 1
grain 1
mansion 1
just@@ 1
oids 1
Bradley 1
aces 1
Lud@@ 0.9810829003114289
armies 1
dancer 1
rivalry 1
tribal 1
Saskatchewan 1
dying 1
oro 1
quest 1
rum@@ 1
.. 1
Guards 1
eil 0.25713568189821934
ī 1
1845 0.7581106028535287
Brid@@ 1
Deep 1
hull 1
Zhang 1
congressional 1
embarked 1
IA 1
Stan@@ 0.9091619412231855
Universe 1
ony@@ 1
supporter 1
witness 1
Powell 1
configuration 1
dal 1
fix@@ 1
inclusion 1
push 1
XX@@ 0.9974012297194199
finite 1
flowering 1
Now@@ 0.7124078309080153
WA 1
creator 1
storyline 1
Presbyterian 1
Similarly 1
kilometres 1
territorial 1
akh 1
bol@@ 1
striking 1
furn@@ 1
impro@@ 1
sens@@ 1
Colonial 1
Without 1
atta 1
experim@@ 1
theology 1
withdrawal 1
Eurovision 1
Us 1
compounds 1
fran@@ 1
ingen 0.11227101974128723
locked 1
Aw@@ 1
aerial 1
nit@@ 1
ald 0.8272310820552774
enger 1
export 1
pac@@ 1
dozen 1
Gibson 1
Lodge 1
Mod@@ 0.6074384110918379
cab@@ 1
subspecies 1
NR@@ 1
Nep@@ 1
scen@@ 1
Henderson 1
Wind 0.9107955944088668
Zam@@ 1
hitting 1
meth@@ 1
southwestern 1
tia 1
tox@@ 1
acclaim 1
Actress 1
conquest 1
jud@@ 1
viol@@ 1
Naz@@ 1
ammunition 1
northeastern 1
Progressive 1
kills 1
patron 1
voc@@ 1
observations 1
ral@@ 1
easier 1
enb@@ 0.14137490640196246
dar 0.1760917381938338
road@@ 1
sha 1
Against 1
Chase 1
NATO 1
stre@@ 0.29515602810461966
Aircraft 1
Nas@@ 1
define 1
Gan@@ 1
IBM 1
Recording 1
diet 1
guards 1
Page 1
surfaces 1
Bull 1
Critics 1
learns 1
unclear 1
workshops 1
zh@@ 1
Whe@@ 1
bassist 1
bud@@ 1
garrison 1
1,0@@ 1
alisation 1
hab@@ 0.5640954310125714
super 1
get@@ 0.3056350312468203
Pac@@ 1
Tus@@ 1
accomplished 1
allocated 1
furniture 1
trips 1
Julian 1
esia 1
ras@@ 0.7121208423171906
125 0.983067100906462
It@@ 1
argue 1
rotation 1
anchor 1
kt@@ 0.24648346707467036
Abdul 1
Bryan 1
borne 1
chronic@@ 1
fees 1
moments 1
watching 1
bab@@ 1
doctrine 1
fraud 1
trend 1
counted 1
hybrid 1
standings 1
tension 1
Regular 1
Vin@@ 1
missionary 1
omm@@ 0.503978804401623
Surrey 1
boss 1
regardless 1
Pav@@ 1
elin 1
collapsed 1
ru 1
stronger 1
tram@@ 1
Indi@@ 0.636537158863917
Leon 1
attitude 1
theoretical 1
Cross@@ 1
Others 1
Rap@@ 1
environments 1
show@@ 1
Bear 1
commanding 1
investigated 1
transformation 1
Complex 1
condemned 1
val 1
Brad@@ 1
administ@@ 1
fir@@ 1
iter 0.8655091351316474
pack 1
Capitol 1
collecting 1
incidents 1
lith@@ 1
magnitude 1
pec@@ 1
Liber@@ 0.8956894927340324
Study 1
eni 1
rough 1
Proc@@ 1
aches 0.9970021271768976
bishops 1
hop@@ 1
multip@@ 1
vet 1
accordance 1
Saxon 1
Fish 1
estimate 1
inus 0.6845193334634915
Dro@@ 0.5298802241741732
log 1
ood@@ 1
shoulder 1
Mem@@ 0.9262985841225913
Orlando 1
blocked 1
mph 1
Off 1
committees 1
interim 1
locks 1
Caroline 1
Filipino 1
GP@@ 1
Kingston 1
Legion 1
manual 1
moon 1
nicknamed 1
200@@ 1
Michel 0.8241480691870817
settle 1
Brighton 1
Official 1
ges@@ 0.17016978588800508
loved 1
19.@@ 1
ensemble 1
oted 1
rag@@ 1
Kot@@ 1
developer 1
farmer 1
hei@@ 0.4269919620459179
involve 1
temples 1
united 1
MLB 1
PlayStation 1
equally 1
habitats 1
stick 1
Republicans 1
absorbed 1
consent 1
Agreement 1
depicting 1
ground@@ 1
ounded 1
snow@@ 1
tain 1
Lakes 1
Leslie 1
2.0 1
shallow 1
yu 1
Bhar@@ 1
Colin 1
Hob@@ 1
Kay@@ 1
Mid 1
omb@@ 1
ı 0.9286406583976724
NS 0.40314084507485737
insects 1
Chan@@ 1
Iceland 1
arity 1
Shak@@ 1
Wel@@ 0.354437229981497
directing 1
cians 1
gathering 1
organisms 1
stake 1
orth@@ 1
photos 1
Electoral 1
Low@@ 1
amo 1
strict 1
Plaza 1
bacteria 1
elimination 1
Lyon 1
Number 1
Off@@ 0.5264510724039319
set@@ 1
aut 0.5277418113865654
cleared 1
consequences 1
receptor 1
Planning 1
Resources 1
coun@@ 1
30,000 1
expelled 1
leton 1
Lucy 1
Pete 1
renovated 1
Arsenal 1
LGBT 1
Preston 1
mutual 1
projec@@ 1
reconstruction 1
25.@@ 1
aters 1
ballot 1
conceived 1
Ple@@ 1
cket 1
depends 1
diagnosed 1
introduce 1
ologically 1
sheep 1
Aj@@ 1
D.@@ 1
Woods 1
pose 1
Pier@@ 1
Tyler 1
Canyon 1
GT@@ 1
Scot@@ 1
promising 1
rum 1
Reform 1
ached 1
vegetation 1
chron@@ 0.7612479521203227
lik@@ 0.7004160845178504
nan 1
Eg@@ 0.6178107672033397
virtually 1
calcul@@ 1
intent 1
Petro@@ 1
Presidential 1
ista 1
overs 1
compensation 1
exploration 1
CT 1
tan@@ 1
CR@@ 1
advised 1
casting 1
healthy 1
navig@@ 1
Globe 1
Memphis 1
mathematical 1
mond 1
Course 1
Episcopal 1
verses 1
Chap@@ 1
aph@@ 1
assassination 1
considers 1
inda 1
physi@@ 1
Estonia 1
hima 1
manufacture 1
Gon@@ 1
doubt 1
law@@ 1
logic 1
pseud@@ 1
thermal 1
AG@@ 1
WWE 1
character@@ 1
pace 1
promise 1
questioned 1
ocene 1
raw 1
suburbs 1
Om@@ 1
Cob@@ 1
EM@@ 1
Robertson 1
doc@@ 1
genres 1
nel 1
stead 1
1800 0.5858781213570352
Bailey 1
Guar@@ 1
ape 1
escu 1
heter@@ 1
USSR 1
ike 1
proposals 1
Josh 1
clothes 1
dev@@ 1
onom@@ 1
resolved 1
Am 0.020858546358953692
Lap@@ 1
1.2 1
Located 1
WW@@ 1
bones 1
Ahmad 1
acet@@ 1
elles 0.45483412787987365
gol@@ 0.6597265324645719
Cri@@ 1
SU 1
bowl 1
separately 1
massacre 1
nose 1
talking 1
adoption 1
upset 1
estimates 1
1844 0.7986664864490314
Asi@@ 1
Blake 1
Get 1
I.@@ 1
Amy 1
Liberation 1
Edition 1
loading 1
manor 1
preparing 1
tables 1
thre@@ 1
ultimate 1
wan@@ 1
Lun@@ 1
Miles 1
integral 1
isi 1
predicted 1
350 0.8447700895701628
Allan 1
Amazon 1
Stock 1
inches 1
iz 0.9966114014896873
Oslo 1
dly 1
quet 1
Arn@@ 0.49631151787431077
Alpha 1
Curtis 1
Windsor 1
Hus@@ 0.9991947963960189
aa 1
sporting 1
alis@@ 0.5473840896991429
Naples 1
apped 1
feels 1
160 0.794343331738018
agu@@ 1
bore 1
kitchen 1
wildlife 1
1841 0.8534671575259705
HS 1
Lis@@ 1
Lub@@ 1
autonomous 1
bil@@ 0.6037817295767077
undertaken 1
Hand@@ 0.2427346000703764
Sang@@ 1
edy 1
enly 1
Notre 1
servant 1
6,000 1
pink 1
Rabbi 1
Richardson 1
constantly 1
guided 1
oh 1
amy 1
legally 1
mort@@ 1
ernmost 1
phones 1
Bod@@ 0.8385627532399873
Impact 1
laps 1
long@@ 1
necessarily 1
Cath@@ 1
María 1
amer@@ 1
Krist@@ 0.9904768237794354
inaugurated 1
Ast@@ 1
Bau@@ 0.06113974120321618
Ess@@ 0.9997281269518747
oos 1
que@@ 1
probability 1
ept 1
kon@@ 0.11704170489762626
entries 1
sword 1
End@@ 0.2246751499607586
Hopkins 1
Mann@@ 0.5979384975794888
Principal 1
tourists 1
Speaker 1
synthes@@ 1
walks 1
26.@@ 1
Cov@@ 1
Hou@@ 1
gee 1
pounds 1
Dj@@ 1
confusion 1
rowing 1
sustainable 1
24.@@ 1
explosion 1
las 0.889316563168732
stab@@ 1
supp@@ 1
GP 1
Sti@@ 0.36775986959581886
stere@@ 1
Rachel 1
SL@@ 1
agrees 1
bred 1
rin@@ 0.8655112226127444
Henri 0.845346701358475
Iv@@ 1
Rou@@ 0.9716258946156401
revived 1
stan@@ 0.615044458085347
preservation 1
abortion 1
coin 1
eck@@ 0.2630679665371163
instructions 1
optical 1
Fab@@ 1
GM 1
nucle@@ 1
port@@ 1
scar@@ 1
spectrum 1
uer@@ 0.9860844553906769
facade 1
Boy@@ 1
Frankfurt 0.1676910091037759
Kirk@@ 1
knows 1
Depression 1
crowned 1
Inn 1
aly 1
consideration 1
issi@@ 1
profession 1
1837 0.8337577994497637
Nathan 1
borg 1
corn 1
crop 1
mers 1
Literary 1
Edmund 1
ethn@@ 1
exemp@@ 1
manuscripts 1
torpedo 1
urs 0.6799538696523467
Albania 1
badly 1
cler@@ 1
stepped 1
tum@@ 1
Num@@ 1
monitoring 1
poorly 1
withdraw 1
1839 0.8174306704451023
27.@@ 1
certainly 1
mechanisms 1
VC 1
itz@@ 0.210336910558323
Agu@@ 1
Classical 1
Dog 1
Sei@@ 0.4261936289973111
consistently 1
ples 1
rid 1
screenplay 1
unc@@ 1
Boeing 1
ashing 1
happen 1
α 1
Being 1
colon@@ 1
ease 1
oom 1
Spider 1
Support 1
bold 1
ritual 1
Coalition 1
Ever@@ 1
asis 1
ib 1
1500 0.4636243092811124
Lutheran 1
Pay@@ 1
Cornwall 1
Kumar 1
symbols 1
ö@@ 0.12055737327566357
28@@ 1
Pick@@ 1
autom@@ 1
naturally 1
1838 0.8294825843324108
Calgary 1
Log@@ 0.8896889311822801
Reynolds 1
140 0.8406590664624126
Milton 1
advocated 1
ector 1
hen@@ 1
Psych@@ 0.5843410944014045
apolog@@ 1
xed 1
Feder@@ 0.7184355077613344
Laz@@ 1
cycles 1
Ey@@ 1
Nadu 1
ories 1
sits 1
tackle 1
administrator 1
André 0.7675168161427226
gal@@ 1
sal 1
Inter 1
capabilities 1
developers 1
sacred 1
sculptor 1
Yar@@ 1
ologies 1
acclaimed 1
lay@@ 1
ond 1
1832 0.7889124796774349
Etymology 1
oria 1
researcher 1
Administrative 1
Glen 1
assing 1
use@@ 1
icus 1
landmark 1
Rav@@ 1
Tir@@ 1
Chand@@ 1
Salvador 1
aggressive 1
chorus 1
enjoy 1
Lords 1
Plymouth 1
premises 1
statistical 1
streaming 1
town@@ 1
gi 1
marsh@@ 1
orts 1
Albany 1
Slovenia 1
Hab@@ 0.6481282320150222
athletics 1
exec@@ 1
gri@@ 1
thriller 1
Yor@@ 1
interrupted 1
vulnerable 1
Founded 1
Herzegovina 1
arose 1
cho@@ 1
navy 1
slopes 1
Americas 1
Fraser 1
comprised 1
oons 1
thes@@ 1
Thr@@ 1
horizontal 1
mented 1
socialist 1
Rah@@ 1
fortune 1
grass@@ 1
Claude 1
Patri@@ 0.669214209238009
SH 1
architects 1
elt 0.16672220095777682
innovative 1
unveiled 1
Physics 1
chem@@ 1
dium 1
measuring 1
revenge 1
shield 1
Case 1
Harbour 1
delegation 1
mills 1
reader 1
Belfast 1
Emmy 1
Nur@@ 1
Prussian 1
proclaimed 1
ure@@ 1
rus 1
tig@@ 0.5562118464738723
25th 1
Wis@@ 1
aller 0.1325256798025038
eig@@ 0.37097643096621885
gle 1
turn@@ 1
Burns 1
Domin@@ 1
Eve 1
Sisters 1
Tropical 1
considerably 1
Kosovo 1
viewing 1
Cham@@ 1
acle 1
compact 1
kov@@ 1
opposing 1
sex@@ 1
Anton@@ 0.8230129924136271
Tah@@ 1
bankruptcy 1
elect 1
interviewed 1
promotional 1
Porter 1
adv@@ 1
gn@@ 0.5870666294989081
orientation 1
respec@@ 1
succeed 1
Reid 1
atics 1
depicts 1
rushing 1
otype 1
wake 1
wild@@ 1
Cox 1
rely 1
vinyl 1
Cass@@ 1
Sep@@ 1
beds 1
conversation 1
convert 1
limestone 1
semifinals 1
gue 1
ishment 1
pass@@ 0.7131007696530534
Rain@@ 1
circles 1
northwestern 1
Edmonton 1
alla 1
ares 0.8050479483948624
fas@@ 1
orb@@ 1
basement 1
customs 1
proportion 1
Southwest 1
discussions 1
omes 1
1836 0.814074047593353
Musi@@ 0.7987265702619405
RI@@ 1
bout 1
Cinema 1
Rosa 1
refer@@ 1
altern@@ 1
iana 1
vicinity 1
Agricultural 1
disputed 1
iet 1
nominee 1
scattered 1
pan 1
shipped 1
gie 1
brands 1
hub 1
ū 1
Penn@@ 1
mas@@ 1
terrorist 1
Religion 0.5071271221155265
sar 1
tiles 1
Horn@@ 0.6781363535927537
interpre@@ 1
Lancaster 1
Paralympics 1
fin 1
lease 1
4.5 1
aton 1
hurricane 1
Crystal 1
Muk@@ 1
physically 1
recover 1
ulus 1
Burton 1
refuses 1
suburban 1
Contest 1
cov@@ 1
ped 1
saving 1
Andrea 1
Beau@@ 1
McDonald 1
recreational 1
thy 1
Sik@@ 1
eks 1
mosque 1
ppers 1
Đ@@ 1
Frank@@ 0.6755762750766736
Rivers 1
Roman@@ 0.5421291096294295
repairs 1
Catholics 1
Jennifer 1
summar@@ 1
Us@@ 1
Zar@@ 1
explored 1
healthcare 1
oval 1
usa 1
23.@@ 1
360 1
attract 1
eighteen 1
itude 1
outcome 1
PP 1
len@@ 0.37485016179170116
organize 1
rain@@ 1
Dru@@ 0.9280174385063632
Path@@ 1
jointly 1
leb@@ 0.5160005493612339
voltage 1
Alexandria 1
Hak@@ 1
Halifax 1
Jal@@ 1
Wagner 0.6688467905041059
lica 1
offense 1
opens 1
vital 1
Movie 1
UC 1
clin@@ 1
umps 1
Til@@ 0.8992470050560992
Writers 1
har 1
kinds 1
21.@@ 1
Discovery 1
Indo 1
Rog@@ 1
Tem@@ 1
aris 1
legendary 1
ling@@ 0.7016859380879924
rulers 1
scales 1
dimensions 1
ogen@@ 0.8797931913119771
0,000 1
hamlet 1
iff 1
kit 1
Near 1
omet@@ 1
uda 1
gates 1
noticed 1
sponsor 1
stal@@ 1
trick 1
Devon 1
Organ@@ 0.6827128890140919
facilitate 1
Bond 1
aus 0.005036650300550439
batt@@ 1
exhibits 1
recurring 1
Criminal 1
Gene 1
crucial 1
desired 1
Working 1
feminist 1
host@@ 1
Dri@@ 1
flagship 1
inas 1
organis@@ 0.7942196980616775
polic@@ 1
woods 1
P.@@ 1
Springfield 1
ern 0.03322602736048435
gall@@ 1
lifting 1
oak 1
origin@@ 1
Hell 1
isha 1
Physical 1
Warriors 1
blind 1
caps 1
rhythm 1
til@@ 1
uba 1
Day@@ 1
investigations 1
rays 1
sky@@ 1
surrendered 1
Istanbul 0.76066270528947
Guild 1
Seminary 1
emigrated 1
seal 1
Phot@@ 0.7411882748731504
fic@@ 1
implement 1
responsibilities 1
Bac@@ 1
Never 1
alize 1
trophy 1
1842 0.7528597345031226
excess 1
murders 1
FF 1
Inf@@ 1
bulk 1
ext@@ 1
mas 1
tification 1
alo 1
molecules 1
ove 1
wait 1
yne 1
ș@@ 1
Rein@@ 0.3328314544541698
lesser 1
monks 1
theor@@ 1
ï@@ 1
Brook 1
MI@@ 1
paras@@ 1
sweet 1
acre 1
age@@ 0.7266509531203138
placement 1
unity 1
breed 1
iv 1
lanes 1
wen 1
Exhibition 1
Martha 1
Meh@@ 1
Pir@@ 0.6024747769277372
eira 1
instructor 1
Hir@@ 0.5074025236021588
Macedonia 1
finale 1
wrestler 1
NY@@ 1
amin@@ 1
conspiracy 1
referee 1
uki 1
Monte 0.9990132183942719
Rich@@ 0.5773764608210241
Ut@@ 1
ancing 1
proceedings 1
toll 1
compatible 1
elt@@ 0.3099313682078499
esian 1
35@@ 1
composers 1
graduates 1
novelist 1
reserved 1
substance 1
synthesis 1
umi 1
NSW 1
Sham@@ 1
killer 1
anza 1
clerk 1
CIA 1
ID 1
bun@@ 1
1843 0.73693147591062
CN@@ 1
amba 1
con 1
prohibited 1
stance 1
Broad@@ 1
Copa 1
Rhine 1
Tourism 1
removing 1
Compar@@ 1
deployment 1
Aber@@ 1
Seoul 1
availability 1
cked 1
dit 1
emia 1
cluster 1
ehouse 1
grandmother 1
opes 1
saf@@ 1
pling 1
Eff@@ 1
Gos@@ 1
Ve@@ 1
boxes 1
convoy 1
distinguish 1
sville 1
Buddhism 1
Wyoming 1
typ@@ 1
Zo@@ 0.6185947931578427
erst@@ 0.1132896601783758
subfamily 1
Ellen 1
minist@@ 1
Portsmouth 1
encies 1
&apos;Brien 1
Access 1
marble 1
Fellowship 1
navigation 1
priority 1
sav@@ 1
unsuccessfully 1
Emer@@ 1
kov 1
vent 1
drives 1
uta 1
Boo@@ 1
Publications 1
Theodore 1
masters 1
penet@@ 1
purple 1
1815 0.5108084310475697
Change 1
constituted 1
mann@@ 0.30594869061994157
otted 1
presenter 1
rendered 1
tif@@ 1
Train 1
cali@@ 1
certificate 1
Poll@@ 1
Richards 1
filling 1
Prussia 1
capit@@ 1
deser@@ 1
fossil 1
maj@@ 1
decree 1
essay 1
Harper 1
Kad@@ 0.8294687516194594
mineral 1
arguments 1
geographical 1
rah 1
Frances 1
Head@@ 1
beg@@ 0.3013387927083322
erb@@ 0.19576038885405134
Johnston 1
ba@@ 1
chen 0.06690434697437164
Full 1
Speedway 1
Gel@@ 0.27037862045361594
explanation 1
estone 1
peninsula 1
rams 1
Cohen 1
Miss@@ 0.6113976769204784
NT@@ 1
dressed 1
sman 1
izer 1
Kim@@ 1
Sweet 1
aan 1
arguing 1
conserv@@ 1
mes@@ 0.9238528710531623
pled 1
propaganda 1
bourne 1
folded 1
inland 1
underlying 1
utility 1
highways 1
Baltic 1
Sla@@ 1
eshi@@ 1
hypothesis 1
knocked 1
remarkable 1
Bob@@ 1
liver 1
1835 0.7321308304374983
IF@@ 1
bits 1
Beyond 1
Rocky 1
contracted 1
eli 1
innovation 1
mythology 1
Forbes 1
Moses 1
cameras 1
itioned 1
performer 1
valued 1
Sap@@ 1
Various 1
best@@ 0.2708673393777964
specimen 1
Adri@@ 1
Directors 1
scrip@@ 1
Apart 1
Banks 1
deer 1
invitation 1
notion 1
pron@@ 1
Single 0.24725941503052037
commerce 1
maternal 1
rings 1
Factory 1
Kyle 1
bet 1
cloud 1
dus 0.8412564599447404
examined 1
fra@@ 0.4696524991999192
rically 1
tract 1
29@@ 1
Carlo 0.9506048943513488
Diana 1
McG@@ 1
Mercury 1
Dat@@ 0.4575089810223192
Rich 1
Self 1
kel@@ 0.5065160537558386
runway 1
spe@@ 0.671013172166068
Barnes 1
Bath 1
ael 1
dinner 1
proximity 1
Bronze 0.5004937319588086
Headquarters 1
Jack@@ 1
nia 1
ody 1
orum 0.9379672671553156
pollution 1
rical 1
Lum@@ 1
ahan 1
dic 1
endorsed 1
supervision 1
Cann@@ 1
Pep@@ 1
Malaysian 1
Hugo 0.5523066184897162
Manor 1
pipe 1
Chess 1
Nacional 1
gods 1
philosopher 1
salary 1
ears 1
nationalist 1
DE 1
Euro 0.1530667932797634
Wednesday 1
highlighted 1
lateral 1
pine 1
story@@ 1
taste 1
Churchill 1
Fir@@ 1
Sever@@ 1
cool 1
eries 1
fying 1
ocy@@ 1
Faith 1
Linda 1
PL@@ 1
Style 1
su 1
Ale@@ 1
Morrison 1
frag@@ 1
inn 1
Inside 1
Salem 1
lio 1
obvious 1
performs 1
spelled 1
ATP 0.8280607571334728
División 1
Haj@@ 1
inian 1
Arctic 1
lag@@ 0.37422233569399005
endangered 1
iko 1
sectors 1
Learning 1
Monroe 1
aths 1
chi@@ 1
imported 1
vik 1
Fut@@ 1
achieving 1
download 1
membrane 1
Bros. 1
Ulster 1
nights 1
PR 1
bike 1
dome 1
gastropod 1
presenting 1
yth@@ 1
28.@@ 1
Ethiopia 1
NASCAR 1
Plat@@ 0.7056894728262887
geons 1
Lines 1
Spar@@ 0.5352576883114654
alumni 1
diving 1
gy@@ 1
lifestyle 1
Gaelic 1
altar 0.9763740468945179
differ 1
politically 1
successive 1
Snow 1
ifying 1
sely 1
vacc@@ 1
Baronet 1
apartments 1
human@@ 0.9956410072523778
phil@@ 1
sculptures 1
shar@@ 1
Cornell 1
industri@@ 1
museums 1
Stro@@ 0.6246812550937746
carriage 1
frames 1
minimal 1
ancestry 1
ceiling 1
scor@@ 1
Arc@@ 1
arc 1
bic@@ 1
eb 1
loyal 1
mates 1
regiments 1
reopened 1
rio 1
ESPN 1
Web 1
protagonist 1
Watch 1
sively 1
break@@ 1
š 0.8443237051230537
Prison 1
rier 1
sided 1
strategies 1
tically 1
Jav@@ 1
Zimbabwe 1
hero@@ 1
DR 1
Step@@ 0.9666736268475445
batteries 1
bos@@ 1
connec@@ 1
cycling 1
guar@@ 1
manip@@ 1
organizing 1
prohib@@ 1
Store 1
adap@@ 1
priv@@ 1
disciplinary 1
draws 1
anism 1
pull 1
Karen 1
SW@@ 1
ennial 1
gin@@ 1
ounds 1
stint 1
Rochester 1
ew 1
fights 1
forec@@ 1
foundations 1
obtaining 1
tag@@ 0.571494707807787
workshop 1
Leicester 1
ceremonies 1
secular 1
shut@@ 1
velocity 1
dges 1
dle 1
raids 1
spotted 1
delegates 1
millions 1
terminated 1
Angel@@ 0.5583471428382919
Apollo 1
Haven 1
Picture 1
declaration 1
depot 1
worthy 1
bonds 1
kids 1
Beck@@ 0.8113970107938687
CT@@ 1
Online 0.5114707080472763
class@@ 1
national@@ 0.761202884746416
pel@@ 1
roy 1
satis@@ 1
tail@@ 1
Thursday 1
breast 1
Chilean 1
ki@@ 0.8145040102246506
ont 0.7216556757257713
www.@@ 1
cabin 1
hil@@ 1
proven 1
FK 0.8135305947582243
cow@@ 1
voices 1
Come 1
Sons 1
donations 1
humanity 1
22.@@ 1
BE@@ 1
preventing 1
uchi 1
aru 1
battalions 1
calculated 1
longtime 1
powder 1
Cum@@ 1
abe 0.5322490886197399
commissioner 1
enes 0.3921195455850739
ga@@ 1
tactics 1
uff 1
Chuck 1
Kazakhstan 1
allied 1
escort 1
Elliott 1
accompanying 1
consumers 1
entities 1
ouse 1
Cot@@ 1
Lynn 1
Silva 1
View 1
bread 1
consciousness 1
fiscal 1
tham 1
Money 1
shirt 1
GB 0.650911493684631
Testament 0.9890656583950715
bis 0.00497375488237971
flo@@ 1
icon 1
keeper 1
SB 1
stip@@ 1
Kath@@ 0.924073025452814
commercially 1
Yankees 1
chlor@@ 1
dem 0.00256330869277873
factories 1
ño 1
Bast@@ 0.7291298207692372
initiatives 1
Sheriff 1
disabled 1
induced 1
Shu@@ 1
Xi@@ 1
bounded 1
differenti@@ 1
Chang@@ 1
Nottingham 1
Taxonomy 1
lifted 1
Carol 1
Must@@ 1
payments 1
Jake 1
Te 1
Winnipeg 1
managers 1
Aberdeen 1
Estonian 1
Glenn 1
Lec@@ 1
escence 1
throwing 1
Swimming 1
minim@@ 1
motorcycle 1
Combat 1
accidentally 1
iter@@ 0.5924430417437307
Hut@@ 1
Level 1
invested 1
custody 1
electron 1
sla@@ 1
Da 0.06902802191329062
Recent 1
Slovakia 1
companion 1
dence 1
neo 1
phosph@@ 1
ratic 1
rations 1
shaft 1
Algeria 1
Nobel 1
UFC 1
parade 1
Devil 1
Overall 1
lady 1
neutr@@ 1
NA@@ 1
depl@@ 1
ough@@ 1
² 0.128889095242192
Newman 1
milli@@ 1
truly 1
1814 0.6673943103235602
Dod@@ 1
edo 1
enhanced 1
LO@@ 1
acceptable 1
aristoc@@ 1
elli@@ 0.4275810592741498
romance 1
ski@@ 1
Gerald 1
Islam@@ 1
flowing 1
sta@@ 0.737208568930457
Software 0.4712028357875092
otypes 1
Goo@@ 1
ener 0.13418421097175298
lining 1
wives 1
Lion 1
SD@@ 1
UP 1
demonstrate 1
kick@@ 1
Elections 1
challenging 1
directions 1
evaluation 1
gency 1
ners 0.6121064546457611
Marines 1
tern 0.1263342457971751
Ther@@ 0.6059225677344121
harbour 1
Edwin 1
Six@@ 1
demonstration 1
iors 1
item 1
snail 1
IL 1
Jesse 1
Lebanese 1
Vale 1
heroes 1
Del 1
dup@@ 1
artifacts 1
atti 1
contestants 1
enterprise 1
och 0.975163216878776
Associate 1
abol@@ 1
acker 0.9967199018088245
adia 1
alp@@ 1
dible 1
dict@@ 1
ll 1
veterans 1
Choice 1
Ori@@ 1
bour@@ 1
crashed 1
trim 1
1.6 1
1834 0.7406832261199673
Bavaria 1
Cat 1
Santos 1
Shin@@ 1
Tok@@ 1
disorders 1
eans 1
essays 1
105 0.9952543504231717
ador@@ 1
Julius 0.4241425741032948
Table 1
complicated 1
Ludwig 0.12232211757131345
Similar 1
Tos@@ 1
arg@@ 1
asted 1
settings 1
~ 1
Annie 1
Hell@@ 0.5780503057379724
Leon@@ 0.8741340344666702
Wyn@@ 1
achi 1
pap@@ 1
rectangular 1
roman@@ 0.5105488056004458
yman 1
comfortable 1
meg@@ 1
Nab@@ 1
Raja 1
fla@@ 1
loans 1
lover 1
Ballet 1
Thames 1
boun@@ 1
partnered 1
Industries 1
Kids 1
Nem@@ 1
regulated 1
Hei@@ 0.2277248237483269
chan@@ 1
diplomat 1
labels 1
orous 1
rot 0.3907033774039493
Kid@@ 1
Og@@ 1
mammals 1
merchants 1
phy@@ 1
1.1 1
Heaven 1
nomin@@ 1
old@@ 0.4529869756233018
sponsorship 1
sudden 1
BL 1
auction 1
elderly 1
gement 1
itar@@ 1
Fighting 1
lap@@ 1
miss 1
BB@@ 1
Crist@@ 1
Kul@@ 0.41350629593949256
detection 1
feder@@ 1
marketed 1
Antarctic 1
Marion 1
mystery 1
ocking 1
violin 1
Constitutional 1
uh@@ 0.6845128454522494
Walt 1
chester 1
convic@@ 1
remin@@ 1
Ecuador 1
Sle@@ 1
heating 1
rod 1
appropri@@ 1
dropping 1
steep 1
bir@@ 0.6635072019594909
nic@@ 1
epi@@ 1
rescued 1
rookie 1
Mine 1
careers 1
insisted 1
main@@ 1
rub@@ 1
sick 1
absent 1
gew@@ 0.1527513514594416
night@@ 1
oku 1
rebel 1
AV@@ 1
Ble@@ 1
Grammar 1
HA 1
emissions 1
hotels 1
orchest@@ 1
poets 1
rap 1
0.5 1
Myanmar 1
Nin@@ 1
Nun@@ 1
dom@@ 1
scre@@ 1
CF 1
Edgar 1
Heinrich 0.08755806516994959
accommodation 1
boxer 1
accuracy 1
yang 1
Hayes 1
dol@@ 1
fan@@ 0.7828766071012684
possessed 1
protesters 1
tobacco 1
vacant 1
Back@@ 0.5079432965413069
Emergency 1
neighbourhood 1
premier 1
qualities 1
rein@@ 0.5807607312610609
transm@@ 1
var 1
Gw@@ 1
Index 1
Individual 1
may@@ 1
activ@@ 1
amma 1
contrac@@ 1
Brother 1
Corn@@ 1
BO@@ 1
Ek@@ 0.8173207204040492
advancing 1
dealt 1
spite 1
Colony 1
Newfoundland 1
enter@@ 1
eur 1
trucks 1
Ladies 1
adjust@@ 1
fur 1
parishes 1
witnessed 1
Dorothy 1
Dul@@ 1
chaired 1
lengths 1
metric 1
reb@@ 1
Yos@@ 1
monuments 1
rill 1
editing 1
hectares 1
inos 1
prominence 1
Dale 1
Jeremy 1
Louisville 1
Yu 1
preceding 1
α@@ 1
Physi@@ 1
enton 1
specially 1
Previously 1
ander@@ 0.3004204880965715
continuously 1
immigrant 1
neighborhoods 1
uprising 1
Wimbledon 1
Crawford 1
Gospel 1
amps 1
count@@ 1
fa 1
hire 1
500,000 1
Chil@@ 1
Religious 1
endra 1
fun@@ 0.9053541025623782
ild@@ 1
reconnaissance 1
shel@@ 1
vari@@ 0.6867470884886463
Happy 1
akh@@ 1
enacted 1
immune 1
recommendations 1
Carroll 1
Flor@@ 0.7903867519545599
barrel 1
chase 1
Luxembourg 1
harm 1
particle 1
recogn@@ 1
rubber 1
static 1
0,@@ 0.2372705036699613
Chiefs 1
Supp@@ 1
ecting 1
prev@@ 1
t. 1
Mall@@ 1
Twin 1
quit 1
Housing 1
Nap@@ 1
Tel 1
broad@@ 1
elaborate 1
itch 1
oming 1
Than@@ 1
bu 1
verb 1
Stock@@ 0.5634023482853864
controlling 1
cooking 1
deceased 1
lac@@ 1
treating 1
Grand@@ 1
Malcolm 1
Maritime 1
Superior 1
bad@@ 1
ditions 1
lens 1
responses 1
Ibn 1
MW 1
Speed 1
Task 1
errors 1
geometry 1
intact 1
00,000 1
Afghan 1
Raiders 1
agn@@ 0.9650270185337758
amen 0.3656731828777671
nurse 1
Sherman 1
invaded 1
Jamie 1
believing 1
fail 1
kan 0.7400539350358983
ould 1
tern@@ 0.5911406432298945
Lay@@ 1
Patriots 1
kil@@ 1
tos 0.7802958469052664
urged 1
Constantinople 1
holders 1
Sev@@ 1
Tasmania 1
cular 1
Film@@ 0.10041955621430279
Marco 1
eph@@ 1
proceeds 1
undertook 1
Burma 1
GT 1
protecting 1
reinforced 1
unk 1
accounting 1
diver@@ 1
abstract 1
cream 1
issa 1
oshi 1
uka 1
Drake 1
FO@@ 1
Just@@ 1
appealed 1
bra 1
chest 1
respond 1
sac@@ 1
skaya 1
witnesses 1
Pirates 1
Spe@@ 0.5923439579588753
destroyer 1
inspec@@ 1
openly 1
stran@@ 1
ér@@ 0.9091983377050333
copyright 1
perception 1
rats 0.4212178743548473
warned 1
Amar@@ 1
Bug@@ 1
Show@@ 1
ems 1
oping 1
shan 1
Charleston 1
Doug 1
Large 1
Scout 1
fat 1
introducing 1
uss 0.4022629422248411
Cairo 1
Educational 1
PGA 1
Victory 1
chard 1
creek 1
refuge 1
Mall 1
angles 1
beck 0.32750253043925165
coloured 1
Á@@ 1
1831 0.772771213659384
Laur@@ 1
Shadow 1
consecrated 1
mandatory 1
succ@@ 1
volcanic 1
én 1
activation 1
batted 1
lacked 1
Budapest 0.6253697422368133
Burke 1
ballet 1
eze 1
gly@@ 1
plat@@ 1
reviewer 1
tile 1
Beatles 1
Franc@@ 1
eus 1
Bit@@ 0.8020910255961228
ague 1
broadcaster 1
branded 1
interference 1
testimony 1
HP 1
Ho 1
IB@@ 1
monitor 1
opted 1
regist@@ 1
thri@@ 1
tune 1
Eye 1
Janeiro 0.9170232895305563
Metal 0.3827599057913371
Blair 1
Gay@@ 1
L.@@ 1
climbing 1
equality 1
pursuit 1
retire 1
zen 0.11666595685835622
inned 1
oxide 1
phen@@ 1
Joshua 1
knowing 1
lee 1
raced 1
1.3 1
Tribune 1
bull 1
hap@@ 1
storey 1
Chemical 1
Programme 0.8413456021400535
barrier 1
bran@@ 1
Statistical 1
surgeon 1
climb 1
eption 1
Indoor 1
ensu@@ 1
governance 1
hide 1
loose 1
objectives 1
odes 1
oured 1
outlets 1
respected 1
Adult 1
Brun@@ 0.7863974923875076
Ernst 0.14896476300359113
disk 1
eti 1
infected 1
uncertain 1
Et@@ 0.5169102397631472
Minneapolis 1
Summit 1
Theory 1
admission 1
Claire 1
Insurance 1
Nuclear 1
Well@@ 0.8416664051265484
aste 1
ints 1
adopt 1
emig@@ 1
Episode 0.9725677689650511
Gas@@ 0.3259983022669157
Ric@@ 1
postponed 1
professionally 1
Fle@@ 0.5919948893608331
Sed@@ 1
inga 1
knockout 1
Carnegie 1
Glass 1
Panthers 1
Rak@@ 1
owa 0.3692677647430279
rankings 1
Glen@@ 1
alities 1
idal 1
plantation 1
polar 1
Emp@@ 0.5633107367215263
Link 1
Lip@@ 0.9646457855035546
Uruguay 1
Yugoslav 1
embassy 1
onds 1
Shore 1
tain@@ 1
Fall@@ 0.6901849770850986
Rig@@ 1
cognitive 1
1820 0.7006152399225573
flown 1
Baldwin 1
Chronicle 1
Yan@@ 1
Zi@@ 0.7078330597367148
aco 1
news@@ 1
seeks 1
Madonna 1
Raf@@ 1
fragments 1
à@@ 1
Ox@@ 0.9209481408256788
constituencies 1
hoo@@ 1
loads 1
narrowly 1
pent@@ 1
transmitter 1
Fat@@ 1
Nixon 1
Vor@@ 0.037283867019538834
aided 1
carriers 1
rider 1
120@@ 0.7822161469650828
Vari@@ 1
Walsh 1
collector 1
disputes 1
lab 1
liter@@ 0.9996685605693149
oko 1
Holocaust 1
buying 1
conquered 1
gia 1
icide 1
profits 1
reunited 1
Chang 1
Set 1
Strait 1
wel 1
conviction 1
overcome 1
Romans 1
Sty@@ 1
Tag 0.116149246980244
trails 1
Appeals 1
civic 1
derives 1
itated 1
opp@@ 0.6679673579729763
slope 1
ô@@ 1
Aftermath 1
Chin@@ 0.7654001029471872
Māori 1
SF 1
nal 1
side@@ 1
Mohammad 1
Reb@@ 0.5441578162646985
Č@@ 0.5132073313541207
Ost@@ 0.10195811238394469
Pall@@ 1
storms 1
otta 1
pick@@ 1
platinum 1
west@@ 0.264241617646206
70@@ 1
oct@@ 1
toler@@ 1
Bach 0.31352182403200907
preceded 1
.A. 1
Clay 1
Dubai 1
ace@@ 1
diagnosis 1
linking 1
AO@@ 1
SV 0.20330548822518188
aders 1
crews 1
divi@@ 1
finger 1
locals 1
mount 1
orship 1
pression 1
stabili@@ 1
tica 1
uru 1
Pine 1
amendment 1
etto 1
provider 1
án@@ 0.9360688054682283
102 1
Batman 1
Succ@@ 1
charted 1
contents 1
eable 1
scripts 1
Riv@@ 1
sail 1
wara 1
1833 0.7311851034847207
Logan 1
acceptance 1
acon 1
reasonable 1
40,000 1
Zu@@ 0.10504961065162599
dging 1
gross 1
yr 1
Schedule 1
themed 1
Gren@@ 1
a.@@ 1
lar 1
recreation 1
Kenny 1
arius 0.8194354212623639
smoke 1
3000 0.5224198646586383
marched 1
saint 1
Zero 1
dorsal 1
eder 1
Hed@@ 1
Solar 1
aud 1
communic@@ 1
missionaries 1
terrorism 1
Institution 1
cand@@ 1
mysterious 1
server 1
skating 1
tac@@ 1
complaints 1
judgment 1
projected 1
Fire@@ 1
dollar 1
threatening 1
zer@@ 0.16746684021543565
Berry 1
Doubles 1
F.@@ 1
accoun@@ 1
idd@@ 1
natur@@ 0.3601926894068694
Hoo@@ 1
hot@@ 1
Arms 1
Twenty 1
organ@@ 1
skilled 1
tickets 1
uring 1
ð@@ 1
Julie 1
pot 1
seating 1
Hart@@ 0.6065424976202638
foli@@ 1
itted 1
luxury 1
revolt 1
stairs 1
Observatory 1
ision 1
slot 1
Enterprise 1
Well 1
Yak@@ 1
atorial 1
refin@@ 1
Fon@@ 1
Jin 1
Jo 1
Magn@@ 0.8359070096447572
Wid@@ 0.8173857725460789
andra 1
capability 1
7.5 1
Female 1
Hav@@ 0.7442321586213422
idity 1
mir@@ 1
wishes 1
advantages 1
ky@@ 0.6795226000126594
passion 1
progres@@ 1
yield 1
Clara 1
Edge 1
ITV 1
attractive 1
protocol 1
Ghost 1
Sebastian 0.5288554629804518
agar 1
pastor 1
strings 1
tively 1
Communication 1
Id@@ 1
ny@@ 1
perpet@@ 1
pregnancy 1
Settlement 1
cone 1
sizes 1
detected 1
enna 1
neys 1
rad@@ 0.4008153569189701
} 1
Fen@@ 1
Khar@@ 1
Mathematics 1
Pand@@ 1
Rest@@ 0.6330495534722579
Vision 1
arran@@ 1
enclosed 1
leased 1
lock@@ 0.9294409356183058
wn 1
esman 1
essions 1
yan@@ 1
comedian 1
dissolution 1
Half 1
deci@@ 1
Liv@@ 0.7892503545952915
opinions 1
Ing@@ 1
bombs 1
recei@@ 1
wheat 1
T.@@ 1
Tot@@ 0.6289403972504931
complexity 1
rets 1
ą@@ 0.8034769385978386
Betty 1
Johns 1
Southampton 1
Volume 1
airfield 1
geographic 1
29.@@ 1
50th 1
Tap@@ 0.8861765036043725
eric 1
eliminate 1
ghton 1
gray 1
lawyers 1
wished 1
conduc@@ 1
maritime 1
resided 1
Fund@@ 0.4094577389779014
Sund@@ 1
contacts 1
instruc@@ 1
loaned 1
measurement 1
nesses 1
Sta@@ 0.6799954721497402
Streets 1
cats 1
providers 1
sphere 1
MPs 1
Mahar@@ 1
Northeast 1
certification 1
chin 1
Hood 1
trafficking 1
Holl@@ 0.6880275193636655
Leadership 1
Planet 1
councils 1
inform@@ 0.8602732976488052
transform 1
wit@@ 1
Andre@@ 0.8885354516253839
Joel 1
Lisbon 1
Outside 1
alien 0.9480659661868088
prosecution 1
traction 1
25,000 1
Syracuse 1
Willie 1
ango 1
blog 1
odd 1
Treasury 1
Built 1
dé@@ 1
violation 1
Conn@@ 1
Poetry 1
Wick@@ 0.98974494572907
recoun@@ 1
screened 1
tensions 1
ysi@@ 0.9538375644482777
Coc@@ 1
Eng@@ 0.9175907637209784
Hero 1
correspondence 1
fi 1
inge 0.5898030440487958
instances 1
mechan@@ 1
nursing 1
snake 1
750 0.923877479910013
Augustus 1
SO 1
aults 1
educator 1
gravity 1
Dag@@ 1
Heat 1
Krishna 1
Qatar 1
generating 1
ords 1
unlikely 1
Bron@@ 1
drainage 1
extrem@@ 1
Legend 1
Merit 1
freshman 1
ishi 1
skull 1
Marc@@ 1
artic@@ 1
cloth 1
propag@@ 1
Felix 0.5947047067157704
Structure 1
osi@@ 1
oves 1
rug@@ 1
speeds 1
tation 1
walked 1
Fern@@ 0.22721130287661243
Shield 1
blo@@ 0.8792866288591706
comb@@ 1
erk@@ 0.1033195022487804
secretly 1
1880s 1
Confederation 1
Que@@ 1
fossils 1
Francesco 0.9706818327214577
Lock@@ 1
Motor@@ 0.26146451068624793
TO@@ 1
Vie@@ 1
cation 1
critically 1
dose 1
measurements 1
shells 1
theaters 1
Salv@@ 1
teamed 1
trol@@ 1
-- 0.7557060059567565
Nev@@ 1
advisory 1
asan 1
autobiography 1
comment 1
grand@@ 1
illustrations 1
speaks 1
spelling 1
1,500 1
ushes 1
Gill@@ 1
bombers 1
kur@@ 0.17452762389755752
Creative 1
Fe 1
solve 1
Ig@@ 1
a.m. 1
destroying 1
entrepreneur 1
epp@@ 0.7904302061803371
erous 1
mak@@ 0.5469494730265725
1.4 1
Fiction 0.8721847740777888
Plan@@ 0.41348891534871357
Sli@@ 1
laser 1
nice 1
regulatory 1
viral 1
15,000 1
Boris 1
TH@@ 1
enlarged 1
isc@@ 1
isn 1
variables 1
wicket 1
Oak@@ 1
aching 1
finalist 1
phases 1
ruption 1
Biology 1
Kurt 0.36025021581682204
Lob@@ 0.6208119992293952
N.@@ 1
Soli@@ 1
extraordinary 1
ka@@ 0.870241446606615
kicked 1
traces 1
Heath 1
Kok@@ 0.6705458632142589
Mohammed 1
Ou@@ 0.9907335514454696
alley 1
nave 1
retro@@ 1
Georges 0.8892977349353328
Oh 1
ible 1
termed 1
trap 1
PT@@ 1
True 1
awar@@ 1
defunct 1
railways 1
veness 1
Cay@@ 1
Cowboys 1
Greatest 1
Sanskrit 1
eps 1
Dylan 1
equations 1
paths 1
spir@@ 1
Belarus 1
Brand@@ 0.25544276023395873
Charter 1
Ferguson 1
Tuesday 1
bag 1
granite 1
Monument 1
berger 0.17043484018495403
hostile 1
30.@@ 1
Asp@@ 0.962635619199871
Bry@@ 1
comparable 1
eson 1
searching 1
Anton 0.27633435384573274
Expedition 0.5012828095195756
adher@@ 1
broader 1
crater 1
curved 1
fruits 1
staying 1
termin@@ 1
Bombay 1
discre@@ 1
formats 1
itary 1
Plus 1
hanging 1
Bin@@ 0.5031076262432657
Fay@@ 1
abor@@ 1
bordered 1
entally 1
stems 1
Dim@@ 1
contributor 1
decoration 1
infl@@ 1
Given 1
Take 1
Tang@@ 1
els@@ 0.23646624028866262
Brad 1
Jacob@@ 1
Run@@ 0.7541319334168346
flank 1
peac@@ 1
Any 1
ctions 1
Empress 1
Sugar 1
aku 1
caf@@ 1
likes 1
Fam@@ 1
Stein@@ 0.0977797579229866
absor@@ 1
backup 1
eme 1
explicitly 1
orities 1
smallest 1
Marathon 0.8006087231540221
chassis 1
distingu@@ 1
dit@@ 1
iga 1
tram 1
36@@ 1
Eu@@ 0.8660474397110205
Troy 1
Whitney 1
coordinator 1
iller 0.7828598298810809
utilized 1
Bengali 1
Sofia 1
accredited 1
evident 1
kh 1
rode 1
000 0.5606596352643343
Gaz@@ 1
Palm 1
ko@@ 0.40874323984027616
60@@ 1
Medi@@ 0.3952389555758724
assume 1
holy 1
risks 1
sculp@@ 1
DI@@ 1
Fantasy 1
Sicily 1
Trinidad 1
informal 1
sep@@ 1
trainer 0.6535842586033132
Clo@@ 1
Sir@@ 1
Suffolk 1
boom 1
kal@@ 0.21995159207882217
machinery 1
nica 1
productive 1
Cs 1
Telugu 1
philosophical 1
Yuan 1
butterfly 1
celebrations 1
demanding 1
design@@ 1
osp@@ 0.8061266842085569
tech 1
Cont@@ 1
Four@@ 1
amalg@@ 1
explo@@ 1
ij@@ 1
newer 1
remix 1
dil@@ 1
gla@@ 1
1821 0.6741922336243448
GS 1
Honorary 1
Rhodes 1
Shan@@ 1
Pain@@ 1
oper 1
worse 1
Body 1
Lic@@ 1
Rhin@@ 1
anthrop@@ 1
lev@@ 1
zon 1
20s 1
Mechan@@ 0.877874508163679
Metro@@ 1
SEC 1
anate 1
power@@ 1
quot@@ 1
Bedford 1
Fas@@ 0.5870199033492189
elia 1
slight 1
spacecraft 1
Generation 0.3867988229892252
Nah@@ 0.4096215366239918
automobile 1
musi@@ 0.8526875011583557
nobility 1
respon@@ 1
uth 0.7608554611222959
Easter 1
UNESCO 0.8370927117205279
dged 1
pottery 1
pred@@ 1
than@@ 1
Darwin 1
Rush 1
Turk@@ 1
atro@@ 1
submarines 1
Garcia 1
Kerry 1
Use 1
happens 1
Adrian 1
Chemistry 1
basi@@ 0.825862365742853
oud 1
Bolton 1
Counties 1
Providence 1
chim@@ 1
memories 1
surveillance 1
Animal 1
G.@@ 1
Row@@ 1
mechanics 1
mess@@ 0.7165715975816731
Call 1
Chan 1
Floyd 1
Mou@@ 0.952273225467426
Pow@@ 1
eit 0.24827299868958733
gameplay 1
mask 1
struggles 1
trailer 1
Cancer 1
Marshal 1
ancestors 1
cav@@ 1
sch 0.16195025054701345
structured 1
voluntary 1
TE 1
dining 1
divine 1
enia 1
rov@@ 1
schemes 1
wre@@ 1
Associated 1
rolled 1
sworn 1
ules 1
Hawaiian 1
Roll 1
jan@@ 0.8690044296249424
reflects 1
Gener@@ 0.4193174647857825
Thomson 1
academ@@ 1
asser@@ 1
combe 1
inquiry 1
transmitted 1
Terminal 1
sued 1
Border 1
Sara 1
shaw 1
umping 1
weak@@ 1
1825 0.7229742015129772
defines 1
editors 1
paved 1
ا@@ 1
Cort@@ 1
MR@@ 1
Vy@@ 1
avoided 1
coordinates 1
descended 1
sper@@ 0.7152181437178269
Ž@@ 0.6210123110163394
Bolivia 1
Nord@@ 0.07517207590384531
ication 1
perf@@ 1
ña 1
38@@ 1
Lé@@ 0.908385487119145
Pak@@ 0.6424985999434601
Sax@@ 0.7371301766793186
anders 0.3644404138879047
maneu@@ 1
Leipzig 0.1388259436892894
Sometimes 1
Stu@@ 1
hiding 1
translator 1
Karnataka 1
LLC 1
Vernon 1
ben 0.07562471284292638
flee 1
gains 1
speci@@ 1
Jorge 1
aid@@ 1
ause 1
enrollment 1
osh 1
descendant 1
dialects 1
drag 1
strictly 1
vaccine 1
Meth@@ 0.919958097243446
Sacramento 1
bled 1
system@@ 0.8842582307832526
Mog@@ 1
acute 1
combining 1
inser@@ 1
angry 1
listening 1
л@@ 1
Reagan 1
colleague 1
definitely 1
encomp@@ 1
guidelines 1
lah 1
tun@@ 1
ulture 1
104 1
Chennai 1
Every@@ 1
bey 1
decorative 1
ective 1
equity 1
haven 1
realistic 1
screening 1
Kw@@ 1
Mic@@ 1
Baz@@ 1
Electronic 1
Graduate 1
Prin@@ 1
settling 1
1.8 1
1828 0.686017938985524
8,000 1
Anat@@ 1
Cumberland 1
Heavyweight 1
Mack@@ 1
Partners 1
Sex 1
busy 1
dancers 1
electronics 1
missiles 1
Archives 1
Downtown 1
Gay 1
hara 1
livestock 1
realizes 1
tal 0.24119673960134863
Snow@@ 1
licence 1
lighter 1
spectators 1
Cloud 1
Gat@@ 1
Jacksonville 1
Neur@@ 0.5005704970181347
anthology 1
beta 1
codi@@ 1
hen 0.3016496389021073
keyboard 1
Gru@@ 0.5818993170041378
counting 1
fabric 1
methyl@@ 1
invention 1
DM@@ 1
Ferry 1
Linux 1
UP@@ 1
couldn 1
similarities 1
tornado 1
well@@ 1
Derek 1
Marriage 1
Nau@@ 0.8628367542274872
bicycle 1
exercises 1
ought 1
shortened 1
trace 1
aesthetic 1
hus@@ 1
ignored 1
mass@@ 1
modi@@ 0.9288503406012998
step@@ 1
Casey 1
Fuj@@ 1
advocacy 1
bigger 1
celebrity 1
enhance 1
portfolio 1
seemingly 1
subtropical 1
Herman 1
floating 1
ghost 1
indie 1
mans 0.8949728458345635
wingspan 1
1810 0.6438734854762475
Maxwell 1
Rol@@ 1
canceled 1
dust 1
fel@@ 0.30216033239864076
oking 1
ping 1
SR@@ 1
excluded 1
goddess 1
strain 1
Below 1
chains 1
east@@ 1
costume 1
rist 1
Kav@@ 1
clergy 1
ried 0.9067853628508863
sho@@ 1
wound 1
200,000 1
graph@@ 0.9974769877802107
cruise 1
differential 1
garage 1
lords 1
rower 1
Basel 0.32140841829164657
Webb 1
diamond 1
fru@@ 1
swing 1
tasked 1
IF 1
Wei 1
audi@@ 1
commanders 1
ento 1
leather 1
seasonal 1
servants 1
Altern@@ 1
Bloom@@ 1
Bulldogs 1
Mail 1
Stories 1
ede 0.8821782543021977
Internal 1
Phase 0.378079871308813
Rica 1
prosec@@ 1
ML@@ 1
Mind 1
myth@@ 1
Past@@ 0.7799964732325441
Telegraph 1
clos@@ 1
icing 1
peaceful 1
swept 1
Denis 1
SF@@ 1
adds 1
traits 1
10,@@ 0.5445246367535295
Battery 1
Santo 1
differs 1
Ming 1
Origin 1
UTC 1
cliffe 1
computing 1
engaging 1
Duchy 1
ios 0.7380882881654877
ograph 1
websites 1
Consi@@ 1
Match 1
replied 1
sunk 1
Stan 1
struggling 1
UCLA 1
acking 1
coupled 1
legitimate 1
partisan 1
Bruno 0.5937337877501688
Cave 1
Heavy 1
Laws 1
Madagascar 1
Tales 1
Things 1
bot@@ 0.921595518103676
eil@@ 0.1856902183733131
etus 1
immun@@ 1
Buddha 1
Tanzania 1
abbreviated 1
bio@@ 1
García 1
Papua 1
ebo@@ 1
ft@@ 0.29973135879616536
hun@@ 1
penalties 1
retaining 1
suffer 1
ark 0.921583590241478
bats 1
ogs 1
resign 1
Worcester 1
burgh 1
filmmaker 1
racy 1
Fiji 1
capturing 1
investments 1
orus 1
serv@@ 1
hunt 1
Lep@@ 1
discharge 1
jective 1
playwright 1
revealing 1
rit 1
thi 1
plaque 1
rehear@@ 1
DI 1
gres@@ 1
impression 1
modes 1
pin@@ 1
seeded 1
wat@@ 1
anced 1
illed 1
requests 1
Dragons 1
Il 1
aji 1
bre 1
Hits 0.9989751353485443
Tibetan 1
aneous 1
banner 1
İ@@ 0.996816589247964
Wings 1
anning 1
arding 1
fs 0.33214159256175974
ind 1
lich@@ 0.23010228505551195
persuaded 1
shrine 1
1824 0.6961196375898973
Editor 1
Winston 1
forts 1
Scots 1
expense 1
Dixon 1
Excellence 1
Rafael 1
Senators 1
atomic 1
chair@@ 1
inception 1
pleasure 1
sham 1
tant 1
Unfortunately 1
archives 1
federation 1
ilt 1
monarchy 1
gens 0.29363995226412554
Rao 1
Rifle 1
asse 0.23872449955116234
constitute 1
cultiv@@ 1
fault 1
ushing 1
Kid 1
Non@@ 1
Thunder 1
Wer@@ 0.13254404657957494
designers 1
epic 1
Volunteer 1
enabling 1
stered 1
strange 1
GE@@ 0.7248801428226369
KO 1
Medic@@ 1
Wool@@ 1
launching 1
precise 1
rides 1
spreading 1
stamps 1
Ram 1
ethics 1
thirds 1
Hardy 1
bau@@ 0.1093035753773271
develops 1
photograph 1
Bill@@ 0.8739142584463193
acceler@@ 1
alignment 1
correspondent 1
isot@@ 1
sacrif@@ 1
salv@@ 1
rush 1
stra 1
weigh@@ 1
Michelle 1
Netflix 1
Sug@@ 1
acids 1
valve 1
0.1 1
Maharashtra 1
Mar 1
Norton 1
bowling 1
fluor@@ 1
isk 1
lier 1
Mann 0.0974284537786498
Wag@@ 0.3952229114980712
aik@@ 0.9872890268653762
lecture 1
lip 1
mouse 1
proceed 1
Ö@@ 0.1472379113053756
Highland 1
Nad@@ 0.8857445923399503
Qing 1
Siege 0.7037385408640578
addresses 1
affiliation 1
plain@@ 1
precipitation 1
quiet 1
tracking 1
Initiative 0.3405065637727244
Organisation 0.1620711656205095
duction 1
excessive 1
highlights 1
thy@@ 1
Hul@@ 1
compl@@ 1
resol@@ 1
sixty 1
steady 1
trapped 1
Flag 1
Georgetown 1
Meyer 0.516912720534653
Sac@@ 1
ë 1
Gibraltar 1
Lynch 1
Toyota 1
inscriptions 1
parameters 1
Lif@@ 1
Pom@@ 1
sank 0.7940541428726595
senator 1
terrestrial 1
Ç@@ 0.9640885890400593
Letters 1
Or 1
Walk 1
unofficial 1
xton 1
ès 0.6995092296015502
Hampton 1
awa@@ 1
wers 1
Sacred 1
Tour@@ 0.46153103799833956
attained 1
stained 1
wed 1
weed 1
yar@@ 1
1829 0.7198182905975943
Ax@@ 0.921437438876045
Greene 1
Pseud@@ 0.779021988247842
cann@@ 1
mach@@ 0.432822955389795
manifest@@ 1
&apos;an 1
Pride 1
Title 1
determination 1
sacrifice 1
tongue 1
tut@@ 1
Break@@ 1
construc@@ 1
presumably 1
Democracy 1
Dodgers 1
Lit@@ 0.7366016816167997
Powers 1
alle 0.031210905479843773
religions 1
reun@@ 1
aunt 1
1813 0.538350081682292
MVP 1
Rang@@ 0.8424348546875257
SA@@ 1
apa 1
financing 1
Dut@@ 1
Mercedes 0.8854057836715582
canton 1
explaining 1
ional 1
resides 1
substit@@ 1
Fa@@ 0.9710611521727714
agi 1
commod@@ 1
ega 1
him@@ 1
impres@@ 1
rela@@ 1
zhou 1
Civic 1
eclip@@ 1
Chapman 1
Negro 1
Synopsis 1
Tunnel 0.5074107267316452
sometime 1
Broncos 1
Midland 1
everyday 1
itional 1
mare 1
peaking 1
Hard 1
Rox@@ 1
decisive 1
garnered 1
olds 1
tonnes 1
uro 1
HF 1
Potter 1
Rams 1
Sandy 1
chor@@ 1
complications 1
disc@@ 1
ime 1
Coleman 1
amino 1
dish 1
hou 1
identifying 1
oversaw 1
umped 1
wartime 1
én@@ 0.8765366390583368
Paper 1
Ré@@ 0.6840033511299586
Talk 1
Vall@@ 0.9850843021950232
arti@@ 0.7001375083881449
cid@@ 1
crest 1
delegate 1
positioned 1
routine 1
B.A. 1
Chi 1
diplom@@ 1
eit@@ 0.25171421887663153
landscapes 1
loyalty 1
tubes 1
welcomed 1
450 0.8778205940511782
Fla@@ 0.853224333559021
Helena 1
Dynam@@ 1
Roh@@ 0.3389715038201024
consolidated 1
duced 1
prolific 1
sacked 1
Griffin 1
PG 1
Sources 1
atsu 1
posthumously 1
sh 1
Jets 1
Recreation 1
Timothy 1
classroom 1
communicate 1
esville 1
reversed 1
Cambodia 1
Carey 1
commemorate 1
lung 0.2802106543787285
sz@@ 0.4736486814271998
tis 1
ester@@ 1
ignor@@ 1
Die@@ 0.31038318181836494
Yet 1
contin@@ 1
lad@@ 0.5644465201401581
olic 1
unanimous 1
whatever 1
Honda 1
Ped@@ 1
Vasi@@ 1
detention 1
extant 1
highlight 1
tains 1
tens 0.6158282332205967
ural 1
Berg@@ 0.08740961258242268
Exeter 1
igu@@ 1
modest 1
realm 1
sends 1
Canton 1
anas 1
embar@@ 1
ranged 1
tt@@ 0.17087133278255676
upgrade 1
crow@@ 1
eley 1
ellip@@ 0.9390938095994203
possess 1
pus 1
tou@@ 1
Math@@ 1
esa 1
foods 1
Academ@@ 1
Luther 0.8432948167347867
Soc@@ 1
atha 1
eses 1
remember 1
90@@ 1
Aur@@ 0.8524675391722359
Castro 1
effectiveness 1
fiel@@ 1
Alternative 0.7149019711132951
beats 1
mandate 1
1890s 1
commit 1
convince 1
dynamics 1
hang@@ 1
icians 1
tet@@ 1
Baden 0.1562582930563441
Imp@@ 0.6015375841021104
Kashmir 1
Prov@@ 1
Saxony 1
Vatican 1
Visual 1
cho 1
intensive 1
Guatemala 1
boyfriend 1
freshwater 1
ingu@@ 1
omo 1
regards 1
Crime 1
Hau@@ 0.41914067434317726
Hawks 1
infant 1
quarterfinals 1
Ś@@ 1
1806 0.46977015049685683
continuation 1
rocky 1
rol 1
tow@@ 1
Confeder@@ 1
fashi@@ 1
securing 1
sovereignty 1
Co. 0.4357236263182346
Philippe 1
affecting 1
dun@@ 1
ival 1
103 1
favored 1
grove 1
inqu@@ 1
sandstone 1
striker 1
supervised 1
170 0.8294048563083297
Hannah 1
Montenegro 1
ane@@ 1
mentor 1
vac@@ 1
Kay 1
advances 1
Kri@@ 0.3916693409743261
adic 1
bou@@ 1
demolition 1
dens 0.3294507316323648
gather 1
oters 1
reformed 1
technological 1
abin@@ 0.9589278786681594
bush 1
Gas 1
Kha@@ 1
Roads 1
annexed 1
colli@@ 1
ission 0.9718262135646845
wei@@ 0.21917210763293243
Morton 1
Rules 1
asha 1
bei 0.004454355345610128
had@@ 1
nu@@ 1
ovic 1
quantities 1
republic 1
solic@@ 1
μ@@ 1
1818 0.5098232478654121
Concert 1
Kis@@ 1
Nicolas 1
Underground 1
competitor 1
mill@@ 1
ound 1
ysis 1
Czechoslovakia 1
Set@@ 1
dings 1
jumping 1
prim@@ 0.7460299309270232
progressed 1
UR@@ 1
detective 1
expertise 1
lacking 1
ooth@@ 1
translations 1
tren@@ 1
Kenn@@ 0.431199625380063
Roberto 1
bler 1
chronic 1
geography 1
isms 1
skiing 1
strongest 1
Ana 1
Jackie 1
Soundtrack 1
Swan 1
Turks 1
functioning 1
istry 1
modifications 1
nell 1
sanctuary 1
stad 1
torture 1
Colombian 1
Davidson 1
Gom@@ 1
hoping 1
prizes 1
avian 1
encoded 1
encounters 1
Norwich 1
phi@@ 0.8056679210330825
Gandhi 1
commentator 1
Paramount 1
capac@@ 1
cruiser 1
mild 1
remake 1
Asc@@ 1
Dawn 1
combine 1
cyclone 1
utation 1
Bank@@ 0.30048771206496444
Embassy 1
contestant 1
cuisine 1
fitness 1
imaging 1
squadrons 1
р@@ 1
Liz@@ 1
News@@ 1
Part@@ 0.530826172145545
Wild@@ 0.28839724038878223
accepting 1
displaced 1
scholarly 1
108 1
Roc@@ 1
sup@@ 1
Lima 1
abundant 1
stro@@ 0.9556099733986729
beside 1
bomber 1
migrated 1
oners 1
retri@@ 1
1826 0.6939592296028808
Albion 1
Pink 1
Rule 1
rak@@ 0.39481951495472184
Winners 1
cultivated 1
grammar 1
joy 1
lor@@ 1
penn@@ 1
woodland 1
applies 1
corridor 1
ef 0.9794211493731648
ideology 1
wyn 1
Appeal 1
Glacier 1
Hermann 0.15187813126323163
resemble 1
ste 0.07511183135952572
Adolf 0.22879784793262276
pension 1
López 1
statues 1
Cran@@ 1
Inspector 1
Marsh 1
acquain@@ 1
nerve 1
Ley@@ 1
oc 1
reward 1
rey 1
teaches 1
bed@@ 0.751881228784114
surprised 1
tan 1
Cities 1
Fight 1
Mort@@ 1
aft 0.7291397463315279
interactive 1
zan 1
111 1
Georg 0.09430428888151367
Hydro@@ 0.8094859252064399
Janet 1
Latvia 1
Madras 1
Temp@@ 1
incorporate 1
suited 1
adventures 1
Carson 1
Haiti 1
Nothing 1
expenses 1
fing 0.8857147540031451
hiatus 1
trustees 1
Homer 1
Kirk 1
Kre@@ 0.19452860863322022
MS@@ 1
Toledo 1
integrity 1
violations 1
6.5 1
Tet@@ 0.8551953893298736
aband@@ 1
expired 1
oun 1
traced 1
ulp@@ 1
uniforms 1
106 1
Prepar@@ 1
dru@@ 0.6107120186382231
Alberto 1
Auth@@ 1
Card 1
Got 1
WT@@ 1
pub 1
Xavier 1
bark 1
gifts 1
humor 1
osh@@ 1
Crow@@ 1
EM 0.4703770397702424
Lou 1
MHz 1
Night@@ 1
assass@@ 1
last@@ 0.3930722614026506
MT@@ 1
arily 1
engra@@ 1
hib@@ 1
now@@ 1
sentences 1
Ashley 1
Cologne 1
Down@@ 1
interact 1
remarked 1
rica 1
cals 1
substantially 1
totally 1
Jeffrey 1
Sporting 1
consulting 1
fielder 1
matched 1
1.7 1
Boh@@ 0.5649957545152435
Slov@@ 1
idation 1
linguistic 1
onomy 1
ound@@ 1
rection 1
suggestion 1
Analysis 1
Stran@@ 1
Xbox 1
Yas@@ 1
consci@@ 1
eleventh 1
spo@@ 1
1.0 1
Nob@@ 1
Sut@@ 1
ciples 1
olls 1
racism 1
Cut@@ 1
Rally 1
Slovak 1
Thunder@@ 1
harsh 1
rea 1
stly 1
complained 1
financed 1
systematic 1
thoughts 1
30th 1
Fletcher 1
Form@@ 0.34592650701422917
Gardner 1
box@@ 1
cc@@ 1
Vig@@ 1
applying 1
dimension 1
etz 0.38808262058259446
lengthy 1
spire 1
tial 1
anywhere 1
organs 1
stopping 1
tales 1
tends 1
Acting 1
Imag@@ 1
Poli@@ 0.6724768967547756
adian 1
ateral 1
employer 1
Chad 1
recur@@ 1
sexually 1
was@@ 1
Brandon 1
Deutsche 0.09741936068827833
Particip@@ 1
Why 1
proph@@ 1
round@@ 1
enham 1
rope 1
springs 1
Trans 1
hurst 1
Burg@@ 0.19200360434933558
PD 1
Ps 1
Singer 1
enda 1
rite 1
Ō@@ 0.9521169884703556
Alpine 1
Jessica 1
charitable 1
freely 1
quantity 1
remnants 1
Belle 1
Freeman 1
Northwestern 1
Sidney 1
enge 0.3856642395201463
melody 1
Hit@@ 0.7070664954895196
Patricia 1
adequate 1
cartoon 1
cc 1
Achievement 1
Kod@@ 1
Slam 1
defining 1
evacuated 1
finishes 1
isolation 1
less@@ 1
Bundesliga 0.16310075455719744
Develop@@ 1
Gem@@ 0.2845233292931882
Motion 1
aint 1
gang@@ 0.7586953416548559
hir 1
Afterwards 1
AllMusic 1
KA 1
Katherine 1
O.@@ 1
demonstrations 1
domains 1
eca 1
emphasized 1
mixing 1
pts 1
vich 1
5.5 1
ago@@ 1
countryside 1
enormous 1
finest 1
lots 1
nam 1
sitcom 1
Baroque 1
Nay@@ 1
Truth 1
eno 1
mirror 1
monarch 1
occupy 1
soils 1
unified 1
Ud@@ 1
limitations 1
osaurus 1
pretty 1
Engineer 1
Munster 1
Sheikh 1
Tig@@ 1
coined 1
escal@@ 1
shapes 1
unemployment 1
Adventures 1
Away 1
Riley 1
Tha@@ 1
approaching 1
inhab@@ 1
investigating 1
lava 1
radius 1
Cust@@ 1
FIBA 1
Icelandic 1
org@@ 1
regained 1
synchron@@ 1
trademark 1
vul@@ 0.8253838823328051
armor 1
blow 1
maiden 1
mentally 1
reflecting 1
Kak@@ 0.96450125813936
Past 1
demo 1
distances 1
evo 1
mix@@ 1
Macedonian 1
abbey 1
abe@@ 1
aler 0.15782794397112973
bias 1
onally 1
reflec@@ 1
tactical 1
1801 0.7001522814992365
220 0.9943860527822646
ISO 1
Kyiv 1
Russians 1
andi 1
autonomy 1
ial@@ 0.5658077752561506
operative 1
tex@@ 0.939191056019901
Composition 1
Raw@@ 1
Was@@ 1
dozens 1
ira@@ 1
sprint 1
stit@@ 0.7249829546160466
Clare 1
Get@@ 0.5322384679000116
Historically 1
cher@@ 0.6042809619943095
lus 1
mitting 1
succeeding 1
teenager 1
Aviv 1
FF@@ 1
Hack@@ 1
igs 1
ix@@ 0.9173479812583328
mood 1
ophy@@ 0.9917275473063059
Europa 0.09139382644999433
Jenkins 1
Malay 1
Male 1
Maya 1
chin@@ 0.7969308815926257
hin 0.0914527699273677
max 1
metals 1
mons 1
otti 1
prefer@@ 1
talented 1
Ivan@@ 1
celebrities 1
fatal 1
interred 1
mist@@ 1
mistake 1
submit 1
Anth@@ 0.7692001940164698
Bergen 0.5150378026359975
Cali@@ 1
Chat@@ 1
atty 1
Jab@@ 1
blamed 1
damages 1
humanitarian 1
mothers 1
repeat 1
Sharon 1
complaint 1
jer@@ 1
screenwriter 1
Auburn 1
Polit@@ 0.5504320153718263
bapt@@ 1
torn 1
ğ@@ 0.7650846158829894
Drug 1
Ultimate 1
cens@@ 1
hoe 1
textile 1
Coo@@ 1
Origins 1
Town@@ 1
alter@@ 0.6272836743057205
myth 1
orn@@ 1
supposedly 1
Consequently 1
Eri@@ 1
contrary 1
saw@@ 1
wireless 1
Plains 1
Rebecca 1
Roy@@ 1
aim@@ 1
cycl@@ 1
detect 1
encouraging 1
metaph@@ 1
nis 0.15874104441692471
patch 1
suspect 1
ú 1
Coventry 1
attractions 1
ects 1
tar 1
PP@@ 1
preference 1
Ibrahim 1
Lok 1
Voc@@ 1
deo 1
erson 1
pound 1
Churches 1
Niz@@ 1
ahi 1
hart 0.5172517046897164
ilian 1
teammates 1
virtu@@ 0.9822727812185819
Canberra 1
Mom@@ 0.8126600205277805
Monastery 1
Sally 1
Webster 1
anu 1
flora 1
miners 1
portrayal 1
visions 1
Investment 1
Johannes 0.11631415125180691
Tax 1
Ze@@ 0.5881245801231532
epis@@ 1
planets 1
prob@@ 1
Almost 1
Dh@@ 1
Heb@@ 0.6986697036448573
Heroes 1
Nordic 1
W.@@ 1
disciplines 1
god@@ 1
implies 1
Ministers 1
albeit 1
aud@@ 1
evi@@ 1
feared 1
iced 1
publicity 1
sacks 1
Sophie 0.6331859925077199
Trevor 1
facto 1
fails 1
keen 1
pursuing 1
Stefan 0.39412993171201927
Strong 1
ulum 1
β 1
2.1 1
Colon@@ 1
Crus@@ 1
Randy 1
irregular 1
prom@@ 1
update 1
Lew@@ 1
Libya 1
counsel 1
eir 1
frog 1
urg@@ 0.9803984407138675
Adventure 1
MIT 1
Mrs 1
Ts@@ 1
UCI 0.9566082300233275
Cho@@ 1
Slavic 1
grat@@ 1
halls 1
teenage 1
thal@@ 0.9297812456147939
112 1
7,000 1
Caesar 1
Cotton 1
Gle@@ 1
Pablo 1
RBI 1
cath@@ 1
compar@@ 1
dez 1
divide 1
feedback 1
ld 1
seventeen 1
som 1
EL@@ 1
Tin@@ 1
hau@@ 0.7414356859764276
impacts 1
Beautiful 1
Carol@@ 1
DM 0.5213538802157159
Erie 1
Europeans 1
River@@ 1
child@@ 1
exceptional 1
formesFamily 1
Dog@@ 1
Tay@@ 1
beaches 1
designing 1
ecological 1
metro 1
Gun 1
Spring@@ 0.8772839847419364
Ston@@ 1
Sutton 1
asting 1
gem@@ 0.1487926542177157
genome 1
yland 1
CL@@ 1
atop 1
ights 1
knife 1
myst@@ 1
resur@@ 1
Alex@@ 0.6752325416841001
Shiva 1
silk 1
Kub@@ 0.6410699579385131
Shane 1
Sic@@ 1
Va@@ 1
discography 1
evangel@@ 1
Crisis 1
Hamp@@ 1
Lib@@ 1
MT 1
ampton 1
courage 1
gover@@ 1
lon 1
tailed 1
Constantine 1
Mary@@ 1
Roland 0.7289057777311135
nav@@ 1
ocar@@ 1
sent@@ 1
uns 0.3468786724087873
osyn@@ 1
toxic 1
115 1
Hearts 1
Power@@ 1
Titans 1
esy 1
fier 1
polis 1
uble 1
weakened 1
Christine 0.8914434739814229
Eb@@ 0.8771743703540875
Lig@@ 0.293545525122724
Swift 1
cultivation 1
determining 1
lett 1
oys 1
peaks 1
pig@@ 1
switching 1
1819 0.6632164313804939
CI 1
SK 0.5280825074021795
Sister 1
aying 1
bes@@ 0.19452034411365451
crimin@@ 1
hall@@ 1
aar 1
builder 1
carefully 1
heated 1
rushed 1
tiny 1
adul@@ 1
atur@@ 0.4029260660156544
vert 1
Horn 0.7914121070575798
betra@@ 1
ensuing 1
publishers 1
twelfth 1
Allies 1
Joyce 1
assessed 1
aurus 1
cooling 1
cyclist 1
fix 1
franch@@ 1
GDP 1
Max@@ 0.9112776433592087
Stoke 1
esan 1
ingo 1
triangle 1
vor 0.009950602288080824
Alexandra 1
Helsinki 0.8078458902922884
Nazis 1
Tob@@ 1
dens@@ 0.768906340519208
mortality 1
rational 1
recommendation 1
.2@@ 1
2.4 1
Yard 1
halt 0.3938619549281052
instructed 1
ligh@@ 1
snails 1
Evening 1
Facilities 1
Midlands 1
Reds 1
Sixth 1
anticipated 1
sigh@@ 1
Mov@@ 1
Pierce 1
Rather 1
SH@@ 1
arcade 1
comeback 1
wal 1
watershed 1
109 1
Kane 1
admir@@ 1
outh 1
45@@ 1
5000 0.5002531896049438
Seventh 1
Uni@@ 0.8858382316354896
itative 1
lions 1
nevertheless 1
thers 1
ub 0.8934945689875681
22nd 1
Chau@@ 1
RN@@ 1
Tunisia 1
ani@@ 1
1809 0.6547459878059619
Euro@@ 1
Navar@@ 1
het 1
lins 1
pump 1
ulates 1
Drew 1
Performing 1
beings 1
erial 1
incomplete 1
osity 1
postal 1
publishes 1
stun@@ 1
2.3 1
Fields 1
Inn@@ 0.5097852838464596
Iz@@ 1
Lie@@ 0.28146714771326087
Open@@ 1
Silver@@ 1
Wak@@ 1
azi 1
destroyers 1
Erik 1
Hartford 1
Hend@@ 1
Sanders 1
Stalin 1
agog@@ 1
cer 1
ʻ@@ 1
Blo@@ 1
Kill@@ 1
TR@@ 1
bie 1
ciary 1
nervous 1
omed 1
personalities 1
riot 1
tendency 1
Products 1
clause 1
console 1
frontier 1
generic 1
honor@@ 1
attributes 1
corporations 1
drag@@ 1
ero@@ 1
smoking 1
trunk 1
Basic 1
Metacritic 1
comfort 1
motivated 1
negotiated 1
Hard@@ 0.8686215118981784
Holdings 1
IL@@ 1
Iber@@ 1
Key@@ 0.8053128907331857
Ner@@ 0.7919685923510943
Rican 1
della 0.6843684639197768
ken@@ 0.26277438909999873
paired 1
contacted 1
curator 1
ernity 1
eville 1
intern@@ 1
shoots 1
surveys 1
verteb@@ 1
ä@@ 0.056789883142159304
Trent 1
Wonder 1
alising 1
asserted 1
distinc@@ 1
dos 0.9118973389843897
fant@@ 1
maxim@@ 1
pist@@ 1
Pes@@ 1
Regul@@ 1
anes 1
auto 1
desc@@ 1
fever 1
ief 1
import 1
omorph@@ 1
Marqu@@ 1
bak@@ 1
Boyd 1
Hang@@ 0.8994576511887702
Rey 1
WH@@ 1
balanced 1
bath@@ 1
keeps 1
offshore 1
restra@@ 1
т@@ 1
MI 1
Mohamed 1
doubled 1
gram 1
occ@@ 1
Dhar@@ 1
IN 1
excluding 1
oods 1
overtime 1
Ethn@@ 0.6776832832213969
Las@@ 0.7848227738918555
Zagreb 1
auxiliary 1
chap@@ 1
gon 1
tended 1
ulative 1
viewer 1
Arlington 1
Vik@@ 0.6425681720256402
call@@ 1
ers@@ 0.42144522787908484
eve 1
valleys 1
Monica 1
Spir@@ 1
alter 0.20588294312285293
memoir 1
rer@@ 1
symbo@@ 1
0.3 1
Pag@@ 1
armament 1
dealer 1
dramatically 1
hous@@ 1
Cecil 1
Conrad 0.7844263646934713
amended 1
spare 1
Clyde 1
Gent@@ 1
abandon 1
detained 1
efully 1
ophone 1
pioneering 1
posting 1
televised 1
DB 0.5988169932143121
Galaxy 1
deeper 1
dreams 1
graded 1
128 1
Alexand@@ 0.8348391305878841
Tex@@ 0.6281906791275498
cement 1
econom@@ 1
stru@@ 0.8009987408001815
sufficiently 1
Judaism 1
Nash 1
fake 1
memor@@ 1
ński 0.7122195402047083
SG 0.38262002884924384
addle 1
egu@@ 1
induc@@ 1
sophomore 1
1816 0.4897833702332253
Astr@@ 1
Miz@@ 1
Wong 1
achment 1
aligned 1
binary 1
dened 1
ego 1
imagery 1
solved 1
tough 1
Hey@@ 0.693910671968149
Middlesex 1
Nielsen 1
breakthrough 1
modeling 1
prevention 1
undergo 1
voy 1
Cerambycidae 1
Cord@@ 1
Lil@@ 1
Paradise 1
Tucker 1
liberation 1
popul@@ 1
sym@@ 1
Gib@@ 1
appro@@ 1
brilliant 1
dedication 1
estim@@ 1
Browns 1
Collegiate 1
ather 1
enary 1
flash 1
unda 1
Champ@@ 1
Flu@@ 0.3417866101897312
González 1
Ring@@ 0.26566467103677166
Stur@@ 0.860785147464661
Worth 1
archive 1
mic@@ 1
nucleus 1
Hastings 1
Islander 1
Reservoir 1
Vikings 1
forum 1
inspection 1
sailors 1
Prem@@ 1
Very 1
competes 1
iva 1
Fig@@ 1
Litt@@ 1
Primera 1
Viscount 1
ammer 0.4847065622964527
barely 1
etary 1
protective 1
strengthen 1
Bang@@ 1
Coaching 1
Know 1
bott@@ 1
ecclesiastical 1
embedded 1
gio 1
nik@@ 1
subdivision 1
Matthews 1
Moor@@ 0.8238406708450737
Motors 0.9488879155269153
Taj@@ 1
esi 0.9365646958447476
graves 1
onist 1
vs 1
Antoine 1
Normandy 1
Occup@@ 1
ador 1
este 0.44410094425454694
mentation 1
satisfied 1
sever@@ 1
Juli@@ 0.641461799346071
ambitious 1
Hyderabad 1
Mile 1
NI@@ 1
Rut@@ 1
import@@ 1
swimmer 1
Conservatory 1
Theological 1
rail@@ 1
telec@@ 1
whereby 1
Agnes 0.972013286575666
Inner 1
Raion 1
answered 1
decommissioned 1
eves 1
heart@@ 1
mim@@ 1
ossi@@ 1
A1 1
Pie@@ 0.976128443934784
cinemat@@ 1
ds@@ 0.7708048746933296
lian 1
135 0.5854868751895678
37@@ 1
EP@@ 1
Hassan 1
Rotten 1
day@@ 1
expectations 1
grouped 1
isher 1
resolve 1
ugh@@ 1
uv@@ 1
Kov@@ 1
Progress 1
accepts 1
chemicals 1
installations 1
oso 1
Cherry 1
Geoffrey 1
Princip@@ 1
classrooms 1
crystal 1
exceptions 1
matching 1
pond 1
villagers 1
AU 1
Investig@@ 1
Philharmonic 1
analog 1
brass 1
fiber 1
Bass@@ 0.7568327378137807
GC 1
Lanc@@ 1
Malayalam 1
ancestor 1
leigh 1
oci@@ 1
teachings 1
Giuseppe 0.8503894618828615
Inqu@@ 1
Raw 1
athy 1
sanctioned 1
1822 0.6273501935826151
1827 0.6740003930381191
Congressional 1
Di 1
Torres 1
Winchester 1
activism 1
hear@@ 1
mamm@@ 1
thr@@ 1
1817 0.5794183428540306
2.2 1
Wan@@ 1
itating 1
ude 1
yers 1
33@@ 1
Beck 0.9586255778687405
Companies 1
compil@@ 1
curves 1
Leone 1
Lom@@ 1
alli 1
emotions 1
ican 1
resembles 1
riots 1
Neo 1
ator@@ 0.4895085727375877
collec@@ 1
e.@@ 1
employers 1
speculation 1
Hand 0.19674238427253388
Omaha 1
Traditional 1
VFL 1
analyst 1
ograph@@ 1
ounding 1
vel 1
ο@@ 1
MB 1
Parkway 1
endeav@@ 1
podcast 1
½ 1
Autonomous 1
declining 1
estan 1
galleries 1
twe@@ 1
Arabian 1
ICC 1
Psychology 1
Quinn 1
bays 1
confined 1
dell 1
gaz@@ 1
oly@@ 1
porch 1
wages 1
1803 0.4378940484000355
Activities 1
Bic@@ 1
Chor@@ 0.17626581950020012
Jesuit 1
MLS 1
Roma 1
accusations 1
cheese 1
jin 1
tire 1
Oriental 1
Pearson 1
Strategic 1
Uttar 1
accessed 1
collision 1
denti@@ 1
elo 1
intelligent 1
narrator 1
thinks 1
ă 1
000,000 1
2010s 1
34@@ 1
Barb@@ 1
Irving 1
Mongolia 1
Opposition 0.7197910416333333
Too 1
outing 1
promises 1
relied 1
spirits 1
Dresden 0.1430817246348531
Newark 1
Officers 1
Tou@@ 1
consequently 1
processor 1
pupil 1
24th 1
Angola 1
dial 1
fortified 1
module 1
zier 1
Mickey 1
Tall@@ 1
bypass 1
cannon 1
deity 1
incenti@@ 1
pursu@@ 1
yearly 1
Brook@@ 1
Ug@@ 1
algebra 1
vian 1
vy 1
Applied 1
Auto 0.379435330271946
Beth 1
Duchess 1
Hyde 1
Venezuelan 1
executives 1
hra 1
lingu@@ 1
receptors 1
Cash 1
Gilli@@ 1
Mosque 1
anonymous 1
darker 1
ms@@ 0.8303601498880803
pip@@ 1
susp@@ 1
DR@@ 1
Declaration 1
Pool 1
concentrations 1
eaten 1
laying 1
Daw@@ 1
chol@@ 1
inct 1
interrog@@ 1
ration@@ 0.8153179945163174
seated 1
subjected 1
verb@@ 0.14996909777921355
wo 0.021250062697227463
Joy 1
Wig@@ 1
astro@@ 1
welcome 1
Hein@@ 0.40014460708123667
Rising 1
deg@@ 0.5613613014163515
earth@@ 1
email 1
emin@@ 1
itan 1
lumin@@ 1
yen 1
1823 0.6734409373005371
Plain 1
alpha 1
hang 0.6077747493201402
rs 1
Whi@@ 1
besides 1
corpor@@ 1
discussing 1
employs 1
gent 1
orial 1
outcomes 1
plains 1
vey@@ 1
Cao 1
additions 1
av 1
bered 1
circa 0.6182324946561866
framed 1
judged 1
symbolic 1
Adi@@ 1
Android 1
Der 0.004041003713640428
Eden 1
Restoration 1
Zoo 1
body@@ 1
confluence 1
consumed 1
ift 0.5118503320513711
inher@@ 1
iper 1
Benedict 1
Ethiopian 1
incorporating 1
iture 1
seller 1
.3@@ 1
0.2 1
CBC 1
Fort@@ 0.3020057869206845
Kob@@ 0.846446816629439
Sergeant 1
ca@@ 1
condem@@ 1
vas@@ 1
yal 1
Face 1
Gujarat 1
Lindsay 1
Llan@@ 1
Reverend 1
default 1
fear@@ 1
insky 1
ceremonial 1
filter 1
irrigation 1
pocket 1
prevalent 1
BW@@ 1
Basque 1
Fashion 1
GO@@ 1
encompasses 1
purely 1
relates 1
simp@@ 1
sponsors 1
temp@@ 1
verbs 1
Conf@@ 1
Patterson 1
adviser 1
blade 1
fast@@ 1
gaming 1
guitars 1
Hern@@ 1
Hip 1
Jord@@ 1
Sas@@ 1
clinic 1
donation 1
insufficient 1
marker 1
CB 1
spanning 1
vial 1
Connec@@ 1
comb 1
destinations 1
therap@@ 1
treatments 1
ān 1
deciding 1
drops 1
marriages 1
nie 0.14073762254274974
san 1
tos@@ 1
visu@@ 0.9963250604513423
Alam@@ 1
Circ@@ 1
KO@@ 1
iff@@ 0.5673617034644195
incorporates 1
intim@@ 1
momentum 1
disability 1
handful 1
palm 1
reconc@@ 1
1793 0.6561741070989424
Fru@@ 0.952778866664368
Hop 0.958380702235153
Savage 1
Shi 1
Teachers 1
asset 1
clusters 1
onset 1
rented 1
sovereign 1
Cand@@ 1
Dudley 1
capped 1
forewings 1
obe@@ 1
Flora 0.6162704814399744
atures 1
compression 1
deter@@ 1
pathway 1
ACC 1
Andhra 1
Lopez 1
Mt 1
s. 0.5445853926404755
Innovation 1
Miy@@ 1
Pasha 1
alistic 1
emergence 1
wagon 1
1804 0.6477943672820187
23rd 1
Rudolf 0.17518967165488555
Zor@@ 1
aspir@@ 1
choosing 1
downstream 1
loosely 1
masses 1
radic@@ 1
synthetic 1
void 1
wounds 1
12,@@ 0.5037803133325393
Gang 0.5331387830287994
HBO 1
Tracy 1
acquiring 1
counterpart 1
devi@@ 1
lu 1
owl 1
1794 0.7201861902446922
Wave 1
compromise 1
cryp@@ 1
hurt 1
licated 1
mina 1
occupying 1
recruit 1
relieved 1
1811 0.6406006138489247
Carlton 1
Dundee 1
Flash 1
consult@@ 1
parody 1
rector 1
Prairie 1
Sup@@ 1
Vau@@ 1
barn 1
gren@@ 1
hosp@@ 1
lineage 1
repaired 1
revenues 1
surgical 1
vill@@ 1
Antwerp 1
León 1
Boxing 1
Brady 1
Features 1
Wanderers 1
analog@@ 1
cellular 1
chancellor 1
chip 1
edic 1
itas 0.7668489081039046
privacy 1
wreck 1
Valencia 1
Willis 1
aha 1
bay@@ 0.7136726068671235
occupies 1
resistant 1
1,6@@ 1
Folk 1
loves 1
orbital 1
scrapped 1
107 1
Ele@@ 0.8996342940052657
aggreg@@ 1
financially 1
oles 1
rance 1
rav@@ 1
relate 1
Chambers 1
FCC 1
Ferrari 0.8106582050346164
Iron@@ 1
cock 1
eyed 1
consum@@ 1
hardt 0.4386575252569368
shrub 1
AX 1
Abdullah 1
onne 0.6881207407309761
successes 1
testified 1
1870s 1
Charity 1
Cherokee 1
Wade 1
ernal 1
freed 1
periph@@ 1
rehabilitation 1
rim 1
Angela 1
ET@@ 1
Gates 1
Have 1
Rebellion 1
Scouts 1
displacement 1
fts 1
guaranteed 1
mined 1
optional 1
1,5@@ 1
AW@@ 1
Acts 1
Boat 1
Braves 1
commissions 1
ethical 1
gren 1
ophi@@ 1
pointing 1
polls 1
sack 1
web@@ 1
yar 1
Cove 1
Percy 1
Variety 1
cken 0.2523258398144918
feminine 1
fting 1
sleeping 1
uary 1
τ@@ 1
Cock@@ 1
Let@@ 1
borrowed 1
erosion 1
tallest 1
а 0.8843656832610881
Baj@@ 1
Clinical 1
Turn@@ 0.48321954415738755
Zen@@ 1
ación 1
aup@@ 0.5416023494363077
ever@@ 1
gru@@ 1
gubernatorial 1
meteor@@ 1
Cubs 1
diff@@ 1
opping 1
wra@@ 1
Giant 1
Kro@@ 0.35433189297746925
NW@@ 1
Shirley 1
Taipei 1
apur 1
blin@@ 1
hill@@ 1
hn@@ 0.618401919224732
monk 1
Put@@ 0.9416771321575997
dances 1
dive 1
mapping 1
painters 1
utor 1
ves@@ 1
Augusta 1
Classification 1
Ide@@ 0.5294980962405293
Lin 1
enterprises 1
hung 0.8831454237250169
mollusk 1
soli@@ 0.5758034104370655
Bang 1
Bryant 1
Indeed 1
Kaw@@ 1
Kolkata 1
Make 1
Standing 1
electorate 1
factions 1
incur@@ 1
labeled 1
licate 1
recall 1
Beauty 1
Ham 1
LS 1
Marina 1
benef@@ 1
cope 1
emat@@ 0.8955830225523009
homeless 1
ologic 1
purchasing 1
ulls 1
к@@ 0.9515014867949125
124@@ 0.5962993184597636
Hour 1
campuses 1
governors 1
shadow 1
vid 1
Lambert 1
Samp@@ 1
Supporting 1
Tank 1
ht@@ 1
maid 1
nom@@ 1
reflection 1
sheets 1
Hence 1
Map@@ 1
aller@@ 0.4618977150412848
cliff 1
collectively 1
derivative 1
erty 1
iTunes 1
Yi 1
collaborative 1
combines 1
evolutionary 1
mei@@ 0.4471573257430951
sbury 1
trans 1
1807 0.6060595416748138
Du 0.8640794729612017
cz@@ 0.9973611425789797
oman 1
plasma 1
Kut@@ 1
asteroid 1
isted 1
nau@@ 1
vibr@@ 1
Ce@@ 1
Kang@@ 1
aea 1
complement 1
eed 1
extra@@ 1
preh@@ 1
retali@@ 1
uz 1
Eleanor 1
Johan 1
Shal@@ 1
Thirty 1
Word 1
athi 1
catalogue 1
special@@ 1
throat 1
tooth 1
yah 1
Bom@@ 1
Carl@@ 1
Ds 1
Filming 1
Nis@@ 1
adj@@ 1
liturg@@ 1
objec@@ 1
Amanda 1
amoto 1
commercials 1
enables 1
mobili@@ 1
realize 1
Barack 1
vet@@ 1
Carlisle 1
Mixed 0.9907771595261373
Quarter 1
constit@@ 1
eria 1
faithful 1
observ@@ 1
ě@@ 0.28573252516028225
Eva 0.6092882189504473
deliberately 1
ific@@ 1
iker 0.17342432682577172
ook@@ 1
Bangkok 1
Benson 1
Elite 1
alpine 1
composite 1
continuity 1
councillors 1
promotes 1
Mei@@ 0.3707444135548682
Points 1
Way@@ 1
feat 1
las@@ 1
readily 1
saves 1
westward 1
Autom@@ 0.5277171073519313
Burmese 1
Hipp@@ 1
Rahman 1
bons 1
nin@@ 1
orious 1
sealed 1
ulous 1
ís 1
Barn@@ 1
Bulls 1
Italia 1
conscious 1
debris 1
immer@@ 0.6568905257785163
ρ@@ 1
BR@@ 1
naked 1
ollen 0.520810020987123
1,4@@ 1
11,@@ 0.6222417726143249
Belt 1
Ferr@@ 1
Leigh 1
Venus 1
jah 1
pharmac@@ 1
umes 1
wald 0.15353298169905788
Pitt 1
Real@@ 0.7289823574537876
diploma 1
interval 1
jected 1
oides 1
1795 0.8228129173897626
Brigadier 1
Cameroon 1
Cunningham 1
Flo@@ 0.9062752803020256
Shim@@ 1
contractor 1
dissertation 1
fat@@ 1
iding 1
lot@@ 1
mice 1
read@@ 1
wrestlers 1
ż@@ 0.9154738210880781
Eth@@ 0.793658927581811
counterparts 1
hunter 1
iry 1
poss@@ 1
vegetables 1
Gog@@ 1
Jin@@ 1
averaging 1
deacon 1
holdings 1
ogenic 1
participant 1
senti@@ 1
stock@@ 1
Alfonso 1
Bass 0.5245280119826278
Christie 1
Diam@@ 0.8398040671636565
Emirates 1
McCarthy 1
Rick@@ 1
debut@@ 1
distur@@ 1
ild 0.7030118836687953
mutations 1
phenomena 1
ères 0.5223539528006053
Archdiocese 1
Coal 1
Gaza 1
Zel@@ 1
cardi@@ 1
cigar@@ 1
Often 1
Rodríguez 1
Sinclair 1
Tai@@ 1
Tibet 1
idated 1
recip@@ 1
suite 1
tempo 1
1805 0.6259729842533337
Clarence 1
Murder 1
flag@@ 1
incre@@ 1
oded 1
ogo 1
righ@@ 1
screen@@ 1
utter 1
Carr 1
Cedar 1
antenna 1
concer@@ 1
employ 1
ition@@ 0.5944022008168138
statute 1
wr@@ 1
Alps 1
Beverly 1
Cun@@ 1
Superman 1
definite 1
scri@@ 1
Jerome 1
Mad 1
magical 1
nat@@ 0.9271128478058616
resting 1
tian 1
trilogy 1
47@@ 1
Barton 1
Fox@@ 1
Hale 1
amin 0.9635060933666619
enst@@ 0.08524246434179347
exam@@ 1
licensing 1
primitive 1
rack 1
shooter 1
tend@@ 1
1808 0.5380511035183051
ER 1
Known 1
Promotion 0.3746739603101168
asian 1
bek 0.7274617434415769
ecology 1
enson 1
guy 1
harvest@@ 1
physicians 1
vault 1
Carmen 1
Lang 1
Sub 1
algorithms 1
atoms 1
centi@@ 1
commands 1
cooperative 1
diat@@ 1
documentation 1
frequencies 1
indi@@ 0.5973457766204266
lightweight 1
mud 1
oath 1
transcription 1
100@@ 1
Aston 1
Greg@@ 1
ME 1
Osaka 1
Raj 1
Tonight 1
agi@@ 1
associates 1
discrimin@@ 1
ingredients 1
meal 1
princess 1
rau@@ 0.2575087096804124
shoes 1
Credit 1
Klein 0.3709769176024182
Mining 1
affects 1
lug@@ 0.9407379579702424
bag@@ 1
cum 1
explicit 1
materi@@ 1
upp@@ 0.4805363650017984
Alder@@ 1
Viol@@ 0.7449501745045329
Yemen 1
emer@@ 1
finalists 1
Crit@@ 1
Ipswich 1
Shire 1
counsel@@ 1
dishes 1
feud 1
infections 1
lacks 1
portal 0.629175628318707
repertoire 1
temper@@ 1
ugh 1
AK@@ 1
CM 1
CU 1
JR 1
Veterans 1
afford 1
dioc@@ 1
mud@@ 1
Neu@@ 0.06169860341736137
Porto 1
billi@@ 0.88527130071347
issu@@ 1
reside 1
safely 1
Gov@@ 1
Lorenzo 1
Von 0.018183528509191742
alg@@ 1
columnist 1
foster 1
steam@@ 1
stripped 1
tance 1
в@@ 1
Bermuda 1
Coastal 1
Era 1
HM@@ 1
Ind@@ 0.8616700513424048
Lt. 1
authenti@@ 1
helicopters 1
mun@@ 1
strengthened 1
ulations 1
î@@ 0.8115120205518391
AAA 1
Reformed 1
Schmidt 0.27514544992803525
breakdown 1
fort@@ 0.2955298207632926
institutional 1
Meeting 1
aned 1
nonprofit 1
syndic@@ 1
Game@@ 1
Nel@@ 1
distor@@ 1
excavated 1
hierarchy 1
icism 1
pseudonym 1
Angelo 1
Architects 1
Calcutta 1
Pharm@@ 1
approxim@@ 1
azar 1
economist 1
enthusi@@ 1
recap@@ 1
robin 1
tide 1
unt@@ 1
ML 1
Sek@@ 0.3656533196322196
explosive 1
fauna 1
spectro@@ 1
uncommon 1
Carpenter 1
Kuwait 1
Zap@@ 1
catcher 1
chiefs 1
inspir@@ 1
transactions 1
undefeated 1
39@@ 1
Dawson 1
Doyle 1
PS@@ 1
breach 1
pistol 1
reduces 1
Clement 1
Pratt 1
Salisbury 1
accommod@@ 1
alous 1
eas 1
edi 1
kel 0.20970435875425114
ono 1
preparations 1
trends 1
Hot@@ 1
McCl@@ 1
Rib@@ 1
creatures 1
emann 0.3249259019025031
paternal 1
qi 1
sodium 1
specializing 1
1802 0.5965003972433914
Anniversary 1
Candid@@ 1
Investigation 1
Kiss 1
Warwick 1
advocates 1
ako 1
atmospheric 1
ballad 1
edia 1
influ@@ 1
iza 1
lear@@ 1
phin 1
rifles 1
Gloucester 1
Viv@@ 1
dairy 1
declaring 1
expan@@ 1
ido 1
lunar 1
memorable 1
negotiate 1
normal@@ 1
proportional 1
Ama@@ 1
Made 1
Mud@@ 1
Neal 1
Screen 1
front@@ 1
hair@@ 1
molecule 1
orials 1
practicing 1
singular 1
smart 1
sten@@ 0.4495961059502577
Gob@@ 1
Mund@@ 0.4045426726033962
Parade 1
Peterson 1
Shep@@ 1
medalist 1
migrants 1
Baghdad 1
ES 1
Hansen 1
Pach@@ 1
alen 0.04782442858031819
cancellation 1
coordinated 1
courtyard 1
fro@@ 1
lighthouse 1
nationality 1
numbering 1
tumor 1
Eyes 1
Resolution 1
Universities 1
inmates 1
need@@ 1
tioned 1
transfers 1
&apos;Neill 1
Kah@@ 1
Stal@@ 0.7720467729876797
ahl 0.2826116169009947
aser 1
elly 1
enses 1
outs@@ 1
submerged 1
univers@@ 0.6340583103027462
you@@ 1
Brom@@ 1
NE 1
acknowle@@ 1
belie@@ 0.6512839143102578
igh 1
inheritance 1
localities 1
physicist 1
spans 1
threshold 1
ulin 1
unnamed 1
Countess 1
Gen. 1
Phillip 1
Riverside 1
after@@ 1
ilo 1
minorities 1
tips 1
CL 1
Genesis 1
UT@@ 1
You@@ 1
distra@@ 1
inflation 1
minerals 1
motto 1
operas 1
pillars 1
submission 1
triangular 1
1792 0.690125346438805
Stru@@ 1
Paraguay 1
Vul@@ 1
excavations 1
exclu@@ 1
marathon 1
rejoined 1
1798 0.5810755092300567
Comic 1
Hod@@ 1
Turin 0.7042261718595332
a. 0.05311310808854322
facial 1
iconic 1
isphere 1
lean 1
stle 1
survives 1
Din 1
Re 1
Volleyball 1
atum 1
bedroom 1
opsis 1
plantations 1
slogan 1
suffrage 1
Cheshire 1
Compet@@ 1
Engine 1
ield 1
lem 0.4823851026354214
ordination 1
plum@@ 1
polar@@ 1
sberg 0.18076397503870117
wholly 1
3.0 1
Chak@@ 1
Jim@@ 1
Lab 1
Latvian 1
anthem 1
canon 1
moist 1
Kes@@ 1
Yang@@ 1
iner@@ 1
Devils 1
Guer@@ 0.9842560329923541
Hap@@ 1
Pale@@ 1
arid 1
dorf 0.08564741354267999
dragon 1
ensuring 1
exploring 1
rituals 1
CNN 1
Fitzgerald 1
Foot@@ 1
Tehran 1
discharged 1
mathematician 1
Antarctica 1
Gustav 0.228393874146163
Samoa 1
Unity 1
bottle 1
iqu@@ 1
legitim@@ 1
omi 1
transaction 1
unic@@ 1
Collec@@ 1
avia 1
bye 1
exploitation 1
sian 1
summers 1
Buc@@ 1
Flanders 1
Greeks 1
brow@@ 1
choices 1
iring 1
irs 1
villain 1
&apos;Connor 1
1790 0.6782118982769572
Hanover 1
block@@ 0.9007188560367865
flexible 1
plast@@ 0.7580676939281412
sings 1
specialty 1
tunnels 1
3.3 1
Beat@@ 1
olla 1
pes 1
surpassed 1
Airways 1
Evangelical 1
Inclu@@ 1
Mell@@ 1
arches 1
http 1
Donn@@ 1
Names 1
Piano 1
Tomatoes 1
eagle 1
excellence 1
gestion 1
Charl@@ 1
McK@@ 1
Tren@@ 1
Waterloo 1
compliance 1
pet 1
pools 1
reconstructed 1
Net 1
etime 1
lifelong 1
listen 0.5631227781247236
underway 1
Bucharest 1
FE@@ 1
Howe 1
aken 0.5292143320148187
hit@@ 1
stamp 1
touched 1
1.9 1
Normal 1
Squad 1
aram 1
delays 1
interfer@@ 1
inventor 1
juvenile 1
mastered 1
merge 1
mutation 1
prose 1
umin@@ 1
vowel 1
BR 1
Elder 1
Foot 1
Nicol@@ 1
Ranger 1
Templ@@ 1
escent 1
liers 1
nationalism 1
warriors 1
xi@@ 1
Peruvian 1
addressing 1
floods 1
nus 1
Andreas 0.19690679196232613
Steelers 1
detached 1
fres@@ 0.8769055249968778
healing 1
lement 1
pending 1
percussion 1
separ@@ 1
Stuttgart 0.14665313525009452
comparing 1
manned 1
spy 1
steal 1
ffer@@ 0.49162205344844273
notation 1
rane 1
rants 1
stressed 1
superintendent 1
theological 1
Hick@@ 1
archy 1
arise 1
calcium 1
facil@@ 1
kiss 1
sophisticated 1
transferring 1
1,3@@ 1
Barker 1
Wolf@@ 0.33884306231507516
criminals 1
evacuation 1
farm@@ 1
harassment 1
instituted 1
picks 1
praising 1
Nikol@@ 0.9694040570570233
Trav@@ 1
ackl@@ 1
dening 1
dent 1
erie 0.31054862294534363
exiled 1
holidays 1
lesbian 1
refugee 1
stadt 0.0747728723208206
3.2 1
Moss 1
Vol 1
grossing 1
spra@@ 1
Australians 1
Barrett 1
René 0.7287902368662234
Ski 1
assuming 1
them@@ 0.7896023536165286
Conservatives 1
HO@@ 1
Milli@@ 0.9736716948138111
USC 1
hob@@ 1
pipeline 1
wanting 1
Apostolic 1
Isabella 1
Mikhail 1
Nationals 1
Peters 1
Semi 1
coe 1
costumes 1
extr@@ 1
supervis@@ 1
Elisabeth 0.2106368570340291
Gloria 1
Na 1
Nick@@ 1
alog@@ 0.8764253677271093
correctly 1
explores 1
glu@@ 1
injection 1
Bash@@ 1
Packers 1
Was 0.4954493164468875
corners 1
delivering 1
loses 1
plots 1
urai 1
Ranch 1
vacuum 1
Aleksand@@ 1
Anim@@ 0.975063394440167
Perkins 1
Tan 1
boost 1
councillor 1
dioxide 1
eded 1
flooded 1
globe 1
ige 0.045343788445600275
licity 1
marginal 1
ozo@@ 1
pressing 1
Applications 1
Bam@@ 1
Basi@@ 0.7476010941761987
Behavi@@ 1
Citizens 1
Falcons 1
Germanic 1
Lot@@ 0.6795346553033373
Marcos 1
Tell 1
Whal@@ 1
bags 1
gambling 1
granddaughter 1
innocent 1
residences 1
sig@@ 0.676467932526489
wells 1
ř@@ 0.24731585763617958
Territorial 1
Vista 1
archs 1
bro 1
feasi@@ 1
uke 1
vil@@ 1
1860s 1
80s 1
Chem@@ 0.3520679430597227
Lankan 1
Pati@@ 1
Pris@@ 1
burst 1
overwhel@@ 1
skoye 1
Sutherland 1
defenders 1
gospel 1
113 1
Weber 0.4617176469481279
ematic 1
fixture 1
generals 1
istics 1
kidnapped 1
presidents 1
pushing 1
schooling 1
sexuality 1
visitor 1
2.7 1
3.1 1
Adap@@ 1
Clayton 1
Joey 1
NT 1
Quar@@ 0.641106675552526
Wein@@ 0.1351631929456238
Work@@ 1
actic 1
apple 1
oni@@ 0.9544910888417799
prospect 1
taining 1
Jupiter 1
Lombar@@ 1
Revol@@ 0.8429625747276464
descriptions 1
talents 1
Monster 1
Smart 1
Stop 1
bells 1
depend 1
humid 1
kidney 1
nie@@ 1
po 1
sketch 1
timing 1
uca 1
Blu 1
Bo 1
Ha 1
Hague 1
Joh@@ 1
Noah 1
Stand 0.05788118052739103
Travis 1
demonstrating 1
exam 1
frustr@@ 1
observers 1
parad@@ 1
phosphate 1
underwater 1
Constituency 1
Controversy 1
Pius 0.7193477225957366
conventions 1
enced 1
eponymous 1
illustr@@ 1
outlet 1
theft 1
Benn@@ 0.9333021405965471
antine 1
expect 1
jour@@ 1
loy@@ 1
olle@@ 0.7869340515866922
para 1
partnerships 1
screens 1
Evil 1
Hammond 1
Shannon 1
Woo@@ 1
outskirts 1
postseason 1
remarks 1
Atlas 1
BP 1
Regist@@ 0.7545950549934699
coordinate 1
exports 1
manif@@ 1
targeting 1
virtue 1
alth@@ 1
apost@@ 1
escapes 1
flan@@ 1
forested 1
processed 1
trauma 1
util@@ 1
worm 1
CW 1
Catal@@ 1
Sports@@ 1
accidents 1
plateau 1
similarity 1
Dream@@ 1
Preservation 1
Sales 1
convent 1
parap@@ 1
profitable 1
ár@@ 0.8452736606641594
1,8@@ 1
Avi@@ 1
Dee 1
Ecology 1
Jakarta 1
RCA 1
Shab@@ 1
Tracks 1
altogether 1
avern 1
dominance 1
niece 1
precision 1
rach@@ 0.351632246651533
ross 1
ubs 1
Å@@ 0.9600148601241799
ás 1
Pole 1
Reich 0.13212938473773533
Wheeler 1
atically 1
branding 1
nee 1
oor 1
osaur 1
tragedy 1
upstream 1
yana 1
Governorate 1
Patt@@ 1
vings 1
Marketing 1
Beat 1
Koh@@ 0.5436568684081056
abundance 1
advertisements 1
consec@@ 1
manship 1
nutri@@ 1
persecution 1
reorganized 1
Better 1
Fork 1
Hours 1
Int@@ 1
button 1
captained 1
hibition 1
positively 1
Burn@@ 1
Human@@ 0.63790953349601
Zhou 1
bage 1
complexes 1
examine 1
fence 1
mascot 1
observe 1
otyp@@ 1
vag@@ 1
Challenger 0.5403650735561067
Das 0.005226452305295744
Expressway 1
Holly 1
accumulated 1
airports 1
motorway 1
rolls 1
triggered 1
zzo 1
1789 0.6549415725365388
BMW 0.6618021651407375
Bolshe@@ 1
Chr@@ 0.9899256784673706
Highlands 1
Honors 1
Rita 1
heavier 1
theatres 1
thrust 1
trigger 1
unanimously 1
9.5 1
Nit@@ 0.7136691133922394
akin 1
debates 1
metic 1
newsc@@ 1
bh@@ 1
canc@@ 1
creature 1
ien@@ 0.2784990698918434
pamph@@ 1
tones 1
warrant 1
Bé@@ 0.76518457164081
kor@@ 0.2183402358411068
steering 1
д@@ 1
Omar 1
Prec@@ 1
Song@@ 0.6656762314063147
admiral 1
bery 1
cob@@ 1
polo 1
pret@@ 1
voy@@ 1
Survi@@ 1
Trial 1
Wesley 1
blast 1
cism 1
grandchildren 1
nitrogen 1
omy@@ 1
pipes 1
subdivided 1
whe@@ 1
Valentine 1
amid 1
feast 1
symph@@ 1
Catholicism 1
Present 1
avoiding 1
charging 1
folding 1
gab@@ 0.8008760839767476
incarnation 1
ival@@ 0.6110120210277304
jee 1
pride 1
retains 1
Canon 1
Dau@@ 0.5066494352051489
Ib@@ 1
Rouge 1
Selected 1
adop@@ 1
catches 1
coc@@ 1
cred@@ 1
overnight 1
sim@@ 1
venti@@ 1
1,7@@ 1
Brig@@ 1
Gazette 1
Jenny 1
Recordings 1
Ricky 1
U. 1
auses 0.7105287168486915
cleaning 1
ladies 1
predators 1
prostit@@ 1
reate 1
tee 1
ulu 1
Catalan 1
Mirror 1
Naw@@ 1
attitudes 1
bodied 1
izations 1
podium 1
treas@@ 1
с@@ 0.9840948190112315
300,000 1
Criticism 1
HK 0.6200531467278114
Leopold 0.37316548860255827
PBS 1
RB@@ 1
Standards 0.8078096909279495
cel 1
natives 1
odds 1
roller 1
ț@@ 1
Elena 1
duet 1
envel@@ 1
green@@ 1
waived 1
Algerian 1
Lily 1
carbon@@ 1
caves 1
chances 1
chicken 1
folklore 1
fuselage 1
spatial 1
tenants 1
tenor 1
warehouse 1
Bihar 1
Habitat 1
Rain 1
appointments 1
bitter 1
keyboards 1
realism 1
speeches 1
wl 1
agon 1
batsman 1
conqu@@ 1
coordination 1
fut@@ 1
hammer 1
hex@@ 1
listeners 1
uter@@ 1
Isles 1
dor 1
inform 1
mountainous 1
sound@@ 1
trau@@ 0.5407037065358153
Ris@@ 1
blocking 1
dict 1
iron@@ 1
occurrence 1
tub@@ 1
2,500 1
Gain@@ 1
Oh@@ 0.6137381952024364
Roth@@ 0.42717018917733784
XII 1
det 0.10822844683971339
dians 1
omer@@ 1
traders 1
Beh@@ 0.35760297275097724
Slav@@ 1
accounted 1
controller 1
heavyweight 1
listings 1
suspects 1
whenever 1
1796 0.7650093493196956
HR 1
II@@ 1
Maple 1
alphabet 1
aten 0.07243143210202674
congress 1
fits 1
ionist 1
matric@@ 1
oxid@@ 1
possessions 1
prominently 1
termination 1
Buck 1
EA 1
Infrastructure 1
Manning 1
Ordin@@ 0.9135128526731087
broadly 1
campaigned 1
midnight 1
satellites 1
117 1
12,000 1
Connell 1
Plate 1
Rapids 1
duke 1
fears 1
owo 0.4091481628733092
tent@@ 1
underneath 1
unexpected 1
violated 1
Assam 1
ED 1
Hug@@ 1
Pla@@ 1
Teaching 1
aq 1
candidacy 1
expressing 1
harbor 1
ogen 0.48644632079459554
uch 0.46762625894762566
ü 0.5028907644620234
Augustine 1
Donna 1
Fu 1
gable 1
selective 1
shor@@ 1
13,@@ 0.537423422605391
afterward 1
viable 1
Ard@@ 1
Mick 1
Pond 1
announcing 1
pageant 1
sworth 1
Everything 1
Pac 1
Pis@@ 1
Tun@@ 1
Voy@@ 1
Walton 1
appeals 1
confir@@ 1
decorations 1
diary 1
magnet@@ 1
psychiat@@ 1
unaware 1
Blackburn 1
Cal 1
Nord 0.13569446585243652
Technologies 1
Whilst 1
adjoining 1
antic 1
eco 1
ensions 1
figured 1
gins 1
illumin@@ 1
rebranded 1
2.8 1
Emmanuel 1
Shepherd 1
ahu 1
bull@@ 1
Bach@@ 0.4370006007980729
Fischer 0.28064063862627825
Zan@@ 1
detachment 1
forcement 1
lasts 1
Josef 0.13713110835294365
concludes 1
declar@@ 1
modification 1
psycho@@ 1
rom 0.5569985797921302
undergoing 1
Chen@@ 1
Fuller 1
Marx 0.46525579603592526
Pioneer 1
Taliban 1
defeats 1
ired 1
pa@@ 0.6700332405523185
Greenwich 1
Mets 1
Ruby 1
Sophia 1
etz@@ 0.15833947226653108
obil@@ 1
ovi@@ 1
vitational 1
Commodore 1
Honduras 1
Wonder@@ 1
academics 1
bann@@ 1
delic@@ 1
dow@@ 1
extraction 1
hiking 1
introduces 1
Hyper@@ 0.6930278767950568
Sunderland 1
Yan 1
anxiety 1
glac@@ 1
inging 1
monster 1
90s 1
Harlem 1
avi 1
figur@@ 1
loo@@ 1
syndicated 1
Bowie 1
Rei@@ 0.165752388045639
burnt 1
disgu@@ 1
fraction 1
passive 1
uters 1
Con 1
Dictionary 1
Kand@@ 1
Kend@@ 1
Lus@@ 1
Oli@@ 0.9015303835465177
barracks 1
developmental 1
prov@@ 1
repet@@ 1
specification 1
Divis@@ 1
Hyp@@ 0.9397510863054256
Namibia 1
Vick@@ 1
Waters 1
adays 1
answers 1
automated 1
celebrating 1
corresponds 1
sports@@ 1
PN@@ 1
Phar@@ 0.5408762017856622
acia 1
complem@@ 1
nosis 1
osphere 1
recruiting 1
rod@@ 1
sab@@ 0.6508120535490612
2.6 1
Bronx 1
Compos@@ 1
Genoa 1
Hé@@ 1
Mim@@ 1
impe@@ 1
peasants 1
photographic 1
175 1
Dwight 1
Edith 1
Flemish 1
Inv@@ 0.9351676788558777
Jacobs 1
agne 0.6191734072770976
assumption 1
cham@@ 1
este@@ 1
identifies 1
logical 1
tigh@@ 1
19@@ 1
Corner 1
Matt@@ 1
Oz@@ 1
Stand@@ 0.31678897061129563
Zak@@ 1
aldo 1
breathing 1
constructing 1
critic@@ 1
fam@@ 1
forbidden 1
inserted 1
ku@@ 0.7291666233874957
retreated 1
č 0.6642388946305757
Bologna 0.8098678655088158
Hig@@ 1
Lafayette 1
Returning 1
Tong@@ 1
Twelve 1
barriers 1
bride 1
gir@@ 1
limiting 1
perennial 1
rie@@ 0.25914302770286624
Fleming 1
Rex 1
Somalia 1
Williamson 1
chambers 1
fierce 1
frigate 1
lings 0.9196196874576213
nominal 1
strips 1
1850s 1
Arabs 1
Dick@@ 0.8888954746546908
Jubilee 1
Randolph 1
Tate 1
assisting 1
avan 1
circul@@ 1
civilization 1
sinking 1
spin@@ 1
1797 0.6467954217906692
1799 0.6664487302829452
Camden 1
Lead 1
Rodriguez 1
Via 0.8710661357618739
Weather 1
aret 1
deficit 1
exceeded 1
firm@@ 0.9562738349001231
illes 1
ll@@ 0.7833213784964835
sandy 1
yuan 1
Cub@@ 1
Geographic 1
Kannada 1
aden@@ 0.3201976207319172
deep@@ 1
handic@@ 1
intru@@ 1
itate 1
ongs 1
reproduction 1
residency 1
vap@@ 1
AV 1
Dover 1
astronomy 1
boot 0.7919778875934592
Nim@@ 1
für 0.001974216365425289
nap 1
osaurs 1
put@@ 1
receptions 1
tarian 1
tations 1
turing 1
Fritz 0.19329390554582015
Hous@@ 1
Kash@@ 1
Rapid 1
agenda 1
cottage 1
guarantee 1
modeled 1
progression 1
yes 1
Him@@ 1
cane 1
exported 1
fortifications 1
jar@@ 1
originating 1
styled 1
udes 1
Discography 1
ary@@ 1
elines 1
jar 1
ogue 1
Bec@@ 1
Exc@@ 1
Nina 1
alizing 1
eters 1
ová 0.669065383567618
ι@@ 0.9715195980570892
Entry 1
Midwest 1
Stevenson 1
c.@@ 1
check@@ 1
ength 1
harmony 1
inters 1
teens 1
vre 1
ști 1
Bavarian 1
Event 1
Instit@@ 0.8765470596693097
John@@ 1
Monaco 1
adow 1
caste 1
extrac@@ 1
inscribed 1
lyn 1
sty 1
throws 1
ution@@ 1
26th 1
bru@@ 0.4579093974521913
eign 1
expend@@ 1
ilia 1
lodge 1
miniseries 1
precursor 1
wed@@ 1
Journey 1
Travel 1
Tsu@@ 1
endon 1
genocide 1
hav@@ 1
Hundred 1
buff@@ 1
cogn@@ 1
coral 1
dams 1
depiction 1
notorious 1
overlooking 1
plural 1
240 0.9270621304728307
Purple 1
agon@@ 0.753186477557482
ghts 1
prescri@@ 1
reinforcements 1
reproductive 1
rift 1
scra@@ 1
Bub@@ 1
Credits 1
DF@@ 0.6847678046727539
DT 1
Wildcats 1
drought 1
genuine 1
ios@@ 0.9771672134770457
subordinate 1
Crew 1
Dil@@ 1
LT@@ 1
cameo 1
chan 1
home@@ 1
Clan 1
Karachi 1
bec@@ 1
comedi@@ 1
ditioned 1
geological 1
Rescue 1
alike 1
fellowship 1
grace 1
ject 1
· 0.7087728189219284
1600 0.558173754301244
Birds 1
Jah@@ 1
Polytechnic 1
aluminum 1
endi@@ 1
lou@@ 1
num@@ 0.9390854320140507
omy 1
onymous 1
tible 1
Incre@@ 1
confirm 1
fitting 1
ousness 1
Beirut 1
Kamp@@ 0.4462673424203374
Myers 1
agonists 1
biblical 1
frozen 1
ranch 1
victorious 1
Gou@@ 1
Hawk 1
Mi 1
Search 1
Sign@@ 0.8111503255249977
defendant 1
owment 1
122 1
MacDonald 1
Shap@@ 1
Tas@@ 1
compart@@ 1
dog@@ 1
emerge 1
sketches 1
Archaeological 1
Kru@@ 0.7594950966222085
wrong@@ 1
16,@@ 0.6923570203746201
Forever 1
Holiday 1
Kurdish 1
Pé@@ 0.6892344589871167
Wigan 1
clearing 1
decay 1
glob@@ 1
icon@@ 1
infiltr@@ 1
remod@@ 1
treasurer 1
0.4 1
Admiralty 1
Chic@@ 1
Close 1
Color 1
Nicole 1
Tut@@ 1
anos 1
bution 1
roof@@ 1
48@@ 1
Lut@@ 1
Web@@ 0.34645309770327115
basal 1
chus 1
halted 1
kowski 0.8904855482081426
neighbors 1
patents 1
quarter@@ 1
trav@@ 1
Brett 1
Cannes 1
HT@@ 1
Marxist 1
Relief 0.988989660863051
Tax@@ 0.5002464851845316
composing 1
omer 1
ovan 1
partition 1
poses 1
supreme 1
vey 1
8.5 1
Park@@ 0.40652138522316766
Renault 0.8963035675268023
Soviets 1
aquatic 1
asylum 1
cock@@ 1
inability 1
rar 1
Taiwanese 1
bullet 1
dwelling 1
ested 1
ife 1
individually 1
lie@@ 0.2959619858148977
porn@@ 1
probable 1
wolf 1
Lal@@ 1
asy 1
dul@@ 1
epithet 1
iler 0.8175916385822627
invari@@ 1
Joaqu@@ 1
Lahore 1
Promot@@ 1
Ultimately 1
ancestral 1
appoint 1
bomb@@ 1
deau 1
Daniels 1
Feature 1
Hann@@ 0.421896616278885
Mob@@ 1
Respon@@ 1
Scri@@ 1
Weston 1
catalog 1
lobby 1
mac 1
owitz 0.49706499020840667
reminiscent 1
steals 1
abri@@ 1
patches 1
Bangalore 1
DL 1
Moroccan 1
disabilities 1
experiencing 1
mos 1
olive 1
oxy@@ 1
rog@@ 1
1900s 1
Christina 1
Jam 1
Kau@@ 0.767333693711376
Muh@@ 1
ags 0.4180035388405165
billed 1
dera 1
inev@@ 1
ordering 1
thorpe 1
Ł@@ 1
Gad@@ 1
Scre@@ 1
accompany 1
anni 1
ayed 1
cran@@ 1
ephal@@ 1
equilibrium 1
lemen 1
reigning 1
Riz@@ 1
ballots 1
chemist 1
ondo 1
presided 1
27th 1
Cz@@ 0.9304808365710165
Dead@@ 1
Fly 1
Knox 1
professors 1
propon@@ 1
14,@@ 0.5524961589366445
Brittany 1
Cast 1
Jung 0.9195027335400239
Patrol 1
Steam 1
TD 1
Thom@@ 0.6560619345857787
devot@@ 1
mop@@ 1
socially 1
tissues 1
Bills 1
Say 1
Tai 1
aland 1
amer 1
damaging 1
declare 1
deposited 1
illustrator 1
spr@@ 0.3201430234518691
verbal 1
Mali 1
Saw@@ 1
Stern 0.32942713934176115
ald@@ 0.9161056043836284
assimil@@ 1
confronted 1
evich 1
flags 1
sured 1
tidal 1
uga 1
Attack 1
EE@@ 1
Evangel@@ 0.5229333422429131
Finn@@ 0.678423133576491
Maxim@@ 0.5836539625596483
auc@@ 1
collo@@ 1
disposal 1
patronage 1
reelection 1
steadily 1
Ash 1
Clifford 1
Cost@@ 1
Tow@@ 1
ardo 1
bear@@ 1
chancel 1
compulsory 1
concent@@ 1
expres@@ 1
jack@@ 1
mobility 1
recovering 1
titular 1
uph@@ 1
Aurora 1
Behind 1
Celeb@@ 1
Pist@@ 0.712066627040968
VP 0.6903989055845319
Welfare 1
diversi@@ 1
https 1
opter@@ 1
prefer 1
rebuilding 1
statewide 1
vas 1
Col. 1
Diane 1
Wad@@ 1
aison 0.8579721000252346
mund@@ 0.6541613363433507
organizational 1
start@@ 1
thal 0.35971053704600686
tributaries 1
Colts 1
Glory 1
Paralympic 1
Parsons 1
Period 1
aires 1
carn@@ 1
censorship 1
constraints 1
geometric 1
opath@@ 1
udi 1
Judicial 1
Lightning 1
Mo 1
Plateau 0.9025399201810207
adverse 1
protested 1
Christchurch 1
Dreams 1
McKin@@ 1
Mec@@ 1
accurately 1
brewery 1
eders 1
expeditions 1
inely 1
rout@@ 1
Dana 1
Derbyshire 1
Loy@@ 1
granting 1
mob 1
provisional 1
tuition 1
wavel@@ 1
49@@ 1
Broadcast 1
Dorset 1
Dunn 1
Gly@@ 0.9005102202105987
Roo@@ 1
William@@ 1
pitching 1
savings 1
spur 0.9379034204810046
ør@@ 1
46@@ 1
Bosnian 1
Guest 1
Higgins 1
Shop 1
Thing 1
coast@@ 1
elev@@ 1
feeds 1
funny 1
handball 1
kas 0.6948947362534761
precisely 1
robbery 1
Colleges 1
Gand@@ 1
Guam 1
Quest 1
beetles 1
circuits 1
homeland 1
sensor 1
troop 1
Aid 1
Dé@@ 0.8402031831255176
Guil@@ 1
Reformation 0.3628402806704374
badge 1
baron@@ 1
chef 0.6337125703234836
demise 1
eighteenth 1
legends 1
markings 1
overhead 1
toy 1
unusually 1
Chel@@ 1
Crazy 1
Hog@@ 1
Hung@@ 1
Per 1
accum@@ 1
comply 1
eers 1
intentions 1
par 1
permits 1
regulate 1
tural 1
60s 1
Frontier 1
Quest@@ 1
Regina 1
Reports 1
anterior 1
battlefield 1
olin 1
stellar 1
Buchanan 1
Lexington 1
Olympi@@ 0.46236660617293535
Property 1
Rath@@ 0.6092804201610692
Ronnie 1
Seymour 1
hook 1
offspring 1
premiership 1
recognizes 1
refusal 1
reluctant 1
showc@@ 1
stuck 1
suits 1
đ@@ 1
BE 1
Depot 1
Lennon 1
MB@@ 1
Olivia 1
Simmons 1
debts 1
freeway 1
oed 1
revision 1
Des 0.18982208302254944
Galway 1
Qualification 1
Rainbow 1
TP 1
additionally 1
adjusted 1
peers 1
rotating 1
Crosby 1
Deg@@ 0.599226151214079
Patriarch 1
Sue 1
Treatment 1
expressions 1
geology 1
speculated 1
stants 1
114 1
3.6 1
Bahrain 1
Noble 1
aal 0.4744697818844486
modules 1
qualifications 1
reunion 1
spokesman 1
view@@ 1
Belarusian 1
Olymp@@ 1
Pilot 0.8151582672835739
amped 1
hate 1
jersey 1
obsc@@ 1
stomach 1
tang@@ 1
unrelated 1
1776 0.8466159018768056
Apost@@ 0.9938982303054956
Ship 1
ere@@ 0.6191620654119874
evalu@@ 1
fined 1
node 1
synagogue 1
Carth@@ 1
Damascus 1
Fed@@ 1
Premiership 1
anticip@@ 1
assess 1
burden 1
embro@@ 1
interpretations 1
intervals 1
lified 1
refusing 1
robot 1
townships 1
Divine 1
Lagos 1
Mai@@ 0.5998129057077228
ayne 1
chman 1
gravel 1
ilities 1
poetic 1
pris@@ 1
transgender 1
119@@ 0.6103527929525989
Agent 0.9977064320540955
Holden 1
Mayo 1
dispar@@ 1
fundraising 1
monetary 1
reporters 1
sanctions 1
1200 0.4595242641545212
Beng@@ 1
Bhag@@ 1
Oce@@ 1
Viking 1
ayana 1
canvas 1
chment 1
cure 1
locate 1
tet 0.10215172235704381
uni@@ 1
′ 0.7828032275001334
FS 1
Medieval 1
Nassau 0.5053631551937794
Phillies 1
Rand@@ 0.38418095890468806
Sob@@ 0.6663015648297845
arf 1
concentrate 1
eras 1
implementing 1
reactor 1
subway 1
ucci 1
ushi 1
workforce 1
Columb@@ 1
Mansfield 1
Mast@@ 0.5780156109916663
Serbs 1
auer 0.10302355772298892
perfectly 1
proud 1
publi@@ 0.8036244710131171
Combined 1
Lug@@ 1
Paris@@ 1
revers@@ 1
slide 1
supplement 1
1,9@@ 1
Calvin 1
Lok@@ 0.30441580922836375
Solo 0.7048864332609898
Want 1
dram@@ 0.7484139825960002
oscill@@ 1
papal 1
15,@@ 0.6312016914370698
Archive 1
Core 1
Ler@@ 0.8518737788371161
Mant@@ 0.8786245526175995
Programs 1
Rivera 1
Shir@@ 1
admits 1
athers 1
eful 1
renovations 1
unted 1
Browne 1
Chevrolet 1
Choir 1
None 1
Sharp 1
dried 1
filing 1
issions 1
novel@@ 1
pastoral 1
pope 1
rine 1
Holt 1
Noel 1
Old@@ 1
Row 1
antes 0.7831522288967994
haw 1
noun 1
rental 1
resume 1
sociology 1
unconscious 1
École 0.737524789070313
Brand 0.27479687169702366
Downs 1
Ivy 1
MG 1
pits 1
Okinawa 1
bolt 1
firearms 1
inval@@ 1
recre@@ 1
Coming 1
Manufacturing 1
Operational 1
Test@@ 0.2271498638389258
atorium 0.45423590360821436
daytime 1
entirety 1
ometer 1
1783 0.7883781295231921
BI 1
Watts 1
apex 1
corrupt 1
gage 1
kr@@ 0.38859436790787116
observer 1
rae 1
regain 1
ting@@ 1
tying 1
visa 1
warrior 1
124 1
Intel 1
Lives 1
Nonetheless 1
Strange 1
Val 0.5037915086905138
awi 1
economically 1
ensured 1
shark 1
villa 1
121 1
250,000 1
28th 1
40th 1
Certificate 1
Millennium 1
RAM 1
dt 0.14657480918718577
ight@@ 1
milit@@ 1
projection 1
quin 1
summoned 1
Previous 1
banker 1
erh@@ 0.12475194726737192
geny 1
inferior 1
s.@@ 1
shocked 1
technically 1
typh@@ 1
Bish@@ 1
Ceylon 1
Marcel 0.7293621436587696
avid 1
racist 1
representations 1
scribed 1
symmetry 1
0.6 1
Gill 1
Laos 1
Mini 1
Oper@@ 0.4648159502166231
Reviews 1
armored 1
diction 1
isol@@ 1
rites 1
uni 1
McCor@@ 1
Subsequent 1
evic@@ 1
oba 1
prone 1
unga 1
vine 1
Prac@@ 1
Ricardo 1
Rise 1
Yer@@ 1
slender 1
sympathetic 1
NL 1
Pérez 1
collectors 1
lain 1
motif 1
otte 0.49999266241174284
songwriting 1
yama 1
0.7 1
Clubs 0.5781036560199971
Multi@@ 0.7458101559532738
Resistance 1
Zhao 1
athan 1
cease 1
hiring 1
trustee 1
116 1
3.7 1
Abd@@ 0.7819506594667697
Kai 0.9913412813276918
Romeo 1
Venetian 1
Vera 1
fixtures 1
phy 1
scenario 1
scopy 1
slower 1
vement 1
Beta 1
Ell@@ 0.7941299248181772
Swar@@ 1
Tav@@ 1
cum@@ 1
eminent 1
hes@@ 1
oki 1
seminary 1
simulation 1
umption 1
123 1
Ask@@ 1
Directorate 1
Goa 1
Journalism 1
Lach@@ 0.8091614078916325
Niagara 1
asco 1
ayo 1
dimin@@ 1
ffe 1
intentionally 1
lowered 1
moths 1
ogram 1
overview 1
privileges 1
wrapped 1
yt@@ 1
Associates 1
IW@@ 1
acked 1
croft 1
ole@@ 1
updates 1
1791 0.7297003094577263
49ers 1
Amb@@ 1
Bend 1
Corporate 1
Gop@@ 1
avers 1
insight 1
Cliff 1
FR@@ 1
Kho@@ 1
Mozart 1
dwellings 1
ections 1
nurses 1
subsi@@ 1
uck 1
Bates 1
Cable 1
Enter@@ 1
Fast 0.6462398098886967
Guitar 1
Nil@@ 1
Travel@@ 1
investor 1
nationals 1
opus 1
rendering 1
staging 1
superi@@ 1
tracked 1
Electrical 1
Got@@ 0.389906406717187
Kop@@ 0.26038335735204604
MGM 1
Mist@@ 1
Nich@@ 1
Rod 1
Stirling 1
Ya@@ 1
angel@@ 0.29393939842672895
ashore 1
iest 1
intake 1
pale@@ 1
referenced 1
thood 1
uranium 1
voter 1
Agr@@ 1
Courts 1
Prosec@@ 1
Rho@@ 0.9608495196127645
odon 1
orted 1
urban@@ 1
wen@@ 0.24626503377924927
» 0.12605542835242628
0.8 1
Byron 1
Cron@@ 1
Hawkins 1
Humanities 1
Jet 1
Satellite 1
apparatus 1
corro@@ 1
infinite 1
Ald@@ 1
EMI 1
Ish@@ 1
Itali@@ 1
K.@@ 0.8533320367064029
Legends 1
Lowe 1
aise 1
beneficial 1
dressing 1
ference 1
mad 1
winters 1
Abbott 1
Direct 1
Established 1
Form 0.047145589786192474
Ling@@ 1
dawn 1
istan 1
mart@@ 1
onde 1
promoter 1
tertiary 1
tu 1
ultur@@ 1
verdict 1
127 1
Dayton 1
andant 1
cub@@ 1
deities 1
inth 1
spontan@@ 1
Kick@@ 1
Look 1
Wah@@ 1
aird 1
extensions 1
globally 1
ogn@@ 0.9351175814819636
oppose 1
supernatural 1
õ@@ 1
Ji 1
Version 0.10321935569758352
centric 1
etes 0.35441567774391547
spokesperson 1
Approximately 1
Jules 0.9902605929235397
Released 1
Zambia 1
atch 1
atile 1
inadequate 1
myself 1
olia 1
sion@@ 0.5155928892540396
telescope 1
titude 1
Casino 1
Different 1
Miranda 1
arios 1
parall@@ 0.9026101226505412
reddish 1
substances 1
turnout 1
Numerous 1
adaptations 1
dea 1
elabor@@ 1
estead 1
horse@@ 1
isch@@ 0.08620453171927606
justified 1
210 1
Format 0.5056623698118429
Himal@@ 1
Phyl@@ 1
UT 1
Zurich 1
abolic 1
differently 1
distribute 1
esz@@ 0.5996587890864267
jaw 1
tec@@ 1
treasure 1
AK 0.8784548245179123
Griffith 1
Interest 1
Nice 1
affirmed 1
arith@@ 1
behaviors 1
drunk 1
ific 1
mani 1
Beth@@ 1
Generally 1
Judy 1
Near@@ 1
Nest@@ 0.5590587959385732
Passenger 1
mollus@@ 1
sick@@ 1
silence 1
1775 0.7944504722347495
Nes@@ 1
blacks 1
climbed 1
yam 1
ý 0.2954260373521877
Gloucestershire 1
Greenland 1
LD 1
Lamb@@ 1
commentators 1
eleg@@ 0.9799411653217435
heav@@ 1
redevelopment 1
rels 1
substrate 1
2.9 1
Boli@@ 1
Busch 0.9101194221322251
Foun@@ 1
Liberals 1
advent 1
ammed 1
ectors 1
exchanged 1
mov@@ 1
ographies 1
pois@@ 1
steep@@ 1
Sánchez 1
Twins 1
chairs 1
reluc@@ 1
softball 1
F1 1
Rin@@ 0.4608704230992439
XIII 1
alties 1
botanist 1
comprise 1
domest@@ 1
ided 1
intimate 1
margin@@ 1
persi@@ 1
Beast 1
Devi 1
Intel@@ 1
Payne 1
Rookie 1
Su 1
Tum@@ 0.5538752537527879
anchored 1
appa 1
bush@@ 1
court@@ 1
deposit 1
dim@@ 1
princip@@ 1
uddin 1
umper 1
unreleased 1
Gameplay 1
IO@@ 1
Poor 1
hist@@ 1
motiv@@ 0.8411315252380988
picking 1
shifts 1
soprano 1
spider 1
« 0.12306346448912436
Berkshire 1
Eil@@ 0.6556490938736113
Mayer 0.6803959360284937
Presidency 1
bombardment 1
eside 1
forgotten 1
inations 1
missi@@ 1
opener 1
where@@ 1
wi 1
Buch@@ 0.08280005489786874
No.@@ 1
Swansea 1
WWF 1
Wake 1
lich 0.028313618425516534
masculine 1
orchestral 1
then@@ 0.9643531316905007
unchanged 1
Ş@@ 1
126 1
190 0.9762063874366892
Fant@@ 0.823690186979721
Mel 1
ardi@@ 1
attracting 1
moder@@ 0.5221190548344279
motifs 1
paper@@ 1
protest@@ 0.9292789587231154
sil 1
Alg@@ 1
Elliot 1
Hammer@@ 0.5128142418550755
Naj@@ 1
Sai@@ 1
garde 0.7764745666996701
thickness 1
trig@@ 1
washed 1
Adults 1
Bibliography 1
Livingston 1
Mercy 1
Wen@@ 0.3536207777315587
cott 1
dental 1
explor@@ 1
other@@ 1
reduc@@ 1
Catalonia 1
Colombo 1
Qualifying 1
Quartet 1
achute 1
brut@@ 1
concluding 1
fet@@ 1
inequality 1
pain@@ 1
posterior 1
vacated 1
zia 0.8573647995623526
Booth 1
HQ 1
Hamm@@ 1
Moon@@ 1
Multiple 1
Sex@@ 1
Tudor 1
chord 1
favor@@ 1
inventory 1
jug@@ 1
Paw@@ 0.906241184024043
RE 1
Tulsa 1
disappearance 1
fram@@ 1
generator 1
rebuild 1
winger 1
ça 1
ş 0.9515808893870518
ε@@ 1
118 1
35.@@ 1
Dong@@ 1
PL 1
Rim@@ 1
Sis@@ 1
WC 1
Wine 1
confrontation 1
electrons 1
positi@@ 1
stays 1
Allison 1
Canadians 1
FDA 1
Nicaragua 1
Stafford 1
dismissal 1
eka 1
flash@@ 1
inking 1
polling 1
zzy 1
3.8 1
Brooke 1
Isabel 1
Vanderbilt 1
brid@@ 1
cartoons 1
documentaries 1
hardly 1
procession 1
stak@@ 1
Atlético 1
COM 1
Convers@@ 1
Ensemble 0.3142049117847455
GE 1
Nationalist 1
Partnership 1
Roch@@ 0.8001471453993417
cible 1
discusses 1
esse 0.33177249328017944
rov 1
rul@@ 1
Lu 1
casino 1
eys 1
imal 1
oses 1
otilla 1
recipients 1
shareholders 1
spells 1
talked 1
veget@@ 1
zoo 1
Kyoto 1
Rajasthan 1
Suzuki 1
angs@@ 0.4611432906754879
coastline 1
door@@ 1
fair@@ 1
fountain 1
outright 1
preserving 1
prosecutor 1
showcase 1
thin@@ 1
tuberculosis 1
38.@@ 1
Dest@@ 1
Norse 1
Permanent 1
Tac@@ 1
gling 1
hydrox@@ 1
isan 1
nutrition 1
phylo@@ 1
practitioners 1
Dhaka 1
Guinness 1
Happ@@ 1
Khan@@ 1
Making 1
Shell 1
expos@@ 1
worlds 1
Correc@@ 1
Dodge 1
Peri@@ 0.580829683333777
Pomeranian 1
Uncle 1
armour 1
audition 1
caus@@ 1
devised 1
nas@@ 1
poles 1
øn@@ 0.9333887497093728
32@@ 0.9646216597376779
Mans 0.8054415107856508
Thre@@ 1
Wikipedia 0.8041856248540724
contests 1
emy 1
luck 1
quer@@ 1
wav@@ 1
Eisenhower 1
Judith 1
Lorraine 1
Reilly 1
characterised 1
dispatched 1
icans 1
immigrated 1
implications 1
poster 1
vein 1
Midnight 1
assignments 1
disappointing 1
favourable 1
iddle 1
king@@ 1
lunch 1
pard 1
pier@@ 1
popularly 1
taxi 1
yak@@ 1
ć@@ 1
17,@@ 0.6630312549713885
astron@@ 1
blockade 1
chartered 1
enrich@@ 1
inity 1
pioneered 1
1,2@@ 1
1780 0.6966115483400082
IRA 1
Rotterdam 0.8300850204654349
Sant 0.8823214920050217
cot 1
cruci@@ 1
epidemic 1
orse 1
ridae 1
subscription 1
terror 1
Fren@@ 1
Garrett 1
Goodman 1
Rama 1
Rip@@ 1
Said 1
Senegal 1
Urdu 1
abolition 1
clip 1
container 1
efs 0.9425438376001002
functionality 1
igan 1
iu 1
laugh@@ 1
70s 1
Bann@@ 1
Burlington 1
Civi@@ 1
Kerr 1
M.A. 1
curric@@ 1
dier 1
evaluated 1
heral@@ 1
obic 1
obligations 1
predecessors 1
sensors 1
Mughal 1
Neigh@@ 1
Sequ@@ 0.6807883129995289
oding 1
way@@ 1
3.4 1
BB 0.7532301782608138
Chamberlain 1
Figure 1
Sit@@ 0.5641624931487417
aluminium 1
feathers 1
good@@ 1
intersec@@ 1
pilgrimage 1
sei@@ 0.9328536370329618
sparked 1
Pip@@ 1
Publication 1
Steele 1
eman@@ 1
gest 1
grossed 1
listic 1
song@@ 1
Goth@@ 1
Idol 1
Marquis 1
Vand@@ 1
cool@@ 1
courthouse 1
cues 1
demographic 1
fungi 1
vertebrates 1
Andre 1
Strike 1
Tik@@ 1
anned 1
colonists 1
dir@@ 1
disturbed 1
dramas 1
likewise 1
negoti@@ 1
nodes 1
okes 1
random@@ 1
shores 1
thorn 1
Broken 1
Grey@@ 1
Hancock 1
Poles 1
UAE 1
asters 1
backgrounds 1
commuter 1
homage 1
honoured 1
implied 1
liability 1
ouring 1
stealing 1
unprecedented 1
UM@@ 1
abstra@@ 0.8003914407147148
estation 1
ferti@@ 1
flour 1
jav@@ 1
kne@@ 1
Adol@@ 1
Darren 1
ET 1
Gould 1
MR 1
Theology 1
adel 1
consul 1
essa 1
latitude 1
renewable 1
street@@ 1
temperate 1
Biden 1
Dolphins 1
Limerick 1
Nou@@ 1
Romance 1
Scho@@ 0.6907687478490832
depend@@ 1
enstein 0.19216483205405668
offin 1
ometric 1
onder@@ 1
Den 0.07402502885729412
Jennings 1
Loop 1
Mex@@ 1
Northampton 1
Slovenian 1
Syl@@ 1
aver 1
ideals 1
quez 1
rd 1
sof@@ 1
yev 1
201@@ 0.7426733099235
Ord@@ 0.6114557900211508
Saturn 1
devastated 1
indication 1
locking 1
persu@@ 1
surveyed 1
teenagers 1
xel 1
Fortune 1
Giles 1
Horace 1
Mystery 1
Platinum 1
ate@@ 1
consortium 1
litre 1
Animation 1
Koz@@ 1
boy@@ 1
defenses 1
dness 1
whis@@ 1
230 0.8283336622671108
Lod@@ 1
Siv@@ 1
Tina 1
WB@@ 1
categor@@ 1
leaf@@ 1
prompting 1
sad@@ 1
ticism 1
2,0@@ 1
Buildings 1
Fernández 1
Landing 1
Pomp@@ 1
Qualif@@ 0.7431550941369494
Recognition 1
Rs 1
Typically 1
Wes@@ 0.31541332732704447
atu 1
constituent 1
employing 1
fulfill 1
interception 1
promotions 1
reliability 1
stocks 1
substituted 1
thir@@ 1
vie@@ 1
After@@ 1
Marsh@@ 1
avant 1
hips 1
pillar 1
60,000 1
Chit@@ 1
Consumer 1
Koch 0.4168984053255852
USD 0.42269994172031916
cha@@ 1
research@@ 1
slate 1
vest 1
Ain 1
Coul@@ 1
NL@@ 1
extinction 1
inson 1
recruitment 1
somewhere 1
turbine 1
unrest 1
Harriet 1
WR@@ 1
allocation 1
attested 1
casts 1
contemporaries 1
definitions 1
issuing 1
-class 1
BL@@ 1
Brown@@ 1
Congregation 1
Eighth 1
Kem@@ 0.7590403356489299
Yoshi@@ 1
blown 1
communal 1
eston 1
etown 1
flav@@ 1
leman 1
overl@@ 1
quin@@ 1
specifications 1
syllab@@ 1
CH 1
Leonardo 1
Perfect 1
adapt 1
aide 1
kie 1
tolerance 1
Electronics 1
Gim@@ 1
Jas@@ 1
Ka 1
Phantom 1
amar@@ 1
citation 1
consol@@ 1
degradation 1
italized 1
pedestrian 1
suffix 1
uto 1
Gross@@ 0.46602779195480143
Havana 1
Khor@@ 1
Kill 1
Starr 1
Teresa 1
armoured 1
berto 1
coinci@@ 1
lude 1
pressures 1
550 0.9479531297933501
Xu 1
conferred 1
film@@ 0.26558025602546725
merit 1
sheriff 1
stripes 1
wir@@ 0.2116749839866564
37.@@ 1
Axis 1
Brain 1
EF@@ 1
Hank 1
defendants 1
dynam@@ 0.47612828722379064
lization 1
oce@@ 1
ē@@ 1
98.@@ 1
Dancing 1
MO 1
asph@@ 1
dispens@@ 1
erect 1
ević 1
illy 1
pleaded 1
shortage 1
suspicion 1
tron@@ 1
Advert@@ 1
Austral@@ 0.9224574128076938
Bei@@ 0.16026949197946208
Dah@@ 0.5127205429254472
chiefly 1
custom@@ 1
depths 1
diam@@ 1
donor 1
happ@@ 1
itter 0.5884269355917828
tiers 1
Adel@@ 0.31091389414714926
Plac@@ 1
denounced 1
dot 1
ende 0.024334446122459254
instant 1
pler 0.7746444475380081
wet@@ 1
Any@@ 1
Lo 1
Pho@@ 1
Satur@@ 1
Written 1
akis 1
eshi 1
esque 1
finity 1
icious 1
restric@@ 1
twins 1
visibility 1
whites 1
Flowers 1
Image 1
Luck@@ 1
Quality 1
Summary 1
Yaz@@ 1
hardcore 1
invest@@ 0.8562145723470777
kid@@ 1
packed 1
patrons 1
stern 0.43006770877765343
witch 1
Hammer 0.649121392529402
Martin@@ 0.7703528891331487
Piz@@ 1
Resort 1
V8 1
Wilderness 1
bare 0.12237491082569947
converting 1
cost@@ 1
entrants 1
neural 1
offerings 1
suppressed 1
Austro 1
Dug@@ 1
Leningrad 1
Mey@@ 1
Role 1
culminated 1
enzymes 1
histor@@ 0.5287906194472656
hybri@@ 1
necess@@ 1
oj@@ 1
umbrella 1
100th 1
AE 1
Adv@@ 1
Cooperation 1
applicable 1
dat@@ 0.5712424519143591
dispersed 1
enders 1
font 1
idol 1
ley@@ 1
metallic 1
shifting 1
vier 0.019378921431735103
ä 0.5645725777112159
DD 1
Factor 1
Hogan 1
Rae 1
SB@@ 0.9193992635203585
WR 1
archaeology 1
clashes 1
foil 1
plements 1
scrat@@ 1
Draw 1
Stones 1
astronomer 1
exceed 1
nobles 1
oti@@ 1
patrols 1
Aside 1
Olivier 1
Sonic 1
key@@ 1
nos 1
upheld 1
ycle 1
Chev@@ 1
Eis@@ 0.10579881167260259
Gerard 1
Sult@@ 1
brake 1
constra@@ 1
possibilities 1
rators 1
recomm@@ 1
ses@@ 1
torate 1
vacancy 1
wool 1
Circus 1
Falcon 1
Gabri@@ 1
IR 1
Shooting 1
ahr@@ 0.2686244783300714
crowds 1
drinks 1
emi 1
outlined 1
passport 1
plying 1
signaling 1
sne@@ 1
spired 1
Fr 1
Fron@@ 0.4135035853982791
PI 1
alien@@ 1
amid@@ 1
authentic 1
bering 1
fest 0.0872788011312302
fundam@@ 1
retrospective 1
stretched 1
surroundings 1
wears 1
55@@ 1
Broad 1
Immediately 1
Immigration 1
absorption 1
alkal@@ 1
blend 1
guer@@ 1
harvest 1
omen@@ 0.9114792898978461
originates 1
reverted 1
surplus 1
ARC 1
Ik@@ 1
Leh@@ 0.31803285891378985
Ride 1
Trustees 1
aeus 1
amphi@@ 1
ior 1
pepti@@ 1
pledged 1
portraying 1
Compl@@ 1
Finn 1
Gil 1
calm 1
embarr@@ 1
fu 1
hostage 1
optimal 1
psychiatric 1
reservation 1
viruses 1
Audio 1
Hasan 1
Heart@@ 1
Maggie 1
NRL 1
Nile 1
VE@@ 1
eia 0.7473867563283738
eros 1
inauguration 1
informs 1
judi@@ 1
meantime 1
pow@@ 1
tico 1
ED@@ 1
Famous 1
PT 1
Portrait 1
Rosen@@ 0.5209798192874505
Savannah 1
Treasurer 1
equival@@ 1
honey@@ 1
icker 1
jumped 1
petroleum 1
prehistoric 1
2023 1
Bio@@ 1
Geological 1
Hep@@ 0.8623327549331243
Irene 1
Mega 1
arbit@@ 1
clut@@ 1
commissioning 1
decreasing 1
ej@@ 1
inated 1
quartet 1
ruined 1
Dartmouth 1
Exam@@ 1
Peg@@ 0.746268685300097
Producer 1
deported 1
map@@ 1
mous@@ 1
nier 0.7950862614966717
zz 1
ν@@ 1
Fowler 1
Led@@ 1
Save 1
Teh@@ 1
advertisement 1
bacterial 1
bowler 1
conception 1
famili@@ 0.4819769304302793
necessity 1
ström 0.9231134480639741
vand@@ 1
129 1
Bombar@@ 0.9076384369062318
batch 1
ection@@ 1
ifies 1
ishers 1
own@@ 1
prolonged 1
Chu@@ 1
Moldova 1
Superintendent 1
UV 0.9610912911276477
Wolfgang 0.13568658811535178
alternating 1
cardiac 1
dro 1
ensic 1
epers 1
inactive 1
itations 1
lai 1
organism 1
owe 1
spur@@ 0.5443943677016746
tum 0.22530380762306926
Blind 1
Cycl@@ 1
Phi 1
Towards 1
emission 1
noon 1
ographs 1
prosperity 1
uncertainty 1
--@@ 1
1788 0.7238440735040301
Opp@@ 0.6039435214512152
Terrace 1
acher 0.19997859018800396
analyses 1
isl@@ 0.6903421738888366
kos@@ 0.41223950584819136
lang 0.043131262704411186
pag@@ 1
regim@@ 1
Dmit@@ 1
Pah@@ 1
Theod@@ 0.9955486615381963
affordable 1
happening 1
imprint 1
refuse 1
takeover 1
volunteered 1
Franç@@ 1
insect 1
integrate 1
nominees 1
outed 1
uncovered 1
Content 1
Districts 1
MCA 1
Weap@@ 1
aff 1
costa 1
humorous 1
killings 1
lessly 1
lieu 0.8455370432275422
ophob@@ 1
recruits 1
week@@ 1
DT@@ 1
Lamp@@ 0.5830771536266894
Lawson 1
Ottomans 1
Taking 1
dirt 1
rejection 1
satisfy 1
weighed 1
97.@@ 1
Audi@@ 0.8247043983203309
Fan 1
Magnus 0.7148507254278803
Mao 1
Mathematical 1
Nie@@ 0.5546767039627121
Pietro 0.8083825960446124
benz@@ 1
entr@@ 0.6207040701583579
hell 0.9560779858290962
hypothes@@ 1
lone 1
passages 1
sher 1
there@@ 1
volcano 1
Natur@@ 0.09132897051386434
arbitrary 1
emas 1
gymn@@ 1
ilus 1
planting 1
punt 1
reissued 1
Elvis 1
Fan@@ 0.7157339615348226
NHS 1
Pru@@ 1
Running 1
Rust@@ 1
Segunda 1
Sunshine 1
Termin@@ 0.5044571667037531
Vest@@ 0.9852150034281352
contributes 1
cot@@ 1
scat@@ 1
Byrne 1
Ligue 1
abi 1
careful 1
cubic 1
illian 1
lovers 1
muscles 1
robust 1
sat@@ 0.6220235630022507
у@@ 1
Blackpool 1
Castile 1
Deal 1
Dw@@ 1
Habsburg 1
Minn@@ 1
Sterling 1
Tribunal 1
afi 1
compli@@ 1
essence 1
fly@@ 1
sidy 1
statutory 1
Baháʼ@@ 1
Flam@@ 1
Hussein 1
Kirby 1
LDS 1
Lil 1
Plans 1
Rear 1
Rowing 1
Twenty20 1
alcoholic 1
arewell 1
environ@@ 1
pref@@ 1
respiratory 1
sei 0.030868640760241983
tails 1
Birthday 1
Epi@@ 0.5097613870778621
Own 1
Rau@@ 0.2146442460260364
Reh@@ 0.4497433694784704
Sundays 1
Tec@@ 1
captive 1
chloride 1
clad 1
evacu@@ 1
fox 1
prostitution 1
saints 1
slip 1
Bordeaux 0.8742681742612738
Cell 1
Hes@@ 1
Scholar 1
Sie@@ 0.1695206294056419
Spot@@ 1
VO@@ 1
admired 1
athlon 1
bell@@ 1
collaborations 1
contempl@@ 1
coronavirus 1
deadline 1
oan 1
omorphic 1
persuade 1
photographed 1
ulf 1
1,200 1
4.0 1
Domingo 1
Lucky 1
Neb@@ 0.3606265663743792
Pike 1
Sega 1
Seth 1
Xia@@ 1
addiction 1
adows 1
angular 1
centred 1
conditional 1
failures 1
norms 1
pleasant 1
spiral 1
sympath@@ 1
Bride 1
Fi 1
Gap 1
Lauren 1
Württemberg 0.13534583567683373
alterations 1
erly 1
indirect 1
Ex 0.4815257617962375
Gibbs 1
Hindus 1
Master@@ 1
Mongol 1
Practice 1
XIV 1
fug@@ 1
hereditary 1
incarcer@@ 1
pav@@ 1
pulling 1
wheelchair 1
Earlier 1
Fear 1
Kyrgy@@ 1
Norris 1
Werner 0.15840178462220209
Wolver@@ 1
Yon@@ 1
cheap 1
depict 1
nar 1
transc@@ 1
uku 1
.-@@ 0.32439991522660544
650 0.8752750568982433
Dome 1
Gore 1
Princ@@ 1
Scholarship 1
angel 1
cartridge 1
cist 1
linebacker 1
lymph@@ 1
mins 1
senators 1
sor 1
zio 1
Areas 1
Baku 1
Character@@ 1
Hass@@ 0.7744108765032823
Madame 1
[...]
