् 8669031
के 1666194
। 1546065
में 1259006
, 1226863
है 1085862
प 842542
की 781702
और 690486
़ 656794
से 610670
स 604582
का 596302
को 494553
एक 453923
य 405302
) 387192
( 385418
हैं 373996
क 342978
&quot; 332340
पर 326378
त 292672
ट 290227
ने 284641
. 277272
र 275728
@-@ 274189
व 271701
द 265134
किया 242885
था 230190
लिए 225826
भी 203068
यह 190775
कर 184369
न 183871
इस 181431
गया 178847
म 175884
या 169837
कि 161224
वर 158689
ग 152798
ज 143215
रूप 142317
ड 140644
जो 131657
उन 131121
ध 128018
जाता 125218
कार 122749
फ 121006
ही 118902
साथ 117304
करने 115682
श 115009
उत 112411
हो 109770
ष 109339
वारा 107481
थे 104761
&apos; 102958
राज 102734
ब 102659
भारत 101648
: 101376
री 100787
नहीं 100235
र@@ 98617
तक 97826
तर 94436
बाद 94208
निर 92067
म@@ 91280
अन 88733
तथा 86774
अपने 84981
थी 84394
दिया 80613
यक 79529
ता 79061
ण 78718
ति 78579
ी 78497
ल 76631
षेत 76360
न@@ 76101
वह 75556
होंने 74573
ली 74409
अ@@ 73702
पूर 72364
होता 72228
क@@ 71824
रा@@ 70047
य@@ 68643
दी 68559
व@@ 67536
ा 67093
जा 66743
स@@ 66378
हुआ 65799
वि@@ 64984
ब@@ 64848
वे 64763
थित 63530
इन 63452
सर 62059
कुछ 59681
रा 59616
थ 59583
आ@@ 59385
हें 58524
नाम 58457
राष 58253
विश 58003
ल@@ 57093
रीय 57073
ना 56771
प@@ 56502
सम 56383
च 55591
त@@ 55027
करते 54291
हुए 53613
तो 53360
गाँव 53341
दर 52499
- 52237
समय 52188
ए@@ 52041
इसके 51274
एवं 50970
ना@@ 50936
ट@@ 50921
रो@@ 50908
े 50724
रि@@ 50688
ला 50534
नी 50342
होने 50029
कई 49377
उनके 49272
वा@@ 49194
संस 49054
षा 48985
मा@@ 48977
ज@@ 48123
; 48076
भारतीय 47133
द@@ 46990
अधिक 46933
रे@@ 46864
का@@ 46539
वाले 46536
जन 45690
सन 45627
ला@@ 45599
बड 45450
मार 45130
सबसे 45118
कारण 44805
ती 44737
रों 44624
को@@ 44596
अपनी 44513
कम 44436
करता 44377
होती 44225
मुख 43928
पत 43749
पहले 43722
ं@@ 43661
टी 43328
थान 43114
अर 43099
गए 43078
जी 42857
दो 42663
सु@@ 42450
रकार 42181
सकता 41932
सि@@ 41929
ग@@ 41204
टर 41201
फिल 41181
ह@@ 41152
किसी 40978
शन 40751
या@@ 40690
&#93; 40456
जब 40447
गई 40309
&#91; 40299
ते 40236
ले 40223
सी@@ 39685
कहा 39249
श@@ 39228
यों 39014
च@@ 38889
वी 38742
लेकिन 38596
सं@@ 38441
बा@@ 38409
‍ 38393
बर 38353
रदेश 38348
यू@@ 38338
नि@@ 38278
ये 38078
राप 38065
जाती 37345
हुई 37289
बहुत 37039
सी 36980
लिया 36972
शामिल 36859
मा 36557
ता@@ 36453
सा 36383
रक 36298
बन 36141
सा@@ 35827
ड@@ 35807
पा@@ 35551
देश 35429
जैसे 35415
ई 35111
ख 35108
ले@@ 35017
री@@ 34980
होते 34920
भाषा 34594
जिले 34545
रम 34380
/ 34375
दक 34351
मे@@ 34253
लो@@ 34060
बे@@ 33863
गत 33691
लि@@ 33600
रहे 33491
षण 33484
जा@@ 33358
वास 33037
धर 32797
ध@@ 32719
मन 32655
इ@@ 32381
उनकी 32293
उस 32123
विद 32051
जाने 32037
रस 31755
यालय 31653
ए 31288
बीच 31257
चित 31254
मि@@ 31176
उ@@ 31158
उसके 31143
उद 31088
रहा 31024
सभी 30951
ओ@@ 30733
तरह 30673
रत 30642
जिसमें 30586
पश 30579
भाग 30329
इसे 30132
रह 30070
के@@ 30016
कु@@ 29982
दा@@ 29965
आर 29746
इसका 29716
अनुसार 29398
रिया 29141
मान 29139
बार 29032
तहसील 28994
मो@@ 28871
तान 28705
माण 28556
रमुख 28499
करना 28396
काम 28394
पड 28128
मी 27801
उसे 27696
अध 27669
ई@@ 27581
भ 27570
शिक 27551
कोई 27527
लोगों 27496
ह 27488
यात 27323
अक 27204
महत 27194
थ@@ 27155
पी@@ 26950
ख@@ 26859
वे@@ 26827
बढ 26749
ञान 26719
राम 26581
उपयोग 26562
पार 26559
ति@@ 26550
मण 26535
ने@@ 26472
अल 26428
जीवन 26370
हिन 26366
वाली 26254
गो@@ 25994
ा@@ 25924
से@@ 25923
जाते 25746
मक 25709
ली@@ 25424
चार 25390
पुर 25385
&#124; 25310
भ@@ 25228
नगर 25197
दोनों 25174
आदि 25112
ियों 24980
सिंह 24784
डी 24704
शब 24547
गु@@ 24528
मूल 24527
शहर 24496
लिये 24484
मध 24470
लक 24407
लगभग 24406
मु@@ 24291
फ@@ 24231
रयोग 24219
दौरान 24186
यहाँ 24054
सो@@ 23953
नों 23905
िल 23870
बी@@ 23852
.@@ 23779
ंग 23761
साहित 23741
रेस 23702
अंग 23626
ओर 23494
कों 23304
सरकार 23298
काल 23260
वार 23215
डल 23137
अब 23120
तीन 23085
गा@@ 23071
शुरू 22915
विज 22874
फिर 22847
ठ 22780
हा@@ 22763
बि@@ 22693
लोग 22684
टी@@ 22632
पास 22555
% 22547
षिण 22486
जिसे 22445
टा@@ 22399
अलग 22320
शक 22299
विकास 22223
ण@@ 22189
1 22027
पे@@ 21994
नी@@ 21732
बल 21609
करती 21602
ऑफ 21553
कै@@ 21546
तन 21536
वस 21379
पो@@ 21365
ष@@ 21288
गर 21279
मे 21213
हर 21103
केवल 20931
अंतर 20907
कि@@ 20895
जिन 20825
तु 20774
बो@@ 20745
जाना 20713
रिकेट 20614
युद 20609
यान 20592
सकते 20563
बी 20553
विशेष 20477
मंदिर 20444
इसकी 20427
पि@@ 20254
डे@@ 20223
ि@@ 20070
पद 19976
दा 19965
&amp; 19926
रु@@ 19888
विस 19822
यम 19735
सिद 19731
दिन 19645
जर 19577
कभी 19576
तों 19450
करण 19414
जी@@ 19383
वी@@ 19354
ों 19343
भा@@ 19341
उनका 19334
विभिन 19323
सदस 19317
टीम 19312
ं 19291
टो@@ 19257
वा 19221
उप@@ 19194
यु@@ 19190
इतिहास 19127
रू@@ 19114
पन 19107
नो@@ 19096
चर 19053
योंकि 18953
साल 18952
उच 18904
इसमें 18898
राज@@ 18862
2 18849
शा@@ 18803
हे@@ 18615
नदी 18604
ंग@@ 18566
वपूर 18531
कृत 18509
माना 18498
अपना 18422
इसी 18378
टे@@ 18341
योग 18334
राजा 18320
कहते 18274
हालांकि 18211
शि@@ 18207
थिति 18176
रण 18133
रही 18131
हिस 18101
संख 18097
रदर 18073
दे@@ 17976
रता 17894
किए 17888
दिल 17839
वाला 17834
षित 17830
टा 17748
महा@@ 17666
रसिद 17645
रथम 17501
परि@@ 17475
लों 17466
छ@@ 17462
आ 17422
अनु@@ 17399
रे 17366
कल 17365
हि@@ 17364
रित 17357
॰ 17310
चा@@ 17301
तब 17301
जे@@ 17295
टि@@ 17275
दु@@ 17242
वविद 17241
पहली 17220
कुल 17116
सत 17061
आवश 17031
रदान 17012
पुरस 16893
कन 16882
अस 16862
बु@@ 16736
पी 16699
मै@@ 16672
रिय 16604
बै@@ 16588
डी@@ 16557
बना 16542
सू@@ 16480
टन 16464
संयुक 16450
ंट 16397
घ@@ 16385
वन 16356
पक 16334
दूसरे 16332
जिसके 16319
पर@@ 16295
अमेरिका 16276
जल 16258
वीं 16226
केंद 16185
मी@@ 16134
दि@@ 16119
तु@@ 16110
े@@ 16070
थापित 16023
सक 16002
दे 15990
पै@@ 15966
ंस 15953
रन 15908
उल 15859
डि@@ 15839
ठ@@ 15832
टेशन 15807
भर 15806
ंड 15793
तत 15792
मों 15721
तमान 15711
उसकी 15697
ो@@ 15659
रति@@ 15630
धि 15614
जबकि 15591
सामान 15575
एस 15572
यहां 15544
नर 15511
डा@@ 15508
संग 15508
मात 15485
अप 15448
लैंड 15446
जिसका 15289
खा@@ 15267
कृष 15216
पाकिस 15194
बच 15158
सभा 15156
तियों 15140
लड 15140
यो@@ 15135
मित 15079
अव@@ 15061
आज 15060
पु@@ 14886
माध 14879
हो@@ 14847
थापना 14832
3 14735
तौर 14708
िले 14708
यता 14691
यू 14680
समर 14647
ँ@@ 14630
चि@@ 14612
कर@@ 14592
मिक 14591
’ 14563
रति 14540
ी@@ 14537
२ 14506
एल 14500
अत 14466
की@@ 14440
‘ 14432
पिता 14423
रिक 14419
मर 14377
टि 14354
ु@@ 14336
घर 14331
फि@@ 14331
गढ 14328
मंत 14321
है@@ 14314
हार 14302
रै@@ 14295
जि@@ 14289
गयी 14276
वाद 14255
रखा 14241
यवस 14237
मृत 14223
बनाया 14220
नामक 14196
अनेक 14180
दार 14180
आधार 14151
पुस 14086
ते@@ 14072
कोड 14045
गि@@ 14032
यास 14010
ओं 14009
अप@@ 14007
बारे 13992
जु@@ 13974
डा 13964
उसने 13954
परिवार 13874
विक 13837
सेना 13829
ो 13793
20 13787
चाहिए 13749
देने 13748
बात 13707
आम 13670
जो@@ 13618
वै@@ 13583
मान@@ 13565
ययन 13548
समूह 13546
देशों 13517
जारी 13515
वत 13507
तार 13500
संगीत 13457
बिहार 13448
सेवा 13401
उपलब 13391
षक 13354
रो 13275
ऐसा 13243
अच 13166
षों 13160
यु 13117
जिला 13067
सकती 13057
१ 12940
दो@@ 12932
भू@@ 12919
लै@@ 12907
रभाव 12901
पुत 12893
राचीन 12885
केन 12869
दूर 12859
दृष 12851
लु@@ 12847
ऐसे 12836
जहां 12813
डो@@ 12797
िया 12791
महिला 12778
चक 12770
था@@ 12767
बनाने 12709
चिम 12676
परिवर 12633
थीं 12631
अलावा 12607
छोड 12604
दुर 12489
कॉ@@ 12413
अफ 12400
आई@@ 12375
देता 12365
लम 12342
भूमिका 12305
शे@@ 12295
ऐ@@ 12293
शास 12286
दी@@ 12276
मैच 12271
करके 12270
माता 12203
वक 12193
लर 12177
तराखण 12170
जुड 12154
दों 12154
५ 12151
निम 12128
चिकित 12111
जिससे 12095
येक 12083
अं@@ 12081
खिलाफ 12075
सार 12068
ऑस 12020
यदि 12019
लेख 12019
4 12017
ार 11997
टिक 11996
वतंत 11961
धार 11941
कंपनी 11922
रोग 11919
पता 11912
रान 11892
यन 11879
काफी 11842
अभि@@ 11826
सामाजिक 11814
समस 11807
ताओं 11792
दुनिया 11747
कूल 11735
लेकर 11704
दू 11700
धा@@ 11691
5 11647
चुनाव 11645
वान 11631
उसका 11629
यर 11588
जिस 11558
मस 11557
एँ 11512
तरी 11508
आई 11504
सम@@ 11494
कप 11477
नई 11449
ियाँ 11427
हम 11418
शताब 11402
झ@@ 11377
कला 11371
10 11355
रिटिश 11354
पहला 11348
चन 11345
लाल 11339
जोड 11331
खु@@ 11319
गये 11319
परीक 11310
अथवा 11273
टों 11269
सुरक 11252
ओ 11249
पानी 11194
वों 11191
खेल 11167
तर@@ 11155
समान 11132
०@@ 11115
३ 11091
पादन 11082
इंग 11067
जन@@ 11067
इसलिए 11057
किये 11054
ंद 11028
शुरुआत 11015
आगे 10963
धन 10961
अमेरिकी 10958
छोटे 10949
जहाँ 10942
कृति 10938
– 10895
कता 10892
तेमाल 10880
गे@@ 10874
राम@@ 10874
रणाली 10870
उम 10867
वरूप 10864
= 10857
आधारित 10828
ंड@@ 10801
३@@ 10795
एस@@ 10764
रेन 10693
रकाशित 10691
एं 10678
वीप 10678
6 10639
चे@@ 10638
गा 10615
तित 10593
उदाहरण 10591
रेज 10573
लगा 10535
साम 10473
रेलवे 10472
चु@@ 10461
जनवरी 10456
ढ@@ 10438
समाज 10424
पूरी 10407
इससे 10394
फर 10391
राजस 10390
मुक 10384
बाहर 10345
इनके 10325
अंत 10306
आन 10299
शासन 10274
नियंत 10258
विकसित 10210
लू@@ 10204
होगा 10181
वो 10168
मद 10167
लोक 10161
गांव 10157
४ 10119
पति 10116
गी 10089
पदार 10054
रॉ@@ 10013
कार@@ 10001
इं@@ 9997
मत 9981
रहता 9979
भगवान 9971
संघ 9963
दस 9958
दशक 9939
बनी 9935
ती@@ 9925
फे@@ 9922
मुद 9921
थल 9900
रेणी 9900
निया 9899
बने 9887
सै@@ 9886
एम@@ 9860
वित 9856
ंक 9838
रंग 9804
सब 9803
आत 9797
देते 9797
जिनमें 9783
रहते 9773
० 9743
अन@@ 9741
ु 9732
सर@@ 9716
अतिरिक 9710
आधुनिक 9705
! 9701
होकर 9689
बा 9664
एम 9641
हा 9641
अधिकांश 9639
यी 9618
मई 9592
रृंखला 9587
नु@@ 9580
शरीर 9580
शीर 9580
रमण 9575
वाल 9568
ान 9545
६ 9522
रेजी 9520
रात 9512
चे 9505
gt 9499
लोकप 9479
थिक 9461
पा 9454
हस 9441
अगस 9438
नए 9420
डे 9403
शर 9401
देखा 9396
टै@@ 9343
९ 9340
यादा 9306
ढ 9298
णन 9282
बांग 9268
संक 9249
ू@@ 9244
बस 9240
टूबर 9234
देव 9230
ित 9229
तो@@ 9182
चा 9181
मिल 9172
खो@@ 9144
अधिकार 9139
lt 9134
ू 9131
डर 9130
निक 9123
हु@@ 9122
मानव 9115
उसी 9113
एन@@ 9086
सिस 9066
दूसरी 9059
विभाग 9056
राइ@@ 9048
भिन 9043
रैल 9037
शी 9022
कड 9001
८ 8982
आप 8981
वाचन 8979
संबंध 8976
जून 8970
मल 8966
चीन 8939
भूमि 8935
जगह 8931
छा@@ 8929
नाथ 8927
the 8926
मिश 8911
राजधानी 8907
जुलाई 8900
देवी 8889
पूरा 8888
ऊपर 8877
ंत 8866
ूर 8856
७ 8850
-@@ 8843
ही@@ 8836
थन 8832
िया@@ 8829
चिमी 8825
तव 8823
वैज 8805
रोत 8803
लो 8787
सह@@ 8787
थि@@ 8768
राजनीतिक 8753
पल 8743
विचार 8743
पष 8740
सूची 8734
तैयार 8723
of 8714
विषय 8705
बिना 8702
सप 8686
मीटर 8681
जों 8672
ौ@@ 8671
ाई 8655
दन 8649
अग 8643
णा 8638
सीमा 8618
जीत 8617
टेस 8605
यार 8598
छा 8583
ियां 8573
किन 8556
विधानसभा 8554
लेने 8551
लन 8550
युग 8548
रचना 8526
४@@ 8514
राय 8509
लता 8501
समा@@ 8501
ञानिक 8487
युत 8479
धा 8477
पृथ 8474
वयं 8467
निष 8461
अंतिम 8458
खिलाड 8453
लिखा 8442
मू@@ 8412
चों 8404
जनसंख 8388
गै@@ 8384
आकर 8381
लिंग 8372
ञ 8365
थानीय 8360
कोर 8346
फा@@ 8340
वादी 8335
रपति 8333
ार@@ 8326
मानित 8323
जे 8322
वृद 8316
उर 8301
ॅ@@ 8301
रास 8294
समुद 8294
सहायता 8291
योजना 8280
टूर 8269
ीन 8255
हल 8252
आने 8241
युक 8240
नीचे 8238
टिंग 8226
रह@@ 8217
ऑ@@ 8159
मूर 8142
यापक 8142
करा@@ 8135
ऐसी 8105
संगठन 8100
कहानी 8099
चौ@@ 8095
होना 8082
समाप 8074
हिंदी 8065
9 8060
पढ 8046
छात 8029
अभी 8019
टल 8019
पात 8013
पाया 8010
तुलना 8007
कॉलेज 8004
रहने 8004
चंद 7995
ीय 7993
नो 7988
रकाश 7978
णा@@ 7973
8 7952
आक 7936
15 7932
रवेश 7928
तम 7926
वें 7917
मिला 7906
शैली 7897
नाटक 7873
7 7871
भाई 7871
रिस 7869
६@@ 7860
सूर 7855
लीग 7836
वितीय 7820
रण@@ 7819
किलोमीटर 7814
पूरे 7810
खे@@ 7802
चात 7801
विशिष 7787
सों 7785
रभावित 7780
सहित 7766
षमता 7757
सदी 7752
धान 7751
ची 7742
दूरी 7742
रं@@ 7740
सौ@@ 7740
दृश 7738
अवधि 7735
निश 7733
कू@@ 7714
सिर 7706
अवस 7689
दल 7682
मं@@ 7681
फो@@ 7675
संबंधित 7672
जै@@ 7665
बहु@@ 7662
12 7657
पहाड 7648
एंड 7637
वल 7634
सल 7632
एन 7627
सूत 7623
शी@@ 7622
दास 7615
रयास 7611
वश 7604
लगे 7586
2008 7585
यंत 7582
णी 7576
आबादी 7571
दान 7564
किमी 7561
कुमाऊँ 7553
हों 7550
विधि 7547
देव@@ 7544
ऐतिहासिक 7527
मिलता 7510
मुस 7509
पोर 7507
बुद 7506
मैं 7501
बोर 7500
बे 7496
वहाँ 7496
उड 7487
यकता 7481
कं@@ 7479
षा@@ 7469
खान 7459
इनमें 7456
रीका 7444
वंश 7426
हत 7426
पित 7401
रियों 7401
रिया@@ 7399
धि@@ 7391
आर@@ 7384
नक 7376
गति 7367
तंत 7360
रेष 7348
५@@ 7345
सिक 7344
यिक 7332
तहत 7328
काव 7327
घोषणा 7323
यापार 7317
रहती 7310
ोर 7303
लाम 7288
2007 7286
एं@@ 7282
तुत 7268
वीकार 7266
आकार 7262
दिए 7259
विधान 7252
0 7248
टे 7237
आता 7235
लिम 7223
शा 7223
पुरुष 7220
बू@@ 7216
दूसरा 7215
जनगणना 7198
भक 7197
आते 7188
चरण 7184
रेट 7179
ि 7177
७@@ 7175
हाल 7172
आयोजित 7169
कांग 7167
सके 7166
कारी 7125
हाथ 7124
गीत 7123
नियम 7120
८@@ 7106
19 7103
ऊर 7083
ंगे 7073
नौ@@ 7072
मदद 7067
रेलिया 7065
लिस 7042
एशिया 7040
बौद 7038
जिसने 7025
दू@@ 7022
लादेश 7009
बनाए 6997
टर@@ 6990
रम@@ 6989
इनका 6980
दिखाई 6977
विवाह 6957
2018 6947
टो 6945
पह@@ 6944
नै@@ 6939
2019 6909
चल 6887
थात 6884
बाल 6884
थर 6881
जाए 6872
टम 6869
कालीन 6840
आया 6839
जाति 6831
पण 6823
2009 6808
नामेंट 6802
हेतु 6800
कारों 6787
धांत 6783
साइ@@ 6777
लास 6772
रखने 6758
याय 6752
गन 6747
तुम 6745
बताया 6731
रव 6729
सामने 6726
अंतरराष 6723
शादी 6706
बैंक 6695
थानों 6694
30 6688
पू@@ 6683
महिलाओं 6682
11 6677
बम 6672
मिली 6672
रारंभिक 6670
नन 6662
उपन 6631
पांच 6629
लिन 6612
शो@@ 6611
लॉ@@ 6608
राह 6601
साक 6598
घा@@ 6597
रप 6592
नियुक 6585
पुलिस 6580
ै@@ 6575
रशिक 6570
कश 6567
बंद 6567
मास 6534
नेतृत 6531
हे 6522
पुनर 6520
मह@@ 6518
२@@ 6517
कवि 6514
ची@@ 6510
कुमार 6504
९@@ 6496
नि 6477
हवाई 6477
ठा 6473
‌ 6472
रेल 6471
कक 6465
नस 6463
बं@@ 6445
चला 6443
अम 6437
रद 6417
सात 6399
घटना 6396
किस 6390
अधि@@ 6381
कस 6381
सांस 6377
मार@@ 6376
18 6375
रिका 6373
परिषद 6371
फरवरी 6359
मेंट 6355
रिकॉर 6355
सफल 6355
लग@@ 6349
लेखक 6347
पैदा 6346
राकृतिक 6346
िय@@ 6343
दिशा 6327
संरक 6326
बर@@ 6324
डॉ 6309
मौ@@ 6309
मीर 6307
वेस 6294
लाइ@@ 6292
छत 6289
मैन 6286
बंगाल 6277
मनुष 6276
मिलियन 6274
अरब 6261
सब@@ 6258
वती 6257
यवहार 6247
धी 6240
नृत 6235
रल 6234
शु@@ 6229
सितंबर 6223
गैर 6205
विन 6204
जानकारी 6201
वापस 6201
वामी 6198
कला@@ 6197
ईस 6191
१८@@ 6187
जित 6182
खड 6177
फै@@ 6177
2006 6176
जनता 6170
थे@@ 6164
आश 6161
लाभ 6160
गार 6148
गोल 6146
षिणी 6141
षी 6136
वजनिक 6132
ंडा 6123
दिनों 6104
मनी 6104
छोटी 6099
सैन 6098
तिक 6094
नल 6087
ारा 6083
लू 6072
समुदाय 6065
यूरोप 6057
सड 6040
टार 6036
भे@@ 6028
भीतर 6009
हासिल 6006
पुष 6004
25 5994
राव 5979
खि@@ 5977
वेल 5970
कृ@@ 5968
ँ 5962
कानून 5952
14 5933
कथा 5931
वृत 5928
कब 5923
इनकी 5921
भी@@ 5919
इन@@ 5918
चै@@ 5918
खोज 5917
आमतौर 5911
लं@@ 5906
तल 5905
16 5903
अगर 5901
अड 5893
शित 5893
ारी 5893
बजे 5891
देती 5886
लब 5884
धीरे 5880
सरकारी 5880
रां@@ 5879
छी 5878
सामग 5874
ठी 5868
पहचान 5857
राजमार 5853
शिव 5841
3@@ 5837
गुप 5831
पीछे 5829
इलेक 5822
खा 5820
कृतिक 5815
सिटी 5811
रतिशत 5804
षिक 5803
जिम 5801
2010 5781
उपस 5767
कृषि 5758
जिसकी 5756
तू@@ 5756
डन 5749
मेल 5749
तरफ 5747
मिस 5734
यत 5726
ॉर 5720
समिति 5707
विष 5702
पाठ 5691
दिसंबर 5682
परिणाम 5670
लगता 5668
लिक 5667
सागर 5665
यही 5663
जल@@ 5659
परा@@ 5649
? 5648
रहण 5644
१९@@ 5643
जैसा 5624
सहायक 5623
ऊ@@ 5620
अभिनय 5619
नवंबर 5617
बिल 5607
लित 5606
वो@@ 5602
डिग 5596
शै@@ 5595
चीनी 5593
a 5592
लाख 5586
महान 5585
अनुसंधान 5583
ईसा 5581
किंग 5580
मौजूद 5571
बॉ@@ 5570
टीवी 5565
ठा@@ 5558
वर@@ 5551
रौद 5548
सेंट 5546
वार@@ 5544
कमी 5541
नलिखित 5538
ये@@ 5536
पंजाब 5535
खुद 5534
ञात 5526
ंद@@ 5515
एल@@ 5509
तिगत 5509
हॉ@@ 5506
अकादमी 5499
ताकि 5499
जीता 5493
जैन 5487
वजह 5475
तानी 5473
तीय 5467
21 5464
अपेक 5464
बिन 5461
लौ@@ 5458
आधिकारिक 5455
यतः 5454
टेक 5449
तीर 5438
निजी 5436
ः 5430
गुरु 5429
निय@@ 5426
पाद 5426
घु@@ 5420
सिन 5414
णों 5412
थों 5407
रांस 5401
भाषाओं 5388
नता 5382
7@@ 5381
रिलीज 5371
सिं@@ 5362
6@@ 5359
बदल 5358
नव@@ 5357
औसत 5353
याप 5350
धारित 5349
जीव 5347
रेम 5346
धारा 5345
जाएगा 5340
एकल 5337
आंदोलन 5335
योगदान 5335
नेपाल 5333
पॉ@@ 5333
बाहरी 5328
रेड 5327
यूरोपीय 5324
विशाल 5324
ञा@@ 5323
पिक 5322
तः 5320
भाव 5319
उससे 5318
17 5317
िला 5310
5@@ 5309
बाजार 5305
शाह 5293
यूटर 5287
वेद 5286
ीं 5282
लय 5281
अनुमति 5270
रेक 5264
रु 5261
उनमें 5256
वहां 5254
दिर 5251
गम 5249
पट 5241
पृष 5240
जैसी 5230
मुंबई 5228
फी@@ 5226
ें 5218
रोक 5214
किंतु 5213
अली 5202
2014 5200
पालन 5199
यद 5197
सूचना 5197
पूजा 5192
यस 5190
2011 5186
भि@@ 5186
कान 5182
मंडल 5181
2016 5180
हाइड 5174
रिश 5173
ठीक 5164
णय 5156
चू@@ 5150
लियों 5145
रबंधन 5143
8@@ 5141
_ 5139
गों 5139
विजय 5139
2017 5138
लाई 5137
चुके 5131
दर@@ 5130
सेन 5126
फोर 5125
नीति 5122
ारों 5118
डब 5113
संचालित 5106
रधान 5104
भु@@ 5103
संदर 5103
देखने 5093
विरोध 5092
एच@@ 5091
सीमित 5089
कविता 5088
रांत 5084
धित 5078
आसपास 5076
अनुवाद 5075
आस 5065
रतियोगिता 5065
13 5064
2005 5064
जय@@ 5051
राय@@ 5048
फल 5047
रानी 5042
9@@ 5037
लागू 5034
ंगा 5025
लगाया 5022
रीन 5013
मामले 5012
धी@@ 5011
छि@@ 5010
एफ@@ 5003
सफलता 4999
रच@@ 4977
मन@@ 4967
देश@@ 4966
and 4963
मनो@@ 4963
सुधार 4958
लाने 4956
नेटवर 4954
करें 4951
शासक 4945
चलता 4944
मॉ@@ 4940
छ 4935
शल 4926
चो@@ 4922
पटना 4921
बन@@ 4918
महीने 4911
+ 4910
तियां 4907
रवा@@ 4902
संघर 4902
इंडिया 4898
भोजन 4898
योगिकी 4882
4@@ 4874
इत 4861
शो 4861
महाराष 4859
१९९@@ 4858
गंज 4857
बावजूद 4853
बार@@ 4849
बद 4845
जॉन 4844
टॉ@@ 4843
मिलती 4841
शुक 4838
बनाई 4834
नया 4828
पं@@ 4828
ऑक 4820
वीर 4820
गंगा 4819
मोड 4818
तविक 4803
भारी 4799
शुद 4799
2012 4798
घंटे 4796
निस 4791
सेल 4784
पना 4782
जू@@ 4781
शिष 4778
बैंड 4771
जापान 4770
षम 4770
परन 4761
पाए 4760
रिटेन 4756
अधिनियम 4746
भार 4745
कहीं 4742
डिंग 4735
आं@@ 4734
णु 4733
षर 4733
चरित 4732
सुन 4732
2@@ 4730
लेट 4726
संबंधी 4724
आए 4722
धारण 4721
2000 4720
मॉडल 4713
रिय@@ 4713
संभव 4711
रयुक 4709
छह 4705
निक@@ 4704
अभिनेता 4699
याख 4679
तमिल 4677
पाल 4677
१९८@@ 4677
आय@@ 4675
गठन 4671
आती 4667
गं@@ 4667
संकेत 4660
राट 4650
औ@@ 4649
मिट 4649
झील 4646
परम 4646
नात 4645
तुर 4642
नम 4637
शों 4635
ौर 4635
वाड 4633
पेन 4630
2020 4629
50 4610
रेखा 4609
मिनट 4607
परंतु 4606
फु@@ 4605
हिंदू 4602
करोड 4601
लाइन 4601
24 4599
लाया 4595
माल 4592
पीड 4589
कोशिश 4582
उपचार 4581
रिपोर 4579
गी@@ 4577
लस 4575
परिचय 4572
संरचना 4568
गौ@@ 4566
आरम 4562
रतिनिधित 4562
विवरण 4560
परियोजना 4559
लोक@@ 4558
माँ 4554
वज 4547
100 4545
गड 4545
टू@@ 4538
रूस 4537
तरा@@ 4536
तुओं 4532
छोटा 4527
मीडिया 4524
मामलों 4523
दत 4522
अम@@ 4511
कंप 4510
होगी 4506
हर@@ 4505
साधारण 4502
मानते 4499
चले 4498
मील 4498
झा@@ 4496
माने 4489
22 4486
रसाद 4484
रिज 4475
तट 4470
मुरादाबाद 4470
तृत 4468
नेता 4467
ंगी 4465
डॉ@@ 4465
रोड 4465
ंच@@ 4464
रतिक 4463
लेखन 4461
आइ@@ 4457
कौ@@ 4457
विपरीत 4455
तेज 4449
2015 4443
अधिकारी 4441
धु@@ 4430
भव 4428
ियन 4428
संविधान 4409
एफ 4407
जान 4401
अभियान 4395
दीन 4395
सही 4395
भागों 4394
ारे 4380
2004 4379
रि 4378
देना 4377
महल 4375
in 4367
घट@@ 4367
आयोजन 4363
पुराने 4363
समझ@@ 4363
तियाँ 4358
बद@@ 4355
रकाशन 4355
लेषण 4354
रंग@@ 4353
सहयोग 4351
चिन 4350
अनुभव 4346
ऊ 4341
टाइ@@ 4339
कम@@ 4334
रतिष 4332
रकृति 4330
पों 4329
आईसीसी 4328
अगले 4326
वं@@ 4324
याओं 4321
पाई 4311
ंज 4308
वॉ@@ 4308
पार@@ 4305
नियों 4299
आचार 4291
पुरी 4290
घोषित 4289
शं@@ 4289
डॉलर 4286
फाइनल 4284
१९७@@ 4283
कोट 4274
लगातार 4273
इच 4266
वेक 4266
लेते 4265
खंड 4264
चुका 4260
नत 4256
एक@@ 4253
मुहम 4250
विधायक 4245
पेट 4244
पदक 4243
भविष 4240
दित 4238
मेन 4236
वीडियो 4236
तेल 4235
2013 4234
शाखा 4232
शाही 4232
१@@ 4230
इस@@ 4228
रश 4227
ओलंपिक 4221
संसद 4221
आयु 4217
लेक 4212
डु@@ 4211
लंदन 4211
रतिस 4208
बनने 4201
रचित 4199
गुण 4195
लगा@@ 4193
बह@@ 4187
इल 4185
गांधी 4182
समीक 4181
कीय 4178
अतः 4177
िक 4177
2021 4176
नें 4176
घरेलू 4171
धिक 4170
उसमें 4158
विभाजित 4158
निवास 4153
पिछले 4153
विदेशी 4152
करीब 4143
अर@@ 4142
खेलों 4134
भवन 4134
लगी 4133
बाज 4132
रंथ 4123
रशासनिक 4123
नामित 4121
राजनीति 4116
गुजरात 4115
ियो@@ 4114
यादि 4112
वायु 4112
अज 4110
योगिक 4110
रज 4110
षेप 4107
हित 4101
जम 4100
रमा@@ 4092
किनारे 4090
इसने 4087
यि@@ 4087
बोली 4086
निकट 4085
सेट 4085
२० 4083
आदेश 4081
नेस 4081
धो@@ 4080
रखते 4080
जिनके 4075
लाह 4074
शेष 4069
“ 4067
डिजाइन 4065
$ 4061
पकड 4061
वालों 4057
युवा 4052
सूक 4052
लग 4050
टिन 4046
चारों 4042
23 4039
यायालय 4039
फॉर 4030
दौरा 4028
रौ@@ 4028
ऋ@@ 4027
इलाहाबाद 4022
आठ 4009
रचलित 4000
सुविधा 4000
मेट 3999
पवित 3996
लने 3995
हरा 3994
यूज 3993
उपकरण 3992
मिलकर 3992
मानक 3983
गल 3982
चुना 3982
माइक 3980
परिणामस 3979
थायी 3978
नेट 3977
वृ@@ 3972
थोड 3971
शोध 3971
ै 3966
” 3966
पारंपरिक 3965
हमारे 3965
बिक 3960
गो 3959
टु@@ 3955
26 3953
ताव 3953
ताक 3952
केट 3948
रार 3947
लें 3944
तस 3941
अनुमान 3940
ाने 3939
ंडर 3937
मैचों 3935
,@@ 3929
नारायण 3923
अभिनेत 3920
तरीके 3920
वाधिक 3920
नाइट 3916
नार 3916
रारंभ 3915
सारे 3915
ंस@@ 3913
रू 3909
भिक 3908
यपि 3905
खेला 3904
औद 3898
चेन 3898
दिसम 3895
आदर 3894
रवर 3893
ंक@@ 3892
वप 3892
दावा 3890
रिंग 3890
ृ@@ 3889
नाइ@@ 3888
​ 3886
लिखी 3880
बंधित 3879
पाँच 3874
रोह 3874
नान 3873
१९६@@ 3868
रख 3867
है- 3867
नपुर 3865
यवसाय 3858
यादातर 3856
घ 3853
नीय 3852
बता@@ 3845
रीलंका 3840
भावना 3838
तकों 3837
छे 3836
गैस 3833
वृक 3831
आगरा 3824
अभ 3818
समाचार 3815
विल 3811
आग 3810
राथमिक 3807
विकेट 3803
विख 3799
टिस 3798
फोन 3796
चैनल 3795
मौत 3794
लिय@@ 3794
नवम 3791
नागरिक 3790
नियमित 3790
नातक 3786
शील 3784
टस 3778
लेखनीय 3778
बजाय 3774
अधीन 3771
लेन 3771
रतीक 3768
पथ 3763
ंडी 3759
शिव@@ 3758
2003 3756
ूल 3755
I 3753
मानी 3751
संपर 3743
लिपि 3740
रुप 3738
40 3734
कलाकार 3732
मना@@ 3732
खाने 3731
थाओं 3731
बेल 3728
घाट 3727
डिस 3726
कॉर 3724
निभा@@ 3724
रेरित 3722
अवसर 3721
बाई 3719
28 3718
दोस 3718
कारक 3714
रचार 3713
सार@@ 3712
वां 3711
2002 3709
साइड 3709
2001 3708
लेता 3708
सॉफ 3705
इ 3703
संत 3703
धों 3698
मंड@@ 3695
आरंभ 3693
यधिक 3689
सामना 3689
धियों 3684
अद 3680
नॉ@@ 3680
विकल 3677
रामीण 3675
थो@@ 3666
वैश 3665
दु 3664
वाक 3660
मिलते 3659
हमेशा 3659
घाटी 3658
१० 3658
संचार 3652
फी 3649
सुन@@ 3648
भट 3646
दियों 3644
27 3643
विवाद 3643
पुरा 3641
थितियों 3640
लामी 3638
खाद 3636
षि@@ 3634
उप 3633
ईश 3631
पुनः 3631
रशासन 3625
आँ@@ 3621
घो@@ 3620
लना 3616
निवेश 3615
1990 3609
मैदान 3609
टेट 3606
रैक 3605
हरि@@ 3604
जॉर 3603
बां@@ 3601
नष 3599
तीसगढ 3598
रोज 3596
जनरल 3595
पेश 3590
एकमात 3588
खी 3587
देशक 3587
जिनका 3579
जीवित 3575
रमा 3575
परिस 3569
नेशनल 3568
रधानमंत 3567
लिखित 3567
याय@@ 3562
मैक 3561
वायु@@ 3553
एड@@ 3552
मधु@@ 3551
१७@@ 3551
तै@@ 3549
रमों 3545
कनाडा 3538
खंड@@ 3536
तीसरे 3536
धति 3535
वेन 3534
परमाणु 3533
संपत 3531
बों 3528
मोर 3528
हराया 3528
तं@@ 3527
10@@ 3525
पेड 3524
चाहते 3518
वाइ@@ 3514
अंतरिक 3513
यज 3513
ताप 3510
वेश 3509
अधिकतर 3504
ंब@@ 3503
रेडियो 3494
एका@@ 3488
हीं 3487
जान@@ 3481
टेड 3480
विष@@ 3480
पे 3477
यो 3476
आलोचना 3469
जांच 3469
मू 3468
इंड@@ 3462
तें 3462
काल@@ 3460
रुद 3460
लार 3460
वाई 3457
सां@@ 3457
खण 3455
मिले 3455
बेटे 3454
निंग 3448
बत 3447
माइ@@ 3446
राशि 3444
हाउस 3444
ियर 3436
पुरुषों 3435
गेम 3434
सव 3434
बेहतर 3432
यमान 3429
गणित 3426
रकट 3425
रत@@ 3422
ढा@@ 3421
फा 3421
रिकेटर 3420
चढ 3416
चुकी 3416
शय 3416
टक 3414
लि 3412
जनक 3410
रारम 3406
लियन 3406
नायक 3405
इंजन 3404
तापमान 3404
तात 3403
षणों 3403
मां@@ 3402
करियर 3399
पताल 3398
याद 3398
रका@@ 3398
केरल 3397
परिक 3396
परंपरा 3392
दम 3391
जेल 3389
मांग 3388
ईसाई 3384
जिद 3384
सिंग 3381
कीर 3376
फाइ@@ 3373
णित 3372
बराबर 3369
लंबे 3367
टवेयर 3365
नज 3365
ेक 3365
सैनिक 3361
महासागर 3355
हद 3350
समारोह 3349
शहरों 3340
ॉ@@ 3337
अंदर 3334
संचालन 3334
... 3332
टाइम 3332
मेलन 3330
हालाँकि 3330
लकर 3326
मियों 3323
राव@@ 3323
ंच 3318
रासायनिक 3316
तीव 3314
विमान 3314
पंच@@ 3310
गंभीर 3302
टिकोण 3302
वहीं 3300
ंप@@ 3298
धिकार 3297
भाषा@@ 3293
मिलित 3292
इज 3291
काम@@ 3291
विषयों 3288
मौसम 3283
उनसे 3280
यावरण 3279
लगाने 3279
नू@@ 3276
तारा 3275
to 3271
टियों 3271
लेस 3271
देख 3268
मां 3265
रांति 3263
डो 3261
मृ@@ 3260
आयोग 3259
विलियम 3259
कत 3256
रालय 3255
रोम 3254
अरबी 3253
तथ 3250
नाग@@ 3249
१९५@@ 3247
थापक 3245
बंध@@ 3244
जड 3243
भौतिक 3243
शारीरिक 3243
सान 3242
इतना 3239
गुरु@@ 3237
देखें 3237
यूट 3235
महाराज 3233
रायः 3233
घटनाओं 3230
थव 3227
डिज 3225
कल@@ 3224
लागत 3223
सितम 3223
ताल 3213
ञा 3211
पाने 3211
लिखे 3211
समूहों 3210
हमला 3210
किले 3209
तोड 3208
हैं- 3205
पुल 3204
एच 3202
वन@@ 3198
फॉ@@ 3197
बेटी 3193
मोहन 3193
वाणिज 3193
खर 3192
लते 3191
शान 3191
खों 3190
मक@@ 3185
सुल 3185
यकार 3181
डाय@@ 3180
कपड 3178
वही 3178
तकनीक 3175
परिसर 3174
संप 3174
हम@@ 3173
दिक 3172
सीधे 3171
अंक 3170
टू 3170
गे 3169
कपूर 3164
विरोधी 3164
चली 3162
सेक 3162
ताह 3159
धार@@ 3159
फुटबॉल 3159
विभाजन 3158
दिखाया 3157
दुल 3156
अधिकारियों 3155
इक 3154
१९४@@ 3154
मिलने 3153
सच 3150
षीय 3148
सें@@ 3147
गाने 3145
ंसी 3144
रॉन 3144
भग@@ 3143
भेद 3143
वोच 3143
ियो 3142
पौ@@ 3141
हवा 3139
निभाई 3137
रियाओं 3137
लोकसभा 3136
रहालय 3131
चलने 3130
दौर 3130
तेजी 3127
२०@@ 3126
निकल 3123
नित 3122
वानों 3122
अध@@ 3121
झु@@ 3121
थक 3120
यप 3119
कुं@@ 3117
बल@@ 3117
रिम 3117
देशित 3115
विजेता 3113
शंकर 3112
कैरियर 3109
सभ 3109
रोमन 3108
रूसी 3104
सिल 3103
1980 3102
कैसे 3101
मुझे 3101
राजवंश 3100
शकों 3099
सह 3099
गण@@ 3094
सतह 3092
षात 3091
भित 3089
ॉन 3087
भाव@@ 3086
विरुद 3086
भूत 3085
अश 3084
पहुंच 3084
राक 3084
याग 3079
विचारों 3079
माला 3076
अलीगढ 3075
दि 3074
यूक 3073
1999 3068
तकनीकी 3066
सेवाओं 3061
षत 3058
भेजा 3057
छु@@ 3056
s 3055
सोवियत 3055
बेस 3045
मर@@ 3045
रख@@ 3045
रखता 3045
॥ 3045
देखते 3042
चट 3041
चिह 3041
दिवस 3041
भुगतान 3040
उपाधि 3038
वेंटी 3036
यावसायिक 3035
29 3032
कोश 3027
घू@@ 3024
रजा@@ 3022
शांति 3019
कथा@@ 3017
नैनीताल 3014
31 3009
डै@@ 3005
जोखिम 3004
देवता 3001
पसंद 3001
एशियाई 2999
चतुर 2998
देशन 2998
दौरे 2998
आये 2996
तिब 2995
रियल 2993
लंबी 2992
इब 2989
रवृत 2989
लत 2989
यमंत 2988
जग@@ 2987
पुराण 2986
वातावरण 2984
सरल 2984
डॉक 2981
0@@ 2980
उचित 2979
सचिव 2979
टने 2977
रभावी 2976
विशेषज 2975
अंततः 2973
तार@@ 2973
लैक 2972
नेवाले 2970
संभावना 2970
धातु 2967
हन 2967
दौ@@ 2965
जलवायु 2963
तिष 2962
डिया 2959
हरा@@ 2959
जिसमे 2958
लीय 2958
करेगा 2957
थिर 2955
नियमों 2955
कोलकाता 2952
ः@@ 2950
वाह 2950
करी 2949
कण 2944
टीमों 2942
इंस 2940
चय 2940
डों 2939
अंग@@ 2938
रोजन 2938
कॉन 2934
कास 2933
लैण 2933
लती 2932
पत@@ 2928
यटन 2928
चलते 2927
जेम 2926
यूजीलैंड 2925
गवर 2922
मंग@@ 2918
जापानी 2914
टिव 2914
मेर 2911
नार@@ 2909
1998 2908
मोहम 2907
इकाई 2903
गतिविधियों 2902
हज 2900
हड 2900
१५@@ 2900
पद@@ 2899
दिखा@@ 2895
13@@ 2893
कट@@ 2893
०० 2892
हाइ@@ 2890
कंपनियों 2889
यकाल 2889
कू 2885
घे@@ 2885
ङ 2885
चार@@ 2881
जीव@@ 2881
रमाण 2881
गद 2880
मानना 2875
formula 2874
इंडियन 2874
जस 2871
शैक 2870
हिल 2870
चैम 2869
रस@@ 2869
दबाव 2868
वोल 2867
मजबूत 2866
अल@@ 2865
करा 2862
H@@ 2860
सारी 2860
नर@@ 2858
शत 2857
फैसला 2856
रिप 2856
पैमाने 2854
यौगिक 2854
कराया 2853
गति@@ 2853
टेलीविजन 2852
लाना 2852
वाहन 2851
ञ@@ 2849
दोलन 2848
बना@@ 2848
गान 2847
फू@@ 2845
कैंसर 2844
ियाई 2839
दीक 2836
पुराना 2835
खाड 2834
उपयोगकर 2828
शायद 2825
नुसार 2823
शाह@@ 2822
दै@@ 2819
रॉक 2819
सीरीज 2819
३० 2816
थियों 2815
वरी 2815
चयन 2810
कां@@ 2808
रेजों 2807
आरोप 2806
करे 2804
भा 2799
यूयॉर 2798
i 2795
उनको 2795
यर@@ 2794
सीजन 2794
P@@ 2792
परिवहन 2791
यालयों 2789
हाई 2788
हमें 2787
बुल 2783
मोबाइल 2782
यूनाइटेड 2782
रसारण 2780
अना@@ 2779
मेश 2779
वनि 2777
विशेषता 2773
ठे 2772
भो@@ 2772
आवाज 2771
फुट 2771
यूनिवर 2770
नं@@ 2768
हास 2767
तन@@ 2766
14@@ 2765
लपुर 2765
उपयुक 2756
जंक 2756
टेडियम 2755
१५ 2755
जानी 2754
डाला 2754
भूषण 2754
मतलब 2752
पोस 2750
हूँ 2748
रदाय 2747
सत@@ 2743
सिया 2743
शिकार 2742
निवासी 2739
मानसिक 2739
असम 2738
कट 2738
वेब 2738
मेरे 2736
B@@ 2730
बई 2726
भार@@ 2723
गृह 2722
खेती 2720
ढंग 2719
रदा@@ 2719
रोल 2717
विशेष@@ 2717
यें 2716
रूपों 2716
सीज 2711
रसा@@ 2710
सैनिकों 2709
रव@@ 2708
° 2706
निदेशक 2706
बाह 2706
पुरानी 2704
लभ 2704
बॉक 2703
60 2701
किल 2700
बहन 2700
अति@@ 2699
रपुर 2699
आप@@ 2698
संभा@@ 2698
१६@@ 2698
वारी 2690
इंटरनेट 2689
उज 2688
सस 2687
तीसरी 2686
नज@@ 2686
मिंग 2685
लीन 2685
शुल 2684
जुन 2682
रॉफी 2682
यं@@ 2681
सित 2678
तू 2676
अनुप 2675
गईं 2673
ञापन 2673
राफ 2673
ुक 2673
कृतियों 2672
णु@@ 2672
रखी 2671
मैक@@ 2667
ताएं 2664
रवाह 2663
विविध 2662
उष 2661
टरी 2661
जगत 2657
जिक 2655
ियम 2655
ईरान 2653
ावा 2652
गुज@@ 2651
वैदिक 2651
रफल 2650
इंटर@@ 2648
गूगल 2648
यकर 2647
1996 2643
बिंदु 2643
मज 2643
लकड 2640
सुंदर 2639
संसार 2638
थशास 2635
समझ 2635
तरण 2634
पाद@@ 2632
यव@@ 2631
पेक 2630
शिल 2629
M@@ 2627
आपूर 2626
कियों 2624
जातियों 2624
वली 2623
हरी 2623
बनिक 2622
गिर@@ 2618
चुने 2618
नही 2618
१२ 2618
निधन 2616
गिर 2615
लेना 2615
पाइ@@ 2614
बिजली 2614
णि@@ 2612
जीन 2609
षकों 2609
वामित 2608
पाल@@ 2607
कहना 2604
उठा@@ 2603
परिभाषित 2603
विदेश 2602
हरियाणा 2602
मिर 2601
गिरफ 2599
नॉर 2599
आय 2598
अनंतपुर 2595
खेले 2592
लघु 2592
इटली 2591
रसार 2591
संधि 2591
चम 2590
पशु 2587
कहा@@ 2585
बिया 2585
लखनऊ 2585
गणराज 2583
योग@@ 2583
सौ 2581
षियों 2580
T@@ 2579
हजार 2579
रुखाबाद 2578
अपराध 2577
बीमारी 2574
तने 2569
टता 2567
1970 2564
रशा@@ 2564
पें@@ 2562
भर@@ 2555
A 2554
मृति 2553
कानूनी 2551
दिये 2550
बाबा 2550
रेशन 2550
C@@ 2549
आसानी 2548
सल@@ 2548
महाभारत 2543
उपा@@ 2540
लिमिटेड 2539
कहलाता 2537
निका@@ 2537
बैठ@@ 2537
वु@@ 2537
कारणों 2536
12@@ 2534
पट@@ 2534
पीढ 2534
अनिवार 2532
आंतरिक 2531
ारि@@ 2531
धारी 2530
आंकड 2527
पौड 2527
रज@@ 2526
साबित 2526
आयरलैंड 2525
परा 2524
is 2523
नेताओं 2522
टेल 2521
नव 2520
1997 2519
टिप 2518
खास 2517
राग 2517
टरों 2516
हृदय 2516
अवार 2515
एयर 2515
नौ 2515
रीकी 2513
तय 2511
देकर 2509
षिप 2508
वितरण 2507
उपग 2506
दीर 2505
x 2504
गल@@ 2504
मिशन 2504
सफ 2504
जोर 2502
महाराजा 2502
याम 2502
चारण 2499
पीठ 2499
चौड 2497
जनों 2497
जहा@@ 2497
धता 2496
G@@ 2495
वानी 2495
एड 2493
फार 2490
सदर 2488
वोत 2487
गुणवत 2486
हैदराबाद 2484
डेटा 2483
एकत 2482
कठिन 2480
जमीन 2480
निगम 2479
दिवसीय 2478
होटल 2477
रीक 2475
मो 2474
नुकसान 2472
काशी 2471
रोस 2471
सो 2471
अस@@ 2469
अभिव 2468
गाड 2466
समझा 2465
रियन 2464
जाकर 2463
पहुँच 2461
रसन 2461
शिया 2460
हिं@@ 2460
बचपन 2457
लान 2456
1@@ 2455
यानी 2450
E@@ 2449
रीज 2448
लिख@@ 2448
महसूस 2447
आपको 2446
नंबर 2446
साफ 2446
09 2445
दें 2444
परे@@ 2444
The 2442
ऋषि 2442
तिशाली 2442
राल 2442
संज 2441
रोकने 2438
चना 2437
बैक 2433
किरदार 2432
धु 2422
वनडे 2422
मनाया 2419
रंथों 2417
साम@@ 2417
बहा@@ 2415
दारी 2414
रचनाओं 2414
वनस 2414
कोरिया 2412
चाहता 2412
रेय 2411
रेलियाई 2410
मज@@ 2409
बारी 2408
तीनों 2407
कमा@@ 2405
मेह@@ 2401
मुगल 2400
रियता 2399
ऊंचाई 2398
पंक 2397
हमले 2397
वाणी 2395
जय 2392
लॉक 2392
पनी 2391
नियो@@ 2388
सेंटर 2388
विवा@@ 2385
साथी 2384
आनंद 2383
साधन 2382
अ 2381
काओं 2381
वां@@ 2381
चं@@ 2379
ारण 2378
फीट 2377
मुश 2377
खेलने 2375
राजाओं 2374
1992 2370
में@@ 2370
घरों 2368
इंजीनियरिंग 2367
तारों 2366
उपज 2363
जहाज 2363
डार 2362
पुरा@@ 2362
सुर 2362
जक 2360
दिख@@ 2360
चला@@ 2359
तृतीय 2359
यिकी 2358
१०@@ 2358
गीकरण 2356
अनुपात 2355
कने 2355
जयपुर 2355
समृद 2354
ाया 2353
धारावाहिक 2352
कोल 2351
— 2351
पादों 2350
मल@@ 2350
होंगे 2349
अहमद 2347
रायगढ 2345
छेद 2344
दुओं 2344
लु 2344
रीष 2343
दूध 2342
मुख@@ 2340
रॉनिक 2337
तारे 2336
रीट 2336
कैम@@ 2335
जिनकी 2335
चूंकि 2334
बाँ@@ 2333
टुकड 2332
डेल 2331
तता 2331
नूलु 2331
D@@ 2330
षता 2330
1994 2329
रोगी 2329
200 2328
यानि 2327
मंच 2326
बंगाली 2325
रय 2325
जरूरत 2324
रसारित 2324
बनाये 2322
गुण@@ 2321
जरी 2321
आउट 2318
मिलाकर 2318
कोण 2317
गायक 2317
ठित 2317
डाइ@@ 2317
खत 2316
तुरंत 2315
किला 2313
अफ@@ 2312
तभी 2312
1960 2311
पांड@@ 2311
खाना 2310
इलाज 2309
भौगोलिक 2309
-- 2308
उन@@ 2307
रिन 2307
गणना 2306
पियनशिप 2306
जाया 2305
रीमियर 2305
रचना@@ 2304
चिं@@ 2303
जातीय 2302
धू@@ 2300
अंड@@ 2299
चीज 2299
हार@@ 2296
मेरी 2295
ोन 2293
गण 2292
जार 2292
मिन 2292
रुचि 2292
1991 2291
गुज 2290
भूगोल 2289
I@@ 2288
औपचारिक 2280
ताएँ 2280
जनसांख 2279
जिल 2279
तया 2279
रवरी 2278
णीय 2276
काफ 2274
काली 2274
1995 2273
कुर 2273
पान 2272
टोन 2270
भागलपुर 2270
हाथों 2270
रगति 2269
एयर@@ 2268
नौज 2268
गुड 2265
कदम 2264
संपूर 2264
अधिकतम 2262
आध 2262
भाषाएँ 2262
संबद 2261
1993 2260
कलाकारों 2260
ऑर 2259
बोल 2259
रतिनिधि 2258
कोशिकाओं 2257
दीप 2255
गू@@ 2254
रग 2254
सौर 2253
हरे 2253
डू@@ 2251
उपकरणों 2247
करेंगे 2247
हाट 2247
रहित 2242
सिनेमा 2241
अपना@@ 2238
तीसरा 2237
बदलाव 2237
70 2236
छे@@ 2235
तनी 2235
माल@@ 2235
उपयोगी 2232
बीज 2232
धक 2231
महाविद 2231
80 2230
रती 2230
गेंद 2228
बाकी 2228
नाल 2227
पौधों 2226
मिल@@ 2226
35 2225
नाट 2223
वात 2222
रांसीसी 2221
A@@ 2219
मारक 2217
देवताओं 2216
शू@@ 2215
आदमी 2213
पंचायत 2211
भै@@ 2211
केश 2209
परिभाषा 2207
कालिक 2206
जात 2206
पाय@@ 2206
ेन 2206
,००० 2205
फूल 2205
यूनि@@ 2205
निरा@@ 2201
मराठी 2200
ऊँचाई 2198
दार@@ 2197
घाटन 2196
बनाकर 2196
रेरणा 2195
समझने 2195
मय 2193
हॉल 2193
बनाता 2192
माह 2192
नाग 2191
20@@ 2189
नाक 2189
योज@@ 2188
हिमालय 2188
अति 2187
इट 2185
इण 2184
कह 2182
लिका 2181
लॉन 2181
अवधारणा 2180
रहस 2180
शुरुआती 2177
निहित 2176
समु@@ 2176
मद@@ 2174
२५ 2174
टूडियो 2173
अंश 2172
वेत 2171
जॉ@@ 2170
धन@@ 2167
सफेद 2167
डिजिटल 2165
वायरस 2165
हटा 2165
इमारत 2162
जीतने 2162
रीम 2162
थु@@ 2161
लौट 2159
हिंसा 2159
घं@@ 2155
थानांतरित 2155
सीट 2155
दृढ 2154
दैनिक 2154
नग@@ 2154
पन@@ 2154
मुसलमानों 2154
बनाते 2152
मारे 2152
तना 2150
रुक 2150
मचारियों 2148
जटिल 2147
फलस 2147
शस 2146
किंगडम 2145
षे@@ 2145
रॉयल 2144
सरस 2143
महे@@ 2142
यौन 2141
लिखने 2141
तीं 2140
500 2138
S@@ 2138
पेशेवर 2137
रशंसा 2137
सद 2137
इम 2136
पू 2136
बस@@ 2134
बाग 2134
यल 2134
झू@@ 2133
अधिकारों 2132
मोटर 2132
याल 2132
रभा@@ 2131
इंटरनेशनल 2130
पुन 2130
उपभोक 2129
एलि@@ 2128
संबंधों 2128
ंडे@@ 2126
आदि@@ 2126
११ 2126
आयुर 2125
कित 2125
परस 2125
यातायात 2125
कोशिका 2120
पोषण 2120
हीन 2119
कच 2118
शन@@ 2118
चुनावों 2116
लट 2116
गां@@ 2115
तांत 2115
महात 2115
१९३@@ 2115
ंगों 2114
रसायन 2113
षाकृत 2113
सवीं 2113
फैला 2112
रूप@@ 2112
सक@@ 2111
रतीत 2108
टेन 2107
यकारी 2107
घात 2103
मचारी 2102
सज 2102
डेन 2101
अमरीका 2100
अला@@ 2100
खो 2100
पेस 2100
शराब 2099
शृंखला 2099
ोड 2099
कह@@ 2098
डाल 2098
PM 2097
उभ@@ 2097
एव@@ 2097
इलाकों 2095
अपरा@@ 2094
उ 2094
कौशल 2094
जीवनी 2094
५० 2094
सुपर 2093
डेविड 2092
लाइट 2091
घोड 2090
करी@@ 2087
काउंटी 2087
नील 2087
डोर 2085
लंबाई 2085
45 2084
अशोक 2084
रष 2083
नवा@@ 2082
राजनैतिक 2080
याण 2077
चम@@ 2073
तह@@ 2070
पंजाबी 2070
१४ 2070
नक@@ 2069
हूं 2069
अमेरिकन 2068
कोच 2067
शीलता 2067
ऍ@@ 2065
झ 2065
इतनी 2063
सलाह 2062
होम 2061
रखना 2060
ठभूमि 2059
पृथक 2059
अभाव 2058
संगठनों 2058
ठोस 2056
नड 2056
बंदी 2055
पौराणिक 2054
बनता 2054
शे 2052
कराने 2050
तिरु@@ 2050
षरता 2048
समीप 2047
मशीन 2046
विधा@@ 2046
खेत 2045
गेट 2045
सेस 2044
90 2043
अरु@@ 2043
संहिता 2043
वरों 2040
ऋण 2039
यपाल 2039
शौ@@ 2038
जब@@ 2037
पादित 2036
समानता 2036
शां@@ 2035
आविष 2034
मेदार 2034
चलती 2033
लगती 2033
मिथ 2030
लेखों 2030
दाता 2029
साह@@ 2028
ऊपरी 2027
तल@@ 2026
बनाना 2025
महाद 2025
रथ 2023
रोटीन 2023
सूच@@ 2023
तां@@ 2022
रोफेसर 2022
यिका 2020
सुबह 2015
रशं@@ 2014
बास 2012
वचा 2012
शाला 2011
गलत 2010
जंगल 2010
रांड 2010
हान 2010
रर 2009
रणी 2008
रेगोरी 2007
बसा 2006
वतन 2006
किताब 2005
यांकन 2005
भाग@@ 2004
काले 2001
विवे@@ 2001
माइकल 1999
ंगल 1998
मेक 1998
कॉम 1997
बरी 1997
माया 1996
रेंच 1996
२१ 1996
खे 1995
जमा 1995
नेत 1995
विरासत 1995
बॉलीवुड 1994
वाचित 1994
इंच 1993
पहुंचती 1993
शनिक 1993
सन@@ 1993
मठ 1992
सकारात 1991
नये 1990
पंडित 1990
टेज 1989
तकालय 1989
दूत 1989
राजनीतिज 1989
खरी@@ 1988
सुनिश 1987
यार@@ 1986
रमशः 1986
C 1985
अभ@@ 1985
समाधान 1985
माउ@@ 1984
रुप@@ 1984
लिश 1984
षि 1984
समन 1984
सुझाव 1984
भूमि@@ 1983
शिखर 1980
अलं@@ 1979
नदियों 1979
पिंग 1979
मिया 1979
वैसे 1979
N@@ 1974
जीवों 1974
नाम@@ 1973
दवा 1972
बेन 1972
लेती 1972
ौ 1971
मीद 1969
जवाब 1968
थी@@ 1966
बायो@@ 1966
मेला 1965
वत@@ 1964
शायर 1964
टिल 1963
रोध 1963
जिंग 1962
टॉक 1962
रुपये 1962
एसोसिएशन 1960
शह@@ 1958
नेवाली 1957
शून 1957
निकाला 1956
तौ@@ 1953
बंग@@ 1953
कंप@@ 1952
सका 1952
चि 1951
टकर 1951
देखी 1951
1989 1950
२४ 1947
फील 1946
ठों 1944
थलों 1944
साध@@ 1944
सीन 1944
राउंड 1943
वयस 1943
रजातियों 1942
संभावित 1942
विंग 1941
यम@@ 1940
रेम@@ 1939
हिर 1938
करवाया 1937
बुक 1937
जीवन@@ 1936
नवी@@ 1936
रखण 1936
तिथि 1935
कैलंडर 1934
गुणों 1933
शीघ 1933
बीमा 1931
बो 1931
मंदिरों 1931
सात@@ 1931
मोह@@ 1930
अकबर 1929
केशन 1929
टेनिस 1929
नतम 1929
amp 1927
मना 1927
समझौते 1927
मानों 1926
पारी 1924
शेयर 1924
१६ 1924
थाई 1923
देखकर 1923
वाय@@ 1923
सुप 1923
1950 1922
संकट 1922
थि 1921
एप 1918
बक 1918
ऑन 1917
चाहे 1917
ईट 1916
कथित 1916
रणा@@ 1916
सियों 1916
यूरो@@ 1915
सालों 1915
R@@ 1914
पुट 1914
वरिष 1914
कुल@@ 1912
गुना 1912
विलय 1911
किम 1910
१८ 1910
W@@ 1909
मगध 1909
याव@@ 1909
संवेद@@ 1909
कुत 1907
कैम 1907
नाएं 1907
रें 1906
वाज 1906
कौन 1905
यथा 1905
चालक 1904
यहीं 1904
रेखांश 1903
लह@@ 1902
वंद 1902
साइट 1902
खराब 1900
विच 1900
लाभ@@ 1899
षु@@ 1899
ंत@@ 1898
लोर 1898
सफ@@ 1898
चुम 1897
पौधे 1897
लेखकों 1897
जीते 1895
लॉजी 1894
सिख 1894
ऑनलाइन 1893
खेलते 1893
ञानिकों 1893
मालिक 1893
संग@@ 1893
जाये 1891
बाल@@ 1891
रेखा@@ 1891
दोष 1890
नोट 1890
रभु 1889
हू@@ 1889
होल 1889
कहता 1888
ेश 1888
ठाकुर 1886
२०११ 1886
पांच@@ 1885
बदले 1885
बैठक 1885
एट 1884
निरंतर 1883
मत@@ 1883
चौधरी 1882
लाहौर 1882
आंध 1881
रखे 1881
सास 1881
इड 1876
ऐल 1876
गोस 1875
संसाधन 1875
सकें 1875
15@@ 1874
कारियों 1874
महि@@ 1874
वाँ 1873
हुये 1873
बाब 1872
तरित 1869
धांतों 1869
सांसद 1869
तृ@@ 1867
दंड 1867
32 1866
यहूदी 1865
ا@@ 1864
टैक 1864
संदेश 1864
देन 1863
यूब 1863
टेंट 1859
यापारिक 1859
लगते 1858
आहार 1857
दौड 1855
बीसी 1855
शहरी 1855
इरा@@ 1854
कवर 1854
रचनात 1854
चोट 1853
राणी 1853
कॉल 1852
पारित 1851
यूनानी 1851
धारा@@ 1850
रहों 1850
लेबाज 1850
बुनियादी 1849
कलकत 1848
हेनरी 1848
दीवार 1847
छवि 1846
शॉ@@ 1846
नियन 1845
बिस 1844
जना 1843
जिलों 1843
थना 1843
विड 1842
भू 1840
तमिलनाडु 1839
मनोविज 1839
रोगों 1839
कोष 1838
जला@@ 1838
जैक 1838
कवि@@ 1837
१४@@ 1837
दायित 1836
देखभाल 1836
१३ 1836
डबल 1835
रॉस 1835
शुरूआत 1835
अनुबंध 1833
करणों 1833
संशोधन 1832
1947 1831
नैतिक 1831
रथा 1830
देख@@ 1828
जवा@@ 1826
संकल 1825
यंजन 1824
भूति 1823
याज 1823
यायाधीश 1823
यादव 1822
फिक 1821
२०१४ 1821
1986 1819
नौकरी 1819
पनिक 1819
बहादुर 1819
निकाल 1818
मती 1818
तुल 1817
नने 1817
कैथोलिक 1815
बेगूसराय 1814
यांत 1814
रिकी 1810
ारी@@ 1810
औरंगाबाद 1809
णुओं 1809
समकालीन 1809
रतिद 1807
हारी 1807
पने 1806
मनोरंजन 1806
संयोजन 1806
अज@@ 1805
दय 1801
नामों 1801
बृ@@ 1800
राइट 1799
भाष 1798
सेवन 1798
निको@@ 1797
भव@@ 1797
राफी 1797
ऑफिस 1796
कोशि@@ 1796
ारो@@ 1796
गीतों 1795
रॉबर 1795
1988 1794
L@@ 1794
अष 1794
किसान 1794
इंद 1793
वेग 1793
यंग 1791
सुधार@@ 1790
तक@@ 1789
आपके 1788
रबंध 1787
१२@@ 1787
खू@@ 1786
राई 1785
गॉ@@ 1784
नमू@@ 1784
मांस 1784
देर 1783
ंश 1782
चालन 1782
रयासों 1782
योजन 1781
धरती 1780
हजारों 1780
छूटती 1779
वरण 1779
नेहरू 1778
अफगानिस 1777
शासकों 1775
सिंगापुर 1775
1984 1774
नद@@ 1774
नेल 1774
बागेश 1774
रयत 1774
कुश 1773
याकरण 1772
बोस 1769
अपनाया 1768
शनल 1768
१९ 1768
ठि@@ 1764
विचार@@ 1764
बोध 1763
अदालत 1762
हिट 1761
पाण 1760
पीटर 1760
गुर 1759
यय 1759
शाली 1758
संभ@@ 1757
पेश@@ 1756
ंडों 1755
दूर@@ 1755
निदान 1754
मानव@@ 1754
रताप 1754
एंटी@@ 1753
कॉटलैंड 1752
राजपूत 1751
लव 1751
तकें 1750
शाम 1750
बू 1749
चेस 1748
पुणे 1748
ौली 1748
बालक 1747
मीन 1746
षाओं 1746
जैव 1743
निया@@ 1743
D 1742
खै@@ 1742
दश@@ 1742
पैरा@@ 1740
वेबसाइट 1740
षणिक 1740
कीमत 1739
राजकुमार 1739
भौतिकी 1738
कैप 1737
मैन@@ 1737
हल@@ 1735
टाई 1734
निन 1734
टीन 1733
दिष 1733
रवाई 1733
वाही 1733
हिमाचल 1732
ंती 1731
नवीन 1731
नियां 1729
पादक 1729
विविधता 1728
मुर 1727
मौजूदा 1727
पदों 1726
* 1725
तरीय 1725
भद 1725
भरी 1724
सिम 1723
अवश 1722
मकालीन 1722
कमाई 1721
तनाव 1721
यरत 1721
1.@@ 1720
वापसी 1720
फेस 1719
बचाने 1719
लोन 1719
नंद 1718
रुव 1718
वैकल 1717
गिल 1716
रोगियों 1716
असफल 1715
१७ 1715
रामायण 1714
उद@@ 1713
पहुंचा 1713
पैर 1713
आरो@@ 1712
निवे@@ 1712
जनजाति 1711
चमोली 1709
नास 1709
निवासियों 1709
रतिमा 1709
विध@@ 1709
वेट 1709
सेवाएं 1709
1985 1707
आकाश 1706
पुन@@ 1706
V@@ 1705
आवृत 1705
करार 1705
भास 1705
हुसैन 1705
चाल 1703
रहे@@ 1703
सामूहिक 1702
डिवीजन 1701
रभावशाली 1701
रामा@@ 1701
सॉ@@ 1701
पाठ@@ 1700
योजित 1700
आजकल 1699
अनुकूल 1698
कठोर 1698
बनाती 1698
135 1697
AM 1697
पसंख 1696
सुविधाओं 1696
इसको 1695
पेरिस 1695
बिता@@ 1695
काई 1694
जैविक 1694
पस 1693
रोटो@@ 1693
लिं@@ 1693
औष@@ 1691
गोली 1691
तकर 1691
रहना 1691
समी@@ 1691
br 1690
अनुरूप 1690
जुर 1690
लिप 1688
हज@@ 1688
• 1687
करनी 1686
जाम 1686
अनुक 1684
वादियों 1683
वुड 1683
ढू@@ 1682
चालित 1681
पतन 1681
बंदरगाह 1681
बारा 1681
सजा 1681
तराधिकारी 1680
संघीय 1678
ाइन 1677
कोस 1676
गृ@@ 1675
तरल 1675
रैंक 1675
नकर 1673
खिताब 1672
तरों 1672
मानु@@ 1672
पौडी 1671
रमित 1671
विपणन 1671
खाते 1670
दरबार 1669
M 1668
केल 1668
बेहद 1667
फाय@@ 1666
1987 1665
चतम 1665
घटक 1664
बताते 1664
मि 1664
वास@@ 1664
रबन 1662
संभवतः 1662
हमारी 1661
आग@@ 1660
खोला 1660
डस 1660
मूल@@ 1660
ॉ 1660
फाई 1659
वें@@ 1659
ंचा@@ 1658
मछली 1657
याया@@ 1657
वि 1657
ोल 1657
1962 1656
देखे 1656
षय 1656
1971 1655
O@@ 1654
तप 1654
उपजिला 1653
काएँ 1653
मौलिक 1653
वजन 1653
आवास 1652
सकों 1652
आंशिक 1651
शुरु 1651
ओवर 1650
नियाँ 1649
पॉल 1649
तथापि 1648
बरा 1648
मुम 1646
रने 1646
वच 1646
0.@@ 1645
मंगल 1645
रीति 1645
वाहि@@ 1645
संके@@ 1645
बचा@@ 1644
संसदीय 1644
बचाव 1643
मेरा 1643
टिया 1642
दशा 1642
b@@ 1641
शिय@@ 1641
दरवा@@ 1640
T 1639
जिस@@ 1639
लाओं 1639
समझौता 1639
राहक 1637
शासनकाल 1637
बिलियन 1636
मेडिकल 1636
सहा@@ 1636
सीमा@@ 1636
२२ 1636
तुल@@ 1634
वट 1634
डियो@@ 1633
पहुंच@@ 1633
नीत 1632
मजबूर 1632
लोगो 1632
शतक 1632
दिग 1631
पुरम 1630
1972 1627
75 1626
1967 1625
यथार 1625
जेन 1623
शरी@@ 1623
सांख 1623
२०१० 1623
J@@ 1622
नरी 1622
मारा 1622
टाचार 1621
आगमन 1620
बातचीत 1620
राजनेता 1620
आपने 1619
मोन 1619
रहीं 1619
नयी 1618
बांध 1618
हेल 1618
अधिग 1617
तुकला 1617
रियासत 1617
सेज 1617
डिक 1616
बाइ@@ 1616
मारने 1616
सें 1616
चलाने 1615
वाना 1615
कथाओं 1614
टार@@ 1613
मुताबिक 1613
सोने 1613
जानते 1612
कहानियों 1611
गार@@ 1611
डीज 1611
दपुर 1611
पिन 1611
भीड 1611
विचारधारा 1611
अनि@@ 1610
मपुर 1610
लिप@@ 1610
बिल@@ 1609
n 1608
जानवरों 1608
नाय@@ 1608
यटक 1608
रजनन 1608
लैटिन 1608
रयोगों 1607
पंचा@@ 1606
मनोवैज 1605
1952 1604
उठ@@ 1604
रिं@@ 1603
बंध 1602
१३@@ 1602
लॉस 1601
हौ@@ 1601
धारणा 1600
B 1598
महीनों 1597
माध@@ 1597
देशी 1596
बदला 1596
ऊष 1595
घायल 1595
योगों 1595
गाया 1594
ंगु@@ 1591
कागज 1591
चौथे 1591
ओपन 1590
मूत 1590
F@@ 1589
आध@@ 1589
सहयोगी 1588
ुदा 1588
36 1587
जू 1587
रोजगार 1587
लंबा 1586
राण 1584
गिनी 1583
मौखिक 1583
हानि 1583
विशेषकर 1582
२००९ 1582
मिनल 1580
जिन@@ 1579
नेश 1579
पटकथा 1578
रारूप 1577
बौ@@ 1575
रामक 1575
अमरीकी 1574
नशील 1574
फारसी 1574
शेर 1574
उदाह@@ 1572
संपादक 1572
तिम 1571
रतिबंध 1571
लव@@ 1571
लोड 1571
नां@@ 1569
कलन 1568
रतिभा 1568
रेंस 1568
अदिलाबादु 1567
पीय 1567
डिय@@ 1566
हनुमान 1566
# 1564
300 1564
घि@@ 1563
मलयालम 1563
आपस 1562
ऑपरे@@ 1562
णिक 1560
वेयर 1560
रावण 1559
विजय@@ 1559
नागरिकों 1558
संयंत 1557
कमल 1555
शनों 1555
लाइव 1554
बदलने 1553
बचने 1552
रब 1552
p@@ 1551
टेली@@ 1551
बरा@@ 1551
रयाग 1551
गठबंधन 1549
टाउन 1549
अंत@@ 1548
इतने 1548
सरदार 1548
बान 1547
रशांत 1547
उदय 1546
भरा 1546
राहकों 1546
साई 1546
हट 1546
कवियों 1545
कुशल 1545
गामी 1545
समेत 1545
चेतना 1544
टोरिया 1543
मणि 1543
रमिक 1542
पेशकश 1541
तरीकों 1537
रपात 1537
विट 1537
वेद@@ 1537
कारा@@ 1536
चावल 1536
कव@@ 1535
महादेव 1535
रिचर 1535
2.@@ 1534
मुं@@ 1534
गोवा 1533
महर 1532
उपनाम 1531
तनों 1531
सुविधा@@ 1531
एण 1530
भागीदारी 1530
यां 1530
दिव 1529
हिम 1529
L 1528
काएं 1528
मशी@@ 1528
मुसलमान 1528
सुपर@@ 1528
णता 1527
पिल 1527
किसानों 1526
सौंप@@ 1526
धाम 1525
ईंधन 1524
एकीकृत 1524
लनों 1524
55 1523
on 1523
अंचल 1522
अवतार 1522
वय 1522
33 1521
जोकि 1521
ढाका 1521
नेवाला 1521
K@@ 1520
इनकार 1520
शम 1519
घड 1518
तपुर 1518
तावित 1518
वेज 1518
कोप 1517
नाएँ 1517
एडि@@ 1516
थापन 1516
रिड 1516
हुईं 1515
किट 1514
गेंदबाज 1514
ताज 1514
दारों 1514
रेल@@ 1514
वंशज 1514
सारा 1514
00@@ 1513
1977 1513
1982 1513
भेज 1513
टें 1512
ंगे@@ 1511
गहराई 1511
फसल 1511
मशहूर 1511
मता 1509
पहुंचने 1508
दूसरों 1507
मलेशिया 1507
रयो@@ 1507
लेख@@ 1507
वयं@@ 1507
ियाना 1507
इतिहासकार 1506
इलाके 1506
टेन@@ 1506
पशुओं 1506
मानवीय 1506
अमीर 1505
आखिरी 1504
ऑल 1504
शोषण 1504
घनत 1503
बलों 1503
उपाध 1502
संपन 1502
ील 1501
ओड 1500
ञान@@ 1500
परंपरागत 1500
तज 1498
बेथ 1498
विपक 1498
नमक 1497
नू 1497
रें@@ 1497
बीस 1496
आउट@@ 1495
ईं 1495
ॆ@@ 1495
नति 1494
सुल@@ 1494
जाय 1493
रजाति 1493
रोतों 1493
N 1492
ंगर 1492
गज 1492
पाता 1492
संगम 1492
सेवानिवृत 1492
जलि 1491
मैंने 1491
गठित 1490
लेज 1490
शासित 1490
उपर 1489
भाषण 1489
रणालियों 1488
दुष 1487
वालीफायर 1487
नेपाली 1486
वाराणसी 1486
गीकृत 1485
जाएगी 1485
जोधपुर 1485
जोन 1485
ठान 1485
जं@@ 1484
धे@@ 1484
यवाद 1484
लाल@@ 1484
S 1483
साझा 1483
ऐ 1482
007@@ 1481
यावहारिक 1481
वीपों 1481
नाओं 1479
रीस 1479
सोम@@ 1478
खुले 1477
पराजित 1477
पाते 1477
रोन 1477
कडप 1476
दाब 1476
सूरज 1476
चौथी 1475
जंगली 1475
यक@@ 1475
उसको 1474
चाहिये 1474
जितना 1474
परिवारों 1474
काला 1473
गीता 1473
यटकों 1473
विकार 1473
काश 1472
जनपद 1470
महाकाव 1469
आशा 1468
एजे@@ 1468
गतिविधि 1468
as 1467
बाज@@ 1467
गरीब 1466
राजन@@ 1466
टॉप 1465
रेड@@ 1465
बिग 1463
मला 1463
खें 1462
णात 1462
तुति 1462
बारह 1462
तरीका 1461
बताता 1461
रवि@@ 1461
परत 1460
सवाल 1460
झा 1458
संगत 1458
रेख 1457
परामर 1456
आदिवासी 1455
कमजोर 1455
संघ@@ 1454
अगली 1453
शाक 1453
दाद 1452
पाली 1452
बाढ 1452
डम 1451
गदर 1450
भारती 1450
वचन 1450
दण 1449
विमानक 1449
अखिल 1448
लेयर 1448
साय@@ 1447
णक 1446
दवाओं 1446
विं@@ 1446
२३ 1446
निज 1445
साँ@@ 1445
1975 1444
पिस 1443
बैंग@@ 1442
पणी 1441
मेजबानी 1441
नामकरण 1440
यौ@@ 1440
समीकरण 1440
हाथी 1440
.. 1439
or 1439
अमर 1439
उस@@ 1439
फोट 1439
खी@@ 1438
गाँ@@ 1438
चैंपियनशिप 1437
वॉल 1437
गणेश 1436
एजेंसी 1435
दाय@@ 1435
यमिक 1435
राइल 1435
वड 1435
खींच@@ 1434
बहती 1434
यवसा@@ 1434
अभिया@@ 1433
बेटा 1433
००० 1432
चलाया 1431
सिंह@@ 1431
पहचा@@ 1430
पहुँच@@ 1430
आरंभिक 1429
धम@@ 1429
बिट 1429
मरा@@ 1429
सहज 1429
आसान 1428
सृष 1428
रियो 1427
डियन 1424
रमुख@@ 1424
संगीतकार 1424
लेश 1423
यापारी 1422
विंडोज 1422
हं@@ 1421
1973 1420
चुनौती 1420
रखती 1420
1979 1419
भावनाओं 1419
अनू@@ 1418
राओं 1418
अंतर@@ 1416
इला@@ 1416
इसीलिए 1416
उपाय 1416
झारखंड 1416
लियम 1416
हाइट 1416
खतरा 1415
नीतियों 1415
मने 1415
कठ@@ 1414
कारा 1414
नाडु 1414
यताओं 1414
रसू@@ 1414
आलोचकों 1413
लुक 1413
शांत 1413
सैण 1413
कहने 1412
खर@@ 1412
बाजी 1412
हटा@@ 1412
1948 1411
डाक 1411
पब 1411
मगर 1411
अनुरोध 1410
टाइप 1410
डू 1410
वायत 1410
कुम 1409
ीकरण 1409
२६ 1409
कैलिफोर 1407
हक 1407
आना 1406
ञों 1406
शीतकालीन 1406
साव@@ 1406
कोटा 1405
गिरजाघर 1405
पैसे 1405
समग 1405
कुण 1404
मुंगेर 1404
राणा 1404
सरे 1404
ऋतु 1403
तापूर 1403
सूचीबद 1403
२००८ 1403
सदन 1402
२७ 1402
लिंक 1401
सिको 1401
४० 1401
दगी 1400
यूनतम 1400
लिखते 1399
रतिरोध 1398
वादक 1397
खरीद 1396
पला@@ 1395
किशोर 1394
कूलों 1394
घिरा 1394
छः 1394
जाए@@ 1394
किं@@ 1392
जमी@@ 1392
1930 1391
अयोध 1391
करो 1391
गिरावट 1391
चलकर 1391
चिंता 1391
धे 1391
किता@@ 1390
बोलने 1390
मानता 1390
समुदायों 1390
1983 1389
रफ 1389
वाहक 1389
1956 1388
फार@@ 1388
भोज@@ 1388
मैग 1388
सुख 1388
y@@ 1387
घा 1387
दुश 1387
अवशेष 1385
चाँ@@ 1384
टूट 1384
संदेह 1384
ंडे 1383
काट 1383
लियाँ 1383
हथियार 1383
जियम 1381
तपस 1381
तोष 1381
नजर 1380
पिथोरागढ 1380
अका@@ 1378
आनन 1378
बती 1378
आईटी 1377
इराक 1377
इसलिये 1377
दया@@ 1377
रूद 1377
भेड 1376
नकारात 1375
बिं@@ 1375
लगने 1375
अग@@ 1373
सुंद@@ 1373
34 1372
an 1372
मेदारी 1372
संपादित 1372
समि@@ 1372
सोसाइटी 1372
1957 1371
कटि@@ 1371
भाँति 1371
37 1370
लां@@ 1370
२८ 1370
पहुंचा@@ 1369
for 1368
याँ 1368
सहमति 1368
d 1367
उक 1367
वालियर 1367
शेख 1367
षांश 1367
वाभाविक 1366
आमंत 1365
ऑपरेशन 1365
गंगा@@ 1365
चरणों 1365
हारे 1365
१९०@@ 1365
मरण 1364
योतिष 1364
ऊंच@@ 1363
गतिशील 1363
शाब 1363
38 1362
कांक 1362
जौ@@ 1362
यूनियन 1362
रेटर 1360
विकिरण 1360
सहमत 1360
ारित 1360
कमरे 1359
बसे 1359
मासिक 1359
वाह@@ 1359
निकाय 1358
यकताओं 1358
यूरो 1358
वैद 1357
रूढ 1355
विर 1355
संगठित 1355
असामान 1354
गरी@@ 1354
मुल 1354
योद 1354
सलाहकार 1354
२०१३ 1354
E 1352
गाना 1352
बटा@@ 1352
ऊँचा 1351
संतुलन 1351
एकता 1350
गाय@@ 1349
डच 1349
विज@@ 1349
65 1348
कारकों 1348
पाती 1348
संसाधनों 1348
सीता 1347
ताई 1346
नौसेना 1345
बीन 1345
मोत 1345
दुस 1344
मुग 1344
रदेशों 1344
k@@ 1343
आधे 1343
गुफा 1343
निकालने 1343
खनिज 1342
मीदवार 1342
गुजराती 1341
विया 1341
कुन 1340
षति 1340
रिये 1339
आजादी 1338
खन 1338
रथ@@ 1338
रामपुर 1338
२००६ 1338
भोपाल 1337
रयोगशाला 1337
रिकाओं 1337
एडवर 1336
वैष 1336
.एस@@ 1335
नूर 1333
पुरु@@ 1333
मुनि 1333
ृ 1333
II 1331
आरक 1331
जीवी 1331
साहब 1331
विफल 1330
कु 1329
तैयारी 1329
वाष 1327
वीकृति 1327
संवाद 1327
अमीरात 1326
पो 1326
1978 1325
मथुरा 1325
वासियों 1325
हरण 1325
o 1324
उल@@ 1324
दोनो 1324
नवाब 1324
निगरानी 1324
फौ@@ 1324
रनाथ 1324
सेवा@@ 1323
1965 1322
निकलने 1321
गाँधी 1320
टीट 1320
बजट 1320
बुलाया 1320
माताओं 1320
रंगों 1320
शियम 1320
संशोधित 1320
पशु@@ 1319
1981 1318
आठ@@ 1317
टोक 1317
विशे@@ 1317
F 1316
धूम 1316
पियन 1316
कही 1315
टिकट 1315
मोक 1315
रहा@@ 1315
लियो@@ 1315
शुष 1315
जातियाँ 1314
नंद@@ 1314
निरीक 1314
फिया 1314
वासी 1314
सुना@@ 1314
जाल 1313
पायी 1313
कानपुर 1312
मौका 1312
शरण 1312
संवत 1312
कोरियाई 1311
छोर 1311
जाँच 1311
भय 1311
राची@@ 1311
सभा@@ 1311
1976 1310
सिविल 1310
हमने 1310
चाप 1309
नामांकन 1309
रेमी 1309
नीदरलैंड 1308
शती 1307
टोर 1305
दरा 1304
मेले 1304
मोदी 1304
लॉर 1304
केश@@ 1303
जेक 1303
लूम 1303
सबूत 1303
m 1302
अनुकू@@ 1302
रचनाएँ 1302
R 1301
डाटा 1301
ञानी 1300
यां@@ 1300
400 1299
लंघन 1299
अनुमानित 1298
टइंडीज 1297
गहरा 1296
मेगा@@ 1296
२००७ 1296
पुरातत 1295
शानदार 1294
52 1293
नती 1293
रीकरण 1293
पाये 1292
पोल 1292
बहुमत 1292
मिनी 1292
राणियों 1291
लाइसेंस 1291
रियर 1290
रिल 1290
विकास@@ 1290
संकलन 1290
d@@ 1289
आकृति 1289
पटेल 1289
महामारी 1289
यून 1289
1969 1288
1974 1288
फैल 1288
भुत 1288
राधा 1288
साग@@ 1288
रकारों 1287
काला@@ 1286
लाव 1286
वाओं 1286
हिंदुस 1286
ँग 1285
नगरों 1285
शाया 1285
48 1284
तावेज 1284
निशा@@ 1284
मिति 1284
वंशी 1284
अनुसरण 1283
दशकों 1283
मानचित 1283
सौंदर 1283
भूमिकाओं 1282
काने 1281
कृतियाँ 1281
कैं@@ 1281
टीका 1281
तेलुगु 1281
माप 1281
कॉमिक 1280
झी@@ 1280
बाड 1280
रॉय 1280
अनुष 1279
जिनसे 1279
लेट@@ 1279
बली 1278
गायन 1277
पाक 1277
भारत@@ 1277
मादा 1277
अकेले 1276
कें 1276
ारसी 1274
पावत 1273
पॉलि@@ 1273
पोरेशन 1273
एलबम 1272
गोर 1272
तंभ 1272
भुज 1270
वकील 1270
विशा@@ 1270
नगरीय 1269
हिक 1269
बनते 1268
विनो@@ 1268
होनी 1268
एथली@@ 1267
नोबेल 1267
शाता 1267
गरम 1266
गहरी 1266
नागरी 1266
निपट@@ 1266
मापन 1266
निचले 1265
बख 1265
सदा 1264
सीखने 1264
उठाया 1263
१.@@ 1263
यमुना 1262
यापन 1262
रियम 1262
लीप 1262
समझी 1262
सहारा 1262
टिने@@ 1261
मैदा@@ 1261
सेफ 1261
निकटतम 1259
बाला 1258
मोटे 1258
शिला@@ 1258
शिशु 1258
अवय@@ 1257
डीन 1257
पठार 1257
यड 1257
शिप 1257
गीय 1256
गोपाल 1256
डियो 1256
नाथ@@ 1256
वभाव 1256
आखि@@ 1255
भंग 1255
विधियों 1255
खिला@@ 1254
ळ@@ 1254
नरेश 1253
काय 1251
डिप 1251
निकलती 1251
बातों 1251
विशेषताओं 1251
साहिब 1251
सिंहासन 1251
रही@@ 1250
सियस 1250
रामा 1249
रायद 1249
ईरानी 1248
उग 1248
एकड 1248
जाय@@ 1248
रूम 1248
टिकल 1247
पहल 1247
लिटी 1247
केस 1246
रोह@@ 1245
अचानक 1244
अनन 1244
आतंक@@ 1244
टी20आई 1244
X 1243
कना@@ 1243
मुखी 1243
रणीय 1243
रमश 1243
कॉमेडी 1242
रती@@ 1242
रांतिकारी 1242
हेक 1241
गौतम 1239
मिले@@ 1239
वाई@@ 1239
अथ@@ 1238
अभयारण 1238
42 1237
इतालवी 1237
डक 1237
विनिर 1237
ंगो 1236
माई 1236
पल@@ 1234
रणार 1234
हंडिया 1234
भाजपा 1233
रियाई 1233
वैत 1233
असमर 1232
संवैधानिक 1232
सूचित 1232
सैद 1232
सोर 1232
चाई 1231
दं@@ 1231
नाटकों 1231
बहु 1231
भूमध 1231
सीता@@ 1231
हिष 1231
दलों 1230
निरू@@ 1230
गाय 1229
रभावों 1229
ारस 1229
किरा@@ 1228
मरी 1228
रेश 1228
साधना 1228
गोल@@ 1227
दावली 1226
पुण 1226
जिया 1225
भों 1225
मौर 1224
रमंडल 1224
सेवक 1224
घन 1223
डु 1223
सिय@@ 1223
गोत 1222
मतदान 1222
रघु@@ 1222
सख 1222
२०१६ 1222
1,@@ 1221
कांस 1221
वयन 1221
अंकित 1220
नुक 1220
बचा 1220
रतिरक 1220
धड 1219
रेंज 1219
वीन 1219
सोच 1219
६० 1219
इकट 1218
इज@@ 1218
युगल 1218
रीकृष 1218
हॉकी 1218
२०१२ 1218
कैल 1217
पारिवारिक 1216
लेंडर 1216
सापेक 1216
दायक 1215
देशा@@ 1215
बनती 1215
रबंधक 1215
उपमहाद 1214
जायेगा 1214
मिकता 1214
डि 1213
तरार 1213
नहर 1213
वध 1213
शेखर 1213
सटीक 1213
कंट 1212
नागपुर 1212
निधि 1212
मातृ@@ 1212
रकारिता 1212
हाँ 1212
64 1211
भौ@@ 1211
याति 1211
लगाए 1211
ोत 1211
.com 1210
44 1210
करवा@@ 1210
तिज 1210
रेणियों 1210
वल@@ 1210
चरम 1209
मेज 1209
वंश@@ 1209
टाटा 1208
फाउंडेशन 1207
असली 1206
करे@@ 1206
खाली 1206
गीर 1206
लाज 1206
अनुभ@@ 1205
कमे@@ 1205
पहुंचे 1205
शूटिंग 1205
51 1204
खुला 1204
महारानी 1204
संगीत@@ 1204
हराकर 1204
सीमाओं 1203
g 1201
खून 1201
नींव 1201
रतियोगि@@ 1201
P 1200
तख 1200
जानने 1199
रुस 1199
रोसे@@ 1199
सिल@@ 1199
२००० 1199
असर 1198
पहुँचा@@ 1198
रवासी 1198
लॉग 1197
समाजवादी 1197
al 1196
م@@ 1196
अवैध 1196
सैयद 1196
अंडर 1195
टेबल 1195
तालाब 1195
बहस 1195
बेल@@ 1195
भंड@@ 1195
शिंगटन 1195
U@@ 1194
राण@@ 1194
निरपेक 1192
मैरी 1192
विकिपीडिया 1192
हैरी 1192
रोधी 1189
इंग@@ 1188
टान 1188
बच@@ 1188
बुरी 1188
महिलाएं 1188
वाद@@ 1188
सफलतापूर 1188
सहस 1188
गयीं 1187
फस@@ 1187
उठा 1186
उतर@@ 1186
चौथा 1186
चौहान 1186
1920 1185
जरूरी 1185
थॉमस 1185
मूलतः 1185
1000 1184
बोलते 1184
आकाश@@ 1183
चारिक 1183
रिकार 1183
दादा 1182
नेक 1182
फास 1182
मिन@@ 1182
यवादी 1182
कुश@@ 1181
वारों 1181
२०१५ 1181
लाक 1180
ीक 1180
ृत 1180
बेडकर 1179
रांसिस 1179
पूंजी 1178
बनवाया 1178
1968 1177
खतरे 1177
बाध 1177
बाबू 1177
रानी@@ 1177
c 1176
परिणामों 1176
https 1175
बेह@@ 1175
अनुच 1174
उदा@@ 1174
खाता 1174
रतिवर 1174
लात 1174
1964 1173
3.@@ 1173
उपनिवे@@ 1173
पम 1173
रखकर 1173
रबल 1173
हिसाब 1173
किन@@ 1172
थै@@ 1172
G 1171
कुमारी 1171
टें@@ 1171
दरी 1171
16@@ 1170
ओल 1170
देगा 1170
पेज 1170
रोडक 1170
लोहे 1170
छो@@ 1169
तिस 1169
पूछ@@ 1169
सिफारि@@ 1169
चेहरे 1168
माँ@@ 1168
सीसी 1168
चिड 1167
सकीय 1167
1966 1166
बातें 1166
मैसूर 1166
सवार 1166
िम 1166
रधा@@ 1165
रन@@ 1165
रेत 1165
रोहित 1165
िस 1165
तगा@@ 1164
भाषी 1164
39 1162
इर 1162
बाला@@ 1162
रतिदिन 1162
रुत 1162
सेना@@ 1162
j@@ 1161
टाइन 1161
मेमो@@ 1161
रमाणित 1161
शनी 1161
घास 1160
भरे 1160
मुखर 1160
रणनीति 1160
खाल 1159
परियोजनाओं 1159
पूं@@ 1159
फिलिप 1159
इनर 1158
काठ@@ 1158
काण 1158
नीज 1158
बाधा 1158
रोसॉफ 1158
सू 1158
तलाश 1157
परंपरा@@ 1157
आनुवं@@ 1156
नियर 1156
मांस@@ 1156
by 1154
रगुप 1154
गौरव 1153
झो@@ 1153
निकाल@@ 1153
छू@@ 1152
पालिका 1152
ोसी 1152
गिरी 1151
ंटी 1150
कुंड 1150
रजत 1150
लाखों 1150
संपादन 1150
तटीय 1149
शाखा@@ 1149
विल@@ 1148
सुख@@ 1148
परो@@ 1147
रजा 1147
ओडि@@ 1146
कालेज 1146
कुट 1146
टेलि@@ 1146
दूरदर 1146
बित 1146
ऐक 1145
चलन 1145
दबा@@ 1145
सेप 1145
g@@ 1144
जानवर 1144
रनों 1144
रिटी 1144
लाइफ 1144
लीला 1144
43 1143
घूर 1143
रतिभा@@ 1143
लाय@@ 1143
वेदी 1143
सूरा 1143
m@@ 1142
मुकाबले 1142
99 1141
ंडि@@ 1141
गानों 1141
हारों 1141
बदलकर 1140
रवादी 1140
लेंस 1140
लैंगिक 1140
विभक 1140
अधिका@@ 1139
आवासीय 1139
ऋग 1139
गणितीय 1139
टाइल 1139
पीछा 1139
यमकेश 1139
रोही 1139
सिंचाई 1138
जीती 1137
मग@@ 1137
05 1136
छन 1136
वेली 1136
हितों 1136
08 1135
होली 1135
ाव 1135
47 1134
दिशा@@ 1134
कूट 1133
95 1132
खूबसूरत 1132
छिद 1132
टेम 1132
ंची 1131
कायम 1131
कैन 1131
जरू@@ 1131
संतान 1131
कानों 1129
रना 1129
शियन 1129
करों 1128
पूल 1128
युनिस 1128
राधिकरण 1128
शुभ 1128
२९ 1128
एव 1127
फान 1127
मले@@ 1127
लेबाजी 1127
गिरि 1126
ठे@@ 1126
तिपूर 1125
नातकोत 1125
वीकृत 1125
समक 1125
सशस 1125
हू 1125
n@@ 1123
अबू 1123
जाट 1123
रमे@@ 1123
रूज 1123
शिला 1123
हफ 1123
अण 1122
पीने 1122
षी@@ 1122
षेक 1122
हिमा@@ 1122
de 1121
थम 1121
मिला@@ 1120
युनि@@ 1120
वयुद 1120
सीबी@@ 1120
एज 1119
कथन 1119
तारीख 1119
रिसर 1119
अनुसूचित 1118
फैशन 1118
मणि@@ 1118
शेल 1118
l 1117
अके@@ 1117
तीस 1117
रहमान 1117
कात 1116
डिजा@@ 1116
ताइ@@ 1116
मसा@@ 1116
लयों 1116
सिने@@ 1116
इंदिरा 1115
डाउन 1115
माज 1115
मामला 1115
रदूषण 1115
साउ@@ 1114
अंगों 1113
दाम 1113
आधार@@ 1112
मराठा 1112
सैकड 1112
हसन 1112
तालिका 1111
राजकीय 1111
रीमती 1111
19वीं 1110
जेट 1110
रिपब 1110
विहार 1110
मतों 1108
योति@@ 1108
विधि@@ 1108
सोनी 1108
अखबार 1107
याप@@ 1107
१०० 1107
06 1106
लिट 1106
लेखा@@ 1106
वाट 1106
ऑटो@@ 1105
आपकी 1104
नाई 1104
पारिस 1104
रखा@@ 1104
विभागों 1104
वेशन 1104
सोल 1104
आया@@ 1103
इंजीनियर 1103
एयरलाइन 1103
वराज 1103
शोधकर 1103
साधारण@@ 1103
सिया@@ 1103
मुफ 1102
रेटिंग 1102
षेपण 1102
ंदी 1101
चाय 1101
दीवारों 1101
नु 1101
56 1100
इक@@ 1100
डित 1100
ंदगी 1099
चाहती 1099
07 1098
किशो@@ 1098
लीस 1098
विध 1098
योगि@@ 1096
बकीय 1095
रते 1095
राहुल 1095
रैंड 1095
वहन 1095
एर 1094
लोकन 1094
वागत 1094
t@@ 1093
दांत 1093
यापी 1093
रोजेक 1093
साद 1093
जिब 1092
थिएटर 1092
पहुँचने 1092
बादशाह 1092
भूतपूर 1092
िये 1092
इनसे 1091
1940 1090
अहमदाबाद 1090
गहरे 1090
जमा@@ 1090
नबर 1090
50@@ 1089
p 1089
काउंसिल 1089
जीर 1089
टीना 1089
पूँ@@ 1089
लें@@ 1089
चुंबकीय 1088
फन 1088
मैट 1088
बयान 1087
विरो@@ 1087
अकाल 1086
गंगो@@ 1086
घटित 1086
मेवाड 1086
सरकारों 1086
हिप 1086
उदयपुर 1085
णकटिबंधीय 1085
53 1084
भले 1084
मछ@@ 1084
सामं@@ 1084
ईसा@@ 1083
टी20ई 1083
फोटोग 1083
संहार 1083
टील 1082
ओस 1081
पुर@@ 1081
बुन 1081
सरी 1081
मानस 1080
लेफ 1080
वाकर 1080
िन 1080
खनन 1079
देह 1079
रचलन 1079
शिवाजी 1079
रवाल 1078
कविताओं 1077
काउ@@ 1077
ढा 1077
बारा@@ 1077
बारिश 1077
लेम 1077
एपिसोड 1076
तिमान 1076
लोराइड 1076
c@@ 1075
कमी@@ 1075
सोलहवीं 1075
एकदिवसीय 1074
कहलाते 1074
काइ@@ 1074
नली 1073
समाज@@ 1073
1961 1072
छाया 1072
धारक 1072
30@@ 1071
s@@ 1071
ई० 1071
एसिड 1071
फूलपुर 1071
राह@@ 1071
वीय 1071
षदों 1071
an@@ 1070
चैंपियन 1068
णव 1067
फैक 1067
यायिक 1067
सीधा 1067
N.Z.A. 1066
O 1066
ंचल 1066
लिफ 1066
अतीत 1065
कटिक 1065
मॉर 1065
राथ@@ 1065
राने 1065
शियाई 1065
that 1064
जंगलों 1064
थिरता 1064
नती@@ 1064
भेद@@ 1064
रेगिस 1064
वाहनों 1064
तरा 1063
पेय 1063
मेजर 1063
हटाने 1063
१,@@ 1063
1963 1062
बॉम 1062
ंडो 1061
कहलाती 1061
केप 1061
मिया@@ 1061
खरी 1060
परिचित 1060
फेयर 1060
कथानक 1059
कनेक 1059
भूकंप 1059
रायल 1059
विभा@@ 1059
२००१ 1059
८० 1059
उतना 1058
औरंग@@ 1058
गुरुत 1058
तीत 1058
राइव 1058
शाखाओं 1058
68 1057
पॉप 1057
सुविधाएं 1057
ेद 1057
85 1056
अणु 1056
औषधि 1056
औसतन 1056
कुरान 1056
पतियों 1056
पहुँचा 1056
पाश 1056
युग@@ 1056
योगी 1056
रैंकिंग 1056
भोग 1055
सेनाओं 1055
ंट@@ 1054
जीवि@@ 1054
दां@@ 1054
पनों 1054
लीफ 1054
टवर 1053
वनी 1053
साहन 1053
V 1052
अव 1052
कीं 1052
फल@@ 1052
गली 1051
जूनियर 1051
तरराष 1051
निकला 1051
विनाश 1051
a@@ 1050
ar 1050
रवाद 1050
लेशन 1050
षु 1050
04 1049
41 1049
शु 1049
अनुयायी 1048
दल@@ 1048
दोषी 1048
बुर 1048
वसा 1048
सिलि@@ 1048
ar@@ 1047
अमे@@ 1047
कलात 1047
मॉड@@ 1047
साउथ 1047
रतिनि@@ 1046
वितरित 1046
e@@ 1045
असम@@ 1045
आस@@ 1045
परिकल 1045
योहार 1045
अपरि@@ 1044
गले 1044
जाये@@ 1044
पंद 1044
150 1043
46 1043
गेंदबाजी 1043
तिकता 1043
मीरी 1043
मैने@@ 1043
लियो 1043
सदा@@ 1043
हवीं 1043
अनेकों 1042
जागरू@@ 1042
बिहारी 1042
मानने 1042
राजा@@ 1042
लौटने 1042
वोट 1042
आईपी@@ 1041
खोल 1041
चस 1041
टेलीविज 1041
महावीर 1041
मानकों 1041
आधा 1040
इकाइयों 1040
काँ@@ 1040
णि 1040
वसन 1040
कालि@@ 1039
तकनीकों 1039
तिया 1039
मालि@@ 1039
वासन 1039
टाने 1038
देहरादून 1038
भोज 1038
मुलाकात 1038
पैदल 1037
वेतन 1037
दीकी 1036
मांड@@ 1036
इंडोनेशिया 1035
गीत@@ 1035
हि 1035
इलाक 1034
कणों 1034
किर@@ 1034
गोवि@@ 1034
निशान 1034
पुराणों 1034
बॉल 1034
टिका 1033
तिर@@ 1033
लखीसराय 1033
लाए 1033
पोरेट 1032
रिको@@ 1032
1955 1031
पाठक 1031
रेडिट 1031
शहीद 1031
तिका 1030
लबर 1030
षरों 1030
अपील 1029
फेफड 1029
हानि@@ 1029
जागरण 1028
डनी 1028
रूर 1028
१८९@@ 1028
अवसरों 1027
आरा@@ 1027
ताम 1027
नाना 1027
घातक 1026
दाहि@@ 1026
वीपसमूह 1026
डेक 1025
रभु@@ 1025
सिग 1025
सीरिया 1025
आधु@@ 1024
रांतीय 1024
शिलालेख 1024
ोस 1024
राउ@@ 1023
40@@ 1022
कोटि 1022
ङ@@ 1022
पायर 1022
होनें 1022
जने 1021
ेगा 1021
डालने 1020
तरिक 1020
नगरी 1020
विषा@@ 1020
असाधारण 1019
परे 1019
रवास 1019
पारस 1018
भाइयों 1018
भारतीयों 1018
01 1017
आईएस@@ 1017
जगहों 1017
पठ@@ 1017
यवर 1017
राजील 1017
संलग 1017
54 1016
इंदौर 1016
डाई 1016
डेन@@ 1016
रावधान 1016
लौकिक 1016
वेदों 1016
खबर 1015
पण@@ 1015
रया@@ 1015
अनुयाई 1014
रोग@@ 1014
गोविन 1013
पाउंड 1013
फें@@ 1013
रूपांतरण 1013
ास 1013
1949 1012
3,@@ 1012
किक 1012
चय@@ 1012
विवेचन 1012
72 1011
बहुसंख 1011
हारा 1011
२००५ 1011
अमी@@ 1010
कली 1010
रीन@@ 1010
हृ@@ 1010
25@@ 1009
छुट 1009
ई.पू. 1008
तेन 1008
आल 1007
इमारतों 1007
भेजने 1007
मिसाइल 1007
लेखा 1007
88 1006
रविष 1006
राना 1006
x@@ 1005
अनाज 1005
कहती 1005
जनित 1005
मच 1005
राइड 1005
एलेक 1004
विला@@ 1004
सके@@ 1004
h@@ 1003
आम@@ 1003
किर 1003
तगाली 1003
नून 1003
महाराणा 1003
षार 1003
सकी 1003
ر@@ 1002
जर@@ 1002
जोशी 1002
पावर 1002
कहे 1001
रभाव@@ 1001
राजकुमारी 1001
रिट 1001
संश 1001
अंडे 1000
टमैन 1000
देहा@@ 1000
मुहा@@ 1000
रहें 1000
वरुप 1000
गहन 999
समापन 999
1945 998
H 998
असल 998
ताजी 998
सना@@ 998
ीसा 998
थानी 997
लिया@@ 997
तला@@ 996
भीम@@ 996
मंगो@@ 996
संतुष 995
चाह@@ 994
शार@@ 994
हमलों 994
खाया 993
फेट 993
विलुप 993
टीज 992
तराखंड 992
याएं 992
योजनाओं 992
ववर 992
उजा@@ 991
पिछली 991
पिया 991
मिं@@ 991
सोडियम 991
ाना 991
अनुपस 990
गणतंत 990
नाटकीय 990
पहलुओं 990
रधान@@ 990
रहेगा 990
at 989
आवेदन 989
कबी@@ 989
फैस@@ 989
बराम@@ 989
याह 989
वनों 989
u 988
बसा@@ 988
२००४ 988
थाप@@ 987
धारणा@@ 987
रहकर 987
आख 986
खुदाई 986
बैंकों 986
यूरे@@ 986
सेकंड 986
हदी@@ 986
चिल 985
डियों 985
पुनरा@@ 985
बेर 985
मांकन 985
मोडा 985
राजीव 985
उपनि@@ 984
बिज@@ 984
सपुर 984
सराय 984
एम.@@ 983
कारोबार 983
गणि@@ 983
बलि@@ 983
रतिबंधित 983
ओलि@@ 982
गांवों 982
फैले 982
नीयता 981
मग 981
यूके 981
येष 981
लीवुड 981
संक@@ 981
समाजशास 981
1954 980
रुख 980
सिंध 980
i@@ 979
उपदेश 979
रभुत 979
विटामिन 979
विषाणु 979
शनीय 979
हमारा 979
--@@ 978
v@@ 978
गाई 978
नैदानिक 978
मोनो@@ 978
अमृत@@ 977
डेट 977
निकलता 977
फूलों 977
फेड@@ 977
रमि@@ 977
सांरगढ 977
जगन 976
पंजीकृत 976
पोप 976
भां@@ 976
षिणपूर 976
ाइल 976
एनिमे@@ 975
दिलचस 975
वियतनाम 975
अभिक 974
आराम 974
एगा 974
कबीर 974
जलप 974
टु 974
17@@ 973
1946 973
w@@ 973
ंदा 973
एयरलाइ@@ 973
कोरो@@ 973
मापी 973
खगोलीय 972
पेनिश 972
बनकर 972
ताल@@ 971
फे 971
बैंकिंग 971
रकाश@@ 971
लेड 971
गायत 970
चालू 970
लगाकर 970
सबर 970
कष 969
टॉम 969
निषे@@ 969
योर 969
लाई@@ 969
ारक 969
X@@ 968
Y@@ 968
अंटार 968
औपनिवेशिक 968
रआन 968
विनिमय 968
86 967
चलचित 967
थता 967
लीज 967
लैश 967
आइस@@ 966
इयों 966
छंद 966
राउन 966
लाकर 966
सती 966
सदैव 966
एंड@@ 965
छिक 965
रेजि@@ 965
लामिक 965
वालामुखी 965
वाली@@ 965
चौद@@ 964
तरंग 963
नाश 963
बैठे 963
मोल 963
600 962
डाउन@@ 962
रोकार 962
सतत 962
यूएस 961
आंग 960
49 959
आवर 959
कामया@@ 959
डेमोक 959
सीय 959
२०१७ 959
62 958
b 958
अत@@ 958
गमन 958
तुएँ 958
पूछा 958
बोल@@ 958
रकला 958
18@@ 957
उठाने 957
भरत@@ 957
66 956
लिंग@@ 956
अलेक 955
गरी 955
लिब 955
8.@@ 954
जटि@@ 954
फुल 954
भीम 954
यॉर 954
पसं@@ 953
उपरांत 952
एजेंट 951
लघु@@ 951
ियंस 951
1958 950
उपासना 950
पदा 950
अंगू@@ 949
काया 949
कॉट 949
थाईलैंड 949
रवाहित 949
७० 949
छड 948
जेब 948
रोक@@ 948
63 947
किरण 947
77 946
इनको 946
कोलंबिया 946
गोरखपुर 946
पहल@@ 946
बनाम 946
बहने 946
रवि 946
58 945
आदित 945
बॉन 945
लोबल 945
पहलू 944
फंड 944
माँग 944
लोकतंत 944
सीक 944
ृंग@@ 944
ॊ@@ 944
जम@@ 943
मुकाबला 943
ऊँची 942
चोटी 942
फाल 942
भरने 942
रीम@@ 942
साथियों 942
आपात@@ 941
तलाक 941
तेह@@ 941
दुः@@ 941
बिलकुल 941
मुकदमा 941
सूचक 941
२०१८ 941
1951 940
चेतावनी 940
निंदा 940
फैली 940
ओलम 939
रंगमंच 939
षद 939
खासकर 938
गना 938
टेयर 938
थिये@@ 938
सेनानी 938
दुबई 937
बँ@@ 937
मणिपुर 937
हिम@@ 937
ंकी 936
आद@@ 936
घोष 936
यथा@@ 936
रिफ 936
खतरनाक 935
धाओं 935
बाघ 935
महोत 935
सद@@ 935
ँसी 934
अक@@ 934
गोप@@ 934
रतों 934
राहत 934
रोधक 934
00 933
71 933
t 933
एह@@ 933
तेलंगाना 933
दिखाने 933
नाट@@ 933
वभौ@@ 933
1959 932
अट@@ 932
गौड 932
भाषाई 932
यौगिकों 931
उपयोगि@@ 930
थापत 930
मॉन 930
साइंस 930
सामुदायिक 930
आलो@@ 929
बरेली 929
रक@@ 929
राफिक 929
सं 929
ंडिंग 928
इका@@ 928
चंडी@@ 928
नगरपालिका 928
लौर 928
अंतराल 927
कुमार@@ 927
बीकानेर 927
हांगकांग 927
ऊंची 926
घटन 926
चोरी 926
जावा 926
परक 926
लेन@@ 926
सृ@@ 926
एथ@@ 925
धातुओं 925
पिथौरागढ 925
लॉ 925
57 924
ंपिक 924
चल@@ 924
पृ@@ 924
मुला@@ 924
2,@@ 923
आलोच@@ 923
जीवाश 923
ताप@@ 923
पाट 923
पारि@@ 923
लगाव 923
५०० 923
ंदर 922
दशी 922
धीय 922
सकल 922
करेगी 921
गास 921
देखता 921
नामी 921
पारम 921
बीर 921
माम@@ 921
y 920
कैद 920
तावादी 920
फलन 920
बी.@@ 920
रेंद 920
वांछित 920
शिवा@@ 920
शीत@@ 920
सदियों 920
असं@@ 919
ईसवी 919
गुरू 919
गृह@@ 919
बनावट 919
सऊदी 919
सचेंज 919
काशी@@ 918
बुल@@ 918
मतभेद 918
मिका 918
वनाथ 918
वय@@ 918
4.@@ 917
काना 917
कीट 917
ढी 917
थियो@@ 917
नाज 917
यी@@ 917
योजक 917
वदेशी 917
h 916
कानू@@ 916
पूरक 916
बाँध 916
मातृभाषा 916
यासों 916
98 915
चमक 915
जिकल 915
जिनमे 915
बाद@@ 915
भूटान 915
सृजन 915
इतिहासकारों 914
नांक 914
पहचाना 914
मुन 914
आयात 913
तिन 913
मंद 913
खार 912
जीवा@@ 912
दमन 912
मता@@ 912
वादा 912
ँकि 911
इंटर 911
इंडीज 911
ऑव 911
तमाम 911
तरंग@@ 911
निकटता 911
जीरिया 910
तेलुगू 910
रॉ 910
डीसी 909
बीमार@@ 909
ययनों 909
वतों 909
सु 909
झिल 908
मदर 908
पंथ 907
वेश@@ 907
खगोल@@ 906
पैरों 906
ॉल 906
मंजूरी 905
रणों 905
रांस@@ 905
साझेदारी 905
२००३ 905
जाइ@@ 904
समतल 904
एना@@ 903
खुला@@ 903
गुफा@@ 903
तली 903
राब 903
२००@@ 903
जें 902
बेचने 902
यापार@@ 902
विधियाँ 902
सेनापति 902
ैर 902
अजय 901
खारिज 901
गेंद@@ 901
बचे 901
संजय 901
बेड 900
लौह 900
हरि 900
en 899
निवार@@ 899
रीब 899
लाद 899
समू@@ 899
भागी@@ 898
रूपां@@ 898
with 897
एकीकरण 897
छूट 897
पिछड 897
फायर 897
मालवा 897
लरी 897
वैध 897
उपनिषद 896
जें@@ 896
डेस 896
परेशान 896
मानन 896
लुप 896
वसनीय 896
पेशियों 895
लाब 895
समे@@ 895
साप 895
are 894
जरिए 894
दूता@@ 894
भट@@ 894
मिड@@ 894
शंस 894
काउं@@ 893
चिंग 893
जानता 893
टीरिया 893
दायी 893
नाड 893
रकरण 893
000 892
अटलांटिक 892
तिग 892
धुरी 892
लॆ 892
अकार 891
दाएं 891
निबंध 891
परास 891
संन 891
9.@@ 890
झे@@ 890
धृत 890
निका 890
पास@@ 890
बानी 890
माम 890
रायन 890
साधनों 890
was 889
अनुमो@@ 889
अली@@ 889
ढाई 889
रीयता 889
रोशनी 889
चमत 888
तनत 888
ताना 888
धीन 888
निकी 888
लाश 888
विधेयक 888
,000 887
गंध 887
नेन 887
मिलन 887
रियो@@ 887
सेमी@@ 887
टियाँ 886
तारित 886
देरी 886
61 885
96 885
एसए 885
चिका 885
चौक 885
धियाँ 885
पियर 885
मानवा@@ 885
रपान 885
सीधी 885
तुलनात 884
यकों 884
लगाना 884
वाइस 884
गुस 883
धांतिक 883
महमूद 883
रेरी 883
विय@@ 883
शिवलिंग 883
76 882
अतिथि 882
ऊतक 882
घट 882
भागवत 882
वैन 882
नामांकित 881
निग@@ 881
पहुँचे 881
फलों 881
आसन 880
इंजीनिय@@ 880
टबॉल 880
तैनात 880
पं 880
पाप 880
मलिक 880
सिरे 880
ंगरी 879
रताप@@ 879
शप 879
समाधि 879
अभिप 878
करु@@ 878
कुड 878
तृप 878
नामा 878
मनु 878
मिलान 878
रचु@@ 878
लियां 878
बेच 877
यकृत 877
राही 877
67 876
कायम@@ 876
कोय@@ 876
टमेंट 876
पैक 876
वरु@@ 876
षस 876
आवागमन 875
याद@@ 875
वस@@ 875
सुनाई 875
ऊँचे 874
थेन 874
भण 874
मस@@ 874
अनिश 873
उदार@@ 873
जरु@@ 873
डीएनए 873
विदेशों 873
वेर 873
शोथ 873
करनेवाले 872
तिहाई 872
थरों 872
पाँच@@ 872
पैलेस 872
मूली 872
रतियो@@ 872
लगाते 872
वंशा@@ 872
सशक 872
जीवाणु 871
डेवल@@ 871
तारा@@ 871
तावाद 871
परिष 871
84 870
तारामंडल 870
भिकिया@@ 870
लेबल 870
खुश 869
सैंण 869
सोसायटी 869
तरीन 868
पंथी 868
रोम@@ 868
सीख@@ 868
03 867
7.@@ 867
कमान 867
कीकरण 867
कोयला 867
खरीदने 867
णिया 867
बोट 867
संबोधित 867
आपसी 866
कहकर 866
णिमा 866
सौंप 866
हथियारों 866
इंट 865
झारखण 865
पदा@@ 865
सराह@@ 865
ुद 865
१८५@@ 865
जेने@@ 864
तिलक 864
देखना 864
पुरू@@ 864
बग 864
बलि 864
संवर 864
ढांचे 863
पितृ@@ 863
राँ@@ 863
विधा 863
वीडन 863
ीर 863
02 862
गलती 862
गिक 862
टित 862
पिट 862
रुवीय 862
.सी@@ 861
ंडा@@ 861
कठिनाई 861
दीदा 861
पथ@@ 861
रभाग 861
शिकायत 861
गरु@@ 860
नाव 860
रेण@@ 860
वेब@@ 860
मुड 859
रतिबद 859
वरन 859
1857 858
चाचा 858
भंडार 858
मेजबा@@ 858
शिकागो 858
सफर 858
अधिकृत 857
तुतः 857
नीकरण 857
बृहस 857
सकर 857
रोफ 856
३१ 856
1942 855
आयी 855
जितनी 855
नारी 855
विवादास 855
सांप 855
साइकिल 855
कज 854
गुला@@ 854
घम 854
जंग 854
पंच 854
रशस 854
74 853
अनिय@@ 853
दाज 853
दिखने 853
बैं@@ 853
वियों 853
सरोवर 853
11@@ 852
आतंकवादी 852
आपका 852
कांत 852
कैबिनेट 852
टेशनों 852
ठार@@ 852
यौहार 852
U 851
खल@@ 851
नागा@@ 851
नेर 851
२.@@ 851
तीफा 850
पीएच@@ 850
पैटर 850
रवी@@ 850
१९९० 850
अंकों 849
जता 849
भया@@ 849
वतीय 849
आनु@@ 846
800 845
al@@ 845
in@@ 845
परमा@@ 845
87 844
III 844
आजा@@ 844
नय 844
राजपू@@ 843
1953 836
होत 835
2022 834
78 834
महिला@@ 834
उंड 830
गु 829
तरी@@ 829
मारी 829
दाई 828
ب@@ 827
ंगटन 827
चने 826
बंधन 826
4,@@ 825
k 825
73 824
आतं@@ 823
नुष 823
97 820
ंकि 820
कुमा@@ 820
अमृ@@ 815
कठि@@ 815
26@@ 814
و@@ 814
83 813
us@@ 811
ref 808
92 806
चारी 804
r 803
तिकी 801
धां@@ 801
59 800
ال@@ 800
5.@@ 799
24@@ 798
e 796
1936 795
5,@@ 793
दृ@@ 792
est@@ 790
di@@ 788
नाइटेड 783
81 782
us 780
94 779
www.@@ 779
कारि@@ 778
राश@@ 775
http 774
खरीद@@ 773
शुरू@@ 773
निरं@@ 772
अहम@@ 769
विका@@ 769
सूरत 769
1939 768
जाग@@ 766
ृंख@@ 766
91 765
अदा@@ 765
शोर 762
69 760
am 756
82 755
नाराय@@ 755
दिला@@ 754
षिण@@ 753
93 751
o@@ 749
1941 748
1937 746
लख@@ 746
am@@ 743
ताब 743
1900 739
6.@@ 739
from 739
णे 739
पां@@ 739
1919 737
मुकद@@ 737
250 736
23@@ 734
अख@@ 733
वाया 733
web 732
89 731
US 731
ंडल 731
इमार@@ 731
K 729
रयोग@@ 728
ل@@ 727
1932 725
79 723
सरों 721
टिश 719
धिकारी 719
मुरा@@ 719
28@@ 718
it@@ 715
Y 714
ंव 714
चुनौ@@ 714
web.archive.org 713
मति 711
यहू@@ 710
लका@@ 709
सरो@@ 708
120 706
बाव@@ 705
लंका 704
सामा@@ 703
ur 701
ई.@@ 701
पंजी@@ 701
ंडो@@ 700
{ 697
AS@@ 694
it 694
ن@@ 694
पि 694
धानी 692
उपभो@@ 690
जनन 690
r@@ 689
अने@@ 688
ियान 688
मेडि@@ 687
Q@@ 686
Z 684
par@@ 684
6,@@ 683
700 683
संतु@@ 683
हां 683
া@@ 679
गाह 677
1928 676
27@@ 676
tim@@ 676
डियम 674
दिल@@ 674
आधि@@ 672
ऊँ@@ 672
२०१@@ 672
नागरि@@ 671
f@@ 668
l@@ 668
मीद@@ 668
1931 667
ns 666
‎ 666
रभ@@ 665
ad@@ 662
1,000 661
ch@@ 661
दाबाद 659
1935 658
model 658
आज@@ 657
राबाद 656
1934 653
201@@ 653
£ 653
ंगो@@ 651
1921 650
} 650
1924 649
लाह@@ 648
ॅ 648
1918 647
1944 647
हाबाद 647
ं- 646
समारो@@ 646
संचा@@ 643
1938 642
7,@@ 642
29@@ 641
f 640
ي@@ 639
पंड@@ 639
चैंप@@ 638
v 637
Z@@ 633
आयु@@ 633
at@@ 632
be 632
س@@ 632
ن 628
सैं@@ 627
पहा@@ 626
यनों 626
A4 624
National 624
िश 623
contributor 621
सिए@@ 620
um 619
टलैंड 617
दरगाह 617
5,000 616
कोलं@@ 616
पहुँ@@ 616
ic 615
लियर 613
45@@ 612
W 610
एसि@@ 609
1943 608
1912 607
`@@ 607
format 607
कारिता 607
ंडी@@ 605
हाला@@ 605
10,000 603
ईं@@ 602
थॉ@@ 602
विक@@ 602
ation 601
एनए 601
₹ 599
शोध@@ 597
भीर 596
1922 595
1929 595
ia 595
कड@@ 594
22@@ 592
आवे@@ 590
बह 590
रैं@@ 590
दिरा 589
8,@@ 588
पहु@@ 588
सरण 588
− 588
1933 587
ername 586
1925 585
2.5 585
ap@@ 584
IS@@ 583
रबंध@@ 583
थानां@@ 582
ॐ 582
1914 580
pur 579
आका@@ 579
u@@ 576
1917 574
India 574
तिहासिक 574
es 573
1926 571
कारिक 570
रांति@@ 570
ag@@ 569
1.5 566
कैलि@@ 566
सचि@@ 564
th@@ 563
पाँ@@ 562
रिए 556
अमेरि@@ 553
वाला@@ 553
which 549
as@@ 548
200@@ 546
मजब@@ 546
सना 544
उदय@@ 542
1927 539
ँच 539
झे 539
गठ@@ 538
रेली 538
ing 536
or@@ 536
enti@@ 535
ya 535
बज@@ 535
ीज 535
एपि@@ 534
पराज@@ 534
मही@@ 532
ढांच@@ 530
संगठ@@ 530
टली 529
1908 528
ab@@ 528
शिका@@ 528
1910 526
तिहा@@ 526
· 525
ra@@ 524
संहि@@ 524
10.@@ 523
one 522
विजे@@ 520
1905 518
1923 518
op@@ 518
comment 517
د@@ 517
ak@@ 516
× 516
1911 515
नेह@@ 513
रिके@@ 513
ंप 512
इसी@@ 512
शोक 512
सील 511
परिणा@@ 510
re@@ 508
रगढ 506
हनु@@ 506
थार 505
राधि@@ 504
wik@@ 503
सानी 502
80@@ 501
en@@ 501
his 501
ine 499
is@@ 499
कहला@@ 497
टोग 496
1916 494
ंतु 494
5000 493
लैंग@@ 493
सचे@@ 493
सुझा@@ 492
Ch@@ 491
… 490
In 489
OS 489
а@@ 489
ऽ@@ 489
DVD 487
ی@@ 487
आवा@@ 486
बादी 486
ओल@@ 485
खिक 485
तकनी@@ 485
50,000 484
निकों 482
00,000 481
es@@ 481
संपा@@ 481
CO@@ 480
on@@ 480
एनि@@ 480
यीं 478
रागढ 478
35@@ 477
भग 477
एसोसिए@@ 475
ح@@ 473
नानी 472
नेशिया 472
12.@@ 470
ع@@ 470
WWE 469
Windows 468
कद@@ 468
9,@@ 464
di 462
ळ 462
ra 461
1915 459
तारी@@ 459
गेश 458
विजन 458
и@@ 457
वाता@@ 456
विकि@@ 456
la 455
un@@ 455
11.@@ 454
1906 453
नगर@@ 453
1500 452
J 452
IN@@ 451
रदू@@ 451
180 450
1901 450
el@@ 450
हुल 450
मश@@ 449
इंडो@@ 448
दिरों 447
निवृत 446
ac@@ 443
iki 443
্ 443
160 440
er@@ 439
е@@ 439
900 436
் 436
लुओं 434
वज@@ 434
NBC 433
1904 432
AL@@ 431
SO@@ 431
थाई@@ 429
चुंब@@ 428
रोफे@@ 428
An@@ 427
de@@ 426
li@@ 426
1896 424
2,000 424
1909 423
he 423
ro@@ 423
CH@@ 422
IV 422
1913 421
रेडि@@ 420
Microsoft 419
ana 419
यारी 419
350 418
130 417
मनोरं@@ 417
have 416
चुना@@ 416
In@@ 414
j 414
भूत@@ 414
हिब 414
तुर@@ 413
यायाधी@@ 413
किया@@ 412
ER@@ 411
UK 411
ol@@ 411
ूत 410
घोष@@ 409
་ 409
थिय@@ 408
1907 407
विधान@@ 407
et@@ 406
jp@@ 406
110 405
ai 405
align 405
सूस 405
CD@@ 404
टती 404
ism 403
2.0 402
डिवी@@ 402
3.5 401
thumb 401
चान 401
HIV 400
जंग@@ 399
has 397
not 397
z 397
د 397
परी 397
1890 395
3000 395
फिस 395
0,@@ 394
वाहिक 394
ate 393
140 392
टीय 391
ैतिक 391
परियोज@@ 390
मौजू@@ 388
कोत 387
60@@ 386
100,000 385
108 385
em@@ 385
अनुसं@@ 384
किलो@@ 383
center 381
ed 381
hi@@ 380
यूजी@@ 380
AT 379
----@@ 377
13.@@ 377
34@@ 377
55@@ 377
MS 377
also 377
कैल@@ 377
खतर@@ 377
text 376
वैधानिक 376
Q 375
ha@@ 375
1902 374
meridian 374
रोजग@@ 374
Al@@ 373
av@@ 373
ऊँ 373
हरिया@@ 373
AC 372
le@@ 372
रासत 372
ad 369
le 369
name 369
कारो@@ 369
गोरख@@ 369
о@@ 367
MA 366
खूब@@ 366
Indian 365
ang@@ 365
70@@ 364
ite 363
रामी@@ 363
14.@@ 362
ic@@ 362
1880 361
125 359
छित 359
NET 358
ur@@ 358
ot@@ 357
ph@@ 357
IC@@ 356
ology 356
ऱ 356
3,000 354
н@@ 354
गोरी 352
1800 349
1899 349
सफल@@ 349
Rousseau 348
ंख@@ 348
किंग@@ 348
20,000 347
Ar@@ 346
ST@@ 346
et 346
sh@@ 346
गिस 346
यमु@@ 346
TV 344
पिछ@@ 344
CA@@ 343
st@@ 343
समे 343
this 342
पेशे@@ 342
मिसाइ@@ 342
codice 341
er 341
ة 341
ت@@ 339
पीडिया 339
1895 338
q 338
ri@@ 338
ˈ@@ 338
α 338
1903 337
ر 337
AS 336
NA 335
PA 335
संबंध@@ 335
FI@@ 334
ec@@ 334
1860 333
SC 333
1898 332
Highway 332
747 331
om@@ 331
यारण 331
1858 330
AT@@ 330
Sh@@ 329
a.@@ 328
अंतरा@@ 328
1889 327
CD 327
विनि@@ 327
1870 326
ay@@ 326
इनल 326
AD@@ 325
z@@ 325
फड 325
वियत@@ 324
105 323
ht@@ 323
ma 323
डकर 323
1885 322
36@@ 322
oc@@ 322
101 321
1891 321
IP@@ 321
si@@ 321
² 321
1887 320
DC 318
ext 317
im@@ 317
র@@ 317
ha 316
ka 316
AM@@ 313
NT@@ 313
एटर 313
ov@@ 312
revision 312
शासन@@ 312
360 311
SP@@ 311
रिष 311
सटी@@ 311
10,@@ 310
ed@@ 310
ی 310
104 309
1897 309
ul@@ 309
River 308
TS 307
can 307
right 307
system 306
हिए 306
1894 305
AN 305
il@@ 304
os@@ 304
लाइसे@@ 302
1888 301
log@@ 300
me 300
ব@@ 300
47@@ 299
AI@@ 299
AN@@ 299
ج@@ 299
थौ@@ 299
230 298
1882 297
Cl@@ 297
ـ@@ 297
15.@@ 296
WWF 296
DNA 295
निर@@ 295
38@@ 294
Man@@ 294
झार@@ 294
AR@@ 293
MP@@ 293
1886 291
BS 290
विविध@@ 290
शुरु@@ 290
As 289
ISO 289
id@@ 289
CI@@ 288
संशो@@ 288
ous 287
ंदु 287
कील 287
टकों 287
1892 286
ah@@ 286
अवै@@ 286
BC 285
\ 285
man 285
л@@ 285
विप@@ 285
16.@@ 284
RE@@ 284
Th@@ 284
हारिक 284
102 283
1893 283
4,000 283
Con@@ 283
co@@ 283
its 283
NS@@ 282
PC 282
भवतः 282
फाउ@@ 281
ি@@ 281
21@@ 280
750 279
ae 279
their 279
U.S. 278
ā@@ 278
100@@ 277
time 277
1.2 276
id 276
os 276
अनंत@@ 276
जोखि@@ 276
^ 275
all 275
war 274
1884 273
ani 273
ml 273
two 273
शही@@ 273
05@@ 272
1200 272
IC 272
आयर@@ 272
ti@@ 271
ش@@ 271
90@@ 270
LA 270
ob@@ 270
α@@ 270
गू 270
समझौ@@ 270
30,000 269
hi 269
q@@ 269
ॠ@@ 269
33@@ 268
ii 268
FA 267
18.@@ 266
27.@@ 266
450 266
~ 265
37@@ 264
ari 264
ers 264
km 264
Institute 263
ऎ@@ 263
106 262
ep@@ 262
had 262
1850 261
1881 261
Di@@ 261
SM 261
SE@@ 260
Sam@@ 260
more 260
na 260
og@@ 260
م 260
अटलां@@ 260
4000 259
0,000 258
48@@ 258
IT 258
were 258
ه@@ 258
119@@ 257
1867 257
Par@@ 257
St@@ 257
ing@@ 257
इसे@@ 257
0.5 256
103 256
120@@ 255
CS@@ 255
w 255
राजनी@@ 255
.-@@ 254
con@@ 254
od@@ 254
് 254
US@@ 253
ut@@ 253
हासन 253
1872 252
1876 252
amp@@ 252
ath@@ 252
um@@ 252
first 251
number 251
115 250
Bar@@ 250
but 250
लखी@@ 250
1883 249
170 248
190@@ 248
DA 248
सवी 248
UN@@ 247
CE@@ 246
ach@@ 246
Google 245
MTV 245
se 245
गानिस 245
→ 245
RA@@ 244
This 244
World 244
ator 244
1700 243
1848 243
1878 243
Mar@@ 243
other 243
ंचाई 243
बोधित 243
109 242
aya 242
IM@@ 241
been 241
It 240
Re@@ 240
SC@@ 240
able 240
ম@@ 240
1871 238
SA 238
ak 238
ch 238
ي 238
योगकर 238
32@@ 237
GE 237
IT@@ 237
vi@@ 237
ف@@ 237
1865 236
SE 236
ke 236
KM 235
da 235
per@@ 235
sp@@ 235
औ 235
21.@@ 234
IP 234
LC 234
RS 234
ium 234
р@@ 234
सानों 234
€ 234
AP@@ 233
hap@@ 233
गापुर 233
000,000 232
220 232
Mah@@ 232
University 232
1868 231
22.@@ 231
6,000 231
Bo@@ 231
International 231
XX@@ 231
than 231
ق@@ 231
यण 231
001 230
1861 230
HD 230
Kh@@ 230
ik@@ 230
107 229
17.@@ 229
1875 229
56@@ 229
SP 229
1873 228
oo@@ 228
रंगा@@ 228
1877 227
78@@ 226
इतिहास@@ 226
साब 226
్ 226
0.1 224
AB@@ 224
PE@@ 224
ata 224
law 224
नदार 223
9.5 222
En@@ 222
Per@@ 222
SI 222
no@@ 222
ক@@ 222
19@@ 221
age 221
1.3 220
1.6 220
126 220
1879 220
CE 220
टतम 220
भारती@@ 220
ant 219
ه 219
್ 219
1856 218
320 218
FDA 218
NS 218
ST 218
ated 218
poem 218
used 218
who 218
ল@@ 218
1600 217
1859 217
46@@ 217
CP 217
LS 217
ρ@@ 217
1830 216
19.@@ 216
AC@@ 216
sub@@ 216
128 215
1840 215
4.5 215
GB 215
ara 215
ol 215
सोसिए@@ 215
1.1 214
MS@@ 214
NH@@ 214
WCW 214
ip@@ 214
َ@@ 213
114 212
1866 212
2500 212
49@@ 212
eb@@ 212
जूरी 212
1,0@@ 211
VI 211
ala 211
and@@ 211
घु 211
Am@@ 210
Kal@@ 210
NO@@ 210
qu@@ 210
1863 209
20.@@ 209
function 209
आउ@@ 209
7.5 208
re 208
भुग@@ 208
AD 207
SS 207
Sc@@ 207
া 207
112 206
ND@@ 206
east 206
ical 206
west 206
к@@ 206
380 205
40,000 205
CP@@ 205
GP@@ 205
ore 205
सफे@@ 205
ISBN 204
car@@ 204
हिंद@@ 204
ন 204
EC@@ 203
IS 203
e.@@ 203
116 202
122 202
138 202
1818 202
25.@@ 202
Un@@ 202
el 202
दून 202
ऱ@@ 202
॒ 202
1.8 201
12,@@ 201
1854 201
1874 201
CA 201
no 201
roup 201
ta 201
रेर@@ 201
Pro@@ 200
ge@@ 200
ian 200
ran@@ 200
11,@@ 199
190 199
File 199
value 199
1.4 198
111 198
HTML 198
ah 198
type 198
в@@ 198
39@@ 197
BBC 197
CO2 197
ics 197
ity 197
μ@@ 197
परी@@ 197
1,4@@ 196
1869 196
SI@@ 196
har@@ 196
ki 196
ri 196
124 195
@ 195
org 195
such 195
ا 195
240 194
57@@ 194
New 194
parallel 194
ə@@ 194
घरेल@@ 194
जूद 194
साझे@@ 194
1815 193
2.4 193
23.@@ 193
AP 193
ai@@ 193
use 193
पात@@ 193
Pan@@ 192
ang 192
सलाह@@ 192
44@@ 191
OH 191
glas 191
ino 191
man@@ 191
they 191
भाषित 191
ু@@ 191
SD@@ 190
aj@@ 190
ations 190
ng 190
ud@@ 190
My@@ 189
S.@@ 189
WHO 189
up 189
णकटि@@ 189
র 189
1864 188
500,000 188
der 188
hai 188
pH 188
144 187
BM@@ 187
English 187
energy 187
1820 186
He 186
O2 186
ative 186
с@@ 186
AO@@ 185
Ac@@ 185
Sp@@ 185
ans 185
β 185
ॄ@@ 185
1,6@@ 184
117 184
14,@@ 184
6000 184
650 184
CC@@ 184
TA 184
bit 184
ina 184
ir@@ 184
over 184
point 184
æ@@ 184
а 184
ل 184
काब@@ 184
मलया@@ 184
1855 183
ATA 183
Ab@@ 183
ary 183
end@@ 183
hy@@ 183
into 183
121 182
SW@@ 182
between 182
ho@@ 182
se@@ 182
­ 182
خ@@ 182
ک@@ 182
118 181
123 181
agar 181
ig@@ 181
li 181
124@@ 180
1803 180
line 180
113 179
25,000 179
Bh@@ 179
theory 179
बुनिया@@ 179
.org 178
1.0 178
210 178
26.@@ 178
550 178
Kar@@ 178
Sar@@ 178
only 178
145 177
BE 177
ada 177
atic 177
ent 177
ma@@ 177
д@@ 177
ॆ 177
330 176
Ad@@ 176
Ph@@ 176
1400 175
Cl 175
ant@@ 175
language 175
ne@@ 175
औप@@ 175
पंजा@@ 175
132 174
15,@@ 174
2.1 174
2.3 174
66@@ 174
mon@@ 174
ز@@ 174
तका@@ 174
भाल 174
16,@@ 173
1851 173
CR@@ 173
SQL 173
th 173
up@@ 173
ι@@ 173
ে@@ 173
Bal@@ 172
IQ 172
bi@@ 172
ː@@ 172
13,@@ 171
1845 171
John 171
als 171
left 171
ɪ@@ 171
175 170
1835 170
1853 170
43@@ 170
H.@@ 170
Har@@ 170
Ram@@ 170
des 170
gh@@ 170
power 170
τ@@ 170
लखन@@ 170
1,8@@ 169
COVID 169
UR@@ 169
languages 169
out 169
yl@@ 169
1,500 168
1,5@@ 168
2.2 168
De@@ 168
PS 168
` 168
2023 167
dia 167
ent@@ 167
most 167
te 167
wa 167
सूची@@ 167
हैद@@ 167
63@@ 166
Div@@ 166
IR@@ 166
ation@@ 166
bar@@ 166
eg@@ 166
so 166
where 166
लिमि@@ 166
24.@@ 165
CT 165
DE@@ 165
Na@@ 165
ex@@ 165
nam@@ 165
ong 165
will 165
ο@@ 165
1819 164
CM@@ 164
all@@ 164
ve 164
у@@ 164
স@@ 164
12,000 163
1817 163
5.5 163
850 163
DS 163
OR@@ 163
au@@ 163
if 163
les 163
su@@ 163
शः 163
MC 162
USB 162
ating 162
pl@@ 162
ting 162
ك@@ 162
BMW 161
SS@@ 161
United 161
colspan 161
state 161
ter 161
ula 161
ताराम@@ 161
ौद 161
॑ 161
দ@@ 161
1843 160
Mal@@ 160
Open 160
ash@@ 160
ath 160
be@@ 160
ons 160
ry 160
141 159
15,000 159
280 159
CL@@ 159
000@@ 158
131 158
On 158
ari@@ 158
do 158
to@@ 158
ו@@ 158
गोलीय 158
59@@ 157
8,000 157
CO 157
DI@@ 157
RA 157
aceae 157
ali 157
ance 157
λ@@ 157
जबा@@ 157
यौगि@@ 157
165 156
76@@ 156
AA 156
Co@@ 156
Qu@@ 156
il 156
ish@@ 156
π 156
ி@@ 156
133 155
201 155
apur 155
bu@@ 155
ene 155
esh@@ 155
lo@@ 155
may 155
ter@@ 155
́ 155
मुकाब@@ 155
1847 154
6.5 154
IF@@ 154
LT@@ 154
Pal@@ 154
TC 154
az@@ 154
current 154
her 154
धरी 154
1.7 153
127 153
137 153
Kan@@ 153
USA 153
ates 153
body 153
ci@@ 153
when 153
ா@@ 153
1862 152
200,000 152
3.1 152
GDP 152
garh 152
pro@@ 152
some 152
ন@@ 152
7,000 151
EC 151
NT 151
PO@@ 151
TE@@ 151
ies 151
ru@@ 151
series 151
world 151
ऽ 151
136 150
1844 150
270 150
29.@@ 150
CC 150
Raj@@ 150
water 150
т@@ 150
तीस@@ 150
राजी@@ 150
1839 149
ME@@ 149
UM@@ 149
iz@@ 149
ura 149
ν@@ 149
м@@ 149
י@@ 149
142 148
CEO 148
Nag@@ 148
RO@@ 148
Si@@ 148
VO@@ 148
dis@@ 148
set 148
ε@@ 148
ص@@ 148
मोली 148
148 147
17,@@ 147
NZ@@ 147
Se@@ 147
any 147
her@@ 147
kh@@ 147
शारी@@ 147
65@@ 146
8.5 146
8000 146
Cal@@ 146
Ex@@ 146
HT@@ 146
Ne@@ 146
cor@@ 146
ea 146
form 146
ial 146
mi 146
style 146
uk@@ 146
ت 146
इतिहा@@ 146
जाघर 146
় 146
】 146
115@@ 145
1849 145
68@@ 145
Cs 145
DP 145
Hindi 145
ati@@ 145
force 145
ung@@ 145
أ@@ 145
0.2 144
134 144
A.@@ 144
Al 144
Car@@ 144
SAP 144
ist 144
ji 144
tri@@ 144
मथु@@ 144
राती 144
【 144
1789 143
1838 143
54@@ 143
AI 143
Fe@@ 143
M.@@ 143
RNA 143
South 143
itis 143
war@@ 143
we 143
б@@ 143
हराई 143
ত@@ 143
க@@ 143
3.2 142
Research 142
after 142
ati 142
him 142
light 142
mo@@ 142
per 142
ς 142
1100 141
146 141
152 141
1837 141
American 141
Me@@ 141
System 141
ane 141
data 141
hal@@ 141
many 141
दाय 141
ऩ@@ 141
119 140
1832 140
1842 140
185 140
3.0 140
58@@ 140
end 140
lu@@ 140
po@@ 140
ric@@ 140
yn@@ 140
σ@@ 140
ా@@ 140
118@@ 139
1300 139
154 139
155 139
199@@ 139
FS 139
iv@@ 139
ne 139
116@@ 138
153 138
300@@ 138
Az@@ 138
UEFA 138
ac 138
ora 138
ot 138
well 138
1,7@@ 137
166 137
1770 137
1801 137
1805 137
3.3 137
AG 137
Cor@@ 137
abad 137
he@@ 137
kar@@ 137
oh@@ 137
pr@@ 137
same 137
´ 137
κ@@ 137
129 136
260 136
264 136
B.@@ 136
BA 136
Com@@ 136
For 136
ale 136
alism 136
157 135
AB 135
DR@@ 135
HSV 135
NH 135
Rh@@ 135
V6 135
YouTube 135
ank@@ 135
att@@ 135
field 135
mar@@ 135
oid 135
psychology 135
title 135
ts 135
इंजी@@ 135
कॉमे@@ 135
यादा@@ 135
ர@@ 135
225 134
340 134
Act 134
Be@@ 134
Bi@@ 134
First 134
MP 134
Oracle 134
RFC 134
Tri@@ 134
ie 134
ind@@ 134
inter@@ 134
land 134
mass 134
mm 134
non 134
ou@@ 134
sc@@ 134
va 134
सामू@@ 134
1,3@@ 133
1824 133
3D 133
IA 133
MI@@ 133
Sal@@ 133
ab 133
about 133
anti@@ 133
ica 133
ion 133
met@@ 133
सिफ@@ 133
য 133
1846 132
400@@ 132
500@@ 132
ABC 132
GP 132
P.@@ 132
adi 132
ge 132
han@@ 132
mart@@ 132
ंने 132
चेता@@ 132
ো@@ 132
143 131
149 131
28.@@ 131
GA 131
SL@@ 131
du@@ 131
hat@@ 131
ization 131
é@@ 131
ī@@ 131
नुक@@ 131
॓ 131
1,9@@ 130
1707 130
18,@@ 130
Group 130
IBM 130
ICAO 130
cy@@ 130
la@@ 130
й 130
151 129
1799 129
1833 129
1841 129
202 129
DR 129
IB@@ 129
IX 129
PL@@ 129
PN@@ 129
ऑन@@ 129
बंगा@@ 129
182 128
AL 128
Inter@@ 128
La 128
Lee 128
Ro@@ 128
air 128
ast@@ 128
color 128
em 128
idae 128
people 128
zo@@ 128
कैथो@@ 128
भाँ@@ 128
156 127
1826 127
205 127
7000 127
Ak@@ 127
Dis@@ 127
EF@@ 127
Le@@ 127
UP@@ 127
ay 127
based 127
esia 127
ins 127
through 127
158 126
235 126
67@@ 126
TE 126
af@@ 126
electric 126
ipe@@ 126
ok@@ 126
ub@@ 126
अधिक@@ 126
नशिप 126
159 125
1775 125
1806 125
1814 125
2.7 125
DM@@ 125
Ge@@ 125
NY@@ 125
Po@@ 125
Sa@@ 125
VII 125
called 125
ir 125
oph@@ 125
s.@@ 125
sa 125
three 125
139 124
30.@@ 124
86@@ 124
CB@@ 124
Gar@@ 124
Or@@ 124
Su@@ 124
Technology 124
ca 124
era 124
и 124
वजन@@ 124
DL@@ 123
EMI 123
MR@@ 123
TP 123
XP 123
known 123
process 123
second 123
º 123
و 123
मुसल@@ 123
978 122
CS 122
NI@@ 122
bo@@ 122
gr@@ 122
micro@@ 122
om 122
pur@@ 122
sis 122
there 122
tic 122
would 122
सोलह@@ 122
163 121
1750 121
1852 121
370 121
4.2 121
Hu@@ 121
if@@ 121
ver@@ 121
1825 120
3.6 120
640 120
AF@@ 120
NE@@ 120
PC@@ 120
ann@@ 120
das 120
each 120
pal@@ 120
ster 120
172 119
Mas@@ 119
NA@@ 119
Pakistan 119
RT@@ 119
SD 119
SR@@ 119
Singh 119
WA 119
net 119
नात@@ 119
′ 119
164 118
1793 118
2,500 118
211 118
3.4 118
79@@ 118
99@@ 118
AR 118
F1 118
Mo@@ 118
TV@@ 118
film 118
ly 118
½ 118
डिजि@@ 118
1834 117
75@@ 117
77@@ 117
SAT 117
San 117
aw@@ 117
osis 117
pe@@ 117
tr@@ 117
un 117
width 117
ب 117
सेक@@ 117
த@@ 117
1761 116
1836 116
98@@ 116
AV@@ 116
An 116
Corporation 116
MO@@ 116
Nar@@ 116
Sah@@ 116
Ter@@ 116
app@@ 116
ih@@ 116
é 116
महमू@@ 116
ర@@ 116
192 115
AF 115
Mon@@ 115
der@@ 115
int 115
me@@ 115
် 115
1.9 114
147 114
1776 114
195 114
20,@@ 114
256 114
RAM 114
RC 114
ain@@ 114
del 114
ei@@ 114
ens 114
like 114
mal@@ 114
г@@ 114
ंडिया 114
আ@@ 114
168 113
169 113
1783 113
1821 113
1831 113
60,000 113
ID 113
SM@@ 113
Tar@@ 113
amb@@ 113
aur@@ 113
both 113
ding 113
distance 113
during 113
mp@@ 113
new 113
ст@@ 113
बंधीय 113
প@@ 113
1792 112
1829 112
2.8 112
212 112
9000 112
MHz 112
RE 112
State 112
aon 112
com 112
im 112
ological 112
sin@@ 112
ug@@ 112
ος 112
0.4 111
0.6 111
161 111
4.1 111
H2@@ 111
Inc. 111
LO@@ 111
ner 111
our 111
ozo@@ 111
these 111
ton 111
0.3 110
114@@ 110
167 110
1765 110
188 110
19,@@ 110
203 110
206 110
217 110
4.0 110
480 110
999 110
II@@ 110
Te@@ 110
VI@@ 110
common 110
pra@@ 110
ron 110
پ@@ 110
0.7 109
1526 109
1772 109
4.4 109
CBS 109
For@@ 109
Igl@@ 109
Last 109
M. 109
Mad@@ 109
Ver@@ 109
XI 109
ase 109
ide 109
ks@@ 109
ov 109
son 109
ר@@ 109
नीदर@@ 109
ारिज 109
● 109
150@@ 108
1804 108
1827 108
1828 108
2.6 108
Apple 108
Chi@@ 108
El@@ 108
Long@@ 108
PT@@ 108
complex 108
ell@@ 108
method 108
news 108
nm 108
order 108
then 108
uc@@ 108
मोबा@@ 108
सोड 108
1773 107
1812 107
300,000 107
53@@ 107
BR@@ 107
Cap@@ 107
Patt@@ 107
Samsung 107
Sub@@ 107
ber@@ 107
bl@@ 107
day 107
ev@@ 107
for@@ 107
include 107
year 107
π@@ 107
σ 107
1816 106
1823 106
365 106
420 106
AIDS 106
Av@@ 106
BO@@ 106
EM@@ 106
PR@@ 106
Temple 106
cl@@ 106
code 106
dic@@ 106
gi@@ 106
indi@@ 106
ists 106
ms 106
ola 106
tive 106
tu@@ 106
± 106
सहम@@ 106
ு@@ 106
162 105
1764 105
1788 105
204 105
DM 105
Hy@@ 105
RI@@ 105
Ser@@ 105
Sony 105
States 105
circuit 105
est 105
inc@@ 105
á@@ 105
विटा@@ 105
सामु@@ 105
জ@@ 105
1780 104
1790 104
1798 104
250,000 104
Ap@@ 104
College 104
EG 104
FO@@ 104
H2O 104
Khan 104
One 104
ali@@ 104
constant 104
ist@@ 104
less 104
under 104
ym@@ 104
ہ 104
विधे@@ 104
হ@@ 104
ಾ@@ 104
1,200 103
1774 103
4.3 103
5.0 103
AX 103
Category 103
Pl@@ 103
San@@ 103
aur 103
gen@@ 103
ili@@ 103
ish 103
ric 103
wave 103
work 103
years 103
� 103
6.2 102
87@@ 102
CN@@ 102
Col@@ 102
E. 102
LP 102
NSA 102
North 102
ja 102
ly@@ 102
och@@ 102
ode 102
ole 102
period 102
public@@ 102
south 102
ye 102
वीप@@ 102
हथिय@@ 102
ਾ@@ 102
1757 101
1784 101
181 101
3.7 101
64@@ 101
Bu@@ 101
DI 101
KP 101
Ma@@ 101
ROM 101
SB 101
area 101
ax 101
ena 101
eng@@ 101
ga@@ 101
high 101
ley 101
north 101
numbers 101
te@@ 101
using 101
ط@@ 101
￼ 101
38.@@ 100
Association 100
Gu@@ 100
ICC 100
J. 100
LE@@ 100
etic 100
ile 100
ser@@ 100
super@@ 100
ty 100
ν 100
नामां@@ 100
ാ@@ 100
178 99
1795 99
2,8@@ 99
By 99
CI 99
Central 99
Des@@ 99
Em@@ 99
SN@@ 99
Web 99
back 99
du 99
fer@@ 99
hin@@ 99
ors 99
phot@@ 99
pp@@ 99
ure 99
ό@@ 99
о 99
0.8 98
183 98
215 98
37.@@ 98
All 98
CF@@ 98
Ig@@ 98
Tra@@ 98
U.@@ 98
imp@@ 98
io 98
ion@@ 98
ography 98
our@@ 98
sk@@ 98
wal@@ 98
117@@ 97
192@@ 97
2,9@@ 97
22,@@ 97
As@@ 97
FC 97
HC 97
HE@@ 97
I.@@ 97
Society 97
ba 97
change 97
ee 97
ella 97
ging 97
gu@@ 97
ni 97
rate 97
ted 97
ts@@ 97
unit 97
way 97
ί@@ 97
θ 97
1556 96
177 96
1802 96
184 96
193@@ 96
404 96
5.2 96
5.6 96
9,000 96
Co 96
DE 96
EP 96
IO@@ 96
asa 96
au 96
electro@@ 96
ita 96
ling 96
list 96
oda 96
ox@@ 96
que 96
ram 96
them 96
vol@@ 96
तमिल@@ 96
1760 95
180@@ 95
3.8 95
80,000 95
Ban@@ 95
HP 95
PR 95
Res@@ 95
ability 95
ek@@ 95
ga 95
heat 95
minor 95
my 95
ong@@ 95
rh@@ 95
st 95
ung 95
पसी 95
ம@@ 95
1822 94
195@@ 94
221 94
4.6 94
6.0 94
Dev@@ 94
Mac@@ 94
School 94
Siemens 94
T. 94
aria 94
equation 94
ets 94
mat@@ 94
pressure 94
rec@@ 94
ular 94
yp@@ 94
گ@@ 94
ہ@@ 94
धारण@@ 94
ల@@ 94
ರ@@ 94
193 93
2,0@@ 93
25,@@ 93
310 93
3500 93
5.1 93
AG@@ 93
Ag@@ 93
Comp@@ 93
DO@@ 93
DT 93
MT@@ 93
V8 93
ce 93
cell 93
dh@@ 93
gle@@ 93
made 93
pre@@ 93
si 93
systems 93
ti 93
γ 93
हमे@@ 93
171 92
176 92
1787 92
23,@@ 92
232 92
48.@@ 92
69@@ 92
Can@@ 92
Council 92
Development 92
Great 92
MV 92
NR@@ 92
R. 92
Social 92
dar 92
mer@@ 92
neur@@ 92
tor 92
« 92
н 92
मचार@@ 92
सऊ@@ 92
179 91
2,7@@ 91
245 91
275 91
325 91
5.4 91
CV 91
Cy@@ 91
ET 91
EU 91
GE@@ 91
ML@@ 91
S. 91
William 91
cos@@ 91
district 91
do@@ 91
osa 91
ro 91
ther@@ 91
und@@ 91
β@@ 91
720 90
Company 90
DB@@ 90
FIFA 90
H1 90
MB 90
R.@@ 90
SL 90
acid 90
ber 90
co 90
da@@ 90
dr@@ 90
fl@@ 90
han 90
my@@ 90
off 90
pi@@ 90
ऋ 90
1813 89
2.9 89
227 89
30,@@ 89
35.@@ 89
Ha@@ 89
Is@@ 89
PG 89
Pat@@ 89
Prot@@ 89
Pur@@ 89
Red@@ 89
Sur@@ 89
adi@@ 89
being 89
eth@@ 89
fac@@ 89
ini 89
kar 89
ps 89
rot@@ 89
sur@@ 89
п@@ 89
ి@@ 89
1540 88
173 88
B. 88
Cat@@ 88
GI 88
General 88
Ma 88
Ni@@ 88
Pre@@ 88
Ti@@ 88
UI 88
alp@@ 88
angle 88
ants 88
ational 88
ds 88
eh@@ 88
ell 88
given 88
life 88
ota 88
rac@@ 88
space 88
א@@ 88
बिनेट 88
बीका@@ 88
ச@@ 88
ക@@ 88
1550 87
1763 87
1785 87
2,5@@ 87
28,@@ 87
39.@@ 87
88@@ 87
AE@@ 87
C. 87
GNU 87
K. 87
Mag@@ 87
Mc@@ 87
Rajasthan 87
Science 87
VC 87
West 87
ales 87
development 87
esh 87
group 87
gs@@ 87
km2 87
ometer 87
place 87
product 87
trans@@ 87
ী 87
ப@@ 87
1620 86
174 86
1807 86
1809 86
194 86
196@@ 86
226 86
26,@@ 86
265 86
74@@ 86
99.@@ 86
AH 86
BD 86
CT@@ 86
London 86
Mer@@ 86
Mor@@ 86
Ta@@ 86
asp@@ 86
atti 86
cc 86
company 86
example 86
following 86
ganj 86
iti@@ 86
let 86
я 86
ऴ 86
ॊ 86
ા@@ 86
ར@@ 86
1756 85
1810 85
208 85
400,000 85
BE@@ 85
Ca@@ 85
Chinese 85
E.@@ 85
Is 85
LLC 85
Li@@ 85
Pra@@ 85
RT 85
SMS 85
Server 85
VIII 85
WW@@ 85
ard 85
bh@@ 85
class 85
ery 85
gl@@ 85
men 85
ocene 85
sm@@ 85
tor@@ 85
ua 85
ِ@@ 85
मुता@@ 85
वाभा@@ 85
ਸ@@ 85
1,2@@ 84
1782 84
199 84
290 84
47.@@ 84
5.3 84
70,000 84
A. 84
Char@@ 84
GH 84
History 84
Linux 84
Met@@ 84
Mi@@ 84
Pr@@ 84
SF 84
Year 84
ama 84
ass@@ 84
ato 84
effect 84
gas 84
hu@@ 84
human 84
inf@@ 84
key 84
ko 84
ose 84
out@@ 84
sol@@ 84
tel@@ 84
ов@@ 84
अनुया@@ 84
222 83
3.9 83
630 83
Ga@@ 83
HP@@ 83
SR 83
Union 83
act@@ 83
ap 83
br@@ 83
champ 83
dy@@ 83
magnetic 83
ment 83
min@@ 83
section 83
tion 83
ut 83
you 83
ск@@ 83
ы@@ 83
यावसा@@ 83
■ 83
0.9 82
1660 82
194@@ 82
530 82
DV@@ 82
Dynasty 82
East 82
Gan@@ 82
He@@ 82
Life 82
N1 82
P. 82
Sanctuary 82
UTC 82
XML 82
ag 82
ally 82
anti 82
book 82
city 82
ck@@ 82
com@@ 82
cre@@ 82
ere 82
free 82
har 82
hind@@ 82
ise 82
kg 82
later 82
mod@@ 82
ophy@@ 82
phase 82
real 82
res@@ 82
side 82
small 82
sw@@ 82
vi 82
while 82
à@@ 82
γ@@ 82
শ@@ 82
1748 81
1791 81
1794 81
191 81
24,@@ 81
305 81
6.1 81
950 81
Book 81
China 81
HA 81
Kam@@ 81
Vi@@ 81
Vis@@ 81
ality 81
ash 81
cells 81
ck 81
ents 81
ey 81
ib@@ 81
near 81
onic 81
part 81
radi@@ 81
ste@@ 81
surface 81
ulation 81
uri 81
í@@ 81
ɛ@@ 81
δ@@ 81
औपनिवे@@ 81
দ 81
৷ 81
1536 80
196 80
Air 80
Bas@@ 80
C.@@ 80
Day 80
FM 80
Health 80
High 80
Ho@@ 80
Law 80
ML 80
Mand@@ 80
asi@@ 80
base 80
dec@@ 80
den@@ 80
ess 80
ice 80
oma 80
tag@@ 80
tal@@ 80
ā 80
ō@@ 80
आरं@@ 80
ਰ@@ 80
வ@@ 80
150,000 79
207 79
228 79
29,@@ 79
2O@@ 79
302 79
560 79
96@@ 79
API 79
CL 79
CPU 79
ET@@ 79
Her@@ 79
James 79
King 79
Mur@@ 79
No@@ 79
You 79
ek 79
ence 79
long 79
nagar 79
oth@@ 79
pan@@ 79
prot@@ 79
self 79
গ@@ 79
ര@@ 79
1605 78
1739 78
198@@ 78
214 78
238 78
301 78
303 78
7.2 78
Bhar@@ 78
Black 78
CR 78
Do@@ 78
Music 78
Real@@ 78
Santa 78
Tr@@ 78
century 78
control 78
functions 78
gar@@ 78
ings 78
ized 78
science 78
source 78
tw@@ 78
ul 78
दैव 78
ਿ@@ 78
ി@@ 78
1740 77
189 77
198 77
21,@@ 77
233 77
AE 77
BD@@ 77
Far@@ 77
GHz 77
Island 77
Kingdom 77
MT 77
aka 77
art@@ 77
ax@@ 77
different 77
sam@@ 77
sin 77
tha 77
umb@@ 77
und 77
ে 77
197 76
2,6@@ 76
2030 76
234 76
375 76
DL 76
H. 76
IN 76
KO 76
Pu@@ 76
SH 76
So@@ 76
Sol@@ 76
ain 76
analysis 76
case 76
chromosome 76
els 76
ich@@ 76
ill@@ 76
illa 76
lan@@ 76
led 76
mg 76
page 76
public 76
ren@@ 76
so@@ 76
sources 76
table 76
temperature 76
آ@@ 76
ى 76
ंडेशन 76
वारिक 76
চ@@ 76
243 75
4.9 75
At@@ 75
DOS 75
Da@@ 75
EP@@ 75
GT 75
MA@@ 75
SEC 75
UL@@ 75
cal@@ 75
comm@@ 75
electron 75
fi@@ 75
found 75
hr@@ 75
ke@@ 75
last 75
run 75
sing@@ 75
» 75
מ@@ 75
ང 75
1768 74
1778 74
27,@@ 74
737 74
89@@ 74
Aj@@ 74
At 74
Ba@@ 74
Bah@@ 74
ED@@ 74
Gi@@ 74
Mu@@ 74
Ob@@ 74
Pe@@ 74
RCA 74
SH@@ 74
air@@ 74
char@@ 74
cr@@ 74
cycle 74
ix 74
lic 74
pura 74
sa@@ 74
social 74
tom@@ 74
ə 74
ά@@ 74
С@@ 74
в 74
е 74
ऍ 74
ன 74
ు@@ 74
ོ@@ 74
1786 73
1797 73
1808 73
186 73
209 73
218 73
237 73
5.8 73
540 73
8.1 73
DB 73
Dh@@ 73
Foundation 73
George 73
NC 73
Power 73
TH@@ 73
To 73
Ur@@ 73
action 73
cur@@ 73
den 73
des@@ 73
go@@ 73
m2 73
od 73
ost@@ 73
ote 73
points 73
return 73
standard 73
very 73
ū@@ 73
ّ@@ 73
ী@@ 73
1530 72
187 72
191@@ 72
1st 72
216 72
223 72
251 72
307 72
322 72
85@@ 72
EE@@ 72
ME 72
Mak@@ 72
Medical 72
NBA 72
Op@@ 72
Sch@@ 72
Sir 72
XX 72
background 72
bs@@ 72
chi 72
dit 72
family 72
go 72
information 72
iv 72
ow@@ 72
red 72
region 72
wara 72
ó@@ 72
ра@@ 72
रासाय@@ 72
ি 72
ಿ@@ 72
.1 71
273 71
CAM 71
DO 71
David 71
Framework 71
Gang@@ 71
Mes@@ 71
NC@@ 71
Sanskrit 71
Space 71
To@@ 71
UV 71
Yam@@ 71
bar 71
ean 71
ens@@ 71
int@@ 71
ites 71
ka@@ 71
lie 71
mm@@ 71
now 71
tical 71
ven@@ 71
word 71
ئ@@ 71
परिव@@ 71
ত 71
430 70
ANC 70
Centre 70
DD 70
ER 70
GO@@ 70
Gen@@ 70
Lo@@ 70
MIT 70
Robert 70
Shah@@ 70
War@@ 70
acy 70
ao 70
cat@@ 70
ensis 70
hab@@ 70
hel@@ 70
identity 70
ines 70
ond@@ 70
ratio 70
single 70
those 70
version 70
we@@ 70
224 69
241 69
248 69
2nd 69
309 69
35,@@ 69
36,@@ 69
4.8 69
Bag@@ 69
CY@@ 69
District 69
Ds 69
Earth 69
Er@@ 69
Fe 69
Gra@@ 69
Han@@ 69
House 69
However 69
Information 69
Je@@ 69
La@@ 69
Man 69
N. 69
Nu@@ 69
PP@@ 69
Pradesh 69
Var@@ 69
anda 69
art 69
dae 69
down 69
hat 69
head 69
kHz 69
ker 69
level 69
ll 69
motion 69
mu@@ 69
pa 69
pat@@ 69
reaction 69
rop@@ 69
х@@ 69
ה@@ 69
अयो@@ 69
खाबाद 69
बात@@ 69
‚ 69
1658 68
1689 68
1699 68
1759 68
1767 68
286 68
34.@@ 68
410 68
625 68
7.1 68
7.3 68
BL 68
Br@@ 68
CIA 68
Cav@@ 68
Cu@@ 68
EL@@ 68
ES 68
Equ@@ 68
Gh@@ 68
Kha@@ 68
List 68
MGM 68
No 68
Open@@ 68
See 68
Wildlife 68
ction 68
ft 68
hum@@ 68
itt@@ 68
loc@@ 68
m.@@ 68
mi@@ 68
ori 68
rule 68
star 68
therapy 68
voltage 68
য@@ 68
1720 67
1769 67
213 67
236 67
244 67
610 67
BSD 67
Ber@@ 67
Bur@@ 67
City 67
Delhi 67
Dr. 67
EPA 67
Fer@@ 67
GT@@ 67
Gal@@ 67
Indi@@ 67
Micro@@ 67
Nap@@ 67
Office 67
Park 67
Some 67
TR@@ 67
UFC 67
arh 67
before 67
ces 67
cu@@ 67
cul@@ 67
due 67
flu@@ 67
frequency 67
ler 67
low 67
much 67
over@@ 67
properties 67
river 67
tic@@ 67
ue 67
uk 67
wan 67
चीत 67
सनिक 67
మ@@ 67
မ@@ 67
.S. 66
1545 66
1680 66
1729 66
1752 66
1766 66
219 66
231 66
252 66
510 66
520 66
A1 66
Ash@@ 66
Bel@@ 66
COM 66
Cent@@ 66
Charles 66
England 66
Go@@ 66
IG@@ 66
Kat@@ 66
Le 66
Tal@@ 66
Tit@@ 66
anth@@ 66
are@@ 66
col@@ 66
device 66
e.g. 66
edral 66
electrons 66
history 66
king 66
mah@@ 66
mer 66
of@@ 66
oil 66
ona 66
ram@@ 66
rit@@ 66
root 66
scope 66
ē@@ 66
ч 66
س 66
सोसाइ@@ 66
1690 65
1781 65
266 65
4.7 65
440 65
5.9 65
App@@ 65
Hol@@ 65
IK 65
Live 65
Ltd 65
OR 65
On@@ 65
Pro 65
Ros@@ 65
Service 65
Shi@@ 65
WD 65
aj 65
alis 65
ero@@ 65
ham 65
how 65
ness 65
ok 65
poly@@ 65
range 65
scale 65
she 65
tes 65
tro@@ 65
ush@@ 65
van@@ 65
ves 65
ys 65
É@@ 65
ō 65
धानिक 65
า@@ 65
1650 64
1779 64
1811 64
3,0@@ 64
304 64
333 64
335 64
6.7 64
Army 64
BI 64
Cr@@ 64
FIA 64
French 64
HO@@ 64
HS 64
Human 64
PI 64
She 64
She@@ 64
Syn@@ 64
These 64
Trans@@ 64
ami 64
ard@@ 64
cent@@ 64
chemical 64
i.@@ 64
ida 64
kan@@ 64
lia 64
lin@@ 64
log 64
oli 64
omet@@ 64
ott@@ 64
oy@@ 64
political 64
tions 64
true 64
М@@ 64
ھ@@ 64
ऑ 64
ऩ 64
ৰ@@ 64
ಕ@@ 64
‏ 64
1520 63
1580 63
1670 63
247 63
259 63
BAFTA 63
Cer@@ 63
Code 63
EM 63
Global 63
Hydro@@ 63
Joseph 63
Lad@@ 63
Name 63
Net@@ 63
Network 63
Plus 63
Por@@ 63
Republic 63
Sea 63
Ten@@ 63
UT@@ 63
Vol@@ 63
Xbox 63
above 63
book@@ 63
charge 63
could 63
ear@@ 63
factor 63
hyper@@ 63
ins@@ 63
je@@ 63
lis 63
major 63
mes@@ 63
negative 63
non@@ 63
old 63
position 63
quad@@ 63
reg@@ 63
sson 63
sy@@ 63
ten@@ 63
what 63
ב@@ 63
ל@@ 63
वसीय 63
ল 63
ు 63
1610 62
1710 62
1728 62
1755 62
255 62
321 62
BP 62
Ben@@ 62
CN 62
Center 62
Cha@@ 62
D.@@ 62
DH@@ 62
Dar@@ 62
HF 62
His 62
IEC 62
IST 62
Language 62
Nagar 62
Road 62
Systems 62
Time 62
Tor@@ 62
VE 62
VE@@ 62
Wal@@ 62
ages 62
atus 62
bi 62
bs 62
cap@@ 62
dar@@ 62
four 62
ids 62
ika 62
istic 62
ius 62
large 62
often 62
onom@@ 62
particles 62
ray 62
result 62
sion 62
sive 62
tec@@ 62
test 62
è@@ 62
і@@ 62
غ@@ 62
ُ@@ 62
वियत 62
ു@@ 62
1527 61
1618 61
1724 61
1730 61
229 61
405 61
460 61
911 61
FF 61
IL 61
IUCN 61
Jag@@ 61
Red 61
SV@@ 61
Theory 61
There 61
ail@@ 61
amm@@ 61
another 61
axis 61
books 61
bra@@ 61
dead 61
ema 61
ger 61
gra@@ 61
great 61
ham@@ 61
hand 61
ier 61
ki@@ 61
kr@@ 61
lic@@ 61
na@@ 61
positive 61
pus 61
several 61
since 61
than@@ 61
village 61
ī 61
ɑ@@ 61
η@@ 61
υ@@ 61
إ@@ 61
ृद 61
ి 61
― 61
262 60
285 60
46.@@ 60
6.8 60
De 60
Eric@@ 60
European 60
FF@@ 60
Gor@@ 60
Government 60
HR 60
HR@@ 60
Ki@@ 60
Kumar 60
Limited 60
MI 60
Me 60
N.@@ 60
Out@@ 60
RN@@ 60
Ref@@ 60
SB@@ 60
Sk@@ 60
Sw@@ 60
USD 60
War 60
aph@@ 60
comp@@ 60
ey@@ 60
government 60
home 60
international 60
isher@@ 60
itive 60
kn@@ 60
linear 60
media 60
nam 60
oo 60
res 60
see 60
structure 60
thi 60
total 60
tube 60
К@@ 60
ол@@ 60
، 60
ض@@ 60
ऒ@@ 60
ੰ@@ 60
ం@@ 60
త@@ 60
1250 59
1688 59
1749 59
1753 59
36.@@ 59
37,@@ 59
501 59
6.3 59
6.4 59
960 59
Bl@@ 59
C1 59
CV@@ 59
Commission 59
Ed@@ 59
Energy 59
Engineering 59
Ford 59
From 59
G. 59
Jump 59
MR 59
March 59
Moh@@ 59
Pa@@ 59
RIAA 59
Ran@@ 59
T.@@ 59
White 59
around 59
aus@@ 59
because 59
can@@ 59
country 59
det@@ 59
early 59
edi@@ 59
esis 59
fier 59
frame 59
general 59
hem@@ 59
hor@@ 59
lam@@ 59
lex@@ 59
main 59
material 59
mo 59
music 59
oli@@ 59
ord@@ 59
own 59
phy@@ 59
shi@@ 59
tra@@ 59
ture 59
utt@@ 59
var@@ 59
xx 59
ْ@@ 59
1534 58
1703 58
1754 58
1796 58
2025 58
311 58
49.@@ 58
680 58
AK@@ 58
Archiv@@ 58
BB@@ 58
BCE 58
Bor@@ 58
British 58
Cam@@ 58
Gov@@ 58
Hel@@ 58
IL@@ 58
Internet@@ 58
Ko@@ 58
Lin@@ 58
Publ@@ 58
TO@@ 58
Thomas 58
ential 58
final 58
gam@@ 58
ik 58
including 58
ks 58
nu 58
ont@@ 58
open 58
plane 58
por@@ 58
row 58
software 58
stan@@ 58
states 58
ster@@ 58
wari 58
മ@@ 58
★ 58
1665 57
1758 57
242 57
257 57
258 57
31.@@ 57
312 57
39,@@ 57
America 57
Bad@@ 57
Chand@@ 57
EE 57
Education 57
FE@@ 57
Fi@@ 57
Fre@@ 57
GC 57
Hem@@ 57
June 57
K.@@ 57
Media 57
Mel@@ 57
PD 57
Paul 57
Psych@@ 57
Rec@@ 57
SO 57
Tir@@ 57
W. 57
act 57
ats 57
bre@@ 57
ff@@ 57
house 57
ine@@ 57
iy@@ 57
mal 57
ments 57
mic 57
must 57
ni@@ 57
nuclear 57
object 57
odi@@ 57
physical 57
research 57
ry@@ 57
sem@@ 57
should 57
son@@ 57
sum 57
syn@@ 57
tran@@ 57
uses 57
wal 57
won 57
yan 57
yu 57
ар@@ 57
ор@@ 57
धपुर 57
ਨ@@ 57
ட@@ 57
ల 57
1603 56
1627 56
282 56
306 56
3rd 56
470 56
580 56
Airport 56
Force 56
Games 56
Gy@@ 56
Hal@@ 56
Intel 56
Kur@@ 56
MH 56
Public 56
Ret@@ 56
Sud@@ 56
Suk@@ 56
VA 56
ace 56
ach 56
against 56
ail 56
ame 56
arith@@ 56
atomic 56
ators 56
black 56
cross 56
ear 56
emia 56
forces 56
gen 56
ger@@ 56
ination 56
industry 56
inn@@ 56
modern 56
natural 56
net@@ 56
ocar@@ 56
ocy@@ 56
onlyinclude 56
search 56
tur@@ 56
variable 56
without 56
ys@@ 56
ñ@@ 56
ʲ@@ 56
А@@ 56
з@@ 56
रारं@@ 56
ਹ@@ 56
క@@ 56
ಮ@@ 56
1517 55
1533 55
1648 55
1704 55
1713 55
188@@ 55
249 55
308 55
313 55
345 55
390 55
401 55
7th 55
All@@ 55
Business 55
D. 55
Facebook 55
Green 55
HBO 55
Khar@@ 55
L. 55
Mac 55
Management 55
My 55
NAS@@ 55
Pap@@ 55
Poly@@ 55
Series 55
Sim@@ 55
Tel@@ 55
The@@ 55
Thir@@ 55
Visual 55
cer@@ 55
conver@@ 55
did 55
disease 55
eda 55
education 55
endra 55
ese 55
even 55
fo@@ 55
hand@@ 55
iri 55
iss@@ 55
ities 55
ition 55
lab@@ 55
mann 55
ou 55
physics 55
pol@@ 55
potential 55
published 55
rat@@ 55
resist@@ 55
term 55
una 55
val@@ 55
vector 55
θ@@ 55
چ@@ 55
हांग@@ 55
୍ 55
న@@ 55
བ@@ 55
1531 54
1542 54
1555 54
1630 54
1708 54
1725 54
254 54
281 54
Au@@ 54
August 54
Bay 54
Bre@@ 54
Cur@@ 54
F. 54
GS 54
If 54
Ke@@ 54
Kon@@ 54
Long 54
NASA 54
NG@@ 54
Pi@@ 54
RM 54
Raw@@ 54
Royal 54
SF@@ 54
Sab@@ 54
TD 54
Tam@@ 54
Val@@ 54
Western 54
alli 54
ania 54
ask@@ 54
atory 54
bank 54
bul@@ 54
c.@@ 54
cm 54
dig@@ 54
ete 54
gy@@ 54
mag@@ 54
mean 54
nature 54
pet@@ 54
ref@@ 54
sus 54
ten 54
ver 54
â@@ 54
ε 54
В@@ 54
ни@@ 54
ক 54
ம 54
ல@@ 54
ས@@ 54
ṭ@@ 54
中@@ 54
2,4@@ 53
2024 53
246 53
253 53
295 53
April 53
BF 53
BR 53
Bil@@ 53
Brah@@ 53
DF 53
ED 53
HM 53
I. 53
Inf@@ 53
Jean 53
MG 53
MW 53
Middle 53
Mul@@ 53
Pri@@ 53
Project 53
Records 53
Reg@@ 53
Region 53
Tur@@ 53
VT 53
Web@@ 53
avi@@ 53
del@@ 53
duc@@ 53
equ@@ 53
ess@@ 53
hydro@@ 53
indic@@ 53
ission 53
mil@@ 53
mol 53
ory 53
pri@@ 53
property 53
py@@ 53
rep@@ 53
rho@@ 53
rpm 53
rut@@ 53
sp 53
species 53
team 53
terms 53
the@@ 53
top 53
women 53
æ 53
ð 53
р 53
ָ@@ 53
ذ@@ 53
कारात 53
दमी 53
મ@@ 53
ய@@ 53
గ@@ 53
ನ@@ 53
1564 52
1640 52
1659 52
1751 52
1777 52
197@@ 52
406 52
5.7 52
6th 52
7.7 52
Academy 52
Amb@@ 52
Baz@@ 52
CoV 52
Court 52
Cre@@ 52
Dec@@ 52
EX@@ 52
Edward 52
France 52
Hi@@ 52
ISA 52
Im@@ 52
Jam@@ 52
Lake 52
Other 52
Pul@@ 52
Ri@@ 52
Standard 52
UC@@ 52
Vista 52
ade@@ 52
among 52
anc@@ 52
bal@@ 52
diff@@ 52
inary 52
index 52
kal@@ 52
med@@ 52
nic@@ 52
optera 52
said 52
sal@@ 52
sar@@ 52
stage 52
support 52
technology 52
tia 52
ulus 52
¤ 52
§ 52
à 52
ð@@ 52
ں 52
मुंगे@@ 52
ప@@ 52
ག@@ 52
″ 52
1450 51
1528 51
1543 51
1598 51
1612 51
1743 51
1762 51
1771 51
2200 51
43,@@ 51
9th 51
Bha@@ 51
FD@@ 51
Hor@@ 51
July 51
Kor@@ 51
Maj@@ 51
Na 51
PL 51
UN 51
Value 51
Wy@@ 51
XIV 51
XV 51
anus 51
ass 51
average 51
best 51
bin@@ 51
ble 51
d.@@ 51
dist@@ 51
emb@@ 51
ern@@ 51
ex 51
gn@@ 51
hol@@ 51
hu 51
hyp@@ 51
inae 51
lat@@ 51
leg@@ 51
lines 51
make 51
metal 51
ox 51
phone 51
present 51
rom@@ 51
specific 51
str@@ 51
tion@@ 51
uli@@ 51
ute 51
vo@@ 51
yl 51
zero 51
zi@@ 51
Δ@@ 51
й@@ 51
पिथो@@ 51
ম 51
ਮ@@ 51
√ 51
▪ 51
大@@ 51
1492 50
1661 50
1702 50
4th 50
512 50
620 50
Ari@@ 50
Bank 50
Bra@@ 50
C2 50
Dan@@ 50
Du@@ 50
Dur@@ 50
Internet 50
Min@@ 50
Nam@@ 50
Phot@@ 50
Pol@@ 50
RO 50
Sat@@ 50
Sciences 50
Son@@ 50
Studies 50
Super 50
V. 50
asis 50
features 50
get 50
important 50
isa 50
iya 50
jan 50
map@@ 50
ope 50
plac@@ 50
ral 50
short 50
tab@@ 50
tar@@ 50
times 50
udi 50
von 50
wan@@ 50
yan@@ 50
ze 50
zy@@ 50
έ@@ 50
ز 50
ف 50
ধ@@ 50
ভ@@ 50
ವ@@ 50
1541 49
1631 49
1715 49
1719 49
1722 49
1727 49
272 49
8th 49
Ali 49
Android 49
Ay@@ 49
BW 49
Bab@@ 49
Canada 49
Del@@ 49
Detail 49
Fin@@ 49
GN@@ 49
German 49
HI 49
IEEE 49
Ku@@ 49
Land 49
Ly@@ 49
MB@@ 49
OP 49
October 49
Of 49
Old 49
PA@@ 49
Sad@@ 49
Sem@@ 49
Vo@@ 49
andi 49
anga 49
asi 49
beam 49
bus 49
computer 49
dium 49
double 49
dy 49
ef@@ 49
endish 49
equal 49
fact 49
learning 49
lec@@ 49
let@@ 49
lig@@ 49
mot@@ 49
ori@@ 49
principle 49
radiation 49
sil@@ 49
square 49
sts 49
study 49
sv@@ 49
sy 49
tin@@ 49
tit@@ 49
uru 49
white 49
za 49
І 49
ь@@ 49
נ@@ 49
दूस@@ 49
ಿ 49
ು@@ 49
വ@@ 49
ร@@ 49
ས 49
း@@ 49
1638 48
1666 48
1672 48
189@@ 48
20th 48
34,@@ 48
Bak@@ 48
Board 48
CF 48
CH 48
Dhar@@ 48
Dig@@ 48
Egypt 48
Electro@@ 48
Henry 48
OT 48
PE 48
Pa 48
Pale@@ 48
Ra@@ 48
Sang@@ 48
Station 48
Tu@@ 48
aff@@ 48
atics 48
ayan 48
bur@@ 48
course 48
ders 48
don 48
ency 48
form@@ 48
forms 48
gle 48
ie@@ 48
ls 48
matter 48
orph@@ 48
ow 48
ration 48
ron@@ 48
sel@@ 48
third 48
uch@@ 48
uli 48
values 48
yi 48
ysis 48
án 48
ω 48
ּ@@ 48
ੀ 48
ி 48
జ@@ 48
ိ@@ 48
ြ@@ 48
.C. 47
1350 47
1572 47
1576 47
1632 47
1718 47
184@@ 47
315 47
5th 47
AA@@ 47
Ann@@ 47
Cop@@ 47
January 47
Jav@@ 47
Krish@@ 47
LD 47
Location 47
Louis 47
Mach@@ 47
Non 47
Pad@@ 47
Pakistani 47
Sudan 47
Sy@@ 47
Test 47
WT@@ 47
When 47
ade 47
aire 47
ast 47
ban@@ 47
below 47
born 47
business 47
by@@ 47
ce@@ 47
che 47
come 47
direct 47
emp@@ 47
eral 47
eta 47
etics 47
food 47
half 47
having 47
icity 47
kin@@ 47
land@@ 47
late 47
m3 47
ner@@ 47
ook@@ 47
organic 47
others 47
output 47
particle 47
post@@ 47
quantum 47
sha@@ 47
sl@@ 47
take 47
thal@@ 47
thus 47
ton@@ 47
took 47
ule 47
ɔ@@ 47
ɡ@@ 47
ʁ@@ 47
Δ 47
י 47
ع 47
ོ 47
1535 46
1628 46
1642 46
1652 46
1667 46
1734 46
1744 46
261 46
2A 46
33,@@ 46
395 46
44,@@ 46
After 46
Aqu@@ 46
Asia 46
B1 46
CG 46
CM 46
Deb@@ 46
E9E9E9 46
Fl@@ 46
Gon@@ 46
Ka@@ 46
Kol@@ 46
Library 46
MD 46
Mang@@ 46
Mil@@ 46
Mobile 46
Mos@@ 46
Mus@@ 46
PP 46
People 46
Pos@@ 46
Rat@@ 46
SARS 46
Services 46
Sha@@ 46
Shar@@ 46
Super@@ 46
aries 46
article 46
asia 46
back@@ 46
blog@@ 46
blood 46
bor@@ 46
bridge 46
cin@@ 46
eli 46
engineering 46
hra 46
iPhone 46
ig 46
ila 46
ira 46
ire 46
isation 46
kW 46
management 46
million 46
motor 46
mus@@ 46
nucleus 46
onal 46
pi 46
quot 46
stic 46
story 46
symbol 46
tt@@ 46
unn@@ 46
नवं@@ 46
ॿ@@ 46
ਤ@@ 46
ர 46
ಂ@@ 46
ུ@@ 46
1558 45
1560 45
1606 45
1716 45
1745 45
178@@ 45
ACS 45
Church 45
Economic 45
FP 45
God 45
Index 45
KO@@ 45
Lord 45
NWA 45
PO 45
Py@@ 45
Richard 45
Screen 45
Sin@@ 45
Sing@@ 45
Sul@@ 45
Tamil 45
Ther@@ 45
Um@@ 45
York 45
ava 45
cc@@ 45
dem@@ 45
design 45
engine 45
fil@@ 45
fin@@ 45
ft@@ 45
full 45
gang@@ 45
gro@@ 45
input 45
lar@@ 45
magnitude 45
national 45
path@@ 45
pole 45
population 45
ras@@ 45
stone 45
sul@@ 45
tics 45
ud 45
van 45
wi@@ 45
within 45
wood 45
zu 45
ç@@ 45
ʊ@@ 45
ч@@ 45
ש@@ 45
ং@@ 45
వ@@ 45
1596 44
1597 44
1611 44
1624 44
1644 44
1671 44
1709 44
1717 44
Also 44
Award 44
BL@@ 44
Bang@@ 44
CIS 44
El 44
Euler 44
Hume 44
JP 44
Jan@@ 44
Journal 44
Kad@@ 44
Les 44
Ny@@ 44
ODI 44
Pres@@ 44
Sag@@ 44
Sav@@ 44
Security 44
Sil@@ 44
Sri 44
Ul@@ 44
Us 44
WH@@ 44
Water 44
ano 44
bri@@ 44
condition 44
defined 44
ds@@ 44
dur@@ 44
elements 44
event 44
exp@@ 44
ged 44
hav@@ 44
hom@@ 44
ions 44
kon@@ 44
length 44
lex 44
lo 44
map 44
mathematical 44
medium 44
mel@@ 44
ool 44
oral 44
products 44
sh 44
size 44
templ@@ 44
trade 44
uti@@ 44
vis 44
worth 44
zone 44
φ@@ 44
ύ@@ 44
П@@ 44
ה 44
শ 44
ਜ@@ 44
ದ@@ 44
≤ 44
1512 43
1582 43
1685 43
1705 43
1712 43
1714 43
1726 43
1746 43
ABA 43
ARC 43
Alt@@ 43
Arch@@ 43
BAS@@ 43
CB 43
CBE 43
Class 43
Control 43
Cro@@ 43
Department 43
Dy@@ 43
End 43
HD@@ 43
IJ@@ 43
IR 43
Jal@@ 43
Mania 43
María 43
May 43
Organ@@ 43
Pen@@ 43
Period 43
RB 43
RF 43
Spec@@ 43
Sum@@ 43
They 43
Tro@@ 43
UR 43
We@@ 43
aa 43
ae@@ 43
ais@@ 43
alam 43
bit@@ 43
block 43
chemistry 43
compound 43
countries 43
critical 43
does 43
ela 43
element 43
hot@@ 43
i.e. 43
igh@@ 43
independent 43
integ@@ 43
medicine 43
memory 43
min 43
mph 43
mul@@ 43
ng@@ 43
ones 43
operating 43
oth 43
otic 43
phon@@ 43
post 43
ros 43
sea 43
som@@ 43
spectrum 43
under@@ 43
until 43
written 43
ƒ 43
ɾ@@ 43
ʃ@@ 43
χ@@ 43
ω@@ 43
ְ@@ 43
ث@@ 43
ظ@@ 43
ನ 43
പ@@ 43
င 43
↑ 43
.A. 42
1565 42
1568 42
1575 42
1616 42
1622 42
1653 42
1731 42
425 42
ACP 42
AW@@ 42
Ah@@ 42
And 42
Arm@@ 42
Bud@@ 42
DJ 42
DT@@ 42
Division 42
Dr@@ 42
Grand 42
IF 42
Ind@@ 42
Industrial 42
Kot@@ 42
Kun@@ 42
MM 42
MO 42
Malaysia 42
News 42
Oc@@ 42
Od@@ 42
Paris 42
Post 42
Ray@@ 42
SA@@ 42
SU 42
Soci@@ 42
Star@@ 42
Sun@@ 42
Tab@@ 42
XII 42
aga 42
aram 42
av 42
band 42
became 42
board 42
cla@@ 42
cognitive 42
die 42
dynasty 42
electrical 42
equations 42
face 42
fe@@ 42
gal@@ 42
gan@@ 42
gi 42
good 42
green 42
hara 42
health 42
here 42
ili 42
immun@@ 42
itation 42
jo 42
kt@@ 42
kum@@ 42
lead 42
local 42
making 42
mis@@ 42
mor@@ 42
mus 42
oper@@ 42
original 42
phi@@ 42
production 42
rak@@ 42
ran 42
rays 42
ree 42
san@@ 42
school 42
script 42
tract 42
ules 42
units 42
ville 42
vis@@ 42
ying 42
Ú@@ 42
ː 42
μ 42
ת 42
། 42
0.0 41
1615 41
1669 41
1687 41
1723 41
1736 41
185@@ 41
1A 41
2D 41
49,@@ 41
Art 41
Arthur 41
Big 41
Blue 41
CAD 41
CNN 41
Conc@@ 41
FT 41
Ger@@ 41
Gop@@ 41
Gur@@ 41
HM@@ 41
IM 41
Khan@@ 41
Kin@@ 41
Lam@@ 41
MDR 41
Magnet@@ 41
Many 41
Men@@ 41
Nations 41
Os@@ 41
Pun@@ 41
September 41
Sn@@ 41
Source 41
Two 41
Wik@@ 41
Wrestle@@ 41
aja 41
alb@@ 41
ature 41
aut@@ 41
boo@@ 41
calcul@@ 41
cel@@ 41
circle 41
cus 41
difference 41
dir 41
elle 41
ely 41
ement 41
ett@@ 41
films 41
former 41
fraction 41
groups 41
ho 41
hur@@ 41
iTunes 41
image 41
inal 41
ip 41
ised 41
jun@@ 41
kh 41
ky 41
les@@ 41
lob@@ 41
machine 41
mol@@ 41
node 41
oids 41
ome 41
oor 41
play@@ 41
possible 41
price 41
quar@@ 41
rat 41
ruled 41
service 41
six 41
ta@@ 41
ths 41
tree 41
trig@@ 41
ulum 41
ve@@ 41
yst@@ 41
ze@@ 41
η 41
ق 41
య@@ 41
ా 41
1485 40
1529 40
1562 40
1588 40
1623 40
1675 40
1698 40
1701 40
1721 40
1733 40
179@@ 40
183@@ 40
96.@@ 40
Ach@@ 40
Ask@@ 40
Bin@@ 40
Cin@@ 40
Electronics 40
FBI 40
Free 40
Ka 40
Korea 40
LE 40
LED 40
LV 40
MM@@ 40
Military 40
NCAA 40
Natural 40
Nav@@ 40
Neur@@ 40
Note 40
O. 40
Point 40
Rem@@ 40
Rep@@ 40
Ru@@ 40
Shri 40
TRA@@ 40
U2 40
Ud@@ 40
VM 40
alization 40
ancy 40
ander 40
ans@@ 40
arch@@ 40
ars 40
bel@@ 40
chain 40
children 40
cho@@ 40
considered 40
cos 40
culture 40
days 40
emission 40
enc@@ 40
eng 40
enta 40
ep 40
eric 40
exchange 40
gener@@ 40
generation 40
ges 40
ides 40
imal 40
itor 40
kur@@ 40
mac@@ 40
membrane 40
multip@@ 40
notation 40
onia 40
play 40
problem 40
processing 40
record 40
rem@@ 40
resistance 40
show 40
sia 40
star@@ 40
station 40
still 40
vul@@ 40
wall 40
works 40
yc@@ 40
zz@@ 40
φ 40
ж@@ 40
ц@@ 40
ִ@@ 40
ד@@ 40
ِ 40
गोलिक 40
विपरी@@ 40
প 40
ਾ 40
ന@@ 40
ി 40
ု@@ 40
≥ 40
1510 39
1515 39
1553 39
1561 39
1625 39
1643 39
1664 39
1668 39
1683 39
1706 39
1742 39
40.@@ 39
Basic 39
Bhag@@ 39
Bir@@ 39
Bro@@ 39
Cast@@ 39
EN 39
Electric 39
FI 39
Feature 39
G.@@ 39
Hindu@@ 39
INS@@ 39
Ja@@ 39
Kas@@ 39
Lim@@ 39
NG 39
OECD 39
Path@@ 39
Revolution 39
SG 39
Second 39
Sen 39
Sir@@ 39
Tru@@ 39
UF@@ 39
Vel@@ 39
XVI 39
af 39
aha 39
apuram 39
aris 39
ater 39
awa 39
cat 39
chlor@@ 39
cis 39
ech@@ 39
ental 39
equivalent 39
eter 39
etes 39
every 39
few 39
fire 39
flow 39
gran@@ 39
held 39
ibn 39
idea 39
izing 39
jag@@ 39
ju@@ 39
ktop 39
lip@@ 39
mad@@ 39
market 39
means 39
multiple 39
omi 39
results 39
sar 39
sec@@ 39
ship 39
span 39
spec@@ 39
stad 39
substance 39
top@@ 39
trac@@ 39
udi@@ 39
var 39
vers@@ 39
waves 39
ān 39
ʒ@@ 39
Г@@ 39
ফ@@ 39
વ@@ 39
ு 39
ം 39
ത@@ 39
ല@@ 39
ན 39
្ 39
.D. 38
1519 38
1539 38
1570 38
1609 38
1732 38
38,@@ 38
AU 38
Aer@@ 38
Agency 38
Alpha 38
Ass@@ 38
Authority 38
BB 38
Best 38
Committee 38
Common 38
Computer 38
DA@@ 38
DF@@ 38
Dat@@ 38
Defence 38
Elec@@ 38
FCC 38
Fi 38
Gam@@ 38
Gl@@ 38
ITV 38
Industries 38
Intelligence 38
KA 38
KI 38
L.@@ 38
Lat@@ 38
Mat@@ 38
May@@ 38
New@@ 38
ON 38
Peter 38
Ps 38
Ren@@ 38
Right 38
Sel@@ 38
Shiv@@ 38
Software 38
Su 38
Technologies 38
Vid@@ 38
Yahoo 38
aer@@ 38
always 38
amine 38
ams 38
ats@@ 38
az 38
cip@@ 38
din 38
enia 38
enth@@ 38
equilibrium 38
exc@@ 38
fundamental 38
geometry 38
ils 38
index@@ 38
jan@@ 38
ku 38
lica 38
mechanics 38
meter 38
military 38
needed 38
network 38
oning 38
optical 38
oun@@ 38
ova 38
oy 38
parts 38
plant 38
religious 38
ros@@ 38
sen 38
sky 38
speed 38
statement 38
stra@@ 38
stri@@ 38
tera 38
ters 38
tet@@ 38
theorem 38
thro@@ 38
tivity 38
tt 38
ure@@ 38
ush 38
vic@@ 38
wheel 38
your 38
á 38
ś@@ 38
δ 38
ء 38
भाज@@ 38
याता@@ 38
ৰ 38
ା@@ 38
ರ 38
≡ 38
1150 37
1552 37
1617 37
1649 37
1694 37
1738 37
AO 37
AV 37
Age 37
By@@ 37
Chau@@ 37
Dal@@ 37
Data 37
December 37
Ec@@ 37
Ep@@ 37
FT@@ 37
Fort 37
GM 37
Gr@@ 37
Hill 37
Hz 37
ISS 37
IV@@ 37
Kn@@ 37
Love 37
Lu@@ 37
Med@@ 37
Meg@@ 37
Moto@@ 37
Mun@@ 37
November 37
Pay@@ 37
S.A. 37
Search 37
Special 37
Star 37
Tim@@ 37
VHS 37
Vir@@ 37
We 37
Wh@@ 37
Wil@@ 37
addition 37
ads 37
ake 37
astic 37
basic 37
box 37
built 37
carbon 37
certain 37
cha 37
count 37
cri@@ 37
diagram 37
division 37
economic 37
edit 37
fixed 37
fre@@ 37
game 37
gram 37
height 37
higher 37
ign@@ 37
included 37
ith 37
iti 37
itic 37
kl@@ 37
ko@@ 37
lands 37
lb 37
leaf 37
limit 37
literature 37
mit@@ 37
nar@@ 37
nav@@ 37
olog@@ 37
oris 37
osphere 37
ots 37
pen@@ 37
psych@@ 37
rap@@ 37
related 37
released 37
rif@@ 37
solar 37
solid 37
sphere 37
supply 37
thes@@ 37
tiv@@ 37
tre@@ 37
view 37
wing 37
wrote 37
zh@@ 37
Ω 37
λ 37
ρ 37
Б@@ 37
Р@@ 37
ן 37
ح 37
ई.पू@@ 37
वासीय 37
ॾ@@ 37
த 37
ே@@ 37
ర 37
ന 37
อ@@ 37
ေ@@ 37
1525 36
1532 36
1601 36
1602 36
1608 36
1641 36
1646 36
1651 36
1657 36
40,@@ 36
46,@@ 36
ART 36
Civil 36
Dom@@ 36
Dor@@ 36
Exchange 36
F.@@ 36
FX 36
Ham@@ 36
Hindu 36
Hom@@ 36
ICA@@ 36
Kap@@ 36
Ker@@ 36
M1 36
Machine 36
Martin 36
Most 36
NFL 36
Nil@@ 36
Nim@@ 36
Player 36
Process 36
Radi@@ 36
Ramp@@ 36
Saint 36
Sak@@ 36
Shim@@ 36
Sun 36
Tata 36
Tre@@ 36
Van@@ 36
Women 36
Wor@@ 36
Young 36
access 36
active 36
adu 36
ais 36
aki 36
alia 36
animals 36
away 36
ba@@ 36
bil@@ 36
bin 36
cause 36
child 36
cru@@ 36
cs 36
curve 36
earth 36
enn@@ 36
environment 36
escence 36
esian 36
ever 36
ew@@ 36
far 36
father 36
fields 36
five 36
formation 36
ground 36
jal@@ 36
jo@@ 36
just 36
kot 36
lag@@ 36
long@@ 36
marathon 36
medi@@ 36
ogen@@ 36
otrop@@ 36
plants 36
polym@@ 36
quantity 36
ria 36
rics 36
ring 36
shi 36
sor@@ 36
started 36
tax 36
tournament 36
towards 36
user 36
ust 36
variables 36
void 36
whose 36
yal 36
yr@@ 36
® 36
³ 36
è 36
ˌ@@ 36
פ@@ 36
पिथौ@@ 36
ট@@ 36
ਦ@@ 36
མ@@ 36
ာ@@ 36
ー@@ 36
日@@ 36
￸ 36
0s 35
1521 35
1613 35
1614 35
1619 35
1629 35
1636 35
1696 35
98.@@ 35
Acc@@ 35
According 35
Ang@@ 35
BI@@ 35
California 35
Cel@@ 35
Chak@@ 35
DN@@ 35
Die 35
Fever 35
GB@@ 35
Hello 35
Hills 35
Java 35
Jo@@ 35
Kos@@ 35
Ky@@ 35
L2 35
League 35
Mod@@ 35
Mot@@ 35
Mountains 35
Muk@@ 35
NB@@ 35
NO 35
Nay@@ 35
Peri@@ 35
Population 35
President 35
Railway 35
Rights 35
Sen@@ 35
Sik@@ 35
TR 35
TT@@ 35
Tan@@ 35
UC 35
UP 35
acc@@ 35
along 35
amount 35
areas 35
array 35
atch 35
ayam 35
basis 35
berg 35
chin@@ 35
cou@@ 35
cro@@ 35
date 35
devices 35
ect 35
ending 35
entary 35
external 35
fa 35
figure 35
fluid 35
gin@@ 35
hard 35
ib 35
ically 35
ique 35
isp@@ 35
ker@@ 35
las@@ 35
mail 35
mann@@ 35
marker 35
mb@@ 35
ney 35
normal 35
ny@@ 35
ophyl@@ 35
person 35
phones 35
pos@@ 35
primary 35
produced 35
programming 35
put@@ 35
qui@@ 35
rather 35
ru 35
rum 35
ss 35
ss@@ 35
start 35
stat@@ 35
sted 35
storage 35
stress 35
tel 35
temple 35
tial 35
tra 35
vas@@ 35
wh@@ 35
worm 35
ь 35
ك 35
ਰ 35
ર@@ 35
ି@@ 35
க 35
ಗ@@ 35
ಸ@@ 35
1480 34
1574 34
1583 34
1590 34
1626 34
1639 34
1674 34
1695 34
1711 34
1735 34
1737 34
187@@ 34
55,@@ 34
A2 34
Battle 34
Boo@@ 34
Chief 34
Country 34
Digital 34
Direc@@ 34
Dra@@ 34
Four@@ 34
Fox 34
Ghar@@ 34
Gran@@ 34
IW@@ 34
Image 34
Ji@@ 34
Khal@@ 34
LL@@ 34
Lak@@ 34
Line 34
Log@@ 34
Medicine 34
Mir@@ 34
Mis@@ 34
Mount 34
Order 34
Organization 34
Plant 34
Political 34
Rag@@ 34
So 34
St. 34
Tag@@ 34
Techn@@ 34
Total 34
UNI@@ 34
Uttar 34
Valley 34
acet@@ 34
again 34
ago 34
akh@@ 34
anna 34
aqu@@ 34
architecture 34
ave 34
ays 34
become 34
bility 34
bro@@ 34
chi@@ 34
cia 34
cli@@ 34
cont@@ 34
cular 34
dan@@ 34
def@@ 34
differential 34
duction 34
dus 34
ein@@ 34
elec@@ 34
eri 34
eri@@ 34
ering 34
ession 34
fish 34
fold 34
foreign 34
gre@@ 34
ide@@ 34
ill 34
ink@@ 34
iting 34
ji@@ 34
kam 34
liquid 34
lit@@ 34
living 34
load 34
macro@@ 34
magnet@@ 34
mechanical 34
methods 34
morph@@ 34
named 34
nec@@ 34
omy@@ 34
ort@@ 34
pap@@ 34
physi@@ 34
popular 34
put 34
quality 34
rane 34
row@@ 34
secondary 34
ses 34
similar 34
society 34
tem@@ 34
thesis 34
tools 34
tus 34
uma 34
uv@@ 34
vibr@@ 34
vit@@ 34
win 34
words 34
yn 34
ô@@ 34
ے 34
एकी@@ 34
नैनी@@ 34
യ@@ 34
က@@ 34
1.0@@ 33
1544 33
1547 33
1554 33
1569 33
1585 33
1635 33
1693 33
177@@ 33
Af@@ 33
Africa 33
Ancient 33
Anti@@ 33
Bio@@ 33
Borough 33
Bou@@ 33
Christian 33
Compar@@ 33
Def@@ 33
Europe 33
Fat@@ 33
February 33
Film 33
Geneva 33
Gro@@ 33
HS@@ 33
Hans 33
Home 33
Hospital 33
Io@@ 33
Jay@@ 33
Kak@@ 33
Korean 33
MK 33
Mai@@ 33
Mary 33
Multi@@ 33
Museum 33
Navy 33
Near 33
Net 33
PT 33
Pin@@ 33
Plan@@ 33
RB@@ 33
Rah@@ 33
Rel@@ 33
SCO 33
Sharma 33
Si 33
Tran@@ 33
Trich@@ 33
Video 33
WL@@ 33
WS 33
Wi@@ 33
Win@@ 33
absorption 33
across 33
animal 33
anta 33
aran 33
arc@@ 33
arg@@ 33
bers 33
chem 33
codes 33
cop@@ 33
cut 33
density 33
disorder 33
distribution 33
ebo 33
electronic 33
ended 33
eous 33
eth 33
ford 33
formed 33
gon@@ 33
graph 33
help 33
him@@ 33
however 33
icus 33
iner@@ 33
interest 33
ising 33
isot@@ 33
ista 33
jaz@@ 33
ject 33
kind 33
ky@@ 33
lap@@ 33
latitude 33
mani 33
mid 33
moment 33
nucle@@ 33
och 33
oidea 33
ologist 33
oom 33
para 33
pt 33
rag@@ 33
rates 33
relative 33
round 33
runs 33
rus 33
sex 33
sid@@ 33
signal 33
simple 33
sometimes 33
syndrome 33
territory 33
tors 33
transfer 33
une 33
velocity 33
weight 33
whole 33
yo 33
ér@@ 33
ón 33
ע@@ 33
۝ 33
ਕ@@ 33
ਗ@@ 33
ਲ@@ 33
ತ@@ 33
ර@@ 33
ྱ@@ 33
ရ@@ 33
⁄ 33
1,1 32
1,2 32
1586 32
1589 32
1591 32
1621 32
1633 32
1682 32
1697 32
1747 32
45,@@ 32
48,@@ 32
97.@@ 32
ACE 32
Bri@@ 32
Cant@@ 32
Chal@@ 32
Cit@@ 32
Cogn@@ 32
Dam@@ 32
Dragon 32
Entertainment 32
Es 32
Fac@@ 32
Forest 32
GPS 32
JT@@ 32
Juan 32
Kab@@ 32
Kum@@ 32
Lap@@ 32
Ling@@ 32
Low 32
Lun@@ 32
MD@@ 32
Major 32
Mosque 32
NGO 32
Nik@@ 32
OC 32
Party 32
Persian 32
Pras@@ 32
Sap@@ 32
Sens@@ 32
Sev@@ 32
Sl@@ 32
Som@@ 32
Tech 32
Tul@@ 32
UCLA 32
XIII 32
acceler@@ 32
activity 32
ado 32
aji 32
alle 32
amer@@ 32
atha 32
capital 32
che@@ 32
com. 32
composed 32
concept 32
definition 32
degree 32
desh 32
direction 32
dis 32
display 32
dra@@ 32
economy 32
eh 32
either 32
ele 32
expression 32
fal@@ 32
fall 32
ful 32
further 32
gest@@ 32
gh 32
gly@@ 32
hex@@ 32
immune 32
increase 32
induc@@ 32
ington 32
ive 32
jav@@ 32
kin 32
last@@ 32
lens 32
ler@@ 32
live 32
longitude 32
match 32
mature 32
meg@@ 32
member 32
mit 32
mobile 32
names 32
nor@@ 32
ographic 32
oni 32
oni@@ 32
ons@@ 32
opter@@ 32
personal 32
proportional 32
race 32
received 32
rights 32
risk 32
running 32
sch@@ 32
sen@@ 32
services 32
shows 32
sound 32
static 32
thor@@ 32
thought 32
ural 32
uram 32
volume 32
wa@@ 32
you@@ 32
ü@@ 32
т 32
ج 32
ަ@@ 32
कोलका@@ 32
मशह@@ 32
समुदा@@ 32
খ@@ 32
ன@@ 32
ద@@ 32
ಲ@@ 32
් 32
ད@@ 32
国@@ 32
1679 31
1684 31
1686 31
2,3 31
47,@@ 31
AW 31
Administration 31
Am 31
BM 31
BT 31
Band@@ 31
Bat@@ 31
Beg@@ 31
Blood 31
Bol@@ 31
Books 31
CW 31
Cell 31
Child 31
Coll@@ 31
Comm@@ 31
Congress 31
Da 31
Dum@@ 31
FR@@ 31
Federation 31
Financial 31
Glacier 31
Gn@@ 31
J.@@ 31
Kod@@ 31
Lag@@ 31
Little 31
Lor@@ 31
Madhya 31
Ms 31
Mut@@ 31
NW@@ 31
No. 31
Pass@@ 31
Philosophy 31
Press 31
Rap@@ 31
Rud@@ 31
Scientific 31
Script 31
Sec@@ 31
Since 31
Sm@@ 31
TM 31
Times 31
USSR 31
UT 31
Up@@ 31
Van 31
Vari@@ 31
Ven@@ 31
Vik@@ 31
Village 31
You@@ 31
acea 31
age@@ 31
alai 31
alg@@ 31
alist 31
aly@@ 31
amus 31
ands 31
anic 31
announced 31
aq 31
arch 31
atta 31
attack 31
bab@@ 31
bes 31
big 31
bon 31
broad@@ 31
cal 31
chen 31
components 31
conduc@@ 31
controlled 31
ded 31
developed 31
dimensional 31
don@@ 31
dor@@ 31
eal 31
edic 31
ev 31
evidence 31
ext@@ 31
female 31
gence 31
get@@ 31
gs 31
haw@@ 31
hr 31
identities 31
iers 31
ind 31
inga 31
internal 31
ira@@ 31
ital 31
kWh 31
largest 31
little 31
lor@@ 31
measure 31
nel 31
not@@ 31
op 31
operation 31
oprot@@ 31
orum 31
osper@@ 31
performance 31
pin@@ 31
pm 31
polar 31
prop@@ 31
radio 31
ret@@ 31
sab@@ 31
scopic 31
shift 31
significant 31
sil 31
site 31
solution 31
spot@@ 31
step 31
sun@@ 31
sure 31
tan 31
tissue 31
today 31
tox@@ 31
upon 31
vel@@ 31
vent@@ 31
via 31
ward 31
writing 31
zer 31
án@@ 31
ø@@ 31
И@@ 31
ַ@@ 31
ם 31
ॲ@@ 31
অ@@ 31
ব 31
ਪ@@ 31
ର@@ 31
ல 31
డ@@ 31
ಪ@@ 31
ು 31
† 31
1522 30
1524 30
1634 30
1647 30
1691 30
Ali@@ 30
Amazon@@ 30
DP@@ 30
Doc@@ 30
EA 30
Emp@@ 30
FL 30
Fur@@ 30
Go 30
IGN 30
ION 30
Ir@@ 30
Ju@@ 30
Kashmir 30
Method 30
Pet@@ 30
Physi@@ 30
Prin@@ 30
Rock 30
S2 30
SK 30
Self 30
Sub 30
Survey 30
TNA 30
Teh@@ 30
Tha@@ 30
UB 30
VW 30
WB@@ 30
What 30
Wo 30
Xia@@ 30
amar@@ 30
amba 30
andra 30
better 30
binary 30
birds 30
bis 30
central 30
conservation 30
cra@@ 30
dale 30
dro@@ 30
emat@@ 30
eps 30
established 30
eti 30
false 30
follow 30
fu@@ 30
fusion 30
give 30
greater 30
hang@@ 30
hari 30
ico 30
idi@@ 30
instead 30
instrument 30
ize 30
lan 30
larger 30
laws 30
lization 30
logic 30
loss 30
love 30
maps 30
materials 30
matic 30
members 30
men@@ 30
meth@@ 30
num@@ 30
ologists 30
ood 30
operations 30
ops 30
oscill@@ 30
oul@@ 30
pa@@ 30
pig@@ 30
print 30
pu@@ 30
radius 30
resi@@ 30
ris 30
seen 30
seven 30
shell 30
status 30
taken 30
tan@@ 30
tar 30
tering 30
then@@ 30
town 30
usually 30
virus 30
vision 30
wor@@ 30
yet 30
zation 30
¾ 30
ã@@ 30
ı@@ 30
Д@@ 30
Х@@ 30
к 30
м 30
ш@@ 30
ু 30
ବ@@ 30
ந@@ 30
ோ@@ 30
ತ 30
മ 30
1440 29
1537 29
1645 29
AJ@@ 29
Alexander 29
Ant@@ 29
Ath@@ 29
Au 29
BT@@ 29
Bis@@ 29
Bruno 29
Bureau 29
CEF 29
Cham@@ 29
Chemical 29
Cos@@ 29
Coun@@ 29
Dand@@ 29
Det@@ 29
FL@@ 29
Festival 29
Food 29
Frederick 29
Fu@@ 29
Fun@@ 29
Gandhi 29
Gener@@ 29
God@@ 29
Greek 29
Gun@@ 29
Hat@@ 29
Hir@@ 29
Hyper@@ 29
ID@@ 29
Inc 29
KS 29
Kir@@ 29
Light 29
Lingu@@ 29
Modern 29
Mol@@ 29
Mont@@ 29
More 29
NATO 29
ND 29
NF 29
Naval 29
O.@@ 29
Ol@@ 29
Organisation 29
Page 29
Ped@@ 29
RD 29
Ram 29
Roman 29
Russian 29
Sand@@ 29
Sear@@ 29
Sid@@ 29
Top@@ 29
VR 29
W.@@ 29
Wei@@ 29
Wel@@ 29
acter@@ 29
although 29
ances 29
applied 29
arc 29
asc@@ 29
assi@@ 29
ator@@ 29
award 29
bah@@ 29
bat 29
began 29
bird 29
bo 29
came 29
cavity 29
changes 29
death 29
domain 29
dot 29
e- 29
eb 29
ein 29
erg@@ 29
ette 29
eus 29
expon@@ 29
exposure 29
famous 29
fever 29
gave 29
genic 29
heter@@ 29
hypo@@ 29
inus 29
ious 29
issi@@ 29
jar 29
k.@@ 29
legal 29
lim@@ 29
located 29
los 29
lost 29
lumin@@ 29
medical 29
movement 29
never 29
ods 29
oms 29
paras@@ 29
philosophy 29
read 29
relationship 29
rest 29
rhe@@ 29
ris@@ 29
rist@@ 29
runners 29
security 29
sing 29
spor@@ 29
steel 29
tered 29
upp@@ 29
various 29
vid 29
vin@@ 29
vism 29
wala 29
ware 29
Ü@@ 29
Н@@ 29
ش 29
স 29
ಯ@@ 29
ത 29
ེ@@ 29
ྲ@@ 29
1548 28
1581 28
1599 28
1673 28
AAA 28
ACT 28
Ara@@ 28
Area 28
Arts 28
Bam@@ 28
Billboard 28
Bos@@ 28
Cass@@ 28
Don@@ 28
Falls 28
Ferrari 28
Fil@@ 28
Hin@@ 28
Jod@@ 28
KL@@ 28
Main 28
Max 28
NY 28
Nor@@ 28
Now 28
OS@@ 28
Ox@@ 28
Pand@@ 28
PlayStation 28
Proc@@ 28
Pter@@ 28
RI 28
RS@@ 28
Raw 28
SV 28
Shock 28
Street 28
Study 28
Swar@@ 28
TI 28
Technical 28
Tol@@ 28
UD 28
UM 28
Urdu 28
Vin@@ 28
Vit@@ 28
Wa@@ 28
Washington 28
Zo@@ 28
absolute 28
ack@@ 28
acts 28
akk@@ 28
amy 28
ater@@ 28
bing 28
birth 28
blue 28
bon@@ 28
building 28
ching 28
colors 28
complete 28
conc@@ 28
content 28
crystal 28
deep 28
dens@@ 28
differenti@@ 28
digital 28
discrete 28
duct 28
edia 28
ei 28
eling 28
ender 28
enk@@ 28
enter@@ 28
expansion 28
ez 28
files 28
financial 28
forest 28
growth 28
head@@ 28
illary 28
induction 28
inst@@ 28
inverse 28
iron 28
issa 28
levels 28
middle 28
office 28
ogram 28
omy 28
ophi@@ 28
oscience 28
partial 28
pent@@ 28
plan@@ 28
plate 28
played 28
ras 28
rel@@ 28
sand 28
scat@@ 28
sequence 28
sides 28
stroke 28
studies 28
sub 28
thermal 28
tional 28
together 28
translation 28
tures 28
tz@@ 28
ures 28
urg@@ 28
vap@@ 28
vet 28
write 28
¿ 28
ç 28
ö@@ 28
Đ@@ 28
ɪ 28
ֹ@@ 28
כ@@ 28
सदीय 28
এ@@ 28
ਵ@@ 28
ੋ@@ 28
ે 28
ந 28
ూ@@ 28
ె@@ 28
ย@@ 28
ད 28
≈ 28
ン@@ 28
本@@ 28
1420 27
1559 27
1592 27
1595 27
1604 27
1607 27
1662 27
1741 27
AMD 27
ASS 27
Agricultural 27
Alt 27
Asian 27
Australian 27
Awards 27
Bay@@ 27
Beach 27
Bihar 27
Bul@@ 27
CAP 27
CCC 27
Chang@@ 27
Club 27
Conference 27
Declaration 27
Der@@ 27
Early 27
Environment 27
Era 27
Family 27
Fr@@ 27
Gau@@ 27
Germany 27
Gir@@ 27
GmbH 27
Graph@@ 27
HL 27
Imp@@ 27
Integ@@ 27
Intel@@ 27
Iron 27
It@@ 27
Jacques 27
Japanese 27
KN@@ 27
Lab@@ 27
Later 27
Legal 27
Lep@@ 27
Lin 27
Mess@@ 27
Must@@ 27
Neg@@ 27
Nep@@ 27
Nokia 27
Nov@@ 27
Num@@ 27
Ori@@ 27
PS@@ 27
Palae@@ 27
Punjab 27
Rak@@ 27
Real 27
Shah 27
Smith 27
Southern 27
Tak@@ 27
Trade 27
Training 27
Vas@@ 27
Vic@@ 27
aba 27
aic 27
angles 27
ary@@ 27
ase@@ 27
bad 27
billion 27
chan@@ 27
charged 27
chemicals 27
cher 27
ches 27
cle 27
clear 27
college 27
compounds 27
concentration 27
constellation 27
copy 27
court 27
dev@@ 27
died 27
epi@@ 27
ern 27
error 27
ert 27
especially 27
etc 27
eur 27
eved 27
fication 27
fly 27
formes 27
frac@@ 27
gar 27
glass 27
gold 27
hatt@@ 27
hil@@ 27
hole 27
iOS 27
illi@@ 27
incident 27
intelligence 27
iser 27
itself 27
ja@@ 27
jec@@ 27
jur@@ 27
least 27
letter 27
limited 27
lit 27
lith@@ 27
lock@@ 27
lower 27
met 27
mos@@ 27
mother 27
news@@ 27
night 27
ning 27
nu@@ 27
once 27
other@@ 27
pay@@ 27
pora 27
processes 27
propag@@ 27
rah@@ 27
reading 27
rel 27
relations 27
rical 27
rig@@ 27
rock 27
sector 27
selection 27
semi 27
sets 27
sha 27
sight 27
sist@@ 27
sort 27
sq 27
test@@ 27
thir@@ 27
though 27
training 27
triangle 27
turn 27
ulate 27
ust@@ 27
wind 27
ww@@ 27
xi@@ 27
yak@@ 27
¥ 27
º@@ 27
Ð 27
és 27
ê@@ 27
ú@@ 27
ār@@ 27
ι 27
ы 27
ंपरिक 27
तेलु@@ 27
ऴ@@ 27
ॐ@@ 27
ড 27
ੀ@@ 27
ட 27
ற@@ 27
ದ 27
ೆ 27
ೆ@@ 27
ೇ@@ 27
േ@@ 27
ม@@ 27
མ 27
1460 26
1490 26
1513 26
1566 26
1571 26
1578 26
1579 26
1587 26
1663 26
1676 26
1681 26
186@@ 26
3A 26
AVN 26
Advanced 26
Agu@@ 26
Amar@@ 26
Aut@@ 26
BG 26
Bac@@ 26
Back@@ 26
Ball@@ 26
Bet@@ 26
Bod@@ 26
Bon@@ 26
Box 26
Boy@@ 26
Chan@@ 26
Climate 26
Convention 26
Culture 26
Ed 26
Edge 26
Esc@@ 26
Foreign 26
François 26
Fund 26
GN 26
Gad@@ 26
Gul@@ 26
Hall 26
Here 26
Himal@@ 26
Hussain 26
ICE 26
Il@@ 26
Industry 26
Krishna 26
Lal 26
Lav@@ 26
Li 26
Lib@@ 26
MAC 26
Mahar@@ 26
Mental 26
Michael 26
Muhammad 26
Nan@@ 26
Nature 26
Number 26
OP@@ 26
PGA 26
Pah@@ 26
Pak@@ 26
Pic@@ 26
Pierre 26
Pot@@ 26
RP@@ 26
Rad@@ 26
Range 26
Sho@@ 26
Sit@@ 26
Sor@@ 26
Sug@@ 26
Tap@@ 26
Ton@@ 26
Treaty 26
Type 26
Upper 26
V.@@ 26
VP 26
Vil@@ 26
Whe@@ 26
ably 26
account 26
agus 26
ahi 26
alt@@ 26
anese 26
ards 26
arti@@ 26
atom 26
atur@@ 26
aul@@ 26
available 26
bias 26
bis@@ 26
cancer 26
capac@@ 26
care 26
cath@@ 26
chem@@ 26
composition 26
cut@@ 26
dev 26
domin@@ 26
eau 26
economics 26
edge 26
eness 26
ephal@@ 26
eye 26
ez@@ 26
factors 26
file 26
fur@@ 26
hop@@ 26
ias 26
ication 26
includes 26
indu@@ 26
infection 26
injury 26
interaction 26
ital@@ 26
jap@@ 26
kk@@ 26
lateral 26
lock 26
mark 26
monument 26
move 26
oe 26
ogenesis 26
ogenic 26
ograph 26
onn@@ 26
orbit 26
organ@@ 26
ort 26
otype 26
outside 26
owl 26
path 26
patri@@ 26
pel@@ 26
phar@@ 26
ple@@ 26
problems 26
ques 26
rational 26
reference 26
rotation 26
scientific 26
sey 26
sn@@ 26
strong 26
themselves 26
too 26
traction 26
treatment 26
ui 26
ulam 26
ulated 26
ump@@ 26
unda 26
union 26
uz@@ 26
visual 26
whi@@ 26
yth@@ 26
ó 26
Κ@@ 26
Л@@ 26
Т@@ 26
ա@@ 26
ٹ@@ 26
ই@@ 26
ঙ 26
ੁ@@ 26
્ 26
ை@@ 26
స@@ 26
ക 26
ട@@ 26
ก@@ 26
น@@ 26
ิ@@ 26
เ@@ 26
ག 26
ི@@ 26
1470 25
1549 25
1563 25
1573 25
1584 25
1637 25
19th 25
1B 25
AK 25
Air@@ 25
Arc@@ 25
Ax@@ 25
BJP 25
Bill 25
Championships 25
Current 25
DG@@ 25
DVDs 25
Dak@@ 25
Design 25
Eur@@ 25
Explorer 25
Fel@@ 25
Friedrich 25
GR@@ 25
GW 25
Game 25
Gaz@@ 25
Harry 25
Hist@@ 25
How 25
Hum@@ 25
Japan 25
Jur@@ 25
Key 25
Kus@@ 25
LG 25
LGBT 25
Laboratory 25
Lar@@ 25
Let 25
Mars 25
Mathematical 25
Mau@@ 25
Medi@@ 25
Mission 25
Motion 25
Mund@@ 25
Muslim 25
Nah@@ 25
Nit@@ 25
Northern 25
Not@@ 25
OK 25
Ok@@ 25
One@@ 25
PBS 25
PDF 25
Pav@@ 25
Physical 25
Policy 25
Post@@ 25
Princip@@ 25
Psychology 25
RN 25
Radio 25
Rom@@ 25
Rub@@ 25
Score 25
Statistical 25
Story 25
Sus@@ 25
Three 25
Twitter 25
USS 25
Vad@@ 25
Way 25
While 25
Who 25
Wikipedia 25
Wimbledon 25
acquired 25
aik@@ 25
anch@@ 25
army 25
arrangement 25
asing 25
associated 25
aw 25
awan 25
beat 25
bert 25
bond 25
cher@@ 25
chit@@ 25
ci 25
ciples 25
civil 25
clo@@ 25
commonly 25
component 25
conflict 25
core 25
dat@@ 25
derivative 25
diver@@ 25
down@@ 25
ech 25
ector 25
ele@@ 25
emor@@ 25
eva 25
freedom 25
gate 25
gel 25
generally 25
global 25
gradient 25
greatest 25
gy 25
hau@@ 25
himself 25
hun@@ 25
ification 25
ify 25
integer 25
interface 25
inv@@ 25
ior 25
ision 25
iter 25
itter 25
ju 25
jud@@ 25
kha 25
knowledge 25
lang 25
lep@@ 25
lin 25
loss@@ 25
mai 25
mathematics 25
mode 25
money 25
multi@@ 25
nag@@ 25
nan@@ 25
navigation 25
nik@@ 25
official 25
ols 25
oly@@ 25
opp@@ 25
opposite 25
orth@@ 25
par 25
polynomial 25
program 25
proof 25
reflection 25
reservoir 25
rich@@ 25
roph@@ 25
rules 25
scrip@@ 25
season 25
special 25
standards 25
tradition 25
urai 25
verteb@@ 25
vin 25
ving 25
violet 25
vir@@ 25
working 25
yam 25
yar 25
yon 25
÷ 25
š@@ 25
Α@@ 25
ή@@ 25
ζ 25
я@@ 25
ک 25
۔ 25
ंडोज 25
परियो@@ 25
উ@@ 25
ਬ@@ 25
ી 25
ે@@ 25
క 25
ಕ 25
ท@@ 25
ว@@ 25
ั@@ 25
འ@@ 25
ལ 25
ྫ@@ 25
တ@@ 25
ḍ@@ 25
國@@ 25
1230 24
1678 24
1692 24
Ad 24
Amp@@ 24
Analysis 24
Another 24
Assembly 24
Att@@ 24
Australia 24
Beta 24
Black@@ 24
Canadian 24
Chang 24
Chap@@ 24
Coast 24
Conf@@ 24
Cru@@ 24
Differ@@ 24
Dim@@ 24
Dynam@@ 24
Electronic 24
Empire 24
Et@@ 24
Express 24
Ey@@ 24
Gold 24
Good 24
Gre@@ 24
Gru@@ 24
HT 24
Head 24
Heritage 24
Independence 24
Islands 24
KV 24
Lal@@ 24
Leg@@ 24
MBA 24
MCA 24
Massi@@ 24
Meh@@ 24
Men 24
Model 24
NHS 24
NP@@ 24
Newton 24
Night 24
Olympic 24
Os 24
Pacific 24
Parroqu@@ 24
Queen 24
Rang@@ 24
Read 24
STS 24
Sank@@ 24
Sant@@ 24
Show 24
Sky@@ 24
Sound 24
Studio 24
Sund@@ 24
Third 24
Tik@@ 24
Twenty 24
Universal 24
Utt@@ 24
VB 24
Volt@@ 24
Vs 24
Wilhelm 24
With 24
agent 24
ahar 24
aim@@ 24
aker 24
ani@@ 24
arium 24
athi 24
ativity 24
author 24
ball 24
begin 24
but@@ 24
cases 24
characters 24
chus 24
chy@@ 24
cing 24
circum@@ 24
claim 24
climate 24
col 24
concrete 24
currently 24
derived 24
dian 24
doc@@ 24
effects 24
ega 24
eme 24
enes 24
enough 24
etry 24
experiment 24
ference 24
fit 24
forward 24
fuel 24
gene 24
gives 24
hain 24
hair 24
historical 24
hn@@ 24
hours 24
iP@@ 24
ills 24
indoor 24
intensity 24
intra@@ 24
itya 24
je 24
lang@@ 24
leading 24
lication 24
loop 24
max 24
meaning 24
months 24
next 24
nit@@ 24
oa 24
odon@@ 24
og 24
oh 24
oon 24
ophora 24
opia 24
origin 24
oti 24
particular 24
pass 24
periph@@ 24
ph 24
phen@@ 24
phic 24
pling 24
polar@@ 24
prec@@ 24
press 24
produce 24
project 24
rah 24
raj 24
rati@@ 24
rav@@ 24
rea 24
reduction 24
relation 24
religion 24
representation 24
ring@@ 24
rit 24
ritis 24
room 24
serv@@ 24
shan 24
shar@@ 24
sible 24
sign 24
stock 24
styl@@ 24
t. 24
tang@@ 24
ther 24
tification 24
til@@ 24
tile 24
tory 24
ual 24
ulator 24
umin@@ 24
unique 24
uth@@ 24
ution 24
vari@@ 24
verse 24
vir 24
web@@ 24
week 24
wel@@ 24
win@@ 24
wise 24
young 24
¸ 24
ée 24
ì@@ 24
í 24
ū 24
̃ 24
О@@ 24
д 24
л 24
у 24
ק@@ 24
ُ 24
इताल@@ 24
णिज 24
वाराण@@ 24
संबर 24
ণ 24
ূ@@ 24
ੱ@@ 24
ମ@@ 24
ெ@@ 24
ை 24
న 24
ා@@ 24
ි@@ 24
ེ 24
ា@@ 24
█ 24
1546 23
54,@@ 23
ATP 23
Alfred 23
Anti 23
Bran@@ 23
Bridge 23
Capital 23
Card 23
Chlor@@ 23
Cra@@ 23
Cup 23
Dam 23
Dead 23
Dic@@ 23
Diff@@ 23
Disease 23
Don 23
ESPN 23
Eth@@ 23
Field 23
Francis 23
Gem@@ 23
Get@@ 23
Golden 23
Grammar 23
Hai 23
Haj@@ 23
Hard@@ 23
Human@@ 23
Indian@@ 23
Investment 23
Jos@@ 23
Jurassic 23
KP@@ 23
KR@@ 23
Kand@@ 23
Karl 23
Kud@@ 23
Learning 23
Les@@ 23
MF 23
Main@@ 23
Max@@ 23
Mi 23
Mik@@ 23
Mit@@ 23
Module 23
Mov@@ 23
Mr. 23
Nat@@ 23
Oxford 23
PD@@ 23
Phon@@ 23
Physics 23
Plan 23
Plat@@ 23
Power@@ 23
Prince 23
RP 23
Re 23
Rev@@ 23
Roh@@ 23
Ré@@ 23
Sher@@ 23
Square 23
Statistics 23
Stock 23
That 23
UA 23
WTA 23
Wall 23
academic 23
ace@@ 23
achi 23
aid 23
aling 23
alle@@ 23
amin@@ 23
angular 23
approxim@@ 23
arity 23
atio 23
ayed 23
bacteria 23
band@@ 23
bara 23
bes@@ 23
ca@@ 23
capacity 23
cks 23
coil 23
communication 23
coordinates 23
cost 23
count@@ 23
created 23
deer 23
dence 23
determin@@ 23
directly 23
displacement 23
divi@@ 23
duck 23
ec 23
efficient 23
electromagnetic 23
elli 23
ello 23
ept@@ 23
esa 23
flag@@ 23
friend 23
glob@@ 23
graph@@ 23
gun 23
heart 23
hib@@ 23
hik@@ 23
hist@@ 23
hp 23
ility 23
illu@@ 23
itar@@ 23
itting 23
kal 23
liqu@@ 23
mRNA 23
matrix 23
measurement 23
mig@@ 23
ming 23
mission 23
molecular 23
momentum 23
moral 23
nar 23
nation 23
nerve 23
nouns 23
occur 23
ois 23
olar 23
omial 23
onent 23
ood@@ 23
oriented 23
ories 23
ough 23
oxide 23
pic@@ 23
player 23
poems 23
quantities 23
rach@@ 23
rams 23
rang 23
rating 23
resulting 23
role 23
rology 23
sap@@ 23
saw 23
scap@@ 23
sent@@ 23
set@@ 23
sexual 23
soil 23
stan 23
substit@@ 23
sun 23
surgery 23
tant 23
tex 23
thy@@ 23
titles 23
torque 23
tro 23
uh@@ 23
urs 23
usa 23
ux 23
v. 23
watch 23
wind@@ 23
wolf 23
worms 23
yah 23
yar@@ 23
yellow 23
¨ 23
µ@@ 23
ē 23
ŋ@@ 23
˚ 23
ζ@@ 23
ל 23
अचा@@ 23
ঁ@@ 23
ન@@ 23
ா 23
ಡ@@ 23
ಶ@@ 23
ള@@ 23
ར 23
ྒ@@ 23
သ@@ 23
္ 23
ṇ@@ 23
↓ 23
李@@ 23
1567 22
1677 22
Activ@@ 22
Agr@@ 22
Agriculture 22
App 22
Bell 22
Bot@@ 22
Building 22
CDC 22
CK 22
Carbon 22
Carl 22
Che@@ 22
Chem@@ 22
Chit@@ 22
Commonwealth 22
D.C. 22
Din@@ 22
Diplom@@ 22
Disp@@ 22
Dol@@ 22
Dul@@ 22
EN@@ 22
EV 22
Exc@@ 22
FR 22
GL 22
Gol@@ 22
Hall@@ 22
High@@ 22
Hon@@ 22
Honda 22
IOC 22
Ide@@ 22
Indo 22
Its 22
Jah@@ 22
Jan 22
Jas@@ 22
Johann 22
KB 22
Kul@@ 22
LD@@ 22
LF 22
Lac@@ 22
Lambert 22
Lau@@ 22
Lon@@ 22
Mass 22
Mathematics 22
Mo 22
Money 22
Mumbai 22
NGC 22
NP 22
Nas@@ 22
Ner@@ 22
Nic@@ 22
Nuclear 22
Om@@ 22
Only 22
Operation 22
Original 22
Ot@@ 22
PI@@ 22
Param@@ 22
Part 22
Peace 22
Pep@@ 22
Ple@@ 22
Port 22
Pseud@@ 22
Publishing 22
Rao 22
Review 22
Rs 22
SN 22
Seven 22
Shell 22
Short 22
Sind@@ 22
Staff 22
TB 22
Taylor 22
Termin@@ 22
Thak@@ 22
Thus 22
Tiger 22
Tom@@ 22
UK@@ 22
Up 22
Vy@@ 22
WG 22
WL 22
WR 22
Wis@@ 22
Work 22
Yoshi@@ 22
aar 22
ables 22
acceleration 22
added 22
additional 22
algae 22
alk@@ 22
aman@@ 22
ament 22
ann 22
application 22
aps 22
aring 22
asteroid 22
audio 22
aut 22
automatic 22
bed@@ 22
bra 22
brain 22
break 22
bun@@ 22
cand@@ 22
carbon@@ 22
card 22
cell@@ 22
cent 22
chron@@ 22
cker 22
cle@@ 22
completed 22
conducting 22
contact 22
continuous 22
cope 22
dam 22
day@@ 22
deci@@ 22
defeat 22
dem 22
despite 22
dies 22
divided 22
dog 22
dop@@ 22
dynamic 22
dys@@ 22
eca 22
edi 22
eil 22
electronics 22
elling 22
else 22
eman 22
ense 22
eption 22
esp@@ 22
estial 22
eter@@ 22
failure 22
far@@ 22
fli@@ 22
fluor@@ 22
follows 22
fourth 22
fra@@ 22
gain 22
gases 22
genetic 22
ght@@ 22
giant 22
got 22
gravity 22
harmon@@ 22
hir 22
hunger 22
ian@@ 22
iana 22
ich 22
ichi 22
icide 22
idal 22
ier@@ 22
import 22
inder 22
iness 22
itors 22
joint 22
junction 22
lev@@ 22
listed 22
look 22
mach@@ 22
manufacturing 22
maximum 22
meet 22
mental 22
mos 22
movie 22
nh 22
numerical 22
née 22
oga 22
oka 22
optim@@ 22
org@@ 22
oria 22
ority 22
orus 22
oto 22
ows 22
peri@@ 22
personality 22
plug@@ 22
pres@@ 22
prime 22
pseud@@ 22
pun@@ 22
rab@@ 22
rare 22
reciproc@@ 22
recur@@ 22
required 22
resolution 22
ril@@ 22
roid 22
rol@@ 22
say 22
sel 22
shown 22
sions 22
ski 22
spot 22
strain 22
strength 22
students 22
superior 22
tanks 22
teenth 22
testing 22
therefore 22
tig@@ 22
tone 22
transmission 22
tv 22
ulture 22
uni@@ 22
useful 22
usi@@ 22
video 22
villages 22
vity 22
wi 22
wife 22
writer 22
yr 22
zed 22
¢ 22
É 22
ão 22
èse 22
ì 22
ş@@ 22
Σ@@ 22
ֶ@@ 22
צ@@ 22
ٱ@@ 22
सोसाय@@ 22
জ 22
ਤ 22
ਲ 22
દ@@ 22
ལ@@ 22
ི 22
ခ@@ 22
ပ@@ 22
រ@@ 22
ṣ@@ 22
ⴰ@@ 22
1593 21
18th 21
2. 21
Adobe 21
Although 21
Anth@@ 21
Applied 21
Arab 21
Author 21
Ball 21
Bau@@ 21
Be 21
Block 21
Cab@@ 21
Cambridge 21
Cen@@ 21
Century 21
Channel 21
Chin@@ 21
Ci@@ 21
Collec@@ 21
Collection 21
Color 21
DG 21
Dan 21
Den@@ 21
Drive 21
Dru@@ 21
Dé@@ 21
Eastern 21
Eff@@ 21
Environmental 21
Ess@@ 21
Ex 21
FP@@ 21
Fab@@ 21
Film@@ 21
Fire 21
Flash 21
Front 21
Gand@@ 21
Gas 21
Gold@@ 21
Had@@ 21
Her 21
Hunger 21
ING 21
Il 21
Immun@@ 21
Ireland 21
Islam 21
Joint 21
KG 21
Kl@@ 21
Kra@@ 21
LM 21
Lay@@ 21
Lev@@ 21
Lewis 21
Liber@@ 21
Like 21
Lok@@ 21
Mant@@ 21
Map 21
Maria 21
Mark 21
Mast@@ 21
Mechan@@ 21
Miami 21
Movement 21
NE 21
Nand@@ 21
Non@@ 21
Not 21
OBE 21
Ocean 21
Paw@@ 21
Pedro 21
Pil@@ 21
Put@@ 21
Rab@@ 21
References 21
Ris@@ 21
Satellite 21
Shak@@ 21
Shir@@ 21
Solar 21
String 21
Sv@@ 21
TT 21
Tang@@ 21
Tech@@ 21
Thal@@ 21
Then 21
Til@@ 21
UE@@ 21
Ve@@ 21
WC 21
WI 21
Works 21
Ze@@ 21
aan 21
according 21
agreement 21
akh 21
alu 21
appa 21
arm@@ 21
aro 21
artic@@ 21
articles 21
avi 21
bad@@ 21
bal 21
blog 21
bos@@ 21
cast@@ 21
cid 21
clinical 21
cogn@@ 21
collection 21
companies 21
compared 21
compres@@ 21
compression 21
conditions 21
cone 21
cricket 21
deg@@ 21
derm@@ 21
details 21
din@@ 21
document 21
done 21
edition 21
eigen@@ 21
eit 21
ends 21
ening 21
eph@@ 21
ett 21
eum 21
eur@@ 21
expressed 21
ff 21
figures 21
finals 21
find 21
flex@@ 21
formal 21
front 21
gall@@ 21
gon 21
hal 21
herb@@ 21
hon@@ 21
hot 21
ices 21
ient 21
illation 21
illus 21
imag@@ 21
ined 21
inj@@ 21
integral 21
ishing 21
itz 21
las 21
layer 21
link 21
logo 21
lymph@@ 21
math 21
meeting 21
mid@@ 21
mir@@ 21
month 21
moving 21
muc@@ 21
need 21
neg@@ 21
nos 21
ns@@ 21
obic 21
offic@@ 21
oll@@ 21
omer@@ 21
omm@@ 21
onian 21
onomy 21
ooth@@ 21
opath@@ 21
park 21
pec@@ 21
placed 21
plast@@ 21
plus 21
practice 21
pre 21
primitive 21
provides 21
quarter 21
rada 21
reactor 21
recognition 21
regular 21
report 21
response 21
reverse 21
rin@@ 21
sat@@ 21
sep@@ 21
ser 21
shaft 21
she@@ 21
sian 21
spir@@ 21
spread 21
sting 21
string 21
subject 21
sur 21
sych@@ 21
symmetry 21
tance 21
transition 21
try 21
types 21
uda 21
uka 21
uman 21
uria 21
val 21
ves@@ 21
ylon 21
yx 21
ù 21
ān@@ 21
ŋ 21
ʊ 21
Π@@ 21
ג@@ 21
ח@@ 21
॔ 21
ও@@ 21
ষ 21
જ@@ 21
କ@@ 21
ସ@@ 21
బ@@ 21
ಬ@@ 21
ಲ 21
ಹ@@ 21
ೀ@@ 21
അ@@ 21
സ@@ 21
ာ 21
ḥ@@ 21
∞ 21
国 21
1,3 20
1538 20
1557 20
1577 20
1654 20
ABS 20
Agreement 20
Amazon 20
And@@ 20
Ast@@ 20
Back 20
Bed@@ 20
Bengal 20
Bes@@ 20
Bru@@ 20
CBC 20
Case 20
Cau@@ 20
Cher@@ 20
DS@@ 20
Dav@@ 20
Delta 20
Dem@@ 20
Dist@@ 20
Dr 20
Dud@@ 20
Dun@@ 20
EL 20
Ear@@ 20
Epi@@ 20
Es@@ 20
Evolution 20
Four 20
Game@@ 20
Generation 20
His@@ 20
Hot 20
Hyp@@ 20
IB 20
Iden@@ 20
Int@@ 20
Ish@@ 20
Islamic 20
Jar@@ 20
Johnson 20
Jou@@ 20
Kath@@ 20
Kepler 20
Kit@@ 20
Lab 20
Lower 20
Master 20
Math@@ 20
Memory 20
NHL 20
NJ@@ 20
NR 20
Nak@@ 20
Natur@@ 20
Orth@@ 20
Out 20
PH 20
Ph.D. 20
Pho@@ 20
Pon@@ 20
Prize 20
Rob@@ 20
Rural 20
Shel@@ 20
Simon 20
Soviet 20
Struc@@ 20
System@@ 20
TU 20
Ta 20
Test@@ 20
Theatre 20
Therefore 20
Thi@@ 20
Too 20
Top 20
Traditional 20
Trip@@ 20
Tum@@ 20
Vehicle 20
Youth 20
Zh@@ 20
abe 20
ache 20
acs 20
acted 20
acting 20
add@@ 20
agog@@ 20
ains 20
aking 20
almost 20
aly 20
ancient 20
anes@@ 20
arius 20
ark@@ 20
arms 20
assembly 20
atile 20
ault 20
aurus 20
bat@@ 20
bear 20
beginning 20
ben@@ 20
benz@@ 20
ble@@ 20
bles 20
career 20
chloride 20
cid@@ 20
competition 20
consecutive 20
cortex 20
create 20
dal 20
dam@@ 20
dea 20
decay 20
dri@@ 20
efficiency 20
electricity 20
elli@@ 20
entation 20
enter 20
equality 20
ered 20
ettes 20
evolution 20
exact 20
existence 20
fa@@ 20
fan 20
fas@@ 20
feedback 20
fic@@ 20
fill 20
foot@@ 20
genus 20
gia 20
guide 20
hipp@@ 20
host 20
hypothesis 20
idd@@ 20
igar@@ 20
iles 20
impul@@ 20
individual 20
inform@@ 20
integration 20
introduced 20
iop@@ 20
issue 20
js 20
kernel 20
lac@@ 20
lad@@ 20
linguistics 20
lion 20
male 20
matches 20
max@@ 20
metric 20
might 20
mine 20
mud@@ 20
needs 20
note 20
obi@@ 20
ock 20
ogen 20
ohy@@ 20
oline 20
ord 20
ores 20
ower 20
paper 20
past 20
ped@@ 20
pet 20
piece 20
pil@@ 20
players 20
po 20
policy 20
principal 20
provide 20
provided 20
pul@@ 20
purpose 20
railway 20
rd 20
reason 20
records 20
resonance 20
revolution 20
rine 20
road 20
ror@@ 20
sal 20
scal@@ 20
sed 20
separate 20
shr@@ 20
sic 20
sk 20
soon 20
southern 20
stants 20
sth@@ 20
student 20
sum@@ 20
syllab@@ 20
tation 20
tech 20
thermodynam@@ 20
ub 20
ues 20
ulu 20
ume 20
ums 20
unic@@ 20
ved 20
vowel 20
want 20
wav@@ 20
website 20
wild 20
xi 20
yam@@ 20
yin 20
zu@@ 20
Ø@@ 20
ă@@ 20
औस@@ 20
ই 20
ষ@@ 20
ਘ 20
ਸ 20
਼ 20
ા 20
ங 20
ப 20
ள@@ 20
ಟ@@ 20
ട 20
ശ@@ 20
န 20
း 20
◆ 20
北@@ 20
民@@ 20
A3 19
AMC 19
About 19
African 19
Anne 19
Arabic 19
Astr@@ 19
BN 19
Batt@@ 19
Bell@@ 19
Bour@@ 19
CAA 19
CAS 19
CU 19
Cape 19
Chen 19
Chitt@@ 19
Cou@@ 19
Cultural 19
Dab@@ 19
Disney 19
EB@@ 19
End@@ 19
Eng@@ 19
Eri@@ 19
Est@@ 19
FE 19
Fox@@ 19
GR 19
Gas@@ 19
Guide 19
Him@@ 19
Hind@@ 19
Horse 19
IG 19
Imperial 19
Indonesia 19
Integrated 19
Inter 19
Jud@@ 19
KE@@ 19
KT@@ 19
Kaly@@ 19
Lahore 19
Lan@@ 19
Land@@ 19
Link 19
Liter@@ 19
M2 19
Macintosh 19
Mann@@ 19
Matthew 19
Meas@@ 19
Motor 19
NASCAR 19
NL@@ 19
NN 19
Nir@@ 19
Olig@@ 19
Oriental 19
PCR 19
Pel@@ 19
PhD 19
Press@@ 19
Primary 19
Protection 19
Ray 19
S1 19
Sa 19
Scheme 19
Small 19
Sper@@ 19
Stone 19
Territory 19
Thes@@ 19
Tos@@ 19
Ty@@ 19
Ut@@ 19
Vag@@ 19
WO@@ 19
Wii 19
XL 19
Yu@@ 19
Zub@@ 19
achal 19
ack 19
additi@@ 19
adio 19
agi 19
aine 19
amma 19
ander@@ 19
aneous 19
anz@@ 19
apar@@ 19
apping 19
ardi@@ 19
asan 19
atch@@ 19
ateral 19
attitude 19
atum 19
aye 19
balance 19
becomes 19
becoming 19
bed 19
bic@@ 19
biology 19
bits 19
bodies 19
cannot 19
cha@@ 19
chamber 19
close 19
closed 19
coefficient 19
colour 19
combination 19
commercial 19
connec@@ 19
connection 19
construction 19
continued 19
contract 19
conversion 19
coordinate 19
counts 19
cover 19
dark 19
dean 19
demand 19
dep@@ 19
depth 19
domestic 19
door 19
duk@@ 19
ection 19
educ@@ 19
eer 19
eil@@ 19
eing 19
elast@@ 19
elles 19
ellip@@ 19
ements 19
ero 19
ethyl@@ 19
etus 19
eu@@ 19
fast 19
fied 19
fiel@@ 19
fla@@ 19
furn@@ 19
future 19
geometric 19
gir@@ 19
guitarist 19
hen@@ 19
highest 19
hou 19
iat@@ 19
idity 19
independence 19
influence 19
institute 19
iques 19
ises 19
isi 19
ison 19
itative 19
ited 19
jet 19
kara 19
kor@@ 19
lets 19
library 19
lies 19
links 19
longer 19
lot 19
magn@@ 19
main@@ 19
mans 19
mar 19
mata 19
mic@@ 19
mind 19
molecules 19
nap@@ 19
native 19
odes 19
odi 19
off@@ 19
omb 19
omen@@ 19
omes 19
onis 19
operative 19
opus 19
orders 19
ordin@@ 19
organization 19
osh@@ 19
osity 19
osp@@ 19
otes 19
ous@@ 19
oxy@@ 19
pe 19
perception 19
phenomenon 19
pin 19
pot@@ 19
pping 19
principles 19
private 19
que@@ 19
radial 19
recognized 19
recorded 19
release 19
remain 19
rid@@ 19
ridae 19
roman@@ 19
rub@@ 19
sie 19
sites 19
sli@@ 19
soft 19
spar@@ 19
spectro@@ 19
squ@@ 19
standing 19
stein 19
structures 19
synchron@@ 19
tank 19
television 19
thi@@ 19
tica 19
tu 19
ty@@ 19
u.@@ 19
ularis 19
unner 19
upper 19
uta 19
vers 19
vor@@ 19
wer@@ 19
why 19
xim@@ 19
yana 19
ysi@@ 19
¼ 19
Å@@ 19
Ï@@ 19
Ù@@ 19
én@@ 19
ía 19
ï@@ 19
č@@ 19
ǎ@@ 19
ɒ@@ 19
ʰ@@ 19
ʻ@@ 19
Μ@@ 19
τ 19
У@@ 19
މ@@ 19
ট 19
ণ@@ 19
ধ 19
ফ 19
ત@@ 19
அ@@ 19
พ@@ 19
ุ@@ 19
ཐ@@ 19
པ@@ 19
့ 19
ျ@@ 19
ṛ@@ 19
人 19
子 19
字 19
.2@@ 18
13th 18
14th 18
1655 18
Action 18
Alb@@ 18
Anatom@@ 18
Andrew 18
Animal 18
Arg@@ 18
Art@@ 18
Atom 18
Aur@@ 18
Autom@@ 18
B.C. 18
Base 18
Bih@@ 18
Bone 18
Change 18
Circ@@ 18
Complex 18
DJ@@ 18
Day@@ 18
Devi 18
Diag@@ 18
Dictionary 18
Do 18
Dub@@ 18
During 18
EU@@ 18
Educational 18
Elizabeth 18
Encyclop@@ 18
Father 18
Fir@@ 18
Five 18
Fo@@ 18
Frank 18
Freedom 18
GF 18
Geomet@@ 18
Glob@@ 18
Halloween 18
Hipp@@ 18
Historical 18
Hong 18
Hou@@ 18
Israel 18
Jaw@@ 18
KR 18
Kav@@ 18
Keys 18
Ki 18
Kong 18
Latin 18
Leon@@ 18
Lili@@ 18
Marie 18
Meth@@ 18
MiG 18
Mic@@ 18
Michaels 18
Mid@@ 18
Mind@@ 18
Minister 18
Morgan 18
Mé@@ 18
NAT@@ 18
NME 18
NW 18
Nau@@ 18
Nin@@ 18
No.@@ 18
Pach@@ 18
Peak 18
Pent@@ 18
Phar@@ 18
Phosph@@ 18
Phy@@ 18
Planning 18
Pli@@ 18
Price 18
Production 18
Program 18
Programming 18
Python 18
Rai@@ 18
Ras@@ 18
Rat 18
Rum@@ 18
Run@@ 18
Russia 18
SAS 18
SW 18
Smart 18
Sog@@ 18
South@@ 18
Sports 18
Stat@@ 18
Takah@@ 18
Temper@@ 18
Thomson 18
Tower 18
Translation 18
Tree 18
Tu 18
UNESCO 18
Under@@ 18
VS 18
Vice 18
Vijay@@ 18
Viv@@ 18
WP@@ 18
Will 18
Zar@@ 18
Zu@@ 18
abolic 18
aca 18
aden@@ 18
aging 18
ahu 18
aku 18
algorithm 18
allow 18
ana@@ 18
anatomy 18
anim@@ 18
ank 18
arm 18
arth@@ 18
ashi 18
athy 18
aver@@ 18
awar@@ 18
ban 18
bedded 18
believed 18
bf 18
bot@@ 18
boundary 18
bu 18
carp@@ 18
cast 18
chayat 18
cit@@ 18
claimed 18
client 18
community 18
cov@@ 18
diat@@ 18
directed 18
discovered 18
dry 18
eler@@ 18
eless 18
eller 18
ener@@ 18
enh@@ 18
ente 18
entr@@ 18
eon 18
epith@@ 18
erous 18
err@@ 18
escent 18
essions 18
ester@@ 18
estra 18
events 18
exec@@ 18
farming 18
fo 18
forced 18
fr@@ 18
geon 18
gin 18
gray 18
had@@ 18
harm@@ 18
heavy 18
hl 18
humans 18
ici@@ 18
ick 18
ideas 18
ight 18
increases 18
industrial 18
ingu@@ 18
internet 18
ithec@@ 18
ix@@ 18
kam@@ 18
know 18
ku@@ 18
kul@@ 18
lattice 18
lem@@ 18
lers 18
lik@@ 18
lination 18
location 18
los@@ 18
marketing 18
marks 18
mentation 18
metall@@ 18
nal 18
neutr@@ 18
new@@ 18
o. 18
ogn@@ 18
oi 18
olo@@ 18
olymp@@ 18
omb@@ 18
ond 18
onment 18
oping 18
oride 18
pain 18
part@@ 18
party 18
phil@@ 18
politics 18
polymer@@ 18
probability 18
red@@ 18
regions 18
rod@@ 18
rot 18
satur@@ 18
sav@@ 18
sci@@ 18
shape 18
spac@@ 18
spl@@ 18
sta 18
stand 18
stig@@ 18
stip@@ 18
stop 18
stories 18
straight 18
sup@@ 18
super 18
tal 18
thing 18
toc@@ 18
toplas@@ 18
traditional 18
train 18
travel 18
tropical 18
tum@@ 18
tz 18
ugh@@ 18
ulating 18
vac@@ 18
vacuum 18
vertex 18
vessel 18
water@@ 18
whom 18
wood@@ 18
yer 18
ype 18
Á@@ 18
én 18
ñ 18
ño 18
Ā@@ 18
ư@@ 18
ɐ 18
ɐ@@ 18
ʿ@@ 18
Ε@@ 18
ή 18
э@@ 18
ס@@ 18
ת@@ 18
غ 18
َ 18
গ 18
ਅ@@ 18
ਿ 18
ં@@ 18
ી@@ 18
ା 18
ள 18
చ@@ 18
ే@@ 18
ో@@ 18
ര 18
ง@@ 18
န@@ 18
ု 18
ွ@@ 18
℃ 18
← 18
山 18
本 18
， 18
1551 17
1656 17
AZ 17
Ab 17
Abu 17
Alternative 17
Andro@@ 17
BW@@ 17
Because 17
Bern@@ 17
Body 17
Boh@@ 17
Can 17
Cann@@ 17
Catholic 17
Census 17
Cla@@ 17
Cli@@ 17
Coordin@@ 17
Cot@@ 17
Cricket 17
Dah@@ 17
Dog 17
Dro@@ 17
ESP@@ 17
Economy 17
External 17
Eye 17
F.C. 17
Fed@@ 17
Fol@@ 17
Forces 17
Fran@@ 17
Garden 17
Gob@@ 17
HK 17
Head@@ 17
Heat 17
Heter@@ 17
Hos@@ 17
Ice 17
Jade 17
Jr 17
Justice 17
Kr@@ 17
Kund@@ 17
Labs 17
Launch 17
Lawrence 17
Lec@@ 17
Lex@@ 17
Liberation 17
Lif@@ 17
Lyn@@ 17
Lász@@ 17
Mark@@ 17
NXT 17
NYC 17
NZ 17
Nad@@ 17
Ng@@ 17
Observatory 17
Origin 17
Pall@@ 17
Partic@@ 17
Pas@@ 17
Peninsula 17
Personal 17
Petroleum 17
Phone 17
Pip@@ 17
Pir@@ 17
Politics 17
Potter 17
Prasad 17
Prof. 17
Quest@@ 17
Ry@@ 17
Samb@@ 17
Scott 17
Sex 17
Sign 17
Simple 17
Song 17
Standards 17
Store 17
Str@@ 17
Strep@@ 17
Supreme 17
Sut@@ 17
TNT 17
Tax@@ 17
Team 17
Tem@@ 17
Tour 17
Toyota 17
View 17
Vish@@ 17
Volume 17
Vul@@ 17
Whit@@ 17
Wright 17
actions 17
acute 17
adh 17
aircraft 17
algebraic 17
alis@@ 17
allowed 17
aman 17
anas 17
anza 17
appointed 17
aras 17
archy 17
ather@@ 17
authority 17
awards 17
azar 17
bas@@ 17
belt 17
bio 17
bio@@ 17
bir@@ 17
blast 17
bot 17
brought 17
canal 17
cau@@ 17
character 17
chol@@ 17
circular 17
cob@@ 17
coll@@ 17
committee 17
connected 17
consisting 17
consonant 17
containing 17
corresponding 17
criticized 17
ct 17
cultural 17
dan 17
defeated 17
degrees 17
denomin@@ 17
described 17
dich@@ 17
differences 17
dispat@@ 17
diss@@ 17
dom 17
dom@@ 17
dra 17
dre@@ 17
dual 17
eck@@ 17
effective 17
eggs 17
engl@@ 17
enko 17
ensi@@ 17
enz@@ 17
estimated 17
etary 17
existing 17
feature 17
fem@@ 17
fer 17
fi 17
focus 17
fol@@ 17
followed 17
fran@@ 17
gear 17
generator 17
geography 17
ges@@ 17
gland 17
gur@@ 17
hir@@ 17
hl@@ 17
holds 17
ible 17
icism 17
ick@@ 17
iconductor 17
ific 17
ij@@ 17
increased 17
inger 17
ining 17
instruments 17
interactions 17
io@@ 17
iro 17
ishi 17
judi@@ 17
kit 17
lana 17
lar 17
leb@@ 17
lich@@ 17
lined 17
ling@@ 17
lists 17
ló 17
mand@@ 17
mas@@ 17
median 17
message 17
mirror 17
mouth 17
mutation 17
nah@@ 17
nasal 17
navig@@ 17
nervous 17
notes 17
oba 17
ock@@ 17
offer 17
ois@@ 17
olithic 17
omer 17
oot 17
osaurus 17
osus 17
osyn@@ 17
ound 17
ovi@@ 17
pattern 17
periodic 17
persons 17
pitch 17
piv@@ 17
plasma 17
plitude 17
port 17
portal 17
pro 17
profile 17
pure 17
qi 17
quet 17
rai 17
ramp@@ 17
reflec@@ 17
relief 17
rev@@ 17
rich 17
rin 17
rise 17
rob@@ 17
sciences 17
sensitive 17
serve 17
signed 17
silver 17
skin 17
smart@@ 17
sour@@ 17
spiral 17
steam 17
switch 17
synthesis 17
techniques 17
tern 17
tissues 17
tos@@ 17
tot@@ 17
uch 17
uer@@ 17
uf@@ 17
ulata 17
ulin 17
ulp@@ 17
uniform 17
unt 17
urus 17
users 17
usion 17
vak@@ 17
variation 17
vectors 17
vertical 17
vill@@ 17
virtual 17
vo 17
wah@@ 17
ways 17
winning 17
zan 17
Ì@@ 17
ò@@ 17
ú 17
ě@@ 17
ı 17
Š@@ 17
З@@ 17
қ@@ 17
ө@@ 17
ר 17
ض 17
ܝ@@ 17
रावट 17
ॼ@@ 17
ৃ@@ 17
ো 17
ਆ@@ 17
ੂ@@ 17
ક@@ 17
ો@@ 17
େ@@ 17
ண 17
ண@@ 17
ய 17
ழ 17
ద 17
య 17
ส@@ 17
ἀ@@ 17
─ 17
小@@ 17
新@@ 17
ﷺ 17
1. 16
10th 16
16th 16
A.D. 16
ACC 16
Afghanistan 16
Alliance 16
Annual 16
Antarctic 16
Asc@@ 16
Assam 16
Atlantic 16
Audio 16
B.A. 16
Bisch@@ 16
Bose 16
Boston 16
Boys 16
Bull 16
But 16
C3 16
Camp@@ 16
Car 16
Ce@@ 16
Champ@@ 16
Children 16
Chur@@ 16
Columbia 16
Commerce 16
Conservation 16
Cross 16
Dance 16
Dep@@ 16
Despite 16
Diam@@ 16
Direct 16
Dz@@ 16
Editor 16
Egyptian 16
Ek@@ 16
Eli@@ 16
Emile 16
Eu@@ 16
Exec@@ 16
Fal@@ 16
Federal 16
Fire@@ 16
Franc@@ 16
Franç@@ 16
Glu@@ 16
Gom@@ 16
Gram 16
HMS 16
HV 16
Has@@ 16
Haz@@ 16
Heinrich 16
Hollywood 16
Howard 16
Hym@@ 16
Isaac 16
Italian 16
Jack 16
Jer@@ 16
Jews 16
Jose 16
KC 16
Kah@@ 16
Kang@@ 16
Kann@@ 16
Kelvin 16
Kom@@ 16
Kut@@ 16
LR 16
Lem@@ 16
Letters 16
Literature 16
Lotus 16
Lud@@ 16
M.A. 16
Mechanical 16
Mem@@ 16
Memorial 16
Mercury 16
Mohammad 16
Motors 16
Naw@@ 16
News@@ 16
Nih@@ 16
Nile 16
Nub@@ 16
Official 16
Oh@@ 16
Oil 16
Or 16
Over 16
PF 16
Play 16
Police 16
Prat@@ 16
Prem@@ 16
Private 16
Religion 16
Renault 16
Rick@@ 16
Rule 16
SK@@ 16
SQ@@ 16
Sac@@ 16
Saf@@ 16
Sau@@ 16
Scor@@ 16
Sham@@ 16
Spi@@ 16
St 16
Ste@@ 16
Stories 16
Table 16
Taur@@ 16
Text 16
Triangle 16
Unix 16
Va@@ 16
Vol 16
WR@@ 16
Wad@@ 16
Wat@@ 16
Water@@ 16
Williams 16
Worldwide 16
XT 16
Years 16
Your 16
Zam@@ 16
Zone 16
a- 16
absor@@ 16
aces 16
activities 16
ades 16
ady 16
agen@@ 16
ahr@@ 16
aid@@ 16
alkal@@ 16
alla 16
aller 16
alone 16
amin 16
anol 16
antis@@ 16
aper@@ 16
approach 16
ares 16
arian 16
arn@@ 16
astro@@ 16
atom@@ 16
attempt 16
aug@@ 16
bay@@ 16
brach@@ 16
bran@@ 16
bron@@ 16
build 16
buildings 16
bury 16
calendar 16
cam@@ 16
camera 16
capture 16
carrier 16
ced 16
channel 16
cians 16
cities 16
clu@@ 16
coh@@ 16
cold 16
column 16
comes 16
compil@@ 16
computing 16
conf@@ 16
constructed 16
currents 16
cutting 16
cycles 16
database 16
daughter 16
decided 16
declared 16
define 16
dible 16
dir@@ 16
disc 16
drau@@ 16
drawn 16
ecology 16
ective 16
edges 16
eds 16
educational 16
een 16
efforts 16
ej@@ 16
election 16
ells 16
ences 16
engines 16
ength 16
enius 16
enne 16
entire 16
ently 16
ento 16
enzyme 16
eo 16
ers@@ 16
exist 16
experimental 16
ferti@@ 16
fibro@@ 16
fifth 16
finance 16
fle@@ 16
flora 16
folia 16
formul@@ 16
friction 16
gauge 16
glu@@ 16
gru@@ 16
hin 16
histor@@ 16
hoc 16
hour 16
ician 16
ilus 16
imaging 16
impact 16
induced 16
inner 16
investment 16
ios@@ 16
isen 16
island 16
istics 16
itable 16
iter@@ 16
ito 16
ité 16
iz 16
jar@@ 16
jection 16
junc@@ 16
keep 16
kingdom 16
lai 16
lier 16
marriage 16
math@@ 16
med 16
mem@@ 16
ment@@ 16
mian 16
minimum 16
musical 16
nas@@ 16
nau@@ 16
neut@@ 16
noise 16
nor 16
northern 16
ny 16
objects 16
occus 16
ochem@@ 16
odor@@ 16
odynam@@ 16
ogs 16
oid@@ 16
omin@@ 16
onents 16
oos 16
opes 16
ophr@@ 16
osi@@ 16
oten@@ 16
overall 16
overs 16
pair 16
parent 16
peer 16
pend@@ 16
pendicular 16
phosph@@ 16
places 16
plates 16
print@@ 16
printing 16
produces 16
programs 16
psycho@@ 16
quot@@ 16
rain 16
reach 16
reasoning 16
rent 16
reported 16
reson@@ 16
retired 16
retro@@ 16
review 16
rica 16
rice 16
ridge 16
rup@@ 16
sau@@ 16
seal 16
secure 16
separation 16
sheet 16
shin 16
soci@@ 16
solutions 16
sper@@ 16
stellar 16
sto@@ 16
store 16
stream 16
stro@@ 16
taking 16
tax@@ 16
teaching 16
teams 16
tern@@ 16
tests 16
thal 16
tham 16
thr@@ 16
tos 16
transformation 16
uba 16
ucle@@ 16
ulla 16
unci@@ 16
universal 16
uns 16
utation 16
vehicle 16
went 16
wire 16
woman 16
yang 16
ye@@ 16
 16
ª@@ 16
Â@@ 16
Ù 16
å@@ 16
ê 16
ë@@ 16
ö 16
đ@@ 16
ł@@ 16
ʌ@@ 16
Е@@ 16
ث 16
گ 16
ऎ 16
थापि 16
मुंब@@ 16
ગ@@ 16
હ@@ 16
ତ@@ 16
ନ 16
ஸ 16
అ@@ 16
ీ@@ 16
ಚ@@ 16
ಜ@@ 16
ദ@@ 16
ง 16
ཁ@@ 16
བ 16
ུ 16
ắ@@ 16
ồ@@ 16
☃ 16
♭ 16
の@@ 16
南@@ 16
漢@@ 16
한@@ 16
﻿ 16
12th 15
1594 15
2n 15
ARD 15
ASA 15
Affairs 15
Ale@@ 15
Alph@@ 15
Analy@@ 15
Ank@@ 15
Apache 15
Application 15
Asi@@ 15
Atomic 15
Bad 15
Baj@@ 15
Band 15
Bird 15
Blu@@ 15
Boy 15
Britain 15
But@@ 15
CDs 15
CON@@ 15
Cancer 15
Catal@@ 15
Championship 15
Chat@@ 15
Cir@@ 15
Commons 15
Connec@@ 15
Cont@@ 15
County 15
Cretaceous 15
Criminal 15
Crown 15
Daniel 15
Deg@@ 15
Denmark 15
Diamond 15
Doctor 15
Emperor 15
Ent@@ 15
Euro@@ 15
Even 15
FIDE 15
Finance 15
Fuj@@ 15
Full 15
Future 15
Gab@@ 15
Gall@@ 15
Goo@@ 15
Greater 15
Green@@ 15
Gs 15
Guinea 15
Gupta 15
Hath@@ 15
Horiz@@ 15
IAU 15
Internal 15
JR 15
Joe 15
Jog@@ 15
Jones 15
Jun@@ 15
Kash@@ 15
Ked@@ 15
Kerala 15
Lang@@ 15
Lip@@ 15
Lov@@ 15
Malik 15
Map@@ 15
Marine 15
Market 15
Masters 15
Maur@@ 15
Medic@@ 15
Miller 15
Mini@@ 15
Museo 15
Nacional 15
Networks 15
Notes 15
Olympics 15
Online 15
Otto 15
Our 15
Person@@ 15
Pha@@ 15
Phase 15
Phen@@ 15
Phil@@ 15
Philip 15
Pla@@ 15
Polyn@@ 15
Province 15
Published 15
Que@@ 15
Quick 15
RAF 15
Raja 15
Rav@@ 15
Roy 15
Rup@@ 15
Rus@@ 15
Sach@@ 15
Secondary 15
Seg@@ 15
Serv@@ 15
Sexual 15
Song@@ 15
Species 15
Spl@@ 15
Squ@@ 15
Sty@@ 15
Succ@@ 15
Surgery 15
TX 15
Tax 15
Tec@@ 15
Telugu 15
Ten 15
Thor@@ 15
Title 15
Tom 15
USAF 15
Ved@@ 15
Victor 15
Vitamin 15
WB 15
WM@@ 15
Wales 15
Wan@@ 15
Wave 15
Whi@@ 15
Why 15
Wind 15
Wood@@ 15
Work@@ 15
Xi@@ 15
Yer@@ 15
abase 15
acia 15
ación 15
actor 15
add 15
adur 15
aeus 15
agor@@ 15
ahl 15
ald 15
aldehy@@ 15
algebra 15
alisation 15
alized 15
alternating 15
amen 15
amide 15
antine 15
apa 15
ape 15
app 15
applications 15
approximate 15
arts 15
asha 15
assic 15
asth@@ 15
atica 15
atives 15
atorial 15
atri@@ 15
att 15
aun@@ 15
bach 15
ball@@ 15
bel 15
bet@@ 15
bill 15
bow 15
boy 15
bud@@ 15
call 15
cant@@ 15
car 15
caste 15
characteristic 15
chor@@ 15
citation 15
citizens 15
classical 15
clock 15
codi@@ 15
coli 15
collision 15
competed 15
contain 15
converted 15
corpor@@ 15
coun@@ 15
craft 15
critics 15
crystall@@ 15
currency 15
damage 15
dedicated 15
definitions 15
dial@@ 15
differentiation 15
dimensions 15
diseases 15
dog@@ 15
dynam@@ 15
edit@@ 15
edited 15
eg 15
eight 15
eni 15
enor@@ 15
erh@@ 15
essi@@ 15
eton 15
etta 15
etti 15
examples 15
feed 15
feet 15
fel@@ 15
finish 15
finite 15
fix 15
foli@@ 15
française 15
fri@@ 15
friger@@ 15
gens 15
goal 15
got@@ 15
grade 15
hag@@ 15
hands 15
hardware 15
has@@ 15
hei@@ 15
hip 15
hiz@@ 15
hospital 15
hya 15
icum 15
ien 15
ima 15
inclu@@ 15
insi@@ 15
intermediate 15
isc@@ 15
isha 15
ispru@@ 15
ister 15
itance 15
itary 15
jective 15
kan 15
ked 15
kov@@ 15
kun@@ 15
lack 15
lak@@ 15
lake 15
launched 15
lav@@ 15
leaders 15
lett 15
letters 15
lied 15
list@@ 15
liter@@ 15
mas 15
master 15
maxim@@ 15
may@@ 15
measured 15
mein 15
metic 15
mia 15
moved 15
mut@@ 15
nat@@ 15
need@@ 15
noted 15
nt 15
numerous 15
nut 15
nutrition 15
ocephal@@ 15
odes@@ 15
oglob@@ 15
oles 15
olus 15
onium 15
ony 15
orbital 15
orting 15
ost 15
ousness 15
oxygen 15
particularly 15
perfect 15
pist@@ 15
plain 15
planet 15
plem@@ 15
pom@@ 15
pon@@ 15
pose 15
posterior 15
pp 15
precision 15
press@@ 15
ps@@ 15
pu 15
publi@@ 15
quart@@ 15
rad@@ 15
radical 15
rage 15
realism 15
referred 15
represent 15
retic@@ 15
rings 15
rix 15
run@@ 15
sac@@ 15
sad 15
sample 15
selected 15
share 15
sim@@ 15
simulation 15
sit@@ 15
slow 15
song 15
songs 15
stit@@ 15
stom@@ 15
ston 15
street 15
structural 15
suffered 15
supp@@ 15
supported 15
tat 15
technical 15
theor@@ 15
think 15
ticism 15
tificial 15
tog@@ 15
transm@@ 15
transport 15
tribes 15
tron 15
truth 15
tubes 15
tum 15
uff@@ 15
ultra@@ 15
unk@@ 15
uns@@ 15
valve 15
veh@@ 15
vein 15
vent 15
victory 15
visible 15
vs. 15
wards 15
was@@ 15
waste 15
wat@@ 15
weeks 15
whis@@ 15
wide 15
xy 15
yg@@ 15
zy 15
¡ 15
École 15
Ü 15
ên 15
ü 15
ý@@ 15
Τ@@ 15
ދ@@ 15
ऺ 15
হ 15
ৌ@@ 15
ਕ 15
ਨ 15
ୁ@@ 15
இ@@ 15
ஜ@@ 15
ಅ@@ 15
ೋ@@ 15
ച@@ 15
ണ@@ 15
പ 15
ൂ@@ 15
ോ@@ 15
ཆ@@ 15
ạ@@ 15
⅓ 15
↔ 15
≠ 15
☑ 15
イ@@ 15
一@@ 15
文@@ 15
明@@ 15
.000 14
1960s 14
1990s 14
2,2 14
21st 14
Abd 14
Access 14
Administrative 14
Ah 14
Ahmed 14
Ajax 14
Albert 14
Arc 14
Are 14
Austral@@ 14
Baba 14
Bank@@ 14
Basi@@ 14
Bast@@ 14
Beh@@ 14
Bengali 14
Benz 14
Bish@@ 14
Bomb@@ 14
Brown 14
Bun@@ 14
Bus 14
Caes@@ 14
Calcutta 14
Canon 14
Caribbean 14
Cart@@ 14
Castle 14
Cath@@ 14
Chor@@ 14
Classical 14
Coc@@ 14
Communications 14
Core 14
Corporate 14
Cryp@@ 14
Daimler 14
Das 14
Death 14
Democ@@ 14
Deutschland 14
Dou@@ 14
Edition 14
Ele@@ 14
Engine 14
Ernst 14
Ethn@@ 14
Event 14
Evil 14
FAA 14
FK 14
Fa@@ 14
Form@@ 14
Fri@@ 14
Fron@@ 14
GO 14
Gast@@ 14
Geography 14
Goa 14
Gog@@ 14
Good@@ 14
Gos@@ 14
Governorate 14
HK@@ 14
Hand@@ 14
Haw@@ 14
Hayes 14
Heavy 14
Heb@@ 14
Hell@@ 14
Hew@@ 14
Hil@@ 14
Holy 14
Hot@@ 14
Hus@@ 14
Indians 14
Indu@@ 14
Jhar@@ 14
Kach@@ 14
Karnataka 14
Ken@@ 14
Kid@@ 14
Kim@@ 14
Kish@@ 14
LI@@ 14
Languages 14
Late 14
Leo 14
Level 14
Living 14
Loc@@ 14
Lond@@ 14
MMA 14
MX 14
Marathon 14
Mari@@ 14
Marx 14
Maxim@@ 14
Maxwell 14
Member 14
Metal@@ 14
Mim@@ 14
Mind 14
Ministry 14
Minor 14
Mou@@ 14
Mountain 14
Movie 14
Mud@@ 14
Multi 14
Nab@@ 14
Nation 14
Nerv@@ 14
Never 14
OF 14
Opera 14
Pag@@ 14
Palace 14
Pank@@ 14
Part@@ 14
Patel 14
Pati@@ 14
Pictures 14
Pill@@ 14
Planet 14
Plas@@ 14
Pleist@@ 14
Prob@@ 14
Product 14
Pyth@@ 14
Qual@@ 14
Quality 14
Quantum 14
Rein@@ 14
Renaissance 14
Resources 14
Ring 14
Rock@@ 14
Rot@@ 14
Salam@@ 14
Selection 14
Sense 14
Simp@@ 14
Singapore 14
Site 14
Soft 14
Solutions 14
Son 14
Spar@@ 14
Spot 14
Srin@@ 14
Sten@@ 14
Stra@@ 14
Studios 14
Tad@@ 14
Tah@@ 14
Take 14
Talk 14
Thy@@ 14
Today 14
Tools 14
Uni@@ 14
Using 14
Vision 14
Voice 14
WA@@ 14
WE@@ 14
Weap@@ 14
West@@ 14
Where 14
Wilson 14
Wine 14
Wood 14
Word 14
Yus@@ 14
Z.A. 14
Zealand 14
a. 14
acle 14
acter 14
adding 14
aea 14
agra@@ 14
agram 14
agu@@ 14
aining 14
aise 14
alists 14
alpha 14
alphabet 14
alphabet@@ 14
alternative 14
angi 14
ante 14
apparent 14
appear 14
appen@@ 14
arab@@ 14
arianism 14
arta 14
aru 14
ased 14
ases 14
ason 14
aste 14
astronomy 14
atro@@ 14
auss 14
auto 14
auto@@ 14
bag@@ 14
banking 14
bau@@ 14
beta 14
biological 14
border 14
boys 14
branch 14
brand@@ 14
call@@ 14
camp@@ 14
cann@@ 14
cement 14
chart 14
chrom@@ 14
cible 14
cies 14
cinema 14
circuits 14
civilization 14
coal 14
command 14
compositions 14
configuration 14
conv@@ 14
cord 14
correct 14
counting 14
cow@@ 14
cub@@ 14
cup 14
daily 14
dal@@ 14
dge 14
diag@@ 14
digit@@ 14
discharge 14
divisions 14
dol@@ 14
dress 14
drug 14
drum 14
dé@@ 14
eases 14
eba 14
ees 14
egu@@ 14
eia 14
eig@@ 14
ellan 14
ems 14
enkat@@ 14
ensor 14
entry 14
erk@@ 14
esch@@ 14
esses 14
etz@@ 14
eu 14
except 14
exhaust 14
experiments 14
expressions 14
faces 14
failed 14
fat 14
females 14
fir@@ 14
folk 14
founder 14
fs 14
fun@@ 14
galaxy 14
garden 14
gast@@ 14
gau@@ 14
ged@@ 14
gem@@ 14
gement 14
gestion 14
giving 14
glo@@ 14
goes 14
going 14
gra 14
growing 14
guitar@@ 14
hala 14
hel 14
hit 14
hua 14
i. 14
iaceae 14
ians 14
ified 14
iling 14
imer 14
involving 14
iny 14
ional 14
irrit@@ 14
isch@@ 14
isol@@ 14
izer 14
jay 14
kay@@ 14
kes 14
lau@@ 14
lingu@@ 14
link@@ 14
lip 14
lique 14
liz@@ 14
longitudinal 14
lus 14
maker 14
mark@@ 14
medal 14
melting 14
metals 14
minister 14
minutes 14
models 14
multi 14
mun@@ 14
nea 14
nia 14
nun 14
oci@@ 14
oct@@ 14
oder@@ 14
oki 14
ologies 14
omorph@@ 14
online 14
ont 14
ony@@ 14
oop 14
opathy 14
operator 14
orb@@ 14
osh 14
oso 14
oss 14
otherapy 14
otta 14
ought 14
ours 14
owing 14
pac@@ 14
param@@ 14
parap@@ 14
pay 14
plan 14
plat@@ 14
plc 14
poll@@ 14
prefix 14
processor 14
projection 14
ption 14
pump 14
push 14
quoted 14
read@@ 14
real@@ 14
recent 14
regul@@ 14
repeated 14
replaced 14
reproduction 14
rever@@ 14
revi@@ 14
rie 14
rier 14
righ@@ 14
rik@@ 14
rite 14
riv@@ 14
rod 14
rous 14
runner 14
sak@@ 14
scopy 14
scripts 14
sense 14
setting 14
shock 14
sidy 14
situated 14
sively 14
sle@@ 14
soul 14
speech 14
spherical 14
stabili@@ 14
stated 14
stra 14
sty@@ 14
tail 14
talk 14
tap@@ 14
technique 14
teeth 14
tension 14
tif@@ 14
tol@@ 14
trading 14
transform 14
transverse 14
triple 14
tual 14
tuber@@ 14
tun@@ 14
twice 14
uan 14
ull 14
uss@@ 14
uted 14
utes 14
valued 14
variety 14
vitational 14
whether 14
work@@ 14
writers 14
xed 14
yle@@ 14
zes 14
zing 14
zum@@ 14
© 14
¶ 14
Ø 14
ğ@@ 14
ơ@@ 14
ɑ 14
ɡ 14
с 14
х 14
ֵ@@ 14
ז@@ 14
राणिक 14
ॻ@@ 14
ਭ@@ 14
੍ 14
અ@@ 14
ି 14
ం 14
ಣ@@ 14
ಪ 14
ಳ@@ 14
ಶ 14
റ@@ 14
ะ@@ 14
လ@@ 14
ီ@@ 14
ᱟ@@ 14
ṅ@@ 14
♦ 14
三@@ 14
和@@ 14
市 14
西@@ 14
金@@ 14
ꯤ@@ 14
￱ 14
1,4 13
17th 13
1980s 13
3. 13
Abdullah 13
Abraham 13
Absol@@ 13
Adi@@ 13
Ae@@ 13
Aerospace 13
Appro@@ 13
Archae@@ 13
Astronom@@ 13
Behavi@@ 13
Benjamin 13
Bid@@ 13
Bit@@ 13
Bla@@ 13
Bombay 13
Bron@@ 13
Brothers 13
Bug@@ 13
CK@@ 13
Cay@@ 13
Ch 13
Chandra 13
Charlie 13
Chil@@ 13
Chir@@ 13
Circle 13
Civi@@ 13
Classic 13
Cle@@ 13
Cloud 13
Command 13
Communication 13
Consi@@ 13
Content 13
Continental 13
Copy@@ 13
Corp 13
Crow@@ 13
Cul@@ 13
Das@@ 13
Deh@@ 13
Deutsche 13
Down@@ 13
Dug@@ 13
Dw@@ 13
Economics 13
Encyclopedia 13
Europ@@ 13
Examples 13
Extreme 13
FDP 13
Fair@@ 13
Fame 13
Ferdinand 13
Final 13
Flo@@ 13
Flu@@ 13
Forbes 13
Formula 13
Gallery 13
Gha@@ 13
Gil@@ 13
Giovanni 13
Girl 13
Glass 13
Gordon 13
Gyn@@ 13
Hab@@ 13
Hay@@ 13
Hence 13
Herbert 13
Hit@@ 13
Hypo@@ 13
Ich@@ 13
Insurance 13
Jerome 13
José 13
Jug@@ 13
Julian 13
Junior 13
Just 13
Kasi@@ 13
Kau@@ 13
Kes@@ 13
Kho@@ 13
Kil@@ 13
Koll@@ 13
Laksh@@ 13
Law@@ 13
Ley@@ 13
Lis@@ 13
Lod@@ 13
Loh@@ 13
Lut@@ 13
M3 13
MU 13
Mam@@ 13
Manager 13
Marx@@ 13
Mendel@@ 13
Mercedes 13
Missile 13
Mom@@ 13
Mt 13
Mu 13
Mult@@ 13
Muz@@ 13
NL 13
Naz@@ 13
Nepal 13
Offic@@ 13
Orb@@ 13
Ou@@ 13
Ov@@ 13
Over@@ 13
Paper 13
Partido 13
Path 13
Pend@@ 13
Penn@@ 13
Pion@@ 13
Pirates 13
Pit@@ 13
Play@@ 13
Plin@@ 13
Principal 13
Professional 13
Programme 13
Rahman 13
Raj 13
Reh@@ 13
Report 13
Rox@@ 13
Ruby 13
Rust@@ 13
Sabha 13
Safe 13
Salvador 13
Samuel 13
Santiago 13
Sas@@ 13
Say@@ 13
Scar@@ 13
Scotland 13
Set@@ 13
Shen@@ 13
Signal 13
Similarly 13
Sites 13
Sle@@ 13
SmackDown 13
Socialist 13
Sou@@ 13
Spanish 13
Spin@@ 13
Sri@@ 13
Strategic 13
Stre@@ 13
Supp@@ 13
Swiss 13
TF 13
Tag 13
Task 13
Tek@@ 13
Television 13
Terti@@ 13
Theod@@ 13
Thompson 13
Tox@@ 13
Transm@@ 13
Transport 13
Tunnel 13
Tw@@ 13
Under 13
Unicode 13
Unit 13
Walter 13
Wide 13
Wo@@ 13
Writ@@ 13
Yad@@ 13
Yog@@ 13
Zan@@ 13
Zero 13
aal 13
acquisition 13
acu@@ 13
address 13
adjust@@ 13
advantage 13
agan 13
aggregate 13
agon 13
ahara 13
alli@@ 13
alph@@ 13
already 13
alt 13
aming 13
amplif@@ 13
ange@@ 13
anj@@ 13
anthus 13
ario 13
armed 13
arp@@ 13
arranged 13
asses 13
aster 13
atal 13
ate@@ 13
ately 13
athan 13
atmosphere 13
attention 13
autom@@ 13
avirus 13
avoid 13
ayi 13
battery 13
battle 13
beautiful 13
behind 13
beneficial 13
biom@@ 13
bone 13
brian 13
bro 13
bry@@ 13
cable 13
cap 13
cas@@ 13
cataly@@ 13
catch 13
cel 13
cerebral 13
changed 13
cherry 13
chess 13
chronic 13
claims 13
collector 13
collo@@ 13
comb 13
combin@@ 13
conductor 13
consists 13
contains 13
contrac@@ 13
controller 13
copper 13
corro@@ 13
creation 13
crystals 13
ctions 13
cy 13
cylinder 13
dd 13
dell 13
democracy 13
deo 13
dial 13
difficult 13
dil@@ 13
direc@@ 13
disk 13
disorders 13
dl 13
doctrine 13
dorsal 13
dru@@ 13
dt 13
ductor 13
earlier 13
edra 13
educated 13
edy 13
eit@@ 13
elin 13
ellular 13
embry@@ 13
emic 13
emissions 13
ened 13
enna 13
entered 13
entes 13
entities 13
enza 13
eping 13
ergic 13
esc@@ 13
establish 13
eters 13
expanded 13
experience 13
extra@@ 13
extrem@@ 13
falls 13
fate 13
fee 13
flight 13
foot 13
forests 13
functional 13
für 13
gained 13
games 13
gets 13
gg@@ 13
gue 13
gun@@ 13
harm 13
haz@@ 13
hn 13
hold 13
human@@ 13
hybri@@ 13
hybrid 13
hydrogen 13
ial@@ 13
ido 13
iga 13
ikan@@ 13
ild@@ 13
incidence 13
individuals 13
inequality 13
inferior 13
infin@@ 13
infinite 13
initial 13
integrated 13
irc@@ 13
ire@@ 13
isher 13
itz@@ 13
jana 13
jus 13
justice 13
kab@@ 13
kat 13
kat@@ 13
ken 13
killed 13
kins 13
kla 13
label 13
lah 13
lam 13
ld 13
leg 13
lein 13
likely 13
listic 13
mainly 13
mak@@ 13
makes 13
markets 13
mat 13
mill@@ 13
mixture 13
mov@@ 13
necessary 13
neum@@ 13
observed 13
odic 13
ogene 13
oia 13
olic 13
olla 13
ome@@ 13
onas 13
ophyllum 13
organs 13
orium 13
orn 13
oti@@ 13
otox@@ 13
oxid@@ 13
pad@@ 13
paid 13
palm 13
parad@@ 13
parties 13
passed 13
person@@ 13
pes 13
playing 13
ples 13
plying 13
pollution 13
positi@@ 13
powers 13
praised 13
predic@@ 13
pression 13
proc@@ 13
professional 13
proper 13
proportion 13
protect 13
protection 13
province 13
pter@@ 13
question 13
radic@@ 13
radioactive 13
random 13
rank 13
rant 13
rapid 13
ratic 13
rau@@ 13
reached 13
refer 13
refers 13
reform 13
ren 13
rene 13
represented 13
representing 13
respon@@ 13
ress 13
reus 13
rey 13
rium 13
rol 13
rolling 13
s. 13
sand@@ 13
says 13
seed 13
sei@@ 13
shaped 13
shore 13
sit 13
smaller 13
sol 13
spinal 13
spirit 13
stable 13
stars 13
statistics 13
structured 13
swe@@ 13
tak@@ 13
tent@@ 13
terminal 13
thin 13
thousand 13
thur 13
tified 13
tigen 13
tin 13
tis 13
tly 13
traits 13
tru@@ 13
typically 13
ulia 13
ulo 13
ulose 13
ulsion 13
ult@@ 13
ument 13
unity 13
university 13
uno 13
ury 13
uter@@ 13
valley 13
vary 13
vel 13
virtu@@ 13
voice 13
voiced 13
vs 13
warfare 13
wavel@@ 13
whilst 13
widely 13
with@@ 13
wo@@ 13
worldwide 13
ws 13
yle 13
Ç@@ 13
Ö@@ 13
ár@@ 13
ë 13
ò 13
ù@@ 13
ý 13
þ@@ 13
ɹ@@ 13
Σ 13
з 13
ё@@ 13
ׁ@@ 13
ד 13
ז 13
ע 13
ؤ@@ 13
ٹ 13
ު 13
दानिक 13
ऺ@@ 13
ঘ@@ 13
ছ@@ 13
ਬ 13
ન 13
ભ@@ 13
સ@@ 13
ુ@@ 13
ହ@@ 13
எ@@ 13
ழ@@ 13
ట@@ 13
డ 13
హ@@ 13
ೂ@@ 13
ം@@ 13
ീ@@ 13
ൃ@@ 13
ම@@ 13
ස@@ 13
ු@@ 13
ด@@ 13
ล@@ 13
ཀ@@ 13
ན@@ 13
པ 13
စ@@ 13
ည 13
ა@@ 13
ម@@ 13
‑ 13
☉ 13
人@@ 13
天@@ 13
東@@ 13
海@@ 13
김@@ 13
 13
1,5 12
11th 12
25th 12
AFC 12
AIA 12
AU@@ 12
Active 12
Alan 12
Alex@@ 12
Anim@@ 12
Anthrop@@ 12
Any 12
Aristotle 12
Auto@@ 12
Avi@@ 12
Aw@@ 12
BO 12
BS@@ 12
Barb@@ 12
Big@@ 12
Biological 12
Biology 12
Boeing 12
Brach@@ 12
Brain 12
Calvin 12
Camp 12
Cardi@@ 12
Career 12
Cassi@@ 12
Cathedral 12
Clar@@ 12
Clo@@ 12
Constitution 12
Cooperation 12
Cov@@ 12
Cran@@ 12
Cum@@ 12
Dark 12
Dell 12
Desert 12
Di 12
Director 12
Distribution 12
Double 12
Due 12
Einstein 12
Elephant 12
Emer@@ 12
En 12
Ev@@ 12
Executive 12
FIBA 12
Fas@@ 12
Fic@@ 12
Form 12
Forum 12
Ful@@ 12
Fundam@@ 12
GG 12
GL@@ 12
Gay@@ 12
Girls 12
Gly@@ 12
Graham 12
Ground 12
Gug@@ 12
Ha 12
Haf@@ 12
Hak@@ 12
Hansen 12
Hav@@ 12
Hei@@ 12
Helm@@ 12
Hey@@ 12
Higher 12
Hong@@ 12
Hub 12
IMO 12
Imag@@ 12
Imper@@ 12
Interactive 12
Introduction 12
Jak@@ 12
Ji 12
Just@@ 12
KD 12
KK 12
Kaw@@ 12
Kay@@ 12
Kel@@ 12
Key@@ 12
King@@ 12
Kings 12
Kop@@ 12
Kri@@ 12
Kuk@@ 12
Lah@@ 12
Large 12
Laws 12
Left 12
Len@@ 12
Lig@@ 12
Linn@@ 12
Local 12
Lost 12
Lu 12
Luck@@ 12
MAN 12
Madras 12
Mall@@ 12
Mamm@@ 12
Manual 12
Marathi 12
Maw@@ 12
Mec@@ 12
Mith@@ 12
Monte 12
Mr@@ 12
Mrs. 12
NES 12
NGOs 12
NK@@ 12
Naj@@ 12
Nal@@ 12
Nam 12
Nation@@ 12
Neb@@ 12
Nel@@ 12
Neo 12
Nike 12
Nintendo 12
North@@ 12
Norway 12
Nur@@ 12
Oce@@ 12
Pac@@ 12
Pain 12
Palestinian 12
Paras@@ 12
Partnership 12
Past@@ 12
Phoen@@ 12
Phoenix 12
Plac@@ 12
Poli@@ 12
Port@@ 12
Prak@@ 12
Prevention 12
Prime 12
Quad@@ 12
Quick@@ 12
Record 12
Resource 12
Return 12
Rhiz@@ 12
Rogers 12
Ross 12
Russell 12
SPD 12
Sai@@ 12
Sansk@@ 12
Santo 12
Saw@@ 12
Sci@@ 12
Sep@@ 12
Shank@@ 12
Shawn 12
Shor@@ 12
Shu@@ 12
Sidd@@ 12
Sin 12
Siv@@ 12
Sky 12
Slam 12
Speech 12
Stewart 12
Stor@@ 12
Stro@@ 12
Such 12
Sultan 12
Swe@@ 12
TH 12
Tat@@ 12
Tea 12
Tet@@ 12
Though 12
Thr@@ 12
Tibetan 12
Tokyo 12
Town 12
Trac@@ 12
Tube 12
UAE 12
Ug@@ 12
Unified 12
Urs@@ 12
VD 12
VF 12
Vaj@@ 12
Veter@@ 12
Warren 12
Wars 12
Wild 12
Wimble@@ 12
Wind@@ 12
Zen@@ 12
aber@@ 12
abis 12
abstract 12
achieved 12
acks 12
actually 12
agriculture 12
ajan 12
alth 12
amed 12
ando 12
anger 12
anterior 12
anu 12
any@@ 12
approximately 12
arb@@ 12
artists 12
asar 12
asian 12
asma 12
asset 12
asy 12
aters 12
atia 12
atist@@ 12
ativ@@ 12
atively 12
atiya 12
atoms 12
atu 12
audi@@ 12
ause 12
aux 12
axi@@ 12
bands 12
bath 12
beauty 12
behavior 12
behaviour 12
berry 12
beyond 12
bia 12
biot@@ 12
biotic 12
bleeding 12
boat 12
bomb 12
bou@@ 12
bow@@ 12
brush 12
bul 12
burn 12
c. 12
cardiac 12
category 12
causes 12
cereb@@ 12
chal@@ 12
chan 12
charging 12
chip 12
choice 12
chromos@@ 12
chy 12
circul@@ 12
circulation 12
cked 12
cket 12
cliffe 12
club 12
coc@@ 12
coming 12
commod@@ 12
composite 12
concepts 12
conjug@@ 12
consumer 12
continu@@ 12
contra@@ 12
convention 12
corporation 12
cost@@ 12
council@@ 12
counter 12
cultiv@@ 12
dah@@ 12
dance 12
deal 12
dehy@@ 12
department 12
derivatives 12
dest@@ 12
det 12
determined 12
dicine 12
diffusion 12
digits 12
dit@@ 12
diversity 12
dness 12
dot@@ 12
drinking 12
drop 12
dul@@ 12
dwarf 12
dynamics 12
ectors 12
eka 12
elementary 12
elimination 12
ellum 12
eman@@ 12
employment 12
encyclop@@ 12
ensic 12
ented 12
equipment 12
essive 12
estate 12
etal 12
evil 12
examination 12
explanation 12
eyes 12
f. 12
faction 12
factory 12
fair 12
fall@@ 12
fare 12
fighting 12
finding 12
fires 12
fix@@ 12
fly@@ 12
formations 12
forming 12
fort 12
fossil 12
foundation 12
fric@@ 12
fruit 12
fur 12
g. 12
gad@@ 12
gan 12
gap 12
gee 12
genetics 12
gers 12
golden 12
goods 12
gor@@ 12
graduate 12
grid 12
hak 12
hall@@ 12
hearing 12
heating 12
hep@@ 12
highly 12
holtz 12
hood 12
hyn@@ 12
iae 12
ideal 12
ife 12
igu@@ 12
ike 12
iko 12
inda 12
inflammatory 12
inia 12
inside 12
instance 12
interference 12
interval 12
ints 12
inver@@ 12
isch 12
ische 12
itas 12
itsu 12
itted 12
itu@@ 12
itudes 12
itus 12
iva 12
iza 12
jah@@ 12
jee 12
kai 12
kap@@ 12
kil@@ 12
kir@@ 12
kri@@ 12
labour 12
lak 12
latter 12
lay 12
ld@@ 12
leaves 12
leuk@@ 12
lif@@ 12
lified 12
lius 12
logical 12
mad 12
mamm@@ 12
manip@@ 12
marked 12
married 12
materi@@ 12
measuring 12
meteor@@ 12
minute 12
mixed 12
morphology 12
mov 12
mur@@ 12
nations 12
nee 12
nes 12
nig@@ 12
nom@@ 12
nostic 12
numer@@ 12
obacter@@ 12
occ@@ 12
ocytes 12
oden@@ 12
offensive 12
offered 12
older 12
oldest 12
ole@@ 12
olo 12
omen 12
omers 12
onders 12
open@@ 12
ophone 12
ophysi@@ 12
opsis 12
organisation 12
ossi@@ 12
otran@@ 12
oun 12
ound@@ 12
ounds 12
ove 12
owed 12
oz@@ 12
pairs 12
papers 12
participated 12
petroleum 12
phe@@ 12
phenomena 12
planning 12
plot 12
pod 12
pop@@ 12
positional 12
powerful 12
presence 12
prey 12
prim@@ 12
procedure 12
producing 12
projec@@ 12
pron@@ 12
proved 12
pulmon@@ 12
quantitative 12
quite 12
radio@@ 12
rang@@ 12
raw 12
reactions 12
recognize 12
rematch 12
removed 12
resul@@ 12
rid 12
ries 12
rim 12
roots 12
rotating 12
rs 12
rt@@ 12
save 12
saw@@ 12
schools 12
screen 12
seconds 12
secre@@ 12
seg@@ 12
sent 12
shall 12
ships 12
show@@ 12
signs 12
silic@@ 12
simply 12
sod@@ 12
sold 12
something 12
sor 12
speak 12
sports 12
staff 12
stal@@ 12
stations 12
statistical 12
sten@@ 12
stern@@ 12
sters 12
stones 12
stored 12
strati@@ 12
syl@@ 12
symptoms 12
technologies 12
telescope 12
temp@@ 12
tiles 12
till 12
tista 12
told 12
tool 12
track 12
translated 12
trape@@ 12
trial 12
uddin 12
umi 12
unk 12
unknown 12
upright 12
use@@ 12
uth 12
uti 12
utions 12
varies 12
views 12
warm 12
weed 12
wine 12
winners 12
writings 12
yat 12
zo 12
µm 12
ère 12
ín 12
ín@@ 12
î@@ 12
ġ@@ 12
Ÿ@@ 12
ά 12
κ 12
ώ@@ 12
г 12
ф@@ 12
ט@@ 12
خ 12
ھ 12
ނ@@ 12
परंप@@ 12
ও 12
ਖ@@ 12
બ@@ 12
લ@@ 12
ଦ@@ 12
ର 12
ୋ@@ 12
త 12
భ@@ 12
ಟ 12
ೊ@@ 12
ല 12
ල@@ 12
ข@@ 12
ค@@ 12
ช@@ 12
ม 12
า 12
แ@@ 12
้ 12
ང@@ 12
တ 12
ე@@ 12
ស@@ 12
ῖ@@ 12
ℓ 12
∆ 12
∈ 12
ン 12
公@@ 12
山@@ 12
式@@ 12
日 12
道 12
🙏 12
1523 11
1920@@ 11
2,6 11
ARS 11
AZ@@ 11
Abd@@ 11
Academic 11
Adap@@ 11
Andersen 11
Ans@@ 11
Architecture 11
Armoured 11
Associ@@ 11
Aster@@ 11
Audi@@ 11
Autonomous 11
Average 11
Bangalore 11
Baptist 11
Bath@@ 11
Bear 11
Benz@@ 11
Brit@@ 11
Carbon@@ 11
Carlo 11
Casa 11
Cat 11
Chairman 11
Chel@@ 11
Cho@@ 11
Chol@@ 11
Chr@@ 11
Civ@@ 11
Cock@@ 11
Compos@@ 11
Continu@@ 11
Cour@@ 11
Cross@@ 11
Cs@@ 11
Dend@@ 11
Develop@@ 11
Dial@@ 11
Die@@ 11
Dog@@ 11
Dover 11
Down 11
Drug 11
Duke 11
Dutch 11
Electrical 11
Entrepren@@ 11
Esp@@ 11
Excellence 11
Experimental 11
Expl@@ 11
Fall@@ 11
Feder@@ 11
Fem@@ 11
Female 11
Fly@@ 11
Frequ@@ 11
Galil@@ 11
Gesellschaft 11
Gli@@ 11
Got 11
Gulf 11
Hague 11
Has 11
Hed@@ 11
Hen@@ 11
Hermann 11
Hoo@@ 11
Hop@@ 11
Hul@@ 11
Id@@ 11
Idi@@ 11
Inc@@ 11
Incre@@ 11
Ing@@ 11
Intermediate 11
Jac@@ 11
Jammu 11
Johannes 11
Jon@@ 11
Jut@@ 11
Kaiser 11
Kall@@ 11
Kim 11
Klein 11
Konstanz 11
Kott@@ 11
Kov@@ 11
Kush@@ 11
Leadership 11
Letter 11
Lil@@ 11
Lit@@ 11
Lob@@ 11
Lom@@ 11
Low@@ 11
Luc@@ 11
Luis 11
MLB 11
Macro@@ 11
Madame 11
Magn@@ 11
Make 11
Male 11
Manip@@ 11
Martha 11
Mata 11
Medal 11
Medieval 11
Members 11
Mend@@ 11
Mill@@ 11
Morph@@ 11
Mub@@ 11
Myr@@ 11
NPD 11
NPR 11
NSW 11
Nem@@ 11
Nova 11
OM 11
Off@@ 11
Packard 11
Palm 11
Pan 11
Pass 11
Pec@@ 11
Peg@@ 11
Phyl@@ 11
Pok@@ 11
Polar 11
Potential 11
Pre 11
Presi@@ 11
Prof@@ 11
Psy@@ 11
Punjabi 11
Push@@ 11
Qi 11
Racing 11
Raf@@ 11
Rail 11
Ravi 11
Raz@@ 11
Regional 11
Reserve 11
Rho@@ 11
Rich@@ 11
Roch@@ 11
Roger 11
Roman@@ 11
Rudolf 11
Safety 11
Salt 11
Salv@@ 11
Sche@@ 11
Scheduled 11
Schools 11
Scrip@@ 11
Secret 11
Sie@@ 11
Sierra 11
Sig@@ 11
Sili@@ 11
Sirius 11
Societies 11
Soft@@ 11
Soli@@ 11
Songs 11
Spring 11
Stan@@ 11
Steel 11
Stell@@ 11
Stephen 11
Stere@@ 11
Stop 11
Sup@@ 11
Switzerland 11
Symmet@@ 11
Tank 11
Tas@@ 11
Te 11
Teacher 11
Terra 11
Tex@@ 11
Than@@ 11
Theor@@ 11
Theoret@@ 11
Tig@@ 11
Tour@@ 11
Trail 11
Trans 11
Transl@@ 11
Trip 11
Trust 11
Vell@@ 11
Vert@@ 11
Video@@ 11
WBC 11
WM 11
WNBA 11
Walker 11
Watson 11
Wheel 11
Will@@ 11
Wire 11
World@@ 11
Ya@@ 11
Yellow 11
Zak@@ 11
aber 11
aco 11
adas 11
adian 11
ador 11
advanced 11
agen 11
ager 11
agi@@ 11
ahn@@ 11
ails 11
alo 11
alous 11
aments 11
amorph@@ 11
ample 11
analog@@ 11
analy@@ 11
angs@@ 11
anner 11
anning 11
annual 11
ante@@ 11
anthro@@ 11
anya 11
apparatus 11
argument 11
arter@@ 11
asm 11
aspect 11
assuming 11
aul 11
aus 11
authors 11
awi 11
awn 11
ayana 11
ayer 11
bak@@ 11
balli@@ 11
bas 11
bee 11
belief 11
bet 11
bid 11
biography 11
bli@@ 11
bound 11
brand 11
bre 11
breeding 11
buffer 11
burg 11
button 11
cas 11
cation 11
celebrated 11
centuries 11
cham@@ 11
chand@@ 11
change@@ 11
chapter 11
chn@@ 11
church 11
cking 11
classes 11
clock@@ 11
cluster 11
clut@@ 11
coma 11
comparison 11
compressed 11
consequences 11
consider 11
cot@@ 11
counter@@ 11
damp@@ 11
deb@@ 11
defects 11
deficiency 11
depend@@ 11
depl@@ 11
description 11
destructive 11
dim@@ 11
distinction 11
drive 11
duty 11
e.org 11
eed 11
effici@@ 11
eili@@ 11
eist@@ 11
eline 11
elt 11
elt@@ 11
embedded 11
emer@@ 11
emin@@ 11
emotion 11
empirical 11
empty 11
enberg 11
enting 11
entum 11
eper 11
erosion 11
erus 11
esi 11
etto 11
eurship 11
evan 11
exists 11
extra 11
ezing 11
facts 11
fashion 11
fen@@ 11
festival 11
fight 11
filter 11
fine 11
fj@@ 11
founded 11
framework 11
frequently 11
fy 11
gel@@ 11
geological 11
geology 11
getting 11
girls 11
glut@@ 11
graphy 11
grass 11
gross 11
grow 11
gu 11
guard 11
gut 11
hag 11
hen 11
hero 11
hid 11
hill 11
homogen@@ 11
horn 11
hurt 11
husband 11
ials 11
identif@@ 11
ieu 11
iff 11
ifolia 11
ilfe 11
illumin@@ 11
indicate 11
ingly 11
ingo 11
inhib@@ 11
inspired 11
interpreted 11
intest@@ 11
ircul@@ 11
irus 11
isson 11
issues 11
itter@@ 11
ival@@ 11
jah 11
job 11
lab 11
labor 11
layers 11
lea 11
leadership 11
lei@@ 11
linked 11
literacy 11
lived 11
ll@@ 11
locking 11
lu 11
maj@@ 11
managed 11
manufacturer 11
match@@ 11
mechanism 11
mes 11
miles 11
modi@@ 11
mon 11
mouse 11
ms@@ 11
nab@@ 11
ned 11
nik 11
nodes 11
nosis 11
nov@@ 11
null 11
objective 11
obtained 11
ocean 11
ogra@@ 11
omat@@ 11
omp@@ 11
onc@@ 11
onda 11
onds 11
oned 11
onin 11
oons 11
ophila 11
ophor@@ 11
ordinary 11
ornis 11
oshi 11
otting 11
otypes 11
ovich 11
owa 11
pace 11
pages 11
pak@@ 11
pass@@ 11
passengers 11
patterns 11
pen 11
percent 11
performed 11
perhaps 11
periods 11
pers@@ 11
photo 11
phy 11
pipe 11
pir@@ 11
pit@@ 11
planned 11
plans 11
pneum@@ 11
portfolio 11
pound 11
pper 11
prehensive 11
previous 11
projects 11
protective 11
providing 11
pub 11
qa 11
quin@@ 11
random@@ 11
rata 11
realm 11
reduc@@ 11
refin@@ 11
regarded 11
regional 11
rence 11
repe@@ 11
repeat 11
representative 11
require 11
respect 11
ression 11
rian 11
rill 11
rome 11
ross 11
royal 11
rt 11
rubber 11
rulers 11
sad@@ 11
saf@@ 11
safety 11
satellite 11
scholars 11
sei 11
session 11
shear 11
showing 11
shu 11
sj@@ 11
skaya 11
ski@@ 11
slot 11
smallest 11
smart 11
soli@@ 11
sovereign 11
speaking 11
specification 11
sph@@ 11
spin@@ 11
spiration 11
spiritual 11
squar@@ 11
sta@@ 11
stability 11
stant 11
stere@@ 11
stoch@@ 11
stor@@ 11
storm 11
success 11
successful 11
surgical 11
surplus 11
syllable 11
symmet@@ 11
tages 11
tail@@ 11
tec 11
teen 11
tei 11
tend@@ 11
theories 11
therap@@ 11
thinking 11
thy 11
tium 11
transc@@ 11
trees 11
tri 11
trigger 11
trop@@ 11
tuberculosis 11
tun 11
tuning 11
typ@@ 11
ug 11
ugu 11
umen 11
uni 11
universe 11
uting 11
utn@@ 11
valu@@ 11
varying 11
vas 11
venti@@ 11
vest@@ 11
vic 11
walking 11
waters 11
weather 11
wel 11
wick 11
wick@@ 11
wid@@ 11
worked 11
world@@ 11
yt@@ 11
zen 11
zi 11
zin 11
zur@@ 11
Émile 11
â 11
ɔ 11
ɕ@@ 11
ɛ 11
ʰ 11
ο 11
Ш@@ 11
ң 11
ә@@ 11
א 11
ۃ 11
ܪ@@ 11
औरंगा@@ 11
ॠ 11
ॱ 11
খ 11
ঞ 11
থ@@ 11
ਚ@@ 11
ਧ@@ 11
ੁ 11
ੂ 11
છ@@ 11
ણ@@ 11
પ@@ 11
ર 11
િ@@ 11
ନ@@ 11
ீ@@ 11
ట 11
మ 11
ಡ 11
ജ@@ 11
ശ 11
ഷ 11
ഷ@@ 11
ഹ@@ 11
െ@@ 11
ൻ 11
ർ 11
ක@@ 11
ත@@ 11
ය 11
น 11
ဒ@@ 11
မ 11
រ 11
ᱚ@@ 11
↵ 11
る 11
ラ@@ 11
ル@@ 11
主@@ 11
京@@ 11
地@@ 11
家@@ 11
株@@ 11
武@@ 11
自@@ 11
의 11
이 11
인@@ 11
 11
.3@@ 10
.de 10
1970s 10
2,4 10
4,5 10
Actor 10
Adam 10
Adventure 10
Aff@@ 10
Alice 10
Ama@@ 10
Amphi@@ 10
Anderson 10
Andhra 10
Anthony 10
Anthro@@ 10
Aq@@ 10
Arms 10
Associated 10
Atmosph@@ 10
Automotive 10
BK 10
Ba 10
Bach@@ 10
Bai@@ 10
Beck@@ 10
Ble@@ 10
Bom@@ 10
Boyle 10
Britann@@ 10
Broad@@ 10
Broadcasting 10
Bry@@ 10
Bub@@ 10
Bus@@ 10
CAR 10
CJ@@ 10
Cali@@ 10
Calvin@@ 10
Cand@@ 10
Carn@@ 10
Cas@@ 10
Celeb@@ 10
Cerv@@ 10
Ceylon 10
Cheng 10
Chi 10
Chop@@ 10
Chow@@ 10
Christ@@ 10
Christmas 10
Clean 10
Colle@@ 10
Colon@@ 10
Colorado 10
Companies 10
Consult@@ 10
Consumer 10
Corona 10
Corpus 10
Countries 10
Cust@@ 10
Cycle 10
Dag@@ 10
Dau@@ 10
Davis 10
Death@@ 10
Deep 10
Der 10
Des 10
Descri@@ 10
Deter@@ 10
Domin@@ 10
Dong@@ 10
Dove 10
Dream 10
Dubai 10
ESA 10
East@@ 10
Edmund 10
Ei@@ 10
Eich@@ 10
Elements 10
Enterprise 10
Euph@@ 10
Exper@@ 10
FU 10
Factor 10
Faith 10
Fall 10
Fallen 10
Fiction 10
Films 10
Flow 10
Fra@@ 10
Gabriel 10
Gel@@ 10
Geophysi@@ 10
Georges 10
Gest@@ 10
Ghan@@ 10
Giant 10
Gig@@ 10
Gospel 10
Gray@@ 10
Guild 10
Guru 10
HB 10
HG 10
Hand 10
Hep@@ 10
Hilde@@ 10
Hotel 10
Hybrid 10
Ibn 10
Identity 10
Ily@@ 10
Immigration 10
Inform@@ 10
Initiative 10
Inner 10
Inqu@@ 10
Ins@@ 10
Instit@@ 10
Internationale 10
Isl@@ 10
Italy 10
Jab@@ 10
Jacob 10
Jamm@@ 10
Jesus 10
Jo 10
Jov@@ 10
KW 10
Kag@@ 10
Kend@@ 10
Knowledge 10
Koz@@ 10
LB 10
Lanka 10
Legend@@ 10
Liberty 10
Lik@@ 10
Lub@@ 10
Lup@@ 10
MVP 10
Maharashtra 10
Manufacturing 10
Mar 10
Mart@@ 10
Maurice 10
Merc@@ 10
Milk 10
Mk 10
Modi 10
Mongolia 10
Moon 10
Mum@@ 10
Mung@@ 10
Names 10
Nasi@@ 10
Navigation 10
Nex@@ 10
Nig@@ 10
Nis@@ 10
None 10
Observ@@ 10
Operational 10
Ord@@ 10
Ore@@ 10
Orion 10
Oro@@ 10
Para 10
Patrick 10
Perc@@ 10
Petro@@ 10
Philips 10
Pis@@ 10
Planck 10
Plast@@ 10
Plut@@ 10
Pod@@ 10
Poetry 10
Prec@@ 10
Prim@@ 10
Pune 10
Rail@@ 10
Reality 10
Recei@@ 10
Religious 10
Republi@@ 10
Resear@@ 10
Respon@@ 10
Revol@@ 10
Rhe@@ 10
Rhy@@ 10
Robin 10
Rod@@ 10
Rolling 10
Room 10
Rut@@ 10
SAC 10
SSR 10
SWR 10
Samp@@ 10
Sant 10
Saturday 10
Say 10
Scre@@ 10
Scri@@ 10
Secretary 10
Seventh 10
Sex@@ 10
Shankar 10
Sign@@ 10
Sih@@ 10
Silver@@ 10
Sis@@ 10
Sli@@ 10
Sop@@ 10
Soul 10
Sour@@ 10
Soy@@ 10
Spirit 10
Stanley 10
Stars 10
Status 10
Steam 10
Stern 10
Stru@@ 10
Summer 10
Sym@@ 10
Syst@@ 10
TO 10
Telec@@ 10
Therap@@ 10
Thé@@ 10
Tin 10
Trag@@ 10
Tropical 10
Tun@@ 10
USC 10
Ultra 10
Us@@ 10
Use 10
Vall@@ 10
Victoria 10
Virtual 10
WK@@ 10
Was@@ 10
Wolver@@ 10
Workers 10
Xen@@ 10
Xer@@ 10
Zi@@ 10
Zin@@ 10
Zy@@ 10
abel@@ 10
abi 10
abilities 10
abol@@ 10
accounts 10
aceous 10
aching 10
acio 10
acker 10
actic 10
actors 10
adap@@ 10
adir 10
administration 10
adult 10
affairs 10
agents 10
agreed 10
aig@@ 10
aim 10
aith@@ 10
alan@@ 10
allows 10
alogue 10
alth@@ 10
altitude 10
amps 10
aner 10
anguard 10
antenna 10
anthrop@@ 10
anu@@ 10
anum 10
aq@@ 10
ark 10
artificial 10
asant 10
asar@@ 10
association 10
atable 10
athering 10
athletes 10
atitis 10
attraction 10
aud@@ 10
aum 10
aun 10
awarded 10
axes 10
axial 10
ayas 10
basin 10
bek@@ 10
believe 10
billed 10
blocks 10
boards 10
brac@@ 10
breathing 10
bright 10
bru@@ 10
buck@@ 10
bush 10
bust@@ 10
cad@@ 10
calculation 10
carried 10
cellular 10
centre 10
cep@@ 10
cephal@@ 10
chair 10
charges 10
chari@@ 10
chir@@ 10
cial 10
classified 10
clay 10
cloud 10
collapse 10
colli@@ 10
colonial 10
combinations 10
combustion 10
commerce 10
completely 10
conduct 10
connecting 10
connections 10
consum@@ 10
contained 10
cooling 10
cour@@ 10
crater 10
crete 10
culus 10
cycl@@ 10
dated 10
decision 10
definite 10
deli@@ 10
dependent 10
depending 10
desired 10
detail 10
detect 10
detection 10
determine 10
dex@@ 10
diabetes 10
diam@@ 10
diameter 10
did@@ 10
digit 10
diplom@@ 10
directions 10
discovery 10
disper@@ 10
distinct 10
diversi@@ 10
divide 10
dn 10
dollar 10
drag 10
drawing 10
dro 10
ears 10
easily 10
eck 10
eclip@@ 10
editor 10
edness 10
eff@@ 10
efront 10
elected 10
elia 10
employed 10
encryp@@ 10
endar 10
ende 10
enge 10
enger 10
enthal 10
environmental 10
equipped 10
essentially 10
essing 10
eto 10
ety 10
euk@@ 10
eval 10
eventually 10
evi@@ 10
evich 10
explor@@ 10
families 10
fan@@ 10
fe 10
fellow 10
feud@@ 10
ffen 10
filled 10
flat 10
flo@@ 10
flows 10
flying 10
focal 10
fon@@ 10
fully 10
fund 10
gal 10
genera 10
gis 10
gol@@ 10
ground@@ 10
grounds 10
hard@@ 10
hau 10
hay 10
headed 10
hed@@ 10
heim 10
helped 10
hence 10
heritage 10
hierarch@@ 10
hima 10
hop 10
hope 10
hormone 10
horse 10
host@@ 10
how@@ 10
hydraulic 10
iat 10
iciency 10
icon 10
icon@@ 10
icop@@ 10
identification 10
idi 10
ied 10
iens 10
ifer 10
ige 10
ij 10
illi 10
ily 10
importance 10
indicated 10
iner 10
inflamm@@ 10
influenced 10
initially 10
intensive 10
inter 10
interpretation 10
intr@@ 10
iors 10
isions 10
iss 10
itely 10
itude 10
jab@@ 10
joining 10
journals 10
just@@ 10
kala 10
kept 10
kes@@ 10
kidney 10
kom@@ 10
kus@@ 10
lag 10
lain 10
lamp 10
laser 10
latest 10
lee 10
lem 10
lev 10
light@@ 10
lightenment 10
lik 10
liver 10
lives 10
lized 10
loo 10
losses 10
low@@ 10
ls@@ 10
m. 10
machines 10
magazine 10
males 10
mati@@ 10
mation 10
measurements 10
mei@@ 10
mess@@ 10
migration 10
mir 10
ml@@ 10
modynam@@ 10
mom@@ 10
mop@@ 10
morning 10
mort@@ 10
motor@@ 10
mounting 10
nationalism 10
neither 10
neural 10
nine 10
noble 10
nose 10
notable 10
nur 10
ographical 10
oi@@ 10
oise 10
oke 10
oker 10
omo 10
oney 10
opposed 10
ordered 10
ordination 10
organ 10
organised 10
organisms 10
orial 10
oring 10
oro 10
orts 10
osph@@ 10
ossa 10
oster@@ 10
ously 10
overl@@ 10
ozy@@ 10
pad 10
pale@@ 10
parall@@ 10
parameter 10
parti@@ 10
pas@@ 10
passage 10
pati@@ 10
peak 10
penet@@ 10
percentage 10
perspective 10
phases 10
phs 10
ping 10
placement 10
plant@@ 10
plastic 10
ple 10
pler 10
poin@@ 10
police 10
poor 10
positions 10
precip@@ 10
prof@@ 10
proportion@@ 10
protected 10
pub@@ 10
publishing 10
qui 10
quick@@ 10
ral@@ 10
rar@@ 10
reduced 10
regulated 10
regulation 10
rek@@ 10
rela@@ 10
relatively 10
relay 10
remaining 10
remains 10
remote 10
request 10
respiratory 10
returned 10
rik 10
ril 10
rish@@ 10
rising 10
rites 10
rocks 10
rose 10
sail 10
sat 10
sbury 10
scar@@ 10
sch 10
score 10
scriptions 10
sections 10
sed@@ 10
seeds 10
served 10
sex@@ 10
shares 10
ship@@ 10
shot 10
sig@@ 10
ska 10
slide 10
smith 10
solving 10
sop@@ 10
speakers 10
specified 10
spontan@@ 10
stages 10
statements 10
steps 10
stomach 10
story@@ 10
strategic 10
stream@@ 10
stric@@ 10
subsequently 10
succ@@ 10
succession 10
superi@@ 10
sym@@ 10
takes 10
teacher 10
telephone 10
tex@@ 10
texture 10
them@@ 10
throughout 10
ties 10
tility 10
tons 10
touch@@ 10
tour@@ 10
toxic 10
tre 10
turbine 10
turns 10
uchi 10
uer 10
ugh 10
ulates 10
ult 10
univers@@ 10
uranium 10
urian 10
ushing 10
uts 10
vag@@ 10
veg@@ 10
ventilation 10
vial 10
vice 10
vig@@ 10
visa 10
wana 10
weapons 10
wei 10
wei@@ 10
wo 10
xa 10
yard 10
yed 10
yield 10
yields 10
ylum 10
yz@@ 10
zen@@ 10
Å 10
Ö 10
ân 10
ís 10
İ@@ 10
Ś@@ 10
ž@@ 10
ʀ@@ 10
ʔ@@ 10
̩ 10
ξ@@ 10
υ 10
ю@@ 10
ү@@ 10
ե@@ 10
ܐ 10
އ@@ 10
ު@@ 10
अदिला@@ 10
सितं@@ 10
ृंखला 10
ং 10
ড@@ 10
থ 10
ਮ 10
ં 10
શ@@ 10
ஆ@@ 10
ఆ@@ 10
శ 10
ొ@@ 10
ಣ 10
ಯ 10
ഗ@@ 10
യ 10
ප@@ 10
ය@@ 10
ල 10
จ@@ 10
ต@@ 10
ห@@ 10
่ 10
က 10
ယ 10
အ@@ 10
ទ@@ 10
Ḥ@@ 10
ṅ 10
ả@@ 10
‡ 10
₂ 10
✔ 10
ル 10
上@@ 10
会@@ 10
寺 10
川 10
拳 10
法 10
田@@ 10
社 10
菠@@ 10
蘿@@ 10
阿@@ 10
院 10
ꯥ@@ 10
국@@ 10
대@@ 10
자 10
 10
️ 10
🌹 10
👉 10
1.000 9
15th 9
Again 9
Aircraft 9
Amal@@ 9
Americans 9
Among 9
Anand 9
Anat@@ 9
Angl@@ 9
Anna 9
Arctic 9
Asp@@ 9
Augustus 9
Austria 9
Banking 9
Bari 9
Basilica 9
Basin 9
Being 9
Biography 9
Biom@@ 9
Biz@@ 9
Bollywood 9
Bond 9
Bonn 9
Bord@@ 9
Bow 9
Brazil 9
Brunswick 9
Bung@@ 9
Burns 9
Button 9
CAC 9
Cal 9
Call@@ 9
Carac@@ 9
Care 9
Castile 9
Castillo 9
Centers 9
Chaplin 9
Character 9
Christianity 9
Christopher 9
Chrom@@ 9
Chrysler 9
Chuck 9
Cic@@ 9
Cities 9
Clapton 9
Claude 9
Clerk 9
Cochrane 9
Collins 9
Color@@ 9
Come 9
Complete 9
Comun@@ 9
Concept 9
Congo 9
Construction 9
Contin@@ 9
Coo@@ 9
Coral 9
Corn@@ 9
Count 9
Creative 9
Cri@@ 9
Crime 9
Critical 9
Criticism 9
Cycl@@ 9
Cym@@ 9
DFB 9
DK 9
Daily 9
Date 9
Dead@@ 9
Defense 9
Depression 9
Deutsches 9
Diabetes 9
Din 9
Divi@@ 9
Dj@@ 9
Dre@@ 9
Dri@@ 9
Dry 9
Du 9
ES@@ 9
Each 9
Ech@@ 9
Eclipse 9
Ecology 9
Econom@@ 9
Eg@@ 9
Electricity 9
Emirates 9
Emot@@ 9
Enter@@ 9
Eurasian 9
Eust@@ 9
Every 9
Exam@@ 9
Exp@@ 9
Fam@@ 9
Ferr@@ 9
Fighting 9
Finn@@ 9
Fisher 9
Flex@@ 9
Flora 9
Following 9
Football 9
Fossi@@ 9
Fourth 9
Frank@@ 9
Fres@@ 9
Galaxy 9
Gary 9
Gate 9
Gates 9
German@@ 9
Glas@@ 9
Goethe 9
Grace 9
Grav@@ 9
Greatest 9
Greg@@ 9
Grimm 9
Guil@@ 9
HQ 9
Half 9
Hamilton 9
Hast@@ 9
Hebrew 9
Help 9
Henri 9
Ho 9
Hochschule 9
Holy@@ 9
Hope 9
Hun@@ 9
Hur@@ 9
Hut@@ 9
Ib@@ 9
Innovation 9
Institut 9
Iran 9
Jewish 9
Judicial 9
Jules 9
Kamp@@ 9
Karachi 9
Kaz@@ 9
Ket@@ 9
Kids 9
Kis@@ 9
Koh@@ 9
Kok@@ 9
Kowal@@ 9
Kran@@ 9
Kuch@@ 9
Kw@@ 9
LPG 9
Laun@@ 9
Led 9
Legend 9
Leon 9
Leonardo 9
Lic@@ 9
Lind@@ 9
Lines 9
Liqu@@ 9
Live@@ 9
Lyon 9
MLA 9
Marcus 9
Marketing 9
Materials 9
Matter 9
Mav@@ 9
McKin@@ 9
Medium 9
Mexico 9
Mich@@ 9
Michel 9
Migration 9
Mill 9
Mindanao 9
Miss 9
Miz@@ 9
Mob@@ 9
Moscow 9
Multiple 9
Municipal 9
Murray 9
Musi@@ 9
NCA@@ 9
Nec@@ 9
Nelson 9
Nest@@ 9
Nev@@ 9
Nguy@@ 9
Nicolas 9
Nielsen 9
Night@@ 9
Niz@@ 9
Now@@ 9
Nun@@ 9
OE@@ 9
Ole@@ 9
Oliver 9
Olymp@@ 9
Ontario 9
Oper@@ 9
Ort@@ 9
Parliament 9
Pearl 9
Pearson 9
Penguin 9
Performance 9
Pf@@ 9
Picture 9
Pier@@ 9
Piz@@ 9
Place 9
Plant@@ 9
Please 9
Poems 9
Problem 9
Provi@@ 9
Quant@@ 9
Rais@@ 9
Rajas@@ 9
Rand@@ 9
Random 9
Rath@@ 9
Refer@@ 9
Reference 9
Regist@@ 9
Reich 9
Resolution 9
Revolutionary 9
Rhin@@ 9
Rig@@ 9
Rik@@ 9
Rio 9
Rocket 9
Rose 9
Rou@@ 9
Runn@@ 9
SJ 9
SY@@ 9
Sain@@ 9
Savage 9
Schmidt 9
Sequ@@ 9
Shal@@ 9
Shan@@ 9
Sheikh 9
Sindh 9
Solidar@@ 9
Sover@@ 9
Spac@@ 9
Spir@@ 9
Spy 9
Sr@@ 9
Stanford 9
Step@@ 9
Strategy 9
Style 9
Suite 9
Summer@@ 9
Sur 9
Surface 9
Symbol 9
Symphony 9
Tach@@ 9
Tail@@ 9
Tay@@ 9
Templ@@ 9
Thai 9
Theat@@ 9
Their 9
Things 9
Toronto 9
Tou@@ 9
Treat@@ 9
Tren@@ 9
Trophy 9
True 9
Turbine 9
Units 9
Unity 9
Universities 9
Vie@@ 9
Vill@@ 9
Vincent 9
Virginia 9
Voy@@ 9
Walt 9
Wang 9
Wang@@ 9
Warner 9
Watch 9
Way@@ 9
Wid@@ 9
Wireless 9
Wit@@ 9
Wolf 9
Wolfgang 9
Woman 9
Yamaha 9
Yan@@ 9
Ye@@ 9
Yo@@ 9
Yoga 9
a.m. 9
accept 9
accounting 9
achieve 9
acritic 9
acus 9
addle 9
adel@@ 9
adhes@@ 9
adj@@ 9
adv@@ 9
afro@@ 9
agh@@ 9
ago@@ 9
agon@@ 9
ahr 9
ailing 9
ainville 9
akes 9
alls 9
als@@ 9
alta 9
alu@@ 9
amalg@@ 9
amat@@ 9
amura 9
ananda 9
anate 9
ane@@ 9
anes 9
angu@@ 9
anian 9
anime 9
anism 9
anni 9
anton 9
appearance 9
appeared 9
archive.org 9
arily 9
arrived 9
ashes 9
asking 9
aspects 9
assumptions 9
asy@@ 9
atan 9
attle 9
attribute 9
authorities 9
bacterial 9
balanced 9
bear@@ 9
bell@@ 9
belonging 9
binding 9
black@@ 9
blad@@ 9
bling 9
borough 9
break@@ 9
brick 9
bring 9
broke 9
bronze 9
brown 9
bun 9
bution 9
cab@@ 9
calculated 9
cali@@ 9
cally 9
capable 9
carry 9
cats 9
cen@@ 9
census 9
cer 9
chal 9
changing 9
check 9
ched 9
chen@@ 9
chief 9
chment 9
chromat@@ 9
chu 9
cian 9
cili@@ 9
cium 9
ción 9
clean 9
combined 9
compens@@ 9
compiled 9
concentrations 9
conditioning 9
conducted 9
constituent 9
contin@@ 9
contributed 9
contribution 9
conventional 9
cooperation 9
coordination 9
cott@@ 9
cotton 9
council 9
crew 9
criminal 9
cury 9
dates 9
dawn 9
dee 9
defence 9
delta 9
dense 9
dent@@ 9
depends 9
dered 9
dering 9
desert 9
develop 9
developing 9
dey 9
dg@@ 9
diagonal 9
dic 9
dienst 9
dimension 9
distor@@ 9
dition@@ 9
doing 9
dorf 9
dust 9
eal@@ 9
earned 9
econom@@ 9
ecor@@ 9
eder 9
eding 9
egal@@ 9
eid 9
eign 9
elevation 9
elite 9
elled 9
ellus 9
els@@ 9
ematic 9
emon 9
enb@@ 9
enemy 9
ener 9
enham 9
eno 9
ention 9
epit@@ 9
eres 9
errors 9
erv@@ 9
eship 9
esk@@ 9
eting 9
exclusion 9
expected 9
export 9
extension 9
extraction 9
exual 9
facial 9
fin 9
finally 9
fing 9
finished 9
flag 9
flies 9
float 9
flowers 9
forc@@ 9
ford@@ 9
forec@@ 9
formats 9
fossils 9
friends 9
fro@@ 9
fru@@ 9
gastro@@ 9
generate 9
genes 9
geographical 9
ghts 9
gill 9
gio 9
gover@@ 9
graphic 9
gre 9
hak@@ 9
hei 9
hereditary 9
hidden 9
hide 9
hierarchy 9
highway 9
hol 9
holes 9
honor@@ 9
hopes 9
horizontal 9
huge 9
humanity 9
hus@@ 9
iah 9
ican 9
icro@@ 9
ien@@ 9
iff@@ 9
ift 9
iger 9
ign 9
igne 9
ilation 9
ilis 9
ille 9
ilo 9
images 9
imm@@ 9
inated 9
inch 9
income 9
industries 9
infl@@ 9
influ@@ 9
institutions 9
intellectual 9
intended 9
intestinal 9
invol@@ 9
ires 9
iry 9
isolated 9
issu@@ 9
issued 9
istry 9
itarian 9
items 9
ith@@ 9
ition@@ 9
ives 9
iw@@ 9
izes 9
jin 9
join 9
journey 9
jungle 9
kana 9
kas@@ 9
keeping 9
kel 9
kel@@ 9
kill 9
kilometers 9
kit@@ 9
kol@@ 9
kos@@ 9
kund@@ 9
law@@ 9
leader 9
leads 9
learn 9
learned 9
leaving 9
len@@ 9
lights 9
lime 9
lions 9
literary 9
locked 9
lon@@ 9
lov@@ 9
lun@@ 9
lying 9
lé 9
maintenance 9
march 9
mare 9
masses 9
matching 9
measures 9
medic@@ 9
mented 9
mentioned 9
merely 9
mers 9
metallic 9
methyl@@ 9
mim@@ 9
mith@@ 9
mix@@ 9
molecule 9
moon 9
mosque 9
motivation 9
mountain 9
musi@@ 9
musicians 9
mutations 9
mutual 9
myth 9
neutral 9
ning@@ 9
nis 9
nitrogen 9
nominal 9
novel 9
nun@@ 9
observer 9
obtain 9
oc 9
ocer@@ 9
ociation 9
oec@@ 9
ogens 9
oit 9
oj@@ 9
oku 9
old@@ 9
olit@@ 9
olor 9
oner 9
onto 9
oods 9
ook 9
ool@@ 9
opa 9
opening 9
opi@@ 9
optimal 9
ored 9
organizations 9
organized 9
origin@@ 9
orio 9
orn@@ 9
osom@@ 9
oste@@ 9
otted 9
ould 9
ounding 9
pan 9
participation 9
pat 9
peace 9
peoples 9
persi@@ 9
petro@@ 9
phia 9
philosophers 9
physiological 9
picture 9
pine 9
planetary 9
platform 9
pod@@ 9
port@@ 9
possibly 9
potenti@@ 9
practices 9
presented 9
previously 9
priest 9
prior 9
prob@@ 9
profit 9
progressive 9
pronounced 9
protocol 9
psychological 9
pup@@ 9
qualities 9
racy 9
rae 9
rain@@ 9
ranging 9
rative 9
recommended 9
recording 9
reduces 9
reflected 9
relati@@ 9
remainder 9
remained 9
reports 9
requires 9
resist 9
resistant 9
responsibility 9
responsible 9
rest@@ 9
retri@@ 9
rett 9
returns 9
rically 9
rip@@ 9
rival 9
roll 9
roll@@ 9
rows 9
rul@@ 9
rup 9
rus@@ 9
sales 9
salt 9
sang 9
saying 9
scape 9
scheme 9
scri@@ 9
seer 9
segment 9
sell 9
selling 9
server 9
shoot 9
singles 9
situation 9
sla@@ 9
sleep 9
snow@@ 9
speci@@ 9
spher@@ 9
spre@@ 9
spring 9
surname 9
survey 9
suspension 9
swing 9
sympathetic 9
system@@ 9
sz@@ 9
tac@@ 9
tag 9
tain 9
tam@@ 9
tat@@ 9
telegraph 9
tennis 9
territorial 9
territories 9
tery 9
theoretical 9
things 9
threshold 9
tidae 9
tie 9
tiers 9
tik@@ 9
titude 9
tle 9
traffic 9
transit 9
tridge 9
tron@@ 9
tural 9
turbul@@ 9
turn@@ 9
twenty 9
ude 9
uf 9
uff 9
uga 9
umbo 9
understanding 9
unga 9
unt@@ 9
urine 9
urt 9
uss 9
utr@@ 9
ux@@ 9
uz 9
vale 9
veins 9
ventr@@ 9
vents 9
vertices 9
vey@@ 9
vian 9
virtue 9
visit 9
vy 9
walk 9
wand@@ 9
way@@ 9
wear 9
wer 9
western 9
wich 9
wig@@ 9
wild@@ 9
will@@ 9
winding 9
wr@@ 9
writ@@ 9
writes 9
wrong 9
xel 9
yb@@ 9
yland 9
youth 9
yrus 9
zko 9
zzi 9
zzle 9
¹ 9
Æ@@ 9
ña 9
ô 9
ār 9
ă 9
œ@@ 9
ǐ 9
ʁ 9
ˈ 9
͡ 9
Λ@@ 9
Φ@@ 9
ϕ 9
Ф@@ 9
Ч@@ 9
щ@@ 9
Қ@@ 9
ն@@ 9
ր@@ 9
ב 9
ة@@ 9
ّ 9
ٰ@@ 9
ީ@@ 9
ް 9
ऒ 9
ৈ@@ 9
ਦ 9
ੇ 9
આ@@ 9
ો 9
କ 9
ଗ@@ 9
ଦ 9
ପ@@ 9
ଳ 9
ச 9
ற 9
ஷ 9
ூ@@ 9
ణ 9
ವ 9
ണ 9
റ 9
ව@@ 9
ේ@@ 9
ວ@@ 9
ྩ@@ 9
ត 9
ន 9
ᱨ@@ 9
ḷ@@ 9
ệ@@ 9
⋅ 9
ⵉ@@ 9
ジ@@ 9
ス@@ 9
七@@ 9
世@@ 9
京 9
包 9
周@@ 9
島 9
文 9
方 9
東 9
河 9
治@@ 9
고@@ 9
민@@ 9
이@@ 9
치 9
ﺍ@@ 9
ﻟ@@ 9
𐩖 9
𝐞@@ 9
20s 8
23rd 8
3,4 8
3,5 8
5. 8
ARIA 8
Abel 8
Abra@@ 8
Admiral 8
Adolf 8
Against 8
Ahmad 8
Airlines 8
Akadem@@ 8
Alexandria 8
Alfa 8
Alg@@ 8
Altern@@ 8
Ammon@@ 8
Anarch@@ 8
Ann 8
Antonio 8
Aph@@ 8
Applications 8
Aran@@ 8
Archaeological 8
Archip@@ 8
Archive 8
Arn@@ 8
Arran@@ 8
Aston 8
Atlas 8
Auth@@ 8
Auto 8
Aven@@ 8
Aviation 8
BSC 8
Badminton 8
Bap@@ 8
Baptiste 8
Baron 8
Bee 8
Berkeley 8
Berlin 8
Bernard 8
Bernstein 8
Between 8
Bill@@ 8
Bio 8
Bli@@ 8
Blind 8
Bob 8
Bok@@ 8
Both 8
Bov@@ 8
Brian 8
Brom@@ 8
Bros. 8
Buddhism 8
Buddhist 8
Burmese 8
Call 8
Captain 8
Carol@@ 8
Catherine 8
Cavalry 8
Centr@@ 8
Chain 8
Chapter 8
Character@@ 8
Chemistry 8
Chen@@ 8
Chennai 8
Chou@@ 8
Cis@@ 8
Clark 8
Clos@@ 8
Collective 8
Commander 8
Community 8
Cons@@ 8
Cool@@ 8
Cord@@ 8
Coron@@ 8
Cort@@ 8
Coul@@ 8
Crew 8
Crisis 8
Cron@@ 8
Côte 8
DAP 8
Dalton 8
Degree 8
Del 8
Democratic 8
Deputy 8
Dewey 8
Diss@@ 8
Distri@@ 8
Dream@@ 8
Dublin 8
Dup@@ 8
EF 8
EPs 8
ETH 8
Earth@@ 8
Edwin 8
Egyp@@ 8
Eighth 8
Eleph@@ 8
Emergency 8
Epil@@ 8
Epo@@ 8
Eric 8
Esperanto 8
Ethics 8
Euc@@ 8
Eug@@ 8
Eugene 8
Evol@@ 8
Fai@@ 8
Falcon 8
Faz@@ 8
Finals 8
Fla@@ 8
Fli@@ 8
Foot 8
Former 8
Francisco 8
Fru@@ 8
Further 8
Gari@@ 8
Gen 8
Geo@@ 8
Georgia 8
Gib@@ 8
Gibraltar 8
Give 8
Got@@ 8
Governor 8
Graf@@ 8
Gram@@ 8
Gray 8
Greece 8
Gri@@ 8
Guar@@ 8
Gujarat 8
Guy 8
Hamm@@ 8
Handbook 8
Hang@@ 8
Hat 8
Haus@@ 8
Hear@@ 8
Hero 8
Hier@@ 8
Hob@@ 8
Holding 8
Horace 8
Horn@@ 8
How@@ 8
Howe 8
IRA 8
Ideal 8
Ign@@ 8
Impact 8
Independent 8
Instagram 8
Inten@@ 8
Interest 8
Ion@@ 8
Irish 8
Iron@@ 8
Jacob@@ 8
Jagd@@ 8
Jaguar 8
Jakob 8
Jane 8
Jay 8
Jersey 8
Jordan 8
Jul@@ 8
Junction 8
Kai@@ 8
Kaj@@ 8
Kang 8
Kant@@ 8
Kast@@ 8
Kem@@ 8
Kingston 8
Kinn@@ 8
Kirch@@ 8
Knight 8
Koch 8
Kro@@ 8
Kru@@ 8
Ku 8
Kub@@ 8
L.A. 8
Laboratories 8
Lady 8
Lati@@ 8
Leaf 8
Legislative 8
Leh@@ 8
Lei@@ 8
Link@@ 8
Lions 8
Lith@@ 8
Logic 8
Lou@@ 8
Louise 8
Ludwig 8
MN 8
Mach 8
Malayalam 8
Manchester 8
Mann 8
Maritime 8
Marshall 8
Marxist 8
Massachusetts 8
Melan@@ 8
Messi@@ 8
Metropolitan 8
Micro 8
Mir 8
Mok@@ 8
Monte@@ 8
Morales 8
Morning 8
Motor@@ 8
Much@@ 8
Multip@@ 8
Munich 8
Myst@@ 8
Nadu 8
Nath@@ 8
Neill 8
Neon@@ 8
Neu@@ 8
Next 8
Nine 8
Noah 8
Norte 8
Oak 8
Of@@ 8
Oh 8
Osc@@ 8
Oste@@ 8
Outer 8
Own 8
Oxy@@ 8
PSA 8
Pain@@ 8
Palmer 8
Pang@@ 8
Pant@@ 8
Park@@ 8
Parti@@ 8
Pasha 8
Pay 8
Pennsylvania 8
Peoples 8
Per 8
Phal@@ 8
Pharmac@@ 8
Philippe 8
Phillips 8
Places 8
Planet@@ 8
Pocket 8
Poland 8
Polar@@ 8
Pop@@ 8
Pran@@ 8
Premier 8
Privy 8
Prix 8
Produc@@ 8
Products 8
Professor 8
Property 8
Prov@@ 8
Psychiat@@ 8
Publications 8
Pud@@ 8
Puer@@ 8
Quar@@ 8
RBI 8
Rac@@ 8
Race 8
Rama 8
Rank 8
Reading 8
Regul@@ 8
Reli@@ 8
Retro@@ 8
Retur@@ 8
Rever@@ 8
Rice 8
Rise 8
Rol@@ 8
Rome 8
Romeo 8
Roo@@ 8
Root 8
Ror@@ 8
Rost@@ 8
Rue 8
Saras@@ 8
Saudi 8
Scal@@ 8
Se 8
Securities 8
Sek@@ 8
Senior 8
Set 8
Several 8
Shadow 8
Shakespeare 8
Shaw 8
Shin@@ 8
Side 8
Siegfried 8
Sound@@ 8
Spe@@ 8
Spider 8
Sport 8
Spot@@ 8
Stap@@ 8
Ster@@ 8
Strait 8
Student 8
Sultan@@ 8
Supply 8
Swan 8
Syed 8
Symb@@ 8
Sz@@ 8
Taxonomy 8
Tell 8
Tend@@ 8
Testament 8
Texas 8
Text@@ 8
Those 8
Tony 8
Trig@@ 8
Ts@@ 8
Turk@@ 8
Tus@@ 8
U. 8
UE 8
Vega 8
Venezu@@ 8
Venus 8
Ves@@ 8
Vickers 8
Vig@@ 8
Von 8
WJ@@ 8
Wallace 8
Watt@@ 8
Weber 8
Website 8
Wei 8
Wh 8
What@@ 8
William@@ 8
Within 8
Wol@@ 8
Wonder@@ 8
Words 8
Writer 8
Yah@@ 8
Yusuf 8
abil@@ 8
abor@@ 8
absorbed 8
acca 8
accal@@ 8
accepted 8
accuracy 8
accurate 8
achievement 8
acqu@@ 8
acr@@ 8
acronym 8
ader 8
adia 8
adopted 8
aff 8
aged 8
agn@@ 8
ague 8
aille 8
aims 8
airport 8
ait@@ 8
alan 8
album 8
alen 8
aller@@ 8
allic 8
allocation 8
altit@@ 8
amic 8
ammunition 8
anal@@ 8
analytic 8
anche 8
ancing 8
andal 8
andro@@ 8
anin 8
anne 8
anos 8
antenn@@ 8
appears 8
apple 8
appropriate 8
archives 8
ared 8
arguments 8
arom@@ 8
aroo 8
arte 8
arth 8
artillery 8
arum 8
asch@@ 8
ashed 8
ask 8
asked 8
assa 8
assets 8
assing 8
assumed 8
astes 8
astronomical 8
atmospheric 8
attacks 8
aud 8
automobile 8
ayy@@ 8
bars 8
beams 8
bearing 8
bec@@ 8
beetle 8
begins 8
behavioral 8
benefit 8
berger 8
best@@ 8
block@@ 8
boiler 8
bold 8
bore 8
borne 8
box@@ 8
brit@@ 8
bub@@ 8
bulk 8
bus@@ 8
cals 8
caus@@ 8
centric 8
ceremony 8
challenge 8
chase 8
chat@@ 8
chel@@ 8
chet 8
chrome 8
chur@@ 8
cidental 8
cio 8
clature 8
coat 8
collective 8
colleges 8
commune 8
communications 8
composer 8
comprehensive 8
computational 8
computers 8
conclusion 8
coni 8
conjec@@ 8
conscious 8
constituency 8
contemporary 8
continue 8
contrast 8
contributions 8
couple 8
courses 8
cous 8
cow 8
creating 8
credit 8
crisis 8
criticism 8
cryp@@ 8
crypt@@ 8
cum 8
cyan@@ 8
cycli@@ 8
dah 8
dard 8
debate 8
dec 8
decisive 8
deep@@ 8
delay 8
della 8
dend 8
dent 8
depres@@ 8
depression 8
describes 8
describing 8
designed 8
devi@@ 8
dioxide 8
director 8
distances 8
dle 8
domest@@ 8
dong 8
dor 8
dou@@ 8
dragon 8
draw 8
drift 8
driven 8
driver 8
drugs 8
dum@@ 8
dw@@ 8
earliest 8
easy 8
ece 8
eco 8
ects 8
edly 8
edo 8
eers 8
ef 8
egen 8
egg 8
eira 8
ellers 8
elon 8
emen 8
emerg@@ 8
emerged 8
emy 8
entrepren@@ 8
equival@@ 8
eria 8
eros 8
erve 8
escope 8
esse 8
essential 8
essor 8
esth@@ 8
estim@@ 8
estimate 8
ests 8
ethics 8
ets@@ 8
evaluation 8
evap@@ 8
exactly 8
executive 8
expert 8
exposed 8
extensive 8
eze 8
facilities 8
fati@@ 8
feld 8
fet@@ 8
ffle 8
fire@@ 8
fl 8
flash 8
floor 8
followers 8
font 8
formerly 8
formers 8
forth 8
forum 8
fought 8
fox 8
fram@@ 8
freely 8
fron@@ 8
ful@@ 8
gallery 8
gas@@ 8
gath@@ 8
generic 8
genital 8
geny 8
gium 8
gli@@ 8
god 8
god@@ 8
gom@@ 8
grave 8
green@@ 8
gren 8
grey 8
grown 8
gua 8
gul@@ 8
guns 8
hail 8
handle 8
hart 8
heard 8
hia 8
hier@@ 8
hips 8
home@@ 8
hub 8
hypothet@@ 8
iano 8
icides 8
icious 8
idation 8
identified 8
iel 8
iel@@ 8
ifying 8
igra@@ 8
ild 8
iled 8
iler 8
illes 8
improve 8
inces 8
indirect 8
inea 8
influential 8
ings@@ 8
inian 8
initi@@ 8
ink 8
intro@@ 8
irrigation 8
ished 8
ishes 8
istische 8
iston 8
itions 8
itious 8
itt 8
itta 8
jam@@ 8
jas 8
journal 8
joy 8
ket@@ 8
killing 8
kton 8
lace 8
lap 8
lav 8
lea@@ 8
lei 8
len 8
liberty 8
licate 8
license 8
licity 8
limit@@ 8
limits 8
lining 8
loan 8
locomotive 8
loh@@ 8
loid 8
lon 8
lowest 8
lyn@@ 8
lé@@ 8
maintained 8
majority 8
makers 8
mani@@ 8
mara 8
marginal 8
marine 8
mass@@ 8
mate 8
membran@@ 8
meters 8
minerals 8
minim@@ 8
mitochond@@ 8
moments 8
mont 8
mostly 8
motive 8
mund@@ 8
muscle 8
nd@@ 8
nem@@ 8
neo 8
newspaper 8
nier 8
night@@ 8
norm@@ 8
normal@@ 8
ní 8
oan 8
observ@@ 8
obsolete 8
oca 8
occurs 8
odd 8
oes 8
offers 8
offset 8
oides 8
olin 8
olis 8
olle@@ 8
ometric 8
ommunic@@ 8
ookie 8
opened 8
ophob@@ 8
opinion 8
oplan@@ 8
option 8
opul@@ 8
organism 8
osed 8
osi 8
ospor@@ 8
oss@@ 8
otechnology 8
ounded 8
ouse 8
outh 8
outs 8
overview 8
owns 8
oxidation 8
oz 8
package 8
page@@ 8
pain@@ 8
paradig@@ 8
passing 8
patient 8
ped 8
performing 8
perpet@@ 8
pharm@@ 8
pharmac@@ 8
pher 8
phrase 8
picked 8
pie@@ 8
pillar 8
pinn@@ 8
plays 8
plum@@ 8
plur@@ 8
poles 8
polymer 8
ports 8
pos 8
powder 8
practical 8
preceding 8
pred@@ 8
preh@@ 8
prev@@ 8
prevent 8
profession 8
programme 8
proposal 8
protein 8
proteins 8
qualifying 8
quest 8
quickly 8
r. 8
raised 8
ranch 8
ranking 8
rarely 8
raz@@ 8
reaching 8
reasons 8
rectangular 8
reduce 8
references 8
reign 8
rein@@ 8
relationships 8
rem 8
renowned 8
replacement 8
requirements 8
resources 8
respectively 8
ret 8
rets 8
revol@@ 8
ricity 8
rick 8
rico 8
rides 8
rocket 8
roman 8
rone 8
rov@@ 8
runoff 8
rural 8
rust 8
sag@@ 8
salary 8
san 8
scattered 8
scientist 8
seems 8
semi@@ 8
sensor 8
serious 8
ses@@ 8
settlement 8
severe 8
shel@@ 8
sick@@ 8
sign@@ 8
sister 8
sixth 8
sky@@ 8
socialism 8
solo 8
sons 8
sou@@ 8
specialty 8
spective 8
spent 8
spin 8
split 8
sport 8
spra@@ 8
squares 8
stake 8
starting 8
statutory 8
ste 8
stick 8
strategy 8
stre@@ 8
strike 8
stru@@ 8
stry 8
substrate 8
successfully 8
survival 8
sworth 8
systematic 8
tables 8
tage 8
talks 8
target 8
tary 8
telec@@ 8
temples 8
temporal 8
tend 8
thre@@ 8
tico 8
tio 8
tour 8
tourism 8
tower 8
tracking 8
tram@@ 8
trans 8
transactions 8
trau@@ 8
tribute 8
tric@@ 8
trin@@ 8
trunk 8
tured 8
turning 8
typical 8
uble 8
ugi@@ 8
uki 8
ulations 8
ull@@ 8
ulous 8
ultra 8
umb 8
undo 8
ungs 8
update 8
updated 8
urban 8
uro 8
urop@@ 8
uscri@@ 8
uters 8
utter 8
valid 8
veget@@ 8
vement 8
verses 8
versus 8
vert 8
viewed 8
vil@@ 8
visiting 8
volcanic 8
w.@@ 8
wait 8
wast@@ 8
weak 8
weighted 8
wicket 8
winner 8
wound 8
wra@@ 8
zel 8
zer@@ 8
zon 8
ß 8
ä 8
ä@@ 8
ème 8
ères 8
š 8
ʱ 8
Α 8
Β@@ 8
Γ 8
Ι@@ 8
Ν@@ 8
χ 8
Я@@ 8
ъ 8
є@@ 8
ј@@ 8
ի@@ 8
յ@@ 8
ո@@ 8
ש 8
ْ 8
ڠ@@ 8
ܘ@@ 8
ލ@@ 8
ऌ 8
दायिक 8
ৈ 8
ৱ 8
ਜ 8
ੇ@@ 8
ੋ 8
ଙ 8
ତ 8
ଭ@@ 8
ଶ 8
ଷ 8
ୀ 8
ୁ 8
ୟ 8
ொ@@ 8
ణ@@ 8
ష 8
ీ 8
ಗ 8
ಮ 8
ಷ 8
ങ 8
ള 8
ർ@@ 8
ൽ 8
න 8
න@@ 8
ා 8
ป@@ 8
ร 8
ນ 8
ັ@@ 8
ཙ@@ 8
ླ@@ 8
ူ@@ 8
ლ@@ 8
ᱵ@@ 8
ḥ 8
ῆ@@ 8
₩ 8
∂ 8
⏩ 8
✍ 8
ア@@ 8
ク@@ 8
コ@@ 8
ト@@ 8
バ@@ 8
レ@@ 8
会 8
光@@ 8
区 8
华@@ 8
司 8
名@@ 8
國 8
方@@ 8
清@@ 8
白@@ 8
皇 8
藩 8
部 8
국 8
성@@ 8
ﺎ@@ 8
： 8
1950s 7
2000s 7
3,3 7
4. 7
AFTA 7
Abdul 7
Ace 7
Acet@@ 7
Aden@@ 7
Adv@@ 7
Aeg@@ 7
Aeronau@@ 7
Afric@@ 7
Ages 7
Aid 7
Algeb@@ 7
Algorith@@ 7
Allen 7
Allied 7
Aman@@ 7
Ame@@ 7
Americ@@ 7
Amph@@ 7
Amphib@@ 7
Amsterdam 7
Andre@@ 7
Andreas 7
André 7
Andy 7
Annie 7
Antoine 7
Anton@@ 7
Apost@@ 7
Arab@@ 7
Arena 7
Armed 7
Arnold 7
Arti@@ 7
Arun@@ 7
Ashes 7
Assistance 7
Assistant 7
Aud@@ 7
Aus@@ 7
Austin 7
Autumn 7
Bang 7
Bangladesh 7
Bant@@ 7
Bark@@ 7
Based 7
Basel 7
Bath 7
Before 7
Bern 7
Bic@@ 7
Bik@@ 7
Bit 7
Blair 7
Bloom@@ 7
Blu 7
Bow@@ 7
Bowie 7
Buil@@ 7
CSU 7
Cable 7
Cad@@ 7
Caesar 7
Cairo 7
Canal 7
Cannes 7
Capit@@ 7
Carb@@ 7
Carr 7
Carrier 7
Cell@@ 7
Centro 7
Chag@@ 7
Charter 7
Chase 7
Cheng@@ 7
Chicago 7
Child@@ 7
Chis@@ 7
Chro@@ 7
Citizen 7
Clear@@ 7
Clement 7
Clinical 7
Coal 7
Cobra 7
Cold 7
Colombia 7
Colony 7
Columb@@ 7
Como 7
Computing 7
Corp. 7
Corpor@@ 7
Corps 7
Corridor 7
Costa 7
Counter 7
Cover@@ 7
Crystal 7
Cub@@ 7
Cube 7
Cun@@ 7
Cyn@@ 7
DDR 7
Dang@@ 7
Delph@@ 7
Dhabi 7
Dipl@@ 7
Dod@@ 7
Drama 7
Dual 7
Dudley 7
Eagle 7
Earl 7
Edi@@ 7
Eh@@ 7
Element 7
Elementary 7
Emma 7
Emmy 7
Engineer 7
Ernest 7
Ero@@ 7
Españ@@ 7
Essays 7
Established 7
Eugen@@ 7
Eul@@ 7
Ever@@ 7
Every@@ 7
Exposition 7
Extension 7
Extrem@@ 7
FV 7
Face 7
Facility 7
Fair 7
Far 7
Faw@@ 7
Fix@@ 7
Flag 7
Flat 7
Flat@@ 7
Fle@@ 7
Fleming 7
Flying 7
Foun@@ 7
Found@@ 7
Fr 7
Franklin 7
Franz 7
Fraun@@ 7
Fresh 7
Fritz 7
Fro@@ 7
Fut@@ 7
GV 7
Gag@@ 7
Garcia 7
Geological 7
Georg 7
Gin@@ 7
Goth@@ 7
Govern@@ 7
Gramm@@ 7
Grande 7
Grey 7
Growth 7
Gud@@ 7
Guer@@ 7
Han 7
Hands 7
Hard 7
Harmon@@ 7
Heart 7
Heg@@ 7
Heroes 7
Hex@@ 7
Hig@@ 7
Historia 7
Hole 7
Hook 7
Hopkins 7
Hulk 7
Hunter 7
Hyderabad 7
IO 7
ISU 7
ITF 7
Illustrator 7
Indigenous 7
Individual 7
Infl@@ 7
Inst@@ 7
Instrument 7
Instruments 7
Invent@@ 7
Invest@@ 7
Islam@@ 7
Isol@@ 7
Ivan 7
Jack@@ 7
Je 7
Jeff 7
Jeremy 7
Jet 7
Jet@@ 7
Jim@@ 7
Jin@@ 7
Johnny 7
Jor@@ 7
Joy 7
Jum@@ 7
Jungle 7
Kaf@@ 7
Kazakhstan 7
Kek@@ 7
Kenneth 7
Kevin 7
Khor@@ 7
Kib@@ 7
Kik@@ 7
Kj@@ 7
Klein@@ 7
Kno@@ 7
Koch@@ 7
Kolkata 7
Kre@@ 7
Krupp 7
LT 7
Lai 7
Led@@ 7
Legacy 7
Leibniz 7
[...]
