the 10381518
, 9760065
. 8587528
of 5734877
and 4949141
in 4352382
&quot; 3863842
to 3453842
a 3418237
was 2145557
@-@ 1911629
The 1739101
is 1606113
) 1477708
( 1476020
for 1378733
as 1337720
on 1308670
with 1196188
by 1176094
&apos;s 1065893
that 954293
at 898671
from 862988
his 759712
In 690066
an 688549
he 632255
were 564304
which 506871
are 491288
it 477481
He 457976
also 414281
had 413514
; 412912
be 411966
or 402992
: 399870
has 384764
– 383950
first 373388
It 331575
their 328586
one 312960
its 311255
who 307202
but 294447
not 294257
her 293330
two 273334
have 272099
this 264137
been 256004
&apos; 254542
after 228721
time 212057
they 211722
other 206704
into 202317
A 200836
she 192134
all 185712
On 176659
% 176647
more 175315
New 172713
when 171384
would 171371
years 171069
over 169199
up 168309
/ 166141
1 164355
This 163527
during 162325
where 160688
year 159570
only 158019
season 155333
new 154117
between 153126
three 150121
made 147688
out 146989
him 144614
later 143895
then 143767
United 142657
&amp; 141467
used 141111
known 140452
such 139817
most 138819
about 137973
American 137962
2 137605
can 137170
team 134864
became 134736
part 134685
University 134113
under 132936
She 132908
born 130052
well 129540
than 128045
including 126528
I 124824
film 124818
being 124555
there 124241
some 120293
second 119351
against 116771
through 115962
de 115424
After 114659
3 112118
before 111742
while 111677
many 111040
work 108955
until 108201
World 107925
them 107446
both 107108
family 106816
people 106061
States 104970
played 104948
album 104616
s 102908
no 102170
National 102013
name 101729
released 100684
number 98613
series 98499
won 98056
life 96884
area 96847
As 96709
school 96473
may 95992
4 95936
called 95906
four 95523
i 95248
May 94122
March 91841
September 90745
January 90695
career 89868
June 89284
several 89195
October 88688
following 88679
early 88610
state 88423
July 88326
same 88245
city 87943
August 87202
School 86944
John 86852
South 86228
game 85792
April 85556
based 85464
They 85237
began 84778
found 84123
November 83888
these 83809
use 83718
since 83623
10 83412
December 83231
will 83164
His 82695
5 82365
end 81205
County 80502
so 80446
amp 79874
group 79114
held 78579
located 78271
At 77825
age 77514
place 77475
6 77384
War 77262
York 76623
government 76518
$ 76114
man 75611
former 75557
There 75468
State 75342
February 75071
named 75058
member 74979
British 74971
took 74558
high 74342
century 74172
population 74135
each 74049
City 73913
League 73442
served 73349
music 72932
2010 72788
now 72746
o 72729
back 72683
station 72313
’ 72248
day 72179
company 70946
song 70909
son 70594
However 70549
- 70086
received 69920
did 69905
any 69837
home 69793
around 69675
2011 68461
North 68393
built 68212
line 67901
could 67889
7 66828
due 66611
long 66460
town 65790
single 65720
local 65507
2012 65343
left 65279
along 65228
like 65169
12 64984
During 64702
system 64676
History 64660
off 64536
2014 64393
died 64165
five 63681
species 63601
band 63584
public 63374
2016 63332
20 63316
include 63180
2015 63083
2013 63080
members 62934
led 62913
18 62872
8 62820
final 62765
set 62650
said 62639
published 62299
within 62183
club 62062
2008 61764
2009 61322
un@@ 61265
large 61059
because 60923
building 60792
15 60587
al 60426
T@@ 60169
own 60079
men 60058
2017 59923
2018 59903
included 59793
side 59753
world 59737
village 59666
third 59219
2019 58926
For 58580
small 58311
2007 57958
French 57285
2006 57143
show 57101
College 56904
death 56815
S@@ 56745
national 56623
9 56534
children 56007
last 55894
election 55844
football 55756
moved 55606
2020 55531
&#91; 55395
&#93; 55395
main 55224
M@@ 55178
play 55131
West 54896
English 54880
11 54846
y 54798
those 54711
District 54402
million 54357
history 54257
land 54235
if 54143
still 53945
women 53928
German 53801
30 53617
another 53574
service 53423
very 53007
N@@ 52674
major 52666
form 52622
— 52569
P@@ 52545
often 52146
International 52120
16 52100
old 52055
ing 51868
book 51745
II 51680
B@@ 51466
down 51372
London 51351
River 51240
K@@ 51234
re@@ 51219
house 51188
district 51179
near 51021
A@@ 51015
north 50915
U.S. 50914
way 50840
When 50668
G@@ 50560
different 50549
14 50525
war 50488
games 50151
water 50151
announced 50014
established 50001
late 49960
father 49895
country 49877
19 49855
All 49721
best 49515
House 49453
again 49429
record 49187
Cup 48792
original 48787
u 48661
y@@ 48646
US 48641
started 48614
D@@ 48610
13 48557
role 48415
south 48351
able 48324
six 48322
order 48206
title 47683
One 47661
do 47637
top 47637
went 47621
in@@ 47601
25 47564
O@@ 47198
head 47101
period 47019
L@@ 46962
H@@ 46812
came 46721
_ 46626
law 46578
what 46546
field 46418
much 46401
support 46333
joined 46186
17 46142
worked 45990
among 45784
just 45573
es 45563
C@@ 45435
England 45182
2005 45029
E@@ 45020
make 44953
2021 44935
produced 44853
wrote 44708
F@@ 44602
having 44552
general 44434
given 44397
described 44298
married 44247
become 44224
next 44080
24 44071
These 43884
using 43826
community 43796
player 43747
development 43698
total 43644
European 43609
non 43601
returned 43502
&apos;@@ 43492
various 43452
Park 43327
per 43322
R@@ 43227
General 43161
power 42872
East 42860
William 42795
created 42765
2000 42719
even 42591
political 42514
From 42494
written 42371
2004 42340
W@@ 42300
production 42206
21 42069
Church 42035
works 41794
Australia 41371
site 41266
co 41193
us 41152
ed 41051
level 40950
founded 40853
! 40852
= 40785
continued 40778
Party 40764
India 40763
however 40686
Council 40662
By 40589
right 40575
win 40465
re 40436
elected 40435
formula 40421
Army 40276
According 40227
round 40126
France 40114
High 39970
Street 39951
take 39945
few 39942
position 39910
point 39884
students 39840
church 39594
Division 39438
west 39233
military 39221
region 39216
James 39188
George 39178
King 39138
without 39079
party 38996
100 38805
less 38733
signed 38711
22 38607
times 38567
match 38538
east 38505
days 38493
opened 38373
event 38361
San 38323
V@@ 38217
lost 38116
St. 38082
President 38001
ar 37964
considered 37947
recorded 37937
present 37913
professional 37873
version 37868
run 37813
television 37749
California 37651
half 37521
making 37475
short 37465
full 37306
appointed 37264
international 37121
an@@ 37088
America 37034
language 37016
Canada 36999
c@@ 36901
debut 36878
education 36813
I@@ 36809
2003 36771
research 36711
style 36709
&apos;t 36615
J@@ 36579
art 36557
together 36474
e 36446
0 36423
formed 36389
d 36352
23 36195
program 36073
story 36073
wife 35963
With 35930
Association 35872
important 35835
m 35806
further 35786
working 35728
appeared 35596
Union 35456
areas 35411
p@@ 35401
ar@@ 35211
2002 35207
Early 35111
class 35101
release 35007
video 34952
ers 34903
er 34836
Royal 34815
While 34739
B 34698
lead 34695
term 34662
Australian 34597
teams 34595
2001 34579
points 34421
addition 34343
result 34306
playing 34248
TV 34245
developed 34217
case 34213
office 34185
business 34157
am 34051
“ 34005
Indian 33994
control 33771
” 33754
Award 33656
Club 33577
O 33559
average 33558
every 33516
t@@ 33430
Championship 33392
director 33339
although 33335
similar 33334
28 33165
Y@@ 33022
example 32954
others 32872
Germany 32825
26 32804
First 32631
social 32630
himself 32543
league 32490
27 32478
away 32450
across 32443
design 32318
s@@ 32285
popular 32268
k@@ 32172
race 32070
project 32067
David 32012
president 31985
list 31846
services 31839
Road 31815
common 31789
living 31705
Company 31700
events 31698
China 31676
... 31639
ia 31606
live 31405
gt 31376
Central 31316
finished 31304
body 31282
b@@ 31193
sold 31193
though 31114
Z@@ 31084
g@@ 31066
al@@ 31042
Court 31038
d@@ 30998
daughter 30891
Group 30831
Some 30795
free 30788
U@@ 30776
how 30743
mother 30724
lt 30720
ate 30684
gave 30517
we 30486
Japanese 30450
air 30435
followed 30430
Europe 30426
never 30374
ch@@ 30372
months 30371
1999 30323
Music 30300
Thomas 30161
road 30094
white 30031
character 29961
construction 29956
h@@ 29925
29 29906
performed 29899
completed 29880
Air 29828
Robert 29816
designed 29713
Japan 29683
taken 29678
coach 29643
largest 29630
o@@ 29592
UK 29466
Washington 29452
reported 29426
open 29420
Her 29406
modern 29405
available 29404
Charles 29383
young 29377
seven 29372
Center 29353
n@@ 29264
remained 29200
j@@ 29166
once 29111
An 29105
e@@ 29022
Western 28995
v@@ 28994
should 28947
players 28915
1998 28895
Hall 28884
track 28881
am@@ 28843
songs 28810
Other 28780
Institute 28720
process 28684
stage 28629
originally 28609
Department 28568
brother 28560
et 28560
Russian 28519
low 28499
Since 28467
study 28464
directed 28445
refer 28424
current 28400
return 28362
great 28359
features 28270
Chinese 28252
eight 28251
os 28234
leading 28232
performance 28179
1996 28088
official 28068
k 28064
Although 28012
Island 27996
en@@ 27976
includes 27973
Paul 27958
throughout 27944
training 27907
help 27906
Society 27889
Canadian 27868
forces 27766
groups 27710
m@@ 27677
go 27581
awarded 27566
featured 27548
post 27544
range 27518
does 27492
African 27434
seen 27431
schools 27338
currently 27319
involved 27319
50 27292
1997 27245
added 27233
stated 27200
information 27169
eventually 27049
see 26998
i@@ 26925
Minister 26909
sent 26899
ten 26854
episode 26818
Its 26790
good 26615
u@@ 26614
ation 26611
you 26582
black 26520
Academy 26512
countries 26475
C 26471
degree 26404
replaced 26374
Act 26362
Women 26345
central 26240
light 26219
t 26212
either 26175
usually 26162
on@@ 26151
families 26136
get 26095
winning 26094
31 26090
ship 26078
special 26037
human 25973
Africa 25932
private 25923
ine 25914
1995 25908
fourth 25881
placed 25870
close 25844
competition 25824
or@@ 25817
police 25803
provided 25788
at@@ 25736
court 25631
1994 25581
1992 25570
killed 25566
reached 25501
ic 25483
college 25426
center 25390
Great 25381
must 25372
fire 25367
previous 25359
To 25324
km 25306
Spanish 25297
car 25286
ad@@ 25266
List 25245
Michael 25214
above 25165
upon 25141
Italian 25140
rights 25138
Henry 25114
states 25109
Lake 25107
type 25045
radio 25037
least 25024
via 25024
le 25009
el@@ 24968
f@@ 24936
Best 24925
Al@@ 24918
owned 24915
media 24876
a@@ 24850
Football 24800
aircraft 24798
attended 24756
St 24740
saw 24740
front 24680
di@@ 24629
change 24603
board 24601
listed 24506
scored 24506
l@@ 24497
contract 24494
Republic 24481
ended 24408
section 24389
campaign 24347
size 24346
decided 24320
D 24318
Awards 24296
railway 24291
de@@ 24216
White 24211
ground 24154
space 24153
shows 24146
rock 24042
action 24016
dis@@ 24015
active 24011
ated 23999
introduced 23993
female 23982
c 23976
Mar@@ 23964
census 23962
er@@ 23948
attack 23903
related 23896
40 23892
films 23880
Career 23850
Ireland 23823
Saint 23742
1993 23730
Texas 23703
river 23701
success 23695
1990 23689
goal 23640
studio 23628
previously 23556
la 23536
Museum 23533
Following 23508
1991 23496
parts 23488
z@@ 23429
Education 23428
w@@ 23409
start 23406
ran 23350
La 23349
Two 23344
Kingdom 23324
rather 23309
books 23270
ley 23203
Christian 23177
h 23174
instead 23145
R 23128
Black 23121
almost 23109
represented 23099
provide 23066
ana 23059
mid 23058
Sh@@ 23056
put 23055
n 23043
writing 23039
um 23023
force 23021
successful 22971
Government 22941
Peter 22938
Art 22914
model 22886
tournament 22885
whose 22852
novel 22851
Los 22824
Roman 22796
Paris 22784
ever 22771
Ch@@ 22758
behind 22757
health 22750
buildings 22728
lived 22705
brought 22627
division 22537
as@@ 22507
Committee 22485
data 22475
Later 22427
movement 22403
week 22378
person 22272
is@@ 22263
Grand 22254
&#124; 22234
defeated 22233
especially 22213
Catholic 22206
Smith 22206
en 22191
possible 22190
ly 22187
approximately 22184
met 22158
Mary 22136
Zealand 22122
l 22116
b 22069
changed 22058
taking 22048
night 22046
units 22035
organization 22011
outside 22007
industry 21952
el 21949
1989 21871
Championships 21863
allowed 21854
structure 21833
ac@@ 21829
primary 21828
northern 21820
significant 21725
disambiguation 21724
runs 21713
red 21675
market 21673
beginning 21665
T 21649
Soviet 21638
base 21627
regular 21622
southern 21618
plays 21564
No. 21554
L 21504
1988 21500
Richard 21474
An@@ 21423
Red 21419
island 21373
interest 21356
Life 21330
ro@@ 21297
Olympics 21268
Festival 21226
p 21182
ap@@ 21157
Summer 21153
artist 21150
towards 21126
ab@@ 21118
Arts 21093
systems 21092
highest 21090
spent 21085
capital 21044
summer 21036
ton 21026
wide 21022
soon 21003
itself 20988
too 20979
hit 20966
Most 20953
little 20927
woman 20920
studies 20885
sometimes 20833
whom 20831
Bay 20794
lower 20781
closed 20775
Chicago 20732
leader 20718
independent 20706
In@@ 20700
Virginia 20686
length 20594
ating 20591
traditional 20582
higher 20576
studied 20563
ina 20562
operations 20534
Film 20513
Force 20509
magazine 20491
army 20478
z 20471
Second 20460
launched 20459
thus 20450
Records 20449
es@@ 20421
era 20401
county 20372
seat 20364
running 20356
generally 20312
our 20299
th@@ 20274
r@@ 20256
X 20245
date 20236
far 20215
it@@ 20206
western 20196
entered 20195
loss 20161
route 20147
strong 20124
issues 20122
noted 20119
Bar@@ 20112
future 20084
sh@@ 20061
collection 20060
hand 20048
Ar@@ 20044
ak@@ 20023
according 20022
et@@ 19986
opening 19962
Games 19934
Navy 19925
1987 19920
self 19920
required 19916
below 19900
1986 19894
Mexico 19879
# 19875
Italy 19869
network 19861
writer 19845
You 19839
king 19839
month 19838
means 19785
tour 19762
Hill 19744
child 19743
culture 19730
come 19720
E 19669
practice 19610
plant 19576
Northern 19557
Battle 19552
matches 19548
money 19541
Many 19534
genus 19527
1984 19517
1980 19485
Russia 19467
selected 19466
earlier 19439
senior 19439
If 19378
J. 19376
sea 19376
Angeles 19373
centre 19342
location 19341
om@@ 19327
companies 19317
operated 19298
gold 19297
1985 19266
course 19263
results 19255
M 19254
property 19245
Greek 19243
g 19241
ai 19213
ie 19187
victory 19187
real 19161
increased 19155
individual 19155
ra@@ 19151
already 19146
appearance 19115
rest 19112
author 19099
ian 19092
ya 19085
associated 19080
me 19078
room 19052
ot@@ 19015
majority 19001
numerous 18995
F 18953
ant 18948
contains 18946
older 18946
activities 18933
ag@@ 18931
ations 18927
decision 18908
uses 18908
food 18900
cases 18893
Joseph 18891
becoming 18886
singer 18881
bridge 18857
natural 18853
serving 18848
manager 18805
commercial 18803
Day 18793
economic 18780
.@@ 18754
find 18740
competed 18723
terms 18713
x 18706
Route 18641
rate 18636
park 18616
anti 18611
move 18607
1983 18574
artists 18567
caused 18565
nine 18546
lines 18540
award 18528
initially 18523
annual 18503
income 18478
access 18471
con@@ 18471
ates 18428
standard 18416
ka 18401
Board 18392
ans 18380
Sir 18374
ol@@ 18366
supported 18344
student 18335
im@@ 18318
Wales 18292
personal 18268
Service 18264
ah 18259
better 18259
goals 18258
der 18251
unit 18246
mostly 18244
love 18234
retired 18234
1982 18218
elections 18218
trade 18217
+ 18211
Con@@ 18204
additional 18203
ra 18191
university 18187
ability 18185
Irish 18177
Pacific 18177
forced 18161
particularly 18144
issue 18130
Florida 18122
Research 18120
st@@ 18064
going 18055
shot 18049
past 18035
eastern 18034
Car@@ 18026
claimed 18013
characters 18012
religious 18003
St@@ 17996
ism 17954
chief 17934
husband 17934
limited 17932
changes 17919
Southern 17855
1972 17849
op@@ 17843
ist 17820
subsequently 17816
De@@ 17784
thought 17776
passed 17774
staff 17772
Valley 17769
Assembly 17760
officer 17759
complete 17756
ships 17741
earned 17727
medical 17719
1979 17707
ice 17697
feature 17694
my 17692
municipality 17684
plan 17675
Year 17666
fact 17638
championship 17615
battle 17611
raised 17576
ri@@ 17574
That 17567
create 17564
science 17561
today 17561
legal 17551
politician 17550
le@@ 17547
edition 17538
Public 17531
Parliament 17529
status 17525
musical 17517
1st 17502
remains 17498
management 17491
Louis 17485
da 17483
U 17481
entire 17473
programs 17471
ad 17461
Congress 17444
Province 17437
? 17397
Jewish 17382
engine 17375
Al 17346
19th 17310
forms 17307
relationship 17294
evidence 17291
1976 17289
hours 17252
score 17241
1974 17231
Har@@ 17214
sister 17189
report 17183
Old 17179
wood 17165
cast 17164
sub@@ 17163
S 17154
particular 17144
1981 17126
minutes 17114
cover 17113
Their 17081
word 17051
give 17044
material 17033
1945 17024
presented 17022
Spain 17005
1975 17003
helped 16997
1968 16980
energy 16977
Law 16950
1970 16923
Commission 16913
believed 16871
stone 16871
response 16868
1978 16858
referred 16838
shown 16835
specific 16834
li@@ 16820
meeting 16796
Railway 16793
leaving 16793
Times 16775
weeks 16761
Democratic 16750
larger 16748
composed 16747
Martin 16738
complex 16718
basketball 16715
sports 16714
seasons 16709
Science 16697
N 16693
Despite 16685
10@@ 16678
ic@@ 16664
Line 16660
acquired 16659
houses 16656
famous 16646
Personal 16630
ey 16626
longer 16625
Queen 16604
offered 16601
Green 16563
em@@ 16556
Empire 16551
parents 16528
ani 16521
key 16515
carried 16513
fight 16503
People 16479
takes 16473
1973 16457
remaining 16446
failed 16444
view 16438
mainly 16429
multiple 16405
III 16402
surface 16399
footballer 16398
starting 16398
increase 16371
names 16368
promoted 16365
1977 16359
oc@@ 16350
Mc@@ 16343
theory 16340
Eastern 16332
turn 16318
Series 16316
graduated 16313
regional 16313
Lord 16312
policy 16306
But 16302
stations 16299
200 16289
ts 16281
face 16276
need 16261
federal 16253
certain 16250
overall 16241
native 16199
source 16196
Chief 16186
cost 16177
A. 16165
got 16153
star 16146
Town 16144
Big 16142
lies 16137
themselves 16128
Station 16099
1971 16092
proposed 16091
des 16090
Conference 16076
V 16064
vote 16064
financial 16062
subject 16062
3@@ 16061
deal 16052
Star 16035
Edward 16034
effect 16022
Q@@ 16019
ting 15990
os@@ 15981
Par@@ 15973
als 15967
operation 15938
1980s 15911
ec@@ 15907
medal 15900
appearances 15896
troops 15883
K 15875
Radio 15869
X@@ 15868
variety 15868
consists 15866
1969 15854
separate 15850
latter 15829
male 15823
individuals 15813
Carolina 15806
command 15803
4@@ 15792
Britain 15789
ur@@ 15779
60 15761
Poland 15751
ak 15737
experience 15737
always 15730
turned 15720
done 15715
speed 15715
Man 15712
over@@ 15698
ul@@ 15690
65 15676
1967 15669
Brown 15660
cultural 15648
middle 15626
Team 15585
influence 15584
square 15573
broadcast 15566
Dutch 15557
recording 15556
marriage 15549
department 15542
civil 15527
friend 15522
train 15516
historical 15514
meaning 15513
prior 15476
ite 15475
fifth 15472
professor 15461
conditions 15451
20th 15446
£ 15445
Both 15436
Man@@ 15428
G 15399
act 15391
producer 15391
despite 15374
society 15364
2nd 15358
care 15345
Lee 15325
covered 15316
Open 15311
Biography 15310
attempt 15296
Bank 15281
issued 15264
responsible 15253
fall 15237
ch 15231
1964 15214
Dr. 15213
5@@ 15210
sound 15207
Creek 15193
-@@ 15192
1970s 15190
Prince 15181
9@@ 15175
allow 15172
il@@ 15165
arrived 15160
records 15159
provides 15150
Love 15148
Asian 15137
Another 15132
managed 15130
oil 15096
nearly 15094
We 15092
ang 15081
ings 15071
nearby 15070
cities 15068
foreign 15067
Mark 15063
serve 15054
recent 14998
appears 14989
Jones 14971
na 14952
Under 14938
FC 14924
border 14920
Scotland 14918
constructed 14917
movie 14908
finally 14902
plans 14902
transferred 14899
Am@@ 14889
news 14887
ata 14883
administrative 14869
Per@@ 14864
actor 14842
asked 14832
Latin 14822
technology 14781
Pennsylvania 14772
2022 14766
province 14764
told 14758
extended 14751
participated 14750
cut 14740
Theatre 14730
Un@@ 14722
titled 14707
enough 14682
ons 14682
discovered 14677
Senate 14673
likely 14671
God 14656
primarily 14649
r 14630
Development 14615
heavy 14598
1960 14592
problems 14584
might 14577
value 14574
tracks 14571
Foundation 14565
rural 14550
saying 14537
review 14534
1965 14533
cause 14511
Order 14509
wanted 14507
test 14503
ti@@ 14502
1966 14486
direct 14483
wing 14482
C. 14458
editor 14458
br 14449
Michigan 14439
council 14435
candidate 14432
residents 14431
P 14430
pre 14420
8@@ 14396
alongside 14391
elements 14391
1944 14388
Ohio 14366
45 14361
Men 14361
officially 14361
se@@ 14354
workers 14353
Civil 14351
double 14348
Health 14312
directly 14304
bank 14303
whether 14282
Centre 14271
levels 14267
newspaper 14257
Francisco 14253
ong 14247
leave 14244
grew 14240
nature 14233
positive 14209
products 14192
Governor 14186
cross 14160
words 14146
1990s 14138
growth 14125
Di@@ 14117
Boston 14105
Republican 14104
Young 14093
ard 14082
En@@ 14056
renamed 14048
households 14044
ies 14043
lives 14015
idea 14009
makes 14007
Ab@@ 13995
ell 13993
projects 13993
whole 13973
Scottish 13968
Williams 13963
mission 13951
call 13947
mm 13942
2@@ 13936
Asia 13927
ur 13917
host 13897
activity 13888
No 13882
continue 13880
Israel 13872
lack 13865
friends 13859
hospital 13848
Director 13847
chart 13838
security 13837
Sea 13834
numbers 13818
function 13815
label 13815
av@@ 13813
Polish 13809
Secretary 13808
parish 13804
channel 13803
planned 13775
ous 13768
executive 13759
Mal@@ 13752
Three 13742
Th@@ 13732
ordered 13729
1960s 13718
officers 13715
Johnson 13706
here 13702
Major 13700
rule 13698
text 13697
stars 13696
conducted 13689
prominent 13656
ov 13649
intended 13645
Columbia 13614
Alexander 13612
Georgia 13600
places 13587
Fort 13577
M. 13569
notable 13543
minor 13525
appear 13511
organized 13505
fish 13498
highly 13491
youth 13476
El 13458
females 13457
Office 13451
stories 13445
Hospital 13430
moving 13427
coast 13420
ay 13413
soldiers 13397
Cor@@ 13389
Highway 13385
removed 13384
commonly 13372
revealed 13369
1962 13362
divided 13360
produce 13352
Mor@@ 13342
formerly 13324
1948 13322
administration 13321
Middle 13317
fully 13317
1963 13310
Avenue 13300
yet 13290
basis 13269
ancient 13265
ally 13260
quality 13249
capacity 13244
color 13238
acting 13230
My 13220
effects 13206
1942 13192
Super 13187
Re@@ 13177
Historic 13174
table 13174
follows 13173
Bill 13170
500 13168
Sp@@ 13162
settlement 13162
yards 13160
ma 13148
distance 13146
El@@ 13136
treatment 13136
paper 13130
Sydney 13127
master 13117
singles 13117
smaller 13113
awards 13110
quickly 13110
inter@@ 13108
News 13104
dedicated 13102
purchased 13077
di 13071
Also 13068
ob@@ 13064
ara 13061
floor 13059
Corps 13048
qu@@ 13042
charge 13024
fellow 13019
potential 13015
leaders 13014
scene 13013
initial 12989
Tour 12967
drama 12955
historic 12948
1940 12944
races 12939
facilities 12934
giving 12930
0.@@ 12927
immediately 12925
assistant 12900
Coast 12894
defeat 12893
assigned 12885
é 12846
BBC 12845
focus 12842
pass 12839
forward 12831
respectively 12827
owner 12824
estimated 12818
Ministry 12814
1939 12801
median 12798
1961 12797
1941 12788
35 12785
winner 12781
join 12776
Be@@ 12765
BC 12763
ville 12760
Jack 12752
ini 12746
efforts 12736
conference 12708
declared 12702
Jersey 12697
ay@@ 12688
pre@@ 12686
article 12659
Of 12656
types 12655
1946 12652
typically 12649
Little 12648
housing 12647
1956 12645
relations 12643
aged 12641
x@@ 12636
6@@ 12634
1943 12632
per@@ 12631
B. 12627
Blue 12612
poor 12595
compared 12593
build 12587
physical 12585
comes 12579
inside 12578
largely 12576
founder 12574
gained 12574
firm 12561
ling 12559
needed 12552
probably 12552
format 12551
Airport 12543
Federal 12532
3rd 12530
agreed 12518
percent 12518
80 12513
yard 12512
Olympic 12509
positions 12507
coming 12493
featuring 12492
flight 12489
letter 12485
S. 12483
ending 12474
Victoria 12472
roles 12470
attention 12456
destroyed 12447
captured 12442
trial 12441
hosted 12430
si@@ 12427
sc@@ 12425
Illinois 12424
votes 12404
1958 12403
Post 12400
upper 12400
bus 12396
website 12394
ler 12388
ted 12378
E. 12371
cars 12355
street 12353
branch 12352
H 12350
Earth 12348
Justice 12329
stop 12321
gas 12319
Berlin 12309
museum 12290
languages 12289
Rock 12283
Jean 12278
clubs 12278
widely 12276
1950 12271
crew 12265
sources 12261
ano 12260
reach 12259
ets 12252
H. 12250
W. 12245
mixed 12241
confirmed 12240
communities 12239
hold 12238
suffered 12233
online 12227
agreement 12217
accepted 12214
Scott 12208
del 12206
direction 12200
occurred 12200
Mount 12199
od@@ 12191
computer 12187
leadership 12187
ranked 12162
Each 12153
leaves 12152
operating 12146
semi 12145
meet 12139
Frank 12134
combined 12133
pay 12131
serves 12130
scoring 12128
miles 12118
estate 12100
designated 12097
territory 12096
taught 12095
metal 12090
adopted 12088
Supreme 12083
episodes 12082
Iran 12079
academic 12078
don 12077
32 12067
CD 12066
job 12061
Corporation 12057
amount 12056
ball 12053
1947 12047
product 12033
Kong 12030
90 12028
scale 12026
gun 12012
recognized 12007
ways 12002
Elizabeth 12001
therefore 11993
1957 11978
Massachusetts 11978
FM 11970
concept 11969
ov@@ 11966
Hong 11956
Islands 11939
ill 11939
mentioned 11938
approach 11936
pressure 11933
ae 11923
resulted 11923
1@@ 11922
Korea 11921
1959 11914
felt 11912
Before 11911
ish 11897
camp 11896
Mac@@ 11893
reviews 11887
ke 11885
mass 11883
ino 11879
equipment 11876
Kar@@ 11875
union 11872
hard 11871
identified 11858
70 11854
purpose 11837
ter 11833
Sports 11828
prison 11813
v 11813
draw 11812
dance 11810
committee 11803
nominated 11803
ner 11797
campus 11795
ha 11790
7@@ 11785
den 11778
1952 11777
ing@@ 11776
recently 11765
heart 11761
fell 11757
par@@ 11752
wall 11752
cell 11748
critical 11747
Time 11745
distribution 11743
ou@@ 11740
van 11739
presence 11729
expanded 11718
ists 11718
von 11718
car@@ 11710
method 11693
ford 11686
Family 11682
ology 11682
keep 11681
champion 11680
Stadium 11675
albums 11671
ring 11671
plants 11664
Ad@@ 11652
ne 11642
Le@@ 11640
silver 11639
platform 11638
Duke 11622
account 11621
Born 11618
paid 11609
press 11608
code 11594
parties 11589
Bishop 11580
Background 11579
ary 11575
un 11572
ha@@ 11571
let 11570
Professor 11563
Tom 11557
Swedish 11555
nation 11555
break 11550
1955 11545
analysis 11541
offers 11541
secondary 11540
granted 11533
buried 11530
ge 11529
og@@ 11520
Mo@@ 11519
Qu@@ 11516
teacher 11515
remain 11512
titles 11511
Top 11499
Ma@@ 11491
Home 11486
bar 11486
sky 11482
Police 11478
est 11473
Bal@@ 11471
Santa 11471
voice 11466
green 11457
difficult 11455
Prime 11453
Cross 11435
except 11435
1949 11411
growing 11409
sex 11398
les 11388
solo 11387
Library 11386
minister 11378
literature 11375
Pakistan 11373
expected 11369
clear 11368
organizations 11362
reduced 11357
newly 11354
Atlantic 11344
1954 11338
port 11322
Geography 11311
Joe 11309
Don 11301
rules 11301
Final 11300
minute 11295
defined 11294
tree 11283
painting 11282
De 11273
alone 11270
disease 11268
models 11265
damage 11260
Se@@ 11256
digital 11249
performances 11249
pop 11249
sites 11244
ah@@ 11241
Ber@@ 11239
sides 11235
store 11235
spread 11228
density 11227
background 11203
surname 11203
Bo@@ 11202
Mon@@ 11200
Jackson 11190
us@@ 11189
offer 11184
Toronto 11183
inspired 11182
resulting 11182
mountain 11177
formation 11176
R. 11168
problem 11166
losing 11162
Brazil 11151
comedy 11148
Ontario 11144
2.@@ 11135
urban 11133
suggested 11125
ella 11122
lands 11112
true 11112
Su@@ 11108
couple 11095
content 11086
bi@@ 11085
existing 11080
Rome 11073
figure 11063
marked 11063
twice 11060
creation 11059
seats 11059
ity 11050
1953 11043
continues 11039
id 11033
males 11028
travel 11015
ala 11013
ja 11010
ent 11009
obtained 11002
4th 11001
allows 11000
Bridge 10997
Sar@@ 10996
Premier 10995
share 10993
Media 10992
ane 10990
sons 10987
f 10979
é@@ 10979
ep@@ 10978
chairman 10971
Nations 10962
contemporary 10955
ang@@ 10954
Sal@@ 10946
1951 10940
ens 10939
Social 10937
twenty 10924
co@@ 10921
Military 10920
association 10916
box 10914
develop 10911
providing 10910
kept 10903
64 10898
versions 10887
actually 10883
festival 10880
showed 10867
surrounding 10862
Korean 10861
Show 10857
1938 10856
connected 10853
ig@@ 10853
Township 10846
spring 10843
cells 10842
1918 10840
finish 10820
split 10818
ol 10817
teaching 10816
guitar 10807
feet 10798
officials 10798
piece 10795
ore 10791
Game 10783
Philadelphia 10776
quarter 10768
1936 10766
becomes 10751
occupied 10744
effort 10742
Co@@ 10735
be@@ 10730
tried 10729
ir@@ 10728
USA 10718
Gar@@ 10714
arrested 10713
Me 10712
authorities 10708
claims 10705
politics 10705
Or@@ 10695
Regiment 10692
injury 10684
billion 10672
Over 10671
W 10671
af@@ 10670
‘ 10668
Because 10660
Book 10660
receive 10660
allowing 10646
fields 10642
situated 10638
sp@@ 10638
birth 10618
Wilson 10606
Billboard 10596
regions 10594
tower 10594
unique 10581
1920 10579
Among 10576
gives 10574
dead 10560
ones 10556
attacks 10550
Long 10549
Pro@@ 10544
Mr. 10541
greater 10537
block 10534
sixth 10526
knowledge 10522
man@@ 10521
worth 10519
hour 10518
younger 10511
villages 10508
impact 10500
opposition 10496
captain 10490
vi@@ 10488
Captain 10486
blue 10485
ins 10483
visit 10483
dark 10478
interview 10476
sales 10476
P. 10473
Sweden 10463
applied 10462
id@@ 10461
Sun 10454
ada 10449
ed@@ 10448
Community 10447
ator 10443
traffic 10438
facility 10436
Netherlands 10431
Lady 10426
ari 10421
succeeded 10413
Technology 10408
Bur@@ 10407
metres 10391
Ak@@ 10383
figures 10367
Port 10358
scientific 10356
deep 10349
headquarters 10349
Between 10345
tax 10343
um@@ 10330
Like 10324
theatre 10323
Oxford 10319
ach@@ 10306
sets 10304
Register 10290
claim 10290
Daniel 10289
brothers 10280
1937 10279
climate 10279
software 10279
lake 10278
1950s 10269
library 10268
bought 10260
risk 10258
baseball 10253
Death 10252
cannot 10251
Emperor 10247
says 10244
eg@@ 10241
governor 10240
ry 10237
Maria 10224
know 10223
promotion 10223
commander 10222
critics 10218
tells 10217
laws 10213
classes 10203
Medical 10200
Andrew 10197
squad 10186
Due 10177
eb@@ 10172
returning 10168
blood 10157
finals 10155
arms 10149
drive 10145
settled 10143
lot 10141
Field 10134
mon@@ 10134
trains 10132
completely 10128
Special 10123
aired 10122
simply 10118
image 10115
44 10114
fighting 10111
Taylor 10109
rank 10105
1919 10104
environment 10104
Ro@@ 10101
read 10096
advanced 10094
arts 10092
entry 10092
ne@@ 10088
ri 10082
achieved 10071
tradition 10063
hi@@ 10062
Americans 10057
generation 10056
Golden 10047
Castle 10046
Business 10043
situation 10026
And 10023
industrial 10022
J 10020
goes 10003
Mike 10000
Le 9996
Mountain 9994
° 9994
materials 9993
ut@@ 9992
big 9991
frequently 9991
Van 9990
authority 9985
Press 9980
brand 9969
boat 9967
row 9957
oldest 9949
forest 9938
actress 9937
publication 9937
something 9935
reports 9934
chosen 9927
approved 9922
sexual 9917
mile 9912
holds 9902
Francis 9896
supply 9889
Sc@@ 9884
end@@ 9880
murder 9880
relatively 9876
commissioned 9873
refused 9873
Several 9868
Chris 9864
things 9862
Four 9859
Arthur 9855
ita 9855
ages 9852
portion 9841
household 9835
necessary 9816
1930 9803
ks 9798
Gu@@ 9776
ot 9771
00 9769
creating 9766
ends 9754
bring 9747
faced 9746
visited 9746
ance 9738
under@@ 9734
1933 9729
ta 9729
fans 9728
transport 9724
starring 9722
hall 9714
Today 9702
concert 9699
ale 9696
theme 9696
18th 9693
begins 9693
joint 9692
Junior 9688
consisted 9679
perform 9671
focused 9670
conflict 9667
notes 9662
broke 9659
winter 9657
Federation 9656
1914 9654
founding 9651
1917 9645
kind 9640
methods 9636
Plot 9635
Davis 9627
principal 9624
Prize 9602
performing 9597
agent 9594
origin 9593
1.@@ 9585
begin 9582
receiving 9576
stand 9572
safety 9570
der@@ 9568
unable 9568
transfer 9562
Kh@@ 9561
1935 9559
300 9553
audience 9546
effective 9546
exchange 9544
fought 9543
attempted 9540
Beach 9535
ics 9528
retirement 9528
districts 9525
prevent 9512
ve 9512
follow 9506
0@@ 9502
attacked 9501
girls 9497
ding 9491
ty 9490
sign 9484
Network 9481
structures 9481
ica 9478
subsequent 9475
employed 9469
economy 9468
Minnesota 9455
aid 9455
reason 9452
covers 9447
partner 9445
ter@@ 9444
setting 9433
Journal 9431
opposed 9423
reference 9421
Mexican 9420
Ho@@ 9419
36 9416
33 9413
architecture 9413
weight 9413
Master 9410
Bel@@ 9409
Region 9409
expansion 9404
towns 9404
morning 9402
bar@@ 9401
shared 9398
daily 9396
Kansas 9394
temple 9390
te 9386
defense 9385
dropped 9376
Kal@@ 9374
machine 9367
converted 9365
ph@@ 9363
System 9350
racing 9348
1928 9340
NCAA 9337
Reception 9336
determined 9336
unknown 9331
actions 9328
protection 9328
entitled 9307
Forest 9292
Inc. 9292
Missouri 9289
animals 9289
NFL 9288
representing 9284
vice 9273
permanent 9272
Bob 9270
Steve 9269
il 9268
pl@@ 9264
qualified 9263
ji 9262
L. 9261
girl 9261
shortly 9259
increasing 9256
aw@@ 9249
articles 9246
selling 9239
foot 9238
crime 9236
presidential 9231
400 9224
5th 9224
sense 9224
Jr 9221
Ver@@ 9221
volume 9219
75 9217
Melbourne 9213
look 9209
Description 9205
attempts 9203
influenced 9200
D. 9198
trees 9192
engineering 9190
va 9188
copies 9185
derived 9185
1929 9184
th 9179
1934 9172
Lewis 9168
Area 9161
ultimately 9159
Co 9156
beat 9153
Gold 9152
scheduled 9150
Moscow 9140
guest 9138
vehicles 9136
and@@ 9132
electric 9124
ors 9121
bronze 9118
represent 9117
e.g. 9115
Fox 9108
citizens 9106
properties 9099
Memorial 9096
Jim 9093
extensive 9087
highway 9087
cancer 9081
San@@ 9080
global 9080
ber@@ 9076
EP 9074
Night 9069
airport 9068
constituency 9068
say 9063
resources 9058
contributed 9053
maximum 9053
pair 9051
Power 9050
write 9050
mayor 9048
containing 9047
learning 9037
onto 9037
Muslim 9036
enter 9036
powerful 9030
centuries 9028
simple 9024
meant 9020
fl@@ 9019
pieces 9013
Stephen 9009
Turkish 9002
34 8998
Sunday 8997
Queensland 8991
hockey 8990
Country 8988
Live 8972
Wisconsin 8972
laid 8972
institutions 8964
acts 8963
drug 8963
guns 8961
application 8944
ci@@ 8940
launch 8933
em 8931
locations 8931
Sciences 8928
More 8923
sector 8918
phase 8917
hands 8904
rise 8903
farm 8900
ki 8897
1924 8886
ee 8884
Cape 8883
walls 8880
i.e. 8879
boy 8876
domestic 8876
offices 8874
holding 8865
memory 8865
Project 8864
sought 8863
ex@@ 8862
Ac@@ 8861
castle 8861
vehicle 8859
1932 8852
slightly 8852
Television 8851
identity 8839
documentary 8838
beyond 8837
fiction 8837
for@@ 8836
Mer@@ 8833
condition 8833
du 8830
1912 8826
temperature 8824
au 8822
Vietnam 8820
tri@@ 8815
Song 8811
ama 8811
establishment 8811
Turkey 8810
try 8808
ds 8806
developing 8801
inc@@ 8798
birds 8795
Production 8794
Bu@@ 8793
letters 8792
recognition 8791
Cambridge 8789
supporting 8787
yellow 8783
Prior 8782
educational 8780
mar@@ 8780
expressed 8777
Tennessee 8776
ised 8774
ago 8772
search 8770
idae 8769
reasons 8765
invited 8763
Norway 8762
pro@@ 8760
ative 8753
rail 8748
ge@@ 8747
Indiana 8743
lyrics 8743
consecutive 8731
height 8729
out@@ 8726
stay 8726
1922 8723
educated 8722
matter 8722
rec@@ 8720
Philippines 8719
Point 8718
candidates 8716
normal 8714
producing 8713
Khan 8712
peace 8711
want 8711
occurs 8705
az@@ 8704
ik@@ 8704
Ne@@ 8702
Upon 8696
Jews 8692
horse 8688
ical 8686
Christmas 8685
functions 8671
technical 8671
hotel 8669
Manchester 8667
rugby 8666
1927 8664
wa 8663
controlled 8660
abandoned 8655
contained 8655
brown 8652
finishing 8650
1921 8640
Native 8633
38 8628
loan 8628
F. 8625
ola 8624
journalist 8617
Labour 8616
Swiss 8616
Services 8613
needs 8612
speech 8612
contact 8599
independence 8598
Notable 8597
sport 8594
die 8588
ion 8586
successfully 8584
grade 8583
Hot 8576
La@@ 8576
ce 8572
patients 8568
category 8567
1925 8565
Land 8561
Maryland 8561
judge 8560
bill 8552
Affairs 8549
refers 8549
investigation 8548
1926 8545
1931 8544
fleet 8543
ant@@ 8541
architect 8537
incorporated 8537
negative 8535
Class 8534
net 8526
violence 8525
berg 8524
planning 8523
views 8522
Arizona 8520
royal 8519
Norwegian 8514
mis@@ 8510
Portuguese 8505
Building 8504
combat 8504
lo@@ 8503
existence 8502
alternative 8497
COVID 8496
Then 8495
Harry 8493
ceremony 8492
Studies 8491
up@@ 8489
decades 8485
reaching 8479
rich 8473
ko 8464
Channel 8458
Bor@@ 8457
maintained 8457
funding 8453
har@@ 8453
Sk@@ 8447
card 8446
se 8443
stock 8441
Tournament 8431
resigned 8431
multi 8430
proved 8428
1923 8420
basic 8416
voted 8412
IV 8410
G. 8404
cl@@ 8403
composer 8400
Far@@ 8398
literary 8397
herself 8396
Oregon 8393
ath@@ 8390
merged 8385
Infantry 8383
Li@@ 8383
shape 8383
regarding 8379
Austria 8376
ys 8374
Min@@ 8371
specifically 8365
q@@ 8364
screen 8361
junior 8355
Colorado 8354
honor 8354
hired 8353
rear 8351
1910 8349
installed 8348
Com@@ 8345
zone 8341
enemy 8340
ett 8329
establish 8325
passing 8325
War@@ 8324
ski 8323
trained 8322
w 8322
Foreign 8319
Walter 8316
exhibition 8307
shaped 8305
straight 8295
Entertainment 8290
observed 8290
secretary 8287
Ali 8285
1916 8278
edge 8276
References 8275
collected 8273
fuel 8269
stating 8264
Representatives 8263
connection 8262
nuclear 8259
classical 8258
joining 8257
registered 8257
argued 8254
ise 8253
pilot 8253
ators 8252
display 8252
1915 8245
Revolution 8244
su@@ 8242
doing 8235
wins 8232
aka 8228
flow 8226
Sri 8222
core 8222
passes 8222
ruled 8221
funds 8203
Du@@ 8199
48 8190
Medal 8189
worldwide 8186
Places 8184
1900 8183
Human 8178
About 8175
someone 8175
rating 8172
Switzerland 8171
representative 8168
scenes 8167
Political 8166
finds 8164
hill 8163
religion 8163
Census 8161
Holy 8154
Pre@@ 8154
exist 8154
Albert 8153
Mah@@ 8149
Ros@@ 8146
dates 8143
standing 8143
ir 8135
Winter 8133
entrance 8131
ek 8126
etc 8126
question 8125
Dar@@ 8121
Egypt 8121
serious 8121
MP 8120
heard 8117
occur 8117
promote 8116
heavily 8115
Ford 8113
ene 8112
Tar@@ 8107
engaged 8107
ena 8106
Bi@@ 8098
j 8097
om 8097
bands 8095
importance 8092
T. 8090
protein 8089
iron 8084
Chi@@ 8082
ac 8076
avoid 8073
regarded 8067
cor@@ 8063
* 8062
Islamic 8062
choice 8062
Head 8061
orders 8059
Mat@@ 8053
carry 8051
statement 8046
Singapore 8044
Arab 8043
Only 8037
inhabitants 8036
Miller 8035
ex 8031
Me@@ 8030
bo@@ 8028
failure 8026
Though 8025
armed 8025
Design 8024
northeast 8017
Pope 8014
What 8014
Pal@@ 8008
Management 8007
Earl 8006
grounds 8001
Ex@@ 7998
roof 7998
ula 7998
ness 7992
poet 7992
Del@@ 7991
im 7989
bed 7984
selection 7984
ves 7980
poetry 7978
programme 7974
price 7970
headed 7965
incident 7965
internal 7965
consisting 7959
powers 7957
improve 7953
praised 7949
Her@@ 7948
concluded 7945
Security 7943
think 7942
Member 7938
toward 7938
ites 7935
programming 7935
1930s 7934
du@@ 7926
Cal@@ 7925
Miss 7921
stadium 7917
compete 7914
37 7910
6th 7904
bodies 7904
ines 7903
page 7903
Howard 7892
invasion 7890
17th 7887
Pan@@ 7887
io 7886
adult 7882
Youth 7879
driver 7879
Professional 7878
twelve 7874
entirely 7872
42 7871
homes 7869
Regional 7868
Bureau 7860
protect 7858
municipal 7856
rare 7853
weapons 7852
Liberal 7845
Pe@@ 7844
Main 7842
ars 7842
ou 7842
passenger 7841
foundation 7839
causing 7837
Temple 7835
ger 7835
mark 7834
target 7831
ahead 7830
kin 7826
trying 7824
ca 7822
possibly 7821
agency 7817
advance 7815
gh@@ 7815
Forces 7811
reserve 7810
sk@@ 7810
Thus 7809
boys 7807
Square 7804
1913 7799
glass 7798
ev@@ 7797
peak 7794
quite 7794
Israeli 7788
Ukraine 7788
closely 7785
Greece 7784
Tony 7782
Vice 7780
draft 7779
Y 7778
Hamilton 7776
Po@@ 7776
starred 7775
affected 7773
Operation 7766
environmental 7763
cricket 7762
Col@@ 7758
Hockey 7758
historian 7758
Free 7751
Kentucky 7750
no@@ 7749
starts 7743
ality 7742
Ben 7741
rooms 7741
sale 7740
door 7736
graduate 7734
personnel 7732
Houston 7729
briefly 7728
operate 7728
Is 7721
writers 7721
Mur@@ 7717
premiered 7717
ver@@ 7717
Inter@@ 7715
standards 7713
DC 7712
calls 7711
believe 7709
steel 7709
ent@@ 7706
7th 7699
employees 7698
animal 7697
Naval 7696
opera 7692
ru@@ 7692
Brigade 7688
ideas 7684
wind 7684
ment 7681
ters 7679
broken 7676
seconds 7669
storm 7668
escape 7664
Anne 7661
ze 7660
killing 7657
ye 7656
ao 7649
Senior 7648
improved 7646
accused 7644
northwest 7639
Ko@@ 7631
ea 7628
1911 7613
ery 7613
corner 7600
opportunity 7594
chain 7592
Third 7588
Patrick 7587
user 7587
Administration 7586
agricultural 7586
spot 7586
Rural 7583
Stone 7583
paintings 7583
SR 7579
drawn 7576
seventh 7570
describes 7560
distributed 7558
kill 7557
Can@@ 7552
Engineering 7543
For@@ 7538
alism 7536
your 7536
Squadron 7532
ization 7532
introduction 7531
Marine 7528
courses 7528
speaking 7528
Iowa 7518
ants 7516
tropical 7516
injured 7512
roads 7512
Once 7509
chose 7504
ess 7501
que 7500
ura 7500
really 7498
16th 7497
Mag@@ 7497
Sam@@ 7489
Ocean 7486
gain 7476
factory 7470
residence 7470
extension 7468
ker 7468
Light 7463
resistance 7463
Jesus 7456
AD 7454
ham 7452
Hotel 7450
reading 7449
reduce 7446
Brian 7444
fine 7444
Prix 7440
applications 7432
Simon 7431
weather 7429
to@@ 7426
Mel@@ 7420
values 7420
ized 7404
calling 7400
humans 7400
step 7399
Shi@@ 7398
dry 7396
session 7387
objects 7383
ier 7382
55 7379
charged 7378
1908 7376
islands 7375
ders 7365
formal 7364
Samuel 7363
journal 7360
neighborhood 7356
Mil@@ 7354
gene 7347
ethnic 7345
earliest 7343
sell 7343
Tri@@ 7338
ok@@ 7338
ney 7337
racial 7337
Executive 7336
Si@@ 7334
address 7328
stores 7328
Fame 7325
users 7324
decade 7322
sections 7321
Anderson 7319
getting 7317
strength 7316
nor 7310
composition 7309
survived 7307
interior 7303
marine 7303
demand 7297
Danish 7294
debuted 7292
Communist 7291
ma@@ 7283
Dis@@ 7282
causes 7282
Mas@@ 7281
Works 7280
Diego 7279
Ram@@ 7277
Water 7277
engineer 7270
strike 7268
39 7263
els 7263
factors 7263
valley 7257
eye 7254
Pro 7253
southeast 7253
DVD 7252
looking 7248
fast 7247
Sam 7246
Out 7245
Ag@@ 7240
te@@ 7239
partnership 7238
3.@@ 7232
Rugby 7231
tie 7228
Modern 7226
adjacent 7214
ast@@ 7211
Bowl 7209
Commonwealth 7208
interests 7206
Oklahoma 7205
den@@ 7203
Mayor 7200
heads 7199
bu@@ 7198
leads 7197
Alabama 7192
sl@@ 7192
operates 7191
ab 7187
singing 7186
Heritage 7183
greatest 7180
typical 7179
notably 7175
equal 7174
criminal 7172
musician 7170
Philip 7166
engines 7165
Tokyo 7164
Program 7162
Children 7160
bass 7159
Frederick 7157
churches 7157
bit 7147
Mad@@ 7145
goods 7145
regularly 7141
ā@@ 7141
leg 7140
Er@@ 7139
Te@@ 7139
owners 7134
Legislative 7130
committed 7130
Super@@ 7129
stands 7129
painted 7128
Imperial 7127
super@@ 7122
Mississippi 7117
contain 7117
So 7116
ek@@ 7114
participate 7113
techniques 7110
Mi@@ 7109
uk@@ 7109
ova 7108
Quebec 7107
Juan 7104
Allen 7102
reception 7102
Space 7098
designs 7097
min@@ 7091
bad 7090
opposite 7090
mine 7085
bottom 7084
seems 7084
Detroit 7078
AM 7076
Anthony 7075
I. 7075
ely 7074
Lieutenant 7073
Railroad 7069
Village 7066
rejected 7064
hundred 7063
Antonio 7058
ran@@ 7058
combination 7056
charges 7055
vocals 7051
Bl@@ 7046
philosophy 7045
Fire 7042
budget 7042
dec@@ 7039
measures 7039
ster 7039
signal 7038
gets 7034
Hungarian 7031
41 7030
stood 7030
comic 7027
collaboration 7021
musicians 7019
Cemetery 7018
fired 7018
Christ 7016
Czech 7014
piano 7014
Baseball 7013
credited 7013
Hollywood 7012
chemical 7012
damaged 7011
Clark 7009
Independent 7007
Argentina 7004
examples 7004
equivalent 7003
divisions 7002
plot 7000
southwest 7000
Adam 6999
Gallery 6997
didn 6997
ington 6997
Douglas 6994
ba 6991
Magazine 6987
residential 6986
frame 6982
details 6981
AC 6979
ase 6976
q 6975
ette 6970
jazz 6968
Local 6967
easily 6966
mind 6960
ward 6954
duty 6941
Band 6939
flying 6930
mer 6930
why 6930
au@@ 6929
Lincoln 6928
links 6927
rates 6927
sub 6926
skills 6921
Sa@@ 6914
aya 6913
capture 6912
Miami 6911
businesses 6910
criticized 6909
all@@ 6905
forming 6905
Constitution 6901
purchase 6899
iz@@ 6894
Moore 6893
Q 6893
Kan@@ 6892
lawyer 6892
accompanied 6891
winners 6891
Doctor 6889
Val@@ 6887
Five 6886
Gordon 6886
secret 6885
link 6883
1906 6876
sequence 6871
ps 6870
defeating 6861
Denmark 6860
ence 6858
Bell 6855
Iraq 6855
assumed 6853
passengers 6852
49 6851
determine 6848
flag 6848
SS 6847
costs 6845
la@@ 6845
Up 6844
admitted 6844
Reserve 6843
champions 6841
lin 6841
distinct 6837
52 6835
ho@@ 6835
items 6835
wave 6835
medium 6834
US@@ 6830
yn@@ 6830
FA 6829
sa 6829
communication 6827
reality 6827
intelligence 6825
provincial 6824
1905 6822
theater 6821
cycle 6817
electronic 6817
experienced 6812
contrast 6811
maintain 6811
flat 6810
Puerto 6808
freedom 6808
documents 6807
ically 6807
1907 6804
Athletics 6801
motion 6791
images 6790
8th 6788
retained 6787
Rose 6786
delivered 6785
gender 6785
Hungary 6779
contest 6779
plane 6779
meters 6777
reaction 6776
Louisiana 6774
bishop 6774
Ukrainian 6773
regiment 6773
Not 6771
extra 6771
habitat 6769
replace 6768
Belgium 6766
routes 6763
arranged 6762
commission 6761
device 6761
request 6761
Harvard 6760
ro 6760
gate 6759
1,000 6757
attached 6757
Ottoman 6754
contributions 6753
Marie 6750
formally 6748
dating 6747
publications 6739
Anna 6735
47 6734
Ru@@ 6734
ties 6732
driving 6731
heat 6729
Singles 6728
mining 6726
streets 6726
ona 6724
1909 6723
Sub@@ 6716
he@@ 6716
prize 6714
protected 6713
reign 6711
showing 6711
Ph@@ 6710
poem 6694
Trust 6691
brief 6686
caught 6684
gu@@ 6683
classified 6677
linked 6675
accident 6672
est@@ 6671
deputy 6665
pro 6663
purposes 6660
Z 6652
pe@@ 6651
anniversary 6650
Char@@ 6649
persons 6648
tries 6648
Palace 6646
Ser@@ 6646
Demographics 6643
shooting 6641
Cap@@ 6636
courts 6632
ownership 6631
script 6631
stages 6631
9th 6628
Tor@@ 6626
Dublin 6625
Bra@@ 6624
trip 6623
mouth 6622
ash 6620
naval 6620
acid 6615
crisis 6615
Season 6613
Connecticut 6611
colonial 6610
Brazilian 6605
represents 6602
biggest 6600
Good 6598
shop 6598
behavior 6597
dy 6597
painter 6594
As@@ 6593
advantage 6593
attend 6593
Cl@@ 6590
pandemic 6589
profit 6588
investment 6587
significantly 6585
Kim 6584
12th 6581
restored 6580
ade 6578
CEO 6577
Rights 6577
nothing 6573
mental 6571
interested 6569
Additionally 6567
mo@@ 6567
Bro@@ 6566
See 6564
43 6563
fixed 6563
Age 6562
Ter@@ 6562
hi 6562
Tamil 6558
save 6556
Max 6552
visual 6551
Hu@@ 6550
object 6549
He@@ 6545
folk 6542
carrying 6539
fashion 6538
publishing 6535
translated 6535
Margaret 6531
ABC 6530
DNA 6528
concerns 6527
flows 6525
separated 6524
Saturday 6522
Edinburgh 6520
policies 6518
Gr@@ 6516
Mu@@ 6513
K. 6511
franchise 6510
Ha@@ 6509
hom@@ 6509
tied 6509
13th 6505
stopped 6505
Pi@@ 6504
lie 6503
dynasty 6500
adapted 6498
á@@ 6496
Mountains 6495
actual 6495
Internet 6494
chance 6494
150 6490
Week 6489
.com 6487
degrees 6485
organisation 6485
duties 6484
ck 6482
township 6470
Gor@@ 6469
learned 6467
ten@@ 6465
require 6464
Cleveland 6463
note 6462
ul 6462
Sch@@ 6460
wounded 6458
competitions 6449
Montreal 6448
Portugal 6444
mobile 6440
Austrian 6436
ga 6434
Metropolitan 6433
occupation 6433
defensive 6431
att@@ 6429
1904 6428
arrival 6428
Even 6426
institution 6426
To@@ 6419
com@@ 6419
popularity 6417
Ri@@ 6416
coal 6415
path 6415
membership 6411
crossing 6405
ud@@ 6404
flowers 6402
qualifying 6401
tennis 6401
Deputy 6400
51 6398
filled 6396
medicine 6395
Broadway 6394
Guard 6394
rose 6392
Ray 6391
faculty 6390
ish@@ 6390
Ryan 6388
daughters 6387
Atlanta 6386
Now 6385
Command 6384
legislation 6383
relative 6382
ow@@ 6381
air@@ 6380
scholars 6379
severe 6375
responsibility 6372
tions 6371
za 6371
ensure 6370
hits 6369
Defense 6362
Walker 6359
roughly 6359
weekly 6357
15th 6354
Colonel 6351
46 6350
measure 6350
adding 6348
map 6348
aj@@ 6347
lists 6346
PA 6341
Battalion 6338
locality 6337
testing 6336
covering 6335
suggests 6334
thousands 6334
perhaps 6333
dated 6328
factor 6328
Global 6327
Gra@@ 6325
ms 6325
storage 6323
chair 6322
mean 6321
Lawrence 6320
peaked 6320
Indonesia 6319
ock 6317
Malaysia 6313
1901 6311
Seattle 6309
res@@ 6303
involving 6299
priest 6298
Construction 6296
offensive 6292
Vi@@ 6291
Li 6290
Welsh 6286
micro@@ 6286
prepared 6285
Br@@ 6284
mer@@ 6284
elli 6282
ali 6279
extremely 6274
successor 6272
turns 6270
José 6268
practices 6262
stayed 6259
14th 6257
windows 6255
actors 6252
brick 6250
difference 6250
narrow 6249
Chairman 6248
ranking 6247
aspects 6241
95 6240
otherwise 6230
yl@@ 6228
criticism 6227
arm 6219
reform 6218
moth 6217
boats 6216
Champions 6213
10th 6212
subjects 6210
graduating 6208
54 6206
ological 6206
Red@@ 6203
filed 6202
expression 6199
commune 6198
borough 6197
bird 6196
Sol@@ 6193
coastal 6192
ese 6192
Tr@@ 6190
challenge 6190
acted 6189
1903 6186
Gal@@ 6185
authors 6185
ber 6185
technique 6184
Harris 6182
Studios 6181
li 6181
Lu@@ 6179
explained 6177
1902 6176
1,@@ 6175
respect 6173
Round 6172
cur@@ 6172
My@@ 6171
restaurant 6165
Schools 6162
cited 6162
ile 6159
parliament 6156
justice 6154
hosts 6153
prime 6149
banks 6146
ray 6145
returns 6145
talk 6145
context 6141
Eric 6136
pattern 6133
Hor@@ 6131
electoral 6129
understanding 6129
missing 6128
heritage 6127
Nazi 6125
Upper 6123
assembly 6121
ist@@ 6121
poverty 6121
Hal@@ 6120
Singh 6120
Alan 6118
prisoners 6118
Sarah 6115
assistance 6115
D.C. 6113
edited 6111
teachers 6111
Liverpool 6109
Sur@@ 6107
devices 6107
ful 6106
Commander 6104
Through 6101
ats 6101
Ap@@ 6099
Han@@ 6099
Vienna 6098
Disney 6095
Front 6095
ban 6094
sw@@ 6091
plus 6085
Transport 6080
ents 6080
tier 6079
differences 6077
gl@@ 6076
signing 6071
description 6069
Culture 6067
ati@@ 6067
universities 6063
alist 6061
tor@@ 6059
appearing 6056
falls 6056
sing 6054
guard 6053
ell@@ 6048
window 6048
ath 6044
stream 6042
replacement 6040
war@@ 6039
Track 6037
Gulf 6036
Officer 6036
Orchestra 6036
appointment 6034
credit 6033
iv@@ 6032
85 6027
CA@@ 6025
novels 6025
victims 6023
garden 6020
Dean 6017
fan 6016
Crown 6011
Wood 6009
parliamentary 6007
Ge@@ 6006
entering 6006
labor 6005
classic 6004
childhood 6002
grown 6000
lu@@ 5998
Grant 5993
aki 5992
po@@ 5992
sen 5990
Cathedral 5987
des@@ 5984
evening 5981
mill 5979
Meanwhile 5976
Kennedy 5974
fly 5973
Bre@@ 5972
brain 5972
capable 5972
listing 5971
ora 5971
scheme 5968
equipped 5966
Chart 5964
medieval 5964
Ke@@ 5960
ash@@ 5960
Boys 5959
Player 5959
parallel 5959
soil 5959
Basketball 5958
Alliance 5957
Ross 5957
Tu@@ 5957
Men@@ 5956
ati 5956
guitarist 5952
tu@@ 5952
depth 5949
1920s 5945
branches 5944
Hol@@ 5943
Kam@@ 5941
Rio 5940
10,000 5939
grow 5937
Camp 5934
NBA 5932
replacing 5932
Tra@@ 5931
temporary 5929
On@@ 5924
Review 5918
ments 5918
New@@ 5916
controversy 5915
requirements 5915
Birmingham 5914
translation 5911
components 5907
thing 5907
Lo@@ 5905
coverage 5903
Your 5900
solution 5900
Conservative 5899
hot 5895
threat 5895
offering 5892
ying 5892
appeal 5888
fishing 5887
medals 5884
Carl 5883
Kelly 5881
Kevin 5880
ser@@ 5879
Baltimore 5877
downtown 5877
finding 5874
Agency 5872
her@@ 5872
Lower 5871
phone 5869
critic 5868
Jordan 5866
Garden 5865
Hills 5863
facing 5860
wooden 5859
Athletic 5858
squadron 5857
Pittsburgh 5855
debate 5853
opinion 5852
Arkansas 5851
studying 5851
ron 5850
we@@ 5849
instance 5840
ians 5839
soccer 5836
struck 5835
vessels 5835
artistic 5833
Jan@@ 5831
Ltd 5830
&apos;m 5828
Donald 5828
filmed 5827
ik 5827
Energy 5826
task 5822
declined 5820
Thompson 5818
ities 5815
Trump 5813
Jane 5808
gen@@ 5808
ston 5808
rated 5807
Ti@@ 5806
threatened 5806
ut 5803
waters 5803
broad 5802
powered 5800
processes 5799
Morgan 5798
Heart 5797
picture 5797
railroad 5797
Campbell 5796
Metro 5796
boundary 5796
friendly 5795
han 5793
nomination 5793
nations 5790
ub@@ 5789
Ben@@ 5787
element 5787
celebrated 5786
Opera 5784
me@@ 5784
1898 5783
losses 5783
aries 5782
Ham@@ 5780
denied 5779
proposal 5777
modified 5768
raise 5768
Voivodeship 5765
11th 5763
increasingly 5762
mann 5762
driven 5761
Russell 5757
forests 5754
20@@ 5752
Ol@@ 5752
manufacturing 5752
voting 5750
Convention 5749
lay 5748
yan 5746
changing 5745
eighth 5745
influential 5745
Av@@ 5744
ble 5744
km2 5744
Here 5742
Test 5742
hair 5742
requires 5739
So@@ 5737
frequency 5735
skin 5735
tank 5735
existed 5731
Tre@@ 5730
Murray 5727
bringing 5724
lasted 5719
feel 5718
v. 5714
Training 5713
bound 5712
Ba@@ 5711
Fl@@ 5710
3,@@ 5709
experiences 5709
Daily 5708
competing 5707
considerable 5707
instruments 5707
Information 5706
Roger 5706
Lane 5705
inner 5700
handed 5697
Nelson 5695
Em@@ 5694
End 5694
annually 5694
carbon 5693
Stewart 5691
emergency 5690
Kent 5689
reputation 5689
Orthodox 5683
Dan 5682
res 5682
mi 5676
web 5674
surrounded 5670
ei@@ 5665
landing 5663
Girls 5660
message 5658
Bangladesh 5656
strategy 5655
achieve 5654
questions 5650
Dallas 5648
Our 5646
slow 5644
suspended 5643
Peace 5641
papers 5640
Finland 5637
genre 5637
executed 5634
Authority 5633
proper 5632
53 5631
progress 5630
Brothers 5624
1899 5623
At@@ 5623
involvement 5621
Austin 5620
portrayed 5619
non@@ 5617
limit 5615
Franklin 5614
ium 5614
strongly 5614
ach 5613
Around 5607
affairs 5607
collections 5607
colour 5607
visitors 5603
hip 5602
ches 5601
concrete 5601
imp@@ 5600
600 5599
artillery 5599
helping 5599
somewhat 5599
rounds 5597
secure 5597
vessel 5597
missions 5596
Ban@@ 5595
Alex 5592
CA 5591
completion 5590
meets 5590
indicated 5588
pool 5585
57 5584
99 5584
Medicine 5581
amateur 5580
charts 5580
vision 5579
Romania 5577
adaptation 5576
print 5575
56 5572
66 5572
bury 5572
mounted 5571
constant 5570
Pierre 5569
Ten 5564
movements 5563
Princess 5558
penalty 5557
72 5555
Stanley 5555
preserved 5555
800 5554
Pl@@ 5553
Originally 5551
drew 5549
survey 5549
bl@@ 5548
fund 5547
championships 5546
Real 5543
recordings 5543
Robinson 5542
touchdown 5542
Dance 5541
Senator 5541
Bruce 5540
favor 5540
Taiwan 5539
expedition 5538
walk 5538
Mission 5537
Express 5535
2,@@ 5532
funded 5529
Six 5528
sponsored 5527
Tur@@ 5522
markets 5522
ck@@ 5521
grant 5519
mal@@ 5516
soundtrack 5516
gi@@ 5515
Dave 5514
Trade 5512
atic 5512
wear 5512
Wright 5509
1890 5507
accounts 5503
&apos;re 5502
Baron 5502
Mak@@ 5502
CBS 5500
Unlike 5500
alleged 5500
distinguished 5495
Don@@ 5493
Mul@@ 5493
dog 5490
Marshall 5489
Ger@@ 5488
deaths 5488
rival 5488
Go@@ 5487
Utah 5487
ain 5487
uncle 5485
elevation 5483
populations 5477
decline 5476
eleven 5475
Way 5473
representation 5470
eliminated 5468
tor 5468
Racing 5467
visible 5465
surviving 5462
Adams 5459
thirty 5458
Belgian 5457
camera 5457
Critical 5456
definition 5456
Spring 5454
Organization 5453
dale 5451
donated 5449
ns 5448
Christopher 5447
fer@@ 5447
tail 5447
í@@ 5447
250 5446
fort 5446
Economic 5444
cards 5442
treated 5442
cm 5441
counties 5440
breaking 5438
songwriter 5438
Ra@@ 5435
participation 5429
affiliated 5427
Nor@@ 5425
Within 5421
Brooklyn 5418
consider 5417
mountains 5416
arrest 5415
yn 5415
effectively 5414
Sound 5413
classification 5410
illegal 5410
MA 5409
inger 5408
Ash@@ 5407
58 5406
Carter 5406
wine 5406
doubles 5405
Sw@@ 5403
Silver 5401
Just 5399
eta 5399
ads 5398
Ann 5394
Victorian 5393
if@@ 5391
Nick 5390
Movement 5389
No@@ 5386
approval 5386
bro@@ 5385
safe 5385
Who 5383
osa 5383
themes 5383
Im@@ 5382
PC 5382
ging 5382
can@@ 5376
grand 5376
innings 5375
je 5373
Graham 5372
directors 5371
ure 5370
Norman 5369
Instead 5368
contested 5368
Treaty 5366
UEFA 5365
1896 5363
benefit 5362
jobs 5360
Portland 5358
relief 5357
widespread 5356
lieutenant 5355
emerged 5354
attributed 5353
illa 5350
infrastructure 5344
discovery 5342
Go 5341
bur@@ 5340
shares 5340
manner 5339
Wal@@ 5337
controversial 5336
Bachelor 5335
Place 5335
Por@@ 5335
happened 5333
Cre@@ 5330
Kur@@ 5330
Theater 5328
FIFA 5327
pick 5326
printed 5326
Da@@ 5324
output 5324
huge 5323
Jimmy 5320
tive 5319
Victor 5318
ius 5315
Alfred 5314
Ly@@ 5313
conduct 5311
Pol@@ 5310
1897 5308
departure 5305
wheel 5304
recommended 5303
depending 5302
shore 5302
speak 5302
occasionally 5300
spoke 5297
Trophy 5296
Tim 5295
tall 5294
Staff 5290
Ta@@ 5288
wild 5288
pan@@ 5285
Tower 5281
continuing 5281
eh@@ 5280
tests 5280
Cultural 5279
circuit 5278
rivers 5277
Fer@@ 5274
Carlos 5273
drop 5273
ensis 5272
AA 5271
F.C. 5271
suicide 5271
agriculture 5270
couples 5269
option 5269
runner 5268
Muhammad 5267
Thailand 5267
employment 5267
ids 5267
1895 5266
demolished 5266
characteristics 5265
visiting 5264
dominated 5263
eyes 5261
4,@@ 5260
Egyptian 5260
amp@@ 5260
Vol@@ 5259
fruit 5258
minimum 5257
protest 5254
domain 5252
62 5251
NHL 5250
ung 5250
Cha@@ 5247
ologist 5247
tic 5247
Bon@@ 5245
gone 5245
landscape 5245
newspapers 5245
attracted 5243
videos 5243
ich@@ 5236
meetings 5234
seed 5234
posted 5231
solid 5230
whereas 5229
AR@@ 5228
Serbian 5228
Draft 5225
describe 5225
spoken 5224
Shortly 5222
Tak@@ 5222
designer 5220
steam 5219
anything 5218
youngest 5217
SA 5216
tribe 5216
bre@@ 5215
resolution 5213
dam 5211
val@@ 5208
Iron 5207
ami 5207
feed 5207
Wrestling 5206
channels 5205
Arabic 5204
CO@@ 5204
ai@@ 5204
drawing 5203
Pet@@ 5202
journey 5201
Is@@ 5200
Matt 5200
whilst 5200
Fleet 5199
blocks 5198
venue 5197
1000 5196
Glasgow 5195
Girl 5194
traveled 5194
Romanian 5193
cold 5193
processing 5193
Judge 5192
chapel 5191
massive 5191
ug@@ 5191
May@@ 5190
Richmond 5190
Star@@ 5188
learn 5188
Further 5186
viewed 5185
satellite 5184
Defence 5183
underground 5182
cousin 5178
63 5177
Capital 5177
injuries 5177
chapter 5176
faith 5174
entertainment 5173
architectural 5172
ari@@ 5172
Gro@@ 5171
trading 5171
Moon 5170
surgery 5170
versus 5170
ass@@ 5169
longest 5167
platforms 5166
column 5165
align 5164
Champion 5160
chi 5160
maintenance 5159
anti@@ 5158
Windows 5157
remainder 5156
tools 5155
Gi@@ 5154
Limited 5154
accept 5154
1893 5153
Benjamin 5152
mode 5151
Canal 5148
associate 5147
wings 5146
Pur@@ 5145
ly@@ 5145
Afghanistan 5143
erected 5142
Jerusalem 5138
Serbia 5138
oo@@ 5138
Raj@@ 5137
77 5133
sentenced 5133
Boy 5132
belonging 5132
generated 5131
inf@@ 5129
oma 5129
moment 5127
representatives 5127
doctor 5125
motor 5124
missed 5122
Billy 5121
ruling 5121
Knight 5119
ato 5119
protests 5119
12@@ 5117
occasions 5117
turning 5115
Dec@@ 5113
hundreds 5111
und 5111
endemic 5110
Base 5107
Gary 5104
document 5104
infantry 5103
awa 5101
16@@ 5100
Ed@@ 5100
Gre@@ 5099
ow 5096
68 5095
keeping 5091
writes 5091
Dan@@ 5088
hearing 5087
NBC 5086
Maine 5085
Sel@@ 5083
everything 5083
Kon@@ 5080
21st 5079
Roy 5079
agents 5078
centers 5078
Sand@@ 5073
1889 5071
vocal 5071
Cricket 5070
cancelled 5069
Distribution 5067
terminal 5065
rapidly 5064
tr@@ 5064
67 5063
diameter 5063
Do@@ 5059
transition 5059
Historical 5058
integrated 5058
ón 5056
competitive 5054
suffering 5052
tenure 5052
Will 5050
Tro@@ 5049
encouraged 5049
Indians 5048
defence 5044
Ju@@ 5042
1894 5041
colspan 5041
watch 5041
concerned 5039
begun 5037
Cro@@ 5036
colony 5035
AS@@ 5033
Bush 5033
producers 5032
transportation 5031
1892 5028
Nigeria 5028
bid 5028
governments 5028
West@@ 5027
Germans 5026
Au@@ 5025
Dun@@ 5025
supplies 5025
regime 5024
claiming 5023
cre@@ 5023
Mediterranean 5022
och@@ 5022
suit 5022
Hampshire 5020
Seven 5019
59 5016
Ay@@ 5016
cal@@ 5015
defending 5015
Ob@@ 5014
knew 5011
poly@@ 5010
agencies 5009
Des@@ 5008
ind@@ 5005
grandfather 5002
Morris 5001
reportedly 5000
1885 4999
periods 4997
Las 4996
SE@@ 4995
exists 4992
marketing 4992
schedule 4990
una 4988
Islam 4985
Matthew 4985
ó@@ 4985
ratio 4984
ue 4983
descent 4982
Note 4981
1891 4975
concern 4975
Chile 4974
ii 4974
memorial 4974
greatly 4973
Pr@@ 4971
Hispanic 4967
Ka@@ 4967
assault 4967
Fund 4966
organised 4966
Last 4965
crowd 4965
kg 4965
assist 4964
send 4964
thousand 4964
Cat@@ 4962
Madrid 4961
absence 4961
ky 4960
Municipality 4956
normally 4956
sentence 4956
15@@ 4955
categories 4955
ō 4954
tell 4953
MS 4952
Black@@ 4951
relationships 4951
Bristol 4950
Finnish 4950
Kor@@ 4950
Natural 4947
supports 4947
ick 4944
releases 4943
istic 4942
Delhi 4940
Nar@@ 4940
afterwards 4940
Sy@@ 4937
license 4937
lock 4937
96 4936
Books 4936
athletes 4936
Ward 4935
supporters 4935
indigenous 4934
cabinet 4933
possession 4933
horses 4931
ranks 4931
Lanka 4930
ip@@ 4930
Hel@@ 4929
characterized 4929
und@@ 4928
inaugural 4926
Arena 4925
1888 4924
Johnny 4921
Dor@@ 4919
conservative 4917
audio 4915
ninth 4910
Tal@@ 4909
Back 4908
Orleans 4906
Yorkshire 4906
concerts 4904
Jan 4903
unusual 4903
participants 4901
creative 4899
Wayne 4898
spending 4897
frequent 4896
behalf 4893
seeking 4893
abroad 4892
resident 4892
Mitchell 4891
gradually 4890
mat@@ 4890
br@@ 4889
Until 4886
Honours 4885
We@@ 4883
EU 4880
lis 4879
Az@@ 4878
honour 4876
profile 4876
Mus@@ 4874
obtain 4874
percentage 4874
71 4873
aimed 4871
sal@@ 4871
Rico 4867
ere 4867
Kin@@ 4866
researchers 4865
stable 4865
styles 4864
picked 4863
ces 4862
61 4861
Cur@@ 4860
Nicholas 4859
Zone 4858
relocated 4855
Greater 4854
shell 4854
immediate 4850
advertising 4849
Il@@ 4848
Farm 4845
deployed 4845
ito 4845
earning 4844
makeup 4844
recovered 4842
Bay@@ 4840
Evans 4840
LA 4840
amongst 4839
commanded 4839
ST@@ 4838
scholar 4838
segment 4837
verse 4837
84 4835
Late 4834
panel 4834
produces 4832
SC 4831
statue 4829
69 4827
Alice 4827
seek 4827
Part 4826
hal@@ 4826
SP@@ 4824
publicly 4824
lin@@ 4823
patient 4823
ridge 4823
toured 4823
Ku@@ 4822
poems 4822
sts 4822
Transportation 4821
constitution 4821
exception 4821
counter 4820
Work 4816
networks 4816
legs 4814
rebuilt 4812
territories 4811
compilation 4810
Songs 4808
borders 4806
5,000 4805
Charlie 4803
Jason 4803
Labor 4803
restoration 4803
of@@ 4802
Sab@@ 4801
Category 4800
Fellow 4798
attending 4797
transmission 4797
Wil@@ 4796
Beijing 4795
Pan 4795
Tam@@ 4794
hy@@ 4794
instrumental 4794
apparently 4792
cable 4791
symbol 4791
V. 4790
UN 4789
opportunities 4789
ots 4789
add 4788
ceased 4788
component 4786
Pin@@ 4785
Vancouver 4783
Warner 4782
licensed 4782
onlyinclude 4782
CE 4781
rescue 4780
viewers 4778
Bat@@ 4776
mid@@ 4775
1865 4774
abuse 4774
Cam@@ 4773
Members 4773
ni 4773
spiritual 4773
intersection 4771
Pat@@ 4770
identify 4769
easy 4768
rapid 4767
š@@ 4767
elling 4762
Andy 4759
Warren 4759
78 4758
significance 4757
substantial 4757
Na@@ 4753
convention 4750
ela 4750
jo 4748
voters 4745
Liga 4743
businessman 4742
abad 4740
apart 4740
ny 4740
legislative 4739
monument 4739
ke@@ 4738
extent 4736
secured 4736
exposed 4733
ver 4733
plate 4731
corporate 4729
Bol@@ 4728
contribution 4728
submarine 4728
Milan 4727
Harrison 4726
ready 4726
74 4722
Jeff 4722
Cu@@ 4720
assisted 4720
possibility 4720
sees 4720
1880 4719
Orange 4719
sur@@ 4719
wedding 4718
1870 4717
Challenge 4717
premiere 4717
Var@@ 4716
beach 4715
ions 4715
operational 4715
Throughout 4714
Persian 4712
Bible 4711
duo 4711
gay 4711
kingdom 4710
junction 4709
organ 4708
76 4704
Digital 4704
sole 4703
1861 4702
Jo@@ 4700
understand 4697
N. 4692
enjoyed 4692
oid 4690
Stars 4689
ens@@ 4689
adults 4687
detailed 4687
Fred 4686
customers 4685
ion@@ 4685
á 4685
movies 4684
× 4684
establishing 4683
98 4682
commented 4682
indicate 4680
lane 4680
Hy@@ 4679
Fin@@ 4678
fit 4678
everyone 4677
Pri@@ 4676
ded 4675
volumes 4675
Along 4673
Hawaii 4673
external 4673
none 4672
Results 4670
rain 4669
1940s 4668
implemented 4667
Caribbean 4666
file 4666
publisher 4666
revenue 4666
Ran@@ 4665
elle 4665
Karl 4664
fled 4664
án 4662
88 4661
Having 4661
animated 4661
Mun@@ 4660
enters 4660
Ni@@ 4659
extreme 4657
Commissioner 4655
YouTube 4655
bay 4654
statistics 4652
signs 4651
ger@@ 4649
coalition 4648
Hindu 4646
nearest 4645
attorney 4640
Sha@@ 4639
ann@@ 4638
née 4636
responded 4636
pur 4635
Market 4634
ft 4633
continuous 4630
Count 4628
Diocese 4628
1.5 4626
Whit@@ 4626
principles 4626
Je@@ 4625
drafted 4624
1862 4623
insurance 4621
1887 4618
broadcasting 4618
Friday 4616
our@@ 4616
partially 4616
qualify 4616
ride 4614
Section 4613
head@@ 4612
ial 4612
benefits 4611
1864 4610
assets 4608
jury 4608
sil@@ 4607
81 4606
outbreak 4606
aim 4605
Iranian 4604
beautiful 4604
struggle 4604
tons 4604
activist 4603
buy 4602
oni 4602
violent 4601
inch 4599
Initially 4597
Baker 4596
Soon 4596
marks 4595
experimental 4593
hat 4591
leaf 4591
Charlotte 4588
Dur@@ 4587
scientists 4587
belonged 4585
ong@@ 4585
Communications 4584
substitute 4584
concentration 4582
ota 4582
chamber 4581
Manhattan 4580
texts 4580
etic 4579
Admiral 4578
fighter 4578
Alberta 4577
count 4576
ez 4576
− 4575
belief 4574
1881 4573
apartment 4573
cy@@ 4573
palace 4573
Fre@@ 4572
partly 4572
swimming 4572
Falls 4571
spaces 4570
Tigers 4569
Story 4568
roots 4567
Pa@@ 4566
app@@ 4566
crossed 4564
physics 4564
Bou@@ 4562
honorary 4560
Together 4559
met@@ 4558
adi@@ 4557
disc 4556
merchant 4553
connecting 4551
fitted 4551
productions 4551
VI 4548
Municipal 4547
grave 4546
Branch 4545
Soccer 4545
personality 4545
subsidiary 4545
rising 4544
Freedom 4543
120 4542
1886 4542
civilian 4542
Rangers 4541
Ki@@ 4539
drugs 4539
oli@@ 4539
electricity 4538
useful 4537
Common 4536
advice 4536
amb@@ 4536
mathematics 4536
spirit 4536
destruction 4535
gar@@ 4535
municipalities 4535
discussed 4534
ts@@ 4534
cemetery 4533
opponents 4533
outer 4532
seeing 4532
87 4529
post@@ 4528
Code 4527
AP 4525
ei 4524
scholarship 4524
fee 4523
instrument 4523
ory 4523
Syria 4522
conservation 4522
hand@@ 4522
sm@@ 4522
eman 4519
immigrants 4519
relation 4519
1863 4518
bor@@ 4518
displayed 4518
Philippine 4516
Wars 4513
Cooper 4511
ua 4511
judges 4510
vs. 4509
locally 4507
fair 4506
false 4505
Fine 4504
Studio 4504
ie@@ 4503
Lin@@ 4499
ado 4499
throne 4499
&apos;ve 4498
Type 4498
ranging 4498
Muslims 4496
adi 4496
coaching 4494
settlers 4493
2,000 4492
ym@@ 4490
eng@@ 4488
neither 4488
ously 4488
LP 4483
ole 4483
uk 4483
Trinity 4482
Legacy 4481
yl 4481
withdrew 4480
dismissed 4479
She@@ 4478
ello 4478
Armenian 4477
terminus 4477
RAF 4476
provinces 4474
Barry 4473
Standard 4473
ning 4470
solar 4470
wrestling 4470
do@@ 4468
playoffs 4467
initiated 4465
ongoing 4465
Be 4464
Universal 4464
matters 4463
retail 4463
asks 4462
crash 4462
Sport 4460
trans@@ 4459
89 4457
Broadcasting 4457
Ian 4457
apply 4456
requested 4454
Nova 4453
lose 4453
Bar 4451
Cuba 4449
ika 4449
cher 4448
string 4448
73 4447
diverse 4447
fictional 4447
initiative 4447
ering 4446
Jonathan 4445
Parker 4445
lowest 4445
gra@@ 4444
suburb 4444
unsuccessful 4442
92 4439
aceae 4439
tribes 4439
ung@@ 4438
wants 4438
Kil@@ 4436
passage 4434
treaty 4434
guilty 4433
touring 4433
79 4432
ched 4432
sn@@ 4431
Video 4430
clinical 4430
perfect 4430
Kings 4429
illness 4429
metre 4427
ori 4427
Gmina 4426
completing 4425
st 4424
dispute 4423
1884 4419
banned 4419
earth 4419
Adelaide 4417
Years 4417
86 4414
13@@ 4413
Hudson 4411
appropriate 4411
ram 4411
Lar@@ 4409
oh@@ 4409
electrical 4407
97 4406
burn 4406
izing 4405
Bri@@ 4404
Ga@@ 4403
cargo 4401
Sor@@ 4397
essential 4397
ular 4396
doors 4395
Socialist 4394
charity 4393
farmers 4393
sculpture 4393
hole 4392
ales 4391
Guinea 4389
Munich 4388
anyone 4388
cap@@ 4386
ges 4386
83 4384
Rad@@ 4383
Turner 4383
minority 4383
Abbey 4380
Clinton 4380
del@@ 4378
talent 4378
editions 4377
margin 4376
merger 4376
regulations 4375
82 4374
partners 4374
NY 4373
balance 4372
Virgin 4371
Food 4370
eh 4368
pitch 4368
2000s 4367
Furthermore 4366
ake 4366
si 4366
emperor 4365
1882 4364
credits 4364
Ur@@ 4363
isation 4363
Brisbane 4361
Allied 4359
Parish 4359
Saints 4359
sum 4359
Jay 4356
go@@ 4356
Technical 4355
Buffalo 4354
Grade 4354
closing 4354
sailed 4354
Action 4353
Tan@@ 4352
Wall 4350
steps 4350
Jacob 4349
Saudi 4349
Sim@@ 4349
honors 4349
weekend 4349
91 4347
dominant 4347
arrangement 4346
Classic 4344
crown 4344
soft 4341
trials 4341
Hunter 4340
09 4339
ren@@ 4339
Tom@@ 4338
ih@@ 4338
roll 4338
OS 4336
ack 4335
decisions 4335
ti 4334
occasion 4333
AT 4330
sessions 4330
lap 4329
doesn 4328
colors 4327
Oblast 4325
exclusively 4324
cinema 4323
ls 4323
remove 4323
Barbara 4321
PhD 4321
Industry 4320
Nov@@ 4320
Therefore 4320
closer 4320
anda 4319
Tech 4318
Century 4317
tur@@ 4317
alized 4316
alliance 4316
crimes 4316
Attorney 4315
Catherine 4315
Dra@@ 4315
Urban 4314
tha 4313
choose 4312
isolated 4312
kh@@ 4312
moves 4312
Masters 4310
conversion 4309
Ok@@ 4306
traded 4305
focuses 4304
Territory 4303
pursue 4303
AP@@ 4301
conclusion 4298
hop 4298
Control 4297
Sky 4297
grey 4297
Ty@@ 4295
falling 4295
Buddhist 4294
Anglo 4293
negotiations 4293
eldest 4292
ged 4292
mi@@ 4292
93 4290
Dark 4289
Faculty 4289
wearing 4289
principle 4288
Such 4287
load 4287
hunting 4286
parent 4286
strategic 4286
Bengal 4284
Mrs. 4282
limits 4281
scope 4280
shift 4280
connections 4279
dual 4279
Peninsula 4277
ef@@ 4276
ris 4276
Fe@@ 4275
Woman 4275
communications 4275
recognised 4274
fifteen 4272
ida 4272
Language 4270
ingly 4263
Unit 4262
timber 4262
mechanical 4261
Race 4260
tra@@ 4258
Cincinnati 4257
Ny@@ 4257
raising 4257
Nation 4254
submitted 4254
Alaska 4252
ize 4252
08 4251
grows 4251
Cast@@ 4250
internationally 4250
Peru 4249
assists 4249
Met@@ 4248
patterns 4247
sisters 4245
evolution 4243
jurisdiction 4243
pal@@ 4243
Ker@@ 4241
bone 4241
cash 4241
sufficient 4241
bin 4239
manufactured 4238
clothing 4237
ses 4235
Microsoft 4233
circumstances 4233
Conservation 4232
bi 4232
che 4232
fi@@ 4232
Bul@@ 4231
Dakota 4231
Springs 4231
pain 4231
traditions 4231
Do 4229
ok 4229
94 4228
Les 4228
gr@@ 4227
repeated 4227
apparent 4223
vers 4223
1876 4222
Bas@@ 4222
aria 4220
decides 4219
housed 4219
AS 4217
Pradesh 4217
Ul@@ 4217
operator 4216
travelled 4216
Model 4215
cup 4215
reviewed 4215
Cook 4214
drummer 4214
influences 4214
PS 4213
beating 4213
pointed 4211
Mol@@ 4210
Down 4208
Hugh 4208
references 4208
Assistant 4206
Ice 4205
marry 4205
az 4203
UN@@ 4202
reduction 4202
drums 4201
monastery 4201
else 4200
tunnel 4200
ome 4199
soldier 4199
ech@@ 4198
mention 4198
rel@@ 4198
resignation 4195
desire 4194
reveals 4194
5,@@ 4193
mechanism 4193
14@@ 4192
Rec@@ 4192
intention 4191
Shah 4190
drivers 4190
tro@@ 4190
sang 4189
zero 4189
ching 4188
battalion 4187
flower 4187
Vincent 4186
Collins 4185
700 4180
Lam@@ 4180
Democrat 4179
Luis 4179
Trail 4178
suggest 4178
Wild 4175
boundaries 4174
back@@ 4173
mix 4173
Baptist 4170
da@@ 4170
clearly 4169
suitable 4169
tested 4169
1878 4168
sized 4167
restricted 4166
1883 4165
Latino 4165
Students 4164
delivery 4163
venture 4163
temperatures 4162
Barcelona 4161
Oliver 4161
ni@@ 4161
sey 4161
exhibited 4160
Gl@@ 4159
tend 4159
A.@@ 4157
ib@@ 4157
warm 4157
Cr@@ 4154
ill@@ 4154
Pictures 4151
involves 4151
Apple 4150
Current 4147
ović 4147
ths 4145
tone 4145
acquisition 4144
riding 4144
1871 4143
How 4142
Lloyd 4141
locomotives 4141
Nevada 4140
indicates 4140
onia 4140
convicted 4138
originated 4138
Hans 4136
ered 4136
festivals 4134
IS@@ 4133
manufacturer 4133
iti@@ 4132
promoting 4132
Sav@@ 4130
photography 4130
Long@@ 4128
ey@@ 4126
water@@ 4126
overseas 4125
All@@ 4124
Jazz 4124
flights 4124
campaigns 4123
100,000 4121
defended 4120
Colombia 4119
bert 4119
ron@@ 4119
settlements 4118
Players 4117
stones 4116
thereafter 4116
Father 4114
Win@@ 4114
Leeds 4113
ography 4112
survive 4112
topics 4112
romantic 4111
demonstrated 4109
layer 4109
Democrats 4108
sis 4108
sk 4108
discussion 4107
Jr. 4106
Wing 4106
closure 4106
Nepal 4105
mor@@ 4105
respective 4104
cattle 4100
Roberts 4097
linear 4097
so@@ 4096
deemed 4094
rac@@ 4094
truth 4093
Phoenix 4086
Christianity 4085
bomb 4085
shall 4085
stress 4085
4.@@ 4084
ME@@ 4083
Phil 4082
buses 4081
Pu@@ 4080
increases 4078
landed 4078
dies 4076
vertical 4076
Industrial 4075
numbered 4075
permission 4075
usual 4075
traditionally 4074
Dead 4073
acres 4073
magazines 4072
copy 4070
ry@@ 4070
Let 4068
bs 4065
rice 4064
mu@@ 4063
opponent 4063
expand 4062
ams 4061
fear 4061
origins 4061
twin 4061
Ry@@ 4059
das 4058
dependent 4057
ose 4056
debt 4055
Borough 4054
roster 4054
compiled 4053
giant 4053
wealth 4052
Those 4049
battery 4049
Herbert 4048
enrolled 4048
industries 4047
certified 4046
BA 4044
1860 4043
accessible 4043
Bernard 4040
not@@ 4040
Bab@@ 4039
craft 4038
genetic 4038
circle 4035
op 4035
loc@@ 4034
participating 4034
Fair 4033
Operations 4033
ably 4032
funeral 4032
oral 4032
departed 4031
17@@ 4030
machines 4030
Vel@@ 4029
bo 4029
photographs 4028
orchestra 4027
biological 4026
boards 4026
eggs 4025
ev 4025
wealthy 4025
breeding 4023
extensively 4023
Azerbaijan 4017
zi 4017
Pra@@ 4015
1872 4014
ost@@ 4014
vast 4014
managing 4013
earn 4012
Madison 4011
pol@@ 4011
rem@@ 4007
1867 4006
Circuit 4005
playoff 4004
Finally 4003
Nebraska 4003
Non 4003
rarely 4003
stein 4003
sun 4002
Pap@@ 4000
ins@@ 3999
resumed 3999
Ky@@ 3998
Hebrew 3997
midfielder 3996
yo 3996
finance 3995
unlike 3994
Gray 3993
decorated 3992
ico 3992
Bir@@ 3991
exposure 3990
je@@ 3988
Hope 3987
pm 3987
Electric 3986
Much 3986
RE@@ 3986
S.@@ 3986
constitutional 3986
pages 3986
supposed 3986
AM@@ 3985
Fi@@ 3985
interpretation 3985
walking 3985
Archbishop 3984
Side 3984
ational 3984
Symphony 3983
tanks 3979
Giants 3978
Wang 3978
ap 3978
ement 3977
Formula 3976
delayed 3976
symptoms 3976
ram@@ 3975
ace 3972
athlete 3972
identical 3970
legislature 3970
Lions 3968
economics 3967
ff@@ 3967
lights 3967
aro 3965
hope 3965
bear 3964
Costa 3963
Dev@@ 3963
ards 3963
asi@@ 3963
fresh 3963
exercise 3962
CE@@ 3961
preferred 3961
ard@@ 3960
corresponding 3960
therapy 3959
placing 3958
soul 3958
ila 3957
atory 3956
conventional 3955
elsewhere 3954
rocks 3954
usage 3954
1875 3953
peoples 3953
3,000 3952
ric@@ 3952
Rail 3950
alization 3950
virus 3950
Formation 3949
Jerry 3949
describing 3948
implementation 3948
pole 3948
Blues 3947
collaborated 3947
Primary 3946
Systems 3944
mines 3944
thin 3944
Sat@@ 3943
Athens 3942
angle 3942
ref 3941
Chamber 3938
pri@@ 3938
filming 3937
USS 3936
baby 3936
inherited 3936
oy@@ 3936
Croatian 3935
incumbent 3935
width 3935
Commons 3934
trail 3933
Confederate 3932
ys@@ 3932
cooperation 3931
AL@@ 3930
eth@@ 3930
golf 3929
contributing 3928
od 3928
reg@@ 3928
sounds 3928
AC@@ 3926
sharing 3926
Warsaw 3923
cer@@ 3921
householder 3921
repair 3921
deck 3920
thick 3920
favour 3919
informed 3919
1868 3918
expensive 3918
farming 3918
vary 3916
Kenya 3915
reaches 3915
variant 3915
bra@@ 3912
gang 3912
waste 3912
wider 3909
dangerous 3908
eligible 3908
camps 3907
Drive 3906
alised 3905
alcohol 3904
Bulgarian 3903
clean 3903
proteins 3900
AT@@ 3899
manage 3899
coat 3897
outstanding 3895
physician 3895
Hi@@ 3894
partial 3893
preparation 3893
Independence 3892
Newcastle 3892
charter 3891
connect 3891
prices 3891
concerning 3890
enforcement 3890
nominations 3890
planet 3890
Ed 3889
specialized 3889
tribute 3889
correct 3887
Norfolk 3886
Policy 3886
bases 3885
2.5 3882
unincorporated 3882
1879 3881
Shanghai 3881
Storm 3881
slaves 3881
Album 3879
ministry 3879
bachelor 3878
Op@@ 3877
hel@@ 3877
DJ 3876
Mill 3876
Pedro 3876
ero 3876
ira 3876
6,@@ 3875
looked 3875
alis 3873
Can 3872
Petersburg 3872
Derby 3870
Range 3870
recalled 3870
expert 3867
trust 3866
Denver 3865
1873 3863
Kat@@ 3863
winds 3862
comp@@ 3860
ire 3860
Jefferson 3859
Ten@@ 3859
inducted 3858
uc@@ 3858
automatic 3857
ush@@ 3857
Terry 3855
Yale 3855
devoted 3855
CC 3851
communist 3851
Plan 3850
express 3849
São 3848
moral 3848
aga 3847
diplomatic 3847
exhibitions 3846
narrative 3845
qualification 3844
difficulties 3843
sel@@ 3842
Species 3841
sol@@ 3841
Cy@@ 3839
Os@@ 3839
Luke 3838
brigade 3838
Dem@@ 3836
uniform 3835
1866 3834
oli 3834
1877 3833
oy 3833
Sultan 3832
seem 3830
Based 3829
Cra@@ 3829
flew 3829
Abu 3826
Argentine 3825
reporting 3825
speaker 3825
Out@@ 3824
evolved 3824
ote 3824
EC 3822
Eventually 3822
excellent 3822
eng 3821
inspiration 3821
ag 3819
cricketer 3819
Grace 3817
Rogers 3817
stroke 3817
weapon 3816
Ste@@ 3815
approached 3815
Gol@@ 3814
designation 3813
speakers 3812
Economy 3810
Murphy 3810
ali@@ 3810
Cer@@ 3809
legacy 3808
Florence 3806
Keith 3806
Ridge 3806
gallery 3806
legend 3805
shops 3805
believes 3803
etta 3802
defend 3801
Architecture 3800
dia 3799
tournaments 3798
corruption 3797
ret@@ 3797
imperial 3796
sand 3795
exclusive 3793
commenced 3792
Ottawa 3791
Comics 3788
Croatia 3788
punk 3788
Delaware 3785
visits 3785
Sierra 3783
birthday 3783
diseases 3781
mainstream 3781
Harold 3780
Helen 3778
historians 3776
practical 3776
internet 3775
permitted 3775
saved 3775
ther@@ 3774
Bulgaria 3772
Vegas 3771
liberal 3771
Release 3770
atus 3770
Dal@@ 3769
Pen@@ 3769
Stuart 3766
arriving 3764
sugar 3763
che@@ 3761
counter@@ 3761
fighters 3761
Kol@@ 3759
Christians 3758
worker 3758
Lebanon 3757
extend 3757
gen 3757
burg 3756
clan 3756
spend 3756
organic 3755
writings 3755
Dick 3754
Edwards 3753
hero 3753
historically 3752
Ken 3751
sin@@ 3751
phrase 3749
tool 3749
Anti 3748
Workers 3748
reducing 3748
Mis@@ 3747
DA 3745
bul@@ 3745
€ 3744
belongs 3742
challenges 3742
grass 3741
aw 3740
spots 3740
exact 3739
removal 3739
à 3739
Financial 3738
depression 3738
columns 3737
prove 3737
IC@@ 3736
Flight 3735
Sun@@ 3734
basin 3734
thinking 3734
Dennis 3733
Gregory 3733
Nature 3733
Climate 3732
alive 3730
copper 3730
departments 3730
fill 3730
mail 3730
pairs 3730
Obama 3729
burned 3729
portrait 3729
attendance 3728
oda 3728
Rem@@ 3727
CDP 3726
decide 3726
carries 3725
chemistry 3724
coins 3724
Venice 3723
victim 3723
carrier 3722
ori@@ 3722
proof 3722
pitched 3719
shopping 3719
oriented 3717
root 3717
attempting 3716
Auckland 3715
Currently 3715
pushed 3715
Campaign 3714
relegated 3714
ving 3714
execution 3713
Jose 3712
helps 3712
pen@@ 3711
Der@@ 3710
Hughes 3710
ently 3710
guests 3710
depicted 3709
Top@@ 3708
Southeast 3707
cutting 3706
interviews 3706
measured 3706
pur@@ 3706
beauty 3705
my@@ 3705
sitting 3705
coached 3704
Bad@@ 3703
Play 3702
affect 3702
red@@ 3702
till 3702
CH@@ 3701
Indonesian 3701
aboard 3701
tors 3701
kar@@ 3700
relevant 3700
temporarily 3700
Mother 3699
latest 3699
predecessor 3699
variable 3699
Gen@@ 3698
Thai 3697
beetle 3697
distinction 3697
neck 3697
07 3695
Bag@@ 3695
Contemporary 3694
Protestant 3693
dollars 3691
Robin 3688
ast 3687
faces 3687
Sin@@ 3686
1874 3684
Eagles 3684
colleges 3684
printing 3684
Cas@@ 3682
Stage 3682
namely 3682
escaped 3681
remote 3681
Bad 3680
1869 3679
Anglican 3679
recipient 3679
earthquake 3678
summit 3677
Tel@@ 3676
hydro@@ 3676
Hay@@ 3675
grandson 3674
worst 3674
30@@ 3672
ades 3672
murdered 3672
Dam@@ 3671
awareness 3671
ean 3671
fo@@ 3671
top@@ 3670
Ghana 3669
ances 3669
lic@@ 3668
Air@@ 3667
characteristic 3667
functional 3667
administered 3665
scores 3664
Craig 3661
Syrian 3660
lia 3660
siege 3660
spin 3660
coaches 3659
ain@@ 3658
citing 3658
lo 3657
Tim@@ 3656
pulled 3656
telling 3655
abolished 3652
hence 3652
Child 3651
Perry 3651
ort 3651
sive 3650
Chapel 3649
Writing 3649
cat@@ 3649
perspective 3649
06 3648
1848 3648
authored 3647
sat 3646
stri@@ 3645
rat 3644
simultaneously 3644
Bobby 3643
shoot 3642
horror 3641
weak 3641
sung 3640
equ@@ 3639
sample 3638
argument 3637
bearing 3637
gauge 3637
reporter 3637
Butler 3635
Hitler 3635
demands 3635
CP@@ 3633
Mos@@ 3633
evil 3632
Aviation 3629
ete 3629
def@@ 3627
Next 3626
hor@@ 3626
ox@@ 3626
studios 3626
cavalry 3625
meter 3625
Amsterdam 3622
collapse 3622
disbanded 3622
slave 3622
strip 3622
emotional 3620
05 3619
Collection 3619
Manuel 3618
meat 3618
Protection 3616
1850 3615
IN@@ 3615
Wellington 3615
Harbor 3614
recovery 3614
grades 3613
Finance 3612
seemed 3611
supplied 3611
switched 3611
unless 3609
yp@@ 3609
asa 3608
Guy 3607
Provincial 3607
Dam 3605
atmosphere 3604
ruler 3604
jump 3603
Future 3602
Steven 3600
regard 3600
Albums 3599
thesis 3595
backed 3594
theories 3593
worn 3593
Former 3592
Han 3591
Short 3590
academy 3590
amounts 3588
esh 3588
guide 3588
Lor@@ 3587
Sen@@ 3585
ask 3585
ava 3585
tenth 3584
belt 3583
cap 3582
targets 3581
labour 3580
Venezuela 3579
han@@ 3579
asking 3577
01 3576
restrictions 3575
Med@@ 3574
CI@@ 3573
Kir@@ 3572
M.@@ 3572
Run 3572
ax 3572
bridges 3571
compound 3571
receives 3571
Larry 3569
Stanford 3567
raid 3567
Guardian 3566
organisations 3566
volunteers 3566
Rom@@ 3564
int@@ 3564
Ken@@ 3562
nephew 3562
… 3562
affair 3561
documented 3559
Exchange 3558
Gilbert 3558
Males 3558
canal 3558
Ralph 3557
altitude 3557
Vermont 3556
slowly 3555
dissolved 3554
ense 3554
ocean 3553
regulation 3553
forty 3552
options 3552
Ann@@ 3551
AR 3550
indicating 3549
Agriculture 3548
outdoor 3548
Environmental 3547
abilities 3547
alternate 3547
drove 3547
explains 3547
monthly 3547
anga 3545
destroy 3544
Every 3541
Ca@@ 3540
gathered 3540
seeds 3538
comparison 3535
elite 3535
Productions 3533
binding 3533
vocalist 3532
Kerala 3528
feeling 3527
graduation 3527
3D 3526
Lan@@ 3526
ante 3526
improvements 3526
Gur@@ 3525
Key 3525
Computer 3524
anna 3524
land@@ 3524
Sheffield 3523
tourism 3522
MO@@ 3521
ott 3520
waves 3520
Cruz 3519
Mason 3519
Shar@@ 3519
TA 3519
Ir@@ 3518
bars 3518
AN@@ 3516
Cabinet 3516
Secondary 3516
Sil@@ 3516
elementary 3515
fre@@ 3515
reforms 3515
waiting 3515
ked 3514
ticket 3514
collective 3513
comprises 3513
ī@@ 3513
connects 3512
restaurants 3511
Ancient 3510
hills 3510
Mills 3509
maker 3509
Sl@@ 3508
Villa 3508
distinctive 3508
taxes 3508
etti 3507
radi@@ 3507
Berkeley 3506
aggregate 3505
crosses 3505
dress 3504
ports 3504
reflect 3503
zed 3503
worship 3502
Artillery 3501
consistent 3501
maps 3501
ovo 3501
allies 3500
challenged 3500
essentially 3500
owns 3500
cul@@ 3499
posts 3498
Byzantine 3497
son@@ 3495
Report 3494
tube 3494
CS 3492
col@@ 3492
Nashville 3491
Pon@@ 3491
ken 3491
Playing 3490
dre@@ 3489
&apos;d 3488
HMS 3487
defender 3487
gap 3487
payment 3487
Monday 3486
residing 3485
wh@@ 3485
revolution 3484
suspension 3484
approaches 3482
leagues 3482
Jacques 3480
Joint 3480
favorite 3480
Ev@@ 3478
structural 3478
disaster 3477
scientist 3477
ups 3477
Not@@ 3476
Student 3476
installation 3475
Roosevelt 3474
literally 3472
Beginning 3471
IT 3471
coup 3471
emphasis 3470
predominantly 3470
Eddie 3469
Horse 3469
retiring 3469
Holland 3468
Performance 3466
impossible 3465
aware 3464
rot@@ 3463
touchdowns 3463
citizen 3462
dra@@ 3462
pa 3462
sequel 3461
stem 3461
understood 3461
Fall 3460
Montana 3460
Rob@@ 3458
Watson 3458
battles 3458
descendants 3458
objective 3457
ops 3456
shots 3456
silent 3456
Methodist 3455
Small 3453
affiliate 3453
1859 3452
Coach 3451
parks 3451
Golf 3450
Nag@@ 3450
ele 3450
technologies 3450
FI@@ 3447
MC 3447
elder 3447
Box 3446
Grey 3446
failing 3444
tributary 3444
vin 3444
1857 3443
Armed 3442
stops 3442
Friends 3441
Prefecture 3440
lan 3440
procedure 3440
Ma 3439
Mr 3439
ée 3439
Nan@@ 3438
Sem@@ 3438
difficulty 3438
Sm@@ 3437
ern@@ 3437
loop 3436
Days 3435
Sony 3435
Wells 3435
tre@@ 3435
IC 3433
gardens 3433
Susan 3432
Higher 3431
lers 3431
bombing 3430
consumption 3428
External 3426
Yugoslavia 3426
dramatic 3426
intellectual 3426
patrol 3426
teach 3426
Hom@@ 3425
onic 3425
Delta 3424
Google 3424
actively 3423
Mir@@ 3422
answer 3419
men@@ 3418
recruited 3417
Motor 3416
colleagues 3416
cs 3416
undergraduate 3416
Gil@@ 3415
exactly 3415
ising 3414
Economics 3413
Raymond 3413
casualties 3413
hum@@ 3413
Starting 3412
illustrated 3412
elevated 3411
Tommy 3410
ERA 3409
ashi 3409
error 3409
ă@@ 3408
Cold 3406
ema 3406
manuscript 3406
radical 3406
runners 3404
AFL 3403
Indies 3403
aspect 3403
referring 3403
Wi@@ 3402
truck 3402
Representative 3400
archaeological 3400
parking 3400
salt 3400
ste@@ 3400
Nevertheless 3399
comments 3399
ania 3398
Rick 3397
Interstate 3396
contracts 3396
fold 3396
5.@@ 3395
Kr@@ 3394
superior 3394
tourist 3394
argues 3392
consist 3392
Wallace 3391
Intelligence 3389
oo 3389
pictures 3388
ute 3386
• 3386
sustained 3385
orange 3384
ises 3382
tw@@ 3382
ref@@ 3380
ulation 3380
Literature 3379
capita 3379
Price 3378
ambassador 3378
extinct 3378
Ivan 3377
logo 3377
AD@@ 3375
Finals 3375
inn@@ 3375
Angel 3374
Ball@@ 3374
developments 3374
judicial 3374
Kn@@ 3373
nickname 3373
Nu@@ 3371
Leo 3370
arch 3370
Politics 3369
beam 3369
imprisoned 3369
metropolitan 3369
Private 3368
aviation 3368
politicians 3368
Ron 3367
examination 3367
ili@@ 3366
veteran 3366
firing 3365
04 3363
comprehensive 3363
acy 3362
Lev@@ 3361
engagement 3361
perceived 3360
iss@@ 3359
laboratory 3358
Arnold 3357
institute 3356
var@@ 3355
Wh@@ 3353
arch@@ 3353
Dame 3352
quarterback 3351
Jon 3350
explain 3349
widow 3349
framework 3348
talks 3347
convinced 3346
dic@@ 3346
eth 3345
renowned 3345
Palestinian 3344
hidden 3344
martial 3344
oxygen 3344
exhibit 3343
Commerce 3342
compositions 3341
Abraham 3340
locomotive 3340
Ambassador 3339
dimensional 3337
Films 3336
sted 3336
beaten 3335
gan 3335
č@@ 3334
ax@@ 3333
kilometers 3333
leg@@ 3333
ven@@ 3332
ban@@ 3331
Jam@@ 3330
Die 3328
putting 3327
extending 3326
Newton 3323
looks 3323
20,000 3322
Car 3322
Ci@@ 3320
efficiency 3320
Commercial 3319
hu@@ 3319
Grammy 3318
radar 3318
syndrome 3318
bri@@ 3317
Railways 3315
wan 3314
Bak@@ 3313
calendar 3312
neur@@ 3311
shipping 3310
sort 3310
MTV 3309
bond 3308
mel@@ 3308
25@@ 3307
Competition 3307
Magic 3307
happy 3307
shut 3307
Clarke 3306
Leonard 3306
ić 3306
thanks 3306
valuable 3305
Fourth 3303
O. 3303
bel 3303
Honor 3301
cuts 3299
Romanized 3298
experiments 3298
Harvey 3297
enzyme 3295
Dream 3294
hospitals 3294
50,000 3293
Sak@@ 3293
Overview 3292
equation 3292
graphic 3292
mainland 3291
ral 3291
Mars 3290
mate 3290
revised 3290
emb@@ 3289
improvement 3289
integration 3289
tours 3289
Columbus 3288
Neil 3288
ordinary 3288
Renaissance 3287
attacking 3287
eless 3287
virtual 3287
Mont@@ 3286
Phillips 3286
discontinued 3286
fifty 3285
Mid@@ 3284
accommodate 3284
founders 3284
bell 3283
input 3282
statements 3282
variation 3281
wasn 3280
Ground 3279
Pop 3279
fundamental 3279
zer 3279
Bell@@ 3278
NE@@ 3278
cu@@ 3278
progressive 3278
Palestine 3277
immigration 3276
refugees 3276
sit 3275
Prague 3274
ass 3274
vol@@ 3274
Dr 3273
tes 3273
Vietnamese 3272
altered 3271
pioneer 3271
SC@@ 3270
aims 3270
hyper@@ 3270
shi@@ 3270
Ara@@ 3269
Right 3269
contribute 3269
manga 3269
Tru@@ 3268
Weekly 3268
cra@@ 3268
Election 3267
Essex 3267
Ah@@ 3266
interesting 3266
detail 3265
ā 3265
Gabriel 3264
universe 3263
theatrical 3262
lawsuit 3261
Hart 3259
preserve 3259
rap@@ 3259
CD@@ 3258
ratings 3258
traveling 3258
wrong 3258
RA@@ 3257
throw 3257
Montgomery 3256
Record 3256
ibn 3256
yi 3256
Ball 3255
Chair 3255
pping 3255
ishing 3254
cop@@ 3253
drinking 3253
ud 3253
Dr@@ 3252
god 3252
Vladimir 3251
gs 3251
magnetic 3251
Pot@@ 3250
discrimination 3250
solutions 3249
yer 3249
Grove 3248
airline 3248
relay 3248
SO@@ 3246
aux 3246
discuss 3246
victories 3246
fastest 3245
permanently 3245
controls 3243
thereby 3243
signals 3242
exit 3241
gaining 3240
psychology 3240
celebration 3239
Trans@@ 3238
cultures 3238
neighboring 3237
interaction 3236
relating 3235
comics 3234
consumer 3234
lying 3234
universal 3234
experiment 3233
golden 3233
iting 3233
vel@@ 3233
missile 3231
shorter 3231
Af@@ 3230
Oscar 3230
cia 3230
sy@@ 3230
iro 3229
serial 3229
Statistics 3228
infection 3228
pin 3228
ff 3227
lat@@ 3227
underwent 3227
Article 3225
Revival 3225
Airlines 3224
artwork 3223
esh@@ 3223
liquid 3222
literacy 3222
olo 3222
poll 3222
aging 3221
bonus 3221
eda 3221
Congo 3220
molecular 3220
jo@@ 3219
Gothic 3218
Junction 3218
afternoon 3218
ures 3218
enko 3217
intense 3217
addressed 3216
diversity 3216
faster 3216
gift 3216
cent 3215
jet 3215
Otto 3214
cave 3214
democracy 3214
populated 3214
milk 3213
ank@@ 3212
hur@@ 3212
ów 3212
&apos;ll 3211
IP 3211
concepts 3211
dar@@ 3211
onal 3211
berry 3210
pp@@ 3210
programmes 3210
travels 3210
centres 3209
lifetime 3209
magic 3207
Danny 3206
Northwest 3204
1855 3203
segments 3203
smooth 3203
Sn@@ 3202
char@@ 3202
empire 3202
forcing 3202
forth 3202
Celtic 3201
Rolling 3201
Minor 3200
pi@@ 3200
renewed 3200
ries 3200
feelings 3199
allegations 3197
focusing 3197
genes 3196
ith 3196
Den@@ 3195
Revolutionary 3194
ander 3194
ministers 3194
reflected 3194
Meg@@ 3193
prevented 3192
tic@@ 3192
AI@@ 3191
Bh@@ 3191
Pop@@ 3191
osis 3190
í 3190
governing 3189
ovich 3189
rebounds 3189
110 3188
Elementary 3188
Survey 3188
Ari@@ 3186
RA 3186
catch 3186
fe@@ 3186
los 3185
moderate 3185
clock 3184
readers 3184
artificial 3183
burial 3183
Laura 3182
tar@@ 3182
revolutionary 3179
assembled 3178
ix 3177
ria 3177
C.@@ 3176
Dragon 3176
tly 3176
alists 3175
flood 3175
stored 3175
exile 3174
prepare 3174
tim@@ 3174
1856 3173
Arabia 3172
dis 3172
Leader 3171
dogs 3171
Hunt 3170
diesel 3170
lam@@ 3170
sciences 3170
warning 3170
3.5 3169
Musical 3169
Population 3169
cylinder 3169
referendum 3169
retreat 3169
Brunswick 3168
arena 3166
extends 3166
broadcasts 3164
enemies 3164
wars 3164
Stakes 3162
editorial 3162
snow 3162
photographer 3161
cathedral 3160
democratic 3160
arrive 3159
cha 3159
Land@@ 3158
Liberty 3158
Ph.D. 3158
allegedly 3158
confidence 3158
photo 3158
plain 3158
dem@@ 3156
stationed 3156
efficient 3154
crops 3153
fewer 3153
Es@@ 3152
Bosnia 3151
Liu 3150
eventual 3150
bench 3149
demanded 3149
reverse 3149
venues 3148
Bennett 3147
Notes 3147
empty 3147
owing 3147
revival 3147
sters 3147
ía 3147
Camp@@ 3146
samples 3145
1854 3144
Pel@@ 3144
Serie 3144
inter 3144
Perth 3143
anus 3143
Mario 3142
instruction 3140
Campus 3139
dialogue 3139
thirteen 3139
prince 3138
ranges 3138
threw 3138
Jamaica 3136
portions 3136
1840 3135
Forum 3135
Milwaukee 3135
holiday 3133
maintaining 3133
fed 3132
Mac 3131
ton@@ 3130
zz@@ 3130
pure 3129
Iraqi 3128
telephone 3128
enabled 3127
kers 3126
surprise 3126
Cameron 3125
Morning 3125
anime 3125
fantasy 3125
1858 3124
Location 3124
independently 3124
Outstanding 3123
anc@@ 3123
ig 3123
activists 3122
fun 3122
ide 3122
boarding 3121
followers 3121
hardware 3121
Panama 3120
vi 3120
Cork 3119
drum 3119
plates 3119
footage 3118
kn@@ 3118
Bos@@ 3117
gro@@ 3117
advocate 3116
wire 3116
inscription 3115
ned 3115
Fu@@ 3114
continental 3113
tip 3113
AG 3112
Original 3112
colonies 3112
aine 3111
nes 3111
spell 3111
enlisted 3110
Name 3108
dubbed 3108
arrives 3107
Grande 3105
hear 3105
succession 3105
summary 3105
Pic@@ 3104
Punjab 3104
criteria 3104
engage 3104
enti@@ 3104
ros 3104
Spirit 3103
aut@@ 3103
ear@@ 3103
MD 3102
Paulo 3102
freight 3102
Š@@ 3102
Data 3100
ker@@ 3100
oph@@ 3100
Georgian 3099
Shakespeare 3098
pitcher 3097
radiation 3097
rebellion 3097
resort 3097
AL 3096
Friedrich 3096
Pearl 3096
Joan 3095
Shaw 3094
Boulevard 3093
Wilhelm 3092
bal@@ 3092
Pass 3091
handling 3091
promised 3091
ideal 3090
slavery 3090
ster@@ 3090
Legal 3089
enberg 3089
ine@@ 3088
rivals 3088
select 3088
dancing 3087
Lim@@ 3086
Site 3085
mixture 3085
work@@ 3085
announcement 3084
God@@ 3083
Indianapolis 3083
Mass 3083
paint 3083
shifted 3083
Cardinal 3082
assessment 3081
employee 3081
plastic 3081
Wood@@ 3080
experts 3080
By@@ 3079
realized 3079
RO@@ 3078
Up@@ 3078
animation 3077
HD 3076
ases 3076
fourteen 3076
journalists 3075
Ren@@ 3074
lighting 3073
noting 3073
oned 3073
teeth 3073
prisoner 3072
ze@@ 3072
Flying 3071
releasing 3071
Marvel 3070
ologists 3069
updated 3069
generations 3067
les@@ 3066
Son@@ 3065
Where 3064
Kas@@ 3063
Wolf 3063
conducting 3063
fairly 3063
layout 3063
North@@ 3062
fallen 3062
athletic 3061
tape 3061
IT@@ 3060
belong 3060
cat 3060
lift 3060
intervention 3059
oth 3059
sion 3059
Room 3058
requiring 3058
Hamburg 3057
lakes 3057
invented 3056
Maurice 3055
ST 3055
index 3055
notice 3055
repeatedly 3055
severely 3054
RC 3053
switch 3053
Aboriginal 3052
Jar@@ 3052
bat 3052
Rice 3050
specimens 3050
Louise 3049
computers 3049
Nine 3048
Penn 3048
sor@@ 3048
101 3047
Nam@@ 3047
Over@@ 3047
Lost 3046
civilians 3046
confused 3045
Advanced 3044
acoustic 3044
remembered 3044
iel 3043
neighbouring 3043
suspected 3042
centered 3041
gre@@ 3041
hin@@ 3040
potentially 3040
upcoming 3040
kick 3039
variations 3038
fame 3037
wards 3037
wish 3037
Miguel 3036
cy 3036
disorder 3036
prestigious 3036
Greg 3035
Sher@@ 3034
targeted 3034
900 3033
Ted 3033
topped 3033
wick 3033
manufacturers 3032
triple 3032
avi@@ 3031
heir 3031
owski 3031
Ernest 3030
queen 3030
sending 3030
Aaron 3029
associations 3029
na@@ 3029
ric 3029
nik 3028
François 3027
Source 3026
tissue 3026
Comp@@ 3025
bright 3025
jan 3025
nar@@ 3025
p.m. 3025
Guide 3024
app 3024
signature 3024
Johann 3023
ord@@ 3023
Gam@@ 3022
Mand@@ 3021
Gun@@ 3020
Mobile 3020
breaks 3020
interpreted 3020
ska 3020
beliefs 3018
separation 3018
voiced 3018
1852 3017
comm@@ 3017
imposed 3017
seriously 3017
ordained 3016
Circle 3015
Mill@@ 3015
sixteen 3012
van@@ 3011
Hindi 3009
Manila 3009
ú@@ 3009
Low 3006
matrix 3006
Blood 3005
Fair@@ 3005
Oakland 3005
ame 3005
Pakistani 3004
streams 3004
surrender 3004
Che@@ 3002
Eagle 3002
findings 3002
volleyball 3002
dream 3001
span 3001
bears 3000
freestyle 3000
ks@@ 2999
naming 2999
personally 2999
situations 2998
dialect 2996
displays 2996
ved 2996
friendship 2995
identification 2995
Wildlife 2994
reserves 2994
divorce 2993
professionals 2993
Ali@@ 2992
Sussex 2992
indeed 2992
Somerset 2991
hu 2991
outs 2991
App@@ 2990
Laboratory 2990
VII 2990
lab@@ 2990
rep@@ 2990
rows 2990
Bears 2989
Mumbai 2989
comprising 2989
patent 2989
presentation 2989
Cuban 2988
Uganda 2988
aire 2988
fusion 2987
sting 2987
tea 2987
Gate 2986
Secret 2986
behaviour 2986
Gh@@ 2985
presents 2985
rainfall 2985
7,@@ 2984
commitment 2984
Facebook 2983
tackles 2983
down@@ 2982
Isaac 2981
accurate 2981
din 2981
Academic 2980
Artists 2980
bles 2980
fer 2980
noise 2980
Baby 2979
dealing 2979
Foster 2978
clients 2978
pilots 2978
pursued 2978
specialist 2978
circulation 2977
pit 2976
1851 2975
Sum@@ 2975
oon 2974
quick 2974
Will@@ 2973
sure 2973
tasks 2973
Scientific 2972
adventure 2972
improving 2971
Are 2970
Comm@@ 2970
inhabited 2970
lim@@ 2970
sia 2969
goalkeeper 2968
nationally 2968
don@@ 2967
societies 2967
Ray@@ 2966
Spencer 2966
alb@@ 2966
firms 2966
fur@@ 2966
lar@@ 2966
vector 2966
ros@@ 2965
Teams 2963
biology 2963
eat 2963
rifle 2963
wi@@ 2963
Cole 2961
suggesting 2961
agree 2960
pale 2959
considering 2958
Besides 2957
clay 2957
tale 2957
Annual 2956
Fri@@ 2956
IS 2956
requirement 2956
MP@@ 2954
ó 2954
ū@@ 2954
NASA 2952
backing 2952
observation 2951
handle 2950
Triple 2949
ui 2949
conductor 2948
desert 2948
Gardens 2947
lit 2947
celebrate 2945
Manager 2944
Ven@@ 2944
concentrated 2944
praise 2944
Sean 2943
investigate 2943
psychological 2943
touch 2943
biography 2942
provisions 2942
NA 2941
Stockholm 2941
gear 2940
lan@@ 2940
transit 2940
unions 2940
Block 2938
Idaho 2936
authorized 2936
similarly 2936
vo@@ 2935
Voice 2934
encourage 2934
prey 2934
Albanian 2933
Reading 2933
Vil@@ 2933
Bus 2932
itis 2932
tag 2932
merely 2931
23@@ 2930
decrease 2930
diocese 2930
Knights 2929
procedures 2929
Justin 2928
Sullivan 2928
Ages 2927
variants 2927
construct 2926
Isle 2924
Leg@@ 2924
custom 2924
phot@@ 2924
skill 2924
wore 2924
hometown 2923
retain 2923
seized 2922
tal@@ 2922
zi@@ 2921
Jay@@ 2920
are@@ 2920
B.@@ 2919
bow 2919
ading 2918
cr@@ 2918
honours 2918
HIV 2917
NS@@ 2917
chapters 2917
aur@@ 2916
Durham 2915
commentary 2915
Continental 2914
duration 2914
mac@@ 2914
codice 2913
floors 2913
por@@ 2913
ō@@ 2913
syn@@ 2912
24@@ 2911
Micro@@ 2911
02 2910
130 2910
Kra@@ 2910
Rhode 2910
creates 2910
messages 2910
sa@@ 2910
eri 2907
heading 2907
Scotia 2906
ays 2906
Shah@@ 2905
Wu 2905
manages 2905
Lancashire 2904
Rep@@ 2904
maintains 2904
Bird 2903
Owen 2903
axis 2903
migration 2901
Examples 2900
Wy@@ 2899
ail 2899
varied 2899
Marc 2898
coffee 2898
umb@@ 2898
doctors 2897
Ring 2895
package 2895
petition 2895
relatives 2895
BCE 2893
Vis@@ 2892
arrangements 2892
brings 2892
siblings 2892
Lucas 2891
Newport 2891
divorced 2891
jail 2891
orbit 2891
Mut@@ 2890
ł@@ 2890
Fisher 2889
discovers 2889
dro@@ 2889
sch@@ 2889
citizenship 2888
iy@@ 2888
Buenos 2887
Drama 2887
Nancy 2887
Aires 2886
Sox 2886
journals 2886
sheet 2886
1853 2885
pe 2884
pianist 2884
Heights 2883
Kate 2883
Reed 2883
choir 2883
files 2883
survivors 2883
Son 2882
fin@@ 2882
threats 2882
DS 2881
lasting 2881
uri 2881
King@@ 2880
Morocco 2880
enable 2880
és 2880
Chelsea 2879
Gold@@ 2879
Tab@@ 2879
recognize 2878
volunteer 2878
mini 2877
pr@@ 2877
Chester 2876
uch@@ 2876
Environment 2875
Malta 2874
ook 2874
Armenia 2873
Moh@@ 2873
Ton@@ 2873
burning 2873
fluid 2873
gam@@ 2873
Lithuania 2872
Mik@@ 2872
staged 2872
aded 2871
oth@@ 2871
Westminster 2870
conc@@ 2870
banking 2869
congregation 2869
rebels 2869
RNA 2868
ographic 2868
sem@@ 2867
Rat@@ 2865
pregnant 2865
sleep 2865
Bil@@ 2864
interchange 2863
streak 2863
doctorate 2862
exterior 2862
Cyprus 2861
acknowledged 2861
Has@@ 2860
Salt 2860
Todd 2859
mont 2859
impressed 2858
lineup 2858
theorem 2858
circular 2857
towers 2857
7.@@ 2856
Rovers 2856
averaged 2856
stability 2856
AFC 2855
Ferdinand 2855
Gran@@ 2855
boxing 2855
rig@@ 2855
03 2854
Rob 2854
deeply 2854
grants 2854
onwards 2852
beer 2851
aker 2848
itt 2848
8,@@ 2847
Arch@@ 2847
Oak 2847
operators 2847
panels 2847
ras 2845
Palmer 2843
check 2843
sequences 2843
Using 2842
prototype 2842
DE@@ 2840
honored 2840
interface 2840
6.@@ 2838
transformed 2838
Ruth 2837
achievement 2837
arian 2837
Oil 2836
entity 2836
knee 2836
destination 2834
intermediate 2834
ond@@ 2834
advisor 2833
criticised 2833
colonel 2832
1849 2831
disappeared 2831
Green@@ 2830
Hurricane 2830
Van@@ 2830
quot 2830
tab@@ 2830
Fr@@ 2829
mentions 2829
conflicts 2827
egg 2827
prot@@ 2827
zing 2827
Ahmed 2826
4,000 2824
carved 2824
Fighter 2823
quarters 2823
Rev. 2822
fortress 2822
Transit 2820
Marcus 2819
art@@ 2819
deliver 2819
headquartered 2819
hosting 2819
voyage 2819
warfare 2819
Kun@@ 2818
horn 2818
nationwide 2818
sharp 2818
win@@ 2818
Hon@@ 2817
valid 2817
Santiago 2816
dy@@ 2816
scandal 2816
Pat 2814
Safety 2814
Stevens 2814
Yang 2814
corps 2813
aj 2812
lecturer 2812
Chen 2811
Lisa 2811
SE 2811
Amendment 2808
aman 2808
Peak 2807
Sz@@ 2807
Tampa 2807
uan 2807
audiences 2806
ison 2806
larvae 2806
Diamond 2805
danger 2804
oring 2804
Still 2803
asi 2803
Living 2802
mut@@ 2802
Bru@@ 2801
Relations 2801
conjunction 2801
pet@@ 2801
restore 2801
varies 2801
generate 2800
ich 2800
Copenhagen 2799
Giovanni 2799
ferry 2799
quantum 2799
receiver 2799
1847 2798
Additional 2798
collect 2798
colours 2798
feeding 2798
travelling 2798
Tennis 2797
ert 2797
Artist 2796
anger 2796
assignment 2796
emerging 2795
Nak@@ 2794
particles 2794
sight 2794
drink 2793
hol@@ 2793
holder 2793
Sr. 2792
expanding 2792
fac@@ 2792
by@@ 2791
neutral 2791
closest 2790
grid 2790
Chancellor 2788
Thi@@ 2788
Tiger 2788
gy 2788
singers 2788
familiar 2787
guidance 2787
Napoleon 2786
hoped 2786
presidency 2786
Jun@@ 2784
ony 2783
sel 2783
ien 2782
privately 2782
Solomon 2781
encountered 2781
suddenly 2781
Machine 2780
brook 2780
database 2780
publish 2780
pupils 2780
Franco 2779
graphics 2779
rie 2779
ening 2778
flooding 2778
indoor 2778
proceeded 2778
ć 2778
shire 2777
register 2776
topic 2776
mp@@ 2775
sailing 2775
rounded 2774
Parliamentary 2773
Princeton 2772
struggled 2772
Lat@@ 2770
prints 2770
Mari@@ 2769
quoted 2769
stretch 2769
Kit@@ 2768
kings 2768
withdrawn 2768
{ 2768
FL 2767
iya 2767
trio 2767
Sky@@ 2766
Steel 2766
alia 2766
favourite 2766
curve 2765
survival 2765
tomb 2765
deposits 2763
march 2763
wet 2763
oa 2762
reads 2762
bee 2761
iri 2760
Distinguished 2758
Estate 2758
Herald 2758
Reg@@ 2758
provision 2758
autumn 2755
holes 2755
joins 2753
Total 2752
Yu@@ 2752
paying 2752
rit@@ 2752
Duncan 2751
wheels 2751
og 2750
shelter 2750
Cardinals 2749
Davies 2749
upgraded 2749
Cavalry 2748
Kap@@ 2748
CS@@ 2747
nineteenth 2747
graph 2746
AB@@ 2745
Actor 2745
Cardiff 2745
muscle 2745
Holmes 2744
mod@@ 2744
Simpson 2743
Advisory 2742
Wor@@ 2741
prompted 2741
sin 2741
multi@@ 2740
achievements 2739
Pos@@ 2738
Fil@@ 2737
corporation 2737
occurring 2737
str@@ 2737
Left 2736
Plant 2736
Publishing 2736
activated 2736
conferences 2736
consultant 2736
ère 2736
Java 2735
Sabha 2735
Wat@@ 2734
makers 2734
encounter 2733
punishment 2733
Desert 2732
deals 2732
farms 2732
ho 2732
reveal 2732
welfare 2731
Canterbury 2730
acquire 2730
ther 2730
ump 2730
wickets 2730
Coll@@ 2729
IP@@ 2729
ress 2729
CO 2728
Eugene 2728
Mot@@ 2728
XI 2728
imprisonment 2728
journalism 2728
Wall@@ 2727
oe 2727
relegation 2727
Dynasty 2726
Cos@@ 2725
Events 2725
Far 2725
Sou@@ 2725
TC 2725
discover 2725
Nintendo 2724
cotton 2724
lectures 2724
Manitoba 2723
aks 2723
Geneva 2722
batting 2721
governed 2721
liner 2721
FBI 2720
impressive 2720
random 2720
rocket 2720
Belgrade 2719
soap 2719
trouble 2719
array 2718
Popular 2717
stor@@ 2717
Chapter 2716
Soul 2716
Lithuanian 2715
Phil@@ 2715
ais 2715
chess 2715
Pre 2714
1846 2713
Mes@@ 2713
pot@@ 2713
resource 2713
aff@@ 2712
engineers 2712
Care 2711
Franz 2711
Sudan 2711
Gul@@ 2710
SS@@ 2710
kes 2710
layers 2710
rape 2709
Personnel 2708
explore 2708
marking 2708
Indigenous 2707
Sah@@ 2707
Som@@ 2707
cult 2707
Dom@@ 2706
lessons 2706
mall 2706
transported 2706
Queens 2705
edges 2705
bel@@ 2704
consensus 2704
exp@@ 2704
NC 2703
The@@ 2703
\ 2703
algorithm 2703
oi 2703
sensitive 2703
blues 2702
varying 2702
Dominican 2701
TS 2701
planted 2701
reservoir 2701
treat 2701
Cle@@ 2700
attraction 2700
automatically 2700
ware 2700
kar 2699
helicopter 2698
Twitter 2697
performers 2696
sec@@ 2696
ø@@ 2694
Bah@@ 2693
Moreover 2693
Um@@ 2693
ious 2693
balls 2692
ils 2692
Bradford 2691
Brussels 2691
Ellis 2691
practiced 2691
ode 2690
ours 2690
Fifth 2689
investors 2689
Philosophy 2688
cro@@ 2688
Parks 2687
portraits 2687
AB 2686
ji@@ 2686
Bran@@ 2685
zones 2685
reactions 2684
preliminary 2683
Fernando 2682
Pad@@ 2682
Armstrong 2681
distant 2681
Emily 2680
Kl@@ 2680
decreased 2680
drawings 2680
dean 2679
1830 2678
Py@@ 2678
prayer 2678
Kenneth 2677
Lem@@ 2677
stra@@ 2676
Julia 2675
af 2673
eating 2673
esses 2673
Angels 2672
Amateur 2671
Tree 2671
Yellow 2671
ben@@ 2670
ope 2670
peer 2670
teammate 2670
twentieth 2670
estates 2669
Engineers 2668
curriculum 2668
rapper 2668
1812 2667
Emma 2667
ited 2667
oz@@ 2667
permit 2667
registration 2667
Legislature 2666
militia 2666
riders 2666
Subsequently 2665
client 2665
Nigerian 2663
varieties 2663
codes 2662
occasional 2662
offs 2662
phenomenon 2662
stolen 2662
Interior 2661
Nav@@ 2661
Tang 2661
ables 2661
AIDS 2660
Poly@@ 2660
beneath 2660
colored 2660
dae 2660
ming 2660
southeastern 2660
20.@@ 2659
customer 2659
hydrogen 2659
noble 2659
Andrews 2658
Hull 2658
priests 2658
renovation 2658
girlfriend 2657
pronounced 2657
Double 2656
tight 2656
Return 2655
competitors 2655
dynamic 2655
enn@@ 2655
watched 2655
Hem@@ 2654
gers 2654
mo 2654
solely 2654
terrain 2653
uz@@ 2653
00@@ 2652
aftermath 2652
discipline 2652
governmental 2652
libraries 2652
Bun@@ 2651
Pas@@ 2651
Rag@@ 2651
Cab@@ 2650
bills 2650
hopes 2650
interactions 2650
shock 2650
RS 2649
Ronald 2649
absolute 2649
consequence 2649
intensity 2649
Basin 2648
Kos@@ 2648
genera 2648
ruins 2647
Again 2646
Brooks 2646
Comedy 2646
Eight 2646
delay 2646
handled 2646
grain 2645
mansion 2645
dor@@ 2644
hr@@ 2644
Bradley 2643
Deb@@ 2642
armies 2642
dancer 2642
ng 2641
rivalry 2641
tribal 2641
Saskatchewan 2640
dying 2640
oro 2640
.. 2639
Guards 2639
Lang@@ 2638
ž@@ 2638
1845 2637
shed 2637
Deep 2636
hull 2636
ows 2636
Zhang 2635
congressional 2635
embarked 2635
IA 2634
Universe 2634
supporter 2634
witness 2634
Powell 2633
configuration 2633
inclusion 2633
push 2633
flowering 2632
orn 2632
creator 2631
storyline 2631
Presbyterian 2630
Similarly 2630
kilometres 2630
territorial 2630
É@@ 2630
ign@@ 2629
ovsky 2629
striking 2629
CC@@ 2628
NO@@ 2628
Ot@@ 2628
star@@ 2628
willing 2628
Haz@@ 2627
une 2627
Colonial 2626
Without 2626
ums 2625
yr@@ 2625
Oc@@ 2624
theology 2624
withdrawal 2623
Eurovision 2622
airing 2622
compounds 2622
Gri@@ 2620
aerial 2620
ima 2620
Din@@ 2619
Pres@@ 2619
akes 2618
export 2618
dozen 2617
Gibson 2616
Lodge 2616
ately 2616
subspecies 2616
qui@@ 2614
Henderson 2613
Wind 2613
ester 2613
hitting 2613
southwestern 2613
tia 2613
gan@@ 2612
E.@@ 2611
acclaim 2611
Actress 2610
Rab@@ 2610
conquest 2610
kl@@ 2610
ammunition 2609
ells 2609
northeastern 2609
Progressive 2608
kills 2608
patron 2608
observations 2607
oms 2607
easier 2606
fires 2606
ham@@ 2604
Against 2603
Chase 2603
NATO 2603
Maj@@ 2602
Nic@@ 2602
ush 2602
Aircraft 2601
define 2601
IBM 2600
Recording 2600
diet 2600
guards 2600
Page 2599
but@@ 2599
electro@@ 2599
surfaces 2599
tion 2599
Bull 2598
Critics 2598
learns 2598
unclear 2598
workshops 2598
bassist 2597
garrison 2597
ichi 2597
1,0@@ 2596
alisation 2596
super 2596
squ@@ 2595
accomplished 2594
allocated 2594
sed 2594
50@@ 2593
furniture 2593
ta@@ 2593
trips 2593
Julian 2592
eva 2592
argue 2591
rotation 2591
anchor 2590
Abdul 2589
Bryan 2588
fees 2588
moments 2588
watching 2588
Neg@@ 2587
doctrine 2587
fraud 2587
trend 2587
Stra@@ 2586
hybrid 2586
Regular 2585
missionary 2585
IR@@ 2584
Surrey 2584
boss 2584
regardless 2584
eling 2583
180 2582
CR 2582
collapsed 2582
stronger 2582
Dou@@ 2581
rom@@ 2581
Bog@@ 2580
Leon 2580
attitude 2580
rell 2580
theoretical 2580
Others 2579
ann 2579
environments 2579
Bear 2578
commanding 2578
investigated 2578
transformation 2578
Complex 2577
anz@@ 2577
condemned 2577
Dol@@ 2576
GA 2576
pack 2576
Capitol 2575
collecting 2575
incidents 2575
magnitude 2575
Study 2574
rough 2574
she@@ 2574
bishops 2573
Bet@@ 2572
accordance 2572
Saxon 2571
Tul@@ 2571
ements 2571
fu@@ 2571
Fish 2570
estimate 2570
Kom@@ 2569
Wo@@ 2569
fate 2569
itation 2569
shoulder 2569
Nat@@ 2567
Orlando 2567
Vas@@ 2567
blocked 2567
Off 2566
SP 2566
committees 2566
eter 2566
interim 2566
Caroline 2565
Filipino 2565
Kingston 2565
Legion 2565
Res@@ 2565
manual 2565
nicknamed 2565
Anti@@ 2564
Michel 2564
settle 2564
Ass@@ 2563
Brighton 2563
Official 2563
loved 2563
19.@@ 2562
J.@@ 2562
ensemble 2562
Kot@@ 2561
developer 2561
farmer 2561
involve 2561
temples 2561
united 2561
ş@@ 2561
ER@@ 2560
MLB 2560
PlayStation 2560
Sho@@ 2560
equally 2559
habitats 2559
Republicans 2558
absorbed 2558
consent 2558
ied 2558
tran@@ 2558
Agreement 2557
depicting 2557
Lakes 2556
Leslie 2556
2.0 2555
shallow 2555
Colin 2554
Mam@@ 2554
Mid 2554
VIII 2553
ily 2553
insects 2553
Iceland 2552
R.@@ 2552
22@@ 2551
directing 2551
OR@@ 2550
gathering 2550
inning 2550
stake 2550
photos 2549
Electoral 2548
Vin@@ 2548
strict 2548
Plaza 2547
bacteria 2547
elimination 2547
Lyon 2546
Number 2546
tel@@ 2546
cleared 2545
consequences 2545
receptor 2545
Planning 2544
lord 2544
Lav@@ 2543
Resources 2543
isa 2543
26@@ 2542
30,000 2542
expelled 2542
Lucy 2541
Pete 2541
renovated 2541
spec@@ 2541
Arsenal 2540
Bla@@ 2540
Hur@@ 2540
LE@@ 2540
LGBT 2540
Preston 2540
mutual 2540
reconstruction 2540
25.@@ 2539
ballot 2539
conceived 2539
depends 2538
diagnosed 2538
introduce 2538
ologically 2538
sheep 2538
D.@@ 2537
Woods 2537
Tyler 2536
bit@@ 2536
Canyon 2535
aside 2535
rum 2535
Cou@@ 2534
Reform 2534
vegetation 2534
tin 2533
iers 2532
lined 2532
virtually 2532
Kab@@ 2531
Sad@@ 2531
intent 2531
Presidential 2530
uma 2530
ín 2530
compensation 2529
exploration 2529
CT 2528
ater 2528
planes 2528
advised 2527
casting 2527
ez@@ 2527
healthy 2527
Globe 2526
Memphis 2526
mathematical 2526
Course 2525
Episcopal 2525
min 2525
assassination 2524
considers 2524
Estonia 2523
ettes 2523
manufacture 2523
doubt 2522
logic 2522
thermal 2522
tom@@ 2522
ç@@ 2522
WWE 2521
inst@@ 2521
pace 2521
promise 2521
questioned 2521
raw 2520
suburbs 2520
Ant@@ 2519
bas@@ 2519
Robertson 2518
counts 2518
genres 2518
1800 2517
Bailey 2517
USSR 2516
anth@@ 2516
proposals 2516
Josh 2515
clothes 2515
9,@@ 2514
Am 2514
1.2 2513
Located 2513
rises 2513
Bus@@ 2512
bones 2512
Ahmad 2511
ished 2511
kin@@ 2511
bowl 2510
med@@ 2510
separately 2510
zu 2510
ink 2509
mag@@ 2509
massacre 2509
nose 2509
talking 2509
Chal@@ 2508
Sant@@ 2508
Vill@@ 2508
adoption 2508
upset 2508
vo 2508
estimates 2507
1844 2506
Blake 2506
Get 2506
Amy 2505
Liberation 2505
specified 2505
Edition 2504
manor 2504
preparing 2504
tables 2504
Miles 2503
far@@ 2503
integral 2503
predicted 2503
350 2502
Allan 2502
Amazon 2502
Stock 2502
ened 2502
inches 2502
mol@@ 2502
Oslo 2501
bon@@ 2501
Alpha 2499
Curtis 2499
Hag@@ 2499
Windsor 2499
Lov@@ 2498
log 2498
mere 2498
sporting 2498
McC@@ 2497
Naples 2496
cker 2496
feels 2496
bore 2495
dri@@ 2495
kitchen 2495
wildlife 2495
1841 2494
HS 2494
autonomous 2494
undertaken 2494
Att@@ 2493
elled 2493
ep 2493
Notre 2492
servant 2492
thrown 2492
6,000 2491
pink 2491
Rabbi 2490
Richardson 2490
constantly 2490
guided 2490
legally 2489
emp@@ 2488
form@@ 2488
tel 2488
Impact 2487
mature 2487
necessarily 2487
María 2486
currency 2485
inaugurated 2485
inae 2484
ju@@ 2483
probability 2483
wor@@ 2483
ble@@ 2482
entries 2481
sword 2481
Hopkins 2480
Principal 2480
tourists 2480
Speaker 2479
walks 2479
26.@@ 2478
pounds 2478
TV@@ 2477
confusion 2477
prec@@ 2477
sustainable 2477
24.@@ 2476
explosion 2476
mar 2475
rin 2475
Rachel 2474
Tran@@ 2474
agrees 2474
ency 2474
Henri 2473
revived 2473
preservation 2472
abortion 2471
instructions 2471
optical 2471
IM@@ 2470
spectrum 2470
facade 2469
Frankfurt 2468
knows 2468
Depression 2467
crowned 2467
Inn 2466
Water@@ 2466
lion 2466
Ach@@ 2465
consideration 2465
let@@ 2465
profession 2465
1837 2464
Nathan 2464
corn 2464
crop 2464
zo 2464
Gy@@ 2463
Literary 2463
SM@@ 2462
Edmund 2461
manuscripts 2460
ser 2460
rh@@ 2459
torpedo 2459
Albania 2458
Cru@@ 2458
amm@@ 2458
badly 2458
cking 2458
dist@@ 2458
edi@@ 2458
stepped 2458
monitoring 2457
poorly 2457
withdraw 2457
1839 2456
AN 2455
certainly 2455
log@@ 2455
mechanisms 2455
eri@@ 2454
keys 2454
ores 2454
pos@@ 2454
Classical 2453
Dog 2453
Fur@@ 2453
consistently 2453
ree 2453
screenplay 2453
Boeing 2452
happen 2452
rally 2452
125 2451
Being 2451
ease 2451
faction 2451
Rock@@ 2450
Spider 2450
Support 2450
bold 2450
ritual 2450
Coalition 2449
1500 2448
Kel@@ 2448
Vir@@ 2448
ī 2448
Hall@@ 2447
Lutheran 2447
Cornwall 2446
Kumar 2446
ias 2446
symbols 2446
naturally 2445
1838 2444
Calgary 2444
Reynolds 2444
Milton 2443
advocated 2443
lig@@ 2443
sy 2443
27@@ 2442
Fo@@ 2441
iness 2441
Nadu 2440
sits 2440
tackle 2440
40@@ 2439
administrator 2439
ju 2439
properly 2439
ture 2439
André 2438
tion@@ 2438
Inter 2437
Vo@@ 2437
capabilities 2437
developers 2437
sacred 2437
sculptor 2437
ein 2436
acclaimed 2435
1832 2434
Etymology 2434
Lab@@ 2434
favorable 2434
hai 2434
ining 2434
researcher 2434
Administrative 2433
Glen 2433
loaded 2433
landmark 2432
Aut@@ 2431
Hat@@ 2430
Salvador 2430
aggressive 2430
chorus 2430
enjoy 2430
Lords 2429
Plymouth 2429
gel@@ 2429
premises 2429
statistical 2429
streaming 2429
flies 2428
gi 2428
Albany 2427
How@@ 2427
Mark@@ 2427
Saf@@ 2427
bach 2427
ı@@ 2427
Slovenia 2426
cent@@ 2426
Hum@@ 2425
athletics 2425
thriller 2425
tin@@ 2425
vulnerable 2424
Founded 2423
Herzegovina 2423
arose 2423
navy 2423
slopes 2423
zh@@ 2423
Americas 2422
Fraser 2422
comprised 2422
cin@@ 2421
eo 2421
horizontal 2421
socialist 2421
black@@ 2420
fortune 2419
ille 2419
Claude 2418
zo@@ 2418
SH 2417
architects 2417
innovative 2417
unveiled 2417
Physics 2416
measuring 2416
revenge 2416
shield 2416
Case 2415
EC@@ 2415
Harbour 2415
delegation 2415
vis@@ 2415
itions 2414
mills 2414
reader 2414
Belfast 2413
Emmy 2413
Prussian 2413
proclaimed 2413
ty@@ 2412
25th 2411
agh 2411
ashes 2411
Burns 2410
Eve 2410
Sisters 2410
Tropical 2410
considerably 2410
det@@ 2410
dh@@ 2410
doctoral 2410
Kosovo 2409
Pil@@ 2409
AF@@ 2408
aba 2408
compact 2408
opposing 2408
bankruptcy 2407
elect 2407
interviewed 2407
promotional 2407
Porter 2406
orientation 2406
som@@ 2406
succeed 2406
Reid 2405
depicts 2405
rushing 2405
wake 2404
yst@@ 2404
Cox 2403
vinyl 2403
beds 2402
conversation 2402
convert 2402
limestone 2402
semifinals 2402
sen@@ 2402
Rod@@ 2401
dan 2401
circles 2400
northwestern 2400
Cant@@ 2398
Edmonton 2398
SI 2397
zy@@ 2397
agreements 2396
basement 2396
customs 2396
proportion 2396
Southwest 2395
discussions 2395
1836 2394
bout 2394
AI 2393
Cinema 2393
Rosa 2393
exc@@ 2393
pen 2393
ains 2392
rat@@ 2392
ull 2392
vicinity 2392
Agricultural 2391
IX 2391
WA 2391
disputed 2391
Prot@@ 2390
nominee 2390
scattered 2390
ven 2390
Thor@@ 2389
aa 2387
brands 2387
hub 2387
strikes 2387
Lou@@ 2386
Sang@@ 2386
terrorist 2386
Religion 2385
Lancaster 2383
Paralympics 2383
fin 2383
lease 2383
4.5 2382
arians 2382
hurricane 2382
Crystal 2381
bing 2381
ku 2381
physically 2381
recover 2381
Burton 2380
refuses 2380
suburban 2380
Contest 2379
ingham 2379
saving 2379
dense 2378
off@@ 2378
Andrea 2377
McDonald 2377
recreational 2377
thy 2377
11@@ 2376
mosque 2376
pped 2376
Rivers 2375
nan@@ 2374
repairs 2374
Catholics 2373
Jennifer 2373
explored 2372
healthcare 2372
Dy@@ 2371
23.@@ 2370
360 2370
attract 2370
eighteen 2370
outcome 2370
Ji@@ 2369
organize 2369
Lau@@ 2368
ides 2368
jointly 2368
voltage 2368
Alexandria 2367
Halifax 2367
Us 2367
Wagner 2367
acc@@ 2367
offense 2367
opens 2367
stick 2367
vital 2367
Movie 2366
UC 2366
itz 2366
Writers 2365
kinds 2365
21.@@ 2364
Discovery 2364
Indo 2364
legendary 2363
CB@@ 2362
rulers 2362
scales 2361
dimensions 2360
spar@@ 2360
hamlet 2359
Near 2358
mas@@ 2358
Rev@@ 2357
gates 2357
sponsor 2357
trick 2357
Devon 2356
facilitate 2356
ink@@ 2356
tender 2356
Bond 2355
exhibits 2355
recurring 2355
Art@@ 2354
Criminal 2354
Gene 2354
crucial 2354
desired 2353
Working 2352
cio 2352
feminist 2352
Cent@@ 2351
ess@@ 2351
flagship 2351
woods 2351
P.@@ 2350
Springfield 2350
oak 2350
Hell 2349
Physical 2348
Warriors 2348
blind 2348
caps 2348
rhythm 2348
CP 2347
investigations 2347
tz 2347
160 2346
South@@ 2346
ario 2346
surrendered 2346
Istanbul 2345
bling 2345
rent 2345
Bern@@ 2344
Guild 2344
Seminary 2344
VA 2344
emigrated 2344
seal 2344
Clar@@ 2343
implement 2343
responsibilities 2343
Never 2342
alize 2342
trophy 2342
1842 2341
excess 2341
murders 2341
bulk 2340
molecules 2339
wait 2339
aqu@@ 2338
lesser 2338
monks 2338
Brook 2337
hat@@ 2337
oun@@ 2336
sweet 2336
Les@@ 2335
acre 2335
pat@@ 2334
sli@@ 2334
unity 2334
breed 2333
lanes 2333
nest 2333
Exhibition 2332
Martha 2332
instructor 2332
inus 2332
Bis@@ 2331
Macedonia 2331
anta 2331
finale 2331
wrestler 2331
conspiracy 2330
referee 2330
Monte 2329
dam@@ 2329
proceedings 2329
toll 2329
35@@ 2327
Bod@@ 2327
composers 2327
novelist 2327
reserved 2327
substance 2327
synthesis 2327
NSW 2326
killer 2326
sson 2326
borne 2325
clerk 2325
ling@@ 2325
CIA 2324
Rh@@ 2324
1843 2323
prohibited 2323
Copa 2322
Rhine 2322
Tourism 2322
removing 2322
α 2322
ws 2321
Mau@@ 2320
deployment 2320
AF 2319
Seoul 2319
availability 2319
cluster 2318
grandmother 2318
oto 2318
wo@@ 2318
Kum@@ 2317
15.@@ 2316
Gos@@ 2316
boxes 2316
convoy 2316
distinguish 2316
Buddhism 2315
Mit@@ 2315
Wyoming 2315
Mang@@ 2314
subfamily 2314
Ellen 2313
Portsmouth 2312
tus 2312
&apos;Brien 2311
,000 2311
Access 2311
aps 2311
marble 2311
Fellowship 2310
PM 2310
ce@@ 2310
navigation 2310
priority 2310
unsuccessfully 2310
ve@@ 2310
ci 2308
kov 2308
Lak@@ 2307
Nas@@ 2307
drives 2307
uta 2307
Publications 2306
Theodore 2306
masters 2306
purple 2306
140 2305
1815 2305
Change 2305
presenter 2305
rendered 2305
Est@@ 2304
Train 2304
certificate 2304
enc@@ 2304
Richards 2303
coin 2303
locked 2303
Prussia 2302
SL 2302
ced 2302
fication 2302
fossil 2302
decree 2301
essay 2301
Harper 2300
Port@@ 2300
mineral 2300
arguments 2299
geographical 2299
Frances 2298
Johnston 2297
pres@@ 2297
Full 2296
Speedway 2296
explanation 2295
16.@@ 2294
peninsula 2294
Cohen 2293
Cow@@ 2293
dressed 2293
lec@@ 2292
Sweet 2291
arguing 2291
mes@@ 2291
propaganda 2291
folded 2290
inland 2290
underlying 2290
utility 2290
vit@@ 2290
Seg@@ 2289
highways 2289
phon@@ 2289
sie 2289
Baltic 2288
Bed@@ 2288
hypothesis 2288
knocked 2288
mph 2288
onn@@ 2288
remarkable 2288
dian 2287
itt@@ 2287
liver 2287
1835 2286
Ja@@ 2286
Beyond 2284
Rocky 2284
contracted 2284
innovation 2284
nan 2284
rolling 2284
17.@@ 2283
mythology 2283
Forbes 2282
Moses 2282
cameras 2282
performer 2282
valued 2282
Cad@@ 2281
Various 2281
gran@@ 2281
specimen 2281
Directors 2280
Had@@ 2280
ool 2280
14.@@ 2279
Apart 2279
Banks 2279
invitation 2279
notion 2279
Single 2278
commerce 2278
maternal 2278
rings 2278
Factory 2277
Kyle 2277
cloud 2277
examined 2277
ition 2277
29@@ 2276
Carlo 2276
Diana 2276
Gau@@ 2276
Mercury 2276
Rich 2275
Self 2275
iles 2275
runway 2275
Barnes 2274
Bath 2274
dinner 2274
flu@@ 2274
proximity 2274
Bronze 2273
Headquarters 2273
orum 2273
pollution 2273
tional 2273
sions 2272
endorsed 2271
supervision 2271
Gan@@ 2270
Head@@ 2269
Malaysian 2269
cou@@ 2269
Hugo 2268
Lap@@ 2268
Manor 2268
Chess 2267
Nacional 2267
gods 2267
philosopher 2267
salary 2267
VC 2266
nationalist 2266
rop@@ 2266
Euro 2265
Wednesday 2265
highlighted 2265
lateral 2265
pine 2265
taste 2265
Churchill 2264
Hos@@ 2264
cool 2264
Big@@ 2263
Faith 2263
HC 2263
Linda 2263
Style 2263
wal@@ 2263
Morrison 2262
Inside 2261
Salem 2261
bil@@ 2261
obvious 2261
performs 2261
spelled 2261
ATP 2260
División 2260
Arctic 2259
ear 2258
endangered 2258
iko 2258
sectors 2258
Kaz@@ 2257
Learning 2257
Monroe 2257
chi@@ 2257
dig@@ 2257
imported 2257
Kad@@ 2256
achieving 2256
download 2256
membrane 2256
sur 2256
Bros. 2255
Ulster 2255
moon 2255
nights 2255
vic@@ 2255
PR 2254
dome 2254
gastropod 2254
pipe 2254
presenting 2254
28.@@ 2253
Ethiopia 2253
NASCAR 2253
Lines 2252
alumni 2252
diving 2252
gy@@ 2252
ified 2252
lifestyle 2252
Gaelic 2251
altar 2251
gor@@ 2251
the@@ 2251
arm@@ 2250
differ 2250
politically 2250
scorer 2250
successive 2250
Snow 2249
ner@@ 2249
Baronet 2248
Gall@@ 2248
apartments 2248
idi@@ 2248
sculptures 2248
Cornell 2247
museums 2247
frames 2246
minimal 2246
SL@@ 2245
ancestry 2245
ceiling 2245
arc 2244
loyal 2244
regiments 2244
reopened 2244
wan@@ 2244
ESPN 2243
Web 2243
protagonist 2243
Watch 2242
act@@ 2242
rin@@ 2242
FF 2240
Prison 2240
TE@@ 2240
sided 2240
strategies 2240
å@@ 2240
Sig@@ 2239
Zimbabwe 2239
batteries 2238
cycling 2238
organizing 2238
Hop@@ 2237
Store 2237
asp@@ 2236
draws 2236
mot@@ 2235
pull 2235
tension 2235
Karen 2234
stint 2232
Rochester 2231
fights 2231
foundations 2231
obtaining 2231
workshop 2231
Hen@@ 2230
Leicester 2230
ceremonies 2230
secular 2230
velocity 2230
Bot@@ 2229
GM 2229
It@@ 2229
Wol@@ 2229
raids 2229
spotted 2229
SM 2228
delegates 2228
gun@@ 2228
millions 2228
terminated 2228
Apollo 2227
Haven 2227
Picture 2227
declaration 2227
depot 2227
worthy 2227
Rel@@ 2226
Tol@@ 2226
bonds 2226
kids 2226
Online 2225
PC@@ 2225
aches 2225
DO@@ 2224
Thursday 2224
breast 2224
Chilean 2223
www.@@ 2223
Cher@@ 2222
cabin 2222
proven 2222
CF@@ 2221
counted 2221
voices 2221
Come 2220
Cul@@ 2220
Sons 2220
donations 2220
humanity 2220
22.@@ 2219
preventing 2219
battalions 2218
calculated 2218
longtime 2218
commissioner 2217
sley 2216
tactics 2216
Chuck 2215
Kazakhstan 2215
allied 2215
escort 2215
Elliott 2214
Sec@@ 2214
accompanying 2214
consumers 2214
entities 2214
Cot@@ 2213
Lynn 2213
PO@@ 2213
Silva 2213
View 2213
bread 2213
consciousness 2213
fied 2213
fiscal 2213
Money 2211
shirt 2211
Testament 2210
keeper 2210
Ye@@ 2208
commercially 2208
Dro@@ 2207
Yankees 2207
factories 2207
standings 2207
0s 2206
Log@@ 2206
initiatives 2206
Sheriff 2205
cel@@ 2205
disabled 2205
induced 2205
Shu@@ 2204
Stor@@ 2204
bounded 2204
continent 2204
ees 2204
Nottingham 2203
Taxonomy 2203
lifted 2203
Carol 2202
payments 2202
Jake 2201
Say@@ 2201
Te 2201
Winnipeg 2201
managers 2201
Aberdeen 2200
Estonian 2200
Glenn 2200
throwing 2200
Maz@@ 2199
Swimming 2199
motorcycle 2199
Combat 2198
accidentally 2198
Level 2197
invested 2197
CM@@ 2196
custody 2196
electron 2196
gel 2196
starter 2196
Recent 2195
Slovakia 2195
companion 2195
shaft 2195
Algeria 2194
Nobel 2194
UFC 2194
ask@@ 2194
owed 2194
Devil 2193
ID 2193
Overall 2193
lady 2193
² 2192
Net@@ 2191
Newman 2191
lem@@ 2191
organisms 2191
truly 2191
Đ@@ 2191
1814 2190
Haw@@ 2190
enhanced 2190
ñ@@ 2190
LO@@ 2189
ols 2189
romance 2189
cli@@ 2188
flowing 2188
ques 2188
resolved 2188
Mod@@ 2187
Software 2186
vin@@ 2186
Rud@@ 2185
Dep@@ 2184
Lion 2184
demonstrate 2184
pu@@ 2184
Elections 2183
challenging 2183
directions 2183
evaluation 2183
Ec@@ 2182
Marines 2182
cos@@ 2182
yed 2182
harbour 2181
iti 2180
Edwin 2179
demonstration 2179
item 2179
snail 2179
Band@@ 2178
IL 2178
Jesse 2178
Lebanese 2178
Pit@@ 2178
Rum@@ 2178
Vale 2178
Vit@@ 2178
loading 2178
Del 2176
ão 2176
artifacts 2175
contestants 2175
enterprise 2175
18.@@ 2174
Associate 2174
alla 2174
veterans 2173
Choice 2172
crashed 2172
1.6 2171
1834 2171
Bavaria 2171
Cat 2171
Santos 2171
Tok@@ 2171
backs 2171
disorders 2171
essays 2171
otic 2171
105 2170
Julius 2169
Table 2169
complicated 2169
parade 2169
rist@@ 2169
Ludwig 2168
RI@@ 2168
Similar 2168
eer 2168
lets 2168
settings 2168
~ 2168
Annie 2167
dock 2167
eting 2167
rectangular 2167
Nab@@ 2165
Raja 2165
escu 2165
loans 2165
lover 2165
ost 2165
Ballet 2164
Thames 2164
kan@@ 2164
partnered 2164
Industries 2163
Kids 2163
regulated 2163
Lub@@ 2162
diplomat 2162
labels 2162
mammals 2161
merchants 2161
1.1 2160
Heaven 2160
Ori@@ 2160
ren 2160
sponsorship 2160
sudden 2160
auction 2159
elderly 2159
Fighting 2158
detection 2157
marketed 2157
reliable 2157
Antarctic 2156
Marion 2156
mystery 2156
violin 2156
Constitutional 2155
Str@@ 2155
ulus 2155
Bud@@ 2154
Walt 2154
Ecuador 2153
ental 2153
erg@@ 2153
heating 2153
dropping 2152
steep 2152
umi 2152
med 2150
rescued 2150
rookie 2150
Mine 2149
careers 2149
insisted 2149
kon@@ 2149
sick 2149
absent 2148
rebel 2148
Grammar 2147
HA 2147
emissions 2147
hotels 2147
mil@@ 2147
poets 2147
rap 2147
0.5 2146
Myanmar 2146
mic 2146
Edgar 2145
Heinrich 2145
Scar@@ 2145
accommodation 2145
boxer 2145
verses 2145
accuracy 2144
hon@@ 2144
iki 2144
Hayes 2143
possessed 2143
protesters 2143
tobacco 2143
vacant 2143
But@@ 2142
Emergency 2142
Hill@@ 2142
Pav@@ 2142
Yar@@ 2142
neighbourhood 2142
premier 2142
Index 2141
Individual 2141
enh@@ 2141
27.@@ 2140
28@@ 2140
Brother 2139
Chand@@ 2139
Dob@@ 2139
inn 2139
Jer@@ 2138
bet 2138
pay@@ 2138
uli@@ 2138
advancing 2137
dealt 2137
eness 2137
spite 2137
Colony 2136
Newfoundland 2136
ier@@ 2136
trucks 2136
wa@@ 2136
Ladies 2135
Mich@@ 2135
VI@@ 2135
eland 2135
eto 2135
parishes 2135
witnessed 2135
Dorothy 2134
chaired 2134
lengths 2134
stat@@ 2134
monuments 2133
editing 2132
hectares 2132
prominence 2132
Dale 2131
Jeremy 2131
Louisville 2131
Yu 2131
preceding 2131
tra 2130
Previously 2129
bet@@ 2129
continuously 2129
immigrant 2129
neighborhoods 2129
uprising 2129
Wimbledon 2128
enk@@ 2128
ented 2128
Crawford 2127
Gospel 2127
NT@@ 2127
ager 2127
bis@@ 2127
ew@@ 2127
500,000 2126
Religious 2126
deb@@ 2126
eni 2126
reconnaissance 2126
wood@@ 2126
Happy 2125
enacted 2125
recommendations 2125
Carroll 2124
Rap@@ 2124
barrel 2124
din@@ 2124
Luxembourg 2123
harm 2123
particle 2123
rubber 2123
static 2123
Chiefs 2122
RT@@ 2121
Twin 2121
quit 2121
Housing 2120
IF@@ 2120
Tel 2120
elaborate 2120
yne 2120
verb 2119
controlling 2118
cooking 2118
deceased 2118
ki@@ 2118
Malcolm 2117
Maritime 2117
Superior 2117
dr@@ 2117
lens 2117
responses 2117
Ibn 2116
MW 2116
Speed 2116
Task 2116
errors 2116
geometry 2116
intact 2116
Acc@@ 2115
Afghan 2115
Raiders 2115
nurse 2115
Mass@@ 2114
Sherman 2114
invaded 2114
psych@@ 2114
Jamie 2113
believing 2113
fail 2113
puts 2113
Patriots 2112
facts 2112
urged 2112
Constantinople 2111
holders 2111
Ras@@ 2110
Tasmania 2110
Marco 2109
itors 2109
mad@@ 2109
proceeds 2109
undertook 2109
80@@ 2108
Pun@@ 2108
finite 2108
kan 2108
odi@@ 2108
Burma 2107
GT 2107
Pod@@ 2107
lif@@ 2107
protecting 2107
reinforced 2107
gar 2106
sha 2106
Nik@@ 2105
accounting 2105
ank 2105
abstract 2104
cream 2104
Drake 2103
appealed 2103
chest 2103
respond 2103
sta 2103
witnesses 2103
Pirates 2102
destroyer 2102
interrupted 2102
openly 2102
copyright 2101
perception 2101
warned 2101
mes 2100
shan 2100
Charleston 2099
Doug 2099
Large 2099
Scout 2099
introducing 2099
Cairo 2098
Educational 2098
Victory 2098
creek 2098
eau 2098
ined 2098
refuge 2098
zes 2098
Mall 2097
coloured 2097
stown 2097
1831 2096
Jur@@ 2096
Od@@ 2096
Shadow 2096
ancy 2096
consecrated 2096
mandatory 2096
volcanic 2096
Dub@@ 2095
activation 2095
batted 2095
lacked 2095
Budapest 2094
Burke 2094
ballet 2094
reviewer 2094
san@@ 2094
â@@ 2094
Beatles 2093
isha 2093
oper@@ 2093
8.@@ 2092
SU 2092
broadcaster 2092
Mach@@ 2091
branded 2091
interference 2091
testimony 2091
Ho 2090
anne 2090
monitor 2090
opted 2090
tune 2090
DE 2089
Eye 2089
Janeiro 2089
Metal 2089
bers 2089
Blair 2088
climbing 2088
equality 2088
pursuit 2088
retire 2088
Ron@@ 2087
SI@@ 2087
cont@@ 2087
lio 2087
Joshua 2086
knowing 2086
laps 2086
ris@@ 2086
1.3 2085
Tribune 2085
pon@@ 2085
storey 2085
Pul@@ 2084
assi@@ 2084
Chemical 2083
Gir@@ 2083
Programme 2083
barrier 2083
Statistical 2082
surgeon 2082
Sei@@ 2081
climb 2081
icus 2081
oot 2081
Indoor 2080
governance 2080
hide 2080
loose 2080
objectives 2080
outlets 2080
respected 2080
uda 2080
Adult 2079
Ernst 2079
disk 2079
infected 2079
uncertain 2079
Esc@@ 2078
Minneapolis 2078
Ret@@ 2078
Summit 2078
Theory 2078
admission 2078
Claire 2077
Insurance 2077
Nuclear 2077
Bow@@ 2076
adopt 2076
æ@@ 2076
Episode 2075
postponed 2075
professionally 2075
ball@@ 2074
inga 2074
knockout 2074
Carnegie 2073
Syn@@ 2073
formations 2073
Glass 2072
Panthers 2072
Rak@@ 2072
rankings 2072
Cop@@ 2071
Glen@@ 2071
plantation 2071
nam@@ 2070
promising 2070
Link 2069
Lip@@ 2069
Uruguay 2069
Yugoslav 2069
embassy 2069
inv@@ 2069
law@@ 2069
Shore 2068
su 2068
cognitive 2067
pper 2067
1820 2066
eli 2066
flown 2066
yu 2066
Baldwin 2065
Chronicle 2065
Yan@@ 2065
seeks 2065
Madonna 2064
Zi@@ 2064
fragments 2064
Kul@@ 2063
constituencies 2063
narrowly 2063
transmitter 2063
Nixon 2062
aided 2062
carriers 2062
rider 2062
Walsh 2061
collector 2061
disputes 2061
lab 2061
Holocaust 2060
ais@@ 2060
buying 2060
conquered 2060
profits 2060
reunited 2060
Chang 2059
Set 2059
Strait 2059
eds 2059
conviction 2058
mit 2058
overcome 2058
Romans 2057
Tag 2057
trails 2057
Appeals 2056
Fal@@ 2056
civic 2056
derives 2056
slope 2056
Aftermath 2055
Māori 2055
SF 2055
Mohammad 2054
Reb@@ 2054
BS 2052
platinum 2052
CR@@ 2051
Gab@@ 2051
Bach 2050
ady 2050
odes 2050
preceded 2050
Clay 2049
Dubai 2049
diagnosis 2049
illi@@ 2049
linking 2049
Post@@ 2048
crews 2048
finger 2048
ler@@ 2048
locals 2048
mount 2048
Pine 2047
amendment 2047
provider 2047
102 2046
Batman 2046
Hin@@ 2046
charted 2046
contents 2046
sail 2045
1833 2044
Dist@@ 2044
Logan 2044
PE@@ 2044
acceptance 2044
reasonable 2044
40,000 2043
Aj@@ 2043
aster 2043
gross 2043
Schedule 2042
cal 2042
themed 2042
recreation 2041
Kenny 2040
Tir@@ 2040
ech 2040
ices 2040
pra@@ 2040
show@@ 2040
smoke 2040
3000 2039
EM@@ 2039
marched 2039
noticed 2039
saint 2039
Zero 2038
dorsal 2038
Solar 2037
illo 2037
missionaries 2037
pan 2037
terrorism 2037
Institution 2036
meg@@ 2036
mysterious 2036
server 2036
skating 2036
complaints 2035
judgment 2035
projected 2035
ats@@ 2034
camp@@ 2034
dollar 2034
threatening 2034
Berry 2033
Doubles 2033
F.@@ 2033
Arms 2031
Twenty 2031
skilled 2031
tickets 2031
yc@@ 2031
CT@@ 2030
Julie 2030
ail@@ 2030
pot 2030
seating 2030
luxury 2029
revolt 2029
Observatory 2028
Loc@@ 2027
Penn@@ 2027
ough 2027
slot 2027
wer@@ 2027
Enterprise 2026
Well 2026
aran 2026
bin@@ 2026
Back@@ 2025
Jin 2025
Jo 2025
capability 2025
shi 2025
7.5 2024
Female 2024
Wa@@ 2024
wishes 2024
mit@@ 2023
passion 2023
rev@@ 2023
yield 2023
Clara 2022
Edge 2022
ITV 2022
attractive 2022
oning 2022
protocol 2022
Ghost 2021
Sebastian 2021
pastor 2021
strings 2021
Communication 2020
aph@@ 2020
pregnancy 2020
Settlement 2019
UC@@ 2019
cone 2019
sizes 2019
uti@@ 2019
Radi@@ 2018
detected 2018
} 2018
Mathematics 2017
Play@@ 2017
Vision 2017
ae@@ 2017
ś@@ 2017
bike 2016
cour@@ 2016
enclosed 2016
leased 2016
wn 2016
comedian 2014
dissolution 2014
eck 2014
int 2014
Half 2013
opinions 2012
tz@@ 2012
usi@@ 2012
viewing 2012
Dre@@ 2011
bombs 2011
tered 2011
wheat 2011
AG@@ 2010
Cour@@ 2010
T.@@ 2010
complexity 2010
Betty 2009
Johns 2009
Southampton 2009
Volume 2009
airfield 2009
geographic 2009
29.@@ 2008
50th 2008
ond 2008
H.@@ 2007
asc@@ 2007
eliminate 2007
gray 2007
lawyers 2007
placement 2007
wished 2007
Stan@@ 2006
mul@@ 2006
plac@@ 2006
Bac@@ 2005
maritime 2005
mus 2005
resided 2005
9.@@ 2004
contacts 2004
loaned 2004
measurement 2004
Streets 2003
con 2003
providers 2003
sphere 2003
MPs 2002
Northeast 2002
Shin@@ 2002
certification 2002
Hood 2001
trafficking 2001
Leadership 2000
Planet 2000
councils 2000
deer 2000
transform 2000
Joel 1999
Lisbon 1999
Outside 1999
hood 1999
prosecution 1999
25,000 1998
Hand@@ 1998
Syracuse 1998
Willie 1998
alien 1998
blog 1998
odd 1998
Treasury 1997
Built 1996
Et@@ 1996
violation 1996
Poetry 1995
aking 1995
screened 1995
tensions 1995
Hero 1994
correspondence 1994
fi 1994
rely 1994
ashed 1993
instances 1993
nursing 1993
snake 1993
750 1992
Augustus 1992
aus 1992
educator 1992
gravity 1992
uts 1992
Heat 1991
Krishna 1991
Qatar 1991
generating 1991
unlikely 1991
I.@@ 1990
Mé@@ 1990
drainage 1990
Legend 1989
Merit 1989
freshman 1989
skull 1989
cloth 1988
Felix 1987
Structure 1987
speeds 1987
walked 1987
Fol@@ 1986
Shield 1986
ears 1986
secretly 1986
1880s 1985
Confederation 1985
fossils 1985
ure@@ 1985
Francesco 1984
critically 1984
esis 1984
measurements 1984
ored 1984
rod 1984
shells 1984
theaters 1984
Equ@@ 1983
Lac@@ 1983
teamed 1983
-- 1982
Tat@@ 1982
advisory 1982
autobiography 1982
cian 1982
comment 1982
illustrations 1982
speaks 1982
spelling 1982
ues 1982
1,500 1981
Hab@@ 1981
Vic@@ 1981
Ful@@ 1980
bombers 1980
Creative 1979
Fe 1979
kit 1979
solve 1979
a.m. 1978
destroying 1978
ec 1978
entrepreneur 1978
1.4 1977
Fiction 1977
Rus@@ 1977
laser 1977
regulatory 1977
viral 1977
15,000 1976
Boris 1976
enlarged 1976
isn 1976
variables 1976
wicket 1976
finalist 1975
phases 1975
Biology 1974
Kurt 1974
ett@@ 1974
extraordinary 1974
kicked 1974
traces 1974
Heath 1973
Mohammed 1973
Rou@@ 1973
amine 1973
mon 1973
nave 1973
Broad@@ 1972
Georges 1972
Oh 1972
ician 1972
termed 1972
trap 1972
True 1971
cas@@ 1971
defunct 1971
railways 1971
Cowboys 1970
Greatest 1970
Sanskrit 1970
ans@@ 1970
dle 1970
Dylan 1969
GP 1969
equations 1969
feld 1969
paths 1969
Belarus 1968
Charter 1968
Cri@@ 1968
Dig@@ 1968
Ferguson 1968
Muk@@ 1968
Tuesday 1968
bag 1968
granite 1968
Fro@@ 1967
Monument 1967
hostile 1967
30.@@ 1966
FK 1966
comparable 1966
enz@@ 1966
searching 1966
Anton 1965
Expedition 1965
broader 1965
crater 1965
curved 1965
fruits 1965
igh@@ 1965
staying 1965
Bombay 1964
Holl@@ 1964
ature 1964
formats 1964
iss 1964
Plus 1963
hanging 1963
bordered 1962
ique 1962
stems 1962
blu@@ 1961
contributor 1961
decoration 1961
Given 1960
Take 1960
wind@@ 1960
Brad 1959
NS 1959
flank 1959
Any 1958
enting 1958
Ale@@ 1957
Empress 1957
Sugar 1957
ache 1957
aku 1957
likes 1957
stic 1957
Cham@@ 1956
Ey@@ 1956
MI@@ 1956
backup 1956
explicitly 1956
ret 1956
smallest 1956
sus 1956
zy 1956
GB 1955
Jon@@ 1955
Marathon 1955
chassis 1955
tram 1955
Kok@@ 1954
Troy 1954
Whitney 1954
coordinator 1954
utilized 1954
и@@ 1954
Bengali 1953
Cel@@ 1953
Sofia 1953
Wel@@ 1953
accredited 1953
evident 1953
ı 1953
Palm 1952
sle@@ 1952
60@@ 1951
Pac@@ 1951
assume 1951
holy 1951
risks 1951
Fantasy 1950
Sicily 1950
Trinidad 1950
informal 1950
trainer 1950
East@@ 1949
Sir@@ 1949
Suffolk 1949
boom 1949
machinery 1949
productive 1949
stance 1949
Cs 1948
Telugu 1948
philosophical 1948
Da 1947
Yuan 1947
butterfly 1947
celebrations 1947
demanding 1947
Raz@@ 1946
newer 1946
osp@@ 1946
remix 1946
dal 1945
usa 1945
1821 1944
Honorary 1944
Om@@ 1944
Rhodes 1944
Stat@@ 1943
worse 1943
Body 1942
200@@ 1941
Rid@@ 1941
SEC 1941
Bedford 1940
Beg@@ 1940
Ble@@ 1940
Shak@@ 1940
pil@@ 1940
slight 1940
spacecraft 1940
Generation 1939
Lon@@ 1939
amin@@ 1939
automobile 1939
graduates 1939
nobility 1939
Easter 1938
Rav@@ 1938
UNESCO 1938
pottery 1938
Darwin 1937
Ng@@ 1937
Rush 1937
rest@@ 1937
submarines 1937
wives 1937
Garcia 1936
Kerry 1936
SN@@ 1936
Use 1936
happens 1936
liked 1936
Adrian 1935
CF 1935
ein@@ 1935
fire@@ 1935
ide@@ 1935
Chemistry 1934
Lind@@ 1934
Bolton 1933
Counties 1933
Providence 1933
anism 1933
memories 1933
ss@@ 1933
surveillance 1933
Animal 1932
mechanics 1932
run@@ 1932
Call 1931
Chan 1931
Floyd 1931
gameplay 1931
mask 1931
struggles 1931
trailer 1931
tures 1931
Cancer 1930
Marshal 1930
Under@@ 1930
ancestors 1930
rid@@ 1930
voluntary 1930
dining 1929
divine 1929
schemes 1929
Associated 1928
rol@@ 1928
sworn 1928
ules 1928
Alt@@ 1927
Hawaiian 1927
Roll 1927
Sud@@ 1927
reflects 1927
Stri@@ 1926
Thomson 1926
dar 1926
inquiry 1926
transmitted 1926
SD@@ 1925
Terminal 1925
ction 1925
sued 1925
Border 1924
Law@@ 1924
Pay@@ 1924
Sara 1924
cus 1924
dan@@ 1924
play@@ 1924
uh@@ 1924
1825 1923
defines 1923
editors 1923
paved 1923
BB@@ 1922
avoided 1922
coordinates 1922
descended 1922
Bolivia 1921
Goo@@ 1920
rowing 1920
CN@@ 1918
Dim@@ 1918
Ek@@ 1918
Leipzig 1918
Sometimes 1918
hiding 1918
translator 1918
Karnataka 1917
LLC 1917
PL@@ 1917
Vernon 1917
aca 1917
flee 1917
gains 1917
Jorge 1916
Ear@@ 1915
enrollment 1915
ive 1915
Hell@@ 1914
descendant 1914
dialects 1914
drag 1914
strictly 1914
vaccine 1914
Sacramento 1913
bled 1913
heim 1913
oka 1913
Gerald 1912
achi 1912
acute 1912
combining 1912
mal 1912
18@@ 1911
AV@@ 1911
Sham@@ 1911
Zam@@ 1911
angry 1911
listening 1911
ple@@ 1910
Reagan 1909
colleague 1909
eller 1909
guidelines 1909
104 1908
Chennai 1908
decorative 1908
equity 1908
haven 1908
realistic 1908
sand@@ 1908
screening 1908
Sag@@ 1907
Thir@@ 1907
Electronic 1906
Graduate 1906
anch@@ 1906
sar@@ 1906
settling 1906
ule 1906
1.8 1905
1828 1905
8,000 1905
Cumberland 1905
Heavyweight 1905
Partners 1905
Sex 1905
busy 1905
dancers 1905
electronics 1905
missiles 1905
rode 1905
Archives 1904
Downtown 1904
Fel@@ 1904
Gay 1904
hara 1904
livestock 1904
realizes 1904
licence 1903
lighter 1903
olog@@ 1903
spectators 1903
Alb@@ 1902
Cloud 1902
Jacksonville 1902
anthology 1902
beta 1902
keyboard 1902
pressed 1902
fabric 1901
ord 1901
invention 1900
Ferry 1899
Linux 1899
Rot@@ 1899
couldn 1899
net@@ 1899
similarities 1899
tornado 1899
Derek 1898
Marriage 1898
bicycle 1898
exercises 1898
fil@@ 1898
shortened 1898
trace 1898
aesthetic 1897
aru 1897
ignored 1897
.A. 1896
Casey 1896
advocacy 1896
bigger 1896
celebrity 1896
enhance 1896
portfolio 1896
seemingly 1896
subtropical 1896
Herman 1895
fal@@ 1895
floating 1895
ghost 1895
indie 1895
sburg 1895
wingspan 1895
1810 1894
Maxwell 1894
canceled 1894
dust 1894
excluded 1893
goddess 1893
strain 1893
Below 1892
chains 1892
costume 1891
Lag@@ 1890
clergy 1890
wound 1890
200,000 1889
Buck@@ 1889
Lud@@ 1888
cruise 1888
differential 1888
garage 1888
nec@@ 1888
oh 1888
Basel 1887
Webb 1887
diamond 1887
swing 1887
tasked 1887
IF 1886
Sv@@ 1886
Wei 1886
commanders 1886
leather 1886
meth@@ 1886
seasonal 1886
servants 1886
Bulldogs 1885
Mail 1885
Stories 1885
collegiate 1885
mas 1885
Internal 1884
Phase 1884
Rica 1884
ML@@ 1883
Mind 1883
eti 1883
Telegraph 1882
peaceful 1882
swept 1882
Denis 1881
adds 1881
Battery 1880
Santo 1880
differs 1880
Č@@ 1880
Ming 1879
Origin 1879
UTC 1879
computing 1879
engaging 1879
Duchy 1878
chlor@@ 1878
fat 1878
lith@@ 1878
websites 1878
Match 1877
lex 1877
replied 1877
sunk 1877
Stan 1876
fy 1876
struggling 1876
38@@ 1875
UCLA 1875
coupled 1875
legitimate 1875
10,@@ 1874
Bruno 1874
Cave 1874
Heavy 1874
Laws 1874
Madagascar 1874
Tales 1874
Things 1874
ump@@ 1874
Buddha 1873
Tanzania 1873
abbreviated 1873
bio@@ 1873
García 1872
Papua 1872
Plat@@ 1872
penalties 1872
retaining 1872
suffer 1872
tal 1872
udi@@ 1872
var 1872
10.@@ 1871
bats 1871
resign 1871
urs 1871
uss@@ 1871
vely 1871
Worcester 1870
ack@@ 1870
burgh 1870
filmmaker 1870
ian@@ 1870
Fiji 1869
capturing 1869
fur 1869
investments 1869
lee 1869
airs 1868
hunt 1868
ista 1868
vor@@ 1868
discharge 1867
playwright 1867
revealing 1867
thi 1867
plaque 1866
High@@ 1865
Sti@@ 1865
har 1865
ight 1865
impression 1865
len 1865
modes 1865
pin@@ 1865
seeded 1865
requests 1864
Dragons 1863
Il 1863
HP 1862
Hits 1862
Tibetan 1862
banner 1862
fan@@ 1862
Chil@@ 1861
Wings 1861
Zu@@ 1861
persuaded 1861
shrine 1861
1824 1860
Editor 1860
Winston 1860
Scots 1859
constituted 1859
expense 1859
Dixon 1858
Excellence 1858
Rafael 1858
Senators 1858
atomic 1858
inception 1858
pleasure 1858
Unfortunately 1857
archives 1857
monarchy 1857
shipped 1857
Hun@@ 1855
Lis@@ 1855
Rao 1855
Rifle 1855
SD 1855
constitute 1855
ety 1855
fault 1855
Kid 1854
Thunder 1854
designers 1854
epic 1854
Volunteer 1853
bat@@ 1853
enabling 1853
strange 1853
launching 1852
precise 1852
spreading 1852
stamps 1852
Fab@@ 1851
Ram 1851
ethics 1851
thirds 1851
vis 1851
Cob@@ 1850
Hardy 1850
LC 1850
develops 1850
onian 1850
photograph 1850
Luc@@ 1849
alignment 1849
correspondent 1849
fs 1849
ultimate 1849
rush 1848
wise 1848
Michelle 1847
Netflix 1847
SW@@ 1847
acids 1847
valve 1847
0.1 1846
Maharashtra 1846
Mar 1846
Norton 1846
bowling 1846
wer 1846
Mann 1845
amba 1845
lecture 1845
lip 1845
mouse 1845
proceed 1845
utes 1845
Highland 1844
Qing 1844
Siege 1844
addresses 1844
affiliation 1844
precipitation 1844
quiet 1844
tracking 1844
zu@@ 1844
Initiative 1843
Organisation 1843
excessive 1843
highlights 1843
nic@@ 1843
nor@@ 1842
sixty 1842
steady 1842
trapped 1842
ï@@ 1842
Flag 1841
Georgetown 1841
Meyer 1841
heroes 1841
kins 1841
Gibraltar 1840
Lynch 1840
Toyota 1840
akh@@ 1840
ave 1840
inscriptions 1840
parameters 1840
Good@@ 1839
Khal@@ 1839
band@@ 1839
sank 1839
senator 1839
sul@@ 1839
terrestrial 1839
Cass@@ 1838
Letters 1838
Walk 1838
pseud@@ 1838
unofficial 1838
Hampton 1837
nia 1837
rays 1837
én 1837
Sacred 1836
attained 1836
dium 1836
stained 1836
1829 1835
Greene 1835
Rain@@ 1835
&apos;an 1834
Pride 1834
Title 1834
berger 1834
book@@ 1834
determination 1834
sacrifice 1834
tongue 1834
presumably 1833
rant 1833
Democracy 1832
Dodgers 1832
Powers 1832
religions 1832
tract 1832
aunt 1831
medi@@ 1831
1813 1830
MVP 1830
SA@@ 1830
apa 1830
borg 1830
financing 1830
ills 1830
ox 1830
Ang@@ 1829
Def@@ 1829
Mercedes 1829
canton 1829
explaining 1829
resides 1829
Fa@@ 1828
Fra@@ 1828
cau@@ 1828
Civic 1827
Chapman 1826
Negro 1826
Synopsis 1826
Tunnel 1826
sometime 1826
Broncos 1825
Midland 1825
Sid@@ 1825
atta 1825
everyday 1825
peaking 1825
Hard 1824
PR@@ 1824
decisive 1824
garnered 1824
olds 1824
tonnes 1824
Potter 1823
Rams 1823
Sandy 1823
complications 1823
een 1823
ges@@ 1823
Coleman 1822
amino 1822
com 1822
dish 1822
identifying 1822
oversaw 1822
wartime 1822
Paper 1821
Talk 1821
crest 1821
delegate 1821
positioned 1821
qualities 1821
routine 1821
B.A. 1820
Chi 1820
landscapes 1820
loyalty 1820
tubes 1820
welcomed 1820
450 1819
Cav@@ 1819
Helena 1819
antly 1818
consolidated 1818
prolific 1818
sacked 1818
Griffin 1817
Sources 1817
posthumously 1817
sh 1817
Jets 1816
Recreation 1816
Timothy 1816
classroom 1816
communicate 1816
reversed 1816
Cambodia 1815
Carey 1815
commemorate 1815
wage 1815
Esp@@ 1813
Leon@@ 1813
Yet 1813
unanimous 1813
whatever 1813
Honda 1812
detention 1812
extant 1812
highlight 1812
Exeter 1811
Stro@@ 1811
beck 1811
ij@@ 1811
oval 1811
Lei@@ 1810
Ober@@ 1810
las 1810
modest 1810
realm 1810
sends 1810
Canton 1809
gh 1809
ont@@ 1809
upgrade 1809
Eli@@ 1808
lung 1808
possess 1808
quar@@ 1808
ulated 1808
Rog@@ 1807
ehouse 1807
foods 1807
Luther 1806
atha 1806
ification 1806
remember 1806
Castro 1805
Hou@@ 1805
effectiveness 1805
eton 1805
Alternative 1804
beats 1804
mandate 1804
1890s 1803
commit 1803
convince 1803
dynamics 1803
Baden 1802
Kashmir 1802
Saxony 1802
Vatican 1802
Visual 1802
immune 1802
intensive 1802
Guatemala 1801
boyfriend 1801
freshwater 1801
prop@@ 1801
regards 1801
Crime 1800
DR 1800
Hawks 1800
infant 1800
quarterfinals 1800
sing@@ 1800
1806 1799
continuation 1799
rocky 1799
ru 1799
securing 1798
sovereignty 1798
Co. 1797
Ep@@ 1797
Flor@@ 1797
Philippe 1797
affecting 1797
ences 1797
103 1796
favored 1796
sandstone 1796
striker 1796
supervised 1796
tering 1796
Hannah 1795
Montenegro 1795
mentor 1795
Gang@@ 1794
Hir@@ 1794
Kay 1794
advances 1794
gri@@ 1794
Rein@@ 1793
ald 1793
demolition 1793
dge 1793
gather 1793
hap@@ 1793
reformed 1793
technological 1793
Sau@@ 1792
bush 1792
Gas 1791
Kha@@ 1791
Roads 1791
annexed 1791
soci@@ 1791
Morton 1790
Rules 1790
nu@@ 1790
quantities 1790
republic 1790
1818 1789
Concert 1789
Jag@@ 1789
Nicolas 1789
RT 1789
Underground 1789
competitor 1789
fri@@ 1789
past@@ 1789
Brun@@ 1788
Czechoslovakia 1788
Fac@@ 1788
TO@@ 1788
jumping 1788
progressed 1788
detective 1787
expertise 1787
lacking 1787
skaya 1787
sta@@ 1787
tan@@ 1787
translations 1787
Eur@@ 1786
Roberto 1786
SB 1786
WW@@ 1786
chronic 1786
geography 1786
isms 1786
skiing 1786
strongest 1786
Ana 1785
Boo@@ 1785
Jackie 1785
Soundtrack 1785
Swan 1785
Turks 1785
functioning 1785
modifications 1785
sanctuary 1785
stad 1785
torture 1785
Colombian 1784
Davidson 1784
ares 1784
hoping 1784
prizes 1784
Hav@@ 1783
Kay@@ 1783
encoded 1783
encounters 1783
Norwich 1782
Gandhi 1781
commentator 1781
iser 1781
Paramount 1780
cruiser 1780
mild 1780
remake 1780
Dawn 1779
combine 1779
cyclone 1779
neg@@ 1779
Embassy 1778
asses 1778
contestant 1778
cuisine 1778
fitness 1778
imaging 1778
squadrons 1778
sville 1778
BO@@ 1777
Fran@@ 1777
accepting 1777
displaced 1777
scholarly 1777
108 1776
Hak@@ 1776
Rub@@ 1776
Lima 1775
abundant 1775
beside 1774
bomber 1774
migrated 1774
1826 1773
Albion 1773
Pink 1773
Rule 1773
Winners 1772
cultivated 1772
dus 1772
grammar 1772
woodland 1772
Sund@@ 1771
applies 1771
corridor 1771
ideology 1771
oll@@ 1771
Appeal 1770
Glacier 1770
Hermann 1770
overs 1770
resemble 1770
Adolf 1769
López 1768
morph@@ 1768
oxide 1768
statues 1768
Cran@@ 1767
Inspector 1767
Marsh 1767
Tap@@ 1767
nerve 1767
bes 1766
ingen 1766
reward 1766
teaches 1766
ulate 1766
lier 1765
otes 1765
rats 1765
surprised 1765
tan 1765
ș@@ 1765
е@@ 1765
Cities 1764
Fight 1764
interactive 1764
ishi 1764
111 1763
Georg 1763
Janet 1763
Latvia 1763
Madras 1763
Mall@@ 1763
incorporate 1763
lac@@ 1763
suited 1763
Og@@ 1762
adventures 1762
etics 1762
oko 1762
Bau@@ 1761
Carson 1761
Haiti 1761
Nothing 1761
age@@ 1761
expenses 1761
hiatus 1761
trustees 1761
Homer 1760
Kirk 1760
Toledo 1760
Tw@@ 1760
Yak@@ 1760
icon 1760
integrity 1760
tap@@ 1760
violations 1760
6.5 1759
Lyn@@ 1759
expired 1759
traced 1759
uniforms 1759
106 1758
Kis@@ 1758
Alberto 1757
Card 1757
GP@@ 1757
GT@@ 1757
Got 1757
aris 1757
pub 1757
raced 1757
Pau@@ 1756
Xavier 1756
aft 1756
bark 1756
gifts 1756
humor 1756
Lou 1755
MHz 1755
tru@@ 1755
MT@@ 1754
sentences 1754
Ashley 1753
Cologne 1753
gens 1753
interact 1753
remarked 1753
atively 1752
compatible 1752
fare 1752
substantially 1752
totally 1752
Jeffrey 1751
Sporting 1751
arg@@ 1751
consulting 1751
matched 1751
1.7 1750
agu@@ 1750
linguistic 1750
suggestion 1750
Analysis 1749
Grand@@ 1749
Hoo@@ 1749
Xbox 1749
Yas@@ 1749
ason 1749
eleventh 1749
1.0 1748
NR@@ 1748
Tit@@ 1748
racism 1748
Ç@@ 1748
Rally 1747
Slovak 1747
harsh 1747
neo 1747
Boy@@ 1746
Mann@@ 1746
Zar@@ 1746
alle@@ 1746
complained 1746
financed 1746
systematic 1746
thoughts 1746
30th 1745
Fletcher 1745
Gardner 1745
Cla@@ 1744
Naz@@ 1744
applying 1744
dimension 1744
lengthy 1744
anywhere 1743
organs 1743
stopping 1743
tales 1743
tends 1743
Acting 1742
employer 1742
Chad 1741
boo@@ 1741
chy 1741
sexually 1741
Brandon 1740
Deutsche 1740
Why 1740
BE@@ 1739
Ou@@ 1739
ender 1739
rope 1739
springs 1739
Hil@@ 1738
Trans 1738
.C. 1737
Cross@@ 1737
Singer 1737
aves 1737
yan@@ 1737
Ō@@ 1737
Alpine 1736
Jessica 1736
charitable 1736
freely 1736
quantity 1736
remnants 1736
Belle 1735
Freeman 1735
Northwestern 1735
SO 1735
Sidney 1735
Wit@@ 1735
cla@@ 1735
melody 1735
Aw@@ 1734
Patricia 1734
adequate 1734
cartoon 1734
cc 1734
cle@@ 1734
itic 1734
ring@@ 1734
Achievement 1733
Arm@@ 1733
Slam 1733
Tem@@ 1733
defining 1733
evacuated 1733
finishes 1733
isolation 1733
ès 1733
Bundesliga 1732
Low@@ 1732
Motion 1732
Afterwards 1731
AllMusic 1731
Katherine 1731
O.@@ 1731
bits 1731
demonstrations 1731
domains 1731
emphasized 1731
lov@@ 1731
mixing 1731
nel 1731
5.5 1730
chers 1730
countryside 1730
enormous 1730
finest 1730
lots 1730
sitcom 1730
Baroque 1729
Nay@@ 1729
Truth 1729
Ve@@ 1729
mirror 1729
monarch 1729
occupy 1729
soils 1729
unified 1729
limitations 1728
oria 1728
osaurus 1728
pretty 1728
Engineer 1727
Munster 1727
Sheikh 1727
Spec@@ 1727
circum@@ 1727
coined 1727
phones 1727
shapes 1727
unemployment 1727
Adventures 1726
Away 1726
Riley 1726
approaching 1726
gin 1726
investigating 1726
lava 1726
radius 1726
FIBA 1725
Icelandic 1725
bred 1725
regained 1725
trademark 1725
armor 1724
blow 1724
maiden 1724
reflecting 1724
Kak@@ 1723
Past 1723
aan 1723
demo 1723
distances 1723
evo 1723
sam@@ 1723
uki 1723
Macedonian 1722
Rah@@ 1722
abbey 1722
tactical 1722
1801 1721
220 1721
Corn@@ 1721
ISO 1721
Kyiv 1721
Russians 1721
autonomy 1721
bias 1721
dev@@ 1721
hot@@ 1721
operative 1721
posed 1721
Composition 1720
bol@@ 1720
cant@@ 1720
dozens 1720
ira@@ 1720
sprint 1720
Clare 1719
Historically 1719
Swe@@ 1719
lus 1719
succeeding 1719
teenager 1719
Aviv 1718
FF@@ 1718
cher@@ 1718
mood 1718
Blu@@ 1717
Europa 1717
Jenkins 1717
Malay 1717
Male 1717
Maya 1717
Ox@@ 1717
lav@@ 1717
metals 1717
otti 1717
talented 1717
celebrities 1716
fatal 1716
interred 1716
mistake 1716
submit 1716
.D. 1715
Bergen 1715
oids 1715
è@@ 1715
Hei@@ 1714
blamed 1714
damages 1714
humanitarian 1714
mothers 1714
path@@ 1714
repeat 1714
scripts 1714
Sharon 1713
complaint 1713
screenwriter 1713
sha@@ 1713
Auburn 1712
ente 1712
torn 1712
Bes@@ 1711
Drug 1711
Ultimate 1711
atics 1711
bu 1711
hem@@ 1711
textile 1711
Origins 1710
chan@@ 1710
iga 1710
myth 1710
supposedly 1710
vers@@ 1710
Consequently 1709
Sap@@ 1709
Vid@@ 1709
aut 1709
contrary 1709
gal@@ 1709
wireless 1709
Plains 1708
Rebecca 1708
detect 1708
encouraging 1708
ois 1708
patch 1708
suspect 1708
Coventry 1707
attractions 1707
locks 1707
DM@@ 1706
long@@ 1706
metric 1706
preference 1706
rian 1706
Ibrahim 1705
Lok 1705
erson 1705
ishes 1705
pound 1705
Bour@@ 1704
Churches 1704
teammates 1704
Canberra 1703
Monastery 1703
Sally 1703
Webster 1703
flora 1703
miners 1703
portrayal 1703
Investment 1702
Johannes 1702
Tax 1702
planets 1702
Almost 1701
Dh@@ 1701
Heroes 1701
Nordic 1701
W.@@ 1701
disciplines 1701
implies 1701
stra 1701
Kid@@ 1700
Ministers 1700
albeit 1700
feared 1700
publicity 1700
ste 1700
Sophie 1699
Trevor 1699
ando 1699
facto 1699
fails 1699
keen 1699
pursuing 1699
tech 1699
Stefan 1698
Strong 1698
oner 1698
β 1698
2.1 1697
36@@ 1697
Randy 1697
filling 1697
irregular 1697
update 1697
Gon@@ 1696
Libya 1696
Non@@ 1696
Tang@@ 1696
att 1696
counsel 1696
frog 1696
typ@@ 1696
Adventure 1695
MIT 1695
Mrs 1695
UCI 1695
ons@@ 1695
Cho@@ 1694
HL 1694
Slavic 1694
halls 1694
inda 1694
powder 1694
teenage 1694
112 1693
7,000 1693
Caesar 1693
Cotton 1693
Pablo 1693
RBI 1693
Vy@@ 1693
divide 1693
feedback 1693
quet 1693
seventeen 1693
tak@@ 1693
EL@@ 1692
Wei@@ 1692
impacts 1692
jan@@ 1692
retro@@ 1692
Beautiful 1691
Erie 1691
Europeans 1691
River@@ 1691
Tag@@ 1691
exceptional 1691
unk@@ 1691
Iv@@ 1690
beaches 1690
designing 1690
ecological 1690
metro 1690
school@@ 1690
Gun 1689
L.@@ 1689
Sutton 1689
genome 1689
imm@@ 1689
ration 1689
CL@@ 1688
DP 1688
Yam@@ 1688
angles 1688
atop 1688
cross@@ 1688
knife 1688
Shiva 1687
silk 1687
Shane 1686
discography 1686
Crisis 1685
aring 1685
oop 1685
set@@ 1685
Constantine 1684
Roland 1684
dur@@ 1683
toxic 1683
115 1682
Hearts 1682
Titans 1682
weakened 1682
0,000 1681
Christine 1681
Gaz@@ 1681
Swift 1681
cast@@ 1681
cultivation 1681
determining 1681
peaks 1681
switching 1681
1819 1680
Sister 1680
anim@@ 1680
ko@@ 1680
а@@ 1680
Day@@ 1679
Tot@@ 1679
builder 1679
carefully 1679
heated 1679
rushed 1679
tiny 1679
ood 1678
Amar@@ 1677
Horn 1677
Kw@@ 1677
ensuing 1677
publishers 1677
twelfth 1677
Allies 1676
Joyce 1676
assessed 1676
cooling 1676
cyclist 1676
fix 1676
rus 1676
sign@@ 1676
GDP 1675
Stoke 1675
eps 1675
triangle 1675
Alexandra 1674
Helsinki 1674
Nazis 1674
mortality 1674
recommendation 1674
stead 1674
whi@@ 1674
.2@@ 1673
2.4 1673
Beau@@ 1673
Yard 1673
instructed 1673
mach@@ 1673
snails 1673
Evening 1672
Facilities 1672
Midlands 1672
Reds 1672
Sixth 1672
anticipated 1672
unt 1672
DF 1671
Gru@@ 1671
Pierce 1671
Rather 1671
SH@@ 1671
arcade 1671
comeback 1671
fa 1671
wal 1671
watershed 1671
109 1670
Kane 1670
conf@@ 1670
enne 1670
45@@ 1669
5000 1669
Jal@@ 1669
Seventh 1669
nevertheless 1669
22nd 1668
Tunisia 1668
agar 1668
ashing 1668
1809 1667
Tet@@ 1667
ba@@ 1667
isp@@ 1667
pump 1667
ulates 1667
Drew 1666
Performing 1666
ade@@ 1666
beings 1666
incomplete 1666
ort@@ 1666
oshi 1666
postal 1666
publishes 1666
tit@@ 1666
2.3 1665
Fields 1665
Liv@@ 1665
Open@@ 1665
Wak@@ 1665
destroyers 1665
emen 1665
itting 1665
Erik 1664
Hartford 1664
Sanders 1664
Stalin 1664
och 1664
py@@ 1664
TR@@ 1663
aja 1663
nervous 1663
personalities 1663
riot 1663
tendency 1663
uli 1663
Bob@@ 1662
Products 1662
clause 1662
console 1662
frontier 1662
generic 1662
attributes 1661
corporations 1661
smoking 1661
trunk 1661
Basic 1660
Metacritic 1660
Nah@@ 1660
duc@@ 1660
motivated 1660
negotiated 1660
ographer 1660
storms 1660
Holdings 1659
Rican 1659
della 1659
ny@@ 1659
paired 1659
polar 1659
Bin@@ 1658
Ner@@ 1658
ault 1658
contacted 1658
curator 1658
eville 1658
gn@@ 1658
shoots 1658
surveys 1658
Clo@@ 1657
N.@@ 1657
Trent 1657
Wonder 1657
asserted 1657
auto 1656
dens 1656
fever 1656
import 1656
PP 1655
cam@@ 1655
Boyd 1654
Rey 1654
balanced 1654
keeps 1654
nov@@ 1654
offshore 1654
phy@@ 1654
specially 1654
tively 1654
MI 1653
Mohamed 1653
doubled 1653
excluding 1652
overtime 1652
Zagreb 1651
auxiliary 1651
carriage 1651
lik@@ 1651
tended 1651
Arlington 1650
ga@@ 1650
valleys 1650
Dum@@ 1649
Monica 1649
dos 1649
memoir 1649
0.3 1648
Bron@@ 1648
Pand@@ 1648
armament 1648
dealer 1648
dramatically 1648
Cecil 1647
Conrad 1647
Til@@ 1647
amended 1647
asis 1647
spare 1647
Clyde 1646
abandon 1646
detained 1646
mus@@ 1646
traits 1646
ophone 1645
pioneering 1645
posting 1645
televised 1645
DB 1644
Galaxy 1644
cks 1644
deeper 1644
dreams 1644
128 1643
cement 1643
ll 1643
sufficiently 1643
Judaism 1642
Nash 1642
fake 1642
SR@@ 1641
ping 1641
sophomore 1641
1816 1640
Off@@ 1640
Wong 1640
aligned 1640
binary 1640
fr@@ 1640
imagery 1640
sun@@ 1640
tough 1640
Middlesex 1639
Nielsen 1639
breakthrough 1639
hab@@ 1639
modeling 1639
prevention 1639
undergo 1639
Cerambycidae 1638
Paradise 1638
Path@@ 1638
Tucker 1638
enes 1638
liberation 1638
ust 1638
alities 1637
brilliant 1637
cri@@ 1637
dedication 1637
uns 1637
ë 1637
Browns 1636
Collegiate 1636
Lig@@ 1636
Nin@@ 1636
SK 1636
andra 1636
eira 1636
flash 1636
unda 1636
González 1635
Nord@@ 1635
Worth 1635
archive 1635
cut@@ 1635
nucleus 1635
rite 1635
Hastings 1634
Islander 1634
Reservoir 1634
Vikings 1634
cycles 1634
forum 1634
inspection 1634
sailors 1634
teen 1634
Very 1633
ben 1633
competes 1633
Primera 1632
Viscount 1632
barely 1632
nit@@ 1632
protective 1632
strengthen 1632
Coaching 1631
Know 1631
Laz@@ 1631
Sus@@ 1631
UP 1631
alled 1631
ecclesiastical 1631
embedded 1631
subdivision 1631
Matthews 1630
Motors 1630
colon@@ 1630
esi 1630
eted 1630
eu@@ 1630
graves 1630
vs 1630
Antoine 1629
Gel@@ 1629
Normandy 1629
SF@@ 1629
satisfied 1629
13.@@ 1628
ambitious 1628
Hyderabad 1627
Mile 1627
snow@@ 1627
swimmer 1627
α@@ 1627
Conservatory 1626
Theological 1626
cad@@ 1626
phic 1626
whereby 1626
Agnes 1625
Inner 1625
Raion 1625
answered 1625
decommissioned 1625
heart@@ 1625
tured 1625
ume 1625
A1 1624
IB@@ 1624
ds@@ 1624
eries 1624
37@@ 1623
EP@@ 1623
Hassan 1623
Rotten 1623
aching 1623
expectations 1623
grouped 1623
resolve 1623
Progress 1622
accepts 1622
chemicals 1622
installations 1622
Cherry 1621
Geoffrey 1621
acceptable 1621
classrooms 1621
crystal 1621
exceptions 1621
matching 1621
nica 1621
pond 1621
villagers 1621
Philharmonic 1620
analog 1620
brass 1620
elin 1620
fiber 1620
ott@@ 1620
GC 1619
Malayalam 1619
ancestor 1619
ems 1619
leigh 1619
teachings 1619
Giuseppe 1618
Lun@@ 1618
Raw 1618
rag@@ 1618
sanctioned 1618
uchi 1618
1822 1617
1827 1617
Congressional 1617
Di 1617
Pir@@ 1617
Torres 1617
Winchester 1617
activism 1617
elia 1617
kur@@ 1617
1817 1616
2.2 1616
coll@@ 1616
pic@@ 1616
33@@ 1615
Beck 1615
Companies 1615
curves 1615
Cum@@ 1614
Imp@@ 1614
Leone 1614
alli 1614
emotions 1614
mann@@ 1614
resembles 1614
riots 1614
Neo 1613
employers 1613
speculation 1613
G.@@ 1612
Hand 1612
Omaha 1612
Traditional 1612
VFL 1612
agi 1612
analyst 1612
vel 1612
MB 1611
Parkway 1611
hyp@@ 1611
podcast 1611
½ 1611
Autonomous 1610
declining 1610
galleries 1610
illed 1610
Arabian 1609
ICC 1609
Jab@@ 1609
Lit@@ 1609
Mem@@ 1609
Psychology 1609
Quinn 1609
Ut@@ 1609
bays 1609
confined 1609
dell 1609
kal@@ 1609
porch 1609
wages 1609
1803 1608
Activities 1608
Jesuit 1608
MLS 1608
Roma 1608
accusations 1608
advantages 1608
cheese 1608
jin 1608
Dat@@ 1607
Nev@@ 1607
Oriental 1607
Pearson 1607
Strategic 1607
Uttar 1607
accessed 1607
aji 1607
collision 1607
ght 1607
intelligent 1607
kel@@ 1607
narrator 1607
thinks 1607
2010s 1606
34@@ 1606
Irving 1606
Mongolia 1606
Opposition 1606
Too 1606
promises 1606
relied 1606
spirits 1606
Dresden 1605
Newark 1605
Officers 1605
consequently 1605
oc 1605
processor 1605
pupil 1605
170 1604
24th 1604
Angola 1604
dial 1604
fortified 1604
module 1604
Mickey 1603
Pseud@@ 1603
bypass 1603
cannon 1603
deity 1603
stan@@ 1603
yearly 1603
Chin@@ 1602
algebra 1602
otta 1602
Applied 1601
Auto 1601
Beth 1601
Duchess 1601
Hyde 1601
Lif@@ 1601
Venezuelan 1601
cats 1601
executives 1601
receptors 1601
yle 1601
án@@ 1601
Cash 1600
Mosque 1600
anonymous 1600
darker 1600
Declaration 1599
Pool 1599
arium 1599
concentrations 1599
eaten 1599
laying 1599
low@@ 1599
vest@@ 1599
Indi@@ 1598
seated 1598
subjected 1598
Joy 1597
welcome 1597
CI 1596
Eg@@ 1596
Rising 1596
email 1596
1823 1595
Plain 1595
Ud@@ 1595
alpha 1595
kt@@ 1595
oons 1595
ories 1595
Inf@@ 1594
besides 1594
discussing 1594
employs 1594
outcomes 1594
plains 1594
Cao 1593
Cin@@ 1593
Len@@ 1593
Pall@@ 1593
additions 1593
bull 1593
circa 1593
framed 1593
judged 1593
rak@@ 1593
rick 1593
symbolic 1593
Android 1592
Der 1592
Eden 1592
Restoration 1592
Zoo 1592
confluence 1592
consumed 1592
Benedict 1591
Ethiopian 1591
hang 1591
incorporating 1591
.3@@ 1590
0.2 1590
CBC 1590
Sergeant 1590
Zo@@ 1590
immun@@ 1590
Face 1589
Gujarat 1589
Lindsay 1589
Llan@@ 1589
Reverend 1589
default 1589
insky 1589
motor@@ 1589
Ath@@ 1588
ceremonial 1588
filter 1588
irrigation 1588
pocket 1588
prevalent 1588
Basque 1587
Dag@@ 1587
Fashion 1587
encompasses 1587
purely 1587
relates 1587
rid 1587
sponsors 1587
verbs 1587
Patterson 1586
Wid@@ 1586
adviser 1586
blade 1586
gaming 1586
guitars 1586
itor 1586
pose 1586
vent@@ 1586
Hip 1585
clinic 1585
donation 1585
ffs 1585
insufficient 1585
marker 1585
pent@@ 1585
CB 1584
edy 1584
izes 1584
scor@@ 1584
spanning 1584
bly 1583
destinations 1583
rad@@ 1583
treatments 1583
ān 1583
Mess@@ 1582
aming 1582
deciding 1582
drops 1582
erk@@ 1582
marriages 1582
san 1582
tos 1582
KO@@ 1581
Kirk@@ 1581
ayan 1581
incorporates 1581
mans 1581
momentum 1581
ust@@ 1581
disability 1580
handful 1580
iana 1580
miss 1580
palm 1580
1793 1579
Hop 1579
Savage 1579
Shi 1579
Teachers 1579
asset 1579
clusters 1579
hen 1579
itive 1579
mur@@ 1579
onset 1579
person@@ 1579
rented 1579
sovereign 1579
Dudley 1578
Rang@@ 1578
capped 1578
forewings 1578
oga 1578
Flora 1577
bic@@ 1577
pathway 1577
yang 1577
ACC 1576
Andhra 1576
Angel@@ 1576
Laur@@ 1576
Lopez 1576
Mt 1576
cally 1576
halt 1576
rier 1576
s. 1576
wat@@ 1576
Innovation 1575
Pasha 1575
alistic 1575
bis 1575
emergence 1575
wagon 1575
1804 1574
23rd 1574
Rudolf 1574
choosing 1574
downstream 1574
loosely 1574
masses 1574
synthetic 1574
wounds 1574
Gang 1573
HBO 1573
Tracy 1573
acquiring 1573
alter 1573
aus@@ 1573
aver@@ 1573
counterpart 1573
stairs 1573
1794 1572
Wave 1572
compromise 1572
hurt 1572
occupying 1572
recruit 1572
relieved 1572
1811 1571
Carlton 1571
Dundee 1571
Flash 1571
minim@@ 1571
parody 1571
plat@@ 1571
rector 1571
unk 1571
NA@@ 1570
Prairie 1570
barn 1570
bla@@ 1570
lineage 1570
repaired 1570
revenues 1570
surgical 1570
Antwerp 1569
León 1569
12,@@ 1568
Boxing 1568
Brady 1568
Features 1568
Wanderers 1568
cellular 1568
chancellor 1568
chip 1568
privacy 1568
tens 1568
wreck 1568
Valencia 1567
Willis 1567
aha 1567
cked 1567
occupies 1567
resistant 1567
1,6@@ 1566
Folk 1566
loves 1566
orbital 1566
scrapped 1566
107 1565
GS 1565
Krist@@ 1565
financially 1565
Chambers 1564
FCC 1564
Ferrari 1564
PGA 1564
bourne 1564
shrub 1563
Abdullah 1562
Fat@@ 1562
Thur@@ 1562
lit@@ 1562
successes 1562
testified 1562
1870s 1561
Charity 1561
Cherokee 1561
Wade 1561
freed 1561
plan@@ 1561
rehabilitation 1561
rim 1561
sham 1561
Angela 1560
Gates 1560
Have 1560
Rebellion 1560
Scouts 1560
displacement 1560
guaranteed 1560
joy 1560
optional 1560
1,5@@ 1559
Acts 1559
Boat 1559
Braves 1559
commissions 1559
ethical 1559
pointing 1559
polls 1559
Cove 1558
Percy 1558
Variety 1558
feminine 1558
sleeping 1558
web@@ 1558
Christ@@ 1557
Let@@ 1557
borrowed 1557
erosion 1557
tallest 1557
Clinical 1556
chase 1556
gle 1556
gubernatorial 1556
Cubs 1555
iter 1555
Giant 1554
Shirley 1554
Taipei 1554
apur 1554
monk 1554
à@@ 1554
dances 1553
dive 1553
mapping 1553
painters 1553
Augusta 1552
Classification 1552
Lin 1552
enterprises 1552
hung 1552
mollusk 1552
Bang 1551
Bryant 1551
Down@@ 1551
Indeed 1551
Kaw@@ 1551
Kolkata 1551
Make 1551
Standing 1551
asia 1551
electorate 1551
factions 1551
labeled 1551
ment@@ 1551
recall 1551
Beauty 1550
Ham 1550
LS 1550
Marina 1550
arc@@ 1550
homeless 1550
purchasing 1550
Hour 1549
campuses 1549
governors 1549
shadow 1549
Lambert 1548
Supporting 1548
Tank 1548
lifting 1548
reflection 1548
sheets 1548
Cli@@ 1547
Hence 1547
chin 1547
cliff 1547
collectively 1547
derivative 1547
iTunes 1547
Yi 1546
Zh@@ 1546
collaborative 1546
combines 1546
evolutionary 1546
fe 1546
row@@ 1546
trans 1546
1807 1545
Du 1545
asing 1545
oman 1545
plasma 1545
Kut@@ 1544
asteroid 1544
foot@@ 1544
wel@@ 1544
Aqu@@ 1543
GE@@ 1543
complement 1543
extra@@ 1543
Eleanor 1542
Johan 1542
Kro@@ 1542
Thirty 1542
Word 1542
amer@@ 1542
athi 1542
catalogue 1542
hen@@ 1542
rup@@ 1542
throat 1542
tooth 1542
Filming 1541
Raf@@ 1541
Amanda 1540
Ost@@ 1540
commercials 1540
ede 1540
enables 1540
realize 1540
swe@@ 1540
Barack 1539
Tos@@ 1539
aud 1539
eley 1539
Carlisle 1538
Dav@@ 1538
Mixed 1538
Quarter 1538
faithful 1538
Eva 1537
Stre@@ 1537
deliberately 1537
uv@@ 1537
000 1536
Bangkok 1536
Benson 1536
Elite 1536
Fitz@@ 1536
alpine 1536
composite 1536
continuity 1536
councillors 1536
promotes 1536
stip@@ 1536
til@@ 1536
Call@@ 1535
Points 1535
Way@@ 1535
feat 1535
pension 1535
readily 1535
saves 1535
westward 1535
And@@ 1534
Burmese 1534
Id@@ 1534
Rahman 1534
eter@@ 1534
sealed 1534
Bulls 1533
Hau@@ 1533
Kre@@ 1533
conscious 1533
debris 1533
lob@@ 1533
pel@@ 1533
mond 1532
naked 1532
rey 1532
1,4@@ 1531
11,@@ 1531
Belt 1531
Leigh 1531
Venus 1531
gee 1531
mak@@ 1531
Las@@ 1530
Pitt 1530
ands 1530
diploma 1530
interval 1530
oides 1530
1795 1529
Brigadier 1529
Cameroon 1529
Cunningham 1529
Shim@@ 1529
contractor 1529
dil@@ 1529
dissertation 1529
mice 1529
wrestlers 1529
capit@@ 1528
counterparts 1528
hunter 1528
oku 1528
stal@@ 1528
vegetables 1528
Jin@@ 1527
Power@@ 1527
averaging 1527
holdings 1527
lay@@ 1527
participant 1527
Alfonso 1526
Bass 1526
Christie 1526
Emirates 1526
McCarthy 1526
Rac@@ 1526
mutations 1526
phenomena 1526
stock@@ 1526
Archdiocese 1525
Coal 1525
Gaza 1525
comfortable 1525
ern 1525
pass@@ 1525
Often 1524
Rodríguez 1524
Sinclair 1524
Tibet 1524
suite 1524
tempo 1524
1805 1523
Clarence 1523
Murder 1523
ation@@ 1523
trim 1523
Carr 1522
Cedar 1522
Guar@@ 1522
Num@@ 1522
Roman@@ 1522
antenna 1522
employ 1522
sou@@ 1522
statute 1522
Alps 1521
BL 1521
Beverly 1521
Superman 1521
rides 1521
Bry@@ 1520
Jerome 1520
Mad 1520
Maur@@ 1520
any@@ 1520
eson 1520
lah 1520
magical 1520
ras@@ 1520
trilogy 1520
47@@ 1519
Barton 1519
Pass@@ 1519
licensing 1519
primitive 1519
rah 1519
shooter 1519
tham 1519
1808 1518
ER 1518
Hydro@@ 1518
Known 1518
Promotion 1518
Sed@@ 1518
ecology 1518
guy 1518
physicians 1518
vault 1518
Carmen 1517
Lang 1517
Rich@@ 1517
Sub 1517
algorithms 1517
alley 1517
atoms 1517
commands 1517
cooperative 1517
documentation 1517
frequencies 1517
lightweight 1517
mud 1517
oath 1517
transcription 1517
zen 1517
Aston 1516
ME 1516
Osaka 1516
Raj 1516
Tonight 1516
associates 1516
ingredients 1516
meal 1516
princess 1516
shoes 1516
Credit 1515
Klein 1515
Mining 1515
affects 1515
cum 1514
explicit 1514
ili 1514
ú 1514
Yemen 1513
finalists 1513
lor@@ 1513
pun@@ 1513
Ipswich 1512
Shan@@ 1512
Shire 1512
dishes 1512
feud 1512
infections 1512
lacks 1512
portal 1512
repertoire 1512
CM 1511
JR 1511
PT@@ 1511
Veterans 1511
afford 1511
ocks 1511
partisan 1511
Fen@@ 1510
Porto 1510
cru@@ 1510
reside 1510
safely 1510
Lorenzo 1509
Von 1509
Wer@@ 1509
atsu 1509
columnist 1509
foster 1509
stripped 1509
vac@@ 1509
Bermuda 1508
Coastal 1508
Era 1508
Fun@@ 1508
Iz@@ 1508
Lt. 1508
Sing@@ 1508
helicopters 1508
strengthened 1508
AAA 1507
Arn@@ 1507
Reformed 1507
Schmidt 1507
breakdown 1507
institutional 1507
Meeting 1506
Mei@@ 1506
Ric@@ 1506
hire 1506
nonprofit 1506
Tou@@ 1505
Ze@@ 1505
apping 1505
excavated 1505
hierarchy 1505
pseudonym 1505
rel 1505
sz@@ 1505
Architects 1504
Calcutta 1504
Sli@@ 1504
economist 1504
robin 1504
tide 1504
Dj@@ 1503
Nem@@ 1503
anic 1503
explosive 1503
fauna 1503
uncommon 1503
Carpenter 1502
Fire@@ 1502
Kuwait 1502
catcher 1502
chiefs 1502
rub@@ 1502
transactions 1502
undefeated 1502
39@@ 1501
Dawson 1501
Doyle 1501
McG@@ 1501
PS@@ 1501
breach 1501
pistol 1501
reduces 1501
Clement 1500
Pratt 1500
Salisbury 1500
ono 1500
preparations 1500
trends 1500
Sek@@ 1499
creatures 1499
paternal 1499
qi 1499
sodium 1499
specializing 1499
1802 1498
Anniversary 1498
Investigation 1498
Kiss 1498
Rol@@ 1498
Warwick 1498
advocates 1498
atmospheric 1498
ballad 1498
elt@@ 1498
rifles 1498
Gloucester 1497
combe 1497
dairy 1497
declaring 1497
lev@@ 1497
lunar 1497
memorable 1497
negotiate 1497
proportional 1497
Made 1496
Screen 1496
amy 1496
forts 1496
hair@@ 1496
molecule 1496
practicing 1496
singular 1496
smart 1496
Parade 1495
Peterson 1495
medalist 1495
migrants 1495
Baghdad 1494
ES 1494
Hansen 1494
Hed@@ 1494
Row@@ 1494
amed 1494
cancellation 1494
coordinated 1494
courtyard 1494
lighthouse 1494
nationality 1494
numbering 1494
tumor 1494
yon 1494
Eyes 1493
Lep@@ 1493
Resolution 1493
Universities 1493
inmates 1493
transfers 1493
&apos;Neill 1492
.S. 1492
Kah@@ 1492
Nau@@ 1492
submerged 1492
AE@@ 1491
Ever@@ 1491
Lie@@ 1491
Squ@@ 1491
inheritance 1491
localities 1491
physicist 1491
spans 1491
threshold 1491
unnamed 1491
Countess 1490
Gen. 1490
Phillip 1490
Riverside 1490
Tah@@ 1490
dose 1490
minorities 1490
tips 1490
CL 1489
Genesis 1489
Plan@@ 1489
UT@@ 1489
ike 1489
inflation 1489
minerals 1489
motto 1489
operas 1489
pillars 1489
submission 1489
triangular 1489
1792 1488
chin@@ 1488
iling 1488
roman@@ 1488
135 1487
Det@@ 1487
Hey@@ 1487
Paraguay 1487
Sug@@ 1487
excavations 1487
ility 1487
marathon 1487
ovic 1487
rejoined 1487
sav@@ 1487
1798 1486
Comic 1486
Turin 1486
facial 1486
iconic 1486
lag@@ 1486
part@@ 1486
survives 1486
Din 1485
Re 1485
Volleyball 1485
atum 1485
bedroom 1485
fli@@ 1485
len@@ 1485
natur@@ 1485
opsis 1485
plantations 1485
rea 1485
slogan 1485
suffrage 1485
Cheshire 1484
Engine 1484
wholly 1484
3.0 1483
Barn@@ 1483
Lab 1483
Latvian 1483
Wild@@ 1483
anthem 1483
canon 1483
fol@@ 1483
moist 1483
shar@@ 1483
Kes@@ 1482
arius 1482
Devils 1481
dragon 1481
ensuring 1481
exploring 1481
rituals 1481
CNN 1480
Fitzgerald 1480
Tehran 1480
discharged 1480
mathematician 1480
Antarctica 1479
Gustav 1479
Pier@@ 1479
Samoa 1479
Unity 1479
bottle 1479
cing 1479
coun@@ 1479
omi 1479
transaction 1479
exploitation 1478
summers 1478
zation 1478
Bhar@@ 1477
Flanders 1477
Greeks 1477
choices 1477
eno 1477
rolled 1477
villain 1477
&apos;Connor 1476
1790 1476
Hanover 1476
flexible 1476
sings 1476
specialty 1476
tunnels 1476
3.3 1475
surpassed 1475
wers 1475
Airways 1474
Cau@@ 1474
Evangelical 1474
arches 1474
http 1474
vy 1474
Names 1473
Pag@@ 1473
Piano 1473
Tomatoes 1473
eagle 1473
esa 1473
excellence 1473
ios 1473
Chap@@ 1472
Domin@@ 1472
Waterloo 1472
compliance 1472
fra@@ 1472
pet 1472
pools 1472
reconstructed 1472
ô@@ 1472
ū 1472
BR@@ 1471
Net 1471
edly 1471
lifelong 1471
listen 1471
power@@ 1471
tics 1471
underway 1471
Agu@@ 1470
Bucharest 1470
Howe 1470
aco 1470
stamp 1470
1.9 1469
Normal 1469
Squad 1469
aram 1469
delays 1469
inventor 1469
juvenile 1469
ky@@ 1469
merge 1469
prose 1469
vowel 1469
BR 1468
Elder 1468
Foot 1468
Ranger 1468
nationalism 1468
warriors 1468
Mou@@ 1467
Peruvian 1467
addressing 1467
ests 1467
floods 1467
hurst 1467
Andreas 1466
Steelers 1466
anese 1466
chen 1466
detached 1466
healing 1466
pending 1466
percussion 1466
uf@@ 1466
DI 1465
Kav@@ 1465
Stuttgart 1465
comparing 1465
hn@@ 1465
inj@@ 1465
spy 1465
steal 1465
notation 1464
stressed 1464
structured 1464
superintendent 1464
theological 1464
IN 1463
arise 1463
calcium 1463
ick@@ 1463
sophisticated 1463
transferring 1463
1,3@@ 1462
11.@@ 1462
Barker 1462
FO@@ 1462
Math@@ 1462
criminals 1462
dly 1462
evacuation 1462
harassment 1462
instituted 1462
lex@@ 1462
methyl@@ 1462
picks 1462
praising 1462
adian 1461
anes 1461
exiled 1461
holidays 1461
lar 1461
lesbian 1461
refugee 1461
3.2 1460
Moss 1460
Vol 1460
atives 1460
grossing 1460
Australians 1459
Barrett 1459
René 1459
Ski 1459
Thr@@ 1459
assuming 1459
spra@@ 1459
uted 1459
Conservatives 1458
HO@@ 1458
USC 1458
pipeline 1458
wanting 1458
Apostolic 1457
Isabella 1457
Mikhail 1457
Nationals 1457
Peters 1457
Semi 1457
UR@@ 1457
aea 1457
costumes 1457
Elisabeth 1456
Gloria 1456
Na 1456
correctly 1456
explores 1456
injection 1456
Cay@@ 1455
Packers 1455
Was 1455
asts 1455
corners 1455
delivering 1455
igu@@ 1455
loses 1455
plots 1455
Ranch 1454
enb@@ 1454
vacuum 1454
IL@@ 1453
Perkins 1453
Tan 1453
boost 1453
councillor 1453
dioxide 1453
eded 1453
flooded 1453
globe 1453
marginal 1453
pressing 1453
ub 1453
Applications 1452
Basi@@ 1452
Citizens 1452
Falcons 1452
Germanic 1452
Marcos 1452
Tell 1452
bags 1452
gambling 1452
granddaughter 1452
hard@@ 1452
ib 1452
innocent 1452
phil@@ 1452
residences 1452
wells 1452
Territorial 1451
Vista 1451
sig@@ 1451
1860s 1450
80s 1450
Lankan 1450
ador 1450
burst 1450
edo 1450
omin@@ 1450
skoye 1450
Sutherland 1449
defenders 1449
gospel 1449
ual 1449
113 1448
Weber 1448
fixture 1448
generals 1448
kidnapped 1448
presidents 1448
pushing 1448
schooling 1448
sexuality 1448
visitor 1448
2.7 1447
3.1 1447
Clayton 1447
Joey 1447
NT 1447
agan 1447
apple 1447
enda 1447
ower 1447
prospect 1447
ă 1447
Jupiter 1446
Was@@ 1446
descriptions 1446
talents 1446
Berg@@ 1445
Frank@@ 1445
Monster 1445
Smart 1445
Stop 1445
bells 1445
depend 1445
ensi@@ 1445
heter@@ 1445
humid 1445
ister 1445
jur@@ 1445
kidney 1445
po 1445
sketch 1445
timing 1445
Blu 1444
Bo 1444
Ha 1444
Hague 1444
Ing@@ 1444
Lum@@ 1444
Noah 1444
Stand 1444
Travis 1444
demonstrating 1444
ew 1444
exam 1444
observers 1444
phosphate 1444
underwater 1444
Constituency 1443
Controversy 1443
Pius 1443
conventions 1443
eponymous 1443
outlet 1443
theft 1443
Fle@@ 1442
Vor@@ 1442
expect 1442
iner 1442
para 1442
partnerships 1442
screens 1442
val 1442
vik 1442
Evil 1441
Hammond 1441
Phot@@ 1441
Shannon 1441
alt@@ 1441
bility 1441
cell@@ 1441
oud 1441
outskirts 1441
postseason 1441
remarks 1441
tis 1441
Atlas 1440
BP 1440
coordinate 1440
emia 1440
exports 1440
kh 1440
targeting 1440
tet@@ 1440
tot@@ 1440
virtue 1440
Mic@@ 1439
escapes 1439
forested 1439
processed 1439
sac@@ 1439
trauma 1439
worm 1439
CW 1438
Jos@@ 1438
Sports@@ 1438
accidents 1438
anas 1438
goal@@ 1438
ouse 1438
plateau 1438
similarity 1438
ño 1438
Preservation 1437
Sales 1437
convent 1437
profitable 1437
weed 1437
1,8@@ 1436
Avi@@ 1436
Dee 1436
Ecology 1436
Jakarta 1436
RCA 1436
Tracks 1436
Vall@@ 1436
altogether 1436
dominance 1436
ener 1436
niece 1436
precision 1436
zer@@ 1436
Fort@@ 1435
Pole 1435
Reich 1435
Wheeler 1435
ater@@ 1435
ka@@ 1435
loads 1435
oor 1435
tragedy 1435
upstream 1435
Governorate 1434
tag@@ 1434
uff 1434
ا@@ 1434
Marketing 1433
Neur@@ 1433
acks 1433
akers 1433
andi 1433
ê@@ 1433
Arc@@ 1432
Beat 1432
Conc@@ 1432
abundance 1432
advertisements 1432
persecution 1432
reorganized 1432
Better 1431
Fork 1431
Hours 1431
Int@@ 1431
button 1431
captained 1431
positively 1431
vir@@ 1431
Zhou 1430
complexes 1430
examine 1430
fence 1430
mascot 1430
observe 1430
Challenger 1429
Das 1429
Expressway 1429
Holly 1429
accumulated 1429
airports 1429
dic 1429
elles 1429
motorway 1429
triggered 1429
1789 1428
BMW 1428
Highlands 1428
Honors 1428
Rita 1428
heavier 1428
theatres 1428
thrust 1428
trigger 1428
unanimously 1428
wara 1428
Brit@@ 1427
Pak@@ 1427
akin 1427
anders 1427
cer 1427
debates 1427
ime 1427
creature 1426
endra 1426
tones 1426
warrant 1426
agn@@ 1425
gon@@ 1425
steering 1425
Omar 1424
ination 1424
polo 1424
ux 1424
Trial 1423
Wesley 1423
blast 1423
grandchildren 1423
nitrogen 1423
pipes 1423
subdivided 1423
Valentine 1422
amid 1422
bay@@ 1422
feast 1422
itch 1422
nice 1422
Catholicism 1421
Present 1421
Ps 1421
aling 1421
avoiding 1421
charging 1421
folding 1421
pride 1421
retains 1421
ually 1421
Bug@@ 1420
Canon 1420
Rouge 1420
Selected 1420
catches 1420
iz 1420
nis 1420
ods 1420
overnight 1420
1,7@@ 1419
Eu@@ 1419
Gazette 1419
Jenny 1419
Mov@@ 1419
Recordings 1419
Ricky 1419
U. 1419
cleaning 1419
cow@@ 1419
ladies 1419
predators 1419
tee 1419
Catalan 1418
DM 1418
Mirror 1418
attitudes 1418
podium 1418
Á@@ 1418
300,000 1417
Criticism 1417
Leopold 1417
PBS 1417
Standards 1417
elo 1417
hin 1417
natives 1417
odds 1417
roller 1417
Chan@@ 1416
Elena 1416
duet 1416
waived 1416
wald 1416
Aber@@ 1415
Algerian 1415
Lily 1415
Sul@@ 1415
caves 1415
chances 1415
chicken 1415
folklore 1415
fuselage 1415
spatial 1415
tenants 1415
tenor 1415
warehouse 1415
Bihar 1414
Habitat 1414
Rain 1414
appointments 1414
bitter 1414
keyboards 1414
rab@@ 1414
realism 1414
speeches 1414
batsman 1413
coordination 1413
hammer 1413
listeners 1413
Isles 1412
inform 1412
mountainous 1412
Khar@@ 1411
Petro@@ 1411
Ris@@ 1411
blocking 1411
lords 1411
occurrence 1411
2,500 1410
XII 1410
ft@@ 1410
rach@@ 1410
traders 1410
accounted 1409
controller 1409
heavyweight 1409
listings 1409
lon@@ 1409
oting 1409
oul@@ 1409
phi@@ 1409
suspects 1409
whenever 1409
1796 1408
Cand@@ 1408
HR 1408
II@@ 1408
Maple 1408
alphabet 1408
congress 1408
ego 1408
possessions 1408
prominently 1408
Buck 1407
EA 1407
Infrastructure 1407
Manning 1407
Sle@@ 1407
WH@@ 1407
WT@@ 1407
broadly 1407
campaigned 1407
midnight 1407
satellites 1407
117 1406
12,000 1406
Plate 1406
Rapids 1406
arti@@ 1406
erie 1406
fears 1406
underneath 1406
unexpected 1406
violated 1406
Assam 1405
Beh@@ 1405
ED 1405
Eng@@ 1405
Hit@@ 1405
Teaching 1405
ahan 1405
aq 1405
candidacy 1405
expressing 1405
harbor 1405
sho@@ 1405
Augustine 1404
Donna 1404
Fu 1404
Tex@@ 1404
bler 1404
gable 1404
nat@@ 1404
nell 1404
selective 1404
Cann@@ 1403
Lec@@ 1403
ader 1403
afterward 1403
pec@@ 1403
tica 1403
viable 1403
ü@@ 1403
Bill@@ 1402
Cord@@ 1402
Form@@ 1402
Mick 1402
Pond 1402
admiral 1402
announcing 1402
pageant 1402
13,@@ 1401
Dru@@ 1401
Everything 1401
Pac 1401
Pis@@ 1401
SV 1401
Tun@@ 1401
Walton 1401
appeals 1401
decorations 1401
diary 1401
opp@@ 1401
unaware 1401
Blackburn 1400
Cal 1400
Nord 1400
Technologies 1400
Tin@@ 1400
Whilst 1400
adjoining 1400
bal 1400
lap@@ 1400
rebranded 1400
treating 1400
2.8 1399
Emmanuel 1399
Shepherd 1399
ani@@ 1399
eline 1399
elt 1399
Fischer 1398
Ped@@ 1398
detachment 1398
issa 1398
lasts 1398
Josef 1397
concludes 1397
modification 1397
nam 1397
undergoing 1397
Fuller 1396
Marx 1396
Pioneer 1396
Taliban 1396
ape 1396
defeats 1396
maj@@ 1396
pa@@ 1396
uka 1396
Greenwich 1395
Mets 1395
Ruby 1395
Sophia 1395
Commodore 1394
Honduras 1394
academics 1394
dom 1394
extraction 1394
hiking 1394
introduces 1394
quest 1394
Sunderland 1393
Yan 1393
anxiety 1393
monster 1393
oke 1393
90s 1392
Harlem 1392
syndicated 1392
Bowie 1391
Tha@@ 1391
burnt 1391
fraction 1391
passive 1391
sum@@ 1391
Con 1390
Dictionary 1390
barracks 1390
bes@@ 1390
developmental 1390
specification 1390
Hyp@@ 1389
Namibia 1389
Waters 1389
answers 1389
automated 1389
celebrating 1389
corresponds 1389
recruiting 1388
2.6 1387
Bronx 1387
Genoa 1387
Stein@@ 1387
peasants 1387
photographic 1387
wen 1387
Dwight 1386
Edith 1386
Flemish 1386
Jacobs 1386
assumption 1386
cov@@ 1386
identifies 1386
logical 1386
phosph@@ 1386
70@@ 1385
Corner 1385
Matt@@ 1385
ación 1385
breathing 1385
constructing 1385
forbidden 1385
inserted 1385
retreated 1385
Bologna 1384
Lafayette 1384
Poli@@ 1384
Returning 1384
Twelve 1384
barriers 1384
bride 1384
grand@@ 1384
limiting 1384
perennial 1384
Fleming 1383
Rex 1383
Somalia 1383
Williamson 1383
chambers 1383
eing 1383
fierce 1383
frigate 1383
nominal 1383
strips 1383
1850s 1382
Arabs 1382
Jubilee 1382
Randolph 1382
Tate 1382
assisting 1382
civilization 1382
sinking 1382
1797 1381
1799 1381
Camden 1381
Lead 1381
Miz@@ 1381
Rodriguez 1381
Via 1381
Weather 1381
alo 1381
deficit 1381
exceeded 1381
sandy 1381
suff@@ 1381
utions 1381
yth@@ 1381
yuan 1381
Cub@@ 1380
Geographic 1380
Kannada 1380
oos 1380
reproduction 1380
residency 1380
uba 1380
Dover 1379
astronomy 1379
counting 1379
alls 1378
für 1378
receptions 1378
Fritz 1377
Gay@@ 1377
Kri@@ 1377
Rapid 1377
XX@@ 1377
agenda 1377
cottage 1377
guarantee 1377
modeled 1377
progression 1377
Cath@@ 1376
Mog@@ 1376
SG 1376
exported 1376
fortifications 1376
originating 1376
styled 1376
о@@ 1376
Discography 1375
jar 1375
Aur@@ 1374
Nina 1374
alizing 1374
ová 1374
Entry 1373
Midwest 1373
Stevenson 1373
Wind@@ 1373
ako 1373
anu 1373
c.@@ 1373
harmony 1373
master@@ 1373
teens 1373
Bavarian 1372
Event 1372
Monaco 1372
caste 1372
inscribed 1372
lyn 1372
sty 1372
throws 1372
26th 1371
Ts@@ 1371
lodge 1371
miniseries 1371
precursor 1371
wed 1371
Journey 1370
Travel 1370
eme 1370
genocide 1370
tile 1370
AW@@ 1369
Arg@@ 1369
Hundred 1369
coral 1369
depiction 1369
notorious 1369
overlooking 1369
plural 1369
test@@ 1369
240 1368
Purple 1368
reinforcements 1368
reproductive 1368
Credits 1367
Kill@@ 1367
PP@@ 1367
Wildcats 1367
drought 1367
genuine 1367
owa 1367
subordinate 1367
xi 1367
Crew 1366
Hard@@ 1366
cameo 1366
ulating 1366
Bang@@ 1365
Clan 1365
Foot@@ 1365
Karachi 1365
geological 1365
rill 1365
uer@@ 1365
Rescue 1364
alike 1364
asting 1364
fellowship 1364
ury 1364
· 1364
1600 1363
Birds 1363
Main@@ 1363
Polytechnic 1363
Set@@ 1363
aluminum 1363
enia 1363
20s 1362
confirm 1362
fitting 1362
ido 1362
ousness 1362
Beirut 1361
Myers 1361
biblical 1361
frozen 1361
ranch 1361
victorious 1361
Gou@@ 1360
Hawk 1360
Mi 1360
Search 1360
defendant 1360
eus 1360
MacDonald 1359
dog@@ 1359
emerge 1359
sketches 1359
Archaeological 1358
Mack@@ 1358
lied 1358
ET@@ 1357
Emp@@ 1357
Forever 1357
Holiday 1357
Kurdish 1357
Tay@@ 1357
Wigan 1357
Wolf@@ 1357
amma 1357
clearing 1357
decay 1357
eve 1357
treasurer 1357
ë@@ 1357
0.4 1356
16,@@ 1356
Admiralty 1356
Close 1356
Color 1356
DR@@ 1356
Nicole 1356
Tut@@ 1356
nucle@@ 1356
sch 1356
48@@ 1355
Lut@@ 1355
basal 1355
god@@ 1355
halted 1355
neighbors 1355
patents 1355
rot 1355
Anton@@ 1354
Brett 1354
Cannes 1354
Marxist 1354
Relief 1354
composing 1354
idity 1354
partition 1354
supreme 1354
8.5 1353
Lad@@ 1353
Park@@ 1353
Renault 1353
Soviets 1353
aden@@ 1353
aquatic 1353
asylum 1353
inability 1353
may@@ 1353
traction 1353
unn@@ 1353
unt@@ 1353
Taiwanese 1352
bullet 1352
dwelling 1352
esch@@ 1352
individually 1352
probable 1352
wolf 1352
Lal@@ 1351
epithet 1351
lic 1351
oun 1351
Lahore 1350
Ultimately 1350
ancestral 1350
appoint 1350
Daniels 1349
Feature 1349
Weston 1349
Wool@@ 1349
catalog 1349
lobby 1349
mac 1349
new@@ 1349
physi@@ 1349
reminiscent 1349
steals 1349
erb@@ 1348
eria 1348
get@@ 1348
patches 1348
Bangalore 1347
Ce@@ 1347
DL 1347
Kim@@ 1347
Metro@@ 1347
Moroccan 1347
disabilities 1347
experiencing 1347
olive 1347
oxy@@ 1347
roy 1347
yar 1347
1900s 1346
Christina 1346
Jam 1346
billed 1346
gren 1346
hau@@ 1346
iled 1346
ordering 1346
Gad@@ 1345
accompany 1345
ayed 1345
equilibrium 1345
reigning 1345
ballots 1344
chemist 1344
presided 1344
tivity 1344
27th 1343
Fly 1343
Knox 1343
ared 1343
professors 1343
Baj@@ 1342
Brittany 1342
Cast 1342
Jung 1342
Patrol 1342
Steam 1342
TD 1342
federation 1342
ful@@ 1342
socially 1342
tissues 1342
Bills 1341
PD 1341
Run@@ 1341
Say 1341
Tai 1341
damaging 1341
declare 1341
deposited 1341
illustrator 1341
verbal 1341
Mali 1340
Saw@@ 1340
Stern 1340
confronted 1340
flags 1340
tidal 1340
uga 1340
AU 1339
Attack 1339
disposal 1339
patronage 1339
reelection 1339
rics 1339
steadily 1339
Ash 1338
Clifford 1338
Jac@@ 1338
Sep@@ 1338
TE 1338
chancel 1338
compulsory 1338
lu 1338
mobility 1338
recovering 1338
titular 1338
viewer 1338
14,@@ 1337
Aurora 1337
Behind 1337
Welfare 1337
https 1337
prefer 1337
rations 1337
rebuilding 1337
statewide 1337
Col. 1336
Diane 1336
Ple@@ 1336
Roth@@ 1336
news@@ 1336
organizational 1336
tributaries 1336
Colts 1335
Glory 1335
Paralympic 1335
Parsons 1335
Period 1335
aires 1335
censorship 1335
constraints 1335
geometric 1335
udi 1335
Judicial 1334
Lightning 1334
Mo 1334
Plateau 1334
adverse 1334
grove 1334
protested 1334
Christchurch 1333
Dreams 1333
accurately 1333
aly@@ 1333
brewery 1333
expeditions 1333
Dana 1332
Derbyshire 1332
Oak@@ 1332
Pent@@ 1332
arity 1332
granting 1332
mob 1332
provisional 1332
tailed 1332
tuition 1332
49@@ 1331
Broadcast 1331
Dorset 1331
Dunn 1331
alling 1331
pitching 1331
savings 1331
spur 1331
unic@@ 1331
46@@ 1330
Bosnian 1330
Ds 1330
Guest 1330
Higgins 1330
Shop 1330
Thing 1330
ential 1330
feeds 1330
funny 1330
gem@@ 1330
handball 1330
kil@@ 1330
opes 1330
precisely 1330
robbery 1330
solved 1330
Colleges 1329
Gand@@ 1329
Guam 1329
Quest 1329
beetles 1329
circuits 1329
homeland 1329
nav@@ 1329
ped@@ 1329
sensor 1329
troop 1329
Aid 1328
Dé@@ 1328
Kov@@ 1328
Reformation 1328
Stock@@ 1328
badge 1328
bey 1328
chef 1328
demise 1328
eighteenth 1328
legends 1328
markings 1328
overhead 1328
toy 1328
unusually 1328
ę@@ 1328
Bam@@ 1327
Crazy 1327
Per 1327
comply 1327
fel@@ 1327
intentions 1327
par 1327
permits 1327
regulate 1327
60s 1326
Ard@@ 1326
Frontier 1326
Regina 1326
Reports 1326
anterior 1326
battlefield 1326
stellar 1326
Buchanan 1325
Dog@@ 1325
FE@@ 1325
Lexington 1325
Property 1325
Ronnie 1325
Seymour 1325
him@@ 1325
hook 1325
offspring 1325
omes 1325
premiership 1325
recognizes 1325
refusal 1325
reluctant 1325
stuck 1325
suits 1325
τ@@ 1325
Bé@@ 1324
Depot 1324
Lennon 1324
Olivia 1324
Simmons 1324
atti 1324
debts 1324
freeway 1324
ples 1324
rational 1324
revision 1324
Des 1323
Galway 1323
Put@@ 1323
Qualification 1323
Rainbow 1323
additionally 1323
adjusted 1323
oni@@ 1323
peers 1323
rotating 1323
Crosby 1322
Patriarch 1322
Sue 1322
Treatment 1322
expressions 1322
geology 1322
speculated 1322
114 1321
3.6 1321
Bahrain 1321
Noble 1321
modules 1321
qualifications 1321
reunion 1321
spokesman 1321
Belarusian 1320
Pilot 1320
hate 1320
jersey 1320
mem@@ 1320
stomach 1320
unrelated 1320
1776 1319
BM@@ 1319
Ess@@ 1319
Ship 1319
fined 1319
mb@@ 1319
synagogue 1319
Damascus 1318
Premiership 1318
Step@@ 1318
assess 1318
burden 1318
interpretations 1318
intervals 1318
refusing 1318
robot 1318
town@@ 1318
townships 1318
ą@@ 1318
Chang@@ 1317
Divine 1317
Lagos 1317
gravel 1317
poetic 1317
transgender 1317
Agent 1316
Holden 1316
Mayo 1316
Rath@@ 1316
fundraising 1316
monetary 1316
reporters 1316
sanctions 1316
sberg 1316
1200 1315
Ax@@ 1315
Brook@@ 1315
Viking 1315
canvas 1315
cure 1315
locate 1315
node 1315
put@@ 1315
uni@@ 1315
′ 1315
FS 1314
Fas@@ 1314
Medieval 1314
Nassau 1314
Phillies 1314
Rand@@ 1314
Tig@@ 1314
concentrate 1314
implementing 1314
isi 1314
reactor 1314
subway 1314
ushi 1314
workforce 1314
Mansfield 1313
Serbs 1313
perfectly 1313
proud 1313
Combined 1312
oes 1312
slide 1312
supplement 1312
1,9@@ 1311
Calvin 1311
Direc@@ 1311
Solo 1311
Want 1311
gia 1311
papal 1311
Archive 1310
Core 1310
Programs 1310
Rivera 1310
admits 1310
renovations 1310
15,@@ 1309
Barb@@ 1309
Brad@@ 1309
Browne 1309
Chevrolet 1309
Choir 1309
Jack@@ 1309
None 1309
Sharp 1309
dried 1309
pastoral 1309
ph 1309
pope 1309
rine 1309
Holt 1308
Noel 1308
Row 1308
ind 1308
noun 1308
rental 1308
resume 1308
sociology 1308
unconscious 1308
École 1308
μ@@ 1308
Brand 1307
Downs 1307
Ivy 1307
MG 1307
ital 1307
omb@@ 1307
patri@@ 1307
phen@@ 1307
pits 1307
rail@@ 1307
Batt@@ 1306
DI@@ 1306
Gas@@ 1306
Mant@@ 1306
Okinawa 1306
Rig@@ 1306
bra 1306
firearms 1306
iva 1306
ration@@ 1306
Coming 1305
Manufacturing 1305
Operational 1305
audi@@ 1305
daytime 1305
entirety 1305
ometer 1305
trac@@ 1305
1783 1304
AK@@ 1304
Fir@@ 1304
Moor@@ 1304
Raw@@ 1304
Watts 1304
apex 1304
corrupt 1304
eb 1304
observer 1304
pap@@ 1304
regain 1304
tying 1304
visa 1304
warrior 1304
Intel 1303
Lives 1303
Nonetheless 1303
Strange 1303
Val 1303
awi 1303
eable 1303
economically 1303
ensured 1303
ept@@ 1303
shark 1303
villa 1303
121 1302
250,000 1302
28th 1302
40th 1302
Certificate 1302
Gom@@ 1302
Millennium 1302
RAM 1302
Roh@@ 1302
harmon@@ 1302
projection 1302
summoned 1302
Dod@@ 1301
Previous 1301
banker 1301
inferior 1301
ous@@ 1301
s.@@ 1301
shocked 1301
technically 1301
Ceylon 1300
Marcel 1300
Zak@@ 1300
aters 1300
racist 1300
representations 1300
symmetry 1300
0.6 1299
Gill 1299
Laos 1299
Mini 1299
Reviews 1299
armored 1299
rites 1299
sep@@ 1299
uni 1299
12.@@ 1298
Subsequent 1298
dom@@ 1298
gest@@ 1298
lining 1298
prone 1298
sid@@ 1298
unga 1298
Mom@@ 1297
Ricardo 1297
Rise 1297
comfort 1297
mates 1297
slender 1297
sympathetic 1297
yman 1297
NL 1296
Pérez 1296
collectors 1296
eur@@ 1296
ible 1296
motif 1296
poll@@ 1296
songwriting 1296
yama 1296
0.7 1295
Clubs 1295
GO@@ 1295
Resistance 1295
Zhao 1295
ca@@ 1295
cease 1295
hiring 1295
lip@@ 1295
ovi@@ 1295
trustee 1295
116 1294
3.7 1294
Kai 1294
Romeo 1294
Venetian 1294
Vera 1294
aer@@ 1294
compression 1294
etz 1294
fixtures 1294
phy 1294
scenario 1294
slower 1294
Beta 1293
Brid@@ 1293
eminent 1293
seminary 1293
simulation 1293
123 1292
Ask@@ 1292
Directorate 1292
Goa 1292
Journalism 1292
Niagara 1292
ayo 1292
intentionally 1292
lowered 1292
moths 1292
ogram 1292
overview 1292
privileges 1292
prof@@ 1292
sman 1292
wrapped 1292
yt@@ 1292
Associates 1291
asan 1291
ifying 1291
ingo 1291
ril@@ 1291
tt@@ 1291
updates 1291
1791 1290
49ers 1290
Bend 1290
Corporate 1290
insight 1290
Cliff 1289
FR@@ 1289
Kho@@ 1289
Mozart 1289
aked 1289
dwellings 1289
nurses 1289
omm@@ 1289
uck 1289
Bates 1288
Cable 1288
Fast 1288
Guitar 1288
Mart@@ 1288
NY@@ 1288
Nil@@ 1288
atur@@ 1288
clo@@ 1288
contra@@ 1288
ilt 1288
investor 1288
nationals 1288
opus 1288
rendering 1288
staging 1288
tail@@ 1288
tracked 1288
Electrical 1287
MGM 1287
Rod 1287
Stirling 1287
ashore 1287
ession 1287
intake 1287
referenced 1287
uranium 1287
voter 1287
Courts 1286
ailing 1286
odon 1286
yar@@ 1286
» 1286
0.8 1285
Byron 1285
Fox@@ 1285
Hawkins 1285
Humanities 1285
Jet 1285
Mai@@ 1285
Satellite 1285
TH@@ 1285
apparatus 1285
infinite 1285
vent 1285
Bast@@ 1284
EMI 1284
Ish@@ 1284
K.@@ 1284
Legends 1284
Lowe 1284
beneficial 1284
dressing 1284
hop@@ 1284
idd@@ 1284
issi@@ 1284
los@@ 1284
mad 1284
winters 1284
Abbott 1283
Chor@@ 1283
Direct 1283
Established 1283
Fern@@ 1283
Form 1283
Ling@@ 1283
bru@@ 1283
dawn 1283
esian 1283
promoter 1283
tertiary 1283
utt@@ 1283
verdict 1283
Dayton 1282
Jud@@ 1282
arid 1282
cub@@ 1282
deities 1282
relate 1282
175 1281
Look 1281
Wah@@ 1281
extensions 1281
globally 1281
oppose 1281
supernatural 1281
EM 1280
Horn@@ 1280
Ji 1280
Version 1280
Wig@@ 1280
etes 1280
ogn@@ 1280
ony@@ 1280
spokesperson 1280
Å@@ 1280
Ö@@ 1280
Alexand@@ 1279
Approximately 1279
Jules 1279
Released 1279
Zambia 1279
enza 1279
inadequate 1279
myself 1279
stro@@ 1279
telescope 1279
Casino 1278
Different 1278
Miranda 1278
Riv@@ 1278
Sta@@ 1278
courage 1278
reddish 1278
substances 1278
turnout 1278
yah 1278
Numerous 1277
adaptations 1277
dest@@ 1277
esia 1277
justified 1277
122 1276
210 1276
Format 1276
Web@@ 1276
Zurich 1276
ached 1276
differently 1276
distribute 1276
jaw 1276
treasure 1276
AK 1275
Griffith 1275
Interest 1275
Nice 1275
behaviors 1275
drunk 1275
mani 1275
ship@@ 1275
tiles 1275
Eb@@ 1274
Generally 1274
Judy 1274
Passenger 1274
doc@@ 1274
ici@@ 1274
silence 1274
Ž@@ 1274
1775 1273
blacks 1273
climbed 1273
yam 1273
Gloucestershire 1272
Greenland 1272
LD 1272
commentators 1272
redevelopment 1272
substrate 1272
2.9 1271
Busch 1271
Liberals 1271
advent 1271
exchanged 1271
Sánchez 1270
Twins 1270
boro 1270
chairs 1270
softball 1270
én@@ 1270
F1 1269
Gat@@ 1269
XIII 1269
botanist 1269
comprise 1269
ided 1269
intimate 1269
Beast 1268
Devi 1268
Payne 1268
Rookie 1268
Su 1268
Tai@@ 1268
anchored 1268
deposit 1268
mos@@ 1268
uddin 1268
unreleased 1268
Aff@@ 1267
Gameplay 1267
IO@@ 1267
Poor 1267
picking 1267
shifts 1267
soprano 1267
spider 1267
« 1267
Berkshire 1266
Mayer 1266
Presidency 1266
bombardment 1266
eled 1266
forgotten 1266
inations 1266
ocy@@ 1266
opener 1266
wi 1266
No.@@ 1265
Swansea 1265
WWF 1265
Wake 1265
azi 1265
eal 1265
eric 1265
masculine 1265
orchestral 1265
rov@@ 1265
unchanged 1265
Ş@@ 1265
190 1264
Hale 1264
Mel 1264
attracting 1264
motifs 1264
osi@@ 1264
Elliot 1263
Naj@@ 1263
jec@@ 1263
short@@ 1263
thickness 1263
washed 1263
Adults 1262
Bibliography 1262
Bit@@ 1262
Livingston 1262
Mercy 1262
alis@@ 1262
dental 1262
ogs 1262
predic@@ 1262
sal 1262
Catalonia 1261
Colombo 1261
Qualifying 1261
Quartet 1261
concluding 1261
fet@@ 1261
inequality 1261
posterior 1261
vacated 1261
Booth 1260
HQ 1260
Hamm@@ 1260
Multiple 1260
Tudor 1260
Zap@@ 1260
cho 1260
chord 1260
inventory 1260
rer@@ 1260
RE 1259
Tulsa 1259
disappearance 1259
generator 1259
rebuild 1259
winger 1259
118 1258
35.@@ 1258
Dong@@ 1258
Koh@@ 1258
PL 1258
Sis@@ 1258
Wine 1258
confrontation 1258
electrons 1258
icity 1258
stays 1258
Allison 1257
Canadians 1257
FDA 1257
Nicaragua 1257
Stafford 1257
dismissal 1257
polling 1257
3.8 1256
Brooke 1256
Isabel 1256
Vanderbilt 1256
cartoons 1256
dep@@ 1256
documentaries 1256
eral 1256
hardly 1256
procession 1256
ranged 1256
90@@ 1255
Atlético 1255
COM 1255
Ensemble 1255
GE 1255
Nationalist 1255
Partnership 1255
discusses 1255
rov 1255
Lom@@ 1254
Lu 1254
Rest@@ 1254
casino 1254
oses 1254
owo 1254
recipients 1254
shareholders 1254
spells 1254
talked 1254
zoo 1254
Coc@@ 1253
Kyoto 1253
Rajasthan 1253
Suzuki 1253
aton 1253
coastline 1253
fountain 1253
outright 1253
preserving 1253
prosecutor 1253
showcase 1253
tuberculosis 1253
ö@@ 1253
38.@@ 1252
Norse 1252
Permanent 1252
practitioners 1252
Dhaka 1251
Hul@@ 1251
Making 1251
Shell 1251
worlds 1251
Dil@@ 1250
Dodge 1250
Pomeranian 1250
Uncle 1250
armour 1250
audition 1250
devised 1250
poles 1250
32@@ 1249
Boh@@ 1249
Hus@@ 1249
Mans 1249
Wikipedia 1249
comb 1249
contests 1249
luck 1249
umes 1249
wav@@ 1249
ʻ@@ 1249
Eisenhower 1248
Franc@@ 1248
Hot@@ 1248
Judith 1248
Lorraine 1248
characterised 1248
dispatched 1248
immigrated 1248
implications 1248
poster 1248
vein 1248
Eff@@ 1247
Midnight 1247
NI@@ 1247
Pow@@ 1247
Sac@@ 1247
assignments 1247
disappointing 1247
favourable 1247
just@@ 1247
lunch 1247
multip@@ 1247
popularly 1247
taxi 1247
ć@@ 1247
Lil@@ 1246
blockade 1246
chartered 1246
ication 1246
illing 1246
pioneered 1246
1,2@@ 1245
1780 1245
IRA 1245
Rotterdam 1245
Sant 1245
cruci@@ 1245
epidemic 1245
garde 1245
subscription 1245
terror 1245
Garrett 1244
Goodman 1244
Rama 1244
Said 1244
Senegal 1244
Urdu 1244
abolition 1244
clip 1244
container 1244
functionality 1244
igan 1244
iu 1244
70s 1243
Burlington 1243
Doc@@ 1243
Kerr 1243
M.A. 1243
Rick@@ 1243
evaluated 1243
ix@@ 1243
obligations 1243
predecessors 1243
sensors 1243
17,@@ 1242
Mughal 1242
induc@@ 1242
way@@ 1242
3.4 1241
Chamberlain 1241
Figure 1241
aluminium 1241
feathers 1241
pilgrimage 1241
sparked 1241
Ig@@ 1240
Publication 1240
Steele 1240
anza 1240
crimin@@ 1240
elli@@ 1240
gest 1240
grossed 1240
kiss 1240
sacks 1240
Idol 1239
Marquis 1239
courthouse 1239
demographic 1239
fungi 1239
gin@@ 1239
mand@@ 1239
rs 1239
Andre 1238
Mud@@ 1238
Spe@@ 1238
Strike 1238
colonists 1238
disturbed 1238
dramas 1238
likewise 1238
nodes 1238
shores 1238
Broken 1237
Hancock 1237
Poles 1237
UAE 1237
backgrounds 1237
commuter 1237
homage 1237
honoured 1237
implied 1237
liability 1237
ograph 1237
stealing 1237
thal@@ 1237
unprecedented 1237
cock 1236
flour 1236
stan 1236
Darren 1235
ET 1235
Gould 1235
Theology 1235
consul 1235
latitude 1235
renewable 1235
temperate 1235
Biden 1234
Dolphins 1234
Limerick 1234
Romance 1234
ometric 1234
uca 1234
ured 1234
Blo@@ 1233
Den 1233
Jennings 1233
Loop 1233
Northampton 1233
Slovenian 1233
aid@@ 1233
ideals 1233
vich 1233
yev 1233
ð@@ 1233
201@@ 1232
MR@@ 1232
Meh@@ 1232
Saturn 1232
ailed 1232
devastated 1232
icians 1232
indication 1232
oles 1232
surveyed 1232
teenagers 1232
Feder@@ 1231
Fortune 1231
Giles 1231
Horace 1231
Mystery 1231
Platinum 1231
consortium 1231
dem 1231
enburg 1231
litre 1231
pes 1231
reb@@ 1231
Animation 1230
Ring@@ 1230
defenses 1230
230 1229
Siv@@ 1229
Tina 1229
WB@@ 1229
ark 1229
categor@@ 1229
prompting 1229
2,0@@ 1228
Buildings 1228
Fernández 1228
Landing 1228
Recognition 1228
Rs 1228
Typically 1228
constituent 1228
employing 1228
fulfill 1228
interception 1228
maid 1228
materi@@ 1228
promotions 1228
reliability 1228
stocks 1228
substituted 1228
thir@@ 1228
ulations 1228
Jav@@ 1227
Viv@@ 1227
ails 1227
alli@@ 1227
avant 1227
orth@@ 1227
60,000 1226
Chit@@ 1226
Consumer 1226
Koch 1226
USD 1226
sex@@ 1226
slate 1226
Ain 1225
NL@@ 1225
aim@@ 1225
extinction 1225
hil@@ 1225
iter@@ 1225
recruitment 1225
somewhere 1225
turbine 1225
unrest 1225
Harriet 1224
allocation 1224
attested 1224
contemporaries 1224
definitions 1224
issuing 1224
magn@@ 1224
-class 1223
BL@@ 1223
Congregation 1223
Eighth 1223
Mast@@ 1223
Vasi@@ 1223
blown 1223
communal 1223
fron@@ 1223
olla 1223
specifications 1223
CH 1222
Leonardo 1222
Perfect 1222
adapt 1222
aide 1222
eding 1222
ords 1222
tolerance 1222
Electronics 1221
Ka 1221
Phantom 1221
aly 1221
citation 1221
degradation 1221
pedestrian 1221
suffix 1221
Havana 1220
Kill 1220
Map@@ 1220
Starr 1220
Teresa 1220
armoured 1220
mic@@ 1220
pressures 1220
550 1219
Work@@ 1219
Xu 1219
conferred 1219
kel 1219
merit 1219
sheriff 1219
stripes 1219
37.@@ 1218
Axis 1218
Brain 1218
EF@@ 1218
HM@@ 1218
Hank 1218
Zel@@ 1218
defendants 1218
ē@@ 1218
98.@@ 1217
Dancing 1217
Haj@@ 1217
MO 1217
PG 1217
beg@@ 1217
erect 1217
icism 1217
pleaded 1217
shortage 1217
suspicion 1217
ural 1217
vet@@ 1217
Pick@@ 1216
chiefly 1216
depths 1216
donor 1216
gie 1216
otte 1216
denounced 1215
dot 1215
fast@@ 1215
instant 1215
Adel@@ 1214
Lo 1214
Written 1214
akis 1214
esque 1214
mist@@ 1214
twins 1214
visibility 1214
voc@@ 1214
whites 1214
Flowers 1213
Image 1213
Or 1213
Quality 1213
Summary 1213
Yaz@@ 1213
hardcore 1213
iza 1213
lon 1213
packed 1213
patrons 1213
witch 1213
Hammer 1212
Psych@@ 1212
Resort 1212
V8 1212
Wilderness 1212
bare 1212
converting 1212
entrants 1212
neural 1212
offerings 1212
suppressed 1212
Austro 1211
Leningrad 1211
Role 1211
cation 1211
culminated 1211
enzymes 1211
hei@@ 1211
matic 1211
oj@@ 1211
umbrella 1211
100th 1210
Cooperation 1210
Past@@ 1210
Snow@@ 1210
abe 1210
aces 1210
applicable 1210
dispersed 1210
font 1210
idol 1210
metallic 1210
shifting 1210
DD 1209
Factor 1209
Hogan 1209
Nim@@ 1209
archaeology 1209
clashes 1209
eon 1209
foil 1209
pron@@ 1209
uro 1209
yr 1209
Draw 1208
Stones 1208
astronomer 1208
eig@@ 1208
exceed 1208
nobles 1208
ondo 1208
patrols 1208
Aside 1207
Olivier 1207
Sonic 1207
bon 1207
key@@ 1207
kov@@ 1207
ogenic 1207
upheld 1207
Gerard 1206
aths 1206
brake 1206
enton 1206
possibilities 1206
pul@@ 1206
vacancy 1206
wool 1206
Circus 1205
Falcon 1205
Gob@@ 1205
IR 1205
Pale@@ 1205
Shooting 1205
crowds 1205
drinks 1205
emi 1205
outlined 1205
passport 1205
signaling 1205
tar 1205
Fr 1204
PI 1204
SB@@ 1204
authentic 1204
retrospective 1204
stretched 1204
surroundings 1204
wears 1204
55@@ 1203
Broad 1203
Immediately 1203
Immigration 1203
absorption 1203
blend 1203
gener@@ 1203
harvest 1203
ision 1203
itated 1203
originates 1203
reverted 1203
surplus 1203
Ride 1202
Trustees 1202
lich@@ 1202
mutation 1202
pledged 1202
portraying 1202
sten 1202
с@@ 1202
Finn 1201
Gil 1201
calm 1201
hostage 1201
ku@@ 1201
optimal 1201
psychiatric 1201
reservation 1201
viruses 1201
Aer@@ 1200
Asi@@ 1200
Audio 1200
Bank@@ 1200
Hasan 1200
Iron@@ 1200
Maggie 1200
NRL 1200
Nile 1200
VE@@ 1200
Xi@@ 1200
anian 1200
eros 1200
inauguration 1200
informs 1200
meantime 1200
pow@@ 1200
124 1199
Famous 1199
PT 1199
Portrait 1199
Savannah 1199
Treasurer 1199
e.@@ 1199
jumped 1199
petroleum 1199
prehistoric 1199
thro@@ 1199
2023 1198
Bio@@ 1198
Geological 1198
Irene 1198
Mega 1198
decreasing 1198
ej@@ 1198
quartet 1198
rav@@ 1198
ruined 1198
vas 1198
Dartmouth 1197
Producer 1197
deported 1197
erh@@ 1197
rage 1197
Fowler 1196
Save 1196
advertisement 1196
bacterial 1196
bowler 1196
conception 1196
necessity 1196
ström 1196
129 1195
batch 1195
prolonged 1195
Chu@@ 1194
Lus@@ 1194
Moldova 1194
Superintendent 1194
Wolfgang 1194
alternating 1194
cardiac 1194
inactive 1194
organism 1194
orship 1194
ás 1194
0,@@ 1193
Blind 1193
Phi 1193
Sit@@ 1193
Towards 1193
emission 1193
proc@@ 1193
prosperity 1193
uncertainty 1193
1788 1192
Angelo 1192
Terrace 1192
analyses 1192
Roy@@ 1191
affordable 1191
bad@@ 1191
ethn@@ 1191
happening 1191
imprint 1191
refuse 1191
sty@@ 1191
takeover 1191
tum 1191
uting 1191
volunteered 1191
к@@ 1191
Hyper@@ 1190
insect 1190
integrate 1190
nominees 1190
uncovered 1190
Content 1189
Districts 1189
humorous 1189
killings 1189
lessly 1189
recruits 1189
Lawson 1188
Ottomans 1188
Taking 1188
aul@@ 1188
dirt 1188
rejection 1188
satisfy 1188
weighed 1188
97.@@ 1187
Fan 1187
Magnus 1187
Mao 1187
Mathematical 1187
Nie@@ 1187
Pietro 1187
Spring@@ 1187
hell 1187
kowski 1187
lone 1187
passages 1187
stre@@ 1187
volcano 1187
BB 1186
arbitrary 1186
entr@@ 1186
planting 1186
punt 1186
reissued 1186
Elvis 1185
Fan@@ 1185
NHS 1185
Nis@@ 1185
Running 1185
Segunda 1185
Sunshine 1185
contributes 1185
inal 1185
Beck@@ 1184
Byrne 1184
Ligue 1184
Rei@@ 1184
abi 1184
careful 1184
cubic 1184
lovers 1184
muscles 1184
robust 1184
umps 1184
у@@ 1184
Blackpool 1183
Castile 1183
Deal 1183
Habsburg 1183
Kub@@ 1183
Oli@@ 1183
Sterling 1183
Tribunal 1183
essence 1183
fly@@ 1183
statutory 1183
Gov@@ 1182
Hussein 1182
Kirby 1182
LDS 1182
Lil 1182
Plans 1182
Rear 1182
Rowing 1182
Twenty20 1182
aar 1182
alcoholic 1182
respiratory 1182
sei 1182
tails 1182
Birthday 1181
Own 1181
Sundays 1181
alp@@ 1181
captive 1181
chloride 1181
clad 1181
enna 1181
prostitution 1181
saints 1181
slip 1181
ż@@ 1181
Bordeaux 1180
Cell 1180
Scholar 1180
Tum@@ 1180
admired 1180
collaborations 1180
coronavirus 1180
deadline 1180
persuade 1180
photographed 1180
1,200 1179
4.0 1179
Domingo 1179
Lucky 1179
Pike 1179
Sega 1179
Seth 1179
Xia@@ 1179
addiction 1179
angular 1179
centred 1179
failures 1179
fest 1179
mentally 1179
norms 1179
spiral 1179
uth 1179
Ast@@ 1178
Fi 1178
Gap 1178
Lauren 1178
Soci@@ 1178
Württemberg 1178
alterations 1178
fle@@ 1178
fran@@ 1178
indirect 1178
rom 1178
а 1178
Gibbs 1177
Hindus 1177
Master@@ 1177
Mongol 1177
Practice 1177
Shel@@ 1177
XIV 1177
gang@@ 1177
hereditary 1177
pt 1177
pulling 1177
sat@@ 1177
wheelchair 1177
Earlier 1176
Fear 1176
Norris 1176
Werner 1176
acle 1176
cheap 1176
depict 1176
gon 1176
650 1175
Dome 1175
Gore 1175
Scholarship 1175
angel 1175
cartridge 1175
iel@@ 1175
linebacker 1175
senators 1175
yes 1175
Areas 1174
Baku 1174
Madame 1174
Wakefield 1174
aining 1174
ection 1174
enth@@ 1174
ogo 1174
Chandler 1173
Forward 1173
Gav@@ 1173
Leinster 1173
behavioral 1173
eliminating 1173
explorer 1173
posters 1173
presumed 1173
rpm 1173
suppression 1173
29th 1172
Bright 1172
Gill@@ 1172
Lock@@ 1172
Mozambique 1172
Publishers 1172
demonstrates 1172
exciting 1172
jar@@ 1172
objected 1172
portray 1172
proposes 1172
sharply 1172
solving 1172
stuff 1172
tire 1172
Crow@@ 1171
Ki 1171
Properties 1171
Wolves 1171
intercepted 1171
isch@@ 1171
pled 1171
ə@@ 1171
Caucasus 1170
Offensive 1170
Sto@@ 1170
XV 1170
crude 1170
filmmakers 1170
forever 1170
hairs 1170
happiness 1170
invest 1170
lement 1170
lov 1170
pling 1170
pod 1170
tapes 1170
terrible 1170
warships 1170
Nur@@ 1169
SV@@ 1169
Stephens 1169
USL 1169
break@@ 1169
enta 1169
fingers 1169
motors 1169
ographers 1169
vet 1169
119 1168
Barbados 1168
Everett 1168
Languages 1168
Stein 1168
Wide 1168
analyzed 1168
appreciated 1168
birthplace 1168
brow@@ 1168
ld 1168
wouldn 1168
Complete 1167
Honolulu 1167
Malik 1167
ont 1167
questioning 1167
specialised 1167
Mackenzie 1166
Stella 1166
asha 1166
attachment 1166
evaluate 1166
fla@@ 1166
intersects 1166
omy@@ 1166
varsity 1166
Baba 1165
Courthouse 1165
GO 1165
OR 1165
rob@@ 1165
Bremen 1164
Conway 1164
Igor 1164
Prevention 1164
Si 1164
Sob@@ 1164
Ya@@ 1164
cz@@ 1164
invasive 1164
medication 1164
yields 1164
Biblical 1163
Frost 1163
Gw@@ 1163
Hobart 1163
Houses 1163
Luigi 1163
Martínez 1163
Pleasant 1163
Reh@@ 1163
Revenue 1163
Vic 1163
crushed 1163
emotion 1163
merging 1163
vocational 1163
Ech@@ 1162
Evolution 1162
Hanna 1162
Humphrey 1162
Latter 1162
Mary@@ 1162
Max@@ 1162
Observer 1162
cake 1162
crossover 1162
glacial 1162
knight 1162
liqu@@ 1162
mg 1162
overwhelming 1162
reasoning 1162
sten@@ 1162
ARIA 1161
Emerson 1161
Gran 1161
Nursing 1161
Randall 1161
ankle 1161
beans 1161
breakfast 1161
illary 1161
litigation 1161
loops 1161
ordin@@ 1161
realised 1161
summar@@ 1161
Dah@@ 1160
Danube 1160
Thornton 1160
packaging 1160
possesses 1160
rock@@ 1160
Laurence 1159
Sheridan 1159
UP@@ 1159
auditorium 1159
barred 1159
dit 1159
expresses 1159
pavilion 1159
rails 1159
127 1158
@ 1158
Anth@@ 1158
Apache 1158
Bic@@ 1158
Curling 1158
Governance 1158
Mind@@ 1158
Provisional 1158
Tribe 1158
Vu@@ 1158
acking 1158
chromosome 1158
clearance 1158
glu@@ 1158
honest 1158
lamps 1158
ood@@ 1158
sensitivity 1158
š 1158
Bohemia 1157
Greco 1157
Guru 1157
Irvine 1157
Vaughan 1157
Wis@@ 1157
allegiance 1157
appreciation 1157
broad@@ 1157
cord 1157
digit 1157
dug 1157
Flu@@ 1156
Reyes 1156
You@@ 1156
afraid 1156
cab@@ 1156
encourages 1156
halfway 1156
roofs 1156
rower 1156
watches 1156
Alumni 1155
Bid@@ 1155
Es 1155
Nec@@ 1155
Networks 1155
lumber 1155
mantle 1155
osh@@ 1155
Gin@@ 1154
Köppen 1154
Macau 1154
Recently 1154
Status 1154
Warrior 1154
coding 1154
combinations 1154
fertile 1154
oods 1154
warming 1154
yers 1154
Artistic 1153
Borneo 1153
IM 1153
Johannesburg 1153
Kop@@ 1153
Kraków 1153
Mormon 1153
builders 1153
correlation 1153
lyrical 1153
markers 1153
pioneers 1153
variously 1153
Dow@@ 1152
galaxy 1152
seventy 1152
Medi@@ 1151
Mort@@ 1151
flesh 1151
lings 1151
param@@ 1151
133 1150
9.5 1150
99.@@ 1150
Above 1150
Dynamo 1150
Eduardo 1150
Hay 1150
Hesse 1150
Kei@@ 1150
Oman 1150
fairy 1150
farmland 1150
inian 1150
philanthropist 1150
raj 1150
satirical 1150
treaties 1150
weekends 1150
wid@@ 1150
Asc@@ 1149
Barber 1149
Exposition 1149
Mack 1149
Monthly 1149
UM@@ 1149
Va@@ 1149
cies 1149
freelance 1149
gir@@ 1149
knock 1149
leb@@ 1149
liber@@ 1149
quarry 1149
18,@@ 1148
Airborne 1148
Ele@@ 1148
Less 1148
Marseille 1148
Pavilion 1148
Secretariat 1148
bent 1148
homosexuality 1148
impacted 1148
patented 1148
Levy 1147
Uni@@ 1147
Uzbekistan 1147
escorted 1147
incorporation 1147
memoirs 1147
mortar 1147
spir@@ 1147
ulum 1147
wagons 1147
CN 1146
Initial 1146
ames 1146
ardi 1146
assassinated 1146
differing 1146
eil@@ 1146
fungus 1146
interceptions 1146
reli@@ 1146
semifinal 1146
smith 1146
5.1 1145
Documentary 1145
Southeastern 1145
Volunteers 1145
av 1145
hindwings 1145
portable 1145
DOS 1144
Granada 1144
Rider 1144
captivity 1144
elevations 1144
logging 1144
neighbor 1144
productivity 1144
reinstated 1144
renewal 1144
berth 1143
confronts 1143
mia 1143
mistress 1143
tram@@ 1143
Iris 1142
Lincolnshire 1142
Lob@@ 1142
WO@@ 1142
announcer 1142
focal 1142
hawk 1142
hydraulic 1142
networking 1142
obsolete 1142
tense 1142
void 1142
Hoffman 1141
absolutely 1141
automotive 1141
convened 1141
harder 1141
motivation 1141
plague 1141
touched 1141
ventures 1141
Africans 1140
Assessment 1140
Clifton 1140
Detective 1140
Everton 1140
Intermediate 1140
Schneider 1140
Talbot 1140
Yes 1140
discovering 1140
foreigners 1140
numerical 1140
premium 1140
side@@ 1140
Gymnasium 1139
Mercer 1139
Sa 1139
Truman 1139
Ware 1139
basically 1139
chaos 1139
diabetes 1139
ecosystem 1139
laboratories 1139
landings 1139
tops 1139
Traffic 1138
acher 1138
alias 1138
chocolate 1138
comparative 1138
sailor 1138
subtle 1138
Archibald 1137
Bollywood 1137
EE@@ 1137
ango 1137
gol@@ 1137
guides 1137
helmet 1137
innovations 1137
swim 1137
vert 1137
36.@@ 1136
Chau@@ 1136
Kob@@ 1136
Kō@@ 1136
Landmark 1136
Vig@@ 1136
Zürich 1136
denominations 1136
det 1136
habit 1136
ieri 1136
relies 1136
wines 1136
Lamp@@ 1135
Mental 1135
Ms 1135
Rockefeller 1135
Xi 1135
anded 1135
asse 1135
cob@@ 1135
enter@@ 1135
oso 1135
sentiment 1135
shipyard 1135
sian 1135
turret 1135
Lay@@ 1134
Marvin 1134
Molly 1134
Nun@@ 1134
Rox@@ 1134
Writer 1134
denomination 1134
dou@@ 1134
hp 1134
ify 1134
prayers 1134
rematch 1134
ğ@@ 1134
Staffordshire 1133
Wen@@ 1133
arrests 1133
ator@@ 1133
communes 1133
discoveries 1133
margins 1133
parameter 1133
railroads 1133
servers 1133
shorts 1133
solitary 1133
44@@ 1132
Bahn 1132
Bee 1132
Brand@@ 1132
Ever 1132
Spar@@ 1132
disciplinary 1132
etto 1132
mandated 1132
[...]
