् 8669031
के 1664017
। 1546065
में 1258194
, 1226863
है 1085862
प 817876
की 775052
और 690486
़ 656794
से 610389
का 585100
स 575653
को 492004
एक 453416
य 396663
) 387192
( 385418
हैं 373996
&quot; 332340
पर 320910
क 310959
@-@ 274189
. 272791
त 270289
ट 266087
ने 260844
व 256346
र 254927
द 244545
किया 241476
था 229019
लिए 225826
भी 203068
यह 190775
इस 179975
गया 178847
कर 167721
या 161987
कि 160731
न 148387
म 146791
वर 144864
रूप 141885
ग 133885
जो 131657
उन 131121
जाता 125218
ध 122896
साथ 117304
कार 116624
ही 116283
करने 115682
ज 114657
उत 112411
हो 109481
वारा 107481
फ 106456
ड 105408
थे 104761
&apos; 102958
ष 101984
भारत 101648
: 101376
राज 100507
नहीं 100235
श 96784
तक 96382
बाद 91511
निर 91385
तर 90267
अन 88733
तथा 86774
ब 86655
अपने 84981
री 84571
थी 83999
दिया 80613
षेत 76360
यक 75819
वह 75556
ति 74593
होंने 74573
ी 73883
होता 72228
पूर 69799
ण 66995
हुआ 65799
जा 64011
थित 63530
वे 63503
दी 63167
ा 62419
इन 59979
कुछ 59681
हें 58524
सर 58274
नाम 58153
ता 57381
थ 57372
विश 57152
राष 56551
रीय 56181
सम 55696
करते 54291
हुए 53613
तो 53360
गाँव 52994
समय 52188
इसके 51274
एवं 50970
होने 50029
कई 49377
उनके 49272
- 48791
ली 48486
संस 48391
षा 48242
; 48076
र@@ 47829
दर 47784
रा 47746
भारतीय 47133
अधिक 46933
वाले 46536
च 46480
े 46382
बड 45138
सबसे 45118
कारण 44805
अपनी 44513
करता 44377
होती 44225
म@@ 43998
मुख 43928
पहले 43722
कम 43277
थान 43114
गए 43078
दो 42663
अ@@ 42377
अर 42357
जन 42047
सकता 41932
मार 41615
रकार 41484
फिल 41181
किसी 40978
&#93; 40456
जब 40447
पत 40433
ल 40366
गई 40309
&#91; 40299
सन 40185
कहा 39249
रों 39235
लेकिन 38596
‍ 38393
रदेश 38348
राप 38065
जाती 37345
हुई 37289
व@@ 37180
बहुत 37039
टी 37019
न@@ 36980
शामिल 36859
ये 36350
लिया 35923
क@@ 35886
टर 35731
देश 35429
जैसे 35415
होते 34920
स@@ 34906
य@@ 34797
ती 34753
जिले 34545
रक 34516
/ 34375
बन 34065
दक 33909
यों 33793
रहे 33491
बर 33484
जी 33444
रा@@ 33181
भाषा 32989
ब@@ 32792
शन 32574
वी 32333
उनकी 32293
प@@ 32249
उस 32123
विद 31718
यालय 31653
रम 31502
वि@@ 31300
बीच 31257
षण 31193
उसके 31143
जाने 31107
सा 31100
ना 31024
रहा 31024
सभी 30951
ला 30924
गत 30761
तरह 30673
उद 30589
जिसमें 30586
पश 30579
रो@@ 30430
मा 30412
नी 30285
वास 30278
धर 30233
ल@@ 30210
इसे 30132
आर 29746
इसका 29716
रह 29587
त@@ 29427
अनुसार 29398
रस 29323
ए@@ 29163
तहसील 28994
भाग 28940
ले 28729
ना@@ 28572
आ@@ 28517
रमुख 28499
करना 28396
तान 28360
बार 28188
काम 28024
माण 27813
ट@@ 27730
उसे 27696
रत 27673
अध 27669
कोई 27527
लोगों 27496
अक 27204
महत 27194
पड 27054
ते 26752
बढ 26749
ञान 26719
चित 26711
यात 26608
का@@ 26566
उपयोग 26562
मण 26535
मन 26431
हिन 26366
वाली 26254
पार 26218
रिया 26153
ई 26115
सी 25856
रि@@ 25808
शिक 25757
जाते 25746
जीवन 25715
को@@ 25698
अल 25545
&#124; 25310
रे@@ 25290
दोनों 25174
आदि 25112
भ 24970
मा@@ 24597
मक 24548
शब 24547
शहर 24496
लिये 24484
मध 24470
राम 24406
लगभग 24406
ला@@ 24392
रयोग 24219
दौरान 24186
द@@ 24137
यहाँ 24054
ख 23826
मूल 23775
साहित 23741
नि@@ 23632
अंग 23626
ओर 23494
सिंह 23460
रेस 23391
सरकार 23298
सु@@ 23192
मान 23181
अब 23120
तीन 23085
शुरू 22915
फिर 22847
चार 22841
सि@@ 22830
डल 22750
िल 22711
% 22547
षिण 22486
जिसे 22445
अलग 22320
विकास 22223
ज@@ 22152
लोग 22130
ड@@ 21995
ए 21963
पास 21846
ग@@ 21813
या@@ 21777
करती 21602
ऑफ 21553
1 21354
काल 21326
वा@@ 21314
बा@@ 21201
नगर 21170
विज 21111
केवल 20931
अंतर 20907
बल 20880
जिन 20825
जाना 20713
री@@ 20637
रिकेट 20614
सकते 20563
विशेष 20477
मंदिर 20444
ह@@ 20440
इसकी 20427
सं@@ 20422
यू@@ 20418
मे@@ 20239
लक 20233
शक 20140
युद 20110
पद 19976
&amp; 19926
सा@@ 19800
सिद 19731
कभी 19576
बे@@ 19567
यान 19448
पा@@ 19423
मे 19411
उनका 19334
ओ@@ 19326
विभिन 19323
विस 19319
सदस 19317
टीम 19312
डी 19275
वस 19194
इतिहास 19127
मी 19094
दिन 19090
लि@@ 18968
योंकि 18953
यम 18919
उच 18904
इसमें 18898
ले@@ 18864
लो@@ 18801
साल 18565
वपूर 18531
माना 18498
अपना 18422
इसी 18378
राजा 18320
वार 18287
नदी 18275
कहते 18274
पन 18217
तु 18211
हालांकि 18211
थिति 18176
रही 18131
श@@ 18128
गर 18125
हिस 18101
ता@@ 18083
रदर 18073
च@@ 17889
किए 17888
दिल 17839
ठ 17699
रसिद 17645
2 17557
संख 17556
इ@@ 17537
रथम 17501
ं@@ 17481
कु@@ 17455
वाला 17346
॰ 17310
पुर 17308
तब 17301
हर 17299
चर 17247
वविद 17241
पहली 17220
से@@ 17166
आवश 17031
पुरस 16893
अस 16862
जर 16816
बी 16794
सत 16672
योग 16648
कुल 16643
रिय 16604
बना 16542
संयुक 16450
रदान 16446
उ@@ 16430
दूसरे 16332
जिसके 16319
सी@@ 16297
अमेरिका 16276
कृत 16203
केंद 16185
रित 16155
तन 16117
थापित 16023
मि@@ 15914
के@@ 15909
जल 15829
टेशन 15807
रण 15771
तमान 15711
उसकी 15697
वे@@ 15661
गो@@ 15622
षित 15592
जबकि 15591
मो@@ 15582
सामान 15575
उल 15564
यहां 15544
रु@@ 15541
ने@@ 15538
अप 15448
तत 15443
भर 15419
ति@@ 15295
जिसका 15289
कल 15237
पाकिस 15194
बच 15158
लड 15140
धि 15070
आज 15060
मात 14892
माध 14879
ह 14857
थापना 14832
िले 14708
यता 14691
आ 14674
रता 14667
’ 14563
रति 14540
अत 14466
पी@@ 14460
टन 14452
‘ 14432
पिता 14423
पक 14407
जा@@ 14406
दे 14354
ध@@ 14354
ों 14350
गयी 14276
यवस 14237
बि@@ 14231
कृष 14225
बनाया 14220
नामक 14196
अनेक 14180
सक 14164
समर 14154
आधार 14151
तौर 14118
पुस 14086
यास 14010
बारे 13992
संग 13992
बो@@ 13980
3 13967
सभा 13961
उसने 13954
ियों 13952
टे@@ 13947
घर 13912
परिवार 13874
सो@@ 13871
वा 13862
यू 13857
फ@@ 13811
दा@@ 13805
टि 13794
कन 13788
रखा 13784
ा@@ 13770
रन 13755
चाहिए 13749
देने 13748
ंग 13715
बात 13707
कोड 13689
आम 13670
थ@@ 13646
ई@@ 13630
मंत 13585
ख@@ 13564
मृत 13564
ययन 13548
समूह 13546
संगीत 13457
बिहार 13448
विक 13439
मु@@ 13437
टि@@ 13411
सेवा 13401
टा 13395
उपलब 13391
मित 13333
एल 13306
ली@@ 13269
ऐसा 13243
करण 13243
टो@@ 13234
सेना 13231
मिक 13207
अच 13166
तों 13158
नर 13130
यु 13117
कों 13099
सकती 13057
वन 13041
मों 13021
पी 13016
रभाव 12901
देशों 12900
राचीन 12885
दृष 12851
जारी 12845
ऐसे 12836
हा@@ 12825
तार 12817
जहां 12813
महिला 12778
पे@@ 12774
कै@@ 12759
तियों 12720
बनाने 12709
जिला 12686
चिम 12676
परिवर 12633
थीं 12631
यु@@ 12615
अलावा 12607
छोड 12604
हार 12570
केन 12565
एस 12402
टी@@ 12402
अफ 12400
20 12377
देता 12365
गा@@ 12357
नो@@ 12339
भूमिका 12305
मैच 12271
करके 12270
षों 12251
दुर 12209
माता 12203
जी@@ 12195
पुत 12181
तराखण 12170
रिक 12169
महा@@ 12158
जुड 12154
पो@@ 12153
निम 12128
बी@@ 12104
जिससे 12095
येक 12083
खिलाफ 12075
टा@@ 12040
ऑस 12020
यदि 12019
लैंड 11997
वतंत 11961
षक 11953
कंपनी 11922
रोग 11919
काफी 11842
सामाजिक 11814
दुनिया 11747
चिकित 11707
लेकर 11704
चुनाव 11645
उसका 11629
भा@@ 11601
राज@@ 11577
हे@@ 11520
कप 11477
वत 11460
नई 11449
डे@@ 11424
शताब 11402
धार 11399
उप@@ 11389
बु@@ 11389
रिटिश 11354
पहला 11348
नी@@ 11347
गु@@ 11342
दूर 11333
जोड 11331
रो 11326
डा 11325
गये 11319
4 11316
दा 11312
परीक 11310
पता 11303
कि@@ 11300
सार 11288
अथवा 11273
पि@@ 11250
गढ 11213
पानी 11194
समस 11183
खेल 11167
भ@@ 11152
10 11129
मस 11076
इसलिए 11057
किये 11054
शुरुआत 11015
दू 11002
कला 10998
रान 10988
ष@@ 10981
आगे 10963
अमेरिकी 10958
कूल 10955
छोटे 10949
– 10895
5 10890
लों 10886
सुरक 10886
तेमाल 10880
रणाली 10870
उम 10867
वरूप 10864
= 10857
लेख 10850
नों 10837
आधारित 10828
चक 10798
ं 10759
रे 10749
समान 10736
हि@@ 10726
रकाशित 10691
वीप 10678
चा@@ 10598
उदाहरण 10591
लाल 10543
लगा 10535
जहाँ 10531
तरी 10502
साम 10473
रेलवे 10472
जनवरी 10456
दे@@ 10450
कृति 10433
समाज 10424
वी@@ 10420
पूरी 10407
इससे 10394
राजस 10390
मुक 10384
मै@@ 10366
डि@@ 10356
बाहर 10345
शि@@ 10345
वाद 10342
वक 10327
इनके 10325
पादन 10324
मर 10313
अंत 10306
आन 10299
नियंत 10258
इंग 10240
जिस 10218
विकसित 10210
लम 10196
होगा 10181
वो 10168
गांव 10157
तित 10152
डी@@ 10133
6 10100
ण@@ 10080
.@@ 10064
रेज 10056
पदार 10054
ि@@ 10035
रहता 9979
भगवान 9971
रेन 9945
दशक 9939
हम 9931
मुद 9921
थल 9900
रेणी 9900
बने 9887
लोक 9830
आई 9823
सब 9803
आत 9797
देते 9797
जिनमें 9783
रहते 9773
मद 9757
अतिरिक 9710
आधुनिक 9705
! 9701
होकर 9689
बनी 9645
अधिकांश 9639
शासन 9630
बै@@ 9629
दार 9610
जे@@ 9609
तु@@ 9606
मई 9592
रृंखला 9587
शरीर 9580
रमण 9575
दस 9542
रेजी 9520
gt 9499
लोकप 9479
धन 9476
थिक 9461
है@@ 9452
अगस 9438
वित 9429
शास 9424
नए 9420
शा@@ 9399
देखा 9396
डा@@ 9365
ंग@@ 9332
एम 9315
यादा 9306
णन 9282
रू@@ 9279
बांग 9268
संक 9249
टूबर 9234
संघ 9231
वाल 9220
वीं 9201
ओ 9194
दों 9176
फर 9167
रै@@ 9162
अधिकार 9139
जो@@ 9131
रंग 9127
lt 9126
मानव 9115
उसी 9113
परि@@ 9068
दूसरी 9059
विभाग 9056
भिन 9043
रैल 9037
लु@@ 9017
१ 8989
आप 8981
वाचन 8979
संबंध 8976
जु@@ 8973
जून 8970
चि@@ 8963
चीन 8939
डे 8938
चन 8934
जगह 8931
the 8924
राजधानी 8907
जुलाई 8900
मत 8897
पूरा 8888
पु@@ 8884
शीर 8882
बस 8879
ऊपर 8877
ी@@ 8877
हो@@ 8857
ार 8847
देव 8838
चिमी 8825
दु@@ 8814
ियाँ 8809
मी@@ 8758
राजनीतिक 8753
विचार 8743
पष 8740
तैयार 8723
मिल 8714
विषय 8705
बिना 8702
of 8696
सप 8686
ाई 8655
शर 8654
पै@@ 8648
अग 8643
बा 8633
रात 8620
सीमा 8618
मिश 8616
देवी 8603
छा 8583
े@@ 8578
पर@@ 8577
की@@ 8568
किन 8556
विधानसभा 8554
लेने 8551
युग 8548
रचना 8526
राय 8509
रोत 8500
छ@@ 8491
ञानिक 8487
-@@ 8485
पति 8484
युत 8479
पृथ 8474
वयं 8467
अंतिम 8458
जि@@ 8458
खिलाड 8453
लिखा 8442
यो@@ 8430
िया 8424
सूची 8421
ो 8415
चों 8404
जनसंख 8388
आकर 8381
अनु@@ 8380
मल 8371
थानीय 8360
कड 8358
डर 8355
जन@@ 8336
रपति 8333
यन 8332
मानित 8323
वृद 8316
हस 8305
उर 8301
रास 8294
समुद 8294
सहायता 8291
योजना 8280
टूर 8269
सिस 8255
यार 8254
भूमि 8249
डो@@ 8245
आने 8241
नीचे 8238
रति@@ 8172
तव 8165
यापक 8142
चे 8127
गा 8124
ऐसी 8105
संगठन 8100
कहानी 8099
थन 8099
होना 8082
राम@@ 8077
ञ 8076
समाप 8074
हिंदी 8065
टेस 8058
लर 8055
पढ 8046
फि@@ 8036
कोर 8033
खा@@ 8030
छात 8029
मीटर 8027
अभी 8019
पाया 8010
तुलना 8007
कॉलेज 8004
रहने 8004
दि@@ 7989
रकाश 7978
आक 7936
रवेश 7928
तम 7926
मिला 7906
जीत 7899
शैली 7897
नाटक 7873
भाई 7871
रिस 7869
वान 7866
सूर 7855
२ 7833
मूर 7827
वितीय 7820
किलोमीटर 7814
पूरे 7810
चात 7801
टिक 7798
ताओं 7795
ु@@ 7788
विशिष 7787
रभावित 7780
सहित 7766
चा 7757
षमता 7757
वैज 7745
अवधि 7735
सिर 7706
अवस 7689
संबंधित 7672
9 7661
पहाड 7648
एंड 7637
पा 7637
एन 7627
लो 7618
रयास 7611
15 7592
लगे 7586
2008 7585
आबादी 7571
किमी 7561
कुमाऊँ 7553
पात 7552
सम@@ 7550
विधि 7547
लीग 7532
ऐतिहासिक 7527
युक 7522
मिलता 7510
मुस 7509
ठ@@ 7507
बुद 7506
मैं 7501
वहाँ 7496
8 7491
ते@@ 7484
यकता 7481
7 7474
खान 7459
इनमें 7456
निष 7456
रीका 7444
सदी 7431
सर@@ 7417
रियों 7401
12 7387
नो 7379
गति 7367
वै@@ 7357
रेष 7348
कर@@ 7342
तहत 7328
घोषणा 7323
यापार 7317
निश 7313
रहती 7310
2007 7286
हल 7273
तुत 7268
वीकार 7266
आकार 7262
एम@@ 7262
दूरी 7261
दिए 7259
विधान 7252
आता 7235
लिम 7223
पुरुष 7220
दूसरा 7215
यंत 7214
जनगणना 7198
सल 7196
आते 7188
बे 7177
आयोजित 7169
कांग 7167
सके 7166
धा 7156
धान 7135
हाथ 7124
गीत 7123
उड 7111
नाथ 7095
ऊर 7083
मदद 7067
रेलिया 7065
ऐ@@ 7050
एशिया 7040
बौद 7038
जिसने 7025
लादेश 7009
पल 7006
चंद 6997
बनाए 6997
तंत 6983
इनका 6980
निया 6978
दिखाई 6977
ो@@ 6972
णा 6958
विवाह 6957
2018 6947
ान 6926
गि@@ 6915
2019 6909
थात 6884
दल 6861
धा@@ 6841
आया 6839
जाति 6831
वश 6831
बोर 6830
काव 6828
ंड 6823
2009 6808
दो@@ 6807
अभि@@ 6805
नामेंट 6802
ंस 6800
हेतु 6800
सू@@ 6792
धांत 6783
लिंग 6768
दी@@ 6762
फे@@ 6759
रखने 6758
याय 6752
वंश 6746
तुम 6745
बताया 6731
सामने 6726
अंतरराष 6723
शादी 6706
चु@@ 6698
बैंक 6695
थानों 6694
महिलाओं 6682
बम 6672
मिली 6672
रारंभिक 6670
अं@@ 6654
निक 6652
उपन 6631
भू@@ 6630
पांच 6629
लिन 6612
एन@@ 6604
राह 6601
साक 6598
रप 6592
नियुक 6585
अप@@ 6580
पुलिस 6580
सूत 6579
भक 6577
रशिक 6570
कश 6567
बंद 6567
था@@ 6566
19 6558
बाल 6558
थर 6557
मास 6534
नेतृत 6531
पुनर 6520
घ@@ 6508
पित 6507
कुमार 6504
30 6499
पोर 6496
हत 6483
हवाई 6477
‌ 6472
रेल 6471
लू@@ 6451
चला 6443
३ 6443
अम 6437
देव@@ 6416
जे 6410
सात 6399
घटना 6396
लै@@ 6393
टे 6388
टम 6378
सांस 6377
रिका 6373
परिषद 6371
फरवरी 6359
रिकॉर 6355
सफल 6355
लेखक 6347
पैदा 6346
राकृतिक 6346
11 6343
दिशा 6327
संरक 6326
ंट 6315
अव@@ 6312
डॉ 6309
मीर 6307
शी 6303
वेस 6294
छत 6289
तो@@ 6280
बंगाल 6277
मनुष 6276
मिलियन 6274
अरब 6261
यवहार 6247
हे 6237
नृत 6235
नियम 6230
सितंबर 6223
रव 6216
हों 6205
दास 6204
जानकारी 6201
वापस 6201
वामी 6198
एस@@ 6195
जाए 6190
खड 6177
2006 6176
जनता 6170
आश 6161
लाभ 6160
हु@@ 6151
षिणी 6141
कवि 6140
षी 6136
वजनिक 6132
दिनों 6104
छोटी 6099
सैन 6098
सै@@ 6090
वों 6071
समुदाय 6065
यूरोप 6057
फा@@ 6056
हा 6046
तर@@ 6045
सड 6040
18 6028
भीतर 6009
हासिल 6006
पुष 6004
ची 6000
दृश 5993
लाम 5966
कानून 5952
कता 5931
नन 5926
कब 5923
इनकी 5921
नक 5921
खोज 5917
रेट 5913
आमतौर 5911
दन 5906
अगर 5901
बजे 5891
देती 5886
लब 5884
धीरे 5880
सरकारी 5880
छी 5878
सामग 5874
चे@@ 5872
सों 5862
पहचान 5857
आई@@ 5856
राजमार 5853
अन@@ 5849
चल 5843
शिव 5841
0 5840
गुप 5831
पीछे 5829
इलेक 5822
गैर 5821
गार 5816
कृतिक 5815
सिटी 5811
गे@@ 5808
रतिशत 5804
जिम 5801
2010 5781
उपस 5767
कृषि 5758
जिसकी 5756
डन 5749
तरफ 5747
लास 5741
मिस 5734
समिति 5707
विष 5702
किस 5691
पाठ 5691
कक 5687
दिसंबर 5682
परिणाम 5670
वें 5670
लगता 5668
लिक 5667
सागर 5665
यही 5663
वेल 5660
? 5648
रहण 5644
गी 5636
रह@@ 5632
ित 5626
जैसा 5624
सहायक 5623
अभिनय 5619
16 5618
नवंबर 5617
25 5608
हाल 5607
कॉ@@ 5606
ईस 5605
डिग 5596
चीनी 5593
14 5588
लाख 5586
महान 5585
अनुसंधान 5583
ईसा 5581
किंग 5580
णी 5580
झ@@ 5574
सिक 5574
मनी 5572
मौजूद 5571
शे@@ 5565
वादी 5555
रौद 5548
सेंट 5546
कमी 5541
नलिखित 5538
गन 5537
पंजाब 5535
खुद 5534
ञात 5526
वल 5524
तिगत 5509
कालीन 5502
अकादमी 5499
ताकि 5499
कस 5493
जीता 5493
जैन 5487
ंड@@ 5477
ंद 5475
वजह 5475
ँ@@ 5467
गोल 5465
अपेक 5464
आधिकारिक 5455
यतः 5454
तीर 5438
निजी 5436
टिंग 5430
विन 5430
गुरु 5429
पाद 5426
कं@@ 5424
अड 5421
थों 5407
रांस 5401
षिक 5401
५ 5401
नु@@ 5390
भाषाओं 5388
पण 5371
रिलीज 5371
कार@@ 5369
बदल 5358
औसत 5353
याप 5350
धारित 5349
राव 5346
रेम 5346
जाएगा 5340
एकल 5337
आंदोलन 5335
योगदान 5335
नेपाल 5333
शित 5332
लन 5331
बाहरी 5328
रेड 5327
यूरोपीय 5324
विशाल 5324
पिक 5322
नौ@@ 5321
उससे 5318
िला 5310
चरण 5309
बाजार 5305
४ 5297
शाह 5293
चौ@@ 5288
यूटर 5287
ती@@ 5271
अनुमति 5270
जै@@ 5258
उनमें 5256
कथा 5255
वहां 5254
ियां 5253
दिर 5251
टै@@ 5247
टीवी 5246
पट 5241
पृष 5240
जैसी 5230
मुंबई 5228
ंक 5227
नल 5223
टार 5217
रद 5216
किंतु 5213
मेल 5211
अली 5202
2014 5200
नस 5199
यद 5197
सूचना 5197
रल 5196
पूजा 5192
2011 5186
टों 5181
2016 5180
ठीक 5164
मान@@ 5164
णय 5156
ू 5146
रबंधन 5143
_ 5139
विजय 5139
2017 5138
चुके 5131
तानी 5129
नीति 5122
ठा 5121
यर 5120
संचालित 5106
रधान 5104
17 5103
संदर 5103
देखने 5093
विरोध 5092
सीमित 5089
कविता 5088
रांत 5084
आसपास 5076
अनुवाद 5075
वृत 5074
कारों 5069
नै@@ 5068
आस 5065
रतियोगिता 5065
सह@@ 5065
2005 5064
मं@@ 5059
ु 5059
ओं 5057
जल@@ 5051
रानी 5042
वती 5036
ढ@@ 5035
लागू 5034
खु@@ 5023
लगाया 5022
आर@@ 5015
मामले 5012
बिल 5006
राइ@@ 4998
गै@@ 4994
वेद 4969
रॉ@@ 4959
सुधार 4958
नेटवर 4954
करें 4951
जित 4947
शासक 4945
चलता 4944
यिक 4943
and 4927
पटना 4921
महीने 4911
+ 4910
तीय 4909
संघर 4902
इंडिया 4898
भोजन 4898
छा@@ 4896
बर@@ 4895
21 4890
योगिकी 4882
13 4879
मैन 4865
दान 4864
इत 4861
शो 4861
महाराष 4859
बावजूद 4853
जॉन 4844
मिलती 4841
शुक 4838
बनाई 4834
फो@@ 4830
नया 4828
मोड 4818
लिस 4817
बू@@ 4813
पू@@ 4812
तविक 4803
2012 4798
घंटे 4796
३@@ 4795
गों 4788
० 4785
बैंड 4771
हाइड 4771
जापान 4770
षम 4770
परन 4761
पाए 4760
रिटेन 4756
यत 4747
अधिनियम 4746
कहीं 4742
षर 4733
चरित 4732
सुन 4732
फोर 4726
शा 4725
संबंधी 4724
आए 4722
धारण 4721
2000 4720
धारा 4720
मॉडल 4713
रयुक 4709
६ 4709
छह 4705
अभिनेता 4699
यी 4698
सेन 4695
डब 4685
याख 4679
षा@@ 4678
तमिल 4677
पाल 4677
गठन 4671
a 4666
संकेत 4660
रेक 4657
तल 4653
मिट 4649
झील 4646
परम 4646
सफलता 4643
तुर 4642
पेन 4630
2020 4629
ः 4620
रेखा 4609
मिनट 4607
परंतु 4606
टेक 4604
हिंदू 4602
करोड 4601
लाइन 4601
ि 4587
कोशिश 4582
उपचार 4581
मू@@ 4580
रिपोर 4579
परिचय 4572
धी 4570
संरचना 4568
टो 4566
आरम 4562
रतिनिधित 4562
विवरण 4560
परियोजना 4559
माँ 4554
वज 4547
खो@@ 4544
सिन 4543
रूस 4537
वीर 4533
थि@@ 4531
छोटा 4527
मीडिया 4524
मामलों 4523
१९@@ 4523
बहु@@ 4515
कंप 4510
50 4508
होगी 4506
साधारण 4502
मानते 4499
चले 4498
मील 4498
बिन 4497
बद 4490
रसाद 4484
रिज 4475
नि 4472
तट 4470
मुरादाबाद 4470
तृत 4468
नेता 4467
रोड 4465
रतिक 4463
लेखन 4461
विपरीत 4455
तेज 4449
2015 4443
अधिकारी 4441
ढ 4437
ीय 4433
डिंग 4432
लेट 4428
ोर 4428
रं@@ 4426
भारी 4420
100 4417
गंगा 4417
संविधान 4409
पालन 4405
तिक 4401
अभियान 4395
दीन 4395
सही 4395
भागों 4394
2004 4379
रि 4378
देना 4377
आयोजन 4363
पुराने 4363
रकाशन 4355
लेषण 4354
णु 4348
अनुभव 4346
ऑक 4335
९ 4335
रतिष 4332
कू@@ 4330
रकृति 4330
आईसीसी 4328
अगले 4326
वो@@ 4325
सेल 4325
याओं 4321
लू 4302
णा@@ 4300
आचार 4291
पीड 4290
घोषित 4289
22 4287
डॉलर 4286
२@@ 4281
यस 4279
24 4277
लगातार 4273
इच 4266
लेते 4265
चुका 4260
मुहम 4250
फै@@ 4247
विधायक 4245
पेट 4244
पदक 4243
टल 4242
भविष 4240
वीडियो 4236
तेल 4235
2013 4234
शाखा 4232
इं@@ 4231
रश 4227
ओलंपिक 4221
संसद 4221
ये@@ 4220
आयु 4217
लंदन 4211
रतिस 4208
बनने 4201
रचित 4199
रम@@ 4199
गुण 4195
माल 4194
ै@@ 4183
गांधी 4182
समीक 4181
अतः 4177
2021 4176
फल 4174
घरेलू 4171
रु 4171
भाव 4167
राट 4165
उसमें 4158
विभाजित 4158
पिछले 4153
विदेशी 4152
हर@@ 4152
एं 4150
ू@@ 4146
करीब 4143
खेलों 4134
भवन 4134
लगी 4133
लाइ@@ 4129
लस 4125
रंथ 4123
रशासनिक 4123
रोक 4122
नामित 4121
राजनीति 4116
शो@@ 4116
गुजरात 4115
यादि 4112
वायु 4112
िया@@ 4111
अज 4110
रज 4110
रां@@ 4108
षेप 4107
नता 4103
जम 4100
एफ 4095
ार@@ 4094
किनारे 4090
महल 4090
इसने 4087
बोली 4086
निकट 4085
आदेश 4081
रखते 4080
पना 4079
जिनके 4075
लाह 4074
तुओं 4071
शेष 4069
लाई 4067
“ 4067
डिजाइन 4065
सहयोग 4062
$ 4061
पकड 4061
युवा 4052
सूक 4052
लग 4050
टिन 4046
एल@@ 4045
चारों 4042
जीव 4042
रण@@ 4041
संभव 4041
जू@@ 4039
यायालय 4039
दौरा 4028
इलाहाबाद 4022
ौ@@ 4018
अधि@@ 4017
आठ 4009
वाड 4007
रिश 4002
रचलित 4000
सुविधा 4000
मेट 3999
पवित 3996
यूज 3993
उपकरण 3992
कौ@@ 3992
मिलकर 3992
नव@@ 3987
खे@@ 3984
मानक 3983
चुना 3982
माइक 3980
परिणामस 3979
थायी 3978
थोड 3971
शोध 3971
आती 3966
” 3966
पारंपरिक 3965
हमारे 3965
बिक 3960
ताव 3953
मह@@ 3953
ताक 3952
पाई 3952
रिया@@ 3952
एच@@ 3951
दू@@ 3949
०@@ 3949
तस 3941
अनुमान 3940
in 3937
मैचों 3935
चिन 3933
थे@@ 3924
नारायण 3923
अभिनेत 3920
तरीके 3920
वाधिक 3920
नाइट 3916
रारंभ 3915
सारे 3915
यपि 3905
खेला 3904
कारी 3903
वर@@ 3902
औद 3898
चेन 3898
दिसम 3895
आदर 3894
रवर 3893
वप 3892
दावा 3890
​ 3886
लिखी 3880
पाँच 3874
लग@@ 3873
मंडल 3868
छ 3867
रख 3867
है- 3867
बं@@ 3865
यवसाय 3858
यादातर 3856
समा@@ 3854
शुद 3841
रीलंका 3840
भावना 3838
धि@@ 3837
छे 3836
गैस 3833
वृक 3831
आगरा 3824
खंड 3822
मन@@ 3819
अभ 3818
समाचार 3815
निवास 3812
आग 3810
राथमिक 3807
रीन 3805
विकेट 3803
विख 3799
चैनल 3795
मौत 3794
भव 3793
मौ@@ 3792
नवम 3791
नागरिक 3790
नातक 3786
१८@@ 3786
लेखनीय 3778
23 3777
नम 3775
बजाय 3774
८ 3774
अधीन 3771
रतीक 3768
2003 3756
मानी 3751
बाज 3749
ही@@ 3744
संपर 3743
ऊ@@ 3741
लिपि 3740
रुप 3738
कलाकार 3732
बेल 3728
ंगा 3726
डिस 3726
कॉर 3724
एँ 3723
रेरित 3722
अवसर 3721
बाई 3719
दोस 3718
रचार 3713
2002 3709
लॉ@@ 3709
साइड 3709
2001 3708
लेता 3708
सॉफ 3705
माने 3699
ें 3696
आरंभ 3693
यधिक 3689
सामना 3689
अद 3680
रामीण 3675
26 3674
योगिक 3672
इन@@ 3671
फाइनल 3669
जान 3667
वैश 3665
दु 3664
ञा@@ 3662
वाक 3660
गंज 3659
मिलते 3659
हमेशा 3659
घाटी 3658
१० 3658
ॅ@@ 3651
भट 3646
रार 3645
ारी 3644
विवाद 3643
टु@@ 3641
थितियों 3640
शल 3640
टर@@ 3637
खाद 3636
उप 3633
ईश 3631
पुनः 3631
सेट 3629
आइ@@ 3628
रशासन 3625
वॉ@@ 3619
नियों 3618
1990 3609
मैदान 3609
कोट 3608
घा@@ 3607
टेट 3606
रैक 3605
जॉर 3603
तियाँ 3600
नष 3599
तीसगढ 3598
९@@ 3598
जनरल 3595
गम 3592
पेश 3590
एकमात 3588
रिंग 3588
गो 3587
देशक 3587
भु@@ 3587
धित 3584
जिनका 3579
जीवित 3575
रमा 3575
फॉर 3572
परिस 3569
नेशनल 3568
रधानमंत 3567
लिखित 3567
मैक 3561
ची@@ 3555
शी@@ 3555
१७@@ 3551
रमों 3545
लता 3545
वालों 3541
दत 3540
कनाडा 3538
भि@@ 3538
तीसरे 3536
धति 3535
परमाणु 3533
मोर 3528
पेड 3524
40 3519
चाहते 3518
सब@@ 3517
लाया 3515
अंतरिक 3513
ताप 3510
अधिकतर 3504
७ 3502
बंधित 3500
विल 3500
रेडियो 3494
ारों 3494
गौ@@ 3491
गी@@ 3489
हीं 3487
रू 3482
यो 3476
आलोचना 3469
जांच 3469
पं@@ 3469
मू 3468
लेन 3465
मेन 3461
ाने 3456
खण 3455
मिले 3455
बेटे 3454
बत 3447
हाउस 3444
सिं@@ 3443
नियमित 3441
लौ@@ 3437
लोक@@ 3436
पुरुषों 3435
गेम 3434
सव 3434
बेहतर 3432
ऑ@@ 3431
नत 3430
यमान 3429
ंडा 3426
रकट 3425
भार 3420
रिकेटर 3420
ठी 3419
चढ 3416
चुकी 3416
पह@@ 3412
टू@@ 3410
इ 3409
मार@@ 3409
राय@@ 3406
रारम 3406
इंजन 3404
तापमान 3404
वां 3403
षणों 3403
करियर 3399
पताल 3398
याद 3398
केरल 3397
डु@@ 3397
परिक 3396
परंपरा 3392
जेल 3389
शाही 3389
मांग 3388
ईसाई 3384
जिद 3384
रोह 3374
णित 3372
जय@@ 3371
टिस 3371
बराबर 3369
लंबे 3367
िक 3367
टवेयर 3365
नज 3365
चो@@ 3363
नार 3362
सौ@@ 3361
महासागर 3355
समारोह 3349
वार@@ 3347
ठा@@ 3342
ीन 3342
लाने 3341
शहरों 3340
अंदर 3334
संचालन 3334
साइ@@ 3334
... 3332
27 3332
28 3332
टाइम 3332
मेलन 3330
हालाँकि 3330
घाट 3321
फु@@ 3319
लें 3319
रासायनिक 3316
एं@@ 3315
तीव 3314
विमान 3314
थो@@ 3313
गंभीर 3302
टिकोण 3302
वहीं 3300
शु@@ 3300
मिलित 3292
इज 3291
भिक 3291
केट 3290
विषयों 3288
एफ@@ 3283
मौसम 3283
उनसे 3280
यावरण 3279
रोज 3279
लगाने 3279
तियां 3274
२० 3272
देख 3268
घु@@ 3267
मां 3265
रांति 3263
डो 3261
आयोग 3259
विलियम 3259
to 3257
रालय 3255
रोम 3254
अरबी 3253
तथ 3250
तकों 3247
थापक 3245
कला@@ 3243
जड 3243
भौतिक 3243
शारीरिक 3243
इतना 3239
देखें 3237
यूट 3235
महाराज 3233
रायः 3233
घटनाओं 3230
नें 3230
थव 3227
कान 3225
डिज 3225
खि@@ 3223
लागत 3223
सितम 3223
पुरी 3215
ताल 3213
ञा 3211
पाने 3211
लिखे 3211
समूहों 3210
हमला 3210
किले 3209
तोड 3208
हैं- 3205
एच 3202
शिष 3200
बेटी 3193
वाणिज 3193
खर 3192
शान 3191
सुल 3185
ँ 3181
यकार 3181
कपड 3178
वही 3178
ूर 3177
धों 3176
तकनीक 3175
परिसर 3174
संप 3174
घ 3172
सीधे 3171
अंक 3170
टू 3170
पे 3169
हरा 3168
यज 3167
कपूर 3164
विकल 3164
विरोधी 3164
सेक 3162
औ@@ 3161
ताह 3159
फुटबॉल 3159
विभाजन 3158
दिखाया 3157
दुल 3156
अधिकारियों 3155
इक 3154
खा 3153
मिलने 3153
सच 3150
षीय 3148
ंगी 3147
गाने 3145
भेद 3143
वोच 3143
हवा 3139
निभाई 3137
रियाओं 3137
लोकसभा 3136
रहालय 3131
ै 3131
चलने 3130
दौर 3130
तेजी 3127
निकल 3123
वानों 3122
राशि 3120
यप 3119
रिय@@ 3119
८@@ 3119
देशित 3115
विजेता 3113
पार@@ 3112
शंकर 3112
कैरियर 3109
सभ 3109
एक@@ 3108
गणित 3108
टस 3108
रोमन 3108
रूसी 3104
सिल 3103
1980 3102
कैसे 3101
मुझे 3101
राजवंश 3100
सह 3099
हॉ@@ 3099
सतह 3092
षात 3091
धु@@ 3088
थाओं 3087
विरुद 3086
अश 3084
पहुंच 3084
६@@ 3080
याग 3079
विचारों 3079
तै@@ 3078
अलीगढ 3075
दि 3074
यूक 3073
1999 3068
तकनीकी 3066
सैनिक 3065
सेवाओं 3061
पों 3058
षत 3058
भेजा 3057
सोवियत 3055
निस 3054
रखता 3045
संपत 3045
॥ 3045
ंडी 3042
देखते 3042
चट 3041
चिह 3041
दिवस 3041
भुगतान 3040
उपाधि 3038
मियों 3037
वेंटी 3036
यावसायिक 3035
लेक 3028
७@@ 3025
शांति 3019
करा@@ 3018
नैनीताल 3014
१@@ 3007
जोखिम 3004
देवता 3001
पसंद 3001
एशियाई 2999
चतुर 2998
देशन 2998
दौरे 2998
आये 2996
खाने 2996
तिब 2995
लंबी 2992
इब 2989
रवृत 2989
शिव@@ 2989
यमंत 2988
हद 2988
ारा 2988
पुराण 2986
वातावरण 2984
सरल 2984
डॉक 2981
उचित 2979
देश@@ 2977
रभावी 2976
विशेषज 2975
४@@ 2974
अंततः 2973
लैक 2972
कृ@@ 2971
फी@@ 2970
रवा@@ 2970
संभावना 2970
धातु 2967
संचार 2965
जलवायु 2963
तिष 2962
जिसमे 2958
करेगा 2957
थिर 2955
नियमों 2955
कोलकाता 2952
पुरा 2947
िय@@ 2946
रंग@@ 2945
कण 2944
टॉ@@ 2943
टीमों 2942
इंस 2940
डों 2939
रोजन 2938
यटन 2928
चलते 2927
जेम 2926
तें 2926
यूजीलैंड 2925
लामी 2924
गवर 2922
जापानी 2914
टिव 2914
लय 2913
1998 2908
मोहम 2907
आं@@ 2903
इकाई 2903
ंत 2902
गतिविधियों 2902
कारक 2901
हज 2900
हड 2900
लि 2898
मनो@@ 2895
कल@@ 2894
कंपनियों 2889
यकाल 2889
लार 2884
हरि@@ 2884
रमाण 2881
गद 2880
मानना 2875
formula 2874
ंगे 2874
इंडियन 2874
शैक 2870
हिल 2870
चैम 2869
दबाव 2868
५@@ 2868
वोल 2867
मजबूत 2866
करा 2862
निवेश 2859
वेन 2858
शत 2857
फैसला 2856
रिप 2856
ियो 2855
पैमाने 2854
यौगिक 2854
कराया 2853
टेलीविजन 2852
वाहन 2851
दोलन 2848
नीय 2845
कैंसर 2844
पुराना 2835
फोन 2829
उपयोगकर 2828
शायद 2825
दर@@ 2824
रिम 2824
रॉक 2819
सीरीज 2819
निंग 2816
चयन 2810
29 2808
भित 2807
रेजों 2807
आरोप 2806
टाइ@@ 2805
करे 2804
नान 2803
बल@@ 2800
यूयॉर 2798
उनको 2795
सीजन 2794
परिवहन 2791
यालयों 2789
वेक 2789
हमें 2787
नेट 2785
31 2784
यूनाइटेड 2782
रसारण 2780
थक 2777
वनि 2777
विशेषता 2773
भो@@ 2772
आवाज 2771
फुट 2771
यूनिवर 2770
हास 2767
रका@@ 2766
कीर 2764
उपयुक 2756
जंक 2756
टेडियम 2755
१५ 2755
जानी 2754
डाला 2754
मतलब 2752
पोस 2750
रदाय 2747
सिया 2743
शिकार 2742
निवासी 2739
मानसिक 2739
असम 2738
कट 2738
वेब 2738
चै@@ 2737
मेरे 2736
10@@ 2723
गृह 2722
लियों 2722
खेती 2720
ढंग 2719
रोल 2717
यें 2716
चू@@ 2711
सीज 2711
s 2709
सैनिकों 2709
I 2708
° 2706
नेस 2704
पुरानी 2704
बॉक 2703
किल 2700
बहन 2700
अति@@ 2699
१६@@ 2698
पॉ@@ 2696
सान 2692
इंटरनेट 2689
सस 2687
तीसरी 2686
धो@@ 2683
जुन 2682
रॉफी 2682
चली 2679
बन@@ 2678
अनुप 2675
गईं 2673
ञापन 2673
राफ 2673
रखी 2671
संत 2666
रवाह 2663
विविध 2662
उष 2661
दियों 2661
जगत 2657
ईरान 2653
ावा 2652
वैदिक 2651
रफल 2650
गूगल 2648
यकर 2647
1996 2643
बिंदु 2643
मज 2643
सिंग 2642
नायक 2641
गल 2640
लकड 2640
सुंदर 2639
संसार 2638
थशास 2635
समझ 2635
आपूर 2626
झु@@ 2622
बनिक 2622
कॉन 2618
चुने 2618
नही 2618
१२ 2618
निधन 2616
गिर 2615
लेना 2615
बिजली 2614
ीं 2613
जीन 2609
षकों 2609
लेस 2608
वामित 2608
कहना 2604
टक 2604
गड 2603
परिभाषित 2603
रुद 2603
विदेश 2602
हरियाणा 2602
गिरफ 2599
नॉर 2599
आय 2598
अनंतपुर 2595
करी 2595
खेले 2592
लघु 2592
इटली 2591
रसार 2591
संधि 2591
चम 2590
छि@@ 2590
पशु 2587
लखनऊ 2585
कम@@ 2583
गणराज 2583
शकों 2583
सौ 2581
टियों 2580
हजार 2579
रुखाबाद 2578
१५@@ 2578
अपराध 2577
तात 2577
शै@@ 2575
बीमारी 2574
टता 2567
लैण 2567
1970 2564
खी 2561
सारी 2561
कास 2559
परा@@ 2556
गे 2555
णों 2554
मृति 2553
कानूनी 2551
दिये 2550
नित 2550
बाबा 2550
आसानी 2548
महाभारत 2543
लिमिटेड 2539
कहलाता 2537
इस@@ 2536
कारणों 2536
पीढ 2534
2@@ 2533
अनिवार 2532
आंतरिक 2531
आंकड 2527
पौड 2527
साबित 2526
आयरलैंड 2525
परा 2524
बां@@ 2524
तारा 2522
झा@@ 2521
दिक 2520
1997 2519
टिप 2518
राक 2518
खास 2517
हृदय 2516
अवार 2515
एयर 2515
नौ 2515
मना@@ 2514
पुल 2513
रीकी 2513
ङ 2512
तय 2511
देकर 2509
षिप 2508
ंडर 2507
वितरण 2507
उपग 2506
दीर 2505
मिशन 2504
सफ 2504
तार@@ 2503
जोर 2502
महाराजा 2502
अर@@ 2499
चारण 2499
चौड 2497
टेड 2497
कत 2494
रमा@@ 2494
एड 2493
वं@@ 2493
सदर 2488
वोत 2487
गुणवत 2486
मेंट 2485
हैदराबाद 2484
कीय 2483
डेटा 2483
एकत 2482
कठिन 2480
जमीन 2480
निगम 2479
हित 2479
दिवसीय 2478
होटल 2477
रीक 2475
मो 2474
रॉन 2474
तरा@@ 2472
नुकसान 2472
काशी 2471
रोस 2471
सो 2471
60 2469
अभिव 2468
आय@@ 2467
गाड 2466
समझा 2465
रियन 2464
जाकर 2463
8@@ 2462
पहुँच 2461
लं@@ 2461
वन@@ 2460
शिया 2460
सां@@ 2460
हाई 2458
बचपन 2457
माइ@@ 2451
यानी 2450
महसूस 2447
रस@@ 2447
आपको 2446
नंबर 2446
साफ 2446
दम 2444
दें 2444
३० 2444
ऋषि 2442
तिशाली 2442
राल 2442
संज 2441
रोकने 2438
डिया 2435
ॉर 2435
बैक 2433
किरदार 2432
अम@@ 2430
थियों 2430
नू@@ 2426
The 2425
वनडे 2422
लने 2420
मनाया 2419
हन 2419
मोबाइल 2417
रंथों 2417
वनस 2414
रच@@ 2413
रूपों 2413
कोरिया 2412
चाहता 2412
रेय 2411
रौ@@ 2411
रेलियाई 2410
तीनों 2407
बाह 2404
मृ@@ 2404
मुगल 2400
रियता 2399
ऊंचाई 2398
पंक 2397
हमले 2397
कां@@ 2395
जय 2392
लॉक 2392
पनी 2391
सेंटर 2388
साथी 2384
आनंद 2383
साधन 2382
अ 2381
बॉ@@ 2378
फीट 2377
मुश 2377
खेलने 2375
अल@@ 2374
पंच@@ 2374
राजाओं 2374
is 2373
1992 2370
इंजीनियरिंग 2367
नाइ@@ 2366
रत@@ 2364
उपज 2363
जहाज 2363
डार 2362
तृतीय 2359
यिकी 2358
१०@@ 2358
गीकरण 2356
अनुपात 2355
जयपुर 2355
लित 2354
समृद 2354
धारावाहिक 2352
बेस 2352
कोल 2351
— 2351
पादों 2350
भूषण 2350
मल@@ 2350
होंगे 2349
अहमद 2347
रायगढ 2345
छेद 2344
निदेशक 2343
रीष 2343
दूध 2342
रॉनिक 2337
रीट 2336
जिनकी 2335
नॉ@@ 2335
चूंकि 2334
टुकड 2332
नूलु 2331
षता 2330
1994 2329
रोगी 2329
वरी 2328
यानि 2327
मंच 2326
बंगाली 2325
रय 2325
जरूरत 2324
नपुर 2324
रसारित 2324
डै@@ 2323
बनाये 2322
कृतियों 2321
वाई 2321
काम@@ 2320
आउट 2318
मिलाकर 2318
गायक 2317
ठित 2317
खत 2316
तुरंत 2315
हराया 2314
किला 2313
तभी 2312
1960 2311
इलाज 2309
भौगोलिक 2309
यव@@ 2309
लकर 2309
-- 2308
रिन 2307
गणना 2306
पियनशिप 2306
शुल 2306
रीमियर 2305
सार@@ 2304
बार@@ 2301
चीज 2299
तू@@ 2299
नाग@@ 2299
09 2298
मेरी 2295
गण 2292
रुचि 2292
1991 2291
ऋ@@ 2290
गुज 2290
जग@@ 2290
भूगोल 2289
मोहन 2286
गं@@ 2285
फा 2282
औपचारिक 2280
जनसांख 2279
डॉ@@ 2279
रवरी 2278
काफ 2274
काली 2274
1995 2273
कुर 2273
200 2271
काल@@ 2271
इंटर@@ 2270
टोन 2270
भागलपुर 2270
हाथों 2270
रगति 2269
नौज 2268
गुड 2265
शील 2265
कदम 2264
संपूर 2264
अधिकतम 2262
आध 2262
भाषाएँ 2262
संबद 2261
1993 2260
कलाकारों 2260
ऑर 2259
बोल 2259
रतिनिधि 2258
लीन 2258
कोशिकाओं 2257
रग 2254
सौर 2253
उपकरणों 2247
करेंगे 2247
A 2245
पेक 2245
ौर 2245
रहित 2242
शों 2242
मिर 2241
सिनेमा 2241
लियन 2240
तीसरा 2237
बदलाव 2237
उपयोगी 2232
गान 2232
बीज 2232
धक 2231
महाविद 2231
गेंद 2228
बाकी 2228
कुं@@ 2227
ंच@@ 2226
पौधों 2226
रपुर 2225
हम@@ 2224
नाट 2223
चय 2222
वात 2222
रांसीसी 2221
मारक 2217
देवताओं 2216
पाइ@@ 2214
आदमी 2213
धारी 2212
पंचायत 2211
उज 2210
ऊ 2207
परिभाषा 2207
फूल 2205
मराठी 2200
ऊँचाई 2198
घाटन 2196
बनाकर 2196
रेरणा 2195
समझने 2195
मय 2193
बनाता 2192
माह 2192
हिमालय 2188
अति 2187
गण@@ 2187
राग 2185
इण 2184
हूँ 2183
कह 2182
धता 2182
लॉन 2181
अवधारणा 2180
रहस 2180
शुरुआती 2177
निहित 2176
२५ 2174
टूडियो 2173
अंश 2172
टरों 2172
मैक@@ 2171
वेत 2171
दीक 2170
भी@@ 2167
सचिव 2167
सफेद 2167
डिजिटल 2165
वायरस 2165
हटा 2165
इमारत 2162
जीतने 2162
रीम 2162
तः 2161
लौट 2159
ंब@@ 2157
पथ 2157
थानांतरित 2155
सीट 2155
दैनिक 2154
मुसलमानों 2154
याय@@ 2154
चना 2153
बनाते 2152
मारे 2152
9@@ 2148
मचारियों 2148
जटिल 2147
फलस 2147
किंगडम 2145
रॉयल 2144
सरस 2143
तू 2141
यौन 2141
लिखने 2141
x 2140
जों 2140
चार@@ 2138
भे@@ 2138
पेशेवर 2137
रशंसा 2137
सद 2137
बाग 2134
अधिकारों 2132
मोटर 2132
रभा@@ 2131
इंटरनेशनल 2130
खाड 2130
पुन 2130
उपभोक 2129
संबंधों 2128
ंद@@ 2126
११ 2126
आयुर 2125
परस 2125
यातायात 2125
ंज 2121
कोशिका 2120
पोषण 2120
कच 2118
वानी 2118
चुनावों 2116
गुरु@@ 2115
महात 2115
१९३@@ 2115
ंच 2113
रसायन 2113
षाकृत 2113
फैला 2112
फू@@ 2109
रतीत 2108
टेन 2107
यकारी 2107
निय@@ 2103
मचारी 2102
डेन 2101
वाइ@@ 2101
षि@@ 2101
अमरीका 2100
खो 2100
पेस 2100
शराब 2099
शृंखला 2099
डाल 2098
लपुर 2097
इलाकों 2095
बई 2095
भाव@@ 2095
उ 2094
कौशल 2094
जीवनी 2094
५० 2094
लभ 2093
सुपर 2093
3@@ 2092
डेविड 2092
घोड 2090
काउंटी 2087
बद@@ 2087
बह@@ 2087
लंबाई 2085
षियों 2085
अशोक 2084
कोश 2084
शाह@@ 2084
सें@@ 2084
रष 2083
राजनैतिक 2080
याण 2077
फार 2072
पंजाबी 2070
१४ 2070
अमेरिकन 2068
घट@@ 2068
ऍ@@ 2065
इतनी 2063
सलाह 2062
होम 2061
रखना 2060
ठभूमि 2059
पृथक 2059
अभाव 2058
संगठनों 2058
ठोस 2056
नड 2056
नेवाले 2054
पौराणिक 2054
बनता 2054
कराने 2050
षरता 2048
में@@ 2047
समीप 2047
पट@@ 2046
मशीन 2046
गेट 2045
जातियों 2045
सेस 2044
संहिता 2043
दित 2041
वाह 2040
ऋण 2039
यपाल 2039
समानता 2036
आविष 2034
मेदार 2034
चलती 2033
लगती 2033
मिथ 2030
ंस@@ 2029
जान@@ 2029
ऊपरी 2027
बनाना 2025
महाद 2025
डेल 2023
रोटीन 2023
7@@ 2022
रोफेसर 2022
लना 2019
35 2016
रेशन 2016
सुबह 2015
80 2014
नेताओं 2012
फी 2012
बास 2012
वचा 2012
गलत 2010
जंगल 2010
रांड 2010
रर 2009
जरी 2008
तता 2008
रणी 2008
रेगोरी 2007
शिल 2007
अना@@ 2006
बसा 2006
वतन 2006
किताब 2005
यांकन 2005
काले 2001
माइकल 1999
कॉम 1997
माया 1996
रेंच 1996
२१ 1996
जमा 1995
नेत 1995
विरासत 1995
सुर 1995
जस 1994
बॉलीवुड 1994
वाचित 1994
इंच 1993
पहुंचती 1993
शनिक 1993
सन@@ 1993
मिन 1992
सकारात 1991
नये 1990
पंडित 1990
टेज 1989
तकालय 1989
राजनीतिज 1989
सुनिश 1987
रमशः 1986
समाधान 1985
षि 1984
समन 1984
सुझाव 1984
जातीय 1982
शिखर 1980
नदियों 1979
मिया 1979
वैसे 1979
जीवों 1974
नाम@@ 1973
दवा 1972
बेन 1972
लेती 1972
मीद 1969
जवाब 1968
पान 1968
मेला 1965
टॉक 1962
रुपये 1962
एसोसिएशन 1960
शून 1957
निकाला 1956
अंग@@ 1955
सका 1952
देखी 1951
1989 1950
२४ 1947
फील 1946
थलों 1944
राउंड 1943
वयस 1943
रजातियों 1942
संभावित 1942
विंग 1941
गू@@ 1938
करवाया 1937
बुक 1937
रखण 1936
तिथि 1935
कैलंडर 1934
कोण 1933
गुणों 1933
शीघ 1933
एड@@ 1931
बीमा 1931
मंदिरों 1931
अकबर 1929
टेनिस 1929
मना 1927
समझौते 1927
ताएं 1925
पारी 1924
शेयर 1924
१६ 1924
देखकर 1923
सुप 1923
1950 1922
संकट 1922
i 1920
एप 1918
बक 1918
0@@ 1917
ऑन 1917
चाहे 1917
कियों 1916
घरों 1916
सालों 1915
वरिष 1914
गुना 1912
70 1911
खाना 1911
विलय 1911
एका@@ 1910
किम 1910
१८ 1910
मगध 1909
हॉल 1908
कुत 1907
कैम 1907
तारे 1907
कौन 1905
यथा 1905
चालक 1904
यहीं 1904
रेखांश 1903
वंद 1902
साइट 1902
खराब 1900
विच 1900
ाया 1899
चुम 1897
पौधे 1897
लेखकों 1897
4@@ 1895
काओं 1895
जीते 1895
रसन 1895
णु@@ 1894
सिख 1894
ऑनलाइन 1893
खेलते 1893
ञानिकों 1893
मालिक 1893
जाये 1891
ॉ@@ 1891
दोष 1890
नोट 1890
रभु 1889
हू@@ 1889
होल 1889
कहता 1888
ठाकुर 1886
डाय@@ 1886
२०११ 1886
बदले 1885
बैठक 1885
एट 1884
टरी 1884
निरंतर 1883
चौधरी 1882
लाहौर 1882
आंध 1881
रखे 1881
डू@@ 1880
ऐल 1876
मॉ@@ 1876
गोस 1875
संसाधन 1875
सकें 1875
वाँ 1873
हुये 1873
बाब 1872
धांतों 1869
सांसद 1869
हरी 1868
गल@@ 1867
मंड@@ 1867
45 1866
इल 1866
घो@@ 1866
यहूदी 1865
ियन 1865
टैक 1864
लान 1864
संदेश 1864
यूब 1863
योग@@ 1861
यापारिक 1859
,@@ 1858
लगते 1858
आहार 1857
दौड 1855
शहरी 1855
हरे 1855
कवर 1854
चोट 1853
राणी 1853
6@@ 1852
उपा@@ 1852
पारित 1851
यूनानी 1851
रहों 1850
लेबाज 1850
बुनियादी 1849
हाइ@@ 1849
कट@@ 1848
कलकत 1848
हेनरी 1848
दीवार 1847
रियल 1847
छवि 1846
ोन 1846
नियन 1845
पू 1845
इट 1844
बिस 1844
जिलों 1843
थना 1843
शस 1843
धार@@ 1841
नाक 1841
भू 1840
तमिलनाडु 1839
मनोविज 1839
रोगों 1839
कोष 1838
जैक 1838
याम 1838
१४@@ 1837
देखभाल 1836
वली 1836
१३ 1836
डबल 1835
रॉस 1835
शुरूआत 1835
अनुबंध 1833
डाइ@@ 1832
संशोधन 1832
1947 1831
नैतिक 1831
रथा 1830
ारे 1830
संकल 1825
B@@ 1824
यंजन 1824
याज 1823
यायाधीश 1823
यादव 1822
२०१४ 1821
1986 1819
500 1819
नौकरी 1819
पद@@ 1819
पनिक 1819
बहादुर 1819
निकाल 1818
मां@@ 1816
कैथोलिक 1815
बेगूसराय 1814
यांत 1814
रिकी 1810
औरंगाबाद 1809
माल@@ 1809
लिय@@ 1809
समकालीन 1809
रतिद 1807
मनोरंजन 1806
संयोजन 1806
तारों 1805
यल 1805
नामों 1801
सेवन 1798
राफी 1797
ऑफिस 1796
गुण@@ 1796
गीतों 1795
रॉबर 1795
1988 1794
अष 1794
किसान 1794
इंद 1793
पीठ 1793
यि@@ 1793
यंग 1791
5@@ 1789
तक@@ 1789
आपके 1788
बुल 1788
रबंध 1787
१२@@ 1787
PM 1785
कोच 1785
गॉ@@ 1784
देर 1783
रयासों 1782
धरती 1780
हजारों 1780
छूटती 1779
नेहरू 1778
अफगानिस 1777
लाइट 1777
शासकों 1775
सिंगापुर 1775
1984 1774
नेल 1774
बागेश 1774
रयत 1774
कुश 1773
धी@@ 1772
याकरण 1772
बोस 1769
अपनाया 1768
१९ 1768
1@@ 1766
बोध 1763
अदालत 1762
हिट 1761
पाण 1760
पीटर 1760
गुर 1759
यय 1759
नर@@ 1758
रुक 1756
नवा@@ 1755
निदान 1754
रताप 1754
कॉटलैंड 1752
राजपूत 1751
लव 1751
तकें 1750
शाम 1750
पुणे 1748
धियों 1747
बालक 1747
90 1746
मीन 1746
षाओं 1746
फाइ@@ 1745
जैव 1743
हीन 1741
वेबसाइट 1740
षणिक 1740
इम 1739
कीमत 1739
राजकुमार 1739
भूत 1738
भौतिकी 1738
कैप 1737
जनक 1737
डोर 1736
हल@@ 1735
H@@ 1733
टीन 1733
रवाई 1733
हिमाचल 1732
नवीन 1731
पादक 1729
नग@@ 1728
विविधता 1728
तन@@ 1727
मुर 1727
मौजूदा 1727
पदों 1726
* 1725
तरीय 1725
बहा@@ 1725
भद 1725
भरी 1724
धिक 1723
अवश 1722
मकालीन 1722
रचनाओं 1722
कमाई 1721
तनाव 1721
यरत 1721
वापसी 1720
बचाने 1719
लोन 1719
नंद 1718
रुव 1718
सत@@ 1718
वैकल 1717
षे@@ 1717
रोगियों 1716
असफल 1715
१७ 1715
रामायण 1714
पहुंचा 1713
पैर 1713
जनजाति 1711
चमोली 1709
नास 1709
निवासियों 1709
रतिमा 1709
सेवाएं 1709
1985 1707
अस@@ 1706
आकाश 1706
आवृत 1705
हुसैन 1705
हान 1703
सामूहिक 1702
डिवीजन 1701
रभावशाली 1701
आजकल 1699
अनुकूल 1698
कठोर 1698
बनाती 1698
लीय 1698
पसंख 1696
मर@@ 1696
सुविधाओं 1696
इसको 1695
पेरिस 1695
जैविक 1694
पस 1693
गोली 1691
रहना 1691
br 1690
अनुरूप 1690
हिंसा 1690
लिप 1688
• 1687
करनी 1686
मक@@ 1686
पन@@ 1685
बंदी 1685
अनुक 1684
छु@@ 1681
पतन 1681
बंदरगाह 1681
सजा 1681
तराधिकारी 1680
135 1679
संघीय 1678
ाइन 1677
कोस 1676
तरल 1675
रैंक 1675
नकर 1673
खिताब 1672
तरों 1672
नात 1671
पौडी 1671
रमित 1671
रव@@ 1671
विपणन 1671
खाते 1670
माला 1670
दरबार 1669
दीप 1669
केल 1668
बेहद 1667
1987 1665
AM 1665
चतम 1665
घटक 1664
बताते 1664
बाँ@@ 1664
मि 1664
वास@@ 1664
ियो@@ 1664
रबन 1662
संभवतः 1662
हमारी 1661
खोला 1660
डस 1660
मेक 1660
मछली 1657
मठ 1657
लती 1657
वि 1657
1962 1656
देखे 1656
षय 1656
1971 1655
तप 1654
रूप@@ 1654
उपजिला 1653
मौलिक 1653
वजन 1653
आवास 1652
आंशिक 1651
जक 1651
शुरु 1651
ओवर 1650
तह@@ 1650
पॉल 1649
तथापि 1648
रीज 1648
मुम 1646
वच 1646
बिया 1645
मंगल 1645
रीति 1645
संसदीय 1644
बचाव 1643
मेरा 1643
T@@ 1642
दशा 1642
झ 1641
समझौता 1639
राहक 1637
शासनकाल 1637
बिलियन 1636
मेडिकल 1636
२२ 1636
कने 1635
जिक 1635
मजबूर 1632
लोगो 1632
शतक 1632
ढा@@ 1630
पुरम 1630
हार@@ 1629
बो 1628
लगा@@ 1628
1972 1627
पिंग 1627
फॉ@@ 1626
1967 1625
यथार 1625
जेन 1623
सांख 1623
२०१० 1623
मारा 1622
टाचार 1621
आगमन 1620
बातचीत 1620
भग@@ 1620
राजनेता 1620
आपने 1619
मोन 1619
रहीं 1619
शायर 1619
नयी 1618
बांध 1618
सीन 1618
हेल 1618
अधिग 1617
तुकला 1617
रियासत 1617
डिक 1616
मारने 1616
चलाने 1615
32 1614
कथाओं 1614
टार@@ 1613
बरी 1613
मुताबिक 1613
सोने 1613
जानते 1612
कहानियों 1611
पिन 1611
भीड 1611
विचारधारा 1611
मपुर 1610
रथ 1610
ंक@@ 1608
जानवरों 1608
यटक 1608
रजनन 1608
लैटिन 1608
रयोगों 1607
मनोवैज 1605
1952 1604
ंप@@ 1603
ौ 1603
बंध 1602
१३@@ 1602
लॉस 1601
धारणा 1600
महीनों 1597
वाय@@ 1597
बदला 1596
ऊष 1595
घायल 1595
योगों 1595
पौ@@ 1592
लह@@ 1592
कागज 1591
चौथे 1591
बों 1591
ओपन 1590
दै@@ 1590
मूत 1590
सहयोगी 1588
ुदा 1588
जू 1587
रोजगार 1587
ंसी 1586
लंबा 1586
राण 1584
गिनी 1583
मौखिक 1583
हानि 1583
नाग 1582
विशेषकर 1582
२००९ 1582
M@@ 1581
मिनल 1580
पटकथा 1578
दौ@@ 1577
रारूप 1577
बौ@@ 1575
रामक 1575
अमरीकी 1574
पें@@ 1574
फारसी 1574
शेर 1574
रख@@ 1572
संपादक 1572
तिम 1571
रतिबंध 1571
रतिभा 1568
अदिलाबादु 1567
रेम@@ 1567
हूं 1567
हनुमान 1566
तं@@ 1565
# 1564
जिंग 1564
मलयालम 1563
आपस 1562
रावण 1559
नागरिकों 1558
संयंत 1557
लिश 1556
कमल 1555
शनों 1555
लाइव 1554
बदलने 1553
बचने 1552
जाया 1551
दृढ 1551
रयाग 1551
वृ@@ 1550
गठबंधन 1549
टाउन 1549
इतने 1548
सरदार 1548
रशांत 1547
उदय 1546
भरा 1546
याल 1546
राहकों 1546
हट 1546
कवियों 1545
कुशल 1545
समेत 1545
चेतना 1544
टोरिया 1543
मणि 1543
गिर@@ 1542
मिंग 1542
रमिक 1542
पेशकश 1541
बाल@@ 1538
तरीकों 1537
रपात 1537
विट 1537
वेद@@ 1537
चावल 1536
महादेव 1535
रिचर 1535
गोवा 1533
महर 1532
लु 1532
उपनाम 1531
तनों 1531
एण 1530
भागीदारी 1530
दाता 1529
दिव 1529
C 1528
मुसलमान 1528
णता 1527
किसानों 1526
चं@@ 1526
धाम 1525
ईंधन 1524
एकीकृत 1524
अध@@ 1523
फिक 1523
,००० 1522
अंचल 1522
अवतार 1522
टेल 1522
वय 1522
कू 1521
जोकि 1521
ढाका 1521
इनकार 1520
तुल 1520
घड 1518
तावित 1518
दंड 1518
थापन 1516
रिड 1516
हुईं 1515
किट 1514
गेंदबाज 1514
ताज 1514
भाषा@@ 1514
वंशज 1514
सारा 1514
1977 1513
1982 1513
भेज 1513
वायु@@ 1513
गहराई 1511
जार 1511
फसल 1511
मशहूर 1511
२०@@ 1509
पहुंचने 1508
दूसरों 1507
मलेशिया 1507
इतिहासकार 1506
इलाके 1506
पशुओं 1506
मानवीय 1506
अमीर 1505
आखिरी 1504
ऑल 1504
कह@@ 1504
घनत 1503
बलों 1503
शय 1503
ंडे@@ 1502
उपाध 1502
संपन 1502
ील 1501
ओड 1500
ञान@@ 1500
परंपरागत 1500
विपक 1498
नमक 1497
नू 1497
राइट 1497
वेग 1496
ॆ@@ 1495
नति 1494
जाय 1493
रजाति 1493
रोतों 1493
ंगर 1492
पाता 1492
संगम 1492
सेवानिवृत 1492
I@@ 1491
मैंने 1491
गठित 1490
लेज 1490
शासित 1490
उपर 1489
भार@@ 1489
भाषण 1489
रणालियों 1488
वु@@ 1488
जनों 1487
दुष 1487
वालीफायर 1487
1.@@ 1486
नेपाली 1486
वाराणसी 1486
गीकृत 1485
जाएगी 1485
जोधपुर 1485
जोन 1485
ठान 1485
बना@@ 1484
यवाद 1484
लाल@@ 1484
ेन 1484
साझा 1483
ऐ 1482
G@@ 1481
यावहारिक 1481
वीपों 1481
थी@@ 1479
रीस 1479
खुले 1477
पराजित 1477
पाते 1477
रोन 1477
ुक 1477
कडप 1476
दाब 1476
धन@@ 1476
राव@@ 1476
सूरज 1476
चौथी 1475
जंगली 1475
उसको 1474
चाहिये 1474
जितना 1474
थाई 1474
परिवारों 1474
काला 1473
गीता 1473
यटकों 1473
विकार 1473
वेश 1473
जनपद 1470
महाकाव 1469
आशा 1468
गतिविधि 1468
सज 1468
टकर 1467
गरीब 1466
पत@@ 1464
बिग 1463
मद@@ 1463
तुति 1462
बारह 1462
तरीका 1461
बताता 1461
परत 1460
सवाल 1460
पादित 1459
झा 1458
पैरा@@ 1458
टने 1456
परामर 1456
आदिवासी 1455
कमजोर 1455
मधु@@ 1455
अगली 1453
नार@@ 1452
पाली 1452
बाढ 1452
डम 1451
बू 1451
रोध 1451
गदर 1450
भारती 1450
शन@@ 1450
दण 1449
नील 1449
विमानक 1449
अखिल 1448
लेयर 1448
साय@@ 1447
गुज@@ 1446
दवाओं 1446
२३ 1446
निज 1445
1975 1444
n 1443
रती 1442
पणी 1441
बायो@@ 1441
मेजबानी 1441
नामकरण 1440
यौ@@ 1440
समीकरण 1440
हाथी 1440
.. 1439
अमर 1439
फोट 1439
विष@@ 1438
घात 1437
चैंपियनशिप 1437
ठों 1437
वॉल 1437
गणेश 1436
एजेंसी 1435
णि@@ 1435
यमिक 1435
राई 1435
बहती 1434
बेटा 1433
यूरो@@ 1433
चलाया 1431
सिंह@@ 1431
जना 1430
आरंभिक 1429
रज@@ 1429
रें 1429
सहज 1429
आसान 1428
सृष 1428
रियो 1427
कुल@@ 1425
निक@@ 1425
डियन 1424
संगीतकार 1424
झू@@ 1423
लेश 1423
यापारी 1422
विंडोज 1422
1973 1420
चुनौती 1420
रखती 1420
सक@@ 1420
1979 1419
300 1418
राओं 1418
अंतर@@ 1416
इसीलिए 1416
उपाय 1416
झारखंड 1416
हाइट 1416
खतरा 1415
नव 1415
नीतियों 1415
नाडु 1414
यताओं 1414
आलोचकों 1413
करणों 1413
शांत 1413
कहने 1412
खर@@ 1412
1948 1411
डाक 1411
पब 1411
मगर 1411
सिम 1411
अनुरोध 1410
गिल 1410
वायत 1410
कुम 1409
पाय@@ 1409
ीकरण 1409
२६ 1409
कैलिफोर 1407
हक 1407
आना 1406
ञों 1406
शीतकालीन 1406
कोटा 1405
गिरजाघर 1405
पैसे 1405
समग 1405
कुण 1404
मुंगेर 1404
राणा 1404
N@@ 1403
ऋतु 1403
तापूर 1403
निन 1403
सूचीबद 1403
२००८ 1403
सदन 1402
२७ 1402
दिष 1401
लिंक 1401
सिको 1401
ूल 1401
४० 1401
यूनतम 1400
लिखते 1399
रतिरोध 1398
संग@@ 1397
साह@@ 1397
खरीद 1396
लिका 1395
किशोर 1394
कूलों 1394
घिरा 1394
छः 1394
1930 1391
अयोध 1391
करो 1391
गिरावट 1391
चलकर 1391
चिंता 1391
बोलने 1390
समुदायों 1390
1983 1389
P@@ 1389
कथित 1389
रफ 1389
वाहक 1389
1956 1388
मैग 1388
सुख 1388
दुश 1387
अवशेष 1385
टूट 1384
संदेह 1384
काट 1383
लियाँ 1383
हथियार 1383
मांस 1382
तपस 1381
जवा@@ 1380
नजर 1380
पिथोरागढ 1380
ंगल 1379
नाल 1379
आनन 1378
बती 1378
मिल@@ 1378
इराक 1377
इसलिये 1377
नकारात 1375
लगने 1375
तिरु@@ 1374
मेदारी 1372
संपादित 1372
सोसाइटी 1372
1957 1371
भाँति 1371
सियों 1370
२८ 1370
for 1368
सहमति 1368
उक 1367
वालियर 1367
शेख 1367
षांश 1367
वाभाविक 1366
ا@@ 1365
आमंत 1365
ऑपरेशन 1365
चरणों 1365
ञ@@ 1365
हारे 1365
१९०@@ 1365
मरण 1364
योतिष 1364
अफ@@ 1363
शाब 1363
शे 1363
ठे 1362
मुख@@ 1362
यूनियन 1362
नज@@ 1360
रेटर 1360
विकिरण 1360
सहमत 1360
सॉ@@ 1360
20@@ 1359
कमरे 1359
बसे 1359
मासिक 1359
as 1358
खंड@@ 1358
निकाय 1358
यकताओं 1358
यूरो 1358
कालिक 1357
वैद 1357
रूढ 1355
संगठित 1355
असामान 1354
नुसार 1354
मुल 1354
योद 1354
वें@@ 1354
सलाहकार 1354
२०१३ 1354
गाना 1352
ऊँचा 1351
संतुलन 1351
75 1350
B 1350
एकता 1350
जीव@@ 1350
डच 1349
कारकों 1348
पाती 1348
संसाधनों 1348
सीता 1347
S@@ 1345
नौसेना 1345
दुस 1344
मुग 1344
रदेशों 1344
आधे 1343
गुफा 1343
तृ@@ 1343
निकालने 1343
बारी 1343
खनिज 1342
मीदवार 1342
उन@@ 1341
गुजराती 1341
फेस 1341
विया 1341
कुन 1340
षति 1340
उद@@ 1339
आजादी 1338
खन 1338
रथ@@ 1338
रामपुर 1338
२००६ 1338
कथा@@ 1337
भोपाल 1337
रयोगशाला 1337
रिकाओं 1337
एडवर 1336
पाल@@ 1336
वैष 1336
नूर 1333
मुनि 1333
भास 1332
आरक 1331
साहब 1331
तरण 1330
विफल 1330
तैयारी 1329
दश@@ 1329
यं@@ 1328
जला@@ 1327
भा 1327
वाष 1327
वीकृति 1327
संवाद 1327
०० 1327
33 1326
अमीरात 1326
पो 1326
1978 1325
काएँ 1325
जीवन@@ 1325
मथुरा 1325
उल@@ 1324
दोनो 1324
नवाब 1324
निगरानी 1324
रनाथ 1324
1965 1322
निकलने 1321
गाँधी 1320
टीट 1320
बजट 1320
बुलाया 1320
माताओं 1320
रंगों 1320
शियम 1320
संशोधित 1320
वाणी 1319
1981 1318
खे 1318
टोक 1317
दपुर 1317
धूम 1316
कही 1315
टिकट 1315
मोक 1315
रहा@@ 1315
लियो@@ 1315
शुष 1315
जातियाँ 1314
निरीक 1314
महि@@ 1314
वासी 1314
जाल 1313
पायी 1313
कानपुर 1312
मौका 1312
शरण 1312
संवत 1312
कोरियाई 1311
छोर 1311
जाँच 1311
भय 1311
1976 1310
सिविल 1310
हमने 1310
नामांकन 1309
रेमी 1309
नीदरलैंड 1308
शती 1307
ारि@@ 1307
ंत@@ 1305
टोर 1305
मेले 1304
मोदी 1304
लॉर 1304
दायित 1303
मेर 1303
रजा@@ 1303
सबूत 1303
रचनाएँ 1302
ंगु@@ 1301
डाटा 1301
देन 1301
कमा@@ 1300
ञानी 1300
36 1299
amp 1299
लंघन 1299
अनुमानित 1298
गाया 1297
टइंडीज 1297
गहरा 1296
२००७ 1296
पुरातत 1295
तांत 1294
शानदार 1294
रीकरण 1293
नं@@ 1292
पाये 1292
पोल 1292
बहुमत 1292
मिनी 1292
राणियों 1291
लाइसेंस 1291
रिल 1290
संकलन 1290
आकृति 1289
पटेल 1289
महामारी 1289
यून 1289
1969 1288
1974 1288
फैल 1288
भुत 1288
राधा 1288
रकारों 1287
वरों 1287
हिंदुस 1286
or 1285
नगरों 1285
शाया 1285
तावेज 1284
अनुसरण 1283
दशकों 1283
मानचित 1283
सौंदर 1283
भूमिकाओं 1282
कृतियाँ 1281
कैं@@ 1281
टीका 1281
तेलुगु 1281
माप 1281
ियम 1281
कॉमिक 1280
बाड 1280
रसा@@ 1280
रॉय 1280
अनुष 1279
जिनसे 1279
बली 1278
गायन 1277
पाक 1277
मादा 1277
अकेले 1276
कें 1276
J@@ 1275
तां@@ 1275
कवि@@ 1274
ारसी 1274
पावत 1273
पॉलि@@ 1273
एलबम 1272
तंभ 1272
हारी 1271
वकील 1270
बनते 1268
रणा@@ 1268
वुड 1268
होनी 1268
नोबेल 1267
शाता 1267
गरम 1266
गहरी 1266
मापन 1266
रिं@@ 1266
लेखों 1266
निचले 1265
बख 1265
सदा 1264
सास 1264
सीखने 1264
II 1263
उठाया 1263
१.@@ 1263
यमुना 1262
यापन 1262
समझी 1262
सहारा 1262
सुन@@ 1262
बता@@ 1261
निकटतम 1259
बाला 1258
मोटे 1258
शिशु 1258
पठार 1257
आप@@ 1256
गीय 1256
गोपाल 1256
नाथ@@ 1256
वभाव 1256
भंग 1255
विधियों 1255
ंश 1254
ळ@@ 1254
नरेश 1253
डिप 1251
निकलती 1251
बातों 1251
विशेषताओं 1251
साहिब 1251
सिंहासन 1251
55 1250
सियस 1250
रामा 1249
रायद 1249
ईरानी 1248
उग 1248
एकड 1248
गति@@ 1248
जाय@@ 1248
रूम 1248
टिकल 1247
पहल 1247
केस 1246
वाना 1246
ॉन 1245
अचानक 1244
अनन 1244
खेत 1243
मुखी 1243
रमश 1243
कॉमेडी 1242
रांतिकारी 1242
हेक 1241
E@@ 1240
यां 1240
गौतम 1239
अभयारण 1238
शू@@ 1238
on 1237
इतालवी 1237
डक 1237
विनिर 1237
ठि@@ 1236
माई 1236
वादियों 1235
शह@@ 1235
पल@@ 1234
यार@@ 1234
रेंस 1234
हंडिया 1234
2.@@ 1233
भाजपा 1233
A@@ 1232
असमर 1232
आँ@@ 1232
यर@@ 1232
संवैधानिक 1232
सल@@ 1232
सुपर@@ 1232
सूचित 1232
सैद 1232
सोर 1232
चाई 1231
दं@@ 1231
नाटकों 1231
बहु 1231
भूमध 1231
सीता@@ 1231
दलों 1230
गाय 1229
रभावों 1229
साधना 1228
गोल@@ 1227
मंग@@ 1227
दावली 1226
D@@ 1225
जिया 1225
मौर 1224
रमंडल 1224
गोत 1222
मतदान 1222
सख 1222
२०१६ 1222
कांस 1221
वयन 1221
अंकित 1220
नुक 1220
बचा 1220
रतिरक 1220
आदि@@ 1219
रेंज 1219
वीन 1219
सोच 1219
६० 1219
इकट 1218
युगल 1218
रीकृष 1218
हॉकी 1218
२०१२ 1218
कैल 1217
ोड 1217
पारिवारिक 1216
सापेक 1216
बनती 1215
रबंधक 1215
ियाई 1215
T 1214
उपमहाद 1214
जायेगा 1214
तपुर 1214
डि 1213
तरार 1213
थु@@ 1213
नहर 1213
बीस 1213
वध 1213
सटीक 1213
कंट 1212
नागपुर 1212
निधि 1212
रकारिता 1212
ारी@@ 1212
याति 1211
रचनात 1211
लगाए 1211
रेणियों 1210
वल@@ 1210
चरम 1209
मेज 1209
टाटा 1208
फाउंडेशन 1207
असली 1206
करे@@ 1206
खाली 1206
लाज 1206
पहुंचे 1205
शूटिंग 1205
खुला 1204
महारानी 1204
हराकर 1204
अला@@ 1203
सीमाओं 1203
खून 1201
नींव 1201
लते 1201
ंगे@@ 1200
तख 1200
W@@ 1199
कारियों 1199
जानने 1199
२००० 1199
37 1198
असर 1198
डिय@@ 1198
रवासी 1198
लॉग 1197
समाजवादी 1197
अवैध 1196
सैयद 1196
अंडर 1195
टेबल 1195
तालाब 1195
बहस 1195
राण@@ 1194
मैरी 1192
विकिपीडिया 1192
हैरी 1192
छे@@ 1191
ंगों 1190
C@@ 1189
घि@@ 1188
टान 1188
तल@@ 1188
बुरी 1188
महिलाएं 1188
सफलतापूर 1188
सहस 1188
गयीं 1187
चाल 1187
उठा 1186
चौथा 1186
चौहान 1186
टिया 1186
1920 1185
जरूरी 1185
थॉमस 1185
मता 1185
मूलतः 1185
1000 1184
बोलते 1184
रिकार 1183
दादा 1182
फास 1182
मिन@@ 1182
यवादी 1182
२०१५ 1181
गज 1180
लाक 1180
बेडकर 1179
रांसिस 1179
पूंजी 1178
बनवाया 1178
1968 1177
खतरे 1177
बाध 1177
बाबू 1177
परिणामों 1176
https 1175
अनुच 1174
ईं 1174
उदा@@ 1174
खाता 1174
रतिवर 1174
1964 1173
याव@@ 1173
रखकर 1173
रबल 1173
हिसाब 1173
थै@@ 1172
रें@@ 1172
0.@@ 1171
टें@@ 1171
दरी 1171
ओल 1170
देगा 1170
पेज 1170
रोडक 1170
लोहे 1170
छो@@ 1169
चेहरे 1168
माँ@@ 1168
सीसी 1168
चिड 1167
1966 1166
थि 1166
बातें 1166
मैसूर 1166
सवार 1166
िम 1166
रेत 1165
भाषी 1164
E 1163
दारों 1163
इर 1162
रतिदिन 1162
सेना@@ 1162
रमाणित 1161
शनी 1161
घास 1160
टॉप 1160
भरे 1160
मुखर 1160
रणनीति 1160
परियोजनाओं 1159
फिलिप 1159
400 1158
काण 1158
दारी 1158
नीज 1158
बचा@@ 1158
बाधा 1158
रोसॉफ 1158
सू 1158
तलाश 1157
वचन 1157
लाना 1155
D 1154
दूत 1154
रगुप 1154
गौरव 1153
झो@@ 1153
संगत 1153
आरो@@ 1152
छू@@ 1152
ोसी 1152
गिरी 1151
यक@@ 1151
38 1150
कुंड 1150
रजत 1150
लाखों 1150
संपादन 1150
तटीय 1149
लोर 1148
तकर 1147
रजा 1147
कालेज 1146
दूरदर 1146
मानव@@ 1146
ऐक 1145
सुल@@ 1145
जानवर 1144
देशी 1144
रनों 1144
रिटी 1144
लाइफ 1144
लीला 1144
घूर 1143
वेदी 1143
सूरा 1143
मुकाबले 1142
रब 1142
ंडि@@ 1141
गानों 1141
M 1140
बदलकर 1140
रवादी 1140
लेंस 1140
विभक 1140
आवासीय 1139
ऋग 1139
काई 1139
गणितीय 1139
टाइल 1139
पीछा 1139
यमकेश 1139
रोही 1139
चि 1138
सिंचाई 1138
जीती 1137
छन 1136
यूनि@@ 1136
हितों 1136
यम@@ 1135
होली 1135
ाव 1135
34 1134
केश 1134
खूबसूरत 1132
छिद 1132
टेम 1132
बान 1132
कायम 1131
कैन 1131
भावनाओं 1131
संतान 1131
खींच@@ 1130
नाओं 1130
करों 1128
मानों 1128
युनिस 1128
राधिकरण 1128
शुभ 1128
२९ 1128
लेबाजी 1127
गिरि 1126
ठे@@ 1126
सें 1126
नातकोत 1125
पिल 1125
वीकृत 1125
समक 1125
सशस 1125
हू 1125
अबू 1123
जाट 1123
रूज 1123
शिला 1123
हफ 1123
अण 1122
पीने 1122
by 1121
थम 1121
दिखा@@ 1121
मिला@@ 1120
वयुद 1120
एज 1119
कथन 1119
तारीख 1119
रिसर 1119
अनुसूचित 1118
डू 1118
फैशन 1118
वारी 1118
संघ@@ 1118
an 1117
तीस 1117
रहमान 1117
इंदिरा 1115
डाउन 1115
मामला 1115
रदूषण 1115
लॉजी 1115
अनू@@ 1114
सफ@@ 1114
अंगों 1113
पुरा@@ 1113
बंध@@ 1113
अपना@@ 1112
मराठा 1112
सैकड 1112
हसन 1112
तालिका 1111
मेह@@ 1111
राजकीय 1111
रीमती 1111
19वीं 1110
65 1110
जेट 1110
रिपब 1110
विहार 1110
निया@@ 1109
सोनी 1108
हिर 1108
अखबार 1107
१०० 1107
नेवाला 1106
लिट 1106
भाष 1105
O@@ 1104
आपकी 1104
नाई 1104
पारिस 1104
विभागों 1104
सोल 1104
इंजीनियर 1103
एयरलाइन 1103
शोधकर 1103
सिया@@ 1103
तौ@@ 1102
मुफ 1102
रेटिंग 1102
षेपण 1102
चाय 1101
दीवारों 1101
नु 1101
राइल 1101
डित 1100
चाहती 1099
मत@@ 1099
ंडों 1098
लेख@@ 1098
विध 1098
बकीय 1095
रते 1095
राहुल 1095
रैंड 1095
वहन 1095
एर 1094
वागत 1094
यापी 1093
रोजेक 1093
जिब 1092
थिएटर 1092
पहुँचने 1092
बादशाह 1092
इनसे 1091
लत 1091
लिं@@ 1091
1940 1090
अहमदाबाद 1090
गहरे 1090
जमा@@ 1090
काउंसिल 1089
जीर 1089
दुओं 1089
चुंबकीय 1088
टाइप 1088
मैट 1088
बयान 1087
भर@@ 1087
अकाल 1086
घटित 1086
मेवाड 1086
सरकारों 1086
हिप 1086
m 1085
उदयपुर 1085
णकटिबंधीय 1085
बरा 1085
.com 1084
भले 1084
टी20ई 1083
फोटोग 1083
48 1082
टील 1082
R 1081
सरी 1081
मानस 1080
लेफ 1080
वाकर 1080
िन 1080
खनन 1079
देह 1079
रचलन 1079
शिवाजी 1079
एडि@@ 1078
रवाल 1078
कविताओं 1077
काउ@@ 1077
ढा 1077
बारिश 1077
लेम 1077
एपिसोड 1076
तिमान 1076
बस@@ 1076
मोह@@ 1076
लोराइड 1076
ंचा@@ 1075
सोलहवीं 1075
एकदिवसीय 1074
कहलाते 1074
काइ@@ 1074
दय 1074
15@@ 1073
X 1073
आईटी 1073
गंगा@@ 1073
नली 1073
बंग@@ 1073
1961 1072
छाया 1072
धारक 1072
30@@ 1071
ई० 1071
एसिड 1071
चेस 1071
फूलपुर 1071
राह@@ 1071
वीय 1071
धू@@ 1069
कित 1068
चला@@ 1068
चैंपियन 1068
णव 1067
फैक 1067
यायिक 1067
सीधा 1067
N.Z.A. 1066
लिफ 1066
अतीत 1065
कटिक 1065
ताई 1065
मॉर 1065
वेज 1065
that 1064
जंगलों 1064
थिरता 1064
रेगिस 1064
वाहनों 1064
तरा 1063
पेय 1063
मेजर 1063
हटाने 1063
१,@@ 1063
1963 1062
बॉम 1062
याँ 1062
L@@ 1061
ंडो 1061
इड 1061
कहलाती 1061
केप 1061
परिचित 1060
मैन@@ 1060
रामा@@ 1060
कथानक 1059
कनेक 1059
भूकंप 1059
विभा@@ 1059
२००१ 1059
८० 1059
R@@ 1058
उतना 1058
गुरुत 1058
बिट 1058
राइव 1058
शाखाओं 1058
पॉप 1057
सुविधाएं 1057
ेद 1057
अणु 1056
औषधि 1056
औसतन 1056
कुरान 1056
पतियों 1056
पहुँचा 1056
पाश 1056
योगी 1056
रैंकिंग 1056
खी@@ 1055
सेनाओं 1055
ंट@@ 1054
लीफ 1054
साहन 1053
हं@@ 1053
अव 1052
कीं 1052
फल@@ 1052
जूनियर 1051
तरराष 1051
निकला 1051
विनाश 1051
م@@ 1050
भै@@ 1050
रवाद 1050
लेशन 1050
षु 1050
जियम 1049
अनुयायी 1048
कॉल 1048
दल@@ 1048
दोषी 1048
बुर 1048
वसा 1048
कलात 1047
साउथ 1047
ारण 1047
वितरित 1046
घा 1045
परिकल 1045
योहार 1045
हरा@@ 1045
गले 1044
पंद 1044
150 1043
गेंदबाजी 1043
मीरी 1043
लियो 1043
सदा@@ 1043
अनेकों 1042
बिहारी 1042
मानने 1042
राजा@@ 1042
लौटने 1042
वोट 1042
52 1041
एंटी@@ 1041
खोल 1041
चस 1041
टेलीविज 1041
महावीर 1041
मानकों 1041
de 1040
आधा 1040
इकाइयों 1040
काँ@@ 1040
णि 1040
वसन 1040
तकनीकों 1039
तिया 1039
वासन 1039
F@@ 1038
देहरादून 1038
भोज 1038
मुलाकात 1038
पैदल 1037
वेतन 1037
इंडोनेशिया 1035
विं@@ 1035
हि 1035
इलाक 1034
कणों 1034
निशान 1034
पुराणों 1034
बॉल 1034
शं@@ 1034
टिका 1033
लखीसराय 1033
लाए 1033
पोरेट 1032
लोड 1032
1955 1031
पाठक 1031
रेडिट 1031
शहीद 1031
ोल 1031
घे@@ 1030
टेंट 1030
तिका 1030
लबर 1030
षरों 1030
अपील 1029
तीं 1029
दार@@ 1029
फेफड 1029
जागरण 1028
रूर 1028
वां@@ 1028
१८९@@ 1028
अवसरों 1027
ताम 1027
नाना 1027
घातक 1026
वीपसमूह 1026
शनल 1026
डेक 1025
दिग 1025
सिग 1025
सीरिया 1025
42 1024
पिस 1024
रांतीय 1024
शिलालेख 1024
ोस 1024
जं@@ 1023
राउ@@ 1023
एव@@ 1022
कोटि 1022
ङ@@ 1022
होनें 1022
बाजी 1021
ेगा 1021
डालने 1020
तरिक 1020
नगरी 1020
असाधारण 1019
परे 1019
रवास 1019
पारस 1018
भाइयों 1018
भारतीयों 1018
जगहों 1017
मानता 1017
यवर 1017
राजील 1017
संलग 1017
इंदौर 1016
दगी 1016
रावधान 1016
वेदों 1016
खबर 1015
बाइ@@ 1015
अनुयाई 1014
रोग@@ 1014
हिम 1014
गोविन 1013
णक 1013
पाउंड 1013
रूपांतरण 1013
ास 1013
1949 1012
किक 1012
विवेचन 1012
षु@@ 1012
बहुसंख 1011
विजय@@ 1011
हारा 1011
२००५ 1011
कली 1010
रीन@@ 1010
छुट 1009
64 1008
ई.पू. 1008
आल 1007
इमारतों 1007
भेजने 1007
मिसाइल 1007
लेखा 1007
c 1006
रविष 1006
राना 1006
08 1005
अनाज 1005
कहती 1005
जनित 1005
मच 1005
राइड 1005
एलेक 1004
आम@@ 1003
किर 1003
तगाली 1003
महाराणा 1003
षार 1003
सकी 1003
जोशी 1002
पावर 1002
पुन@@ 1002
कहे 1001
रभाव@@ 1001
राजकुमारी 1001
रिट 1001
संश 1001
अंडे 1000
धु 1000
मुहा@@ 1000
रहें 1000
वरुप 1000
गहन 999
समापन 999
सेज 999
1945 998
निरा@@ 998
ीसा 998
थानी 997
लिया@@ 997
अज@@ 996
भीम@@ 996
रियर 996
संतुष 995
हमलों 994
कोप 993
फेट 993
विलुप 993
टीज 992
तराखंड 992
याएं 992
योजनाओं 992
ववर 992
पिछली 991
सोडियम 991
ाना 991
अनुपस 990
गणतंत 990
नाटकीय 990
पहलुओं 990
पोरेशन 990
रहेगा 990
आवेदन 989
उठा@@ 989
नाय@@ 989
याह 989
वनों 989
नेवाली 988
शोषण 988
२००४ 988
भेड 987
रहकर 987
आख 986
खुदाई 986
बैंकों 986
सेकंड 986
ियर 986
चिल 985
डियों 985
बेर 985
मांकन 985
मोडा 985
राजीव 985
सराय 984
o 983
एम.@@ 983
कारोबार 983
रतिबंधित 983
गांवों 982
ताएँ 982
फैले 982
मग 981
यूके 981
येष 981
समाजशास 981
1954 980
सिंध 980
उपदेश 979
रभुत 979
विटामिन 979
विषाणु 979
शनीय 979
हमारा 979
००० 979
नैदानिक 978
मोनो@@ 978
निकलता 977
फूलों 977
रियम 977
सांरगढ 977
जगन 976
पंजीकृत 976
पोप 976
षिणपूर 976
ाइल 976
ॉ 976
दिलचस 975
वियतनाम 975
समझ@@ 975
अभिक 974
आराम 974
एगा 974
कबीर 974
जलप 974
टु 974
ियाना 974
1946 973
ंदा 973
कोरो@@ 973
मापी 973
रदा@@ 973
F 972
खगोलीय 972
पेनिश 972
बनकर 972
शौ@@ 972
आध@@ 971
ताल@@ 971
फे 971
बैंकिंग 971
रकाश@@ 971
लेड 971
इला@@ 970
गायत 970
चालू 970
लगाकर 970
सबर 970
N 969
l 969
कष 969
टॉम 969
धे 969
योर 969
लाई@@ 969
वादक 969
अंटार 968
औपनिवेशिक 968
जात 968
विनिमय 968
चलचित 967
थता 967
लीज 967
लैश 967
वेयर 967
इयों 966
छंद 966
राउन 966
लाकर 966
सती 966
सदैव 966
छिक 965
लामिक 965
वालामुखी 965
तरंग 963
नाश 963
बैठे 963
मोल 963
काला@@ 962
रोकार 962
सतत 962
जिन@@ 961
यूएस 961
S 960
आंग 960
साई 960
आवर 959
डेमोक 959
सीय 959
२०१७ 959
गमन 958
तुएँ 958
पूछा 958
रकला 958
उठाने 957
लिंग@@ 956
अलेक 955
गरी 955
लिब 955
सित 955
सूच@@ 955
ंडे 954
इंड@@ 954
फुल 954
भीम 954
यॉर 954
वयं@@ 953
उपरांत 952
शीलता 952
07 951
एजेंट 951
धे@@ 951
लघु@@ 951
1958 950
उपासना 950
तरित 950
काया 949
कॉट 949
थाईलैंड 949
रवाहित 949
७० 949
छड 948
तना 948
किरण 947
इनको 946
कोलंबिया 946
गोरखपुर 946
घू@@ 946
बनाम 946
बहने 946
रवि 946
आदित 945
नवी@@ 945
बॉन 945
लोबल 945
विधा@@ 945
पहलू 944
फंड 944
माँग 944
लोकतंत 944
सीक 944
मुकाबला 943
06 942
ऊँची 942
चोटी 942
फाल 942
भरने 942
साथियों 942
अंड@@ 941
डीन 941
तलाक 941
बिलकुल 941
मुकदमा 941
सूचक 941
२०१८ 941
1951 940
चेतावनी 940
निंदा 940
फैली 940
ओलम 939
रंगमंच 939
खासकर 938
खू@@ 938
टेयर 938
सेनानी 938
दुबई 937
बँ@@ 937
मणिपुर 937
हिम@@ 937
ंकी 936
आद@@ 936
करार 936
घोष 936
यथा@@ 936
रिफ 936
खतरनाक 935
नाएं 935
बाघ 935
मरी 935
महोत 935
योज@@ 935
सद@@ 935
अक@@ 934
मूल@@ 934
राहत 934
95 933
तेलंगाना 933
दिखाने 933
1959 932
V@@ 932
अट@@ 932
गौड 932
भाषाई 932
यौगिकों 931
शिप 931
थापत 930
मॉन 930
साइंस 930
सामुदायिक 930
आउट@@ 929
बरेली 929
रक@@ 929
राफिक 929
सं 929
नगरपालिका 928
नाएँ 928
अंतराल 927
कुमार@@ 927
चम@@ 927
नरी 927
बीकानेर 927
हांगकांग 927
51 926
ऊंची 926
चोरी 926
जावा 926
परक 926
47 925
धातुओं 925
पिथौरागढ 925
लॉ 925
चल@@ 924
जॉ@@ 924
पृ@@ 924
जीवाश 923
टेली@@ 923
पारि@@ 923
५०० 923
ंदर 922
मरा@@ 922
सकल 922
25@@ 921
K@@ 921
करेगी 921
देखता 921
पारम 921
बीर 921
कैद 920
तावादी 920
फलन 920
बी.@@ 920
वांछित 920
वाहि@@ 920
शिवा@@ 920
शीत@@ 920
सदियों 920
44 919
ईसवी 919
गुरू 919
णिक 919
बनावट 919
सऊदी 919
सचेंज 919
बुल@@ 918
मतभेद 918
वनाथ 918
वय@@ 918
काना 917
कीट 917
जिल 917
ढी 917
नाज 917
वदेशी 917
पूरक 916
बाँध 916
मातृभाषा 916
यासों 916
चमक 915
जिनमे 915
बाद@@ 915
भूटान 915
सृजन 915
इतिहासकारों 914
पहचाना 914
मुन 914
आयात 913
तिन 913
मंद 913
05 912
दमन 912
पशु@@ 912
वादा 912
इंटर 911
इंडीज 911
ऑव 911
तमाम 911
निकटता 911
V 910
तेलुगू 910
रॉ 910
p 909
डीसी 909
ययनों 909
वतों 909
सु 909
उठ@@ 908
झिल 908
मदर 908
p@@ 907
करी@@ 907
पंथ 907
गां@@ 906
टी20आई 906
पैरों 906
बेल@@ 906
दाय@@ 905
मंजूरी 905
रांस@@ 905
साझेदारी 905
२००३ 905
जाइ@@ 904
भाग@@ 904
समतल 904
एना@@ 903
राब 903
L 902
बेचने 902
समि@@ 902
सेनापति 902
00 901
अजय 901
खारिज 901
बचे 901
संजय 901
बेड 900
लव@@ 900
लुक 900
लौह 900
हरि 900
रीब 899
लाद 899
with 897
एकीकरण 897
छूट 897
पिछड 897
फायर 897
मालवा 897
वैध 897
3.@@ 896
उपनिषद 896
डेस 896
परेशान 896
लुप 896
वसनीय 896
k@@ 895
समे@@ 895
साप 895
काने 894
जरिए 894
नेक 894
बृ@@ 894
भट@@ 894
मिड@@ 894
शंस 894
99 893
चिंग 893
जानता 893
टीरिया 893
नाड 893
रकरण 893
अटलांटिक 892
खिला@@ 892
लॆ 892
अकार 891
कलन 891
टाई 891
दाएं 891
निबंध 891
परास 891
संन 891
झे@@ 890
धृत 890
निका 890
बानी 890
रायन 890
साधनों 890
al 889
अली@@ 889
रोशनी 889
39 888
चमत 888
तनत 888
ताना 888
निकी 888
रघु@@ 888
वाज 888
विधेयक 888
कंप@@ 887
गंध 887
नेन 887
मिलन 887
टियाँ 886
तारित 886
तिस 886
देरी 886
was 885
चौक 885
धियाँ 885
रपान 885
सीधी 885
तुलनात 884
यकों 884
लगाना 884
गुस 883
धांतिक 883
महमूद 883
रेरी 883
शिवलिंग 883
अतिथि 882
ऊतक 882
घट 882
भागवत 882
वैन 882
12@@ 881
नामांकित 881
पहुँचे 881
फलों 881
समी@@ 881
अग@@ 880
आसन 880
तैनात 880
पं 880
पाप 880
मलिक 880
सिरे 880
डीज 879
समाधि 879
अभिप 878
करु@@ 878
नामा 878
मनु 878
मिलान 878
लियां 878
बेच 877
यकृत 877
राही 877
शम 877
साम@@ 877
ृत 877
गृ@@ 876
टमेंट 876
पैक 876
लिख@@ 876
षस 876
आवागमन 875
टाइन 875
सुना@@ 875
सुनाई 875
ऊँचे 874
भण 874
अनिश 873
डीएनए 873
दिख@@ 873
बीन 873
विदेशों 873
वेर 873
शोथ 873
ر@@ 872
करनेवाले 872
तिहाई 872
थरों 872
पाँच@@ 872
पैलेस 872
लगाते 872
सशक 872
जीवाणु 871
तारा@@ 871
तावाद 871
परिष 871
बैठ@@ 871
तारामंडल 870
भव@@ 870
लेबल 870
केशन 869
खुश 869
सोसायटी 869
पंथी 868
रोम@@ 868
कमान 867
कोयला 867
खरीदने 867
णिया 867
पुण 867
रियाई 867
संबोधित 867
आपसी 866
कहकर 866
णिमा 866
सौंप 866
हथियारों 866
झारखण 865
पदा@@ 865
ुद 865
जेने@@ 864
तिलक 864
देखना 864
बग 864
बलि 864
संवर 864
ढांचे 863
विधा 863
वीडन 863
गलती 862
पिट 862
रुवीय 862
ीक 862
ंडा@@ 861
कठिनाई 861
कारा@@ 861
पथ@@ 861
रभाग 861
शिकायत 861
ृ@@ 861
नाव 860
यां@@ 860
रेण@@ 860
43 859
कु 859
खों 859
मुड 859
रतिबद 859
वरन 859
विचार@@ 859
1857 858
चाचा 858
जाम 858
बरा@@ 858
भंडार 858
शिकागो 858
सफर 858
46 857
अधिकृत 857
तुतः 857
बृहस 857
सकर 857
41 856
85 856
रोफ 856
सकों 856
ोत 856
३१ 856
1942 855
आयी 855
जितनी 855
नारी 855
विवादास 855
सांप 855
साइकिल 855
कज 854
घम 854
जंग 854
पंच 854
रशस 854
१९४@@ 854
are 853
दिखने 853
बैं@@ 853
सरोवर 853
आतंकवादी 852
आपका 852
कांत 852
कैबिनेट 852
टेशनों 852
यौहार 852
नागा@@ 851
नेर 851
वासियों 851
२.@@ 851
तीफा 850
पैटर 850
मशी@@ 850
रवी@@ 850
१९९० 850
अंकों 849
वतीय 849
एलि@@ 848
खूब 848
टना 848
टें 848
नक@@ 848
पला@@ 848
शैलियों 848
हाई@@ 848
कना@@ 847
खुशी 847
थो 847
पवन 847
भेंट 847
ओमान 846
गोर 846
भूमि@@ 846
रतियोगिताओं 846
शरी@@ 846
सुनकर 846
हिं@@ 846
en 845
अपूर 845
जाएँ 845
टियां 845
नियाँ 845
बनायी 845
यकालीन 845
शिय@@ 845
षड 845
टी20 844
भिकियासैण 844
रामिंग 844
वचालित 844
धनी 843
पैसा 843
बताती 843
मेयर 843
राजशाही 843
अह@@ 842
रधानमन 842
रने 842
लाव 842
सिंड 842
04 841
एग 841
निभाया 841
बेक 841
उपनिषदों 840
गरीबी 840
टैग 840
मकता 840
रूण 840
२०० 840
अपहरण 839
आयरिश 839
गाँ@@ 839
बें@@ 839
हेड 839
करू@@ 838
कारी@@ 838
गायिका 838
तलवार 838
निशा@@ 838
पीले 838
पुरु@@ 838
मांग@@ 838
मोत 838
वीपीय 838
III 837
एंजिल 837
एयरलाइंस 837
चालित 837
बाग@@ 837
सूरी 837
1953 836
अवलोकन 836
आनुवंशिक 836
घन 836
पसंदीदा 836
मरने 836
महेश 836
संवेदनशील 836
होस 836
अपर 835
ओन 835
जिसको 835
नग 835
मै 835
राजदूत 835
होत 835
1,@@ 834
2022 834
पियन 834
भाप 834
मौलाना 834
लोस 834
षण@@ 834
सुख@@ 834
b 833
थियेटर 833
रखंड 833
लाइब 833
संकाय 833
साह 833
बनारस 832
संयोग 832
सिफारिश 832
n@@ 831
कितना 831
भावी 831
वंशी 831
हिंसक 831
b@@ 830
कोइल 830
भों 830
मांड 830
राजनयिक 830
वायर 830
कायमगंज 829
गु 829
चंडीगढ 829
चेक 829
ञता 829
पेटेंट 829
भरत 829
मारी 829
रोप 829
संकेतों 829
खै@@ 828
ठहराया 828
डीह 828
दाई 828
नाशक 828
सोशल 828
ب@@ 827
गुल@@ 827
परिचालन 827
फौ@@ 827
बता 827
रसूल 827
पुरातात 826
बंधन 826
भेजे 826
53 825
कुमारी 825
यानों 825
राद 825
रोकथाम 825
d@@ 824
चूँकि 824
वकालत 824
at 823
रचना@@ 823
600 822
डेड 822
ताहिक 822
सवारी 822
टानों 821
तारी 821
बादल 821
मला@@ 821
लोकतांत 821
शाली 821
शॉट 821
सेमी 821
56 820
किरा@@ 820
किलो 820
कुमा@@ 820
निभा@@ 820
ंगो 819
अपवाद 819
गिटार 819
देवनागरी 819
बेहतरीन 819
बोले 819
यमन 819
युनि@@ 819
कैलेंडर 818
दाम 818
बाएं 818
यवाही 818
रियाँ 818
वाद@@ 818
संचरण 817
उस@@ 816
खुली 816
चेरी 816
मेजबान 816
योनि 816
विटी 816
सिडनी 816
कमीशन 815
जीवी 815
मुंह 815
रेस@@ 815
و@@ 814
उतर@@ 814
फार@@ 814
मणों 814
वीराज 814
उपेक 813
जेक 813
धात 813
मनी@@ 813
रूचि 813
हानिकारक 813
49 812
टीमें 812
दाद 812
महासचिव 812
रसंग 812
सौंपा 812
िवादी 812
२००२ 812
धड 811
निको@@ 811
मानु@@ 811
रजातियां 811
अभ@@ 810
टनी 810
पोशाक 810
फिया 810
भौ@@ 810
लिख 810
वाशिंगटन 810
अजमेर 809
घी 809
रहवीं 809
सेतु 809
ref 808
कितनी 808
यापारियों 808
टका 807
दाख 807
दूतावास 807
परिपथ 807
भेदभाव 807
40@@ 806
अनुदान 806
आजाद 806
चिप@@ 806
नदियाँ 806
१८८@@ 806
एडम 805
तूफान 805
पूल 805
54 804
कहा@@ 804
कहानियाँ 804
चारी 804
रोटोकॉल 804
संभाला 804
बलात 803
बीए 803
मेगा@@ 803
लें@@ 803
समावेश 803
०३ 803
आपराधिक 802
खाई 802
गीर 802
पने 802
मग@@ 802
रानीखेत 802
हैम 802
अपितु 801
ओडिशा 801
जेस 801
बेरी 801
ال@@ 800
चूर 800
जहाजों 800
पाद@@ 800
भांति 800
मरीज 800
साध 800
अपराधी 799
चारित 799
धीमी 799
पिंड 799
बीसवीं 799
लेग 799
शपथ 799
सिंधु 799
सुंद@@ 799
पालिका 798
विमानों 798
सीटों 798
उपहार 797
जोसेफ 797
डु 797
धरोहर 797
पायलट 797
रमण@@ 797
वतमाला 797
अका@@ 796
अदा 796
आलोचक 796
काॅ@@ 796
कोने 796
खम 796
पहुँचा@@ 796
यश 796
रशंसकों 796
राई@@ 796
रीनगर 796
वट 796
शियल 796
ाइ@@ 796
िस 796
1936 795
अहम 795
उपक 795
एलन 795
ओम 795
दुकान 795
फैसले 795
बेगम 795
संभल 795
हॉलीवुड 795
ारो@@ 795
राजेश 794
लां@@ 794
साँ@@ 794
अवध 793
छी@@ 793
जरिये 793
निकले 793
भूल 793
यतीत 793
०२ 793
जाज 792
टेन@@ 792
नंद@@ 792
बीबीसी 792
रमिकों 792
उपरोक 791
ओस 791
डॉन 791
थानिक 791
धारा@@ 791
मती 791
संध 791
संभवत 791
ानिस 791
ः@@ 790
गामी 790
थकों 790
नृ@@ 790
फसलों 790
बढ@@ 790
संगीत@@ 790
हब 790
केश@@ 789
गुलाम 789
तने 789
निभाने 789
फीचर 789
यशास 789
सात@@ 789
अवकाश 788
गिरि@@ 788
छल 788
मरम 788
रेखा@@ 788
लद 788
विकासशील 788
P 787
ऑपरेटिंग 787
टीव 787
देंगे 787
माओं 787
j@@ 786
इसपर 786
खुर 786
खोजने 786
गामा 786
यन@@ 786
मेहता 785
सुना 785
गणितज 784
भुज 784
मालूम 784
वेट 784
सफोर 784
ेक 784
हिंदुओं 783
गस 782
धौ@@ 782
१९५@@ 782
000 781
72 781
G 781
ऑप 781
खाँ 781
झाड 781
नौकर@@ 781
रंगीन 781
रतिकूल 780
www.@@ 779
अभिलेख 779
डेंट 779
नोलॉजी 779
पसन 779
ंचल 778
परागत 778
लाते 778
समकक 778
सुदूर 778
अद@@ 777
बियन 777
बैटरी 777
रोह@@ 777
शरीफ 777
परंपराओं 776
बीमार 776
युनाइटेड 776
26@@ 775
गार@@ 775
डोमेन 775
तान@@ 775
नैतिकता 775
सोचा 775
U@@ 774
http 774
अख 774
कॉक 774
तूर 774
पूछ@@ 774
वत@@ 774
हदीस 774
किं@@ 773
खरीद@@ 773
जातक 773
फाय@@ 773
रीड 773
रुपए 773
समझते 773
दया@@ 772
दांत 772
निरं@@ 772
रवार 772
शिमला 772
साधु 772
नमाज 771
हारों 771
तुम@@ 770
भरता 770
वाण 770
अभियांत 769
बरकरार 769
विका@@ 769
शेक 769
साइक 769
सूरत 769
1939 768
घं@@ 768
चोपड 768
माली 768
रेनी 768
ाते 768
ाम 768
मिने@@ 767
विवे@@ 767
विवेक 767
आतंकवाद 766
खुलासा 766
राथमिकता 766
कैम@@ 765
खान@@ 765
एवम 764
गह@@ 764
नियत 764
सोम 764
हरी@@ 764
आचरण 763
उजागर 763
कमांडर 763
टिनेंट 763
ठंडा 763
डेनमार 763
दबा@@ 763
वाग 763
ईट 762
ईयों 762
एंग 762
औष@@ 762
ताकत 762
शोर 762
हालत 762
24@@ 761
50@@ 761
गेल 761
नियाई 761
शनि 761
ौली 761
01 760
गुन 760
भड 760
रहार 760
रेरक 760
शियन 760
सुनने 760
अररिया 759
नीले 759
फर@@ 759
रना 759
रेता 759
हवीं 759
कच@@ 758
चीजों 758
टाइगर 758
णायक 758
नाते 758
यश@@ 758
रतिपादन 758
हवेली 758
अलंकार 757
खंडों 757
विधि@@ 757
०.@@ 757
उपनिवेश 756
चलन 756
रोशन 756
लीप 756
सीम 756
आगामी 755
डिब 755
धनुष 755
पेनी 755
रंथि 755
वू@@ 755
गुल 754
दिला@@ 754
भयंकर 754
रुत 754
शिकी 754
समु@@ 754
कंपनियां 753
षिण@@ 753
३५ 753
2,@@ 752
h 752
यारह 752
जागरूकता 751
टोनी 751
तराधिकार 751
देखरेख 751
नमूने 751
रविवार 751
इंगित 750
जिया@@ 750
तिवारी 750
बैंगलोर 750
भूमिगत 750
वायुमंडल 750
800 749
आदान 749
खपत 749
खेड 749
दायर 749
मनाने 749
समुच 749
1941 748
m@@ 748
आवरण 748
कानूनों 748
दीपक 748
नरेन 748
परिदृश 748
पोषक 748
मजदूर 748
मणि@@ 748
लुई 748
विफलता 748
हावड 748
ियोग 748
3,@@ 747
मेघालय 747
00@@ 746
1937 746
कीन 746
खंडन 746
बालों 746
बोला 746
युवाओं 746
रगतिशील 746
लख@@ 746
९० 746
O 745
अपनाने 745
57 744
कराची 744
खरीदा 744
गने 744
नोकिया 744
रिजर 744
लयों 744
अभिनीत 743
उपयोगिता 743
दलित 743
परिमाण 743
मैत 743
लगाई 743
लिज 743
दरों 742
नैशनल 742
फिन 742
सरलता 742
लीड 741
d 740
ऑटो@@ 740
करवा@@ 740
डली 740
दड 740
दोपहर 740
रॉड@@ 740
संकलित 740
सोना 740
सौदा 740
1900 739
from 739
y@@ 739
काटने 739
णे 739
पां@@ 739
मानकर 739
मिता 739
रेसिंग 739
विशेषताएं 739
58 738
डांस 738
दाल 738
नशील 738
रधा@@ 738
1919 737
एयर@@ 737
छठी 737
तविकता 737
राइस 737
शेखर 737
सेप 737
250 736
अथ@@ 736
तम@@ 736
मामूली 736
यवाणी 736
यावरणीय 736
रोधी 736
68 735
आस@@ 735
कद 735
कारखाने 735
काली@@ 735
गली 735
थलीसैंण 735
विशेषताएँ 735
आह 734
तनी 734
मकान 734
लूज 734
लैम 734
अख@@ 733
आईसी@@ 733
इंडस 733
कितने 733
घुड 733
चैत 733
धम@@ 733
नाथन 733
नियोजित 733
राइज 733
राकृत 733
वसंत 733
वाया 733
web 732
अय 732
किशो@@ 732
गिरने 732
परिपक 732
रजिस 732
सिलि@@ 732
ितों 732
US 731
ंडल 731
अतएव 731
अमृतसर 731
कैमरा 731
पूजन 731
योति@@ 731
वीज 731
सीढ 731
अरुण 730
ईसापूर 730
गिन 730
चिंतन 730
वराज 730
केबल 729
गीतकार 729
बिलारी 729
रंश 729
रविड 729
िये 729
ेश 729
टीकरण 728
डाली 728
मदा 728
सिम@@ 728
हॉट 728
ل@@ 727
नाद 727
पूंजी@@ 727
शव 727
सफाई 727
ए.@@ 726
पुट 726
मिमी 726
मूलभूत 726
रयोजन 726
रूद 726
1932 725
तगाल 725
बिज 725
माधव 725
मुजफ 725
विलयन 725
हिंद 725
62 724
ऐंड 724
टिम 724
डिया@@ 724
डेब 724
ढो@@ 724
धूप 724
रिंस 724
रेसि@@ 724
करन 723
पाठ@@ 723
शिविर 723
4.@@ 722
ऐं@@ 722
गुं@@ 722
टाने 722
डोल 722
नुमा 722
मूलन 722
राजेन 722
लेप 722
शरा@@ 722
िर 722
ओक 721
कटिका 721
घटकों 721
जाएंगे 721
मुँह 721
राचार 721
सरों 721
सिकन 721
काठ@@ 720
षो 720
सने 720
हरिद 720
ऊंचा 719
धिकारी 719
बहिष 719
बुरा 719
मुरा@@ 719
विग 719
सूचकांक 719
66 718
आयुक 718
टून 718
वान@@ 718
एफसी 717
एयरपोर 717
यायाम 717
विज@@ 717
सैक 717
खिड 716
पैट 716
मेघ@@ 716
अलं@@ 715
कूट@@ 715
ञापनों 715
थयात 715
यूम 715
सूफी 715
अनो@@ 714
आशय 714
खेली 714
घंटा 714
तज 714
बनना 714
रांतों 714
सौंप@@ 714
ेस 714
web.archive.org 713
उमर 713
कृपा 713
टग 713
यूजिक 713
यूनिट 713
रेटिक 713
सहा@@ 713
अवयव 712
औरंगजेब 712
दिखता 712
भालू 712
ललित 712
आँखों 711
देल 711
मति 711
रता@@ 711
लानी 711
वैक 711
घने 710
झूठ 710
टिल 710
बिशप 710
यवेक 710
रवि@@ 710
आंखों 709
एससी 709
कपास 709
जवान 709
जुर 709
तरां 709
देख@@ 709
धाराओं 709
यूं 709
लोरिडा 709
वंत 709
िशा 709
एमएस 708
भूतपूर 708
मण@@ 708
माउंट 708
वाइरस 708
वाटर 708
सरो@@ 708
हिरण 708
ीलैंड 708
अमे@@ 707
एचआईवी 707
ऐन 707
णात 707
नीसवीं 707
वेषण 707
हराने 707
120 706
H 706
अनौपचारिक 706
पोत 706
योजन 706
रियां 706
63 705
ंची 705
चमड 705
पेशी 705
बाव@@ 705
भोजपुरी 705
यिकीय 705
योति 705
लाभ@@ 705
सरे 705
नाबाद 704
यूल 704
रेग 704
लंका 704
वला 704
सिकंदर 704
सेवा@@ 704
सैमसंग 704
गिनती 703
जज 703
टावर 703
मड 703
माद 703
सपना 703
सामा@@ 703
हंस 703
कन@@ 702
गुलाब 702
तिर@@ 702
बताने 702
बाय@@ 702
लासिक 702
ई.@@ 701
जवाहरलाल 701
याएँ 701
रुस 701
लची@@ 701
विकी 701
शुरूआती 701
ंडो@@ 700
आयो@@ 700
टैंक 700
दोबारा 700
मों@@ 700
रशा@@ 700
रियाएं 700
वव 700
एजे@@ 699
गोद 699
दरवाजे 699
दुसरे 699
परमेश 699
पीपल 699
योगि@@ 699
रूपी 699
आशीर 698
कांड 698
जादू 698
बिजनेस 698
रिंट 698
सीए 698
h@@ 697
{ 697
आखिरकार 697
इमाम 697
किन@@ 697
गायब 697
घूमने 697
छाप 697
पांड@@ 697
रणजी 697
राइवर 697
लिखना 697
सौन 697
गज@@ 696
णतः 696
धमकी 696
नासा 696
निका@@ 696
नुस 696
बलिदान 696
मेरठ 696
याचार 696
राध 696
लील 696
विला@@ 696
समानांतर 696
३.@@ 696
ंती 695
गेन 695
चुन 695
जहा@@ 695
टॉवर 695
पतली 695
भावस 695
यूटन 695
23@@ 694
कारा 694
जला 694
पंचांग 694
पि 694
बनीं 694
रिपुरा 694
सिय@@ 694
20वीं 693
28@@ 693
इश 693
उतनी 693
गेज 693
पम 693
भीतरी 693
भीष 693
यांग 693
सुभाष 693
४५ 693
निरपेक 692
पोषित 692
मॉल 692
यायन 692
राहम 692
संरचनाओं 692
14@@ 691
कहाँ 691
पीपुल 691
मला 691
यूशन 691
षी@@ 691
सकने 691
ृ 691
k 690
जनन 690
थगित 690
याण@@ 690
शंकराचार 690
शां@@ 690
सैम 690
१९८० 690
इनर 689
गंगोलीहाट 689
नवीनतम 689
नापुर 689
रायपुर 689
सोन 689
आईएस@@ 688
उपायों 688
ऊन 688
कूद 688
दिमाग 688
पण@@ 688
भाशय 688
विवाहित 688
सला 688
ियान 688
आल@@ 687
कात 687
झगड 687
तोत 687
दूरसंचार 687
नींद 687
मीमांसा 687
रिए@@ 687
वड 687
कटौती 686
लोब 686
शु 686
c@@ 685
अमी@@ 685
रचयिता 685
संभा@@ 685
अनंत 684
काश 684
कूली 684
लेगा 684
लैं@@ 684
वरित 684
वॉ 684
उतार 683
एसी 683
किताबें 683
कैट@@ 683
बेट 683
भोज@@ 683
०,००० 683
अनुयायियों 682
बजाए 682
लोहा 682
विषयक 682
u 681
अपरि@@ 681
खगोल 681
टाफ 681
पिघ@@ 681
भारतवर 681
यसभा 681
यीय 681
रोका 681
ंगस 680
ंडन 680
कामना 680
डीवीडी 680
शीत 680
हेम@@ 680
4,@@ 679
E0 679
भूति 679
मीय 679
यूनेस 679
हौ@@ 679
া@@ 679
इंक 678
एथलीटों 678
टेलर 678
डेट 678
णप 678
तचाप 678
बेला 678
मशीनों 678
मेश 678
यामिति 678
रमी 678
रमेय 678
अनुप@@ 677
आकलन 677
गाह 677
गौरी 677
चांदी 677
मैनचेस 677
लाला 677
साहस 677
सुरंग 677
सूखे 677
1928 676
इंट@@ 676
जब@@ 676
झड 676
भरपूर 676
मकथा 676
राजू 676
लायक 676
शूट 676
साध@@ 676
सुब 676
03 675
कारावास 675
छिड 675
तेन 675
नागर 675
पठ@@ 675
पौधा 675
मतों 675
रेश 675
हण 675
ar@@ 674
इधर 674
ए. 674
एलिज 674
ओं@@ 674
डियम 674
दानव 674
दिल@@ 674
पीसी 674
फिलिस 674
फें@@ 674
बसने 674
बाजारों 674
भगत 674
यवान 674
करीबी 673
घंटों 673
जाए@@ 673
टिवल 673
नियर 673
वाइन 673
वारे 673
समुचित 673
13@@ 672
y 672
ऊँ@@ 672
जत 672
जितने 672
बाबर 672
लिप@@ 672
विनोद 672
गैलेक 671
जियों 671
लवण 671
लिकन 671
विवेदी 671
x@@ 670
असंभव 670
कोहल 670
चिप 670
तटस 670
पुजारी 670
बिलबोर 670
भस 670
राजन 670
वारों 670
सेवक 670
१८७@@ 670
उदार 669
कामयाब 669
थली 669
नबी 669
पिय@@ 669
पेपर 669
माव@@ 669
मोटी 669
वरुण 669
षमा 669
जबलपुर 668
यूबा 668
सूट 668
1931 667
इंटेल 667
उनपर 667
जेंडर 667
तब@@ 667
परिवेश 667
फिट 667
भवती 667
रियान 667
रोहित 667
सीडी 667
अंतः@@ 666
आघात 666
जयंती 666
नजदीक 666
नियो 666
ाद 666
‎ 666
अनुकरण 665
पहने 665
बैठा 665
मियामी 665
मेसो@@ 665
रकर 665
रभ@@ 665
हीरो 665
आयाम 664
थितिकी 664
दावे 664
दीं 664
नेशन 664
परम@@ 664
फॉक 664
बीमारियों 664
मिज 664
लैक@@ 664
शार 664
सट 664
सारणी 664
सीटें 664
अरु@@ 663
कुट 663
थाइ@@ 663
पति@@ 663
मधुमेह 663
रचुर 663
रवण 663
रसंस 663
सूजन 663
असमिया 662
कोन 662
तिल 662
1,000 661
a@@ 661
अपार 661
जहाँ@@ 661
जिंदगी 661
पांच@@ 661
फोटो 661
लावा 661
विवा@@ 661
नजदीकी 660
भावनात 660
सरा 660
सवाई 660
अनि@@ 659
अमृत 659
कॉस 659
टोरी 659
दरा 659
दाबाद 659
परशुराम 659
मैदानों 659
रजभाषा 659
शेल 659
1935 658
model 658
अंदाज 658
एरिक 658
खं@@ 658
गंतव 658
चेतन 658
नेश 658
मिथिला 658
मुगलों 658
रॉकेट 658
वरण 658
सीकर 658
02 657
77 657
आज@@ 657
केटिंग 657
निभा 657
युगांडा 657
राचीनतम 657
वीरता 657
अवि@@ 656
आद 656
कमेटी 656
खगड 656
बाण 656
राबाद 656
आजीवन 655
दुबारा 655
रेंट 655
रेजिमेंट 655
लहर 655
शाला 655
5,@@ 654
अट 654
टेप 654
पदोन 654
महाप 654
योक 654
विमर 654
1934 653
201@@ 653
£ 653
करवा 653
घाव 653
छिबरामऊ 653
ञानात 653
बांटा 653
बाला@@ 653
भंडारण 653
याप@@ 653
रुख 653
ात 653
v@@ 652
णीय 652
थाप@@ 652
नबर 652
बॉर 652
भाषाएं 652
मुखिया 652
ाकर 652
61 651
ंगो@@ 651
अब@@ 651
टाल 651
नाभिकीय 651
पांडु@@ 651
भोग 651
मारिया 651
विरूद 651
शिका 651
सराहना 651
1921 650
96 650
Z 650
} 650
अभिन 650
अरुणाचल 650
आग@@ 650
ऑटो 650
कटि@@ 650
बॉस 650
मज@@ 650
रूट 650
1924 649
27@@ 649
पोलैंड 649
फेल 649
बेचा 649
मदीना 649
71 648
कुलम 648
कोट@@ 648
छठे 648
भाषाओँ 648
लाह@@ 648
लेटर 648
ॅ 648
1918 647
1944 647
98 647
कोविड 647
ताकार 647
धूल 647
मश 647
ns 646
ं- 646
ठु@@ 646
थेरेपी 646
पचास 646
पाठकों 646
पाना 646
बहुधा 646
वंचित 646
शरणार 646
खुदरा 645
थल@@ 645
नियो@@ 645
निरूपण 645
परे@@ 645
लट 645
लेजर 645
विघटन 645
अनुशासन 644
आँख 644
उपभोग 644
एकदम 644
ताइवान 644
रथाओं 644
विदों 644
ुरआन 644
ंटी 643
आँकड 643
खिल 643
रजी 643
रेड@@ 643
शाक 643
संरचनात 643
ॉक 643
1938 642
गाथा 642
छेड 642
नोर 642
पिया 642
रेशम 642
29@@ 641
घटनाएं 641
चीफ 641
भीषण 641
रामाणिक 641
एटी@@ 640
एय@@ 640
घोर 640
टोस 640
नरसंहार 640
पाइन 640
पैन 640
रखरखाव 640
रीराम 640
ي@@ 639
अतरौली 639
अनुचित 639
छाल 639
टाय@@ 639
पंड@@ 639
भूख 639
वाई@@ 639
सुविधाएँ 639
s@@ 638
इंडि@@ 638
थाएं 638
दाहिने 638
पहचा@@ 638
रावल 638
सुनील 638
an@@ 637
पेश@@ 637
मेटा@@ 637
यूर 637
रदाता 637
वॉन 637
वॉर 637
कलाओं 636
कालिदास 636
कोली 636
खुश@@ 636
चड 636
जीववैज 636
माहौल 636
कुवैत 635
नामीबिया 635
बाक 635
रूपरेखा 635
हंगरी 635
अनुभूति 634
अपमान 634
ऊंचे 634
तुलसी 634
नियामक 634
बगल 634
वरक 634
सांता 634
सुसज 634
84 633
आई.@@ 633
आयु@@ 633
एथलेटिक 633
तानों 633
तूप 633
भूरे 633
रोमांटिक 633
शाल 633
सहयोगियों 633
१९९८ 633
س@@ 632
तरदायी 632
बढा@@ 632
रकाशक 632
विजयी 632
विर 632
२०१९ 632
e@@ 631
कुशलता 631
चाप 631
पंजीकरण 631
बंबई 631
बेच@@ 631
भागने 631
ॅक 631
१८६@@ 631
तेश 630
पाकर 630
विम 630
आपदा 629
रायोजित 629
रीवा 629
रैन 629
16@@ 628
X@@ 628
टेलीफोन 628
तिय@@ 628
तिर 628
थराली 628
फेक 628
भजन 628
मम 628
अपशिष 627
कोलो@@ 627
खां 627
गुट 627
सदृश 627
सियम 627
सैं@@ 627
हता 627
88 626
am 626
ar 626
गेंदों 626
पहा@@ 626
बुन 626
मंगोल 626
मारवाड 626
रामचंद 626
वजों 626
संतुलित 626
सनी 626
सामं@@ 626
चौबटाखाल 625
तला@@ 625
तून 625
मोह 625
यधारा 625
विषाक 625
षमताओं 625
A4 624
National 624
कौर 624
खरी 624
जैव@@ 624
णतया 624
तीकरण 624
पाट 624
मंड 624
यपूर 624
यूनान 624
रामकृष 624
रिसमस 624
षतिग 624
Y 623
उसपर 623
कराना 623
पारा 623
बैठ 623
मधु 623
लूर 623
वाने 623
700 622
अनिल 622
इंकार 622
इनपुट 622
जिसपर 622
दैत 622
बरो 622
भावों 622
लीटर 622
शियाई 622
षाएं 622
ानून 622
contributor 621
आधारभूत 621
उधर 621
गला 621
गाव 621
नमूना 621
भील 621
शरद 621
सहन 621
सृ@@ 621
K 620
timestamp 620
चिट 620
डाई 620
देशभक 620
भि 620
यान@@ 620
रॉल 620
लिपियों 620
सिए@@ 620
ॊ@@ 620
t@@ 619
बचत 619
बाधित 619
सिंगल 619
सेवाएँ 619
ॅन 619
१९४७ 619
U 618
ंडिंग 618
आधी 618
जिनको 618
तेंदु@@ 618
निमित 618
पहनने 618
येन 618
73 617
एहसास 617
गतिशील 617
चक@@ 617
टलैंड 617
दरगाह 617
दरभंगा 617
नह@@ 617
नाभिक 617
नामी 617
निपटने 617
मीना 617
सोमवार 617
हुक 617
घेरे 616
तचित 616
मधुर 616
अफगान 615
इरादा 615
धिकार 615
नागरिकता 615
बताई 615
बदलते 615
सेमीफाइनल 615
ँगे 614
बहाल 614
मलेरिया 614
यासी 614
रोटी 614
रोसे@@ 614
सला@@ 614
सीईओ 614
अणुओं 613
नोग 613
पंख 613
लियर 613
वाट 613
ुर 613
45@@ 612
नीला 612
वासों 612
संकीर 612
कराता 611
काबुल 611
जीवनकाल 611
मप 611
रियाएँ 611
लिटी 611
लेंगे 611
षद 611
सुलभ 611
18वीं 610
74 610
76 610
चाह@@ 610
रबर 610
रेल@@ 610
शनिवार 610
२,@@ 610
इको@@ 609
एसि@@ 609
केरी 609
गाई 609
चश 609
णमाला 609
दायक 609
नाई@@ 609
बेरीनाग 609
रेलमार 609
वाचक 609
साहेब 609
३२ 609
1943 608
खुल 608
जलीय 608
मानवता 608
लिनी 608
समारोहों 608
साइन 608
1912 607
`@@ 607
be 607
format 607
असं@@ 607
कारिता 607
झि@@ 607
डायरेक 607
थाएँ 607
बैठने 607
रतिनिधियों 607
सबके 607
सहकारी 607
सीपी@@ 607
१९९९ 607
86 606
डिन 606
नील@@ 606
पेशवा 606
बुखार 606
महानगर 606
मिति 606
मेल@@ 606
लाभदायक 606
वंस 606
संदिग 606
सुधारों 606
ंडी@@ 605
ओवर@@ 605
काशी@@ 605
जोकी 605
पालक 605
रवक 605
हाला@@ 605
एजेंसियों 604
एनिमेटेड 604
टॉन 604
तराई 604
महो@@ 604
मानसून 604
राइवेट 604
लांग 604
शोधन 604
समझना 604
सीना 604
--@@ 603
10,000 603
ंका 603
अभियानों 603
पीला 603
सुदृढ 603
97 602
g@@ 602
डॉग 602
थॉ@@ 602
विक@@ 602
सिफ 602
it 601
ओलि@@ 601
जैसे- 601
देशीय 601
निरन 601
पाध 601
बाइबिल 601
रतापगढ 601
रवात 601
समान@@ 601
हज@@ 601
ाबेथ 601
१९९१ 601
i@@ 600
अमिताभ 600
टसन 600
रशासित 600
59 599
67 599
अवसाद 599
खोलने 599
गाँवों 599
टी.@@ 599
दिशाओं 599
फायदा 599
बिगड 599
मंडी 599
मोस 599
रीम@@ 599
लैंगिक 599
साव@@ 599
ैर 599
₹ 599
अनुभवों 598
पादप 598
पारदर 598
पीएचडी 598
पुर@@ 598
मीरा 598
लेबर 598
वायुसेना 598
वैत 598
एकादशी 597
जाएं 597
दात 597
पुं@@ 597
बज 597
बहार 597
मशास 597
रामनगर 597
रॉबिन 597
विशेष@@ 597
शोध@@ 597
ेशन 597
णी@@ 596
दूर@@ 596
नायिका 596
पटल 596
परमार 596
फेर 596
भारत@@ 596
भीर 596
यं 596
रनवे 596
रिपल 596
विनो@@ 596
साई@@ 596
सिर@@ 596
1922 595
1929 595
आयतन 595
कोमल 595
नयन 595
पारसी 595
यहूदियों 595
रिवे@@ 595
लेखा@@ 595
ून 595
कड@@ 594
डसन 594
तली 594
लोमा 594
विलास 594
g 593
खाया 593
गंग@@ 593
डवेयर 593
परमात 593
पी.@@ 593
बियों 593
वाह@@ 593
वेंक@@ 593
हटा@@ 593
87 592
अधिवेशन 592
आलू 592
गिरा 592
दानों 592
नद@@ 592
बडी 592
भं@@ 592
विधिक 592
शैल 592
शैव 592
हेल@@ 592
१९६० 592
७५ 592
कीड 591
कैस 591
राइफल 591
लाओं 591
आवे@@ 590
उपरान 590
ऊतकों 590
थेन 590
नती 590
पांडे 590
बतौर 590
बह 590
रावत 590
रैं@@ 590
शाखाएँ 590
सीमा@@ 590
अंत@@ 589
घटनाएँ 589
जियो@@ 589
दिरा 589
बाली 589
बोन 589
मोटर@@ 589
अके@@ 588
अपभ 588
आंग@@ 588
आया@@ 588
कोक 588
देवा@@ 588
धरण 588
पहु@@ 588
बुरे 588
मांसपेशियों 588
यतन 588
यरी 588
रया@@ 588
रिको@@ 588
लाभकारी 588
विचित 588
सरण 588
− 588
1933 587
एमए 587
केटबॉल 587
चैनलों 587
धातु@@ 587
भवनों 587
मेमोरी 587
रसू@@ 587
रियस 587
5.@@ 586
जिज 586
दयाल 586
देसाई 586
रदीप 586
लांट 586
लीस 586
लुईस 586
लैस 586
हजारे 586
1925 585
81 585
username 585
आरती 585
दादी 585
पांचवें 585
राजभाषा 585
रोसेसर 585
शिला@@ 585
कॉटिश 584
तावेजों 584
मोशन 584
यावर 584
योन 584
रायल 584
सुर@@ 584
एथलीट 583
कैलाश 583
फं@@ 583
भयानक 583
रेंचा@@ 583
लैप 583
सीआई@@ 583
t 582
छुक 582
निग@@ 582
पते 582
परिश 582
मेनिया 582
रमादित 582
सले 582
सांद 582
सातवें 582
ॐ 582
अँ@@ 581
आंत 581
डोज 581
धुं@@ 581
पीस 581
मैदानी 581
रियो@@ 581
रोक@@ 581
सागरीय 581
1914 580
एटा 580
ठाकुरद 580
तया 580
रेंड 580
सभा@@ 580
सामयिक 580
४८ 580
खेतों 579
चैंपियंस 579
जनजातियों 579
टेश 579
थस 579
नियोजन 579
रदायिक 579
करो@@ 578
कांडा 578
किण 578
कोर@@ 578
खरी@@ 578
डौ@@ 578
मानो 578
रशंसक 578
रीना 578
रोट 578
वसु@@ 578
समायोजित 578
ीर 578
ंदे 577
एलिजाबेथ 577
ऑडियो 577
गुवाहाटी 577
तीनी 577
पैनल 577
बीटा 577
रतिपादित 577
वतः 577
समाज@@ 577
सोलह 577
काएं 576
खैर 576
गोलार 576
बाजों 576
सेदारी 576
अगु@@ 575
वैशाली 575
1917 574
India 574
फारस 574
फीफा 574
मनोहर 574
रतिज 574
सवादी 574
सुंदरता 574
नरेंद 573
निवारण 573
बैल 573
चयनित 572
दां@@ 572
परवर 572
फीति 572
मालि@@ 572
यंजनों 572
रचनाएं 572
रचनाकाल 572
रयोक 572
सनातन 572
1926 571
चीजें 571
दास@@ 571
धाओं 571
मलय 571
मैथिली 571
युत@@ 571
राजी 571
रिपाठी 571
6,@@ 570
अयस 570
कमर 570
कारिक 570
कीपर 570
गैसों 570
धू 570
मंदी 570
मूला 570
रखें 570
रोज@@ 570
सुत 570
सोम@@ 570
92 569
e 569
गाए 569
गुहा 569
टिट 569
दुकानों 569
बच@@ 569
योत 569
रकूट 569
रन@@ 569
विराजमान 569
सीर 569
३६ 569
r 568
कराई 568
गोपा@@ 568
भरोसा 568
मांस@@ 568
याया@@ 568
लौटे 568
शिकारी 568
सिने@@ 568
होर 568
ऑब 567
कहानियां 567
धम 567
रोचक 567
रोटो@@ 567
रोलियम 567
वभौमिक 567
वेश@@ 567
1.5 566
आउटपुट 566
आयन 566
आवेश 566
एंडरसन 566
खुराक 566
बहरहाल 566
बृहत 566
लाता 566
लिब@@ 566
वरदान 566
अनुकूलन 565
अनुसन 565
आंदोलनों 565
कुड 565
कोशिकाएं 565
खलीफा 565
गेहूँ 565
चैन 565
भुवनेश 565
मदन 565
लूट 565
ऐश 564
कलर 564
कुक 564
कूट 564
कोशि@@ 564
जमी@@ 564
टरेट 564
नना 564
फेसबुक 564
रेश@@ 564
लोज 564
इंजीनियरी 563
कविताएँ 563
जेंटीना 563
तिल@@ 563
मकबरा 563
मातृ@@ 563
रसर 563
रिमंडल 563
वस@@ 563
विवेका@@ 563
82 562
चुअल 562
चौरा@@ 562
तना@@ 562
पाँ@@ 562
पाषाण 562
रमुखतः 562
लेनदेन 562
वेनिया 562
१९७० 562
ई0 561
उदाहरणार 561
कतर 561
कथ@@ 561
काय@@ 561
चुनी 561
जौ@@ 561
दीवान 561
नेपोलियन 561
मानवाधिकार 561
यतया 561
याग@@ 561
याशित 561
लेखिका 561
लेव 561
वेब@@ 561
सिका 561
सितारों 561
आईपी@@ 560
आरोपों 560
कानों 560
कुआ@@ 560
नोल 560
बंदर 560
बीसी 560
बूल 560
महिमा 560
ययुगीन 560
यूँ 560
रुटि 560
रोजर 560
सातवीं 560
ुल 560
78 559
अंगु@@ 559
उपनगर 559
गुच 559
तौड 559
फरी@@ 559
भली 559
लियम 559
विराम 559
विशा@@ 559
हृद@@ 559
किशन 558
कोयले 558
फलक 558
बसाया 558
मोज 558
वीरों 558
हाट 558
ن@@ 557
अलगाव 557
आंख 557
आफ 557
ईमान 557
उपजाऊ 557
जेफ 557
डं@@ 557
रिहा 557
वच@@ 557
गोरि@@ 556
नाइजीरिया 556
पहलवान 556
युधिष 556
रिए 556
वरा 556
वीर@@ 556
22@@ 555
अंपायर 555
आइस@@ 555
खल 555
ताना@@ 555
नीकरण 555
बैडमिंटन 555
मदिन 555
यासकार 555
रीलंकाई 555
सिखों 555
ओब 554
किलोग 554
झी 554
नवजात 554
नॉल 554
बैनर 554
भगवती 554
माइल 554
मीनार 554
यी@@ 554
वना 554
वयंसेवक 554
विशुद 554
2.5 553
ऐप 553
ढाल 553
फुट@@ 553
यमों 553
वेने@@ 553
सुरेश 553
६.@@ 553
कें@@ 552
घकालिक 552
निकलकर 552
भूभाग 552
मनों 552
मुना@@ 552
जग 551
बिर@@ 551
समू@@ 551
हुयी 551
83 550
इंसान 550
कुश@@ 550
ठो@@ 550
ताप@@ 550
नकल 550
राणा@@ 550
वादों 550
which 549
आखिर 549
कथाएँ 549
कबी@@ 549
केतु 549
परगना 549
बट 549
रुति 549
विकृत 549
सतपुली 549
१९९६ 549
कीकरण 548
तिकारी 548
दहन 548
मछ@@ 548
लगीं 548
विजयनगर 548
विप 548
सके@@ 548
ाज 548
१९९२ 548
६५ 548
इसमे 547
काज 547
किताबों 547
छावनी 547
जस@@ 547
ढूं@@ 547
पलायन 547
रोटेस 547
विधियाँ 547
िलाफ 547
Y@@ 546
टायर 546
दिखा 546
बिता@@ 546
मॉडलिंग 546
रवासियों 546
रिये 546
शार@@ 546
शिया@@ 546
अंध@@ 545
एट@@ 545
घनिष 545
छद 545
जयसिंह 545
दुःख 545
नीत 545
मानद 545
वांग 545
ँग 544
अवशिष 544
एंटरटेनमेंट 544
कना 544
कॉप 544
जीतकर 544
डी.@@ 544
देहा@@ 544
परिधि 544
फरी 544
भागी@@ 544
विषम 544
शाते 544
सना 544
ंपिक 543
अंगू@@ 543
उदार@@ 543
एंगे 543
गुम 543
तमा@@ 543
दकोश 543
याद@@ 543
हैंड@@ 543
अरबों 542
अविश 542
आकस 542
उदय@@ 542
उधार 542
कती 542
ताड 542
निकलते 542
निभाते 542
भंड@@ 542
मेड 542
रोहि@@ 542
वाकांक 542
ाकू 542
ेल 542
१८५@@ 542
f 541
असंख 541
तुएं 541
बियाई 541
बॉय 541
युवक 541
यूरे@@ 541
रभु@@ 541
लैब 541
वंश@@ 541
विधवा 541
समलैंगिक 541
०४ 541
69 540
किरणों 540
गोविंद 540
झीलों 540
तरंग@@ 540
रंट 540
रासंगिक 540
विचारक 540
1927 539
di@@ 539
गुणा 539
जि 539
झे 539
ठता 539
डाउनलोड 539
रचालन 539
राँ@@ 539
लोजी 539
वटी 539
सुई 539
सौदे 539
ईमेल 538
कालांतर 538
गठ@@ 538
ढी@@ 538
थानांतरण 538
मफेयर 538
मैड 538
रंथ@@ 538
अनुभवी 537
उम@@ 537
गौर 537
माध@@ 537
लेडी 537
सहारे 537
साउंडट 537
हेन 537
इमारतें 536
उदाहरणों 536
घराने 536
दया 536
निकोबार 536
पापुआ 536
पैड 536
मछलियों 536
मांड@@ 536
विवादों 536
शाकाहारी 536
साड 536
ाता 536
आपत 535
काक 535
तेरे 535
दान@@ 535
दिशा@@ 535
धुरी 535
परिपूर 535
पालतू 535
बज@@ 535
बूत 535
मंगोलिया 535
षुद 535
ारपुर 535
ीज 535
उभरा 534
एपि@@ 534
कते 534
केदार 534
खाल 534
जोकर 534
फेडरेशन 534
भेदों 534
मोती 534
मोहन@@ 534
वकर 534
विय@@ 534
अभिषेक 533
अलौकिक 533
आलोचनात 533
इंडियाना 533
छता 533
छाया@@ 533
डालते 533
तरदायित 533
फांसी 533
सलमान 533
सलाम 533
इग 532
टियर 532
ताने 532
धमनी 532
पॉली@@ 532
मही@@ 532
वेच 532
सीख@@ 532
सौते@@ 532
चेष 531
जता 531
ढने 531
तंग 531
थाय@@ 531
नांग 531
रेडियो@@ 531
सोशलिस 531
िज 531
१९८९ 531
कवच 530
जली 530
दायरे 530
पहुंचा@@ 530
मजदूरों 530
मेस 530
रंखला 530
रदायों 530
वादन 530
शाती 530
सहाय 530
सीखा 530
हैं@@ 530
अकेला 529
अरस 529
अवक 529
कराते 529
कारें 529
गुर@@ 529
चैतन 529
टली 529
टवर 529
नारियल 529
परित 529
पहना 529
बाकू 529
रकारी 529
राने 529
वथा 529
सियत 529
सोच@@ 529
1908 528
अंडा@@ 528
ठिर 528
डालता 528
णो@@ 528
नेह 528
परोप@@ 528
फली 528
बिताया 528
बेंग@@ 528
माउ@@ 528
यांश 528
रतियोगी 528
रशी@@ 528
शाप 528
उग@@ 527
काउं@@ 527
कैथरीन 527
कॉफी 527
तथाकथित 527
पंचाय@@ 527
बहुतायत 527
बीज@@ 527
मधुमक 527
लीकरण 527
वाल@@ 527
वितीयक 527
1910 526
ईंट 526
जरलैंड 526
जु 526
टीना 526
तिहा@@ 526
धतियों 526
पहुंचाने 526
पैं@@ 526
रिस@@ 526
वाही 526
शिंग 526
सुस 526
· 525
इष 525
एंटी 525
कॉमन 525
गुणसूत 525
जिकल 525
पंचम 525
मंजिल 525
रवा 525
वालीफाई 525
षैतिज 525
तला 524
दना 524
धालु 524
निकटवर 524
पेंटिंग 524
रकोप 524
राजपूतों 524
विता 524
१९५० 524
ईन 523
चेल 523
चेहरा 523
दाह 523
पितृ@@ 523
याम@@ 523
विवर 523
सुश 523
al@@ 522
अपराधों 522
अमूर 522
आनंद@@ 522
गाते 522
टैंड 522
ढाई 522
नवाज 522
फेयर 522
विले 522
खियों 521
जार@@ 521
पोटा@@ 521
यमय 521
रमन 521
सुक 521
हाँ 521
गोलाकार 520
जम@@ 520
जीने 520
डमैन 520
डेय 520
बैटमैन 520
रमेश 520
रीयता 520
v 519
आराधना 519
कामों 519
तकी 519
तले 519
दिलाने 519
निकली 519
निषेध 519
मसूत 519
ादी 519
ॉल 519
१९७१ 519
1905 518
1923 518
ंडक 518
एलिस 518
चोर 518
जनी 518
जेन@@ 518
झलक 518
धीन 518
पिच 518
यवसायों 518
लिना 518
संके@@ 518
संभालने 518
सालाना 518
हरित 518
200@@ 517
89 517
comment 517
us 517
د@@ 517
आदत 517
कवरेज 517
ठानों 517
पुरूष 517
फेंक 517
बिलासपुर 517
यजीव 517
रीकृत 517
रेषण 517
लट@@ 517
.सी. 516
× 516
अवशोषण 516
औषधीय 516
जीवा@@ 516
डी. 516
थिल 516
निवेशकों 516
नेवालों 516
परजीवी 516
बोलचाल 516
विसर 516
सीकरण 516
1911 515
91 515
आयामी 515
एसए 515
चो 515
डीए 515
नाराज 515
राहिम 515
रेखाओं 515
शॉर 515
३०० 515
ंगटन 514
केशव 514
पालि 514
फाइड 514
बलिया 514
महासभा 514
यग 514
साधारणतया 514
सिंग@@ 514
४२ 514
ंगत 513
कलेक 513
कीटों 513
कैन@@ 513
चरि@@ 513
चालुक 513
नकली 513
नेह@@ 513
पेशे 513
बहुविकल 513
भैरव 513
मले@@ 513
योजना@@ 513
राख 513
रिके@@ 513
हीरा 513
३७ 513
ंप 512
अवरोध 512
इसी@@ 512
चालीस 512
चौदह 512
मापने 512
मापा 512
लोदी 512
लोप 512
वेशन 512
शोक 512
सामरिक 512
अमृ@@ 511
ईसी@@ 511
जलाशय 511
डियो@@ 511
नारद 511
पीयर 511
बुध 511
बुला 511
मीदवारों 511
मूलक 511
लेखांकन 511
विलक 511
सील 511
१९८४ 511
अभिनेताओं 510
टल@@ 510
धियां 510
निलंबित 510
परिणा@@ 510
पैतृक 510
पौत 510
बाज@@ 510
याचिका 510
लिपि@@ 510
वाराहाट 510
विश@@ 510
सबको 510
समाहित 510
२५@@ 510
३३ 510
उंग@@ 509
एपी@@ 509
तुकार 509
नियल 509
पॉट 509
फाइबर 509
बदलती 509
बालाजी 509
मदर@@ 509
रहेंगे 509
राया 509
लाभा@@ 509
असल 508
आरा@@ 508
पदा 508
पास@@ 508
लॉट 508
हेम 508
अराज@@ 507
अलंकृत 507
अवयवों 507
एनएस@@ 507
गारंटी 507
चिमोत 507
जॉनसन 507
तरंगों 507
धांजलि 507
धूम@@ 507
बदलता 507
मराठों 507
रणीय 507
राइम 507
रिएक 507
विन@@ 507
संतों 507
अमर@@ 506
आठवीं 506
कोणीय 506
कोहली 506
गंभीरता 506
चियन 506
दाखिला 506
दिलीप 506
पच 506
रगढ 506
वनी 506
३,@@ 506
कीज 505
केक 505
चिली 505
थार 505
नायर 505
परावर 505
पीकर 505
बुजुर 505
महानगरीय 505
मेहनत 505
विकृति 505
शेयरों 505
शोभा 505
हेड@@ 505
किटेक 504
खुफिया 504
डिफ 504
तृप 504
राधि@@ 504
वियर 504
वैसा 504
am@@ 503
एनबीसी 503
कंक 503
कोलम 503
डेविस 503
परेशानी 503
पिण 503
बारह@@ 503
यजनक 503
लज 503
लोकों 503
हथ@@ 503
अथर 502
कुंजी 502
खातों 502
गिना 502
गेहूं 502
गोले 502
डेढ 502
ताद 502
तेजित 502
दिखाए 502
पोलिस 502
भेजी 502
लिनक 502
विकास@@ 502
सकीय 502
सानी 502
his 501
ंकि 501
एकजुट 501
खें 501
चंदौसी 501
चोल 501
भृ@@ 501
महा 501
वाम@@ 501
वालि@@ 501
हजरत 501
हिटलर 501
३४ 501
कलम 500
गिरोह 500
गैलरी 500
घण 500
जीवविज 500
मतदाता 500
मनिरपेक 500
यूस 500
रवाना 500
रियात 500
वांग@@ 500
विवादित 500
सांग 500
93 499
अलाउद 499
आनु@@ 499
गृहयुद 499
झुकाव 499
धमा@@ 499
राफर 499
ानों 499
ँगा 498
कमला 498
काष 498
गाम 498
तालुका 498
पड@@ 498
पुरोहित 498
बॉब 498
मरुस 498
रसाय@@ 498
शपुर 498
कहला@@ 497
धरा 497
पराजय 497
फौज 497
लाय@@ 497
वाधीनता 497
शांति@@ 497
शिरो@@ 497
कांच 496
खगोलशास 496
गोन 496
चॉ@@ 496
टोग 496
डेली 496
डोना 496
धोखा 496
नवरात 496
नोक 496
मैकमोहन 496
रयो@@ 496
रिवाज 496
लाइनों 496
संगमरमर 496
संचित 496
समाजवाद 496
साधक 496
सेम 496
आलम 495
ऋषियों 495
एसी@@ 495
कोड@@ 495
तह 495
धीर 495
मरीजों 495
1916 494
94 494
आधिपत 494
इनमे 494
किर@@ 494
बंधों 494
साद 494
5000 493
one 493
ंगड 493
अगला 493
आपातकालीन 493
टीसी 493
डर@@ 493
ढे 493
नागौर 493
निजा@@ 493
पुनरावृत 493
भरतपुर 493
मसमर 493
मीकि 493
मेगावाट 493
रयान 493
रहे@@ 493
रेमिका 493
लैंग@@ 493
सचे@@ 493
साउंड 493
सेवी 493
हेस 493
१९९५ 493
.एस. 492
ंडर@@ 492
अरा@@ 492
चर@@ 492
जायेगी 492
जियन 492
डीपी 492
दिनांक 492
वंशा@@ 492
सपने 492
सुझा@@ 492
सोन@@ 492
अकादमिक 491
अलवर 491
आधार@@ 491
उपवास 491
उभ@@ 491
जरा 491
पोलि@@ 491
बहनों 491
मुज 491
यिकीक 491
राजेंद 491
रिब 491
रेडरिक 491
वांटम 491
हॉस 491
२०२० 491
८.@@ 491
79 490
अवशोषित 490
इंजेक 490
थियो@@ 490
दरअसल 490
पाचन 490
पाट@@ 490
पाम 490
पेप 490
बसें 490
मिलना 490
रामचन 490
रिवर 490
वंशों 490
विकारों 490
ारक 490
… 490
In 489
अश@@ 489
कठ@@ 489
गुजरती 489
घटा@@ 489
दफ 489
नाह 489
पेन@@ 489
बंगलौर 489
माफ 489
रेसी 489
ऽ@@ 489
उतर 488
कव@@ 488
कीट@@ 488
जानेवाले 488
तूबर 488
दंड@@ 488
महेंद 488
मूसा 488
मॉस 488
यूटिंग 488
यूसुफ 488
रतिबन 488
वाजपेयी 488
हवाला 488
हिरा 488
DVD 487
ی@@ 487
आयरन 487
कुलपति 487
गोदावरी 487
टास 487
थीम 487
यूमर 487
रॉयड 487
लोम 487
साउ@@ 487
सारांश 487
सेर 487
हता@@ 487
अधू@@ 486
अवतरित 486
आवा@@ 486
एडमि@@ 486
खार@@ 486
घेर 486
परिसंपत 486
बचाया 486
बादी 486
बैंगनी 486
मृदा 486
रिभुज 486
लगढ 486
लिकाओं 486
वीक 486
हरण 486
अवधी 485
कॉलेजों 485
डाइऑक 485
तकनी@@ 485
बॉडी 485
मेमोरियल 485
राश@@ 485
रीव 485
रुप@@ 485
रॉड 485
विराट 485
सावधानी 485
सि 485
सीमेंट 485
काटकर 484
गाढ 484
गोप@@ 484
जना@@ 484
टीफन 484
नाईट 484
निकाली 484
बियर 484
मानती 484
मोद 484
यमी 484
योधन 484
रभुता 484
विध@@ 484
तेरह 483
दाँत 483
निचली 483
पुरं 483
पेल 483
मुकुट 483
राएँ 483
लौकिक 483
वता 483
समझाने 483
सीनियर 483
इक@@ 482
उपराष 482
छिन 482
डीडीहाट 482
दांतों 482
नाटककार 482
पादरी 482
पीएस 482
फॉल 482
मिलि@@ 482
यायों 482
यूरोपियन 482
7,@@ 481
आईपीएल 481
कॅ@@ 481
डोमि@@ 481
नमस 481
मऊ 481
मजदूरी 481
अनुपम 480
उ०@@ 480
एनि@@ 480
गैरसैण 480
गोष 480
चूना 480
टमैन 480
ढक 480
तरक 480
बैक@@ 480
याल@@ 480
रयू 480
१९७५ 480
एला 479
चाँद 479
जैसलमेर 479
तिकरण 479
दंत 479
पाटी 479
भाषाविज 479
मॉन@@ 479
रचारक 479
रीश 479
१९९४ 479
औरत 478
टते 478
टोल 478
निकाले 478
यीं 478
रवी 478
राउज 478
रैप 478
रोबोट 478
लाइड 478
षो@@ 478
35@@ 477
आशंका 477
जरूरतों 477
भग 477
भन 477
लाउ@@ 477
वीरें 477
शेफ 477
in@@ 476
जर@@ 476
तंजा@@ 476
दही 476
नसी@@ 476
पैगंबर 476
बेसिन 476
यजुर 476
यवसायी 476
रशेखर 476
रिलर 476
सँ@@ 476
समाजों 476
सरत 476
सीबीएस 476
सुनवाई 476
इजरायल 475
किनारों 475
बारों 475
लेपन 475
विदा 475
साजिश 475
१९८५ 475
आदिवासियों 474
केर 474
छवियों 474
ताँ@@ 474
निराश 474
नीस 474
फरपुर 474
भेज@@ 474
रतिमा@@ 474
हंस@@ 474
१९७२ 474
काजी 473
गुरुकुल 473
गुरुद 473
चने 473
टकराव 473
टमी 473
दोहरा@@ 473
धुन 473
नमी 473
रतियां 473
रसो@@ 473
राधा@@ 473
सेठ 473
हनी 473
१९९७ 473
ताइ@@ 472
दूरबीन 472
दूरस 472
नानी 472
नोन 472
फोटक 472
बने@@ 472
बिंदुओं 472
रजापति 472
रेषित 472
रोधित 472
लबों 472
हवाईअड 472
ाबाद 472
०१ 472
इर@@ 471
टोपी 471
पॉटर 471
महेन 471
रमुखता 471
रूरी 471
लोरो@@ 471
वीकरण 471
वेशी 471
होगन 471
ع@@ 470
उतार@@ 470
करवाने 470
थू@@ 470
धरातल 470
पहुंच@@ 470
बटालियन 470
मानंद 470
मिलाया 470
रिकल 470
रीनाथ 470
रैखिक 470
लिटिल 470
वैयक 470
वोक 470
शंकु 470
समितियों 470
०५ 470
WWE 469
r@@ 469
अहिंसा 469
ऐं 469
ओवरों 469
चाँदी 469
जीकरण 469
झरने 469
डिजाइनर 469
पनडुब 469
मनाते 469
मोहि@@ 469
वेंट 469
सिपाही 469
होतीं 469
Windows 468
अपराधियों 468
अलै@@ 468
आशा@@ 468
कद@@ 468
कृतियां 468
गें 468
चट@@ 468
फिलीपींस 468
मानन 468
रोहियों 468
शुभ@@ 468
ेट 468
४४ 468
एन.@@ 467
चूड 467
नमः 467
नां@@ 467
पायर 467
मालिकों 467
यूनी@@ 467
लेह 467
वेष 467
वोटों 467
शतरंज 467
सपुर 467
ur 466
अनुमोदन 466
इरादे 466
ऐनी 466
कंठ 466
कमज 466
गाइड 466
निरूपित 466
परवाह 466
बालू 466
मैनेजमेंट 466
मॉड 466
विड 466
साइटों 466
ईयर 465
कुतु@@ 465
कुम@@ 465
कौटिल 465
चलाते 465
डालकर 465
ततः 465
दश 465
नॉट 465
बडे 465
रदत 465
रूपां@@ 465
संत@@ 465
होंगी 465
ाक 465
नंदा 464
पेंशन 464
बंदूक 464
भरत@@ 464
मिनस 464
रेलगाड 464
विच@@ 464
सेफ 464
हाड 464
कॉलोनी 463
जाग@@ 463
टिया@@ 463
डेटाबेस 463
नोई 463
पख 463
पहुंची 463
रती@@ 463
शीतल 463
सिल@@ 463
सीख 463
80@@ 462
बहुमूल 462
बेंज 462
मंडप 462
मुकदमे 462
याँकुटोली 462
याक 462
रूक 462
लौटा 462
ळ 462
सजीव 462
िंग 462
जंतुओं 461
टैं@@ 461
डॉल 461
णत 461
दोहरी 461
नूनी 461
पाली@@ 461
भपात 461
मंगो@@ 461
मट 461
मस@@ 461
सोमेश 461
हीम 461
कनिष 460
खेलना 460
टफ 460
डिफे@@ 460
तः@@ 460
नरसिंह 460
नोस 460
बारा@@ 460
माबाद 460
रतन 460
रामगढ 460
लिग 460
1915 459
कटाई 459
गर@@ 459
गृहस 459
जाह 459
डाले 459
तारी@@ 459
थवाद 459
पियर 459
फाइल 459
मनोज 459
मिशेल 459
रसेल 459
हॉर 459
१९८६ 459
केट@@ 458
गुफाओं 458
गेश 458
पेशल 458
फैलने 458
यूसी@@ 458
रूपये 458
लेटफॉर 458
विजन 458
शाला@@ 458
शीट 458
सामंजस 458
हैमिल 458
८८ 458
गोरखा 457
तिया@@ 457
नरम 457
नागार 457
पैग 457
महिलाएँ 457
मेटिक 457
यूरी 457
रतों 457
सी.@@ 457
6.@@ 456
खलनायक 456
चौखुटिया 456
टित 456
दामोदर 456
देहांत 456
मिलेगा 456
मैथ 456
राघ@@ 456
लेबनान 456
वाता@@ 456
विकि@@ 456
सकेगा 456
१९६२ 456
अभिय@@ 455
कोल@@ 455
कोला 455
डेज 455
निकासी 455
पिं@@ 455
साबुन 455
ैल 455
007@@ 454
8,@@ 454
ंता 454
इमे@@ 454
गोला 454
चैलेंज 454
दिखाते 454
मीट 454
रैगन 454
समझाया 454
९९ 454
1906 453
एयरवेज 453
जमाने 453
जमैका 453
डेथ 453
ढांचा 453
नगर@@ 453
बटन 453
यवंशी 453
रतिरोधी 453
शासी 453
शूल 453
१००० 453
1500 452
आयत 452
ऑपरे@@ 452
कठिनाइयों 452
कतिपय 452
चौद@@ 452
तरे 452
दौलत 452
धनु@@ 452
धिमान 452
रौढ 452
लादेशी 452
लामा 452
वेदा@@ 452
सिनेमाघरों 452
णिका 451
पहचानने 451
पाउडर 451
पादकता 451
पोते 451
बोधि@@ 451
यहा 451
यूईएफए 451
रदू@@ 451
हृ@@ 451
५५ 451
1901 450
8.@@ 450
इनो@@ 450
उपनगरीय 450
उभय@@ 450
कैमरे 450
गोपनीयता 450
देड 450
नतीजतन 450
नारा 450
निकोलस 450
निद 450
निषे@@ 450
पहनते 450
मनि@@ 450
रीढ 450
शेन 450
हुल 450
खासी 449
चौथाई 449
बमों 449
मश@@ 449
माण@@ 449
यारे 449
लाये 449
विरोधियों 449
वेदान 449
parentid 448
आतंकवादियों 448
इंडो@@ 448
उठ 448
जरूर 448
जॉनी 448
धं@@ 448
मसन 448
मिकता 448
मॅ@@ 448
रणनीतिक 448
रहीत 448
शारदा 448
सामर 448
सुविधाजनक 448
१९९३ 448
गुआ 447
जनमत 447
जूते 447
दिरों 447
नागरी 447
निजाम 447
फोड 447
बिं@@ 447
यूए@@ 447
रूपक 447
लियोन 447
लैन 447
हिक 447
हैदर 447
४३ 447
16वीं 446
इलाका 446
खने 446
जवाहर 446
थानान 446
दिखाता 446
निं@@ 446
निवृत 446
निशाना 446
फिशर 446
राइन 446
सियन 446
कोठ@@ 445
गुफा@@ 445
टरबाइन 445
दाताओं 445
मिनियम 445
यूरेनियम 445
रमे@@ 445
रैंक@@ 445
l@@ 444
गवाह 444
गुलाबी 444
तड 444
तुल@@ 444
परमाणुओं 444
फैलाव 444
रिकोणीय 444
रूपण 444
रूरत 444
रों@@ 444
लगाये 444
वाइस 444
सुविधा@@ 444
सैट 444
सौराष 444
१९४८ 444
४.@@ 444
17वीं 443
काऊ 443
कोम 443
खट 443
टेलि@@ 443
तेदार 443
निवे@@ 443
नेशियाई 443
यूटी 443
रामों 443
रेसीडेंसी 443
संहार 443
सूडान 443
্ 443
अनियमित 442
कप@@ 442
जेंट 442
तद@@ 442
तिवाद 442
निवल 442
बोल@@ 442
मादक 442
मापद@@ 442
माय@@ 442
रकम 442
लिखकर 442
संपदा 442
सली 442
ॅर 442
pur 441
आकाश@@ 441
कंद 441
कुष 441
चमकी@@ 441
चिंतित 441
चिक 441
जटिलता 441
परिप 441
पीर 441
माइड 441
मुत 441
लगाता 441
वैचारिक 441
अयोग 440
आरा 440
कबीले 440
चय@@ 440
डिवाइस 440
ताजा 440
दलीय 440
दुख 440
पंत 440
मानुसार 440
यांमार 440
वाली@@ 440
शेड 440
कफ 439
चरों 439
चिं@@ 439
नॉन 439
मानिया 439
मौके 439
रयोगात 439
रोनाल 439
लौर 439
वाइल 439
विनय 439
सुनाया 439
ंदगी 438
आपातकाल 438
इंग@@ 438
इंजनों 438
एडिनबर 438
काठमांडू 438
चतर 438
थंकर 438
थाना 438
दुग 438
धब 438
नवी 438
पैकेज 438
पॉइंट 438
माला@@ 438
रमणों 438
रायोगिक 438
लापुर 438
षष 438
सूरज@@ 438
ियस 438
ुट 438
इगलास 437
उपनिवेशों 437
गतिविधियां 437
छाड 437
देशा@@ 437
नब 437
पु 437
बोलियों 437
रांसिसी 437
लिमों 437
लुरु 437
वारि@@ 437
हिद 437
7.@@ 436
900 436
आति@@ 436
आरएनए 436
कपुर 436
कैसल 436
गेस 436
चाँ@@ 436
पहे@@ 436
पोखरी 436
मांगी 436
मिले@@ 436
रजातियाँ 436
रोसिस 436
हेली@@ 436
१९८३ 436
் 436
17@@ 435
अणु@@ 435
एडी@@ 435
कलाम 435
टनर 435
दरवाजा 435
नोड 435
पती 435
पाड 435
बलो@@ 435
बाप 435
भनोली 435
मामा 435
रावस 435
रैया 435
वासित 435
वुल 435
साही 435
सितारा 435
ाय@@ 435
at@@ 434
नं 434
मंद@@ 434
मसू@@ 434
रेने@@ 434
वज@@ 434
शम@@ 434
सलीम 434
हटाकर 434
आदिम 433
उठाकर 433
एंजे@@ 433
एच.@@ 433
कीमतों 433
कॉन@@ 433
चाणक 433
ताज@@ 433
बला 433
भूकम 433
रबैजान 433
रूपांतरित 433
लिखीं 433
विनियमन 433
शालाओं 433
सॉन 433
180 432
1904 432
ia 432
कियां 432
केविन 432
जुल 432
तं 432
तवर 432
देशांक 432
मिं@@ 432
रतिबिंबित 432
रतिरूप 432
रयोग@@ 432
हुमा@@ 432
२६@@ 432
अनुकूलित 431
अनुभाग 431
अभिनव 431
अवशेषों 431
आर.@@ 431
करण@@ 431
घोल 431
नियोक 431
बैग 431
रचा 431
रतिभागियों 431
रसेन 431
लोरी 431
षीण 431
संवेदनशीलता 431
सहारनपुर 431
सोनिया 431
१९७७ 431
उदर 430
कोशों 430
जौनपुर 430
बसा@@ 430
बाजीराव 430
मुम@@ 430
रियासतों 430
रॉम 430
कुँ@@ 429
कैरो@@ 429
जेंड 429
ठंडे 429
डीजल 429
दराज 429
नट 429
बिली 429
मोचन 429
रतीकात 429
रशासक 429
सितारे 429
सुहा@@ 429
160 428
um 428
अनुवादक 428
कारि@@ 428
गोवर 428
चतुष 428
चुंब@@ 428
ठन 428
डेवलपमेंट 428
तांतरण 428
थकान 428
दारा 428
पाणिनि 428
पियों 428
पोलिश 428
बनर 428
यूडब 428
रीवास 428
रोफे@@ 428
लियट 428
लियस 428
विमानन 428
शंकर@@ 428
शेर@@ 428
षेपित 428
संगठनात 428
सूअर 428
होनेवाले 428
१९वीं 428
इंट 427
एकेडमी 427
कुलीन 427
छीन 427
जां@@ 427
जाहिर 427
तिथियाँ 427
पीन 427
पेरू 427
बोइंग 427
मकबरे 427
यकारों 427
रधानता 427
रयागराज 427
सावित 427
आठवें 426
गतिशीलता 426
चरल 426
चलाता 426
जंतु 426
जमींद@@ 426
जीवि@@ 426
टैगोर 426
ढु@@ 426
नगला 426
पाडु 426
मालदीव 426
मून 426
यकरण 426
यापीठ 426
रांची 426
लोत 426
वाव@@ 426
विशेषण 426
सना@@ 426
सपियर 426
पागल 425
फॉस 425
माम@@ 425
मिका 425
मूवी 425
रीत 425
शू 425
हिमाल@@ 425
हुड 425
1896 424
ंदी 424
अंगूर 424
काच 424
कारखानों 424
चाइना 424
छादित 424
टाई@@ 424
डम@@ 424
निकायों 424
फतेहपुर 424
बताए 424
बांध@@ 424
बोझ 424
भूवैज 424
महज 424
मोहित 424
1909 423
अधिकांशतः 423
खलन 423
डाउन@@ 423
थागत 423
पराक 423
पुरातन 423
माया@@ 423
यशो@@ 423
रमाण@@ 423
विल@@ 423
ेयर 423
la 422
असेंबली 422
कंधे 422
कावट 422
जयन 422
झी@@ 422
तुलसीदास 422
नांक 422
नाली 422
रसव 422
षान 422
सूखा 422
सेके@@ 422
३९ 422
४६ 422
७२ 422
1913 421
अजी@@ 421
अजीब 421
कंस 421
जागी@@ 421
जेंस 421
दाने 421
बुश 421
रामानु@@ 421
रामेश 421
वकों 421
विनी 421
संकर 421
संयम 421
सैंड@@ 421
१९८२ 421
W 420
अटल 420
अभिलेखों 420
उदाहरण@@ 420
गृह@@ 420
तकरीबन 420
तहसी@@ 420
तुरन 420
नंदन 420
पैनिश 420
याधिक 420
रेडि@@ 420
लिकेशन 420
समीकरणों 420
१९८८ 420
५.@@ 420
Microsoft 419
ad@@ 419
he 419
आइलैंड 419
आईपी 419
किलों 419
जाओ 419
तेजस 419
पूज 419
बूढ 419
माजी 419
मेनन 419
यारी 419
यूनिक 419
वापिस 419
सुरी 419
ियाघर 419
350 418
ap@@ 418
एलए 418
काय 418
खिलजी 418
खुलना 418
गुनी 418
चौकी 418
जिए 418
ठंड 418
मपुत 418
याभिषेक 418
लाती 418
लेटफार 418
वामी@@ 418
सीएस@@ 418
सीनेट 418
हावर 418
AS@@ 417
Q@@ 417
उठाए 417
कांगो 417
ढेर 417
तनु 417
दंगों 417
नारंगी 417
फुल@@ 417
मफ 417
रतिभा@@ 417
रांग 417
लेष 417
विषु@@ 417
सचिन 417
सुमन 417
१९५६ 417
१९६५ 417
४७ 417
५२ 417
f@@ 416
आकांक 416
कुंडली 416
चालन 416
जरुरत 416
ढे@@ 416
तेहाबाद 416
निमंत 416
बैठकर 416
माक 416
मेटल 416
रौली 416
लवी 416
संतो@@ 416
सजावट 416
wiki 415
इरा@@ 415
करनेवाला 415
टवुड 415
ठंडी 415
डें@@ 415
तरीक 415
तालिबान 415
दाजी 415
नारायण@@ 415
नीम 415
नीलगि@@ 415
भूतियों 415
मगढ 415
मरणोपरांत 415
रोवर 415
लापन 415
वाए 415
have 414
अमो@@ 414
काँग 414
कोला@@ 414
खिलौ@@ 414
ठहरा@@ 414
तरी@@ 414
बीड 414
भूत@@ 414
मॉडलों 414
वीडिश 414
शख 414
संगीतकारों 414
संपाद@@ 414
सवर 414
साज 414
हिब 414
अधिवर 413
औषधियों 413
कांठ 413
कॉमर 413
छाती 413
जानना 413
तुर@@ 413
तेजना 413
दशरथ 413
पुनरावर 413
मसलन 413
मैग@@ 413
मैनेजर 413
उठाते 412
कलापों 412
किया@@ 412
जबरदस 412
निग 412
बाई@@ 412
मिलाने 412
मैंग@@ 412
रवों 412
रहेगी 412
राकेश 412
रैली 412
लीवर 412
UK 411
अनिय@@ 411
आइसो@@ 411
एएस 411
घूम 411
पंचमी 411
बरों 411
मनमोहन 411
माइन 411
मीठे 411
मैसाचुसेट 411
यादृच 411
विंध 411
शाहजहाँ 411
सुधार@@ 411
आइंस 410
उठता 410
एशन 410
कहा- 410
केयर 410
खगोल@@ 410
गुला@@ 410
घुस@@ 410
टूटने 410
डमान 410
तनीय 410
पूरब 410
माउथ 410
मुह@@ 410
यूएस@@ 410
रारी 410
रीमद 410
लेनी 410
लैट 410
समझे 410
सिसि@@ 410
ूत 410
इज@@ 409
डोनाल 409
तोमर 409
देवी@@ 409
नियां 409
लेखित 409
वेल@@ 409
शौक 409
सीने 409
་ 409
किराए 408
जूर 408
थिय@@ 408
दानी 408
धोखाधड 408
पुनरुत 408
भुजा 408
रिसेप 408
रुग 408
सिवाय 408
सूखी 408
सेंसर 408
1907 407
अवधारणाओं 407
कराती 407
गरुड 407
जायेंगे 407
धना@@ 407
पशुपालन 407
फाई 407
मेन@@ 407
युवावस 407
रोमा@@ 407
वशिष 407
विधान@@ 407
विरोधा@@ 407
शत@@ 407
शांतिपूर 407
सजाया 407
सियो@@ 407
हेज 407
IV 406
अंगूठी 406
अधीनस 406
आवंटित 406
एनी@@ 406
कलैंड 406
खानों 406
खेलती 406
गिज 406
घाटियों 406
चलाई 406
जश 406
दुर@@ 406
धीय 406
नेटर 406
भाड 406
भारद 406
मुर@@ 406
लोहाघाट 406
सौभाग 406
३८ 406
४९ 406
110 405
11@@ 405
50,000 405
align 405
ंव 405
औजार 405
घूमती 405
जमु@@ 405
जाबाद 405
टरनेट 405
ताजी 405
दिन@@ 405
दिव@@ 405
नय 405
फीन 405
बहाव 405
मदुर@@ 405
मसीह 405
रोद 405
लंब 405
सेवकों 405
हला@@ 405
हों@@ 405
अनी@@ 404
अनुमोदित 404
अशुद 404
आभूषण 404
जागीर 404
टती 404
टियम 404
तंतु 404
नकद 404
मनोचिकित 404
मुं@@ 404
शाने 404
संभोग 404
आला 403
ओर@@ 403
कालि@@ 403
कीव 403
घाना 403
टेलिविज 403
दिस 403
परेड 403
बहिर 403
बीएस@@ 403
बोहाइड 403
रदय 403
लेट@@ 403
षरण 403
सुगंधित 403
हाइपर@@ 403
ारे@@ 403
2.0 402
अजीत 402
आकाशगंगा 402
एंव 402
कपिल 402
कृति@@ 402
छेदन 402
जमींदार 402
डिवी@@ 402
दिखती 402
धानों 402
नल@@ 402
नलिका 402
नोत 402
पहुँचाने 402
भाषिक 402
मारकर 402
रोमांस 402
वारका 402
समो@@ 402
साग@@ 402
४०० 402
८५ 402
3.5 401
thumb 401
एब 401
केदारनाथ 401
खोजा 401
चान 401
चुप@@ 401
दुरुपयोग 401
निपटान 401
परमा@@ 401
पुंज 401
भौतिक@@ 401
मिठाई 401
मैनु@@ 401
रौपदी 401
लेस@@ 401
लैंग 401
लैंड@@ 401
वानुमान 401
शेखा@@ 401
संबन 401
HIV 400
अनावश 400
एगी 400
कीइंग 400
चलाए 400
जेशन 400
तेरा 400
दाओं 400
पाइप 400
पाला 400
बुंदेलखंड 400
मोटा@@ 400
मोनिया 400
यवसायिक 400
रेप 400
वकोश 400
सजा@@ 400
सिखाया 400
o@@ 399
अमरेली 399
अहीर 399
एंड@@ 399
कारखाना 399
गुजर 399
जंग@@ 399
टैनफोर 399
तरु@@ 399
ताओ 399
निकाल@@ 399
निभाता 399
पिक@@ 399
बाहु 399
मीणा 399
रं 399
रेखीय 399
रैम 399
विषै@@ 399
वैली 399
शिता 399
शिर 399
सिंधिया 399
अलास 398
आणविक 398
कमाल 398
गौण 398
टीके 398
थवादी 398
दोहरे 398
नासिक 398
पक@@ 398
पावन 398
बिंद 398
बीजिंग 398
बीट 398
बीबी 398
मानत 398
यड 398
रिक@@ 398
रिका@@ 398
लेंडर 398
वफा@@ 398
विकलांग 398
सरा@@ 398
has 397
not 397
د 397
अनु 397
अमित 397
एंटीबायोटिक 397
गंगो@@ 397
गपुर 397
गलिय@@ 397
णो 397
नशे 397
नागा 397
परी 397
पी. 397
बिका 397
बोधन 397
मकर 397
योगिकियों 397
लरी 397
लोट 397
ारस 397
ن 396
आईं 396
आभासी 396
आसमान 396
एरिया 396
एव 396
कनाडाई 396
गाज 396
चाल@@ 396
जीवाणुओं 396
जेरिको 396
दुः@@ 396
नेपाल@@ 396
पतले 396
बंधक 396
मिया@@ 396
ललि@@ 396
वाडा 396
शिवरात 396
सचिवालय 396
सिकंद@@ 396
130 395
1890 395
2,000 395
3000 395
उँ@@ 395
खनिजों 395
खल@@ 395
गोचर 395
घृणा 395
चू 395
जाग 395
जीवंत 395
तंभों 395
तिमा 395
तैराकी 395
थलीय 395
दिता 395
दोषों 395
पैथी 395
फिस 395
माफी 395
मुलायम 395
मेडिसिन 395
युज 395
रकों 395
राठौड 395
वं 395
विषा@@ 395
संवे@@ 395
सिन@@ 395
सुव 395
हीरा@@ 395
ंकर 394
कुरुक 394
चचेरे 394
पतिक 394
पीय 394
रदार 394
रयी 394
वानस 394
शहद 394
सिगरेट 394
कैपिटल 393
खरा 393
गात 393
तराष 393
दूषित 393
नमेंट 393
निवेशक 393
पहुँचती 393
पोक 393
फैलाने 393
बमबारी 393
मंगलवार 393
यूड 393
रेन@@ 393
वतारो@@ 393
वद 393
शाख 393
शिन 393
सहानुभूति 393
सेन@@ 393
हावी 393
हीरे 393
हॉप 393
ेब 393
एमएल 392
खोज@@ 392
जानबूझकर 392
तांक 392
दीपिका 392
नौका 392
पॉवर 392
मिग 392
रेख 392
वासुदेव 392
साइप 392
CH@@ 391
अपवर 391
आँखें 391
केबाजी 391
घन@@ 391
चिंताओं 391
चुनने 391
टीय 391
तास 391
धृ@@ 391
नीलामी 391
पूँजी@@ 391
बंगला 391
लाट 391
वृन 391
समाचारपत 391
ैतिक 391
NBC 390
असहम@@ 390
आलेख 390
आलोच@@ 390
करणीय 390
कालक 390
खारी 390
घरघोडा 390
चलना 390
चुरी 390
टिज 390
पंप 390
परियोज@@ 390
पहल@@ 390
फोटो@@ 390
बेचे 390
माघ 390
लीक 390
लेय 390
लॉज 390
लॉजिकल 390
वमेंट 390
विशाखा@@ 390
समीर 390
सुदर 390
u@@ 389
असत 389
कैमरून 389
गना 389
गवाही 389
थितिक 389
नूतन 389
नोवा 389
बोट 389
मुठभेड 389
यायाधीशों 389
रास@@ 389
विचलन 389
विजेताओं 389
विभे@@ 389
संगणक 389
समय@@ 389
सुधारक 389
हकी@@ 389
७.@@ 389
ch@@ 388
th@@ 388
कुंवर 388
कैदियों 388
गोपी@@ 388
धनात 388
बले 388
मोती@@ 388
मोम 388
मोरक 388
येय 388
रिटर 388
अनुपालन 387
आइस 387
उभर 387
कोत 387
खस 387
गतिकी 387
चकित 387
चालकों 387
डेवलपर 387
धिकारों 387
पकाने 387
पतालों 387
बाँटा 387
बारी@@ 387
बेसबॉल 387
भतीजे 387
भूमिकाएं 387
मरे 387
मिसाल 387
मेंस 387
मेडल 387
रोव 387
सघन 387
60@@ 386
आईटी@@ 386
एस.@@ 386
काँच 386
चांद 386
टोरंटो 386
ताहांत 386
दाग 386
देगी 386
दोहराया 386
मनिर 386
शॉ@@ 386
सिंधी 386
100,000 385
108 385
12वीं 385
आठ@@ 385
आपेक 385
ओएस 385
कंद@@ 385
कटा@@ 385
किड 385
कुरै@@ 385
कोणों 385
घना 385
घूमते 385
दोष@@ 385
निराशा 385
पंचा@@ 385
पुकार@@ 385
फिलहाल 385
बलूचिस 385
राणु 385
रॉफ 385
वसू@@ 385
साढ 385
सूबेदार 385
हटाया 385
हाथियों 385
११@@ 385
५१ 385
९८ 385
अधिकता 384
अनुसं@@ 384
अबुल 384
अभूतपूर 384
अवरुद 384
गेशन 384
चंप@@ 384
चाहा 384
तुक 384
पनियों 384
बगैर 384
बराबरी 384
बसु 384
बालिका 384
माड 384
मोटाई 384
मौजूदगी 384
रिकोण 384
वाजा 384
संब@@ 384
सिडीज 384
सिवा 384
सुधारने 384
हाफ 384
असम@@ 383
किलो@@ 383
केबाज 383
खींच 383
चरण@@ 383
चूक 383
जगदीश 383
देशकों 383
धमान 383
परव@@ 383
पिटल 383
पीटरसन 383
फिजी 383
बडा 383
बहुराष 383
जुलता 382
दबाने 382
पासवर 382
मूलत 382
मोटा 382
मौसमी 382
रभ 382
वंशजों 382
वरम 382
विनाशकारी 382
सतर 382
सैल 382
center 381
अंकन 381
अंजाम 381
अधो@@ 381
अपनाई 381
अभियो@@ 381
ओलिंपिक 381
गरा 381
गुजरता 381
जनी@@ 381
णयों 381
नून 381
परंपरा@@ 381
पीसी@@ 381
बग@@ 381
बहू 381
बिकने 381
बिड 381
भूविज 381
मंजिला 381
मानवों 381
याशी 381
लंबन 381
लेशियर 381
साठ 381
सुखोई 381
सुग 381
१९८७ 381
140 380
अने@@ 380
एनरॉन 380
कलि@@ 380
दसवीं 380
फत 380
मैके@@ 380
मोट 380
यूजी@@ 380
रयोजनों 380
रलैंड 380
राधिकार 380
वंशावली 380
संचालक 380
.मी. 379
ओष@@ 379
चंद@@ 379
जासूसी 379
जीएस@@ 379
निकालकर 379
बाउ@@ 379
रबंधित 379
रभारी 379
रिंग@@ 379
रेटेड 379
लुम 379
वाइड 379
वियों 379
इंटरफेस 378
कोश@@ 378
टीबी 378
टूल 378
नते 378
निःशुल 378
फूट 378
मजात 378
विहीन 378
वेली 378
साख 378
34@@ 377
55@@ 377
also 377
ओपेरा 377
कैल@@ 377
गाये 377
फेन 377
भवानी 377
मभूमि 377
महिला@@ 377
मौद 377
यभार 377
योतिर 377
राजतंत 377
रैंकफर 377
वृहत 377
शेट 377
इंतजार 376
ओज 376
कपि@@ 376
गरीबों 376
दीकी 376
दृ@@ 376
नदियां 376
पतंजलि 376
बु 376
मदनी 376
महासंघ 376
मिना 376
मुलाक 376
मैरी@@ 376
लाउड 376
वैधानिक 376
वैवाहिक 376
शनशास 376
ेज 376
ैक 376
--- 375
अदा@@ 375
उतने 375
ओबामा 375
कॉफ 375
घिरे 375
चिका 375
चुनौतियों 375
जापुर 375
डालर 375
तिरुवन@@ 375
धरमजयगढ 375
निकालना 375
पीरियल 375
मसाला 375
मुबार@@ 375
यारा 375
रपत 375
रानी@@ 375
लिसिस 375
वाहिनी 375
सरसों 375
सहिष 375
साइमन 375
सारस 375
हित@@ 375
१९७६ 375
४,@@ 375
1902 374
Z@@ 374
meridian 374
ंचा 374
आड 374
इजा@@ 374
ईर 374
निकास 374
बीएस 374
महाकवि 374
मेलनों 374
रवीन 374
विधायिका 374
शनरी 374
संचय 374
संतृप 374
समझता 374
सौम 374
.प 373
9,@@ 373
अंदरूनी 373
अनावरण 373
असमानता 373
आभास 373
ऊँ 373
गरुङ 373
तापलट 373
तिकला 373
तोष 373
दिखते 373
धीश 373
पटियाला 373
पतला 373
परिलक 373
पांडवों 373
पूंछ 373
मसा@@ 373
युवराज 373
योतक 373
रिच 373
वानु@@ 373
विवश 373
शिवजी 373
हरिया@@ 373
हाना 373
१९७३ 373
उतरने 372
कुंड@@ 372
घुटने 372
ठल 372
तिज 372
दिखायी 372
दीपावली 372
बेकिस 372
यायालयों 372
रंजन 372
रेनों 372
रेमचंद 372
रोमानिया 372
लनों 372
लॉयड 372
वृति 372
सभापति 372
हिमा@@ 372
िताब 372
ियंस 372
१९३० 372
४१ 372
इवेंट 371
ऋणात 371
केला 371
गॉर 371
जौहर 371
डूब 371
डेबिट 371
तरंगदैर 371
ताब 371
बतला@@ 371
मुरली@@ 371
यातना 371
रहवी 371
रोध@@ 371
लात 371
विकला@@ 371
संयोजक 371
सींग 371
िकता 371
०६ 371
५३ 371
५६ 371
text 370
अदृश 370
ईद 370
खतरों 370
घेराबंदी 370
झरना 370
तोप 370
नाकाम 370
नानक 370
नाया 370
पों@@ 370
मणिपुरी 370
मृग 370
मौन 370
यूएसए 370
योहारों 370
वॉशिंगटन 370
संवाद@@ 370
सुले@@ 370
९५ 370
00721 369
name 369
इमामगंज 369
उदहारण 369
एंट 369
एआई 369
एशियन 369
एसटी@@ 369
कारो@@ 369
कृत@@ 369
कैरे@@ 369
गोरख@@ 369
जेड 369
टानी 369
धव 369
निरस 369
बोनेट 369
महार@@ 369
रणों 369
वरीयता 369
वारिस 369
वैच 369
सगाई 369
सवाना 369
सोफ 369
ंगता 368
अहं@@ 368
कंग@@ 368
कृपा@@ 368
खाती 368
गोड 368
जौ 368
डियर 368
तटों 368
देखती 368
पैठ 368
मसाले 368
ययंत 368
रसं@@ 368
रायण 368
रीति@@ 368
वांस 368
विका 368
हमी@@ 368
अधिवक 367
असुर 367
कोव 367
छू 367
टाना 367
टीले 367
ढूँ@@ 367
तदनुसार 367
दिनी 367
दिवा@@ 367
दील 367
धनबाद 367
नदी@@ 367
पढाई 367
पेशावर 367
बिम 367
बीजापुर 367
रचारित 367
राधाकृष 367
रोकना 367
लोबिन 367
सदों 367
सुशील 367
ौदा 367
5,000 366
असुरक 366
कांट 366
काउंटर 366
किशोरावस 366
खूब@@ 366
गांधी@@ 366
चादर 366
थाईलैण 366
देनी 366
नम@@ 366
पहुँचते 366
पिशाच 366
पुकारा 366
बसों 366
लगाव 366
लभ@@ 366
वभौ@@ 366
विंड@@ 366
विधायी 366
सईद 366
सीरियाई 366
सुम 366
Indian 365
उखाड 365
ऑटोमोबाइल 365
खरीदारी 365
गोबर 365
जने@@ 365
ताक@@ 365
धनों 365
धेश 365
माधोपुर 365
ललिता 365
विचारकों 365
वेधशाला 365
शिशुओं 365
संभाल 365
ाख 365
१९७४ 365
आव@@ 364
ईसाइयों 364
गुरू@@ 364
तोप@@ 364
थिंग 364
धरन 364
नाप 364
पौष 364
बाधाओं 364
बीटल 364
मंज 364
महलों 364
मीठा 364
रतिभागी 364
रिख 364
रियाशील 364
लका@@ 364
लेन@@ 364
वाधर 364
विशेषाधिकार 364
शासकीय 364
अपरिवर 363
आगम 363
एमी 363
ऐड 363
जिये 363
टी. 363
टेरी 363
तेजक 363
तोली 363
दबा 363
पूछताछ 363
बिय@@ 363
महानिदेशक 363
यारोपण 363
यीशु 363
वनियों 363
विला 363
वी. 363
वेदिक 363
सांसारिक 363
एसोसिएट 362
कहां 362
कारो 362
कासन 362
कि.मी. 362
खिलाडी 362
देवों 362
मने 362
रतिभाशाली 362
रावधानों 362
लाप 362
वृहद 362
षाएँ 362
सिकल 362
1880 361
एयरबस 361
गाय@@ 361
पराओं 361
पीट 361
फिनलैंड 361
बाएँ 361
महावृत 361
रभाषा 361
रवै@@ 361
लजी 361
विधाओं 361
षतिपूर 361
समा 361
ोला 361
70@@ 360
अनुशं@@ 360
आमिर 360
कहे@@ 360
कासित 360
कैथे@@ 360
जादुई 360
जुलती 360
देस 360
निः@@ 360
निवेदन 360
नीर 360
पुलि@@ 360
बहरीन 360
मांगा 360
मेदार@@ 360
योजनों 360
रोलिंग 360
संवेद@@ 360
9.@@ 359
आजीविका 359
आतंक 359
इसरो 359
कलिंग 359
के.@@ 359
चप@@ 359
छपाई 359
छित 359
टिक@@ 359
दावों 359
निपुण 359
परि 359
रुम 359
रूख 359
रोकता 359
संकट@@ 359
सभाओं 359
इटा@@ 358
इराकी 358
ओलंप@@ 358
चांद@@ 358
चिस 358
डियो 358
फूड 358
भगृह 358
मिलर 358
यायी 358
रग@@ 358
रावास 358
लगंज 358
लूकोज 358
लेरी 358
वसम 358
विटर 358
शौकिया 358
संकुचन 358
सराहा 358
सिकता 358
हिरासत 358
१९६३ 358
६४ 358
अभिकल 357
ओवल 357
ओवेन 357
गिने 357
गिलगित 357
जटिलताओं 357
जासूस 357
जीरा 357
टकरा@@ 357
ताली 357
तिपूर 357
दम@@ 357
दिलाई 357
धारियों 357
नने 357
नमूनों 357
बॉबी 357
मशाला 357
माई@@ 357
माधुरी 357
लास@@ 357
ag@@ 356
अमीन 356
असफलता 356
गियर 356
जनसंघ 356
जोल 356
टेरा 356
णुओं 356
तुमने 356
दिनेश 356
धारकों 356
पंखों 356
बनों 356
बेह@@ 356
यूनिकोड 356
ऱ 356
लाइज 356
गतिविधियाँ 355
जनवादी 355
डायरी 355
डेरा 355
दाना 355
पुरुषोत 355
मोग 355
रतियोगि@@ 355
रमबद 355
रिसा@@ 355
रेरणा@@ 355
लड@@ 355
लून 355
शीतोष 355
सरो 355
साहि@@ 355
सीमाएं 355
हाली 355
ेगी 355
3,000 354
ंचे 354
अहम@@ 354
करि@@ 354
काग 354
कोरी 354
खोली 354
छुटकारा 354
जीरिया 354
झंडा 354
डव 354
थितियां 354
नाकर 354
नैन 354
पडा 354
पहुंचते 354
पिंक 354
फोरस 354
बकरी 354
भागीदार 354
मातृ 354
यायपालिका 354
युम 354
वीजा 354
व० 354
शेरशाह 354
साईट 354
हिया 354
१९७९ 354
२९@@ 354
J 353
ak@@ 353
on@@ 353
ईसा@@ 353
कवक 353
गन@@ 353
जेरी 353
ठहर@@ 353
तानपुर 353
थोक 353
निरोधक 353
बालकों 353
मली 353
मारकों 353
मुकेश 353
रदास 353
लई 353
सोचने 353
इनस 352
उठाना 352
एथेंस 352
एलसी 352
गोरी 352
चंदा 352
जाड 352
झांसी 352
तेरी 352
दने 352
दफनाया 352
धिकारियों 352
नान@@ 352
नानुसार 352
बिश 352
भूरा 352
यव 352
वैसी 352
शॉपिंग 352
शौर 352
षुओं 352
ारिणी 352
bdi 351
ya 351
अंश@@ 351
उठे 351
कलाकृतियों 351
कलाप 351
कैरि@@ 351
गुम@@ 351
चुनावी 351
डैम 351
परतों 351
बेग 351
भती@@ 351
मेम 351
युगों 351
रैना 351
विधिवत 351
शाखाएं 351
सरदारों 351
सीमाएँ 351
सेंटीमीटर 351
हात 351
१९६९ 351
कारिणी 350
जिमी 350
फू 350
बुराई 350
भैंस 350
रतियों 350
रतीकों 350
राएं 350
लल 350
लूरु 350
लेर 350
वायुयान 350
विशेषतः 350
षगांठ 350
सतीश 350
०७ 350
1800 349
1899 349
ंतर 349
अंतत 349
अपोलो 349
आधुनिक@@ 349
इथियोपिया 349
एलजी 349
कूर 349
घेरा 349
टाइड 349
नांकित 349
बीजों 349
मानदंड 349
मिनि@@ 349
यामितीय 349
रॉइड 349
वाडोर 349
विनियमित 349
वियना 349
शाश 349
सफल@@ 349
समायोजन 349
साइबेरिया 349
सुलझाने 349
सूचनाओं 349
सेरा 349
CO@@ 348
Rousseau 348
ana 348
ंख@@ 348
इया 348
कपकोट 348
करौली 348
किंग@@ 348
किरौली 348
घटनाक 348
जप 348
टडीज 348
टोफर 348
मंचन 348
याई 348
शैवाल 348
समूचे 348
होन 348
६०० 348
20,000 347
आनुवांशिक 347
एकाग 347
ऐस 347
कछ@@ 347
कमजोरी 347
कैलिफ 347
गुरुआ 347
चटर 347
जिदों 347
जेपी 347
पहुँची 347
पीए 347
पुरू@@ 347
बजाया 347
महे@@ 347
मिलेगी 347
रेंद 347
वाय 347
वीणा 347
OS 346
ation 346
अंडरटेकर 346
किग 346
कैंप@@ 346
गिस 346
नाजी 346
नाटो 346
पहुंचता 346
फोकस 346
बेकर 346
बैठकों 346
बॉयज 346
भत 346
मनोरंजक 346
यमु@@ 346
याकुमारी 346
रांग@@ 346
रेजु@@ 346
सामी 346
हँ@@ 346
हेर 346
हैंड 346
ोरम 346
as@@ 345
or@@ 345
एल.@@ 345
एली@@ 345
ऑफि@@ 345
ओडि@@ 345
कशायर 345
चलाना 345
टीकाकरण 345
टॉर 345
डिजा@@ 345
ताश 345
दरबारी 345
नट@@ 345
मुंडा 345
रब@@ 345
विंद 345
वु 345
शैतान 345
संभाव 345
सय 345
साहसिक 345
सीमन 345
सूफ 345
सैनी 345
हारने 345
करनेवाली 344
गिरती 344
घरा 344
चयापचय 344
जहा 344
जोस 344
तेज@@ 344
निराशा@@ 344
पहुँचता 344
पानीपत 344
पिछ@@ 344
मनोनीत 344
माज 344
यूटरों 344
यूयार 344
रितानी 344
रेताओं 344
शिलालेखों 344
सामन 344
०I 344
अठार@@ 343
असु@@ 343
एसयू 343
कृषक 343
खंडित 343
गोंड 343
चतु@@ 343
छाओं 343
जी.@@ 343
णुता 343
फिट@@ 343
मिथक 343
यः 343
रीमियम 343
रुओं 343
षिका 343
१९६७ 343
this 342
अरविन 342
एंजाइम 342
एजुकेशन 342
कमांड 342
कुओं 342
केर@@ 342
गभाना 342
टियन 342
धारणा@@ 342
नीति@@ 342
पठन 342
बीघा 342
बेकार 342
मंडली 342
मिसाइ@@ 342
यू.एस. 342
राजन@@ 342
रायो@@ 342
वायुमंडलीय 342
वेगास 342
शिकाय@@ 342
सीडी@@ 342
६६ 342
codice 341
is@@ 341
j 341
z 341
ة 341
अचल 341
इशारा 341
एडी 341
कसौ@@ 341
कायस 341
गम@@ 341
गिंग 341
डिटेक 341
डिपार 341
दरिया 341
दह@@ 341
पहचाने 341
बगी@@ 341
बाइट 341
बारूद 341
मढ 341
मुण 341
रहीम 341
रांट 341
रिनिदाद 341
रीनिवास 341
रीफ 341
संतोष 341
सांग@@ 341
सॉल 341
६१ 341
अनुभव@@ 340
अमेज 340
आकाशवाणी 340
ऑर@@ 340
गांधीजी 340
गृहीत 340
गोपाल@@ 340
जहर 340
जे.@@ 340
तवाद 340
नवो@@ 340
नाराय@@ 340
नेवि@@ 340
पितृवंश 340
पिरामिड 340
बृह@@ 340
मंगल@@ 340
माणाधीन 340
मातृवंश 340
रियलिटी 340
वेशभूषा 340
सीमांत 340
सेटिंग 340
हिसार 340
हैँ 340
हैट 340
ारू@@ 340
125 339
ت@@ 339
अखाड 339
अभय 339
इजी 339
कठोरता 339
कोशिकीय 339
चुनौ@@ 339
जिलिंग 339
तांग 339
पनों 339
परिणत 339
पीडिया 339
फेंकने 339
मेय 339
रोफोन 339
विदर 339
सिग@@ 339
00720 338
1895 338
ˈ@@ 338
अवतरण 338
असेम 338
एमि@@ 338
खैरागढ 338
गाजीपुर 338
घाती 338
ञप 338
डान 338
तनिक 338
दुखी 338
पिटक 338
मजबूती 338
मटी20आई 338
महानतम 338
माउं@@ 338
रतिहार 338
रामन 338
रीमेक 338
वीट 338
सिलसिला 338
हाद 338
१९८१ 338
५४ 338
1903 337
Q 337
ra@@ 337
ر 337
उंड 337
कमाने 337
कारण@@ 337
किमी@@ 337
कुला 337
जामा 337
नफ 337
नाइड 337
परदे 337
बुधवार 337
बेज 337
बैच 337
भरण 337
रचनाकार 337
रिंसिपल 337
रेशों 337
लेंट 337
समता 337
सिफारि@@ 337
१९६१ 337
१९६४ 337
डास 336
तीक 336
दौला 336
धारावाहिकों 336
पोटै@@ 336
बाना 336
भूगर 336
यनाथ 336
लेटो 336
वैल 336
संघों 336
संयोजित 336
साँस 336
सीखना 336
सीबी@@ 336
ृंग@@ 336
उंट 335
ऑनर 335
गुजरने 335
घुमा@@ 335
चण 335
जानेवाली 335
जोशीमठ 335
डवों 335
तापीय 335
तुशिल 335
थापा 335
निदेशालय 335
बराम@@ 335
बिंग 335
मगरमच 335
मदन@@ 335
माधव@@ 335
लिवर 335
संबंध@@ 335
सरह@@ 335
सिंक 335
सिलसिले 335
हवें 335
१९६६ 335
अफसर 334
इजराइल 334
उभरते 334
एसएस 334
केली 334
जोश 334
टीवर 334
डफ 334
धीमा 334
बित 334
रकृति@@ 334
रघुनाथ 334
रागैतिहासिक 334
रिव 334
रुश 334
रूड 334
लूप 334
लॉरेंस 334
वही@@ 334
वामन 334
वेव 334
शुभारंभ 334
शृंगार 334
1860 333
ic 333
कोंकणी 333
जीनिया 333
जें@@ 333
टमिंस 333
निभायी 333
निमोनिया 333
पाव@@ 333
पिज 333
भारतेन 333
यूना@@ 333
रिगेड 333
रेनिंग 333
शंघाई 333
शटल 333
शॉन 333
षाविद 333
सिलोना 333
ानें 333
1898 332
Highway 332
ing 332
अनुराग 332
आगंतुकों 332
कुख 332
कोलेस 332
खंडहर 332
खोले 332
डायना@@ 332
डॉट 332
तिके@@ 332
दवाएं 332
दाँ@@ 332
पकर 332
पांड 332
पूँछ 332
मंगे@@ 332
मख@@ 332
मोव 332
यादगार 332
यूजियम 332
राशि@@ 332
रिलायंस 332
रिले 332
लुइस 332
वादिष 332
विशेषा@@ 332
साइबर 332
सिनी 332
हरिश 332
हवाओं 332
होटेल 332
747 331
आलोक 331
इम@@ 331
काफ@@ 331
किश 331
जिला@@ 331
जें 331
टिनेंटल 331
डीआर@@ 331
डैनियल 331
तिरवा 331
पली 331
पांचवीं 331
पाठशाला 331
भावनाएं 331
याना 331
यारण 331
रद@@ 331
रेडमार 331
लेनिन 331
वायरलेस 331
विद@@ 331
१९७८ 331
1858 330
अठारह 330
उदारवादी 330
एडवेंचर 330
कलश 330
तीया 330
दिया@@ 330
पोन 330
रिहाई 330
लीं 330
वाहा 330
शंख 330
हवा@@ 330
ौल 330
२७@@ 330
ंबर 329
अनिच 329
आईएसओ 329
इनरी 329
उपनदी 329
ऑयल 329
कसम 329
केड 329
खरा@@ 329
गड@@ 329
गारिया 329
घोषणा@@ 329
चारो 329
ठियों 329
डुम@@ 329
डेनिस 329
तूरी 329
दशह@@ 329
पदवी 329
पोज 329
बंधु 329
बदलना 329
बिताए 329
बीजा@@ 329
रूपता 329
लिद 329
वण 329
शिलांग 329
सदिश 329
समोआ 329
q 328
un@@ 328
अंतरा@@ 328
आईओसी 328
आदेशों 328
आमा@@ 328
ईसी 328
उषा 328
ऐसी@@ 328
कंबोडिया 328
कोशिकाएँ 328
टेने@@ 328
डिएगो 328
णाल 328
तिकर 328
तुगलक 328
नियस 328
पनिषद 328
पुड 328
पूँजी 328
यानु@@ 328
युलर 328
यूटी@@ 328
रशंसित 328
रोमांचक 328
१९४० 328
1889 327
ح@@ 327
अँग 327
इका@@ 327
इटावा 327
इवान 327
एनीमेशन 327
करिश 327
कशे@@ 327
गोमती 327
गोलीबारी 327
जानकर 327
ताजिकिस 327
दुकानें 327
देल@@ 327
नवाचार 327
नायकों 327
पणियों 327
परो@@ 327
फंस 327
बची 327
भगवद 327
मय@@ 327
मैथुन 327
लंकार 327
वानपुर 327
विनि@@ 327
वैभव 327
शाहरुख 327
सीया 327
ेंगे 327
१९५७ 327
1870 326
ंके 326
आईबीएम 326
आसीन 326
इकबाल 326
इनल 326
जाम@@ 326
डगलस 326
तिमाही 326
निवार@@ 326
नॉमिक 326
पेंट 326
बगीचे 326
बदा@@ 326
बारा 326
मारि@@ 326
मेष 326
रानिक 326
रेरण 326
लन@@ 326
लांच 326
लोशिप 326
वाइंट 326
वायरल 326
वालामुख@@ 326
विनम 326
शुदा 326
संजीव 326
संभाली 326
हीमोग 326
ेसर 326
.एस.@@ 325
ंटों 325
अधी@@ 325
अमीनो 325
अवर 325
इफ 325
ऋष@@ 325
कूप 325
टियो@@ 325
डार@@ 325
तद 325
तमि@@ 325
दशी 325
फड 325
भाद 325
रिद 325
रेंसिक 325
रेव 325
वसूली 325
सीस 325
हिमानी 325
ॅल 325
15वीं 324
अधिष 324
ईथर 324
कछु@@ 324
कॊ@@ 324
खेलता 324
गनी 324
जैज 324
णांक 324
धनराशि 324
नेम 324
पेंडे@@ 324
फैन 324
ममता 324
मानवा@@ 324
यकतानुसार 324
योदय 324
राँची 324
रीडर 324
हाइपो@@ 324
८४ 324
105 323
ine 323
ंगा@@ 323
अदालतों 323
ऑपरेटर 323
चितता 323
छठा 323
जाति@@ 323
जेसन 323
डकर 323
दिलाया 323
बरसात 323
मेंटल 323
रांतिकारियों 323
लिवरपूल 323
सलामी 323
साधारणत 323
सिरों 323
हील 323
०८ 323
०९ 323
१८५७ 323
1885 322
ँसी 322
उदी 322
उपसर 322
एनसी@@ 322
कभार 322
गिक 322
चांस@@ 322
जातीं 322
थितियाँ 322
धालुओं 322
नेचर 322
फान 322
बजाने 322
भयभीत 322
मुहैया 322
यवहार@@ 322
रृ@@ 322
रोटोटाइप 322
लियाई 322
विसेज 322
सहे@@ 322
सावधान 322
१५० 322
101 321
1891 321
² 321
अहमदनगर 321
आईएल 321
इसा@@ 321
एर@@ 321
छुड 321
टीग 321
डेशन 321
नोएडा 321
फीसदी 321
बंग 321
बत@@ 321
बांस 321
बाईं 321
मिशनरी 321
मेशन 321
लंग@@ 321
लोरीन 321
वाटर@@ 321
विजुअल 321
विडियो 321
विशालकाय 321
वीवेट 321
वू 321
वेदांत 321
शनिकों 321
हां 321
00719 320
1887 320
TV 320
आनुवं@@ 320
उभरे 320
एकाधिकार 320
करतीं 320
करम 320
जनजातीय 320
जानकी 320
जिप 320
नवमी 320
बफ 320
बेथ 320
मेहरा@@ 320
मोहक 320
यनों 320
लिंगा@@ 320
शिरा 320
सामंत 320
सिज 320
हीनता 320
१९२० 320
८२ 320
es 319
अधिकाधिक 319
अनगिनत 319
आधुनिकीकरण 319
एमटीवी 319
एवेन 319
कावेरी 319
कुरआन 319
घोंस@@ 319
घोटाले 319
टेनर 319
तरप 319
तांबे 319
दकर 319
दलितों 319
दसवें 319
पीतल 319
भूम 319
महापौर 319
मानसिंह 319
यूंकि 319
रचे 319
राजपू@@ 319
रृंखलाओं 319
लोनी 319
वॉकी 319
सहकर 319
हिज 319
हुकूमत 319
१९६८ 319
ंभ 318
आच 318
उतारा 318
औरंगज 318
कोय@@ 318
गरों 318
झाँसी 318
झीलें 318
तनधारी 318
था- 318
दीवारें 318
पाटिल 318
फोरम 318
बाराकोट 318
बारीक 318
बीजगणित 318
बेटों 318
भेजता 318
मता@@ 318
रांगण 318
लंधर 318
लिपीन 318
शेयर@@ 318
सुनी 318
हाजी 318
कारगर 317
जावेद 317
ञे@@ 317
डाक@@ 317
तरता 317
दयानन 317
धवन 317
बलराम 317
रभार 317
लमैन 317
लीला@@ 317
सिव 317
िरोज 317
র@@ 317
00,000 316
11वीं 316
AT 316
IN@@ 316
अंजलि 316
एबरडीन 316
एह@@ 316
ओरे@@ 316
काग@@ 316
खाप 316
गणों 316
गूढ 316
जुटाने 316
टलों 316
टिना 316
थूल 316
निषिद 316
फुफ 316
फो 316
मजिस 316
मायने 316
रंगपुर 316
रणजीत 316
रतिबंधों 316
लाईट 316
संहिताओं 316
सिलिकॉन 316
हुगली 316
६३ 316
ईमानदारी 315
एंटीबॉडी 315
दाएँ 315
बवत 315
मजाक 315
मिली@@ 315
मुंशी 315
य- 315
यायमूर 315
शीला 315
साँप 315
हमलावर 315
ियल 315
अरावली 314
आरेख 314
इमरान 314
एकाधिक 314
कलं@@ 314
कुशीनगर 314
जगदी@@ 314
टुअर 314
टेलाइट 314
ढाँचे 314
तकालयों 314
नगरीय 314
पिंडों 314
मरी@@ 314
लायंस 314
लोहिया 314
वेरी 314
वैधता 314
शें 314
समांतर 314
सवै@@ 314
सुखद 314
हनुमान@@ 314
हाइब 314
हापुर 314
w@@ 313
अनुसूची 313
एटर 313
काशीपुर 313
कोलं@@ 313
गिब 313
चैप 313
जुलूस 313
तवा 313
पहुंचाया 313
पाउ@@ 313
बरौ@@ 313
बाबू@@ 313
भुजाओं 313
राइक 313
राचीनकाल 313
रावणकोर 313
लिंगटन 313
वुर 313
षितिज 313
सतही 313
सिकुड 313
हिजरी 313
ोतरी 313
ism 312
revision 312
अनजाने 312
असंतोष 312
ईंटों 312
एथि@@ 312
कंपन 312
कालान 312
कासिम 312
कि.@@ 312
किंवदंती 312
कुली 312
खोजों 312
गरिमा 312
जनात 312
जबड 312
ठण 312
तगालियों 312
पिका 312
बीता 312
मैगज 312
यूएफ 312
रशं@@ 312
रुपया 312
रुल 312
वसनीयता 312
शासन@@ 312
सोस 312
१९४९ 312
६८ 312
360 311
ंगेन 311
अमेरिकियों 311
इंडेक 311
इयर 311
एवरेस 311
एसपी@@ 311
ओरिएं@@ 311
और@@ 311
कमेनिस 311
काप 311
गुणांक 311
जेनिक 311
डेविल 311
तमी 311
नारीवादी 311
नेज 311
पूना 311
फैलता 311
बाहु@@ 311
रंगी 311
रिष 311
रुधिर 311
रोश 311
वरीय 311
सटी@@ 311
हाँ@@ 311
ाँ 311
ुग 311
ai 310
ra 310
ی 310
अंशों 310
आसवन 310
ऊं 310
ऋषिकेश 310
कुलर 310
गुंबद 310
जारा 310
टॉल 310
तेह@@ 310
थिती 310
दफन 310
नतीजा 310
नीता 310
परांत 310
फाइट 310
मनवेल 310
यरू@@ 310
येल 310
रको@@ 310
रभा 310
रहम 310
रेजि@@ 310
रोफाइल 310
लेषक 310
लैंडिंग 310
वानर 310
समैन 310
हबी@@ 310
10,@@ 309
104 309
1897 309
SO@@ 309
उकसा@@ 309
कठपुतली 309
कुला@@ 309
कूपर 309
चंपारण 309
टरियों 309
देवरिया 309
नप 309
नॅ@@ 309
पदभार 309
पुदु@@ 309
बराक 309
बेरोजगारी 309
भाला 309
मविश 309
महंगा 309
मातृभूमि 309
मिड 309
मोहल 309
यति 309
यदु@@ 309
यभि@@ 309
रिटिक 309
लगांव 309
विवरणों 309
५८ 309
५९ 309
IS@@ 308
River 308
ंब 308
गढ@@ 308
गरेट 308
छिपे 308
जाल@@ 308
जीनोम 308
टीका@@ 308
देशांतर 308
पांचवां 308
पितामह 308
पैदावार 308
फिलाडेल 308
बदली 308
बेली 308
बोत 308
मालाबार 308
मूक 308
रागी 308
लिच 308
विनायक 308
विफ 308
विभव 308
विलायक 308
वृंदावन 308
सीबीआई 308
सेकेंड 308
आगंतुक 307
किंव@@ 307
चुप 307
चेर 307
छंदों 307
डेम 307
देहान 307
नालंदा 307
नुकी@@ 307
पेनि@@ 307
पेशियों 307
फसलें 307
भलाई 307
राड 307
रुत@@ 307
रोमो@@ 307
लॉजिक 307
लोवाकिया 307
शशि 307
ॉस 307
system 306
अनुकू@@ 306
अभिजात 306
अवॉर 306
इकाइयाँ 306
एलेन 306
ओरि@@ 306
कारगिल 306
कोपी 306
कोह@@ 306
खार 306
खोपड 306
गायों 306
गीत@@ 306
नीतिशास 306
पीली 306
बाथ 306
बेने@@ 306
बैरी 306
मताधिकार 306
मिकी 306
यूके@@ 306
रसायनों 306
रिनि@@ 306
लॉक@@ 306
वशक 306
वेनिस 306
षारीय 306
सौरी 306
हिए 306
७४ 306
९६ 306
1894 305
α 305
अपरा@@ 305
अरि@@ 305
अवगत 305
आतंरिक 305
ककर 305
कटॉप 305
कसंगत 305
किंस 305
कुप 305
चारे 305
जादूगर 305
टलर 305
डकै@@ 305
बिनी 305
मारना 305
रतिनिधि@@ 305
रामर 305
रावी 305
रॅ@@ 305
रोगा@@ 305
लाश 305
लीबिया 305
विट@@ 305
वेंशन 305
सबका 305
सरीसृ@@ 305
सागरों 305
हटन 305
DC 304
अंडमान 304
अनूठी 304
अमृतपुर 304
आईआईटी 304
इनाम 304
कबू@@ 304
काटा 304
किनी 304
कोकेन 304
कोले@@ 304
खींचा 304
खेर 304
गुयाना 304
टेलीग 304
तनधारियों 304
दरवाज 304
दाश 304
दुआ 304
दुरी 304
देह@@ 304
दोहा 304
नकदी 304
नती@@ 304
पच@@ 304
पाशा 304
फोल 304
बसंत 304
बारबाडोस 304
महीन 304
मारु@@ 304
मैटिक 304
रलय 304
रूपान 304
वियतनामी 304
सुनते 304
सेंटी@@ 304
ोली 304
१९५९ 304
आईएन@@ 303
आदम 303
आव 303
ऑल@@ 303
कनी 303
कहलगाँव 303
कुरु 303
कोलंबो 303
घुल@@ 303
चेयर 303
जया 303
जागृत 303
तरोत 303
दूक 303
दोहरा 303
धैर 303
नशीली 303
नाट@@ 303
नीहारि@@ 303
बरसा@@ 303
बिखरे 303
मिथुन 303
मिलीमीटर 303
मॉरीशस 303
मोरी 303
यशाला 303
रच 303
रमांक 303
रसि@@ 303
रारूपों 303
रेडिंग 303
रॉप 303
रोब 303
सीपी 303
सुपरहीरो 303
िलों 303
१९४५ 303
१९५५ 303
५७ 303
८१ 303
८३ 303
उभरी 302
एंडी 302
एए 302
कले 302
कॉपीराइट 302
गुरुवार 302
गैंग 302
चमकदार 302
चिंता@@ 302
जाँ@@ 302
डाई@@ 302
डिजाइ@@ 302
तबाह 302
दरार 302
नवीनीकरण 302
फलत 302
फस 302
भरकर 302
यरिंग 302
याही 302
लंबित 302
लक@@ 302
लाइसे@@ 302
सीई 302
हेन@@ 302
६७ 302
1888 301
अनजान 301
इयान 301
उलट 301
एंटो@@ 301
खरीदी 301
छिपा 301
जलन 301
जीभ 301
टैन 301
टोज 301
डप 301
डब@@ 301
तिरुपति 301
थेटिक 301
नफरत 301
पराशर 301
परोक 301
पादकों 301
बंदरगाहों 301
बीटी 301
युनिवर 301
रशासकीय 301
रायोजक 301
लिहाज 301
लेषणात 301
लोकमान 301
वुड@@ 301
शूद 301
शेयरधारकों 301
संपी@@ 301
right 300
ंडेड 300
इंटेलि@@ 300
इले@@ 300
कालाढूगी 300
केम 300
कोरम 300
खालसा 300
जरुरी 300
जामिन 300
जुलते 300
जोली 300
बीएम@@ 300
भूस 300
मचर 300
मानदंडों 300
मोट@@ 300
सुद 300
हाथ@@ 300
ौरी 300
८०० 300
ব@@ 300
00PM 299
47@@ 299
AC 299
ج@@ 299
अंसारी 299
अपडेट 299
आईसी 299
उनमे 299
कान@@ 299
थौ@@ 299
दिश 299
निगमों 299
निबन 299
पाई@@ 299
पापों 299
पेशा 299
बंधी 299
बगदाद 299
रबंध@@ 299
राथ@@ 299
रानों 299
रीनिंग 299
रुझान 299
रेखाएँ 299
लेमिंग 299
वांछनीय 299
विथ 299
विव@@ 299
वेबसाइटों 299
शहा@@ 299
शौचा@@ 299
संपीड 299
सपाट 299
सिपाहियों 299
सीटी 299
सूरती 299
13वीं 298
230 298
ंपल 298
अमरावती 298
उलूम 298
कथाकार 298
कदाचित 298
कलेट 298
कशास 298
काबू 298
केंट 298
खोजी 298
खोने 298
गुरा@@ 298
चिश 298
छुआ@@ 298
जिट 298
पाणि@@ 298
पेटाइटिस 298
फिकेशन 298
बेहोश 298
भैं@@ 298
माननीय 298
माही 298
मुट 298
यूह 298
रतन@@ 298
रायश 298
रैफिक 298
रोबो@@ 298
लफ 298
लेटों 298
वाहों 298
संकेतक 298
1882 297
re@@ 297
ـ@@ 297
अतुल 297
अनुवा@@ 297
अपमानजनक 297
आधुनि@@ 297
उगाया 297
उपनिवेशवाद 297
एरि@@ 297
कों@@ 297
खजूर 297
खला 297
चिकन 297
जात@@ 297
डां@@ 297
डिली@@ 297
णकालिक 297
धांत@@ 297
नंदिनी 297
नरों 297
नाती 297
पिताजी 297
फिज 297
बंधु@@ 297
बैठते 297
मुआव@@ 297
मुनियों 297
याणी 297
रतियोगियों 297
राघव 297
राजपुर 297
रिटि@@ 297
विभू@@ 297
संवेग 297
हथे@@ 297
६२ 297
७६ 297
14वीं 296
WWF 296
ab@@ 296
अनिर 296
आमेर 296
इंजीनियरों 296
एनी 296
कदार 296
किरणें 296
कोण@@ 296
खजाने 296
गगन@@ 296
गुदा 296
गैरी 296
गोश 296
चबू@@ 296
चिंत@@ 296
चेम 296
जिने@@ 296
डियोज 296
धरा@@ 296
नेताजी 296
नौसैनिक 296
पुनः@@ 296
फँ@@ 296
बिलिटी 296
माओ@@ 296
रतिबिंब 296
रयोगशालाओं 296
लोचन 296
वरकर 296
विशेषत 296
सबी 296
सहभागिता 296
साइंसेज 296
सीआर@@ 296
सुधा@@ 296
सुपरमैन 296
सुवर 296
सेवारत 296
सोचते 296
ारिका 296
िश 296
१९५२ 296
36@@ 295
उसमे 295
एफबीआई 295
एशेज 295
कमिश 295
कीमती 295
गोदाम 295
चिकनी 295
जूनागढ 295
झटके 295
ढूंढ 295
दीप@@ 295
नंदी 295
नसन 295
निर@@ 295
पॉन 295
फाइने@@ 295
बाउल 295
यूलर 295
रतिरोधक 295
राच 295
रेडियोधर 295
रेलर 295
विचरण 295
शकर 295
शैल@@ 295
सावन 295
38@@ 294
Ch@@ 294
MS 294
NA 294
आइ 294
आटा 294
औचित 294
कॅरियर 294
केने@@ 294
जमशेदपुर 294
जोरदार 294
झार@@ 294
डायोड 294
तट@@ 294
थें 294
दन@@ 294
धां@@ 294
नेय 294
पकवान 294
परिधान 294
फन 294
फाँसी 294
फायदे 294
बाय 294
मवाद 294
महंगे 294
राजनय 294
रिवाजों 294
रेजी@@ 294
लहरी 294
लाओ 294
लिपुत 294
लुज 294
वैंकूवर 294
सपोर 294
हैलो@@ 294
१८वीं 294
१९४२ 294
१९५४ 294
wikitext 293
अंतरिम 293
इंडो 293
इंसु@@ 293
ओह@@ 293
कुर@@ 293
कैट 293
कोज 293
गाल 293
जनसँख 293
जैकी 293
ञाता 293
टबॉल 293
तंबाकू 293
तोता 293
दनी 293
दशा@@ 293
पिड 293
बहराइच 293
बहुवचन 293
यिन 293
रणाम 293
राइमरी 293
रीप 293
शमन 293
शिं@@ 293
संकुचित 293
सिड 293
५,@@ 293
can 292
अभिगम 292
आशु@@ 292
इकलौ@@ 292
एएम@@ 292
एथ@@ 292
किशन@@ 292
गंगाधर 292
घनी 292
जलि 292
टोप 292
ढाँ@@ 292
तावों 292
तौल 292
थुर 292
नाए 292
नायडू 292
नियमन 292
नेई 292
परोसा 292
बिच 292
बिताने 292
बीसीसीआई 292
मेडि@@ 292
योगा@@ 292
रूपा@@ 292
रेशे 292
लॉजिस 292
हीर 292
1886 291
कहलाने 291
कामकाज 291
खले 291
गायकों 291
जेज 291
जॉब 291
टप 291
टीपू 291
टॉमी 291
टोबै@@ 291
डिम 291
दाऊ@@ 291
पुल@@ 291
बहुल 291
बाघों 291
मेघ 291
यास@@ 291
र- 291
रूपा 291
लोको@@ 291
वोर 291
सई 291
सोमनाथ 291
हु 291
अमूल 290
आईआर@@ 290
आतंकी 290
इकाइयां 290
ईं@@ 290
एनिमेशन 290
एलर 290
ऑडिशन 290
कामया@@ 290
खाकर 290
गास 290
गोलियों 290
चोटों 290
जिका 290
जुआ 290
जुडी 290
दजी 290
धिकरण 290
नीपुर 290
पें 290
फादर 290
मधुबनी 290
मॉनि@@ 290
यूरॉन 290
रमाणपत 290
रमुखों 290
राशियों 290
रूल 290
लाओस 290
विविध@@ 290
शुरु@@ 290
समझकर 290
सोलोमन 290
हीलियम 290
होनेवाली 290
ISO 289
असहयोग 289
आवं@@ 289
खजुराहो 289
गोविंद@@ 289
चिर@@ 289
छक 289
छर 289
डबर 289
डागास 289
तपेदिक 289
तीयक 289
तूनख 289
पञ 289
परहे@@ 289
परिचा@@ 289
बाराबंकी 289
बेलारू@@ 289
मुहर 289
रेखांकित 289
लाबाद 289
षजनक 289
संदेशों 289
सुमित 289
ूड 289
An@@ 288
अनेकानेक 288
इलि@@ 288
उठी 288
केज 288
गलियों 288
चेयरमैन 288
जागरूक 288
जेनि@@ 288
डोनेशिया 288
तूफ 288
तृ 288
दयालु 288
दशाओं 288
बीवी 288
बैठा@@ 288
मतानुसार 288
मॉरिसन 288
रतिमान 288
वांचल 288
संभावनाओं 288
संशो@@ 288
साधु@@ 288
साल@@ 288
७८ 288
ac@@ 287
en@@ 287
ंदु 287
आयकर 287
ईमानदार 287
कमरों 287
कील 287
कुलों 287
छतर@@ 287
जियो 287
टकों 287
डोन 287
तशिल 287
नारी@@ 287
बतलाया 287
बलि@@ 287
बुं@@ 287
बोध@@ 287
मनोरम 287
यूथ 287
रणवीर 287
रतल 287
रायड 287
रेब 287
विदित 287
शॉप 287
सनल 287
होज 287
७,@@ 287
1892 286
अवै@@ 286
उठने 286
कियाँ 286
कैने@@ 286
तलहटी 286
तलों 286
दाहिनी 286
नीली 286
फेडरल 286
बायर 286
बिज@@ 286
बेयर 286
बोलता 286
महादेवी 286
मुकु@@ 286
रणो@@ 286
रनगर 286
रवृति 286
रादेशिक 286
रेनें 286
रेमियों 286
रोधक 286
रोनिक 286
लेंटाइन 286
वंशीय 286
वृष 286
सचमुच 286
साहसी 286
सीरियल 286
सुगम 286
सेले@@ 286
२०वीं 286
७७ 286
\ 285
अंधेरे 285
अमा@@ 285
आण 285
कलिय@@ 285
कली@@ 285
कोहॉल 285
चूहे 285
जहांगीर 285
तालाप 285
थाल 285
निके@@ 285
बलुआ 285
बहादुरी 285
बिर 285
मरियम 285
मिशिगन 285
रवाड 285
राजमहल 285
रुटियों 285
लारा 285
लैटिनम 285
लौटते 285
विप@@ 285
सुज 285
सूरी@@ 285
ंगि@@ 284
अधिगम 284
ईथेन 284
कैच 284
कोरियोग 284
चीस 284
छों 284
टनों 284
टमा@@ 284
डायम@@ 284
तुतियों 284
दिख 284
देय 284
पियानो 284
पेशेवरों 284
बारहवीं 284
बीसी@@ 284
भगवन 284
मतदाताओं 284
मरा 284
यवन 284
यवा@@ 284
यूरिक 284
रबंधकों 284
रमणीय 284
रामीणों 284
लादि@@ 284
वारी@@ 284
शाकम 284
शिवि@@ 284
समालोचना 284
सेने@@ 284
सोमा@@ 284
हारिक 284
हिमनद 284
हैप@@ 284
ाब 284
102 283
1893 283
4,000 283
अतिक 283
ईगल 283
कंच@@ 283
कैदी 283
कॉरपोरेशन 283
चारा 283
चौबीस 283
जाटों 283
दारुल 283
धिमत 283
न- 283
पतिस 283
बला@@ 283
बाजरा 283
याता 283
रची 283
राठ@@ 283
रिज@@ 283
लम@@ 283
७३ 283
९१ 283
अंकु@@ 282
अनुग 282
अमावस 282
कालों 282
जलो@@ 282
तफ 282
थाली 282
दुत 282
नौकर 282
पहुँचकर 282
पैरालि@@ 282
बाँस 282
भवतः 282
मेक@@ 282
मेरि@@ 282
रखे@@ 282
रतिफल 282
लपे@@ 282
लिंकन 282
वई 282
शिशु@@ 282
शोभित 282
संकोच 282
संवेदना 282
सारा@@ 282
सूती 282
हौला 282
.सी.@@ 281
et 281
ँगी 281
अदिति 281
अहि@@ 281
आईडी 281
आटे 281
केमिकल 281
कैनेडी 281
गांगुली 281
घटन 281
चाइल 281
जताई 281
जबरन 281
तीपुर 281
थियाँ 281
नाच 281
फाउ@@ 281
बंदू@@ 281
मुझसे 281
यरों 281
युग@@ 281
युन 281
रेंक@@ 281
लिड 281
विदेशियों 281
संविदा 281
ি@@ 281
21@@ 280
In@@ 280
आनिया 280
टांग 280
ढलान 280
तिपीठ 280
निल 280
नेटिक 280
मरु@@ 280
राखी 280
रादुर 280
रेसल@@ 280
रोता 280
रोली 280
लापता 280
लेगी 280
लोव 280
वसी@@ 280
विंस 280
शि 280
सवों 280
सीमान 280
८७ 280
750 279
their 279
U.S. 278
er@@ 278
रताप@@ 278
18@@ 277
रावती 277
1.2 276
100@@ 276
अनंत@@ 276
जोखि@@ 276
BC 275
^ 275
गेंद@@ 275
मुकद@@ 275
me 274
time 274
ृंगार 274
1884 273
le@@ 273
two 273
राची@@ 273
शही@@ 273
हारि@@ 273
05@@ 272
1200 272
Al@@ 272
ad 272
आयर@@ 272
एंटर@@ 272
छंद@@ 272
दावन 272
सेमी@@ 272
ka 271
ش@@ 271
it@@ 270
गू 270
समझौ@@ 270
30,000 269
जीविका 269
पहुँ@@ 269
ॠ@@ 269
33@@ 268
90@@ 268
कैथ@@ 268
तिकता 268
तिग 268
रखा@@ 268
लीम 268
सीआई 268
ha 267
hi@@ 267
op@@ 267
450 266
भया@@ 266
साधारण@@ 266
de@@ 265
its 265
~ 265
जाक 265
तीत 265
दवा@@ 265
दस@@ 265
वेंचर 265
37@@ 264
ite 264
km 264
सरी@@ 264
Institute 263
ऎ@@ 263
लगि@@ 263
संचा@@ 263
106 262
घोटा@@ 262
1850 261
1881 261
el@@ 261
दायी 261
14.@@ 260
م 260
अटलां@@ 260
ओसी 260
कमी@@ 260
10.@@ 259
4000 259
48@@ 258
were 258
ه@@ 258
नशीलता 258
लोकन 258
1867 257
more 257
а@@ 257
इसे@@ 257
एफए 257
पिया@@ 257
बटा@@ 257
भेद@@ 257
0.5 256
103 256
मिठा@@ 256
27.@@ 255
कोंक@@ 255
राजनी@@ 255
had 254
डमी 254
് 254
ang@@ 253
डेन@@ 253
हासन 253
1872 252
1876 252
CA@@ 252
SE@@ 252
all 252
ro@@ 252
तथा@@ 252
पीएच@@ 252
.-@@ 251
first 251
number 251
टिनम 251
वायर@@ 251
115 250
but 250
बाइन 250
लखी@@ 250
वासु@@ 250
,000 249
1883 249
टोली 249
190@@ 248
Sam@@ 248
hi 248
अंधे@@ 248
निपट@@ 248
सवी 248
ha@@ 247
रांति@@ 247
विधियां 247
ed 246
et@@ 246
अमृत@@ 246
CD 245
Google 245
MTV 245
अपो@@ 245
गानिस 245
नतम 245
बीमार@@ 245
यारो@@ 245
योजक 245
→ 245
This 244
World 244
ंगरी 244
हमला@@ 244
1700 243
1848 243
1878 243
IC 243
other 243
ंचाई 243
गोला@@ 243
बोधित 243
109 242
11.@@ 242
As 242
अमेरि@@ 242
been 241
संक@@ 241
साइं@@ 241
AN 240
It 240
कदा@@ 240
तिहासिक 240
ম@@ 240
es@@ 239
1871 238
ي 238
कमे@@ 238
धारणाओं 238
योगकर 238
16.@@ 237
32@@ 237
GE 237
sh@@ 237
ف@@ 237
खली@@ 237
1865 236
ऋषि@@ 236
जेब 236
दैर 236
KM 235
le 235
औ 235
जने 235
0,@@ 234
21.@@ 234
CD@@ 234
सानों 234
€ 234
ari 233
ma 233
उपनिवेश@@ 233
गापुर 233
तालि@@ 233
220 232
University 232
ان 232
1868 231
22.@@ 231
6,000 231
International 231
PC 231
than 231
ur@@ 231
ق@@ 231
ंकन 231
यण 231
विरो@@ 231
षदों 231
हाबाद 231
1861 230
HD 230
ate 230
html 230
टाबेस 230
डेंसी 230
107 229
1875 229
56@@ 229
AD@@ 229
कॉर@@ 229
रतिबि@@ 229
रिगे@@ 229
1873 228
आतं@@ 228
उजा@@ 228
जादू@@ 228
रंगा@@ 228
ैन 228
००@@ 228
1877 227
अत@@ 227
वाला@@ 227
सवीं 227
ृंख@@ 227
78@@ 226
ae 226
इतिहास@@ 226
साब 226
్ 226
Ar@@ 225
0.1 224
ph@@ 224
नाश@@ 224
.in 223
.jpg 223
NS@@ 223
ay@@ 223
im@@ 223
नदार 223
समालो@@ 223
DNA 222
FA 222
IC@@ 222
जीपुर 222
ক@@ 222
170 221
मह 221
लूम 221
1.3 220
1.6 220
15.@@ 220
1879 220
CE 220
law 220
man 220
टतम 220
परेशा@@ 220
बेरिया 220
भारती@@ 220
रृंख@@ 220
av@@ 219
ه 219
कैलि@@ 219
नीयता 219
್ 219
1856 218
FDA 218
poem 218
who 218
ंटल 218
एके@@ 218
दफ@@ 218
ল@@ 218
1600 217
1859 217
46@@ 217
LS 217
ST@@ 217
ic@@ 217
used 217
1830 216
19.@@ 216
DA 216
षाण 216
हानि@@ 216
128 215
1840 215
4.5 215
CI@@ 215
ani 215
w 215
चाइ@@ 215
युगीन 215
रचु@@ 215
सोसिए@@ 215
1.1 214
12.@@ 214
13.@@ 214
NH@@ 214
WCW 214
ology 214
α@@ 214
तीश 214
रावली 214
सराह@@ 214
सहभा@@ 214
َ@@ 213
गैर@@ 213
दोलनों 213
रिसन 213
114 212
1866 212
2500 212
49@@ 212
NT@@ 212
Par@@ 212
जूरी 212
डनी 212
यिका 212
हदी@@ 212
.NET 211
1,0@@ 211
VI 211
अधिका@@ 211
ऑडि@@ 211
खरे 211
घु 211
RE@@ 210
ri@@ 210
wik@@ 210
बिल@@ 210
राली 210
सून 210
1863 209
20.@@ 209
RFID 209
आउ@@ 209
डोस 209
मितीय 209
18.@@ 208
7.5 208
RS 208
अमि@@ 208
धना 208
भुग@@ 208
वाओं 208
शाखा@@ 208
संहि@@ 208
AI@@ 207
चमक@@ 207
धानी 207
फतेह@@ 207
बम@@ 207
वरु@@ 207
া 207
112 206
126 206
Man@@ 206
ND@@ 206
er 206
px 206
west 206
उपनिवे@@ 206
जरू@@ 206
बैंग@@ 206
मजबू@@ 206
380 205
40,000 205
गोवि@@ 205
घृ@@ 205
डिश 205
बलू@@ 205
सफे@@ 205
ISBN 204
Th@@ 204
da 204
पमेंट 204
हाज 204
हिंद@@ 204
ন 204
-1 203
IP 203
ot@@ 203
जीराव 203
जुट 203
धरम@@ 203
116 202
1818 202
25.@@ 202
IP@@ 202
गणक 202
दरवा@@ 202
दून 202
ऱ@@ 202
॒ 202
1.8 201
1854 201
1874 201
ala 201
east 201
ium 201
li@@ 201
गंबर 201
नलों 201
नशी@@ 201
रेर@@ 201
सुफ 201
AL@@ 200
ata 200
function 200
11,@@ 199
190 199
BS 199
File 199
UN@@ 199
ec@@ 199
no 199
value 199
war 199
ंचर 199
गणि@@ 199
पचा@@ 199
1.4 198
111 198
Bar@@ 198
HTML 198
SI 198
ath@@ 198
type 198
ul@@ 198
z@@ 198
डायो@@ 198
भीत 198
12,@@ 197
19@@ 197
39@@ 197
BBC 197
CO2 197
em@@ 197
ti@@ 197
परी@@ 197
1,4@@ 196
1869 196
id@@ 196
बोडिया 196
रखाव 196
@ 195
AD 195
Sh@@ 195
haplogroup 195
such 195
ا 195
इमार@@ 195
दाज 195
धिया 195
वांशिक 195
विशे@@ 195
240 194
57@@ 194
New 194
ara 194
na 194
om@@ 194
parallel 194
ə@@ 194
घरेल@@ 194
जूद 194
फैस@@ 194
साझे@@ 194
ारित 194
1815 193
2.4 193
23.@@ 193
CA 193
ke 193
q@@ 193
पात@@ 193
माम 193
लाब 193
शियर 193
Cl@@ 192
PA 192
id 192
ol@@ 192
и@@ 192
सलाह@@ 192
हनु@@ 192
44@@ 191
OH 191
US@@ 191
glas 191
no@@ 191
they 191
भाषित 191
रेख@@ 191
शोषित 191
सीई@@ 191
ু@@ 191
IT 190
ach@@ 190
रिको 190
122 189
WHO 189
णकटि@@ 189
होश 189
র 189
1864 188
500,000 188
ii 188
pH 188
st@@ 188
е@@ 188
षम@@ 188
144 187
English 187
SD@@ 187
energy 187
hai 187
up 187
उपयोगि@@ 187
जीनो@@ 187
17.@@ 186
1820 186
He 186
Kal@@ 186
O2 186
अधिकां@@ 186
कठि@@ 186
लीवुड 186
शिका@@ 186
β 185
कसा@@ 185
रमि@@ 185
ॄ@@ 185
1,6@@ 184
117 184
138 184
14,@@ 184
6000 184
650 184
ل 184
इश@@ 184
काब@@ 184
नेशिया 184
मलया@@ 184
1855 183
ik@@ 183
ki 183
वारा@@ 183
121 182
SC@@ 182
between 182
se 182
­ 182
خ@@ 182
ک@@ 182
जिस@@ 182
पता@@ 182
118 181
123 181
124 181
point 181
1- 180
1803 180
il@@ 180
into 180
अंडर@@ 180
घूम@@ 180
रशाह 180
113 179
25,000 179
CE@@ 179
ri 179
theory 179
ठार@@ 179
नीतिक 179
बुनिया@@ 179
.org 178
1.0 178
210 178
26.@@ 178
320 178
550 178
jpg 178
os@@ 178
आधि@@ 178
145 177
TS 177
os 177
कठिनाइ@@ 177
ॆ 177
.एस@@ 176
330 176
NO@@ 176
par@@ 176
use 176
भां@@ 176
हियों 176
0,000 175
1400 175
Cl 175
SP@@ 175
language 175
si@@ 175
ईमान@@ 175
औप@@ 175
जुरा@@ 175
झाने 175
पंजा@@ 175
132 174
15,@@ 174
2.1 174
2.3 174
66@@ 174
Per@@ 174
S.@@ 174
line 174
over 174
ز@@ 174
ठाकु@@ 174
तका@@ 174
नख 174
बामा 174
भाल 174
मुग@@ 174
16,@@ 173
1851 173
SQL 173
sub@@ 173
æ@@ 173
μ@@ 173
ে@@ 173
IQ 172
ed@@ 172
ino 172
ol 172
ā@@ 172
ː@@ 172
किरण@@ 172
000,000 171
13,@@ 171
1845 171
AB@@ 171
John 171
left 171
ɪ@@ 171
तावे@@ 171
संभ@@ 171
1835 170
1853 170
43@@ 170
AM@@ 170
AP@@ 170
GB 170
My@@ 170
power 170
टेनमेंट 170
फिली@@ 170
बरे 170
लखन@@ 170
1,8@@ 169
Am@@ 169
COVID 169
H.@@ 169
Kh@@ 169
languages 169
og@@ 169
शप 169
1,500 168
1,5@@ 168
2.2 168
` 168
ous 168
कानू@@ 168
सचि@@ 168
2023 167
CP 167
most 167
घर@@ 167
टिने@@ 167
शंका 167
सूची@@ 167
हैद@@ 167
63@@ 166
Div@@ 166
a.org 166
where 166
फिन@@ 166
लिमि@@ 166
24.@@ 165
CT 165
एजेंस@@ 165
एनए 165
दीव 165
दुका@@ 165
1819 164
AT@@ 164
у@@ 164
मिथि@@ 164
मैने@@ 164
रून 164
लगाड 164
স@@ 164
12,000 163
1817 163
2- 163
5.5 163
850 163
IT@@ 163
Mar@@ 163
Na@@ 163
SE 163
if 163
oc@@ 163
only 163
will 163
आईबी@@ 163
आका@@ 163
बिला@@ 163
शः 163
षार@@ 163
सतपु@@ 163
AN@@ 162
BE 162
MA 162
Mah@@ 162
Re@@ 162
SC 162
ST 162
USB 162
ك@@ 162
BMW 161
United 161
agar 161
ak 161
colspan 161
ep@@ 161
ing@@ 161
ob@@ 161
कॉले@@ 161
ताराम@@ 161
तिक@@ 161
निकों 161
मीमां@@ 161
शाका@@ 161
शुभार@@ 161
ौद 161
॑ 161
দ@@ 161
1843 160
ERP 160
Open 160
SA 160
ah@@ 160
so 160
किता@@ 160
पदी 160
बिंब 160
141 159
15,000 159
280 159
CL@@ 159
GP@@ 159
MSN 159
SP 159
a.@@ 159
ant 159
ρ@@ 159
राजे@@ 159
रासं@@ 159
हेब 159
000@@ 158
131 158
MP@@ 158
On 158
state 158
ו@@ 158
गियों 158
गोलीय 158
59@@ 157
8,000 157
CO 157
Con@@ 157
HWH 157
ator 157
wa 157
λ@@ 157
जबा@@ 157
जरु@@ 157
दीना 157
फेड@@ 157
मीद@@ 157
योजित 157
यौगि@@ 157
165 156
ation@@ 156
out 156
π 156
с@@ 156
फिल@@ 156
भरते 156
हैया 156
ி@@ 156
133 155
201 155
LC 155
ali 155
apur 155
may 155
́ 155
थेरे@@ 155
मुकाब@@ 155
1847 154
6.5 154
A5 154
current 154
धरी 154
लूस 154
1.7 153
175 153
76@@ 153
AR@@ 153
SI@@ 153
USA 153
har@@ 153
ip@@ 153
when 153
ँच 153
कमजो@@ 153
गांठ 153
जटिल@@ 153
टेकर 153
मुला@@ 153
ா@@ 153
1862 152
200,000 152
3.1 152
GDP 152
IS 152
Sar@@ 152
Un@@ 152
her 152
some 152
ন@@ 152
7,000 151
NT 151
XX@@ 151
and@@ 151
series 151
world 151
कठपु@@ 151
पेरा 151
ऽ 151
ूद 151
1844 150
270 150
29.@@ 150
ada 150
aj@@ 150
amp@@ 150
о@@ 150
तालु@@ 150
तीस@@ 150
नाभि@@ 150
राजी@@ 150
1839 149
AA 149
eb@@ 149
ian 149
man@@ 149
ta 149
us@@ 149
י@@ 149
ढू@@ 149
बीआई 149
लोहा@@ 149
142 148
CEO 148
con@@ 148
ula 148
um@@ 148
water 148
р@@ 148
ص@@ 148
दोन 148
नाटक@@ 148
पिशा@@ 148
मसी@@ 148
मोली 148
रधान@@ 148
सच@@ 148
148 147
17,@@ 147
IM@@ 147
NET 147
NZ@@ 147
el 147
τ@@ 147
शारी@@ 147
65@@ 146
8.5 146
8000 146
AC@@ 146
able 146
e.@@ 146
ng 146
style 146
vi@@ 146
ت 146
حم@@ 146
इतिहा@@ 146
जाघर 146
় 146
】 146
136 145
1849 145
68@@ 145
Cs 145
Hindi 145
body 145
force 145
up@@ 145
أ@@ 145
जाये@@ 145
लाफ 145
विराज@@ 145
0.2 144
134 144
Al 144
Di@@ 144
En@@ 144
SAP 144
St@@ 144
aceae 144
car@@ 144
form 144
उपनि@@ 144
मथु@@ 144
राती 144
सोल@@ 144
【 144
1789 143
1838 143
54@@ 143
Kan@@ 143
M.@@ 143
RA 143
South 143
des 143
पाठी 143
रही@@ 143
हराई 143
हिमन@@ 143
ত@@ 143
க@@ 143
137 142
3.2 142
Bal@@ 142
EC 142
Research 142
TA 142
after 142
ans 142
ch 142
him 142
ina 142
н@@ 142
भासी 142
1100 141
146 141
152 141
1837 141
928 141
American 141
System 141
data 141
garh 141
many 141
re 141
ओँ 141
खोई 141
दाय 141
ऩ@@ 141
शनि@@ 141
119 140
127 140
1832 140
1842 140
185 140
3.0 140
58@@ 140
AOL 140
IR@@ 140
ov@@ 140
we 140
а 140
पुरुष@@ 140
भुजा@@ 140
रागढ 140
ా@@ 140
06@@ 139
1300 139
154 139
155 139
199@@ 139
59.5 139
AS 139
FS 139
ah 139
od@@ 139
ore 139
per@@ 139
sp@@ 139
इंत@@ 139
रेली 139
लसा 139
153 138
300@@ 138
CC@@ 138
RNA 138
UEFA 138
itis 138
к@@ 138
गरी@@ 138
गाहों 138
तानुसार 138
तें@@ 138
नीपत 138
1,7@@ 137
166 137
1770 137
1801 137
1805 137
3.3 137
AI 137
IF@@ 137
li 137
same 137
´ 137
в@@ 137
д@@ 137
ان@@ 137
खुला@@ 137
तिकी 137
हिष 137
129 136
260 136
264 136
For 136
PO@@ 136
do 136
end 136
set 136
एयरलाइ@@ 136
मानजनक 136
मूली 136
मेर@@ 136
रियास@@ 136
वाज@@ 136
157 135
HSV 135
NH 135
RA@@ 135
V6 135
YouTube 135
bar@@ 135
ity 135
kh@@ 135
psychology 135
title 135
इंजी@@ 135
कंदर 135
कॉमे@@ 135
जमेंट 135
टिश 135
पोलियन 135
यादा@@ 135
रेसी@@ 135
ர@@ 135
225 134
340 134
888 134
Act 134
CP@@ 134
First 134
GSM 134
Oracle 134
RFC 134
Si@@ 134
mass 134
तुलसी@@ 134
रतिनि@@ 134
सामू@@ 134
सैंण 134
1,3@@ 133
1824 133
3D 133
IA 133
about 133
ang 133
co@@ 133
mi 133
mm 133
आलो@@ 133
देशां@@ 133
सिफ@@ 133
য 133
--------@@ 132
1846 132
500@@ 132
A.@@ 132
ABC 132
P.@@ 132
м@@ 132
ंने 132
चेता@@ 132
ো@@ 132
143 131
149 131
28.@@ 131
400@@ 131
Bot 131
C2@@ 131
ai@@ 131
non 131
नुक@@ 131
रूनी 131
विजे@@ 131
॓ 131
1,9@@ 130
1707 130
18,@@ 130
AG 130
AP 130
Group 130
IATA 130
IBM 130
ICAO 130
age 130
any 130
der 130
ig@@ 130
ار@@ 130
देशिक 130
001 129
151 129
1799 129
1833 129
1841 129
202 129
B.@@ 129
Kar@@ 129
SS 129
ea 129
ji 129
light 129
mart@@ 129
एथे@@ 129
ऑन@@ 129
जमशे@@ 129
टाइटिस 129
बंगा@@ 129
मैथि@@ 129
युगा@@ 129
182 128
ALL 128
ISDN 128
La 128
Lee 128
MC 128
MI@@ 128
color 128
field 128
oid 128
people 128
ν@@ 128
कैथो@@ 128
नोली 128
बायोटिक 128
भाँ@@ 128
हवाई@@ 128
156 127
1826 127
205 127
7000 127
EF@@ 127
based 127
uk@@ 127
इमाम@@ 127
ओल@@ 127
तगा@@ 127
वेध@@ 127
-2 126
158 126
235 126
67@@ 126
AB 126
MAS 126
ME@@ 126
Pro@@ 126
Rh@@ 126
ates 126
ipe@@ 126
through 126
अधिक@@ 126
आत@@ 126
कठो@@ 126
नशिप 126
159 125
1775 125
1806 125
1814 125
2.7 125
73.@@ 125
DNS 125
Mal@@ 125
ac 125
called 125
name@@ 125
s.@@ 125
three 125
30.@@ 124
86@@ 124
CC 124
DI@@ 124
DR 124
Ph@@ 124
Technology 124
ut@@ 124
well 124
и 124
केदार@@ 124
वजन@@ 124
De@@ 123
EMI 123
PS 123
XP 123
hy@@ 123
ir@@ 123
known 123
process 123
second 123
ting 123
º 123
و 123
मुसल@@ 123
978 122
Har@@ 122
Nag@@ 122
OR@@ 122
RO@@ 122
Sp@@ 122
th 122
there 122
ud@@ 122
would 122
सोलह@@ 122
163 121
1750 121
1852 121
370 121
4.2 121
Bh@@ 121
DL@@ 121
HLA 121
PL@@ 121
Ram@@ 121
ary 121
ating 121
ations 121
ers 121
per 121
ura 121
लुआ 121
139 120
1825 120
3.6 120
640 120
Ad@@ 120
LA 120
ated 120
ge@@ 120
gh@@ 120
डीवी@@ 120
भिषेक 120
माधो@@ 120
मुँ@@ 120
172 119
Ab@@ 119
Pakistan 119
Singh 119
UMTS 119
ab 119
sa 119
ī@@ 119
नात@@ 119
निरू@@ 119
′ 119
164 118
1793 118
2,500 118
211 118
3.4 118
79@@ 118
99@@ 118
F1 118
IB@@ 118
film 118
hal@@ 118
½ 118
डिजि@@ 118
लोना 118
1834 117
75@@ 117
77@@ 117
SAT 117
San 117
each 117
end@@ 117
σ@@ 117
ب 117
नुभूति 117
पसं@@ 117
सेक@@ 117
த@@ 117
1761 116
1836 116
3- 116
98@@ 116
An 116
CS@@ 116
Corporation 116
Gar@@ 116
MO@@ 116
MP 116
est@@ 116
ish@@ 116
बेदार 116
महमू@@ 116
ర@@ 116
192 115
LT@@ 115
Raj@@ 115
SW@@ 115
alism 115
ative 115
idae 115
iv@@ 115
ne 115
se@@ 115
width 115
कराचार 115
दिमा@@ 115
पटिया@@ 115
मौसम@@ 115
यहू@@ 115
် 115
1.9 114
147 114
1776 114
195 114
20,@@ 114
256 114
AV@@ 114
Pan@@ 114
RAM 114
als 114
ash@@ 114
bi@@ 114
das 114
dis@@ 114
like 114
ंडिया 114
डीडी@@ 114
भय@@ 114
আ@@ 114
----@@ 113
168 113
169 113
1783 113
1821 113
1831 113
60,000 113
BA 113
Qu@@ 113
Sc@@ 113
ant@@ 113
both 113
ca 113
distance 113
ial 113
new 113
ст@@ 113
एसोसिए@@ 113
गरि@@ 113
पनि@@ 113
बंधीय 113
প@@ 113
1792 112
1829 112
2.8 112
212 112
4- 112
9000 112
ID 112
MHz 112
RE 112
SM@@ 112
SR@@ 112
State 112
TC 112
UR@@ 112
abad 112
aon 112
during 112
ος 112
टके 112
दिति 112
बुध@@ 112
बें 112
लुओं 112
0.4 111
0.6 111
161 111
4.1 111
H2@@ 111
Inc. 111
LO@@ 111
TV@@ 111
air 111
ica 111
ran@@ 111
these 111
ε@@ 111
टैन@@ 111
0.3 110
167 110
1765 110
188 110
19,@@ 110
203 110
206 110
217 110
4.0 110
480 110
999 110
DE@@ 110
II@@ 110
Ro@@ 110
common 110
ong 110
osis 110
پ@@ 110
चयाप@@ 110
युवा@@ 110
0.7 109
1526 109
1772 109
3G 109
4.4 109
CBS 109
Car@@ 109
Ex@@ 109
Last 109
PN@@ 109
XI 109
ex@@ 109
ma@@ 109
qu@@ 109
su@@ 109
ר@@ 109
नीदर@@ 109
ारिज 109
● 109
1804 108
1827 108
1828 108
2.6 108
Apple 108
CDMA 108
Iglesia 108
Pal@@ 108
adi 108
ane 108
complex 108
ics 108
method 108
news 108
nm 108
then 108
ο@@ 108
गुंब@@ 108
मिकल 108
मुझ@@ 108
मोबा@@ 108
सोड 108
1773 107
1812 107
300,000 107
53@@ 107
CR@@ 107
DS 107
Ne@@ 107
Samsung 107
TE@@ 107
VO@@ 107
ene 107
include 107
ora 107
year 107
π@@ 107
σ 107
л@@ 107
150@@ 106
1816 106
1823 106
365 106
420 106
AIDS 106
Be@@ 106
CS 106
RT@@ 106
Temple 106
VII 106
att@@ 106
be@@ 106
electric 106
± 106
भरो@@ 106
सहम@@ 106
ு@@ 106
162 105
1764 105
1788 105
204 105
BR@@ 105
CB@@ 105
GA 105
Sony 105
States 105
circuit 105
code 105
थिये@@ 105
पेयी 105
रोमां@@ 105
रोमांच@@ 105
विटा@@ 105
सामु@@ 105
सिपल 105
हाटी 105
জ@@ 105
1780 104
1790 104
1798 104
250,000 104
College 104
Fe@@ 104
H2O 104
Khan 104
M. 104
NE@@ 104
One 104
STM 104
constant 104
del 104
ical 104
il 104
pl@@ 104
va 104
ہ 104
विदेश@@ 104
विधे@@ 104
হ@@ 104
ಾ@@ 104
1,200 103
1774 103
4.3 103
5.0 103
Category 103
aur 103
order 103
under 103
years 103
धिर 103
बूझकर 103
� 103
6.2 102
87@@ 102
AR 102
EM@@ 102
NSA 102
North 102
Po@@ 102
atic 102
gov@@ 102
ins 102
period 102
public@@ 102
south 102
ster 102
work 102
दाहि@@ 102
वीप@@ 102
संगठ@@ 102
हथिय@@ 102
ਾ@@ 102
116@@ 101
1757 101
1784 101
181 101
3.7 101
64@@ 101
75.@@ 101
9001 101
Av@@ 101
DM 101
FI@@ 101
KP 101
NTSC 101
ROM 101
di 101
high 101
north 101
numbers 101
ط@@ 101
कांक 101
पय 101
रमुख@@ 101
संकु@@ 101
￼ 101
38.@@ 100
Ak@@ 100
Ap@@ 100
Association 100
C3@@ 100
DR@@ 100
ICC 100
IX 100
Su@@ 100
area 100
ci@@ 100
goo@@ 100
ih@@ 100
int 100
kar@@ 100
pal@@ 100
pra@@ 100
wave 100
गोदा@@ 100
नामां@@ 100
लोरि@@ 100
ാ@@ 100
178 99
1795 99
2,8@@ 99
By 99
Central 99
PE@@ 99
Web 99
all@@ 99
using 99
о 99
चंडी@@ 99
दौसी 99
षै@@ 99
0.8 98
183 98
215 98
37.@@ 98
All 98
Co@@ 98
J. 98
Mas@@ 98
NI@@ 98
RI@@ 98
SS@@ 98
San@@ 98
Tar@@ 98
ati@@ 98
day 98
esh@@ 98
inter@@ 98
mon@@ 98
पिता@@ 98
192@@ 97
2,9@@ 97
22,@@ 97
C6@@ 97
Cal@@ 97
HE@@ 97
SO4 97
Society 97
ent@@ 97
ter@@ 97
θ 97
ι@@ 97
ईसाइ@@ 97
दूरों 97
मुज@@ 97
1556 96
177 96
1802 96
184 96
404 96
5.2 96
5.6 96
9,000 96
Co 96
E. 96
IO@@ 96
Inter@@ 96
MPEG 96
aya 96
em 96
unit 96
г@@ 96
तमिल@@ 96
सिनेमा@@ 96
1760 95
180@@ 95
3.8 95
74.@@ 95
80,000 95
DI 95
EP 95
I.@@ 95
PR 95
VL@@ 95
ati 95
back 95
change 95
du 95
heat 95
ir 95
list 95
minor 95
ni 95
ter 95
them 95
to@@ 95
tri@@ 95
é 95
पसी 95
रलाल 95
विकता 95
ம@@ 95
1822 94
193@@ 94
195@@ 94
221 94
4.6 94
6.0 94
BMI 94
ER@@ 94
Hu@@ 94
NA@@ 94
School 94
Siemens 94
T. 94
WA 94
asa 94
equation 94
oda 94
pressure 94
گ@@ 94
ہ@@ 94
ंदार 94
अंद@@ 94
अहमद@@ 94
जयगढ 94
धारण@@ 94
पहर 94
पिरा@@ 94
पैदा@@ 94
यापार@@ 94
ల@@ 94
ರ@@ 94
193 93
2,0@@ 93
25,@@ 93
310 93
3500 93
5.1 93
Ge@@ 93
MT@@ 93
Me@@ 93
Sal@@ 93
V8 93
ath 93
cell 93
du@@ 93
gle@@ 93
ht@@ 93
made 93
systems 93
γ 93
б@@ 93
खिला 93
गित 93
सैम@@ 93
हमे@@ 93
110@@ 92
171 92
176 92
1787 92
23,@@ 92
232 92
48.@@ 92
69@@ 92
Council 92
Development 92
EC@@ 92
Great 92
MV 92
Mo@@ 92
PET 92
R. 92
SL@@ 92
Social 92
VI@@ 92
anti@@ 92
ba 92
dh@@ 92
ies 92
ner 92
ons 92
« 92
н 92
थली@@ 92
मचार@@ 92
सऊ@@ 92
ौती 92
179 91
2,7@@ 91
245 91
275 91
325 91
5.4 91
CV 91
Com@@ 91
ET 91
EU 91
HT@@ 91
ML@@ 91
PT@@ 91
S. 91
William 91
ide 91
ist 91
po@@ 91
super@@ 91
ve 91
β@@ 91
अकाद@@ 91
२००@@ 91
720 90
ALS 90
Ban@@ 90
CI 90
Company 90
DB@@ 90
FIFA 90
MB 90
my 90
т@@ 90
ऋ 90
फस@@ 90
भुव@@ 90
मेह 90
साउंड@@ 90
1813 89
2.9 89
227 89
30,@@ 89
35.@@ 89
66.@@ 89
DM@@ 89
DP 89
acid 89
being 89
dar 89
district 89
eg@@ 89
ging 89
ho@@ 89
ish 89
less 89
tu@@ 89
κ@@ 89
п@@ 89
पुआ 89
मिंस 89
मेमो@@ 89
योगियों 89
सैण 89
ి@@ 89
1540 88
173 88
250@@ 88
AF 88
CM@@ 88
Cor@@ 88
General 88
Ig@@ 88
LE@@ 88
LP 88
Ma 88
SB 88
az@@ 88
en.@@ 88
era 88
iz@@ 88
life 88
mar@@ 88
ms 88
pe@@ 88
space 88
א@@ 88
जोशी@@ 88
बिनेट 88
बीका@@ 88
वरणों 88
ச@@ 88
ക@@ 88
1550 87
1763 87
1785 87
2,5@@ 87
28,@@ 87
39.@@ 87
88@@ 87
B. 87
BO@@ 87
Bi@@ 87
C. 87
GNU 87
PG 87
Rajasthan 87
Science 87
West 87
af@@ 87
development 87
group 87
ja 87
km2 87
mal@@ 87
ometer 87
oo@@ 87
product 87
un 87
ung@@ 87
ँकि 87
करीबन 87
दूता@@ 87
मॉड@@ 87
ী 87
ப@@ 87
1620 86
174 86
1807 86
1809 86
194 86
196@@ 86
226 86
26,@@ 86
265 86
5- 86
74@@ 86
99.@@ 86
AH 86
BD 86
GP 86
London 86
a.com 86
cc 86
company 86
ent 86
example 86
following 86
ganj 86
ge 86
gs@@ 86
indi@@ 86
pro@@ 86
जैसे@@ 86
फिला@@ 86
बाघ@@ 86
मुच 86
ऴ 86
शतः 86
ॊ 86
ા@@ 86
ར@@ 86
10000 85
1756 85
1810 85
208 85
400,000 85
CT@@ 85
Chinese 85
LLC 85
Mad@@ 85
Pattaya 85
SMS 85
Server 85
Ter@@ 85
class 85
cor@@ 85
ling 85
lo@@ 85
ok@@ 85
ola 85
ot 85
place 85
sc@@ 85
ua 85
ug@@ 85
é@@ 85
ِ@@ 85
खनि@@ 85
टरसन 85
मुता@@ 85
वाभा@@ 85
वारें 85
ਸ@@ 85
07@@ 84
1,2@@ 84
1782 84
199 84
239 84
290 84
42@@ 84
47.@@ 84
5.3 84
70,000 84
A. 84
BE@@ 84
CN@@ 84
ECW 84
History 84
Linux 84
SF 84
Sah@@ 84
Sub@@ 84
Year 84
effect 84
ella 84
gas 84
given 84
human 84
अनुया@@ 84
12.5 83
222 83
3.9 83
630 83
9.5 83
CF@@ 83
Longchamp 83
R.@@ 83
Union 83
ability 83
angle 83
ax 83
cy@@ 83
ens 83
land 83
magnetic 83
section 83
you 83
एजु@@ 83
मंडलीय 83
यावसा@@ 83
वैं@@ 83
शेषों 83
षणात 83
■ 83
0.9 82
1660 82
194@@ 82
530 82
Dynasty 82
East 82
GH 82
Is@@ 82
Life 82
N1 82
Sanctuary 82
Ser@@ 82
UTC 82
XML 82
ast@@ 82
book 82
free 82
han@@ 82
hind@@ 82
kg 82
ko 82
later 82
ly 82
phase 82
ram 82
small 82
ton 82
vi 82
γ@@ 82
শ@@ 82
124@@ 81
130@@ 81
1748 81
1791 81
1794 81
191 81
24,@@ 81
3,7@@ 81
305 81
59.@@ 81
6.1 81
7.4 81
950 81
Book 81
China 81
Dis@@ 81
FO@@ 81
HA 81
Se@@ 81
ank@@ 81
anti 81
aria 81
cells 81
ek@@ 81
ion 81
ization 81
near 81
our 81
part 81
si 81
sk@@ 81
surface 81
while 81
ɛ@@ 81
δ@@ 81
एनिमे@@ 81
औपनिवे@@ 81
দ 81
৷ 81
120@@ 80
1536 80
196 80
Air 80
Day 80
FM 80
Health 80
High 80
Law 80
Mac@@ 80
P. 80
SR 80
TP@@ 80
Ti@@ 80
base 80
city 80
han 80
iii 80
real 80
tag@@ 80
te 80
ā 80
й 80
ंतु@@ 80
आरं@@ 80
गरु@@ 80
घोष@@ 80
जमै@@ 80
दामो@@ 80
ਰ@@ 80
வ@@ 80
150,000 79
207 79
228 79
29,@@ 79
302 79
560 79
96@@ 79
API 79
Ag@@ 79
CL 79
CPU 79
Cl2 79
DT 79
James 79
King 79
Sa@@ 79
You 79
nagar 79
ne@@ 79
oh@@ 79
ota 79
pur@@ 79
sin@@ 79
uri 79
नामी@@ 79
पुनरा@@ 79
रामी@@ 79
सोश@@ 79
গ@@ 79
ര@@ 79
1605 78
1739 78
198@@ 78
214 78
238 78
301 78
303 78
7.2 78
72.@@ 78
Black 78
Chi@@ 78
DV@@ 78
Music 78
SD 78
Santa 78
ali@@ 78
atti 78
century 78
control 78
eng@@ 78
functions 78
ga 78
ie 78
ind@@ 78
osa 78
ru@@ 78
science 78
source 78
tic 78
इथियो@@ 78
गंभी@@ 78
छुट@@ 78
दैव 78
ਿ@@ 78
ി@@ 78
1740 77
189 77
198 77
21,@@ 77
233 77
GHz 77
Island 77
Kingdom 77
NS 77
Ni@@ 77
Real@@ 77
Red@@ 77
Te@@ 77
aw@@ 77
ena 77
har 77
io 77
long 77
ov 77
self 77
sin 77
te@@ 77
ye 77
ढांच@@ 77
ताभ 77
ে 77
115@@ 76
197 76
2,6@@ 76
2030 76
234 76
375 76
AMG 76
Ca@@ 76
DL 76
El@@ 76
H2 76
K. 76
Ma@@ 76
Res@@ 76
SH 76
adi@@ 76
ales 76
ari@@ 76
ase 76
ay 76
case 76
chromosome 76
different 76
eth@@ 76
hin@@ 76
men 76
mg 76
micro@@ 76
page 76
public 76
ry 76
sam@@ 76
sources 76
temperature 76
آ@@ 76
ى 76
ंडेशन 76
तैरा@@ 76
याँ@@ 76
वारिक 76
চ@@ 76
243 75
4.9 75
Ac@@ 75
Cat@@ 75
DOS 75
EP@@ 75
GT 75
H. 75
MA@@ 75
Nar@@ 75
PLC 75
SEC 75
UL@@ 75
VC 75
WY@@ 75
app@@ 75
bo@@ 75
electron 75
gr@@ 75
kar 75
st 75
tha 75
ti 75
» 75
מ@@ 75
भूषा 75
ང 75
1768 74
1778 74
27,@@ 74
31@@ 74
737 74
84@@ 74
89@@ 74
AL 74
At 74
BD@@ 74
C.@@ 74
Pre@@ 74
RCA 74
SH@@ 74
analysis 74
bu@@ 74
cycle 74
ere 74
found 74
ks@@ 74
mp@@ 74
ography 74
ps 74
sing@@ 74
social 74
son 74
table 74
ung 74
ver@@ 74
ə 74
ά@@ 74
ς 74
С@@ 74
е 74
ऍ 74
यिता 74
ன 74
ు@@ 74
ོ@@ 74
1786 73
1797 73
1808 73
186 73
209 73
218 73
237 73
5.8 73
540 73
660 73
8.1 73
Bas@@ 73
DB 73
DO@@ 73
Dh@@ 73
E.@@ 73
Foundation 73
GE@@ 73
George 73
NC 73
Power 73
TE 73
To 73
ale 73
ini 73
kbit 73
m2 73
mtDNA 73
my@@ 73
points 73
rate 73
return 73
ro 73
standard 73
ub@@ 73
ّ@@ 73
उपजा@@ 73
चेयर@@ 73
साजि@@ 73
ী@@ 73
1530 72
187 72
216 72
223 72
251 72
307 72
322 72
777 72
8- 72
85@@ 72
AG@@ 72
Aj@@ 72
GH@@ 72
ME 72
Medical 72
Mor@@ 72
NBA 72
PC@@ 72
Sir 72
Ta@@ 72
Tri@@ 72
XX 72
ama 72
ance 72
background 72
bh@@ 72
bs@@ 72
dia 72
est 72
fac@@ 72
gaon 72
he@@ 72
information 72
ita 72
last 72
och@@ 72
off 72
region 72
side 72
tive 72
way 72
ра@@ 72
असे@@ 72
गोली@@ 72
रासाय@@ 72
शुरू@@ 72
ি 72
ಿ@@ 72
191@@ 71
273 71
CAM 71
DO 71
David 71
Dev@@ 71
Framework 71
Ga@@ 71
Gan@@ 71
Mand@@ 71
NC@@ 71
Pr@@ 71
SL 71
Sanskrit 71
Vi@@ 71
family 71
her@@ 71
im 71
ole 71
ou@@ 71
pre@@ 71
run 71
ste@@ 71
ul 71
war@@ 71
ئ@@ 71
परिव@@ 71
मनोरं@@ 71
रांसि@@ 71
ত 71
430 70
97@@ 70
ANC 70
CMOS 70
Centre 70
DD 70
ER 70
Hg 70
Kam@@ 70
MIT 70
NYSE 70
Robert 70
gu@@ 70
identity 70
india 70
les 70
ratio 70
single 70
those 70
x86 70
अनुभ@@ 70
पंजी@@ 70
18,000 69
224 69
241 69
248 69
3,500 69
309 69
35,@@ 69
36,@@ 69
4.8 69
CY@@ 69
District 69
Earth 69
Fe 69
For@@ 69
GO@@ 69
HB@@ 69
House 69
However 69
Information 69
Man 69
Pradesh 69
SN@@ 69
WW@@ 69
cl@@ 69
hat 69
head 69
inc@@ 69
kHz 69
level 69
ll 69
lu@@ 69
mat@@ 69
mm@@ 69
motion 69
pa 69
pr@@ 69
reaction 69
sis 69
tr@@ 69
ts 69
ular 69
very 69
á@@ 69
х@@ 69
ה@@ 69
अयो@@ 69
खाबाद 69
बात@@ 69
बैड@@ 69
रावण@@ 69
‚ 69
0.0@@ 68
1.25 68
1658 68
1689 68
1699 68
1759 68
1767 68
286 68
34.@@ 68
410 68
570 68
625 68
7.1 68
7.3 68
As@@ 68
CIA 68
EL@@ 68
ES 68
Ha@@ 68
Kha@@ 68
List 68
MGM 68
NR@@ 68
No 68
Open@@ 68
See 68
UP@@ 68
Wildlife 68
ag 68
amb@@ 68
com@@ 68
ell 68
ka@@ 68
pura 68
rule 68
voltage 68
word 68
ंतु 68
नुष 68
राचीन@@ 68
য@@ 68
1720 67
1769 67
2100 67
213 67
236 67
244 67
610 67
BSD 67
Bo@@ 67
City 67
Delhi 67
Dr. 67
ED@@ 67
EPA 67
HP 67
Is 67
Le@@ 67
Li@@ 67
Mi@@ 67
Office 67
Park 67
SPF 67
Some 67
TR@@ 67
UFC 67
VH1 67
aka 67
before 67
ee 67
ery 67
etic 67
frequency 67
iv 67
ke@@ 67
m.@@ 67
me@@ 67
much 67
ox@@ 67
properties 67
rec@@ 67
ric@@ 67
river 67
wan 67
अदाल@@ 67
चीत 67
पींस 67
संपा@@ 67
सनिक 67
మ@@ 67
မ@@ 67
1545 66
1680 66
1729 66
1752 66
1766 66
219 66
231 66
252 66
356 66
510 66
520 66
6.6 66
A1 66
BL 66
COM 66
CRM 66
Cap@@ 66
Charles 66
EE@@ 66
England 66
Ho@@ 66
IG@@ 66
Le 66
Met@@ 66
Micro@@ 66
Mon@@ 66
Mur@@ 66
Shah@@ 66
TH@@ 66
VIII 66
au 66
cal@@ 66
cos@@ 66
des@@ 66
device 66
down 66
e.g. 66
edral 66
ek 66
electrons 66
history 66
ists 66
let 66
log@@ 66
mah@@ 66
mu@@ 66
ong@@ 66
root 66
und 66
ut 66
ē@@ 66
ла@@ 66
س 66
सोसाइ@@ 66
ृह 66
114@@ 65
13,000 65
1690 65
1781 65
266 65
4,0@@ 65
4.7 65
440 65
5.9 65
CR 65
ERS 65
FC 65
Hy@@ 65
IK 65
Live 65
Ltd 65
N. 65
O3 65
OR 65
Pro 65
Prot@@ 65
Service 65
Tal@@ 65
WD 65
bar 65
br@@ 65
chi 65
cu@@ 65
ding 65
ei@@ 65
how 65
hu@@ 65
ion@@ 65
lan@@ 65
led 65
mer@@ 65
red 65
scale 65
she 65
ts@@ 65
zo@@ 65
í@@ 65
चुना@@ 65
जवाह@@ 65
धानिक 65
पौर 65
า@@ 65
.सी@@ 64
0.25 64
1650 64
1779 64
1811 64
3,0@@ 64
304 64
333 64
335 64
6.7 64
600,000 64
AE@@ 64
Army 64
Bu@@ 64
Da@@ 64
FIA 64
French 64
Gu@@ 64
HO@@ 64
HS 64
Human 64
MR@@ 64
Nap@@ 64
PI 64
Pe@@ 64
RC 64
She 64
These 64
ber@@ 64
chemical 64
dic@@ 64
i.@@ 64
ile 64
mi@@ 64
oli 64
ori 64
political 64
ron 64
ser@@ 64
therapy 64
true 64
ί@@ 64
М@@ 64
ھ@@ 64
इग@@ 64
ऑ 64
धिष 64
ऩ 64
सहार@@ 64
सिपा@@ 64
ৰ@@ 64
ಕ@@ 64
‏ 64
1,600 63
1520 63
1580 63
1670 63
247 63
259 63
334 63
543 63
BAFTA 63
CPA 63
Code 63
Global 63
He@@ 63
Joseph 63
Mag@@ 63
Mer@@ 63
Name 63
Network 63
Or@@ 63
Plus 63
Republic 63
SM 63
SWAT 63
Sea 63
Space 63
Tit@@ 63
UT@@ 63
Xbox 63
above 63
action 63
ain@@ 63
au@@ 63
book@@ 63
charge 63
could 63
esh 63
factor 63
hab@@ 63
ili@@ 63
log 63
major 63
mes@@ 63
negative 63
ozoic 63
radi@@ 63
ram@@ 63
star 63
ulation 63
und@@ 63
wara 63
what 63
à@@ 63
ы@@ 63
ב@@ 63
ל@@ 63
थाई@@ 63
लेबना@@ 63
वसीय 63
सिलसि@@ 63
ল 63
ు 63
.1 62
1610 62
1710 62
1728 62
1755 62
255 62
321 62
6,0@@ 62
BP 62
Ba@@ 62
CN 62
Center 62
Char@@ 62
Cu@@ 62
D.@@ 62
Er@@ 62
HPV 62
His 62
IEC 62
IST 62
Language 62
Nagar 62
Road 62
Systems 62
Time 62
VE 62
VE@@ 62
due 62
fl@@ 62
large 62
min@@ 62
often 62
particles 62
result 62
test 62
tor@@ 62
і@@ 62
غ@@ 62
ُ@@ 62
मांडू 62
रांश 62
वियत 62
ു@@ 62
1,000,000 61
117@@ 61
1192 61
1527 61
1618 61
1724 61
1730 61
2050 61
229 61
268 61
271 61
326 61
405 61
460 61
632 61
75,000 61
77.@@ 61
911 61
ADI 61
DH@@ 61
DSM 61
FF 61
IL 61
IUCN 61
Mak@@ 61
Mes@@ 61
Net@@ 61
Qo@@ 61
Red 61
SV@@ 61
Theory 61
There 61
Var@@ 61
another 61
arh 61
axis 61
books 61
dead 61
electro@@ 61
ema 61
four 61
great 61
ib@@ 61
mod@@ 61
oil 61
ors 61
pi@@ 61
positive 61
que 61
several 61
since 61
village 61
yp@@ 61
ɑ@@ 61
ν 61
إ@@ 61
अभिया@@ 61
मेघा@@ 61
ृद 61
ి 61
― 61
.मी@@ 60
262 60
285 60
319 60
323 60
415 60
46.@@ 60
6.8 60
7.6 60
95@@ 60
BM@@ 60
Bel@@ 60
De 60
EM 60
European 60
FF@@ 60
Government 60
HR 60
HR@@ 60
Kat@@ 60
Kumar 60
Limited 60
Lo@@ 60
MI 60
Me 60
No@@ 60
Pur@@ 60
RT 60
Ros@@ 60
SB@@ 60
USD 60
War 60
ants 60
atus 60
bi 60
government 60
home 60
ika 60
international 60
isher@@ 60
ites 60
mo@@ 60
na@@ 60
now 60
ona 60
ote 60
rh@@ 60
see 60
thi 60
total 60
К@@ 60
ол@@ 60
، 60
ض@@ 60
ऒ@@ 60
सुगं@@ 60
ੰ@@ 60
ం@@ 60
త@@ 60
1250 59
1688 59
1749 59
1753 59
276 59
324 59
355 59
36.@@ 59
37,@@ 59
501 59
6.3 59
6.4 59
600@@ 59
960 59
AF@@ 59
Bag@@ 59
C1 59
CV@@ 59
Commission 59
Ds 59
Energy 59
Engineering 59
Equ@@ 59
Ford 59
From 59
Gi@@ 59
HC 59
Jump 59
La@@ 59
MRI 59
March 59
N.@@ 59
PR@@ 59
RIAA 59
T.@@ 59
White 59
around 59
because 59
co 59
country 59
da@@ 59
dec@@ 59
der@@ 59
do@@ 59
early 59
eh@@ 59
frame 59
general 59
material 59
music 59
ode 59
out@@ 59
pat@@ 59
structure 59
xx 59
ī 59
ō@@ 59
ْ@@ 59
ंबली 59
आधु@@ 59
चैंप@@ 59
पूं@@ 59
11,000 58
125@@ 58
1534 58
1703 58
1754 58
1796 58
2025 58
293 58
311 58
403 58
49.@@ 58
525 58
680 58
Archiv@@ 58
BCE 58
British 58
Far@@ 58
Internet@@ 58
N2 58
On@@ 58
Pa@@ 58
Pu@@ 58
Thomas 58
War@@ 58
ax@@ 58
ean 58
ev@@ 58
final 58
for@@ 58
gi@@ 58
ida 58
including 58
ist@@ 58
ix 58
key 58
la@@ 58
ly@@ 58
main 58
nu 58
plane 58
sm@@ 58
software 58
states 58
wari 58
दंती 58
पेशे@@ 58
मरणो@@ 58
मॉरी@@ 58
മ@@ 58
★ 58
1665 57
1758 57
242 57
257 57
258 57
278 57
2O 57
31.@@ 57
312 57
328 57
39,@@ 57
490 57
50,@@ 57
505 57
52@@ 57
6- 57
6.9 57
880 57
America 57
BI 57
Bad@@ 57
Education 57
FE@@ 57
GC 57
GT@@ 57
Gov@@ 57
Hol@@ 57
Indi@@ 57
June 57
K.@@ 57
Ki@@ 57
Media 57
Paul 57
So@@ 57
Sur@@ 57
TO@@ 57
Ten@@ 57
UI 57
Ur@@ 57
W. 57
ao 57
art 57
co.@@ 57
e.com 57
fer@@ 57
gen@@ 57
kan@@ 57
mer 57
must 57
non@@ 57
nuclear 57
object 57
om 57
oma 57
open 57
phot@@ 57
physical 57
prot@@ 57
research 57
should 57
sol@@ 57
sum 57
than@@ 57
umb@@ 57
wal 57
won 57
ó@@ 57
ό@@ 57
ар@@ 57
ор@@ 57
ск@@ 57
अनुयाय@@ 57
धपुर 57
नांतर 57
रबै@@ 57
संतु@@ 57
ਨ@@ 57
ட@@ 57
ల 57
10.5 56
14,000 56
1603 56
1627 56
282 56
306 56
35,000 56
384 56
386 56
470 56
580 56
Airport 56
Cy@@ 56
Ericsson 56
G. 56
Games 56
Gang@@ 56
Intel 56
Lad@@ 56
MH 56
Public 56
Ver@@ 56
Yamato 56
against 56
atomic 56
black 56
ce 56
cross 56
dr@@ 56
ds 56
dy@@ 56
ess 56
fi@@ 56
forces 56
industry 56
iti@@ 56
kr@@ 56
lin@@ 56
low 56
met@@ 56
modern 56
natural 56
onlyinclude 56
oph@@ 56
range 56
search 56
so@@ 56
tor 56
variable 56
without 56
ū@@ 56
ʲ@@ 56
А@@ 56
з@@ 56
जहांग@@ 56
जासू@@ 56
डेवल@@ 56
नागरि@@ 56
फलता 56
रारं@@ 56
लोमन 56
ਹ@@ 56
క@@ 56
ಮ@@ 56
1325 55
1517 55
1533 55
1648 55
1704 55
1713 55
188@@ 55
249 55
294 55
308 55
313 55
345 55
390 55
401 55
4500 55
760 55
9.2 55
980 55
At@@ 55
Bhar@@ 55
Business 55
Can@@ 55
D. 55
Facebook 55
Fer@@ 55
Gh@@ 55
Green 55
HBO 55
HTTP 55
Hem@@ 55
Hydro@@ 55
Khar@@ 55
Kur@@ 55
L. 55
MR 55
Mac 55
Management 55
My 55
Publ@@ 55
Series 55
Visual 55
ally 55
disease 55
education 55
go 55
ham@@ 55
inf@@ 55
ise 55
ki@@ 55
linear 55
nam 55
net 55
oo 55
physics 55
position 55
potential 55
res@@ 55
resist@@ 55
sa@@ 55
shi@@ 55
term 55
ty 55
uk 55
una 55
vector 55
vol@@ 55
yu 55
θ@@ 55
چ@@ 55
अनौ@@ 55
उदाह@@ 55
जाइम 55
नमू@@ 55
हांग@@ 55
୍ 55
న@@ 55
བ@@ 55
0.01 54
007 54
1531 54
1542 54
1555 54
1630 54
1708 54
1725 54
254 54
274 54
281 54
327 54
624 54
7,0@@ 54
8.8 54
AST 54
August 54
Br@@ 54
Chand@@ 54
DE 54
EE 54
F. 54
Gal@@ 54
Han@@ 54
IIT 54
IN 54
If 54
Long 54
Mc@@ 54
NASA 54
NG@@ 54
Por@@ 54
RM 54
Royal 54
SF@@ 54
TD 54
URL 54
Western 54
alli 54
ap 54
asp@@ 54
ber 54
bl@@ 54
c.@@ 54
cm 54
ensis 54
even 54
gy@@ 54
hat@@ 54
house 54
hum@@ 54
if@@ 54
lab@@ 54
lis 54
mean 54
nature 54
ni@@ 54
old 54
own 54
ε 54
В@@ 54
ни@@ 54
चचे@@ 54
ক 54
ம 54
ல@@ 54
ས@@ 54
ṭ@@ 54
中@@ 54
1316 53
1518 53
2,4@@ 53
2024 53
246 53
253 53
295 53
3,6@@ 53
343 53
368 53
50.@@ 53
840 53
ATA 53
April 53
Aztecs 53
B2 53
BF 53
BR 53
Bah@@ 53
Bil@@ 53
ED 53
Gor@@ 53
Gy@@ 53
HM 53
I. 53
IL@@ 53
Je@@ 53
Jean 53
MG 53
ML 53
MW 53
Mel@@ 53
Middle 53
PP@@ 53
Project 53
Raw@@ 53
Records 53
Ref@@ 53
Region 53
Sab@@ 53
Tra@@ 53
VT 53
Web@@ 53
ampur 53
bank 53
ete 53
gl@@ 53
ice 53
mol 53
of@@ 53
pan@@ 53
property 53
ray 53
rho@@ 53
rpm 53
rut@@ 53
sp 53
sur@@ 53
team 53
terms 53
tube 53
version 53
women 53
ys 53
É@@ 53
æ 53
ð 53
ан@@ 53
р 53
ָ@@ 53
ذ@@ 53
आण@@ 53
एडा 53
कारात 53
णाचल 53
दमी 53
મ@@ 53
ய@@ 53
గ@@ 53
ನ@@ 53
1,300 52
1564 52
16,000 52
1640 52
1659 52
1751 52
1777 52
197@@ 52
406 52
411 52
5.7 52
58.@@ 52
7.7 52
90,000 52
Academy 52
Amb@@ 52
Bur@@ 52
CoV 52
Court 52
EX@@ 52
Edward 52
Em@@ 52
France 52
ISA 52
Jag@@ 52
Jam@@ 52
Lake 52
Mbit 52
Nu@@ 52
Other 52
Pat@@ 52
Standard 52
Vista 52
ain 52
among 52
anda 52
bit 52
com 52
did 52
edi@@ 52
gam@@ 52
ich@@ 52
index 52
indic@@ 52
king 52
nic@@ 52
ok 52
onic 52
optera 52
published 52
said 52
species 52
stage 52
support 52
technology 52
tia 52
top 52
var@@ 52
yl@@ 52
¤ 52
§ 52
ں 52
मुंगे@@ 52
ప@@ 52
ག@@ 52
″ 52
1320 51
1450 51
1528 51
1543 51
1598 51
1612 51
1743 51
1762 51
1771 51
2200 51
263 51
331 51
344 51
352 51
43,@@ 51
67.@@ 51
7.8 51
8.4 51
870 51
9.8 51
Az@@ 51
Bha@@ 51
Bor@@ 51
Col@@ 51
FD@@ 51
Force 51
July 51
Mu@@ 51
Na 51
PL 51
Ran@@ 51
UN 51
VA 51
Value 51
XIV 51
XV 51
ann@@ 51
anus 51
average 51
best 51
col@@ 51
d.@@ 51
erozo@@ 51
ham 51
hu 51
illa 51
inae 51
ines 51
int@@ 51
make 51
metal 51
ost@@ 51
ow@@ 51
present 51
sine 51
specific 51
ure 51
yn@@ 51
zero 51
Δ@@ 51
ер@@ 51
й@@ 51
अतर@@ 51
पिथो@@ 51
षेक 51
ম 51
ਮ@@ 51
√ 51
▪ 51
大@@ 51
1,400 50
1492 50
1661 50
1702 50
283 50
2O3 50
377 50
512 50
620 50
628 50
670 50
8.6 50
918 50
Bank 50
Ber@@ 50
C2 50
Do@@ 50
H5@@ 50
Hal@@ 50
Inf@@ 50
Internet 50
Mul@@ 50
Nam@@ 50
RO 50
SO 50
Sciences 50
Studies 50
Super 50
TCP 50
Vis@@ 50
aj 50
alis 50
eshwar 50
ex 50
features 50
ft 50
hem@@ 50
important 50
isa 50
iya 50
map@@ 50
mo 50
pp@@ 50
raj@@ 50
short 50
times 50
uc@@ 50
udi 50
ush@@ 50
van@@ 50
von 50
ō 50
έ@@ 50
об@@ 50
ز 50
ف 50
कॉपी@@ 50
बेरी@@ 50
सबुक 50
ধ@@ 50
ভ@@ 50
ವ@@ 50
08@@ 49
1505 49
1506 49
1541 49
1631 49
17,000 49
1715 49
1719 49
1722 49
1727 49
272 49
2G 49
354 49
661 49
8.7 49
AK@@ 49
AND 49
AX 49
Ali 49
Android 49
BW 49
Canada 49
Cavendish 49
DX 49
Detail 49
Ed@@ 49
GN@@ 49
German 49
HI 49
IEEE 49
Land 49
OP 49
October 49
Of 49
Old 49
PA@@ 49
Sim@@ 49
TER@@ 49
act@@ 49
anpur 49
beam 49
char@@ 49
ck@@ 49
computer 49
double 49
esis 49
hyper@@ 49
learning 49
ler 49
ley 49
media 49
od 49
ose 49
principle 49
radiation 49
sar@@ 49
square 49
study 49
sv@@ 49
tw@@ 49
uses 49
white 49
ð@@ 49
υ@@ 49
І 49
ь@@ 49
נ@@ 49
गिलग@@ 49
घाई 49
झान 49
तरीन 49
दूस@@ 49
ौड 49
ಿ 49
ು@@ 49
വ@@ 49
ร@@ 49
ས 49
း@@ 49
1638 48
1666 48
1672 48
189@@ 48
1st 48
20th 48
284 48
34,@@ 48
780 48
787 48
79.@@ 48
9.3 48
930 48
970 48
Board 48
CGI 48
CH 48
CSI 48
Cha@@ 48
Dar@@ 48
Egypt 48
Electro@@ 48
Henry 48
ICT 48
MB@@ 48
OT 48
PE 48
Pa 48
Sang@@ 48
Station 48
TP 48
The@@ 48
Tir@@ 48
Tr@@ 48
andi 48
aur@@ 48
ell@@ 48
ence 48
equal 48
hr@@ 48
ius 48
iy@@ 48
ized 48
jan 48
matter 48
poly@@ 48
rit@@ 48
ten 48
third 48
ulus 48
values 48
yan@@ 48
è@@ 48
ω 48
ен@@ 48
ּ@@ 48
ताजि@@ 48
रोजग@@ 48
समे 48
सूस 48
ੀ 48
ி 48
జ@@ 48
ိ@@ 48
ြ@@ 48
1010 47
1350 47
1453 47
1572 47
1576 47
1632 47
1718 47
184@@ 47
315 47
353 47
402 47
409 47
622 47
627 47
656 47
711 47
740 47
AA@@ 47
Ar 47
BB@@ 47
BBS 47
Del@@ 47
ET@@ 47
Go@@ 47
Her@@ 47
IPL 47
January 47
Kor@@ 47
LD 47
Location 47
Louis 47
NM@@ 47
Non 47
Pakistani 47
R2 47
RNAs 47
Ra@@ 47
Son@@ 47
Sudan 47
Tam@@ 47
Test 47
UC@@ 47
V. 47
When 47
ami 47
ania 47
aph@@ 47
ard 47
ators 47
below 47
business 47
cap@@ 47
course 47
cre@@ 47
direct 47
ens@@ 47
enti@@ 47
ey 47
food 47
get 47
half 47
having 47
ids 47
ks 47
ological 47
others 47
output 47
over@@ 47
particle 47
quantum 47
tab@@ 47
tar@@ 47
thus 47
ɔ@@ 47
ɡ@@ 47
ʁ@@ 47
Δ 47
ев@@ 47
י 47
ع 47
आईवी 47
कायम@@ 47
रतियो@@ 47
ོ 47
1504 46
1535 46
1628 46
1642 46
1652 46
1667 46
1734 46
1744 46
2600 46
261 46
288 46
2A 46
2nd 46
33,@@ 46
336 46
342 46
395 46
3C 46
44,@@ 46
51.@@ 46
544 46
7.9 46
78.@@ 46
814 46
AE 46
After 46
Asia 46
B1 46
CG 46
CM 46
Dig@@ 46
E9E9E9 46
Library 46
MD 46
Mobile 46
OC@@ 46
People 46
SARS 46
Services 46
Trans@@ 46
are@@ 46
article 46
asi 46
avi@@ 46
blog@@ 46
blood 46
eli 46
engineering 46
gar@@ 46
iPhone 46
ill@@ 46
isation 46
kW 46
kal@@ 46
kn@@ 46
lam@@ 46
loc@@ 46
management 46
million 46
motor 46
nucleus 46
phy@@ 46
pi 46
quot 46
story 46
symbol 46
tion@@ 46
uli 46
उपभो@@ 46
नवं@@ 46
नागढ 46
यिकी@@ 46
लेखि@@ 46
ॿ@@ 46
ਤ@@ 46
ர 46
ಂ@@ 46
ུ@@ 46
1451 45
1558 45
1560 45
1606 45
170@@ 45
1716 45
1745 45
178@@ 45
292 45
297 45
3,8@@ 45
332 45
68.@@ 45
ACS 45
App@@ 45
CO3 45
Church 45
Dhar@@ 45
Economic 45
FP 45
God 45
Index 45
KO@@ 45
Lord 45
Maj@@ 45
NWA 45
PO 45
Pi@@ 45
REM 45
Richard 45
Screen 45
Tamil 45
Tor@@ 45
Vol@@ 45
Wylie 45
York 45
air@@ 45
alpur 45
anga 45
asi@@ 45
born 45
dium 45
engine 45
ey@@ 45
fact 45
full 45
gang@@ 45
hand 45
hor@@ 45
input 45
magnitude 45
national 45
ook@@ 45
population 45
sive 45
the@@ 45
tic@@ 45
within 45
yi 45
ʊ@@ 45
ов@@ 45
ч@@ 45
ש@@ 45
पहुँच@@ 45
लेंज 45
ং@@ 45
వ@@ 45
1,100 44
1303 44
1596 44
1597 44
160@@ 44
1611 44
1624 44
1644 44
1671 44
1709 44
1717 44
267 44
279 44
298 44
317 44
391 44
565 44
590 44
7.0 44
800@@ 44
ATM 44
Also 44
Ann@@ 44
Award 44
BL@@ 44
Bab@@ 44
CF 44
CIS 44
El 44
Euler 44
GS 44
Hume 44
JP 44
Journal 44
Kad@@ 44
Ku@@ 44
Les 44
MT 44
ODI 44
Rat@@ 44
Sat@@ 44
Security 44
Sri 44
Tel@@ 44
Thir@@ 44
UV 44
Water 44
anj 44
cat@@ 44
condition 44
defined 44
design 44
ds@@ 44
elements 44
emia 44
event 44
ft@@ 44
ine@@ 44
iss@@ 44
length 44
map 44
mathematical 44
medium 44
odym@@ 44
products 44
ry@@ 44
sh 44
size 44
sw@@ 44
take 44
took 44
trade 44
tt@@ 44
wan@@ 44
án 44
φ@@ 44
ύ@@ 44
П@@ 44
ик@@ 44
ה 44
एगो 44
थानां@@ 44
बंदर@@ 44
लगाँव 44
শ 44
ਜ@@ 44
ದ@@ 44
≤ 44
002 43
1509 43
1512 43
1582 43
1685 43
1705 43
1712 43
1714 43
1726 43
1746 43
287 43
291 43
318 43
32.@@ 43
33.@@ 43
366 43
52.@@ 43
65,000 43
8.3 43
ABA 43
CB 43
CBE 43
Class 43
Control 43
Cre@@ 43
Department 43
End 43
HD@@ 43
IJ@@ 43
IR 43
Jan@@ 43
KF 43
KO 43
Krish@@ 43
MY@@ 43
María 43
May 43
OD 43
Period 43
Pl@@ 43
RB 43
RF 43
Sing@@ 43
Super@@ 43
Syn@@ 43
They 43
ZA 43
aa 43
alam 43
asis 43
ass@@ 43
block 43
chemistry 43
compound 43
countries 43
critical 43
dar@@ 43
does 43
dy 43
element 43
eta 43
i.e. 43
independent 43
ira 43
late 43
lo 43
medicine 43
memory 43
ml 43
net@@ 43
ng@@ 43
our@@ 43
reg@@ 43
spectrum 43
stone 43
sus 43
ud 43
uli@@ 43
until 43
utt@@ 43
yl 43
à 43
ƒ 43
ɾ@@ 43
ʃ@@ 43
χ@@ 43
ω@@ 43
ְ@@ 43
ث@@ 43
ظ@@ 43
गिता 43
दंडों 43
लेटिक 43
ನ 43
പ@@ 43
င 43
↑ 43
09@@ 42
1024 42
1565 42
1568 42
1575 42
1616 42
1622 42
1653 42
1731 42
2400 42
289 42
316 42
339 42
350@@ 42
361 42
364 42
42.@@ 42
425 42
770 42
820 42
9.6 42
AO@@ 42
ARC 42
And 42
CID 42
CSF 42
Division 42
Fi@@ 42
Grand 42
IDE 42
IF 42
IPA 42
Industrial 42
Jal@@ 42
Kon@@ 42
Kot@@ 42
MM 42
MO 42
Malaysia 42
News 42
Ob@@ 42
PM@@ 42
Pale@@ 42
Pap@@ 42
Paris 42
Poly@@ 42
Post 42
RGB 42
Rec@@ 42
SA@@ 42
Sad@@ 42
Sil@@ 42
XII 42
ality 42
alp@@ 42
anth@@ 42
aram 42
asia 42
ats 42
became 42
bridge 42
bus 42
cognitive 42
den@@ 42
dynasty 42
electrical 42
equations 42
ese 42
gen 42
ger@@ 42
gi 42
good 42
hara 42
health 42
hel@@ 42
hot@@ 42
lead 42
leg@@ 42
local 42
making 42
min 42
neur@@ 42
original 42
oth@@ 42
ou 42
pol@@ 42
post 42
rot@@ 42
row 42
school 42
tit@@ 42
tur@@ 42
ules 42
units 42
van 42
vis 42
wal@@ 42
written 42
zu 42
Ú@@ 42
ː 42
μ 42
ός 42
ת 42
गराज 42
देलखंड 42
परशु@@ 42
मेजबा@@ 42
यूई@@ 42
། 42
.A. 41
0.0 41
1050 41
1398 41
1615 41
1669 41
1687 41
1723 41
1736 41
185@@ 41
1A 41
269 41
2D 41
314 41
329 41
338 41
385 41
49,@@ 41
629 41
712 41
89.@@ 41
9.1 41
AID 41
ARM 41
Art 41
Arthur 41
Bang@@ 41
Big 41
Blue 41
CAD 41
CNN 41
D1 41
DJ 41
FT 41
Gen@@ 41
Gon@@ 41
Hor@@ 41
IM 41
IMAX 41
JU 41
Kin@@ 41
Ko@@ 41
MDR 41
Many 41
Nations 41
Pad@@ 41
September 41
Source 41
Sukho@@ 41
Sy@@ 41
Two 41
VOC 41
WH@@ 41
WT 41
art@@ 41
ational 41
cer@@ 41
circle 41
come 41
del@@ 41
den 41
difference 41
eda 41
films 41
fo@@ 41
forms 41
fraction 41
ho 41
iTunes 41
image 41
impedance 41
ings 41
ip 41
je@@ 41
kh 41
lines 41
machine 41
node 41
oor 41
operating 41
organic 41
ori@@ 41
price 41
rak@@ 41
rat@@ 41
ruled 41
scope 41
script 41
service 41
sil@@ 41
six 41
sl@@ 41
tion 41
tree 41
ulum 41
zy@@ 41
η 41
ق 41
बूझ@@ 41
शावर 41
हीत 41
య@@ 41
ా 41
.2 40
.net 40
1485 40
1511 40
1529 40
1562 40
1588 40
1623 40
1675 40
1698 40
1701 40
1721 40
1733 40
179@@ 40
183@@ 40
2800 40
337 40
359 40
44.@@ 40
458 40
53.@@ 40
636 40
65,@@ 40
700,000 40
8.0 40
8.2 40
860 40
920 40
927 40
96.@@ 40
A320 40
Alt@@ 40
Ash@@ 40
Ask@@ 40
Bazar 40
Bin@@ 40
Brah@@ 40
Bud@@ 40
DF 40
Dan@@ 40
Du@@ 40
Dur@@ 40
Electronics 40
FBI 40
Free 40
GI 40
Gur@@ 40
HM@@ 40
Hi@@ 40
IAS 40
Ka 40
Khan@@ 40
Korea 40
Kun@@ 40
LAN 40
LE 40
LED 40
LV 40
MM@@ 40
Mil@@ 40
Military 40
NCAA 40
Natural 40
Note 40
O. 40
PD 40
Point 40
Pra@@ 40
Sha@@ 40
Shar@@ 40
Shri 40
Sol@@ 40
TRA@@ 40
U2 40
Ud@@ 40
Ul@@ 40
VM 40
Yol@@ 40
aga 40
ash 40
bal@@ 40
bin@@ 40
bra@@ 40
cent@@ 40
chain 40
children 40
considered 40
cos 40
culture 40
ef@@ 40
emission 40
enta 40
ents 40
es.@@ 40
ets 40
exchange 40
ff@@ 40
green 40
groups 40
ili 40
membrane 40
mic 40
mot@@ 40
ner@@ 40
notation 40
oids 40
phone 40
play 40
problem 40
processing 40
rays 40
record 40
resistance 40
s.com 40
show 40
station 40
still 40
templ@@ 40
ule 40
val@@ 40
wali 40
we@@ 40
yles 40
ç@@ 40
φ 40
ая 40
ж@@ 40
ц@@ 40
ִ@@ 40
ד@@ 40
ِ 40
गोलिक 40
यवसा@@ 40
विपरी@@ 40
वृं@@ 40
२०१@@ 40
প 40
ਾ 40
ന@@ 40
ി 40
ု@@ 40
≥ 40
1498 39
1510 39
1515 39
1553 39
1561 39
1625 39
1643 39
1664 39
1668 39
1683 39
1706 39
1742 39
2,400 39
23,000 39
26,000 39
347 39
40.@@ 39
486 39
5,0@@ 39
504 39
515 39
524 39
ADS 39
Basic 39
Bir@@ 39
DN 39
Dy@@ 39
EN 39
Electric 39
FI 39
Feature 39
G.@@ 39
Hel@@ 39
IPv@@ 39
Kol@@ 39
LTTE 39
Moh@@ 39
Nav@@ 39
Ny@@ 39
O4 39
OECD 39
PAL 39
Pri@@ 39
RSS 39
Revolution 39
SLR 39
SU 39
Saav@@ 39
Second 39
Sem@@ 39
Sen 39
Sir@@ 39
Sum@@ 39
T1 39
Um@@ 39
XVI 39
ages 39
aha 39
bul@@ 39
chlor@@ 39
cis 39
cur@@ 39
diff@@ 39
equivalent 39
etes 39
etics 39
every 39
go@@ 39
held 39
hyp@@ 39
ibn 39
idea 39
ik 39
izing 39
jag@@ 39
kon@@ 39
kur@@ 39
lat@@ 39
lia 39
market 39
means 39
multiple 39
omi 39
pet@@ 39
possible 39
rac@@ 39
ras@@ 39
rat 39
results 39
rop@@ 39
san@@ 39
som@@ 39
stad 39
stan@@ 39
substance 39
syn@@ 39
ta@@ 39
trans@@ 39
wall 39
waves 39
ān 39
ʒ@@ 39
ον 39
Г@@ 39
ович 39
तकाल@@ 39
सँख 39
ফ@@ 39
વ@@ 39
ு 39
ം 39
ത@@ 39
ല@@ 39
ན 39
្ 39
11.5 38
1336 38
14.5 38
1519 38
1539 38
1570 38
1609 38
1732 38
299 38
38,@@ 38
414 38
444 38
475 38
502 38
562 38
591 38
810 38
AW@@ 38
Agency 38
Alpha 38
Authority 38
Best 38
Committee 38
Common 38
Computer 38
Dec@@ 38
Defence 38
Desktop 38
FCC 38
Fi 38
Gra@@ 38
ITV 38
Industries 38
Intelligence 38
KI 38
Ke@@ 38
Mach@@ 38
Mang@@ 38
Min@@ 38
Peter 38
Ray@@ 38
Right 38
Sch@@ 38
Software 38
Su 38
Technologies 38
Us 38
Yahoo 38
af 38
always 38
amm@@ 38
apuram 38
atory 38
can@@ 38
cc@@ 38
ck 38
equilibrium 38
etric 38
flow 38
fundamental 38
geometry 38
ger 38
hap@@ 38
ised 38
istic 38
jan@@ 38
lex@@ 38
mechanics 38
mel@@ 38
meter 38
military 38
mus@@ 38
needed 38
network 38
optical 38
parts 38
phon@@ 38
production 38
religious 38
sal@@ 38
speed 38
statement 38
tera 38
tes 38
theorem 38
tt 38
wheel 38
ym@@ 38
your 38
zone 38
δ 38
в 38
ء 38
अवय@@ 38
आजा@@ 38
परेखा 38
पूँ@@ 38
भागियों 38
भाज@@ 38
याता@@ 38
लांतर 38
समारो@@ 38
ৰ 38
ା@@ 38
ರ 38
≡ 38
.S. 37
0.05 37
1,800 37
1001 37
1150 37
13.5 37
1552 37
1617 37
1649 37
1694 37
1738 37
22,000 37
24,000 37
372 37
3rd 37
408 37
413 37
468 37
483 37
54.@@ 37
57.@@ 37
575 37
62.@@ 37
634 37
642 37
7,500 37
715 37
730 37
786 37
800,000 37
833 37
843 37
9.7 37
907 37
940 37
990 37
Age 37
BB 37
Ben@@ 37
Bhag@@ 37
CAT 37
CPI 37
Data 37
December 37
Dr@@ 37
ESP 37
FT@@ 37
Fort 37
HY@@ 37
Hill 37
Hz 37
ISS 37
Ka@@ 37
Love 37
NG 37
November 37
Search 37
She@@ 37
Special 37
Star 37
To@@ 37
VHS 37
We 37
WrestleMania 37
addition 37
ask@@ 37
basic 37
bit@@ 37
box 37
built 37
carbon 37
cat 37
certain 37
comm@@ 37
days 37
diagram 37
division 37
edit 37
emb@@ 37
emp@@ 37
endra 37
few 37
fixed 37
game 37
gram 37
height 37
higher 37
hydro@@ 37
ila 37
included 37
index@@ 37
jo 37
ku 37
lb 37
leaf 37
les@@ 37
limit 37
literature 37
ls 37
m3 37
mann 37
ocy@@ 37
oli@@ 37
oris 37
otic 37
ova 37
play@@ 37
py@@ 37
ran 37
released 37
sea 37
solar 37
solid 37
sphere 37
supply 37
ten@@ 37
ther@@ 37
ton@@ 37
tro@@ 37
under@@ 37
var 37
wood 37
wrote 37
yan 37
ś@@ 37
Ω 37
λ 37
ρ 37
Б@@ 37
Р@@ 37
ן 37
ح 37
ई.पू@@ 37
कति@@ 37
पराज@@ 37
वासीय 37
विजु@@ 37
शेज 37
ॾ@@ 37
த 37
ே@@ 37
ర 37
ന 37
อ@@ 37
ေ@@ 37
0.04 36
1000@@ 36
1066 36
1525 36
1532 36
1601 36
1602 36
1608 36
1641 36
1646 36
1651 36
1657 36
18.5 36
277 36
357 36
371 36
381 36
399 36
4,500 36
40,@@ 36
427 36
45.@@ 36
46,@@ 36
476 36
527 36
555 36
599 36
603 36
683 36
76.@@ 36
914 36
935 36
ART 36
Cam@@ 36
Civil 36
Com 36
Cr@@ 36
DMI 36
Exchange 36
F.@@ 36
FX 36
G8 36
GM 36
Hindu 36
ICA@@ 36
INS@@ 36
Im@@ 36
Kap@@ 36
Kas@@ 36
Lam@@ 36
M1 36
Machine 36
Martin 36
Men@@ 36
Most 36
MotoGP 36
NAS@@ 36
NFL 36
Neur@@ 36
Nil@@ 36
Op@@ 36
Phot@@ 36
Player 36
Pol@@ 36
Process 36
Ps 36
Ri@@ 36
Ru@@ 36
SG 36
Saint 36
Sav@@ 36
Shim@@ 36
Sin@@ 36
Sun 36
Sun@@ 36
Tata 36
V12 36
VP@@ 36
Women 36
Young 36
access 36
adu 36
ais@@ 36
alia 36
animals 36
az 36
bn 36
board 36
cause 36
ces 36
cr@@ 36
cul@@ 36
curve 36
dur@@ 36
earth 36
economic 36
els 36
environment 36
ett@@ 36
exc@@ 36
five 36
ground 36
hand@@ 36
hur@@ 36
ier 36
inal 36
iti 36
jal@@ 36
kot 36
marathon 36
ment 36
oral 36
phi@@ 36
quantity 36
star@@ 36
started 36
sy@@ 36
tal@@ 36
ted 36
tournament 36
towards 36
trigonom@@ 36
ure@@ 36
user 36
variables 36
ven@@ 36
ves 36
view 36
void 36
whose 36
works 36
yal 36
ze 36
® 36
³ 36
â@@ 36
è 36
ˌ@@ 36
ел@@ 36
ов 36
פ@@ 36
पिथौ@@ 36
बारबा@@ 36
सुप@@ 36
ট@@ 36
ਦ@@ 36
མ@@ 36
ာ@@ 36
ー@@ 36
日@@ 36
￸ 36
0000@@ 35
1296 35
1494 35
1516 35
1521 35
16.5 35
1613 35
1614 35
1619 35
1629 35
1636 35
1696 35
296 35
351 35
392 35
529 35
56.@@ 35
586 35
645 35
707 35
802.@@ 35
830 35
925 35
929 35
965 35
98.@@ 35
According 35
Bak@@ 35
By@@ 35
CSS 35
California 35
DN@@ 35
DRM 35
Deb@@ 35
Die 35
Fever 35
GB@@ 35
Gam@@ 35
Gop@@ 35
Hello 35
Hills 35
IV@@ 35
Java 35
L2 35
League 35
Ly@@ 35
Mountains 35
NB@@ 35
NO 35
Nay@@ 35
Nim@@ 35
Population 35
President 35
Psych@@ 35
Railway 35
Ramp@@ 35
Rights 35
Shiv@@ 35
TR 35
TT@@ 35
UC 35
UP 35
WF 35
Wal@@ 35
aki 35
along 35
ams 35
areas 35
array 35
ava 35
back@@ 35
band 35
basis 35
child 35
devices 35
external 35
far 35
father 35
figure 35
fluid 35
form@@ 35
hard 35
hav@@ 35
ities 35
ko@@ 35
kumar 35
lag@@ 35
long@@ 35
marker 35
nam@@ 35
nav@@ 35
ond@@ 35
onia 35
oper@@ 35
ophyta 35
primary 35
programming 35
psych@@ 35
put@@ 35
rather 35
related 35
ros 35
rum 35
sem@@ 35
sr@@ 35
ss 35
start 35
storage 35
stress 35
t.@@ 35
temple 35
udu 35
vis@@ 35
worm 35
η@@ 35
ικ@@ 35
ь 35
ك 35
कूमत 35
गुवा@@ 35
धीनता 35
पावली 35
ਰ 35
ર@@ 35
ି@@ 35
க 35
ಗ@@ 35
ಸ@@ 35
1011 34
120,000 34
1206 34
1392 34
1394 34
1480 34
15.5 34
1574 34
1583 34
1590 34
1626 34
1639 34
1674 34
1695 34
1711 34
1735 34
1737 34
187@@ 34
2,300 34
341 34
358 34
376 34
389 34
432 34
435 34
445 34
455 34
545 34
55,000 34
55,@@ 34
641 34
790 34
8.9 34
875 34
919 34
973 34
A2 34
ASP 34
Au@@ 34
Battle 34
Boo@@ 34
Chak@@ 34
Chief 34
Cop@@ 34
Country 34
Cur@@ 34
Digital 34
EST 34
Fox 34
Ghar@@ 34
H3@@ 34
Image 34
Ja@@ 34
LL@@ 34
Line 34
MHC 34
Medicine 34
Mount 34
Mun@@ 34
NI 34
Order 34
Organization 34
Os@@ 34
Plant 34
Political 34
Pul@@ 34
Pun@@ 34
Rag@@ 34
So 34
St. 34
Sw@@ 34
Total 34
Tru@@ 34
Tur@@ 34
Uttar 34
Valley 34
act 34
ade@@ 34
again 34
ago 34
akh@@ 34
amount 34
ano 34
ans@@ 34
arch@@ 34
architecture 34
ard@@ 34
aries 34
auli 34
av 34
away 34
ayam 34
ba@@ 34
become 34
bil@@ 34
cha 34
chi@@ 34
date 34
die 34
differential 34
din 34
enia 34
eri 34
fields 34
fold 34
foreign 34
here 34
hol@@ 34
ides 34
inn@@ 34
kam 34
kt@@ 34
let@@ 34
liquid 34
living 34
load 34
lob@@ 34
macro@@ 34
mad@@ 34
mail 34
mechanical 34
methods 34
named 34
ness 34
ox 34
person 34
plant 34
plants 34
popular 34
post@@ 34
quality 34
ring 34
ros@@ 34
secondary 34
similar 34
society 34
tools 34
tra@@ 34
tre@@ 34
udi@@ 34
ue 34
uv@@ 34
wi@@ 34
ñ@@ 34
ин@@ 34
ے 34
एकी@@ 34
घेरा@@ 34
नैनी@@ 34
विनाश@@ 34
साचुसेट 34
യ@@ 34
က@@ 34
1.0@@ 33
1.5@@ 33
11.6 33
1236 33
1323 33
1544 33
1547 33
1554 33
1569 33
1585 33
1635 33
1693 33
177@@ 33
2300 33
2x@@ 33
367 33
467 33
533 33
534 33
55.@@ 33
845 33
9.0 33
AAP 33
ABB 33
Africa 33
All@@ 33
Ancient 33
Bhad@@ 33
Bio@@ 33
Borough 33
Cent@@ 33
Cer@@ 33
Christian 33
Comp@@ 33
DT@@ 33
Dal@@ 33
Des@@ 33
Europe 33
February 33
Film 33
Ga 33
Geneva 33
Hans 33
Home 33
Hospital 33
IUP@@ 33
Jay@@ 33
Kak@@ 33
Korean 33
Ky@@ 33
Lak@@ 33
MK 33
Mai@@ 33
Mary 33
Museum 33
Navy 33
Near 33
Net 33
New@@ 33
ON 33
PT 33
RB@@ 33
RH 33
SCO 33
Sen@@ 33
Sharma 33
Si 33
Sk@@ 33
Trich@@ 33
Val@@ 33
Vel@@ 33
Video 33
WS 33
absorption 33
across 33
amplifier 33
animal 33
bin 33
bri@@ 33
by@@ 33
chem 33
cut 33
dB 33
density 33
det@@ 33
df 33
disorder 33
don 33
duc@@ 33
electronic 33
elle 33
eric 33
ges 33
graph 33
help 33
hom@@ 33
however 33
igh@@ 33
iner@@ 33
interest 33
jaz@@ 33
just 33
ker 33
ker@@ 33
latitude 33
lic@@ 33
logarith@@ 33
mani 33
mann@@ 33
ments 33
mis@@ 33
mod 33
moment 33
mph 33
nar@@ 33
ny@@ 33
oidea 33
para 33
pole 33
produced 33
puri 33
rana 33
relative 33
ren@@ 33
rom@@ 33
round 33
runs 33
sar 33
sel@@ 33
signal 33
simple 33
sometimes 33
ss@@ 33
syndrome 33
territory 33
transfer 33
ute 33
velocity 33
whole 33
worth 33
ία 33
ал@@ 33
ע@@ 33
۝ 33
घोडा 33
ਕ@@ 33
ਗ@@ 33
ਲ@@ 33
ತ@@ 33
ර@@ 33
ྱ@@ 33
ရ@@ 33
⁄ 33
0.00 32
0.02 32
1,1 32
1,2 32
1014 32
118@@ 32
1290 32
140@@ 32
1501 32
1586 32
1589 32
1591 32
1621 32
1633 32
1682 32
1697 32
17.5 32
1747 32
22.5 32
2B 32
362 32
378 32
418 32
421 32
45,000 32
45,@@ 32
451 32
461 32
465 32
48,@@ 32
4th 32
508 32
539 32
546 32
552 32
60,@@ 32
606 32
644 32
6500 32
651 32
744 32
7500 32
756 32
765 32
768 32
848 32
931 32
945 32
97.@@ 32
A8 32
ACE 32
AU 32
Ari@@ 32
CCD 32
DF@@ 32
Dragon 32
ETF 32
Entertainment 32
Es 32
Forest 32
GMT 32
GPS 32
INC 32
Ji@@ 32
Juan 32
Kos@@ 32
Ling@@ 32
Low 32
MD@@ 32
MS@@ 32
Major 32
Mat@@ 32
Mir@@ 32
Mosque 32
Mus@@ 32
NGO 32
OC 32
Party 32
Path@@ 32
Persian 32
Pras@@ 32
Py@@ 32
Ren@@ 32
Sev@@ 32
Shi@@ 32
TI@@ 32
Tab@@ 32
Tech 32
Tul@@ 32
UCLA 32
Van@@ 32
Wi@@ 32
XIII 32
ach 32
activity 32
ads 32
atha 32
berg 32
books@@ 32
capital 32
codes 32
composed 32
concept 32
cus 32
definition 32
degree 32
desh 32
direction 32
display 32
economy 32
either 32
ely 32
expression 32
flux 32
formed 32
further 32
generation 32
ie@@ 32
ill 32
imp@@ 32
ination 32
increase 32
ins@@ 32
ky 32
land@@ 32
lens 32
live 32
longitude 32
mac@@ 32
mag@@ 32
match 32
member 32
mid 32
mobile 32
mus 32
names 32
normal 32
o.@@ 32
odi@@ 32
ones 32
oni 32
oning 32
ord@@ 32
oy@@ 32
pri@@ 32
proportional 32
pt 32
ral 32
received 32
ria 32
risk 32
running 32
services 32
sex 32
shows 32
sia 32
sound 32
static 32
thought 32
tom@@ 32
uram 32
ville 32
volume 32
words 32
ying 32
za 32
т 32
ج 32
ަ@@ 32
ंकित 32
अपि@@ 32
कोलका@@ 32
दलि@@ 32
पूछता@@ 32
बहुता@@ 32
मशह@@ 32
समुदा@@ 32
খ@@ 32
ன@@ 32
ద@@ 32
ಲ@@ 32
් 32
ད@@ 32
国@@ 32
0s 31
130,000 31
1347 31
1386 31
1679 31
1684 31
1686 31
2,3 31
2700 31
348 31
3600 31
363 31
398 31
412 31
43.@@ 31
47,@@ 31
496 31
507 31
563 31
614 31
619 31
623 31
68,@@ 31
6th 31
705 31
775 31
885 31
944 31
AW 31
Ach@@ 31
Administration 31
Am 31
Anti@@ 31
Arch@@ 31
B12 31
BM 31
BT 31
Bay 31
Bl@@ 31
Blood 31
Books 31
CW 31
Cast@@ 31
Cell 31
Child 31
Congress 31
Dor@@ 31
Edit 31
FR@@ 31
FTC 31
Federation 31
Financial 31
GUI 31
Glacier 31
ITS 31
Lat@@ 31
Little 31
Madhya 31
Ms 31
No. 31
PRI 31
Philosophy 31
Press 31
RAS 31
SAM 31
Scientific 31
Since 31
Som@@ 31
TM 31
Tan@@ 31
Tim@@ 31
Times 31
Tre@@ 31
USSR 31
Van 31
Village 31
acea 31
alai 31
alb@@ 31
announced 31
aq 31
arpur 31
ats@@ 31
attack 31
cla@@ 31
components 31
cs 31
dae 31
ders 31
developed 31
dig@@ 31
dimensional 31
distribution 31
edu 31
ency 31
evidence 31
female 31
gre@@ 31
haw@@ 31
hr 31
identities 31
inga 31
internal 31
ira@@ 31
iri 31
ji@@ 31
ju@@ 31
kWh 31
largest 31
little 31
measure 31
meg@@ 31
ome 31
ons@@ 31
op 31
operation 31
oprot@@ 31
orum 31
ory 31
osper@@ 31
osphere 31
ott@@ 31
performance 31
personal 31
pin@@ 31
polymorph@@ 31
pos@@ 31
race 31
radio 31
rap@@ 31
res 31
rights 31
ru 31
sab@@ 31
shift 31
site 31
solution 31
spot@@ 31
step 31
tan 31
tissue 31
today 31
upon 31
vers@@ 31
win 31
yn 31
zi@@ 31
И@@ 31
ַ@@ 31
ם 31
एबर@@ 31
लोवा@@ 31
ॲ@@ 31
অ@@ 31
ব 31
ਪ@@ 31
ର@@ 31
ல 31
డ@@ 31
ಪ@@ 31
ು 31
† 31
.- 30
0x@@ 30
1,700 30
1018 30
1190 30
1414 30
1522 30
1524 30
1634 30
1647 30
1691 30
2K 30
350,000 30
373 30
3x@@ 30
41.@@ 30
506 30
5500 30
578 30
594 30
626 30
655 30
67,@@ 30
704 30
710 30
725 30
7th 30
91.@@ 30
910 30
912 30
915 30
961 30
Chau@@ 30
Coll@@ 30
DP@@ 30
EA 30
Ec@@ 30
Fat@@ 30
GM@@ 30
Go 30
HF 30
Ham@@ 30
Hunn@@ 30
IGN 30
ION 30
ISP 30
Io@@ 30
KA 30
Kashmir 30
L.@@ 30
Lu@@ 30
Med@@ 30
Method 30
NY@@ 30
PB 30
Pen@@ 30
Rap@@ 30
Rock 30
S2 30
Sak@@ 30
Self 30
Sub 30
Survey 30
T3 30
TNA 30
Tag@@ 30
Tu@@ 30
UB 30
UM@@ 30
VW 30
WB@@ 30
What 30
Wo 30
Xia@@ 30
ae@@ 30
ail 30
alg@@ 30
amar@@ 30
andra 30
better 30
binary 30
birds 30
central 30
cho@@ 30
conservation 30
eng 30
established 30
eti 30
false 30
follow 30
fusion 30
greater 30
hari 30
him@@ 30
hra 30
immun@@ 30
ind 30
instead 30
instrument 30
ipur 30
ire 30
jav@@ 30
kin@@ 30
lands 30
larger 30
laws 30
lic 30
logic 30
loss 30
maps 30
materials 30
med@@ 30
members 30
operations 30
ots 30
pa@@ 30
por@@ 30
quadrangle 30
radius 30
seven 30
sha@@ 30
shell 30
shi 30
significant 30
status 30
taken 30
tel@@ 30
tions 30
ture 30
usually 30
virus 30
writing 30
yet 30
you@@ 30
ys@@ 30
zh@@ 30
¾ 30
á 30
ã@@ 30
Д@@ 30
Х@@ 30
к 30
м 30
ос@@ 30
ш@@ 30
आतंक@@ 30
णाधीन 30
ু 30
ବ@@ 30
ந@@ 30
ோ@@ 30
ತ 30
മ 30
0.15 29
10.3 29
1194 29
1210 29
1311 29
1375 29
1440 29
1537 29
1645 29
2,200 29
2O@@ 29
32,000 29
349 29
437 29
447 29
471 29
58,@@ 29
581 29
605 29
615 29
631 29
639 29
652 29
732 29
788 29
80,@@ 29
802 29
811 29
872 29
878 29
901 29
916 29
968 29
975 29
977 29
993 29
9th 29
AJ@@ 29
AO 29
Alexander 29
Au 29
BT@@ 29
Bat@@ 29
Bro@@ 29
Bruno 29
Bureau 29
CDI 29
CDS 29
CIO 29
Ca 29
Canis 29
Cham@@ 29
Chemical 29
D2 29
Dam@@ 29
Dand@@ 29
FL@@ 29
Festival 29
Fin@@ 29
Food 29
Frederick 29
Gandhi 29
Gn@@ 29
Greek 29
ID@@ 29
ISI 29
Inc 29
Ir@@ 29
Jo@@ 29
KS 29
Light 29
Lim@@ 29
Modern 29
More 29
NATO 29
NF 29
Naval 29
O.@@ 29
Organisation 29
Out@@ 29
Page 29
Peri@@ 29
Pin@@ 29
RD 29
Ram 29
Roman 29
Russian 29
Sc 29
Sud@@ 29
Top@@ 29
UR 29
UT 29
V1 29
VR 29
W.@@ 29
Win@@ 29
XIX 29
YA 29
active 29
aji 29
although 29
applied 29
arc 29
arc@@ 29
atta 29
awa 29
award 29
bah@@ 29
ban@@ 29
bat 29
began 29
cavity 29
changes 29
che 29
ction 29
death 29
domain 29
dot 29
e- 29
ech@@ 29
ela 29
equ@@ 29
exposure 29
ext@@ 29
face 29
famous 29
fever 29
fin@@ 29
fish 29
ga@@ 29
gave 29
genic 29
give 29
hex@@ 29
hpur 29
hypo@@ 29
icus 29
induc@@ 29
inus 29
jar 29
jun@@ 29
legal 29
lit@@ 29
located 29
los 29
lost 29
medical 29
mil@@ 29
mor@@ 29
movement 29
never 29
ocene 29
ologist 29
oni@@ 29
org 29
philosophy 29
pm 29
rates 29
read 29
relationship 29
runners 29
sen 29
steel 29
tan@@ 29
tial 29
tus 29
uch@@ 29
uti@@ 29
various 29
ver 29
via 29
vision 29
vism 29
wala 29
Н@@ 29
од@@ 29
ش 29
एलिजा@@ 29
धरो@@ 29
স 29
ಯ@@ 29
ത 29
ེ@@ 29
ྲ@@ 29
0.03 28
10.9 28
11.2 28
1215 28
1279 28
1330 28
1351 28
1368 28
1405 28
1433 28
1469 28
1484 28
1548 28
1581 28
1599 28
1673 28
31,@@ 28
32,@@ 28
374 28
388 28
397 28
454 28
462 28
4x@@ 28
509 28
536 28
564 28
60.@@ 28
612 28
621 28
647 28
672 28
690 28
717 28
727 28
762 28
825 28
835 28
879 28
890 28
952 28
991 28
AAA 28
ACT 28
ASB 28
Ah@@ 28
Ali@@ 28
Amazon@@ 28
Area 28
Arts 28
BH@@ 28
Billboard 28
Bra@@ 28
CCI 28
CPR 28
Chal@@ 28
Cro@@ 28
DMA 28
Def@@ 28
Dom@@ 28
F2 28
Falls 28
Ferrari 28
Fil@@ 28
Fl@@ 28
Fre@@ 28
Ger@@ 28
Gun@@ 28
Hir@@ 28
ICS 28
Jod@@ 28
K2 28
KL@@ 28
Khal@@ 28
Main 28
Max 28
May@@ 28
Muk@@ 28
NY 28
Now 28
OS@@ 28
PCI 28
PHP 28
Pay@@ 28
PlayStation 28
Pter@@ 28
QM 28
RI 28
RS@@ 28
Raw 28
Reg@@ 28
Shock 28
Sik@@ 28
Sn@@ 28
Star@@ 28
Street 28
Study 28
Swar@@ 28
T20 28
TI 28
Technical 28
Ti 28
Tro@@ 28
Ts 28
UD 28
UM 28
Urdu 28
Vin@@ 28
Washington 28
XY 28
absolute 28
akk@@ 28
alle 28
ancy 28
ander 28
anta 28
ayan 28
ble 28
blue 28
bor@@ 28
building 28
came 28
che@@ 28
colors 28
complete 28
content 28
controlled 28
crystal 28
deep 28
digital 28
discrete 28
eh 28
ep 28
eps 28
escence 28
expansion 28
fa 28
fal@@ 28
fe@@ 28
fil@@ 28
files 28
financial 28
formation 28
gan@@ 28
gn@@ 28
gra@@ 28
growth 28
heter@@ 28
illary 28
immune 28
induction 28
inverse 28
iron 28
ith 28
lan 28
levels 28
lor@@ 28
love 28
middle 28
office 28
ogram 28
ologists 28
ometry 28
onal 28
ope 28
partial 28
pen@@ 28
plate 28
played 28
print 28
rem@@ 28
rest 28
ric 28
sand 28
seen 28
sequence 28
sides 28
sion 28
sky 28
son@@ 28
str@@ 28
stri@@ 28
studies 28
sub 28
tax 28
tem@@ 28
thermal 28
town 28
translation 28
vid 28
wa@@ 28
ware 28
wh@@ 28
write 28
y.@@ 28
¿ 28
án@@ 28
ç 28
Đ@@ 28
ɪ 28
ле@@ 28
ֹ@@ 28
כ@@ 28
औरंग@@ 28
लिवर@@ 28
सदीय 28
এ@@ 28
ਵ@@ 28
ੋ@@ 28
ે 28
ந 28
ూ@@ 28
ె@@ 28
ย@@ 28
ད 28
≈ 28
ン@@ 28
本@@ 28
1170 27
12.3 27
1225 27
1240 27
1260 27
1343 27
1420 27
1486 27
1487 27
1502 27
1508 27
1514 27
1559 27
1592 27
1595 27
1604 27
1607 27
1662 27
1741 27
27,000 27
3200 27
3300 27
36,000 27
379 27
387 27
407 27
416 27
422 27
426 27
428 27
429 27
431 27
484 27
488 27
518 27
526 27
538 27
551 27
57,@@ 27
589 27
5th 27
638 27
678 27
713 27
735 27
757 27
767 27
809 27
812 27
815 27
836 27
8th 27
9.4 27
9.9 27
902 27
926 27
953 27
962 27
972 27
974 27
996 27
AFI 27
AMD 27
ASS 27
Agricultural 27
Alt 27
Ara@@ 27
Arm@@ 27
Asian 27
Australian 27
Awards 27
Bam@@ 27
Band@@ 27
Beach 27
Bihar 27
Bis@@ 27
CCC 27
Cant@@ 27
Club 27
Conference 27
Declaration 27
Early 27
Environment 27
Era 27
FD 27
Family 27
Germany 27
GmbH 27
Hyper@@ 27
ITU 27
Imp@@ 27
Iron 27
It@@ 27
J.@@ 27
JT@@ 27
Jacques 27
Japanese 27
KN@@ 27
Later 27
Legal 27
Lin 27
Mol@@ 27
NW@@ 27
Nokia 27
Ori@@ 27
PH@@ 27
PP 27
PS@@ 27
Palae@@ 27
Pass@@ 27
Plan@@ 27
Pt 27
Punjab 27
Rak@@ 27
Real 27
Ret@@ 27
SUV 27
Shah 27
Smith 27
Southern 27
T4 27
Tha@@ 27
Trade 27
Training 27
Vir@@ 27
Wik@@ 27
XL@@ 27
XXX 27
actin@@ 27
ake 27
alization 27
anc@@ 27
angles 27
aran 27
atics 27
aut@@ 27
bad 27
big 27
billion 27
bre@@ 27
bur@@ 27
charged 27
chemicals 27
chen 27
clear 27
college 27
comp@@ 27
compounds 27
concentration 27
constellation 27
eb 27
eri@@ 27
error 27
especially 27
etc 27
eus 27
ever 27
fission 27
fly 27
former 27
gold 27
hil@@ 27
hole 27
iOS 27
incident 27
intelligence 27
isp@@ 27
itation 27
itself 27
ja@@ 27
kin 27
kind 27
lap@@ 27
lar@@ 27
least 27
letter 27
lower 27
mal 27
mit@@ 27
mother 27
mul@@ 27
news@@ 27
night 27
nu@@ 27
ocar@@ 27
once 27
ool 27
oplas@@ 27
otrop@@ 27
oy 27
pay@@ 27
pora 27
processes 27
reading 27
relations 27
rock 27
sah@@ 27
sector 27
selection 27
semi 27
sha 27
sing 27
sort 27
sq 27
sts 27
sul@@ 27
ters 27
thir@@ 27
though 27
together 27
tract 27
training 27
triangle 27
turn 27
ural 27
vit@@ 27
wind 27
ww@@ 27
¥ 27
º@@ 27
Ð 27
ār@@ 27
ι 27
он@@ 27
ы 27
я 27
ंपरिक 27
कुशी@@ 27
तुग@@ 27
तेलु@@ 27
यंकर 27
रणार 27
ऴ@@ 27
शतर@@ 27
ॐ@@ 27
१९९@@ 27
ড 27
ੀ@@ 27
ட 27
ற@@ 27
ದ 27
ೆ 27
ೆ@@ 27
ೇ@@ 27
േ@@ 27
ม@@ 27
མ 27
.D. 26
0000 26
004 26
006 26
10.2 26
1015 26
1111 26
12.7 26
1424 26
1444 26
1460 26
1490 26
1513 26
1566 26
1571 26
1578 26
1579 26
1587 26
1663 26
1676 26
1681 26
186@@ 26
2000@@ 26
2026 26
2C 26
3A 26
424 26
446 26
450,000 26
452 26
472 26
485 26
493 26
499 26
503 26
521 26
531 26
567 26
633 26
637 26
64,@@ 26
643 26
654 26
667 26
673 26
70,@@ 26
701 26
745 26
753 26
778 26
817 26
822 26
823 26
826 26
855 26
882 26
923 26
998 26
APA 26
AV 26
AVN 26
Advanced 26
Af@@ 26
Amar@@ 26
Ay@@ 26
BG 26
Back@@ 26
Box 26
Climate 26
Convention 26
Culture 26
E2 26
Ed 26
Edge 26
Foreign 26
François 26
Fund 26
GN 26
Gad@@ 26
Gr@@ 26
Gran@@ 26
HS@@ 26
Hall 26
Here 26
Hussain 26
ICD 26
ICE 26
Industry 26
Krishna 26
Lal 26
Lap@@ 26
Li 26
MAC 26
Meg@@ 26
Mental 26
Michael 26
Mot@@ 26
Muhammad 26
Nan@@ 26
Nature 26
Number 26
OL 26
OP@@ 26
Ol@@ 26
Organ@@ 26
P2 26
PEG 26
PGA 26
Pak@@ 26
Pierre 26
QS 26
RP@@ 26
Range 26
Rud@@ 26
SK 26
SPL 26
Sul@@ 26
Tap@@ 26
Tran@@ 26
Treaty 26
Type 26
U.@@ 26
Up@@ 26
Upper 26
V.@@ 26
Vik@@ 26
WTO 26
Wei@@ 26
account 26
arg@@ 26
atom 26
available 26
bias 26
birth 26
bs 26
cancer 26
care 26
cin@@ 26
cop@@ 26
dem@@ 26
dev 26
died 26
dis 26
economics 26
ein 26
ein@@ 26
ele 26
ended 26
erg@@ 26
eter 26
eye 26
ez@@ 26
factors 26
file 26
fire 26
gal@@ 26
get@@ 26
glass 26
idi@@ 26
includes 26
infection 26
injury 26
interaction 26
ique 26
ista 26
jap@@ 26
kk@@ 26
ky@@ 26
lateral 26
limited 26
monument 26
move 26
mya 26
ogenesis 26
ographic 26
omet@@ 26
orbit 26
outside 26
path 26
problems 26
ree 26
reference 26
rotation 26
sch@@ 26
scientific 26
sec@@ 26
security 26
ship 26
sid@@ 26
stroke 26
strong 26
sy 26
themselves 26
too 26
treatment 26
unda 26
vic@@ 26
visual 26
yak@@ 26
zz@@ 26
Ü@@ 26
ó 26
Κ@@ 26
ης 26
Л@@ 26
Т@@ 26
ский 26
ա@@ 26
ٹ@@ 26
थुन 26
भिकिया@@ 26
ই@@ 26
ঙ 26
ੁ@@ 26
્ 26
ை@@ 26
స@@ 26
ക 26
ട@@ 26
ก@@ 26
น@@ 26
ิ@@ 26
เ@@ 26
ག 26
ི@@ 26
01@@ 25
10.6 25
1020 25
13.3 25
1415 25
1470 25
1475 25
1507 25
1549 25
1563 25
1573 25
1584 25
1637 25
19th 25
1B 25
28,000 25
346 25
393 25
459 25
473 25
478 25
489 25
492 25
5,500 25
597 25
635 25
65.@@ 25
653 25
662 25
671 25
694 25
718 25
734 25
75,@@ 25
838 25
866 25
871 25
877 25
908 25
921 25
936 25
951 25
AK 25
AWA 25
Aer@@ 25
BASIC 25
BJP 25
Bet@@ 25
Bill 25
CNBC 25
Championships 25
Cognitive 25
Current 25
DG@@ 25
DVDs 25
Dak@@ 25
Design 25
Dra@@ 25
Explorer 25
FL 25
Fac@@ 25
Friedrich 25
GR@@ 25
GW 25
Game 25
Gau@@ 25
Gl@@ 25
HA@@ 25
Harry 25
How 25
IPO 25
Japan 25
Key 25
Kher@@ 25
Kir@@ 25
Kus@@ 25
LG 25
LGBT 25
Laboratory 25
Let 25
Lor@@ 25
Mars 25
Mathematical 25
Mission 25
Motion 25
Muslim 25
NAACP 25
Nah@@ 25
Northern 25
OK 25
Oc@@ 25
Ok@@ 25
One@@ 25
PBS 25
PDF 25
Pand@@ 25
Physical 25
Policy 25
Psychology 25
Radio 25
Rah@@ 25
Retri@@ 25
SPs 25
Score 25
Sit@@ 25
Sm@@ 25
Sor@@ 25
Statistical 25
Story 25
Three 25
Ton@@ 25
Twitter 25
UML 25
USS 25
VP 25
Vil@@ 25
Vit@@ 25
VoIP 25
Way 25
Wel@@ 25
While 25
Who 25
Wikipedia 25
Wimbledon 25
X.@@ 25
acquired 25
acts 25
ade 25
aff@@ 25
amine 25
anth 25
army 25
arrangement 25
associated 25
aus@@ 25
ayat 25
beat 25
bird 25
bon@@ 25
bond 25
cher@@ 25
chit@@ 25
ci 25
civil 25
commonly 25
component 25
conflict 25
core 25
count 25
ded 25
def@@ 25
derivative 25
don@@ 25
dor@@ 25
duction 25
ele@@ 25
enter@@ 25
ern@@ 25
eth 25
eva 25
ew@@ 25
forest 25
freedom 25
generally 25
global 25
gradient 25
greatest 25
guru 25
hau@@ 25
himself 25
ide@@ 25
ig 25
indu@@ 25
integer 25
interface 25
ions 25
jas@@ 25
jo@@ 25
ju 25
kha 25
kl@@ 25
knowledge 25
lec@@ 25
lep@@ 25
lex 25
mai 25
mark 25
mathematics 25
mature 25
mode 25
money 25
nag@@ 25
navigation 25
official 25
ogenic 25
ograph 25
opposite 25
opter@@ 25
organ@@ 25
par 25
polar 25
polynomial 25
pp. 25
program 25
proof 25
ras 25
reflection 25
reservoir 25
ron@@ 25
rules 25
season 25
sets 25
sn@@ 25
special 25
standards 25
ster@@ 25
tar 25
tet@@ 25
thal@@ 25
tics 25
times@@ 25
vin 25
vo@@ 25
vul@@ 25
working 25
xi@@ 25
yam 25
zer 25
ô@@ 25
÷ 25
Α@@ 25
ή@@ 25
ζ 25
ич 25
я@@ 25
ک 25
۔ 25
ंडोज 25
जतन 25
दीदा 25
नफ@@ 25
परियो@@ 25
উ@@ 25
ਬ@@ 25
ી 25
ે@@ 25
క 25
ಕ 25
ท@@ 25
ว@@ 25
ั@@ 25
འ@@ 25
ལ 25
ྫ@@ 25
တ@@ 25
ḍ@@ 25
國@@ 25
005 24
1189 24
12.4 24
12.6 24
1230 24
125,000 24
13.8 24
1388 24
1421 24
1455 24
1478 24
1496 24
15.4 24
1503 24
1678 24
1692 24
19,000 24
383 24
419 24
448 24
456 24
479 24
495 24
514 24
516 24
522 24
547 24
549 24
553 24
56,@@ 24
577 24
604 24
613 24
618 24
668 24
675 24
691 24
714 24
723 24
728 24
758 24
78,@@ 24
854 24
863 24
865 24
900,000 24
939 24
955 24
966 24
971 24
994 24
Ad 24
Amp@@ 24
Analysis 24
Another 24
Arc@@ 24
Assembly 24
Australia 24
Bay@@ 24
Beta 24
Bon@@ 24
CAN 24
CG@@ 24
CON 24
Canadian 24
Chang 24
Chang@@ 24
Coast 24
DV 24
Dim@@ 24
Electronic 24
Empire 24
Express 24
GI@@ 24
Gold 24
Good 24
HT 24
Hat@@ 24
Head 24
Heritage 24
Hom@@ 24
Hum@@ 24
IMF 24
INS 24
Ind@@ 24
Independence 24
Islands 24
KV 24
Kab@@ 24
Kum@@ 24
Lab@@ 24
Lal@@ 24
Long@@ 24
MBA 24
Men 24
Mg@@ 24
Mis@@ 24
Model 24
ND 24
NHS 24
NIH 24
NP@@ 24
Newton 24
Night 24
Olympic 24
Ortel@@ 24
Os 24
Pacific 24
Pah@@ 24
Parroqu@@ 24
Pav@@ 24
Pet@@ 24
Queen 24
Read 24
STS 24
Sank@@ 24
Sho@@ 24
Show 24
Sky@@ 24
Sound 24
Studio 24
Sug@@ 24
Sus@@ 24
TN 24
Third 24
Twenty 24
UD@@ 24
UNICEF 24
Universal 24
VGA 24
Vay@@ 24
Vs 24
Wh@@ 24
Wilhelm 24
With 24
Zi 24
ace 24
agent 24
aik@@ 24
arch 24
ars 24
asp 24
athi 24
atur@@ 24
author 24
ball 24
begin 24
bers 24
c2 24
ce@@ 24
cel@@ 24
cf 24
characters 24
chy@@ 24
claim 24
climate 24
col 24
concrete 24
cou@@ 24
court 24
crane 24
currently 24
dan@@ 24
derived 24
duct 24
dus 24
effects 24
enough 24
ering 24
etry 24
experiment 24
ext 24
forward 24
fuel 24
gene 24
gives 24
gri 24
hain 24
hair 24
historical 24
hn@@ 24
hours 24
hun@@ 24
indoor 24
intensity 24
ior 24
je 24
kari 24
lang@@ 24
lith@@ 24
liv@@ 24
lock@@ 24
loop 24
meaning 24
medi@@ 24
met 24
molar 24
months 24
nan@@ 24
next 24
num@@ 24
og 24
ophora 24
opia 24
origin 24
oti 24
ow 24
ozo@@ 24
ozoa 24
pal 24
particular 24
pass 24
pg 24
phones 24
plac@@ 24
placebo 24
project 24
raj 24
ration 24
rav@@ 24
rea 24
reduction 24
relation 24
religion 24
representation 24
ris@@ 24
serv@@ 24
ses 24
shan 24
shar@@ 24
stock 24
styl@@ 24
test@@ 24
top@@ 24
tradition 24
unique 24
upp@@ 24
ush 24
uth@@ 24
ve@@ 24
vel@@ 24
vir 24
web@@ 24
yar 24
yo 24
yog@@ 24
yon 24
young 24
yr@@ 24
ze@@ 24
¸ 24
és 24
ø@@ 24
̃ 24
μm 24
О@@ 24
д 24
ий 24
ит@@ 24
ка 24
л 24
у 24
ק@@ 24
ُ 24
इताल@@ 24
कालाढू@@ 24
णिज 24
तलह@@ 24
यायाधी@@ 24
रागै@@ 24
लकाय 24
वाराण@@ 24
संबर 24
सलमेर 24
ণ 24
ূ@@ 24
ੱ@@ 24
ମ@@ 24
ெ@@ 24
ை 24
న 24
ා@@ 24
ි@@ 24
ེ 24
ា@@ 24
█ 24
1030 23
1070 23
11.4 23
1220 23
1258 23
1301 23
1370 23
1468 23
1481 23
1495 23
1499 23
1546 23
466 23
513 23
519 23
528 23
535 23
54,@@ 23
542 23
557 23
559 23
572 23
598 23
5A 23
684 23
750,000 23
754 23
776 23
795 23
801 23
828 23
859 23
862 23
889 23
89,@@ 23
904 23
947 23
969 23
976 23
985 23
988 23
AH@@ 23
ARP 23
ASCII 23
ATP 23
Agu@@ 23
Alfred 23
Ant@@ 23
Anti 23
Bod@@ 23
Bridge 23
Bul@@ 23
C4 23
Capital 23
Card 23
Centauri 23
Chap@@ 23
Chlor@@ 23
Cup 23
Dam 23
Dead 23
Dhan@@ 23
Dic@@ 23
Disease 23
Don 23
Don@@ 23
Dum@@ 23
ESPN 23
Et@@ 23
Ey@@ 23
F3 23
Fel@@ 23
Field 23
Francis 23
Golden 23
Grammar 23
Gul@@ 23
H1 23
HO 23
Hai 23
Hard@@ 23
INA 23
Il@@ 23
Indian@@ 23
Investment 23
Jurassic 23
KP@@ 23
KR@@ 23
Karl 23
Ker@@ 23
Kud@@ 23
LP@@ 23
LV@@ 23
Learning 23
MF 23
Magnetic 23
Mi 23
Module 23
Mos@@ 23
Mr. 23
Multi@@ 23
Mut@@ 23
NAD@@ 23
NSS 23
OG 23
OM@@ 23
Ox@@ 23
Oxford 23
PD@@ 23
Phon@@ 23
Physics 23
Plan 23
Plat@@ 23
Prince 23
Q1 23
Q2 23
RP 23
Rang@@ 23
Re 23
Rel@@ 23
SNL 23
Sher@@ 23
Sl@@ 23
Square 23
Statistics 23
Stock 23
Sudanese 23
T2 23
Tak@@ 23
That 23
UA 23
UFO 23
UHF 23
Vad@@ 23
Vas@@ 23
WAP 23
WRC 23
WTA 23
Wall 23
Worker 23
aba 23
academic 23
ado 23
ahar 23
ahi 23
aja 23
alur 23
amy 23
angular 23
anic 23
arti 23
ato 23
aw 23
awan 23
ayed 23
b.@@ 23
bacteria 23
bara 23
bing 23
broad@@ 23
ca@@ 23
capacity 23
cases 23
chan@@ 23
ching 23
coil 23
communication 23
cont@@ 23
coordinates 23
cost 23
created 23
cri@@ 23
cro@@ 23
directly 23
displacement 23
dist@@ 23
doc@@ 23
duck 23
eBay 23
eal 23
ectomy 23
edge 23
ei 23
electromagnetic 23
enth@@ 23
eral 23
ession 23
fre@@ 23
friend 23
ged 23
gun 23
heart 23
hist@@ 23
hp 23
illu@@ 23
ils 23
imal 23
info 23
ink@@ 23
ising 23
itic 23
itor 23
itt@@ 23
itter 23
kal 23
lim 23
lip@@ 23
lock 23
mRNA 23
matic 23
matrix 23
measurement 23
molecular 23
momentum 23
moral 23
multi@@ 23
nar 23
nerve 23
neuroscience 23
ney 23
nouns 23
oa 23
occur 23
oriented 23
ort 23
pap@@ 23
path@@ 23
patri@@ 23
player 23
poems 23
prec@@ 23
produce 23
quantities 23
rag@@ 23
rel@@ 23
rep@@ 23
resulting 23
rics 23
role 23
saw 23
scap@@ 23
sent@@ 23
set@@ 23
sexual 23
soil 23
span 23
spec@@ 23
sun@@ 23
surgery 23
thes@@ 23
torque 23
uma 23
une 23
urai 23
v. 23
vet 23
wad 23
wadi 23
watch 23
wind@@ 23
wolf 23
worms 23
yah 23
yellow 23
yng@@ 23
yst@@ 23
¨ 23
µ@@ 23
ē 23
ŋ@@ 23
˚ 23
ζ@@ 23
στ@@ 23
ל 23
अचा@@ 23
गलस 23
समाचार@@ 23
१९६@@ 23
ঁ@@ 23
ન@@ 23
ா 23
ಡ@@ 23
ಶ@@ 23
ള@@ 23
ར 23
ྒ@@ 23
သ@@ 23
္ 23
ṇ@@ 23
↓ 23
李@@ 23
.C. 22
003 22
10.1 22
10.4 22
1095 22
11.7 22
1130 22
1324 22
1360 22
14.1 22
14.2 22
1406 22
1488 22
1489 22
1493 22
1567 22
1677 22
18.2 22
394 22
441 22
482 22
498 22
556 22
576 22
584 22
611 22
646 22
648 22
665 22
742 22
748 22
751 22
759 22
781 22
803 22
886 22
AMA 22
Activ@@ 22
Agriculture 22
Ang@@ 22
App 22
Bell 22
Br 22
Building 22
CDC 22
CK 22
Carbon 22
Carl 22
Chit@@ 22
Commonwealth 22
Cu 22
D.C. 22
DEC 22
Dat@@ 22
Der@@ 22
EN@@ 22
EV 22
Exc@@ 22
FR 22
GD 22
GL 22
Hist@@ 22
Honda 22
IMA 22
IMS 22
IOC 22
Indo 22
Its 22
Jan 22
Johann 22
Jour@@ 22
Ju@@ 22
KB 22
Kand@@ 22
Kul@@ 22
LD@@ 22
LF 22
Lac@@ 22
Lambert 22
MP3 22
Mass 22
Mathematics 22
Mg 22
Mo 22
Money 22
Mumbai 22
N3 22
NGC 22
Nat@@ 22
Ner@@ 22
Nuclear 22
Od@@ 22
Only 22
Operation 22
Original 22
PAN@@ 22
PI@@ 22
PIN 22
Pandit 22
Param@@ 22
Part 22
Peace 22
Ped@@ 22
Port 22
Pos@@ 22
Publishing 22
Rao 22
Rep@@ 22
Review 22
Rs 22
SN 22
Sant@@ 22
Sap@@ 22
Sci 22
Seven 22
Shell 22
Short 22
Soci@@ 22
Staff 22
TB 22
Taylor 22
Tehsil 22
Thus 22
Tiger 22
Tyl@@ 22
U.S.A. 22
USDA 22
Up 22
V2 22
Ven@@ 22
Vy@@ 22
WL 22
WL@@ 22
WR 22
Wil@@ 22
Work 22
XC 22
ables 22
acceleration 22
added 22
additional 22
age@@ 22
agiri 22
aim@@ 22
ais 22
alaya 22
algae 22
alk@@ 22
aman@@ 22
amin@@ 22
ances 22
anna 22
application 22
arti@@ 22
aspur 22
ass 22
asteroid 22
atch 22
audio 22
automatic 22
bes@@ 22
brain 22
break 22
cal 22
card 22
cher 22
cip@@ 22
completed 22
conducting 22
contact 22
continuous 22
dam 22
day@@ 22
defeat 22
despite 22
dh 22
divided 22
dynamic 22
eau 22
elastic 22
electronics 22
else 22
eme 22
ette 22
ev 22
eved 22
exp@@ 22
failure 22
fication 22
flu@@ 22
follows 22
fourth 22
ful 22
gain 22
gar 22
gases 22
giant 22
gon@@ 22
got 22
gran@@ 22
gravity 22
hunger 22
ichi 22
ico 22
import 22
inder 22
jec@@ 22
joint 22
kJ 22
lang 22
leading 22
lig@@ 22
lin 22
listed 22
manufacturing 22
marath@@ 22
maximum 22
mb@@ 22
meet 22
men@@ 22
meth@@ 22
microscope 22
movie 22
ning 22
nor@@ 22
numerical 22
née 22
olog@@ 22
onom@@ 22
opp@@ 22
oun@@ 22
pent@@ 22
peri@@ 22
personality 22
press 22
prime 22
qui@@ 22
rare 22
required 22
resolution 22
room 22
say 22
shown 22
strain 22
strength 22
students 22
sun 22
superior 22
tanks 22
testing 22
therefore 22
tone 22
tra 22
transmission 22
ui 22
ulator 22
uni@@ 22
union 22
usa 22
useful 22
video 22
villages 22
week 22
weight 22
wi 22
wife 22
writer 22
yc@@ 22
zoom 22
¢ 22
ée 22
ì 22
í 22
š@@ 22
Σ@@ 22
ρα@@ 22
ֶ@@ 22
צ@@ 22
ٱ@@ 22
कोरियो@@ 22
बेसब@@ 22
रीलं@@ 22
सोसाय@@ 22
জ 22
ਤ 22
ਲ 22
દ@@ 22
ལ@@ 22
ི 22
ခ@@ 22
ပ@@ 22
រ@@ 22
ṣ@@ 22
ⴰ@@ 22
.com. 21
1090 21
1099 21
11.1 21
12.2 21
12.8 21
1274 21
13.4 21
1380 21
1423 21
1473 21
1593 21
18th 21
2. 21
2.0@@ 21
382 21
42,@@ 21
423 21
434 21
436 21
463 21
464 21
469 21
511 21
532 21
554 21
585 21
587 21
608 21
609 21
724 21
743 21
752 21
806 21
842 21
844 21
851 21
896 21
93.@@ 21
932 21
946 21
948 21
967 21
AAC 21
ATE 21
Adobe 21
Although 21
Applied 21
Aqu@@ 21
Arab 21
Ath@@ 21
Author 21
Ax@@ 21
BI@@ 21
Ball 21
Be 21
Bharat 21
Black@@ 21
Block 21
Bou@@ 21
Cambridge 21
Cel@@ 21
Cen@@ 21
Century 21
Channel 21
Collection 21
Color 21
Cos@@ 21
Cru@@ 21
DA@@ 21
DIA 21
Dan 21
Drive 21
Dé@@ 21
Eastern 21
Environmental 21
Esc@@ 21
FA@@ 21
FP@@ 21
Fire 21
Flash 21
Free@@ 21
Front 21
GST 21
Gand@@ 21
Gas 21
HP@@ 21
HV@@ 21
Hall@@ 21
Her 21
Hunger 21
ING 21
IW@@ 21
Il 21
Immun@@ 21
Ireland 21
Islam 21
Joint 21
KG 21
KH@@ 21
Kod@@ 21
L1 21
Lav@@ 21
Leg@@ 21
Lewis 21
Like 21
Map 21
Maria 21
Mark 21
Miami 21
Mov@@ 21
Movement 21
Mund@@ 21
NP 21
Nand@@ 21
Non@@ 21
Not 21
Not@@ 21
OBE 21
OSI 21
Object 21
Ocean 21
PU@@ 21
PV 21
Panch@@ 21
Patt@@ 21
Pedro 21
Pic@@ 21
Prab@@ 21
Principles 21
Psychological 21
RC@@ 21
RMS 21
Radi@@ 21
References 21
Rem@@ 21
Ris@@ 21
Roh@@ 21
SAT@@ 21
SCA 21
SG@@ 21
SIM 21
Sand@@ 21
Satellite 21
Search@@ 21
Solar 21
String 21
T20I 21
TT 21
Tech@@ 21
Thal@@ 21
Then 21
U.S 21
UE@@ 21
VL 21
WG 21
WI 21
We@@ 21
Yoshi@@ 21
Zn@@ 21
according 21
agreement 21
alist 21
alle@@ 21
alu 21
ame 21
amer@@ 21
anch@@ 21
ani@@ 21
appa 21
avi 21
ays 21
band@@ 21
bel@@ 21
bis 21
blog 21
ches 21
cia 21
clinical 21
collection 21
companies 21
compared 21
conditions 21
cone 21
cricket 21
cru@@ 21
dat@@ 21
deer 21
dem 21
details 21
diode 21
dir 21
diya 21
document 21
done 21
ear 21
ear@@ 21
ech 21
edi 21
edition 21
elli 21
ement 21
entary 21
eph@@ 21
epoch 21
eum 21
expressed 21
ez 21
figures 21
find 21
flex@@ 21
formal 21
front 21
fur@@ 21
glob@@ 21
gov 21
gy 21
hal 21
hot 21
inst@@ 21
integral 21
iser 21
ital@@ 21
ition 21
ity@@ 21
jur@@ 21
las 21
layer 21
lbs 21
lev@@ 21
lie 21
lim@@ 21
logo 21
mach@@ 21
mail@@ 21
math 21
meeting 21
mission 21
month 21
morph@@ 21
moving 21
muc@@ 21
nation 21
need 21
ns@@ 21
nucle@@ 21
ogen@@ 21
ont@@ 21
ophy@@ 21
ops 21
org@@ 21
ories 21
photo@@ 21
placed 21
plus 21
practice 21
pras@@ 21
pre 21
primitive 21
provides 21
rach@@ 21
rada 21
rah 21
rational 21
reactor 21
recognition 21
regular 21
report 21
response 21
reverse 21
rig@@ 21
rin@@ 21
rology 21
rr@@ 21
rus 21
sap@@ 21
sat@@ 21
scopic 21
scrip@@ 21
sep@@ 21
shaft 21
sign 21
spot 21
spread 21
sted 21
subject 21
sych@@ 21
symmetry 21
thor@@ 21
tile 21
titles 21
tiv@@ 21
tran@@ 21
transition 21
types 21
uria 21
ux 21
wing 21
ylon 21
ù 21
ŋ 21
ʊ 21
Π@@ 21
αν@@ 21
ει@@ 21
ет@@ 21
ג@@ 21
ח@@ 21
इंजीनिय@@ 21
खजुरा@@ 21
चारिक 21
मैदा@@ 21
वांछ@@ 21
॔ 21
ও@@ 21
ষ 21
જ@@ 21
କ@@ 21
ସ@@ 21
బ@@ 21
ಬ@@ 21
ಲ 21
ಹ@@ 21
ೀ@@ 21
അ@@ 21
സ@@ 21
ာ 21
ḥ@@ 21
∞ 21
国 21
1,3 20
10.7 20
1075 20
1125 20
1187 20
1191 20
1193 20
1199 20
119@@ 20
1270 20
13.1 20
135@@ 20
1382 20
14.3 20
1441 20
1538 20
1557 20
1577 20
1654 20
369 20
396 20
417 20
443 20
474 20
491 20
497 20
52,@@ 20
541 20
548 20
574 20
593 20
664 20
679 20
681 20
682 20
692 20
700@@ 20
702 20
731 20
785 20
793 20
794 20
797 20
821 20
847 20
852 20
856 20
857 20
899 20
909 20
917 20
934 20
942 20
943 20
949 20
956 20
964 20
983 20
987 20
992 20
997 20
ABS 20
ASH 20
Agreement 20
Amazon 20
BY 20
Back 20
Bengal 20
Boyz 20
CBC 20
Case 20
Cass@@ 20
Chan@@ 20
Chem@@ 20
Cher@@ 20
Ci@@ 20
Cygn@@ 20
DS@@ 20
Delta 20
Dha@@ 20
Din@@ 20
Dr 20
Dud@@ 20
ECM 20
EL 20
Evolution 20
FTP 20
Four 20
Fourier 20
Generation 20
Gol@@ 20
Gru@@ 20
HL 20
Hin@@ 20
His@@ 20
Hot 20
Hyp@@ 20
IB 20
IE 20
Int@@ 20
Ish@@ 20
Islamic 20
Johnson 20
Jou@@ 20
KN 20
Kepler 20
Khur@@ 20
Kit@@ 20
LCD 20
Lab 20
Lag@@ 20
Lar@@ 20
Lin@@ 20
Lok@@ 20
Lon@@ 20
Lower 20
MJ 20
Mandir 20
Mant@@ 20
Mast@@ 20
Mau@@ 20
Memory 20
Mik@@ 20
NHL 20
Natur@@ 20
Om@@ 20
Orth@@ 20
Out 20
P1 20
PH 20
PNG 20
Patna 20
Ph.D. 20
Phan@@ 20
Pil@@ 20
Pres@@ 20
Prize 20
RISC 20
Rab@@ 20
Rad@@ 20
Rural 20
SAM@@ 20
SU@@ 20
Sag@@ 20
Sahib 20
Sid@@ 20
Simon 20
Soviet 20
System@@ 20
TU 20
Ta 20
Tang@@ 20
Theatre 20
Therefore 20
Tol@@ 20
Too 20
Top 20
Traditional 20
Trip@@ 20
UK@@ 20
Vehicle 20
Voltaire 20
WT@@ 20
Wi 20
Youth 20
Ze@@ 20
a1 20
aan 20
acs 20
acted 20
agic 20
almost 20
amba 20
anagar 20
ancient 20
aqu@@ 20
ards 20
aris 20
arium 20
ark@@ 20
arms 20
articles 20
assembly 20
ater 20
ator@@ 20
ature 20
aut 20
bab@@ 20
bb@@ 20
bear 20
beginning 20
bert 20
career 20
chin@@ 20
chloride 20
cle 20
competition 20
compression 20
consecutive 20
cortex 20
create 20
dea 20
decay 20
dermis 20
dielectric 20
din@@ 20
diver@@ 20
dog 20
down@@ 20
dro@@ 20
eca 20
efficiency 20
ega 20
eigen@@ 20
electricity 20
eman 20
enn@@ 20
ense 20
equality 20
evolution 20
exact 20
existence 20
feedback 20
finals 20
gate 20
gel 20
guide 20
hana 20
host 20
hypothesis 20
iana 20
ically 20
individual 20
integration 20
iop@@ 20
issue 20
ital 20
itar@@ 20
iting 20
js 20
jud@@ 20
junction 20
kernel 20
linguistics 20
magnet@@ 20
male 20
matches 20
max@@ 20
might 20
mit 20
mos 20
mud@@ 20
needs 20
not@@ 20
note 20
ocarpus 20
oh 20
ols 20
omer@@ 20
oria 20
oth 20
p.@@ 20
paper 20
past 20
pet 20
plan@@ 20
players 20
po 20
policy 20
principal 20
provide 20
provided 20
pu@@ 20
purpose 20
put 20
quar@@ 20
ques 20
rab@@ 20
railway 20
reason 20
records 20
ref@@ 20
resonance 20
ret@@ 20
revolution 20
rif@@ 20
rine 20
ring@@ 20
road 20
rol@@ 20
ror@@ 20
sal 20
sen@@ 20
separate 20
sey 20
sic 20
sight 20
southern 20
spor@@ 20
sth@@ 20
sting 20
string 20
student 20
tam 20
thesis 20
tical 20
tivity 20
try 20
ub 20
uda 20
ulate 20
umin@@ 20
uru 20
ved 20
ves@@ 20
vowel 20
want 20
wav@@ 20
website 20
wild 20
win@@ 20
yam@@ 20
yar@@ 20
ān@@ 20
ı@@ 20
ρι@@ 20
на 20
ны@@ 20
ре@@ 20
अनेका@@ 20
औस@@ 20
ताहा@@ 20
वियत@@ 20
[...]
