{
  "[Pad]": 0,
  "[SOS]": 1,
  "[EOS]": 2,
  "[UNK]": 3,
  "[MASK]": 4,
  "the": 5,
  ",": 6,
  ".": 7,
  "of": 8,
  "and": 9,
  "in": 10,
  "&quot;": 11,
  "to": 12,
  "a": 13,
  "was": 14,
  "@-@": 15,
  "The": 16,
  "is": 17,
  ")": 18,
  "(": 19,
  "for": 20,
  "as": 21,
  "on": 22,
  "with": 23,
  "by": 24,
  "&apos;s": 25,
  "that": 26,
  "at": 27,
  "from": 28,
  "his": 29,
  "In": 30,
  "an": 31,
  "he": 32,
  "were": 33,
  "which": 34,
  "are": 35,
  "it": 36,
  "He": 37,
  "also": 38,
  "had": 39,
  ";": 40,
  "be": 41,
  "or": 42,
  ":": 43,
  "has": 44,
  "–": 45,
  "first": 46,
  "It": 47,
  "their": 48,
  "one": 49,
  "its": 50,
  "who": 51,
  "but": 52,
  "not": 53,
  "her": 54,
  "two": 55,
  "have": 56,
  "this": 57,
  "been": 58,
  "&apos;": 59,
  "after": 60,
  "time": 61,
  "they": 62,
  "other": 63,
  "into": 64,
  "A": 65,
  "she": 66,
  "all": 67,
  "On": 68,
  "%": 69,
  "more": 70,
  "New": 71,
  "when": 72,
  "would": 73,
  "years": 74,
  "over": 75,
  "up": 76,
  "/": 77,
  "1": 78,
  "This": 79,
  "during": 80,
  "where": 81,
  "year": 82,
  "only": 83,
  "season": 84,
  "new": 85,
  "between": 86,
  "three": 87,
  "made": 88,
  "out": 89,
  "him": 90,
  "later": 91,
  "then": 92,
  "United": 93,
  "&amp;": 94,
  "used": 95,
  "known": 96,
  "such": 97,
  "most": 98,
  "about": 99,
  "American": 100,
  "2": 101,
  "can": 102,
  "team": 103,
  "became": 104,
  "part": 105,
  "University": 106,
  "under": 107,
  "She": 108,
  "born": 109,
  "well": 110,
  "than": 111,
  "including": 112,
  "I": 113,
  "film": 114,
  "being": 115,
  "there": 116,
  "some": 117,
  "second": 118,
  "against": 119,
  "through": 120,
  "de": 121,
  "After": 122,
  "3": 123,
  "before": 124,
  "while": 125,
  "many": 126,
  "work": 127,
  "until": 128,
  "World": 129,
  "them": 130,
  "both": 131,
  "family": 132,
  "people": 133,
  "States": 134,
  "played": 135,
  "album": 136,
  "s": 137,
  "no": 138,
  "National": 139,
  "name": 140,
  "released": 141,
  "number": 142,
  "series": 143,
  "won": 144,
  "life": 145,
  "area": 146,
  "As": 147,
  "school": 148,
  "may": 149,
  "4": 150,
  "called": 151,
  "four": 152,
  "i": 153,
  "May": 154,
  "March": 155,
  "September": 156,
  "January": 157,
  "career": 158,
  "June": 159,
  "several": 160,
  "October": 161,
  "following": 162,
  "early": 163,
  "state": 164,
  "July": 165,
  "same": 166,
  "city": 167,
  "August": 168,
  "School": 169,
  "John": 170,
  "South": 171,
  "game": 172,
  "April": 173,
  "based": 174,
  "They": 175,
  "began": 176,
  "found": 177,
  "November": 178,
  "these": 179,
  "use": 180,
  "since": 181,
  "10": 182,
  "December": 183,
  "will": 184,
  "His": 185,
  "5": 186,
  "end": 187,
  "County": 188,
  "so": 189,
  "amp": 190,
  "group": 191,
  "held": 192,
  "located": 193,
  "At": 194,
  "age": 195,
  "place": 196,
  "6": 197,
  "War": 198,
  "York": 199,
  "government": 200,
  "$": 201,
  "man": 202,
  "former": 203,
  "There": 204,
  "State": 205,
  "February": 206,
  "named": 207,
  "member": 208,
  "British": 209,
  "took": 210,
  "high": 211,
  "century": 212,
  "population": 213,
  "each": 214,
  "City": 215,
  "League": 216,
  "served": 217,
  "music": 218,
  "2010": 219,
  "now": 220,
  "o": 221,
  "back": 222,
  "station": 223,
  "’": 224,
  "day": 225,
  "company": 226,
  "song": 227,
  "son": 228,
  "However": 229,
  "-": 230,
  "received": 231,
  "did": 232,
  "any": 233,
  "home": 234,
  "around": 235,
  "2011": 236,
  "North": 237,
  "built": 238,
  "line": 239,
  "could": 240,
  "7": 241,
  "due": 242,
  "long": 243,
  "town": 244,
  "single": 245,
  "local": 246,
  "2012": 247,
  "left": 248,
  "along": 249,
  "like": 250,
  "12": 251,
  "During": 252,
  "system": 253,
  "History": 254,
  "off": 255,
  "2014": 256,
  "died": 257,
  "five": 258,
  "species": 259,
  "band": 260,
  "public": 261,
  "2016": 262,
  "20": 263,
  "include": 264,
  "2015": 265,
  "2013": 266,
  "members": 267,
  "led": 268,
  "18": 269,
  "8": 270,
  "final": 271,
  "set": 272,
  "said": 273,
  "published": 274,
  "within": 275,
  "club": 276,
  "2008": 277,
  "2009": 278,
  "un@@": 279,
  "large": 280,
  "because": 281,
  "building": 282,
  "15": 283,
  "al": 284,
  "T@@": 285,
  "own": 286,
  "men": 287,
  "2017": 288,
  "2018": 289,
  "included": 290,
  "side": 291,
  "world": 292,
  "village": 293,
  "third": 294,
  "2019": 295,
  "For": 296,
  "small": 297,
  "2007": 298,
  "French": 299,
  "2006": 300,
  "show": 301,
  "College": 302,
  "death": 303,
  "S@@": 304,
  "national": 305,
  "9": 306,
  "children": 307,
  "last": 308,
  "election": 309,
  "football": 310,
  "moved": 311,
  "2020": 312,
  "&#91;": 313,
  "&#93;": 314,
  "main": 315,
  "M@@": 316,
  "play": 317,
  "West": 318,
  "English": 319,
  "11": 320,
  "y": 321,
  "those": 322,
  "District": 323,
  "million": 324,
  "history": 325,
  "land": 326,
  "if": 327,
  "still": 328,
  "women": 329,
  "German": 330,
  "30": 331,
  "another": 332,
  "service": 333,
  "very": 334,
  "N@@": 335,
  "major": 336,
  "form": 337,
  "—": 338,
  "P@@": 339,
  "often": 340,
  "International": 341,
  "16": 342,
  "old": 343,
  "ing": 344,
  "book": 345,
  "II": 346,
  "B@@": 347,
  "down": 348,
  "London": 349,
  "River": 350,
  "K@@": 351,
  "re@@": 352,
  "house": 353,
  "district": 354,
  "near": 355,
  "A@@": 356,
  "north": 357,
  "U.S.": 358,
  "way": 359,
  "When": 360,
  "G@@": 361,
  "different": 362,
  "14": 363,
  "war": 364,
  "games": 365,
  "water": 366,
  "announced": 367,
  "established": 368,
  "late": 369,
  "father": 370,
  "country": 371,
  "19": 372,
  "All": 373,
  "best": 374,
  "House": 375,
  "again": 376,
  "record": 377,
  "Cup": 378,
  "original": 379,
  "u": 380,
  "y@@": 381,
  "US": 382,
  "started": 383,
  "D@@": 384,
  "13": 385,
  "role": 386,
  "south": 387,
  "able": 388,
  "six": 389,
  "order": 390,
  "title": 391,
  "One": 392,
  "do": 393,
  "top": 394,
  "went": 395,
  "in@@": 396,
  "25": 397,
  "O@@": 398,
  "head": 399,
  "period": 400,
  "L@@": 401,
  "H@@": 402,
  "came": 403,
  "_": 404,
  "law": 405,
  "what": 406,
  "field": 407,
  "much": 408,
  "support": 409,
  "joined": 410,
  "17": 411,
  "worked": 412,
  "among": 413,
  "just": 414,
  "es": 415,
  "C@@": 416,
  "England": 417,
  "2005": 418,
  "E@@": 419,
  "make": 420,
  "2021": 421,
  "produced": 422,
  "wrote": 423,
  "F@@": 424,
  "having": 425,
  "general": 426,
  "given": 427,
  "described": 428,
  "married": 429,
  "become": 430,
  "next": 431,
  "24": 432,
  "These": 433,
  "using": 434,
  "community": 435,
  "player": 436,
  "development": 437,
  "total": 438,
  "European": 439,
  "non": 440,
  "returned": 441,
  "&apos;@@": 442,
  "various": 443,
  "Park": 444,
  "per": 445,
  "R@@": 446,
  "General": 447,
  "power": 448,
  "East": 449,
  "William": 450,
  "created": 451,
  "2000": 452,
  "even": 453,
  "political": 454,
  "From": 455,
  "written": 456,
  "2004": 457,
  "W@@": 458,
  "production": 459,
  "21": 460,
  "Church": 461,
  "works": 462,
  "Australia": 463,
  "site": 464,
  "co": 465,
  "us": 466,
  "ed": 467,
  "level": 468,
  "founded": 469,
  "!": 470,
  "=": 471,
  "continued": 472,
  "Party": 473,
  "India": 474,
  "however": 475,
  "Council": 476,
  "By": 477,
  "right": 478,
  "win": 479,
  "re": 480,
  "elected": 481,
  "formula": 482,
  "Army": 483,
  "According": 484,
  "round": 485,
  "France": 486,
  "High": 487,
  "Street": 488,
  "take": 489,
  "few": 490,
  "position": 491,
  "point": 492,
  "students": 493,
  "church": 494,
  "Division": 495,
  "west": 496,
  "military": 497,
  "region": 498,
  "James": 499,
  "George": 500,
  "King": 501,
  "without": 502,
  "party": 503,
  "100": 504,
  "less": 505,
  "signed": 506,
  "22": 507,
  "times": 508,
  "match": 509,
  "east": 510,
  "days": 511,
  "opened": 512,
  "event": 513,
  "San": 514,
  "V@@": 515,
  "lost": 516,
  "St.": 517,
  "President": 518,
  "ar": 519,
  "considered": 520,
  "recorded": 521,
  "present": 522,
  "professional": 523,
  "version": 524,
  "run": 525,
  "television": 526,
  "California": 527,
  "half": 528,
  "making": 529,
  "short": 530,
  "full": 531,
  "appointed": 532,
  "international": 533,
  "an@@": 534,
  "America": 535,
  "language": 536,
  "Canada": 537,
  "c@@": 538,
  "debut": 539,
  "education": 540,
  "I@@": 541,
  "2003": 542,
  "research": 543,
  "style": 544,
  "&apos;t": 545,
  "J@@": 546,
  "art": 547,
  "together": 548,
  "e": 549,
  "0": 550,
  "formed": 551,
  "d": 552,
  "23": 553,
  "program": 554,
  "story": 555,
  "wife": 556,
  "With": 557,
  "Association": 558,
  "important": 559,
  "m": 560,
  "further": 561,
  "working": 562,
  "appeared": 563,
  "Union": 564,
  "areas": 565,
  "p@@": 566,
  "ar@@": 567,
  "2002": 568,
  "Early": 569,
  "class": 570,
  "release": 571,
  "video": 572,
  "ers": 573,
  "er": 574,
  "Royal": 575,
  "While": 576,
  "B": 577,
  "lead": 578,
  "term": 579,
  "Australian": 580,
  "teams": 581,
  "2001": 582,
  "points": 583,
  "addition": 584,
  "result": 585,
  "playing": 586,
  "TV": 587,
  "developed": 588,
  "case": 589,
  "office": 590,
  "business": 591,
  "am": 592,
  "“": 593,
  "Indian": 594,
  "control": 595,
  "”": 596,
  "Award": 597,
  "Club": 598,
  "O": 599,
  "average": 600,
  "every": 601,
  "t@@": 602,
  "Championship": 603,
  "director": 604,
  "although": 605,
  "similar": 606,
  "28": 607,
  "Y@@": 608,
  "example": 609,
  "others": 610,
  "Germany": 611,
  "26": 612,
  "First": 613,
  "social": 614,
  "himself": 615,
  "league": 616,
  "27": 617,
  "away": 618,
  "across": 619,
  "design": 620,
  "s@@": 621,
  "popular": 622,
  "k@@": 623,
  "race": 624,
  "project": 625,
  "David": 626,
  "president": 627,
  "list": 628,
  "services": 629,
  "Road": 630,
  "common": 631,
  "living": 632,
  "Company": 633,
  "events": 634,
  "China": 635,
  "...": 636,
  "ia": 637,
  "live": 638,
  "gt": 639,
  "Central": 640,
  "finished": 641,
  "body": 642,
  "b@@": 643,
  "sold": 644,
  "though": 645,
  "Z@@": 646,
  "g@@": 647,
  "al@@": 648,
  "Court": 649,
  "d@@": 650,
  "daughter": 651,
  "Group": 652,
  "Some": 653,
  "free": 654,
  "U@@": 655,
  "how": 656,
  "mother": 657,
  "lt": 658,
  "ate": 659,
  "gave": 660,
  "we": 661,
  "Japanese": 662,
  "air": 663,
  "followed": 664,
  "Europe": 665,
  "never": 666,
  "ch@@": 667,
  "months": 668,
  "1999": 669,
  "Music": 670,
  "Thomas": 671,
  "road": 672,
  "white": 673,
  "character": 674,
  "construction": 675,
  "h@@": 676,
  "29": 677,
  "performed": 678,
  "completed": 679,
  "Air": 680,
  "Robert": 681,
  "designed": 682,
  "Japan": 683,
  "taken": 684,
  "coach": 685,
  "largest": 686,
  "o@@": 687,
  "UK": 688,
  "Washington": 689,
  "reported": 690,
  "open": 691,
  "Her": 692,
  "modern": 693,
  "available": 694,
  "Charles": 695,
  "young": 696,
  "seven": 697,
  "Center": 698,
  "n@@": 699,
  "remained": 700,
  "j@@": 701,
  "once": 702,
  "An": 703,
  "e@@": 704,
  "Western": 705,
  "v@@": 706,
  "should": 707,
  "players": 708,
  "1998": 709,
  "Hall": 710,
  "track": 711,
  "am@@": 712,
  "songs": 713,
  "Other": 714,
  "Institute": 715,
  "process": 716,
  "stage": 717,
  "originally": 718,
  "Department": 719,
  "brother": 720,
  "et": 721,
  "Russian": 722,
  "low": 723,
  "Since": 724,
  "study": 725,
  "directed": 726,
  "refer": 727,
  "current": 728,
  "return": 729,
  "great": 730,
  "features": 731,
  "Chinese": 732,
  "eight": 733,
  "os": 734,
  "leading": 735,
  "performance": 736,
  "1996": 737,
  "official": 738,
  "k": 739,
  "Although": 740,
  "Island": 741,
  "en@@": 742,
  "includes": 743,
  "Paul": 744,
  "throughout": 745,
  "training": 746,
  "help": 747,
  "Society": 748,
  "Canadian": 749,
  "forces": 750,
  "groups": 751,
  "m@@": 752,
  "go": 753,
  "awarded": 754,
  "featured": 755,
  "post": 756,
  "range": 757,
  "does": 758,
  "African": 759,
  "seen": 760,
  "schools": 761,
  "currently": 762,
  "involved": 763,
  "50": 764,
  "1997": 765,
  "added": 766,
  "stated": 767,
  "information": 768,
  "eventually": 769,
  "see": 770,
  "i@@": 771,
  "Minister": 772,
  "sent": 773,
  "ten": 774,
  "episode": 775,
  "Its": 776,
  "good": 777,
  "u@@": 778,
  "ation": 779,
  "you": 780,
  "black": 781,
  "Academy": 782,
  "countries": 783,
  "C": 784,
  "degree": 785,
  "replaced": 786,
  "Act": 787,
  "Women": 788,
  "central": 789,
  "light": 790,
  "t": 791,
  "either": 792,
  "usually": 793,
  "on@@": 794,
  "families": 795,
  "get": 796,
  "winning": 797,
  "31": 798,
  "ship": 799,
  "special": 800,
  "human": 801,
  "Africa": 802,
  "private": 803,
  "ine": 804,
  "1995": 805,
  "fourth": 806,
  "placed": 807,
  "close": 808,
  "competition": 809,
  "or@@": 810,
  "police": 811,
  "provided": 812,
  "at@@": 813,
  "court": 814,
  "1994": 815,
  "1992": 816,
  "killed": 817,
  "reached": 818,
  "ic": 819,
  "college": 820,
  "center": 821,
  "Great": 822,
  "must": 823,
  "fire": 824,
  "previous": 825,
  "To": 826,
  "km": 827,
  "Spanish": 828,
  "car": 829,
  "ad@@": 830,
  "List": 831,
  "Michael": 832,
  "above": 833,
  "upon": 834,
  "Italian": 835,
  "rights": 836,
  "Henry": 837,
  "states": 838,
  "Lake": 839,
  "type": 840,
  "radio": 841,
  "least": 842,
  "via": 843,
  "le": 844,
  "el@@": 845,
  "f@@": 846,
  "Best": 847,
  "Al@@": 848,
  "owned": 849,
  "media": 850,
  "a@@": 851,
  "Football": 852,
  "aircraft": 853,
  "attended": 854,
  "St": 855,
  "saw": 856,
  "front": 857,
  "di@@": 858,
  "change": 859,
  "board": 860,
  "listed": 861,
  "scored": 862,
  "l@@": 863,
  "contract": 864,
  "Republic": 865,
  "ended": 866,
  "section": 867,
  "campaign": 868,
  "size": 869,
  "decided": 870,
  "D": 871,
  "Awards": 872,
  "railway": 873,
  "de@@": 874,
  "White": 875,
  "ground": 876,
  "space": 877,
  "shows": 878,
  "rock": 879,
  "action": 880,
  "dis@@": 881,
  "active": 882,
  "ated": 883,
  "introduced": 884,
  "female": 885,
  "c": 886,
  "Mar@@": 887,
  "census": 888,
  "er@@": 889,
  "attack": 890,
  "related": 891,
  "40": 892,
  "films": 893,
  "Career": 894,
  "Ireland": 895,
  "Saint": 896,
  "1993": 897,
  "Texas": 898,
  "river": 899,
  "success": 900,
  "1990": 901,
  "goal": 902,
  "studio": 903,
  "previously": 904,
  "la": 905,
  "Museum": 906,
  "Following": 907,
  "1991": 908,
  "parts": 909,
  "z@@": 910,
  "Education": 911,
  "w@@": 912,
  "start": 913,
  "ran": 914,
  "La": 915,
  "Two": 916,
  "Kingdom": 917,
  "rather": 918,
  "books": 919,
  "ley": 920,
  "Christian": 921,
  "h": 922,
  "instead": 923,
  "R": 924,
  "Black": 925,
  "almost": 926,
  "represented": 927,
  "provide": 928,
  "ana": 929,
  "mid": 930,
  "Sh@@": 931,
  "put": 932,
  "n": 933,
  "writing": 934,
  "um": 935,
  "force": 936,
  "successful": 937,
  "Government": 938,
  "Peter": 939,
  "Art": 940,
  "model": 941,
  "tournament": 942,
  "whose": 943,
  "novel": 944,
  "Los": 945,
  "Roman": 946,
  "Paris": 947,
  "ever": 948,
  "Ch@@": 949,
  "behind": 950,
  "health": 951,
  "buildings": 952,
  "lived": 953,
  "brought": 954,
  "division": 955,
  "as@@": 956,
  "Committee": 957,
  "data": 958,
  "Later": 959,
  "movement": 960,
  "week": 961,
  "person": 962,
  "is@@": 963,
  "Grand": 964,
  "&#124;": 965,
  "defeated": 966,
  "especially": 967,
  "Catholic": 968,
  "Smith": 969,
  "en": 970,
  "possible": 971,
  "ly": 972,
  "approximately": 973,
  "met": 974,
  "Mary": 975,
  "Zealand": 976,
  "l": 977,
  "b": 978,
  "changed": 979,
  "taking": 980,
  "night": 981,
  "units": 982,
  "organization": 983,
  "outside": 984,
  "industry": 985,
  "el": 986,
  "1989": 987,
  "Championships": 988,
  "allowed": 989,
  "structure": 990,
  "ac@@": 991,
  "primary": 992,
  "northern": 993,
  "significant": 994,
  "disambiguation": 995,
  "runs": 996,
  "red": 997,
  "market": 998,
  "beginning": 999,
  "T": 1000,
  "Soviet": 1001,
  "base": 1002,
  "regular": 1003,
  "southern": 1004,
  "plays": 1005,
  "No.": 1006,
  "L": 1007,
  "1988": 1008,
  "Richard": 1009,
  "An@@": 1010,
  "Red": 1011,
  "island": 1012,
  "interest": 1013,
  "Life": 1014,
  "ro@@": 1015,
  "Olympics": 1016,
  "Festival": 1017,
  "p": 1018,
  "ap@@": 1019,
  "Summer": 1020,
  "artist": 1021,
  "towards": 1022,
  "ab@@": 1023,
  "Arts": 1024,
  "systems": 1025,
  "highest": 1026,
  "spent": 1027,
  "capital": 1028,
  "summer": 1029,
  "ton": 1030,
  "wide": 1031,
  "soon": 1032,
  "itself": 1033,
  "too": 1034,
  "hit": 1035,
  "Most": 1036,
  "little": 1037,
  "woman": 1038,
  "studies": 1039,
  "sometimes": 1040,
  "whom": 1041,
  "Bay": 1042,
  "lower": 1043,
  "closed": 1044,
  "Chicago": 1045,
  "leader": 1046,
  "independent": 1047,
  "In@@": 1048,
  "Virginia": 1049,
  "length": 1050,
  "ating": 1051,
  "traditional": 1052,
  "higher": 1053,
  "studied": 1054,
  "ina": 1055,
  "operations": 1056,
  "Film": 1057,
  "Force": 1058,
  "magazine": 1059,
  "army": 1060,
  "z": 1061,
  "Second": 1062,
  "launched": 1063,
  "thus": 1064,
  "Records": 1065,
  "es@@": 1066,
  "era": 1067,
  "county": 1068,
  "seat": 1069,
  "running": 1070,
  "generally": 1071,
  "our": 1072,
  "th@@": 1073,
  "r@@": 1074,
  "X": 1075,
  "date": 1076,
  "far": 1077,
  "it@@": 1078,
  "western": 1079,
  "entered": 1080,
  "loss": 1081,
  "route": 1082,
  "strong": 1083,
  "issues": 1084,
  "noted": 1085,
  "Bar@@": 1086,
  "future": 1087,
  "sh@@": 1088,
  "collection": 1089,
  "hand": 1090,
  "Ar@@": 1091,
  "ak@@": 1092,
  "according": 1093,
  "et@@": 1094,
  "opening": 1095,
  "Games": 1096,
  "Navy": 1097,
  "1987": 1098,
  "self": 1099,
  "required": 1100,
  "below": 1101,
  "1986": 1102,
  "Mexico": 1103,
  "#": 1104,
  "Italy": 1105,
  "network": 1106,
  "writer": 1107,
  "You": 1108,
  "king": 1109,
  "month": 1110,
  "means": 1111,
  "tour": 1112,
  "Hill": 1113,
  "child": 1114,
  "culture": 1115,
  "come": 1116,
  "E": 1117,
  "practice": 1118,
  "plant": 1119,
  "Northern": 1120,
  "Battle": 1121,
  "matches": 1122,
  "money": 1123,
  "Many": 1124,
  "genus": 1125,
  "1984": 1126,
  "1980": 1127,
  "Russia": 1128,
  "selected": 1129,
  "earlier": 1130,
  "senior": 1131,
  "If": 1132,
  "J.": 1133,
  "sea": 1134,
  "Angeles": 1135,
  "centre": 1136,
  "location": 1137,
  "om@@": 1138,
  "companies": 1139,
  "operated": 1140,
  "gold": 1141,
  "1985": 1142,
  "course": 1143,
  "results": 1144,
  "M": 1145,
  "property": 1146,
  "Greek": 1147,
  "g": 1148,
  "ai": 1149,
  "ie": 1150,
  "victory": 1151,
  "real": 1152,
  "increased": 1153,
  "individual": 1154,
  "ra@@": 1155,
  "already": 1156,
  "appearance": 1157,
  "rest": 1158,
  "author": 1159,
  "ian": 1160,
  "ya": 1161,
  "associated": 1162,
  "me": 1163,
  "room": 1164,
  "ot@@": 1165,
  "majority": 1166,
  "numerous": 1167,
  "F": 1168,
  "ant": 1169,
  "contains": 1170,
  "older": 1171,
  "activities": 1172,
  "ag@@": 1173,
  "ations": 1174,
  "decision": 1175,
  "uses": 1176,
  "food": 1177,
  "cases": 1178,
  "Joseph": 1179,
  "becoming": 1180,
  "singer": 1181,
  "bridge": 1182,
  "natural": 1183,
  "serving": 1184,
  "manager": 1185,
  "commercial": 1186,
  "Day": 1187,
  "economic": 1188,
  ".@@": 1189,
  "find": 1190,
  "competed": 1191,
  "terms": 1192,
  "x": 1193,
  "Route": 1194,
  "rate": 1195,
  "park": 1196,
  "anti": 1197,
  "move": 1198,
  "1983": 1199,
  "artists": 1200,
  "caused": 1201,
  "nine": 1202,
  "lines": 1203,
  "award": 1204,
  "initially": 1205,
  "annual": 1206,
  "income": 1207,
  "access": 1208,
  "con@@": 1209,
  "ates": 1210,
  "standard": 1211,
  "ka": 1212,
  "Board": 1213,
  "ans": 1214,
  "Sir": 1215,
  "ol@@": 1216,
  "supported": 1217,
  "student": 1218,
  "im@@": 1219,
  "Wales": 1220,
  "personal": 1221,
  "Service": 1222,
  "ah": 1223,
  "better": 1224,
  "goals": 1225,
  "der": 1226,
  "unit": 1227,
  "mostly": 1228,
  "love": 1229,
  "retired": 1230,
  "1982": 1231,
  "elections": 1232,
  "trade": 1233,
  "+": 1234,
  "Con@@": 1235,
  "additional": 1236,
  "ra": 1237,
  "university": 1238,
  "ability": 1239,
  "Irish": 1240,
  "Pacific": 1241,
  "forced": 1242,
  "particularly": 1243,
  "issue": 1244,
  "Florida": 1245,
  "Research": 1246,
  "st@@": 1247,
  "going": 1248,
  "shot": 1249,
  "past": 1250,
  "eastern": 1251,
  "Car@@": 1252,
  "claimed": 1253,
  "characters": 1254,
  "religious": 1255,
  "St@@": 1256,
  "ism": 1257,
  "chief": 1258,
  "husband": 1259,
  "limited": 1260,
  "changes": 1261,
  "Southern": 1262,
  "1972": 1263,
  "op@@": 1264,
  "ist": 1265,
  "subsequently": 1266,
  "De@@": 1267,
  "thought": 1268,
  "passed": 1269,
  "staff": 1270,
  "Valley": 1271,
  "Assembly": 1272,
  "officer": 1273,
  "complete": 1274,
  "ships": 1275,
  "earned": 1276,
  "medical": 1277,
  "1979": 1278,
  "ice": 1279,
  "feature": 1280,
  "my": 1281,
  "municipality": 1282,
  "plan": 1283,
  "Year": 1284,
  "fact": 1285,
  "championship": 1286,
  "battle": 1287,
  "raised": 1288,
  "ri@@": 1289,
  "That": 1290,
  "create": 1291,
  "science": 1292,
  "today": 1293,
  "legal": 1294,
  "politician": 1295,
  "le@@": 1296,
  "edition": 1297,
  "Public": 1298,
  "Parliament": 1299,
  "status": 1300,
  "musical": 1301,
  "1st": 1302,
  "remains": 1303,
  "management": 1304,
  "Louis": 1305,
  "da": 1306,
  "U": 1307,
  "entire": 1308,
  "programs": 1309,
  "ad": 1310,
  "Congress": 1311,
  "Province": 1312,
  "?": 1313,
  "Jewish": 1314,
  "engine": 1315,
  "Al": 1316,
  "19th": 1317,
  "forms": 1318,
  "relationship": 1319,
  "evidence": 1320,
  "1976": 1321,
  "hours": 1322,
  "score": 1323,
  "1974": 1324,
  "Har@@": 1325,
  "sister": 1326,
  "report": 1327,
  "Old": 1328,
  "wood": 1329,
  "cast": 1330,
  "sub@@": 1331,
  "S": 1332,
  "particular": 1333,
  "1981": 1334,
  "minutes": 1335,
  "cover": 1336,
  "Their": 1337,
  "word": 1338,
  "give": 1339,
  "material": 1340,
  "1945": 1341,
  "presented": 1342,
  "Spain": 1343,
  "1975": 1344,
  "helped": 1345,
  "1968": 1346,
  "energy": 1347,
  "Law": 1348,
  "1970": 1349,
  "Commission": 1350,
  "believed": 1351,
  "stone": 1352,
  "response": 1353,
  "1978": 1354,
  "referred": 1355,
  "shown": 1356,
  "specific": 1357,
  "li@@": 1358,
  "meeting": 1359,
  "Railway": 1360,
  "leaving": 1361,
  "Times": 1362,
  "weeks": 1363,
  "Democratic": 1364,
  "larger": 1365,
  "composed": 1366,
  "Martin": 1367,
  "complex": 1368,
  "basketball": 1369,
  "sports": 1370,
  "seasons": 1371,
  "Science": 1372,
  "N": 1373,
  "Despite": 1374,
  "10@@": 1375,
  "ic@@": 1376,
  "Line": 1377,
  "acquired": 1378,
  "houses": 1379,
  "famous": 1380,
  "Personal": 1381,
  "ey": 1382,
  "longer": 1383,
  "Queen": 1384,
  "offered": 1385,
  "Green": 1386,
  "em@@": 1387,
  "Empire": 1388,
  "parents": 1389,
  "ani": 1390,
  "key": 1391,
  "carried": 1392,
  "fight": 1393,
  "People": 1394,
  "takes": 1395,
  "1973": 1396,
  "remaining": 1397,
  "failed": 1398,
  "view": 1399,
  "mainly": 1400,
  "multiple": 1401,
  "III": 1402,
  "surface": 1403,
  "footballer": 1404,
  "starting": 1405,
  "increase": 1406,
  "names": 1407,
  "promoted": 1408,
  "1977": 1409,
  "oc@@": 1410,
  "Mc@@": 1411,
  "theory": 1412,
  "Eastern": 1413,
  "turn": 1414,
  "Series": 1415,
  "graduated": 1416,
  "regional": 1417,
  "Lord": 1418,
  "policy": 1419,
  "But": 1420,
  "stations": 1421,
  "200": 1422,
  "ts": 1423,
  "face": 1424,
  "need": 1425,
  "federal": 1426,
  "certain": 1427,
  "overall": 1428,
  "native": 1429,
  "source": 1430,
  "Chief": 1431,
  "cost": 1432,
  "A.": 1433,
  "got": 1434,
  "star": 1435,
  "Town": 1436,
  "Big": 1437,
  "lies": 1438,
  "themselves": 1439,
  "Station": 1440,
  "1971": 1441,
  "proposed": 1442,
  "des": 1443,
  "Conference": 1444,
  "V": 1445,
  "vote": 1446,
  "financial": 1447,
  "subject": 1448,
  "3@@": 1449,
  "deal": 1450,
  "Star": 1451,
  "Edward": 1452,
  "effect": 1453,
  "Q@@": 1454,
  "ting": 1455,
  "os@@": 1456,
  "Par@@": 1457,
  "als": 1458,
  "operation": 1459,
  "1980s": 1460,
  "ec@@": 1461,
  "medal": 1462,
  "appearances": 1463,
  "troops": 1464,
  "K": 1465,
  "Radio": 1466,
  "X@@": 1467,
  "variety": 1468,
  "consists": 1469,
  "1969": 1470,
  "separate": 1471,
  "latter": 1472,
  "male": 1473,
  "individuals": 1474,
  "Carolina": 1475,
  "command": 1476,
  "4@@": 1477,
  "Britain": 1478,
  "ur@@": 1479,
  "60": 1480,
  "Poland": 1481,
  "ak": 1482,
  "experience": 1483,
  "always": 1484,
  "turned": 1485,
  "done": 1486,
  "speed": 1487,
  "Man": 1488,
  "over@@": 1489,
  "ul@@": 1490,
  "65": 1491,
  "1967": 1492,
  "Brown": 1493,
  "cultural": 1494,
  "middle": 1495,
  "Team": 1496,
  "influence": 1497,
  "square": 1498,
  "broadcast": 1499,
  "Dutch": 1500,
  "recording": 1501,
  "marriage": 1502,
  "department": 1503,
  "civil": 1504,
  "friend": 1505,
  "train": 1506,
  "historical": 1507,
  "meaning": 1508,
  "prior": 1509,
  "ite": 1510,
  "fifth": 1511,
  "professor": 1512,
  "conditions": 1513,
  "20th": 1514,
  "£": 1515,
  "Both": 1516,
  "Man@@": 1517,
  "G": 1518,
  "act": 1519,
  "producer": 1520,
  "despite": 1521,
  "society": 1522,
  "2nd": 1523,
  "care": 1524,
  "Lee": 1525,
  "covered": 1526,
  "Open": 1527,
  "Biography": 1528,
  "attempt": 1529,
  "Bank": 1530,
  "issued": 1531,
  "responsible": 1532,
  "fall": 1533,
  "ch": 1534,
  "1964": 1535,
  "Dr.": 1536,
  "5@@": 1537,
  "sound": 1538,
  "Creek": 1539,
  "-@@": 1540,
  "1970s": 1541,
  "Prince": 1542,
  "9@@": 1543,
  "allow": 1544,
  "il@@": 1545,
  "arrived": 1546,
  "records": 1547,
  "provides": 1548,
  "Love": 1549,
  "Asian": 1550,
  "Another": 1551,
  "managed": 1552,
  "oil": 1553,
  "nearly": 1554,
  "We": 1555,
  "ang": 1556,
  "ings": 1557,
  "nearby": 1558,
  "cities": 1559,
  "foreign": 1560,
  "Mark": 1561,
  "serve": 1562,
  "recent": 1563,
  "appears": 1564,
  "Jones": 1565,
  "na": 1566,
  "Under": 1567,
  "FC": 1568,
  "border": 1569,
  "Scotland": 1570,
  "constructed": 1571,
  "movie": 1572,
  "finally": 1573,
  "plans": 1574,
  "transferred": 1575,
  "Am@@": 1576,
  "news": 1577,
  "ata": 1578,
  "administrative": 1579,
  "Per@@": 1580,
  "actor": 1581,
  "asked": 1582,
  "Latin": 1583,
  "technology": 1584,
  "Pennsylvania": 1585,
  "2022": 1586,
  "province": 1587,
  "told": 1588,
  "extended": 1589,
  "participated": 1590,
  "cut": 1591,
  "Theatre": 1592,
  "Un@@": 1593,
  "titled": 1594,
  "enough": 1595,
  "ons": 1596,
  "discovered": 1597,
  "Senate": 1598,
  "likely": 1599,
  "God": 1600,
  "primarily": 1601,
  "r": 1602,
  "Development": 1603,
  "heavy": 1604,
  "1960": 1605,
  "problems": 1606,
  "might": 1607,
  "value": 1608,
  "tracks": 1609,
  "Foundation": 1610,
  "rural": 1611,
  "saying": 1612,
  "review": 1613,
  "1965": 1614,
  "cause": 1615,
  "Order": 1616,
  "wanted": 1617,
  "test": 1618,
  "ti@@": 1619,
  "1966": 1620,
  "direct": 1621,
  "wing": 1622,
  "C.": 1623,
  "editor": 1624,
  "br": 1625,
  "Michigan": 1626,
  "council": 1627,
  "candidate": 1628,
  "residents": 1629,
  "P": 1630,
  "pre": 1631,
  "8@@": 1632,
  "alongside": 1633,
  "elements": 1634,
  "1944": 1635,
  "Ohio": 1636,
  "45": 1637,
  "Men": 1638,
  "officially": 1639,
  "se@@": 1640,
  "workers": 1641,
  "Civil": 1642,
  "double": 1643,
  "Health": 1644,
  "directly": 1645,
  "bank": 1646,
  "whether": 1647,
  "Centre": 1648,
  "levels": 1649,
  "newspaper": 1650,
  "Francisco": 1651,
  "ong": 1652,
  "leave": 1653,
  "grew": 1654,
  "nature": 1655,
  "positive": 1656,
  "products": 1657,
  "Governor": 1658,
  "cross": 1659,
  "words": 1660,
  "1990s": 1661,
  "growth": 1662,
  "Di@@": 1663,
  "Boston": 1664,
  "Republican": 1665,
  "Young": 1666,
  "ard": 1667,
  "En@@": 1668,
  "renamed": 1669,
  "households": 1670,
  "ies": 1671,
  "lives": 1672,
  "idea": 1673,
  "makes": 1674,
  "Ab@@": 1675,
  "ell": 1676,
  "projects": 1677,
  "whole": 1678,
  "Scottish": 1679,
  "Williams": 1680,
  "mission": 1681,
  "call": 1682,
  "mm": 1683,
  "2@@": 1684,
  "Asia": 1685,
  "ur": 1686,
  "host": 1687,
  "activity": 1688,
  "No": 1689,
  "continue": 1690,
  "Israel": 1691,
  "lack": 1692,
  "friends": 1693,
  "hospital": 1694,
  "Director": 1695,
  "chart": 1696,
  "security": 1697,
  "Sea": 1698,
  "numbers": 1699,
  "function": 1700,
  "label": 1701,
  "av@@": 1702,
  "Polish": 1703,
  "Secretary": 1704,
  "parish": 1705,
  "channel": 1706,
  "planned": 1707,
  "ous": 1708,
  "executive": 1709,
  "Mal@@": 1710,
  "Three": 1711,
  "Th@@": 1712,
  "ordered": 1713,
  "1960s": 1714,
  "officers": 1715,
  "Johnson": 1716,
  "here": 1717,
  "Major": 1718,
  "rule": 1719,
  "text": 1720,
  "stars": 1721,
  "conducted": 1722,
  "prominent": 1723,
  "ov": 1724,
  "intended": 1725,
  "Columbia": 1726,
  "Alexander": 1727,
  "Georgia": 1728,
  "places": 1729,
  "Fort": 1730,
  "M.": 1731,
  "notable": 1732,
  "minor": 1733,
  "appear": 1734,
  "organized": 1735,
  "fish": 1736,
  "highly": 1737,
  "youth": 1738,
  "El": 1739,
  "females": 1740,
  "Office": 1741,
  "stories": 1742,
  "Hospital": 1743,
  "moving": 1744,
  "coast": 1745,
  "ay": 1746,
  "soldiers": 1747,
  "Cor@@": 1748,
  "Highway": 1749,
  "removed": 1750,
  "commonly": 1751,
  "revealed": 1752,
  "1962": 1753,
  "divided": 1754,
  "produce": 1755,
  "Mor@@": 1756,
  "formerly": 1757,
  "1948": 1758,
  "administration": 1759,
  "Middle": 1760,
  "fully": 1761,
  "1963": 1762,
  "Avenue": 1763,
  "yet": 1764,
  "basis": 1765,
  "ancient": 1766,
  "ally": 1767,
  "quality": 1768,
  "capacity": 1769,
  "color": 1770,
  "acting": 1771,
  "My": 1772,
  "effects": 1773,
  "1942": 1774,
  "Super": 1775,
  "Re@@": 1776,
  "Historic": 1777,
  "table": 1778,
  "follows": 1779,
  "Bill": 1780,
  "500": 1781,
  "Sp@@": 1782,
  "settlement": 1783,
  "yards": 1784,
  "ma": 1785,
  "distance": 1786,
  "El@@": 1787,
  "treatment": 1788,
  "paper": 1789,
  "Sydney": 1790,
  "master": 1791,
  "singles": 1792,
  "smaller": 1793,
  "awards": 1794,
  "quickly": 1795,
  "inter@@": 1796,
  "News": 1797,
  "dedicated": 1798,
  "purchased": 1799,
  "di": 1800,
  "Also": 1801,
  "ob@@": 1802,
  "ara": 1803,
  "floor": 1804,
  "Corps": 1805,
  "qu@@": 1806,
  "charge": 1807,
  "fellow": 1808,
  "potential": 1809,
  "leaders": 1810,
  "scene": 1811,
  "initial": 1812,
  "Tour": 1813,
  "drama": 1814,
  "historic": 1815,
  "1940": 1816,
  "races": 1817,
  "facilities": 1818,
  "giving": 1819,
  "0.@@": 1820,
  "immediately": 1821,
  "assistant": 1822,
  "Coast": 1823,
  "defeat": 1824,
  "assigned": 1825,
  "é": 1826,
  "BBC": 1827,
  "focus": 1828,
  "pass": 1829,
  "forward": 1830,
  "respectively": 1831,
  "owner": 1832,
  "estimated": 1833,
  "Ministry": 1834,
  "1939": 1835,
  "median": 1836,
  "1961": 1837,
  "1941": 1838,
  "35": 1839,
  "winner": 1840,
  "join": 1841,
  "Be@@": 1842,
  "BC": 1843,
  "ville": 1844,
  "Jack": 1845,
  "ini": 1846,
  "efforts": 1847,
  "conference": 1848,
  "declared": 1849,
  "Jersey": 1850,
  "ay@@": 1851,
  "pre@@": 1852,
  "article": 1853,
  "Of": 1854,
  "types": 1855,
  "1946": 1856,
  "typically": 1857,
  "Little": 1858,
  "housing": 1859,
  "1956": 1860,
  "relations": 1861,
  "aged": 1862,
  "x@@": 1863,
  "6@@": 1864,
  "1943": 1865,
  "per@@": 1866,
  "B.": 1867,
  "Blue": 1868,
  "poor": 1869,
  "compared": 1870,
  "build": 1871,
  "physical": 1872,
  "comes": 1873,
  "inside": 1874,
  "largely": 1875,
  "founder": 1876,
  "gained": 1877,
  "firm": 1878,
  "ling": 1879,
  "needed": 1880,
  "probably": 1881,
  "format": 1882,
  "Airport": 1883,
  "Federal": 1884,
  "3rd": 1885,
  "agreed": 1886,
  "percent": 1887,
  "80": 1888,
  "yard": 1889,
  "Olympic": 1890,
  "positions": 1891,
  "coming": 1892,
  "featuring": 1893,
  "flight": 1894,
  "letter": 1895,
  "S.": 1896,
  "ending": 1897,
  "Victoria": 1898,
  "roles": 1899,
  "attention": 1900,
  "destroyed": 1901,
  "captured": 1902,
  "trial": 1903,
  "hosted": 1904,
  "si@@": 1905,
  "sc@@": 1906,
  "Illinois": 1907,
  "votes": 1908,
  "1958": 1909,
  "Post": 1910,
  "upper": 1911,
  "bus": 1912,
  "website": 1913,
  "ler": 1914,
  "ted": 1915,
  "E.": 1916,
  "cars": 1917,
  "street": 1918,
  "branch": 1919,
  "H": 1920,
  "Earth": 1921,
  "Justice": 1922,
  "stop": 1923,
  "gas": 1924,
  "Berlin": 1925,
  "museum": 1926,
  "languages": 1927,
  "Rock": 1928,
  "Jean": 1929,
  "clubs": 1930,
  "widely": 1931,
  "1950": 1932,
  "crew": 1933,
  "sources": 1934,
  "ano": 1935,
  "reach": 1936,
  "ets": 1937,
  "H.": 1938,
  "W.": 1939,
  "mixed": 1940,
  "confirmed": 1941,
  "communities": 1942,
  "hold": 1943,
  "suffered": 1944,
  "online": 1945,
  "agreement": 1946,
  "accepted": 1947,
  "Scott": 1948,
  "del": 1949,
  "direction": 1950,
  "occurred": 1951,
  "Mount": 1952,
  "od@@": 1953,
  "computer": 1954,
  "leadership": 1955,
  "ranked": 1956,
  "Each": 1957,
  "leaves": 1958,
  "operating": 1959,
  "semi": 1960,
  "meet": 1961,
  "Frank": 1962,
  "combined": 1963,
  "pay": 1964,
  "serves": 1965,
  "scoring": 1966,
  "miles": 1967,
  "estate": 1968,
  "designated": 1969,
  "territory": 1970,
  "taught": 1971,
  "metal": 1972,
  "adopted": 1973,
  "Supreme": 1974,
  "episodes": 1975,
  "Iran": 1976,
  "academic": 1977,
  "don": 1978,
  "32": 1979,
  "CD": 1980,
  "job": 1981,
  "Corporation": 1982,
  "amount": 1983,
  "ball": 1984,
  "1947": 1985,
  "product": 1986,
  "Kong": 1987,
  "90": 1988,
  "scale": 1989,
  "gun": 1990,
  "recognized": 1991,
  "ways": 1992,
  "Elizabeth": 1993,
  "therefore": 1994,
  "1957": 1995,
  "Massachusetts": 1996,
  "FM": 1997,
  "concept": 1998,
  "ov@@": 1999,
  "Hong": 2000,
  "Islands": 2001,
  "ill": 2002,
  "mentioned": 2003,
  "approach": 2004,
  "pressure": 2005,
  "ae": 2006,
  "resulted": 2007,
  "1@@": 2008,
  "Korea": 2009,
  "1959": 2010,
  "felt": 2011,
  "Before": 2012,
  "ish": 2013,
  "camp": 2014,
  "Mac@@": 2015,
  "reviews": 2016,
  "ke": 2017,
  "mass": 2018,
  "ino": 2019,
  "equipment": 2020,
  "Kar@@": 2021,
  "union": 2022,
  "hard": 2023,
  "identified": 2024,
  "70": 2025,
  "purpose": 2026,
  "ter": 2027,
  "Sports": 2028,
  "prison": 2029,
  "v": 2030,
  "draw": 2031,
  "dance": 2032,
  "committee": 2033,
  "nominated": 2034,
  "ner": 2035,
  "campus": 2036,
  "ha": 2037,
  "7@@": 2038,
  "den": 2039,
  "1952": 2040,
  "ing@@": 2041,
  "recently": 2042,
  "heart": 2043,
  "fell": 2044,
  "par@@": 2045,
  "wall": 2046,
  "cell": 2047,
  "critical": 2048,
  "Time": 2049,
  "distribution": 2050,
  "ou@@": 2051,
  "van": 2052,
  "presence": 2053,
  "expanded": 2054,
  "ists": 2055,
  "von": 2056,
  "car@@": 2057,
  "method": 2058,
  "ford": 2059,
  "Family": 2060,
  "ology": 2061,
  "keep": 2062,
  "champion": 2063,
  "Stadium": 2064,
  "albums": 2065,
  "ring": 2066,
  "plants": 2067,
  "Ad@@": 2068,
  "ne": 2069,
  "Le@@": 2070,
  "silver": 2071,
  "platform": 2072,
  "Duke": 2073,
  "account": 2074,
  "Born": 2075,
  "paid": 2076,
  "press": 2077,
  "code": 2078,
  "parties": 2079,
  "Bishop": 2080,
  "Background": 2081,
  "ary": 2082,
  "un": 2083,
  "ha@@": 2084,
  "let": 2085,
  "Professor": 2086,
  "Tom": 2087,
  "Swedish": 2088,
  "nation": 2089,
  "break": 2090,
  "1955": 2091,
  "analysis": 2092,
  "offers": 2093,
  "secondary": 2094,
  "granted": 2095,
  "buried": 2096,
  "ge": 2097,
  "og@@": 2098,
  "Mo@@": 2099,
  "Qu@@": 2100,
  "teacher": 2101,
  "remain": 2102,
  "titles": 2103,
  "Top": 2104,
  "Ma@@": 2105,
  "Home": 2106,
  "bar": 2107,
  "sky": 2108,
  "Police": 2109,
  "est": 2110,
  "Bal@@": 2111,
  "Santa": 2112,
  "voice": 2113,
  "green": 2114,
  "difficult": 2115,
  "Prime": 2116,
  "Cross": 2117,
  "except": 2118,
  "1949": 2119,
  "growing": 2120,
  "sex": 2121,
  "les": 2122,
  "solo": 2123,
  "Library": 2124,
  "minister": 2125,
  "literature": 2126,
  "Pakistan": 2127,
  "expected": 2128,
  "clear": 2129,
  "organizations": 2130,
  "reduced": 2131,
  "newly": 2132,
  "Atlantic": 2133,
  "1954": 2134,
  "port": 2135,
  "Geography": 2136,
  "Joe": 2137,
  "Don": 2138,
  "rules": 2139,
  "Final": 2140,
  "minute": 2141,
  "defined": 2142,
  "tree": 2143,
  "painting": 2144,
  "De": 2145,
  "alone": 2146,
  "disease": 2147,
  "models": 2148,
  "damage": 2149,
  "Se@@": 2150,
  "digital": 2151,
  "performances": 2152,
  "pop": 2153,
  "sites": 2154,
  "ah@@": 2155,
  "Ber@@": 2156,
  "sides": 2157,
  "store": 2158,
  "spread": 2159,
  "density": 2160,
  "background": 2161,
  "surname": 2162,
  "Bo@@": 2163,
  "Mon@@": 2164,
  "Jackson": 2165,
  "us@@": 2166,
  "offer": 2167,
  "Toronto": 2168,
  "inspired": 2169,
  "resulting": 2170,
  "mountain": 2171,
  "formation": 2172,
  "R.": 2173,
  "problem": 2174,
  "losing": 2175,
  "Brazil": 2176,
  "comedy": 2177,
  "Ontario": 2178,
  "2.@@": 2179,
  "urban": 2180,
  "suggested": 2181,
  "ella": 2182,
  "lands": 2183,
  "true": 2184,
  "Su@@": 2185,
  "couple": 2186,
  "content": 2187,
  "bi@@": 2188,
  "existing": 2189,
  "Rome": 2190,
  "figure": 2191,
  "marked": 2192,
  "twice": 2193,
  "creation": 2194,
  "seats": 2195,
  "ity": 2196,
  "1953": 2197,
  "continues": 2198,
  "id": 2199,
  "males": 2200,
  "travel": 2201,
  "ala": 2202,
  "ja": 2203,
  "ent": 2204,
  "obtained": 2205,
  "4th": 2206,
  "allows": 2207,
  "Bridge": 2208,
  "Sar@@": 2209,
  "Premier": 2210,
  "share": 2211,
  "Media": 2212,
  "ane": 2213,
  "sons": 2214,
  "f": 2215,
  "é@@": 2216,
  "ep@@": 2217,
  "chairman": 2218,
  "Nations": 2219,
  "contemporary": 2220,
  "ang@@": 2221,
  "Sal@@": 2222,
  "1951": 2223,
  "ens": 2224,
  "Social": 2225,
  "twenty": 2226,
  "co@@": 2227,
  "Military": 2228,
  "association": 2229,
  "box": 2230,
  "develop": 2231,
  "providing": 2232,
  "kept": 2233,
  "64": 2234,
  "versions": 2235,
  "actually": 2236,
  "festival": 2237,
  "showed": 2238,
  "surrounding": 2239,
  "Korean": 2240,
  "Show": 2241,
  "1938": 2242,
  "connected": 2243,
  "ig@@": 2244,
  "Township": 2245,
  "spring": 2246,
  "cells": 2247,
  "1918": 2248,
  "finish": 2249,
  "split": 2250,
  "ol": 2251,
  "teaching": 2252,
  "guitar": 2253,
  "feet": 2254,
  "officials": 2255,
  "piece": 2256,
  "ore": 2257,
  "Game": 2258,
  "Philadelphia": 2259,
  "quarter": 2260,
  "1936": 2261,
  "becomes": 2262,
  "occupied": 2263,
  "effort": 2264,
  "Co@@": 2265,
  "be@@": 2266,
  "tried": 2267,
  "ir@@": 2268,
  "USA": 2269,
  "Gar@@": 2270,
  "arrested": 2271,
  "Me": 2272,
  "authorities": 2273,
  "claims": 2274,
  "politics": 2275,
  "Or@@": 2276,
  "Regiment": 2277,
  "injury": 2278,
  "billion": 2279,
  "Over": 2280,
  "W": 2281,
  "af@@": 2282,
  "‘": 2283,
  "Because": 2284,
  "Book": 2285,
  "receive": 2286,
  "allowing": 2287,
  "fields": 2288,
  "situated": 2289,
  "sp@@": 2290,
  "birth": 2291,
  "Wilson": 2292,
  "Billboard": 2293,
  "regions": 2294,
  "tower": 2295,
  "unique": 2296,
  "1920": 2297,
  "Among": 2298,
  "gives": 2299,
  "dead": 2300,
  "ones": 2301,
  "attacks": 2302,
  "Long": 2303,
  "Pro@@": 2304,
  "Mr.": 2305,
  "greater": 2306,
  "block": 2307,
  "sixth": 2308,
  "knowledge": 2309,
  "man@@": 2310,
  "worth": 2311,
  "hour": 2312,
  "younger": 2313,
  "villages": 2314,
  "impact": 2315,
  "opposition": 2316,
  "captain": 2317,
  "vi@@": 2318,
  "Captain": 2319,
  "blue": 2320,
  "ins": 2321,
  "visit": 2322,
  "dark": 2323,
  "interview": 2324,
  "sales": 2325,
  "P.": 2326,
  "Sweden": 2327,
  "applied": 2328,
  "id@@": 2329,
  "Sun": 2330,
  "ada": 2331,
  "ed@@": 2332,
  "Community": 2333,
  "ator": 2334,
  "traffic": 2335,
  "facility": 2336,
  "Netherlands": 2337,
  "Lady": 2338,
  "ari": 2339,
  "succeeded": 2340,
  "Technology": 2341,
  "Bur@@": 2342,
  "metres": 2343,
  "Ak@@": 2344,
  "figures": 2345,
  "Port": 2346,
  "scientific": 2347,
  "deep": 2348,
  "headquarters": 2349,
  "Between": 2350,
  "tax": 2351,
  "um@@": 2352,
  "Like": 2353,
  "theatre": 2354,
  "Oxford": 2355,
  "ach@@": 2356,
  "sets": 2357,
  "Register": 2358,
  "claim": 2359,
  "Daniel": 2360,
  "brothers": 2361,
  "1937": 2362,
  "climate": 2363,
  "software": 2364,
  "lake": 2365,
  "1950s": 2366,
  "library": 2367,
  "bought": 2368,
  "risk": 2369,
  "baseball": 2370,
  "Death": 2371,
  "cannot": 2372,
  "Emperor": 2373,
  "says": 2374,
  "eg@@": 2375,
  "governor": 2376,
  "ry": 2377,
  "Maria": 2378,
  "know": 2379,
  "promotion": 2380,
  "commander": 2381,
  "critics": 2382,
  "tells": 2383,
  "laws": 2384,
  "classes": 2385,
  "Medical": 2386,
  "Andrew": 2387,
  "squad": 2388,
  "Due": 2389,
  "eb@@": 2390,
  "returning": 2391,
  "blood": 2392,
  "finals": 2393,
  "arms": 2394,
  "drive": 2395,
  "settled": 2396,
  "lot": 2397,
  "Field": 2398,
  "mon@@": 2399,
  "trains": 2400,
  "completely": 2401,
  "Special": 2402,
  "aired": 2403,
  "simply": 2404,
  "image": 2405,
  "44": 2406,
  "fighting": 2407,
  "Taylor": 2408,
  "rank": 2409,
  "1919": 2410,
  "environment": 2411,
  "Ro@@": 2412,
  "read": 2413,
  "advanced": 2414,
  "arts": 2415,
  "entry": 2416,
  "ne@@": 2417,
  "ri": 2418,
  "achieved": 2419,
  "tradition": 2420,
  "hi@@": 2421,
  "Americans": 2422,
  "generation": 2423,
  "Golden": 2424,
  "Castle": 2425,
  "Business": 2426,
  "situation": 2427,
  "And": 2428,
  "industrial": 2429,
  "J": 2430,
  "goes": 2431,
  "Mike": 2432,
  "Le": 2433,
  "Mountain": 2434,
  "°": 2435,
  "materials": 2436,
  "ut@@": 2437,
  "big": 2438,
  "frequently": 2439,
  "Van": 2440,
  "authority": 2441,
  "Press": 2442,
  "brand": 2443,
  "boat": 2444,
  "row": 2445,
  "oldest": 2446,
  "forest": 2447,
  "actress": 2448,
  "publication": 2449,
  "something": 2450,
  "reports": 2451,
  "chosen": 2452,
  "approved": 2453,
  "sexual": 2454,
  "mile": 2455,
  "holds": 2456,
  "Francis": 2457,
  "supply": 2458,
  "Sc@@": 2459,
  "end@@": 2460,
  "murder": 2461,
  "relatively": 2462,
  "commissioned": 2463,
  "refused": 2464,
  "Several": 2465,
  "Chris": 2466,
  "things": 2467,
  "Four": 2468,
  "Arthur": 2469,
  "ita": 2470,
  "ages": 2471,
  "portion": 2472,
  "household": 2473,
  "necessary": 2474,
  "1930": 2475,
  "ks": 2476,
  "Gu@@": 2477,
  "ot": 2478,
  "00": 2479,
  "creating": 2480,
  "ends": 2481,
  "bring": 2482,
  "faced": 2483,
  "visited": 2484,
  "ance": 2485,
  "under@@": 2486,
  "1933": 2487,
  "ta": 2488,
  "fans": 2489,
  "transport": 2490,
  "starring": 2491,
  "hall": 2492,
  "Today": 2493,
  "concert": 2494,
  "ale": 2495,
  "theme": 2496,
  "18th": 2497,
  "begins": 2498,
  "joint": 2499,
  "Junior": 2500,
  "consisted": 2501,
  "perform": 2502,
  "focused": 2503,
  "conflict": 2504,
  "notes": 2505,
  "broke": 2506,
  "winter": 2507,
  "Federation": 2508,
  "1914": 2509,
  "founding": 2510,
  "1917": 2511,
  "kind": 2512,
  "methods": 2513,
  "Plot": 2514,
  "Davis": 2515,
  "principal": 2516,
  "Prize": 2517,
  "performing": 2518,
  "agent": 2519,
  "origin": 2520,
  "1.@@": 2521,
  "begin": 2522,
  "receiving": 2523,
  "stand": 2524,
  "safety": 2525,
  "der@@": 2526,
  "unable": 2527,
  "transfer": 2528,
  "Kh@@": 2529,
  "1935": 2530,
  "300": 2531,
  "audience": 2532,
  "effective": 2533,
  "exchange": 2534,
  "fought": 2535,
  "attempted": 2536,
  "Beach": 2537,
  "ics": 2538,
  "retirement": 2539,
  "districts": 2540,
  "prevent": 2541,
  "ve": 2542,
  "follow": 2543,
  "0@@": 2544,
  "attacked": 2545,
  "girls": 2546,
  "ding": 2547,
  "ty": 2548,
  "sign": 2549,
  "Network": 2550,
  "structures": 2551,
  "ica": 2552,
  "subsequent": 2553,
  "employed": 2554,
  "economy": 2555,
  "Minnesota": 2556,
  "aid": 2557,
  "reason": 2558,
  "covers": 2559,
  "partner": 2560,
  "ter@@": 2561,
  "setting": 2562,
  "Journal": 2563,
  "opposed": 2564,
  "reference": 2565,
  "Mexican": 2566,
  "Ho@@": 2567,
  "36": 2568,
  "33": 2569,
  "architecture": 2570,
  "weight": 2571,
  "Master": 2572,
  "Bel@@": 2573,
  "Region": 2574,
  "expansion": 2575,
  "towns": 2576,
  "morning": 2577,
  "bar@@": 2578,
  "shared": 2579,
  "daily": 2580,
  "Kansas": 2581,
  "temple": 2582,
  "te": 2583,
  "defense": 2584,
  "dropped": 2585,
  "Kal@@": 2586,
  "machine": 2587,
  "converted": 2588,
  "ph@@": 2589,
  "System": 2590,
  "racing": 2591,
  "1928": 2592,
  "NCAA": 2593,
  "Reception": 2594,
  "determined": 2595,
  "unknown": 2596,
  "actions": 2597,
  "protection": 2598,
  "entitled": 2599,
  "Forest": 2600,
  "Inc.": 2601,
  "Missouri": 2602,
  "animals": 2603,
  "NFL": 2604,
  "representing": 2605,
  "vice": 2606,
  "permanent": 2607,
  "Bob": 2608,
  "Steve": 2609,
  "il": 2610,
  "pl@@": 2611,
  "qualified": 2612,
  "ji": 2613,
  "L.": 2614,
  "girl": 2615,
  "shortly": 2616,
  "increasing": 2617,
  "aw@@": 2618,
  "articles": 2619,
  "selling": 2620,
  "foot": 2621,
  "crime": 2622,
  "presidential": 2623,
  "400": 2624,
  "5th": 2625,
  "sense": 2626,
  "Jr": 2627,
  "Ver@@": 2628,
  "volume": 2629,
  "75": 2630,
  "Melbourne": 2631,
  "look": 2632,
  "Description": 2633,
  "attempts": 2634,
  "influenced": 2635,
  "D.": 2636,
  "trees": 2637,
  "engineering": 2638,
  "va": 2639,
  "copies": 2640,
  "derived": 2641,
  "1929": 2642,
  "th": 2643,
  "1934": 2644,
  "Lewis": 2645,
  "Area": 2646,
  "ultimately": 2647,
  "Co": 2648,
  "beat": 2649,
  "Gold": 2650,
  "scheduled": 2651,
  "Moscow": 2652,
  "guest": 2653,
  "vehicles": 2654,
  "and@@": 2655,
  "electric": 2656,
  "ors": 2657,
  "bronze": 2658,
  "represent": 2659,
  "e.g.": 2660,
  "Fox": 2661,
  "citizens": 2662,
  "properties": 2663,
  "Memorial": 2664,
  "Jim": 2665,
  "extensive": 2666,
  "highway": 2667,
  "cancer": 2668,
  "San@@": 2669,
  "global": 2670,
  "ber@@": 2671,
  "EP": 2672,
  "Night": 2673,
  "airport": 2674,
  "constituency": 2675,
  "say": 2676,
  "resources": 2677,
  "contributed": 2678,
  "maximum": 2679,
  "pair": 2680,
  "Power": 2681,
  "write": 2682,
  "mayor": 2683,
  "containing": 2684,
  "learning": 2685,
  "onto": 2686,
  "Muslim": 2687,
  "enter": 2688,
  "powerful": 2689,
  "centuries": 2690,
  "simple": 2691,
  "meant": 2692,
  "fl@@": 2693,
  "pieces": 2694,
  "Stephen": 2695,
  "Turkish": 2696,
  "34": 2697,
  "Sunday": 2698,
  "Queensland": 2699,
  "hockey": 2700,
  "Country": 2701,
  "Live": 2702,
  "Wisconsin": 2703,
  "laid": 2704,
  "institutions": 2705,
  "acts": 2706,
  "drug": 2707,
  "guns": 2708,
  "application": 2709,
  "ci@@": 2710,
  "launch": 2711,
  "em": 2712,
  "locations": 2713,
  "Sciences": 2714,
  "More": 2715,
  "sector": 2716,
  "phase": 2717,
  "hands": 2718,
  "rise": 2719,
  "farm": 2720,
  "ki": 2721,
  "1924": 2722,
  "ee": 2723,
  "Cape": 2724,
  "walls": 2725,
  "i.e.": 2726,
  "boy": 2727,
  "domestic": 2728,
  "offices": 2729,
  "holding": 2730,
  "memory": 2731,
  "Project": 2732,
  "sought": 2733,
  "ex@@": 2734,
  "Ac@@": 2735,
  "castle": 2736,
  "vehicle": 2737,
  "1932": 2738,
  "slightly": 2739,
  "Television": 2740,
  "identity": 2741,
  "documentary": 2742,
  "beyond": 2743,
  "fiction": 2744,
  "for@@": 2745,
  "Mer@@": 2746,
  "condition": 2747,
  "du": 2748,
  "1912": 2749,
  "temperature": 2750,
  "au": 2751,
  "Vietnam": 2752,
  "tri@@": 2753,
  "Song": 2754,
  "ama": 2755,
  "establishment": 2756,
  "Turkey": 2757,
  "try": 2758,
  "ds": 2759,
  "developing": 2760,
  "inc@@": 2761,
  "birds": 2762,
  "Production": 2763,
  "Bu@@": 2764,
  "letters": 2765,
  "recognition": 2766,
  "Cambridge": 2767,
  "supporting": 2768,
  "yellow": 2769,
  "Prior": 2770,
  "educational": 2771,
  "mar@@": 2772,
  "expressed": 2773,
  "Tennessee": 2774,
  "ised": 2775,
  "ago": 2776,
  "search": 2777,
  "idae": 2778,
  "reasons": 2779,
  "invited": 2780,
  "Norway": 2781,
  "pro@@": 2782,
  "ative": 2783,
  "rail": 2784,
  "ge@@": 2785,
  "Indiana": 2786,
  "lyrics": 2787,
  "consecutive": 2788,
  "height": 2789,
  "out@@": 2790,
  "stay": 2791,
  "1922": 2792,
  "educated": 2793,
  "matter": 2794,
  "rec@@": 2795,
  "Philippines": 2796,
  "Point": 2797,
  "candidates": 2798,
  "normal": 2799,
  "producing": 2800,
  "Khan": 2801,
  "peace": 2802,
  "want": 2803,
  "occurs": 2804,
  "az@@": 2805,
  "ik@@": 2806,
  "Ne@@": 2807,
  "Upon": 2808,
  "Jews": 2809,
  "horse": 2810,
  "ical": 2811,
  "Christmas": 2812,
  "functions": 2813,
  "technical": 2814,
  "hotel": 2815,
  "Manchester": 2816,
  "rugby": 2817,
  "1927": 2818,
  "wa": 2819,
  "controlled": 2820,
  "abandoned": 2821,
  "contained": 2822,
  "brown": 2823,
  "finishing": 2824,
  "1921": 2825,
  "Native": 2826,
  "38": 2827,
  "loan": 2828,
  "F.": 2829,
  "ola": 2830,
  "journalist": 2831,
  "Labour": 2832,
  "Swiss": 2833,
  "Services": 2834,
  "needs": 2835,
  "speech": 2836,
  "contact": 2837,
  "independence": 2838,
  "Notable": 2839,
  "sport": 2840,
  "die": 2841,
  "ion": 2842,
  "successfully": 2843,
  "grade": 2844,
  "Hot": 2845,
  "La@@": 2846,
  "ce": 2847,
  "patients": 2848,
  "category": 2849,
  "1925": 2850,
  "Land": 2851,
  "Maryland": 2852,
  "judge": 2853,
  "bill": 2854,
  "Affairs": 2855,
  "refers": 2856,
  "investigation": 2857,
  "1926": 2858,
  "1931": 2859,
  "fleet": 2860,
  "ant@@": 2861,
  "architect": 2862,
  "incorporated": 2863,
  "negative": 2864,
  "Class": 2865,
  "net": 2866,
  "violence": 2867,
  "berg": 2868,
  "planning": 2869,
  "views": 2870,
  "Arizona": 2871,
  "royal": 2872,
  "Norwegian": 2873,
  "mis@@": 2874,
  "Portuguese": 2875,
  "Building": 2876,
  "combat": 2877,
  "lo@@": 2878,
  "existence": 2879,
  "alternative": 2880,
  "COVID": 2881,
  "Then": 2882,
  "Harry": 2883,
  "ceremony": 2884,
  "Studies": 2885,
  "up@@": 2886,
  "decades": 2887,
  "reaching": 2888,
  "rich": 2889,
  "ko": 2890,
  "Channel": 2891,
  "Bor@@": 2892,
  "maintained": 2893,
  "funding": 2894,
  "har@@": 2895,
  "Sk@@": 2896,
  "card": 2897,
  "se": 2898,
  "stock": 2899,
  "Tournament": 2900,
  "resigned": 2901,
  "multi": 2902,
  "proved": 2903,
  "1923": 2904,
  "basic": 2905,
  "voted": 2906,
  "IV": 2907,
  "G.": 2908,
  "cl@@": 2909,
  "composer": 2910,
  "Far@@": 2911,
  "literary": 2912,
  "herself": 2913,
  "Oregon": 2914,
  "ath@@": 2915,
  "merged": 2916,
  "Infantry": 2917,
  "Li@@": 2918,
  "shape": 2919,
  "regarding": 2920,
  "Austria": 2921,
  "ys": 2922,
  "Min@@": 2923,
  "specifically": 2924,
  "q@@": 2925,
  "screen": 2926,
  "junior": 2927,
  "Colorado": 2928,
  "honor": 2929,
  "hired": 2930,
  "rear": 2931,
  "1910": 2932,
  "installed": 2933,
  "Com@@": 2934,
  "zone": 2935,
  "enemy": 2936,
  "ett": 2937,
  "establish": 2938,
  "passing": 2939,
  "War@@": 2940,
  "ski": 2941,
  "trained": 2942,
  "w": 2943,
  "Foreign": 2944,
  "Walter": 2945,
  "exhibition": 2946,
  "shaped": 2947,
  "straight": 2948,
  "Entertainment": 2949,
  "observed": 2950,
  "secretary": 2951,
  "Ali": 2952,
  "1916": 2953,
  "edge": 2954,
  "References": 2955,
  "collected": 2956,
  "fuel": 2957,
  "stating": 2958,
  "Representatives": 2959,
  "connection": 2960,
  "nuclear": 2961,
  "classical": 2962,
  "joining": 2963,
  "registered": 2964,
  "argued": 2965,
  "ise": 2966,
  "pilot": 2967,
  "ators": 2968,
  "display": 2969,
  "1915": 2970,
  "Revolution": 2971,
  "su@@": 2972,
  "doing": 2973,
  "wins": 2974,
  "aka": 2975,
  "flow": 2976,
  "Sri": 2977,
  "core": 2978,
  "passes": 2979,
  "ruled": 2980,
  "funds": 2981,
  "Du@@": 2982,
  "48": 2983,
  "Medal": 2984,
  "worldwide": 2985,
  "Places": 2986,
  "1900": 2987,
  "Human": 2988,
  "About": 2989,
  "someone": 2990,
  "rating": 2991,
  "Switzerland": 2992,
  "representative": 2993,
  "scenes": 2994,
  "Political": 2995,
  "finds": 2996,
  "hill": 2997,
  "religion": 2998,
  "Census": 2999,
  "Holy": 3000,
  "Pre@@": 3001,
  "exist": 3002,
  "Albert": 3003,
  "Mah@@": 3004,
  "Ros@@": 3005,
  "dates": 3006,
  "standing": 3007,
  "ir": 3008,
  "Winter": 3009,
  "entrance": 3010,
  "ek": 3011,
  "etc": 3012,
  "question": 3013,
  "Dar@@": 3014,
  "Egypt": 3015,
  "serious": 3016,
  "MP": 3017,
  "heard": 3018,
  "occur": 3019,
  "promote": 3020,
  "heavily": 3021,
  "Ford": 3022,
  "ene": 3023,
  "Tar@@": 3024,
  "engaged": 3025,
  "ena": 3026,
  "Bi@@": 3027,
  "j": 3028,
  "om": 3029,
  "bands": 3030,
  "importance": 3031,
  "T.": 3032,
  "protein": 3033,
  "iron": 3034,
  "Chi@@": 3035,
  "ac": 3036,
  "avoid": 3037,
  "regarded": 3038,
  "cor@@": 3039,
  "*": 3040,
  "Islamic": 3041,
  "choice": 3042,
  "Head": 3043,
  "orders": 3044,
  "Mat@@": 3045,
  "carry": 3046,
  "statement": 3047,
  "Singapore": 3048,
  "Arab": 3049,
  "Only": 3050,
  "inhabitants": 3051,
  "Miller": 3052,
  "ex": 3053,
  "Me@@": 3054,
  "bo@@": 3055,
  "failure": 3056,
  "Though": 3057,
  "armed": 3058,
  "Design": 3059,
  "northeast": 3060,
  "Pope": 3061,
  "What": 3062,
  "Pal@@": 3063,
  "Management": 3064,
  "Earl": 3065,
  "grounds": 3066,
  "Ex@@": 3067,
  "roof": 3068,
  "ula": 3069,
  "ness": 3070,
  "poet": 3071,
  "Del@@": 3072,
  "im": 3073,
  "bed": 3074,
  "selection": 3075,
  "ves": 3076,
  "poetry": 3077,
  "programme": 3078,
  "price": 3079,
  "headed": 3080,
  "incident": 3081,
  "internal": 3082,
  "consisting": 3083,
  "powers": 3084,
  "improve": 3085,
  "praised": 3086,
  "Her@@": 3087,
  "concluded": 3088,
  "Security": 3089,
  "think": 3090,
  "Member": 3091,
  "toward": 3092,
  "ites": 3093,
  "programming": 3094,
  "1930s": 3095,
  "du@@": 3096,
  "Cal@@": 3097,
  "Miss": 3098,
  "stadium": 3099,
  "compete": 3100,
  "37": 3101,
  "6th": 3102,
  "bodies": 3103,
  "ines": 3104,
  "page": 3105,
  "Howard": 3106,
  "invasion": 3107,
  "17th": 3108,
  "Pan@@": 3109,
  "io": 3110,
  "adult": 3111,
  "Youth": 3112,
  "driver": 3113,
  "Professional": 3114,
  "twelve": 3115,
  "entirely": 3116,
  "42": 3117,
  "homes": 3118,
  "Regional": 3119,
  "Bureau": 3120,
  "protect": 3121,
  "municipal": 3122,
  "rare": 3123,
  "weapons": 3124,
  "Liberal": 3125,
  "Pe@@": 3126,
  "Main": 3127,
  "ars": 3128,
  "ou": 3129,
  "passenger": 3130,
  "foundation": 3131,
  "causing": 3132,
  "Temple": 3133,
  "ger": 3134,
  "mark": 3135,
  "target": 3136,
  "ahead": 3137,
  "kin": 3138,
  "trying": 3139,
  "ca": 3140,
  "possibly": 3141,
  "agency": 3142,
  "advance": 3143,
  "gh@@": 3144,
  "Forces": 3145,
  "reserve": 3146,
  "sk@@": 3147,
  "Thus": 3148,
  "boys": 3149,
  "Square": 3150,
  "1913": 3151,
  "glass": 3152,
  "ev@@": 3153,
  "peak": 3154,
  "quite": 3155,
  "Israeli": 3156,
  "Ukraine": 3157,
  "closely": 3158,
  "Greece": 3159,
  "Tony": 3160,
  "Vice": 3161,
  "draft": 3162,
  "Y": 3163,
  "Hamilton": 3164,
  "Po@@": 3165,
  "starred": 3166,
  "affected": 3167,
  "Operation": 3168,
  "environmental": 3169,
  "cricket": 3170,
  "Col@@": 3171,
  "Hockey": 3172,
  "historian": 3173,
  "Free": 3174,
  "Kentucky": 3175,
  "no@@": 3176,
  "starts": 3177,
  "ality": 3178,
  "Ben": 3179,
  "rooms": 3180,
  "sale": 3181,
  "door": 3182,
  "graduate": 3183,
  "personnel": 3184,
  "Houston": 3185,
  "briefly": 3186,
  "operate": 3187,
  "Is": 3188,
  "writers": 3189,
  "Mur@@": 3190,
  "premiered": 3191,
  "ver@@": 3192,
  "Inter@@": 3193,
  "standards": 3194,
  "DC": 3195,
  "calls": 3196,
  "believe": 3197,
  "steel": 3198,
  "ent@@": 3199,
  "7th": 3200,
  "employees": 3201,
  "animal": 3202,
  "Naval": 3203,
  "opera": 3204,
  "ru@@": 3205,
  "Brigade": 3206,
  "ideas": 3207,
  "wind": 3208,
  "ment": 3209,
  "ters": 3210,
  "broken": 3211,
  "seconds": 3212,
  "storm": 3213,
  "escape": 3214,
  "Anne": 3215,
  "ze": 3216,
  "killing": 3217,
  "ye": 3218,
  "ao": 3219,
  "Senior": 3220,
  "improved": 3221,
  "accused": 3222,
  "northwest": 3223,
  "Ko@@": 3224,
  "ea": 3225,
  "1911": 3226,
  "ery": 3227,
  "corner": 3228,
  "opportunity": 3229,
  "chain": 3230,
  "Third": 3231,
  "Patrick": 3232,
  "user": 3233,
  "Administration": 3234,
  "agricultural": 3235,
  "spot": 3236,
  "Rural": 3237,
  "Stone": 3238,
  "paintings": 3239,
  "SR": 3240,
  "drawn": 3241,
  "seventh": 3242,
  "describes": 3243,
  "distributed": 3244,
  "kill": 3245,
  "Can@@": 3246,
  "Engineering": 3247,
  "For@@": 3248,
  "alism": 3249,
  "your": 3250,
  "Squadron": 3251,
  "ization": 3252,
  "introduction": 3253,
  "Marine": 3254,
  "courses": 3255,
  "speaking": 3256,
  "Iowa": 3257,
  "ants": 3258,
  "tropical": 3259,
  "injured": 3260,
  "roads": 3261,
  "Once": 3262,
  "chose": 3263,
  "ess": 3264,
  "que": 3265,
  "ura": 3266,
  "really": 3267,
  "16th": 3268,
  "Mag@@": 3269,
  "Sam@@": 3270,
  "Ocean": 3271,
  "gain": 3272,
  "factory": 3273,
  "residence": 3274,
  "extension": 3275,
  "ker": 3276,
  "Light": 3277,
  "resistance": 3278,
  "Jesus": 3279,
  "AD": 3280,
  "ham": 3281,
  "Hotel": 3282,
  "reading": 3283,
  "reduce": 3284,
  "Brian": 3285,
  "fine": 3286,
  "Prix": 3287,
  "applications": 3288,
  "Simon": 3289,
  "weather": 3290,
  "to@@": 3291,
  "Mel@@": 3292,
  "values": 3293,
  "ized": 3294,
  "calling": 3295,
  "humans": 3296,
  "step": 3297,
  "Shi@@": 3298,
  "dry": 3299,
  "session": 3300,
  "objects": 3301,
  "ier": 3302,
  "55": 3303,
  "charged": 3304,
  "1908": 3305,
  "islands": 3306,
  "ders": 3307,
  "formal": 3308,
  "Samuel": 3309,
  "journal": 3310,
  "neighborhood": 3311,
  "Mil@@": 3312,
  "gene": 3313,
  "ethnic": 3314,
  "earliest": 3315,
  "sell": 3316,
  "Tri@@": 3317,
  "ok@@": 3318,
  "ney": 3319,
  "racial": 3320,
  "Executive": 3321,
  "Si@@": 3322,
  "address": 3323,
  "stores": 3324,
  "Fame": 3325,
  "users": 3326,
  "decade": 3327,
  "sections": 3328,
  "Anderson": 3329,
  "getting": 3330,
  "strength": 3331,
  "nor": 3332,
  "composition": 3333,
  "survived": 3334,
  "interior": 3335,
  "marine": 3336,
  "demand": 3337,
  "Danish": 3338,
  "debuted": 3339,
  "Communist": 3340,
  "ma@@": 3341,
  "Dis@@": 3342,
  "causes": 3343,
  "Mas@@": 3344,
  "Works": 3345,
  "Diego": 3346,
  "Ram@@": 3347,
  "Water": 3348,
  "engineer": 3349,
  "strike": 3350,
  "39": 3351,
  "els": 3352,
  "factors": 3353,
  "valley": 3354,
  "eye": 3355,
  "Pro": 3356,
  "southeast": 3357,
  "DVD": 3358,
  "looking": 3359,
  "fast": 3360,
  "Sam": 3361,
  "Out": 3362,
  "Ag@@": 3363,
  "te@@": 3364,
  "partnership": 3365,
  "3.@@": 3366,
  "Rugby": 3367,
  "tie": 3368,
  "Modern": 3369,
  "adjacent": 3370,
  "ast@@": 3371,
  "Bowl": 3372,
  "Commonwealth": 3373,
  "interests": 3374,
  "Oklahoma": 3375,
  "den@@": 3376,
  "Mayor": 3377,
  "heads": 3378,
  "bu@@": 3379,
  "leads": 3380,
  "Alabama": 3381,
  "sl@@": 3382,
  "operates": 3383,
  "ab": 3384,
  "singing": 3385,
  "Heritage": 3386,
  "greatest": 3387,
  "typical": 3388,
  "notably": 3389,
  "equal": 3390,
  "criminal": 3391,
  "musician": 3392,
  "Philip": 3393,
  "engines": 3394,
  "Tokyo": 3395,
  "Program": 3396,
  "Children": 3397,
  "bass": 3398,
  "Frederick": 3399,
  "churches": 3400,
  "bit": 3401,
  "Mad@@": 3402,
  "goods": 3403,
  "regularly": 3404,
  "ā@@": 3405,
  "leg": 3406,
  "Er@@": 3407,
  "Te@@": 3408,
  "owners": 3409,
  "Legislative": 3410,
  "committed": 3411,
  "Super@@": 3412,
  "stands": 3413,
  "painted": 3414,
  "Imperial": 3415,
  "super@@": 3416,
  "Mississippi": 3417,
  "contain": 3418,
  "So": 3419,
  "ek@@": 3420,
  "participate": 3421,
  "techniques": 3422,
  "Mi@@": 3423,
  "uk@@": 3424,
  "ova": 3425,
  "Quebec": 3426,
  "Juan": 3427,
  "Allen": 3428,
  "reception": 3429,
  "Space": 3430,
  "designs": 3431,
  "min@@": 3432,
  "bad": 3433,
  "opposite": 3434,
  "mine": 3435,
  "bottom": 3436,
  "seems": 3437,
  "Detroit": 3438,
  "AM": 3439,
  "Anthony": 3440,
  "I.": 3441,
  "ely": 3442,
  "Lieutenant": 3443,
  "Railroad": 3444,
  "Village": 3445,
  "rejected": 3446,
  "hundred": 3447,
  "Antonio": 3448,
  "ran@@": 3449,
  "combination": 3450,
  "charges": 3451,
  "vocals": 3452,
  "Bl@@": 3453,
  "philosophy": 3454,
  "Fire": 3455,
  "budget": 3456,
  "dec@@": 3457,
  "measures": 3458,
  "ster": 3459,
  "signal": 3460,
  "gets": 3461,
  "Hungarian": 3462,
  "41": 3463,
  "stood": 3464,
  "comic": 3465,
  "collaboration": 3466,
  "musicians": 3467,
  "Cemetery": 3468,
  "fired": 3469,
  "Christ": 3470,
  "Czech": 3471,
  "piano": 3472,
  "Baseball": 3473,
  "credited": 3474,
  "Hollywood": 3475,
  "chemical": 3476,
  "damaged": 3477,
  "Clark": 3478,
  "Independent": 3479,
  "Argentina": 3480,
  "examples": 3481,
  "equivalent": 3482,
  "divisions": 3483,
  "plot": 3484,
  "southwest": 3485,
  "Adam": 3486,
  "Gallery": 3487,
  "didn": 3488,
  "ington": 3489,
  "Douglas": 3490,
  "ba": 3491,
  "Magazine": 3492,
  "residential": 3493,
  "frame": 3494,
  "details": 3495,
  "AC": 3496,
  "ase": 3497,
  "q": 3498,
  "ette": 3499,
  "jazz": 3500,
  "Local": 3501,
  "easily": 3502,
  "mind": 3503,
  "ward": 3504,
  "duty": 3505,
  "Band": 3506,
  "flying": 3507,
  "mer": 3508,
  "why": 3509,
  "au@@": 3510,
  "Lincoln": 3511,
  "links": 3512,
  "rates": 3513,
  "sub": 3514,
  "skills": 3515,
  "Sa@@": 3516,
  "aya": 3517,
  "capture": 3518,
  "Miami": 3519,
  "businesses": 3520,
  "criticized": 3521,
  "all@@": 3522,
  "forming": 3523,
  "Constitution": 3524,
  "purchase": 3525,
  "iz@@": 3526,
  "Moore": 3527,
  "Q": 3528,
  "Kan@@": 3529,
  "lawyer": 3530,
  "accompanied": 3531,
  "winners": 3532,
  "Doctor": 3533,
  "Val@@": 3534,
  "Five": 3535,
  "Gordon": 3536,
  "secret": 3537,
  "link": 3538,
  "1906": 3539,
  "sequence": 3540,
  "ps": 3541,
  "defeating": 3542,
  "Denmark": 3543,
  "ence": 3544,
  "Bell": 3545,
  "Iraq": 3546,
  "assumed": 3547,
  "passengers": 3548,
  "49": 3549,
  "determine": 3550,
  "flag": 3551,
  "SS": 3552,
  "costs": 3553,
  "la@@": 3554,
  "Up": 3555,
  "admitted": 3556,
  "Reserve": 3557,
  "champions": 3558,
  "lin": 3559,
  "distinct": 3560,
  "52": 3561,
  "ho@@": 3562,
  "items": 3563,
  "wave": 3564,
  "medium": 3565,
  "US@@": 3566,
  "yn@@": 3567,
  "FA": 3568,
  "sa": 3569,
  "communication": 3570,
  "reality": 3571,
  "intelligence": 3572,
  "provincial": 3573,
  "1905": 3574,
  "theater": 3575,
  "cycle": 3576,
  "electronic": 3577,
  "experienced": 3578,
  "contrast": 3579,
  "maintain": 3580,
  "flat": 3581,
  "Puerto": 3582,
  "freedom": 3583,
  "documents": 3584,
  "ically": 3585,
  "1907": 3586,
  "Athletics": 3587,
  "motion": 3588,
  "images": 3589,
  "8th": 3590,
  "retained": 3591,
  "Rose": 3592,
  "delivered": 3593,
  "gender": 3594,
  "Hungary": 3595,
  "contest": 3596,
  "plane": 3597,
  "meters": 3598,
  "reaction": 3599,
  "Louisiana": 3600,
  "bishop": 3601,
  "Ukrainian": 3602,
  "regiment": 3603,
  "Not": 3604,
  "extra": 3605,
  "habitat": 3606,
  "replace": 3607,
  "Belgium": 3608,
  "routes": 3609,
  "arranged": 3610,
  "commission": 3611,
  "device": 3612,
  "request": 3613,
  "Harvard": 3614,
  "ro": 3615,
  "gate": 3616,
  "1,000": 3617,
  "attached": 3618,
  "Ottoman": 3619,
  "contributions": 3620,
  "Marie": 3621,
  "formally": 3622,
  "dating": 3623,
  "publications": 3624,
  "Anna": 3625,
  "47": 3626,
  "Ru@@": 3627,
  "ties": 3628,
  "driving": 3629,
  "heat": 3630,
  "Singles": 3631,
  "mining": 3632,
  "streets": 3633,
  "ona": 3634,
  "1909": 3635,
  "Sub@@": 3636,
  "he@@": 3637,
  "prize": 3638,
  "protected": 3639,
  "reign": 3640,
  "showing": 3641,
  "Ph@@": 3642,
  "poem": 3643,
  "Trust": 3644,
  "brief": 3645,
  "caught": 3646,
  "gu@@": 3647,
  "classified": 3648,
  "linked": 3649,
  "accident": 3650,
  "est@@": 3651,
  "deputy": 3652,
  "pro": 3653,
  "purposes": 3654,
  "Z": 3655,
  "pe@@": 3656,
  "anniversary": 3657,
  "Char@@": 3658,
  "persons": 3659,
  "tries": 3660,
  "Palace": 3661,
  "Ser@@": 3662,
  "Demographics": 3663,
  "shooting": 3664,
  "Cap@@": 3665,
  "courts": 3666,
  "ownership": 3667,
  "script": 3668,
  "stages": 3669,
  "9th": 3670,
  "Tor@@": 3671,
  "Dublin": 3672,
  "Bra@@": 3673,
  "trip": 3674,
  "mouth": 3675,
  "ash": 3676,
  "naval": 3677,
  "acid": 3678,
  "crisis": 3679,
  "Season": 3680,
  "Connecticut": 3681,
  "colonial": 3682,
  "Brazilian": 3683,
  "represents": 3684,
  "biggest": 3685,
  "Good": 3686,
  "shop": 3687,
  "behavior": 3688,
  "dy": 3689,
  "painter": 3690,
  "As@@": 3691,
  "advantage": 3692,
  "attend": 3693,
  "Cl@@": 3694,
  "pandemic": 3695,
  "profit": 3696,
  "investment": 3697,
  "significantly": 3698,
  "Kim": 3699,
  "12th": 3700,
  "restored": 3701,
  "ade": 3702,
  "CEO": 3703,
  "Rights": 3704,
  "nothing": 3705,
  "mental": 3706,
  "interested": 3707,
  "Additionally": 3708,
  "mo@@": 3709,
  "Bro@@": 3710,
  "See": 3711,
  "43": 3712,
  "fixed": 3713,
  "Age": 3714,
  "Ter@@": 3715,
  "hi": 3716,
  "Tamil": 3717,
  "save": 3718,
  "Max": 3719,
  "visual": 3720,
  "Hu@@": 3721,
  "object": 3722,
  "He@@": 3723,
  "folk": 3724,
  "carrying": 3725,
  "fashion": 3726,
  "publishing": 3727,
  "translated": 3728,
  "Margaret": 3729,
  "ABC": 3730,
  "DNA": 3731,
  "concerns": 3732,
  "flows": 3733,
  "separated": 3734,
  "Saturday": 3735,
  "Edinburgh": 3736,
  "policies": 3737,
  "Gr@@": 3738,
  "Mu@@": 3739,
  "K.": 3740,
  "franchise": 3741,
  "Ha@@": 3742,
  "hom@@": 3743,
  "tied": 3744,
  "13th": 3745,
  "stopped": 3746,
  "Pi@@": 3747,
  "lie": 3748,
  "dynasty": 3749,
  "adapted": 3750,
  "á@@": 3751,
  "Mountains": 3752,
  "actual": 3753,
  "Internet": 3754,
  "chance": 3755,
  "150": 3756,
  "Week": 3757,
  ".com": 3758,
  "degrees": 3759,
  "organisation": 3760,
  "duties": 3761,
  "ck": 3762,
  "township": 3763,
  "Gor@@": 3764,
  "learned": 3765,
  "ten@@": 3766,
  "require": 3767,
  "Cleveland": 3768,
  "note": 3769,
  "ul": 3770,
  "Sch@@": 3771,
  "wounded": 3772,
  "competitions": 3773,
  "Montreal": 3774,
  "Portugal": 3775,
  "mobile": 3776,
  "Austrian": 3777,
  "ga": 3778,
  "Metropolitan": 3779,
  "occupation": 3780,
  "defensive": 3781,
  "att@@": 3782,
  "1904": 3783,
  "arrival": 3784,
  "Even": 3785,
  "institution": 3786,
  "To@@": 3787,
  "com@@": 3788,
  "popularity": 3789,
  "Ri@@": 3790,
  "coal": 3791,
  "path": 3792,
  "membership": 3793,
  "crossing": 3794,
  "ud@@": 3795,
  "flowers": 3796,
  "qualifying": 3797,
  "tennis": 3798,
  "Deputy": 3799,
  "51": 3800,
  "filled": 3801,
  "medicine": 3802,
  "Broadway": 3803,
  "Guard": 3804,
  "rose": 3805,
  "Ray": 3806,
  "faculty": 3807,
  "ish@@": 3808,
  "Ryan": 3809,
  "daughters": 3810,
  "Atlanta": 3811,
  "Now": 3812,
  "Command": 3813,
  "legislation": 3814,
  "relative": 3815,
  "ow@@": 3816,
  "air@@": 3817,
  "scholars": 3818,
  "severe": 3819,
  "responsibility": 3820,
  "tions": 3821,
  "za": 3822,
  "ensure": 3823,
  "hits": 3824,
  "Defense": 3825,
  "Walker": 3826,
  "roughly": 3827,
  "weekly": 3828,
  "15th": 3829,
  "Colonel": 3830,
  "46": 3831,
  "measure": 3832,
  "adding": 3833,
  "map": 3834,
  "aj@@": 3835,
  "lists": 3836,
  "PA": 3837,
  "Battalion": 3838,
  "locality": 3839,
  "testing": 3840,
  "covering": 3841,
  "suggests": 3842,
  "thousands": 3843,
  "perhaps": 3844,
  "dated": 3845,
  "factor": 3846,
  "Global": 3847,
  "Gra@@": 3848,
  "ms": 3849,
  "storage": 3850,
  "chair": 3851,
  "mean": 3852,
  "Lawrence": 3853,
  "peaked": 3854,
  "Indonesia": 3855,
  "ock": 3856,
  "Malaysia": 3857,
  "1901": 3858,
  "Seattle": 3859,
  "res@@": 3860,
  "involving": 3861,
  "priest": 3862,
  "Construction": 3863,
  "offensive": 3864,
  "Vi@@": 3865,
  "Li": 3866,
  "Welsh": 3867,
  "micro@@": 3868,
  "prepared": 3869,
  "Br@@": 3870,
  "mer@@": 3871,
  "elli": 3872,
  "ali": 3873,
  "extremely": 3874,
  "successor": 3875,
  "turns": 3876,
  "José": 3877,
  "practices": 3878,
  "stayed": 3879,
  "14th": 3880,
  "windows": 3881,
  "actors": 3882,
  "brick": 3883,
  "difference": 3884,
  "narrow": 3885,
  "Chairman": 3886,
  "ranking": 3887,
  "aspects": 3888,
  "95": 3889,
  "otherwise": 3890,
  "yl@@": 3891,
  "criticism": 3892,
  "arm": 3893,
  "reform": 3894,
  "moth": 3895,
  "boats": 3896,
  "Champions": 3897,
  "10th": 3898,
  "subjects": 3899,
  "graduating": 3900,
  "54": 3901,
  "ological": 3902,
  "Red@@": 3903,
  "filed": 3904,
  "expression": 3905,
  "commune": 3906,
  "borough": 3907,
  "bird": 3908,
  "Sol@@": 3909,
  "coastal": 3910,
  "ese": 3911,
  "Tr@@": 3912,
  "challenge": 3913,
  "acted": 3914,
  "1903": 3915,
  "Gal@@": 3916,
  "authors": 3917,
  "ber": 3918,
  "technique": 3919,
  "Harris": 3920,
  "Studios": 3921,
  "li": 3922,
  "Lu@@": 3923,
  "explained": 3924,
  "1902": 3925,
  "1,@@": 3926,
  "respect": 3927,
  "Round": 3928,
  "cur@@": 3929,
  "My@@": 3930,
  "restaurant": 3931,
  "Schools": 3932,
  "cited": 3933,
  "ile": 3934,
  "parliament": 3935,
  "justice": 3936,
  "hosts": 3937,
  "prime": 3938,
  "banks": 3939,
  "ray": 3940,
  "returns": 3941,
  "talk": 3942,
  "context": 3943,
  "Eric": 3944,
  "pattern": 3945,
  "Hor@@": 3946,
  "electoral": 3947,
  "understanding": 3948,
  "missing": 3949,
  "heritage": 3950,
  "Nazi": 3951,
  "Upper": 3952,
  "assembly": 3953,
  "ist@@": 3954,
  "poverty": 3955,
  "Hal@@": 3956,
  "Singh": 3957,
  "Alan": 3958,
  "prisoners": 3959,
  "Sarah": 3960,
  "assistance": 3961,
  "D.C.": 3962,
  "edited": 3963,
  "teachers": 3964,
  "Liverpool": 3965,
  "Sur@@": 3966,
  "devices": 3967,
  "ful": 3968,
  "Commander": 3969,
  "Through": 3970,
  "ats": 3971,
  "Ap@@": 3972,
  "Han@@": 3973,
  "Vienna": 3974,
  "Disney": 3975,
  "Front": 3976,
  "ban": 3977,
  "sw@@": 3978,
  "plus": 3979,
  "Transport": 3980,
  "ents": 3981,
  "tier": 3982,
  "differences": 3983,
  "gl@@": 3984,
  "signing": 3985,
  "description": 3986,
  "Culture": 3987,
  "ati@@": 3988,
  "universities": 3989,
  "alist": 3990,
  "tor@@": 3991,
  "appearing": 3992,
  "falls": 3993,
  "sing": 3994,
  "guard": 3995,
  "ell@@": 3996,
  "window": 3997,
  "ath": 3998,
  "stream": 3999,
  "replacement": 4000,
  "war@@": 4001,
  "Track": 4002,
  "Gulf": 4003,
  "Officer": 4004,
  "Orchestra": 4005,
  "appointment": 4006,
  "credit": 4007,
  "iv@@": 4008,
  "85": 4009,
  "CA@@": 4010,
  "novels": 4011,
  "victims": 4012,
  "garden": 4013,
  "Dean": 4014,
  "fan": 4015,
  "Crown": 4016,
  "Wood": 4017,
  "parliamentary": 4018,
  "Ge@@": 4019,
  "entering": 4020,
  "labor": 4021,
  "classic": 4022,
  "childhood": 4023,
  "grown": 4024,
  "lu@@": 4025,
  "Grant": 4026,
  "aki": 4027,
  "po@@": 4028,
  "sen": 4029,
  "Cathedral": 4030,
  "des@@": 4031,
  "evening": 4032,
  "mill": 4033,
  "Meanwhile": 4034,
  "Kennedy": 4035,
  "fly": 4036,
  "Bre@@": 4037,
  "brain": 4038,
  "capable": 4039,
  "listing": 4040,
  "ora": 4041,
  "scheme": 4042,
  "equipped": 4043,
  "Chart": 4044,
  "medieval": 4045,
  "Ke@@": 4046,
  "ash@@": 4047,
  "Boys": 4048,
  "Player": 4049,
  "parallel": 4050,
  "soil": 4051,
  "Basketball": 4052,
  "Alliance": 4053,
  "Ross": 4054,
  "Tu@@": 4055,
  "Men@@": 4056,
  "ati": 4057,
  "guitarist": 4058,
  "tu@@": 4059,
  "depth": 4060,
  "1920s": 4061,
  "branches": 4062,
  "Hol@@": 4063,
  "Kam@@": 4064,
  "Rio": 4065,
  "10,000": 4066,
  "grow": 4067,
  "Camp": 4068,
  "NBA": 4069,
  "replacing": 4070,
  "Tra@@": 4071,
  "temporary": 4072,
  "On@@": 4073,
  "Review": 4074,
  "ments": 4075,
  "New@@": 4076,
  "controversy": 4077,
  "requirements": 4078,
  "Birmingham": 4079,
  "translation": 4080,
  "components": 4081,
  "thing": 4082,
  "Lo@@": 4083,
  "coverage": 4084,
  "Your": 4085,
  "solution": 4086,
  "Conservative": 4087,
  "hot": 4088,
  "threat": 4089,
  "offering": 4090,
  "ying": 4091,
  "appeal": 4092,
  "fishing": 4093,
  "medals": 4094,
  "Carl": 4095,
  "Kelly": 4096,
  "Kevin": 4097,
  "ser@@": 4098,
  "Baltimore": 4099,
  "downtown": 4100,
  "finding": 4101,
  "Agency": 4102,
  "her@@": 4103,
  "Lower": 4104,
  "phone": 4105,
  "critic": 4106,
  "Jordan": 4107,
  "Garden": 4108,
  "Hills": 4109,
  "facing": 4110,
  "wooden": 4111,
  "Athletic": 4112,
  "squadron": 4113,
  "Pittsburgh": 4114,
  "debate": 4115,
  "opinion": 4116,
  "Arkansas": 4117,
  "studying": 4118,
  "ron": 4119,
  "we@@": 4120,
  "instance": 4121,
  "ians": 4122,
  "soccer": 4123,
  "struck": 4124,
  "vessels": 4125,
  "artistic": 4126,
  "Jan@@": 4127,
  "Ltd": 4128,
  "&apos;m": 4129,
  "Donald": 4130,
  "filmed": 4131,
  "ik": 4132,
  "Energy": 4133,
  "task": 4134,
  "declined": 4135,
  "Thompson": 4136,
  "ities": 4137,
  "Trump": 4138,
  "Jane": 4139,
  "gen@@": 4140,
  "ston": 4141,
  "rated": 4142,
  "Ti@@": 4143,
  "threatened": 4144,
  "ut": 4145,
  "waters": 4146,
  "broad": 4147,
  "powered": 4148,
  "processes": 4149,
  "Morgan": 4150,
  "Heart": 4151,
  "picture": 4152,
  "railroad": 4153,
  "Campbell": 4154,
  "Metro": 4155,
  "boundary": 4156,
  "friendly": 4157,
  "han": 4158,
  "nomination": 4159,
  "nations": 4160,
  "ub@@": 4161,
  "Ben@@": 4162,
  "element": 4163,
  "celebrated": 4164,
  "Opera": 4165,
  "me@@": 4166,
  "1898": 4167,
  "losses": 4168,
  "aries": 4169,
  "Ham@@": 4170,
  "denied": 4171,
  "proposal": 4172,
  "modified": 4173,
  "raise": 4174,
  "Voivodeship": 4175,
  "11th": 4176,
  "increasingly": 4177,
  "mann": 4178,
  "driven": 4179,
  "Russell": 4180,
  "forests": 4181,
  "20@@": 4182,
  "Ol@@": 4183,
  "manufacturing": 4184,
  "voting": 4185,
  "Convention": 4186,
  "lay": 4187,
  "yan": 4188,
  "changing": 4189,
  "eighth": 4190,
  "influential": 4191,
  "Av@@": 4192,
  "ble": 4193,
  "km2": 4194,
  "Here": 4195,
  "Test": 4196,
  "hair": 4197,
  "requires": 4198,
  "So@@": 4199,
  "frequency": 4200,
  "skin": 4201,
  "tank": 4202,
  "existed": 4203,
  "Tre@@": 4204,
  "Murray": 4205,
  "bringing": 4206,
  "lasted": 4207,
  "feel": 4208,
  "v.": 4209,
  "Training": 4210,
  "bound": 4211,
  "Ba@@": 4212,
  "Fl@@": 4213,
  "3,@@": 4214,
  "experiences": 4215,
  "Daily": 4216,
  "competing": 4217,
  "considerable": 4218,
  "instruments": 4219,
  "Information": 4220,
  "Roger": 4221,
  "Lane": 4222,
  "inner": 4223,
  "handed": 4224,
  "Nelson": 4225,
  "Em@@": 4226,
  "End": 4227,
  "annually": 4228,
  "carbon": 4229,
  "Stewart": 4230,
  "emergency": 4231,
  "Kent": 4232,
  "reputation": 4233,
  "Orthodox": 4234,
  "Dan": 4235,
  "res": 4236,
  "mi": 4237,
  "web": 4238,
  "surrounded": 4239,
  "ei@@": 4240,
  "landing": 4241,
  "Girls": 4242,
  "message": 4243,
  "Bangladesh": 4244,
  "strategy": 4245,
  "achieve": 4246,
  "questions": 4247,
  "Dallas": 4248,
  "Our": 4249,
  "slow": 4250,
  "suspended": 4251,
  "Peace": 4252,
  "papers": 4253,
  "Finland": 4254,
  "genre": 4255,
  "executed": 4256,
  "Authority": 4257,
  "proper": 4258,
  "53": 4259,
  "progress": 4260,
  "Brothers": 4261,
  "1899": 4262,
  "At@@": 4263,
  "involvement": 4264,
  "Austin": 4265,
  "portrayed": 4266,
  "non@@": 4267,
  "limit": 4268,
  "Franklin": 4269,
  "ium": 4270,
  "strongly": 4271,
  "ach": 4272,
  "Around": 4273,
  "affairs": 4274,
  "collections": 4275,
  "colour": 4276,
  "visitors": 4277,
  "hip": 4278,
  "ches": 4279,
  "concrete": 4280,
  "imp@@": 4281,
  "600": 4282,
  "artillery": 4283,
  "helping": 4284,
  "somewhat": 4285,
  "rounds": 4286,
  "secure": 4287,
  "vessel": 4288,
  "missions": 4289,
  "Ban@@": 4290,
  "Alex": 4291,
  "CA": 4292,
  "completion": 4293,
  "meets": 4294,
  "indicated": 4295,
  "pool": 4296,
  "57": 4297,
  "99": 4298,
  "Medicine": 4299,
  "amateur": 4300,
  "charts": 4301,
  "vision": 4302,
  "Romania": 4303,
  "adaptation": 4304,
  "print": 4305,
  "56": 4306,
  "66": 4307,
  "bury": 4308,
  "mounted": 4309,
  "constant": 4310,
  "Pierre": 4311,
  "Ten": 4312,
  "movements": 4313,
  "Princess": 4314,
  "penalty": 4315,
  "72": 4316,
  "Stanley": 4317,
  "preserved": 4318,
  "800": 4319,
  "Pl@@": 4320,
  "Originally": 4321,
  "drew": 4322,
  "survey": 4323,
  "bl@@": 4324,
  "fund": 4325,
  "championships": 4326,
  "Real": 4327,
  "recordings": 4328,
  "Robinson": 4329,
  "touchdown": 4330,
  "Dance": 4331,
  "Senator": 4332,
  "Bruce": 4333,
  "favor": 4334,
  "Taiwan": 4335,
  "expedition": 4336,
  "walk": 4337,
  "Mission": 4338,
  "Express": 4339,
  "2,@@": 4340,
  "funded": 4341,
  "Six": 4342,
  "sponsored": 4343,
  "Tur@@": 4344,
  "markets": 4345,
  "ck@@": 4346,
  "grant": 4347,
  "mal@@": 4348,
  "soundtrack": 4349,
  "gi@@": 4350,
  "Dave": 4351,
  "Trade": 4352,
  "atic": 4353,
  "wear": 4354,
  "Wright": 4355,
  "1890": 4356,
  "accounts": 4357,
  "&apos;re": 4358,
  "Baron": 4359,
  "Mak@@": 4360,
  "CBS": 4361,
  "Unlike": 4362,
  "alleged": 4363,
  "distinguished": 4364,
  "Don@@": 4365,
  "Mul@@": 4366,
  "dog": 4367,
  "Marshall": 4368,
  "Ger@@": 4369,
  "deaths": 4370,
  "rival": 4371,
  "Go@@": 4372,
  "Utah": 4373,
  "ain": 4374,
  "uncle": 4375,
  "elevation": 4376,
  "populations": 4377,
  "decline": 4378,
  "eleven": 4379,
  "Way": 4380,
  "representation": 4381,
  "eliminated": 4382,
  "tor": 4383,
  "Racing": 4384,
  "visible": 4385,
  "surviving": 4386,
  "Adams": 4387,
  "thirty": 4388,
  "Belgian": 4389,
  "camera": 4390,
  "Critical": 4391,
  "definition": 4392,
  "Spring": 4393,
  "Organization": 4394,
  "dale": 4395,
  "donated": 4396,
  "ns": 4397,
  "Christopher": 4398,
  "fer@@": 4399,
  "tail": 4400,
  "í@@": 4401,
  "250": 4402,
  "fort": 4403,
  "Economic": 4404,
  "cards": 4405,
  "treated": 4406,
  "cm": 4407,
  "counties": 4408,
  "breaking": 4409,
  "songwriter": 4410,
  "Ra@@": 4411,
  "participation": 4412,
  "affiliated": 4413,
  "Nor@@": 4414,
  "Within": 4415,
  "Brooklyn": 4416,
  "consider": 4417,
  "mountains": 4418,
  "arrest": 4419,
  "yn": 4420,
  "effectively": 4421,
  "Sound": 4422,
  "classification": 4423,
  "illegal": 4424,
  "MA": 4425,
  "inger": 4426,
  "Ash@@": 4427,
  "58": 4428,
  "Carter": 4429,
  "wine": 4430,
  "doubles": 4431,
  "Sw@@": 4432,
  "Silver": 4433,
  "Just": 4434,
  "eta": 4435,
  "ads": 4436,
  "Ann": 4437,
  "Victorian": 4438,
  "if@@": 4439,
  "Nick": 4440,
  "Movement": 4441,
  "No@@": 4442,
  "approval": 4443,
  "bro@@": 4444,
  "safe": 4445,
  "Who": 4446,
  "osa": 4447,
  "themes": 4448,
  "Im@@": 4449,
  "PC": 4450,
  "ging": 4451,
  "can@@": 4452,
  "grand": 4453,
  "innings": 4454,
  "je": 4455,
  "Graham": 4456,
  "directors": 4457,
  "ure": 4458,
  "Norman": 4459,
  "Instead": 4460,
  "contested": 4461,
  "Treaty": 4462,
  "UEFA": 4463,
  "1896": 4464,
  "benefit": 4465,
  "jobs": 4466,
  "Portland": 4467,
  "relief": 4468,
  "widespread": 4469,
  "lieutenant": 4470,
  "emerged": 4471,
  "attributed": 4472,
  "illa": 4473,
  "infrastructure": 4474,
  "discovery": 4475,
  "Go": 4476,
  "bur@@": 4477,
  "shares": 4478,
  "manner": 4479,
  "Wal@@": 4480,
  "controversial": 4481,
  "Bachelor": 4482,
  "Place": 4483,
  "Por@@": 4484,
  "happened": 4485,
  "Cre@@": 4486,
  "Kur@@": 4487,
  "Theater": 4488,
  "FIFA": 4489,
  "pick": 4490,
  "printed": 4491,
  "Da@@": 4492,
  "output": 4493,
  "huge": 4494,
  "Jimmy": 4495,
  "tive": 4496,
  "Victor": 4497,
  "ius": 4498,
  "Alfred": 4499,
  "Ly@@": 4500,
  "conduct": 4501,
  "Pol@@": 4502,
  "1897": 4503,
  "departure": 4504,
  "wheel": 4505,
  "recommended": 4506,
  "depending": 4507,
  "shore": 4508,
  "speak": 4509,
  "occasionally": 4510,
  "spoke": 4511,
  "Trophy": 4512,
  "Tim": 4513,
  "tall": 4514,
  "Staff": 4515,
  "Ta@@": 4516,
  "wild": 4517,
  "pan@@": 4518,
  "Tower": 4519,
  "continuing": 4520,
  "eh@@": 4521,
  "tests": 4522,
  "Cultural": 4523,
  "circuit": 4524,
  "rivers": 4525,
  "Fer@@": 4526,
  "Carlos": 4527,
  "drop": 4528,
  "ensis": 4529,
  "AA": 4530,
  "F.C.": 4531,
  "suicide": 4532,
  "agriculture": 4533,
  "couples": 4534,
  "option": 4535,
  "runner": 4536,
  "Muhammad": 4537,
  "Thailand": 4538,
  "employment": 4539,
  "ids": 4540,
  "1895": 4541,
  "demolished": 4542,
  "characteristics": 4543,
  "visiting": 4544,
  "dominated": 4545,
  "eyes": 4546,
  "4,@@": 4547,
  "Egyptian": 4548,
  "amp@@": 4549,
  "Vol@@": 4550,
  "fruit": 4551,
  "minimum": 4552,
  "protest": 4553,
  "domain": 4554,
  "62": 4555,
  "NHL": 4556,
  "ung": 4557,
  "Cha@@": 4558,
  "ologist": 4559,
  "tic": 4560,
  "Bon@@": 4561,
  "gone": 4562,
  "landscape": 4563,
  "newspapers": 4564,
  "attracted": 4565,
  "videos": 4566,
  "ich@@": 4567,
  "meetings": 4568,
  "seed": 4569,
  "posted": 4570,
  "solid": 4571,
  "whereas": 4572,
  "AR@@": 4573,
  "Serbian": 4574,
  "Draft": 4575,
  "describe": 4576,
  "spoken": 4577,
  "Shortly": 4578,
  "Tak@@": 4579,
  "designer": 4580,
  "steam": 4581,
  "anything": 4582,
  "youngest": 4583,
  "SA": 4584,
  "tribe": 4585,
  "bre@@": 4586,
  "resolution": 4587,
  "dam": 4588,
  "val@@": 4589,
  "Iron": 4590,
  "ami": 4591,
  "feed": 4592,
  "Wrestling": 4593,
  "channels": 4594,
  "Arabic": 4595,
  "CO@@": 4596,
  "ai@@": 4597,
  "drawing": 4598,
  "Pet@@": 4599,
  "journey": 4600,
  "Is@@": 4601,
  "Matt": 4602,
  "whilst": 4603,
  "Fleet": 4604,
  "blocks": 4605,
  "venue": 4606,
  "1000": 4607,
  "Glasgow": 4608,
  "Girl": 4609,
  "traveled": 4610,
  "Romanian": 4611,
  "cold": 4612,
  "processing": 4613,
  "Judge": 4614,
  "chapel": 4615,
  "massive": 4616,
  "ug@@": 4617,
  "May@@": 4618,
  "Richmond": 4619,
  "Star@@": 4620,
  "learn": 4621,
  "Further": 4622,
  "viewed": 4623,
  "satellite": 4624,
  "Defence": 4625,
  "underground": 4626,
  "cousin": 4627,
  "63": 4628,
  "Capital": 4629,
  "injuries": 4630,
  "chapter": 4631,
  "faith": 4632,
  "entertainment": 4633,
  "architectural": 4634,
  "ari@@": 4635,
  "Gro@@": 4636,
  "trading": 4637,
  "Moon": 4638,
  "surgery": 4639,
  "versus": 4640,
  "ass@@": 4641,
  "longest": 4642,
  "platforms": 4643,
  "column": 4644,
  "align": 4645,
  "Champion": 4646,
  "chi": 4647,
  "maintenance": 4648,
  "anti@@": 4649,
  "Windows": 4650,
  "remainder": 4651,
  "tools": 4652,
  "Gi@@": 4653,
  "Limited": 4654,
  "accept": 4655,
  "1893": 4656,
  "Benjamin": 4657,
  "mode": 4658,
  "Canal": 4659,
  "associate": 4660,
  "wings": 4661,
  "Pur@@": 4662,
  "ly@@": 4663,
  "Afghanistan": 4664,
  "erected": 4665,
  "Jerusalem": 4666,
  "Serbia": 4667,
  "oo@@": 4668,
  "Raj@@": 4669,
  "77": 4670,
  "sentenced": 4671,
  "Boy": 4672,
  "belonging": 4673,
  "generated": 4674,
  "inf@@": 4675,
  "oma": 4676,
  "moment": 4677,
  "representatives": 4678,
  "doctor": 4679,
  "motor": 4680,
  "missed": 4681,
  "Billy": 4682,
  "ruling": 4683,
  "Knight": 4684,
  "ato": 4685,
  "protests": 4686,
  "12@@": 4687,
  "occasions": 4688,
  "turning": 4689,
  "Dec@@": 4690,
  "hundreds": 4691,
  "und": 4692,
  "endemic": 4693,
  "Base": 4694,
  "Gary": 4695,
  "document": 4696,
  "infantry": 4697,
  "awa": 4698,
  "16@@": 4699,
  "Ed@@": 4700,
  "Gre@@": 4701,
  "ow": 4702,
  "68": 4703,
  "keeping": 4704,
  "writes": 4705,
  "Dan@@": 4706,
  "hearing": 4707,
  "NBC": 4708,
  "Maine": 4709,
  "Sel@@": 4710,
  "everything": 4711,
  "Kon@@": 4712,
  "21st": 4713,
  "Roy": 4714,
  "agents": 4715,
  "centers": 4716,
  "Sand@@": 4717,
  "1889": 4718,
  "vocal": 4719,
  "Cricket": 4720,
  "cancelled": 4721,
  "Distribution": 4722,
  "terminal": 4723,
  "rapidly": 4724,
  "tr@@": 4725,
  "67": 4726,
  "diameter": 4727,
  "Do@@": 4728,
  "transition": 4729,
  "Historical": 4730,
  "integrated": 4731,
  "ón": 4732,
  "competitive": 4733,
  "suffering": 4734,
  "tenure": 4735,
  "Will": 4736,
  "Tro@@": 4737,
  "encouraged": 4738,
  "Indians": 4739,
  "defence": 4740,
  "Ju@@": 4741,
  "1894": 4742,
  "colspan": 4743,
  "watch": 4744,
  "concerned": 4745,
  "begun": 4746,
  "Cro@@": 4747,
  "colony": 4748,
  "AS@@": 4749,
  "Bush": 4750,
  "producers": 4751,
  "transportation": 4752,
  "1892": 4753,
  "Nigeria": 4754,
  "bid": 4755,
  "governments": 4756,
  "West@@": 4757,
  "Germans": 4758,
  "Au@@": 4759,
  "Dun@@": 4760,
  "supplies": 4761,
  "regime": 4762,
  "claiming": 4763,
  "cre@@": 4764,
  "Mediterranean": 4765,
  "och@@": 4766,
  "suit": 4767,
  "Hampshire": 4768,
  "Seven": 4769,
  "59": 4770,
  "Ay@@": 4771,
  "cal@@": 4772,
  "defending": 4773,
  "Ob@@": 4774,
  "knew": 4775,
  "poly@@": 4776,
  "agencies": 4777,
  "Des@@": 4778,
  "ind@@": 4779,
  "grandfather": 4780,
  "Morris": 4781,
  "reportedly": 4782,
  "1885": 4783,
  "periods": 4784,
  "Las": 4785,
  "SE@@": 4786,
  "exists": 4787,
  "marketing": 4788,
  "schedule": 4789,
  "una": 4790,
  "Islam": 4791,
  "Matthew": 4792,
  "ó@@": 4793,
  "ratio": 4794,
  "ue": 4795,
  "descent": 4796,
  "Note": 4797,
  "1891": 4798,
  "concern": 4799,
  "Chile": 4800,
  "ii": 4801,
  "memorial": 4802,
  "greatly": 4803,
  "Pr@@": 4804,
  "Hispanic": 4805,
  "Ka@@": 4806,
  "assault": 4807,
  "Fund": 4808,
  "organised": 4809,
  "Last": 4810,
  "crowd": 4811,
  "kg": 4812,
  "assist": 4813,
  "send": 4814,
  "thousand": 4815,
  "Cat@@": 4816,
  "Madrid": 4817,
  "absence": 4818,
  "ky": 4819,
  "Municipality": 4820,
  "normally": 4821,
  "sentence": 4822,
  "15@@": 4823,
  "categories": 4824,
  "ō": 4825,
  "tell": 4826,
  "MS": 4827,
  "Black@@": 4828,
  "relationships": 4829,
  "Bristol": 4830,
  "Finnish": 4831,
  "Kor@@": 4832,
  "Natural": 4833,
  "supports": 4834,
  "ick": 4835,
  "releases": 4836,
  "istic": 4837,
  "Delhi": 4838,
  "Nar@@": 4839,
  "afterwards": 4840,
  "Sy@@": 4841,
  "license": 4842,
  "lock": 4843,
  "96": 4844,
  "Books": 4845,
  "athletes": 4846,
  "Ward": 4847,
  "supporters": 4848,
  "indigenous": 4849,
  "cabinet": 4850,
  "possession": 4851,
  "horses": 4852,
  "ranks": 4853,
  "Lanka": 4854,
  "ip@@": 4855,
  "Hel@@": 4856,
  "characterized": 4857,
  "und@@": 4858,
  "inaugural": 4859,
  "Arena": 4860,
  "1888": 4861,
  "Johnny": 4862,
  "Dor@@": 4863,
  "conservative": 4864,
  "audio": 4865,
  "ninth": 4866,
  "Tal@@": 4867,
  "Back": 4868,
  "Orleans": 4869,
  "Yorkshire": 4870,
  "concerts": 4871,
  "Jan": 4872,
  "unusual": 4873,
  "participants": 4874,
  "creative": 4875,
  "Wayne": 4876,
  "spending": 4877,
  "frequent": 4878,
  "behalf": 4879,
  "seeking": 4880,
  "abroad": 4881,
  "resident": 4882,
  "Mitchell": 4883,
  "gradually": 4884,
  "mat@@": 4885,
  "br@@": 4886,
  "Until": 4887,
  "Honours": 4888,
  "We@@": 4889,
  "EU": 4890,
  "lis": 4891,
  "Az@@": 4892,
  "honour": 4893,
  "profile": 4894,
  "Mus@@": 4895,
  "obtain": 4896,
  "percentage": 4897,
  "71": 4898,
  "aimed": 4899,
  "sal@@": 4900,
  "Rico": 4901,
  "ere": 4902,
  "Kin@@": 4903,
  "researchers": 4904,
  "stable": 4905,
  "styles": 4906,
  "picked": 4907,
  "ces": 4908,
  "61": 4909,
  "Cur@@": 4910,
  "Nicholas": 4911,
  "Zone": 4912,
  "relocated": 4913,
  "Greater": 4914,
  "shell": 4915,
  "immediate": 4916,
  "advertising": 4917,
  "Il@@": 4918,
  "Farm": 4919,
  "deployed": 4920,
  "ito": 4921,
  "earning": 4922,
  "makeup": 4923,
  "recovered": 4924,
  "Bay@@": 4925,
  "Evans": 4926,
  "LA": 4927,
  "amongst": 4928,
  "commanded": 4929,
  "ST@@": 4930,
  "scholar": 4931,
  "segment": 4932,
  "verse": 4933,
  "84": 4934,
  "Late": 4935,
  "panel": 4936,
  "produces": 4937,
  "SC": 4938,
  "statue": 4939,
  "69": 4940,
  "Alice": 4941,
  "seek": 4942,
  "Part": 4943,
  "hal@@": 4944,
  "SP@@": 4945,
  "publicly": 4946,
  "lin@@": 4947,
  "patient": 4948,
  "ridge": 4949,
  "toured": 4950,
  "Ku@@": 4951,
  "poems": 4952,
  "sts": 4953,
  "Transportation": 4954,
  "constitution": 4955,
  "exception": 4956,
  "counter": 4957,
  "Work": 4958,
  "networks": 4959,
  "legs": 4960,
  "rebuilt": 4961,
  "territories": 4962,
  "compilation": 4963,
  "Songs": 4964,
  "borders": 4965,
  "5,000": 4966,
  "Charlie": 4967,
  "Jason": 4968,
  "Labor": 4969,
  "restoration": 4970,
  "of@@": 4971,
  "Sab@@": 4972,
  "Category": 4973,
  "Fellow": 4974,
  "attending": 4975,
  "transmission": 4976,
  "Wil@@": 4977,
  "Beijing": 4978,
  "Pan": 4979,
  "Tam@@": 4980,
  "hy@@": 4981,
  "instrumental": 4982,
  "apparently": 4983,
  "cable": 4984,
  "symbol": 4985,
  "V.": 4986,
  "UN": 4987,
  "opportunities": 4988,
  "ots": 4989,
  "add": 4990,
  "ceased": 4991,
  "component": 4992,
  "Pin@@": 4993,
  "Vancouver": 4994,
  "Warner": 4995,
  "licensed": 4996,
  "onlyinclude": 4997,
  "CE": 4998,
  "rescue": 4999,
  "viewers": 5000,
  "Bat@@": 5001,
  "mid@@": 5002,
  "1865": 5003,
  "abuse": 5004,
  "Cam@@": 5005,
  "Members": 5006,
  "ni": 5007,
  "spiritual": 5008,
  "intersection": 5009,
  "Pat@@": 5010,
  "identify": 5011,
  "easy": 5012,
  "rapid": 5013,
  "š@@": 5014,
  "elling": 5015,
  "Andy": 5016,
  "Warren": 5017,
  "78": 5018,
  "significance": 5019,
  "substantial": 5020,
  "Na@@": 5021,
  "convention": 5022,
  "ela": 5023,
  "jo": 5024,
  "voters": 5025,
  "Liga": 5026,
  "businessman": 5027,
  "abad": 5028,
  "apart": 5029,
  "ny": 5030,
  "legislative": 5031,
  "monument": 5032,
  "ke@@": 5033,
  "extent": 5034,
  "secured": 5035,
  "exposed": 5036,
  "ver": 5037,
  "plate": 5038,
  "corporate": 5039,
  "Bol@@": 5040,
  "contribution": 5041,
  "submarine": 5042,
  "Milan": 5043,
  "Harrison": 5044,
  "ready": 5045,
  "74": 5046,
  "Jeff": 5047,
  "Cu@@": 5048,
  "assisted": 5049,
  "possibility": 5050,
  "sees": 5051,
  "1880": 5052,
  "Orange": 5053,
  "sur@@": 5054,
  "wedding": 5055,
  "1870": 5056,
  "Challenge": 5057,
  "premiere": 5058,
  "Var@@": 5059,
  "beach": 5060,
  "ions": 5061,
  "operational": 5062,
  "Throughout": 5063,
  "Persian": 5064,
  "Bible": 5065,
  "duo": 5066,
  "gay": 5067,
  "kingdom": 5068,
  "junction": 5069,
  "organ": 5070,
  "76": 5071,
  "Digital": 5072,
  "sole": 5073,
  "1861": 5074,
  "Jo@@": 5075,
  "understand": 5076,
  "N.": 5077,
  "enjoyed": 5078,
  "oid": 5079,
  "Stars": 5080,
  "ens@@": 5081,
  "adults": 5082,
  "detailed": 5083,
  "Fred": 5084,
  "customers": 5085,
  "ion@@": 5086,
  "á": 5087,
  "movies": 5088,
  "×": 5089,
  "establishing": 5090,
  "98": 5091,
  "commented": 5092,
  "indicate": 5093,
  "lane": 5094,
  "Hy@@": 5095,
  "Fin@@": 5096,
  "fit": 5097,
  "everyone": 5098,
  "Pri@@": 5099,
  "ded": 5100,
  "volumes": 5101,
  "Along": 5102,
  "Hawaii": 5103,
  "external": 5104,
  "none": 5105,
  "Results": 5106,
  "rain": 5107,
  "1940s": 5108,
  "implemented": 5109,
  "Caribbean": 5110,
  "file": 5111,
  "publisher": 5112,
  "revenue": 5113,
  "Ran@@": 5114,
  "elle": 5115,
  "Karl": 5116,
  "fled": 5117,
  "án": 5118,
  "88": 5119,
  "Having": 5120,
  "animated": 5121,
  "Mun@@": 5122,
  "enters": 5123,
  "Ni@@": 5124,
  "extreme": 5125,
  "Commissioner": 5126,
  "YouTube": 5127,
  "bay": 5128,
  "statistics": 5129,
  "signs": 5130,
  "ger@@": 5131,
  "coalition": 5132,
  "Hindu": 5133,
  "nearest": 5134,
  "attorney": 5135,
  "Sha@@": 5136,
  "ann@@": 5137,
  "née": 5138,
  "responded": 5139,
  "pur": 5140,
  "Market": 5141,
  "ft": 5142,
  "continuous": 5143,
  "Count": 5144,
  "Diocese": 5145,
  "1.5": 5146,
  "Whit@@": 5147,
  "principles": 5148,
  "Je@@": 5149,
  "drafted": 5150,
  "1862": 5151,
  "insurance": 5152,
  "1887": 5153,
  "broadcasting": 5154,
  "Friday": 5155,
  "our@@": 5156,
  "partially": 5157,
  "qualify": 5158,
  "ride": 5159,
  "Section": 5160,
  "head@@": 5161,
  "ial": 5162,
  "benefits": 5163,
  "1864": 5164,
  "assets": 5165,
  "jury": 5166,
  "sil@@": 5167,
  "81": 5168,
  "outbreak": 5169,
  "aim": 5170,
  "Iranian": 5171,
  "beautiful": 5172,
  "struggle": 5173,
  "tons": 5174,
  "activist": 5175,
  "buy": 5176,
  "oni": 5177,
  "violent": 5178,
  "inch": 5179,
  "Initially": 5180,
  "Baker": 5181,
  "Soon": 5182,
  "marks": 5183,
  "experimental": 5184,
  "hat": 5185,
  "leaf": 5186,
  "Charlotte": 5187,
  "Dur@@": 5188,
  "scientists": 5189,
  "belonged": 5190,
  "ong@@": 5191,
  "Communications": 5192,
  "substitute": 5193,
  "concentration": 5194,
  "ota": 5195,
  "chamber": 5196,
  "Manhattan": 5197,
  "texts": 5198,
  "etic": 5199,
  "Admiral": 5200,
  "fighter": 5201,
  "Alberta": 5202,
  "count": 5203,
  "ez": 5204,
  "−": 5205,
  "belief": 5206,
  "1881": 5207,
  "apartment": 5208,
  "cy@@": 5209,
  "palace": 5210,
  "Fre@@": 5211,
  "partly": 5212,
  "swimming": 5213,
  "Falls": 5214,
  "spaces": 5215,
  "Tigers": 5216,
  "Story": 5217,
  "roots": 5218,
  "Pa@@": 5219,
  "app@@": 5220,
  "crossed": 5221,
  "physics": 5222,
  "Bou@@": 5223,
  "honorary": 5224,
  "Together": 5225,
  "met@@": 5226,
  "adi@@": 5227,
  "disc": 5228,
  "merchant": 5229,
  "connecting": 5230,
  "fitted": 5231,
  "productions": 5232,
  "VI": 5233,
  "Municipal": 5234,
  "grave": 5235,
  "Branch": 5236,
  "Soccer": 5237,
  "personality": 5238,
  "subsidiary": 5239,
  "rising": 5240,
  "Freedom": 5241,
  "120": 5242,
  "1886": 5243,
  "civilian": 5244,
  "Rangers": 5245,
  "Ki@@": 5246,
  "drugs": 5247,
  "oli@@": 5248,
  "electricity": 5249,
  "useful": 5250,
  "Common": 5251,
  "advice": 5252,
  "amb@@": 5253,
  "mathematics": 5254,
  "spirit": 5255,
  "destruction": 5256,
  "gar@@": 5257,
  "municipalities": 5258,
  "discussed": 5259,
  "ts@@": 5260,
  "cemetery": 5261,
  "opponents": 5262,
  "outer": 5263,
  "seeing": 5264,
  "87": 5265,
  "post@@": 5266,
  "Code": 5267,
  "AP": 5268,
  "ei": 5269,
  "scholarship": 5270,
  "fee": 5271,
  "instrument": 5272,
  "ory": 5273,
  "Syria": 5274,
  "conservation": 5275,
  "hand@@": 5276,
  "sm@@": 5277,
  "eman": 5278,
  "immigrants": 5279,
  "relation": 5280,
  "1863": 5281,
  "bor@@": 5282,
  "displayed": 5283,
  "Philippine": 5284,
  "Wars": 5285,
  "Cooper": 5286,
  "ua": 5287,
  "judges": 5288,
  "vs.": 5289,
  "locally": 5290,
  "fair": 5291,
  "false": 5292,
  "Fine": 5293,
  "Studio": 5294,
  "ie@@": 5295,
  "Lin@@": 5296,
  "ado": 5297,
  "throne": 5298,
  "&apos;ve": 5299,
  "Type": 5300,
  "ranging": 5301,
  "Muslims": 5302,
  "adi": 5303,
  "coaching": 5304,
  "settlers": 5305,
  "2,000": 5306,
  "ym@@": 5307,
  "eng@@": 5308,
  "neither": 5309,
  "ously": 5310,
  "LP": 5311,
  "ole": 5312,
  "uk": 5313,
  "Trinity": 5314,
  "Legacy": 5315,
  "yl": 5316,
  "withdrew": 5317,
  "dismissed": 5318,
  "She@@": 5319,
  "ello": 5320,
  "Armenian": 5321,
  "terminus": 5322,
  "RAF": 5323,
  "provinces": 5324,
  "Barry": 5325,
  "Standard": 5326,
  "ning": 5327,
  "solar": 5328,
  "wrestling": 5329,
  "do@@": 5330,
  "playoffs": 5331,
  "initiated": 5332,
  "ongoing": 5333,
  "Be": 5334,
  "Universal": 5335,
  "matters": 5336,
  "retail": 5337,
  "asks": 5338,
  "crash": 5339,
  "Sport": 5340,
  "trans@@": 5341,
  "89": 5342,
  "Broadcasting": 5343,
  "Ian": 5344,
  "apply": 5345,
  "requested": 5346,
  "Nova": 5347,
  "lose": 5348,
  "Bar": 5349,
  "Cuba": 5350,
  "ika": 5351,
  "cher": 5352,
  "string": 5353,
  "73": 5354,
  "diverse": 5355,
  "fictional": 5356,
  "initiative": 5357,
  "ering": 5358,
  "Jonathan": 5359,
  "Parker": 5360,
  "lowest": 5361,
  "gra@@": 5362,
  "suburb": 5363,
  "unsuccessful": 5364,
  "92": 5365,
  "aceae": 5366,
  "tribes": 5367,
  "ung@@": 5368,
  "wants": 5369,
  "Kil@@": 5370,
  "passage": 5371,
  "treaty": 5372,
  "guilty": 5373,
  "touring": 5374,
  "79": 5375,
  "ched": 5376,
  "sn@@": 5377,
  "Video": 5378,
  "clinical": 5379,
  "perfect": 5380,
  "Kings": 5381,
  "illness": 5382,
  "metre": 5383,
  "ori": 5384,
  "Gmina": 5385,
  "completing": 5386,
  "st": 5387,
  "dispute": 5388,
  "1884": 5389,
  "banned": 5390,
  "earth": 5391,
  "Adelaide": 5392,
  "Years": 5393,
  "86": 5394,
  "13@@": 5395,
  "Hudson": 5396,
  "appropriate": 5397,
  "ram": 5398,
  "Lar@@": 5399,
  "oh@@": 5400,
  "electrical": 5401,
  "97": 5402,
  "burn": 5403,
  "izing": 5404,
  "Bri@@": 5405,
  "Ga@@": 5406,
  "cargo": 5407,
  "Sor@@": 5408,
  "essential": 5409,
  "ular": 5410,
  "doors": 5411,
  "Socialist": 5412,
  "charity": 5413,
  "farmers": 5414,
  "sculpture": 5415,
  "hole": 5416,
  "ales": 5417,
  "Guinea": 5418,
  "Munich": 5419,
  "anyone": 5420,
  "cap@@": 5421,
  "ges": 5422,
  "83": 5423,
  "Rad@@": 5424,
  "Turner": 5425,
  "minority": 5426,
  "Abbey": 5427,
  "Clinton": 5428,
  "del@@": 5429,
  "talent": 5430,
  "editions": 5431,
  "margin": 5432,
  "merger": 5433,
  "regulations": 5434,
  "82": 5435,
  "partners": 5436,
  "NY": 5437,
  "balance": 5438,
  "Virgin": 5439,
  "Food": 5440,
  "eh": 5441,
  "pitch": 5442,
  "2000s": 5443,
  "Furthermore": 5444,
  "ake": 5445,
  "si": 5446,
  "emperor": 5447,
  "1882": 5448,
  "credits": 5449,
  "Ur@@": 5450,
  "isation": 5451,
  "Brisbane": 5452,
  "Allied": 5453,
  "Parish": 5454,
  "Saints": 5455,
  "sum": 5456,
  "Jay": 5457,
  "go@@": 5458,
  "Technical": 5459,
  "Buffalo": 5460,
  "Grade": 5461,
  "closing": 5462,
  "sailed": 5463,
  "Action": 5464,
  "Tan@@": 5465,
  "Wall": 5466,
  "steps": 5467,
  "Jacob": 5468,
  "Saudi": 5469,
  "Sim@@": 5470,
  "honors": 5471,
  "weekend": 5472,
  "91": 5473,
  "dominant": 5474,
  "arrangement": 5475,
  "Classic": 5476,
  "crown": 5477,
  "soft": 5478,
  "trials": 5479,
  "Hunter": 5480,
  "09": 5481,
  "ren@@": 5482,
  "Tom@@": 5483,
  "ih@@": 5484,
  "roll": 5485,
  "OS": 5486,
  "ack": 5487,
  "decisions": 5488,
  "ti": 5489,
  "occasion": 5490,
  "AT": 5491,
  "sessions": 5492,
  "lap": 5493,
  "doesn": 5494,
  "colors": 5495,
  "Oblast": 5496,
  "exclusively": 5497,
  "cinema": 5498,
  "ls": 5499,
  "remove": 5500,
  "Barbara": 5501,
  "PhD": 5502,
  "Industry": 5503,
  "Nov@@": 5504,
  "Therefore": 5505,
  "closer": 5506,
  "anda": 5507,
  "Tech": 5508,
  "Century": 5509,
  "tur@@": 5510,
  "alized": 5511,
  "alliance": 5512,
  "crimes": 5513,
  "Attorney": 5514,
  "Catherine": 5515,
  "Dra@@": 5516,
  "Urban": 5517,
  "tha": 5518,
  "choose": 5519,
  "isolated": 5520,
  "kh@@": 5521,
  "moves": 5522,
  "Masters": 5523,
  "conversion": 5524,
  "Ok@@": 5525,
  "traded": 5526,
  "focuses": 5527,
  "Territory": 5528,
  "pursue": 5529,
  "AP@@": 5530,
  "conclusion": 5531,
  "hop": 5532,
  "Control": 5533,
  "Sky": 5534,
  "grey": 5535,
  "Ty@@": 5536,
  "falling": 5537,
  "Buddhist": 5538,
  "Anglo": 5539,
  "negotiations": 5540,
  "eldest": 5541,
  "ged": 5542,
  "mi@@": 5543,
  "93": 5544,
  "Dark": 5545,
  "Faculty": 5546,
  "wearing": 5547,
  "principle": 5548,
  "Such": 5549,
  "load": 5550,
  "hunting": 5551,
  "parent": 5552,
  "strategic": 5553,
  "Bengal": 5554,
  "Mrs.": 5555,
  "limits": 5556,
  "scope": 5557,
  "shift": 5558,
  "connections": 5559,
  "dual": 5560,
  "Peninsula": 5561,
  "ef@@": 5562,
  "ris": 5563,
  "Fe@@": 5564,
  "Woman": 5565,
  "communications": 5566,
  "recognised": 5567,
  "fifteen": 5568,
  "ida": 5569,
  "Language": 5570,
  "ingly": 5571,
  "Unit": 5572,
  "timber": 5573,
  "mechanical": 5574,
  "Race": 5575,
  "tra@@": 5576,
  "Cincinnati": 5577,
  "Ny@@": 5578,
  "raising": 5579,
  "Nation": 5580,
  "submitted": 5581,
  "Alaska": 5582,
  "ize": 5583,
  "08": 5584,
  "grows": 5585,
  "Cast@@": 5586,
  "internationally": 5587,
  "Peru": 5588,
  "assists": 5589,
  "Met@@": 5590,
  "patterns": 5591,
  "sisters": 5592,
  "evolution": 5593,
  "jurisdiction": 5594,
  "pal@@": 5595,
  "Ker@@": 5596,
  "bone": 5597,
  "cash": 5598,
  "sufficient": 5599,
  "bin": 5600,
  "manufactured": 5601,
  "clothing": 5602,
  "ses": 5603,
  "Microsoft": 5604,
  "circumstances": 5605,
  "Conservation": 5606,
  "bi": 5607,
  "che": 5608,
  "fi@@": 5609,
  "Bul@@": 5610,
  "Dakota": 5611,
  "Springs": 5612,
  "pain": 5613,
  "traditions": 5614,
  "Do": 5615,
  "ok": 5616,
  "94": 5617,
  "Les": 5618,
  "gr@@": 5619,
  "repeated": 5620,
  "apparent": 5621,
  "vers": 5622,
  "1876": 5623,
  "Bas@@": 5624,
  "aria": 5625,
  "decides": 5626,
  "housed": 5627,
  "AS": 5628,
  "Pradesh": 5629,
  "Ul@@": 5630,
  "operator": 5631,
  "travelled": 5632,
  "Model": 5633,
  "cup": 5634,
  "reviewed": 5635,
  "Cook": 5636,
  "drummer": 5637,
  "influences": 5638,
  "PS": 5639,
  "beating": 5640,
  "pointed": 5641,
  "Mol@@": 5642,
  "Down": 5643,
  "Hugh": 5644,
  "references": 5645,
  "Assistant": 5646,
  "Ice": 5647,
  "marry": 5648,
  "az": 5649,
  "UN@@": 5650,
  "reduction": 5651,
  "drums": 5652,
  "monastery": 5653,
  "else": 5654,
  "tunnel": 5655,
  "ome": 5656,
  "soldier": 5657,
  "ech@@": 5658,
  "mention": 5659,
  "rel@@": 5660,
  "resignation": 5661,
  "desire": 5662,
  "reveals": 5663,
  "5,@@": 5664,
  "mechanism": 5665,
  "14@@": 5666,
  "Rec@@": 5667,
  "intention": 5668,
  "Shah": 5669,
  "drivers": 5670,
  "tro@@": 5671,
  "sang": 5672,
  "zero": 5673,
  "ching": 5674,
  "battalion": 5675,
  "flower": 5676,
  "Vincent": 5677,
  "Collins": 5678,
  "700": 5679,
  "Lam@@": 5680,
  "Democrat": 5681,
  "Luis": 5682,
  "Trail": 5683,
  "suggest": 5684,
  "Wild": 5685,
  "boundaries": 5686,
  "back@@": 5687,
  "mix": 5688,
  "Baptist": 5689,
  "da@@": 5690,
  "clearly": 5691,
  "suitable": 5692,
  "tested": 5693,
  "1878": 5694,
  "sized": 5695,
  "restricted": 5696,
  "1883": 5697,
  "Latino": 5698,
  "Students": 5699,
  "delivery": 5700,
  "venture": 5701,
  "temperatures": 5702,
  "Barcelona": 5703,
  "Oliver": 5704,
  "ni@@": 5705,
  "sey": 5706,
  "exhibited": 5707,
  "Gl@@": 5708,
  "tend": 5709,
  "A.@@": 5710,
  "ib@@": 5711,
  "warm": 5712,
  "Cr@@": 5713,
  "ill@@": 5714,
  "Pictures": 5715,
  "involves": 5716,
  "Apple": 5717,
  "Current": 5718,
  "ović": 5719,
  "ths": 5720,
  "tone": 5721,
  "acquisition": 5722,
  "riding": 5723,
  "1871": 5724,
  "How": 5725,
  "Lloyd": 5726,
  "locomotives": 5727,
  "Nevada": 5728,
  "indicates": 5729,
  "onia": 5730,
  "convicted": 5731,
  "originated": 5732,
  "Hans": 5733,
  "ered": 5734,
  "festivals": 5735,
  "IS@@": 5736,
  "manufacturer": 5737,
  "iti@@": 5738,
  "promoting": 5739,
  "Sav@@": 5740,
  "photography": 5741,
  "Long@@": 5742,
  "ey@@": 5743,
  "water@@": 5744,
  "overseas": 5745,
  "All@@": 5746,
  "Jazz": 5747,
  "flights": 5748,
  "campaigns": 5749,
  "100,000": 5750,
  "defended": 5751,
  "Colombia": 5752,
  "bert": 5753,
  "ron@@": 5754,
  "settlements": 5755,
  "Players": 5756,
  "stones": 5757,
  "thereafter": 5758,
  "Father": 5759,
  "Win@@": 5760,
  "Leeds": 5761,
  "ography": 5762,
  "survive": 5763,
  "topics": 5764,
  "romantic": 5765,
  "demonstrated": 5766,
  "layer": 5767,
  "Democrats": 5768,
  "sis": 5769,
  "sk": 5770,
  "discussion": 5771,
  "Jr.": 5772,
  "Wing": 5773,
  "closure": 5774,
  "Nepal": 5775,
  "mor@@": 5776,
  "respective": 5777,
  "cattle": 5778,
  "Roberts": 5779,
  "linear": 5780,
  "so@@": 5781,
  "deemed": 5782,
  "rac@@": 5783,
  "truth": 5784,
  "Phoenix": 5785,
  "Christianity": 5786,
  "bomb": 5787,
  "shall": 5788,
  "stress": 5789,
  "4.@@": 5790,
  "ME@@": 5791,
  "Phil": 5792,
  "buses": 5793,
  "Pu@@": 5794,
  "increases": 5795,
  "landed": 5796,
  "dies": 5797,
  "vertical": 5798,
  "Industrial": 5799,
  "numbered": 5800,
  "permission": 5801,
  "usual": 5802,
  "traditionally": 5803,
  "Dead": 5804,
  "acres": 5805,
  "magazines": 5806,
  "copy": 5807,
  "ry@@": 5808,
  "Let": 5809,
  "bs": 5810,
  "rice": 5811,
  "mu@@": 5812,
  "opponent": 5813,
  "expand": 5814,
  "ams": 5815,
  "fear": 5816,
  "origins": 5817,
  "twin": 5818,
  "Ry@@": 5819,
  "das": 5820,
  "dependent": 5821,
  "ose": 5822,
  "debt": 5823,
  "Borough": 5824,
  "roster": 5825,
  "compiled": 5826,
  "giant": 5827,
  "wealth": 5828,
  "Those": 5829,
  "battery": 5830,
  "Herbert": 5831,
  "enrolled": 5832,
  "industries": 5833,
  "certified": 5834,
  "BA": 5835,
  "1860": 5836,
  "accessible": 5837,
  "Bernard": 5838,
  "not@@": 5839,
  "Bab@@": 5840,
  "craft": 5841,
  "genetic": 5842,
  "circle": 5843,
  "op": 5844,
  "loc@@": 5845,
  "participating": 5846,
  "Fair": 5847,
  "Operations": 5848,
  "ably": 5849,
  "funeral": 5850,
  "oral": 5851,
  "departed": 5852,
  "17@@": 5853,
  "machines": 5854,
  "Vel@@": 5855,
  "bo": 5856,
  "photographs": 5857,
  "orchestra": 5858,
  "biological": 5859,
  "boards": 5860,
  "eggs": 5861,
  "ev": 5862,
  "wealthy": 5863,
  "breeding": 5864,
  "extensively": 5865,
  "Azerbaijan": 5866,
  "zi": 5867,
  "Pra@@": 5868,
  "1872": 5869,
  "ost@@": 5870,
  "vast": 5871,
  "managing": 5872,
  "earn": 5873,
  "Madison": 5874,
  "pol@@": 5875,
  "rem@@": 5876,
  "1867": 5877,
  "Circuit": 5878,
  "playoff": 5879,
  "Finally": 5880,
  "Nebraska": 5881,
  "Non": 5882,
  "rarely": 5883,
  "stein": 5884,
  "sun": 5885,
  "Pap@@": 5886,
  "ins@@": 5887,
  "resumed": 5888,
  "Ky@@": 5889,
  "Hebrew": 5890,
  "midfielder": 5891,
  "yo": 5892,
  "finance": 5893,
  "unlike": 5894,
  "Gray": 5895,
  "decorated": 5896,
  "ico": 5897,
  "Bir@@": 5898,
  "exposure": 5899,
  "je@@": 5900,
  "Hope": 5901,
  "pm": 5902,
  "Electric": 5903,
  "Much": 5904,
  "RE@@": 5905,
  "S.@@": 5906,
  "constitutional": 5907,
  "pages": 5908,
  "supposed": 5909,
  "AM@@": 5910,
  "Fi@@": 5911,
  "interpretation": 5912,
  "walking": 5913,
  "Archbishop": 5914,
  "Side": 5915,
  "ational": 5916,
  "Symphony": 5917,
  "tanks": 5918,
  "Giants": 5919,
  "Wang": 5920,
  "ap": 5921,
  "ement": 5922,
  "Formula": 5923,
  "delayed": 5924,
  "symptoms": 5925,
  "ram@@": 5926,
  "ace": 5927,
  "athlete": 5928,
  "identical": 5929,
  "legislature": 5930,
  "Lions": 5931,
  "economics": 5932,
  "ff@@": 5933,
  "lights": 5934,
  "aro": 5935,
  "hope": 5936,
  "bear": 5937,
  "Costa": 5938,
  "Dev@@": 5939,
  "ards": 5940,
  "asi@@": 5941,
  "fresh": 5942,
  "exercise": 5943,
  "CE@@": 5944,
  "preferred": 5945,
  "ard@@": 5946,
  "corresponding": 5947,
  "therapy": 5948,
  "placing": 5949,
  "soul": 5950,
  "ila": 5951,
  "atory": 5952,
  "conventional": 5953,
  "elsewhere": 5954,
  "rocks": 5955,
  "usage": 5956,
  "1875": 5957,
  "peoples": 5958,
  "3,000": 5959,
  "ric@@": 5960,
  "Rail": 5961,
  "alization": 5962,
  "virus": 5963,
  "Formation": 5964,
  "Jerry": 5965,
  "describing": 5966,
  "implementation": 5967,
  "pole": 5968,
  "Blues": 5969,
  "collaborated": 5970,
  "Primary": 5971,
  "Systems": 5972,
  "mines": 5973,
  "thin": 5974,
  "Sat@@": 5975,
  "Athens": 5976,
  "angle": 5977,
  "ref": 5978,
  "Chamber": 5979,
  "pri@@": 5980,
  "filming": 5981,
  "USS": 5982,
  "baby": 5983,
  "inherited": 5984,
  "oy@@": 5985,
  "Croatian": 5986,
  "incumbent": 5987,
  "width": 5988,
  "Commons": 5989,
  "trail": 5990,
  "Confederate": 5991,
  "ys@@": 5992,
  "cooperation": 5993,
  "AL@@": 5994,
  "eth@@": 5995,
  "golf": 5996,
  "contributing": 5997,
  "od": 5998,
  "reg@@": 5999,
  "sounds": 6000,
  "AC@@": 6001,
  "sharing": 6002,
  "Warsaw": 6003,
  "cer@@": 6004,
  "householder": 6005,
  "repair": 6006,
  "deck": 6007,
  "thick": 6008,
  "favour": 6009,
  "informed": 6010,
  "1868": 6011,
  "expensive": 6012,
  "farming": 6013,
  "vary": 6014,
  "Kenya": 6015,
  "reaches": 6016,
  "variant": 6017,
  "bra@@": 6018,
  "gang": 6019,
  "waste": 6020,
  "wider": 6021,
  "dangerous": 6022,
  "eligible": 6023,
  "camps": 6024,
  "Drive": 6025,
  "alised": 6026,
  "alcohol": 6027,
  "Bulgarian": 6028,
  "clean": 6029,
  "proteins": 6030,
  "AT@@": 6031,
  "manage": 6032,
  "coat": 6033,
  "outstanding": 6034,
  "physician": 6035,
  "Hi@@": 6036,
  "partial": 6037,
  "preparation": 6038,
  "Independence": 6039,
  "Newcastle": 6040,
  "charter": 6041,
  "connect": 6042,
  "prices": 6043,
  "concerning": 6044,
  "enforcement": 6045,
  "nominations": 6046,
  "planet": 6047,
  "Ed": 6048,
  "specialized": 6049,
  "tribute": 6050,
  "correct": 6051,
  "Norfolk": 6052,
  "Policy": 6053,
  "bases": 6054,
  "2.5": 6055,
  "unincorporated": 6056,
  "1879": 6057,
  "Shanghai": 6058,
  "Storm": 6059,
  "slaves": 6060,
  "Album": 6061,
  "ministry": 6062,
  "bachelor": 6063,
  "Op@@": 6064,
  "hel@@": 6065,
  "DJ": 6066,
  "Mill": 6067,
  "Pedro": 6068,
  "ero": 6069,
  "ira": 6070,
  "6,@@": 6071,
  "looked": 6072,
  "alis": 6073,
  "Can": 6074,
  "Petersburg": 6075,
  "Derby": 6076,
  "Range": 6077,
  "recalled": 6078,
  "expert": 6079,
  "trust": 6080,
  "Denver": 6081,
  "1873": 6082,
  "Kat@@": 6083,
  "winds": 6084,
  "comp@@": 6085,
  "ire": 6086,
  "Jefferson": 6087,
  "Ten@@": 6088,
  "inducted": 6089,
  "uc@@": 6090,
  "automatic": 6091,
  "ush@@": 6092,
  "Terry": 6093,
  "Yale": 6094,
  "devoted": 6095,
  "CC": 6096,
  "communist": 6097,
  "Plan": 6098,
  "express": 6099,
  "São": 6100,
  "moral": 6101,
  "aga": 6102,
  "diplomatic": 6103,
  "exhibitions": 6104,
  "narrative": 6105,
  "qualification": 6106,
  "difficulties": 6107,
  "sel@@": 6108,
  "Species": 6109,
  "sol@@": 6110,
  "Cy@@": 6111,
  "Os@@": 6112,
  "Luke": 6113,
  "brigade": 6114,
  "Dem@@": 6115,
  "uniform": 6116,
  "1866": 6117,
  "oli": 6118,
  "1877": 6119,
  "oy": 6120,
  "Sultan": 6121,
  "seem": 6122,
  "Based": 6123,
  "Cra@@": 6124,
  "flew": 6125,
  "Abu": 6126,
  "Argentine": 6127,
  "reporting": 6128,
  "speaker": 6129,
  "Out@@": 6130,
  "evolved": 6131,
  "ote": 6132,
  "EC": 6133,
  "Eventually": 6134,
  "excellent": 6135,
  "eng": 6136,
  "inspiration": 6137,
  "ag": 6138,
  "cricketer": 6139,
  "Grace": 6140,
  "Rogers": 6141,
  "stroke": 6142,
  "weapon": 6143,
  "Ste@@": 6144,
  "approached": 6145,
  "Gol@@": 6146,
  "designation": 6147,
  "speakers": 6148,
  "Economy": 6149,
  "Murphy": 6150,
  "ali@@": 6151,
  "Cer@@": 6152,
  "legacy": 6153,
  "Florence": 6154,
  "Keith": 6155,
  "Ridge": 6156,
  "gallery": 6157,
  "legend": 6158,
  "shops": 6159,
  "believes": 6160,
  "etta": 6161,
  "defend": 6162,
  "Architecture": 6163,
  "dia": 6164,
  "tournaments": 6165,
  "corruption": 6166,
  "ret@@": 6167,
  "imperial": 6168,
  "sand": 6169,
  "exclusive": 6170,
  "commenced": 6171,
  "Ottawa": 6172,
  "Comics": 6173,
  "Croatia": 6174,
  "punk": 6175,
  "Delaware": 6176,
  "visits": 6177,
  "Sierra": 6178,
  "birthday": 6179,
  "diseases": 6180,
  "mainstream": 6181,
  "Harold": 6182,
  "Helen": 6183,
  "historians": 6184,
  "practical": 6185,
  "internet": 6186,
  "permitted": 6187,
  "saved": 6188,
  "ther@@": 6189,
  "Bulgaria": 6190,
  "Vegas": 6191,
  "liberal": 6192,
  "Release": 6193,
  "atus": 6194,
  "Dal@@": 6195,
  "Pen@@": 6196,
  "Stuart": 6197,
  "arriving": 6198,
  "sugar": 6199,
  "che@@": 6200,
  "counter@@": 6201,
  "fighters": 6202,
  "Kol@@": 6203,
  "Christians": 6204,
  "worker": 6205,
  "Lebanon": 6206,
  "extend": 6207,
  "gen": 6208,
  "burg": 6209,
  "clan": 6210,
  "spend": 6211,
  "organic": 6212,
  "writings": 6213,
  "Dick": 6214,
  "Edwards": 6215,
  "hero": 6216,
  "historically": 6217,
  "Ken": 6218,
  "sin@@": 6219,
  "phrase": 6220,
  "tool": 6221,
  "Anti": 6222,
  "Workers": 6223,
  "reducing": 6224,
  "Mis@@": 6225,
  "DA": 6226,
  "bul@@": 6227,
  "€": 6228,
  "belongs": 6229,
  "challenges": 6230,
  "grass": 6231,
  "aw": 6232,
  "spots": 6233,
  "exact": 6234,
  "removal": 6235,
  "à": 6236,
  "Financial": 6237,
  "depression": 6238,
  "columns": 6239,
  "prove": 6240,
  "IC@@": 6241,
  "Flight": 6242,
  "Sun@@": 6243,
  "basin": 6244,
  "thinking": 6245,
  "Dennis": 6246,
  "Gregory": 6247,
  "Nature": 6248,
  "Climate": 6249,
  "alive": 6250,
  "copper": 6251,
  "departments": 6252,
  "fill": 6253,
  "mail": 6254,
  "pairs": 6255,
  "Obama": 6256,
  "burned": 6257,
  "portrait": 6258,
  "attendance": 6259,
  "oda": 6260,
  "Rem@@": 6261,
  "CDP": 6262,
  "decide": 6263,
  "carries": 6264,
  "chemistry": 6265,
  "coins": 6266,
  "Venice": 6267,
  "victim": 6268,
  "carrier": 6269,
  "ori@@": 6270,
  "proof": 6271,
  "pitched": 6272,
  "shopping": 6273,
  "oriented": 6274,
  "root": 6275,
  "attempting": 6276,
  "Auckland": 6277,
  "Currently": 6278,
  "pushed": 6279,
  "Campaign": 6280,
  "relegated": 6281,
  "ving": 6282,
  "execution": 6283,
  "Jose": 6284,
  "helps": 6285,
  "pen@@": 6286,
  "Der@@": 6287,
  "Hughes": 6288,
  "ently": 6289,
  "guests": 6290,
  "depicted": 6291,
  "Top@@": 6292,
  "Southeast": 6293,
  "cutting": 6294,
  "interviews": 6295,
  "measured": 6296,
  "pur@@": 6297,
  "beauty": 6298,
  "my@@": 6299,
  "sitting": 6300,
  "coached": 6301,
  "Bad@@": 6302,
  "Play": 6303,
  "affect": 6304,
  "red@@": 6305,
  "till": 6306,
  "CH@@": 6307,
  "Indonesian": 6308,
  "aboard": 6309,
  "tors": 6310,
  "kar@@": 6311,
  "relevant": 6312,
  "temporarily": 6313,
  "Mother": 6314,
  "latest": 6315,
  "predecessor": 6316,
  "variable": 6317,
  "Gen@@": 6318,
  "Thai": 6319,
  "beetle": 6320,
  "distinction": 6321,
  "neck": 6322,
  "07": 6323,
  "Bag@@": 6324,
  "Contemporary": 6325,
  "Protestant": 6326,
  "dollars": 6327,
  "Robin": 6328,
  "ast": 6329,
  "faces": 6330,
  "Sin@@": 6331,
  "1874": 6332,
  "Eagles": 6333,
  "colleges": 6334,
  "printing": 6335,
  "Cas@@": 6336,
  "Stage": 6337,
  "namely": 6338,
  "escaped": 6339,
  "remote": 6340,
  "Bad": 6341,
  "1869": 6342,
  "Anglican": 6343,
  "recipient": 6344,
  "earthquake": 6345,
  "summit": 6346,
  "Tel@@": 6347,
  "hydro@@": 6348,
  "Hay@@": 6349,
  "grandson": 6350,
  "worst": 6351,
  "30@@": 6352,
  "ades": 6353,
  "murdered": 6354,
  "Dam@@": 6355,
  "awareness": 6356,
  "ean": 6357,
  "fo@@": 6358,
  "top@@": 6359,
  "Ghana": 6360,
  "ances": 6361,
  "lic@@": 6362,
  "Air@@": 6363,
  "characteristic": 6364,
  "functional": 6365,
  "administered": 6366,
  "scores": 6367,
  "Craig": 6368,
  "Syrian": 6369,
  "lia": 6370,
  "siege": 6371,
  "spin": 6372,
  "coaches": 6373,
  "ain@@": 6374,
  "citing": 6375,
  "lo": 6376,
  "Tim@@": 6377,
  "pulled": 6378,
  "telling": 6379,
  "abolished": 6380,
  "hence": 6381,
  "Child": 6382,
  "Perry": 6383,
  "ort": 6384,
  "sive": 6385,
  "Chapel": 6386,
  "Writing": 6387,
  "cat@@": 6388,
  "perspective": 6389,
  "06": 6390,
  "1848": 6391,
  "authored": 6392,
  "sat": 6393,
  "stri@@": 6394,
  "rat": 6395,
  "simultaneously": 6396,
  "Bobby": 6397,
  "shoot": 6398,
  "horror": 6399,
  "weak": 6400,
  "sung": 6401,
  "equ@@": 6402,
  "sample": 6403,
  "argument": 6404,
  "bearing": 6405,
  "gauge": 6406,
  "reporter": 6407,
  "Butler": 6408,
  "Hitler": 6409,
  "demands": 6410,
  "CP@@": 6411,
  "Mos@@": 6412,
  "evil": 6413,
  "Aviation": 6414,
  "ete": 6415,
  "def@@": 6416,
  "Next": 6417,
  "hor@@": 6418,
  "ox@@": 6419,
  "studios": 6420,
  "cavalry": 6421,
  "meter": 6422,
  "Amsterdam": 6423,
  "collapse": 6424,
  "disbanded": 6425,
  "slave": 6426,
  "strip": 6427,
  "emotional": 6428,
  "05": 6429,
  "Collection": 6430,
  "Manuel": 6431,
  "meat": 6432,
  "Protection": 6433,
  "1850": 6434,
  "IN@@": 6435,
  "Wellington": 6436,
  "Harbor": 6437,
  "recovery": 6438,
  "grades": 6439,
  "Finance": 6440,
  "seemed": 6441,
  "supplied": 6442,
  "switched": 6443,
  "unless": 6444,
  "yp@@": 6445,
  "asa": 6446,
  "Guy": 6447,
  "Provincial": 6448,
  "Dam": 6449,
  "atmosphere": 6450,
  "ruler": 6451,
  "jump": 6452,
  "Future": 6453,
  "Steven": 6454,
  "regard": 6455,
  "Albums": 6456,
  "thesis": 6457,
  "backed": 6458,
  "theories": 6459,
  "worn": 6460,
  "Former": 6461,
  "Han": 6462,
  "Short": 6463,
  "academy": 6464,
  "amounts": 6465,
  "esh": 6466,
  "guide": 6467,
  "Lor@@": 6468,
  "Sen@@": 6469,
  "ask": 6470,
  "ava": 6471,
  "tenth": 6472,
  "belt": 6473,
  "cap": 6474,
  "targets": 6475,
  "labour": 6476,
  "Venezuela": 6477,
  "han@@": 6478,
  "asking": 6479,
  "01": 6480,
  "restrictions": 6481,
  "Med@@": 6482,
  "CI@@": 6483,
  "Kir@@": 6484,
  "M.@@": 6485,
  "Run": 6486,
  "ax": 6487,
  "bridges": 6488,
  "compound": 6489,
  "receives": 6490,
  "Larry": 6491,
  "Stanford": 6492,
  "raid": 6493,
  "Guardian": 6494,
  "organisations": 6495,
  "volunteers": 6496,
  "Rom@@": 6497,
  "int@@": 6498,
  "Ken@@": 6499,
  "nephew": 6500,
  "…": 6501,
  "affair": 6502,
  "documented": 6503,
  "Exchange": 6504,
  "Gilbert": 6505,
  "Males": 6506,
  "canal": 6507,
  "Ralph": 6508,
  "altitude": 6509,
  "Vermont": 6510,
  "slowly": 6511,
  "dissolved": 6512,
  "ense": 6513,
  "ocean": 6514,
  "regulation": 6515,
  "forty": 6516,
  "options": 6517,
  "Ann@@": 6518,
  "AR": 6519,
  "indicating": 6520,
  "Agriculture": 6521,
  "outdoor": 6522,
  "Environmental": 6523,
  "abilities": 6524,
  "alternate": 6525,
  "drove": 6526,
  "explains": 6527,
  "monthly": 6528,
  "anga": 6529,
  "destroy": 6530,
  "Every": 6531,
  "Ca@@": 6532,
  "gathered": 6533,
  "seeds": 6534,
  "comparison": 6535,
  "elite": 6536,
  "Productions": 6537,
  "binding": 6538,
  "vocalist": 6539,
  "Kerala": 6540,
  "feeling": 6541,
  "graduation": 6542,
  "3D": 6543,
  "Lan@@": 6544,
  "ante": 6545,
  "improvements": 6546,
  "Gur@@": 6547,
  "Key": 6548,
  "Computer": 6549,
  "anna": 6550,
  "land@@": 6551,
  "Sheffield": 6552,
  "tourism": 6553,
  "MO@@": 6554,
  "ott": 6555,
  "waves": 6556,
  "Cruz": 6557,
  "Mason": 6558,
  "Shar@@": 6559,
  "TA": 6560,
  "Ir@@": 6561,
  "bars": 6562,
  "AN@@": 6563,
  "Cabinet": 6564,
  "Secondary": 6565,
  "Sil@@": 6566,
  "elementary": 6567,
  "fre@@": 6568,
  "reforms": 6569,
  "waiting": 6570,
  "ked": 6571,
  "ticket": 6572,
  "collective": 6573,
  "comprises": 6574,
  "ī@@": 6575,
  "connects": 6576,
  "restaurants": 6577,
  "Ancient": 6578,
  "hills": 6579,
  "Mills": 6580,
  "maker": 6581,
  "Sl@@": 6582,
  "Villa": 6583,
  "distinctive": 6584,
  "taxes": 6585,
  "etti": 6586,
  "radi@@": 6587,
  "Berkeley": 6588,
  "aggregate": 6589,
  "crosses": 6590,
  "dress": 6591,
  "ports": 6592,
  "reflect": 6593,
  "zed": 6594,
  "worship": 6595,
  "Artillery": 6596,
  "consistent": 6597,
  "maps": 6598,
  "ovo": 6599,
  "allies": 6600,
  "challenged": 6601,
  "essentially": 6602,
  "owns": 6603,
  "cul@@": 6604,
  "posts": 6605,
  "Byzantine": 6606,
  "son@@": 6607,
  "Report": 6608,
  "tube": 6609,
  "CS": 6610,
  "col@@": 6611,
  "Nashville": 6612,
  "Pon@@": 6613,
  "ken": 6614,
  "Playing": 6615,
  "dre@@": 6616,
  "&apos;d": 6617,
  "HMS": 6618,
  "defender": 6619,
  "gap": 6620,
  "payment": 6621,
  "Monday": 6622,
  "residing": 6623,
  "wh@@": 6624,
  "revolution": 6625,
  "suspension": 6626,
  "approaches": 6627,
  "leagues": 6628,
  "Jacques": 6629,
  "Joint": 6630,
  "favorite": 6631,
  "Ev@@": 6632,
  "structural": 6633,
  "disaster": 6634,
  "scientist": 6635,
  "ups": 6636,
  "Not@@": 6637,
  "Student": 6638,
  "installation": 6639,
  "Roosevelt": 6640,
  "literally": 6641,
  "Beginning": 6642,
  "IT": 6643,
  "coup": 6644,
  "emphasis": 6645,
  "predominantly": 6646,
  "Eddie": 6647,
  "Horse": 6648,
  "retiring": 6649,
  "Holland": 6650,
  "Performance": 6651,
  "impossible": 6652,
  "aware": 6653,
  "rot@@": 6654,
  "touchdowns": 6655,
  "citizen": 6656,
  "dra@@": 6657,
  "pa": 6658,
  "sequel": 6659,
  "stem": 6660,
  "understood": 6661,
  "Fall": 6662,
  "Montana": 6663,
  "Rob@@": 6664,
  "Watson": 6665,
  "battles": 6666,
  "descendants": 6667,
  "objective": 6668,
  "ops": 6669,
  "shots": 6670,
  "silent": 6671,
  "Methodist": 6672,
  "Small": 6673,
  "affiliate": 6674,
  "1859": 6675,
  "Coach": 6676,
  "parks": 6677,
  "Golf": 6678,
  "Nag@@": 6679,
  "ele": 6680,
  "technologies": 6681,
  "FI@@": 6682,
  "MC": 6683,
  "elder": 6684,
  "Box": 6685,
  "Grey": 6686,
  "failing": 6687,
  "tributary": 6688,
  "vin": 6689,
  "1857": 6690,
  "Armed": 6691,
  "stops": 6692,
  "Friends": 6693,
  "Prefecture": 6694,
  "lan": 6695,
  "procedure": 6696,
  "Ma": 6697,
  "Mr": 6698,
  "ée": 6699,
  "Nan@@": 6700,
  "Sem@@": 6701,
  "difficulty": 6702,
  "Sm@@": 6703,
  "ern@@": 6704,
  "loop": 6705,
  "Days": 6706,
  "Sony": 6707,
  "Wells": 6708,
  "tre@@": 6709,
  "IC": 6710,
  "gardens": 6711,
  "Susan": 6712,
  "Higher": 6713,
  "lers": 6714,
  "bombing": 6715,
  "consumption": 6716,
  "External": 6717,
  "Yugoslavia": 6718,
  "dramatic": 6719,
  "intellectual": 6720,
  "patrol": 6721,
  "teach": 6722,
  "Hom@@": 6723,
  "onic": 6724,
  "Delta": 6725,
  "Google": 6726,
  "actively": 6727,
  "Mir@@": 6728,
  "answer": 6729,
  "men@@": 6730,
  "recruited": 6731,
  "Motor": 6732,
  "colleagues": 6733,
  "cs": 6734,
  "undergraduate": 6735,
  "Gil@@": 6736,
  "exactly": 6737,
  "ising": 6738,
  "Economics": 6739,
  "Raymond": 6740,
  "casualties": 6741,
  "hum@@": 6742,
  "Starting": 6743,
  "illustrated": 6744,
  "elevated": 6745,
  "Tommy": 6746,
  "ERA": 6747,
  "ashi": 6748,
  "error": 6749,
  "ă@@": 6750,
  "Cold": 6751,
  "ema": 6752,
  "manuscript": 6753,
  "radical": 6754,
  "runners": 6755,
  "AFL": 6756,
  "Indies": 6757,
  "aspect": 6758,
  "referring": 6759,
  "Wi@@": 6760,
  "truck": 6761,
  "Representative": 6762,
  "archaeological": 6763,
  "parking": 6764,
  "salt": 6765,
  "ste@@": 6766,
  "Nevertheless": 6767,
  "comments": 6768,
  "ania": 6769,
  "Rick": 6770,
  "Interstate": 6771,
  "contracts": 6772,
  "fold": 6773,
  "5.@@": 6774,
  "Kr@@": 6775,
  "superior": 6776,
  "tourist": 6777,
  "argues": 6778,
  "consist": 6779,
  "Wallace": 6780,
  "Intelligence": 6781,
  "oo": 6782,
  "pictures": 6783,
  "ute": 6784,
  "•": 6785,
  "sustained": 6786,
  "orange": 6787,
  "ises": 6788,
  "tw@@": 6789,
  "ref@@": 6790,
  "ulation": 6791,
  "Literature": 6792,
  "capita": 6793,
  "Price": 6794,
  "ambassador": 6795,
  "extinct": 6796,
  "Ivan": 6797,
  "logo": 6798,
  "AD@@": 6799,
  "Finals": 6800,
  "inn@@": 6801,
  "Angel": 6802,
  "Ball@@": 6803,
  "developments": 6804,
  "judicial": 6805,
  "Kn@@": 6806,
  "nickname": 6807,
  "Nu@@": 6808,
  "Leo": 6809,
  "arch": 6810,
  "Politics": 6811,
  "beam": 6812,
  "imprisoned": 6813,
  "metropolitan": 6814,
  "Private": 6815,
  "aviation": 6816,
  "politicians": 6817,
  "Ron": 6818,
  "examination": 6819,
  "ili@@": 6820,
  "veteran": 6821,
  "firing": 6822,
  "04": 6823,
  "comprehensive": 6824,
  "acy": 6825,
  "Lev@@": 6826,
  "engagement": 6827,
  "perceived": 6828,
  "iss@@": 6829,
  "laboratory": 6830,
  "Arnold": 6831,
  "institute": 6832,
  "var@@": 6833,
  "Wh@@": 6834,
  "arch@@": 6835,
  "Dame": 6836,
  "quarterback": 6837,
  "Jon": 6838,
  "explain": 6839,
  "widow": 6840,
  "framework": 6841,
  "talks": 6842,
  "convinced": 6843,
  "dic@@": 6844,
  "eth": 6845,
  "renowned": 6846,
  "Palestinian": 6847,
  "hidden": 6848,
  "martial": 6849,
  "oxygen": 6850,
  "exhibit": 6851,
  "Commerce": 6852,
  "compositions": 6853,
  "Abraham": 6854,
  "locomotive": 6855,
  "Ambassador": 6856,
  "dimensional": 6857,
  "Films": 6858,
  "sted": 6859,
  "beaten": 6860,
  "gan": 6861,
  "č@@": 6862,
  "ax@@": 6863,
  "kilometers": 6864,
  "leg@@": 6865,
  "ven@@": 6866,
  "ban@@": 6867,
  "Jam@@": 6868,
  "Die": 6869,
  "putting": 6870,
  "extending": 6871,
  "Newton": 6872,
  "looks": 6873,
  "20,000": 6874,
  "Car": 6875,
  "Ci@@": 6876,
  "efficiency": 6877,
  "Commercial": 6878,
  "hu@@": 6879,
  "Grammy": 6880,
  "radar": 6881,
  "syndrome": 6882,
  "bri@@": 6883,
  "Railways": 6884,
  "wan": 6885,
  "Bak@@": 6886,
  "calendar": 6887,
  "neur@@": 6888,
  "shipping": 6889,
  "sort": 6890,
  "MTV": 6891,
  "bond": 6892,
  "mel@@": 6893,
  "25@@": 6894,
  "Competition": 6895,
  "Magic": 6896,
  "happy": 6897,
  "shut": 6898,
  "Clarke": 6899,
  "Leonard": 6900,
  "ić": 6901,
  "thanks": 6902,
  "valuable": 6903,
  "Fourth": 6904,
  "O.": 6905,
  "bel": 6906,
  "Honor": 6907,
  "cuts": 6908,
  "Romanized": 6909,
  "experiments": 6910,
  "Harvey": 6911,
  "enzyme": 6912,
  "Dream": 6913,
  "hospitals": 6914,
  "50,000": 6915,
  "Sak@@": 6916,
  "Overview": 6917,
  "equation": 6918,
  "graphic": 6919,
  "mainland": 6920,
  "ral": 6921,
  "Mars": 6922,
  "mate": 6923,
  "revised": 6924,
  "emb@@": 6925,
  "improvement": 6926,
  "integration": 6927,
  "tours": 6928,
  "Columbus": 6929,
  "Neil": 6930,
  "ordinary": 6931,
  "Renaissance": 6932,
  "attacking": 6933,
  "eless": 6934,
  "virtual": 6935,
  "Mont@@": 6936,
  "Phillips": 6937,
  "discontinued": 6938,
  "fifty": 6939,
  "Mid@@": 6940,
  "accommodate": 6941,
  "founders": 6942,
  "bell": 6943,
  "input": 6944,
  "statements": 6945,
  "variation": 6946,
  "wasn": 6947,
  "Ground": 6948,
  "Pop": 6949,
  "fundamental": 6950,
  "zer": 6951,
  "Bell@@": 6952,
  "NE@@": 6953,
  "cu@@": 6954,
  "progressive": 6955,
  "Palestine": 6956,
  "immigration": 6957,
  "refugees": 6958,
  "sit": 6959,
  "Prague": 6960,
  "ass": 6961,
  "vol@@": 6962,
  "Dr": 6963,
  "tes": 6964,
  "Vietnamese": 6965,
  "altered": 6966,
  "pioneer": 6967,
  "SC@@": 6968,
  "aims": 6969,
  "hyper@@": 6970,
  "shi@@": 6971,
  "Ara@@": 6972,
  "Right": 6973,
  "contribute": 6974,
  "manga": 6975,
  "Tru@@": 6976,
  "Weekly": 6977,
  "cra@@": 6978,
  "Election": 6979,
  "Essex": 6980,
  "Ah@@": 6981,
  "interesting": 6982,
  "detail": 6983,
  "ā": 6984,
  "Gabriel": 6985,
  "universe": 6986,
  "theatrical": 6987,
  "lawsuit": 6988,
  "Hart": 6989,
  "preserve": 6990,
  "rap@@": 6991,
  "CD@@": 6992,
  "ratings": 6993,
  "traveling": 6994,
  "wrong": 6995,
  "RA@@": 6996,
  "throw": 6997,
  "Montgomery": 6998,
  "Record": 6999,
  "ibn": 7000,
  "yi": 7001,
  "Ball": 7002,
  "Chair": 7003,
  "pping": 7004,
  "ishing": 7005,
  "cop@@": 7006,
  "drinking": 7007,
  "ud": 7008,
  "Dr@@": 7009,
  "god": 7010,
  "Vladimir": 7011,
  "gs": 7012,
  "magnetic": 7013,
  "Pot@@": 7014,
  "discrimination": 7015,
  "solutions": 7016,
  "yer": 7017,
  "Grove": 7018,
  "airline": 7019,
  "relay": 7020,
  "SO@@": 7021,
  "aux": 7022,
  "discuss": 7023,
  "victories": 7024,
  "fastest": 7025,
  "permanently": 7026,
  "controls": 7027,
  "thereby": 7028,
  "signals": 7029,
  "exit": 7030,
  "gaining": 7031,
  "psychology": 7032,
  "celebration": 7033,
  "Trans@@": 7034,
  "cultures": 7035,
  "neighboring": 7036,
  "interaction": 7037,
  "relating": 7038,
  "comics": 7039,
  "consumer": 7040,
  "lying": 7041,
  "universal": 7042,
  "experiment": 7043,
  "golden": 7044,
  "iting": 7045,
  "vel@@": 7046,
  "missile": 7047,
  "shorter": 7048,
  "Af@@": 7049,
  "Oscar": 7050,
  "cia": 7051,
  "sy@@": 7052,
  "iro": 7053,
  "serial": 7054,
  "Statistics": 7055,
  "infection": 7056,
  "pin": 7057,
  "ff": 7058,
  "lat@@": 7059,
  "underwent": 7060,
  "Article": 7061,
  "Revival": 7062,
  "Airlines": 7063,
  "artwork": 7064,
  "esh@@": 7065,
  "liquid": 7066,
  "literacy": 7067,
  "olo": 7068,
  "poll": 7069,
  "aging": 7070,
  "bonus": 7071,
  "eda": 7072,
  "Congo": 7073,
  "molecular": 7074,
  "jo@@": 7075,
  "Gothic": 7076,
  "Junction": 7077,
  "afternoon": 7078,
  "ures": 7079,
  "enko": 7080,
  "intense": 7081,
  "addressed": 7082,
  "diversity": 7083,
  "faster": 7084,
  "gift": 7085,
  "cent": 7086,
  "jet": 7087,
  "Otto": 7088,
  "cave": 7089,
  "democracy": 7090,
  "populated": 7091,
  "milk": 7092,
  "ank@@": 7093,
  "hur@@": 7094,
  "ów": 7095,
  "&apos;ll": 7096,
  "IP": 7097,
  "concepts": 7098,
  "dar@@": 7099,
  "onal": 7100,
  "berry": 7101,
  "pp@@": 7102,
  "programmes": 7103,
  "travels": 7104,
  "centres": 7105,
  "lifetime": 7106,
  "magic": 7107,
  "Danny": 7108,
  "Northwest": 7109,
  "1855": 7110,
  "segments": 7111,
  "smooth": 7112,
  "Sn@@": 7113,
  "char@@": 7114,
  "empire": 7115,
  "forcing": 7116,
  "forth": 7117,
  "Celtic": 7118,
  "Rolling": 7119,
  "Minor": 7120,
  "pi@@": 7121,
  "renewed": 7122,
  "ries": 7123,
  "feelings": 7124,
  "allegations": 7125,
  "focusing": 7126,
  "genes": 7127,
  "ith": 7128,
  "Den@@": 7129,
  "Revolutionary": 7130,
  "ander": 7131,
  "ministers": 7132,
  "reflected": 7133,
  "Meg@@": 7134,
  "prevented": 7135,
  "tic@@": 7136,
  "AI@@": 7137,
  "Bh@@": 7138,
  "Pop@@": 7139,
  "osis": 7140,
  "í": 7141,
  "governing": 7142,
  "ovich": 7143,
  "rebounds": 7144,
  "110": 7145,
  "Elementary": 7146,
  "Survey": 7147,
  "Ari@@": 7148,
  "RA": 7149,
  "catch": 7150,
  "fe@@": 7151,
  "los": 7152,
  "moderate": 7153,
  "clock": 7154,
  "readers": 7155,
  "artificial": 7156,
  "burial": 7157,
  "Laura": 7158,
  "tar@@": 7159,
  "revolutionary": 7160,
  "assembled": 7161,
  "ix": 7162,
  "ria": 7163,
  "C.@@": 7164,
  "Dragon": 7165,
  "tly": 7166,
  "alists": 7167,
  "flood": 7168,
  "stored": 7169,
  "exile": 7170,
  "prepare": 7171,
  "tim@@": 7172,
  "1856": 7173,
  "Arabia": 7174,
  "dis": 7175,
  "Leader": 7176,
  "dogs": 7177,
  "Hunt": 7178,
  "diesel": 7179,
  "lam@@": 7180,
  "sciences": 7181,
  "warning": 7182,
  "3.5": 7183,
  "Musical": 7184,
  "Population": 7185,
  "cylinder": 7186,
  "referendum": 7187,
  "retreat": 7188,
  "Brunswick": 7189,
  "arena": 7190,
  "extends": 7191,
  "broadcasts": 7192,
  "enemies": 7193,
  "wars": 7194,
  "Stakes": 7195,
  "editorial": 7196,
  "snow": 7197,
  "photographer": 7198,
  "cathedral": 7199,
  "democratic": 7200,
  "arrive": 7201,
  "cha": 7202,
  "Land@@": 7203,
  "Liberty": 7204,
  "Ph.D.": 7205,
  "allegedly": 7206,
  "confidence": 7207,
  "photo": 7208,
  "plain": 7209,
  "dem@@": 7210,
  "stationed": 7211,
  "efficient": 7212,
  "crops": 7213,
  "fewer": 7214,
  "Es@@": 7215,
  "Bosnia": 7216,
  "Liu": 7217,
  "eventual": 7218,
  "bench": 7219,
  "demanded": 7220,
  "reverse": 7221,
  "venues": 7222,
  "Bennett": 7223,
  "Notes": 7224,
  "empty": 7225,
  "owing": 7226,
  "revival": 7227,
  "sters": 7228,
  "ía": 7229,
  "Camp@@": 7230,
  "samples": 7231,
  "1854": 7232,
  "Pel@@": 7233,
  "Serie": 7234,
  "inter": 7235,
  "Perth": 7236,
  "anus": 7237,
  "Mario": 7238,
  "instruction": 7239,
  "Campus": 7240,
  "dialogue": 7241,
  "thirteen": 7242,
  "prince": 7243,
  "ranges": 7244,
  "threw": 7245,
  "Jamaica": 7246,
  "portions": 7247,
  "1840": 7248,
  "Forum": 7249,
  "Milwaukee": 7250,
  "holiday": 7251,
  "maintaining": 7252,
  "fed": 7253,
  "Mac": 7254,
  "ton@@": 7255,
  "zz@@": 7256,
  "pure": 7257,
  "Iraqi": 7258,
  "telephone": 7259,
  "enabled": 7260,
  "kers": 7261,
  "surprise": 7262,
  "Cameron": 7263,
  "Morning": 7264,
  "anime": 7265,
  "fantasy": 7266,
  "1858": 7267,
  "Location": 7268,
  "independently": 7269,
  "Outstanding": 7270,
  "anc@@": 7271,
  "ig": 7272,
  "activists": 7273,
  "fun": 7274,
  "ide": 7275,
  "boarding": 7276,
  "followers": 7277,
  "hardware": 7278,
  "Panama": 7279,
  "vi": 7280,
  "Cork": 7281,
  "drum": 7282,
  "plates": 7283,
  "footage": 7284,
  "kn@@": 7285,
  "Bos@@": 7286,
  "gro@@": 7287,
  "advocate": 7288,
  "wire": 7289,
  "inscription": 7290,
  "ned": 7291,
  "Fu@@": 7292,
  "continental": 7293,
  "tip": 7294,
  "AG": 7295,
  "Original": 7296,
  "colonies": 7297,
  "aine": 7298,
  "nes": 7299,
  "spell": 7300,
  "enlisted": 7301,
  "Name": 7302,
  "dubbed": 7303,
  "arrives": 7304,
  "Grande": 7305,
  "hear": 7306,
  "succession": 7307,
  "summary": 7308,
  "Pic@@": 7309,
  "Punjab": 7310,
  "criteria": 7311,
  "engage": 7312,
  "enti@@": 7313,
  "ros": 7314,
  "Spirit": 7315,
  "aut@@": 7316,
  "ear@@": 7317,
  "MD": 7318,
  "Paulo": 7319,
  "freight": 7320,
  "Š@@": 7321,
  "Data": 7322,
  "ker@@": 7323,
  "oph@@": 7324,
  "Georgian": 7325,
  "Shakespeare": 7326,
  "pitcher": 7327,
  "radiation": 7328,
  "rebellion": 7329,
  "resort": 7330,
  "AL": 7331,
  "Friedrich": 7332,
  "Pearl": 7333,
  "Joan": 7334,
  "Shaw": 7335,
  "Boulevard": 7336,
  "Wilhelm": 7337,
  "bal@@": 7338,
  "Pass": 7339,
  "handling": 7340,
  "promised": 7341,
  "ideal": 7342,
  "slavery": 7343,
  "ster@@": 7344,
  "Legal": 7345,
  "enberg": 7346,
  "ine@@": 7347,
  "rivals": 7348,
  "select": 7349,
  "dancing": 7350,
  "Lim@@": 7351,
  "Site": 7352,
  "mixture": 7353,
  "work@@": 7354,
  "announcement": 7355,
  "God@@": 7356,
  "Indianapolis": 7357,
  "Mass": 7358,
  "paint": 7359,
  "shifted": 7360,
  "Cardinal": 7361,
  "assessment": 7362,
  "employee": 7363,
  "plastic": 7364,
  "Wood@@": 7365,
  "experts": 7366,
  "By@@": 7367,
  "realized": 7368,
  "RO@@": 7369,
  "Up@@": 7370,
  "animation": 7371,
  "HD": 7372,
  "ases": 7373,
  "fourteen": 7374,
  "journalists": 7375,
  "Ren@@": 7376,
  "lighting": 7377,
  "noting": 7378,
  "oned": 7379,
  "teeth": 7380,
  "prisoner": 7381,
  "ze@@": 7382,
  "Flying": 7383,
  "releasing": 7384,
  "Marvel": 7385,
  "ologists": 7386,
  "updated": 7387,
  "generations": 7388,
  "les@@": 7389,
  "Son@@": 7390,
  "Where": 7391,
  "Kas@@": 7392,
  "Wolf": 7393,
  "conducting": 7394,
  "fairly": 7395,
  "layout": 7396,
  "North@@": 7397,
  "fallen": 7398,
  "athletic": 7399,
  "tape": 7400,
  "IT@@": 7401,
  "belong": 7402,
  "cat": 7403,
  "lift": 7404,
  "intervention": 7405,
  "oth": 7406,
  "sion": 7407,
  "Room": 7408,
  "requiring": 7409,
  "Hamburg": 7410,
  "lakes": 7411,
  "invented": 7412,
  "Maurice": 7413,
  "ST": 7414,
  "index": 7415,
  "notice": 7416,
  "repeatedly": 7417,
  "severely": 7418,
  "RC": 7419,
  "switch": 7420,
  "Aboriginal": 7421,
  "Jar@@": 7422,
  "bat": 7423,
  "Rice": 7424,
  "specimens": 7425,
  "Louise": 7426,
  "computers": 7427,
  "Nine": 7428,
  "Penn": 7429,
  "sor@@": 7430,
  "101": 7431,
  "Nam@@": 7432,
  "Over@@": 7433,
  "Lost": 7434,
  "civilians": 7435,
  "confused": 7436,
  "Advanced": 7437,
  "acoustic": 7438,
  "remembered": 7439,
  "iel": 7440,
  "neighbouring": 7441,
  "suspected": 7442,
  "centered": 7443,
  "gre@@": 7444,
  "hin@@": 7445,
  "potentially": 7446,
  "upcoming": 7447,
  "kick": 7448,
  "variations": 7449,
  "fame": 7450,
  "wards": 7451,
  "wish": 7452,
  "Miguel": 7453,
  "cy": 7454,
  "disorder": 7455,
  "prestigious": 7456,
  "Greg": 7457,
  "Sher@@": 7458,
  "targeted": 7459,
  "900": 7460,
  "Ted": 7461,
  "topped": 7462,
  "wick": 7463,
  "manufacturers": 7464,
  "triple": 7465,
  "avi@@": 7466,
  "heir": 7467,
  "owski": 7468,
  "Ernest": 7469,
  "queen": 7470,
  "sending": 7471,
  "Aaron": 7472,
  "associations": 7473,
  "na@@": 7474,
  "ric": 7475,
  "nik": 7476,
  "François": 7477,
  "Source": 7478,
  "tissue": 7479,
  "Comp@@": 7480,
  "bright": 7481,
  "jan": 7482,
  "nar@@": 7483,
  "p.m.": 7484,
  "Guide": 7485,
  "app": 7486,
  "signature": 7487,
  "Johann": 7488,
  "ord@@": 7489,
  "Gam@@": 7490,
  "Mand@@": 7491,
  "Gun@@": 7492,
  "Mobile": 7493,
  "breaks": 7494,
  "interpreted": 7495,
  "ska": 7496,
  "beliefs": 7497,
  "separation": 7498,
  "voiced": 7499,
  "1852": 7500,
  "comm@@": 7501,
  "imposed": 7502,
  "seriously": 7503,
  "ordained": 7504,
  "Circle": 7505,
  "Mill@@": 7506,
  "sixteen": 7507,
  "van@@": 7508,
  "Hindi": 7509,
  "Manila": 7510,
  "ú@@": 7511,
  "Low": 7512,
  "matrix": 7513,
  "Blood": 7514,
  "Fair@@": 7515,
  "Oakland": 7516,
  "ame": 7517,
  "Pakistani": 7518,
  "streams": 7519,
  "surrender": 7520,
  "Che@@": 7521,
  "Eagle": 7522,
  "findings": 7523,
  "volleyball": 7524,
  "dream": 7525,
  "span": 7526,
  "bears": 7527,
  "freestyle": 7528,
  "ks@@": 7529,
  "naming": 7530,
  "personally": 7531,
  "situations": 7532,
  "dialect": 7533,
  "displays": 7534,
  "ved": 7535,
  "friendship": 7536,
  "identification": 7537,
  "Wildlife": 7538,
  "reserves": 7539,
  "divorce": 7540,
  "professionals": 7541,
  "Ali@@": 7542,
  "Sussex": 7543,
  "indeed": 7544,
  "Somerset": 7545,
  "hu": 7546,
  "outs": 7547,
  "App@@": 7548,
  "Laboratory": 7549,
  "VII": 7550,
  "lab@@": 7551,
  "rep@@": 7552,
  "rows": 7553,
  "Bears": 7554,
  "Mumbai": 7555,
  "comprising": 7556,
  "patent": 7557,
  "presentation": 7558,
  "Cuban": 7559,
  "Uganda": 7560,
  "aire": 7561,
  "fusion": 7562,
  "sting": 7563,
  "tea": 7564,
  "Gate": 7565,
  "Secret": 7566,
  "behaviour": 7567,
  "Gh@@": 7568,
  "presents": 7569,
  "rainfall": 7570,
  "7,@@": 7571,
  "commitment": 7572,
  "Facebook": 7573,
  "tackles": 7574,
  "down@@": 7575,
  "Isaac": 7576,
  "accurate": 7577,
  "din": 7578,
  "Academic": 7579,
  "Artists": 7580,
  "bles": 7581,
  "fer": 7582,
  "noise": 7583,
  "Baby": 7584,
  "dealing": 7585,
  "Foster": 7586,
  "clients": 7587,
  "pilots": 7588,
  "pursued": 7589,
  "specialist": 7590,
  "circulation": 7591,
  "pit": 7592,
  "1851": 7593,
  "Sum@@": 7594,
  "oon": 7595,
  "quick": 7596,
  "Will@@": 7597,
  "sure": 7598,
  "tasks": 7599,
  "Scientific": 7600,
  "adventure": 7601,
  "improving": 7602,
  "Are": 7603,
  "Comm@@": 7604,
  "inhabited": 7605,
  "lim@@": 7606,
  "sia": 7607,
  "goalkeeper": 7608,
  "nationally": 7609,
  "don@@": 7610,
  "societies": 7611,
  "Ray@@": 7612,
  "Spencer": 7613,
  "alb@@": 7614,
  "firms": 7615,
  "fur@@": 7616,
  "lar@@": 7617,
  "vector": 7618,
  "ros@@": 7619,
  "Teams": 7620,
  "biology": 7621,
  "eat": 7622,
  "rifle": 7623,
  "wi@@": 7624,
  "Cole": 7625,
  "suggesting": 7626,
  "agree": 7627,
  "pale": 7628,
  "considering": 7629,
  "Besides": 7630,
  "clay": 7631,
  "tale": 7632,
  "Annual": 7633,
  "Fri@@": 7634,
  "IS": 7635,
  "requirement": 7636,
  "MP@@": 7637,
  "ó": 7638,
  "ū@@": 7639,
  "NASA": 7640,
  "backing": 7641,
  "observation": 7642,
  "handle": 7643,
  "Triple": 7644,
  "ui": 7645,
  "conductor": 7646,
  "desert": 7647,
  "Gardens": 7648,
  "lit": 7649,
  "celebrate": 7650,
  "Manager": 7651,
  "Ven@@": 7652,
  "concentrated": 7653,
  "praise": 7654,
  "Sean": 7655,
  "investigate": 7656,
  "psychological": 7657,
  "touch": 7658,
  "biography": 7659,
  "provisions": 7660,
  "NA": 7661,
  "Stockholm": 7662,
  "gear": 7663,
  "lan@@": 7664,
  "transit": 7665,
  "unions": 7666,
  "Block": 7667,
  "Idaho": 7668,
  "authorized": 7669,
  "similarly": 7670,
  "vo@@": 7671,
  "Voice": 7672,
  "encourage": 7673,
  "prey": 7674,
  "Albanian": 7675,
  "Reading": 7676,
  "Vil@@": 7677,
  "Bus": 7678,
  "itis": 7679,
  "tag": 7680,
  "merely": 7681,
  "23@@": 7682,
  "decrease": 7683,
  "diocese": 7684,
  "Knights": 7685,
  "procedures": 7686,
  "Justin": 7687,
  "Sullivan": 7688,
  "Ages": 7689,
  "variants": 7690,
  "construct": 7691,
  "Isle": 7692,
  "Leg@@": 7693,
  "custom": 7694,
  "phot@@": 7695,
  "skill": 7696,
  "wore": 7697,
  "hometown": 7698,
  "retain": 7699,
  "seized": 7700,
  "tal@@": 7701,
  "zi@@": 7702,
  "Jay@@": 7703,
  "are@@": 7704,
  "B.@@": 7705,
  "bow": 7706,
  "ading": 7707,
  "cr@@": 7708,
  "honours": 7709,
  "HIV": 7710,
  "NS@@": 7711,
  "chapters": 7712,
  "aur@@": 7713,
  "Durham": 7714,
  "commentary": 7715,
  "Continental": 7716,
  "duration": 7717,
  "mac@@": 7718,
  "codice": 7719,
  "floors": 7720,
  "por@@": 7721,
  "ō@@": 7722,
  "syn@@": 7723,
  "24@@": 7724,
  "Micro@@": 7725,
  "02": 7726,
  "130": 7727,
  "Kra@@": 7728,
  "Rhode": 7729,
  "creates": 7730,
  "messages": 7731,
  "sa@@": 7732,
  "eri": 7733,
  "heading": 7734,
  "Scotia": 7735,
  "ays": 7736,
  "Shah@@": 7737,
  "Wu": 7738,
  "manages": 7739,
  "Lancashire": 7740,
  "Rep@@": 7741,
  "maintains": 7742,
  "Bird": 7743,
  "Owen": 7744,
  "axis": 7745,
  "migration": 7746,
  "Examples": 7747,
  "Wy@@": 7748,
  "ail": 7749,
  "varied": 7750,
  "Marc": 7751,
  "coffee": 7752,
  "umb@@": 7753,
  "doctors": 7754,
  "Ring": 7755,
  "package": 7756,
  "petition": 7757,
  "relatives": 7758,
  "BCE": 7759,
  "Vis@@": 7760,
  "arrangements": 7761,
  "brings": 7762,
  "siblings": 7763,
  "Lucas": 7764,
  "Newport": 7765,
  "divorced": 7766,
  "jail": 7767,
  "orbit": 7768,
  "Mut@@": 7769,
  "ł@@": 7770,
  "Fisher": 7771,
  "discovers": 7772,
  "dro@@": 7773,
  "sch@@": 7774,
  "citizenship": 7775,
  "iy@@": 7776,
  "Buenos": 7777,
  "Drama": 7778,
  "Nancy": 7779,
  "Aires": 7780,
  "Sox": 7781,
  "journals": 7782,
  "sheet": 7783,
  "1853": 7784,
  "pe": 7785,
  "pianist": 7786,
  "Heights": 7787,
  "Kate": 7788,
  "Reed": 7789,
  "choir": 7790,
  "files": 7791,
  "survivors": 7792,
  "Son": 7793,
  "fin@@": 7794,
  "threats": 7795,
  "DS": 7796,
  "lasting": 7797,
  "uri": 7798,
  "King@@": 7799,
  "Morocco": 7800,
  "enable": 7801,
  "és": 7802,
  "Chelsea": 7803,
  "Gold@@": 7804,
  "Tab@@": 7805,
  "recognize": 7806,
  "volunteer": 7807,
  "mini": 7808,
  "pr@@": 7809,
  "Chester": 7810,
  "uch@@": 7811,
  "Environment": 7812,
  "Malta": 7813,
  "ook": 7814,
  "Armenia": 7815,
  "Moh@@": 7816,
  "Ton@@": 7817,
  "burning": 7818,
  "fluid": 7819,
  "gam@@": 7820,
  "Lithuania": 7821,
  "Mik@@": 7822,
  "staged": 7823,
  "aded": 7824,
  "oth@@": 7825,
  "Westminster": 7826,
  "conc@@": 7827,
  "banking": 7828,
  "congregation": 7829,
  "rebels": 7830,
  "RNA": 7831,
  "ographic": 7832,
  "sem@@": 7833,
  "Rat@@": 7834,
  "pregnant": 7835,
  "sleep": 7836,
  "Bil@@": 7837,
  "interchange": 7838,
  "streak": 7839,
  "doctorate": 7840,
  "exterior": 7841,
  "Cyprus": 7842,
  "acknowledged": 7843,
  "Has@@": 7844,
  "Salt": 7845,
  "Todd": 7846,
  "mont": 7847,
  "impressed": 7848,
  "lineup": 7849,
  "theorem": 7850,
  "circular": 7851,
  "towers": 7852,
  "7.@@": 7853,
  "Rovers": 7854,
  "averaged": 7855,
  "stability": 7856,
  "AFC": 7857,
  "Ferdinand": 7858,
  "Gran@@": 7859,
  "boxing": 7860,
  "rig@@": 7861,
  "03": 7862,
  "Rob": 7863,
  "deeply": 7864,
  "grants": 7865,
  "onwards": 7866,
  "beer": 7867,
  "aker": 7868,
  "itt": 7869,
  "8,@@": 7870,
  "Arch@@": 7871,
  "Oak": 7872,
  "operators": 7873,
  "panels": 7874,
  "ras": 7875,
  "Palmer": 7876,
  "check": 7877,
  "sequences": 7878,
  "Using": 7879,
  "prototype": 7880,
  "DE@@": 7881,
  "honored": 7882,
  "interface": 7883,
  "6.@@": 7884,
  "transformed": 7885,
  "Ruth": 7886,
  "achievement": 7887,
  "arian": 7888,
  "Oil": 7889,
  "entity": 7890,
  "knee": 7891,
  "destination": 7892,
  "intermediate": 7893,
  "ond@@": 7894,
  "advisor": 7895,
  "criticised": 7896,
  "colonel": 7897,
  "1849": 7898,
  "disappeared": 7899,
  "Green@@": 7900,
  "Hurricane": 7901,
  "Van@@": 7902,
  "quot": 7903,
  "tab@@": 7904,
  "Fr@@": 7905,
  "mentions": 7906,
  "conflicts": 7907,
  "egg": 7908,
  "prot@@": 7909,
  "zing": 7910,
  "Ahmed": 7911,
  "4,000": 7912,
  "carved": 7913,
  "Fighter": 7914,
  "quarters": 7915,
  "Rev.": 7916,
  "fortress": 7917,
  "Transit": 7918,
  "Marcus": 7919,
  "art@@": 7920,
  "deliver": 7921,
  "headquartered": 7922,
  "hosting": 7923,
  "voyage": 7924,
  "warfare": 7925,
  "Kun@@": 7926,
  "horn": 7927,
  "nationwide": 7928,
  "sharp": 7929,
  "win@@": 7930,
  "Hon@@": 7931,
  "valid": 7932,
  "Santiago": 7933,
  "dy@@": 7934,
  "scandal": 7935,
  "Pat": 7936,
  "Safety": 7937,
  "Stevens": 7938,
  "Yang": 7939,
  "corps": 7940,
  "aj": 7941,
  "lecturer": 7942,
  "Chen": 7943,
  "Lisa": 7944,
  "SE": 7945,
  "Amendment": 7946,
  "aman": 7947,
  "Peak": 7948,
  "Sz@@": 7949,
  "Tampa": 7950,
  "uan": 7951,
  "audiences": 7952,
  "ison": 7953,
  "larvae": 7954,
  "Diamond": 7955,
  "danger": 7956,
  "oring": 7957,
  "Still": 7958,
  "asi": 7959,
  "Living": 7960,
  "mut@@": 7961,
  "Bru@@": 7962,
  "Relations": 7963,
  "conjunction": 7964,
  "pet@@": 7965,
  "restore": 7966,
  "varies": 7967,
  "generate": 7968,
  "ich": 7969,
  "Copenhagen": 7970,
  "Giovanni": 7971,
  "ferry": 7972,
  "quantum": 7973,
  "receiver": 7974,
  "1847": 7975,
  "Additional": 7976,
  "collect": 7977,
  "colours": 7978,
  "feeding": 7979,
  "travelling": 7980,
  "Tennis": 7981,
  "ert": 7982,
  "Artist": 7983,
  "anger": 7984,
  "assignment": 7985,
  "emerging": 7986,
  "Nak@@": 7987,
  "particles": 7988,
  "sight": 7989,
  "drink": 7990,
  "hol@@": 7991,
  "holder": 7992,
  "Sr.": 7993,
  "expanding": 7994,
  "fac@@": 7995,
  "by@@": 7996,
  "neutral": 7997,
  "closest": 7998,
  "grid": 7999,
  "Chancellor": 8000,
  "Thi@@": 8001,
  "Tiger": 8002,
  "gy": 8003,
  "singers": 8004,
  "familiar": 8005,
  "guidance": 8006,
  "Napoleon": 8007,
  "hoped": 8008,
  "presidency": 8009,
  "Jun@@": 8010,
  "ony": 8011,
  "sel": 8012,
  "ien": 8013,
  "privately": 8014,
  "Solomon": 8015,
  "encountered": 8016,
  "suddenly": 8017,
  "Machine": 8018,
  "brook": 8019,
  "database": 8020,
  "publish": 8021,
  "pupils": 8022,
  "Franco": 8023,
  "graphics": 8024,
  "rie": 8025,
  "ening": 8026,
  "flooding": 8027,
  "indoor": 8028,
  "proceeded": 8029,
  "ć": 8030,
  "shire": 8031,
  "register": 8032,
  "topic": 8033,
  "mp@@": 8034,
  "sailing": 8035,
  "rounded": 8036,
  "Parliamentary": 8037,
  "Princeton": 8038,
  "struggled": 8039,
  "Lat@@": 8040,
  "prints": 8041,
  "Mari@@": 8042,
  "quoted": 8043,
  "stretch": 8044,
  "Kit@@": 8045,
  "kings": 8046,
  "withdrawn": 8047,
  "{": 8048,
  "FL": 8049,
  "iya": 8050,
  "trio": 8051,
  "Sky@@": 8052,
  "Steel": 8053,
  "alia": 8054,
  "favourite": 8055,
  "curve": 8056,
  "survival": 8057,
  "tomb": 8058,
  "deposits": 8059,
  "march": 8060,
  "wet": 8061,
  "oa": 8062,
  "reads": 8063,
  "bee": 8064,
  "iri": 8065,
  "Distinguished": 8066,
  "Estate": 8067,
  "Herald": 8068,
  "Reg@@": 8069,
  "provision": 8070,
  "autumn": 8071,
  "holes": 8072,
  "joins": 8073,
  "Total": 8074,
  "Yu@@": 8075,
  "paying": 8076,
  "rit@@": 8077,
  "Duncan": 8078,
  "wheels": 8079,
  "og": 8080,
  "shelter": 8081,
  "Cardinals": 8082,
  "Davies": 8083,
  "upgraded": 8084,
  "Cavalry": 8085,
  "Kap@@": 8086,
  "CS@@": 8087,
  "nineteenth": 8088,
  "graph": 8089,
  "AB@@": 8090,
  "Actor": 8091,
  "Cardiff": 8092,
  "muscle": 8093,
  "Holmes": 8094,
  "mod@@": 8095,
  "Simpson": 8096,
  "Advisory": 8097,
  "Wor@@": 8098,
  "prompted": 8099,
  "sin": 8100,
  "multi@@": 8101,
  "achievements": 8102,
  "Pos@@": 8103,
  "Fil@@": 8104,
  "corporation": 8105,
  "occurring": 8106,
  "str@@": 8107,
  "Left": 8108,
  "Plant": 8109,
  "Publishing": 8110,
  "activated": 8111,
  "conferences": 8112,
  "consultant": 8113,
  "ère": 8114,
  "Java": 8115,
  "Sabha": 8116,
  "Wat@@": 8117,
  "makers": 8118,
  "encounter": 8119,
  "punishment": 8120,
  "Desert": 8121,
  "deals": 8122,
  "farms": 8123,
  "ho": 8124,
  "reveal": 8125,
  "welfare": 8126,
  "Canterbury": 8127,
  "acquire": 8128,
  "ther": 8129,
  "ump": 8130,
  "wickets": 8131,
  "Coll@@": 8132,
  "IP@@": 8133,
  "ress": 8134,
  "CO": 8135,
  "Eugene": 8136,
  "Mot@@": 8137,
  "XI": 8138,
  "imprisonment": 8139,
  "journalism": 8140,
  "Wall@@": 8141,
  "oe": 8142,
  "relegation": 8143,
  "Dynasty": 8144,
  "Cos@@": 8145,
  "Events": 8146,
  "Far": 8147,
  "Sou@@": 8148,
  "TC": 8149,
  "discover": 8150,
  "Nintendo": 8151,
  "cotton": 8152,
  "lectures": 8153,
  "Manitoba": 8154,
  "aks": 8155,
  "Geneva": 8156,
  "batting": 8157,
  "governed": 8158,
  "liner": 8159,
  "FBI": 8160,
  "impressive": 8161,
  "random": 8162,
  "rocket": 8163,
  "Belgrade": 8164,
  "soap": 8165,
  "trouble": 8166,
  "array": 8167,
  "Popular": 8168,
  "stor@@": 8169,
  "Chapter": 8170,
  "Soul": 8171,
  "Lithuanian": 8172,
  "Phil@@": 8173,
  "ais": 8174,
  "chess": 8175,
  "Pre": 8176,
  "1846": 8177,
  "Mes@@": 8178,
  "pot@@": 8179,
  "resource": 8180,
  "aff@@": 8181,
  "engineers": 8182,
  "Care": 8183,
  "Franz": 8184,
  "Sudan": 8185,
  "Gul@@": 8186,
  "SS@@": 8187,
  "kes": 8188,
  "layers": 8189,
  "rape": 8190,
  "Personnel": 8191,
  "explore": 8192,
  "marking": 8193,
  "Indigenous": 8194,
  "Sah@@": 8195,
  "Som@@": 8196,
  "cult": 8197,
  "Dom@@": 8198,
  "lessons": 8199,
  "mall": 8200,
  "transported": 8201,
  "Queens": 8202,
  "edges": 8203,
  "bel@@": 8204,
  "consensus": 8205,
  "exp@@": 8206,
  "NC": 8207,
  "The@@": 8208,
  "\\": 8209,
  "algorithm": 8210,
  "oi": 8211,
  "sensitive": 8212,
  "blues": 8213,
  "varying": 8214,
  "Dominican": 8215,
  "TS": 8216,
  "planted": 8217,
  "reservoir": 8218,
  "treat": 8219,
  "Cle@@": 8220,
  "attraction": 8221,
  "automatically": 8222,
  "ware": 8223,
  "kar": 8224,
  "helicopter": 8225,
  "Twitter": 8226,
  "performers": 8227,
  "sec@@": 8228,
  "ø@@": 8229,
  "Bah@@": 8230,
  "Moreover": 8231,
  "Um@@": 8232,
  "ious": 8233,
  "balls": 8234,
  "ils": 8235,
  "Bradford": 8236,
  "Brussels": 8237,
  "Ellis": 8238,
  "practiced": 8239,
  "ode": 8240,
  "ours": 8241,
  "Fifth": 8242,
  "investors": 8243,
  "Philosophy": 8244,
  "cro@@": 8245,
  "Parks": 8246,
  "portraits": 8247,
  "AB": 8248,
  "ji@@": 8249,
  "Bran@@": 8250,
  "zones": 8251,
  "reactions": 8252,
  "preliminary": 8253,
  "Fernando": 8254,
  "Pad@@": 8255,
  "Armstrong": 8256,
  "distant": 8257,
  "Emily": 8258,
  "Kl@@": 8259,
  "decreased": 8260,
  "drawings": 8261,
  "dean": 8262,
  "1830": 8263,
  "Py@@": 8264,
  "prayer": 8265,
  "Kenneth": 8266,
  "Lem@@": 8267,
  "stra@@": 8268,
  "Julia": 8269,
  "af": 8270,
  "eating": 8271,
  "esses": 8272,
  "Angels": 8273,
  "Amateur": 8274,
  "Tree": 8275,
  "Yellow": 8276,
  "ben@@": 8277,
  "ope": 8278,
  "peer": 8279,
  "teammate": 8280,
  "twentieth": 8281,
  "estates": 8282,
  "Engineers": 8283,
  "curriculum": 8284,
  "rapper": 8285,
  "1812": 8286,
  "Emma": 8287,
  "ited": 8288,
  "oz@@": 8289,
  "permit": 8290,
  "registration": 8291,
  "Legislature": 8292,
  "militia": 8293,
  "riders": 8294,
  "Subsequently": 8295,
  "client": 8296,
  "Nigerian": 8297,
  "varieties": 8298,
  "codes": 8299,
  "occasional": 8300,
  "offs": 8301,
  "phenomenon": 8302,
  "stolen": 8303,
  "Interior": 8304,
  "Nav@@": 8305,
  "Tang": 8306,
  "ables": 8307,
  "AIDS": 8308,
  "Poly@@": 8309,
  "beneath": 8310,
  "colored": 8311,
  "dae": 8312,
  "ming": 8313,
  "southeastern": 8314,
  "20.@@": 8315,
  "customer": 8316,
  "hydrogen": 8317,
  "noble": 8318,
  "Andrews": 8319,
  "Hull": 8320,
  "priests": 8321,
  "renovation": 8322,
  "girlfriend": 8323,
  "pronounced": 8324,
  "Double": 8325,
  "tight": 8326,
  "Return": 8327,
  "competitors": 8328,
  "dynamic": 8329,
  "enn@@": 8330,
  "watched": 8331,
  "Hem@@": 8332,
  "gers": 8333,
  "mo": 8334,
  "solely": 8335,
  "terrain": 8336,
  "uz@@": 8337,
  "00@@": 8338,
  "aftermath": 8339,
  "discipline": 8340,
  "governmental": 8341,
  "libraries": 8342,
  "Bun@@": 8343,
  "Pas@@": 8344,
  "Rag@@": 8345,
  "Cab@@": 8346,
  "bills": 8347,
  "hopes": 8348,
  "interactions": 8349,
  "shock": 8350,
  "RS": 8351,
  "Ronald": 8352,
  "absolute": 8353,
  "consequence": 8354,
  "intensity": 8355,
  "Basin": 8356,
  "Kos@@": 8357,
  "genera": 8358,
  "ruins": 8359,
  "Again": 8360,
  "Brooks": 8361,
  "Comedy": 8362,
  "Eight": 8363,
  "delay": 8364,
  "handled": 8365,
  "grain": 8366,
  "mansion": 8367,
  "dor@@": 8368,
  "hr@@": 8369,
  "Bradley": 8370,
  "Deb@@": 8371,
  "armies": 8372,
  "dancer": 8373,
  "ng": 8374,
  "rivalry": 8375,
  "tribal": 8376,
  "Saskatchewan": 8377,
  "dying": 8378,
  "oro": 8379,
  "..": 8380,
  "Guards": 8381,
  "Lang@@": 8382,
  "ž@@": 8383,
  "1845": 8384,
  "shed": 8385,
  "Deep": 8386,
  "hull": 8387,
  "ows": 8388,
  "Zhang": 8389,
  "congressional": 8390,
  "embarked": 8391,
  "IA": 8392,
  "Universe": 8393,
  "supporter": 8394,
  "witness": 8395,
  "Powell": 8396,
  "configuration": 8397,
  "inclusion": 8398,
  "push": 8399,
  "flowering": 8400,
  "orn": 8401,
  "creator": 8402,
  "storyline": 8403,
  "Presbyterian": 8404,
  "Similarly": 8405,
  "kilometres": 8406,
  "territorial": 8407,
  "É@@": 8408,
  "ign@@": 8409,
  "ovsky": 8410,
  "striking": 8411,
  "CC@@": 8412,
  "NO@@": 8413,
  "Ot@@": 8414,
  "star@@": 8415,
  "willing": 8416,
  "Haz@@": 8417,
  "une": 8418,
  "Colonial": 8419,
  "Without": 8420,
  "ums": 8421,
  "yr@@": 8422,
  "Oc@@": 8423,
  "theology": 8424,
  "withdrawal": 8425,
  "Eurovision": 8426,
  "airing": 8427,
  "compounds": 8428,
  "Gri@@": 8429,
  "aerial": 8430,
  "ima": 8431,
  "Din@@": 8432,
  "Pres@@": 8433,
  "akes": 8434,
  "export": 8435,
  "dozen": 8436,
  "Gibson": 8437,
  "Lodge": 8438,
  "ately": 8439,
  "subspecies": 8440,
  "qui@@": 8441,
  "Henderson": 8442,
  "Wind": 8443,
  "ester": 8444,
  "hitting": 8445,
  "southwestern": 8446,
  "tia": 8447,
  "gan@@": 8448,
  "E.@@": 8449,
  "acclaim": 8450,
  "Actress": 8451,
  "Rab@@": 8452,
  "conquest": 8453,
  "kl@@": 8454,
  "ammunition": 8455,
  "ells": 8456,
  "northeastern": 8457,
  "Progressive": 8458,
  "kills": 8459,
  "patron": 8460,
  "observations": 8461,
  "oms": 8462,
  "easier": 8463,
  "fires": 8464,
  "ham@@": 8465,
  "Against": 8466,
  "Chase": 8467,
  "NATO": 8468,
  "Maj@@": 8469,
  "Nic@@": 8470,
  "ush": 8471,
  "Aircraft": 8472,
  "define": 8473,
  "IBM": 8474,
  "Recording": 8475,
  "diet": 8476,
  "guards": 8477,
  "Page": 8478,
  "but@@": 8479,
  "electro@@": 8480,
  "surfaces": 8481,
  "tion": 8482,
  "Bull": 8483,
  "Critics": 8484,
  "learns": 8485,
  "unclear": 8486,
  "workshops": 8487,
  "bassist": 8488,
  "garrison": 8489,
  "ichi": 8490,
  "1,0@@": 8491,
  "alisation": 8492,
  "super": 8493,
  "squ@@": 8494,
  "accomplished": 8495,
  "allocated": 8496,
  "sed": 8497,
  "50@@": 8498,
  "furniture": 8499,
  "ta@@": 8500,
  "trips": 8501,
  "Julian": 8502,
  "eva": 8503,
  "argue": 8504,
  "rotation": 8505,
  "anchor": 8506,
  "Abdul": 8507,
  "Bryan": 8508,
  "fees": 8509,
  "moments": 8510,
  "watching": 8511,
  "Neg@@": 8512,
  "doctrine": 8513,
  "fraud": 8514,
  "trend": 8515,
  "Stra@@": 8516,
  "hybrid": 8517,
  "Regular": 8518,
  "missionary": 8519,
  "IR@@": 8520,
  "Surrey": 8521,
  "boss": 8522,
  "regardless": 8523,
  "eling": 8524,
  "180": 8525,
  "CR": 8526,
  "collapsed": 8527,
  "stronger": 8528,
  "Dou@@": 8529,
  "rom@@": 8530,
  "Bog@@": 8531,
  "Leon": 8532,
  "attitude": 8533,
  "rell": 8534,
  "theoretical": 8535,
  "Others": 8536,
  "ann": 8537,
  "environments": 8538,
  "Bear": 8539,
  "commanding": 8540,
  "investigated": 8541,
  "transformation": 8542,
  "Complex": 8543,
  "anz@@": 8544,
  "condemned": 8545,
  "Dol@@": 8546,
  "GA": 8547,
  "pack": 8548,
  "Capitol": 8549,
  "collecting": 8550,
  "incidents": 8551,
  "magnitude": 8552,
  "Study": 8553,
  "rough": 8554,
  "she@@": 8555,
  "bishops": 8556,
  "Bet@@": 8557,
  "accordance": 8558,
  "Saxon": 8559,
  "Tul@@": 8560,
  "ements": 8561,
  "fu@@": 8562,
  "Fish": 8563,
  "estimate": 8564,
  "Kom@@": 8565,
  "Wo@@": 8566,
  "fate": 8567,
  "itation": 8568,
  "shoulder": 8569,
  "Nat@@": 8570,
  "Orlando": 8571,
  "Vas@@": 8572,
  "blocked": 8573,
  "Off": 8574,
  "SP": 8575,
  "committees": 8576,
  "eter": 8577,
  "interim": 8578,
  "Caroline": 8579,
  "Filipino": 8580,
  "Kingston": 8581,
  "Legion": 8582,
  "Res@@": 8583,
  "manual": 8584,
  "nicknamed": 8585,
  "Anti@@": 8586,
  "Michel": 8587,
  "settle": 8588,
  "Ass@@": 8589,
  "Brighton": 8590,
  "Official": 8591,
  "loved": 8592,
  "19.@@": 8593,
  "J.@@": 8594,
  "ensemble": 8595,
  "Kot@@": 8596,
  "developer": 8597,
  "farmer": 8598,
  "involve": 8599,
  "temples": 8600,
  "united": 8601,
  "ş@@": 8602,
  "ER@@": 8603,
  "MLB": 8604,
  "PlayStation": 8605,
  "Sho@@": 8606,
  "equally": 8607,
  "habitats": 8608,
  "Republicans": 8609,
  "absorbed": 8610,
  "consent": 8611,
  "ied": 8612,
  "tran@@": 8613,
  "Agreement": 8614,
  "depicting": 8615,
  "Lakes": 8616,
  "Leslie": 8617,
  "2.0": 8618,
  "shallow": 8619,
  "Colin": 8620,
  "Mam@@": 8621,
  "Mid": 8622,
  "VIII": 8623,
  "ily": 8624,
  "insects": 8625,
  "Iceland": 8626,
  "R.@@": 8627,
  "22@@": 8628,
  "directing": 8629,
  "OR@@": 8630,
  "gathering": 8631,
  "inning": 8632,
  "stake": 8633,
  "photos": 8634,
  "Electoral": 8635,
  "Vin@@": 8636,
  "strict": 8637,
  "Plaza": 8638,
  "bacteria": 8639,
  "elimination": 8640,
  "Lyon": 8641,
  "Number": 8642,
  "tel@@": 8643,
  "cleared": 8644,
  "consequences": 8645,
  "receptor": 8646,
  "Planning": 8647,
  "lord": 8648,
  "Lav@@": 8649,
  "Resources": 8650,
  "isa": 8651,
  "26@@": 8652,
  "30,000": 8653,
  "expelled": 8654,
  "Lucy": 8655,
  "Pete": 8656,
  "renovated": 8657,
  "spec@@": 8658,
  "Arsenal": 8659,
  "Bla@@": 8660,
  "Hur@@": 8661,
  "LE@@": 8662,
  "LGBT": 8663,
  "Preston": 8664,
  "mutual": 8665,
  "reconstruction": 8666,
  "25.@@": 8667,
  "ballot": 8668,
  "conceived": 8669,
  "depends": 8670,
  "diagnosed": 8671,
  "introduce": 8672,
  "ologically": 8673,
  "sheep": 8674,
  "D.@@": 8675,
  "Woods": 8676,
  "Tyler": 8677,
  "bit@@": 8678,
  "Canyon": 8679,
  "aside": 8680,
  "rum": 8681,
  "Cou@@": 8682,
  "Reform": 8683,
  "vegetation": 8684,
  "tin": 8685,
  "iers": 8686,
  "lined": 8687,
  "virtually": 8688,
  "Kab@@": 8689,
  "Sad@@": 8690,
  "intent": 8691,
  "Presidential": 8692,
  "uma": 8693,
  "ín": 8694,
  "compensation": 8695,
  "exploration": 8696,
  "CT": 8697,
  "ater": 8698,
  "planes": 8699,
  "advised": 8700,
  "casting": 8701,
  "ez@@": 8702,
  "healthy": 8703,
  "Globe": 8704,
  "Memphis": 8705,
  "mathematical": 8706,
  "Course": 8707,
  "Episcopal": 8708,
  "min": 8709,
  "assassination": 8710,
  "considers": 8711,
  "Estonia": 8712,
  "ettes": 8713,
  "manufacture": 8714,
  "doubt": 8715,
  "logic": 8716,
  "thermal": 8717,
  "tom@@": 8718,
  "ç@@": 8719,
  "WWE": 8720,
  "inst@@": 8721,
  "pace": 8722,
  "promise": 8723,
  "questioned": 8724,
  "raw": 8725,
  "suburbs": 8726,
  "Ant@@": 8727,
  "bas@@": 8728,
  "Robertson": 8729,
  "counts": 8730,
  "genres": 8731,
  "1800": 8732,
  "Bailey": 8733,
  "USSR": 8734,
  "anth@@": 8735,
  "proposals": 8736,
  "Josh": 8737,
  "clothes": 8738,
  "9,@@": 8739,
  "Am": 8740,
  "1.2": 8741,
  "Located": 8742,
  "rises": 8743,
  "Bus@@": 8744,
  "bones": 8745,
  "Ahmad": 8746,
  "ished": 8747,
  "kin@@": 8748,
  "bowl": 8749,
  "med@@": 8750,
  "separately": 8751,
  "zu": 8752,
  "ink": 8753,
  "mag@@": 8754,
  "massacre": 8755,
  "nose": 8756,
  "talking": 8757,
  "Chal@@": 8758,
  "Sant@@": 8759,
  "Vill@@": 8760,
  "adoption": 8761,
  "upset": 8762,
  "vo": 8763,
  "estimates": 8764,
  "1844": 8765,
  "Blake": 8766,
  "Get": 8767,
  "Amy": 8768,
  "Liberation": 8769,
  "specified": 8770,
  "Edition": 8771,
  "manor": 8772,
  "preparing": 8773,
  "tables": 8774,
  "Miles": 8775,
  "far@@": 8776,
  "integral": 8777,
  "predicted": 8778,
  "350": 8779,
  "Allan": 8780,
  "Amazon": 8781,
  "Stock": 8782,
  "ened": 8783,
  "inches": 8784,
  "mol@@": 8785,
  "Oslo": 8786,
  "bon@@": 8787,
  "Alpha": 8788,
  "Curtis": 8789,
  "Hag@@": 8790,
  "Windsor": 8791,
  "Lov@@": 8792,
  "log": 8793,
  "mere": 8794,
  "sporting": 8795,
  "McC@@": 8796,
  "Naples": 8797,
  "cker": 8798,
  "feels": 8799,
  "bore": 8800,
  "dri@@": 8801,
  "kitchen": 8802,
  "wildlife": 8803,
  "1841": 8804,
  "HS": 8805,
  "autonomous": 8806,
  "undertaken": 8807,
  "Att@@": 8808,
  "elled": 8809,
  "ep": 8810,
  "Notre": 8811,
  "servant": 8812,
  "thrown": 8813,
  "6,000": 8814,
  "pink": 8815,
  "Rabbi": 8816,
  "Richardson": 8817,
  "constantly": 8818,
  "guided": 8819,
  "legally": 8820,
  "emp@@": 8821,
  "form@@": 8822,
  "tel": 8823,
  "Impact": 8824,
  "mature": 8825,
  "necessarily": 8826,
  "María": 8827,
  "currency": 8828,
  "inaugurated": 8829,
  "inae": 8830,
  "ju@@": 8831,
  "probability": 8832,
  "wor@@": 8833,
  "ble@@": 8834,
  "entries": 8835,
  "sword": 8836,
  "Hopkins": 8837,
  "Principal": 8838,
  "tourists": 8839,
  "Speaker": 8840,
  "walks": 8841,
  "26.@@": 8842,
  "pounds": 8843,
  "TV@@": 8844,
  "confusion": 8845,
  "prec@@": 8846,
  "sustainable": 8847,
  "24.@@": 8848,
  "explosion": 8849,
  "mar": 8850,
  "rin": 8851,
  "Rachel": 8852,
  "Tran@@": 8853,
  "agrees": 8854,
  "ency": 8855,
  "Henri": 8856,
  "revived": 8857,
  "preservation": 8858,
  "abortion": 8859,
  "instructions": 8860,
  "optical": 8861,
  "IM@@": 8862,
  "spectrum": 8863,
  "facade": 8864,
  "Frankfurt": 8865,
  "knows": 8866,
  "Depression": 8867,
  "crowned": 8868,
  "Inn": 8869,
  "Water@@": 8870,
  "lion": 8871,
  "Ach@@": 8872,
  "consideration": 8873,
  "let@@": 8874,
  "profession": 8875,
  "1837": 8876,
  "Nathan": 8877,
  "corn": 8878,
  "crop": 8879,
  "zo": 8880,
  "Gy@@": 8881,
  "Literary": 8882,
  "SM@@": 8883,
  "Edmund": 8884,
  "manuscripts": 8885,
  "ser": 8886,
  "rh@@": 8887,
  "torpedo": 8888,
  "Albania": 8889,
  "Cru@@": 8890,
  "amm@@": 8891,
  "badly": 8892,
  "cking": 8893,
  "dist@@": 8894,
  "edi@@": 8895,
  "stepped": 8896,
  "monitoring": 8897,
  "poorly": 8898,
  "withdraw": 8899,
  "1839": 8900,
  "AN": 8901,
  "certainly": 8902,
  "log@@": 8903,
  "mechanisms": 8904,
  "eri@@": 8905,
  "keys": 8906,
  "ores": 8907,
  "pos@@": 8908,
  "Classical": 8909,
  "Dog": 8910,
  "Fur@@": 8911,
  "consistently": 8912,
  "ree": 8913,
  "screenplay": 8914,
  "Boeing": 8915,
  "happen": 8916,
  "rally": 8917,
  "125": 8918,
  "Being": 8919,
  "ease": 8920,
  "faction": 8921,
  "Rock@@": 8922,
  "Spider": 8923,
  "Support": 8924,
  "bold": 8925,
  "ritual": 8926,
  "Coalition": 8927,
  "1500": 8928,
  "Kel@@": 8929,
  "Vir@@": 8930,
  "ī": 8931,
  "Hall@@": 8932,
  "Lutheran": 8933,
  "Cornwall": 8934,
  "Kumar": 8935,
  "ias": 8936,
  "symbols": 8937,
  "naturally": 8938,
  "1838": 8939,
  "Calgary": 8940,
  "Reynolds": 8941,
  "Milton": 8942,
  "advocated": 8943,
  "lig@@": 8944,
  "sy": 8945,
  "27@@": 8946,
  "Fo@@": 8947,
  "iness": 8948,
  "Nadu": 8949,
  "sits": 8950,
  "tackle": 8951,
  "40@@": 8952,
  "administrator": 8953,
  "ju": 8954,
  "properly": 8955,
  "ture": 8956,
  "André": 8957,
  "tion@@": 8958,
  "Inter": 8959,
  "Vo@@": 8960,
  "capabilities": 8961,
  "developers": 8962,
  "sacred": 8963,
  "sculptor": 8964,
  "ein": 8965,
  "acclaimed": 8966,
  "1832": 8967,
  "Etymology": 8968,
  "Lab@@": 8969,
  "favorable": 8970,
  "hai": 8971,
  "ining": 8972,
  "researcher": 8973,
  "Administrative": 8974,
  "Glen": 8975,
  "loaded": 8976,
  "landmark": 8977,
  "Aut@@": 8978,
  "Hat@@": 8979,
  "Salvador": 8980,
  "aggressive": 8981,
  "chorus": 8982,
  "enjoy": 8983,
  "Lords": 8984,
  "Plymouth": 8985,
  "gel@@": 8986,
  "premises": 8987,
  "statistical": 8988,
  "streaming": 8989,
  "flies": 8990,
  "gi": 8991,
  "Albany": 8992,
  "How@@": 8993,
  "Mark@@": 8994,
  "Saf@@": 8995,
  "bach": 8996,
  "ı@@": 8997,
  "Slovenia": 8998,
  "cent@@": 8999,
  "Hum@@": 9000,
  "athletics": 9001,
  "thriller": 9002,
  "tin@@": 9003,
  "vulnerable": 9004,
  "Founded": 9005,
  "Herzegovina": 9006,
  "arose": 9007,
  "navy": 9008,
  "slopes": 9009,
  "zh@@": 9010,
  "Americas": 9011,
  "Fraser": 9012,
  "comprised": 9013,
  "cin@@": 9014,
  "eo": 9015,
  "horizontal": 9016,
  "socialist": 9017,
  "black@@": 9018,
  "fortune": 9019,
  "ille": 9020,
  "Claude": 9021,
  "zo@@": 9022,
  "SH": 9023,
  "architects": 9024,
  "innovative": 9025,
  "unveiled": 9026,
  "Physics": 9027,
  "measuring": 9028,
  "revenge": 9029,
  "shield": 9030,
  "Case": 9031,
  "EC@@": 9032,
  "Harbour": 9033,
  "delegation": 9034,
  "vis@@": 9035,
  "itions": 9036,
  "mills": 9037,
  "reader": 9038,
  "Belfast": 9039,
  "Emmy": 9040,
  "Prussian": 9041,
  "proclaimed": 9042,
  "ty@@": 9043,
  "25th": 9044,
  "agh": 9045,
  "ashes": 9046,
  "Burns": 9047,
  "Eve": 9048,
  "Sisters": 9049,
  "Tropical": 9050,
  "considerably": 9051,
  "det@@": 9052,
  "dh@@": 9053,
  "doctoral": 9054,
  "Kosovo": 9055,
  "Pil@@": 9056,
  "AF@@": 9057,
  "aba": 9058,
  "compact": 9059,
  "opposing": 9060,
  "bankruptcy": 9061,
  "elect": 9062,
  "interviewed": 9063,
  "promotional": 9064,
  "Porter": 9065,
  "orientation": 9066,
  "som@@": 9067,
  "succeed": 9068,
  "Reid": 9069,
  "depicts": 9070,
  "rushing": 9071,
  "wake": 9072,
  "yst@@": 9073,
  "Cox": 9074,
  "vinyl": 9075,
  "beds": 9076,
  "conversation": 9077,
  "convert": 9078,
  "limestone": 9079,
  "semifinals": 9080,
  "sen@@": 9081,
  "Rod@@": 9082,
  "dan": 9083,
  "circles": 9084,
  "northwestern": 9085,
  "Cant@@": 9086,
  "Edmonton": 9087,
  "SI": 9088,
  "zy@@": 9089,
  "agreements": 9090,
  "basement": 9091,
  "customs": 9092,
  "proportion": 9093,
  "Southwest": 9094,
  "discussions": 9095,
  "1836": 9096,
  "bout": 9097,
  "AI": 9098,
  "Cinema": 9099,
  "Rosa": 9100,
  "exc@@": 9101,
  "pen": 9102,
  "ains": 9103,
  "rat@@": 9104,
  "ull": 9105,
  "vicinity": 9106,
  "Agricultural": 9107,
  "IX": 9108,
  "WA": 9109,
  "disputed": 9110,
  "Prot@@": 9111,
  "nominee": 9112,
  "scattered": 9113,
  "ven": 9114,
  "Thor@@": 9115,
  "aa": 9116,
  "brands": 9117,
  "hub": 9118,
  "strikes": 9119,
  "Lou@@": 9120,
  "Sang@@": 9121,
  "terrorist": 9122,
  "Religion": 9123,
  "Lancaster": 9124,
  "Paralympics": 9125,
  "fin": 9126,
  "lease": 9127,
  "4.5": 9128,
  "arians": 9129,
  "hurricane": 9130,
  "Crystal": 9131,
  "bing": 9132,
  "ku": 9133,
  "physically": 9134,
  "recover": 9135,
  "Burton": 9136,
  "refuses": 9137,
  "suburban": 9138,
  "Contest": 9139,
  "ingham": 9140,
  "saving": 9141,
  "dense": 9142,
  "off@@": 9143,
  "Andrea": 9144,
  "McDonald": 9145,
  "recreational": 9146,
  "thy": 9147,
  "11@@": 9148,
  "mosque": 9149,
  "pped": 9150,
  "Rivers": 9151,
  "nan@@": 9152,
  "repairs": 9153,
  "Catholics": 9154,
  "Jennifer": 9155,
  "explored": 9156,
  "healthcare": 9157,
  "Dy@@": 9158,
  "23.@@": 9159,
  "360": 9160,
  "attract": 9161,
  "eighteen": 9162,
  "outcome": 9163,
  "Ji@@": 9164,
  "organize": 9165,
  "Lau@@": 9166,
  "ides": 9167,
  "jointly": 9168,
  "voltage": 9169,
  "Alexandria": 9170,
  "Halifax": 9171,
  "Us": 9172,
  "Wagner": 9173,
  "acc@@": 9174,
  "offense": 9175,
  "opens": 9176,
  "stick": 9177,
  "vital": 9178,
  "Movie": 9179,
  "UC": 9180,
  "itz": 9181,
  "Writers": 9182,
  "kinds": 9183,
  "21.@@": 9184,
  "Discovery": 9185,
  "Indo": 9186,
  "legendary": 9187,
  "CB@@": 9188,
  "rulers": 9189,
  "scales": 9190,
  "dimensions": 9191,
  "spar@@": 9192,
  "hamlet": 9193,
  "Near": 9194,
  "mas@@": 9195,
  "Rev@@": 9196,
  "gates": 9197,
  "sponsor": 9198,
  "trick": 9199,
  "Devon": 9200,
  "facilitate": 9201,
  "ink@@": 9202,
  "tender": 9203,
  "Bond": 9204,
  "exhibits": 9205,
  "recurring": 9206,
  "Art@@": 9207,
  "Criminal": 9208,
  "Gene": 9209,
  "crucial": 9210,
  "desired": 9211,
  "Working": 9212,
  "cio": 9213,
  "feminist": 9214,
  "Cent@@": 9215,
  "ess@@": 9216,
  "flagship": 9217,
  "woods": 9218,
  "P.@@": 9219,
  "Springfield": 9220,
  "oak": 9221,
  "Hell": 9222,
  "Physical": 9223,
  "Warriors": 9224,
  "blind": 9225,
  "caps": 9226,
  "rhythm": 9227,
  "CP": 9228,
  "investigations": 9229,
  "tz": 9230,
  "160": 9231,
  "South@@": 9232,
  "ario": 9233,
  "surrendered": 9234,
  "Istanbul": 9235,
  "bling": 9236,
  "rent": 9237,
  "Bern@@": 9238,
  "Guild": 9239,
  "Seminary": 9240,
  "VA": 9241,
  "emigrated": 9242,
  "seal": 9243,
  "Clar@@": 9244,
  "implement": 9245,
  "responsibilities": 9246,
  "Never": 9247,
  "alize": 9248,
  "trophy": 9249,
  "1842": 9250,
  "excess": 9251,
  "murders": 9252,
  "bulk": 9253,
  "molecules": 9254,
  "wait": 9255,
  "aqu@@": 9256,
  "lesser": 9257,
  "monks": 9258,
  "Brook": 9259,
  "hat@@": 9260,
  "oun@@": 9261,
  "sweet": 9262,
  "Les@@": 9263,
  "acre": 9264,
  "pat@@": 9265,
  "sli@@": 9266,
  "unity": 9267,
  "breed": 9268,
  "lanes": 9269,
  "nest": 9270,
  "Exhibition": 9271,
  "Martha": 9272,
  "instructor": 9273,
  "inus": 9274,
  "Bis@@": 9275,
  "Macedonia": 9276,
  "anta": 9277,
  "finale": 9278,
  "wrestler": 9279,
  "conspiracy": 9280,
  "referee": 9281,
  "Monte": 9282,
  "dam@@": 9283,
  "proceedings": 9284,
  "toll": 9285,
  "35@@": 9286,
  "Bod@@": 9287,
  "composers": 9288,
  "novelist": 9289,
  "reserved": 9290,
  "substance": 9291,
  "synthesis": 9292,
  "NSW": 9293,
  "killer": 9294,
  "sson": 9295,
  "borne": 9296,
  "clerk": 9297,
  "ling@@": 9298,
  "CIA": 9299,
  "Rh@@": 9300,
  "1843": 9301,
  "prohibited": 9302,
  "Copa": 9303,
  "Rhine": 9304,
  "Tourism": 9305,
  "removing": 9306,
  "α": 9307,
  "ws": 9308,
  "Mau@@": 9309,
  "deployment": 9310,
  "AF": 9311,
  "Seoul": 9312,
  "availability": 9313,
  "cluster": 9314,
  "grandmother": 9315,
  "oto": 9316,
  "wo@@": 9317,
  "Kum@@": 9318,
  "15.@@": 9319,
  "Gos@@": 9320,
  "boxes": 9321,
  "convoy": 9322,
  "distinguish": 9323,
  "Buddhism": 9324,
  "Mit@@": 9325,
  "Wyoming": 9326,
  "Mang@@": 9327,
  "subfamily": 9328,
  "Ellen": 9329,
  "Portsmouth": 9330,
  "tus": 9331,
  "&apos;Brien": 9332,
  ",000": 9333,
  "Access": 9334,
  "aps": 9335,
  "marble": 9336,
  "Fellowship": 9337,
  "PM": 9338,
  "ce@@": 9339,
  "navigation": 9340,
  "priority": 9341,
  "unsuccessfully": 9342,
  "ve@@": 9343,
  "ci": 9344,
  "kov": 9345,
  "Lak@@": 9346,
  "Nas@@": 9347,
  "drives": 9348,
  "uta": 9349,
  "Publications": 9350,
  "Theodore": 9351,
  "masters": 9352,
  "purple": 9353,
  "140": 9354,
  "1815": 9355,
  "Change": 9356,
  "presenter": 9357,
  "rendered": 9358,
  "Est@@": 9359,
  "Train": 9360,
  "certificate": 9361,
  "enc@@": 9362,
  "Richards": 9363,
  "coin": 9364,
  "locked": 9365,
  "Prussia": 9366,
  "SL": 9367,
  "ced": 9368,
  "fication": 9369,
  "fossil": 9370,
  "decree": 9371,
  "essay": 9372,
  "Harper": 9373,
  "Port@@": 9374,
  "mineral": 9375,
  "arguments": 9376,
  "geographical": 9377,
  "Frances": 9378,
  "Johnston": 9379,
  "pres@@": 9380,
  "Full": 9381,
  "Speedway": 9382,
  "explanation": 9383,
  "16.@@": 9384,
  "peninsula": 9385,
  "Cohen": 9386,
  "Cow@@": 9387,
  "dressed": 9388,
  "lec@@": 9389,
  "Sweet": 9390,
  "arguing": 9391,
  "mes@@": 9392,
  "propaganda": 9393,
  "folded": 9394,
  "inland": 9395,
  "underlying": 9396,
  "utility": 9397,
  "vit@@": 9398,
  "Seg@@": 9399,
  "highways": 9400,
  "phon@@": 9401,
  "sie": 9402,
  "Baltic": 9403,
  "Bed@@": 9404,
  "hypothesis": 9405,
  "knocked": 9406,
  "mph": 9407,
  "onn@@": 9408,
  "remarkable": 9409,
  "dian": 9410,
  "itt@@": 9411,
  "liver": 9412,
  "1835": 9413,
  "Ja@@": 9414,
  "Beyond": 9415,
  "Rocky": 9416,
  "contracted": 9417,
  "innovation": 9418,
  "nan": 9419,
  "rolling": 9420,
  "17.@@": 9421,
  "mythology": 9422,
  "Forbes": 9423,
  "Moses": 9424,
  "cameras": 9425,
  "performer": 9426,
  "valued": 9427,
  "Cad@@": 9428,
  "Various": 9429,
  "gran@@": 9430,
  "specimen": 9431,
  "Directors": 9432,
  "Had@@": 9433,
  "ool": 9434,
  "14.@@": 9435,
  "Apart": 9436,
  "Banks": 9437,
  "invitation": 9438,
  "notion": 9439,
  "Single": 9440,
  "commerce": 9441,
  "maternal": 9442,
  "rings": 9443,
  "Factory": 9444,
  "Kyle": 9445,
  "cloud": 9446,
  "examined": 9447,
  "ition": 9448,
  "29@@": 9449,
  "Carlo": 9450,
  "Diana": 9451,
  "Gau@@": 9452,
  "Mercury": 9453,
  "Rich": 9454,
  "Self": 9455,
  "iles": 9456,
  "runway": 9457,
  "Barnes": 9458,
  "Bath": 9459,
  "dinner": 9460,
  "flu@@": 9461,
  "proximity": 9462,
  "Bronze": 9463,
  "Headquarters": 9464,
  "orum": 9465,
  "pollution": 9466,
  "tional": 9467,
  "sions": 9468,
  "endorsed": 9469,
  "supervision": 9470,
  "Gan@@": 9471,
  "Head@@": 9472,
  "Malaysian": 9473,
  "cou@@": 9474,
  "Hugo": 9475,
  "Lap@@": 9476,
  "Manor": 9477,
  "Chess": 9478,
  "Nacional": 9479,
  "gods": 9480,
  "philosopher": 9481,
  "salary": 9482,
  "VC": 9483,
  "nationalist": 9484,
  "rop@@": 9485,
  "Euro": 9486,
  "Wednesday": 9487,
  "highlighted": 9488,
  "lateral": 9489,
  "pine": 9490,
  "taste": 9491,
  "Churchill": 9492,
  "Hos@@": 9493,
  "cool": 9494,
  "Big@@": 9495,
  "Faith": 9496,
  "HC": 9497,
  "Linda": 9498,
  "Style": 9499,
  "wal@@": 9500,
  "Morrison": 9501,
  "Inside": 9502,
  "Salem": 9503,
  "bil@@": 9504,
  "obvious": 9505,
  "performs": 9506,
  "spelled": 9507,
  "ATP": 9508,
  "División": 9509,
  "Arctic": 9510,
  "ear": 9511,
  "endangered": 9512,
  "iko": 9513,
  "sectors": 9514,
  "Kaz@@": 9515,
  "Learning": 9516,
  "Monroe": 9517,
  "chi@@": 9518,
  "dig@@": 9519,
  "imported": 9520,
  "Kad@@": 9521,
  "achieving": 9522,
  "download": 9523,
  "membrane": 9524,
  "sur": 9525,
  "Bros.": 9526,
  "Ulster": 9527,
  "moon": 9528,
  "nights": 9529,
  "vic@@": 9530,
  "PR": 9531,
  "dome": 9532,
  "gastropod": 9533,
  "pipe": 9534,
  "presenting": 9535,
  "28.@@": 9536,
  "Ethiopia": 9537,
  "NASCAR": 9538,
  "Lines": 9539,
  "alumni": 9540,
  "diving": 9541,
  "gy@@": 9542,
  "ified": 9543,
  "lifestyle": 9544,
  "Gaelic": 9545,
  "altar": 9546,
  "gor@@": 9547,
  "the@@": 9548,
  "arm@@": 9549,
  "differ": 9550,
  "politically": 9551,
  "scorer": 9552,
  "successive": 9553,
  "Snow": 9554,
  "ner@@": 9555,
  "Baronet": 9556,
  "Gall@@": 9557,
  "apartments": 9558,
  "idi@@": 9559,
  "sculptures": 9560,
  "Cornell": 9561,
  "museums": 9562,
  "frames": 9563,
  "minimal": 9564,
  "SL@@": 9565,
  "ancestry": 9566,
  "ceiling": 9567,
  "arc": 9568,
  "loyal": 9569,
  "regiments": 9570,
  "reopened": 9571,
  "wan@@": 9572,
  "ESPN": 9573,
  "Web": 9574,
  "protagonist": 9575,
  "Watch": 9576,
  "act@@": 9577,
  "rin@@": 9578,
  "FF": 9579,
  "Prison": 9580,
  "TE@@": 9581,
  "sided": 9582,
  "strategies": 9583,
  "å@@": 9584,
  "Sig@@": 9585,
  "Zimbabwe": 9586,
  "batteries": 9587,
  "cycling": 9588,
  "organizing": 9589,
  "Hop@@": 9590,
  "Store": 9591,
  "asp@@": 9592,
  "draws": 9593,
  "mot@@": 9594,
  "pull": 9595,
  "tension": 9596,
  "Karen": 9597,
  "stint": 9598,
  "Rochester": 9599,
  "fights": 9600,
  "foundations": 9601,
  "obtaining": 9602,
  "workshop": 9603,
  "Hen@@": 9604,
  "Leicester": 9605,
  "ceremonies": 9606,
  "secular": 9607,
  "velocity": 9608,
  "Bot@@": 9609,
  "GM": 9610,
  "It@@": 9611,
  "Wol@@": 9612,
  "raids": 9613,
  "spotted": 9614,
  "SM": 9615,
  "delegates": 9616,
  "gun@@": 9617,
  "millions": 9618,
  "terminated": 9619,
  "Apollo": 9620,
  "Haven": 9621,
  "Picture": 9622,
  "declaration": 9623,
  "depot": 9624,
  "worthy": 9625,
  "Rel@@": 9626,
  "Tol@@": 9627,
  "bonds": 9628,
  "kids": 9629,
  "Online": 9630,
  "PC@@": 9631,
  "aches": 9632,
  "DO@@": 9633,
  "Thursday": 9634,
  "breast": 9635,
  "Chilean": 9636,
  "www.@@": 9637,
  "Cher@@": 9638,
  "cabin": 9639,
  "proven": 9640,
  "CF@@": 9641,
  "counted": 9642,
  "voices": 9643,
  "Come": 9644,
  "Cul@@": 9645,
  "Sons": 9646,
  "donations": 9647,
  "humanity": 9648,
  "22.@@": 9649,
  "preventing": 9650,
  "battalions": 9651,
  "calculated": 9652,
  "longtime": 9653,
  "commissioner": 9654,
  "sley": 9655,
  "tactics": 9656,
  "Chuck": 9657,
  "Kazakhstan": 9658,
  "allied": 9659,
  "escort": 9660,
  "Elliott": 9661,
  "Sec@@": 9662,
  "accompanying": 9663,
  "consumers": 9664,
  "entities": 9665,
  "Cot@@": 9666,
  "Lynn": 9667,
  "PO@@": 9668,
  "Silva": 9669,
  "View": 9670,
  "bread": 9671,
  "consciousness": 9672,
  "fied": 9673,
  "fiscal": 9674,
  "Money": 9675,
  "shirt": 9676,
  "Testament": 9677,
  "keeper": 9678,
  "Ye@@": 9679,
  "commercially": 9680,
  "Dro@@": 9681,
  "Yankees": 9682,
  "factories": 9683,
  "standings": 9684,
  "0s": 9685,
  "Log@@": 9686,
  "initiatives": 9687,
  "Sheriff": 9688,
  "cel@@": 9689,
  "disabled": 9690,
  "induced": 9691,
  "Shu@@": 9692,
  "Stor@@": 9693,
  "bounded": 9694,
  "continent": 9695,
  "ees": 9696,
  "Nottingham": 9697,
  "Taxonomy": 9698,
  "lifted": 9699,
  "Carol": 9700,
  "payments": 9701,
  "Jake": 9702,
  "Say@@": 9703,
  "Te": 9704,
  "Winnipeg": 9705,
  "managers": 9706,
  "Aberdeen": 9707,
  "Estonian": 9708,
  "Glenn": 9709,
  "throwing": 9710,
  "Maz@@": 9711,
  "Swimming": 9712,
  "motorcycle": 9713,
  "Combat": 9714,
  "accidentally": 9715,
  "Level": 9716,
  "invested": 9717,
  "CM@@": 9718,
  "custody": 9719,
  "electron": 9720,
  "gel": 9721,
  "starter": 9722,
  "Recent": 9723,
  "Slovakia": 9724,
  "companion": 9725,
  "shaft": 9726,
  "Algeria": 9727,
  "Nobel": 9728,
  "UFC": 9729,
  "ask@@": 9730,
  "owed": 9731,
  "Devil": 9732,
  "ID": 9733,
  "Overall": 9734,
  "lady": 9735,
  "²": 9736,
  "Net@@": 9737,
  "Newman": 9738,
  "lem@@": 9739,
  "organisms": 9740,
  "truly": 9741,
  "Đ@@": 9742,
  "1814": 9743,
  "Haw@@": 9744,
  "enhanced": 9745,
  "ñ@@": 9746,
  "LO@@": 9747,
  "ols": 9748,
  "romance": 9749,
  "cli@@": 9750,
  "flowing": 9751,
  "ques": 9752,
  "resolved": 9753,
  "Mod@@": 9754,
  "Software": 9755,
  "vin@@": 9756,
  "Rud@@": 9757,
  "Dep@@": 9758,
  "Lion": 9759,
  "demonstrate": 9760,
  "pu@@": 9761,
  "Elections": 9762,
  "challenging": 9763,
  "directions": 9764,
  "evaluation": 9765,
  "Ec@@": 9766,
  "Marines": 9767,
  "cos@@": 9768,
  "yed": 9769,
  "harbour": 9770,
  "iti": 9771,
  "Edwin": 9772,
  "demonstration": 9773,
  "item": 9774,
  "snail": 9775,
  "Band@@": 9776,
  "IL": 9777,
  "Jesse": 9778,
  "Lebanese": 9779,
  "Pit@@": 9780,
  "Rum@@": 9781,
  "Vale": 9782,
  "Vit@@": 9783,
  "loading": 9784,
  "Del": 9785,
  "ão": 9786,
  "artifacts": 9787,
  "contestants": 9788,
  "enterprise": 9789,
  "18.@@": 9790,
  "Associate": 9791,
  "alla": 9792,
  "veterans": 9793,
  "Choice": 9794,
  "crashed": 9795,
  "1.6": 9796,
  "1834": 9797,
  "Bavaria": 9798,
  "Cat": 9799,
  "Santos": 9800,
  "Tok@@": 9801,
  "backs": 9802,
  "disorders": 9803,
  "essays": 9804,
  "otic": 9805,
  "105": 9806,
  "Julius": 9807,
  "Table": 9808,
  "complicated": 9809,
  "parade": 9810,
  "rist@@": 9811,
  "Ludwig": 9812,
  "RI@@": 9813,
  "Similar": 9814,
  "eer": 9815,
  "lets": 9816,
  "settings": 9817,
  "~": 9818,
  "Annie": 9819,
  "dock": 9820,
  "eting": 9821,
  "rectangular": 9822,
  "Nab@@": 9823,
  "Raja": 9824,
  "escu": 9825,
  "loans": 9826,
  "lover": 9827,
  "ost": 9828,
  "Ballet": 9829,
  "Thames": 9830,
  "kan@@": 9831,
  "partnered": 9832,
  "Industries": 9833,
  "Kids": 9834,
  "regulated": 9835,
  "Lub@@": 9836,
  "diplomat": 9837,
  "labels": 9838,
  "mammals": 9839,
  "merchants": 9840,
  "1.1": 9841,
  "Heaven": 9842,
  "Ori@@": 9843,
  "ren": 9844,
  "sponsorship": 9845,
  "sudden": 9846,
  "auction": 9847,
  "elderly": 9848,
  "Fighting": 9849,
  "detection": 9850,
  "marketed": 9851,
  "reliable": 9852,
  "Antarctic": 9853,
  "Marion": 9854,
  "mystery": 9855,
  "violin": 9856,
  "Constitutional": 9857,
  "Str@@": 9858,
  "ulus": 9859,
  "Bud@@": 9860,
  "Walt": 9861,
  "Ecuador": 9862,
  "ental": 9863,
  "erg@@": 9864,
  "heating": 9865,
  "dropping": 9866,
  "steep": 9867,
  "umi": 9868,
  "med": 9869,
  "rescued": 9870,
  "rookie": 9871,
  "Mine": 9872,
  "careers": 9873,
  "insisted": 9874,
  "kon@@": 9875,
  "sick": 9876,
  "absent": 9877,
  "rebel": 9878,
  "Grammar": 9879,
  "HA": 9880,
  "emissions": 9881,
  "hotels": 9882,
  "mil@@": 9883,
  "poets": 9884,
  "rap": 9885,
  "0.5": 9886,
  "Myanmar": 9887,
  "mic": 9888,
  "Edgar": 9889,
  "Heinrich": 9890,
  "Scar@@": 9891,
  "accommodation": 9892,
  "boxer": 9893,
  "verses": 9894,
  "accuracy": 9895,
  "hon@@": 9896,
  "iki": 9897,
  "Hayes": 9898,
  "possessed": 9899,
  "protesters": 9900,
  "tobacco": 9901,
  "vacant": 9902,
  "But@@": 9903,
  "Emergency": 9904,
  "Hill@@": 9905,
  "Pav@@": 9906,
  "Yar@@": 9907,
  "neighbourhood": 9908,
  "premier": 9909,
  "Index": 9910,
  "Individual": 9911,
  "enh@@": 9912,
  "27.@@": 9913,
  "28@@": 9914,
  "Brother": 9915,
  "Chand@@": 9916,
  "Dob@@": 9917,
  "inn": 9918,
  "Jer@@": 9919,
  "bet": 9920,
  "pay@@": 9921,
  "uli@@": 9922,
  "advancing": 9923,
  "dealt": 9924,
  "eness": 9925,
  "spite": 9926,
  "Colony": 9927,
  "Newfoundland": 9928,
  "ier@@": 9929,
  "trucks": 9930,
  "wa@@": 9931,
  "Ladies": 9932,
  "Mich@@": 9933,
  "VI@@": 9934,
  "eland": 9935,
  "eto": 9936,
  "parishes": 9937,
  "witnessed": 9938,
  "Dorothy": 9939,
  "chaired": 9940,
  "lengths": 9941,
  "stat@@": 9942,
  "monuments": 9943,
  "editing": 9944,
  "hectares": 9945,
  "prominence": 9946,
  "Dale": 9947,
  "Jeremy": 9948,
  "Louisville": 9949,
  "Yu": 9950,
  "preceding": 9951,
  "tra": 9952,
  "Previously": 9953,
  "bet@@": 9954,
  "continuously": 9955,
  "immigrant": 9956,
  "neighborhoods": 9957,
  "uprising": 9958,
  "Wimbledon": 9959,
  "enk@@": 9960,
  "ented": 9961,
  "Crawford": 9962,
  "Gospel": 9963,
  "NT@@": 9964,
  "ager": 9965,
  "bis@@": 9966,
  "ew@@": 9967,
  "500,000": 9968,
  "Religious": 9969,
  "deb@@": 9970,
  "eni": 9971,
  "reconnaissance": 9972,
  "wood@@": 9973,
  "Happy": 9974,
  "enacted": 9975,
  "recommendations": 9976,
  "Carroll": 9977,
  "Rap@@": 9978,
  "barrel": 9979,
  "din@@": 9980,
  "Luxembourg": 9981,
  "harm": 9982,
  "particle": 9983,
  "rubber": 9984,
  "static": 9985,
  "Chiefs": 9986,
  "RT@@": 9987,
  "Twin": 9988,
  "quit": 9989,
  "Housing": 9990,
  "IF@@": 9991,
  "Tel": 9992,
  "elaborate": 9993,
  "yne": 9994,
  "verb": 9995,
  "controlling": 9996,
  "cooking": 9997,
  "deceased": 9998,
  "ki@@": 9999,
  "Malcolm": 10000,
  "Maritime": 10001,
  "Superior": 10002,
  "dr@@": 10003,
  "lens": 10004,
  "responses": 10005,
  "Ibn": 10006,
  "MW": 10007,
  "Speed": 10008,
  "Task": 10009,
  "errors": 10010,
  "geometry": 10011,
  "intact": 10012,
  "Acc@@": 10013,
  "Afghan": 10014,
  "Raiders": 10015,
  "nurse": 10016,
  "Mass@@": 10017,
  "Sherman": 10018,
  "invaded": 10019,
  "psych@@": 10020,
  "Jamie": 10021,
  "believing": 10022,
  "fail": 10023,
  "puts": 10024,
  "Patriots": 10025,
  "facts": 10026,
  "urged": 10027,
  "Constantinople": 10028,
  "holders": 10029,
  "Ras@@": 10030,
  "Tasmania": 10031,
  "Marco": 10032,
  "itors": 10033,
  "mad@@": 10034,
  "proceeds": 10035,
  "undertook": 10036,
  "80@@": 10037,
  "Pun@@": 10038,
  "finite": 10039,
  "kan": 10040,
  "odi@@": 10041,
  "Burma": 10042,
  "GT": 10043,
  "Pod@@": 10044,
  "lif@@": 10045,
  "protecting": 10046,
  "reinforced": 10047,
  "gar": 10048,
  "sha": 10049,
  "Nik@@": 10050,
  "accounting": 10051,
  "ank": 10052,
  "abstract": 10053,
  "cream": 10054,
  "Drake": 10055,
  "appealed": 10056,
  "chest": 10057,
  "respond": 10058,
  "sta": 10059,
  "witnesses": 10060,
  "Pirates": 10061,
  "destroyer": 10062,
  "interrupted": 10063,
  "openly": 10064,
  "copyright": 10065,
  "perception": 10066,
  "warned": 10067,
  "mes": 10068,
  "shan": 10069,
  "Charleston": 10070,
  "Doug": 10071,
  "Large": 10072,
  "Scout": 10073,
  "introducing": 10074,
  "Cairo": 10075,
  "Educational": 10076,
  "Victory": 10077,
  "creek": 10078,
  "eau": 10079,
  "ined": 10080,
  "refuge": 10081,
  "zes": 10082,
  "Mall": 10083,
  "coloured": 10084,
  "stown": 10085,
  "1831": 10086,
  "Jur@@": 10087,
  "Od@@": 10088,
  "Shadow": 10089,
  "ancy": 10090,
  "consecrated": 10091,
  "mandatory": 10092,
  "volcanic": 10093,
  "Dub@@": 10094,
  "activation": 10095,
  "batted": 10096,
  "lacked": 10097,
  "Budapest": 10098,
  "Burke": 10099,
  "ballet": 10100,
  "reviewer": 10101,
  "san@@": 10102,
  "â@@": 10103,
  "Beatles": 10104,
  "isha": 10105,
  "oper@@": 10106,
  "8.@@": 10107,
  "SU": 10108,
  "broadcaster": 10109,
  "Mach@@": 10110,
  "branded": 10111,
  "interference": 10112,
  "testimony": 10113,
  "Ho": 10114,
  "anne": 10115,
  "monitor": 10116,
  "opted": 10117,
  "tune": 10118,
  "DE": 10119,
  "Eye": 10120,
  "Janeiro": 10121,
  "Metal": 10122,
  "bers": 10123,
  "Blair": 10124,
  "climbing": 10125,
  "equality": 10126,
  "pursuit": 10127,
  "retire": 10128,
  "Ron@@": 10129,
  "SI@@": 10130,
  "cont@@": 10131,
  "lio": 10132,
  "Joshua": 10133,
  "knowing": 10134,
  "laps": 10135,
  "ris@@": 10136,
  "1.3": 10137,
  "Tribune": 10138,
  "pon@@": 10139,
  "storey": 10140,
  "Pul@@": 10141,
  "assi@@": 10142,
  "Chemical": 10143,
  "Gir@@": 10144,
  "Programme": 10145,
  "barrier": 10146,
  "Statistical": 10147,
  "surgeon": 10148,
  "Sei@@": 10149,
  "climb": 10150,
  "icus": 10151,
  "oot": 10152,
  "Indoor": 10153,
  "governance": 10154,
  "hide": 10155,
  "loose": 10156,
  "objectives": 10157,
  "outlets": 10158,
  "respected": 10159,
  "uda": 10160,
  "Adult": 10161,
  "Ernst": 10162,
  "disk": 10163,
  "infected": 10164,
  "uncertain": 10165,
  "Esc@@": 10166,
  "Minneapolis": 10167,
  "Ret@@": 10168,
  "Summit": 10169,
  "Theory": 10170,
  "admission": 10171,
  "Claire": 10172,
  "Insurance": 10173,
  "Nuclear": 10174,
  "Bow@@": 10175,
  "adopt": 10176,
  "æ@@": 10177,
  "Episode": 10178,
  "postponed": 10179,
  "professionally": 10180,
  "ball@@": 10181,
  "inga": 10182,
  "knockout": 10183,
  "Carnegie": 10184,
  "Syn@@": 10185,
  "formations": 10186,
  "Glass": 10187,
  "Panthers": 10188,
  "Rak@@": 10189,
  "rankings": 10190,
  "Cop@@": 10191,
  "Glen@@": 10192,
  "plantation": 10193,
  "nam@@": 10194,
  "promising": 10195,
  "Link": 10196,
  "Lip@@": 10197,
  "Uruguay": 10198,
  "Yugoslav": 10199,
  "embassy": 10200,
  "inv@@": 10201,
  "law@@": 10202,
  "Shore": 10203,
  "su": 10204,
  "cognitive": 10205,
  "pper": 10206,
  "1820": 10207,
  "eli": 10208,
  "flown": 10209,
  "yu": 10210,
  "Baldwin": 10211,
  "Chronicle": 10212,
  "Yan@@": 10213,
  "seeks": 10214,
  "Madonna": 10215,
  "Zi@@": 10216,
  "fragments": 10217,
  "Kul@@": 10218,
  "constituencies": 10219,
  "narrowly": 10220,
  "transmitter": 10221,
  "Nixon": 10222,
  "aided": 10223,
  "carriers": 10224,
  "rider": 10225,
  "Walsh": 10226,
  "collector": 10227,
  "disputes": 10228,
  "lab": 10229,
  "Holocaust": 10230,
  "ais@@": 10231,
  "buying": 10232,
  "conquered": 10233,
  "profits": 10234,
  "reunited": 10235,
  "Chang": 10236,
  "Set": 10237,
  "Strait": 10238,
  "eds": 10239,
  "conviction": 10240,
  "mit": 10241,
  "overcome": 10242,
  "Romans": 10243,
  "Tag": 10244,
  "trails": 10245,
  "Appeals": 10246,
  "Fal@@": 10247,
  "civic": 10248,
  "derives": 10249,
  "slope": 10250,
  "Aftermath": 10251,
  "Māori": 10252,
  "SF": 10253,
  "Mohammad": 10254,
  "Reb@@": 10255,
  "BS": 10256,
  "platinum": 10257,
  "CR@@": 10258,
  "Gab@@": 10259,
  "Bach": 10260,
  "ady": 10261,
  "odes": 10262,
  "preceded": 10263,
  "Clay": 10264,
  "Dubai": 10265,
  "diagnosis": 10266,
  "illi@@": 10267,
  "linking": 10268,
  "Post@@": 10269,
  "crews": 10270,
  "finger": 10271,
  "ler@@": 10272,
  "locals": 10273,
  "mount": 10274,
  "Pine": 10275,
  "amendment": 10276,
  "provider": 10277,
  "102": 10278,
  "Batman": 10279,
  "Hin@@": 10280,
  "charted": 10281,
  "contents": 10282,
  "sail": 10283,
  "1833": 10284,
  "Dist@@": 10285,
  "Logan": 10286,
  "PE@@": 10287,
  "acceptance": 10288,
  "reasonable": 10289,
  "40,000": 10290,
  "Aj@@": 10291,
  "aster": 10292,
  "gross": 10293,
  "Schedule": 10294,
  "cal": 10295,
  "themed": 10296,
  "recreation": 10297,
  "Kenny": 10298,
  "Tir@@": 10299,
  "ech": 10300,
  "ices": 10301,
  "pra@@": 10302,
  "show@@": 10303,
  "smoke": 10304,
  "3000": 10305,
  "EM@@": 10306,
  "marched": 10307,
  "noticed": 10308,
  "saint": 10309,
  "Zero": 10310,
  "dorsal": 10311,
  "Solar": 10312,
  "illo": 10313,
  "missionaries": 10314,
  "pan": 10315,
  "terrorism": 10316,
  "Institution": 10317,
  "meg@@": 10318,
  "mysterious": 10319,
  "server": 10320,
  "skating": 10321,
  "complaints": 10322,
  "judgment": 10323,
  "projected": 10324,
  "ats@@": 10325,
  "camp@@": 10326,
  "dollar": 10327,
  "threatening": 10328,
  "Berry": 10329,
  "Doubles": 10330,
  "F.@@": 10331,
  "Arms": 10332,
  "Twenty": 10333,
  "skilled": 10334,
  "tickets": 10335,
  "yc@@": 10336,
  "CT@@": 10337,
  "Julie": 10338,
  "ail@@": 10339,
  "pot": 10340,
  "seating": 10341,
  "luxury": 10342,
  "revolt": 10343,
  "Observatory": 10344,
  "Loc@@": 10345,
  "Penn@@": 10346,
  "ough": 10347,
  "slot": 10348,
  "wer@@": 10349,
  "Enterprise": 10350,
  "Well": 10351,
  "aran": 10352,
  "bin@@": 10353,
  "Back@@": 10354,
  "Jin": 10355,
  "Jo": 10356,
  "capability": 10357,
  "shi": 10358,
  "7.5": 10359,
  "Female": 10360,
  "Wa@@": 10361,
  "wishes": 10362,
  "mit@@": 10363,
  "passion": 10364,
  "rev@@": 10365,
  "yield": 10366,
  "Clara": 10367,
  "Edge": 10368,
  "ITV": 10369,
  "attractive": 10370,
  "oning": 10371,
  "protocol": 10372,
  "Ghost": 10373,
  "Sebastian": 10374,
  "pastor": 10375,
  "strings": 10376,
  "Communication": 10377,
  "aph@@": 10378,
  "pregnancy": 10379,
  "Settlement": 10380,
  "UC@@": 10381,
  "cone": 10382,
  "sizes": 10383,
  "uti@@": 10384,
  "Radi@@": 10385,
  "detected": 10386,
  "}": 10387,
  "Mathematics": 10388,
  "Play@@": 10389,
  "Vision": 10390,
  "ae@@": 10391,
  "ś@@": 10392,
  "bike": 10393,
  "cour@@": 10394,
  "enclosed": 10395,
  "leased": 10396,
  "wn": 10397,
  "comedian": 10398,
  "dissolution": 10399,
  "eck": 10400,
  "int": 10401,
  "Half": 10402,
  "opinions": 10403,
  "tz@@": 10404,
  "usi@@": 10405,
  "viewing": 10406,
  "Dre@@": 10407,
  "bombs": 10408,
  "tered": 10409,
  "wheat": 10410,
  "AG@@": 10411,
  "Cour@@": 10412,
  "T.@@": 10413,
  "complexity": 10414,
  "Betty": 10415,
  "Johns": 10416,
  "Southampton": 10417,
  "Volume": 10418,
  "airfield": 10419,
  "geographic": 10420,
  "29.@@": 10421,
  "50th": 10422,
  "ond": 10423,
  "H.@@": 10424,
  "asc@@": 10425,
  "eliminate": 10426,
  "gray": 10427,
  "lawyers": 10428,
  "placement": 10429,
  "wished": 10430,
  "Stan@@": 10431,
  "mul@@": 10432,
  "plac@@": 10433,
  "Bac@@": 10434,
  "maritime": 10435,
  "mus": 10436,
  "resided": 10437,
  "9.@@": 10438,
  "contacts": 10439,
  "loaned": 10440,
  "measurement": 10441,
  "Streets": 10442,
  "con": 10443,
  "providers": 10444,
  "sphere": 10445,
  "MPs": 10446,
  "Northeast": 10447,
  "Shin@@": 10448,
  "certification": 10449,
  "Hood": 10450,
  "trafficking": 10451,
  "Leadership": 10452,
  "Planet": 10453,
  "councils": 10454,
  "deer": 10455,
  "transform": 10456,
  "Joel": 10457,
  "Lisbon": 10458,
  "Outside": 10459,
  "hood": 10460,
  "prosecution": 10461,
  "25,000": 10462,
  "Hand@@": 10463,
  "Syracuse": 10464,
  "Willie": 10465,
  "alien": 10466,
  "blog": 10467,
  "odd": 10468,
  "Treasury": 10469,
  "Built": 10470,
  "Et@@": 10471,
  "violation": 10472,
  "Poetry": 10473,
  "aking": 10474,
  "screened": 10475,
  "tensions": 10476,
  "Hero": 10477,
  "correspondence": 10478,
  "fi": 10479,
  "rely": 10480,
  "ashed": 10481,
  "instances": 10482,
  "nursing": 10483,
  "snake": 10484,
  "750": 10485,
  "Augustus": 10486,
  "aus": 10487,
  "educator": 10488,
  "gravity": 10489,
  "uts": 10490,
  "Heat": 10491,
  "Krishna": 10492,
  "Qatar": 10493,
  "generating": 10494,
  "unlikely": 10495,
  "I.@@": 10496,
  "Mé@@": 10497,
  "drainage": 10498,
  "Legend": 10499,
  "Merit": 10500,
  "freshman": 10501,
  "skull": 10502,
  "cloth": 10503,
  "Felix": 10504,
  "Structure": 10505,
  "speeds": 10506,
  "walked": 10507,
  "Fol@@": 10508,
  "Shield": 10509,
  "ears": 10510,
  "secretly": 10511,
  "1880s": 10512,
  "Confederation": 10513,
  "fossils": 10514,
  "ure@@": 10515,
  "Francesco": 10516,
  "critically": 10517,
  "esis": 10518,
  "measurements": 10519,
  "ored": 10520,
  "rod": 10521,
  "shells": 10522,
  "theaters": 10523,
  "Equ@@": 10524,
  "Lac@@": 10525,
  "teamed": 10526,
  "--": 10527,
  "Tat@@": 10528,
  "advisory": 10529,
  "autobiography": 10530,
  "cian": 10531,
  "comment": 10532,
  "illustrations": 10533,
  "speaks": 10534,
  "spelling": 10535,
  "ues": 10536,
  "1,500": 10537,
  "Hab@@": 10538,
  "Vic@@": 10539,
  "Ful@@": 10540,
  "bombers": 10541,
  "Creative": 10542,
  "Fe": 10543,
  "kit": 10544,
  "solve": 10545,
  "a.m.": 10546,
  "destroying": 10547,
  "ec": 10548,
  "entrepreneur": 10549,
  "1.4": 10550,
  "Fiction": 10551,
  "Rus@@": 10552,
  "laser": 10553,
  "regulatory": 10554,
  "viral": 10555,
  "15,000": 10556,
  "Boris": 10557,
  "enlarged": 10558,
  "isn": 10559,
  "variables": 10560,
  "wicket": 10561,
  "finalist": 10562,
  "phases": 10563,
  "Biology": 10564,
  "Kurt": 10565,
  "ett@@": 10566,
  "extraordinary": 10567,
  "kicked": 10568,
  "traces": 10569,
  "Heath": 10570,
  "Mohammed": 10571,
  "Rou@@": 10572,
  "amine": 10573,
  "mon": 10574,
  "nave": 10575,
  "Broad@@": 10576,
  "Georges": 10577,
  "Oh": 10578,
  "ician": 10579,
  "termed": 10580,
  "trap": 10581,
  "True": 10582,
  "cas@@": 10583,
  "defunct": 10584,
  "railways": 10585,
  "Cowboys": 10586,
  "Greatest": 10587,
  "Sanskrit": 10588,
  "ans@@": 10589,
  "dle": 10590,
  "Dylan": 10591,
  "GP": 10592,
  "equations": 10593,
  "feld": 10594,
  "paths": 10595,
  "Belarus": 10596,
  "Charter": 10597,
  "Cri@@": 10598,
  "Dig@@": 10599,
  "Ferguson": 10600,
  "Muk@@": 10601,
  "Tuesday": 10602,
  "bag": 10603,
  "granite": 10604,
  "Fro@@": 10605,
  "Monument": 10606,
  "hostile": 10607,
  "30.@@": 10608,
  "FK": 10609,
  "comparable": 10610,
  "enz@@": 10611,
  "searching": 10612,
  "Anton": 10613,
  "Expedition": 10614,
  "broader": 10615,
  "crater": 10616,
  "curved": 10617,
  "fruits": 10618,
  "igh@@": 10619,
  "staying": 10620,
  "Bombay": 10621,
  "Holl@@": 10622,
  "ature": 10623,
  "formats": 10624,
  "iss": 10625,
  "Plus": 10626,
  "hanging": 10627,
  "bordered": 10628,
  "ique": 10629,
  "stems": 10630,
  "blu@@": 10631,
  "contributor": 10632,
  "decoration": 10633,
  "Given": 10634,
  "Take": 10635,
  "wind@@": 10636,
  "Brad": 10637,
  "NS": 10638,
  "flank": 10639,
  "Any": 10640,
  "enting": 10641,
  "Ale@@": 10642,
  "Empress": 10643,
  "Sugar": 10644,
  "ache": 10645,
  "aku": 10646,
  "likes": 10647,
  "stic": 10648,
  "Cham@@": 10649,
  "Ey@@": 10650,
  "MI@@": 10651,
  "backup": 10652,
  "explicitly": 10653,
  "ret": 10654,
  "smallest": 10655,
  "sus": 10656,
  "zy": 10657,
  "GB": 10658,
  "Jon@@": 10659,
  "Marathon": 10660,
  "chassis": 10661,
  "tram": 10662,
  "Kok@@": 10663,
  "Troy": 10664,
  "Whitney": 10665,
  "coordinator": 10666,
  "utilized": 10667,
  "и@@": 10668,
  "Bengali": 10669,
  "Cel@@": 10670,
  "Sofia": 10671,
  "Wel@@": 10672,
  "accredited": 10673,
  "evident": 10674,
  "ı": 10675,
  "Palm": 10676,
  "sle@@": 10677,
  "60@@": 10678,
  "Pac@@": 10679,
  "assume": 10680,
  "holy": 10681,
  "risks": 10682,
  "Fantasy": 10683,
  "Sicily": 10684,
  "Trinidad": 10685,
  "informal": 10686,
  "trainer": 10687,
  "East@@": 10688,
  "Sir@@": 10689,
  "Suffolk": 10690,
  "boom": 10691,
  "machinery": 10692,
  "productive": 10693,
  "stance": 10694,
  "Cs": 10695,
  "Telugu": 10696,
  "philosophical": 10697,
  "Da": 10698,
  "Yuan": 10699,
  "butterfly": 10700,
  "celebrations": 10701,
  "demanding": 10702,
  "Raz@@": 10703,
  "newer": 10704,
  "osp@@": 10705,
  "remix": 10706,
  "dal": 10707,
  "usa": 10708,
  "1821": 10709,
  "Honorary": 10710,
  "Om@@": 10711,
  "Rhodes": 10712,
  "Stat@@": 10713,
  "worse": 10714,
  "Body": 10715,
  "200@@": 10716,
  "Rid@@": 10717,
  "SEC": 10718,
  "Bedford": 10719,
  "Beg@@": 10720,
  "Ble@@": 10721,
  "Shak@@": 10722,
  "pil@@": 10723,
  "slight": 10724,
  "spacecraft": 10725,
  "Generation": 10726,
  "Lon@@": 10727,
  "amin@@": 10728,
  "automobile": 10729,
  "graduates": 10730,
  "nobility": 10731,
  "Easter": 10732,
  "Rav@@": 10733,
  "UNESCO": 10734,
  "pottery": 10735,
  "Darwin": 10736,
  "Ng@@": 10737,
  "Rush": 10738,
  "rest@@": 10739,
  "submarines": 10740,
  "wives": 10741,
  "Garcia": 10742,
  "Kerry": 10743,
  "SN@@": 10744,
  "Use": 10745,
  "happens": 10746,
  "liked": 10747,
  "Adrian": 10748,
  "CF": 10749,
  "ein@@": 10750,
  "fire@@": 10751,
  "ide@@": 10752,
  "Chemistry": 10753,
  "Lind@@": 10754,
  "Bolton": 10755,
  "Counties": 10756,
  "Providence": 10757,
  "anism": 10758,
  "memories": 10759,
  "ss@@": 10760,
  "surveillance": 10761,
  "Animal": 10762,
  "mechanics": 10763,
  "run@@": 10764,
  "Call": 10765,
  "Chan": 10766,
  "Floyd": 10767,
  "gameplay": 10768,
  "mask": 10769,
  "struggles": 10770,
  "trailer": 10771,
  "tures": 10772,
  "Cancer": 10773,
  "Marshal": 10774,
  "Under@@": 10775,
  "ancestors": 10776,
  "rid@@": 10777,
  "voluntary": 10778,
  "dining": 10779,
  "divine": 10780,
  "schemes": 10781,
  "Associated": 10782,
  "rol@@": 10783,
  "sworn": 10784,
  "ules": 10785,
  "Alt@@": 10786,
  "Hawaiian": 10787,
  "Roll": 10788,
  "Sud@@": 10789,
  "reflects": 10790,
  "Stri@@": 10791,
  "Thomson": 10792,
  "dar": 10793,
  "inquiry": 10794,
  "transmitted": 10795,
  "SD@@": 10796,
  "Terminal": 10797,
  "ction": 10798,
  "sued": 10799,
  "Border": 10800,
  "Law@@": 10801,
  "Pay@@": 10802,
  "Sara": 10803,
  "cus": 10804,
  "dan@@": 10805,
  "play@@": 10806,
  "uh@@": 10807,
  "1825": 10808,
  "defines": 10809,
  "editors": 10810,
  "paved": 10811,
  "BB@@": 10812,
  "avoided": 10813,
  "coordinates": 10814,
  "descended": 10815,
  "Bolivia": 10816,
  "Goo@@": 10817,
  "rowing": 10818,
  "CN@@": 10819,
  "Dim@@": 10820,
  "Ek@@": 10821,
  "Leipzig": 10822,
  "Sometimes": 10823,
  "hiding": 10824,
  "translator": 10825,
  "Karnataka": 10826,
  "LLC": 10827,
  "PL@@": 10828,
  "Vernon": 10829,
  "aca": 10830,
  "flee": 10831,
  "gains": 10832,
  "Jorge": 10833,
  "Ear@@": 10834,
  "enrollment": 10835,
  "ive": 10836,
  "Hell@@": 10837,
  "descendant": 10838,
  "dialects": 10839,
  "drag": 10840,
  "strictly": 10841,
  "vaccine": 10842,
  "Sacramento": 10843,
  "bled": 10844,
  "heim": 10845,
  "oka": 10846,
  "Gerald": 10847,
  "achi": 10848,
  "acute": 10849,
  "combining": 10850,
  "mal": 10851,
  "18@@": 10852,
  "AV@@": 10853,
  "Sham@@": 10854,
  "Zam@@": 10855,
  "angry": 10856,
  "listening": 10857,
  "ple@@": 10858,
  "Reagan": 10859,
  "colleague": 10860,
  "eller": 10861,
  "guidelines": 10862,
  "104": 10863,
  "Chennai": 10864,
  "decorative": 10865,
  "equity": 10866,
  "haven": 10867,
  "realistic": 10868,
  "sand@@": 10869,
  "screening": 10870,
  "Sag@@": 10871,
  "Thir@@": 10872,
  "Electronic": 10873,
  "Graduate": 10874,
  "anch@@": 10875,
  "sar@@": 10876,
  "settling": 10877,
  "ule": 10878,
  "1.8": 10879,
  "1828": 10880,
  "8,000": 10881,
  "Cumberland": 10882,
  "Heavyweight": 10883,
  "Partners": 10884,
  "Sex": 10885,
  "busy": 10886,
  "dancers": 10887,
  "electronics": 10888,
  "missiles": 10889,
  "rode": 10890,
  "Archives": 10891,
  "Downtown": 10892,
  "Fel@@": 10893,
  "Gay": 10894,
  "hara": 10895,
  "livestock": 10896,
  "realizes": 10897,
  "licence": 10898,
  "lighter": 10899,
  "olog@@": 10900,
  "spectators": 10901,
  "Alb@@": 10902,
  "Cloud": 10903,
  "Jacksonville": 10904,
  "anthology": 10905,
  "beta": 10906,
  "keyboard": 10907,
  "pressed": 10908,
  "fabric": 10909,
  "ord": 10910,
  "invention": 10911,
  "Ferry": 10912,
  "Linux": 10913,
  "Rot@@": 10914,
  "couldn": 10915,
  "net@@": 10916,
  "similarities": 10917,
  "tornado": 10918,
  "Derek": 10919,
  "Marriage": 10920,
  "bicycle": 10921,
  "exercises": 10922,
  "fil@@": 10923,
  "shortened": 10924,
  "trace": 10925,
  "aesthetic": 10926,
  "aru": 10927,
  "ignored": 10928,
  ".A.": 10929,
  "Casey": 10930,
  "advocacy": 10931,
  "bigger": 10932,
  "celebrity": 10933,
  "enhance": 10934,
  "portfolio": 10935,
  "seemingly": 10936,
  "subtropical": 10937,
  "Herman": 10938,
  "fal@@": 10939,
  "floating": 10940,
  "ghost": 10941,
  "indie": 10942,
  "sburg": 10943,
  "wingspan": 10944,
  "1810": 10945,
  "Maxwell": 10946,
  "canceled": 10947,
  "dust": 10948,
  "excluded": 10949,
  "goddess": 10950,
  "strain": 10951,
  "Below": 10952,
  "chains": 10953,
  "costume": 10954,
  "Lag@@": 10955,
  "clergy": 10956,
  "wound": 10957,
  "200,000": 10958,
  "Buck@@": 10959,
  "Lud@@": 10960,
  "cruise": 10961,
  "differential": 10962,
  "garage": 10963,
  "nec@@": 10964,
  "oh": 10965,
  "Basel": 10966,
  "Webb": 10967,
  "diamond": 10968,
  "swing": 10969,
  "tasked": 10970,
  "IF": 10971,
  "Sv@@": 10972,
  "Wei": 10973,
  "commanders": 10974,
  "leather": 10975,
  "meth@@": 10976,
  "seasonal": 10977,
  "servants": 10978,
  "Bulldogs": 10979,
  "Mail": 10980,
  "Stories": 10981,
  "collegiate": 10982,
  "mas": 10983,
  "Internal": 10984,
  "Phase": 10985,
  "Rica": 10986,
  "ML@@": 10987,
  "Mind": 10988,
  "eti": 10989,
  "Telegraph": 10990,
  "peaceful": 10991,
  "swept": 10992,
  "Denis": 10993,
  "adds": 10994,
  "Battery": 10995,
  "Santo": 10996,
  "differs": 10997,
  "Č@@": 10998,
  "Ming": 10999,
  "Origin": 11000,
  "UTC": 11001,
  "computing": 11002,
  "engaging": 11003,
  "Duchy": 11004,
  "chlor@@": 11005,
  "fat": 11006,
  "lith@@": 11007,
  "websites": 11008,
  "Match": 11009,
  "lex": 11010,
  "replied": 11011,
  "sunk": 11012,
  "Stan": 11013,
  "fy": 11014,
  "struggling": 11015,
  "38@@": 11016,
  "UCLA": 11017,
  "coupled": 11018,
  "legitimate": 11019,
  "10,@@": 11020,
  "Bruno": 11021,
  "Cave": 11022,
  "Heavy": 11023,
  "Laws": 11024,
  "Madagascar": 11025,
  "Tales": 11026,
  "Things": 11027,
  "ump@@": 11028,
  "Buddha": 11029,
  "Tanzania": 11030,
  "abbreviated": 11031,
  "bio@@": 11032,
  "García": 11033,
  "Papua": 11034,
  "Plat@@": 11035,
  "penalties": 11036,
  "retaining": 11037,
  "suffer": 11038,
  "tal": 11039,
  "udi@@": 11040,
  "var": 11041,
  "10.@@": 11042,
  "bats": 11043,
  "resign": 11044,
  "urs": 11045,
  "uss@@": 11046,
  "vely": 11047,
  "Worcester": 11048,
  "ack@@": 11049,
  "burgh": 11050,
  "filmmaker": 11051,
  "ian@@": 11052,
  "Fiji": 11053,
  "capturing": 11054,
  "fur": 11055,
  "investments": 11056,
  "lee": 11057,
  "airs": 11058,
  "hunt": 11059,
  "ista": 11060,
  "vor@@": 11061,
  "discharge": 11062,
  "playwright": 11063,
  "revealing": 11064,
  "thi": 11065,
  "plaque": 11066,
  "High@@": 11067,
  "Sti@@": 11068,
  "har": 11069,
  "ight": 11070,
  "impression": 11071,
  "len": 11072,
  "modes": 11073,
  "pin@@": 11074,
  "seeded": 11075,
  "requests": 11076,
  "Dragons": 11077,
  "Il": 11078,
  "HP": 11079,
  "Hits": 11080,
  "Tibetan": 11081,
  "banner": 11082,
  "fan@@": 11083,
  "Chil@@": 11084,
  "Wings": 11085,
  "Zu@@": 11086,
  "persuaded": 11087,
  "shrine": 11088,
  "1824": 11089,
  "Editor": 11090,
  "Winston": 11091,
  "Scots": 11092,
  "constituted": 11093,
  "expense": 11094,
  "Dixon": 11095,
  "Excellence": 11096,
  "Rafael": 11097,
  "Senators": 11098,
  "atomic": 11099,
  "inception": 11100,
  "pleasure": 11101,
  "Unfortunately": 11102,
  "archives": 11103,
  "monarchy": 11104,
  "shipped": 11105,
  "Hun@@": 11106,
  "Lis@@": 11107,
  "Rao": 11108,
  "Rifle": 11109,
  "SD": 11110,
  "constitute": 11111,
  "ety": 11112,
  "fault": 11113,
  "Kid": 11114,
  "Thunder": 11115,
  "designers": 11116,
  "epic": 11117,
  "Volunteer": 11118,
  "bat@@": 11119,
  "enabling": 11120,
  "strange": 11121,
  "launching": 11122,
  "precise": 11123,
  "spreading": 11124,
  "stamps": 11125,
  "Fab@@": 11126,
  "Ram": 11127,
  "ethics": 11128,
  "thirds": 11129,
  "vis": 11130,
  "Cob@@": 11131,
  "Hardy": 11132,
  "LC": 11133,
  "develops": 11134,
  "onian": 11135,
  "photograph": 11136,
  "Luc@@": 11137,
  "alignment": 11138,
  "correspondent": 11139,
  "fs": 11140,
  "ultimate": 11141,
  "rush": 11142,
  "wise": 11143,
  "Michelle": 11144,
  "Netflix": 11145,
  "SW@@": 11146,
  "acids": 11147,
  "valve": 11148,
  "0.1": 11149,
  "Maharashtra": 11150,
  "Mar": 11151,
  "Norton": 11152,
  "bowling": 11153,
  "wer": 11154,
  "Mann": 11155,
  "amba": 11156,
  "lecture": 11157,
  "lip": 11158,
[...]
