. 8616422
, 6402979
der 5233707
und 4094821
die 3366126
in 3053871
&quot; 2860843
@-@ 2224260
von 1970023
den 1633954
) 1578326
( 1576997
des 1422605
im 1379961
mit 1288486
er 1133233
wurde 1104933
dem 1062555
ist 1014961
das 1003529
Die 991390
als 955967
zu 894974
auf 879304
für 864663
ein 854171
eine 824954
sich 793523
an 784708
war 761620
aus 573442
auch 553283
bis 550325
nach 525615
am 520202
: 515870
“ 513836
„ 510490
bei 495811
Der 488027
sie 453431
zum 448852
einer 446696
es 370588
– 362666
durch 361618
einem 355771
Im 349174
werden 340474
nicht 339487
Das 338693
sind 336897
; 317106
wird 314847
In 314522
zur 310292
einen 304648
über 304309
um 298880
oder 288081
wurden 283005
dass 254652
/ 253827
Er 249373
Jahr 241743
unter 239010
wie 213437
vor 208265
sowie 200696
vom 199699
seiner 195024
Nach 193788
nur 188330
hatte 186892
seine 182762
noch 180257
Jahre 177679
Sie 171632
zwei 171554
aber 169710
waren 167526
hat 163221
ab 161140
* 158521
eines 153759
Jahren 151225
zwischen 149968
Am 149276
- 148874
de 148783
sein 148047
dieser 142984
gegen 139641
Es 139247
ersten 129186
Zeit 128025
jedoch 125232
seit 124689
Stadt 123490
of 122693
so 119169
etwa 118790
drei 116911
wieder 113225
Geschichte 112265
man 111527
Als 108696
Leben 108296
seinem 107935
seinen 103346
später 103273
beim 103030
Von 102796
Bei 102751
liegt 101899
mehr 101736
Ende 99674
diese 99518
ihre 99075
1. 96891
kann 96562
1 95530
kam 93989
konnte 93484
erste 92825
Mit 92380
Gemeinde 92077
wo 91461
ihm 90742
August 89129
Mai 88335
s 88191
März 88170
Teil 87198
Januar 87152
m 86942
Oktober 86267
heute 85825
haben 84579
da 84380
ihrer 84367
dann 83848
bereits 83407
dort 83146
2 83045
’ 82995
&amp; 82619
September 82406
† 82050
Juni 81469
April 81253
en@@ 80888
Juli 80554
Universität 80440
Kirche 79834
ihn 79475
anderen 79292
während 78819
erhielt 78647
US 78631
Dezember 78519
er@@ 77401
a 77003
November 76856
Ein 76780
Saison 76686
km 76431
beiden 75985
vier 75825
ihr 75702
Diese 75568
gab 75457
% 74109
Platz 73373
Seit 72932
können 72451
Deutschland 72321
diesem 72070
dessen 71722
Berlin 71054
Jahrhundert 70416
gibt 70030
i 69282
alle 69233
un@@ 69191
Mitglied 68478
Februar 68411
Eine 68371
ab@@ 67982
ten 65984
ver@@ 65818
en 65245
Auch 65149
an@@ 65107
zurück 64685
damit 64179
3 64074
Für 63598
zunächst 62814
Auf 62615
deren 61635
ihren 61549
Familie 61525
keine 61508
zusammen 61099
befindet 60941
_ 60736
Ort 60477
sehr 60365
deutschen 59727
weitere 59698
te 59657
Namen 59121
ischen 59039
begann 58823
Film 58361
steht 58174
Sohn 57852
worden 57806
nahm 57642
ins 57439
bekannt 57295
ische 57136
gewann 56983
spielte 56791
Personen 56397
allem 56282
ein@@ 56158
bzw. 56103
ebenfalls 55837
2011 55732
k@@ 55621
anderem 55379
2010 55331
o 55027
statt 53769
4 53728
denen 53614
was 52971
ohne 52516
aus@@ 52037
selbst 51978
el@@ 51965
2009 51869
2015 51686
neuen 51685
2012 51606
K@@ 51268
2008 51184
s@@ 51163
dabei 51104
gehörte 50757
2014 50705
2013 50553
T@@ 50281
G@@ 50257
formula 49959
Während 49857
B@@ 49847
hier 49841
19. 49740
deutscher 49731
&apos; 49716
S@@ 49665
trat 49577
2016 49555
Meter 49542
neue 49540
ging 49505
erstmals 49138
2007 48975
Jahrhunderts 48831
Ver@@ 48786
ung 48405
H@@ 48308
Ab 48181
z@@ 47877
2. 47823
Ab@@ 47673
bezeichnet 47647
sei 47424
New 47347
führte 47253
L@@ 47174
fünf 47070
2017 47026
The 47009
ern 46993
t 46877
t@@ 46795
immer 46776
St. 46769
2006 46671
Seine 46615
Name 46590
gehört 46584
isch 46573
D@@ 46418
P@@ 46283
sch@@ 45949
E@@ 45832
Titel 45807
Sch@@ 45786
-@@ 45692
Deutschen 45504
zweiten 45376
schon 45150
An@@ 45097
M@@ 44838
Band 44802
Zu 44705
wegen 44583
2018 44503
ungen 44467
arbeitete 44443
seines 44298
sondern 44276
einige 44188
2019 44050
Gruppe 43850
Sein 43773
So 43755
l 43706
Liste 43577
the 43559
erst 43487
rund 43024
ter 42998
ihrem 42983
R@@ 42895
neben 42785
hatten 42723
10 42639
fand 42596
and 42553
studierte 42492
Menschen 42407
Karriere 42303
2005 42256
Friedrich 42029
mehrere 42022
F@@ 42008
auf@@ 41982
5 41707
as 41692
A@@ 41669
besteht 41620
stand 41560
O@@ 41547
andere 41517
um@@ 41279
20 41247
dieses 41177
ent@@ 41038
20. 41033
Ober@@ 41000
Anfang 40988
N@@ 40891
Z@@ 40858
Tod 40750
genannt 40571
Art 40453
B. 40416
2000 40394
großen 40337
Durch 40336
18. 40126
1945 39825
wenn 39803
sollte 39790
deutsche 39780
e 39701
in@@ 39646
letzten 39546
Kilometer 39510
al@@ 39437
diesen 39296
Da 39249
2004 39224
wechselte 39221
erfolgte 39193
Unternehmen 39165
be@@ 39090
tätig 39040
n@@ 38886
weiter 38749
Gebiet 38678
allerdings 38634
2020 38593
3. 38555
große 38471
Johann 38277
wobei 38261
W@@ 38166
amp 38020
über@@ 37682
Einwohner 37675
mann 37663
Straße 37609
soll 37512
V@@ 37408
ge@@ 37292
Mitte 37211
gegründet 37137
15 37093
ischer 37040
l@@ 36967
6 36954
führt 36937
d 36936
erreichte 36847
Frau 36762
teil 36762
berg 36700
on 36681
Mannschaft 36656
15. 36551
Nachdem 36544
ungs@@ 36534
blieb 36529
Verein 36456
Vor@@ 36447
ers 36446
d@@ 36393
A 36319
nun 36265
Region 36139
musste 36130
Zweiten 36119
übernahm 36041
jeweils 35941
Karl 35854
z. 35836
sechs 35809
weiteren 35792
el 35753
schließlich 35741
folgenden 35704
viele 35642
Gebäude 35589
us 35363
at 35335
os 35071
16. 34981
Bis 34978
ens 34742
ar@@ 34656
a. 34633
Haupt@@ 34543
17. 34421
Vater 34419
g@@ 34367
2003 34327
Norden 34322
2001 34300
m@@ 34259
USA 34222
b@@ 34201
Bereich 33782
Aus@@ 33733
Form 33700
2002 33642
An 33622
vor@@ 33598
neu 33587
enden 33562
Ein@@ 33497
gewählt 33484
aufgrund 33483
is 33466
ende 33450
u. 33404
insgesamt 33337
welche 33300
erhalten 33288
z 33274
Unter@@ 33097
Dort 33069
University 32965
darauf 32822
f@@ 32771
Album 32742
Haus 32727
Dabei 32716
entstand 32688
4. 32655
dazu 32627
Tochter 32563
verschiedenen 32562
Land 32520
100 32508
lang 32240
verwendet 32208
2021 32194
Wilhelm 32185
13. 32134
st@@ 32047
München 32031
König 32002
Bau 31964
14. 31936
Amt 31934
folgender 31851
Süden 31839
je 31832
30 31658
erneut 31624
Kinder 31574
erschien 31552
Rahmen 31500
Werk 31479
Prozent 31438
Wien 31279
Mal 31053
finden 31050
Arbeit 31021
1999 30976
Weltkrieg 30951
Dies 30934
Stand 30898
12. 30872
al 30817
John 30811
konnten 30810
gilt 30798
meist 30780
FC 30738
8 30730
errichtet 30715
Rolle 30709
Millionen 30707
Lage 30678
Entwicklung 30612
u 30591
St@@ 30580
Dieser 30565
ner 30560
ließ 30557
Einsatz 30545
insbesondere 30502
eigenen 30474
Neben 30438
Bevölkerung 30426
C@@ 30370
Heinrich 30332
or@@ 30236
Dorf 30188
et 30177
zog 30163
Bau@@ 30076
Provinz 30052
Osten 30034
Richtung 30034
1990 29921
au 29880
on@@ 29834
starb 29763
allen 29754
davon 29745
Westen 29733
Frankreich 29678
16 29617
I@@ 29604
5. 29528
Staaten 29499
es@@ 29495
le 29360
eingesetzt 29181
straße 29139
Frauen 29129
k 29110
Hans 29066
gt 29040
innerhalb 29019
Gesellschaft 28973
et@@ 28945
bach 28943
ch@@ 28941
p@@ 28941
Seite 28908
Schule 28905
Beginn 28884
i@@ 28844
fast 28830
1998 28803
Bedeutung 28781
y@@ 28765
York 28758
damals 28717
II. 28699
6. 28657
B 28557
Partei 28548
oft 28548
7 28524
Aus 28478
Peter 28448
bestand 28436
is@@ 28413
Paris 28389
kommt 28368
n 28361
habe 28345
tes 28305
also 28226
zweite 28214
Folge 28196
Jahres 28180
Außerdem 28152
ler 28129
U@@ 28106
Beispiel 28062
10. 28037
18 28000
U 27963
Um 27951
stark 27925
at@@ 27891
Paul 27887
J@@ 27817
e@@ 27817
darunter 27765
liche 27730
Landkreis 27710
50 27684
Regierung 27643
ehemaligen 27622
Höhe 27617
Zur 27571
acht 27569
0 27553
Unter 27486
heutigen 27384
dies 27381
12 27356
Al@@ 27338
kurz 27264
folgte 27253
8. 27242
Musik 27186
11. 27156
Un@@ 27089
7. 26976
1994 26952
9. 26841
14 26757
stellte 26673
h@@ 26652
alten 26639
j@@ 26608
1997 26604
lag 26493
o@@ 26449
u@@ 26441
ke 26379
1996 26376
1992 26351
Team 26348
lt 26341
y 26341
Österreich 26320
sowohl 26287
= 26198
Er@@ 26164
zahlreiche 26127
Spiel 26051
lange 26041
Burg 25948
Serie 25922
französischen 25899
veröffentlicht 25880
zudem 25760
1995 25750
geboren 25750
Kreis 25666
Krieg 25630
gegenüber 25627
Welt 25607
1991 25606
ca. 25527
muss 25442
I. 25397
weil 25389
findet 25372
&#91; 25366
&#93; 25329
geht 25302
gut 25302
Zum 25278
danach 25275
verschiedene 25267
re@@ 25253
Liga 25222
Sitz 25181
isches 25142
1993 25120
30. 25037
la 25026
besuchte 24972
Alter 24968
lassen 24938
gemeinsam 24916
schrieb 24900
setzte 24866
Insel 24841
besonders 24823
21. 24758
zu@@ 24739
lich 24632
Professor 24574
r@@ 24531
I 24509
13 24479
Vertrag 24311
th@@ 24277
Sommer 24223
iert 24205
Hamburg 24200
Gemeinden 24192
beispielsweise 24165
Maria 24154
zuvor 24092
1989 24066
meisten 24061
zeigt 24034
doch 24029
London 24013
zehn 23989
sieben 23960
Spieler 23918
O 23888
Mar@@ 23852
kamen 23833
Mutter 23828
Landes@@ 23806
gleichen 23746
ale 23744
Be@@ 23675
gen 23659
teilweise 23635
hinaus 23628
machte 23602
ie 23586
befinden 23571
gehören 23558
schloss 23519
Mann 23451
it@@ 23432
v@@ 23424
Schweiz 23398
Groß@@ 23378
Werke 23372
gelang 23356
sehen 23312
chen 23276
Europa 23267
9 23261
Georg 23152
DDR 23112
25. 23075
kommen 23075
Schloss 23056
ow 23025
amerikanischen 23011
stehen 23001
em 22963
ihnen 22930
Vereinigten 22892
26. 22887
g 22879
am@@ 22866
eigene 22865
Strecke 22856
a@@ 22854
genutzt 22804
22. 22787
daher 22785
Armee 22754
League 22732
absolvierte 22704
nachdem 22605
ol@@ 22548
gründete 22520
Franz 22505
Spielen 22485
25 22453
Betrieb 22420
40 22401
Studium 22374
veröffentlichte 22354
17 22348
hin 22333
Mitglieder 22320
Danach 22240
end 22229
ar 22180
etwas 22166
Ausbildung 22164
28. 22144
kleinen 22139
Deutsche 22113
24. 22097
häufig 22020
Saint 21997
Land@@ 21968
der@@ 21952
Ludwig 21948
aufgenommen 21929
Tag 21926
Bruder 21891
kein 21879
möglich 21853
Weitere 21844
23. 21827
entstanden 21800
Ersten 21764
Über@@ 21750
1972 21724
beide 21724
1988 21687
1933 21668
19 21666
Reihe 21645
La 21633
ak@@ 21604
handelt 21578
kleine 21551
Stadt@@ 21542
Hier 21531
lichen 21521
us@@ 21502
aller 21497
Zwischen 21494
Politiker 21477
einigen 21447
27. 21441
ka 21363
Arten 21359
C 21294
erreicht 21270
deutlich 21255
Bahnhof 21224
folgende 21216
hinter 21203
Bereits 21188
enk@@ 21130
Michael 21121
1980 21114
Olympischen 21109
zwar 21104
somit 21056
Bar@@ 21034
außerdem 20977
Museum 20955
Buch 20949
ieren 20932
ter@@ 20910
ot@@ 20886
Auf@@ 20862
ursprünglich 20852
vielen 20841
letzte 20807
1987 20765
29. 20764
² 20747
1970 20727
ia 20708
Nähe 20685
Ziel 20639
sten 20635
County 20629
Den 20629
ernannt 20600
Thomas 20597
Hoch@@ 20589
stein 20587
lässt 20585
Stelle 20560
liegen 20549
In@@ 20532
mehreren 20516
kehrte 20504
Um@@ 20492
direkt 20482
Linie 20416
stellt 20413
1939 20412
Über 20407
Finale 20398
igen 20356
w@@ 20341
stellen 20338
Berliner 20330
Wasser 20197
Neu@@ 20187
ert 20185
sen 20179
unter@@ 20171
ens@@ 20167
Siehe 20161
selben 20148
11 20141
gewesen 20137
dafür 20123
Präsident 20122
1974 20116
1938 20103
südlich 20103
Stein@@ 20072
erwähnt 20065
ger@@ 20064
anschließend 20040
1986 20003
ge 20003
Ar@@ 19955
em@@ 19943
Robert 19928
Zudem 19927
1984 19908
AG 19901
Bezeichnung 19889
dritten 19867
ige 19861
sk@@ 19861
Gründung 19857
San 19825
recht 19789
31. 19774
pro 19769
Einwohnern 19757
Erfolg 19724
Schul@@ 19716
Spiele 19707
ig 19702
weniger 19659
feld 19634
Preis 19622
Ihre 19606
Wasser@@ 19593
Martin 19579
1985 19564
National 19564
1975 19557
ing 19548
de@@ 19527
ur@@ 19526
Bundes@@ 19458
Chr. 19425
1978 19396
heiratete 19347
gebaut 19322
Nord@@ 19320
1944 19310
Produktion 19307
cm 19303
entwickelte 19295
h 19258
Dieses 19227
stammt 19196
erster 19159
mm 19155
Nachfolger 19153
ihres 19153
gen@@ 19146
Klasse 19126
Sprache 19092
it 19084
ber@@ 19063
Schweizer 19049
1976 19027
1968 19017
verheiratet 18999
alen 18928
International 18916
om@@ 18878
leben 18877
1969 18853
1983 18834
ina 18834
1979 18809
1973 18773
spielen 18772
Weg 18746
ad@@ 18744
1982 18734
sp@@ 18722
größten 18717
nördlich 18693
Köln 18688
bildet 18666
1971 18665
Grund 18664
Beim 18654
ag@@ 18654
Grund@@ 18651
Rang 18648
West 18647
befand 18607
1960 18588
Institut 18548
politischen 18546
Familienname 18539
diente 18536
welches 18534
umfasst 18514
ganz 18436
ierte 18416
Damit 18399
City 18368
Teile 18343
amerikanischer 18329
Euro 18326
Besitz 18311
Meister 18310
ts 18280
Truppen 18265
Verbindung 18238
Frankfurt 18229
Kloster 18229
Tage 18222
Kaiser 18209
ch 18194
1950 18192
ehemalige 18131
! 18121
Johannes 18116
Staffel 18106
ien 18106
licher 18098
Sp@@ 18093
spielt 18084
1981 18082
Joseph 18080
le@@ 18061
Carl 18039
England 18025
ul@@ 18014
Raum 17991
einmal 17984
Anschließend 17953
dar 17938
benannt 17922
werk 17901
1946 17877
inger 17868
Wahl 17864
fanden 17851
Otto 17843
ken 17837
Italien 17836
Film@@ 17829
hohen 17767
as@@ 17766
Her@@ 17759
21 17742
West@@ 17732
Sieg 17728
li@@ 17727
Bischof 17717
Hälfte 17710
del 17707
damaligen 17683
1964 17681
Zuge 17666
v. 17655
op@@ 17653
Nr. 17647
Leitung 17634
Rennen 17628
ierten 17605
Politik 17570
Ber@@ 17563
nahe 17549
belegte 17537
bereich 17503
1977 17486
Landes 17481
wenig 17465
60 17461
24 17453
Grenze 17431
200 17422
Musik@@ 17420
ich 17371
Runde 17312
französische 17307
1967 17294
to 17276
Ernst 17275
größte 17259
Spiel@@ 17253
ebenso 17228
Länge 17217
Ihr 17207
c@@ 17198
durch@@ 17193
britischen 17167
führen 17152
Begriff 17142
ro@@ 17135
Holz@@ 17133
Arbeiten 17123
Leipzig 17109
GmbH 17080
Division 17063
besitzt 17058
entfernt 17057
Kunst 17055
Bad 17047
Tour 17046
se 17046
den@@ 17030
Kanton 17029
Nationalmannschaft 17029
Ortsteil 17013
1965 17012
end@@ 17011
sogar 16988
Herrschaft 16954
bevor 16947
Mittel@@ 16944
System 16940
arbeiten 16919
einzige 16911
burg 16882
stieg 16864
Aufgrund 16863
Ehe 16856
land 16836
beträgt 16819
zeit 16818
b 16817
brachte 16811
See 16801
Stil 16799
deutsch 16768
1961 16761
E 16732
ach 16732
weit 16729
Leiter 16714
Christian 16709
Zentrum 16703
1962 16679
weiterhin 16655
ausgezeichnet 16646
späteren 16621
1940 16602
1966 16596
di 16589
Fall 16578
entwickelt 16578
1963 16568
be 16556
Republik 16548
S 16533
Kar@@ 16521
é 16521
se@@ 16514
di@@ 16512
nach@@ 16503
bisher 16501
Bayern 16457
eln 16444
Männer 16418
fest 16401
frühen 16393
1956 16390
verbunden 16387
ob 16376
1952 16369
Sachsen 16361
° 16343
1949 16337
Firma 16321
internationalen 16321
D 16313
1941 16311
eb@@ 16292
1942 16287
Theater 16254
Wie 16250
1948 16232
machen 16224
ing@@ 16207
Später 16200
ger 16180
os@@ 16179
erzielte 16178
Zahl 16176
Polen 16175
1943 16156
Fläche 16138
Ost@@ 16119
1958 16083
enthält 16082
heim 16080
Park 16075
aktiv 16055
Hilfe 16042
Geographie 16040
verlor 16028
Klein@@ 15993
bar 15991
zurück@@ 15967
Erst 15944
ingen 15943
müssen 15919
or 15903
weg 15884
Literatur 15857
Y@@ 15854
lediglich 15802
Süd@@ 15800
Meisterschaft 15787
au@@ 15785
hielt 15748
Wirtschaft 15743
ere 15742
östlich 15738
Kultur 15722
II 15669
Par@@ 15665
westlich 15665
legte 15662
Akademie 15656
Vor 15652
é@@ 15649
William 15632
David 15631
betrieb 15629
Wiener 15605
dorf 15591
22 15581
eher 15572
G 15552
ri@@ 15545
Har@@ 15540
ismus 15537
Berg@@ 15524
Sport@@ 15513
General 15512
stadt 15512
L 15511
il@@ 15498
1957 15497
sollten 15484
ell 15474
beteiligt 15473
1959 15464
ten@@ 15456
Ge@@ 15452
Beschreibung 15441
Bahn 15436
Regel 15421
Gattung 15418
College 15417
Weltmeisterschaft 15412
Funktion 15393
1947 15387
Vorsitzender 15376
Schiff 15372
politische 15360
Version 15357
gestellt 15355
wohl 15322
Schlacht 15276
ier@@ 15264
Bürgermeister 15263
Abschluss 15258
Alexander 15245
Verwendung 15241
alte 15210
ierung 15194
hohe 15192
ersetzt 15184
Richard 15176
ste 15151
schen 15132
Mal@@ 15089
Zeitpunkt 15081
schule 15063
ra@@ 15062
haus 15059
erreichen 15051
würde 15044
1934 15041
1954 15039
ender 15036
wollte 15033
1936 15025
1920 15013
Ch@@ 15004
Di@@ 15003
1953 15002
aten 15002
itz 15001
lebte 15000
ap@@ 14991
ik@@ 14986
viel 14981
geführt 14967
eren 14966
Uhr 14948
amerikanische 14947
1919 14939
ja 14929
zahlreichen 14927
1955 14925
neun 14897
du 14894
1918 14893
ine 14880
ans 14861
Mitarbeiter 14857
ne 14845
Kon@@ 14839
Union 14818
heraus 14798
bau 14792
Ger@@ 14789
El@@ 14764
verläuft 14763
Position 14757
V 14750
Dollar 14739
Cup 14733
men 14731
Nieder@@ 14727
innen 14709
Reichs@@ 14706
Künstler 14679
iger 14676
Man 14672
liches 14666
wuchs 14664
sollen 14650
Staats@@ 14641
wenige 14636
Fach@@ 14629
Gruppen 14609
Spielzeit 14602
School 14599
ene 14599
500 14598
siehe 14595
Hochschule 14593
Projekt 14590
ener 14581
ob@@ 14554
beendete 14534
hauptsächlich 14529
… 14524
Rück@@ 14517
knapp 14504
geben 14499
Jugend@@ 14489
nächsten 14485
Roman 14477
folgten 14476
Heute 14475
gehen 14474
besten 14471
Hermann 14426
Anzahl 14420
f 14408
elle 14404
Rom 14366
see 14358
‘ 14346
Verfügung 14342
gesamte 14342
früher 14327
erfolgreich 14308
Vertreter 14305
keinen 14303
1937 14282
Baden 14280
Kultur@@ 14272
1951 14270
fiel 14267
gel@@ 14266
Militär@@ 14256
ehemaliger 14250
betrug 14230
Tätigkeit 14217
China 14204
Per@@ 14201
bilden 14196
lebt 14188
Handlung 14178
Stadtteil 14177
Gegensatz 14137
mussten 14136
Unterstützung 14131
+ 14122
1935 14115
enz@@ 14110
gehörten 14110
ig@@ 14102
trägt 14099
ben 14083
ne@@ 14076
lebten 14067
Am@@ 14062
Trainer 14060
Organisation 14058
Eltern 14042
Max 14039
Rechts@@ 14039
darüber 14037
vermutlich 14029
ana 14014
Kunst@@ 14010
Jean 13991
gefunden 13989
platz 13985
enberg 13963
eröffnet 13960
Verkehr 13958
1930 13956
los 13940
genommen 13937
Metern 13932
James 13927
and@@ 13917
p 13914
ä@@ 13908
Dresden 13894
for 13888
ti@@ 13881
zen 13852
Mon@@ 13846
rat 13846
George 13836
Berg 13808
World 13804
Anlage 13781
dadurch 13769
gebiet 13762
gleichzeitig 13741
Verlag 13738
daraufhin 13738
Soldaten 13717
endorf 13717
Gymnasium 13708
Or@@ 13704
leitete 13670
tern 13669
Schüler 13645
Wald@@ 13645
gruppe 13615
nie 13610
bald 13600
einzelnen 13547
Weltmeisterschaften 13542
erwarb 13510
denn 13490
Dienst 13478
verließ 13466
Reich 13445
Dr. 13436
Hof 13436
sdorf 13433
III. 13419
mit@@ 13413
10@@ 13412
überwiegend 13402
her 13398
Alle 13391
Hauptstadt 13390
1914 13385
Stiftung 13376
öffentlichen 13372
1928 13367
Anschluss 13367
Mannschaften 13349
Einzel@@ 13332
Qu@@ 13331
Jugend 13323
indem 13320
Hannover 13297
ellen 13293
Verlauf 13292
ei@@ 13289
zuletzt 13281
Artikel 13280
wirkte 13277
langen 13248
Fluss 13243
Zwei 13241
Volks@@ 13233
übernommen 13224
leicht 13213
vollständig 13212
wiederum 13212
Einfluss 13198
1929 13193
Dazu 13193
Main 13186
Re@@ 13183
ausschließlich 13172
ek@@ 13171
kon@@ 13170
Bundesliga 13154
si@@ 13132
all@@ 13130
Nach@@ 13124
80 13121
ok@@ 13121
sche 13114
bahn 13088
sh@@ 13081
Direktor 13078
Pro@@ 13077
will 13073
nimmt 13070
verloren 13059
sogenannten 13043
Car@@ 13040
Minuten 13032
Basis 13022
ell@@ 13022
Japan 13015
ons 13010
Auftrag 13006
ber 12998
Zusammenhang 12997
van 12990
mindestens 12987
r 12978
Mit@@ 12970
Walter 12957
Zusammenarbeit 12949
Verwaltung 12939
gesamten 12939
Kl@@ 12938
isten 12936
zerstört 12926
Lied 12920
Sal@@ 12911
ker 12911
Wal@@ 12895
Friedhof 12874
Zeitung 12869
23 12866
ut@@ 12866
galt 12862
bietet 12857
historischen 12853
ster 12840
Papst 12831
ach@@ 12826
jeder 12824
seien 12820
na 12819
R 12814
Zeitschrift 12808
Bildung 12805
1932 12785
Nord 12778
startete 12777
Seiten 12773
Buch@@ 12770
entlang 12770
American 12765
kaum 12761
Monate 12759
gemacht 12759
bestehen 12756
eg@@ 12742
re 12742
Anna 12735
35 12732
Darüber 12730
ik 12726
heutige 12725
gingen 12711
art 12702
90 12696
Schauspieler 12686
Wappen 12679
Graf 12671
Orte 12669
« 12662
1900 12636
River 12631
Bi@@ 12625
eten 12623
Umgebung 12618
Josef 12617
Ländern 12615
Club 12612
per 12599
heißt 12589
Charles 12580
Mor@@ 12566
Abteilung 12564
» 12563
ie@@ 12559
Le@@ 12543
ausgetragen 12520
K 12504
Kritik 12504
Kapelle 12503
amt 12501
verband 12499
ser@@ 12494
folgt 12491
großer 12488
erfolgt 12479
En@@ 12473
Th@@ 12473
verkauft 12466
enb@@ 12461
Arbeits@@ 12453
Mark 12445
Hof@@ 12415
1970er 12406
Thema 12395
durchgeführt 12389
ra 12383
Autor 12381
Einige 12379
Kur@@ 12378
welcher 12378
Alt@@ 12374
Stuttgart 12372
katholischen 12368
erin 12366
400 12361
Darstellung 12339
gebracht 12339
one 12336
bildete 12333
Russland 12330
c 12324
macht 12317
betrieben 12315
Zürich 12312
70 12308
Recht 12301
Brücke 12275
erk@@ 12268
regelmäßig 12268
halten 12265
im@@ 12263
1925 12261
1980er 12261
erstes 12248
ort 12229
ep@@ 12222
meister 12221
Kirchen@@ 12217
Bezirk 12213
ensch@@ 12212
T 12207
nahmen 12205
Turm 12197
Fußball 12192
ö@@ 12191
zwölf 12187
zeigen 12185
Insgesamt 12184
weiterer 12179
me 12176
Le 12174
Punkte 12173
berger 12165
Obwohl 12161
frei 12158
erst@@ 12154
oben 12140
Bild 12139
zusätzlich 12133
ationen 12124
ling 12121
südlichen 12121
raum 12119
erbaut 12116
Hintergrund 12093
1927 12089
Verfahren 12081
Bahnstrecke 12079
32 12073
ed@@ 12058
Zeit@@ 12046
1924 12045
isch@@ 12038
system 12019
her@@ 12016
V. 12007
Bor@@ 11988
ologie 11984
Vom 11972
sodass 11965
Département 11962
hoch@@ 11959
beginnt 11944
Haus@@ 11942
ac@@ 11942
Daneben 11926
45 11919
russischen 11903
ze 11903
Nordosten 11892
Award 11890
‚ 11870
Laufbahn 11862
ations@@ 11862
Kinder@@ 11859
mer 11859
gegeben 11857
europäischen 11854
deshalb 11830
Stück 11821
SPD 11818
ü@@ 11815
Wochen 11785
Wirtschafts@@ 11781
führten 11776
ate 11766
1910 11745
Gr@@ 11734
Ro@@ 11729
Schutz 11728
entdeckt 11727
enen 11719
geschichte 11714
F 11710
els 11706
weitgehend 11699
Man@@ 11692
gewinnen 11662
Siedlung 11659
Doppel@@ 11657
1960er 11653
Sonder@@ 11652
Markt 11643
verliehen 11643
Song 11640
enh@@ 11634
1921 11622
ung@@ 11594
Königreich 11590
United 11590
ck@@ 11589
1990er 11586
selten 11579
Herbst 11576
endete 11565
gebildet 11544
Welt@@ 11543
stelle 11542
relativ 11537
setzt 11530
ir@@ 11523
1931 11522
Doch 11521
größere 11519
dritte 11514
per@@ 11500
anderer 11491
geb@@ 11481
Weltkriegs 11469
bekam 11465
Südwesten 11462
Fahr@@ 11444
ts@@ 11427
ern@@ 11422
1923 11417
1926 11415
Halle 11412
Single 11407
Ortschaft 11404
Tor@@ 11402
rechts 11401
Gesamt@@ 11399
vertreten 11388
ur 11386
Daten 11378
enten 11378
Lehrer 11376
dient 11375
Fahrzeuge 11371
erschienen 11362
Anteil 11352
weltweit 11351
form 11347
ier 11345
italienischen 11341
? 11338
Allerdings 11338
st 11338
Herkunft 11332
Angaben 11320
schwer 11319
Grand 11317
Fußballspieler 11313
ant@@ 11309
id@@ 11299
Open 11296
TV 11292
N 11284
mer@@ 11271
M 11270
Wahl@@ 11265
300 11251
ys 11244
westlichen 11234
Sk@@ 11230
bel 11227
spiel 11224
1922 11223
inzwischen 11223
stammen 11223
Teil@@ 11220
gespielt 11220
Bl@@ 11216
De@@ 11215
eng@@ 11214
Teilnehmer 11211
Führung 11206
Sammlung 11193
Tor 11186
ai 11172
Kampf 11155
Festival 11153
Großen 11148
1912 11143
9@@ 11135
jährlich 11133
lief 11133
Stunden 11130
Rudolf 11119
od@@ 11114
Forschung 11110
Laufe 11109
Nordwesten 11103
Auswahl 11093
che 11085
Spanien 11084
bringen 11083
ums 11077
af@@ 11076
nördlichen 11075
hoch 11073
Staat 11071
Kriegs@@ 11068
geprägt 11066
ha 11062
ß 11061
ischem 11059
größeren 11055
en- 11051
vorhanden 11045
mal 11038
Ma@@ 11030
Flug@@ 11029
berufen 11025
Maler 11020
Ton@@ 11003
geworden 11003
Kategorie 11001
iz@@ 10993
Schriftsteller 10992
Beide 10982
englischen 10980
schnell 10980
Philosophie 10974
Louis 10972
Weise 10971
Bild@@ 10959
26 10957
x@@ 10948
Möglichkeit 10944
ation 10939
Lehr@@ 10934
Programm 10927
dagegen 10927
Ak@@ 10925
Punkten 10925
ß@@ 10915
Bo@@ 10908
sch 10905
ino 10904
Regie 10901
Feld@@ 10900
bau@@ 10899
Wolfgang 10892
erte 10891
sogenannte 10881
Südosten 10877
arbeitet 10875
verfügt 10875
Kor@@ 10867
gesellschaft 10866
gleich 10856
Großbritannien 10854
Kind 10849
wahrscheinlich 10842
Typ 10835
Größe 10831
hof 10820
28 10809
Stimmen 10807
Veröffentlichung 10798
Bel@@ 10797
Ergebnis 10793
Abschnitt 10784
Württemberg 10779
elt 10777
Ros@@ 10773
Modell 10761
Städte 10755
produziert 10735
laut 10734
ete 10724
trug 10718
sieht 10716
Ur@@ 10706
Natur@@ 10704
te@@ 10700
Familien 10697
ff@@ 10692
kl@@ 10683
Gelände 10675
jeweiligen 10674
standen 10674
wichtige 10670
x 10657
eingestellt 10653
Albert 10642
esch@@ 10641
höchsten 10629
.@@ 10617
Erfolge 10616
Verbreitung 10609
weist 10606
österreichischen 10595
Krieges 10584
fen 10583
ben@@ 10582
He@@ 10581
früheren 10577
Nutzung 10574
wald 10571
ette 10567
Aufgaben 10565
jungen 10563
sah 10561
Folgen 10555
außerhalb 10554
Juden 10547
Wirken 10544
Bewegung 10538
Rad@@ 10518
darin 10515
fer@@ 10506
Ehefrau 10492
Tore 10489
Kal@@ 10469
ma 10465
onlyinclude 10457
hervor 10452
Boden 10431
fort 10431
2@@ 10427
National@@ 10421
ini 10414
1913 10413
eingeführt 10408
Hessen 10407
bestritt 10407
Frage 10397
Los 10395
könnte 10394
Royal 10389
nehmen 10389
qu@@ 10387
Qualifikation 10381
27 10372
internationale 10338
End@@ 10333
Turnier 10323
mehrfach 10305
Tal 10299
Kopf 10297
Vergleich 10296
Post@@ 10294
Grafen 10278
rechten 10278
anlage 10273
nichts 10272
Merkmale 10266
bedeutet 10252
hausen 10248
Orgel 10243
Schwester 10237
1911 10235
gerade 10233
Herzog 10231
Ko@@ 10224
Motor 10219
Wert 10212
Island 10211
ähnlich 10203
genannten 10198
1000 10195
Bal@@ 10191
Inseln 10184
S. 10179
beschrieben 10172
bi@@ 10168
hätte 10164
trotz 10163
Vaters 10158
hingegen 10151
og@@ 10151
ck 10143
Hand 10140
Wagen 10131
are 10130
wäre 10129
neuer 10120
ata 10119
Ungarn 10115
Bundesstaat 10108
Washington 10108
Westfalen 10108
Zu@@ 10100
Nur 10094
unterstützt 10082
Architektur 10066
ard 10063
Halb@@ 10062
Lebens@@ 10057
Bremen 10052
gleichnamigen 10052
Grenz@@ 10046
aufgelöst 10040
gegründeten 10035
Herren 10033
8@@ 10022
nen 10009
vierten 10006
onen 10000
Süd 9986
werke 9981
Frühjahr 9980
lichkeit 9975
zeigte 9973
katholische 9967
Kindern 9963
Schweden 9962
all 9957
Themen 9948
lagen 9948
ang 9946
bekannten 9941
erhielten 9941
Li@@ 9940
Sozial@@ 9933
Jazz 9927
zählt 9923
man@@ 9920
verein 9906
Quellen 9895
Verwaltungs@@ 9895
Grundlage 9892
Bank 9891
1907 9884
ano 9881
zugleich 9873
tragen 9860
Schl@@ 9853
gelegenen 9850
Heiligen 9845
Landwirtschaft 9845
Eis@@ 9839
Luft@@ 9836
4@@ 9832
Fernseh@@ 9832
schaft 9830
Su@@ 9827
Opfer 9826
erten 9826
Hand@@ 9824
Sowjetunion 9821
War@@ 9819
enthalten 9819
elf 9813
Deutsch 9798
umbenannt 9797
zer@@ 9788
Schulen 9781
obwohl 9781
Teilen 9780
entspricht 9779
d. 9777
Wald 9774
wenigen 9763
är@@ 9758
Winter 9749
Aufgabe 9740
Not@@ 9738
á@@ 9736
Wohn@@ 9732
1905 9725
vier@@ 9725
weisen 9714
Selbst@@ 9707
Schon 9694
Ent@@ 9693
offiziell 9691
Rückkehr 9686
Cor@@ 9680
Schiffe 9677
kirche 9675
ou@@ 9674
2022 9670
ay 9669
SS 9664
Wer@@ 9664
Noch 9658
Schutz@@ 9655
erweitert 9649
est@@ 9640
dienst 9639
weiteres 9630
Ebene 9626
ica 9626
1917 9623
neues 9621
gesch@@ 9620
Wettbewerb 9618
Söhne 9614
1908 9613
Sinne 9612
Aufbau 9611
verlassen 9609
Con@@ 9607
ski 9605
ss@@ 9589
Tiere 9587
wichtigsten 9587
Distrikt 9586
solche 9586
Teams 9583
EU 9582
enst@@ 9574
Adolf 9570
dahin 9568
linken 9568
Wein@@ 9564
Se@@ 9557
ow@@ 9557
Marie 9553
Viele 9553
len 9552
bestimmt 9547
Rat 9546
baren 9546
3@@ 9545
Präsidenten 9541
geschlossen 9533
versuchte 9529
Tal@@ 9526
Ost 9521
ant 9520
Wort 9518
höchste 9508
no 9508
weiß 9499
alt@@ 9497
× 9493
Technik 9489
Person 9480
schied 9470
junge 9469
Moskau 9468
ae 9468
A. 9463
zusammen@@ 9456
X 9452
wissenschaftlichen 9451
WM 9449
enbach 9438
Werdegang 9431
Müller 9427
Rot@@ 9424
Station 9421
ic@@ 9415
Fest@@ 9410
Tri@@ 9408
Mo@@ 9407
britische 9407
groß 9396
verantwortlich 9388
Gen@@ 9379
SV 9372
Air 9371
agen 9363
hergestellt 9352
Frank 9349
Düsseldorf 9343
X@@ 9337
geschrieben 9329
Leistung 9324
eingerichtet 9323
1906 9318
Aufstieg 9318
Kn@@ 9318
Objekte 9317
fließt 9315
Gar@@ 9306
Schw@@ 9305
gehalten 9305
Gründen 9303
SC 9300
Gold@@ 9299
1950er 9297
Ö@@ 9297
kg 9283
do 9271
blieben 9270
eh@@ 9267
enn@@ 9267
Kreis@@ 9264
Hektar 9263
auer 9263
schw@@ 9259
Laut 9257
buch 9255
Niederlage 9247
Gesetz 9245
Musiker 9239
Medien 9236
bare 9236
seite 9236
De 9234
h. 9232
ast@@ 9228
Orts@@ 9227
ation@@ 9222
Polizei 9220
oberen 9220
Andreas 9216
römisch 9215
Ergebnisse 9207
Halbfinale 9202
Fl@@ 9192
Wegen 9192
Inter@@ 9191
Werner 9190
ange@@ 9186
versucht 9185
besaß 9176
Pol@@ 9173
Dem 9172
Philipp 9170
iges 9161
CDU 9154
Interesse 9153
unternehmen 9152
Gut 9143
Architekten 9142
Einführung 9142
zählen 9141
fer 9137
allein 9131
mittels 9125
sur 9123
zug 9118
land@@ 9115
tal 9114
Ortes 9109
dargestellt 9107
Weiteren 9105
&#124; 9103
ak 9103
Abitur 9101
Wenn 9101
ad 9088
6@@ 9080
Brandenburg 9080
Kraft 9080
erscheint 9077
ov@@ 9077
Wirkung 9059
jüdischen 9059
erklärt 9057
gew@@ 9055
tz@@ 9052
Zentimeter 9051
Lang@@ 9049
verbreitet 9047
La@@ 9042
bekannte 9041
verlegt 9041
1909 9035
zentrum 9028
hält 9017
angeboten 9015
Sand@@ 9013
Sprachen 9009
reichen 9008
Ad@@ 9002
älteste 8995
beschäftigt 8994
dt 8987
wodurch 8980
Europäischen 8971
kleiner 8966
Bonn 8965
Company 8965
ebenda 8963
Gold 8961
Weltkrieges 8961
Australien 8959
ist@@ 8954
Auszeichnungen 8952
ani 8945
dern 8942
isierung 8933
Records 8927
nationalen 8926
ei 8921
Durch@@ 8918
nominiert 8905
Chor 8901
Privat@@ 8899
entsprechend 8891
leiter 8891
unmittelbar 8883
ki 8875
J. 8873
römischen 8871
gezeigt 8868
Ho@@ 8865
genau 8865
zuerst 8857
Betriebs@@ 8856
š@@ 8856
östlichen 8853
ster@@ 8850
Hamburger 8848
namens 8835
Rock 8831
Verband 8827
Bu@@ 8826
36 8823
Punkt 8820
1904 8818
Fritz 8818
65 8816
Tra@@ 8813
breit 8810
Alfred 8804
Anton 8804
Bücher 8803
Gra@@ 8803
sm@@ 8803
Ne@@ 8797
gl@@ 8795
Erste 8792
v 8783
Nummer 8780
Pl@@ 8769
ges@@ 8765
tritt 8764
Zentral@@ 8763
Erd@@ 8760
fuhr 8760
1,@@ 8757
bl@@ 8755
Hol@@ 8753
0,@@ 8747
Mer@@ 8747
baute 8746
1915 8735
av@@ 8734
enz 8734
gemäß 8733
par@@ 8733
unterschiedlichen 8725
Kreuz@@ 8716
Heimat 8715
wer@@ 8714
tr@@ 8712
Liebe 8711
Hal@@ 8706
Studien 8704
werde 8703
ator 8702
rechte 8697
az@@ 8693
Angeles 8684
sel@@ 8684
Rhein 8674
französischer 8662
Standort 8660
ko 8656
7@@ 8653
Forschungs@@ 8652
Du@@ 8649
Kern@@ 8645
Nacht 8642
wissenschaftliche 8629
reich 8626
Des 8624
aler 8620
Fernsehen 8616
0@@ 8612
PS 8609
Daniel 8607
bel@@ 8607
Gu@@ 8605
Ausgabe 8601
Debüt 8601
Häuser 8600
Schauspielerin 8598
hin@@ 8596
Preußen 8595
Zug@@ 8595
grenzt 8595
Internationalen 8594
Henry 8589
erung 8588
ek 8587
tigen 8585
bestimmten 8584
Kurz 8579
teils 8577
Sport 8576
Leistungen 8575
gesetzt 8569
Bur@@ 8564
Elisabeth 8562
Quelle 8551
Lauf 8544
würden 8542
zweimal 8542
formen 8538
verfahren 8532
führer 8528
Parlament 8523
Flughafen 8522
gelten 8520
Text 8516
29 8513
son 8513
Regisseur 8512
geschaffen 8512
Villa 8510
Start 8502
State 8501
mar@@ 8485
belegt 8484
spielten 8484
alt 8475
kur@@ 8473
33 8469
Regierungs@@ 8465
Kanada 8462
Trotz 8460
1903 8457
ales 8453
vertrat 8449
Auflösung 8446
Burg@@ 8444
gebäude 8443
Films 8435
Finanz@@ 8431
Gemeinde@@ 8429
Handels@@ 8428
Sänger 8424
Informationen 8417
5@@ 8415
Nürnberg 8412
traf 8412
ane 8410
historische 8410
Situation 8406
entschied 8406
ersch@@ 8405
kurze 8405
ton 8403
wagen 8403
ah@@ 8401
errichtete 8401
Pfarrkirche 8399
sin@@ 8398
ziehen 8398
polnischen 8391
Richter 8390
zwei@@ 8390
tem 8387
ol 8386
Dom@@ 8384
verkaufte 8381
Aufnahme 8380
weise 8377
age 8365
zugeordnet 8363
Probleme 8362
Erzbischof 8359
gewonnen 8358
ut 8357
Bahn@@ 8356
istischen 8347
Durchmesser 8343
anz@@ 8343
Christoph 8342
ehe 8336
Autoren 8330
erklärte 8322
1916 8320
bezeichnete 8317
Chor@@ 8314
34 8313
nieder@@ 8311
P 8310
Top 8310
Rhein@@ 8308
Ex@@ 8299
fl@@ 8298
Sub@@ 8294
ost@@ 8293
tig 8293
South 8286
Mel@@ 8281
Sprach@@ 8280
Mat@@ 8268
Pfarrer 8266
Radio 8266
31 8264
verfasste 8264
tige 8263
Ferdinand 8262
freien 8262
beste 8260
ang@@ 8254
Straßen 8251
tsch@@ 8251
Münster 8250
Beziehungen 8247
Fakultät 8247
bleiben 8247
Boden@@ 8245
jetzt 8243
zunehmend 8242
Kommission 8239
Freiburg 8222
Mittelalter 8222
Ausstellung 8218
ität 8218
angelegt 8217
ess@@ 8216
Freund 8215
erstreckt 8211
Fenster 8206
Kirchen 8206
1902 8197
Po@@ 8190
Kirch@@ 8188
Steuer@@ 8185
Tr@@ 8177
Erde 8176
Bewohner 8174
§ 8173
übertragen 8154
ats 8153
Fußball@@ 8145
For@@ 8137
preußischen 8135
ganze 8124
Ich 8119
gesetz 8117
Ser@@ 8116
ru@@ 8116
bleibt 8106
geborene 8106
ausge@@ 8105
Besetzung 8104
promoviert 8104
Bach 8097
House 8093
Kan@@ 8093
Kosten 8093
Öffentlichkeit 8092
jährigen 8087
Regiment 8077
daran 8077
Formen 8075
Filme 8074
modernen 8074
Geld 8073
jede 8068
Sar@@ 8065
Einheit 8051
ass@@ 8051
Teilnahme 8047
Stamm@@ 8043
tung 8038
Brüder 8037
stets 8035
75 8032
1901 8029
Neben@@ 8029
gelegene 8026
Eigenschaften 8025
außer 8023
japanischen 8020
Gustav 8018
Ri@@ 8007
dienen 8007
Revolution 8005
io 8005
gegründete 8004
Königs 8000
Außen@@ 7997
Ag@@ 7984
arten 7979
Anwendung 7975
besitzen 7975
gest@@ 7973
Gast@@ 7968
verkehr 7968
öffentliche 7965
starken 7960
Mädchen 7958
Spitze 7948
eigentlich 7946
umfasste 7938
Dadurch 7935
Szene 7930
anlagen 7929
fläche 7926
zuständig 7925
Bürger 7923
ot 7923
Infrastruktur 7915
Herstellung 7913
seitdem 7913
Ru@@ 7910
spieler 7909
Eisenbahn@@ 7908
ler@@ 7907
Music 7904
ius 7902
IV. 7898
erkennen 7895
Society 7893
wert 7893
Ha@@ 7892
Länder 7892
mon@@ 7888
150 7887
arbeit 7882
Deutschlands 7873
1848 7869
alles 7868
les 7867
kreis 7865
Lu@@ 7862
Voll@@ 7858
Z 7854
Pfalz 7851
aufgestellt 7840
nahezu 7834
unterhalb 7818
vi@@ 7814
Geografie 7807
All@@ 7805
gel 7804
Fern@@ 7803
Co@@ 7801
mittlerweile 7800
North 7796
aufgeführt 7796
Theologie 7794
gesehen 7794
Vier@@ 7791
Tradition 7788
Drei 7786
Kom@@ 7781
bar@@ 7781
südwestlich 7781
Renn@@ 7780
tor@@ 7775
Stein 7770
1898 7761
liegenden 7756
í@@ 7747
ungs- 7745
1899 7741
berg@@ 7741
spiele 7741
Te@@ 7740
ha@@ 7738
entweder 7736
he 7735
38 7733
Me@@ 7732
istische 7732
Hinter@@ 7727
iten 7723
Au@@ 7722
Jan 7715
Bilder 7714
forschung 7709
lage 7706
br@@ 7703
zeit@@ 7702
einge@@ 7698
Alben 7694
än@@ 7690
ft 7688
Küste 7687
gar 7684
ella 7672
verstarb 7672
Gebiete 7669
unteren 7667
besch@@ 7660
ran@@ 7660
Indien 7658
bestimmte 7658
begonnen 7653
abgeschlossen 7645
eller 7645
Geschäfts@@ 7644
hätten 7640
sberg 7640
Mitgliedern 7637
besetzt 7634
ursprünglichen 7634
eröffnete 7625
Kalifornien 7623
leitung 7615
C. 7612
Bre@@ 7609
gruppen 7609
sel 7604
gemeinsamen 7600
kleinere 7593
zi@@ 7593
1890 7590
Vereine 7584
begannen 7584
Bezug 7577
brücke 7577
Stadion 7576
64 7574
Einheiten 7574
Hockey 7572
Tagen 7572
il 7571
spricht 7571
Parteien 7570
Millimeter 7568
Lehre 7564
Br@@ 7560
Aufnahmen 7555
Neubau 7551
Entstehung 7547
Min@@ 7542
Macht 7541
Reich@@ 7541
Vereins 7538
eng 7535
Körper 7531
sen@@ 7531
Berufs@@ 7527
Zusammen 7527
CD 7522
eins 7519
verbrachte 7519
ett 7518
Besuch 7517
Pi@@ 7517
Stellung 7516
Familien@@ 7509
jedes 7509
Konzept 7507
schuf 7500
Pan@@ 7498
ausgestattet 7497
angegeben 7496
Daher 7491
Untersuchungen 7488
Hall 7483
III 7480
späten 7478
Landtag 7477
Druck 7476
Große 7475
lo@@ 7474
Chicago 7472
spätere 7471
Hor@@ 7470
mündet 7470
Pierre 7467
Mark@@ 7466
südöstlich 7466
Em@@ 7462
jedem 7458
Tier@@ 7457
älteren 7456
Theater@@ 7454
hinzu 7454
zählte 7453
Santa 7452
links 7449
einzigen 7439
dortigen 7438
Meer 7427
ente 7425
enburg 7423
by 7422
Formel 7420
we@@ 7419
zweiter 7414
Wahlkreis 7413
kar@@ 7405
Status 7403
erhoben 7403
Rechte 7399
1895 7388
Gericht 7384
Zunächst 7384
1896 7381
Wil@@ 7379
Theorie 7378
Kontakt 7377
Pr@@ 7377
verwaltung 7377
Hotel 7373
ose 7373
Lieder 7371
Sieger 7371
befördert 7371
1870 7370
Mio. 7370
Städten 7369
Daraufhin 7365
band 7364
Figuren 7363
bewegung 7363
Ausland 7356
Nordrhein 7356
Val@@ 7355
Jakob 7353
Ba@@ 7351
Zeiten 7351
Züge 7351
M. 7350
inen 7350
j 7344
Verkehrs@@ 7335
la@@ 7334
verschiedener 7333
Tode 7332
Medizin 7330
Werken 7328
besondere 7328
Prozess 7323
stellung 7323
traten 7323
film 7318
Sol@@ 7312
Winter@@ 7312
zogen 7312
Bürger@@ 7309
bauten 7307
yl@@ 7305
Angriff 7300
un 7300
Prag 7297
Meisterschaften 7296
Förderung 7294
Schleswig 7294
gericht 7294
Entscheidung 7292
Straßen@@ 7289
geplant 7288
Mag@@ 7285
unterschiedliche 7284
Heidelberg 7281
gekommen 7276
nordwestlich 7275
mühle 7272
Basel 7266
losen 7263
NS 7261
Sh@@ 7260
Kreuz 7258
á 7257
Rand 7255
Amtszeit 7254
kurzen 7250
fällt 7247
mittel@@ 7247
griechischen 7245
800 7244
fest@@ 7239
Lo@@ 7236
Association 7234
fahren 7234
Einwohnerzahl 7233
freie 7233
beziehungsweise 7232
Polizei@@ 7231
ich@@ 7230
H 7228
spanischen 7228
ms 7226
W 7222
Zustand 7219
benutzt 7219
oc@@ 7217
General@@ 7216
Schriften 7208
Pal@@ 7205
Regional@@ 7205
Institute 7204
1897 7202
High 7201
55 7200
Elemente 7196
wesentlich 7196
37 7195
weiter@@ 7193
Straf@@ 7191
Beziehung 7188
Gleichzeitig 7184
Sankt 7183
jährige 7179
Q@@ 7178
vorwiegend 7175
Is@@ 7174
1871 7172
völlig 7170
zentrale 7163
Sa@@ 7162
gute 7158
m. 7157
Marine 7156
beschreibt 7156
Vereinigung 7154
Verhältnis 7152
600 7149
Lau@@ 7147
Boot 7145
nordöstlich 7144
Frauen@@ 7140
bislang 7138
Nachbargemeinden 7130
Mil@@ 7129
Heinz 7128
Kol@@ 7128
Abgeordneter 7127
Charts 7117
tel 7114
Natur 7112
Sehenswürdigkeiten 7108
Figur 7105
44 7104
Mexiko 7104
Hel@@ 7103
Einrichtungen 7102
Schwerpunkt 7094
ältesten 7090
ta 7089
versehen 7087
Ebenfalls 7084
Reise 7084
übrigen 7084
42 7082
Mainz 7080
Bezirks@@ 7076
1@@ 7072
Beruf 7072
British 7068
kennen 7068
Del@@ 7067
oren 7067
tor 7066
Arrondissement 7065
großes 7065
Partei@@ 7063
Wild@@ 7061
tt@@ 7059
nieder 7057
erinnert 7056
besser 7055
linie 7055
Universitäten 7050
Fragen 7049
ec@@ 7044
versch@@ 7040
schlug 7031
Gott 7030
erb@@ 7028
ent 7027
Idee 7016
Tar@@ 7016
ungefähr 7014
politisch 7013
und@@ 7013
ordnung 7011
Komponist 7010
ium 7010
Ufer 7007
Arts 7004
starke 7004
Ol@@ 7002
fall 7002
Bistum 7001
Dor@@ 7001
Holz 6997
kn@@ 6991
1.@@ 6990
ph@@ 6985
om 6984
Zeitraum 6983
aufgebaut 6981
ō 6979
alb@@ 6978
tet 6975
geb 6971
könne 6967
verurteilt 6965
Klaus 6964
Reg@@ 6964
ey 6960
schweren 6960
unten 6955
Wind@@ 6953
Tonnen 6950
Prä@@ 6948
Han@@ 6945
min 6943
Wahlen 6939
bei@@ 6935
Bundesrepublik 6934
ters 6931
Songs 6930
eck 6929
Abs 6928
Einrichtung 6926
parallel 6926
ley 6925
theorie 6925
markt 6924
All 6923
ner@@ 6922
lu@@ 6921
leitet 6916
österreichischer 6916
ade 6915
wir 6914
tw@@ 6909
Ausstattung 6908
Academy 6907
Sommer@@ 6902
vorgesehen 6902
hoher 6898
einschließlich 6891
inne 6890
erhält 6880
Kr@@ 6876
Inhalt 6870
Hersteller 6866
reicht 6860
Ausnahme 6859
Veranstaltungen 6856
1893 6854
2,@@ 6854
Lake 6850
Sam@@ 6846
ierter 6845
Breite 6838
Wissenschaften 6838
lingen 6833
Grafschaft 6832
wollen 6829
Dänemark 6826
Lebens 6826
Handel 6825
lose 6823
ks 6822
Nicht 6818
kan@@ 6818
Oper 6817
international 6812
Klosters 6811
Braunschweig 6800
entlassen 6800
fallen 6795
Ter@@ 6787
promovierte 6787
Bernhard 6785
ma@@ 6784
Kurt 6783
anischen 6783
Monaten 6779
Gegner 6778
Schmidt 6776
Minister 6774
nannte 6773
1850 6770
Druck@@ 6769
El 6769
folgen 6762
lernte 6760
Struktur 6759
Metal 6755
³ 6753
Hu@@ 6752
Weibchen 6752
einzelne 6752
Gemeindegebiet 6750
Großteil 6745
Mehrheit 6742
Halbinsel 6740
preis 6739
gebiete 6738
1,5 6737
vers@@ 6737
damalige 6735
erh@@ 6734
unterscheiden 6732
nennt 6731
Türkei 6730
Zugang 6728
Pre@@ 6727
nationale 6725
Maßnahmen 6724
betrachtet 6723
Super@@ 6722
anten 6719
Mess@@ 6717
deutschsprachigen 6716
bestätigt 6714
öffentlich 6714
Aktivitäten 6710
str@@ 6710
verpflichtet 6709
Theodor 6708
Besitzer 6702
itz@@ 6702
Initiative 6695
Roten 6691
handelte 6688
Label 6686
Landschaft 6686
wieder@@ 6686
Bayerischen 6683
felder 6682
möglicherweise 6682
1880 6678
ör@@ 6677
Bro@@ 6671
Rezeption 6671
Zug 6669
Regionen 6665
48 6664
Fällen 6664
Europameisterschaften 6663
ve 6659
1892 6657
versetzt 6657
gleich@@ 6656
Kre@@ 6654
Neue 6654
berichtet 6653
urkundlich 6650
Versuch 6649
Zeichen 6645
Ritter 6642
Körper@@ 6641
bet@@ 6640
if@@ 6638
Belgien 6634
esen 6630
Kiel 6629
Europameisterschaft 6627
erreichten 6626
Essen 6625
Studenten 6624
schaften 6615
ganzen 6613
Schön@@ 6604
führung 6602
getrennt 6599
Amts@@ 6598
Gegen 6598
eigenes 6595
Königin 6585
zeitweise 6585
Zwei@@ 6584
Ulrich 6582
eter 6581
Raum@@ 6580
Rheinland 6580
endes 6579
Ordnung 6574
1885 6573
setzen 6573
Star@@ 6571
ara 6568
San@@ 6565
angesehen 6565
gelegentlich 6564
stein@@ 6564
Aber 6562
Kongress 6562
fahrt 6562
Bestandteil 6561
Klub 6561
Mittel 6560
ore 6554
schul@@ 6554
aden 6551
Infanterie 6548
einfach 6546
men@@ 6546
schl@@ 6544
Errichtung 6543
Group 6543
wesen 6543
Bern 6542
Dem@@ 6539
Sel@@ 6539
rot 6538
Fuß 6535
1888 6533
vorher 6533
Pet@@ 6529
gemeinsame 6528
Untersuchung 6525
39 6523
miteinander 6520
ober@@ 6519
beck 6516
Glas@@ 6513
isiert 6512
Energie 6509
Silber 6509
ou 6508
etten 6504
Hafen 6502
Fisch@@ 6500
anfangs 6498
befanden 6496
genden 6494
Pflanzen 6493
Center 6490
Gouverneur 6490
Holstein 6490
erlangte 6488
stre@@ 6487
gem@@ 6481
Bronzemedaille 6479
bot 6479
weder 6478
abteilung 6475
Football 6469
zahlen 6468
endet 6467
Bibliothek 6463
ließen 6460
Star 6456
ns 6455
lichem 6447
min@@ 6443
verbindet 6443
Wissenschaft 6442
fünften 6441
klassischen 6441
schwedischen 6439
Stahl@@ 6433
Gl@@ 6430
get@@ 6430
Heimat@@ 6429
abge@@ 6429
ernannte 6429
Grab 6427
sport 6424
cht 6420
löste 6418
wa 6415
Dach@@ 6414
zer 6413
Dienst@@ 6412
mittleren 6408
Gegend 6405
li 6405
Science 6403
Simon 6403
Woche 6401
ermöglicht 6400
del@@ 6397
1891 6391
Im@@ 6390
stammte 6390
1894 6388
pf@@ 6385
Internationale 6382
Kriegsende 6382
Black 6380
ci@@ 6376
Material 6375
Göttingen 6373
ya 6373
neu@@ 6371
1930er 6370
graben 6365
Texte 6361
Hauses 6357
Mi@@ 6357
benannte 6356
cher 6356
Frankfurter 6354
1889 6350
fe 6348
flächen 6346
benachbarten 6344
wirtschaftlichen 6341
tre@@ 6340
endgültig 6339
Funktionen 6337
he@@ 6335
Linien 6334
Salzburg 6334
1874 6332
Ben@@ 6332
Julius 6331
spiel@@ 6331
chen@@ 6324
Gel@@ 6322
Sender 6322
Wel@@ 6322
mel@@ 6322
Gerhard 6317
Si@@ 6317
Pfarrei 6311
Licht@@ 6310
Sendung 6310
bus 6310
heiligen 6309
Kampf@@ 6308
widmete 6306
Brasilien 6305
Beispiele 6302
Verfassung 6299
Filmen 6298
Sicherheit 6293
Variante 6293
Ortschaften 6290
Unternehmens 6290
unbe@@ 6285
Cal@@ 6276
geriet 6276
1860 6272
Dann 6272
iss@@ 6272
yn@@ 6272
derzeit 6271
barkeit 6270
nord@@ 6270
Wall@@ 6268
sozialen 6268
Tur@@ 6267
Kurz@@ 6265
entsteht 6264
Rund@@ 6263
Kontrolle 6262
russische 6259
Chemie 6257
chinesischen 6257
fertiggestellt 6256
mittel 6255
NSDAP 6254
Satz 6254
Gal@@ 6253
Tro@@ 6253
ett@@ 6252
cke 6250
technischen 6248
zufolge 6246
Gi@@ 6244
Ukraine 6244
Produkte 6237
kraft 6235
Wol@@ 6234
Smith 6233
Wechsel 6231
alter 6230
fabrik 6229
scheiterte 6229
sowjetischen 6225
Feld 6224
existiert 6224
Einen 6223
Mur@@ 6219
italienische 6217
Gebieten 6216
ese 6215
gestaltet 6214
bestehenden 6213
ub@@ 6213
bes@@ 6212
Weltcup 6211
vergeben 6211
w 6210
zentralen 6210
mehrerer 6203
ri 6202
hieß 6200
scheint 6200
det 6199
Show 6195
unterlag 6194
Ehren@@ 6191
früh 6191
Generation 6190
Blut@@ 6188
unabhängig 6186
ola 6184
stellvertretender 6183
angenommen 6182
hr@@ 6182
guten 6178
Brand@@ 6177
Joachim 6176
entstehen 6175
Konrad 6173
gaben 6169
1879 6168
Fischer 6167
Auflage 6166
asch@@ 6166
bisherigen 6162
H. 6161
Arzt 6159
Phase 6158
zahl 6156
Widerstand 6155
stehenden 6152
Nationalsozialismus 6149
Erst@@ 6148
errichten 6146
1866 6145
best@@ 6139
gi@@ 6138
Portugal 6137
Tre@@ 6137
klasse 6132
Volkszählung 6131
treffen 6127
darf 6122
Kader 6120
punkt 6120
gelangte 6119
kleineren 6119
Lager 6117
ausgeführt 6117
bild 6115
Groß 6113
pl@@ 6111
schreibt 6110
sw@@ 6110
är 6107
Fer@@ 6106
Besonders 6104
Eduard 6104
ce 6103
lin 6098
verhindern 6098
1875 6094
Schließlich 6092
1500 6089
Farb@@ 6089
gr@@ 6085
hal@@ 6085
sofort 6084
Wieder@@ 6083
ergibt 6083
Historiker 6081
legen 6080
lers 6080
witz 6077
As@@ 6076
Behandlung 6076
war@@ 6076
Naturschutzgebiet 6073
Vi@@ 6072
Praxis 6069
Weiterhin 6068
ise 6066
Orden 6065
aktiven 6065
wirtschaftliche 6062
Spieltag 6058
Israel 6056
Patienten 6055
manchmal 6053
züge 6053
00 6052
Dar@@ 6052
zumeist 6049
Bauern 6046
Geld@@ 6046
Pf@@ 6045
daraus 6045
organisiert 6040
Kölner 6037
Arthur 6035
genannte 6034
41 6032
Paar 6032
th 6032
zumindest 6032
schließen 6031
trifft 6026
43 6022
feierte 6018
Repräsentantenhaus 6017
Studio 6015
hören 6014
Live 6011
Mühle 6010
britischer 6008
schaffte 6007
Werk@@ 6005
Engagement 6004
unterstützte 6001
Gemälde 6000
Anlagen 5996
Gemeinschaft 5993
Sie@@ 5990
Por@@ 5989
anische 5988
schließt 5988
Innen@@ 5987
Zusätzlich 5987
serie 5987
Dorfes 5986
dennoch 5986
Öl@@ 5983
Spielklasse 5978
Publikum 5976
Junioren 5972
Oberliga 5969
lin@@ 5969
ov 5969
1887 5968
existieren 5967
Bedingungen 5966
untergebracht 5966
Far@@ 5965
anstalt 5965
österreichische 5965
1867 5961
Charakter 5958
Mont@@ 5958
Super 5958
bo@@ 5958
erzählt 5957
ursprüngliche 5955
Krankenhaus 5954
offiziellen 5952
ada 5951
liegende 5951
Arbeit@@ 5949
Kin@@ 5949
Les@@ 5948
Erfahrungen 5945
Angebot 5941
mat@@ 5941
ag 5938
entsprechenden 5938
52 5935
Bay 5933
Eisenbahn 5933
Klima 5933
Industrie 5932
führenden 5931
uk@@ 5931
Verhalten 5928
Rest 5927
Schrift 5927
to@@ 5926
produzierte 5918
Dörfer 5910
anz 5910
rechts@@ 5910
Bildungs@@ 5909
förmig 5909
überhaupt 5904
Ausdruck 5902
King 5901
höheren 5900
nächste 5896
Plan 5895
ville 5895
ula 5891
Vorbild 5890
Brand 5889
Ebenso 5889
W. 5888
Fre@@ 5885
va 5885
Vorstand 5882
Com@@ 5880
Ursprünglich 5880
Ausbau 5879
umgebaut 5879
breite 5878
zw@@ 5878
Architekt 5877
res 5877
Fahrer 5875
Francisco 5875
brach 5874
englische 5874
Dreh@@ 5873
jeden 5872
debütierte 5871
49 5867
bestanden 5867
que 5867
Augen 5865
gelegt 5860
aw@@ 5859
Gre@@ 5857
rat@@ 5857
station 5857
ings 5855
kaufte 5853
inter@@ 5847
elli 5846
Entwurf 5845
Fahrzeug 5843
ologische 5842
Men@@ 5841
art@@ 5841
Deutscher 5840
Umwelt@@ 5838
desselben 5838
Gestaltung 5835
Kassel 5835
gende 5834
250 5833
Eröffnung 5831
1886 5830
Neuen 5829
nutzen 5829
51 5828
Verbindungen 5827
ologischen 5825
zieht 5823
Bund 5820
Dennoch 5820
Männchen 5820
Sängerin 5820
Río 5819
Andere 5817
Produktions@@ 5815
ca 5815
tatsächlich 5814
weshalb 5814
Künste 5812
Leit@@ 5812
mehr@@ 5812
name 5812
of@@ 5811
Religion 5810
geweiht 5810
Monat 5808
Operation 5808
getötet 5808
Erich 5805
Sicht 5805
sagte 5804
niederländischen 5803
reihe 5799
Lig@@ 5798
Ruf 5797
programm 5796
sprach 5795
Party 5794
ron@@ 5794
stellten 5794
Rio 5791
1873 5790
gemeinschaft 5790
scher 5790
ars 5787
Kam@@ 5786
Bei@@ 5785
Internet 5785
Nor@@ 5785
Woiwodschaft 5785
Salz@@ 5784
Würzburg 5783
weißen 5783
me@@ 5780
120 5778
Seiten@@ 5777
Systematik 5776
Ni@@ 5774
ds 5773
off 5773
unterschrieb 5772
anti@@ 5771
1872 5770
Anti@@ 5769
Bereichen 5769
Weiß@@ 5766
du@@ 5766
85 5765
voll@@ 5764
Norwegen 5763
basiert 5763
komplett 5763
Metall@@ 5762
ef@@ 5762
anders 5761
gewannen 5760
... 5759
ren 5759
1868 5757
46 5757
Zukunft 5757
1884 5754
47 5754
Niederlande 5753
oberhalb 5753
Chef 5752
bildeten 5751
klar 5750
tel@@ 5748
Energie@@ 5745
Freien 5745
turm 5741
Bon@@ 5738
inn@@ 5738
Post 5736
bert 5734
tri@@ 5734
Il@@ 5732
Edward 5724
ari 5724
Stellen 5722
uns 5722
fungierte 5721
José 5719
lokalen 5719
Kloster@@ 5715
Mas@@ 5715
owski 5713
gezogen 5712
außen 5711
Software 5709
pp@@ 5709
verb@@ 5709
womit 5709
Münchner 5708
forderte 5707
holte 5707
Veröffentlichungen 5706
lich@@ 5705
nis 5703
struktur 5702
Flucht 5700
umgeben 5699
Dorf@@ 5698
Rein@@ 5698
Instituts 5697
owa 5696
ill@@ 5695
alisierung 5694
Grenzen 5693
ären 5691
Farbe 5690
Orten 5690
Pokal 5688
wirtschaft 5687
allgemein 5686
ausgebaut 5684
geschlagen 5676
einiger 5675
1878 5674
ehemals 5674
offizielle 5674
Maschinen 5670
jüdische 5668
1882 5666
treten 5665
gef@@ 5661
ó@@ 5661
Chi@@ 5658
Gemeinderat 5656
Denkmalschutz 5652
technik 5652
Gerichts@@ 5648
Reste 5647
ähnliche 5647
Behörden 5646
no@@ 5646
Viertelfinale 5643
och@@ 5643
zeichen 5642
bestehende 5641
äre 5641
Reaktion 5640
est 5637
Wolf 5635
Bronze 5623
Markt@@ 5623
Denkmal 5622
Erb@@ 5622
Herbert 5622
militärischen 5622
Gegen@@ 5621
beigesetzt 5621
1876 5618
staatlichen 5616
Hei@@ 5615
Mac@@ 5615
nitz 5615
voll 5615
Förder@@ 5614
States 5614
Vergangenheit 5612
Adam 5610
Magdeburg 5610
Band@@ 5609
ah 5609
privaten 5608
sheim 5607
bu@@ 5604
Vorder@@ 5603
10.000 5600
ite 5600
1881 5599
za 5599
Zuschauer 5595
Heim@@ 5593
co 5591
Vielzahl 5590
bildung 5588
produktion 5587
Wei@@ 5586
Lösung 5585
Auszeichnung 5584
dem@@ 5582
Wand@@ 5580
notwendig 5579
bringt 5578
ati@@ 5576
Gro@@ 5575
lautet 5574
Rei@@ 5573
beschäftigte 5573
Wehr@@ 5572
Baum@@ 5571
Mathematik 5571
Rollen 5569
Blüten 5568
Luft 5568
Sc@@ 5566
Methode 5565
schreiben 5563
Grün@@ 5562
bezieht 5560
Tsch@@ 5558
schwarz 5556
gebieten 5555
Wunsch 5553
Can@@ 5552
moderne 5552
Ap@@ 5550
ita 5549
1883 5548
oh@@ 5548
Alten 5547
1920er 5542
lehrte 5542
Route 5536
Strom@@ 5534
ven 5533
breiten 5532
tiger 5532
My@@ 5531
Mensch 5530
Posten 5527
Anerkennung 5523
acher 5523
erscheinen 5521
Ziel@@ 5519
geh@@ 5518
verwendete 5518
ac 5513
fahr@@ 5509
aner 5508
Festung 5506
ungs 5506
eigener 5505
gemeinde 5502
Übersetzung 5502
achten 5500
Studie 5495
1864 5493
Ruhestand 5493
vertrag 5493
alität 5492
verfügte 5492
entwicklung 5491
Ring@@ 5489
Etwa 5487
beschlossen 5487
behandelt 5485
Video 5484
erworben 5483
Modelle 5482
siegte 5482
Don 5481
Ul@@ 5481
Eigen@@ 5479
ante 5479
wichtigen 5479
Lin@@ 5478
Ku@@ 5477
bedeutende 5477
Anhalt 5476
Mari@@ 5475
bieten 5475
König@@ 5471
Organisationen 5471
Gründer 5468
kt 5466
ari@@ 5464
durfte 5464
Bet@@ 5460
nämlich 5460
Kirchengemeinde 5459
els@@ 5456
Problem 5455
nachgewiesen 5454
ges 5453
At@@ 5449
Jahres@@ 5448
su@@ 5448
Vol@@ 5446
schwere 5446
technische 5446
Verkauf 5444
Waffen 5444
1861 5443
Niedersachsen 5443
form@@ 5442
Medien@@ 5440
Mu@@ 5436
Mol@@ 5435
Char@@ 5434
Gas@@ 5434
offen 5434
Eck@@ 5431
Senat 5431
süd@@ 5431
Farben 5429
1869 5428
Grab@@ 5428
54 5427
France 5426
Herz@@ 5424
verhaftet 5420
abzu@@ 5419
assen 5418
Lauf@@ 5416
enstein 5416
Maschine 5415
2.@@ 5413
Reiches 5413
familie 5413
Aachen 5411
1862 5409
Bank@@ 5408
Hause 5406
Ker@@ 5405
ßen 5405
Garten 5403
fielen 5403
1815 5397
Frieden 5397
Pri@@ 5397
sicher 5396
Feuer@@ 5394
č@@ 5394
Zweck 5388
700 5386
Magazin 5379
Ach@@ 5377
Inschrift 5377
Kanal 5376
Einzel 5374
Online 5374
Street 5372
ex@@ 5372
fortan 5372
Allgemeinen 5371
1865 5370
95 5370
Erwähnung 5370
Hauptrolle 5368
Baureihe 5367
Fort 5367
gek@@ 5367
itäts@@ 5366
Jung@@ 5365
erei 5363
Prix 5361
schaffen 5358
Kombination 5357
iner 5357
Ziele 5356
Schwarz@@ 5355
Tanz@@ 5355
heraus@@ 5355
direktor 5351
engagierte 5351
Lam@@ 5350
ker@@ 5350
machten 5350
Datum 5349
à 5348
Fernsehserie 5340
anhand 5340
Motor@@ 5338
Design 5337
strecke 5336
ion@@ 5335
Stefan 5334
sprache 5334
Ju@@ 5331
unterscheidet 5331
beschloss 5327
dürfen 5327
E. 5326
Bühne 5325
Kabinett 5324
So@@ 5322
Und 5322
Plätze 5321
Bericht 5319
Silbermedaille 5318
san@@ 5318
Gemeinsam 5317
Sekunden 5315
abgerissen 5314
ro 5314
eingegliedert 5312
Biografie 5309
Projekte 5307
jener 5307
ena 5305
offenen 5305
organisation 5304
verstärkt 5304
Schach@@ 5300
ly 5300
Test@@ 5299
id 5299
Erster 5298
Töchter 5298
angebracht 5295
solchen 5295
Afrika 5294
Herausgeber 5294
att@@ 5294
2,5 5293
material 5293
Jürgen 5291
Literatur@@ 5291
Partner 5291
Elektro@@ 5290
ermöglichen 5290
Veränderungen 5288
Neustadt 5286
Seinen 5285
Mary 5284
1877 5282
hierbei 5280
druck 5278
Ban@@ 5276
etz@@ 5276
Volk 5274
Dach 5272
Ra@@ 5271
n. 5270
Einer 5269
enes 5267
Siegen 5265
amp@@ 5263
Best@@ 5262
Insbesondere 5262
Marke 5262
entsprechende 5262
reiste 5262
Met@@ 5261
Thüringen 5259
veröffentlichten 5259
Priester 5257
bank 5257
Sicherheits@@ 5256
Amsterdam 5255
Ki@@ 5254
Einsatz@@ 5250
wissenschaftlicher 5249
Mühl@@ 5248
beendet 5248
ausgestrahlt 5247
Dis@@ 5246
1849 5242
ir 5242
Lokomotiven 5241
Menge 5240
Texas 5239
mal@@ 5238
soziale 5237
Ausstellungen 5234
Licht 5234
vorgestellt 5233
Beiträge 5232
Funk@@ 5232
dar@@ 5230
seither 5230
stedt 5228
studium 5228
Entfernung 5227
Staates 5226
alismus 5225
Journalist 5223
Pe@@ 5223
mittlere 5222
tu@@ 5222
Landgemeinde 5220
Poly@@ 5220
Suche 5220
Auto 5219
Albrecht 5218
Erweiterung 5218
Kopf@@ 5218
ay@@ 5218
zeiten 5217
gleiche 5216
Silber@@ 5213
Rau@@ 5212
wechsel 5209
Technischen 5207
hl 5204
christlichen 5203
Antonio 5202
Bra@@ 5200
erhöht 5199
Darmstadt 5198
Botschafter 5195
Red 5194
ring 5193
Des@@ 5192
Ob@@ 5190
Regionalliga 5190
Standard 5189
ors 5189
Lee 5181
Mecklenburg 5180
anlässlich 5180
aren 5180
Graz 5179
infolge 5179
Kommandeur 5176
sl@@ 5175
Sti@@ 5174
57 5173
Karlsruhe 5173
ath@@ 5173
gh@@ 5173
wasser@@ 5173
Tübingen 5168
56 5167
langer 5163
Bauern@@ 5162
erg@@ 5159
ort@@ 5157
Flügel 5155
Ka@@ 5155
ice 5155
Bern@@ 5154
Assistent 5153
zone 5153
ny 5150
Bildhauer 5148
kW 5147
Management 5144
Niederlanden 5144
Pro 5143
Übernahme 5141
− 5141
Jungen 5139
entwickelten 5138
Arbeiter 5136
Friedens@@ 5134
Drittel 5128
Eich@@ 5128
ken@@ 5128
Jan@@ 5127
Nationen 5127
ong 5127
uch@@ 5125
Gefängnis 5124
Wehrmacht 5119
Unabhängigkeit 5117
Wesentlichen 5116
Medaille 5114
errichteten 5113
größer 5113
rück@@ 5112
Ke@@ 5109
ug@@ 5109
Co. 5107
Baron 5104
Ram@@ 5104
höhere 5104
Partien 5100
Saisonende 5100
tionen 5098
verbandes 5098
gang 5097
53 5095
Pläne 5092
Venedig 5092
Hil@@ 5090
Donau 5087
mo@@ 5087
Gau@@ 5086
atz 5086
Güter 5084
Kandidaten 5084
Stimme 5084
ausschuss 5084
Hugo 5082
Besatzung 5080
Weg@@ 5080
essen 5077
weite 5076
wies 5076
Hör@@ 5075
vierte 5073
ders 5071
Mission 5068
Offizier 5068
volle 5068
schutz 5067
Fraktion 5065
Jagd@@ 5065
sprechen 5065
Ti@@ 5064
erfolgten 5064
Stücke 5062
Flotte 5061
eingeweiht 5061
üblich 5060
Gewinn 5059
Minute 5059
möglichst 5059
Wohnung 5057
Zwischen@@ 5056
Krieg@@ 5053
lauf 5053
Oscar 5052
begrenzt 5051
up@@ 5051
Besucher 5050
Rom@@ 5050
begleitet 5050
Sach@@ 5049
Klein 5048
militärische 5047
städtischen 5047
Altstadt 5045
Anhänger 5045
Gipfel 5044
ev@@ 5044
geschäft 5041
Sen@@ 5039
Abstand 5038
Funde 5037
ba 5037
ž@@ 5037
Anspruch 5036
Kommando 5036
Kap@@ 5034
verboten 5033
Š@@ 5032
ann@@ 5030
gern 5030
Stern 5029
Gor@@ 5027
aj@@ 5027
ann 5025
höher 5024
traditionellen 5023
Best 5021
paar 5021
fünf@@ 5020
ala 5019
ür@@ 5019
Kra@@ 5016
Zahlen 5016
rot@@ 5016
Wach@@ 5015
Hill 5014
hi@@ 5014
Promotion 5013
Nachbar@@ 5012
blatt 5011
möglichen 5010
ion 5008
evangelischen 5007
einst 5005
definiert 5003
des@@ 5001
park 5000
werken 4999
eigenständige 4998
Physik 4997
stärker 4996
könnten 4995
vorbei 4994
Op@@ 4993
fort@@ 4993
ältere 4992
Lei@@ 4990
rü@@ 4990
72 4989
förmige 4989
mp@@ 4986
behörde 4984
zugänglich 4983
Sim@@ 4981
bahn@@ 4981
zen@@ 4981
Vorkommen 4980
Netz 4978
rats 4977
Anwesen 4976
kre@@ 4976
1800 4973
Lie@@ 4973
ften 4973
Plan@@ 4972
verlängert 4971
Front 4970
rad 4968
Leichtathletik 4967
Tom 4966
Malerei 4962
reg@@ 4961
erinnen 4960
Kammer@@ 4959
Mak@@ 4959
Hall@@ 4955
Krankheit 4953
tur@@ 4953
ea 4952
Weltmeister 4950
Prinz 4949
dänischen 4949
getragen 4948
Ensemble 4947
garten 4947
tion@@ 4947
KZ 4946
Altar 4945
Gewalt 4945
änderte 4945
Geschäftsführer 4941
Orchester 4939
aktive 4939
räume 4939
Jazz@@ 4936
Krone 4936
enhaus 4936
Griechenland 4934
kirchen 4934
Augsburg 4932
Grad 4931
solcher 4931
verändert 4931
frühere 4928
Top@@ 4926
Eingang 4924
geblieben 4924
Major 4921
Al 4920
Ball@@ 4920
anerkannt 4919
betreibt 4919
1863 4918
geleitet 4918
wirkt 4918
verteilt 4915
bauen 4912
gu@@ 4912
Ereignisse 4911
entwickeln 4910
ün@@ 4910
Bou@@ 4909
Ehren 4909
Freiheit 4908
e. 4908
Mündung 4906
falls 4905
Tempel 4900
Entwicklungs@@ 4899
stätte 4898
Bauwerk 4897
We@@ 4896
Heil@@ 4895
vereins 4895
F. 4894
Planung 4893
kor@@ 4892
eil@@ 4890
staatliche 4889
Awards 4888
Vel@@ 4886
Ferner 4885
Pap@@ 4885
übersetzt 4885
uss@@ 4884
rit@@ 4882
zweier 4882
Verhandlungen 4879
reiche 4879
04 4878
mehrmals 4878
Dortmund 4877
Fassung 4877
förmigen 4877
gezählt 4876
grün 4874
Drehbuch 4873
Mannheim 4872
wasser 4871
Boston 4870
05 4868
erw@@ 4868
übernehmen 4868
Dam@@ 4867
Komponisten 4866
besonderen 4866
evangelische 4866
industrie 4866
Auftritt 4864
Pariser 4863
elles 4862
Meinung 4860
osen 4860
zusätzliche 4860
Ges@@ 4857
É@@ 4857
Co 4856
Methoden 4856
Sor@@ 4856
Rathaus 4855
cker 4853
Expedition 4850
Gebäudes 4850
iden 4850
Brief 4848
Ä@@ 4848
71 4845
fach@@ 4844
Blick 4843
ff 4842
heit 4841
Mehr@@ 4838
bekanntesten 4837
96 4836
Tourismus 4836
Force 4835
Hitler 4832
oli@@ 4831
stehende 4831
63 4830
Blatt@@ 4825
grenze 4824
shausen 4824
stes 4822
Hierbei 4821
D. 4820
burger 4820
Gesang 4819
politik 4819
Fel@@ 4818
gefangen 4818
Col@@ 4812
schulen 4812
sicherte 4811
Irland 4809
elte 4809
R. 4804
Unterschied 4804
stück 4804
Wege 4803
stattdessen 4802
Vorgänger 4801
Spezial@@ 4797
italienischer 4797
jahr 4796
erlaubt 4793
Freunde 4792
ank@@ 4792
festgelegt 4791
tions@@ 4791
Milliarden 4790
gedreht 4789
Lübeck 4788
Mes@@ 4788
Master 4784
Geburt 4781
Viertel 4778
Register 4776
Rede 4775
ausgebildet 4774
Fin@@ 4773
Zweit@@ 4773
Ph@@ 4771
Ägypten 4771
G. 4770
Vier 4770
Nachfolge 4767
Rostock 4767
58 4766
Helmut 4766
1856 4764
Konstruktion 4764
Leistungs@@ 4763
überliefert 4763
Bord 4762
Mailand 4761
mar 4760
unterschieden 4760
Play 4756
Massen@@ 4754
Wi@@ 4753
Gleich@@ 4751
62 4749
bekommen 4749
Gottes 4747
asse 4747
ā@@ 4746
Je 4745
elten 4745
länger 4743
Dissertation 4741
Modus 4741
gesprochen 4738
ungsp@@ 4737
wiederholt 4736
erfolgreichen 4735
erheblich 4735
Exemplare 4734
Möglichkeiten 4734
NGC 4734
Die@@ 4733
Dichter 4732
selbst@@ 4732
Jack 4731
Don@@ 4730
Barbara 4729
Titel@@ 4728
gelangen 4728
Kat@@ 4727
Sebastian 4727
Oberfläche 4725
Verlängerung 4725
äl@@ 4723
beeinflusst 4722
Gefahr 4721
Kilometern 4721
Service 4721
einzu@@ 4721
errang 4721
Lebensweise 4720
Amerika 4719
digen 4719
rates 4714
beteiligte 4713
Pfarr@@ 4712
Kindheit 4711
wal@@ 4710
Zahn@@ 4707
Kreises 4706
elt@@ 4706
angeschlossen 4705
Augen@@ 4704
Ursprung 4703
Schwarz 4701
Van 4701
SA 4700
Leopold 4699
sonst 4699
Williams 4698
aktuellen 4698
Tokio 4697
Verteidigung 4697
Wissenschaftler 4695
Nationalsozialisten 4693
Siedlungs@@ 4693
liste 4692
ologe 4692
auszu@@ 4691
Hau@@ 4689
kommission 4688
1859 4687
Systems 4687
Barcelona 4686
Cap@@ 4686
Franzosen 4686
Singles 4685
Tabelle 4684
cht@@ 4682
Win@@ 4681
Les 4680
weiten 4680
66 4677
Ansicht 4677
runde 4677
Bestand 4676
ren@@ 4674
1840 4673
Gol@@ 4673
private 4673
spitze 4672
Rumänien 4670
Matthias 4669
Morgen 4669
fel@@ 4669
musik 4667
ständig 4667
You 4665
mi@@ 4665
beschädigt 4664
Daten@@ 4663
Flächen 4663
kammer 4663
örtlichen 4663
Englisch 4662
ack 4662
East 4661
früh@@ 4661
lein 4660
ona 4660
Höhepunkt 4659
läuft 4659
Madrid 4658
verzeichnet 4658
Schwer@@ 4655
ls 4655
Jones 4653
Kunden 4653
letztlich 4651
plätze 4651
engl 4650
ergänzt 4650
etz 4650
Diplom 4649
Qualität 4646
ther@@ 4644
Dan@@ 4643
Übergang 4643
sa 4642
Aussage 4641
Umsetzung 4640
08 4633
Brown 4633
eck@@ 4633
wider@@ 4631
ermittelt 4630
Breslau 4629
ies 4629
NHL 4625
Südafrika 4624
Prinzip 4623
Sem@@ 4620
diesmal 4620
1806 4619
Unterricht 4617
Jena 4616
68 4612
region 4612
Nikolaus 4611
pro@@ 4609
59 4608
ian 4607
maximal 4607
Bol@@ 4606
bereit 4606
Abgeordneten 4605
Oster@@ 4605
buch@@ 4604
kt@@ 4604
net 4604
sbach 4604
unbekannt 4604
Weiß 4603
bild@@ 4603
benötigt 4600
igkeit 4597
speziell 4595
unterstützen 4594
Bas@@ 4591
Rö@@ 4591
Strecken 4590
Glocken 4588
allgemeinen 4588
unterschiedlich 4588
.000 4587
Amateur@@ 4587
Emil 4586
minister 4586
Stand@@ 4585
nutzte 4584
í 4584
Objekt 4583
museum 4583
beobachtet 4582
ase 4581
Fil@@ 4580
kom@@ 4580
laufen 4580
Pat@@ 4578
Schau@@ 4578
darstellt 4577
rein 4577
Umbau 4576
ika 4575
ver 4575
Mount 4573
weg@@ 4571
setzten 4570
gelegen 4569
geringen 4569
kin 4569
mann@@ 4569
beschrieb 4566
Columbia 4563
Herzogtum 4563
SG 4563
zweit@@ 4562
Geh@@ 4561
Konzerte 4559
Bands 4557
tieren 4556
ga 4555
Persönlichkeiten 4554
gelände 4554
Positionen 4553
abhängig 4553
pol@@ 4551
Corps 4550
einfachen 4549
Bachelor 4546
übergeben 4544
ke@@ 4543
Sir 4542
satz 4542
Werte 4540
roten 4540
schn@@ 4539
täglich 4539
ama 4538
e.V. 4538
Premiere 4537
Big 4536
Regensburg 4536
Unternehmer 4536
ähnlichen 4536
Pop@@ 4535
Fassade 4534
Stationen 4533
ser 4533
Interessen 4532
Rücktritt 4532
har@@ 4531
Reformation 4530
Männern 4528
EM 4527
Os@@ 4527
unternahm 4527
Radi@@ 4526
untersucht 4525
Militär 4524
Szenen 4522
kanadischen 4521
No@@ 4520
datiert 4518
ji 4518
wirken 4517
Varianten 4516
99 4514
Sei@@ 4513
gerät 4513
q@@ 4513
Lö@@ 4512
ud@@ 4511
organisierte 4507
suchen 4506
emann 4505
09 4503
sal@@ 4503
dreimal 4501
Nachkommen 4498
abgelöst 4498
ensis 4498
vertrieben 4498
Arnold 4497
Kern 4497
Kapitän 4496
unk@@ 4494
Weiler 4493
wichtiger 4491
Somit 4490
unterstellt 4490
Tages@@ 4489
istisch 4489
Kamera 4488
kal@@ 4488
wandte 4487
Plänen 4486
ven@@ 4485
Harry 4484
Virginia 4484
fte 4484
iel 4484
Streit 4483
Bauten 4482
jüngeren 4481
unterrichtete 4479
Premierminister 4478
Rot 4478
sechsten 4475
post@@ 4471
Bundesstraße 4470
Hö@@ 4470
fin@@ 4470
Fe@@ 4469
unterteilt 4469
werks 4468
Kollegen 4467
Heimatstadt 4466
lau@@ 4465
umgewandelt 4465
Erhebung 4464
1830 4462
1857 4462
ym@@ 4462
Jurist 4461
dienten 4461
diverse 4460
eil 4460
entschieden 4460
Zell@@ 4458
eingemeindet 4457
qualifizierte 4457
old 4455
ön@@ 4454
Red@@ 4453
halle 4453
European 4452
ft@@ 4452
Potsdam 4451
Alpen 4450
Beteiligung 4449
ativ 4447
Joe 4446
up 4446
Tunnel 4445
1855 4444
Stern@@ 4443
res@@ 4442
3000 4440
lehnte 4440
ligen 4439
Europas 4438
Lord 4438
wer 4438
1854 4436
Mikro@@ 4436
Navy 4433
Zweiter 4433
tal@@ 4432
Erz@@ 4430
Lag@@ 4430
legt 4430
Definition 4429
schwarzen 4428
Thi@@ 4427
trafen 4427
Gewicht 4422
Umfang 4422
fragen 4422
Stadtgebiet 4420
Hochschul@@ 4419
born 4419
erungs@@ 4419
Mc@@ 4417
Unternehmens@@ 4417
we 4415
Innsbruck 4414
Juan 4414
bayerischen 4413
Gegenwart 4412
gestorben 4412
98 4411
Series 4410
wand 4410
Feuer 4409
Meyer 4409
sport@@ 4408
Einsätzen 4407
Carolina 4406
Presse 4406
türkischen 4406
gs 4405
werte 4404
Schiff@@ 4401
Grünen 4400
zeichnete 4399
Alte 4398
aufgegeben 4398
Abt 4397
häuser 4397
Zivil@@ 4396
größtenteils 4396
tief 4396
Deshalb 4395
Witwe 4393
Alten@@ 4391
Streitkräfte 4388
andererseits 4387
sorgte 4386
Ham@@ 4385
führende 4385
namen 4385
schützen 4385
ée 4385
Wander@@ 4384
Gemarkung 4383
Fluss@@ 4381
Love 4379
Reis@@ 4379
wege 4379
Wagner 4378
rau@@ 4378
geändert 4376
Zwar 4374
funktion 4374
Seitdem 4373
bor@@ 4372
anzu@@ 4371
mögliche 4371
ausgewiesen 4370
1803 4369
schiff 4369
positiv 4364
ets 4363
iker 4363
Albums 4362
Regeln 4362
Schwierigkeiten 4362
Trans@@ 4362
Dre@@ 4361
Goldmedaille 4361
Museums 4361
One 4360
kel 4360
manns 4360
dre@@ 4359
Gut@@ 4358
07 4356
Florida 4356
linien 4355
Schottland 4350
ih@@ 4350
Massachusetts 4349
beider 4349
Nationalpark 4348
hand@@ 4348
Research 4346
Tschechien 4346
Inneren 4345
Bes@@ 4344
Innerhalb 4344
ère 4344
vollen 4343
gründeten 4341
Ring 4339
Rat@@ 4338
Versionen 4337
gung 4337
Langen@@ 4335
etc. 4334
61 4333
Bus@@ 4329
tra@@ 4329
verletzt 4329
AC 4328
Bereiche 4327
Evangelischen 4327
gefördert 4327
ho@@ 4327
Küsten@@ 4326
François 4325
einerseits 4325
europäische 4324
inneren 4324
Trennung 4323
Sinn 4322
atoren 4321
tun 4321
sk 4320
griff 4319
ip@@ 4319
Konflikt 4318
Nar@@ 4318
1852 4317
Gem@@ 4317
aufgeteilt 4316
Kammer 4315
Leipziger 4315
direkte 4315
lau 4315
ierungs@@ 4313
hen 4312
maßgeblich 4312
Herz 4310
mittelalterlichen 4309
Rem@@ 4307
Dieter 4306
Go@@ 4306
erlebte 4305
Art. 4304
Typs 4304
Publikationen 4303
Jur@@ 4302
linge 4301
richtete 4301
Bir@@ 4300
Gottfried 4300
erer 4299
1858 4298
Earl 4296
Monuments 4296
Neuseeland 4296
brachten 4295
J 4293
oni 4293
Jahrzehnten 4291
tiges 4291
Original@@ 4290
tierten 4290
Synagoge 4289
Zuvor 4288
Ausgaben 4287
Athen 4286
kopf 4286
67 4285
Wales 4285
derselben 4284
vorhandenen 4284
Rechtsanwalt 4283
bergs 4283
politischer 4282
Turm@@ 4281
ierende 4281
reduziert 4281
sub@@ 4280
Eigentümer 4279
Schneider 4279
To@@ 4278
Samuel 4277
Fuß@@ 4276
leg@@ 4274
Petersburg 4273
Gesundheits@@ 4272
Herr 4272
Ly@@ 4272
Rie@@ 4272
indischen 4272
76 4271
Erscheinung 4270
bezeichnung 4267
Dynastie 4266
Träger 4265
Da@@ 4264
Cl@@ 4260
sichtbar 4259
verpasste 4259
Botschaft 4258
ungsh@@ 4258
integriert 4257
Frau@@ 4254
Wissen 4254
kurzer 4254
yn 4254
stell@@ 4252
Kinos 4251
Na@@ 4251
77 4247
holz 4246
Kun@@ 4245
Urkunde 4244
erforderlich 4243
vermutet 4243
acht@@ 4242
Sonn@@ 4238
ast 4238
erfolgen 4238
ron 4238
tierte 4238
Western 4237
Wetter@@ 4236
ele 4236
teilen 4236
Pa@@ 4235
Verfassungs@@ 4235
Jedoch 4234
ry 4234
Ac@@ 4233
Bucht 4233
Schn@@ 4233
utz@@ 4233
wichtigste 4233
Championship 4232
Transport 4232
Beitrag 4231
Bri@@ 4230
Rand@@ 4228
kosten 4227
Kupfer@@ 4225
ahn 4225
direkten 4225
Quer@@ 4224
kämpfte 4224
lehre 4222
St.-@@ 4221
enge 4220
schrift 4220
groß@@ 4217
Bü@@ 4215
kündigte 4213
Garten@@ 4212
offenbar 4212
oten 4212
entspringt 4211
hel@@ 4211
Abend 4210
Analyse 4210
polnische 4208
Auftritte 4207
Alb@@ 4206
lis 4206
Rechtswissenschaften 4205
wählte 4205
Bundeswehr 4204
Do@@ 4202
menschlichen 4202
stattfand 4202
bedient 4200
zugunsten 4200
Bos@@ 4199
systeme 4199
wollten 4199
Katharina 4197
ze@@ 4197
Ir@@ 4196
voneinander 4196
ierenden 4195
Änderungen 4194
Mauer 4193
ko@@ 4190
Sprecher 4189
Studiums 4188
Ernennung 4187
Geschwindigkeit 4186
Kaufmann 4186
Scott 4186
eigentlichen 4185
kritisiert 4185
Aut@@ 4182
Tu@@ 4182
enti@@ 4180
ora 4180
Jacques 4179
Kron@@ 4179
Original 4179
bedeutendsten 4179
Ehemann 4178
ien@@ 4178
ni@@ 4178
tz 4178
P. 4177
eien 4176
verlief 4176
bedingt 4175
Son@@ 4174
sang 4174
74 4172
Lan@@ 4172
eingebaut 4172
Neu 4170
erter 4170
Meister@@ 4169
op 4167
Pennsylvania 4166
White 4166
Central 4164
Horst 4164
Giovanni 4163
asi@@ 4163
Siedlungen 4162
Marburg 4160
ura 4160
Anne 4159
bedeutenden 4159
lei@@ 4158
nennen 4157
Veranstaltung 4156
tro@@ 4155
eit@@ 4153
verwendeten 4153
Mos@@ 4152
Jacob 4148
Kathedrale 4148
iti@@ 4147
Budapest 4146
1818 4145
IV 4145
Lehrstuhl 4145
gra@@ 4144
Komposition 4142
Systeme 4142
japanische 4142
DVD 4139
1845 4138
Einsätze 4138
Mutter@@ 4137
Toren 4137
eingetragen 4137
Fürsten 4135
Provinzen 4135
Felix 4134
Hy@@ 4134
iens 4134
schlossen 4132
berichtete 4131
umfangreiche 4131
Nordamerika 4130
Stra@@ 4130
88 4129
Dietrich 4129
73 4128
Heer 4128
reich@@ 4127
richtung 4127
Autobahn 4126
1851 4125
mes 4125
Bergen 4124
hierfür 4123
1813 4122
1847 4122
mannschaft 4121
Kardinal 4117
Kö@@ 4117
üblichen 4117
ue 4116
3,@@ 4115
stoffe 4115
Av@@ 4114
Gesch@@ 4113
T. 4113
persönlichen 4113
einfache 4111
nicht@@ 4111
aufge@@ 4110
tungs@@ 4110
Mittelpunkt 4109
bin@@ 4109
sburg 4109
Mus@@ 4108
aut@@ 4106
Hom@@ 4104
Hügel 4104
Existenz 4103
Haltung 4102
lehrer 4102
weiße 4101
Auswirkungen 4100
finanziellen 4100
Argentinien 4098
australischen 4096
Dr@@ 4094
Fi@@ 4094
dung 4094
84 4089
Wies@@ 4089
Karte 4088
for@@ 4088
gefertigt 4088
bern 4087
92 4086
Sekretär 4084
amm@@ 4084
Castle 4083
Transport@@ 4083
ierungen 4083
Schritt 4082
dauerte 4082
Verdienste 4081
Zoll@@ 4081
gründen 4081
Begriffsklärung 4080
Vorsitzende 4078
bereiche 4078
steine 4078
Nutz@@ 4077
Spielern 4075
äußeren 4074
Flusses 4073
rä@@ 4073
Ritter@@ 4072
pe 4072
englischer 4071
ministerium 4071
Ta@@ 4070
besucht 4070
Kapitel 4067
Erstmals 4066
asen 4066
Verlust 4065
Ausbruch 4064
englisch 4063
leistete 4063
bezogen 4062
Ky@@ 4061
Österreichischen 4061
110 4060
1846 4060
engagiert 4060
reichte 4060
äu@@ 4060
Anders 4059
Tak@@ 4059
haft 4059
nochmals 4059
Roh@@ 4057
Verleihung 4056
hundert 4054
Rücken 4052
ack@@ 4052
Karten 4051
möchte 4051
Doppel 4050
Saison@@ 4050
steigen 4050
Ford 4049
artigen 4049
ergeben 4049
fenster 4049
geschickt 4049
fe@@ 4047
Sturm 4045
schutz@@ 4045
ute 4044
öl@@ 4044
Landkreises 4043
Zeitschriften 4043
reisen 4043
sa@@ 4043
1816 4042
gasse 4042
mb@@ 4042
historiques 4041
Flugzeug 4040
geschwindigkeit 4040
Hin@@ 4039
iers 4039
kleines 4036
Französischen 4035
Korps 4032
Strukturen 4032
Hauptort 4031
Onkel 4031
grundsätzlich 4031
ky 4031
Ehr@@ 4030
Sonne 4030
präsentiert 4029
Start@@ 4027
anschließenden 4027
cken 4026
dor@@ 4024
erstellt 4024
Leo 4023
ermordet 4023
ure 4023
Buchstaben 4022
Ministerium 4022
ind@@ 4022
teil@@ 4022
Netz@@ 4021
Fehl@@ 4019
ais 4019
Bill 4018
Linz 4017
Zerstörung 4015
ergab 4015
freier 4015
uf@@ 4014
zugelassen 4014
Gebrauch 4013
aux 4013
nunmehr 4013
Instrument 4012
Misch@@ 4012
amen 4012
len@@ 4012
Kommunikation 4011
geplanten 4010
IC 4008
Innenstadt 4007
EP 4006
São 4006
letzter 4006
Macht@@ 4004
Text@@ 4004
lager 4004
Sil@@ 4002
Produzent 4001
Blätter 4000
Army 3999
Ämter 3999
sprachen 3998
Berge 3997
beginnen 3997
verfolgt 3997
Aufmerksamkeit 3996
Johnson 3996
Lebensraum 3996
Landschafts@@ 3995
akademie 3995
Standard@@ 3993
Sy@@ 3993
Häusern 3992
Spielzeiten 3991
bedingungen 3991
gar@@ 3991
L. 3990
ř@@ 3988
sächsischen 3986
Hoh@@ 3985
Ortsteile 3985
saß 3985
81 3983
eben 3982
Geist 3981
Medi@@ 3981
kel@@ 3981
20@@ 3978
Modell@@ 3978
Trier 3978
zweites 3978
FDP 3977
ille 3976
ons@@ 3976
Finnland 3974
liga 3974
natürlichen 3974
straßen 3974
On@@ 3971
ausgewählt 3971
halb@@ 3971
baum 3968
isierte 3968
Sprint 3967
St 3967
sucht 3967
Bekannt 3966
Tief@@ 3966
Victoria 3966
93 3964
Versorgung 3964
Urteil 3963
ato 3963
besiedelt 3963
Davis 3961
nissen 3961
fs 3960
Wiederaufbau 3959
Wolf@@ 3958
wächst 3958
Weil 3957
evangelisch 3957
87 3954
Gitarre 3953
Rü@@ 3953
Vorsitzenden 3953
usw. 3952
Warschau 3951
bund 3951
q 3951
69 3950
bestehend 3950
78 3949
rief 3949
Ideen 3948
Sz@@ 3948
Treffer 3947
rad@@ 3947
Form@@ 3946
Moritz 3946
rate 3946
entdeckte 3945
89 3944
ul 3944
met@@ 3943
Erfurt 3942
1853 3941
1814 3940
Namens@@ 3940
Damen 3939
Sau@@ 3938
Reisen 3935
einheit 3934
Stadtrat 3933
ink@@ 3933
Führer 3932
natur@@ 3932
rich@@ 3932
lebenden 3931
Aktion 3930
Charlotte 3930
theater 3930
folge 3929
hren 3929
istischer 3929
82 3928
André 3928
grund 3928
Schwestern 3927
ole 3927
Schluss 3926
Sin@@ 3926
Tiefe 3926
Ersatz@@ 3925
Roman@@ 3925
iel@@ 3925
restlichen 3925
Ohio 3923
Ed@@ 3922
dienst@@ 3922
gestaltete 3921
itt@@ 3920
Weimar 3919
Kritiken 3918
lauf@@ 3918
sämtliche 3918
Umfeld 3916
Mike 3915
Räume 3915
Treffen 3915
bes 3915
Gest@@ 3914
arbeiteten 3912
ats@@ 3911
ungarischen 3911
Personal@@ 3910
Dienste 3909
langsam 3908
lands 3906
schlagen 3906
Fahrzeug@@ 3905
Mass@@ 3905
sz@@ 3905
Lor@@ 3904
Cam@@ 3903
klein 3903
Befehl 3902
Darstellungen 3902
Flagge 3902
dig 3900
Einzugsgebiet 3899
Liter 3899
maßnahmen 3897
ausgestellt 3896
gefärbt 3896
awa 3894
Fr@@ 3893
Aussagen 3891
Fürst 3891
Line 3891
Tschechoslowakei 3891
ros 3889
Highway 3888
Abstieg 3887
Basketball 3886
Brenn@@ 3886
fähigkeit 3886
trugen 3886
Mad@@ 3885
Namens 3885
win@@ 3885
Wort@@ 3883
übte 3882
Bruno 3881
Edel@@ 3881
geringe 3879
tiert 3878
Weber 3877
Pop 3876
thal 3876
Beste 3875
ath 3875
gezwungen 3875
lan@@ 3875
Europäische 3870
unde 3870
od 3869
First 3868
keiner 3868
viertel 3868
Fertigstellung 3867
06 3865
richter 3864
reise 3863
Pos@@ 3862
Has@@ 3861
Studien@@ 3861
ermöglichte 3861
Dra@@ 3860
teten 3858
Motoren 3857
mor@@ 3857
3.@@ 3855
Ausbildungs@@ 3855
ographie 3855
Berater 3854
dr@@ 3854
Hilfs@@ 3853
Ingenieur 3853
angeordnet 3853
durchsetzen 3853
Bundes 3852
Pra@@ 3850
Verordnung 3850
gte 3849
modell 3848
Christus 3847
Pin@@ 3846
Michel 3845
meistens 3845
onn@@ 3845
Nah@@ 3843
Oberst 3842
Zweite 3842
römische 3842
staat 3842
Ausführung 3841
Sonstiges 3841
Var@@ 3841
Web@@ 3840
ates 3840
The@@ 3839
Christ@@ 3838
Umwelt 3837
herausgegeben 3837
Erklärung 3835
owo 3835
rückte 3835
leistung 3834
Games 3831
punkte 3831
Falle 3830
gearbeitet 3830
umgesetzt 3830
Herrscher 3829
# 3828
Der@@ 3828
Young 3828
Einstellung 3826
Kräfte 3823
braun 3823
geeignet 3823
Bad@@ 3822
Fusion 3822
DM 3821
bin 3821
Tan@@ 3820
figur 3820
flug 3820
Istanbul 3819
kämpfen 3819
our 3819
Grundschule 3818
Gestalt 3817
Jerusalem 3817
Vorrunde 3817
ständigen 3817
mir 3816
sichern 3816
tete 3816
Kooperation 3815
86 3814
Ok@@ 3813
Maximilian 3812
beauftragt 3812
Kir@@ 3810
Schäden 3807
ide 3807
Künstlern 3806
Hell@@ 3804
Ball 3802
kop@@ 3801
regionalen 3799
Bru@@ 3798
gegliedert 3797
bilder 3796
religiösen 3795
ferner 3794
Christen 3793
angeblich 3793
zusammengefasst 3793
Champions 3792
spezielle 3792
aufnahmen 3790
Fri@@ 3789
seiten 3786
ys@@ 3784
Green 3783
Kas@@ 3782
$ 3781
Weißen 3780
ao 3780
Preise 3779
seh@@ 3779
berücksichtigt 3777
Computer@@ 3776
Universitäts@@ 3776
issen 3776
pr@@ 3776
schafts@@ 3776
Anlass 3775
Landgericht 3775
Sektion 3774
Luxemburg 3773
erzeugt 3773
ón 3773
Cast@@ 3772
abschloss 3772
woraufhin 3772
beschränkt 3771
900 3770
rechtlichen 3770
äch@@ 3770
3,5 3769
Roll@@ 3769
Auseinandersetzung 3768
Auseinandersetzungen 3767
Spuren 3767
dürfte 3767
79 3765
Mul@@ 3765
erkennbar 3765
s- 3764
Reit@@ 3763
achen 3763
Verbreitungsgebiet 3762
kreuz 3762
ín 3761
Rose 3760
Österreichs 3760
Abtei 3758
Wohnhaus 3757
Anforderungen 3756
Spitz@@ 3755
erfolgreiche 3755
Gruppen@@ 3754
starben 3754
91 3753
Jesu 3753
iv@@ 3753
Fahrt 3751
Geschichten 3751
Hab@@ 3751
Legende 3751
gelb 3751
netz 3751
Konzert 3749
ins@@ 3749
wachsen 3749
AS 3748
Kle@@ 3748
Professur 3748
welchem 3748
Kauf@@ 3746
erbaute 3746
1843 3745
Studios 3745
antiken 3745
Francis 3744
Sitze 3743
Meistertitel 3742
Dreißigjährigen 3741
durchschnittliche 3741
eigentliche 3741
verwenden 3741
vieler 3741
abgelehnt 3740
ain 3740
Staat@@ 3739
Todes@@ 3738
1844 3737
stieß 3735
California 3734
bro@@ 3734
Keller 3733
era 3733
Gedichte 3732
Renaissance 3731
aktuelle 3730
aufzu@@ 3730
Brüssel 3729
Früh@@ 3729
Jo@@ 3729
Dom 3728
festen 3728
ed 3725
getroffen 3725
heimer 3725
po@@ 3723
” 3723
Jesus 3722
Pel@@ 3721
83 3720
haus@@ 3720
kurzzeitig 3720
erhältlich 3719
gens 3719
ausgeschlossen 3718
allgemeine 3717
gers 3716
Galerie 3715
anischer 3715
bezirk 3715
eilen 3715
Jahrzehnte 3714
Königsberg 3714
Künstler@@ 3713
1842 3712
Kul@@ 3711
einheiten 3711
Council 3710
Volk@@ 3708
entstandenen 3708
bekleidete 3707
gleicher 3707
aufmerksam 3704
Marx 3703
ass 3702
erhaltenen 3701
etti 3701
nisse 3701
Pot@@ 3700
1835 3698
KG 3698
Betriebe 3697
Gö@@ 3697
eis@@ 3697
97 3696
Führungs@@ 3696
Seg@@ 3696
kow 3696
stiegen 3696
94 3695
Blue 3695
kapelle 3695
VI. 3694
Code 3693
Stockholm 3692
Fol@@ 3691
Produktionen 3691
Vil@@ 3691
Schiffs@@ 3690
atz@@ 3690
entgegen 3690
schottischen 3690
darstellen 3689
maschinen 3689
Manager 3688
Carlos 3687
Prüfung 3687
Verb@@ 3687
verbände 3687
bewusst 3686
diversen 3686
yp@@ 3685
Gran@@ 3684
eit 3683
1832 3682
beinhaltet 3682
gekennzeichnet 3680
Fels@@ 3679
tar@@ 3678
Cu@@ 3677
historisch 3676
Centre 3674
Demokratischen 3674
Durchbruch 3674
elektrische 3674
owitsch 3674
räumen 3673
wen@@ 3673
Reserve 3672
ode 3672
Č@@ 3672
Seen 3671
Gesundheit 3669
Christi 3668
atus 3668
darauffolgenden 3668
festgestellt 3667
lokale 3667
Grundstück 3666
kunst 3665
königlichen 3665
westliche 3665
Geographische 3664
Bier@@ 3662
näher 3662
eich@@ 3661
Dafür 3660
bezüglich 3659
car@@ 3659
Formation 3658
Ann@@ 3657
etes 3657
Amerikaner 3655
Kino 3655
Wende 3655
Fortsetzung 3654
Generalmajor 3654
sten@@ 3653
Briten 3652
Gang 3652
ova 3652
Blues 3651
daneben 3651
geschützt 3651
qualifizierten 3651
teilte 3651
zählten 3651
Kantons 3650
Schnell@@ 3650
enhof 3647
verstorbenen 3647
Alt 3646
Ste@@ 3645
begründete 3645
Oblast 3644
bt 3644
ł@@ 3643
Folgezeit 3642
Oxford 3642
rasch 3642
5000 3640
Dresdner 3640
besetzten 3640
erschienenen 3640
sozial@@ 3640
Mau@@ 3639
kampf 3639
Forst@@ 3638
Kos@@ 3638
Town 3637
Tom@@ 3636
platten 3636
Koch 3635
Was 3635
emp@@ 3635
stufe 3635
Committee 3634
Wechsel@@ 3634
Will@@ 3634
sammelte 3634
suchte 3633
Dol@@ 3632
behielt 3632
Bab@@ 3631
Breit@@ 3630
anus 3630
tende 3630
Präfektur 3629
dicht 3629
Meeres@@ 3628
hielten 3628
südliche 3627
Brut@@ 3626
Eroberung 3626
Fabrik 3626
weibliche 3626
ther 3625
Kro@@ 3623
Ursache 3623
ic 3623
Tel@@ 3622
ecke 3621
Recht@@ 3620
Sur@@ 3620
Sonnen@@ 3619
abgebrochen 3618
systems 3618
Zweitligisten 3617
Henri 3615
er- 3615
Sab@@ 3614
Neur@@ 3613
schwarze 3613
Sowohl 3612
bester 3612
längere 3610
aufgehoben 3609
genaue 3608
Genf 3606
uten 3606
iertes 3605
Bass 3604
Bester 3604
aceae 3604
gend 3604
Volksschule 3603
01 3602
Tages 3602
Freiherr 3601
rechtliche 3600
nördliche 3599
Iran 3598
Stunde 3598
entgegen@@ 3597
sky 3597
Pil@@ 3596
auftreten 3596
tenden 3596
Belagerung 3595
ding 3595
rem@@ 3595
Klavier 3593
Kolonie 3593
See@@ 3593
fahrten 3593
Erbe 3592
geplante 3592
then 3592
Kopenhagen 3591
Toronto 3591
Rektor 3590
hofen 3590
schlag 3590
hängt 3589
Baum 3588
Neb@@ 3588
Front@@ 3587
ø@@ 3587
Folgende 3585
Kritiker 3585
its 3584
werk@@ 3583
geteilt 3581
Ben 3579
Mach@@ 3579
ans@@ 3579
Reform@@ 3578
Chile 3577
Eisen@@ 3577
Quell@@ 3577
ologen 3577
west@@ 3576
Vereins@@ 3574
isp@@ 3574
ord@@ 3574
äh@@ 3574
1839 3573
Einzug 3573
Geburtstag 3573
Point 3572
UEFA 3572
entsprach 3572
s. 3572
stätten 3572
typischen 3572
Boote 3571
Diözese 3571
Illinois 3571
spanische 3571
Konkurrenz 3570
Runden 3570
Sitz@@ 3570
grenzen 3570
Glauben 3569
Sydney 3569
Victor 3569
voller 3568
enthielt 3567
Bob 3566
Road 3566
erzielt 3566
Back@@ 3565
kultur 3565
musikalische 3564
Informations@@ 3563
Klassen 3563
Wir 3563
ZDF 3563
dis@@ 3563
vorgenommen 3563
Stephan 3562
verlieh 3561
Powiat 3560
hol@@ 3560
nung 3560
1810 3559
Günther 3559
alis 3559
durchaus 3559
mäßig 3559
gehörenden 3558
Arn@@ 3557
abgeleitet 3557
musikalischen 3557
norwegischen 3557
les@@ 3556
Ostpreußen 3555
lang@@ 3555
Ot@@ 3554
fällen 3553
Flugzeuge 3552
Preis@@ 3552
Tirol 3552
ʿ@@ 3552
ech@@ 3551
Hir@@ 3549
Ortsname 3549
achse 3545
ard@@ 3545
Serien 3544
Kast@@ 3543
Vorgänger@@ 3543
helfen 3543
kulturellen 3543
Wa@@ 3541
Wind 3539
Computer 3538
Hinzu 3538
fall@@ 3538
Zusammensetzung 3537
Beg@@ 3536
Flügel@@ 3536
Manfred 3536
Oldenburg 3535
adi@@ 3535
gesellschaften 3535
versuchen 3534
USD 3533
gefährdet 3533
nes 3533
hinten 3532
ausbildung 3531
praktisch 3529
Französisch 3528
Inn@@ 3528
1836 3527
Spiegel 3527
Zeitungen 3527
gewidmet 3527
Nachrichten 3526
Erinnerung 3524
Gew@@ 3524
Lat@@ 3524
Roger 3524
Volksrepublik 3524
geringer 3524
Fal@@ 3523
ai@@ 3522
baus 3521
1837 3520
Güter@@ 3520
ref 3520
beziehen 3519
grund@@ 3519
ib@@ 3519
Deutsch@@ 3518
aut 3518
D.C. 3517
Verwaltungssitz 3517
ali@@ 3517
vorkommen 3517
Brigade 3516
mauer 3516
Brunnen 3515
erungen 3515
iere 3515
umstritten 3515
1834 3514
Drama 3514
SK 3514
son@@ 3514
Gebäuden 3513
bur@@ 3513
fahrer 3513
uren 3513
án 3513
entscheiden 3512
Peking 3510
Verbesserung 3510
itzer 3510
Ihm 3509
Patrick 3509
befasste 3509
natürliche 3508
uti@@ 3508
1838 3507
haltung 3507
Times 3506
ew@@ 3506
Schlag@@ 3504
Änderung 3504
Kop@@ 3503
Pass@@ 3503
hervor@@ 3503
Zellen 3502
fehlen 3501
kul@@ 3501
gebirge 3500
Partie 3499
Port 3499
größe 3499
Life 3498
anen 3497
beteiligten 3495
künstlerische 3495
äußerst 3495
Marin@@ 3494
Verkehr@@ 3493
gewicht 3493
katholischer 3493
becken 3492
derer 3492
illa 3492
1841 3491
Ausschuss 3491
vielleicht 3491
bedeckt 3490
Lab@@ 3489
Wie@@ 3488
Fach 3487
Nov@@ 3487
Gründungs@@ 3486
ili@@ 3486
Flugzeug@@ 3485
Kontakte 3485
Philadelphia 3484
Versuche 3484
fern@@ 3484
Besch@@ 3483
Ehrungen 3483
Kaisers 3483
Psychologie 3482
Pau@@ 3481
gesichert 3481
klein@@ 3481
zug@@ 3481
Entdeckung 3480
klassische 3480
persönliche 3480
welt@@ 3480
Sav@@ 3479
olo 3478
singen 3478
zügen 3478
Museen 3477
Wilson 3477
betroffen 3477
frühe 3477
Corporation 3476
Dur@@ 3476
Institutionen 3476
Schlosses 3476
shaus 3475
älter 3475
Windows 3473
offene 3471
osa 3471
steuer@@ 3471
verhältnis 3469
atik 3468
manchen 3468
1820 3467
Abstammung 3467
Camp@@ 3467
Franken 3466
durchschnittlich 3466
Preußischen 3465
erfährt 3465
una 3465
Haft 3463
Säulen 3463
kulturelle 3463
Bay@@ 3461
eingestuft 3461
fährt 3461
Orchestra 3460
eta 3460
1821 3459
bahnen 3458
Eg@@ 3457
ick 3457
130 3456
Finanzierung 3454
Prinzessin 3454
Saale 3454
Ant@@ 3453
Famili@@ 3453
finanzielle 3453
Aufstand 3452
Plattform 3452
Schülern 3452
verblieb 3452
Dritter 3451
Rab@@ 3451
1812 3450
Park@@ 3450
Ga@@ 3449
.-@@ 3448
länder 3447
ps 3447
streifen 3447
bruch 3445
lern 3445
Bauwerke 3444
motor 3444
habilitierte 3443
Church 3442
Taylor 3442
leisten 3441
ori@@ 3441
ost 3441
Heirat 3440
Rote 3440
Toten 3440
wei@@ 3439
Jugendliche 3438
Mik@@ 3438
Tab@@ 3438
Weihnachts@@ 3438
spar@@ 3438
möglichkeiten 3437
sor@@ 3436
Glocke 3435
Komödie 3435
és 3435
nummer 3434
quelle 3434
nahme 3433
ello 3432
ott 3432
Gewässer 3430
Vizepräsident 3429
Werkstatt 3429
aka 3428
Geschlecht 3426
Pandemie 3426
Trau@@ 3426
angehörte 3426
Zusammenschluss 3425
Böhmen 3424
1808 3422
Klavier@@ 3422
Wiesbaden 3422
gelingt 3422
Bach@@ 3421
si 3421
Gesamtwertung 3420
Eigentum 3419
ental 3419
Dun@@ 3418
Durchführung 3417
Mei@@ 3417
Steve 3417
100.000 3416
Je@@ 3416
meisterschaft 3416
Sl@@ 3415
version 3415
Erstligisten 3414
Seit@@ 3414
Verfolgung 3414
Vorbereitung 3414
ros@@ 3414
stoff@@ 3414
Test 3413
Bremer 3412
Ersatz 3412
Verantwortung 3410
erneuert 3410
verk@@ 3410
Mod@@ 3409
ches 3409
Freundin 3408
Programm@@ 3408
männlichen 3407
Horn@@ 3406
Jackson 3406
ico 3406
istin 3406
leiten 3406
prä@@ 3406
stammten 3406
Jura 3405
Zulassung 3405
Interview 3404
rich 3404
Beruf@@ 3403
müsse 3403
erzielen 3402
Dampf@@ 3401
eindeutig 3401
Tieren 3400
Den@@ 3398
Parks 3398
Es@@ 3396
Sciences 3396
Such@@ 3396
Technische 3396
Fähigkeiten 3395
arbeiter 3395
bogen 3395
ska 3394
zeigten 3394
Jänner 3393
Symbol 3392
do@@ 3392
Episoden 3391
Feuerwehr 3391
Kolonial@@ 3391
fähig 3391
projekt 3391
Ü@@ 3391
Kategorien 3390
Sw@@ 3390
Tätigkeiten 3390
Ordens 3389
Strom 3389
Archiv 3388
Büro 3388
ativen 3388
Arena 3387
Grundriss 3386
Zone 3386
Dauer 3385
Hen@@ 3385
bek@@ 3385
bers 3385
con@@ 3385
Hollywood 3383
verstehen 3383
bezog 3382
Angelegenheiten 3380
bat 3380
chs 3380
Unfall 3379
My 3378
Hem@@ 3377
Tournee 3377
Vermögen 3377
bal@@ 3377
bil@@ 3377
inus 3377
omen 3377
tum 3377
Art@@ 3376
Douglas 3376
Mot@@ 3376
hauses 3376
zahlreicher 3376
solle 3374
Pu@@ 3373
weiblichen 3373
ling@@ 3372
ks@@ 3371
Abkürzung 3370
Werft 3370
Dat@@ 3369
restauriert 3369
tier@@ 3369
Rohr@@ 3368
beherbergt 3368
teilnehmen 3368
decken 3367
nern 3367
ě@@ 3367
Geräte 3366
Schlesien 3366
Vorschlag 3366
russischer 3366
Oliver 3365
UN 3365
Benjamin 3364
dan@@ 3364
genug 3364
Jersey 3363
Me 3363
stra@@ 3363
Elbe 3362
farben 3362
los@@ 3362
steigt 3362
Stattdessen 3361
Zustimmung 3361
verhalten 3361
Luftwaffe 3360
persönlich 3360
künstlerischen 3359
lig@@ 3359
ATP 3358
Markus 3357
Schlüssel@@ 3357
Unterschiede 3357
Dro@@ 3356
Vorstellung 3356
Abgeordnete 3354
Pseudonym 3353
verbindung 3352
Samen 3350
verlauf 3350
esischen 3349
mark@@ 3349
Tat@@ 3348
eler 3347
verw@@ 3347
erfolglos 3346
verfügen 3346
Chris 3345
lieferte 3345
yr@@ 3345
Lewis 3344
heiten 3344
mich 3344
regulären 3344
siedlung 3343
Südseite 3342
Geb@@ 3341
Londoner 3341
aur@@ 3341
ida 3341
erinnern 3340
figuren 3340
erhaltene 3339
maschine 3339
sagt 3339
Autorin 3338
artige 3338
Fehler 3337
Ren@@ 3337
oftmals 3337
Hütte 3336
K. 3336
Stimm@@ 3336
Erzählung 3335
Reb@@ 3335
antrat 3335
1833 3334
Asien 3334
ener@@ 3334
samt 3334
1828 3332
Auge 3332
Fu@@ 3331
ile 3331
ton@@ 3331
typische 3331
benannten 3330
DB 3328
Klinik 3328
beg@@ 3328
laden 3328
Auffassung 3327
Frankreichs 3327
Langhaus 3326
Lar@@ 3326
Vogel@@ 3326
geschätzt 3326
siebten 3326
ting 3325
Trag@@ 3323
endem 3323
regionale 3323
wiesen 3323
hinein 3322
mark 3321
verbot 3320
Sophie 3317
entwarf 3317
feste 3317
idae 3316
Gliederung 3315
Zi@@ 3315
anne 3315
eingezogen 3315
Fund@@ 3314
itäten 3314
weiler 3314
zi 3314
Fra@@ 3313
rote 3312
verstanden 3312
Eberhard 3311
Kredit@@ 3310
Rh@@ 3309
staaten 3309
weit@@ 3309
ı@@ 3309
Cas@@ 3308
tigkeit 3308
tischen 3308
Antrag 3307
umliegenden 3307
FK 3306
bedarf 3305
assi@@ 3304
zy@@ 3304
Hochschullehrer 3303
Tony 3303
aki 3302
wichtig 3301
Wurzeln 3298
Ton 3297
tiv@@ 3297
Training 3296
ausgerichtet 3296
besiegte 3296
stücke 3295
Weimarer 3294
Bauer 3293
verfasst 3293
wohnte 3293
1817 3292
angesiedelt 3292
ez 3292
Bil@@ 3288
Bedarf 3287
Endrunde 3287
erlitt 3285
schicht 3285
Nahrung 3284
Rekord 3284
Bezeichnungen 3283
komponierte 3283
Festivals 3281
Freundschaft 3280
gefolgt 3280
Becken 3279
erhebt 3279
oll@@ 3279
Identität 3278
begründet 3278
Ob 3276
Stre@@ 3275
Challenger 3274
ager 3274
1200 3273
istik 3272
Verbindungs@@ 3271
Str@@ 3270
Lehen 3269
Schrift@@ 3269
atur 3269
drehte 3269
Reihen 3267
Wit@@ 3267
da@@ 3267
03 3266
Gletscher 3266
Orgel@@ 3266
begleitete 3266
ni 3266
Spielfilm 3264
grün@@ 3263
plan 3263
wertung 3262
Bö@@ 3261
Statistik 3261
COVID 3260
Main@@ 3260
Tam@@ 3260
shof 3260
ti 3260
Winterspielen 3259
elektrischen 3259
jew 3259
Brauerei 3258
erfüllt 3258
wald@@ 3258
Women 3257
anderes 3257
theit 3257
Königs@@ 3256
ausgesetzt 3256
bewegen 3255
Frei@@ 3254
mach@@ 3254
Hochzeit 3253
Lü@@ 3253
befindlichen 3253
icht 3253
legung 3253
Rundfunk 3252
350 3251
Fans 3251
hoff 3251
Bochum 3250
180 3249
Antike 3248
Ministerpräsident 3248
Regierungsbezirk 3248
1831 3247
Ecke 3247
Mehrere 3247
Duo 3245
Erhaltung 3245
Materialien 3245
Siege 3245
amtes 3245
viel@@ 3244
Ausrichtung 3243
betriebe 3243
denk@@ 3243
oli 3243
4.@@ 3242
Nebenfluss 3242
Konferenz 3241
Media 3241
eile 3241
Gattungen 3239
Kriminal@@ 3239
ausschusses 3239
belgischen 3239
mu@@ 3239
ungst@@ 3238
Achtelfinale 3236
Angehörigen 3236
Tru@@ 3236
Slowakei 3235
schlag@@ 3235
Goethe 3233
HC 3233
Nun 3233
gefahren 3230
holen 3229
chten 3228
let 3228
Mah@@ 3227
Vorsprung 3227
gem 3227
uh@@ 3227
Ordens@@ 3224
az 3224
chn@@ 3224
stationiert 3224
Rettungs@@ 3222
etta 3222
Oder 3221
ersetzte 3221
horn 3221
Areal 3220
Vorteil 3220
Kohl@@ 3219
realisiert 3219
vgl. 3219
Besonderheit 3218
Nassau 3217
Territorium 3217
grünen 3216
uk 3216
Erfahrung 3215
Tag@@ 3215
Verhältnisse 3215
mi 3215
angepasst 3214
feld@@ 3214
lung 3214
qualifizieren 3214
tive 3213
4,@@ 3212
Bevölkerungs@@ 3212
Person@@ 3211
Stars 3211
erstraße 3211
stand@@ 3211
Romane 3210
körper 3210
rechtlich 3210
Kli@@ 3208
Pen@@ 3208
ebene 3208
litz 3208
Kandidat 3207
arzt 3207
Schreiben 3206
engen 3206
na@@ 3206
Ablauf 3205
Neuzeit 3205
Parallel 3204
erfuhr 3204
Hinweis 3203
Sammlungen 3203
Val 3203
bücher 3203
Vill@@ 3202
schwedische 3202
vielfach 3202
laufenden 3201
Block@@ 3200
fassung 3200
behörden 3199
Temperatur 3198
Straßburg 3197
Leute 3196
Bundestag 3195
Mengen 3195
Schlagzeuger 3195
jähriger 3195
stoff 3195
wechseln 3195
Hamilton 3194
go 3194
Produzenten 3193
Verteidigungs@@ 3193
atischen 3193
geschlossenen 3192
orientierte 3192
unterrichtet 3191
verbliebenen 3191
welt 3191
Fur@@ 3190
circa 3189
unden 3189
verfügbar 3188
Spitzen@@ 3187
dauer 3187
entworfen 3187
ots 3187
Ran@@ 3186
000 3184
mag@@ 3183
seinerzeit 3183
übernahmen 3183
DFB 3182
diskutiert 3182
Adel@@ 3181
our@@ 3181
Anwendungen 3180
Palast 3180
sowjetische 3180
Gebietsreform 3179
Rep@@ 3179
ick@@ 3179
Lager@@ 3178
aria 3178
1824 3177
Andrew 3177
erweiterte 3177
portugiesischen 3177
Cre@@ 3176
Schwimm@@ 3176
1825 3175
Bat@@ 3175
Information 3175
Lern@@ 3174
Ulm 3174
Cambridge 3173
Erforschung 3173
Neapel 3173
seltener 3173
nah@@ 3172
kunde 3171
decke 3170
Dreharbeiten 3169
internationaler 3169
Eindruck 3168
Gründe 3168
Rock@@ 3168
handel 3168
Anbau 3167
abgebaut 3167
geräte 3167
sagen 3167
Cha@@ 3166
rom@@ 3166
Schiffen 3165
Uraufführung 3165
Stahl 3164
hinsichtlich 3164
Adler 3163
Amtsgericht 3163
Handlungs@@ 3163
Stich@@ 3163
angebaut 3163
ax@@ 3163
barer 3163
innere 3163
Wo@@ 3162
sitz 3162
ú@@ 3162
Flora 3161
eigen@@ 3161
Enkel 3160
Vorpommern 3159
Blut 3158
Real 3158
Zeichnungen 3158
versorgung 3158
Tatsache 3157
versteht 3157
Effekt 3156
sog. 3156
Schicksal 3155
Fälle 3154
Hinweise 3154
Mandat 3154
gering 3154
ram@@ 3154
vermeiden 3154
Angst 3153
Arbeiter@@ 3153
Flug 3153
Rechts 3153
Frank@@ 3152
enheit 3152
Handel@@ 3151
Kompositionen 3151
Vertrags@@ 3151
ii 3151
rei@@ 3151
Dame 3150
ó 3150
Bin@@ 3149
durften 3149
20.000 3148
Junge 3148
management 3147
une 3146
Rückzug 3145
leb@@ 3145
bestätigte 3144
enhausen 3144
Bell@@ 3142
verlegte 3142
Besitzungen 3141
Lok@@ 3141
Nation 3141
dis 3141
kern 3141
isen 3140
jüngere 3140
mittelalterliche 3140
richtet 3139
Himmel 3138
kr@@ 3138
Lav@@ 3137
Anteile 3136
Cur@@ 3136
Niederösterreich 3136
ock 3136
Lim@@ 3135
System@@ 3135
Valley 3135
fehlt 3135
licht 3135
Marien@@ 3134
Theologe 3134
einziger 3134
gan@@ 3134
verbindungen 3133
Firmen 3131
Kri@@ 3131
gegangen 3131
Kreisstadt 3130
Holl@@ 3129
dokumentiert 3129
platte 3129
zeichnet 3129
Geschäft 3128
Angehörige 3127
Anordnung 3127
Dozent 3127
Platzierung 3127
Umgang 3127
verbundenen 3127
Gebirge 3126
Exil 3124
Format 3124
Hauptmann 3124
Panzer@@ 3123
Bündnis 3122
Eva 3122
Journalisten 3122
Haushalte 3121
Haut 3121
Bühnen@@ 3119
isierten 3119
Arm@@ 3118
Hauptrollen 3118
Rundfunk@@ 3117
schnitt 3117
Dass 3116
Journal 3116
Zuschauern 3116
amb@@ 3116
Beschluss 3115
Cro@@ 3115
OS 3115
enne 3114
gesetzes 3112
Stellvertreter 3111
befasst 3111
rand 3111
verhältnisse 3111
äußerte 3111
Verein@@ 3110
Alternative 3109
Duisburg 3108
Eber@@ 3108
Zw@@ 3108
fre@@ 3108
lo 3108
Athleten 3107
Löwen 3107
Kot@@ 3106
Million 3106
ständige 3106
fern 3105
vergleichsweise 3105
Münz@@ 3104
Spiels 3104
hei@@ 3104
Feder@@ 3101
Lem@@ 3101
Haf@@ 3100
Landtagswahl 3100
identisch 3100
unterbrochen 3100
1822 3099
Ansatz 3098
Schei@@ 3098
aire 3098
Diskussion 3097
wür@@ 3096
Hagen 3094
Redakteur 3094
urs 3094
Heeres@@ 3093
ok 3093
Inhaber 3091
ausreichend 3091
ott@@ 3091
Vorstellungen 3090
Platte 3089
ford 3089
wissenschaften 3089
angel@@ 3088
sahen 3088
zig 3088
Kontext 3087
Rod@@ 3087
abgesch@@ 3087
artig 3087
Bogen@@ 3086
Eugen 3086
IT 3086
Masse 3086
Verständnis 3086
religiöse 3086
Besiedlung 3085
Gru@@ 3085
Hä@@ 3085
Ruhr 3084
medizinischen 3084
preis@@ 3084
veranstaltet 3084
üblicherweise 3084
Amtes 3082
Höhen@@ 3082
Sig@@ 3082
SED 3081
schaft@@ 3081
bisherige 3080
fahrzeuge 3080
gewisse 3079
Cer@@ 3077
Grundlagen 3077
Schauspiel@@ 3077
gefallen 3077
Dritten 3075
gebildeten 3075
hell@@ 3075
Liebes@@ 3074
Ist 3073
Steine 3073
boden 3073
umfassende 3073
1807 3072
Marc 3072
häufiger 3072
jan 3072
Bundesstaates 3070
Jeder 3070
Museums@@ 3069
Zugehörigkeit 3069
aum 3069
ppe 3069
1809 3068
insel 3068
ü 3068
Begegnung 3067
Nu@@ 3067
Wohnungen 3067
bacher 3066
dichte 3066
Hohen@@ 3065
Lange 3065
1798 3064
Eishockey 3064
pi@@ 3064
Leg@@ 3063
Mitarbeitern 3062
Straß@@ 3062
begraben 3062
anstelle 3061
publizierte 3061
saal 3061
America 3060
Sommerspielen 3060
schlecht 3060
Hoffmann 3059
ç@@ 3059
Annahme 3058
Express 3058
ahn@@ 3058
griechisch 3058
Osnabrück 3057
bedeutete 3057
letztes 3057
vorübergehend 3057
Nicht@@ 3056
Jury 3055
steinen 3055
Programme 3054
ammer 3054
Distanz 3052
Straßenbahn 3051
jap 3051
jene 3051
recht@@ 3051
Bekanntheit 3050
stil 3050
12@@ 3049
Element 3049
Wes@@ 3049
any 3049
erhöhte 3049
Bestimmung 3048
Erdgeschoss 3048
wahl 3048
Bundesregierung 3047
1829 3046
Günter 3046
heißen 3046
160 3045
jährliche 3045
sam@@ 3045
Great 3044
Insel@@ 3044
schwach 3044
Reihenfolge 3042
üt@@ 3042
→ 3042
Schm@@ 3041
preußische 3041
winkel 3041
Fürst@@ 3040
Industri@@ 3040
ask@@ 3040
bezeichneten 3040
entin 3040
existierte 3040
Musical 3039
Piloten 3039
verwaltet 3039
ès 3039
1826 3038
Kommandant 3038
stei@@ 3038
Endspiel 3036
Florenz 3036
kreis@@ 3036
meldete 3036
rh@@ 3036
verkauften 3036
Pon@@ 3035
Tot@@ 3035
unterricht 3035
Act 3034
Landrat 3034
kritisierte 3034
onischen 3034
aufweisen 3033
verbreitete 3033
Stärke 3032
zellen 3032
ito 3031
Mario 3030
Draft 3029
Großvater 3029
brunnen 3029
ire 3029
unterschiedlicher 3029
€ 3028
angrenzenden 3027
beruht 3027
Haushalten 3026
strecken 3026
DE@@ 3025
Gesellschaften 3025
besuchen 3024
lautete 3024
versuchten 3024
10,@@ 3023
Hart@@ 3023
Flach@@ 3022
arbeit@@ 3022
Hum@@ 3021
Ziegel@@ 3021
gestaltung 3021
Ny@@ 3020
don 3020
Lokal@@ 3019
Politische 3019
aktuell 3019
ori 3019
pri@@ 3019
Dsch@@ 3018
Edition 3018
Stift 3018
verwandt 3018
Kalk@@ 3017
Südwest@@ 3017
teile 3016
Überreste 3016
1802 3015
Golden 3015
Pod@@ 3014
Doktor 3013
Wahrheit 3013
Mannschafts@@ 3012
Med@@ 3012
Marathon 3011
Versicherungs@@ 3011
ahr@@ 3011
runden 3011
dank 3010
daten 3010
not@@ 3010
miss@@ 3009
spezialisiert 3009
Nacht@@ 3008
Eishockeyspieler 3007
Etappe 3007
verbesserte 3007
Manuel 3006
beauftragte 3006
App@@ 3005
Regel@@ 3005
Wür@@ 3005
Geschichts@@ 3004
entstandene 3004
Bände 3003
Dörfern 3003
einziges 3003
nahen 3003
Zahlreiche 3002
Bis@@ 3000
Restaurant 3000
pre@@ 2998
Y 2997
Fellow 2996
Herren@@ 2996
Ty@@ 2996
ader 2996
Wor@@ 2995
verhindert 2995
Ah@@ 2993
Heck@@ 2993
Schriftstellerin 2993
kommenden 2993
Shi@@ 2992
bevorzugt 2992
erne 2992
via 2992
Forschungen 2991
Gallen 2990
Hit 2990
Hoffnung 2990
Justiz@@ 2990
Kleine 2989
Okres 2989
Soldat 2989
Zugleich 2989
ät@@ 2989
Dob@@ 2988
Sportliche 2988
Schne@@ 2987
Nationalen 2986
ST@@ 2986
Weiterentwicklung 2986
PC 2985
Schichten 2985
grad 2985
50.000 2984
Motiv 2984
entsprechen 2984
Karls 2983
Stufe 2983
enheim 2983
geld 2983
selber 2983
Vis@@ 2982
gesellschaftlichen 2982
5.000 2980
bre@@ 2980
dungen 2980
stri@@ 2980
Beförderung 2979
Nachkriegszeit 2979
Streifen 2978
kreuz@@ 2978
traditionelle 2977
unver@@ 2977
Dal@@ 2975
Mis@@ 2975
1811 2974
1819 2974
Jahrhunderte 2973
Kanzel 2973
lik@@ 2973
traditionell 2973
seln 2972
Netzwerk 2971
männliche 2971
orum 2971
Turniers 2970
5,@@ 2969
Gießen 2969
Historic 2969
ý 2969
lig 2968
Engel 2967
Innere 2967
verzichtete 2967
Fünf 2966
Mö@@ 2965
Statue 2965
orn 2965
Kleinstadt 2964
Studi@@ 2964
empfing 2964
gesp@@ 2964
Dek@@ 2963
Schreib@@ 2963
Trotzdem 2963
Gabriel 2962
utsch@@ 2962
betreut 2961
ec 2961
erreichbar 2961
ero 2960
wert@@ 2960
ō@@ 2960
Verbandes 2959
ati 2959
Dec@@ 2958
Nordseite 2958
stammende 2958
Jäger 2957
erlernte 2957
ändern 2957
Saarbrücken 2956
Weiter 2956
Carlo 2955
leit@@ 2955
Prince 2954
Time 2954
erfahren 2953
griechische 2953
mus 2953
ney 2953
cks 2952
finanziert 2952
02 2951
Entwickl@@ 2951
Graben 2951
Gur@@ 2951
wären 2951
Bistums 2950
Gall@@ 2950
Originaltitel 2950
Portal 2950
schau 2950
tische 2949
auen 2948
Berichte 2947
Kenn@@ 2947
Stock@@ 2947
bauer 2947
worauf 2947
Aspekte 2946
Einkommen 2946
Eric 2946
Koblenz 2946
Tat 2946
entstammte 2945
tig@@ 2945
versammlung 2945
eingesch@@ 2944
krieg 2944
arm@@ 2943
orf 2943
Flüsse 2942
erkannte 2942
far@@ 2942
verbessern 2942
gebietes 2941
niederländische 2941
östliche 2941
bahnhof 2940
darum 2940
dige 2940
friedhof 2940
yer 2940
Trio 2939
wär@@ 2939
Lind@@ 2938
organisationen 2938
Gegenstand 2937
Ruine 2937
Sees 2937
reform 2937
Beach 2936
Produkt 2936
fälle 2936
rath 2936
Creek 2935
Darin 2935
gerufen 2935
nik 2935
rö@@ 2935
Kreise 2933
Fest 2932
Vereinigte 2932
herum 2932
typisch 2932
0,5 2931
Ali 2931
Atom@@ 2930
Az@@ 2930
spätestens 2930
val@@ 2930
Mord 2929
Vit@@ 2929
ennen 2929
ez@@ 2929
zustand 2929
Kommune 2928
Zimmer 2928
ellen@@ 2928
intensiv 2928
Mand@@ 2927
blau 2927
gn@@ 2927
Ex 2926
Geschäfte 2926
Turnier@@ 2926
Verbände 2926
erfasst 2926
kanal 2926
oz@@ 2926
ARD 2925
Aussehen 2925
Instrumente 2925
Mannes 2924
Plätzen 2924
Ret@@ 2924
Spar@@ 2924
Vertretern 2924
ax 2924
Fron@@ 2923
aro 2923
rie@@ 2923
Details 2921
chinesische 2921
Europ@@ 2920
Gang@@ 2920
Offiziere 2920
strom 2920
ee 2919
feiern 2919
spro@@ 2919
ye 2919
16@@ 2918
odi@@ 2918
Little 2917
tag 2917
Integration 2916
Tim@@ 2916
bs 2916
hart 2916
skirche 2916
tä@@ 2916
Interpretation 2915
ahl 2915
blätter 2915
dig@@ 2915
ses 2915
Schar@@ 2914
Summe 2913
erie 2913
Sou@@ 2912
Verluste 2912
Davon 2911
ela 2911
Quadratkilometer 2910
tin@@ 2910
Kel@@ 2909
Yorker 2909
verkaufen 2909
1801 2908
Vorsitz 2907
olog@@ 2907
ologisch 2907
Sound 2906
DNA 2905
bo 2905
dorfer 2904
länge 2904
Gesicht 2903
Meg@@ 2903
Tau@@ 2903
1804 2902
Erziehung 2902
Fort@@ 2902
Gräfin 2902
Pass 2902
AS@@ 2901
Aufenthalt 2901
mess@@ 2901
Gam@@ 2900
arabischen 2900
stammenden 2900
Debütalbum 2899
Gelegenheit 2899
Mitbegründer 2899
Claude 2898
fördern 2898
Fenster@@ 2897
Pflanzen@@ 2897
Prot@@ 2896
ome 2896
wissen 2896
Jar@@ 2894
ück@@ 2894
Premier 2892
Bauarbeiten 2891
Wissenschafts@@ 2891
ners 2891
Bul@@ 2890
Hag@@ 2890
Vizemeister 2890
ester 2890
tion 2890
Tran@@ 2889
Blüten@@ 2888
Gil@@ 2888
Vorlage 2888
installiert 2888
ote 2888
Stamm 2887
erkennt 2887
Bielefeld 2886
Brücken 2886
Ze@@ 2886
menschliche 2886
nutzt 2886
Cr@@ 2885
Elizabeth 2885
Railway 2885
Sammel@@ 2885
fi@@ 2885
übernimmt 2885
Johanna 2884
Lizenz 2884
landwirtschaftliche 2884
Knoten 2883
Manchester 2883
druck@@ 2883
Vereinten 2881
Weiter@@ 2880
Erkrankung 2879
gebunden 2879
linke 2879
ografie 2879
Lyon 2878
chi 2878
1805 2877
Lebensmittel@@ 2877
Verteidiger 2877
pflanzen 2877
Monte 2876
Russischen 2876
ly@@ 2876
Tennis 2875
Sul@@ 2874
Bulgarien 2873
fil@@ 2873
gedacht 2873
nationalsozialistischen 2873
rin@@ 2873
Bod@@ 2871
Verbot 2871
Vögel 2871
ty 2871
Chance 2870
Gesetze 2870
1.000 2869
Worten 2869
mont 2869
sank 2869
ule 2869
ian@@ 2868
Kauf 2867
ensystem 2867
inge 2867
Sanierung 2866
lateinischen 2866
May@@ 2865
140 2864
1827 2864
Atelier 2864
Kaiser@@ 2864
Normal@@ 2864
Schwerin 2864
bri@@ 2864
erklären 2864
vollständige 2864
1793 2863
Bernard 2863
Kulturdenkmale 2863
Michigan 2863
bekommt 2863
Agrar@@ 2862
Hierzu 2862
macher 2862
nachfolgenden 2862
spanischer 2862
antreten 2860
eingeladen 2860
lösen 2860
ères 2860
4,5 2859
Entscheidungen 2859
Austausch 2858
NATO 2858
fertigte 2858
lat@@ 2858
Flugplatz 2857
Zer@@ 2857
geöffnet 2857
Höhle 2856
Roland 2856
Gri@@ 2855
ausgerüstet 2855
por@@ 2855
zes 2855
Alp@@ 2854
Eier 2854
Fran@@ 2854
kos@@ 2854
Aufhebung 2853
Büchern 2853
Syn@@ 2853
Versammlung 2853
dy 2853
illi@@ 2853
tisch 2853
wirtschaftlich 2853
Alters@@ 2852
afrikanischen 2852
schwer@@ 2852
sson 2852
ansonsten 2851
igung 2851
technisch 2851
umfassen 2851
UNESCO 2850
chor 2850
11,@@ 2849
Technologie 2849
IN@@ 2848
bezirke 2847
gekauft 2847
Moderne 2846
enzen 2846
ess 2846
gefeiert 2846
plan@@ 2846
obere 2845
ül@@ 2845
BBC 2844
Darunter 2844
Messe 2844
Wein 2844
aff@@ 2844
bad 2844
listen 2844
überraschend 2844
Port@@ 2843
arm 2843
ish@@ 2843
jüngste 2843
ock@@ 2843
Betrieb@@ 2842
Mitteleuropa 2842
Projekt@@ 2842
speziellen 2842
Bildern 2841
Rosa 2841
pan@@ 2841
wort 2841
zin@@ 2841
Früchte 2840
Gewinner 2840
Team@@ 2839
gehabt 2838
bestattet 2837
kers 2836
wel@@ 2836
gau 2835
stattfinden 2835
Anwalt 2834
Geologie 2834
Jugoslawien 2834
Sonntag 2834
Zentimetern 2834
Fahrzeugen 2833
It 2833
Psych@@ 2833
Zuletzt 2833
retten 2833
Gedanken 2832
Harvard 2832
anteil 2832
offizier 2832
Kämpfe 2831
aufnahme 2831
Inzwischen 2830
bestellt 2830
las 2830
Drei@@ 2829
bessere 2829
1823 2828
Brun@@ 2827
Höh@@ 2827
Nördlich 2827
Rolf 2827
ali 2827
bestimmen 2827
lesen 2827
rücken 2827
Mischung 2825
Innenraum 2824
gebiets 2824
nötig 2823
Zufluss 2822
gehalt 2822
Gespräch 2821
Janeiro 2821
Siegfried 2821
landes 2821
Day 2820
Stau@@ 2820
Zusatz@@ 2820
Maße 2818
Südamerika 2818
flu@@ 2818
vel@@ 2818
Lady 2817
Zwecke 2817
fen@@ 2816
gemessen 2816
Pfund 2815
belegen 2815
christliche 2815
enter 2815
Andrea 2814
Gesellschafts@@ 2814
abgegeben 2814
hierzu 2814
wirklich 2814
film@@ 2813
handeln 2813
pen@@ 2813
Demokratie 2812
14@@ 2811
Rest@@ 2811
1,2 2810
Berufung 2810
alleine 2810
edi@@ 2810
Alex 2809
Danzig 2809
ativ@@ 2809
keinem 2809
1600 2808
Aufklärung 2808
förderung 2808
Palais 2807
cher@@ 2807
Gitarrist 2806
stor@@ 2806
Bäume 2805
Krise 2805
teilt 2805
Bridge 2804
Kh@@ 2804
Abend@@ 2803
Kraftwerk 2803
omm@@ 2803
Waren 2802
ator@@ 2802
Kok@@ 2801
öh@@ 2801
Personal 2800
Country 2799
karten 2799
Fiction 2798
Vorgeschichte 2798
dro@@ 2797
stan@@ 2796
vorne 2795
Ausstellungs@@ 2794
Lediglich 2794
ras 2794
Übertragung 2794
gten 2792
kes 2792
unmittelbarer 2792
berühmten 2791
oda 2791
Flu@@ 2790
ju@@ 2790
Regiments 2789
TSV 2789
Mé@@ 2787
Generalleutnant 2786
co@@ 2786
Allen 2785
Gulden 2785
Prozesse 2785
Wilhelms 2785
einrichtungen 2785
gebauten 2785
hinzu@@ 2785
menge 2785
Business 2784
hr 2784
Engel@@ 2783
Oskar 2783
hagen 2783
Cat@@ 2782
Sper@@ 2782
Jugendlichen 2781
Papier@@ 2781
Roth@@ 2781
zusätzlichen 2781
zurückzuführen 2780
Triebwagen 2779
cia 2779
schlägt 2779
Aff@@ 2778
Königreichs 2778
Rajon 2778
fordert 2778
gesetzten 2778
Bür@@ 2777
SE@@ 2777
Schwarzen 2777
haften 2777
wovon 2777
AR@@ 2776
Vorläufer 2776
Allgemeine 2775
Bud@@ 2775
Hi@@ 2775
drei@@ 2775
landwirtschaftlich 2775
Bernd 2774
Clubs 2774
Titelverteidiger 2774
unklar 2774
Begriffe 2773
Entwicklungen 2773
Grube 2773
Pflanze 2773
Schaf@@ 2773
erfolgreichsten 2773
ams 2772
hafte 2772
zugeschrieben 2772
Blau 2771
Golf 2771
ers@@ 2770
ham 2770
tliche 2770
Antrieb 2769
Architektur@@ 2769
IS 2769
Lob@@ 2769
Nationalversammlung 2769
wettbewerb 2769
Übersicht 2769
Luis 2768
Nacional 2768
Pommern 2768
Tür@@ 2768
è@@ 2768
schm@@ 2767
verlässt 2767
Ausgrabungen 2766
Europe 2766
Foundation 2766
Jagd 2766
erfüllen 2766
rennen 2766
Nachrichten@@ 2765
Werbe@@ 2765
oph@@ 2765
Racing 2764
ander 2764
esse 2764
gener@@ 2764
Anthony 2763
Miller 2763
schen@@ 2763
Dritte 2762
Serien@@ 2762
hessischen 2762
Opern@@ 2761
Opposition 2761
Power 2761
platzierte 2761
Testament 2760
geschehen 2760
jährlichen 2760
Forum 2759
Kroatien 2759
endlich 2759
dunkel@@ 2758
gangs 2758
top@@ 2758
Lad@@ 2757
Wy@@ 2757
front 2757
ias 2757
orientiert 2757
üch@@ 2757
medizinische 2756
5.@@ 2755
Louise 2755
RE@@ 2755
besaßen 2755
Bürgerkrieg 2754
eth@@ 2753
innen@@ 2753
out 2753
erische 2752
hän@@ 2751
pa 2751
Presse@@ 2749
Studenten@@ 2748
Staatsexamen 2747
ex 2747
höhe 2747
Therapie 2746
Gast 2745
eter@@ 2745
zugeteilt 2743
Eines 2742
Trieb@@ 2742
ekt@@ 2742
überführt 2742
Hospital 2741
pe@@ 2741
wechsel@@ 2741
Steiermark 2740
klassen 2740
lie 2740
Segel@@ 2739
Eis 2738
Falls 2738
ball@@ 2738
Georges 2737
Wachstum 2736
bekannter 2736
rolle 2736
Dokumentation 2735
Evangelisch 2735
Hafen@@ 2735
Indi@@ 2735
Mun@@ 2735
Sohnes 2735
enau 2735
kandidierte 2735
row 2735
Ž@@ 2735
Abkommen 2734
Badminton 2734
Hände 2734
Katholiken 2734
ansässig 2734
bereit@@ 2734
fluss 2734
punkten 2734
schwerer 2734
Nag@@ 2733
bew@@ 2733
etten@@ 2733
Stephen 2732
armee 2732
unterzeichnete 2732
wi@@ 2732
untere 2731
aya 2730
positive 2730
KPD 2729
War 2729
hinteren 2729
vorderen 2729
Korn@@ 2728
Minnesota 2728
stoffen 2728
ulen 2728
Ari@@ 2727
ox@@ 2727
Erzbistum 2726
Führ@@ 2726
Vorfeld 2726
gelangt 2726
gs@@ 2726
Altar@@ 2725
beenden 2725
use 2725
Aires 2724
Cy@@ 2724
Fall@@ 2723
Lebensjahr 2723
qualifiziert 2722
bach@@ 2721
chemische 2721
ves 2721
einsatz 2719
Hauptbahnhof 2718
ball 2718
offs 2718
Ess@@ 2717
Siedler 2717
Waffen@@ 2717
leistungs@@ 2717
Bald 2716
Braun@@ 2715
alisiert 2715
tak@@ 2715
Forscher 2714
Glück 2714
Thailand 2714
Pferde 2713
aufgaben 2713
bewohnt 2713
ache 2712
enko 2712
japanischer 2712
7,@@ 2711
Eig@@ 2711
Salzburger 2711
Alliierten 2710
Komponenten 2710
gut@@ 2710
jo 2710
wissenschaftlich 2710
fliehen 2709
della 2708
quellen 2708
werten 2708
Nürnberger 2707
Standorte 2707
District 2706
Verletzungen 2706
Wer 2706
mitteln 2706
säure 2706
losigkeit 2705
umfangreichen 2705
verbinden 2705
vorerst 2705
Schlagzeug 2704
Typen 2704
motoren 2704
Temperaturen 2703
denkmalgeschützten 2703
Lissabon 2702
NFL 2702
å@@ 2702
Forderungen 2701
Kim 2701
Schreibweise 2701
han 2701
Voraussetzungen 2700
lar@@ 2700
Diesen 2699
deck 2699
sinn@@ 2699
stag 2699
Holland 2698
Long 2698
Mut@@ 2698
Stadtbezirk 2698
enbau 2698
meisters 2698
Aufführung 2697
Fein@@ 2697
Model 2697
Schwein@@ 2697
Vermutlich 2697
Gäste 2696
br 2696
großem 2696
öl 2696
ı 2696
Kriterien 2695
Problemen 2695
Sand 2695
erkannt 2695
EC 2694
Marcus 2694
Scher@@ 2694
vorstand 2693
Kü@@ 2692
fr@@ 2692
tier 2692
vereinigung 2692
Buenos 2691
asp@@ 2691
kin@@ 2691
Heide 2689
Planungen 2689
grau 2689
Erzählungen 2688
nationaler 2688
unweit 2688
bein 2687
eres 2686
erneuten 2686
ota 2686
ran 2686
Münzen 2685
plätzen 2685
ado 2684
walde 2684
wesentliche 2684
Affäre 2683
Versorgungs@@ 2683
Waffe 2683
Zusammen@@ 2683
fach 2683
plante 2683
Nat@@ 2682
Ther@@ 2682
Wert@@ 2682
arischen 2682
erschossen 2682
Bamberg 2681
Artillerie 2679
Website 2679
mod@@ 2679
Kaserne 2678
erwies 2678
splatz 2678
Chef@@ 2677
geliefert 2677
Maur@@ 2676
Ass@@ 2675
Grande 2675
Umgeben 2675
anzen 2675
ovice 2675
13@@ 2672
Bewertung 2672
Erlangen 2672
Py@@ 2672
Regelung 2672
Sam 2671
dest@@ 2671
eis 2671
Obergeschoss 2670
Stor@@ 2670
lerin 2670
stillgelegt 2670
ängen 2670
fliegen 2669
Verletzung 2668
Bogen 2667
Nordwest@@ 2667
felde 2667
schlechten 2667
Clemens 2666
Kapital@@ 2666
Pflege 2666
Schloss@@ 2666
kaiserlichen 2666
ī 2666
begriff 2665
mung 2665
sä@@ 2665
Pul@@ 2664
inklusive 2664
ris 2664
versorgt 2664
Baudenkmäler 2663
russisch 2663
tigte 2663
Reh@@ 2662
Reinhard 2662
fels 2662
Redaktion 2661
Rumpf 2661
erhebliche 2661
freiheit 2661
wolle 2661
Entlassung 2660
Haushalts@@ 2660
bewegt 2660
rach@@ 2660
strukturen 2660
uz@@ 2660
Schlaf@@ 2659
lieb@@ 2659
Kub@@ 2658
gewächse 2658
Bag@@ 2657
Verteilung 2657
zt 2657
Gebietes 2656
schluss 2656
Motive 2655
hängen 2655
ide@@ 2655
äd@@ 2655
125 2654
Sta@@ 2654
30@@ 2652
Bun@@ 2652
DJ 2652
Lokomotive 2652
Luther 2651
Rainer 2651
ais@@ 2651
landwirtschaftlichen 2651
esch 2650
Hier@@ 2649
orten 2649
wahr@@ 2649
zwischenzeitlich 2649
Chemnitz 2648
onie 2648
stärke 2648
vereinigt 2648
Ausscheiden 2647
Bataillon 2647
demnach 2647
Howard 2646
Jim 2646
Mond@@ 2646
Mund@@ 2646
übergab 2646
1700 2645
Drehbuchautor 2645
Nie@@ 2645
geschah 2645
Islam 2644
geregelt 2644
ogen 2644
verkehrs@@ 2644
Kurs 2643
Township 2643
Wag@@ 2643
automatisch 2643
Episode 2642
Lip@@ 2642
dienste 2642
Könige 2640
deck@@ 2640
orte 2640
UdSSR 2639
Free 2638
Oslo 2638
Ven@@ 2638
uli@@ 2638
vielmehr 2638
with 2638
Einflüsse 2637
Ry@@ 2636
hu@@ 2636
ī@@ 2636
Ay@@ 2635
Viel@@ 2635
maximale 2635
the@@ 2635
ER@@ 2634
Hubraum 2634
last@@ 2634
lungen 2634
Asteroid 2633
Kirchspiel 2633
junger 2633
Costa 2632
6,@@ 2631
Gebirgs@@ 2631
dritter 2631
Sommerspiele 2630
DC 2629
meisterschaften 2629
Evangelische 2628
Hilf@@ 2628
ative 2628
linger 2628
pat@@ 2628
Überlieferung 2628
Blei@@ 2627
field 2627
verteidigen 2627
Reise@@ 2626
ehr@@ 2626
Auß@@ 2625
Produkt@@ 2625
tlich 2624
1794 2623
Ca@@ 2623
Pferd 2623
Ross 2623
ums@@ 2622
Horn 2621
Disziplin 2620
Täter 2620
Tür 2620
aufen 2620
finnischen 2620
je@@ 2620
medizin 2620
schneller 2620
Alpen@@ 2619
Film- 2618
Hochschulen 2618
Menschen@@ 2618
Ray 2618
abschnitt 2617
verlaufen 2617
Napoleon 2616
Parti@@ 2615
akademischen 2615
Voraussetzung 2614
ret@@ 2613
dens 2612
gleichnamige 2612
Det@@ 2611
hinweg 2611
Ausrüstung 2610
Paulo 2610
Turin 2610
Airport 2609
Kil@@ 2609
verg@@ 2609
13,@@ 2608
Brian 2608
Studioalbum 2608
grüne 2608
Schüler@@ 2607
Montreal 2606
goldenen 2606
pen 2606
Hydro@@ 2605
Kampagne 2605
deutschsprachige 2605
prüfung 2605
ragen 2604
Angel@@ 2602
Senator 2602
are@@ 2602
stellungen 2602
zehnten 2602
Luzern 2601
Priesterweihe 2601
Rek@@ 2601
Sek@@ 2601
erschlossen 2601
iter@@ 2601
sil@@ 2601
aufnehmen 2600
katholisch 2600
Conrad 2599
Unterscheidung 2599
Wand 2599
Well@@ 2599
bereichen 2599
bürgerlichen 2599
SP@@ 2598
Wesen 2598
dra@@ 2598
steuer 2598
Beh@@ 2597
Mir@@ 2597
Off@@ 2597
Elementen 2595
Len@@ 2595
Telefon@@ 2595
Theatre 2595
sc@@ 2594
Lev@@ 2593
spielerin 2593
zwanzig 2593
1790 2592
Tatsächlich 2592
bestritten 2592
gemeinden 2592
ović 2592
iss 2591
iter 2591
zucht 2591
Ankunft 2590
Blatt 2590
Funktion@@ 2590
karriere 2590
veranstaltungen 2590
Kleinen 2589
Rec@@ 2589
ander@@ 2589
Julia 2588
Konstanz 2588
Textil@@ 2588
Vogel 2588
ausgelegt 2588
unabhängige 2588
Lorenz 2587
Saal 2587
angekündigt 2587
erischen 2587
gewissen 2587
rol@@ 2587
Denk@@ 2586
Konzert@@ 2584
Römer 2584
Turnieren 2584
Woll@@ 2584
bares 2584
literarischen 2584
Bevölkerungsdichte 2583
Gedicht 2583
Westseite 2583
unterhält 2583
Verleger 2582
Weit@@ 2582
Erben 2581
Herrn 2581
Kap 2581
landschaft 2581
12,@@ 2580
NBA 2580
Zeche 2580
fünfte 2580
Oberbürgermeister 2579
Mord@@ 2578
Ärzte 2578
gewöhnlich 2577
Arbeitgeber 2574
Sende@@ 2574
kun@@ 2574
Hotels 2573
Sache 2573
Unentschieden 2573
namentlich 2573
.de 2572
1797 2572
Schall@@ 2572
Stadium 2572
Südlich 2572
Vo@@ 2572
Zensus 2572
Abgrenzung 2571
Bus 2571
Dessen 2571
Gedenk@@ 2571
Reform 2571
studieren 2571
Güterverkehr 2570
Muster 2570
atische 2570
etablierte 2570
fo@@ 2570
rein@@ 2569
Insekten 2568
halben 2568
uth 2568
Bord@@ 2567
Firmen@@ 2567
Mich@@ 2567
jüngerer 2567
mans 2567
rie 2566
tiere 2566
Vorjahr 2565
betont 2565
brunn 2565
chte 2565
längeren 2565
Helsinki 2564
bedroht 2564
deten 2564
maß 2564
gesammelt 2563
Tol@@ 2562
liefern 2562
welchen 2562
1940er 2561
Hammer@@ 2561
Milch@@ 2561
besonderer 2561
fle@@ 2561
seitigen 2561
Begründung 2560
Koalition 2560
Mün@@ 2560
berge 2560
lichkeiten 2560
renoviert 2560
verursacht 2560
1792 2559
Musikern 2559
1789 2558
Umbenennung 2558
zeitgenössischen 2558
Harald 2557
VfL 2557
ix 2557
ris@@ 2557
Leser 2556
ava 2556
bericht 2556
Becker 2555
Überblick 2555
Pas@@ 2554
esische 2554
hinter@@ 2554
uss 2554
low 2553
Inhalte 2552
Laub@@ 2552
Schluss@@ 2552
Landesstraße 2551
ahl@@ 2551
seitlich 2551
Hauptrunde 2550
ertes 2550
fahrzeug 2550
gesetzte 2550
ong@@ 2550
tigt 2549
Jörg 2548
LP 2548
codice 2548
seitens 2548
Nik@@ 2547
therapie 2547
Fotos 2546
Mercedes 2546
Punkt@@ 2546
archiv 2546
fuhren 2546
kirchlichen 2546
loch 2546
ont@@ 2546
terin 2546
werkes 2546
Vorlesungen 2545
gehandelt 2545
Angriffe 2544
konzentrierte 2544
ope 2544
raum@@ 2544
gegeneinander 2543
ová 2543
Sat@@ 2542
erfolgreichste 2542
ppen 2541
sterben 2541
teilnahm 2541
Stipendium 2540
ersetzen 2540
itsch 2540
lag@@ 2540
Schild@@ 2539
ami 2539
dauerhaft 2539
heben 2539
älterer 2539
Willen 2538
aufweist 2538
gender 2538
Gordon 2537
Witt@@ 2537
eth 2537
Achse 2536
Heilbronn 2536
beobachten 2536
AL@@ 2535
enver@@ 2535
trotzdem 2535
Glasgow 2534
präsentierte 2534
Römischen 2533
Sicherung 2533
Sterne 2533
legten 2533
Diskografie 2532
VII. 2532
Zwangs@@ 2532
dete 2532
rund@@ 2532
transportiert 2532
Eigenschaft 2531
mt 2531
ringen 2531
ua 2531
ausstellung 2530
Benedikt 2529
Francesco 2529
Sprung 2529
Vordergrund 2529
angebot 2529
itischen 2529
schwierig 2529
frage 2528
träger 2528
dus 2527
gänge 2527
lim@@ 2527
\ 2526
französisch 2526
Game 2525
Gewerbe@@ 2525
Texten 2525
Bergbau 2524
Brüdern 2524
Küche 2524
amm 2524
ial@@ 2524
spannung 2524
Ereignis 2523
Flüchtlinge 2523
Gemein@@ 2523
Sandstein 2523
beliebt 2523
greift 2523
wahl@@ 2523
änge 2523
fal@@ 2522
kräfte 2522
sitzt 2522
verst@@ 2522
ş@@ 2522
Block 2521
Eh@@ 2521
Schie@@ 2521
fri@@ 2521
tag@@ 2521
e- 2520
mak@@ 2520
ollen 2520
Drogen@@ 2519
Heilige 2519
Pedro 2519
firma 2519
Genehmigung 2518
kunst@@ 2518
Hinsicht 2517
Loire 2517
davor 2517
turen 2517
verteidigte 2517
Fulda 2516
Georgia 2516
Junioren@@ 2516
Parlaments 2516
Van@@ 2516
gerin 2516
Aufstellung 2514
Bed@@ 2514
erbte 2514
Vieh@@ 2513
berichten 2513
BMW 2512
Hauptsitz 2512
Mitteln 2512
Wuppertal 2512
ry@@ 2512
Stro@@ 2511
einander 2511
gebaute 2511
pal@@ 2511
25@@ 2510
Beton@@ 2510
tiefen 2510
Soziologie 2509
Spiegel@@ 2509
lach 2509
ste@@ 2509
Chefredakteur 2508
Fab@@ 2508
Verbrechen 2508
gebäudes 2508
verschoben 2508
Box@@ 2507
Cos@@ 2507
Diego 2507
Gemäß 2507
dortige 2507
enth@@ 2506
zeitung 2506
Hain@@ 2505
Historische 2505
Now@@ 2505
Restaurierung 2505
UN@@ 2505
dauert 2505
debüt 2505
ki@@ 2505
lige 2505
töten 2505
Heiligen@@ 2504
Periode 2504
ame 2504
extrem 2504
lied 2504
Queen 2503
Rande 2503
dende 2503
verließen 2501
Kämpfen 2500
Staatlichen 2500
historischer 2500
kritisch 2500
motor@@ 2500
30.000 2499
Gleis@@ 2499
aster 2499
derung 2499
hy@@ 2499
nt 2498
Archäologie 2497
Philip 2497
Zürcher 2497
phase 2497
Geistlicher 2496
Peru 2496
Romans 2496
ausgabe 2496
nar@@ 2496
vergleichbar 2496
Humboldt 2495
Konservatorium 2495
Plat@@ 2494
ement 2494
gerne 2494
IS@@ 2493
iste 2493
Biografien 2492
Continental 2492
Ep@@ 2492
Log@@ 2492
club 2492
Bak@@ 2491
Final@@ 2491
Südost@@ 2491
Alice 2490
Deck@@ 2490
Q 2490
Vereinen 2490
dänische 2490
roman@@ 2490
verarbeitet 2490
Dinge 2489
Mauer@@ 2489
Sports 2488
app@@ 2488
liefert 2488
Ehepaar 2487
Strecken@@ 2487
denden 2487
sol@@ 2487
Gärten 2486
Handball 2486
Lehn@@ 2486
Rosen@@ 2486
händler 2486
imm@@ 2486
spät@@ 2486
7,5 2485
Behörde 2485
Juden@@ 2485
Pius 2485
ös@@ 2485
bricht 2484
engruppe 2484
publiziert 2484
wendet 2484
Flor@@ 2483
Schließung 2483
Fame 2482
landete 2482
Maß@@ 2481
Paderborn 2481
igt 2481
markiert 2481
tha 2481
Stanley 2480
chemischen 2480
eu@@ 2480
Begleit@@ 2479
Diplomat 2479
Haltepunkt 2479
flachen 2479
Daraus 2477
Neckar 2477
lebens@@ 2477
vereine 2477
Bruders 2476
Winkel 2476
gegen@@ 2476
tiefe 2476
verkehren 2476
René 2475
rop@@ 2475
stimmen 2475
Landwirtschafts@@ 2474
Mr. 2474
verkehrs 2474
Ausdehnung 2473
Gefangenschaft 2473
anc@@ 2473
ologischer 2473
Bot@@ 2472
Fürstentum 2472
gelassen 2472
Loh@@ 2471
fra@@ 2471
nerin 2471
Schacht 2470
Los@@ 2469
Res@@ 2469
â@@ 2469
ów 2469
off@@ 2468
türkische 2468
wor@@ 2468
Austragung 2467
Mythologie 2467
nis@@ 2467
registriert 2467
int@@ 2466
Freizeit@@ 2465
bezeichnen 2465
galten 2465
Sing@@ 2464
gewählten 2464
sta@@ 2464
Bibel 2463
Fast 2463
Missouri 2463
Rob@@ 2463
Sü@@ 2463
Umzug 2463
Kurfürsten 2462
Olympische 2462
Sturm@@ 2462
diger 2462
Litauen 2461
elemente 2461
6.@@ 2460
ash@@ 2460
magazin 2460
Fas@@ 2459
Nationale 2458
umfassenden 2458
ME@@ 2456
Mann@@ 2456
vornehmlich 2456
rischen 2455
ütz@@ 2455
Junior 2454
char@@ 2454
komm@@ 2454
usi@@ 2454
Landesregierung 2453
eig@@ 2453
Tanz 2452
Trasse 2452
Veränderung 2452
vers 2452
wahr 2452
Abbau 2451
Cheftrainer 2451
Industrie@@ 2451
bekannteste 2451
German@@ 2450
Rekord@@ 2450
Syrien 2450
besetzte 2450
annen 2449
flügel 2449
sion 2449
dienstes 2448
Durchschnitt 2447
Höhen 2447
Mathematiker 2447
besitzer 2447
Eng@@ 2446
Index 2446
polnischer 2446
wohn@@ 2446
15@@ 2445
Anstellung 2445
Cou@@ 2444
Real@@ 2444
age@@ 2444
CA@@ 2443
Germanistik 2443
geehrt 2443
ía 2443
Ausgangspunkt 2442
Bahnhofs 2442
Herrenhaus 2442
erneute 2442
Brü@@ 2441
Moor@@ 2441
erwartet 2441
verl@@ 2441
26@@ 2440
Platz@@ 2440
angesichts 2440
auftritt 2439
bedeutender 2439
fuß 2439
hör@@ 2439
old@@ 2439
1799 2438
Autobahn@@ 2438
Regime 2438
Selbst 2438
sorgen 2438
verbessert 2438
tschechischen 2437
Bemühungen 2436
Stürmer 2436
läufer 2436
vermehrt 2436
ows 2435
Abraham 2434
Wladimir 2434
bestes 2434
eri@@ 2434
hinterließ 2434
Colorado 2433
Freunden 2433
Konzern 2433
bewertet 2433
poem 2433
sem@@ 2433
Nachlass 2432
Sicht@@ 2432
14,@@ 2431
gründung 2431
sofern 2431
stock 2431
ange 2430
fing 2430
plötzlich 2430
zo@@ 2430
Pastor 2429
Reederei 2429
Rich@@ 2429
glichen 2429
Edinburgh 2428
Lap@@ 2428
go@@ 2428
Eur@@ 2427
ländischen 2426
Lippe 2425
Struktur@@ 2425
aktion 2425
sions@@ 2425
24@@ 2424
Australian 2424
Austria 2424
Geheim@@ 2424
reihen 2424
Admiral 2423
Auslands@@ 2423
rig@@ 2423
schiffe 2423
umb@@ 2423
Coll@@ 2422
Eintritt 2422
ausen 2422
steil 2422
Alan 2421
Haar@@ 2421
ão 2421
Leutnant 2420
Rap@@ 2420
Thüringer 2420
komplette 2420
unabhängigen 2420
Personenverkehr 2419
asser 2419
saniert 2419
star@@ 2419
verkehr@@ 2419
án@@ 2419
Airlines 2418
Moskauer 2418
Schnitt 2418
TU 2418
ric@@ 2418
Moore 2417
Serbien 2417
lia 2417
marke 2416
Borussia 2415
Dep@@ 2415
Sternbild 2415
angestellt 2415
berechtigt 2415
enthal 2415
fan@@ 2415
wählen 2415
Donald 2414
Jede 2414
Umständen 2414
def@@ 2414
Kunstgeschichte 2413
Mountains 2413
Oft 2413
air 2413
anger@@ 2413
ense 2413
tiv 2413
wissenschaft 2413
Böden 2412
ith 2412
Ostsee 2411
Tim 2411
luft@@ 2411
non 2411
schau@@ 2411
Kolonien 2410
Kurzfilm 2410
oma 2410
Hein@@ 2409
Teilung 2409
konstruktion 2409
oi 2409
Christopher 2408
Gab@@ 2408
Mauern 2408
Ontario 2408
Pur@@ 2408
betreiben 2408
ond@@ 2407
No 2406
Passagiere 2406
Männer@@ 2405
Santiago 2405
regeln 2405
Generationen 2404
beinahe 2404
Manche 2403
enten@@ 2403
Exemplaren 2402
geprägten 2402
Johnny 2401
Moschee 2401
eingewechselt 2401
Hay@@ 2400
Las 2400
lernen 2400
sis 2400
wesentlichen 2400
Dokumente 2399
zehn@@ 2399
übertrug 2399
Aufsteiger 2398
Faktoren 2398
Mindest@@ 2398
VfB 2398
Wass@@ 2398
allmählich 2398
Kraft@@ 2397
tot 2397
Get@@ 2396
NRW 2396
Pflege@@ 2396
akt 2396
wein 2396
Nominierung 2395
Nord- 2395
barocke 2395
bewaffneten 2395
sammeln 2395
Akt 2394
Aktionen 2394
Damals 2394
Gemeinschafts@@ 2394
Adresse 2393
Ara@@ 2393
Dank 2393
Dev@@ 2393
Donau@@ 2393
FA 2393
GE@@ 2393
Glaubens@@ 2393
Public 2393
betreute 2393
theim 2393
ukrainischen 2393
750 2392
Freie 2391
Leh@@ 2391
Rech@@ 2391
U.S. 2391
stufen 2391
vertritt 2391
Old 2390
eingenommen 2390
elen 2390
Ermordung 2388
Künstlerin 2388
Pflanz@@ 2388
frei@@ 2388
hom@@ 2388
toren 2388
Automobil@@ 2387
Internet@@ 2387
Stell@@ 2387
oth 2387
Forderung 2386
schoss 2386
zerstörten 2386
Naturpark 2385
Vorlauf 2385
Wohl@@ 2385
regierung 2385
23@@ 2384
Dienstleistungen 2384
Mitgliedschaft 2384
konservativen 2384
Ära 2384
Takt 2383
sitzen 2383
tere 2383
Düsseldorfer 2382
Rund 2382
büchern 2382
din 2382
offensichtlich 2382
Dub@@ 2381
Ostseite 2381
Skulpturen 2381
hab@@ 2381
otte 2381
Kennzeichen 2380
Niederlagen 2380
polnisch 2380
so@@ 2380
strom@@ 2380
entes 2379
ill 2379
­ 2379
105 2378
Hon@@ 2378
Schi@@ 2378
Wiedervereinigung 2378
wälder 2378
BSG 2377
Maurice 2377
ater 2377
iken 2377
Marco 2376
abschluss 2376
uc@@ 2376
Duke 2375
Kleidung 2375
Südkorea 2375
befindliche 2375
eri 2375
tan@@ 2375
Nachbarorte 2373
normalen 2373
wachsenden 2373
daß 2372
owitz 2372
Stil@@ 2371
MS 2370
Tier 2370
ausschied 2370
satz@@ 2370
Bob@@ 2369
Dokumentarfilm 2369
Risiko 2369
geln 2369
abgehalten 2368
isse 2366
zugewiesen 2366
Lud@@ 2365
Längs@@ 2364
US@@ 2364
aufeinander 2364
Residenz 2363
ust@@ 2363
Entertainment 2362
Ferrari 2362
Kapazität 2362
Technology 2362
etzen 2362
ähnelt 2362
Miss@@ 2361
Stuttgarter 2361
Unfall@@ 2361
And@@ 2360
Loch 2360
team 2360
27@@ 2358
Punk@@ 2358
Staffeln 2358
unbekannten 2358
vorzeitig 2358
Phot@@ 2357
Stad@@ 2357
aja 2357
einzeln 2357
elung 2357
genauer 2357
BGB 2356
Befreiung 2356
Disziplinen 2356
Ron@@ 2356
heim@@ 2356
well 2356
Einnahmen 2355
Erreichen 2355
Kommunalwahl 2355
Lit@@ 2355
Wider@@ 2355
brechen 2355
floh 2355
Vincent 2354
belegten 2354
bi 2354
guter 2354
Et@@ 2353
tiefer 2353
Betreiber 2352
Bär@@ 2352
stimm@@ 2352
unterwegs 2352
Giuseppe 2351
ert@@ 2351
Felsen 2350
liberalen 2350
sn@@ 2350
gestalten 2349
Eisen 2348
Gymnasiums 2348
Rang@@ 2348
Sarah 2348
album 2348
Beamten 2347
Fot@@ 2347
Night 2347
besseren 2347
partei@@ 2347
raten 2347
scheid 2347
Beendigung 2346
Kiew 2346
Adams 2345
Bundesstaaten 2345
Nachwuchs@@ 2345
Pic@@ 2345
Volkes 2345
äußersten 2345
ū@@ 2345
deswegen 2344
eigenständigen 2344
engl@@ 2344
setzung 2344
Ey@@ 2343
Weser 2343
berief 2343
gestartet 2343
unterstand 2343
warf 2343
Sun 2342
anda 2342
weichen 2342
yst@@ 2342
Nachweis 2341
Vorhaben 2341
kenn@@ 2341
mes@@ 2341
vergangenen 2341
verzichtet 2341
uraufgeführt 2340
Tour@@ 2339
Bade@@ 2338
Heiz@@ 2338
Hyper@@ 2338
büro 2337
lio 2337
wen 2337
But@@ 2336
Fauna 2336
USS 2336
Basis@@ 2335
Bewohnern 2335
Christine 2335
Forsch@@ 2335
Herrschafts@@ 2335
Pacific 2335
Sturz 2335
ags 2335
niedrigen 2335
Lausanne 2334
Seele 2334
aine 2334
funktion@@ 2334
Erwin 2333
Herzogs 2333
Luise 2333
Stämme 2333
Bar 2332
Fred 2332
Klang@@ 2332
diert 2332
enger 2332
malte 2332
reine 2331
Eing@@ 2330
Turn@@ 2330
angegriffen 2330
burg@@ 2330
fein@@ 2330
befestigt 2329
gerecht 2329
karte 2329
Roth 2328
Moment 2327
fol@@ 2327
leute 2327
rel@@ 2327
Boh@@ 2326
Brem@@ 2326
Chief 2326
Fremd@@ 2326
Infolge 2326
Königlichen 2326
Tageszeitung 2326
ands 2326
jan@@ 2326
Kansas 2325
Niveau 2325
filme 2325
lat 2325
gene 2324
zerstörte 2324
Bestimmungen 2323
Bewegungen 2323
Maß 2323
olen 2323
zeitgleich 2323
Medizin@@ 2322
Welle 2322
analyse 2322
Death 2321
Las@@ 2321
bek 2321
brannte 2321
fertig 2321
leitungen 2321
bas@@ 2320
Jimmy 2319
Wälder 2319
brasilianischen 2319
geraten 2319
Charlie 2318
Fa@@ 2318
New@@ 2318
Rum@@ 2318
Briefe 2317
Fle@@ 2317
jahre 2317
Individuen 2316
denken 2316
konzipiert 2316
Dan 2315
Hun@@ 2315
Sm@@ 2315
Tabellen@@ 2315
Zauber@@ 2315
neunten 2315
vin@@ 2315
Archiv@@ 2314
Board 2314
ump@@ 2313
vol@@ 2313
yl 2312
Ernährung 2311
Panzer 2311
Stock 2311
basis 2311
manche 2311
verliebt 2311
haf@@ 2310
Anti 2309
Denn 2309
Hammer 2309
Polar@@ 2309
Biographie 2308
Chem@@ 2308
Platten 2308
aufgelistet 2308
entwässert 2308
Herr@@ 2307
Maschinen@@ 2307
inner@@ 2307
Erdbeben 2306
Hits 2306
Rou@@ 2306
Ursachen 2306
Wettbewerbe 2306
Wird 2306
auff@@ 2306
ensi@@ 2306
größter 2306
kan 2306
CO@@ 2305
Felder 2305
Fleisch@@ 2305
Gegenzug 2305
Nan@@ 2305
Tet@@ 2305
gesperrt 2305
Atmosphäre 2304
Völker 2304
sig 2304
spolitik 2304
stände 2304
May 2303
Petrus 2303
kritischen 2303
mitt@@ 2303
Detroit 2302
Greifswald 2302
Nachricht 2302
Willy 2302
bachs 2302
ci 2302
welle 2302
450 2301
Mayer 2301
Solo 2301
Gerät 2300
Strafe 2300
stationen 2300
Bass@@ 2299
Rechtswissenschaft 2299
Hirsch@@ 2298
Mill@@ 2298
ban@@ 2298
betätigte 2298
hor@@ 2298
tat 2298
Adelsgeschlecht 2297
achte 2297
springen 2297
weiß@@ 2297
Schild 2296
UK 2296
CSU 2295
Campus 2295
Clark 2295
produzierten 2295
verlust 2295
Deg@@ 2294
deutliche 2294
Dekanat 2293
Hohl@@ 2293
schriften 2293
Reaktionen 2292
Stufen 2292
Unterseite 2292
lebende 2292
ring@@ 2292
sicherheit 2292
viermal 2292
Erstausstrahlung 2291
Fro@@ 2291
Philologie 2291
Seither 2291
isieren 2291
stern 2291
Außer 2290
Material@@ 2290
Typ@@ 2290
glaubt 2289
wil 2289
Ci@@ 2288
GB 2288
Gos@@ 2288
Wisconsin 2288
alis@@ 2288
eim 2288
Anderson 2287
Bischöfe 2287
Perspektive 2287
Planeten 2287
Reiter 2287
Vorstandsmitglied 2287
orientierten 2287
schnellen 2287
titel 2287
Barock@@ 2286
Bog@@ 2286
Gegenstände 2286
Order 2286
Vize 2286
jüdischer 2286
kette 2286
Ev@@ 2285
Konflikten 2285
Law 2285
Talent 2285
Court 2284
Fried@@ 2284
Geschwister 2284
Kulturen 2284
Syndrom 2284
stat@@ 2284
By@@ 2283
Lou@@ 2283
Nikolai 2283
acken 2283
tungen 2283
wir@@ 2283
Anlehnung 2282
Dirigent 2282
Hard@@ 2282
Hildesheim 2282
maß@@ 2282
verkehrt 2282
vogel 2281
Politikerin 2280
og 2280
verpflichtete 2280
überzeugen 2280
Weblinks 2279
aufzunehmen 2279
eigenem 2279
ines 2279
Polizisten 2278
produkte 2278
Buches 2277
Hü@@ 2276
Prager 2276
Seminar 2276
Zeich@@ 2276
tigung 2276
vögel 2276
Rugby 2275
abgesetzt 2275
rahmen 2275
ände 2275
Naturschutz 2274
Schaffung 2274
Seel@@ 2274
onische 2274
rang 2274
Kab@@ 2273
Kontroll@@ 2273
Thor@@ 2273
Trocken@@ 2273
ausgesprochen 2273
stab 2273
Generalsekretär 2272
Glas 2272
Imp@@ 2272
ares 2272
Verfilmung 2271
Wett@@ 2271
gän@@ 2271
icus 2271
mün@@ 2271
posten 2271
Bruch 2270
Kavallerie 2270
bundes 2270
dorthin 2270
erhöhen 2270
taucht 2270
vermögen 2270
22@@ 2269
Derzeit 2269
Geg@@ 2269
Gleise 2269
schmalen 2269
zonen 2269
ă@@ 2269
Wirklichkeit 2268
ema 2268
gelungen 2268
gemeldet 2268
mm@@ 2268
rollen 2268
tus 2268
wand@@ 2268
vorherigen 2267
Abteilungen 2266
Billy 2265
Bran@@ 2265
División 2265
Häufig 2265
Schauspiel 2265
Sprech@@ 2265
Hey@@ 2264
Temperatur@@ 2264
absolviert 2264
borg 2264
gemein@@ 2264
Kette 2263
aller@@ 2263
ents 2263
ergaben 2263
este 2263
dia 2262
eingeteilt 2262
ragt 2262
Fuchs 2261
befreit 2261
zeitlichen 2261
Allianz 2260
Rel@@ 2260
Vermittlung 2260
leichter 2260
üs@@ 2260
Mittelmeer 2259
erteilt 2259
kultur@@ 2259
Wittenberg 2258
esp@@ 2258
langjährigen 2258
Est@@ 2257
Religions@@ 2257
Zentrale 2257
entfernten 2257
Handlungen 2256
ländlichen 2256
meyer 2256
natürlich 2256
tau@@ 2256
tern@@ 2256
Conference 2255
Playoffs 2255
ansässigen 2255
din@@ 2255
Schil@@ 2254
Strand 2254
ew 2254
innehatte 2254
pp 2254
ský 2254
Lexikon 2253
esk@@ 2253
ira 2253
Ō@@ 2253
Ohne 2252
Zo@@ 2252
kap@@ 2252
wehr@@ 2252
Berechnung 2251
Brust@@ 2251
Space 2251
Lub@@ 2250
Chal@@ 2249
Räumen 2249
leichten 2249
wall 2249
spendete 2248
ators 2247
finanziell 2247
ania 2246
vorhandene 2246
Fünf@@ 2245
Mainzer 2245
Schwanz 2245
blättern 2245
AT@@ 2244
Din@@ 2244
Kärnten 2244
bergen 2244
zel 2244
1300 2243
Bebauung 2243
ungsin@@ 2243
vo@@ 2243
Bron@@ 2242
Profi 2242
gert 2242
Anführer 2241
Militärdienst 2241
Stoff@@ 2241
seitig 2241
Gregor 2240
Seh@@ 2240
Vertretung 2240
Fähigkeit 2239
Willi 2239
abermals 2239
normalerweise 2239
Benz 2238
Ihren 2238
arische 2238
markt@@ 2238
Memorial 2237
nde 2237
AD@@ 2236
Belgrad 2236
Musikvideo 2236
deutsches 2236
kat@@ 2236
Arm 2235
Fokus 2235
Sportler 2235
Wertung 2235
Außenminister 2234
Bühn@@ 2234
Leich@@ 2233
enfeld 2233
Départements 2232
Kreuzung 2232
bra@@ 2232
Lüneburg 2231
Wohnsitz 2231
hardt 2231
Eu@@ 2230
Hanau 2230
waffen 2230
Angabe 2229
Sultan 2228
Anwesenheit 2227
Medaillen 2227
Rog@@ 2227
Zehn@@ 2227
Zweig 2227
durchquert 2227
Bock@@ 2226
anisch 2226
größerer 2226
konferenz 2226
wirtschafts@@ 2226
Kinder- 2225
Pres@@ 2225
identifiziert 2225
101 2224
Irak 2224
blauen 2224
Home 2223
Schaden 2223
enf@@ 2223
keinerlei 2223
soweit 2223
zustande 2223
1796 2222
aup@@ 2222
Beine 2221
fassen 2221
litt 2221
CE@@ 2220
Spannung 2220
flug@@ 2220
vern@@ 2220
Abbildung 2219
Liedern 2219
Miet@@ 2219
Schicht 2219
Spring@@ 2219
basierte 2219
kehrt 2219
Privates 2218
Zoll 2218
einzelner 2218
enab@@ 2218
hain 2218
Dorfkirche 2217
Sum@@ 2217
kommend 2217
preußischer 2217
stärksten 2217
ße 2217
Vorfahren 2216
Zerstörer 2216
ernen 2216
versuch 2216
Öl 2216
Kompanie 2215
Projekten 2215
Siemens 2215
1,3 2214
2.000 2214
Kühl@@ 2214
alp@@ 2214
more 2214
ops 2214
Fußballnationalmannschaft 2213
südwestlichen 2213
Hinter 2212
Leiden 2212
Verwandten 2212
rechter 2212
überall 2212
Asch@@ 2211
Stab 2211
Wenige 2211
orden 2211
Fachwerk@@ 2210
Legislaturperiode 2210
Marken 2210
Antwort 2209
Aufzeichnungen 2209
Entsprechend 2209
Feldzug 2209
Melbourne 2209
Schal@@ 2209
gültigen 2209
notwendigen 2209
wohnten 2209
Flecken 2208
Karl@@ 2208
erzeugen 2208
verwundet 2208
7.@@ 2207
Antarctic 2207
Gründungsmitglied 2207
Kamp@@ 2207
Marcel 2207
Opfer@@ 2207
Professorin 2207
Ten@@ 2207
ios 2207
spezifische 2207
trau@@ 2207
unverändert 2207
äng@@ 2207
Du 2206
opp@@ 2206
Mensch@@ 2205
Wid@@ 2205
heiraten 2205
häufigsten 2205
lehr@@ 2205
Papier 2204
Philippinen 2204
ario 2204
1795 2203
Biologie 2203
Kommunal@@ 2203
Lothringen 2203
ÖVP 2203
Begegnungen 2202
Eishockey@@ 2202
Erhalt 2202
Zy@@ 2202
geschaffenen 2202
vergrößert 2202
Communauté 2201
Nachfrage 2201
Streit@@ 2201
Vorteile 2201
eingesetzten 2201
ells 2201
hohem 2201
let@@ 2201
lungs@@ 2201
Denkmal@@ 2200
dungs@@ 2200
enbahn 2200
kritische 2200
onia 2200
richtig 2200
status 2200
1784 2199
Indianer 2199
Partnerschaft 2199
Wirk@@ 2199
geführten 2199
hersteller 2199
mo 2199
Länderspiele 2198
Reichweite 2198
Walther 2198
förderte 2198
nden 2198
Eintracht 2197
ain@@ 2197
demokratischen 2197
freiwillig 2196
gas 2196
Spät@@ 2195
beschreiben 2195
log@@ 2195
tsch 2195
Organ@@ 2194
Ort@@ 2194
Reichstag 2194
asiatischen 2194
Speicher@@ 2193
heits@@ 2193
Ortsteilen 2192
Rittergut 2192
boten 2192
ret 2192
verteilung 2192
Schwei@@ 2191
UCI 2191
Wahlbezirk 2191
Paare 2190
Peter@@ 2190
Rückseite 2190
jährig 2190
wirkung 2190
Garde 2189
Spielbetrieb 2189
geschichtlichen 2189
tief@@ 2189
It@@ 2188
Magnet@@ 2188
Bergbau@@ 2187
ake 2187
filmen 2187
sechs@@ 2187
Mississippi 2186
enstraße 2186
fäl@@ 2186
interessiert 2186
Bibel@@ 2185
Darauf 2185
Kurfürst 2185
Erkenntnisse 2184
Europameister 2184
Schwarze 2184
erheblichen 2184
gehende 2184
ram 2184
wesens 2184
zusammengeschlossen 2184
Bewegungs@@ 2183
Had@@ 2183
Lis@@ 2182
Werkes 2182
vollständigen 2182
École 2182
Renovierung 2181
Haag 2180
Werbung 2180
testen 2180
Erlaubnis 2179
Helm@@ 2179
entschloss 2179
gelöst 2179
äußere 2179
Hotel@@ 2178
Dorn@@ 2177
elli@@ 2177
4000 2176
Bell 2176
Sieben@@ 2176
üb@@ 2176
Copa 2175
Neg@@ 2175
Vin@@ 2175
zz@@ 2175
Baumeister 2174
Hak@@ 2174
Rev@@ 2174
dien@@ 2174
Mediziner 2173
Unterarten 2173
einrichtung 2173
ë@@ 2173
Astronomen 2172
Indiana 2172
gerechnet 2172
güter 2172
Händen 2171
bewegungen 2171
kanadische 2171
kraft@@ 2171
tiven 2171
Hessischen 2170
U23 2170
schriftlich 2170
Roy 2169
Sakristei 2169
zurückkehrte 2169
Epoche 2168
Kuba 2168
vereinzelt 2168
Olympiasieger 2167
Ott@@ 2167
Prozess@@ 2167
don@@ 2167
nte 2167
ungarische 2167
Absicht 2166
Anlässlich 2166
MA 2166
Regelungen 2166
Wen@@ 2166
Zier@@ 2166
niemals 2166
Leon@@ 2165
lutherischen 2165
Mein@@ 2164
Kreuzer 2163
ffen 2163
ionen 2163
verweist 2163
Kaiserreich 2162
U20 2162
erwähnte 2162
ität@@ 2162
Ansichten 2161
Invasion 2161
erlaubte 2161
ment@@ 2161
partei 2161
AM@@ 2160
Metall 2160
Wohnhäuser 2160
Porträts 2159
musik@@ 2159
städtische 2159
Obersten 2158
leistungen 2158
ßer 2158
Hav@@ 2157
SPÖ 2157
Thron 2157
Area 2156
Banken 2156
Sportarten 2156
Standards 2156
aden@@ 2156
boot 2156
zentrums 2156
AN@@ 2155
Brau@@ 2155
Jakob@@ 2155
trainierte 2155
Ansiedlung 2154
Gas 2154
beln 2154
szene 2154
Blütezeit 2153
aue 2153
fangen 2153
änder 2153
vis@@ 2152
zentren 2152
Dekan 2151
Frucht@@ 2151
Ingenieur@@ 2151
gemeint 2151
immer@@ 2151
rien 2151
Mountain 2150
Server 2150
Tower 2150
Vorschriften 2150
einfacher 2150
iro 2150
mel 2149
position 2149
zugrunde 2149
Anfänge 2148
Dün@@ 2148
Range 2148
Weltrangliste 2148
endeten 2148
ritt 2148
stetig 2148
Türen 2147
Waff@@ 2147
ago 2147
ras@@ 2147
Municipio 2146
Platt@@ 2146
führ@@ 2146
zul@@ 2146
1,6 2145
Dance 2145
Darsteller 2145
Gei@@ 2145
Koch@@ 2145
Last 2145
esi 2145
Öffnung 2145
Liv@@ 2144
gal@@ 2144
lem 2144
römischer 2144
Porsche 2143
arte 2143
äne 2143
einst@@ 2142
Ermittlungen 2141
Projekts 2141
gerichts 2141
islamischen 2141
Lac@@ 2140
Paulus 2140
ary 2140
gymnasium 2140
irischen 2140
pra@@ 2140
rum 2140
zuständigen 2140
Leib@@ 2139
empfangen 2139
gesagt 2139
stands@@ 2139
DA 2138
Fox 2138
Wahrnehmung 2138
sees 2138
stürzte 2138
zwang 2138
örtliche 2138
Erhöhung 2137
HMS 2137
dach 2137
meier 2137
verabschiedet 2137
Braun 2136
Ries@@ 2136
Wild 2136
acker 2136
feuer 2136
geschlossene 2136
kau 2136
untereinander 2136
Abhängigkeit 2135
Beweis 2135
Cover 2135
Mineral 2135
These 2135
Vancouver 2135
burgs 2135
gänzlich 2135
zeugen 2135
Gesetz@@ 2134
Helden 2134
verkörperte 2134
Commonwealth 2133
aufbewahrt 2133
ausdrücklich 2133
Cross 2132
Koh@@ 2132
RS 2132
Unterrichts@@ 2132
Sperr@@ 2131
och 2131
HK 2130
Ja@@ 2130
Signal@@ 2130
brand 2130
heide 2130
reinen 2130
wonach 2130
Linien@@ 2129
anna 2129
auftrat 2129
prozess 2129
stirbt 2129
Baudenkmale 2128
Dau@@ 2128
betroffenen 2128
gotischen 2128
ij@@ 2128
ofen 2128
Ähnlich 2128
Arizona 2127
Chronik 2127
Hahn 2127
Mai@@ 2127
Pakistan 2127
Pir@@ 2127
Weiße 2127
organisierten 2127
unge@@ 2127
Prinzen 2126
ffer 2126
ichen 2126
Bekämpfung 2125
eingeschränkt 2125
erhaus 2125
erhob 2125
interpretiert 2125
ta@@ 2125
1,4 2124
Goldenen 2124
Pferde@@ 2124
Reformen 2124
Tauf@@ 2124
kennt 2124
Af@@ 2123
Dou@@ 2123
IF 2123
Strategie 2123
cha 2123
half 2123
Institution 2122
Saar@@ 2122
halt 2122
mexikanischen 2122
untersuchte 2122
urkundliche 2122
Auguste 2121
Gewinn@@ 2121
flugzeug 2121
mitglied 2121
stad@@ 2121
uen 2121
Begründer 2120
Florian 2120
Jedes 2120
gutes 2120
schickte 2120
Fotografie 2119
Wiesen 2119
gendes 2119
kontinuierlich 2119
setz@@ 2119
voraus 2119
Lizenz@@ 2118
Atlanta 2117
inghausen 2117
Bayreuth 2116
Kau@@ 2116
Standorten 2115
bekamen 2115
kra@@ 2115
westlicher 2115
Klin@@ 2114
dreh@@ 2114
schichten 2114
warten 2114
wirkten 2114
Alter@@ 2113
jeweilige 2113
ý@@ 2113
Manga 2112
Motors 2112
Railroad 2112
entscheidend 2112
öse 2112
Beispielsweise 2111
Bologna 2111
Heeres 2111
Male 2111
Ruhr@@ 2111
anzutreffen 2111
eda 2111
erl@@ 2111
oper@@ 2111
punk@@ 2111
1780 2110
Cruz 2110
Sendungen 2110
neben@@ 2110
1791 2109
Gemeindeteil 2109
herrschaft 2109
kommunistischen 2109
Landesliga 2108
Magazine 2108
komplex 2108
Folgejahr 2107
Dör@@ 2106
Jahrhunderten 2106
Naturdenkmale 2106
ausgeliefert 2106
sieb@@ 2106
Kohle 2105
Ministerpräsidenten 2105
benötigte 2105
meinte 2105
Bischofs 2104
Gefecht 2104
Hang 2104
behauptet 2104
isation 2104
niederländischer 2104
zahl@@ 2104
Cricket 2103
Deb@@ 2103
IT@@ 2103
Lehrer@@ 2103
Microsoft 2103
Urkunden 2103
lie@@ 2103
steuerung 2103
Sak@@ 2102
Sche@@ 2102
Bruch@@ 2101
Festland 2101
Sizilien 2101
geschieht 2101
zurückzu@@ 2101
Holding 2100
Musi@@ 2100
Teilnehmern 2100
dien 2100
erwerben 2100
flotte 2100
ois 2100
CA 2099
Labor 2099
Masters 2099
Stammspieler 2099
hingerichtet 2099
itis 2099
lam@@ 2099
AB 2098
Bezirks 2098
Stadtteile 2098
falsch 2098
vermittelt 2098
Besitz@@ 2097
Dublin 2097
Königlich 2097
Nicolas 2097
aufs 2097
kanadischer 2097
Amerikanischen 2096
Schiffes 2096
verliert 2096
15,@@ 2095
Genre 2095
Grau@@ 2095
Lösungen 2095
Ozean 2095
Platzierungen 2095
Rud@@ 2095
Vide@@ 2095
a- 2095
rob@@ 2095
Fernsehserien 2094
Krankheiten 2094
steller 2094
Department 2093
Opera 2093
ungewöhnlich 2093
Aktiengesellschaft 2092
Norm 2092
ministeriums 2092
Bischofsweihe 2091
Gottes@@ 2091
Kit@@ 2091
Delegation 2090
beheimatet 2090
äm@@ 2090
Minderheit 2089
Schaffen 2089
dam@@ 2089
etts 2089
spor@@ 2089
tert 2089
Gerichtsbarkeit 2088
Gesetzes 2088
Hund 2088
Maine 2088
Posen 2088
Québec 2088
RTL 2088
annähernd 2088
Besonderheiten 2087
Hubert 2087
bus@@ 2087
sorgt 2087
Ausgangs@@ 2086
Produktion@@ 2086
Stei@@ 2086
hau@@ 2086
utz 2086
Reserv@@ 2085
Rückspiel 2085
Wur@@ 2085
gelben 2085
literatur 2085
metall@@ 2085
Gefangenen 2084
Händler 2084
Nordischen 2084
angaben 2084
live 2084
sach@@ 2084
trag@@ 2084
Beck 2083
Mittlerweile 2083
Mör@@ 2083
arius 2083
rische 2083
Ras@@ 2082
Sili@@ 2082
Zehn 2082
Freistil 2081
Gerichtsbezirk 2081
Konstantinopel 2081
ations 2081
mol@@ 2081
Jane 2080
schiff@@ 2080
spor 2080
trennte 2080
EG 2079
Videos 2079
1785 2078
Breisgau 2078
Bäumen 2078
Höchstgeschwindigkeit 2078
Kad@@ 2078
Operationen 2078
Phil@@ 2078
Stri@@ 2078
gedruckt 2078
kast@@ 2078
ufer 2078
Emp@@ 2077
Hals 2077
lokal 2077
spitzen 2077
genen 2076
ä 2076
Krakau 2075
quote 2075
voraus@@ 2075
Ablehnung 2074
rumänischen 2074
wahrgenommen 2074
Ebenen 2073
Kirchengebäude 2073
Reichs 2073
gehörende 2073
schläge 2073
stetten 2073
Gir@@ 2072
Staatsanwaltschaft 2072
Stettin 2072
Unmittelbar 2072
Untergrund 2072
deb@@ 2072
Agnes 2071
Haut@@ 2071
MW 2071
Rast@@ 2071
Tests 2071
Wände 2071
aga 2071
ht 2071
passiert 2071
tropischen 2071
Khan 2070
Knochen 2070
Monarchie 2070
aktiv@@ 2070
gerichtet 2070
starker 2070
zeitschrift 2070
Bayerische 2069
zeichnen 2069
1750 2068
Abriss 2068
Chemiker 2068
erzielten 2068
kas 2068
mag 2068
Hauptstraße 2067
Robin 2067
Southern 2067
Staatsbürgerschaft 2067
Up 2067
1787 2066
9,@@ 2066
Blau@@ 2066
Brust 2066
Katholischen 2066
Nas@@ 2066
Uwe 2066
fortgesetzt 2066
NS@@ 2065
Oberösterreich 2065
kaufen 2065
schwedischer 2065
sur@@ 2065
Beck@@ 2064
ages 2064
ap 2064
Connecticut 2063
angs 2063
eröffneten 2063
ić 2063
streng 2063
Hongkong 2062
Straßenbahn@@ 2062
Immun@@ 2061
Stadtzentrum 2061
laufbahn 2061
A.@@ 2060
Todes 2060
angen 2060
generell 2060
obersten 2060
sar@@ 2060
ämter 2060
æ@@ 2060
Stausee 2059
aben 2059
adi 2059
DIN 2058
History 2058
Lot@@ 2058
Porträt 2058
berufliche 2058
Höfe 2057
Komitee 2057
mithilfe 2057
vorher@@ 2057
Erwerb 2056
GT 2056
Stewart 2056
Verd@@ 2056
verbreiteten 2056
Auflagen 2055
Marsch@@ 2055
Worte 2055
konzentriert 2055
mehrheitlich 2055
orthodoxen 2055
Bruce 2054
Kriege 2054
Magnus 2054
Philippe 2054
Soundtrack 2054
Deren 2053
Rates 2053
Titeln 2053
behalten 2053
lö@@ 2053
negativ 2053
person@@ 2053
Gras@@ 2052
holz@@ 2052
südöstlichen 2052
teren 2052
Erkrankungen 2051
Techniken 2051
hütte 2051
juristischen 2051
sts 2051
Bürgerschaft 2050
Fabrik@@ 2050
Höchst@@ 2050
Normandie 2050
gas@@ 2050
Fan@@ 2049
Vir@@ 2049
Weihbischof 2049
chef 2049
neun@@ 2049
Kupfer 2048
Schwerpunkte 2048
Vertrieb 2048
fonds 2048
barocken 2047
ungser@@ 2047
ziel@@ 2047
1400 2046
Qualitäts@@ 2046
pert 2046
strasse 2046
Kenntnisse 2045
Ressourcen 2045
Schatten 2045
Söhnen 2045
ographische 2045
raums 2045
Australia 2044
Liverpool 2044
Kilogramm 2043
Kongres@@ 2043
Physiker 2043
ć 2043
Auftreten 2042
Ermland 2042
Theorien 2042
Zar@@ 2042
Special 2041
ativer 2041
ethnischen 2041
rede 2041
Bast@@ 2040
Brief@@ 2040
Erik 2040
Hop 2040
Regen@@ 2040
Stone 2040
heit@@ 2040
Ang@@ 2039
Nelson 2039
Performance 2039
ank 2039
icht@@ 2039
Ç@@ 2039
Kevin 2038
Meilen 2038
Long@@ 2037
Tex@@ 2037
Wolff 2037
inseln 2037
vin 2037
Mang@@ 2036
Stadtmauer 2036
bungen 2036
cor@@ 2036
mos@@ 2036
nordöstlichen 2036
Festungs@@ 2035
Stammes@@ 2035
eser 2035
tens 2035
ult 2035
Kuh@@ 2034
Missions@@ 2034
Not 2034
ine@@ 2034
osp@@ 2034
Bedrohung 2033
ckt 2033
Abschnitte 2032
Experten 2032
Lincoln 2032
Umsatz 2032
verziert 2032
zeitlich 2032
zun@@ 2032
ösen 2032
Bour@@ 2031
Inszenierung 2031
Schu@@ 2031
Skulptur 2031
Som@@ 2031
lösung 2031
tausend 2031
8.@@ 2030
Margaret 2030
benachbarte 2030
geschäfte 2030
AT 2029
Nam@@ 2029
17@@ 2028
Is 2028
Meisterschafts@@ 2028
amer@@ 2028
Übersetzungen 2028
Challenge 2027
Chlor@@ 2027
abgesehen 2027
nisses 2027
zentral 2027
hre 2026
osch@@ 2026
Adel 2025
Meeresspiegel 2025
Ner@@ 2025
breiter 2025
endung 2025
sech@@ 2025
stimmte 2025
Erstbeschreibung 2024
Hinblick 2024
Ple@@ 2024
riss 2024
vorgeschlagen 2024
wirft 2024
Allgemeines 2023
Konzerten 2023
Lein@@ 2023
Lübecker 2023
Stol@@ 2023
Tennessee 2023
lös@@ 2023
wan@@ 2023
Afghanistan 2022
Hed@@ 2022
Turniere 2022
Weis@@ 2022
iern 2022
Edmund 2021
Hartmann 2021
Synchronisation 2021
Sä@@ 2021
Viktor 2021
bibliothek 2021
neur@@ 2021
angewiesen 2020
besitz 2020
bürger@@ 2020
kreises 2020
liefen 2020
Fische 2019
gängen 2019
shofen 2019
Beschäftigung 2018
Kreisen 2018
Ligakonkurrenten 2018
igem 2018
literarische 2018
rechnung 2017
Decke 2016
Puerto 2016
behaart 2016
eiche 2016
med@@ 2016
Berger 2015
Gottlieb 2015
Ruhe 2015
Spenden 2015
ausländischen 2015
ärer 2015
Burgen 2014
Programms 2014
Sitzung 2014
bildenden 2014
siedelten 2014
Café 2013
Hohen 2013
Nordost@@ 2013
Ufer@@ 2013
Gastgeber 2012
Konstantin 2012
Singapur 2012
ards 2012
braune 2012
entscheidenden 2012
wa@@ 2012
Mont 2011
altung 2011
bung 2011
stadt@@ 2011
wehr 2011
Kies@@ 2010
Ruder@@ 2010
cken@@ 2010
gebenden 2010
nau 2010
Kran@@ 2009
Nick 2009
On 2009
Prototyp 2009
ammlung 2009
beginn 2009
ordnete 2009
Östlich 2009
Benennung 2008
Rub@@ 2008
egg 2008
Leder@@ 2007
Störungen 2007
Kob@@ 2006
Nachwuch@@ 2006
Parlamentswahlen 2006
abel 2006
gestiftet 2006
Abstimmung 2005
angeführt 2005
eigens 2005
produzieren 2005
wichtiges 2005
Basilika 2004
Büro@@ 2004
Pilot 2004
Sicherheit@@ 2004
Zweifel 2004
genutzten 2004
ungspro@@ 2004
Abenteuer 2003
Kirchturm 2003
ef 2003
etablieren 2003
Estland 2002
Frühe 2002
IC@@ 2002
Laur@@ 2002
Reichsk@@ 2002
Emma 2001
Jos@@ 2001
Tok@@ 2001
Vielfalt 2001
170 2000
Bezirk@@ 2000
Boris 2000
Run@@ 2000
ower 2000
Südwest 1999
Westlich 1999
wechselten 1999
Office 1998
Sv@@ 1998
mas 1998
Bé@@ 1997
Ken@@ 1997
Konflikte 1997
Provinz@@ 1996
geklärt 1996
inae 1996
offen@@ 1996
pper 1996
Denkmalliste 1995
Stan@@ 1995
jahren 1995
mil@@ 1995
udi@@ 1995
Basi@@ 1994
Streich@@ 1994
Vorträge 1994
Christentum 1993
werfen 1993
én@@ 1993
Faktor 1992
Jordan 1992
Riga 1992
Ré@@ 1992
ühle 1992
FI@@ 1991
Feier 1991
Landschaften 1991
Lothar 1991
Miami 1991
Modellen 1991
geborenen 1991
konzept 1991
strich 1991
sätze 1991
wie@@ 1991
Achter 1990
Charakter@@ 1990
Spannungen 1990
Spor@@ 1990
zunehmenden 1990
Bayer 1989
Departamento 1989
Komplex 1989
Norbert 1989
Weich@@ 1989
Zentrums 1989
appen 1989
leh@@ 1989
quer 1989
übliche 1989
Bekannte 1988
Global 1988
Tempel@@ 1988
ensen 1988
entscheidende 1988
gre@@ 1988
Bischof@@ 1987
Landschaftsschutzgebiet 1987
Möglicherweise 1987
Namensgeber 1987
RA@@ 1987
Sklaven 1987
meint 1987
moderner 1987
sam 1987
stunden 1987
Vorgehen 1986
aris 1986
wäldern 1986
10.@@ 1985
Rah@@ 1985
Vulkan@@ 1985
Wall 1985
atten 1985
gefasst 1985
Dur 1984
Köl@@ 1984
trennt 1984
Antwerpen 1983
Hut@@ 1983
Teils 1983
ausgegangen 1983
cker@@ 1983
eben@@ 1983
ologin 1983
regelmäßigen 1983
Kriegsgefangenschaft 1982
Merkmal 1982
festgenommen 1982
inhaftiert 1982
nd 1982
Landstraße 1981
Schulz 1981
itze 1981
net@@ 1981
3D 1980
Goldene 1980
Kohle@@ 1980
erfolgreicher 1980
gi 1980
loser 1980
mitunter 1980
positiven 1980
zitiert 1980
3.000 1979
Edgar 1979
Heb@@ 1979
abgebildet 1979
gliedert 1979
zugesprochen 1979
IUCN 1978
Nest@@ 1978
uma 1978
Kommunistischen 1977
Schle@@ 1977
selbständige 1977
zo 1977
Comics 1976
Nachbarn 1976
etliche 1976
jenseits 1976
mitglieder 1976
nordwestlichen 1976
richten 1976
schaftlichen 1976
Anfangs 1975
Arbeitsgemeinschaft 1975
Luftlinie 1975
deutet 1975
Box 1974
Büch@@ 1974
Länderspiel 1974
Sächsischen 1974
Ursula 1974
bogen@@ 1974
bst@@ 1974
nen@@ 1974
platz@@ 1974
40.000 1973
DS 1973
Theaters 1973
Vorname 1973
eist@@ 1973
schnelle 1973
zeitweilig 1973
Captain 1972
Gewerkschaft 1972
Kell@@ 1972
Lloyd 1972
berechnet 1972
bittet 1972
ila 1972
imp@@ 1972
zurückkehren 1972
š 1972
Bein@@ 1971
Burgh@@ 1971
Labor@@ 1971
Lich@@ 1971
Roma 1971
Schwester@@ 1971
alisierte 1971
fs@@ 1971
nachweisen 1971
Artillerie@@ 1970
FFH 1970
Frederick 1970
gesucht 1970
malerei 1970
Cottbus 1969
Gesetzes@@ 1969
Linden@@ 1969
Platten@@ 1969
erisch 1969
hob 1969
15.000 1968
2000er 1968
Clara 1968
Handball@@ 1968
Kult@@ 1968
Nutzer 1968
Pause 1968
Pianist 1968
hi 1968
national 1968
Bauzeit 1967
Iwan 1967
ho 1967
institut 1967
ques 1967
Autos 1966
Liechtenstein 1966
Tit@@ 1966
gesungen 1966
Anstieg 1965
Jer@@ 1965
Lawrence 1965
Nummern 1965
Speyer 1965
Will 1965
entsp@@ 1965
farbe 1965
inger@@ 1965
montiert 1965
richtungen 1965
rom 1965
Ansprüche 1964
Scho@@ 1964
keln 1964
tos 1964
Diplom@@ 1963
Verpflichtung 1963
Wahlgang 1963
olympischen 1963
schie@@ 1963
steiner 1963
Ble@@ 1962
Russell 1962
Via 1962
hö@@ 1962
′ 1962
Ei@@ 1961
Sag@@ 1961
Zeugen 1961
liger 1961
nutzten 1961
Ehrenmitglied 1960
Letztere 1960
etabliert 1960
Tap@@ 1959
Basketball@@ 1958
Disney 1958
funktionen 1958
pflege 1958
rin 1958
Sofia 1957
Wäldern 1957
itt 1957
mitten 1957
chter 1956
Gener@@ 1955
Parlament@@ 1955
SC@@ 1955
ey@@ 1955
ziert 1955
Leb@@ 1954
Leben@@ 1954
Mönchengladbach 1954
Realität 1954
Staffel@@ 1954
Tennis@@ 1954
Wagen@@ 1954
beruflichen 1954
finale 1954
ibn 1954
Kugel@@ 1953
ere@@ 1953
gro@@ 1953
ossen 1953
Aufführungen 1952
Ausstrahlung 1952
Bürgern 1952
Erscheinungsbild 1952
Moderator 1952
doppelt 1952
kol@@ 1952
siedelte 1952
zeitliche 1952
Ausnahmen 1951
Ländereien 1951
Neumann 1951
Passagier@@ 1951
ographischen 1951
Gruppenphase 1950
Magdalena 1950
australische 1950
fu@@ 1950
gesellschaftliche 1950
mei@@ 1950
Böh@@ 1949
Fähr@@ 1949
Kreisstraße 1949
Kru@@ 1949
ance 1949
angewendet 1949
aufnahm 1949
auseinander@@ 1949
behauptete 1949
Hot 1948
Ketten@@ 1948
Social 1948
dieselbe 1948
württembergischen 1948
Baudenkmal 1947
Gestapo 1947
oden 1947
phen 1947
turnier 1947
vorbereitet 1947
Sainte 1946
Schlos@@ 1946
Studies 1946
geordnet 1946
Hip 1945
Keramik 1945
kurs 1945
Neub@@ 1944
Shanghai 1944
Steinen 1944
Systemen 1944
altar 1944
Haute 1943
Mönche 1943
Schweizerischen 1943
ariat 1943
erz@@ 1943
Kunstakademie 1942
Motto 1942
Patent 1942
Stoffe 1942
stärkste 1942
Bundestagswahl 1941
Denis 1941
Konkurrenten 1941
LE@@ 1941
Tann@@ 1941
dik@@ 1941
pass 1940
wahlen 1940
Forest 1939
Fund 1939
Gattin 1939
Inschriften 1939
direktion 1939
dominiert 1939
Gebäude@@ 1938
Konzentration 1938
Sieben 1938
Streck@@ 1938
dert 1938
einbezogen 1938
ersdorf 1938
muster 1938
Österreichische 1938
Dé@@ 1937
Hauptquartier 1937
Sierra 1937
Verbands@@ 1937
1783 1936
Laubblätter 1936
bü@@ 1936
flach 1936
genauso 1936
ux 1936
1788 1935
Häftlinge 1935
Taiwan 1935
alia 1935
alle@@ 1935
mächtigen 1935
ungsprozess 1935
zweigt 1935
20,@@ 1934
Dy@@ 1934
archäologische 1934
elektronische 1934
methoden 1934
unmöglich 1934
wood 1933
Atem@@ 1932
Habilitation 1932
Hl 1932
Orleans 1932
genügend 1932
Kolumbien 1931
Russlands 1931
disch 1931
16,@@ 1930
Mineral@@ 1930
Schlüssel 1930
berater 1930
ems 1930
spät 1930
Masuren 1929
amtierte 1929
auseinander 1929
trieb@@ 1929
Antoine 1928
Einladung 1928
Gesangs@@ 1928
Mode 1928
360 1927
Pokal@@ 1927
nad 1927
parti@@ 1927
set 1927
zueinander 1927
Wiederherstellung 1926
struktur@@ 1926
zurückgezogen 1926
Harris 1925
gebraucht 1925
now 1925
Steuerung 1924
absolvieren 1924
ater@@ 1924
ign@@ 1924
sicht@@ 1924
AP@@ 1923
Bergh@@ 1923
Dialekt 1923
inc@@ 1923
Hals@@ 1922
flüge 1922
from 1922
grab 1922
Aktivität 1921
Haushalt 1921
Laura 1921
öll@@ 1921
ś@@ 1921
Kletter@@ 1920
elektro@@ 1920
oo@@ 1920
sfeld 1920
Bukarest 1919
Dave 1919
Ek@@ 1919
Gotha 1919
Mans 1919
Place 1919
Seil@@ 1919
Tem@@ 1919
Wart@@ 1919
stadion 1919
verglichen 1919
vormals 1919
Karten@@ 1918
Mixed 1918
israelischen 1918
ordentlicher 1918
Alkohol@@ 1917
Tul@@ 1917
gestellten 1917
trä@@ 1917
Synchron@@ 1916
elbach 1916
förder@@ 1916
gebe 1916
ziemlich 1916
1786 1915
Maschin@@ 1915
ORF 1915
arti@@ 1915
Stadtverwaltung 1914
Indonesien 1913
Uruguay 1913
angeb@@ 1913
gotische 1913
o. 1913
220 1912
Cra@@ 1912
Preisträger 1912
Zir@@ 1912
amin 1912
err@@ 1912
heilige 1912
ty@@ 1912
Abfahrt 1911
Notwendigkeit 1911
o- 1911
radi@@ 1911
Gegenüber 1910
Truppe 1910
VIII. 1910
gabe 1910
gerettet 1910
gewinnung 1910
überlassen 1909
Dritt@@ 1908
Kongo 1908
Kulturdenkmäler 1908
Leucht@@ 1908
Spur 1908
bedeutendste 1908
lass@@ 1908
platzierten 1908
zumal 1908
Ausgang 1907
Gefährdung 1907
Grün 1907
Raub@@ 1907
Wellen@@ 1907
enberger 1907
sus 1907
Aufschwung 1906
Klima@@ 1906
Trophy 1906
gebrochen 1906
vorn 1906
God@@ 1905
Lichtjahre 1905
Religionen 1905
leichte 1905
ruf 1905
Überlegungen 1905
Koll@@ 1904
allee 1904
außer@@ 1904
erd@@ 1904
zus@@ 1904
Bit 1903
Haltestelle 1903
Nahrungs@@ 1903
eli 1903
messen 1903
Debatte 1902
Justiz 1902
Mam@@ 1902
Pflanzenart 1902
29@@ 1901
Nachbarschaft 1901
armen 1901
auswahl 1901
inspiriert 1901
massiv 1901
planung 1901
Gotteshaus 1900
Kirchenschiff 1900
Protagonisten 1900
nor@@ 1900
spitz@@ 1900
1,8 1899
Kommunikations@@ 1899
Oberstleutnant 1899
Persönlichkeit 1899
Touristen 1899
Wikipedia 1899
historiker 1899
ths 1899
18,@@ 1898
Axel 1898
Lehrerin 1898
Lieb@@ 1898
arbeits@@ 1898
fassade 1898
usen 1898
wahren 1898
Beobachtungen 1897
Iowa 1897
SO@@ 1897
fähigen 1897
Lisa 1896
Signal 1896
neueren 1896
Hochaltar 1895
igkeiten 1895
wo@@ 1895
Kindergarten 1894
Lenk@@ 1894
nachweisbar 1894
öß@@ 1894
Berücksichtigung 1893
Dialog 1893
Flensburg 1893
Käfer 1893
braunen 1893
tit@@ 1893
Gon@@ 1892
Klubs 1892
Komm@@ 1892
Pokalsieger 1892
forderten 1892
kehrten 1892
rufen 1892
ßt 1892
aufzubauen 1891
Zügen 1890
studien 1890
Coburg 1889
umgestaltet 1889
Mrd. 1888
Wahrscheinlichkeit 1888
band@@ 1888
häusern 1888
tin 1888
9.@@ 1887
Patri@@ 1887
Ralph 1887
8,@@ 1886
Beobachtung 1886
Polit@@ 1886
Wetter 1886
demselben 1886
eiförmig 1886
notwendige 1886
Landtags 1885
Werks@@ 1885
ausgeliehen 1885
Sparkasse 1884
warum 1884
zel@@ 1884
Amt@@ 1883
Betreuung 1883
Bundesautobahn 1882
Heilig@@ 1882
halb 1882
Kenntnis 1881
Pedal 1881
tab@@ 1881
tors 1881
zut@@ 1881
ous 1880
Fleisch 1879
abe 1879
genehmigt 1879
inen@@ 1879
ätz@@ 1879
104 1878
Russen 1878
schaftliche 1878
veranlasste 1878
vertreter 1878
Erzähler 1877
Genres 1877
Münster@@ 1877
schätzungsweise 1877
tigten 1877
1770 1876
Italiens 1876
Maximilians 1876
Morgan 1876
Vietnam 1876
verlangt 1876
Meer@@ 1875
Olympia 1875
Spanier 1875
geführte 1875
oth@@ 1875
Für@@ 1874
brücken 1874
hofer 1874
Informatik 1873
Popularität 1873
Leonhard 1872
Physi@@ 1872
Sockel 1872
angesch@@ 1872
begangen 1872
Krem@@ 1871
Spektrum 1871
brü@@ 1871
flog 1871
Forst 1870
Haup@@ 1870
Kant@@ 1870
alisierten 1870
elektronischen 1870
eur@@ 1870
schriftliche 1870
verfolgte 1870
Amtsbezirk 1869
Auschwitz 1869
Kandidatur 1869
Küh@@ 1869
Ruth 1869
Schuld 1869
anim@@ 1869
griffen 1869
nutz@@ 1869
sprach@@ 1869
Broadway 1868
Gedenken 1868
Innern 1868
Over@@ 1868
gang@@ 1868
pass@@ 1868
rau 1868
trennen 1868
verschwunden 1868
veröffentlichen 1868
wofür 1868
Antonius 1867
Mahl@@ 1867
dep@@ 1867
digung 1867
eventuell 1867
register 1867
reuth 1867
Apsis 1866
Knochen@@ 1866
geschichtliche 1866
hof@@ 1866
skaja 1866
Cour@@ 1865
Mehr 1865
erweiterten 1865
Eil@@ 1864
Politisch 1864
Verlegung 1864
sekretär 1864
vertretung 1864
AM 1863
Angreifer 1863
Bevor 1863
Canada 1863
Virus 1863
klinik 1863
lock@@ 1863
sau@@ 1863
Stab@@ 1862
VI 1862
lte 1862
schütz@@ 1862
solches 1862
starten 1862
verwandten 1862
Andererseits 1861
Schulzeit 1861
ont 1861
veränderte 1861
1775 1860
Pfarrhaus 1860
maler 1860
stechnik 1860
Caspar 1859
Marokko 1859
Regen 1859
alls 1859
ländische 1859
· 1859
Aufsicht 1858
Regierungszeit 1858
Sage 1858
Stade 1858
Zimmer@@ 1858
Zwerg@@ 1858
kirchliche 1858
mannschaften 1858
oro 1858
plat@@ 1858
verlaufenden 1858
Ali@@ 1857
Alpes 1857
Ann 1857
Farm 1857
Lach@@ 1857
Rotterdam 1857
Wirtschaft@@ 1857
division 1857
itzen 1857
kosten@@ 1857
zeitgenössische 1857
Bearbeitung 1856
Bug@@ 1856
Handeln 1856
Löwen@@ 1856
Raymond 1856
feldern 1856
kov@@ 1856
linker 1856
eid 1855
nah 1855
Maryland 1854
Renault 1854
befreien 1854
lic@@ 1854
Olympi@@ 1853
besuchten 1853
ish 1853
sicherung 1853
wohl@@ 1853
Neffe 1852
Sozi@@ 1852
bene 1852
masse 1852
verstärkte 1852
Niedergang 1851
Nutzen 1851
benutzte 1851
lieder 1851
ria 1851
verbands 1851
Diensten 1850
Träger@@ 1850
elin 1850
Aufgebot 1849
Evangel@@ 1849
Tuch@@ 1849
Zelle 1849
erlangen 1849
national@@ 1849
Amp@@ 1848
Wapp@@ 1848
erstellte 1848
regelmäßige 1848
tätigen 1848
Dim@@ 1847
Englischen 1847
Ludwigs 1847
Verk@@ 1847
eto 1847
inmitten 1847
lenk@@ 1847
störungen 1847
antrieb 1846
europäischer 1846
fähige 1846
hohes 1846
jewitsch 1846
mäßigen 1846
Angebote 1845
Ern@@ 1845
Gräber 1845
esten 1845
gungen 1845
Eingemeindung 1844
Metz 1844
Porto 1844
Pseud@@ 1844
Weinbau 1844
otti 1844
sportlichen 1844
Demokraten 1843
Gewinnung 1843
Rückstand 1843
Gy@@ 1842
Naturschutz@@ 1842
Siegel 1842
Verdacht 1842
Benannt 1841
Sant@@ 1841
Seeh@@ 1841
Stücken 1841
Verhältnissen 1841
asa 1841
communes 1841
eilung 1841
geschaffene 1841
gewählte 1841
netz@@ 1841
spezifischen 1841
• 1841
BC 1840
Dorothea 1840
dei 1840
reicher 1840
sth@@ 1840
zugehörigen 1840
GG 1839
Poli@@ 1839
Slowenien 1839
besiegt 1839
darstellte 1839
erwähnten 1839
gestrichen 1839
Ökologie 1839
Harz 1838
amts 1838
oss 1838
Übersetzer 1838
Nova 1837
XX@@ 1837
deg@@ 1837
itter@@ 1837
not 1837
28@@ 1836
erobert 1836
zurzeit 1836
Nab@@ 1835
Zeitungs@@ 1835
det@@ 1835
fehler 1835
trans@@ 1835
verbänden 1835
ähnlicher 1835
ö 1835
Kindes 1834
Klu@@ 1834
Wettbewerben 1834
negative 1834
scharf 1834
Konfession 1833
Mast@@ 1833
Pionier@@ 1833
Rücken@@ 1833
Tiroler 1833
pflanz@@ 1833
Empore 1832
Jun@@ 1832
Rus@@ 1832
Synthese 1832
mechanische 1832
Milchstraße 1831
Stoff 1831
versuche 1831
Bowl 1830
Elb@@ 1830
Künstlers 1830
Pé@@ 1830
Volkspartei 1830
fließen 1830
idi@@ 1830
mü@@ 1830
systemen 1830
ahnen 1829
chan@@ 1829
hinzugefügt 1829
1772 1828
Geis@@ 1828
Gerd 1828
Lagen 1828
Mangel 1828
Mittel- 1828
Offensive 1828
Worms 1828
bemühte 1828
erenden 1828
gehenden 1828
nachträglich 1828
Kunden@@ 1827
Liefer@@ 1827
Menschenrechte 1827
News 1827
gefordert 1827
überquert 1827
überzeugt 1827
AB@@ 1826
Denken 1826
Zusammenbruch 1826
boote 1826
ID 1825
Kart@@ 1825
Pog@@ 1825
Schützen@@ 1825
Zit@@ 1825
Zuordnung 1825
spiegel 1825
Avenue 1824
Philosophen 1824
Plateau 1824
Realschule 1824
rer 1824
17,@@ 1823
Antrieb@@ 1823
Themen@@ 1823
Vas@@ 1823
avancierte 1823
eich 1823
schenkte 1823
seltene 1823
Got@@ 1822
Journalistin 1822
Kennedy 1822
Naturwissenschaften 1822
Arch@@ 1821
Chin@@ 1821
Johan 1821
Verkaufs@@ 1821
verordnung 1821
Früher 1820
Lungen@@ 1820
licht@@ 1820
prägte 1820
zin 1820
Dür@@ 1819
Landeshauptstadt 1819
Rapper 1819
SR 1819
amin@@ 1819
ausländische 1819
typen 1819
Ech@@ 1818
Einteilung 1818
Jonathan 1818
Monument 1818
Past@@ 1818
Senioren 1818
ausgelöst 1818
produkt 1818
stücken 1818
Bauweise 1817
Erscheinen 1817
Pietro 1817
kov 1817
massiven 1817
wes@@ 1817
1776 1816
Eisenbahnstrecke 1816
Gebiets@@ 1816
Stütz@@ 1816
arium 1816
Fü@@ 1815
Palästina 1815
Volksk@@ 1815
dichten 1815
fü@@ 1815
kommende 1815
wenden 1815
Bilder@@ 1814
Bühnen 1814
End 1814
Philosoph 1814
diejenigen 1814
digt 1814
onien 1814
ê@@ 1814
Büros 1813
Dö@@ 1813
Engagements 1813
Hex@@ 1813
Match 1813
block 1813
rig 1813
Folgejahren 1812
Fürsten@@ 1812
Hur@@ 1812
Loch@@ 1812
Magn@@ 1812
OR@@ 1812
Schein@@ 1812
nördlicher 1812
Aktien 1811
Dauer@@ 1811
Hills 1811
Hyp@@ 1811
Schütz@@ 1811
Spreng@@ 1811
feier 1811
gemeinschaften 1811
genutzte 1811
gewertet 1811
gol@@ 1811
lobte 1811
scheinen 1811
Brücken@@ 1810
Pest 1810
Saf@@ 1810
Satteldach 1810
ffer@@ 1810
meisterin 1810
Esp@@ 1809
Gewässer@@ 1809
Gitarristen 1809
Hamm 1809
Kosten@@ 1809
Landung 1809
Spe@@ 1809
cio 1809
Blüte 1808
Kath@@ 1808
Story 1808
Viertel@@ 1808
gesetzlichen 1808
versi@@ 1808
Bah@@ 1807
Friedrich@@ 1807
Helene 1807
K.@@ 1807
Ox@@ 1807
Wunder@@ 1807
freund@@ 1807
var@@ 1807
Bauch@@ 1806
Contest 1806
Miguel 1806
Publikation 1806
anger 1806
betragen 1806
erwiesen 1806
iz 1806
Jung 1805
Meisterin 1805
Pie@@ 1805
Unterfamilie 1805
Verbleib 1805
baden 1805
erhöhten 1805
erschienene 1805
meister@@ 1805
regel@@ 1805
schien 1805
umgekehrt 1805
Jäger@@ 1804
Vic@@ 1804
bestimmter 1804
prot@@ 1804
staatlich 1804
uer@@ 1804
Benz@@ 1803
Bestände 1803
Busch@@ 1803
HD 1803
Rats@@ 1803
Schnabel 1803
angelegten 1803
hinaus@@ 1803
BA 1802
Berner 1802
Saal@@ 1802
dos 1802
informiert 1802
ka@@ 1802
lan 1802
verlag 1802
zunehmende 1802
ägyptischen 1802
Canadian 1801
Fo@@ 1801
Grundstein 1801
Klage 1801
Staatssekretär 1801
WDR 1801
letztendlich 1801
otischen 1801
schießen 1801
Mond 1800
Oh@@ 1800
Pensionierung 1800
berühmte 1800
com@@ 1800
dunkel 1800
herrscht 1800
orin 1800
Franklin 1799
Färbung 1799
Millimetern 1799
Richtlinie 1799
chens 1799
mus@@ 1799
Direkt@@ 1798
Graham 1798
Schmal@@ 1798
Verfasser 1798
ausgesch@@ 1798
komplexe 1798
lateinisch 1798
studiert 1798
Kulturgüter 1797
O. 1797
atur@@ 1797
staats@@ 1797
straf@@ 1797
technischer 1797
Flächen@@ 1796
Hütten@@ 1796
Rechtsprechung 1796
bezirks 1796
durchgehend 1796
mischen 1796
Franziskus 1795
Mars 1795
Rauch@@ 1795
Ruh@@ 1795
Ruinen 1795
102 1794
6,5 1794
Cham@@ 1794
Charaktere 1794
rist@@ 1794
Auftritten 1793
Bundesministerium 1793
Einwohnerentwicklung 1793
Engineering 1793
Nenn@@ 1793
glauben 1793
kleinste 1793
oux 1793
westfälischen 1793
Disk@@ 1792
nehmer 1792
portal 1792
sion@@ 1792
Effekte 1791
Hang@@ 1791
Mittelalters 1791
N. 1791
ils 1791
Anton@@ 1790
Houston 1790
PA 1790
Zähne 1790
deuten 1790
iko 1790
Ausschusses 1789
Beau@@ 1789
Flugzeugen 1789
Il 1789
Kak@@ 1789
Lucas 1789
vater 1789
Armen 1788
Diskussionen 1788
Fußballverein 1788
Malers 1788
Miss 1788
Prinzipien 1788
Schröder 1788
Türme 1788
gestanden 1788
Beschäftigten 1787
Ful@@ 1787
Morgen@@ 1787
NE@@ 1787
Oberlauf 1787
Vog@@ 1787
echte 1787
erinn@@ 1787
niedersächsischen 1787
online 1787
Bassist 1786
Kaiserslautern 1786
Zimmermann 1786
wiedergewählt 1786
Bundesland 1785
Präsidentin 1785
Til@@ 1785
breit@@ 1785
dener 1785
eichen 1785
iums 1785
Student 1784
eg 1784
inski 1784
Anbindung 1783
isten@@ 1783
oy@@ 1783
1777 1782
Absatz 1782
Dynamo 1782
SE 1782
Zeichner 1782
kriegs@@ 1782
Bürgermeisters 1781
TA 1781
istisches 1781
primär 1781
psych@@ 1781
vorkommt 1781
Großherzogtum 1780
Mobil@@ 1780
archäologischen 1780
fehlenden 1780
glich 1780
verzeichnis 1780
и@@ 1780
Air@@ 1779
Anbieter 1779
Ander@@ 1779
Propaganda 1779
eroberte 1779
niedriger 1779
sieg 1779
wirksam 1779
Fernsehsender 1778
enschule 1778
fusionierte 1778
vari@@ 1778
Flur@@ 1777
Zyklus 1777
absolute 1777
antike 1777
eau 1777
einstigen 1777
orn@@ 1777
preise 1777
projekte 1777
werkstatt 1777
Ereignissen 1776
Pädagogik 1776
bru@@ 1776
iser 1776
sig@@ 1776
Emeritierung 1775
Fresken 1775
Latein 1775
Triathlon 1775
südlicher 1775
19,@@ 1774
Oberseite 1774
Traditionen 1774
agn@@ 1774
angefertigt 1774
trainiert 1774
AK 1773
Baby 1773
DR 1773
Phänomen 1773
Spä@@ 1773
sprecher 1773
stän@@ 1773
Anim@@ 1772
Großer 1772
Peak 1772
Tote 1772
hölzerne 1772
pfälzischen 1772
Car 1771
Lep@@ 1771
Sieg@@ 1771
fried@@ 1771
rock 1771
wig 1771
ík 1771
5,5 1770
Jens 1770
Kie@@ 1770
Nations 1770
brief 1770
leer 1770
wurf 1770
Boeing 1769
Marseille 1769
Mittelfeld 1769
Palä@@ 1769
Wend@@ 1769
branche 1769
entkommen 1769
jenes 1769
ortes 1769
philosophischen 1769
pon@@ 1769
Fli@@ 1768
direkter 1768
Dick@@ 1767
Instanz 1767
Paaren 1767
Sn@@ 1767
vollendet 1767
Einweihung 1766
Wir@@ 1766
brenn@@ 1766
can@@ 1766
flügel@@ 1766
skon@@ 1766
usch@@ 1766
zimmer 1766
Li 1765
Rez@@ 1765
Wohnungs@@ 1765
betonte 1765
erbauten 1765
sieger 1765
ystem 1765
Caroline 1764
Kranken@@ 1764
Num@@ 1764
Umwandlung 1764
Unterart 1764
aer 1764
angetrieben 1764
ital@@ 1764
tia 1764
Überwachung 1764
Aufträge 1763
Erneuerung 1763
Klöster 1763
anschließende 1763
vollkommen 1763
Andy 1762
Chinas 1762
FIFA 1762
Nordsee 1762
Northern 1762
YouTube 1762
anden 1762
gab@@ 1762
vereinen 1762
Eb@@ 1761
Erinnerungen 1761
SP 1761
Solche 1761
sich@@ 1761
Cousin 1760
Gleis 1760
Parker 1760
reifen 1760
romanischen 1760
Erfinder 1759
Gottesdienst 1759
Leicht@@ 1759
Mou@@ 1759
antes 1759
digitalen 1759
indi@@ 1759
kostete 1759
én 1759
ą@@ 1759
ISO 1758
Nationalrat 1758
gler 1758
änderung 1758
Esch@@ 1757
Kreuzes 1757
Tochtergesellschaft 1757
Zeichnung 1757
ampf 1757
erm@@ 1757
qui@@ 1757
Fun@@ 1756
Unruhen 1756
ede 1756
halbes 1756
stiftete 1756
Aur@@ 1755
Bakterien 1755
Black@@ 1755
kowski 1755
reib@@ 1755
ud 1755
Ernest 1754
Klassenerhalt 1754
thaus 1754
Cav@@ 1753
Erhebungen 1753
Gerichtshof 1753
Messung 1753
Repertoire 1753
gewinn 1753
kus 1753
11@@ 1752
Blu@@ 1752
Forstwirtschaft 1752
Gun@@ 1752
Kairo 1752
gelangten 1752
inszenierte 1752
schafft 1752
1782 1751
Bie@@ 1751
Born@@ 1751
Etymologie 1751
Murray 1751
Wiederaufstieg 1751
Abbruch 1750
Bit@@ 1750
Schnitt@@ 1750
Sed@@ 1750
arch@@ 1750
ausgetragenen 1750
einsetzte 1750
erende 1750
gewalt 1750
itionen 1750
juristische 1750
theoretischen 1750
1778 1749
Beratung 1749
Rhône 1749
bühne 1749
gesendet 1749
iff@@ 1749
ions@@ 1749
spek@@ 1749
stattfindet 1749
Ansbach 1748
Glaubens 1748
beit@@ 1748
böhmischen 1748
Bande 1747
Evans 1747
Trock@@ 1747
trainer 1747
Empire 1746
Mä@@ 1746
entfernte 1746
nice 1746
universität 1746
Fertigung 1745
Gü@@ 1745
Schönheit 1745
Steuern 1745
chi@@ 1745
repräsentiert 1745
ruppe 1745
unmittelbaren 1745
unterschied 1745
üh@@ 1745
Engländer 1744
Meißen 1744
Stiftungs@@ 1744
digitale 1744
frau 1744
ská 1744
viert@@ 1744
Finanzen 1743
Larven 1743
Let@@ 1743
assen@@ 1743
aufgeben 1743
landes@@ 1743
städte 1743
variiert 1743
wider 1743
Begleitung 1742
Giebel@@ 1742
Kör@@ 1742
Trainer@@ 1742
begab 1742
Lang 1741
Net@@ 1741
SS@@ 1741
alla 1741
bundes@@ 1741
vermitteln 1741
Entwürfe 1740
mut@@ 1740
Abwehr 1739
German 1739
Holocaust 1739
Melodie 1739
sek@@ 1739
spann@@ 1739
Amateur 1738
Glück@@ 1738
Out@@ 1738
Sant 1738
Schwar@@ 1738
Stat@@ 1738
dunklen 1738
komplexen 1738
selbständig 1738
sozialistischen 1738
Go 1737
ester@@ 1737
ielle 1737
Phasen 1736
ausgel@@ 1736
ichi 1736
norwegische 1736
Gan@@ 1735
Genua 1735
Lieutenant 1735
Pent@@ 1735
Sprachraum 1735
Tunnel@@ 1735
Verkauf@@ 1735
Bewusstsein 1734
Bosnien 1734
Development 1734
Viz@@ 1734
eger 1734
erhof 1734
kurse 1734
kurzfristig 1734
stro@@ 1734
Allee 1733
Beachtung 1733
Kind@@ 1733
Ligaspiele 1733
Places 1733
Prof@@ 1733
Rath@@ 1733
Schatz@@ 1733
Südtirol 1733
unterlagen 1733
versteckt 1733
Erstellung 1732
Verarbeitung 1732
praktische 1732
Altenburg 1731
geheiratet 1731
ial 1731
Bahnen 1730
Blas@@ 1730
Countys 1730
Freitag 1730
Kelly 1730
Ou@@ 1730
Richtungen 1730
Verträge 1730
dischen 1730
scheinbar 1730
wachsende 1730
Dü@@ 1729
Fußballspielen 1729
Juli@@ 1729
Torhüter 1729
X. 1729
altes 1729
Aussterben 1728
Insolvenz 1728
Kapit@@ 1728
Ltd. 1728
Prop@@ 1728
SW@@ 1728
Spanisch 1728
ğ@@ 1728
Gera 1727
Meist 1727
NSG 1727
Song@@ 1727
Uhrzeigersinn 1727
interessierte 1727
nischen 1727
syn@@ 1727
zugs 1727
ücken 1727
Bla@@ 1726
Busch 1726
Hawaii 1726
IX. 1726
Stuck@@ 1726
Wettbewerbs 1726
amts@@ 1726
endgültigen 1726
ierend 1726
normale 1726
studio 1726
ständiger 1726
teln 1726
wirk@@ 1726
änen 1726
öfen 1726
Apple 1725
Stralsund 1725
Turner 1725
widmet 1725
128 1724
Ansätze 1724
Community 1724
Kost@@ 1724
Nei@@ 1724
Polens 1724
Schre@@ 1724
Senior 1724
dierten 1724
fur@@ 1724
kommunalen 1724
nica 1724
Austin 1723
Campbell 1723
Hubble 1723
Jes@@ 1723
Pier@@ 1723
Weiss 1723
court 1723
marsch 1723
otten 1723
ð@@ 1723
Sandstein@@ 1722
Span@@ 1722
Wasch@@ 1722
lernt 1722
rak@@ 1722
dom@@ 1721
haupt@@ 1721
ulation 1721
Mitkonsekratoren 1720
Nationalspieler 1720
Personen@@ 1720
industriellen 1720
methode 1720
tierung 1720
ähn@@ 1720
Id@@ 1719
Junior@@ 1719
anstatt 1719
fertig@@ 1719
nat@@ 1719
seitige 1719
vorrangig 1719
Marketing 1718
Sechs 1718
Sto@@ 1718
aktionen 1718
artikel 1718
fränkischen 1718
gedeckt 1718
Erfindung 1717
Muslime 1717
Nit@@ 1717
familien 1717
fers 1717
platzes 1717
Anstalt 1716
Lock@@ 1716
ausgaben 1716
Bevölkerungsentwicklung 1715
Schlei@@ 1715
Schmid 1715
Slalom 1715
Wandel 1715
Wettkampf 1715
Zin@@ 1715
einzig 1715
hem@@ 1715
hörte 1715
verheiratete 1715
Leiterin 1714
liebe 1714
ministerin 1714
verd@@ 1714
Anime 1713
Kommun@@ 1713
Kristall@@ 1713
ild@@ 1713
spezialisierte 1713
Bergwerk 1712
Comp@@ 1712
Kentucky 1712
Ansehen 1711
Cab@@ 1711
Gerichte 1711
Gross@@ 1711
Islands 1711
Ryan 1711
SB 1711
gezeichnet 1711
Dallas 1710
Funk 1710
Germania 1710
Gesang@@ 1710
hilfe 1710
stellvertretenden 1710
tim@@ 1710
zur@@ 1710
Ensembles 1709
Peters 1709
Stuart 1709
Walker 1709
goldene 1709
orchester 1709
Aufsehen 1708
Harmon@@ 1708
Helm 1708
Stimmung 1708
Versuch@@ 1708
dol@@ 1708
fuß@@ 1708
CH@@ 1707
Comic 1707
Dagegen 1707
Muster@@ 1707
Räumlichkeiten 1707
bayerische 1707
internen 1707
Überfall 1707
Filiale 1706
Hül@@ 1706
IP 1706
Vertrauen 1706
anst@@ 1706
anti 1706
forscher 1706
my@@ 1706
ade@@ 1705
eur 1705
laufende 1705
40@@ 1704
Bindung 1704
Blättern 1704
Fell@@ 1704
Independent 1704
Kum@@ 1704
Vegetation 1704
115 1703
Bauart 1703
Bänden 1703
Französische 1703
Konz@@ 1703
bon@@ 1703
geg@@ 1703
oper 1703
ried 1703
ár@@ 1703
Aluminium 1702
Erziehungs@@ 1702
Salon 1702
Schli@@ 1702
niemand 1702
Agentur 1701
Maj@@ 1701
Network 1701
Stur@@ 1701
Symptome 1701
Vierter 1701
rigen 1701
Umbauten 1700
alliierten 1700
ecker 1700
port 1700
Light 1699
Orchester@@ 1699
ashi 1699
herz@@ 1699
ihrerseits 1699
ings@@ 1699
verkündete 1699
öp@@ 1699
Boot@@ 1698
Fernando 1698
Gewerkschafts@@ 1698
Korea 1698
erlassen 1698
müller 1698
ufen 1698
zeug@@ 1698
Gewässern 1697
Größen 1697
Hitlers 1697
Passau 1697
Planungs@@ 1697
Schel@@ 1697
Urban 1697
endgültige 1697
regional 1697
tom@@ 1697
wissenschaftler 1697
üm@@ 1697
Filmmusik 1696
Logo 1696
Regisseurs 1696
bende 1696
bol@@ 1696
mond 1696
Adolph 1695
Unterhaltungs@@ 1695
startet 1695
wunder@@ 1695
zufällig 1695
č 1695
Augsburger 1694
Beobachter 1694
Elsass 1694
Klammern 1694
Wick@@ 1694
diplomatischen 1694
erien 1694
geschw@@ 1694
punkt@@ 1694
theoretische 1694
Gewerbe 1693
Tennisturnier 1693
gesundheitlichen 1693
getreten 1693
mers 1693
scht 1693
Å@@ 1693
ə@@ 1693
Apostolischen 1692
Bundesländern 1692
Dennis 1692
Kriegs 1692
Stadtteils 1692
Vik@@ 1692
abseits 1692
felden 1692
lab@@ 1692
saison 1692
verz@@ 1692
Besondere 1691
Heimspiele 1691
Level 1691
Regierungen 1691
Schmuck@@ 1691
Sec@@ 1691
Verlags@@ 1691
ande 1691
sy@@ 1691
Ältere 1691
ô@@ 1691
Demnach 1690
EN 1690
Sex 1690
Weltcup@@ 1690
reih@@ 1690
ändert 1690
0.000 1689
Kais@@ 1689
María 1689
Relief 1689
Them@@ 1689
ruft 1689
öffentlicher 1689
Berkeley 1688
CI@@ 1688
Wern@@ 1688
gewährt 1688
löst 1688
änger 1688
Big@@ 1687
Bismarck 1687
Interviews 1687
Kō@@ 1687
Planck 1687
Streitigkeiten 1687
Teilweise 1687
Vorwürfe 1687
baut 1687
unterzeichnet 1687
Boys 1686
Kaiserin 1686
Thompson 1686
Wärme@@ 1686
beginnend 1686
gelbe 1686
hilft 1686
ordentlichen 1686
teilgenommen 1686
verbracht 1686
änder@@ 1686
Karosserie 1685
derart 1685
herangezogen 1685
Madonna 1684
Slam 1684
agen@@ 1684
Dessau 1683
Klassen@@ 1683
Ori@@ 1683
Statuen 1683
ā 1683
Brooklyn 1682
Malta 1682
dritt@@ 1682
pol 1682
rah@@ 1682
tums 1682
verstorben 1682
Öffentliche 1682
öffnen 1682
AP 1681
Handwerk 1681
Ortsnamen 1681
Rechnung 1681
gewinnt 1681
lateinische 1681
museums 1681
oni@@ 1681
verfolgen 1681
ös 1681
Einnahme 1680
abgetragen 1680
dur@@ 1680
ecken 1680
erobern 1680
heimlich 1680
klassi@@ 1680
klassifiziert 1680
verarbeitung 1680
Comedy 1679
histor@@ 1679
red@@ 1679
vorge@@ 1679
weitergeführt 1679
106 1678
Fres@@ 1678
Historischen 1678
Talsperre 1678
gebirges 1678
kow@@ 1678
rand@@ 1678
ull 1678
Abschied 1677
Administration 1677
Matt 1677
Multi@@ 1677
Orientierung 1677
Wirkungs@@ 1677
han@@ 1677
romanische 1677
ütte 1677
1763 1676
Bill@@ 1676
Damm 1676
Gottesdienste 1676
Kem@@ 1676
Klagenfurt 1676
MO@@ 1676
Max@@ 1676
meist@@ 1676
ulus 1676
vorbei@@ 1676
Fernsehfilm 1675
Lebensmittel 1675
Wenig 1675
internationales 1675
36@@ 1674
Fotograf 1674
38@@ 1673
Dokument 1673
bildungs@@ 1673
essi@@ 1673
kontrolle 1673
physik 1673
stiftung 1673
Resultat 1672
Year 1672
gräber 1672
ises 1672
ones 1672
sches 1672
Bordeaux 1671
Projek@@ 1671
Stoll@@ 1671
Tun@@ 1671
anbau 1671
duk@@ 1671
formation 1671
verlieren 1671
Bier 1670
Gleichung 1670
Lichtenberg 1670
Vall@@ 1670
We 1670
Ingolstadt 1669
Wiederwahl 1669
arme 1669
sta 1669
weis@@ 1669
Cent@@ 1668
Google 1668
Gruben@@ 1668
Luc@@ 1668
Wahlbeteiligung 1668
anfänglich 1668
atin 1668
bedingten 1668
drittes 1668
rechteckigen 1668
vereint 1668
verhältnismäßig 1668
Henn@@ 1667
Leuch@@ 1667
Pilger@@ 1667
Quartett 1667
Schieß@@ 1667
Stolpersteine 1667
alem 1667
atisch 1667
digten 1667
ky@@ 1667
senk@@ 1667
theaters 1667
Jahr@@ 1666
Rechten 1666
Wahlperiode 1666
höh@@ 1666
nacht 1666
schä@@ 1666
sum@@ 1666
1774 1665
Cad@@ 1665
Katholische 1665
Linke 1665
entr@@ 1665
issen@@ 1665
row@@ 1665
scheiterten 1665
weltweiten 1665
Ähnlichkeit 1665
Besuchern 1664
Fachhochschule 1664
Feh@@ 1664
Limburg 1664
Tobias 1664
beamten 1664
cus 1664
vollzogen 1664
wohnt 1664
103 1663
Out 1663
Spanischen 1663
ando 1663
durchzuführen 1663
enkirche 1663
komponiert 1663
trieb 1663
unserer 1663
Carter 1662
Claus 1662
Hirn@@ 1662
Schulden 1662
ahlen 1662
fische 1662
herr@@ 1662
isa 1662
AL 1661
Services 1661
rohr 1661
tenberg 1661
Marktplatz 1660
Punk 1660
Ski 1660
bestände 1660
königliche 1660
scheibe 1660
unterstützten 1660
Fließ@@ 1659
Oc@@ 1659
Wohn- 1659
ritz 1659
stellvertretende 1659
terung 1659
treu 1659
ński 1659
Speis@@ 1658
Strand@@ 1658
able 1658
aug@@ 1658
var 1658
Be 1657
Maz@@ 1657
Restaurants 1657
abend 1657
abgeschafft 1657
anerkannte 1657
anerkannten 1657
theologischen 1657
Kurve 1656
Marmor 1656
Russisch 1656
Satelliten 1656
bevölkerung 1656
gebildete 1656
geeigneten 1656
law@@ 1656
nehm@@ 1656
Bestehen 1655
Kantone 1655
Kontinental@@ 1655
Wörter 1655
festgehalten 1655
oms 1655
thematisiert 1655
-Arten 1654
Ausgleich 1654
Berges 1654
Frühling 1654
Sternen 1654
aussch@@ 1654
inischen 1654
Gehäuse 1653
Graf@@ 1653
Minden 1653
Prim@@ 1653
Bremerhaven 1652
Landeskirche 1652
Sauerstoff 1652
Weiterbildung 1652
dich@@ 1652
gültig 1652
mund@@ 1652
nam@@ 1652
rode 1652
stür@@ 1652
wörtlich 1652
Franco 1651
Gedenkstätte 1651
Religion@@ 1651
Techn@@ 1651
Zypern 1651
endorfer 1651
geholt 1651
lob@@ 1651
populär 1651
Auff@@ 1650
Base 1650
Claudia 1650
Gesamtfläche 1650
Gott@@ 1650
Hos@@ 1650
Industrialisierung 1650
Sri 1650
Tauch@@ 1650
Traum 1650
moor 1650
1740 1649
Direkt 1649
Gör@@ 1649
Parlamentswahl 1649
SSR 1649
Trivia 1649
i. 1649
programme 1649
Ecken 1648
Freiwillige 1648
Kommunen 1648
Nic@@ 1648
Reinhold 1648
Sieger@@ 1648
gewölbe 1648
CS 1647
Eddie 1647
gewachsen 1647
keits@@ 1647
list@@ 1647
ruh@@ 1647
under@@ 1647
33@@ 1646
Eisenach 1646
Guy 1646
Pelz@@ 1646
alli@@ 1646
iele 1646
iger@@ 1646
Autor@@ 1645
Grant 1645
Hochwasser 1645
Julian 1645
Kurse 1645
drohte 1645
fehl@@ 1645
getauft 1645
00@@ 1644
Großstadt 1644
Lebzeiten 1644
Logik 1644
Schwager 1644
Warner 1644
Zwisch@@ 1644
aktiver 1644
chron@@ 1644
emb@@ 1644
schwei@@ 1644
show 1644
Rallye 1643
Roß@@ 1643
Schwert 1643
lehnt 1643
ui 1643
voran 1643
ï@@ 1643
Fahrrad@@ 1642
etal 1642
seltenen 1642
vergeblich 1642
B.@@ 1641
abgekürzt 1641
denz 1641
ministers 1641
sein@@ 1641
yo 1641
1781 1640
Land- 1640
Rückrunde 1640
fache 1640
gelesen 1640
kombiniert 1640
übersiedelte 1640
Ohr@@ 1639
Schwanz@@ 1639
volumen 1639
Aussicht 1638
Katalog 1638
Maßnahme 1638
Parallel@@ 1638
Produkten 1638
Rechen@@ 1638
Wirtschafts- 1638
betriebene 1638
enhäuser 1638
täglichen 1638
ult@@ 1638
Camp 1637
Hansen 1637
Schwaben 1637
Sportverein 1637
emen 1637
format 1637
steuern 1637
Action 1636
Ethn@@ 1636
Hauptdarsteller 1636
Krat@@ 1636
Mitt@@ 1636
Oregon 1636
Rä@@ 1636
Vorgang 1636
flugzeuge 1636
vernichtet 1636
Automobilen 1635
Tie@@ 1635
VW 1635
furt 1635
ique 1635
phi@@ 1635
uta 1635
verfassungs@@ 1635
vorgeworfen 1635
108 1634
240 1634
Abschaffung 1634
Bewer@@ 1634
Staatsstraße 1634
beeinflussen 1634
sei@@ 1634
selb@@ 1634
Bart@@ 1633
Moder@@ 1633
Neffen 1633
hang 1633
spartei 1633
Übergangs@@ 1633
Agent 1632
Kirchenkreis 1632
Luigi 1632
alistischen 1632
arg@@ 1632
gesteuert 1632
hä@@ 1632
sweise 1632
Besatzungszone 1631
Billboard 1631
Klosterkirche 1631
NN 1631
kub@@ 1631
sey 1631
sportliche 1631
tigungen 1631
Nationalparks 1630
Seoul 1630
gegossen 1630
low@@ 1630
poly@@ 1630
BK 1629
Diesel@@ 1629
Kommunisten 1629
Runs 1629
anga 1629
Gemahlin 1628
Hohe 1628
Jochen 1628
Lords 1628
Neues 1628
Vision 1628
engeren 1628
itische 1628
langjährige 1628
liz@@ 1628
nische 1628
Cooper 1627
Kapital 1627
MC 1627
derte 1627
ernähren 1627
faktor 1627
oa 1627
Feste 1626
Field 1626
GT@@ 1626
Nadel@@ 1626
Priester@@ 1626
Reichsbahn 1626
protestantischen 1626
Anpassung 1625
Fürth 1625
Heimatland 1625
Kommunikation@@ 1625
Mitglieds@@ 1625
betrachten 1625
echnik 1625
fügte 1625
ga@@ 1625
ikan@@ 1625
lad@@ 1625
spiels 1625
е@@ 1625
Alkohol 1624
Alois 1624
Aussch@@ 1624
Kla@@ 1624
Kür@@ 1624
MP@@ 1624
Professoren 1624
Süß@@ 1624
bemerkt 1624
demann 1624
fördert 1624
last 1624
nit@@ 1624
start 1624
AfD 1623
Busse 1623
Cant@@ 1623
Italiener 1623
Krau@@ 1623
Marianne 1623
befahren 1623
finanz@@ 1623
fungiert 1623
gefahr 1623
mangels 1623
nannten 1623
thal@@ 1623
1100 1622
25.000 1622
Gary 1622
Schad@@ 1622
Sätzen 1622
Zagreb 1622
lier 1622
sign@@ 1622
Kämpfer 1621
Margarete 1621
Solar@@ 1621
Umland 1621
moderierte 1621
steins 1621
vorsitzende 1621
Est 1620
Mem@@ 1620
Type 1620
Wrestling 1620
alien 1620
aub@@ 1620
bezahlt 1620
derin 1620
kamp 1620
my 1620
stoßen 1620
Abwesenheit 1619
Bohr@@ 1619
Mission@@ 1619
betrifft 1619
nei@@ 1619
türkischer 1619
ür 1619
Bedingung 1618
Gewerkschaften 1618
Glockenturm 1618
Hin- 1618
Primera 1618
Teich@@ 1618
worth 1618
Alber@@ 1617
Heinrichs 1617
Tante 1617
gezielt 1617
ington 1617
rechnen 1617
sitz@@ 1617
Emanuel 1616
Hard 1616
Herzen 1616
Schalt@@ 1616
deportiert 1616
eingeleitet 1616
eo 1616
herausragende 1616
körper@@ 1616
schle@@ 1616
Knight 1615
Satz@@ 1615
Ski@@ 1615
Vorgaben 1615
professionellen 1615
sowjetischer 1615
1,1 1614
Classic 1614
Gul@@ 1614
Pis@@ 1614
Vorarlberg 1614
acke 1614
lik 1614
längste 1614
stands 1614
Opern 1613
freigegeben 1613
inf@@ 1613
läufe 1613
Anger@@ 1612
Armen@@ 1612
Besatzungs@@ 1612
Kai 1612
Ped@@ 1612
Pfarre 1612
betraut 1612
kontrolliert 1612
ocken 1612
serien 1612
tik@@ 1612
wol@@ 1612
Alltag 1611
Cot@@ 1611
Hop@@ 1611
Sekunde 1611
Wüste 1611
eman 1611
königlich 1611
schel 1611
Elite 1610
Erkenntnis 1610
Gemeindegliederung 1610
Jonas 1610
S.@@ 1610
Synonym 1610
Verschiedene 1610
digungen 1610
führers 1610
hir@@ 1610
stattfindenden 1610
uts 1610
Europapokal 1609
Morris 1609
Silva 1609
Was@@ 1609
asser@@ 1609
egt 1609
rige 1609
steigern 1609
Cleveland 1608
Spitznamen 1608
Your 1608
gesetze 1608
listet 1608
post 1608
ältester 1608
Alfons 1607
Blum@@ 1607
Fac@@ 1607
Herstellers 1607
Pit@@ 1607
Rag@@ 1607
Rue 1607
Schlach@@ 1607
kritik 1607
medi@@ 1607
vermuten 1607
Görlitz 1606
erringen 1606
letztere 1606
mische 1606
portugiesische 1606
Cel@@ 1605
Charlottenburg 1605
Lith@@ 1605
Sey@@ 1605
Tafel 1605
architektur 1605
flache 1605
ima 1605
sechste 1605
standes 1605
Aust@@ 1604
Book 1604
ege 1604
geworfen 1604
Clar@@ 1603
Klim@@ 1603
Massaker 1603
Pauli 1603
Ursprungs 1603
Winkel@@ 1603
heutiger 1603
tage 1603
unbedingt 1603
Brothers 1602
Fächer 1602
Protest 1602
Wähler 1602
beschäftigen 1602
betriebs@@ 1602
unterhalten 1602
Boy 1601
Deh@@ 1601
Java 1601
Kameramann 1601
Mail 1601
Röntgen@@ 1601
Sich@@ 1601
Training@@ 1601
asien 1601
austausch 1601
avi@@ 1601
beamter 1601
bögen 1601
initiierte 1601
misst 1601
ström 1601
trockenen 1601
zäh@@ 1601
übersetzte 1601
Datenbank 1600
Grüne 1600
Götter 1600
Immobilien@@ 1600
Laut@@ 1600
Zahlungs@@ 1600
Zuschauer@@ 1600
analog 1600
frequenz 1600
üssen 1600
2,2 1599
Abwehr@@ 1599
Denkmalpflege 1599
Harold 1599
Hub@@ 1599
Jag@@ 1599
Proteste 1599
entscheidet 1599
kürzer 1599
reformierten 1599
roth 1599
style 1599
wass@@ 1599
Bac@@ 1598
Hack@@ 1598
Jen@@ 1598
Länder@@ 1598
Märchen 1598
Robinson 1598
dichter 1598
durchgesetzt 1598
jahres 1598
steilen 1598
zwecken 1598
ér@@ 1598
ücke 1598
Catherine 1597
Down 1597
Eurovision 1597
Liedes 1597
Wenzel 1597
enc@@ 1597
ereien 1597
loc@@ 1597
schi 1597
Jason 1596
Mühlen 1596
Teich 1596
Zoo 1596
ku 1596
nten 1596
praktischen 1596
ray 1596
Gefühl 1595
Heim 1595
Lukas 1595
Schiedsrichter 1595
chin@@ 1595
hervorgegangen 1595
kti@@ 1595
mangel 1595
wiederhergestellt 1595
.com 1594
Nachfolge@@ 1594
Sud@@ 1594
achsen 1594
atzes 1594
bildungen 1594
halte 1594
Atlantik 1593
Börse 1593
Krebs 1593
Matrix 1593
Observatorium 1593
Riesenslalom 1593
Spann@@ 1593
Stifts@@ 1593
Treppe 1593
VEB 1593
Zwickau 1593
angeklagt 1593
bler 1593
erteilte 1593
ę@@ 1593
Coast 1592
Commission 1592
Landtag@@ 1592
Maul@@ 1592
Munition 1592
Nau@@ 1592
Rin@@ 1592
Zie@@ 1592
busch 1592
getrieben 1592
hammer 1592
unterhielt 1592
Alabama 1591
Birmingham 1591
Bisher 1591
Bomben@@ 1591
Jam@@ 1591
Jules 1591
Modernisierung 1591
Republikaner 1591
Territorien 1591
Unterbrechung 1591
Zahlung 1591
asi 1591
festes 1591
hauser 1591
1760 1590
Championships 1590
Event 1590
Ganz@@ 1590
Keller@@ 1590
Mittleren 1590
besonderes 1590
enburger 1590
genossenschaft 1590
gewonnenen 1590
lass 1590
ungsverfahren 1590
verbundene 1590
überarbeitet 1590
Domin@@ 1589
Folgenden 1589
befreundet 1589
gefähr@@ 1589
risch 1589
verh@@ 1589
überlebte 1589
Jon@@ 1588
Linken 1588
MTV 1588
Martha 1588
Merk@@ 1588
Nominierungen 1588
Rent@@ 1588
Survey 1588
autor 1588
herunter@@ 1588
plant 1588
rt 1588
seitlichen 1588
Barock 1587
grundlegende 1587
sozi@@ 1587
Berlins 1586
SD 1586
alter@@ 1586
eingang 1586
39@@ 1585
Achsen 1585
Cla@@ 1585
Erfolg@@ 1585
Gmina 1585
Griechen 1585
Lipp@@ 1585
VG 1585
sionen 1585
sprech@@ 1585
verfügten 1585
Head 1584
Stadtgemeinde 1584
herrschte 1584
kirch 1584
ländern 1584
manager 1584
oto 1584
ungspolitik 1584
zeichnung 1584
£ 1584
Grafik 1583
Wohnplatz 1583
herren 1583
nachts 1583
ning 1583
otische 1583
äuser 1583
1,7 1582
109 1582
Fachzeitschrift 1582
ald 1582
haut 1582
ike 1582
rit 1582
verschwand 1582
Bolivien 1581
Bör@@ 1581
Extrem@@ 1581
Franchise 1581
Panz@@ 1581
RO@@ 1581
Richtlinien 1581
Seiden@@ 1581
anstalten 1581
einheitliche 1581
fahrzeugen 1581
riert 1581
Bezirke 1580
Hügel@@ 1580
Kent 1580
basierend 1580
ble 1580
dahinter 1580
iga 1580
Profil 1579
elberg 1579
emigrierte 1579
mein 1579
vo 1579
-Klasse 1578
Aufwand 1578
Konzentrationslager 1578
Mine 1578
Sun@@ 1578
Wahlrecht 1578
amtlich 1578
Anfangs@@ 1577
Anhängern 1577
Gehalt 1577
Geiger 1577
Lé@@ 1577
Qualifikationsrunde 1577
bed@@ 1577
ohn 1577
storf 1577
änden 1577
Gesellschafter 1576
Grafik@@ 1576
Malaysia 1576
Mariä 1576
Put@@ 1576
Rückgang 1576
Venezuela 1576
Wat@@ 1576
ades 1576
benötigten 1576
gie@@ 1576
gor@@ 1576
jenen 1576
kir@@ 1576
scha 1576
schlechter 1576
shagen 1576
Inn 1575
Medical 1575
Rettung 1575
Umstand 1575
produk@@ 1575
1715 1574
Akten 1574
Alberto 1574
Italia 1574
auten 1574
fordern 1574
verbringen 1574
verfassung 1574
wanderte 1574
Dj@@ 1573
beschriebenen 1573
einsch@@ 1573
fasste 1573
meine 1573
vorzu@@ 1573
Aufbau@@ 1572
Gene 1572
Gutachten 1572
Klassiker 1572
Kopie 1572
Lars 1572
Völker@@ 1572
federn 1572
formationen 1572
reden 1572
östlicher 1572
1773 1571
Arabischen 1571
Kün@@ 1571
brech@@ 1571
ear@@ 1571
heimischen 1571
Brück@@ 1570
Pun@@ 1570
Rosenberg 1570
blaue 1570
echten 1570
fragt 1570
lutherische 1570
rieb 1570
Dichtung 1569
Gh@@ 1569
Ortsgemeinde 1569
Vegas 1569
ständen 1569
agentur 1568
entum 1568
funde 1568
ged@@ 1568
kommando 1568
links@@ 1568
wechselnden 1568
Arme 1567
Bonner 1567
Kessel@@ 1567
Menschheit 1567
Parroquia 1567
Quad@@ 1567
Rig@@ 1567
sichere 1567
städter 1567
verwaltungs@@ 1567
Grunde 1566
Marmor@@ 1566
durchgeführten 1566
flieg@@ 1566
ierender 1566
kristall@@ 1566
verlaufende 1566
Dichte 1565
albahn 1565
geräten 1565
rac@@ 1565
Leiche 1564
Stoß@@ 1564
feldes 1564
gestalteten 1564
gewährleisten 1564
tons 1564
verletzung 1564
äuschen 1564
Feuerwehr@@ 1563
Gelegentlich 1563
Hat@@ 1563
Japaner 1563
Joan 1563
Kabel@@ 1563
Mörder 1563
Münchener 1563
Pilot@@ 1563
Winterthur 1563
beibehalten 1563
bos@@ 1563
herr 1563
met 1563
reform@@ 1563
ätzen 1563
Gebiets 1562
Muskel@@ 1562
Nancy 1562
Thriller 1562
Veranstaltungs@@ 1562
Werks 1562
leiden 1562
sand@@ 1562
1779 1561
Beamter 1561
Minister@@ 1561
Normen 1561
Susanne 1561
benutzen 1561
verzichten 1561
Herzogtums 1560
Komp@@ 1560
Quartier 1560
Schriftstellers 1560
Still@@ 1560
Volker 1560
regierte 1560
Château 1559
Medium 1559
Rundfahrt 1559
Wis@@ 1559
musi@@ 1559
Digital 1558
Sitzen 1558
bereitete 1558
jenem 1558
kind 1558
wein@@ 1558
α 1558
107 1557
1730 1557
Bett 1557
IP@@ 1557
Moll 1557
Od@@ 1557
Rekorde 1557
Schuld@@ 1557
Untergang 1557
Valentin 1557
hard 1557
mangel@@ 1557
oy 1557
а@@ 1557
Bristol 1556
Held 1556
Keramik@@ 1556
Lied@@ 1556
Vermögens@@ 1556
Volleyball 1556
gegenseitig 1556
herzustellen 1556
Seattle 1555
Trump 1555
Verwaltungsgemeinschaft 1555
evangelischer 1555
lav@@ 1555
renommierten 1555
2,4 1554
35@@ 1554
drehen 1554
erstreckte 1554
erwarten 1554
{ 1554
Österreicher 1554
Müll@@ 1553
Sergei 1553
statt@@ 1553
Analy@@ 1552
Anliegen 1552
Autors 1552
Fernstraße 1552
Gefühle 1552
Lamp@@ 1552
Phil 1552
Rol@@ 1552
Santos 1552
Vereinbarung 1552
bewahren 1552
cl@@ 1552
reguläre 1552
AN 1551
Apostel 1551
Foto 1551
Inbetriebnahme 1551
Marine@@ 1551
Niederlassung 1551
aba 1551
bearbeitet 1551
elektrisch 1551
geschützten 1551
verlangte 1551
Acht 1550
Austragungsort 1550
Michail 1550
Thai 1550
Bretagne 1549
Guido 1549
Hund@@ 1549
Militärs 1549
Russische 1549
Vogt 1549
Wahrscheinlich 1549
lien 1549
zentr@@ 1549
Ober 1548
Petro@@ 1548
Project 1548
Prüf@@ 1548
Strauss 1548
Tisch 1548
U18 1548
Wester@@ 1548
einheimischen 1548
erkrankte 1548
fak@@ 1548
festival 1548
schmale 1548
wind 1548
Empfangsgebäude 1547
Schumacher 1547
XVI. 1547
bekanntgegeben 1547
cal@@ 1547
deckung 1547
stehend 1547
tischer 1547
zei@@ 1547
Lyrik 1546
Offenbach 1546
Seeb@@ 1546
boden@@ 1546
energie 1546
mitte 1546
nutzung 1546
Gedenktafel 1545
Mein 1545
Rekonstruktion 1545
egen 1545
schöne 1545
stit@@ 1545
Baker 1544
Bois 1544
Flieg@@ 1544
Großmutter 1544
Om@@ 1544
Prediger 1544
Seek@@ 1544
Verhaftung 1544
brand@@ 1544
formal 1544
Schuss 1543
anwesend 1543
genauen 1543
iki 1543
ites 1543
kongress 1543
schrieben 1543
vereinbart 1543
50@@ 1542
Aufteilung 1542
Kontakt@@ 1542
Lehmann 1542
Mac 1542
Uhr@@ 1542
aft 1542
iana 1542
projek@@ 1542
Bahnhöfe 1541
Gesamtlänge 1541
Golf@@ 1541
SF 1541
Schiller 1541
Spalte 1541
gast@@ 1541
indische 1541
wur@@ 1541
230 1540
Académie 1540
Adels@@ 1540
Albanien 1540
DE 1540
Handwerker 1540
Louisiana 1540
Piano 1540
Steinbruch 1540
gefundenen 1540
grenz@@ 1540
zweig 1540
Diet@@ 1539
Freizeit 1539
Ian 1539
bauweise 1539
Henriette 1538
Matthew 1538
Wright 1538
angebunden 1538
angegliedert 1538
deutsch@@ 1538
jüngsten 1538
negativen 1538
su 1538
Auswärtigen 1537
BE@@ 1537
Leih@@ 1537
Moh@@ 1537
Salvador 1537
argentinischen 1537
hell 1537
klingen 1537
reagiert 1537
run@@ 1537
see@@ 1537
34@@ 1536
Befehlshaber 1536
behaupten 1536
droht 1536
ikum 1536
individuellen 1536
kum 1536
spreis 1536
CO2 1535
Erzähl@@ 1535
FF 1535
Nem@@ 1535
Sus@@ 1535
Türken 1535
Wellen 1535
anzunehmen 1535
eld 1535
größen 1535
jo@@ 1535
klub 1535
reduzieren 1535
varianten 1535
zivilen 1535
Ethnien 1534
Hansestadt 1534
Moos@@ 1534
Westküste 1534
elmann 1534
icum 1534
orts@@ 1534
plus 1534
schrittweise 1534
stal 1534
Demokratische 1533
Manhattan 1533
Schäfer 1533
Wintersemester 1533
untersuchen 1533
Entscheidungs@@ 1532
Joint 1532
Maxim@@ 1532
Zylinder 1532
baum@@ 1532
isen@@ 1532
jäger 1532
modelle 1532
sozialer 1532
strahlen 1532
tener 1532
weich@@ 1532
½ 1532
Arg@@ 1531
Autonomen 1531
Dist@@ 1531
Jährige 1531
Oswald 1531
Sogn 1531
Wich@@ 1531
text 1531
Alaska 1530
Asp@@ 1530
Belastung 1530
Geburts@@ 1530
Gespräche 1530
angelegte 1530
reichsten 1530
verknüpft 1530
widmen 1530
öch@@ 1530
Schädel 1529
Statthalter 1529
Toulouse 1529
Ves@@ 1529
Zentren 1529
berühmt 1529
ckte 1529
gelistet 1529
gesetz@@ 1529
gewordenen 1529
tran@@ 1529
zelle 1529
200.000 1528
37@@ 1528
Neuordnung 1528
Schienen@@ 1528
fingen 1528
lings@@ 1528
pres@@ 1528
verdient 1528
Biathlon 1527
Fantasy 1527
Getriebe 1527
Rebellen 1527
ermitteln 1527
fehlende 1527
qualität 1527
schlechte 1527
yi 1527
Abschluss@@ 1526
Alexand@@ 1526
Ax@@ 1526
Eth@@ 1526
Flüssen 1526
Phoenix 1526
Sea 1526
Vereinsgeschichte 1526
berechtigten 1526
fes 1526
gegenüberliegenden 1526
verehrt 1526
Eff@@ 1525
Häfen 1525
RAF 1525
Warschauer 1525
geladen 1525
graf@@ 1525
ham@@ 1525
jemand 1525
Patent@@ 1524
itas 1524
jähriges 1524
messer 1524
111 1523
Klassifikation 1523
Pest@@ 1523
Regional 1523
Second 1523
altet 1523
dreht 1523
herstellung 1523
spunkt 1523
Absch@@ 1522
Expansion 1522
abgetrennt 1522
fehlte 1522
kant@@ 1522
о@@ 1522
Alles 1521
Giebel 1521
Westfälischen 1521
ads 1521
gerichte 1521
ikern 1521
kostenlos 1521
teams 1521
öhe 1521
Anth@@ 1520
Bevölkerungszahl 1520
Hauptwerk 1520
Springer 1520
Statt 1520
aku 1520
eignet 1520
ory 1520
rohr@@ 1520
schäden 1520
ust 1520
25,@@ 1519
Jugendlicher 1519
Listen 1519
Lohn@@ 1519
individuelle 1519
weitestgehend 1519
Geometrie 1518
Kanonen 1518
Ric@@ 1518
SM 1518
Wettkampf@@ 1518
besp@@ 1518
itsch@@ 1518
nahegelegenen 1518
stad 1518
Att@@ 1517
Dark 1517
Tel 1517
berat@@ 1517
dick 1517
mauern 1517
Filialkirche 1516
Gerechtigkeit 1516
Linux 1516
StGB 1516
affen 1516
dan 1516
dün@@ 1516
lot 1516
out@@ 1516
Human@@ 1515
Höhlen 1515
folgend 1515
hebt 1515
hölzernen 1515
veranstaltung 1515
.. 1514
Bobby 1514
Jubiläum 1514
Mitarbeiterin 1514
Verwandtschaft 1514
stern@@ 1514
tauchen 1514
Ausländer 1513
Buck@@ 1513
Dirk 1513
Indian 1513
Jüdische 1513
Orange 1513
bett 1513
eingebunden 1513
kos 1513
oberste 1513
sons 1513
sper@@ 1513
Aqu@@ 1512
Erwartungen 1512
Moor 1512
Pfeiler 1512
Situationen 1512
Trainings@@ 1512
Utrecht 1512
deutlichen 1512
kommerziellen 1512
nungen 1512
politisches 1512
zugs@@ 1512
135 1511
1765 1511
Kali@@ 1511
Oberschule 1511
Stadt- 1511
aufstieg 1511
hervorging 1511
pil@@ 1511
rec@@ 1511
rei 1511
streit 1511
Deutsches 1510
Enden 1510
Körpers 1510
Zusatz 1510
eingeb@@ 1510
enhagen 1510
zy 1510
äß@@ 1510
Nordafrika 1509
Republikanischen 1509
feststellen 1509
mau@@ 1509
regionen 1509
rek@@ 1509
weswegen 1509
wirtschaftlicher 1509
übrig 1509
Firm@@ 1508
Geschäft@@ 1508
Hit@@ 1508
Kanon@@ 1508
Last@@ 1508
Norman 1508
Städtischen 1508
Substanz 1508
mechanischen 1508
Abu 1507
Dag@@ 1507
Ell@@ 1507
Fisch 1507
Hamm@@ 1507
Pall@@ 1507
amtierenden 1507
blatt@@ 1507
cz@@ 1507
ehemaliges 1507
entstammt 1507
fter 1507
issi@@ 1507
ohl 1507
optim@@ 1507
pokal 1507
silbernen 1507
Budget 1506
Getreide 1506
Nomin@@ 1506
Organisations@@ 1506
Umstände 1506
intensive 1506
läufen 1506
Anklage 1505
Lande 1505
Law@@ 1505
aph@@ 1505
uch 1505
üst@@ 1505
1720 1504
Gilbert 1504
Guts@@ 1504
Herausgabe 1504
Homburg 1504
Prü@@ 1504
geschieden 1504
privat 1504
sab@@ 1504
stift 1504
Lade@@ 1503
Saarland 1503
dieren 1503
Gramm 1502
igungs@@ 1502
112 1501
Organ 1501
binden 1501
ensammlung 1501
kante 1501
Aachener 1500
Beton 1500
atten@@ 1500
früherer 1500
geschmückt 1500
ritten 1500
vorsitzender 1500
Erweiterungen 1499
Ris@@ 1499
bul@@ 1499
empfohlen 1499
poli@@ 1499
versenkt 1499
wohnen 1499
Bibliotheken 1498
Cru@@ 1498
Dick 1498
Einzelnen 1498
Jungfrau 1498
Lima 1498
Violine 1498
geber 1498
mäßige 1498
späterer 1498
union 1498
Brandt 1497
Fast@@ 1497
Linden 1497
Scheidung 1497
bezeugt 1497
ktion 1497
landen 1497
spä@@ 1497
vi 1497
wegs 1497
änderungen 1497
Aue 1496
Konzepte 1496
Partner@@ 1496
Stör@@ 1496
gan 1496
ikon 1496
ruppen 1496
ve@@ 1496
versicherung 1496
1648 1495
Beamte 1495
Einordnung 1495
Kosovo 1495
Lib@@ 1495
Sé@@ 1495
akzeptiert 1495
grundlegend 1495
partner 1495
Booten 1494
Pfle@@ 1494
Rasse 1494
Säule 1494
funk 1494
fügen 1494
sin 1494
teste 1494
unst 1494
6000 1493
Aspekt 1493
Senats 1493
Truppen@@ 1493
Yards 1493
hydro@@ 1493
isoliert 1493
1769 1492
Barry 1492
Bodensee 1492
Kei@@ 1492
Ray@@ 1492
Tabellenplatz 1492
Wayne 1492
klassisch 1492
Breiten@@ 1491
Freiwilligen 1491
Gig@@ 1491
aa 1491
bestimmung 1491
emat@@ 1491
leich@@ 1491
undes 1491
Arbeitsgruppe 1490
Investitionen 1490
offener 1490
standort 1490
Ö 1490
ż@@ 1490
Esc@@ 1489
Gewichts@@ 1489
Modern 1489
α@@ 1489
Immer 1488
Landshut 1488
Meth@@ 1488
Strahl@@ 1488
Thal@@ 1488
nel 1488
zurückgekehrt 1488
ABC 1487
Duell 1487
Eltern@@ 1487
Entwickler 1487
Fachbereich 1487
Organe 1487
ija 1487
rech@@ 1487
umfassend 1487
umgebenden 1487
weisung 1487
Fell 1486
Garden 1486
Lieder@@ 1486
Ten 1486
Wochenende 1486
assistent 1486
lagern 1486
teilnahmen 1486
Armut 1485
Dru@@ 1485
Protest@@ 1485
bli@@ 1485
fasst 1485
rati@@ 1485
wahre 1485
wechselt 1485
Helena 1484
Muhammad 1483
Neut@@ 1483
Saudi 1483
Ster@@ 1483
Tommy 1483
afel 1483
fung 1483
harten 1483
AR 1482
Bahnhofs@@ 1482
Einschätzung 1482
Heck 1482
Huber 1482
Pionier 1482
Schuh@@ 1482
Synonyme 1482
12.@@ 1481
Four 1481
Geschäftsführung 1481
Grammy 1481
Hugh 1481
Kalender 1481
Lom@@ 1481
PR 1481
Universal 1481
Verhaltens@@ 1481
glatt 1481
schönen 1481
sächsische 1481
Abzug 1480
Exemplar 1480
Näh@@ 1480
Ut@@ 1480
Vierer 1480
berichte 1480
gelblich 1480
utt@@ 1480
650 1479
Fau@@ 1479
Hofmann 1479
Innenminister 1479
Mozart 1479
Rache 1479
Ralf 1479
Santo 1479
Vertreibung 1479
dunkle 1479
erweitern 1479
gegenstände 1479
gener 1479
sonstigen 1479
0,2 1478
Anf@@ 1478
Aufsatz 1478
Betrieben 1478
Markgrafen 1478
inie 1478
konstruiert 1478
ls@@ 1478
AD 1477
Beute 1477
Dutzend 1477
Föderation 1477
Kuppel 1477
Roberto 1477
brigade 1477
kinderlos 1477
Jeff 1476
Kanal@@ 1476
Trupp@@ 1476
basieren 1476
dic@@ 1476
feuer@@ 1476
olz 1476
teilten 1476
Ask@@ 1475
Double 1475
Widerspruch 1475
bewarb 1475
führender 1475
heb@@ 1475
sicheren 1475
Hass@@ 1474
Sinn@@ 1474
Zucker@@ 1474
anschloss 1474
fühlt 1474
kommens 1474
pos@@ 1474
verwickelt 1474
Ş@@ 1474
1767 1473
Christ 1473
Durchschnittseinkommen 1473
Mohammed 1473
Raketen 1473
Zuständigkeit 1473
billi@@ 1473
taler 1473
ungsver@@ 1473
Lok 1472
fisch 1472
lieben 1472
solange 1472
11.@@ 1471
Aufsichtsrat 1471
Deutung 1471
Sozialistischen 1471
Speicher 1471
beigetragen 1471
existierten 1471
gin 1471
ison 1471
krank@@ 1471
verringert 1471
verzeichnen 1471
wöchentlich 1471
zuständige 1471
2500 1470
Solingen 1470
Steck@@ 1470
ely 1470
forschte 1470
las@@ 1470
line 1470
opf 1470
Preisgeld 1469
Spin@@ 1469
dierung 1469
fertigen 1469
flach@@ 1469
sexuellen 1469
tagen 1469
1753 1468
Bezirksliga 1468
back 1468
parks 1468
spräsident 1468
1742 1467
2,3 1467
EL@@ 1467
Erwachsene 1467
Fuße 1467
Kapitulation 1467
Mühlen@@ 1467
Nigeria 1467
Privatleben 1467
Sicherungs@@ 1467
Unterlagen 1467
entw@@ 1467
halbe 1467
offizieller 1467
1771 1466
Frequenz 1466
Ve@@ 1466
betriebenen 1466
Akti@@ 1465
Eröffnungs@@ 1465
Klass@@ 1465
Sob@@ 1465
Werkstätten 1465
Zurück 1465
betreten 1465
gin@@ 1465
schweizerischen 1465
sicht 1465
tic@@ 1465
AC@@ 1464
Schulter@@ 1464
Turms 1464
Untersuchungs@@ 1464
polizei 1464
slowakischen 1464
0,1 1463
0,3 1463
1768 1463
Baltimore 1463
Berichterstattung 1463
CD@@ 1463
Pom@@ 1463
Provence 1463
interne 1463
Ausbreitung 1462
Auvergne 1462
Geistlichen 1462
Grafiker 1462
Krankheits@@ 1462
Lust@@ 1462
Sky 1462
TS 1462
Whit@@ 1462
bemüht 1462
gesetzlich 1462
signal 1462
µm 1462
Glocken@@ 1461
Trenn@@ 1461
differenz@@ 1461
erforscht 1461
head 1461
over@@ 1461
ril@@ 1461
verwechseln 1461
Faust 1460
MP 1460
Machtergreifung 1460
Motiven 1460
Portland 1460
Rakete 1460
Sad@@ 1460
asch 1460
dy@@ 1460
produktionen 1460
pur@@ 1460
richtigen 1460
teilung 1460
öpf@@ 1460
Girl 1459
Labour 1459
Nass@@ 1459
Ortskern 1459
Projektes 1459
Steven 1459
aufgegriffen 1459
igny 1459
nacheinander 1459
singt 1459
Alexandria 1458
Opp@@ 1458
Regierungsrat 1458
erlebt 1458
esischer 1458
reste 1458
teilzunehmen 1458
Arabien 1457
Chr@@ 1457
Geburtsstadt 1457
Malerin 1457
Offizier@@ 1457
Schwäbisch 1457
Standes@@ 1457
Stätten 1457
Up@@ 1457
Weser@@ 1457
entiert 1457
getestet 1457
glas 1457
kannte 1457
matische 1457
monatlich 1457
win 1457
Ehre 1456
Neckar@@ 1456
Pflicht@@ 1456
einzusetzen 1456
heran 1456
merk@@ 1456
neten 1456
unen 1456
Aktuell 1455
Chil@@ 1455
E.@@ 1455
Ing@@ 1455
Krist@@ 1455
besetzung 1455
dänischer 1455
emer 1455
Ide@@ 1454
Romeo 1454
aktivitäten 1454
lebens 1454
Benutzer 1453
Diktatur 1453
Integ@@ 1453
Radrennfahrer 1453
Umgestaltung 1453
Vorwerk 1453
Zeile 1453
ausgegeben 1453
denselben 1453
einsätze 1453
entierten 1453
esz@@ 1453
quar@@ 1453
ungsphase 1453
weis 1453
Betrachtung 1452
Lov@@ 1452
Volumen 1452
anten@@ 1452
auses 1452
enken 1452
erregte 1452
funk@@ 1452
kreise 1452
otta 1452
räum@@ 1452
Erfolgen 1451
Gitter@@ 1451
Japans 1451
Marsch 1451
Philipp@@ 1451
angelegenheiten 1451
cy 1451
eroberten 1451
ná 1451
Arbeitsplätze 1450
Kontra@@ 1450
Radstand 1450
amtlichen 1450
erfordert 1450
Analysen 1449
Bio@@ 1449
Christina 1449
Comic@@ 1449
Fang@@ 1449
Freude 1449
Lon@@ 1449
arin 1449
gelegten 1449
mächte 1449
räder 1449
ston 1449
ysi@@ 1449
Falter 1448
Gütern 1448
Liberalen 1448
Teufel 1448
brüche 1448
design 1448
seinerseits 1448
uer 1448
Geschmack 1447
Hinrichtung 1447
Kunststoff@@ 1447
SM@@ 1447
Tarif@@ 1447
Winterspiele 1447
eira 1447
geeignete 1447
näh@@ 1447
rone 1447
umen 1447
univers@@ 1447
Heg@@ 1446
Johannis@@ 1446
Mü@@ 1446
Staatsoper 1446
Zwischenzeit 1446
eilt 1446
stur@@ 1446
Bundesrat 1445
Cop@@ 1445
Geschlechts@@ 1445
Klang 1445
Lutz 1445
absteigen 1445
denberg 1445
kämpften 1445
lock 1445
selbständigen 1445
Lorenzo 1444
MG 1444
Nutzungs@@ 1444
Teatro 1444
fremden 1444
Anschlag 1443
Anschlussstelle 1443
Dimension 1443
Lig 1443
Referent 1443
Wichtige 1443
rischer 1443
schild 1443
Anhieb 1442
Gertrud 1442
Maschinenbau 1442
Names 1442
Vorort 1442
angewandt 1442
dri@@ 1442
ence 1442
eu 1442
feindlichen 1442
modernisiert 1442
ünd@@ 1442
1766 1441
Auto@@ 1441
Gou@@ 1441
Stru@@ 1441
Tagebuch 1441
Tank@@ 1441
aar 1441
ausgehend 1441
digte 1441
erstellen 1441
ffe 1441
iri 1441
test@@ 1441
Übergabe 1441
Allein 1440
Export 1440
Fortschritt 1440
Gewer@@ 1440
Per 1440
Vig@@ 1440
verwachsen 1440
— 1440
Kastell 1439
Kongresses 1439
Krieger 1439
angehört 1439
aten@@ 1439
got@@ 1439
ols 1439
Monats@@ 1438
Störung 1438
ail@@ 1438
dell 1438
ds@@ 1438
forst@@ 1438
gestellte 1438
ittel@@ 1438
konzentrieren 1438
Empfehlung 1437
lichsten 1437
lies 1437
sexuelle 1437
Experiment 1436
Experimente 1436
Hän@@ 1436
Treffern 1436
Weihnachten 1436
kolle@@ 1436
zub@@ 1436
ög@@ 1436
23,@@ 1435
Fenstern 1435
Fotografien 1435
SI 1435
Schwarzwald 1435
derartige 1435
organisieren 1435
schein@@ 1435
1756 1434
Fris@@ 1434
Hirsch 1434
Kessel 1434
Roll 1434
abger@@ 1434
af 1434
jek@@ 1434
spl@@ 1434
ärs 1434
22,@@ 1433
Aber@@ 1433
Andre@@ 1433
Jesuiten 1433
Mode@@ 1433
Sir@@ 1433
angesetzt 1433
ardt 1433
mon 1433
ziele 1433
belgische 1432
entdeckten 1432
feln 1432
usch 1432
Algerien 1431
Erwachsenen 1431
Jud@@ 1431
SV@@ 1431
ausgespielt 1431
behandlung 1431
betrugen 1431
reichste 1431
teur 1431
ökonomischen 1431
Chore@@ 1430
Distrikts 1430
Mythos 1430
Rangers 1430
Soll@@ 1430
Steil@@ 1430
Vers@@ 1430
gewebe 1430
künstlerisch 1430
A1 1429
Atlas 1429
Cannes 1429
Hann@@ 1429
Schritte 1429
besagt 1429
einz@@ 1429
eister 1429
formel 1429
jemals 1429
professionelle 1429
Prize 1428
Ried@@ 1428
Web 1428
ausgeprägt 1428
außen@@ 1428
ild 1428
vent@@ 1428
öst@@ 1428
übertragung 1428
Blitz@@ 1427
Elfmeterschießen 1427
Herzog@@ 1427
Laufzeit 1427
Libanon 1427
Lüt@@ 1427
Pittsburgh 1427
Veranstalter 1427
afen 1427
angeordneten 1427
ensee 1427
ering 1427
gefüllt 1427
lar 1427
liberale 1427
marken 1427
militärisch 1427
verändern 1427
Part@@ 1426
Pole 1426
dau@@ 1426
starteten 1426
tur 1426
urm 1426
vir@@ 1426
AV@@ 1425
Autom@@ 1425
Che@@ 1425
Dog@@ 1425
Regimes 1425
Schuss@@ 1425
Vorwurf 1425
strand 1425
DO@@ 1424
Fak@@ 1424
Gemeindeverband 1424
Gn@@ 1424
Metropolitan 1424
Nachwuchs 1424
Scottish 1424
Sevilla 1424
Track 1424
bedingte 1424
inas 1424
star 1424
stil@@ 1424
AG@@ 1423
FV 1423
Göttin 1423
Lak@@ 1423
ansässige 1423
entzogen 1423
geistlichen 1423
oberfläche 1423
Gericht@@ 1422
Hunter 1422
Krim 1422
Martin@@ 1422
Pension 1422
pflicht 1422
stif@@ 1422
Baptist 1421
CC 1421
Ethik 1421
Hudson 1421
Instrumental@@ 1421
Auswertung 1420
Mitchell 1420
Olga 1420
Platzes 1420
Verlags 1420
beratung 1420
gestattet 1420
Löwe 1419
Tempo 1419
Yale 1419
nete 1419
smittel 1419
tödlich 1419
Binnen@@ 1418
Chan@@ 1418
Electric 1418
Funktions@@ 1418
IM@@ 1418
Laf@@ 1418
Magister 1418
Metro 1418
Pflicht 1418
Vorgänge 1418
eigenschaften 1418
erheben 1418
jugend@@ 1418
reiches 1418
schwarzer 1418
stattgefunden 1418
trocken@@ 1418
verletzte 1418
zeichneten 1418
zweitgrößte 1418
Einzelne 1417
Gipfel@@ 1417
bay@@ 1417
beschränkte 1417
durchschnittlichen 1417
grube 1417
inck 1417
serbischen 1417
ñ@@ 1417
ș@@ 1417
Eli@@ 1416
Han 1416
Schutzgebiet 1416
alisieren 1416
dium 1416
platziert 1416
rechtzeitig 1416
sender 1416
uri 1416
550 1415
AI@@ 1415
Geschehen 1415
Mittelfeldspieler 1415
Organist 1415
Sap@@ 1415
Teilnehmerfeld 1415
baumeister 1415
lex 1415
quadratischen 1415
tätigkeit 1415
Agenten 1414
Erlass 1414
Feind 1414
Stadttheater 1414
hier@@ 1414
Allein@@ 1413
Bundestag@@ 1413
Feldern 1413
Sky@@ 1413
Territorial@@ 1413
afrikanische 1413
bit@@ 1413
get 1413
open 1413
zentraler 1413
Mid@@ 1412
Press 1412
dato 1412
enza 1412
langem 1412
lok@@ 1412
Grön@@ 1411
Kunstwerke 1411
Lüttich 1411
Wissenschaft@@ 1411
folgendermaßen 1411
kehr@@ 1411
verkehrten 1411
12.000 1410
Bestandteile 1410
Mitwirkung 1410
Schnei@@ 1410
Symbole 1410
Tang@@ 1410
Village 1410
Wärme 1410
annt 1410
cin@@ 1410
deut@@ 1410
dierte 1410
durchführen 1410
igten 1410
ographen 1410
ohnehin 1410
platzieren 1410
strah@@ 1410
ßler 1410
1680 1409
Ice 1409
Jel@@ 1409
ST 1409
Zeitgenossen 1409
aufbau 1409
ausgehenden 1409
beachten 1409
denkmalgeschützte 1409
explizit 1409
städt 1409
bulgarischen 1408
esi@@ 1408
gegenwärtig 1408
geographischen 1408
inform@@ 1408
kommiss@@ 1408
pa@@ 1408
rechteckige 1408
verkürzt 1408
Jahrzehnt 1407
Johann@@ 1407
Oberhausen 1407
Poll@@ 1407
Verstärkung 1407
ausger@@ 1407
erlitten 1407
ografische 1407
omin@@ 1407
rang@@ 1407
114 1406
Brit@@ 1406
Durchgang 1406
Handschrift 1406
Schmuck 1406
bot@@ 1406
gültige 1406
nia 1406
sphase 1406
190 1405
Frequenz@@ 1405
Neum@@ 1405
Ronald 1405
Sekundär@@ 1405
Sprung@@ 1405
aturen 1405
finanzierte 1405
kreisen 1405
mö@@ 1405
oner 1405
vel 1405
wander@@ 1405
ähnliches 1405
Do 1404
Gep@@ 1404
Just@@ 1404
Sech@@ 1404
arten@@ 1404
heftigen 1404
organischen 1404
Einschränkungen 1403
Erschließung 1403
Kings 1403
Monats 1403
aken 1403
gemeinsames 1403
geschützte 1403
klin@@ 1403
männlicher 1403
Bett@@ 1402
Initi@@ 1402
Jak@@ 1402
Pazifik 1402
Theologen 1402
Zuerst 1402
aj 1402
beschließt 1402
regionaler 1402
İ@@ 1402
Audi@@ 1401
Bronzezeit 1401
Gerade 1401
Labels 1401
Stu@@ 1401
entieren 1401
lokomotiven 1401
reis 1401
Bestes 1400
Boxer 1400
Fahrten 1400
Kaplan 1400
LSG 1400
Marken@@ 1400
Matthäus 1400
Riesen@@ 1400
Wirtschaftswissenschaften 1400
andes 1400
angriff 1400
eten@@ 1400
exakt 1400
Beratungs@@ 1399
Einz@@ 1399
Klassische 1399
Leon 1399
Ober- 1399
SL@@ 1399
Tisch@@ 1399
aud 1399
eni 1399
geformt 1399
gold@@ 1399
spre@@ 1399
verstand 1399
Altona 1398
Boots@@ 1398
Deutschland@@ 1398
Madison 1398
Null@@ 1398
Salz 1398
Schö@@ 1398
Substanzen 1398
Sven 1398
amer 1398
eingeordnet 1398
einkommen 1398
freigelegt 1398
gend@@ 1398
sinn 1398
sturm 1398
Berichten 1397
Eastern 1397
Hampshire 1397
Leverkusen 1397
Pfer@@ 1397
TuS 1397
kalk@@ 1397
ordens 1397
ores 1397
teure 1397
under 1397
vermarktet 1397
wan 1397
Dokumentar@@ 1396
Gis@@ 1396
LA 1396
Radio@@ 1396
krise 1396
reibungen 1396
verhinderte 1396
weißer 1396
Laurent 1395
Magdeburger 1395
Menschenrechts@@ 1395
Versch@@ 1395
Wood 1395
herrn 1395
ziehung 1395
Baus 1394
D.@@ 1394
estnischen 1394
Arbeitnehmer 1393
Fahrgast@@ 1393
Kass@@ 1393
Medal 1393
Pak@@ 1393
Quadratmeter 1393
bildern 1393
sent@@ 1393
stischen 1393
ungenen 1393
Außerhalb 1392
Friedrichs 1392
Koordinaten 1392
PO@@ 1392
Pav@@ 1392
Tä@@ 1392
WTA 1392
aufrecht 1392
einheitlich 1392
leger 1392
sia 1392
verfilmt 1392
Britischen 1391
Futter@@ 1391
Tabak@@ 1391
Unterhaltung 1391
ahrt 1391
eton 1391
fran@@ 1391
lichten 1391
situation 1391
veranstaltete 1391
zugerechnet 1391
öffnung 1391
Datierung 1390
Flur 1390
Lut@@ 1390
People 1390
Wang 1390
aver@@ 1390
flankiert 1390
grat 1390
holt 1390
1758 1389
Abständen 1389
Neuere 1389
Oklahoma 1389
ausgedehnten 1389
law 1389
schwachen 1389
Anhöhe 1388
Explosion 1388
Leonard 1388
Ostküste 1388
Sabine 1388
Titelrolle 1388
künftig 1388
nungs@@ 1388
Cz@@ 1387
Nebenrolle 1387
Primär@@ 1387
dek 1387
ku@@ 1387
stimmten 1387
ush@@ 1387
vik 1387
Zeuge 1386
empfahl 1386
engruppen 1386
gefragt 1386
spur 1386
1650 1385
Delta 1385
Sektor 1385
fester 1385
oll 1385
ovo 1385
spuren 1385
1762 1384
Empfänger 1384
Flo@@ 1384
ae@@ 1384
jur@@ 1384
ll 1384
mikro@@ 1384
minder@@ 1384
pel@@ 1384
vermieden 1384
ware 1384
würdig 1384
zugehörigkeit 1384
Aktiv@@ 1383
English 1383
Fuhr@@ 1383
Jac@@ 1383
Kamer@@ 1383
Parameter 1383
ied@@ 1383
slawischen 1383
weitaus 1383
ziel 1383
Augusta 1382
Einstieg 1382
Haare 1382
Mönch 1382
Pac@@ 1382
Sieb@@ 1382
Wöl@@ 1382
ements 1382
finanzieller 1382
griechischer 1382
schaf@@ 1382
ė 1382
Atlantic 1381
Bangkok 1381
Galaxie 1381
Shakespeare 1381
Terror@@ 1381
Vorschläge 1381
XII. 1381
zieh@@ 1381
0.@@ 1380
0er 1380
1755 1380
Havel 1380
Katastralgemeinde 1380
Krefeld 1380
dal 1380
erforderlichen 1380
reiben 1380
Disposition 1379
GA 1379
Impf@@ 1379
Namibia 1379
begeistert 1379
brück 1379
mittig 1379
onne 1379
programm@@ 1379
с@@ 1379
Betroffenen 1378
DP 1378
Fir@@ 1378
Jr 1378
Komitees 1378
Mom@@ 1378
Neubau@@ 1378
Steh@@ 1378
Valencia 1378
Vermutung 1378
Zeitalter 1378
films 1378
herausge@@ 1378
schei@@ 1378
schließ@@ 1378
spitz 1378
stab@@ 1378
24,@@ 1377
Ale@@ 1377
Außer@@ 1377
BS 1377
Botaniker 1377
Ecuador 1377
Emden 1377
Finalrunde 1377
Julie 1377
Sumpf@@ 1377
Trin@@ 1377
Zel@@ 1377
ani@@ 1377
arisch 1377
dich 1377
ees 1377
enter@@ 1377
läuferin 1377
pädagogik 1377
sleben 1377
tru@@ 1377
vergessen 1377
Beut@@ 1376
Samstag 1376
Soul 1376
erklärten 1376
kammer@@ 1376
kopf@@ 1376
stärken 1376
veränderten 1376
1764 1375
Nicholas 1375
Objekten 1375
Politikwissenschaft 1375
Richt@@ 1375
Tochterunternehmen 1375
behandeln 1375
entfielen 1375
grob 1375
heil@@ 1375
skoje 1375
sprang 1375
yan 1375
BB 1374
Geschütze 1374
Gün@@ 1374
Himmels@@ 1374
Moses 1374
buchs 1374
hil@@ 1374
ista 1374
jagd 1374
nationalmannschaft 1374
seg@@ 1374
Crew 1373
Gefangene 1373
Sinfonie 1373
Verwaltungsreform 1373
Waldgebiet 1373
abgel@@ 1373
cum 1373
klare 1373
konkreten 1373
senkrecht 1373
warfen 1373
Ec@@ 1372
Federation 1372
Kommissar 1372
List 1372
Schumann 1372
Tob@@ 1372
Zugriff 1372
achs 1372
atives 1372
heutzutage 1372
ichtung 1372
iziert 1372
reis@@ 1372
African 1371
Fähre 1371
High@@ 1371
Jahresende 1371
Karlsruher 1371
Milch 1371
Notre 1371
Sex@@ 1371
Shō@@ 1371
Weh@@ 1371
eti 1371
gewährleistet 1371
kte 1371
lä@@ 1371
ozi@@ 1371
tend 1371
GS 1370
Grimm 1370
Kantons@@ 1370
Landsmann 1370
Sac@@ 1370
greifen 1370
konservative 1370
müssten 1370
schildert 1370
Ath@@ 1369
Geleit@@ 1369
Gly@@ 1369
Jay 1369
Marshall 1369
rab@@ 1369
sdorfer 1369
älen 1369
175 1368
Boll@@ 1368
Geografische 1368
Liber@@ 1368
Motorrad 1368
Sah@@ 1368
fa 1368
frühzeitig 1368
halt@@ 1368
kraut 1368
spartner 1368
verdrängt 1368
verlängerte 1368
weiterentwickelt 1368
zuführen 1368
zweithöchsten 1368
32@@ 1367
Anwendungs@@ 1367
Blumen@@ 1367
Job 1367
Kanzler 1367
Lun@@ 1367
Metz@@ 1367
Saw@@ 1367
Wolfsburg 1367
abgest@@ 1367
hafen 1367
ics 1367
rötlich 1367
time 1367
verursachte 1367
210 1366
Gewölbe 1366
geringere 1366
reif@@ 1366
rotem 1366
weigerte 1366
Back 1365
Einmündung 1365
Privatdozent 1365
ession 1365
0,8 1364
Bilanz 1364
Englische 1364
Fonds 1364
Kasachstan 1364
Zivilisten 1364
geringeren 1364
positionen 1364
variante 1364
Dakota 1363
Heimspiel 1363
Islam@@ 1363
Library 1363
Ludwigshafen 1363
aun@@ 1363
dünn 1363
fried 1363
itar@@ 1363
kennengelernt 1363
konzern 1363
längst 1363
persönlicher 1363
öffnet 1363
Burschenschaft 1362
Kirchenbau 1362
Marktes 1362
Oberbefehlshaber 1362
Osmanischen 1362
besitz@@ 1362
eff@@ 1362
fungen 1362
osmanischen 1362
Fünfter 1361
Möbel@@ 1361
Population 1361
Schnee 1361
Spi@@ 1361
ba@@ 1361
raumes 1361
wiese 1361
Ausland@@ 1360
Xaver 1360
Zweig@@ 1360
ensemble 1360
ergruppe 1360
gelebt 1360
iza 1360
sachsen 1360
sex@@ 1360
sichtbaren 1360
à@@ 1360
Elf 1359
Links 1359
Path@@ 1359
Schauspielhaus 1359
Vest@@ 1359
demokratische 1359
gerichteten 1359
iche 1359
lus 1359
sicherten 1359
sko 1359
tica 1359
Beatles 1358
Doktor@@ 1358
Geist@@ 1358
Globe 1358
Gunsten 1358
Hul@@ 1358
Konstruk@@ 1358
Ordnungs@@ 1358
Prem@@ 1358
Schach 1358
[...]
