ใน 1
ที่ 1
และ 1
ของ 1
เป็น 1
มี 1
การ 1
ได้ 1
" 1
) 1
( 1
โดย 1
. 0.12935113919525426
ว่า 1
กับ 1
ปี 1
จาก 1
จะ 1
ซึ่ง 1
ให้ 1
ไม่ 1
พ.ศ. 1
ไป 1
เมื่อ 1
มา 1
, 0.08492894209876264
การ@@ 1
นี้ 1
พระ 1
อยู่ 1
หรือ 1
ค.ศ. 1
- 1
ใช้ 1
คือ 1
แต่ 1
ก็ 1
เขา 1
ส 1
ล 1
วันที่ 1
ๆ 1
คน 1
น 1
ด้วย 1
ถูก 1
น@@ 1
์ 1
แห่ง 1
ส@@ 1
ทาง 1
ก@@ 1
ประเทศ 1
ม 1
ม@@ 1
เพื่อ 1
ได้รับ 1
ขึ้น 1
ยัง 1
ความ@@ 1
อย่าง 1
เมือง 1
2 1
นั้น 1
ล@@ 1
จึง 1
ด 1
ก 1
กัน 1
ง 1
ด@@ 1
ตัว 1
1 1
ต 1
ไทย 1
ผู้ 1
ร@@ 1
สามารถ 1
ถึง 1
นา 1
ต@@ 1
บ@@ 1
ค@@ 1
แล้ว 1
หนึ่ง 1
พ@@ 1
ป@@ 1
อ@@ 1
ร์ 1
ว@@ 1
3 1
ชื่อ 1
แบบ 1
ทำให้ 1
ช@@ 1
สร้าง 1
ท@@ 1
ผู้@@ 1
เธอ 1
ต่อ 1
ทรง 1
ย@@ 1
เรื่อง 1
ตาม 1
จังหวัด 1
ออก 1
เกิด 1
ชาว 1
() 1
ดี 1
ง@@ 1
อร 1
เพลง 1
ระหว่าง 1
ต่อมา 1
มาก 1
วัด 1
จ@@ 1
ริ 1
ความ 1
ทั้ง 1
ร 1
ว 1
แรก 1
ทีม 1
อีก 1
ส่วน 1
ย 1
กลุ่ม 1
รา 1
บ 1
เดือน 1
ปัจจุบัน 1
ต้อง 1
เช่น 1
ฟ@@ 1
ลง 1
ทำ 1
ค 1
อ 1
4 1
ท 1
สำหรับ 1
กา 1
: 0.4430949722001194
พระองค์ 1
ใหม่ 1
ลา 1
ด้าน 1
พบ 1
ห@@ 1
วัน 1
รี 1
ช่วง 1
เข้า 1
24@@ 1
ส์ 1
ที่สุด 1
ข@@ 1
พระ@@ 1
เน@@ 1
อำเภอ 1
เอ 1
เรียก 1
โ@@ 1
ตา 1
ยา 1
ซ@@ 1
โอ 1
เป็น@@ 1
บน 1
ภาพยนตร์ 1
งาน 1
โลก 1
หลาย 1
เริ่ม 1
วิ@@ 1
ซี 1
มิ 1
ภาษา 1
ใหญ่ 1
จัด 1
5 1
ภาพ 1
ณ 1
หลัง 1
ครั้ง 1
นำ 1
เล่น 1
ะ 1
ช 1
น้ำ 1
พระเจ้า 1
์@@ 1
ประ@@ 1
โรงเรียน 1
ต่าง 1
ทาง@@ 1
จำนวน 1
อา 1
ไว้ 1
เล@@ 1
ตั้งแต่ 1
กว่า 1
ป 1
จน 1
ลี 1
เด 1
รัฐ 1
ราช 1
มาจาก 1
การแข่งขัน 1
ลิ 1
– 0.6740795958868008
สอง 1
; 0.4522518390157359
สี 1
เม@@ 1
ที่จะ 1
ฟ 1
ซา 1
เก@@ 1
รอบ 1
นา@@ 1
ระดับ 1
พื้นที่ 1
ทั้งหมด 1
มี@@ 1
่ง 1
จีน 1
สมัย 1
เขต 1
นิ@@ 1
อื่น 1
ผ่าน 1
25@@ 1
เบ@@ 1
กลาง 1
เอ@@ 1
อาจ 1
ระบบ 1
มา@@ 1
ที่@@ 1
นัก@@ 1
สมเด็จ 1
คำ 1
ญี่ปุ่น 1
ก่อน 1
ย์ 1
กระ@@ 1
นาย 1
ในประเทศ 1
เวลา 1
เร 1
อา@@ 1
เร@@ 1
เคย 1
บ้าน 1
โร 1
เซ@@ 1
ประมาณ 1
ชาติ 1
สำคัญ 1
มัน 1
6 1
ได้แก่ 1
รา@@ 1
ร์@@ 1
รวม 1
ถ@@ 1
นัก 1
"@@ 1
มหาวิทยาลัย 1
เนื่องจาก 1
คา 1
ดา 1
า 1
หา 1
เดิม 1
ตำแหน่ง 1
แ@@ 1
โต 1
เพราะ 1
วง 1
วิ 1
เพียง 1
ลักษณะ 1
เต 1
การศึกษา 1
โก 1
ลิ@@ 1
สุ@@ 1
สูง 1
ผ@@ 1
เซ 1
ชนิด 1
ชุด 1
หน้า 1
รับ 1
บริษัท 1
บาง 1
่ 1
ฮ@@ 1
บริเวณ 1
ติ 1
เท 1
ราช@@ 1
ตำบล 1
-@@ 1
อัน 1
โน 1
นิ 1
เม 1
อันดับ 1
ซิ 1
7 1
กา@@ 1
ใจ 1
เจ้า 1
เฟ@@ 1
พิ@@ 1
(@@ 1
แก่ 1
กล@@ 1
ประวัติ 1
เจ@@ 1
ตัว@@ 1
ชิ 1
ผล 1
ฝ่าย 1
หลังจาก 1
10 1
คำ@@ 1
ฟุตบอล 1
วงศ์ 1
ทำ@@ 1
อังกฤษ 1
ต์ 1
สม@@ 1
หลัก 1
ี 1
ตั้งอยู่ 1
กลับ 1
รัฐบาล 1
เกม 1
ส่ง 1
เท@@ 1
โค 1
วา 1
น์ 1
ไ@@ 1
สงคราม 1
แสดง 1
รายการ 1
เปิด 1
8 1
เป@@ 1
ยาว 1
กีฬา 1
ชั้น 1
ริ@@ 1
รูป 1
เดียว 1
อัลบั้ม 1
& 1
สา@@ 1
ญ 1
เก 1
อน 1
่@@ 1
เช@@ 1
เสียง 1
แบ่ง 1
เว@@ 1
อาหาร 1
กำลัง 1
ลูก@@ 1
ระ 1
ภายใน 1
้ 1
ยุค 1
/ 0.5807329944070929
ยา@@ 1
องค์ 1
สาย 1
ภาค 1
เห็น 1
ประกาศ 1
ฝรั่งเศส 1
สโมสร 1
เกี่ยวกับ 1
ศึกษา 1
ระ@@ 1
กร@@ 1
ญ@@ 1
” 1
ท์ 1
อุ@@ 1
ปลา 1
พล@@ 1
เป็นการ 1
ซ 1
ร่วม 1
อี 1
เหนือ 1
เขียน 1
อิ@@ 1
จิ 1
ชีวิต 1
อดีต 1
คณะ 1
โอลิมปิก 1
ผลงาน 1
เต@@ 1
บา 1
ฮา 1
พรรค 1
คน@@ 1
รุ่น 1
หน@@ 1
โด 1
เปลี่ยน 1
เด@@ 1
“ 0.6215823252418816
กรรม 1
กั@@ 1
รูปแบบ 1
ชา 1
เพ@@ 1
ดังกล่าว 1
น้ำ@@ 1
อก 1
น้อย 1
สาม 1
หญิง 1
เส@@ 1
ดู 1
เค 1
ซ์ 1
ล้าน 1
ช่วย 1
อั@@ 1
ธ@@ 1
ศาสตร์ 1
20 1
ชาย 1
9 1
้ง 1
นิยม 1
of 0.03939979797770038
ตั้ง 1
ลีก 1
ติ@@ 1
นี 1
มากกว่า 1
ผล@@ 1
ศ@@ 1
โรค 1
บี 1
ลา@@ 1
เรือ 1
หม@@ 1
ทหาร 1
ครั้งแรก 1
เค@@ 1
หล@@ 1
็@@ 1
จนถึง 1
ประกอบ 1
ที 1
นอกจากนี้ 1
ตน 1
้า 1
เดียวกัน 1
รางวัล 1
ใต้ 1
หลวง 1
บา@@ 1
อง 1
ฉ@@ 1
ทอง 1
ดิ 1
อายุ 1
รัก 1
ท่าน 1
โล 1
แทน 1
เกาะ 1
ถนน 1
เข้าร่วม 1
12 1
ส่วนใหญ่ 1
โม 1
ข้อมูล 1
ตอน 1
กิ@@ 1
เรียน 1
เกิดขึ้น 1
มิ@@ 1
เจ 1
15 1
สกุล 1
เลือก 1
ธรรม 1
สุดท้าย 1
ยู 1
ประเภท 1
้@@ 1
เดินทาง 1
ตัน 1
ชนะ 1
พัฒนา 1
เอง 1
ด์ 1
กร 1
พวกเขา 1
รับ@@ 1
ก็ได้ 1
เมตร 1
โร@@ 1
มหา 1
ู@@ 1
ฤดูกาล 1
ทุก 1
บาท 1
สัตว์ 1
แม@@ 1
เจ้า@@ 1
เ@@ 1
ขนาด 1
มีนาคม 1
พันธุ์ 1
โดย@@ 1
สิงหาคม 1
กองทัพ 1
แห่งชาติ 1
เครื่อง@@ 1
ที่อยู่ 1
สมาชิก 1
แม่น้ำ 1
พา@@ 1
เข้า@@ 1
่น 1
่า 1
รั@@ 1
ะ@@ 1
16 1
ีย@@ 1
อาคาร 1
เงิน 1
ตุลาคม 1
จ 1
ส่วน@@ 1
ิ@@ 1
ย้าย 1
แนว 1
ปรากฏ 1
ข้อ@@ 1
ออกมา 1
ราชวงศ์ 1
ุ@@ 1
เข้ามา 1
มั@@ 1
กลายเป็น 1
ณ@@ 1
พวก 1
ออกจาก 1
ช่อง 1
สู่ 1
กันยายน 1
จบ 1
' 1
ประกอบด้วย 1
๊@@ 1
ใด 1
ยังมี 1
เมษายน 1
มกราคม 1
แยก 1
ธันวาคม 1
สาขา 1
ัก 1
พ 1
ธ 1
จักรพรรดิ 1
แต่ละ 1
), 1
ปล@@ 1
ประชากร 1
บุคคล 1
ออ 1
พิเศษ 1
พฤษภาคม 1
ฐานะ 1
ต่างๆ 1
สาร 1
น. 1
ทา 1
เล็ก 1
กำหนด 1
ู 1
หมายถึง 1
ประชาชน 1
กรกฎาคม 1
โม@@ 1
เอก 1
มนุษย์ 1
รวมถึง 1
มัก 1
สัน 1
ศรี 1
11 1
นัด 1
เพิ่ม 1
การเลือกตั้ง 1
ี@@ 1
ต้น 1
หนังสือ 1
แม่ 1
โซ 1
โท 1
ทั้งสอง 1
ิน 1
ฯ 1
มิถุนายน 1
วา@@ 1
นาง 1
า@@ 1
ทำงาน 1
กรุง 1
อม 1
อะ 1
30 1
อาศัย 1
คู่ 1
ไม้ 1
จริง 1
ขอ 1
โอ@@ 1
ลด 1
วี 1
นาน 1
พฤศจิกายน 1
ผลิต 1
ทั่วไป 1
หัว 1
สิ่ง 1
ประวัติศาสตร์ 1
มะ 1
14 1
อด 1
ชน 1
ดิ@@ 1
ิ 1
อีกครั้ง 1
.@@ 1
ไอ 1
สหรัฐอเมริกา 1
เท่านั้น 1
วั@@ 1
ศ 1
อง@@ 1
ตา@@ 1
นคร 1
พา 1
ฐาน 1
ตี 1
ชัน 1
ฉบับ 1
จัด@@ 1
มหา@@ 1
กุมภาพันธ์ 1
ละคร 1
ยะ 1
ลง@@ 1
การปกครอง 1
ดี@@ 1
อิ 1
บท 1
สนับสนุน 1
อร์@@ 1
ภายใต้ 1
ตาย 1
สาว 1
อำนาจ 1
ทร@@ 1
ดังนี้ 1
ปา@@ 1
วน 1
ประจำ 1
ไฟ 1
งาน@@ 1
วง@@ 1
แอ 1
ทะเล 1
19 1
ชื่อว่า 1
13 1
แข่งขัน 1
ัง 1
(; 1
เครื่อง 1
หา@@ 1
พระราชทาน 1
รักษา 1
คล@@ 1
เหตุการณ์ 1
กิ 1
ชัย 1
่ง@@ 1
สังกัด 1
The 0.08672820749615905
รวมทั้ง 1
18 1
25 1
ลำ@@ 1
จากนั้น 1
เดอะ 1
อาร์ 1
้น 1
พล 1
กะ 1
จำหน่าย 1
17 1
สูงสุด 1
เลย 1
ฤดูร้อน 1
สุ 1
ุ 1
เฮ@@ 1
พร@@ 1
ร่วมกับ 1
") 1
ใบ 1
คา@@ 1
คณะกรรมการ 1
ศาสนา 1
ปา 1
่น@@ 1
เส้น 1
ตร@@ 1
เสียชีวิต 1
สภา 1
เด็ก 1
ถ้า 1
อน@@ 1
จำกัด 1
ลูก 1
ทิ@@ 1
หน้า@@ 1
ตะวันออก 1
รู 1
ละ 1
แบ@@ 1
กอง@@ 1
นก 1
ปัญหา 1
การแสดง 1
บรร@@ 1
ตะ@@ 1
ขาว 1
เอส 1
รุ@@ 1
ิง 1
ยังคง 1
เรา 1
วิทยา 1
วัน@@ 1
กรม 1
ล์ 1
เล 1
วิธี 1
กลับมา 1
ดาว 1
สาร@@ 1
ป่า 1
หาก 1
ม. 1
อาการ 1
ตาม@@ 1
แดง 1
บุตร 1
กู 1
หน่วย 1
ซั@@ 1
ห์ 1
บุรี 1
ยุโรป 1
นาม 1
บั@@ 1
ฝ@@ 1
ฮิ 1
24 1
ประตู 1
มือ 1
สถาน 1
บิน 1
กฎหมาย 1
ชั้น@@ 1
โบ 1
ซา@@ 1
​ 1
แก@@ 1
อร์ 1
ชิง 1
คล้าย 1
เซอร์ 1
ตุ@@ 1
คิด 1
สี@@ 1
ตั@@ 1
จุด 1
โค@@ 1
้า@@ 1
21 1
นักแสดง 1
อาชีพ 1
ัน@@ 1
จุด@@ 1
คอ 1
ปรา@@ 1
นับ 1
ี่ 1
เอเชีย 1
ซู 1
กิน 1
สาธารณรัฐ 1
ห 1
สั@@ 1
ลาย 1
กรม@@ 1
ดนตรี 1
เข้าไป 1
รัสเซีย 1
เหมือน 1
รอ 1
รถ 1
โล@@ 1
วัฒนธรรม 1
วิน 1
เหล่านี้ 1
ขนาดใหญ่ 1
ให้@@ 1
ตะวันตก 1
เรีย 1
อินเดีย 1
เจ้าชาย 1
เป็นที่ 1
ดำรงตำแหน่ง 1
ออกอากาศ 1
คะแนน 1
แม้ 1
ที่สอง 1
แท@@ 1
ประธาน 1
the 0.012937411619655404
ใน@@ 1
เป็นหนึ่ง 1
โครงการ 1
ำ 1
% 0.3391989765211996
กษัตริย์ 1
เข้าสู่ 1
ศักดิ์ 1
ปลาย 1
ราย 1
สหรัฐ 1
โย 1
สังคม 1
ก่อตั้ง 1
ติด 1
ดา@@ 1
็ก 1
ตรง 1
นะ 1
แมน 1
ตนเอง 1
เป็นต้น 1
ภายหลัง 1
เสีย 1
ค่า 1
เข@@ 1
gt 1
วะ 1
ยอด 1
ขาย 1
ครอบครัว 1
แล@@ 1
จนกระทั่ง 1
คณะ@@ 1
lt 1
ชอบ 1
ฟ้า 1
ใกล้ 1
บุ@@ 1
นาง@@ 1
คุณ 1
อนุ@@ 1
ราชการ 1
ออกแบบ 1
สถานี 1
โด@@ 1
แสง 1
สถาบัน 1
ท่า 1
จำนวนมาก 1
อย@@ 1
ษ@@ 1
วิทยาศาสตร์ 1
สนาม 1
รบ 1
หน้าที่ 1
จี 1
เอา 1
ดำ 1
เนีย 1
การพัฒนา 1
มณฑล 1
พัน 1
เซลล์ 1
รอง 1
วัง 1
ซี@@ 1
พอ 1
รี@@ 1
ไฟฟ้า 1
ราว 1
ต่อไป 1
ราม 1
23 1
จิ@@ 1
ภา@@ 1
จา 1
ชน@@ 1
ระบุ 1
ลำดับ 1
สอน 1
ตระกูล 1
ปั@@ 1
ดินแดน 1
ับ 1
ภ@@ 1
บิดา 1
วาง 1
เทพ 1
แซ@@ 1
อย่างไรก็ตาม 1
สี่ 1
คร@@ 1
บท@@ 1
ยก 1
เจ้าหญิง 1
ธิ@@ 1
สวน 1
มากขึ้น 1
เสด็จ 1
อิน 1
อักษร 1
เชื่อ 1
ธรรมชาติ 1
วิทยาลัย 1
คดี 1
วิหาร 1
ส่วนหนึ่ง 1
บิ 1
จัดตั้ง 1
เย@@ 1
รุ 1
หลังจากนั้น 1
มาร 1
เวอร์ 1
ในขณะที่ 1
หิน 1
มักจะ 1
นอก 1
เห@@ 1
ก่อ 1
สมาคม 1
คุณ@@ 1
ซิ@@ 1
จำ@@ 1
แปล 1
ต้องการ 1
พี 1
เฮ 1
คลอง 1
ยุ@@ 1
อบ@@ 1
งา 1
เอ็ม 1
ตัวเอง 1
พระยา 1
อเมริกัน 1
เก็บ 1
กว้าง 1
นต@@ 1
แผ่นดิน 1
รู้ 1
ต้น@@ 1
เพื่อให้ 1
ภาพ@@ 1
่ม 1
ภูมิ@@ 1
อีกด้วย 1
ครั้งนี้ 1
เกิน 1
โดยเฉพาะ 1
แก้ว 1
ชี 1
ไร 1
าน 1
แตก 1
แพ้ 1
ดังนั้น 1
พม่า 1
ห้อง 1
ปริ@@ 1
ศูนย์ 1
ภาษา@@ 1
อล 1
ีย์ 1
อากาศ 1
แพ@@ 1
ธุรกิจ 1
ควบคุม 1
อาจจะ 1
26 1
นุ@@ 1
บริ@@ 1
ดอก 1
ียน 1
ละ@@ 1
โซ@@ 1
เฉพาะ 1
กุ@@ 1
ของ@@ 1
ได 1
พยายาม 1
สน@@ 1
ัก@@ 1
โทรทัศน์ 1
รถ@@ 1
ใช้@@ 1
ดูแล 1
ชา@@ 1
ร้อง 1
ต่อ@@ 1
ไล@@ 1
เหลือ 1
เยอรมนี 1
คั@@ 1
ตรา 1
จักรวรรดิ 1
ศิลปะ 1
วร 1
่อ 1
ข่าว 1
0 1
ภูมิภาค 1
ออก@@ 1
ิน@@ 1
เพ 1
เยอรมัน 1
สัง@@ 1
บันทึก 1
นายกรัฐมนตรี 1
พั@@ 1
อัล 1
ก่อสร้าง 1
s 0.21593537900214507
เลือด 1
ยาน 1
โจ@@ 1
กิโลเมตร 1
เก่า 1
โฮ 1
สั้น 1
ทำการ 1
เกี่ยวข้อง 1
พูด 1
อาณาจักร 1
ทุก@@ 1
น่า@@ 1
เน 1
กัน@@ 1
ประโยชน์ 1
มีชื่อเสียง 1
สุด 1
เตอร์ 1
เทคโนโลยี 1
แจ@@ 1
ยิง 1
ปกติ 1
ภัย 1
ฉาย 1
เลอ 1
หมู่ 1
ศึก 1
เชิง 1
อื่นๆ 1
พืช 1
อย 1
ลั@@ 1
ตก@@ 1
อด@@ 1
สถานที่ 1
เป็นทางการ 1
ที@@ 1
ป้องกัน 1
27 1
ภูมิ 1
โบราณ 1
ไซ 1
พร้อมกับ 1
รายชื่อ 1
ู่ 1
22 1
มากมาย 1
ทั@@ 1
ครู 1
ย่อย 1
แรง 1
ศิลปิน 1
ยู@@ 1
ดัน 1
เริ่มต้น 1
เลี้ยง 1
ว่าการ 1
นั@@ 1
ตัวละคร 1
กอ 1
กรุงเทพมหานคร 1
กุ 1
หมู่บ้าน 1
ข้าง 1
ว์ 1
แชมป์ 1
ค่าย 1
ตะ 1
วี@@ 1
เปิดตัว 1
ปกครอง 1
โก@@ 1
พร้อม 1
้น@@ 1
กล่าว 1
เหตุ 1
นี่ 1
นักเรียน 1
รว@@ 1
ใช่ 1
ือ 1
ทำหน้าที่ 1
คืน 1
ใส่ 1
ชั่น 1
สืบ@@ 1
ซิงเกิล 1
จับ 1
พิธี 1
ดั@@ 1
หลังจากที่ 1
ดำเนิน 1
ส่ง@@ 1
โจมตี 1
รัส 1
ไท 1
ิด 1
ตั้ง@@ 1
อุ 1
เป็นที่รู้จัก 1
พลัง 1
วิชา 1
ดำเนินการ 1
อิตาลี 1
ฌ@@ 1
้ม 1
ลู 1
โช@@ 1
มุ@@ 1
่ม@@ 1
เสนอ 1
มหาวิทยาลัย@@ 1
สิทธิ์ 1
ฟา 1
นักร้อง 1
ลุ@@ 1
กี 1
สภาพ 1
กาย 1
ความสัมพันธ์ 1
ความสามารถ 1
อู 1
ียง 1
เรีย@@ 1
ร้าย 1
พระนาง 1
กำกับ 1
ตลาด 1
23@@ 1
). 1
รูป@@ 1
ใบ@@ 1
= 1
นอ 1
่า@@ 1
หย@@ 1
ึ@@ 1
ั@@ 1
สเปน 1
ไอ@@ 1
่อง 1
รู้จัก 1
ต่อต้าน 1
กล่าวว่า 1
ขยาย 1
ถือ 1
พ่อ 1
การผลิต 1
สะ@@ 1
สำเร็จ 1
ตลอด 1
ีน 1
พระราช@@ 1
้อ@@ 1
๋@@ 1
สิทธิ 1
ปฏิ@@ 1
ดิน 1
ตำรวจ 1
โน@@ 1
ิต 1
สาย@@ 1
ทำลาย 1
ตก 1
่อน 1
สัญลักษณ์ 1
มะ@@ 1
ชาว@@ 1
รัฐมนตรี 1
รับรางวัล 1
ปาก 1
นี@@ 1
อุป@@ 1
เดิน 1
ค่า@@ 1
สัญญา 1
ขนาดเล็ก 1
อัล@@ 1
ผสม 1
กอง 1
จัดการ 1
ข้อ 1
ปร@@ 1
สมาชิกสภาผู้แทนราษฎร 1
็อง 1
การเมือง 1
บอก 1
ผู้นำ 1
นคร@@ 1
วาง@@ 1
ธิดา 1
จู 1
ดุ@@ 1
ณ์ 1
สัปดาห์ 1
28 1
ตัวอย่าง 1
ีย 1
สหราชอาณาจักร 1
(" 1
โครงสร้าง 1
กำ@@ 1
แต่@@ 1
ต่างกัน 1
บุญ 1
โปร@@ 1
ชิ@@ 1
แม้ว่า 1
ด้วยกัน 1
ระดับ@@ 1
ปิ@@ 1
บาง@@ 1
แลนด์ 1
แพทย์ 1
ฝั่ง 1
รายงาน 1
พุทธ@@ 1
หลักสูตร 1
ื@@ 1
ประธานาธิบดี 1
ทศวรรษ 1
ทำให้เกิด 1
ได้@@ 1
100 1
บดี 1
สาม@@ 1
สต@@ 1
ฆ@@ 1
กระจาย 1
กรา@@ 1
ต่างประเทศ 1
ทราบ 1
สู@@ 1
บางส่วน 1
เชียงใหม่ 1
เศรษฐกิจ 1
็ก@@ 1
คู่@@ 1
จี@@ 1
A 0.29034785168368726
สิบ 1
ประสาท 1
ปล่อย 1
ฎ@@ 1
ยึด 1
พื้น 1
มารดา 1
ียว 1
ตรี 1
แต่งตั้ง 1
อก@@ 1
เย 1
ทัพ 1
โรงพยาบาล 1
ทุน 1
พัก 1
ประสบความสำเร็จ 1
รร@@ 1
นักกีฬา 1
ขณะที่ 1
ฝ่าย@@ 1
ดู@@ 1
เบอร์ 1
วัตถุ 1
ซุ@@ 1
เหล@@ 1
โทษ 1
ภาวะ 1
ริน 1
คุ 1
รัชกาล 1
หลักฐาน 1
ราย@@ 1
เส้นทาง 1
โจ 1
เป็นเวลา 1
แหล่ง 1
จา@@ 1
รัง 1
ัด 1
วิจารณ์ 1
เป็นครั้งแรก 1
", 1
ฮั@@ 1
ชู 1
ยอมรับ 1
บี@@ 1
อุตสาหกรรม 1
ไร@@ 1
ไว 1
ไม่@@ 1
เนื้อ@@ 1
ซื้อ 1
ผิด 1
มป@@ 1
พิจารณา 1
สม 1
อ่อน 1
แด@@ 1
เส้น@@ 1
พลังงาน 1
ทุ@@ 1
ชุมชน 1
สยาม 1
องค์กร 1
นานาชาติ 1
ทั่วโลก 1
บอ 1
หนัก 1
เพิ่มขึ้น 1
แนว@@ 1
ขาด 1
เวียดนาม 1
ที่ดิน 1
เช่นกัน 1
29 1
จั@@ 1
เจริญ 1
ร่าง 1
เจน 1
เล่ม 1
อาจารย์ 1
ลิง 1
สร@@ 1
สมอง 1
โท@@ 1
สิ@@ 1
แคว้น 1
อาวุธ 1
ร่างกาย 1
โพ@@ 1
สิ่ง@@ 1
บริการ 1
แค 1
หว@@ 1
ห้อง@@ 1
ไท@@ 1
กิจกรรม 1
ชม 1
เนอ 1
จักร 1
กว@@ 1
สำ@@ 1
กิจ 1
ตัดสินใจ 1
งค์ 1
ไป@@ 1
ทั้ง@@ 1
เอฟ 1
บรม 1
ท้องถิ่น 1
ภา 1
คริสต์ศตวรรษ 1
เสีย@@ 1
ภาษาอังกฤษ 1
ธง 1
ข้าม 1
จับ@@ 1
ร็@@ 1
เฉ@@ 1
เพื่อน 1
ศพ 1
คาร์ 1
แต่ง 1
หัว@@ 1
ต่ำ 1
ลอ@@ 1
ปฏิบัติการ 1
ก. 1
ขน@@ 1
วิดีโอ 1
50 1
แอน@@ 1
อล@@ 1
ถือเป็น 1
อเมริกา 1
หัวหน้า 1
ห่าง 1
สำนักงาน 1
รส 1
บุ 1
กะ@@ 1
ดัง 1
แค@@ 1
and 0.0164702459058253
จอห์น 1
ธาตุ 1
ห้า 1
่ว 1
ทร 1
แผ่น 1
อิน@@ 1
ียร์ 1
พื้นฐาน 1
ซีรีส์ 1
การค้า 1
ธิ 1
โป@@ 1
ติด@@ 1
ปิด 1
เรื่องราว 1
ุ่ม 1
เสมอ 1
สต 1
การ์ตูน 1
นท 1
ยก@@ 1
อธิบาย 1
ประจำ@@ 1
นต์ 1
ในที่สุด 1
อาร์@@ 1
พิมพ์ 1
ร่วมกัน 1
ศรี@@ 1
คอน 1
แถบ 1
มอ 1
วงการ 1
ทีวี 1
นู 1
เอาชนะ 1
อม@@ 1
เล่า 1
สัม@@ 1
พร 1
ศาล 1
บู@@ 1
รัฐธรรมนูญ 1
หมายเลข 1
ข้าง@@ 1
ฤ@@ 1
บัณฑิต 1
โทร@@ 1
ชุ@@ 1
็น 1
ยอดเยี่ยม 1
พระมหากษัตริย์ 1
ตัด 1
ไซ@@ 1
อบ 1
แข@@ 1
ลำ 1
เครื่องบิน 1
ึง 1
ภู@@ 1
ทางการเมือง 1
ฏ@@ 1
การทำงาน 1
สื่อ 1
ทฤษฎี 1
ไม้@@ 1
สต์ 1
โอรส 1
จันทร์ 1
ิร์@@ 1
ดาว@@ 1
ค์ 1
ฺ@@ 1
ล่า 1
สา 1
สุริ@@ 1
่อ@@ 1
ชีว@@ 1
กุล 1
แต@@ 1
ไฟ@@ 1
ถือว่า 1
ศูนย์กลาง 1
ศตวรรษ 1
2016 0.5790472481098752
สมบูรณ์ 1
จง 1
กรณี 1
อี@@ 1
การณ์ 1
ค้นพบ 1
ฮ์ 1
เห็น@@ 1
ไร่ 1
ขณะ 1
ฟี 1
แนวคิด 1
นุ 1
ให้บริการ 1
สมรส 1
แฟ@@ 1
ความเป็น@@ 1
นโยบาย 1
สมเด็จพระ@@ 1
ฐ 1
T@@ 0.27753266290588213
ใกล้เคียง 1
หร@@ 1
ลาว 1
คู 1
ริก 1
เลือกตั้ง 1
ษ 1
บางครั้ง 1
โกะ 1
จุ@@ 1
เวน 1
สินค้า 1
ปรับ 1
เอ็น 1
แดน 1
ตลอด@@ 1
เต็ม 1
ใจ@@ 1
2012 0.5382807867542163
ขา@@ 1
เหล่า 1
ช้าง 1
ฐ@@ 1
หวัง 1
ระยะ 1
in 0.01326019888911899
เยาวชน 1
_ 0.5819925148570463
S@@ 0.2181225243949843
มุ 1
ปราสาท 1
ไกล 1
ขา 1
2014 0.5415099590631435
ทา@@ 1
ระเบิด 1
แอ@@ 1
กรรมการ 1
ทาน 1
ถึง@@ 1
คัพ 1
ลึก 1
ติก 1
้อน 1
P@@ 0.2494528601205436
การเปลี่ยนแปลง 1
สุข 1
พระนาม 1
แบ 1
ง่าย 1
คัดเลือก 1
31 1
โอกาส 1
สว@@ 1
๊ก 1
ำ@@ 1
ต่อเนื่อง 1
2010 0.42590811218827773
วัย 1
2018 0.5698428244105882
สัมพันธ์ 1
มีชื่อ 1
หาย 1
อุปกรณ์ 1
กิจการ 1
พอ@@ 1
ิล 1
สถิติ 1
เสร็จ 1
แย@@ 1
คม 1
สง@@ 1
ฆ่า 1
เนื้อ 1
เถ@@ 1
2554 1
ติดต่อ 1
ที่มา 1
ชั@@ 1
อนุญาต 1
ซาน 1
ชก 1
รวม@@ 1
จน@@ 1
เทศ 1
เกาหลี 1
ความนิยม 1
ซัน 1
รี่ 1
ใคร 1
ออสเตรเลีย 1
ตร 1
อัน@@ 1
แผน 1
คว@@ 1
ที่เกิด 1
าย 1
2020 0.6342441664131766
าน@@ 1
นำมา 1
ลู@@ 1
พุ@@ 1
ทิ้ง 1
ลม 1
2550 1
กำเนิด 1
ปี@@ 1
แข่ง 1
็ด 1
ภาค@@ 1
เผยแพร่ 1
บริหาร 1
ที่ตั้ง 1
เขียว 1
สัญญาณ 1
ราชอาณาจักร 1
อำ@@ 1
เรียง 1
แน@@ 1
วอ 1
ร้อยละ 1
ต่อสู้ 1
นาย@@ 1
บอล 1
ชิ้น 1
เจ้าพระยา 1
หมด 1
ควร 1
ทั่ว 1
ส์@@ 1
บังคับ 1
็ง 1
ูล 1
เดี่ยว 1
เรือ@@ 1
เบ 1
ประพันธ์ 1
ตั้งขึ้น 1
40 1
G@@ 0.24218043222303406
ทางหลวง 1
ทูต 1
สปีชีส์ 1
ทรง@@ 1
สรร@@ 1
โตะ 1
อัตรา 1
ยศ 1
ยาก 1
บทบาท 1
เคมี 1
เนื้อหา 1
บาล 1
เป็นสมาชิก 1
การนำ 1
การรักษา 1
M@@ 0.26512279670890665
[[ 1
ประ 1
ประชาธิปไตย 1
กระบวนการ 1
ตัดสิน 1
ปืน 1
พระราชวัง 1
อิทธิพล 1
ต. 1
เกาหลีใต้ 1
งค@@ 1
มาตรฐาน 1
เน้น 1
ตีพิมพ์ 1
ดะ 1
นั่น 1
หนอง 1
เช่นเดียวกับ 1
ม้า 1
กซ์ 1
็อก 1
ไหล 1
สังหาร 1
โพ 1
โรค@@ 1
ชาวไทย 1
แข็ง 1
้อ 1
กองกำลัง 1
หยุด 1
สะพาน 1
เผ@@ 1
ลับ 1
ศัพท์ 1
กล่าวถึง 1
ทหาร@@ 1
ผ้า 1
เงิน@@ 1
2557 1
แว@@ 1
คอมพิวเตอร์ 1
ครอง 1
ทั้งสิ้น 1
ออฟ 1
โป 1
ไฮ 1
บ้าน@@ 1
ด้วย@@ 1
กระทรวง 1
เลีย 1
ตอน@@ 1
ก่อนที่จะ 1
ถวาย 1
ไข่ 1
)@@ 1
คัน 1
เบล 1
2553 1
มงคล 1
เท่า@@ 1
โรมัน 1
โรง@@ 1
ศา@@ 1
้อย 1
2015 0.48317753815792736
แขวง 1
เมน 1
แอน 1
ผู้หญิง 1
หนี 1
a 0.014632946161351195
ัง@@ 1
สั่ง 1
น่า 1
กัมพูชา 1
ตำนาน 1
บัว 1
ไม@@ 1
ลุ 1
เปล@@ 1
ซอ 1
หัวใจ 1
สัตว์@@ 1
เกือบ 1
มาน 1
สถาปัตยกรรม 1
รับบท 1
การต่อสู้ 1
ทรัพย์ 1
ดิน@@ 1
ทอ 1
พระบรม@@ 1
มหาสมุทร 1
พันธ@@ 1
ตู 1
วด 1
สเตอร์ 1
ระยะเวลา 1
]] 1
รัน 1
การสอน 1
เหรียญ 1
พี@@ 1
อร@@ 1
เจดีย์ 1
พฤ@@ 1
เด่น 1
เลน 1
่าง 1
จำ 1
มวย 1
นอกจาก 1
ก์ 1
เชิง@@ 1
นิตยสาร 1
ลี่ 1
ช่วงเวลา 1
ราคา 1
2017 0.5103863685337489
2561 1
2551 1
จิต 1
แรง@@ 1
รุนแรง 1
ียร 1
วิธีการ 1
! 0.7536070136123576
มาถึง 1
กรณ์ 1
ช่วยเหลือ 1
เทียบ 1
ฟ์ 1
รายได้ 1
ประชุม 1
2555 1
นิว@@ 1
ถือ@@ 1
นส์ 1
2549 1
เหตุผล 1
ยุ 1
ข้า@@ 1
ฉาก 1
ล่าง 1
นักศึกษา 1
เวที 1
โนะ 1
เพศ 1
แต่งงาน 1
ขุน 1
เติบโต 1
บ้าง 1
เทพ@@ 1
โต@@ 1
มอน 1
ในขณะนั้น 1
แก 1
อธิ@@ 1
โดยทั่วไป 1
เดิน@@ 1
2559 1
หน่วยงาน 1
้อง 1
แป@@ 1
2562 1
ยอม 1
ผู้ป่วย 1
กรรม@@ 1
อ. 1
คอย 1
ย์@@ 1
คริสต์ 1
ฺ 1
คำสั่ง 1
คุ@@ 1
ออ@@ 1
ิด@@ 1
ดร. 1
วาย 1
2008 0.45542061009477214
สด 1
เพชร 1
ปฏิบัติ 1
ระยะ@@ 1
เกมส์ 1
น้ำหนัก 1
สถาปนา 1
หมาย@@ 1
ิล@@ 1
เสียง@@ 1
ลี@@ 1
อิสระ 1
็ค 1
ส่วนตัว 1
นิกาย 1
่าน 1
ค้า 1
เหล็ก 1
สาเหตุ 1
ศาล@@ 1
ประสงค์ 1
สตรี 1
(, 1
2013 0.44997146936966936
บุก 1
เห 1
เท่า 1
C@@ 0.250795654804191
อะไร 1
คง@@ 1
ท่า@@ 1
มัน@@ 1
เมืองหลวง 1
วอลเลย์บอล 1
formula 0.5737665189254171
ทั้งนี้ 1
ขน 1
ผม 1
รอย 1
ือ@@ 1
เคน 1
ซ้าย 1
ตรง@@ 1
พิษ 1
บัตร 1
่าย 1
มอบ 1
อุโบสถ 1
อุณหภูมิ 1
C 0.6236013077839492
รหัส 1
ไข@@ 1
ฟิ@@ 1
ร์ก 1
แนะนำ 1
2560 1
พรรษา 1
สำนัก 1
เอก@@ 1
นอน 1
ความคิด 1
หาง 1
รัง@@ 1
ฤทธิ์ 1
ไชย 1
คิ 1
ดาร 1
รม 1
รถไฟ 1
รวดเร็ว 1
เชื่อม 1
แฟน 1
รู@@ 1
D@@ 0.21444240762785036
ขึ้นไป 1
ฝึก 1
ตี@@ 1
@@ 0.11712484197944352
ธานี 1
ชัดเจน 1
ปฏิบัติ@@ 1
แสน 1
งาม 1
สนใจ 1
โดยที่ 1
อว@@ 1
ร้อย 1
งะ 1
แม่@@ 1
ัน 1
B 0.6768845780775314
00 1
กำลัง@@ 1
B@@ 0.2073308051156842
้ว@@ 1
มีส่วน 1
ดอน 1
ปริมาณ 1
มหาราช 1
ฝึก@@ 1
2019 0.48524032618310314
ราบ 1
เกล@@ 1
ไวรัส 1
สากล 1
แอฟริกา 1
ซูเปอร์ 1
ท่าอากาศยาน 1
สถานะ 1
2011 0.3856327971810962
เชิญ 1
เปอร์ 1
ส่งผล 1
เย็น 1
บรรดา 1
ตรวจ 1
ไต 1
เดอร์ 1
2552 1
เรือน 1
เมีย 1
นว@@ 1
เว 1
ที่สาม 1
ณา@@ 1
ชิงแชมป์ 1
ไบ@@ 1
เจ้าหน้าที่ 1
ทั้งคู่ 1
ึง@@ 1
กาล 1
พันธ์ 1
รู้สึก 1
ื่น 1
ื้อ@@ 1
มุม 1
ปลูก 1
สิ้นพระชนม์ 1
แล 1
รัชสมัย 1
คนใน 1
การเรียน 1
สุขภาพ 1
สมา@@ 1
เจอ 1
เจ้าฟ้า 1
แผ@@ 1
ลอนดอน 1
แกน 1
หนัง 1
ครึ่ง 1
ทุ่ง 1
ระหว่างประเทศ 1
พระราชินี 1
เหรียญ@@ 1
มัธยมศึกษา 1
เพิ่มเติม 1
ฝน 1
ี่@@ 1
ิก 1
ปฏิเสธ 1
พระพุทธรูป 1
ได้รับ@@ 1
ลัย 1
ห้าม 1
อต 1
เด็ก@@ 1
กระดูก 1
หอ 1
้ง@@ 1
สึ 1
บู 1
เชื้อสาย 1
มือ@@ 1
รัฐสภา 1
งวง 1
ช่อง@@ 1
บิ@@ 1
สัน@@ 1
2558 1
มู 1
โปรแกรม 1
ร. 1
่าง@@ 1
กลาย 1
ขวา 1
ความเร็ว 1
ยิ่ง 1
ส่งเสริม 1
ฟัง 1
รอง@@ 1
บาร์ 1
ทุกคน 1
หรือไม่ 1
การบริหาร 1
N@@ 0.23024805525468223
ตี้ 1
สมัคร 1
2556 1
โปรดเกล้าฯ 1
ประชา@@ 1
บวร 1
ลดลง 1
ัย 1
ชาร์ต 1
วร@@ 1
เนื่อง@@ 1
ลัทธิ 1
60 1
ระบบ@@ 1
แยก@@ 1
ภิ@@ 1
ลำตัว 1
ทวีป@@ 1
พี่น้อง 1
ชิน 1
เง@@ 1
เทคนิค 1
เบีย 1
ทราย 1
ยูไนเต็ด 1
ย่อ 1
เฉลี่ย 1
ไน 1
พายุ@@ 1
เชอ 1
นำ@@ 1
ขึ้น@@ 1
ภั@@ 1
อวกาศ 1
รักษา@@ 1
เปลี่ยนแปลง 1
สวรรค์ 1
เกร@@ 1
สำนักงาน@@ 1
แร@@ 1
ทะเบียน 1
การประ@@ 1
เร็ว 1
อาทิตย์ 1
ครอง@@ 1
ขุนนาง 1
นาที 1
ประสูติ 1
ชั่วโมง 1
พุทธศักราช 1
ศิ 1
ูด 1
สิ้นสุด 1
แบ่ง@@ 1
เอช 1
กลาง@@ 1
ม์ 1
มูล 1
ฤดูหนาว 1
พรรค@@ 1
เป้าหมาย 1
โฟ@@ 1
๋ 1
นทร์ 1
จุ 1
เหลี่ยม 1
ซะ 1
ตอบ 1
โย@@ 1
ลล์ 1
กล 1
พระราชโอรส 1
น้ำมัน 1
น้อยกว่า 1
ประทับ 1
หลัก@@ 1
ยิ@@ 1
เวล 1
ราชา@@ 1
ผลกระทบ 1
สถาน@@ 1
F@@ 0.21724538357158302
2009 0.3911630673869438
เหมาะสม 1
ไพ@@ 1
ท้าย 1
้าว 1
ฟิลิปปินส์ 1
ชัด 1
ลาน 1
ป่า@@ 1
หัน@@ 1
อ่าน 1
เขตการปกครอง 1
ร้องเพลง 1
โรงเรียน@@ 1
เซน 1
มุ่ง@@ 1
ร้อน 1
ก่อ@@ 1
พ่อ@@ 1
นอก@@ 1
หอ@@ 1
ึก@@ 1
คลื่น 1
แชมป์โลก 1
กัด 1
ฟรี 1
เท้า 1
อินโดนีเซีย 1
พระราชบัญญัติ 1
มีอายุ 1
n 0.3459739789595303
เกล้า 1
แปล@@ 1
บิล 1
2563 1
สิต 1
รับผิดชอบ 1
เวท 1
โดยตรง 1
W@@ 0.22086749252153273
ฟู 1
ร์ค 1
เขต@@ 1
ดั้งเดิม 1
วัคซีน 1
ให้การ 1
เซนติเมตร 1
เชีย 1
ฟัน 1
มีบทบาท 1
กี@@ 1
บาดเจ็บ 1
เท่ากับ 1
ภูเขา 1
มีผล 1
ดวง 1
โช 1
เหน@@ 1
R@@ 0.19873475693647627
ทู 1
หก 1
A@@ 0.20970885575022127
เอน@@ 1
พัน@@ 1
ภรรยา 1
์" 1
แช 1
แก้ 1
2007 0.4047678683243905
เล็กน้อย 1
ฮี 1
คี@@ 1
ความเชื่อ 1
รูปร่าง 1
ประดับ 1
้อน@@ 1
2@@ 1
ละคร@@ 1
ื้อ 1
นด์ 1
80 1
ความหมาย 1
เดีย 1
ชี@@ 1
สิริ 1
นอกจากนั้น 1
ปีก่อน 1
ลาย@@ 1
O@@ 0.26074704166158574
ตามลำดับ 1
y 0.032292793139661845
ตรวจสอบ 1
ศ. 1
หั@@ 1
ธุ@@ 1
กระแส 1
ื่อ 1
คง 1
ลักษณ์ 1
อพยพ 1
เพียง@@ 1
ความรู้ 1
L@@ 0.18393152227564036
กรุ@@ 1
ปรากฏตัว 1
ียม 1
E 0.9554766932734526
การประชุม 1
ชาวบ้าน 1
กระทรวง@@ 1
สิ 1
ลิน 1
x 0.6288732190420291
โว 1
สิน@@ 1
br 1
ใช้งาน 1
แจ้ง 1
2006 0.4083904060048246
ครั@@ 1
ถิ่น 1
เบิล 1
คอนเสิร์ต 1
หมาย 1
แทนที่ 1
นักบุญ 1
กบฏ 1
รก 1
ยอ 1
รับรอง 1
เสริม 1
on 0.033614166249605976
เกียรติ 1
สีแดง 1
พระบาทสมเด็จพระ@@ 1
ออน 1
เสนา@@ 1
สูตร 1
ธรรม@@ 1
เดนมาร์ก 1
ใช้เวลา 1
รวบรวม 1
แอล 1
ตอนที่ 1
มน@@ 1
สตาร์ 1
ถ่าย 1
สรุป 1
ทับ@@ 1
่วง 1
H@@ 0.20551728965585456
นัย 1
หู 1
เหตุ@@ 1
มาเลเซีย 1
หมู่เกาะ 1
ทดสอบ 1
เฉพาะ@@ 1
จอม 1
)" 1
นซ์ 1
ยืนยัน 1
แคนาดา 1
้าง@@ 1
ปู 1
มู@@ 1
จ้าง 1
องค์การ 1
อยุธยา 1
ชนะเลิศ 1
ซู@@ 1
็อน 1
ออสเตรีย 1
คอน@@ 1
ซาร์ 1
แตกต่าง 1
ครองราชย์ 1
อะ@@ 1
หนุ่ม 1
มิส 1
โคล@@ 1
ขวัญ 1
กรีก 1
2548 1
ปริญญาตรี 1
พฤติกรรม 1
ขอ@@ 1
อันเป็น 1
ฮ่องกง 1
ยืน 1
นาค 1
K@@ 0.20198708956262926
คู@@ 1
ขับ 1
ือก 1
เซีย 1
หุ@@ 1
โปรตุเกส 1
เรียก@@ 1
เลียน 1
ทิศ 1
สำเร็จการศึกษา 1
ตกลง 1
ธ์ 1
พงษ์ 1
ปก@@ 1
ร็อก 1
่อง@@ 1
นับถือ 1
โน้@@ 1
ภพ 1
มีโอกาส 1
ราก@@ 1
สุด@@ 1
สเต@@ 1
พันธมิตร 1
นักฟุตบอล 1
ก่อนที่ 1
ทัน@@ 1
แบบ@@ 1
สะ 1
การเขียน 1
ผู้คน 1
มิวสิก 1
อาณาเขต 1
จิน 1
แซ 1
แร 1
ราชา 1
ครอบคลุม 1
วาด 1
วิทยา@@ 1
ยกเลิก 1
ฉลอง 1
เป 1
E@@ 0.2289304194107834
โรง 1
รณ@@ 1
โบสถ์ 1
ยั@@ 1
้อม 1
เทีย@@ 1
i 0.2577154836864753
ร่วม@@ 1
ชีพ 1
จอ 1
S 0.7510600892385428
ผลิตภัณฑ์ 1
ูน 1
เนเธอร์แลนด์ 1
ชำ@@ 1
พระองค์เจ้า 1
ผู้อ@@ 1
ศัก@@ 1
สืบ 1
ประกาศ@@ 1
เปีย 1
แก้@@ 1
ถ่าย@@ 1
บร@@ 1
เครือข่าย 1
ฆ 1
บรรจุ 1
ที่สูง 1
ตั้งชื่อ 1
อาทิ 1
อ้างอิง 1
สติ 1
กลับ@@ 1
รอน 1
ศิ@@ 1
ดำ@@ 1
us 0.24843641177816347
มายัง 1
การประกวด 1
ศาสตราจารย์ 1
แก้ไข 1
โตเกียว 1
ธร 1
คอมมิวนิสต์ 1
มิได้ 1
บาย 1
ภารกิจ 1
โบราณ@@ 1
ประจำปี 1
สาธารณะ 1
เตรียม 1
พุทธ 1
อียิปต์ 1
หลากหลาย 1
เซนต์ 1
ทันที 1
ได@@ 1
ลาก 1
ท้อง@@ 1
ความรู้สึก 1
ประเพณี 1
รถยนต์ 1
สนาม@@ 1
ลงมา 1
ก่อนหน้า 1
วิชาการ 1
ท้อง 1
ติดกับ 1
ผู้จัดการ 1
นำไปสู่ 1
ปาก@@ 1
มวล 1
พัก@@ 1
ซึ@@ 1
วก 1
จิต@@ 1
นนท์ 1
อยาก 1
จำลอง 1
สนธิสัญญา 1
ตามที่ 1
จำเป็น 1
ตัด@@ 1
มติ 1
้ว 1
รัฐ@@ 1
อารมณ์ 1
ยาง 1
เว็บไซต์ 1
ทางการ 1
ไค 1
สู้ 1
เผ่า 1
ลส์ 1
ดัดแปลง 1
ขยาย@@ 1
วิ่ง 1
จด@@ 1
วิทยุ 1
ินี 1
ปรับ@@ 1
ศิลป์ 1
ฏ 1
เหมือนกับ 1
กลัว 1
ตาราง 1
ละครโทรทัศน์ 1
รัตน์ 1
จักร@@ 1
กรี@@ 1
ชัน@@ 1
เธ@@ 1
วาร 1
ปรัชญา 1
จู@@ 1
สิ่งมีชีวิต 1
่ำ@@ 1
สาขาวิชา 1
ปลา@@ 1
วิเคราะห์ 1
เลี้ยง@@ 1
แฮ 1
ฟอ 1
ค่อนข้าง 1
ต์@@ 1
โปแลนด์ 1
ท่องเที่ยว 1
ขี@@ 1
ฉัน 1
ชิงชนะเลิศ 1
เข้ากับ 1
แถ@@ 1
ความแตกต่าง 1
มอง 1
ที่นั่ง 1
สถานีโทรทัศน์ 1
I 0.2387211325515106
เดน 1
ศิลป@@ 1
ภ 1
2564 1
้าน@@ 1
ภาษาไทย 1
คิ@@ 1
ไฮ@@ 1
มีอำนาจ 1
อยู่@@ 1
บทความ 1
ญา@@ 1
ท้าว 1
รวมกัน 1
เสือ 1
แกรนด์ 1
อภิ@@ 1
โชว์ 1
ประดิษฐาน 1
มะเร็ง 1
กลม 1
บวก 1
ไล 1
สหภาพโซเวียต 1
การควบคุม 1
บังคับ@@ 1
พยา@@ 1
เปิด@@ 1
๒@@ 1
แฮ@@ 1
ขึ้นอยู่กับ 1
พิพิธภัณฑ์ 1
90 1
นั่ง 1
นิว 1
ลบ 1
ยกเว้น 1
ไว@@ 1
ฐาน@@ 1
แค่ 1
สถานการณ์ 1
... 0.7633300046208975
ช่วย@@ 1
สิ้น 1
ือก@@ 1
บราซิล 1
บัน 1
จ่าย 1
ศักดิ์สิทธิ์ 1
ไน@@ 1
พิ 1
บัง@@ 1
ศัตรู 1
ต้า 1
เอ็น@@ 1
ดาบ 1
ทะ@@ 1
ืน 1
ข้าว@@ 1
เนื้อที่ 1
ก็ตาม 1
ความเสียหาย 1
ทัศน์ 1
ฟา@@ 1
ุน 1
โร่ 1
เนื้อเรื่อง 1
ผิว 1
เจ้าอาวาส 1
หลายครั้ง 1
8@@ 0.5892103536026456
สวยงาม 1
เฟอร์ 1
คุณสมบัติ 1
ี่ยว 1
ยุติ 1
บันเทิง 1
ตติ@@ 1
ประเทศ@@ 1
สตูดิโอ 1
สวน@@ 1
ช้า 1
หนังสือพิมพ์ 1
ฮา@@ 1
ยน 1
หิ@@ 1
คาม 1
ประการ 1
หมุน 1
รู้@@ 1
เคา 1
มีความ@@ 1
คอ@@ 1
บรม@@ 1
หลวงพ่อ 1
พรีเมียร์ 1
แสดง@@ 1
ปรับปรุง 1
ียน@@ 1
บรา 1
ยุทธการ 1
รอย@@ 1
เลื่อน 1
ตุ 1
ปะ@@ 1
แท้จริง 1
บอ@@ 1
ขั้น 1
วิจัย 1
ั้น@@ 1
กต์ 1
กี่ 1
แอร์ 1
ชาย@@ 1
เบิร์ก 1
องค์ประกอบ 1
ภู 1
ราน 1
เอกสาร 1
to 0.012550043749750887
ต้นไม้ 1
เอ็@@ 1
สวีเดน 1
หลุยส์ 1
เพื่อน@@ 1
นัน 1
65 1
กด@@ 1
ึ่ง 1
อย่าง@@ 1
คอม 1
คอร์ 1
นิ้ว 1
กฎ 1
ติดตาม 1
น้อง 1
เทศบาลตำบล 1
เศษ 1
ผู้อำนวยการ 1
เจ้าเมือง 1
ชาติ@@ 1
ปฏิกิริยา 1
เปิดเผย 1
ลัน 1
ติดเชื้อ 1
P 0.9243209115033714
การทดลอง 1
แคล@@ 1
2547 1
กิ่ง 1
ซุน 1
เป็นผล 1
หง@@ 1
ที่หนึ่ง 1
คาด 1
+ 0.867451466226741
นักเขียน 1
มิตร 1
สิงห์ 1
เทียน 1
ถ 1
องค@@ 1
อ้าง 1
คาร์@@ 1
ธิการ 1
T 0.7824406587354333
ร้าน 1
ตำ@@ 1
บัติ 1
ราง 1
เคลื่อน 1
ความสนใจ 1
เป็นตัวแทน 1
สิ่งแวดล้อม 1
เชื่อมต่อ 1
มาร@@ 1
ทำได้ 1
เจ้าของ 1
อริ 1
ฟื้นฟู 1
เกณฑ์ 1
ความสูง 1
ระยะทาง 1
งานวิจัย 1
ปิด@@ 1
ียส 1
ฒ@@ 1
รด 1
มพ@@ 1
รังสี 1
รถไฟฟ้า 1
จุฬาลงกรณ์ 1
ความรัก 1
โฆษณา 1
วย 1
วาด@@ 1
ร่วมใน 1
เครื่องยนต์ 1
กำหนดให้ 1
เอา@@ 1
กรอบ 1
35 1
แหล่ง@@ 1
สภาพ@@ 1
มอ@@ 1
อิสลาม 1
เสา 1
ศาส@@ 1
ยูฟ่า 1
ราชินีนาถ 1
นับ@@ 1
เยื่อ 1
200 0.982753260436151
นม 1
ภายนอก 1
อาหรับ 1
al 0.07820079320919719
ตัวอย่างเช่น 1
มาตรา 1
ไม 1
ยอด@@ 1
คติ 1
ึก 1
ยง 1
นับตั้งแต่ 1
เจริญ@@ 1
ปุ@@ 1
มิติ 1
ทธ@@ 1
ใส 1
แหลม 1
สเป@@ 1
แห@@ 1
เทว@@ 1
หลวง@@ 1
มัง 1
ตรวจ@@ 1
มั่น 1
V@@ 0.21868251039582662
แปลง 1
ชายฝั่ง 1
น้อย@@ 1
2000 0.3764425444188849
ตารางกิโลเมตร 1
กัส 1
ทิ 1
เหลือง 1
อป 1
70 1
สิงคโปร์ 1
อิง 1
ริม 1
F 0.785203577051984
เคลื่อนที่ 1
หมื่น 1
ปารีส 1
M 0.8096028603004806
กษ@@ 1
คาด@@ 1
ยกย่อง 1
สนิท 1
เขมร 1
็ม 1
กรุงเทพ 1
พายุ 1
D 0.6244981641627931
ดับ 1
สระ 1
เวิลด์ 1
่อย@@ 1
้อง@@ 1
้วน 1
เป็นที่ตั้ง 1
ปีก 1
ข้าว 1
เจ็ด 1
บัน@@ 1
ผู้ใช้ 1
ษา 1
เทศบาล 1
พูด@@ 1
อันตราย 1
เบน 1
10@@ 0.7331277090671321
คี 1
แอนด์ 1
ดยุก 1
รัก@@ 1
มีค่า 1
สไต@@ 1
ความขัดแย้ง 1
ชัยชนะ 1
ฟอร์ด 1
องศา 1
อร์ด 1
2004 0.40614393157695755
ล้อม 1
สูญเสีย 1
ยาน@@ 1
เรียนรู้ 1
มห@@ 1
วางแผน 1
ตะวันออกเฉียงเหนือ 1
รักษ์ 1
ทัน 1
สร้าง@@ 1
ชะ@@ 1
9@@ 0.6157036090068004
พื้น@@ 1
ฝัน 1
ที่ว่า 1
พลเอก 1
มนตรี 1
เป็นเรื่อง 1
าม 1
คณิตศาสตร์ 1
ถูก@@ 1
เฉลิม@@ 1
ได้มา 1
ขบวน 1
ฮังการี 1
โดดเด่น 1
ยุค@@ 1
เป็นตัว 1
พระพุทธ 1
เข้าใจ 1
2021 0.4533720638264407
สมบัติ 1
นิวยอร์ก 1
ปัญญา 1
พบ@@ 1
2005 0.37910019296761543
ตลอดจน 1
ล์@@ 1
โฮ@@ 1
เสาร์ 1
ต้อง@@ 1
ซี่ 1
การปฏิวัติ 1
อ่อน@@ 1
ชวน 1
ต่าง@@ 1
โซเวียต 1
วาน 1
เหย@@ 1
บุตรชาย 1
บว@@ 1
ข้อความ 1
รายละเอียด 1
แพ 1
ความร้อน 1
โข@@ 1
กรุณา 1
บริหาร@@ 1
ราชสำนัก 1
ใ@@ 1
มง 1
แปซิฟิก 1
คนอื่น 1
ขับ@@ 1
โห@@ 1
ผนัง 1
เอกชน 1
ช์ 1
J@@ 0.23287144561115183
สาน 1
รงค์ 1
สมัยใหม่ 1
สงครามโลกครั้งที่สอง 1
ing 0.07094073653885859
นครราชสีมา 1
รับราชการ 1
32 1
บุตร@@ 1
ตอนเหนือ 1
ระเบ@@ 1
รุกราน 1
วงดนตรี 1
กล่าว@@ 1
กระตุ้น 1
ทองคำ 1
วรรณกรรม 1
เบิร์ต 1
เติ@@ 1
สว่าง 1
ฮัน 1
ประดิษฐ์ 1
สป@@ 1
ยึดครอง 1
บูชา 1
เช่นนี้ 1
ล้าง 1
กล้ามเนื้อ 1
โดน 1
ขอบ 1
ร์ด 1
เพลง@@ 1
กรด 1
จัดอันดับ 1
ฆา@@ 1
รอด 1
เอกราช 1
7@@ 0.5535053043219249
ว่าด้วย 1
วัฒน 1
N 0.8351801882376786
วิญญาณ 1
เชื้อ@@ 1
ราชบัลลังก์ 1
ช่าง 1
สายพันธุ์ 1
เรียกร้อง 1
เวียน 1
ไร้ 1
ดารา 1
มีความหมาย 1
ฮ 1
เต้น 1
ปั้น 1
นิยาม 1
ดอลลาร์สหรัฐ 1
ทะเลสาบ 1
H 1
ผสม@@ 1
ลงทุน 1
คนเดียว 1
อาณานิคม 1
สถานีรถไฟ 1
สัมผัส 1
45 1
คุณภาพ 1
มรดก 1
ว่า@@ 1
O 0.5220015467725042
ือน@@ 1
เหม@@ 1
แรงงาน 1
กลุ่ม@@ 1
ที่ปรึกษา 1
บัญชา 1
ช่วง@@ 1
มัส 1
คณะสงฆ์ 1
ชุมนุม 1
จัน 1
เทศกาล 1
การเงิน 1
ในสังกัด 1
ซิง 1
กี้ 1
ประกอบ@@ 1
ผลการแข่งขัน 1
มิน@@ 1
เทา 1
งบประมาณ 1
รองรับ 1
ผู้ชนะ 1
ชื่อ@@ 1
ในนาม 1
เจมส์ 1
เซียน 1
ขุ@@ 1
นำแสดง 1
เช 1
เรื่อย 1
แช@@ 1
สั่ง@@ 1
ครบ 1
ความจริง 1
เก็บ@@ 1
นัน@@ 1
กาใต้ 1
กด 1
เข้ม@@ 1
การทหาร 1
บล@@ 1
หลุ@@ 1
อย่างหนึ่ง 1
กำแพง 1
เสื้อ 1
ซอน 1
ย่าน 1
เมนต์ 1
ถึงแก@@ 1
สันนิษฐาน 1
พระราชพิธี 1
ไหล@@ 1
[ 1
ภาคใต้ 1
แพร่@@ 1
สิง@@ 1
เหล่านั้น 1
คำนวณ 1
เอ็ด 1
ยิว 1
สหภาพ 1
ผู้โดยสาร 1
บะ 1
สน 1
ลอง 1
ื่อ@@ 1
ให้ได้ 1
ระบาด 1
2546 1
ลอย 1
แอล@@ 1
พระที่นั่ง 1
วัสดุ 1
โจว 1
ทู@@ 1
สนามกีฬา 1
สะดวก 1
ถัดมา 1
นายก 1
ด็@@ 1
รองชนะเลิศ 1
เลข 1
สงบ 1
ซ้อน 1
บวช 1
ยาวนาน 1
คัด@@ 1
ชื่น@@ 1
คว้า 1
กระทั่ง 1
e@@ 0.15841708450019978
ความปลอดภัย 1
ที่วัด 1
พ่ายแพ้ 1
นัส 1
ปฐม 1
กว้างขวาง 1
นำเสนอ 1
สุวรรณ 1
โปรด 1
รวมไปถึง 1
วินิจฉัย 1
ศุ@@ 1
พนม 1
สะสม 1
คะ 1
หาร 1
กำจัด 1
ทำประตู 1
ถ่ายทำ 1
อัส 1
กฎ@@ 1
เก่าแก่ 1
t 0.1229925642388164
กรุง@@ 1
2544 1
ธนาคาร 1
ข์ 1
ตรี@@ 1
มังกร 1
X 0.7113223281805743
ข 1
การคัดเลือก 1
ยุทธ@@ 1
เวีย 1
ตอบสนอง 1
กลิ่น 1
ริม@@ 1
โส@@ 1
2542 1
ค้นหา 1
สกี 1
ร่วมงาน 1
แล้ว@@ 1
โลหะ 1
โอน 1
กุน 1
็ด@@ 1
สมุทร@@ 1
] 1
จิตร 1
ราก 1
สอบ 1
แต่ง@@ 1
์ค 1
ยุบ 1
แทน@@ 1
ใต้ดิน 1
ถา 1
วิลเลียม 1
ธนบุรี 1
เฟ 1
กวน 1
พรหม 1
เคร@@ 1
ความต้องการ 1
| 1
งู 1
มเหสี 1
โคร@@ 1
2539 1
ดวง@@ 1
อ้างว่า 1
สหพันธ์ 1
ความช่วยเหลือ 1
ยักษ์ 1
ขัด@@ 1
คลุม 1
ดาวเคราะห์ 1
เพลิง 1
พ้น 1
ฝา@@ 1
จอร์จ 1
75 1
ชั่วคราว 1
ลาด 1
เนิ@@ 1
วดี 1
ชื่อเล่น 1
รัตน 1
เป็นอย่างมาก 1
มป์ 1
ผู้ชม 1
ขวาง 1
้าง 1
ค้น 1
เกินไป 1
การป้องกัน 1
จิน@@ 1
บาน 1
ซ้ำ 1
ถ้ำ 1
มวยปล้ำ 1
เตอร์@@ 1
เกีย 1
บก 1
เกษ@@ 1
ที่ผ่านมา 1
กาย@@ 1
คัมภีร์ 1
ส่วนมาก 1
พื้นเมือง 1
โค้ง 1
สามัญ 1
เบร@@ 1
บรรยาย 1
มหาชน 1
หวาน 1
ราชสมบัติ 1
L 0.4525192534833695
พระบาทสมเด็จพระจุลจอมเกล้าเจ้าอยู่หัว 1
an 0.02851408345648362
สืบทอด 1
มาส 1
เม็กซิโก 1
เอ็ม@@ 1
เขตร้อน 1
เปรียบเทียบ 1
เก็ต 1
พจน์ 1
ไต้หวัน 1
ประสบการณ์ 1
พรรคการเมือง 1
หนู 1
โบ@@ 1
มุข 1
ับ@@ 1
ความสำคัญ 1
เอาไว้ 1
บ. 1
ตส์ 1
โซน 1
บรมวงศ์ 1
สหประชาชาติ 1
สอบ@@ 1
เข้าถึง 1
พอใจ 1
โครง@@ 1
2540 1
ธา 1
c 0.2835952513362032
ครีบ 1
พารา 1
ภักดี 1
ภาย 1
หม่อม 1
้ำ 1
สำนัก@@ 1
่าย@@ 1
ตาราง@@ 1
ผู้ใหญ่ 1
ปู่ 1
ศาลา 1
ผู้ว่า@@ 1
ยิ่งใหญ่ 1
2535 1
หลาน 1
เลือด@@ 1
บอน 1
โปร 1
500 0.9118702081585811
บัญญัติ 1
็ต 1
ตรงข้าม 1
นวนิยาย 1
ฉา@@ 1
สีเหลือง 1
คิม 1
สห@@ 1
คณะรัฐมนตรี 1
โรงแรม 1
ธรรมดา 1
สิทธิ@@ 1
ขุด 1
แสดงให้เห็น 1
!@@ 1
ปกป้อง 1
สมัย@@ 1
ถูกต้อง 1
แม 1
ปทุ@@ 1
สงฆ์ 1
หนาแน่น 1
เบอร์@@ 1
ศี@@ 1
้ม@@ 1
บอก@@ 1
พาณิชย์ 1
1,@@ 1
เพลย์ 1
จำเป็นต้อง 1
I@@ 0.2389580710651218
ลย์ 1
ฝัง 1
idae 1
เสรี@@ 1
จิตร@@ 1
สื่อ@@ 1
วุ@@ 1
ดุล 1
ดังต่อไปนี้ 1
ตระ@@ 1
อุดมศึกษา 1
โปรตีน 1
ผี 1
เทศ@@ 1
สี่@@ 1
ลิเวอร์พูล 1
มาร์@@ 1
เอน 1
ี้ยว 1
ี้ยน 1
บริโภค 1
ล่าสุด 1
ตามมา 1
บางคน 1
์, 1
ิสภา 1
ญาติ 1
ต่ำกว่า 1
เทียม 1
ขบวนการ 1
ปัก@@ 1
สร 1
m 0.18799854519001014
ส่วนท้องถิ่น 1
ผา 1
ดี้ 1
เมล็ด 1
ผู้ช่วย 1
ซิตี 1
ดำเนิน@@ 1
่อม 1
2545 1
นิวเคลียร์ 1
ถัง 1
มูลนิธิ 1
คุก 1
เผา 1
มีอิทธิพล 1
ติดตั้ง 1
ก่อให้เกิด 1
คนไข้ 1
คาทอลิก 1
่ว@@ 1
/@@ 1
ประกวด 1
พระพุทธศาสนา 1
่ย 1
ธา@@ 1
รับรู้ 1
เทือกเขา 1
่ำ 1
ศิษย์ 1
อนุมัติ 1
ธิบดี 1
คิด@@ 1
ืน@@ 1
เชี่ยวชาญ 1
อินเตอร์ 1
ร้าน@@ 1
ดื่ม 1
สำรวจ 1
2543 1
ีกา 1
amp 0.2574734370421512
ซับซ้อน 1
ณี 1
ยุทธ 1
ข่าว@@ 1
อิสราเอล 1
ยนต์ 1
ประท้วง 1
วรรณ@@ 1
ฮั่น 1
ประถมศึกษา 1
เชื้อ 1
บอร์ด 1
ิร์ล 1
กิน@@ 1
แบน 1
ตย์ 1
บำ@@ 1
ห้วย 1
เมือง@@ 1
สังเกต 1
เดช 1
สะท้อน 1
1990 0.4614184145048845
วอร์ 1
y@@ 0.19763548547685938
การกระทำ 1
แนล 1
." 1
G 0.6378051714351135
ทวีป 1
ตรา@@ 1
เป็นอดีต 1
นำมาใช้ 1
มีประสิทธิภาพ 1
V 0.6063056679338418
หม่อม@@ 1
แผนก 1
้าย 1
ทว่า 1
าะ 1
เซ็น@@ 1
แปด 1
ชายแดน 1
แพร่หลาย 1
กรุงศรีอยุธยา 1
ป่วย 1
ฟังก์ชัน 1
ไหน 1
จาก@@ 1
มณี 1
ดัง@@ 1
คิว 1
พิสูจน์ 1
ี้ย 1
WWE 1
อิหร่าน 1
เรื่อง@@ 1
ผิด@@ 1
เหรียญทอง 1
ความพยายาม 1
บูร 1
ศร 1
เตะ 1
รุ่น@@ 1
e 0.12872605833103476
เรย์ 1
วิกฤ@@ 1
สาธารณสุข 1
็อง@@ 1
ัด@@ 1
แต่งเพลง 1
ยอดขาย 1
ก่อนหน้านี้ 1
ฉายา 1
ทางเศรษฐกิจ 1
เอฟ@@ 1
จาง 1
ณฑ@@ 1
์ส 1
วิวัฒนาการ 1
d 0.1120013318645278
รับประทาน 1
หุ้น 1
หมา@@ 1
สลับ 1
การเคลื่อนไหว 1
ation 0.0911270245913925
ลาด@@ 1
เต็ม@@ 1
อร์ต 1
พลัง@@ 1
เลิก 1
ฮุ@@ 1
ทัวร์ 1
หนา 1
ชี้ 1
มุสลิม 1
48 1
เหมือนกัน 1
ิม 1
แทร@@ 1
ซึม 1
สิน 1
กระแส@@ 1
ปาง 1
เป็นต้นมา 1
บัง 1
พี่@@ 1
เสนอชื่อ 1
é 0.13519911193102274
วันนี้ 1
จะ@@ 1
เบิร์@@ 1
ขณะนั้น 1
ผู้เข้าแข่งขัน 1
นาม@@ 1
ก๊ก 1
บอย 1
ภูมิศาสตร์ 1
ม่วง 1
สามั@@ 1
หลง 1
โส 1
ิ้ล 1
เครื่องมือ 1
กวี 1
คริ@@ 1
คิง 1
นิยาย 1
ปรากฏการณ์ 1
กฤ@@ 1
ียบ@@ 1
ียล 1
เข้าแข่งขัน 1
ตอ 1
ร้อย@@ 1
ื่น@@ 1
ถ่ายภาพ 1
เสื่อ@@ 1
ทิศเหนือ 1
R 0.5747432550098194
กิจ@@ 1
ครั้งหนึ่ง 1
ยุทธ์ 1
เข 1
กู@@ 1
พงศ์ 1
ด่าน 1
อุดม@@ 1
ปัจจัย 1
ฟุ 1
สย@@ 1
เพชร@@ 1
ศูนย์@@ 1
จาร 1
บูรณะ 1
p 0.325602776904465
ตู@@ 1
ทางใต้ 1
คณ@@ 1
ตกแต่ง 1
ครบ@@ 1
ญญา@@ 1
ถาวร 1
ราม@@ 1
ธี@@ 1
บูร@@ 1
รส@@ 1
ออนไลน์ 1
อนิเมะ 1
อินเทอร์เน็ต 1
ีก 1
ล้มเหลว 1
ถู 1
ผู้เสียชีวิต 1
พี่ชาย 1
ยอม@@ 1
เวีย@@ 1
ปราบ 1
กระทรวงศึกษาธิการ 1
ฝีมือ 1
เวอร์ชัน 1
aceae 1
ุ่น 1
เซ็นสัญญา 1
ร่วมมือ 1
คว้าแชมป์ 1
ชิง@@ 1
ลงนาม 1
ตั้งใจ 1
น่าจะ 1
พยาบาล 1
คร 1
ท์@@ 1
ลล@@ 1
ือง 1
เกราะ 1
de 0.004322815870729934
จัง 1
ท. 1
ลัก@@ 1
เพิ@@ 1
ด้านหน้า 1
มีชีวิต 1
ิ่น 1
ตอบ@@ 1
ฑ@@ 1
เซ็@@ 1
ความถี่ 1
6@@ 0.5060320434943424
ฮี@@ 1
อส 1
จักรวาล 1
หลังคา 1
ห์@@ 1
ไม่ต้อง 1
ก้า 1
ลด@@ 1
สวรรคต 1
็กซ์ 1
ความสำเร็จ 1
รัฐประหาร 1
สิบ@@ 1
ดง 1
ทิศตะวันออก 1
2538 1
มวลชน 1
สโก 1
ความร่วมมือ 1
ป. 1
โต้ 1
ระเบียบ 1
สภา@@ 1
โซล 1
พี่ 1
ฮะ 1
โครง 1
มวล@@ 1
แฟ 1
ขัน@@ 1
ตัวอักษร 1
สิ้น@@ 1
โหล@@ 1
ดับเบิลยู 1
พยั@@ 1
ไพร 1
ซัส 1
็บ 1
และ@@ 1
นาซี 1
เจรจา 1
โดยเฉพาะอย่างยิ่ง 1
ชาร์@@ 1
ท้องที่ 1
ลอ 1
สวม 1
ได้ดี 1
โฉ@@ 1
is 0.018354100303193687
จารึก 1
การแพทย์ 1
คริสตกาล 1
พนักงาน 1
เลข@@ 1
ไตร@@ 1
คลัง 1
2002 0.36115070804305754
มนต์ 1
สุโขทัย 1
อัศ@@ 1
กุมาร 1
ซ์@@ 1
พญา 1
สถานี@@ 1
พระนคร 1
สตา@@ 1
อภิเษกสมรส 1
ไมล์ 1
เฮนรี 1
ขณะเดียวกัน 1
สุนทร 1
แร่ 1
ภาษี 1
แม่เหล็ก 1
ไก 1
ขัง 1
เด็@@ 1
ได้รับแต่งตั้ง 1
ื้@@ 1
ฉี@@ 1
น้ำแข็ง 1
รัม 1
โกล@@ 1
ผู้ชาย 1
เชื่อ@@ 1
เลขาธิการ 1
ด้านล่าง 1
การวิจัย 1
มีความสำคัญ 1
ม่า 1
ทั้งหลาย 1
ฯลฯ 1
แปร 1
ลุง 1
หลักการ 1
ตช์ 1
พรรณ@@ 1
จับกุม 1
ญาณ 1
กองทัพบก 1
เป็นที่นิยม 1
ถ้วย 1
ฟุต 1
สอง@@ 1
อัญ@@ 1
การใช้งาน 1
o@@ 0.177924919344243
ขาด@@ 1
ความมั่นคง 1
หม่อมเจ้า 1
2003 0.36412307875809485
แส@@ 1
ร่า 1
มองเห็น 1
เบา 1
แซม 1
จริง@@ 1
ตำหนัก 1
สังเกต@@ 1
ี้ย@@ 1
เจอร์ 1
็อ@@ 1
สูญ@@ 1
แคบ 1
ตึก 1
ขอให้ 1
พระครู 1
กล้อง 1
กองทัพเรือ 1
ศาสน@@ 1
ความเห็น 1
ยืม 1
วน@@ 1
อุท@@ 1
เซต 1
อุทยานแห่งชาติ 1
ความเสี่ยง 1
ั่ง 1
เจ็บ@@ 1
จอมพล 1
บางอย่าง 1
ปอ 1
โด่งดัง 1
มัด 1
เวช 1
แต่ละ@@ 1
ทิศตะวันตก 1
ี้@@ 1
พิทักษ์ 1
ศีรษะ 1
เป็นหลัก 1
เรียบ@@ 1
ขอนแก่น 1
ความรุนแรง 1
ทิศใต้ 1
เอเช@@ 1
เศ@@ 1
นาถ 1
แผ่นดินไหว 1
อี้ 1
จ. 1
โรงงาน 1
ผู้ปกครอง 1
ประมุข 1
ทั่วประเทศ 1
สโต@@ 1
ในอนาคต 1
ทางเพศ 1
ฬ 1
ปลาย@@ 1
ฟ้า@@ 1
ภิกษุ 1
ประยุ@@ 1
เอกลักษณ์ 1
เข้ม 1
จร 1
สลัก 1
กง 1
แฝ@@ 1
สมุ@@ 1
เพาะ@@ 1
ขนาน 1
ลูกชาย 1
ธี 1
ใกล้ชิด 1
ท่อ 1
ประเด็น 1
ระบอบ 1
เวลา@@ 1
นักวิชาการ 1
โระ 1
ซุ 1
วส์ 1
เลี่ยง 1
โทร 1
ค่ำ 1
นักการเมือง 1
ยม 1
พย์ 1
ดาน 1
มัธยม 1
1980 0.5238813593743264
เพิ่ม@@ 1
ทัศ@@ 1
แน่นอน 1
ฟิสิกส์ 1
เจีย 1
ทอด@@ 1
กระท@@ 1
หัวหน้า@@ 1
มิต 1
ทรรศ@@ 1
สัก 1
ิง@@ 1
เขา@@ 1
เนียน 1
สตัน 1
๋ง 1
ยีน 1
หญ้า 1
เบลเยียม 1
36 1
:@@ 1
อนุภาค 1
อ่าว 1
อนุรักษ์ 1
๑@@ 1
อินทร@@ 1
k 0.21164683458546998
ถึงแม้ว่า 1
ละลาย 1
การสำรวจ 1
เกียรติ@@ 1
อเมริ@@ 1
ไม่ค่อย 1
ทะ 1
o 0.08685352993596263
ตัวผู้ 1
ุก 1
ื้น 1
วด@@ 1
แถว 1
b 0.2994671044149764
ล์ม 1
สงสัย 1
ภาคเหนือ 1
ไอร์แลนด์ 1
ช่วงแรก 1
อับ 1
พระราชธิดา 1
พิธีกร 1
าก 1
กรุงเทพฯ 1
ผู้บัญชาการ 1
ี่ย@@ 1
อิสริยาภรณ์ 1
99 1
ด้านหลัง 1
ยื่น 1
สระ@@ 1
ดำรง 1
เก้า 1
แค้น 1
หิน@@ 1
ถาม 1
มูลค่า 1
ทุกวัน 1
บริจาค 1
เชียง 1
แห้ง 1
โมเลกุล 1
หมอ 1
กระทรวงมหาดไทย 1
นคริ@@ 1
ริด 1
หมวดหมู่ 1
เสริ@@ 1
ทางสังคม 1
ส. 1
ปูน 1
ียบ 1
ถิ่นกำเนิด 1
ทรัพย์สิน 1
วุฒิ 1
สัดส่วน 1
ลักษณะ@@ 1
หมด@@ 1
เปิล 1
แผนการ 1
ยั้ง 1
,@@ 1
บำรุง 1
หอม 1
โปรด@@ 1
การเกษตร 1
น์@@ 1
ตุรกี 1
ล็อก 1
วอ@@ 1
แสง@@ 1
ช่าง@@ 1
ดวงอาทิตย์ 1
อัด 1
นก@@ 1
มิด 1
การปรับปรุง 1
ซาน@@ 1
นิสัย 1
พระบรมราช@@ 1
อะตอม 1
เปลือก 1
กระ 1
ชัย@@ 1
โคจร 1
ออกเสียง 1
เผชิ@@ 1
เสรี 1
สัญชาติ 1
๋า 1
ผ้า@@ 1
อู่ 1
300 1
แฟร@@ 1
ทดลอง 1
น้ำตาล 1
U@@ 0.23645490928665297
บุรุษ 1
ตอนแรก 1
พระราชา 1
็อก@@ 1
ช่วงต้น 1
คล้ายคลึง 1
เทน@@ 1
ไพ 1
ปุ 1
เต็มที่ 1
โคล 1
um 0.12717441230412868
ราชการ@@ 1
อุด@@ 1
เพื่อที่จะ 1
เสกสมรส 1
ส้ม 1
แชมเปียนส์ 1
ยธรรม 1
ประสา@@ 1
แพทยศาสตร์ 1
พัง 1
วิถี 1
เมะ 1
โต้@@ 1
ตสึ 1
ตลก 1
วัตร 1
สถาบัน@@ 1
ศวร 1
for 0.020689418161099163
กลางเมือง 1
33 1
ื่อน 1
ชายา 1
ชัก@@ 1
ผู้กำกับ 1
เร็@@ 1
ไมเคิล 1
ตถ์ 1
ค้าน 1
ปรี@@ 1
แขน 1
h 0.252156815616463
อิส 1
ate 0.1178304812275954
วิด 1
เฉลิม 1
ตัวแทน 1
ล้วน 1
แอบ 1
การ์ด 1
ลิขสิทธิ์ 1
จัดทำ 1
สันตะปาปา 1
ล. 1
ู่@@ 1
ไส@@ 1
ทิศ@@ 1
ไทยแลนด์ 1
่อน@@ 1
งานเขียน 1
วาระ 1
ปริญญาโท 1
เขตเลือกตั้ง 1
คุ้มครอง 1
ดม 1
นครศรีธรรมราช 1
สังคมนิยม 1
ถอน 1
เพียงแค่ 1
แมค 1
ทางรถไฟ 1
เยือน 1
แหวน 1
section 0.9036451138890815
พิพากษา 1
ดับ@@ 1
จักรพรรดินี 1
ทุกปี 1
อีก@@ 1
เศร้า 1
ซ่า 1
สตี@@ 1
ภิเษก 1
เฝ้า 1
น่าน 1
ข้าราชการ 1
จดหมาย 1
สายการบิน 1
ใช้ชีวิต 1
กล้า 1
ทัย 1
มวยสากล 1
ทริ@@ 1
กุศล 1
ื่อย@@ 1
ึ 1
เตรียม@@ 1
กรอง 1
ล่า@@ 1
ข้อตกลง 1
ยกทัพ 1
งก์ 1
เทศบาลเมือง 1
เบส 1
แสดงว่า 1
แม้แต่ 1
งอ 1
นง 1
เช้า 1
เปลี่ยนเป็น 1
/& 1
๕@@ 1
กอ@@ 1
บ่อยครั้ง 1
ผู้แทน 1
ป้อม 1
สัก@@ 1
เติม 1
พาน 1
แง@@ 1
ฝุ่น 1
สถานที่@@ 1
ไตร 1
เซอร์@@ 1
ธงชาติ 1
หลบหนี 1
ท่าเรือ 1
เกิด@@ 1
น้องชาย 1
55 1
บรรยากาศ 1
เสื้อ@@ 1
แฟน@@ 1
จิตใจ 1
ปะ 1
ซิม 1
เกะ 1
พื้นผิว 1
ไลน์ 1
ยึด@@ 1
วิสุงคามสีมา 1
เทวี 1
โรม 1
2001 0.31830989501769363
ตอนปลาย 1
ช. 1
พากย์ 1
วิทยาเขต 1
หุ้ม 1
เอ็ดเวิร์ด 1
สำเนียง 1
แฮม 1
จม@@ 1
นิช 1
อุบัติเหตุ 1
แบคทีเรีย 1
K 0.6393148758944946
ละเอียด 1
หลายชนิด 1
ขุน@@ 1
ทัล 1
ครรภ์ 1
สร้างสรรค์ 1
เนียม 1
ถุ@@ 1
ภาย@@ 1
คุม 1
ทองแดง 1
เหนือ@@ 1
ขั้น@@ 1
World 0.222663967053606
เหยื่อ 1
ขึ้นกับ 1
ภิ 1
เปลี่ยนไป 1
ี่ยง 1
ถัมภ์ 1
แท้ 1
แปร@@ 1
โองการ 1
เวย์ 1
ธรณ@@ 1
บ่อย 1
เลื่อน@@ 1
Z@@ 0.17059072899368175
อย่างไรก็ดี 1
๊ก@@ 1
กรีซ 1
พรรณ 1
ราษฎร 1
วรรณ 1
s@@ 0.08104993895676076
ศรัทธา 1
ฉ 1
ตต์ 1
;@@ 1
สงขลา 1
ึ้ง 1
ลูกสาว 1
95 1
เซ็น 1
มงกุฎ 1
ญา 1
นารี 1
ยม@@ 1
แบร์ 1
ไบ 1
ก้าว 1
ชื่อดัง 1
นิค 1
ยาม 1
ฤดู 1
ดอก@@ 1
ด้าน@@ 1
เวิร์@@ 1
ทำนอง 1
สาธารณ@@ 1
ตอนต้น 1
เซฟ 1
นติก 1
ปิ 1
ลิก 1
ฝั่ง@@ 1
พูน 1
องค์@@ 1
แต่เดิม 1
ณ์@@ 1
โอะ 1
มีปัญหา 1
กลอง 1
เป็นระบบ 1
ครั้น 1
เอ็กซ์ 1
็อป 1
ปลายปี 1
เหลือ@@ 1
กลีบ 1
ประกัน 1
บรรพ@@ 1
ศาสตร@@ 1
อัคร@@ 1
หลายอย่าง 1
ic 0.24348337665320083
สก 1
ก้าวหน้า 1
จ์ 1
จันท@@ 1
สวย 1
ฮอล@@ 1
ลังกา 1
บัญชี 1
บุค@@ 1
ไกร 1
รับเชิญ 1
u 0.19450972213309517
จาน 1
ล้ม@@ 1
2541 1
พระธาตุ 1
ัย@@ 1
er 0.029541973966761722
2537 1
ครอบครอง 1
สำนักพิมพ์ 1
ดจ์ 1
ดูด 1
จำแนก 1
ผูก@@ 1
ผู้ผลิต 1
จาร@@ 1
เชียงราย 1
แก๊ส 1
ชีวิต@@ 1
r 0.35688639405497236
ต่างชาติ 1
แล้วก็ 1
มล 1
ูก 1
สีน้ำตาล 1
นอร์เวย์ 1
นักวิทยาศาสตร์ 1
แมตช์ 1
มาณ@@ 1
ค่าใช้จ่าย 1
n@@ 0.12351435937986814
ริเริ่ม 1
สุร@@ 1
เดิ@@ 1
เป็นไปได้ 1
มืด 1
ถ่ายทอด 1
เล็ก@@ 1
คาบสมุทร 1
จอร์@@ 1
ลือ 1
ขั้นต@@ 1
ฑา 1
พ.@@ 1
รม@@ 1
an@@ 0.11187829916918333
อัย@@ 1
ไขมัน 1
เหลว 1
ทิศทาง 1
มองว่า 1
34 1
อัตโนมัติ 1
หุ่น@@ 1
ู้ 1
12@@ 0.6655050330659751
กังวล 1
ว่าง 1
หัส@@ 1
แต่ว่า 1
ด้า 1
2534 1
es 0.030776747067558334
เสถ@@ 1
โพธิ์ 1
นเสียง 1
เข้ารอบ 1
t@@ 0.10435995471212886
การสื่อสาร 1
มุมมอง 1
ดิบ 1
วัต 1
กาญ@@ 1
สมุด 1
บาร์@@ 1
Y@@ 0.23193707902751715
หล่อ 1
อักเสบ 1
ทำเป็น 1
ยัน 1
ใย 1
เปร@@ 1
นิเว@@ 1
อักษ@@ 1
อิสริยยศ 1
64 0.9507023645103078
กั้น 1
มหานิกาย 1
เวียง 1
ยุติธรรม 1
การปฏิ@@ 1
ชนบท 1
เช่นเดียวกัน 1
คัน@@ 1
ชะ 1
วัยรุ่น 1
รัชทายาท 1
ล้อ 1
อิรัก 1
กันที่ 1
ว่ายน้ำ 1
เชื้อเพลิง 1
ในเวลา@@ 1
ไหม้ 1
“@@ 1
กลไก 1
หาด 1
ี่ยม@@ 1
แลกเปลี่ยน 1
ติดต่อกัน 1
พลเรือน 1
แคลิฟอร์เนีย 1
แกน@@ 1
ฬ@@ 1
ขั้ว@@ 1
d@@ 0.11598427259409787
ุม 1
บ่อ 1
เตือน 1
เลก 1
คมนาคม 1
ไฮโด@@ 1
กาง@@ 1
บัส 1
เลส 1
ฤดู@@ 1
แมน@@ 1
กวาง 1
ตลาด@@ 1
ี้ 1
ครู@@ 1
ซอง 1
พิธี@@ 1
ฟาโรห์ 1
วัตถุประสงค์ 1
เขียน@@ 1
โลห@@ 1
อย่างไร 1
แด 1
วินาที 1
๑ 1
ปลดปล่อย 1
in@@ 0.08587342623741458
ขนส่ง 1
บาก 1
เชษฐา 1
ประสบ 1
ซอฟต์แวร์ 1
ลด์ 1
ปะทะ 1
ชม@@ 1
ดาราศาสตร์ 1
ทางทหาร 1
นิพนธ์ 1
0,000 1
or 0.048321500559339974
หอย 1
แมนเช@@ 1
ดำรง@@ 1
ดำเนินงาน 1
แพร่ 1
ทาส 1
สงคราม@@ 1
สมั@@ 1
กระทำ 1
ทน 1
ปีศาจ 1
แจ 1
ตัวเมีย 1
ได้ยิน 1
ยิ่งขึ้น 1
วงกลม 1
วิก 1
ยูเครน 1
ญญา 1
ติน 1
X@@ 0.4531864390182041
แตน 1
ก้าน 1
ผู้สนับสนุน 1
ฟิ 1
98 1
เคลื่อนไหว 1
กระด@@ 1
พง@@ 1
สแต@@ 1
ปวด 1
ละติน 1
ขั้นตอน 1
ซัง 1
แรงบันดาลใจ 1
รายการ@@ 1
ศุกร์ 1
อนุชา 1
เครื่องหมาย 1
จน์ 1
ปอนด์ 1
ผู้ก่อตั้ง 1
ผู้บริหาร 1
ฮอ@@ 1
งก 1
แบล@@ 1
ร่าง@@ 1
จังหวะ 1
ทางเหนือ 1
พื้นดิน 1
ดีขึ้น 1
สิ้นสุดลง 1
ณะ 1
ทะเล@@ 1
นึก 1
ia 0.1966414844268997
แรก@@ 1
ด์@@ 1
สังเคราะห์ 1
2536 1
สมควร 1
อาสน 1
แอฟริ@@ 1
c@@ 0.14520011612527692
พระพุทธเจ้า 1
นิง 1
อีสาน 1
เบื้องต้น 1
เป็นไป 1
กึ่ง 1
ี๋@@ 1
ศาลา@@ 1
เวสต์ 1
ชิ้น@@ 1
เพาะ 1
ค้า@@ 1
วิศวกรรม@@ 1
ชั้นสูง 1
ถอน@@ 1
ถั@@ 1
ทางตะวันตก 1
ขัน 1
ปราบปราม 1
ข้า 1
เลง 1
มอบ@@ 1
ล้านนา 1
วบ 1
กระบ@@ 1
เคล@@ 1
หลง@@ 1
เงื่อนไข 1
เวลส์ 1
ประสิทธิภาพ 1
ผสาน 1
ยกฐานะ 1
กับ@@ 1
ของวัด 1
ลัด 1
สลาย 1
แมลง 1
กิโลกรัม 1
ป้าย 1
เครียด 1
ประหลา@@ 1
สู้รบ 1
อาคาร@@ 1
ไห@@ 1
1992 0.3995962419334113
ขั้ว 1
42 1
นายพล 1
ิร์น 1
โลก@@ 1
กระจก 1
ทาย 1
จฉ@@ 1
ทักษะ 1
ศก 1
ัม 1
เลิ@@ 1
ตตา@@ 1
นัดดา 1
บันทึก@@ 1
รุ่งเรือง 1
วงจร 1
1996 0.38451004766931157
ดอกไม้ 1
ยับ@@ 1
เวท@@ 1
พร้อมด้วย 1
ขับไล่ 1
ถัด@@ 1
ียง@@ 1
ชลบุรี 1
ดีกว่า 1
ันท@@ 1
็น@@ 1
เป็นเจ้าของ 1
สภาผู้แทนราษฎร 1
เชส 1
เหง@@ 1
รอบ@@ 1
เยี่ยม 1
จัดตั้งขึ้น 1
เส 1
on@@ 0.13645315820493056
นติ@@ 1
วจะ 1
ฟี@@ 1
ปฏิทิน 1
อุ่น 1
จันทน์ 1
อดุลยเดช 1
คำถาม 1
การปฏิรูป 1
ทอด 1
มวยไทย 1
ทรัพยากร 1
ทุ 1
ปกครอง@@ 1
ป์ 1
ผู้สร้าง 1
พระทัย 1
มอญ 1
2533 1
วุธ 1
เมื่อ@@ 1
1998 0.34994696398076863
ควร@@ 1
ส์" 1
เภสั@@ 1
พัด 1
การขนส่ง 1
พระศพ 1
จอมเกล้า 1
นิส 1
วาส 1
การท่องเที่ยว 1
ย่า 1
กุ้ง 1
มาก@@ 1
ออสการ์ 1
คริสเตียน 1
เลขที่ 1
น้องสาว 1
ปลด 1
รน 1
ปีเตอร์ 1
สวิตเซอร์แลนด์ 1
ูน@@ 1
เคารพ 1
ชิน@@ 1
รณ์ 1
สเก@@ 1
โดยรวม 1
มีผล@@ 1
เพศ@@ 1
สภาวะ 1
วัดราษฎร์ 1
กส์ 1
ภาควิชา 1
ดง@@ 1
นั่นเอง 1
สับ@@ 1
อบรม 1
ครั้งนั้น 1
พระสงฆ์ 1
เกษตร 1
39 1
al@@ 0.11295596941490607
ก็@@ 1
จุล@@ 1
ฝูง 1
เที่ยวบิน 1
เซา 1
ดั้ม 1
คุ้มกัน 1
ล่วง@@ 1
วิชาชีพ 1
พัฒนาการ 1
อาชญา@@ 1
วาร@@ 1
ถน@@ 1
ฟอร์ม 1
แทบ 1
เศรษฐศาสตร์ 1
กีตาร์ 1
สรร 1
Ch@@ 0.16758602110096307
ความจำ 1
โดด 1
สามี 1
ทร์ 1
วม 1
วชิ@@ 1
สึ@@ 1
เรียว 1
มองโก@@ 1
ล้ม 1
ตัวเลข 1
ั้น 1
แอนิเม@@ 1
1999 0.310971658124627
แสดงนำ 1
44 0.9841583939607215
r@@ 0.11553899544544347
ข้างเคียง 1
รุก 1
วัย@@ 1
2531 1
พระเจ้าอยู่หัว 1
5@@ 0.4071761762335941
38 0.9608338458067129
ด้านบน 1
ต้นกำเนิด 1
วิทยุ@@ 1
โมเด@@ 1
รัช 1
ฤษฎ@@ 1
หัด 1
อล์ฟ 1
วัล 1
ไช@@ 1
มลายู 1
มัธยมศึกษา@@ 1
05 1
มอบหมาย 1
ืด 1
หัน 1
13@@ 0.6389855044287882
1970 0.4566105883623477
อรร@@ 1
แมว 1
ขาย@@ 1
วิก@@ 1
แม็ก 1
ก๊า@@ 1
ครึ่ง@@ 1
แฮร์@@ 1
’ 0.04622833112083879
g 0.22543851205416796
"" 1
° 0.47276507896278225
กม. 1
วัต@@ 1
เพราะว่า 1
สน์ 1
บำบัด 1
ราชภัฏ 1
ประสบ@@ 1
เสด็จสวรรคต 1
ดวงจันทร์ 1
​@@ 1
คุม@@ 1
ยอง 1
ระดับสูง 1
เดวิด 1
ดร 1
โก้ 1
สุลต่าน 1
47 1
โพร@@ 1
อาน 1
แม่ทัพ 1
อิเล็กทรอนิกส์ 1
จราจร 1
U 0.40649595809569883
สาธิ@@ 1
สมัคร@@ 1
กษ์ 1
ผนว@@ 1
มปิก 1
หลอด 1
ควบ@@ 1
ภัย@@ 1
วิท@@ 1
ษฐ 1
เมา 1
รัตนโกสินทร์ 1
ไล่ 1
i@@ 0.162404570979281
ซาก 1
ก่อน@@ 1
ทุกอย่าง 1
วิชัย 1
ปัส@@ 1
เอเชียตะวันออกเฉียงใต้ 1
ทรั@@ 1
ส่วนประกอบ 1
์ก 1
สุสาน 1
ไว้@@ 1
ือน 1
72 1
g@@ 0.11284210324149672
ชาน 1
แนวทาง 1
ลึก@@ 1
เชล@@ 1
แตก@@ 1
อค 1
อัตรา@@ 1
กลางคืน 1
ดึง 1
กระทรวงการ@@ 1
ทำร้าย 1
เรียบร้อย 1
37 1
เป็นที่@@ 1
กองทัพอากาศ 1
ลงคะแน@@ 1
เสมือน 1
ตอนกลาง 1
นำไปใช้ 1
ประหารชีวิต 1
หมายเหตุ 1
l 0.08050974990901828
ป็อป 1
พรรคประชาธิปัตย์ 1
วะ@@ 1
ทิน 1
ือด@@ 1
เอียง 1
ลก 1
ษ์ 1
สวามี 1
สำรอง 1
แน่@@ 1
ฏิ 1
เกล้าเจ้าอยู่หัว 1
ดัม 1
มุ่ง 1
จุดเริ่มต้น 1
ผ่าน@@ 1
มูล@@ 1
ูก@@ 1
ส.ส. 1
สงครามโลก 1
ine 0.17214469700272722
ี่ยง@@ 1
เดย์ 1
เป็นต้น@@ 1
ไมโคร@@ 1
เคียว 1
มกุ@@ 1
เจียง 1
มหาวิทยาลัยธรรมศาสตร์ 1
โดยสาร 1
ทหารบก 1
ร้าง 1
เชน 1
บัญชาการ 1
ยาย 1
43 1
อังคาร 1
เชื่อมโยง 1
ี่ยม 1
ขอบเขต 1
ยิน@@ 1
สุนัข 1
สัตว์ป่า 1
สันหลัง 1
สันติภาพ 1
เว็บ 1
1997 0.3566486481606085
ออกซิ@@ 1
เมอร์ 1
กุมารี 1
บุรีรัมย์ 1
93 1
ึ่ง@@ 1
คิน 1
วุฒ@@ 1
เนส 1
้ำ@@ 1
;/ 1
กระดูก@@ 1
จัก 1
ปก 1
กอน 1
ร่ว@@ 1
ูป 1
ธาร 1
01 1
หมัด 1
คลับ 1
สนม 1
จำพวก 1
ผิว@@ 1
แข็งแกร่ง 1
สังคม@@ 1
แวดล้อม 1
ทับ 1
1960 0.48720764671671984
ณา 1
มพร 1
เปลี่ยน@@ 1
91 1
จิตรกร 1
หมวด 1
หนึ่ง@@ 1
อนา@@ 1
85 1
บริสุทธิ์ 1
หายใจ 1
เปอร์เซีย 1
แวร์ 1
ทรู 1
ตู้ 1
ยิ่ง@@ 1
แทรก@@ 1
นิติบัญญัติ 1
มาตร 1
ยื@@ 1
57 1
a@@ 0.18454206028719464
กัป@@ 1
ตะวันตกเฉียงเหนือ 1
แห่ 1
เถียง 1
88 1
ครา 1
ชวา 1
สมการ 1
เมริเดียน 1
ยัง@@ 1
หญ@@ 1
ทรา@@ 1
ัล 1
49 1
ธั@@ 1
ส" 1
ธรรมเนียม 1
กระดา@@ 1
ต่อไปนี้ 1
ิว@@ 1
84 1
ครี@@ 1
มินิ 1
รัตน@@ 1
รถถัง 1
อาร@@ 1
มี่ 1
เคราะห์ 1
ไผ่ 1
พลเมือง 1
ษฎ@@ 1
สกอตแลนด์ 1
นักดนตรี 1
บพิตร 1
ทวีปยุโรป 1
ฟิล์ม 1
บลู 1
41 1
ประจ@@ 1
ทางอากาศ 1
มาลา 1
แอตแล@@ 1
ซอล 1
ตั้งถิ่นฐาน 1
วร์ 1
ประทาน 1
ปริญญา 1
ในกรณี@@ 1
ความผิดปกติ 1
จัดแสดง 1
ผลไม้ 1
พระพุทธ@@ 1
บูรณ์ 1
โยธิน 1
สัมพันธมิตร 1
พร้อมกัน 1
เพ็ญ 1
53 1
จอด 1
ด่วน 1
ปีการศึกษา 1
ฟรา@@ 1
หยุด@@ 1
ดอย 1
ที่ทำการ 1
ดาวฤกษ์ 1
หนาน 1
ไก่ 1
ปฏิวัติ 1
เตอร์เทน@@ 1
ชร 1
่าน@@ 1
คนไทย 1
52 1
รำ@@ 1
ขับร้อง 1
ท้าย@@ 1
พระเกียรติ 1
สุร 1
หมิง 1
ไต@@ 1
เช่น@@ 1
เลิศ 1
สอดคล้อง 1
อิเล็กตรอน 1
แคร@@ 1
W 0.6791881782704262
ทบ 1
สัญ@@ 1
ยูนิ@@ 1
เบื้องหลัง 1
การออกอากาศ 1
พุ 1
08 1
เกษตรกรรม 1
400 0.8314843352245193
พันธุกรรม 1
คุก@@ 1
ท่วม 1
พิษณุโลก 1
คะแน@@ 1
รับใช้ 1
วัว 1
เดียม 1
ยิง@@ 1
องค์การบริหารส่วนตำบล 1
แล้วจึง 1
ไทร 1
สัมภาษณ์ 1
งิ 1
ศาสนาพุทธ 1
ถก@@ 1
หลิว 1
เช่า 1
กระสุน 1
ผัน 1
วัฒนา 1
ซอย 1
89 1
รัศ@@ 1
น็อค 1
หลีก@@ 1
เราะ 1
ทักษิ@@ 1
เขน 1
เลิฟ 1
กติ 1
บรรณา@@ 1
เบธ 1
พร้อมทั้ง 1
ล่มสลาย 1
บ่ง@@ 1
หยาง 1
แสวง@@ 1
ปืนใหญ่ 1
ศา 1
ดัช@@ 1
ทายาท 1
อย่างยิ่ง 1
่อม@@ 1
ลำปาง 1
ศาสนาคริสต์ 1
สหรัฐ@@ 1
ผู้สำเร็จ@@ 1
แสดงถึง 1
โฟร์ 1
56 1
กลาโหม 1
ปฐ@@ 1
ติกา 1
โดยมาก 1
54 1
วย@@ 1
ย่อม 1
อาญา 1
ฮัน@@ 1
แผนที่ 1
— 0.035202595695176836
ซีเรีย 1
นัย@@ 1
at 0.021691448151296176
คราว 1
ทารก 1
2529 1
ื้อง 1
จุฬา 1
ชนมายุ 1
อย่างเช่น 1
กรณ@@ 1
มิลลิ@@ 1
94 1
ศิลปากร 1
ปี่ 1
ผู้ฝึกสอน 1
ผู้สมัคร 1
ศาสนา@@ 1
ปราการ 1
ริชาร์ด 1
โคน 1
เซน@@ 1
เต่า 1
อุดม 1
เกา 1
เรื่องย่อ 1
มร@@ 1
ฮินดู 1
20@@ 1
ปไตย 1
เล่า@@ 1
สิ่งก่อสร้าง 1
แข็งแรง 1
ยี 1
บรรพบุรุษ 1
บ้านเมือง 1
สเซิล 1
อุบลราชธานี 1
เมิน 1
กลา@@ 1
ฬิกา 1
เท่ากัน 1
โต๊ะ 1
ี่ย 1
เป็นประจำ 1
ได้ที่ 1
ษณ@@ 1
สัย 1
แผ่ 1
๊ 1
1,000 1
ชมพ@@ 1
สีน้ำเงิน 1
เป็นเจ้าภาพ 1
คลื่น@@ 1
คุย 1
ตอ@@ 1
น้ำทะเล 1
เวิ@@ 1
กิ่ง@@ 1
ตะวันตกเฉียงใต้ 1
นเร@@ 1
สิริ@@ 1
76 1
ที่สี่ 1
โรมาเนีย 1
คริสตจักร 1
พืชดอก 1
รอด@@ 1
วิศวกรรม 1
สารสนเทศ 1
เท็@@ 1
เสียหาย 1
ฉัตร 1
ยูโร 1
เทิร์น 1
ทั่ว@@ 1
หมู 1
อัคร 1
2518 1
ก๊@@ 1
ซึ 1
บวน 1
สูง@@ 1
เณ@@ 1
ชี้@@ 1
ปริญญา@@ 1
อวัยวะ 1
เจ้านาย 1
เศรษฐ@@ 1
ความคิด@@ 1
นิวซีแลนด์ 1
ประเมิน 1
สติ@@ 1
พอล 1
ลอบ 1
97 1
เดีย@@ 1
ประโยค 1
ภูมิอากาศ 1
การตอบรับ 1
ต่อกัน 1
ต้าน 1
หลอดเลือด 1
ีต 1
เน็ต 1
จง@@ 1
สะอาด 1
สเตอร์@@ 1
เวียง@@ 1
96 1
นักแสดง@@ 1
ศิลา 1
ฮิต 1
ed 0.043965762347931876
ขี้@@ 1
ข้น 1
จิตวิทยา 1
สห 1
บัลลังก์ 1
สนามบิน 1
โภ@@ 1
03 1
ชื่อเสียง 1
ราชินี 1
ic@@ 0.19962434480582014
ครั้งสุดท้าย 1
นาการ 1
อาณา 1
เกลือ 1
เปรีย@@ 1
ประจำการ 1
็ง@@ 1
โยะ 1
ไซด์ 1
2530 1
สละ 1
กล่าวคือ 1
พระเยซู 1
ฮอร์@@ 1
เกียรติยศ 1
เงา 1
2532 1
หัวเมือง 1
๒ 1
06 1
จอม@@ 1
ดิจิทัล 1
ทวี 1
เยาว์ 1
พิชิต 1
ฟิน@@ 1
92 1
อัง 1
46 1
กุหลาบ 1
ดาวเทียม 1
เป็นงาน 1
สุทธิ 1
ค้าขาย 1
จิ๋ว 1
ลวด@@ 1
อาหาร@@ 1
อู@@ 1
หะ 1
เวอร์@@ 1
ร้าย@@ 1
วัยเด็ก 1
บี้ 1
บุคลา@@ 1
บุญ@@ 1
มนุษย@@ 1
J 0.8686371325373982
ฉุกเฉิน 1
นวน 1
กู้ 1
ที่ว@@ 1
ar 0.07223337905878352
เอะ 1
63 1
ซ่อน 1
ตามกฎหมาย 1
น้ำจืด 1
พระมารดา 1
อัต@@ 1
ณั@@ 1
กัล@@ 1
คริสต์@@ 1
คริสต์ศักราช 1
ชนนี 1
ตำรวจ@@ 1
ทุน@@ 1
โปเกมอน 1
โฟ 1
คลาสสิก 1
สล@@ 1
กอก 1
พัฒน 1
เจาะ 1
ทาว@@ 1
สวัสดิ์ 1
เสริม@@ 1
09 1
ชาน@@ 1
ฮิตเลอร์ 1
แสดงออก 1
et 0.013937610734753676
ฒ 1
ยี@@ 1
f@@ 0.10314090799322313
คลินิก 1
ทางการแพทย์ 1
ทางเดิน 1
มีมติ 1
เสมอ@@ 1
โจร 1
ถา@@ 1
นนทบุรี 1
สมาชิก@@ 1
เปรียบ 1
ดิว@@ 1
ตะวันออกเฉียงใต้ 1
นามสกุล 1
แลน 1
กำแพง@@ 1
เซิน 1
แรม 1
นิน@@ 1
ยาม@@ 1
แคน 1
]@@ 1
คัส 1
or@@ 0.11892067969885985
ลัส 1
อาวุ@@ 1
ที่อยู่อาศัย 1
เสด็จพระราช@@ 1
ปัจ@@ 1
นิสถาน 1
2,@@ 1
ดุ 1
แผล 1
ทิเบต 1
ผิวหนัง 1
เสา@@ 1
ฆ่า@@ 1
ร้อง@@ 1
ล้อม@@ 1
51 1
ตง 1
ก่อตัว 1
ตติ 1
ปัน 1
นักวิจัย 1
ฟิล@@ 1
เรียน@@ 1
แอป@@ 1
ณิ@@ 1
สมัครเล่น 1
ความหลากหลาย 1
็อต 1
ac@@ 0.1607510254258064
1991 0.3436589211969848
ผิดพลาด 1
ียด 1
os@@ 0.22259784432893898
บัญชีรายชื่อ 1
นิด 1
ในเครือ 1
จริต 1
วาย@@ 1
กรรมา@@ 1
หัก 1
ลี้ภัย 1
ไหม 1
2519 1
ัส 1
1994 0.3376293691914985
ไส้ 1
p@@ 0.09633901875648997
ฎ 1
ประชา 1
อนุ 1
02 1
คลา 1
สถาปนิก 1
เนื่อง 1
แหล่งข@@ 1
ch@@ 0.08331447138027102
ใดๆ 1
แลก 1
77 1
พน@@ 1
2522 1
เบญ@@ 1
แกรมมี่ 1
กรมหลวง 1
สถ@@ 1
ุก@@ 1
เคลื่อน@@ 1
แบบนี้ 1
14@@ 0.6414197782146399
เกษตรศาสตร์ 1
04 1
นายทหาร 1
ลาส@@ 1
เกิล 1
โมน 1
ความเข้าใจ 1
๐ 1
67 1
ฉะนั้น 1
มอน@@ 1
ปล้ำ 1
หน่วย@@ 1
ผ่าตัด 1
นวย@@ 1
สมาชิ@@ 1
เต็มไป@@ 1
ขนา@@ 1
78 1
ซีน 1
ลาม 1
ปลอดภัย 1
วรร@@ 1
พระชน@@ 1
58 1
อิก 1
ฟิลิ@@ 1
้าย@@ 1
วอล@@ 1
81 1
คม@@ 1
พะ@@ 1
หาย@@ 1
องค์การ@@ 1
หลา@@ 1
อากาศยาน 1
w 0.33888466193371686
73 1
สวัส@@ 1
2022 0.6799960035437275
นอง 1
เป็นไป@@ 1
2528 1
68 1
University 0.13130332994101426
ฟื@@ 1
1993 0.3407731147293448
พระชนม์ 1
59 1
นิติ@@ 1
ลเล@@ 1
จำนวน@@ 1
้อย@@ 1
จารย์ 1
ำเ@@ 1
ธาน 1
เกีย@@ 1
ๆ@@ 1
er@@ 0.07471159595396197
พืช@@ 1
เกาหลี@@ 1
บัณฑ@@ 1
ครั้ง@@ 1
62 1
ar@@ 0.09796023464530677
ข่าย 1
เบียน 1
=@@ 1
ติศาสตร์ 1
1995 0.31621535851464094
Y 0.8115897342892117
ื่@@ 1
ชั่ว@@ 1
83 1
Re@@ 0.1766230776599404
66 1
ไต้@@ 1
82 1
69 1
มิว@@ 1
วัด@@ 1
Love 0.8346049034233075
79 1
ปืน@@ 1
71 1
ดิ์ 1
ักษ์ 1
th@@ 0.14822480270762614
om@@ 0.18567816284922986
ธาน@@ 1
86 1
07 1
ผู@@ 1
0.@@ 0.6776759719235479
เพื่อ@@ 1
บาท@@ 1
แห่ง@@ 1
ol@@ 0.16037990608242006
ot@@ 0.1650826562991384
สื่อสาร 1
โพธิ@@ 1
กรร@@ 1
เสน@@ 1
1988 0.36641994028067726
..@@ 1
ควา@@ 1
อำนา@@ 1
International 0.2794360867296757
ญญ@@ 1
ศรีอยุธยา 1
มงกุ@@ 1
บริษั@@ 1
เสี่ยง 1
b@@ 0.08649557181173215
1989 0.33842121446517287
เหร@@ 1
มาย 1
วัตถุ@@ 1
พันธุ@@ 1
ity 0.16134078378833203
เปอร์@@ 1
ศาสต@@ 1
ภัณฑ์ 1
k@@ 0.09681413078288985
กษา 1
3,@@ 1
1945 0.3235902674296719
กระจา@@ 1
เรือง 1
h@@ 0.09422419833507699
๓ 1
มาตร@@ 1
ค่อย 1
end 0.12802703186070724
74 1
ชิต 1
เฉิน 1
'@@ 1
ธรร@@ 1
Sh@@ 0.19774740687372128
en@@ 0.05651318152932597
1.@@ 0.6947050154363539
ฤกษ์ 1
เกษตร@@ 1
2500 1
%@@ 1
oc@@ 0.22514932584577274
๋ว 1
el@@ 0.08473891863720566
one 0.04812291465372467
มนุษ@@ 1
แน่น 1
ผิดปกติ 1
ราง@@ 1
อนด์ 1
สวิ@@ 1
150 0.9593927125290034
จัก@@ 1
อนาคต 1
เป็@@ 1
โฆษ@@ 1
4,@@ 1
ใหญ@@ 1
0@@ 0.5324664077506147
87 1
600 0.9923428952771641
ํ@@ 1
ราษฎร์ 1
รัส@@ 1
เริ่ม@@ 1
el 0.011676347349546702
่อย 1
61 1
as@@ 0.10859360948710926
f 0.24610899543510403
le 0.012191097718469329
5,000 1
คอม@@ 1
มั่น@@ 1
เที่ยว 1
จอ@@ 1
You 0.5990724137267714
ทด@@ 1
๔@@ 1
เว้น 1
New 0.07848471012323169
เหมือน@@ 1
ริยา 1
้วย 1
หลอด@@ 1
ปัญ@@ 1
แก๊@@ 1
มหานคร 1
TV 0.33232967852024276
ศัพ@@ 1
ดารา@@ 1
In@@ 0.16939418823906566
่วน 1
ph@@ 0.2145215345218816
กล้า@@ 1
re@@ 0.04059826488997068
ให@@ 1
บาด@@ 1
มอง@@ 1
v 0.3408038483411082
800 0.9952070458805361
วิศว@@ 1
รุ่ง@@ 1
มเป@@ 1
1984 0.3599748707724102
เที่ย@@ 1
ือง@@ 1
สมุทร 1
am 0.05218373529259178
ทอง@@ 1
เครือ 1
ประก@@ 1
1950 0.38259180557636024
ฝรั@@ 1
m@@ 0.09807607339785045
เต็@@ 1
นอร์@@ 1
ระบ@@ 1
z 0.16197817925265084
l@@ 0.08224596506495521
op@@ 0.1754595226586374
เกี่ยว@@ 1
II 0.15428473670991977
แย้ง 1
เหมา@@ 1
2,000 1
ใต้@@ 1
ื่อย 1
á 0.46754701136835297
รัต@@ 1
ฮ่อง@@ 1
th 0.1960438806061657
ราษฎ@@ 1
en 0.005780057746745903
ฟ่า 1
am@@ 0.11925030343918228
4@@ 0.33009750768515833
ชุม@@ 1
ทธิ@@ 1
ตรอน 1
ีบ 1
ul@@ 0.1363173681968926
Best 0.5426523036608039
ังก์ 1
กัง@@ 1
จริ@@ 1
เครือ@@ 1
เจ็บ 1
เชียง@@ 1
ือบ 1
๔ 1
คล 1
ยศาสตร์ 1
ไข้ 1
เสร็@@ 1
j@@ 0.09591505090364859
1986 0.32854614564540147
ใส@@ 1
๕ 1
ครัว 1
ศึกษา@@ 1
นายก@@ 1
เทคโนโล@@ 1
อล์@@ 1
ปรึกษา 1
”@@ 1
Music 0.35121622843287564
ดน@@ 1
มส์ 1
1940 0.39978951479423497
? 0.35308888995520815
Th@@ 0.2102830402630451
ตอบรับ 1
as 0.009751967180704287
สวา@@ 1
co@@ 0.12604014328390217
ชล@@ 1
สุน@@ 1
is@@ 0.10593385156628254
กรัม 1
ตถ@@ 1
แม้@@ 1
นิวเคล@@ 1
x@@ 0.228839880641314
ด้ว@@ 1
ชุม 1
ปัจจุ@@ 1
ตุลา@@ 1
พัฒ@@ 1
ประหาร 1
ขัดแย้ง 1
School 0.15036524772034046
นวยการ 1
แผ่นดิน@@ 1
it 0.025543316749715866
ตะวันออก@@ 1
ม่ 1
ฟอร์@@ 1
เบื้อง@@ 1
หัส 1
5,@@ 1
at@@ 0.09841045374980559
แหล@@ 1
เหมาะ@@ 1
1987 0.30608140749286905
ห้า@@ 1
begin 1
สเซ@@ 1
ap@@ 0.13237647552715312
to@@ 0.1738822763148665
เพ็@@ 1
ur@@ 0.12405976886698067
มัง@@ 1
เผย 1
Al@@ 0.11161343861251653
ve 0.05747830238818367
ad@@ 0.08292880761157519
กลั@@ 1
ทัพ@@ 1
1.5 1
เทค@@ 1
ขนาด@@ 1
Ar@@ 0.11076492061924872
Con@@ 0.14310849392702904
ิ่น@@ 1
มาร์ก 1
it@@ 0.10184441145608616
แข็ง@@ 1
ดอลลา@@ 1
ประถ@@ 1
นัง 1
120 1
ษฐา 1
1985 0.30409667858565737
หนา@@ 1
่วง@@ 1
ั้@@ 1
ศิล@@ 1
ใด@@ 1
,000 1
ch 0.13920444759242975
ism 0.2921212964596606
id@@ 0.13177707020622412
หลัง@@ 1
Z 0.6965144011721963
พิท@@ 1
ระย@@ 1
เดียน 1
ชิด 1
อยู่อาศัย 1
v@@ 0.0931502384839938
ตาล 1
700 1
ไก@@ 1
10,000 1
Q@@ 0.3012095548185043
1972 0.31873541775086384
ous 0.13555385126960687
An@@ 0.08991128064181249
ทธิ 1
ลย@@ 1
รัช@@ 1
ขอบ@@ 1
สอด@@ 1
ธนา@@ 1
นิคม 1
วาล 1
ฝู@@ 1
ล้อ@@ 1
งคา@@ 1
ฝี@@ 1
เคิล 1
no 0.051815159781021455
กระจ@@ 1
พระมหา@@ 1
ทอ@@ 1
tr@@ 0.07864335787472401
6,@@ 0.9736383902270019
ซอ@@ 1
สีมา 1
๐@@ 1
ไหว 1
ไทย@@ 1
ae 0.305119406728006
3@@ 0.2710077536638218
ือด 1
ขณะ@@ 1
ฑ 1
ิป@@ 1
เศร@@ 1
com 1
มั่นคง 1
พิพา@@ 1
ษฐ์ 1
สงครามโลกครั้ง@@ 1
ai 0.21749865385502534
เจ้าภาพ 1
u@@ 0.10825798106719374
.ศ. 1
National 0.10923699462047234
ณฑ์ 1
ศิษ@@ 1
Co@@ 0.1853350451120933
1983 0.29460680833174774
แพร@@ 1
ค้น@@ 1
di@@ 0.09345372976705302
ti@@ 0.10716214062780502
ักษ@@ 1
๓@@ 1
ana 0.13334520762512708
ec@@ 0.14489752873959763
ซอฟ@@ 1
ตว@@ 1
2.5 1
วิชา@@ 1
สรรค์ 1
j 0.437093557861803
ศักราช 1
es@@ 0.07439349280581975
ปรุง 1
8.@@ 0.9957545244934618
ent 0.05412183383443732
un@@ 0.04754435272007169
กลาย@@ 1
3,000 1
วิถ@@ 1
เจา@@ 1
ส.@@ 1
.. 0.8944465251002746
[@@ 1
z@@ 0.06820617999680659
In 0.014999015483712531
ประวั@@ 1
li@@ 0.10678820575609997
ter 0.07257462795452882
1930 0.36162000332654864
My 0.6389872382838312
1979 0.2880566190897744
1968 0.2984079373603261
ติธรรม 1
๊ะ 1
อินโด@@ 1
ชาญ 1
7.@@ 0.8963690737313043
1920 0.3530277695453738
1982 0.27882675970121873
Ex@@ 0.20372720533519403
# 0.4088042509439752
1981 0.2814803229859224
Award 0.29559731650291404
man 0.06612886738335975
มัธย@@ 1
ฉะ@@ 1
เทศบาล@@ 1
lo@@ 0.10666076076561593
1976 0.29058718923310306
สันนิ@@ 1
ฟิก 1
ฤ 1
* 0.14187847430706574
1964 0.32426195315621315
20.@@ 1
by 0.00993271957949448
ฬา@@ 1
ary 0.12373731088827103
ลักษ@@ 1
em@@ 0.1048635743097253
la 0.003363021006525607
อัง@@ 1
เลี้ย@@ 1
de@@ 0.08543902879692042
ล้าน@@ 1
1941 0.3012244267847166
1975 0.27119212620816896
ed@@ 0.13142915306151803
่าว 1
ฟุต@@ 1
เวิร์ด 1
แผ่น@@ 1
John 0.0948688620924768
ภรณ์ 1
ag@@ 0.09540931576587226
et@@ 0.1031189257138354
le@@ 0.09581095460415678
คาร@@ 1
7,@@ 0.8490487469665166
w@@ 0.07249708009404043
พฤติ@@ 1
ิต@@ 1
วล 1
os 0.04992753679774766
tic 0.31052330401851697
yl@@ 0.309870681416937
๖ 1
da 0.0660263614961883
ers 0.04439128673074067
1939 0.3105300585411981
Car@@ 0.1374635715573574
ภาษ@@ 1
้าน 1
จุฬา@@ 1
1944 0.26977457908184277
ite 0.13788244540318983
cor@@ 0.1983560350619095
มิวนิ@@ 1
ื่อง 1
2.@@ 0.46783828012867196
รณะ 1
1978 0.27379959299661705
100,000 1
รรม@@ 1
ธง@@ 1
๙ 1
ō 0.6027733456897869
ยืน@@ 1
250 0.7854203252381629
AS@@ 0.5368126704929842
Awards 0.3680476912819892
− 0.7977388819479339
1974 0.26944577052281965
ure 0.2140493178328454
Championship 0.2943710696942389
with 0.00928786686444735
เทอร์@@ 1
ก้า@@ 1
มหาด@@ 1
สนิ@@ 1
Q 0.6920608892045831
ตาร์ 1
AT@@ 0.7856556775250902
ab@@ 0.058015478994861314
ต่ำ@@ 1
นบุรี 1
กระทบ 1
สาห@@ 1
เฉล@@ 1
ā 1
‘ 0.42813084871775553
te 0.0407352125879147
id 0.24370405776974102
ata 0.2074097701009034
?@@ 1
ep@@ 0.21356492738468968
st@@ 0.06203743645947849
bi@@ 0.12499958303839762
00@@ 0.8487520816354807
แคว@@ 1
ฆ์ 1
Di@@ 0.15821989569012157
ng 1
องค์การบริหาร@@ 1
ยุโร@@ 1
นที่ 1
• 1
si@@ 0.15262818628769778
ศรั@@ 1
Mon@@ 0.14756250528591552
age 0.05234625936373988
ปป@@ 1
ระหว่าง@@ 1
22@@ 1
อากาศ@@ 1
บาล@@ 1
มณฑ@@ 1
แก่น 1
1@@ 0.32508699729653
ase 0.2576433191105321
เสิร์@@ 1
× 0.681131611896439
อัก@@ 1
๗ 1
CD 0.4150602639912505
สุข@@ 1
ong 0.22408613889013007
CO@@ 0.7102262884809775
Me 0.5647615595392536
ad 0.1388914418969544
ศั@@ 1
0,@@ 0.4175488750451381
ี่ยว@@ 1
10.@@ 0.8602269540561526
im@@ 0.08547054736511837
ทรัพยา@@ 1
เผย@@ 1
1969 0.26534987288863726
ตริ@@ 1
แพท@@ 1
คับ@@ 1
ฌ 1
1948 0.2994541736209589
9.@@ 0.9150501741105427
สัตว@@ 1
ดก 1
ภัก@@ 1
ol 0.18912649403639906
8,@@ 0.864173045568034
1967 0.2674910138110687
1977 0.2573380728883921
Mar@@ 0.09066296879395398
tion 0.12449711700567874
กบ@@ 1
000,000 1
1971 0.2457148906684073
1956 0.30103093906952916
En@@ 0.1490255480829975
po@@ 0.10954511038519517
ใช@@ 1
โดด@@ 1
พว@@ 1
หาร@@ 1
อาทิ@@ 1
ang 0.1999616161020947
ื่อง@@ 1
้วง 1
ๅ@@ 1
Man 0.3627168222819044
กิริยา 1
1942 0.2706815936514042
ฟุ@@ 1
King 0.21014530662982678
Thailand 1
เที@@ 1
พิจาร@@ 1
หยุ@@ 1
ya 0.0748292993982881
บล 1
สปี@@ 1
1973 0.2404723179945146
ราชธานี 1
หนาว 1
ื้อง@@ 1
101 1
AR@@ 0.5267858625088524
๘ 1
ปลด@@ 1
เฝ@@ 1
ตล@@ 1
ัติ 1
Bo@@ 0.16691009705745324
onlyinclude 0.9306590852137734
โภค 1
il@@ 0.09140764460512665
3.@@ 0.5677608448336744
000 0.29311397422459856
เปรียบ@@ 1
รพ 1
Le@@ 0.11270714398233304
เกา@@ 1
18.@@ 1
Par@@ 0.12075278446708124
ü 1
It 0.028135896157222742
ir@@ 0.09511728866209393
De@@ 0.14023867003523835
og@@ 0.1819585554078878
สำเร็จ@@ 1
การ์ 1
ราชย์ 1
พวก@@ 1
่าว@@ 1
1918 0.30327733073800195
der 0.004062640662746906
ensis 0.4406722267498058
บิด@@ 1
ma 0.14844065157837807
od@@ 0.17045744166445578
ro@@ 0.09097731265879944
Entertainment 0.6700802175423463
ance 0.09883067413597289
ห์น 1
ํ 1
St@@ 0.09688109036483362
ina 0.1068839373844362
1936 0.30568161488646106
เสนอ@@ 1
กลุ@@ 1
sh@@ 0.07867390212704682
จุลจอม@@ 1
Cor@@ 0.14784748359229105
แส 1
Br@@ 0.10573539589891309
Se@@ 0.12508039683143765
Tr@@ 0.09828866605521176
ical 0.13032500199785685
กำหนด@@ 1
oph@@ 0.35456345595082933
1962 0.2640991535557345
อดุลย@@ 1
ดีโอ 1
9,@@ 0.92478743986177
กรณี@@ 1
$ 0.09536814440520944
ทธ 1
Team 0.2919384087736777
un 0.007981620893580248
พรร@@ 1
ไซต์ 1
ant 0.043469342927247384
ษา@@ 1
se 0.010759585205899275
900 1
ตย@@ 1
ญาต 1
1943 0.24236450048052766
ศล 1
1963 0.2571174179925682
IS@@ 0.6027103179228038
ated 0.05109947600236066
ทรัพย์@@ 1
ษั@@ 1
20,000 1
1000 0.4941809751934972
1949 0.2746675524887
BC 0.5073411740299834
ie 0.05311908446189683
180 1
130 1
1952 0.28445800031640117
1947 0.27599087606017936
Star 0.36524640900990435
ww@@ 1
ลลิ@@ 1
ah 0.17068658120262564
ฟื้น@@ 1
ular 0.33933161862432126
พนัก@@ 1
One 0.15625455652796966
Un@@ 0.1737715600972166
ator 0.14098319059680767
1938 0.26579279340804657
par@@ 0.08569425577287096
III 0.2002865409398298
ST@@ 0.8014003538511281
1946 0.24817268386664315
Str@@ 0.151313189490458
1965 0.23314362845622208
ob@@ 0.12830680179011447
ing@@ 0.11648045343318282
คาร 1
ak@@ 0.10592367105617524
ö 1
ิว 1
1958 0.2562843140480148
หนังสือ@@ 1
เลื@@ 1
Ac@@ 0.20314698425607125
ครอบ@@ 1
ศัย 1
่วย@@ 1
ー@@ 1
ักษณ์ 1
เด็น 1
นาคม 1
เบล@@ 1
ative 0.15968615542070572
cell 0.6581128359202021
คลิ@@ 1
ay 0.1159019438264944
็อค 1
หลบ@@ 1
1966 0.23033558051409725
Mo@@ 0.15844310859533825
ist 0.015487321281712135
ea 0.21141531563913207
ó 0.0511740906767249
ประสิทธิ@@ 1
United 0.05407887748248495
17.@@ 1
per@@ 0.09348084564995625
สถาปั@@ 1
1954 0.27200339346708613
ยิน 1
1961 0.24902875000870595
All 0.14239961400222556
ินส์ 1
พูล 1
Group 0.2150117837681962
ology 0.1528685751531554
พิมพ@@ 1
ri@@ 0.09498576424575629
พลาด 1
4,000 1
no@@ 0.14428859145480505
American 0.053936677774182096
Black 0.2575886313410965
ั้ง 1
ER@@ 0.7336006930015637
กระทรว@@ 1
สวรร@@ 1
19.@@ 1
Sp@@ 0.16284053202800028
ปฏ@@ 1
22.@@ 1
แชมเป@@ 1
ไข 1
Battle 0.37899615924539215
ษฐาน 1
ory 0.23559433861071438
ป้อง@@ 1
car@@ 0.09593301027272227
IN@@ 0.6014485415925255
st 0.16210573252722044
พยพ 1
ษฐ@@ 1
neur@@ 0.6247969464414637
กว้าง@@ 1
tive 0.18170108405108065
He@@ 0.16062405403439922
แกร@@ 1
CA@@ 0.45020978848075616
ang@@ 0.10745767663704135
end@@ 0.10634959046736445
SE@@ 0.6817771098070857
|@@ 1
12.@@ 0.8708860971994661
13.@@ 1
อุตสาห@@ 1
Time 0.46915558495523657
บัญ@@ 1
สะด@@ 1
Girl 0.9955466722858348
เตร@@ 1
สนอง 1
1959 0.24159031683063273
CO 1
No 0.2532640899547595
Ne@@ 0.14151512661916935
ผู้อำ@@ 1
บรา@@ 1
College 0.10947783526362562
ta 0.0836944600101583
ne@@ 0.11535991688352187
~ 1
กุม 1
mo@@ 0.10861335616896624
พย@@ 1
+@@ 1
มุม@@ 1
5.@@ 0.6390825093197036
Royal 0.1636913155895682
110 0.823594525187192
ler 0.07174472178410629
ida 0.14845664963061514
ทธา 1
มว@@ 1
1919 0.26434162999177346
City 0.08265943919183592
็บ@@ 1
se@@ 0.07111231795784563
อวัย@@ 1
1900 0.3341602314391286
As@@ 0.162334857368324
us@@ 0.0828810527105826
Ro@@ 0.1449953653275118
1957 0.23977609430337773
Me@@ 0.15703621238361054
az@@ 0.14124084445879326
เกิน@@ 1
ทฤษฎ@@ 1
の@@ 1
น้ำเงิน 1
sp@@ 0.09182416527595409
11.@@ 0.8323597169131981
1912 0.31852572361121756
16.@@ 1
able 0.04785756464961003
หนัง@@ 1
ฯ@@ 1
Com@@ 0.14667366610278568
Live 0.4636823665053445
AN@@ 0.6221367705454669
พร้อม@@ 1
Center 0.20572928940854301
li 0.27426977924080215
ตน@@ 1
ลิข@@ 1
na 0.08381944344926312
เอล 1
be 0.015983954038863338
ให้เกิด 1
IM@@ 0.667046123781204
ak 0.12023952307993847
โยง 1
RE@@ 0.6251450612429774
ath@@ 0.20032518586235684
ดอล@@ 1
ส่วนต@@ 1
ella 0.15933824532188923
จากนี้ 1
ati@@ 0.12328586645430879
อนิ@@ 1
Wrestling 0.8560297493338416
ence 0.1015253699043903
21.@@ 1
6.@@ 0.6881895382186006
Col@@ 0.11503605525155329
pi@@ 0.11702403085877247
อุต@@ 1
เยาว@@ 1
Qu@@ 0.12124825079723804
ซิล 1
1953 0.2433832039040473
ics 0.15247450335069762
ach@@ 0.09779856886036048
ter@@ 0.07258324570459226
140 0.934197206979458
ent@@ 0.05525604853427536
ty 0.09674765685665371
1933 0.23560691936161343
4.@@ 0.5712617702599097
Per@@ 0.11447706008007806
ica 0.1211979828898314
ig@@ 0.08803434186581478
1955 0.23238039898806212
mon@@ 0.0804886783208131
หรือ@@ 1
Day 0.3004633846007664
1917 0.2702212868931044
50,000 1
AC 0.41573469736783836
IC@@ 0.5355478089310365
El@@ 0.09927333553978518
pr@@ 0.07840480120931063
Be@@ 0.08323868609465244
í 0.2645326285027355
สถิ@@ 1
Inter@@ 0.170904045353706
ka 0.1111229644072693
108 1
160 0.9740983788546191
พาณิช@@ 1
RA@@ 0.5136223841779852
War 0.08520340107421882
กราน 1
ン@@ 1
พรี@@ 1
La 0.015004586697170969
นัด@@ 1
q 0.36426476903774885
System 0.3607224676974636
ตั้@@ 1
are 0.01314659888205316
ยาว@@ 1
Bar@@ 0.08716305707633946
all 0.03095206017970447
ut@@ 0.10322707803491783
อภิเษ@@ 1
1937 0.23203449714568453
อิส@@ 1
anti@@ 0.16918963348177074
av@@ 0.08158544458132354
ตีน 1
Te@@ 0.17443806879185636
ong@@ 0.23377050447051567
Life 0.2485234015225246
gen@@ 0.09357800491719549
Or@@ 0.125575350672994
ถิ่นฐาน 1
http 1
system 0.09214812270771033
หวัด 1
Tri@@ 0.17357021770333966
ale 0.06060013479630057
Cr@@ 0.1703956008677819
ธีการ 1
ans 0.042770299255049105
เพช@@ 1
MA 0.5136782381179922
br@@ 0.061795205536978516
UN@@ 0.47962774682168996
พิพิธ@@ 1
ene 0.11793680927820208
est 0.00718304829370918
ชนะ@@ 1
Am@@ 0.10257373994277082
Lo@@ 0.16419068366479966
Si@@ 0.2719922716119152
คต 1
→ 1
ton 0.06632269038475513
เพราะ@@ 1
Association 0.14352308230424785
ov@@ 0.1367762650841402
ภิกษ@@ 1
360 1
from 0.007510426627166834
6,000 1
ura 0.18060568290019394
3.5 1
AL@@ 0.6382070243497747
To 0.2323105935634514
son 0.015690214942428317
AM@@ 0.5287827718544501
ni@@ 0.11246017728936777
For@@ 0.12374502300400396
colspan 0.6741951217623466
1934 0.2432099157799832
Super 0.30452683626088
ess 0.1343151600613922
350 0.9048170185823403
Show 0.38197090273702394
112 1
125 0.8554814999438151
BA 0.649813207747119
Ph@@ 0.20840664229140377
1932 0.2554207980152907
RI 1
เคา@@ 1
งคืน 1
14.@@ 1
Institute 0.187606737007394
เสม@@ 1
Dis@@ 0.21248016683848936
1924 0.25731414797963803
ts 0.037161224192468166
นำมา@@ 1
15.@@ 1
ly 0.05320681005137875
è 1
1,500 1
Pro@@ 0.13248087136388034
กาศ 1
30,000 1
OS 0.46749206698183865
tri@@ 0.1164147651999893
1,0@@ 1
เภ@@ 1
Mas@@ 0.19694066476754618
คัมภี@@ 1
1935 0.23006865870789633
atus 0.3648656797536388
High 0.1339905353162282
ung 0.0383101151503161
โฆ@@ 1
1928 0.23556038265108378
ment 0.0761846496138541
re 0.06017127828344776
um@@ 0.05851799548712658
ั่ง@@ 1
Po@@ 0.1506274648755701
๖@@ 1
การ์@@ 1
2.0 1
eb@@ 0.08806599152463102
Min@@ 0.18115930487677365
Pr@@ 0.1123947494885736
als 0.011500088543522958
วัฒน@@ 1
8,000 1
เนี@@ 1
Man@@ 0.11230834266255117
ธรรมศาสตร์ 1
ion 0.15565644162351167
ขวั@@ 1
เมล@@ 1
AC@@ 0.42669883256721547
1951 0.21674630219854193
Park 0.10571014883266093
Sub@@ 0.216255068285731
ผ่า@@ 1
เคียง 1
Ad@@ 0.139520573415514
ra 0.06336343611142198
Academy 0.191395619599101
Great 0.21065536622679026
Grand 0.1366641656644502
Top 0.313445543906529
คว้า@@ 1
Bi@@ 0.12332419747625303
On 0.02976519710252193
ell@@ 0.11566981609463887
hi@@ 0.13653881220035
สามาร@@ 1
EP 0.36615665318438895
CE@@ 0.5393011931141002
DC 0.40997817900768363
House 0.10495227453631638
di 0.111821476935482
อ้าง@@ 1
โมง 1
Film 0.12059143322018752
Mag@@ 0.18578395222360447
Science 0.2730128856513481
St 0.1835082395150661
ตำแหน@@ 1
style 0.12152649109827732
ทธิ์ 1
王@@ 0.3503207449384333
eg@@ 0.08035471076704657
film 0.03585481872133849
ik@@ 0.08621399654640506
ne 0.03261803590865531
Asia 0.3185805535891915
William 0.09581392052065117
ard 0.0833548049286838
row 0.3032727677852839
bo@@ 0.07705282936926244
tic@@ 0.21200261700330014
สันติ@@ 1
ara 0.11114224707930498
นน@@ 1
str@@ 0.08682220471257161
yr@@ 0.2711954870027984
16@@ 0.46543842707757355
AK@@ 1
Do@@ 0.2058523244819755
James 0.10259142559859809
ci@@ 0.10249825083176964
qu@@ 0.059343283523010666
มร 1
รรษ 1
Art 0.1280392812322167
My@@ 0.35941189015821073
TE@@ 0.7566162566438807
à 0.004946716247975369
0.5 1
Char@@ 0.15966690949334458
105 0.9221428102615166
ref 0.5622249970352357
วิทยาล@@ 1
Sc@@ 0.22257002096133005
PC 0.44102024540995377
อาด 1
200,000 1
Gu@@ 0.1051153826550272
MO@@ 0.8703969909175853
ou@@ 0.07474471398036764
ศักดิ์@@ 1
เชิ@@ 1
con@@ 0.04927962644330631
ver@@ 0.02623634858736479
มัธยม@@ 1
Fr@@ 0.1330102476209363
500,000 1
Series 0.27051874584535424
ธรรมนูญ 1
มุส@@ 1
RO@@ 0.7350302239543711
Sch@@ 0.04152265332279423
su@@ 0.08893289853273041
Red 0.18960203204745188
ประชาชาติ 1
1.2 1
Ab@@ 0.05260662775113865
Year 0.2921042768881135
ฝึกสอน 1
land 0.047250073273581
1911 0.28104265675223566
กุม@@ 1
Ran@@ 0.3336716227585177
บัด 1
was 0.002561832949667986
เ 1
Hy@@ 0.30742585637736947
osis 0.42835610179818856
ting 0.05763345408594941
450 1
ber@@ 0.07909671710534381
135 1
Party 0.1222729518638121
ac 0.18194754857182985
บาด 1
หลาย@@ 1
CT 1
To@@ 0.2160003335885276
1910 0.24747008822264843
ah@@ 0.10796070490138385
Song 0.34313938736650196
โอลิ@@ 1
Big 0.24451241993778053
me 0.07513895400182515
ประสู@@ 1
ng@@ 0.2510297769116397
大@@ 0.0887960338385332
11,@@ 0.7472587723181006
1914 0.20872333812016683
Bur@@ 0.11972173556742252
แวด@@ 1
สิก 1
าะ@@ 1
្@@ 1
1922 0.22967161743891285
Japan 0.1477970194444129
ini 0.12423711803544121
BO@@ 1
ley 0.06382398393930319
des 0.003553661335933549
dis@@ 0.0350006472185812
our 0.12037656259604093
Mal@@ 0.10531510673008815
yc@@ 0.3279829355392393
ณห@@ 1
AG@@ 0.9032597768650947
ให้เห็น 1
1908 0.2789357442709943
RI@@ 0.6816298495178451
111 1
23.@@ 1
trans@@ 0.08505200815177714
he@@ 0.08724978502504885
ครั้@@ 1
Young 0.271755980452331
cr@@ 0.078711086206136
MS 0.4257094536207705
ani 0.133526242767858
วัติ 1
เทิง 1
Su@@ 0.16536196298736847
10,@@ 0.7856538774715747
Michael 0.12254038156568454
Sol@@ 0.158578179459013
om 0.17035065690981294
tex 1
ill@@ 0.09148724438502097
era 0.03834295144713573
่งข@@ 1
Records 0.15585198913365486
and@@ 0.07913974452790476
ป้อง 1
ot 0.12257743638759828
26@@ 0.5530035095547284
Super@@ 0.2328679037999303
hy@@ 0.2693282100295658
115 1
Ge@@ 0.1036255575955751
ao 0.18230577460891967
Night 0.4052005187680808
Rock 0.24489827851825022
นิธิ 1
Of 0.3389657876118659
SS@@ 0.6633936714592318
Cal@@ 0.12826324420587865
List 0.19688335625164455
ari@@ 0.13659335995021676
อารม@@ 1
Her@@ 0.09474271014287682
Robert 0.09873812348233013
act 0.15180768376553794
ay@@ 0.10145537431242005
pre@@ 0.06559694340300293
พิพิ@@ 1
1929 0.1969702553035186
teams 0.14537627248408283
IV 0.20103692791880404
TO@@ 1
US@@ 0.23573183365500214
วินิ@@ 1
7,000 1
ER 1
Thai 1
had 0.012427797395112138
man@@ 0.07269935513856428
First 0.1429794726655808
ect 0.15418849636381374
nucle@@ 0.9188221976306892
1904 0.29580425155003687
AP@@ 0.41204411650288547
HD 0.7001980373259725
eng@@ 0.1016022160684354
ูด@@ 1
Ma@@ 0.10837936423179392
น้อง@@ 1
โปรดเกล้า@@ 1
ศาจ 1
อดุ@@ 1
Project 0.45411622764720966
ho@@ 0.09928213775940661
30@@ 0.34052358432882396
ness 0.13996345559108722
กาส 1
ner@@ 0.21332746079699416
ä 1
ตุร@@ 1
Li@@ 0.11519765304419056
atic 0.23738191448827312
ens 0.040218239785332364
ian 0.12019031318628089
te@@ 0.06585114551847261
ศึ@@ 1
Mor@@ 0.08009822336839821
ner 0.06732740871131859
เบิล@@ 1
ex@@ 0.047352823993939454
il 0.01254033183630559
time 0.02137248988291793
120@@ 0.9090198120205416
codice 0.6747150626720678
do 0.0433274044267205
ศ์ 1
1921 0.21214271317577316
aw@@ 0.108437595554296
fer@@ 0.09577613777834489
103 1
We 0.28200347341874776
king 0.09953061516771045
ser@@ 0.09058118839524815
tis 0.24883261562990533
สงข@@ 1
Club 0.08908923176015342
Hall 0.13572397354216806
Pre@@ 0.18853053156844515
so@@ 0.0916667651115024
way 0.05412578931023309
bu@@ 0.12778738805159384
คาบ@@ 1
ps 0.11217435660925716
ใช้จ่าย 1
do@@ 0.11708018045723974
inae 0.6955003454057632
นีเซีย 1
1925 0.2080589374717521
220 1
acid 0.6285186446595715
af@@ 0.07219638815583666
ick 0.12418891666261428
Go@@ 0.15318556165055644
State 0.060332679147778484
bul@@ 0.1615167519445299
ee 0.13790886666250787
Ap@@ 0.20892110900086014
Windows 0.35926234902545373
of@@ 0.17223648950066728
ted 0.04194833231712766
นิก 1
วัส@@ 1
1926 0.203728618683973
Gr@@ 0.07264437506808247
ade 0.10358138747068162
ที่ย@@ 1
1.6 1
116 1
Ho@@ 0.13923135818571902
inal 0.3076329435015055
och@@ 0.2314097476354297
pe@@ 0.09996983582120159
David 0.09222850840900906
Ser@@ 0.14391594307672126
line 0.05777465514769654
ข้อง 1
em 0.08398178942404809
–@@ 1
US 0.0552085231145087
โปรแ@@ 1
ge 0.08292022273642537
ศัตร@@ 1
form 0.07082434580852841
kh@@ 0.11928805527362683
กษา@@ 1
ส่ว@@ 1
Ang@@ 0.15040088294955106
League 0.05176031733946802
Pe@@ 0.14696131881269062
SA 0.31787097905814105
TH@@ 1
White 0.16106525224948173
cu@@ 0.0893291705338472
109 1
ce 0.02918721447481071
ons 0.042473616878930316
เกล้า@@ 1
106 1
1931 0.1988147358476878
ES@@ 0.4162556779436973
Festival 0.1350044954287275
Miss 0.3829801356366965
ชีวิ@@ 1
Is 0.39498572925253495
Ta@@ 0.254887248735582
Trans@@ 0.2233182653873887
WWF 1
ca 0.10436463075398933
ei 0.17188113621403103
-- 1
1906 0.2631694979183952
Har@@ 0.1080779150391991
Paul 0.0819069704125477
Sur@@ 0.2036921949952827
ji 0.2498378544206786
Pol@@ 0.13054529912750348
ile 0.06278765662285501
เลอร์ 1
NE@@ 0.6264713694897428
SA@@ 0.41662583174389933
ist@@ 0.10105262365670332
ome 0.20433756018472957
poly@@ 0.3247543550245881
ti 0.12286183456210194
แน่น@@ 1
1923 0.20544849330820422
FC 0.10946807907203061
รวจ@@ 1
Fe@@ 0.18763022941374044
102 0.8967877047471797
Mer@@ 0.12118532077884855
ors 0.04959739024814129
ั้ง@@ 1
AN 0.6776248332025943
SO@@ 0.5610503728973093
So@@ 0.13769477121059834
au 0.009943928551521802
ox@@ 0.34130566661893713
FI@@ 0.4382018063701719
sub@@ 0.06308229704190602
เลือก@@ 1
17@@ 0.5107592406743451
oid 0.6071111264608011
yn@@ 0.19936752383104614
ดิโอ 1
มัก@@ 1
สำเน@@ 1
scope 0.7699326424100478
you 0.16466447094789377
Charles 0.08640224367875572
DE@@ 0.4531178912872509
Er@@ 0.05586150998064172
Network 0.3747921854917324
115@@ 0.922190472872869
PA 0.3715159047806642
General 0.07609747558273024
oma 0.2320160961497464
ost@@ 0.2284000145662437
แท้@@ 1
PS 0.34813531075891957
Cl@@ 0.1819286410296666
Company 0.11297688939917817
Cup 0.07726375938716208
States 0.04233773247183658
TNA 1
syndrome 1
world 0.07446835637248754
ทวี@@ 1
ala 0.14067835645365767
Girls 0.5922322786497989
Mel@@ 0.1738072495025966
อาณา@@ 1
11@@ 0.4674970530719255
127 1
CH@@ 0.4696201133103243
George 0.08187774549778186
Mc@@ 0.07262276957128326
Op@@ 0.23274942871282478
alism 0.2232863680992771
sion 0.096811377153705
๙@@ 1
1927 0.1921026769407981
7.5 1
Blue 0.25763087644002247
LO@@ 0.9079375323802966
ge@@ 0.04343989034903743
Prince 0.2370764908532435
ok 0.22264993433853641
per 0.06272920904432043
sa 0.02468870918418377
su 0.012403161394371157
4.5 1
๘@@ 1
ey 0.092364317250155
sc@@ 0.11546746968165786
gr@@ 0.04909233596803971
วัฒ@@ 1
LD 1
SP@@ 0.3741565263856532
ai@@ 0.1839132592552978
com@@ 0.05912449791634211
tical 0.16511275750660134
ung@@ 0.12199654884253408
ียม@@ 1
Final 0.30141655702025
บ่อย@@ 1
AD@@ 0.3764524957488009
Ver@@ 0.03507261220097429
not 0.015004781776265321
group 0.05484154532277621
les 0.005370227662727224
pro@@ 0.09947167986644784
80@@ 0.6101697002349926
DS@@ 1
York 0.03959476634200862
ino 0.07288498133783612
oth@@ 0.1704343055973961
Be 0.6452517788730218
Don 0.21803149463405233
ality 0.19600561964775143
den 0.005748134864373421
los@@ 0.2884332878579566
1896 0.31250339251116327
NXT 1
ise 0.05487689129445198
ker 0.09000039660323024
sel@@ 0.11604902720215282
Your 0.5024001511386706
pl@@ 0.05555512131039504
Mr 0.8080273205068916
der@@ 0.06395494925853004
320 1
ant@@ 0.07567604403770076
27@@ 0.4764290009624312
ue 0.0897016326262753
ym@@ 0.22177626119518712
Arts 0.15377513463859577
Master 0.32399241473627555
ON@@ 0.7802286225912943
River 0.07329929290373927
model 0.17768358098536358
ผ 1
1890 0.29069478537257987
Prec@@ 1
ake 0.13748254509829325
tor 0.10467195077442341
40,000 1
สมเด็จ@@ 1
1.8 1
Media 0.252885839519187
Society 0.12654913271761348
We@@ 0.12735485739866476
mat@@ 0.1332621966374264
1905 0.21941298706622486
1915 0.2147711673735113
DA 0.5165699129111144
ir 0.06699741769443807
up 0.02434830214766808
ū 0.7636197441905638
107 0.9926954984845164
60@@ 0.5861128643866842
enc@@ 0.11492347227321476
im 0.006967224096220832
inter@@ 0.04076683232492158
ทองค@@ 1
Im@@ 0.13758611626884074
Queen 0.21663772489941102
117 1
Pan@@ 0.16569758353055242
เสบ 1
gi@@ 0.09096007083189053
out 0.02470667872078279
AI@@ 0.445461589082148
Mac@@ 0.11586267547485969
ast@@ 0.16153553156756084
ก็ดี 1
Bal@@ 0.10146623741852845
aj@@ 0.10907042169554117
ane 0.10454949549816789
Mus@@ 0.15126955158196817
Res@@ 0.21352781079832608
SS 0.24610585851654335
od 0.1848762070102581
*@@ 1
disorder 1
ks 0.05104300752669993
อุบัติ@@ 1
IS 0.5094016415395305
119@@ 0.9437029193535296
DNA 0.44159759376962443
Research 0.19049897389116846
Sal@@ 0.10455039429373354
ประท@@ 1
‍ 1
iz@@ 0.0778512708608626
1907 0.23102916785661487
300,000 1
Cy@@ 0.33987244257055155
Heart 0.5493322890659228
Story 0.6245525685405835
Up 0.4259497547757929
15,000 1
2,500 1
AB@@ 0.5634260887778599
eli@@ 0.2295568262241868
ชน์ 1
ยนต@@ 1
ฮิน@@ 1
1.3 1
Little 0.25083883643361726
NO@@ 0.5052537154674138
ก้าว@@ 1
1913 0.19833846298019506
AT 0.5029706191677779
RNA 0.9408132774783232
ore 0.0891711785559419
ผลิต@@ 1
12,@@ 0.6584301516559399
750 0.8148462156188172
MP@@ 0.39680695694835727
Ste@@ 0.12804208939970507
non@@ 0.3800035762970312
von 0.0048573716509271005
ธยา 1
118@@ 1
Good 0.4780587802388112
South 0.04470789129128159
ations 0.024451184257321047
ha 0.04953724067486333
ou 0.023188380693807395
123 1
170 0.8488796620417572
Sho@@ 0.2907138182018894
ma@@ 0.1092816046489139
วิวัฒ@@ 1
15@@ 0.3772659064818362
ap 0.17019325202477478
ประส@@ 1
007 1
AD 0.3810120941669991
Ber@@ 0.06625443147280018
IB@@ 0.9893934702937256
co 0.05478689453614487
ran@@ 0.09844608297150877
1916 0.20908872490561628
Act 0.14186568250351697
CC@@ 0.4128695741902203
EST 1
ins 0.046528913837474976
mag@@ 0.15001348045181187
all@@ 0.0760519589266955
bas@@ 0.10505780021233896
104 0.8250483358015058
BT 1
Boy 0.4905906753383647
Council 0.09489698034951725
DS 0.45047211639002915
chi@@ 0.18579835066165376
name 0.03634709916581623
Lin@@ 0.1849278205522553
PE@@ 0.6040111892147367
5.5 1
ok@@ 0.1142405236837754
28@@ 0.4623269081841398
down 0.07067744706545588
me@@ 0.08026091480065393
vi@@ 0.0632842377482588
เหล่า@@ 1
้ล 1
China 0.08966556780678872
ates 0.044382366505981714
ating 0.047635237274373556
ī 0.7794016945655952
ยอร์@@ 1
IP 0.5171007251108267
UTC 0.9455689731344963
be@@ 0.029565463290582128
114 1
Bre@@ 0.12771493785799684
CY@@ 1
esis 0.3611826302554446
กล้าม@@ 1
บพิ@@ 1
เคราะ@@ 1
Last 0.5491051624499412
Pi@@ 0.11808707292206015
Technology 0.32424195975056813
ell 0.06325263676378254
ole 0.14795488051152791
q@@ 0.16829170645115732
พิวเตอร์ 1
… 0.11911700065037895
AP 0.4354460277472554
East 0.08381137882595548
ann@@ 0.11815044700013215
go 0.09366174421833368
sive 0.15829104457446203
121 1
English 0.07042874255374515
Who 0.527738409650692
au@@ 0.051315926517991634
ita 0.10070839696980517
อิตา@@ 1
MS@@ 0.586733190536936
net 0.18763378775290634
tu@@ 0.08532839430872852
British 0.049747053529416906
ement 0.03579198061609282
yl 0.26240338933764984
्@@ 1
Golden 0.29906545441779026
Hello 1
Model 0.5875214737031872
cer@@ 0.12392305520634411
mar@@ 0.049720162479848444
สถ 1
หมู่@@ 1
Generation 0.7521964673613702
Plat@@ 0.2769099397757822
alis 0.2933426458388085
und@@ 0.09603379004613492
มง@@ 1
Des@@ 0.1423326580705018
WCW 1
back 0.04780742220974938
ens@@ 0.05295693060290253
AS 0.2952407817956771
Air 0.1007757167738545
ME@@ 0.4907665587045941
cy@@ 0.3732638673798848
ev@@ 0.06966184944271227
เภท 1
Asian 0.2487872811326266
Lee 0.1674673934781592
London 0.06083449356016761
Sa@@ 0.1312632902038412
True 1
dae 1
side 0.0522611391039668
ry 0.10839946788788624
rom@@ 0.15990061144171303
1,200 1
IT@@ 0.5687818755671151
ba@@ 0.09107710520580042
ur 0.0762767911765712
เป้า@@ 1
AL 0.5731451880465881
ISO 0.9325598667407969
Kingdom 0.1591697138463266
Sw@@ 0.199980664066951
ys@@ 0.1423121614090802
Val@@ 0.10824177911963881
ich@@ 0.11361555169616618
language 0.1039568321016737
yp@@ 0.23183017417619137
40@@ 0.4643772047490251
Men 0.23084050766724568
ium 0.21844786062743438
เกส 1
เบต 1
CS@@ 0.3748242332481831
DO@@ 0.6257892641449158
RS 0.46655400719357704
Women 0.13336673215756537
ari 0.13628483758499704
ish 0.09809621046174163
ni 0.08527134235735644
tin 0.11823821240329194
ผู้แทน@@ 1
1800 0.4546776417895543
Bel@@ 0.07746708076380492
GN 1
ov 0.1085293205462668
คุ้ม@@ 1
1870 0.27397476761530504
Inc 1
ax 0.331914530424154
ly@@ 0.18237564918353427
126 1
128 0.8487305190798597
At@@ 0.14003612688858966
Bangkok 1
ight 0.1830083882831332
ind@@ 0.14107893269712574
tor@@ 0.07131904855884207
រ@@ 1
Dream 0.7155875930680409
NWA 1
Open 0.1619105198692883
ili@@ 0.13026879832451643
that 0.003986167619479368
イ@@ 1
1860 0.311475493957186
Go 0.44442057407364827
Hol@@ 0.11981199346324123
Special 0.3128524962916343
ere 0.07493293383801382
song 0.05135138450233406
ut 0.13376422877840097
Business 0.29846403989890946
Dr 0.8072571705609963
anth@@ 0.41052642039192716
this 0.014254789445481218
1889 0.2930107489169843
Bl@@ 0.10985182350705598
Game 0.25165182316302787
No@@ 0.1656956456826142
1871 0.31977758699405495
Dr@@ 0.11901015241675768
Program 0.46772065057536266
Thomas 0.07672113570587924
ab 0.042404813691377025
formes 0.35593116362629795
Ko@@ 0.12285482364821933
Home 0.2570865591551913
Tag 0.30803222871777414
adi@@ 0.13306404152247522
ato 0.10298714188757137
33@@ 0.619009324489401
Dec@@ 0.19532204070484066
ama 0.11355923247611471
enth@@ 0.3569990350478968
๗@@ 1
CI@@ 0.38257002336481744
THE 1
fl@@ 0.07228164103827237
uk@@ 0.13649207546550307
ชัด@@ 1
ese 0.062333449887390244
ock 0.15767238831221722
for@@ 0.046093515407924876
EN@@ 0.8254306312804239
Peter 0.08694717306345649
ada 0.021471303116014768
ax@@ 0.19584536339704106
ets 0.054759119616943366
ice 0.07034175938635424
oh@@ 0.15564776305964406
pp@@ 0.13769014290047904
ru@@ 0.06494196300605233
ta@@ 0.10692808077024492
ú 0.46882882650432195
พิว@@ 1
LE@@ 0.5418480786362753
People 0.20248211937415792
field 0.050138715603970804
their 0.01123814668097496
ดาห์ 1
1901 0.23002140300047916
AR 0.4620677526252474
West 0.05375012498734904
eng 0.2479334397092328
Je@@ 0.1885492115797373
MI@@ 0.4944389462291633
ฉั@@ 1
1.4 1
Le 0.011870313213996824
Ru@@ 0.14340408212973155
หน่าย 1
25,000 1
Can@@ 0.13997114838288105
{ 0.269649166320526
£ 0.20988331809795777
1,4@@ 1
113 0.9666697156669682
BF 1
ความถ@@ 1
ลัง@@ 1
ั 1
Green 0.16969760418909502
Richard 0.09896546936131498
SC 0.21478107234739552
Tak@@ 0.20843063678386595
ash@@ 0.14058466363506308
ek@@ 0.06654742057858752
tro@@ 0.13433754909939327
ดื่@@ 1
1880 0.2691397489154441
acc@@ 0.11398590133018809
DL 1
12,000 1
Chart 0.4878294726837305
Tour 0.10857763241679402
ke 0.05076878933928064
114@@ 0.8596380580570978
330 1
Dance 0.4322932380554236
Kar@@ 0.07329307993008381
series 0.03497070972201559
กำเ@@ 1
หม 1
Gen@@ 0.11432216777675673
What 0.36079366949728514
bl@@ 0.05395476455050142
lu@@ 0.08338073632867594
por@@ 0.08985848519487974
กูล 1
ออน@@ 1
Bor@@ 0.09866792975061855
ain 0.08413957759808975
ational 0.14913031931139603
cl@@ 0.07292600866886627
col@@ 0.05619410276790557
du 0.004309102693802501
คล้อง 1
1898 0.24027173899764948
Prot@@ 0.19679255920136257
สหภาพ@@ 1
240 0.8635899350778459
PO@@ 0.6129402749373071
ano 0.0462251014300691
ber 0.08590861565737067
ki 0.10386323361755655
ns 0.12884935256178234
35@@ 0.4565414761583804
IC 0.3714404145088723
hom@@ 0.11724413450538057
que 0.003225822003482005
tra 0.12530246388104466
สุนั@@ 1
118 1
Hal@@ 0.13108667236898444
Island 0.09958505825592473
News 0.21713303581876534
bit 0.23084954745216427
ides 0.09474032865584037
1,8@@ 1
122 0.9287392592703371
For 0.058390517066516726
Gal@@ 0.11280545324778815
Street 0.07447457627677168
คล้าย@@ 1
Dragon 0.6748709655920582
Fl@@ 0.09071340554968185
cal@@ 0.11939085669063079
und 0.0019844350859760957
ฤษ 1
13,@@ 0.5291540308279203
1909 0.19831321899234072
2400 1
ame 0.1363612583648941
ib@@ 0.11194590367049238
AM 0.29257483817690844
FA 0.23080241548796693
Hot 0.26060787406458014
dr@@ 0.05531868313454914
eph@@ 0.46412446697978665
state 0.03857310206458855
­@@ 1
α 0.2529813668966637
PC@@ 0.45403178150940954
ette 0.0635336114101271
za 0.07669851243734696
รู้ส@@ 1
14,@@ 0.5655356130059599
Ag@@ 0.13444156576384006
America 0.08331207192791432
Class 0.36470180632140037
Space 0.3385977368409433
ency 0.12556477879818187
fe@@ 0.0663355858887434
ide 0.1412218833330187
set 0.04734203213007996
บันดา@@ 1
ยส์ 1
Global 0.3893592845702115
Princess 0.5568290805091607
Union 0.06482210132499697
disease 0.3057098865786665
receptor 1
1500 0.37236430877076176
190 0.9146449707115994
Sea 0.21622546162496128
team 0.025111571594155606
สงค์ 1
Mat@@ 0.10503755828716496
key 0.13817521840111993
กิโล@@ 1
1903 0.2099282410258631
Cer@@ 0.16552287487169728
Kh@@ 0.12156907306238005
Season 0.46829771170738815
Tokyo 0.3024549115312765
ack 0.16344505393247552
116@@ 0.8944200064805379
1902 0.21187400726603783
ish@@ 0.12679058464159954
113@@ 0.9012969479490164
117@@ 0.8323969521273236
FM 0.2183598980713821
ash 0.19214927822745098
ath 0.14667253423490745
É 1
2.2 1
Concert 1
This 0.020439748941634465
awa 0.26803258714286377
center 0.10590493274658176
ection 0.12944978469088395
eus 0.3751599217417247
lam@@ 0.1298324290131327
ler@@ 0.07933637290677534
ty@@ 0.1279414993212764
ud@@ 0.12593170564237327
ys 0.12124254305686134
SM@@ 0.7974425984135323
Sar@@ 0.11968600471156605
illa 0.1133802492733545
ko 0.1266298110770298
Video 0.36135101022035576
her@@ 0.05199951584304633
ครร@@ 1
ๅ 1
1,6@@ 1
210 0.9346894746780727
cin@@ 0.17039713669454043
sin@@ 0.10753967915689766
ยาท 1
Episode 0.985033398707775
Is@@ 0.10449995284393716
Pl@@ 0.09750597602925615
Power 0.27534523542458617
ales 0.03058652633836537
red 0.06632638552658085
สาบ 1
Google 0.4156262745366062
Mah@@ 0.1488275283359749
Management 0.2927691413703722
Republic 0.13058188277357086
1895 0.23603760533661597
Anti@@ 0.25925685048415825
Digital 0.46041886866823717
HC 0.5709457398413512
IV@@ 1
ast 0.1257260222901504
ective 0.20401646392675482
if 0.05708050166769458
ters 0.06763077783332733
แหน@@ 1
2.4 1
European 0.0706915571631954
Mi@@ 0.132980749911582
action 0.07755310684503637
art 0.04893968357444223
ve@@ 0.10626461955520725
Chinese 0.11551107252542962
cap@@ 0.08198776325758747
hydro@@ 0.24353498951758598
up@@ 0.07029018940436191
use 0.030157453533120906
1.1 1
230 0.9095401290657993
CD@@ 0.34199179401667135
Hel@@ 0.12557588422462249
Nep@@ 1
ological 0.09486128637299782
เต็ด 1
body 0.09027018345852764
ocy@@ 0.7019469871420744
ye 0.08520064562555899
ル@@ 1
San 0.03449004714683481
mer@@ 0.04942650158889053
yo@@ 0.418200471608389
ç 0.6766200301252465
9,000 1
Lu@@ 0.1151821170888496
ME 0.6688143379420383
ine@@ 0.20143936115131306
ography 0.19804001555885192
คลาส@@ 1
จำแน@@ 1
1,9@@ 1
29@@ 0.4016043023718999
MP 0.3237255717349307
mi@@ 0.08028825515325386
onic 0.3083955319553833
Duke 0.24133999283023144
PP@@ 0.6676380382990762
子@@ 0.38126003768995087
18@@ 0.3706225142076991
70@@ 0.5760540965410613
DVD 0.2120955629263851
VS 1
aka 0.20259159038353788
io 0.07628130829967143
the@@ 0.11711186208938805
1888 0.2665014596402748
34@@ 0.5559337311229483
ek 0.09518031030998901
they 0.015213013023822079
129 1
1899 0.22251002385931207
Bank 0.14411157924493098
hi 0.22119739046211304
its 0.008787036368343791
osa 0.11583856801601233
ス@@ 1
1868 0.308504903480224
Central 0.08067088098805084
Corporation 0.19318962145497293
Health 0.2076408670082075
Out 0.32210367934492173
ding 0.11807432988584478
edr@@ 0.4453098219091215
light 0.09119535980158125
lin@@ 0.07898958119199746
member 0.04240217498659404
self 0.13544501064630657
天@@ 0.1839376232820332
124@@ 0.7308746197095868
6.5 1
Foundation 0.18667071206642796
inc@@ 0.0817483972037134
มหาดไทย 1
1815 0.43409137108426826
MHz 1
ire 0.07268054523625994
pH 1
res@@ 0.044523024410161864
sch@@ 0.027930785123080042
124 0.8921937970460154
Gar@@ 0.10578194583061902
Line 0.15949258369773303
acy 0.11636549704655955
ings 0.03434856133672589
ual 0.1611810409641897
van 0.11327586887375143
1893 0.24661799210868107
Airport 0.2272184575458298
off 0.040474546651352625
ogen@@ 0.2942532749790981
ora 0.10507103235437544
tidae 0.8221293934432108
ตูน 1
1.7 1
1830 0.3588535168879308
1867 0.2959139564681889
Billboard 0.18662522145790686
Cre@@ 0.12684697313777055
Lady 0.22612009682694592
ra@@ 0.08044008887465234
ς@@ 1
Book 0.24619659296077626
meth@@ 0.44923661237702733
นรี 1
…@@ 1
ラ@@ 1
1,5@@ 1
Det@@ 0.3800091242252437
eh@@ 0.0547325115748063
ep 0.19051053607444676
go@@ 0.14137539553841819
low 0.06858432367883426
pe 0.08128257286095868
ō@@ 0.2121758545626292
แกร่ง 1
60,000 1
TS 0.5027527655276885
Ter@@ 0.13719307762756927
amine 0.8526913611305222
ass@@ 0.04533154802274732
ima 0.14431014928835853
ization 0.32693339722925135
ship 0.056648294565359865
Bas@@ 0.1119635020212998
Del@@ 0.1294321287061622
Education 0.12713158058853585
Ti@@ 0.1397995249720023
ein 0.008187145289010373
ค่อน@@ 1
1848 0.27080263635013957
AE@@ 0.5196069899215214
Channel 0.27915823833763287
EX@@ 1
Shi@@ 0.2739190486421931
let 0.12054812209546392
ราะ@@ 1
วิสุ@@ 1
1897 0.2176379616896606
ASA 1
Bu@@ 0.1234075852509927
Em@@ 0.10590651510956227
God 0.19751582692239422
SH@@ 0.7400557780961168
du@@ 0.08110520593231009
protein 0.32227578866156165
ปราบ@@ 1
ผู้แทนราษฎร 1
001 1
Empire 0.1199384930635815
Hu@@ 0.11787315675713897
Service 0.13193064007496136
bar@@ 0.050384850174713086
del 0.004521106464692726
quot 0.5775608309304809
ตแลนด์ 1
Chi@@ 0.15037949666730596
Tor@@ 0.08377877915363782
Sy@@ 0.16064296677886872
ids 0.11581950448637887
tics 0.14612970170689701
Henry 0.08463646436834056
Pop 0.4549016830126761
Sim@@ 0.1342575458099242
Sun@@ 0.22317311852070404
aki 0.2258857187262858
ars 0.07805356803716798
iss@@ 0.12711857000600263
ula 0.21706823223969662
Apple 0.3839938069349272
North 0.04059620492299647
PD 0.8274022701606102
Pres@@ 0.11447856254448424
Vi@@ 0.12031053035699327
asi@@ 0.12429964732676187
atr@@ 0.12290569102733798
emia 0.700381300973805
ents 0.04546744732699329
â 1
บัญญ@@ 1
ា@@ 1
TA 0.29829174735995734
met@@ 0.11145401775830181
min@@ 0.05719321148993412
่วย 1
IA 0.4811600260287887
Legend 1
Times 0.1327548104584263
เยา@@ 1
เว็บ@@ 1
Law 0.15772803752686604
Ni@@ 0.12063512095499225
Order 0.1881654948869499
Tre@@ 0.14097722023188827
Way 0.3992933984324877
eth@@ 0.1166942271374821
medi@@ 0.11398800379629466
tional 0.12270794421092393
ละเอ@@ 1
Hor@@ 0.11416272347706073
Marvel 0.4977398425366155
aya 0.13282560087236042
tex@@ 0.22630470286511162
วินิจฉ@@ 1
Games 0.12525116088280222
Out@@ 0.29420701052950854
ach 0.06345402152532234
pu@@ 0.0936406904340164
tra@@ 0.2019376230555547
อิเล็ก@@ 1
อุณห@@ 1
เที่ยว@@ 1
280 0.930270708308856
Development 0.18397101132163515
Free 0.29042681460153114
Rem@@ 0.19070048333761938
Vol@@ 0.1233700924783519
duc@@ 0.18751157988931588
els 0.03669817561149252
loc@@ 0.08490735266329197
ster@@ 0.12068150921500667
tions 0.04093245725427042
กระตุ@@ 1
น้ำเ@@ 1
Cat@@ 0.1430047379717444
ID 0.6458671259874399
MC 0.38774721174274207
Produc@@ 0.3994407050867973
Road 0.08322324702040344
muscle 0.9752182021121274
wa 0.08548697998634393
é@@ 0.025840658528197558
IG@@ 0.7068030605519149
PS@@ 0.29375894465499386
align 0.24623955279997659
opsis 0.6984907822659193
24.@@ 0.7243452026094175
Lov@@ 0.34853268021824585
band 0.042407698314349054
berg 0.05176638632915769
icus 0.40462583028082466
my 0.14577573670415017
จักรวรร@@ 1
สุโข@@ 1
帝@@ 1
Light 0.3045478894093174
est@@ 0.03710249202482827
function 0.1989541740092809
sur@@ 0.05188049632299931
· 0.0335875658618745
BO 1
CH 0.9769429758881426
Design 0.2632180426123592
EC@@ 0.685949544328382
Es@@ 0.0794146996596297
Radio 0.11068716150031652
ff@@ 0.0710844344770074
org 0.9914734993041714
Album 0.1518080388721582
Family 0.19363898224711953
Mark 0.11874106115615272
Mir@@ 0.16150825481780515
Rec@@ 0.119979586507369
ST 0.639668963367814
ain@@ 0.10216820270414043
ali@@ 0.09501233938586845
my@@ 0.16489164053913524
ษะ 1
Edition 0.6068935975577425
Sam@@ 0.12140371661007769
136 1
Reg@@ 0.07805693571017439
Star@@ 0.22482453337391567
ena 0.08797993100845661
ประดิ@@ 1
Mak@@ 0.17642843458178872
Martin 0.0816622322095923
Olympic 0.21064333519635037
Pat@@ 0.15251696922263075
ema 0.19768468567133807
https 0.9019087402325143
ja 0.06963884649296476
ki@@ 0.11953673006849212
la@@ 0.0987388960848031
พระองค์@@ 1
皇@@ 0.7575080658050997
Band 0.10479401829449302
Fire 0.32781433131806764
Kr@@ 0.06947372791393451
NA 0.40395289652361854
Television 0.27210732076728494
Ther@@ 0.24605108056417133
effect 0.18014916878867532
pa 0.13220785033765856
1878 0.24943482579614482
Ty@@ 0.22986770752173957
day 0.033745685720719204
oni@@ 0.1338600969324438
ten@@ 0.043493495678216636
มงค@@ 1
ออส@@ 1
็ 1
1885 0.22459761823902047
2.1 1
CA 0.28094619500344215
Emperor 0.2791917649464524
Like 0.23912727548755397
Tel@@ 0.15605852845122292
ick@@ 0.08069102754594712
if@@ 0.0777579870757117
less 0.05502314682943632
mal@@ 0.084889933219211
กษัตริ@@ 1
Sil@@ 0.14919632361870708
une 0.004965361987374383
1600 0.6094679790631504
260 0.8971533214543331
Force 0.11141115011683139
MTV 0.42050160134206765
anthus 1
clu@@ 0.9651263543809562
กษั@@ 1
ศว@@ 1
AF 0.36428850754035363
Louis 0.0666422871324905
Studio 0.3086096645657285
Uni@@ 0.17565815996540796
dia 0.16633568205370544
gu@@ 0.04975024947517269
lia 0.23584421871940517
nor@@ 0.11821823788458112
ona 0.0880738013110057
BBC 0.15395712656263916
Back 0.41521227024179536
IP@@ 0.5026780630208797
Lost 0.6381825174651118
Public 0.14378646075700338
lion 0.2335878630953459
phosph@@ 0.43583293918874644
ture 0.11024520658752221
1892 0.22206139495538954
BS 0.48501123930054335
CP@@ 0.41827929339378095
RC 0.2940266961069267
SR 0.22471160178878982
Sem@@ 0.19233521694017217
dium 0.34982904518034075
ori 0.18458788106356533
pol@@ 0.08595539721249519
2,0@@ 1
ABA 1
MM 1
SN@@ 0.5352357893450106
Wor@@ 0.18281439107497544
ense 0.1333491494301683
istic 0.16356024306884465
ow@@ 0.07234366790243396
ท่อง@@ 1
Journal 0.1934927019261815
Ros@@ 0.08713720168074734
Saint 0.02930052012830142
ability 0.06940601338330392
array 0.9449209717347349
micro@@ 0.18521990020437276
motor 0.23463427418521793
145 0.8503526141633686
1850 0.2611524912930989
Mad@@ 0.10722055229520747
Shin@@ 0.5160891736569907
Stadium 0.1932759499421374
1,7@@ 1
1894 0.21963275387039147
550 0.828143006203683
KO@@ 1
Poly@@ 0.3013511583649102
gen 0.07735836513950017
iti@@ 0.08366765522290663
ky 0.1196944343569829
oku 0.6808148128383689
ola 0.11563508313109809
ome@@ 0.3090261146900855
ony 0.1946479209061572
ther@@ 0.11189642118120796
word 0.12602026641458156
AA 0.2919492702830106
Cyprin@@ 1
Kim 0.20893358023954692
ef@@ 0.08519234291844638
yg@@ 0.3281224948192067
Fre@@ 0.07441182553533904
Kam@@ 0.17338305597950038
141 1
15,@@ 0.5270805973878973
17,@@ 0.5291392631024285
175 0.8019653633604019
Cam@@ 0.12606201458511238
Do 0.2783873835121086
Mil@@ 0.10841048224589885
VI@@ 0.3687927135920891
fi@@ 0.06887905883032798
ft 0.09094884681495848
ial 0.16750716078636596
lig@@ 0.09781610384712075
ode 0.25011299117131097
si 0.047934339024881555
—@@ 1
1,3@@ 1
1840 0.30492716056372565
250,000 1
As 0.027335776145021178
Cap@@ 0.15747136868508255
Old 0.13649456561916423
Play 0.3573897283089388
Raw 0.7618154646106581
Sel@@ 0.1409212483803414
iy@@ 0.16127539094684176
ประโย@@ 1
มาณ 1
Cas@@ 0.08624554193155079
Dark 0.4151703084664661
Multi@@ 0.49800522791444957
Pal@@ 0.09480232086986437
Pro 0.20787479942299356
ha@@ 0.10830583447098178
Death 0.2136277407264453
GM 0.7082965458113294
GT@@ 0.5525691316026551
RT 0.38240904187714303
can@@ 0.07459109848340303
ess@@ 0.06112287905186317
ger 0.07927415491556244
odi@@ 0.15451270981133403
ē 1
400,000 1
Engineering 0.29581423630057935
Sm@@ 0.30636218822916983
Social 0.18460951005412496
ely 0.04967577432856643
hyper@@ 0.4907501980630769
node 1
ny 0.1617325006403118
ren@@ 0.058034498182227084
Long 0.1523634719357434
Summer 0.1190896747823271
yo 0.2320964712019921
1884 0.23586604344049963
Du@@ 0.09515127156272582
Han@@ 0.1427699139572842
first 0.0071831867241766
format 0.1688971905141909
kin 0.14262705998123992
left 0.04004572833233249
oth 0.18421580589548525
uc@@ 0.09577489952779299
สัป@@ 1
い@@ 1
16,@@ 0.5312880278031236
747 1
90@@ 0.5718687753110121
ET 0.7015867442844987
Earth 0.18232137331657014
UK 0.0827864591672716
type 0.06872168185153017
ปัตย์ 1
150,000 1
1886 0.22713469008062148
Joseph 0.06993770490447718
Limited 0.3881143658941095
Universal 0.35293991762111077
cul@@ 0.1032095963999474
ds 0.07807023918516562
region 0.06426997865203998
sk@@ 0.06108742662413218
² 0.05258186254333558
แนะ@@ 1
1861 0.23851178744281262
2.3 1
650 0.8082814419489615
Dem@@ 0.14188451741566432
Ka@@ 0.2302246290922518
Met@@ 0.19480368805892284
Three 0.17703009961174243
background 0.2125363488898513
hab@@ 0.14507754253046895
ins@@ 0.07153290909346503
ster 0.08187624007779926
ขึ@@ 1
Let 0.47844655064698655
Round 0.38102670711536274
Sup@@ 0.28758869623991434
Tur@@ 0.08628337179172313
onia 0.1732370042007311
sul@@ 0.23272033234260717
ver 0.07584481958145839
มภ@@ 1
人@@ 0.10564967389894776
李@@ 0.1625686344344321
119 0.8910797423382694
155 0.845352437689226
1862 0.2436810186014396
Cur@@ 0.1234783551424893
des@@ 0.02998732884841673
hal@@ 0.08046068504508512
onal 0.13780227296741507
ton@@ 0.13314217376543458
ug@@ 0.09863155258717674
vol@@ 0.07255380582042233
เลขา@@ 1
1.0 1
1891 0.20965776796414395
36@@ 0.455897054772236
Div@@ 0.22109845019835622
Ha@@ 0.1174254444123794
ami 0.14146962009722922
ling 0.05453331927672619
Bro@@ 0.11752257920512219
ail@@ 0.11560041077447362
class 0.07005437675142671
fr@@ 0.05251614389782829
hem@@ 0.31146634662640993
ilia 0.6206601337494358
kl@@ 0.08531031714213656
width 0.41548367345980486
0.1 1
1789 0.5048558352906514
Mu@@ 0.13971115058767944
UN 0.3912697190740684
mer 0.05701987852105127
1866 0.20800832488116164
De 0.03512674475902629
GP 0.5765983221199533
War@@ 0.0975885466775048
fish 0.16834040448576987
ning 0.10572881316036964
point 0.0439439630405702
รรยา 1
’@@ 1
Ba@@ 0.1325032045309177
Ke@@ 0.11624080655866253
Maria 0.09357466065545267
SI 0.607808043454942
ae@@ 0.4512660787128243
aur@@ 0.1633344040861679
more 0.014153178444473597
3.0 1
Tw@@ 0.21087260177303288
inhibit@@ 1
tom@@ 0.0920443456553768
50@@ 0.2545899642062353
Cro@@ 0.1425024959687543
Li 0.2970848045679813
San@@ 0.0952820330398831
Sun 0.1795511229638067
Voice 0.6247803154270023
_@@ 1
block 0.22159983486156615
dec@@ 0.064873951232072
eo 0.0991469949446357
ody 0.18806599787659503
165 0.8938647297307203
Cin@@ 0.2584297142200687
Dar@@ 0.08648717076341005
Ltd 0.33689086310490357
TC 0.3245824865433647
That 0.13213860337556316
สะท@@ 1
・@@ 1
Can 0.41732124800353676
France 0.024125864945602548
Mur@@ 0.12543997025196246
Syn@@ 0.26550829824547484
Wi@@ 0.1924702624493211
ble 0.11382342676294736
ณิช@@ 1
山@@ 0.16046604183094404
09.@@ 1
CC 0.25878241199517965
anus 0.25067919643872866
ery 0.13075683155947931
~@@ 1
Are 0.5856382543079881
Co 0.18292464959044427
Gold 0.17160343682840548
LA 0.2616989917672142
SAR@@ 1
Sor@@ 0.1734631476946622
Ul@@ 0.14947122266770801
can 0.017113063862568657
cur@@ 0.06218831269169936
tery 0.2885689711985213
1814 0.3725921528930345
45@@ 0.4476384110765389
เม็กซิ@@ 1
AF@@ 0.358098713826274
Audi@@ 0.47360833638153677
Av@@ 0.12221070594923435
Jo@@ 0.13534725628658423
Sports 0.1611406602074644
Win@@ 0.15811076660466958
ack@@ 0.11210331094263738
next 0.0565545809468438
rec@@ 0.04303175566558191
） 0.011466091931988005
3.1 1
Men@@ 0.12674592101026022
Nor@@ 0.081527580049628
Pap@@ 0.14016216801197307
Sciences 0.20704841456235698
Secret 0.5725857944426294
amb@@ 0.10034829487144054
ga 0.1170219933626192
pan@@ 0.09184608475666495
text 0.1370140684640654
ิ่ม 1
144 0.8956161949382505
1864 0.2217428389832911
340 1
Now 0.31716386546807346
ba 0.08505446684230511
cus 0.32327472249191624
didae 1
lidae 1
music 0.03356234927035864
oz@@ 0.15173100141384938
ภ์ 1
365 1
4.0 1
Car 0.42739909852178026
Human 0.25631960620087907
Original 0.45339343530887705
Pseud@@ 0.47610167607483794
SI@@ 0.448408449122735
Stone 0.22142309653843287
act@@ 0.195015272905472
ashi 0.3960818433795156
bre@@ 0.053802567852505
ful 0.0818804911823467
pop 0.14234261470843307
pos@@ 0.05333770604293587
tes 0.027738857479897405
າ@@ 1
133 0.905029531721208
Ch 1
Five 0.306067507293667
Hay@@ 0.18650609611450064
Ur@@ 0.07728564623991586
chi 0.09324128862117317
eme 0.2624126142971639
factor 0.3062537804587767
super@@ 0.07156849031669597
1863 0.22852778077641883
CW 1
Four 0.20932702981205079
GP@@ 0.48776853868703196
Heavyweight 1
Online 0.45819310761656207
RT@@ 0.38409637139448255
so 0.016313273000877926
theory 0.14790182859940842
Cop@@ 0.2099133925990772
DI 0.592053571774559
Open@@ 0.44494185023560784
RA 0.26863283964707324
Single 0.3168840372518001
TR@@ 0.7762573951229911
based 0.028484212405994223
gang@@ 0.4644181551679263
hin@@ 0.12647924677047948
lateral 0.5446555456732339
right 0.05870262839402349
tors 0.0801899541701987
อุบล@@ 1
1887 0.21004091820748189
380 0.9111077615760428
Che@@ 0.2735496137384418
Cos@@ 0.1920306164149825
Dol@@ 0.1651365475555127
Federation 0.22294946215966674
Yo@@ 0.31137891768128445
memory 0.261944648496914
top 0.045069683326841754
รวบ@@ 1
เร็ง 1
ト@@ 1
1879 0.22471890805229727
Internet 0.17382587885412937
Por@@ 0.10591522489891897
amp@@ 0.07985194466181694
bur@@ 0.06706848066667069
oy@@ 0.13065010646243627
xi@@ 0.20131796093035761
County 0.026071507204394335
GB 0.32327429332876906
Movie 0.6843740477435191
Museum 0.06857757490431445
cular 0.377241535213738
enti@@ 0.05420366459724656
phy@@ 0.2695151238617244
return 0.08292400062611599
son@@ 0.08997981471447848
OH 0.9200988282741689
aria 0.08884738498828729
cas@@ 0.05209002081094342
char@@ 0.09871096259630739
contributor 1
ect@@ 0.19748094008870415
โจม@@ 1
1200 0.4627322078990863
131 0.8442282193574575
1882 0.21763598875217138
3.2 1
low@@ 0.18413469810409225
oides 0.42531750851958144
สถ์ 1
1875 0.2277278067323519
1877 0.22810278320552657
1881 0.2126130926180459
CP 0.4675122739275836
End 0.3089153641490385
Max 0.14176614179662636
Net@@ 0.4517774709264116
SE 0.4515039309440149
TVB 1
WrestleMania 1
ill 0.08372709052486911
log 0.7707429164455646
ulation 0.15190243291651673
อยุ@@ 1
185 0.976745985671991
1865 0.21633417519941678
Baby 0.45300110088063544
Lord 0.1089855346802297
Pen@@ 0.12861800872700238
Two 0.09403793519768358
cre@@ 0.04999313966527037
game 0.027058166977081972
odon 0.8109892367441073
ret@@ 0.08906179392351916
timestamp 1
1801 0.44610188427206837
Al 0.05129578720855554
Football 0.07448592786058558
Kan@@ 0.10924629290137237
Tar@@ 0.10307218145639116
When 0.04529276012480798
ace@@ 0.17916198291787258
app@@ 0.12483961917759379
order 0.047373597611382386
thumb 1
yst@@ 0.198331434734953
ク@@ 1
132 0.7699265138075296
137 0.8880195843533006
201 0.8976950078623903
AI 0.5426005043211198
Ben@@ 0.0907455069914548
Edward 0.10234399577389972
GT 0.45890707852265633
Hem@@ 0.27126835074730077
aph@@ 0.24720922391112604
ines 0.048825715733280595
mas@@ 0.06818093491327612
จัง@@ 1
์ม 1
EN 0.8565932961490659
High@@ 0.2740251096498877
Homo 1
La@@ 0.12375892670534804
So 0.08649796745976196
Treaty 0.4288190130624773
index 0.6291694574563348
star 0.11774030691341195
try 0.10679274422155469
ward 0.09856898774082272
Fi@@ 0.14870547433895903
Jean 0.040345619611430045
Ly@@ 0.125701014560497
Microsoft 0.25503879271286645
Sound 0.29011638546324925
Station 0.10866809888575896
^ 1
ez@@ 0.07948314941436485
ray 0.3099519695737007
som@@ 0.14896309206530564
tur@@ 0.048544363841817414
08.@@ 1
23,@@ 0.679639131898806
Az@@ 0.1332024537705334
Jr 0.1966389118690656
NK 1
Office 0.13881385544568933
Over 0.19500900063724666
Palace 0.291180395903695
Ram@@ 0.10619566113408693
SD 0.5175707052305942
kin@@ 0.19886656354826132
lower 0.09373246102096504
tan@@ 0.07243176094326795
ts@@ 0.04780542038326073
tus 0.23989593734904763
คับ 1
0.2 1
California 0.04945966755439449
Gro@@ 0.13848980798356028
Kn@@ 0.13963028285471787
Sak@@ 0.21563404124124438
eter 0.1095205768307883
hu@@ 0.08021532021241133
over 0.013565960303869244
pent@@ 0.42743634681109965
thi@@ 0.1949929763697189
vs 0.6965130108972711
ปลอด@@ 1
1790 0.4357524581252663
256 0.9891038622484724
270 0.7540455130293957
All@@ 0.15384692071934614
Children 0.27740637495730724
Double 0.547374055014922
Pas@@ 0.098492401938334
Pu@@ 0.21372903435614962
air 0.056742487719310064
gh@@ 0.14256700234347994
head 0.044891979394143675
multi@@ 0.1630410866970131
oto 0.15974856259364023
sy@@ 0.1658225185857842
ten 0.010965762096979803
ฉบ@@ 1
สู้@@ 1
เดน@@ 1
26.@@ 0.5835318912822545
737 1
Mary 0.07834052340820312
Road@@ 1
acter 1
ard@@ 0.0783855085975393
ius 0.155870892361012
nd 0.4933288884525788
op 0.1356075572428076
tia 0.15030918700318274
บัญชี@@ 1
ลงกรณ์ 1
205 0.9107703723668323
BM@@ 0.37498658845071775
Blood 0.5130626233733773
IEEE 1
ith@@ 0.29698560937687846
opo@@ 0.27827752490795726
psych@@ 0.1443773359627401
ros@@ 0.13013426365802458
umi 0.37861536813210367
war@@ 0.04253058030862567
太@@ 0.24511456035790896
8.5 1
850 0.926259424622068
ECW 1
Hero 0.7914861118555738
Not@@ 0.1288298315455646
Organization 0.37989102208799513
The@@ 0.11455377361325186
Tom@@ 0.13254948623876014
USA 0.08293556874976973
ants 0.028530336903795753
cat@@ 0.07930468135608479
del@@ 0.0703027456540268
lan@@ 0.0915651850937355
ones 0.04498179338679274
tree 0.17933437731316548
ye@@ 0.1833262530331777
อิทธิ@@ 1
An 0.04589404312208911
With 0.06092781468587068
don 0.09247880246732226
inum 0.45161804025368113
otic 0.2808973165425415
phot@@ 0.2104513502655211
refle@@ 0.3859845335915991
therapy 0.6076891320036932
คริสต@@ 1
ッ@@ 1
25.@@ 0.552949219761413
CN@@ 0.29106502977160625
CV@@ 0.9072007697936948
FO@@ 0.439540482302518
Ger@@ 0.054875025939109104
Land 0.08462003695951834
Meg@@ 0.2475971604945658
Na@@ 0.1657511291324385
amin@@ 0.29090399582200005
ey@@ 0.09526111599166882
icul@@ 0.3295744593398365
ies 0.037393132312847646
play 0.03296669536995453
ล่ม@@ 1
134 0.8475583305344194
143 0.9432965412689852
146 0.9153084205157991
148 0.9784200291578021
199 1
Johnson 0.115362526132504
Micro@@ 0.40490695663040976
Moon 0.3134191266098682
Nar@@ 0.1595635981437613
Oc@@ 0.20262887687643993
ati 0.12679175173020313
ik 0.07388359497511733
iv@@ 0.08599551759477972
urus 0.6101548083696662
โหม 1
シ@@ 1
Boys 0.2583251257585786
Control 0.3691060134160874
IT 0.3657831051929815
Medical 0.1974128999235146
Os@@ 0.10677040866814257
ail 0.09866314022491773
ania 0.15577882976322435
pus 0.5995099661671714
username 1
ô 0.43292759332841646
1883 0.20854475944585188
2.7 1
Alexander 0.09154076363172156
Fu@@ 0.1971840948444111
Tower 0.3055781005488236
mac@@ 0.20110814435998764
งคู่ 1
リ@@ 1
ABC 0.23596052775487192
Days 0.4743672227679049
Los 0.02131424629785959
Play@@ 0.28548865474700535
Roman 0.07249173701707232
Sweet 0.6508752947146942
TV@@ 0.28541351890370115
anc@@ 0.07647232034579664
aster 0.21776585925149422
jo 0.1188573908890155
mi 0.10702326262809297
ro 0.09654292888902931
­ 0.4190150121878572
ì 0.7233475244305753
1839 0.33505886507925614
48@@ 0.5193329128915627
Dor@@ 0.10609668692594207
IL@@ 0.6829921080777498
Index 0.6027903992560676
Kur@@ 0.07985156968391052
Scott 0.11972908845202587
jpg 1
new 0.014041897379470073
sh 0.3887562843558253
uti@@ 0.21211901951696527
งบ@@ 1
งเกิล 1
ท่ว@@ 1
154 0.8992033346911608
1859 0.23381204049395854
206 1
Cross 0.1640756395194901
Ri@@ 0.06861038907312918
ii 0.2949599527466215
port 0.057665695899407746
pres@@ 0.05192187127914121
pul@@ 0.08480533154632848
20,@@ 0.5485718508301866
27.@@ 0.5603736271062105
75@@ 0.5599531684353984
Bad 0.16769012489020704
Centre 0.09355625303890966
Non@@ 0.5001614110016248
Paris 0.02965656081039812
code 0.13344404115912578
elle 0.012021057080793887
get 0.0707844794891933
iber 0.47657765099672167
สุทธิ์ 1
Committee 0.08884657019943315
Impact 0.5661752331592932
LS 0.7842878192982962
Medi@@ 0.15934269646610366
color 0.09191258996861
log@@ 0.10140693381878647
px 1
ธัน@@ 1
1872 0.21062856475874792
3000 0.28825559817677027
Ash@@ 0.14151118920280828
Bir@@ 0.1164803487637346
Court 0.06587191013149225
ES 0.5621888865511053
Money 0.6506485588936635
atidae 1
esia 0.2890443774843204
mann 0.046938987361075
} 0.18870538245393004
202 0.9266158361905108
Dev@@ 0.11863141961432165
Rel@@ 0.16777313364619523
Temple 0.20826918318019963
aci@@ 0.10504016387774415
bone 0.39927719724217153
ke@@ 0.09924954730419154
number 0.021588602388987584
ស@@ 1
中@@ 0.05370138696916985
37@@ 0.38231837779231775
CM@@ 0.5031359927790315
Seven 0.34725907402881
Wil@@ 0.07263032746642456
arch@@ 0.09377302757604462
ever 0.059508439796816026
ket 0.19315428896913875
ri 0.1323647049120951
sen 0.047848963048489165
บริจา@@ 1
168 0.9597130744313228
1700 0.5257403240281732
2.6 1
55@@ 0.5314350347066266
Crown 0.3105868477868064
Far@@ 0.08879502140489597
ION 1
ON 1
aru 0.5968312170886182
edi@@ 0.10583848556773973
eral 0.30141373676798117
pal@@ 0.08202759550614344
มศึกษา 1
1873 0.20305241866964782
And 0.18600822157223967
EM@@ 0.5106132513535613
England 0.03987275856217211
Garden 0.2685566941247356
OR 1
\ 0.28433629649138675
area 0.021579480190990607
clear 0.18327145696459907
control 0.05099981723095708
cop@@ 0.12335957831363772
ects 0.08114978252165024
len@@ 0.08635447013996568
va 0.0425013180611016
်@@ 1
0.6 1
1820 0.24325717000471186
208 1
Aqu@@ 0.22795472019819965
Beautiful 0.862380476839897
Da@@ 0.2296981017121415
Down 0.3281193431469004
EL@@ 0.5277006516819291
Kiss 0.7856900104104017
aff@@ 0.08294365674130315
har@@ 0.04642599444398496
ider@@ 0.26535180675258074
int@@ 0.07099236325445436
ken 0.03827046771088565
kings 0.32060272907119736
test 0.11369611173485414
ua 0.11512664913727454
uli@@ 0.15989117553935103
ush@@ 0.17552639720268096
ā@@ 0.07650435509705324
เยซู 1
后@@ 0.33105400824545644
152 0.7319668804262471
1806 0.34583917830565736
183 1
222 1
AB 0.3381690831764879
AND 1
AO@@ 0.5442480326471374
Cru@@ 0.2418600948900406
Gre@@ 0.09354113786340254
Kong 0.13155066068798058
Yu@@ 0.43651297967655234
acet@@ 0.5458821513272627
ami@@ 0.17413839619802177
dic@@ 0.0632409391945914
ms 0.07782999178067272
pin@@ 0.16895606281055855
sa@@ 0.08067853551104771
them 0.019084589300334232
ul 0.13918007414878522
ute 0.10600120561090041
ê 0.5225594550096082
公@@ 0.11196431582416803
142 0.8588418176885394
151 0.8753890289861416
Alliance 0.24347889862913918
India 0.044606344053243
LC 0.44872818609609383
Match 0.5373105961974434
On@@ 0.17829790513697225
osp@@ 0.2797251775644084
syn@@ 0.13940303783130392
til@@ 0.09231878704905966
ทั่ง 1
ราะ 1
รูปร@@ 1
19,@@ 0.5360382768317684
225 0.8088661084695943
3,0@@ 1
Ban@@ 0.09432837281726543
Fast 0.7656329817175679
Fo@@ 0.12580566600512813
GDP 0.9291991827049477
If 0.10218765355763347
Maj@@ 0.18636026954238277
PL@@ 0.4522580426533079
Sport 0.19041170575082758
gly@@ 0.6095366057034267
ub@@ 0.0915247109538058
una 0.00487923470713818
ventr@@ 0.6421956044020349
well 0.014834118150907785
ทั้@@ 1
ื 1
เวียด@@ 1
Ob@@ 0.14438504400489385
Studios 0.19856249176806665
agn@@ 0.1519786080587315
eil@@ 0.2359091483164532
mor@@ 0.060299832046817915
our@@ 0.11224302912791277
unc@@ 0.10612110863236043
1874 0.19934489912389977
1876 0.18924413039230747
2.8 1
310 1
DE 0.3287688344438272
LE 0.8102572290275372
Next 0.44861083244395733
TP 0.5609461591308065
Universe 0.6116614051624257
astr@@ 0.14268328190966825
gener@@ 0.06854027353023767
ika 0.1226024055747599
old 0.032597221134013796
put 0.08003192806699465
sor@@ 0.0745236513421174
BE 0.477945063348892
EC 0.36642648364608355
Fame 0.21467378547191013
Lake 0.06630612049914844
UT@@ 0.7689417683731058
Zone 0.2697825348862225
frontal 0.9794452257583214
have 0.007486091299616701
tel@@ 0.054037982199684136
พื@@ 1
ีก@@ 1
1849 0.2506325135301336
235 0.9631985938043063
65@@ 0.5128382146864174
Cl 1
DF 0.4173909677446549
Ga@@ 0.17155272057316884
Get 0.517256415271272
Ham@@ 0.10551997417573117
Il@@ 0.1107737204868537
Lab@@ 0.21686684996387104
Magic 0.4146353030082294
PR@@ 0.3622761186640779
cha 0.07960291516564616
mic 0.2985194412766009
ond@@ 0.09511863073927243
yu 0.37622832581084337
ម@@ 1
Ann@@ 0.13630967400086502
Blo@@ 0.1681591557605497
CR@@ 0.40704377756057625
God@@ 0.20081698350699193
Honda 0.561274073646529
Jack 0.10373635669850734
Nations 0.1369326375537037
Performance 0.42890145801193963
Ray 0.20491379929630174
Sain@@ 0.7719295247200261
ally 0.0203045456290328
สถา@@ 1
宗@@ 0.40992601750487934
1858 0.2443564111550383
AV@@ 0.376013547230678
Again 0.5676899717748725
Arena 0.24232842486309686
Bot@@ 0.14069517209091967
Fer@@ 0.11607134682150655
IF@@ 0.3901741477269214
IN 0.595151508131754
Iron 0.28848969196704316
Lor@@ 0.13185226371179548
Mid@@ 0.16339634951561072
Ol@@ 0.08871055875528196
Pacific 0.09888535967947465
comment 0.4925881530936865
fer 0.05921353453921305
lock 0.19171243967682056
mod@@ 0.10562049186153442
process 0.07012966217085959
ั้ม 1
（@@ 1
1869 0.2058030303429712
192 0.9942637945557226
EF 0.8246811592864454
OR@@ 0.5503603479093614
Rose 0.17901743241623994
SM 0.4809165056365704
ito 0.07177910553079886
ops 0.11757648617232788
phen@@ 0.23528766295672401
ze 0.05790193264431565
จจะ 1
147 0.8396862290970935
238 1
CS 0.28275411970988906
Code 0.25565531466567487
Type 0.2987632944961557
Wars 0.3458187415822444
XX 0.1362770473690915
anda 0.1366491296871527
chol@@ 0.6274596121866449
ira 0.09907512749860566
ital 0.2259228404268867
เครน 1
南@@ 0.07575230646171348
0.3 0.8562080076519851
153 0.8950206769274824
Air@@ 0.19149037300409125
Bridge 0.15047563015865698
Brown 0.09242964204983328
Ca@@ 0.18863449882545605
Champion 0.2866937046731934
Gl@@ 0.09656203173713304
Junior 0.15485990673522348
Kat@@ 0.0925681488827007
Kids 0.5949165233386685
Not 0.23021874613308532
Nov@@ 0.12555734845171668
SmackDown 0.9140190868013918
ko@@ 0.10635502323084009
lar@@ 0.07794587410637634
lis 0.12469487622619471
path@@ 0.17115851972948734
เก่า@@ 1
420 0.9535454183097455
Beauty 0.9604298823129708
Chemical 0.7220362749132384
HE@@ 1
History 0.029587058490377578
Hong 0.1273372247193831
MIT 0.7000869829187836
Som@@ 0.22807869366245737
elli 0.11292977385219846
esti@@ 0.1295288383517153
inn@@ 0.08761614783641503
มเห@@ 1
172 0.9983755096003064
173 1
1857 0.22740340337922563
221 1
Elec@@ 0.243846698310824
Happy 0.6091427147240842
IR@@ 0.4464769604386404
IU@@ 1
Mac 0.3284400883253949
Nag@@ 0.15045256860704642
Post@@ 0.16444178435917042
air@@ 0.05599712100491312
ault 0.12813866460380505
bit@@ 0.14692158796192284
ech@@ 0.07024379542719929
oo 0.2199687161884228
radi@@ 0.12112343416095318
wiki 1
š 0.3185672121197571
ตัดสิน@@ 1
District 0.03415426229456169
Fox 0.14820102769674606
GO 0.631074646443437
Hotel 0.1571487674139806
Sing@@ 0.2557397278198002
atory 0.13212324849138568
data 0.07854741662099556
den@@ 0.046055713442585355
entr@@ 0.05412839388238193
men 0.019550544896242257
otr@@ 0.27880110574322114
sw@@ 0.06640221786839472
val@@ 0.07148476938332388
version 0.03598394274059983
we 0.04785263676816709
บุรุ@@ 1
ฬิ@@ 1
ន@@ 1
、@@ 1
204 1
38@@ 0.3405837732979119
39@@ 0.3823527533718445
Bill 0.10619840435819744
DB 0.48899052571586166
Faculty 0.45039914193367986
Got@@ 0.24713638288639117
Language 0.39736110117521856
Modern 0.21529938870523224
Mol@@ 0.1052578299961462
Rap@@ 0.1849440388836575
Toyota 0.5481814109821268
UR@@ 0.5397349991298793
alm@@ 0.10210216291229966
ass 0.10068567488163911
etic 0.31314480160397323
men@@ 0.05140305694787789
space 0.0776223738866271
β 0.3659647435836058
มภ์ 1
178 1
1793 0.33999466702721226
Christian 0.05513703960518267
Division 0.038197169349680024
Sav@@ 0.1222038257459361
Smith 0.06424983976089965
mel@@ 0.0672789066061316
pel@@ 0.07546247873116851
！@@ 1
158 0.9146740059526808
184 1
212 0.9407365480346933
44@@ 0.48210052623793387
99@@ 0.7485515934930035
Army 0.0447584217564302
Brothers 0.24814989069029117
Cel@@ 0.168843981689094
Church 0.04349991879039148
Computer 0.32984027430569823
EA 0.5322182326338472
ED 0.7901516806585162
Ir@@ 0.09914350035540534
Kor@@ 0.08124886752107707
Pot@@ 0.15316522811774447
VO@@ 0.7190182200811142
ide@@ 0.09395567322454117
lat@@ 0.08110497425676663
only 0.012192600222001885
plas@@ 0.2662987984917101
will 0.0215375277382112
เมริ@@ 1
0.8 1
166 0.8778415175068333
Bat@@ 0.09924640869187829
Commission 0.0886812724048284
Comp@@ 0.21988065100888907
Ed@@ 0.1296315969860933
HTML 1
Hi@@ 0.1890856724660084
Ku@@ 0.14470661386692965
Pur@@ 0.14946173777945865
Woman 0.33501872455580445
ace 0.08112283170908198
atum 0.34031867016036565
ear@@ 0.11619568738219088
law 0.03865196878782843
mm 0.05859767825871352
ote 0.07954397358233886
thr@@ 0.14741872999634587
ume 0.10003728955052035
‌ 1
2,9@@ 1
4.2 1
Chris 0.12984738984798963
El 0.007220317239053101
GO@@ 0.5120468507611508
Mot@@ 0.09353564599098725
Nak@@ 0.2668282353784033
ays 0.06454710131061955
bin@@ 0.11577164559170913
æ 1
ฅ@@ 1
จืด 1
18,@@ 0.4430968803122068
22,@@ 0.5762579896980202
303 1
CT@@ 0.4848332121900739
From 0.04311736087169597
SP 0.5004953981866159
active 0.059879778423596944
channel 0.13063277036555823
die 0.0013095831154026614
prot@@ 0.07062901008612894
tion@@ 0.09134982012966725
we@@ 0.05181083353662464
would 0.01101658262549137
138 0.707136615903198
193 1
301 0.9019232178702395
Artist 0.5470745821612022
IX 0.21810623124720624
Jackson 0.11399639659529419
Korea 0.14580105825296505
Na 0.4696564496055499
alization 0.20720075713492625
eri@@ 0.1819667060958218
ford 0.04523410105569317
lip@@ 0.33385108783863454
occus 1
sey 0.11117733723702102
station 0.022147203490151608
ตอม 1
เจ้าอยู่@@ 1
1.9 1
1792 0.3732373449949642
315 1
430 1
BB 0.5034847767932069
Box 0.34434373937375495
Knight 0.27847441080879
Operation 0.1791276216980515
Ring 0.3338875370106115
Run@@ 0.23046454234754726
Standard 0.24212144959389648
Vo@@ 0.11239824157281235
bic@@ 0.2315277112998626
leg 0.20231847946275663
opath@@ 0.5018947960102159
spec@@ 0.09572235559859357
ust 0.11063861829407272
value 0.12403856254593887
ดอลลาร์@@ 1
แปซิ@@ 1
文@@ 0.09789788678500158
156 0.7912213652020379
163 0.9018662756117788
2,6@@ 1
46@@ 0.437089139359346
Agency 0.27289883661286257
FF 0.2832664236932293
Once 0.22929708347824776
cher 0.04907127432489785
estr@@ 0.07645573081209805
eta 0.06295133562628283
he 0.00287896371822554
otro@@ 0.6178073657940714
DV@@ 0.4658131464006061
Data 0.41291562597199344
Kal@@ 0.07707082128381346
Over@@ 0.1406045880221015
Tan@@ 0.1422842848084565
VE 1
Web 0.3822517180757625
album 0.013867851925461507
apo@@ 0.0746179191049615
att@@ 0.04693477186261106
book 0.03361846796308156
hum@@ 0.09671526697281252
igh@@ 0.09442077990246801
ites 0.06000038975362286
lic 0.39739320368369646
รรม 1
0.4 1
157 0.9220377448719851
BSD 1
Blu@@ 0.197684303018033
Fin@@ 0.11847235187358346
Ig@@ 0.27679422093400285
Information 0.2357540062114848
Ky@@ 0.16546520087880687
Magazine 0.1830208302039856
Mul@@ 0.116051537695783
Stage 0.4249942348913261
Version 0.22169743098126998
odon@@ 0.6232736076440698
ogr@@ 0.21275464943052622
other@@ 0.20547672938581954
sem@@ 0.11295483878418876
wood 0.052749512714077754
ア@@ 1
195 0.8435639183140771
3.6 1
Cu@@ 0.09521528540418582
Die 0.004316998463090972
Ji@@ 0.26629642374842716
KBS 1
MI 0.5364941431602781
MT 0.6112613571123237
MV 0.5600309182673656
May@@ 0.12180492246502313
Pin@@ 0.13003379843854884
Real 0.10160799149749347
SF 0.6329195487027902
Sen@@ 0.09760366888149338
Stars 0.2464382871349182
WC 0.8043744520102813
ali 0.09109058127735728
ex 0.0862397358333033
life 0.018193131494303485
ปรากฏ@@ 1
แ 1
三@@ 0.06575767546218028
元@@ 0.23340699524286435
Bul@@ 0.11873342261315803
Imperial 0.20299189403306958
Vol 0.7034997186980674
Web@@ 0.2328847645405439
anterior 0.20430007771330397
bor@@ 0.06289770076803868
inger 0.06564238126212002
ister 0.10971535121783958
sen@@ 0.05168826336056036
vir@@ 0.11680217785143586
‘@@ 1
1795 0.38432924707398114
777 1
99.@@ 0.9768835916958911
CL@@ 0.5092388115457444
Cle@@ 0.18317486561233054
Count@@ 0.686323343909421
Heaven 0.5863569938545733
Hill 0.07098239777576432
Islands 0.1398128475521422
KO 0.5200833640163878
Leg@@ 0.11805552184531938
Mod@@ 0.1668242072974884
PM 0.396583503659156
PT@@ 0.5495434005885688
Part 0.3101792756445108
Spir@@ 0.31844162051594094
Under@@ 0.28684145541946543
ature 0.1533613151236008
ip@@ 0.13252174935249417
pyr@@ 0.32693241172155824
single 0.025210896416403963
ush 0.1706368640945756
zen 0.06012469066223573
สัมผ@@ 1
167 0.812735972978266
1854 0.21983869401141506
265 1
Age 0.23243128967093224
Ak@@ 0.06683102038163333
HO@@ 0.7270890081121052
Harry 0.13173936229057376
How 0.35032018039303237
Mountain 0.14869302856128527
New@@ 0.1376121374687058
Second 0.07963503925693599
Tom 0.09854664006169334
box 0.13081999148294723
ff 0.08915704912575084
ham@@ 0.16541282841473356
hr@@ 0.10396600667485899
ple 0.19551748934580168
°@@ 1
แชมป์@@ 1
國@@ 0.11257894473126592
2,4@@ 1
47@@ 0.40795300694285336
999 1
Gor@@ 0.10304992627319591
Hom@@ 0.1081577277450261
Ju@@ 0.11027176209014304
Just 0.24830308292608294
Plan@@ 0.1080319259900947
Sin@@ 0.12106326810746217
Sle@@ 0.4443728577196348
Yam@@ 0.2583882900406158
alb@@ 0.09856365571777859
ico 0.053671736482638704
len 0.07003091834000266
mus@@ 0.07093014598629387
obi@@ 0.2850250534230008
ori@@ 0.06404831116152125
polar@@ 0.4667427224583159
ves 0.03877126237872604
ตกล@@ 1
เมียร์ 1
189 1
2,8@@ 1
309 1
Ci@@ 0.15621010584545536
Government 0.07592411021605845
HA 0.6752421551963081
Nam@@ 0.18258281845056307
Steve 0.12882196448994637
Tal@@ 0.10149747802556307
Theatre 0.10160560827582384
Wall 0.2815139825251878
dy 0.09826988671869934
hol@@ 0.05128792811149909
iki 0.09851335295401112
mg 0.7164466110344759
ocar@@ 0.5506090098943184
ord@@ 0.05257684389915187
ow 0.06509430423712648
sus 0.014884286540012382
top@@ 0.13302488849816899
0.7 1
181 0.9886716944488927
1831 0.28704525936016184
214 0.9569714503705189
216 1
Aer@@ 0.1985638445064893
Arthur 0.09748997396750134
Core 0.7950394286831223
Hydro@@ 0.36597758854790113
Indian 0.04958792068711388
NS@@ 0.19973203646316653
Sir 0.07609013668720274
Studies 0.17854276220658669
Tu@@ 0.10732595459535858
Water 0.20687349822989903
Yes 1
Ze@@ 0.12548158943098142
bias 0.6927924173028013
case 0.04579810598625175
cle 0.31082367252332727
ero 0.046819558995201675
ich 0.05178477999310416
inf@@ 0.05674568714751541
love 0.09157954751112399
ney 0.08321490872787121
ny@@ 0.1432069675263677
sin 0.04376562617758745
thys 1
umb@@ 0.15485832422547083
ysis 0.6566424943689337
203 0.8402647711073831
Fal@@ 0.1308465029361995
ING 1
LP 0.20595865574420705
Lim@@ 0.12291940798259765
PW 1
Pa@@ 0.11730040915362097
Proc@@ 0.29439538152282224
Revolution 0.14385789139607008
SBS 1
She@@ 0.1466783959167466
Sky 0.2672224692763908
aker 0.1452378366836186
bus 0.08470162907908783
eum 0.1908614348416493
list 0.05203182075989258
match 0.03240341584047687
oli 0.20654214043718308
tar@@ 0.056105802573968654
tim@@ 0.06770018646228149
な@@ 1
神@@ 0.15350209538471768
1837 0.2588475525817216
3.4 1
Astr@@ 0.20012310415156512
Economic 0.29125666216003715
FF@@ 0.4077216999285987
Gi@@ 0.06823581382725956
Jones 0.08469971218218099
Wal@@ 0.0649711775948181
Wh@@ 0.15897169062096383
eri 0.10909049294167612
mit@@ 0.060480961222850495
tric 0.31809970327410325
water 0.029259625470979232
yi 0.17643266312315803
ภาพยนต@@ 1
อาช@@ 1
179 1
191 1
196 0.9908139250706469
3.3 1
Action 0.26191624476130304
CE 0.24227856838676437
Championships 0.075289855994864
Eff@@ 0.19807278659742356
Francis 0.11758535147549123
GN@@ 1
German 0.03182260185518582
Holy 0.20229435709747556
Red@@ 0.07380708437885529
Rob@@ 0.12967317751626342
Var@@ 0.13324273696300531
YouTube 0.20355700649546077
ans@@ 0.0607546989211737
bar 0.04821609955625059
ello 0.06894590108057806
ger@@ 0.03628167790788479
glu@@ 0.49406573671943127
ih@@ 0.11236926343545438
lab@@ 0.10440496000975703
pedia 0.6226753855891177
take 0.041568291666265
ダ@@ 1
1812 0.2334372536028236
182 0.8330963498844459
1845 0.24147047927400403
2,7@@ 1
ATP 0.2643420864272432
Eur@@ 0.1504994723756049
French 0.02960107258150902
Head 0.17765001151718587
Japanese 0.057186186490023876
Mis@@ 0.12809647362371235
NT 0.7561716610587726
SW@@ 0.40393387344640413
TE 0.4270117638676323
cel@@ 0.0764413855797487
cogni@@ 0.4523499444560612
enia 0.4953925180295771
ham 0.09112672907849934
ku 0.2524003887945211
like 0.026188269131107864
oa 0.11727936760734499
ota 0.09043225348830325
ural 0.28596800698167346
weight 0.10134228494932185
ទ@@ 1
武@@ 0.17298341948802842
--- 1
139 0.7494747475725797
149 0.8126932705961469
162 0.7988591075099939
1851 0.22050866045182668
Angel 0.30759906136239984
Bay 0.0651783972282124
Christmas 0.1798743634244046
Dead 0.2727218277091138
Duch@@ 0.2944829923717578
Energy 0.23876312043553716
Hon@@ 0.11647330816238613
Justice 0.11952741977574556
Medicine 0.27625851489180436
NET 0.9354789990113352
Nature 0.32732796251455093
Nissan 0.7860463544336416
Soul 0.39276828262999086
Trav@@ 0.22258301450989462
WHO 1
Zh@@ 0.24845348502694192
not@@ 0.0540685281742353
qui@@ 0.0880398253549301
sens@@ 0.1687499103238785
sil@@ 0.06867101148523135
ประชาธิ@@ 1
ปไต@@ 1
2023 0.6438484610865404
480 0.8391780765127419
Actress 0.6444719954542781
Ali@@ 0.15382430111582515
App@@ 0.1764761164720884
CDC 1
CIA 0.40995707408136567
Dro@@ 0.16118783405340864
GA 0.4030569358883481
MR 0.6869256012179111
Never 0.5099681803221603
ching 0.08529427968319621
gic 0.5937216415673123
mal 0.06349775932432626
ots 0.0527069478733734
search 0.19613582686446104
sum@@ 0.0716684771673458
var 0.28803553953157346
zone 0.0750243788442892
‎ 1
161 0.8228025899113608
1791 0.4044777541614653
1856 0.1983002463550306
251 1
Convention 0.21607513951380097
May 0.017635978037132294
NT@@ 0.4436350379782543
Rainbow 0.7935327272545601
VI 0.1293065580989282
complex 0.10085980009368568
eous 0.2731352027569122
ila 0.09515808764171269
ost 0.11519281500422338
parentid 1
rot@@ 0.08657500725645688
solid 0.32044549388999427
ties 0.04234204261866714
trac@@ 0.12295338774546365
−@@ 1
1824 0.30651150406157296
304 1
375 0.9555719395376796
Ben 0.12745247569556922
CU 0.8452962357663691
Express 0.18964531469664883
Grammy 0.3045988190796776
Mobile 0.3521243889632754
Search 0.8907273685461712
bot@@ 0.11535350281860864
ental 0.09859099500839659
inus 0.2159940928955765
ith 0.14269580401427684
ities 0.09777788930621469
ket@@ 0.24880811280245774
national 0.02293225349752112
ois 0.11943964226772796
room 0.0674716218512248
second 0.013069162369027956
umin@@ 0.2664736267610832
video 0.04107565180185437
ville 0.018726624345983933
which 0.003342175338388645
169 0.892582693151729
21,@@ 0.5308805222698668
After 0.014585342111953302
Come 0.5024500805158197
Raj@@ 0.12406069510923522
Right 0.4202183058960324
Tran@@ 0.15939733407662643
Tro@@ 0.09150058257869699
Will 0.22239859172128926
ats 0.03504916741251547
ici@@ 0.08536480726093158
nom@@ 0.10771642306405206
power 0.03672426172930759
sal@@ 0.050254561764330935
}@@ 1
ñ 1
金@@ 0.08807451292779458
，@@ 1
1821 0.26679916659322617
1852 0.2170012816057183
215 0.8029999953081445
28.@@ 0.45747378585695725
370 0.8255478808524813
JR 0.4927132225864769
Mand@@ 0.11757438707201201
Wit@@ 0.15951701571320046
YO@@ 1
analysis 0.13952770838084952
az 0.08298141491506383
bal@@ 0.050356144900214464
cip@@ 0.17669596439575852
eria 0.17047661187374524
form@@ 0.04840288433822462
ichi 0.28990649812415015
media 0.04810448404657292
membrane 0.5354784227168686
oon 0.17661509147257745
vo@@ 0.07112119172134125
ø 0.7044402092447367
カ@@ 1
177 0.876352385771053
Area 0.15793749657544978
COVI@@ 1
Challenge 0.24124515296459934
Champions 0.17883022779750232
Joe 0.09914532726259587
Mos@@ 0.10132780374635726
Most 0.07642162307872952
ectus 1
face 0.043647389483431095
free 0.053626722569312425
house 0.028312534490766088
into 0.008023933826857512
lev 1
public 0.02134946464558314
tro 0.11299548922775378
uk 0.16591229406744212
แอต@@ 1
朝@@ 0.43295971763556207
3.7 1
AO 0.6040774689856038
Brass@@ 1
Century 0.2840173806305928
Fantasy 0.44790464241304573
Full 0.5324016758249982
MB 0.5447269992573892
PP 0.44747751113601
Press 0.13326616203923347
SD@@ 0.39552131888633035
Santa 0.05009474940767356
Side 0.3193155951676437
ago 0.10033018315941271
chin@@ 0.20236950922035837
iro 0.11747614996550648
oni 0.10354551752486946
pen@@ 0.0618017400498342
polar 0.5890283935965116
ser 0.022479762829310697
where 0.00991457034212102
25,@@ 0.4989121676010007
29.@@ 0.48299482961090245
Aut@@ 0.11570574973642092
Bab@@ 0.13489340055537954
DR 0.29762562591888575
Hospital 0.09624819183765475
Oh 0.5154976806013613
PAC 1
SO 0.6330127992914217
Square 0.1656475222439041
arg@@ 0.10744940180075603
cos@@ 0.13081381341358722
dy@@ 0.23881971186438716
fac@@ 0.08952047815106562
has@@ 0.1619594602774867
hydr@@ 0.19370173457543766
then 0.011134943408114842
tw@@ 0.06536283743593044
wan 0.19069822909034775
นแรง 1
ศึกษาธิการ 1
国@@ 0.13560464405110623
西@@ 0.05275095187077575
1828 0.28379883151748375
194 0.9907006515872343
209 0.9221046461026358
Arch@@ 0.14607426843154947
Der@@ 0.10652709301730173
Doctor 0.16647148133101974
Future 0.3324653814844765
Hir@@ 0.13271560700649682
Nan@@ 0.2659627676071255
PG 0.6059359381053517
Ple@@ 0.224038381606151
Prim@@ 0.15218021638026843
RN@@ 0.5162608972557666
Spe@@ 0.10559054494937906
Stephen 0.1285256977081547
Wo@@ 0.17508180417766947
aden@@ 0.31441645540688706
ban@@ 0.07223323920016361
ck 0.09718986018607192
core 0.14263242713725524
ential 0.22988858368559137
mot@@ 0.07538384273758131
post@@ 0.08811402694724432
ī@@ 0.19596391683144726
明@@ 0.13965503038069663
2,5@@ 1
36,@@ 0.7150873299589803
410 0.9555604374889615
Country 0.14199095387228475
Jazz 0.16673526070270286
Room 0.4209086165519222
ev 0.10282000587252145
iri 0.18741477397976777
ker@@ 0.09556290479267689
ment@@ 0.08199292128976376
pur@@ 0.07166081597649405
sky 0.08277854430334149
tho@@ 0.1381053319821855
tle 0.1377994957135382
uch@@ 0.07140940524578002
urs 0.0610936996587529
were 0.0028811553516109173
จรา@@ 1
วัตถ@@ 1
Ay@@ 0.10613890888780045
Elizabeth 0.10119378064018135
Face 0.47676112663053943
GE 0.4848485704965281
Pit@@ 0.19829409675105572
Tim@@ 0.1489261586078933
ady 0.15524891694576493
ani@@ 0.10000997161628503
any 0.021277732311555272
dem@@ 0.040059180951808306
ku@@ 0.1100545160942715
mu@@ 0.06104223377235344
rel@@ 0.034031439920417184
rol@@ 0.1835242954922649
sing 0.07221449296872444
uki 0.32719466107991957
171 0.8478854754289136
174 0.8785493865037599
305 0.871238385643982
Conn@@ 0.13559365087288977
Dom@@ 0.08147338146211203
GS 0.45001886867737956
March 0.017165272380798464
Return 0.5037490329427137
Rev@@ 0.11367054395675945
gro@@ 0.11383460622702972
hor@@ 0.06920005988868623
illi@@ 0.15819833436288505
omy@@ 0.613204065653845
people 0.015063582495294766
virus 0.20699600267104606
ã 0.6861867663511183
1300 0.4898789585365227
26,@@ 0.5100368810185466
67@@ 0.5526018860596009
Albums 0.24268694718420447
Disney 0.1331273015356865
Lev@@ 0.12814367054425568
MO 0.6872394415103763
Marie 0.06213554918591615
Meth@@ 0.37659699935671753
Mind 0.5743193925853306
Point 0.12536835055603493
Songs 0.17871119206995476
Town 0.08126385980644499
html 1
major 0.02740253412826273
prop@@ 0.1007792513601242
sol@@ 0.036002796307784204
พฤษภา@@ 1
78@@ 0.639883018659531
Anatom@@ 0.8144918752868119
Bus@@ 0.1046154085668037
Coll@@ 0.3050104879100943
Ele@@ 0.26197545018278906
Good@@ 0.22690732936160715
Her 0.05080391124030852
Neur@@ 0.3070708549809146
Only 0.17910230439185618
PR 0.2992485710342312
Peace 0.2390314928527138
Prize 0.14970769080079688
Sk@@ 0.08633871506722528
cho@@ 0.10758954200308868
ci 0.04404347627803036
icle 0.5783210837669613
ister@@ 0.1420125717276653
itz 0.0631888158215993
oli@@ 0.16845461144850019
ose 0.11199087610169275
rate 0.0756531641012821
คที@@ 1
マ@@ 1
1853 0.20770476736537988
239 1
Black@@ 0.14580343009124408
CR 0.32531100743827274
Daniel 0.07453673184008966
Gam@@ 0.2129728351881332
His 0.018891254796253497
Intel 0.5290278807134123
Mem@@ 0.18465527702029305
Shar@@ 0.13809140849022208
bot 0.15426772314382978
brid 0.42988106798625275
ein@@ 0.016345710082279308
lum 0.1646148751134034
olo@@ 0.20585215140813679
oscop@@ 0.43113434228755715
oxid@@ 0.4241714155376631
rock 0.04549719599233699
yan@@ 0.1837012240251729
វ@@ 1
ん@@ 1
176 0.7986417217817033
1832 0.24173318498005197
1841 0.23675175771624435
Boy@@ 0.1906292020640424
DP 0.23343382653916725
Fel@@ 0.11455112083154799
Fil@@ 0.09985527756302767
Frank 0.07568854176362642
Gener@@ 0.12117131739072988
Hell 0.4343487427821114
Karl 0.06547194834624524
Kas@@ 0.08865850947663315
Pictures 0.24016286801085054
Take 0.5054681151486915
Triple 0.3472397124401505
allo@@ 0.30457283448703903
boy 0.1205797805552225
ett 0.05855591033793078
fa 0.20690192623664827
factory 0.17649020966075513
ison 0.07578576165104477
kg 0.1201452226159878
lob@@ 0.13727471393353494
long@@ 0.1654004945287487
mes@@ 0.11755072445318408
orum 0.2307117975796934
ough 0.09835167152133031
potential 0.11995530722754127
sis 0.21759429523760654
ulus 0.32355630821018627
uz@@ 0.08567924374806886
verse 0.10118673966132849
vin@@ 0.08356085632617341
xy@@ 0.579448038966827
ยยศ 1
ลใจ 1
ド@@ 1
306 1
460 0.9492166204200363
@ 0.6295436130157385
Bac@@ 0.2729291644825566
Fran@@ 0.11046008621182991
Fri@@ 0.11872275171002614
Fut@@ 0.24719801296187732
Les 0.009700558693340555
Mes@@ 0.10186916617366722
Place 0.19013465181786765
Ren@@ 0.0746651648405763
Wat@@ 0.13573165329328224
ben@@ 0.05947257755231499
ideae 1
kar@@ 0.06779817901872309
surface 0.067602023635091
tig@@ 0.06108897480905243
uri 0.1522125170987651
war 0.00411689968306565
± 0.6236004828985782
กาศ@@ 1
มาเล@@ 1
วอลเล@@ 1
か@@ 1
ジ@@ 1
이@@ 1
243 1
Bay@@ 0.10183560174222853
Bec@@ 0.19448497091683709
GC 0.43366278443149175
Middle 0.10963912806148679
More 0.1501130512910718
PCR 1
Screen 0.7188699849879985
Singer 0.5646723642959458
Tour@@ 0.09442970628605224
Ven@@ 0.11062869125523317
emp@@ 0.06764428408952325
iko 0.16105371892379897
stere@@ 0.570614645697171
wave 0.2008006094821654
レ@@ 1
城@@ 0.16838549275715567
159 0.7880300675305288
211 0.7536697411457495
217 0.8553252674152854
308 1
Blind 0.8757177419567498
Cast@@ 0.2194517982089246
Child 0.3329789447967115
Fe 0.29933215985257644
Mode 0.5960934557245448
Natural 0.2212089917086568
Pri@@ 0.11452682374436396
Pul@@ 0.17842096409595737
Py@@ 0.24227346931080998
Tree 0.44314151159341425
Wild 0.2445833798043039
Years 0.3066632235797366
aris 0.3265913090393416
ayer 0.212849664148039
dor@@ 0.08320585781822527
eless 0.13131471476954287
fo@@ 0.05434624851724608
iTunes 0.5185387381156105
isti@@ 0.11735313585407073
lin 0.07250038227036831
map 0.22334454665551104
osph@@ 0.38887508892522804
superior 0.14826362855285208
州@@ 0.27353078288808413
平@@ 0.1324725803084161
新@@ 0.06230632620734853
1803 0.2769015543005198
1847 0.20909996812485046
Fashion 0.7163858072299233
Kir@@ 0.10582481579532456
Lam@@ 0.10653956704309493
Land@@ 0.03449345207623795
NO 0.8543209103969176
Our 0.23425603119642854
Production 0.14017759128835763
Psych@@ 0.22337534382189328
Youth 0.17078109903169983
isi@@ 0.05370942164968579
1808 0.2872562988572869
1825 0.2612783671440947
2300 1
4,0@@ 1
Autom@@ 0.18697118543736596
Department 0.05047275360058328
Direc@@ 0.1373681579259586
LG@@ 0.4504863049077055
Pun@@ 0.27504595129725273
Rom@@ 0.06887707901521595
Visual 0.5864165458118662
assi@@ 0.15210448782062322
board 0.050054931481418506
ike 0.12696028409778123
itation 0.11616615675283289
method 0.12752655965077528
orders 0.13889417648686675
plication 0.3775365724038422
rowspan 1
sap@@ 0.4560897803915452
stone 0.059292834055490205
‎@@ 1
′ 0.48594523955366586
1805 0.3161804783911343
1835 0.22441926916915522
246 1
Angeles 0.0535101878996553
Cathedral 0.23316872855642365
Dic@@ 0.2892535184446955
Eastern 0.08564683692277056
Short 0.3416284028043124
aga 0.0958872719127801
agonal 0.6207436357209125
ais@@ 0.06641160743472332
cape 0.32854353455406504
elec@@ 0.08245616042913997
gas@@ 0.12365872921339709
her 0.004778851853648297
mp@@ 0.12759432742298998
ony@@ 0.20815917028721526
over@@ 0.03310678428840666
pes 0.10222764205783154
ph 0.27054852814351515
table 0.07247474857789195
ven@@ 0.04547253134369406
zi 0.11806932174311009
zi@@ 0.05743251160568469
จัย 1
ฟริ@@ 1
ลเลียม 1
43@@ 0.4241788010049583
5000 0.24902964474863037
AST 1
Bra@@ 0.19019267517460542
Know 0.6035166254999607
Mic@@ 0.22888832099269285
Obj@@ 0.3043802682239998
Pic@@ 0.14550780221357296
Pierre 0.0511097678297722
Radi@@ 0.15824870903269603
Rain 0.6559221265443266
VII 0.15525049318671133
ades 0.05203995152960245
hypo@@ 0.594656231365131
mati@@ 0.16409654666848056
mon 0.20168964472904616
pa@@ 0.13746150533081858
tom 0.206994823784193
yro@@ 0.5335333058186291
ក@@ 1
186 0.8470011676284952
187 0.8647376598783216
200@@ 0.2095345291329145
207 0.8286578135514281
223 0.9666332555216111
Am 0.02217287282404283
Broadcasting 0.28299814026119524
Enter@@ 0.41532744124941307
FIFA 0.16430450480470485
Friends 0.33151835337585117
Machine 0.3470523622275834
Motor 0.16779887123289597
Vis@@ 0.10656644628477263
etta 0.1311119042204536
gar@@ 0.04809513801598516
gene 0.17578255524918135
ier 0.042567425712024674
int 0.17803029333333592
print 0.17827101002289075
work 0.012845914929650398
yn 0.11234452083771516
yrus 0.8607925026162322
ฬา 1
一@@ 0.027710476422107496
1799 0.34825267287233785
295 1
323 1
4.1 1
Acanth@@ 1
Ali 0.1076143082895823
Conference 0.08085452462810551
Ep@@ 0.16118089393596155
Fantas@@ 0.4731239982161419
Field 0.11438493615316694
Food 0.28825337593366135
Hen@@ 0.12694830849122327
Idol 0.7791343803461193
Phot@@ 0.257487365811919
Sec@@ 0.11877798669010907
Stop 0.6299773479594596
Works 0.1624856365745588
Xi@@ 0.23323457267353762
agin@@ 0.5835873381486463
ate@@ 0.1905960961811485
chrom@@ 0.2304602960556052
hiz@@ 0.40106690428465874
idi@@ 0.10777650257577838
ind 0.1958982089235469
mark 0.08832281036228075
oshi 0.26218916858883
ple@@ 0.07314527132092771
uy@@ 0.09290885615757495
your 0.18348859957490313
าคม 1
安@@ 0.07619621709944363
1660 0.5825732311743835
1826 0.26726844163442587
Animation 0.6294311270641312
Bell 0.14932392641644532
By 0.03522834244967012
Call 0.4011360456404917
Castle 0.1154326115019826
Director 0.0902381742366333
Got 0.5717131343983537
Kevin 0.16095801012795555
Protocol 1
RIAA 1
SU@@ 0.6103563781464868
Sony 0.22108528252220838
Southern 0.07401391276517191
Spring 0.2229573774815034
back@@ 0.08321897327199917
but 0.004754623765812338
ce@@ 0.08733732123794583
emb@@ 0.04344074742172049
fication 0.127400832712109
gl@@ 0.053514898936316814
minor 0.10348028009429286
ui 0.15944838615272122
μ 0.3460499185881816
ာ@@ 1
☆ 1
し@@ 1
江@@ 0.1751301589870042
1844 0.21757257059581536
30.@@ 0.4530310296431712
49@@ 0.27727603247046034
AW@@ 0.5469979004380139
Board 0.07177551956682895
Ful@@ 0.17180268321758962
Hz 0.9657208023360917
Johnny 0.17661676395547762
Kit@@ 0.13614344386147847
LED 0.7659533736406708
Pter@@ 0.5823700351730197
Ra@@ 0.10466622424608205
SL@@ 0.37953988167638253
don@@ 0.06397322283237789
dorsal 0.5211282643952313
family 0.013237504727312707
fin@@ 0.02931996704005057
kr@@ 0.06739711744538257
network 0.07128611933201656
ories 0.11922041540912927
pattern 0.23161193652121476
sti@@ 0.05469253509666987
through 0.012200755671580977
tre@@ 0.04842059021662289
uck 0.11350415629652483
เดียวกับ 1
之@@ 0.055681578961902116
164 0.7275858572361397
255 0.8701419061654613
4.3 1
Ai 0.5484298557672702
Dan@@ 0.10824526566793577
Freedom 0.25921757336596435
Gate 0.36823418415333453
Here 0.21236158709960745
Lon@@ 0.2816163411612116
Luc@@ 0.11246003754614238
Mess@@ 0.1397895630027527
Name 0.06201290309027285
Pop@@ 0.15128468019968128
Rhin@@ 0.5562662052554029
Stre@@ 0.09882075292976196
Van@@ 0.2287864250369296
ages 0.02458970876799321
aku 0.4196551881914578
eon 0.25930279661959155
ink 0.13077725087873132
lo 0.011111496413526106
social 0.03191694075177958
tube 0.317977943401334
uma 0.1344677351030047
uni@@ 0.07616885165245707
vel@@ 0.1029484163460043
zo 0.09249840530617381
オ@@ 1
海@@ 0.06999862885276227
1648 0.6084446151485813
1813 0.24170325337292656
Classification 0.6419690065299806
Make 0.5909817802896373
Rus@@ 0.0847287149283377
Sus@@ 0.14068055510979305
aha 0.16873135756885096
asis 0.17478820901505196
change 0.04631164463719563
dys@@ 0.5498609179672922
eling 0.15099787248822977
fly 0.13660565000971608
gal@@ 0.08522486345671108
ident 0.1299712428804352
load 0.16126083641489822
mail 0.2250170360087688
ometr@@ 0.5213268179692361
oy 0.1308583444868232
press 0.0882684942381952
sam@@ 0.09406320243087338
trop@@ 0.16860490053023416
ule 0.10619639758604389
zu 0.003710642026281982
ə 1
ロ@@ 1
06.@@ 1
1400 0.4777218467734569
501 0.7755657858849477
950 0.9062715989219648
AG 0.10515119410440822
African 0.04990237596094363
Anim@@ 0.29241528997007293
Bachelor 0.1860725640744393
CV 0.48034447054054136
Change 0.48192085231148957
Common 0.27103460619299474
Romance 0.810999853961335
Spec@@ 0.23752354645591336
Vir@@ 0.1263156518047018
ader 0.1035122480177695
conver@@ 0.11194449062627725
ew@@ 0.07711455690024989
rd 0.24155636201006345
ł 0.7366596231888319
ウ@@ 1
漢@@ 0.26568174216046314
1822 0.27536696591661075
227 0.9549501897475429
29,@@ 0.5385994057224156
302 0.9461108667878579
57@@ 0.4345296001570792
ARA 1
Apo@@ 0.26892459493832027
Chicago 0.04722796937997753
Dynasty 0.48594321455027156
Flo@@ 0.23311909433884065
Gol@@ 0.09460722323212718
Hard@@ 0.15516235112169305
Lamb@@ 0.35145862650245413
MBC 1
Sky@@ 0.27591353137587465
aw 0.20723885497329028
ech 0.1317794929699208
eck 0.08334367525286328
gn@@ 0.1390209644378353
lem@@ 0.11377697538066515
sea 0.04899165290556519
sec@@ 0.04886226737577853
sia 0.2845821945289696
usa 0.11396103926423384
wh@@ 0.053285572912572805
มพู@@ 1
รัมย์ 1
เจร@@ 1
高@@ 0.06016608060623206
1080 1
1649 0.9063369770894522
1842 0.20948977584949968
24,@@ 0.4259181544087382
252 0.9878074129325995
290 0.7404139749536641
37,@@ 0.7297915177713122
56@@ 0.44827228683889475
660 1
Access 0.4861906293040499
Classic 0.22980858660954995
Congress 0.0765603711547014
ESPN 0.4962239482204677
Heroes 0.59431207852952
JT@@ 0.9888453726729883
Washington 0.0341698694626065
alist 0.055681542814257357
anna 0.15480839540328975
asc@@ 0.0875173549976089
ave 0.12120680499297092
dom@@ 0.10213689766631157
osus 0.5477539372874661
phon@@ 0.15776104766068258
tal@@ 0.05328965058030814
tem@@ 0.09714596004849146
two 0.005129035795104287
white 0.046705247863432185
wrest@@ 0.28293458834633006
xi 0.2493250748772171
การี 1
บัติ@@ 1
ត@@ 1
ャ@@ 1
1603 0.8055954594047308
1707 0.7726207007017895
2024 0.8480372021193576
249 1
27,@@ 0.4554141647946453
3,5@@ 1
3.8 1
307 1
4.6 1
58@@ 0.4646797572604012
AV 0.43043814767398403
Actor 0.4529754675548406
BL@@ 0.7176974875936981
Deep 0.34440100095788073
Don@@ 0.07694509272896136
Equ@@ 0.2898335317979063
Eric 0.13741734627249463
Forest 0.12343095290582226
Korean 0.12516409246948534
Number 0.45808334058723754
Ry@@ 0.14269947338505992
Sex@@ 0.23707757130202886
Van 0.0783804012223688
Virgin 0.25284230537247054
agon 0.3103243367528361
angle 0.12618522861983492
aro 0.10376414692740049
aus@@ 0.01303192859689646
ellidae 1
enz@@ 0.049385369898639946
illy 0.11297933803909568
les@@ 0.06910621229915417
link 0.18782505246866876
ll 0.27887467937661764
phase 0.0780957172682311
py@@ 0.2391100508587145
sk 0.11128565720410973
ǎ 1
道@@ 0.22267016641214887
1783 0.38201628417079175
1836 0.20706486517130052
1846 0.18968019255216903
1855 0.16886236216168157
5.1 0.8873295324443612
720 1
Albert 0.07255423310528084
Fair@@ 0.13933779353475895
Gang@@ 0.27797335617151386
INE 0.6795315635551367
Player 0.19511340915050446
Pon@@ 0.10514171737166399
Prun@@ 1
Rid@@ 0.1687785692036312
See 0.09627223412077549
She 0.010310101868197575
Silver 0.19762065245129481
Sir@@ 0.18425811618953253
Sn@@ 0.22805202897278784
Zero 0.4396693363643542
gia 0.042093684855054006
his 0.0018174370719556592
level 0.033570859495883135
oxy@@ 0.2153800649768645
ron@@ 0.17040490912398015
size 0.05644032279630473
197 0.8341833116978062
28,@@ 0.48497450846689694
Crazy 0.6630820871638613
Dre@@ 0.09573765034734577
Han 0.20215739778487518
Long@@ 0.1386537599146212
SL 0.37601726227180066
Security 0.15515722714131708
ag 0.11466302615430765
bin 0.10930569242624559
ble@@ 0.14942295420065801
fied 0.08016353392027341
min 0.13034768345163783
pot@@ 0.06743087967570507
ste@@ 0.034634699800506055
tica 0.07507081063601291
wn 0.10384214457670664
wor@@ 0.046529885491323496
วัค@@ 1
แลก@@ 1
劉@@ 0.2752878604688446
왕@@ 1
188 0.7162622695153451
198 0.8145119174518619
333 0.9343520680939081
440 0.7351388356503171
53@@ 0.4612404427511552
59@@ 0.4740584152203034
Andrew 0.09644158562252506
Bowl 0.14630048931200532
DD 0.5744952086871965
DI@@ 0.48035368090284875
Den@@ 0.09779735503562562
Drama 0.2792004923469663
Ker@@ 0.09073568835085932
Ki@@ 0.08759054698872178
Mit@@ 0.06614525653322033
Nine 0.36590427118568863
Run 0.2763045002091164
Sac@@ 0.17389588228542974
Sap@@ 0.2692287792257419
UI 0.739028744973961
XIII 0.1834594737171964
centr@@ 0.08115506057082077
football 0.020046656352637186
land@@ 0.04299873702672544
root 0.3555668593554333
verte@@ 0.742301921669793
ying 0.04221727166491679
ylo@@ 0.4440993721315471
မ@@ 1
バ@@ 1
275 0.7093031493014329
285 0.9215309472044926
911 0.8934857876941519
AJ 1
Adam 0.10634163283478376
Bak@@ 0.10771754393476818
Bon@@ 0.08459126649423374
Cat 0.4341142567678118
Count 0.26566657937426813
Edge 0.4251378104354464
Eth@@ 0.14207667767541154
IL 0.2961189937590016
Ji 0.6367913763592271
Mini 0.5392044953474173
Monster 0.5417063667509124
RPG 0.9608261834747391
Rat@@ 0.1700124029417266
UL@@ 0.6562587173412487
Up@@ 0.20536607044642768
Vit@@ 0.143741019376899
Wa@@ 0.12547323512185363
Wonder 0.5348419760558879
arr@@ 0.04070175177827776
ecus 1
eki 0.4818974230046859
ela 0.05499040463257584
oi 0.16297313806837713
oker 0.21870258139693846
oton@@ 1
school 0.014010683043939522
tric@@ 0.1656574874308224
กองทัพ@@ 1
ราชภั@@ 1
1804 0.2875783971839564
234 0.9062961177569121
3,9@@ 1
5.0 1
5.7 1
6.3 1
Administration 0.12124501872108177
Advanced 0.3374572496637526
But@@ 0.13698535600795583
Earl 0.12892419595296728
Ghost 0.46247583585592983
IW@@ 0.7225584180402874
PN 0.7558517227278058
SH 0.436402497682234
Sig@@ 0.0983427606550582
Tiger 0.3345968630074781
aling 0.09170074695855028
cm 0.05593378273833584
def 1
gi 0.17169636798616186
ider 0.10096482674075694
oil 0.09178527082245183
orn 0.1453352056117793
ort 0.08790813824369234
pas@@ 0.03881351922787844
primary 0.06126519053932732
vesti@@ 0.33464771788828646
ò 0.34397091849947725
1701 0.7435180429165553
1796 0.31399921436303263
1802 0.2729014831107052
1810 0.2229711233337676
218 0.7645293784215049
AU 0.4005026123372831
Away 0.5475427407163397
Din@@ 0.14731361582221683
Dur@@ 0.09104421973462778
EV@@ 0.738188064452471
Fi 0.560349937016286
HBO 0.49411588466955497
HS 0.3789941958777485
Hum@@ 0.1113410366844513
Si 0.08308634548380431
Slam 0.39319265101898443
Ten@@ 0.14205439120927688
UC@@ 0.34668763289275256
UR 0.5842874098173501
VC 0.3769531170682799
WW@@ 0.4240224811743374
Western 0.04162467390299067
asa 0.11744221594816828
ater 0.11310761279700751
ector 0.21393683351576262
eti@@ 0.08109093858184277
flow 0.14354105756208227
han 0.03516777726191578
illus 0.6377110041265689
itis 0.34950302601993133
matrix 0.39232207905514604
nh@@ 0.05251345067595715
out@@ 0.03252251357858525
part 0.008287090724082626
san@@ 0.06096915252382759
trace 0.42536133543700416
vers 0.02150526229446482
visual 0.17136680917351327
yth@@ 0.36503188116908813
ฝ 1
ลี้@@ 1
日@@ 0.06029719821720425
1794 0.2799386350946981
264 0.839370526478689
286 0.987324918506317
30,@@ 0.5708053384346568
34,@@ 0.603954115398298
AE 0.3472454142806794
Beh@@ 0.12651924299873218
Camb@@ 0.230612208064036
HD@@ 0.6435155589038172
Hat@@ 0.16816334393339413
Hollywood 0.11338325286959679
Khan 0.11516256918041799
Lat@@ 0.10937453263960595
Ocean 0.1577406138487951
Pep@@ 0.22771751666769782
Rab@@ 0.12464657141992255
Roc@@ 0.12474933034112612
Shu@@ 0.2495098225064024
Wang 0.22428992742656026
Whe@@ 0.21676328607045095
alia 0.15312640484933512
burg@@ 0.33017711073541367
but@@ 0.08874523078645385
ean 0.12896415216260507
fus@@ 0.12162925624357997
ign@@ 0.0513888146428482
off@@ 0.041604291982362
species 0.019838995390768745
อีย@@ 1
「@@ 1
245 0.8290546128431184
CEO 0.16455040464032233
CG 0.47932796759464436
Cir@@ 0.1775763941032976
Collection 0.2569504090286382
DJ 0.16210092242680588
Ear@@ 0.1662705913408503
Gir@@ 0.11724435423105177
Wu 0.30798917548974797
aer@@ 0.14813739075278837
age@@ 0.16900927500615184
any@@ 0.09093713215998135
bil@@ 0.056063989541982176
cycle 0.10581392464704227
eu@@ 0.09423485671210859
iPhone 0.6907162669199967
nig@@ 0.2813074541617801
ods 0.07671191092875924
pith@@ 0.3242479687059409
sac@@ 0.08094615352408491
ump@@ 0.09270212435066776
wal@@ 0.060717670206153554
สวี@@ 1
グ@@ 1
1843 0.20259919183077144
228 0.8597011587882077
244 0.956925699991135
253 0.9449782399145645
Amp@@ 0.3651403098351738
Drive 0.23876198257311285
Fol@@ 0.09401306335706028
Hit@@ 0.23530479813982574
Kin@@ 0.09867086838583168
Ok@@ 0.1373718242237856
Six@@ 0.25474905337337705
Software 0.21945431968244902
Theory 0.4699825770155703
Voc@@ 0.33901700518140443
ape@@ 0.37593643304043767
ards 0.051177128949689475
bra 0.15286523204801053
dian 0.32182665918076037
flu@@ 0.0781400381778574
mol 0.5068585333866409
posterior 0.2390172731353429
wel@@ 0.07113754620909062
ˈ 1
ເ@@ 1
07.@@ 1
1650 0.5611140504541048
1798 0.27603466194962606
1817 0.25389296202055783
232 0.7488716136978353
247 1
640 0.8745189092939697
Amar@@ 0.293587914176162
Ass@@ 0.19999743657114488
CBS 0.17045449294869106
Dynam@@ 0.35779874125210825
Hab@@ 0.11282279719987849
ICE 0.756173913403308
Jan 0.11704967166117718
Jur@@ 0.11814353962840793
Key 0.27827341201590944
Library 0.10050501023312201
McMahon 0.7883608350830092
Mike 0.08607556575585511
Off 0.32273313292740075
Popular 0.20292477834397404
Wonder@@ 0.5548794498935037
aea 0.3835911583555589
amo@@ 0.15570954974769338
bon 0.10960691932258904
dro@@ 0.07194079143554832
extr@@ 0.06923934642379892
gran@@ 0.11925804558169224
ho 0.17129784213618748
immun@@ 0.3016183197466901
ize 0.11075682470586772
peri@@ 0.1772685544518762
reg@@ 0.031283523975550516
sy 0.2045019026557465
tha 0.14303525869445874
who 0.00421049232896571
โยธ@@ 1
ガ@@ 1
226 0.8648850252149963
241 0.8778404517857168
258 1
36.@@ 0.6372499886161934
4.8 1
Federal 0.07645404068039426
Fur@@ 0.18613926033370778
Hunter 0.21249773975454558
II@@ 0.22667680959278866
Kon@@ 0.03778678374383989
Mars 0.20414872210022983
Orchestra 0.1524530344377137
PV 0.8863907123322599
Rot@@ 0.09225901156525733
Sha@@ 0.22754879020334445
Speed 0.4409241477254929
Swe@@ 0.27277785456537995
Tam@@ 0.10259941386315692
Tony 0.1027196756071317
Warner 0.16613602076477507
aim@@ 0.15826420459232135
ert 0.023935573263720984
ground 0.051177514246622195
ized 0.051283862535506396
ous@@ 0.15717739485058052
oxide 0.3183731168422405
rit@@ 0.06848164185499483
show 0.021039656122710186
tre 0.061584149391459723
uv@@ 0.10279051676272284
ณะ@@ 1
ยาย@@ 1
た@@ 1
タ@@ 1
光@@ 0.13215995351334184
地@@ 0.06487512136741248
4.4 1
68@@ 0.37472798412522523
76@@ 0.4740639583101236
88@@ 0.4976811043901785
Africa 0.04681951217634958
BN 0.6169028983173093
Ball@@ 0.1069837188058796
Box@@ 0.2110911626976449
Capital 0.17318768234346307
Civil 0.0700438285485215
Cul@@ 0.12188009809838259
Culture 0.1325891776542709
EM 0.29955646032238364
Fall 0.11219900732643626
Front 0.12564301230522124
HV@@ 1
Ice 0.22599927602671616
Let@@ 0.16717396422036038
MR@@ 0.6385051960417545
Mission 0.14475533814057148
Nic@@ 0.14859790356973893
Post 0.07589996862470767
Rights 0.16982847900651216
WA 0.3241958853873084
WS 0.6328893626410166
ait 0.01619578779668906
bert 0.0721565993536684
bi 0.11047707243202703
da@@ 0.13755542089422534
enn@@ 0.04091639126111289
ille 0.04406025434508328
lers 0.04903128343016065
macro@@ 0.459372660120638
mis@@ 0.033464818958069915
nu@@ 0.09677830712026139
sal 0.12435766392343048
sion@@ 0.0967798032370164
upper 0.09905952137669727
≤ 1
대@@ 1
1100 0.4718198625263071
1776 0.3515283177543848
1807 0.2577585802942207
1834 0.19857313380816238
3,7@@ 1
32,@@ 0.6937122118722606
325 0.7685658311701419
Bit@@ 0.20311887513913907
Carl 0.07374980709070908
Choice 0.42220356673892373
Electronic 0.436301075020229
He 0.0027372146931267305
Hil@@ 0.08122895510217934
IE@@ 0.292623751662933
Jan@@ 0.0956323874897425
Jim 0.09999146758943755
Law@@ 0.13531768575580738
MB@@ 0.690703562697443
Plus 0.14137412754847437
SQL 0.8637636756392045
Viol@@ 0.17361711851969214
Wind 0.27178607909928704
ading 0.10093611702349864
ava 0.10579660695931752
ele 0.055113195413291564
has 0.003274760121395275
max 0.463752458022572
opus 0.314212408068817
revision 0.770823232982622
tam@@ 0.11785126535124264
trol@@ 0.16632398763613815
ǐ 1
ฃ 1
ฦ@@ 1
สุล@@ 1
ົ@@ 1
女@@ 0.16796421337620154
1066 1
2.9 0.8873477431550343
224 0.7706995282637346
520 0.8628280519700183
At 0.015946497882946883
Cyc@@ 0.45687662346529095
DL@@ 0.6805046453175406
Democratic 0.07149631088001328
FDA 0.6680602885943503
Fly 0.6154562405661953
Fres@@ 0.16956902557865278
Hand@@ 0.0688155319239285
Has@@ 0.14038631913214206
Jac@@ 0.13566741662927823
Lic@@ 0.19582431841484024
ML@@ 0.3195537916470288
Om@@ 0.16138947934664194
PE 0.5360834112118112
Supreme 0.10104641017943607
Under 0.07778570454591835
WG 0.8613003534342407
Where 0.34127625192293315
XML 0.8839954179812384
aba 0.01936609501726602
ado 0.006337305091416057
agne@@ 0.5078777972197069
che 0.023883063177132586
ern@@ 0.038757161516732724
ez 0.05402636309419694
fol@@ 0.08348867795224098
gy 0.15158908822487288
ix 0.11681988526959987
mission 0.04595663245441853
oke 0.11713597481405282
omat@@ 0.9367197823758829
pap@@ 0.1058258042627818
sim@@ 0.08891403648583779
tism 0.5401247132248035
town 0.01709197577972166
trial 0.08326041783019172
ไหม@@ 1
戦@@ 1
237 0.9459554480228233
242 0.812285553041968
ACT 0.7846532460386147
Australian 0.0345373163596138
Born 0.09781378744517809
CI 0.32348986275133945
Da 0.062060148031563976
Executive 0.1527106851316419
Eyes 0.5250492873277718
Hyper@@ 0.39102154469298933
Ox@@ 0.2021713563088182
Prom@@ 0.17374618735773234
Shanghai 0.22319883101771523
Thi@@ 0.1288160162407707
ains 0.029872780166950823
also 0.0029049606704115182
amen 0.14521755185050428
dol@@ 0.13304611113876402
oral 0.13903093666067015
orr@@ 0.17178807576934
tag@@ 0.15281249310346276
เฉลิ@@ 1
宋@@ 0.29040980567794417
1809 0.24357519094820604
35,@@ 0.6006096924034732
5.2 0.9958644694464376
787 1
85@@ 0.5793745671106604
AZ@@ 1
Bil@@ 0.07744580777392816
Columbia 0.06693726161662177
DM 0.28530703225584564
HF 0.2716021044099563
Imag@@ 0.26981731590528946
Ken@@ 0.11922436033454058
LAN 1
Lion 0.3489317756803158
Record 0.2975489446342966
Sat@@ 0.10634750484944389
Scar@@ 0.1877157094958584
Scre@@ 0.4835951541870945
Tru@@ 0.3122762074996426
acle 0.2072448333611246
agent 0.08860245860520906
anger 0.09699185508083345
atin 0.2336956154693217
box@@ 0.1277224467709578
brain 0.1997898194747447
cal 0.11769002765660665
inidae 1
mic@@ 0.23199072181260597
nia 0.14883777542295382
ski 0.052965190259357066
sp 1
stri@@ 0.13281343897221118
สิงค@@ 1
@@ 1
3.9 1
311 0.9545810957119544
625 1
About 0.13531119376120074
Authority 0.1913840468123767
Beach 0.09310871557863197
Bub@@ 0.44431923923053657
Deb@@ 0.10016479499084459
ET@@ 0.3378383744163425
Eng@@ 0.09823894750316328
Every@@ 0.4555035020439289
Evil 0.5232781109390318
Forever 0.5505014099702785
Fro@@ 0.1829255658530634
ID@@ 0.5296844693037768
Lac@@ 0.1482865749049121
Memorial 0.10925684435872306
Nik@@ 0.13239876645817356
PO 0.5176776192636062
Picture 0.43643007109402593
Ret@@ 0.15113114510295902
Sand@@ 0.07035977329665874
Show@@ 0.39360304358827886
Tit@@ 0.09984992118390332
Winter 0.09486632440467106
city 0.0137094926936911
etal 0.3899280881142004
graphy 0.15118686959144526
hip 0.07514226510296144
ight@@ 0.1316481035941445
ists 0.032297798802644356
mph 0.38727477587592707
ped@@ 0.09960186328003631
pi 0.2635962642299681
porting 0.18937914187447846
sexual 0.08388273584814995
tiv@@ 0.08262159838139957
year 0.007595829021670606
ังก@@ 1
る@@ 1
小@@ 0.05756029169710098
1640 0.5531625103089122
1838 0.18271743251342978
294 1
4.7 1
54@@ 0.42323905774806503
6.2 1
Australia 0.025621248900651487
Bol@@ 0.06845464099723672
Community 0.10234680258686922
Diamond 0.3054575091067377
Down@@ 0.2524185823396111
Fac@@ 0.1262440181140878
Higher 0.32668238367606334
IO@@ 0.6585587900140847
Perfect 0.6775863709282298
Simon 0.08298566432063544
Son@@ 0.10897304484980598
Valley 0.05831188248617519
ands 0.05229171186613488
bo 0.1082419962463263
dom 0.17096328139066624
epo@@ 0.6103107501440257
nm 0.6039660068003069
ry@@ 0.1792022281323628
scale 0.09396668986101002
sing@@ 0.09585380568293198
stream 0.11326202413819472
tos 0.05705299150112613
zh 0.17604459612046763
มารี 1
รวด@@ 1
້@@ 1
う@@ 1
学@@ 0.17416489082609202
0.0@@ 1
0.9 0.8088340500450979
1818 0.21607250859001628
Architecture 0.21528611360066782
Clar@@ 0.14346431996434333
Fair 0.24881269535331943
Florida 0.05168509533556466
HT 1
IBM 0.24791242170393607
IF 0.3008122837962037
Link 0.3647800332591154
Mut@@ 0.14997269480329467
Neg@@ 0.16651483558523295
Power@@ 0.3546468495541278
Report 0.2722043633210536
TH 1
There 0.01577466432760492
Tomorrow 0.7761806874858701
Vel@@ 0.10716397873117815
amm@@ 0.06586528047771724
arc@@ 0.09785937497512655
ation@@ 0.12821382476438825
base 0.02507140897497983
bel@@ 0.03120632337717805
cc 0.41172638820420515
dynasty 0.18258142537594346
ging 0.032721802940658073
hist@@ 0.27621241549005315
irus 0.530406762650251
layer 0.2748434813138205
med@@ 0.08454738178677343
metabol@@ 0.36005070420170526
mo 0.08065218247589839
oly@@ 0.7631953835364461
ses 0.007827379105981856
tain@@ 0.1171882655879908
wo@@ 0.05887757565639726
มัธ@@ 1
----@@ 1
1819 0.24139831594658714
213 0.7163825455935763
262 0.7962867526020906
74@@ 0.5354450566696951
802.@@ 1
Assembly 0.06460756302731532
Beat 0.43989344413213854
Case 0.3831218782249407
Cour@@ 0.08048082517381415
Dreams 0.5967020626782247
FE 0.819576063361876
Giovanni 0.15898829340849605
Gy@@ 0.2430990085993397
Hun@@ 0.13668619255210762
Kom@@ 0.047420116657746154
MA@@ 0.8397965751613553
MAX 1
Masters 0.1808942696309345
Planet 0.3594203102917814
Say 0.5387068672515445
They 0.013916759508005605
Yu 0.3671974383412875
algorith@@ 0.2073834478299516
bs 0.0511715209682618
ces 0.02035125907241295
een 0.1257911995347053
entia 0.6876074408043684
fu@@ 0.07996045688447632
ges 0.03906164968803885
iting 0.11043298086339974
je@@ 0.05639153525526955
lic@@ 0.10563114342612877
nar 0.366120276963055
ox 0.45102099627111086
prim@@ 0.07390830613597447
ree 0.10028457506556988
river 0.04765291944224981
xin 0.3939366321746553
ć 0.1096355885972239
€ 0.16731258064752044
河@@ 0.17962394211048374
白@@ 0.10941269107501991
1797 0.2800297746453174
219 0.7680820197642043
272 0.9225999475004207
38.@@ 0.5578662214521406
6.6 1
AAA 0.5272875870859659
ACC 0.5930350180806443
AFC 0.2790535462399526
Alan 0.12094157678915311
Anne 0.07838599660862806
Contest 0.36585226339230886
Flash 0.40768299901929667
Fle@@ 0.13145942404398758
Ing@@ 0.09093211851373595
Mill@@ 0.12407604811591977
PRO@@ 0.932509774329234
Pav@@ 0.13772517724284508
RF 0.7093806824270481
Rod@@ 0.14939988019814004
Store 0.3410412063834689
View 0.3894493138800401
Walter 0.06751340748960397
adi 0.11993577378619853
alus 0.4591515697151153
ano@@ 0.23348616357390523
ary@@ 0.7250313863645901
bat@@ 0.04722025243683589
central 0.030558109093018863
ematic 0.42181477451770544
ending 0.047499688073731686
esh@@ 0.09427570237618833
ges@@ 0.029646360656640097
iens 0.27394121518089415
olog@@ 0.09792564076288017
ols 0.05647468164569922
ope 0.15552079611264266
pat@@ 0.04700997418372074
pid 0.5001879040050149
position 0.02199743016250686
stein 0.03983803528799259
study 0.04157318980190963
usion 0.23698688640993787
val 0.12680436152588367
wikitext 1
ปรัช@@ 1
เวณ 1
ニ@@ 1
276 0.9692008504111422
390 0.8118131460394928
4000 0.3176867521352058
5.6 0.9806820598276773
540 0.8032205367225157
64@@ 0.4203842164716388
Alone 0.9221432383701812
Chemistry 0.5140277356369493
DA@@ 0.6096608027321956
Era 0.22570309528613353
Ford 0.08481125044870647
Galaxy 0.3835381623856116
Gas@@ 0.09586435281151841
Heter@@ 0.5914059878841847
Him@@ 0.28361429337343397
Official 0.4018154570724503
ROM 0.6166793877299679
SK@@ 0.6155385670617849
Services 0.11202298177776727
Set 0.38984664011400366
Tales 0.38572707288968505
Unit 0.23640078674053439
XX@@ 0.30888464842523805
amid 0.34604347163079424
arium 0.21889294040711138
ca@@ 0.12721157539860534
eal 0.27261684941055525
erg@@ 0.08571542872909257
find 0.0617987741147088
imi 0.1718702054389561
mental 0.09176194522308986
mid@@ 0.09632278878754146
nd@@ 0.09915569833828884
ogen 0.11310088626970657
omb@@ 0.12723964069641872
platform 0.09840285265051305
server 0.23052352352296568
tin@@ 0.09361533573676138
α@@ 0.14814519471830012
ฃ@@ 1
ศิลปา@@ 1
家@@ 0.11154920172743966
1833 0.18983966441708314
229 0.8261952394189889
268 0.931437897380489
278 0.9674200178240732
3,6@@ 1
39,@@ 0.6947026183961635
AX 0.5676094155269825
Alice 0.13781647082120047
Bob 0.08247374604468558
Bun@@ 0.1575855641443037
Ca 0.7109703148232952
Cold 0.28700504862065357
Devil 0.380310640625559
Docum@@ 0.3240021107952869
King@@ 0.19991716009249205
Main 0.07909030524473347
Nation 0.1781005809511874
Neo@@ 1
Oxford 0.08185353912983287
Philip 0.11716452036756868
Russian 0.04019130434673598
Sab@@ 0.07761596161372063
TG@@ 0.6632241158343888
Vari@@ 0.12998531310709524
Williams 0.05907430396217596
af 0.142248302204558
agus 0.5110767691361974
aqu@@ 0.06968360491382707
cs 0.1059462789491799
fil@@ 0.051394931169163764
ign 0.20012473174894965
most 0.008093322983418012
oria 0.12801328136515674
round 0.027353253036498236
ures 0.045900963695284396
wa@@ 0.10017923658609443
ways 0.05385557055687002
wi@@ 0.08690601682999795
สโม@@ 1
อัลบ@@ 1
เติบ@@ 1
ប@@ 1
生@@ 0.08913820893163
馬@@ 0.15852632131720867
1642 0.6571763633423456
269 0.9679782532058296
Ball 0.19209987609227736
Beg@@ 0.10826315812287197
Canada 0.023273879484791763
Dun@@ 0.08989919190246558
Emer@@ 0.142179797433144
Europe 0.022676150521652522
Facebook 0.20497553189872264
Gil@@ 0.09227318808807802
Mont@@ 0.046293455022643176
Mother 0.2675815018341812
Motion 0.4534075378738728
Net 0.48861973654857693
PN@@ 0.28903786550483057
Singh 0.16301375442677424
Talk 0.4391470828532051
Test 0.14903131046044904
Wave 0.4848722680781553
aging 0.08143818265241502
andra 0.2069863188648429
asure 0.2112623750676806
cells 0.10386862475156183
chen 0.02874102592236294
date 0.03413563989348319
ido 0.022727577579507476
mRNA 1
nal 0.3090894373161742
pot 0.12596221025222365
range 0.041883995336800726
tal 0.061787791448788945
tas@@ 0.103151672432329
unt 0.1072499491106227
に@@ 1
1644 0.6500049392770656
Ari@@ 0.1081860764369275
Butter@@ 0.41941853725811606
Cich@@ 1
Clin@@ 0.22217061062835194
Concep@@ 0.3038120040564061
Morning 0.26891035706453736
Nav@@ 0.13603595749989894
Nu@@ 0.10851196957466787
Pseudo@@ 0.7713102486658725
Space@@ 0.7599066082979479
Sph@@ 0.33064365632592574
Sunday 0.11340096799533156
Tesla 0.9030225563817009
UM@@ 0.5023399316176989
Ye@@ 0.19675693967332666
aen@@ 0.5678757740792257
bro@@ 0.06753406283335327
ceph@@ 0.4442416955674715
col 0.3362157094868568
ebr@@ 0.13513741857852823
ils 0.016950689001189442
je 0.037372538994289384
onidae 0.6576884525841679
temporal 0.4492851878871619
yan 0.09103909247317447
อังก@@ 1
1609 0.7345016166149501
386 1
401 0.8151534770539868
639 1
Auto 0.23818929372132117
Band@@ 0.11449647671177417
Dog@@ 0.2193861924590617
Dou@@ 0.11274142179317861
Gun@@ 0.11682988855521574
Gund@@ 0.7134898714660659
Johann 0.051662172384859734
Orange 0.15432809641306547
Pel@@ 0.10697963099284737
Pharm@@ 0.3507250614869397
Province 0.06087622778561442
Sax@@ 0.2102602833510334
Sister 0.5327460796252983
Sl@@ 0.14662320154081537
Spar@@ 0.1430093819392959
Systems 0.15991508157752596
Texas 0.03637422488372393
XP 0.7547376486882584
achi 0.18687399386735623
ais 0.046727904455076755
ators 0.040751908948506624
ekwondo 0.6530402235181808
ie@@ 0.040306146701962475
ilis 0.56802224003558
net@@ 0.10612696816064328
sort 0.08877780523618302
teri@@ 0.1446571237597861
tern 0.0623592075335918
trum 0.171980386962587
unit 0.0593188228974109
win@@ 0.17190961750927647
ws 0.05984609754646481
ze@@ 0.04432790847106921
་@@ 1
東@@ 0.08880564103717752
1772 0.3775161136490207
2030 0.7381568969660167
34.@@ 0.5578378786205748
98@@ 0.588814549188506
AH 0.56165907471001
Brian 0.0993215625790721
Fight 0.4595279098333514
Flu@@ 0.16526901078782527
Fu 0.5463013541171411
Greatest 0.4221318292925753
HP 0.2794601456818041
Mun@@ 0.0909912015543026
NBC 0.15243163766829088
Pearl 0.25602888275221414
Police 0.08763228337181676
SUV 1
Stand@@ 0.11893155004648387
Stu@@ 0.09205371379254404
Trich@@ 0.4189922705318362
WT@@ 0.4608833362307228
Walk 0.4134386174614583
Wilson 0.07423553502123824
Wol@@ 0.07795709523733166
aun@@ 0.07176925206962312
cat 0.24254637711604674
dan 0.05286517307302055
duction 0.30719572027085623
eye 0.10789512243090577
loop 0.30734963451026154
mir@@ 0.07863365706124181
olin 0.4272938562025562
ons@@ 0.05235962928906948
ont@@ 0.0971884851696318
osper@@ 0.6606870818191186
otype 0.4327306193108683
sar@@ 0.0893232544377699
service 0.01577413649981522
ß 0.08744952140003318
จำนว@@ 1
フ@@ 1
的@@ 0.22742927600202517
1620 0.5554387922931763
1788 0.31234910716115616
257 0.8771445243475601
33.@@ 0.5020609459746211
6.0 1
9.5 1
ABS 0.8340471840170844
Acc@@ 0.18288747720035028
Antonio 0.0527419677686606
CL 0.39146433818182386
Centr@@ 0.17414473401909866
Electric 0.1887288749613714
Eye 0.3729807459359291
Foreign 0.12413699126263113
Lanc@@ 0.32798934259076945
Ma 0.18107778875732466
Mari@@ 0.06075873125179146
Military 0.09608955521978257
NH 0.4581835155652386
Style 0.3272765497376234
Sym@@ 0.21733218536774268
Symphony 0.22143074595837423
Teen 0.6206474073139836
Trade 0.1710008295254887
Whit@@ 0.08596339723407054
Zhang 0.2756487427143617
ateral 0.425134874223414
avi@@ 0.09830212851914098
chain 0.1438728285577576
culture 0.03919822198707689
enter@@ 0.10011028144906468
fre@@ 0.03694906918436905
hex@@ 0.3196417538777941
horn 0.189899151187416
induc@@ 0.1712702429899234
itor 0.11084022167284674
itus 0.25016966590932316
long 0.013648587012871454
mos@@ 0.08265423258478345
ock@@ 0.13277641495971979
onn@@ 0.04128782366122422
pri@@ 0.06119339199332045
site 0.018971588792224357
π@@ 0.13946729847523928
ภอ 1
ນ@@ 1
05.@@ 1
1526 0.8183007597543636
1688 0.604227056056645
37.@@ 0.564708769116052
620 0.9818324965691088
66@@ 0.41595072116081094
7.2 1
ACE 0.7409584040793018
Ach@@ 0.08787605842462168
Bar 0.16090328990837596
Beyond 0.390348686275454
Cass@@ 0.15289253069370734
Cou@@ 0.12902740297886156
Dat@@ 0.22770157899155924
Giant 0.5534311163595752
Hur@@ 0.09931317075098137
Jud@@ 0.1163765716105924
MT@@ 0.37099461315841437
Mach@@ 0.11750471913691421
Ngu@@ 1
Note 0.1687308190519147
PI 0.38780815341527186
Person@@ 0.10567379172615238
Phoenix 0.1809535552544829
Ras@@ 0.14071313106083694
Rh@@ 0.13995406391717352
SV@@ 0.4482255263737736
Server 0.440303175075301
TER 0.7157566244184007
Vision 0.31987023504388934
Ware 0.5527165506831909
agon@@ 0.15467339358331267
alli@@ 0.07482796424503659
ander@@ 0.10734814269414322
archy 0.2342361916736071
asy@@ 0.2869313813549644
ball 0.05147214961367252
bus@@ 0.06059669433130932
folia 0.3418586248141601
gate 0.136215580200777
hu 0.2967618499162089
human 0.041184261529433046
ige 0.019915037343792994
ime 0.10763225462769704
istics 0.24137522892818236
quest 0.32659413755133704
ras@@ 0.07051424114142725
roc@@ 0.10564839811627358
sle@@ 0.10981274253822211
tain 0.0877357668891855
thal@@ 0.46065190731903244
vector 0.32036159684812004
very 0.0187805306889777
web 0.08866638397473602
ราชิ@@ 1
หรับ 1
เงื่อน@@ 1
と@@ 1
德@@ 0.04836230791437964
1453 1
1829 0.19224214027375428
261 0.8593655156834114
3,8@@ 1
33,@@ 0.4815414643506527
5,0@@ 1
6.7 0.9945162251773043
63@@ 0.4565805284861134
Anime 0.5292070973332593
BE@@ 0.7867206294925935
Break@@ 0.4434420626595254
Broad@@ 0.2439777044510769
CF@@ 0.2344224048177564
Cab@@ 0.11290903025786797
Chamber 0.2350308236395863
Comics 0.16309285243614288
Lucky 0.5161917243947145
Med@@ 0.10003797540913392
Other 0.03721130569344183
Review 0.14930363440538105
Rol@@ 0.1424856709008711
Tai@@ 0.17113226293036224
Together 0.2179142757560328
UT 0.5020437592323713
Want 0.5561577123718645
Wood@@ 0.08018464856447581
agr@@ 0.09430190531661166
ening 0.09612393615443732
equ@@ 0.04676111936246417
ju@@ 0.05902601379670706
kan@@ 0.0639046570395055
mode 0.10163827519293883
pic@@ 0.06868142763629981
than 0.008229259156533327
thor@@ 0.11572677065658966
uchi 0.28858864878119683
uli 0.24194889042168877
vacc@@ 0.204513226558658
yd@@ 0.1113106578023489
zy@@ 0.09451201680244471
ο@@ 0.12835941787314456
นั่น@@ 1
ຈ@@ 1
り@@ 1
仁@@ 0.36684385474906117
233 0.7579364631829206
266 0.8504386130026892
279 0.943090472523797
35.@@ 0.5440721223706525
BMW 0.27888102031099726
Card 0.44253912862816575
Cros@@ 0.2593449028496582
Dog 0.32146928771366895
Eu@@ 0.19966542258020378
Fat@@ 0.2684331767822532
Franz 0.07504011141061898
Infin@@ 0.44666043438181346
Learning 0.4204395491139206
Lif@@ 0.2612710358780694
Macro@@ 1
Phyl@@ 0.4064445133526022
SN 0.5230982953029772
Smart 0.48093098714777627
Summer@@ 0.5867248503798723
Third 0.13055115911122966
Warriors 0.32904604953212946
aca 0.0913911153898871
acea 0.6458766237540643
alt@@ 0.04188693541516652
anism 0.29803200567636084
cast 0.04482185507185956
ders 0.04386364914048327
dig@@ 0.07337767117308118
each 0.01451028374373617
esi@@ 0.14751576783713102
eur@@ 0.12274048317878991
fire 0.03914701212112942
force 0.03251506459184337
heart 0.09026408622288191
iness 0.2063014215506995
ion@@ 0.10142142291546859
meg@@ 0.2777075194691538
mes 0.03663371451814571
oning 0.14503879648183754
ophy@@ 0.4170471368338861
pil@@ 0.05680601077057592
po 0.09260728248652168
polis 0.16283057707285012
spin@@ 0.4057423761448696
uridae 1
urn@@ 0.10666691479456691
versary 0.4689973909728814
wing 0.038895324769533224
ı 0.07546773686240374
デ@@ 1
田@@ 0.14874953108121916
長@@ 1
19@@ 0.22975686549596716
318 0.9576563170554534
APG 1
Angels 0.3110669836971624
Another 0.06848010441523925
Buc@@ 0.10124938621270184
Cher@@ 0.11747108631556985
Chron@@ 0.1950658956915513
Danger@@ 0.8798084696528917
Engine 0.443454832316217
Gallery 0.12786653085444938
Hang@@ 0.3131663333803166
Miss@@ 0.17595386723645606
NBA 0.08377730829392747
NFL 0.09475006333319715
PH@@ 0.6962053558037335
Pass@@ 0.09236086251368633
Pink 0.32807437802880424
Shir@@ 0.2611200918628875
Son 0.032051910911153315
ams 0.048875077842870776
amus 0.46599585718892855
blood 0.10421140370199525
cav@@ 0.17005035224454607
dra@@ 0.07151281862874213
hur@@ 0.07828654779417903
ka@@ 0.27712626233330867
kal@@ 0.06195737252568515
mus 0.15679262900650281
nh 1
oster@@ 0.6299357190456332
other 0.005168001285098625
park 0.040571353587463124
software 0.08505579770853472
ticul@@ 0.1856504050908961
xy 0.300156597050425
มัติ 1
キ@@ 1
1610 0.592645500991456
6.1 0.9753281172986568
77@@ 0.47305047231867736
79@@ 0.541822733442467
960 0.9187359923352486
Anni@@ 0.41562968318239457
Bet@@ 0.10597837566407062
CN 0.40171890779898034
Cent@@ 0.13942057493106128
Fan 0.5083497697893375
IUCN 0.4456931421120813
Integr@@ 0.30232350050576684
Lar@@ 0.07411641481822057
Magn@@ 0.25296486034863735
Major 0.06195961778384558
Mam@@ 0.15274815101121592
Mik@@ 0.11518207035794649
Off@@ 0.07405513930082727
Samuel 0.08710725678067978
Stap@@ 0.3756493925381392
Study 0.33441723559380493
TO 0.9376404774030394
Victor 0.09471699658741502
Victoria 0.05607034246131178
Work 0.19449926174682994
aze 0.2684202383812054
fier 0.11758839305386032
fos@@ 0.1304571772268514
ification 0.12157938681804371
kan 0.11868165885239257
local 0.013872370525111118
lot 0.051654623076723374
melan@@ 0.5503062489459017
path 0.15510288924181478
rati@@ 0.06770093072999919
ring 0.05119658732787692
tan 0.043899420856633196
vas@@ 0.11005815881052321
ตราย 1
ปุ่น 1
ງ@@ 1
ុ@@ 1
北@@ 0.04753989895225535
1368 1
1770 0.3181753140391944
1827 0.20694074253992545
283 0.9186293365521367
298 0.9806487101010968
39.@@ 0.5457661128164482
470 0.666048628479422
ART 0.6319478928713022
And@@ 0.2465362347893998
BW@@ 0.3894652907206292
Blues 0.15297215608674133
Chang@@ 0.2187138766918905
Charlotte 0.12252982186420017
Christ 0.1004443503466661
EG 0.4147216066809318
Fire@@ 0.4152428645167879
Fun@@ 0.15646505114611817
Hits 0.3104649033418796
IOC 0.8265952449156649
Kaz@@ 0.14908587137780133
Kid 0.34267410402623455
NI@@ 0.5898420389645116
Pa 0.525361742987575
Pil@@ 0.08044467302038506
Prix 0.059431207852951994
Race 0.18468079254669195
SF@@ 0.26506643352237563
Seg@@ 0.09000928448470397
Ten 0.15246746603307837
Tok@@ 0.29460766659850424
Too 0.45731258984923034
Yang 0.25392627433754317
address 0.14275751064862935
aft 0.0869479053433422
aster@@ 0.16106958990633866
between 0.006852986024334198
car 0.022600183501404202
card 0.09555323427244443
dynam@@ 0.1346653803021618
ef 0.09389549362186095
elia 0.1473723382567008
ference 0.1719308590761105
gold 0.052731893907692194
iOS 0.43656071962833914
ights 0.0955209045180507
ista 0.028201783318847207
plat@@ 0.08620884138966425
plate 0.1727053396331891
squ@@ 0.1196583980067257
tissue 0.33718983009209047
view 0.04456176528619739
vul@@ 0.16979323866310297
モ@@ 1
世@@ 0.13330350073178718
和@@ 0.11627757940182842
1787 0.29567835913212576
248 0.803369716373669
Anna 0.06646632691097545
Anthony 0.09730483211915651
Arm@@ 0.11723054645296604
Braun 0.4924185909217021
Camp@@ 0.08497781501371672
Dist@@ 0.1613295764259005
ED@@ 0.3263114200597793
Image 0.47971646444970434
Industrial 0.18816553312849477
Jar@@ 0.1063067044317704
Lag@@ 0.11500138221301469
Les@@ 0.08834039754076785
Level 0.3231778320674425
Mathemati@@ 0.16051128557831618
Mount 0.06977614885673625
Myr@@ 0.2702224343364231
SV 0.12788290635815805
Sam 0.09599479352776612
Step 0.6705781491282983
Sum@@ 0.08649616355989338
Touch 0.5694079914941697
Vic@@ 0.09509791219822243
abor@@ 0.0918197114625014
actor 0.04179621068692613
cryp@@ 0.27108931045877216
dit 0.041386138477342196
ease 0.293892909561398
general 0.016190787342163185
hat 0.013909427704211545
ision 0.07806008329065252
ji@@ 0.1487370635989393
las@@ 0.13025704527963888
lit@@ 0.0566680539803151
machine 0.09270917132988643
ole@@ 0.2823726701108494
thus 0.04822646751788151
ù 0.4690795086545741
ยึ@@ 1
င@@ 1
1550 0.5363697452205887
1823 0.20692607016403036
236 0.779281081795471
263 0.8159325061481827
321 0.784660417513614
Aff@@ 0.13595961890151276
Austria 0.08112651674411345
Building 0.10429972832444946
Celebr@@ 0.38892421674941974
Ceph@@ 0.7517064612729741
Chan 0.33974590200910654
Cli@@ 0.22346509821857158
Di 0.22868209084291855
Ec@@ 0.11165637731935371
Guy 0.13908693967633318
Hope 0.19657776375781474
Infer@@ 0.6888489519163474
Medal 0.1153725337613467
President 0.026888838719472168
Soci@@ 0.12707910016414242
Squ@@ 0.2351352757031488
aire 0.01585979667408466
bac@@ 0.1096453906576802
chlor@@ 0.2567392803528566
dea 0.2668411762862947
eller 0.0528914138153095
flo@@ 0.039006461093674116
graph 0.2968415026362574
idal 0.36022675302181145
ingi@@ 0.44308194504390364
ington 0.046133009536769555
sert 0.08641583565813549
start 0.04225206734214041
teen 0.06317979826690893
toc@@ 0.3075894189170896
uke 0.2792678674191316
vis@@ 0.04907240137493927
while 0.009158861638279973
zer 0.07566955808307388
不@@ 0.03023777983418717
1592 0.7686478903022335
1683 0.6172585096080137
254 0.6815446502481036
289 0.9634610500313637
510 0.9043133213004214
560 0.7628943050420306
Ax@@ 0.24431399739700405
BT@@ 0.35159074633562604
Body 0.3821719881246302
Day@@ 0.15983836175999822
Est@@ 0.04428899582856019
Forum 0.1948402314645495
Francisco 0.03356396111179578
Frederick 0.10778558708691355
Mitsubishi 0.5863535937528097
Northern 0.04885235485542783
One@@ 0.5864447805019646
Plant@@ 0.2736912561335988
Private 0.24147450131737314
RAM 0.3783946566814096
Six 0.13234201812024382
adap@@ 0.12077398593440061
alized 0.07659313786860213
atur@@ 0.12134723097640486
brach@@ 0.7087987500254231
comp@@ 0.03241496242371912
coun@@ 0.06900786520127837
count 0.12338101672153311
din@@ 0.062399976003355104
emic 0.5024632311555972
fir@@ 0.048721228562586295
green 0.07904430772729003
high 0.013629119470528894
ier@@ 0.03171261381763927
ino@@ 0.22880811539486423
intr@@ 0.12093860202760519
isa 0.07883980158940347
lim@@ 0.06842002077143364
main 0.016360046159801724
omer@@ 0.28955802505693723
oper@@ 0.04760700472881215
oration 0.130259727625377
ova 0.07294048394709345
prise 0.09972395458914979
vari@@ 0.03426767731221553
wil@@ 0.12606092631619834
zz@@ 0.12269954771902834
張@@ 0.15128878969831427
COM 0.48083135478890593
Care 0.3030365276296012
Chor@@ 0.1236910418275967
Coast 0.06915901213522337
Comic 0.34784378708884195
DOS 0.4185530159396885
Dal@@ 0.0916131872726412
Falcon 0.4761105598740169
Gos@@ 0.1805464282979896
KA 0.31516668510493095
Key@@ 0.1833951078535373
LM 0.4238985206132478
Oricon 0.6220768169016153
Plant 0.28620277796784227
Score 0.6740405421638063
Sens@@ 0.3755799731896948
Storm 0.20189327350375488
Sul@@ 0.10042739535254856
TM 0.6177798888947258
VA 0.1858829198253657
VB 0.5352852515431239
Wanna 1
ango 0.12288505799339985
aries 0.04397435146887063
born 0.007470643176694147
cle@@ 0.07207412163086678
common 0.030137398125919916
ester@@ 0.11833076676840025
esty 0.2493000462980335
ete 0.043572053950838074
formation 0.03765979847406811
glut@@ 0.5696656765630949
iidae 0.7645014267189325
lor@@ 0.16785112350318915
mil@@ 0.04707504483017563
mod 1
mol@@ 0.07757866063018254
oko 0.19798600707592504
phyl@@ 0.4984004395958284
uru 0.17568740073878472
ware 0.2268953085891685
ฮัง@@ 1
ễ 1
1250 0.6445899463135097
1350 0.7233153606419437
1689 0.5336767429925854
402 0.9153368747415536
5.4 0.9324788793949518
Ah@@ 0.09228252624555873
Alfred 0.07983514121772753
BL 0.25174802608567187
Bad@@ 0.07822407179262804
Clo@@ 0.2023588520412778
DF@@ 0.36963063758059733
Dru@@ 0.13172097861675564
Friday 0.19924526142634214
Fund 0.16222761333001895
Howard 0.09015920052873401
Jung@@ 0.13780677235627792
Lang@@ 0.04956655789617744
Lem@@ 0.12099939082389961
Memory 0.6419317857500777
Mom@@ 0.23259539389302347
Musical 0.19193467122215424
Nas@@ 0.12935892151194936
Shadow 0.3465547091377142
Singapore 0.11027645243752499
Suz@@ 0.4019620154477994
Tab@@ 0.08907577821877471
dri@@ 0.09254413469876929
enger 0.13000371464523297
fa@@ 0.04203385448167377
generation 0.08737117252653975
hood 0.10344062833267725
ift 0.18574618537115542
live 0.0282384283609092
mut@@ 0.05340332791045823
ond 0.06489375051374846
own 0.015012819364475181
period 0.0211376611759995
php 1
pus@@ 0.4092821473575927
rand@@ 0.16671005961631163
rier 0.09562355349708723
there 0.008033802915843607
ulata 0.4136901711563079
Ö 0.3437273678805416
å 0.5260077736474547
สายการ@@ 1
ィ@@ 1
司@@ 0.18872828909126865
年@@ 0.06182117958908126
1330 1
32.@@ 0.48551769990188015
324 0.9127938601434811
404 0.8670082152576865
530 0.7518642524055718
6.4 0.980267875650572
8.1 0.7656660594551171
Affairs 0.11096853472122983
Bru@@ 0.0654484770257376
Cuc@@ 0.6238675895019088
Gran@@ 0.0881674950638135
Hans 0.05108430035430733
Have 0.43691956317420594
ISS 0.5816567629257566
Industry 0.20257784312773341
Laur@@ 0.09081227381348692
Made 0.47293903355864114
Mich@@ 0.09873815181920832
Moore 0.10267698597927773
Petr@@ 0.1248277746567417
Professor 0.04445358953188445
Ryan 0.1113703499485858
Song@@ 0.24895930216034576
Um@@ 0.035078855654531386
West@@ 0.0348610129555562
ament 0.15344618722189807
idea 0.048927561702407876
include 0.01572129711228179
lac@@ 0.13198615907288203
learning 0.10788646157980629
nes 0.04323608580545134
pic 0.16580369792230143
pon@@ 0.06167297449235125
she@@ 0.08879474958964383
tis@@ 0.04409158067732581
tivity 0.1998348492102494
ump 0.16894539071097886
ya@@ 0.3622043721633175
ชุมนุ@@ 1
รัตนโกสิน@@ 1
เดียว@@ 1
ေ@@ 1
ិ@@ 1
。@@ 1
く@@ 1
ム@@ 1
1598 0.6433069467932372
1816 0.17885913210853233
49,@@ 0.6180926727239326
581 1
630 0.7386553974188609
69@@ 0.4146852151012375
Adap@@ 0.28881442231527227
Bang 0.31098944008407653
Bos@@ 0.0751545046146086
Christopher 0.11559626147480716
Comple@@ 0.3670360617287083
Cry 0.6027206861034746
Ever@@ 0.15121787701494238
Fat 0.7246571777267887
Figh@@ 0.8126741937620169
Fine 0.17655165189384364
Joint 0.22069897507626546
Maz@@ 0.09447285188267536
Movement 0.1656484689201848
Ny@@ 0.1500778627814971
Pent@@ 0.1985861341412213
Pet@@ 0.1146252868899579
Sex 0.2992631981613159
Shane 0.39650940895644454
Zo@@ 0.13635945180566655
aja 0.09758087557221092
architecture 0.06985947957521559
arm@@ 0.03891940515443792
away 0.02752522990339867
benz@@ 0.3595955262110577
blue 0.09147810571158624
bon@@ 0.12046297688692208
chr@@ 0.15380977996198433
current 0.03199188282938093
energy 0.05793560945107496
ept@@ 0.18663531567343689
hibition 0.17982676598327418
hypoth@@ 0.20068710911122561
junction 0.13087005388668896
negative 0.10568841995097904
phi@@ 0.2114292639486184
soci@@ 0.04083130637627855
source 0.042804161256318536
stimul@@ 0.18341351512191417
tural 0.1185095871039754
xx 0.5450736759951125
อุทยาน@@ 1
法@@ 0.05927006072166553
花@@ 0.13409097879660292
000@@ 0.3702580422248413
1185 1
1483 1
1811 0.198005895118708
231 0.6195809032426919
49.@@ 0.5704954292027841
870 1
Alex 0.10331256983906488
BR 0.328460731632964
Coc@@ 0.18526291615274582
Davis 0.06896610994487727
Dutch 0.059898684950203784
Fort 0.05137709776066276
ISBN 0.6608254052552082
Independent 0.11585459816560839
Merc@@ 0.320598463935695
Pan 0.15175229113550562
Reb@@ 0.11101122198994562
Ride 0.5630166053801242
Spirit 0.23755919831533384
Tonight 0.4418598161617423
abase 0.24142549265980212
aine 0.049417911158145186
aly@@ 0.11716138549646996
apy 0.3647596265034533
burg 0.0335076795022502
bye 0.3597376068181769
ches 0.02102959201989527
coc@@ 0.1215226793618672
con 0.002218979090010513
ecti@@ 0.25398450851437376
eer 0.09054979971640997
eff@@ 0.07055812353050306
heter@@ 0.22307379123965546
idel@@ 0.13421663490282948
nam@@ 0.05217162845427625
otus 0.3780549000309623
science 0.04664556380315816
sions 0.03822732755008036
sun@@ 0.07983913146400473
vous 0.1482900051882481
wan@@ 0.08180050793724226
zo@@ 0.12358309559475844
ë 0.2161526313137562
ū@@ 0.08233954648287604
คณิ@@ 1
យ@@ 1
ら@@ 1
サ@@ 1
君@@ 0.4820072940818146
1780 0.24502339051417946
610 0.7231753474805949
760 0.99318981715346
Airlines 0.15112631863647216
Break 0.5770998067638845
Expo 0.541237333068683
Female 0.39932086089085167
Germany 0.028684399781768503
Gold@@ 0.08160920243500801
Gray 0.16493546537155887
Guide 0.2361150791070678
Laboratory 0.25844523577563777
Marine 0.07124653216831972
Moon@@ 0.5313716078299044
OE@@ 0.9515184481495682
Pad@@ 0.10133808673151613
Ren 0.9959070674424102
Roger 0.08168903236908871
Soviet 0.04287517137918904
andi@@ 0.10825076820026198
ante 0.011704662394605648
bird 0.12747975329901545
bol@@ 0.06369297797315093
course 0.03241445305165286
double 0.04564620756681047
eh 0.09824063031639245
enta 0.050307426864795494
eth 0.08435326943785834
gs 0.06663094303303964
illing 0.08685041230869478
lied 0.07614352277008656
mul@@ 0.08139117240299017
og 0.12445891665767977
oll@@ 0.052823584390270566
optera 0.41277746187862524
ric@@ 0.10637545329910202
stage 0.030227902341705935
tail 0.12176772263347478
thera 1
under@@ 0.019760088365652715
win 0.020970568179845134
á@@ 0.01945152312041899
ă 0.322328926673135
เปลี่ย@@ 1
宮@@ 0.44022001446220216
福@@ 0.12283500105032713
院@@ 0.3583475590375737
陽@@ 0.4068159224687382
1180 1
1450 0.6381165252956174
293 0.8487146390931137
7.1 0.9111338881190941
84@@ 0.6444982760302924
87@@ 0.5272771888946222
BD 0.3227599747491973
BM 0.3928298358892798
Better 0.48594857906981365
Bin@@ 0.20620841962906125
Cs 0.35935881262874897
Disc 0.5973879925546759
Emp@@ 0.08508890247480913
FL 0.11830944554686737
Fall@@ 0.1873019947858613
Fir@@ 0.09659298433687638
Hard 0.28919437248416624
Jam 0.40597524695588244
Ki 0.4357154551657201
Log@@ 0.11448106962285838
NS 0.18030202804112416
Nur@@ 0.14379943520178012
Pang@@ 0.6207756361145469
Princip@@ 0.2273448243532375
RE 0.38767000802749285
SR@@ 0.3338269513570077
Smo@@ 0.2707049236161688
Stor@@ 0.1385959001717389
TR 0.8159826578909399
Ti 0.8657652937023672
Us 0.26155744379111395
Week 0.13433389832673537
ame@@ 0.10427430932396375
anga 0.1067041372988836
aves 0.05864847676360852
bers 0.07696692829073748
bos@@ 0.141672113074385
engine 0.053780149835423396
etus 0.3051692897060629
fal@@ 0.054943266304159286
gas 0.05332695664731411
growth 0.06830602517045573
ingen 0.029670248007713486
ious 0.26383168549471936
nuclear 0.09840971028529619
quin@@ 0.1509290026096164
synth@@ 0.13577629671313726
ths 0.05976700922282623
ury 0.09533576333567438
ust@@ 0.07137806455024495
ถิ่น@@ 1
上@@ 0.05013175783678927
成@@ 0.08492790122662502
1540 0.5429399521706467
1643 0.6041239285278169
2600 0.9236472820880443
284 0.7748546039813303
297 0.9192495434086143
680 0.7817834539916241
Before 0.07614840643892122
Cartoon 0.6707305956779284
Chel@@ 0.22088749118771162
DH@@ 0.59494507149262
Heavy 0.32070346280828393
Kill 0.48163299824769823
Kw@@ 0.3595213137314126
Low 0.2395672829887991
MD 0.21308620386634783
Madonna 0.21439090046769796
Oper@@ 0.08449105968956126
Peri@@ 0.15610209540061837
Ses@@ 0.17292031988736106
Tap@@ 0.1906373130835331
Tem@@ 0.11027552512712656
Thr@@ 0.21325946328682427
Training 0.12836489856522243
UE 0.36693304813179883
Was@@ 0.1402091059007612
Wel@@ 0.08411019298980497
XI 0.13278400194315554
abe 0.07950317474949566
ads 0.05026792748656619
apping 0.12835897204377839
atri@@ 0.14631747376901286
ayan 0.12148155692160194
bridge 0.042786850798662505
det@@ 0.027692618887196804
dog 0.14678406803823604
leg@@ 0.04062366950066796
mad@@ 0.07057544028342633
master 0.054513300374215944
ocarpus 0.9896690584810669
olls 0.17811380095361737
plant 0.043346684488885144
pter@@ 0.5745594608343005
season 0.005976099540568478
string 0.18428863310917495
three 0.006263951198129166
uld 0.18120882776391006
used 0.006315555622130953
uta 0.11048851545885614
wer 0.05127436886932538
won 0.009530774264326315
yrin@@ 0.7129759242665572
มวย@@ 1
สกอ@@ 1
อำเ@@ 1
ង@@ 1
《@@ 1
コ@@ 1
テ@@ 1
五@@ 0.06447029499262613
정@@ 1
1521 0.6753921214920111
1661 0.5540653359899211
273 0.788183263794018
287 0.7584938103872613
288 0.7495236672266511
291 0.8781132530929525
322 0.7784575632502304
356 0.8966040661022114
570 0.8419350945786239
6.8 0.9574637823685478
AMD 0.786695445025845
Animal 0.3428652216279872
Aur@@ 0.11314227937922604
Basic 0.41912018558974284
Bros 0.6302937566426132
Camp 0.11870369212792872
Cell 0.5631401920375817
Circle 0.2420409667190268
CoV 0.942438824775017
Crystal 0.2733653303506623
Dam@@ 0.06553358764303124
Dig@@ 0.185340544579023
Extreme 0.6092681420255094
Form 0.06006153221625203
GHz 0.9960175094106186
Gh@@ 0.09326666917544417
Kelly 0.10929659999000112
Kum@@ 0.17773798456850556
Look 0.4917409099664553
Mass@@ 0.08915126968963881
NH@@ 0.20299945047073495
OK 0.5504947272121772
Otto 0.07284703230491502
Rumble 0.8184366680517627
Sang@@ 0.20225906686974163
Sto@@ 0.08091957336735225
Taylor 0.06344780550902525
Track 0.13132624584566882
WB 0.730882168780455
WH@@ 0.32773352802263417
WO@@ 0.5466654650585031
Wr@@ 0.2707765109948972
abilis 0.8132101330381871
ank 0.21246732226080367
by@@ 0.1039202201110896
chem@@ 0.08130851317762064
din 0.10367345688461084
ety 0.17390601987711418
genetic 0.18805220239480708
imb@@ 0.11143439182243936
led 0.01134107967359832
olep@@ 0.7864255357926476
opterus 1
ord 0.09404281786314343
ostr@@ 0.24464582627618153
phone 0.07436471163589176
ric 0.1929813623599167
sign@@ 0.06320781753227177
square 0.05792789774042955
tot@@ 0.07834508596102299
var@@ 0.0578676940455259
č 0.26703836297506545
ě 0.8170266601284275
รุง 1
ื่อน@@ 1
ナ@@ 1
パ@@ 1
方@@ 0.11566968410114317
01.@@ 1
1492 0.6932196038142554
1760 0.3361864129199777
299 0.8273109117943798
338 0.8721794951252373
346 1
347 1
7.3 0.9855217634522693
Allen 0.08901607537643255
Amazing 0.6870235794808148
Brand 0.21699806919722756
Color 0.44481553470406643
Command 0.12575682569332977
Critics 0.2815689054918061
Cyclo@@ 0.6883096197742881
ESS 0.8366208304303638
Ev@@ 0.09733104365696997
Fighter 0.25370867961694316
Flying 0.23268561560558537
Hyp@@ 0.23267765673242877
Journey 0.5098417816922831
Metal 0.1452732236840492
NHK 0.8649159532395789
Nippon 0.6247188880732196
PH 0.7177214572936577
Phil@@ 0.09011510478197435
Rep@@ 0.1708693209808545
Rider 0.5253756543272542
Say@@ 0.17083713735225114
Tat@@ 0.1374421944524445
Ultimate 0.3310572304958773
agram 0.40764428298003225
ban 0.04209650682559919
etes 0.08153569704399816
hormon@@ 0.4791550307973014
ilk 0.05283113976902302
inferior 0.194575783651191
ishi 0.25782913781948485
isi 0.08116697954562775
oka 0.18883422085912968
omi 0.3483403216954343
ords 0.09346877495196812
osc@@ 0.2663911329977008
prol@@ 0.16147178210069876
sed 0.040239714478052704
spot 0.1113403926907915
tos@@ 0.2604599970222758
vus 0.3758841813636849
wak@@ 0.10466127103559124
พาก@@ 1
ราจารย์ 1
เจด@@ 1
ိ@@ 1
真@@ 0.1562712115006556
1170 1
1781 0.30540921224100337
281 0.7249109092315951
335 0.7600816785639837
406 0.8349203448923769
5.3 0.7434942607168691
5.8 0.8559500139279564
ATA 0.7273793913288649
Af@@ 0.12204237096298376
Alo@@ 0.33296004451036276
Bag@@ 0.11049277149733837
Cambridge 0.07354208833947401
Chen 0.2182952312192861
Daily 0.12291069449597518
Doc@@ 0.13921097073463123
Fish 0.2861539108398259
Friend 0.6056366390177916
Gly@@ 0.3278976174794798
Kings 0.1541565033790246
Las@@ 0.12997523705511393
Lewis 0.06887236107032627
Local 0.1160607685983211
OVA 0.9841484656263954
Pyr@@ 0.15804721386514298
Tai 0.4240506103348143
UEFA 0.08730534656140737
Urban 0.16516619560090984
VIII 0.11930605800715745
Watch 0.27657369173963314
Yellow 0.2759045847047736
acker 0.13065921762197516
activ@@ 0.042842735998367854
aeus 0.3148630350719544
asia 0.19233979531451462
ason 0.1371746645767747
ched 0.03919213352217556
cho 0.012136120209129683
cole 0.6497945977293738
dle 0.16403474102530907
domain 0.1643653188921432
eros 0.04857790703684638
flora 0.225135445494284
gu 0.455837887642278
icity 0.29162324186224875
iga 0.1038335708695359
imo 0.14501655336295322
ini@@ 0.10487909251648583
mb@@ 0.08469802762359775
onian 0.09712145639086994
pressure 0.07486562663544957
program 0.024824516217591623
sensi@@ 0.1815872042393681
sm@@ 0.08080488842905807
sym@@ 0.09380944364339074
tius 0.3926027983480273
unds 0.07362980658084978
vers@@ 0.04277763828961025
vo 0.05269230604979514
yon 0.13652199528238576
ประชาธิปัตย์ 1
水@@ 0.050293173225458676
1777 0.29282241251192653
1778 0.2860752362972248
476 1
Bau@@ 0.0230229969269354
Bruce 0.10395585604427189
Captain 0.0759562862021874
Chief 0.051488495943751
Coff@@ 0.3373045844566903
Dra@@ 0.1749827676929318
Factory 0.28525975295222766
Give 0.6435551614279815
Hu 0.6443964507355517
Hus@@ 0.09995016741883514
Jam@@ 0.1129769646154872
Jason 0.12458335402169862
Jay 0.143681535268885
Jerry 0.15436158165540215
Liv@@ 0.12393716517201256
MBA 0.5484778823659476
Mario 0.10573225101679472
Premi@@ 0.2212806007530232
Seoul 0.2604878125316492
Suc@@ 0.15656786257004818
Sz@@ 0.10931356911060076
Tell 0.36822144953636976
UNESCO 0.17489079372796792
ald 0.09434247239760471
chart 0.06489270638178864
che@@ 0.06518031613959384
design 0.025857835907568072
dis 0.11838543632580308
doc@@ 0.09265907554750195
edia 0.22803673937277624
gun 0.06498681302089386
heim 0.04028440847342369
itz@@ 0.05076228801057281
lip 0.1465789019107058
mass 0.07479061725431758
odes 0.1691409655028986
osh@@ 0.17081902449454003
processing 0.17335996109950225
ratio 0.1671862663738831
stress 0.19756211099471685
suit 0.052638015453978435
test@@ 0.1235322470158909
troph@@ 0.18613714520358707
unda 0.10911193150863745
vi 0.09564004493710224
ดัด@@ 1
း@@ 1
士@@ 0.13495056267736136
寺@@ 0.6871832039184266
市@@ 0.11185091681366886
春@@ 0.19517200142964944
002 1
1651 0.6240922977859945
1763 0.31348805421133863
1784 0.24721041450054168
2100 0.9256915507109889
525 0.9091305151625917
Abbey 0.17106386186470893
Adventure 0.3474978869441278
August 0.007079834141832933
Avengers 0.5984940415628593
Beau@@ 0.08817232175258818
Bod@@ 0.1056010596467163
Comput@@ 0.4274596449499461
DO 0.4863095798111454
Destiny 0.723357101841651
FBI 0.2133003122651504
GI 0.3908267747953688
Glass 0.3055055005224772
Heart@@ 0.407930897223185
Hid@@ 0.21803529368512425
Hot@@ 0.18165795931111411
Into 0.6264985942502305
Jane 0.09828823338592337
MG 0.3014747341321859
MM@@ 0.8481429609491455
Mix 0.4652837864746647
Miy@@ 0.262567978055477
Oriental 0.21532429926066424
PL 0.3663395905032104
Page 0.21957029241614962
Pretty 0.6557788972600318
Saf@@ 0.151410193359971
Ultra 0.47826892212685196
Upper 0.12923432835184737
Wilhelm 0.04679122467571162
Yi 0.37544164958948084
Youtube 1
ana@@ 0.2521356794637709
anic 0.4331002161311277
arius 0.19651336271756387
award 0.047319461956377665
bacteri@@ 0.2321003503687236
black 0.03329146854995773
come 0.03289120751116786
cros@@ 0.1026028443980857
ebook 0.6982218815919808
eci@@ 0.13222703585610215
ester 0.07382147126003342
fur@@ 0.07023652778197557
ks@@ 0.050460776410361084
ky@@ 0.20060483269077167
ledge 0.23153280795160242
los 0.0014310675505241337
metal 0.0526463510428437
place 0.007821515104050589
pression 0.07971728063868906
stars 0.0598477712763457
ther 0.09453390172748315
tory 0.14644371529039368
under 0.006517411546011823
×@@ 1
エ@@ 1
夜@@ 0.39467081887995803
@@ 1
1775 0.24231185793999915
1786 0.28224782880095417
267 0.7302806196703476
282 0.7588990344369952
296 0.8332437343146111
313 0.6854675081656884
4.9 0.8891500848951622
425 0.7438043348494282
Alpha 0.21389876138273495
Benz 0.29319816700519535
Bernard 0.08490693253381697
Bird 0.21400780546507253
Bom@@ 0.11455936901965363
Communication 0.3375334105181065
Competition 0.24478219551812494
Complex 0.29009363893280415
Dark@@ 0.2950862937921044
Economics 0.22637860770492982
GR 0.49109780152177795
Honor 0.1904884676219037
Jacob 0.108823018292642
Kurt 0.14118362508842522
NP 0.3761917336607289
Nat@@ 0.1067817663145916
Rising 0.4270114399043705
Russia 0.04489120307744123
Sah@@ 0.14436457936774044
VR 0.4686883469900452
Vince 0.5088605866319541
Yak@@ 0.21589662130705897
ator@@ 0.09459277225168523
aul@@ 0.07997493035641125
e- 0.2799225778129833
ember 0.2698517499746106
ender 0.03575744596658688
girl 0.08646566012335452
iger 0.03618235935608659
isch@@ 0.053843737660020166
ix@@ 0.16435256744074456
languages 0.07098766456031243
lie 0.04613672205273091
medicine 0.13813836171967683
news 0.05708896413964981
ogy 0.18634249241126616
pig@@ 0.16741195155949257
rat 0.05103072620248062
speci@@ 0.056614594965373265
tage 0.13295872005195905
thy@@ 0.38467634178319815
ucle@@ 0.6458042103382261
worth 0.05272912444652005
yx 0.4506250438909101
β@@ 0.09709468508935011
ព@@ 1
័@@ 1
軍@@ 0.06413926663179952
1560 0.5315973397670585
317 0.8275903008518172
AH@@ 0.796195235908308
ARM 0.9168188425170918
Batt@@ 0.1654244196909295
Bio@@ 0.34985910744119075
Creative 0.3257886307523828
DR@@ 0.2663379045468958
Dave 0.1086732620179438
Feel 0.7289359103140142
Films 0.10857604807833536
Flight 0.20278538603581606
Haw@@ 0.0927165462010489
Jeff 0.126106062525532
Lan@@ 0.07593306469762652
ML 0.31082621803832505
Market 0.161940901696003
Pac@@ 0.17205679385153458
Plas@@ 0.2447349974708455
Professional 0.0996786198171745
Superman 0.3218199714103344
Toy@@ 0.3171552240063686
Trust 0.1069567360028128
Wong 0.39191296506160445
Work@@ 0.21240373137823332
angi@@ 0.5920172472410431
arch 0.10401583650288906
atsu 0.34440836323595536
attack 0.035402667550080626
ayo 0.11419547341690645
cell@@ 0.11836205649636929
chloride 0.6701244240347075
coll@@ 0.05912663292083655
dat@@ 0.05643775006050258
edge 0.09192556922106881
enberg 0.05658668656308348
etti 0.057429835139124426
iformes 0.9199655929240149
jo@@ 0.07196115387048471
ked 0.04151008516768411
kor@@ 0.059036557106210995
lands 0.036302818332512275
normal 0.06936819333068608
oe 0.10153031784783811
organ 0.14227111075894716
orph@@ 0.16623449598866014
plan@@ 0.0329182904861921
plex@@ 0.486545354802494
pneum@@ 0.30729241466137264
race 0.02511560304736335
rap@@ 0.041213029883919165
specific 0.052319662053965134
thetic 0.13405281393115237
transfer@@ 0.13837826100610218
uh@@ 0.09640997854626783
versities 0.5147728890906393
yer 0.03195411882602767
ynam@@ 0.2476319664525522
θ 0.5258826412034477
ดิจิ@@ 1
ออสเตร@@ 1
√ 1
」 0.013797846108766157
は@@ 1
メ@@ 1
月@@ 0.22204861526453373
林@@ 0.06385289005430717
美@@ 0.06306230304016523
1580 0.4985236561310456
1593 0.7426907843704218
1740 0.3419324888842045
326 0.8372506248557672
555 1
907 1
Anderson 0.081661745955124
Charlie 0.11095846194802826
Comedy 0.2269988396737069
Electr@@ 0.3813558724867044
Exchange 0.19599674811304252
Fam@@ 0.19964893787474458
Gran 0.07774832031128523
Hak@@ 0.15169899555750638
Indonesia 0.10025175187853524
Islamic 0.10322416920895981
Juan 0.027482813818857244
Mega 0.38523723961951667
Opera 0.10735160245768179
Pach@@ 0.1915971706221806
Patri@@ 0.09516703451558403
Patrick 0.0688023381169141
Premier 0.04556829237303239
Productions 0.16025096383104134
Samsung 0.35931168220254567
Tsu@@ 0.314509904086829
UP 0.2868706604912617
Why 0.38224991709173467
Wing 0.18146821613742425
dop@@ 0.2792857893923426
eping 0.15465048143828863
etary 0.16519889577916613
gio 0.10117852447997251
icon 0.17384068716420767
org@@ 0.07964577274272987
press@@ 0.16448527517892245
reaction 0.1275866471865881
response 0.0510569911861894
small 0.014618438677816774
tera 0.08781459814922116
tier 0.04669940951757439
unk@@ 0.07115670000312821
ves@@ 0.2861091312132259
vil@@ 0.097999129197142
vit@@ 0.07916980198928725
wo 0.0198890542984696
{@@ 1
1750 0.2715069046822874
259 0.7226604096858606
490 0.8109125324866692
Android 0.216805601539823
Arc@@ 0.1574610124901459
Avenue 0.05408269978218775
BR@@ 0.2775008315357719
Bang@@ 0.22201340856398777
Bou@@ 0.05411925725069688
Chlor@@ 0.40750681339803735
Deg@@ 0.23781510454964164
Dong@@ 0.3829034716119123
Emb@@ 0.22007379880028466
Glory 0.40969835292447637
Heat 0.3073939931056407
Jack@@ 0.245076138936944
Jordan 0.09958372086413832
Liberation 0.3116311772628882
Linux 0.16864952659997395
Living 0.24167413608543908
Nick 0.10655574628347031
PT 0.34533792593411516
Plan 0.09352575625237802
Pom@@ 0.09776056094755643
Rise 0.4495531335100983
SEC 0.36125751303566195
Sign@@ 0.1457656512057409
USB 0.4263603271852608
Without 0.26861748404906205
XII 0.13199713497018617
Xi 0.5215099849012927
ador 0.021341723755402695
aj 0.11365445275751693
ats@@ 0.08519231142459308
ave@@ 0.09754359342005865
della 0.18929229976772619
dus 0.31843631671672135
eman 0.06936104381887631
icum 0.2605820134764264
isions 0.09626690739408963
metric 0.2735155725150871
mia 0.404152632180434
oh 0.2744831349727232
open 0.027770069118503413
osom@@ 0.23603776554016334
ove 0.3230271417283648
ply 0.10309157029505338
rh@@ 0.15362373863187437
ross 0.17722383811631479
script 0.12349031001459744
sense 0.09024305525217789
smo@@ 0.08452890378381409
sson 0.08464274282571653
syl@@ 0.1435368797012305
tern@@ 0.09109059209875689
wat@@ 0.06157275685324303
yon@@ 0.20590618975667696
θ@@ 0.1386463475996102
กำหน@@ 1
ไผ@@ 1
ជ@@ 1
が@@ 1
ま@@ 1
八@@ 0.0936211878543456
四@@ 0.05508934044227588
華@@ 0.11314294736247149
1260 0.8461326435932575
1460 0.7797911701564729
1666 0.5585966966720305
1773 0.31744840000492225
316 0.7522146869681854
980 0.9887037042814879
Andy 0.1156994676160072
Archit@@ 0.20652856070282163
Benjamin 0.09613714934056135
Berlin 0.017177774591912876
Bri@@ 0.06058543139475703
CM 0.2596478688305801
EL 0.3856708789652772
EP@@ 0.20267700017282778
Ernst 0.07597226643707104
File 0.6429311806113872
Gordon 0.08492505924340855
Grey 0.1829169551411791
Head@@ 0.15624070309904425
Irish 0.04318558127613512
Java 0.15415253019362166
Kol@@ 0.04092724383753282
Organ@@ 0.14800516311917802
Pay@@ 0.18739267963904438
Phase 0.16306855534600487
Potter 0.2711000052507063
Quest 0.418942812741311
Raymond 0.11975044913954686
Romeo 0.29175548630933634
SB 0.2559247051916563
Saturday 0.11631917204866062
Save 0.4378903461855828
Scor@@ 0.22681675718210992
Singles 0.08456027379200157
Small 0.19762748728192397
TCP 0.9036864062703778
Vegas 0.13961935170552892
XIV 0.13032379681056488
Yos@@ 0.22106086773428385
anta 0.09355732133754557
arian 0.08661929670589648
auto@@ 0.06048365870216826
bet@@ 0.08261499551474527
cerebr@@ 0.46514166631440923
chel@@ 0.29689467831244293
chen@@ 0.06341448559931294
emat@@ 0.242533354301078
forest 0.07703945808867742
four 0.008556030816263811
frame 0.10509457220951626
han@@ 0.10716536548844077
high@@ 0.07617959525209651
iss 0.10228053569416978
na@@ 0.1268063141514747
oll 0.10233699120635845
stop 0.05940676483530819
systems 0.03667639031276791
tent 0.0865655742590026
trig@@ 0.15948635657087884
ularis 0.5368457297459965
usi@@ 0.07671592880932675
Đ@@ 0.09510230856844089
ǔ 1
ปราม 1
原@@ 0.0677639096882541
正@@ 0.06646409740337088
趙@@ 1
100@@ 0.16397947302823396
1392 1
1520 0.493911372383782
1530 0.5003747050594932
1774 0.2728386314959737
1785 0.24993772048116167
344 0.9281754019290206
345 0.7416878068227305
38,@@ 0.4556121572052475
44.@@ 0.6483989178610338
47.@@ 0.5708129802869073
48.@@ 0.5305234921814215
Academic 0.2569973097803469
BI@@ 0.5186205059834101
Billy 0.10364702393208555
Cad@@ 0.10791351856506771
Close 0.4665573785582092
Def@@ 0.17738039965763497
Dream@@ 0.34461609667039245
Du 0.0877066262351862
Factor 0.4023401683256095
Gabriel 0.09451282467666683
Il 0.0035205403761903917
Inf@@ 0.15601529768928815
Intelligence 0.20168243834288058
Jun@@ 0.14620139022690246
Kim@@ 0.19284185949676141
Liu 0.1823396199228904
Matthew 0.11963732652769986
Nintendo 0.13585610496319045
Ot@@ 0.07041749288670136
PHP 1
Pir@@ 0.08378859659437074
Political 0.09700234334460321
Rich@@ 0.08538092847082854
Tim 0.10434930640427599
VP 0.18829201397685685
Vent@@ 0.14719020883930167
Xen@@ 0.40889438054198707
acial 0.17703245950859428
ager 0.04240698013083758
alon 0.5418590638843973
aman 0.1714440170842033
amide 0.2729357033445858
arin 0.23140950425349008
child 0.03926886794268565
death 0.014566266357848641
dh@@ 0.06756795232283572
dry 0.10519984156939675
esc@@ 0.04840897139485931
fort 0.030769325198940534
gon@@ 0.3093606088090878
hep@@ 0.2339723887744828
ior 0.39498605036554685
km 0.007528977902364879
lar 0.03182546701629718
nar@@ 0.09124029195181131
oro 0.057416671415183175
painting 0.07302806196703476
rac@@ 0.04684323186201944
racy 0.19445495976155902
sex 0.06498476008380737
spir@@ 0.10034574771792908
tium 0.1915507898983952
tu 0.07253993070641329
wer@@ 0.028079234444702266
window 0.13510541134310083
® 1
ו@@ 0.49596700804547306
รัม@@ 1
ใกล้@@ 1
お@@ 1
0,0@@ 0.48277369574114665
0.00 0.8504319860878127
0000@@ 1
1340 0.9146409480786032
1485 0.9033305787862128
1568 0.6224685431767426
1604 0.5720497070301973
1625 0.49730600761261984
1653 0.5954485484716976
1765 0.34265759670027757
1782 0.25152056935257033
2200 0.8546877424320638
277 0.7195768864007906
336 0.8258741190237773
357 0.7985190102479995
395 0.7025264868562727
BK 0.32892043533854454
Back@@ 0.1633371006536297
HK@@ 0.6447763965345946
Marketing 0.3273046422204681
Nicholas 0.12618559703666138
Ori@@ 0.08940464551385435
PD@@ 0.3559756257045684
Paradise 0.3290275319393874
Phantom 0.45296439018438317
Ra 0.5095730423845914
Roman@@ 0.08713682913415914
Rub@@ 0.12323360219536511
Sher@@ 0.0964211514394113
Wales 0.0390592950747961
a- 0.46046362975607075
ado@@ 0.14117267994954563
aming 0.14763336932511287
asi 0.11439591039523525
bau@@ 0.04083221268044583
coli 0.4411973690968209
conduc@@ 0.06814792369170748
continental 0.11862255873873694
ded 0.03299891609146209
eper 0.1441548940754413
eps 0.1815179955037216
hynch@@ 1
ices 0.041480017136242
ination 0.24243406884636082
indic@@ 0.050227437122562925
kle 0.4874702399753225
made 0.005502929143372068
onda 0.19036891771654377
ool 0.271354942929335
oridae 0.9903070387608104
orth@@ 0.14910924918077004
oud 0.08297564501636152
phus 0.24317303406313037
positive 0.05029889744125981
see 0.01967461249600648
shi 0.24600470025411564
sign 0.07983770625284667
sound 0.0534342254510072
ขอน@@ 1
พฤษ@@ 1
← 1
み@@ 1
忠@@ 0.35529767622695935
～@@ 1
1415 0.9592718718781835
1470 0.7792367853332602
1582 0.6757928273141256
1605 0.5551737052346531
1685 0.4719446776779038
40,@@ 0.6177313116467886
484 1
978 0.7329842041453236
DSM 0.744649251780609
Esp@@ 0.06362028820980921
Evolution 0.3785131727277658
Exper@@ 0.10360617449416493
FL@@ 0.3057671439474889
Gradu@@ 0.21329869055420203
Grap@@ 0.3139741517690985
Jer@@ 0.09049064654264403
Jimmy 0.09690735851645033
Jo 0.2434342938695053
Jonathan 0.11666921071532947
Lawrence 0.09283659903851811
Max@@ 0.15946148545146138
Musa 0.5461372299340207
Need 0.5985024414980952
Poc@@ 0.24500271755830066
Rio 0.06748790277842626
Row@@ 0.11202225648928613
Rut@@ 0.18890141874663507
Text 0.17496717640909243
Total 0.20604503077565797
Tropical 0.28851167840798875
Vul@@ 0.1470629932615054
aut@@ 0.03988156438868945
break 0.0677547378777363
chron@@ 0.07601393473964588
cord 0.1850321742456845
cous@@ 0.2648454024971893
cut@@ 0.07118491409232003
das 0.0018292971315273668
digital 0.0582393077663066
ebo@@ 0.12123301314855399
eland 0.08314253294655329
gre@@ 0.058006633692538424
ibn 0.14142849560950785
inary 0.2852346199343464
let@@ 0.05777079570251793
linear 0.1508314176506356
ographic 0.10907228912633173
tari@@ 0.0936143789937312
tens@@ 0.20906949879817918
tun@@ 0.08155136683965956
ï 0.1687982168755954
Δ 0.39526242745893014
ปราก@@ 1
川@@ 0.2586965826003256
氏@@ 0.4272059582775019
秦@@ 0.3241530556150482
#@@ 1
1515 0.7081615011768007
1762 0.3376393743731166
415 0.7989293651174791
458 1
475 0.8957784537487417
50,@@ 0.49821216367639315
509 1
86@@ 0.4105690105382485
April 0.006615648579691753
Basil@@ 0.2143020747877843
Block 0.18149184687672978
Cha@@ 0.2602064408274234
Concer@@ 0.16479149250824798
Cool 0.4687035394263156
Cross@@ 0.3229654128650496
Dancing 0.4240187103924459
Discovery 0.23522310445689695
Domin@@ 0.0783635559293875
Event 0.3514301936388911
FE@@ 0.5076616048171829
Gone 0.5115911800501463
Greater 0.15269752363488043
Guard 0.1119956267741412
HIV 0.22909655380828103
Half 0.30039727899498847
Hey 0.5055356823630301
It@@ 0.14658091981984428
Jesus 0.08371399890079771
Jin@@ 0.2933144750994107
Kel@@ 0.07229529117622391
Leo 0.12098157277641051
Lotus 0.32059362740934455
Mi 0.2169150355456478
NGC 0.07517615087061551
Ner@@ 0.12178610733420797
North@@ 0.06767466200646187
Observatory 0.32497928905229184
PI@@ 0.27755597875984495
Parliament 0.0451650990251952
Prime 0.06522447673230879
Region 0.03181708317957031
SMS 0.45563435542690667
Safety 0.24276252310876884
Snow 0.2571075333302828
Technical 0.16928591312384103
Til@@ 0.16131316269187787
Vienna 0.11713411919464982
WD 0.6130451880329377
acul@@ 0.23913136536413057
ances 0.02511206732750235
antic 0.3219634246471529
audit@@ 0.27063517497048156
best 0.015922930166650917
bury 0.06345906215085519
door 0.04507939413750917
emati@@ 0.2780582893896075
enzyme 0.21268397372871248
flag 0.11712716114547285
grav@@ 0.04836078027175473
hel@@ 0.07360692133606032
hon@@ 0.04580689216192214
icles 0.23677192568265684
limited 0.041567131644231405
must 0.03160467406655544
nas@@ 0.1393566805505646
olar 0.27408363540588526
opter@@ 0.4665409747874293
pia 0.2749371610192803
ping 0.0929555518433864
plic@@ 0.09018009298609347
[...]
