. 7772797
, 7734839
là 3280710
và 2801032
&quot; 2741386
của 2651967
một 2635602
được 2354748
trong 2097967
năm 1909549
có 1781505
các 1474183
) 1435615
( 1434603
này 1228827
đã 1065442
người 1059885
họ 1039642
với 1012926
ở 1000829
loài 934119
cho 926804
đầu 884578
học 864240
vào 809905
@-@ 745506
thành 722925
tháng 705008
số 670753
từ 646669
không 633153
đến 620635
những 597290
tại 571373
khi 570579
tả 558234
tiên 544067
ngày 536033
ra 532759
khoa 528275
thể 526746
Loài 525263
đó 507575
vật 505204
: 500195
công 495477
thực 493175
về 489671
để 484104
thuộc 480258
sự 475697
như 463004
bị 458696
trên 457515
chính 450756
ông 449550
sau 415649
dân 409322
gia 401305
quân 398193
nhà 384483
động 383733
; 379591
lại 375030
cũng 373974
làm 371508
thời 367469
nước 356271
hiện 355749
nhất 354938
mô 339302
Nam 332801
sử 332207
phát 329546
hành 328800
bộ 328052
nhiều 320160
theo 309280
hoa 307532
hai 303261
khác 301598
việc 297481
quốc 287917
quan 285535
con 280992
sinh 278178
thế 277134
chỉ 275470
cùng 275104
xã 273613
nhân 273315
hình 270148
hơn 268905
dụng 267932
chiến 266076
định 265403
thứ 264737
do 263686
Quốc 258233
đồng 256960
xuất 256512
viên 253975
còn 249259
1 248393
độ 246082
miêu 244012
Trung 243893
thị 243040
2 241241
cách 241071
tỉnh 240721
nó 236368
vị 236093
tên 235641
cuộc 233667
bản 232965
Việt 228967
/ 228454
giới 224640
trở 224510
bởi 223678
hợp 223374
Các 222807
lập 221775
nhưng 221325
rằng 221254
khu 218864
phía 218531
lớn 218237
cao 216631
điểm 216613
bằng 216511
tự 216270
phần 216121
đội 215829
đại 214180
nhận 214091
kết 213579
chức 212963
3 211673
trước 211554
hội 211459
trường 209309
giải 208682
hoặc 207554
Năm 207342
tiếng 207257
Anh 206723
vùng 205856
cả 205615
Trong 204392
phải 203343
trình 203108
gồm 202867
thường 201854
Hoa 201837
tiếp 200688
điều 200497
lượng 200030
chủ 198200
qua 196500
T@@ 195634
- 195532
phân 195140
lý 194899
sản 193960
Kỳ 193698
mà 192731
thống 191830
loại 190796
sẽ 190772
tế 189983
huyện 189020
cơ 188473
us 186643
trung 185086
tính 181638
diễn 181232
anh 180694
lên 180087
đối 179020
phố 177458
bao 177095
tích 175817
vụ 175782
gọi 175443
thông 174869
sống 174559
tác 172750
đi 172652
hàng 172217
bắt 172032
4 171527
phim 171071
ch@@ 170872
tạo 170670
vì 169587
C@@ 169382
lực 169197
l@@ 169082
mình 167272
nhiên 167184
B@@ 166170
quyền 165702
vực 164844
hệ 163184
cánh 162888
địa 162885
Đại 162799
trị 162781
5 162270
&amp; 162255
đường 161356
lần 161144
b@@ 160937
nghiệp 160663
giáo 159085
đánh 156946
diện 156434
chi 156384
cấp 156103
S@@ 155541
đấu 154688
chúng 153830
L@@ 153580
thủ 153407
Pháp 152824
cầu 152563
khoảng 152291
10 151013
D@@ 150936
sĩ 150793
c@@ 150720
H@@ 150686
mới 150500
Sau 150182
thức 150142
đoàn 148403
hóa 147784
trận 147657
6 146952
M@@ 146486
Đức 146152
tranh 146083
cô 146080
hay 145682
r@@ 145584
đêm 144769
pháp 143883
đề 143565
Tây 143338
% 141874
– 141777
liên 141153
tập 141053
tham 141007
nhạc 140905
tàu 140789
chuyển 140441
N@@ 139448
ta 139386
biển 139083
bay 138080
thấy 138070
máy 137905
bố 137182
truyền 136364
Mỹ 136105
thì 136022
năng 135451
km 135078
n@@ 134649
mặt 134539
toàn 134023
nên 133823
gian 133641
rất 132952
âm 132642
ban 131658
hiệu 131427
văn 129737
phương 129725
tới 129444
hoạt 129436
đô 128967
t@@ 128911
đây 128770
7 128613
bang 128163
h@@ 127833
trí 127814
12 127649
nam 127338
giữa 127188
đạo 127045
triển 127037
đặc 126776
8 126346
Ch@@ 126066
tổ 126064
nhau 125716
i 125711
bướm 125448
Bắc 125376
nghĩa 125327
đá 124739
danh 124471
s@@ 124397
an 123941
ba 123907
cứng 123829
Một 123473
m@@ 122837
Ông 122780
th@@ 122271
v@@ 121869
biệt 121140
tử 119828
bóng 119593
thiết 119370
chế 119299
9 119154
đất 119121
đang 119118
nằm 118930
kinh 118668
ia 118662
bình 118452
đổi 118245
thuật 117925
ảnh 117696
kỳ 117483
tâm 117366
nơi 116982
dài 116951
đơn 116433
dưới 116091
chất 115959
ý 115893
um 115394
Nó 114721
cuối 114249
phủ 114045
Công 113791
G@@ 113191
bọ 113094
kế 112145
Liên 111990
dịch 111975
Đông 111905
Lan 111201
y@@ 110870
nữ 110676
&apos; 110505
nhiệm 110396
g@@ 110344
Th@@ 109963
tiểu 109871
điện 109676
sách 109610
Nhật 109455
đ@@ 109282
nói 109213
Vào 109048
V@@ 109027
d@@ 109020
án 108797
biết 108769
phẩm 108684
sáng 108448
thay 108387
tăng 108056
K@@ 107745
châu 107676
bảo 107650
biến 107485
11 107288
trưởng 106355
nguyên 106294
Thái 106084
tin 105823
báo 105810
đều 105734
is 105732
mục 105397
ăn 105397
vẫn 105355
Đ@@ 104741
cứu 104702
thi 104646
gần 104312
trọng 104232
đảo 104116
tình 103381
ata 102955
chơi 101901
P@@ 101820
thu 101689
aceae 101519
tiến 101513
amp 101317
cá 101139
giá 100980
bài 100924
Bộ 100841
đặt 100813
tiêu 100727
thân 100677
tương 100469
nay 100409
tư 100334
nhóm 99658
Ngày 99453
dự 99450
nhỏ 99298
tìm 98982
tổng 98891
phòng 98848
ph@@ 98805
nh@@ 98520
m 98420
dùng 98198
ca 97738
bắc 97308
ngoài 97005
ng@@ 96752
lịch 96746
đông 96741
ứng 96221
tr@@ 95864
hòa 95839
bà 95804
bên 95754
idae 95693
tài 95657
hậu 95655
R@@ 95536
nổi 95255
x@@ 95210
màu 94744
y 94355
dẫn 94274
in 94252
quả 93618
phong 93560
tuổi 93129
a 93042
tinh 92918
Dân 92734
phục 92496
kỷ 92440
ensis 92371
biểu 92032
đưa 91937
sát 91758
Tr@@ 91646
đời 91632
on 91485
Tuy 91403
đình 91336
viết 91323
tục 90033
Thành 89995
giao 89995
&#93; 89430
Hà 89119
miền 88800
mang 88668
Bản 88505
quận 88059
yếu 87847
mùa 87841
hát 87709
giữ 87565
Hoàng 87557
rộng 87505
tướng 87426
trang 87382
A@@ 87370
vô 87097
thương 86832
liệu 86649
sông 85968
&#91; 85596
² 85583
bán 85577
nhập 85486
quyết 85172
từng 85082
dựng 84473
bất 84189
đóng 84123
tấn 84033
sở 83783
bỏ 83774
thần 83567
Dương 83557
quá 83519
phụ 83352
Xã 83167
chiếc 82821
di 82730
chương 82527
viện 82390
dù 81669
thắng 81459
câu 81387
nghệ 81387
vận 81353
Hải 81327
Văn 81280
hoàn 81237
nhiệt 81020
Cộng 81002
2010 80879
Theo 80786
Độ 80756
vai 80667
binh 80442
lạc 80313
xây 80313
khí 80255
cung 79751
cử 79483
cổ 79326
tra 78949
vệ 78920
nào 78831
Ấn 78566
giống 78453
hạng 78180
xác 78173
Tổng 77861
tiền 77652
Nguyễn 77281
hoàng 76868
trò 76867
vua 76765
Bình 76072
mở 75709
de 75620
Minh 75111
Những 75110
tây 74939
sân 74856
ngữ 74793
chống 74789
hướng 74719
chung 74568
cái 74558
trợ 74378
làng 73939
chiếm 73894
k@@ 73809
chưa 73583
Từ 73433
hộ 73262
ghi 73050
tượng 72827
Ban 72707
cộng 72447
ty 72373
giả 72285
minh 72181
o 71887
đạt 71739
mất 71525
triệu 71356
dạng 71080
kiến 70419
phản 70303
quản 70294
bệnh 70153
mạnh 70096
sang 70061
chết 70022
O@@ 69936
ký 69807
hạn 69743
lúc 69617
Quân 69492
giờ 69304
tộc 69269
cảnh 69260
lãnh 69248
u 69191
gây 69101
xe 69037
nguồn 68903
chứng 68813
kể 68618
Kh@@ 68603
kích 68594
nghiên 68317
20 68313
chia 68191
trấn 68084
kiện 67928
lệ 67647
tất 67619
Chúng 67536
on@@ 67504
đoạn 67384
ngôi 67229
hữu 67014
thư 66989
lưu 66984
yêu 66961
Khi 66726
vương 66721
X@@ 66562
tay 66484
cây 66385
chân 66166
Vương 66046
E@@ 65637
vòng 65297
thuyết 65065
ít 65033
giúp 65012
phép 65010
thêm 64996
Nga 64982
Chính 64952
Ba 64406
Châu 64137
độc 64020
thích 64004
phá 63988
trực 63875
an@@ 63822
mỗi 63792
Sơn 63609
Âu 63536
kh@@ 63423
ana 63389
hưởng 63293
vậy 63138
chọn 63109
The 62779
khỏi 62696
Sự 62656
sắc 62652
sư 62630
Hội 62588
cảm 62496
o@@ 62398
ai 62372
Ng@@ 62162
al@@ 62158
vấn 62108
Chiến 61548
áp 61527
ma 61507
gi@@ 61496
em 61286
vi 61264
cần 61238
hết 61119
Giải 61088
Nhà 60956
tốt 60840
địch 60642
so 60622
e@@ 60585
luật 60575
ea 60312
cư 60250
La 60095
xem 59991
nội 59730
ấy 59655
xếp 59581
tỷ 59340
Ph@@ 59329
sao 59298
ic@@ 59254
lấy 59108
An 58953
gốc 58908
khả 58422
quy 58414
i@@ 58399
2011 58366
s 58356
dương 58214
chí 58198
mạng 58196
giành 57854
Thanh 57781
ước 57558
núi 57512
trai 57446
mật 57280
15 57176
Người 57039
mắt 56849
bàn 56541
triều 56528
in@@ 56393
Đây 56333
la 56223
cố 55869
niên 55804
giảm 55659
huy 55630
khai 55544
Nhĩ 55543
Quận 55471
lời 55331
tuyến 55267
lệnh 55016
ac@@ 54871
F@@ 54462
Đảng 54402
khiến 54218
ốc 54164
khách 54143
Nha 54108
ol@@ 54075
cáo 53938
Thổ 53936
trẻ 53908
bầu 53870
duy 53685
Mã 53673
thảo 53157
vũ 53083
sức 53044
Thế 52984
Tân 52972
bại 52871
or@@ 52850
tuần 52666
chuyên 52636
ngoại 52576
đa 52541
Tháng 52505
I@@ 52371
... 52361
el@@ 52016
ar@@ 52011
en@@ 51913
đồ 51626
dục 51586
môi 51586
album 51473
Nhân 51429
Nội 51362
Lý 51225
quay 51186
riêng 51185
chuẩn 51053
ae 51030
qu@@ 51021
phổ 50969
os@@ 50928
Tại 50882
thiên 50876
đới 50828
thúc 50743
gặp 50665
đế 50654
J@@ 50554
da 50362
hầu 50345
Xô 50324
nghiệm 50299
Do 50271
18 50268
19 50223
lớp 50212
nghị 50165
thanh 50140
lợi 50133
hạt 50051
Long 50004
the 49854
Phi 49767
30 49709
chữ 49676
of 49561
doanh 49431
lễ 49344
om@@ 49315
nền 49310
xuống 49236
chạy 49142
phiên 48900
a@@ 48718
ti@@ 48639
Danh 48508
biên 48392
ot@@ 48384
thái 48235
Lịch 48033
ô 47932
gái 47913
16 47862
bổ 47748
ina 47737
kiểm 47634
vây 47546
Hòa 47280
p 47128
dòng 47053
Y@@ 46967
tồn 46934
luận 46898
Hán 46891
op@@ 46862
tưởng 46816
Hồ 46804
rồi 46797
muốn 46726
tuyên 46638
thấp 46565
er@@ 46540
vàng 46477
Đế 46462
cha 46128
Nh@@ 46074
New 46072
tiết 46017
mọi 45956
oc@@ 45897
khẩu 45877
cực 45831
14 45817
Á 45770
du 45701
Giáo 45650
tức 45619
đứng 45538
cửa 45299
tịch 45298
nhanh 45228
2007 45164
giám 45042
Ngoài 45030
p@@ 45023
Trường 44991
atus 44921
mức 44910
13 44811
mẹ 44725
thờ 44704
coi 44536
am@@ 44483
di@@ 44412
trúc 44327
Trần 44319
thất 44299
Ar@@ 44243
đáng 44227
17 44165
dụ 44134
Có 44092
nữa 44092
U@@ 44054
kỹ 44019
t 44018
dựa 43973
cận 43968
Gi@@ 43908
phi 43841
giáp 43802
ệt 43786
giai 43783
ngay 43756
mét 43703
Hồng 43691
ánh 43599
mặc 43582
hạ 43494
đôi 43457
Nguyên 43379
bảng 43373
tối 43318
quần 43269
u@@ 43178
quanh 43082
phái 43023
n 43022
Z@@ 42995
lâu 42942
thủy 42938
dung 42929
tuyển 42899
nhện 42802
A 42778
at@@ 42750
phóng 42711
I 42705
Thiên 42623
Hàn 42553
z@@ 42486
lục 42468
đốc 42383
vài 42373
nhằm 42334
nếu 42291
pháo 42251
ngôn 42112
Đô 42014
Tư 41995
2006 41993
ương 41973
tố 41963
cải 41954
li@@ 41936
2008 41885
thập 41823
Đồng 41776
đủ 41725
Không 41680
thưởng 41569
Kinh 41403
Lê 41240
Ý 41221
bạn 41199
is@@ 41193
cấu 41114
ang 41091
ur@@ 40988
Chủ 40936
ap@@ 40919
mẫu 40867
ella 40728
W@@ 40724
giết 40652
Vũ 40593
hỗ 40509
chiều 40426
II 40268
Di@@ 40265
as@@ 40254
luyện 40250
ác 40227
25 40181
Ở 40117
xa 39869
lá 39692
Tông 39609
Cô 39589
bắn 39555
phạm 39518
alis 39495
kéo 39474
kim 39374
al 39297
hoạch 39180
chấp 39094
bốn 38889
rừng 38885
2016 38775
đài 38701
Geometridae 38675
id@@ 38667
Họ 38541
Tiên 38518
lộ 38515
Kim 38478
môn 38471
An@@ 38422
chứa 38263
rõ 38258
trùng 38219
tỏ 38196
sóng 38156
e 38029
buộc 38018
Ủy 37979
cứ 37960
chịu 37929
Cao 37736
êm 37695
phận 37662
dành 37629
cạnh 37608
ủng 37562
lửa 37522
ngành 37517
2009 37455
21 37351
tôi 37349
tôn 37307
toán 37305
đổ 37267
mềm 37185
đàn 37178
cụ 37136
trao 37049
j@@ 37007
tốc 36962
2004 36866
h 36860
hải 36841
khởi 36754
hi@@ 36735
đĩa 36668
Điều 36654
2015 36627
Đài 36472
bờ 36431
nông 36395
khúc 36260
to@@ 36257
d 36229
hồ 36187
nặng 36160
trắng 36157
Quảng 36153
Al@@ 36123
ul@@ 36059
thổ 36044
Địa 35965
Bảo 35937
ê 35852
ấn 35793
2000 35747
ngắn 35735
lĩnh 35640
2014 35631
nối 35619
Bà 35582
24 35508
2005 35452
hại 35418
Lưu 35333
Đến 35243
ruồi 35221
hôn 35177
Tiểu 35136
2012 35132
hồi 35102
er 35081
to 35033
khảo 35014
à 35007
il@@ 34991
chú 34921
ích 34921
chuyện 34897
Giang 34877
sâu 34864
xảy 34695
tòa 34678
trạng 34619
áo 34540
ủy 34487
ad@@ 34479
2017 34474
en 34443
trả 34441
k 34367
2013 34332
gì 34180
trụ 34142
1999 34089
thiếu 34087
ag@@ 34048
Thượng 33848
2018 33825
Noctuidae 33825
đen 33816
niệm 33740
thuốc 33725
sa 33691
nhìn 33684
100 33676
loạt 33625
khó 33541
chiếu 33519
Gia 33489
mối 33412
x 33341
ho@@ 33292
Đường 33203
rút 33189
es 33126
xử 33116
osa 33078
2019 33061
nuôi 33026
chim 33018
tái 32937
bức 32926
et 32886
vượt 32823
bi@@ 32806
Thị 32760
cũ 32731
at 32690
c 32685
thuận 32682
23 32647
ar 32623
8@@ 32470
it@@ 32415
ong 32406
xung 32395
Triều 32263
tước 32221
and 32193
es@@ 32128
mua 32116
am 32076
ái 32030
ung 31974
vốn 31894
đầy 31771
22 31715
sai 31678
thơ 31666
mại 31665
gt 31662
tội 31493
ôn 31427
Hiệp 31398
Cerambycidae 31359
băng 31356
trục 31264
êu 31168
ica 31005
mm 30957
phối 30954
súng 30889
B 30879
lt 30867
tạp 30862
Phó 30861
7@@ 30807
_ 30768
ẩn 30680
Mặc 30667
el 30656
suất 30613
31 30587
ig@@ 30565
ống 30527
Ninh 30494
soát 30474
song 30385
đai 30363
Cổ 30356
Cúc 30343
l 30335
linh 30330
chủng 30264
buổi 30254
tia 30235
kịch 30182
xét 30142
trái 30058
thử 30024
im@@ 29955
càng 29925
os 29755
Sh@@ 29676
góp 29657
era 29653
aria 29649
rời 29623
truyện 29550
đỏ 29543
dễ 29469
Trước 29447
lo@@ 29386
ên 29377
kiếm 29372
sứ 29346
et@@ 29309
ngựa 29296
tầng 29292
2001 29285
đảm 29246
tải 29225
Chi 29186
trách 29185
luôn 29159
chuyến 29124
Par@@ 29080
trì 29064
cập 29003
dấu 28997
phí 28988
đích 28949
Thủ 28894
ro@@ 28892
Mặt 28811
as 28810
hiệp 28762
suốt 28741
50 28735
kho@@ 28724
Tập 28714
em@@ 28694
suy 28662
C 28619
bào 28568
9@@ 28563
Hai 28563
Hy 28539
Thánh 28492
đăng 28448
kiểu 28433
xỉ 28383
26 28380
Khu 28356
Yên 28292
xanh 28230
Cơ 28225
ôi 28204
2020 28191
ri@@ 28108
đào 28100
28 27922
khá 27913
ec@@ 27902
lược 27891
khối 27879
le@@ 27874
ab@@ 27826
Tổ 27823
căn 27814
Với 27810
vợ 27798
Mar@@ 27788
dần 27774
lòng 27770
đảng 27756
tín 27716
hãng 27696
Việc 27682
hàm 27632
ya 27617
trưng 27566
ir@@ 27526
xứ 27493
Úc 27406
cuốn 27351
Mi@@ 27325
át 27321
ền 27282
kê 27272
Viện 27259
.@@ 27219
27 27219
0 27216
ach@@ 27211
ưu 27210
Lạp 27118
Giám 27106
bụng 27088
Phương 27061
đương 27009
mực 27000
lượt 26941
ức 26923
Br@@ 26912
nghi 26860
ni@@ 26764
xuyên 26752
Quang 26746
ay 26745
= 26731
đột 26701
thịt 26610
họa 26595
Phần 26575
phê 26574
Cuộc 26546
2002 26465
na 26461
dữ 26459
mã 26447
un@@ 26389
hủy 26358
mạch 26323
po@@ 26300
ao 26272
un 26218
kính 26216
áng 26210
ết 26206
Đào 26189
thừa 26154
Đậu 26126
Sân 26085
tuy 26072
đạn 26061
Thời 26036
kẻ 26025
Chu 26004
nạn 25992
huấn 25952
no@@ 25900
thoại 25887
hỏi 25880
vừa 25859
Lâm 25837
khóa 25833
trời 25811
Thụy 25777
Phong 25729
Phú 25702
2003 25695
ura 25694
Con 25625
League 25586
6@@ 25536
Qu@@ 25533
Vì 25453
chúa 25427
Định 25421
co@@ 25403
á 25387
ens 25382
ám 25332
ví 25324
Xuân 25263
ngăn 25217
đẩy 25132
giác 25096
ẩm 25076
trừ 25030
loạn 24955
nổ 24883
ang@@ 24861
29 24836
ru@@ 24767
ắc 24683
TCN 24602
thật 24564
od@@ 24536
trải 24507
ồng 24461
San 24452
ắn 24419
chóng 24399
lao 24322
lính 24320
Chí 24278
mi@@ 24275
man 24224
sơ 24175
ạn 24142
mộ 24091
Erebidae 24086
Q@@ 24079
Li@@ 24070
Phật 24052
1990 24032
hạm 23960
g 23957
vọng 23949
diệt 23946
điển 23877
yl@@ 23845
40 23823
Số 23765
thiện 23759
Bar@@ 23720
ốt 23713
ly 23703
cm 23676
ed@@ 23595
og@@ 23485
thao 23421
ối 23412
Tham 23406
sửa 23392
Đội 23386
bước 23305
or 23288
Trương 23225
ấm 23222
nhờ 23198
xin 23152
lai 23149
thú 23125
khắp 23121
ành 23119
Sư 23090
thí 23090
ò 23067
Ho@@ 23058
phù 23053
phút 23050
đem 23043
5@@ 23035
àn 23035
st@@ 23029
tách 23005
trào 22964
ak@@ 22959
Cal@@ 22948
thi@@ 22894
T 22880
Tòa 22869
thụ 22859
cắt 22763
ến 22753
ạc 22741
! 22738
per@@ 22736
chẳng 22719
Nhưng 22709
si@@ 22704
nhiễm 22692
Trái 22684
hương 22683
U 22680
tu 22638
ắm 22637
nguy 22629
bày 22627
ẻ 22560
quý 22558
đỉnh 22512
gửi 22501
lông 22476
Đất 22462
it 22457
chỗ 22444
ha 22418
&#124; 22414
oph@@ 22396
nghe 22382
Sch@@ 22367
kháng 22357
John 22348
Ne@@ 22338
Car@@ 22321
óc 22290
us@@ 22268
b 22261
xâm 22260
ận 22257
anus 22252
hiểu 22243
och@@ 22229
cai 22220
Huyện 22190
oides 22175
cầm 22163
w@@ 22119
sắt 22098
hiểm 22080
v 22064
ena 22048
ngầm 21998
tiện 21993
tàng 21968
Tên 21962
đẹp 21951
Thông 21932
vành 21916
ob@@ 21913
nâng 21911
khắc 21910
liền 21889
hơi 21882
tầm 21874
Nhiều 21867
As@@ 21851
El@@ 21837
liệt 21806
sớm 21804
chỉnh 21792
Ngô 21770
thăm 21732
kênh 21636
ăng 21623
cường 21605
àng 21590
thăng 21520
chảy 21500
ân 21497
tuyệt 21490
ắt 21483
Hưng 21474
tù 21459
1998 21457
ur 21445
par@@ 21436
Tỉnh 21413
ex 21409
xúc 21408
ạ 21364
sáu 21361
Đạo 21340
ine 21305
bão 21299
nửa 21286
dọc 21246
ì 21228
ki@@ 21217
? 21196
1945 21192
màn 21148
tò 21137
đọc 21098
ga 21071
thôn 21051
formula 21031
máu 21014
Về 21012
mưu 21006
Để 21000
quảng 20997
í 20996
vi@@ 20994
quán 20974
Hiện 20940
giản 20911
yr@@ 20909
ov 20891
one 20888
tán 20887
Nếu 20875
ục 20858
tan 20842
ếp 20836
rêu 20826
ut@@ 20809
ng 20803
ơ 20784
vò 20726
Am@@ 20709
Vĩnh 20631
Cor@@ 20608
ka 20607
Hồi 20542
ula 20518
ùng 20518
ne@@ 20491
ưa 20464
chồng 20441
ing 20436
đe 20383
sh@@ 20365
Le@@ 20361
eg@@ 20356
2@@ 20353
ảo 20346
Cách 20310
thẳng 20304
Ai 20302
ồn 20294
le 20280
car@@ 20269
Ngọc 20243
1997 20217
dầu 20217
Ichneumonidae 20214
Đặc 20210
ngược 20171
z 20165
phó 20154
ii 20145
dạy 20118
Phúc 20108
săn 20084
r 20050
oth@@ 20004
Lương 19964
D 19962
onia 19960
bí 19958
truy 19954
ấp 19932
re@@ 19928
ổn 19917
ả 19907
Cục 19843
Hạ 19838
St@@ 19828
2021 19827
dọa 19825
+ 19753
atum 19727
Canada 19716
York 19713
ài 19711
Phân 19705
Tam 19677
av@@ 19659
bậc 19656
Áo 19646
Con@@ 19601
ep@@ 19561
Per@@ 19537
Thủy 19527
thoát 19517
f@@ 19513
video 19504
Quan 19484
1980 19474
um@@ 19471
F 19450
ber@@ 19396
thiệu 19384
tặng 19381
Karnataka 19374
1991 19363
tháp 19347
cậu 19346
pha 19334
bò 19331
eri 19329
Y 19326
chi@@ 19314
ell@@ 19296
Lai 19293
Paris 19253
thước 19226
° 19219
Thống 19196
Phạm 19181
Hành 19151
br@@ 19139
đúng 19114
ara 19109
In@@ 19108
lan 19106
10@@ 19098
bom 19096
gắn 19075
xạ 19050
Mùa 19038
ua 19007
phiếu 18999
Chỉ 18987
âu 18980
ệ 18976
ov@@ 18974
Hymenoptera 18924
ium 18913
é 18894
​ 18871
ki 18869
Loan 18847
nghiêm 18788
V 18777
khoản 18750
trích 18749
va 18747
Hậu 18740
bu@@ 18711
Cá 18685
sẵn 18685
Bi@@ 18684
chó 18655
ã 18629
tehsil 18627
Bo@@ 18610
hút 18606
bãi 18598
tá 18586
X 18559
lo 18553
sung 18539
ất 18524
1996 18508
Rêu 18506
lẫn 18496
Chi@@ 18490
ồi 18483
ton 18477
son 18452
trại 18447
ak 18384
ấu 18379
ép 18366
so@@ 18364
chặn 18359
man@@ 18349
rơi 18318
ala 18307
Tử 18281
ạt 18260
ense 18254
ột 18240
Tự 18235
thù 18207
siêu 18194
đoán 18188
cờ 18151
Saint 18138
gắng 18108
Cập 18098
cựu 18095
mo@@ 18054
tắc 18053
60 18028
tránh 18024
lâm 18006
ci@@ 17984
dây 17975
Nghệ 17966
khiển 17964
lương 17950
1995 17940
bác 17937
cỏ 17925
nắm 17924
Mal@@ 17909
thác 17880
Mông 17873
1975 17867
thượng 17861
Tri@@ 17849
Khánh 17848
Cr@@ 17839
ath@@ 17824
hấp 17804
Hệ 17772
Bài 17734
ing@@ 17734
and@@ 17729
Bồ 17711
ys@@ 17710
lưng 17699
tho@@ 17685
World 17670
1992 17668
1.@@ 17657
Chương 17648
no 17616
phán 17616
hè 17615
Cuối 17608
nhớ 17586
Ki@@ 17558
lu@@ 17548
thánh 17537
ế 17534
ải 17511
tắt 17496
ơi 17451
họp 17433
Phổ 17430
M 17429
Tống 17427
quang 17391
USD 17383
ita 17381
nghỉ 17338
ida 17334
vĩ 17310
đáp 17310
thua 17307
Tôn 17286
eb@@ 17286
ộc 17267
tu@@ 17236
đo 17228
Nghị 17215
trồng 17212
nhánh 17209
Đình 17202
C.@@ 17196
Trịnh 17194
Co@@ 17177
tai 17169
ei 17164
lẽ 17138
ani 17128
sắp 17116
ràng 17108
Linh 17095
oma 17079
Mon@@ 17074
Đầu 17070
quê 17064
món 17055
ụ 17045
ách 17039
1993 17038
Phòng 17038
Pr@@ 17033
bánh 17030
au 17017
nhật 16995
tống 16987
dia 16975
đuổi 16943
khăn 16938
Khoa 16934
tạm 16908
Trận 16882
nhẹ 16875
đuôi 16871
khô 16860
cấm 16852
Trên 16846
vuông 16829
Đối 16827
su@@ 16813
bật 16791
icus 16790
xương 16766
ad 16762
O 16759
ụng 16744
lựa 16737
ngờ 16735
III 16728
Học 16688
phạt 16672
hài 16669
1994 16664
quỹ 16657
Mor@@ 16653
S 16651
nghề 16642
Sinh 16636
au@@ 16618
C. 16583
trữ 16580
se@@ 16562
opsis 16550
côn 16535
ley 16533
nỗ 16519
Er@@ 16485
bề 16469
dậy 16457
Hy@@ 16453
Hóa 16446
eo 16423
Tính 16409
thuyền 16407
Bí 16397
ngân 16390
Or@@ 16371
tis 16369
phức 16358
Phát 16357
cặp 16334
Thể 16308
1970 16286
Chúa 16281
Tiến 16273
chữa 16265
ội 16255
Brasil 16252
dưỡng 16251
sợ 16245
mời 16242
ona 16238
A.@@ 16215
ate 16204
chối 16192
thậm 16167
chùa 16155
giấy 16155
ại 16151
che 16148
ào 16140
hôm 16114
L 16112
la@@ 16098
3@@ 16090
Sc@@ 16075
En@@ 16074
Hợp 16069
úc 16041
đền 16035
cảng 16034
Cup 16030
Câu 16028
des 16015
ch 16005
Nữ 16004
đỡ 15979
khủng 15956
hu@@ 15869
trú 15864
ie 15827
hoá 15820
4@@ 15812
Ả 15795
Triệu 15769
tàn 15757
A. 15704
ik@@ 15686
Na 15678
ngang 15664
Chrysomelidae 15663
nghĩ 15659
vong 15651
bạc 15646
1960 15643
mưa 15624
rắn 15601
khỏe 15596
Cảnh 15577
Cùng 15568
Lực 15546
bé 15543
sub@@ 15543
Điện 15542
Điển 15536
tỉ 15505
hoang 15475
Su@@ 15451
gỗ 15435
1989 15432
game 15413
hùng 15410
thiệt 15407
ides 15403
ter@@ 15381
de@@ 15375
ost@@ 15369
vườn 15359
ầu 15358
mười 15356
ốn 15353
Vân 15334
lui 15320
phường 15314
N 15300
2.@@ 15274
tờ 15267
ỷ 15266
ima 15261
Thu@@ 15244
eus 15223
Vua 15220
Sở 15219
odes 15215
bo@@ 15190
P 15180
đẳng 15179
Thần 15169
gió 15162
Lễ 15148
uống 15144
giảng 15143
ys 15127
ne 15121
folia 15116
“ 15106
gà 15103
ô@@ 15092
tri@@ 15090
ans 15071
miễn 15071
tus 15069
Kiến 15068
khán 15062
ah 15055
Thân 15052
ari@@ 15050
ờ 15045
ou@@ 15043
đua 15039
ặc 15037
200 15019
yc@@ 15009
California 14992
rãi 14982
trứng 14962
đau 14953
Di 14923
Cũng 14922
Thuận 14922
Thạch 14882
” 14871
Thiếu 14867
dãy 14865
Hiến 14856
hiến 14852
Lục 14830
ăm 14828
Sĩ 14804
sch@@ 14804
trăm 14804
Col@@ 14802
Kết 14797
mẽ 14772
cân 14767
sáp 14761
thẩm 14760
bá 14757
Ti@@ 14754
Tấn 14750
ổ 14729
nóng 14722
ầm 14722
ano 14716
chấm 14693
kì 14682
Rập 14671
Se@@ 14671
khi@@ 14652
tic@@ 14640
ãn 14623
H 14620
mũi 14619
dị 14604
80 14589
ti 14561
ist@@ 14553
mon@@ 14549
trốn 14549
ập 14549
tận 14531
tùy 14518
cơn 14509
1988 14488
Nghĩa 14485
mar@@ 14473
ãi 14473
ati@@ 14463
aur@@ 14460
đực 14452
êng 14437
Cầu 14425
Arctiinae 14403
tròn 14387
ich@@ 14378
xu 14374
ữ 14374
hồng 14371
chép 14346
pi@@ 14328
az@@ 14302
võ 14286
ora 14277
chị 14275
Đoàn 14261
Thiến 14259
Ví 14235
ell 14196
Gr@@ 14186
ay@@ 14174
te@@ 14172
gh@@ 14171
J.@@ 14162
hỏa 14161
K 14135
ụt 14134
Đan 14133
lia 14111
góc 14105
ev@@ 14101
pl@@ 14096
Thiết 14081
.. 14064
lan@@ 14063
Cy@@ 14047
Re@@ 14046
ino 14017
chinh 14004
quyển 14004
ày 14000
ừng 13989
Ber@@ 13976
ây 13969
rượu 13943
cu@@ 13927
Tất 13917
Philippines 13902
70 13899
hi 13874
ổng 13857
dium 13843
ol 13827
ĩ 13824
Như 13811
nâu 13800
Tương 13790
Được 13789
ắng 13788
90 13781
lối 13778
soạn 13765
vỏ 13747
ngũ 13741
chắc 13740
lis 13709
ện 13706
te 13701
Lu@@ 13700
ạo 13690
Lo@@ 13685
Là 13680
can 13675
Thường 13662
pa 13662
dày 13649
kia 13643
Tiếng 13641
dặm 13641
ola 13632
ôm 13611
lưới 13590
ộ 13588
thỏa 13586
bảy 13585
kém 13572
hổ 13555
R 13552
0,@@ 13540
To@@ 13536
Hầu 13527
35 13507
ượng 13483
ếu 13479
vịnh 13475
ant@@ 13470
cal@@ 13463
tường 13460
Ni@@ 13419
su 13408
1986 13399
èo 13388
inh 13385
Tần 13383
ngọt 13335
hô 13329
mệnh 13299
G 13290
vỡ 13276
eli@@ 13274
Mac@@ 13270
tụ 13263
bạo 13259
lỗi 13259
Her@@ 13256
45 13247
ật 13247
nhu 13244
web 13244
Sal@@ 13235
Trang 13207
oa 13204
ra@@ 13198
tảng 13197
iss@@ 13196
Sông 13177
san 13176
úy 13170
f 13155
ược 13146
Sao 13135
nig@@ 13104
tấm 13094
hiếm 13091
E 13075
Tuyên 13074
ném 13074
cục 13065
Kar@@ 13055
Tiền 13055
chuồn 13054
đức 13049
Hữu 13043
ạng 13029
ama 13026
Kông 13025
Ac@@ 13024
Lào 13005
Man@@ 12984
inus 12984
trống 12984
Sài 12979
biện 12976
yn@@ 12968
1950 12945
Cả 12933
ser@@ 12920
đám 12915
ạch 12894
1987 12893
đồn 12893
vẽ 12887
ính 12883
eta 12877
phe 12855
thuế 12852
ét 12851
Luật 12847
ưng 12831
Be@@ 12819
Har@@ 12818
hư 12814
Phim 12811
ada 12811
Huy 12808
1985 12796
đoạt 12768
1942 12760
phỏng 12755
Đà 12752
ằng 12736
United 12723
giọng 12715
ion 12685
Toàn 12683
Hoàn 12680
Hungary 12648
cháu 12640
kg 12636
đốt 12630
mong 12626
lạnh 12623
ema 12605
chu@@ 12600
Gu@@ 12592
ard 12591
Po@@ 12590
hòn 12583
nguyện 12580
ba@@ 12576
gai 12575
rối 12572
đợt 12557
xưa 12555
đứa 12535
vẻ 12529
Vòng 12512
nh 12508
ặng 12505
Lộc 12502
Phan 12475
ếm 12465
Ngụy 12462
Elateridae 12461
co 12457
mỏ 12446
sóc 12446
Cung 12439
Viên 12436
sót 12432
Tor@@ 12421
500 12419
1981 12416
ah@@ 12414
én 12413
za 12405
Cu@@ 12400
Mel@@ 12382
Môi 12380
tọa 12380
Nhóm 12371
Tác 12341
Sử 12333
anth@@ 12320
Bur@@ 12318
mạc 12306
1944 12300
áy 12300
giàu 12298
Tào 12296
3.@@ 12295
ắp 12284
1979 12283
điệu 12280
con@@ 12278
Sa 12267
mái 12245
1940 12241
der@@ 12235
1984 12225
Ngoại 12225
Bạch 12216
ói 12205
cừu 12192
ngừng 12183
Te@@ 12182
tám 12181
-@@ 12178
ic 12174
Giao 12163
nhảy 12163
mắc 12162
vợt 12162
Bel@@ 12158
ú 12158
Mer@@ 12153
ộn 12150
chu 12129
cháy 12127
ẫn 12127
Mas@@ 12125
L.@@ 12123
H.@@ 12121
S.@@ 12118
do@@ 12109
vú 12105
hà 12089
Lạc 12088
Quý 12087
1@@ 12085
nhắc 12085
đòi 12079
bar@@ 12073
yp@@ 12066
aw@@ 12065
12@@ 12064
ê@@ 12063
khổ 12054
Gòn 12052
ới 12051
khơi 12046
Cát 12018
he@@ 12009
cự 12001
li 11989
Eu@@ 11984
ứa 11970
Indonesia 11963
khám 11960
dàng 11958
1982 11956
ư 11952
Grand 11949
George 11948
chuỗi 11948
dõi 11940
ề 11940
Séc 11919
khái 11905
khấu 11903
chạm 11886
Sar@@ 11884
iz@@ 11882
Mỗi 11880
’ 11877
ass@@ 11850
ãy 11844
Lúc 11837
De@@ 11835
chặt 11835
Bá 11834
Dự 11820
ố 11819
Ag@@ 11814
vinh 11803
buôn 11787
Me@@ 11775
Sp@@ 11768
1941 11762
sp@@ 11758
tổn 11754
Mc@@ 11752
thiểu 11715
lỵ 11714
32 11706
1983 11689
chăm 11688
Thu 11672
ỗ 11670
olo@@ 11668
Album 11662
cãi 11655
ồ 11651
ius 11644
voi 11637
cr@@ 11632
Ro@@ 11629
bèn 11615
pr@@ 11612
Và 11601
thai 11598
Uy 11595
1972 11593
1943 11588
anum 11555
Tôi 11525
ị 11525
Str@@ 11522
Hương 11503
xo@@ 11497
ệm 11495
ù 11478
thạch 11453
Mo@@ 11446
land 11437
ỉ 11436
tim 11424
Thương 11410
William 11405
Bor@@ 11404
1978 11399
Israel 11395
Pal@@ 11395
lôi 11392
óng 11387
thảm 11377
von 11377
James 11376
Cho 11374
tựa 11365
Ngay 11362
cất 11350
ninh 11331
ō 11331
cột 11320
ong@@ 11319
1930 11316
hứng 11308
uy@@ 11305
1976 11302
ini 11295
Truyền 11288
Cẩm 11286
FC 11286
gen 11268
— 11268
bia 11262
ulata 11259
0@@ 11253
viễn 11251
cướp 11250
tệ 11239
dứt 11220
tri 11207
Bên 11191
oni@@ 11190
xưng 11189
w 11184
bối 11177
L. 11174
cốt 11169
der 11160
anthus 11157
àm 11154
So@@ 11153
aj@@ 11150
chắn 11148
giam 11145
ường 11132
Thư 11131
Cúp 11124
đón 11124
chậm 11113
Phiên 11111
Võ 11097
R.@@ 11096
300 11095
Crambidae 11095
Bu@@ 11059
all@@ 11058
ũng 11054
sàng 11050
Mô 11046
nghèo 11045
48 11017
ìa 10992
ter 10989
ủ 10984
Á@@ 10983
Kr@@ 10980
Du 10976
13@@ 10975
Biển 10971
Mu@@ 10961
è 10961
inc@@ 10942
ổi 10938
dừng 10932
mồi 10929
ota 10924
pes 10916
se 10915
yi 10906
mu@@ 10905
Syria 10904
sẻ 10897
ania 10879
Poly@@ 10862
ụy 10854
ọ 10848
Bal@@ 10846
ox@@ 10837
ể 10832
ngồi 10825
Bọ 10810
gu@@ 10808
65 10804
ãng 10803
ặt 10803
kiêm 10795
Ko@@ 10793
Ver@@ 10786
Pter@@ 10779
1968 10773
thả 10758
trúng 10746
dàn 10739
kèm 10730
ke 10721
pal@@ 10719
ạp 10719
Biên 10716
ần 10710
Hàng 10702
kêu 10690
non 10685
khẳng 10684
1946 10680
Pl@@ 10677
Dưới 10674
Pol@@ 10669
alb@@ 10667
Sel@@ 10652
chở 10650
hung 10644
ực 10643
lái 10641
Trị 10637
răng 10636
Nhạc 10635
Ma@@ 10633
Âm 10633
Vùng 10630
Xuyên 10625
14@@ 10624
TV 10601
cỡ 10592
ềm 10587
Mục 10574
si 10566
oni 10560
Tài 10559
ym@@ 10558
Ser@@ 10554
chín 10554
1973 10552
gr@@ 10546
triết 10533
ex@@ 10526
dư 10524
khuôn 10518
thuê 10516
tan@@ 10512
cụm 10494
huyết 10494
1954 10465
khuyến 10462
sánh 10459
cin@@ 10452
Vinh 10436
Charles 10433
đậu 10426
aph@@ 10424
ill@@ 10412
tần 10406
Luân 10402
ok@@ 10395
ngọn 10392
thải 10385
Tiêu 10382
Mai 10377
ly@@ 10375
tông 10360
Bằng 10358
đồi 10343
pe@@ 10338
Ngân 10327
Trichoptera 10326
tha 10324
Can@@ 10320
ma@@ 10320
1974 10308
ậm 10304
cer@@ 10299
Pi@@ 10289
by 10286
cam 10280
ale 10267
ten@@ 10263
1965 10261
Duy 10260
ari 10257
Limoniidae 10247
M.@@ 10246
Trời 10244
ầy 10243
atr@@ 10228
mảnh 10219
lin@@ 10214
Quyết 10191
Phước 10171
Henry 10167
City 10162
Tu@@ 10161
Windows 10160
hỗn 10156
ek@@ 10144
ọc 10142
km2 10138
Ireland 10135
Dr@@ 10126
ek 10119
M. 10112
Ca 10093
Al 10091
Kể 10079
chứ 10077
lỗ 10073
Campuchia 10071
aya 10062
fer@@ 10053
col@@ 10045
ậu 10045
… 10032
Cer@@ 10023
tiêm 10020
Chân 10017
Thọ 10014
quen 10008
Sy@@ 10007
opo@@ 10007
ệp 10005
gấp 9996
ộng 9984
Tứ 9976
ớt 9973
ếch 9969
4.@@ 9965
đệ 9965
ed 9961
ops 9960
1977 9954
cor@@ 9945
òi 9944
ran@@ 9941
á@@ 9937
Malaysia 9936
ni 9931
Ma 9929
Mạc 9927
1967 9917
ł@@ 9916
tô 9915
West 9913
ann@@ 9902
Mạch 9898
vở 9898
ler 9896
tân 9896
ênh 9894
cel@@ 9890
chìm 9887
mac@@ 9885
ila 9882
tidae 9882
miệng 9879
ó 9875
Hi@@ 9871
sc@@ 9861
ẩu 9852
Hal@@ 9850
sữa 9850
út 9842
Phụ 9841
Dù 9840
ey 9830
min@@ 9823
David 9818
vui 9818
1964 9813
sky 9808
vết 9807
Đảo 9796
ers 9793
Huế 9789
Quyền 9788
eri@@ 9780
ene 9778
Ri@@ 9775
Pro@@ 9772
dã 9772
cản 9747
lang 9745
than 9739
phu 9734
Robert 9725
ranh 9722
1963 9713
38 9711
Đinh 9711
ướng 9699
Cas@@ 9684
Hình 9682
Washington 9681
ỏ 9652
lọt 9632
òm 9618
Is@@ 9613
dinh 9613
ent@@ 9596
33 9590
ō@@ 9588
Tachinidae 9585
vạn 9584
Động 9583
Ukraina 9577
1939 9575
Do@@ 9572
re 9572
Hol@@ 9571
IV 9566
khích 9554
Singapore 9552
ib@@ 9552
phúc 9552
chấn 9536
ce 9534
ơn 9530
F.@@ 9527
Tàu 9526
gen@@ 9526
tam 9524
ọng 9519
awa 9514
uyên 9500
Mexico 9496
be@@ 9494
may 9487
im 9486
Paul 9477
ển 9470
mer@@ 9458
Tình 9452
trạm 9450
Hel@@ 9444
Tak@@ 9444
Hạm 9440
vững 9439
ta@@ 9436
ễu 9436
Vị 9433
ax 9431
Pennsylvania 9426
64 9419
Tar@@ 9416
j 9414
Ab@@ 9403
B.@@ 9403
flav@@ 9395
Kế 9394
Ge@@ 9387
Thứ 9380
úng 9377
Dung 9362
Trọng 9362
Cha 9361
str@@ 9360
Đôn 9355
Đó 9350
1971 9348
ngư 9344
52 9343
ngại 9343
cương 9340
ngợi 9339
end@@ 9337
hẹp 9335
J. 9324
osus 9315
kỵ 9312
đẻ 9310
dr@@ 9306
rom@@ 9299
ệu 9292
36 9290
uc@@ 9287
Đa 9285
òng 9276
Cái 9275
1920 9271
34 9270
ver@@ 9270
if@@ 9259
lũng 9255
hy@@ 9254
van 9248
Ly@@ 9246
1969 9242
thu@@ 9241
Pseud@@ 9228
hoảng 9214
1962 9203
Q 9202
Ak@@ 9200
ven 9182
Tur@@ 9176
Thực 9165
ử 9164
thang 9159
ip@@ 9157
đầm 9155
men 9154
lợn 9146
cú 9130
Nghiên 9124
trầm 9124
1956 9097
ax@@ 9096
màng 9094
ùm 9093
ice 9092
canh 9089
áu 9086
Liêu 9080
thách 9080
ae@@ 9077
Fr@@ 9072
Sa@@ 9068
Illinois 9064
Trưởng 9064
af@@ 9064
cát 9061
tor@@ 9051
kỉ 9049
Chiêu 9048
Du@@ 9048
top 9045
Louis 9038
zi@@ 9037
khuẩn 9026
Lăng 9020
los@@ 9019
cán 9017
Lee 9010
alli 9008
H. 9001
ji 8998
55 8994
ẫm 8990
Quy 8981
oh@@ 8976
uk@@ 8975
1955 8965
ghế 8964
uy 8960
Diễn 8955
ểu 8954
aea 8953
fr@@ 8950
1966 8949
lẻ 8946
Bỉ 8943
ow@@ 8939
thuần 8938
kho 8933
ngàn 8909
ựa 8909
ự 8901
mạn 8898
thép 8886
Vụ 8880
ez@@ 8879
ưỡng 8871
Mes@@ 8869
adi@@ 8857
id 8857
eh@@ 8848
não 8840
Song 8835
ọn 8835
khổng 8834
ùn 8833
mel@@ 8823
Khoảng 8815
sụp 8814
Nông 8809
Hùng 8804
chụp 8799
lỏng 8799
Tề 8795
Bảng 8794
Pe@@ 8794
01 8791
He@@ 8783
Ger@@ 8773
Lãnh 8769
xuân 8766
thầy 8764
47 8757
br 8757
dải 8756
lồ 8755
dis@@ 8749
ri 8749
Đệ 8742
37 8740
trương 8733
duyệt 8731
E.@@ 8716
il 8714
ản 8714
long 8712
om 8712
1,@@ 8707
isti@@ 8705
nhấn 8701
S. 8697
xấu 8694
Tuấn 8691
75 8689
Mat@@ 8689
London 8688
Min@@ 8669
can@@ 8668
già 8666
hiển 8657
ze@@ 8657
chợ 8656
Texas 8650
ile 8646
hy 8643
bụi 8638
Điền 8636
muối 8625
ve 8614
At@@ 8602
1958 8600
por@@ 8596
dường 8592
Ex@@ 8586
Mic@@ 8586
mọc 8569
1947 8559
1936 8556
Cần 8550
Thi@@ 8546
Phil@@ 8545
illa 8541
Com@@ 8537
berg 8537
khung 8536
q@@ 8536
Si@@ 8531
cà 8531
xám 8531
ảng 8530
ok 8514
5.@@ 8513
Vi@@ 8509
Khang 8507
flora 8505
400 8493
Maria 8492
Zealand 8492
esia 8489
ili@@ 8485
Kur@@ 8481
go@@ 8481
dao 8476
ai@@ 8475
vir@@ 8470
ón 8465
gián 8463
yg@@ 8453
sạch 8442
ja 8440
hoan 8437
44 8436
Hiếu 8435
phú 8421
Iran 8420
pop 8419
ash@@ 8415
pan@@ 8409
anime 8397
nhạt 8386
42 8376
Ad@@ 8375
ão 8375
Entertainment 8372
thoái 8372
ửa 8368
ùa 8357
ira 8345
hộp 8338
nòng 8337
nương 8333
Tokyo 8331
49 8329
phi@@ 8328
Vườn 8322
Tĩnh 8316
niềm 8314
ều 8294
ere 8293
Ste@@ 8288
lạ 8281
đập 8281
× 8279
ey@@ 8278
chuột 8276
sợi 8274
Kun@@ 8272
thám 8271
com@@ 8266
Gar@@ 8265
khu@@ 8264
Nhất 8261
1961 8255
ud@@ 8250
Michael 8249
du@@ 8244
1949 8239
1959 8239
chăn 8237
oxy 8237
Hyp@@ 8236
lọc 8232
nét 8223
thọ 8219
tiềm 8213
Thomas 8195
CP 8192
èn 8188
tứ 8183
mê 8173
Iowa 8172
act@@ 8169
ọt 8169
Val@@ 8163
tháo 8159
tung 8157
Argentina 8155
46 8151
Dakota 8149
Bệnh 8145
ko 8144
viêm 8144
ngực 8141
Xương 8140
Nghi 8136
ane 8136
ngủ 8130
sưu 8125
Vệ 8123
nghìn 8122
Ohio 8119
hào 8117
hang 8110
usa 8109
ner 8106
xoay 8106
Andr@@ 8104
Thiệu 8099
$ 8088
Huệ 8082
đi@@ 8081
Giống 8080
Ur@@ 8080
sơn 8074
ato 8072
elia 8070
Dịch 8066
bột 8066
uli@@ 8065
Giai 8063
ứ 8056
del 8049
Hoài 8048
Billboard 8044
ev 8043
Trich@@ 8042
son@@ 8030
Ư@@ 8030
tel@@ 8029
dae 8021
51 8019
ỏi 8017
chờ 8012
P. 8007
1957 8003
Ngôi 8000
ty@@ 7993
ễn 7993
Quần 7988
Sem@@ 7976
đàm 7970
Quản 7969
ơm 7967
1953 7965
For@@ 7951
México 7943
sus 7943
mi 7936
andra 7933
ựu 7931
UEFA 7921
You 7920
bọc 7914
lắp 7909
Plat@@ 7907
ìn 7898
ori@@ 7883
Tiếp 7873
me@@ 7870
Đỗ 7867
Tro@@ 7862
Scotland 7857
cưới 7857
dược 7854
khôi 7853
ite 7846
í@@ 7846
tig@@ 7844
trần 7844
amb@@ 7842
Mag@@ 7837
hâm 7834
Sách 7832
č@@ 7832
yên 7828
bấy 7826
Cl@@ 7824
mat@@ 7820
xi@@ 7812
ou 7809
virus 7808
protein 7806
cul@@ 7804
amp@@ 7802
lăng 7797
1938 7796
hạnh 7794
yl 7794
trông 7789
lar@@ 7787
mèo 7782
unc@@ 7781
E. 7778
dâng 7775
ưởng 7773
den 7772
thợ 7772
điệp 7772
sin@@ 7766
mát 7764
2,@@ 7763
har@@ 7761
Huyền 7758
sil@@ 7754
ami 7749
orum 7749
Viễn 7747
1948 7741
Cre@@ 7740
Đơn 7734
bi 7729
Môn 7721
1937 7716
Thuật 7712
bè 7709
Tô 7708
ặn 7704
53 7702
ir 7701
thiệp 7696
54 7693
ủi 7690
War@@ 7685
hoà 7672
mai 7670
mãn 7668
escens 7666
Chiếc 7663
hắn 7656
Hem@@ 7650
Cuba 7649
My@@ 7648
bạch 7648
chút 7647
trộn 7647
giận 7641
Mẹ 7640
Park 7638
ỵ 7636
sen 7635
1951 7631
43 7628
Mur@@ 7616
Huấn 7615
xưởng 7615
bọn 7608
đáy 7608
les 7603
39 7600
ruột 7600
Tướng 7596
Pot@@ 7591
oi 7583
dáng 7582
Music 7581
P.@@ 7579
Video 7577
Cửu 7576
khen 7576
thận 7575
nô 7570
00 7566
ville 7566
20@@ 7557
est@@ 7556
hồn 7547
ớ 7540
hầm 7532
France 7531
Đặng 7526
Nguồn 7521
mươi 7519
South 7518
Còn 7509
ry@@ 7505
Lợi 7501
cap@@ 7501
lân 7500
Myr@@ 7498
nhượng 7497
icum 7494
Des@@ 7486
Sil@@ 7484
Khắc 7479
ons 7474
for 7473
06 7470
Phục 7469
72 7467
1952 7463
tóc 7460
Kỹ 7458
41 7454
Os@@ 7453
ye 7453
Chung 7451
Sen@@ 7451
ung@@ 7447
Báo 7446
khoáng 7445
Ros@@ 7442
me 7440
Phủ 7434
Cảng 7432
pp@@ 7431
7,@@ 7423
pu@@ 7419
Cat@@ 7404
idaceae 7401
bùng 7396
phus 7396
l. 7395
Gal@@ 7392
mơ 7392
ore 7386
ub@@ 7385
Latinh 7383
ngo@@ 7380
ros@@ 7379
ỗi 7376
eria 7375
nhuận 7373
ro 7372
đốm 7371
khuyên 7370
Anth@@ 7368
Thừa 7367
lô 7366
úp 7361
ref 7360
1934 7357
Go@@ 7355
1929 7351
tica 7351
Hor@@ 7349
hưu 7342
Sam@@ 7341
dịp 7339
Cop@@ 7328
are 7326
Nước 7321
ngập 7321
phẳng 7320
ngự 7315
1935 7310
Chánh 7304
đợi 7301
7.@@ 7297
Kan@@ 7297
ot 7294
6.@@ 7293
nhị 7288
éo 7280
Tâm 7278
Phù 7260
Cây 7257
ese 7257
Richard 7256
chư 7251
asi@@ 7245
phy@@ 7244
abr@@ 7241
Sol@@ 7240
kín 7233
lồng 7223
Internet 7221
uta 7215
0.000 7214
Eri@@ 7211
hề 7206
aga 7200
iv@@ 7200
bre@@ 7198
lãm 7196
Máy 7195
lưỡng 7195
ole@@ 7188
tĩnh 7183
Ngũ 7181
lật 7180
chàng 7176
6,@@ 7173
rot@@ 7167
thẻ 7167
căng 7165
of@@ 7165
05 7163
58 7163
ler@@ 7159
Berlin 7153
ali@@ 7151
ă@@ 7148
Martin 7146
ford 7144
phẫu 7141
uyển 7137
02 7134
Ta@@ 7130
56 7129
Quá 7126
57 7113
Hir@@ 7111
Lao 7102
ase 7100
und@@ 7098
Hơn 7097
AS@@ 7095
Ô 7092
B. 7090
Bol@@ 7089
Mad@@ 7087
ót 7084
pul@@ 7076
den@@ 7071
tuyết 7069
Bang 7064
Giới 7064
rã 7064
ếng 7064
men@@ 7063
Huân 7062
chôn 7062
King 7058
Mus@@ 7047
long@@ 7046
opus 7038
th 7030
Thắng 7028
Tường 7028
loc@@ 7022
bl@@ 7019
zy@@ 7015
Nhi@@ 7014
xong 7012
Asilidae 7011
giây 7010
đèn 7007
thus 7005
sk 7004
Bl@@ 6999
1931 6996
Pan@@ 6989
agn@@ 6988
ge@@ 6987
Mộc 6985
mượn 6978
ff@@ 6974
thr@@ 6974
Tipula 6968
Wales 6966
Manchester 6964
1914 6962
D. 6952
Cos@@ 6950
aki 6949
ā@@ 6949
Kho@@ 6946
óm 6945
ghép 6942
ó@@ 6942
1918 6936
Ang@@ 6934
ũ 6929
ớn 6928
é@@ 6927
Hu@@ 6919
phila 6916
1900 6904
yo@@ 6904
vit@@ 6900
CD 6899
lúa 6895
Lập 6894
62 6892
nề 6891
Ly 6890
rau 6885
Por@@ 6881
thịnh 6879
Hàm 6865
age 6864
sạn 6864
mag@@ 6863
Sph@@ 6861
Ba@@ 6859
Minnesota 6859
ens@@ 6856
Mol@@ 6843
tươi 6843
Phái 6834
Edward 6830
lằn 6827
tar@@ 6826
Tạng 6822
nạp 6820
eti@@ 6817
gon 6813
Mil@@ 6812
rock 6808
El 6805
ạm 6803
1912 6802
Kansas 6797
nỗi 6796
arg@@ 6794
Cải 6792
cổng 6790
dâm 6789
vé 6786
W 6784
Los 6782
anti@@ 6774
Hi 6773
bút 6769
gỡ 6767
No@@ 6766
nia 6765
Sm. 6762
ator 6762
One 6761
nấm 6758
iy@@ 6756
dò 6754
huyền 6753
Siêu 6747
Ấu 6734
for@@ 6729
ine@@ 6726
Love 6725
Dol@@ 6718
Trà 6718
Trăng 6707
ảy 6706
1891 6704
ngã 6697
lặp 6696
ẩy 6693
Kitô 6692
Wil@@ 6691
03 6684
63 6682
09 6680
Cam@@ 6675
sườn 6675
bor@@ 6674
cus 6674
nấu 6672
Ram@@ 6671
mỹ 6671
Thập 6670
tuân 6669
m. 6667
ug@@ 6667
punc@@ 6661
kịp 6660
io 6658
ela 6657
tes 6657
Sản 6653
Kam@@ 6652
ide 6651
Mak@@ 6637
Ter@@ 6633
Bre@@ 6626
ỡ 6625
ảm 6622
Jean 6616
95 6614
điền 6612
08 6611
lam 6611
Bùi 6606
K. 6604
lò 6595
Diên 6589
sur 6589
axit 6582
600 6581
nhãn 6579
nhịp 6573
fl@@ 6572
lum 6569
ngưỡng 6567
Ru@@ 6565
Dòng 6560
khứ 6560
yth@@ 6560
Lượng 6558
1933 6557
mấy 6556
Bị 6555
1922 6553
Thạnh 6553
1917 6552
gợi 6549
Hạt 6547
Neuroptera 6545
ny@@ 6541
š@@ 6541
Lữ 6538
eng@@ 6536
vang 6535
ess@@ 6530
ộm 6529
W.@@ 6527
aka 6521
1913 6519
04 6514
tur@@ 6514
poly@@ 6513
Del@@ 6511
lệch 6511
hal@@ 6510
aci@@ 6509
Moskva 6508
sàn 6508
ster@@ 6503
thung 6503
don@@ 6501
Friedrich 6497
treo 6490
Tháp 6487
ft 6485
urus 6477
uch@@ 6469
1932 6459
1924 6457
ac 6451
Joseph 6448
oz@@ 6446
bê 6441
rô 6435
Dor@@ 6431
8,@@ 6426
nàng 6425
gan 6420
Hydro@@ 6419
1925 6418
Iraq 6414
ova 6414
Vô 6412
mor@@ 6409
Scarabaeidae 6402
củng 6402
ent 6400
ãnh 6399
lành 6394
1908 6393
Đăng 6387
sk@@ 6386
thuẫn 6383
đáo 6383
Kỷ 6374
cas@@ 6374
Lepto@@ 6373
Khu@@ 6366
inch 6364
lầm 6364
mây 6360
07 6354
Tuần 6354
ito 6353
Rob@@ 6352
mer 6351
bồi 6349
bền 6348
Smith 6343
nêu 6343
tin@@ 6343
Bất 6342
bơi 6340
dời 6340
thằn 6338
dỡ 6336
85 6326
Jackson 6322
1919 6319
ahalli 6316
đậm 6315
J 6309
đựng 6309
Nag@@ 6308
Trinh 6304
astr@@ 6304
ve@@ 6303
I. 6299
Tùng 6296
nhầm 6295
Ol@@ 6290
tro@@ 6287
Cực 6281
1910 6279
1916 6279
59 6278
ts 6274
Kal@@ 6269
Le 6265
Pakistan 6265
sa@@ 6265
Phường 6263
1905 6259
điêu 6255
1911 6254
T.@@ 6252
cong 6251
uyết 6236
ợ 6235
Mao 6234
ịch 6232
Thơ 6228
ali 6223
St. 6222
bur@@ 6220
lắng 6220
G.@@ 6218
San@@ 6217
ọi 6215
pin@@ 6213
Cà 6212
Colombia 6208
tang 6208
Tom@@ 6207
antha 6203
Quả 6201
manga 6199
ậy 6194
ech@@ 6192
field 6190
Brazil 6184
Top 6181
Phía 6180
Bayern 6179
yd@@ 6176
Hoạt 6175
3,@@ 6174
xứng 6173
sy@@ 6171
Micro@@ 6168
Loire 6163
Lind@@ 6162
Peter 6154
ươ@@ 6154
F. 6150
suối 6147
Vịnh 6142
Aran@@ 6140
Brach@@ 6140
150 6139
quát 6139
sis 6138
ori 6137
K.@@ 6135
Gor@@ 6133
ation 6133
Kính 6132
ỗng 6131
Alpes 6123
Hiệu 6121
Met@@ 6120
Lit@@ 6119
USS 6118
lãng 6116
ời 6115
ẫy 6110
mãi 6109
D.@@ 6106
b. 6106
Tu 6098
800 6084
8.@@ 6080
gl@@ 6080
ins@@ 6076
mì 6075
xóa 6071
Đôi 6071
Vạn 6070
don 6063
nở 6063
hỏng 6061
lidae 6059
ko@@ 6058
quy@@ 6058
1927 6055
isa 6055
Heter@@ 6049
ami@@ 6048
Tế 6046
66 6042
La@@ 6031
Dar@@ 6029
eli 6029
sổ 6029
Afghanistan 6027
Thiện 6027
1923 6026
ND 6021
ast@@ 6020
soái 6020
Es@@ 6017
Mah@@ 6016
Sten@@ 6014
đúc 6014
the@@ 6012
phế 6011
her@@ 6009
61 6008
Müll 6007
chẽ 6004
aris 6002
q 6002
ùi 6002
Missouri 5995
Ry@@ 5992
tật 5992
2022 5991
bic@@ 5989
cạn 5984
Lam 5983
Men@@ 5982
tii 5980
ach 5977
Giá 5976
philus 5975
Xi@@ 5974
Cương 5973
R. 5972
73 5971
Bối 5971
Me 5963
xóm 5962
Ke@@ 5961
1906 5960
gói 5955
Man 5954
bium 5954
leo 5953
sia 5953
1928 5949
76 5949
77 5947
uma 5946
orus 5942
buồn 5935
Lep@@ 5932
9.@@ 5926
5,@@ 5921
da@@ 5919
88 5918
ằm 5915
Schl@@ 5913
táng 5910
ham 5909
TV@@ 5908
ha@@ 5908
ướt 5908
phun 5902
Chu@@ 5900
ind@@ 5898
mảng 5898
alia 5897
àu 5896
Ky@@ 5891
aus@@ 5887
71 5885
9,@@ 5884
ớp 5880
sti@@ 5876
Baker 5873
fus@@ 5872
Venezuela 5871
Phyl@@ 5870
Australia 5866
Bulbophyllum 5864
67 5857
ỳ 5855
Hướng 5853
nhắm 5849
sim@@ 5849
ard@@ 5848
69 5844
ette 5843
sừng 5839
Đo@@ 5839
pic@@ 5837
hr@@ 5836
ỉnh 5836
68 5835
Kat@@ 5831
dẹp 5831
hoãn 5831
Mord@@ 5820
cho@@ 5820
ick@@ 5819
ngh@@ 5818
Tinh 5816
quái 5815
Tin 5812
ie@@ 5810
ski 5810
ts@@ 5810
Nẵng 5805
ifolia 5802
DNA 5798
v.@@ 5796
formis 5795
lam@@ 5794
Bas@@ 5792
Cói 5792
Mật 5789
enia 5789
Chấp 5788
mừng 5788
hứa 5784
ophyllum 5784
Olympic 5781
chuông 5781
Ân 5781
Tú 5778
Bố 5776
ky 5775
trinh 5773
Hook@@ 5769
De 5766
giỏi 5765
sul@@ 5765
ularis 5765
nhựa 5764
ul 5763
Nho 5760
Far@@ 5757
Super 5757
chào 5756
cống 5756
Cle@@ 5747
ẹt 5747
Pas@@ 5744
osum 5743
Meg@@ 5741
ấc 5741
ýt 5740
79 5738
nợ 5738
ony@@ 5738
Mở 5737
Simon 5737
tata 5734
Han@@ 5728
khía 5727
Microsoft 5725
túi 5721
Thiền 5719
cl@@ 5719
Mary 5710
Ap@@ 5709
nhì 5709
Ath@@ 5708
ello 5708
ũi 5708
ber 5703
86 5699
Kol@@ 5698
đỗ 5695
ace@@ 5693
đói 5692
My 5691
74 5690
Đỏ 5690
hạc 5687
kov 5687
Lệ 5686
Mãn 5686
bữa 5684
Guinea 5683
folium 5683
mann 5679
Nar@@ 5677
Angeles 5675
quét 5675
ren@@ 5675
Char@@ 5673
odon 5673
98 5672
eci@@ 5671
Thục 5670
Apidae 5668
mal@@ 5668
ophyl@@ 5668
ưỡi 5666
yph@@ 5665
bon 5662
acid 5661
Điểm 5659
Sáng 5658
uyện 5655
Mit@@ 5653
Der@@ 5652
Sak@@ 5652
Gen@@ 5651
eni@@ 5651
Lim@@ 5649
Vol@@ 5647
đâu 5646
Ham@@ 5644
lep@@ 5642
Oc@@ 5633
.f. 5630
Av@@ 5630
1926 5629
ab 5629
eum 5627
Lỗ 5625
84 5619
bốc 5619
thô 5618
ut 5615
Salticidae 5614
phấn 5614
mùi 5609
lừa 5607
Est 5606
longi@@ 5605
wa 5605
gạo 5603
Thất 5599
ạnh 5594
gar@@ 5593
1909 5592
enn@@ 5591
Trân 5588
yan@@ 5588
ulus 5586
Đi@@ 5586
1921 5583
Chiều 5583
otus 5581
Hot 5578
ich 5576
Tín 5574
otis 5573
4,@@ 5570
ắk 5569
trâu 5568
mỏng 5561
Cap@@ 5558
yst@@ 5558
Fre@@ 5554
ary 5548
thỉnh 5548
Santa 5547
Thịnh 5545
optera 5541
1895 5537
Il@@ 5534
bây 5532
õ 5532
anensis 5531
ten 5531
Khai 5530
Quỳnh 5529
ani@@ 5528
Kor@@ 5520
sọc 5519
tal@@ 5519
Cấp 5511
súc 5510
v. 5504
Cụm 5502
ian 5502
hằng 5498
Ha@@ 5497
T. 5494
od 5494
sốt 5492
Chile 5491
Lyc@@ 5491
cúp 5491
Seoul 5490
Francisco 5488
Qua 5484
1915 5483
Hitler 5483
ịt 5483
Florida 5482
Đ 5482
dom@@ 5475
huy@@ 5475
thôi 5474
nhọn 5473
Cam 5470
ush@@ 5469
kar@@ 5465
ish@@ 5463
ứt 5460
hẹn 5458
tốn 5454
kiên 5448
up@@ 5448
Nak@@ 5446
Khí 5445
cat@@ 5444
đòn 5444
Division 5443
Nguyệt 5443
rạp 5443
iro 5442
Thay 5441
tỏa 5441
Serbia 5440
trich@@ 5439
Lư 5438
chục 5435
Nov@@ 5434
Trạch 5434
phiến 5432
rạn 5432
osp@@ 5430
Tối 5429
tràn 5428
uyền 5428
dội 5423
Ay@@ 5419
burg 5419
ỉ@@ 5417
lõi 5415
nồng 5411
Quỹ 5409
ẳng 5405
Loại 5403
Lin@@ 5402
Ottoman 5400
xu@@ 5400
bông 5399
99 5398
Mười 5398
Virginia 5398
ellus 5397
sel@@ 5396
off 5395
82 5393
ểm 5393
ễ 5390
81 5386
Dicran@@ 5384
Football 5374
st 5369
Pa@@ 5366
FA 5361
tum 5359
Not@@ 5355
vịt 5355
òn 5355
ous 5352
78 5350
Camp@@ 5349
Champions 5349
hẳn 5345
Bạc 5344
Mark 5344
didae 5341
phổi 5340
sen@@ 5340
len@@ 5339
lão 5338
ruộng 5338
Xuất 5337
dốc 5335
oto 5331
inae 5330
Thi 5327
eph@@ 5327
Lasi@@ 5325
mìn 5325
ìm 5325
xích 5319
Ben@@ 5318
Sải 5318
ửu 5318
Mẫu 5316
ger@@ 5315
túc 5314
ằn 5314
83 5313
Nhờ 5313
ain@@ 5312
ps 5311
trượt 5307
duệ 5299
luân 5299
Eur@@ 5298
inia 5296
bul@@ 5295
Roma 5293
mòn 5293
osper@@ 5291
Euc@@ 5285
Jo@@ 5285
Google 5284
gọn 5284
khẩn 5284
mạo 5281
Em@@ 5280
nút 5279
ř@@ 5279
Dũng 5275
be 5275
Khmer 5274
Az@@ 5270
liều 5268
oshi 5263
Cro@@ 5262
Đời 5262
Uy@@ 5258
pil@@ 5255
93 5246
Lang 5246
Lâu 5245
sii 5242
Arg@@ 5241
onidae 5237
Bulgaria 5236
Thăng 5236
cá@@ 5235
xướng 5234
FIFA 5233
acea 5232
asc@@ 5228
Armenia 5220
Vi 5216
pol@@ 5216
char@@ 5213
ick 5212
iana 5210
ilis 5209
Kiều 5208
apo@@ 5208
Astragalus 5207
ect@@ 5207
Diego 5202
Disney 5200
România 5200
Sang 5196
Hawaii 5194
Kiểm 5193
ười 5191
Căn 5190
huống 5190
oy@@ 5188
ant 5187
5.000 5184
ticus 5183
Đĩa 5182
CH@@ 5181
cy@@ 5181
he 5179
đứt 5178
Khải 5175
We@@ 5175
Karl 5168
cối 5168
000 5167
rồng 5167
# 5164
vời 5163
ừa 5163
91 5161
ric@@ 5157
vil@@ 5155
inn@@ 5150
Oscar 5146
mờ 5146
Don 5144
hưng 5143
lạm 5143
ans@@ 5139
Mạng 5138
Trò 5136
béo 5135
iti@@ 5135
1903 5132
ín 5132
Binh 5131
eng 5130
COVID 5129
Tăng 5128
bội 5127
pos@@ 5123
Hổ 5118
Cử 5117
Tùy 5116
ci 5115
dắt 5114
tre 5114
92 5113
ẻo 5109
Ec@@ 5108
lat@@ 5107
Viết 5106
North 5099
duyên 5099
Mont@@ 5098
Tran@@ 5097
sal@@ 5092
Alexander 5090
Ruồi 5090
1904 5087
estr@@ 5087
móng 5084
tric@@ 5083
ge 5081
Khởi 5077
cậy 5076
radar 5075
dic@@ 5074
per 5072
ist 5071
ik 5070
97 5069
Núi 5068
Dryopteridaceae 5067
quỳ 5067
ther@@ 5067
und 5067
96 5065
Black 5064
24@@ 5063
Lam@@ 5062
sol@@ 5060
làn 5059
lũy 5050
ashi 5045
Wisconsin 5043
G. 5041
bas@@ 5040
Kiên 5039
lũ 5037
elli 5035
Ty@@ 5033
otrich@@ 5033
nộp 5032
Rom@@ 5031
Gre@@ 5030
alus 5029
cac@@ 5028
tic 5028
Bến 5027
Gmina 5027
Van 5024
1907 5022
khuyết 5022
Phố 5021
aha 5021
Khê 5019
hoại 5018
Nintendo 5017
vải 5017
Wal@@ 5015
chuyền 5013
Kir@@ 5012
VI 5005
16@@ 5003
Lần 5003
dê 5003
gương 5001
tom@@ 5001
Victoria 5000
Dendro@@ 4998
tản 4996
Ứng 4996
eth@@ 4995
nus 4993
1898 4992
nghi@@ 4992
anthes 4991
Sin@@ 4987
ình 4987
Vàng 4980
ign@@ 4979
Trình 4975
Chế 4973
Polypodiaceae 4973
mốc 4971
Thelypter@@ 4969
Làng 4968
Tỷ 4968
hãm 4968
ih@@ 4967
cur@@ 4966
oe 4966
Ka@@ 4964
phia 4963
ngẫu 4962
Thẩm 4961
1000 4958
mad@@ 4958
zia 4955
Un@@ 4954
ear@@ 4954
una 4954
Doanh 4952
lin 4951
tím 4948
OS 4947
Peru 4944
Harry 4943
Z 4943
obi@@ 4941
SS 4940
chil@@ 4939
Py@@ 4929
International 4928
mâu 4926
Tuyến 4922
Cyr@@ 4916
ỹ 4915
1.000 4908
atha 4908
val@@ 4908
87 4904
89 4901
giấu 4898
1897 4897
Yam@@ 4896
700 4894
dính 4894
cia 4893
ặm 4892
15@@ 4891
Na@@ 4891
Nigeria 4891
tiệc 4891
It 4889
pro@@ 4889
ele 4886
W. 4883
ago 4883
59,5 4882
1899 4880
1902 4877
múa 4877
ilus 4873
kin 4873
Les@@ 4872
nhiếp 4871
nom@@ 4869
Madrid 4867
all 4867
120 4862
Serie 4861
đà 4861
Elizabeth 4859
94 4850
cúng 4850
bit 4849
Aquitaine 4847
uti@@ 4847
Linyphiidae 4845
Prot@@ 4845
trừng 4842
Trí 4841
ngai 4841
Trấn 4839
Ran@@ 4836
ker 4834
túy 4834
ngón 4829
Sim@@ 4826
nghịch 4826
lưỡi 4823
micro@@ 4818
uki 4818
Quách 4816
Theri@@ 4815
Tả 4813
lati@@ 4810
uyến 4807
Bách 4806
Mạnh 4804
tê 4804
icola 4803
ém 4803
vay 4801
Ecuador 4793
Phùng 4790
bến 4785
ū@@ 4785
que 4784
Bảy 4783
idi@@ 4783
kiệt 4783
yum 4782
Xa 4781
mù 4781
Premier 4779
Đồ 4778
Chùa 4777
On@@ 4776
gi 4776
kil@@ 4775
tis@@ 4774
ton@@ 4774
Ú@@ 4773
Air 4769
ẽ 4766
1896 4765
Tháo 4765
ichi 4763
ocarpus 4763
Tour 4758
fi@@ 4757
asa 4754
Quán 4753
Pen@@ 4752
ling 4751
att@@ 4745
Hoằng 4744
mầm 4744
Bát 4743
Ale@@ 4740
tùng 4737
aen@@ 4734
mỡ 4732
Hier@@ 4731
guitar 4731
eur@@ 4730
đâm 4730
Bão 4729
khỉ 4728
Carl 4726
DC 4725
ylo@@ 4722
* 4721
Khi@@ 4720
Hung 4719
Giả 4717
entr@@ 4714
Dic@@ 4713
kĩ 4713
tơ 4709
Milan 4707
ca@@ 4707
eni 4707
ho 4707
Nói 4706
aul@@ 4705
ome 4705
oria 4705
Tai 4702
chiêu 4699
Lincoln 4696
oan 4694
Chất 4692
fasci@@ 4691
Mir@@ 4690
ful@@ 4690
Hỏa 4685
.000 4684
Ả@@ 4684
ừ 4684
arius 4683
Chelsea 4682
Ca@@ 4680
Ku@@ 4678
ố@@ 4678
ke@@ 4676
1901 4672
Chợ 4669
lầy 4665
tiaceae 4664
Pat@@ 4663
hối 4663
Rad@@ 4660
Bởi 4657
ocer@@ 4654
Tưởng 4652
ngừa 4652
Bốn 4645
des@@ 4645
rào 4645
Kon@@ 4644
anc@@ 4644
Records 4640
lây 4638
~ 4635
viếng 4633
Vận 4627
Ga 4624
Đạt 4620
Johnson 4619
ici@@ 4617
Nor@@ 4612
Đốc 4612
10.@@ 4611
bal@@ 4609
aca 4608
Mộ 4606
Xem 4605
lườn 4602
nhậm 4601
ista 4600
chốt 4598
Ir@@ 4597
ecia 4594
him 4591
Ô@@ 4591
Red 4588
In 4587
iki 4586
nghiêng 4583
nhạy 4582
ịnh 4580
hin@@ 4579
thở 4579
Bán 4578
1,5 4577
dũng 4577
fur@@ 4577
ngộ 4577
Diệp 4576
res@@ 4576
Onthophagus 4574
hảo 4573
ny 4568
chừng 4567
osidae 4566
1894 4563
Ç@@ 4562
Sav@@ 4560
itz 4559
elle 4558
Chlor@@ 4557
Biểu 4552
ee 4552
trật 4552
Ngh@@ 4551
vic@@ 4551
pe 4550
đạp 4549
Arkansas 4548
Fl@@ 4547
Vật 4545
ure 4543
with 4539
ze 4539
trăng 4536
bù 4535
hir@@ 4535
ava 4533
miếu 4533
DVD 4532
din@@ 4532
rễ 4530
ềng 4526
Town 4525
antes 4525
Chrys@@ 4523
bớt 4523
uk 4521
Stalin 4520
dec@@ 4518
ern@@ 4517
Dav@@ 4514
ati 4513
xá 4509
đắc 4507
Hil@@ 4501
tấu 4501
name 4500
ẵn 4499
DC. 4497
ger 4497
nhi 4496
rác 4494
cuồng 4490
uca 4488
laceae 4487
dii 4485
tị 4484
Đề 4483
Michigan 4480
els 4480
use 4480
Italia 4479
Occitanie 4479
sói 4476
Ban@@ 4475
Ple@@ 4475
go 4475
khớp 4471
Chuẩn 4469
Che@@ 4466
Tuổi 4464
ven@@ 4464
Cur@@ 4463
Frank 4461
Lạt 4460
So 4460
osia 4459
Hạng 4458
ươn 4454
ika 4452
Liverpool 4450
ack 4448
ap 4448
Game 4447
Ul@@ 4447
thỏ 4441
Rhône 4440
vel@@ 4439
oxide 4437
uz@@ 4437
Đánh 4435
aer@@ 4434
bol@@ 4433
aly@@ 4432
gốm 4426
esi 4425
Khối 4422
Arthur 4420
250 4418
Pap@@ 4417
Nobel 4414
arc@@ 4413
odi@@ 4411
phyllum 4411
sút 4410
triệt 4410
Độc 4410
Tetr@@ 4409
dion 4409
ớ@@ 4409
móc 4407
icul@@ 4404
bin 4403
hum@@ 4401
Euphorbia 4400
rửa 4399
Túc 4398
Tiết 4397
Tri 4397
tảo 4396
UB@@ 4395
anga 4395
bát 4394
otr@@ 4394
ust@@ 4394
alm@@ 4391
Huỳnh 4390
enti@@ 4390
gạch 4390
Cấu 4389
mặn 4389
đắp 4389
đeo 4388
Ox@@ 4386
hôi 4386
Sor@@ 4385
Mậu 4383
Taylor 4381
trà 4381
Pyr@@ 4379
isi@@ 4379
õm 4379
ụi 4379
etta 4378
mũ 4377
Bác 4369
YouTube 4369
ole 4369
ker@@ 4368
adi 4365
mes@@ 4363
illar@@ 4362
Croatia 4360
0.@@ 4358
Đền 4354
Cỏ 4348
dạ 4346
gấu 4345
vạch 4343
CL@@ 4342
ovich 4341
Tel@@ 4339
Je@@ 4336
Í@@ 4333
iidae 4332
Sw@@ 4329
Giữa 4327
Gray 4327
Lor@@ 4324
not@@ 4323
Ep@@ 4319
Mường 4319
eu@@ 4319
khói 4317
Nouvelle 4315
Năng 4311
ów 4310
ellidae 4309
1889 4308
Gần 4307
cài 4306
Phản 4305
est 4305
ond@@ 4305
oga 4304
pel@@ 4301
via 4301
ain 4299
opter@@ 4299
Sur@@ 4298
Brom@@ 4296
Sul@@ 4295
1890 4294
cóc 4293
xen 4293
ụn 4291
eda 4290
Pit@@ 4289
bàng 4289
illi@@ 4288
jeunea 4288
wood 4288
phylla 4286
macro@@ 4285
Nav@@ 4283
Dis@@ 4279
Sho@@ 4277
Lept@@ 4275
Lĩnh 4274
ẽ@@ 4273
thơm 4271
war@@ 4270
ates 4269
mé@@ 4260
Đen 4260
Columbia 4256
Maz@@ 4256
dor@@ 4256
lùi 4256
pennis 4254
Times 4253
rẽ 4252
Bàn 4250
Bro@@ 4248
Real 4247
đãi 4247
giáng 4246
iri 4243
V. 4236
Da@@ 4235
ophora 4235
trop@@ 4235
American 4233
quỷ 4232
Jack 4225
ce@@ 4223
Slovakia 4222
omyia 4219
umi 4218
vượng 4218
carbon 4217
say 4216
HĐ@@ 4214
thùy 4214
Pre@@ 4210
var@@ 4210
Mot@@ 4209
TP 4209
bách 4207
Càn 4206
ein@@ 4206
Rô@@ 4205
Star 4202
vân 4200
Pav@@ 4196
anes 4196
ngụ 4194
Hay@@ 4192
ini@@ 4192
ím 4191
Lã 4188
Pháo 4188
Mim@@ 4187
yo 4185
Pel@@ 4184
Shin@@ 4183
ef@@ 4182
oglossum 4181
Don@@ 4178
Ash@@ 4176
PC 4175
bel@@ 4175
23@@ 4169
iko 4168
Halictidae 4167
gin@@ 4167
amo@@ 4165
vẹn 4162
Jones 4161
Leuc@@ 4161
ites 4161
ire 4160
Apple 4157
khánh 4157
del@@ 4156
Kit@@ 4155
je@@ 4155
Thích 4154
onom@@ 4154
Rhynch@@ 4151
bil@@ 4149
ngọc 4149
HMS 4148
ceph@@ 4147
giật 4147
bó 4145
ks 4144
lor@@ 4142
Carex 4138
nảy 4138
xít 4136
Khả 4135
Luc@@ 4134
muộn 4134
vari@@ 4133
trôi 4132
3D 4128
Molo@@ 4126
Orth@@ 4126
ales 4123
Benth. 4122
QĐ 4121
Hãn 4120
Hiền 4119
Hãng 4119
tựu 4119
Lá 4117
Giáp 4116
Jac@@ 4116
tro 4116
Cường 4113
Pil@@ 4111
ennis 4111
1885 4109
Albert 4109
châm 4109
olus 4109
une 4108
Hom@@ 4106
pseud@@ 4106
istr@@ 4105
opteris 4104
Latin 4100
melan@@ 4100
Oxy@@ 4098
nướng 4097
• 4095
Sri 4094
Tipulidae 4094
Yo@@ 4090
Tom 4089
Nhơn 4084
nhu@@ 4083
ham@@ 4082
Kas@@ 4080
sét 4080
hố 4079
− 4079
pin 4077
umb@@ 4077
chổi 4076
way 4072
30@@ 4070
Agr@@ 4069
series 4068
Pod@@ 4067
cuống 4064
Ble@@ 4063
10.000 4059
Australasia 4059
Phụng 4058
Wilhelm 4058
Mik@@ 4056
Pic@@ 4055
Megachilidae 4054
sey 4054
han 4050
Ánh 4049
hiệ@@ 4048
olep@@ 4047
Var@@ 4039
vĩnh 4033
mas@@ 4030
ẹ@@ 4030
Dicranomyia 4027
Club 4024
UNESCO 4024
mb@@ 4024
Wood@@ 4023
eidae 4022
25@@ 4017
Big 4014
Java 4014
pith@@ 4012
1878 4011
NGC 4010
Hed@@ 4009
Steph@@ 4008
11.@@ 4007
Hymen@@ 4005
nu@@ 4003
ui 4003
Williams 3999
mic@@ 3992
May@@ 3990
Xá 3990
Cai 3986
Fri@@ 3980
aeus 3980
zi 3976
ượt 3972
end 3967
CN@@ 3965
Anti@@ 3963
sor@@ 3960
Pseudo@@ 3958
ocar@@ 3958
ett 3956
ę@@ 3952
Trump 3951
plen@@ 3947
Awards 3945
ç@@ 3944
Ra@@ 3942
tera 3940
atri 3939
opidae 3938
Dom@@ 3936
Cten@@ 3935
GDP 3934
Psychotria 3934
00@@ 3931
1870 3927
Cryp@@ 3927
Rh@@ 3921
Bon@@ 3918
sur@@ 3910
Gl@@ 3909
ry 3909
sz@@ 3908
2.000 3907
Congo 3907
NH@@ 3906
vin@@ 3905
Bay@@ 3903
spin@@ 3901
Dal@@ 3899
anda 3889
MTV 3888
dám 3887
2,5 3886
Bourgogne 3886
tambon 3884
ock 3883
ria 3878
Hauts 3870
Mand@@ 3869
nhiễ@@ 3869
Syn@@ 3868
bon@@ 3868
tiế@@ 3868
pat@@ 3866
Calli@@ 3864
White 3863
Eugène 3862
icidae 3860
26@@ 3856
Rock 3856
roc@@ 3854
pus 3853
cop@@ 3852
Ober@@ 3850
phora 3844
Bat@@ 3842
lig@@ 3842
ván 3842
amin 3841
osoma 3841
ros 3841
Bos@@ 3837
Ga@@ 3837
xi 3837
met@@ 3832
Marie 3830
aba 3830
onii 3830
kii 3825
ins 3824
nem@@ 3824
Nik@@ 3823
Tho@@ 3822
Young 3821
Pri@@ 3820
ity 3820
Fer@@ 3819
Thom@@ 3819
abilis 3813
sem@@ 3805
TH@@ 3798
ame 3796
Rio 3795
ington 3794
tru@@ 3794
Time 3791
rec@@ 3790
esi@@ 3787
Tan@@ 3780
asia 3780
ney 3780
alum 3779
gium 3779
Brown 3778
Cher@@ 3773
Normandie 3773
Sab@@ 3773
Shim@@ 3770
Macedonia 3769
stein 3768
17@@ 3766
gii 3764
Ven@@ 3762
Ele@@ 3760
Pic 3760
yx 3760
Haute 3752
đo@@ 3752
Moore 3748
phosph@@ 3748
atia 3747
oba 3743
ska 3742
feet 3741
odon@@ 3741
oid 3740
nhi@@ 3739
ray 3738
Dem@@ 3736
cola 3736
ade 3735
rol@@ 3733
Amar@@ 3732
otes 3732
san@@ 3730
1893 3725
27@@ 3724
MiG 3723
Diệm 3722
Shi@@ 3722
Pierre 3720
uv@@ 3717
Pomeranian 3711
Cir@@ 3709
Bru@@ 3708
pen@@ 3707
az 3706
oli@@ 3706
khe 3705
ornis 3704
Costa 3703
Carolina 3702
any@@ 3701
play 3700
Algérie 3698
Ach@@ 3697
dem@@ 3697
1859 3695
Panama 3694
AP@@ 3692
olor 3691
ởi 3691
uni@@ 3690
imb@@ 3687
vo@@ 3686
Sz@@ 3683
mos@@ 3680
Scott 3677
10,@@ 3675
yla 3675
ance 3673
Voivodeship 3672
ượn 3672
wi@@ 3671
SE@@ 3669
bo 3668
Euro 3666
Wat@@ 3664
ụ@@ 3664
Ari@@ 3663
podium 3662
Chicago 3661
Dev@@ 3660
brach@@ 3660
esti@@ 3660
Med@@ 3659
zo 3657
Vit@@ 3654
ish 3653
tenu@@ 3653
1882 3652
Tam@@ 3644
mol@@ 3644
Pach@@ 3638
1886 3636
diidae 3636
eto 3636
ừu 3636
VII 3633
bach 3633
Ta 3632
arm@@ 3630
ier@@ 3628
AC 3626
wal@@ 3626
Ấ@@ 3625
11,@@ 3624
São 3624
Boston 3623
Kom@@ 3623
XX 3622
rit@@ 3621
12,@@ 3616
Lanka 3615
Wilson 3613
icornis 3611
Julius 3610
Kav@@ 3608
Daniel 3603
Dys@@ 3602
nam@@ 3602
Bou@@ 3601
N.@@ 3601
Mich@@ 3598
Rho@@ 3598
sam@@ 3596
ś@@ 3596
Sun@@ 3591
Indiana 3588
Kenya 3586
inger 3586
Walter 3585
CO@@ 3583
til@@ 3583
1880 3581
Pa 3581
Pha@@ 3580
plat@@ 3579
Comté 3577
ốm 3577
Gro@@ 3576
kem 3575
coc@@ 3573
Franche 3572
ophila 3572
Ther@@ 3567
fer 3567
1875 3566
1888 3565
Ren@@ 3563
ero 3561
solo 3560
apur 3559
Show 3558
Vai 3558
hab@@ 3555
All 3553
yu 3552
Acanth@@ 3551
Win@@ 3550
aux 3550
low 3550
Lib@@ 3549
etes 3549
hor@@ 3548
rh@@ 3547
flor@@ 3543
inter@@ 3543
Napoléon 3541
1860 3540
ễ@@ 3538
Dur@@ 3535
Live 3533
Chik@@ 3532
Lac@@ 3531
XIX 3527
actylus 3526
Plagi@@ 3525
Mul@@ 3522
aro 3521
hái 3521
ines 3521
ue 3521
National 3520
1871 3518
Night 3517
thia 3516
endrum 3515
prot@@ 3515
CN 3513
Hollywood 3513
Fe@@ 3512
Dec@@ 3509
ı@@ 3509
Uganda 3506
The@@ 3505
EP 3504
kin@@ 3503
kr@@ 3503
ợn 3503
Nai 3501
Cocker@@ 3499
Gy@@ 3499
Bul@@ 3498
TS 3496
atidae 3496
29@@ 3493
gal@@ 3490
ume 3489
jo 3488
Kaz@@ 3485
MV 3484
Anne 3481
Gru@@ 3481
lut@@ 3481
eil@@ 3478
lea 3478
28@@ 3477
pur 3477
mia 3475
skie 3470
Sum@@ 3469
uri 3469
BBC 3468
elis 3468
chin@@ 3467
Hill 3463
3.000 3461
ơ@@ 3461
1879 3460
bus 3457
Bus@@ 3454
sten@@ 3454
à@@ 3453
ệnh 3447
ku@@ 3446
Hab@@ 3445
Li 3445
Arc@@ 3442
chlor@@ 3441
emon 3440
Hon@@ 3438
fera 3438
óa 3438
eti 3437
Barcelona 3435
Group 3433
enidae 3431
Media 3427
stis 3427
Rhy@@ 3425
bar 3425
AT@@ 3423
Tre@@ 3422
well 3422
ủ@@ 3422
onn@@ 3420
electron 3419
hiên 3418
Vo@@ 3417
cens 3417
ecio 3415
land@@ 3413
Phu 3408
Ci@@ 3407
ị@@ 3407
By@@ 3406
fol@@ 3406
eon@@ 3402
õ@@ 3401
Okinawa 3400
AN 3398
ille 3398
Bao 3397
Lab@@ 3397
phyl@@ 3397
net 3395
asp@@ 3392
Ker@@ 3391
agin@@ 3386
Castile 3383
Dam@@ 3381
12.@@ 3380
She@@ 3379
my@@ 3377
nit@@ 3377
Grammy 3375
emia 3375
evich 3374
AS 3373
line@@ 3373
1887 3366
1883 3365
air@@ 3362
1892 3359
Mari@@ 3357
bat@@ 3355
Anna 3354
ọa 3352
Nam@@ 3350
1869 3349
Wi@@ 3348
Neph@@ 3345
Airlines 3344
1873 3343
jo@@ 3343
brun@@ 3342
rium 3341
1884 3339
Wang 3333
him@@ 3333
Go 3330
han@@ 3330
ake 3329
dong 3328
Games 3327
Perry 3325
hydro 3325
Op@@ 3324
nis 3324
town 3323
Lar@@ 3321
Warsaw 3321
chr@@ 3318
Blue 3316
ophylla 3314
N. 3311
Pin@@ 3311
INE 3310
piano 3310
nik 3305
reg@@ 3305
hol@@ 3304
tim@@ 3303
ath 3301
bra 3301
Arsenal 3300
Inter@@ 3300
err@@ 3300
oku 3300
grandi@@ 3299
ở@@ 3297
130 3296
Boeing 3293
IM@@ 3293
‘ 3291
Nem@@ 3290
acc@@ 3288
Asp@@ 3285
Crypto@@ 3284
mont 3283
Vel@@ 3281
Aph@@ 3280
Em 3277
iscus 3276
1866 3275
ise 3272
Cambridge 3271
Ja@@ 3271
Myanmar 3271
bos@@ 3268
inata 3263
tú 3261
Vil@@ 3260
from 3257
sum@@ 3257
Dre@@ 3256
Max 3255
n. 3255
ộp 3255
ck 3254
Om@@ 3253
kan@@ 3251
1864 3247
Bry@@ 3243
Xe 3243
phil@@ 3243
900 3234
1877 3233
Gil@@ 3233
soni 3233
uke 3233
Belarus 3232
dis 3230
tam@@ 3230
obr@@ 3229
CA@@ 3228
Christian 3228
kov@@ 3228
ồm 3227
lac@@ 3225
Fran@@ 3223
mil@@ 3223
1876 3222
13,@@ 3221
Pom@@ 3221
cua 3220
Palestine 3219
Fo@@ 3218
Jan@@ 3218
1838 3216
ilia 3216
Heli@@ 3214
ow 3211
11@@ 3209
110 3208
amm@@ 3207
aff@@ 3205
lossum 3201
icollis 3200
1861 3198
Cand@@ 3198
top@@ 3198
cre@@ 3197
vol@@ 3197
won 3197
ú@@ 3196
O.@@ 3194
Cham@@ 3193
ets 3193
ico 3193
.com 3192
nor@@ 3192
ław 3192
pa@@ 3190
ron@@ 3190
alp@@ 3187
form@@ 3185
Hal 3184
Pon@@ 3184
Cel@@ 3183
Alo@@ 3182
Massachusetts 3180
Sat@@ 3180
py@@ 3177
Pres@@ 3176
US 3172
Acacia 3170
Model 3166
1867 3165
nii 3162
US@@ 3161
ocera 3161
eon 3160
Call@@ 3158
Mos@@ 3158
Centr@@ 3157
oth 3157
IC@@ 3156
Island 3154
yn 3154
ep 3151
we@@ 3149
Life 3148
enz@@ 3148
opa 3148
Championship 3144
UFO 3144
aus 3144
meg@@ 3144
hit 3143
udi@@ 3143
1868 3141
ais 3141
Bay 3140
Star@@ 3139
VIII 3139
Bab@@ 3137
Gly@@ 3137
1881 3135
mum 3134
AR@@ 3131
Rus@@ 3129
1874 3128
bit@@ 3127
Bag@@ 3126
Sau@@ 3126
Juan 3125
1863 3124
esta 3122
Hen@@ 3116
lí@@ 3115
MA 3114
plex 3114
Mach@@ 3111
Madagascar 3111
ě@@ 3110
Kos@@ 3109
iculata 3109
Rid@@ 3108
tze 3106
Tanzania 3105
kl@@ 3104
Im@@ 3103
Mun@@ 3101
lus 3100
Aleyro@@ 3097
bes@@ 3097
MC 3096
leuc@@ 3096
tor 3096
neo 3094
ophy@@ 3092
int@@ 3091
Dan@@ 3090
unda 3090
Begonia 3089
Red@@ 3089
Austr@@ 3086
chn@@ 3086
ein 3086
ū 3086
Sand@@ 3085
sonii 3085
Gh@@ 3083
Rap@@ 3082
XIII 3078
ois 3078
opera 3078
Megach@@ 3076
inum 3073
180 3072
Nepal 3072
gan@@ 3070
palli@@ 3069
Ed@@ 3064
ais@@ 3064
isia 3064
ster 3062
Khan 3061
Jordan 3060
agri@@ 3060
ome@@ 3060
Bri@@ 3059
IX 3059
DS 3058
ẻ@@ 3057
Marshall 3056
osh@@ 3056
Nu@@ 3052
eps 3051
Pomerania 3050
Ah@@ 3049
Kong 3048
lip@@ 3045
Reg@@ 3044
101 3043
eca 3042
cher 3039
tour 3037
acul@@ 3033
ill 3033
Epid@@ 3032
Ghana 3032
wo 3031
enc@@ 3030
ye@@ 3030
vis@@ 3029
odendron 3028
Cent@@ 3024
Clu@@ 3024
imus 3024
1850 3023
loa 3021
Bak@@ 3020
Ten@@ 3019
aden@@ 3014
Sudan 3013
Samsung 3012
Albania 3011
Hos@@ 3007
Da 3002
eck@@ 3000
Thor@@ 2998
app@@ 2998
etus 2996
ess 2994
ier 2993
orn@@ 2990
ff 2988
our 2988
rag@@ 2988
José 2986
laria 2986
thar@@ 2985
Green 2984
ophorus 2984
1.0@@ 2983
Royal 2983
ui@@ 2983
đu@@ 2982
enes 2981
vul@@ 2981
Had@@ 2980
Vin@@ 2980
èze 2979
gris@@ 2978
Som@@ 2977
Spar@@ 2976
anah@@ 2973
Petr@@ 2970
ogr@@ 2970
CH 2967
1862 2964
AN@@ 2964
Yang 2964
rop@@ 2964
obscur@@ 2961
Hassan 2956
Oli@@ 2956
IN@@ 2955
Mis@@ 2954
ado 2954
dol@@ 2953
sea 2953
Sphaer@@ 2952
Sti@@ 2952
1865 2950
sar@@ 2950
SA 2948
set 2948
ST@@ 2946
Sir@@ 2946
köy 2946
ỏa 2946
Hong 2945
etia 2944
edi@@ 2943
SC 2940
olata 2940
Sí@@ 2939
ếc 2935
IS@@ 2934
ash 2934
Rose 2933
pre@@ 2933
als 2932
ech 2929
ju 2929
ą@@ 2929
Ra 2927
fan 2927
14,@@ 2926
ken@@ 2925
Š@@ 2925
León 2923
Nom@@ 2923
Vas@@ 2923
Anis@@ 2922
Haw@@ 2922
rich@@ 2922
Davis 2919
PT 2918
ì@@ 2917
Kus@@ 2916
Xanth@@ 2915
East 2914
Romania 2914
â@@ 2914
Gom@@ 2913
pap@@ 2912
Pu@@ 2911
nic@@ 2911
Auvergne 2910
F.C. 2910
Sam 2910
100.000 2909
leri 2908
wan@@ 2908
Melo@@ 2907
ingen 2906
hom@@ 2904
ku 2903
Chris 2902
Val 2902
1858 2901
MS 2900
Ken@@ 2899
osaurus 2899
ylus 2898
Cass@@ 2897
Apo@@ 2896
Fair@@ 2896
bin@@ 2896
Lev@@ 2895
idea 2895
Lom@@ 2893
1848 2892
Ali 2892
omys 2892
aster 2891
ez 2891
PS@@ 2887
Tim@@ 2885
arr@@ 2885
itis 2885
Mid@@ 2883
Raj@@ 2883
Stone 2882
Kad@@ 2881
Su 2881
Mi 2880
gran@@ 2880
Sax@@ 2879
Kl@@ 2877
1840 2875
cos@@ 2875
Trach@@ 2874
alt@@ 2874
isch@@ 2873
fo@@ 2870
ido 2870
AC@@ 2868
Day 2868
pula 2867
agus 2864
ail 2863
I.@@ 2862
omia 2861
ollis 2859
Dryopter@@ 2856
yne 2856
usia 2854
Bac@@ 2852
anica 2852
van@@ 2852
ía 2852
Nic@@ 2851
fu@@ 2851
tem@@ 2851
avi@@ 2849
Gol@@ 2846
oton 2846
len 2845
Sony 2844
art 2844
Sid@@ 2843
Lake 2842
Lewis 2842
ack@@ 2841
hydro@@ 2841
Norfolk 2840
Pand@@ 2840
meth@@ 2839
ờ@@ 2838
illo 2837
Ethiopia 2836
Puerto 2834
mus 2834
Little 2831
Rich@@ 2830
Liga 2829
ifol@@ 2829
NATO 2828
ć 2828
num 2826
show 2826
luy@@ 2825
Amp@@ 2824
News 2822
Gun@@ 2821
enta 2821
GP 2819
Yos@@ 2818
Ann@@ 2817
ưới 2817
heim 2815
Pleur@@ 2814
lora 2813
uchi 2811
our@@ 2810
oy 2810
ves 2809
ịu 2806
alensis 2805
thor@@ 2805
Sas@@ 2802
was 2802
Company 2801
acet@@ 2800
alan@@ 2800
1857 2798
Wall@@ 2797
lad@@ 2796
kal@@ 2795
pter@@ 2792
mot@@ 2791
out 2791
yro@@ 2791
50@@ 2790
lei 2790
ás 2788
tatus 2787
Arch@@ 2785
3,5 2784
chus 2784
fal@@ 2784
CD@@ 2783
1830 2782
Norman 2781
Amph@@ 2780
Dy@@ 2780
ẹp 2780
Cav@@ 2779
Liban 2779
Mau 2779
Nes@@ 2778
XII 2778
nea 2778
ya@@ 2777
agu@@ 2776
Douglas 2775
Sydney 2775
Fox 2774
trán 2774
Allen 2772
Georgia 2772
Ing@@ 2770
agar 2768
dy 2768
Caribe 2766
cyan@@ 2763
roi 2763
has@@ 2761
ocephalus 2761
Dich@@ 2759
agr@@ 2759
WWE 2757
Aeg@@ 2755
oka 2754
CS 2751
Ere@@ 2751
Oregon 2751
1854 2750
80@@ 2750
emma 2750
mul@@ 2750
ö@@ 2750
cula 2749
ĩnh 2749
College 2747
wan 2745
eff@@ 2743
ocy@@ 2743
Franklin 2742
dig@@ 2741
ram@@ 2741
amin@@ 2740
amus 2740
Alexand@@ 2739
20.000 2738
Lap@@ 2738
iga 2738
Tum@@ 2737
bert 2737
Pir@@ 2736
mir@@ 2735
amine 2734
ris 2734
ebr@@ 2733
Cape 2732
chry@@ 2731
ras@@ 2731
.-@@ 2730
1836 2730
imp@@ 2730
dal@@ 2726
Bec@@ 2725
Can 2725
Stand@@ 2725
Vir@@ 2725
viol@@ 2725
Ludwig 2724
Hall 2723
Joe 2723
ky@@ 2722
Boy 2721
margin@@ 2721
assi@@ 2720
Bank 2719
dev@@ 2719
140 2715
bro@@ 2715
ken 2715
igh@@ 2714
utt@@ 2714
les@@ 2713
mis 2713
Y.@@ 2712
ord@@ 2712
Miy@@ 2711
Yu@@ 2711
Ju@@ 2710
Shar@@ 2707
dan@@ 2707
Colle@@ 2706
lã@@ 2704
· 2704
18@@ 2702
XIV 2701
RNA 2700
grac@@ 2700
1849 2699
Bill 2699
ấ@@ 2698
ée 2697
Abr@@ 2695
Chart 2695
úa 2695
America 2693
amoto 2693
uka 2692
Brit@@ 2691
ũ@@ 2691
PA 2690
eno 2688
ươi 2688
aku 2687
Mam@@ 2686
Ny@@ 2686
UN@@ 2686
achi 2686
Rem@@ 2685
log@@ 2685
trans@@ 2685
wat@@ 2684
Azerbaijan 2683
Bir@@ 2682
Fu@@ 2681
35@@ 2680
Moon 2680
Seine 2680
LGBT 2679
Lepid@@ 2678
Och@@ 2678
Szczecin 2678
Arec@@ 2677
Ric@@ 2677
Bangladesh 2676
phidae 2675
po 2675
ž@@ 2675
Cin@@ 2673
we 2672
Android 2671
CC@@ 2668
ater 2668
DE 2667
Pro 2667
1841 2664
SA@@ 2664
Ching 2662
mari@@ 2660
sit@@ 2660
vis 2660
1872 2658
Acro@@ 2658
ướp 2658
sun@@ 2657
Dubai 2656
bis@@ 2654
f. 2653
It@@ 2652
CM 2651
Lan@@ 2651
kon@@ 2650
tol@@ 2650
lı 2649
p. 2648
Carlos 2647
Sm@@ 2647
60@@ 2643
1851 2642
Melan@@ 2641
heter@@ 2641
ij@@ 2640
kor@@ 2640
Henri 2638
rung 2638
ail@@ 2636
anna 2635
stri@@ 2635
Linux 2632
PlayStation 2630
Bengal 2629
Sag@@ 2628
Tal@@ 2628
esp@@ 2628
uh@@ 2628
ẹ 2627
Baltic 2626
eton 2626
Pradesh 2625
Facebook 2624
Rac@@ 2624
oll@@ 2624
yon 2623
zon@@ 2620
Jersey 2619
Leg@@ 2618
pora 2618
eros 2616
1846 2615
nung 2615
Hex@@ 2614
lem@@ 2614
pau@@ 2614
rel@@ 2614
ski@@ 2614
phen@@ 2613
ứu 2613
NS@@ 2612
Will@@ 2612
160 2610
pho 2606
Chil@@ 2605
igu@@ 2605
pi 2605
Au@@ 2601
Super@@ 2601
Corporation 2600
Cyclo@@ 2599
hem@@ 2597
AM@@ 2596
É@@ 2596
Ok@@ 2595
Vu 2595
agi 2595
Ali@@ 2594
Buc@@ 2592
Hop@@ 2592
ges@@ 2592
Street 2589
dera 2588
Queen 2587
Fir@@ 2585
Iceland 2585
iner@@ 2585
Tol@@ 2582
lov@@ 2582
ariidae 2580
AD@@ 2579
1753 2578
c. 2578
jin 2577
úi 2577
Adam 2575
Bad@@ 2575
Francis 2575
yna 2573
Rica 2571
ythro@@ 2571
Air@@ 2570
Black@@ 2570
British 2569
ett@@ 2569
Gel@@ 2567
Sk@@ 2567
isi 2564
nai 2563
aqu@@ 2562
Sig@@ 2560
ace 2560
BT 2558
brevi@@ 2558
ades 2557
Eng@@ 2556
Gir@@ 2556
Maj@@ 2556
abis 2556
Loph@@ 2555
Anderson 2554
esh@@ 2554
Mike 2553
lu 2553
opteryx 2553
ino@@ 2551
ulosa 2549
anot@@ 2548
leu@@ 2548
ence 2546
ặp 2546
1844 2545
Hap@@ 2545
radio 2545
onis 2544
ovo 2543
sch 2543
ispa 2542
ver 2542
Jan 2541
iger 2540
Prim@@ 2536
angusti@@ 2535
itz@@ 2535
Andrew 2534
Marne 2534
sum 2534
Swift 2533
40@@ 2532
Team 2532
orr@@ 2532
Chry@@ 2531
fic@@ 2531
port 2531
phot@@ 2528
pot@@ 2528
13.@@ 2526
Piper 2526
Wo@@ 2526
simil@@ 2526
umin@@ 2526
Cyc@@ 2525
vu 2525
multi@@ 2524
15,@@ 2523
Philip 2523
Spr@@ 2523
hel@@ 2523
Mart@@ 2522
Best 2521
macul@@ 2521
1853 2520
1845 2519
RA@@ 2519
Mec@@ 2517
350 2516
ron 2516
St 2514
inensis 2514
ecta 2513
codice 2511
Pedro 2508
onium 2508
chilus 2507
Kum@@ 2506
Open 2506
oli 2506
sei 2506
yan 2506
gn@@ 2505
oti@@ 2505
ữa 2504
County 2501
ướ@@ 2501
Lang@@ 2500
ith@@ 2498
ợt 2498
chai 2496
pis 2496
Merr@@ 2495
aine 2495
d. 2495
ogen 2495
Sap@@ 2494
enberg 2491
Antonio 2490
je 2490
Sachsen 2489
ỏ@@ 2489
Bot@@ 2488
ostoma 2488
ık 2486
Ki 2485
Aer@@ 2484
Alaska 2484
gel@@ 2484
ych@@ 2484
Otto 2483
Grande 2482
Slam 2482
din 2482
Tem@@ 2480
王 2479
Kn@@ 2478
equ@@ 2478
rup@@ 2478
Arist@@ 2477
idus 2477
single 2475
Ful@@ 2474
School 2473
icata 2473
ple@@ 2472
Bes@@ 2468
gracilis 2468
asis 2467
Lawrence 2466
Sun 2466
dan 2466
Lenin 2464
ji@@ 2464
oridae 2464
pseudo@@ 2464
Fun@@ 2463
V.@@ 2463
XI 2463
Ceph@@ 2462
Has@@ 2461
olo 2460
4.000 2459
õi 2459
ATP 2458
Philadelphia 2458
aem@@ 2458
jeun@@ 2458
kur 2458
proc@@ 2458
FI@@ 2457
Paulo 2457
wil@@ 2454
Conn@@ 2453
Hypo@@ 2453
Studios 2453
able 2453
tz 2453
estes 2451
neutr@@ 2451
Frederick 2449
Lav@@ 2449
endron 2449
ion@@ 2448
enus 2447
ưở@@ 2447
ử@@ 2447
Uruguay 2446
dus 2446
owski 2446
trium 2444
AT 2443
Dun@@ 2443
lit@@ 2442
nan@@ 2442
Gon@@ 2441
Lis@@ 2441
ec 2441
Ố@@ 2440
Adams 2438
West@@ 2438
ben@@ 2438
Ō@@ 2438
Great 2436
lid@@ 2436
ầng 2436
Bolivia 2435
ju@@ 2435
Tos@@ 2434
Hamilton 2432
onne 2432
yer@@ 2432
ré@@ 2430
any 2429
dea 2429
ský 2428
37@@ 2426
ight 2425
105 2424
Ley@@ 2422
dius 2422
nes 2422
omi@@ 2422
Girls 2420
Kin@@ 2420
Aul@@ 2419
uss@@ 2418
tos@@ 2417
Ukraine 2416
Cour@@ 2414
Stephen 2413
aud@@ 2413
Astr@@ 2411
Fal@@ 2410
Rico 2410
16,@@ 2409
Kil@@ 2409
che@@ 2409
Got@@ 2408
enko 2408
DD 2407
Dou@@ 2407
Ye@@ 2406
Ze@@ 2406
Fi@@ 2404
Pent@@ 2404
Si 2404
Galaxy 2403
Tec@@ 2402
Mk 2401
ùy 2399
Hat@@ 2398
Wimbledon 2398
ag 2398
Mang@@ 2397
Pet@@ 2397
SP@@ 2397
Dj@@ 2395
Kazakhstan 2391
centr@@ 2391
Ore@@ 2390
op 2390
ịa 2390
Coel@@ 2388
Queensland 2385
icolor 2385
Grac@@ 2383
Pokémon 2383
pid@@ 2383
win 2383
Cot@@ 2382
flu@@ 2382
Rome 2381
row 2380
AM 2379
XVI 2379
bius 2379
Land@@ 2378
ont@@ 2378
Centre 2377
Sed@@ 2376
Vill@@ 2376
ats@@ 2376
prop@@ 2376
360 2375
SO@@ 2375
sin 2373
amar@@ 2372
ew@@ 2371
atin 2370
enzyme 2370
ński 2370
pros@@ 2368
Côte 2366
Dragon 2366
pur@@ 2366
arch@@ 2365
gy@@ 2365
sson 2365
sty@@ 2365
Marx 2364
elegans 2364
Plan@@ 2363
imm@@ 2363
Aur@@ 2361
Ot@@ 2361
taria 2361
Beau@@ 2359
mis@@ 2359
ix@@ 2358
owo 2358
Â@@ 2358
ote 2353
Gymn@@ 2351
Cerat@@ 2350
Fin@@ 2350
illus 2350
ons@@ 2350
Vladimir 2349
hao 2347
ń@@ 2347
200@@ 2346
Fle@@ 2341
Mill@@ 2341
dam@@ 2341
dar@@ 2341
gas@@ 2341
hat@@ 2340
ste@@ 2338
itus 2337
Hid@@ 2336
quin@@ 2336
elli@@ 2334
House 2333
Libya 2333
Osaka 2333
mod@@ 2333
Max@@ 2332
NO@@ 2332
Rick 2332
thon 2329
Bob 2328
Newton 2328
asi 2328
rho@@ 2328
Kot@@ 2327
1856 2326
Mississippi 2325
Pur@@ 2325
36@@ 2324
Papua 2324
esch@@ 2324
inea 2324
Eugenia 2323
Ben 2322
Bet@@ 2322
Schmidt 2322
iss 2322
125 2321
mus@@ 2319
not 2319
oceph@@ 2318
PS 2316
andi@@ 2316
azi@@ 2315
phon 2315
phon@@ 2315
Xen@@ 2313
niti@@ 2313
Union 2312
Barn@@ 2311
Les 2311
cú@@ 2308
ega 2308
Pul@@ 2307
14.@@ 2306
Kim@@ 2304
euro 2303
Pfalz 2302
Sung 2301
amer@@ 2301
lie 2301
kat@@ 2300
kaz 2299
Muhammad 2298
Luz@@ 2297
k. 2297
Rud@@ 2296
purpur@@ 2296
dre@@ 2295
rier 2294
vu@@ 2294
ø@@ 2294
17,@@ 2293
Creek 2292
Sad@@ 2292
General 2291
Tw@@ 2291
quadr@@ 2290
Coc@@ 2289
Slovenia 2289
ident@@ 2289
Bad 2288
AFC 2287
Girl 2287
court 2287
hoe 2287
Lag@@ 2284
ors 2284
Gregory 2283
bir@@ 2282
Alfred 2280
rac@@ 2279
Bangkok 2278
Ẩ@@ 2278
Gam@@ 2277
Roger 2277
Solomon 2276
more 2275
Bud@@ 2274
khan 2274
Malta 2272
On 2272
Rol@@ 2272
luc@@ 2272
cic@@ 2271
xy@@ 2271
Series 2270
nat@@ 2270
Lec@@ 2269
IS 2266
Jamaica 2266
icia 2266
mur@@ 2266
yra 2263
Phy@@ 2262
nov@@ 2261
website 2260
hii 2259
ún 2259
AI@@ 2258
los 2258
uni 2258
6.000 2256
Son@@ 2256
Yak@@ 2254
Ji@@ 2253
dh@@ 2252
Port 2251
SM 2251
austr@@ 2251
Bau@@ 2249
alidae 2249
mg 2249
mo 2248
som@@ 2248
mini 2247
Wit@@ 2246
Wikipedia 2245
aut@@ 2244
ingi@@ 2244
teri 2244
Lady 2243
min 2242
1847 2241
gly@@ 2241
ẹn 2241
Est@@ 2240
esa 2240
Pad@@ 2239
EU 2237
abe 2237
Hav@@ 2236
Blo@@ 2235
Till@@ 2235
Sultan 2234
Catherine 2233
All@@ 2232
ara@@ 2231
vo 2231
Ś@@ 2230
aro@@ 2229
Alice 2228
Aqu@@ 2228
Donald 2228
aru 2227
Ford 2226
ory 2226
Asteraceae 2224
Cuc@@ 2224
Dod@@ 2224
HIV 2224
Chen 2222
issa 2222
oko 2222
fil@@ 2220
sep@@ 2220
Center 2219
Schum@@ 2219
Zo@@ 2219
iceps 2218
lon 2218
Schw@@ 2217
Steve 2217
hat 2216
xia 2216
Bil@@ 2213
Din@@ 2213
ulum 2212
kali 2211
Chel@@ 2209
Linn@@ 2209
1,2 2208
Radio 2208
oro 2207
Berg@@ 2206
eki 2206
uro 2206
Clark 2205
CS@@ 2204
Gul@@ 2204
MP@@ 2203
pent@@ 2203
Jung 2202
Harvard 2201
Margaret 2201
ison 2200
section 2198
1837 2197
大@@ 2196
eger 2195
Herbert 2194
Inc. 2194
Hang 2193
Bis@@ 2192
emb@@ 2191
ics 2191
CBS 2190
urn@@ 2190
teri@@ 2189
Leu@@ 2188
lio 2187
omy@@ 2187
1833 2186
Chir@@ 2186
Sir 2186
Tir@@ 2186
Vis@@ 2186
Cameroon 2185
Rub@@ 2185
Shir@@ 2184
zh@@ 2184
Ich@@ 2182
but@@ 2182
perus 2182
1842 2181
Alabama 2181
Jerusalem 2180
Yemen 2180
mati@@ 2180
Gau@@ 2179
Howard 2179
aena 2179
öy 2179
Jung@@ 2178
Kaw@@ 2178
Pass@@ 2176
Sicilia 2175
Gn@@ 2174
Ball@@ 2173
IC 2172
Vic@@ 2172
TC 2171
eau 2171
45@@ 2170
ỳnh 2170
Alexandria 2169
Dig@@ 2169
Schleswig 2169
Whit@@ 2169
tiv@@ 2169
Estonia 2168
ouv@@ 2168
Bell@@ 2167
pec@@ 2167
pus@@ 2167
Den@@ 2165
Ivan 2165
oder@@ 2164
ỏng 2164
Rab@@ 2163
gay 2163
Chaet@@ 2162
Qatar 2162
ault 2162
tt@@ 2162
Ferdinand 2161
Yas@@ 2161
God@@ 2160
ass 2160
opl@@ 2160
Europa 2159
ifera 2159
Hang@@ 2158
Hum@@ 2158
Maroc 2156
GS 2155
Nat@@ 2155
istan 2155
Tang 2154
psych@@ 2154
Rheinland 2153
Sierra 2153
Your 2153
Lig@@ 2148
Villa 2148
ings 2148
Gang@@ 2147
Oxford 2147
wer@@ 2147
1824 2146
Alli@@ 2146
New@@ 2145
iti 2145
urai 2144
Zh@@ 2142
sec@@ 2142
Asia 2141
Bell 2140
Ray 2140
ept@@ 2140
hip@@ 2140
Long@@ 2139
Wol@@ 2139
illy 2137
obus 2137
TT@@ 2136
gol@@ 2136
Cab@@ 2135
Odon@@ 2134
amba 2134
one@@ 2133
color 2132
internet 2132
1852 2129
33@@ 2129
Roc@@ 2129
athus 2129
Set@@ 2127
eh 2127
usi@@ 2127
ellia 2126
Borneo 2124
ope 2124
old 2123
Nec@@ 2122
ban@@ 2122
culus 2121
ns 2121
Mass@@ 2120
Miller 2120
Nep@@ 2119
Hook 2118
Lau@@ 2118
aun@@ 2118
elong@@ 2118
ọp 2118
z. 2117
chloride 2116
1843 2113
inf@@ 2113
1839 2111
line 2111
0,5 2110
arum 2109
cz@@ 2109
hip 2109
Shu@@ 2108
adel@@ 2108
Alex 2107
Boy@@ 2107
Ard@@ 2106
River 2106
Amazon 2105
Clinton 2105
Napoli 2105
UK 2105
anz@@ 2104
rix 2104
HD 2103
Tamil 2103
Socorro 2102
Bern@@ 2101
NASA 2100
No 2100
Lov@@ 2099
Macro@@ 2099
media 2099
120@@ 2096
University 2096
15.@@ 2095
Tunisia 2094
dy@@ 2094
sta@@ 2094
Grant 2092
Kry@@ 2092
yak@@ 2092
ale@@ 2091
gig@@ 2091
lop@@ 2091
1832 2090
up 2090
Kag@@ 2089
side 2089
Anime 2088
Jar@@ 2088
16.@@ 2086
Torino 2085
pia 2085
108 2083
Leon@@ 2083
Walker 2083
dur@@ 2083
ango 2082
Up 2081
eva 2080
Champion 2079
pyr@@ 2079
Af@@ 2078
Victor 2078
Colorado 2077
aze 2077
dai 2077
Bog@@ 2076
onica 2076
ars 2075
Quercus 2074
Sci@@ 2074
Hyper@@ 2073
Arizona 2072
Sher@@ 2072
imi@@ 2072
acia 2070
ider@@ 2070
olim@@ 2070
Channel 2069
etti 2069
Eric 2067
logic 2066
neg@@ 2066
Kennedy 2065
enburg 2065
Constant@@ 2064
eder@@ 2064
Bun@@ 2063
èm 2063
Ophi@@ 2062
sko 2062
cost@@ 2060
ý@@ 2060
Babylon 2058
Rod@@ 2058
Watson 2058
Baden 2056
Res@@ 2056
Vor@@ 2056
omorpha 2056
1834 2055
ret@@ 2055
Hog@@ 2054
thes 2054
Clarke 2052
eron 2050
Alan 2047
Scar@@ 2047
Č@@ 2047
1827 2045
ishi 2043
robus@@ 2043
rad@@ 2042
Kel@@ 2041
inidae 2041
ruf@@ 2040
fa 2039
38@@ 2038
North@@ 2037
lob@@ 2036
ợi 2036
Angola 2035
Hou@@ 2034
Lon@@ 2034
ngu@@ 2034
Chal@@ 2033
Guam 2033
Brian 2032
Fern@@ 2031
ith 2031
tenus 2031
Final 2030
Tin@@ 2030
dale 2030
isp@@ 2030
omus 2030
1855 2029
Twitter 2029
ters 2029
Kab@@ 2028
ej@@ 2027
oda 2027
Houston 2025
Shō@@ 2023
Tab@@ 2023
ennes 2022
220 2021
AL@@ 2021
Studio 2021
orph@@ 2021
18,@@ 2020
Glen@@ 2019
Mys@@ 2017
uto 2017
Jam@@ 2016
liv@@ 2016
plan@@ 2016
onal@@ 2015
pet@@ 2015
Ast@@ 2014
amia 2014
assa 2013
lb 2013
tà 2012
Mitt@@ 2011
ado@@ 2011
omb@@ 2011
oug@@ 2010
Manila 2009
Tony 2008
eck 2008
Domin@@ 2007
High 2007
Sumatra 2006
Kraków 2005
Sou@@ 2005
acty@@ 2004
ovsky 2003
tula 2003
Franz 2002
Hun@@ 2002
issus 2002
Tok@@ 2001
hot@@ 2001
Spe@@ 2000
king 2000
Green@@ 1998
Hand@@ 1998
Lat@@ 1998
ame@@ 1997
uf@@ 1997
Jane 1996
ei@@ 1996
First 1995
agi@@ 1995
AR 1994
Liv@@ 1994
anta 1994
Alex@@ 1993
ka@@ 1993
39@@ 1992
Pictures 1992
Sic@@ 1992
Zimbabwe 1991
otom@@ 1990
pan 1990
Ix@@ 1989
cip@@ 1989
Ax@@ 1988
Byzantine 1988
Somme 1988
ère 1988
anidae 1987
ester@@ 1987
Jer@@ 1986
idi 1986
Champ@@ 1985
Wa@@ 1985
ony 1984
ston 1984
Fel@@ 1982
Nan@@ 1981
Phan@@ 1981
yeong@@ 1981
Esp@@ 1980
Mog@@ 1980
Scot@@ 1980
uru 1979
Bruce 1978
Holstein 1978
Bush 1977
Is 1977
Adi@@ 1976
Kiev 1976
lar 1976
CIA 1975
Xbox 1975
pra@@ 1974
alg@@ 1973
die 1973
nar@@ 1973
species 1973
Bra@@ 1971
inosa 1971
Bit@@ 1970
ento 1970
tak@@ 1970
Bangalore 1969
34@@ 1968
Cho@@ 1968
ovi@@ 1968
109 1967
Two 1967
omi 1966
Ig@@ 1965
Am 1964
Beatles 1964
450 1963
But@@ 1963
Guatemala 1963
Ish@@ 1963
Pop@@ 1963
minor 1963
bec@@ 1962
{ 1962
Provence 1961
sima 1961
Chang 1960
Yen@@ 1960
Chim@@ 1959
ark@@ 1959
this 1957
Lombar@@ 1956
qui@@ 1956
Bang@@ 1955
leria 1955
rig@@ 1955
102 1954
Vietnam 1953
Kis@@ 1952
Moh@@ 1952
alli@@ 1952
chen@@ 1952
wo@@ 1952
Beach 1951
Yosh@@ 1950
CA 1949
IP 1949
Key@@ 1949
pos 1949
rey 1949
1800 1948
auda 1948
ball@@ 1948
hen@@ 1948
Gur@@ 1947
Peter@@ 1947
Rhin@@ 1947
atsu 1947
17.@@ 1946
Chr@@ 1945
alc@@ 1945
Arn@@ 1944
Caesar 1944
atis 1944
set@@ 1944
Palomar 1943
mont@@ 1943
ode 1943
yer 1942
1825 1941
Toronto 1941
eman 1941
NA 1940
Rat@@ 1940
Brunei 1939
Harrison 1939
acr@@ 1939
syl@@ 1939
Madonna 1938
asci@@ 1938
1831 1937
Gali@@ 1937
DP 1936
Dance 1936
Epi@@ 1936
Laur@@ 1936
RE@@ 1936
elius 1936
Abu 1935
Gris@@ 1935
eza 1934
Dus@@ 1933
wh@@ 1933
70@@ 1932
Bow@@ 1932
We 1932
Fur@@ 1931
Japan 1931
Mül@@ 1931
München 1931
adr@@ 1931
chen 1931
Co 1930
ks@@ 1930
Erica 1929
Il 1929
Maine 1929
Will 1929
ner@@ 1929
Jun@@ 1927
Network 1927
glau@@ 1926
Iso@@ 1925
Point 1925
chum 1925
orn 1924
ES@@ 1923
tari@@ 1923
Moselle 1922
Pep@@ 1922
Siberia 1922
25,@@ 1921
Jefferson 1921
plic@@ 1921
Alt@@ 1920
Magn@@ 1920
Tat@@ 1920
ike 1919
19,@@ 1918
CE@@ 1918
ER@@ 1918
Ni 1918
Tim 1918
beta 1918
ding 1918
insky 1918
pub@@ 1917
test@@ 1917
Gaga 1916
Alb@@ 1915
Pedi@@ 1915
Old 1914
Sis@@ 1914
aç@@ 1914
elles 1914
igo 1914
ä@@ 1914
24,@@ 1913
Fro@@ 1913
enth 1913
170 1912
AP 1910
Van@@ 1909
Bran@@ 1908
This 1908
feld 1908
gram@@ 1908
Syr@@ 1907
ander 1907
bs 1905
japon@@ 1904
hiz@@ 1903
kan 1903
ò@@ 1903
Clem@@ 1902
UTC 1902
Bid@@ 1901
aa 1901
chol@@ 1901
lon@@ 1901
Wor@@ 1900
low@@ 1900
s. 1900
auc@@ 1899
edia 1899
ket 1899
ako 1898
bri@@ 1898
Moscow 1897
SS@@ 1897
ped@@ 1897
Sn@@ 1896
wa@@ 1896
María 1895
Mozambique 1894
Tul@@ 1894
Dum@@ 1892
ż@@ 1892
AL 1891
mit@@ 1891
127 1890
dro@@ 1890
ocentr@@ 1889
oo 1889
3000 1888
47@@ 1888
Bed@@ 1888
Vatican 1888
ast 1888
opti@@ 1888
22@@ 1887
ili 1886
Mé@@ 1885
Valley 1884
ayi 1884
hynchus 1883
Île 1883
Jong 1882
Neg@@ 1882
XV 1882
ister@@ 1882
Sali@@ 1881
Turner 1881
dri@@ 1881
ord 1881
pas@@ 1881
CT 1880
Sym@@ 1880
Wayne 1880
hydr@@ 1880
Artem@@ 1879
Hamp@@ 1879
brac@@ 1878
Ever@@ 1877
Junior 1877
quar@@ 1877
zu 1877
Dro@@ 1876
ert 1875
Athens 1874
Ji 1874
tía 1873
Pop 1872
vin 1872
ın@@ 1872
Ped@@ 1871
Vy@@ 1871
aire 1871
arium 1871
ting 1871
1828 1870
Trig@@ 1870
ạy 1870
104 1869
Heinrich 1869
Kyoto 1869
otr 1869
rapper 1869
oke 1868
α 1868
worth 1867
ariensis 1866
gio 1866
ulu 1866
Mug@@ 1865
Russell 1863
otica 1863
Corn@@ 1862
Johann 1862
aco 1862
nica 1862
LV 1861
Şanlıurfa 1861
Gran@@ 1860
Anthony 1859
key 1859
4,5 1858
48@@ 1858
Bretagne 1858
Mey@@ 1858
May 1857
Rhap@@ 1856
aster@@ 1856
oxy@@ 1856
opes 1854
Digital 1853
Thy@@ 1853
pod@@ 1853
amino 1852
robot 1852
lim@@ 1851
Miss 1850
å@@ 1850
Sus@@ 1848
lé@@ 1848
Clar@@ 1847
Mario 1847
ér@@ 1847
Tag@@ 1845
Thai 1845
odia 1845
tea 1845
tw@@ 1844
Prince 1843
edo 1843
spi@@ 1843
Tsu@@ 1842
1835 1840
Gas@@ 1840
Guadal@@ 1839
Luxembourg 1839
Greene 1838
mand@@ 1838
30.000 1837
Lob@@ 1837
Wak@@ 1837
otro@@ 1837
Jr 1836
alaria 1836
chan@@ 1836
jav@@ 1836
ướm 1836
quad@@ 1835
Trans@@ 1834
LA 1833
amen 1833
Munich 1832
osis 1832
Gag@@ 1830
ựng 1830
Buch@@ 1828
chrom@@ 1828
Be 1827
C1 1827
20,@@ 1826
ogn@@ 1826
François 1825
Wu 1825
estris 1825
26,@@ 1823
Shin 1823
aja 1823
ges 1823
pon@@ 1823
Award 1822
Potter 1822
by@@ 1822
vus 1822
Leningrad 1821
Koch 1820
ina@@ 1820
kam@@ 1820
Next 1819
Nord@@ 1819
neum@@ 1819
novel 1818
Baz@@ 1817
alyptus 1817
cau@@ 1817
王@@ 1817
Land 1816
agara 1816
thy@@ 1816
Las 1815
ody 1815
asy@@ 1814
hid@@ 1814
laser 1814
stone 1814
enger 1813
esis 1813
DJ 1812
Marvel 1812
asti@@ 1812
cell@@ 1812
Than 1811
elus 1810
hon 1810
Road 1809
anti 1809
Um@@ 1808
let 1808
Sky@@ 1807
190 1806
GB 1806
Warner 1806
mel 1806
acer@@ 1805
Chin@@ 1804
Manga 1804
eth 1804
tra@@ 1804
affin@@ 1803
nd@@ 1803
Gold@@ 1802
omer@@ 1802
Prom@@ 1801
bass 1801
bau@@ 1801
mun@@ 1801
nham 1801
amph@@ 1800
Jacques 1799
Deb@@ 1798
hop 1797
Roosevelt 1796
27,@@ 1795
Mikhail 1795
Jin 1794
Ner@@ 1794
Ryan 1794
ylon 1794
Nas@@ 1793
XVIII 1793
atica 1793
dev 1793
320 1792
Bom@@ 1792
Ambl@@ 1791
Tach@@ 1791
canal 1791
gun 1791
its 1791
ī@@ 1791
Echin@@ 1790
poli@@ 1790
Golden 1789
Obama 1789
arra 1788
dot 1788
Band@@ 1787
Rec@@ 1786
cher@@ 1786
teria 1786
tus@@ 1786
Aus@@ 1785
Napoleon 1785
actus 1784
Zen@@ 1783
ë@@ 1783
18.@@ 1782
8.000 1782
Fon@@ 1781
23,@@ 1780
ave@@ 1780
light 1779
na@@ 1779
1826 1778
Stein@@ 1778
las 1778
ana@@ 1776
bury 1776
eira 1776
Nob@@ 1775
thium 1775
ud 1775
ids 1774
Aleksandr 1773
Christopher 1772
Net@@ 1772
inga 1772
ose 1772
rug@@ 1771
BC 1770
Miami 1770
acum 1770
enza 1770
Iz@@ 1769
Phal@@ 1769
ated 1769
zy 1769
AB@@ 1768
Taliban 1768
AD 1767
Balkan 1767
Bour@@ 1767
Lou@@ 1767
ily 1767
Philippe 1766
camera 1766
olia 1766
Morgan 1765
Samuel 1765
abad 1765
apa 1765
Arm@@ 1764
ater@@ 1764
pach@@ 1764
metal 1763
tium 1763
MS@@ 1762
ning 1762
kur@@ 1761
Cardi@@ 1760
cro@@ 1760
Chor@@ 1759
Raymond 1759
Ichneum@@ 1758
ST 1757
ander@@ 1757
tab@@ 1757
ş@@ 1756
TO@@ 1755
ide@@ 1755
Hans 1754
chel@@ 1753
RO@@ 1752
Kevin 1751
ches 1750
tac@@ 1750
Ostr@@ 1749
lav@@ 1749
Banks 1748
rep@@ 1748
DA 1747
erus 1746
glo@@ 1746
Hin@@ 1745
Jim 1745
cron@@ 1745
ès 1745
Pyrénées 1744
nan 1744
Bah@@ 1743
Cant@@ 1743
Nelson 1743
ulin 1743
Khar@@ 1742
ough 1742
AIDS 1740
fe@@ 1740
rap 1740
Maritime 1739
Ob@@ 1739
TE@@ 1739
sius 1739
MI@@ 1738
oper@@ 1737
alis@@ 1736
bó@@ 1736
GP@@ 1735
Good 1735
Spring 1735
onius 1735
Lucas 1734
aj 1734
³ 1734
mes 1733
Gros@@ 1732
Wright 1732
glu@@ 1732
128 1731
Patrick 1730
alba 1730
ean 1730
olig@@ 1730
Rider 1729
esper@@ 1729
Cru@@ 1728
Play 1728
Venezia 1728
107 1727
App@@ 1727
CC 1727
20.@@ 1726
pres@@ 1726
tion 1725
Hak@@ 1723
Hur@@ 1723
enne 1723
idis 1723
1829 1722
Nova 1722
onlyinclude 1722
zu@@ 1722
Pau@@ 1721
Santiago 1721
Mut@@ 1720
Nicholas 1720
Ae@@ 1719
Buck@@ 1719
Yor@@ 1719
medi@@ 1718
AU 1717
Lem@@ 1717
Witt@@ 1717
house 1716
Kra@@ 1715
Rolling 1715
22,@@ 1714
50.000 1714
Blake 1713
Power 1713
kham 1713
李@@ 1713
Yel@@ 1712
cili@@ 1712
Comp@@ 1710
coma 1709
leg@@ 1709
Heart 1708
Pog@@ 1708
ader 1708
cot@@ 1708
ely 1708
ề@@ 1708
Yok@@ 1707
1820 1706
agon@@ 1706
Xu 1705
fa@@ 1705
urg@@ 1704
ń 1704
Bolsh@@ 1703
Carter 1703
inium 1703
ism 1703
kei 1703
wen@@ 1703
Grim@@ 1702
Wer@@ 1702
rap@@ 1702
Lamp@@ 1701
gens 1701
Aires 1700
Myan@@ 1700
Sec@@ 1700
cha@@ 1700
sac@@ 1700
amo 1699
emp@@ 1699
lich@@ 1698
yrus 1698
Garonne 1697
Men 1697
alan 1697
neri 1697
org@@ 1697
90@@ 1696
Hokka@@ 1696
Melbourne 1696
may@@ 1696
Anton@@ 1695
Darwin 1695
Robin 1695
olis 1695
acus 1694
anch@@ 1693
comp@@ 1693
super@@ 1693
22.@@ 1692
usta 1692
Batman 1690
CI@@ 1690
Hag@@ 1689
Son 1689
hal 1689
21.@@ 1688
Buenos 1688
ones 1688
1810 1687
Eup@@ 1687
isha 1687
ran 1687
rei 1687
DE@@ 1686
Mod@@ 1686
7.000 1685
ẫu 1685
Hit@@ 1684
Mess@@ 1684
ave 1684
foli@@ 1684
Bundesliga 1683
Eul@@ 1683
âng 1683
Barbara 1682
hynch@@ 1682
phr@@ 1682
106 1681
115 1681
Wes@@ 1681
Cruz 1680
RI@@ 1680
anii 1680
gem@@ 1680
Boh@@ 1679
Id@@ 1678
War 1678
asu 1678
kab@@ 1678
arina 1677
AF@@ 1676
Fantasy 1676
Levi 1676
Somalia 1676
benz@@ 1676
cid@@ 1676
etum 1676
lance@@ 1676
ling@@ 1676
sag@@ 1676
uga 1676
bón 1674
103 1673
Namibia 1673
gu 1673
Genti@@ 1672
Kul@@ 1672
Ontario 1672
anger 1672
lav 1672
tae 1672
Shah 1671
sl@@ 1671
tre@@ 1671
lida 1670
Lei@@ 1669
Eil@@ 1668
bu 1668
Cun@@ 1667
bula 1667
ostr@@ 1667
Brid@@ 1666
Mac 1666
oki 1666
Cous@@ 1665
agro@@ 1665
sonia 1665
ā 1665
Bruch@@ 1664
Duy@@ 1664
Nebraska 1664
Santo 1664
「 1664
Gle@@ 1663
MP 1663
eme 1663
Harris 1662
Home 1662
ann 1662
pol 1662
radi@@ 1661
CO 1660
trac@@ 1660
」 1660
Inter 1659
anos 1659
model 1659
IA 1658
Madison 1658
Maur@@ 1658
uri@@ 1658
Lic@@ 1657
argent@@ 1657
hin 1657
Sai@@ 1656
dod@@ 1656
eller 1656
n.@@ 1656
Bath@@ 1655
Oh@@ 1654
Tiger 1654
nati@@ 1654
sing@@ 1654
Rot@@ 1653
uno 1653
Assy@@ 1652
Tennessee 1651
Tokugawa 1651
Gabriel 1650
Kay@@ 1650
Latvia 1650
orient@@ 1650
Einstein 1649
Lord 1649
rem@@ 1649
Lyon 1648
Sant@@ 1648
air 1647
oun 1647
w. 1647
ayat 1646
ias 1646
Turk@@ 1645
Lith@@ 1644
Sub@@ 1644
yar@@ 1644
Brah@@ 1643
Ivan@@ 1643
Milano 1643
Ralph 1643
Lup@@ 1642
O. 1642
Zambia 1641
borough 1641
tag@@ 1640
Adolf 1639
Sper@@ 1639
Takah@@ 1638
} 1638
Solanum 1637
andi 1637
avius 1637
ady 1636
oliv@@ 1636
imi 1635
111 1634
Fil@@ 1634
PE@@ 1634
fili@@ 1634
Him@@ 1632
lard 1632
Web 1631
ectus 1631
kir@@ 1631
Marcus 1630
poda 1630
Sankt 1629
ocol@@ 1629
ser 1629
ữu 1629
113 1628
135 1628
Kō@@ 1627
lev@@ 1626
lex 1626
lod@@ 1626
tz@@ 1626
Row@@ 1625
tul@@ 1625
China 1624
Ptolem@@ 1624
Sey@@ 1624
Orch@@ 1623
cun@@ 1623
ü@@ 1623
Ama@@ 1622
Jimmy 1622
Kepler 1622
Mall@@ 1621
Tric@@ 1621
Dim@@ 1620
Ray@@ 1620
Cul@@ 1619
fre@@ 1619
Ses@@ 1618
zar@@ 1618
lus@@ 1616
Gö@@ 1615
eana 1615
that 1615
eb 1614
este 1614
yon@@ 1614
ș@@ 1614
Luis 1613
Ves@@ 1613
240 1612
Post 1612
nucle@@ 1612
pac@@ 1612
Association 1611
Under@@ 1611
oss 1611
other@@ 1611
sha 1611
Min 1610
itch 1610
Sek@@ 1609
Story 1609
aug@@ 1608
lag@@ 1608
Andre@@ 1607
Fort 1607
Kak@@ 1607
win@@ 1607
Uzbekistan 1606
Sivas 1605
Orange 1604
Sharp 1604
Syl@@ 1604
pri@@ 1604
Maya 1603
sap@@ 1603
Og@@ 1602
1500 1601
46@@ 1601
Cog@@ 1601
ID 1601
avia 1601
IBM 1600
far@@ 1600
then 1600
Mete@@ 1599
leb@@ 1599
mang@@ 1599
oon 1599
19.@@ 1597
BO@@ 1597
ayan 1597
dil@@ 1597
eland 1597
pH 1597
Div@@ 1596
Type 1596
Yan@@ 1596
X. 1594
aios 1594
ange 1594
losa 1594
Game@@ 1593
Megal@@ 1593
Neo@@ 1593
Sea 1592
time 1591
Hut@@ 1590
Polyg@@ 1590
ostris 1590
wi 1590
IUCN 1589
ds 1589
wak@@ 1589
Paraguay 1588
Sang@@ 1588
his 1588
lik@@ 1588
phth@@ 1588
CP@@ 1587
Manuel 1587
ao@@ 1587
gor@@ 1587
28,@@ 1586
Barr@@ 1586
Stor@@ 1586
egia 1586
Juventus 1585
azi 1585
ery 1585
1.500 1584
1806 1584
Apollo 1584
MO@@ 1584
opp@@ 1584
55@@ 1583
Charlie 1583
Mobile 1583
anium 1583
zen 1583
200.000 1582
A1 1582
formes 1582
hydrox@@ 1581
odo@@ 1581
Kap@@ 1580
Ou@@ 1580
ort 1580
oster@@ 1580
Ş@@ 1580
Vincent 1579
fin@@ 1579
sut@@ 1579
syn@@ 1579
Hindu 1578
LC 1578
area 1578
ations 1578
ats 1578
Sac@@ 1577
ust 1577
21,@@ 1576
TVB 1576
ers@@ 1576
Nevada 1575
Pied@@ 1575
100@@ 1574
Cic@@ 1574
gro@@ 1574
Carey 1573
cam@@ 1573
yle 1573
Afr@@ 1572
tot@@ 1572
ğ@@ 1572
Adri@@ 1570
ego 1570
Calais 1569
hormon@@ 1569
kard 1569
sw@@ 1569
Medi@@ 1568
Netflix 1568
Newport 1568
210 1567
Haiti 1567
Jura 1567
jan@@ 1567
thoph@@ 1567
Typh@@ 1566
camp@@ 1565
chor@@ 1565
Cook 1564
Festival 1564
fort 1564
mani 1564
pid 1564
NT@@ 1563
Sarah 1563
otte 1563
Gad@@ 1562
bac@@ 1562
file 1562
pınar 1562
tem 1562
André 1561
elma 1561
Did@@ 1560
Saf@@ 1560
Z. 1560
ór@@ 1560
1.5@@ 1559
rod@@ 1559
.C. 1558
Edo 1558
bine 1558
cir@@ 1558
emer@@ 1558
Ori@@ 1557
elec@@ 1557
Pays 1556
Seg@@ 1555
aurus 1555
alo@@ 1554
uli 1554
AG@@ 1553
Boul@@ 1553
gos@@ 1552
kh 1552
ograd 1552
65@@ 1551
dorf 1551
yana 1551
wara 1550
40.000 1549
Fest@@ 1549
Ant@@ 1548
Ngu@@ 1548
abi 1548
ecus 1548
1801 1547
cord@@ 1547
odor 1547
shū 1547
var. 1547
Chr. 1546
ŏ@@ 1546
Boys 1545
Budapest 1545
Las@@ 1545
idia 1545
tepe 1545
Ł@@ 1545
IP@@ 1543
Han 1542
Pis@@ 1542
jazz 1542
uba 1542
bot@@ 1541
pon 1541
wang 1540
ald 1539
atis@@ 1539
tit@@ 1539
Fabr@@ 1538
OH 1537
Santos 1537
plus 1537
Brandenburg 1536
Key 1536
isc@@ 1536
Hip@@ 1535
Roy 1535
Sto@@ 1535
diesel 1535
Intel 1534
Lot@@ 1534
Pec@@ 1534
XVII 1534
mak@@ 1534
Carthage 1533
arp@@ 1533
day 1533
Neu@@ 1532
1812 1531
EC 1531
HQ 1531
IF@@ 1531
dos 1531
Jason 1530
Zor@@ 1530
base 1530
ical 1530
els@@ 1529
oux 1529
Ö@@ 1529
1789 1528
eles 1528
mix@@ 1528
Sen 1527
.S. 1526
Andy 1526
Bismarck 1525
Christ@@ 1525
Glo@@ 1525
evik 1525
Taj@@ 1523
mail 1523
mon 1523
è@@ 1523
Dry@@ 1522
Log@@ 1522
FF 1521
Maryland 1521
Ton@@ 1521
fen@@ 1521
squ@@ 1521
Ka 1520
Kane 1520
clav@@ 1520
hiro 1520
orth@@ 1520
Tap@@ 1519
Y. 1519
ono 1519
Arena 1518
avan 1518
ime 1518
ott 1518
AV@@ 1517
Shel@@ 1517
Silva 1517
aye 1517
h. 1517
Amsterdam 1516
MW 1516
oya 1516
1802 1515
Aragon 1515
Kelly 1515
Light 1515
Saône 1515
dav@@ 1515
Like 1514
sburg 1514
Cast@@ 1513
Gram@@ 1513
System 1513
What 1513
Gordon 1512
Leo 1512
Malawi 1512
Steven 1512
lers 1512
1.4@@ 1511
112 1511
APG 1511
Koz@@ 1511
Stre@@ 1511
TA 1511
ante 1511
2.0@@ 1509
Bhutan 1509
fon@@ 1509
Toy@@ 1508
let@@ 1508
æ@@ 1508
ợp 1508
49@@ 1507
Cou@@ 1507
big@@ 1507
ymus 1507
Jur@@ 1506
Kır@@ 1506
ize 1506
Alc@@ 1505
Card@@ 1505
adia 1505
Dream 1504
Hoff@@ 1502
atic 1502
Hus@@ 1501
Mind@@ 1501
Pan 1501
Walt 1501
tax@@ 1501
Po 1500
rog@@ 1500
Ut@@ 1499
Neur@@ 1498
you 1498
Mau@@ 1497
Oz@@ 1497
Rev@@ 1496
Universal 1495
etto 1495
oz 1495
plaz@@ 1495
tier 1495
vid@@ 1495
Habsburg 1494
Kuwait 1494
aman@@ 1494
1821 1493
44@@ 1493
Cau@@ 1493
Nick 1493
115@@ 1492
ABC 1492
DI 1492
1.6@@ 1491
aan 1491
152 1490
Honduras 1490
Tit@@ 1490
aud 1490
ingham 1488
Idi@@ 1487
ehr@@ 1487
see 1487
ệc 1487
Ross 1486
Sahara 1486
aban 1485
shire 1485
tes@@ 1485
Dark 1484
pig@@ 1484
BA 1482
VI@@ 1481
lec@@ 1481
web@@ 1481
Ferr@@ 1480
erman@@ 1480
Luke 1479
Salvador 1479
endr@@ 1479
lot@@ 1479
Delhi 1478
Euph@@ 1478
German 1478
Kod@@ 1478
las@@ 1478
stan 1478
23.@@ 1477
how 1477
State 1476
bet@@ 1476
loan 1476
‎ 1476
Maxim@@ 1475
Nev@@ 1475
lier 1475
agan 1474
fas@@ 1474
frag@@ 1474
rosa 1472
Benjamin 1470
Kens@@ 1470
clar@@ 1470
NE@@ 1469
rea 1469
Sent@@ 1468
Timor 1468
og 1468
29,@@ 1467
Lak@@ 1467
oud 1466
uria 1466
500.000 1464
Giovanni 1463
Hamburg 1463
inda 1463
Sit@@ 1461
ete 1461
lera 1461
Carl@@ 1460
Dipl@@ 1460
Spir@@ 1460
af 1460
cy 1460
vor@@ 1460
Dan 1459
ogo 1459
ther 1459
trum 1459
ago@@ 1458
cryp@@ 1458
dent@@ 1458
peti@@ 1458
RS 1456
zo@@ 1456
Mariana 1455
Project 1455
1,3 1454
Stap@@ 1454
back 1453
opterus 1453
yeon 1453
75@@ 1452
Fuj@@ 1452
Jo 1452
sta 1452
Venice 1451
ocarp@@ 1451
Raf@@ 1450
polis 1450
Meli@@ 1449
Philip@@ 1449
Vienna 1449
Kob@@ 1448
Yuri 1448
vers@@ 1448
750 1447
Abraham 1447
Agri@@ 1447
Allo@@ 1447
rus 1447
230 1446
Gek@@ 1446
Lennon 1446
Aub@@ 1445
Stewart 1445
dance 1445
das 1445
Clo@@ 1444
iPhone 1444
š 1444
Zero 1443
Caroline 1442
Cha@@ 1442
Forbes 1442
Montenegro 1442
Oliver 1442
ies 1442
ác@@ 1442
1,8 1441
sho@@ 1441
ustr@@ 1441
ères 1441
int 1440
Augustus 1439
Lun@@ 1439
Murray 1439
Bohemia 1438
Hot@@ 1438
Jag@@ 1438
Kastamonu 1438
Tham@@ 1438
Wolf 1438
acon@@ 1438
arti@@ 1438
Boc@@ 1437
ask@@ 1437
Now@@ 1436
Samoa 1436
awak 1436
peru@@ 1436
ık@@ 1436
Foundation 1435
Thr@@ 1435
Tottenham 1435
itter 1435
Leon 1434
Miz@@ 1434
Titan 1434
To 1434
forme 1434
Dong 1433
Paras@@ 1433
Byr@@ 1432
Luther 1432
Rein@@ 1432
Christ 1431
Jay 1431
Office 1431
PO@@ 1431
chip 1431
fe 1431
ology 1430
Alpha 1429
Cô@@ 1429
Tru@@ 1429
arus 1429
ı 1428
ator@@ 1427
Monte 1426
Sah@@ 1425
Wood 1425
1,6 1424
126 1424
144 1424
Art 1423
Robinson 1423
net@@ 1423
Tad@@ 1422
That 1422
salis 1422
Emb@@ 1421
Ras@@ 1421
ble@@ 1421
August 1420
ISO 1420
Nixon 1420
Singles 1420
aker 1420
dere 1420
eran 1420
sig@@ 1420
Corse 1419
Fol@@ 1419
igny 1419
Sco@@ 1418
Uli@@ 1418
oride 1418
Line 1417
ante@@ 1417
blog 1417
iz 1416
AK 1415
iku 1415
irus 1414
Cler@@ 1413
Frankfurt 1413
dita 1413
± 1413
ë 1413
000.000 1412
280 1412
Alek@@ 1412
Ole@@ 1412
Out 1412
abra 1412
zh 1411
ören 1411
Et@@ 1409
Way 1409
Austin 1408
Pho@@ 1408
Kann@@ 1407
Shaw 1407
plum@@ 1407
Seattle 1406
Stu@@ 1406
anol 1406
ment 1406
sos@@ 1406
He 1405
tua 1405
Ž@@ 1405
eville 1404
unga 1403
Ev@@ 1402
census 1402
lab@@ 1402
out@@ 1402
Evans 1401
jan 1401
speci@@ 1401
122 1400
Nicaragua 1400
audi@@ 1400
tr 1400
TT 1399
ayo 1399
Wed@@ 1398
atra 1398
nad 1398
nom 1398
Phoenix 1397
Valencia 1397
down 1396
gil@@ 1396
Castro 1395
Sports 1395
bak@@ 1395
ister 1395
oker 1395
Louisiana 1394
enf@@ 1394
gs 1394
Yar@@ 1393
Gos@@ 1392
Graham 1392
Thal@@ 1392
enth@@ 1392
Rum@@ 1391
avi 1391
Trinidad 1390
cover 1390
ellip@@ 1390
kel 1390
rie 1390
ris@@ 1390
Matthew 1389
Roman 1389
fat 1389
iec 1389
pun@@ 1389
1805 1388
Michel 1388
PP@@ 1387
odor@@ 1387
Cran@@ 1386
Castel@@ 1385
Uni@@ 1385
trach@@ 1385
esh 1384
Fernando 1383
Sant 1383
aren@@ 1383
Eg@@ 1382
Global 1382
Hey@@ 1382
Women 1382
LO@@ 1381
Wii 1381
fel@@ 1381
hex@@ 1381
nier 1381
Central 1380
ôme 1380
330 1379
Lub@@ 1379
ticul@@ 1379
AA 1378
Juli@@ 1378
5000 1377
ares 1377
né 1377
Psych@@ 1376
123 1375
Eus@@ 1375
Ken 1375
Saur@@ 1375
oscor@@ 1375
Charlotte 1374
phone 1374
şehir 1374
ME@@ 1373
eter@@ 1373
pep@@ 1373
Florence 1372
Newcastle 1371
Square 1371
kom@@ 1371
topo@@ 1371
án@@ 1371
DF 1370
ados 1370
obia 1370
1819 1369
ando 1369
isch 1369
phis 1369
resc@@ 1369
19@@ 1368
SI 1368
doc@@ 1368
mut@@ 1368
gram 1367
Cairo 1366
Jacob 1366
Nokia 1366
jam@@ 1366
57@@ 1365
Kath@@ 1365
nano 1365
omo 1365
AI 1364
Cameron 1364
Stockholm 1364
oby 1364
rom 1364
Denis 1363
atar 1363
lès 1363
Bé@@ 1362
inopolis 1362
soi 1362
BT@@ 1361
Chap@@ 1361
Lili@@ 1361
Warren 1361
elt 1361
54@@ 1360
Janeiro 1360
Kang 1360
iOS 1360
ont 1360
wel@@ 1360
Aut@@ 1359
onic 1359
ward 1359
→ 1359
Athena 1358
Pak@@ 1358
Tour@@ 1358
eu 1358
occident@@ 1358
260 1357
alla 1357
Fus@@ 1356
mar 1356
r. 1356
uel@@ 1356
Acr@@ 1355
occ@@ 1354
ren 1354
tif@@ 1354
trix 1354
Ă@@ 1354
Bi 1353
Bo 1353
Gem@@ 1353
alpha 1353
art@@ 1352
ost 1352
Ho 1351
Shak@@ 1351
oj@@ 1351
sand@@ 1351
Ha 1350
Stach@@ 1350
kel@@ 1350
ought 1350
Lo 1349
Rou@@ 1349
sex@@ 1349
spin 1349
wald 1349
1,4 1348
1.7@@ 1348
Cad@@ 1348
lov 1348
ops@@ 1348
riv@@ 1348
Kut@@ 1347
Stan@@ 1347
vern@@ 1347
1818 1346
Iberia 1346
ester 1346
etz@@ 1346
lau 1346
15.000 1345
Cus@@ 1345
alar@@ 1345
ses 1345
201@@ 1344
Dick@@ 1344
Od@@ 1344
auch@@ 1344
Eure 1343
Minas 1343
over 1343
Joh@@ 1342
Sik@@ 1342
ces@@ 1342
ret 1342
1.8@@ 1341
Bahrain 1341
Beth@@ 1341
Lach@@ 1341
mp@@ 1341
try 1341
Fiji 1340
Gab@@ 1340
Works 1340
brom@@ 1340
erg@@ 1340
neur@@ 1340
osaur@@ 1340
pard 1340
CPU 1339
Cath@@ 1339
Wel@@ 1339
ager 1339
trat 1339
ix 1338
Dixon 1337
Kentucky 1337
aza 1337
ect 1337
trunc@@ 1337
43@@ 1336
Jas@@ 1336
Montgomery 1336
Agro@@ 1335
Daily 1335
Raw 1334
Say@@ 1334
Was@@ 1334
cep@@ 1334
inos 1334
Cyn@@ 1333
Mali 1333
Sound 1333
diana 1333
yun@@ 1333
124 1332
Acon@@ 1332
Gothic 1332
King@@ 1332
Tik@@ 1332
alpin@@ 1332
cab@@ 1332
1,1 1331
Airways 1331
Pier@@ 1331
Tou@@ 1331
ores 1331
1815 1330
Loc@@ 1330
itar@@ 1330
ovice 1330
rik 1330
117 1329
AE 1329
McCartney 1329
O2 1329
ardi 1329
off@@ 1329
them@@ 1329
Palau 1328
ano@@ 1328
unk@@ 1328
Duc@@ 1327
Mecklenburg 1327
Nikolai 1327
Stanley 1327
aum 1327
ović 1327
Bernard 1326
Lad@@ 1326
Württemberg 1326
emat@@ 1326
rov@@ 1326
ror@@ 1325
ted 1325
Sherman 1324
pov 1324
Cob@@ 1323
Proc@@ 1323
Strand 1323
elin 1323
Koh@@ 1322
Mitchell 1322
Run@@ 1322
ants 1322
bot 1322
sign@@ 1322
Atlanta 1321
Slav 1321
egr@@ 1321
bey 1320
155 1319
Batt@@ 1319
Cyan@@ 1319
Eth@@ 1319
Georges 1319
ME 1319
Web@@ 1319
ms 1319
Jonathan 1318
gul@@ 1318
Aug@@ 1317
Fed@@ 1317
icius 1317
CEO 1316
Dil@@ 1316
FM 1316
Garr@@ 1316
RAM 1316
Tax@@ 1316
Tō@@ 1316
hop@@ 1316
Kyr@@ 1315
Matt 1315
Wild 1315
Yuk@@ 1315
has 1315
letes 1315
Leh@@ 1314
uth 1314
Dru@@ 1313
com 1313
nin 1313
58@@ 1312
Chan 1312
Poc@@ 1312
Biał@@ 1311
End 1311
Riv@@ 1311
elop@@ 1311
iji 1311
qui 1311
ventr@@ 1311
Eli@@ 1310
ble 1310
idō 1310
Johannes 1309
Sparta 1309
lake 1309
Nord 1308
Rwanda 1308
Virgin 1308
« 1308
Len@@ 1307
Songs 1307
aver@@ 1306
less 1306
270 1305
Flor@@ 1305
Hunter 1305
Oklahoma 1305
cle@@ 1305
i.@@ 1305
igi@@ 1304
ĩa 1304
Book 1302
post@@ 1302
Good@@ 1301
axis 1301
evo 1301
rio 1301
star 1301
Genève 1300
Map@@ 1300
RC 1300
Tig@@ 1300
live 1300
Justin 1299
Sr@@ 1299
dé@@ 1299
eter 1299
kw@@ 1299
sik@@ 1298
7,5 1297
Anc@@ 1297
Chrom@@ 1296
Greenland 1296
Hay 1296
ilio 1296
Charente 1295
Gold 1295
Miguel 1295
RT@@ 1295
cheon 1295
England 1294
crist@@ 1294
ru 1294
Blan@@ 1293
Ris@@ 1293
Ain 1292
andro@@ 1292
my 1292
gene 1291
Gilbert 1290
Slo@@ 1290
文@@ 1290
1814 1289
Danube 1289
ectes 1289
1804 1288
Germain 1288
Ron 1288
USA 1288
Urban 1288
1822 1287
Dub@@ 1287
Benn@@ 1286
cana 1286
£ 1286
Scho@@ 1285
etti@@ 1285
1823 1284
pum@@ 1284
Song@@ 1283
Weber 1283
175 1282
Engl@@ 1282
Film 1282
Online 1282
RT 1281
SN@@ 1281
ikawa 1281
mec@@ 1281
Stalingrad 1280
thys 1280
Delta 1279
atrix 1279
116 1278
Airbus 1278
boat 1278
121 1277
Petersburg 1277
Pras@@ 1277
Press 1277
xis 1277
war 1276
cri@@ 1275
olog@@ 1275
anag@@ 1273
aup@@ 1273
val 1273
1803 1272
kes 1272
rur@@ 1272
ượ@@ 1272
ideae 1271
ingia 1271
Ling@@ 1270
tsch@@ 1270
Akh@@ 1269
Claude 1269
Hermann 1269
foot 1269
nm 1269
Dow@@ 1268
lax@@ 1268
Society 1267
Utah 1267
lun@@ 1267
www.@@ 1267
ửi 1267
Express 1266
Hend@@ 1266
Nur@@ 1266
Olig@@ 1266
adu@@ 1266
bus@@ 1266
gre@@ 1266
Ts@@ 1265
Vig@@ 1265
cz 1265
iken 1265
ț@@ 1265
Bosnia 1263
Istanbul 1263
Jose 1263
ness 1263
que@@ 1263
stan@@ 1263
én@@ 1263
Baby 1262
Who 1262
hap@@ 1262
otrop@@ 1262
550 1261
acan@@ 1261
cali@@ 1261
major 1261
ław@@ 1261
Param@@ 1260
Weekly 1259
hon@@ 1259
lock 1259
天@@ 1259
5,5 1258
Campo@@ 1258
Mars 1258
Stevens 1258
kow@@ 1258
thera 1258
Rox@@ 1257
Soy@@ 1257
Ster@@ 1256
fes@@ 1256
sph@@ 1256
Vegas 1255
nes@@ 1255
oidea 1255
Copa 1254
Haz@@ 1254
Scr@@ 1254
Sega 1254
Sky 1254
Julia 1253
bach@@ 1253
ket@@ 1253
mu 1253
Hard@@ 1252
Jun 1252
Mom@@ 1252
Rog@@ 1252
Azur 1251
ouk 1251
Ż@@ 1251
End@@ 1250
HT@@ 1250
Louise 1250
Vorpommern 1250
abus 1250
aira 1250
grap@@ 1250
kim@@ 1250
GR@@ 1249
Mr. 1249
Pas 1249
NG 1248
PC@@ 1248
obi 1248
114 1247
Dir@@ 1247
Hydr@@ 1246
Just 1246
duc@@ 1246
tei 1246
Polyn@@ 1245
Pun@@ 1245
Ted 1245
aton 1245
mea 1245
thal@@ 1245
β 1245
Yokohama 1244
56@@ 1243
CO2 1243
INSEE 1243
Oise 1243
WC 1243
XP 1243
Zhu@@ 1243
board 1243
edr@@ 1243
ieri 1243
ilo 1243
oste@@ 1243
res 1243
rid@@ 1243
Master 1242
Oh 1242
Suzuki 1242
1813 1241
BS 1241
Fred 1241
Wall 1241
Jeffrey 1240
aia 1240
Panzer 1239
Ti 1239
tir@@ 1239
118 1238
145 1238
AG 1238
Himalaya 1238
Leone 1238
Tac@@ 1238
def@@ 1238
fru@@ 1238
hypo@@ 1238
Top@@ 1237
woo 1237
ịp 1237
1817 1236
Earth 1236
hil@@ 1236
Fabaceae 1235
Gamb@@ 1235
Phot@@ 1235
TE 1235
SE 1234
ahl@@ 1234
Chase 1233
Churchill 1233
Sainte 1233
Vent@@ 1233
WHO 1233
sic@@ 1233
公 1233
Boris 1232
Kop@@ 1232
quer@@ 1232
ushima 1231
John@@ 1230
Manhattan 1230
ck@@ 1230
eer 1230
ovic 1230
zer@@ 1230
Ð@@ 1230
ár@@ 1230
ạ@@ 1230
BM@@ 1229
Birmingham 1229
asha 1229
urs 1229
Gibraltar 1228
Monroe 1228
Vul@@ 1228
ents 1228
own 1228
tric 1228
» 1228
Johnny 1227
Maurice 1227
czy@@ 1227
troph@@ 1227
Fuji@@ 1226
angu@@ 1226
anom@@ 1226
má@@ 1226
ocr@@ 1226
İ@@ 1225
Cher 1224
hara 1224
icon 1224
med@@ 1224
uer@@ 1224
Rhine 1223
Space 1223
fum@@ 1223
Fili@@ 1222
Lop@@ 1222
dar 1222
sak@@ 1222
then@@ 1222
Fuku@@ 1221
Opera 1221
Wy@@ 1221
abri@@ 1221
nch@@ 1221
neb@@ 1221
Back 1220
Blu@@ 1220
CV@@ 1220
SH@@ 1220
een 1220
pag@@ 1220
yu@@ 1220
Rib@@ 1219
bis 1219
cus@@ 1219
wor@@ 1219
nas@@ 1218
Anhalt 1217
Last 1217
Rosa 1217
gang 1217
oque 1217
wer 1217
aw 1216
pit@@ 1216
1.9@@ 1215
Arts 1215
Sailor 1215
Sl@@ 1215
sel 1215
Fire 1214
PL@@ 1214
Timber@@ 1214
bank 1214
logo 1214
tel 1214
Iron 1213
Mozart 1213
ous@@ 1213
Amen@@ 1212
PT@@ 1212
pend@@ 1212
Dallas 1211
Tox@@ 1211
Vancouver 1211
izu 1211
Ed 1210
Science 1210
aft 1210
129 1209
Dylan 1209
Putin 1209
RA 1208
Asian 1207
Edwards 1207
lis@@ 1207
1,7 1206
Cly@@ 1206
JT@@ 1206
Manche 1206
itt 1206
ays 1205
begin 1205
caud@@ 1205
wich 1205
Day@@ 1204
Dead 1204
ener 1204
olle 1204
165 1203
Porto 1203
Yu 1203
kai 1203
sat@@ 1203
view 1203
1775 1202
Fraser 1202
Geor@@ 1202
Tch@@ 1202
ley@@ 1202
zen@@ 1202
Billy 1201
Gaz@@ 1201
Patr@@ 1201
củ@@ 1201
Pink 1200
SBS 1199
Uttar 1199
ult@@ 1199
hyper@@ 1198
sab@@ 1198
64@@ 1197
AB 1197
kaya 1197
pet 1197
stig@@ 1197
stric@@ 1197
Cooper 1196
into 1196
ushi 1196
6,5 1195
EX@@ 1195
Prix 1195
Sing@@ 1195
atti 1195
ige 1195
nav@@ 1195
Ann 1194
Nymph@@ 1194
Penn@@ 1194
star@@ 1194
53@@ 1193
67@@ 1193
Karab@@ 1193
cari@@ 1193
later@@ 1193
sid@@ 1193
uz 1193
Marc 1192
agne 1192
arab@@ 1192
dei 1192
phili@@ 1192
ư@@ 1192
Kem@@ 1191
Tot@@ 1191
ef 1191
http 1191
kun@@ 1191
igi 1190
rostr@@ 1190
Gall@@ 1189
rates 1189
­ 1189
č 1189
1788 1188
IL 1188
eka 1188
Forest 1187
Kent 1187
Thompson 1187
Wh@@ 1187
başı 1187
rang 1187
Çorum 1187
,@@ 1186
68@@ 1186
Gary 1186
H2O 1186
imo 1186
opotam@@ 1186
suki 1186
Peg@@ 1185
Sofia 1184
aman 1184
arms 1184
ingo 1184
sam 1184
studio 1184
tas@@ 1184
FK 1183
ilg@@ 1183
tila 1183
124@@ 1181
Phil 1181
Yer@@ 1181
orius 1181
rus@@ 1181
Dob@@ 1180
Gabon 1180
tetr@@ 1180
tubercul@@ 1180
AF 1179
Kızıl@@ 1179
Tah@@ 1179
lot 1179
Brad@@ 1178
Choi 1178
ces 1178
trad@@ 1178
uck 1178
Dra@@ 1177
Nicolas 1177
Raven@@ 1177
anj@@ 1177
fish 1177
Ek@@ 1176
Rak@@ 1176
VC 1176
Zel@@ 1176
Mauritius 1175
SD 1175
achia 1175
Dean 1174
Fos@@ 1174
anya 1174
did@@ 1174
lex@@ 1174
ond 1174
Hub@@ 1173
Oliv@@ 1173
Tas@@ 1173
Connecticut 1172
Ges@@ 1172
Kosovo 1172
iba 1172
mid@@ 1172
ñ@@ 1172
Christina 1171
brasili@@ 1171
Eug@@ 1170
FDA 1170
IT@@ 1170
Calcio 1169
Down 1169
Sud@@ 1169
Western 1169
aver 1169
ladi@@ 1169
747 1168
Krasno@@ 1168
Sev@@ 1168
ams 1168
Angel@@ 1167
Fab@@ 1167
Holmes 1167
uridae 1167
Alder@@ 1166
Galicia 1166
Gerais 1166
KV@@ 1166
Lud@@ 1166
Or 1166
Portland 1166
Garden 1165
\ 1165
dov@@ 1165
fran@@ 1165
under@@ 1165
30,@@ 1164
Ball 1164
Empire 1164
Kind@@ 1164
Trag@@ 1164
enda 1164
ush 1164
water 1164
146 1163
DV@@ 1163
Feder@@ 1163
Moldova 1163
ayn@@ 1163
tal 1163
ể@@ 1163
Clin@@ 1162
Aisne 1160
LE@@ 1160
Leopold 1160
Pos@@ 1160
Pug@@ 1160
Jennifer 1159
Lut@@ 1159
Nadu 1159
Page 1159
burn 1159
cu 1159
gic 1159
300.000 1158
Gren@@ 1158
auer 1158
ibn 1158
lic 1158
spl@@ 1158
Berg 1157
Cli@@ 1157
Karak@@ 1157
Zy@@ 1157
onym@@ 1157
Boz@@ 1156
Journal 1156
ensk 1156
enton 1156
nen 1156
sangu@@ 1156
Hell@@ 1155
pot 1155
ehr 1154
landia 1154
Hudson 1153
Ian 1153
LV@@ 1153
boy 1153
della 1153
ink 1153
pole@@ 1153
psy@@ 1153
132 1152
Beijing 1152
enna 1152
114@@ 1151
1792 1151
Sv@@ 1151
Tus@@ 1151
eshi 1151
obo@@ 1151
Hugo 1150
Sok@@ 1150
Tun@@ 1150
parti@@ 1150
Animation 1149
Bros. 1149
Tet@@ 1149
ig 1149
kas@@ 1149
vet@@ 1149
za@@ 1149
Shik@@ 1148
tí@@ 1148
117@@ 1146
县 1146
650 1145
Chan@@ 1145
Eph@@ 1145
Wah@@ 1145
tria 1145
Are 1144
ayama 1144
kara 1144
stein@@ 1144
thes@@ 1144
Heidelberg 1143
Montana 1143
Soul 1143
Sund@@ 1143
icop@@ 1143
ingi 1143
113@@ 1142
25.000 1142
Cac@@ 1142
Cannes 1142
Copenhagen 1142
Huy@@ 1142
Law@@ 1142
mek@@ 1142
24.@@ 1141
bei 1141
ib 1141
uda 1141
ism@@ 1140
ườ@@ 1140
Bass@@ 1139
aji 1139
opatra 1139
rum 1139
， 1139
Singh 1138
Ward 1138
alta 1138
pta 1138
ries@@ 1138
wit@@ 1138
Oman 1137
iton 1137
rell 1137
lap@@ 1136
ER 1135
Monaco 1135
pinn@@ 1135
skaya 1135
Aden@@ 1134
Anto@@ 1134
aina 1134
kol@@ 1134
par 1134
1808 1133
25.@@ 1133
Aş@@ 1133
cut@@ 1133
magn@@ 1133
Aj@@ 1132
icz 1132
1.200 1131
Athletic 1131
ally 1131
eld 1131
380 1130
Carol 1130
Sul 1130
hen 1130
Dip@@ 1129
ON@@ 1129
gamma 1129
kum@@ 1129
a.@@ 1128
acker 1128
cad@@ 1128
tran@@ 1128
és 1128
Das@@ 1127
Rhin 1127
Uro@@ 1127
conf@@ 1127
wet@@ 1127
Butler 1126
öl@@ 1126
Albums 1125
EA 1125
Jose@@ 1125
SK 1124
Stere@@ 1124
cal 1124
hur@@ 1124
ihan@@ 1124
tos 1124
DT 1123
Over@@ 1123
igan 1123
minut@@ 1123
sy 1123
ves@@ 1123
Academy 1122
Harold 1122
Parker 1122
Dni@@ 1121
ecker 1121
fle@@ 1121
wol@@ 1121
Just@@ 1120
osi@@ 1120
185 1119
225 1119
Bristol 1119
allo 1119
capit@@ 1119
gy 1119
Bart@@ 1118
Brothers 1118
poli 1118
His@@ 1117
People 1117
Smil@@ 1117
aut 1117
beri 1117
but 1117
cera 1117
eler 1117
ente 1117
prol@@ 1117
Ernst 1116
Iv@@ 1116
Metro 1116
Zeus 1116
ux 1116
Schul@@ 1115
Weise 1115
oti 1115
rif@@ 1115
Gli@@ 1114
Jon 1114
Monte@@ 1114
Rangers 1114
har 1114
26.@@ 1113
ots 1113
119@@ 1112
BM 1112
Bourbon 1112
Lus@@ 1112
tiva 1112
1807 1111
Dream@@ 1111
Sass@@ 1111
imar@@ 1111
Campbell 1110
Ces@@ 1110
Hills 1110
Spo@@ 1110
inck 1110
Sug@@ 1109
dom 1109
esses 1108
Pra@@ 1107
inho 1107
tec@@ 1107
Bond 1106
By 1106
Gra@@ 1106
Leonard 1106
PH@@ 1106
Phys@@ 1106
Roman@@ 1106
endorf 1106
lom@@ 1106
red 1106
triang@@ 1106
CR@@ 1105
Cla@@ 1105
Gill@@ 1105
PR 1105
SD@@ 1105
her 1105
Idol 1104
Marco 1104
yal@@ 1104
Oro@@ 1103
ga@@ 1103
lava 1102
12.000 1101
59@@ 1101
66@@ 1101
Abdul 1101
Aristot@@ 1101
Clay 1101
Rafael 1101
corn@@ 1101
116@@ 1100
Manisa 1100
Sever@@ 1100
xy 1100
Ana 1099
Generation 1099
Slav@@ 1099
azaki 1099
000@@ 1098
Cyrus 1098
Of 1098
Rey 1098
Roberts 1097
Stars 1097
Versailles 1097
elas 1097
rati@@ 1097
itum 1096
136 1094
Emma 1093
F1 1093
Hall@@ 1093
Laura 1093
Lisa 1093
Open@@ 1093
atri@@ 1093
lett 1093
30.@@ 1092
Pacific 1092
anni 1092
owice 1092
pper 1092
zz@@ 1092
2,4 1091
akh 1091
Die 1090
awi 1090
2.500 1089
Coch@@ 1089
Tan 1089
2.0 1088
Bonaparte 1088
Cum@@ 1088
Dave 1088
Emilia 1088
Eugen 1088
Marc@@ 1088
Mek@@ 1088
SL@@ 1088
hisp@@ 1088
Buk@@ 1087
Gib@@ 1087
bal 1087
egi@@ 1087
tron 1087
ır@@ 1087
Free 1086
stel@@ 1086
tern@@ 1086
Chester 1085
Franco 1085
Kle@@ 1085
Zi@@ 1085
cylin@@ 1085
eby 1085
D.C. 1084
Kre@@ 1084
peri@@ 1084
spr@@ 1084
Comics 1083
ET 1083
Io@@ 1083
ahu 1083
Say 1082
notes 1082
tide 1082
2,3 1081
Gri@@ 1080
Niger 1080
litz 1080
stell@@ 1080
28.@@ 1079
Path@@ 1079
Phillips 1079
born 1079
deg@@ 1079
m2 1079
Ajax 1078
Dong@@ 1078
Lie@@ 1078
Neb@@ 1078
Tut@@ 1078
kor 1078
omel@@ 1078
mart@@ 1077
134 1076
1816 1076
Bailey 1076
Haus@@ 1076
Nicol@@ 1076
Yeşil@@ 1076
apar@@ 1076
shi 1076
Brun@@ 1075
How 1075
LP 1075
子 1075
99@@ 1074
Calvin 1074
Capr@@ 1074
Gan@@ 1074
Mem@@ 1074
Willis 1074
frig@@ 1074
1758 1073
Isaac 1073
Saw@@ 1073
bian 1073
cons@@ 1073
emann 1073
119 1072
Westminster 1072
cast 1072
emi 1072
emis 1072
leton 1072
Oricon 1071
Party 1071
Tiber@@ 1071
gir@@ 1071
Trot@@ 1070
gon@@ 1070
lay 1070
ndi@@ 1070
And@@ 1069
Barb@@ 1069
Kaf@@ 1069
Store 1069
osph@@ 1069
t. 1069
Ahmed 1068
Normand@@ 1068
Wur@@ 1068
clip 1068
osta 1068
340 1067
Crawford 1067
Masters 1067
Taş@@ 1067
ahl 1067
rans 1067
ump@@ 1067
737 1066
Honda 1066
Kov@@ 1066
dad 1066
pir@@ 1066
wick 1066
young 1066
ň@@ 1066
Mount 1065
cio 1065
tril@@ 1065
zel@@ 1065
är@@ 1065
Cole@@ 1064
Cra@@ 1064
Mud@@ 1064
Ronaldo 1064
Up@@ 1064
trig@@ 1064
Bermuda 1063
For 1063
Jessica 1063
118@@ 1062
Guy 1062
Reagan 1062
dop@@ 1062
ime@@ 1062
mol 1062
él@@ 1062
Big@@ 1061
Grap@@ 1061
Schwarz 1061
Hughes 1060
Now 1060
Wł@@ 1060
bridge 1060
ebe 1060
ew 1060
hee 1060
Angel 1059
Basil@@ 1059
Kobe 1059
agon 1059
aser 1059
dam 1059
iTunes 1059
As 1058
Hunt 1058
85@@ 1057
Cag@@ 1057
Metacritic 1057
Reed 1057
asaki 1057
bea 1057
cum@@ 1057
Bruno 1056
Electric 1056
Fut@@ 1056
How@@ 1056
ī 1056
Kamp@@ 1055
Mab@@ 1055
137 1054
1798 1054
MT 1054
Sep@@ 1054
Brooklyn 1053
Donn@@ 1053
Gw@@ 1053
Ind@@ 1053
Nab@@ 1053
Philippine 1053
umbr@@ 1053
Gustav 1052
ore@@ 1052
sdorf 1052
́ 1052
Ernest 1051
Naz@@ 1051
Zach@@ 1051
core@@ 1051
teen 1051
Erzurum 1050
ason 1050
hav@@ 1050
Beat@@ 1049
Carr@@ 1049
Dhar@@ 1049
ahi 1049
fri@@ 1049
otea 1049
tex@@ 1049
ape 1048
modi@@ 1048
ová 1048
235 1047
Nancy 1047
Play@@ 1047
Tyran@@ 1047
dul@@ 1047
ox 1047
69@@ 1046
Edinburgh 1046
Kub@@ 1046
Pam@@ 1046
idge 1046
uku 1046
Enterprise 1045
Force 1045
Hart@@ 1045
Stic@@ 1045
Terry 1045
omor@@ 1045
ppo 1045
vers 1045
Kand@@ 1044
Ltd 1044
Nich@@ 1044
ör@@ 1044
Chen@@ 1043
Christmas 1043
Let 1043
Rhein 1043
Yamag@@ 1043
eir@@ 1043
ști 1043
1790 1042
AE@@ 1042
Ass@@ 1042
Barry 1042
Meuse 1042
illi 1042
pop@@ 1042
rech@@ 1042
Bh@@ 1041
Chit@@ 1041
Eugene 1041
Grace 1041
Jeff 1041
Von 1041
hiy@@ 1041
ikistan 1041
lah 1041
form 1040
Gav@@ 1039
dich@@ 1039
1799 1038
Ler@@ 1038
Pac@@ 1038
sula 1038
157 1037
DS@@ 1037
Schult@@ 1037
bella 1037
inin 1037
mark 1037
oh 1037
tar 1037
Calv@@ 1036
fi 1036
FO@@ 1035
Hob@@ 1035
Liber@@ 1035
acta 1034
non@@ 1034
Ligue 1033
Punjab 1033
Tav@@ 1033
illon 1033
tad@@ 1033
andinavia 1032
edi 1032
kar 1032
oney 1032
raga 1032
安@@ 1032
Corin@@ 1031
PM 1031
andal 1031
ate@@ 1031
etr@@ 1031
141 1030
206 1030
Grove 1030
Hebrew 1030
Rai 1030
Rovers 1030
elt@@ 1030
1600 1029
Nielsen 1029
bie 1029
gri@@ 1029
suy@@ 1029
zan@@ 1029
Hass@@ 1028
Hiroshima 1028
Liu 1028
Pix@@ 1028
Thel@@ 1028
IG@@ 1027
imoto 1027
Pes@@ 1026
Rech@@ 1026
astes 1026
eg 1026
ente@@ 1026
214 1025
Adel@@ 1025
Broadway 1025
Silla 1025
ider 1025
27.@@ 1024
Georg 1024
Niz@@ 1024
Samsun 1024
USB 1024
Zhang 1024
away 1024
insig@@ 1024
Haj@@ 1023
Neil 1023
Wars 1023
ás@@ 1023
Cole 1022
Fas@@ 1022
Magazine 1022
Ron@@ 1022
alifor@@ 1022
2,2 1021
Leipzig 1021
cum 1021
edonia 1021
indica 1021
nar 1021
ury 1021
1809 1020
Amphi@@ 1020
Ankara 1020
Sha@@ 1020
agawa 1020
Jol@@ 1019
Kok@@ 1019
SI@@ 1019
had 1019
の@@ 1019
Liberia 1018
Our@@ 1018
chl@@ 1018
evi@@ 1018
gea 1018
ệch 1018
hem 1017
ulia 1017
Bryan 1016
Ceb@@ 1016
Spin@@ 1016
cid 1016
lary 1016
ogen@@ 1016
205 1015
76@@ 1015
simum 1015
ọ@@ 1015
Blu 1014
Bung@@ 1014
Cres@@ 1014
Thüringen 1014
cli@@ 1014
otti 1014
Nagasaki 1013
amaz@@ 1013
mexicana 1013
éc@@ 1013
131 1012
Death 1012
Kö@@ 1012
Leit@@ 1012
Mare 1012
ario 1012
ols 1012
Cross 1011
Fres@@ 1011
Rhodes 1011
ment@@ 1011
sal 1011
ē@@ 1011
Bod@@ 1010
Camb@@ 1010
Nadal 1010
Smol@@ 1010
ő@@ 1010
Limited 1009
Lip@@ 1009
Spears 1009
mich@@ 1009
tip@@ 1009
vie 1009
€ 1009
Fat@@ 1008
Reh@@ 1008
erina 1008
fem@@ 1008
liz@@ 1008
Belle 1007
Cey@@ 1007
LED 1007
MG 1007
Magic 1007
Marseille 1007
Sib@@ 1007
alin 1007
awan 1007
33,@@ 1006
Lot 1006
allo@@ 1006
rat 1006
Buf@@ 1005
0,1 1004
21@@ 1004
GM 1004
Kru@@ 1004
Pou@@ 1004
lif@@ 1004
133 1003
Buz@@ 1003
Carlo 1003
FBI 1003
Helena 1003
Nin@@ 1003
Thomson 1003
ophi@@ 1003
sax@@ 1003
Gör@@ 1002
Mans@@ 1002
Princess 1002
Southern 1002
ique 1002
oso 1002
147 1001
Khal@@ 1001
Main 1001
Pag@@ 1001
Water@@ 1001
card 1001
ụp 1001
Blackburn 1000
Kuz@@ 1000
gar 1000
211 999
Emmy 999
Sup@@ 999
ahu@@ 999
ause 999
Catal@@ 998
DL 998
DO@@ 998
Khali@@ 998
Wallace 998
ads 998
cona 998
zano 998
anie 997
nu 997
tics 997
Arnold 996
Cleveland 996
Rama 996
Tib@@ 996
1811 995
Berkeley 995
IGN 995
Jakarta 995
Mancha 995
SP 995
if 995
Fay@@ 994
Mercury 994
atina 994
pound 994
quez 994
Amer@@ 993
Nau@@ 993
Ship@@ 993
Zar@@ 993
Jab@@ 992
Ruiz 992
annes 992
kinson 992
Crystal 991
Fa@@ 991
opil@@ 991
143 990
′ 990
138 989
Iw@@ 989
Us@@ 989
dica 989
world 989
Hein@@ 988
Kiy@@ 988
Mack@@ 988
map@@ 988
veri 988
Hampshire 987
Suz@@ 987
azione 987
borg 987
lau@@ 987
NBA 986
book 986
ern 986
head 986
hyp@@ 986
iva 986
sol 986
148 985
Asi@@ 985
Ost@@ 985
aur 985
ben 985
esian 985
maire 985
tur 985
Andro@@ 984
Bobby 984
Fall 984
Beg@@ 983
DM 983
Fam@@ 983
Plus 983
pis@@ 983
208 982
Dag@@ 982
Italy 982
Mez@@ 982
Punk 982
Simpson 982
Summer 982
Andes 981
Sind@@ 981
Spi@@ 981
cat 981
idel@@ 981
yev 981
DOS 980
NBC 980
idan 980
pura 980
203 979
VA 979
VO@@ 979
hak@@ 979
schi@@ 979
Hoch@@ 978
Hope 978
Hul@@ 978
Lucy 978
Sle@@ 978
ík 978
202 977
Armstrong 977
Cl 977
Guardian 977
Viet@@ 977
Burundi 976
Core 976
Out@@ 976
sion 976
ussia 976
209 975
Explorer 975
Marion 975
Rut@@ 975
Springs 975
hio 975
sus@@ 975
trick 975
Guyana 974
Algeria 973
Fe 973
Mikha@@ 973
oca 973
Anim@@ 972
Luna 972
Ret@@ 972
Berry 971
Hart 971
Holt 971
aber 971
zer 971
Horn@@ 970
Newfoundland 970
Wagner 970
acu@@ 970
Andrea 969
Biden 969
Franch@@ 969
Uh@@ 969
kare 969
ớm 969
Bonn@@ 968
English 968
Nish@@ 968
UR@@ 968
ever 968
ograp@@ 968
ük 968
Fighter 967
Jerry 967
Steel 967
anne 967
29.@@ 966
Aaron 966
Faso 966
Ronald 966
alu 966
iner 966
4000 965
fica 965
166 964
310 964
Geneva 964
Kash@@ 964
Three 964
hard 964
marketing 964
Burkina 963
Lane 963
Palace 963
Service 963
enzy@@ 963
rev@@ 963
162 962
Aguilera 962
Dog@@ 962
Hu 962
lies 962
Alexandre 961
Bridge 961
Happy 961
Rav@@ 961
nov 961
oly@@ 961
168 960
Balıkesir 960
Knight 960
Rudolf 960
adin 960
ague 960
ft@@ 960
ph 960
seu@@ 960
Charleston 959
Orleans 959
Year 959
Zu@@ 959
195 958
256 958
Bosna 958
Cay@@ 958
Kang@@ 958
Liberty 958
Not 958
Tasmania 958
氏 958
Pay@@ 957
Stuart 957
mata 957
polit@@ 957
yat@@ 957
Phili@@ 956
Tek@@ 956
Youtube 956
hay@@ 956
lid 956
omena 956
Holland 955
Laurent 955
chir@@ 955
iller 955
oc 955
unif@@ 955
Bih@@ 954
Herzog 954
Saudi 954
Sob@@ 954
cken@@ 954
format 954
hist@@ 954
77@@ 953
AO@@ 952
Alberto 952
Pell@@ 952
aş@@ 952
dida 952
dist@@ 952
isl@@ 952
mine 952
ả@@ 952
ộ@@ 952
1200 951
High@@ 951
Lorraine 951
ating 951
fall@@ 951
oru 951
ー@@ 951
156 950
Niedersachsen 950
Szcz@@ 950
iya 950
och 950
Luk@@ 949
Wiel@@ 949
baz@@ 949
pers@@ 949
stadt 949
Aman@@ 948
Edition 948
Ehr@@ 948
hausen 948
ikh 948
370 947
Rural 947
his@@ 947
itaria 947
ovina 947
Atlas 946
Everton 946
Field 946
Roh@@ 946
SL 946
142 945
Kid@@ 945
Space@@ 945
aland 945
text 945
154 944
Caribbean 944
Camp 943
Dah@@ 943
KA 943
Kashmir 943
Leicester 943
Stanis@@ 943
Viking 943
cose 943
jug@@ 943
lik 943
Aleksand@@ 942
Hik@@ 942
Jin@@ 942
Linda 942
Won 942
abl@@ 942
berry 942
met 942
sar 942
Collins 941
Let@@ 941
Paral@@ 941
kowski 941
suff@@ 941
Battle 940
Institute 940
Link 940
Lund@@ 940
Suez 940
spir@@ 940
tara 940
vector 940
ï@@ 940
Amy 939
Chau@@ 939
Ham 939
Morris 939
dot@@ 939
fu 939
215 938
Cich@@ 938
Voice 938
bay@@ 938
ios 938
217 937
Bin@@ 937
Foster 937
Put@@ 937
Sean 937
Trav@@ 937
Uran@@ 937
Uz@@ 937
arin 937
bolivi@@ 937
kha 937
CM@@ 936
Poh@@ 936
Botswana 935
Nad@@ 935
Note 935
Prun@@ 935
gam@@ 935
sav@@ 935
vania 935
Palermo 934
Petro@@ 934
abi@@ 934
dir@@ 934
esz@@ 934
139 933
38.@@ 933
Chamber@@ 933
Cros@@ 933
Del 933
Eff@@ 933
Portsmouth 933
ebo 933
mach@@ 933
punk 933
scope 933
1786 932
Abdullah 932
Dani@@ 932
Form@@ 932
Num@@ 932
angi 932
endi@@ 932
Dz@@ 931
Phoen@@ 931
itas 931
jap@@ 931
sley 931
Band 930
Hannibal 930
Pant@@ 930
etz 930
istes 930
European 929
bag@@ 929
yen@@ 929
Child 928
Martin@@ 928
Müller 928
cru@@ 928
Kaiser 927
Virus 927
153 926
FL 926
Wells 926
entz 926
lip 926
妃 926
305 925
84@@ 925
Ander@@ 925
Helen 925
Lima 925
indic@@ 925
Delaware 924
Kah@@ 924
Yale 924
hir 924
unt 924
var 924
176 923
32,@@ 923
II@@ 923
pera 923
AO 922
Colombo 922
Haf@@ 922
Nog@@ 922
Valent@@ 922
Ve@@ 922
agna 922
coron@@ 922
kn@@ 922
kul@@ 922
nú@@ 922
osema 922
tle 922
Bologna 921
Loir 921
ache 921
ture 921
vat@@ 921
Cann@@ 920
Cord@@ 920
Imp@@ 920
Theod@@ 920
eux 920
oric 920
88@@ 919
API 919
Mitsubishi 919
Savoie 919
Whitney 919
bek 919
seus 919
zek 919
201 918
Hau@@ 918
Joan 918
kins 918
prim@@ 918
umo 918
wski 918
CE 917
Chiang 917
Euler 917
Phar@@ 917
Z.@@ 917
eus@@ 917
inson 917
zel 917
Burn@@ 916
Family 916
Kuala 916
Tell 916
esc@@ 916
Brow@@ 915
C2 915
Dr. 915
Hispanic 915
Krish@@ 915
Pérez 915
Reich@@ 915
Wein@@ 915
azu 915
ierz 915
Atlético 914
HP 914
Mohammed 914
Mou@@ 914
Rau@@ 914
Trin@@ 914
You@@ 914
concert 914
yas@@ 914
3.0@@ 913
35,@@ 913
Hotspur 913
Single 913
dit 913
hac@@ 913
ties 913
2,6 912
63@@ 912
Jump 912
PR@@ 912
Tay@@ 912
Tower 912
Traf@@ 912
ebra 912
Eich@@ 911
Lloyd 911
ensi@@ 911
odi 911
oros 911
Bunge 910
Kate 910
Vista 910
atom@@ 910
ecki 910
fan@@ 910
luk 910
asta 909
spar@@ 909
Guy@@ 908
Quebec 908
Take 908
Vik@@ 908
ayashi 908
Minsk 907
Sur 907
Tommy 907
ampton 907
ering 907
ship 907
avar@@ 906
golf 906
indi@@ 906
lim 906
oll 906
Tarn 905
Tau@@ 905
lymph@@ 905
子@@ 905
Bug@@ 904
ande 904
eyi 904
onda 904
三@@ 904
151 903
Andrei 903
Cloud 903
aven 903
bic 903
60.000 902
CT@@ 902
SmackDown 902
Teen 902
Zan@@ 902
enst@@ 902
ifer@@ 902
wei 902
Gardner 901
Hugh 901
Nel@@ 901
Pall@@ 901
SK@@ 901
anak@@ 901
nick 901
Capitol 900
Nim@@ 900
Rag@@ 900
Southampton 900
ahr@@ 900
atten@@ 900
hot 900
law 900
AK@@ 899
Tang@@ 899
Volga 899
aten 899
ric 899
MBC 898
Mont 898
SARS 898
ede 898
ượu 898
AV 897
EC@@ 897
Floyd 897
Gür@@ 897
Hac@@ 897
Mark@@ 897
Zak@@ 897
bat 897
chan 897
ș 897
Elec@@ 896
Lancaster 896
brid@@ 896
orch@@ 896
Edgar 895
Four 895
Research 895
Rihanna 895
Silver 895
Stanford 895
tina 895
174 894
tima 894
192 893
2025 893
Owen 893
aim@@ 893
rat@@ 893
zan 893
Çam@@ 893
ː 893
212 892
Captain 892
Hautes 892
Roy@@ 892
Tokat 892
Vall@@ 892
eia 892
insk 892
nix 892
ự@@ 892
Ce@@ 891
McC@@ 891
PP 891
Secret 891
Spencer 891
Voy@@ 891
alam@@ 891
auta 891
pris 891
º@@ 891
Ê@@ 891
ńsk 891
ế@@ 891
186 890
Novgorod 890
Stil@@ 890
engo 890
new 890
480 889
AKB48 889
Drac@@ 889
cium 889
elly 889
Anton 888
Château 888
Lockheed 888
Lug@@ 888
rin 888
Emer@@ 887
Felipe 887
NT 887
Nile 887
contr@@ 887
Gard@@ 886
Television 886
yr 886
1700 885
Bahamas 885
Iris 885
Lump@@ 885
Spor@@ 885
dum 885
ires 885
loss@@ 885
uya 885
ç 885
ˈ@@ 885
1787 884
Rogers 884
Wis@@ 884
ettel 884
had@@ 884
74@@ 883
Gümüş@@ 883
Sevilla 883
box@@ 883
dina 883
CG 882
Cri@@ 882
Odys@@ 882
also 882
mah@@ 882
1791 881
275 881
Campania 881
District 881
Norte 881
Samp@@ 881
arist@@ 881
ınar 881
Fleisch@@ 880
Yukar@@ 880
dioc@@ 880
onga 880
plasma 880
tens 880
toc@@ 880
164 879
Hind@@ 879
Jesus 879
Vie@@ 879
Viol@@ 879
ağı 879
172 878
204 878
Diana 878
Estr@@ 878
MB 878
abar@@ 878
atta 878
incer@@ 878
Má@@ 877
amide 877
icro@@ 877
290 876
Eb@@ 876
Sebastian 876
euc@@ 876
1793 875
Alto 875
Châ@@ 875
Switch 875
U. 875
semi@@ 875
Bomb@@ 874
Dortmund 874
Harr@@ 874
Mountain 874
cosa 874
ici 874
皇@@ 874
Age 873
Coast 873
Guinness 873
Joyce 873
Mason 873
Mour@@ 873
Shah@@ 873
Til@@ 873
alı 873
have 873
was@@ 873
Doğ@@ 872
Kalin@@ 872
Mae 872
YG 872
anao 872
omorph@@ 872
tec 872
delic@@ 871
ilidae 871
ł 871
Colum@@ 870
Cost@@ 870
Harvey 870
Ju 870
Konya 870
Leeds 870
Standard 870
Teut@@ 870
box 870
eber 870
ello@@ 870
urt 870
Felix 869
Torres 869
tas 869
0,6 868
Jon@@ 868
Muh@@ 868
dos@@ 868
1794 867
Dublin 867
EF 867
Eisenhower 867
God 867
key@@ 867
ovsk 867
yō 867
孝@@ 867
Amaz@@ 866
Hep@@ 866
Mini 866
Sabah 866
States 866
183 865
207 865
Arth@@ 865
Chang@@ 865
Rost@@ 865
Sardin@@ 865
chon 865
het 865
jō 865
Macar@@ 864
Morrison 864
Send@@ 864
Small 864
nio 864
2,8 863
Abe 863
Dmi@@ 863
Galileo 863
Scor@@ 863
aks 863
cont@@ 863
tius 863
Chand@@ 862
Omar 862
ağ@@ 862
bourg 862
cass@@ 862
ilen 862
viv@@ 862
189 861
Kou@@ 861
Poznań 861
rub@@ 861
visual 861
167 860
221 860
Ashley 860
BP 860
Ey@@ 860
Princeton 860
Roberto 860
alay@@ 860
Alexandra 859
Diyarbakır 859
Fried@@ 859
Nis@@ 859
uva 859
vac@@ 859
850 858
Emp@@ 858
Medina 858
SM@@ 858
Summer@@ 858
Yorkshire 858
lung 858
orb@@ 858
rol 858
École 858
元@@ 858
Bull 857
Burg@@ 857
Carol@@ 857
Rachel 857
Software 857
Zer@@ 857
bey@@ 857
date 857
gren 857
olana 857
ques 857
sier 857
173 856
Aster@@ 856
Conan 856
Gig@@ 856
Kro@@ 856
Powell 856
aik@@ 856
left 856
tn@@ 856
ube 856
âz@@ 856
Beng@@ 855
Kuh@@ 855
annon 855
carp@@ 855
lands 855
mos 855
ram 855
Bursa 854
Columbus 854
More 854
Psy@@ 854
WTA 854
ambo@@ 854
domin@@ 854
iris 854
otz@@ 854
sui 854
238 853
Dul@@ 853
Murphy 853
Qaeda 853
Rep@@ 853
Republic 853
There 853
bio 853
entia 853
0,2 852
0,3 852
Panther 852
Venus 852
under 852
Atlantic 851
Gov@@ 851
Todd 851
ingu@@ 851
laur@@ 851
pedi@@ 851
179 850
Alberta 850
Hig@@ 850
Pascal 850
Zam@@ 850
heimer 850
0,8 849
163 849
Brussels 849
Dist@@ 849
Fou@@ 849
Jó@@ 849
Mill 849
Muk@@ 849
Non 849
Vladi@@ 849
ders 849
elo 849
太@@ 849
Clara 848
Toyota 848
hwa 848
meridi@@ 848
parado@@ 848
schn@@ 848
325 847
Back@@ 847
Kai 847
Verde 847
ampa 847
vier 847
Bill@@ 846
Dioc@@ 846
cham@@ 846
online 846
patr@@ 846
Chak@@ 845
Elo@@ 845
Jay@@ 845
Maxwell 845
Morton 845
Sheffield 845
ycidae 845
Kurt 844
aves 844
red@@ 844
Korea 843
Puy 843
Reb@@ 843
gne 843
ığ 843
皇后 843
Isabella 842
Leonardo 842
Stefan 842
ough@@ 842
pool 842
thiop@@ 842
184 841
199 841
Aren@@ 841
Mohamed 841
dal 841
geri 841
明@@ 841
193 840
Bahia 840
Glenn 840
Togo 840
azz@@ 840
estan 840
noc@@ 840
ras 840
stedt 840
Never 839
Planck 839
Sung@@ 839
Viola 839
Akira 838
Autom@@ 838
Bar 838
Fuk@@ 838
africana 838
dra@@ 838
yang 838
222 837
420 837
Alliance 837
Corr@@ 837
Cycl@@ 837
Eric@@ 837
Instagram 837
Oth@@ 837
Peters 837
Vienne 837
nitr@@ 837
武@@ 837
Are@@ 836
Aston 836
Kabul 836
Lamb@@ 836
RI 836
burg@@ 836
style 836
8,5 835
Glasgow 835
Kütahya 835
Marina 835
Than@@ 835
rhy@@ 835
州 835
177 834
Falcon 834
Fu 834
Hung@@ 834
Mann@@ 834
Sophie 834
asco 834
building 834
fron@@ 834
kus@@ 834
Days 833
Diplo@@ 833
Doctor 833
Hib@@ 833
Marcel 833
Movie 833
Productions 833
aise 833
igg@@ 833
iler 833
liqu@@ 833
osi 833
oter@@ 833
wr@@ 833
Atlan@@ 832
Yozgat 832
inski 832
lach@@ 832
ps@@ 832
rou@@ 832
yrin@@ 832
178 831
2,7 831
Elena 831
Nass@@ 831
anea 831
aon 831
capa 831
va@@ 831
Arab@@ 830
Bavaria 830
Business 830
Nations 830
Post@@ 830
Tel 830
½ 830
ə@@ 830
Five 829
Jenn@@ 829
Logan 829
Maximilian 829
Meth@@ 829
Nah@@ 829
Oslo 829
Phone 829
Pont 829
Run 829
Woman 829
Yaz@@ 829
eras 829
lang@@ 829
tie 829
南@@ 829
Bradford 828
Ornith@@ 828
Rock@@ 828
ement 828
1776 827
262 827
34,@@ 827
Karen 827
RPG 827
Sty@@ 827
Wyoming 827
dio 827
ypter@@ 827
Lazio 826
Ricardo 826
Vend@@ 826
arı 826
dollar 826
2O@@ 825
308 825
Castell@@ 825
Rhode 825
SV@@ 825
nev@@ 825
ák 825
182 824
265 824
365 824
Rotten 824
act 824
ains 824
decor@@ 824
esti 824
kay@@ 824
plac@@ 824
Erich 823
Money 823
bou@@ 823
Aki@@ 822
Ferguson 822
Freder@@ 822
ege 822
BAFTA 821
Dau@@ 821
Lu 821
Nach@@ 821
adan 821
yeri 821
264 820
Brest 820
Cola 820
Dh@@ 820
Metz 820
Orlando 820
Pero 820
SV 820
aes@@ 820
bid@@ 820
BD 819
Kras@@ 819
Tanaka 819
aran@@ 819
atu 819
bor 819
eba 819
mouth 819
228 818
36,@@ 818
78@@ 818
95@@ 818
Bern 818
Box 818
Gök@@ 818
Rang 818
glut@@ 818
ld 818
IF 817
akov 817
cs 817
gó@@ 817
sov 817
teo 817
國@@ 817
300@@ 816
Esco@@ 816
Henderson 816
LG 816
M1 816
Yay@@ 816
lington 816
press@@ 816
stream 816
urg 816
ü 816
ỷ@@ 816
Africa 815
Chop@@ 815
Cz@@ 815
Duke 815
Face 815
Nguy@@ 815
Pros@@ 815
Pus@@ 815
Roth@@ 815
actr@@ 815
jer@@ 815
tsch 815
vertic@@ 815
Augusta 814
Epis@@ 814
Essex 814
Gund@@ 814
Hanover 814
López 814
Yus@@ 814
acy 814
elea 814
over@@ 814
real 814
taker 814
Yi 813
edon 813
EN@@ 812
Gandhi 812
Grey 812
Naples 812
comment 812
223 811
3,2 811
98@@ 811
Bob@@ 811
Rocky 811
Eritrea 810
GNU 810
Gabri@@ 810
Jorge 810
Jos@@ 810
With 810
kie 810
kot 810
ów@@ 810
1795 809
181 809
188 809
Bali 809
Caes@@ 809
Grav@@ 809
Hill@@ 809
Lil@@ 809
Pok@@ 809
Soc@@ 809
Stur@@ 809
alen 809
ebu 809
ort@@ 809
ợ@@ 809
Bres@@ 808
CL 808
Cron@@ 808
Eagle 808
Edge 808
Grig@@ 808
Morning 808
Richmond 808
SN 808
Sweet 808
kea 808
utu 808
Adelaide 807
Ağrı 807
Herschel 807
Nice 807
Server 807
insul@@ 807
path@@ 807
trin@@ 807
ysi@@ 807
Calabria 806
Ural 806
Flam@@ 805
Paran@@ 805
Pompe@@ 805
Scotia 805
ahara 805
anza 805
raya 805
sberg 805
wid@@ 805
劉@@ 805
Beautiful 804
Get@@ 804
Ibrahim 804
Spart@@ 804
ansen 804
geh@@ 804
196 803
Meh@@ 803
PL 803
Seb@@ 803
Station 803
arbor@@ 803
ná 803
olan 803
orium 803
pei 803
198 802
Dick 802
Rég@@ 802
iwa 802
xo 802
ın 802
304 801
Bas 801
Jal@@ 801
chap@@ 801
recur@@ 801
tum@@ 801
xima 801
Hack@@ 800
Keith 800
Piz@@ 800
colspan 800
egu 800
Casey 799
Deme@@ 799
Din 799
Ko 799
Visual 799
Wembley 799
cott 799
endi 799
ça 799
KBS 798
Major 798
Olivier 798
ils 798
plas@@ 798
Blood 797
CONCACAF 797
EM 797
Ear@@ 797
cath@@ 797
erk@@ 797
orio 797
shi@@ 797
区 797
149 796
Assam 796
Bamb@@ 796
Craig 796
Kenneth 796
Rend@@ 796
YP 796
aux@@ 796
cyclo@@ 796
ej 796
seri 796
simul@@ 796
tap@@ 796
255 795
After 795
Get 795
Greg@@ 795
MHz 795
Shakespeare 795
Symp@@ 795
ml 795
plut@@ 795
Sara 794
See 794
Tyler 794
antan 794
cas 794
lic@@ 794
mph 794
pio 794
type 794
158 793
Hussein 793
MIT 793
Math@@ 793
Northern 793
Saxon 793
dag@@ 793
gros@@ 793
171 792
HM@@ 792
Kau@@ 792
Micha@@ 792
Montreal 792
demo 792
dict@@ 792
Celtic 791
Edmund 791
Kri@@ 791
Meur@@ 791
Raz@@ 791
americana 791
ands 791
leigh 791
lima 791
ossa 791
Ế@@ 791
1782 790
213 790
Acan@@ 790
Baltimore 790
Navarre 790
Wik@@ 790
apr@@ 790
dağ 790
dub@@ 790
epi@@ 790
rain 790
vas@@ 790
wing 790
ậ@@ 790
Ent@@ 789
Indian 789
acro@@ 789
chem@@ 789
sn@@ 789
c.@@ 788
oissi@@ 788
paci@@ 788
sti 788
1783 787
38,@@ 787
Fall@@ 787
Fi 787
Hawk 787
Justicia 787
atin@@ 787
carbon@@ 787
group 787
schmi@@ 787
uj@@ 787
1772 786
191 786
31.@@ 786
Aircraft 786
Beyoncé 786
Chev@@ 786
Jen@@ 786
South@@ 786
abo@@ 786
ub 786
་ 786
219 785
Duf@@ 785
Imag@@ 785
Jud@@ 785
Kw@@ 785
Pablo 785
Stade 785
Vosges 785
abor@@ 785
aly 785
dem 785
187 784
197 784
Barbar@@ 784
Buck 784
Drake 784
Jules 784
Name 784
dur 784
icor@@ 784
37,@@ 783
García 783
Hood 783
Rhe@@ 783
Terr@@ 783
acar@@ 783
ifer 783
municipal 783
wiki 783
Düz@@ 782
Fag@@ 782
HC 782
aklı 782
bria 782
buc@@ 782
cke 782
eves 782
roy 782
tat@@ 782
two 782
1797 781
GA 781
Nassau 781
Radi@@ 781
Sunday 781
asus 781
cyc@@ 781
urs@@ 781
NES 780
Senior 780
aber@@ 780
ael 780
confer@@ 780
nak@@ 780
onte 780
ıç@@ 780
ững 780
Josh 779
Miranda 779
Pavel 779
Today 779
abol@@ 779
ỗn 779
Casablanca 778
Hello 778
Sénégal 778
ppa 778
sche 778
ws 778
312 777
BAS@@ 777
Fig@@ 777
Hannover 777
Krak@@ 777
Shor@@ 777
bas 777
china 777
gom@@ 777
ses@@ 777
stor@@ 777
vie@@ 777
德@@ 777
Adobe 776
Crim@@ 776
Deep 776
Theodore 776
muth 776
Associ@@ 775
Ced@@ 775
Horn 775
Mardin 775
Nir@@ 775
fun@@ 775
seg@@ 775
termin@@ 775
zef 775
CR 774
Glau@@ 774
Mih@@ 774
Nos@@ 774
Tomatoes 774
Triple 774
Ud@@ 774
cav@@ 774
cer 774
coli 774
orf 774
spect@@ 774
400.000 773
767 773
79@@ 773
Jeanne 773
Lyn@@ 773
Must@@ 773
Sof@@ 773
TR@@ 773
Torre 773
Unix 773
alim@@ 773
cius 773
ful 773
Cry 772
Cube 772
Danny 772
René 772
Sánchez 772
dimi@@ 772
entino 772
fos@@ 772
金@@ 772
Bagh@@ 771
Century 771
Challenge 771
Jut@@ 771
Kant@@ 771
Second 771
fac@@ 771
four 771
khe@@ 771
0,4 770
161 770
Sergei 770
aki@@ 770
att 770
ayana 770
team 770
ǎ@@ 770
Braun 769
Québec 769
Wind@@ 769
cant@@ 769
interrup@@ 769
sola 769
spec@@ 769
ular 769
Bois 768
Hew@@ 768
NET 768
Rob 768
Zaragoza 768
aphy@@ 768
eas@@ 768
194 767
Afro@@ 767
Computer 767
Detroit 767
Dial@@ 767
Lomb@@ 767
Pang@@ 767
Sol 767
gate 767
onian 767
Geh@@ 766
SU 766
enh@@ 766
ieu 766
Bella 765
Demir@@ 765
Erik 765
Stark 765
acha 765
aş 765
core 765
deser@@ 765
kit@@ 765
Göl@@ 764
Lynch 764
Saturn 764
asse 764
debut 764
emy 764
erst@@ 764
iv 764
run 764
track 764
If 763
MT@@ 763
OVA 763
Porter 763
enor@@ 763
itr@@ 763
mim@@ 763
oty@@ 763
pra 763
right 763
sac 763
vic 763
ür@@ 763
226 762
3,3 762
Nacional 762
250.000 761
João 761
Maharashtra 761
Oaxaca 761
akan 761
auss 761
echn@@ 761
yard 761
150.000 760
Abu@@ 760
Human 760
Management 760
ingrad 760
tron@@ 760
ış@@ 760
440 759
Cyprin@@ 759
GO@@ 759
Homo 759
auge 759
conc@@ 759
ensa 759
maj@@ 759
para 759
Å@@ 759
89@@ 758
Bolu 758
Gironde 758
Lily 758
Rin@@ 758
Valeri@@ 758
inas 758
lı@@ 758
Bey@@ 757
Dennis 757
Fletcher 757
Olympi@@ 757
Special 757
Sunderland 757
234 756
Antalya 756
Beh@@ 756
Idaho 756
Jr. 756
Jum@@ 756
Latino 756
commune 756
mene 756
obu 756
yans@@ 756
232 755
Elisabeth 755
Sheikh 755
Squ@@ 755
ank@@ 755
cricket 755
jur@@ 755
rah 755
vir 755
169 754
CV 754
Comic 754
Infin@@ 754
Over 754
Paolo 754
aca@@ 754
Eva 753
Hok@@ 753
chal@@ 753
face 753
som 753
159 752
2023 752
Cit@@ 752
Flo@@ 752
Lion 752
Nero 752
Yon@@ 752
ages 752
rim@@ 752
39,@@ 751
Ahmad 751
Gambia 751
Köppen 751
Leb@@ 751
McDonald 751
Nex@@ 751
Sach@@ 751
gil 751
parall@@ 751
430 750
Antoine 750
Bub@@ 750
CF 750
Emily 750
Metal@@ 750
Stuttgart 750
Vid@@ 750
amii 750
server 750
tun@@ 750
山@@ 750
1,9 749
CF@@ 749
SW@@ 749
glob@@ 749
opi@@ 749
phal@@ 749
Born 748
CNN 748
Fischer 748
PD 748
ROM 748
Roland 748
Wan 748
Wanderers 748
bra@@ 748
evi 748
oue 748
u.@@ 748
3,6 747
Cabrera 747
Civ@@ 747
Graf 747
Kes@@ 747
Mohammad 747
chem 747
fasc@@ 747
haz@@ 747
ikov 747
led@@ 747
nos@@ 747
remix 747
zon 747
् 747
Sophia 746
Systems 746
Ultra 746
Wellington 746
sheim 746
高@@ 746
Ave@@ 745
Krem@@ 745
Raven 745
Yang@@ 745
aron 745
bol 745
inj@@ 745
umani 745
Call 744
Francesco 744
ball 744
chenko 744
Çay@@ 744
316 743
Atom@@ 743
Bail@@ 743
Betty 743
Carib@@ 743
Johnston 743
Laden 743
Michelle 743
augh 743
bart 743
nec@@ 743
ð@@ 743
Knowles 742
SR 742
U.@@ 742
Werner 742
anni@@ 742
ecik 742
iff@@ 742
jac@@ 742
köprü 742
mit 742
oci@@ 742
Anast@@ 741
Hotel 741
Quar@@ 741
ican 741
imit@@ 741
impres@@ 741
sou@@ 741
87@@ 740
Anglo 740
Brig@@ 740
Ech@@ 740
Fland@@ 740
IOC 740
asim@@ 740
Drive 739
Guill@@ 739
LT@@ 739
Lost 739
Lé@@ 739
bell@@ 739
horn 739
之@@ 739
400@@ 738
777 738
Dynam@@ 738
Nil@@ 738
RAF 738
ellan 738
jk 738
254 737
Lea 737
Plymouth 737
cell 737
kiewicz 737
sh 737
ẳ@@ 737
Head 736
Ibn 736
oris 736
osom@@ 736
yam@@ 736
yap@@ 736
ño 736
Brisbane 735
HD@@ 735
awesi 735
pink 735
sey@@ 735
ident 734
ondo 734
onna 734
reduc@@ 734
227 733
279 733
Art@@ 733
H1 733
Hardy 733
Joachim 733
Lopez 733
Phantom 733
Verd@@ 733
Wrestling 733
ata@@ 733
which 733
Çanakkale 733
ă 733
A2 732
Cub@@ 732
Ellen 732
Whe@@ 732
agen 732
dula 732
igne 732
itor 732
oğlu 732
vik 732
Country 731
Got 731
distinc@@ 731
drama 731
1784 730
218 730
224 730
Greg 730
Indi@@ 730
India 730
Köln 730
Palm@@ 730
Rel@@ 730
XX@@ 730
Ya 730
Yahoo 730
deb@@ 730
gab@@ 730
owa 730
229 729
86@@ 729
Nap@@ 729
Río 729
age@@ 729
ead 729
iger@@ 729
96@@ 728
Alber@@ 728
Fast 728
Julian 728
Ordu 728
Soccer 728
Swan@@ 728
When 728
action 728
amu 728
eling 728
kle@@ 728
lit 728
Coff@@ 727
Hull 727
Sot@@ 727
abo 727
ador 727
blatt 727
lie@@ 727
mexic@@ 727
303 726
Beta 726
Giuseppe 726
Isa@@ 726
Lil 726
Youth 726
band 726
flex@@ 726
lug@@ 726
ril@@ 726
1400 725
1785 725
Aud@@ 725
Bratislava 725
Bron@@ 725
Capital 725
Gujar@@ 725
Siv@@ 725
Titanic 725
i. 725
yt@@ 725
özü 725
Antil@@ 724
Dep@@ 724
Indre 724
eleg@@ 724
sous 724
Anatolia 723
Borussia 723
Engel 723
Gay 723
Johannesburg 723
Olympia 723
Rice 723
anov 723
fid@@ 723
get 723
İzmir 723
32@@ 722
Kron@@ 722
Vau@@ 722
Winston 722
iden 722
rian 722
258 721
Bradley 721
Gand@@ 721
Heath 721
Kids 721
Sham@@ 721
bull 721
det@@ 721
odus 721
umi@@ 721
Dordogne 720
Kost@@ 720
Truman 720
modes 720
suka 720
3,7 719
Choice 719
Dresden 719
Mart 719
Riga 719
Rodríguez 719
Wend@@ 719
éri@@ 719
-- 718
239 718
245 718
Bremen 718
Kati@@ 718
Pinus 718
Sullivan 718
Wonder 718
allas 718
twe@@ 718
ysis 718
ém@@ 718
Chiba 717
Det@@ 717
EL@@ 717
Enter@@ 717
Gates 717
Gü@@ 717
Knox 717
pole 717
prom@@ 717
2030 716
Const@@ 716
DB 716
IE@@ 716
Kud@@ 716
Troy 716
Wr@@ 716
etsk 716
ild 716
lyr@@ 716
nos 716
tou@@ 716
vip@@ 716
Amiens 715
Bach 715
Biz@@ 715
Johan 715
Nig@@ 715
Wad@@ 715
rana 715
schw@@ 715
249 714
EM@@ 714
Krishna 714
Mant@@ 714
Richardson 714
aun 714
Łódź 714
Again 713
Coll@@ 713
Fisher 713
GHz 713
Vand@@ 713
Vinc@@ 713
chev@@ 713
fiel@@ 713
its@@ 713
tuber@@ 713
vag@@ 713
KB 712
Pasha 712
aldo 712
gas 712
Chad 711
Diamond 711
Flash 711
LG@@ 711
Thess@@ 711
ender 711
namo 711
sug@@ 711
tiques 711
32.@@ 710
Hero 710
Igor 710
Lucia 710
Wolfgang 710
asan 710
bai 710
ệ@@ 710
2D 709
Heb@@ 709
Lebanon 709
Motors 709
Osh@@ 709
BE 708
Hannah 708
Parma 708
bab@@ 708
chio 708
sex 708
té 708
0,7 707
301 707
Baş@@ 707
Conference 707
EST 707
Francis@@ 707
Reynolds 707
Shan@@ 707
Winter 707
berger 707
Blü@@ 706
Curtis 706
Seven 706
Tao 706
Xi 706
ardia 706
blan@@ 706
heim@@ 706
tank@@ 706
Brook@@ 705
Dres@@ 705
Gate 705
Spiel@@ 705
iPad 705
lian 705
sanc@@ 705
1780 704
263 704
Ghost 704
NK 704
U21 704
ahn 704
ỡ@@ 704
2,1 703
Abbas 703
Hz 703
Tes@@ 703
Xu@@ 703
eine 703
eko 703
pist@@ 703
uter 703
Hali@@ 702
Lok@@ 702
Pete 702
Ring 702
Stam@@ 702
Tai@@ 702
bran@@ 702
bro 702
first 702
oshima 702
rav@@ 702
Gou@@ 701
Nou@@ 701
Trabzon 701
cent@@ 701
div@@ 701
fire 701
gui@@ 701
ocamp@@ 701
tive 701
阮@@ 701
3,8 700
Baldwin 700
Canc@@ 700
Eleanor 700
ICAO 700
Luci@@ 700
Technology 700
Wade 700
alaya 700
lak@@ 700
lich 700
ppen@@ 700
ubia 700
umba 700
216 699
Cardiff 699
Hash@@ 699
Marcos 699
aven@@ 699
bet 699
data 699
edra 699
film 699
lev 699
sman 699
Aks@@ 698
Count@@ 698
History 698
LM 698
Tobago 698
metall@@ 698
410 697
Bordeaux 697
Davies 697
Eis@@ 697
Evil 697
Flu@@ 697
NS 697
dek 697
kale 697
ongo 697
Öz@@ 697
山 697
31,@@ 696
Rain 696
True 696
isto 696
self 696
Auto 695
Lour@@ 695
Orléans 695
Rainbow 695
SH 695
Wong 695
cen@@ 695
jar@@ 695
Basel 694
Freedom 694
Haut 694
Holocaust 694
Joy 694
Mercedes 694
Mo 694
Night@@ 694
basis 694
eres 694
ffer 694
hane 694
timestamp 694
500@@ 693
80.000 693
Clap@@ 693
Guil@@ 693
Osman@@ 693
Ov@@ 693
Zw@@ 693
GC 692
González 692
Isère 692
Lin 692
Tesla 692
aul 692
brand@@ 692
glomer@@ 692
iku@@ 692
tv 692
Jazz 691
Kingdom 691
ML@@ 691
Voc@@ 691
Yur@@ 691
anlı 691
azar 691
bour@@ 691
console 691
issi@@ 691
285 690
Andrews 690
Descartes 690
Hopkins 690
Law 690
Metal 690
PG 690
PI 690
arga 690
tura 690
Avi@@ 689
BB 689
Paul@@ 689
Valle 689
hol 689
ja@@ 689
oton@@ 689
1763 688
Barack 688
Devon 688
Hér@@ 688
Kerala 688
Nakamura 688
Paraná 688
Viktor 688
adam@@ 688
atur@@ 688
contributor 688
pes@@ 688
quai 688
Gaza 687
Helsinki 687
Joel 687
Public 687
Spl@@ 687
Swe@@ 687
alo 687
ayak@@ 687
inger@@ 687
tek 687
BL@@ 686
Bon 686
Electronic 686
Hippo@@ 686
Malay 686
color@@ 686
unds 686
ān 686
243 685
Apol@@ 685
Blanco 685
Monster 685
alma 685
asser 685
nikov 685
trail@@ 685
İn@@ 685
ň 685
Block 684
Britney 684
CoV 684
LD 684
Plant@@ 684
Rand@@ 684
aku@@ 684
alu@@ 684
asso 684
escu 684
imia 684
286 683
9,5 683
Auguste 683
Bennett 683
Lorenzo 683
Marl@@ 683
Orton 683
arak 683
ecr@@ 683
gelen@@ 683
yaz@@ 683
1A 682
Lisbon 682
Philipp@@ 682
Seth 682
aburi 682
afric@@ 682
ean@@ 682
got@@ 682
sten 682
Concert 681
Kuch@@ 681
Petit 681
ality 681
annul@@ 681
coll@@ 681
itia 681
ods 681
taş 681
ved@@ 681
vill@@ 681
üt@@ 681
242 680
501 680
Chic@@ 680
Jack@@ 680
Marketing 680
Rang@@ 680
heli@@ 680
lower 680
nik@@ 680
Ib@@ 679
Kiss 679
Surin@@ 679
buri 679
hisar 679
kirchen 679
niv@@ 679
pher@@ 679
HF 678
Hubble 678
Kiss@@ 678
Larry 678
Malatya 678
Wake 678
pling 678
quis@@ 678
tang@@ 678
市 678
Ani@@ 677
Bati@@ 677
Heg@@ 677
Ic@@ 677
Jub@@ 677
MD@@ 677
Port@@ 677
Shield 677
ards 677
auli@@ 677
divis@@ 677
dou@@ 677
geon 677
lem 677
point 677
sé@@ 677
1768 676
Card 676
Friends 676
Ingrid 676
Ocean 676
Riz@@ 676
aray 676
bog@@ 676
cla@@ 676
trag@@ 676
uo 676
251 675
Antonius 675
Benfica 675
Dami@@ 675
Erzincan 675
atorium 675
Bus 674
Films 674
Julie 674
Leslie 674
Rollins 674
ador@@ 674
flag@@ 674
iman 674
Bla@@ 673
Jake 673
Kingston 673
NC 673
UI 673
bera 673
https 673
陳@@ 673
1781 672
French 672
GT@@ 672
Hancock 672
Hes@@ 672
IATA 672
Off@@ 672
Somerset 672
Spot@@ 672
alina 672
nin@@ 672
sad@@ 672
tain@@ 672
username 672
35.@@ 671
Claire 671
Giresun 671
Jonas 671
Mumbai 671
Planet 671
Tonga 671
ische 671
leh@@ 671
yk@@ 671
ân@@ 671
295 670
Gibson 670
Lah@@ 670
N1 670
Ottawa 670
Salzburg 670
trap@@ 670
Andal@@ 669
Bash@@ 669
Kara 669
Mong@@ 669
Plaza 669
Watch 669
cık 669
epis@@ 669
Cov@@ 668
Deg@@ 668
Machine 668
Senegal 668
Village 668
Wester@@ 668
estra 668
mê@@ 668
ose@@ 668
oslav 668
word 668
yurt 668
Cali@@ 667
Tatar 667
Toc@@ 667
Ya@@ 667
bain 667
code 667
coni 667
sau@@ 667
張@@ 667
Adıyaman 666
Beno@@ 666
Part 666
Roth 666
Tep@@ 666
eke 666
ien 666
integ@@ 666
opar@@ 666
1778 665
Blair 665
Nicole 665
Pont@@ 665
body 665
coronavirus 665
nitz 665
ül@@ 665
252 664
Castil@@ 664
Cena 664
Nept@@ 664
Place 664
bes 664
bun@@ 664
gut@@ 664
Constantinople 663
Engel@@ 663
HE@@ 663
bad@@ 663
emati@@ 663
gee 663
thel@@ 663
wall 663
ãm 663
257 662
Aff@@ 662
Bloom@@ 662
Brad 662
CI 662
Carroll 662
Coun@@ 662
umia 662
233 661
33.@@ 661
Josef 661
Susan 661
Süd@@ 661
^ 661
ainville 661
aray@@ 661
cules 661
ele@@ 661
haw@@ 661
noi 661
phin 661
302 660
Eas@@ 660
Gott@@ 660
Hern@@ 660
Pf@@ 660
1796 659
DR 659
Villar@@ 659
cit@@ 659
dt 659
num@@ 659
race 659
tras@@ 659
ute 659
侯 659
西@@ 659
Ches@@ 658
Falls 658
Kara@@ 658
Pale@@ 658
Targ@@ 658
bara 658
berg@@ 658
e.@@ 658
iza 658
law@@ 658
vesti@@ 658
ward@@ 658
Ê 658
Andreas 657
Dit@@ 657
ES 657
Eck@@ 657
Fitz@@ 657
cog@@ 657
obsol@@ 657
ping@@ 657
ß@@ 657
3,4 656
560 656
Fernández 656
Galli@@ 656
Lagos 656
Matt@@ 656
RIAA 656
Seng@@ 656
Webb 656
ank 656
cara 656
deci@@ 656
dest@@ 656
tram 656
trim@@ 656
Albion 655
Antwer@@ 655
Derby 655
Janet 655
angel@@ 655
erno 655
gli@@ 655
music 655
sian 655
Agu@@ 654
Angela 654
Lower 654
Percy 654
bad 654
ender@@ 654
garh 654
igns 654
ourt 654
pas 654
uko 654
vs 654
241 653
Adam@@ 653
Bok@@ 653
Steg@@ 653
amis 653
endra 653
AZ 652
Carmen 652
Lich@@ 652
Starg@@ 652
Suk@@ 652
UT@@ 652
fly 652
zav@@ 652
BN 651
Eddie 651
Mega 651
WT@@ 651
ather 651
lib@@ 651
mam@@ 651
organ 651
ucci 651
zam@@ 651
Hug@@ 650
Rich 650
TH 650
ambo 650
apos@@ 650
bah@@ 650
ede@@ 650
ile@@ 650
kill 650
pru@@ 650
520 649
AX 649
Barbados 649
Classic 649
Nest@@ 649
Pietro 649
Salt 649
dost@@ 649
nice 649
occus 649
olin 649
和@@ 649
386 648
Buffalo 648
Dmitri 648
GE 648
IT 648
Oda 648
beck 648
ection 648
essa 648
uss 648
were 648
Charl@@ 647
Dalm@@ 647
Ef@@ 647
Guar@@ 647
Shig@@ 647
Vivi@@ 647
al. 647
aper@@ 647
mann@@ 647
tay@@ 647
upta 647
zyn 647
ø 647
IV@@ 646
blues 646
colum@@ 646
iki@@ 646
mend@@ 646
qi 646
uan 646
Observatory 645
Teresa 645
Yah@@ 645
oft 645
sul 645
tuy@@ 645
460 644
GPS 644
Marino 644
Mu 644
Parad@@ 644
Wilhel@@ 644
Zürich 644
acles 644
amata 644
kis 644
master 644
sper@@ 644
中@@ 644
318 643
Alain 643
Flying 643
Jupiter 643
Morav@@ 643
Va@@ 643
iye 643
jun@@ 643
mare 643
penn@@ 643
Étienne 643
Aurora 642
Becker 642
Development 642
Fame 642
Gat@@ 642
Harper 642
Hud@@ 642
alle 642
asto@@ 642
idas 642
rin@@ 642
thre@@ 642
ual 642
1740 641
231 641
Bund@@ 641
Dak@@ 641
Hoh@@ 641
Konstant@@ 641
Mother 641
Ré@@ 641
Toledo 641
Webster 641
dice 641
elleri 641
ä 641
1774 640
950 640
Canon 640
Noel 640
Oak 640
UN 640
mun 640
neph@@ 640
uel 640
307 639
390 639
Cow@@ 639
César 639
ET@@ 639
Gó@@ 639
IR@@ 639
Kid 639
Klo@@ 639
Luca 639
Oblast 639
Rok@@ 639
Salamanca 639
Side 639
Veg@@ 639
Lew@@ 638
Pie@@ 638
Pol 638
entina 638
gall@@ 638
ilius 638
mani@@ 638
Gud@@ 637
Himmler 637
IB@@ 637
Ment@@ 637
Moses 637
O4 637
Steiermark 637
Çat@@ 637
Gaulle 636
Jamie 636
Krist@@ 636
Philos@@ 636
SF@@ 636
idon 636
℃ 636
323 635
Bayer 635
Brunswick 635
Firefox 635
Halifax 635
Jaw@@ 635
Ten 635
aco@@ 635
dow@@ 635
life 635
module 635
omat@@ 635
podi@@ 635
rest 635
sir@@ 635
。 635
001 634
1767 634
Denver 634
Monica 634
Nick@@ 634
Odessa 634
Randy 634
alk@@ 634
hier@@ 634
imon 634
kit 634
oce 634
530 633
Church 633
EN 633
Nike 633
Sin 633
Wolver@@ 633
hiv@@ 633
load 633
sim 633
thodes 633
ン@@ 633
Aw@@ 632
Doc@@ 632
Eust@@ 632
Jes@@ 632
Klein 632
Lotus 632
Meyer 632
Nih@@ 632
Perkins 632
Rig@@ 632
Woj@@ 632
car 632
clor@@ 632
lina 632
lind@@ 632
othe@@ 632
sie 632
36.@@ 631
Asper@@ 631
Edwin 631
Fey@@ 631
Gin@@ 631
Suc@@ 631
Thur@@ 631
Tip@@ 631
Za@@ 631
concer@@ 631
enga 631
fordshire 631
ory@@ 631
qué 631
246 630
268 630
94@@ 630
Adana 630
Angelo 630
Bird 630
Kars 630
List 630
Miss@@ 630
Schwar@@ 630
Sims 630
eber@@ 630
enas 630
ision 630
soc@@ 630
Ỷ 630
1760 629
DR@@ 629
Gif@@ 629
Gül@@ 629
bel 629
depres@@ 629
平@@ 629
H2@@ 628
HBO 628
Midd@@ 628
Rit@@ 628
Saturday 628
Town@@ 628
U.S. 628
ambi@@ 628
ayr@@ 628
fj@@ 628
hu 628
oco 628
usi 628
Fron@@ 627
Perth 627
Prop@@ 627
Teg@@ 627
anto 627
engine 627
gel 627
orno 627
schul@@ 627
uza 627
236 626
37.@@ 626
Burton 626
Hagen 626
Hod@@ 626
KO 626
WWF 626
atlan@@ 626
col 626
crip@@ 626
elen@@ 626
tico 626
一@@ 626
Court 625
HTML 625
Michel@@ 625
Review 625
Sonic 625
Sport 625
bern@@ 625
fo 625
league 625
like 625
link 625
mas 625
otype 625
ON 624
Sut@@ 624
abu 624
apo 624
atem@@ 624
gad@@ 624
izer 624
oras 624
quet 624
288 623
Hindi 623
Ubuntu 623
anca 623
ağı@@ 623
ener@@ 623
mera 623
rich 623
2500 622
313 622
Dwight 622
Fan@@ 622
Gay@@ 622
Naj@@ 622
Pyth@@ 622
Rush 622
alty 622
mid 622
1777 621
253 621
Adr@@ 621
Lara 621
Smith@@ 621
gr 621
lada 621
sko@@ 621
tris 621
ů@@ 621
1770 620
306 620
ASA 620
Amasya 620
Glob@@ 620
Halic@@ 620
Mersin 620
Turin 620
Warriors 620
yat 620
Equ@@ 619
Mend@@ 619
Rain@@ 619
Salem 619
Under 619
bom@@ 619
chin 619
cos 619
daf@@ 619
enze 619
mat 619
open@@ 619
ymn@@ 619
3.0 618
Children 618
Flag@@ 618
Sound@@ 618
Stol@@ 618
embr@@ 618
kent 618
787 617
Dat@@ 617
Down@@ 617
Dynamo 617
Eminem 617
Europe 617
FS 617
Gim@@ 617
Lati@@ 617
Lena 617
Snow 617
Stan 617
Zeppelin 617
ayer 617
fluor@@ 617
sbury 617
thias 617
trat@@ 617
xel 617
271 616
278 616
Beauty 616
Dut@@ 616
Gener@@ 616
Hell 616
Howe 616
Neo 616
antum 616
ind 616
olan@@ 616
315 615
34.@@ 615
Jak@@ 615
Ket@@ 615
MO 615
Regel 615
Rup@@ 615
Tito 615
Verona 615
diver@@ 615
eff 615
gers 615
iformes 615
mod 615
nova 615
reo 615
zem@@ 615
ène 615
Dion 614
Granada 614
Spreng@@ 614
bir 614
flam@@ 614
kes@@ 614
onen 614
unia 614
wana 614
610 613
McK@@ 613
Nun@@ 613
One@@ 613
alle@@ 613
erry 613
eur 613
kW 613
shan 613
tain 613
Come 612
Data 612
Gomez 612
Grand@@ 612
Quest 612
Scu@@ 612
Windsor 612
debil@@ 612
kap@@ 612
p.@@ 612
Ü@@ 612
édon@@ 612
Albu@@ 611
Andorra 611
From 611
ISS 611
Louvre 611
Maggie 611
Maurit@@ 611
Spec@@ 611
ardo 611
dz@@ 611
morph@@ 611
nak 611
otho 611
sud@@ 611
üm@@ 611
1.5 610
247 610
Gün@@ 610
Hit 610
KO@@ 610
Réunion 610
Saga 610
Short 610
Slovak 610
plo@@ 610
tag 610
uti 610
39.@@ 609
Brooks 609
Ellis 609
Emmanuel 609
IN 609
Laz@@ 609
Preston 609
Them@@ 609
Touch 609
Yes@@ 609
bere@@ 609
enter 609
leist@@ 609
rid 609
640 608
Dog 608
Fen@@ 608
Fior@@ 608
Fury 608
Nippon 608
Zulu 608
align 608
dier 608
ibu 608
iter@@ 608
itu 608
kop@@ 608
lice 608
nis@@ 608
NH 607
NY@@ 607
Nie@@ 607
Prague 607
Radar 607
Sinop 607
UC@@ 607
Zab@@ 607
ency 607
flash 607
icat 607
244 606
269 606
Doug@@ 606
Pist@@ 606
Power@@ 606
Price 606
Raw@@ 606
They 606
Tis@@ 606
been 606
ector 606
lius 606
okie 606
zin@@ 606
Cil@@ 605
Lanc@@ 605
Puc@@ 605
Se 605
TM 605
acoustic 605
entum 605
hood 605
omin@@ 605
Biss@@ 604
HO@@ 604
Jet 604
Main@@ 604
Vichy 604
Vl@@ 604
aar 604
coin 604
einf@@ 604
ekwondo 604
igh 604
ström 604
teur 604
1771 603
Aless@@ 603
Bowl 603
Nash 603
Symph@@ 603
Talk 603
arn@@ 603
boa 603
gin 603
hib@@ 603
ük@@ 603
Control 602
Eastern 602
Roll 602
Saar@@ 602
clo@@ 602
gs@@ 602
jah 602
pad@@ 602
rah@@ 602
seri@@ 602
zard 602
ö 602
Ludwig@@ 601
Muş 601
Ony@@ 601
Rach@@ 601
akawa 601
iter 601
tail 601
ã@@ 601
ır 601
י@@ 601
LE 600
LS 600
Mix@@ 600
Plut@@ 600
Us 600
afe 600
ainer 600
ait@@ 600
alternative 600
aura 600
pak@@ 600
Den 599
Gleich@@ 599
Joshua 599
Marine 599
Mesa 599
Noah 599
dun@@ 599
eno@@ 599
imir 599
itzer 599
lil@@ 599
outh 599
ule 599
97@@ 598
Bach@@ 598
Beethoven 598
Cod@@ 598
Eden 598
Full 598
Ice 598
Karate 598
Memphis 598
Wiki@@ 598
erson 598
ườn 598
248 597
266 597
Arrow 597
Atel@@ 597
Bolton 597
Covid 597
Kish@@ 597
Malcolm 597
Our 597
Want 597
alog 597
sville 597
・ 597
Afyonkarahisar 596
Bin 596
Chapelle 596
Kik@@ 596
MI 596
Mr@@ 596
Theodor 596
alin@@ 596
maf@@ 596
watch 596
319 595
540 595
Ada 595
América 595
Aydın 595
Bryant 595
Elbe 595
Fav@@ 595
Gut@@ 595
Marg@@ 595
Shadow 595
Trinity 595
mond 595
other 595
rob@@ 595
very 595
237 594
Barrett 594
Fidel 594
Maxim 594
Oliveira 594
Swar@@ 594
WS 594
ansa 594
ansk 594
kun 594
mina 594
273 593
Alonso 593
Cohen 593
OR@@ 593
ald@@ 593
ero@@ 593
suc@@ 593
tical 593
人 593
199@@ 592
321 592
570 592
Catalunya 592
Cec@@ 592
Dante 592
Humboldt 592
Ip@@ 592
Kay 592
Norwich 592
Wolf@@ 592
esha 592
eston 592
loi 592
sang@@ 592
èvre 592
311 591
Future 591
Liz@@ 591
Loh@@ 591
Prairie 591
Rah@@ 591
Sporting 591
UFC 591
Wid@@ 591
apti@@ 591
cis 591
eson 591
isco 591
leben 591
ør@@ 591
仁@@ 591
Amanda 590
Fortune 590
Glad@@ 590
Hard 590
Olden@@ 590
Telec@@ 590
assi 590
atu@@ 590
0,000 589
1300 589
Chom@@ 589
Henri@@ 589
Humph@@ 589
Player 589
Rus 589
She 589
islav 589
vius 589
ycl@@ 589
99,@@ 588
Tree 588
Vega 588
apur@@ 588
boc@@ 588
esse 588
love 588
ree 588
ulo 588
Bez@@ 587
Bras@@ 587
Coul@@ 587
DT@@ 587
Duncan 587
ED@@ 587
Gen 587
Herman 587
Homer 587
Lal@@ 587
NP 587
Neck@@ 587
Prin@@ 587
ensen 587
pendi@@ 587
scop@@ 587
times 587
vina 587
Bam@@ 586
Bén@@ 586
PN@@ 586
anner 586
digit@@ 586
dog@@ 586
Bates 585
Forever 585
Jav@@ 585
Non@@ 585
SB 585
Schön@@ 585
Thunder@@ 585
XXI 585
Yev@@ 585
enson 585
hut@@ 585
kig@@ 585
261 584
Nature 584
Right 584
Strasbourg 584
hatta 584
iş@@ 584
ll 584
ĩ@@ 584
Constantine 583
Nikol@@ 583
Serge@@ 583
gun@@ 583
o.@@ 583
onas 583
px 583
rak@@ 583
retr@@ 583
tilla 583
375 582
960 582
Australian 582
Carp@@ 582
Castle 582
Cat 582
Cornwall 582
Drama 582
Elsa 582
Make 582
U19 582
augh@@ 582
auri 582
egger 582
odes@@ 582
《 582
Adv@@ 581
Auckland 581
Mer 581
Potsdam 581
Vanuatu 581
Zag@@ 581
lys@@ 581
mara 581
membran@@ 581
oten 581
》 581
@ 580
Crown 580
Gerald 580
Living@@ 580
Marathon 580
Muğla 580
Sergey 580
erc@@ 580
isse 580
izi@@ 580
ls 580
nag@@ 580
tenburg 580
thé@@ 580
274 579
284 579
Alfonso 579
Barnes 579
Beirut 579
Caracas 579
Factory 579
HS 579
Led@@ 579
Niederösterreich 579
Sasha 579
Stoke 579
Wien 579
atori@@ 579
ock@@ 579
rax 579
ril 579
sci@@ 579
ting@@ 579
Cabo 578
Craw@@ 578
Deutsche 578
Falk@@ 578
Know 578
Waw@@ 578
Westfalen 578
Zap@@ 578
a. 578
upp@@ 578
èche 578
ː@@ 578
580 577
Alba 577
Ağ@@ 577
Bek@@ 577
Jesse 577
Tub@@ 577
kee 577
oia 577
synth@@ 577
vs. 577
1648 576
333 576
Champagne 576
Colin 576
Dame 576
Daw@@ 576
Friend 576
Goth@@ 576
Jeremy 576
Oy@@ 576
Rita 576
Woods 576
alda 576
eley 576
get@@ 576
hik@@ 576
đ 576
Command 575
Destiny 575
Factor 575
Luigi 575
Nathan 575
Poli@@ 575
UL@@ 575
ative 575
excel@@ 575
lou@@ 575
宗 575
Palmer 574
Toulouse 574
Zagreb 574
Zal@@ 574
alpa 574
dens 574
gard@@ 574
orian 574
river 574
soul 574
toria 574
ós 574
イ@@ 574
陵 574
Ridge 573
Russian 573
Springfield 573
Vernon 573
Water 573
diversi@@ 573
eto@@ 573
oscop@@ 573
thal 573
Chaplin 572
Collection 572
Cristi@@ 572
Fritz 572
Lean 572
Queens 572
Tamb@@ 572
amura 572
ien@@ 572
vana 572
630 571
Dé@@ 571
Giorgio 571
Jord@@ 571
UR 571
chim@@ 571
itan 571
jet 571
osu 571
About 570
Mok@@ 570
Motor 570
arat 570
diff@@ 570
公主 570
322 569
B1 569
Cromwell 569
Hach@@ 569
Trust 569
Tyr@@ 569
mona 569
omp@@ 569
wen 569
ậc 569
298 568
XL 568
tions 568
zey@@ 568
Abel 567
Britain 567
Como 567
Paw@@ 567
Tennis 567
UV 567
Vu@@ 567
mana 567
sv@@ 567
tom 567
1759 566
281 566
335 566
Fabian 566
GO 566
Lév@@ 566
adura 566
asy 566
quit@@ 566
soph@@ 566
usz 566
ıy@@ 566
ו@@ 566
ẵng 566
720 565
CB 565
Fac@@ 565
Hamm@@ 565
Kazak@@ 565
Peri@@ 565
Pope 565
Produ@@ 565
brow@@ 565
eco 565
iri@@ 565
kırı 565
misch 565
pom@@ 565
sing 565
trom@@ 565
twood 565
福@@ 565
326 564
406 564
Amin 564
Austral@@ 564
Cross@@ 564
Herzegovina 564
Hong@@ 564
Kirch@@ 564
Koy@@ 564
Miles 564
Staf@@ 564
Wan@@ 564
ape@@ 564
azine 564
ece 564
incon@@ 564
iru 564
suya 564
uil 564
267 563
618 563
Mars@@ 563
Metz@@ 563
Mori@@ 563
Nashville 563
Pat 563
Wir@@ 563
arta 563
hard@@ 563
high 563
quin 563
1644 562
272 562
404 562
Besch@@ 562
Canberra 562
Gis@@ 562
Hat 562
Legend 562
Tech@@ 562
alon 562
bow@@ 562
corona 562
liers 562
quel@@ 562
sant@@ 562
tion@@ 562
tit 562
year 562
259 561
Act 561
Avengers 561
Color 561
Four@@ 561
Shi 561
class 561
erium 561
frey 561
gener@@ 561
igen@@ 561
integri@@ 561
Connor 560
Direc@@ 560
Drew 560
IL@@ 560
Musa 560
chas@@ 560
staff 560
uki@@ 560
μ@@ 560
A4 559
Belle@@ 559
Griff@@ 559
RCA 559
Vera 559
Wich@@ 559
Wonder@@ 559
kad@@ 559
ocia 559
omen@@ 559
place 559
sworth 559
table 559
tili@@ 559
Beck 558
IU@@ 558
Stri@@ 558
VP 558
cô@@ 558
eas 558
intermedi@@ 558
ital 558
pav@@ 558
Aviation 557
Kong@@ 557
Lucius 557
RO 557
ial 557
iso 557
minim@@ 557
uen@@ 557
ệng 557
0,9 556
H2 556
ID@@ 556
KGB 556
aden 556
conn@@ 556
mans 556
rab@@ 556
395 555
Archi@@ 555
Canadian 555
Fair 555
Kahramanmaraş 555
Pow@@ 555
Show@@ 555
conv@@ 555
cou@@ 555
enny 555
esk@@ 555
known 555
rent 555
s.@@ 555
tori 555
wn 555
1750 554
1762 554
B2 554
Chat@@ 554
ED 554
Free@@ 554
Islam 554
Milli@@ 554
Perfect 554
ait 554
baz 554
berto 554
det 554
elot 554
fino 554
mitt 554
ulla 554
waj@@ 554
zac 554
470 553
Kazan 553
Plas@@ 553
ato@@ 553
edil@@ 553
lee 553
nut 553
ois@@ 553
pler 553
ray@@ 553
rel 553
、 553
聖@@ 553
660 552
Bath 552
Fan 552
Net 552
Shep@@ 552
Vermont 552
amer 552
eberg 552
nel@@ 552
nius 552
郡@@ 552
Apr@@ 551
Burgos 551
Burke 551
Columb@@ 551
Dunk@@ 551
Hodg@@ 551
Industries 551
Jacob@@ 551
Lay@@ 551
Liechtenstein 551
Order 551
Rodrigu@@ 551
Villan@@ 551
acht 551
aday 551
bourne 551
dieu 551
new@@ 551
283 550
6000 550
CU 550
Goldman 550
Pittsburgh 550
Reid 550
Wesley 550
Yun@@ 550
atan 550
brit@@ 550
camer@@ 550
rose 550
vio 550
ège 550
276 549
Hyundai 549
Ruby 549
Starr 549
athi 549
ağaç 549
ells 549
enfeld 549
hill 549
lay@@ 549
lion 549
riches 549
Arab 548
Donnell 548
Rap 548
Sharon 548
Soh@@ 548
Tag 548
Turn@@ 548
Universe 548
Wald@@ 548
igen 548
ocene 548
qa 548
wad@@ 548
Adventure 547
Brass@@ 547
Newman 547
Shane 547
Shr@@ 547
alde@@ 547
nem 547
sle@@ 547
ures 547
vić 547
ät@@ 547
Alme@@ 546
Cox 546
Def@@ 546
Der 546
Glass 546
Greater 546
Lol@@ 546
Only 546
av 546
lois 546
pen 546
scand@@ 546
shar@@ 546
ule@@ 546
355 545
East@@ 545
M2 545
OE@@ 545
Sanc@@ 545
Sergio 545
Yellow 545
anat@@ 545
calyp@@ 545
egel 545
grav@@ 545
sobr@@ 545
weiler 545
ís 545
299 544
CON@@ 544
Christine 544
Kass@@ 544
Maiden 544
Mainz 544
Nation 544
Race 544
Robertson 544
Social 544
Vogue 544
angi@@ 544
arian 544
bana 544
chat@@ 544
most@@ 544
oul@@ 544
ég@@ 544
282 543
4,7 543
Cambr@@ 543
Elvis 543
Lionel 543
Narc@@ 543
ovna 543
put@@ 543
ró@@ 543
undi 543
324 542
Cuenca 542
Günther 542
Jenny 542
PD@@ 542
Stop 542
aç 542
epo@@ 542
etic 542
lán 542
siti@@ 542
sun 542
Çan@@ 542
Allison 541
App 541
Conrad 541
Dana 541
Here 541
Hesse 541
KS 541
Kemp@@ 541
Third 541
Vicente 541
arro 541
ausen 541
eim 541
force 541
franc 541
kaz@@ 541
m3 541
subs@@ 541
Ø@@ 541
620 540
Brag@@ 540
Cis@@ 540
Garcia 540
Lö@@ 540
Natal 540
Nath@@ 540
Quin@@ 540
Schar@@ 540
Shab@@ 540
Timur 540
UM@@ 540
ecti@@ 540
hide 540
jin@@ 540
mom@@ 540
pili@@ 540
rii 540
roll 540
walk 540
291 539
352 539
40,@@ 539
Army 539
Blues 539
Broad@@ 539
Dex@@ 539
Gómez 539
Purple 539
Winn@@ 539
Zonguldak 539
endor@@ 539
ext@@ 539
icks 539
later 539
oter 539
äl@@ 539
And 538
Annie 538
Ero@@ 538
Gibbs 538
Mafia 538
Monter@@ 538
S2 538
Ush@@ 538
Zimmer@@ 538
aeidae 538
ebel 538
enos 538
ě 538
4,6 537
510 537
Alvar@@ 537
Baja 537
Frank@@ 537
MD 537
Sog@@ 537
gri 537
1757 536
Altın@@ 536
Clayton 536
Dawn 536
Fah@@ 536
Galil@@ 536
Modern 536
Nairobi 536
Room 536
enge 536
296 535
Bee 535
Code 535
Fantas@@ 535
Hr@@ 535
Patricia 535
Stock@@ 535
WrestleMania 535
are@@ 535
arsen@@ 535
cour@@ 535
ebo@@ 535
olla 535
refle@@ 535
shot 535
utes 535
Ó@@ 535
† 535
293 534
EG 534
Het@@ 534
Igu@@ 534
Rober@@ 534
Upper 534
Wh 534
andia 534
ieve 534
kot@@ 534
log 534
Ah 533
GI 533
Margar@@ 533
Sá@@ 533
Trou@@ 533
dır 533
ip 533
év@@ 533
Emil 532
Mozilla 532
Olga 532
Tuc@@ 532
agua 532
craft 532
ink@@ 532
pp 532
yok@@ 532
長@@ 532
401 531
Bosch 531
Box@@ 531
Cecil 531
Concer@@ 531
Jov@@ 531
Lond@@ 531
SF 531
Zamora 531
alii 531
anas 531
enk@@ 531
greg@@ 531
iste 531
mal 531
sich@@ 531
tois 531
Campo 530
Concor@@ 530
PV 530
Thir@@ 530
endo 530
iston 530
prin@@ 530
shu@@ 530
xim@@ 530
4,2 529
5,6 529
Dunn 529
Huang 529
Ik@@ 529
Lowell 529
Mail 529
Mandela 529
Re 529
arch 529
dum@@ 529
enbach 529
sio 529
tok@@ 529
uld 529
òa 529
ş 529
1773 528
2.5 528
385 528
Baptiste 528
HK@@ 528
Karat@@ 528
Lum@@ 528
Milton 528
Paramount 528
Pick@@ 528
Vickers 528
Wag@@ 528
aran 528
egen@@ 528
elling 528
hun@@ 528
iso@@ 528
ufa 528
Dark@@ 527
Discovery 527
Holdings 527
Kiel 527
Magnus 527
Spirit 527
Tonight 527
bed@@ 527
bola 527
eim@@ 527
1.0 526
309 526
BSD 526
Divisi@@ 526
Dug@@ 526
Jug@@ 526
Klu@@ 526
aler 526
egu@@ 526
enzie 526
opol@@ 526
stra 526
tah@@ 526
uş@@ 526
0,0@@ 525
384 525
Gramm@@ 525
Interactive 525
Reading 525
Rivera 525
Rockefeller 525
Smo@@ 525
obo 525
oid@@ 525
system 525
utz@@ 525
Albi@@ 524
Gaziantep 524
Nina 524
Sinai 524
Stav@@ 524
Thor 524
Veracruz 524
boro 524
mic 524
onds 524
sbach 524
site 524
vacc@@ 524
45,@@ 523
EF@@ 523
Electronics 523
Horiz@@ 523
Peace 523
Toro 523
Velvet 523
egan 523
ernet 523
gir 523
stat@@ 523
sugu 523
ève 523
ña 523
Ace 522
Coca 522
Konstantin 522
PF 522
View 522
aller 522
case 522
130@@ 521
Aver@@ 521
Chem@@ 521
Jor@@ 521
Kant 521
RP 521
Sex@@ 521
Tow@@ 521
dens@@ 521
onville 521
try@@ 521
ứ@@ 521
110@@ 520
345 520
357 520
Action 520
Blum@@ 520
Broadcasting 520
Fleming 520
Hof@@ 520
NO 520
Tong@@ 520
Vision 520
abat 520
ross 520
tern 520
tree 520
194@@ 519
331 519
Bingöl 519
Bitlis 519
Jam 519
Kyle 519
March 519
Moun@@ 519
Python 519
Ruth 519
Schneider 519
Tup@@ 519
alber@@ 519
atham 519
hes@@ 519
host 519
imper@@ 519
kal 519
their 519
ullah 519
verse 519
zor@@ 519
Aster 518
Chapman 518
Crist@@ 518
Lancashire 518
ende 518
hand@@ 518
iria 518
mill@@ 518
ob 518
oba@@ 518
3,1 517
CK 517
Christi@@ 517
Dw@@ 517
Elliott 517
Groß@@ 517
Nolan 517
Plu@@ 517
RM 517
Vij@@ 517
chy 517
only 517
row@@ 517
xx 517
277 516
44,@@ 516
Alph@@ 516
Bess@@ 516
DI@@ 516
FF@@ 516
Franc@@ 516
Merlin 516
Mn@@ 516
Morales 516
Most 516
Plant 516
Said 516
allen 516
bris 516
cape 516
xes 516
371 515
Body 515
Córdoba 515
Education 515
Gloria 515
Pfe@@ 515
Plata 515
Que@@ 515
deri 515
swe@@ 515
zin 515
人@@ 515
海@@ 515
343 514
356 514
Crac@@ 514
Domingo 514
Mills 514
Ngo@@ 514
Phillip 514
Pierce 514
Racing 514
Rize 514
cent 514
cup 514
entry 514
hed@@ 514
hug@@ 514
inka 514
inst@@ 514
mRNA 514
mé 514
olina 514
onie 514
sych@@ 514
190@@ 513
314 513
351 513
405 513
Isabel 513
Kuk@@ 513
Piano 513
Reichs@@ 513
cation 513
comi@@ 513
comm@@ 513
fur 513
kata 513
lum@@ 513
now 513
yab@@ 513
帝 513
150@@ 512
328 512
49,@@ 512
Bonif@@ 512
DF@@ 512
Far 512
Mendel@@ 512
Rik@@ 512
Rov@@ 512
Tara 512
Total 512
Viv@@ 512
Wolff 512
bud@@ 512
roch@@ 512
rul@@ 512
ál@@ 512
680 511
Díaz 511
Plin@@ 511
Ski@@ 511
eif@@ 511
ifu 511
nic 511
ping 511
ulf 511
4,3 510
Allan 510
Hampton 510
Harmon@@ 510
Jou@@ 510
Lexington 510
Off 510
Quincy 510
emen 510
gur@@ 510
hn@@ 510
ises 510
piz@@ 510
uela 510
wood@@ 510
èvres 510
4.0 509
525 509
AH 509
Chas@@ 509
Cramb@@ 509
Eduard 509
Flores 509
Furn@@ 509
Pereira 509
Phen@@ 509
Puebla 509
lach 509
maxim@@ 509
ogue 509
terr@@ 509
317 508
Arti@@ 508
COM 508
Gun 508
IEEE 508
Ili@@ 508
Sing 508
Taur@@ 508
invol@@ 508
ucle@@ 508
367 507
Aviv 507
Bishop 507
Brande@@ 507
Los@@ 507
Presley 507
Ranger 507
compos@@ 507
ere@@ 507
isen@@ 507
nick@@ 507
ories 507
schle@@ 507
work 507
çak@@ 507
ầ@@ 507
Fog@@ 506
Rahman 506
Six 506
TF 506
Ultimate 506
Vinci 506
Zone 506
alon@@ 506
dat@@ 506
ilk 506
kut@@ 506
match 506
mini@@ 506
2,9 505
287 505
289 505
346 505
Ambrose 505
Heaven 505
Inf@@ 505
Lazar@@ 505
Lucien 505
Mussolini 505
Paula 505
Ramb@@ 505
Xavier 505
chester 505
Augsburg 504
Cincinnati 504
EP@@ 504
Emirates 504
Jah@@ 504
Lublin 504
Mati@@ 504
Nana 504
Pearl 504
Strauss 504
Sud 504
Trophy 504
Valentine 504
arcade 504
fir@@ 504
gau 504
lor 504
ware 504
yah 504
zur@@ 504
ılar 504
Benson 503
Devil 503
Fox@@ 503
Gogh 503
Hearts 503
March@@ 503
Stir@@ 503
dle 503
ovia 503
ubil@@ 503
Genesis 502
Goethe 502
HA 502
Lambert 502
Low@@ 502
Palais 502
Rey@@ 502
Telegraph 502
inen 502
scor@@ 502
Baron 501
Brown@@ 501
Double 501
Eduardo 501
Extrem@@ 501
Gog@@ 501
Hann@@ 501
Verb@@ 501
remot@@ 501
she@@ 501
œ@@ 501
1660 500
341 500
Design 500
Deux 500
Horse 500
Manz@@ 500
Martín 500
NHK 500
Pich@@ 500
Rossi 500
after 500
atos 500
ezi 500
nek 500
onal 500
3,9 499
Adrian 499
Claudius 499
Luftwaffe 499
Madame 499
Rebecca 499
Renn@@ 499
Storm 499
Sussex 499
Vilnius 499
celi 499
chs 499
come 499
cruci@@ 499
eren 499
fax 499
hui 499
phys@@ 499
198@@ 498
336 498
Duch@@ 498
Heinz 498
LAN 498
Martínez 498
Tudor 498
azia 498
erre 498
ombie 498
otta 498
sala 498
337 497
48,@@ 497
98,@@ 497
Amas@@ 497
BL 497
Chuck 497
Dik@@ 497
Dome 497
Medici 497
Muz@@ 497
Ortho@@ 497
Schwarzen@@ 497
Search 497
Snow@@ 497
Stra@@ 497
Wide 497
alar 497
aught 497
ikal 497
tors 497
tram@@ 497
47,@@ 496
Blade 496
Chron@@ 496
German@@ 496
Highland 496
Justice 496
MR@@ 496
Palm 496
Tog@@ 496
Yo 496
aines 496
background 496
chard 496
oles 496
ports 496
taur@@ 496
vig@@ 496
ć@@ 496
宗@@ 496
1100 495
Admir@@ 495
Elliot 495
En 495
Greatest 495
Kings 495
MR 495
Paz 495
Perci@@ 495
Sain@@ 495
Things 495
agona 495
fia 495
istic@@ 495
olar@@ 495
onc@@ 495
por 495
rang@@ 495
vert 495
yar 495
成@@ 495
Engineering 494
F2 494
Hatay 494
Juni@@ 494
Mickey 494
Orion 494
Ram 494
aldi 494
ober@@ 494
Brighton 493
Eurovision 493
Eyes 493
Heavy 493
Olivia 493
Unter@@ 493
indie 493
king@@ 493
oi@@ 493
zona 493
354 492
Atari 492
Denizli 492
Goa 492
Mind 492
Mish@@ 492
Wul@@ 492
Yol@@ 492
erie 492
feri 492
pay 492
pec 492
revol@@ 492
sec 492
tela 492
Ứ@@ 492
Albrecht 491
Andrés 491
Fashion 491
Heroes 491
Islands 491
Kirk 491
Lightning 491
Mili@@ 491
Pi 491
Production 491
iran 491
school 491
tav@@ 491
Bureau 490
Flem@@ 490
Lid@@ 490
Parsons 490
casting 490
cht 490
ire@@ 490
omni@@ 490
pay@@ 490
pers 490
rest@@ 490
1765 489
AW@@ 489
Afric@@ 489
DH@@ 489
Hand 489
Landes 489
Silent 489
Wanna 489
ahan 489
bur 489
lide 489
osc@@ 489
361 488
425 488
Brand@@ 488
Gill 488
Julien 488
Lac 488
MK 488
Nay@@ 488
Thér@@ 488
Wool@@ 488
asant 488
cay@@ 488
enti 488
ffy 488
pand@@ 488
้ 488
東@@ 488
Dais@@ 487
Nol@@ 487
Pru@@ 487
Schen@@ 487
izen 487
linger 487
mass@@ 487
BK 486
Büyük@@ 486
DL@@ 486
Dalton 486
Fow@@ 486
Gil 486
McCl@@ 486
McMahon 486
Rous@@ 486
Singer 486
Steam 486
aret 486
entra 486
incar@@ 486
neu@@ 486
quart 486
status 486
tun 486
uso 486
ー 486
338 485
Koc@@ 485
Nottingham 485
aming 485
constr@@ 485
elos 485
epe 485
kos@@ 485
ms@@ 485
where 485
Gum@@ 484
Nit@@ 484
Ow@@ 484
Rotterdam 484
Shiva 484
Tech 484
bek@@ 484
god@@ 484
iche 484
jean 484
onau@@ 484
372 483
5,2 483
8.1 483
980 483
Apache 483
Bhar@@ 483
Crimea 483
Croix 483
Mia 483
Roche 483
Temple 483
UC 483
assim@@ 483
cheo 483
lula 483
trol@@ 483
505 482
Auschwitz 482
Candy 482
Crow@@ 482
Independent 482
Kno@@ 482
Marche 482
Person@@ 482
Raja 482
Sakarya 482
Stella 482
aq 482
ife 482
liber@@ 482
loe 482
ogi 482
playoff 482
ried 482
stad 482
tero 482
ure@@ 482
і@@ 482
1766 481
4,4 481
Cumberland 481
Durham 481
Ida 481
Kayseri 481
Nieder@@ 481
Pey@@ 481
Serena 481
bee 481
mess@@ 481
sera 481
1779 480
415 480
Alg@@ 480
Crus@@ 480
Dimi@@ 480
Flin@@ 480
Lille 480
Miner@@ 480
Thé@@ 480
Timothy 480
ağ 480
circum@@ 480
dell 480
ecu@@ 480
elen 480
encia 480
girl 480
kas 480
mund@@ 480
vá@@ 480
上@@ 480
332 479
490 479
Brand 479
Hansen 479
Marguerite 479
Memorial 479
Neville 479
Schi@@ 479
Scorpi@@ 479
Sugar 479
api@@ 479
aub@@ 479
ental 479
isson 479
lane 479
sto@@ 479
trata 479
่ 479
昭@@ 479
96,@@ 478
Christie 478
Cold@@ 478
center 478
holt 478
jen@@ 478
kina 478
ocul@@ 478
Albany 477
Alf@@ 477
BR 477
Half 477
Kib@@ 477
MLS 477
Romero 477
SG 477
Uşak 477
Vat@@ 477
Yat@@ 477
cycl@@ 477
dep@@ 477
eaux 477
297 476
45.@@ 476
Benedict 476
Case 476
EMI 476
Kenn@@ 476
Kurz 476
Motor@@ 476
Naomi 476
Orph@@ 476
ffen 476
loween 476
rating 476
umen 476
907 475
Bass 475
Billie 475
Britann@@ 475
CII 475
Carr 475
Gram 475
Montevideo 475
Moy@@ 475
NR@@ 475
Season 475
Somali 475
flo@@ 475
hold 475
inz@@ 475
through 475
383 474
476 474
555 474
Baj@@ 474
Beast 474
Heart@@ 474
Mass 474
Polo 474
Sos@@ 474
Tra@@ 474
Weimar 474
arac@@ 474
eline 474
leg 474
m.@@ 474
sine 474
sm@@ 474
sultan 474
thro@@ 474
小@@ 474
BB@@ 473
Castilla 473
Crazy 473
Jed@@ 473
Martina 473
Mell@@ 473
Nine 473
Oakland 473
Roi 473
Wiz@@ 473
Zem@@ 473
abil@@ 473
ight@@ 473
ikan@@ 473
oir 473
rew@@ 473
294 472
334 472
Ai@@ 472
Alten@@ 472
Books 472
Exeter 472
Hale 472
Jans@@ 472
Mayer 472
Multi@@ 472
Solo 472
Walking 472
Wendy 472
ables 472
agh 472
amme 472
ational 472
olay@@ 472
parentid 472
say@@ 472
scher 472
stom@@ 472
20th 471
Amad@@ 471
Jacobs 471
Lucky 471
Marsh@@ 471
Midlands 471
Moc@@ 471
Pig@@ 471
Pisa 471
Roch@@ 471
down@@ 471
hang@@ 471
ignon 471
lah@@ 471
ning@@ 471
part 471
ynn 471
ṇ@@ 471
329 470
46,@@ 470
55,@@ 470
930 470
August@@ 470
Barton 470
Enrique 470
Sebasti@@ 470
Strat@@ 470
amon 470
imin@@ 470
zw@@ 470
ün@@ 470
Ổ 470
4,8 469
403 469
999 469
Away 469
BR@@ 469
Pér@@ 469
Riley 469
SMS 469
Warwick 469
Willem 469
Winchester 469
about 469
akin 469
hic 469
micro 469
nee 469
yay@@ 469
ympi@@ 469
ıl@@ 469
Alessandro 468
Cen@@ 468
Galer@@ 468
Graph@@ 468
Hebr@@ 468
Hip 468
Oste@@ 468
Ptol@@ 468
atoria 468
aşa 468
ious 468
ković 468
olls 468
sym@@ 468
江@@ 468
730 467
Avenue 467
Chol@@ 467
Labrador 467
Lithuania 467
MM 467
Mb@@ 467
NN 467
Tarr@@ 467
UD 467
Veronica 467
alog@@ 467
bird 467
empl@@ 467
iel 467
jed@@ 467
新@@ 467
402 466
Brooke 466
ML 466
Shop 466
Walsh 466
dog 466
gradi@@ 466
jar 466
wang@@ 466
Belfast 465
Dead@@ 465
Doyle 465
Ninja 465
Shannon 465
Smart 465
Wyatt 465
ellen@@ 465
fall 465
marine 465
ıklı 465
ổ@@ 465
白@@ 465
3.5 464
Beat 464
Doha 464
Fra@@ 464
Gond@@ 464
Junk@@ 464
Lynn 464
Nazar@@ 464
Noctu@@ 464
Rij@@ 464
brah@@ 464
dock 464
inge 464
oui 464
tress 464
ılı 464
559 463
780 463
8000 463
820 463
Abdul@@ 463
Bari 463
Citi@@ 463
Hartmann 463
Nur 463
Wings 463
olf 463
ortho@@ 463
ths 463
ũy 463
97,@@ 462
Bov@@ 462
adem@@ 462
anu 462
cel 462
ille@@ 462
ondr@@ 462
pedia 462
simpl@@ 462
stic@@ 462
ラ@@ 462
292 461
Audi@@ 461
Baba 461
Beth 461
Tic@@ 461
frac@@ 461
main@@ 461
riff 461
tell@@ 461
ungu@@ 461
yor@@ 461
Banda 460
Bret@@ 460
Carab@@ 460
Esk@@ 460
Kach@@ 460
Ung@@ 460
Variety 460
Wi 460
atz@@ 460
comarca 460
g. 460
heavy 460
indi 460
libr@@ 460
vit 460
5,7 459
Fly 459
Mar 459
Mustafa 459
Tracy 459
UB 459
along@@ 459
bass@@ 459
disco 459
illing 459
km@@ 459
larv@@ 459
put 459
sonne 459
soundtrack 459
ắ@@ 459
342 458
Canterbury 458
Guadalajara 458
Hawkins 458
Style 458
agos 458
naz@@ 458
show@@ 458
ías 458
道@@ 458
757 457
Engine 457
Mariah 457
Mous@@ 457
OK 457
Pine 457
Spider 457
Swan 457
Sylv@@ 457
iny 457
ney@@ 457
5,3 456
7000 456
Ame@@ 456
Cornell 456
Herr@@ 456
Original 456
Set 456
Stadium 456
VB 456
ampi@@ 456
anka 456
aras@@ 456
kow 456
lana 456
plur@@ 456
朱@@ 456
Laf@@ 455
Lie 455
Marqu@@ 455
Nus@@ 455
SQL 455
iens 455
maz@@ 455
ogy 455
ohl 455
ult 455
wall@@ 455
zim@@ 455
神@@ 455
250@@ 454
Bedford 454
Epic 454
Gulf 454
Isle 454
Metropolitan 454
Ren 454
Rim@@ 454
Services 454
Vale 454
Vish@@ 454
alism 454
bacteri@@ 454
mou@@ 454
yos@@ 454
0.5 453
57,@@ 453
Amazing 453
Brescia 453
DA@@ 453
Dinamo 453
Gloucester 453
Produc@@ 453
bah 453
hoff 453
soci@@ 453
tres 453
1650 452
Arc 452
Chandler 452
Clement 452
Hessen 452
Küçük@@ 452
Well@@ 452
Zey@@ 452
ever@@ 452
graph@@ 452
rov 452
till@@ 452
uth@@ 452
Her 451
Kerr 451
Mund@@ 451
PK 451
Too 451
Wind 451
ampli@@ 451
andes 451
cand@@ 451
eiro 451
ević 451
hit@@ 451
semif@@ 451
µ@@ 451
Carpenter 450
Chinese 450
Giuli@@ 450
Heights 450
Léon 450
PO 450
Premi@@ 450
Sylvia 450
Tart@@ 450
Teddy 450
Test@@ 450
Vet@@ 450
Vr@@ 450
awk 450
emo 450
oec@@ 450
ool 450
Ơ@@ 450
Alsace 449
Benz@@ 449
Bik@@ 449
Cari@@ 449
Combin@@ 449
HT 449
Hayes 449
Hector 449
Irene 449
Jú@@ 449
Korean 449
Mali@@ 449
Mission 449
Round 449
Steiner 449
Suffolk 449
Te 449
VR 449
arn 449
hl 449
pro 449
tiz@@ 449
이@@ 449
Belgrade 448
Gene 448
Indo@@ 448
Middle 448
Nati@@ 448
abell@@ 448
alist 448
ather@@ 448
enthal 448
eski 448
now@@ 448
ple 448
58.@@ 447
Bear 447
Fields 447
Geoffrey 447
Jet@@ 447
Jus@@ 447
Martha 447
Navarra 447
RN@@ 447
Week 447
enea 447
erh@@ 447
ibo 447
oughton 447
west@@ 447
Ávila 447
195@@ 446
Butter@@ 446
C3 446
EV@@ 446
Eh@@ 446
Imperial 446
Manning 446
Mehmed 446
Thames 446
Winter@@ 446
Yug@@ 446
analog 446
hasa 446
haus 446
mere 446
rant 446
tau@@ 446
tenberg 446
363 445
Alam@@ 445
Anat@@ 445
Carnegie 445
Dop@@ 445
Eliz@@ 445
Esther 445
Federation 445
Hyde 445
Mein@@ 445
Vaughan 445
Wei 445
Welsh 445
angelo 445
eve 445
irat@@ 445
nie 445
racia 445
rek 445
tez 445
uit 445
venez@@ 445
親@@ 445
Drag@@ 444
FT 444
Health 444
Kuy@@ 444
Oder 444
Seymour 444
Ville 444
acor@@ 444
anl@@ 444
cros@@ 444
inv@@ 444
mak 444
obe 444
正@@ 444
327 443
Eye 443
Index 443
Kill 443
Lans@@ 443
Sidi 443
Worth 443
dru@@ 443
ionale 443
mania 443
plug@@ 443
ring 443
uzman@@ 443
Berger 442
Geb@@ 442
Glen 442
Ground 442
Khalifa 442
Nut@@ 442
Santander 442
athan 442
brid 442
ezo 442
post 442
rar@@ 442
馬@@ 442
GN@@ 441
Gregor 441
Guitar 441
Hitch@@ 441
Oriental 441
RF 441
Sé@@ 441
Un 441
Vä@@ 441
opard 441
sters 441
tian 441
54,@@ 440
590 440
870 440
Clair 440
Flora 440
Hilton 440
McCarthy 440
RD 440
Sciences 440
aal@@ 440
awan@@ 440
isme 440
kö@@ 440
lug 440
shell 440
wey 440
Ớ@@ 440
永@@ 440
475 439
710 439
Andersen 439
Eber@@ 439
Hez@@ 439
Kimber@@ 439
Obj@@ 439
PAC 439
Quentin 439
Waterloo 439
alls 439
anton 439
cc 439
cible 439
hul@@ 439
ibia 439
icha 439
nuc@@ 439
otto 439
references 439
sitcom 439
tour@@ 439
1.2 438
1640 438
376 438
512 438
ARM 438
Blanche 438
Brien 438
Brus@@ 438
CAF 438
Chav@@ 438
Ciudad 438
Guide 438
Heavyweight 438
Nürnberg 438
Ramos 438
Rashid 438
Rubin 438
bli@@ 438
bos 438
kon 438
obs 438
40.@@ 437
670 437
760 437
860 437
Barker 437
Eskişehir 437
Gear 437
Minneapolis 437
TB 437
Tekir@@ 437
ajo 437
edes 437
edy 437
jer 437
onde 437
serp@@ 437
street 437
width 437
359 436
387 436
49.@@ 436
581 436
Aberdeen 436
Alz@@ 436
CH3 436
Council 436
Randolph 436
Tex@@ 436
Tob@@ 436
ecraft 436
iret 436
most 436
oper 436
usha 436
yav@@ 436
ées 436
44.@@ 435
830 435
Andri@@ 435
Kan 435
Paradise 435
RB 435
Rumble 435
Theory 435
Vez@@ 435
Waters 435
annah 435
arom@@ 435
hou@@ 435
Brandt 434
Cool 434
Diam@@ 434
Esc@@ 434
Holy 434
Karaman 434
LCD 434
Made 434
Mani@@ 434
Mann 434
Rodrigo 434
Termin@@ 434
Uru@@ 434
anap@@ 434
eper 434
vili 434
353 433
399 433
Braun@@ 433
Fic@@ 433
Grab@@ 433
Kie@@ 433
Notre 433
PE 433
Rip@@ 433
Spring@@ 433
blog@@ 433
dige 433
icon@@ 433
olu 433
pic 433
pu 433
sions 433
stre@@ 433
tena 433
vent@@ 433
γ 433
50,@@ 432
Abbey 432
Gran 432
Language 432
Rex 432
St.-@@ 432
U2 432
Ulu@@ 432
Wild@@ 432
bil 432
istic 432
juli@@ 432
ull 432
Elias 431
Ferrari 431
Montréal 431
Uch@@ 431
Verdun 431
Ville@@ 431
ries 431
unge 431
Anjou 430
Bruxelles 430
Market 430
Prosp@@ 430
T1 430
Wey@@ 430
ballet 430
ignac 430
irt 430
nur 430
produc@@ 430
ring@@ 430
uu 430
Baptist 429
Bü@@ 429
Greenwich 429
Griffin 429
Lieb@@ 429
Occit@@ 429
Reu@@ 429
Theatre 429
Vietnam@@ 429
asch@@ 429
jana 429
phine 429
364 428
Fisch@@ 428
Omega 428
ary@@ 428
baum 428
dil 428
exc@@ 428
ify 428
lé 428
medium 428
opo 428
公@@ 428
394 427
911 427
FL@@ 427
Hey 427
Pratt 427
adj@@ 427
amel@@ 427
anis 427
anova 427
dian 427
emor@@ 427
kis@@ 427
zun@@ 427
347 426
368 426
56,@@ 426
880 426
Brabant 426
CY@@ 426
Energy 426
Félix 426
Ital@@ 426
Leigh 426
Rin 426
Sally 426
ensburg 426
ht@@ 426
marathon 426
organ@@ 426
432 425
Aar@@ 425
Dreams 425
Giac@@ 425
JR 425
Look 425
Mash@@ 425
Parall@@ 425
Paz@@ 425
SG@@ 425
Schalke 425
Schiff@@ 425
disco@@ 425
irat 425
nil 425
quir@@ 425
shaw 425
tava 425
witz 425
世@@ 425
周@@ 425
恭@@ 425
339 424
377 424
479 424
Bic@@ 424
Bio@@ 424
Diane 424
Fok@@ 424
Fontaine 424
Liss@@ 424
Pill@@ 424
Rick@@ 424
Royce 424
dra 424
ugu@@ 424
五@@ 424
1756 423
369 423
Ami@@ 423
Axel 423
CDC 423
Clarence 423
Clyde 423
Gaius 423
Herb@@ 423
Master@@ 423
Toch@@ 423
app 423
ciano 423
deres 423
eit@@ 423
ior 423
ude 423
vod@@ 423
412 422
Athen 422
Cartoon 422
PN 422
Shell 422
Soci@@ 422
alyp@@ 422
campan@@ 422
esland 422
gang@@ 422
imer 422
nac@@ 422
than@@ 422
troc@@ 422
ɪ@@ 422
416 421
5,8 421
Ahr@@ 421
Bolívar 421
Cerro 421
Foc@@ 421
Font@@ 421
Gain@@ 421
Gang 421
ND@@ 421
Schne@@ 421
VIP 421
Vogel 421
andez 421
chang@@ 421
dine 421
etown 421
iPod 421
pino 421
rein@@ 421
625 420
Erd@@ 420
Frances 420
ISBN 420
KV 420
Keys 420
MX 420
ets@@ 420
hass@@ 420
hion 420
kreis 420
lez@@ 420
moi 420
österreich 420
林@@ 420
1592 419
379 419
5,4 419
Anh@@ 419
Björ@@ 419
Have 419
IO@@ 419
Johns 419
MF 419
Sorbonne 419
UNICEF 419
WA 419
adis 419
day@@ 419
esca 419
ferr@@ 419
omb 419
tona 419
tori@@ 419
192@@ 418
366 418
431 418
Activ@@ 418
Alleg@@ 418
Chall@@ 418
Constance 418
Hits 418
Hohen@@ 418
ISC 418
Jess@@ 418
Kör@@ 418
LR 418
Mav@@ 418
Neill 418
Patterson 418
Penn 418
Richter 418
Rug@@ 418
Tina 418
alit@@ 418
angalia 418
borne 418
who 418
381 417
604 417
705 417
770 417
Alicia 417
HK 417
Henn@@ 417
Hidalgo 417
Mode 417
Nikolay 417
Other 417
Plo@@ 417
Sark@@ 417
Sex 417
Turbo 417
Woll@@ 417
aid@@ 417
ecz@@ 417
ees 417
frame 417
gues 417
they 417
town@@ 417
visa 417
wn@@ 417
Dale 416
Dio 416
Schwarz@@ 416
Ston@@ 416
ation@@ 416
dou 416
esser 416
euti@@ 416
ities 416
org 416
oslav@@ 416
solid@@ 416
öğ@@ 416
1661 415
362 415
398 415
Agnes 415
Edirne 415
Fish 415
Guillaume 415
McKin@@ 415
Museum 415
Tallinn 415
Unity 415
Villeneuve 415
arest 415
delta 415
kav@@ 415
kett 415
mash 415
obe@@ 415
scho@@ 415
she 415
tennis 415
392 414
393 414
397 414
ARC 414
Ail@@ 414
Class 414
Dok@@ 414
GT 414
Haven 414
Kit 414
Late 414
Linz 414
M3 414
Ritter 414
SR@@ 414
Sej@@ 414
Wing 414
break 414
dex 414
gramm@@ 414
hig 414
ikos 414
illas 414
part@@ 414
ön@@ 414
光@@ 414
349 413
378 413
Artvin 413
Buff@@ 413
E3 413
Elite 413
Freud 413
Gent@@ 413
JP 413
Judith 413
Sche@@ 413
Together 413
Where 413
eback 413
jah@@ 413
ques@@ 413
rit 413
samb@@ 413
ṣ@@ 413
北@@ 413
AND 412
Bent@@ 412
Bulbo@@ 412
Canyon 412
Financial 412
Göttingen 412
Magdalena 412
Moul@@ 412
Quint@@ 412
Source 412
Train 412
adas 412
enty 412
step@@ 412
stown 412
ukur@@ 412
ź@@ 412
465 411
Access 411
Graz 411
Serra 411
Trier 411
Vog@@ 411
boy@@ 411
iler@@ 411
inoc@@ 411
nel 411
odo 411
ological 411
pita 411
wal 411
ル@@ 411
宮 411
惠@@ 411
007 410
Argent@@ 410
Donau 410
Mir 410
Penny 410
Shirley 410
Sue 410
Utrecht 410
agen@@ 410
aic 410
ament@@ 410
ardt 410
bank@@ 410
bre 410
eless 410
inette 410
list 410
odr@@ 410
roqu@@ 410
tner 410
ví@@ 410
Amb@@ 409
Angels 409
Pitt 409
Revolution 409
Viz@@ 409
Walk 409
alco@@ 409
annis 409
estone 409
oun@@ 409
undo 409
1769 408
409 408
840 408
Another 408
Atl@@ 408
Cap 408
Carson 408
Moldav@@ 408
Norton 408
Pens@@ 408
Ware 408
Wick@@ 408
Zanzibar 408
aley@@ 408
berland 408
council 408
einer 408
mir 408
schi 408
12,5 407
407 407
502 407
Advanced 407
Bayr@@ 407
Caj@@ 407
Duv@@ 407
Elle 407
Hispania 407
Joey 407
Konstantin@@ 407
Levy 407
Salazar 407
bold 407
hipo@@ 407
idai 407
incur@@ 407
535 406
Ez@@ 406
Website 406
adol@@ 406
cle 406
cord 406
ht 406
iber@@ 406
scher@@ 406
turn@@ 406
ular@@ 406
ụm 406
605 405
Abd 405
Aï@@ 405
Break 405
Dür@@ 405
Esper@@ 405
Faith 405
Fem@@ 405
Habana 405
Harbor 405
Inn@@ 405
Innoc@@ 405
Living 405
Rod 405
VHS 405
anian 405
band@@ 405
folk 405
got 405
kut 405
zone 405
ğlu 405
不@@ 405
707 404
740 404
Benz 404
ESA 404
Fire@@ 404
Giant 404
MK@@ 404
Malik 404
Vol 404
Way@@ 404
akap@@ 404
ching 404
dn 404
free 404
icles 404
satur@@ 404
second 404
58,@@ 403
Ans@@ 403
Antigua 403
Atal@@ 403
Derr@@ 403
Euphor@@ 403
Fourier 403
Hop 403
Lafayette 403
NXT 403
Naw@@ 403
Negr@@ 403
Schlesien 403
UT 403
aces 403
atan@@ 403
colombi@@ 403
emo@@ 403
endro@@ 403
excav@@ 403
ged 403
hag@@ 403
icana 403
yük 403
ù@@ 403
楊@@ 403
196@@ 402
2A 402
Chamberlain 402
Gaul@@ 402
Gian@@ 402
Gow@@ 402
Guerrero 402
Holoc@@ 402
Konrad 402
MAC 402
Nek@@ 402
Tod@@ 402
abel@@ 402
beat 402
hoven 402
ights 402
mili@@ 402
okee 402
teg@@ 402
vec@@ 402
374 401
391 401
Creative 401
Dancing 401
Gus@@ 401
Gust@@ 401
Need 401
Poz@@ 401
altern@@ 401
amid@@ 401
avo 401
chat 401
genus 401
lac 401
lyc@@ 401
mode 401
sander 401
Ư 401
-1 400
429 400
455 400
Inc 400
Laun@@ 400
Mech@@ 400
Morocco 400
Rivière 400
Satur@@ 400
anas@@ 400
ices 400
illet 400
kern@@ 400
septentr@@ 400
stock 400
tape 400
utz 400
ŭ@@ 400
太后 400
1764 399
344 399
373 399
ABA 399
Admiral 399
Eve 399
Frédéric 399
Hastings 399
Linden 399
Lydia 399
Yal@@ 399
auff@@ 399
bers 399
eden@@ 399
enin 399
esen 399
nah@@ 399
semin@@ 399
sons 399
Cinema 398
Claudia 398
Dorothy 398
Harv@@ 398
ISA 398
Mens@@ 398
Summit 398
Talent 398
Toulon 398
alt 398
black 398
nau@@ 398
roy@@ 398
zio 398
.org 397
1761 397
At 397
Cassini 397
Community 397
Cut@@ 397
Dart@@ 397
Ein@@ 397
Iber@@ 397
Ladies 397
Liège 397
Natur@@ 397
Pearson 397
Spit@@ 397
Williamson 397
fus 397
heb@@ 397
onnais 397
petr@@ 397
yin 397
Ổ@@ 397
408 396
451 396
910 396
Asturias 396
Dynasty 396
Myth@@ 396
Peak 396
Professional 396
Romeo 396
Ruh@@ 396
Schmal@@ 396
Stock 396
UP 396
Zin@@ 396
block 396
ective 396
gios 396
haus@@ 396
hispan@@ 396
hua 396
immer@@ 396
port@@ 396
yen 396
3G 395
534 395
Allah 395
Amat@@ 395
Lass@@ 395
Mahar@@ 395
PCR 395
Ring@@ 395
Without 395
agh@@ 395
basa 395
cie 395
eig@@ 395
pale@@ 395
scrip@@ 395
thumb 395
unders 395
vice 395
Álvarez 395
0.0@@ 394
389 394
417 394
Animal 394
Bish@@ 394
Bö@@ 394
Carac@@ 394
Encyclo@@ 394
Motion 394
Prime 394
Saale 394
Sarg@@ 394
Suárez 394
Tours 394
Tunis 394
akat@@ 394
auto@@ 394
gmina 394
hoch@@ 394
otyp@@ 394
197@@ 393
422 393
Cim@@ 393
Daisy 393
Ex 393
Philipp 393
Richards 393
Syst@@ 393
Vanessa 393
Vass@@ 393
Zuc@@ 393
aso 393
atur 393
front 393
kana 393
steri 393
tiger 393
vietnam@@ 393
1620 392
496 392
Beverly 392
Bonn 392
Guillermo 392
Hubert 392
Kirk@@ 392
Kni@@ 392
Mix 392
Samb@@ 392
UE 392
Vari@@ 392
Wave 392
alie 392
com. 392
dir 392
ehouse 392
oval 392
person@@ 392
øn@@ 392
396 391
528 391
Bard@@ 391
Durban 391
Finn 391
Independence 391
Kend@@ 391
Pioneer 391
Sarr@@ 391
Start 391
aşı 391
ensi 391
eten@@ 391
fut@@ 391
kub@@ 391
lü 391
sert 391
sion@@ 391
382 390
Buy@@ 390
Gron@@ 390
König@@ 390
Oto@@ 390
Rochester 390
Sno@@ 390
Something 390
aler@@ 390
elo@@ 390
fice 390
found 390
jon@@ 390
kers 390
nell 390
oline 390
ref@@ 390
stead 390
uck@@ 390
x86 390
い@@ 390
1.1 389
4.5 389
483 389
509 389
Alp@@ 389
Goul@@ 389
Marx@@ 389
Octav@@ 389
Phon@@ 389
RF@@ 389
americ@@ 389
apia 389
ems 389
ench@@ 389
kau@@ 389
oul 389
will@@ 389
AJ 388
BMW 388
BO 388
Caus@@ 388
Contest 388
Dawson 388
Derek 388
Ferreira 388
Mex@@ 388
Salv@@ 388
Stern 388
Wehrmacht 388
cano 388
igna 388
iles 388
inam@@ 388
otic 388
quem@@ 388
rim 388
small 388
A3 387
Alexis 387
Dud@@ 387
Front@@ 387
Lauren 387
Olympique 387
Scal@@ 387
Shal@@ 387
assault 387
iser 387
lara 387
mart 387
olith@@ 387
ornith@@ 387
osci@@ 387
osh 387
thly 387
vé@@ 387
çal@@ 387
1707 386
348 386
411 386
Assass@@ 386
Cherry 386
Javier 386
Kenny 386
Kog@@ 386
Orig@@ 386
RFC 386
Rolls 386
atro@@ 386
eal 386
oku@@ 386
prob@@ 386
rê@@ 386
tech@@ 386
ugu 386
ésie 386
čić 386
,000 385
.jpg 385
2024 385
Beyond 385
Bohem@@ 385
Common 385
Kahn 385
König 385
Mall 385
Mata 385
Vampire 385
enig@@ 385
hof 385
inners 385
éry 385
Defense 384
Rodriguez 384
Schrö@@ 384
Six@@ 384
Tuz@@ 384
Twin 384
Yum@@ 384
`@@ 384
beg@@ 384
iden@@ 384
isol@@ 384
kand@@ 384
kote 384
nad@@ 384
reich@@ 384
sali@@ 384
1. 383
2. 383
Ate@@ 383
Fabio 383
Fau@@ 383
Irving 383
Reyes 383
Rhein@@ 383
Schumacher 383
Ug@@ 383
apor@@ 383
arte 383
eder 383
gest@@ 383
onder@@ 383
param@@ 383
serv@@ 383
stress 383
ump 383
vy@@ 383
ück 383
ン 383
358 382
810 382
Adult 382
Ardahan 382
Bulls 382
Caen 382
Cinc@@ 382
HB 382
Pass 382
Tales 382
dah@@ 382
ects 382
full 382
nific@@ 382
tland 382
193@@ 381
427 381
435 381
548 381
Artist 381
Buchanan 381
Gob@@ 381
His 381
Hitchcock 381
JavaScript 381
Sr. 381
Technologies 381
Tá@@ 381
Valladolid 381
WO@@ 381
laz@@ 381
use@@ 381
ying 381
551 380
Abi@@ 380
Augustine 380
Beatrice 380
Fak@@ 380
Federal 380
Gerard 380
LB 380
MGM 380
Nueva 380
Ord@@ 380
Quinn 380
Stef@@ 380
Xia@@ 380
cipi@@ 380
có@@ 380
hero@@ 380
lern 380
ned 380
opin@@ 380
rem 380
stand@@ 380
ừ@@ 380
1630 379
2,0 379
413 379
690 379
Alem@@ 379
Base 379
Capit@@ 379
Fight 379
Ist@@ 379
Kerry 379
Lod@@ 379
Surrey 379
TCP 379
Thes@@ 379
Zurich 379
aham@@ 379
approxim@@ 379
conflu@@ 379
dow 379
ilde 379
ios@@ 379
mau@@ 379
wag@@ 379
ways 379
zar 379
2- 378
59,@@ 378
Anders 378
Boom 378
Dad@@ 378
Ne 378
Renault 378
Rhodesia 378
Sandy 378
Sov@@ 378
azzo 378
burgh 378
fro@@ 378
isar 378
mm@@ 378
raf@@ 378
tet 378
û@@ 378
1,5@@ 377
601 377
Acu@@ 377
Cash 377
Hahn 377
Mg@@ 377
aka@@ 377
cina 377
combe 377
coster@@ 377
district 377
eben 377
elem@@ 377
green 377
tox@@ 377
388 376
5,000 376
Championships 376
Guardi@@ 376
Gug@@ 376
Ion 376
Mai@@ 376
Olymp@@ 376
Publishing 376
Rights 376
Salle 376
Simone 376
Stones 376
afa 376
ancy 376
arca 376
ature 376
chain 376
claus@@ 376
illes 376
park 376
valid@@ 376
verd@@ 376
zir@@ 376
八@@ 376
1730 375
444 375
Area 375
Austria 375
Bauer 375
Marcelo 375
Mendoza 375
Málaga 375
Pers@@ 375
Qur@@ 375
Romance 375
Vier@@ 375
dic 375
iah 375
inal 375
lade 375
sil 375
tex 375
will 375
yes 375
zana 375
ön 375
Camer@@ 374
Campos 374
Czech 374
DH 374
Forst@@ 374
Marius 374
Raúl 374
Rosen@@ 374
Week@@ 374
amy 374
arry 374
cone 374
eben@@ 374
ewski 374
hos@@ 374
isten 374
ité 374
sohn 374
yang@@ 374
ž 374
慈@@ 374
1642 373
433 373
Agency 373
Das 373
Feld@@ 373
Hurricane 373
Minn@@ 373
Pulitzer 373
Samantha 373
Still 373
Yucatán 373
etime 373
ott@@ 373
room 373
sah@@ 373
taire 373
城@@ 373
定@@ 373
.1 372
532 372
Alejandro 372
Carre@@ 372
Kup@@ 372
Kwa@@ 372
Middles@@ 372
Mob@@ 372
Payne 372
SB@@ 372
Sidney 372
Silver@@ 372
akia 372
ames 372
aring 372
cler@@ 372
enz 372
gien 372
iks 372
imet@@ 372
tell 372
50.@@ 371
925 371
Bergen 371
Communications 371
Ebert 371
Fit@@ 371
Fru@@ 371
Glory 371
Herrera 371
Oper@@ 371
Pelle@@ 371
Robbie 371
Temp@@ 371
avis 371
fis@@ 371
ls@@ 371
telenovela 371
zt 371
ɛ@@ 371
城 371
1688 370
414 370
486 370
602 370
727 370
Break@@ 370
Canal 370
Sherlock 370
Stal@@ 370
Ved@@ 370
Word 370
acci 370
ading 370
hep@@ 370
kari 370
rot 370
rugby 370
shausen 370
urlu 370
428 369
Aim@@ 369
BI 369
Cáceres 369
Emir@@ 369
Fad@@ 369
Gaston 369
Handel 369
Moon@@ 369
Nothing 369
PI@@ 369
Record 369
SU@@ 369
Sens@@ 369
Years 369
aat 369
anderen 369
enzel 369
esque 369
iyo 369
ló 369
omer 369
works 369
xton 369
¥ 369
日@@ 369
424 368
452 368
538 368
920 368
Abbott 368
Archae@@ 368
Bord@@ 368
Cold 368
Gore 368
Jörg 368
Picasso 368
Stand 368
Walther 368
atz 368
cis@@ 368
hou 368
rance 368
spo@@ 368
unter 368
vey 368
์ 368
1683 367
189@@ 367
42.@@ 367
488 367
Blanc 367
Darren 367
Inn 367
Mirror 367
News@@ 367
Publ@@ 367
Santana 367
Sarajevo 367
Unicode 367
XML 367
actu@@ 367
deu@@ 367
dragon 367
eces 367
far 367
jal@@ 367
ove 367
pre 367
êt 367
α@@ 367
Danger@@ 366
Germania 366
Marin@@ 366
Mov@@ 366
Peñ@@ 366
Qui@@ 366
Strong 366
Work@@ 366
addin 366
api 366
azo 366
eds 366
ehir 366
evento 366
exig@@ 366
kt 366
metric 366
nj@@ 366
prof@@ 366
ồ@@ 366
Ụ@@ 366
阿@@ 366
436 365
506 365
515 365
970 365
Carni@@ 365
Cornelius 365
Isol@@ 365
Marta 365
Oil 365
PM@@ 365
Palatin@@ 365
Rouge 365
SO 365
Sonny 365
Vod@@ 365
azer 365
bels 365
dik@@ 365
hana 365
itte 365
k.@@ 365
laine 365
lass 365
ṭ@@ 365
439 364
507 364
Barth@@ 364
Blas@@ 364
Cunningham 364
Earl 364
Edison 364
Flight 364
Hasan 364
Mari 364
Musical 364
Plan 364
Reims 364
Weib@@ 364
Why 364
ajan 364
brook 364
curr@@ 364
union 364
wur@@ 364
yal 364
ß 364
国@@ 364
1720 363
445 363
Dess@@ 363
Erie 363
Erwin 363
Herald 363
Jim@@ 363
Natalie 363
Plac@@ 363
Poul@@ 363
UE@@ 363
Yves 363
Zol@@ 363
anim@@ 363
crom@@ 363
dwell 363
für 363
gren@@ 363
hali@@ 363
inet 363
inian 363
ofu 363
ppi 363
trav@@ 363
Çak@@ 363
し@@ 363
940 362
Andre 362
BI@@ 362
Claus@@ 362
Committee 362
Gone 362
No. 362
OT@@ 362
anor 362
cois 362
commun@@ 362
eler@@ 362
ellen 362
kuz@@ 362
nach 362
test 362
trit@@ 362
清@@ 362
109@@ 361
453 361
616 361
Ever 361
Fai@@ 361
Freeman 361
Guin@@ 361
Hain@@ 361
Pris@@ 361
Report 361
Ruther@@ 361
S1 361
ampl@@ 361
cache 361
erne 361
grand@@ 361
ills 361
ming 361
otra 361
sp 361
tice 361
ulg@@ 361
″ 361
554 360
576 360
589 360
African 360
April 360
Emerson 360
ITF 360
Katherine 360
Library 360
Lif@@ 360
Lisboa 360
Nigel 360
Petra 360
Police 360
Province 360
Selim 360
Stern@@ 360
Vargas 360
Whis@@ 360
acan 360
acio 360
alter@@ 360
cut 360
feed 360
ists 360
kHz 360
ography 360
pf@@ 360
power 360
quer 360
veira 360
öh@@ 360
1643 359
485 359
Baf@@ 359
Department 359
Deu@@ 359
Katr@@ 359
Luf@@ 359
Pear@@ 359
Remix 359
Stephanie 359
bru@@ 359
emont 359
extr@@ 359
hil 359
mem@@ 359
nal 359
olles 359
reti@@ 359
sek 359
upa 359
vena 359
vid 359
zero 359
ッ@@ 359
1715 358
549 358
768 358
Brenn@@ 358
FN 358
Faus@@ 358
ICE 358
Manitoba 358
Saray@@ 358
Strike 358
anese 358
caf@@ 358
mica 358
olm 358
oman@@ 358
paragu@@ 358
stur@@ 358
üm 358
504 357
508 357
AMD 357
Alta 357
Bravo 357
Ch 357
Co. 357
Dominique 357
Every@@ 357
Hous@@ 357
Rojas 357
Stein 357
Thing 357
asen 357
aí@@ 357
cestershire 357
dak@@ 357
eburg 357
igr@@ 357
jou@@ 357
radic@@ 357
四@@ 357
黎@@ 357
419 356
454 356
Bernardo 356
Birds 356
Expo 356
Pé@@ 356
Spani@@ 356
half 356
jit@@ 356
kak@@ 356
kos 356
owitz 356
yas 356
趙@@ 356
1527 355
477 355
Ars@@ 355
Bush@@ 355
Deutschland 355
Everything 355
Front 355
IM 355
Kirby 355
Lama 355
Maver@@ 355
Survivor 355
Wilde 355
city 355
ders@@ 355
dim 355
enter@@ 355
erere 355
graf 355
main 355
moor 355
soft 355
寺 355
春@@ 355
1521 354
426 354
Ariel 354
Hohenzol@@ 354
Laguna 354
Nij@@ 354
Noy@@ 354
Security 354
TNT 354
Yan 354
aill@@ 354
aius 354
anning 354
aten@@ 354
enstein 354
erre@@ 354
fork 354
grad 354
icos 354
intr@@ 354
lieu 354
lingen 354
proxim@@ 354
u. 354
ubic@@ 354
unter@@ 354
éd@@ 354
ő 354
リ@@ 354
1701 353
Any@@ 353
Boulogne 353
Haas 353
Josi@@ 353
Molina 353
NF 353
Nico 353
Rez@@ 353
Sanders 353
Zim@@ 353
dish 353
function 353
led 353
urban@@ 353
voir 353
и 353
1368 352
188@@ 352
2050 352
457 352
639 352
Aram@@ 352
Attack 352
CW 352
Irish 352
Myster@@ 352
Oz 352
Rocket 352
Rosario 352
Silv@@ 352
Sü@@ 352
egen 352
ffe 352
ikat@@ 352
inn 352
map 352
oman 352
onz@@ 352
orah 352
sana 352
three 352
vij@@ 352
yol 352
ópolis 352
471 351
565 351
76,@@ 351
890 351
Avon 351
Bá@@ 351
D1 351
Dom 351
HTTP 351
Laurence 351
Leibniz 351
Merc@@ 351
Milwaukee 351
Mito 351
Old@@ 351
Sami 351
Tribune 351
Wheeler 351
a- 351
anco 351
cra@@ 351
dule 351
enni@@ 351
fin 351
good 351
imperi@@ 351
isis 351
mate 351
oqu@@ 351
return 351
revision 351
unker 351
version 351
ıköy 351
花@@ 351
2.2 350
48.@@ 350
636 350
Archib@@ 350
Burns 350
Catalina 350
Cell 350
DSM 350
Hanna 350
Kü@@ 350
Mallorca 350
Mw@@ 350
Neumann 350
Roz@@ 350
Wab@@ 350
Westph@@ 350
atil@@ 350
deo 350
mac 350
mondi@@ 350
wig 350
敬@@ 350
有@@ 350
水@@ 350
667 349
Benito 349
Bier@@ 349
Castillo 349
Goodman 349
Gottfried 349
Hispan@@ 349
Int@@ 349
Kli@@ 349
Peterson 349
Savage 349
Truth 349
Unit 349
arif 349
entes 349
idin 349
ilian 349
klar@@ 349
lein 349
mig@@ 349
schen 349
Ó 349
ım@@ 349
533 348
675 348
Aux@@ 348
Bombay 348
Bremer 348
Breslau 348
Coron@@ 348
FR 348
Gamma 348
Globe 348
Guadalupe 348
June 348
Krup@@ 348
Locke 348
Montpellier 348
NAS@@ 348
Segovia 348
Shen@@ 348
Some@@ 348
Whiteh@@ 348
alier 348
child 348
edt 348
erin 348
html 348
jaw@@ 348
lü@@ 348
quot 348
ʻ@@ 348
1680 347
43.@@ 347
Cecilia 347
Fighting 347
Halle 347
Jackie 347
Jensen 347
MCA 347
Match 347
Mons 347
Mā@@ 347
Networks 347
Noble 347
Prize 347
River@@ 347
Société 347
Superman 347
Tucker 347
aking 347
ark 347
cot 347
icke 347
illé 347
ić 347
kuh@@ 347
press 347
space 347
1000@@ 346
1550 346
186@@ 346
472 346
487 346
531 346
Before 346
Dutch 346
Evangel@@ 346
Ortiz 346
Trent 346
Via 346
ambigu@@ 346
buch@@ 346
compact 346
fug@@ 346
hos 346
icky 346
include 346
jab@@ 346
max 346
mites 346
Çer@@ 346
石@@ 346
418 345
632 345
875 345
Bond@@ 345
CAM 345
Canaria 345
Friday 345
IAAF 345
Led 345
Mad 345
Palma 345
Paulus 345
RE 345
Vita 345
Volta 345
Zul@@ 345
anche 345
giy@@ 345
hau@@ 345
imba 345
infl@@ 345
lars 345
ofi 345
positi@@ 345
rau@@ 345
your 345
456 344
466 344
541 344
545 344
572 344
628 344
7.5 344
Alt 344
Crosby 344
Fine 344
Jel@@ 344
Julio 344
Jürgen 344
Kow@@ 344
Toni 344
Upp@@ 344
ambi 344
aper 344
entin 344
home 344
1- 343
1428 343
1645 343
499 343
612 343
613 343
C4 343
Circle 343
Cré@@ 343
DB@@ 343
Moz@@ 343
Speed 343
Vila 343
christ@@ 343
compl@@ 343
engen 343
ival@@ 343
leta 343
loy@@ 343
riz@@ 343
thy 343
1745 342
Bilbao 342
Cage 342
Chab@@ 342
Chávez 342
Dab@@ 342
Gari@@ 342
Kard@@ 342
Mary@@ 342
Mig@@ 342
Pati@@ 342
Real@@ 342
UK@@ 342
Wang@@ 342
anam@@ 342
made 342
mium 342
pren@@ 342
tropo@@ 342
umbo 342
utia 342
師@@ 342
423 341
468 341
478 341
585 341
68,@@ 341
Board 341
Braz@@ 341
Dominic 341
FX 341
GSM 341
GmbH 341
ICC 341
Lars 341
Low 341
Madeleine 341
Midnight 341
Seh@@ 341
Soundtrack 341
WB 341
aji@@ 341
anten 341
auf@@ 341
emin 341
iker 341
kuts@@ 341
level 341
nois 341
opla 341
princ@@ 341
separ@@ 341
yle@@ 341
ól@@ 341
ün 341
в 341
1755 340
493 340
511 340
547 340
Airport 340
Collège 340
Compos@@ 340
Oracle 340
Pemb@@ 340
Randall 340
Rothschild 340
Screen 340
Sta@@ 340
Venez@@ 340
amen@@ 340
añ@@ 340
blo@@ 340
coe 340
ebi 340
hey@@ 340
ignan 340
sive 340
âr@@ 340
Camille 339
Exchange 339
Gustave 339
Holly 339
Jakob 339
Jericho 339
Leip@@ 339
Ltd. 339
Oldenburg 339
aird 339
antic@@ 339
cyr@@ 339
mano 339
peso 339
reci@@ 339
straße 339
tov@@ 339
1603 338
529 338
Continental 338
Coventry 338
Frit@@ 338
Gonzal@@ 338
Japanese 338
Jaz@@ 338
Joaqu@@ 338
Regina 338
Rose@@ 338
aben 338
acán 338
atlı 338
azza 338
cim@@ 338
dee 338
fren@@ 338
peregr@@ 338
sidi@@ 338
1st 337
522 337
Hunt@@ 337
Mahmud 337
NFL 337
Number 337
Performance 337
Theater 337
amor@@ 337
parta 337
א@@ 337
貴@@ 337
1,0@@ 336
10,5 336
1689 336
473 336
Bel 336
Carth@@ 336
Early 336
Gould 336
Königsberg 336
Macintosh 336
Marilyn 336
Már@@ 336
Sandra 336
TI 336
XXIII 336
host@@ 336
polym@@ 336
round 336
them 336
vand@@ 336
voc@@ 336
皇帝 336
1735 335
421 335
Aegean 335
Cyril 335
Kari@@ 335
LLC 335
Lou 335
Mine 335
Serv@@ 335
Strange 335
iano 335
isk 335
max@@ 335
offic@@ 335
ofia 335
orig@@ 335
sura 335
theid 335
way@@ 335
3.1 334
Basic 334
Better 334
Cortés 334
Davidson 334
Doug 334
Fitzgerald 334
Giv@@ 334
Golf 334
Mub@@ 334
Myers 334
Novo 334
Oster@@ 334
Pack@@ 334
Talbot 334
amos 334
armen@@ 334
iç@@ 334
lini 334
mono@@ 334
paz@@ 334
ス@@ 334
1427 333
722 333
Acc@@ 333
Arms 333
Chenn@@ 333
Des 333
HR 333
Judy 333
Pik@@ 333
WW@@ 333
Wass@@ 333
ete@@ 333
lıca 333
oud@@ 333
plant@@ 333
public 333
yazı 333
éli@@ 333
的@@ 333
516 332
518 332
527 332
552 332
626 332
64,@@ 332
AST 332
Brandon 332
Breton 332
Cabr@@ 332
Dam 332
Mathemati@@ 332
Safari 332
amas 332
bles 332
ché 332
dyn@@ 332
enau 332
fen 332
iliana 332
vil 332
ël 332
990 331
Diesel 331
Evelyn 331
FI 331
Flav@@ 331
Lab 331
Lodge 331
Parti@@ 331
Reporter 331
Vad@@ 331
aï@@ 331
costa 331
edel@@ 331
gemeinde 331
lefield 331
mil 331
msh@@ 331
oua 331
sted 331
wikitext 331
you@@ 331
漢@@ 331
180@@ 330
492 330
Astronom@@ 330
Bib@@ 330
Georgetown 330
Höl@@ 330
Perez 330
Sevent@@ 330
Sterling 330
Uri@@ 330
bard 330
club 330
common 330
elip@@ 330
istère 330
usse 330
ız@@ 330
447 329
458 329
681 329
790 329
Branch 329
Byron 329
Donna 329
Fatima 329
Glu@@ 329
Gour@@ 329
Murad 329
Wen@@ 329
digital 329
emin@@ 329
estre 329
gie 329
porte 329
unk 329
„ 329
1471 328
2.1 328
47.@@ 328
503 328
965 328
Alma 328
CDP 328
Martinez 328
Warrior 328
Zah@@ 328
conj@@ 328
dison 328
oupe 328
penalty 328
perf@@ 328
pt@@ 328
write 328
ép@@ 328
君 328
1672 327
464 327
BW@@ 327
Bağ@@ 327
Casa 327
Daf@@ 327
Evolution 327
Faul@@ 327
Higgins 327
Natural 327
OC 327
Tor 327
Yağ@@ 327
enci@@ 327
eries 327
ilan 327
ombe 327
ussy 327
wah@@ 327
zek@@ 327
Év@@ 327
1,000 326
446 326
615 326
Alive 326
Auto@@ 326
Brook 326
Give 326
Ins@@ 326
Kampala 326
Legends 326
Lik@@ 326
Mon 326
Orient 326
Pen 326
Scarab@@ 326
Stage 326
anon 326
cock@@ 326
cond@@ 326
entales 326
noch@@ 326
onar@@ 326
ovski 326
trem@@ 326
う@@ 326
462 325
542 325
544 325
562 325
711 325
Bask@@ 325
Bör@@ 325
DO 325
Doris 325
LF 325
Lausanne 325
Lef@@ 325
Minor 325
Picture 325
Rouen 325
Sacramento 325
Thorn@@ 325
Trevor 325
Zhou 325
akon@@ 325
aliz@@ 325
cias 325
eso 325
ikan 325
sini 325
state 325
uala 325
Émile 325
170@@ 324
1754 324
441 324
Alone 324
Atlantique 324
Change 324
Ern@@ 324
Journey 324
Kiz@@ 324
Operation 324
Platon 324
Príncipe 324
Soft 324
Stefano 324
Strateg@@ 324
anno@@ 324
arine 324
izi 324
lith@@ 324
lywood 324
sach@@ 324
there 324
victori@@ 324
Şark@@ 324
1619 323
1651 323
187@@ 323
442 323
443 323
Feel 323
Jenkins 323
PH 323
Ride 323
Save 323
Shet@@ 323
Suite 323
TG@@ 323
Test 323
assen 323
client 323
liter@@ 323
pam@@ 323
polyg@@ 323
vas 323
景@@ 323
0s 322
1526 322
179@@ 322
575 322
Emanuel 322
Eras@@ 322
Geg@@ 322
Holiday 322
Parks 322
Providence 322
Ramírez 322
Rupert 322
Vlad@@ 322
Wallis 322
abel 322
acab@@ 322
acher 322
acon 322
andin@@ 322
based 322
bye 322
hart 322
meister@@ 322
octo@@ 322
onci@@ 322
quest 322
rania 322
1637 321
469 321
524 321
Beb@@ 321
Honey 321
Institut 321
Mum@@ 321
Newark 321
Official 321
Pend@@ 321
Sunshine 321
Uj@@ 321
adic@@ 321
aifa 321
aline 321
aua 321
rass@@ 321
saur@@ 321
schwar@@ 321
season 321
used 321
ül 321
ē 321
π 321
ア@@ 321
1492 320
1627 320
1636 320
1736 320
449 320
495 320
645 320
Café 320
Coupe 320
FP 320
Freddy 320
Islam@@ 320
Mini@@ 320
Pinto 320
Pretty 320
Romano 320
Symphony 320
alya 320
andt 320
azar@@ 320
cliffe 320
dor 320
due 320
heri 320
hus@@ 320
ift 320
ighty 320
iny@@ 320
ords 320
rano 320
uf 320
vere 320
≤ 320
陽@@ 320
1653 319
494 319
701 319
Agn@@ 319
Cool@@ 319
Cricket 319
Food 319
Fuller 319
Hoffman 319
Lines 319
Matil@@ 319
Neustadt 319
Var 319
aint 319
cil@@ 319
europ@@ 319
fam@@ 319
fif@@ 319
hala 319
ilin 319
illac 319
metr@@ 319
sonian 319
urn 319
ío 319
1723 318
1741 318
491 318
521 318
Dee 318
Franken@@ 318
Giles 318
Gotha 318
KC 318
Mp@@ 318
Protocol 318
Salisbury 318
Scottish 318
Stadi@@ 318
Thunder 318
Trap@@ 318
abase 318
atir@@ 318
atl 318
bright 318
cardi@@ 318
chez 318
ember 318
ening 318
family 318
jung@@ 318
mix 318
mund 318
plex@@ 318
rod 318
tens@@ 318
wave 318
yol@@ 318
軍 318
1570 317
1744 317
514 317
543 317
DN 317
Este 317
Fear 317
Lester 317
Mercy 317
Quir@@ 317
Return 317
Rioja 317
Track 317
Wiener 317
atio 317
bik@@ 317
codes 317
estri@@ 317
hardt 317
iting 317
lows 317
sella 317
uster 317
1742 316
1748 316
627 316
69,@@ 316
Chef 316
Cologne 316
Eight 316
Federico 316
Information 316
Luth@@ 316
Nikola 316
Sutherland 316
appen 316
ativ@@ 316
eor@@ 316
epa 316
guar@@ 316
leen 316
milit@@ 316
rist@@ 316
tet@@ 316
til 316
vr@@ 316
ét@@ 316
ָ@@ 316
宣@@ 316
玉@@ 316
黃@@ 316
Ad 315
Châte@@ 315
Daniels 315
Finn@@ 315
Hub 315
Nd@@ 315
Sons 315
Yusuf 315
Zav@@ 315
afin 315
ayır@@ 315
carn@@ 315
deau 315
duk 315
funk 315
ging 315
hian 315
kem@@ 315
ophys@@ 315
quil@@ 315
法@@ 315
順@@ 315
05@@ 314
666 314
978 314
Aval@@ 314
Git@@ 314
Gord@@ 314
Memory 314
Michele 314
PHP 314
Pengu@@ 314
Phosph@@ 314
THE 314
Victory 314
Vince 314
acat@@ 314
lek@@ 314
neau 314
sif 314
tine 314
tique 314
מ@@ 314
姬@@ 314
1709 313
46.@@ 313
481 313
586 313
600@@ 313
607 313
66,@@ 313
DFB 313
Holz@@ 313
IPv@@ 313
Inside 313
Matthias 313
Mick 313
Moor 313
NL 313
Noc@@ 313
Sales 313
dati@@ 313
mind 313
oran 313
vall@@ 313
之 313
438 312
712 312
CAD 312
Clau@@ 312
Fleet 312
Gestapo 312
Hoffmann 312
IB 312
Jap@@ 312
Leverkusen 312
Neum@@ 312
Rousseau 312
Tournament 312
Universit@@ 312
antu 312
eval 312
idy 312
jpg 312
kid@@ 312
qi@@ 312
saxoph@@ 312
send 312
sona 312
sou 312
vies 312
wyn 312
å 312
İm@@ 312
668 311
Dot@@ 311
Echo 311
IEC 311
Sinclair 311
afor@@ 311
beau 311
dhar@@ 311
ejo 311
fak@@ 311
gau@@ 311
orie 311
rique 311
tent@@ 311
verl@@ 311
Æ@@ 311
î@@ 311
康@@ 311
1520 310
AAA 310
Arau@@ 310
Desmond 310
Genn@@ 310
MAX 310
Mayo 310
aid 310
ending 310
hn 310
involucr@@ 310
run@@ 310
θ 310
美@@ 310
정@@ 310
1598 309
482 309
484 309
546 309
Condé 309
Danzig 309
Hernández 309
Hogan 309
Hö@@ 309
Malay@@ 309
Skul@@ 309
Sonn@@ 309
ails 309
akana 309
anan 309
evit@@ 309
fra@@ 309
glaci@@ 309
kings 309
kus 309
opon@@ 309
tile 309
女@@ 309
1516 308
1655 308
642 308
901 308
Coleman 308
Drum@@ 308
Heid@@ 308
Saskatchewan 308
Tall@@ 308
Virtual 308
adows 308
afr@@ 308
dez 308
dini 308
hof@@ 308
iw@@ 308
mede 308
popul@@ 308
uyu 308
ête 308
ʼ@@ 308
古@@ 308
Arabia 307
Aziz 307
Bacon 307
Culture 307
División 307
Liam 307
Mannheim 307
Oly@@ 307
Pek@@ 307
Scha@@ 307
Shawn 307
Sier@@ 307
Tand@@ 307
acle 307
aniel 307
aries 307
australi@@ 307
ayn 307
endel@@ 307
escul@@ 307
kamp 307
mult@@ 307
plant 307
reh@@ 307
usan 307
vog@@ 307
ר@@ 307
地@@ 307
行@@ 307
都@@ 307
622 306
843 306
Abo@@ 306
Anatol@@ 306
Att@@ 306
EB@@ 306
Ell@@ 306
Geoff@@ 306
ITV 306
Nantes 306
Nordrhein 306
Orchestra 306
Pack 306
Pie 306
Terra 306
cian 306
ease 306
lain 306
mik@@ 306
nau 306
nou@@ 306
stu@@ 306
λ 306
185@@ 305
461 305
595 305
Alle@@ 305
Amir 305
Bains 305
Bist@@ 305
Christoph 305
Contr@@ 305
Cypr@@ 305
Evan 305
Fiat 305
Label 305
Oswald 305
Quer@@ 305
Script 305
Work 305
afi 305
ampe 305
auth@@ 305
eil 305
enzi 305
essen 305
irk 305
omen 305
parad@@ 305
stil@@ 305
strat@@ 305
trap 305
vad@@ 305
ト@@ 305
498 304
5.0 304
635 304
67,@@ 304
Agost@@ 304
Casino 304
Dar 304
Dragons 304
Gilles 304
Lens 304
OR 304
Rising 304
Soul@@ 304
Tenn@@ 304
Tram@@ 304
Travis 304
ability 304
aps 304
big 304
eja 304
enov@@ 304
hofen 304
isser 304
lair 304
mila 304
nim@@ 304
rad 304
singer 304
wes@@ 304
10,000 303
1697 303
437 303
448 303
976 303
ATA 303
Amor 303
Avignon 303
Bertrand 303
EE 303
Falken@@ 303
Fish@@ 303
Jerome 303
Loy@@ 303
Territ@@ 303
alto 303
anski 303
apolis 303
continental 303
dessus 303
disc@@ 303
double 303
fab@@ 303
kshire 303
leaf 303
lech@@ 303
ticidae 303
vali 303
vera 303
yel@@ 303
zil@@ 303
zis@@ 303
ル 303
年@@ 303
1659 302
1670 302
751 302
Chamb@@ 302
Chess 302
Hek@@ 302
Jade 302
MBA 302
Metr@@ 302
Mittel@@ 302
Moreno 302
Neal 302
Pharm@@ 302
Siemens 302
Ted@@ 302
Vati@@ 302
XT 302
ambar@@ 302
ayla 302
dys@@ 302
gorod 302
ives 302
leau 302
sed@@ 302
uch 302
usu 302
vist 302
ös@@ 302
160@@ 301
1658 301
715 301
Chiapas 301
Close 301
Elev@@ 301
Moritz 301
Pride 301
Rif@@ 301
Roses 301
Watt 301
akar@@ 301
anat 301
ayed 301
ledge 301
old@@ 301
project 301
pré@@ 301
sculp@@ 301
sis@@ 301
Çarş@@ 301
Çav@@ 301
än@@ 301
義@@ 301
1662 300
523 300
656 300
704 300
814 300
Champs 300
Faust 300
IR 300
Karl@@ 300
Kran@@ 300
Lokom@@ 300
Mathe@@ 300
Metro@@ 300
Nac@@ 300
Ricky 300
Trade 300
Trujillo 300
atte 300
icht 300
kum 300
lman 300
oza 300
soon 300
taw@@ 300
ural 300
原@@ 300
氏@@ 300
1610 299
641 299
Anti 299
Beaumont 299
Caz@@ 299
Doh@@ 299
Dover 299
KK 299
Klaus 299
Shanghai 299
Wa 299
Walton 299
duplic@@ 299
enco 299
kart 299
khali@@ 299
tek@@ 299
uman 299
1635 298
537 298
Barthol@@ 298
Greif@@ 298
HV@@ 298
Mama 298
Melissa 298
Never@@ 298
Tate 298
Taus@@ 298
Tril@@ 298
Yous@@ 298
agio 298
chet 298
dj@@ 298
fat@@ 298
following 298
gal 298
kane 298
lumin@@ 298
oho 298
ppe 298
udi 298
田@@ 298
801 297
Alternative 297
GE@@ 297
Horace 297
Kond@@ 297
Köpr@@ 297
Luc 297
Soon 297
Styles 297
Weiss 297
aliy@@ 297
bins 297
divers@@ 297
dır@@ 297
essel 297
etan 297
grande 297
göl 297
ign 297
ingle 297
itos 297
shin@@ 297
sth@@ 297
uw@@ 297
weight 297
zie 297
467 296
526 296
539 296
582 296
Ar 296
Challenger 296
Christophe 296
Dek@@ 296
Dion@@ 296
Fant@@ 296
Ign@@ 296
Niv@@ 296
Sand 296
Schle@@ 296
Sebastián 296
Zwe@@ 296
anal 296
back@@ 296
bett 296
sup@@ 296
swald 296
ueva 296
ẩ@@ 296
河@@ 296
Arlington 295
Circus 295
Confeder@@ 295
Corner 295
Deh@@ 295
EL 295
Fá@@ 295
Owens 295
Vos@@ 295
cade 295
division 295
eser 295
idor 295
inom@@ 295
white 295
öl 295
üc@@ 295
唐@@ 295
1690 294
1714 294
463 294
536 294
661 294
888 294
Alfredo 294
Bann@@ 294
Boca 294
Celebr@@ 294
Edith 294
Jiménez 294
Mara 294
Maus@@ 294
Pá@@ 294
Raphael 294
Split 294
XL@@ 294
Yuc@@ 294
bire@@ 294
etten 294
oire 294
pow@@ 294
sá@@ 294
uç 294
家@@ 294
1712 293
1752 293
634 293
652 293
815 293
Audio 293
Cont@@ 293
Dudley 293
Euro@@ 293
Hour 293
ICA@@ 293
NI@@ 293
agher 293
arlı 293
atana 293
eral 293
harmon@@ 293
list@@ 293
llen@@ 293
some 293
tari 293
vol 293
CB@@ 292
Oran@@ 292
Per 292
Philharmon@@ 292
Resort 292
Scout 292
antas@@ 292
austral@@ 292
azı 292
bergen 292
dipl@@ 292
eses 292
hand 292
math@@ 292
rain@@ 292
sik 292
tik@@ 292
typ@@ 292
無@@ 292
1713 291
725 291
Adventures 291
Alar@@ 291
Bernstein 291
Extreme 291
Inh@@ 291
Level 291
Program 291
Ulster 291
Valentin 291
Yav@@ 291
acete 291
bik 291
bung 291
canc@@ 291
inu 291
jum@@ 291
lat 291
mith 291
number 291
oniidae 291
sieb@@ 291
taro 291
1641 290
Bernardino 290
Claudio 290
Coh@@ 290
Dağ@@ 290
Düsseldorf 290
Fré@@ 290
Griffith 290
Grimm 290
ING 290
Lindsay 290
Marsh 290
Swiss 290
Tanganyika 290
Teen@@ 290
adal@@ 290
antas 290
blue 290
copa 290
enc 290
ishia 290
kala 290
mant@@ 290
meister 290
ples 290
ungi 290
ď@@ 290
懿@@ 290
1453 289
1540 289
1623 289
1722 289
Ash 289
Bot 289
Championnat 289
Dakar 289
Direction 289
Pau 289
Schubert 289
Score 289
Syracuse 289
TO 289
Techn@@ 289
Tré@@ 289
cker 289
elf 289
enheim 289
fed@@ 289
fit 289
kuy@@ 289
o. 289
ridge 289
tut@@ 289
ungo 289
üzel@@ 289
羅@@ 289
1285 288
Antar@@ 288
Borough 288
Chronicle 288
Cristina 288
Farr@@ 288
Gusta@@ 288
Jacqueline 288
MB@@ 288
Titus 288
UF@@ 288
Vittorio 288
Yıldız@@ 288
aer 288
distr@@ 288
fair@@ 288
fom@@ 288
grave 288
page 288
rez 288
sour@@ 288
ues 288
1729 287
434 287
Anni@@ 287
Byrne 287
D2 287
Lights 287
Manager 287
Mystery 287
Sonora 287
Tal 287
eha 287
sub 287
624 286
775 286
Bernhard 286
Beş@@ 286
Chance 286
Frost 286
Klein@@ 286
Lí@@ 286
Marty 286
Mei 286
Soviet 286
VV@@ 286
Wies@@ 286
accio 286
agle 286
aliwa 286
bing 286
brev@@ 286
bs@@ 286
cann@@ 286
cobr@@ 286
effer 286
eze 286
ilip@@ 286
kru@@ 286
lave 286
saf@@ 286
smith 286
十@@ 286
1629 285
1638 285
1737 285
685 285
ABS 285
Boliv@@ 285
Car 285
Clim@@ 285
Dup@@ 285
Eli 285
File 285
Gonz@@ 285
Kocaeli 285
Kreuz@@ 285
Lux@@ 285
Manc@@ 285
Partners 285
Rise 285
Ronal@@ 285
Schn@@ 285
Tug@@ 285
Vida 285
alam 285
cine 285
foc@@ 285
four@@ 285
iliz@@ 285
reit@@ 285
serie 285
ə 285
ま@@ 285
（ 285
1703 284
2600 284
BE@@ 284
Class@@ 284
Cristóbal 284
Dill@@ 284
Emilio 284
Rudolph 284
Sour@@ 284
VS 284
alil@@ 284
awa@@ 284
baba 284
ceros 284
esto 284
mab@@ 284
miz@@ 284
oner 284
pass@@ 284
pse 284
week 284
À@@ 284
鄭@@ 284
1704 283
1725 283
2nd 283
614 283
975 283
ACE 283
Easy 283
Gerhard 283
HI 283
Magdeburg 283
Ruf@@ 283
Suff@@ 283
Teh@@ 283
Thailand 283
Vib@@ 283
aska 283
assis 283
chac@@ 283
inca 283
lyn 283
omu 283
ré 283
sequ@@ 283
zor 283
Édouard 283
šić 283
ε 283
朝@@ 283
1580 282
1667 282
6.5 282
638 282
Adol@@ 282
Arsen@@ 282
Finals 282
Freddie 282
Hammer 282
IA@@ 282
Im 282
Kumar 282
Nuevo 282
Oğ@@ 282
Reich 282
Underground 282
acter 282
amarca 282
arda 282
ember@@ 282
fig@@ 282
games 282
gru@@ 282
opi 282
taya 282
tenay 282
wam@@ 282
Ör@@ 282
ん@@ 282
嬪 282
莊@@ 282
Bride 281
Dora 281
Fort@@ 281
Giacomo 281
Nora 281
Ná@@ 281
Panzer@@ 281
Pauline 281
Rennes 281
Sutton 281
Tov@@ 281
bow 281
chie 281
chine 281
door 281
lact@@ 281
mira 281
oğ@@ 281
paras@@ 281
pm 281
ternal 281
while 281
yot@@ 281
と@@ 281
生@@ 281
Clermont 280
Cé@@ 280
FE 280
GL@@ 280
HL 280
Itali@@ 280
Meiji 280
Oak@@ 280
Ott@@ 280
Pretoria 280
Rodney 280
Vie 280
aq@@ 280
asure 280
bail@@ 280
death 280
dit@@ 280
erb@@ 280
izo 280
late 280
miles 280
mut 280
ocolate 280
pounds 280
rej@@ 280
на 280
1530 279
1536 279
2,5@@ 279
Arri@@ 279
Comte 279
Goldberg 279
Hulk 279
Indies 279
Lahore 279
Molly 279
Moss 279
Stories 279
acs 279
alay 279
asons 279
cin 279
franc@@ 279
hab 279
hud@@ 279
ician 279
meme 279
ocl@@ 279
persp@@ 279
rand@@ 279
schen@@ 279
sfeld 279
Üç@@ 279
ḥ@@ 279
宋@@ 279
道 279
1.3 278
1646 278
1649 278
1751 278
184@@ 278
655 278
AMC 278
Comedy 278
Disco@@ 278
Exper@@ 278
Francia 278
Inv@@ 278
Llan@@ 278
MM@@ 278
Mongol@@ 278
SPD 278
Word@@ 278
aff 278
lender 278
pack@@ 278
plu@@ 278
regi@@ 278
rise 278
uten 278
） 278
1250 277
1533 277
474 277
996 277
Clare 277
Harald 277
Rund@@ 277
Salvat@@ 277
asar 277
athe@@ 277
avirus 277
entius 277
kio 277
lander 277
mez@@ 277
oyo 277
sell 277
sher@@ 277
student 277
wed@@ 277
ữ@@ 277
忠@@ 277
07@@ 276
553 276
Atle@@ 276
Cheshire 276
Damon 276
Dand@@ 276
Disc 276
Duk@@ 276
Farm 276
Isab@@ 276
Kais@@ 276
Siena 276
Thierry 276
Trem@@ 276
Vander@@ 276
bauer 276
bell 276
bound 276
eclip@@ 276
esn@@ 276
gres@@ 276
ldwide 276
open 276
raz@@ 276
ss@@ 276
uru@@ 276
vine 276
áng@@ 276
ıc@@ 276
1685 275
587 275
Bing 275
Brut@@ 275
Hammond 275
Hist@@ 275
Kramer 275
Montre@@ 275
Schwein@@ 275
Spike 275
bomb@@ 275
dington 275
hid 275
hr 275
ischer 275
rá@@ 275
sak 275
salv@@ 275
service 275
殿 275
真@@ 275
1718 274
BF 274
Blat@@ 274
Brother 274
Chamber 274
Circuit 274
Kund@@ 274
Medicine 274
PRO@@ 274
amba@@ 274
copy 274
hak 274
ileri 274
itu@@ 274
lol@@ 274
proph@@ 274
か@@ 274
龍@@ 274
128@@ 273
140@@ 273
629 273
ACT 273
Alpine 273
Bogotá 273
Chevrol@@ 273
DN@@ 273
FP@@ 273
Jul@@ 273
Loth@@ 273
Marin 273
NY 273
Organization 273
Park@@ 273
Prado 273
Range 273
Rue 273
Trom@@ 273
akis 273
champ@@ 273
cılar 273
erian 273
kre@@ 273
mw@@ 273
Ș@@ 273
穆@@ 273
1572 272
Atlantis 272
Bev@@ 272
Françoise 272
Goes 272
Graf@@ 272
Hans@@ 272
Indianapolis 272
Kaj@@ 272
Lange 272
PCI 272
Stevenson 272
Vidal 272
facto 272
gus@@ 272
uji 272
1560 271
1625 271
1727 271
1733 271
Blin@@ 271
Chihuahua 271
Dos@@ 271
Industry 271
MG@@ 271
Prinz 271
ağan 271
dres@@ 271
flower 271
hai@@ 271
lanc@@ 271
located 271
pour 271
priv@@ 271
tend@@ 271
tortu@@ 271
tropical 271
trus@@ 271
ジ@@ 271
2,000 270
Benny 270
DNS 270
GL 270
Libertadores 270
Natalia 270
Ort@@ 270
Rostock 270
dol 270
gaz@@ 270
hé@@ 270
integr@@ 270
jas 270
mith@@ 270
ombo 270
park@@ 270
riche 270
umu 270
夫人 270
100,000 269
3- 269
985 269
Broken 269
Didier 269
Econom@@ 269
Germany 269
Isla 269
Jew@@ 269
Rhythm 269
SQ@@ 269
Sala 269
abei 269
adh@@ 269
asin 269
bina 269
catal@@ 269
endida 269
hiwa 269
ield 269
leur 269
lop 269
nac 269
sche@@ 269
tional 269
önü 269
1654 268
609 268
Aber@@ 268
Bem@@ 268
Bj@@ 268
Casas 268
David@@ 268
Dirty 268
Docum@@ 268
Doom 268
Jäger 268
Mathias 268
Oro 268
Otom@@ 268
Private 268
Step 268
Strom@@ 268
Tomorrow 268
adora 268
bois 268
committee 268
concept 268
ded 268
ebook 268
gris 268
jon 268
kend@@ 268
root 268
stop 268
topl@@ 268
uco 268
Arroyo 267
Civil 267
Infer@@ 267
Koblenz 267
Lance 267
Once 267
Publi@@ 267
Royale 267
YO@@ 267
Yoh@@ 267
ange@@ 267
falz 267
kam 267
nd 267
oto@@ 267
roe 267
stes 267
teres 267
徐@@ 267
1350 266
1593 266
1656 266
1679 266
1732 266
Corps 266
GG 266
Guild 266
Lives 266
Uk@@ 266
Urban@@ 266
Zhao 266
aal 266
aign 266
interfer@@ 266
isher 266
izo@@ 266
lead 266
luk@@ 266
rut@@ 266
zig 266
А@@ 266
1710 265
603 265
Dijon 265
Farm@@ 265
Jaguar 265
Keller 265
Maw@@ 265
Mönchenglad@@ 265
Pré@@ 265
RN 265
Ramón 265
Soto 265
clin@@ 265
hous@@ 265
ighton 265
liche 265
mula 265
né@@ 265
onso 265
player 265
pris@@ 265
unes 265
yü@@ 265
ク@@ 265
125@@ 264
1460 264
1602 264
Arabic 264
Arro@@ 264
Biel@@ 264
Ferry 264
Rae 264
STS 264
alum@@ 264
arri@@ 264
axi@@ 264
best 264
chao 264
euil 264
evin 264
iş 264
mam 264
meng@@ 264
oran@@ 264
smann 264
toon 264
ω 264
方@@ 264
明 264
717 263
718 263
CBC 263
Grund@@ 263
Guthrie 263
Heil@@ 263
Keep 263
Kreis 263
Pius 263
Pla@@ 263
Sister 263
Spin 263
Terminal 263
Volkswagen 263
bez@@ 263
fit@@ 263
idar@@ 263
plar 263
shop 263
talk 263
ür 263
β@@ 263
ּ@@ 263
ל@@ 263
1490 262
1739 262
5.5 262
914 262
Amazonas 262
Apar@@ 262
Braunschweig 262
Cach@@ 262
Deportivo 262
Emperor 262
Gérard 262
Hammer@@ 262
IST 262
Leiden 262
Niño 262
PBS 262
Scher@@ 262
See@@ 262
WH@@ 262
alcohol 262
aling 262
dura 262
engu@@ 262
fah 262
former 262
jia 262
lak 262
loway 262
mark@@ 262
ments 262
national 262
orbital 262
ougou 262
pour@@ 262
spur@@ 262
ungs@@ 262
çe 262
ènes 262
1702 261
1708 261
Abd@@ 261
Geographic 261
Maf@@ 261
Patri@@ 261
Sign@@ 261
Thriller 261
amac@@ 261
artic@@ 261
dans 261
eş@@ 261
iras 261
otiv 261
schwe@@ 261
sole 261
tore 261
trans 261
value 261
çon 261
ος 261
ה@@ 261
1180 260
1450 260
1657 260
59.@@ 260
845 260
Active 260
Augustin 260
Booth 260
Bré@@ 260
Comple@@ 260
Ella 260
Freiburg 260
Impact 260
Mahon 260
Tank 260
Worcester 260
acqu@@ 260
aos 260
between 260
boul@@ 260
dw@@ 260
fib@@ 260
motion 260
polo 260
unit 260
util@@ 260
vida 260
ṃ@@ 260
1470 259
1682 259
1743 259
Antoni 259
Eind@@ 259
Gallery 259
Jeh@@ 259
L2 259
RR 259
Rapid 259
Salz@@ 259
Stephan 259
Zir@@ 259
audio 259
euch@@ 259
fortun@@ 259
gard 259
kok@@ 259
lowers 259
oyn@@ 259
pron@@ 259
ɔ@@ 259
帝@@ 259
1260 258
[...]
