, 4589530
. 4089520
του 2820321
και 2709934
της 2012135
το 1922065
&quot; 1466922
την 1365039
από 1249766
με 1121862
ο 1029494
η 988315
) 949684
( 945028
να 910646
τον 858399
που 785153
των 768517
στην 719828
σε 713976
για 695359
στο 682626
τη 614771
είναι 594120
τα 591591
Η 515717
οι 499866
τους 492298
Το 462653
Ο 447256
@-@ 442241
ήταν 397239
στη 375401
ως 355518
ή 343961
τις 333910
: 296761
στις 269833
ένα 264117
ότι 238900
μια 233840
στον 231927
« 218447
» 217092
στα 215797
ών 214545
δεν 198521
Οι 186392
ικό 186058
ική 179469
Σ@@ 178231
ος 178009
΄ 173941
ου 172571
ων 167876
είχε 163340
ία 157671
κατά 154614
έχει 153757
αν@@ 152674
ες 152011
ό 151740
σ@@ 146818
αλλά 145965
ής 145146
ους 144784
ά 140988
ενώ 136856
ίας 136421
α 134912
ικής 134119
οποία 132932
ός 129920
ές 129899
θα 129773
τ@@ 129396
ικά 128738
Κ@@ 128715
χ@@ 128508
όπως 128375
δύο 127389
ι@@ 127335
&apos; 126918
εν@@ 126059
προ@@ 125182
φ@@ 124709
β@@ 124141
- 123278
Π@@ 122716
ο@@ 122021
ικού 121960
Τ@@ 120939
ν@@ 116854
ι 116471
μετά 114944
ης 113593
ικές 113497
π@@ 113153
Μ@@ 111447
απο@@ 110758
αν 110652
επίσης 108578
Ν@@ 108358
μ@@ 107845
Α@@ 107373
γ@@ 107164
δ@@ 105567
όπου 105249
Β@@ 104948
ικών 104852
α@@ 103471
/ 103096
ού 102123
όταν 100228
δι@@ 100223
εκ@@ 99284
Τα 98834
τ 97862
ας 97508
ά@@ 97039
Λ@@ 96844
κ@@ 96443
μία 96358
Ρ@@ 94646
ί@@ 94454
ου@@ 92995
καθώς 92708
υπο@@ 91540
οποίο 91206
ε@@ 90855
ό@@ 90841
Φ@@ 90258
στ@@ 88280
εξ@@ 88241
ζ@@ 87945
ρι@@ 87178
θ@@ 86858
Α 86175
στους 86135
έ@@ 85561
μέχρι 84367
γκ@@ 84336
μεταξύ 83846
μπ@@ 83678
ε 83353
αρ@@ 83324
Χ@@ 83316
λ@@ 82673
αυτό 80479
απ@@ 80162
αντι@@ 79901
ω@@ 79899
έγινε 79536
ιν@@ 78916
χρόνια 78797
έχουν 78737
συν@@ 78660
2 78509
ίου 77800
κατα@@ 77419
ρ@@ 77357
ς 77061
πρώτη 76314
τι@@ 76252
Δ@@ 76058
προς 75881
ακ@@ 75737
Μπ@@ 74992
ύ@@ 74844
πιο 74705
ούς 74117
Β 74006
Ε@@ 73856
Ο@@ 73713
ικ@@ 73276
λι@@ 72980
ρο@@ 72882
1 72856
Στις 72715
επι@@ 72609
; 71912
κα@@ 71385
η@@ 71380
υ@@ 71234
ει 71228
παρ@@ 71160
τική 70918
άν@@ 70723
περιοχή 70631
ν 70580
πόλη 70479
ισ@@ 70102
ού@@ 69973
ον@@ 69947
τσ@@ 69912
μπορεί 69834
Ι@@ 69710
ερ@@ 69404
θέση 69378
ια 69138
ουν 69104
μα 69073
αυτή 68949
ομάδα 67183
ικός 67161
επ@@ 66950
ανα@@ 66570
έν@@ 66407
ένας 66252
διάρκεια 65588
οί 65463
τα@@ 65402
ί 65373
ή@@ 65134
αλ@@ 64656
αιώνα 64316
κ 63969
Γ@@ 63032
3 62056
ίες 61916
ευ@@ 61630
αγ@@ 61330
οποίος 61287
Από 60696
το@@ 60474
ση 60161
τικό 59869
είχαν 59867
σης 59730
&amp; 59007
ρα@@ 58662
Στην 57737
εία 57577
% 57174
ορ@@ 56887
έναν 56850
– 56709
Ζ@@ 56618
σι@@ 56598
ενός 56408
τος 56315
λ 56309
ρ 56270
ατ@@ 56157
περίοδο 56113
μέρος 55643
μόνο 55402
ασ@@ 55251
σκ@@ 54900
πολύ 54792
βι@@ 54332
ομ@@ 54271
άρ@@ 54046
μαζί 53989
ώ@@ 53898
Μετά 53880
σαν 53602
έως 53514
τά@@ 53362
Με 52943
ρί@@ 52696
4 52431
τες 52317
Γκ@@ 52010
ει@@ 51899
περι@@ 51853
τικά 51170
περίπου 50924
βρίσκεται 50765
προσ@@ 50510
μ 50463
όμως 50434
θε@@ 50397
ολ@@ 50207
ησε 50113
ήθηκε 50008
ιο 48970
ίων 48826
ον 48479
μετα@@ 48469
ξ@@ 47996
φορά 47915
αφ@@ 47804
αι@@ 47680
Ά@@ 47654
όνομα 47310
αργότερα 47169
ίν@@ 47024
Στο 47014
τότε 46858
πλ@@ 46839
θεί 46602
τρ@@ 46544
κάθε 46398
Κατά 46261
υπ@@ 46102
δια@@ 46079
κλ@@ 46062
μέσα 45206
Αν@@ 45075
μένη 44941
ελ@@ 44873
εται 44636
ερ 44393
όν@@ 44375
&#93; 44168
ήσει 44129
να@@ 44019
Τζ@@ 43882
ρά@@ 43796
5 43685
ούν 43594
έ 43585
&#91; 43581
πι@@ 43384
εν 43216
άς 43139
ονται 43121
Τον 42999
Είναι 42991
ίδια 42773
Σε 42720
ψ@@ 42695
πρώτο 42545
ρα 42376
λε@@ 42366
τικές 42031
οπ@@ 41970
λόγω 41870
πως 41657
ικούς 41344
πριν 41130
υπό 40854
ταινία 40792
ώντας 40715
κυρίως 40709
ηση 40693
Τσ@@ 40562
Την 40328
κο@@ 40272
Θ@@ 40260
μη 40160
ρος 40137
ότητα 40067
τη@@ 40008
τικής 40000
συνέχεια 39890
είο 39874
ισμό 39727
γι@@ 39678
τού 39364
σειρά 39023
μον@@ 38999
άλ@@ 38870
μι@@ 38837
εγ@@ 38746
Για 38565
Έ@@ 38494
αμ@@ 38459
πάνω 38375
ίσ@@ 38231
όρ@@ 38144
έργο 37768
φορές 37477
τζ@@ 37459
τικών 37438
10 37379
λα@@ 37333
είς 37264
εί@@ 37257
υλ@@ 37208
6 37194
Δι@@ 37164
εισ@@ 37128
οδ@@ 36946
ετών 36889
Ελλάδα 36776
είας 36506
Στη 36319
έρ@@ 36148
2011 36074
όν 36052
χωριό 35736
Ήταν 35703
Προ@@ 35463
ωση 35362
ισμού 35268
μένο 35230
.@@ 35221
ήσεις 35182
σήμερα 35175
ρου 35169
έκ@@ 35135
π 35118
μάτων 35090
Παρ@@ 35046
εί 35041
ρε@@ 35039
χωρίς 34800
ίδα 34223
θηκαν 33993
τε@@ 33979
μέ@@ 33873
άν 33830
Γι@@ 33755
αυτά 33584
μιας 33557
τι 33462
οσ@@ 33173
έλ@@ 33157
Γ 33098
μα@@ 33090
ίδιο 32993
καλ@@ 32875
κά@@ 32811
σύμφωνα 32641
πο@@ 32619
Επίσης 32512
μέσω 32471
Σύμφωνα 32317
μεγάλη 32315
αποτέλεσμα 32203
ούσε 32118
ιών 32111
ιά 32090
ώθηκε 31891
όλα 31873
τικού 31864
τών 31850
μέλος 31827
πόλης 31744
εποχή 31665
άγ@@ 31625
_ 31621
έλαβε 31584
ομάδες 31513
ιστορία 31470
ήσουν 31465
μά@@ 31459
έτσι 31413
ιλ@@ 31389
8 31265
πολλές 31248
τμήμα 31186
οκ@@ 31130
εύ@@ 31015
ρο 30980
7 30978
άκ@@ 30917
είται 30845
εκλογές 30803
ογ@@ 30802
ήματα 30750
στοιχεία 30743
φ 30714
ικοί 30669
ματος 30623
Καρ@@ 30445
τερ@@ 30382
ματα 30319
έκανε 30252
τρεις 30134
12 30132
άλλα 30079
Συν@@ 30053
ισμός 30031
αρχές 29943
π.Χ. 29869
είου 29839
αναφέρεται 29811
Μαρ@@ 29789
Γου@@ 29746
ησης 29673
Ου@@ 29582
τέλος 29545
άσ@@ 29473
τρι@@ 29449
20 29441
οφ@@ 29363
χώρα 29296
ησαν 29266
αρχ@@ 29141
Ωστόσο 29082
επί 29071
φορ@@ 28990
= 28946
κοντά 28920
αποτελεί 28757
Αρ@@ 28743
ων@@ 28738
τίτλο 28685
πολλά 28615
αστ@@ 28601
κι 28455
τόσο 28442
οντας 28439
ώσει 28411
Η@@ 28409
εφ@@ 28407
καν@@ 28391
δε@@ 28319
άλλες 28223
σπ@@ 28184
ηλικία 28083
έδρα 28077
μερ@@ 28074
καθ@@ 28025
ξεκίνησε 27962
ειας 27959
γιος 27946
μένα 27886
ήθηκαν 27868
του@@ 27813
οβ@@ 27727
ω 27722
όσο 27665
The 27563
τά 27562
ιστ@@ 27409
ζωή 27384
υπάρχει 27375
νε@@ 27235
αβ@@ 27191
15 27055
εκ 27031
τού@@ 26958
πρωτάθλημα 26901
ρού@@ 26876
κόρη 26796
τέ@@ 26785
μεγάλο 26755
2010 26711
οχ@@ 26703
κατοίκους 26668
Αλ@@ 26560
ώστε 26532
έργα 26522
ϊ@@ 26464
χρήση 26425
πέ@@ 26351
υ 26192
χω@@ 26192
μέλη 26188
Ιουλίου 26156
σσ@@ 26122
Αυγούστου 26075
Ό@@ 25831
όλ@@ 25805
όπ@@ 25800
9 25768
of 25657
υρ@@ 25640
Μαρτίου 25622
ηθεί 25612
πρό@@ 25605
Εθνική 25603
χρόνο 25603
όσ@@ 25577
αντ@@ 25510
αυτές 25426
οποι@@ 25394
τή 25359
με@@ 25341
αφού 25329
υπάρχουν 25278
Σεπτεμβρίου 25203
Οκτωβρίου 25147
βάση 25141
εκτός 25058
σει 25042
ακόμη 25028
περ@@ 25027
ντ 24991
formula 24962
’ 24904
Ιουνίου 24864
λογ@@ 24854
ίζει 24836
Στα 24825
φιλ@@ 24823
οποίες 24812
Μαΐου 24788
τικός 24780
γύρω 24753
περιοχές 24658
Όταν 24636
θηκε 24627
κιν@@ 24615
Ιανουαρίου 24608
όμ@@ 24583
σύστημα 24488
τον@@ 24441
υγ@@ 24410
γκ 24398
δεύτερη 24375
λλ@@ 24325
πρέπει 24305
16 24213
ξη 24212
ωσε 24193
συχνά 24140
Απριλίου 24132
ακόμα 24117
σεζόν 24108
ζ 24102
τας 24000
11 23975
ομάδας 23971
ολογία 23898
ώνει 23860
ότητας 23783
κυβέρνηση 23773
ούν@@ 23745
σχ@@ 23711
μορφή 23687
αδ@@ 23678
αρχικά 23646
Υ@@ 23643
Αυτό 23641
Αγίου 23628
ουλ@@ 23615
έφ@@ 23586
νέα 23557
ημ@@ 23554
όρος 23553
14 23544
ηλ@@ 23540
παν@@ 23523
Νοεμβρίου 23505
θέ@@ 23468
τελευταία 23460
αυ@@ 23448
αί@@ 23377
εκεί 23361
σα 23347
Δ 23342
Ιστορία 23314
ντε 23227
30 23206
αχ@@ 23184
ρέ@@ 23165
τί@@ 23147
ιν 23088
ημα 23083
κυ@@ 23053
Αθήνα 23016
εναντίον 23008
18 22990
ονομασία 22981
μυ@@ 22971
όλη 22971
είτε 22939
τεχν@@ 22936
β 22932
εμ@@ 22931
πρώην 22900
τελ@@ 22875
γεν@@ 22870
2012 22855
ουν@@ 22854
καρ@@ 22844
ιμ@@ 22777
κοινότητα 22748
ξης 22719
έα 22715
ετ@@ 22705
μο 22690
έπ@@ 22649
αγώνες 22593
μένος 22573
όχι 22565
ματ@@ 22523
τελικά 22520
Ανα@@ 22513
σχετικά 22506
αλλ@@ 22437
βλ@@ 22406
σεις 22401
ην@@ 22396
13 22389
γλώσσα 22365
ώς 22359
Έχει 22317
δηλαδή 22298
ότ@@ 22273
υσ@@ 22253
συνήθως 22238
κέντρο 22222
πρ@@ 22220
Δεκεμβρίου 22191
πήρε 22153
Κα@@ 22106
ηγ@@ 22102
2009 22051
βασιλιά 22044
ταν@@ 22039
βά@@ 22026
εργ@@ 21973
gt 21947
2008 21901
εσ@@ 21856
ρόλο 21851
τής 21783
θη@@ 21745
ωσης 21744
ριν@@ 21739
2014 21707
ώσεις 21706
17 21683
10@@ 21650
πρώτος 21642
μπορούν 21638
υπερ@@ 21617
σία 21614
ώνεται 21537
μέτρα 21533
εια 21514
ουσ@@ 21507
Εν@@ 21480
μεν@@ 21480
πλέον 21480
μαν@@ 21422
lt 21336
Φεβρουαρίου 21335
κατηγορία 21334
άλλη 21276
2015 21272
άλλων 21259
ίστηκε 21223
κα 21218
ίνα 21194
2013 21145
μεγαλύτερο 21066
Απο@@ 21036
λί@@ 21020
γεννήθηκε 21019
θούν 20979
Ευ@@ 20970
8@@ 20930
τέλη 20922
Βιογραφία 20915
άλμπουμ 20885
ελ 20878
ποι@@ 20784
αγώνα 20779
κτ@@ 20749
γραφ@@ 20744
ίσει 20732
Μά@@ 20731
δυ@@ 20697
γίνει 20692
25 20667
τς 20647
χαρ@@ 20628
Αγ@@ 20617
Ε 20590
άσει 20577
άρχισε 20565
ανάμεσα 20517
συ@@ 20514
κυκλοφόρησε 20504
ίλ@@ 20488
γεγονός 20472
τυ@@ 20452
κάτω 20419
παιδιά 20404
Ως 20403
έτος 20394
Με@@ 20391
Πανεπιστήμιο 20385
de 20371
2007 20336
λά@@ 20304
κέρδισε 20259
μεγαλύτερη 20254
μένες 20234
ούνται 20189
πρώτα 20163
Αν 20156
επαν@@ 20123
Άν@@ 20089
Κά@@ 20089
πά@@ 20086
2016 20079
μου 20060
δεύτερο 20046
πολιτική 20028
ΗΠΑ 20022
χώρας 20008
γνωστή 19988
χρονιά 19968
τρία 19963
ιερ@@ 19948
ώ 19913
σίας 19906
ίκ@@ 19878
σχεδόν 19868
19 19852
δεκαετία 19842
αξι@@ 19796
όκ@@ 19731
υπήρξε 19672
είων 19665
Ελλάδας 19649
όλες 19591
πα@@ 19586
γνωστό 19585
ρω@@ 19538
στο@@ 19533
υν@@ 19525
άζει 19523
σχέση 19523
ιδιαίτερα 19508
Κου@@ 19476
ριο 19474
στα@@ 19449
0 19436
χώρες 19428
ήματος 19408
περιοχής 19404
Έτσι 19401
2006 19390
άστηκε 19376
μπο@@ 19327
πέντε 19311
επειδή 19305
όγ@@ 19232
ανακ@@ 19169
μο@@ 19086
ασκ@@ 19074
εις 19071
ιδ@@ 19057
οποίοι 19050
the 19038
-@@ 19026
αζ@@ 19017
9@@ 19010
νομ@@ 18988
ότερα 18973
ειδ@@ 18909
ούσαν 18891
περισσότερο 18845
αθ@@ 18807
άμ@@ 18733
θάνατο 18719
21 18706
υφ@@ 18652
βαρ@@ 18645
συμμετείχε 18642
ορι@@ 18621
κόσμο 18613
οικ@@ 18596
τικ@@ 18588
οι@@ 18575
λη@@ 18574
ίδιος 18560
τρόπο 18557
οργαν@@ 18553
ωθεί 18553
2019 18538
s 18509
Ευρώπη 18509
μάχη 18488
παραγωγή 18488
γίνεται 18471
παρα@@ 18464
νο@@ 18445
Ντ@@ 18442
ονταν 18436
ρυ@@ 18432
κάνει 18416
στική 18380
πληθυσμό 18367
Καλ@@ 18356
εδ@@ 18346
ίνη 18331
όλο 18289
Κλ@@ 18249
όφ@@ 18245
εκείνη 18237
ωστόσο 18205
ιάς 18202
κατάσταση 18195
στι@@ 18175
έδωσε 18171
μας 18171
πολ@@ 18122
απογραφή 18103
άφ@@ 18058
ρίου 18028
πατέρα 17962
πε@@ 17921
2017 17903
χρησιμοποιείται 17885
ύν@@ 17875
ρού 17861
χ 17835
ίζεται 17768
νέο 17760
όλων 17749
πρόεδρος 17748
2018 17733
Βι@@ 17726
Κορ@@ 17686
παράδειγμα 17684
ύ 17660
αρκετά 17653
Μα@@ 17626
άτομα 17600
ανά 17600
πέθανε 17594
οικογένεια 17575
Αθηνών 17550
τούν 17549
κρατ@@ 17540
χιλιόμετρα 17534
ψηφ@@ 17529
Γαλλία 17527
Μια 17510
ιζ@@ 17502
συμβ@@ 17500
διά@@ 17484
2004 17451
Λου@@ 17445
θεωρείται 17434
22 17422
Μπο@@ 17406
κας 17381
Ένα 17361
βόρεια 17360
θρ@@ 17321
τές 17318
ιδρύθηκε 17304
24 17302
ιος 17297
τε 17288
2000 17276
πολυ@@ 17261
αριθμός 17244
ωρ@@ 17232
Παν@@ 17207
Πρωτάθλημα 17203
αυτο@@ 17172
έβ@@ 17168
νότια 17156
δυνάμεις 17151
ονομ@@ 17147
ζωής 17083
δρ@@ 17065
πατέρας 17065
ρίας 17053
σμ@@ 17043
επιτυχία 17017
νι@@ 17016
οικισμός 16957
εβ@@ 16943
δυο 16937
βρίσκονται 16911
ίζουν 16880
όμενη 16875
κατά@@ 16861
περιλαμβάνει 16829
λο 16815
συνεχ@@ 16785
νη 16775
έσ@@ 16751
τραγούδι 16748
ητές 16734
ις 16715
χρ@@ 16708
παρά 16697
ίδες 16691
Θε@@ 16679
ότητες 16653
αυτός 16649
ήδη 16578
2005 16551
βασ@@ 16550
επί@@ 16534
πόλεις 16528
χώρο 16508
ρία 16467
ματική 16457
τερ 16447
τό 16435
ελληνική 16433
διάστημα 16417
ών@@ 16408
κου@@ 16366
Σου@@ 16346
ουρ@@ 16327
23 16317
ώρα 16306
έγιναν 16292
περί@@ 16285
αμπ@@ 16262
δο@@ 16245
βαθμ@@ 16242
μουσική 16241
κολ@@ 16229
διατ@@ 16221
Γεννήθηκε 16219
μήκος 16205
βα 16198
κατέ@@ 16197
κατ@@ 16184
δε 16153
τρο@@ 16145
ταλ@@ 16095
S@@ 16079
13@@ 16072
διασ@@ 16055
ιστική 16055
κι@@ 16046
σημείο 16043
αυτού 16034
άρι 16031
βί@@ 16028
αυτών 16012
γνωστός 15992
ότερη 15987
βασιλιάς 15982
amp 15971
Μπρ@@ 15957
εμπ@@ 15945
&#124; 15932
ανάπτυξη 15932
κύ@@ 15914
ανέλαβε 15909
όρο 15883
θέσεις 15881
ώθηκαν 15867
όβ@@ 15861
πίσω 15836
ελλ@@ 15815
ανά@@ 15801
Μον@@ 15776
7@@ 15771
12@@ 15767
έχ@@ 15756
μένων 15741
2001 15726
λέ@@ 15712
Στον 15687
ντ@@ 15627
άλλους 15586
οποίων 15559
αυτόν 15557
περιόδου 15556
κάποια 15554
Απ@@ 15526
Αυτή 15516
εκατομμύρια 15509
ότερο 15508
μηχαν@@ 15502
ρου@@ 15491
C 15474
ιού 15471
εποχής 15469
αγι@@ 15442
έκδοση 15433
ναυ@@ 15429
μεσ@@ 15411
ρό@@ 15405
άλλο 15385
Γερμανία 15365
εντός 15357
ολογ@@ 15355
αυτής 15342
ήσεων 15341
Ί@@ 15322
δη 15320
είδος 15294
ητή 15280
ήγ@@ 15272
αρχαι@@ 15272
επίπεδο 15259
ρά 15257
μπορούσε 15249
26 15245
όπουλος 15244
Περ@@ 15243
28 15216
φθ@@ 15209
διάφορες 15205
κάτι 15186
ικα 15179
όνομά 15177
Αντι@@ 15175
ενεργ@@ 15131
σω@@ 15112
κατασκευ@@ 15097
πλευρά 15096
διακ@@ 15078
κορ@@ 15078
ξι@@ 15073
επέστρεψε 15029
μαρ@@ 15028
πόλεμο 15024
άζ@@ 15014
Δεν 15002
Νέα 14999
ίδας 14998
είδη 14981
ογραφία 14978
άδα 14972
ούρ@@ 14957
νησί 14950
αριθμό 14947
δεκαετίας 14923
τρα 14916
Έλληνας 14914
μαχ@@ 14894
έχοντας 14891
ουμε 14869
εξής 14863
M@@ 14862
εταιρεία 14857
· 14856
μητέρα 14853
P@@ 14837
σημ@@ 14803
αναφέρει 14801
100 14799
Γαλλίας 14772
πολέμου 14768
τικούς 14768
συμμετοχή 14763
Παγκόσμιο 14759
βρισκόταν 14740
περισσότερα 14729
μόλις 14717
θ 14709
άβ@@ 14708
Νε@@ 14697
νης 14691
ρον@@ 14687
Μαρία 14665
αία 14660
στικό 14626
ητής 14602
εγκ@@ 14586
έγραψε 14581
Άλ@@ 14578
χορ@@ 14575
ιρ@@ 14564
φυ@@ 14555
χαρακτηριστικά 14554
κάτοικοι 14550
οτ@@ 14548
Ένωση 14544
τρί@@ 14542
Κατ@@ 14541
ΐ@@ 14527
ονομάζεται 14518
σφ@@ 14518
ίνο 14516
ξ 14513
αϊ@@ 14479
ίστηκαν 14475
τικοί 14458
δικα@@ 14453
λίγο 14452
μένοι 14417
ιστεί 14414
ητ@@ 14409
μαν 14395
Σι@@ 14379
σή 14371
σχε@@ 14361
έρα 14339
κατασκευή 14338
χλμ. 14336
δημιουργία 14324
1990 14322
καριέρα 14321
ποτέ 14320
τιμ@@ 14319
ίο 14311
κρι@@ 14306
οδηγ@@ 14300
σον 14300
Κύπελλο 14292
όμενο 14285
μήνες 14276
δος 14274
C@@ 14268
τοπ@@ 14258
έγ@@ 14253
Επι@@ 14250
μφ@@ 14249
έξι 14243
τελικό 14239
μελ@@ 14217
! 14191
βιβλίο 14191
σεων 14191
αντί@@ 14186
μβ@@ 14171
επόμενη 14170
άρα 14156
27 14151
όχ@@ 14144
ανήκει 14139
Βαλ@@ 14138
Επ@@ 14133
6@@ 14118
T@@ 14114
παρέμεινε 14098
μει@@ 14092
έν 14083
Ιταλία 14079
2002 14057
όνα 14045
σημαίνει 14040
χωριού 14037
μόν@@ 14027
τολ@@ 14018
ροφ@@ 14003
μη@@ 13997
νη@@ 13971
ίζ@@ 13958
παρά@@ 13910
λεγ@@ 13907
σύν@@ 13900
ζει 13892
50 13877
έλ 13868
από@@ 13862
ραγ@@ 13849
πρωτεύουσα 13838
σκι 13825
2020 13821
σημαντικό 13817
περίπτωση 13814
είες 13796
βαθμό 13786
ανδρών 13780
ημάτων 13775
όμενος 13774
ίδ@@ 13765
αγων@@ 13753
2003 13749
οξ@@ 13746
περισσότερες 13715
ιστικό 13694
άρ 13690
καταστ@@ 13673
αντ 13669
Ιωάννης 13653
γον@@ 13586
οποίηση 13581
29 13573
... 13566
ακή 13557
ίν 13555
Ιωάννη 13552
Εκ@@ 13538
γαλλικά 13536
μένης 13520
Ερ@@ 13517
αρχή 13513
νίκη 13511
πάλι 13503
άκη 13502
έας 13484
αποτελούν 13476
ιγ@@ 13455
σκοπό 13414
1999 13389
συγκ@@ 13386
δημιουργ@@ 13383
ιδι@@ 13364
ψη 13364
επαρχία 13354
ώματα 13354
οποίου 13346
σμό 13345
Παλαι@@ 13329
ίζονται 13320
τέσσερις 13312
σώμα 13307
άνα 13287
Μακ@@ 13267
B@@ 13264
θεωρ@@ 13244
ψει 13242
συμ@@ 13214
5@@ 13196
ζε 13186
Εξ@@ 13168
φαίνεται 13164
μένου 13155
άδ@@ 13147
Παπ@@ 13143
γιο 13119
ταινίες 13110
G@@ 13087
έκταση 13082
H@@ 13080
ξει 13072
σημαντική 13053
Κύ@@ 13051
ήμ@@ 13041
χος 13030
in 12983
υμ@@ 12959
F@@ 12952
Σαρ@@ 12940
μικρό 12940
πληθυσμού 12934
επικεφαλής 12928
μένους 12928
μακ@@ 12897
δύναμη 12891
ιτ@@ 12891
κατέκτησε 12865
ρύ@@ 12856
D@@ 12843
στά@@ 12835
ολογίας 12826
επίσημα 12819
αυτήν 12808
ιστές 12804
πρόγραμμα 12794
άκι 12792
ταν 12783
Λι@@ 12782
έμ@@ 12772
χρον@@ 12762
κατάφερε 12760
Εθνικής 12755
άδες 12745
1η 12737
τό@@ 12726
R@@ 12715
εχ@@ 12713
Θεσσαλονίκης 12705
1997 12701
παλ@@ 12678
πρόσ@@ 12670
ευση 12664
Έλληνες 12659
ροι 12649
ραν@@ 12648
ξανά 12643
Πέ@@ 12639
αγγ@@ 12633
έζ@@ 12628
εκκλησία 12627
Στα@@ 12621
Παρίσι 12594
λιο 12581
σύνολο 12581
εξουσία 12578
πρώτες 12575
φω@@ 12570
κομ@@ 12546
μ. 12543
Αρχ@@ 12539
όρους 12537
αποτελείται 12527
θυ@@ 12525
Χά@@ 12514
L@@ 12508
γυναίκες 12474
A@@ 12445
συνολικά 12437
στερ@@ 12423
διάφορα 12422
ίγ@@ 12420
μετρ@@ 12412
οπότε 12393
Πολέμου 12391
μικρή 12390
ίνης 12382
μεγάλες 12361
ίζοντας 12360
έπειτα 12347
οντα 12340
δύ@@ 12331
ψυχ@@ 12322
δική 12317
Σχολή 12312
πορ@@ 12308
ωσαν 12292
απέκτησε 12287
γάμο 12284
μην 12283
άκης 12279
δί@@ 12279
τησε 12274
ειών 12270
τεί 12256
σχέδιο 12253
έρ 12197
απόσταση 12189
ώνα 12183
έτη 12176
ειες 12168
Κον@@ 12162
αργ@@ 12158
συγκρότημα 12150
έι@@ 12140
έφερε 12131
σπίτι 12131
άι@@ 12129
έων 12125
Κο@@ 12103
Περι@@ 12074
ανατολικά 12060
Πι@@ 12059
ωνα 12056
14@@ 12036
a 12034
ίδης 12034
παραγωγής 12026
αυτούς 12012
πον@@ 11996
3@@ 11995
ισε 11992
άνο 11975
τοι 11972
μέτρων 11968
διαφ@@ 11951
Φιλ@@ 11945
Αμερικαν@@ 11935
απλ@@ 11932
μό 11932
όρια 11928
αγωνίστηκε 11924
τεύ@@ 11920
ωμα 11911
πιστ@@ 11907
εθνική 11898
and 11896
Δημοκρατίας 11896
άντα 11878
εστ@@ 11871
χαμηλ@@ 11870
θέματα 11856
οδήγησε 11855
αναπ@@ 11848
Δημ@@ 11846
πληθυσμός 11844
Ιν@@ 11838
δημ@@ 11812
1998 11809
πατ@@ 11804
έφτασε 11801
δυτικά 11792
λερ 11791
προέρχεται 11791
κο 11778
άρια 11771
πολεμ@@ 11763
στρατό 11754
ότερες 11736
Αντ@@ 11735
1991 11725
Παλ@@ 11724
θη 11721
στη@@ 11715
στικά 11715
προκειμένου 11706
κοινό 11695
αρκ@@ 11693
πος 11692
1980 11687
ώνοντας 11673
λευ@@ 11665
άσεις 11663
δρα@@ 11662
άζεται 11651
ναν 11648
31 11625
γαλ@@ 11608
ιου 11604
Ορ@@ 11597
Δημοκρατία 11590
Ω@@ 11587
υπήρχε 11584
Πόλεμο 11573
N@@ 11564
o 11561
εμβ@@ 11557
Δήμου 11554
ειρ@@ 11554
βολ@@ 11536
υψόμετρο 11532
κατοικ@@ 11523
στιγμή 11516
ικαν@@ 11512
παλαι@@ 11507
Βασίλειο 11506
τσι@@ 11489
αση 11485
μερικές 11483
ύρ@@ 11476
ημέρα 11474
1996 11473
φαν@@ 11450
σε@@ 11445
Χριστιαν@@ 11444
ητική 11443
ειο 11441
ορο@@ 11435
μέσο 11427
δικό 11406
A 11404
αρκετές 11402
δου 11394
ξαν 11379
τσα 11375
επίθεση 11369
σημαντικά 11366
ώσεων 11335
.. 11334
μή@@ 11314
τορ@@ 11293
χει@@ 11291
ωμένη 11291
απεβίωσε 11262
σειράς 11237
τούσε 11234
αυξ@@ 11217
ποδοσφαίρου 11217
Αργότερα 11207
ταρ@@ 11201
Καν@@ 11189
ουσι@@ 11187
ηθ@@ 11186
τηκε 11182
γκα 11173
br 11172
πηγές 11171
Τρι@@ 11170
πρωταθλήματος 11157
φάση 11156
λυ@@ 11137
E@@ 11136
δο 11132
χή 11118
βοήθεια 11117
αφορά 11109
κόμμα 11105
ώσουν 11104
γου@@ 11092
ταμ@@ 11084
Κολ@@ 11082
μαγ@@ 11082
παρουσία 11081
λέξη 11074
λύ@@ 11073
νω@@ 11069
Ελ@@ 11066
βαν@@ 11047
μουσ@@ 11032
ίνι 11025
ανό 11016
Μου@@ 11009
πολλούς 11009
έρας 11006
όνι 11003
νερό 10992
θέμα 10990
Ένωσης 10982
+ 10981
ρας 10980
Πά@@ 10965
αρχαία 10961
αναγνω@@ 10955
βο@@ 10954
Νέας 10952
1970 10947
ήρ@@ 10946
αγωγ@@ 10942
ητών 10932
π.χ. 10930
ημέρες 10926
όνων 10920
Νομ@@ 10918
ρίν@@ 10917
συμπ@@ 10905
στεί 10895
ξε 10892
πρω@@ 10888
συνα@@ 10879
μέγεθος 10878
άρι@@ 10877
σχέσεις 10877
αγγλικά 10872
ρούς 10859
σιο 10835
πολης 10834
2@@ 10829
κράτος 10814
ιση 10810
χημ@@ 10800
καλοκαίρι 10799
βραβείο 10796
τυπ@@ 10792
ζω@@ 10791
Βρεταν@@ 10789
περί 10789
y 10786
ώνουν 10781
1992 10772
ταινίας 10769
άδας 10759
έλεγχο 10752
ημένη 10751
Μέ@@ 10743
ακό 10740
μέν@@ 10737
αίο 10728
οπλ@@ 10723
πολιτικός 10723
Κοιν@@ 10721
διαδικασία 10715
συλλ@@ 10713
οικογένειας 10701
2021 10690
χριστιαν@@ 10683
εμφαν@@ 10679
Κύπρου 10677
μν@@ 10672
Σήμερα 10671
Ιταλ@@ 10670
λόγο 10668
1960 10664
μετ@@ 10661
περιλαμβάνουν 10654
Πολιτείες 10644
άνη 10625
ρη@@ 10625
νεκ@@ 10623
νό@@ 10614
τμήματα 10604
τύπου 10601
40 10593
παράδοση 10582
ίτ@@ 10581
αίνει 10580
Γερμανίας 10579
Ελλην@@ 10578
άστηκαν 10578
δημιουργήθηκε 10578
γυναίκα 10563
άπ@@ 10553
K@@ 10550
δούκα 10533
Κόμμα 10530
τρίτη 10527
Ντι@@ 10496
ίδων 10493
δήμο 10492
Ή@@ 10490
κρα@@ 10484
1994 10483
Αυτοκρατορίας 10482
κη 10463
ηλεκτρ@@ 10457
πτ@@ 10456
κερ@@ 10453
1993 10451
αλ 10449
θεση 10445
μάν@@ 10444
ιπ@@ 10423
Επιπλέον 10413
Μέχρι 10409
ταγ@@ 10402
Ηνωμένες 10374
γιατί 10373
γυ@@ 10367
χν@@ 10356
ελλην@@ 10354
όλους 10352
Σκ@@ 10345
λα 10340
Πλ@@ 10338
δόθηκε 10337
τομ@@ 10335
τέσσερα 10326
Βρίσκεται 10324
άζουν 10323
μος 10321
νέου 10319
έπρεπε 10316
Γεν@@ 10306
ικότητα 10303
όρι@@ 10297
Συ@@ 10292
τρα@@ 10274
νέ@@ 10252
τησαν 10239
ίσουν 10237
τροφ@@ 10231
Ξ@@ 10228
πολλοί 10227
άλλοι 10209
επικ@@ 10209
δράση 10203
ριστ@@ 10202
βουλευτής 10201
ούλ@@ 10201
πό@@ 10173
λειτουργία 10171
O@@ 10158
Ιερ@@ 10158
πρωτο@@ 10155
ρη 10151
1995 10149
λη 10141
επηρε@@ 10137
έστ@@ 10136
κατοίκων 10136
Υπο@@ 10124
μεταλλ@@ 10111
ήλ@@ 10090
i 10085
1989 10083
βαλ@@ 10077
γυναικών 10073
όνια 10072
έμεινε 10071
μό@@ 10071
ίνου 10068
νομού 10059
ρακ@@ 10057
κον@@ 10038
παιχνίδι 10026
άνι 10019
ίρ@@ 10018
μαζ@@ 9994
νικ@@ 9986
φων@@ 9982
υδ@@ 9980
γι 9977
τιν@@ 9976
ώρες 9971
Ιανουάριο 9967
Σα@@ 9967
Πανεπιστημίου 9963
τύ@@ 9955
γνω@@ 9953
παντρεύτηκε 9949
ιβ@@ 9934
πάντα 9933
φόρ@@ 9932
ζεται 9931
ούνταν 9929
Κάρ@@ 9925
πέρασε 9921
συνέχισε 9920
1974 9914
Οικογένεια 9901
° 9898
ιακή 9898
ορίζεται 9892
Ρώμη 9890
σουν 9885
εξελέγη 9884
Μουσείο 9877
τραγούδια 9877
απέναντι 9870
υπολογ@@ 9866
νά@@ 9865
Μετα@@ 9860
ομάδων 9857
διπλ@@ 9854
κάποιο 9851
περιπτώσεις 9837
έλα 9834
ειν@@ 9828
ερω@@ 9813
Υπάρχουν 9812
ώσ@@ 9809
απ 9801
πορεία 9796
Αγώνες 9785
Και 9783
κε 9782
συγγραφέας 9781
ματικά 9771
γκολ 9766
4@@ 9759
ίμ@@ 9758
γέν@@ 9757
κλη@@ 9744
κυβέρνησης 9744
αμέσως 9737
ασία 9736
αποκ@@ 9734
άνδρες 9722
ποταμού 9717
κανον@@ 9701
κυρι@@ 9699
κακ@@ 9694
όμενα 9690
κρί@@ 9686
ισχυ@@ 9680
Ευρώπης 9678
λιος 9666
σμού 9666
Ρωσία 9664
βασιλ@@ 9661
ιστής 9659
στής 9629
στατ@@ 9626
ινγκ 9623
Ένας 9621
Γεώργιος 9603
γραμμή 9603
περιέχει 9597
ρκ@@ 9596
καν 9592
Μάρ@@ 9591
Φλ@@ 9591
τηση 9589
αποφάσισε 9588
εμφάνιση 9586
Οκτώβριο 9576
άθ@@ 9564
δήμου 9563
ματο@@ 9545
ίος 9540
αρι@@ 9524
γράφ@@ 9523
ητικό 9520
άου@@ 9519
V@@ 9517
τουλάχιστον 9508
Ελλάδος 9507
Σεπτέμβριο 9507
Σύ@@ 9505
Κυ@@ 9501
οπο@@ 9500
ικο 9497
ισης 9494
Κ 9493
ημένο 9492
κάστρο 9490
παγ@@ 9489
ανατ@@ 9488
Λού@@ 9486
άλα 9486
σύ@@ 9481
μάλιστα 9477
θέν@@ 9475
ριος 9470
τευ@@ 9468
ώνονται 9457
θερ@@ 9454
ούτε 9454
Αγίας 9453
συγκεντρ@@ 9451
ργ@@ 9446
μέρη 9443
Βαρ@@ 9442
χο 9441
Άρ@@ 9440
ποσοστό 9440
τω@@ 9433
Ιούνιο 9431
αστεί 9425
προβλήματα 9418
τακ@@ 9416
Εθνικό 9409
βοηθ@@ 9405
σκοπ@@ 9403
λόγ@@ 9402
Πρόεδρος 9396
Άγιος 9392
I@@ 9386
ασης 9386
ρατ@@ 9382
συγ@@ 9382
ηθοποιός 9381
ακολούθησε 9377
όλοι 9376
ύψος 9367
τιμή 9365
ίδη 9360
συλλογή 9354
χώ@@ 9350
υψηλ@@ 9347
Εκεί 9346
εμφανίζεται 9346
έτους 9336
στρ@@ 9329
όζ@@ 9328
εθν@@ 9312
λεκ@@ 9311
μικ@@ 9311
Βεν@@ 9307
ηλι@@ 9307
αμβ@@ 9301
Σ 9295
διοικ@@ 9293
κόμη 9293
φύ@@ 9292
μ.Χ. 9291
συνθήκες 9283
Λέ@@ 9281
στές 9280
W@@ 9277
ται 9269
Ρου@@ 9267
Ε.@@ 9266
αποφ@@ 9264
σιος 9257
Λε@@ 9254
εκδ@@ 9247
πους 9245
πλο@@ 9241
Α. 9230
τοπική 9225
συνεργασία 9217
ουσα 9213
ταχ@@ 9211
τραυματ@@ 9209
Μπαρ@@ 9206
ηματ@@ 9206
Μάιο 9205
θερμ@@ 9204
Μελ@@ 9203
ελι@@ 9200
ησι@@ 9196
αρ 9195
χρησιμοποιούνται 9191
Κάτω 9185
επιτυχ@@ 9185
έδ@@ 9184
εντ@@ 9183
συγκεκριμένα 9179
τρια 9171
1940 9169
ξεις 9162
εξ 9157
τελευταίο 9155
αλληλ@@ 9153
εμπο@@ 9153
οστ@@ 9148
ματικό 9144
φέρει 9139
ικ 9138
I 9134
κοιν@@ 9134
κίνηση 9132
ελληνικό 9128
θεωρία 9126
Μάρτιο 9124
αναγ@@ 9108
ηθούν 9107
κύρια 9105
γαλλική 9104
οφ 9104
άνης 9093
Ιούλιο 9080
στ 9077
Σαλ@@ 9063
υπήρχαν 9057
σχηματ@@ 9053
άλλ@@ 9050
σημει@@ 9040
έξ@@ 9038
νομό 9036
μή 9035
κοσμ@@ 9029
60 9018
μέση 9010
δικ@@ 9007
εντ 8998
έρν@@ 8994
ισσ@@ 8989
συγκροτήματος 8988
έπαιξε 8986
κορυφ@@ 8983
o@@ 8982
τέρ@@ 8978
μύ@@ 8970
χαρακτήρα 8968
Αύγουστο 8967
γεω@@ 8962
πραγματοποιήθηκε 8953
Κομ@@ 8941
επίσημη 8941
πολιτι@@ 8940
προσπάθεια 8939
άχ@@ 8931
ζουν 8931
διδ@@ 8926
ήσ@@ 8923
κύριο 8921
Οίκο 8916
βρέθηκε 8911
οποίας 8908
ώματος 8906
Αγγλίας 8905
βρα@@ 8904
έλλ@@ 8903
Ασ@@ 8901
Εργ@@ 8900
ναός 8896
Δήμος 8884
ατική 8884
σμός 8883
Παγκοσμίου 8882
κορυφή 8881
διοίκηση 8877
ανού 8876
απέ@@ 8872
Αμερική 8871
ιμο 8871
παράλληλα 8870
ρίζεται 8870
ρες 8868
ρική 8868
1.@@ 8866
Αμ@@ 8858
Κωνσταντινούπολη 8853
ράς 8849
Νικ@@ 8847
ψης 8847
άει 8837
κατηγορίας 8827
επτά 8823
Συμ@@ 8820
γενικά 8818
κλει@@ 8812
Κι@@ 8800
αντίθεση 8799
τηκαν 8798
γειτον@@ 8795
καμπ@@ 8788
έγκ@@ 8785
προβλ@@ 8777
λειτουργ@@ 8763
Μαλ@@ 8762
Τρί@@ 8757
τια 8757
αρχία 8751
ψε 8748
χαλ@@ 8747
κράτους 8744
θος 8743
ολογική 8739
έδαφος 8735
εργάστηκε 8730
άντ@@ 8728
Βόρεια 8720
επόμενο 8719
ρών 8716
λος 8715
υπέγραψε 8714
Δεκέμβριο 8711
Μπι@@ 8707
ίσως 8704
άσεων 8700
δα 8698
S 8693
Τζον 8693
λιγ@@ 8684
ασαν 8678
μικρο@@ 8673
Κατα@@ 8659
ρίων 8648
Πρ@@ 8646
x 8643
Αυτοκρατορία 8639
αποτελέσματα 8639
ερμην@@ 8635
Γερμαν@@ 8632
ειδικά 8632
υποστήριξη 8631
Εκκλησία 8626
άμπ@@ 8626
διοργάνωση 8621
ωνική 8619
1981 8610
άνου 8610
στή 8610
άζονται 8606
ασι@@ 8606
άνιο 8605
Α.@@ 8604
Αγία 8598
έρευνα 8591
συνεργ@@ 8590
έργου 8588
αντίστοιχα 8588
μελέτη 8586
ανέ@@ 8583
καθαρ@@ 8583
Πρά@@ 8580
άνθρωποι 8575
όμενες 8574
άλη 8572
κό@@ 8569
σπουδές 8569
αθλη@@ 8566
Νοέμβριο 8564
στρατού 8560
Γαλ@@ 8553
μισ@@ 8548
τιο 8535
Πολωνίας 8532
εδάφη 8529
άνει 8526
Ψ@@ 8523
ανθ@@ 8520
ρό 8512
Χρυσ@@ 8508
πυ@@ 8508
ωπ@@ 8508
μιλ@@ 8502
λει@@ 8501
1950 8498
Μεσ@@ 8498
λλο 8489
υψ@@ 8488
ένωση 8484
ορισμένες 8483
συμμετείχαν 8483
σο@@ 8481
Π 8473
παρακάτω 8469
συστήματος 8468
άλ 8465
Όπως 8453
υπηρε@@ 8452
Κερ@@ 8446
μέρα 8445
θρόνο 8444
Μαν@@ 8443
βα@@ 8442
συμβολ@@ 8440
us 8437
Αγγλία 8437
τώρα 8436
σ 8435
ίνος 8434
ημερ@@ 8432
εύεται 8430
ρυθμ@@ 8429
αναπαρ@@ 8423
d 8422
στών 8421
θύ@@ 8418
Απρίλιο 8413
δρο@@ 8412
on 8405
επο@@ 8402
σχολ@@ 8397
Εκτός 8396
κόρης 8394
τέχνης 8393
οποίους 8392
σύνθεση 8388
ίνας 8387
γλώσσες 8385
όντων 8385
1@@ 8384
αδελφός 8380
πολι@@ 8378
όδ@@ 8377
ηδ@@ 8371
υπουργός 8371
δημο@@ 8367
Μιχαήλ 8363
τελική 8361
τυχ@@ 8356
αζε 8348
ώδη 8343
παραγωγ@@ 8342
εμφανίστηκε 8341
ρίες 8332
διαθέτει 8329
Παρά 8326
πληροφορίες 8326
ασε 8323
δήλωσε 8322
γύ@@ 8317
βιβλία 8309
τήρ@@ 8309
δίδ@@ 8308
έμπ@@ 8295
τηλε@@ 8284
Πολων@@ 8283
κυκλ@@ 8283
πόν@@ 8282
ισχυρ@@ 8278
ανθρώπους 8273
ασσ@@ 8267
τή@@ 8265
ανατολική 8263
κλι@@ 8249
Λιγκ 8246
Ελλήνων 8239
t 8236
λόγους 8234
ανός 8229
80 8227
εντά@@ 8223
λιγότερο 8221
νο 8214
ητικά 8212
εκτελ@@ 8204
εξαιτίας 8201
επαρχίας 8197
περίοδος 8189
όριο 8180
ραβ@@ 8178
αίας 8176
μέρες 8175
ποδ@@ 8170
Τη 8166
σχολείο 8163
κόσμου 8154
ίδιου 8149
ωνίας 8145
χών 8143
άρκ@@ 8140
Σά@@ 8137
δήμος 8137
στρατ@@ 8133
έξω 8123
n 8121
χά@@ 8115
οικονομική 8109
έρι 8108
ρίζει 8104
μουσικής 8103
Δήμο 8102
συμφωνία 8101
ηλεκτρον@@ 8099
1945 8098
τσι 8095
m 8092
εζ@@ 8090
επιφάνεια 8088
ρεκόρ 8081
μορφ@@ 8077
1985 8076
αστική 8065
σημερινή 8064
1944 8061
βιτς 8055
ομοι@@ 8053
Είχε 8044
σκλη@@ 8034
πί@@ 8025
τρο 8019
ματά 8017
υδρο@@ 8012
Βερ@@ 8008
άρχισαν 8004
ίνες 8004
περιφέρεια 8004
σμα 8001
Μπου@@ 7998
εκπαιδευ@@ 7993
ρεύ@@ 7990
εύει 7985
πολη 7983
νησιού 7981
ψεις 7981
Φι@@ 7977
χρησιμοποιήθηκε 7973
απόφαση 7966
τρίτο 7962
δίνει 7961
συνδυ@@ 7959
γράφει 7958
διοικητική 7957
ήττα 7951
εντάχθηκε 7951
αντί 7950
δημιούργησε 7949
χθηκε 7948
μίας 7937
Αργ@@ 7926
αποτέλεσε 7919
κάποιες 7919
ύλ@@ 7917
πυρ@@ 7916
αρχηγός 7913
θμ@@ 7904
λή@@ 7902
1988 7894
ώνης 7891
υπέρ 7890
Μερ@@ 7883
Αλεξ@@ 7881
εκπαίδευση 7878
περιοδικό 7877
αναφέρονται 7871
δικαι@@ 7869
1986 7863
Πολωνία 7862
κοπ@@ 7859
ικώς 7855
κυβερν@@ 7851
χές 7851
πηγή 7849
πνευ@@ 7837
τίτλος 7837
Χρ@@ 7835
θέατρο 7835
κλασ@@ 7834
μεγάλα 7833
200 7827
έργων 7822
αρχική 7819
Πολι@@ 7816
άρχ@@ 7811
Τελικά 7808
ντεμπούτο 7807
άρχης 7805
ωνία 7805
ιακό 7803
ζαν 7802
Πολ@@ 7801
ιαν@@ 7801
ιχ@@ 7799
κατηγορίες 7798
καθηγητής 7797
ολογικό 7795
ανδ@@ 7794
σί@@ 7794
δημοσι@@ 7791
μπουργκ 7783
αγορά 7774
ίδρυση 7768
υλικό 7768
19ου 7761
Κό@@ 7761
πολλών 7755
Όμως 7754
κατέλαβε 7754
κόμματος 7753
σπουδ@@ 7750
ιου@@ 7749
αγκ@@ 7746
ελληνικής 7737
άνια 7736
ψουν 7724
ησ@@ 7720
Ρωσίας 7717
διαβ@@ 7715
Μακεδονίας 7712
Αστ@@ 7710
1987 7701
Ιταλίας 7700
Στ@@ 7700
Ομ@@ 7699
παραπάνω 7698
Π.@@ 7693
μαλ@@ 7692
βολή 7691
χωριά 7685
ίτες 7682
οχή 7681
κω@@ 7679
αγρο@@ 7677
σύνορα 7676
μετέπειτα 7674
Βασιλ@@ 7672
πλαίσιο 7670
ψαν 7668
ιας 7666
δηλ@@ 7665
λογία 7664
ίχ@@ 7663
ότητά 7663
ορίστηκε 7661
οτήτων 7652
διοργαν@@ 7651
Χαρ@@ 7645
θάνατό 7645
μονα@@ 7644
οί@@ 7642
αναφορά 7641
αλλαγή 7630
κομμάτι 7625
ενδιαφέρον 7623
τήσει 7622
Ισπαν@@ 7617
στό 7616
ιστικής 7614
ξέν@@ 7611
θεραπεία 7608
ταξι@@ 7604
στρατιώτες 7603
αυτοκράτορα 7602
ανακοίνωσε 7592
σχέδια 7591
ακολουθεί 7584
συλλόγου 7582
αμερικαν@@ 7581
παρατηρ@@ 7581
λάβει 7575
ϋ@@ 7572
σημαντικές 7571
έχασε 7568
πόντους 7567
άσουν 7565
στικής 7553
ζήτησε 7551
ηφ@@ 7548
ζη@@ 7547
όρου 7541
1920 7537
Λονδίνο 7536
αντα@@ 7536
υθ@@ 7534
ήρθε 7532
λευκ@@ 7532
Γεωργίου 7528
οδος 7528
άδων 7524
ίδρυσε 7522
επισκ@@ 7522
Θεσσαλονίκη 7521
δεκα@@ 7517
τεν@@ 7508
πλοία 7507
οργάνωση 7506
1975 7504
αγωγή 7503
ιστών 7503
Δια@@ 7502
επίδραση 7497
οκτώ 7497
κοινότητας 7496
περισσότεροι 7495
1984 7494
δρομ@@ 7482
δης 7479
δυνατότητα 7478
ιστούν 7476
1982 7474
έστειλε 7474
500 7464
Κωνσταντίνος 7463
παρουσι@@ 7461
ϊ 7461
ναό 7459
τελε@@ 7459
εικον@@ 7453
Καλλικράτης 7450
Ενώ 7443
Παράλληλα 7443
σι 7440
et 7437
Λα@@ 7436
Στρ@@ 7436
Κρι@@ 7435
11@@ 7433
Ντά@@ 7430
παιδί 7429
σιμο 7427
εκστρατεία 7426
θάλασσα 7421
ώρ@@ 7421
χα@@ 7419
τοκ@@ 7418
Φεβρουάριο 7417
ατζ@@ 7417
άτες 7415
έτ@@ 7415
που@@ 7414
Ηνωμένων 7409
τομέα 7406
άνω 7403
χι@@ 7403
Σαν 7400
νερού 7400
ρι 7399
Ακ@@ 7383
Ελληνική 7382
πρωταγων@@ 7382
εξέλιξη 7379
σχήμα 7375
εντοπ@@ 7374
ριζ@@ 7374
ισμούς 7369
Αρχικά 7367
έτα 7366
αποκαλ@@ 7361
θεατρ@@ 7361
Αντί@@ 7357
Ντα@@ 7356
οντ@@ 7353
70 7349
τερο 7349
ορθ@@ 7345
εξωτερ@@ 7344
γραφή 7343
δών 7340
ώνη 7340
1979 7334
δού@@ 7334
ιταλ@@ 7331
πραγματικότητα 7329
O 7327
δώσει 7326
συμπεριλαμβανομένων 7323
άποψη 7321
πήγε 7317
σμούς 7314
άζοντας 7313
ράφ@@ 7313
οιν@@ 7311
προγραμματ@@ 7311
διέ@@ 7310
Βασιλείου 7308
Γκα@@ 7305
ξουν 7305
Μικ@@ 7303
1967 7299
ύλου 7298
ήν@@ 7296
ιδιω@@ 7287
διεξήχθη 7285
ϊκ@@ 7285
Χάρ@@ 7279
Κύπρο 7277
δομή 7273
ογραφ@@ 7272
Νέ@@ 7270
κόμ@@ 7270
διορίστηκε 7268
θυμ@@ 7267
χιλι@@ 7266
άι 7265
συμβόλαιο 7265
ψήφ@@ 7265
θηση 7264
Βυζαντιν@@ 7261
ελληνικά 7260
αύξηση 7259
ισαν 7259
φι@@ 7258
εαυτό 7257
ατρ@@ 7252
μπου@@ 7248
στόχο 7246
τεν 7245
Πατ@@ 7244
μπορούσαν 7242
παρουσιάζει 7242
όρων 7242
ανήκε 7233
1941 7230
σου 7229
1912 7224
ίτη 7222
νέων 7220
στεν@@ 7218
σύντομα 7217
κος 7215
ωμένο 7212
Σω@@ 7211
φυλ@@ 7204
σαρ@@ 7201
κης 7200
90 7198
χής 7190
κυκλοφορία 7189
μπι 7189
πο 7189
έννοια 7188
ίρ 7183
Συμβούλιο 7177
τριών 7176
νόμ@@ 7175
διεξ@@ 7174
ώνας 7174
πιθαν@@ 7172
πρόσωπο 7168
εφημερίδα 7163
” 7162
Αθήνας 7160
Ισπανία 7158
Ρώσ@@ 7158
πηγ@@ 7157
ουργ@@ 7156
ιστο@@ 7154
Δυ@@ 7150
ρωσ@@ 7147
δέκα 7146
ηκε 7137
κου 7135
όδου 7132
γεγονότα 7131
λλα 7131
σο 7131
δικαιώματα 7129
εργασία 7122
σωματ@@ 7122
ασθεν@@ 7121
νησιά 7121
στρατιωτική 7121
όγκ@@ 7121
διαδέχθηκε 7116
έι 7115
αποστολή 7110
δεύτερος 7110
εκκλησι@@ 7106
2.@@ 7104
δικαίωμα 7100
Ασία 7098
Στέ@@ 7096
τισε 7096
εκείν@@ 7093
λεύ@@ 7093
Μεταξύ 7090
Ατ@@ 7083
ζωγράφ@@ 7078
λεπτά 7078
ύγ@@ 7078
Κόμματος 7077
ίπ@@ 7076
ταυ@@ 7075
γλ@@ 7074
ριση 7073
στικές 7069
τιος 7065
έναντι 7064
χθεί 7064
ιδέα 7059
“ 7055
Ι 7054
μοντέλο 7050
1978 7048
L 7048
μορφές 7048
εάν 7046
νες 7044
ιντ 7040
εργασίες 7039
1983 7034
λειτουργεί 7031
Σαμ@@ 7028
σταυ@@ 7028
πραγματ@@ 7026
ίους 7025
ενέργεια 7025
χαρακτη@@ 7025
τισ@@ 7023
πεζ@@ 7020
συστήματα 7018
τάφ@@ 7012
είδ@@ 7011
ολογικά 7010
παπ@@ 7008
στερ 7001
τεχνική 6999
Εφ@@ 6998
συνέ@@ 6996
πα 6991
Γερ@@ 6990
1973 6989
εικόνα 6981
Αχ@@ 6980
γρήγορα 6980
ην 6979
μην@@ 6979
κεφαλ@@ 6962
έζησε 6959
γνωστοί 6956
πολιτικής 6956
γαλλ@@ 6943
διευθυντής 6943
1976 6937
Ναυ@@ 6937
ιώ@@ 6933
Επιτροπής 6930
συζύγου 6927
βεν@@ 6921
1930 6916
λέγεται 6916
νου 6916
επιρροή 6915
ημι@@ 6913
πραγματοποι@@ 6913
Κού@@ 6912
φρά@@ 6911
ταυτόχρονα 6910
Κατηγορία 6902
ισμένη 6902
είπε 6901
συχν@@ 6888
αρν@@ 6886
όνο 6885
ιλι@@ 6882
λου 6877
1977 6871
ισμένο 6867
νών 6867
εκδοχή 6864
χώρ@@ 6864
σημασία 6863
σύλλογος 6861
1971 6852
εφ 6851
γύρο 6850
ούσ@@ 6850
είδους 6848
R 6845
άρχη 6844
κριτική 6843
μερικά 6843
σκορ 6842
πληρ@@ 6837
αδελφό 6835
αρνη@@ 6832
Επιτροπή 6830
Πριν 6827
αερ@@ 6822
δευ@@ 6817
δίκτυο 6815
τάν@@ 6815
ωνικό 6811
γη 6801
καιν@@ 6798
εσωτερικό 6796
συναντ@@ 6791
οικογεν@@ 6789
έδρας 6785
δω@@ 6785
κη@@ 6782
σελ@@ 6781
ιδρύ@@ 6778
περιβάλλον 6775
προσπαθ@@ 6775
1972 6771
e@@ 6771
άνοντας 6770
Ρό@@ 6769
ομιλ@@ 6769
1968 6767
πάρει 6767
ευσε 6764
δρόμο 6759
γκο 6753
ιστή 6747
ογράφ@@ 6747
γ 6746
ατα 6745
επιπλέον 6745
ότερος 6744
θερμοκρασία 6741
χρησιμοποιεί 6739
ειά 6738
χρόνου 6736
ξεν@@ 6735
ξη@@ 6734
κτίριο 6732
σύζυγος 6732
1964 6731
εφαρμογή 6729
ινή 6728
πρώτου 6726
όρ 6726
ατών 6720
ωγ@@ 6720
εταιρείας 6713
κατε@@ 6713
γγ@@ 6711
καταγωγή 6707
ιδρυ@@ 6703
Λί@@ 6700
ανώ@@ 6695
λω@@ 6695
Μεγάλη 6694
Γαλλ@@ 6693
τούς 6690
ακριβώς 6685
Άννα 6683
ζόταν 6682
αποτελούσε 6674
ίτης 6672
ανάλογα 6672
κατ 6671
Τότε 6669
ήτρια 6666
ανταγων@@ 6661
φαιν@@ 6658
κεντρική 6657
Κ. 6656
μάχ@@ 6656
ίκη 6655
1961 6654
Αμπ@@ 6652
εξωτερικό 6641
Εκκλησίας 6640
πλά@@ 6640
Αφρική 6637
ότερους 6637
Τσι@@ 6636
ραμ@@ 6636
τερματ@@ 6636
αντά@@ 6635
αλλαγές 6633
ποταμό 6629
χρονικό 6626
δημόσια 6625
έρχεται 6624
Αυ@@ 6618
Βιογραφικά 6617
ακολουθ@@ 6615
Νό@@ 6614
βυζαντιν@@ 6612
1939 6610
μεθ@@ 6609
ίσεις 6607
προστασία 6607
πλειοψηφία 6605
άλια 6596
ρή@@ 6596
επαγγελματ@@ 6594
σταθερ@@ 6592
έβαλε 6591
υπουργ@@ 6591
32 6588
Μπλ@@ 6588
αγορ@@ 6588
λεπ@@ 6577
ποδοσφαι@@ 6573
ροί 6572
ερι@@ 6571
οντες 6571
αι. 6570
δομ@@ 6570
ρασε 6570
ατικό 6569
θήκης 6567
δολάρια 6565
χώρος 6565
Κοινότητα 6562
αγωνίζεται 6562
ριακ@@ 6562
κάνουν 6561
αξ@@ 6559
σημεία 6556
Φρ@@ 6555
άλης 6552
αυτοί 6549
αίου 6545
καταγωγής 6543
παραλ@@ 6541
1821 6537
e 6537
σύγχρον@@ 6536
κράτη 6535
μές 6533
ρν@@ 6533
Ολυμπιακούς 6531
έτο 6531
επίσκοπος 6531
Λόγω 6528
πρώτης 6526
Καστ@@ 6525
έφεραν 6524
παραδ@@ 6519
τύπος 6519
κομμουν@@ 6517
1963 6515
Θεοδ@@ 6513
λεια 6510
διαφορετικές 6504
καθεστώς 6502
ινγκ@@ 6500
γνωστά 6499
ποδοσφαιριστής 6496
χρυσ@@ 6496
ώνες 6496
βιομηχαν@@ 6491
μης 6491
άνοδο 6490
ετο@@ 6490
U@@ 6489
γραμμ@@ 6489
δυνάμεων 6489
παραμένει 6486
δίπλα 6484
υπηρεσίες 6484
δρά@@ 6483
Μουσ@@ 6481
αναδείχθηκε 6480
παρακ@@ 6478
υχ@@ 6477
Κάρολος 6472
έκαναν 6470
σας 6469
μεγαλ@@ 6468
H 6465
γονείς 6465
Νότια 6461
p 6458
πίνακα 6456
F 6452
αστυνομ@@ 6452
μεγαλύτερος 6452
Καθώς 6446
παιδ@@ 6446
to 6443
επιλογή 6443
D 6441
άσσ@@ 6438
δια 6438
υπηρέτησε 6437
απαι@@ 6435
ανασ@@ 6433
βάρος 6433
θεσε 6429
ορ 6429
μονή 6428
επιστροφή 6427
κρά@@ 6423
ύπαρξη 6421
αποσπ@@ 6419
νευ@@ 6419
# 6415
ανοιχ@@ 6415
αισθη@@ 6414
μετάλλιο 6413
τούσαν 6413
πολιτικό 6411
μπροστά 6409
Δ. 6407
ησή 6404
ιστορικό 6403
προπονητής 6402
παράγεται 6401
Αφού 6396
Μιλ@@ 6395
λαμβάνει 6393
ήχ@@ 6392
άτ@@ 6391
er 6389
θέσεων 6388
ανι@@ 6387
εικ@@ 6381
ιστικά 6381
προσπάθησε 6381
εμφανίσεις 6377
διετέλεσε 6376
ονομάστηκε 6375
άρη 6374
πρόβλημα 6372
υπόθεση 6367
μήνα 6364
είτο 6356
παι@@ 6356
γράφηκε 6353
ορισμό 6352
βερ@@ 6350
σύγχρονη 6348
ασίας 6347
ιδε@@ 6347
εργασίας 6345
Γκου@@ 6344
δέχτηκε 6344
δεκ@@ 6344
εκδόσεις 6344
1943 6341
γλώσσας 6341
ηχ@@ 6341
φρ@@ 6339
Χριστ@@ 6337
s@@ 6335
βρ@@ 6335
1969 6334
βου@@ 6334
έφυγε 6331
συμφ@@ 6327
ίστ@@ 6326
Χαλ@@ 6324
ανθρώπων 6323
μικρά 6323
Ερρίκος 6317
τικότητα 6314
πλοκ@@ 6313
νίκες 6312
1946 6311
ηγεσία 6309
βελτι@@ 6308
35 6306
αφιερ@@ 6305
χρησιμοποιώντας 6305
κατόπιν 6304
λιμάνι 6304
άνθρακα 6303
χωρ@@ 6301
γνώ@@ 6300
φασ@@ 6300
ζονται 6299
καλά 6298
Ρομ@@ 6296
νέες 6296
ωρι@@ 6295
κερδίσει 6291
τοποθε@@ 6286
um 6281
επεκ@@ 6281
Μο@@ 6275
πεί@@ 6275
εσωτερ@@ 6273
επαναλ@@ 6272
σταδιοδρομία 6270
χρει@@ 6267
ιστορίας 6266
ονόματα 6260
στρατεύματα 6258
X 6254
Όσκαρ 6253
Κυπέλλου 6249
τάν 6247
ανή 6241
To 6239
χρώμα 6238
δοκ@@ 6236
επιχειρήσεις 6236
ιω@@ 6230
Πέθανε 6224
ναού 6224
Άγιο 6223
αίνουν 6214
τροπ@@ 6212
σχέ@@ 6208
στοιχείο 6207
αντιμετωπ@@ 6204
γνωστ@@ 6200
Σε@@ 6197
ρισ@@ 6195
οδό 6192
ανδρ@@ 6189
δημοκρατ@@ 6186
στεγ@@ 6186
χειρο@@ 6186
θρησκευ@@ 6184
ουντ 6179
τζ 6179
στάδιο 6171
ιτς 6170
έλη 6168
μυθ@@ 6168
τέχνη 6168
εξαιρετικά 6166
Αλέξανδρος 6164
διάσ@@ 6160
παί@@ 6160
καλύτερη 6159
τύπο 6159
θου 6155
στρατός 6154
τήριο 6154
στες 6150
έκθεση 6148
σκα 6146
αρχηγ@@ 6145
Υπήρξε 6144
ιους 6144
μάχης 6144
δεδομένων 6143
αδελφ@@ 6141
φερ@@ 6141
ενάντια 6136
Συμβουλίου 6135
αντζ@@ 6134
γενε@@ 6134
δεξι@@ 6133
ιες 6133
Αι@@ 6132
Ευρωπαϊκό 6127
αιρε@@ 6125
μεγάλου 6124
κεντρ@@ 6120
έδειξε 6119
σημείωσε 6117
υπηρεσία 6116
1965 6112
συμφων@@ 6112
απο 6111
an 6110
θο 6110
ιατρ@@ 6106
ενσωματ@@ 6105
χθηκαν 6105
αεροπο@@ 6103
πρωταθλήματα 6098
σκηνή 6098
ιοι 6095
J@@ 6094
ρή 6094
προκάλεσε 6093
πεδίο 6092
άσκ@@ 6086
αξία 6085
πρωθυπουργός 6085
γραμ@@ 6084
απε@@ 6083
διά 6083
ξε@@ 6081
χωρι@@ 6081
αι 6079
B 6075
όνας 6075
όροι 6075
Μι@@ 6073
υπέ@@ 6073
άσματα 6071
ειακή 6070
σει@@ 6066
ωματ@@ 6064
έδρες 6062
αγγλ@@ 6062
ρεμ@@ 6062
σκηνοθεσία 6062
στικών 6060
οντάς 6059
Σερ@@ 6057
ωνε 6056
Βραβείο 6055
περιφερ@@ 6048
ίωση 6044
άτομο 6038
αρχι@@ 6034
δεδομένα 6034
παιχνίδια 6032
γνώρισε 6031
ειακό 6031
20@@ 6022
Καμ@@ 6021
1918 6018
χρω@@ 6017
όνη 6016
ονίας 6014
χρησιμοποιηθεί 6014
ιακά 6013
ικότητας 6013
ερν@@ 6008
πιθανώς 6008
μήκους 6006
τοποθεσία 6005
χέρια 6005
δευτερ@@ 6003
προηγ@@ 6003
ολόγος 6001
άμε@@ 6000
Z@@ 5999
σώματος 5999
μπερ@@ 5997
Μάχη 5996
όλε@@ 5992
πλη@@ 5991
τουρκ@@ 5989
τερμάτισε 5987
προσπάθειες 5986
έσει 5981
γράψει 5981
al 5980
οργ@@ 5980
Τρ@@ 5978
καιρό 5978
ζωνταν@@ 5974
1966 5971
Άνω 5968
εύτηκε 5967
ποίηση 5966
αποστ@@ 5965
έναρξη 5964
Ηνωμένο 5962
ξυλ@@ 5962
αιν@@ 5959
Μπερ@@ 5958
σιμη 5958
ύστερα 5956
Πορ@@ 5954
σκοτ@@ 5953
Σπούδασε 5952
ογεν@@ 5952
διατηρ@@ 5948
is 5947
μελών 5947
χαρακτηριστικό 5947
χρυσό 5947
Έπειτα 5942
αποφασ@@ 5942
ρωμαϊκ@@ 5938
μάν 5932
οικογένειες 5932
Διοικ@@ 5927
πρωτ@@ 5921
Μ 5915
Μία 5910
θήκη 5909
προκρι@@ 5908
χάρη 5908
τέκνα 5907
αποτελ@@ 5906
πραγματοποίησε 5906
Διακ@@ 5905
ολοκληρώθηκε 5905
χρονιάς 5904
Ισπανίας 5898
ινό 5898
γραμμές 5897
εση 5897
φά@@ 5888
Του@@ 5887
μεγάλης 5886
αντικείμενο 5885
εχθρ@@ 5884
αρνήθηκε 5882
καμία 5880
αμυν@@ 5879
300 5876
σοβιε@@ 5875
Βασ@@ 5873
Πρω@@ 5873
Κρήτης 5870
μετά@@ 5870
Ν 5868
έτ 5868
ωλ@@ 5867
Δικα@@ 5864
εθνικής 5864
σχολή 5863
ακ 5860
ωνο 5860
θητεία 5859
κέρ@@ 5858
πού@@ 5856
ενέργειας 5855
λαβ@@ 5855
κεν@@ 5854
τηθεί 5854
έλαβαν 5853
εκφρά@@ 5853
ψηλ@@ 5852
μι 5851
φον 5851
τισμού 5850
κοινή 5846
ξεων 5844
ρισε 5844
κού@@ 5842
1928 5841
Σύστημα 5841
βολής 5840
ώνων 5840
ίλ 5839
ανακαλύ@@ 5838
ατομ@@ 5838
Γεωγραφία 5835
οίκ@@ 5831
δαν@@ 5825
Κιν@@ 5822
Κίνα 5820
δων 5817
λίμνη 5817
ρικών 5817
τορα 5815
βαθμούς 5814
υβ@@ 5814
φυσική 5812
τελευταίος 5811
ing 5807
ωμ@@ 5807
φυλακ@@ 5806
πρόταση 5805
δραστηριότητες 5803
ήθελε 5802
σκ 5801
Φω@@ 5797
ευρωπαϊκ@@ 5797
λαϊκ@@ 5796
αιο 5795
ολόκληρη 5794
κίνημα 5792
Πα@@ 5791
ικη 5791
Να@@ 5790
όμενοι 5789
δρόμου 5788
φαν 5787
διορ@@ 5783
σπούδασε 5781
Μαγ@@ 5780
μάχες 5780
ΣΤ 5778
γα 5777
υνση 5777
45 5775
αποδ@@ 5773
κυριαρχία 5773
ιστικού 5770
λι 5769
βασίλειο 5766
προσκ@@ 5766
1947 5764
ούδ@@ 5763
el 5761
Ντε@@ 5759
δραστηριότητα 5758
a@@ 5754
Βο@@ 5753
παρελθόν 5753
χρησιμοποιούν 5753
άλλαξε 5752
βο 5751
βάλλ@@ 5748
ουά 5746
σταθμός 5743
μετακιν@@ 5740
Νικολ@@ 5738
Καναδά 5737
ήλθε 5736
εισβολή 5736
σημερινό 5735
ίκα 5734
καθολ@@ 5734
πρωταθλ@@ 5732
μαγνη@@ 5731
βίντεο 5728
δου@@ 5728
ίνων 5727
συμμετοχές 5727
Ιαπωνία 5724
ατο@@ 5722
Τουρκία 5721
ελε@@ 5721
Αιγ@@ 5720
ούμεν@@ 5720
αδελφή 5715
αξιωματ@@ 5713
πεν@@ 5713
ευσης 5712
άλι 5711
τός 5707
ίσματος 5703
νέος 5702
πολίτες 5702
ατόμων 5700
Πε@@ 5699
βελ@@ 5696
ονα 5696
περαιτέρω 5696
ρικό 5696
διαθέ@@ 5694
καλλιτέχνες 5694
διαφορά 5691
ανίας 5688
χιλιάδες 5688
σου@@ 5686
ισμοί 5683
φέρ@@ 5682
διευ@@ 5679
Αρχαι@@ 5676
διο 5675
άσης 5674
σβ@@ 5674
P 5673
χλ@@ 5670
σιν@@ 5669
ελληνικού 5668
μορ@@ 5667
εκλογ@@ 5661
οξύ 5661
Σοβιετική 5659
αντικείμενα 5659
σαφ@@ 5655
δυν@@ 5653
πολιτικές 5653
αγαπ@@ 5650
άγνω@@ 5648
μευ@@ 5648
περιστ@@ 5645
ακριβ@@ 5642
παίκτης 5642
1948 5641
Αμερικής 5641
σύζυγό 5641
1958 5639
δείχνει 5639
Ισ@@ 5638
Κάθε 5637
Τέλος 5637
κωμ@@ 5637
διεθνή 5632
πτώση 5631
ελευθερ@@ 5630
αρτη@@ 5629
Έκ@@ 5628
Τέ@@ 5623
πρίγκιπα 5622
δικά 5619
κοινων@@ 5619
επαφή 5618
αγωνιστική 5617
κανείς 5613
μεταφορά 5613
Καριέρα 5610
1962 5609
χρώματα 5609
τάξη 5607
Μονή 5606
επανάσταση 5604
συγκεκριμένη 5602
Κρί@@ 5601
ξεκίνησαν 5601
προστ@@ 5600
Που@@ 5599
αύ@@ 5599
σκόπ@@ 5599
1956 5598
Ζαν 5597
ρός 5595
Μυ@@ 5594
Γιώργος 5593
ακού 5593
άτα 5592
Μορ@@ 5591
μοναστήρι 5590
ia 5588
πλοίο 5588
συρ@@ 5587
Αρχι@@ 5586
Πρόκειται 5584
γερμαν@@ 5582
δέ@@ 5582
άτο 5580
Σί@@ 5579
μοναδικό 5577
λεξ@@ 5576
V 5573
γλωσσ@@ 5573
Μπέ@@ 5572
Βου@@ 5571
Ελισάβετ 5570
ήγηση 5569
θαν@@ 5569
Αραβ@@ 5567
διών 5566
συμπερι@@ 5565
Δύο 5564
Λονδίνου 5563
οθε@@ 5563
συνηθ@@ 5562
διότι 5561
ΦΚ 5560
προϊόντα 5559
διώ@@ 5558
Πειραιά 5556
Ουρ@@ 5551
Ακαδημία 5550
διαφορετικά 5547
ορειν@@ 5546
αντιπροσωπ@@ 5544
ενα@@ 5544
ματικές 5536
σεν@@ 5536
ερμηνεία 5534
πίεση 5532
Τουρκ@@ 5531
μάτια 5531
ημένα 5528
αισ@@ 5527
ίκης 5526
κεντρικό 5525
λέει 5525
ούζ@@ 5524
και@@ 5522
Γη 5515
ηθοποι@@ 5515
μού 5515
εύουν 5514
κομμάτια 5514
Φαρ@@ 5512
ίσματα 5512
Ανατολικής 5511
όπουλου 5502
εθνικ@@ 5495
επίπεδα 5495
τήθηκε 5492
g 5490
ραφ@@ 5490
μενη 5487
βιομηχανία 5486
la 5484
εδώ 5483
νεο@@ 5483
Τελ@@ 5482
καταστροφή 5481
Καζ@@ 5479
Σημ@@ 5477
μεγαλύτερες 5474
δεκαετίες 5472
πουλ@@ 5470
ανία 5468
ονες 5466
γερ@@ 5460
δίσκο 5455
τοξ@@ 5455
κατάκτηση 5454
δό@@ 5453
ισσας 5448
πν@@ 5448
μικρές 5446
οικονομικά 5446
ρευ@@ 5444
ίλι@@ 5442
μυθιστόρημα 5442
παθ@@ 5442
ονία 5440
φιλοξεν@@ 5439
Τι@@ 5438
Αυτός 5437
αποκλειστικά 5436
δυτική 5436
l 5432
Σελ@@ 5432
όντα 5432
es 5430
επέ@@ 5429
μεταφέρθηκε 5429
μπα 5429
Μάν@@ 5428
μετονομάστηκε 5423
ρίσει 5422
ινο 5421
μεθυλ@@ 5420
αρχικό 5419
1919 5415
Ομοσπονδία 5415
Στους 5410
αρχίας 5408
ητικές 5407
επόμενα 5406
Υόρκης 5404
δουλειά 5403
πράξη 5403
μόνη 5402
Σοσιαλ@@ 5395
αντίδραση 5394
σιμ@@ 5386
μισό 5385
απλά 5384
ογράφος 5384
ετή 5383
μάλλον 5382
ρούν 5380
ορισμένα 5379
κων 5377
βρά@@ 5376
Τιμ@@ 5373
ιστικές 5372
κείμενο 5369
ρίστηκε 5368
στρα@@ 5365
κάποιος 5362
δοκιμ@@ 5361
1955 5359
Σταυ@@ 5359
ακού@@ 5358
διαγωνισμό 5357
0,@@ 5355
πόλεμος 5349
Πολιτειών 5348
φυσικό 5348
n@@ 5346
Βλ@@ 5346
Σάν@@ 5346
γυναικ@@ 5346
μακριά 5344
ανεξαρτησία 5343
βγ@@ 5343
συγκεκριμένο 5343
Τά@@ 5341
Κρ@@ 5339
άλου 5339
ενότητα 5339
βρεθεί 5337
εξέγερση 5337
ετ 5337
οποίησης 5337
ολοκληρ@@ 5336
πρεσβ@@ 5330
σενάριο 5330
άντ 5329
κατοχή 5328
φύση 5328
1959 5327
κρυ@@ 5325
νά 5325
στασ@@ 5325
επιτε@@ 5324
γερμανική 5321
ακής 5317
Αγγλ@@ 5313
Δημο@@ 5313
άδης 5313
διοικητής 5312
μεσαι@@ 5312
πέτυχε 5309
δραστηρι@@ 5308
μός 5307
ανατολ@@ 5306
σκην@@ 5306
ουδ@@ 5305
επιστρέψει 5303
ασφαλ@@ 5301
ιππ@@ 5300
σιμα 5300
συνδυασμό 5300
3.@@ 5299
επιχειρηματ@@ 5296
καλαθοσφαίρισης 5295
ταχύτητα 5294
ανο@@ 5291
τελευτα@@ 5290
μιν@@ 5289
ούμενη 5289
T 5288
δούκας 5286
θέτει 5283
τοί 5283
βρεταν@@ 5282
Τύ@@ 5281
Βρετανία 5280
σημαν@@ 5280
ενς 5279
ητό 5279
σεως 5279
συνέπεια 5277
1942 5275
άτων 5273
αναφορές 5271
πλήρως 5270
στηρι@@ 5269
γιου 5268
οθωμαν@@ 5268
παλιά 5268
λιθ@@ 5267
— 5265
σταθμό 5261
Κέντρο 5258
Πρωταθλ@@ 5257
Τ 5257
ρίσ@@ 5256
ριών 5254
αξίωμα 5253
φυσικά 5253
βαση 5252
τηλεοπ@@ 5251
Λευκ@@ 5250
φή 5250
μβούργου 5248
οδο 5246
Βά@@ 5245
άνος 5244
ζώνη 5244
ρικής 5242
Κρά@@ 5240
άξ@@ 5240
διεθνής 5240
σειρές 5239
όλης 5234
Ελληνικής 5231
Σπ@@ 5226
αίων 5226
τσο 5225
ρέφ@@ 5224
Βαλκαν@@ 5222
αστικό 5222
αίος 5220
μονάδες 5220
Πρώ@@ 5212
αθλ@@ 5211
ζώα 5211
αποκτήσει 5210
Μακεδονία 5208
κόμης 5206
στρατηγ@@ 5206
εθνικό 5205
κατασκευάστηκε 5205
ref 5203
ηγε@@ 5202
Μαζί 5201
ίς 5201
ποδόσφαιρο 5200
1951 5199
τοποι@@ 5199
Ενότητα 5198
σημαντικ@@ 5198
ακολούθησαν 5197
Χρον@@ 5194
υπόλοιπο 5194
διεκδικ@@ 5193
Στρατού 5191
d@@ 5189
ενι@@ 5188
Ρά@@ 5187
ερς 5186
πλήρη 5186
τωση 5186
τοιχ@@ 5185
Κρατ@@ 5183
κατατά@@ 5183
ιές 5182
Έν@@ 5181
νησ@@ 5181
έμβ@@ 5177
γραφής 5177
1922 5176
ματικής 5176
ληση 5175
απαγορ@@ 5174
Ντέ@@ 5172
κίν@@ 5172
τισμό 5171
σταδιακά 5170
μπά@@ 5169
ΦΕΚ 5168
μεγάλος 5168
Υπουργείο 5166
οικονομία 5166
προσωπικό 5166
δυσ@@ 5165
κλίμα 5165
y@@ 5160
Επανάσταση 5160
πλαίσια 5160
1936 5155
όπουλο 5155
κή@@ 5154
αέρα 5153
βία 5152
μελε@@ 5152
προσωπ@@ 5152
Ακαδημίας 5150
πωλ@@ 5147
ήτη 5146
Γιου@@ 5145
μολ@@ 5143
υπάγεται 5143
k@@ 5141
λιν 5141
οικισμό 5141
τηρ@@ 5141
λίγα 5140
ουσιαστικά 5139
Εθνικού 5138
τροχ@@ 5138
λιά 5137
ότες 5135
ερχ@@ 5134
καλλιτεχν@@ 5134
φυσι@@ 5134
κυβερνη@@ 5131
μείωση 5131
Ρο@@ 5130
δεύ@@ 5130
φοβ@@ 5129
ατιν@@ 5127
κατασκευής 5127
επιβ@@ 5126
άγεται 5122
ίζονταν 5120
αραβ@@ 5120
Καπ@@ 5119
1949 5117
Αυστρίας 5116
βασίζεται 5116
αϊκ@@ 5113
σύγκρουση 5113
ειδών 5112
αστερ@@ 5111
βρίσκονταν 5111
χρησιμοποίησε 5110
Βόρειας 5109
Σ.@@ 5109
ετία 5109
απαρ@@ 5106
γερμανικά 5105
άνων 5104
βραβεία 5104
ντα 5103
όμηση 5103
ρίζονται 5102
αποικ@@ 5100
δά@@ 5100
κατάλ@@ 5099
μέρους 5099
μαθ@@ 5099
Κωνσταντίνου 5098
ανήκουν 5097
ραν 5097
αυλ@@ 5096
επιστημον@@ 5094
επιθέσεις 5087
λογοτεχν@@ 5085
απελευθερ@@ 5084
δυναμ@@ 5084
πανεπιστήμιο 5084
σύζυγο 5084
Κέν@@ 5082
αστικά 5082
σερ@@ 5082
Αίγυπτο 5081
εϊ 5080
προ 5080
b 5078
χτίστηκε 5077
ανέφερε 5074
φέρεται 5073
Μόν@@ 5072
Χι@@ 5072
εγκαταστάθηκε 5072
ολογικές 5072
μετακόμισε 5071
ούμενος 5071
όσα 5069
ίβ@@ 5067
ηκαν 5067
καλλιεργ@@ 5067
μπού@@ 5067
φαλ@@ 5067
Αλλά 5066
Ύ@@ 5065
άρθρο 5065
γκα@@ 5065
1957 5061
Έγινε 5061
ηχογραφ@@ 5060
χα 5059
κρύ@@ 5058
χώρου 5054
μετο@@ 5050
λου@@ 5047
διαν@@ 5046
μαθητές 5046
Ασίας 5045
Κυπ@@ 5043
είσ@@ 5043
Νικόλαος 5039
παρόμοια 5039
Νι@@ 5038
33 5035
Αριστο@@ 5035
φίλ@@ 5034
1938 5033
Μπα@@ 5032
Λουδοβίκος 5030
ταξ@@ 5027
κληρονομ@@ 5026
Κόλ@@ 5025
βραβ@@ 5025
θησαν 5024
καλύτερ@@ 5023
φλ@@ 5022
κάτοικοί 5021
ονομαζόταν 5021
πίνακας 5017
παγκόσμια 5015
πια 5011
γράμματα 5010
Ανατολ@@ 5009
Εθν@@ 5009
θους 5009
Πατρι@@ 5008
διακοσμ@@ 5007
μετέ@@ 5007
βόρ@@ 5004
ανακοινώθηκε 5003
θω@@ 5003
οφείλεται 5003
τησης 5002
λόγος 5000
νίκησε 4998
ίσθηκε 4997
ισμα 4997
πιθανότατα 4997
Μονα@@ 4994
πύργ@@ 4993
ανάπτυξης 4992
αναπτύχθηκε 4992
1952 4991
ιστορική 4989
επιθυμ@@ 4984
βρέθηκαν 4983
κ.ά. 4983
ολόγ@@ 4982
Ισραήλ 4981
γήπεδο 4981
τέθηκε 4981
άζονταν 4980
Πολυ@@ 4979
ημένες 4979
όρα 4979
βασίλισσα 4977
Χ 4975
Νά@@ 4974
ινά 4974
Αττικής 4973
Σερβίας 4973
Φεστιβάλ 4972
πληροφορ@@ 4971
ούρα 4969
τί 4969
ωμένα 4968
ασχολ@@ 4966
Στρατ@@ 4964
M 4963
κοινού 4963
1924 4962
συγκεκρι@@ 4962
πτη@@ 4960
άνθρωπος 4957
αμφι@@ 4955
Αυτές 4949
αριθμ@@ 4940
Αυτά 4938
άδι 4936
πυροβολ@@ 4935
ακά 4934
Σού@@ 4933
ανάκ@@ 4933
δίου 4933
Ζ 4932
άκ 4932
σιδηροδρομ@@ 4932
ελπ@@ 4931
φως 4930
Μπέρ@@ 4928
άσι@@ 4926
μακρο@@ 4926
ντε@@ 4925
Ινστιτούτο 4924
διεξήχθησαν 4924
αποκλει@@ 4922
ευκαιρία 4921
πρώτοι 4920
οποιήθηκε 4919
u 4917
φτάσει 4917
1927 4915
κοντιν@@ 4914
όνος 4914
Απεβίωσε 4913
θή@@ 4913
κοινωνική 4913
συνδέεται 4911
αλι@@ 4909
κατακτήσει 4908
άλλου 4905
ξή 4902
άκα 4900
δουλ@@ 4899
εμπόριο 4898
ευρύτερ@@ 4896
τελει@@ 4896
λεϊ 4895
πρόκειται 4895
άτη 4894
αλο 4894
γρ@@ 4892
γίνονται 4891
Ινδία 4889
μουσείο 4888
επιστ@@ 4886
νας 4885
δεξιά 4884
χαρακτηρίζεται 4883
Μπεν@@ 4882
Ρώμης 4882
έρι@@ 4877
σπίτια 4877
Λιβ@@ 4876
σημαία 4874
400 4873
Σαν@@ 4873
πρι@@ 4872
ντα@@ 4868
μενε 4863
κτη@@ 4862
μνημείο 4862
ΠΑ@@ 4860
έλφ@@ 4860
βασιλείας 4858
όμενης 4856
ετα@@ 4855
κατάστασης 4855
οικογένειά 4855
απελευθέρωση 4854
παγκοσμίως 4854
περιλαμβάνονται 4848
µ@@ 4845
επαναστατ@@ 4845
οδηγεί 4845
τιμές 4843
υποστήριξε 4843
βη@@ 4842
ητο 4842
πλατ@@ 4842
άκια 4841
συγγραφείς 4840
βρήκε 4838
υρό 4837
φορο@@ 4837
λίγες 4835
περισσότερους 4835
λαντ 4834
X@@ 4833
επιτρ@@ 4833
θεν@@ 4830
παλι@@ 4830
ώνται 4830
πέρα 4829
ιστορικός 4828
τίτλους 4828
1953 4827
εκδόθηκε 4827
Ανατολική 4826
Σχολής 4826
άλων 4825
κοινωνία 4824
ποι 4824
εμφ@@ 4822
επιβεβαι@@ 4822
μελέτες 4822
παραδοσιακ@@ 4822
ροφή 4821
συμπεριφορά 4821
κριτικές 4820
χωρήσει 4819
σύμβολο 4818
υκλ@@ 4818
φαινόμενο 4815
υπό@@ 4814
Άρη 4813
Φερ@@ 4813
μόνος 4811
εντολή 4809
παρέχει 4809
οθ@@ 4808
υιοθε@@ 4804
ώδης 4803
ανοικ@@ 4802
Υόρκη 4800
δέχεται 4800
Δημήτριος 4799
ανεξάρτη@@ 4796
ίλα 4795
αναγκάστηκε 4795
1929 4794
ιστορικά 4793
ικος 4791
1954 4789
Μάλ@@ 4788
γάμος 4788
ευρέως 4788
πόλ@@ 4788
διού 4786
προκαλ@@ 4786
G 4784
χωρών 4784
βόρειο 4781
όμενους 4779
Βί@@ 4776
έπεσε 4776
Οικονομ@@ 4773
ήσεως 4773
Αυτοκράτορα 4772
παλαιότερα 4772
N 4770
Αφ@@ 4770
Μπολ@@ 4769
κείμενα 4768
συνδέ@@ 4767
Δυτικής 4763
αρχίζει 4762
γενική 4761
τμήματος 4759
όλ 4759
Όλ@@ 4758
διακή 4758
πλατεία 4758
προστατ@@ 4758
όμενων 4758
Κυκλ@@ 4757
οποιείται 4757
Γκά@@ 4756
ριακή 4756
εμφανίζονται 4754
τίου 4754
1935 4753
άτου 4753
ανατολικό 4753
ρίζουν 4753
μπαν@@ 4751
οκρατ@@ 4751
γαρ@@ 4749
πρόσβαση 4749
ώνιο 4749
κύριος 4748
ευρώ 4747
κρ@@ 4746
τοπο@@ 4741
διακρι@@ 4740
θανάτου 4740
καλύπτει 4739
μοναχ@@ 4739
ιμα 4736
Ροδ@@ 4735
άμ 4735
ημερολόγιο 4735
Βίκ@@ 4734
εκτετα@@ 4734
άνδ@@ 4733
άρων 4732
Δυτική 4729
καλύτερα 4728
παρατ@@ 4728
τοπικό 4728
36 4724
ήφ@@ 4724
διαλύ@@ 4723
χιλιομέτρων 4723
απέκτησαν 4722
ευε 4721
τρας 4719
Άγγλ@@ 4718
συγγραφέα 4718
χορηγ@@ 4717
τισμός 4715
μματα 4714
Νίκος 4711
συνολ@@ 4709
συμμαχ@@ 4708
Λυ@@ 4707
υδρ@@ 4707
ίδι 4706
ενισχύ@@ 4706
Θέ@@ 4705
νόμο 4705
άνεται 4704
θεια 4703
μενος 4702
υποστήρι@@ 4702
Λάν@@ 4700
περν@@ 4699
k 4698
φρου@@ 4698
εκλογή 4697
συνταγ@@ 4697
άμεσα 4696
Άλλες 4695
λίστα 4695
αγώνων 4694
Μιν@@ 4693
ακόλου@@ 4692
όνου 4691
ουσία 4689
αρχαίας 4688
γης 4687
επιχείρηση 4687
θέα 4687
μυθολογία 4686
μοναδική 4685
στούντιο 4685
Γεω@@ 4684
αρχείο 4683
δολοφ@@ 4681
θετο 4681
τίθεται 4681
περιβάλλ@@ 4679
συλλογ@@ 4679
Βουλή 4676
άριος 4676
αγώνας 4676
μεγάλων 4676
Χα@@ 4675
Αξι@@ 4670
τορας 4668
Ρού@@ 4667
i@@ 4666
Γραφ@@ 4666
μονάδα 4666
ιζε 4665
E 4662
συμμετάσχει 4662
Αϊ@@ 4661
Σχ@@ 4661
θεραπ@@ 4661
Σοβιε@@ 4660
υκ@@ 4660
χολ@@ 4660
ελέγχ@@ 4659
δοθεί 4658
Πόλεμος 4657
διαλ@@ 4657
δολοφονία 4657
μαθηματ@@ 4654
ιδιότητες 4653
πτυχ@@ 4653
παίκτες 4652
τως 4652
δημιουργήσει 4650
t@@ 4647
έντονα 4646
περιγράφει 4645
Ευρω@@ 4644
παραγ@@ 4644
c@@ 4643
Τμήμα 4642
αίνοντας 4642
ισμών 4642
έδωσαν 4639
τάξης 4639
εξηγ@@ 4638
Ε.Π.Σ. 4637
Ξεκίνησε 4636
αναγκα@@ 4634
μπ 4634
διαίρεση 4633
σπι@@ 4633
διοργανώσεις 4632
Τεχν@@ 4631
πόδια 4631
τηρίου 4631
διαγ@@ 4630
μνήμη 4630
πρώτους 4630
τέτοια 4629
δημοσίευσε 4628
εξυπηρε@@ 4622
οθέ@@ 4622
αυτοκρατορ@@ 4620
κε@@ 4619
ρίζ@@ 4619
διεθνείς 4618
34 4617
παίζει 4617
Κινηματογράφου 4616
ατμ@@ 4614
δημοτική 4613
ερευνη@@ 4613
Μεγάλ@@ 4611
ιζόταν 4610
Ν. 4609
ηλικίας 4609
1926 4607
ΑΕΚ 4607
όντος 4607
ασμό 4605
ακολουθούν 4604
επαρχίες 4599
τήρια 4598
όνες 4598
Ού@@ 4597
ορκ@@ 4597
Ε. 4595
ρασ@@ 4595
πλήθος 4592
οικονομ@@ 4591
οϊ@@ 4591
ωσ@@ 4591
αιτ@@ 4590
δες 4590
χη 4590
στοιχ@@ 4589
πρόσωπα 4588
είσοδο 4586
χρόνων 4585
42 4584
κινηματογραφ@@ 4584
κύκλο 4584
σού@@ 4583
Χέρ@@ 4580
πολογ@@ 4580
ολοκληρω@@ 4578
αίν@@ 4577
Γιάννης 4576
κατάληψη 4575
πραγματικό 4575
38 4574
Χρησιμ@@ 4572
ούμενο 4572
Καλλι@@ 4571
επέκταση 4571
Κάστρο 4567
μής 4565
ποντας 4562
χλμ 4562
γινόταν 4561
Μέσα 4560
Σύνταγμα 4559
άνοιξε 4557
ανάλυση 4557
Λα 4556
Κυβερν@@ 4554
γενν@@ 4554
h 4552
Αιγύπτου 4552
βασικό 4551
ευγεν@@ 4551
βαθ@@ 4549
καλή 4549
θεωρούνται 4548
συνθήκη 4546
0@@ 4540
διαφόρων 4540
χρήματα 4539
αμφ@@ 4538
εβραϊκ@@ 4538
ικανότητα 4536
μικρότερο 4536
νεφ@@ 4535
Τοπ@@ 4531
Ιστορικό 4530
εβδομάδες 4529
ντι 4525
οποιαδήποτε 4525
λαχ@@ 4524
Στάδιο 4523
Τί@@ 4523
2η 4522
περιόδους 4522
άδεια 4521
αρχος 4519
γεωργ@@ 4519
1933 4518
Ολλανδ@@ 4518
σεν 4518
στρια 4518
Τζέιμς 4517
άριο 4516
αίες 4516
απειλ@@ 4516
Γενικά 4514
πολύ@@ 4514
ελεύθερ@@ 4513
πρόεδρο 4513
ασχολήθηκε 4512
μά 4511
Επιστ@@ 4510
καρδι@@ 4510
καταλ@@ 4509
αμά@@ 4507
πολλαπλ@@ 4507
τημα 4507
Ουγγαρίας 4506
Αβ@@ 4505
Ιδρύθηκε 4505
θεσης 4505
βέρ@@ 4504
μελλον@@ 4504
ωδία 4504
Θέατρο 4502
Κωνσταντινούπολης 4502
m@@ 4501
ιαπ@@ 4501
αρχιτεκτονική 4500
θει@@ 4500
Εγ@@ 4499
Υπάρχει 4499
όσον 4498
Ντου@@ 4497
αμ 4497
μεγαλύτερα 4496
οικισμού 4495
ηπ@@ 4494
τόμ@@ 4493
c 4492
δείξει 4492
αυστη@@ 4489
γραφική 4489
ισμένα 4489
64 4488
στάση 4488
Ρόμπερτ 4487
θαλ@@ 4487
ποταμός 4487
γλυκ@@ 4483
μαθη@@ 4483
πρακ@@ 4482
άφησε 4481
ίοι 4481
απεικον@@ 4480
αυτοκράτορας 4480
εταιρείες 4480
Αθλη@@ 4479
1934 4478
Ρέ@@ 4478
μυθιστορ@@ 4478
μητέρας 4477
άνουν 4475
οειδή 4475
υποψήφιος 4475
-- 4472
διαδοχ@@ 4471
υπήρξαν 4471
όπο@@ 4471
σταση 4470
Αφρικής 4469
περιορι@@ 4468
χρονολογείται 4468
b@@ 4466
Καρόλου 4465
τηλεοπτική 4465
ποτά@@ 4464
λειτουργίας 4462
αντίπαλ@@ 4461
ότεροι 4461
φέρουν 4460
Ευρωπαϊκή 4459
Παρισιού 4459
δημοσιεύ@@ 4458
μεί@@ 4458
1937 4455
νησι@@ 4453
πλού@@ 4452
έλεγ@@ 4450
εννέα 4450
φτι@@ 4450
χέρι 4449
χρησιμοποι@@ 4449
αποτελεσ@@ 4448
πακ@@ 4447
Περσ@@ 4446
φος 4446
πολιτικών 4445
γράφτηκε 4443
γλυπ@@ 4441
φαντα@@ 4441
παραμ@@ 4439
στηκαν 4439
στήρια 4438
κ.α. 4437
διαστ@@ 4435
r 4434
Μητρο@@ 4434
εύσει 4433
ζωγράφος 4433
j@@ 4432
μαθήματα 4431
πώς 4431
επιτρέπει 4428
ιακές 4427
δήποτε 4426
Πύργ@@ 4425
Συνολικά 4424
αναλάβει 4424
δίσκος 4424
όργανα 4422
Αυστραλία 4420
στολ@@ 4420
1923 4419
όλου 4418
αναφερ@@ 4417
ιδών 4417
U 4416
κεφάλι 4416
φωτο@@ 4416
άδια 4415
ηλεκτρο@@ 4413
Αχαΐας 4412
βιβλιο@@ 4411
Ελευθερ@@ 4409
έντονη 4409
Καλλ@@ 4408
πρότεινε 4408
at 4406
βιβλιοθήκη 4405
κίνδυνο 4405
παραστάσεις 4405
μπορ@@ 4404
δας 4403
μάρ@@ 4403
πληρω@@ 4403
Σέρβ@@ 4402
ακτές 4401
εκτέλεση 4398
αξιωματού@@ 4396
εύκολα 4395
λατιν@@ 4395
φάν@@ 4391
37 4390
1932 4389
ίκο 4389
αιώνες 4389
ότου 4388
ίκων 4387
ενέργειες 4387
ιδιαίτερη 4386
Πολλοί 4385
αρίου 4385
πολιορκία 4385
Κί@@ 4384
προπονητή 4384
Εύ@@ 4383
g@@ 4379
ωμένος 4379
Ολυμπιακό 4378
δολοφον@@ 4378
κατεύθυνση 4378
ομώνυμο 4377
Ούγ@@ 4376
https 4375
χαρακτήρες 4375
f 4374
Σύν@@ 4374
δέχ@@ 4372
φωτός 4372
λια 4371
ριά 4371
υπόλοιπα 4371
αθλητές 4368
μπάσκετ 4366
εκκλησίας 4365
έθ@@ 4364
προγράμματος 4364
Κρήτη 4363
ημένος 4363
έλι@@ 4362
μπαρ@@ 4359
στιγ@@ 4358
όφιλ@@ 4358
Χίτλερ 4357
ηπειρω@@ 4357
όπλων 4356
Όσ@@ 4354
Αμερικανός 4354
πυρην@@ 4353
Τεχνών 4351
Τορ@@ 4351
Ειδ@@ 4350
55 4349
ητα 4349
4.@@ 4348
κάλ@@ 4348
καθημερ@@ 4348
Γερμανοί 4347
Ερρίκου 4347
εκτελε@@ 4347
τραγουδ@@ 4347
παρο@@ 4346
ταξίδι 4346
τουριστ@@ 4346
ανών 4344
εγκαταστάσεις 4344
κτίρια 4344
p@@ 4343
παραιτήθηκε 4343
λάβ@@ 4342
πολιτικά 4342
βασιλική 4341
συμπεριλαμβ@@ 4341
οσία 4340
δίσκου 4338
χώρους 4338
κέντρα 4337
σοσιαλ@@ 4337
θλ@@ 4335
φήμη 4335
δίκη 4334
αναγνώριση 4333
κάν@@ 4333
Καμπ@@ 4332
Μιχ@@ 4331
αρχο 4331
λαμβάνοντας 4331
‘ 4331
συνεισ@@ 4330
en 4328
τέτοιο 4327
ημερομηνία 4325
οικοδομ@@ 4324
ομορφ@@ 4323
ητήριο 4321
μαρτυ@@ 4321
ουσίας 4320
βολές 4318
εγκαταστάθηκαν 4317
Φίλιππος 4316
στυλ 4316
προηγούμεν@@ 4315
Εν 4314
άτι 4312
επικεντρ@@ 4311
μικρ@@ 4311
Ίν@@ 4310
Οδ@@ 4309
κανένα 4308
μπεργκ 4307
Βουλγαρία 4306
ισμένος 4306
μεν 4305
1917 4304
καταρ@@ 4304
Κέ@@ 4302
βοηθήσει 4302
εξέ@@ 4297
αρχαί@@ 4296
θάλασσας 4296
ένιο 4294
κατέλαβαν 4294
Κουρ@@ 4293
μοιρά@@ 4288
Υ 4287
τουργ@@ 4287
πει@@ 4285
πού 4285
1925 4283
Πολεμ@@ 4280
γερμ. 4280
ριακό 4280
κυπ@@ 4279
Στά@@ 4278
υγείας 4278
προκρί@@ 4277
Τερ@@ 4276
ρεί 4276
Γκι@@ 4275
στοιχείων 4275
πατρι@@ 4274
65 4273
Συνθήκη 4272
προσφέρει 4272
Ορισ@@ 4271
ιστικών 4270
Πτολεμα@@ 4269
στηκε 4269
εύθηκε 4268
άμεση 4267
Λουδοβίκου 4266
ακτή 4266
όμενου 4266
σα@@ 4264
Σερβ@@ 4263
ανθρωπ@@ 4263
κοινότητες 4263
Κόν@@ 4261
αρχαιότητα 4259
πλούσια 4259
ρίζοντας 4259
Διαδ@@ 4257
προέρχονται 4257
σφαίρισης 4257
γων@@ 4255
επανα@@ 4255
περιοδεία 4255
Μεν@@ 4254
Ο.@@ 4254
ητικής 4252
φυλάκ@@ 4252
βοήθησε 4251
εγκλ@@ 4251
γραμματ@@ 4249
μικρότερη 4249
ονομάζονται 4248
ραδιοφ@@ 4247
τριες 4247
ιμη 4245
Ελληνικό 4244
μεταφρά@@ 4244
εντελώς 4243
συμμετέχει 4243
πίνακες 4240
τραγ@@ 4240
νύ@@ 4239
ανάγκη 4238
μπερτ 4238
ήθ@@ 4235
ωνικής 4235
συμπεριλαμβανομένου 4234
απόψεις 4231
ύς 4231
Γ. 4230
ήχθη 4229
ιατρική 4229
μειον@@ 4229
οβιτς 4225
πετρ@@ 4225
επιτροπή 4224
Παναγ@@ 4223
πόλεων 4223
Y@@ 4222
νι 4222
τρου 4222
σμοί 4220
Αθη@@ 4219
στερε@@ 4219
εκείνος 4218
οδήγησαν 4218
γιους 4217
μεταβλ@@ 4217
ουσίες 4216
ϋ 4216
στρω@@ 4215
Αλ 4213
τεκ@@ 4213
ναύ@@ 4212
οσύνης 4212
ιων 4211
πάν@@ 4210
Παρα@@ 4208
επεισόδιο 4208
παράσταση 4208
Λίγο 4207
γράφεται 4207
σύλλογο 4206
άκρο 4205
σχεδιασ@@ 4204
Κεντρική 4203
κύπελλο 4201
ουσες 4201
Πολιτική 4200
θν@@ 4200
Επειδή 4199
υπέστη 4199
άνδρα 4198
ιδιοκτή@@ 4198
τηλεόραση 4197
52 4196
ίτσα 4196
Χαλκ@@ 4195
επίσημο 4194
κρε@@ 4192
κυνηγ@@ 4191
θέλ@@ 4190
Γεωργ@@ 4189
αυλή 4188
δίν@@ 4188
νου@@ 4188
ακαδημαϊκ@@ 4187
φαρ@@ 4187
Γης 4186
κατο@@ 4185
Σαιν 4184
τελευταίες 4182
υλικά 4181
δ 4180
έγιο 4179
περιέχουν 4178
Κομμουν@@ 4177
σταϊν 4176
στροφ@@ 4176
εναλλακ@@ 4174
ποικιλία 4172
πρακτική 4171
στε 4170
πυρο@@ 4169
Βραβεία 4168
όντ@@ 4168
75 4167
τετρα@@ 4167
ήτης 4166
γραπ@@ 4166
παρουσίασε 4165
Αθηνα@@ 4164
πατρίδα 4163
1914 4162
καθιστώντας 4162
λιου 4162
αγγελ@@ 4160
08 4159
ΕΠ@@ 4157
έργ@@ 4157
έσεις 4157
Βολ@@ 4152
εξοπλ@@ 4151
Πεν@@ 4149
έλλειψη 4149
48 4146
Μάλιστα 4145
φη 4145
Γουλιέλμος 4144
στρατόπεδο 4144
τω 4144
κάρ@@ 4143
παρασκευ@@ 4143
όφων@@ 4143
Πασ@@ 4141
θια 4141
ουραν@@ 4141
ούμενα 4140
συμβούλιο 4139
άδη 4138
ρές 4137
κόσ@@ 4136
Συγκεκριμένα 4135
ήριο 4135
πειρα@@ 4135
ητικού 4134
ιδίως 4133
κύτταρα 4133
ογραφικό 4132
ρια 4132
διαμέρισμα 4130
ερευν@@ 4130
ταρα@@ 4130
x@@ 4129
πασ@@ 4128
ἐ@@ 4128
στασης 4125
μαχία 4123
οικο@@ 4122
μετανα@@ 4121
νότιο 4121
αια 4120
προέδρου 4119
Σ. 4118
εκπαίδευσης 4118
ωνας 4116
μπήκε 4115
χειρ@@ 4115
Δανίας 4114
σπάνια 4114
εξέδωσε 4111
ς.@@ 4111
χυ@@ 4111
ημο 4110
σκηνές 4109
κρίση 4108
Έδρα 4107
Επισ@@ 4107
γραφεί 4107
K 4105
διάφορους 4105
δαλ@@ 4104
εργάζεται 4100
εξουσίας 4099
πράξεις 4098
Eurovision 4096
Περιφέρεια 4095
μικρός 4095
αιώνας 4094
επιφαν@@ 4094
σεβ@@ 4093
Εταιρείας 4092
προγράμματα 4091
στρατηγός 4091
άσθηκε 4090
Τζό@@ 4089
ύρω@@ 4089
Γάλλος 4088
εως 4088
πολέμ@@ 4088
ποδοσφαιρική 4087
χλω@@ 4086
Βελ@@ 4084
Μπό@@ 4084
εχθ@@ 4084
σχετίζεται 4083
έδρ@@ 4081
υψηλή 4081
βουλευτικές 4080
φυλακή 4078
Σερβία 4077
ακών 4077
θεωρήθηκε 4073
ροσ@@ 4073
ταινιών 4073
υποστηρίζει 4073
La 4072
αστές 4071
εμπορική 4070
Ιερουσαλήμ 4068
εκπομπή 4068
ορισ@@ 4068
σχολεία 4068
βρει 4067
οσι@@ 4067
μουσικό 4066
τίνα 4066
χρήσης 4066
διοργάνωσης 4065
κληρονόμ@@ 4063
κυβ@@ 4061
βας 4059
θανά@@ 4057
τούτου 4055
άλας 4054
έθν@@ 4053
στικός 4051
Οθωμαν@@ 4050
απόσ@@ 4050
διάδοχος 4050
τουν 4048
φτάνει 4048
κτήριο 4047
πληθ@@ 4047
τρόπος 4047
διάσημ@@ 4045
καριέρας 4045
μπα@@ 4045
συμβαίνει 4045
ανθρω@@ 4044
Μαρίας 4043
Οικ@@ 4043
Al@@ 4042
Μασ@@ 4041
Επαρχία 4038
μετε@@ 4035
τρέ@@ 4033
νήσ@@ 4031
εισαγωγή 4030
απόδοση 4029
μου@@ 4029
νέας 4028
τέλε@@ 4028
Κυβέρνηση 4027
ώδες 4025
Κεντρικής 4024
Παι@@ 4024
συνθέ@@ 4024
αναγνώ@@ 4023
δέκα@@ 4023
Ιωαννίνων 4022
μητρο@@ 4022
στος 4020
ερείπια 4019
Τούρκους 4018
ασμός 4018
Σιν@@ 4017
μερ 4017
προετοιμ@@ 4017
Μπάρ@@ 4015
κατάλληλ@@ 4015
ολο@@ 4014
γεωγραφ@@ 4013
Αυγ@@ 4012
έπεται 4012
απόλυτο 4011
μπλ@@ 4011
γραφία 4010
εκπροσωπ@@ 4010
ύπ@@ 4010
39 4009
τιμήν 4009
χρόν@@ 4008
πρόσφ@@ 4007
άνονται 4006
τραγουδιού 4006
5.@@ 4005
New 4005
δοχ@@ 4003
εργαζ@@ 4003
λογική 4003
Ar@@ 4002
Βασιλιά 3999
Μπαλ@@ 3999
τέταρτη 3999
ευτεί 3997
δία 3995
Πέτρος 3994
Τζι@@ 3994
Χαν@@ 3994
αρντ 3994
άλλος 3992
έρτο 3992
Νικολάου 3991
προσδι@@ 3991
Κοινοβούλιο 3990
ίτσ@@ 3989
στήριο 3989
19ο 3987
z@@ 3987
πάρ@@ 3986
Δομ@@ 3985
ροπ@@ 3985
οπαδ@@ 3984
άσα 3983
αξιοσημείω@@ 3983
δείχνουν 3983
γν@@ 3982
ορφ@@ 3981
ήν 3980
ήρια 3979
1913 3978
1931 3978
βασιλείου 3978
χε 3978
ίδιας 3977
ρισμός 3977
όμου 3977
Σοβιετικής 3975
πολιορκ@@ 3974
πη 3973
τουρνουά 3973
συνολικό 3972
Θ 3971
Ματ@@ 3970
Νότιας 3969
Σοφία 3969
Φραγκ@@ 3969
αγόρ@@ 3968
τουρκική 3968
ήσιο 3967
ούντα 3967
νηση 3965
ρίδα 3965
όφ 3965
ανικά 3964
εδάφους 3964
παράγει 3964
χειμώνα 3964
κόμματα 3962
ριες 3962
παράγοντες 3961
άντρες 3960
αλυσ@@ 3960
Τρο@@ 3959
εκτιμάται 3959
σκοτώθηκε 3959
0.000 3958
44 3958
ιερό 3958
κανάλι 3956
όπλα 3956
όργανο 3956
Βιβλιοθήκη 3955
γραμμής 3955
μένει 3955
αγγέλ@@ 3954
δράσης 3954
Αδ@@ 3953
πτει 3953
τέτο@@ 3951
ακές 3948
πρίγκιπας 3948
παράνομ@@ 3946
περιοχών 3945
Αποτελεί 3944
ριακής 3942
Κόμ@@ 3937
μων 3937
θέσης 3936
ιδέες 3936
Αυστρία 3935
λιν@@ 3935
σταθμ@@ 3935
ωνίου 3935
Πρέ@@ 3933
φεστιβάλ 3932
λαμβάνουν 3931
εκείνο 3930
ξεκινήσει 3930
Αζ@@ 3929
χάρι@@ 3929
βραχ@@ 3928
κυριαρχ@@ 3928
κ. 3927
μενο 3927
τορ 3927
Επίσ@@ 3926
ευτική 3926
Χό@@ 3925
κάτο@@ 3925
εκδηλώσεις 3923
ορισμός 3922
μπαλ@@ 3921
Διεθνές 3919
Μίλ@@ 3918
άγει 3918
Λατιν@@ 3916
φαγ@@ 3916
όχου 3916
Ομοσπονδίας 3915
γει@@ 3914
πιθανόν 3913
άνοιξη 3912
αποχώρησε 3910
συμμετέχουν 3910
Γκλ@@ 3909
νύχτα 3909
Φορ@@ 3908
σιακ@@ 3908
συμμάχ@@ 3908
διαμαρτυ@@ 3907
επιστολή 3907
τέρου 3907
γέφυρα 3906
όρε@@ 3904
Μετ@@ 3903
μνημ@@ 3903
Αί@@ 3902
ίστα 3902
έχουμε 3901
αστεροειδής 3901
ισχύ 3901
άζ 3900
di 3899
ατη 3899
Δημοκρατ@@ 3898
θρησκεία 3897
Κώστας 3895
αστής 3895
κυκλοφόρησαν 3894
Καθολ@@ 3893
άγκ@@ 3893
βλέ@@ 3893
χους 3893
ποιητής 3892
1,@@ 3891
Δω@@ 3891
θησης 3890
πελ@@ 3889
ικες 3888
ύσ@@ 3887
Νο@@ 3886
Τόμας 3885
μόνιμ@@ 3885
Αυστ@@ 3884
περιελάμβανε 3884
ωθούν 3884
γά@@ 3883
διω@@ 3883
μέθοδος 3883
ξεχωριστ@@ 3883
έπαι@@ 3882
ιστορ@@ 3882
λογαριασμό 3882
γκεν 3881
ζευγάρι 3881
Στρατιω@@ 3880
62 3879
έλθει 3879
Τουρκίας 3878
Τε@@ 3877
διαδρομή 3877
ιάν@@ 3877
54 3876
ζυγ@@ 3876
οικισμούς 3876
τεράστια 3876
χεί@@ 3876
γνωστές 3875
χρή@@ 3875
Ρα@@ 3874
βάσει 3874
Εκλογ@@ 3873
Παγ@@ 3873
προκαλεί 3871
επικοινων@@ 3870
ρισμό 3870
ελί@@ 3869
επιτρέ@@ 3869
γεννη@@ 3868
δεί@@ 3868
βασιλεία 3866
έφτασαν 3864
υψηλής 3864
ανώτα@@ 3861
τισαν 3861
Ευρωπαϊκής 3859
θήκες 3859
ανάγκες 3858
επάνω 3858
τιν 3858
κλιν@@ 3857
ορά 3857
αναλ@@ 3856
γκλ@@ 3856
ελέγχου 3856
σκόρερ 3856
λέγ@@ 3855
χειρουργ@@ 3855
Πρωταθλήματος 3854
άντο 3852
συμμαχία 3852
συνεδ@@ 3852
Αλβαν@@ 3848
ίκ 3848
αίρε@@ 3848
πλευρές 3848
όντο 3848
ντόπ@@ 3846
τυπο@@ 3845
ραδι@@ 3844
σχετίζονται 3843
φρούριο 3843
ρισαν 3842
σύμβουλος 3841
ποί@@ 3838
σύζυγός 3838
56 3837
δελ@@ 3837
προτιμ@@ 3837
Βουλής 3836
Χόλ@@ 3835
μοι@@ 3834
Μόσχα 3833
αντιδράσεις 3833
ιον@@ 3833
Αδρι@@ 3832
βίας 3832
μεγέθους 3832
νομοθε@@ 3832
προώθηση 3832
r@@ 3831
διέταξε 3831
ενεργό 3831
ομένων 3831
προστά@@ 3830
χτισ@@ 3830
δίσ@@ 3828
πράγμα 3828
τούνται 3826
Ρε@@ 3825
ισχυρή 3824
σις 3824
νόμου 3823
προσέγγιση 3822
Βάλ@@ 3821
φόρο 3820
Ευρ@@ 3819
ποιν@@ 3819
1900 3818
Μ. 3818
Γερμανούς 3817
επιχειρ@@ 3817
σελίδα 3816
σώματα 3816
τεχνικές 3816
ατσ@@ 3815
Επιστημών 3812
έλος 3812
00 3810
όνης 3809
Λακ@@ 3808
γμα 3808
μοντέλα 3808
άτης 3807
επίσημ@@ 3807
ασίες 3806
λαμ@@ 3805
περιοδ@@ 3805
Ανατολή 3804
επαρχ@@ 3804
Λος 3802
συντά@@ 3802
en@@ 3801
Φυσικά 3801
άνθρωπο 3801
επιτυχίες 3800
Υπουργός 3799
φιλοσοφία 3799
αζόταν 3798
έλι 3797
παιχνιδιού 3797
Ch@@ 3795
διαγων@@ 3795
Λίγ@@ 3792
απώλεια 3791
εκκλησίες 3791
παραδοσιακά 3791
ταφ@@ 3791
δρόμους 3789
συνεχώς 3789
χοι 3789
Λαμ@@ 3788
διαπ@@ 3788
προσοχή 3788
συστη@@ 3788
Παντρεύτηκε 3787
μπρ@@ 3787
αποκτ@@ 3786
νωρίτερα 3786
νερ 3785
ποσ@@ 3785
47 3784
43 3783
εκλογών 3782
μητ@@ 3782
πρά@@ 3782
πρόσφατα 3781
Ανδρέα 3780
εξαφαν@@ 3780
Ερυ@@ 3779
άται 3778
θι@@ 3777
ορχή@@ 3777
απογ@@ 3776
απορρί@@ 3776
ασμένο 3776
τροποποι@@ 3775
αντίσταση 3773
ασμένη 3772
προηγούμενη 3772
οειδ@@ 3771
επιφάν@@ 3769
οκα@@ 3769
Ρωμαϊκή 3768
ήσι@@ 3768
νοτιοδυτικά 3768
ρικ@@ 3768
Ιατρ@@ 3767
95 3765
δείκ@@ 3765
ότερων 3765
ar 3760
z 3760
Re@@ 3759
κατοικία 3759
φρα@@ 3759
Ελληνικού 3757
Κόσ@@ 3757
ετερ@@ 3756
πυκν@@ 3756
Διετέλεσε 3755
Επικ@@ 3755
ωνι@@ 3755
Δημήτρης 3754
ίως 3754
ελά@@ 3754
Εταιρεία 3752
κατηγορ@@ 3752
Ιστορικά 3751
κάποιον 3751
όνιο 3750
ελαφ@@ 3749
παίρνει 3749
φοιτη@@ 3749
περάσει 3748
μισθ@@ 3747
φορντ 3747
ενώσεις 3746
ρόλους 3746
στικού 3746
l@@ 3745
Έργ@@ 3745
βορειοδυτικά 3745
Ρωμαϊκής 3744
Μεγάλου 3743
άση 3743
εξαίρεση 3743
θημα 3743
καταστροφ@@ 3743
άνδρας 3740
τσας 3740
κοιλάδα 3739
Δρά@@ 3738
Δημοτικό 3737
ολογικής 3737
αντά 3736
συνελήφθη 3736
Δί@@ 3735
Χω@@ 3735
εικόνες 3735
3η 3734
ΙΙ 3734
Μόσχας 3734
άου 3733
κανόνες 3733
μπλε 3733
προϊόντων 3733
Ανακαλύφθηκε 3731
επιγραφή 3731
επιστημονική 3731
άνθ@@ 3730
γραφο 3730
δεικ@@ 3730
ακου@@ 3728
πιθανό 3728
ψευδ@@ 3727
Ζώνης 3726
νεύ@@ 3725
αρχών 3724
ισπαν@@ 3724
αντίστοιχ@@ 3722
στρα 3722
41 3721
Ακόμη 3721
ετές 3721
συνοικία 3721
τζι 3721
ομοσπον@@ 3719
1921 3718
άγου 3717
βορειο@@ 3717
ίλλ@@ 3715
υρο 3715
προσθήκη 3712
κόκκινο 3709
καύ@@ 3708
αντικ@@ 3707
Κλε@@ 3706
έλευσης 3706
χαν 3706
Κ.@@ 3705
πλάτος 3705
κυβερνήτης 3704
σκηνοθέτης 3704
άρης 3701
κερδίζοντας 3701
Γκρ@@ 3699
Εκείνη 3699
Εξωτερικών 3699
βασική 3698
βουλγαρ@@ 3697
er@@ 3696
ηττήθηκε 3696
δασ@@ 3694
παγκόσμιο 3694
βε@@ 3692
Πομ@@ 3691
απόφ@@ 3691
League 3690
έστερ@@ 3690
μητρ@@ 3690
κει@@ 3689
μεγάλωσε 3687
στόχ@@ 3686
τ.χλμ. 3686
Νυμφεύτηκε 3685
κοιλ@@ 3685
λογοτεχνία 3685
αυτοκρατορίας 3684
Δεύ@@ 3682
άλυ@@ 3682
ταξε 3682
Θεωρείται 3681
δορυφ@@ 3681
μιο 3681
f@@ 3679
γενιά 3679
ευρήματα 3679
Μεγάλο 3677
Τουρκο@@ 3676
αντικαταστάθηκε 3676
διαρκ@@ 3676
εθνικές 3676
Φράν@@ 3675
έρευνες 3675
Πάρ@@ 3674
ευνο@@ 3674
ματικών 3674
Επανάστασης 3672
Ουγγαρία 3672
λύση 3672
μέτα@@ 3672
γένος 3671
εκτιμ@@ 3671
τραπεζ@@ 3671
εγκατέλειψε 3669
Μπρά@@ 3668
Παπαδ@@ 3668
Πρωτο@@ 3668
for 3667
άσια 3667
δυτικό 3667
χου 3667
ένοπλ@@ 3666
πωλήσεις 3666
Οίκου 3665
έληξε 3665
δισκ@@ 3665
μπο 3665
ατικής 3664
θεσμ@@ 3664
νους 3664
ρόλος 3662
Πλά@@ 3660
αινε 3660
τεσσάρων 3660
τιση 3660
Αντίθετα 3658
εβιτς 3657
τόν@@ 3657
καταναλ@@ 3655
Ηπείρου 3654
Ταρ@@ 3654
ήλ 3654
μορφω@@ 3654
Κόρ@@ 3653
καθορ@@ 3653
ροφής 3653
συνολική 3653
Αλέ@@ 3651
Π. 3651
ασπ@@ 3651
Ρωσ@@ 3650
ειπ@@ 3650
ζήτημα 3649
ύφος 3649
ανέβηκε 3648
φα 3648
72 3647
Πειραιώς 3647
Σουηδία 3647
or 3646
κάνοντας 3646
πισ@@ 3646
Μπρο@@ 3645
Προσ@@ 3645
ήνη 3645
τοπικές 3645
ακτ@@ 3644
μεγαλύτερ@@ 3644
ογραφίας 3644
οια 3644
γματος 3640
Άλλα 3638
τερα 3638
Φρειδερίκος 3637
ηματική 3637
Ηλιακό 3635
τομείς 3635
απόκ@@ 3634
ωτικό 3634
φημ@@ 3633
χρονη 3633
μέτρηση 3631
μείνει 3630
οφόρ@@ 3629
στά 3628
ότζ@@ 3628
επεισόδια 3627
είχ@@ 3626
εδρ@@ 3626
20ού 3625
τερη 3625
υπερβολ@@ 3625
δήμ@@ 3624
θέρ@@ 3624
κυπέλλου 3624
Εθνών 3623
Χατζ@@ 3623
επέτρεψε 3623
κύρι@@ 3623
διαχει@@ 3622
ναζ@@ 3622
στήρι@@ 3622
as 3619
συνέβη 3619
Καθ@@ 3618
57 3617
Βορ@@ 3617
ώπ@@ 3617
δεχ@@ 3616
αποτελούσαν 3615
δικές 3615
ωμένες 3615
600 3614
Τζέ@@ 3613
γαμ@@ 3613
καταστράφηκε 3613
έθεσε 3612
ίλι 3612
ειδική 3612
ειρήνη 3612
κατάφεραν 3612
II 3611
ναϊκ@@ 3611
Έλ@@ 3610
Ανδρέας 3610
Μηχαν@@ 3610
μετάφραση 3609
διατηρεί 3608
εγκαταλεί@@ 3608
βιβλίων 3607
έβαλαν 3606
επισκέπ@@ 3606
χρη@@ 3606
Παρόλο 3605
λέξεις 3604
πήραν 3604
άμου 3603
δημοφιλ@@ 3603
λεηλ@@ 3603
σύγκριση 3603
πρότυπο 3602
λις 3600
46 3599
Καταλ@@ 3598
βορειοανατολικά 3598
εργασ@@ 3598
σύμπ@@ 3598
κινηματογράφου 3597
δικτύου 3596
Ματθ@@ 3595
αίθουσα 3595
πεπ@@ 3595
ατικά 3594
οσκ@@ 3594
Βερολίνο 3592
παρόλο 3592
Θάλασσα 3591
εγγ@@ 3591
ολοκλήρωσε 3591
67 3590
έντο 3590
υπηρέ@@ 3590
δίνοντας 3589
νοσ@@ 3589
βιβ@@ 3588
κόμβ@@ 3588
Σαβ@@ 3587
παρουσιάστηκε 3585
βάλ@@ 3584
ομαδ@@ 3584
συνεργάστηκε 3584
απλώς 3583
ξεκιν@@ 3582
on@@ 3581
αρμ@@ 3581
πλήρω@@ 3581
χερσ@@ 3581
Οργαν@@ 3580
ήσι 3580
γρα@@ 3580
ψήφων 3580
όδων 3580
Σαξονίας 3579
μετατρ@@ 3579
στόχος 3579
ήλθαν 3578
παρατήρ@@ 3578
ανθρώπιν@@ 3577
συμπεριλαμβανομένης 3577
24@@ 3576
αυτόνομ@@ 3576
όρισε 3576
πεντα@@ 3575
γεννημένος 3574
παραγωγός 3574
πλευ@@ 3574
Αλφόν@@ 3572
Σκο@@ 3572
ολόκληρο 3572
ταξη 3571
κουζ@@ 3570
αναφέρουν 3569
Αμφ@@ 3568
Καρλ@@ 3568
εβδομάδα 3567
1910 3565
λευκό 3565
νυ@@ 3565
Κίνας 3564
αγγλική 3564
νοτιοανατολικά 3564
Βενετία 3563
ευρύτερη 3563
νοσοκομείο 3562
Διεθνούς 3561
ανε 3560
έκρινε 3559
λεί@@ 3559
συνάρτηση 3559
πέρασμα 3558
παιδιών 3558
Γρηγ@@ 3557
εκμεταλλ@@ 3557
εποχών 3557
καταλάβει 3557
ειλ@@ 3556
περ 3555
απόγον@@ 3554
μονής 3554
πλανήτη 3554
Records 3551
αιτία 3551
αυτ@@ 3551
σαλ@@ 3550
συγγραφ@@ 3550
Αντρ@@ 3549
Καρλ 3549
ειρα 3549
εξω@@ 3549
ριμπάουντ 3549
σες 3549
ραι@@ 3548
ύρων 3548
εντα@@ 3547
ολόγηση 3547
ροκ 3547
μορι@@ 3546
αμερικανική 3544
le 3543
οντος 3543
Σουηδίας 3542
ΕΕ 3541
συμμετοχής 3541
16@@ 3540
φωνή 3540
Σέρ@@ 3539
διοικητικά 3539
πρώτων 3539
v@@ 3538
Α.Ο. 3537
ανα 3537
αυτοκίνητο 3537
κάστρου 3537
ισσα 3536
διαμορφ@@ 3535
Βασίλ@@ 3534
ΕΛ 3534
ζώων 3533
Μαυ@@ 3532
εται@@ 3532
Περιγραφή 3531
οπά@@ 3531
Μάικλ 3529
γκου@@ 3529
αληθ@@ 3528
αντέ@@ 3527
ασφάλεια 3527
πόρ@@ 3527
δακ@@ 3526
συνδεδε@@ 3526
59 3525
πρεμιέρα 3525
73 3524
Οθωμανική 3524
θου@@ 3523
χτ@@ 3523
αξίας 3521
ται@@ 3521
ούλα 3520
πετ@@ 3519
συνασπ@@ 3519
γη@@ 3516
επικρατ@@ 3516
πραγματοποιήθηκαν 3516
τάση 3514
τιδας 3514
ικου 3512
συνέχ@@ 3512
63 3511
ρώ@@ 3511
άγονται 3510
καθιερ@@ 3509
ούχος 3508
τάρ 3507
15@@ 3506
αποδίδ@@ 3506
ψία 3506
Γεώργιο 3504
Καλιφόρνια 3504
ανώτερ@@ 3504
Βιέννη 3503
εταιρία 3503
ξεκινά 3503
Συγκ@@ 3501
λιών 3501
προφ@@ 3500
ότα 3500
συγγεν@@ 3499
έψει 3498
αριστοκρατ@@ 3498
ύμν@@ 3498
αζαν 3497
πολιτισμού 3496
στολή 3496
αποφοίτησε 3495
gr 3494
μού@@ 3494
Παναγίας 3493
καθεδρ@@ 3493
ξανα@@ 3493
πιθανότητα 3492
el@@ 3491
Δούκα 3490
παρέ@@ 3489
World 3487
Άντζελες 3487
κατάλογο 3487
Προσωπική 3486
έρων 3486
δημόσι@@ 3486
καθήκοντα 3486
ωσή 3486
Γυμνα@@ 3484
αεροσκάφη 3484
ηγέτης 3483
5.000 3482
επιδ@@ 3482
κατείχε 3482
μακρ@@ 3482
κλί@@ 3480
έλευση 3479
εκδό@@ 3479
μί@@ 3478
Μί@@ 3477
δεύτηκε 3477
85 3475
Ανδ@@ 3475
Θερ@@ 3475
Πο@@ 3475
λοιπόν 3474
λέγοντας 3473
στίχους 3473
σφαι@@ 3473
σίες 3470
αυτοκ@@ 3468
διεύθυνση 3468
εθελον@@ 3468
ενημερ@@ 3468
νό 3468
πολιτεία 3468
ρίστηκαν 3468
ότα@@ 3468
Ζω@@ 3467
ηβ@@ 3467
Πέτρου 3466
στρο@@ 3466
53 3465
Βενετίας 3465
διοίκησης 3465
εω@@ 3465
τέταρτο 3465
ώνυμ@@ 3465
Χιλ@@ 3464
άτ 3464
ρί 3464
in@@ 3463
Ιωάν@@ 3463
λο@@ 3463
υπέρ@@ 3463
ιστορίες 3462
στρατιωτικό 3462
όμιλο 3462
σιμες 3461
σσεται 3461
τόξ@@ 3461
ch@@ 3460
καφ@@ 3460
εξετά@@ 3459
θεμελι@@ 3459
προσαρτήθηκε 3459
Κατάλογος 3458
φο 3458
συμπτώματα 3457
όλυ@@ 3457
ιακής 3456
ιτ 3456
συντηρη@@ 3456
υλικού 3456
στρατιωτικές 3454
ψήφους 3454
Κάν@@ 3453
νομίσματα 3453
Εσ@@ 3452
πράγματα 3452
τρίτος 3451
διέθετε 3449
Βουλγαρίας 3448
είδε 3448
οπτική 3447
ωνικά 3445
Θα 3444
Περί@@ 3443
άστ@@ 3442
Κασ@@ 3441
εξελ@@ 3441
σχετική 3441
800 3440
Όλα 3440
Βασιλιάς 3440
Πάπας 3440
ύγει 3440
71 3439
150 3438
αρχίσει 3438
γραμματέας 3438
προηγουμένως 3438
σημεριν@@ 3438
δει 3437
καλύτερο 3437
ύνει 3437
Αζερμπαϊτζάν 3436
Μεγάλης 3436
τίν 3436
βάλει 3435
et@@ 3434
Πάπα 3434
ανησυχ@@ 3434
απευθείας 3434
απέχει 3433
αλία 3432
ρυθμό 3432
φύλλα 3432
περιοδικά 3431
πων 3431
Διεθνής 3430
ασμα 3430
προστατευ@@ 3429
ανεβ@@ 3428
διευθύν@@ 3428
ράβ@@ 3427
καιρ@@ 3426
αφήν@@ 3425
Ιωσήφ 3424
καταστήσει 3424
λων 3424
παράδ@@ 3424
αεροδρόμιο 3423
διακρίσεις 3423
BBC 3422
83 3421
86 3421
ραμα 3420
τικο 3419
ώνου 3419
single 3418
2ο 3417
οργάνωσης 3417
ζούσε 3416
ιταλική 3416
al@@ 3415
αριστερ@@ 3415
αντίπαλο 3414
πειρο 3414
τειν@@ 3414
Χέν@@ 3413
γραφείο 3413
ar@@ 3412
Τού@@ 3411
προσωπική 3411
1915 3410
Καποδίστριας 3409
ετε 3409
66 3408
Βικ@@ 3408
Περιφερειακή 3408
Πριγκ@@ 3408
βάθος 3408
κινήματος 3407
νταν 3407
Ακολούθησε 3406
Ντέιβιντ 3406
βουλευ@@ 3406
διαφορετική 3406
ήγαγε 3405
αδελφού 3405
τελετή 3405
ανοίγ@@ 3404
Τζάκσον 3403
οργανώσεις 3403
πόλεως 3403
κόστος 3402
δημιουργώντας 3401
εκατομμυρίων 3401
οξειδ@@ 3401
Σεβ@@ 3400
αυξαν@@ 3400
Αρι@@ 3399
Ποδοσφαίρου 3399
μάζα 3399
μικρού 3399
τόπο 3399
αίματος 3398
ουμ 3398
τετρ@@ 3397
όου 3396
περικ@@ 3395
σταμάτησε 3395
άσματος 3394
οριστεί 3394
τιμήθηκε 3394
τιου 3394
γκερ 3393
ολι@@ 3393
6.@@ 3392
στοχ@@ 3392
Κύριας 3391
περιοδικού 3391
νερά 3389
αντίτυπα 3388
μεταγενέστερ@@ 3388
ολοκλήρωση 3388
1908 3386
Υπουργ@@ 3385
ανθρώπου 3385
νος 3385
γραφές 3384
δικαιωμάτων 3384
οσης 3384
Ρουμανία 3383
διαφορές 3382
Συμμετείχε 3380
Δήμ@@ 3379
Έρ@@ 3378
υποχρεω@@ 3378
διεξαγωγή 3377
καμ@@ 3377
σχεδί@@ 3377
σύνδεση 3377
ρασης 3376
πληροφοριών 3375
Σπουδ@@ 3374
κράτησε 3374
αντάται 3372
Λίν@@ 3371
ειές 3370
Σημαν@@ 3369
αδέλφια 3369
λεν 3369
Γερμανός 3368
ελληνικών 3368
81 3367
Γιού@@ 3367
Ιερά 3367
πολιτ@@ 3367
Θεού 3366
Γαλλική 3365
Λέν@@ 3364
ασχολείται 3364
στησαν 3362
αναγνωρίστηκε 3361
όφσκι 3361
58 3360
Ελένη 3360
ρικός 3360
Πρώτα 3359
Εισ@@ 3358
γυμνα@@ 3358
κόπ@@ 3357
υσή 3357
προσπαθεί 3356
χαρακτήρας 3355
49 3354
ροβ@@ 3354
ειακές 3353
επρόκειτο 3353
ερευνητές 3353
ζοντας 3353
οδηγήσει 3353
φυλή 3353
Τέχνης 3352
αυτό@@ 3352
ρίζες 3352
συγκέντρωσε 3352
06 3351
επόμενες 3351
σκευ@@ 3351
τηλ@@ 3351
Πάν@@ 3348
βάλλει 3348
μεί 3348
στρατιω@@ 3348
μες 3347
κίνησης 3345
κλπ. 3345
ρισης 3345
βυθ@@ 3344
04 3343
ίστας 3343
επιθε@@ 3343
οριστικά 3343
Α1 3342
ΠΟ@@ 3342
Ρωμα@@ 3342
ίτα 3341
κατώ@@ 3341
98 3340
Όρ@@ 3340
αγάπη 3340
απώλειες 3340
Τούρκοι 3339
μέρει 3339
ολό@@ 3339
ύλιο 3339
09 3338
ώτες 3338
man 3337
Κρο@@ 3337
οσύνη 3337
93 3336
Συγ@@ 3336
αστυνομία 3335
δεύτερης 3335
στούν 3335
Πανελλήνιο 3334
τονία 3334
διαφορ@@ 3333
προσφορά 3333
λόγια 3332
γυμ@@ 3331
ρικές 3330
στρατο@@ 3330
51 3329
Μακεδον@@ 3329
Σχε@@ 3329
ερασι@@ 3329
ητικών 3328
διεθνές 3327
ισορροπ@@ 3327
στέγ@@ 3327
Εσθ@@ 3326
Λά@@ 3326
Μπορεί 3325
ακρο@@ 3325
φθηκε 3325
όδια 3325
όλογ@@ 3322
όντας 3322
έθηκε 3321
εθ 3321
τιζ@@ 3318
φυλλ@@ 3318
παραχωρ@@ 3317
ρίς 3317
βομβαρδι@@ 3315
κόρ@@ 3315
ροή 3315
συνεργασίας 3315
δικτα@@ 3313
επιστήμη 3312
ίμων 3311
ελευθερία 3311
Πρόεδρο 3310
χρησιμοποιήθηκαν 3310
Μπά@@ 3309
ύθηκε 3309
ώδεις 3308
* 3307
θάνατος 3307
μάς 3307
διπλωματ@@ 3305
ηλικ@@ 3305
σί 3305
84 3304
αγγλ. 3304
γε@@ 3304
ασμού 3303
Βυζ@@ 3302
Ντί@@ 3302
γενικές 3301
γνωστο@@ 3300
κατευθύν@@ 3300
π. 3300
ιακών 3299
τανίας 3299
07 3298
αμμ@@ 3298
αποδεκ@@ 3298
συνήθ@@ 3298
Βόλ@@ 3297
ριας 3297
Ουκρανία 3296
Κατο@@ 3295
ωνικών 3295
Ντο@@ 3293
αεροπλ@@ 3293
ειρην@@ 3293
πάει 3292
δρα 3291
ύλη 3291
Πόρ@@ 3290
αρμον@@ 3289
ενήλ@@ 3289
στρο 3289
ακός 3288
σεξουαλ@@ 3287
ξύλ@@ 3286
92 3285
John 3285
μένως 3285
ύψους 3285
πιν@@ 3284
πουν 3283
Φόρ@@ 3282
αίρεση 3282
περιγραφή 3282
Μεσσηνίας 3281
διαχείριση 3281
πριγκ@@ 3281
πώ@@ 3281
τοπικής 3281
ωτές 3281
ίτ 3280
εφαρμό@@ 3280
στίβου 3280
διάκριση 3279
αγωνιστεί 3277
περιλάμβανε 3276
πρωταθλητής 3276
λαδ@@ 3275
συγκρούσεις 3274
δήμαρχος 3273
νέους 3272
πρωτεΐ@@ 3272
Ωκε@@ 3271
βιν@@ 3271
κλεί@@ 3271
κόρες 3271
προωθ@@ 3271
Κομνην@@ 3270
εύονται 3270
τευσε 3270
αλκο@@ 3269
αντίθε@@ 3269
ώρας 3269
Πολιτ@@ 3267
στηρίου 3267
ήμα 3266
αυτοκρατορία 3266
ολόκλη@@ 3266
φυγ@@ 3266
von 3265
ιδρυτής 3265
κάλεσε 3265
εθ@@ 3264
μ.@@ 3264
an@@ 3263
απάντηση 3263
ητες 3263
παρακολουθ@@ 3263
διαδηλ@@ 3262
88 3261
αφήνοντας 3261
Ολυμπιακός 3260
εκδηλ@@ 3260
σύνδεσμοι 3258
εκλεγ@@ 3257
πίστη 3257
Πρόγραμμα 3256
λαό 3256
Βερολίνου 3255
ήντα 3255
βράδυ 3255
διάδ@@ 3255
καπν@@ 3255
νόμος 3255
1916 3254
h@@ 3254
αρκετούς 3254
$ 3253
πυρήνα 3253
έρες 3252
έτες 3252
βενζ@@ 3252
ελληνικές 3252
ανακάλυψη 3251
78 3250
γεγραμ@@ 3250
κτι@@ 3250
ώτης 3250
αλογ@@ 3249
μέθοδο 3249
Γκέ@@ 3248
ζούσαν 3247
σίου 3247
61 3246
βαθμολογία 3246
Ολλανδία 3245
άσο 3245
περιουσία 3245
εμπειρία 3244
αιθ@@ 3243
συνοικ@@ 3243
des 3242
γραψαν 3242
διασχ@@ 3242
ουζ@@ 3241
1ο 3240
? 3240
Λύ@@ 3240
σκηνοθε@@ 3240
θεάτρου 3239
θει 3239
κλήθηκε 3238
διπλό 3237
περιστατ@@ 3236
δυσκολ@@ 3235
ονόματος 3235
σοβαρ@@ 3235
Γιάννη 3234
Υπ@@ 3234
der 3233
κινηματογράφο 3233
χώρησαν 3233
διατηρού@@ 3232
τύπων 3230
αιχμαλω@@ 3229
ζητήματα 3229
ποσότητα 3229
σιών 3229
δέν@@ 3228
εσωτερική 3227
είν@@ 3226
λό@@ 3225
οβα 3225
Εξωτερικοί 3224
ασθενείς 3224
αστρονομ@@ 3224
Σφ@@ 3223
εστι@@ 3223
ιάν 3222
δημιουργήθηκαν 3220
λίγ@@ 3220
τοντας 3220
Κω@@ 3219
ιδίου 3219
ικανοποι@@ 3219
έρευνας 3218
αστρονόμο 3217
μουσουλμάν@@ 3216
τινγκ 3216
γας 3215
βάθ@@ 3213
ανής 3212
ελα@@ 3212
έφθασε 3211
αγοράς 3211
ανεπ@@ 3211
κινη@@ 3211
γραμμα 3210
επίσκοπο 3210
φυσ@@ 3210
Ψυχ@@ 3209
διάλυση 3209
πρωταθλήτρια 3209
Β. 3208
αγωνιζόταν 3208
ενότητας 3208
ρεαλ@@ 3208
φοίτησε 3208
Τις 3206
άνες 3206
ήτου 3205
ύπαρ@@ 3205
ημιτελ@@ 3203
συνδε@@ 3203
ἀ@@ 3203
1905 3202
ενδεχ@@ 3202
τία 3202
Πολλά 3201
έλο 3200
αρσεν@@ 3200
ματι 3200
συναυλίες 3200
κομητεία 3199
πραγματική 3199
68 3198
έγερση 3198
παντρ@@ 3198
Μεσσ@@ 3197
εκτ@@ 3197
σημασίας 3197
άρθρα 3196
αφηγ@@ 3196
βιο@@ 3196
δημοτικό 3196
ωκε@@ 3196
αναλογ@@ 3195
ισμένες 3195
υπηρεσιών 3195
κέν@@ 3194
όλι@@ 3194
Επί 3193
δομές 3193
σχηματισμό 3193
Θράκης 3192
Ον@@ 3192
Ινδ@@ 3191
επιβλ@@ 3191
χτυπ@@ 3191
ξεως 3190
τίζεται 3190
φίλος 3189
ιέ 3188
νοτιο@@ 3188
έρνησης 3187
δρομή 3187
18ου 3186
κί@@ 3186
λεί 3186
ούχο 3186
You 3185
συνεχίζει 3185
Απόλλωνα 3184
έρχονται 3184
Πέρ@@ 3183
ινη 3183
ομίλου 3183
Απέχει 3182
Γέν@@ 3182
αναλυ@@ 3182
μόνον 3182
προέλευση 3182
ριστεί 3182
ράκ@@ 3180
φρού@@ 3180
όκ 3180
ΕΣΣΔ 3179
Ουκρανίας 3179
οποί@@ 3179
πήγ@@ 3179
Διοικητικά 3178
γνώση 3178
εκτίμηση 3178
αίμα 3177
δέχθηκε 3177
ανακηρύχθηκε 3176
κινητήρα 3176
πραγματικά 3176
Βασιλική 3174
βιβλίου 3174
επαγγελματική 3174
ούργ@@ 3173
Δημητρίου 3172
Πλη@@ 3172
κόλ@@ 3172
πολεμική 3172
ρασι@@ 3171
ιακού 3170
Ιουδ@@ 3168
Μαργαρίτα 3168
αθλητής 3168
ητη 3168
Music 3166
Φράγκ@@ 3166
απού@@ 3165
τονται 3165
κατοχής 3164
σχεδιασμό 3164
97 3163
αξιόλογ@@ 3163
δίας 3163
ύβ@@ 3163
καθηγ@@ 3162
νευρ@@ 3162
αντα 3161
προσχ@@ 3161
ύλες 3161
ασθένεια 3160
σημαντικός 3160
τοποθετήθηκε 3160
ακαδημ@@ 3158
συστ@@ 3158
υγεία 3158
χρειάζεται 3158
Πορτογαλίας 3157
εργοστάσιο 3157
ζωγραφ@@ 3157
ολογικού 3157
παραθ@@ 3156
τόπος 3155
Σάβ@@ 3154
Α2 3153
εορτα@@ 3153
πιλ@@ 3153
ed 3152
Κάρολο 3152
ηκ@@ 3152
ιταλικά 3152
προϊόν 3151
ορεινό 3150
Μολ@@ 3149
Πατρών 3149
Ναβ@@ 3148
Πλα@@ 3148
ολυμπ@@ 3148
69 3147
δερ@@ 3147
Ρι@@ 3145
επίδ@@ 3145
ανάλογ@@ 3144
απορ@@ 3144
αρχηγό 3143
ετό 3143
σχεδια@@ 3143
ευγενείς 3142
Εβρα@@ 3141
Μισ@@ 3141
Ντάν@@ 3141
Γιουγκοσλαβίας 3140
Ταϊ@@ 3140
αναπτύσσ@@ 3140
βις 3140
or@@ 3139
προκαλέσει 3139
αστή 3138
πή@@ 3138
74 3137
ειάς 3137
ομώνυμης 3137
Ράι@@ 3135
Σολ@@ 3134
όμα 3134
ΚΚΕ 3133
ίκι 3133
αρχιτεκτον@@ 3133
γεωργία 3133
αντιμετώπισε 3131
κες 3131
φωτογραφ@@ 3131
ύλης 3131
ιπά@@ 3130
σήμα 3130
ισμ@@ 3129
Εμ@@ 3128
Μνημ@@ 3128
Οθωμανικής 3128
σλαβ@@ 3128
Κόκκιν@@ 3125
Παρ 3125
91 3124
βασί@@ 3124
Καλύτερ@@ 3122
σπουδών 3122
όμορφ@@ 3122
ανική 3121
πληθυσμ@@ 3121
Λαϊκ@@ 3120
διαμερίσματα 3120
πολιτισμό 3120
Έκανε 3119
Σουλ@@ 3119
βάσεις 3119
γεμά@@ 3119
εφαρμογές 3119
τοπικά 3119
Τα@@ 3118
Sh@@ 3116
γάμου 3116
περιορ@@ 3116
87 3115
Πανι@@ 3115
Πρώτη 3115
ηγέτες 3114
Πετ@@ 3113
συμβολή 3113
Σικ@@ 3112
προτού 3112
Ανώτα@@ 3111
οικισμοί 3111
ΑΣ 3110
Αστεροειδών 3110
Πον@@ 3110
Σκωτίας 3110
αιότητα 3110
σύμβ@@ 3110
έντα 3109
χρέ@@ 3109
J 3107
Πολλές 3107
Αλβανία 3106
αστικές 3106
Δευ@@ 3105
ελεύθερη 3105
ερχόταν 3105
Υπερ@@ 3104
βιλ 3104
κά 3104
στενά 3104
Καρο@@ 3103
αστικής 3103
ευρ@@ 3103
οικονομικών 3102
ύρωση 3102
ίτσι 3101
δυναστείας 3101
ωδ@@ 3101
συνδέονται 3100
χώρηση 3100
έρα@@ 3099
αρχαίο 3099
ατς 3099
τραγουδίστρια 3099
Ολ@@ 3098
κλε@@ 3098
χρωμ@@ 3098
Γιαν@@ 3096
άρκα 3096
ανακαλύφθηκε 3096
οτεχν@@ 3096
πρόσφυγες 3096
τούτοις 3096
τορες 3095
76 3094
κώδικα 3094
έντον@@ 3093
εκείνης 3093
εμπορικό 3092
κατέληξε 3091
υση 3090
τάξεις 3088
όξ@@ 3088
In@@ 3087
ξεπερν@@ 3087
ομένου 3087
τρέχουσα 3087
ονας 3086
φαρμακ@@ 3085
αρχεία 3084
ουσας 3084
παλιό 3084
δημοφιλής 3083
γραμμάτων 3082
μασε 3081
ρωσική 3081
25@@ 3079
ποσό 3079
στήρ@@ 3079
Στρατηγ@@ 3078
επιν@@ 3077
ηγεμόν@@ 3077
τρων 3077
Ευαγγελ@@ 3076
Σουηδ@@ 3076
λήξη 3076
Κυβ@@ 3075
Τρα@@ 3075
ονγκ 3075
τριβ@@ 3075
Ντέι@@ 3073
λόγου 3073
παλάτι 3073
συνεχίσει 3073
ύχ@@ 3073
πιστεύεται 3072
• 3072
προϋ@@ 3071
συνθε@@ 3071
κρέ@@ 3070
τράπεζ@@ 3070
όσημο 3068
Λόρ@@ 3066
άξεις 3066
Νήσ@@ 3064
αλλάξει 3064
επαγγελματίας 3063
Βιβλ@@ 3062
αύξ@@ 3062
ζητ@@ 3062
κοινωνικής 3062
οικονομικής 3062
Βε@@ 3061
Πρόσ@@ 3060
περσ@@ 3060
τιδα 3060
ΚΑ@@ 3059
ωνικού 3059
Διονύ@@ 3057
δήλ@@ 3057
1906 3055
βουλ@@ 3055
περιεχόμενο 3055
Ανάμεσα 3054
δώδεκα 3054
Ριχάρ@@ 3053
Συνέλευση 3053
τυλ@@ 3053
79 3052
Μεσαίωνα 3052
κανονική 3052
σουλτάν@@ 3052
διαχωρι@@ 3051
χ. 3051
θέσει 3050
οστά 3050
πάπα 3050
7.@@ 3049
99 3049
διαμάχη 3049
εμπει@@ 3049
καθ 3049
νικητής 3049
οριών 3049
πρότυπα 3049
αμοιβ@@ 3048
κατανομή 3048
πει 3048
φυτά 3048
Λιθου@@ 3047
μέτρ@@ 3047
συνθέτης 3046
ΚΑ 3045
έλου 3045
δύσκολο 3045
θρα@@ 3045
Πυ@@ 3044
διατήρηση 3044
άρας 3043
Συνα@@ 3042
μαύρο 3042
οχυρ@@ 3042
89 3041
Ινδίας 3041
Ναός 3041
σος 3041
αγιά 3040
απέτυχε 3040
εύοντας 3040
σφαγ@@ 3040
Βενιζ@@ 3038
Βουλγαρ@@ 3038
αρο 3038
επιχειρήσεων 3038
θηλυκ@@ 3038
εντυπωσι@@ 3037
ae 3036
Εί@@ 3036
Ελβετία 3036
Πάτρα 3036
άγγελ@@ 3036
ανέπτυξε 3036
κηρύ@@ 3036
μέτωπο 3036
χαλκ@@ 3036
− 3036
μαξ@@ 3035
ς@@ 3035
Βισ@@ 3034
αποσύρθηκε 3033
κοινοβουλευ@@ 3033
δυνατό 3032
επαναστά@@ 3032
οσφαι@@ 3031
Ντό@@ 3030
εξασφαλ@@ 3030
θέλει 3030
καλύ@@ 3030
ρωσικά 3030
τίστηκε 3030
align 3028
γενιάς 3028
Δου@@ 3027
Βοσνίας 3026
Λογ@@ 3025
υψηλότερη 3025
αποτυχ@@ 3024
ισχύει 3024
μμ@@ 3024
ζημ@@ 3023
κτισ@@ 3023
άσου 3022
Δημιουργ@@ 3021
Μακεδ@@ 3021
Μεγαλ@@ 3021
λειτουργούν 3021
ταξινομ@@ 3021
Δικαι@@ 3020
Λατ@@ 3020
παντρευτεί 3020
καρ 3019
κινεζ@@ 3019
πάρκο 3019
Ηρακλείου 3018
αριθμού 3018
ντου@@ 3018
τοίχ@@ 3018
Γκρέ@@ 3017
Ακολου@@ 3016
ναλ@@ 3016
αγαθ@@ 3015
ασμ@@ 3015
ουλα 3015
δυνατή 3014
ιμος 3014
ψηφοφορία 3014
Κάποι@@ 3013
χρωματ@@ 3013
Κλί@@ 3012
περιγράφ@@ 3012
ταρχ@@ 3012
τεται 3011
μιά 3010
κεφάλ@@ 3009
Τζορτζ 3008
.000 3007
συνάντηση 3007
τακτική 3007
Εμπο@@ 3006
άχ 3006
Τρικ@@ 3005
Αρκ@@ 3003
εγκατάσταση 3003
Ιμπ@@ 3002
διανο@@ 3002
εξαιρε@@ 3001
επισκοπ@@ 3001
ρων 3001
94 3000
διν@@ 3000
ίλια 2999
ολιθ@@ 2999
άξει 2998
αχθεί 2997
θεωρεί 2997
μαχος 2997
πλησι@@ 2997
ad@@ 2996
γίνουν 2996
δημοσιογράφος 2996
σταφ@@ 2996
τελείωσε 2995
χάρ@@ 2995
ουχ@@ 2994
ανακοιν@@ 2993
ανεξάρτητα 2992
πρώ@@ 2992
φτερ@@ 2992
βουνά 2991
δικηγόρος 2991
ισο@@ 2991
is@@ 2989
ΐα 2989
Ηρακλή 2989
αλε@@ 2989
οφεί@@ 2989
προκύπτει 2989
υπεύθυνος 2989
φθινόπωρο 2989
έγγραφα 2988
θηκών 2988
κρίν@@ 2986
Χάν@@ 2985
καθιέρ@@ 2985
τιά 2985
ιώτη 2984
γνώμη 2983
επανάστασης 2983
διαστημ@@ 2982
υποστη@@ 2982
Μπέν@@ 2981
διάλεκ@@ 2981
επιχείρ@@ 2981
θησε 2981
4η 2980
Επο@@ 2980
βασικά 2980
αναφ@@ 2979
Άρης 2978
Μαχ@@ 2978
ασμένα 2978
αστρονόμ@@ 2978
λαού 2978
πολιτών 2978
Νόμ@@ 2977
άγαλμα 2977
αρχιτεκτονικής 2976
έτο@@ 2975
λεπτό 2975
σοβαρά 2975
τείχη 2975
έκτασης 2974
ετήσια 2974
καλλιέργεια 2974
τρό@@ 2974
ρίδας 2972
αναφέρθηκε 2971
δημοψήφισμα 2970
ζωγραφική 2968
Κωνσταντίνο 2967
κοινωνίας 2967
ρισμού 2967
Στέφανος 2966
γή@@ 2966
στροφή 2966
ότερης 2966
Νορβηγία 2965
στόλου 2965
πρωταγωνίστησε 2964
Disney 2963
Ιδρ@@ 2963
κυρί@@ 2963
χαρακτηριστ@@ 2963
ωτών 2963
Χριστού 2962
μπουρ@@ 2962
νων 2962
Αλεξάνδρου 2961
φιλοσοφ@@ 2961
77 2960
Κατηγορίας 2960
δάση 2960
δει@@ 2959
ιόν 2959
όσι@@ 2959
1904 2958
λευθέρ@@ 2958
συλλογές 2958
Αναφέρεται 2957
μεταφρα@@ 2957
έρια 2956
αγωγής 2956
ωτική 2956
βρο@@ 2955
διαστάσεις 2955
τιμωρ@@ 2955
ΠΑΟΚ 2954
είκοσι 2954
βουνό 2953
Ποδοσφαι@@ 2952
εβο 2952
συντον@@ 2952
σφαί@@ 2952
τετραγ@@ 2952
χρονικά 2952
Windows 2951
άκος 2951
ιον 2951
διαχω@@ 2950
μοιάζει 2949
λιβ@@ 2948
τρόπους 2948
Mar@@ 2947
κατακτ@@ 2947
Χορ@@ 2946
καφέ 2946
ς- 2946
ώμα 2946
ώτη 2946
ίσσ@@ 2944
ηρε@@ 2943
03 2942
βουλευτές 2942
οχής 2942
Εάν 2940
ανθρώπινη 2940
προσεγγ@@ 2938
διατήρησε 2937
πέμπ@@ 2937
λογίας 2936
οδοξ@@ 2936
παρατηρούσε 2936
ποικίλ@@ 2936
ανέβ@@ 2933
αναρ@@ 2933
ειακ@@ 2933
σινγκλ 2933
Ιαπωνίας 2932
αίσθηση 2932
αεροσκάφος 2932
τιες 2932
Νί@@ 2931
κύριες 2931
προσπάθ@@ 2931
Ηλείας 2930
αλγ@@ 2930
ηφαιστ@@ 2930
Ολυμπ@@ 2929
Στί@@ 2929
διακόπ@@ 2929
θεωρούν 2929
φόβ@@ 2929
χων 2929
ανατολικής 2928
εξαρτάται 2928
οζ@@ 2928
προήλθε 2928
ταυτ@@ 2927
ραση 2926
συνεν@@ 2926
αιγυπτι@@ 2925
ανεξάρτητη 2925
1911 2924
Μαδ@@ 2924
Τάγματος 2924
λίου 2924
άρχου 2923
μοι 2923
σμών 2923
τρόπ@@ 2923
χρόνους 2923
αποσαφήνιση 2922
ληφθεί 2922
μονο@@ 2922
παρέμειναν 2921
κόκκιν@@ 2920
μετάλλ@@ 2920
ζευγ@@ 2919
γωνία 2918
επομένως 2918
κληση 2918
αντικατέστησε 2917
ασίστ 2917
ιδίων 2916
κλίμακα 2916
προηγούμενο 2916
αναγνωρισ@@ 2915
θρο@@ 2915
Συνήθως 2914
αριστερά 2914
μέλλον 2914
Μεξικό 2913
Υπήρ@@ 2913
παντρεμένος 2913
​ 2913
Μαυρο@@ 2912
ατικού 2912
λατρ@@ 2912
σκηνοθέ@@ 2912
έρω@@ 2911
Οικουμεν@@ 2910
DNA 2909
όφωνο 2909
at@@ 2908
Πηγ@@ 2908
άβα 2908
λανδ@@ 2908
πολίτη 2908
Κρη@@ 2907
ανταπο@@ 2907
νεαρή 2906
Εμφ@@ 2905
καταργήθηκε 2905
Αθλ@@ 2903
ολλανδ@@ 2903
αντιμετωπίσει 2902
δημιούργησαν 2901
ιστορικοί 2901
σχεδίου 2901
υλίου 2901
05 2900
Νορ@@ 2899
άμι 2899
εορ@@ 2898
παίξει 2898
περιείχε 2898
άντες 2896
κινήσεις 2896
πτήση 2896
προχώρησε 2895
τωρ 2895
Σοφ@@ 2894
προσανατολ@@ 2894
στικ@@ 2894
ήττες 2893
μεταγραφή 2893
όι 2893
Κέντρου 2892
αλβαν@@ 2892
αρισ@@ 2892
κατανο@@ 2892
γράμμα 2891
σύγχρονο 2890
ϊκή 2890
Ερρίκο 2889
ιό 2889
os 2888
ίμ 2887
ολα 2887
τεχνολογία 2887
περιφέρειας 2886
ΡΙ@@ 2885
Χει@@ 2885
οδού 2885
συμβουλίου 2885
Επαρχ@@ 2884
εύτηκαν 2883
οξείδιο 2883
1896 2882
Αιγαίου 2882
έσπασε 2882
χαμ 2882
άνε@@ 2881
αδύνα@@ 2881
διηγ@@ 2881
λει 2881
τώντας 2881
φρον@@ 2881
Αγι@@ 2880
Ειρην@@ 2880
βορειοδυ@@ 2880
μμα 2880
στάδια 2880
μνημον@@ 2879
φέρονται 2879
Πρό@@ 2878
ευρωπαϊκή 2878
Ιράν 2877
διαλυ@@ 2877
προσδιορ@@ 2877
πτυχίο 2876
τομή 2876
υποψήφ@@ 2875
επιτροπής 2874
οχώρι 2874
τελ 2874
Οικονομικών 2873
Παναθηναϊκό 2872
έχεται 2872
αιρέ@@ 2872
w@@ 2871
Έχουν 2871
απλό 2870
λάβουν 2869
παραμονή 2869
κατέχει 2868
κειμένου 2868
λίμνης 2868
Δού@@ 2867
τεχνών 2866
96 2865
εφημερίδες 2865
κοκ@@ 2865
ρομαν@@ 2865
1907 2864
αναπληρω@@ 2863
νώ@@ 2863
ότερου 2863
Έλαβε 2862
Σεν@@ 2862
συστημάτων 2862
Χου@@ 2861
ρισμα 2861
Παπανδρέου 2860
Φιλίππου 2860
λόφ@@ 2859
Γιάν@@ 2858
έμπο@@ 2858
αυτονομ@@ 2858
μετονομ@@ 2858
μετέφερε 2857
γματα 2856
Νέων 2855
Περίπου 2855
μεταφοράς 2855
name 2854
Ουκραν@@ 2854
αυξήθηκε 2853
μεταπτυχ@@ 2853
δημοκρατία 2852
μπόρεσε 2852
Φυσ@@ 2851
κανα@@ 2851
συνεχίστηκε 2851
2022 2850
ματός 2850
συγχων@@ 2850
συνοδεύ@@ 2850
Εκπαίδευ@@ 2848
σκέ@@ 2848
φέρνει 2848
Δία 2847
Μάγ@@ 2847
περιφέρειες 2846
ers 2845
αφορούν 2845
νησε 2845
γελ@@ 2844
Κλει@@ 2843
παραλία 2843
ταρ 2843
μεθόδους 2842
Μαντ@@ 2841
μαθηματικά 2841
παράγοντας 2841
Ναζ@@ 2840
ημερών 2840
λαύ@@ 2840
πυροβ@@ 2840
φοιτητές 2840
Βέρ@@ 2839
Βυζαντινή 2839
έκρηξη 2839
Δ.@@ 2838
επαφ@@ 2837
περιστρέφεται 2837
ωτικά 2837
Car@@ 2836
καθηγητή 2836
82 2835
εξωτερική 2835
εύματα 2835
ωφ@@ 2835
Χαϊ@@ 2834
Ανατολής 2833
ευρωπαϊκές 2833
es@@ 2832
Νέο 2832
δεια 2832
διαπραγματεύσεις 2832
TV 2831
´ 2830
ΕΣ@@ 2830
οποιοδήποτε 2830
Πελ@@ 2829
ακρα@@ 2829
εκπρόσωπος 2829
κατασκεύ@@ 2828
άχν@@ 2827
αντιστοιχεί 2827
θάν@@ 2827
ισχύ@@ 2827
κώ@@ 2827
μέτ 2827
Φραγκίσ@@ 2826
ατόμου 2826
διεκδίκ@@ 2826
εγκαταλείψει 2826
ουελ 2826
υποστηρίζουν 2826
κυττάρων 2825
φου 2825
01 2824
ίνια 2824
ανακάλυψε 2824
δημιουργεί 2824
εινε 2824
ρον 2824
Con@@ 2823
βοηθός 2823
εμποδ@@ 2822
πλοίων 2822
Αγίων 2820
Αλβέρ@@ 2820
ινών 2820
ονος 2820
προσωρινά 2820
πρωτοβουλία 2819
διαταρα@@ 2818
παραμείνει 2818
παρουσί@@ 2818
Άλλοι 2817
επιδρομές 2817
κρατών 2817
παρουσιάζουν 2817
προκύ@@ 2817
ωνύμιο 2817
Αρμεν@@ 2816
Πολιτι@@ 2816
ερεύ@@ 2816
αίους 2814
απομακρ@@ 2813
επιστήμονες 2813
κατοίκ@@ 2813
ρικά 2812
Αφγανιστάν 2811
Επαν@@ 2811
άρο 2811
φθηκαν 2811
διάταγμα 2810
ζα 2810
παρόμοιο 2810
υπόλοιπες 2810
ογραφική 2809
Πύ@@ 2808
κύκλου 2808
οδο@@ 2808
συγκέντρωση 2808
υποψηφιότητα 2808
CD 2807
εισήχθη 2807
20ου 2806
ασφαλείας 2806
εθνο@@ 2806
πανηγ@@ 2806
Λει@@ 2805
άλμα 2805
καλοκαι@@ 2805
περιλαμβ@@ 2805
Νεκ@@ 2804
επιβεβαί@@ 2804
Γεωργίας 2803
δεσ@@ 2803
δημιουργηθεί 2803
Μπαν@@ 2800
ραντ 2800
συνόλου 2800
χρήστες 2800
Νορβηγίας 2799
ευτικό 2799
μεταφέρθηκαν 2799
1000 2798
κυκλοφορίας 2798
Νορμαν@@ 2796
Στέφαν@@ 2796
Στίβου 2796
ίασε 2796
κ.@@ 2796
λεψε 2796
ορατ@@ 2796
Μάρκ@@ 2795
αρά 2795
ήρου 2794
καλλιέργ@@ 2794
υπερασπ@@ 2794
1909 2793
Λεον@@ 2793
δυναστεία 2793
ηχογράφ@@ 2793
τίας 2793
Ανεξ@@ 2792
Χαν 2792
υποστηρικ@@ 2792
Σο@@ 2791
στού 2791
όλι 2791
Βίλ@@ 2790
Δρα@@ 2790
Αικατερίνη 2789
δόγ@@ 2789
χρονολογ@@ 2789
βιβλι@@ 2788
λντ 2788
ρις 2788
Ταμ@@ 2787
αφορού@@ 2787
οκλ@@ 2787
βορ@@ 2786
δεικνύ@@ 2786
τηγ@@ 2786
φυσικής 2786
Φρειδερίκου 2785
τρεψε 2785
άσχ@@ 2784
ύλων 2784
Τούρκων 2782
άληψη 2782
αριθμούς 2782
αριθμών 2782
ιλ 2782
πέν@@ 2782
τηλεοπτικό 2782
Κατόπιν 2781
θερμοκρασίες 2781
μπαχ 2781
ολογικών 2781
Κάλ@@ 2780
ελάχι@@ 2780
Θεοτόκου 2779
υπάρχ@@ 2779
CO@@ 2778
Ξεν@@ 2778
Στε@@ 2778
άνε 2778
διοικητικό 2778
τύπους 2778
17@@ 2777
Συμβ@@ 2777
αναγκά@@ 2777
ομώνυμη 2777
οπούλου 2777
πλοκή 2777
17ου 2776
βασιλείς 2776
σχεδίων 2776
Εδουάρ@@ 2775
Μέγας 2774
κυβερνήτη 2774
νούμερο 2774
ie 2773
βασικός 2773
κυν@@ 2773
μπει 2773
άνθη 2772
έρον@@ 2772
εκτείνεται 2772
επιτέθηκε 2772
ριού 2772
τίποτα 2771
Ολυμπιακού 2770
θεωρούσε 2770
λαϊκή 2770
δύναμης 2769
κοινοβούλιο 2769
Ταν@@ 2768
www.@@ 2766
λαμβ@@ 2765
τζαμ@@ 2765
χρόνος 2765
όλλ@@ 2763
Δημοσ@@ 2762
Ιβάν 2762
Φου@@ 2762
βασης 2762
ρικού 2762
ξέσπασε 2761
υψηλότερο 2761
σταθερά 2760
Προέδρου 2759
νομισ@@ 2759
χτηκε 2759
Μω@@ 2757
Φινλανδ@@ 2757
ήνης 2757
πλοίου 2757
8.@@ 2756
Αυτοί 2756
ορα@@ 2756
στας 2756
αποφάσισαν 2755
ηθοποιό 2754
λόφο 2754
φυλές 2754
αίτηση 2753
αντιστοιχ@@ 2753
μών 2753
Περί 2752
αιμ@@ 2752
διαφορετικό 2752
νυμφ@@ 2752
συνιστ@@ 2752
υψηλό 2752
Ευρωπαί@@ 2751
δίνουν 2751
οικονομικές 2750
Αλέξανδρο 2749
Πηγές 2749
επιστρέφει 2749
ωμάτων 2749
Αγων@@ 2748
γεωμετρ@@ 2748
ριακού 2747
οκύ@@ 2745
πειρατ@@ 2745
φεύγ@@ 2745
Βίν@@ 2744
βαθιά 2744
ειδικότερα 2744
χρησιμοποιούσαν 2743
Tr@@ 2742
Κοπ@@ 2742
αυτοκιν@@ 2742
γενικ@@ 2741
σπο@@ 2741
απασχολ@@ 2740
ειδικό 2740
επιτυχημένη 2740
καταφύγιο 2740
Συρία 2739
επιπέδου 2738
κους 2738
Βαυαρίας 2737
Κέρκυρας 2737
υνε 2737
Ανάπτυ@@ 2736
Παραγωγή 2736
εμφανίστηκαν 2736
υποδοχ@@ 2735
έμφαση 2734
ισπανικά 2734
ναβ@@ 2734
τιού 2734
εκτάσεις 2733
καλλιτέχνη 2733
σταθμού 2733
χημική 2733
Billboard 2732
καὶ 2732
Γρηγοριανό 2731
απομον@@ 2731
κοι@@ 2731
σκηνοθέτη 2731
ρωμαϊκή 2730
συνοδ@@ 2730
έκλεισε 2728
δασκ@@ 2728
σύνταγμα 2728
Αρμενίας 2727
Διά@@ 2727
Υψηλ@@ 2726
Υπουργείου 2725
χον@@ 2725
da 2724
απλή 2723
δημοσιογράφ@@ 2723
μαστε 2723
σχημά@@ 2721
Μικρά 2719
Νομού 2719
Φιλοσοφ@@ 2718
κοινά 2718
μεγ@@ 2718
προσαρ@@ 2718
ρούσε 2718
Μπάν@@ 2717
έκφραση 2717
ίντ 2717
επιζ@@ 2717
νται 2717
αθλή@@ 2716
δρόμος 2716
ζύ@@ 2716
Μόνο 2715
τροχιά 2715
Βραζιλία 2714
διασκευ@@ 2714
μνημεία 2714
σατ@@ 2714
φύγει 2714
10.000 2713
ΟΥΕΦΑ 2712
αποδεικνύ@@ 2712
δεσμ@@ 2712
χάσει 2712
δάσος 2711
βάρ@@ 2710
ετός 2710
μουν@@ 2710
βλ. 2709
βρύ@@ 2709
λης 2709
νυμφεύτηκε 2709
σά@@ 2709
προεδρικές 2708
ανασκαφές 2707
ουλ 2707
Μπελ@@ 2706
έμαθε 2706
ευρέ@@ 2706
02 2705
Κατερ@@ 2705
δεύτερου 2705
λλαγ@@ 2705
οργάν@@ 2705
ρης 2705
βασίλ@@ 2704
δυνατ@@ 2704
Ιακ@@ 2703
Κυριακή 2703
πρωί 2703
Γιαν 2702
δικηγ@@ 2702
καλλιτέχνης 2702
Ευρωπαϊκού 2701
Ολυμπιακ@@ 2701
ic@@ 2700
style 2700
Αλι@@ 2700
απαντ@@ 2700
απογόνους 2700
δυνατόν 2700
Ομοσπον@@ 2699
εφόσον 2699
δημιουργίας 2698
τιών 2698
ρεφ@@ 2697
18@@ 2696
An@@ 2696
εκλογική 2696
ουγ@@ 2696
πλημ@@ 2696
σκοτώθηκαν 2696
επέλεξε 2695
κόλπο 2695
συμπληρ@@ 2694
1.000 2693
Τηλε@@ 2693
εξακολουθεί 2693
καλές 2693
καυσ@@ 2693
μενα 2693
νωση 2693
υπεύθυν@@ 2693
ανιχν@@ 2692
παραστ@@ 2692
θεατών 2691
ματικού 2691
ατμόσφαιρα 2690
γενικός 2690
μεταβ@@ 2690
ακόλουθα 2689
Θεόδωρος 2688
ίστ 2688
δικαστήριο 2687
αποστολής 2686
επιθυμία 2686
ηρω@@ 2686
as@@ 2685
Καζακστάν 2685
βελτίωση 2685
ζωγραφικής 2685
στρά@@ 2685
συγκρού@@ 2685
τρομοκρατ@@ 2685
έπει 2684
απαιτεί 2684
τρού@@ 2684
ώνος 2684
δεται 2682
ενεργά 2682
λή 2682
2,@@ 2678
ελαι@@ 2678
παρεκκλ@@ 2678
αναστ@@ 2677
επικίνδυν@@ 2677
Ομάδα 2676
ανοσ@@ 2676
γκι 2676
εφημερίδας 2676
δόσεις 2675
ειου 2675
σύντομη 2675
Ηνωμένου 2674
Χάιν@@ 2674
ψεων 2674
έστερα 2672
βιχ 2672
ντο 2672
στρατιωτικός 2672
αποτελούνταν 2671
οποίησε 2671
ωτή 2671
Ιστο@@ 2670
λημα 2670
μάζ@@ 2670
υποθέσεις 2670
ξεχω@@ 2669
τασης 2669
τραγουδιστής 2669
Ζηλανδ@@ 2668
αποκατάσταση 2668
ειος 2668
ταξίδεψε 2667
ταξιν@@ 2667
Τό@@ 2665
Φ 2664
παραδοσιακή 2664
Ονομ@@ 2663
Ρουμανίας 2663
διάδοχο 2663
καταστάσεις 2663
ναρκ@@ 2663
γωγ@@ 2662
1897 2661
SS 2661
λατινικά 2661
τρες 2661
Κρα@@ 2660
ήλιο 2660
αποτυχία 2660
απόλυ@@ 2660
όγκο 2660
Σχολ@@ 2659
βλάβ@@ 2659
σκοπο@@ 2659
Τουρ@@ 2658
δηλ. 2658
όβα 2658
ήμης 2657
κυτταρ@@ 2657
συμφώνησε 2657
Μό@@ 2656
Πλοκή 2656
Σχεδ@@ 2656
ήμερ@@ 2655
κάθ@@ 2655
ωτικών 2655
Σημει@@ 2653
αντιπ@@ 2653
άμυνα 2652
τροφή 2652
αξιωματικός 2651
θρησκευτική 2651
πανεπιστημι@@ 2651
όσια 2650
Ιησού 2649
δήλωση 2649
ισχυρό 2649
ογέν@@ 2649
απέζ@@ 2648
αρκετοί 2646
ειρήνης 2646
ποσότητες 2646
επεξεργασία 2645
κύκλος 2645
ροφορ@@ 2645
όλιο 2645
ol@@ 2644
γαλλικό 2644
λοι 2644
μαλλ@@ 2644
όνε 2644
Br@@ 2643
Εβραίοι 2643
δημόσιο 2642
λάθος 2642
πούς 2642
γερμανικό 2641
χωρητικότητας 2641
Λεβ@@ 2640
Παύλου 2640
καρδιά 2640
μεταφορ@@ 2640
πετυχ@@ 2640
Οξ@@ 2639
Υγείας 2639
ιδιότητα 2639
Βρετανίας 2638
Παύλος 2638
Προς 2638
κυκλοφορήσει 2638
ρεπ@@ 2638
ινής 2637
παγκόσμι@@ 2637
ρόπολη 2637
Ατλαν@@ 2636
Γουλιέλμου 2636
τέταρ@@ 2636
προβλημάτων 2635
διαπιστ@@ 2634
Σικελίας 2633
αντίθετα 2633
κοινωνικές 2633
μαι 2633
ξεκ@@ 2633
χαρακτή@@ 2633
120 2632
νόμισμα 2632
Πί@@ 2631
μαϊκ@@ 2631
νοτιοδυ@@ 2631
πλευρό 2631
700 2630
Βατ@@ 2630
Πιο 2630
άκων 2629
επαρκ@@ 2629
ευόταν 2629
κάποτε 2629
συγκέντρωσης 2629
υποτελ@@ 2629
Σβ@@ 2628
σωλ@@ 2628
αλίας 2627
περιγράφεται 2627
Αυτοκράτορας 2626
επιλέχθηκε 2626
Γαλλικής 2625
Ρωσική 2625
τικότητας 2625
υδρογόνου 2625
βασικές 2624
ιδιοκτησία 2624
ταση 2624
Πελοπόννησο 2623
διαλύθηκε 2623
κορυφαία 2623
v 2622
κλασική 2622
τέν 2622
γεί@@ 2621
Τούρκ@@ 2620
Ενότητας 2619
Τμή@@ 2619
θρι@@ 2619
ίσταται 2618
ολο 2618
χο@@ 2618
Κυρι@@ 2617
ερή 2617
κρυφ@@ 2617
συλλόγους 2617
φορού@@ 2617
ΚΟ@@ 2616
ειο@@ 2616
ετς 2616
όσους 2616
7,@@ 2615
9.@@ 2615
γλυ@@ 2615
λειτουργίες 2615
διάταξη 2614
θων 2614
νεαρ@@ 2614
βάλλεται 2613
μέρ@@ 2613
παραδείγματα 2613
τήθηκαν 2613
ψή 2613
ματικός 2612
οργανισμούς 2612
υπόλοιπη 2612
ούδα 2611
ούσα 2611
προέ@@ 2611
τέρματα 2611
έσκ@@ 2610
απειλή 2610
δομής 2610
εκτικά 2610
ιδιοκτη@@ 2609
ούντας 2609
Ώ@@ 2608
ελάχ@@ 2608
βλέπει 2607
ουστ@@ 2607
π.Χ 2607
2.000 2606
Κώστα 2605
Σιγ@@ 2605
ασημέν@@ 2605
διδάσκ@@ 2605
μάρτυ@@ 2604
οξέος 2604
ταθεί 2602
ΕΠΣ 2601
Σαχ@@ 2600
ειακά 2600
Μητ@@ 2599
θως 2599
φωτειν@@ 2599
χρησιμοποιούνταν 2599
16ο 2598
Παλαιστ@@ 2598
Ι. 2597
Μπού@@ 2597
έτι 2597
εξέχ@@ 2597
αγκα@@ 2596
ατος 2596
δώ@@ 2596
μεταφέρ@@ 2595
νή 2595
σιν 2595
Πόν@@ 2594
18ο 2593
Συντάγματος 2593
κατάταξη 2593
it 2590
κομητ@@ 2590
νακ@@ 2590
στόλο 2590
σιδηρο@@ 2589
1903 2588
λάμβανε 2588
Δαμ@@ 2587
Μογγ@@ 2587
νευσε 2587
am 2586
Ελεύθερ@@ 2586
Ναυτικού 2586
καθή@@ 2586
one 2585
Ευρωπαϊκ@@ 2585
επισκόπου 2585
χρησιμοποιήσει 2585
Εβραίων 2584
άρου 2584
βου 2584
εκλέχθηκε 2584
χρησιμοποιούσε 2584
θεν 2583
θρί@@ 2583
Βουργουνδίας 2582
θυν@@ 2582
ούλια 2582
τελευταίου 2582
τοποίηση 2582
Ιω@@ 2581
Κεφαλ@@ 2581
ισλαμ@@ 2581
Γκαρ@@ 2580
Μουσουλμάν@@ 2580
Πόλη 2580
ίσεων 2580
επεν@@ 2580
καλύτερες 2580
σταλλ@@ 2580
συνείδ@@ 2580
ύψ@@ 2580
26@@ 2579
it@@ 2579
Αδελφ@@ 2579
θουν 2579
ισθ@@ 2579
πλούσι@@ 2579
στατο 2579
συνωμ@@ 2579
6,@@ 2578
καταφέρει 2578
αντιμετώπιση 2576
απαιτείται 2576
μετανάστ@@ 2576
Γυναικών 2575
άστι@@ 2575
συστατ@@ 2575
Ακόμα 2574
Μερικά 2574
Τομ@@ 2574
Αγκ@@ 2573
Πέν@@ 2573
ειρά 2573
μέσου 2573
om@@ 2572
σώ@@ 2572
ττα@@ 2572
λέγονται 2571
πολιτείας 2571
φιλελεύθερ@@ 2571
Όμιλος 2570
Ολλανδίας 2570
μάρ 2570
Σαβοΐας 2569
εισήγαγε 2569
μεταφερ@@ 2569
εγκαθ@@ 2568
αποτελέσ@@ 2566
ητος 2566
κεραμ@@ 2566
σκα@@ 2566
άλυψ@@ 2565
κάποιοι 2565
ήμες 2564
ρίγκ@@ 2564
Πελοποννήσου 2563
γραφεία 2563
δηλώνει 2563
ελάχιστα 2563
Δυναστ@@ 2562
ζητώντας 2562
πολιτικού 2561
πρός 2561
στρατευμάτων 2561
βροχ@@ 2560
γεύ@@ 2560
μαθητής 2560
οπρ@@ 2560
ριάς 2560
παίκτη 2559
σκοπούς 2559
Βαρκελ@@ 2558
Λιμ@@ 2558
άλματα 2558
γενικότερα 2558
επεξ@@ 2558
κυρίαρχ@@ 2557
εμφανιστεί 2556
μονία 2556
τετράγ@@ 2556
χορο@@ 2556
Βρα@@ 2555
μεσολ@@ 2555
άρρ@@ 2554
επιβί@@ 2554
μεταφέρει 2554
Άγγελ@@ 2553
Του 2553
άλυψε 2553
μαύ@@ 2553
συστάθηκε 2553
Βέ@@ 2552
Μητροπολίτης 2552
ποιήματα 2552
ΑΣ@@ 2551
αποτέλεσαν 2551
δηλητη@@ 2551
ac@@ 2550
καθιστά 2550
παραμένουν 2550
προεδρ@@ 2549
Κεντρ@@ 2548
συγκρο@@ 2548
Δημήτρη 2546
Μερικές 2546
Μικρασι@@ 2546
Πανα@@ 2546
Σίν@@ 2546
τείν@@ 2546
αξίες 2545
εκθέσεις 2545
νοντας 2545
σύντομο 2545
ξία 2544
παροχή 2544
διασκ@@ 2543
υπη@@ 2543
βρίσκει 2542
κοιλι@@ 2542
πρόποδες 2542
συναλλαγ@@ 2542
τάχθηκε 2542
Ιωάννα 2540
ασθέν@@ 2540
επισκέπτες 2540
πτερ@@ 2540
σκοτειν@@ 2540
τησή 2540
Βλαχ@@ 2539
Μέσ@@ 2539
Σύμβ@@ 2539
Τράπεζα 2539
Τσε@@ 2539
βασαν@@ 2539
ενημέρωσης 2539
καλό 2538
υπολογιστή 2538
συνέχισαν 2537
δημοφιλές 2536
διοικητή 2536
μέτρο 2536
ουδέ@@ 2536
τέλει@@ 2536
Βέλγιο 2535
εύκολ@@ 2535
ράφηκαν 2535
σταθερή 2535
συνταγματ@@ 2535
όχθη 2535
ήρθαν 2534
σοφ@@ 2534
τέν@@ 2534
αντιπροσωπεύει 2533
ντερ 2533
απομακρύν@@ 2532
είπ@@ 2532
λογοτεχνίας 2532
αναπτυ@@ 2531
ζώ@@ 2531
λαβ 2531
άρχες 2530
διαθέτουν 2530
θορ@@ 2530
τοποθετη@@ 2530
Φρανς 2529
τρόφ@@ 2529
Ελληνίδα 2528
μεναν 2528
παρ 2528
Τραγ@@ 2527
ήτ@@ 2527
υγρό 2527
ϊν@@ 2527
ώσεως 2527
4ο 2526
ine 2526
Ιαπ@@ 2526
έβδομ@@ 2526
χελ@@ 2526
αναμετρ@@ 2525
Ρωμαίοι 2524
αυθεν@@ 2524
εκατοντάδες 2524
μεταβολ@@ 2524
Νου@@ 2523
γκελ@@ 2523
μονοπ@@ 2523
πυκνότητα 2523
ρισκ@@ 2523
5η 2522
Τσάμπιονς 2522
Εμμανουήλ 2521
Υπό 2521
Ζά@@ 2520
Πολέμ@@ 2520
λίγους 2520
προβλήθηκε 2520
φώ@@ 2520
βασιλικό 2519
διώκ@@ 2519
επισημ@@ 2519
μέσων 2519
μερικούς 2519
πεδίου 2519
δεξαμεν@@ 2518
κισσα 2518
Γερμανών 2517
Ελ 2517
1878 2516
λαμαν@@ 2516
σημερινής 2516
Διευθυν@@ 2515
αντιπρόεδρος 2515
χρηματ@@ 2515
Δημοτική 2514
Πάτρας 2514
φανέλα 2514
πανελλήν@@ 2513
De@@ 2512
αιχμάλω@@ 2512
εσε 2512
κουν@@ 2512
προσώπων 2512
Λορ@@ 2511
Χρήστος 2511
αντικει@@ 2511
βεβ@@ 2511
περιβαλλον@@ 2511
στέλ@@ 2511
ελέγ@@ 2510
μπια 2510
πεθάνει 2510
Μπον@@ 2509
ακρίβεια 2509
πλαγιές 2509
σύγχρονης 2509
φράση 2509
άξονα 2508
λαν@@ 2507
προσωπικ@@ 2507
υποβιβασ@@ 2506
Σαλαμ@@ 2505
όσχ@@ 2505
Διεθνή 2504
άντι 2504
χρηματοδο@@ 2503
Παραδ@@ 2502
ολογίες 2502
ψι@@ 2502
Διαγων@@ 2501
Ναυτικό 2501
Πορτογαλία 2501
Συμμετ@@ 2501
νομικά 2501
οδομ@@ 2501
όρη 2501
Κοινοβουλευ@@ 2500
Χέ@@ 2500
άκρη 2500
ανταρ@@ 2500
απογραφές 2500
Τσεχ@@ 2499
ρολογ@@ 2499
χαμηλή 2498
1890 2497
πολιτικούς 2497
Δανία 2496
άρτηση 2496
γραφικά 2496
δακτύ@@ 2496
διαιτη@@ 2496
πίστευε 2496
φροντ@@ 2496
Βάρ@@ 2495
Σύλλογος 2495
επώνυμο 2495
όσεων 2495
Λό@@ 2494
έκα 2494
προπ@@ 2494
Επί@@ 2493
έδινε 2493
ονική 2493
συντήρ@@ 2493
φάλ@@ 2493
προειδ@@ 2492
συνδέει 2492
υποχρε@@ 2492
Live 2491
όπερ@@ 2491
Μόρ@@ 2490
θεωρηθεί 2490
μεύ@@ 2489
αρχείου 2488
επισ@@ 2488
εκμετάλλ@@ 2487
μπέ@@ 2487
πραξικόπημα 2487
συντελε@@ 2487
χρονική 2487
λειτούργησε 2486
οφόρων 2486
αίοι 2485
ρίτη 2485
υποστηρικτές 2485
πραγματοποιείται 2484
στέλεχος 2484
δίδαξε 2483
επεκτάθηκε 2483
ποιητή 2483
τολή 2483
βη 2482
θι 2482
Άργ@@ 2481
Αντιόχ@@ 2481
συγκρότη@@ 2481
17ο 2480
αντίστοιχο 2480
βλεπε 2480
διαπραγματ@@ 2480
τροφίμων 2480
000 2479
Ναπολέοντα 2479
άλογα 2479
εκπροσώπ@@ 2479
κιθαρ@@ 2479
πριγκίπισσα 2479
γράφοντας 2478
φυσικού 2478
χρονολογούνται 2478
Αερ@@ 2477
εβί@@ 2477
ούτ@@ 2476
Πό@@ 2475
τέλεσε 2475
ΑΝ@@ 2474
δήμους 2474
ησία 2474
συλ@@ 2474
Ζερ@@ 2473
Ορθόδοξη 2473
Σουλτάν@@ 2473
Δύ@@ 2472
Λάρισας 2472
έσκο 2472
κανόνα 2472
συνάντησε 2472
ωβ@@ 2472
W 2471
Εικ@@ 2471
τεράστι@@ 2470
τικα 2470
λεγόμενη 2469
ογι@@ 2469
ρίσεις 2469
επικράτησε 2468
Ελευ@@ 2467
διαδικασίες 2467
ζι 2467
καθε@@ 2467
πολέμους 2467
μεγάλους 2466
παράλληλ@@ 2466
σερβ@@ 2466
κ.λπ. 2465
ραφεί 2465
Βορείου 2464
μιγ@@ 2464
ορος 2464
Πυρ@@ 2463
οτέχ@@ 2463
χώρησε 2463
Χημ@@ 2462
εμπλ@@ 2461
επικράτεια 2461
Πεζ@@ 2460
Σκην@@ 2460
λεωφορ@@ 2460
ταξης 2460
εύσεις 2459
οριζ@@ 2459
πετρελαίου 2459
στρατηγό 2459
δύσκολη 2458
ιφ@@ 2458
ότυπο 2458
διαφημ@@ 2457
συμμε@@ 2457
Άρτας 2456
Ρεθύ@@ 2456
διστ@@ 2456
Q@@ 2455
ψευδώνυμο 2455
ik@@ 2454
Λ 2454
Πίτερ 2454
ηγέτη 2454
αρμεν@@ 2453
βαλλ@@ 2453
κατάταξης 2453
ούντ@@ 2453
Αγγελ@@ 2452
Αρκαδίας 2451
Ντε 2451
άλογο 2451
έσουν 2451
διεθνούς 2451
θύματα 2451
Τάγμα 2450
έλας 2450
γενέτ@@ 2450
εγκεφαλ@@ 2450
τομα 2450
Βιέννης 2449
δρόμων 2449
καθόλου 2449
Οσ@@ 2448
σκορ@@ 2448
διδασκαλία 2447
σταματήσει 2447
Ρωσικής 2446
ήνες 2446
αδερφ@@ 2446
ιστες 2446
μουσουλμαν@@ 2446
χιον@@ 2446
Εκκλησι@@ 2445
ημιτελικά 2445
καταγ@@ 2445
Γιουγκοσλαβία 2444
ka 2443
Λεω@@ 2443
Σπύ@@ 2443
Λειτουργ@@ 2442
Αλεξάντερ 2441
Αψβούργων 2441
Παρόλα 2441
Χρυσή 2441
Αυλ@@ 2440
εκατο@@ 2440
εντερ@@ 2440
ερν 2440
πρωτεύουσας 2440
Μαζ@@ 2439
λεπτομέρειες 2439
παραδό@@ 2439
φάρμακα 2439
ύχημα 2439
καθεστώτος 2438
ούμε 2438
Άλλ@@ 2437
εκδο@@ 2437
ευθεί 2437
ντεν 2437
Αρχαία 2436
Σερρών 2436
έδειξαν 2436
βάρους 2436
πεθ@@ 2436
πρωτοπ@@ 2436
ούρ 2435
παρεμβ@@ 2435
πλέ@@ 2435
Μπουρ@@ 2434
βάν 2434
επέμβαση 2434
προέκυψε 2434
Καστο@@ 2433
Υπηρε@@ 2433
ευρωπαϊκό 2433
μπρι@@ 2433
ποιότητα 2433
πολεμικά 2433
ρρο@@ 2433
Κλά@@ 2432
δίνεται 2432
Ιρλανδία 2431
Κέρκυρα 2431
εταιρ@@ 2431
μετάλλια 2431
μηδεν@@ 2431
τίθενται 2431
Καραϊ@@ 2430
άνοι@@ 2430
θλι@@ 2430
Σκοπ@@ 2429
επιστημ@@ 2429
ριβ@@ 2428
καταλήγει 2427
πεδιν@@ 2427
πρα@@ 2427
ύρης 2427
Black 2426
Δικαστήριο 2426
θεωρούνταν 2425
κρατίας 2425
παραδόσεις 2425
τομέ@@ 2425
φιν@@ 2425
Αλβανίας 2424
Πολ 2424
μοτί@@ 2424
τοποί@@ 2424
1899 2423
Αγ 2423
Αλε@@ 2423
ίδ 2423
ανιψι@@ 2423
γρήγορ@@ 2423
οσίας 2423
προσωπο@@ 2423
th@@ 2422
παιδική 2422
ρεύμα 2422
φίλους 2422
16ου 2421
καταργ@@ 2421
φτωχ@@ 2421
σχηματίζει 2420
φωτιά 2420
Κοινοβουλίου 2419
εδαφ@@ 2419
υπτο@@ 2419
αίνεται 2418
αναφοράς 2418
γενν 2418
εισι@@ 2418
ation 2417
πνεύμα 2417
ριου 2417
στάθ@@ 2417
σχηματίζουν 2417
κωδικ@@ 2416
πιθανή 2416
αίτη@@ 2415
αιναν 2415
κοι 2415
συνεχή 2415
Ιουστ@@ 2414
αγόρασε 2414
Ρίτσαρντ 2413
αφορμή 2413
καλύπ@@ 2413
ποινή 2413
International 2412
Ταξι@@ 2412
έκα@@ 2412
ανεξ@@ 2412
καθιερώθηκε 2412
ορισμένων 2412
εύρεση 2410
στι 2410
Ηλι@@ 2409
τίτ@@ 2409
ωνόταν 2409
Ίδρυμα 2408
άνοιγμα 2408
ήβ@@ 2407
ζητήσει 2407
υγή 2407
Οκ@@ 2406
ζημιές 2406
κέρδισαν 2405
μπος 2405
8,@@ 2404
ίδου 2404
καιρούς 2404
απόπειρα 2403
στυχ@@ 2403
Th@@ 2402
πειρά@@ 2402
τίων 2402
Man 2401
Αραγωνίας 2401
Οθωμανούς 2401
Ροβέρ@@ 2401
αερο@@ 2401
0.@@ 2400
21@@ 2400
Αγώνων 2400
Κρε@@ 2400
δραματική 2400
κελ@@ 2400
οκρά@@ 2400
Cor@@ 2399
Αυτοκ@@ 2399
δισ@@ 2399
Καβ@@ 2398
Προεδρ@@ 2398
διαφων@@ 2398
ιακός 2396
ομίλους 2396
τσε 2396
ύλακα 2395
Πασά 2394
σουλ@@ 2394
τριχ 2394
Μεγ@@ 2393
δολοφονήθηκε 2393
θώ@@ 2393
Χριστο@@ 2392
δίκ@@ 2392
τελετουργ@@ 2392
Ζωή 2391
ένδειξη 2391
αποχώρηση 2391
εκπομπές 2391
Η.Π.Α. 2390
Μπορ@@ 2390
έκτησε 2390
δωρε@@ 2390
Γκρά@@ 2389
Κοκ@@ 2389
αποστολές 2389
αρχαίων 2389
βαν 2389
τορο 2389
δύσκολ@@ 2388
εργαλ@@ 2388
εφαρμογ@@ 2388
πέδου 2388
προτάσεις 2388
Βοιω@@ 2386
Γενικός 2386
Κογκρέ@@ 2386
παρέχουν 2386
3ο 2385
αγνο@@ 2385
αλλού 2385
πληροφ@@ 2385
Μέρ@@ 2384
αντάλλαγμα 2384
ευρε@@ 2384
όγειο 2384
ανω@@ 2383
κοιμ@@ 2383
έγεται 2382
καλλιτεχνών 2382
ξεκινώντας 2382
πλησί@@ 2382
σής 2382
εξαπλ@@ 2381
προβολή 2381
Λευκορω@@ 2380
αποφάσεις 2380
δημοσ@@ 2380
χωρίζεται 2380
Κινέζ@@ 2379
Κοζ@@ 2379
ανέρχεται 2379
γρά@@ 2379
te 2378
Σέ@@ 2378
δέσμ@@ 2378
ετούς 2378
σκότωσε 2378
ύρη 2378
Αλεξάνδρεια 2377
ακρω@@ 2377
ανούς 2377
αποδίδεται 2377
ογραφικά 2377
ταυτότητα 2377
Καλαβ@@ 2376
ευρύ 2376
ισμένοι 2376
κινηματογραφική 2376
χαρακτηριστεί 2376
Κοσσυφοπ@@ 2375
άλε 2375
παραίτηση 2375
Σάντα 2374
αγώνισμα 2374
νόμους 2374
φτάνοντας 2374
ΒΑ 2373
υποβιβάστηκε 2373
23@@ 2372
γράφος 2372
χάλκινο 2372
βρε@@ 2371
δικής 2371
εντρ@@ 2371
ούλ 2371
1870 2370
βρίσκ@@ 2370
εκατ@@ 2370
μελετητές 2370
ύφ@@ 2370
γεται 2367
ζήτησης 2367
καταστήματα 2367
προϋπολογ@@ 2367
Ρωμαίους 2366
θήματα 2366
μηχανή 2366
αρχιτέκτονα 2365
οδός 2365
πράσινο 2365
τάς 2365
τραγουδιών 2365
Διατ@@ 2364
ευρω@@ 2364
στρατηγική 2364
σωματείο 2364
St@@ 2363
Αστυνομ@@ 2363
Κίν@@ 2363
εγγον@@ 2363
θεωρίας 2363
σχολι@@ 2362
υπάλληλ@@ 2362
πίσ@@ 2361
pop 2360
Φραν@@ 2360
εξέφ@@ 2360
θεωρίες 2360
σύγ@@ 2360
ad 2359
θαλάσσι@@ 2359
όχθες 2359
αφρικαν@@ 2358
τολόγ@@ 2358
Μέγα 2357
νικ 2357
οντ 2357
ουζ 2357
ίδι@@ 2356
βιν 2356
ιζαν 2356
πρώιμη 2356
Α.Ε. 2355
οικονομίας 2355
σετ 2355
250 2354
ευθ@@ 2354
δανει@@ 2353
άγνωστο 2352
ανανέ@@ 2352
ομιλία 2352
πληθυσμών 2352
υλικών 2352
Μέν@@ 2351
Φέρ@@ 2351
δυσαρ@@ 2351
Αριστ@@ 2350
Ρ 2350
Σταδιοδρομία 2350
αριστερό 2350
δάσκαλος 2350
υρα 2350
́ 2349
Δούκας 2349
επενδύ@@ 2349
υποβιβ@@ 2349
ήματά 2348
λαμβάνεται 2348
τονίας 2348
Le@@ 2347
Εξελέγη 2347
ίδρυσαν 2347
Γουίλιαμ 2346
Καλαμά@@ 2346
έξοδο 2346
ευθύνη 2346
όπων 2346
1881 2345
άθλημα 2345
ιστάν 2345
τοί@@ 2345
Μόλις 2344
αδια@@ 2344
αλφάβητο 2344
αποκλείστηκε 2344
γέννηση 2344
30@@ 2343
αποκλεί@@ 2343
γνωρίζει 2343
δημοσιεύθηκε 2343
ελεύθερο 2343
ενσωμά@@ 2343
μορφής 2343
Πρώτος 2342
επέστρεψαν 2342
επανήλθε 2342
τάσεις 2342
τίο 2342
τιθέ@@ 2342
ώβ@@ 2342
ana 2341
ton 2341
Λάρ@@ 2341
Φωκ@@ 2341
εμπορικά 2341
Κώ@@ 2340
ίνιο 2340
Ρί@@ 2339
Ρεν@@ 2339
άχθηκε 2339
κια 2339
προηγούμενες 2339
πρόσθετα 2339
συναυλία 2339
Μερικοί 2338
γκο@@ 2338
θεμάτων 2338
θητείας 2338
ινές 2338
κιθάρα 2338
προκαλώντας 2338
Γνω@@ 2337
εξώ@@ 2337
κάποιου 2337
ξέσπ@@ 2337
περιβάλλοντος 2337
σωματεία 2337
ta 2336
Αρχηγ@@ 2336
Κωνσταντιν@@ 2336
θεώρηση 2336
κτιρίου 2336
συμπέρασμα 2336
εργαζόταν 2335
δαπ@@ 2334
διαδεδο@@ 2334
ντρ@@ 2334
ονήσου 2334
ρέν@@ 2334
ωνος 2334
ύρες 2334
έφτηκε 2333
βυζαντινή 2333
κατηγ@@ 2333
συνειδη@@ 2333
χαρτο@@ 2333
ισχύος 2332
κάλυψη 2332
μβούργο 2331
πέρασαν 2331
τζα 2331
ότυπ@@ 2331
Ραμ@@ 2330
έτης 2330
αστικών 2330
διάδοχ@@ 2330
διάρκειας 2329
ημέρας 2329
γερμανικής 2328
λαβαν 2328
μπολ 2328
ΑΕ@@ 2327
ήσουμε 2327
Νταν@@ 2326
ονόμασε 2326
ωνικές 2326
3.000 2325
δυναμικό 2325
ώδους 2325
ολόγο 2324
υπεύθυνη 2324
Ναύ@@ 2323
μίλια 2323
στέ@@ 2323
Διαθή@@ 2322
ίδρυμα 2322
αρμοδι@@ 2322
κάποι@@ 2322
λεκτ@@ 2322
Μονής 2321
Παγκόσμιος 2321
αμο 2321
Σωματ@@ 2320
ευμα 2320
ομοσπονδία 2320
υπολογιστών 2320
έθηκαν 2319
ίθμ@@ 2319
ναλντ 2318
ρέψει 2318
ρινή 2318
Λευκωσίας 2317
Μαδρίτης 2317
Πιερ@@ 2317
Χασ@@ 2317
εκατό 2317
ούπολη 2317
όκο 2317
Ντού@@ 2316
βρετανική 2316
ποιότητας 2316
στερη 2316
ενίσχυση 2315
καταδικάστηκε 2315
Γυμνάσιο 2314
ΕΡ@@ 2314
γλύπ@@ 2314
θείο 2314
ογραφίες 2314
όλας 2314
ώπου 2314
Όθωνα 2313
Δεδ@@ 2313
διακοπ@@ 2313
προεδρία 2313
όζεφ 2313
Λε 2312
ιερέας 2312
1902 2311
επικρα@@ 2311
ημά 2311
μικρότερα 2311
ειλε 2310
ευθύν@@ 2310
θέτοντας 2310
απεικόνιση 2308
απονεμήθηκε 2308
ενδ@@ 2308
πολυτελ@@ 2308
Αιτωλοακαρνανίας 2306
Υπηρέτησε 2306
κτήρια 2306
συναισθ@@ 2306
Ανθ@@ 2305
Κληρονομ@@ 2305
άδελφ@@ 2305
ήση 2305
ανεξαρτησίας 2305
γλωσσών 2305
ηματο@@ 2305
αμερικανικό 2304
ομαλ@@ 2304
φυσικές 2304
χης 2304
1880 2303
αυξάνεται 2303
background 2302
δόθηκαν 2302
ειχθεί 2302
κανδι@@ 2302
λεπτομερ@@ 2302
ορία 2302
σκεπ@@ 2302
άνας 2301
αναζήτηση 2301
δυλ@@ 2301
οποιηθεί 2301
τυγ@@ 2301
Αμβέρ@@ 2300
άγο 2300
όβια 2300
μασ@@ 2299
ορίου 2299
παράγ@@ 2299
πορτρέ@@ 2299
όλια 2299
u@@ 2298
δείγμα 2298
δημοφιλή 2298
εξελί@@ 2298
λήμ@@ 2298
προστασίας 2298
στρατηγού 2298
τεκμη@@ 2298
τικη 2298
όπερα 2298
ύτερα 2298
αστούν 2297
μπι@@ 2297
Λυκ@@ 2296
Σίτι 2296
διάμετρος 2296
Λουδοβίκο 2295
άσταση 2295
αναπτύ@@ 2295
κατάρ@@ 2295
λάμβαναν 2295
πετοσφαίρισης 2295
υπογραφή 2295
οβο 2294
παραδοσιακό 2294
ύρι 2294
ot@@ 2293
Ηρακλής 2293
διήρκεσε 2293
μετατράπηκε 2293
ύτερ@@ 2293
Πακιστάν 2292
Συνέδριο 2292
ικς 2292
κρο@@ 2291
οποιούνται 2291
αρο@@ 2290
σεναρι@@ 2290
συντάκ@@ 2290
re@@ 2289
Ισλάμ 2289
ξεπερ@@ 2289
Πιθαν@@ 2288
μουσικά 2288
ΕΔ@@ 2287
Ταξ@@ 2287
έρθει 2287
μπλ 2287
χρησιμοποίησαν 2287
Παναγιώτης 2286
έκτη 2286
αντες 2286
καθορι@@ 2286
κλίμακας 2286
ley 2285
Νίκ@@ 2285
ραδιο@@ 2285
αΐ@@ 2284
αντλ@@ 2284
βουν@@ 2284
εξεγέρ@@ 2284
νει 2284
προνόμ@@ 2284
ράν 2284
φυτών 2284
ασχολούνται 2283
πρέσ@@ 2283
πύλη 2283
Γερμανική 2282
ήρω@@ 2282
αντρ@@ 2282
δημοτικά 2282
μπορούμε 2282
σσας 2282
σχολής 2282
28@@ 2281
Παναγία 2281
Συνταγ@@ 2281
κασ@@ 2281
διος 2280
θμισης 2280
μηχανική 2280
ορισμένοι 2280
ίστρια 2279
ίχνη 2279
ομοσπονδιακ@@ 2279
τομία 2279
Αυστραλίας 2278
Λομβαρ@@ 2278
γέφυρ@@ 2278
πρωθυπουργ@@ 2278
li@@ 2277
Παγκόσμια 2277
Συχνά 2277
παράγουν 2277
προσπάθησαν 2277
Αεροπο@@ 2276
Θεωρ@@ 2276
εξέταση 2276
νερ@@ 2276
id 2275
Ρωμαίων 2275
απεί 2275
επιστήμες 2275
κήρυ@@ 2275
τσαρτ 2275
Μαρτ@@ 2274
Χοσ@@ 2274
ίτιδα 2274
στρατιωτών 2274
Πολιτισμού 2273
Σμύρνης 2273
Τουλ@@ 2273
κατάλογος 2273
color 2272
άνεια 2272
έπαιζε 2272
εξορ@@ 2272
σύνη 2272
Έχοντας 2271
Λουξε@@ 2271
φίλο 2271
1895 2270
Μέση 2270
αλλιώς 2270
ρέψουν 2270
συναρτ@@ 2270
Δαρ@@ 2269
κοινωνικά 2269
Πρεσβ@@ 2268
Φίλιππο 2268
άσμα 2268
έται 2268
βασιλικής 2268
κίτρι@@ 2268
Καπ 2267
ακολουθούσε 2267
διαρ@@ 2267
θάλ@@ 2267
Ασφ@@ 2266
Πήρε 2266
διαιρέ@@ 2266
περιέγραψε 2266
1835 2265
ch 2265
δεχτεί 2265
όπα 2265
ΙΑ 2264
Πρε@@ 2264
αποφασίζει 2264
υγι@@ 2264
Ν.@@ 2263
δολαρίων 2263
μηση 2263
παλαιότερη 2263
παρουσιάζεται 2263
ποιος 2263
συσσ@@ 2263
φάσμα 2263
Όλοι 2262
Ιταλός 2262
αποθηκ@@ 2262
θησαυ@@ 2262
τυπικά 2262
Ειρήνη 2261
Συμφ@@ 2261
αλλαγ@@ 2261
σή@@ 2261
σχέσεων 2261
Ποσειδ@@ 2260
Φρανκ 2260
αμιν@@ 2260
δηλώσει 2260
ωμά 2260
Θεσσαλ@@ 2259
αναζη@@ 2259
κολλ@@ 2259
ριχ 2259
αστέρες 2258
εργαστήριο 2258
πράσ@@ 2258
στάλθηκε 2258
ήτες 2257
αερίου 2257
εξίσ@@ 2257
ικία 2257
μεγάλ@@ 2257
στεφ@@ 2257
ύματα 2257
ώνια 2257
Σύντομα 2256
ικης 2256
ιτών 2256
μόνιμα 2256
λαμπρ@@ 2255
έσοδα 2254
ενσ@@ 2254
εξελίχθηκε 2254
ποικιλ@@ 2254
Ρωμαιοκαθολ@@ 2253
δρόμ@@ 2253
αντίληψη 2252
δυνα@@ 2252
πρόλ@@ 2252
τύποι 2252
Αλεξανδ@@ 2251
Αυτοκρατορ@@ 2251
αρτ@@ 2251
ικανότητες 2251
Ιππ@@ 2250
Διεθν@@ 2249
αναγνώρισε 2249
δημοσιεύτηκε 2249
ιδιαίτερο 2249
ροπή 2249
υποστεί 2249
φυσικών 2249
θοι 2248
λλου 2248
ωνες 2248
Mon@@ 2247
Λι 2247
Μαρκ 2247
Φερδινάν@@ 2247
αιχμαλώ@@ 2247
επιλεγ@@ 2247
εϊ@@ 2247
Βασίλης 2246
επίθεσης 2246
εργασιών 2245
ευρεία 2245
υπουργού 2245
ωτά 2245
na 2244
Σύγ@@ 2244
επε 2244
τιμής 2244
Μαί@@ 2243
έφυγαν 2243
Ταιν@@ 2242
Ταυτόχρονα 2241
ανταλλαγή 2241
συνεπ@@ 2241
ate 2240
κυβερνήσεις 2240
καταγόταν 2239
μηνών 2239
πρώιμ@@ 2239
τερος 2239
οικονομικό 2238
συλλογής 2238
φέροντας 2238
ακολουθήσει 2237
βιντεοπαιχν@@ 2237
9,@@ 2236
Αναπ@@ 2236
ενμπεργκ 2236
… 2236
καθαρά 2235
οειδών 2235
ούδια 2235
απομάκρ@@ 2234
διαδ@@ 2234
προσώπου 2234
σώζονται 2234
Δεκ@@ 2233
Καθεδρ@@ 2233
Ντρ@@ 2233
αυτοκρά@@ 2233
ενμπουργκ 2233
Αριστερ@@ 2232
Πατριάρχης 2232
επιπτώσεις 2232
τάφο 2232
εξαρτ@@ 2231
κλήρω@@ 2231
μίσ@@ 2231
καρι@@ 2230
σημαντικότερα 2230
ύρας 2229
ica 2228
ΕΛ@@ 2228
δεδομένου 2228
ενθουσι@@ 2228
καλύπτεται 2228
ταύ@@ 2228
όδω@@ 2228
βιος 2227
θεατές 2227
Γραμ@@ 2226
ίθεται 2226
θεί@@ 2226
μεμον@@ 2226
πέτρι@@ 2226
Βασίλισσα 2225
τύπωση 2225
Love 2224
ίστανται 2223
ίχν@@ 2223
επιδημ@@ 2223
λαφ 2223
λοχαγ@@ 2223
μέσος 2223
αυστ@@ 2222
εξορία 2222
επιδράσεις 2222
σεβασ@@ 2222
στρατιωτικών 2222
ωτό 2222
Le 2221
Μάρτιν 2221
βάν@@ 2221
γάμ@@ 2221
επιστήμης 2221
οχυρω@@ 2221
ούκ 2221
σχεδιάστηκε 2221
Δελ@@ 2220
διαιρείται 2220
ενδιά@@ 2220
Θρη@@ 2219
απαγόρ@@ 2219
είμεν@@ 2219
εκείνα 2219
κόσμος 2219
ανήκαν 2218
ύτερος 2218
Αρμενία 2217
Μέγ@@ 2217
δεσμούς 2217
θέτως 2217
συσκευ@@ 2217
Αντιπροσώπων 2216
έκδοσης 2216
βήμα 2216
μικρότερος 2216
τόνους 2216
Gr@@ 2215
ίσα 2215
απορροφ@@ 2215
θαλασσ@@ 2215
ομώνυμου 2215
τρε@@ 2215
ina 2214
ανθρακ@@ 2214
πέμπτη 2214
διάλυ@@ 2213
θαυ@@ 2213
καλεί 2213
μερικοί 2213
σουηδ@@ 2213
όνους 2213
ητήρ@@ 2212
πιάνο 2212
Φρου@@ 2211
δείγματα 2211
οργανισμός 2211
Ολυμπι@@ 2210
ιστορικούς 2210
Ιππο@@ 2209
Σέλ@@ 2209
αποφασίστηκε 2209
ειδικές 2209
πτουν 2209
συνέντευξη 2209
Νόμπελ 2208
προσαρτάται 2208
τείνουν 2208
χαρντ 2208
θρόνου 2207
οσπ@@ 2207
όψη 2207
Καλών 2206
δείχ@@ 2206
διάθεση 2206
εμφάν@@ 2206
Γερμανό 2205
Σπάρ@@ 2205
δουκάτο 2205
ώπι@@ 2205
Θάλασσας 2204
ισμένων 2204
λαός 2204
σοβαρές 2204
Σικελία 2203
ιθαγεν@@ 2203
κωμόπολη 2203
προσωπικά 2203
συμβεί 2203
ώρησε 2203
Γάλλοι 2202
λανθ@@ 2202
πάντως 2202
τογ@@ 2202
τύχη 2202
Χ. 2201
ιστοσελίδα 2201
κληρονομιά 2201
κόν@@ 2201
νεϊ 2201
συνέδριο 2201
τεχνολογίας 2201
τσου@@ 2201
Rock 2200
γενικό 2200
ευχαρ@@ 2200
πλαν@@ 2200
ρωση 2200
ότ 2200
Μεσόγειο 2199
Στρατό 2199
Τόμ@@ 2199
ανάγλυ@@ 2199
βήματα 2199
θεσή 2199
λους 2199
No 2198
μεθαν@@ 2198
σκοτώσει 2198
τρικ 2198
Αρμέν@@ 2196
Περιστ@@ 2196
κέντρου 2196
καθημερινή 2196
κανονικά 2196
κινα 2196
τοιχογραφίες 2196
Αμαλ@@ 2195
Κουν@@ 2195
Ναό 2195
αξε 2195
ατικές 2195
υπάρξει 2195
αυγ@@ 2194
βασισμένη 2194
διακόσ@@ 2194
καρκ@@ 2194
ουκραν@@ 2194
προέλευσης 2194
τ.@@ 2194
ότοπ@@ 2194
Qu@@ 2193
Υπηρεσία 2193
έκτοτε 2193
διεθνώς 2193
λείψ@@ 2193
Άμυνας 2192
Λογοτεχν@@ 2192
έλες 2192
αναλαμβάνει 2192
εδαφών 2192
ειακών 2192
οπαδούς 2192
Παρασκευ@@ 2191
γυναίκας 2191
δισεκατομμύρια 2191
φωτογραφίες 2191
χρυσά 2191
ύτερο 2191
αξαν 2190
γεγονότων 2190
μόνων 2190
πη@@ 2190
τλ@@ 2190
ul@@ 2189
Βόρ@@ 2189
Μπατ@@ 2189
αποικία 2189
Ιράκ 2188
Μεθ@@ 2188
ένωσης 2188
ασμένος 2188
κλειδ@@ 2188
ρίσκ@@ 2188
ανεξάρτητο 2187
ητεία 2187
έγγραφο 2186
κατασκευάστηκαν 2186
νεαρός 2186
συσκευές 2186
έλα@@ 2185
εθνικών 2185
ναι 2185
οποιεί 2185
τίες 2185
τοπικών 2185
ώνονταν 2185
1901 2184
έμειναν 2184
ανοί 2184
θωρακ@@ 2184
μένουν 2184
Αρκε@@ 2183
αμερικάν@@ 2183
κουλ@@ 2183
Νόβ@@ 2182
Πρωσίας 2182
βορρά 2182
ποίημα 2182
Πρωθυπουργός 2181
ήθελαν 2181
αισθ@@ 2181
5ο 2180
Σούπερ 2180
βιολ@@ 2180
μάτι 2180
πες 2180
{ 2179
Σαιντ 2179
Σπαρτι@@ 2179
τουρκικά 2179
δέντρα 2178
επίσημες 2178
συνεπώς 2178
τευση 2178
χες 2178
οφορ@@ 2177
υδατο@@ 2176
Αφροδί@@ 2175
τέκ@@ 2175
Δελφ@@ 2174
ήχου 2174
δεδο@@ 2174
ιζόμενος 2174
μπασ@@ 2174
ag@@ 2173
Σταν@@ 2173
αποτελεσματ@@ 2173
επέτρ@@ 2173
Βικτ@@ 2172
Βραζιλίας 2172
Κροατίας 2172
εκείνες 2172
οργάνων 2172
τηρίων 2172
Δράμας 2171
Εδώ 2171
Μαθ@@ 2171
Νικηφ@@ 2171
κατάρρευση 2171
κοψε 2171
λοβ@@ 2171
μάγ@@ 2171
συστατικά 2171
συχνότητα 2171
ωμένων 2171
Γκρι@@ 2170
Εβραίους 2170
απουσία 2170
ζή@@ 2170
ιδρύματα 2170
νέοι 2170
τελικός 2170
ωγράφ@@ 2170
Κυπριακή 2169
Ουν@@ 2169
Χίου 2169
άγνωστη 2169
άσεως 2169
αί 2169
ηγορ@@ 2169
Top 2168
Αλμπ@@ 2168
Λωρραίνης 2168
Μουσείου 2168
εγκαινι@@ 2168
κομματ@@ 2168
Απόλλων 2167
ήρυξη 2167
παράγωγ@@ 2167
παρακολούθησε 2167
όρθ@@ 2167
αριθμοί 2166
πανεπιστημίου 2166
προσωριν@@ 2166
όμιλ@@ 2166
παρατηρού@@ 2165
συγγενείς 2165
τοποθεσίες 2165
ΠΑΣΟΚ 2164
ήνας 2164
θετική 2164
υπολογίζεται 2164
1,5 2163
tr@@ 2163
Οργάν@@ 2163
καρκίνο 2163
μεταβολές 2163
προτείνει 2163
Μεξικού 2162
κατακτη@@ 2162
σύλλογοι 2161
Γραμματ@@ 2160
Διοίκηση 2160
ΕΑ@@ 2160
Πιστ@@ 2160
διαφορετικών 2160
στελέχη 2159
Ισλανδ@@ 2158
Μύ@@ 2158
έχασαν 2158
ηψης 2158
όλος 2158
γκαρ@@ 2157
θρησκευτικές 2157
son 2156
Δικ@@ 2156
Πού@@ 2156
εξασφαλίσει 2156
παραχώρησε 2156
πραγματοποί@@ 2156
τείνει 2156
ύματος 2156
στρατιωτικής 2155
Βρυξ@@ 2154
εισήλθε 2153
εκδήλωση 2153
οδοσία 2153
πίεσης 2153
στενή 2153
συνόρων 2153
Σεν 2152
έγραφε 2152
φορτηγ@@ 2152
άντη 2151
άπο@@ 2151
βάτες 2151
120@@ 2150
En@@ 2150
διαδικτυ@@ 2150
διευθυντή 2150
μοναδικός 2150
πιστεύουν 2150
χρησιμοποιηθούν 2150
Φοίν@@ 2149
μικρών 2149
πρόσω@@ 2149
τρό 2149
όδρομος 2149
γιατ@@ 2148
ιτζ@@ 2148
προσαρμογ@@ 2148
Ρέν@@ 2147
αναφερθεί 2147
απόλυτη 2147
οδήγηση 2147
τοποθετείται 2147
φύσης 2147
Γιόχαν 2146
ίνσκι 2146
αρχής 2146
ναυπηγ@@ 2146
Me 2145
Έξ@@ 2145
αμε 2145
στέμμα 2145
Αλλ@@ 2144
Γάλλους 2144
Ραφ@@ 2144
Ρωμαϊκ@@ 2144
μικρής 2144
μπροστ@@ 2144
ομοί@@ 2144
6ο 2143
Χάρι 2143
πολωνικά 2143
υπουργό 2143
ώρι@@ 2143
Βασιλικό 2142
Κοινότητας 2142
ισπανική 2142
όργ@@ 2141
ώνιος 2141
Αργεντιν@@ 2140
θιο 2140
μηχανικός 2140
Ορθόδοξ@@ 2139
μέγιστο 2139
χήρα 2139
ιστορικές 2138
Γκού@@ 2137
ΟΗΕ 2137
Παρασκευή 2137
Χαρακτηριστικά 2137
άλει 2137
πόσο 2137
σταθμούς 2136
τελεί@@ 2136
ινς 2135
παρακολού@@ 2135
am@@ 2134
Θεσσαλίας 2134
Σαμπ@@ 2134
ηλικιω@@ 2134
μένοντας 2134
οχος 2134
περιορισ@@ 2134
σφαίρα 2134
τρέχ@@ 2134
Στάν@@ 2133
επικοινωνία 2133
νεοσύ@@ 2133
st@@ 2132
ter 2132
αστρο@@ 2132
ουγγρ@@ 2132
Ζακ 2131
βαδ@@ 2131
διαμόρφωση 2131
εκλέχ@@ 2131
λειτουργούσε 2131
ούταν 2131
αναμ@@ 2130
βλήθηκε 2130
πτέρυγ@@ 2130
Αύγουστος 2129
διάσημο 2129
κεντρικής 2129
Ελληνικά 2128
Βραβ@@ 2127
Ρεάλ 2127
επεξεργαστ@@ 2127
επιτέθηκαν 2127
παλαιά 2127
27@@ 2126
Φρά@@ 2126
αποδείχθηκε 2126
συνθέσεις 2126
Έβ@@ 2125
φορείς 2125
άλλον 2124
έκτακ@@ 2124
ερί 2124
τοποθέ@@ 2124
Κάσ@@ 2123
αίθουσες 2123
περίφημ@@ 2123
Πανελλήν@@ 2122
άλλοτε 2122
βό@@ 2122
όντια 2122
άλες 2121
δυσκολίες 2121
συνθέτη 2121
cm 2120
Όλες 2120
ίζα 2120
ρέει 2120
Ιστορίας 2119
Κορινθ@@ 2119
θρησκ@@ 2119
πολιτισμ@@ 2119
1898 2118
Ανδρ@@ 2118
Θεός 2118
επικοινωνίας 2118
προσώπους 2118
Αλέξανδρου 2117
φωνητικά 2117
νομική 2116
εκλ@@ 2115
πρόκρι@@ 2115
συνέβαλε 2115
ωρών 2115
ζήτησαν 2114
θεμέ@@ 2114
πεδα 2114
ποίησης 2114
πολέμησε 2114
στησε 2114
συμβάλλ@@ 2114
Ραδι@@ 2113
διδασκαλ@@ 2113
ειδή 2113
εκδίδ@@ 2113
ουγκ@@ 2113
παραγγελ@@ 2113
Γενική 2112
Μουν@@ 2112
Φρειδερ@@ 2112
έργη 2112
ενδιαφέρ@@ 2112
θεά 2112
κτίστηκε 2112
λιού 2112
ούχων 2112
παράγονται 2112
πης 2112
mm 2111
Φραντσ@@ 2111
Χαμ@@ 2111
δίων 2111
ορισμένους 2111
παράκ@@ 2111
παραλλαγές 2111
προπον@@ 2111
διακρίνονται 2110
Βελιγράδι 2109
ικοι 2109
μόδ@@ 2109
ολογείται 2109
οργανισμό 2109
Κολομ@@ 2108
άφους 2108
ατ 2108
αφιέρ@@ 2108
επίδοση 2108
επαγγελματικό 2108
λοι@@ 2108
000.000 2107
NBA 2107
ήσια 2107
πράκ@@ 2107
ότητές 2107
Bo@@ 2106
Ισαβέλλα 2106
απόδειξη 2106
εμπορίου 2106
όκιο 2106
νεα@@ 2105
ντοκιμαντέρ 2105
σκάφος 2105
Αλγερ@@ 2104
Θράκη 2104
αφήσει 2104
δέρμα 2104
ϊκό 2104
Ιπ@@ 2103
σίγου@@ 2103
όσοι 2103
αέριο 2102
άμα 2101
θαρ@@ 2101
θαυμα@@ 2101
τωμα 2101
φάσης 2101
ημένων 2100
ξένων 2100
ξεφ@@ 2100
Sp@@ 2099
ανάγκασε 2099
νότο 2099
οργανισμού 2099
πτική 2099
Βιομηχαν@@ 2098
Παναθηναϊκός 2098
Πραγ@@ 2098
εκτέλε@@ 2098
ενδείξεις 2098
ομοφυλ@@ 2098
ωφ 2098
Ελλ@@ 2097
Ιάκωβος 2097
Περιοχή 2097
αναπτύσσεται 2097
ατιού 2097
ωφελ@@ 2097
ανη@@ 2096
απάντησε 2096
εργαστ@@ 2096
κοβιτς 2096
μετανάστευ@@ 2096
μετρία 2096
ομό@@ 2096
119@@ 2095
διακυβ@@ 2095
ούμενοι 2095
πρωτε@@ 2095
Γκον@@ 2094
γένους 2094
γιοι 2094
θυγατρ@@ 2094
οδότη@@ 2094
w 2093
γράφων 2093
ελλαδ@@ 2093
μούς 2093
ρίδες 2093
φιλοξενεί 2093
Μίν@@ 2092
αγορές 2092
σύλληψη 2092
καταγράφ@@ 2091
οσσ@@ 2091
σήμαινε 2091
σύμβολα 2091
τοποθετ@@ 2091
Έντ@@ 2090
εργαλεία 2090
Αθαν@@ 2089
Αναγέννηση 2089
αδυνα@@ 2089
εμπιστο@@ 2089
συγκεκριμένες 2089
υποψηφ@@ 2089
All 2088
Λευ@@ 2088
αποτελούνται 2088
αρραβ@@ 2088
διάκ@@ 2088
επιγραφές 2088
ιανός 2088
προτάθηκε 2088
os@@ 2087
κυκλοφορού@@ 2087
ρίζα 2087
Βαρσοβίας 2086
Εθνικός 2086
πλευράς 2086
ποδοσφαιριστές 2086
προσώπ@@ 2086
Αντα@@ 2085
άμερ 2085
αίτημα 2085
ενθ@@ 2085
Βουκου@@ 2084
όρι 2084
Μικράς 2083
τηλεοπτικές 2083
αποτρέ@@ 2082
δόκ@@ 2082
πληκ@@ 2082
Το@@ 2081
ολόγου 2081
άφιξη 2080
γραφα 2080
νωρίς 2080
υψηλές 2080
φρόν@@ 2080
del 2079
Κεφ@@ 2079
ευτές 2079
πορτογαλ@@ 2079
πυρι@@ 2079
φασματικός 2079
Δύση 2077
Χού@@ 2077
λαι@@ 2077
φέ@@ 2077
Di@@ 2076
έλια 2076
ίφ@@ 2076
αντικειμένων 2076
κωμωδία 2076
sh@@ 2075
Μή@@ 2075
αλήθεια 2075
κινητήρ@@ 2075
λατ@@ 2075
πλήρης 2075
Κατασκευ@@ 2074
θετικές 2074
ξεχωριστή 2074
πολις 2074
φυλής 2074
Nissan 2073
Ζακ@@ 2073
Σλοβεν@@ 2073
κιλά 2073
κύκλους 2073
δημοκρατίας 2072
εκστρατείας 2072
ωθ@@ 2072
Ειδικότερα 2071
Κέι@@ 2071
αδρ@@ 2071
ασυνήθι@@ 2071
δείχτηκε 2071
δευτερόλεπτα 2071
ειλαν 2071
κατανάλωση 2071
μπορέ@@ 2071
σκο 2071
γαλλικής 2070
διάμετρο 2070
δράσεις 2070
κατοικίες 2070
λίγκα 2070
ρούσα 2070
Λουί 2069
αντού@@ 2069
εξισ@@ 2069
ώστου 2069
Νάξ@@ 2068
αναμεν@@ 2068
πρόσκ@@ 2068
διαι@@ 2067
ονό@@ 2067
ρικούς 2067
στρας 2067
τίμ@@ 2067
εξοπλισμό 2066
ορθόδοξ@@ 2066
ύπν@@ 2066
Καλαθοσφαίρισης 2065
ήχο 2065
βεν 2065
επιστημονικής 2065
θεατρικό 2065
περιορισμένη 2065
τάφηκε 2065
Άννας 2064
αραβικά 2064
επισκοπή 2064
ονομασίες 2064
Γιώργο 2063
Δεκα@@ 2063
Νορμανδίας 2063
θηλα@@ 2063
τυχαν 2063
Ιλ 2062
εισόδου 2062
οδρομ@@ 2062
πρότ@@ 2062
Αχιλλ@@ 2061
ήνου 2061
ευγενών 2061
θολ@@ 2061
θον@@ 2061
μαρ 2061
Α.Σ. 2060
Επιχειρ@@ 2060
τριας 2060
Χανίων 2059
ένταση 2059
συνέβ@@ 2059
im@@ 2058
Νορβηγ@@ 2058
άρει 2058
ένκο 2058
ανικό 2058
διαταγ@@ 2058
μιρ 2058
Τζέν@@ 2057
επιτυγχ@@ 2057
μω@@ 2057
συλλόγων 2057
σύνδρομο 2057
τρι 2057
NGC 2056
ήρωα 2056
αυτοκίνητα 2056
καυ@@ 2056
παγκόσμιας 2056
αναλογία 2055
θετικά 2055
em@@ 2054
μακρά 2054
πανεπιστήμια 2054
Times 2053
ur@@ 2053
μορ 2053
ωμένοι 2053
Πληθυσμός 2052
εικα@@ 2052
σύνθε@@ 2052
Επισκοπ@@ 2051
Καναδ@@ 2051
Σώμα 2051
Τσαρλς 2051
προορι@@ 2051
στόλος 2051
όβαθ@@ 2051
Απόστολ@@ 2050
άλους 2050
ακριβής 2050
λατρεία 2050
μουσικός 2050
συζήτηση 2050
φανερ@@ 2050
χρώματος 2050
Άραβες 2049
αφιερωμένο 2049
13ο 2048
Γλ@@ 2048
Δούναβη 2048
αγόταν 2048
ακυρ@@ 2048
δεκάδες 2048
εμπνευσ@@ 2048
ευτικά 2047
ουρά 2047
ΕΛΑΣ 2046
κατέφυγε 2046
νοσοκομ@@ 2046
πραγ@@ 2046
προϊ@@ 2046
ύλα 2046
Αγγλικά 2045
Σμιθ 2045
se 2044
έρο 2044
βιομηχανίας 2044
οποιήσει 2044
πλέγ@@ 2044
σκι@@ 2044
στράφηκε 2044
όμορφη 2044
αγρι@@ 2043
απεικονίζει 2043
καταλή@@ 2043
παρατηρήσεις 2043
πρε@@ 2043
σοβαρή 2043
Βελγίου 2042
Μπράι@@ 2042
αντίστοιχη 2042
απελευθέρ@@ 2042
συγχρον@@ 2042
αρχαίος 2041
ζωντανά 2041
κατακτώντας 2041
στασή 2041
υποδεικνύ@@ 2041
ens 2040
Λίβ@@ 2040
Μοχ@@ 2040
διατηρούσε 2040
επιρροές 2040
πλέι 2040
εγερ@@ 2039
κό 2039
ρους 2039
σελίδες 2039
σμπερ@@ 2039
στης 2039
συμμετέχ@@ 2039
Ρόδ@@ 2038
νίκ@@ 2038
παχ@@ 2038
τείται 2038
ώνυμο 2037
11,@@ 2036
Επαγγελ@@ 2036
ιδιαίτερ@@ 2036
κατεδ@@ 2036
κτηνοτροφία 2036
ουφ@@ 2036
υποδύ@@ 2036
όμετρο 2036
One 2035
Ρω@@ 2035
ήλαιο 2035
ευαν 2035
Παυσ@@ 2034
άντιο 2034
ηψη 2034
κορύ@@ 2034
στραμ@@ 2034
αντιπάλους 2033
κλάδο 2033
κύκλ@@ 2033
νυχτερ@@ 2033
ρονομ@@ 2033
υφίσταται 2033
Μιλάνο 2032
Νόρ@@ 2032
τιστεί 2032
Αυστρο@@ 2031
ικα@@ 2031
Πρέβεζ@@ 2029
έκ 2029
δίκα@@ 2029
χτύπ@@ 2029
Co@@ 2028
Σλοβακ@@ 2028
μέγιστη 2028
ξαφν@@ 2028
οξείδ@@ 2028
Αγγ@@ 2027
Μπρι@@ 2027
Συρίας 2027
έμβλημα 2027
επιτυχώς 2027
ισχυρίστηκε 2027
ζόν 2026
ξύλο 2026
τετραγωνικά 2026
1889 2025
Μητρόπολη 2025
γραφικό 2025
ισοδύνα@@ 2025
καταστάθηκε 2025
λεγόμενο 2025
μονομ@@ 2025
φε@@ 2025
αντές 2024
γραψε 2024
εβδομ@@ 2024
μικρότερες 2024
οτροπ@@ 2024
προδ@@ 2024
χωρητικότητα 2024
Βόρειο 2023
Κωνσταντ@@ 2023
ατικών 2023
Σκωτία 2022
αιγ@@ 2022
παρουσ@@ 2022
τουρκικό 2022
φιλανθρωπ@@ 2022
Έντουαρντ 2021
οξι@@ 2021
υπόψη 2021
Έσσης 2020
δη@@ 2020
εξειδικευ@@ 2020
κάνια 2020
κίνδυν@@ 2020
παρατηρείται 2020
100.000 2019
Γλώσ@@ 2019
άντας 2019
ευτικές 2019
λέσ@@ 2019
Αφρικαν@@ 2018
διατηρήσει 2018
επισκευ@@ 2018
πλανή@@ 2018
ανγκ@@ 2017
συγγραφή 2017
ωνύ@@ 2017
Θεόδω@@ 2016
Παιδείας 2016
αρχαίου 2016
εκπαι@@ 2016
πεδο 2016
στήλη 2016
τσελ@@ 2016
Αμμ@@ 2015
Τάρ@@ 2015
αριθμούσε 2015
καπ@@ 2015
κοινωνικό 2015
παίζοντας 2015
πολυάριθμ@@ 2015
φιγ@@ 2015
αλφαβ@@ 2014
βαριά 2014
ζά@@ 2014
Μεταξ@@ 2013
Νάπολης 2013
Τσεχοσλοβακ@@ 2013
γιατρός 2013
εγκληματ@@ 2013
Πωλ 2012
κοφ@@ 2012
μεταρρυθμίσεις 2012
οκομ@@ 2012
ουκ 2012
τουρκο@@ 2012
Λήμ@@ 2011
γά 2011
πάρα 2011
σκοπός 2011
Έρευ@@ 2010
Επέστρεψε 2010
Κολλ@@ 2010
έψ@@ 2010
διαδικασίας 2010
θέας 2010
πλήρ@@ 2010
πονη@@ 2010
πυρα@@ 2010
ριζε 2010
Οδυσσ@@ 2009
Τζων 2009
αλλήλ@@ 2009
παρουσίαση 2009
φυτό 2009
Εσωτερικών 2008
ανθρώπινο 2008
διαφορετικούς 2008
στρατόπεδα 2008
αποκαλείται 2007
επισκέφθηκε 2007
μεγαλύτερους 2007
πλήρες 2007
άθλ@@ 2006
άτσ@@ 2006
απολύ@@ 2006
αψ@@ 2006
ησί@@ 2006
λήψη 2006
ολόγησης 2006
υπόγ@@ 2006
Εμφαν@@ 2005
Οίκος 2005
ικάν@@ 2005
E9E9E9 2004
Νυ@@ 2004
Χαρακτηριστ@@ 2004
κίνη@@ 2004
οφιλ@@ 2004
Εδουάρδος 2003
Ελεον@@ 2003
Πετρ@@ 2003
Σύνοδο 2003
ευτής 2003
πολε@@ 2003
Όρος 2002
Πάνω 2002
εγγονός 2002
ισχ@@ 2002
Ανδρών 2001
αίθ@@ 2001
απέρριψε 2001
ετησίως 2001
τιμών 2001
Λέων 2000
Σερ 2000
πολλαπλασι@@ 2000
σιδη@@ 2000
χερσόνησο 2000
ti@@ 1999
Πάσ@@ 1999
έροντα 1999
οικοδ@@ 1999
προσευ@@ 1999
Ανήκει 1998
Ρόδου 1998
CH@@ 1997
Θάνατος 1997
άνα@@ 1997
δεξ@@ 1997
πλαισ@@ 1997
ηχογραφήσεις 1996
θεού 1996
λιση 1996
2,5 1995
Πινακο@@ 1995
αμερ@@ 1995
Ινστιτούτου 1994
δεχθεί 1994
μανση 1994
νεαρό 1994
συνέλευση 1994
τροπή 1994
15ο 1993
Πρωθ@@ 1993
εργάτες 1993
καλείται 1993
μαντ@@ 1993
μετατρέ@@ 1993
πετύχει 1993
My 1992
ντι@@ 1992
πολίτευ@@ 1992
φυσικός 1992
Ακου@@ 1991
Περιφέρειας 1991
αφαιρέ@@ 1991
δουλεύ@@ 1991
μονα 1991
νύχ@@ 1991
υδροξ@@ 1991
Y 1990
Γυναικ@@ 1990
Τζόρ@@ 1990
ξενοδοχ@@ 1990
ουσιών 1990
δίσκους 1989
κήρυξε 1989
Ολυμπιακών 1988
Ρόλου 1988
Τραπεζ@@ 1988
αργά 1988
οδε@@ 1988
ονόματι 1988
στάιν 1988
metal 1987
Αμέσως 1987
Βερν@@ 1987
Λεμεσού 1987
διαδοχή 1987
σκέψη 1987
όμε@@ 1987
Μανουήλ 1986
αντίστροφ@@ 1986
un@@ 1985
Νοσοκομ@@ 1985
μαρμά@@ 1985
Αντώνιος 1984
Δε@@ 1984
Διαφ@@ 1984
Καστίλης 1984
Τραγουδιού 1984
ανανε@@ 1984
εθνικά 1984
θεραπείας 1984
κλάδος 1984
πρωθυπουργού 1984
σπουδαι@@ 1984
υπεράσ@@ 1984
ὸ@@ 1984
Διοικητική 1983
Ζι@@ 1983
ειδικ@@ 1983
κν@@ 1983
πελλα 1983
σφραγ@@ 1983
Ορθ@@ 1982
ουπόλεως 1982
ραγκ@@ 1982
Μονάχου 1981
άγι@@ 1981
αναφερόταν 1981
αυτοκινήτων 1981
επιβι@@ 1981
κυλ@@ 1980
ab@@ 1979
αναλύ@@ 1979
ητικός 1979
κλασσ@@ 1979
ρύθμιση 1979
χειμερ@@ 1979
Γ.Σ. 1978
Στρα@@ 1978
αναπτυχθεί 1978
απαιτήσεις 1978
βλεψη 1978
τάφος 1978
τολές 1978
χυση 1978
Αγρο@@ 1977
Βρετανική 1977
Σχέδιο 1977
Τέτο@@ 1977
ζονταν 1977
κάς 1977
λαση 1977
ορυκτ@@ 1977
ούρι 1977
σια 1977
σκλάβ@@ 1977
Αργεντινή 1976
Βον@@ 1976
Κοζάνης 1976
Τζόν@@ 1976
κάποιους 1976
ωνικός 1976
Θεό 1975
καλύψει 1975
σύγχρονες 1975
τηλεόρασης 1975
Ανγκ@@ 1974
άνγκ 1974
ατες 1974
βίαι@@ 1974
ικίας 1974
κρατική 1974
ard 1973
ΟΣ 1973
αργύρου 1973
λοί@@ 1973
ale 1972
Κορέα 1972
Φρανσουά 1972
έντε@@ 1972
ίτσια 1972
σκο@@ 1972
ed@@ 1971
ΑΕ 1971
Ιού@@ 1971
θεσαν 1971
σύσταση 1971
1830 1970
Πέτρο 1970
γεννα@@ 1970
σχεδι@@ 1970
όδι 1970
2ου 1969
Θεάτρου 1969
αλλάζει 1969
δοκιμα@@ 1969
Πρίγκιπα 1968
Πρωταγων@@ 1968
άσκηση 1968
αντιπολίτευσης 1968
κς 1968
WWE 1967
Γι 1967
Κριμαίας 1967
αριστ@@ 1967
γερμανικές 1967
επισήμως 1967
κοί 1967
λίνα 1967
ολοκλήρου 1967
Χάμ@@ 1966
άκου 1966
άρε@@ 1966
ατο 1966
Ποι@@ 1965
πλήρωμα 1965
Γεωργία 1964
Διασ@@ 1964
Ειρήνης 1964
Λαυ@@ 1964
δάσκαλ@@ 1964
εκτελέστηκε 1964
6η 1963
Ωδ@@ 1963
ήχθησαν 1963
ίδιες 1963
αιθαν@@ 1963
μετρι@@ 1963
ύρια 1963
ύρου 1963
Εθνοσυνέλευση 1962
Τοποθεσία 1962
αστών 1962
νινα 1962
περιλαμβάνεται 1962
ωδίες 1962
1885 1961
III 1961
δυνατότητες 1961
σιδ@@ 1961
τάζ 1961
χαρακτήρων 1961
ve 1960
Γιανν@@ 1960
Φαλ@@ 1960
διάγνωση 1960
διαφοροποι@@ 1960
ερυθρ@@ 1960
Γκαλ@@ 1959
αιφ@@ 1959
εσης 1959
άκρα 1958
μέτρησης 1958
σελ 1958
χρήστη 1958
Pr@@ 1957
Δημοκρατικό 1957
Ιησ@@ 1957
άδος 1957
ακόλουθες 1957
καλλ@@ 1957
πλα 1957
προβιβ@@ 1957
συμμετ@@ 1957
Μεσογείου 1956
Νερ@@ 1956
Προφ@@ 1956
πάροδο 1956
προϊστο@@ 1956
τερματο@@ 1956
τοποθέτηση 1956
Τζέρ@@ 1955
αδέλφ@@ 1955
αϊκή 1955
βασίζονται 1955
διατριβ@@ 1955
ηνα@@ 1955
θεός 1955
ιθ@@ 1955
κηδ@@ 1955
οφόρησε 1955
χή@@ 1955
Κροατία 1954
οθόνη 1954
Mo@@ 1953
Ακτ@@ 1953
Γ.@@ 1953
19@@ 1952
άνιση 1952
κόκ@@ 1952
Γερουσία 1951
Κράτους 1951
Στι@@ 1951
Φώ@@ 1951
κόντρα 1951
σκάφη 1951
ταξίδια 1951
Αθηναίων 1950
Σλάβ@@ 1950
εκπομπής 1950
εξασφάλισε 1950
επιμελ@@ 1950
14ο 1949
απόρ@@ 1949
προσωρινή 1949
ρίδιο 1949
Cr@@ 1948
ορού@@ 1948
σύμμαχ@@ 1948
CH2@@ 1947
age 1947
Ναζί 1947
Πέρσες 1947
γιορ@@ 1947
ευαισθη@@ 1947
ηγήθηκε 1947
νεότερος 1947
προστέθηκε 1947
πτω@@ 1947
συνοδευ@@ 1947
φεραν 1947
Όθ@@ 1946
Ποδοσφαιρική 1946
δυτικής 1946
Εξαιτίας 1945
Πρα@@ 1945
βος 1945
ρασαν 1945
στιχ@@ 1945
ῶν 1945
Βασίλειος 1944
άρτη@@ 1944
Μπί@@ 1943
μεμβ@@ 1943
προκαλούν 1943
τριάντα 1943
Καλύτερης 1942
ητριών 1942
Ομίλου 1941
αυθ@@ 1941
επιστρέφ@@ 1941
κατέστησε 1941
λατινική 1941
μειώθηκε 1941
ορυχ@@ 1941
περνάει 1941
σύνθεσης 1941
Saint 1940
ανακηρύ@@ 1940
δέντρο 1940
καθένα 1940
ρόφ@@ 1940
ic 1939
Κιλ@@ 1939
Σλαβ@@ 1939
έλυσε 1939
ίω@@ 1939
συμβουλ@@ 1939
ταξιδεύ@@ 1939
ότο 1939
αμφισβητ@@ 1938
απάν@@ 1938
νησιών 1938
1860 1937
Έθελ@@ 1937
Ανδρόν@@ 1937
άνους 1937
εξάπλ@@ 1937
επικράτ@@ 1937
παρείχε 1937
εμόνα 1936
αναγκ@@ 1935
αφ 1935
διαστάσεων 1935
υλι@@ 1935
Ο. 1934
ένο 1934
αντιδρα@@ 1934
συντομ@@ 1934
Ακολούθησαν 1933
Κλέ@@ 1933
εμιν@@ 1933
υλο 1933
du 1932
Δυνάμεων 1932
Κίνημα 1932
έλαιο 1932
έφαλ@@ 1932
προμή@@ 1932
Βυζαντινής 1931
Ουάσινγκτον 1931
Πειρα@@ 1931
Be@@ 1930
ενορ@@ 1930
λε 1930
μιλι@@ 1930
πρωτό@@ 1930
σύγχρονα 1930
Αθανάσιος 1929
Μέτωπο 1929
Χερσ@@ 1929
γκό 1929
δοκιμές 1929
κινητήρες 1929
νοτι@@ 1929
φαι@@ 1929
ανακαιν@@ 1928
ετική 1928
ιακούς 1928
Σακ@@ 1927
διατυπ@@ 1927
εξέγερσης 1927
μπού 1927
τέλ 1927
δύνα@@ 1926
καλλιτεχνική 1926
κρίθηκε 1926
πρωτεύ@@ 1926
DVD 1925
κακή 1925
Άγγλος 1924
κενό 1924
κυκλοφορεί 1924
στάν 1924
ήθη 1923
δίκτυα 1923
διαγραφ@@ 1923
θείος 1923
κοινο@@ 1923
όδο@@ 1923
ότητος 1923
Γενικό 1922
στήριξη 1922
τσέζ@@ 1922
υπόλοιποι 1922
1848 1921
Ζα@@ 1921
Ηθ@@ 1921
εκ. 1920
10.@@ 1919
Star 1919
Ουγ@@ 1919
δωμάτιο 1919
εστιατ@@ 1919
πολιτιστική 1919
στου 1919
El@@ 1918
θαρρ@@ 1918
σαν@@ 1918
Χάλ@@ 1917
έλαγος 1917
γοτθ@@ 1917
γυναικεία 1917
ετεροθαλ@@ 1917
έζ 1916
βαρύτη@@ 1916
μόνιμη 1916
άνδρ@@ 1915
διαδραματ@@ 1915
ιακ@@ 1915
καζ@@ 1915
Δουκάτο 1914
Εποχή 1914
Πολύ@@ 1914
αγωνίσματα 1914
κυρ@@ 1914
λάν@@ 1914
λίμνες 1914
ποτε 1914
un 1913
γεωγραφικό 1913
ορθογ@@ 1913
συσκευή 1913
ῦ 1913
ακολουθώντας 1912
καταλήφθηκε 1912
οινων@@ 1912
συγκροτήματα 1912
Ύστερα 1911
βγήκε 1911
πρωθυπουργό 1911
ψυχαγωγ@@ 1911
Ιεράς 1910
δοκί@@ 1910
ειλημ@@ 1910
ομίλων 1910
παρόν 1910
Εμπ@@ 1909
αντο@@ 1909
εδρεύει 1909
εργαστεί 1909
ρούχα 1909
συγχώνευση 1909
βοήθ@@ 1908
στία 1908
Αδόλ@@ 1907
θεία 1907
μηχανές 1907
πεδία 1907
συνόδευ@@ 1907
φιλόσοφος 1907
χρονιές 1907
OS 1906
York 1906
Οργανισμού 1906
διατήρ@@ 1906
επιλέ@@ 1906
πηγαίνει 1906
δημοσίευση 1905
Φραγκίσκος 1904
άγιος 1904
οδηγίες 1904
ποταμών 1904
Am@@ 1903
άρτησης 1903
ήρυξε 1903
δεσμεύ@@ 1903
υποψήφια 1903
φαντασίας 1903
Αποτελέσματα 1902
υποστήριζε 1902
Επιχείρ@@ 1901
αποφεύγ@@ 1901
επωνυμία 1901
μυρ@@ 1901
τέχνες 1901
Νικόλαο 1900
Παλάτι 1900
άσκησε 1900
είνουν 1900
Ανθρω@@ 1899
Ορλε@@ 1899
ροφο 1899
φρουρά 1899
In 1898
Κιλκίς 1898
άλει@@ 1898
ήσης 1898
ία@@ 1898
γυαλ@@ 1898
εξετάσεις 1898
ιατρικής 1898
νομιμ@@ 1898
Συνέχισε 1897
βρήκαν 1897
εμφάνισή 1897
καλύπτουν 1897
πούλ@@ 1897
id@@ 1896
Ντάρ@@ 1896
έλλειψης 1896
βασίστηκε 1896
συμπεριλήφθηκε 1896
όπη 1896
Σάλ@@ 1895
ίδος 1895
ευκολ@@ 1895
θείου 1895
στόχους 1895
Οικονομία 1894
εξέλι@@ 1894
ημιτελικό 1894
κατάργηση 1894
τρόφιμα 1894
ύκ@@ 1894
Εδ@@ 1893
Νήσων 1893
γυρίσματα 1893
διαφορε@@ 1893
διόρισε 1893
ινός 1893
κυριαρχίας 1893
τόπου 1893
20.000 1892
Γενεύ@@ 1892
Δρ@@ 1892
Τους 1892
δότησε 1892
εκτοπ@@ 1892
μάζας 1891
πλείστον 1891
Όν@@ 1890
ΕΚ 1890
ζώνες 1890
κοινωνικών 1890
έλεγχος 1889
εννο@@ 1889
σπάν@@ 1889
συζητ@@ 1889
συνεργάτες 1889
Ριζ@@ 1888
Στάλιν 1888
ενδο@@ 1888
προσκυν@@ 1888
ριακές 1888
τέρμα 1888
Αντόνιο 1887
ζι@@ 1887
μετανάστες 1887
σημειώνοντας 1887
Άρχ@@ 1886
επίλ@@ 1886
ισον 1886
αγροτική 1885
αδερφή 1885
ειακής 1885
πουλιά 1885
φόρου 1885
χρονο 1885
² 1884
Σικάγο 1884
Χοεν@@ 1884
βίλ 1884
εξόρι@@ 1884
ερμή@@ 1884
καταστροφές 1884
νακας 1884
περισσότερων 1884
American 1883
qu@@ 1883
διδακτορικό 1883
συνορεύει 1883
κάτου 1882
τερς 1882
διανομή 1881
εφηβ@@ 1881
κινδύ@@ 1881
μόρφω@@ 1881
ίκια 1880
ειακού 1880
εκατοστά 1880
κατοχ@@ 1880
μαυ@@ 1880
πρωτότυπο 1880
ρουμαν@@ 1880
σερ 1880
συνδέθηκε 1880
απεσταλ@@ 1879
θαναν 1879
μήνυμα 1879
Βόλου 1878
δι 1878
πραγματοποιήσει 1878
τριπλ@@ 1878
βες 1877
επηρέασε 1877
σωμάτων 1877
τέ 1877
τακτικά 1877
Time 1876
Ιδιαίτερ@@ 1876
Σιλε@@ 1876
Χο@@ 1876
θεώρησε 1876
χειρό@@ 1876
× 1875
Έρικ 1875
Ενω@@ 1875
οχήματα 1875
στίχοι 1875
ώρου 1875
Νοτιο@@ 1874
εφαρμόσ@@ 1874
κατηγόρ@@ 1874
φάσεις 1874
φυλε@@ 1874
AN@@ 1873
γεν. 1873
πνεύ@@ 1873
Καβάλας 1872
Λίμνη 1872
αντς 1872
δικαίου 1872
ινι@@ 1872
ιστορικών 1872
Εγκ@@ 1871
Σμύρνη 1871
Χαλκιδ@@ 1871
ετυμ@@ 1871
εφοδιασ@@ 1871
ητά 1871
ολόγοι 1871
σχηματίστηκε 1871
τραγουδιστή 1871
όρκ@@ 1871
ασθένειες 1870
εξίσωση 1870
ξέρ@@ 1870
άντης 1869
φοράς 1869
Βιβλιο@@ 1868
Μαραθ@@ 1868
Φιλιππ@@ 1868
άνοι 1868
αναπαραγωγής 1868
εντυπω@@ 1868
κάστ@@ 1868
προσέφερε 1868
πότε 1868
Φινλανδία 1867
αποθήκ@@ 1867
διαπίστ@@ 1867
νησή 1867
συμπαίκ@@ 1867
όγδο@@ 1867
όδημ@@ 1867
ΑΟ 1866
Πρώτο 1866
νικώντας 1866
σχεδιασμού 1866
σύρ@@ 1866
Λιθουανίας 1865
Πατριάρχη 1865
Φθιώ@@ 1865
λιο@@ 1865
πληθυσμούς 1865
πολωνική 1865
σημεί@@ 1865
Λαζ@@ 1864
ολογικός 1864
υπολογιστές 1864
όπλο 1864
μβέργης 1863
Κοσ@@ 1862
θαλάσ@@ 1862
ολόγων 1862
πλούσιο 1862
Ερευ@@ 1861
Ηλία 1861
ήτων 1861
οπή 1861
ρε 1861
σώζεται 1861
Ενε@@ 1860
Κοινοπολι@@ 1860
ΣΥ@@ 1860
ελήφ@@ 1860
επάγγελμα 1860
μηδέν 1860
φερε 1860
Μπερν@@ 1859
δανε@@ 1859
τυπο 1859
φαινόμενα 1859
άλεσε 1858
έπει@@ 1858
ελαφρώς 1858
εμπορικές 1858
ενισχυ@@ 1858
προφανώς 1858
υιοθέτησε 1858
φιλοσοφίας 1858
επανεξελέγη 1857
οντα@@ 1857
προώ@@ 1857
σημερινού 1857
1866 1856
Δήμαρχος 1856
δίκαιο 1856
δίω@@ 1856
εύς 1856
ιμπ@@ 1856
νορ@@ 1856
ξύ@@ 1856
οφθαλ@@ 1856
σημαντικότερο 1856
Αιτωλ@@ 1855
Ετυμ@@ 1855
Παναθηναϊκού 1855
αλάσ@@ 1855
δεύτερ@@ 1855
εμπό@@ 1855
ινούς 1855
υποψήφιοι 1855
Γκο@@ 1854
Καλαμ@@ 1854
άλογ@@ 1854
εγκαταστ@@ 1854
ζώνης 1854
ουλίου 1854
όδευ@@ 1854
Cl@@ 1853
Play 1853
Βαλδου@@ 1853
Καρδί@@ 1853
νεκροταφείο 1853
πτήσεις 1853
1ου 1852
Ηράκλ@@ 1852
ήρας 1852
αριστερή 1852
ενώσεων 1852
πολίτης 1852
ino 1851
αιτι@@ 1851
αυτοκινητο@@ 1851
δείτε 1851
εκλεγεί 1851
εργο@@ 1851
θαλάσσια 1851
φίλοι 1851
χαρακτηριστική 1851
Ιρλανδ@@ 1850
Ντεν@@ 1850
Πάρκο 1850
άσος 1850
αζ 1850
αριού 1850
προσωπικότητα 1850
συνεργάτης 1850
Παγκόσμιας 1849
Χένρι 1849
λόφου 1849
σημαντικότερες 1849
Μόναχο 1848
Σιλ@@ 1848
Σμ@@ 1848
απονέ@@ 1848
γιορτά@@ 1848
εδίου 1848
ελεγχ@@ 1848
π.@@ 1848
Καραμαν@@ 1847
ενοχ@@ 1847
φοι@@ 1847
ata 1846
Βουρβόνων 1846
ορίζει 1846
πλασ@@ 1846
It 1845
ΑΤ@@ 1845
Κυν@@ 1845
αδερφός 1845
απόγ@@ 1845
διάβ@@ 1845
θαύ@@ 1845
συν 1845
φού@@ 1845
Μάντσεστερ 1844
άσι 1844
στέφθηκε 1844
τώ 1844
ότοπο@@ 1844
Ελβ@@ 1843
επιστήμ@@ 1843
θαμ@@ 1843
ιστορι@@ 1843
ποταμ@@ 1843
τει 1843
Sch@@ 1842
Ιρλανδίας 1842
Λαμπ@@ 1842
Περιφερειακής 1842
ίμου 1842
αδελφούς 1842
βιογραφία 1842
πάντοτε 1842
ύρος 1842
Ex@@ 1841
il@@ 1841
Έγραψε 1841
Πλέ@@ 1841
μουσικούς 1841
φάρμακο 1841
1894 1840
Σταθμός 1840
έψεις 1840
διατηρη@@ 1840
παλαιότερο 1840
συγκλ@@ 1840
σχόλια 1840
άμεν@@ 1839
διακοπή 1839
εφαλ@@ 1839
κατάλληλη 1839
λέν@@ 1839
πύργος 1839
ρυθμού 1839
επιστολές 1838
τεράστιο 1838
Σόφ@@ 1837
έζα 1837
εθεί 1837
κατανόηση 1837
πε 1837
σχηματίζοντας 1837
υποστηρίξει 1837
Ελε@@ 1836
Σάρ@@ 1836
Συμφωνία 1836
εγκρίθηκε 1836
μνήμης 1836
ορδ@@ 1836
συνέπειες 1836
τζο 1836
1879 1835
Αεροπορίας 1835
Αυλή 1835
Πρί@@ 1835
Χίλ@@ 1835
εγκατα@@ 1835
εξαιρετική 1835
εων 1835
ροής 1835
τέτοιες 1835
Συλλόγου 1834
προσελκύ@@ 1834
σφαλ@@ 1834
Γρηγόριος 1833
Σιδη@@ 1833
Σιμ@@ 1833
Φερν@@ 1833
ένια 1833
εξαφ@@ 1833
κλίση 1833
Βέλ@@ 1832
βάσης 1832
μεγαλύτερου 1832
μους 1832
προπαγ@@ 1832
Αγωνίστηκε 1831
προσωπικού 1831
ανν@@ 1830
θρω@@ 1830
λογισμικού 1830
12ο 1829
AR@@ 1829
Γάλλο 1829
ήρυ@@ 1829
ισθη@@ 1829
σερβικά 1829
Cup 1828
ίσμα 1828
γιορτή 1828
τρεψαν 1828
Ναπολέ@@ 1827
Παγκόσμιου 1827
βασισμένο 1827
συμπερ@@ 1827
υρι@@ 1827
δετερ@@ 1826
επιθετικός 1826
μόρφωση 1826
περ. 1826
πιστοποι@@ 1826
τίμησε 1826
όρυ@@ 1826
επιτρέπουν 1825
καλαθοσφαιριστής 1825
περιστασ@@ 1825
σχηματίζεται 1825
τυφλ@@ 1825
CE 1824
καθυστερ@@ 1824
λουλ@@ 1824
μύθο 1824
πεδιάδα 1824
αίσ@@ 1823
διοργανώθηκε 1823
τέκνο 1823
ώρια 1823
Κοι@@ 1822
καθυστέρ@@ 1822
οργάνωσε 1822
στήλ@@ 1822
χημικό 1822
ύν 1822
Ασφαλ@@ 1821
Δυνάμεις 1821
Στρατός 1821
έντι 1821
έτρ@@ 1821
δούλ@@ 1821
καταλαμβάνει 1821
παρέμβαση 1821
ριντ 1821
συγχ@@ 1821
άχα 1820
γίνονταν 1820
κατασκευές 1820
τεχνικό 1820
τιλ@@ 1820
15ου 1819
Γαβ@@ 1819
Κορέας 1819
αποικίες 1819
εκφρα@@ 1819
επιλογ@@ 1819
κρατούμεν@@ 1819
πρακτικές 1819
προερχ@@ 1819
De 1818
Ζεν@@ 1818
ανθρώπινης 1818
απεικονίζεται 1818
εγκατέλει@@ 1818
Εργάστηκε 1817
Ολύ@@ 1817
Τρεις 1817
άνονταν 1817
ελος 1817
ενδιαφ@@ 1817
νού@@ 1817
παρουσιάζονται 1817
σιγά 1817
στέκ@@ 1817
αναπτύξει 1816
επιχείρησης 1816
οδηγώντας 1816
παραλλαγή 1816
πολιτισμός 1816
συντεταγ@@ 1816
ότητάς 1816
Στιούαρτ 1815
ίγκ@@ 1815
εγχ@@ 1815
κινδύνου 1815
κριτήρια 1815
ντελ 1815
οφόρα 1815
όκα@@ 1815
ὐ@@ 1815
Πετρούπολη 1814
άκες 1814
μέσ@@ 1814
νοι@@ 1814
παίρνοντας 1814
σχεδίασε 1814
Κάποια 1813
Λαϊκό 1813
Συλλογ@@ 1813
αλλαγής 1813
αποσυρ@@ 1813
διεξαγωγής 1813
ευημερ@@ 1813
μαθηματικών 1813
άγους 1812
έχθηκε 1812
διαταραχή 1812
δραστηριότητας 1812
κατεστη@@ 1812
ολοκληρωθεί 1812
πρωτότοκος 1812
χαρακτηρίστηκε 1812
χείρ@@ 1812
2ος 1811
Ημέρα 1811
έπε 1811
βέβαια 1811
δίπλωμα 1811
δωρεάν 1811
θρο 1811
σκληρή 1811
Δαλ@@ 1810
ΕΣ 1810
Ποταμ@@ 1810
μεσα 1810
πέμπτο 1810
συνεργαστεί 1810
ταξί@@ 1810
τελείου 1810
τοκρά@@ 1810
φυλακίστηκε 1810
Βούλγα@@ 1809
Στερε@@ 1809
άργ@@ 1809
ελεύθερος 1809
μετάδοση 1809
Γουιν@@ 1808
Σπάρτη 1808
ματς 1808
Γκραν 1807
Χουάν 1807
έντονο 1807
ανε@@ 1807
εκδοχές 1807
λησης 1807
om 1806
Χάρι@@ 1806
κατοικούσαν 1806
κυνήγ@@ 1806
Hot 1805
ζεύγος 1805
ινες 1805
νομοθεσία 1804
σεξουαλική 1804
ψυχή 1804
4,@@ 1803
Bar@@ 1803
Αστεροσκοπ@@ 1803
ουνς 1803
παίζουν 1803
τμημάτων 1803
όρν@@ 1803
ύτερη 1803
Βορρά 1802
αγκά@@ 1802
αστικού 1802
στασίου 1802
av@@ 1801
Γκραντ 1801
Κρέ@@ 1801
Νότιο 1801
άντρα 1801
διακυβέρνηση 1801
θερμοκρασίας 1801
λευσε 1801
οξυγόνο 1801
καλύτερος 1800
κορυφές 1800
περιπέτ@@ 1800
πυρκαγιά 1800
Ηλίας 1799
γυμνάσιο 1799
διαλέξ@@ 1799
ευτυχ@@ 1799
κουλτούρα 1799
κυριολ@@ 1799
προορισμό 1799
σχήματος 1799
Q 1798
Γκό@@ 1798
Ηλ@@ 1798
ασχόλ@@ 1798
ιατ@@ 1798
στράτηγ@@ 1798
Λάμ@@ 1797
ηματικά 1797
ογιάν@@ 1797
πολύτι@@ 1797
σημειώθηκε 1797
Λουίζα 1796
ινού 1796
καρπ@@ 1796
οδρόμ@@ 1796
Ιστορική 1795
Ουίλιαμ 1795
Προοδευ@@ 1795
ήκ@@ 1795
ήνιο 1795
βόμβ@@ 1795
Έλληνα 1794
κομμάτων 1794
μπαράζ 1794
σχολές 1794
} 1793
αλγόρι@@ 1793
επίκεντρο 1793
ροφυλ@@ 1793
χώρισε 1793
ῖ@@ 1793
παραμον@@ 1792
τσια 1792
τύχει 1792
Ξάνθης 1791
αναστατ@@ 1791
διακρίνεται 1791
διαρκεί 1791
διαστήματα 1791
προσαρμ@@ 1791
τέρν@@ 1791
Σατ@@ 1790
Τελευτα@@ 1790
ίασ@@ 1790
ημένης 1790
καλα@@ 1790
υποψηφιότητες 1790
Αμερικανική 1789
ηχογράφηση 1789
ιδιωτική 1789
περνά 1789
ριακά 1789
τείας 1789
ηθική 1788
φτ@@ 1788
χημικά 1788
χρηματοδότηση 1788
χώροι 1788
Str@@ 1787
Βούλγαρ@@ 1787
Παράδ@@ 1787
μοίρα 1787
νότιας 1787
ταχύτητας 1787
τιμάται 1787
χαρακτηρίζονται 1787
κατασταθεί 1786
κλάδ@@ 1786
κυμαίνεται 1786
τιμος 1786
le@@ 1785
Ανω@@ 1785
ΕΡΤ 1785
Σπυρί@@ 1785
αδερφό 1785
αντίστασης 1785
αντιστασ@@ 1785
εκτεν@@ 1785
ετής 1785
κερδίζει 1785
μετέβη 1785
ομιλίες 1785
οξυγόνου 1785
census 1784
γκτον 1784
κατόρθωσε 1784
λεσ@@ 1784
ορισμού 1784
1892 1783
Γκάρ@@ 1783
Λιν@@ 1783
απαραίτητη 1783
πνευματική 1783
όφυ@@ 1783
School 1782
by 1782
Σαρλ 1782
διεθν@@ 1782
δικας 1782
επλ@@ 1782
εύθυν@@ 1782
hous 1781
­ 1781
Αρά@@ 1781
Εύβοιας 1781
άντε 1781
κριτικούς 1781
σιακά 1781
τορίας 1781
National 1780
Ισλαμ@@ 1780
Μεδ@@ 1780
αρα 1780
διασώ@@ 1780
επίσκεψη 1780
ερασ@@ 1780
μοιρα@@ 1780
ξεκινάει 1780
ποινα 1780
ελικ@@ 1779
επικρά@@ 1779
καινο@@ 1779
ξερ@@ 1779
πάπας 1779
σύντροφ@@ 1779
www.statistics.gr 1778
Αξιοθέατα 1778
Γαλατ@@ 1778
Πέρα 1778
ούλι 1778
ριζαν 1778
ωδίας 1778
Νίκο 1777
Πλατ@@ 1777
Τατ@@ 1777
άλβεδό 1777
ανάδειξη 1777
κιβ@@ 1777
μαχίας 1777
.Το 1776
Μαξι@@ 1776
ίνει 1776
θεωρούσαν 1776
κίτρινο 1776
μαρκ@@ 1776
ύγουν 1776
Ονομασία 1775
μβαναν 1775
οργανισμών 1775
περιεχομένου 1775
στάθηκε 1775
τήτων 1775
Βρετανοί 1774
Μιχα@@ 1774
αγωνιστικές 1774
εύρος 1774
κραν@@ 1774
πράγ@@ 1774
προσφύγων 1774
σπαν@@ 1774
υρί@@ 1774
ψυχρ@@ 1774
Γουλιέλμο 1773
Δεύτερη 1773
Κηφ@@ 1773
αγωγές 1773
αναρχ@@ 1773
περιεκ@@ 1773
πρωταγωνιστές 1773
ρίαση 1773
ύλακες 1773
ΕΟ@@ 1772
ίκους 1772
βιομηχανική 1772
είσοδος 1772
εκτιμήσεις 1772
εξάδελφ@@ 1772
κυβέρνησε 1772
συγκαταλ@@ 1772
τεία 1772
ότερ@@ 1772
00@@ 1771
Γκαμπ@@ 1771
έμ 1771
ανατολικές 1771
ολυμπιονίκης 1771
συνεχείς 1771
τέλους 1771
υποστηρί@@ 1771
εφαλής 1770
Μάρκο 1769
Ιβη@@ 1768
Σίλ@@ 1768
στευ@@ 1768
Βραν@@ 1767
έλτα 1767
αρχιτέκτονας 1767
ξεπέ@@ 1767
πληγ@@ 1767
ρούνται 1767
τελεί 1767
φλοι@@ 1767
Αλή 1766
Μαυροβ@@ 1766
Χολ@@ 1766
δίωξη 1766
επεξεργασίας 1766
μοναστηρι@@ 1766
ούχου 1766
άλλης 1765
δημόσιες 1765
στρέ@@ 1765
χρυσού 1765
Ακρω@@ 1764
έντρ@@ 1764
αναγκάστηκαν 1764
διάδοση 1764
ενν@@ 1764
οικοδόμ@@ 1764
πιστεύει 1764
Βαβυλ@@ 1763
ΕΤ@@ 1763
διατηρήθηκε 1763
δραστηριοτήτων 1763
πουμπλικαν@@ 1763
ρούσαν 1763
τέλης 1763
ασβεστ@@ 1762
εμφύ@@ 1762
κρέας 1762
ναί 1762
στάσιο 1762
φυγή 1762
Βουδ@@ 1761
Κέρ@@ 1761
Νίκαιας 1761
λεξε 1761
τόπ@@ 1761
υποδηλώνει 1761
Ίδρυ@@ 1760
Βαθμ@@ 1760
μετατροπή 1760
Θή@@ 1759
Σοφίας 1759
ακτιβ@@ 1759
ακτινοβολία 1759
αρκετών 1759
διαγωνισμού 1759
οπτ@@ 1759
ec@@ 1758
Εκείν@@ 1758
Λαϊκή 1758
εμπλέκ@@ 1758
προσφέρουν 1758
συνάν@@ 1758
3,@@ 1757
Li@@ 1757
ίδιοι 1757
αντιμετώπι@@ 1757
ηνίας 1757
νομής 1757
ξενοδοχείο 1757
χάρτη 1757
μαύρη 1756
ξιος 1756
Βουλευ@@ 1755
Ιάπ@@ 1755
αϊμ 1755
διαφέρουν 1755
ενδιαφέροντος 1755
ξεχωριστά 1755
όμορφα 1755
Com@@ 1754
Γενικού 1754
βερ 1754
δεσπό@@ 1754
νουν 1754
ολική 1754
Πρωταθλητής 1753
Ταχ@@ 1753
αγρότες 1753
φωλι@@ 1753
αεροσκαφών 1752
βλάστηση 1752
γύρ@@ 1752
δικού 1752
θηλυκά 1752
τει@@ 1752
j 1751
Καυ@@ 1751
Κολο@@ 1751
διαφέρει 1751
καλύφθηκε 1751
παίρν@@ 1751
Έπαι@@ 1750
Ερζεγοβίνης 1750
Λόγ@@ 1750
απαραίτητα 1750
κατηγορού@@ 1750
Άντρι@@ 1749
Νιού@@ 1749
Ολο@@ 1749
Πολύ 1749
Πρωτεύουσα 1749
αρχίες 1749
βορει@@ 1749
σύγκ@@ 1749
τρόμ@@ 1749
φτάνουν 1749
έμου 1748
απευθύν@@ 1748
γνωρίζουμε 1748
γνώσεις 1748
πομπ@@ 1748
σκυ@@ 1748
υποχρέ@@ 1748
4ου 1747
Ήλιο 1747
Βιετνάμ 1747
Βοσνία 1747
λής 1747
μαζική 1747
υιοθέ@@ 1747
υπερβ@@ 1747
Αμερ@@ 1746
Μπακ@@ 1746
Τράπεζας 1746
αρσενικά 1746
δον@@ 1746
μώ@@ 1746
ψυχής 1746
Mor@@ 1745
Δημητ@@ 1745
Λεοπόλ@@ 1745
Ράιν@@ 1745
εσωτερικά 1745
οντο@@ 1745
σακ@@ 1745
1871 1744
Hall 1744
Ιζ@@ 1744
Ρωμαν@@ 1744
ακολουθία 1744
ακολού@@ 1744
λλας 1744
πονται 1744
12,@@ 1743
ανεγέρ@@ 1743
ασίου 1743
διεξάγεται 1743
εκστρατείες 1743
Microsoft 1742
ανιψ@@ 1742
ελατ@@ 1742
σύνης 1742
τωνα 1742
φαίν@@ 1742
7ο 1741
αδελφοί 1741
ερώ@@ 1741
4.000 1740
άρντο 1740
ίωσης 1740
σύνθετος 1740
υσι@@ 1740
διαχείρισης 1739
κατευθυν@@ 1739
απαραίτητο 1738
βακτη@@ 1738
ευμένη 1738
κινείται 1738
ωναν 1738
όρθωση 1738
Νιου 1737
βης 1737
κόλπου 1737
ρίκ@@ 1737
Ιλλ@@ 1736
Κιέβου 1736
Λισ@@ 1736
Τρε@@ 1736
Φυσικής 1736
δικούς 1736
μπάλα 1736
Στοκ@@ 1735
ίκτυο 1735
περιφερειακής 1735
5,@@ 1734
Μουσική 1734
αερίων 1734
κατάλληλο 1734
μς 1734
Δη@@ 1733
Θερινούς 1733
Ινδον@@ 1733
Ισρα@@ 1733
απεργ@@ 1733
λί 1733
ap@@ 1732
Απολλ@@ 1732
αμφισβη@@ 1732
ιδρυτικό 1732
κινουμένων 1732
κύμα 1732
μάτισε 1732
μέθοδοι 1732
οπολ@@ 1732
σκόραρε 1732
συνεχεία 1732
όχους 1732
Par@@ 1731
Μαϊ@@ 1731
Σταυροφορία 1731
ανακοίνωση 1731
ασφάλειας 1731
ηνία 1731
υπερασ@@ 1731
φαρμάκων 1731
ra 1730
Δόξ@@ 1730
Χατζη@@ 1730
Σκω@@ 1729
βρέ@@ 1729
επιτροπ@@ 1729
κατηγορήθηκε 1729
ρόλου 1729
χόλ@@ 1729
Άμστερνταμ 1728
Βελιγραδίου 1728
Σχολείο 1728
Φαν@@ 1728
δράμα 1728
οδυναμ@@ 1728
πολεμικές 1728
τερσον 1728
τοτε 1728
Μουσικής 1727
θεώρ@@ 1727
υπογράψει 1727
δοξ@@ 1726
προκάλεσαν 1726
ρηκ@@ 1726
ηρυ@@ 1725
ισοπαλία 1725
ποια 1725
Βασιλικής 1724
Ξη@@ 1724
Φύ@@ 1724
άκου@@ 1724
δημιουργείται 1724
τονομ@@ 1724
UNESCO 1723
Γιώργου 1723
επένδυ@@ 1723
ημένου 1723
πλακ@@ 1723
ραχ@@ 1723
συγκεντρώσει 1723
χωρη@@ 1723
900 1722
Μαυροβουνίου 1722
εκατομμύριο 1722
χρήσεις 1722
ψάρια 1722
ne 1721
Ντελ@@ 1721
βοηθη@@ 1721
διαθέσιμο 1721
οστών 1721
πέφτει 1721
παλαιό 1721
14ου 1720
Άξ@@ 1720
Γραμματέας 1720
Κελ@@ 1720
αυξηθεί 1720
οητευ@@ 1720
οικογέν@@ 1720
πλεονέκτημα 1720
τορπιλ@@ 1720
φωτογραφία 1720
Μολδαβίας 1719
Ρίο 1719
ίσχυ@@ 1719
ερα 1719
νικητές 1719
ορυκ@@ 1719
κυρία 1718
ταχυδρομ@@ 1718
φύλακας 1718
Κέρδισε 1717
αντιλη@@ 1717
εκτοξ@@ 1717
ισι 1717
Ac@@ 1716
ini 1716
van 1716
έννοιες 1716
αντάρτες 1716
εναπο@@ 1716
πλατφόρμα 1716
ρόμ@@ 1716
βέν@@ 1715
εταιρίας 1715
λήφθηκε 1715
ναλ 1715
νατ@@ 1715
παραιτηθεί 1715
ριστου@@ 1715
Se@@ 1714
Μυκ@@ 1714
έστερη 1714
ήτριο 1714
ελκυ@@ 1714
ιώτης 1714
μεταρρύθμιση 1714
ποικίλλ@@ 1714
προϋπο@@ 1714
1893 1713
αερό@@ 1713
ενταχθεί 1713
ναυτικό 1713
νευρο@@ 1713
πτέρυγα 1713
τρέφ@@ 1713
όνησε 1713
1822 1712
ano 1712
Βουλγ@@ 1712
Γάλλων 1712
Γρε@@ 1712
θετα 1712
κάτοχος 1712
κιν 1712
οσφαί@@ 1712
συζητήσεις 1712
άγιο 1711
πλειον@@ 1711
1888 1710
Per@@ 1710
Εκπαι@@ 1710
Θεοφ@@ 1710
απόκτηση 1710
ιανού 1710
σταθερό 1710
Βοημίας 1709
Σομ@@ 1709
απεικόν@@ 1709
κάπως 1709
χαρακ@@ 1709
Αιγάλεω 1708
ανταλλ@@ 1708
εναλλ@@ 1708
θεώρημα 1708
στόμα 1708
Πλατεία 1707
εποπτ@@ 1707
θηκ@@ 1707
τελικούς 1707
χριστιανική 1707
ύλους 1707
ακτινοβολ@@ 1706
καίν@@ 1706
λάχ@@ 1706
λογισμικό 1706
νόσ@@ 1706
Όσον 1705
αποτελεσματική 1705
μοί@@ 1705
Φλωρεντία 1704
ένιος 1704
αριθ@@ 1704
αριών 1704
επιλογής 1704
λέξης 1704
σηματοδο@@ 1704
υποχρεώσεις 1704
χρε@@ 1704
10,@@ 1703
Γύρω 1703
Λύκειο 1703
αρχαιότητας 1703
αστέρια 1703
ηρο 1703
Καρχ@@ 1702
βρετανικό 1702
δισκογραφική 1702
στρεψε 1702
Μαρσ@@ 1701
είλ@@ 1701
οκτ@@ 1701
πολλ@@ 1701
σπαθ@@ 1701
29@@ 1700
Jean 1700
Super 1700
Δημοκρατικού 1700
γραμμένο 1700
εξερευν@@ 1700
ογραφικής 1700
Τεν@@ 1699
ηδες 1699
ήρωας 1698
ίζ 1698
διπλωμά@@ 1698
εγκατασταθεί 1698
ελαφρ@@ 1698
αποκτά 1697
γνώριζε 1697
κρατήσει 1697
τροφία 1697
1884 1696
Γιουνάιτεντ 1696
Ράν@@ 1696
έλλες 1696
αθλητικό 1696
διοικητικές 1696
εκδιώ@@ 1696
ουλος 1696
ποσοστά 1696
Αξ@@ 1695
Ελβετίας 1695
Μωάμεθ 1695
διαί@@ 1695
επιδόσεις 1695
μετασχηματ@@ 1695
προετο@@ 1695
σύμ@@ 1695
Βρετάν@@ 1694
Ιουλι@@ 1694
ανικής 1694
μελέτης 1694
ρινγκ 1694
ροβολ@@ 1694
110 1693
7η 1693
Αμπν@@ 1693
ΝΑΤΟ 1693
μπε@@ 1693
ανασκαφ@@ 1692
επεισοδ@@ 1692
κριτικής 1692
ούνιο 1692
σόλο 1692
τρώ@@ 1692
όρις 1692
Ανατολικό 1691
Ανζού 1691
διακρίν@@ 1691
δρο 1691
χαμηλό 1691
Αλφ@@ 1690
επίπεδ@@ 1690
θρησκευτικό 1690
ικόν 1690
τάει 1690
Έφ@@ 1689
Ζαχαρ@@ 1689
διαταγή 1689
επισκεφ@@ 1689
μοντέλου 1689
πόρων 1689
ah 1688
Μάρκος 1688
Μαξ 1688
ίδρυσης 1688
Bur@@ 1685
Βιρτζίνια 1685
Ηρ@@ 1685
Θου@@ 1685
ανεπάρκ@@ 1685
βακ@@ 1685
διοργάνωσε 1685
ματοποι@@ 1685
στείλει 1685
στρώματα 1685
115@@ 1684
ένταξη 1684
δικός 1684
πεν 1684
τίτλου 1684
Καίσαρα 1683
διάσημος 1683
ζεύγ@@ 1683
κεντρικός 1683
υι@@ 1683
Βρ@@ 1682
Λω@@ 1682
δικτύ@@ 1682
πασμα 1682
Αεροδρόμιο 1681
άμυνας 1681
άρθρω@@ 1681
δευτερεύ@@ 1681
εκάστοτε 1681
υδρογόνο 1681
όδρομο 1681
Προτεστ@@ 1680
καλυμ@@ 1680
σχολείου 1680
ὰ 1680
Νέου 1679
Ρος 1679
αγγελι@@ 1679
ποπ 1679
υπόλοιπους 1679
Ασι@@ 1678
γύρος 1678
εορτά@@ 1678
επιστημονικά 1678
λαΐ@@ 1678
συμφωνίας 1678
χη@@ 1678
ύμβ@@ 1678
Ισα@@ 1677
αποφοί@@ 1677
οροσειρά 1677
παραπέ@@ 1677
τισης 1677
ότυπα 1677
βουνού 1676
δρομής 1676
μείγμα 1676
συμπεριφοράς 1676
ίθενται 1675
καταδικ@@ 1675
μονάδων 1675
μπου 1675
φου@@ 1675
Λέσβου 1674
έγκριση 1674
απαγόρευση 1674
ογκ@@ 1674
παρότι 1674
ψευ@@ 1674
University 1673
Στεφάν@@ 1673
Υπόθεση 1673
αγάπ@@ 1673
δολ@@ 1673
δυναμική 1673
Ηρόδο@@ 1672
βραβεύτηκε 1672
κτισμένο 1672
παρόμοιες 1672
ριζόταν 1672
1ος 1671
Σιδηροδρομ@@ 1671
ήθος 1671
πολύπλοκ@@ 1671
di@@ 1670
Αρχιτεκτον@@ 1670
Λεων@@ 1670
ατρί@@ 1670
επέκ@@ 1670
μεταρρυθμ@@ 1670
ῆς 1670
Μεσογ@@ 1669
διάσπαση 1669
πρόσθε@@ 1669
King 1668
δείξεις 1668
εδρών 1668
οχω@@ 1668
σκεψη 1668
Αποτελείται 1667
ευαίσθη@@ 1667
ια@@ 1667
στί@@ 1667
ma 1666
διακεκρι@@ 1666
νακλ@@ 1666
περιφέρ@@ 1666
ler 1665
Νίκου 1665
ΟΚ 1665
δημοτικής 1665
θευ@@ 1665
ούλης 1665
προτερ@@ 1665
Κορρά@@ 1664
Πρι@@ 1664
ανί@@ 1664
ενδυ@@ 1664
μοναχός 1664
11.@@ 1663
Κοντά 1663
Φρανσίσκο 1663
ίσκο 1663
απομπές 1663
περισσότερη 1663
1867 1662
Citroën 1662
ti 1662
Σφαί@@ 1662
Τέξ@@ 1662
πρόγον@@ 1662
Οθωμανών 1661
ήρα 1661
ζήσει 1661
Βιλ@@ 1660
γαι@@ 1660
θυρα 1660
τανε 1660
υπν@@ 1660
Αναγέννησης 1659
στρατιωτικά 1658
μαρτυρίες 1657
προέρχονταν 1657
πρωταγωνιστ@@ 1657
.com 1656
FIFA 1656
αποκλ@@ 1656
φιλντ 1656
ενίσχυ@@ 1655
λιμ@@ 1655
Καθολική 1654
άξουν 1654
Ιωανν@@ 1653
φυλακές 1652
1886 1651
Ro@@ 1651
Κάρο@@ 1651
Οδός 1651
Σύνδεσμ@@ 1651
Φερδινάνδος 1651
πίστευ@@ 1651
έλλα 1649
αστέρων 1648
κοινοτήτων 1648
θεό 1647
1891 1646
ro@@ 1646
βαφ@@ 1646
ισοβ@@ 1646
Καισ@@ 1645
Τομ 1645
ασμούς 1645
γιν@@ 1645
δάκ@@ 1645
δημοσί@@ 1645
ηνός 1645
νόσου 1645
πέναλτι 1645
όδους 1645
118@@ 1644
oc@@ 1644
ˈ@@ 1644
Κε@@ 1644
Συνεπ@@ 1644
δότη@@ 1642
παραπ@@ 1642
ρικ 1641
ριπ@@ 1641
τείχος 1641
Club 1640
θρησκείας 1640
χειρόγραφα 1640
1500 1638
Un@@ 1638
off 1638
κλάδου 1638
τσες 1638
διακρίθηκε 1636
ρίνη 1636
For@@ 1635
1864 1634
right 1633
διδακ@@ 1633
τυχε 1632
Όμιλ@@ 1631
Πλού@@ 1631
Νιγ@@ 1630
Ούν@@ 1630
μβαν@@ 1630
op@@ 1629
€ 1629
6.000 1628
Ραβ@@ 1628
Φα@@ 1628
απώ@@ 1628
ελεύθερα 1628
Τόσο 1627
ίτσας 1626
αντιμετ@@ 1626
σιά 1626
1840 1625
Μέλ@@ 1625
σταλ@@ 1624
τοπία 1624
σύλλ@@ 1623
αντι 1622
1850 1621
Metal 1621
παντρε@@ 1620
Me@@ 1619
νοια 1618
Paul 1617
ya 1617
ετίας 1617
ent 1616
θηναϊκ@@ 1616
22@@ 1615
ke 1615
0,0@@ 1614
Αικατερ@@ 1613
θηγ@@ 1613
ανάγκ@@ 1612
ig@@ 1609
πλεον@@ 1609
Περιφερ@@ 1608
1887 1605
καταλήγ@@ 1605
λλην@@ 1605
χαμ@@ 1605
He@@ 1602
επιρρο@@ 1602
do 1601
ισή 1599
us@@ 1597
James 1594
Z 1594
1882 1593
ατό 1593
Studios 1591
ay 1591
έκλει@@ 1591
απαραίτη@@ 1591
lo@@ 1590
1833 1589
Λευκω@@ 1588
διαμερ@@ 1587
ουλευ@@ 1587
David 1585
1883 1584
Life 1584
συμφών@@ 1584
Πετρού@@ 1582
ανθρώ@@ 1582
κοινοβ@@ 1582
πεδ@@ 1580
William 1579
ice 1579
έσπ@@ 1577
IV 1576
to@@ 1574
13,@@ 1572
.-@@ 1571
Εσωτερ@@ 1571
1,2 1570
FIBA 1569
φθεί 1569
1828 1568
αλή@@ 1566
σύνδε@@ 1566
a.@@ 1564
Παιδ@@ 1563
ισοδ@@ 1563
διάφορ@@ 1562
τεια 1562
ity 1560
αμφισβ@@ 1559
ενημέρω@@ 1559
ποδοσφαιριστ@@ 1559
παιχνιδι@@ 1558
πύ@@ 1556
AS@@ 1555
διοδρο@@ 1555
1834 1554
é 1553
Λέσ@@ 1553
1877 1551
ολοκλήρω@@ 1551
Κωνστ@@ 1550
δέρ@@ 1550
ιτέχ@@ 1550
κερδ@@ 1550
παρόμοι@@ 1550
τίμηση 1547
χειμ@@ 1546
80@@ 1544
αναφορ@@ 1544
Col@@ 1543
εκκλη@@ 1543
ir@@ 1542
μελέ@@ 1542
1815 1541
ζύγ@@ 1541
Deep 1540
no 1540
έδει@@ 1540
βέβ@@ 1539
ner 1538
αναδ@@ 1537
οδευ@@ 1537
τευξη 1537
έροντας 1536
απου@@ 1536
ψυ@@ 1535
Καίσ@@ 1534
3,5 1533
Po@@ 1533
50@@ 1532
play 1530
δισε 1530
τροπο@@ 1530
OH 1529
UN@@ 1527
les 1526
de@@ 1523
κινηματογράφ@@ 1523
Channel 1522
ίκας 1522
όπλ@@ 1522
Lo@@ 1521
καταστάθηκαν 1520
ons 1518
βαρι@@ 1518
μοντέ@@ 1518
Awards 1516
ja 1516
θεωρού@@ 1516
μεγέ@@ 1516
στρατιώ@@ 1516
Βαυαρ@@ 1514
Λάρι@@ 1514
180 1513
έλευ@@ 1513
οσμ@@ 1513
Φιλι@@ 1512
σηματο@@ 1512
ήγαγ@@ 1511
ευγ@@ 1511
1861 1509
Or@@ 1509
Πρίγκιπ@@ 1509
1876 1508
Έχ@@ 1506
δρομές 1506
οδα 1506
ρίτης 1506
όδιο 1503
φιλοξ@@ 1501
ψηφοφορ@@ 1501
Μολδαβ@@ 1497
ἰ@@ 1497
αντιν@@ 1495
Βαρσοβ@@ 1494
ενδιαφέρον@@ 1494
όδρο@@ 1494
um@@ 1490
Μαργαρ@@ 1490
Μη@@ 1490
άλυση 1490
τέθηκαν 1490
Γρ@@ 1489
1875 1488
ήνων 1488
διδακτορ@@ 1488
φτω@@ 1488
140 1487
1863 1484
χάλ@@ 1484
130 1483
Company 1483
Διοίκ@@ 1483
όσφαι@@ 1483
οθέατα 1482
υργ@@ 1482
College 1481
τμ@@ 1481
ā@@ 1480
συνελήφ@@ 1480
House 1479
ant 1479
ut@@ 1479
Βοημ@@ 1479
Αμβ@@ 1474
ca 1473
οφυλ@@ 1473
συχ@@ 1473
1868 1472
οσημείω@@ 1472
ώνυ@@ 1472
1825 1470
θε 1470
μβανε 1469
τύπ@@ 1469
ak 1468
ματοποί@@ 1468
Αιγύπ@@ 1465
Robert 1464
CH3@@ 1463
top 1461
καλαθ@@ 1461
λελεύθερ@@ 1461
ci@@ 1460
Ρόμ@@ 1460
προσω@@ 1460
Ροβ@@ 1459
φτά@@ 1457
φύγ@@ 1457
είγματα 1456
`@@ 1454
Radio 1453
ΟΥ@@ 1453
έναρ@@ 1453
παρχ@@ 1452
Παρισ@@ 1449
ήμη 1449
άντως 1447
σταθ@@ 1447
em 1446
γενέστερ@@ 1446
si@@ 1445
εφαρ@@ 1444
ea 1441
άρθ@@ 1441
λεσε 1441
co@@ 1440
Association 1439
ίωμα 1439
είλει 1438
στημα 1438
Grand 1437
Pe@@ 1437
Αυστρα@@ 1437
124@@ 1436
As@@ 1436
ts 1436
αποσύρ@@ 1436
τηρεί 1436
Ber@@ 1435
eb@@ 1434
land 1432
τορία 1432
Michael 1431
http 1431
po@@ 1431
Παύ@@ 1431
ικότερα 1431
ρεια 1431
RA@@ 1429
eg@@ 1429
ani 1428
ειξη 1428
ποικ@@ 1428
εξου@@ 1427
ιέρ@@ 1427
bit 1426
1862 1425
1873 1425
θάνα@@ 1425
114@@ 1424
άγνωση 1424
αντιπολίτευ@@ 1424
ite 1423
City 1422
κατέκ@@ 1422
άβει 1421
αρίων 1421
τέρ 1421
μιση 1420
Air 1419
ΚΕ 1419
ετη@@ 1415
οβολ@@ 1414
σταματ@@ 1414
τοκος 1414
ai 1412
km 1412
κυκλοφορ@@ 1411
Group 1410
Her@@ 1410
1800 1409
Πόλε@@ 1408
ορεύει 1407
ημά@@ 1405
Do@@ 1403
φιλόσοφ@@ 1403
1836 1402
υρία 1400
όγου 1400
Σαξ@@ 1399
βίν@@ 1399
ak@@ 1397
den 1395
ερευ@@ 1395
1826 1393
1869 1392
αναλαμβ@@ 1392
Καρα@@ 1391
Φίλιπ@@ 1391
117@@ 1390
ανταλλαγ@@ 1390
διακά 1390
ans 1389
πλειοψηφ@@ 1389
Black@@ 1388
ri@@ 1388
Αποτελ@@ 1388
ειναν 1388
UEFA 1387
πας 1387
RNA 1385
έγι@@ 1385
στήρι 1385
12.@@ 1384
Τρά@@ 1384
vi@@ 1383
ou@@ 1382
DC 1380
no@@ 1380
with 1380
φωση 1376
υπτι@@ 1375
1872 1374
Ελέν@@ 1374
εξασφάλι@@ 1374
άλυψη 1372
δορ@@ 1372
era 1371
θμιση 1370
BMW 1369
ριστής 1369
Αρκα@@ 1368
ραϊκ@@ 1367
1865 1366
Purple 1366
1874 1365
απαιτ@@ 1364
ορα 1364
ρίσκεται 1364
ա@@ 1362
βοή@@ 1361
μπελ 1361
116@@ 1360
γλω@@ 1360
Entertainment 1359
re 1359
όπεδ@@ 1359
ρεψαν 1358
ινε 1357
za 1356
Άμ@@ 1356
s.@@ 1355
πραξικ@@ 1355
ist 1354
more 1354
Ρουμαν@@ 1354
ολόγιο 1354
τύχ@@ 1354
1.0@@ 1353
εκπρόσω@@ 1353
AL@@ 1352
El 1352
όμετρα 1352
30.000 1351
Google 1351
co 1350
έος 1350
χρησιμ@@ 1350
350 1349
καταφύγ@@ 1349
νήσου 1349
CA@@ 1348
q 1346
ph@@ 1345
υπόλοι@@ 1345
ληψη 1344
60@@ 1343
Charles 1343
έρευ@@ 1343
δισεκατο@@ 1343
κτηνο@@ 1341
ni@@ 1340
στέρ@@ 1340
ϊν 1335
San 1333
Ακολού@@ 1331
Διον@@ 1331
ίκου 1331
τραγουδι@@ 1330
Young 1329
ΣΔ 1329
200@@ 1328
Καποδί@@ 1328
έδιο 1328
Bal@@ 1327
γίν@@ 1327
συνέν@@ 1326
Royal 1325
Ορθόδο@@ 1325
ίρι 1325
Red 1323
1824 1322
ανάδ@@ 1321
πρόσωπ@@ 1321
± 1320
Εκλ@@ 1319
Κινηματο@@ 1319
ανακοίν@@ 1319
σκότ@@ 1319
Pol@@ 1318
παραδο@@ 1317
αρμογ@@ 1316
οδυ@@ 1315
τούρα 1313
τοις 1312
codice 1311
q@@ 1311
ημερομ@@ 1310
ταμ 1310
Hel@@ 1308
40@@ 1307
und 1307
όκου 1307
il 1306
Σιδ@@ 1306
Πελοπον@@ 1305
μελετη@@ 1305
1829 1303
φάρ@@ 1303
ωρο 1303
ερμαν@@ 1302
101 1301
ing@@ 1300
ov@@ 1300
διαδρα@@ 1300
κοπο@@ 1300
ρισκόταν 1300
ταχύτη@@ 1300
πούδ@@ 1298
ξεκίν@@ 1295
113@@ 1294
λαίου 1294
λιμάν@@ 1294
βηγ@@ 1292
γίου 1292
δελφ@@ 1292
Φλωρεντ@@ 1291
ισοπ@@ 1291
office 1290
1856 1286
θετε 1286
So@@ 1285
Ab@@ 1284
bi@@ 1284
Ιάκωβ@@ 1284
IS@@ 1283
Ver@@ 1281
στάλ@@ 1281
Ἀ@@ 1281
Maria 1280
Marvel 1280
Τέχ@@ 1280
κιλ@@ 1280
1854 1278
Na@@ 1278
Λον@@ 1278
Ποδ@@ 1277
ακτι@@ 1277
γεγονό@@ 1277
ζήτηση 1277
Pi@@ 1276
Αυτοκρά@@ 1276
au 1275
Mag@@ 1274
SA 1272
160 1271
κεφ@@ 1271
ποσο@@ 1271
1859 1270
νησης 1270
οδοι 1270
λυκ@@ 1269
τείνεται 1269
ty 1268
Ξεκ@@ 1268
1844 1264
ώδ@@ 1264
450 1263
Night 1263
AT@@ 1261
εβδ@@ 1261
μετάδ@@ 1261
πλατφόρ@@ 1261
Cer@@ 1260
τεστ@@ 1260
io 1259
35@@ 1258
Mc@@ 1258
me 1257
AC 1255
ara 1255
Apple 1254
ter@@ 1254
πυρκαγι@@ 1254
οτε 1252
όργαν@@ 1251
Man@@ 1250
als 1250
ασφάλ@@ 1250
τούργ@@ 1249
κατέλη@@ 1248
Game 1246
Σταθμ@@ 1246
περιελά@@ 1246
Bl@@ 1245
est 1245
όμη 1245
κυμαίν@@ 1244
1814 1243
ήποτε 1243
ρίθηκε 1243
od@@ 1242
To@@ 1241
σταθεί 1241
πόλε@@ 1240
τομο 1240
are 1239
συμμετάσχ@@ 1239
Ma@@ 1238
NH@@ 1238
νομή 1236
Ηνω@@ 1235
George 1234
ευθύ@@ 1233
ce 1232
διαμέ@@ 1232
District 1231
Pro@@ 1231
τημ@@ 1231
αποστολ@@ 1230
1820 1229
NO@@ 1229
ash 1229
ot 1228
Pa@@ 1227
Award 1226
ομηχαν@@ 1226
τυπα 1225
ey 1223
Φιλίπ@@ 1223
βλε@@ 1223
Er@@ 1221
ore 1221
mo@@ 1220
καρν@@ 1219
ζων@@ 1217
Mer@@ 1216
ber@@ 1216
ol 1216
ΐας 1216
Γυνα@@ 1216
ανου@@ 1216
Αραγ@@ 1215
όδοξ@@ 1215
1832 1212
DS 1212
per@@ 1210
ταχυ@@ 1210
ὲ 1210
χρηματοδότη@@ 1209
ρέφεται 1208
→ 1208
έφθ@@ 1207
τουρ@@ 1207
δοσης 1206
επέστ@@ 1205
τούμεν@@ 1205
8.000 1204
se@@ 1204
Te@@ 1203
επιστημι@@ 1203
μπή@@ 1203
απόδ@@ 1202
μόρ@@ 1202
ταχθεί 1202
1851 1201
ασβ@@ 1201
όγον@@ 1201
ker 1200
Βιβ@@ 1200
Πορτογαλ@@ 1200
σύγκρου@@ 1200
Best 1199
ανάγκα@@ 1199
š@@ 1198
υνα@@ 1198
ταγμα 1197
ὴ@@ 1197
επίσ@@ 1196
ρακα 1196
Is 1195
τηρού@@ 1195
50.000 1194
Bel@@ 1194
ανή@@ 1194
απόπ@@ 1194
ator 1192
og@@ 1192
φύλα@@ 1191
ly 1190
αναφέρ@@ 1190
εκπομπ@@ 1190
θελ@@ 1190
1843 1189
ER@@ 1189
br@@ 1189
Iron 1188
άλω@@ 1188
δικα 1188
1,3 1187
facto 1187
αιο@@ 1187
php 1186
νια 1186
Big 1185
Pan@@ 1185
sp@@ 1185
ειγμα 1185
συγκέντρ@@ 1185
Inter@@ 1184
box 1184
met 1184
ous 1182
όνομ@@ 1182
ὸ 1182
125 1181
do@@ 1181
end 1181
1858 1180
On 1179
ησιμ@@ 1178
va 1177
ογγ@@ 1177
Ge@@ 1176
RE@@ 1176
Σεπτέμβ@@ 1176
Βουλ@@ 1175
Bre@@ 1174
ell 1174
ερις 1174
τείχ@@ 1174
Ag@@ 1173
ακτιν@@ 1173
πτώ@@ 1172
προφαν@@ 1171
1841 1170
1845 1170
ane 1169
1827 1168
ανάγ@@ 1167
4,5 1166
Ne@@ 1165
bo@@ 1165
Ford 1163
κειο 1163
1823 1162
κιθ@@ 1162
ΠΑ 1160
καλοκα@@ 1160
Προσωπ@@ 1158
LA 1157
out 1157
ΰ@@ 1157
τραγούδ@@ 1157
1812 1156
ella 1156
όλου@@ 1156
Γιουγκοσλαβ@@ 1155
καταστά@@ 1155
Film 1154
κατέφυγ@@ 1153
Ανώ@@ 1152
Ερζεγοβ@@ 1152
gr@@ 1151
τροπής 1151
Av@@ 1150
Si@@ 1150
ίδραση 1150
ίπισσα 1150
ηρύ@@ 1150
θυγ@@ 1150
Κλη@@ 1146
σοβ@@ 1146
Al 1144
th 1144
σιαλ@@ 1144
έρχονταν 1143
συνο@@ 1143
Euro 1141
Your 1141
sa 1141
βελτί@@ 1141
Tour 1140
1853 1139
que 1139
Εταιρ@@ 1139
Φίλι@@ 1139
αφορ@@ 1139
θαν 1139
³ 1138
εριν@@ 1138
1793 1136
Dis@@ 1136
Blue 1132
Σύλλογ@@ 1132
δοβ@@ 1132
FC 1130
Βουργουν@@ 1130
Οκτώβ@@ 1130
Φιλιπ@@ 1129
πουργ@@ 1129
τρά@@ 1128
1849 1127
διακρί@@ 1127
ταιν@@ 1127
τηρη@@ 1127
1837 1126
σταμά@@ 1126
τωπ@@ 1126
Go@@ 1125
IC@@ 1125
NASA 1125
Park 1125
pi@@ 1125
ur 1125
Σλοβ@@ 1125
ki 1124
αιχ@@ 1124
πιστο@@ 1124
Fe@@ 1123
Gu@@ 1123
Day 1122
Thomas 1122
ins 1122
γράμματος 1122
πολυάρι@@ 1121
αντάρ@@ 1120
διανομ@@ 1120
MP@@ 1119
ick 1118
ινγκτον 1118
ουμένων 1118
κύττα@@ 1117
Sonic 1116
μετακόμ@@ 1116
IM@@ 1115
SO@@ 1114
Εθνο@@ 1114
Μεξ@@ 1114
οχές 1114
105 1113
COVID 1113
ιωμάτων 1112
1806 1110
ary 1109
κατερ@@ 1109
33@@ 1108
Football 1108
εκστρατ@@ 1108
εύγ@@ 1108
Αλεξάν@@ 1105
έστηκε 1105
ερνη@@ 1105
λογαρι@@ 1105
πεδι@@ 1105
Warner 1104
1.500 1103
ne@@ 1103
1831 1102
όμεν@@ 1102
Fr@@ 1101
all 1100
καταν@@ 1100
1857 1099
7.000 1099
Martin 1099
Άγ@@ 1099
1792 1097
14,@@ 1095
Sol@@ 1095
έριο 1095
Les 1094
Ναπο@@ 1094
ηλεκτ@@ 1094
FI@@ 1093
λαδή 1093
οίτησε 1093
Kr@@ 1092
άστια 1091
είωσε 1091
Ph@@ 1090
διαφορο@@ 1090
δοκι@@ 1090
Bor@@ 1089
πολί@@ 1089
αεροσκ@@ 1087
ρίσματα 1087
σειρ@@ 1087
1789 1086
επηρέ@@ 1085
πέφ@@ 1085
Mus@@ 1084
oles 1083
Louis 1082
οιας 1082
SE@@ 1081
οκρα@@ 1080
έλυ@@ 1079
AS 1078
CH3 1078
ῦ@@ 1078
Ad@@ 1077
ek 1077
Richard 1076
Έλλ@@ 1076
Tri@@ 1074
ευθυν@@ 1074
προσέγ@@ 1073
1847 1072
αιτίας 1072
παρελθ@@ 1072
IN@@ 1071
ac 1070
London 1069
ριστο@@ 1069
ὶ 1069
ver@@ 1066
Min@@ 1065
Os@@ 1065
Έσ@@ 1065
af@@ 1064
ens@@ 1064
Bi@@ 1063
αιτέρ@@ 1061
US@@ 1059
à 1059
σκεύ@@ 1059
υζ@@ 1059
Ho@@ 1058
Peter 1058
St 1058
Cal@@ 1057
tra 1056
~ 1055
1855 1054
οδρο@@ 1054
General 1053
MA 1053
so@@ 1053
Super@@ 1050
els 1050
προέκυ@@ 1050
Show 1049
elli 1049
pr@@ 1049
1600 1048
Φιν@@ 1048
Hal@@ 1047
στερα 1047
AC@@ 1046
Lord 1046
15.000 1045
δευτερόλεπ@@ 1045
li 1044
pp@@ 1044
á@@ 1044
Λίμ@@ 1044
ita 1043
from 1042
ir 1042
13.@@ 1041
κοπος 1041
ροταφ@@ 1040
1852 1039
Mega 1039
kg 1039
Eur@@ 1035
βιβλ@@ 1035
ψήφισμα 1035
RO@@ 1034
EP 1033
θες 1033
πρωτοβουλ@@ 1033
στίβ@@ 1033
ance 1031
220 1030
be@@ 1030
Καλιφόρ@@ 1030
τομη 1029
μελι@@ 1028
A.@@ 1027
No@@ 1027
PlayStation 1027
σύνδεσμ@@ 1027
ME@@ 1026
Ri@@ 1026
mg 1026
My@@ 1025
Σταυροφορ@@ 1025
γέννησης 1025
200.000 1022
1204 1021
Εξωτερ@@ 1021
ημέ@@ 1021
FA 1020
Sal@@ 1020
ada 1020
Cre@@ 1019
ἔ@@ 1019
detail@@ 1018
μπόρε@@ 1018
500.000 1017
Of 1017
Ακαδημ@@ 1017
Σιδηρο@@ 1017
εφαρμ@@ 1017
όλα@@ 1017
όνησ@@ 1017
Fre@@ 1016
metab@@ 1015
Ω 1014
201@@ 1013
Sony 1013
rock 1013
ent@@ 1012
βασιλι@@ 1011
Art 1010
νήθηκε 1010
τυπω@@ 1009
gi@@ 1008
Mat@@ 1006
οίν@@ 1006
Su@@ 1005
ade 1005
ou 1005
Don 1004
360 1002
YouTube 1002
ότατα 1002
Es@@ 1000
ensis 1000
αρχιτέκτον@@ 1000
συνε@@ 1000
34@@ 999
Can@@ 999
γράφου 999
par@@ 998
1797 997
Μανου@@ 997
127 996
1700 996
είστηκε 996
Βραζ@@ 995
ανέπτυ@@ 995
1842 994
center 994
Kar@@ 993
Pictures 993
ημέρ@@ 990
40.000 989
36@@ 988
US 988
χρηματο@@ 988
per 987
λευθερ@@ 987
ette 986
λληλ@@ 985
mi 984
LE@@ 983
ks 983
άντια 983
δάσ@@ 983
Mal@@ 982
Cas@@ 981
διεύθυν@@ 981
περιεχ@@ 981
EB@@ 980
mann 980
ανάπτυ@@ 980
εψη 980
Sc@@ 978
and@@ 978
Center 977
Fame 977
High 977
aw@@ 977
ουλι@@ 977
περτ 977
έρρι@@ 976
εκτε@@ 976
1813 972
1846 971
Die 971
Street 971
ev@@ 971
Αίγ@@ 971
δρυ@@ 971
102 970
ati@@ 970
Ser@@ 969
ho@@ 969
τοκρατ@@ 969
τάγματος 967
az@@ 966
γα@@ 966
γαν@@ 966
Rolling 965
διαδικα@@ 965
Val@@ 963
ato 962
διευθυν@@ 962
38@@ 961
up 961
ατμόσφαι@@ 961
Lee 960
1839 958
45@@ 958
Joseph 958
MS 958
Απρί@@ 958
τυγχ@@ 958
1809 957
στιτού@@ 957
μμυ@@ 956
υποψηφι@@ 955
au@@ 954
hp 954
άλωση 954
ess 953
ιλία 953
Mot@@ 952
A. 951
Gal@@ 951
ff@@ 951
μάται 951
70@@ 949
ence 949
ob@@ 949
ro 949
δεψε 949
υλ 949
έρον 948
1810 947
art 946
Λευκορ@@ 946
Har@@ 945
Mercedes 944
ST@@ 944
Society 944
Corporation 943
Stone 943
ning 943
Υγ@@ 943
Fl@@ 942
France 942
width 942
Μητρό@@ 940
είνει 940
εφημερ@@ 940
109 939
Dr@@ 939
Final 939
άφι@@ 939
εγκατέ@@ 938
λέχ@@ 938
Mas@@ 937
im 936
Νοτι@@ 936
end@@ 935
λς 935
επίσκε@@ 934
κυτ@@ 932
22.@@ 931
yl@@ 931
ES@@ 930
Fox 930
ράφηκε 930
FM 929
ep@@ 929
ire 929
Ισαβ@@ 929
Europe 928
Gi@@ 928
ister 928
Αίγυπ@@ 928
έμφ@@ 928
τρομ@@ 928
S.@@ 926
θεατ@@ 926
Alpha 925
Cl 925
σχετί@@ 925
ise 924
ek@@ 923
ήνα 923
CE@@ 922
Festival 922
berg 922
Θεοτ@@ 922
126 921
MTV 921
εφο@@ 921
πυρί@@ 921
CIA 920
Media 920
εκκλ@@ 920
1790 919
1818 919
ters 919
Ιανου@@ 919
ερσ@@ 919
DE@@ 918
AD@@ 917
Tor@@ 917
ef@@ 917
News 915
ger 915
ασκαλ@@ 914
Out 913
1838 912
ps 912
tu@@ 912
ets 911
ors 911
κατάργ@@ 911
15,@@ 910
car@@ 910
Έντου@@ 910
ρείται 910
MI@@ 905
mar@@ 905
τεκτον@@ 905
1200 904
ni 904
Κριμα@@ 904
οσκοπ@@ 904
Mel@@ 903
Ste@@ 903
Ε.Π.@@ 903
τέσσ@@ 903
Arts 902
Queen 902
στιαν@@ 902
ell@@ 901
Box 900
sen 898
Paris 897
Tur@@ 897
be 897
είμενο 897
1807 896
ford 896
21.@@ 895
album 895
kin 895
ena 894
Αυστραλ@@ 894
ake 893
ge 893
sch@@ 893
μέλλ@@ 893
CH 892
Ros@@ 892
White 892
πετο@@ 892
Who 891
bu@@ 891
tes 891
We 890
field 890
PS@@ 889
μαίν@@ 889
συγκροτ@@ 889
1803 888
IP 888
Im@@ 888
Renault 888
συζύγ@@ 888
AM@@ 887
Reg@@ 887
ais 887
ari 887
ληρω@@ 887
Gar@@ 886
System 886
1808 885
United 885
ere 885
é@@ 885
έγερσης 885
γιατρ@@ 885
1804 884
ile 883
θάλασ@@ 883
alis 882
back 882
Du@@ 881
Mac@@ 881
ain 881
ουλμαν@@ 880
14.@@ 879
2,3 879
Sk@@ 879
όνησο 879
ουμένως 878
107 877
39@@ 877
Journal 877
orum 877
άπηκε 877
υμπ@@ 877
Ben@@ 876
πρίγκιπ@@ 876
Be 875
Nintendo 875
SA@@ 875
παση 874
Cam@@ 873
aj@@ 873
ήσου 873
νημ@@ 873
1798 872
Ετα@@ 872
Θεριν@@ 872
RI@@ 871
106 870
240 870
CN@@ 870
ach 870
ene 870
1795 869
Φθ@@ 869
1770 868
100@@ 867
ok@@ 867
Fiat 866
colspan 866
κοντα 866
απέρρι@@ 865
37@@ 864
Bank 864
Little 864
Ρίτσ@@ 864
βάλ 864
ροταφείο 864
ł@@ 862
διπλω@@ 862
εμπειρ@@ 862
Συλλ@@ 861
χάλκιν@@ 861
170 857
Mario 857
25.000 855
HMS 855
ab 855
ola 855
European 854
TA 854
ένδυ@@ 854
1819 853
3000 853
CF 853
tro 853
\ 852
live 852
ys@@ 852
BA 851
Καλλικρά@@ 851
Death 850
ISO 850
PC 850
δημό@@ 850
επιστη@@ 850
ello 849
ευμάτων 849
Gill@@ 848
γκοσ@@ 848
Free 847
ting 847
Αλέξ@@ 847
ανάπ@@ 847
δεκαε@@ 847
μάτιο 847
οη@@ 847
1794 846
able 846
ura 846
ιονίκης 846
ρότη@@ 846
Hol@@ 845
εγκαταλ@@ 845
Dar@@ 844
λοιπ@@ 844
Βιρ@@ 843
Εκκλη@@ 843
ριστιαν@@ 843
go 841
Hor@@ 840
ari@@ 840
ov 840
Hill 839
104 838
1805 838
Open 838
Vol@@ 837
las 837
ure 837
Βούλ@@ 836
κτί@@ 835
Ger@@ 834
Αθανά@@ 834
αστεροειδ@@ 834
κοσμίου 834
115 833
16,@@ 833
750 833
tion 833
ko 832
πίνα@@ 832
ανεξαρτη@@ 831
ότη@@ 831
We@@ 830
pl@@ 830
Χρήσ@@ 830
Des@@ 829
West 829
Αθή@@ 829
Πει@@ 829
ala 828
108 827
ta@@ 827
est@@ 826
Green 825
ep 825
si 825
εξε@@ 825
ath@@ 824
ii 824
αφν@@ 824
Del@@ 823
Lu@@ 823
Pierre 823
ach@@ 823
ay@@ 823
charts 823
ë@@ 823
άλε@@ 823
135 822
te@@ 822
ώνυμη 822
Home 821
ations 821
con@@ 821
ma@@ 821
st 821
Up 819
απώλει@@ 818
103 817
ati 816
dr@@ 816
lu@@ 816
ειδικευ@@ 816
PS 814
πτωση 814
Ko@@ 813
our 813
Ηρακλ@@ 813
1817 812
ye 812
2.500 810
Friedrich 810
com@@ 810
θεται 810
16.@@ 809
στίχ@@ 809
υφή 809
έρχ@@ 808
ατρών 808
ant@@ 807
άτω 807
Kil@@ 806
ib@@ 806
ry 806
μελλ@@ 806
ρωπα@@ 806
Boeing 805
Marie 805
ill@@ 805
ole 805
1453 804
America 804
Mark 804
γράμ@@ 804
Bu@@ 803
Jones 802
O2 802
atus 802
στή@@ 802
Airlines 801
Wrestling 800
soundtrack 800
επιθυ@@ 800
Βρε@@ 799
Τσαρ@@ 799
ξεπ@@ 798
1816 797
βιντε@@ 797
διάμε@@ 797
SP@@ 796
kh@@ 796
ois 796
oni 796
Ένω@@ 796
Je@@ 795
ken 795
ings 794
καφών 794
όπος 794
1801 793
Rom@@ 793
č@@ 793
Ποσ@@ 793
elle 792
20.@@ 791
εκδήλ@@ 791
Αχα@@ 790
τούργησε 790
ist@@ 789
left 789
IC 788
der@@ 788
απέκ@@ 788
1791 787
mon@@ 786
Š@@ 786
Men 785
συμμετο@@ 785
65@@ 783
Char@@ 783
ἄ@@ 783
ber 782
ster 782
συμβόλ@@ 782
1,4 781
Euro@@ 781
jure 781
tica 780
ενέργ@@ 780
1799 779
tri@@ 779
Σπαρ@@ 779
Press 778
Vi@@ 778
17,@@ 777
hi@@ 777
Φεβρου@@ 776
ski 774
ser@@ 773
300.000 772
AT 772
μεταρ@@ 772
90@@ 771
ha 770
δισαν 770
CD@@ 769
Σεπ@@ 769
Στερ@@ 768
0,5 767
mi@@ 767
su@@ 767
text 767
і@@ 767
Dark 766
War@@ 766
ion 766
ones 765
ann@@ 764
Κρή@@ 764
Γιουν@@ 762
πειτα 762
1630 761
ερμπ@@ 761
Video 760
Benz 759
gen@@ 759
ίλης 759
συνειδ@@ 759
12.000 758
190 758
Linux 758
εξαρ@@ 758
480 757
Sun 757
καγι@@ 757
ὁ 757
pe@@ 756
εγκαιν@@ 756
ABC 754
Co 754
Ru@@ 754
ima 754
At@@ 753
British 753
Region 753
str@@ 753
1715 752
Mad@@ 752
ah@@ 751
line 751
βιβασ@@ 751
CN 750
bl@@ 749
tic 749
Βρυ@@ 749
λεω@@ 749
Cur@@ 748
IS 748
ba@@ 748
αγρ@@ 748
ύτη@@ 748
Netflix 746
Λεμεσ@@ 746
Santa 745
Γε@@ 745
ρεψε 745
όπουλ@@ 745
Can 744
Mary 744
128 743
1583 743
ow@@ 742
ούσια 742
περιπέ@@ 741
1,1 740
Sa@@ 740
pH 740
στέμ@@ 740
iz@@ 739
46@@ 737
48@@ 737
CI@@ 737
che 737
Institute 736
λικαν@@ 736
15.@@ 735
CO 735
Karl 735
17.@@ 734
he@@ 734
Columbia 733
ten 733
AP@@ 732
Mir@@ 732
οσφ@@ 732
je 731
ska 731
Dr 730
Arena 729
Η.@@ 729
κ.λ@@ 729
Los 728
διοίκ@@ 728
AD 727
Story 727
ama 727
ζημι@@ 727
περισσ@@ 727
συνέπ@@ 727
Boy 726
Glover 726
tification 726
Επέ@@ 726
βιε@@ 726
550 725
Max 725
εκρι@@ 725
Studio 724
chi 724
Pro 723
θήκ@@ 723
ουμεν@@ 723
For 722
Master 722
ics 722
Κατηγορ@@ 722
ικρά@@ 722
Σικελ@@ 721
ηρέ@@ 720
RS 719
ik 719
ora 719
σκόρ@@ 719
way 718
ήφθηκε 718
ίστοιχ@@ 718
ona 717
DJ 716
of@@ 716
πρου 716
320 715
Il 715
Toyota 715
τώματα 715
υπόλ@@ 715
23.@@ 714
Em@@ 714
LC 714
επίκ@@ 714
ιστον 714
μηδ@@ 714
μμυρίων 714
οιβ@@ 714
Space 713
This 713
άλληλ@@ 713
Champions 712
Pl@@ 712
Henry 711
anus 711
sk@@ 711
Εκτ@@ 711
PE@@ 710
low 710
Αφρο@@ 710
γραφε 710
ελέγη 710
κοπο 710
ra@@ 709
κατανό@@ 709
οση 709
3D 708
Nor@@ 708
πείρου 708
bourne 707
ουήλ 707
Cat@@ 706
Γεώργ@@ 704
έννοι@@ 704
εδρο 704
μήνυ@@ 704
H2@@ 703
19.@@ 702
43@@ 702
Sir 702
ang 702
δυναστ@@ 702
AG 701
CA 701
Project 701
so 701
επισήμ@@ 701
οτθ@@ 701
set 700
ξικ@@ 700
ταγων@@ 700
18.@@ 699
Universal 699
enti@@ 699
επεισ@@ 699
ρίβ@@ 699
HIV 698
άνθρω@@ 698
εδρεύ@@ 698
υρω@@ 698
ight 697
α. 697
Ni@@ 696
War 696
μπορού@@ 696
έου 695
εντιν@@ 695
eh@@ 694
AI@@ 693
Far@@ 693
sur 693
Ρωμ@@ 693
What 692
Bad 690
ical 690
nik 690
γκοσλαβ@@ 690
οιχ@@ 690
πρόκει@@ 690
5,5 689
SS@@ 689
TS 689
Αστερ@@ 689
απονε@@ 689
Facebook 688
Last 688
ΦΑ 688
ille 687
7,5 686
87@@ 686
Down 686
Jan 686
Res@@ 686
la@@ 686
ō@@ 686
δικτυ@@ 686
πτέρ@@ 686
AIDS 685
ψ 685
Band 684
IF@@ 684
zi@@ 684
MVP 683
άχου 683
ῶ@@ 683
Wil@@ 682
ler@@ 682
έφερ@@ 682
CC@@ 681
Go 681
ang@@ 681
ated 681
singles 681
Σμι@@ 681
Android 680
LP 680
pe 680
video 680
ύλακ@@ 680
112 679
ius 679
ung 679
Hell 678
330 677
Nov@@ 677
ιθαγ@@ 677
κατευ@@ 677
ales 676
280 675
Ban@@ 675
bert 675
time 675
εγον@@ 675
οχαγ@@ 675
Is@@ 674
ante 674
inger 674
wa 674
αθμ@@ 674
1802 673
650 673
ling 673
Dead 672
UTC 672
ὑ@@ 672
47@@ 671
Ang@@ 671
Edward 671
me@@ 671
Dance 670
Smith 670
Sur@@ 670
ετερο@@ 670
ιούργ@@ 670
φθιν@@ 670
1811 669
Island 669
PO@@ 669
wood 669
BAFTA 668
Άντζελ@@ 668
Hu@@ 667
eo 667
ji 667
£ 667
άσσια 667
Road 666
ny 666
Χαρακτη@@ 666
117 665
Na 665
ut 665
75@@ 664
AB@@ 664
Bas@@ 664
C.@@ 664
Mi@@ 664
Οκτωβ@@ 664
τιας 664
Vo@@ 663
ίσι 663
2,4 661
Scream 661
ero 661
αιν 661
260 660
iOS 660
ru@@ 660
Ιρ@@ 660
δρομο 660
ito 659
έργης 659
είω@@ 659
τραγουδί@@ 659
Cap@@ 658
cl@@ 658
1.200 657
1780 657
44@@ 657
Great 657
IP@@ 657
αρτ 657
AR 656
Grammy 656
Ur@@ 656
ten@@ 656
we 656
ιλίας 656
1788 655
5000 655
GT 655
υσμ@@ 654
2,2 653
Ly@@ 653
Medi@@ 653
έφτα@@ 653
ακτη@@ 653
│ 653
Mac 652
PA 652
tor@@ 652
μμύ@@ 652
DE 651
οδήγ@@ 651
σσαλ@@ 651
1796 650
HD 649
Ul@@ 649
ese 649
Mil@@ 648
οπαι@@ 648
Kon@@ 647
cor@@ 647
1,6 646
19,@@ 646
60.000 646
AM 646
Heart 646
Tel@@ 646
ei 646
ish 646
Μόσ@@ 646
230 645
SI 645
Wilhelm 645
su 645
tis 645
Chevrolet 644
ame 644
πειρω@@ 644
1783 643
Rem@@ 643
ó@@ 643
123 642
Way 642
RC 641
ge@@ 641
ology 641
du@@ 640
αζί 640
αιτέρω 640
194@@ 639
AN 639
Office 639
αρε 639
1100 638
210 637
MO@@ 637
Union 637
show 637
TE@@ 636
VI 636
ve@@ 636
ō 636
Van 635
ian 635
είδιο 635
Dream 634
Ferrari 634
Op@@ 634
ηνα 634
ηξε 634
τραυ@@ 634
Bros 633
CO2 633
RA 633
Volkswagen 633
ier 633
Οκτ@@ 633
κάλεσαν 633
Internet 632
Power 632
ats@@ 632
etta 632
ich 632
iss@@ 632
Science 631
Song 631
ico 631
διάρκ@@ 631
Sar@@ 630
eta 630
É@@ 630
1300 629
NA 629
San@@ 629
Sho@@ 629
ba 629
ex@@ 629
man@@ 629
Pre@@ 628
ville 628
στριας 628
τάται 628
1787 627
Fire 627
La@@ 627
ast 627
lin@@ 627
tin 627
ῷ 627
122 626
Johann 626
Post 626
ong 626
Τζάκ@@ 626
1400 625
Off 625
1772 624
Dec@@ 624
RAF 624
ίκος 624
αγό@@ 624
Walt 623
ft 623
house 623
its 623
Blues 622
Dem@@ 622
die 622
ελεγ@@ 622
Four 621
πτώσεις 621
Audi 620
Fo@@ 620
Girl 620
Wal@@ 620
dia 620
gu@@ 620
stein 620
δοση 620
ομώνυμ@@ 619
ὺ@@ 619
Alexander 618
ard@@ 618
ex 618
Research 617
Sw@@ 617
Οικογέν@@ 617
State 616
aceae 616
Πακ@@ 616
6,5 615
Ter@@ 615
ack 615
ys 615
18,@@ 614
Championship 614
Giovanni 614
Woman 614
ze 614
σκολ@@ 614
111 613
121 613
2.0@@ 613
306 613
ace 613
τέχ@@ 613
ὰ@@ 613
Ti@@ 612
παραιτ@@ 612
1774 611
Cos@@ 611
Ga@@ 611
Gen@@ 611
Theatre 611
iPhone 611
less 611
une 611
201 610
Brown 610
Class 610
Sports 610
ky 610
1648 609
Si 609
T1 609
ny@@ 609
1,8 608
1.5@@ 608
1785 608
Christian 608
Fi@@ 608
Foundation 608
Ven@@ 608
for@@ 608
οπολι@@ 607
270 606
Lady 606
Sam@@ 606
sc@@ 606
Albert 605
Cro@@ 605
Jo@@ 605
TV@@ 605
ash@@ 605
ua 605
Ap@@ 604
000@@ 603
Ba@@ 603
Century 603
Sky@@ 603
ds 603
ies 603
Aer@@ 602
Inc 602
Network 602
Blood 601
ori 601
ée 601
3,4 600
Pal@@ 600
ars 600
ock 600
ούλιο 600
32@@ 599
E.@@ 599
zi 599
Θάνα@@ 599
διαπραγ@@ 599
ὴ 599
76@@ 598
Trans@@ 598
ates 598
πλει@@ 598
Basketball 597
Daily 597
Ig@@ 597
lin 597
od 597
tor 597
ə@@ 597
Ηρά@@ 597
Greece 596
net 596
pa 596
tic@@ 596
Αψ@@ 596
ίλου 596
φαρμά@@ 596
IT@@ 595
North 595
burg 595
850 594
Mak@@ 594
ela 594
mer@@ 594
′ 594
heavy 593
ula 593
Greek 592
aff@@ 592
βεζ@@ 592
βλάσ@@ 592
καλαθοσφαι@@ 592
114 591
AF 591
Model 591
uc@@ 591
αίωνα 591
Meg@@ 590
P. 590
head 590
ng@@ 590
ī@@ 590
1660 589
ida 589
J.@@ 588
Lin@@ 588
Sun@@ 588
ανδρο 588
τζελ@@ 588
ὲ@@ 588
116 587
Bir@@ 587
Division 587
Gre@@ 587
aro 587
ue 587
Sabbath 586
sec 586
Star@@ 585
ap 585
ū@@ 585
δεσπ@@ 585
ὅ@@ 585
Por@@ 584
Taylor 584
ῆ@@ 584
1577 583
Scott 583
ax 583
della 583
βαλλον@@ 583
Hil@@ 582
απομπ@@ 582
καλλι@@ 582
ωνυμία 582
1.4@@ 581
Dom@@ 581
Sil@@ 581
lo 581
ράκ 581
all@@ 580
βομβαρ@@ 580
Motors 578
ey@@ 578
20,@@ 577
55@@ 577
CBS 577
Η.Π.@@ 577
μυθιστόρ@@ 577
ότε 577
Chi@@ 576
ee 576
type 576
1650 575
Bon@@ 575
FBI 575
ili@@ 575
49@@ 574
Tar@@ 574
val@@ 574
πάρο@@ 574
υδρογ@@ 574
koda 573
tur@@ 573
ευθείας 573
224 572
ISBN 572
129 571
Sim@@ 571
έκτημα 571
κατεύθυν@@ 571
Peugeot 570
ain@@ 570
cr@@ 570
e.@@ 570
itz 570
kW 570
Βουρ@@ 570
Bol@@ 569
Hollywood 569
South 569
VII 569
RT@@ 568
ele 568
ium 568
θεω@@ 568
Ca@@ 567
Museum 567
ko@@ 567
Απόλλ@@ 567
SUV 566
ains 566
όσεις 566
1750 565
370 565
Johnson 565
illa 565
ran@@ 565
μέγε@@ 565
Kn@@ 564
Like 564
action 564
fer@@ 564
άιτ@@ 564
υπάρ@@ 564
1640 563
ts@@ 563
είμενα 563
συγχών@@ 563
ј@@ 563
Land@@ 562
col@@ 562
Κροατ@@ 562
1689 561
‎ 561
MS@@ 560
Mont@@ 560
chart 560
Ανζ@@ 560
προσέγγι@@ 560
ћ 560
Gro@@ 559
ul 559
Όμ@@ 559
124 558
SD 558
VI@@ 558
Νοσ@@ 557
Good 556
ali 556
eth 556
thr@@ 556
ρονόμ@@ 556
eng@@ 555
model 555
ome 555
ո@@ 555
Hard 554
Sport 554
Year 554
inus 554
Blo@@ 553
Book 553
Team 553
όκειται 553
Dig@@ 552
IX 552
Wall 552
aria 552
ž@@ 552
Τοπο@@ 552
Τοποθε@@ 552
δημιούργ@@ 552
ναυπ@@ 552
ill 551
CS@@ 550
East 550
ich@@ 550
École 550
145 549
3,3 549
DA 549
Pres@@ 549
Sub@@ 549
τσεστερ 549
150.000 548
195@@ 548
25.@@ 548
Academy 548
Back 548
ez 548
Intel 547
ail@@ 547
ray 547
р@@ 547
Mr 546
εμπνευ@@ 546
1784 545
Williams 545
ր@@ 545
Earth 544
Ἐ@@ 544
Bell 543
Hotel 543
Nar@@ 543
307 542
Cu@@ 542
mag@@ 542
σεκατο@@ 542
1460 541
223 541
eri 541
web 541
400.000 540
Air@@ 540
I.@@ 540
Stadium 540
Win@@ 540
ie@@ 540
As 539
Gl@@ 539
Jack 539
Light 539
Play@@ 539
her@@ 539
Βοσ@@ 539
αιοκαθολ@@ 539
Ann@@ 538
ai@@ 538
ase 538
ess@@ 538
oh@@ 538
διαχεί@@ 538
1688 537
An 537
Roll 537
Men@@ 536
^ 536
hip 536
mer 536
0,1 535
DP 535
Washington 535
az 535
Wi@@ 534
Wit@@ 534
dy 534
let 534
Πρωτεύ@@ 534
αυτοκινη@@ 534
επικίν@@ 534
MC 533
king 533
Θρά@@ 533
Ke@@ 532
Series 532
Twitter 532
ish@@ 532
έκρη@@ 532
Ram@@ 531
U21 531
ez@@ 531
pro@@ 531
uck 531
175 530
340 530
Ak@@ 530
Do 530
STS 530
mRNA 530
my 530
Fran@@ 529
Off@@ 529
Sega 529
ody 529
μμύρια 529
παγκοσμ@@ 529
118 528
1570 528
1776 528
God 528
άφη 528
βγή@@ 528
8,5 527
Gra@@ 527
AP 526
IA 526
NS@@ 526
adi@@ 526
cu@@ 526
eus 526
ασυνήθ@@ 526
1.8@@ 525
Cy@@ 525
sil@@ 525
zo 525
Ϊ 525
καλλιτέχ@@ 525
Chicago 524
Hy@@ 524
Frank 523
mol 523
Νικόλα@@ 523
1450 522
Az@@ 522
Orchestra 522
UK 522
ly@@ 522
ory 522
port 522
you 522
Χίτ@@ 522
ωλ 522
1.6@@ 521
113 521
Fer@@ 521
Pir@@ 521
Γιώργ@@ 521
168 520
Daniel 520
Ran@@ 520
Raw 520
Sav@@ 520
ser 520
επιστήμια 520
Bro@@ 519
fr@@ 519
νακο@@ 519
στελέχ@@ 519
BC 518
Long 518
Prix 518
καθεστώ@@ 518
68@@ 517
Golden 517
he 517
2.0 516
CC 516
ova 516
und@@ 516
yr@@ 516
Cin@@ 515
Get 515
ωνστ@@ 515
1550 514
380 514
Angel 514
can@@ 514
lia 514
tus 514
1775 513
AU 513
Tom@@ 513
anti@@ 513
atr@@ 513
ok 513
ze@@ 513
ουνίου 513
ᾶ@@ 513
Are 512
First 512
Hans 512
ug@@ 512
zo@@ 512
24.@@ 511
960 511
Games 511
Πολλ@@ 511
use 510
è@@ 510
1620 509
Force 509
air 509
tors 509
yn@@ 509
§ 509
58@@ 508
Business 508
Deutsche 508
sa@@ 508
ολικά 508
250.000 507
ET 507
ness 507
θερμοκρα@@ 507
GA 506
Tw@@ 506
ado 506
bar@@ 506
side 506
á 506
ακρίβ@@ 506
ika 505
155 504
25,@@ 504
67@@ 504
Digital 504
Line 504
Sky 504
That 504
ami 504
χιλιο@@ 504
1.9@@ 503
Mur@@ 503
έλλει@@ 503
SC 502
ebo@@ 502
ga 502
ori@@ 502
cas@@ 501
lis 501
nes 501
res@@ 501
vo@@ 501
≡ 501
All@@ 500
1530 499
80.000 499
Mes@@ 499
Pat@@ 499
ass@@ 499
op 499
αυτοκίν@@ 499
βούργ@@ 499
σινγκ@@ 499
ταθλ@@ 499
217 498
Ali@@ 498
GB 498
M.@@ 498
Wor@@ 498
frame 498
ism 498
ox@@ 498
Καλαθ@@ 498
Ed@@ 497
int 497
Arthur 496
People 496
Two 496
ents 496
ick@@ 496
ητη@@ 496
λυμπ@@ 496
Carl 495
Rotten 495
θελον@@ 495
Bill 494
Cel@@ 494
VA 494
ci 494
idae 494
Der 493
ats 493
Δυνα@@ 493
Τάγ@@ 493
άσκετ 493
1.7@@ 492
1758 491
22,@@ 491
Ltd 491
Magazine 491
The@@ 491
ect 491
ett 491
ίστα@@ 491
Heaven 490
Il@@ 490
ρίτερα 490
BO@@ 489
Let 489
Walter 489
domain 489
min@@ 489
Ρώ@@ 489
EL@@ 488
ign@@ 488
oni@@ 488
24,@@ 487
Li 487
osa 487
πετρε@@ 487
Ir@@ 486
κωμό@@ 486
τιμή@@ 486
1520 485
2- 485
Lor@@ 485
Tre@@ 485
ali@@ 485
eto 485
fer 485
up@@ 485
οδοχ@@ 485
420 484
Page 484
reg@@ 484
λοβακ@@ 484
1683 483
Jacques 483
More 483
Tom 483
ud@@ 483
yn 483
Γυμ@@ 483
Dio 482
ao 482
ign 482
ted 482
1786 481
Bri@@ 481
Mu@@ 481
1,7 480
Lif@@ 480
Old 480
PR@@ 480
iv@@ 480
Ha@@ 479
Uni@@ 479
οπόλ@@ 479
י@@ 479
ა@@ 479
Victoria 478
ass 478
lu 478
απονεμ@@ 478
26.@@ 477
Pep@@ 476
yp@@ 476
ίστησε 476
Anna 475
Comics 475
History 475
PP@@ 475
Tomatoes 475
Land 474
Paramount 474
icus 474
oth@@ 474
Boys 473
EC@@ 473
MT 473
Pas@@ 473
ila 473
ym@@ 473
ατρο 473
κάλε@@ 473
Evil 472
FO@@ 472
Ta@@ 472
Xbox 472
21,@@ 471
Pap@@ 471
Television 471
chi@@ 471
í@@ 471
1521 470
AA 470
Luc@@ 470
Party 470
ington 470
199@@ 469
AL 469
Kal@@ 469
Rec@@ 469
Singles 469
ke@@ 469
325 468
Mis@@ 468
ath 468
ax@@ 468
iti@@ 468
ng 468
συμπα@@ 468
χρησιμοποί@@ 468
Fal@@ 467
Kh@@ 467
ania 467
έρονται 467
132 466
1610 466
Gor@@ 466
SH 466
sey 466
57@@ 465
cap@@ 465
media 465
βλημα 465
C. 464
Est@@ 464
Out@@ 464
ri 464
Lewis 463
ck 463
430 462
Red@@ 462
bo 462
franchise 462
ment 462
ote 462
pu@@ 462
sen@@ 462
ήμερα 462
1768 461
Real 461
συντε@@ 461
ωτερ@@ 461
1571 460
54@@ 460
AE@@ 460
Opel 460
ines 460
sky 460
star 460
uk@@ 460
una 460
άλογος 460
καθιστ@@ 460
165 459
1777 459
27,@@ 459
Dev@@ 459
Dir@@ 459
Kor@@ 459
LO@@ 459
Machine 459
Prince 459
map@@ 459
pol@@ 459
οδρόμιο 459
146 458
2,6 458
28.@@ 458
B.@@ 458
Drive 458
Fair@@ 458
Unix 458
ost@@ 458
Guardian 457
ind@@ 457
online 457
tel@@ 457
ώδεκα 457
ἡ 457
Critics 456
Just 456
Metallica 456
Moon 456
Ren@@ 456
Sel@@ 456
ηλε@@ 456
ρασμα 456
460 455
Express 455
Heinrich 455
Ludwig 455
PI 455
Roc@@ 455
etti 455
oth 455
κλήρου 455
ῳ 455
1670 454
1782 454
Bob 454
FF 454
Homo 454
R.@@ 454
eli@@ 454
light 454
æ@@ 454
Βαβ@@ 454
196@@ 453
225 453
Dol@@ 453
West@@ 453
well 453
ă@@ 453
άρκο 453
νούμερ@@ 453
Electric 452
IU@@ 452
Lov@@ 452
NE@@ 452
Sound 452
ants 452
aux 452
cher 452
ier@@ 452
vette 452
σπί@@ 452
28,@@ 451
78@@ 451
Bay 451
Georg 451
Silent 451
data 451
fl@@ 451
level 451
¨ 451
διήρ@@ 451
1690 450
Sl@@ 450
ely 450
ø@@ 450
σίγ@@ 450
BS 449
Blu 449
PC@@ 449
Productions 449
River 449
mo 449
ör@@ 449
Συχν@@ 449
1540 448
29,@@ 448
Battle 448
FDA 448
RT 448
key 448
pre@@ 448
tar@@ 448
Family 447
GP@@ 447
Ob@@ 447
by@@ 447
1470 446
1778 446
Jackson 446
Ol@@ 446
Steve 446
uma 446
εκατοντ@@ 446
Global 445
NBC 445
don 445
sy@@ 445
400@@ 444
CY@@ 444
Fried@@ 444
RI 444
SE 444
Tu@@ 444
ong@@ 444
qui@@ 444
å@@ 444
ετέλεσε 444
ημέν@@ 444
1580 443
56@@ 443
66@@ 443
Antonio 443
Dor@@ 443
Sy@@ 443
ast@@ 443
Πληθυσμ@@ 443
Pink 442
USA 442
VIII 442
Web 442
aya 442
long@@ 442
TE 441
ense 441
Ηρα@@ 441
310 440
Cru@@ 440
Theater 440
ble 440
hi 440
iki 440
ira 440
λεον@@ 440
E. 439
Plat@@ 439
With 439
ful 439
go@@ 439
po 439
θύν@@ 439
πετύχ@@ 439
ו@@ 439
Baby 438
Chart 438
DO@@ 438
Mol@@ 438
Now 438
Nu@@ 438
Tro@@ 438
manga 438
1769 437
AF@@ 437
Campbell 437
PAC 437
Patr@@ 437
TO@@ 437
1430 436
1618 436
And 436
IBM 436
mor@@ 436
oma 436
sel@@ 436
έπτυ@@ 436
᾽ 436
1763 435
1781 435
bus 435
ff 435
ider 435
69@@ 434
Junior 434
UR@@ 434
if@@ 434
ώργ@@ 434
1760 433
205 433
GNU 433
Sm@@ 433
ento 433
oph@@ 433
ː@@ 433
Γρηγορι@@ 433
4000 432
del@@ 432
isi@@ 432
Κορι@@ 432
1603 431
167 431
29.@@ 431
Angeles 431
Petr@@ 431
tan@@ 431
ð@@ 431
1492 430
1669 430
II@@ 430
Pon@@ 430
Service 430
air@@ 430
ement 430
height 430
thumb 430
vil 430
½ 430
Συνέχ@@ 430
131 429
1560 429
53@@ 429
Anth@@ 429
Head 429
SN@@ 429
down 429
ech 429
m3 429
1566 428
Ci@@ 428
HF 428
Henri 428
ins@@ 428
ki@@ 428
mel@@ 428
row 428
ΐ 428
Rob@@ 427
Sab@@ 427
over 427
οδυτικά 427
ἶ@@ 427
185 426
440 426
Athens 426
Beatles 426
Doctor 426
Leg@@ 426
U19 426
Vil@@ 426
γρήγ@@ 426
147 425
Come 425
Sac@@ 425
Sand@@ 425
TP 425
Voice 425
ack@@ 425
ιστόρ@@ 425
κυκλοφ@@ 425
166 424
Gold@@ 424
Women 424
dan 424
ord@@ 424
sion 424
sti@@ 424
υζαντιν@@ 424
26,@@ 423
64@@ 423
IUCN 423
Jr 423
Sz@@ 423
François 422
Open@@ 422
aur@@ 422
εναντί@@ 422
Dur@@ 421
EN@@ 421
Lost 421
M. 421
Under 421
ding 421
ham 421
ΐου 421
Πάπ@@ 421
νάει 421
1185 420
27.@@ 420
Astr@@ 420
Cadillac 420
Dragon 420
May@@ 420
Premier 420
V8 420
itude 420
men 420
133 419
1740 419
9,5 419
Grande 419
Liga 419
U20 419
Whit@@ 419
sin@@ 419
station 419
CR@@ 418
Ep@@ 418
Joe 418
MR 418
ail 418
ust 418
Κογ@@ 418
Σαβο@@ 418
αναπτυχ@@ 418
ῇ 418
1764 417
198@@ 417
59@@ 417
Fol@@ 417
Mah@@ 417
eme 417
tis@@ 417
τζάν 417
1250 416
99@@ 416
Brothers 416
anger 416
eck 416
hu@@ 416
ā 416
23,@@ 415
F.@@ 415
Gol@@ 415
Never 415
USB 415
Kan@@ 414
Lam@@ 414
Wild 414
τηρούσε 414
Pin@@ 413
Ra@@ 413
bal@@ 413
ball 413
mod@@ 413
ods 413
ă 413
παρελ@@ 413
138 412
950 412
Central 412
Dan@@ 412
Ernst 412
Gaz@@ 412
Porsche 412
ide 412
og 412
ots 412
year 412
1205 411
God@@ 411
Over 411
eum 411
wi@@ 411
119 410
2,8 410
Lar@@ 410
Rainbow 410
Town 410
560 409
Ay@@ 409
Cop@@ 409
Cou@@ 409
D. 409
Magic 409
dei 409
eman 409
enn@@ 409
lan@@ 409
mat@@ 409
ow 409
urs 409
137 408
1671 408
1720 408
323 408
Public 408
ha@@ 408
kr@@ 408
met@@ 408
onia 408
the@@ 408
ub@@ 408
Child 407
Han@@ 407
Φρανσ@@ 407
ե@@ 407
1480 406
Mul@@ 406
anime 406
fo@@ 406
ó 406
ωμα@@ 406
134 405
Mé@@ 405
Summer 405
cin@@ 405
har@@ 405
Τζέιμ@@ 405
235 404
fe@@ 404
ucci 404
αποσ@@ 404
τονα 404
1526 403
AG@@ 403
GT@@ 403
Kat@@ 403
MP 403
Plan@@ 403
Sea 403
ks@@ 403
Βοσν@@ 403
1590 402
37.@@ 402
ME 402
Met@@ 402
Natura 402
Ερζ@@ 402
2,1 401
Gir@@ 401
Rose 401
Zeppelin 401
aka 401
Μέχ@@ 401
μμύριο 401
όσφαιρο 401
на 401
148 400
1714 400
1730 400
Atlantic 400
Haw@@ 400
vol@@ 400
Αιτ@@ 400
144 399
365 399
540 399
Francesco 399
P.@@ 399
Scar@@ 399
ische 399
Αψβούργ@@ 399
1667 398
1779 398
3,2 398
Kur@@ 398
cul@@ 398
pers 398
ë 398
οιο 398
1762 397
Tam@@ 397
ισορ@@ 397
οχώ@@ 397
1598 396
1699 396
1771 396
Europa 396
Laur@@ 396
Simon 396
ede@@ 396
hop 396
tu 396
yline 396
ç@@ 396
1685 395
30.@@ 395
Am 395
Blu@@ 395
Game@@ 395
Harris 395
Kit@@ 395
Will 395
cur@@ 395
ret@@ 395
Λωρρα@@ 395
1536 394
215 394
BM@@ 394
DL 394
NCAA 394
Plant 394
Ray 394
eth@@ 394
yl 394
193 393
Fantasy 393
ads 393
ani@@ 393
boy 393
ern@@ 393
ides 393
1461 392
192 392
2,7 392
Bou@@ 392
Review 392
Wa@@ 392
aci@@ 392
pos@@ 392
Δημήτρι@@ 392
1- 391
1680 391
Gil@@ 391
He 391
Not 391
Not@@ 391
agon 391
amb@@ 391
bul@@ 391
peri@@ 391
por@@ 391
tics 391
όπο 391
1627 390
1632 390
Dow@@ 390
End 390
Hen@@ 390
hard 390
ms 390
Ειρ@@ 390
αυτοκρα@@ 390
παίκ@@ 390
Alfred 389
Douglas 389
When 389
ades 389
Div@@ 388
ROM 388
Sn@@ 388
Tem@@ 388
non 388
ture 388
ver 388
vo 388
μετρος 388
1,9 387
1625 387
DI 387
Design 387
Pur@@ 387
Van@@ 387
lam@@ 387
zz@@ 387
í 387
2O@@ 386
Ju@@ 386
SH@@ 386
VC 386
ava 386
cast 386
lie 386
remix 386
ush@@ 386
Θεσσαλον@@ 386
πλεί@@ 386
† 386
1718 385
1773 385
Med@@ 385
mus 385
sal@@ 385
vin 385
1282 384
Again 384
Cul@@ 384
Maiden 384
Oli@@ 384
Pop 384
She@@ 384
Victor 384
ema 384
enc@@ 384
tro@@ 384
Καρι@@ 384
1180 383
1572 383
1642 383
Butler 383
Gam@@ 383
Heavy 383
Soul 383
Spe@@ 383
ɪ@@ 383
ἡ@@ 383
1350 382
1559 382
HC 382
José 382
L.@@ 382
Sex 382
Wh@@ 382
eca 382
inc@@ 382
ron 382
uz@@ 382
Άραβ@@ 382
-1 381
222 381
AZ 381
FP@@ 381
HO@@ 381
ON@@ 381
Wolf 381
ns 381
ś@@ 381
αλφάβ@@ 381
θανε 381
1765 380
Bay@@ 380
Forbes 380
Girls 380
MD@@ 380
Romeo 380
Standard 380
άφος 380
1537 379
193@@ 379
39.@@ 379
Cour@@ 379
jo 379
los 379
Παγκόσμι@@ 379
ն@@ 379
212 378
256 378
Children 378
Francisco 378
Jac@@ 378
alia 378
dis@@ 378
pel@@ 378
μακα 378
How 377
Place 377
Point 377
Tran@@ 377
ays 377
bur@@ 377
oto 377
uv@@ 377
yc@@ 377
ασφάλι@@ 377
1420 376
3,7 376
Dam@@ 376
Hay@@ 376
Stars 376
Three 376
iro 376
mix@@ 376
tw@@ 376
εξά@@ 376
τουρν@@ 376
1604 375
AB 375
Alice 375
Development 375
Human 375
Mari@@ 375
Movie 375
Vir@@ 375
bit@@ 375
bor@@ 375
face 375
lar@@ 375
not 375
ö@@ 375
ἑ@@ 375
395 374
Nickelodeon 374
isa 374
oy@@ 374
ão 374
έρνηση 374
84@@ 373
BL 373
CP@@ 373
D.@@ 373
Run@@ 373
Son@@ 373
Songs 373
Ty@@ 373
den@@ 373
px 373
Don@@ 372
Hom@@ 372
Pop@@ 372
emann 372
ket 372
ὀ@@ 372
1661 371
63@@ 371
Billy 371
Bul@@ 371
Fil@@ 371
MHz 371
Tesla 371
old 371
sp 371
υθρ@@ 371
1766 370
197@@ 370
DSM 370
Liber@@ 370
act 370
con 370
lat@@ 370
μέγι@@ 370
1527 369
164 369
3,6 369
Elizabeth 369
Library 369
So 369
lers 369
oria 369
sus 369
ung@@ 369
Οργ@@ 369
εντελ@@ 369
् 369
156 368
Chris 368
Days 368
Ker@@ 368
aire 368
aki 368
ce@@ 368
server 368
son@@ 368
ποτα 368
151 367
Alfa 367
Opera 367
Stones 367
Type 367
dis 367
gh@@ 367
oll@@ 367
δείχθηκε 367
εδρος 367
1328 366
1415 366
1605 366
305 366
74@@ 366
Fin@@ 366
G.@@ 366
Guy 366
ista 366
AV@@ 365
Anne 365
Autom@@ 365
Fel@@ 365
Juan 365
Lake 365
Tul@@ 365
Water 365
latitude 365
log@@ 365
oli 365
0,2 364
640 364
Act 364
Lil 364
USS 364
ert 364
Bat@@ 363
Bru@@ 363
SM@@ 363
dic@@ 363
fi@@ 363
red 363
â@@ 363
ʲ@@ 363
≤ 363
1655 362
3.0@@ 362
Bull 362
DS@@ 362
Ian 362
Lem@@ 362
aus@@ 362
guest 362
141 361
1638 361
1767 361
321 361
530 361
79@@ 361
Bot@@ 361
CV 361
Empire 361
H2O 361
Java 361
On@@ 361
Vic@@ 361
Volvo 361
da@@ 361
1515 360
31@@ 360
36.@@ 360
410 360
Eg@@ 360
Mass@@ 360
cer@@ 360
cy@@ 360
das 360
dier 360
zy@@ 360
136 359
152 359
154 359
158 359
163 359
1707 359
999 359
Lev@@ 359
Weekly 359
amp@@ 359
if 359
water 359
CP 358
Federation 358
Fu@@ 358
Pen@@ 358
Sin@@ 358
ders 358
gi 358
gl@@ 358
nh@@ 358
we@@ 358
οσοφ@@ 358
202 357
3,8 357
3- 357
88@@ 357
Centre 357
Lim@@ 357
Mik@@ 357
SI@@ 357
Sau@@ 357
Special 357
body 357
gar@@ 357
mas@@ 357
1635 356
1675 356
169 356
1701 356
Airways 356
ality 356
anda 356
hat@@ 356
rey 356
vir@@ 356
Τζορ@@ 356
οπον@@ 356
и 356
747 355
77@@ 355
Airbus 355
Animation 355
Challenge 355
F2 355
Sanc@@ 355
Soccer 355
Wood@@ 355
fur@@ 355
sson 355
χας 355
1651 354
1757 354
38.@@ 354
85@@ 354
ST 354
Serie 354
Sig@@ 354
Sor@@ 354
Symphony 354
TNA 354
mu@@ 354
ols 354
ond@@ 354
ér@@ 354
ი@@ 354
142 353
1458 353
Bab@@ 353
Hed@@ 353
Law@@ 353
Pic@@ 353
ev 353
section 353
ä@@ 353
μπουμ 353
1261 352
1340 352
211 352
ATP 352
Emmy 352
GM 352
Hum@@ 352
ans@@ 352
enberg 352
nm 352
ī 352
C1 351
F1 351
Ham@@ 351
Mike 351
Otto 351
RAM 351
Via 351
Wilson 351
XX@@ 351
ches 351
tions 351
ρεση 351
1347 350
1503 350
1672 350
1745 350
From 350
GC 350
T.@@ 350
dom@@ 350
ew@@ 350
ingen 350
τμή@@ 350
,@@ 349
1512 349
1665 349
978 349
Ari@@ 349
C4 349
Dro@@ 349
Led 349
Mad 349
Plus 349
Sweet 349
Thriller 349
Town@@ 349
eson 349
für 349
ward 349
0,3 348
1440 348
1516 348
1547 348
1568 348
1621 348
Choice 348
Mand@@ 348
Stephen 348
Technology 348
bi 348
mail 348
ney 348
ντοκ@@ 348
1525 347
Away 347
ons@@ 347
vers 347
Αφγαν@@ 347
νυχ@@ 347
ἱ@@ 347
1596 346
1609 346
1649 346
1659 346
1697 346
290 346
Gall@@ 346
H2 346
ML@@ 346
Mountain 346
Soci@@ 346
Us 346
1569 345
1612 345
720 345
Johnny 345
Reb@@ 345
arium 345
k.@@ 345
161 344
197 344
Andrew 344
Ath@@ 344
Ball 344
Cab@@ 344
California 344
Money 344
Shar@@ 344
Strange 344
Ther@@ 344
Tony 344
WrestleMania 344
off@@ 344
ven@@ 344
1355 343
1713 343
840 343
Aur@@ 343
Friends 343
Ward 343
cat@@ 343
that 343
1684 342
38,@@ 342
Captain 342
was 342
Ξ 342
ἱ 342
1616 341
162 341
206 341
But@@ 341
Jacob 341
SB 341
Spider 341
Trav@@ 341
arum 341
att@@ 341
ave 341
ech@@ 341
esta 341
ough 341
pp 341
Ö@@ 341
έγερ@@ 341
1644 340
1645 340
610 340
IE@@ 340
Lab@@ 340
Luftwaffe 340
W.@@ 340
anc@@ 340
ating 340
ative 340
ici@@ 340
leg@@ 340
offs 340
ony 340
ual 340
0,6 339
1475 339
1711 339
Management 339
Miller 339
PN@@ 339
Prim@@ 339
Seven 339
Slayer 339
Wol@@ 339
iti 339
1346 338
1504 338
1589 338
208 338
CT 338
EMI 338
GR@@ 338
Good@@ 338
Hell@@ 338
Magn@@ 338
Priest 338
Tip@@ 338
ip@@ 338
kl@@ 338
παραι@@ 338
After 337
Sec@@ 337
Secret 337
ais@@ 337
heim 337
uto 337
vin@@ 337
ère 337
Βιετ@@ 337
αλφ@@ 337
στερν@@ 337
1454 336
1654 336
1735 336
186 336
490 336
Computer 336
Dre@@ 336
Stu@@ 336
Tak@@ 336
Walk 336
Years 336
int@@ 336
len@@ 336
tz 336
Č@@ 336
ακολου@@ 336
συναυλ@@ 336
″ 336
1585 335
1595 335
1666 335
390 335
451 335
Au@@ 335
EF@@ 335
Hard@@ 335
Limited 335
OR 335
Over@@ 335
Say 335
Stor@@ 335
V. 335
asi@@ 335
iga 335
world 335
περισσότερ@@ 335
143 334
1519 334
CL@@ 334
Jan@@ 334
Καλι@@ 334
εκόρ 334
τρεύτηκε 334
1380 333
1493 333
1623 333
195 333
36,@@ 333
Board 333
Mos@@ 333
Sou@@ 333
TB 333
af 333
amm@@ 333
estr@@ 333
igh@@ 333
ίσταν@@ 333
διήρκε@@ 333
ն 333
1330 332
1611 332
1626 332
1628 332
1755 332
238 332
375 332
Adam 332
Aqu@@ 332
Diamond 332
Miss 332
PL@@ 332
ami@@ 332
bar 332
des@@ 332
ection 332
ty@@ 332
Τραγου@@ 332
Φλωρ@@ 332
άνθης 332
εγέρ@@ 332
1602 331
1606 331
1687 331
324 331
520 331
Kam@@ 331
Rev@@ 331
SL@@ 331
aud 331
enne 331
ost 331
tia 331
Ό 331
а 331
1370 330
August 330
Hend@@ 330
Pu@@ 330
Sem@@ 330
bre@@ 330
ein 330
σύζυγ@@ 330
1.5 329
12,5 329
1710 329
Country 329
LG@@ 329
Pul@@ 329
Sle@@ 329
ego 329
pan@@ 329
Εμμαν@@ 329
1341 328
1360 328
1617 328
176 328
275 328
Hat@@ 328
Ing@@ 328
Pix@@ 328
Vit@@ 328
org@@ 328
ota 328
ć 328
1402 327
1471 327
1555 327
1759 327
218 327
35,@@ 327
CS 327
IG@@ 327
Kir@@ 327
Saturn 327
act@@ 327
icum 327
С@@ 327
н@@ 327
Bau@@ 326
Cambridge 326
DV@@ 326
Got 326
H. 326
NP 326
RIAA 326
Shi@@ 326
Var@@ 326
ag 326
mac@@ 326
sz@@ 326
1485 325
1622 325
1716 325
630 325
Et@@ 325
Oc@@ 325
Take 325
Tour@@ 325
ader 325
anti 325
ente 325
ves 325
υναμ@@ 325
404 324
Ash@@ 324
Hi@@ 324
Jon 324
ault 324
cal@@ 324
ger@@ 324
és 324
ę@@ 324
μέθ@@ 324
1371 323
Bell@@ 323
Collection 323
Deb@@ 323
EN 323
Five 323
Francis 323
Franz 323
HS 323
LM 323
Memorial 323
Modern 323
O4 323
Siemens 323
Square 323
Stre@@ 323
bank 323
mes 323
war@@ 323
οιω@@ 323
οξυγ@@ 323
1463 322
1522 322
153 322
1624 322
1754 322
179 322
Fe 322
Gri@@ 322
Law 322
Michel 322
Sen@@ 322
bus@@ 322
m2 322
ston 322
zy 322
š 322
ρίζουμε 322
1483 321
1534 321
1601 321
1643 321
2023 321
Cloud 321
MIT 321
Racing 321
TH@@ 321
bel@@ 321
lum 321
1320 320
139 320
1410 320
1464 320
1499 320
1615 320
870 320
BSD 320
Edition 320
Judas 320
Maj@@ 320
Motor 320
Ober@@ 320
rec@@ 320
ste@@ 320
1490 319
1494 319
159 319
1634 319
1742 319
183 319
470 319
680 319
Age 319
Anthony 319
Fri@@ 319
Mem@@ 319
There 319
aha 319
ally 319
bas@@ 319
class 319
cop@@ 319
gre@@ 319
icon 319
inter@@ 319
olo 319
super@@ 319
tig@@ 319
Ή 319
κατόρθ@@ 319
ομάδ@@ 319
1517 318
1565 318
1588 318
204 318
Cav@@ 318
ER 318
EU@@ 318
Ice 318
Lib@@ 318
Nature 318
TC 318
bach 318
ids 318
our@@ 318
yd@@ 318
171 317
4,6 317
B1 317
BF 317
Church 317
Hav@@ 317
Reichs@@ 317
Ric@@ 317
Vel@@ 317
black 317
oz@@ 317
ւ@@ 317
1479 316
1574 316
1633 316
1721 316
1723 316
20th 316
216 316
232 316
312 316
Action 316
Album 316
Allmusic 316
Fac@@ 316
Fourier 316
Hz 316
ID 316
IL 316
eau 316
master 316
spin 316
tive 316
ηχαν@@ 316
μνες 316
1230 315
1592 315
1709 315
4x@@ 315
Hermann 315
Let@@ 315
Nik@@ 315
Vol 315
aga 315
aus 315
book 315
inn@@ 315
lio 315
ē@@ 315
1349 314
1474 314
1629 314
1717 314
1761 314
189 314
780 314
App@@ 314
GmbH 314
Greatest 314
SV@@ 314
T. 314
iTunes 314
inf@@ 314
ασκευ@@ 314
αφος 314
Ἑ@@ 314
1260 313
1498 313
1524 313
172 313
1741 313
EC 313
Kom@@ 313
Mod@@ 313
Storm 313
zu 313
1692 312
196 312
880 312
Fle@@ 312
Lang@@ 312
NT@@ 312
Poly@@ 312
Pot@@ 312
Prac@@ 312
aris 312
vs 312
yo 312
157 311
33.@@ 311
ABA 311
Den@@ 311
Dream@@ 311
Harry 311
Lac@@ 311
Moore 311
Smo@@ 311
ages 311
fa@@ 311
ison 311
αρμο@@ 311
ηλανδ@@ 311
1532 310
221 310
301 310
Hand@@ 310
NT 310
Prot@@ 310
Side 310
eu 310
imo 310
ses 310
zen 310
Έγ@@ 310
0,4 309
1455 309
1528 309
188 309
335 309
Aut@@ 309
Chan@@ 309
Da@@ 309
Metro 309
PL 309
Ξεκίν@@ 309
πρόσφυγ@@ 309
1656 308
1658 308
Cast@@ 308
Gold 308
Lit@@ 308
MW 308
Nacional 308
OR@@ 308
Pit@@ 308
Pos@@ 308
alt@@ 308
ango 308
arius 308
hom@@ 308
mal@@ 308
sol@@ 308
Καθε@@ 308
λάμ 308
στελ@@ 308
1390 307
1703 307
1704 307
203 307
Alliance 307
Circle 307
Ev@@ 307
Hoffmann 307
IL@@ 307
Japan 307
Next 307
Oxford 307
PT@@ 307
etto 307
1280 306
209 306
3,1 306
CF@@ 306
DR 306
Edge 306
File 306
Ky@@ 306
SN 306
Sto@@ 306
Sus@@ 306
Ultimate 306
Valley 306
studio 306
Πέτ@@ 306
1708 305
1748 305
2.5 305
355 305
580 305
EP@@ 305
Films 305
Italia 305
Run 305
ards 305
can 305
eder@@ 305
1476 304
1508 304
1619 304
178 304
303 304
510 304
BD 304
Cir@@ 304
Council 304
Nic@@ 304
Rus@@ 304
ady 304
arg@@ 304
aster 304
out@@ 304
λίμ@@ 304
1584 303
199 303
476 303
@ 303
Carlo 303
Forum 303
Lis@@ 303
Long@@ 303
PSA 303
bits 303
ever 303
hr@@ 303
kar@@ 303
pa@@ 303
1597 302
1751 302
33,@@ 302
35.@@ 302
4,2 302
508 302
Alan 302
Anim@@ 302
Bos@@ 302
Cle@@ 302
Here 302
Radi@@ 302
Μάικ@@ 302
αδελ@@ 302
.org 301
1653 301
48,@@ 301
95@@ 301
ES 301
Hon@@ 301
N.@@ 301
Steel 301
res 301
sur@@ 301
tice 301
έφθηκε 301
ῃ 301
1385 300
1593 300
1631 300
1652 300
1753 300
337 300
570 300
C2 300
Car 300
Kol@@ 300
MG 300
Nova 300
auss 300
html 300
εξουαλ@@ 300
149 299
1613 299
177 299
39,@@ 299
40.@@ 299
AE 299
Control 299
Dog@@ 299
Kiss 299
Lou@@ 299
Part 299
Software 299
afts 299
duc@@ 299
ml 299
pal@@ 299
worth 299
ón 299
τάνοντας 299
1736 298
DF 298
H.@@ 298
Kin@@ 298
animation 298
ink 298
och@@ 298
τεσσ@@ 298
ի@@ 298
1190 297
1259 297
1290 297
1558 297
1562 297
1575 297
Carlos 297
cel@@ 297
dell 297
gia 297
quot 297
0,8 296
1435 296
1573 296
1614 296
1641 296
Canada 296
Cher@@ 296
Cross 296
DB 296
HA 296
Howard 296
SARS 296
ando 296
ind 296
ker@@ 296
land@@ 296
lois 296
nia 296
oy 296
ros@@ 296
1607 295
198 295
2500 295
300@@ 295
Anti@@ 295
Bour@@ 295
Chrysler 295
Dog 295
Fro@@ 295
PG 295
Peterson 295
Virgin 295
cha 295
lem@@ 295
new 295
sic 295
1429 294
1552 294
1553 294
1664 294
1737 294
1746 294
338 294
Auto 294
GS 294
Hellen@@ 294
Tal@@ 294
list 294
project 294
taine 294
tan 294
ą@@ 294
1594 293
1743 293
181 293
184 293
Beh@@ 293
Danger@@ 293
Formula 293
MLS 293
SR 293
gio 293
iko 293
ores 293
1502 292
1637 292
192@@ 292
241 292
500@@ 292
English 292
Mars 292
NR@@ 292
Wat@@ 292
Works 292
agn@@ 292
führer 292
itas 292
own 292
phone 292
1482 291
1582 291
1646 291
1662 291
187 291
4,4 291
5,2 291
AO 291
Ben 291
Civ@@ 291
Lines 291
Rap@@ 291
SM 291
Samuel 291
Store 291
Sup@@ 291
gen 291
illy 291
inum 291
onn@@ 291
sions 291
tre 291
uli@@ 291
1389 290
1509 290
Boy@@ 290
EM@@ 290
Spirit 290
ancia 290
bra 290
hy@@ 290
ith 290
via 290
εκπαίδευ@@ 290
1725 289
89@@ 289
Bus@@ 289
Dee 289
Eric 289
Ku@@ 289
New@@ 289
Rh@@ 289
Rod@@ 289
Ruby 289
Sophie 289
men@@ 289
tim@@ 289
trans@@ 289
uri 289
ware 289
ws 289
Ç@@ 289
όπημα 289
.S. 288
4,3 288
911 288
CR 288
Eth@@ 288
Flash 288
Kre@@ 288
ML 288
Saf@@ 288
Wik@@ 288
Zero 288
dale 288
ku@@ 288
nam@@ 288
ren@@ 288
ship 288
ès 288
е 288
1466 287
1523 287
1538 287
1647 287
1702 287
1752 287
244 287
Bow@@ 287
Floyd 287
Rush 287
alb@@ 287
ident 287
à@@ 287
Πελοπόννησ@@ 287
ὁ@@ 287
1130 286
1348 286
1513 286
1608 286
1668 286
285 286
30,@@ 286
Ball@@ 286
Christopher 286
Cry 286
Davis 286
Factor 286
Honda 286
0,7 285
1050 285
1365 285
1739 285
242 285
245 285
Corn@@ 285
HTML 285
IB@@ 285
Jim 285
anta 285
awa 285
table 285
ux 285
án 285
1686 284
190@@ 284
Fall 284
Kas@@ 284
Mill@@ 284
Roger 284
Vis@@ 284
eller 284
eti 284
sw@@ 284
έδρου 284
1308 283
1444 283
2,9 283
207 283
219 283
251 283
322 283
820 283
AI 283
Arc@@ 283
EA 283
Haz@@ 283
PR 283
UC@@ 283
Wo@@ 283
mont 283
mus@@ 283
oo 283
Ἰ@@ 283
1220 282
1557 282
639 282
Christmas 282
Sat@@ 282
Tu 282
ery 282
hol@@ 282
kel 282
oro 282
orth@@ 282
ries 282
self 282
έντο@@ 282
ακολ@@ 282
κυττ@@ 282
ка 282
א@@ 282
1556 281
1578 281
1639 281
174 281
3,9 281
99,@@ 281
Power@@ 281
atic 281
four 281
poem 281
Αιτωλοακαρν@@ 281
ήρε 281
εκα 281
1150 280
1285 280
1396 280
1676 280
1744 280
31.@@ 280
4,8 280
425 280
Beach 280
Conference 280
Garden 280
Lic@@ 280
Mind 280
SPD 280
Sierra 280
Wind 280
cape 280
dec@@ 280
iy@@ 280
yer 280
εντρο 280
ὡ@@ 280
1382 279
1581 279
1636 279
1749 279
184@@ 279
331 279
737 279
98@@ 279
Atlas 279
Brian 279
CT@@ 279
Der@@ 279
Din@@ 279
Grace 279
Kos@@ 279
Viol@@ 279
Vista 279
day 279
edi@@ 279
ega 279
esti@@ 279
has@@ 279
Περιφέρ@@ 279
ά. 279
1312 278
1386 278
1535 278
1599 278
1694 278
1733 278
191 278
246 278
Anton@@ 278
Flo@@ 278
Forever 278
Lincoln 278
Metacritic 278
Ple@@ 278
States 278
Tim@@ 278
Yam@@ 278
ald 278
arr@@ 278
imon 278
loween 278
opus 278
post 278
rell 278
tical 278
ï@@ 278
1311 277
1587 277
315 277
Bang 277
Camp@@ 277
Def@@ 277
Imag@@ 277
Kids 277
Lat@@ 277
Palace 277
SL 277
Sak@@ 277
Sant 277
Social 277
char@@ 277
two 277
δίπλ@@ 277
1314 276
1337 276
1682 276
32.@@ 276
LED 276
gs 276
kol@@ 276
ome@@ 276
onic 276
ush 276
─ 276
.C. 275
1310 275
1377 275
1425 275
1501 275
1727 275
3.0 275
336 275
660 275
Cit@@ 275
Rot@@ 275
Systems 275
Tan@@ 275
Un 275
VO@@ 275
ands 275
omo 275
1561 274
279 274
313 274
333 274
431 274
Core 274
IV@@ 274
Jane 274
Order 274
Slam 274
app@@ 274
atum 274
clip 274
dom 274
ites 274
sch 274
Δυν@@ 274
1395 273
1576 273
1678 273
1719 273
1724 273
1726 273
1734 273
228 273
4- 273
49,@@ 273
Loc@@ 273
Natur@@ 273
Net@@ 273
Screen 273
Thi@@ 273
cio 273
ques 273
αποφάσι@@ 273
λεπτο@@ 273
565 272
AX 272
Bra@@ 272
C3 272
Comp@@ 272
Ki@@ 272
Nav@@ 272
Rad@@ 272
ask@@ 272
cia 272
demo 272
din 272
not@@ 272
wiki 272
ская 272
1066 271
1439 271
1510 271
281 271
334 271
34,@@ 271
37,@@ 271
415 271
Cs 271
Frederick 271
Ka@@ 271
Living 271
Mich@@ 271
True 271
core 271
dance 271
dio 271
edia 271
je@@ 271
1240 270
1495 270
1541 270
1544 270
1756 270
284 270
Af@@ 270
Data 270
Mic@@ 270
UL@@ 270
Wii 270
ix 270
τάθηκε 270
1080 269
1478 269
1567 269
1579 269
1586 269
5,6 269
Angels 269
Ble@@ 269
County 269
Kingdom 269
LS 269
Planet 269
begin 269
com 269
design 269
eu@@ 269
rix 269
ther@@ 269
vi 269
vic@@ 269
Γιόχ@@ 269
ατόμ@@ 269
τεο 269
1316 268
1327 268
1356 268
1543 268
311 268
740 268
Acc@@ 268
Eyes 268
Historia 268
K.@@ 268
Ori@@ 268
PP 268
adi 268
bis 268
group 268
Παυ@@ 268
რ@@ 268
1388 267
1514 267
1673 267
1693 267
1696 267
1728 267
353 267
BR@@ 267
Capital 267
Clarke 267
DF@@ 267
Devil 267
HBO 267
Madonna 267
Nas@@ 267
O.@@ 267
Sciences 267
Tab@@ 267
los@@ 267
mart@@ 267
poli 267
stream 267
vel@@ 267
ἴ@@ 267
1241 266
1404 266
Berlin 266
Che@@ 266
CoV 266
Highway 266
Johannes 266
KO 266
NB 266
Name 266
Nick 266
Pri@@ 266
Ring 266
Soft 266
Urban 266
dium 266
ici 266
pm 266
1270 265
1397 265
1506 265
1551 265
1732 265
231 265
268 265
47,@@ 265
Das 265
Dun@@ 265
Georges 265
Night@@ 265
Sir@@ 265
Studies 265
aries 265
ih@@ 265
lot 265
oa 265
αυαρ@@ 265
253 264
265 264
405 264
A1 264
Alex 264
CI 264
Mobile 264
Port 264
Pun@@ 264
Ry@@ 264
Silver 264
Single 264
Tit@@ 264
Ze@@ 264
fire 264
law 264
lig@@ 264
lock 264
κατεύ@@ 264
1505 263
293 263
308 263
354 263
Books 263
Boston 263
CW 263
Health 263
Mess@@ 263
TCP 263
Wright 263
agr@@ 263
power 263
pres@@ 263
υργκ 263
50,@@ 262
ABS 262
Freedom 262
Gas@@ 262
Ghost 262
North@@ 262
Od@@ 262
Syn@@ 262
ges 262
ster@@ 262
έπρ@@ 262
ιδρ@@ 262
κτρ@@ 262
ποδες 262
1.6 261
214 261
Fun@@ 261
MO 261
Mam@@ 261
avi@@ 261
iens 261
rom@@ 261
1422 260
1472 260
1533 260
1695 260
239 260
255 260
About 260
Andrea 260
Face 260
GL 260
Mercury 260
Villa 260
ef 260
fin@@ 260
ime 260
nic@@ 260
web.archive.org 260
σαυ@@ 260
CU 259
Dame 259
GHz 259
ago 259
ange 259
kon@@ 259
sk 259
solo 259
Συνήθ@@ 259
ר@@ 259
ー@@ 259
1399 258
1591 258
1729 258
302 258
At 258
Bruce 258
Jay 258
Pet@@ 258
Voy@@ 258
atio 258
cis 258
eno 258
polis 258
επικοιν@@ 258
σχεδ@@ 258
1302 257
1305 257
1539 257
1663 257
1679 257
1738 257
32,@@ 257
Giuseppe 257
Les@@ 257
Mid@@ 257
ayer 257
eli 257
inda 257
pes 257
stone 257
tier 257
wal@@ 257
ე@@ 257
1303 256
1511 256
1674 256
261 256
Fair 256
Jer@@ 256
Kill 256
Lap@@ 256
Ross 256
ae@@ 256
ili 256
ju@@ 256
Ταυτ@@ 256
1258 255
1304 255
1469 255
1477 255
1545 255
1712 255
173 255
286 255
670 255
760 255
Classic 255
GP 255
Independent 255
Lie 255
María 255
TR@@ 255
Ten 255
anna 255
anum 255
ario 255
aves 255
ū 255
1296 254
1368 254
1548 254
1657 254
1747 254
182 254
272 254
283 254
5,7 254
Conn@@ 254
ET@@ 254
Log@@ 254
SmackDown 254
amar@@ 254
ational 254
gers 254
system 254
xi@@ 254
Βουρβ@@ 254
յ@@ 254
1418 253
1481 253
1722 253
527 253
86@@ 253
Elec@@ 253
Hits 253
IT 253
Lon@@ 253
Mayer 253
Micro@@ 253
Morris 253
chen 253
cus 253
ku 253
tal@@ 253
ú@@ 253
Ελισ@@ 253
1295 252
1431 252
295 252
Basket 252
Fur@@ 252
Into 252
Kaz@@ 252
Maz@@ 252
Too 252
acc@@ 252
ho 252
onna 252
Ελλάδ@@ 252
1564 251
262 251
304 251
Beat 251
Ec@@ 251
Hur@@ 251
Monte 251
Pom@@ 251
Rel@@ 251
Roy 251
Sev@@ 251
Sum@@ 251
any 251
club 251
cre@@ 251
ec 251
ects 251
kers 251
loc@@ 251
log 251
orn 251
rd 251
try 251
ying 251
й 251
001 250
1070 250
332 250
34.@@ 250
BW@@ 250
Born 250
CDU 250
CM@@ 250
DOS 250
Encyclo@@ 250
Future 250
Hello 250
Mach@@ 250
Pass@@ 250
RN 250
Total 250
Um@@ 250
Vogue 250
Wars 250
acy 250
ager 250
dem@@ 250
eer 250
pin@@ 250
wo@@ 250
ż@@ 250
ομβαρ@@ 250
πρεσ@@ 250
1417 249
535 249
AK 249
Benjamin 249
Claude 249
Direc@@ 249
Fear 249
Happy 249
Number 249
Peace 249
RN@@ 249
aker 249
car 249
don@@ 249
ece 249
min 249
ures 249
ò@@ 249
525 248
Beyond 248
Cant@@ 248
Fire@@ 248
Legend 248
Pil@@ 248
Pra@@ 248
See 248
Smart 248
Uri@@ 248
Wid@@ 248
asa 248
cros@@ 248
iri 248
istr@@ 248
olls 248
var 248
ελκύ@@ 248
1375 247
1731 247
641 247
830 247
Arch@@ 247
Archives 247
EST 247
Information 247
Pel@@ 247
Vul@@ 247
Web@@ 247
cho 247
dit 247
eri@@ 247
nier 247
ond 247
πρεμι@@ 247
1.2 246
1210 246
2024 246
213 246
226 246
326 246
Cass@@ 246
Crown 246
Education 246
Fut@@ 246
Gran@@ 246
Guns 246
Liberty 246
MGM 246
MiG 246
imi 246
position 246
progressive 246
ular 246
ὕ@@ 246
243 245
356 245
Beau@@ 245
Call 245
Dark@@ 245
Electronic 245
FIA 245
Gener@@ 245
Gone 245
Guild 245
Instagram 245
MB 245
Masters 245
Mitsubishi 245
Nat@@ 245
Patrick 245
Village 245
Was@@ 245
itz@@ 245
yi 245
1315 244
1554 244
1563 244
343 244
590 244
970 244
AK@@ 244
Nak@@ 244
Naz@@ 244
Philip 244
cep@@ 244
fa 244
mb@@ 244
tera 244
tle 244
μαθε 244
1323 243
2,0 243
5,8 243
843 243
Antoine 243
Bridge 243
Fili@@ 243
Hughes 243
Iz@@ 243
Las@@ 243
Midnight 243
Pokémon 243
RCA 243
Survivor 243
Tek@@ 243
Trust 243
esa 243
punk 243
yan 243
εκεί@@ 243
1307 242
AFC 242
Dancing 242
FL 242
Jimmy 242
Kap@@ 242
Stop 242
Turner 242
ann 242
oyo 242
ui 242
uta 242
wn 242
ი 242
1.1 241
1160 241
1291 241
1468 241
386 241
411 241
620 241
DD 241
Delta 241
Glory 241
Itali@@ 241
Jaguar 241
Motor@@ 241
Om@@ 241
Roman 241
SMS 241
aeus 241
ashi 241
aun@@ 241
dig@@ 241
iPad 241
illing 241
pul@@ 241
sub@@ 241
uk 241
watch 241
αμεν@@ 241
1284 240
1497 240
1529 240
1549 240
1698 240
264 240
408 240
BB 240
Eagle 240
French 240
Ful@@ 240
GO 240
Julius 240
L. 240
Nicolas 240
Russell 240
Samsung 240
Spr@@ 240
aca 240
bin 240
han 240
na@@ 240
ose 240
return 240
δεκαετ@@ 240
ὄ@@ 240
ὶ@@ 240
Bern@@ 239
Bernard 239
IN 239
Kid 239
Louise 239
Port@@ 239
Sound@@ 239
UP 239
Vincent 239
Whe@@ 239
apo@@ 239
mit@@ 239
pper 239
229 238
249 238
406 238
Allen 238
Bac@@ 238
Europ@@ 238
Kl@@ 238
May 238
Pacific 238
Pay@@ 238
Soc@@ 238
Sport@@ 238
Thr@@ 238
XI 238
deg@@ 238
[...]
