ใน 1217048
ที่ 1019997
และ 1003417
ของ 855105
เป็น 810110
มี 631321
การ 552946
ได้ 537794
" 475085
) 424909
( 418103
โดย 315240
. 277275
ว่า 277082
กับ 270888
ปี 267673
จาก 262534
จะ 257783
ซึ่ง 249279
ให้ 238404
ไม่ 229133
พ.ศ. 227057
ไป 222266
เมื่อ 200893
มา 196505
, 192327
การ@@ 171466
นี้ 166274
พระ 163628
อยู่ 162308
หรือ 162154
ค.ศ. 160906
- 153466
ใช้ 149375
คือ 148400
แต่ 145867
ก็ 144565
เขา 142985
ส 139660
ล 138224
วันที่ 136491
ๆ 134948
คน 133498
น 132801
ด้วย 132678
ถูก 130040
น@@ 129682
์ 129347
แห่ง 128359
ส@@ 125424
ทาง 124834
ก@@ 121425
ประเทศ 120476
ม 119885
ม@@ 118093
เพื่อ 113537
ได้รับ 113401
ขึ้น 113231
ยัง 112289
ความ@@ 110461
อย่าง 110317
เมือง 108582
2 106697
นั้น 106093
ล@@ 104260
จึง 103338
ด 101166
ก 98904
กัน 98283
ง 98176
ด@@ 95619
ตัว 95210
1 95197
ต 91796
ไทย 90950
ผู้ 90040
ร@@ 88782
สามารถ 87721
ถึง 87182
นา 86891
ต@@ 86200
บ@@ 85970
ค@@ 85581
แล้ว 85067
หนึ่ง 83899
พ@@ 83842
ป@@ 83549
อ@@ 81871
ร์ 81846
ว@@ 80231
3 79349
ชื่อ 78980
แบบ 78703
ทำให้ 78025
ช@@ 76878
สร้าง 76359
ท@@ 76167
ผู้@@ 75929
เธอ 75795
ต่อ 75476
ทรง 74144
ย@@ 74065
เรื่อง 72872
ตาม 72167
จังหวัด 72130
ออก 72006
เกิด 69701
ชาว 68532
() 68085
ดี 67881
ง@@ 67526
อร 67397
เพลง 66835
ระหว่าง 66459
ต่อมา 65419
มาก 65047
วัด 64491
จ@@ 64113
ริ 63037
ความ 62727
ทั้ง 62369
ร 61920
ว 61707
แรก 61537
ทีม 61326
อีก 60323
ส่วน 59993
ย 59903
กลุ่ม 59796
รา 59734
บ 59096
เดือน 58706
ปัจจุบัน 58648
ต้อง 58537
เช่น 58438
ฟ@@ 58431
ลง 58025
ทำ 57746
ค 57191
อ 57162
4 56971
ท 56911
สำหรับ 56907
กา 56568
: 55906
พระองค์ 55698
ใหม่ 55649
ลา 55113
ด้าน 54974
พบ 53957
ห@@ 53933
วัน 53735
รี 53016
ช่วง 52502
เข้า 52466
24@@ 52354
ส์ 52351
ที่สุด 52289
ข@@ 51680
พระ@@ 51419
เน@@ 51329
อำเภอ 51290
เอ 50918
เรียก 50901
โ@@ 50792
ตา 50639
ยา 50346
ซ@@ 50269
โอ 50126
เป็น@@ 49728
บน 49668
ภาพยนตร์ 49552
งาน 49505
โลก 49472
หลาย 49175
เริ่ม 48798
วิ@@ 48659
ซี 48113
มิ 48038
ภาษา 47954
ใหญ่ 47733
จัด 47701
5 47608
ภาพ 47527
ณ 47513
หลัง 47512
ครั้ง 47321
นำ 47073
เล่น 46735
ะ 46676
ช 46625
น้ำ 46426
พระเจ้า 46346
์@@ 45683
ประ@@ 45556
โรงเรียน 45445
ต่าง 45251
ทาง@@ 45040
จำนวน 44889
อา 44837
ไว้ 44792
เล@@ 44677
ตั้งแต่ 44651
กว่า 44612
ป 44099
จน 43861
ลี 43576
เด 43576
รัฐ 43294
ราช 42923
มาจาก 42698
การแข่งขัน 42461
ลิ 42397
– 42204
สอง 42038
; 41769
สี 41763
เม@@ 41689
ที่จะ 41473
ฟ 41385
ซา 41382
เก@@ 41223
รอบ 41156
นา@@ 40260
ระดับ 39922
พื้นที่ 39902
ทั้งหมด 39871
มี@@ 39766
่ง 39737
จีน 39571
สมัย 39501
เขต 39388
นิ@@ 39288
อื่น 39242
ผ่าน 39100
25@@ 39044
เบ@@ 38978
กลาง 38763
เอ@@ 38733
อาจ 38608
ระบบ 38547
มา@@ 38177
ที่@@ 38132
นัก@@ 37670
สมเด็จ 37615
คำ 37467
ญี่ปุ่น 37359
ก่อน 37345
ย์ 37197
กระ@@ 36967
นาย 36874
ในประเทศ 36843
เวลา 36727
เร 36632
อา@@ 36557
เร@@ 36524
เคย 36487
บ้าน 36438
โร 36312
เซ@@ 36286
ประมาณ 36264
ชาติ 36234
สำคัญ 36170
มัน 35868
6 35844
ได้แก่ 35819
รา@@ 35717
ร์@@ 35550
รวม 35512
ถ@@ 34738
นัก 34711
"@@ 34263
มหาวิทยาลัย 34118
เนื่องจาก 34041
คา 34035
ดา 33864
า 33810
หา 33762
เดิม 33710
ตำแหน่ง 33607
แ@@ 33582
โต 33541
เพราะ 33510
วง 33450
วิ 33448
เพียง 33322
ลักษณะ 33180
เต 32920
การศึกษา 32837
โก 32833
ลิ@@ 32829
สุ@@ 32789
สูง 32615
ผ@@ 32486
เซ 32451
ชนิด 32315
ชุด 32184
หน้า 32152
รับ 32111
บริษัท 32095
บาง 32062
่ 32038
ฮ@@ 31829
บริเวณ 31805
ติ 31683
เท 31640
ราช@@ 31623
ตำบล 31418
-@@ 31375
อัน 31322
โน 31284
นิ 31124
เม 31006
อันดับ 30861
ซิ 30803
7 30733
กา@@ 30660
ใจ 30620
เจ้า 30604
เฟ@@ 30525
พิ@@ 30492
(@@ 30444
แก่ 30360
กล@@ 30333
ประวัติ 30244
เจ@@ 30198
ตัว@@ 30162
ชิ 29950
ผล 29929
ฝ่าย 29885
หลังจาก 29859
10 29713
คำ@@ 29712
ฟุตบอล 29688
วงศ์ 29503
ทำ@@ 29326
อังกฤษ 29324
ต์ 29267
สม@@ 29158
หลัก 29057
ี 29030
ตั้งอยู่ 28976
กลับ 28883
รัฐบาล 28683
เกม 28528
ส่ง 28497
เท@@ 28467
โค 28444
วา 28141
น์ 28138
ไ@@ 28046
สงคราม 28025
แสดง 27982
รายการ 27976
เปิด 27957
8 27512
เป@@ 27478
ยาว 27464
กีฬา 27431
ชั้น 27179
ริ@@ 27081
รูป 26997
เดียว 26985
อัลบั้ม 26941
& 26909
สา@@ 26906
ญ 26864
เก 26821
อน 26731
่@@ 26689
เช@@ 26687
เสียง 26631
แบ่ง 26572
เว@@ 26550
อาหาร 26451
กำลัง 26319
ลูก@@ 26318
ระ 26251
ภายใน 26141
้ 26063
ยุค 26009
/ 26000
ยา@@ 25964
องค์ 25932
สาย 25845
ภาค 25776
เห็น 25725
ประกาศ 25723
ฝรั่งเศส 25678
สโมสร 25660
เกี่ยวกับ 25619
ศึกษา 25598
ระ@@ 25541
กร@@ 25405
ญ@@ 25373
” 25332
ท์ 25304
อุ@@ 25230
ปลา 25215
พล@@ 25053
เป็นการ 24987
ซ 24980
ร่วม 24904
อี 24888
เหนือ 24874
เขียน 24850
อิ@@ 24822
จิ 24718
ชีวิต 24716
อดีต 24709
คณะ 24689
โอลิมปิก 24673
ผลงาน 24550
เต@@ 24544
บา 24527
ฮา 24526
พรรค 24498
คน@@ 24464
รุ่น 24415
หน@@ 24382
โด 24293
เปลี่ยน 24162
เด@@ 24118
“ 24038
กรรม 23946
กั@@ 23888
รูปแบบ 23835
ชา 23808
เพ@@ 23807
ดังกล่าว 23715
น้ำ@@ 23682
อก 23672
น้อย 23663
สาม 23510
หญิง 23489
เส@@ 23481
  23469
ดู 23458
เค 23437
ซ์ 23429
ล้าน 23384
ช่วย 23308
อั@@ 23271
ธ@@ 23223
ศาสตร์ 23214
20 23163
ชาย 23160
9 23140
้ง 23125
นิยม 23037
of 23023
ตั้ง 23006
ลีก 22914
ติ@@ 22850
นี 22839
มากกว่า 22834
ผล@@ 22760
ศ@@ 22751
โรค 22675
บี 22656
ลา@@ 22637
เรือ 22631
หม@@ 22630
ทหาร 22594
ครั้งแรก 22539
เค@@ 22500
หล@@ 22482
็@@ 22471
จนถึง 22440
ประกอบ 22380
ที 22348
นอกจากนี้ 22320
ตน 22270
้า 22269
เดียวกัน 22255
รางวัล 22248
ใต้ 22178
หลวง 22165
บา@@ 22155
อง 22151
ฉ@@ 22039
ทอง 22000
ดิ 21985
อายุ 21935
รัก 21894
ท่าน 21792
โล 21787
แทน 21771
เกาะ 21705
ถนน 21608
เข้าร่วม 21577
12 21439
ส่วนใหญ่ 21336
โม 21335
ข้อมูล 21308
ตอน 21303
กิ@@ 21282
เรียน 21194
เกิดขึ้น 21179
มิ@@ 21108
เจ 20932
15 20911
สกุล 20887
เลือก 20850
ธรรม 20823
สุดท้าย 20813
ยู 20785
ประเภท 20720
้@@ 20698
เดินทาง 20673
ตัน 20610
ชนะ 20609
พัฒนา 20598
เอง 20583
ด์ 20566
กร 20551
พวกเขา 20534
รับ@@ 20452
ก็ได้ 20425
เมตร 20369
โร@@ 20359
มหา 20356
ู@@ 20338
ฤดูกาล 20256
ทุก 20215
บาท 20213
สัตว์ 20200
แม@@ 20181
เจ้า@@ 20174
เ@@ 20152
ขนาด 20147
มีนาคม 20143
พันธุ์ 20113
โดย@@ 20109
สิงหาคม 20098
กองทัพ 20065
แห่งชาติ 20060
เครื่อง@@ 20054
ที่อยู่ 20050
สมาชิก 20047
แม่น้ำ 19986
พา@@ 19966
เข้า@@ 19966
่น 19947
่า 19939
รั@@ 19912
ะ@@ 19869
16 19820
ีย@@ 19817
อาคาร 19804
เงิน 19799
ตุลาคม 19787
จ 19728
ส่วน@@ 19717
ิ@@ 19683
ย้าย 19662
แนว 19644
ปรากฏ 19571
ข้อ@@ 19562
ออกมา 19561
ราชวงศ์ 19551
ุ@@ 19551
เข้ามา 19499
มั@@ 19473
กลายเป็น 19441
ณ@@ 19417
พวก 19417
ออกจาก 19414
ช่อง 19368
สู่ 19345
กันยายน 19312
จบ 19216
' 19212
ประกอบด้วย 19196
๊@@ 19196
ใด 19160
ยังมี 19147
เมษายน 19139
มกราคม 19132
แยก 19109
ธันวาคม 19074
สาขา 19074
ัก 19067
พ 19034
ธ 19024
จักรพรรดิ 19018
แต่ละ 18987
), 18983
ปล@@ 18968
ประชากร 18966
บุคคล 18956
ออ 18944
พิเศษ 18941
พฤษภาคม 18899
ฐานะ 18886
ต่างๆ 18853
สาร 18815
น. 18814
ทา 18773
เล็ก 18762
กำหนด 18742
ู 18722
หมายถึง 18709
ประชาชน 18707
กรกฎาคม 18699
โม@@ 18659
เอก 18599
มนุษย์ 18595
รวมถึง 18562
มัก 18440
สัน 18286
ศรี 18272
11 18194
นัด 18161
เพิ่ม 18159
การเลือกตั้ง 18136
ี@@ 18136
ต้น 18036
หนังสือ 18020
แม่ 18000
โซ 17986
โท 17978
ทั้งสอง 17968
ิน 17968
ฯ 17931
มิถุนายน 17922
วา@@ 17918
นาง 17841
า@@ 17831
ทำงาน 17787
กรุง 17764
อม 17755
อะ 17716
30 17695
อาศัย 17670
คู่ 17644
ไม้ 17640
จริง 17617
ขอ 17580
โอ@@ 17577
ลด 17555
วี 17555
นาน 17543
พฤศจิกายน 17494
ผลิต 17485
ทั่วไป 17483
หัว 17471
สิ่ง 17466
ประวัติศาสตร์ 17437
มะ 17353
14 17335
อด 17332
ชน 17316
ดิ@@ 17296
ิ 17290
อีกครั้ง 17288
.@@ 17268
ไอ 17245
สหรัฐอเมริกา 17238
เท่านั้น 17222
วั@@ 17199
ศ 17168
อง@@ 17087
ตา@@ 17072
นคร 17059
พา 17046
ฐาน 17015
ตี 16962
ชัน 16936
ฉบับ 16919
จัด@@ 16916
มหา@@ 16899
กุมภาพันธ์ 16873
ละคร 16856
ยะ 16851
ลง@@ 16839
การปกครอง 16836
ดี@@ 16805
อิ 16788
บท 16770
สนับสนุน 16730
อร์@@ 16711
ภายใต้ 16649
ตาย 16508
สาว 16479
อำนาจ 16454
ทร@@ 16449
ดังนี้ 16445
ปา@@ 16432
วน 16425
ประจำ 16387
ไฟ 16378
งาน@@ 16369
วง@@ 16352
แอ 16327
ทะเล 16323
19 16179
ชื่อว่า 16178
13 16177
แข่งขัน 16151
ัง 16069
(; 16067
เครื่อง 16064
หา@@ 16048
พระราชทาน 15998
รักษา 15991
คล@@ 15971
เหตุการณ์ 15960
กิ 15863
ชัย 15854
่ง@@ 15851
สังกัด 15818
The 15817
รวมทั้ง 15809
18 15800
25 15786
ลำ@@ 15779
จากนั้น 15768
เดอะ 15737
อาร์ 15725
้น 15724
พล 15710
กะ 15695
จำหน่าย 15689
17 15661
สูงสุด 15658
เลย 15656
ฤดูร้อน 15635
สุ 15610
ุ 15598
เฮ@@ 15581
พร@@ 15551
ร่วมกับ 15525
") 15524
ใบ 15517
คา@@ 15515
คณะกรรมการ 15473
ศาสนา 15473
ปา 15470
่น@@ 15460
เส้น 15443
ตร@@ 15435
เสียชีวิต 15412
สภา 15370
เด็ก 15363
ถ้า 15330
อน@@ 15325
จำกัด 15301
ลูก 15289
ทิ@@ 15276
หน้า@@ 15223
ตะวันออก 15221
รู 15210
ละ 15118
แบ@@ 15112
กอง@@ 15108
นก 15092
ปัญหา 15087
การแสดง 15066
บรร@@ 15058
ตะ@@ 14998
ขาว 14965
เอส 14962
รุ@@ 14937
ิง 14932
ยังคง 14915
เรา 14899
วิทยา 14891
วัน@@ 14889
กรม 14860
ล์ 14860
เล 14858
วิธี 14839
กลับมา 14822
ดาว 14781
สาร@@ 14781
ป่า 14767
หาก 14763
ม. 14732
อาการ 14693
ตาม@@ 14625
แดง 14620
บุตร 14618
กู 14607
หน่วย 14575
ซั@@ 14571
ห์ 14564
บุรี 14552
ยุโรป 14533
นาม 14527
บั@@ 14506
ฝ@@ 14479
ฮิ 14470
24 14449
ประตู 14439
มือ 14429
สถาน 14429
บิน 14423
กฎหมาย 14366
ชั้น@@ 14364
โบ 14358
ซา@@ 14350
​ 14339
แก@@ 14326
อร์ 14321
ชิง 14311
คล้าย 14302
เซอร์ 14302
ตุ@@ 14290
คิด 14269
สี@@ 14268
ตั@@ 14233
จุด 14226
โค@@ 14204
้า@@ 14187
21 14162
นักแสดง 14110
อาชีพ 14091
ัน@@ 14076
จุด@@ 14058
คอ 14018
ปรา@@ 13978
นับ 13970
ี่ 13965
เอเชีย 13960
ซู 13921
กิน 13897
สาธารณรัฐ 13872
ห 13841
สั@@ 13838
ลาย 13837
กรม@@ 13833
ดนตรี 13799
เข้าไป 13799
รัสเซีย 13777
เหมือน 13758
รอ 13755
รถ 13750
โล@@ 13750
วัฒนธรรม 13725
วิน 13705
เหล่านี้ 13704
ขนาดใหญ่ 13694
ให้@@ 13676
ตะวันตก 13673
เรีย 13657
อินเดีย 13625
เจ้าชาย 13618
เป็นที่ 13597
ดำรงตำแหน่ง 13592
ออกอากาศ 13572
คะแนน 13570
แม้ 13567
ที่สอง 13544
แท@@ 13540
ประธาน 13526
the 13496
ใน@@ 13482
เป็นหนึ่ง 13478
โครงการ 13476
ำ 13473
% 13449
กษัตริย์ 13447
เข้าสู่ 13430
ศักดิ์ 13423
ปลาย 13397
ราย 13391
สหรัฐ 13389
โย 13381
สังคม 13372
ก่อตั้ง 13371
ติด 13303
ดา@@ 13275
็ก 13269
ตรง 13264
นะ 13247
แมน 13234
ตนเอง 13232
เป็นต้น 13221
ภายหลัง 13195
เสีย 13188
ค่า 13182
เข@@ 13182
gt 13156
วะ 13134
ยอด 13117
ขาย 13106
ครอบครัว 13080
แล@@ 13074
จนกระทั่ง 13072
คณะ@@ 13053
lt 13051
ชอบ 13036
ฟ้า 13015
ใกล้ 12984
บุ@@ 12955
นาง@@ 12948
คุณ 12941
อนุ@@ 12937
ราชการ 12921
ออกแบบ 12916
สถานี 12903
โด@@ 12898
แสง 12876
สถาบัน 12864
ท่า 12847
จำนวนมาก 12832
อย@@ 12832
ษ@@ 12831
วิทยาศาสตร์ 12823
สนาม 12808
รบ 12793
หน้าที่ 12790
จี 12779
เอา 12770
ดำ 12760
เนีย 12746
การพัฒนา 12745
มณฑล 12738
พัน 12732
เซลล์ 12712
รอง 12711
วัง 12703
ซี@@ 12686
พอ 12684
รี@@ 12681
ไฟฟ้า 12676
ราว 12675
ต่อไป 12671
ราม 12669
23 12648
จิ@@ 12637
ภา@@ 12632
จา 12620
ชน@@ 12613
ระบุ 12613
ลำดับ 12588
สอน 12583
ตระกูล 12572
ปั@@ 12554
ดินแดน 12551
ับ 12549
ภ@@ 12542
บิดา 12532
วาง 12512
เทพ 12490
แซ@@ 12479
อย่างไรก็ตาม 12446
สี่ 12435
คร@@ 12414
บท@@ 12410
ยก 12408
เจ้าหญิง 12404
ธิ@@ 12393
สวน 12379
มากขึ้น 12378
เสด็จ 12323
อิน 12316
อักษร 12315
เชื่อ 12310
ธรรมชาติ 12302
วิทยาลัย 12298
คดี 12293
วิหาร 12261
ส่วนหนึ่ง 12260
บิ 12259
จัดตั้ง 12218
เย@@ 12210
รุ 12187
หลังจากนั้น 12179
มาร 12177
เวอร์ 12172
ในขณะที่ 12169
หิน 12165
มักจะ 12129
นอก 12126
เห@@ 12107
ก่อ 12092
สมาคม 12083
คุณ@@ 12048
ซิ@@ 12048
จำ@@ 12041
แปล 12032
ต้องการ 12024
พี 12013
เฮ 12004
คลอง 11996
ยุ@@ 11967
อบ@@ 11965
งา 11953
เอ็ม 11943
ตัวเอง 11930
พระยา 11912
อเมริกัน 11903
เก็บ 11902
กว้าง 11843
นต@@ 11814
แผ่นดิน 11782
รู้ 11766
ต้น@@ 11759
เพื่อให้ 11748
ภาพ@@ 11746
่ม 11736
ภูมิ@@ 11724
อีกด้วย 11712
ครั้งนี้ 11711
เกิน 11700
โดยเฉพาะ 11696
แก้ว 11675
ชี 11665
ไร 11645
าน 11637
แตก 11636
แพ้ 11612
ดังนั้น 11608
พม่า 11607
ห้อง 11607
ปริ@@ 11590
ศูนย์ 11589
ภาษา@@ 11580
อล 11578
ีย์ 11576
อากาศ 11571
แพ@@ 11567
ธุรกิจ 11561
ควบคุม 11557
อาจจะ 11555
26 11549
นุ@@ 11530
บริ@@ 11530
ดอก 11525
ียน 11524
ละ@@ 11507
โซ@@ 11494
เฉพาะ 11483
กุ@@ 11467
ของ@@ 11466
ได 11439
พยายาม 11428
สน@@ 11424
ัก@@ 11400
โทรทัศน์ 11391
รถ@@ 11383
ใช้@@ 11383
ดูแล 11370
ชา@@ 11363
ร้อง 11337
ต่อ@@ 11333
ไล@@ 11300
เหลือ 11299
เยอรมนี 11289
คั@@ 11268
ตรา 11255
จักรวรรดิ 11243
ศิลปะ 11235
วร 11229
่อ 11223
ข่าว 11221
0 11200
ภูมิภาค 11169
ออก@@ 11167
ิน@@ 11166
เพ 11163
เยอรมัน 11163
สัง@@ 11159
บันทึก 11152
นายกรัฐมนตรี 11138
พั@@ 11131
อัล 11128
ก่อสร้าง 11127
s 11125
เลือด 11107
ยาน 11106
โจ@@ 11105
กิโลเมตร 11101
เก่า 11099
โฮ 11099
สั้น 11089
ทำการ 11087
เกี่ยวข้อง 11087
พูด 11082
อาณาจักร 11075
ทุก@@ 11066
น่า@@ 11060
เน 11059
กัน@@ 11040
ประโยชน์ 11027
มีชื่อเสียง 11027
สุด 11016
เตอร์ 11012
เทคโนโลยี 10997
แจ@@ 10987
ยิง 10983
ปกติ 10978
ภัย 10948
ฉาย 10938
เลอ 10930
หมู่ 10927
ศึก 10924
เชิง 10906
อื่นๆ 10891
พืช 10876
อย 10874
ลั@@ 10866
ตก@@ 10858
อด@@ 10840
สถานที่ 10837
เป็นทางการ 10830
ที@@ 10825
ป้องกัน 10825
27 10820
ภูมิ 10819
โบราณ 10815
ไซ 10806
พร้อมกับ 10793
รายชื่อ 10781
ู่ 10766
22 10764
มากมาย 10751
ทั@@ 10745
ครู 10720
ย่อย 10720
แรง 10704
ศิลปิน 10694
ยู@@ 10683
ดัน 10669
เริ่มต้น 10663
เลี้ยง 10661
ว่าการ 10659
นั@@ 10651
ตัวละคร 10648
กอ 10645
กรุงเทพมหานคร 10639
กุ 10624
หมู่บ้าน 10621
ข้าง 10595
ว์ 10582
แชมป์ 10556
ค่าย 10543
ตะ 10533
วี@@ 10523
เปิดตัว 10518
ปกครอง 10516
โก@@ 10507
พร้อม 10500
้น@@ 10492
กล่าว 10488
เหตุ 10486
นี่ 10484
นักเรียน 10471
รว@@ 10456
ใช่ 10446
ือ 10437
ทำหน้าที่ 10412
คืน 10406
ใส่ 10405
ชั่น 10403
สืบ@@ 10391
ซิงเกิล 10381
จับ 10380
พิธี 10377
ดั@@ 10370
หลังจากที่ 10345
ดำเนิน 10330
ส่ง@@ 10325
โจมตี 10325
รัส 10321
ไท 10302
ิด 10292
ตั้ง@@ 10255
อุ 10254
เป็นที่รู้จัก 10235
พลัง 10222
วิชา 10212
ดำเนินการ 10206
อิตาลี 10178
ฌ@@ 10176
้ม 10166
ลู 10130
โช@@ 10123
มุ@@ 10113
่ม@@ 10087
เสนอ 10085
มหาวิทยาลัย@@ 10081
สิทธิ์ 10068
ฟา 10060
นักร้อง 10038
ลุ@@ 10036
กี 10035
สภาพ 10034
กาย 10013
ความสัมพันธ์ 10007
ความสามารถ 9994
อู 9976
ียง 9969
เรีย@@ 9948
ร้าย 9937
พระนาง 9916
กำกับ 9911
ตลาด 9909
23@@ 9906
). 9899
รูป@@ 9899
ใบ@@ 9889
= 9885
นอ 9864
่า@@ 9850
หย@@ 9848
ึ@@ 9847
ั@@ 9844
สเปน 9841
ไอ@@ 9832
่อง 9825
รู้จัก 9820
ต่อต้าน 9818
กล่าวว่า 9803
ขยาย 9796
ถือ 9796
พ่อ 9796
การผลิต 9794
สะ@@ 9793
สำเร็จ 9792
ตลอด 9765
ีน 9762
พระราช@@ 9754
้อ@@ 9734
๋@@ 9721
สิทธิ 9716
ปฏิ@@ 9702
ดิน 9693
ตำรวจ 9685
โน@@ 9683
ิต 9677
สาย@@ 9671
ทำลาย 9667
ตก 9646
่อน 9645
สัญลักษณ์ 9643
มะ@@ 9638
ชาว@@ 9636
รัฐมนตรี 9629
รับรางวัล 9625
ปาก 9607
นี@@ 9589
อุป@@ 9588
เดิน 9577
ค่า@@ 9574
สัญญา 9571
ขนาดเล็ก 9562
อัล@@ 9562
ผสม 9554
กอง 9542
จัดการ 9526
ข้อ 9525
ปร@@ 9507
สมาชิกสภาผู้แทนราษฎร 9496
็อง 9494
การเมือง 9480
บอก 9479
ผู้นำ 9478
นคร@@ 9472
วาง@@ 9468
ธิดา 9454
จู 9451
ดุ@@ 9449
ณ์ 9433
สัปดาห์ 9433
28 9429
ตัวอย่าง 9422
ีย 9417
สหราชอาณาจักร 9416
(" 9413
โครงสร้าง 9397
กำ@@ 9389
แต่@@ 9380
ต่างกัน 9376
บุญ 9363
โปร@@ 9347
ชิ@@ 9345
แม้ว่า 9324
ด้วยกัน 9320
ระดับ@@ 9309
ปิ@@ 9296
บาง@@ 9276
แลนด์ 9276
แพทย์ 9265
ฝั่ง 9263
รายงาน 9263
พุทธ@@ 9248
หลักสูตร 9237
ื@@ 9234
ประธานาธิบดี 9228
ทศวรรษ 9215
ทำให้เกิด 9214
ได้@@ 9211
100 9199
บดี 9185
สาม@@ 9183
สต@@ 9175
ฆ@@ 9145
กระจาย 9128
กรา@@ 9128
ต่างประเทศ 9125
ทราบ 9122
สู@@ 9122
บางส่วน 9117
เชียงใหม่ 9103
เศรษฐกิจ 9095
็ก@@ 9089
คู่@@ 9085
จี@@ 9085
A 9084
สิบ 9084
ประสาท 9075
ปล่อย 9071
ฎ@@ 9056
ยึด 9055
พื้น 9034
มารดา 9032
ียว 9032
ตรี 9027
แต่งตั้ง 9022
อก@@ 9018
เย 9009
ทัพ 9002
โรงพยาบาล 8999
ทุน 8991
พัก 8982
ประสบความสำเร็จ 8981
รร@@ 8976
นักกีฬา 8974
ขณะที่ 8973
ฝ่าย@@ 8970
ดู@@ 8968
เบอร์ 8960
วัตถุ 8951
ซุ@@ 8949
เหล@@ 8947
โทษ 8947
ภาวะ 8936
ริน 8933
คุ 8929
รัชกาล 8922
หลักฐาน 8920
ราย@@ 8912
เส้นทาง 8901
โจ 8900
เป็นเวลา 8897
แหล่ง 8896
จา@@ 8895
รัง 8889
ัด 8883
วิจารณ์ 8878
เป็นครั้งแรก 8874
", 8872
ฮั@@ 8870
ชู 8867
ยอมรับ 8847
บี@@ 8841
อุตสาหกรรม 8834
ไร@@ 8820
ไว 8808
ไม่@@ 8807
เนื้อ@@ 8806
ซื้อ 8804
ผิด 8798
มป@@ 8795
พิจารณา 8791
สม 8780
อ่อน 8773
แด@@ 8772
เส้น@@ 8751
พลังงาน 8739
ทุ@@ 8737
ชุมชน 8716
สยาม 8704
องค์กร 8703
นานาชาติ 8691
ทั่วโลก 8687
บอ 8686
หนัก 8682
เพิ่มขึ้น 8680
แนว@@ 8680
ขาด 8679
เวียดนาม 8677
ที่ดิน 8662
เช่นกัน 8661
29 8655
จั@@ 8617
เจริญ 8610
ร่าง 8607
เจน 8606
เล่ม 8605
อาจารย์ 8604
ลิง 8591
สร@@ 8590
สมอง 8573
โท@@ 8572
สิ@@ 8570
แคว้น 8561
อาวุธ 8558
ร่างกาย 8554
โพ@@ 8542
สิ่ง@@ 8531
บริการ 8528
แค 8519
หว@@ 8517
ห้อง@@ 8516
ไท@@ 8512
กิจกรรม 8511
ชม 8504
เนอ 8504
จักร 8503
กว@@ 8494
สำ@@ 8487
กิจ 8478
ตัดสินใจ 8466
งค์ 8457
ไป@@ 8457
ทั้ง@@ 8455
เอฟ 8455
บรม 8452
ท้องถิ่น 8441
ภา 8433
คริสต์ศตวรรษ 8432
เสีย@@ 8432
ภาษาอังกฤษ 8431
ธง 8430
ข้าม 8428
จับ@@ 8425
ร็@@ 8425
เฉ@@ 8422
เพื่อน 8418
ศพ 8416
คาร์ 8402
แต่ง 8400
หัว@@ 8398
ต่ำ 8393
ลอ@@ 8387
ปฏิบัติการ 8374
ก. 8364
ขน@@ 8335
วิดีโอ 8330
50 8326
แอน@@ 8326
อล@@ 8325
ถือเป็น 8321
อเมริกา 8317
หัวหน้า 8314
ห่าง 8312
สำนักงาน 8308
รส 8302
บุ 8299
กะ@@ 8289
ดัง 8282
แค@@ 8279
and 8278
จอห์น 8277
ธาตุ 8275
ห้า 8272
่ว 8268
ทร 8265
แผ่น 8259
อิน@@ 8258
ียร์ 8247
พื้นฐาน 8235
ซีรีส์ 8226
การค้า 8219
ธิ 8216
โป@@ 8209
ติด@@ 8208
ปิด 8194
เรื่องราว 8192
ุ่ม 8188
เสมอ 8186
สต 8184
การ์ตูน 8179
นท 8174
ยก@@ 8171
อธิบาย 8163
ประจำ@@ 8154
นต์ 8147
ในที่สุด 8143
อาร์@@ 8142
พิมพ์ 8141
ร่วมกัน 8141
ศรี@@ 8141
คอน 8138
แถบ 8137
มอ 8132
วงการ 8126
ทีวี 8124
นู 8122
เอาชนะ 8122
อม@@ 8115
เล่า 8110
สัม@@ 8107
พร 8095
ศาล 8088
บู@@ 8087
รัฐธรรมนูญ 8085
หมายเลข 8082
ข้าง@@ 8070
ฤ@@ 8059
บัณฑิต 8056
โทร@@ 8050
ชุ@@ 8049
็น 8049
ยอดเยี่ยม 8045
พระมหากษัตริย์ 8033
ตัด 8029
ไซ@@ 8029
อบ 8027
แข@@ 8022
ลำ 8010
เครื่องบิน 8009
ึง 8007
ภู@@ 8006
ทางการเมือง 7987
ฏ@@ 7981
การทำงาน 7973
สื่อ 7971
ทฤษฎี 7967
ไม้@@ 7963
สต์ 7959
โอรส 7953
จันทร์ 7949
ิร์@@ 7942
ดาว@@ 7932
ค์ 7931
ฺ@@ 7929
ล่า 7920
สา 7915
สุริ@@ 7915
่อ@@ 7909
ชีว@@ 7908
กุล 7905
แต@@ 7901
ไฟ@@ 7901
ถือว่า 7900
ศูนย์กลาง 7897
ศตวรรษ 7894
2016 7888
สมบูรณ์ 7884
จง 7875
กรณี 7852
อี@@ 7851
การณ์ 7843
ค้นพบ 7837
ฮ์ 7836
เห็น@@ 7835
ไร่ 7834
ขณะ 7832
ฟี 7811
แนวคิด 7804
นุ 7801
ให้บริการ 7800
สมรส 7799
แฟ@@ 7796
ความเป็น@@ 7795
นโยบาย 7794
สมเด็จพระ@@ 7792
ฐ 7791
T@@ 7788
ใกล้เคียง 7787
หร@@ 7783
ลาว 7782
คู 7767
ริก 7766
เลือกตั้ง 7759
ษ 7752
บางครั้ง 7751
โกะ 7747
จุ@@ 7745
เวน 7745
สินค้า 7743
ปรับ 7741
เอ็น 7740
แดน 7740
ตลอด@@ 7735
เต็ม 7732
ใจ@@ 7724
2012 7723
ขา@@ 7723
เหล่า 7718
ช้าง 7716
ฐ@@ 7715
หวัง 7715
ระยะ 7709
in 7708
เยาวชน 7704
_ 7697
S@@ 7692
มุ 7687
ปราสาท 7686
ไกล 7682
ขา 7679
2014 7674
ทา@@ 7667
ระเบิด 7666
แอ@@ 7666
กรรมการ 7664
ทาน 7645
ถึง@@ 7642
คัพ 7639
ลึก 7637
ติก 7634
้อน 7619
P@@ 7617
การเปลี่ยนแปลง 7615
สุข 7613
พระนาม 7604
แบ 7584
ง่าย 7579
คัดเลือก 7565
31 7563
โอกาส 7562
สว@@ 7560
๊ก 7549
ำ@@ 7535
ต่อเนื่อง 7532
2010 7528
วัย 7525
2018 7523
สัมพันธ์ 7521
มีชื่อ 7520
หาย 7511
อุปกรณ์ 7509
กิจการ 7503
พอ@@ 7495
ิล 7483
สถิติ 7450
เสร็จ 7445
แย@@ 7443
คม 7442
สง@@ 7442
ฆ่า 7438
เนื้อ 7438
เถ@@ 7435
2554 7424
ติดต่อ 7419
ที่มา 7417
ชั@@ 7412
อนุญาต 7412
ซาน 7408
ชก 7405
รวม@@ 7405
จน@@ 7402
เทศ 7396
เกาหลี 7382
ความนิยม 7371
ซัน 7364
รี่ 7360
ใคร 7353
ออสเตรเลีย 7346
ตร 7345
อัน@@ 7345
แผน 7342
คว@@ 7332
ที่เกิด 7325
าย 7324
2020 7320
าน@@ 7319
นำมา 7317
ลู@@ 7302
พุ@@ 7296
ทิ้ง 7294
ลม 7287
2550 7284
กำเนิด 7258
ปี@@ 7254
แข่ง 7251
็ด 7249
ภาค@@ 7226
เผยแพร่ 7224
บริหาร 7221
ที่ตั้ง 7213
เขียว 7203
สัญญาณ 7200
ราชอาณาจักร 7185
อำ@@ 7184
เรียง 7179
แน@@ 7172
วอ 7169
ร้อยละ 7166
ต่อสู้ 7158
นาย@@ 7156
บอล 7148
ชิ้น 7142
เจ้าพระยา 7138
หมด 7135
ควร 7133
ทั่ว 7128
ส์@@ 7106
บังคับ 7102
็ง 7102
ูล 7096
เดี่ยว 7093
เรือ@@ 7088
เบ 7082
ประพันธ์ 7073
ตั้งขึ้น 7062
40 7056
G@@ 7055
ทางหลวง 7055
ทูต 7053
สปีชีส์ 7040
ทรง@@ 7035
สรร@@ 7033
โตะ 7033
อัตรา 7024
ยศ 7021
ยาก 7016
บทบาท 7009
เคมี 7008
เนื้อหา 7008
บาล 7001
เป็นสมาชิก 6999
การนำ 6978
การรักษา 6970
M@@ 6963
[[ 6962
ประ 6961
ประชาธิปไตย 6961
กระบวนการ 6960
ตัดสิน 6954
ปืน 6948
พระราชวัง 6937
อิทธิพล 6927
ต. 6926
เกาหลีใต้ 6919
งค@@ 6911
มาตรฐาน 6907
เน้น 6907
ตีพิมพ์ 6905
ดะ 6904
นั่น 6904
หนอง 6899
เช่นเดียวกับ 6898
ม้า 6895
กซ์ 6894
็อก 6886
ไหล 6880
สังหาร 6878
โพ 6877
โรค@@ 6871
ชาวไทย 6864
แข็ง 6862
้อ 6836
กองกำลัง 6835
หยุด 6835
สะพาน 6820
เผ@@ 6819
ลับ 6814
ศัพท์ 6814
กล่าวถึง 6812
ทหาร@@ 6812
ผ้า 6811
เงิน@@ 6811
2557 6810
แว@@ 6810
คอมพิวเตอร์ 6798
ครอง 6796
ทั้งสิ้น 6795
ออฟ 6794
โป 6794
ไฮ 6792
บ้าน@@ 6789
ด้วย@@ 6787
กระทรวง 6786
เลีย 6786
ตอน@@ 6784
ก่อนที่จะ 6782
ถวาย 6776
ไข่ 6775
)@@ 6770
คัน 6757
เบล 6756
2553 6755
มงคล 6755
เท่า@@ 6755
โรมัน 6745
โรง@@ 6744
ศา@@ 6738
้อย 6738
2015 6732
แขวง 6730
เมน 6729
แอน 6724
ผู้หญิง 6719
หนี 6713
a 6709
ัง@@ 6708
สั่ง 6700
น่า 6696
กัมพูชา 6689
ตำนาน 6687
บัว 6686
ไม@@ 6686
ลุ 6679
เปล@@ 6665
ซอ 6662
หัวใจ 6661
สัตว์@@ 6658
เกือบ 6656
มาน 6647
สถาปัตยกรรม 6644
รับบท 6631
การต่อสู้ 6625
ทรัพย์ 6621
ดิน@@ 6614
ทอ 6612
พระบรม@@ 6612
มหาสมุทร 6606
พันธ@@ 6605
ตู 6590
วด 6590
สเตอร์ 6590
ระยะเวลา 6589
]] 6582
รัน 6581
การสอน 6580
เหรียญ 6577
พี@@ 6567
อร@@ 6556
เจดีย์ 6555
พฤ@@ 6553
เด่น 6552
เลน 6548
่าง 6546
จำ 6545
มวย 6544
นอกจาก 6539
ก์ 6531
เชิง@@ 6528
นิตยสาร 6521
ลี่ 6520
ช่วงเวลา 6516
ราคา 6515
2017 6514
2561 6513
2551 6512
จิต 6493
แรง@@ 6488
รุนแรง 6484
ียร 6482
วิธีการ 6467
! 6465
มาถึง 6463
กรณ์ 6462
ช่วยเหลือ 6462
เทียบ 6459
ฟ์ 6457
รายได้ 6453
ประชุม 6451
2555 6444
นิว@@ 6443
ถือ@@ 6438
นส์ 6432
2549 6427
เหตุผล 6426
ยุ 6425
ข้า@@ 6423
ฉาก 6422
ล่าง 6421
นักศึกษา 6420
เวที 6419
โนะ 6417
เพศ 6416
แต่งงาน 6416
ขุน 6413
เติบโต 6413
บ้าง 6405
เทพ@@ 6405
โต@@ 6403
มอน 6400
ในขณะนั้น 6399
แก 6393
อธิ@@ 6392
โดยทั่วไป 6388
เดิน@@ 6386
2559 6383
หน่วยงาน 6379
้อง 6378
แป@@ 6376
2562 6374
ยอม 6374
ผู้ป่วย 6371
กรรม@@ 6364
อ. 6360
คอย 6359
ย์@@ 6354
คริสต์ 6353
ฺ 6344
คำสั่ง 6336
คุ@@ 6326
ออ@@ 6321
ิด@@ 6321
ดร. 6317
วาย 6317
2008 6312
สด 6305
เพชร 6300
ปฏิบัติ 6295
ระยะ@@ 6293
เกมส์ 6293
น้ำหนัก 6290
สถาปนา 6289
หมาย@@ 6282
ิล@@ 6280
เสียง@@ 6280
ลี@@ 6279
อิสระ 6277
็ค 6276
ส่วนตัว 6270
นิกาย 6265
่าน 6255
ค้า 6251
เหล็ก 6245
สาเหตุ 6244
ศาล@@ 6240
ประสงค์ 6233
สตรี 6229
(, 6228
2013 6223
บุก 6223
เห 6222
เท่า 6211
C@@ 6209
อะไร 6209
คง@@ 6208
ท่า@@ 6204
มัน@@ 6197
เมืองหลวง 6189
วอลเลย์บอล 6185
formula 6184
ทั้งนี้ 6184
ขน 6182
ผม 6175
รอย 6160
ือ@@ 6160
เคน 6154
ซ้าย 6151
ตรง@@ 6151
พิษ 6150
บัตร 6146
่าย 6140
มอบ 6138
อุโบสถ 6133
อุณหภูมิ 6131
C 6129
รหัส 6128
ไข@@ 6125
ฟิ@@ 6118
ร์ก 6116
แนะนำ 6115
2560 6110
พรรษา 6104
สำนัก 6104
เอก@@ 6100
นอน 6089
ความคิด 6079
หาง 6079
รัง@@ 6074
ฤทธิ์ 6074
ไชย 6069
คิ 6068
ดาร 6066
รม 6066
รถไฟ 6048
รวดเร็ว 6047
เชื่อม 6042
แฟน 6038
รู@@ 6036
D@@ 6027
ขึ้นไป 6025
ฝึก 6024
ตี@@ 6021
 @@ 6013
ธานี 6013
ชัดเจน 6009
ปฏิบัติ@@ 6006
แสน 6005
งาม 5992
สนใจ 5991
โดยที่ 5991
อว@@ 5986
ร้อย 5985
งะ 5983
แม่@@ 5977
ัน 5974
B 5972
00 5971
กำลัง@@ 5969
B@@ 5964
้ว@@ 5963
มีส่วน 5962
ดอน 5956
ปริมาณ 5950
มหาราช 5950
ฝึก@@ 5948
2019 5945
ราบ 5945
เกล@@ 5944
ไวรัส 5943
สากล 5942
แอฟริกา 5942
ซูเปอร์ 5941
ท่าอากาศยาน 5941
สถานะ 5936
2011 5933
เชิญ 5932
เปอร์ 5932
ส่งผล 5931
เย็น 5928
บรรดา 5926
ตรวจ 5925
ไต 5924
เดอร์ 5923
2552 5919
เรือน 5919
เมีย 5918
นว@@ 5913
เว 5911
ที่สาม 5904
ณา@@ 5903
ชิงแชมป์ 5899
ไบ@@ 5889
เจ้าหน้าที่ 5877
ทั้งคู่ 5876
ึง@@ 5873
กาล 5866
พันธ์ 5862
รู้สึก 5857
ื่น 5857
ื้อ@@ 5850
มุม 5842
ปลูก 5837
สิ้นพระชนม์ 5835
แล 5835
รัชสมัย 5830
คนใน 5829
การเรียน 5828
สุขภาพ 5825
สมา@@ 5822
เจอ 5822
เจ้าฟ้า 5817
แผ@@ 5806
ลอนดอน 5804
แกน 5802
หนัง 5800
ครึ่ง 5798
ทุ่ง 5789
ระหว่างประเทศ 5784
พระราชินี 5771
เหรียญ@@ 5769
มัธยมศึกษา 5768
เพิ่มเติม 5768
ฝน 5766
ี่@@ 5766
ิก 5764
ปฏิเสธ 5761
พระพุทธรูป 5757
ได้รับ@@ 5755
ลัย 5752
ห้าม 5751
อต 5750
เด็ก@@ 5750
กระดูก 5745
หอ 5745
้ง@@ 5743
สึ 5742
บู 5740
เชื้อสาย 5740
มือ@@ 5739
รัฐสภา 5737
งวง 5731
ช่อง@@ 5728
บิ@@ 5728
สัน@@ 5726
2558 5725
มู 5724
โปรแกรม 5722
ร. 5721
่าง@@ 5721
กลาย 5719
ขวา 5716
ความเร็ว 5714
ยิ่ง 5714
ส่งเสริม 5713
ฟัง 5704
รอง@@ 5697
บาร์ 5694
ทุกคน 5693
หรือไม่ 5690
การบริหาร 5688
N@@ 5685
ตี้ 5684
สมัคร 5684
2556 5682
โปรดเกล้าฯ 5681
ประชา@@ 5680
บวร 5672
ลดลง 5671
ัย 5657
ชาร์ต 5655
วร@@ 5655
เนื่อง@@ 5655
ลัทธิ 5654
60 5640
ระบบ@@ 5639
แยก@@ 5638
ภิ@@ 5633
ลำตัว 5629
ทวีป@@ 5628
พี่น้อง 5627
ชิน 5624
เง@@ 5622
เทคนิค 5615
เบีย 5613
ทราย 5611
ยูไนเต็ด 5608
ย่อ 5607
เฉลี่ย 5606
ไน 5604
พายุ@@ 5597
เชอ 5596
นำ@@ 5595
ขึ้น@@ 5592
ภั@@ 5589
อวกาศ 5589
รักษา@@ 5585
เปลี่ยนแปลง 5583
สวรรค์ 5580
เกร@@ 5575
สำนักงาน@@ 5574
แร@@ 5568
ทะเบียน 5563
การประ@@ 5552
เร็ว 5552
อาทิตย์ 5550
ครอง@@ 5549
ขุนนาง 5542
นาที 5541
ประสูติ 5541
ชั่วโมง 5536
พุทธศักราช 5532
ศิ 5525
ูด 5518
สิ้นสุด 5517
แบ่ง@@ 5517
เอช 5516
กลาง@@ 5513
ม์ 5506
มูล 5504
ฤดูหนาว 5503
พรรค@@ 5500
เป้าหมาย 5500
โฟ@@ 5499
๋ 5493
นทร์ 5492
จุ 5485
เหลี่ยม 5485
ซะ 5484
ตอบ 5482
โย@@ 5482
ลล์ 5480
กล 5478
พระราชโอรส 5477
น้ำมัน 5471
น้อยกว่า 5468
ประทับ 5467
หลัก@@ 5466
ยิ@@ 5462
เวล 5459
ราชา@@ 5458
ผลกระทบ 5455
สถาน@@ 5455
F@@ 5452
2009 5448
เหมาะสม 5438
ไพ@@ 5431
ท้าย 5421
้าว 5418
ฟิลิปปินส์ 5417
ชัด 5415
ลาน 5415
ป่า@@ 5414
หัน@@ 5413
อ่าน 5413
เขตการปกครอง 5403
ร้องเพลง 5401
โรงเรียน@@ 5401
เซน 5399
มุ่ง@@ 5393
ร้อน 5390
ก่อ@@ 5388
พ่อ@@ 5386
นอก@@ 5385
หอ@@ 5384
ึก@@ 5383
คลื่น 5382
แชมป์โลก 5380
กัด 5376
ฟรี 5375
เท้า 5373
อินโดนีเซีย 5371
พระราชบัญญัติ 5369
มีอายุ 5368
n 5366
เกล้า 5360
แปล@@ 5360
บิล 5355
2563 5351
สิต 5350
รับผิดชอบ 5347
เวท 5347
โดยตรง 5347
W@@ 5342
ฟู 5342
ร์ค 5335
เขต@@ 5335
ดั้งเดิม 5331
วัคซีน 5331
ให้การ 5330
เซนติเมตร 5326
เชีย 5325
ฟัน 5323
มีบทบาท 5320
กี@@ 5319
บาดเจ็บ 5316
เท่ากับ 5316
ภูเขา 5314
มีผล 5304
ดวง 5300
โช 5299
เหน@@ 5294
R@@ 5293
ทู 5291
หก 5291
A@@ 5282
เอน@@ 5282
พัน@@ 5280
ภรรยา 5276
์" 5276
แช 5274
แก้ 5273
2007 5270
เล็กน้อย 5270
ฮี 5264
คี@@ 5263
ความเชื่อ 5261
รูปร่าง 5260
ประดับ 5258
้อน@@ 5256
2@@ 5254
ละคร@@ 5254
ื้อ 5253
นด์ 5251
80 5250
ความหมาย 5250
เดีย 5249
ชี@@ 5248
สิริ 5248
นอกจากนั้น 5246
ปีก่อน 5244
ลาย@@ 5238
O@@ 5235
ตามลำดับ 5234
y 5233
ตรวจสอบ 5232
ศ. 5231
หั@@ 5229
ธุ@@ 5228
กระแส 5226
ื่อ 5224
คง 5218
ลักษณ์ 5218
อพยพ 5218
เพียง@@ 5218
ความรู้ 5217
L@@ 5216
กรุ@@ 5215
ปรากฏตัว 5215
ียม 5215
E 5203
การประชุม 5201
ชาวบ้าน 5198
กระทรวง@@ 5197
สิ 5191
ลิน 5189
x 5181
โว 5177
สิน@@ 5174
br 5172
ใช้งาน 5170
แจ้ง 5168
2006 5167
ครั@@ 5161
ถิ่น 5161
เบิล 5161
คอนเสิร์ต 5156
หมาย 5154
แทนที่ 5154
นักบุญ 5151
กบฏ 5149
รก 5141
ยอ 5140
รับรอง 5140
เสริม 5140
on 5139
เกียรติ 5139
สีแดง 5134
พระบาทสมเด็จพระ@@ 5132
ออน 5130
เสนา@@ 5130
สูตร 5126
ธรรม@@ 5125
เดนมาร์ก 5124
ใช้เวลา 5122
รวบรวม 5118
แอล 5114
ตอนที่ 5108
มน@@ 5102
สตาร์ 5102
ถ่าย 5100
สรุป 5100
ทับ@@ 5099
่วง 5092
H@@ 5089
นัย 5087
หู 5087
เหตุ@@ 5086
มาเลเซีย 5083
หมู่เกาะ 5083
ทดสอบ 5079
เฉพาะ@@ 5079
จอม 5078
)" 5077
นซ์ 5069
ยืนยัน 5067
แคนาดา 5061
้าง@@ 5061
ปู 5060
มู@@ 5058
จ้าง 5057
องค์การ 5056
อยุธยา 5055
ชนะเลิศ 5054
ซู@@ 5054
็อน 5051
ออสเตรีย 5050
คอน@@ 5048
ซาร์ 5045
แตกต่าง 5040
ครองราชย์ 5039
อะ@@ 5039
หนุ่ม 5037
มิส 5032
โคล@@ 5031
ขวัญ 5027
กรีก 5025
2548 5024
ปริญญาตรี 5024
พฤติกรรม 5020
ขอ@@ 5019
อันเป็น 5012
ฮ่องกง 5011
ยืน 5008
นาค 5007
K@@ 5006
คู@@ 5006
ขับ 5005
ือก 5005
เซีย 5003
หุ@@ 4999
โปรตุเกส 4999
เรียก@@ 4997
เลียน 4995
ทิศ 4993
สำเร็จการศึกษา 4992
ตกลง 4988
ธ์ 4988
พงษ์ 4988
ปก@@ 4986
ร็อก 4986
่อง@@ 4986
นับถือ 4984
โน้@@ 4983
ภพ 4977
มีโอกาส 4972
ราก@@ 4972
สุด@@ 4972
สเต@@ 4969
พันธมิตร 4968
นักฟุตบอล 4965
ก่อนที่ 4962
ทัน@@ 4962
แบบ@@ 4962
สะ 4959
การเขียน 4955
ผู้คน 4954
มิวสิก 4940
อาณาเขต 4928
จิน 4922
แซ 4921
แร 4921
ราชา 4920
ครอบคลุม 4918
วาด 4918
วิทยา@@ 4918
ยกเลิก 4917
ฉลอง 4914
เป 4913
E@@ 4911
โรง 4907
รณ@@ 4905
โบสถ์ 4903
ยั@@ 4900
้อม 4900
เทีย@@ 4890
i 4889
ร่วม@@ 4889
ชีพ 4888
จอ 4887
S 4886
ผลิตภัณฑ์ 4885
ูน 4881
เนเธอร์แลนด์ 4880
ชำ@@ 4873
พระองค์เจ้า 4873
ผู้อ@@ 4871
ศัก@@ 4867
สืบ 4867
ประกาศ@@ 4866
เปีย 4863
แก้@@ 4863
ถ่าย@@ 4857
บร@@ 4856
เครือข่าย 4855
ฆ 4853
บรรจุ 4844
ที่สูง 4843
ตั้งชื่อ 4842
อาทิ 4841
อ้างอิง 4841
สติ 4840
กลับ@@ 4839
รอน 4838
ศิ@@ 4838
ดำ@@ 4837
us 4836
มายัง 4836
การประกวด 4834
ศาสตราจารย์ 4834
แก้ไข 4831
โตเกียว 4826
ธร 4825
คอมมิวนิสต์ 4823
มิได้ 4816
บาย 4814
ภารกิจ 4814
โบราณ@@ 4813
ประจำปี 4812
สาธารณะ 4811
เตรียม 4810
พุทธ 4807
อียิปต์ 4806
หลากหลาย 4805
เซนต์ 4799
ทันที 4796
ได@@ 4790
ลาก 4789
ท้อง@@ 4785
ความรู้สึก 4782
ประเพณี 4780
รถยนต์ 4780
สนาม@@ 4780
ลงมา 4776
ก่อนหน้า 4773
วิชาการ 4772
ท้อง 4770
ติดกับ 4767
ผู้จัดการ 4766
นำไปสู่ 4764
ปาก@@ 4763
มวล 4763
พัก@@ 4757
ซึ@@ 4756
วก 4753
จิต@@ 4745
นนท์ 4745
อยาก 4742
จำลอง 4740
สนธิสัญญา 4738
ตามที่ 4732
จำเป็น 4729
ตัด@@ 4729
มติ 4726
้ว 4726
รัฐ@@ 4723
อารมณ์ 4721
ยาง 4714
เว็บไซต์ 4712
ทางการ 4709
ไค 4707
สู้ 4705
เผ่า 4705
ลส์ 4704
ดัดแปลง 4702
ขยาย@@ 4700
วิ่ง 4699
จด@@ 4698
วิทยุ 4696
ินี 4688
ปรับ@@ 4687
ศิลป์ 4686
ฏ 4682
เหมือนกับ 4681
กลัว 4670
ตาราง 4668
ละครโทรทัศน์ 4667
รัตน์ 4663
จักร@@ 4660
กรี@@ 4656
ชัน@@ 4654
เธ@@ 4651
วาร 4647
ปรัชญา 4643
จู@@ 4640
สิ่งมีชีวิต 4639
่ำ@@ 4639
สาขาวิชา 4638
ปลา@@ 4633
วิเคราะห์ 4631
เลี้ยง@@ 4622
แฮ 4619
ฟอ 4616
ค่อนข้าง 4609
ต์@@ 4609
โปแลนด์ 4609
ท่องเที่ยว 4607
ขี@@ 4606
ฉัน 4606
ชิงชนะเลิศ 4605
เข้ากับ 4605
แถ@@ 4605
ความแตกต่าง 4604
มอง 4602
ที่นั่ง 4601
สถานีโทรทัศน์ 4601
I 4600
เดน 4600
ศิลป@@ 4599
ภ 4597
2564 4596
้าน@@ 4595
ภาษาไทย 4594
คิ@@ 4593
ไฮ@@ 4591
มีอำนาจ 4589
อยู่@@ 4589
บทความ 4585
ญา@@ 4584
ท้าว 4583
รวมกัน 4582
เสือ 4581
แกรนด์ 4578
อภิ@@ 4577
โชว์ 4577
ประดิษฐาน 4575
มะเร็ง 4574
กลม 4568
บวก 4565
ไล 4561
สหภาพโซเวียต 4560
การควบคุม 4556
บังคับ@@ 4555
พยา@@ 4555
เปิด@@ 4554
๒@@ 4553
แฮ@@ 4550
ขึ้นอยู่กับ 4549
พิพิธภัณฑ์ 4548
90 4547
นั่ง 4547
นิว 4547
ลบ 4544
ยกเว้น 4540
ไว@@ 4539
ฐาน@@ 4535
แค่ 4535
สถานการณ์ 4530
... 4527
ช่วย@@ 4527
สิ้น 4526
ือก@@ 4526
บราซิล 4523
บัน 4523
จ่าย 4522
ศักดิ์สิทธิ์ 4522
ไน@@ 4520
พิ 4519
บัง@@ 4516
ศัตรู 4516
ต้า 4513
เอ็น@@ 4512
ดาบ 4511
ทะ@@ 4510
ืน 4510
ข้าว@@ 4509
เนื้อที่ 4507
ก็ตาม 4504
ความเสียหาย 4504
ทัศน์ 4504
ฟา@@ 4502
ุน 4501
โร่ 4500
เนื้อเรื่อง 4499
ผิว 4498
เจ้าอาวาส 4496
หลายครั้ง 4492
8@@ 4490
สวยงาม 4490
เฟอร์ 4490
คุณสมบัติ 4488
ี่ยว 4481
ยุติ 4478
บันเทิง 4475
ตติ@@ 4474
ประเทศ@@ 4474
สตูดิโอ 4472
สวน@@ 4472
ช้า 4469
หนังสือพิมพ์ 4469
ฮา@@ 4468
ยน 4464
หิ@@ 4464
คาม 4463
ประการ 4460
หมุน 4460
รู้@@ 4459
เคา 4454
มีความ@@ 4452
คอ@@ 4450
บรม@@ 4448
หลวงพ่อ 4443
พรีเมียร์ 4441
แสดง@@ 4441
ปรับปรุง 4440
ียน@@ 4440
บรา 4439
ยุทธการ 4439
รอย@@ 4434
เลื่อน 4432
ตุ 4429
ปะ@@ 4428
แท้จริง 4427
บอ@@ 4425
ขั้น 4423
วิจัย 4422
ั้น@@ 4421
กต์ 4417
กี่ 4417
แอร์ 4417
ชาย@@ 4415
เบิร์ก 4414
องค์ประกอบ 4413
ภู 4410
ราน 4407
เอกสาร 4407
to 4406
ต้นไม้ 4404
เอ็@@ 4403
สวีเดน 4401
หลุยส์ 4398
เพื่อน@@ 4398
นัน 4397
65 4396
กด@@ 4395
ึ่ง 4394
อย่าง@@ 4393
คอม 4392
คอร์ 4391
นิ้ว 4391
กฎ 4388
ติดตาม 4388
น้อง 4388
เทศบาลตำบล 4388
เศษ 4387
ผู้อำนวยการ 4386
เจ้าเมือง 4385
ชาติ@@ 4382
ปฏิกิริยา 4382
เปิดเผย 4381
ลัน 4378
ติดเชื้อ 4373
P 4369
การทดลอง 4368
แคล@@ 4360
2547 4358
กิ่ง 4358
ซุน 4358
เป็นผล 4358
หง@@ 4357
ที่หนึ่ง 4354
คาด 4351
+ 4349
นักเขียน 4348
มิตร 4347
สิงห์ 4346
เทียน 4346
ถ 4342
องค@@ 4342
อ้าง 4342
คาร์@@ 4341
ธิการ 4341
T 4339
ร้าน 4338
ตำ@@ 4337
บัติ 4333
ราง 4329
เคลื่อน 4328
ความสนใจ 4322
เป็นตัวแทน 4321
สิ่งแวดล้อม 4319
เชื่อมต่อ 4319
มาร@@ 4318
ทำได้ 4314
เจ้าของ 4313
อริ 4308
ฟื้นฟู 4305
เกณฑ์ 4300
ความสูง 4298
ระยะทาง 4297
งานวิจัย 4296
ปิด@@ 4294
ียส 4292
ฒ@@ 4290
รด 4290
มพ@@ 4289
รังสี 4288
รถไฟฟ้า 4286
จุฬาลงกรณ์ 4285
ความรัก 4284
โฆษณา 4279
วย 4278
วาด@@ 4278
ร่วมใน 4276
เครื่องยนต์ 4274
กำหนดให้ 4273
เอา@@ 4271
กรอบ 4270
35 4267
แหล่ง@@ 4267
สภาพ@@ 4266
มอ@@ 4264
อิสลาม 4260
เสา 4260
ศาส@@ 4258
ยูฟ่า 4257
ราชินีนาถ 4256
นับ@@ 4255
เยื่อ 4252
200 4251
นม 4250
ภายนอก 4250
อาหรับ 4249
al 4246
ตัวอย่างเช่น 4241
มาตรา 4239
ไม 4239
ยอด@@ 4236
คติ 4233
ึก 4233
ยง 4232
นับตั้งแต่ 4230
เจริญ@@ 4230
ปุ@@ 4229
มิติ 4227
ทธ@@ 4223
ใส 4223
แหลม 4222
สเป@@ 4218
แห@@ 4216
เทว@@ 4215
หลวง@@ 4214
มัง 4212
ตรวจ@@ 4208
มั่น 4208
V@@ 4207
แปลง 4206
ชายฝั่ง 4202
น้อย@@ 4198
2000 4197
ตารางกิโลเมตร 4195
กัส 4192
ทิ 4190
เหลือง 4187
อป 4184
70 4182
สิงคโปร์ 4181
อิง 4178
ริม 4175
F 4174
เคลื่อนที่ 4173
หมื่น 4172
ปารีส 4171
M 4170
กษ@@ 4170
คาด@@ 4168
ยกย่อง 4168
สนิท 4167
เขมร 4167
็ม 4165
กรุงเทพ 4163
พายุ 4163
D 4162
ดับ 4162
สระ 4159
เวิลด์ 4158
่อย@@ 4158
้อง@@ 4154
้วน 4152
เป็นที่ตั้ง 4151
ปีก 4150
ข้าว 4149
เจ็ด 4149
บัน@@ 4147
ผู้ใช้ 4146
ษา 4146
เทศบาล 4145
พูด@@ 4142
อันตราย 4142
เบน 4139
10@@ 4134
คี 4131
แอนด์ 4129
ดยุก 4124
รัก@@ 4124
มีค่า 4119
สไต@@ 4118
ความขัดแย้ง 4117
ชัยชนะ 4117
ฟอร์ด 4115
องศา 4114
อร์ด 4114
2004 4112
ล้อม 4110
สูญเสีย 4110
ยาน@@ 4109
เรียนรู้ 4108
มห@@ 4107
วางแผน 4107
ตะวันออกเฉียงเหนือ 4105
รักษ์ 4102
ทัน 4100
สร้าง@@ 4099
ชะ@@ 4094
9@@ 4088
พื้น@@ 4087
ฝัน 4086
ที่ว่า 4084
พลเอก 4084
มนตรี 4080
เป็นเรื่อง 4079
าม 4077
คณิตศาสตร์ 4075
ถูก@@ 4075
เฉลิม@@ 4075
ได้มา 4074
ขบวน 4072
ฮังการี 4072
โดดเด่น 4071
ยุค@@ 4070
เป็นตัว 4069
พระพุทธ 4068
เข้าใจ 4067
2021 4065
สมบัติ 4065
นิวยอร์ก 4064
ปัญญา 4064
พบ@@ 4064
2005 4063
ตลอดจน 4062
ล์@@ 4062
โฮ@@ 4062
เสาร์ 4059
ต้อง@@ 4057
ซี่ 4056
การปฏิวัติ 4053
อ่อน@@ 4053
ชวน 4050
ต่าง@@ 4048
โซเวียต 4048
วาน 4046
เหย@@ 4045
บุตรชาย 4044
บว@@ 4041
ข้อความ 4040
รายละเอียด 4040
แพ 4040
ความร้อน 4039
โข@@ 4038
กรุณา 4036
บริหาร@@ 4035
ราชสำนัก 4034
ใ@@ 4034
มง 4033
แปซิฟิก 4033
คนอื่น 4027
ขับ@@ 4026
โห@@ 4025
ผนัง 4024
เอกชน 4023
ช์ 4021
J@@ 4020
สาน 4020
รงค์ 4016
สมัยใหม่ 4016
สงครามโลกครั้งที่สอง 4015
ing 4013
นครราชสีมา 4012
รับราชการ 4011
32 4007
บุตร@@ 4007
ตอนเหนือ 4006
ระเบ@@ 4006
รุกราน 4006
วงดนตรี 4004
กล่าว@@ 4003
กระตุ้น 4001
ทองคำ 3998
วรรณกรรม 3994
เบิร์ต 3990
เติ@@ 3986
สว่าง 3984
ฮัน 3983
ประดิษฐ์ 3981
สป@@ 3979
ยึดครอง 3978
บูชา 3977
เช่นนี้ 3973
ล้าง 3971
กล้ามเนื้อ 3966
โดน 3966
ขอบ 3965
ร์ด 3965
เพลง@@ 3965
กรด 3963
จัดอันดับ 3961
ฆา@@ 3960
รอด 3960
เอกราช 3960
7@@ 3959
ว่าด้วย 3957
วัฒน 3956
N 3953
วิญญาณ 3953
เชื้อ@@ 3953
ราชบัลลังก์ 3952
ช่าง 3949
สายพันธุ์ 3949
เรียกร้อง 3949
เวียน 3948
ไร้ 3948
ดารา 3947
มีความหมาย 3947
ฮ 3946
เต้น 3946
ปั้น 3943
นิยาม 3935
ดอลลาร์สหรัฐ 3934
ทะเลสาบ 3934
H 3932
ผสม@@ 3931
ลงทุน 3931
คนเดียว 3930
อาณานิคม 3930
สถานีรถไฟ 3920
สัมผัส 3920
45 3919
คุณภาพ 3919
มรดก 3919
ว่า@@ 3918
O 3917
ือน@@ 3914
เหม@@ 3913
แรงงาน 3913
กลุ่ม@@ 3911
ที่ปรึกษา 3911
บัญชา 3909
ช่วง@@ 3906
มัส 3906
คณะสงฆ์ 3904
ชุมนุม 3904
จัน 3898
เทศกาล 3896
การเงิน 3894
ในสังกัด 3891
ซิง 3890
กี้ 3889
ประกอบ@@ 3889
ผลการแข่งขัน 3884
มิน@@ 3884
เทา 3884
งบประมาณ 3883
รองรับ 3883
ผู้ชนะ 3882
ชื่อ@@ 3881
ในนาม 3881
เจมส์ 3880
เซียน 3880
ขุ@@ 3878
นำแสดง 3878
เช 3878
เรื่อย 3878
แช@@ 3878
สั่ง@@ 3877
ครบ 3875
ความจริง 3873
เก็บ@@ 3873
นัน@@ 3868
กาใต้ 3867
กด 3865
เข้ม@@ 3863
การทหาร 3862
บล@@ 3861
หลุ@@ 3860
อย่างหนึ่ง 3860
กำแพง 3858
เสื้อ 3858
ซอน 3857
ย่าน 3856
เมนต์ 3856
ถึงแก@@ 3853
สันนิษฐาน 3853
พระราชพิธี 3850
ไหล@@ 3848
[ 3847
ภาคใต้ 3845
แพร่@@ 3843
สิง@@ 3842
เหล่านั้น 3842
คำนวณ 3838
เอ็ด 3837
ยิว 3836
สหภาพ 3830
ผู้โดยสาร 3829
บะ 3828
สน 3828
ลอง 3827
ื่อ@@ 3827
ให้ได้ 3827
ระบาด 3824
2546 3823
ลอย 3823
แอล@@ 3823
พระที่นั่ง 3822
วัสดุ 3822
โจว 3822
ทู@@ 3821
สนามกีฬา 3819
สะดวก 3818
ถัดมา 3809
นายก 3809
ด็@@ 3808
รองชนะเลิศ 3807
เลข 3807
สงบ 3803
ซ้อน 3796
บวช 3796
ยาวนาน 3793
คัด@@ 3792
ชื่น@@ 3792
คว้า 3790
กระทั่ง 3788
e@@ 3787
ความปลอดภัย 3787
ที่วัด 3787
พ่ายแพ้ 3782
นัส 3781
ปฐม 3781
กว้างขวาง 3778
นำเสนอ 3778
สุวรรณ 3777
โปรด 3777
รวมไปถึง 3776
วินิจฉัย 3773
ศุ@@ 3772
พนม 3771
สะสม 3770
คะ 3769
หาร 3768
กำจัด 3767
ทำประตู 3767
ถ่ายทำ 3762
อัส 3761
กฎ@@ 3758
เก่าแก่ 3758
t 3756
กรุง@@ 3756
2544 3754
ธนาคาร 3754
ข์ 3752
ตรี@@ 3752
มังกร 3752
X 3750
ข 3750
การคัดเลือก 3749
ยุทธ@@ 3749
เวีย 3744
ตอบสนอง 3743
กลิ่น 3742
ริม@@ 3740
โส@@ 3740
2542 3739
ค้นหา 3738
สกี 3737
ร่วมงาน 3735
แล้ว@@ 3735
โลหะ 3734
โอน 3734
กุน 3732
็ด@@ 3730
สมุทร@@ 3728
] 3726
จิตร 3724
ราก 3723
สอบ 3723
แต่ง@@ 3722
์ค 3721
ยุบ 3717
แทน@@ 3716
ใต้ดิน 3716
ถา 3714
วิลเลียม 3710
ธนบุรี 3708
เฟ 3707
กวน 3704
พรหม 3704
เคร@@ 3704
ความต้องการ 3703
| 3702
งู 3702
มเหสี 3701
โคร@@ 3701
2539 3699
ดวง@@ 3699
อ้างว่า 3698
สหพันธ์ 3697
ความช่วยเหลือ 3696
ยักษ์ 3695
ขัด@@ 3694
คลุม 3694
ดาวเคราะห์ 3693
เพลิง 3693
พ้น 3692
ฝา@@ 3691
จอร์จ 3689
75 3688
ชั่วคราว 3686
ลาด 3682
เนิ@@ 3680
วดี 3679
ชื่อเล่น 3678
รัตน 3675
เป็นอย่างมาก 3674
มป์ 3672
ผู้ชม 3670
ขวาง 3669
้าง 3668
ค้น 3666
เกินไป 3666
การป้องกัน 3664
จิน@@ 3662
บาน 3661
ซ้ำ 3658
ถ้ำ 3657
มวยปล้ำ 3657
เตอร์@@ 3656
เกีย 3654
บก 3652
เกษ@@ 3652
ที่ผ่านมา 3651
กาย@@ 3650
คัมภีร์ 3650
ส่วนมาก 3650
พื้นเมือง 3649
โค้ง 3649
สามัญ 3647
เบร@@ 3644
บรรยาย 3643
มหาชน 3643
หวาน 3643
ราชสมบัติ 3642
L 3641
พระบาทสมเด็จพระจุลจอมเกล้าเจ้าอยู่หัว 3640
an 3639
สืบทอด 3639
มาส 3638
เม็กซิโก 3637
เอ็ม@@ 3636
เขตร้อน 3635
เปรียบเทียบ 3635
เก็ต 3633
พจน์ 3630
ไต้หวัน 3629
ประสบการณ์ 3627
พรรคการเมือง 3627
หนู 3627
โบ@@ 3626
มุข 3624
ับ@@ 3624
ความสำคัญ 3623
เอาไว้ 3623
บ. 3621
ตส์ 3619
โซน 3615
บรมวงศ์ 3614
สหประชาชาติ 3614
สอบ@@ 3614
เข้าถึง 3614
พอใจ 3612
โครง@@ 3610
2540 3609
ธา 3607
c 3605
ครีบ 3605
พารา 3605
ภักดี 3605
ภาย 3605
หม่อม 3602
้ำ 3601
สำนัก@@ 3600
่าย@@ 3596
ตาราง@@ 3595
ผู้ใหญ่ 3593
ปู่ 3592
ศาลา 3592
ผู้ว่า@@ 3591
ยิ่งใหญ่ 3591
2535 3590
หลาน 3588
เลือด@@ 3587
บอน 3585
โปร 3584
500 3582
บัญญัติ 3582
็ต 3578
ตรงข้าม 3576
นวนิยาย 3576
ฉา@@ 3574
สีเหลือง 3574
คิม 3572
สห@@ 3572
คณะรัฐมนตรี 3571
โรงแรม 3571
ธรรมดา 3568
สิทธิ@@ 3566
ขุด 3565
แสดงให้เห็น 3565
!@@ 3564
ปกป้อง 3564
สมัย@@ 3564
ถูกต้อง 3562
แม 3561
ปทุ@@ 3558
สงฆ์ 3558
หนาแน่น 3558
เบอร์@@ 3555
ศี@@ 3554
้ม@@ 3553
บอก@@ 3552
พาณิชย์ 3549
1,@@ 3548
เพลย์ 3548
จำเป็นต้อง 3547
I@@ 3539
ลย์ 3539
ฝัง 3538
idae 3536
เสรี@@ 3536
จิตร@@ 3534
สื่อ@@ 3534
วุ@@ 3532
ดุล 3530
ดังต่อไปนี้ 3527
ตระ@@ 3527
อุดมศึกษา 3527
โปรตีน 3524
ผี 3521
เทศ@@ 3521
สี่@@ 3520
ลิเวอร์พูล 3518
มาร์@@ 3517
เอน 3516
ี้ยว 3515
ี้ยน 3512
บริโภค 3511
ล่าสุด 3510
ตามมา 3509
บางคน 3508
์, 3508
ิสภา 3507
ญาติ 3500
ต่ำกว่า 3491
เทียม 3491
ขบวนการ 3484
ปัก@@ 3484
สร 3484
m 3483
ส่วนท้องถิ่น 3483
ผา 3482
ดี้ 3480
เมล็ด 3480
ผู้ช่วย 3475
ซิตี 3472
ดำเนิน@@ 3471
่อม 3470
2545 3467
นิวเคลียร์ 3465
ถัง 3464
มูลนิธิ 3464
คุก 3462
เผา 3462
มีอิทธิพล 3461
ติดตั้ง 3456
ก่อให้เกิด 3454
คนไข้ 3453
คาทอลิก 3453
่ว@@ 3453
/@@ 3452
ประกวด 3452
พระพุทธศาสนา 3452
่ย 3451
ธา@@ 3449
รับรู้ 3447
เทือกเขา 3447
่ำ 3447
ศิษย์ 3446
อนุมัติ 3446
ธิบดี 3445
คิด@@ 3443
ืน@@ 3443
เชี่ยวชาญ 3443
อินเตอร์ 3442
ร้าน@@ 3441
ดื่ม 3438
สำรวจ 3438
2543 3435
ีกา 3435
amp 3434
ซับซ้อน 3434
ณี 3433
ยุทธ 3433
ข่าว@@ 3431
อิสราเอล 3431
ยนต์ 3429
ประท้วง 3428
วรรณ@@ 3428
ฮั่น 3424
ประถมศึกษา 3423
เชื้อ 3423
บอร์ด 3422
ิร์ล 3420
กิน@@ 3413
แบน 3413
ตย์ 3412
บำ@@ 3412
ห้วย 3412
เมือง@@ 3412
สังเกต 3411
เดช 3411
สะท้อน 3408
1990 3407
วอร์ 3407
y@@ 3406
การกระทำ 3406
แนล 3406
." 3405
G 3405
ทวีป 3405
ตรา@@ 3404
เป็นอดีต 3404
นำมาใช้ 3400
มีประสิทธิภาพ 3398
V 3397
หม่อม@@ 3396
แผนก 3396
้าย 3394
ทว่า 3393
าะ 3392
เซ็น@@ 3391
แปด 3391
ชายแดน 3390
แพร่หลาย 3390
กรุงศรีอยุธยา 3387
ป่วย 3387
ฟังก์ชัน 3387
ไหน 3387
จาก@@ 3386
มณี 3386
ดัง@@ 3385
คิว 3383
พิสูจน์ 3382
ี้ย 3382
WWE 3381
อิหร่าน 3380
เรื่อง@@ 3380
ผิด@@ 3378
เหรียญทอง 3378
ความพยายาม 3377
บูร 3377
ศร 3377
เตะ 3376
รุ่น@@ 3370
e 3369
เรย์ 3369
วิกฤ@@ 3368
สาธารณสุข 3368
็อง@@ 3368
ัด@@ 3362
แต่งเพลง 3359
ยอดขาย 3356
ก่อนหน้านี้ 3355
ฉายา 3354
ทางเศรษฐกิจ 3354
เอฟ@@ 3353
จาง 3351
ณฑ@@ 3351
์ส 3348
วิวัฒนาการ 3347
d 3346
รับประทาน 3346
หุ้น 3345
หมา@@ 3344
สลับ 3342
การเคลื่อนไหว 3339
ation 3338
ลาด@@ 3337
เต็ม@@ 3336
อร์ต 3334
พลัง@@ 3331
เลิก 3329
ฮุ@@ 3327
ทัวร์ 3325
หนา 3325
ชี้ 3324
มุสลิม 3324
48 3323
เหมือนกัน 3322
ิม 3319
แทร@@ 3319
ซึม 3318
สิน 3318
กระแส@@ 3317
ปาง 3315
เป็นต้นมา 3314
บัง 3313
พี่@@ 3313
เสนอชื่อ 3313
é 3312
วันนี้ 3311
จะ@@ 3306
เบิร์@@ 3306
ขณะนั้น 3305
ผู้เข้าแข่งขัน 3304
นาม@@ 3303
ก๊ก 3302
บอย 3302
ภูมิศาสตร์ 3301
ม่วง 3300
สามั@@ 3299
หลง 3298
โส 3298
ิ้ล 3295
เครื่องมือ 3295
กวี 3293
คริ@@ 3293
คิง 3292
นิยาย 3291
ปรากฏการณ์ 3290
กฤ@@ 3288
ียบ@@ 3288
ียล 3288
เข้าแข่งขัน 3286
ตอ 3285
ร้อย@@ 3285
ื่น@@ 3283
ถ่ายภาพ 3280
เสื่อ@@ 3280
ทิศเหนือ 3279
R 3276
กิจ@@ 3276
ครั้งหนึ่ง 3276
ยุทธ์ 3274
เข 3271
กู@@ 3270
พงศ์ 3270
ด่าน 3269
อุดม@@ 3269
ปัจจัย 3267
ฟุ 3265
สย@@ 3265
เพชร@@ 3265
ศูนย์@@ 3263
จาร 3262
บูรณะ 3261
p 3258
ตู@@ 3258
ทางใต้ 3258
คณ@@ 3256
ตกแต่ง 3256
ครบ@@ 3254
ญญา@@ 3254
ถาวร 3254
ราม@@ 3252
ธี@@ 3251
บูร@@ 3251
รส@@ 3251
ออนไลน์ 3251
อนิเมะ 3243
อินเทอร์เน็ต 3243
ีก 3241
ล้มเหลว 3239
ถู 3236
ผู้เสียชีวิต 3235
พี่ชาย 3235
ยอม@@ 3235
เวีย@@ 3235
ปราบ 3233
กระทรวงศึกษาธิการ 3232
ฝีมือ 3232
เวอร์ชัน 3232
aceae 3230
ุ่น 3230
เซ็นสัญญา 3230
ร่วมมือ 3229
คว้าแชมป์ 3228
ชิง@@ 3228
ลงนาม 3226
ตั้งใจ 3219
น่าจะ 3219
พยาบาล 3218
คร 3217
ท์@@ 3215
ลล@@ 3215
ือง 3215
เกราะ 3215
de 3214
จัง 3213
ท. 3212
ลัก@@ 3212
เพิ@@ 3212
ด้านหน้า 3211
มีชีวิต 3211
ิ่น 3211
ตอบ@@ 3210
ฑ@@ 3208
เซ็@@ 3208
ความถี่ 3206
6@@ 3205
ฮี@@ 3205
อส 3203
จักรวาล 3201
หลังคา 3201
ห์@@ 3201
ไม่ต้อง 3201
ก้า 3199
ลด@@ 3199
สวรรคต 3198
็กซ์ 3198
ความสำเร็จ 3197
รัฐประหาร 3195
สิบ@@ 3193
ดง 3189
ทิศตะวันออก 3189
2538 3187
มวลชน 3187
สโก 3187
ความร่วมมือ 3186
ป. 3186
โต้ 3184
ระเบียบ 3183
สภา@@ 3182
โซล 3181
พี่ 3180
ฮะ 3179
โครง 3179
มวล@@ 3178
แฟ 3178
ขัน@@ 3177
ตัวอักษร 3177
สิ้น@@ 3176
โหล@@ 3176
ดับเบิลยู 3171
พยั@@ 3171
ไพร 3171
ซัส 3170
็บ 3170
และ@@ 3169
นาซี 3167
เจรจา 3167
โดยเฉพาะอย่างยิ่ง 3165
ชาร์@@ 3164
ท้องที่ 3164
ลอ 3164
สวม 3163
ได้ดี 3163
โฉ@@ 3162
is 3161
จารึก 3161
การแพทย์ 3160
คริสตกาล 3160
พนักงาน 3160
เลข@@ 3159
ไตร@@ 3158
คลัง 3155
2002 3154
มนต์ 3154
สุโขทัย 3154
อัศ@@ 3154
กุมาร 3152
ซ์@@ 3152
พญา 3152
สถานี@@ 3151
พระนคร 3148
สตา@@ 3145
อภิเษกสมรส 3145
ไมล์ 3145
เฮนรี 3144
ขณะเดียวกัน 3142
สุนทร 3142
แร่ 3142
ภาษี 3140
แม่เหล็ก 3140
ไก 3137
ขัง 3136
เด็@@ 3136
ได้รับแต่งตั้ง 3136
ื้@@ 3131
ฉี@@ 3130
น้ำแข็ง 3129
รัม 3129
โกล@@ 3129
ผู้ชาย 3128
เชื่อ@@ 3128
เลขาธิการ 3128
ด้านล่าง 3127
การวิจัย 3126
มีความสำคัญ 3126
ม่า 3126
ทั้งหลาย 3125
ฯลฯ 3125
แปร 3125
ลุง 3123
หลักการ 3123
ตช์ 3122
พรรณ@@ 3122
จับกุม 3121
ญาณ 3120
กองทัพบก 3119
เป็นที่นิยม 3119
ถ้วย 3118
ฟุต 3118
สอง@@ 3118
อัญ@@ 3118
การใช้งาน 3117
o@@ 3115
ขาด@@ 3115
ความมั่นคง 3115
หม่อมเจ้า 3113
2003 3112
แส@@ 3112
ร่า 3111
มองเห็น 3110
เบา 3110
แซม 3110
จริง@@ 3109
ตำหนัก 3109
สังเกต@@ 3109
ี้ย@@ 3109
เจอร์ 3106
็อ@@ 3105
สูญ@@ 3104
แคบ 3104
ตึก 3103
ขอให้ 3102
พระครู 3102
กล้อง 3101
กองทัพเรือ 3099
ศาสน@@ 3098
ความเห็น 3097
ยืม 3096
วน@@ 3096
อุท@@ 3095
เซต 3094
อุทยานแห่งชาติ 3092
ความเสี่ยง 3091
ั่ง 3091
เจ็บ@@ 3088
จอมพล 3087
บางอย่าง 3085
ปอ 3084
โด่งดัง 3084
มัด 3081
เวช 3081
แต่ละ@@ 3081
ทิศตะวันตก 3080
ี้@@ 3080
พิทักษ์ 3079
ศีรษะ 3079
เป็นหลัก 3079
เรียบ@@ 3077
ขอนแก่น 3076
ความรุนแรง 3075
ทิศใต้ 3075
เอเช@@ 3074
เศ@@ 3071
นาถ 3070
แผ่นดินไหว 3070
อี้ 3069
จ. 3067
โรงงาน 3066
ผู้ปกครอง 3064
ประมุข 3063
ทั่วประเทศ 3060
สโต@@ 3060
ในอนาคต 3060
ทางเพศ 3059
ฬ 3059
ปลาย@@ 3058
ฟ้า@@ 3057
ภิกษุ 3057
ประยุ@@ 3056
เอกลักษณ์ 3055
เข้ม 3049
จร 3048
สลัก 3048
กง 3047
แฝ@@ 3047
สมุ@@ 3045
เพาะ@@ 3042
ขนาน 3041
ลูกชาย 3041
ธี 3040
ใกล้ชิด 3040
ท่อ 3039
ประเด็น 3039
ระบอบ 3039
เวลา@@ 3038
นักวิชาการ 3037
โระ 3037
ซุ 3036
วส์ 3036
เลี่ยง 3035
โทร 3035
ค่ำ 3034
นักการเมือง 3033
ยม 3032
พย์ 3031
ดาน 3029
มัธยม 3028
1980 3027
เพิ่ม@@ 3027
ทัศ@@ 3025
แน่นอน 3025
ฟิสิกส์ 3024
เจีย 3024
ทอด@@ 3023
กระท@@ 3021
หัวหน้า@@ 3018
มิต 3016
ทรรศ@@ 3013
สัก 3013
ิง@@ 3013
เขา@@ 3011
เนียน 3011
สตัน 3010
๋ง 3010
ยีน 3009
หญ้า 3008
เบลเยียม 3008
36 3005
:@@ 3005
อนุภาค 3005
อ่าว 3004
อนุรักษ์ 3003
๑@@ 3003
อินทร@@ 3002
k 3001
ถึงแม้ว่า 3000
ละลาย 3000
การสำรวจ 2999
เกียรติ@@ 2999
อเมริ@@ 2996
ไม่ค่อย 2995
ทะ 2990
o 2988
ตัวผู้ 2988
ุก 2987
ื้น 2983
วด@@ 2981
แถว 2981
b 2977
ล์ม 2977
สงสัย 2977
ภาคเหนือ 2974
ไอร์แลนด์ 2973
ช่วงแรก 2972
อับ 2972
พระราชธิดา 2970
พิธีกร 2970
าก 2970
กรุงเทพฯ 2968
ผู้บัญชาการ 2968
ี่ย@@ 2964
อิสริยาภรณ์ 2963
99 2962
ด้านหลัง 2962
ยื่น 2962
สระ@@ 2962
ดำรง 2961
เก้า 2961
แค้น 2960
หิน@@ 2959
ถาม 2957
มูลค่า 2957
ทุกวัน 2955
บริจาค 2954
เชียง 2953
แห้ง 2953
โมเลกุล 2952
หมอ 2948
กระทรวงมหาดไทย 2947
นคริ@@ 2947
ริด 2946
หมวดหมู่ 2946
เสริ@@ 2946
ทางสังคม 2945
ส. 2944
ปูน 2943
ียบ 2943
ถิ่นกำเนิด 2942
ทรัพย์สิน 2941
วุฒิ 2941
สัดส่วน 2941
ลักษณะ@@ 2940
หมด@@ 2940
เปิล 2940
แผนการ 2940
ยั้ง 2939
,@@ 2938
บำรุง 2938
หอม 2935
โปรด@@ 2935
การเกษตร 2934
น์@@ 2934
ตุรกี 2933
ล็อก 2933
วอ@@ 2932
แสง@@ 2930
ช่าง@@ 2928
ดวงอาทิตย์ 2928
อัด 2927
นก@@ 2925
มิด 2922
การปรับปรุง 2921
ซาน@@ 2921
นิสัย 2921
พระบรมราช@@ 2920
อะตอม 2920
เปลือก 2920
กระ 2918
ชัย@@ 2918
โคจร 2918
ออกเสียง 2917
เผชิ@@ 2917
เสรี 2916
สัญชาติ 2915
๋า 2915
ผ้า@@ 2914
อู่ 2914
300 2913
แฟร@@ 2913
ทดลอง 2911
น้ำตาล 2911
U@@ 2910
บุรุษ 2908
ตอนแรก 2907
พระราชา 2905
็อก@@ 2905
ช่วงต้น 2902
คล้ายคลึง 2901
เทน@@ 2901
ไพ 2899
ปุ 2898
เต็มที่ 2897
โคล 2896
um 2894
ราชการ@@ 2894
อุด@@ 2894
เพื่อที่จะ 2894
เสกสมรส 2894
ส้ม 2892
แชมเปียนส์ 2892
ยธรรม 2890
ประสา@@ 2889
แพทยศาสตร์ 2887
พัง 2886
วิถี 2886
เมะ 2886
โต้@@ 2885
ตสึ 2884
ตลก 2883
วัตร 2879
สถาบัน@@ 2877
ศวร 2875
for 2873
กลางเมือง 2873
33 2872
ื่อน 2869
ชายา 2868
ชัก@@ 2867
ผู้กำกับ 2867
เร็@@ 2867
ไมเคิล 2867
ตถ์ 2866
ค้าน 2864
ปรี@@ 2864
แขน 2864
h 2863
อิส 2863
ate 2861
วิด 2859
เฉลิม 2859
ตัวแทน 2858
ล้วน 2858
แอบ 2857
การ์ด 2856
ลิขสิทธิ์ 2856
จัดทำ 2855
สันตะปาปา 2855
ล. 2853
ู่@@ 2852
ไส@@ 2852
ทิศ@@ 2851
ไทยแลนด์ 2851
่อน@@ 2851
งานเขียน 2848
วาระ 2848
ปริญญาโท 2847
เขตเลือกตั้ง 2844
คุ้มครอง 2843
ดม 2843
นครศรีธรรมราช 2841
สังคมนิยม 2841
ถอน 2840
เพียงแค่ 2840
แมค 2840
ทางรถไฟ 2839
เยือน 2838
แหวน 2838
section 2837
พิพากษา 2835
ดับ@@ 2834
จักรพรรดินี 2832
ทุกปี 2831
อีก@@ 2830
เศร้า 2830
ซ่า 2829
สตี@@ 2828
ภิเษก 2827
เฝ้า 2826
น่าน 2825
ข้าราชการ 2824
จดหมาย 2823
สายการบิน 2823
ใช้ชีวิต 2821
กล้า 2820
ทัย 2820
มวยสากล 2820
ทริ@@ 2819
กุศล 2818
ื่อย@@ 2818
ึ 2817
เตรียม@@ 2817
กรอง 2816
ล่า@@ 2816
ข้อตกลง 2813
ยกทัพ 2813
งก์ 2812
เทศบาลเมือง 2812
เบส 2810
แสดงว่า 2810
แม้แต่ 2808
งอ 2807
นง 2806
เช้า 2804
เปลี่ยนเป็น 2803
/& 2802
๕@@ 2801
กอ@@ 2800
บ่อยครั้ง 2800
ผู้แทน 2800
ป้อม 2798
สัก@@ 2798
เติม 2798
พาน 2797
แง@@ 2797
ฝุ่น 2794
สถานที่@@ 2793
ไตร 2793
เซอร์@@ 2790
ธงชาติ 2789
หลบหนี 2789
ท่าเรือ 2788
เกิด@@ 2787
น้องชาย 2785
55 2783
บรรยากาศ 2783
เสื้อ@@ 2783
แฟน@@ 2783
จิตใจ 2782
ปะ 2782
ซิม 2781
เกะ 2781
พื้นผิว 2780
ไลน์ 2780
ยึด@@ 2779
วิสุงคามสีมา 2779
เทวี 2779
โรม 2778
2001 2777
ตอนปลาย 2776
ช. 2775
พากย์ 2775
วิทยาเขต 2775
หุ้ม 2775
เอ็ดเวิร์ด 2774
สำเนียง 2771
แฮม 2771
จม@@ 2770
นิช 2768
อุบัติเหตุ 2768
แบคทีเรีย 2768
K 2767
ละเอียด 2766
หลายชนิด 2766
ขุน@@ 2765
ทัล 2765
ครรภ์ 2764
สร้างสรรค์ 2764
เนียม 2764
ถุ@@ 2763
ภาย@@ 2762
คุม 2760
ทองแดง 2760
เหนือ@@ 2759
ขั้น@@ 2758
World 2757
เหยื่อ 2755
ขึ้นกับ 2753
ภิ 2753
เปลี่ยนไป 2753
ี่ยง 2752
ถัมภ์ 2751
แท้ 2751
แปร@@ 2751
โองการ 2751
เวย์ 2747
ธรณ@@ 2745
บ่อย 2745
เลื่อน@@ 2745
Z@@ 2743
อย่างไรก็ดี 2743
๊ก@@ 2743
กรีซ 2742
พรรณ 2742
ราษฎร 2742
วรรณ 2742
s@@ 2740
ศรัทธา 2740
ฉ 2739
ตต์ 2737
;@@ 2736
สงขลา 2735
ึ้ง 2735
ลูกสาว 2734
95 2733
เซ็น 2733
มงกุฎ 2732
ญา 2731
นารี 2731
ยม@@ 2730
แบร์ 2730
ไบ 2730
ก้าว 2729
ชื่อดัง 2729
นิค 2728
ยาม 2727
ฤดู 2727
ดอก@@ 2725
ด้าน@@ 2723
เวิร์@@ 2723
ทำนอง 2722
สาธารณ@@ 2720
ตอนต้น 2717
เซฟ 2716
นติก 2715
ปิ 2715
ลิก 2715
ฝั่ง@@ 2714
พูน 2714
องค์@@ 2714
แต่เดิม 2714
ณ์@@ 2712
โอะ 2712
มีปัญหา 2711
กลอง 2710
เป็นระบบ 2708
ครั้น 2707
เอ็กซ์ 2707
็อป 2707
ปลายปี 2706
เหลือ@@ 2706
กลีบ 2705
ประกัน 2705
บรรพ@@ 2704
ศาสตร@@ 2703
อัคร@@ 2702
หลายอย่าง 2701
ic 2699
สก 2699
ก้าวหน้า 2698
จ์ 2698
จันท@@ 2697
สวย 2697
ฮอล@@ 2697
ลังกา 2692
บัญชี 2691
บุค@@ 2691
ไกร 2691
รับเชิญ 2689
u 2687
จาน 2687
ล้ม@@ 2687
2541 2686
พระธาตุ 2684
ัย@@ 2684
er 2683
2537 2682
ครอบครอง 2681
สำนักพิมพ์ 2681
ดจ์ 2679
ดูด 2679
จำแนก 2678
ผูก@@ 2677
ผู้ผลิต 2675
จาร@@ 2672
เชียงราย 2672
แก๊ส 2672
ชีวิต@@ 2671
r 2670
ต่างชาติ 2669
แล้วก็ 2669
มล 2668
ูก 2668
สีน้ำตาล 2667
นอร์เวย์ 2665
นักวิทยาศาสตร์ 2665
แมตช์ 2665
มาณ@@ 2663
ค่าใช้จ่าย 2662
n@@ 2661
ริเริ่ม 2661
สุร@@ 2661
เดิ@@ 2661
เป็นไปได้ 2661
มืด 2657
ถ่ายทอด 2655
เล็ก@@ 2655
คาบสมุทร 2653
จอร์@@ 2653
ลือ 2653
ขั้นต@@ 2652
ฑา 2652
พ.@@ 2650
รม@@ 2650
an@@ 2649
อัย@@ 2649
ไขมัน 2648
เหลว 2647
ทิศทาง 2644
มองว่า 2644
34 2642
อัตโนมัติ 2642
หุ่น@@ 2640
ู้ 2640
12@@ 2639
กังวล 2639
ว่าง 2638
หัส@@ 2638
แต่ว่า 2638
ด้า 2637
2534 2636
es 2633
เสถ@@ 2632
โพธิ์ 2632
นเสียง 2631
เข้ารอบ 2631
t@@ 2630
การสื่อสาร 2630
มุมมอง 2630
ดิบ 2627
วัต 2627
กาญ@@ 2626
สมุด 2625
บาร์@@ 2623
Y@@ 2622
หล่อ 2622
อักเสบ 2622
ทำเป็น 2621
ยัน 2621
ใย 2621
เปร@@ 2620
นิเว@@ 2618
อักษ@@ 2618
อิสริยยศ 2618
64 2616
กั้น 2616
มหานิกาย 2616
เวียง 2616
ยุติธรรม 2615
การปฏิ@@ 2614
ชนบท 2613
เช่นเดียวกัน 2613
คัน@@ 2612
ชะ 2612
วัยรุ่น 2612
รัชทายาท 2611
ล้อ 2611
อิรัก 2611
กันที่ 2610
ว่ายน้ำ 2609
เชื้อเพลิง 2608
ในเวลา@@ 2607
ไหม้ 2606
“@@ 2605
กลไก 2604
หาด 2602
ี่ยม@@ 2602
แลกเปลี่ยน 2602
ติดต่อกัน 2600
พลเรือน 2600
แคลิฟอร์เนีย 2600
แกน@@ 2598
ฬ@@ 2597
ขั้ว@@ 2596
d@@ 2594
ุม 2594
บ่อ 2593
เตือน 2593
เลก 2593
คมนาคม 2592
ไฮโด@@ 2591
กาง@@ 2590
บัส 2590
เลส 2590
ฤดู@@ 2589
แมน@@ 2589
กวาง 2588
ตลาด@@ 2588
ี้ 2588
ครู@@ 2587
ซอง 2587
พิธี@@ 2587
ฟาโรห์ 2587
วัตถุประสงค์ 2587
เขียน@@ 2586
โลห@@ 2586
อย่างไร 2585
แด 2585
วินาที 2584
๑ 2584
ปลดปล่อย 2582
in@@ 2581
ขนส่ง 2581
บาก 2581
เชษฐา 2581
ประสบ 2580
ซอฟต์แวร์ 2579
ลด์ 2579
ปะทะ 2578
ชม@@ 2577
ดาราศาสตร์ 2576
ทางทหาร 2576
นิพนธ์ 2576
0,000 2575
or 2575
หอย 2575
แมนเช@@ 2575
ดำรง@@ 2574
ดำเนินงาน 2574
แพร่ 2573
ทาส 2572
สงคราม@@ 2572
สมั@@ 2572
กระทำ 2570
ทน 2570
ปีศาจ 2570
แจ 2570
ตัวเมีย 2569
ได้ยิน 2569
ยิ่งขึ้น 2568
วงกลม 2567
วิก 2567
ยูเครน 2565
ญญา 2564
ติน 2564
X@@ 2563
แตน 2562
ก้าน 2561
ผู้สนับสนุน 2561
ฟิ 2561
98 2560
เคลื่อนไหว 2560
กระด@@ 2559
พง@@ 2559
สแต@@ 2559
ปวด 2557
ละติน 2557
ขั้นตอน 2556
ซัง 2556
แรงบันดาลใจ 2556
รายการ@@ 2555
ศุกร์ 2555
อนุชา 2554
เครื่องหมาย 2554
จน์ 2552
ปอนด์ 2552
ผู้ก่อตั้ง 2552
ผู้บริหาร 2551
ฮอ@@ 2550
งก 2549
แบล@@ 2549
ร่าง@@ 2548
จังหวะ 2546
ทางเหนือ 2546
พื้นดิน 2546
ดีขึ้น 2545
สิ้นสุดลง 2545
ณะ 2544
ทะเล@@ 2544
นึก 2543
ia 2541
แรก@@ 2541
ด์@@ 2539
สังเคราะห์ 2539
2536 2538
สมควร 2538
อาสน 2538
แอฟริ@@ 2538
c@@ 2537
พระพุทธเจ้า 2537
นิง 2536
อีสาน 2536
เบื้องต้น 2536
เป็นไป 2536
กึ่ง 2534
ี๋@@ 2533
ศาลา@@ 2532
เวสต์ 2532
ชิ้น@@ 2529
เพาะ 2529
ค้า@@ 2528
วิศวกรรม@@ 2528
ชั้นสูง 2527
ถอน@@ 2527
ถั@@ 2527
ทางตะวันตก 2527
ขัน 2523
ปราบปราม 2523
ข้า 2521
เลง 2521
มอบ@@ 2520
ล้านนา 2520
วบ 2520
กระบ@@ 2519
เคล@@ 2519
หลง@@ 2518
เงื่อนไข 2518
เวลส์ 2518
ประสิทธิภาพ 2517
ผสาน 2517
ยกฐานะ 2517
กับ@@ 2516
ของวัด 2516
ลัด 2516
สลาย 2516
แมลง 2516
กิโลกรัม 2515
ป้าย 2515
เครียด 2515
ประหลา@@ 2514
สู้รบ 2513
อาคาร@@ 2512
ไห@@ 2512
1992 2509
ขั้ว 2509
42 2508
นายพล 2508
ิร์น 2508
โลก@@ 2505
กระจก 2504
ทาย 2503
จฉ@@ 2502
ทักษะ 2502
ศก 2502
ัม 2501
เลิ@@ 2501
ตตา@@ 2499
นัดดา 2499
บันทึก@@ 2499
รุ่งเรือง 2499
วงจร 2499
1996 2498
ดอกไม้ 2496
ยับ@@ 2495
เวท@@ 2495
พร้อมด้วย 2494
ขับไล่ 2493
ถัด@@ 2493
ียง@@ 2491
ชลบุรี 2490
ดีกว่า 2490
ันท@@ 2490
็น@@ 2490
เป็นเจ้าของ 2488
สภาผู้แทนราษฎร 2486
เชส 2485
เหง@@ 2485
รอบ@@ 2484
เยี่ยม 2482
จัดตั้งขึ้น 2481
เส 2481
on@@ 2480
นติ@@ 2480
วจะ 2480
ฟี@@ 2479
ปฏิทิน 2477
อุ่น 2477
จันทน์ 2476
อดุลยเดช 2475
คำถาม 2474
การปฏิรูป 2473
ทอด 2472
มวยไทย 2472
ทรัพยากร 2470
ทุ 2470
ปกครอง@@ 2470
ป์ 2470
ผู้สร้าง 2470
พระทัย 2470
มอญ 2470
2533 2469
วุธ 2468
เมื่อ@@ 2468
1998 2466
ควร@@ 2465
ส์" 2465
เภสั@@ 2464
พัด 2463
การขนส่ง 2462
พระศพ 2462
จอมเกล้า 2461
นิส 2461
วาส 2459
การท่องเที่ยว 2457
ย่า 2457
กุ้ง 2453
มาก@@ 2453
ออสการ์ 2452
คริสเตียน 2451
เลขที่ 2451
น้องสาว 2450
ปลด 2450
รน 2450
ปีเตอร์ 2449
สวิตเซอร์แลนด์ 2449
ูน@@ 2449
เคารพ 2449
ชิน@@ 2448
รณ์ 2448
สเก@@ 2448
โดยรวม 2448
มีผล@@ 2447
เพศ@@ 2447
สภาวะ 2446
วัดราษฎร์ 2445
กส์ 2444
ภาควิชา 2444
ดง@@ 2442
นั่นเอง 2442
สับ@@ 2442
อบรม 2442
ครั้งนั้น 2440
พระสงฆ์ 2440
เกษตร 2440
39 2439
al@@ 2439
ก็@@ 2439
จุล@@ 2439
ฝูง 2438
เที่ยวบิน 2438
เซา 2437
ดั้ม 2436
คุ้มกัน 2434
ล่วง@@ 2434
วิชาชีพ 2434
พัฒนาการ 2433
อาชญา@@ 2433
วาร@@ 2432
ถน@@ 2431
ฟอร์ม 2431
แทบ 2431
เศรษฐศาสตร์ 2430
กีตาร์ 2429
สรร 2429
Ch@@ 2428
ความจำ 2428
โดด 2428
สามี 2427
ทร์ 2426
วม 2426
วชิ@@ 2425
สึ@@ 2423
เรียว 2423
มองโก@@ 2422
ล้ม 2420
ตัวเลข 2418
ั้น 2417
แอนิเม@@ 2417
1999 2416
แสดงนำ 2415
44 2414
r@@ 2414
ข้างเคียง 2414
รุก 2414
วัย@@ 2414
2531 2411
พระเจ้าอยู่หัว 2411
5@@ 2410
38 2408
ด้านบน 2408
ต้นกำเนิด 2408
วิทยุ@@ 2408
โมเด@@ 2408
รัช 2406
ฤษฎ@@ 2406
หัด 2406
อล์ฟ 2406
วัล 2405
ไช@@ 2404
มลายู 2401
มัธยมศึกษา@@ 2400
05 2399
มอบหมาย 2399
ืด 2399
หัน 2398
13@@ 2397
1970 2397
อรร@@ 2397
แมว 2397
ขาย@@ 2396
วิก@@ 2396
แม็ก 2396
ก๊า@@ 2395
ครึ่ง@@ 2395
แฮร์@@ 2395
’ 2395
g 2394
"" 2393
° 2393
กม. 2392
วัต@@ 2392
เพราะว่า 2392
สน์ 2391
บำบัด 2390
ราชภัฏ 2390
ประสบ@@ 2387
เสด็จสวรรคต 2387
ดวงจันทร์ 2386
​@@ 2386
คุม@@ 2384
ยอง 2384
ระดับสูง 2384
เดวิด 2384
ดร 2383
โก้ 2383
สุลต่าน 2382
47 2381
โพร@@ 2379
อาน 2378
แม่ทัพ 2378
อิเล็กทรอนิกส์ 2377
จราจร 2376
U 2374
สาธิ@@ 2372
สมัคร@@ 2371
กษ์ 2370
ผนว@@ 2369
มปิก 2369
หลอด 2369
ควบ@@ 2367
ภัย@@ 2367
วิท@@ 2367
ษฐ 2367
เมา 2367
รัตนโกสินทร์ 2366
ไล่ 2366
i@@ 2365
ซาก 2365
ก่อน@@ 2364
ทุกอย่าง 2364
วิชัย 2364
ปัส@@ 2363
เอเชียตะวันออกเฉียงใต้ 2363
ทรั@@ 2362
ส่วนประกอบ 2362
์ก 2362
สุสาน 2361
ไว้@@ 2361
ือน 2360
72 2359
g@@ 2358
ชาน 2358
แนวทาง 2358
ลึก@@ 2357
เชล@@ 2357
แตก@@ 2357
อค 2356
อัตรา@@ 2356
กลางคืน 2355
ดึง 2355
กระทรวงการ@@ 2354
ทำร้าย 2354
เรียบร้อย 2353
37 2351
เป็นที่@@ 2351
กองทัพอากาศ 2350
ลงคะแน@@ 2349
เสมือน 2349
ตอนกลาง 2347
นำไปใช้ 2347
ประหารชีวิต 2347
หมายเหตุ 2347
l 2346
ป็อป 2344
พรรคประชาธิปัตย์ 2344
วะ@@ 2344
ทิน 2343
ือด@@ 2343
เอียง 2343
ลก 2342
ษ์ 2342
สวามี 2341
สำรอง 2341
แน่@@ 2340
ฏิ 2339
เกล้าเจ้าอยู่หัว 2339
ดัม 2338
มุ่ง 2338
จุดเริ่มต้น 2337
ผ่าน@@ 2337
มูล@@ 2335
ูก@@ 2334
ส.ส. 2332
สงครามโลก 2332
ine 2330
ี่ยง@@ 2330
เดย์ 2330
เป็นต้น@@ 2329
ไมโคร@@ 2329
เคียว 2327
มกุ@@ 2326
เจียง 2326
มหาวิทยาลัยธรรมศาสตร์ 2325
โดยสาร 2325
ทหารบก 2324
ร้าง 2324
เชน 2324
บัญชาการ 2323
ยาย 2323
43 2321
อังคาร 2320
เชื่อมโยง 2320
ี่ยม 2319
ขอบเขต 2318
ยิน@@ 2318
สุนัข 2317
สัตว์ป่า 2316
สันหลัง 2316
สันติภาพ 2315
เว็บ 2315
1997 2313
ออกซิ@@ 2313
เมอร์ 2313
กุมารี 2312
บุรีรัมย์ 2312
93 2311
ึ่ง@@ 2310
คิน 2309
วุฒ@@ 2308
เนส 2308
้ำ@@ 2308
;/ 2307
กระดูก@@ 2307
จัก 2307
ปก 2307
กอน 2306
ร่ว@@ 2306
ูป 2306
ธาร 2305
01 2304
หมัด 2304
คลับ 2303
สนม 2303
จำพวก 2302
ผิว@@ 2302
แข็งแกร่ง 2302
สังคม@@ 2301
แวดล้อม 2301
ทับ 2300
1960 2299
ณา 2299
มพร 2299
เปลี่ยน@@ 2299
91 2298
จิตรกร 2298
หมวด 2298
หนึ่ง@@ 2297
อนา@@ 2297
85 2296
บริสุทธิ์ 2296
หายใจ 2295
เปอร์เซีย 2295
แวร์ 2295
ทรู 2294
ตู้ 2293
ยิ่ง@@ 2293
แทรก@@ 2293
นิติบัญญัติ 2292
มาตร 2292
ยื@@ 2292
57 2291
a@@ 2291
กัป@@ 2291
ตะวันตกเฉียงเหนือ 2291
แห่ 2291
เถียง 2290
88 2289
ครา 2287
ชวา 2287
สมการ 2287
เมริเดียน 2287
ยัง@@ 2286
หญ@@ 2286
ทรา@@ 2285
ัล 2284
49 2283
ธั@@ 2283
ส" 2283
ธรรมเนียม 2282
กระดา@@ 2281
ต่อไปนี้ 2281
ิว@@ 2281
84 2280
ครี@@ 2280
มินิ 2280
รัตน@@ 2280
รถถัง 2279
อาร@@ 2279
มี่ 2278
เคราะห์ 2278
ไผ่ 2278
พลเมือง 2277
ษฎ@@ 2277
สกอตแลนด์ 2277
นักดนตรี 2274
บพิตร 2274
ทวีปยุโรป 2273
ฟิล์ม 2273
บลู 2272
41 2271
ประจ@@ 2271
ทางอากาศ 2270
มาลา 2269
แอตแล@@ 2269
ซอล 2268
ตั้งถิ่นฐาน 2268
วร์ 2268
ประทาน 2267
ปริญญา 2267
ในกรณี@@ 2267
ความผิดปกติ 2266
จัดแสดง 2266
ผลไม้ 2266
พระพุทธ@@ 2266
บูรณ์ 2265
โยธิน 2264
สัมพันธมิตร 2263
พร้อมกัน 2262
เพ็ญ 2262
53 2260
จอด 2260
ด่วน 2260
ปีการศึกษา 2260
ฟรา@@ 2260
หยุด@@ 2260
ดอย 2259
ที่ทำการ 2259
ดาวฤกษ์ 2257
หนาน 2257
ไก่ 2257
ปฏิวัติ 2256
เตอร์เทน@@ 2256
ชร 2255
่าน@@ 2255
คนไทย 2254
52 2253
รำ@@ 2253
ขับร้อง 2252
ท้าย@@ 2252
พระเกียรติ 2252
สุร 2252
หมิง 2252
ไต@@ 2252
เช่น@@ 2251
เลิศ 2251
สอดคล้อง 2250
อิเล็กตรอน 2250
แคร@@ 2250
W 2249
ทบ 2248
สัญ@@ 2248
ยูนิ@@ 2247
เบื้องหลัง 2247
การออกอากาศ 2246
พุ 2245
08 2244
เกษตรกรรม 2244
400 2242
พันธุกรรม 2241
คุก@@ 2240
ท่วม 2240
พิษณุโลก 2240
คะแน@@ 2239
รับใช้ 2238
วัว 2238
เดียม 2238
ยิง@@ 2237
องค์การบริหารส่วนตำบล 2237
แล้วจึง 2236
ไทร 2236
สัมภาษณ์ 2235
งิ 2234
ศาสนาพุทธ 2234
ถก@@ 2233
หลิว 2232
เช่า 2232
กระสุน 2231
ผัน 2231
วัฒนา 2231
ซอย 2230
89 2229
รัศ@@ 2229
น็อค 2228
หลีก@@ 2228
เราะ 2228
ทักษิ@@ 2227
เขน 2227
เลิฟ 2227
กติ 2225
บรรณา@@ 2225
เบธ 2225
พร้อมทั้ง 2224
ล่มสลาย 2224
บ่ง@@ 2223
หยาง 2223
แสวง@@ 2223
ปืนใหญ่ 2222
ศา 2221
ดัช@@ 2220
ทายาท 2220
อย่างยิ่ง 2219
่อม@@ 2219
ลำปาง 2218
ศาสนาคริสต์ 2218
สหรัฐ@@ 2218
ผู้สำเร็จ@@ 2217
แสดงถึง 2217
โฟร์ 2217
56 2216
กลาโหม 2216
ปฐ@@ 2216
ติกา 2215
โดยมาก 2215
54 2214
วย@@ 2214
ย่อม 2213
อาญา 2213
ฮัน@@ 2213
แผนที่ 2213
— 2213
ซีเรีย 2212
นัย@@ 2212
at 2211
คราว 2211
ทารก 2211
2529 2210
ื้อง 2210
จุฬา 2209
ชนมายุ 2209
อย่างเช่น 2209
กรณ@@ 2208
มิลลิ@@ 2208
94 2207
ศิลปากร 2206
ปี่ 2205
ผู้ฝึกสอน 2205
ผู้สมัคร 2204
ศาสนา@@ 2204
ปราการ 2203
ริชาร์ด 2203
โคน 2203
เซน@@ 2201
เต่า 2201
อุดม 2200
เกา 2200
เรื่องย่อ 2200
มร@@ 2199
ฮินดู 2199
20@@ 2198
ปไตย 2198
เล่า@@ 2198
สิ่งก่อสร้าง 2197
แข็งแรง 2197
ยี 2196
บรรพบุรุษ 2195
บ้านเมือง 2195
สเซิล 2195
อุบลราชธานี 2195
เมิน 2195
กลา@@ 2194
ฬิกา 2193
เท่ากัน 2193
โต๊ะ 2192
ี่ย 2191
เป็นประจำ 2191
ได้ที่ 2191
ษณ@@ 2190
สัย 2189
แผ่ 2189
๊ 2189
1,000 2188
ชมพ@@ 2188
สีน้ำเงิน 2188
เป็นเจ้าภาพ 2188
คลื่น@@ 2187
คุย 2187
ตอ@@ 2187
น้ำทะเล 2187
เวิ@@ 2187
กิ่ง@@ 2186
ตะวันตกเฉียงใต้ 2186
นเร@@ 2186
สิริ@@ 2186
76 2185
ที่สี่ 2185
โรมาเนีย 2185
คริสตจักร 2184
พืชดอก 2184
รอด@@ 2184
วิศวกรรม 2184
สารสนเทศ 2184
เท็@@ 2183
เสียหาย 2183
ฉัตร 2181
ยูโร 2181
เทิร์น 2181
ทั่ว@@ 2180
หมู 2180
อัคร 2180
2518 2179
ก๊@@ 2179
ซึ 2178
บวน 2178
สูง@@ 2178
เณ@@ 2177
ชี้@@ 2176
ปริญญา@@ 2176
อวัยวะ 2176
เจ้านาย 2176
เศรษฐ@@ 2176
ความคิด@@ 2175
นิวซีแลนด์ 2175
ประเมิน 2175
สติ@@ 2175
พอล 2174
ลอบ 2174
97 2172
เดีย@@ 2172
ประโยค 2171
ภูมิอากาศ 2170
การตอบรับ 2169
ต่อกัน 2169
ต้าน 2169
หลอดเลือด 2169
ีต 2169
เน็ต 2169
จง@@ 2168
สะอาด 2168
สเตอร์@@ 2168
เวียง@@ 2168
96 2167
นักแสดง@@ 2167
ศิลา 2167
ฮิต 2167
ed 2166
ขี้@@ 2166
ข้น 2166
จิตวิทยา 2166
สห 2165
บัลลังก์ 2164
สนามบิน 2164
โภ@@ 2164
03 2163
ชื่อเสียง 2163
ราชินี 2162
ic@@ 2161
ครั้งสุดท้าย 2161
นาการ 2160
อาณา 2160
เกลือ 2160
เปรีย@@ 2160
ประจำการ 2159
็ง@@ 2159
โยะ 2158
ไซด์ 2158
2530 2157
สละ 2157
กล่าวคือ 2156
พระเยซู 2156
ฮอร์@@ 2156
เกียรติยศ 2156
เงา 2156
2532 2155
หัวเมือง 2155
๒ 2155
06 2154
จอม@@ 2154
ดิจิทัล 2154
ทวี 2154
เยาว์ 2154
พิชิต 2153
ฟิน@@ 2153
92 2152
อัง 2152
46 2151
กุหลาบ 2151
ดาวเทียม 2150
เป็นงาน 2150
สุทธิ 2149
ค้าขาย 2148
จิ๋ว 2148
ลวด@@ 2148
อาหาร@@ 2148
อู@@ 2148
หะ 2147
เวอร์@@ 2147
ร้าย@@ 2146
วัยเด็ก 2146
บี้ 2145
บุคลา@@ 2145
บุญ@@ 2145
มนุษย@@ 2145
J 2144
ฉุกเฉิน 2144
นวน 2144
กู้ 2143
ที่ว@@ 2143
ar 2142
เอะ 2142
63 2141
ซ่อน 2141
ตามกฎหมาย 2141
น้ำจืด 2141
พระมารดา 2140
อัต@@ 2140
ณั@@ 2139
กัล@@ 2137
คริสต์@@ 2137
คริสต์ศักราช 2137
ชนนี 2137
ตำรวจ@@ 2137
ทุน@@ 2137
โปเกมอน 2137
โฟ 2137
คลาสสิก 2136
สล@@ 2135
กอก 2134
พัฒน 2134
เจาะ 2133
ทาว@@ 2132
สวัสดิ์ 2132
เสริม@@ 2132
09 2131
ชาน@@ 2131
ฮิตเลอร์ 2131
แสดงออก 2131
et 2130
ฒ 2130
ยี@@ 2130
f@@ 2129
คลินิก 2128
ทางการแพทย์ 2128
ทางเดิน 2128
มีมติ 2128
เสมอ@@ 2126
โจร 2126
ถา@@ 2125
นนทบุรี 2123
สมาชิก@@ 2123
เปรียบ 2123
ดิว@@ 2122
ตะวันออกเฉียงใต้ 2122
นามสกุล 2122
แลน 2122
กำแพง@@ 2121
เซิน 2121
แรม 2120
นิน@@ 2119
ยาม@@ 2119
แคน 2119
]@@ 2118
คัส 2118
or@@ 2117
ลัส 2117
อาวุ@@ 2117
ที่อยู่อาศัย 2115
เสด็จพระราช@@ 2115
ปัจ@@ 2113
นิสถาน 2112
2,@@ 2111
ดุ 2110
แผล 2110
ทิเบต 2109
ผิวหนัง 2109
เสา@@ 2109
ฆ่า@@ 2108
ร้อง@@ 2108
ล้อม@@ 2108
51 2107
ตง 2105
ก่อตัว 2104
ตติ 2104
ปัน 2104
นักวิจัย 2103
ฟิล@@ 2103
เรียน@@ 2103
แอป@@ 2102
ณิ@@ 2101
สมัครเล่น 2101
ความหลากหลาย 2100
็อต 2099
ac@@ 2098
1991 2097
ผิดพลาด 2096
ียด 2095
os@@ 2094
บัญชีรายชื่อ 2094
นิด 2092
ในเครือ 2092
จริต 2091
วาย@@ 2091
กรรมา@@ 2090
หัก 2090
ลี้ภัย 2089
ไหม 2089
2519 2088
ัส 2088
1994 2087
ไส้ 2087
p@@ 2086
ฎ 2086
ประชา 2086
อนุ 2086
02 2084
คลา 2084
สถาปนิก 2084
เนื่อง 2084
แหล่งข@@ 2083
ch@@ 2081
ใดๆ 2081
แลก 2079
77 2078
พน@@ 2075
2522 2074
เบญ@@ 2071
แกรมมี่ 2071
กรมหลวง 2070
สถ@@ 2070
ุก@@ 2070
เคลื่อน@@ 2070
แบบนี้ 2070
14@@ 2069
เกษตรศาสตร์ 2068
04 2067
นายทหาร 2067
ลาส@@ 2065
เกิล 2065
โมน 2065
ความเข้าใจ 2063
๐ 2060
67 2058
ฉะนั้น 2058
มอน@@ 2054
ปล้ำ 2053
หน่วย@@ 2053
ผ่าตัด 2047
นวย@@ 2046
สมาชิ@@ 2046
เต็มไป@@ 2045
ขนา@@ 2044
78 2043
ซีน 2040
ลาม 2038
ปลอดภัย 2036
วรร@@ 2036
พระชน@@ 2035
58 2031
อิก 2031
ฟิลิ@@ 2030
้าย@@ 2028
วอล@@ 2025
81 2024
คม@@ 2024
พะ@@ 2023
หาย@@ 2023
องค์การ@@ 2022
หลา@@ 2020
อากาศยาน 2018
w 2013
73 2012
สวัส@@ 2011
2022 2004
นอง 2001
เป็นไป@@ 1999
2528 1994
68 1994
University 1992
ฟื@@ 1992
1993 1989
พระชนม์ 1989
59 1986
นิติ@@ 1986
ลเล@@ 1986
จำนวน@@ 1985
้อย@@ 1983
จารย์ 1982
ำเ@@ 1982
ธาน 1980
เกีย@@ 1980
ๆ@@ 1979
er@@ 1975
พืช@@ 1974
เกาหลี@@ 1973
บัณฑ@@ 1971
ครั้ง@@ 1970
62 1968
ar@@ 1968
ข่าย 1968
เบียน 1967
=@@ 1966
ติศาสตร์ 1964
1995 1963
Y 1962
ื่@@ 1962
ชั่ว@@ 1959
83 1958
Re@@ 1956
66 1953
ไต้@@ 1953
82 1952
69 1950
มิว@@ 1948
วัด@@ 1941
Love 1938
79 1936
ปืน@@ 1925
71 1924
ดิ์ 1924
ักษ์ 1922
th@@ 1921
om@@ 1920
ธาน@@ 1920
86 1917
07 1915
ผู@@ 1909
0.@@ 1908
เพื่อ@@ 1905
บาท@@ 1903
แห่ง@@ 1903
ol@@ 1902
ot@@ 1900
สื่อสาร 1889
โพธิ@@ 1889
กรร@@ 1888
เสน@@ 1886
1988 1880
..@@ 1878
ควา@@ 1873
อำนา@@ 1871
International 1868
ญญ@@ 1865
ศรีอยุธยา 1863
มงกุ@@ 1857
บริษั@@ 1854
เสี่ยง 1854
b@@ 1848
1989 1847
เหร@@ 1842
มาย 1835
วัตถุ@@ 1833
พันธุ@@ 1832
ity 1831
เปอร์@@ 1831
ศาสต@@ 1826
ภัณฑ์ 1822
k@@ 1816
กษา 1811
3,@@ 1810
1945 1809
กระจา@@ 1807
เรือง 1806
h@@ 1805
๓ 1804
มาตร@@ 1803
ค่อย 1801
end 1799
74 1798
ชิต 1794
เฉิน 1789
'@@ 1787
ธรร@@ 1786
Sh@@ 1785
en@@ 1785
1.@@ 1784
ฤกษ์ 1784
เกษตร@@ 1784
2500 1783
%@@ 1778
oc@@ 1778
๋ว 1777
el@@ 1775
one 1770
มนุษ@@ 1770
แน่น 1770
ผิดปกติ 1769
ราง@@ 1769
อนด์ 1768
สวิ@@ 1767
150 1765
จัก@@ 1763
อนาคต 1761
เป็@@ 1759
โฆษ@@ 1759
4,@@ 1757
ใหญ@@ 1755
0@@ 1751
87 1750
600 1746
ํ@@ 1746
ราษฎร์ 1745
รัส@@ 1743
เริ่ม@@ 1741
el 1739
่อย 1735
61 1734
as@@ 1734
f 1733
le 1731
5,000 1729
คอม@@ 1728
มั่น@@ 1728
เที่ยว 1727
จอ@@ 1724
You 1722
ทด@@ 1719
๔@@ 1719
เว้น 1715
New 1713
เหมือน@@ 1713
ริยา 1711
้วย 1710
หลอด@@ 1707
ปัญ@@ 1706
แก๊@@ 1706
มหานคร 1704
TV 1702
ศัพ@@ 1699
ดารา@@ 1697
In@@ 1696
่วน 1696
ph@@ 1694
กล้า@@ 1691
re@@ 1688
ให@@ 1684
บาด@@ 1680
มอง@@ 1679
v 1676
800 1675
วิศว@@ 1674
รุ่ง@@ 1672
มเป@@ 1667
1984 1666
เที่ย@@ 1666
ือง@@ 1664
สมุทร 1663
am 1661
ทอง@@ 1658
เครือ 1655
ประก@@ 1652
1950 1649
ฝรั@@ 1644
m@@ 1643
เต็@@ 1642
นอร์@@ 1639
ระบ@@ 1639
z 1638
l@@ 1631
op@@ 1631
เกี่ยว@@ 1631
II 1630
แย้ง 1630
เหมา@@ 1629
2,000 1622
ใต้@@ 1622
ื่อย 1620
á 1618
รัต@@ 1617
ฮ่อง@@ 1612
th 1611
ราษฎ@@ 1610
en 1609
ฟ่า 1605
am@@ 1604
4@@ 1599
ชุม@@ 1595
ทธิ@@ 1594
ตรอน 1593
ีบ 1588
ul@@ 1586
Best 1585
ังก์ 1585
กัง@@ 1584
จริ@@ 1583
เครือ@@ 1579
เจ็บ 1576
เชียง@@ 1575
ือบ 1573
๔ 1573
คล 1572
ยศาสตร์ 1572
ไข้ 1571
เสร็@@ 1561
j@@ 1560
1986 1558
ใส@@ 1558
๕ 1557
ครัว 1550
ศึกษา@@ 1547
นายก@@ 1546
เทคโนโล@@ 1544
อล์@@ 1540
ปรึกษา 1537
”@@ 1528
Music 1526
ดน@@ 1519
มส์ 1519
1940 1518
? 1516
Th@@ 1516
ตอบรับ 1516
as 1514
สวา@@ 1514
co@@ 1513
ชล@@ 1505
สุน@@ 1505
is@@ 1504
กรัม 1499
ตถ@@ 1498
แม้@@ 1494
นิวเคล@@ 1492
x@@ 1491
ด้ว@@ 1490
ชุม 1488
ปัจจุ@@ 1484
ตุลา@@ 1483
พัฒ@@ 1483
ประหาร 1481
ขัดแย้ง 1480
School 1475
นวยการ 1473
แผ่นดิน@@ 1473
it 1471
ตะวันออก@@ 1471
ม่ 1470
ฟอร์@@ 1469
เบื้อง@@ 1469
หัส 1468
5,@@ 1466
at@@ 1465
แหล@@ 1463
เหมาะ@@ 1460
1987 1458
ห้า@@ 1458
begin 1454
สเซ@@ 1449
ap@@ 1446
to@@ 1446
เพ็@@ 1445
ur@@ 1442
มัง@@ 1441
เผย 1441
Al@@ 1437
ve 1436
ad@@ 1431
กลั@@ 1430
ทัพ@@ 1430
1.5 1428
เทค@@ 1427
ขนาด@@ 1426
Ar@@ 1424
Con@@ 1424
ิ่น@@ 1424
มาร์ก 1421
it@@ 1416
แข็ง@@ 1416
ดอลลา@@ 1415
ประถ@@ 1415
นัง 1414
120 1411
ษฐา 1411
1985 1406
หนา@@ 1404
่วง@@ 1403
ั้@@ 1399
ศิล@@ 1397
ใด@@ 1393
,000 1391
ch 1389
ism 1387
id@@ 1386
หลัง@@ 1386
Z 1385
พิท@@ 1383
ระย@@ 1382
เดียน 1382
ชิด 1381
อยู่อาศัย 1378
v@@ 1376
ตาล 1376
700 1375
ไก@@ 1375
10,000 1374
Q@@ 1373
1972 1369
ous 1369
An@@ 1367
ทธิ 1366
ลย@@ 1365
รัช@@ 1361
ขอบ@@ 1359
สอด@@ 1359
ธนา@@ 1352
นิคม 1350
วาล 1346
ฝู@@ 1344
ล้อ@@ 1344
งคา@@ 1342
ฝี@@ 1341
เคิล 1340
no 1334
กระจ@@ 1332
พระมหา@@ 1326
ทอ@@ 1325
tr@@ 1324
6,@@ 1322
ซอ@@ 1322
สีมา 1322
๐@@ 1321
ไหว 1317
ไทย@@ 1314
ae 1313
3@@ 1312
ือด 1310
ขณะ@@ 1308
ฑ 1308
ิป@@ 1304
เศร@@ 1304
com 1303
มั่นคง 1303
พิพา@@ 1302
ษฐ์ 1300
สงครามโลกครั้ง@@ 1299
ai 1298
เจ้าภาพ 1296
u@@ 1293
.ศ. 1290
National 1290
ณฑ์ 1289
ศิษ@@ 1289
Co@@ 1288
1983 1283
แพร@@ 1281
ค้น@@ 1280
di@@ 1278
ti@@ 1278
ักษ@@ 1278
๓@@ 1274
ana 1273
ec@@ 1272
ซอฟ@@ 1271
ตว@@ 1271
2.5 1270
วิชา@@ 1270
สรรค์ 1268
j 1267
ศักราช 1264
es@@ 1262
ปรุง 1259
8.@@ 1257
ent 1254
un@@ 1251
กลาย@@ 1251
3,000 1250
วิถ@@ 1250
เจา@@ 1250
ส.@@ 1249
.. 1248
[@@ 1245
z@@ 1241
In 1240
ประวั@@ 1240
li@@ 1238
ter 1238
1930 1237
My 1235
1979 1234
1968 1233
ติธรรม 1229
๊ะ 1227
อินโด@@ 1224
ชาญ 1223
7.@@ 1222
1920 1218
1982 1216
Ex@@ 1216
# 1215
1981 1213
Award 1212
man 1212
มัธย@@ 1211
ฉะ@@ 1208
เทศบาล@@ 1208
lo@@ 1205
1976 1203
สันนิ@@ 1203
ฟิก 1202
ฤ 1202
* 1200
1964 1200
20.@@ 1196
by 1196
ฬา@@ 1196
ary 1195
ลักษ@@ 1191
em@@ 1188
la 1188
อัง@@ 1185
เลี้ย@@ 1185
de@@ 1184
ล้าน@@ 1184
1941 1182
1975 1179
ed@@ 1176
่าว 1176
ฟุต@@ 1175
เวิร์ด 1172
แผ่น@@ 1171
John 1170
ภรณ์ 1170
ag@@ 1168
et@@ 1166
le@@ 1166
คาร@@ 1165
7,@@ 1164
w@@ 1163
พฤติ@@ 1163
ิต@@ 1161
วล 1160
os 1157
tic 1157
yl@@ 1155
๖ 1153
da 1150
ers 1149
1939 1148
Car@@ 1148
ภาษ@@ 1147
้าน 1146
จุฬา@@ 1143
1944 1142
ite 1140
cor@@ 1139
มิวนิ@@ 1138
ื่อง 1138
2.@@ 1135
รณะ 1134
1978 1130
100,000 1127
รรม@@ 1127
ธง@@ 1125
๙ 1125
ō 1123
ยืน@@ 1122
250 1121
AS@@ 1120
Awards 1119
− 1119
1974 1117
ure 1117
Championship 1114
with 1112
เทอร์@@ 1110
ก้า@@ 1107
มหาด@@ 1106
สนิ@@ 1106
Q 1105
ตาร์ 1105
AT@@ 1100
ab@@ 1099
ต่ำ@@ 1099
นบุรี 1098
กระทบ 1096
สาห@@ 1095
เฉล@@ 1091
ā 1088
‘ 1088
te 1087
id 1084
ata 1083
?@@ 1080
ep@@ 1078
st@@ 1078
bi@@ 1076
00@@ 1075
แคว@@ 1075
ฆ์ 1074
Di@@ 1068
ng 1065
องค์การบริหาร@@ 1065
ยุโร@@ 1061
นที่ 1059
• 1059
si@@ 1056
ศรั@@ 1051
Mon@@ 1049
age 1049
ปป@@ 1049
ระหว่าง@@ 1048
22@@ 1046
อากาศ@@ 1046
บาล@@ 1045
มณฑ@@ 1044
แก่น 1043
1@@ 1042
ase 1042
เสิร์@@ 1037
× 1036
อัก@@ 1035
๗ 1032
CD 1031
สุข@@ 1030
ong 1029
CO@@ 1028
Me 1028
ad 1028
ศั@@ 1028
0,@@ 1027
ี่ยว@@ 1027
10.@@ 1025
im@@ 1024
ทรัพยา@@ 1024
เผย@@ 1024
1969 1020
ตริ@@ 1020
แพท@@ 1020
คับ@@ 1019
ฌ 1019
1948 1018
9.@@ 1017
สัตว@@ 1017
ดก 1016
ภัก@@ 1016
ol 1015
8,@@ 1014
1967 1012
1977 1008
Mar@@ 1008
tion 1008
กบ@@ 1003
000,000 1002
1971 1001
1956 999
En@@ 999
po@@ 995
ใช@@ 994
โดด@@ 992
พว@@ 991
หาร@@ 991
อาทิ@@ 991
ang 989
ื่อง@@ 986
้วง 985
ๅ@@ 984
Man 983
กิริยา 982
1942 981
ฟุ@@ 981
King 980
Thailand 980
เที@@ 976
พิจาร@@ 975
หยุ@@ 975
ya 974
บล 974
สปี@@ 974
1973 973
ราชธานี 973
หนาว 972
ื้อง@@ 972
101 970
AR@@ 970
๘ 968
ปลด@@ 966
เฝ@@ 964
ตล@@ 963
ัติ 963
Bo@@ 962
onlyinclude 961
โภค 960
il@@ 958
3.@@ 957
000 956
เปรียบ@@ 956
รพ 955
Le@@ 953
เกา@@ 953
18.@@ 952
Par@@ 952
ü 952
It 949
ir@@ 949
De@@ 948
og@@ 948
สำเร็จ@@ 947
การ์ 945
ราชย์ 944
พวก@@ 943
่าว@@ 943
1918 942
der 941
ensis 941
บิด@@ 940
ma 939
od@@ 938
ro@@ 937
Entertainment 934
ance 930
ห์น 929
ํ 928
St@@ 927
ina 927
1936 925
เสนอ@@ 924
กลุ@@ 923
sh@@ 918
จุลจอม@@ 918
Cor@@ 917
แส 915
Br@@ 914
Se@@ 911
Tr@@ 911
ical 911
กำหนด@@ 911
oph@@ 909
1962 906
อดุลย@@ 906
ดีโอ 905
9,@@ 901
กรณี@@ 898
$ 896
ทธ 896
Team 894
un 892
พรร@@ 892
ไซต์ 891
ant 890
ษา@@ 890
se 887
900 886
ตย@@ 886
ญาต 885
1943 884
ศล 884
1963 883
IS@@ 880
ated 880
ทรัพย์@@ 880
ษั@@ 880
20,000 878
1000 877
1949 876
BC 874
ie 872
180 871
130 870
1952 869
1947 868
Star 867
ww@@ 867
ลลิ@@ 864
ah 863
ฟื้น@@ 863
ular 859
พนัก@@ 859
One 858
Un@@ 858
ator 857
1938 855
par@@ 855
III 854
ST@@ 854
1946 853
Str@@ 852
1965 851
ob@@ 849
ing@@ 848
คาร 848
ak@@ 847
ö 846
ิว 844
1958 843
หนังสือ@@ 843
เลื@@ 842
Ac@@ 841
ครอบ@@ 841
ศัย 839
่วย@@ 839
ー@@ 839
ักษณ์ 837
เด็น 837
นาคม 836
เบล@@ 836
ative 834
cell 833
คลิ@@ 833
ay 832
็อค 832
หลบ@@ 831
1966 830
Mo@@ 830
ist 830
ea 829
ó 829
ประสิทธิ@@ 829
United 828
17.@@ 827
per@@ 825
สถาปั@@ 825
1954 822
ยิน 822
1961 821
All 820
ินส์ 815
พูล 814
Group 813
ology 813
พิมพ@@ 812
ri@@ 811
พลาด 811
4,000 807
no@@ 805
American 804
Black 804
ั้ง 804
ER@@ 802
กระทรว@@ 801
สวรร@@ 800
19.@@ 799
Sp@@ 799
ปฏ@@ 799
22.@@ 798
แชมเป@@ 797
ไข 797
Battle 796
ษฐาน 796
ory 795
ป้อง@@ 794
car@@ 792
IN@@ 791
st 791
พยพ 791
ษฐ@@ 789
neur@@ 788
กว้าง@@ 788
tive 787
He@@ 786
แกร@@ 783
CA@@ 782
ang@@ 782
end@@ 782
SE@@ 780
|@@ 780
12.@@ 779
13.@@ 779
อุตสาห@@ 778
Time 777
บัญ@@ 777
สะด@@ 776
Girl 773
เตร@@ 772
สนอง 771
1959 770
CO 768
No 768
Ne@@ 764
ผู้อำ@@ 764
บรา@@ 763
College 761
ta 759
ne@@ 758
~ 758
กุม 757
mo@@ 756
พย@@ 756
+@@ 754
มุม@@ 754
5.@@ 753
Royal 752
110 751
ler 751
ida 750
ทธา 750
มว@@ 749
1919 748
City 748
็บ@@ 748
se@@ 747
อวัย@@ 747
1900 745
As@@ 745
us@@ 745
Ro@@ 744
1957 743
Me@@ 743
az@@ 743
เกิน@@ 743
ทฤษฎ@@ 742
の@@ 742
น้ำเงิน 741
sp@@ 740
11.@@ 739
1912 738
16.@@ 737
able 736
หนัง@@ 736
ฯ@@ 735
Com@@ 734
Live 734
AN@@ 733
พร้อม@@ 732
Center 729
li 729
ตน@@ 729
ลิข@@ 729
na 727
เอล 727
be 726
ให้เกิด 726
IM@@ 725
ak 724
โยง 724
RE@@ 723
ath@@ 723
ดอล@@ 722
ส่วนต@@ 722
ella 720
จากนี้ 720
ati@@ 719
อนิ@@ 718
Wrestling 717
ence 717
21.@@ 716
6.@@ 715
Col@@ 715
pi@@ 714
อุต@@ 713
เยาว@@ 713
Qu@@ 712
ซิล 712
1953 711
ics 711
ach@@ 706
ter@@ 705
140 704
ent@@ 704
ty 702
1933 701
4.@@ 701
Per@@ 701
ica 699
ig@@ 699
1955 698
mon@@ 694
หรือ@@ 693
Day 692
1917 691
50,000 691
AC 691
IC@@ 690
El@@ 689
pr@@ 688
Be@@ 687
í 687
สถิ@@ 687
Inter@@ 686
ka 686
108 684
160 683
พาณิช@@ 683
RA@@ 682
War 681
กราน 681
ン@@ 681
พรี@@ 680
La 679
นัด@@ 679
q 678
System 677
ตั้@@ 677
are 675
ยาว@@ 675
Bar@@ 674
all 674
ut@@ 674
อภิเษ@@ 674
1937 673
อิส@@ 673
anti@@ 671
av@@ 671
ตีน 671
Te@@ 670
ong@@ 670
Life 669
gen@@ 668
Or@@ 667
ถิ่นฐาน 667
http 666
system 666
หวัด 666
Tri@@ 665
ale 665
Cr@@ 664
ธีการ 664
ans 663
เพช@@ 662
MA 661
br@@ 660
UN@@ 659
พิพิธ@@ 659
ene 658
est 658
ชนะ@@ 658
Am@@ 657
Lo@@ 657
Si@@ 657
คต 656
→ 655
ton 653
เพราะ@@ 653
Association 652
ov@@ 651
ภิกษ@@ 651
360 650
from 650
6,000 649
ura 649
3.5 648
AL@@ 648
To 648
son 648
AM@@ 647
ni@@ 646
For@@ 645
colspan 645
1934 644
Super 644
ess 644
350 641
Show 640
112 639
125 639
BA 639
Ph@@ 638
1932 637
RI 637
เคา@@ 637
งคืน 635
14.@@ 633
Institute 633
เสม@@ 633
Dis@@ 632
1924 631
ts 631
นำมา@@ 631
15.@@ 630
ly 630
è 630
1,500 628
Pro@@ 627
กาศ 627
30,000 625
OS 624
tri@@ 624
1,0@@ 622
เภ@@ 622
Mas@@ 621
คัมภี@@ 621
1935 620
atus 620
High 619
ung 617
โฆ@@ 617
1928 616
ment 616
re 615
um@@ 615
ั่ง@@ 615
Po@@ 614
๖@@ 614
การ์@@ 613
2.0 611
eb@@ 611
Min@@ 610
Pr@@ 610
als 610
วัฒน@@ 610
8,000 609
เนี@@ 609
Man@@ 608
ธรรมศาสตร์ 608
ion 607
ขวั@@ 606
เมล@@ 606
AC@@ 605
1951 602
Park 602
Sub@@ 602
ผ่า@@ 602
เคียง 602
Ad@@ 601
ra 601
Academy 600
Great 599
Grand 598
Top 598
คว้า@@ 598
Bi@@ 597
On 597
ell@@ 597
hi@@ 597
สามาร@@ 597
EP 596
CE@@ 595
DC 593
House 593
di 592
อ้าง@@ 592
โมง 592
Film 591
Mag@@ 591
Science 590
St 590
ตำแหน@@ 590
style 588
ทธิ์ 588
王@@ 588
eg@@ 587
film 587
ik@@ 587
ne 586
Asia 585
William 585
ard 585
row 584
bo@@ 583
tic@@ 583
สันติ@@ 583
ara 582
นน@@ 582
str@@ 581
yr@@ 581
16@@ 580
AK@@ 580
Do@@ 580
James 580
ci@@ 580
qu@@ 580
มร 580
รรษ 580
Art 578
My@@ 578
TE@@ 578
à 578
0.5 577
Char@@ 575
105 574
ref 574
วิทยาล@@ 573
Sc@@ 572
PC 570
อาด 570
200,000 569
Gu@@ 569
MO@@ 569
ou@@ 569
ศักดิ์@@ 569
เชิ@@ 569
con@@ 568
ver@@ 568
มัธยม@@ 568
Fr@@ 567
500,000 565
Series 565
ธรรมนูญ 565
มุส@@ 565
RO@@ 564
Sch@@ 564
su@@ 563
Red 562
ประชาชาติ 562
1.2 561
Ab@@ 561
Year 561
ฝึกสอน 560
land 559
1911 558
กุม@@ 558
Ran@@ 557
บัด 557
was 555
เ 555
Hy@@ 554
osis 554
ting 554
450 553
ber@@ 553
135 552
Party 552
ac 552
บาด 552
หลาย@@ 552
CT 551
To@@ 551
1910 550
ah@@ 550
Song 549
โอลิ@@ 549
Big 548
me 548
ประสู@@ 547
ng@@ 546
大@@ 546
11,@@ 545
1914 545
Bur@@ 545
แวด@@ 544
สิก 543
าะ@@ 543
្@@ 543
1922 542
Japan 542
ini 542
BO@@ 540
ley 540
des 539
dis@@ 539
our 539
Mal@@ 537
yc@@ 537
ณห@@ 537
AG@@ 536
ให้เห็น 536
1908 535
RI@@ 535
111 534
23.@@ 534
trans@@ 533
he@@ 532
ครั้@@ 532
Young 531
cr@@ 531
MS 530
ani 530
วัติ 530
เทิง 529
Su@@ 528
10,@@ 527
Michael 527
Sol@@ 527
om 527
tex 527
ill@@ 526
era 525
่งข@@ 525
Records 524
and@@ 524
ป้อง 524
ot 523
26@@ 522
Super@@ 522
hy@@ 522
115 521
Ge@@ 521
ao 521
Night 520
Rock 520
นิธิ 520
Of 519
SS@@ 519
Cal@@ 518
List 518
ari@@ 518
อารม@@ 518
Her@@ 517
Robert 517
act 517
ay@@ 516
pre@@ 516
พิพิ@@ 516
1929 515
teams 515
IV 514
TO@@ 514
US@@ 514
วินิ@@ 514
7,000 513
ER 513
Thai 513
had 513
man@@ 513
First 512
ect 512
nucle@@ 511
1904 510
AP@@ 510
HD 510
eng@@ 508
ูด@@ 508
Ma@@ 507
น้อง@@ 507
โปรดเกล้า@@ 507
ศาจ 506
อดุ@@ 506
Project 505
ho@@ 505
30@@ 504
ness 503
กาส 503
ner@@ 502
ä 502
ตุร@@ 502
Li@@ 501
atic 501
ens 501
ian 501
te@@ 501
ศึ@@ 501
Mor@@ 500
ner 500
เบิล@@ 500
ex@@ 499
il 499
time 499
120@@ 498
codice 498
do 498
ศ์ 498
1921 497
aw@@ 497
fer@@ 497
103 496
We 496
king 496
ser@@ 496
tis 496
สงข@@ 496
Club 495
Hall 495
Pre@@ 495
so@@ 495
way 495
bu@@ 494
คาบ@@ 494
ps 492
ใช้จ่าย 492
do@@ 490
inae 490
นีเซีย 490
1925 489
220 489
acid 489
af@@ 489
ick 489
Go@@ 488
State 488
bul@@ 488
ee 488
Ap@@ 487
Windows 487
of@@ 487
ted 487
นิก 487
วัส@@ 487
1926 486
Gr@@ 486
ade 486
ที่ย@@ 486
1.6 485
116 484
Ho@@ 484
inal 484
och@@ 484
pe@@ 484
David 483
Ser@@ 483
line 483
ข้อง 483
em 482
–@@ 482
US 481
โปรแ@@ 481
ge 480
ศัตร@@ 480
form 479
kh@@ 479
กษา@@ 479
ส่ว@@ 479
Ang@@ 478
League 478
Pe@@ 478
SA 478
TH@@ 478
White 478
cu@@ 478
109 477
ce 477
ons 477
เกล้า@@ 477
106 476
1931 476
ES@@ 476
Festival 476
Miss 476
ชีวิ@@ 476
Is 475
Ta@@ 475
Trans@@ 475
WWF 475
ca 475
ei 475
-- 474
1906 474
Har@@ 474
Paul 474
Sur@@ 473
ji 473
Pol@@ 472
ile 472
เลอร์ 472
NE@@ 471
SA@@ 471
ist@@ 471
ome 471
poly@@ 471
ti 471
แน่น@@ 471
1923 470
FC 470
รวจ@@ 470
Fe@@ 469
102 468
Mer@@ 468
ors 468
ั้ง@@ 468
AN 467
SO@@ 467
So@@ 467
au 467
ox@@ 467
FI@@ 466
sub@@ 466
เลือก@@ 466
17@@ 465
oid 465
yn@@ 465
ดิโอ 465
มัก@@ 465
สำเน@@ 465
scope 464
you 464
Charles 463
DE@@ 463
Er@@ 463
Network 463
115@@ 462
PA 462
General 461
oma 461
ost@@ 461
แท้@@ 461
PS 460
Cl@@ 459
Company 459
Cup 459
States 459
TNA 459
syndrome 459
world 459
ทวี@@ 459
ala 458
Girls 457
Mel@@ 457
อาณา@@ 457
11@@ 456
127 455
CH@@ 455
George 455
Mc@@ 455
Op@@ 455
alism 455
sion 455
๙@@ 455
1927 454
7.5 454
Blue 454
LO@@ 454
ge@@ 454
Prince 453
ok 453
per 453
sa 453
su 453
4.5 452
๘@@ 452
ey 451
sc@@ 451
gr@@ 450
วัฒ@@ 450
LD 449
SP@@ 449
ai@@ 449
com@@ 449
tical 449
ung@@ 449
ียม@@ 449
Final 448
บ่อย@@ 448
AD@@ 447
Ver@@ 447
not 447
group 446
les 446
pro@@ 446
80@@ 445
DS@@ 445
York 445
ino 445
oth@@ 445
Be 444
Don 444
ality 444
den 444
los@@ 444
1896 443
NXT 443
ise 443
ker 443
sel@@ 443
Your 442
pl@@ 442
Mr 441
der@@ 441
320 440
ant@@ 440
27@@ 439
ue 439
ym@@ 439
Arts 438
Master 438
ON@@ 438
River 438
model 438
ผ 438
1890 437
Prec@@ 437
ake 437
tor 437
40,000 436
สมเด็จ@@ 436
1.8 435
Media 435
Society 435
We@@ 435
mat@@ 435
1905 434
1915 434
DA 434
ir 434
up 434
ū 434
107 433
60@@ 433
enc@@ 433
im 433
inter@@ 433
ทองค@@ 433
Im@@ 432
Queen 432
117 431
Pan@@ 431
เสบ 431
gi@@ 430
out 430
AI@@ 429
Mac@@ 429
ast@@ 429
ก็ดี 429
Bal@@ 428
aj@@ 426
ane 426
Mus@@ 425
Res@@ 425
SS 425
od 425
*@@ 424
disorder 424
ks 424
อุบัติ@@ 424
IS 423
119@@ 422
DNA 422
Research 422
Sal@@ 422
ประท@@ 422
‍ 421
iz@@ 420
1907 419
300,000 419
Cy@@ 419
Heart 419
Story 419
Up 419
15,000 418
2,500 418
AB@@ 418
eli@@ 418
ชน์ 418
ยนต@@ 418
ฮิน@@ 418
1.3 417
Little 417
NO@@ 417
ก้าว@@ 417
1913 416
AT 416
RNA 416
ore 416
ผลิต@@ 416
12,@@ 415
750 415
MP@@ 415
Ste@@ 415
non@@ 415
von 415
ธยา 415
118@@ 414
Good 414
South 414
ations 414
ha 414
ou 414
123 413
170 413
Sho@@ 413
ma@@ 413
วิวัฒ@@ 413
15@@ 412
ap 412
ประส@@ 412
007 411
AD 411
Ber@@ 411
IB@@ 411
co 411
ran@@ 411
1916 410
Act 410
CC@@ 410
EST 410
ins 410
mag@@ 410
all@@ 409
bas@@ 409
104 408
BT 408
Boy 408
Council 408
DS 408
chi@@ 408
name 408
Lin@@ 407
PE@@ 407
5.5 406
ok@@ 406
28@@ 405
down 405
me@@ 405
vi@@ 405
เหล่า@@ 405
้ล 405
China 404
ates 404
ating 404
ī 404
ยอร์@@ 404
IP 403
UTC 403
be@@ 403
114 402
Bre@@ 402
CY@@ 402
esis 402
กล้าม@@ 402
บพิ@@ 402
เคราะ@@ 402
Last 401
Pi@@ 401
Technology 401
ell 401
ole 401
q@@ 401
พิวเตอร์ 401
… 401
AP 400
East 400
ann@@ 400
go 400
sive 400
121 399
English 399
Who 399
au@@ 399
ita 399
อิตา@@ 399
MS@@ 398
net 398
tu@@ 398
British 397
ement 397
yl 397
्@@ 397
Golden 396
Hello 396
Model 396
cer@@ 396
mar@@ 396
สถ 396
หมู่@@ 396
Generation 395
Plat@@ 395
alis 395
und@@ 395
มง@@ 395
Des@@ 394
WCW 394
back 394
ens@@ 394
AS 393
Air 393
ME@@ 393
cy@@ 393
ev@@ 393
เภท 393
Asian 392
Lee 392
London 392
Sa@@ 392
True 392
dae 392
side 392
ry 391
rom@@ 390
1,200 389
IT@@ 389
ba@@ 389
ur 388
เป้า@@ 388
AL 387
ISO 387
Kingdom 387
Sw@@ 387
ys@@ 387
Val@@ 386
ich@@ 386
language 386
yp@@ 386
40@@ 385
Men 385
ium 385
เกส 385
เบต 385
CS@@ 384
DO@@ 384
RS 384
Women 384
ari 384
ish 384
ni 384
tin 384
ผู้แทน@@ 384
1800 383
Bel@@ 383
GN 383
ov 383
คุ้ม@@ 383
1870 382
Inc 382
ax 382
ly@@ 382
126 381
128 381
At@@ 381
Bangkok 381
ight 381
ind@@ 381
tor@@ 381
រ@@ 381
Dream 380
NWA 380
Open 380
ili@@ 380
that 380
イ@@ 380
1860 379
Go 379
Hol@@ 379
Special 379
ere 379
song 379
ut 379
Business 378
Dr 378
anth@@ 378
this 378
1889 377
Bl@@ 377
Game 377
No@@ 377
1871 376
Dr@@ 376
Program 376
Thomas 376
ab 376
formes 376
Ko@@ 375
Home 374
Tag 374
adi@@ 374
ato 374
33@@ 373
Dec@@ 373
ama 373
enth@@ 373
๗@@ 373
CI@@ 372
THE 372
fl@@ 372
uk@@ 372
ชัด@@ 372
ese 371
ock 371
for@@ 370
EN@@ 369
Peter 369
ada 369
ax@@ 369
ets 369
ice 369
oh@@ 369
pp@@ 369
ru@@ 369
ta@@ 369
ú 369
พิว@@ 369
LE@@ 368
People 368
field 368
their 368
ดาห์ 368
1901 367
AR 367
West 367
eng 367
Je@@ 366
MI@@ 366
ฉั@@ 366
1.4 365
Le 365
Ru@@ 365
หน่าย 365
25,000 364
Can@@ 364
{ 364
£ 364
1,4@@ 363
113 363
BF 362
ความถ@@ 362
ลัง@@ 362
ั 362
Green 361
Richard 361
SC 361
Tak@@ 361
ash@@ 361
ek@@ 361
tro@@ 361
ดื่@@ 361
1880 360
acc@@ 360
DL 359
12,000 358
Chart 358
Tour 358
ke 358
114@@ 357
330 357
Dance 357
Kar@@ 357
series 357
กำเ@@ 357
หม 357
Gen@@ 356
What 356
bl@@ 356
lu@@ 356
por@@ 356
กูล 356
ออน@@ 356
Bor@@ 355
ain 355
ational 355
cl@@ 355
col@@ 355
du 355
คล้อง 355
1898 354
Prot@@ 354
สหภาพ@@ 354
240 353
PO@@ 353
ano 353
ber 353
ki 353
ns 353
35@@ 352
IC 352
hom@@ 352
que 352
tra 352
สุนั@@ 352
118 351
Hal@@ 351
Island 351
News 351
bit 351
ides 351
1,8@@ 350
122 350
For 350
Gal@@ 350
Street 350
คล้าย@@ 350
Dragon 349
Fl@@ 349
cal@@ 349
und 349
ฤษ 349
13,@@ 348
1909 348
2400 348
ame 348
ib@@ 348
AM 347
FA 347
Hot 347
dr@@ 347
eph@@ 347
state 347
­@@ 347
α 347
PC@@ 346
ette 346
za 346
รู้ส@@ 346
14,@@ 345
Ag@@ 345
America 345
Class 345
Space 345
ency 345
fe@@ 345
ide 345
set 345
บันดา@@ 345
ยส์ 345
Global 344
Princess 344
Union 344
disease 344
receptor 344
1500 343
190 343
Sea 343
team 343
สงค์ 343
Mat@@ 342
key 342
กิโล@@ 342
1903 341
Cer@@ 341
Kh@@ 341
Season 341
Tokyo 341
ack 341
116@@ 340
1902 340
ish@@ 340
113@@ 339
117@@ 339
FM 339
ash 339
ath 339
É 339
2.2 338
Concert 338
This 338
awa 338
center 338
ection 338
eus 338
lam@@ 338
ler@@ 338
ty@@ 338
ud@@ 338
ys 338
SM@@ 337
Sar@@ 337
illa 337
ko 337
Video 336
her@@ 336
ครร@@ 336
ๅ 336
1,6@@ 335
210 335
cin@@ 335
sin@@ 335
ยาท 335
Episode 334
Is@@ 334
Pl@@ 334
Power 334
ales 334
red 334
สาบ 334
Google 333
Mah@@ 333
Management 333
Republic 333
1895 332
Anti@@ 332
Digital 332
HC 332
IV@@ 332
ast 332
ective 332
if 332
ters 332
แหน@@ 332
2.4 331
European 331
Mi@@ 331
action 331
art 331
ve@@ 331
Chinese 330
cap@@ 330
hydro@@ 330
up@@ 330
use 330
1.1 329
230 329
CD@@ 329
Hel@@ 329
Nep@@ 329
ological 329
เต็ด 329
body 328
ocy@@ 328
ye 328
ル@@ 328
San 327
mer@@ 327
yo@@ 327
ç 327
9,000 326
Lu@@ 326
ME 326
ine@@ 326
ography 326
คลาส@@ 326
จำแน@@ 326
1,9@@ 325
29@@ 325
MP 325
mi@@ 325
onic 325
Duke 324
PP@@ 324
子@@ 324
18@@ 323
70@@ 323
DVD 323
VS 323
aka 323
io 323
the@@ 323
1888 322
34@@ 322
ek 322
they 322
129 321
1899 321
Bank 321
hi 321
its 321
osa 321
ス@@ 321
1868 320
Central 320
Corporation 320
Health 320
Out 320
ding 320
edr@@ 320
light 320
lin@@ 320
member 320
self 320
天@@ 320
124@@ 319
6.5 319
Foundation 319
inc@@ 319
มหาดไทย 319
1815 318
MHz 318
ire 318
pH 318
res@@ 318
sch@@ 318
124 317
Gar@@ 317
Line 317
acy 317
ings 317
ual 317
van 317
1893 316
Airport 316
off 316
ogen@@ 316
ora 316
tidae 316
ตูน 316
1.7 315
1830 315
1867 315
Billboard 315
Cre@@ 315
Lady 315
ra@@ 315
ς@@ 315
Book 314
meth@@ 314
นรี 314
…@@ 314
ラ@@ 314
1,5@@ 313
Det@@ 313
eh@@ 313
ep 313
go@@ 313
low 313
pe 313
ō@@ 313
แกร่ง 313
60,000 312
TS 312
Ter@@ 312
amine 312
ass@@ 312
ima 312
ization 312
ship 312
Bas@@ 311
Del@@ 311
Education 311
Ti@@ 311
ein 311
ค่อน@@ 311
1848 310
AE@@ 310
Channel 310
EX@@ 310
Shi@@ 310
let 310
ราะ@@ 310
วิสุ@@ 310
1897 309
ASA 309
Bu@@ 309
Em@@ 309
God 309
SH@@ 309
du@@ 309
protein 309
ปราบ@@ 309
ผู้แทนราษฎร 309
001 308
Empire 308
Hu@@ 308
Service 308
bar@@ 308
del 308
quot 308
ตแลนด์ 308
Chi@@ 307
Tor@@ 307
Sy@@ 306
ids 306
tics 306
Henry 305
Pop 305
Sim@@ 305
Sun@@ 305
aki 305
ars 305
iss@@ 305
ula 305
Apple 304
North 304
PD 304
Pres@@ 304
Vi@@ 304
asi@@ 304
atr@@ 304
emia 304
ents 304
â 304
บัญญ@@ 304
ា@@ 304
TA 303
met@@ 303
min@@ 303
่วย 303
IA 302
Legend 302
Times 302
เยา@@ 302
เว็บ@@ 302
Law 301
Ni@@ 301
Order 301
Tre@@ 301
Way 301
eth@@ 301
medi@@ 301
tional 301
ละเอ@@ 301
Hor@@ 300
Marvel 300
aya 300
tex@@ 300
วินิจฉ@@ 300
Games 299
Out@@ 299
ach 299
pu@@ 299
tra@@ 299
อิเล็ก@@ 299
อุณห@@ 299
เที่ยว@@ 299
280 298
Development 298
Free 298
Rem@@ 298
Vol@@ 298
duc@@ 298
els 298
loc@@ 298
ster@@ 298
tions 298
กระตุ@@ 298
น้ำเ@@ 298
Cat@@ 297
ID 297
MC 297
Produc@@ 297
Road 297
muscle 297
wa 297
é@@ 297
IG@@ 296
PS@@ 296
align 296
opsis 296
24.@@ 295
Lov@@ 295
band 295
berg 295
icus 295
my 295
จักรวรร@@ 295
สุโข@@ 295
帝@@ 295
Light 294
est@@ 294
function 294
sur@@ 294
· 294
BO 293
CH 293
Design 293
EC@@ 293
Es@@ 293
Radio 293
ff@@ 293
org 293
Album 292
Family 292
Mark 292
Mir@@ 292
Rec@@ 292
ST 292
ain@@ 292
ali@@ 292
my@@ 292
ษะ 292
Edition 291
Sam@@ 291
136 290
Reg@@ 290
Star@@ 290
ena 290
ประดิ@@ 290
Mak@@ 289
Martin 289
Olympic 289
Pat@@ 289
ema 289
https 289
ja 289
ki@@ 289
la@@ 289
พระองค์@@ 289
皇@@ 289
Band 288
Fire 288
Kr@@ 288
NA 288
Television 288
Ther@@ 288
effect 288
pa 288
1878 287
Ty@@ 287
day 287
oni@@ 287
ten@@ 287
มงค@@ 287
ออส@@ 287
็ 287
1885 286
2.1 286
CA 286
Emperor 286
Like 286
Tel@@ 286
ick@@ 286
if@@ 286
less 286
mal@@ 286
กษัตริ@@ 286
Sil@@ 285
une 285
1600 284
260 284
Force 284
MTV 284
anthus 284
clu@@ 284
กษั@@ 284
ศว@@ 284
AF 283
Louis 283
Studio 283
Uni@@ 283
dia 283
gu@@ 283
lia 283
nor@@ 283
ona 283
BBC 282
Back 282
IP@@ 282
Lost 282
Public 282
lion 282
phosph@@ 282
ture 282
1892 281
BS 281
CP@@ 281
RC 281
SR 281
Sem@@ 281
dium 281
ori 281
pol@@ 281
2,0@@ 280
ABA 280
MM 280
SN@@ 280
Wor@@ 280
ense 280
istic 280
ow@@ 280
ท่อง@@ 280
Journal 279
Ros@@ 279
Saint 279
ability 279
array 279
micro@@ 279
motor 279
145 278
1850 278
Mad@@ 278
Shin@@ 278
Stadium 278
1,7@@ 277
1894 277
550 277
KO@@ 277
Poly@@ 277
gen 277
iti@@ 277
ky 277
oku 277
ola 277
ome@@ 277
ony 277
ther@@ 277
word 277
AA 276
Cyprin@@ 276
Kim 276
ef@@ 275
yg@@ 275
Fre@@ 274
Kam@@ 274
141 273
15,@@ 273
17,@@ 273
175 273
Cam@@ 273
Do 273
Mil@@ 273
VI@@ 273
fi@@ 273
ft 273
ial 273
lig@@ 273
ode 273
si 273
—@@ 273
1,3@@ 272
1840 272
250,000 272
As 272
Cap@@ 272
Old 272
Play 272
Raw 272
Sel@@ 272
iy@@ 272
ประโย@@ 272
มาณ 272
Cas@@ 271
Dark 271
Multi@@ 271
Pal@@ 271
Pro 271
ha@@ 271
Death 270
GM 270
GT@@ 270
RT 270
can@@ 270
ess@@ 270
ger 270
odi@@ 270
ē 270
400,000 269
Engineering 269
Sm@@ 269
Social 269
ely 269
hyper@@ 269
node 269
ny 269
ren@@ 269
Long 268
Summer 268
yo 268
1884 267
Du@@ 267
Han@@ 267
first 267
format 267
kin 267
left 267
oth 267
uc@@ 267
สัป@@ 267
い@@ 267
16,@@ 266
747 266
90@@ 266
ET 266
Earth 266
UK 266
type 266
ปัตย์ 266
150,000 265
1886 265
Joseph 265
Limited 265
Universal 265
cul@@ 265
ds 265
region 265
sk@@ 265
² 265
แนะ@@ 265
1861 264
2.3 264
650 264
Dem@@ 264
Ka@@ 264
Met@@ 264
Three 264
background 264
hab@@ 264
ins@@ 264
ster 264
ขึ@@ 264
Let 263
Round 263
Sup@@ 263
Tur@@ 263
onia 263
sul@@ 263
ver 263
มภ@@ 263
人@@ 263
李@@ 263
119 262
155 262
1862 262
Cur@@ 262
des@@ 262
hal@@ 262
onal 262
ton@@ 262
ug@@ 262
vol@@ 262
เลขา@@ 262
1.0 261
1891 261
36@@ 261
Div@@ 261
Ha@@ 261
ami 261
ling 261
Bro@@ 260
ail@@ 260
class 260
fr@@ 260
hem@@ 260
ilia 260
kl@@ 260
width 260
0.1 259
1789 259
Mu@@ 259
UN 259
mer 259
1866 258
De 258
GP 258
War@@ 258
fish 258
ning 258
point 258
รรยา 258
’@@ 258
Ba@@ 257
Ke@@ 257
Maria 257
SI 257
ae@@ 257
aur@@ 257
more 257
3.0 256
Tw@@ 256
inhibit@@ 256
tom@@ 256
50@@ 255
Cro@@ 255
Li 255
San@@ 255
Sun 255
Voice 255
_@@ 255
block 255
dec@@ 255
eo 255
ody 255
165 254
Cin@@ 254
Dar@@ 254
Ltd 254
TC 254
That 254
สะท@@ 254
・@@ 254
Can 253
France 253
Mur@@ 253
Syn@@ 253
Wi@@ 253
ble 253
ณิช@@ 253
山@@ 253
09.@@ 252
CC 252
anus 252
ery 252
~@@ 252
Are 251
Co 251
Gold 251
LA 251
SAR@@ 251
Sor@@ 251
Ul@@ 251
can 251
cur@@ 251
tery 251
1814 250
45@@ 250
เม็กซิ@@ 250
AF@@ 249
Audi@@ 249
Av@@ 249
Jo@@ 249
Sports 249
Win@@ 249
ack@@ 249
next 249
rec@@ 249
） 249
3.1 248
Men@@ 248
Nor@@ 248
Pap@@ 248
Sciences 248
Secret 248
amb@@ 248
ga 248
pan@@ 248
text 248
ิ่ม 248
144 247
1864 247
340 247
Now 247
ba 247
cus 247
didae 247
lidae 247
music 247
oz@@ 247
ภ์ 247
365 246
4.0 246
Car 246
Human 246
Original 246
Pseud@@ 246
SI@@ 246
Stone 246
act@@ 246
ashi 246
bre@@ 246
ful 246
pop 246
pos@@ 246
tes 246
າ@@ 246
133 245
Ch 245
Five 245
Hay@@ 245
Ur@@ 245
chi 245
eme 245
factor 245
super@@ 245
1863 244
CW 244
Four 244
GP@@ 244
Heavyweight 244
Online 244
RT@@ 244
so 244
theory 244
Cop@@ 243
DI 243
Open@@ 243
RA 243
Single 243
TR@@ 243
based 243
gang@@ 243
hin@@ 243
lateral 243
right 243
tors 243
อุบล@@ 243
1887 242
380 242
Che@@ 242
Cos@@ 242
Dol@@ 242
Federation 242
Yo@@ 242
memory 242
top 242
รวบ@@ 242
เร็ง 242
ト@@ 242
1879 241
Internet 241
Por@@ 241
amp@@ 241
bur@@ 241
oy@@ 241
xi@@ 241
County 240
GB 240
Movie 240
Museum 240
cular 240
enti@@ 240
phy@@ 240
return 240
son@@ 240
OH 239
aria 239
cas@@ 239
char@@ 239
contributor 239
ect@@ 239
โจม@@ 239
1200 238
131 238
1882 238
3.2 238
low@@ 238
oides 238
สถ์ 238
1875 237
1877 237
1881 237
CP 237
End 237
Max 237
Net@@ 237
SE 237
TVB 237
WrestleMania 237
ill 237
log 237
ulation 237
อยุ@@ 237
185 236
1865 236
Baby 236
Lord 236
Pen@@ 236
Two 236
cre@@ 236
game 236
odon 236
ret@@ 236
timestamp 236
1801 235
Al 235
Football 235
Kan@@ 235
Tar@@ 235
When 235
ace@@ 235
app@@ 235
order 235
thumb 235
yst@@ 235
ク@@ 235
132 234
137 234
201 234
AI 234
Ben@@ 234
Edward 234
GT 234
Hem@@ 234
aph@@ 234
ines 234
mas@@ 234
จัง@@ 234
์ม 234
EN 233
High@@ 233
Homo 233
La@@ 233
So 233
Treaty 233
index 233
star 233
try 233
ward 233
Fi@@ 232
Jean 232
Ly@@ 232
Microsoft 232
Sound 232
Station 232
^ 232
ez@@ 232
ray 232
som@@ 232
tur@@ 232
08.@@ 231
23,@@ 231
Az@@ 231
Jr 231
NK 231
Office 231
Over 231
Palace 231
Ram@@ 231
SD 231
kin@@ 231
lower 231
tan@@ 231
ts@@ 231
tus 231
คับ 231
0.2 230
California 230
Gro@@ 230
Kn@@ 230
Sak@@ 230
eter 230
hu@@ 230
over 230
pent@@ 230
thi@@ 230
vs 230
ปลอด@@ 230
1790 229
256 229
270 229
All@@ 229
Children 229
Double 229
Pas@@ 229
Pu@@ 229
air 229
gh@@ 229
head 229
multi@@ 229
oto 229
sy@@ 229
ten 229
ฉบ@@ 229
สู้@@ 229
เดน@@ 229
26.@@ 228
737 228
Mary 228
Road@@ 228
acter 228
ard@@ 228
ius 228
nd 228
op 228
tia 228
บัญชี@@ 228
ลงกรณ์ 228
205 227
BM@@ 227
Blood 227
IEEE 227
ith@@ 227
opo@@ 227
psych@@ 227
ros@@ 227
umi 227
war@@ 227
太@@ 227
8.5 226
850 226
ECW 226
Hero 226
Not@@ 226
Organization 226
The@@ 226
Tom@@ 226
USA 226
ants 226
cat@@ 226
del@@ 226
lan@@ 226
ones 226
tree 226
ye@@ 226
อิทธิ@@ 226
An 225
With 225
don 225
inum 225
otic 225
phot@@ 225
refle@@ 225
therapy 225
คริสต@@ 225
ッ@@ 225
25.@@ 224
CN@@ 224
CV@@ 224
FO@@ 224
Ger@@ 224
Land 224
Meg@@ 224
Na@@ 224
amin@@ 224
ey@@ 224
icul@@ 224
ies 224
play 224
ล่ม@@ 224
134 223
143 223
146 223
148 223
199 223
Johnson 223
Micro@@ 223
Moon 223
Nar@@ 223
Oc@@ 223
ati 223
ik 223
iv@@ 223
urus 223
โหม 223
シ@@ 223
Boys 222
Control 222
IT 222
Medical 222
Os@@ 222
ail 222
ania 222
pus 222
username 222
ô 222
1883 221
2.7 221
Alexander 221
Fu@@ 221
Tower 221
mac@@ 221
งคู่ 221
リ@@ 221
ABC 220
Days 220
Los 220
Play@@ 220
Roman 220
Sweet 220
TV@@ 220
anc@@ 220
aster 220
jo 220
mi 220
ro 220
­ 220
ì 220
1839 219
48@@ 219
Dor@@ 219
IL@@ 219
Index 219
Kur@@ 219
Scott 219
jpg 219
new 219
sh 219
uti@@ 219
งบ@@ 219
งเกิล 219
ท่ว@@ 219
154 218
1859 218
206 218
Cross 218
Ri@@ 218
ii 218
port 218
pres@@ 218
pul@@ 218
20,@@ 217
27.@@ 217
75@@ 217
Bad 217
Centre 217
Non@@ 217
Paris 217
code 217
elle 217
get 217
iber 217
สุทธิ์ 217
Committee 216
Impact 216
LS 216
Medi@@ 216
color 216
log@@ 216
px 216
ธัน@@ 216
1872 215
3000 215
Ash@@ 215
Bir@@ 215
Court 215
ES 215
Money 215
atidae 215
esia 215
mann 215
} 215
202 214
Dev@@ 214
Rel@@ 214
Temple 214
aci@@ 214
bone 214
ke@@ 214
number 214
ស@@ 214
中@@ 214
37@@ 213
CM@@ 213
Seven 213
Wil@@ 213
arch@@ 213
ever 213
ket 213
ri 213
sen 213
บริจา@@ 213
168 212
1700 212
2.6 212
55@@ 212
Crown 212
Far@@ 212
ION 212
ON 212
aru 212
edi@@ 212
eral 212
pal@@ 212
มศึกษา 212
1873 211
And 211
EM@@ 211
England 211
Garden 211
OR 211
\ 211
area 211
clear 211
control 211
cop@@ 211
ects 211
len@@ 211
va 211
်@@ 211
0.6 210
1820 210
208 210
Aqu@@ 210
Beautiful 210
Da@@ 210
Down 210
EL@@ 210
Kiss 210
aff@@ 210
har@@ 210
ider@@ 210
int@@ 210
ken 210
kings 210
test 210
ua 210
uli@@ 210
ush@@ 210
ā@@ 210
เยซู 210
后@@ 210
152 209
1806 209
183 209
222 209
AB 209
AND 209
AO@@ 209
Cru@@ 209
Gre@@ 209
Kong 209
Yu@@ 209
acet@@ 209
ami@@ 209
dic@@ 209
ms 209
pin@@ 209
sa@@ 209
them 209
ul 209
ute 209
ê 209
公@@ 209
142 208
151 208
Alliance 208
India 208
LC 208
Match 208
On@@ 208
osp@@ 208
syn@@ 208
til@@ 208
ทั่ง 208
ราะ 208
รูปร@@ 208
19,@@ 207
225 207
3,0@@ 207
Ban@@ 207
Fast 207
Fo@@ 207
GDP 207
If 207
Maj@@ 207
PL@@ 207
Sport 207
gly@@ 207
ub@@ 207
una 207
ventr@@ 207
well 207
ทั้@@ 207
ื 207
เวียด@@ 207
Ob@@ 206
Studios 206
agn@@ 206
eil@@ 206
mor@@ 206
our@@ 206
unc@@ 206
1874 205
1876 205
2.8 205
310 205
DE 205
LE 205
Next 205
TP 205
Universe 205
astr@@ 205
gener@@ 205
ika 205
old 205
put 205
sor@@ 205
BE 204
EC 204
Fame 204
Lake 204
UT@@ 204
Zone 204
frontal 204
have 204
tel@@ 204
พื@@ 204
ีก@@ 204
1849 203
235 203
65@@ 203
Cl 203
DF 203
Ga@@ 203
Get 203
Ham@@ 203
Il@@ 203
Lab@@ 203
Magic 203
PR@@ 203
cha 203
mic 203
ond@@ 203
yu 203
ម@@ 203
Ann@@ 202
Blo@@ 202
CR@@ 202
God@@ 202
Honda 202
Jack 202
Nations 202
Performance 202
Ray 202
Sain@@ 202
ally 202
สถา@@ 202
宗@@ 202
1858 201
AV@@ 201
Again 201
Arena 201
Bot@@ 201
Fer@@ 201
IF@@ 201
IN 201
Iron 201
Lor@@ 201
Mid@@ 201
Ol@@ 201
Pacific 201
comment 201
fer 201
lock 201
mod@@ 201
process 201
ั้ม 201
（@@ 201
1869 200
192 200
EF 200
OR@@ 200
Rose 200
SM 200
ito 200
ops 200
phen@@ 200
ze 200
จจะ 200
147 199
238 199
CS 199
Code 199
Type 199
Wars 199
XX 199
anda 199
chol@@ 199
ira 199
ital 199
เครน 199
南@@ 199
0.3 198
153 198
Air@@ 198
Bridge 198
Brown 198
Ca@@ 198
Champion 198
Gl@@ 198
Junior 198
Kat@@ 198
Kids 198
Not 198
Nov@@ 198
SmackDown 198
ko@@ 198
lar@@ 198
lis 198
path@@ 198
เก่า@@ 198
420 197
Beauty 197
Chemical 197
HE@@ 197
History 197
Hong 197
MIT 197
Som@@ 197
elli 197
esti@@ 197
inn@@ 197
มเห@@ 197
172 196
173 196
1857 196
221 196
Elec@@ 196
Happy 196
IR@@ 196
IU@@ 196
Mac 196
Nag@@ 196
Post@@ 196
air@@ 196
ault 196
bit@@ 196
ech@@ 196
oo 196
radi@@ 196
wiki 196
š 196
ตัดสิน@@ 196
District 195
Fox 195
GO 195
Hotel 195
Sing@@ 195
atory 195
data 195
den@@ 195
entr@@ 195
men 195
otr@@ 195
sw@@ 195
val@@ 195
version 195
we 195
บุรุ@@ 195
ฬิ@@ 195
ន@@ 195
、@@ 195
204 194
38@@ 194
39@@ 194
Bill 194
DB 194
Faculty 194
Got@@ 194
Language 194
Modern 194
Mol@@ 194
Rap@@ 194
Toyota 194
UR@@ 194
alm@@ 194
ass 194
etic 194
men@@ 194
space 194
β 194
มภ์ 194
178 193
1793 193
Christian 193
Division 193
Sav@@ 193
Smith 193
mel@@ 193
pel@@ 193
！@@ 193
158 192
184 192
212 192
44@@ 192
99@@ 192
Army 192
Brothers 192
Cel@@ 192
Church 192
Computer 192
EA 192
ED 192
Ir@@ 192
Kor@@ 192
Pot@@ 192
VO@@ 192
ide@@ 192
lat@@ 192
only 192
plas@@ 192
will 192
เมริ@@ 192
0.8 191
166 191
Bat@@ 191
Commission 191
Comp@@ 191
Ed@@ 191
HTML 191
Hi@@ 191
Ku@@ 191
Pur@@ 191
Woman 191
ace 191
atum 191
ear@@ 191
law 191
mm 191
ote 191
thr@@ 191
ume 191
‌ 191
2,9@@ 190
4.2 190
Chris 190
El 190
GO@@ 190
Mot@@ 190
Nak@@ 190
ays 190
bin@@ 190
æ 190
ฅ@@ 190
จืด 190
18,@@ 189
22,@@ 189
303 189
CT@@ 189
From 189
SP 189
active 189
channel 189
die 189
prot@@ 189
tion@@ 189
we@@ 189
would 189
138 188
193 188
301 188
Artist 188
IX 188
Jackson 188
Korea 188
Na 188
alization 188
eri@@ 188
ford 188
lip@@ 188
occus 188
sey 188
station 188
ตอม 188
เจ้าอยู่@@ 188
1.9 187
1792 187
315 187
430 187
BB 187
Box 187
Knight 187
Operation 187
Ring 187
Run@@ 187
Standard 187
Vo@@ 187
bic@@ 187
leg 187
opath@@ 187
spec@@ 187
ust 187
value 187
ดอลลาร์@@ 187
แปซิ@@ 187
文@@ 187
156 186
163 186
2,6@@ 186
46@@ 186
Agency 186
FF 186
Once 186
cher 186
estr@@ 186
eta 186
he 186
otro@@ 186
DV@@ 185
Data 185
Kal@@ 185
Over@@ 185
Tan@@ 185
VE 185
Web 185
album 185
apo@@ 185
att@@ 185
book 185
hum@@ 185
igh@@ 185
ites 185
lic 185
รรม 185
0.4 184
157 184
BSD 184
Blu@@ 184
Fin@@ 184
Ig@@ 184
Information 184
Ky@@ 184
Magazine 184
Mul@@ 184
Stage 184
Version 184
odon@@ 184
ogr@@ 184
other@@ 184
sem@@ 184
wood 184
ア@@ 184
195 183
3.6 183
Cu@@ 183
Die 183
Ji@@ 183
KBS 183
MI 183
MT 183
MV 183
May@@ 183
Pin@@ 183
Real 183
SF 183
Sen@@ 183
Stars 183
WC 183
ali 183
ex 183
life 183
ปรากฏ@@ 183
แ 183
三@@ 183
元@@ 183
Bul@@ 182
Imperial 182
Vol 182
Web@@ 182
anterior 182
bor@@ 182
inger 182
ister 182
sen@@ 182
vir@@ 182
‘@@ 182
1795 181
777 181
99.@@ 181
CL@@ 181
Cle@@ 181
Count@@ 181
Heaven 181
Hill 181
Islands 181
KO 181
Leg@@ 181
Mod@@ 181
PM 181
PT@@ 181
Part 181
Spir@@ 181
Under@@ 181
ature 181
ip@@ 181
pyr@@ 181
single 181
ush 181
zen 181
สัมผ@@ 181
167 180
1854 180
265 180
Age 180
Ak@@ 180
HO@@ 180
Harry 180
How 180
Mountain 180
New@@ 180
Second 180
Tom 180
box 180
ff 180
ham@@ 180
hr@@ 180
ple 180
°@@ 180
แชมป์@@ 180
國@@ 180
2,4@@ 179
47@@ 179
999 179
Gor@@ 179
Hom@@ 179
Ju@@ 179
Just 179
Plan@@ 179
Sin@@ 179
Sle@@ 179
Yam@@ 179
alb@@ 179
ico 179
len 179
mus@@ 179
obi@@ 179
ori@@ 179
polar@@ 179
ves 179
ตกล@@ 179
เมียร์ 179
189 178
2,8@@ 178
309 178
Ci@@ 178
Government 178
HA 178
Nam@@ 178
Steve 178
Tal@@ 178
Theatre 178
Wall 178
dy 178
hol@@ 178
iki 178
mg 178
ocar@@ 178
ord@@ 178
ow 178
sus 178
top@@ 178
0.7 177
181 177
1831 177
214 177
216 177
Aer@@ 177
Arthur 177
Core 177
Hydro@@ 177
Indian 177
NS@@ 177
Sir 177
Studies 177
Tu@@ 177
Water 177
Yes 177
Ze@@ 177
bias 177
case 177
cle 177
ero 177
ich 177
inf@@ 177
love 177
ney 177
ny@@ 177
sin 177
thys 177
umb@@ 177
ysis 177
203 176
Fal@@ 176
ING 176
LP 176
Lim@@ 176
PW 176
Pa@@ 176
Proc@@ 176
Revolution 176
SBS 176
She@@ 176
Sky 176
aker 176
bus 176
eum 176
list 176
match 176
oli 176
tar@@ 176
tim@@ 176
な@@ 176
神@@ 176
1837 175
3.4 175
Astr@@ 175
Economic 175
FF@@ 175
Gi@@ 175
Jones 175
Wal@@ 175
Wh@@ 175
eri 175
mit@@ 175
tric 175
water 175
yi 175
ภาพยนต@@ 175
อาช@@ 175
179 174
191 174
196 174
3.3 174
Action 174
CE 174
Championships 174
Eff@@ 174
Francis 174
GN@@ 174
German 174
Holy 174
Red@@ 174
Rob@@ 174
Var@@ 174
YouTube 174
ans@@ 174
bar 174
ello 174
ger@@ 174
glu@@ 174
ih@@ 174
lab@@ 174
pedia 174
take 174
ダ@@ 174
1812 173
182 173
1845 173
2,7@@ 173
ATP 173
Eur@@ 173
French 173
Head 173
Japanese 173
Mis@@ 173
NT 173
SW@@ 173
TE 173
cel@@ 173
cogni@@ 173
enia 173
ham 173
ku 173
like 173
oa 173
ota 173
ural 173
weight 173
ទ@@ 173
武@@ 173
--- 172
139 172
149 172
162 172
1851 172
Angel 172
Bay 172
Christmas 172
Dead 172
Duch@@ 172
Energy 172
Hon@@ 172
Justice 172
Medicine 172
NET 172
Nature 172
Nissan 172
Soul 172
Trav@@ 172
WHO 172
Zh@@ 172
not@@ 172
qui@@ 172
sens@@ 172
sil@@ 172
ประชาธิ@@ 172
ปไต@@ 172
2023 171
480 171
Actress 171
Ali@@ 171
App@@ 171
CDC 171
CIA 171
Dro@@ 171
GA 171
MR 171
Never 171
ching 171
gic 171
mal 171
ots 171
search 171
sum@@ 171
var 171
zone 171
‎ 171
161 170
1791 170
1856 170
251 170
Convention 170
May 170
NT@@ 170
Rainbow 170
VI 170
complex 170
eous 170
ila 170
ost 170
parentid 170
rot@@ 170
solid 170
ties 170
trac@@ 170
−@@ 170
1824 169
304 169
375 169
Ben 169
CU 169
Express 169
Grammy 169
Mobile 169
Search 169
bot@@ 169
ental 169
inus 169
ith 169
ities 169
ket@@ 169
national 169
ois 169
room 169
second 169
umin@@ 169
video 169
ville 169
which 169
169 168
21,@@ 168
After 168
Come 168
Raj@@ 168
Right 168
Tran@@ 168
Tro@@ 168
Will 168
ats 168
ici@@ 168
nom@@ 168
power 168
sal@@ 168
}@@ 168
ñ 168
金@@ 168
，@@ 168
1821 167
1852 167
215 167
28.@@ 167
370 167
JR 167
Mand@@ 167
Wit@@ 167
YO@@ 167
analysis 167
az 167
bal@@ 167
cip@@ 167
eria 167
form@@ 167
ichi 167
media 167
membrane 167
oon 167
vo@@ 167
ø 167
カ@@ 167
177 166
Area 166
COVI@@ 166
Challenge 166
Champions 166
Joe 166
Mos@@ 166
Most 166
ectus 166
face 166
free 166
house 166
into 166
lev 166
public 166
tro 166
uk 166
แอต@@ 166
朝@@ 166
3.7 165
AO 165
Brass@@ 165
Century 165
Fantasy 165
Full 165
MB 165
PP 165
Press 165
SD@@ 165
Santa 165
Side 165
ago 165
chin@@ 165
iro 165
oni 165
pen@@ 165
polar 165
ser 165
where 165
25,@@ 164
29.@@ 164
Aut@@ 164
Bab@@ 164
DR 164
Hospital 164
Oh 164
PAC 164
SO 164
Square 164
arg@@ 164
cos@@ 164
dy@@ 164
fac@@ 164
has@@ 164
hydr@@ 164
then 164
tw@@ 164
wan 164
นแรง 164
ศึกษาธิการ 164
国@@ 164
西@@ 164
1828 163
194 163
209 163
Arch@@ 163
Der@@ 163
Doctor 163
Future 163
Hir@@ 163
Nan@@ 163
PG 163
Ple@@ 163
Prim@@ 163
RN@@ 163
Spe@@ 163
Stephen 163
Wo@@ 163
aden@@ 163
ban@@ 163
ck 163
core 163
ential 163
mot@@ 163
post@@ 163
ī@@ 163
明@@ 163
2,5@@ 162
36,@@ 162
410 162
Country 162
Jazz 162
Room 162
ev 162
iri 162
ker@@ 162
ment@@ 162
pur@@ 162
sky 162
tho@@ 162
tle 162
uch@@ 162
urs 162
were 162
จรา@@ 162
วัตถ@@ 162
Ay@@ 161
Elizabeth 161
Face 161
GE 161
Pit@@ 161
Tim@@ 161
ady 161
ani@@ 161
any 161
dem@@ 161
ku@@ 161
mu@@ 161
rel@@ 161
rol@@ 161
sing 161
uki 161
171 160
174 160
305 160
Conn@@ 160
Dom@@ 160
GS 160
March 160
Return 160
Rev@@ 160
gro@@ 160
hor@@ 160
illi@@ 160
omy@@ 160
people 160
virus 160
ã 160
1300 159
26,@@ 159
67@@ 159
Albums 159
Disney 159
Lev@@ 159
MO 159
Marie 159
Meth@@ 159
Mind 159
Point 159
Songs 159
Town 159
html 159
major 159
prop@@ 159
sol@@ 159
พฤษภา@@ 159
78@@ 158
Anatom@@ 158
Bus@@ 158
Coll@@ 158
Ele@@ 158
Good@@ 158
Her 158
Neur@@ 158
Only 158
PR 158
Peace 158
Prize 158
Sk@@ 158
cho@@ 158
ci 158
icle 158
ister@@ 158
itz 158
oli@@ 158
ose 158
rate 158
คที@@ 158
マ@@ 158
1853 157
239 157
Black@@ 157
CR 157
Daniel 157
Gam@@ 157
His 157
Intel 157
Mem@@ 157
Shar@@ 157
bot 157
brid 157
ein@@ 157
lum 157
olo@@ 157
oscop@@ 157
oxid@@ 157
rock 157
yan@@ 157
វ@@ 157
ん@@ 157
176 156
1832 156
1841 156
Boy@@ 156
DP 156
Fel@@ 156
Fil@@ 156
Frank 156
Gener@@ 156
Hell 156
Karl 156
Kas@@ 156
Pictures 156
Take 156
Triple 156
allo@@ 156
boy 156
ett 156
fa 156
factory 156
ison 156
kg 156
lob@@ 156
long@@ 156
mes@@ 156
orum 156
ough 156
potential 156
sis 156
ulus 156
uz@@ 156
verse 156
vin@@ 156
xy@@ 156
ยยศ 156
ลใจ 156
ド@@ 156
306 155
460 155
@ 155
Bac@@ 155
Fran@@ 155
Fri@@ 155
Fut@@ 155
Les 155
Mes@@ 155
Place 155
Ren@@ 155
Wat@@ 155
ben@@ 155
ideae 155
kar@@ 155
surface 155
tig@@ 155
uri 155
war 155
± 155
กาศ@@ 155
มาเล@@ 155
วอลเล@@ 155
か@@ 155
ジ@@ 155
이@@ 155
243 154
Bay@@ 154
Bec@@ 154
GC 154
Middle 154
More 154
PCR 154
Screen 154
Singer 154
Tour@@ 154
Ven@@ 154
emp@@ 154
iko 154
stere@@ 154
wave 154
レ@@ 154
城@@ 154
159 153
211 153
217 153
308 153
Blind 153
Cast@@ 153
Child 153
Fe 153
Mode 153
Natural 153
Pri@@ 153
Pul@@ 153
Py@@ 153
Tree 153
Wild 153
Years 153
aris 153
ayer 153
dor@@ 153
eless 153
fo@@ 153
iTunes 153
isti@@ 153
lin 153
map 153
osph@@ 153
superior 153
州@@ 153
平@@ 153
新@@ 153
1803 152
1847 152
Fashion 152
Kir@@ 152
Lam@@ 152
Land@@ 152
NO 152
Our 152
Production 152
Psych@@ 152
Youth 152
isi@@ 152
1808 151
1825 151
2300 151
4,0@@ 151
Autom@@ 151
Department 151
Direc@@ 151
LG@@ 151
Pun@@ 151
Rom@@ 151
Visual 151
assi@@ 151
board 151
ike 151
itation 151
method 151
orders 151
plication 151
rowspan 151
sap@@ 151
stone 151
 @@ 151
‎@@ 151
′ 151
1805 150
1835 150
246 150
Angeles 150
Cathedral 150
Dic@@ 150
Eastern 150
Short 150
aga 150
agonal 150
ais@@ 150
cape 150
elec@@ 150
gas@@ 150
her 150
mp@@ 150
ony@@ 150
over@@ 150
pes 150
ph 150
table 150
ven@@ 150
zi 150
zi@@ 150
จัย 150
ฟริ@@ 150
ลเลียม 150
43@@ 149
5000 149
AST 149
Bra@@ 149
Know 149
Mic@@ 149
Obj@@ 149
Pic@@ 149
Pierre 149
Radi@@ 149
Rain 149
VII 149
ades 149
hypo@@ 149
mati@@ 149
mon 149
pa@@ 149
tom 149
yro@@ 149
ក@@ 149
186 148
187 148
200@@ 148
207 148
223 148
Am 148
Broadcasting 148
Enter@@ 148
FIFA 148
Friends 148
Machine 148
Motor 148
Vis@@ 148
etta 148
gar@@ 148
gene 148
ier 148
int 148
print 148
work 148
yn 148
yrus 148
ฬา 148
一@@ 148
1799 147
295 147
323 147
4.1 147
Acanth@@ 147
Ali 147
Conference 147
Ep@@ 147
Fantas@@ 147
Field 147
Food 147
Hen@@ 147
Idol 147
Phot@@ 147
Sec@@ 147
Stop 147
Works 147
Xi@@ 147
agin@@ 147
ate@@ 147
chrom@@ 147
hiz@@ 147
idi@@ 147
ind 147
mark 147
oshi 147
ple@@ 147
uy@@ 147
your 147
าคม 147
安@@ 147
1660 146
1826 146
Animation 146
Bell 146
By 146
Call 146
Castle 146
Director 146
Got 146
Kevin 146
Protocol 146
RIAA 146
SU@@ 146
Sony 146
Southern 146
Spring 146
back@@ 146
but 146
ce@@ 146
emb@@ 146
fication 146
gl@@ 146
minor 146
ui 146
μ 146
ာ@@ 146
☆ 146
し@@ 146
江@@ 146
1844 145
30.@@ 145
49@@ 145
AW@@ 145
Board 145
Ful@@ 145
Hz 145
Johnny 145
Kit@@ 145
LED 145
Pter@@ 145
Ra@@ 145
SL@@ 145
don@@ 145
dorsal 145
family 145
fin@@ 145
kr@@ 145
network 145
ories 145
pattern 145
sti@@ 145
through 145
tre@@ 145
uck 145
เดียวกับ 145
之@@ 145
164 144
255 144
4.3 144
Ai 144
Dan@@ 144
Freedom 144
Gate 144
Here 144
Lon@@ 144
Luc@@ 144
Mess@@ 144
Name 144
Pop@@ 144
Rhin@@ 144
Stre@@ 144
Van@@ 144
ages 144
aku 144
eon 144
ink 144
lo 144
social 144
tube 144
uma 144
uni@@ 144
vel@@ 144
zo 144
オ@@ 144
海@@ 144
1648 143
1813 143
Classification 143
Make 143
Rus@@ 143
Sus@@ 143
aha 143
asis 143
change 143
dys@@ 143
eling 143
fly 143
gal@@ 143
ident 143
load 143
mail 143
ometr@@ 143
oy 143
press 143
sam@@ 143
trop@@ 143
ule 143
zu 143
ə 143
ロ@@ 143
06.@@ 142
1400 142
501 142
950 142
AG 142
African 142
Anim@@ 142
Bachelor 142
CV 142
Change 142
Common 142
Romance 142
Spec@@ 142
Vir@@ 142
ader 142
conver@@ 142
ew@@ 142
rd 142
ł 142
ウ@@ 142
漢@@ 142
1822 141
227 141
29,@@ 141
302 141
57@@ 141
ARA 141
Apo@@ 141
Chicago 141
Dynasty 141
Flo@@ 141
Gol@@ 141
Hard@@ 141
Lamb@@ 141
MBC 141
Sky@@ 141
aw 141
ech 141
eck 141
gn@@ 141
lem@@ 141
sea 141
sec@@ 141
sia 141
usa 141
wh@@ 141
มพู@@ 141
รัมย์ 141
เจร@@ 141
高@@ 141
1080 140
1649 140
1842 140
24,@@ 140
252 140
290 140
37,@@ 140
56@@ 140
660 140
Access 140
Classic 140
Congress 140
ESPN 140
Heroes 140
JT@@ 140
Washington 140
alist 140
anna 140
asc@@ 140
ave 140
dom@@ 140
osus 140
phon@@ 140
tal@@ 140
tem@@ 140
two 140
white 140
wrest@@ 140
xi 140
การี 140
บัติ@@ 140
ត@@ 140
ャ@@ 140
1603 139
1707 139
2024 139
249 139
27,@@ 139
3,5@@ 139
3.8 139
307 139
4.6 139
58@@ 139
AV 139
Actor 139
BL@@ 139
Deep 139
Don@@ 139
Equ@@ 139
Eric 139
Forest 139
Korean 139
Number 139
Ry@@ 139
Sex@@ 139
Van 139
Virgin 139
agon 139
angle 139
aro 139
aus@@ 139
ellidae 139
enz@@ 139
illy 139
les@@ 139
link 139
ll 139
phase 139
py@@ 139
sk 139
ǎ 139
　@@ 139
道@@ 139
1783 138
1836 138
1846 138
1855 138
5.1 138
720 138
Albert 138
Fair@@ 138
Gang@@ 138
INE 138
Player 138
Pon@@ 138
Prun@@ 138
Rid@@ 138
See 138
She 138
Silver 138
Sir@@ 138
Sn@@ 138
Zero 138
gia 138
his 138
level 138
oxy@@ 138
ron@@ 138
size 138
197 137
28,@@ 137
Crazy 137
Dre@@ 137
Han 137
Long@@ 137
SL 137
Security 137
ag 137
bin 137
ble@@ 137
fied 137
min 137
pot@@ 137
ste@@ 137
tica 137
wn 137
wor@@ 137
วัค@@ 137
แลก@@ 137
劉@@ 137
왕@@ 137
188 136
198 136
333 136
440 136
53@@ 136
59@@ 136
Andrew 136
Bowl 136
DD 136
DI@@ 136
Den@@ 136
Drama 136
Ker@@ 136
Ki@@ 136
Mit@@ 136
Nine 136
Run 136
Sac@@ 136
Sap@@ 136
UI 136
XIII 136
centr@@ 136
football 136
land@@ 136
root 136
verte@@ 136
ying 136
ylo@@ 136
မ@@ 136
バ@@ 136
275 135
285 135
911 135
AJ 135
Adam 135
Bak@@ 135
Bon@@ 135
Cat 135
Count 135
Edge 135
Eth@@ 135
IL 135
Ji 135
Mini 135
Monster 135
RPG 135
Rat@@ 135
UL@@ 135
Up@@ 135
Vit@@ 135
Wa@@ 135
Wonder 135
arr@@ 135
ecus 135
eki 135
ela 135
oi 135
oker 135
oton@@ 135
school 135
tric@@ 135
กองทัพ@@ 135
ราชภั@@ 135
1804 134
234 134
3,9@@ 134
5.0 134
5.7 134
6.3 134
Administration 134
Advanced 134
But@@ 134
Earl 134
Ghost 134
IW@@ 134
PN 134
SH 134
Sig@@ 134
Tiger 134
aling 134
cm 134
def 134
gi 134
ider 134
oil 134
orn 134
ort 134
pas@@ 134
primary 134
vesti@@ 134
ò 134
1701 133
1796 133
1802 133
1810 133
218 133
AU 133
Away 133
Din@@ 133
Dur@@ 133
EV@@ 133
Fi 133
HBO 133
HS 133
Hum@@ 133
Si 133
Slam 133
Ten@@ 133
UC@@ 133
UR 133
VC 133
WW@@ 133
Western 133
asa 133
ater 133
ector 133
eti@@ 133
flow 133
han 133
illus 133
itis 133
matrix 133
nh@@ 133
out@@ 133
part 133
san@@ 133
trace 133
vers 133
visual 133
yth@@ 133
ฝ 133
ลี้@@ 133
日@@ 133
1794 132
264 132
286 132
30,@@ 132
34,@@ 132
AE 132
Beh@@ 132
Camb@@ 132
HD@@ 132
Hat@@ 132
Hollywood 132
Khan 132
Lat@@ 132
Ocean 132
Pep@@ 132
Rab@@ 132
Roc@@ 132
Shu@@ 132
Wang 132
Whe@@ 132
alia 132
burg@@ 132
but@@ 132
ean 132
fus@@ 132
ign@@ 132
off@@ 132
species 132
อีย@@ 132
「@@ 132
245 131
CEO 131
CG 131
Cir@@ 131
Collection 131
DJ 131
Ear@@ 131
Gir@@ 131
Wu 131
aer@@ 131
age@@ 131
any@@ 131
bil@@ 131
cycle 131
eu@@ 131
iPhone 131
nig@@ 131
ods 131
pith@@ 131
sac@@ 131
ump@@ 131
wal@@ 131
สวี@@ 131
グ@@ 131
1843 130
228 130
244 130
253 130
Amp@@ 130
Drive 130
Fol@@ 130
Hit@@ 130
Kin@@ 130
Ok@@ 130
Six@@ 130
Software 130
Theory 130
Voc@@ 130
ape@@ 130
ards 130
bra 130
dian 130
flu@@ 130
mol 130
posterior 130
wel@@ 130
ˈ 130
ເ@@ 130
07.@@ 129
1650 129
1798 129
1817 129
232 129
247 129
640 129
Amar@@ 129
Ass@@ 129
CBS 129
Dynam@@ 129
Hab@@ 129
ICE 129
Jan 129
Jur@@ 129
Key 129
Library 129
McMahon 129
Mike 129
Off 129
Popular 129
Wonder@@ 129
aea 129
amo@@ 129
bon 129
dro@@ 129
extr@@ 129
gran@@ 129
ho 129
immun@@ 129
ize 129
peri@@ 129
reg@@ 129
sy 129
tha 129
who 129
โยธ@@ 129
ガ@@ 129
226 128
241 128
258 128
36.@@ 128
4.8 128
Federal 128
Fur@@ 128
Hunter 128
II@@ 128
Kon@@ 128
Mars 128
Orchestra 128
PV 128
Rot@@ 128
Sha@@ 128
Speed 128
Swe@@ 128
Tam@@ 128
Tony 128
Warner 128
aim@@ 128
ert 128
ground 128
ized 128
ous@@ 128
oxide 128
rit@@ 128
show 128
tre 128
uv@@ 128
ณะ@@ 128
ยาย@@ 128
た@@ 128
タ@@ 128
光@@ 128
地@@ 128
4.4 127
68@@ 127
76@@ 127
88@@ 127
Africa 127
BN 127
Ball@@ 127
Box@@ 127
Capital 127
Civil 127
Cul@@ 127
Culture 127
EM 127
Fall 127
Front 127
HV@@ 127
Ice 127
Let@@ 127
MR@@ 127
Mission 127
Nic@@ 127
Post 127
Rights 127
WA 127
WS 127
ait 127
bert 127
bi 127
da@@ 127
enn@@ 127
ille 127
lers 127
macro@@ 127
mis@@ 127
nu@@ 127
sal 127
sion@@ 127
upper 127
≤ 127
대@@ 127
1100 126
1776 126
1807 126
1834 126
3,7@@ 126
32,@@ 126
325 126
Bit@@ 126
Carl 126
Choice 126
Electronic 126
He 126
Hil@@ 126
IE@@ 126
Jan@@ 126
Jim 126
Law@@ 126
MB@@ 126
Plus 126
SQL 126
Viol@@ 126
Wind 126
ading 126
ava 126
ele 126
has 126
max 126
opus 126
revision 126
tam@@ 126
trol@@ 126
ǐ 126
ฃ 126
ฦ@@ 126
สุล@@ 126
ົ@@ 126
女@@ 126
1066 125
2.9 125
224 125
520 125
At 125
Cyc@@ 125
DL@@ 125
Democratic 125
FDA 125
Fly 125
Fres@@ 125
Hand@@ 125
Has@@ 125
Jac@@ 125
Lic@@ 125
ML@@ 125
Om@@ 125
PE 125
Supreme 125
Under 125
WG 125
Where 125
XML 125
aba 125
ado 125
agne@@ 125
che 125
ern@@ 125
ez 125
fol@@ 125
gy 125
ix 125
mission 125
oke 125
omat@@ 125
pap@@ 125
sim@@ 125
tism 125
town 125
trial 125
ไหม@@ 125
戦@@ 125
237 124
242 124
ACT 124
Australian 124
Born 124
CI 124
Da 124
Executive 124
Eyes 124
Hyper@@ 124
Ox@@ 124
Prom@@ 124
Shanghai 124
Thi@@ 124
ains 124
also 124
amen 124
dol@@ 124
oral 124
orr@@ 124
tag@@ 124
เฉลิ@@ 124
宋@@ 124
1809 123
35,@@ 123
5.2 123
787 123
85@@ 123
AZ@@ 123
Bil@@ 123
Columbia 123
DM 123
HF 123
Imag@@ 123
Ken@@ 123
LAN 123
Lion 123
Record 123
Sat@@ 123
Scar@@ 123
Scre@@ 123
Tru@@ 123
acle 123
agent 123
anger 123
atin 123
box@@ 123
brain 123
cal 123
inidae 123
mic@@ 123
nia 123
ski 123
sp 123
stri@@ 123
สิงค@@ 123
@@ 123
3.9 122
311 122
625 122
About 122
Authority 122
Beach 122
Bub@@ 122
Deb@@ 122
ET@@ 122
Eng@@ 122
Every@@ 122
Evil 122
Forever 122
Fro@@ 122
ID@@ 122
Lac@@ 122
Memorial 122
Nik@@ 122
PO 122
Picture 122
Ret@@ 122
Sand@@ 122
Show@@ 122
Tit@@ 122
Winter 122
city 122
etal 122
graphy 122
hip 122
ight@@ 122
ists 122
mph 122
ped@@ 122
pi 122
porting 122
sexual 122
tiv@@ 122
year 122
ังก@@ 122
る@@ 122
小@@ 122
1640 121
1838 121
294 121
4.7 121
54@@ 121
6.2 121
Australia 121
Bol@@ 121
Community 121
Diamond 121
Down@@ 121
Fac@@ 121
Higher 121
IO@@ 121
Perfect 121
Simon 121
Son@@ 121
Valley 121
ands 121
bo 121
dom 121
epo@@ 121
nm 121
ry@@ 121
scale 121
sing@@ 121
stream 121
tos 121
zh 121
มารี 121
รวด@@ 121
້@@ 121
う@@ 121
学@@ 121
0.0@@ 120
0.9 120
1818 120
Architecture 120
Clar@@ 120
Fair 120
Florida 120
HT 120
IBM 120
IF 120
Link 120
Mut@@ 120
Neg@@ 120
Power@@ 120
Report 120
TH 120
There 120
Tomorrow 120
Vel@@ 120
amm@@ 120
arc@@ 120
ation@@ 120
base 120
bel@@ 120
cc 120
dynasty 120
ging 120
hist@@ 120
irus 120
layer 120
med@@ 120
metabol@@ 120
mo 120
oly@@ 120
ses 120
tain@@ 120
wo@@ 120
มัธ@@ 120
----@@ 119
1819 119
213 119
262 119
74@@ 119
802.@@ 119
Assembly 119
Beat 119
Case 119
Cour@@ 119
Dreams 119
FE 119
Giovanni 119
Gy@@ 119
Hun@@ 119
Kom@@ 119
MA@@ 119
MAX 119
Masters 119
Planet 119
Say 119
They 119
Yu 119
algorith@@ 119
bs 119
ces 119
een 119
entia 119
fu@@ 119
ges 119
iting 119
je@@ 119
lic@@ 119
nar 119
ox 119
prim@@ 119
ree 119
river 119
xin 119
ć 119
€ 119
河@@ 119
白@@ 119
1797 118
219 118
272 118
38.@@ 118
6.6 118
AAA 118
ACC 118
AFC 118
Alan 118
Anne 118
Contest 118
Flash 118
Fle@@ 118
Ing@@ 118
Mill@@ 118
PRO@@ 118
Pav@@ 118
RF 118
Rod@@ 118
Store 118
View 118
Walter 118
adi 118
alus 118
ano@@ 118
ary@@ 118
bat@@ 118
central 118
ematic 118
ending 118
esh@@ 118
ges@@ 118
iens 118
olog@@ 118
ols 118
ope 118
pat@@ 118
pid 118
position 118
stein 118
study 118
usion 118
val 118
wikitext 118
ปรัช@@ 118
เวณ 118
ニ@@ 118
276 117
390 117
4000 117
5.6 117
540 117
64@@ 117
Alone 117
Chemistry 117
DA@@ 117
Era 117
Ford 117
Galaxy 117
Gas@@ 117
Heter@@ 117
Him@@ 117
Official 117
ROM 117
SK@@ 117
Services 117
Set 117
Tales 117
Unit 117
XX@@ 117
amid 117
arium 117
ca@@ 117
eal 117
erg@@ 117
find 117
imi 117
mental 117
mid@@ 117
nd@@ 117
ogen 117
omb@@ 117
platform 117
server 117
tin@@ 117
α@@ 117
ฃ@@ 117
ศิลปา@@ 117
家@@ 117
1833 116
229 116
268 116
278 116
3,6@@ 116
39,@@ 116
AX 116
Alice 116
Bob 116
Bun@@ 116
Ca 116
Cold 116
Devil 116
Docum@@ 116
King@@ 116
Main 116
Nation 116
Neo@@ 116
Oxford 116
Philip 116
Russian 116
Sab@@ 116
TG@@ 116
Vari@@ 116
Williams 116
af 116
agus 116
aqu@@ 116
cs 116
fil@@ 116
ign 116
most 116
oria 116
round 116
ures 116
wa@@ 116
ways 116
wi@@ 116
สโม@@ 116
อัลบ@@ 116
เติบ@@ 116
ប@@ 116
生@@ 116
馬@@ 116
1642 115
269 115
Ball 115
Beg@@ 115
Canada 115
Dun@@ 115
Emer@@ 115
Europe 115
Facebook 115
Gil@@ 115
Mont@@ 115
Mother 115
Motion 115
Net 115
PN@@ 115
Singh 115
Talk 115
Test 115
Wave 115
aging 115
andra 115
asure 115
cells 115
chen 115
date 115
ido 115
mRNA 115
nal 115
pot 115
range 115
tal 115
tas@@ 115
unt 115
に@@ 115
1644 114
Ari@@ 114
Butter@@ 114
Cich@@ 114
Clin@@ 114
Concep@@ 114
Morning 114
Nav@@ 114
Nu@@ 114
Pseudo@@ 114
Space@@ 114
Sph@@ 114
Sunday 114
Tesla 114
UM@@ 114
Ye@@ 114
aen@@ 114
bro@@ 114
ceph@@ 114
col 114
ebr@@ 114
ils 114
je 114
onidae 114
temporal 114
yan 114
อังก@@ 114
1609 113
386 113
401 113
639 113
Auto 113
Band@@ 113
Dog@@ 113
Dou@@ 113
Gun@@ 113
Gund@@ 113
Johann 113
Orange 113
Pel@@ 113
Pharm@@ 113
Province 113
Sax@@ 113
Sister 113
Sl@@ 113
Spar@@ 113
Systems 113
Texas 113
XP 113
achi 113
ais 113
ators 113
ekwondo 113
ie@@ 113
ilis 113
net@@ 113
sort 113
teri@@ 113
tern 113
trum 113
unit 113
win@@ 113
ws 113
ze@@ 113
་@@ 113
東@@ 113
1772 112
2030 112
34.@@ 112
98@@ 112
AH 112
Brian 112
Fight 112
Flu@@ 112
Fu 112
Greatest 112
HP 112
Mun@@ 112
NBC 112
Pearl 112
Police 112
SUV 112
Stand@@ 112
Stu@@ 112
Trich@@ 112
WT@@ 112
Walk 112
Wilson 112
Wol@@ 112
aun@@ 112
cat 112
dan 112
duction 112
eye 112
loop 112
mir@@ 112
olin 112
ons@@ 112
ont@@ 112
osper@@ 112
otype 112
sar@@ 112
service 112
ß 112
จำนว@@ 112
フ@@ 112
的@@ 112
1620 111
1788 111
257 111
33.@@ 111
6.0 111
9.5 111
ABS 111
Acc@@ 111
Antonio 111
CL 111
Centr@@ 111
Electric 111
Eye 111
Foreign 111
Lanc@@ 111
Ma 111
Mari@@ 111
Military 111
NH 111
Style 111
Sym@@ 111
Symphony 111
Teen 111
Trade 111
Whit@@ 111
Zhang 111
ateral 111
avi@@ 111
chain 111
culture 111
enter@@ 111
fre@@ 111
hex@@ 111
horn 111
induc@@ 111
itor 111
itus 111
long 111
mos@@ 111
ock@@ 111
onn@@ 111
pri@@ 111
site 111
π@@ 111
ภอ 111
ນ@@ 111
05.@@ 110
1526 110
1688 110
37.@@ 110
620 110
66@@ 110
7.2 110
ACE 110
Ach@@ 110
Bar 110
Beyond 110
Cass@@ 110
Cou@@ 110
Dat@@ 110
Giant 110
Hur@@ 110
Jud@@ 110
MT@@ 110
Mach@@ 110
Ngu@@ 110
Note 110
PI 110
Person@@ 110
Phoenix 110
Ras@@ 110
Rh@@ 110
SV@@ 110
Server 110
TER 110
Vision 110
Ware 110
agon@@ 110
alli@@ 110
ander@@ 110
archy 110
asy@@ 110
ball 110
bus@@ 110
folia 110
gate 110
hu 110
human 110
ige 110
ime 110
istics 110
quest 110
ras@@ 110
roc@@ 110
sle@@ 110
tain 110
thal@@ 110
vector 110
very 110
web 110
ราชิ@@ 110
หรับ 110
เงื่อน@@ 110
と@@ 110
德@@ 110
1453 109
1829 109
261 109
3,8@@ 109
33,@@ 109
5,0@@ 109
6.7 109
63@@ 109
Anime 109
BE@@ 109
Break@@ 109
Broad@@ 109
CF@@ 109
Cab@@ 109
Chamber 109
Comics 109
Lucky 109
Med@@ 109
Other 109
Review 109
Rol@@ 109
Tai@@ 109
Together 109
UT 109
Want 109
Wood@@ 109
agr@@ 109
ening 109
equ@@ 109
ju@@ 109
kan@@ 109
mode 109
pic@@ 109
than 109
thor@@ 109
uchi 109
uli 109
vacc@@ 109
yd@@ 109
zy@@ 109
ο@@ 109
นั่น@@ 109
ຈ@@ 109
り@@ 109
仁@@ 109
233 108
266 108
279 108
35.@@ 108
BMW 108
Card 108
Cros@@ 108
Dog 108
Eu@@ 108
Fat@@ 108
Franz 108
Infin@@ 108
Learning 108
Lif@@ 108
Macro@@ 108
Phyl@@ 108
SN 108
Smart 108
Summer@@ 108
Third 108
Warriors 108
aca 108
acea 108
alt@@ 108
anism 108
cast 108
ders 108
dig@@ 108
each 108
esi@@ 108
eur@@ 108
fire 108
force 108
heart 108
iness 108
ion@@ 108
meg@@ 108
mes 108
oning 108
ophy@@ 108
pil@@ 108
po 108
polis 108
spin@@ 108
uridae 108
urn@@ 108
versary 108
wing 108
ı 108
デ@@ 108
田@@ 108
長@@ 108
19@@ 107
318 107
APG 107
Angels 107
Another 107
Buc@@ 107
Cher@@ 107
Chron@@ 107
Danger@@ 107
Engine 107
Gallery 107
Hang@@ 107
Miss@@ 107
NBA 107
NFL 107
PH@@ 107
Pass@@ 107
Pink 107
Shir@@ 107
Son 107
ams 107
amus 107
blood 107
cav@@ 107
dra@@ 107
hur@@ 107
ka@@ 107
kal@@ 107
mus 107
nh 107
oster@@ 107
other 107
park 107
software 107
ticul@@ 107
xy 107
มัติ 107
キ@@ 107
1610 106
6.1 106
77@@ 106
79@@ 106
960 106
Anni@@ 106
Bet@@ 106
CN 106
Cent@@ 106
Fan 106
IUCN 106
Integr@@ 106
Lar@@ 106
Magn@@ 106
Major 106
Mam@@ 106
Mik@@ 106
Off@@ 106
Samuel 106
Stap@@ 106
Study 106
TO 106
Victor 106
Victoria 106
Work 106
aze 106
fier 106
fos@@ 106
ification 106
kan 106
local 106
lot 106
melan@@ 106
path 106
rati@@ 106
ring 106
tan 106
vas@@ 106
ตราย 106
ปุ่น 106
ງ@@ 106
ុ@@ 106
北@@ 106
1368 105
1770 105
1827 105
283 105
298 105
39.@@ 105
470 105
ART 105
And@@ 105
BW@@ 105
Blues 105
Chang@@ 105
Charlotte 105
Christ 105
EG 105
Fire@@ 105
Fun@@ 105
Hits 105
IOC 105
Kaz@@ 105
Kid 105
NI@@ 105
Pa 105
Pil@@ 105
Prix 105
Race 105
SF@@ 105
Seg@@ 105
Ten 105
Tok@@ 105
Too 105
Yang 105
address 105
aft 105
aster@@ 105
between 105
car 105
card 105
dynam@@ 105
ef 105
elia 105
ference 105
gold 105
iOS 105
ights 105
ista 105
plat@@ 105
plate 105
squ@@ 105
tissue 105
view 105
vul@@ 105
モ@@ 105
世@@ 105
和@@ 105
1787 104
248 104
Anna 104
Anthony 104
Arm@@ 104
Braun 104
Camp@@ 104
Dist@@ 104
ED@@ 104
Image 104
Industrial 104
Jar@@ 104
Lag@@ 104
Les@@ 104
Level 104
Mathemati@@ 104
Mount 104
Myr@@ 104
SV 104
Sam 104
Step 104
Sum@@ 104
Touch 104
Vic@@ 104
abor@@ 104
actor 104
cryp@@ 104
dit 104
ease 104
general 104
hat 104
ision 104
ji@@ 104
las@@ 104
lit@@ 104
machine 104
ole@@ 104
thus 104
ù 104
ยึ@@ 104
င@@ 104
1550 103
1823 103
236 103
263 103
321 103
Aff@@ 103
Austria 103
Building 103
Celebr@@ 103
Ceph@@ 103
Chan 103
Cli@@ 103
Di 103
Ec@@ 103
Guy 103
Hope 103
Infer@@ 103
Medal 103
President 103
Soci@@ 103
Squ@@ 103
aire 103
bac@@ 103
chlor@@ 103
dea 103
eller 103
flo@@ 103
graph 103
idal 103
ingi@@ 103
ington 103
sert 103
start 103
teen 103
toc@@ 103
uke 103
vis@@ 103
while 103
zer 103
不@@ 103
1592 102
1683 102
254 102
289 102
510 102
560 102
Ax@@ 102
BT@@ 102
Body 102
Day@@ 102
Est@@ 102
Forum 102
Francisco 102
Frederick 102
Mitsubishi 102
Northern 102
One@@ 102
Plant@@ 102
Private 102
RAM 102
Six 102
adap@@ 102
alized 102
atur@@ 102
brach@@ 102
comp@@ 102
coun@@ 102
count 102
din@@ 102
emic 102
fir@@ 102
green 102
high 102
ier@@ 102
ino@@ 102
intr@@ 102
isa 102
lim@@ 102
main 102
omer@@ 102
oper@@ 102
oration 102
ova 102
prise 102
vari@@ 102
wil@@ 102
zz@@ 102
張@@ 102
COM 101
Care 101
Chor@@ 101
Coast 101
Comic 101
DOS 101
Dal@@ 101
Falcon 101
Gos@@ 101
KA 101
Key@@ 101
LM 101
Oricon 101
Plant 101
Score 101
Sens@@ 101
Storm 101
Sul@@ 101
TM 101
VA 101
VB 101
Wanna 101
ango 101
aries 101
born 101
cle@@ 101
common 101
ester@@ 101
esty 101
ete 101
formation 101
glut@@ 101
iidae 101
lor@@ 101
mil@@ 101
mod 101
mol@@ 101
oko 101
phyl@@ 101
uru 101
ware 101
ฮัง@@ 101
ễ 101
1250 100
1350 100
1689 100
402 100
5.4 100
Ah@@ 100
Alfred 100
BL 100
Bad@@ 100
Clo@@ 100
DF@@ 100
Dru@@ 100
Friday 100
Fund 100
Howard 100
Jung@@ 100
Lang@@ 100
Lem@@ 100
Memory 100
Mom@@ 100
Musical 100
Nas@@ 100
Shadow 100
Singapore 100
Suz@@ 100
Tab@@ 100
dri@@ 100
enger 100
fa@@ 100
generation 100
hood 100
ift 100
live 100
mut@@ 100
ond 100
own 100
period 100
php 100
pus@@ 100
rand@@ 100
rier 100
there 100
ulata 100
Ö 100
å 100
สายการ@@ 100
ィ@@ 100
司@@ 100
年@@ 100
1330 99
32.@@ 99
324 99
404 99
530 99
6.4 99
8.1 99
Affairs 99
Bru@@ 99
Cuc@@ 99
Gran@@ 99
Hans 99
Have 99
ISS 99
Industry 99
Laur@@ 99
Made 99
Mich@@ 99
Moore 99
Petr@@ 99
Professor 99
Ryan 99
Song@@ 99
Um@@ 99
West@@ 99
ament 99
idea 99
include 99
lac@@ 99
learning 99
nes 99
pic 99
pon@@ 99
she@@ 99
tis@@ 99
tivity 99
ump 99
ya@@ 99
ชุมนุ@@ 99
รัตนโกสิน@@ 99
เดียว@@ 99
ေ@@ 99
ិ@@ 99
。@@ 99
く@@ 99
ム@@ 99
1598 98
1816 98
49,@@ 98
581 98
630 98
69@@ 98
Adap@@ 98
Bang 98
Bos@@ 98
Christopher 98
Comple@@ 98
Cry 98
Ever@@ 98
Fat 98
Figh@@ 98
Fine 98
Joint 98
Maz@@ 98
Movement 98
Ny@@ 98
Pent@@ 98
Pet@@ 98
Sex 98
Shane 98
Zo@@ 98
aja 98
architecture 98
arm@@ 98
away 98
benz@@ 98
blue 98
bon@@ 98
chr@@ 98
current 98
energy 98
ept@@ 98
hibition 98
hypoth@@ 98
junction 98
negative 98
phi@@ 98
soci@@ 98
source 98
stimul@@ 98
tural 98
xx 98
อุทยาน@@ 98
法@@ 98
花@@ 98
000@@ 97
1185 97
1483 97
1811 97
231 97
49.@@ 97
870 97
Alex 97
BR 97
Coc@@ 97
Davis 97
Dutch 97
Fort 97
ISBN 97
Independent 97
Merc@@ 97
Pan 97
Reb@@ 97
Ride 97
Spirit 97
Tonight 97
abase 97
aine 97
aly@@ 97
apy 97
burg 97
bye 97
ches 97
coc@@ 97
con 97
ecti@@ 97
eer 97
eff@@ 97
heter@@ 97
idel@@ 97
nam@@ 97
otus 97
science 97
sions 97
sun@@ 97
vous 97
wan@@ 97
zo@@ 97
ë 97
ū@@ 97
คณิ@@ 97
យ@@ 97
ら@@ 97
サ@@ 97
君@@ 97
1780 96
610 96
760 96
Airlines 96
Break 96
Expo 96
Female 96
Germany 96
Gold@@ 96
Gray 96
Guide 96
Laboratory 96
Marine 96
Moon@@ 96
OE@@ 96
Pad@@ 96
Ren 96
Roger 96
Soviet 96
andi@@ 96
ante 96
bird 96
bol@@ 96
course 96
double 96
eh 96
enta 96
eth 96
gs 96
illing 96
lied 96
mul@@ 96
og 96
oll@@ 96
optera 96
ric@@ 96
stage 96
tail 96
thera 96
under@@ 96
win 96
á@@ 96
ă 96
เปลี่ย@@ 96
宮@@ 96
福@@ 96
院@@ 96
陽@@ 96
1180 95
1450 95
293 95
7.1 95
84@@ 95
87@@ 95
BD 95
BM 95
Better 95
Bin@@ 95
Cs 95
Disc 95
Emp@@ 95
FL 95
Fall@@ 95
Fir@@ 95
Hard 95
Jam 95
Ki 95
Log@@ 95
NS 95
Nur@@ 95
Pang@@ 95
Princip@@ 95
RE 95
SR@@ 95
Smo@@ 95
Stor@@ 95
TR 95
Ti 95
Us 95
Week 95
ame@@ 95
anga 95
aves 95
bers 95
bos@@ 95
engine 95
etus 95
fal@@ 95
gas 95
growth 95
ingen 95
ious 95
nuclear 95
quin@@ 95
synth@@ 95
ths 95
ury 95
ust@@ 95
ถิ่น@@ 95
上@@ 95
成@@ 95
1540 94
1643 94
2600 94
284 94
297 94
680 94
Before 94
Cartoon 94
Chel@@ 94
DH@@ 94
Heavy 94
Kill 94
Kw@@ 94
Low 94
MD 94
Madonna 94
Oper@@ 94
Peri@@ 94
Ses@@ 94
Tap@@ 94
Tem@@ 94
Thr@@ 94
Training 94
UE 94
Was@@ 94
Wel@@ 94
XI 94
abe 94
ads 94
apping 94
atri@@ 94
ayan 94
bridge 94
det@@ 94
dog 94
leg@@ 94
mad@@ 94
master 94
ocarpus 94
olls 94
plant 94
pter@@ 94
season 94
string 94
three 94
uld 94
used 94
uta 94
wer 94
won 94
yrin@@ 94
มวย@@ 94
สกอ@@ 94
อำเ@@ 94
ង@@ 94
《@@ 94
コ@@ 94
テ@@ 94
五@@ 94
정@@ 94
1521 93
1661 93
273 93
287 93
288 93
291 93
322 93
356 93
570 93
6.8 93
AMD 93
Animal 93
Aur@@ 93
Basic 93
Bros 93
Camp 93
Cell 93
Circle 93
CoV 93
Crystal 93
Dam@@ 93
Dig@@ 93
Extreme 93
Form 93
GHz 93
Gh@@ 93
Kelly 93
Kum@@ 93
Look 93
Mass@@ 93
NH@@ 93
OK 93
Otto 93
Rumble 93
Sang@@ 93
Sto@@ 93
Taylor 93
Track 93
WB 93
WH@@ 93
WO@@ 93
Wr@@ 93
abilis 93
ank 93
by@@ 93
chem@@ 93
din 93
ety 93
genetic 93
imb@@ 93
led 93
olep@@ 93
opterus 93
ord 93
ostr@@ 93
phone 93
ric 93
sign@@ 93
square 93
tot@@ 93
var@@ 93
č 93
ě 93
รุง 93
ื่อน@@ 93
ナ@@ 93
パ@@ 93
方@@ 93
01.@@ 92
1492 92
1760 92
299 92
338 92
346 92
347 92
7.3 92
Allen 92
Amazing 92
Brand 92
Color 92
Command 92
Critics 92
Cyclo@@ 92
ESS 92
Ev@@ 92
Fighter 92
Flying 92
Hyp@@ 92
Journey 92
Metal 92
NHK 92
Nippon 92
PH 92
Phil@@ 92
Rep@@ 92
Rider 92
Say@@ 92
Tat@@ 92
Ultimate 92
agram 92
ban 92
etes 92
hormon@@ 92
ilk 92
inferior 92
ishi 92
isi 92
oka 92
omi 92
ords 92
osc@@ 92
prol@@ 92
sed 92
spot 92
tos@@ 92
vus 92
wak@@ 92
พาก@@ 92
ราจารย์ 92
เจด@@ 92
ိ@@ 92
真@@ 92
1170 91
1781 91
281 91
335 91
406 91
5.3 91
5.8 91
ATA 91
Af@@ 91
Alo@@ 91
Bag@@ 91
Cambridge 91
Chen 91
Daily 91
Doc@@ 91
Fish 91
Friend 91
Gly@@ 91
Kings 91
Las@@ 91
Lewis 91
Local 91
OVA 91
Pyr@@ 91
Tai 91
UEFA 91
Urban 91
VIII 91
Watch 91
Yellow 91
acker 91
activ@@ 91
aeus 91
asia 91
ason 91
ched 91
cho 91
cole 91
dle 91
domain 91
eros 91
flora 91
gu 91
icity 91
iga 91
imo 91
ini@@ 91
mb@@ 91
onian 91
pressure 91
program 91
sensi@@ 91
sm@@ 91
sym@@ 91
tius 91
unds 91
vers@@ 91
vo 91
yon 91
ประชาธิปัตย์ 91
水@@ 91
1777 90
1778 90
476 90
Bau@@ 90
Bruce 90
Captain 90
Chief 90
Coff@@ 90
Dra@@ 90
Factory 90
Give 90
Hu 90
Hus@@ 90
Jam@@ 90
Jason 90
Jay 90
Jerry 90
Liv@@ 90
MBA 90
Mario 90
Premi@@ 90
Seoul 90
Suc@@ 90
Sz@@ 90
Tell 90
UNESCO 90
ald 90
chart 90
che@@ 90
design 90
dis 90
doc@@ 90
edia 90
gun 90
heim 90
itz@@ 90
lip 90
mass 90
odes 90
osh@@ 90
processing 90
ratio 90
stress 90
suit 90
test@@ 90
troph@@ 90
unda 90
vi 90
ดัด@@ 90
း@@ 90
士@@ 90
寺@@ 90
市@@ 90
春@@ 90
002 89
1651 89
1763 89
1784 89
2100 89
525 89
Abbey 89
Adventure 89
August 89
Avengers 89
Beau@@ 89
Bod@@ 89
Comput@@ 89
DO 89
Destiny 89
FBI 89
GI 89
Glass 89
Heart@@ 89
Hid@@ 89
Hot@@ 89
Into 89
Jane 89
MG 89
MM@@ 89
Mix 89
Miy@@ 89
Oriental 89
PL 89
Page 89
Pretty 89
Saf@@ 89
Ultra 89
Upper 89
Wilhelm 89
Yi 89
Youtube 89
ana@@ 89
anic 89
arius 89
award 89
bacteri@@ 89
black 89
come 89
cros@@ 89
ebook 89
eci@@ 89
ester 89
fur@@ 89
ks@@ 89
ky@@ 89
ledge 89
los 89
metal 89
place 89
pression 89
stars 89
ther 89
tory 89
under 89
×@@ 89
エ@@ 89
夜@@ 89
@@ 89
1775 88
1786 88
267 88
282 88
296 88
313 88
4.9 88
425 88
Alpha 88
Benz 88
Bernard 88
Bird 88
Bom@@ 88
Communication 88
Competition 88
Complex 88
Dark@@ 88
Economics 88
GR 88
Honor 88
Jacob 88
Kurt 88
NP 88
Nat@@ 88
Rising 88
Russia 88
Sah@@ 88
VR 88
Vince 88
Yak@@ 88
ator@@ 88
aul@@ 88
e- 88
ember 88
ender 88
girl 88
iger 88
isch@@ 88
ix@@ 88
languages 88
lie 88
medicine 88
news 88
ogy 88
pig@@ 88
rat 88
speci@@ 88
tage 88
thy@@ 88
ucle@@ 88
worth 88
yx 88
β@@ 88
ព@@ 88
័@@ 88
軍@@ 88
1560 87
317 87
AH@@ 87
ARM 87
Batt@@ 87
Bio@@ 87
Creative 87
DR@@ 87
Dave 87
Feel 87
Films 87
Flight 87
Haw@@ 87
Jeff 87
Lan@@ 87
ML 87
Market 87
Pac@@ 87
Plas@@ 87
Professional 87
Superman 87
Toy@@ 87
Trust 87
Wong 87
Work@@ 87
angi@@ 87
arch 87
atsu 87
attack 87
ayo 87
cell@@ 87
chloride 87
coll@@ 87
dat@@ 87
edge 87
enberg 87
etti 87
iformes 87
jo@@ 87
ked 87
kor@@ 87
lands 87
normal 87
oe 87
organ 87
orph@@ 87
plan@@ 87
plex@@ 87
pneum@@ 87
race 87
rap@@ 87
specific 87
thetic 87
transfer@@ 87
uh@@ 87
versities 87
yer 87
ynam@@ 87
θ 87
ดิจิ@@ 87
ออสเตร@@ 87
√ 87
」 87
は@@ 87
メ@@ 87
月@@ 87
林@@ 87
美@@ 87
1580 86
1593 86
1740 86
326 86
555 86
907 86
Anderson 86
Charlie 86
Comedy 86
Electr@@ 86
Exchange 86
Fam@@ 86
Gran 86
Hak@@ 86
Indonesia 86
Islamic 86
Juan 86
Mega 86
Opera 86
Pach@@ 86
Patri@@ 86
Patrick 86
Premier 86
Productions 86
Samsung 86
Tsu@@ 86
UP 86
Why 86
Wing 86
dop@@ 86
eping 86
etary 86
gio 86
icon 86
org@@ 86
press@@ 86
reaction 86
response 86
small 86
tera 86
tier 86
unk@@ 86
ves@@ 86
vil@@ 86
vit@@ 86
wo 86
{@@ 86
1750 85
259 85
490 85
Android 85
Arc@@ 85
Avenue 85
BR@@ 85
Bang@@ 85
Bou@@ 85
Chlor@@ 85
Deg@@ 85
Dong@@ 85
Emb@@ 85
Glory 85
Heat 85
Jack@@ 85
Jordan 85
Liberation 85
Linux 85
Living 85
Nick 85
PT 85
Plan 85
Pom@@ 85
Rise 85
SEC 85
Sign@@ 85
USB 85
Without 85
XII 85
Xi 85
ador 85
aj 85
ats@@ 85
ave@@ 85
della 85
dus 85
eman 85
icum 85
isions 85
metric 85
mia 85
oh 85
open 85
osom@@ 85
ove 85
ply 85
rh@@ 85
ross 85
script 85
sense 85
smo@@ 85
sson 85
syl@@ 85
tern@@ 85
wat@@ 85
yon@@ 85
θ@@ 85
กำหน@@ 85
ไผ@@ 85
ជ@@ 85
が@@ 85
ま@@ 85
八@@ 85
四@@ 85
華@@ 85
1260 84
1460 84
1666 84
1773 84
316 84
980 84
Andy 84
Archit@@ 84
Benjamin 84
Berlin 84
Bri@@ 84
CM 84
EL 84
EP@@ 84
Ernst 84
File 84
Gordon 84
Grey 84
Head@@ 84
Irish 84
Java 84
Kol@@ 84
Organ@@ 84
Pay@@ 84
Phase 84
Potter 84
Quest 84
Raymond 84
Romeo 84
SB 84
Saturday 84
Save 84
Scor@@ 84
Singles 84
Small 84
TCP 84
Vegas 84
XIV 84
Yos@@ 84
anta 84
arian 84
auto@@ 84
bet@@ 84
cerebr@@ 84
chel@@ 84
chen@@ 84
emat@@ 84
forest 84
four 84
frame 84
han@@ 84
high@@ 84
iss 84
na@@ 84
oll 84
stop 84
systems 84
tent 84
trig@@ 84
ularis 84
usi@@ 84
Đ@@ 84
ǔ 84
ปราม 84
原@@ 84
正@@ 84
趙@@ 84
100@@ 83
1392 83
1520 83
1530 83
1774 83
1785 83
344 83
345 83
38,@@ 83
44.@@ 83
47.@@ 83
48.@@ 83
Academic 83
BI@@ 83
Billy 83
Cad@@ 83
Close 83
Def@@ 83
Dream@@ 83
Du 83
Factor 83
Gabriel 83
Il 83
Inf@@ 83
Intelligence 83
Jun@@ 83
Kim@@ 83
Liu 83
Matthew 83
Nintendo 83
Ot@@ 83
PHP 83
Pir@@ 83
Political 83
Rich@@ 83
Tim 83
VP 83
Vent@@ 83
Xen@@ 83
acial 83
ager 83
alon 83
aman 83
amide 83
arin 83
child 83
death 83
dh@@ 83
dry 83
esc@@ 83
fort 83
gon@@ 83
hep@@ 83
ior 83
km 83
lar 83
nar@@ 83
oro 83
painting 83
rac@@ 83
racy 83
sex 83
spir@@ 83
tium 83
tu 83
wer@@ 83
window 83
® 83
ו@@ 83
รัม@@ 83
ใกล้@@ 83
　 83
お@@ 83
0,0@@ 82
0.00 82
0000@@ 82
1340 82
1485 82
1568 82
1604 82
1625 82
1653 82
1765 82
1782 82
2200 82
277 82
336 82
357 82
395 82
BK 82
Back@@ 82
HK@@ 82
Marketing 82
Nicholas 82
Ori@@ 82
PD@@ 82
Paradise 82
Phantom 82
Ra 82
Roman@@ 82
Rub@@ 82
Sher@@ 82
Wales 82
a- 82
ado@@ 82
aming 82
asi 82
bau@@ 82
coli 82
conduc@@ 82
continental 82
ded 82
eper 82
eps 82
hynch@@ 82
ices 82
ination 82
indic@@ 82
kle 82
made 82
onda 82
ool 82
oridae 82
orth@@ 82
oud 82
phus 82
positive 82
see 82
shi 82
sign 82
sound 82
ขอน@@ 82
พฤษ@@ 82
← 82
み@@ 82
忠@@ 82
～@@ 82
1415 81
1470 81
1582 81
1605 81
1685 81
40,@@ 81
484 81
978 81
DSM 81
Esp@@ 81
Evolution 81
Exper@@ 81
FL@@ 81
Gradu@@ 81
Grap@@ 81
Jer@@ 81
Jimmy 81
Jo 81
Jonathan 81
Lawrence 81
Max@@ 81
Musa 81
Need 81
Poc@@ 81
Rio 81
Row@@ 81
Rut@@ 81
Text 81
Total 81
Tropical 81
Vul@@ 81
aut@@ 81
break 81
chron@@ 81
cord 81
cous@@ 81
cut@@ 81
das 81
digital 81
ebo@@ 81
eland 81
gre@@ 81
ibn 81
inary 81
let@@ 81
linear 81
ographic 81
tari@@ 81
tens@@ 81
tun@@ 81
ï 81
Δ 81
ปราก@@ 81
川@@ 81
氏@@ 81
秦@@ 81
#@@ 80
1515 80
1762 80
415 80
458 80
475 80
50,@@ 80
509 80
86@@ 80
April 80
Basil@@ 80
Block 80
Cha@@ 80
Concer@@ 80
Cool 80
Cross@@ 80
Dancing 80
Discovery 80
Domin@@ 80
Event 80
FE@@ 80
Gone 80
Greater 80
Guard 80
HIV 80
Half 80
Hey 80
It@@ 80
Jesus 80
Jin@@ 80
Kel@@ 80
Leo 80
Lotus 80
Mi 80
NGC 80
Ner@@ 80
North@@ 80
Observatory 80
PI@@ 80
Parliament 80
Prime 80
Region 80
SMS 80
Safety 80
Snow 80
Technical 80
Til@@ 80
Vienna 80
WD 80
acul@@ 80
ances 80
antic 80
audit@@ 80
best 80
bury 80
door 80
emati@@ 80
enzyme 80
flag 80
grav@@ 80
hel@@ 80
hon@@ 80
icles 80
limited 80
must 80
nas@@ 80
olar 80
opter@@ 80
pia 80
ping 80
plic@@ 80
real 80
res 80
sha 80
uss@@ 80
wang 80
ประเพ@@ 80
ု@@ 80
周@@ 80
清@@ 80
1204 79
1584 79
1680 79
1714 79
1766 79
319 79
343 79
354 79
512 79
710 79
830 79
840 79
Ancient 79
Bell@@ 79
Blade 79
Eagle 79
Environmental 79
Grav@@ 79
Gun 79
Hap@@ 79
Hav@@ 79
Henri 79
Hig@@ 79
Hulk 79
Kab@@ 79
Killer 79
Lau@@ 79
Loc@@ 79
MX 79
Map@@ 79
Pag@@ 79
PlayStation 79
Prin@@ 79
Railway 79
Sarah 79
Shah 79
Sou@@ 79
Steel 79
Stories 79
Suzuki 79
Thor@@ 79
Tournament 79
UFC 79
Village 79
ancy 79
bian 79
blo@@ 79
bran@@ 79
chor@@ 79
clus@@ 79
cut 79
cycl@@ 79
drome 79
eds 79
eine 79
else 79
ful@@ 79
ged 79
gli@@ 79
him@@ 79
ht@@ 79
inin 79
istr@@ 79
iti 79
kam@@ 79
kat@@ 79
mid 79
natural 79
ono 79
plac@@ 79
plus 79
pper 79
rie 79
seed 79
wall 79
·@@ 79
Á 79
γ 79
บันดาลใจ 79
ย่อง 79
ริชาร์@@ 79
โปร์ 79
さ@@ 79
会@@ 79
1469 78
1519 78
1606 78
271 78
292 78
341 78
632 78
780 78
94@@ 78
API 78
Au@@ 78
CON@@ 78
Chu 78
Communications 78
Coun@@ 78
Cultural 78
Fig@@ 78
Financial 78
Hills 78
Italian 78
June 78
Kit 78
Know@@ 78
Late 78
Leon@@ 78
Lot@@ 78
Matt 78
Mirror 78
Moment 78
Pack@@ 78
Piano 78
Pod@@ 78
Primary 78
Proj@@ 78
Regional 78
Rules 78
Top@@ 78
Venus 78
Vie@@ 78
XV 78
Yas@@ 78
Zen@@ 78
\@@ 78
about 78
afe 78
bal 78
bic 78
cam@@ 78
cium 78
def@@ 78
ej@@ 78
iment 78
joint 78
ken@@ 78
line@@ 78
make 78
matter 78
mechan@@ 78
ned 78
quar@@ 78
receive 78
rel 78
rey 78
rule 78
sep@@ 78
sph@@ 78
uka 78
unter 78
µ 78
í@@ 78
พนธ์ 78
อิสริ@@ 78
เขตร@@ 78
も@@ 78
ブ@@ 78
我@@ 78
陳@@ 78
1547 77
1570 77
1589 77
1755 77
1768 77
332 77
337 77
358 77
407 77
5.9 77
580 77
910 77
Active 77
Alex@@ 77
Associ@@ 77
Aus@@ 77
Austin 77
Baron 77
Bug@@ 77
Cham@@ 77
Cover 77
Dep@@ 77
Der 77
Dim@@ 77
EU 77
Ed 77
Enterprise 77
Francesco 77
Gra@@ 77
Greek 77
Guardian 77
Guitar 77
HR 77
Ireland 77
Jacques 77
Jin 77
Malaysia 77
Metro 77
Metropolitan 77
Moh@@ 77
Or 77
Phy@@ 77
Sci@@ 77
Shr@@ 77
Socialist 77
Strateg@@ 77
Weekly 77
Writ@@ 77
care 77
cep@@ 77
cid 77
cri@@ 77
dou@@ 77
ear 77
eti 77
eting 77
fib@@ 77
hou 77
ieve 77
image 77
ime@@ 77
iya 77
kHz 77
kel 77
kel@@ 77
ls 77
magnetic 77
market 77
mit 77
motion 77
output 77
proc@@ 77
recep@@ 77
relation 77
singer 77
som 77
term 77
thal 77
tif@@ 77
titude 77
uan 77
urg@@ 77
user 77
using 77
π 77
น้@@ 77
門@@ 77
龍@@ 77
1482 76
1498 76
1567 76
1569 76
1585 76
366 76
670 76
707 76
Barry 76
Boston 76
CAD 76
Campus 76
Carter 76
Cloud 76
Clu@@ 76
Commerce 76
Dallas 76
Ey@@ 76
Feder@@ 76
Friedrich 76
Gan@@ 76
Genti@@ 76
Hop@@ 76
Human@@ 76
Hydr@@ 76
ISC 76
ITV 76
Jet 76
Pain@@ 76
Pass 76
Python 76
Rebel@@ 76
Rhythm 76
Sep@@ 76
Spanish 76
Today 76
UM 76
aa 76
aking 76
aro@@ 76
aur 76
contr@@ 76
cover 76
eidae 76
ensi@@ 76
gig@@ 76
hold 76
hynchus 76
ili 76
izer 76
oid@@ 76
ologue 76
onds 76
parent 76
poem 76
reduc@@ 76
ref@@ 76
shar@@ 76
shift 76
sl@@ 76
some 76
static 76
structure 76
swe@@ 76
track 76
tuber@@ 76
zy 76
ó@@ 76
ซับ@@ 76
ກ@@ 76
き@@ 76
少@@ 76
後@@ 76
無@@ 76
義@@ 76
1590 75
1614 75
1687 75
1720 75
355 75
384 75
405 75
89@@ 75
Amphi@@ 75
Bud@@ 75
Buddy 75
DT@@ 75
Dawn 75
Dow@@ 75
Eg@@ 75
End@@ 75
GL 75
Gau@@ 75
HMS 75
Ho 75
Lyn@@ 75
Mai 75
Manga 75
Miz@@ 75
Nom@@ 75
Nothing 75
Rock@@ 75
Sed@@ 75
Sid@@ 75
Sing 75
Sof@@ 75
Suite 75
Through 75
Wir@@ 75
XL 75
aco 75
anj@@ 75
ann 75
ape 75
ark@@ 75
asons 75
aye 75
behavi@@ 75
cli@@ 75
element 75
eni 75
eron 75
flor@@ 75
footballer 75
hat@@ 75
idaceae 75
jin 75
kai 75
known 75
lea 75
lide 75
management 75
movement 75
mur@@ 75
occ@@ 75
organ@@ 75
osia 75
pack@@ 75
ports 75
professional 75
ption 75
ron 75
sequence 75
sho@@ 75
stem 75
tac@@ 75
tone 75
via 75
when 75
wrestling 75
ð 75
י@@ 75
  75
星@@ 75
青@@ 75
黃@@ 75
1494 74
1504 74
1541 74
1630 74
1699 74
2025 74
44,@@ 74
Aviation 74
Base 74
Books 74
Carlos 74
DN@@ 74
DT 74
Declar@@ 74
Ferdinand 74
GNU 74
Gif@@ 74
Hearts 74
Kil@@ 74
Left 74
Mass 74
Mechan@@ 74
Min 74
Mo 74
Nem@@ 74
OM 74
Plagi@@ 74
Port 74
Psy@@ 74
Rad@@ 74
Roy 74
Sean 74
Shak@@ 74
Shin 74
Soundtrack 74
Still 74
Swiss 74
Vil@@ 74
Welcome 74
Wide 74
andro@@ 74
company 74
development 74
dic 74
ements 74
emon 74
essor 74
fall@@ 74
gence 74
good 74
har 74
kers 74
kon@@ 74
nik 74
odia 74
operation 74
ough@@ 74
phin 74
player 74
rin 74
sman 74
tend@@ 74
tetr@@ 74
ticus 74
tum@@ 74
tz 74
wind 74
works 74
yu@@ 74
ະ@@ 74
》 74
れ@@ 74
チ@@ 74
ュ@@ 74
～ 74
04.@@ 73
1279 73
1534 73
1536 73
1565 73
1572 73
1602 73
1758 73
1759 73
274 73
334 73
351 73
382 73
508 73
618 73
690 73
Ace 73
Adv@@ 73
Adventures 73
Agre@@ 73
Alg@@ 73
Bass 73
Bobby 73
CK 73
Cann@@ 73
Douglas 73
Gall@@ 73
Ges@@ 73
Gur@@ 73
Hamilton 73
Haz@@ 73
Identi@@ 73
Jor@@ 73
Ken 73
Lin 73
Lun@@ 73
MW 73
Midnight 73
Million 73
Orth@@ 73
Princ@@ 73
RCA 73
RFC 73
Ross 73
Sek@@ 73
Some@@ 73
Southeast 73
Stic@@ 73
Table 73
Tax@@ 73
Theater 73
Thing 73
Things 73
Truth 73
Vampire 73
Water@@ 73
agar 73
aly 73
anidae 73
aut 73
berry 73
break@@ 73
drug 73
dur@@ 73
earth 73
educ@@ 73
eline 73
esa 73
esser 73
esta 73
grandi@@ 73
ij@@ 73
kn@@ 73
ments 73
mos 73
oking 73
ority 73
ovich 73
points 73
product 73
red@@ 73
rem@@ 73
stic 73
stock 73
tai 73
thm 73
tian 73
unk 73
web@@ 73
สงค@@ 73
あ@@ 73
つ@@ 73
を@@ 73
唐@@ 73
校@@ 73
行@@ 73
都@@ 73
1001 72
1274 72
1370 72
1543 72
1607 72
1615 72
1678 72
45.@@ 72
740 72
Big@@ 72
Bishop 72
By@@ 72
CII 72
Canadian 72
Carolina 72
Catherine 72
Cot@@ 72
Cus@@ 72
Dan 72
Defense 72
Donald 72
Hart 72
Indo@@ 72
Jump 72
Karen 72
Kot@@ 72
Lit@@ 72
MD@@ 72
Mb@@ 72
Nelson 72
Nuclear 72
Programm@@ 72
Rhy@@ 72
Rib@@ 72
Ris@@ 72
Rome 72
Scr@@ 72
Something 72
Stra@@ 72
Virginia 72
Virus 72
Working 72
XT 72
Xbox 72
Zealand 72
aise 72
alum 72
anz@@ 72
being 72
chia 72
cio 72
crip@@ 72
dial@@ 72
eder@@ 72
election 72
elegans 72
eli 72
err@@ 72
ett@@ 72
ighty 72
inger@@ 72
lan 72
las 72
ling@@ 72
lu 72
noc@@ 72
nus 72
oidea 72
programming 72
sequ@@ 72
sit@@ 72
standard 72
star@@ 72
tab@@ 72
union 72
ux 72
yal@@ 72
yle 72
½ 72
î 72
คัญ 72
ทรัพ@@ 72
主@@ 72
김@@ 72
1150 71
1599 71
666 71
97@@ 71
98.@@ 71
Ad 71
Atlantic 71
Attack 71
Cinema 71
Claude 71
December 71
Far 71
Forces 71
Fortune 71
Gen 71
Gul@@ 71
Hour 71
Jay@@ 71
Jon 71
Kap@@ 71
Kid@@ 71
Lith@@ 71
Lower 71
Matrix 71
Motor@@ 71
NY@@ 71
Netflix 71
Neu@@ 71
Num@@ 71
October 71
Philosophy 71
Posi@@ 71
Protection 71
Roll 71
Sailor 71
Shop 71
Sugar 71
Wed@@ 71
Wei 71
acking 71
been 71
cereb@@ 71
conn@@ 71
coron@@ 71
democ@@ 71
ece 71
elt 71
eness 71
etime 71
event 71
fel@@ 71
fon@@ 71
functional 71
gan@@ 71
hyp@@ 71
ilus 71
isia 71
ited 71
liz@@ 71
location 71
lut@@ 71
mind 71
ored 71
osaurus 71
osci@@ 71
page 71
personality 71
ples 71
project 71
qi 71
sian 71
terminal 71
tol@@ 71
tum 71
umn 71
vention 71
ì@@ 71
ရ@@ 71
ី 71
ズ@@ 71
心@@ 71
1440 70
1613 70
1623 70
1658 70
1713 70
312 70
400@@ 70
434 70
47,@@ 70
543 70
Asi@@ 70
Bour@@ 70
Brain 70
Britain 70
Chir@@ 70
Cog@@ 70
Continental 70
Cov@@ 70
Dean 70
Dendro@@ 70
Dictionary 70
Elimin@@ 70
Environment 70
Everything 70
Excell@@ 70
Gon@@ 70
Grace 70
Heli@@ 70
Ich@@ 70
Juli@@ 70
LV@@ 70
Lorraine 70
NC 70
Neb@@ 70
Oro@@ 70
Oscar 70
Pand@@ 70
Publ@@ 70
Rein@@ 70
Rural 70
Saga 70
Sco@@ 70
Selec@@ 70
Soc@@ 70
Spain 70
Telec@@ 70
Train 70
Turner 70
Twin 70
USD 70
Warrior 70
acher 70
amoto 70
augh@@ 70
bis@@ 70
chemical 70
ck@@ 70
combin@@ 70
cyan@@ 70
dow 70
eau 70
eda 70
edi 70
electron 70
eni@@ 70
ering 70
father 70
fle@@ 70
heat 70
itary 70
kar 70
nak@@ 70
nam 70
odo@@ 70
onna 70
ont 70
post 70
principle 70
problem 70
run@@ 70
ska 70
subs@@ 70
vin 70
ə@@ 70
တ@@ 70
。 70
ョ@@ 70
下@@ 70
祖@@ 70
魔@@ 70
0.0 69
1511 69
1542 69
1555 69
1637 69
314 69
331 69
843 69
Around 69
Batman 69
Brid@@ 69
Dav@@ 69
Diego 69
Father 69
Gamb@@ 69
Hin@@ 69
Hit 69
Ian 69
Lab 69
Las 69
Ludwig 69
Male 69
Og@@ 69
Programme 69
Publishing 69
Racing 69
Sag@@ 69
Sas@@ 69
Sevent@@ 69
Source 69
Species 69
Start 69
Yosh@@ 69
Yuan 69
access 69
anum 69
ather 69
atom@@ 69
beta 69
bir@@ 69
complete 69
density 69
depres@@ 69
direct 69
district 69
electric 69
endi@@ 69
eption 69
error 69
eze 69
fare 69
five 69
flex@@ 69
gam@@ 69
hair 69
host 69
hot 69
iliz@@ 69
illar@@ 69
inga 69
ised 69
ises 69
isha 69
jav@@ 69
mean 69
nation 69
neg@@ 69
okie 69
onom@@ 69
secondary 69
semi@@ 69
thai 69
theorem 69
ticism 69
tron 69
tv 69
watch 69
years 69
ē@@ 69
ư@@ 69
ː 69
त@@ 69
วิจาร@@ 69
有@@ 69
인@@ 69
1328 68
1516 68
1545 68
1573 68
1618 68
1672 68
1779 68
361 68
875 68
Bo 68
Call@@ 68
Chapter 68
Chrom@@ 68
Chu@@ 68
Circuit 68
EE 68
Es 68
Expl@@ 68
GR@@ 68
Gene 68
Gig@@ 68
Goes 68
HT@@ 68
Hed@@ 68
Igu@@ 68
Investment 68
KS 68
Lav@@ 68
Main@@ 68
Medici 68
Mov@@ 68
Mystery 68
Nec@@ 68
Neo 68
Netherlands 68
Nicolas 68
Norman 68
Ordin@@ 68
Origin 68
Pier@@ 68
Rick 68
Sau@@ 68
Shell 68
String 68
Survivor 68
Tac@@ 68
Thre@@ 68
Tol@@ 68
Univers@@ 68
alg@@ 68
anch@@ 68
conjug@@ 68
consci@@ 68
cross 68
elly 68
emer@@ 68
erus 68
escence 68
fe 68
foot 68
ga@@ 68
glob@@ 68
hai 68
hic 68
hil 68
history 68
imm@@ 68
inia 68
ished 68
iz 68
kW 68
kins 68
ldwide 68
lymph@@ 68
now 68
olia 68
orus 68
partic@@ 68
plasma 68
pole 68
quer@@ 68
reverse 68
rt 68
san 68
sters 68
transfer 68
travel 68
udi@@ 68
ull 68
vic@@ 68
vis 68
wara 68
ylus 68
you@@ 68
ơ 68
ผลิ@@ 68
ມ@@ 68
ວ@@ 68
ອ@@ 68
† 68
⊕ 68
」@@ 68
孝@@ 68
阮@@ 68
1420 67
1480 67
1490 67
1510 67
1525 67
1556 67
1597 67
1628 67
1638 67
432 67
486 67
661 67
ARD 67
Beast 67
Beijing 67
Bow@@ 67
Brit@@ 67
Bureau 67
CPU 67
Carni@@ 67
Chic@@ 67
Chil@@ 67
Citi@@ 67
Class@@ 67
Cotton 67
Coupe 67
Dome 67
Explo@@ 67
FS 67
Flor@@ 67
Fron@@ 67
Hip@@ 67
Kaw@@ 67
Kos@@ 67
LR 67
Larry 67
Mrs 67
Ni 67
Oil 67
Oste@@ 67
Peg@@ 67
Ps 67
Student 67
Sunshine 67
TT@@ 67
Wak@@ 67
Well@@ 67
Wind@@ 67
ako 67
aurus 67
bak@@ 67
bu 67
cardi@@ 67
cath@@ 67
cher@@ 67
cou@@ 67
country 67
defici@@ 67
drive 67
eck@@ 67
electr@@ 67
endr@@ 67
eton 67
final 67
fix@@ 67
gency 67
hard 67
hydrox@@ 67
ills 67
information 67
logic 67
lows 67
nec@@ 67
night 67
nu 67
obia 67
organic 67
oty@@ 67
pora 67
pos 67
quad@@ 67
rine 67
rop@@ 67
selection 67
sig@@ 67
suff@@ 67
teau 67
tile 67
tt@@ 67
ɪ 67
μ@@ 67
มลา@@ 67
န@@ 67
ノ@@ 67
史@@ 67
군@@ 67
02.@@ 66
1230 66
1471 66
1503 66
1559 66
1641 66
1665 66
2050 66
348 66
367 66
376 66
417 66
503 66
727 66
920 66
990 66
Abu 66
Andr@@ 66
Atom@@ 66
Austral@@ 66
Bed@@ 66
Boeing 66
Cyber@@ 66
Elev@@ 66
Eli@@ 66
Ere@@ 66
Explorer 66
Fed@@ 66
Fin 66
Fish@@ 66
Flag 66
Forbes 66
Gri@@ 66
Hippo@@ 66
IST 66
Innoc@@ 66
Jew@@ 66
Kad@@ 66
Kun@@ 66
Lad@@ 66
Lane 66
Lou@@ 66
Lut@@ 66
Mad 66
Policy 66
Produ@@ 66
Rum@@ 66
SAT 66
September 66
Spl@@ 66
Steph@@ 66
TB 66
TF 66
Tas@@ 66
Terminal 66
Veh@@ 66
Very 66
Vladimir 66
Ya@@ 66
You@@ 66
agu@@ 66
atha 66
bid@@ 66
binding 66
canal 66
computer 66
dependent 66
distance 66
ento 66
following 66
glass 66
hua 66
inflam@@ 66
inj@@ 66
ju 66
lad@@ 66
lex 66
lit 66
mile 66
molecular 66
mu 66
nen 66
non 66
omo 66
omorpha 66
onas 66
open@@ 66
opp@@ 66
ops@@ 66
oting 66
otrop@@ 66
pac@@ 66
pit@@ 66
political 66
pool 66
research 66
rou@@ 66
say 66
shop 66
tec@@ 66
theastern 66
uf@@ 66
ution 66
へ@@ 66
十@@ 66
朱@@ 66
1360 65
1571 65
1588 65
1611 65
1667 65
329 65
499 65
820 65
860 65
AK 65
Arg@@ 65
Ath@@ 65
Because 65
Cape 65
Chal@@ 65
Contemporary 65
Criminal 65
Duc@@ 65
Elite 65
Ever 65
Grant 65
Hep@@ 65
Holland 65
Jas@@ 65
Jose@@ 65
July 65
Leon 65
Margaret 65
Miller 65
Minister 65
Od@@ 65
Personal 65
Rou@@ 65
Russell 65
Silent 65
Steven 65
Survey 65
TRA@@ 65
Taiwan 65
Tetr@@ 65
Tos@@ 65
Turn 65
Wayne 65
ables 65
acar@@ 65
amer@@ 65
astic 65
atics 65
aud 65
ause 65
ball@@ 65
bow 65
cont@@ 65
culus 65
cyc@@ 65
enes 65
finished 65
flower 65
forward 65
head@@ 65
icious 65
icks 65
identity 65
iner@@ 65
itch 65
iver 65
kill 65
lec@@ 65
nit@@ 65
ocer@@ 65
ochem@@ 65
olith@@ 65
pain 65
pseud@@ 65
ram@@ 65
related 65
sang 65
sei 65
signal 65
tering 65
trait 65
vid@@ 65
÷ 65
ć@@ 65
นนท@@ 65
ី@@ 65
េ@@ 65
九@@ 65
字@@ 65
藏@@ 65
重@@ 65
音@@ 65
（ 65
1.6@@ 64
1225 64
1499 64
1527 64
1544 64
1549 64
1583 64
1612 64
1626 64
1629 64
1645 64
1722 64
1735 64
349 64
352 64
46.@@ 64
511 64
711 64
757 64
930 64
940 64
96@@ 64
Angel@@ 64
Artem@@ 64
Bic@@ 64
Bryan 64
Canon 64
Cav@@ 64
Chang 64
Chry@@ 64
Coming 64
Cube 64
DN 64
Easy 64
Euc@@ 64
FK 64
Fabaceae 64
Hi 64
Inside 64
Ivan 64
Knights 64
Len@@ 64
Lep@@ 64
Lept@@ 64
Maurice 64
Muhammad 64
Nova 64
Oblast 64
Patr@@ 64
Phil 64
Portrait 64
Rice 64
South@@ 64
Stock 64
Strong 64
Tang 64
These 64
Virtual 64
Wood 64
Yahoo 64
abr@@ 64
acu@@ 64
ago@@ 64
alam@@ 64
ander 64
atis@@ 64
aux 64
bia 64
bomb 64
condi@@ 64
cro@@ 64
cy 64
dem 64
dor 64
ean@@ 64
ells 64
flav@@ 64
full 64
gel@@ 64
hand 64
inner 64
jan 64
mania 64
mono@@ 64
nat@@ 64
nch@@ 64
nos 64
object 64
ours 64
pin 64
poda 64
pulmon@@ 64
que@@ 64
rise 64
sch 64
shall 64
stom@@ 64
tax 64
termin@@ 64
tida 64
tras@@ 64
urai 64
versi@@ 64
φ@@ 64
ສ@@ 64
  64
プ@@ 64
昌@@ 64
書@@ 64
사@@ 64
원@@ 64
1240 63
1282 63
1348 63
1506 63
1533 63
1581 63
1594 63
1632 63
1662 63
1756 63
411 63
451 63
46,@@ 63
48,@@ 63
58,@@ 63
Ant@@ 63
Arms 63
BB@@ 63
BP 63
Bern@@ 63
Bis@@ 63
Bit 63
Canyon 63
Capr@@ 63
Compos@@ 63
Corps 63
Encyclo@@ 63
Fab@@ 63
Free@@ 63
Gang 63
Guang@@ 63
Heritage 63
Holiday 63
Honey 63
Hop 63
Iso@@ 63
Joan 63
Lind@@ 63
Manager 63
Pride 63
Real@@ 63
Regular 63
Rog@@ 63
Rush 63
Shim@@ 63
Stat@@ 63
Sydney 63
Ton@@ 63
Walker 63
YG 63
YP 63
activity 63
ahi 63
aji 63
angu@@ 63
association 63
awards 63
bach 63
bodies 63
cha@@ 63
court 63
cription 63
cyclo@@ 63
dam@@ 63
dance 63
dei 63
dt 63
eb 63
ei@@ 63
eter@@ 63
graph@@ 63
great 63
iker 63
iller 63
lds 63
map@@ 63
new@@ 63
ocolate 63
pun@@ 63
rag@@ 63
scr@@ 63
she 63
ski@@ 63
sons 63
special 63
sport 63
tel 63
tit@@ 63
ulu 63
uo 63
voting 63
Ō 63
ฅ 63
ザ@@ 63
セ@@ 63
侯@@ 63
縣@@ 63
藤@@ 63
조@@ 63
1215 62
1380 62
1385 62
1464 62
1616 62
1670 62
1718 62
1724 62
1745 62
327 62
328 62
369 62
403 62
408 62
433 62
435 62
524 62
590 62
770 62
880 62
Any@@ 62
Apache 62
Audio 62
Blan@@ 62
Bot 62
Chevrolet 62
Cryp@@ 62
Differ@@ 62
Dir@@ 62
Early 62
Flam@@ 62
Funk 62
HK 62
Hand 62
ICA@@ 62
IM 62
Indi@@ 62
Interactive 62
Iz@@ 62
Liber@@ 62
Lives 62
Nielsen 62
Night@@ 62
Nin@@ 62
Ober@@ 62
Orlando 62
Phone 62
RN 62
Rak@@ 62
Rand@@ 62
Rif@@ 62
Rocket 62
Saw@@ 62
Shi 62
Sis@@ 62
Ster@@ 62
Tin@@ 62
UA 62
UK@@ 62
USS 62
Vas@@ 62
abl@@ 62
after 62
alan@@ 62
alists 62
alogue 62
alpha 62
amin 62
ando 62
apr@@ 62
arms 62
ativ@@ 62
axis 62
bat 62
bium 62
bound 62
bri@@ 62
cir@@ 62
cit@@ 62
cot@@ 62
dist@@ 62
distribution 62
eding 62
ems 62
encing 62
entum 62
eon@@ 62
eto 62
ext@@ 62
front 62
hand@@ 62
hot@@ 62
ically 62
ician 62
iron 62
kov 62
lard 62
last 62
lus@@ 62
mah@@ 62
may@@ 62
oceph@@ 62
onium 62
otis 62
phr@@ 62
ps@@ 62
rent 62
rod@@ 62
sil 62
sta 62
tar 62
tioning 62
trach@@ 62
uno 62
unter@@ 62
voc@@ 62
wi 62
à@@ 62
ː@@ 62
ר@@ 62
ช่ว@@ 62
ល@@ 62
ハ@@ 62
情@@ 62
昭@@ 62
風@@ 62
1280 61
1501 61
1587 61
1601 61
1704 61
1727 61
385 61
45,@@ 61
452 61
453 61
457 61
565 61
767 61
AIDS 61
Alive 61
Bible 61
Brach@@ 61
Bus 61
Cherry 61
Chr@@ 61
Corn@@ 61
Crew 61
Dame 61
Democracy 61
Dennis 61
Deutsche 61
Educ@@ 61
FR 61
Gent@@ 61
Georgia 61
Green@@ 61
Harmon@@ 61
Hob@@ 61
IA@@ 61
Ind@@ 61
Josh 61
Manufac@@ 61
Maur@@ 61
Motors 61
PBS 61
Perci@@ 61
Pig@@ 61
Pus@@ 61
RD 61
Range 61
Ranger 61
Saturn 61
Spr@@ 61
Staff 61
Symp@@ 61
Te 61
Traf@@ 61
Tul@@ 61
Wall@@ 61
Yan 61
Yor@@ 61
abol@@ 61
aceu@@ 61
ancer 61
anti 61
ariidae 61
art@@ 61
aza 61
bank 61
bis 61
boat 61
character 61
cia 61
comput@@ 61
cone 61
coordin@@ 61
dil@@ 61
ected 61
engineering 61
executive 61
fall 61
fast 61
file 61
fluor@@ 61
genus 61
hap@@ 61
idential 61
idge 61
igan 61
imp@@ 61
internal 61
international 61
lem 61
lop@@ 61
nii 61
oked 61
oki 61
pet@@ 61
plex 61
production 61
quadr@@ 61
rho@@ 61
scop@@ 61
sn@@ 61
status 61
trag@@ 61
trav@@ 61
uku 61
ulla 61
uni 61
vil 61
vor@@ 61
û 61
ý 61
ž 61
ε@@ 61
ັ@@ 61
က@@ 61
こ@@ 61
ち@@ 61
て@@ 61
ビ@@ 61
康@@ 61
愛@@ 61
日本@@ 61
梁@@ 61
章@@ 61
經@@ 61
親@@ 61
성@@ 61
아@@ 61
1220 60
1349 60
1455 60
1475 60
1551 60
1624 60
1627 60
1636 60
1702 60
1752 60
1753 60
1764 60
342 60
362 60
387 60
412 60
441 60
479 60
488 60
58.@@ 60
810 60
888 60
Abr@@ 60
Adobe 60
Airways 60
Ann 60
Assass@@ 60
Aston 60
Ble@@ 60
CF 60
Carl@@ 60
Chapel 60
Clark 60
Classical 60
Confeder@@ 60
Crypto@@ 60
Dip@@ 60
Dy@@ 60
Eight 60
FI 60
Fighting 60
GL@@ 60
Gas 60
Get@@ 60
Graham 60
Guild 60
Horiz@@ 60
IGN 60
Institu@@ 60
Int@@ 60
Jenny 60
Kag@@ 60
Kamp@@ 60
Michel 60
Mind@@ 60
NR@@ 60
Ng@@ 60
Oliver 60
PF 60
Pale@@ 60
Raf@@ 60
Rain@@ 60
Renaissance 60
Rest@@ 60
Rex 60
Robin 60
Sad@@ 60
Scientific 60
Sent@@ 60
Snow@@ 60
Thir@@ 60
Trinity 60
Trou@@ 60
Unity 60
Villa 60
Voy@@ 60
Wes@@ 60
Wolf 60
abad 60
aks 60
ao@@ 60
chan 60
content 60
division 60
dong 60
eem 60
eno 60
equation 60
ero@@ 60
esp@@ 60
fasci@@ 60
fro@@ 60
gin 60
hip@@ 60
ias 60
ip 60
izo@@ 60
lain 60
lang 60
linked 60
lon 60
multiple 60
online 60
person 60
pology 60
prec@@ 60
sar 60
skin 60
spr@@ 60
tax@@ 60
tes@@ 60
tial 60
true 60
trunc@@ 60
tual 60
ulin 60
urban 60
verl@@ 60
wiki@@ 60
xia 60
yel@@ 60
zh@@ 60
ś 60
Р@@ 60
ศูน@@ 60
‌@@ 60
え@@ 60
っ@@ 60
ー 60
古@@ 60
如@@ 60
妃@@ 60
赤@@ 60
越@@ 60
魏@@ 60
한@@ 60
10000 59
1190 59
1522 59
1537 59
1697 59
1746 59
374 59
377 59
445 59
504 59
59.@@ 59
634 59
801 59
970 59
Against 59
Andrea 59
Archi@@ 59
Asteraceae 59
Astronom@@ 59
Barr@@ 59
Baz@@ 59
Bh@@ 59
Cole 59
Cost@@ 59
Cran@@ 59
Depression 59
Direct 59
Dus@@ 59
Electronics 59
Guy@@ 59
Harvard 59
Herbert 59
Horror 59
Instrum@@ 59
Investig@@ 59
Jennifer 59
Jun 59
Ka 59
Kent 59
LL 59
Mail 59
Mang@@ 59
Manuel 59
Mikhail 59
Mim@@ 59
Mountains 59
NATO 59
ND@@ 59
NE 59
NY 59
Naval 59
Neil 59
Oxy@@ 59
Pau@@ 59
Phen@@ 59
Phys@@ 59
Pos@@ 59
Rail 59
Rey 59
Sant@@ 59
Set@@ 59
Sound@@ 59
Tou@@ 59
Tox@@ 59
Transit 59
UB 59
Ug@@ 59
Volume 59
Wid@@ 59
acre 59
anatom@@ 59
anner 59
apa 59
bec@@ 59
borough 59
cent 59
cible 59
club 59
cose 59
dead 59
dison 59
edition 59
ener@@ 59
ente 59
epi@@ 59
essment 59
far@@ 59
fen@@ 59
hara 59
hid@@ 59
iden 59
igu@@ 59
illo 59
ions 59
iria 59
lane 59
lines 59
loss@@ 59
many 59
myth@@ 59
nic@@ 59
odendron 59
omus 59
ophora 59
otom@@ 59
ource 59
poli@@ 59
pros@@ 59
ran 59
result 59
score 59
set@@ 59
shell 59
shot 59
soft 59
tiz@@ 59
ud 59
ules 59
umi@@ 59
wal 59
walk 59
young 59
ú@@ 59
ω@@ 59
א@@ 59
ทักษ@@ 59
ạ 59
ミ@@ 59
信@@ 59
永@@ 59
玉@@ 59
陵@@ 59
경@@ 59
신@@ 59
1337 58
1430 58
1461 58
1513 58
1562 58
1674 58
1696 58
372 58
378 58
505 58
559 58
604 58
725 58
AU@@ 58
Achiev@@ 58
Arab 58
Bloom@@ 58
Cath@@ 58
Chi 58
Christ@@ 58
Con 58
Conservation 58
Dag@@ 58
Did@@ 58
EF@@ 58
Eve 58
Fan@@ 58
Gn@@ 58
Grande 58
Ground 58
HI 58
HTTP 58
Horse 58
Hypo@@ 58
Inst@@ 58
Jung 58
Lati@@ 58
Louise 58
Morris 58
Ore@@ 58
Osaka 58
PDF 58
Parker 58
Passion 58
Prac@@ 58
Proper@@ 58
Ray@@ 58
Re 58
Resist@@ 58
Robinson 58
Rule 58
SAP 58
Scottish 58
Slo@@ 58
Sonic 58
Sti@@ 58
Termin@@ 58
Tow@@ 58
Trig@@ 58
Turbo 58
Underground 58
Upon 58
Vi 58
Yan@@ 58
alan 58
amba 58
arp@@ 58
ases 58
asp@@ 58
bie 58
bio@@ 58
carrier 58
chu@@ 58
church 58
circuit 58
column 58
electro@@ 58
endra 58
esh 58
esque 58
friend 58
hard@@ 58
hin 58
ien 58
ingo 58
inian 58
kw@@ 58
large 58
leyball 58
lich@@ 58
mas 58
ml 58
pass 58
pose 58
protein@@ 58
regular 58
repe@@ 58
resistance 58
review 58
rhy@@ 58
ride 58
sak@@ 58
tak@@ 58
thly 58
tran@@ 58
venti@@ 58
what 58
working 58
« 58
ş 58
Š 58
ɪ@@ 58
́@@ 58
ลิม 58
ა@@ 58
ゴ@@ 58
園@@ 58
野@@ 58
1160 57
1275 57
1320 57
1388 57
1608 57
1654 57
1682 57
1711 57
1757 57
31.@@ 57
339 57
364 57
396 57
444 57
55,@@ 57
626 57
790 57
95@@ 57
Agriculture 57
Arnold 57
Ast@@ 57
Bish@@ 57
Bog@@ 57
Boom 57
Cau@@ 57
Ces@@ 57
Chik@@ 57
Coron@@ 57
Corpor@@ 57
Dirty 57
Ds 57
Eric@@ 57
Flav@@ 57
Fuj@@ 57
HL 57
HM 57
Immun@@ 57
Joy 57
Justin 57
Kennedy 57
Ladies 57
Lepid@@ 57
Lucas 57
Luci@@ 57
MF 57
Miami 57
Mine 57
Morgan 57
NG 57
Navy 57
Officer 57
Perry 57
Pleur@@ 57
Price 57
Respon@@ 57
Rho@@ 57
Rhodes 57
Rich 57
Rob 57
Ron 57
Sabbath 57
Scienti@@ 57
Shawn 57
Stand 57
Stuart 57
Sultan 57
Switch 57
Then 57
Transport 57
UV 57
Was 57
Zhao 57
aching 57
antum 57
apon 57
aus 57
avi 57
both 57
edo 57
elling 57
elong@@ 57
ffer 57
fic 57
frequency 57
gir@@ 57
icon@@ 57
illi 57
interface 57
itt 57
kok 57
lation 57
lep@@ 57
morph@@ 57
o- 57
oblast 57
onal@@ 57
opl@@ 57
osum 57
pair 57
pers 57
plo@@ 57
proj@@ 57
qua 57
rain 57
retr@@ 57
sic 57
sius 57
stat@@ 57
ston 57
tah@@ 57
taya 57
ternal 57
tie 57
tour 57
traditional 57
vision 57
without 57
ة@@ 57
ລ@@ 57
•@@ 57
石@@ 57
黄@@ 57
1050 56
1336 56
1389 56
1468 56
1512 56
1566 56
1621 56
1652 56
1663 56
1669 56
1690 56
1751 56
359 56
363 56
391 56
421 56
443 56
455 56
528 56
605 56
622 56
636 56
645 56
69.@@ 56
718 56
79.@@ 56
Analysis 56
Arti@@ 56
Based 56
Berry 56
Bruno 56
Cri@@ 56
EB@@ 56
EMI 56
Finale 56
Gary 56
Georg 56
Govern@@ 56
Harper 56
Hash@@ 56
Historia 56
Hugh 56
Kak@@ 56
Kenneth 56
Lec@@ 56
Lisa 56
Low@@ 56
Manchester 56
Maxim@@ 56
Mazda 56
Megal@@ 56
Mei 56
Mix@@ 56
NB 56
Orch@@ 56
Papa 56
Physical 56
Roland 56
SG 56
Squad 56
Strike 56
Sud@@ 56
TT 56
Tang@@ 56
Vietnam 56
Vincent 56
Yar@@ 56
Yun@@ 56
Zer@@ 56
aic 56
ale@@ 56
ampli@@ 56
ange 56
anted 56
ares 56
aring 56
bond 56
call 56
cer 56
chan@@ 56
div@@ 56
early 56
elin 56
enty 56
gan 56
gon 56
itu@@ 56
kii 56
late 56
lead 56
lik@@ 56
lus 56
magnitude 56
mak@@ 56
median 56
message 56
modern 56
mont 56
mutation 56
nos@@ 56
ocephalus 56
original 56
ousness 56
perfect 56
perten@@ 56
rian 56
road 56
stell@@ 56
suki 56
sum 56
swit@@ 56
tide 56
transport 56
turing 56
university 56
van@@ 56
with@@ 56
yok@@ 56
yph@@ 56
သ@@ 56
千@@ 56
定@@ 56
島@@ 56
省@@ 56
者@@ 56
英@@ 56
1.0@@ 55
1248 55
1270 55
1290 55
1314 55
1394 55
1399 55
1428 55
1563 55
1633 55
1635 55
1646 55
1664 55
1698 55
1703 55
1712 55
1721 55
1754 55
1769 55
399 55
427 55
477 55
515 55
516 55
536 55
57.@@ 55
6000 55
601 55
627 55
67,@@ 55
Annual 55
Anton@@ 55
Bah@@ 55
Beta 55
Brun@@ 55
Bull 55
CAM 55
Cant@@ 55
Cho@@ 55
Commonwealth 55
Cont@@ 55
FT 55
Favor@@ 55
Format 55
Fuk@@ 55
GPS 55
GSM 55
Gel@@ 55
Had@@ 55
Hous@@ 55
How@@ 55
IR 55
Ish@@ 55
Jade 55
Ket@@ 55
Kno@@ 55
Kod@@ 55
Latin 55
Leslie 55
Mar 55
Metro@@ 55
Monte 55
Moscow 55
NN 55
Ng 55
Part@@ 55
Pati@@ 55
Pho@@ 55
Purple 55
SU 55
Scot@@ 55
Scotland 55
Sims 55
Skat@@ 55
Strange 55
Tech 55
Tech@@ 55
Teen@@ 55
Thal@@ 55
Thriller 55
Ubuntu 55
Word 55
Xu 55
Yuk@@ 55
aded 55
aku@@ 55
alt 55
asy 55
aud@@ 55
biology 55
blog@@ 55
cancer 55
clusive 55
deep 55
direc@@ 55
dre@@ 55
edra 55
ehouse 55
enne 55
esi 55
eva 55
gor@@ 55
him 55
home 55
istry 55
ive 55
lag@@ 55
lah 55
lug@@ 55
office 55
ograph@@ 55
ois@@ 55
once 55
one@@ 55
ores 55
otor 55
part@@ 55
phth@@ 55
phy 55
playing 55
pp 55
put@@ 55
ram 55
speed 55
thday 55
tox@@ 55
utt@@ 55
virtual 55
was@@ 55
wheel 55
ő 55
ດ@@ 55
គ@@ 55
よ@@ 55
ン 55
京@@ 55
娘@@ 55
￼@@ 55
1130 54
1234 54
1429 54
1535 54
1561 54
1576 54
1578 54
1595 54
1659 54
431 54
668 54
715 54
717 54
730 54
89.@@ 54
925 54
97.@@ 54
ARC 54
Adams 54
Adri@@ 54
Aeg@@ 54
Agent 54
Airbus 54
Ale@@ 54
Ar 54
Autonom@@ 54
BAS@@ 54
Birds 54
Brother 54
Burma 54
Buz@@ 54
CB@@ 54
Civ@@ 54
Commercial 54
Denmark 54
Evangel@@ 54
Fa@@ 54
Ferr@@ 54
Graph@@ 54
Gru@@ 54
Hex@@ 54
IATA 54
KK 54
Kane 54
LGBT 54
Langu@@ 54
Lap@@ 54
Luke 54
MVP 54
Much 54
OT@@ 54
Ohio 54
Ou@@ 54
Pain 54
Physics 54
Rolling 54
Ruby 54
SK 54
Satellite 54
Script 54
Soft 54
Solo 54
Spot@@ 54
Stri@@ 54
Syst@@ 54
Talent 54
Thompson 54
Trach@@ 54
Tun@@ 54
Turismo 54
Veter@@ 54
Zel@@ 54
alis@@ 54
anak@@ 54
antagon@@ 54
arts 54
bass 54
chil@@ 54
curr@@ 54
dale 54
dar@@ 54
degree 54
differ@@ 54
down@@ 54
drop 54
eca 54
eld 54
entation 54
enter 54
evolution 54
functions 54
fusion 54
gy@@ 54
igo 54
inst@@ 54
integr@@ 54
isation 54
isc@@ 54
iscus 54
istan 54
kh 54
kle@@ 54
know 54
leaf 54
lies 54
may 54
middle 54
ming 54
nav@@ 54
nis@@ 54
oder@@ 54
oir 54
omer 54
omin@@ 54
orium 54
oste@@ 54
pan 54
pass@@ 54
pep@@ 54
physics 54
plane 54
pling 54
propri@@ 54
protoc@@ 54
pseudo@@ 54
rection 54
s- 54
sav@@ 54
shock 54
sir@@ 54
thre@@ 54
title 54
total 54
tral 54
triang@@ 54
tru@@ 54
uss 54
vic 54
voice 54
yak@@ 54
§ 54
ל@@ 54
มิถุ@@ 54
สวย@@ 54
เสธ 54
ພ@@ 54
™ 54
ギ@@ 54
機@@ 54
秋@@ 54
空@@ 54
見@@ 54
記@@ 54
郎@@ 54
面@@ 54
나@@ 54
자@@ 54
03.@@ 53
1,2 53
1235 53
1241 53
1422 53
1425 53
1523 53
1554 53
1596 53
1619 53
1634 53
1684 53
1747 53
201@@ 53
32@@ 53
416 53
418 53
423 53
473 53
514 53
527 53
545 53
56,@@ 53
712 53
775 53
Alternative 53
Arab@@ 53
Ba 53
Baker 53
Bron@@ 53
Buddh@@ 53
Catholic 53
Consum@@ 53
Creek 53
Current 53
Dipl@@ 53
Dri@@ 53
Dum@@ 53
Dut@@ 53
Eas@@ 53
Emma 53
Epi@@ 53
Experience 53
Fon@@ 53
Gom@@ 53
Gothic 53
Gregory 53
Gulf 53
Hik@@ 53
Hungarian 53
Imp@@ 53
Innovation 53
KK@@ 53
Keep 53
Kis@@ 53
Ko 53
Legends 53
Lincoln 53
Lingu@@ 53
Lum@@ 53
Luna 53
Mall 53
Michelle 53
Ministry 53
ND 53
Nice 53
Oli@@ 53
Punk 53
Ram 53
Scream 53
Secondary 53
Support 53
Thunder 53
Tir@@ 53
Verte@@ 53
Wh 53
XL@@ 53
abi 53
against 53
agan 53
ags 53
aq 53
before 53
bility 53
bow@@ 53
dier 53
elli@@ 53
elus 53
ephone 53
eto@@ 53
etto 53
fat@@ 53
fix 53
government 53
ict 53
imin@@ 53
inda 53
island 53
iter 53
kir@@ 53
lb 53
lev@@ 53
liber@@ 53
lowers 53
num 53
ocentr@@ 53
olla 53
ologist 53
peak 53
phil@@ 53
pping 53
pur 53
rant 53
rat@@ 53
rell 53
rog@@ 53
shan 53
short 53
spe@@ 53
tation 53
thia 53
ular@@ 53
upp@@ 53
vern@@ 53
xa 53
yin 53
²@@ 53
ŋ@@ 53
र@@ 53
คอมมิวนิ@@ 53
สนุน 53
დ@@ 53
რ@@ 53
≈ 53
♥ 53
式@@ 53
景@@ 53
楊@@ 53
羅@@ 53
良@@ 53
리@@ 53
의@@ 53
1259 52
1435 52
1479 52
1505 52
1655 52
1736 52
1771 52
368 52
371 52
394 52
414 52
419 52
Activ@@ 52
Amazon 52
Archae@@ 52
BAFTA 52
Being 52
Broken 52
CB 52
CBC 52
Constitution 52
Cow@@ 52
Crus@@ 52
GE@@ 52
Ga 52
Gaz@@ 52
Illus@@ 52
Italy 52
Jessica 52
Julius 52
Kind 52
Kus@@ 52
Lak@@ 52
Lands@@ 52
Marco 52
Myanmar 52
NASA 52
Natur@@ 52
Nord@@ 52
Outstanding 52
RB 52
Reich@@ 52
Resp@@ 52
Ric@@ 52
Scorpi@@ 52
Seth 52
Sin 52
Sr@@ 52
UNICEF 52
Ut@@ 52
Wake 52
Wan 52
Zhou 52
acked 52
aint 52
amo 52
anced 52
arm 52
atio 52
ayn 52
biom@@ 52
bor 52
border 52
building 52
children 52
clo@@ 52
community 52
cos 52
counter@@ 52
coupl@@ 52
depression 52
dice 52
erry 52
esses 52
essing 52
frac@@ 52
fun@@ 52
give 52
graphic 52
health 52
hen 52
hop 52
idence 52
ifer@@ 52
ikawa 52
iler 52
ingham 52
isch 52
isher 52
kei 52
kov@@ 52
lam 52
leuc@@ 52
mine 52
mis 52
money 52
nan 52
nem@@ 52
nitr@@ 52
none 52
odor@@ 52
oric 52
otran@@ 52
pag@@ 52
parado@@ 52
perception 52
phal@@ 52
ppen 52
quantum 52
regul@@ 52
rid 52
rup@@ 52
segment 52
sun 52
times 52
traf@@ 52
trap@@ 52
tz@@ 52
ui@@ 52
utes 52
ycl@@ 52
yr 52
เวียต 52
ん 52
事@@ 52
二@@ 52
夏@@ 52
孫@@ 52
慶@@ 52
最@@ 52
會@@ 52
本@@ 52
治@@ 52
洪@@ 52
秀@@ 52
수@@ 52
종@@ 52
1.4@@ 51
1371 51
1488 51
1517 51
1553 51
1557 51
1558 51
1673 51
456 51
522 51
681 51
7000 51
768 51
Amer@@ 51
Anth@@ 51
Apollo 51
App 51
Arm 51
Buddhist 51
Carey 51
Casino 51
Coch@@ 51
Combat 51
Combin@@ 51
Commun@@ 51
Course 51
DB@@ 51
DDR 51
Diana 51
Emmy 51
Epic 51
Faith 51
Ferrari 51
Gates 51
Geor@@ 51
Golf 51
Hall@@ 51
Hugo 51
ICAO 51
Independence 51
Intro@@ 51
JP 51
Kath@@ 51
Literature 51
Lob@@ 51
Lus@@ 51
Marc 51
Massachusetts 51
Mexico 51
Nich@@ 51
Ped@@ 51
RP 51
Rac@@ 51
Randy 51
Roberts 51
Sa 51
Sanc@@ 51
Sev@@ 51
Shel@@ 51
Signal 51
Sung@@ 51
Sv@@ 51
Techn@@ 51
UB@@ 51
Wik@@ 51
ache 51
affin@@ 51
aline 51
alo@@ 51
alty 51
ario 51
behavior 51
carbon 51
cau@@ 51
chn@@ 51
cla@@ 51
classical 51
comm@@ 51
compact 51
cue 51
dress 51
esch@@ 51
eu 51
eve 51
fas@@ 51
fic@@ 51
food 51
gul@@ 51
hipo@@ 51
imal 51
inclu@@ 51
infection 51
intermedi@@ 51
lav@@ 51
mar 51
mel 51
modi@@ 51
olf 51
orient@@ 51
oriented 51
pec@@ 51
pha 51
rank 51
reson@@ 51
run 51
ses@@ 51
solution 51
tet@@ 51
tique 51
too 51
tr 51
vas 51
viv@@ 51
ythro@@ 51
š@@ 51
מ@@ 51
क@@ 51
เษก 51
ຄ@@ 51
ệ 51
七@@ 51
部@@ 51
 51
--@@ 50
1346 50
1514 50
1524 50
1564 50
1709 50
190@@ 50
353 50
397 50
422 50
424 50
429 50
535 50
542 50
59,@@ 50
635 50
704 50
997 50
After@@ 50
Artists 50
Aug@@ 50
Bibli@@ 50
Boh@@ 50
Carlo 50
Cave 50
Cena 50
Chin@@ 50
Chit@@ 50
Crisis 50
Cycl@@ 50
DH 50
East@@ 50
Emily 50
Eri@@ 50
Eugene 50
Evans 50
FP@@ 50
Fili@@ 50
Fred 50
Ha 50
Holding 50
Hungary 50
Ide@@ 50
Kang 50
Legacy 50
Lu 50
Mercury 50
Midd@@ 50
Mk 50
Nex@@ 50
Normal 50
OC 50
Palm 50
Plac@@ 50
Plaza 50
Rocky 50
Shield 50
Sri 50
Syl@@ 50
Takah@@ 50
Than@@ 50
Thunder@@ 50
UC 50
Vogue 50
Whis@@ 50
Woods 50
^@@ 50
agi 50
ague 50
amu 50
anza 50
apia 50
artic@@ 50
atia 50
aton 50
aughter 50
berger 50
bloc@@ 50
boy@@ 50
burn 50
choice 50
chu 50
combination 50
cost 50
dog@@ 50
dot 50
during 50
edes 50
ego 50
episode 50
even 50
fu 50
got@@ 50
half 50
haz@@ 50
igi 50
ism@@ 50
itas 50
japon@@ 50
kab@@ 50
key@@ 50
ley@@ 50
lif@@ 50
little 50
medium 50
members 50
moon 50
nea 50
neb@@ 50
oga 50
otop@@ 50
ought 50
oul 50
pad@@ 50
parti@@ 50
pay@@ 50
pei 50
port@@ 50
qu 50
ques 50
rich@@ 50
sag@@ 50
sex@@ 50
shi@@ 50
skaya 50
sol 50
supr@@ 50
sv@@ 50
syst@@ 50
tap@@ 50
tay@@ 50
tea 50
third 50
tific@@ 50
tron@@ 50
urb@@ 50
usal 50
ushi 50
uts 50
vent 50
wen 50
xel 50
yne 50
ν@@ 50
ש@@ 50
นิวยอร์@@ 50
ฟังก์@@ 50
สาท 50
เจ้าอยู่หัว 50
អ@@ 50
› 50
区@@ 50
思@@ 50
惠@@ 50
松@@ 50
語@@ 50
1325 49
1487 49
1531 49
1532 49
1694 49
1710 49
1748 49
381 49
388 49
42.@@ 49
478 49
491 49
539 49
549 49
612 49
616 49
641 49
642 49
667 49
705 49
751 49
890 49
Aaron 49
Administr@@ 49
Analy@@ 49
Anton 49
Bran@@ 49
Burg@@ 49
Cancer 49
Chiang 49
Dana 49
Diff@@ 49
Eddie 49
Evening 49
Finance 49
Hawaii 49
Hey@@ 49
Hier@@ 49
Highway 49
ISA 49
Illustr@@ 49
Ja@@ 49
Joey 49
Joh@@ 49
Jol@@ 49
Julian 49
KC 49
KV 49
Lay@@ 49
Laz@@ 49
Letters 49
Lis@@ 49
Luis 49
Nucle@@ 49
PM@@ 49
Prison 49
Progress 49
Quali@@ 49
Rap 49
Rapid 49
Reh@@ 49
Revol@@ 49
Soy@@ 49
Speci@@ 49
Stanley 49
Sten@@ 49
Stewart 49
Tag@@ 49
Temp@@ 49
Terry 49
Tet@@ 49
Tut@@ 49
Volkswagen 49
WR 49
Zag@@ 49
aan 49
aces 49
agawa 49
aircraft 49
alo 49
arn 49
beat 49
carbon@@ 49
cus@@ 49
dark 49
dir 49
dow@@ 49
due 49
enh@@ 49
ented 49
ered 49
formal 49
groups 49
hav@@ 49
iku 49
ilar 49
jiang 49
jus@@ 49
kia 49
kit 49
kom@@ 49
ologi@@ 49
ophyl@@ 49
pher@@ 49
pod@@ 49
pour 49
psychology 49
ria 49
rostr@@ 49
ru 49
sten@@ 49
stroke 49
tank 49
then@@ 49
tii 49
trieved 49
tures 49
uri@@ 49
uria 49
uro 49
uter 49
uu 49
wald 49
wei 49
wit@@ 49
yla 49
» 49
γ@@ 49
ซอฟต์@@ 49
ฝรั่ง@@ 49
อย่างไร@@ 49
စ@@ 49
ṭ 49
†@@ 49
仙@@ 49
何@@ 49
御@@ 49
物@@ 49
聖@@ 49
順@@ 49
구@@ 49
장@@ 49
지@@ 49
후@@ 49
1305 48
1307 48
1327 48
1390 48
1538 48
1575 48
1579 48
1708 48
1715 48
1742 48
1743 48
1767 48
379 48
481 48
483 48
529 48
576 48
614 48
64,@@ 48
93.@@ 48
96.@@ 48
996 48
AZ 48
Acro@@ 48
Agricul@@ 48
Ahmed 48
Ambassador 48
Andreas 48
Arth@@ 48
Beno@@ 48
Butler 48
Chef 48
Circus 48
Cit@@ 48
Climate 48
Coach 48
Coalition 48
Constitu@@ 48
Continu@@ 48
Cooper 48
Danny 48
Dod@@ 48
Duo 48
Echin@@ 48
Elisabeth 48
Fury 48
Hermann 48
Holdings 48
Hong@@ 48
Hunt 48
Hyundai 48
IEC 48
Ins@@ 48
Jersey 48
LF 48
Laun@@ 48
Leonard 48
Lex@@ 48
Lib@@ 48
Los@@ 48
Lux@@ 48
Marina 48
Milan 48
Minor 48
Mixed 48
Mob@@ 48
Newcastle 48
Nokia 48
Param@@ 48
Path@@ 48
Phal@@ 48
Population 48
Pra@@ 48
Prov@@ 48
Qi@@ 48
Rogers 48
Sequ@@ 48
Stein@@ 48
Styles 48
TNT 48
Tennis 48
Terr@@ 48
Test@@ 48
Tril@@ 48
Wallace 48
Walt 48
Yo 48
acoustic 48
alensis 48
alla 48
amework 48
angular 48
antha 48
anthrop@@ 48
ather@@ 48
avirus 48
band@@ 48
bine 48
borne 48
calcul@@ 48
chemistry 48
coma 48
cru@@ 48
dule 48
ede 48
ega 48
elop@@ 48
embr@@ 48
ences 48
endo 48
ends 48
ennium 48
ern 48
forming 48
gar 48
icide 48
idon 48
ig 48
imi@@ 48
indi@@ 48
inosa 48
ishing 48
jer@@ 48
lave 48
lay@@ 48
lian 48
macul@@ 48
mand@@ 48
metropolitan 48
minute 48
ms@@ 48
mun@@ 48
nership 48
nis 48
oline 48
onne 48
oris 48
partial 48
party 48
person@@ 48
pir@@ 48
play@@ 48
pse 48
quality 48
quot@@ 48
raf@@ 48
rose 48
society 48
story 48
task 48
temple 48
thi 48
tress 48
ucci 48
uses 48
western 48
δ@@ 48
อื่น@@ 48
ื่อนที่ 48
ຣ@@ 48
ả 48
东@@ 48
動@@ 48
宣@@ 48
怪@@ 48
族@@ 48
木@@ 48
源@@ 48
火@@ 48
黒@@ 48
공@@ 48
주@@ 48
1227 47
1291 47
1497 47
1502 47
1529 47
1539 47
1546 47
1552 47
1574 47
1719 47
1730 47
454 47
465 47
494 47
507 47
534 47
628 47
976 47
Alfa 47
Avent@@ 47
Bear 47
Brom@@ 47
Campaign 47
Cand@@ 47
Candy 47
Chap@@ 47
Compar@@ 47
Crow@@ 47
Del 47
Dj@@ 47
Drew 47
Ernest 47
Gab@@ 47
Gay 47
Gilbert 47
Grand@@ 47
Harold 47
Hell@@ 47
Hogan 47
Huang 47
Illinois 47
Invent@@ 47
Isaac 47
Johannes 47
Julia 47
Kem@@ 47
LG 47
Leb@@ 47
Mong@@ 47
Nam 47
Owens 47
Piz@@ 47
Polish 47
Polyg@@ 47
Prel@@ 47
Prob@@ 47
Reichs@@ 47
Rhynch@@ 47
Rudolf 47
Sons 47
Swedish 47
Task 47
Ted 47
Tor 47
Trek 47
UD 47
Un 47
Uran@@ 47
Us@@ 47
Victory 47
World@@ 47
Zy@@ 47
ait@@ 47
alidae 47
ansen 47
arti@@ 47
aven@@ 47
cen@@ 47
cian 47
cler@@ 47
corpor@@ 47
cum@@ 47
disk 47
ections 47
enza 47
essed 47
eval 47
fi 47
gene@@ 47
glo@@ 47
govern@@ 47
grave 47
ied 47
igns 47
ild 47
ily 47
ique 47
laceae 47
lement 47
library 47
lio 47
look 47
mum 47
nix 47
obr@@ 47
ocene 47
olus 47
opping 47
orbital 47
orith@@ 47
ott 47
phis 47
piece 47
pon 47
rif@@ 47
ror 47
sat@@ 47
satur@@ 47
senti@@ 47
step 47
sz@@ 47
thought 47
tok@@ 47
tri 47
trich@@ 47
ums 47
unga 47
uth 47
volume 47
ה@@ 47
คลึง 47
สนเทศ 47
แคนา@@ 47
ຊ@@ 47
奇@@ 47
師@@ 47
慈@@ 47
政@@ 47
1402 46
1406 46
1424 46
1472 46
1481 46
1493 46
1495 46
1509 46
1617 46
1681 46
1728 46
392 46
426 46
471 46
502 46
54,@@ 46
57,@@ 46
602 46
655 46
66,@@ 46
8000 46
969 46
Amy 46
Arc 46
Barcelona 46
Berg@@ 46
Buddha 46
Canal 46
Caribbean 46
Cla@@ 46
Crime 46
Cut@@ 46
Diam@@ 46
Emil 46
Every 46
Find@@ 46
Gem@@ 46
Glo@@ 46
Glu@@ 46
Hawk 46
Heinrich 46
Hos@@ 46
Inform@@ 46
Intel@@ 46
Joel 46
Laura 46
Liberal 46
Lip@@ 46
Lo 46
Lorenzo 46
Macintosh 46
Mete@@ 46
Miles 46
Nacional 46
November 46
Olympi@@ 46
Ophi@@ 46
Paras@@ 46
Pedi@@ 46
Philippe 46
Phillips 46
Phosph@@ 46
Piper 46
Po 46
Quart@@ 46
Recording 46
Rig@@ 46
Secretary 46
Sno@@ 46
Sport@@ 46
Valentine 46
Via 46
Week@@ 46
Xu@@ 46
Yang@@ 46
Yes@@ 46
Zi@@ 46
adr@@ 46
alls 46
ambo@@ 46
amorph@@ 46
ancing 46
asaki 46
aser 46
associated 46
azine 46
bee 46
bes 46
bli@@ 46
cad@@ 46
compound 46
contrast 46
dal 46
dal@@ 46
dell 46
dible 46
different 46
dos 46
dot@@ 46
ec 46
edral 46
ership 46
eves 46
evich 46
expression 46
giant 46
grade 46
hir@@ 46
hole 46
icial 46
ided 46
intest@@ 46
irat@@ 46
jug@@ 46
lich 46
lier 46
met 46
miss@@ 46
nes@@ 46
numbers 46
oc 46
oda 46
ogo 46
olo 46
orbit@@ 46
players 46
positi@@ 46
pt@@ 46
radio 46
rang 46
representation 46
ret 46
rich 46
rid@@ 46
round@@ 46
shire 46
spl@@ 46
television 46
tension 46
thesis 46
uj@@ 46
upon 46
variant 46
vote 46
wen@@ 46
yev 46
zum@@ 46
λ 46
พิสู@@ 46
ທ@@ 46
ァ@@ 46
利@@ 46
台@@ 46
時@@ 46
曹@@ 46
楚@@ 46
泰@@ 46
立@@ 46
電@@ 46
국@@ 46
서@@ 46
씨@@ 46
；@@ 46
･@@ 46
$@@ 45
1284 45
1365 45
1477 45
1622 45
1647 45
1656 45
448 45
449 45
474 45
485 45
506 45
532 45
541 45
624 45
651 45
Alb@@ 45
Arabic 45
Asper@@ 45
Augustus 45
Bamb@@ 45
Belle 45
Bohemia 45
Caes@@ 45
Chase 45
Cob@@ 45
Contin@@ 45
Cra@@ 45
Defence 45
Dres@@ 45
Elvis 45
Fiction 45
Franklin 45
Gli@@ 45
Globe 45
Influ@@ 45
Insur@@ 45
Itali@@ 45
KB 45
Kai 45
Khmer 45
Kok@@ 45
Liberty 45
Lil 45
MCA 45
Madison 45
Newton 45
Olympics 45
Philadelphia 45
Pietro 45
Pix@@ 45
Revolutionary 45
Sett@@ 45
Sierra 45
Spider 45
Susan 45
Tach@@ 45
Tank 45
Tib@@ 45
Tong@@ 45
Tum@@ 45
UE@@ 45
Wag@@ 45
Wiz@@ 45
abil@@ 45
aem@@ 45
again 45
alit@@ 45
alle@@ 45
ante@@ 45
apar@@ 45
arding 45
around 45
asha 45
aver@@ 45
bay@@ 45
called 45
capital 45
conf@@ 45
dan@@ 45
dio 45
edy 45
eia 45
eks 45
elo@@ 45
enge 45
enidae 45
erk@@ 45
esian 45
este 45
far 45
gin@@ 45
guard 45
hak@@ 45
hall 45
heimer 45
ilo 45
indica 45
ink@@ 45
input 45
issa 45
itude 45
ives 45
lary 45
loa 45
mix@@ 45
ophys@@ 45
organization 45
oun 45
personal 45
possible 45
pren@@ 45
prov@@ 45
qui 45
rez 45
rights 45
spatial 45
sper@@ 45
stor@@ 45
tem 45
tionary 45
tly 45
tournament 45
uz 45
va@@ 45
versity 45
wick 45
woo 45
wr@@ 45
yang 45
zed 45
zu@@ 45
è@@ 45
ό@@ 45
มนี 45
สรุ@@ 45
ီ@@ 45
ボ@@ 45
代@@ 45
同@@ 45
名@@ 45
吳@@ 45
园@@ 45
湖@@ 45
色@@ 45
소@@ 45
1070 44
1285 44
1386 44
1478 44
1518 44
1639 44
1657 44
1761 44
199@@ 44
447 44
461 44
551 44
554 44
575 44
587 44
68,@@ 44
975 44
Abdul 44
Ages 44
Annie 44
Armed 44
BI 44
Bach@@ 44
Basketball 44
Bath@@ 44
Bes@@ 44
Boss 44
But 44
CNN 44
Capit@@ 44
Cars 44
Chand@@ 44
Chaos 44
Chev@@ 44
Civic 44
Collins 44
Das 44
Delta 44
Dil@@ 44
Doom 44
Em 44
Evol@@ 44
Fas@@ 44
Fos@@ 44
Found@@ 44
Giuseppe 44
Initiative 44
Isle 44
Italia 44
Kav@@ 44
Kenny 44
Koch 44
LCD 44
Large 44
Lei@@ 44
Math@@ 44
Member 44
Mercy 44
Mum@@ 44
Music@@ 44
Muslim 44
Noble 44
Nymph@@ 44
Orton 44
Palazzo 44
Paper 44
Promotion 44
RAF 44
Raiders 44
Represent@@ 44
Rit@@ 44
Riv@@ 44
SSR 44
Sever@@ 44
Su 44
Temper@@ 44
Tig@@ 44
Trophy 44
Typh@@ 44
Walking 44
adem@@ 44
alde@@ 44
alog 44
anni 44
aper 44
application 44
arer 44
asting 44
atal 44
ater@@ 44
atis 44
atom 44
birth 44
choose 44
cles 44
cons@@ 44
conson@@ 44
constant 44
could 44
dar 44
digit@@ 44
eases 44
ebo 44
ede@@ 44
edit@@ 44
els@@ 44
ement@@ 44
emy 44
ener 44
escope 44
eses 44
eux 44
events 44
failure 44
fam@@ 44
fate 44
fo 44
games 44
got 44
hen@@ 44
heur@@ 44
human@@ 44
iana 44
ican 44
ishes 44
iso@@ 44
kig@@ 44
lact@@ 44
ladi@@ 44
lex@@ 44
lim 44
lingu@@ 44
medical 44
mess@@ 44
miz@@ 44
nati@@ 44
neutr@@ 44
noon 44
odus 44
official 44
orian 44
ornis 44
ory@@ 44
oter 44
peer 44
phi 44
polit@@ 44
prin@@ 44
radial 44
ranking 44
real@@ 44
rest 44
rig@@ 44
rus 44
same 44
sii 44
struc@@ 44
suc@@ 44
sur 44
sure 44
target 44
tended 44
these 44
training 44
ude 44
unger 44
vival 44
ward@@ 44
yar@@ 44
ycle 44
zhou 44
®@@ 44
Å 44
ń 44
ʰ@@ 44
δ 44
λ@@ 44
ω 44
ْ@@ 44
เศส 44
္@@ 44
ြ@@ 44
ភ@@ 44
℃ 44
≥ 44
○@@ 44
ケ@@ 44
多@@ 44
夫@@ 44
徳@@ 44
戰@@ 44
敬@@ 44
是@@ 44
犬@@ 44
鉄@@ 44
동@@ 44
시@@ 44
1258 43
1308 43
1382 43
1410 43
1508 43
1631 43
1705 43
2,3 43
373 43
389 43
492 43
493 43
523 43
586 43
652 43
701 43
814 43
815 43
9000 43
Adi@@ 43
Ain 43
Aph@@ 43
Audit@@ 43
Aver@@ 43
Berkeley 43
Carr@@ 43
Chance 43
Communist 43
Crim@@ 43
Desert 43
Develop@@ 43
Dex@@ 43
Dick 43
Dick@@ 43
Dys@@ 43
Einstein 43
Felix 43
Four@@ 43
Frequ@@ 43
Gat@@ 43
Genesis 43
Glob@@ 43
Greg 43
Guerr@@ 43
Guil@@ 43
Hut@@ 43
IB 43
Indiana 43
Institut 43
Kay@@ 43
Kl@@ 43
Manhattan 43
Master@@ 43
Mini@@ 43
Nau@@ 43
Ostr@@ 43
Owen 43
Parad@@ 43
Parti@@ 43
Pennsylvania 43
Pieter 43
Ralph 43
Rav@@ 43
Rhap@@ 43
Rico 43
Route 43
Sales 43
Secre@@ 43
Section 43
Spin@@ 43
Spo@@ 43
Stere@@ 43
Sund@@ 43
Sut@@ 43
Thomson 43
Tus@@ 43
UMP 43
VW 43
Variety 43
Vau@@ 43
Wer@@ 43
Ya 43
Yok@@ 43
abstr@@ 43
abuse 43
adj@@ 43
ahan 43
aining 43
analy@@ 43
anne 43
anom@@ 43
attribu@@ 43
auer 43
auth@@ 43
ayn@@ 43
bro 43
bute 43
chir@@ 43
chus 43
cial 43
cic@@ 43
concept 43
concert 43
craft 43
dess 43
dies 43
diff@@ 43
disc 43
dition 43
ead 43
ectiv@@ 43
elis 43
enko 43
etine 43
eur 43
exchange 43
excit@@ 43
found 43
hii 43
hir 43
hul@@ 43
infin@@ 43
inform@@ 43
iter@@ 43
kes 43
kind 43
kur@@ 43
lap 43
loss 43
male 43
mem@@ 43
mom@@ 43
noise 43
ocarp@@ 43
olig@@ 43
oque 43
oug@@ 43
par 43
ped 43
porter 43
prob@@ 43
required 43
rev@@ 43
ries 43
ror@@ 43
rum 43
switch 43
symp@@ 43
tification 43
uda 43
until 43
vation 43
zon@@ 43
อาวาส 43
ຳ@@ 43
ပ@@ 43
ះ@@ 43
ố 43
す@@ 43
仮@@ 43
嘉@@ 43
宇@@ 43
里@@ 43
1261 42
1356 42
1474 42
1591 42
1679 42
1686 42
1723 42
1737 42
442 42
50.@@ 42
521 42
537 42
547 42
562 42
595 42
675 42
708 42
Adult 42
Bhar@@ 42
Boul@@ 42
Bu 42
Bush 42
Cay@@ 42
Chim@@ 42
Cic@@ 42
Const@@ 42
Craig 42
Cron@@ 42
Definition 42
Distribution 42
En 42
Et@@ 42
Fellowship 42
Form@@ 42
Formula 42
Georges 42
Gib@@ 42
Glenn 42
Grade 42
Hip 42
Industries 42
Ivan@@ 42
Lang 42
Lom@@ 42
Lords 42
Lup@@ 42
MAC 42
Mann@@ 42
Marshall 42
Mart@@ 42
NA@@ 42
NES 42
Nah@@ 42
Nih@@ 42
Oh@@ 42
Omega 42
Per 42
Phar@@ 42
Pist@@ 42
Pok@@ 42
Salv@@ 42
Sisters 42
Sug@@ 42
Than 42
Tot@@ 42
VIP 42
Velvet 42
Wen@@ 42
Won 42
acks 42
aland 42
alin 42
ange@@ 42
anium 42
annon 42
approach 42
ask@@ 42
assy 42
ata@@ 42
atives 42
autonom@@ 42
calyp@@ 42
chilus 42
cili@@ 42
clinical 42
controlled 42
cot 42
emis@@ 42
ensor 42
entz 42
erie 42
exper@@ 42
feld 42
fin 42
former 42
gem@@ 42
global 42
hier@@ 42
iche 42
imoto 42
insky 42
ires 42
ishment 42
kho@@ 42
king@@ 42
magne@@ 42
material 42
mentation 42
nchron@@ 42
neck 42
nin 42
och 42
ocr@@ 42
omen@@ 42
opard 42
ordinary 42
oti@@ 42
outer 42
phora 42
phyllum 42
placement 42
popular 42
prime 42
prom@@ 42
release 42
rio 42
ros 42
sel 42
sources 42
suka 42
tigen 42
treatment 42
variable 42
woman 42
yas@@ 42
yeon 42
ylon 42
Ø 42
σ@@ 42
य@@ 42
สนับ@@ 42
ใ 42
ไ 42
∞ 42
≠ 42
め@@ 42
华@@ 42
合@@ 42
特@@ 42
相@@ 42
知@@ 42
郭@@ 42
鄭@@ 42
間@@ 42
릉@@ 42
07@@ 41
1303 41
1315 41
1405 41
1431 41
1732 41
393 41
428 41
468 41
482 41
495 41
531 41
538 41
585 41
613 41
Aircraft 41
Antoine 41
Arist@@ 41
Aster@@ 41
Bov@@ 41
Buck@@ 41
Cerat@@ 41
Chan@@ 41
Chem@@ 41
Critical 41
Daddy 41
Daw@@ 41
Dollar 41
Drake 41
Ellen 41
Fav@@ 41
Fear 41
Fellow 41
Game@@ 41
Geographic 41
German@@ 41
Guardi@@ 41
Hag@@ 41
Hannah 41
Helen 41
Henn@@ 41
Historical 41
Holly 41
ICC 41
Initi@@ 41
Isabella 41
Iv@@ 41
Jag@@ 41
January 41
KV@@ 41
Kara 41
Khal@@ 41
Kou@@ 41
LLC 41
Lal@@ 41
Leader 41
Lines 41
Liz@@ 41
Malay@@ 41
Malcolm 41
Mama 41
Mart 41
Ming 41
Mu 41
Murray 41
Muz@@ 41
NCAA 41
Navig@@ 41
News@@ 41
Nick@@ 41
Ninja 41
Ow@@ 41
Philippines 41
Pi 41
Pope 41
Progressive 41
Qing 41
Reserve 41
Rod 41
Ronald 41
Santiago 41
Se 41
Sit@@ 41
Spike 41
Spin 41
Stan@@ 41
TI 41
Tad@@ 41
Tin 41
Tina 41
VV@@ 41
Vill@@ 41
Vor@@ 41
Wii 41
Wings 41
Wis@@ 41
Wright 41
Xia@@ 41
acon@@ 41
acus 41
adaptation 41
airs 41
apped 41
aver 41
awn 41
bing 41
brom@@ 41
capit@@ 41
cent@@ 41
char 41
circum@@ 41
component 41
cord@@ 41
council 41
cultural 41
determin@@ 41
differenti@@ 41
director 41
diz@@ 41
domin@@ 41
eil 41
elements 41
fold 41
four@@ 41
geome@@ 41
hp 41
ht 41
hwa 41
hy 41
ication 41
igg@@ 41
igh 41
iki@@ 41
ina@@ 41
iner 41
inge 41
knowledge 41
laws 41
ld 41
least 41
leman 41
length 41
leo 41
ligh@@ 41
mart 41
mart@@ 41
mation 41
omys 41
opti@@ 41
optim@@ 41
ore@@ 41
oru 41
osi@@ 41
ovi@@ 41
ozo@@ 41
phant 41
physical 41
plug@@ 41
pm 41
radiation 41
ris 41
rix 41
silver 41
sm 41
stag@@ 41
states 41
sty@@ 41
summer 41
sup@@ 41
support 41
sut@@ 41
tag 41
tainable 41
thro@@ 41
tified 41
together 41
tres 41
trix 41
tropical 41
ving 41
whe@@ 41
work@@ 41
ος 41
р@@ 41
ลฯ 41
ហ@@ 41
⊙ 41
ツ@@ 41
ベ@@ 41
全@@ 41
死@@ 41
衛@@ 41
隆@@ 41
다@@ 41
1355 40
1378 40
1396 40
1675 40
1692 40
1716 40
1717 40
1725 40
1729 40
409 40
462 40
472 40
496 40
544 40
548 40
609 40
629 40
92.@@ 40
99,@@ 40
Abraham 40
Auto@@ 40
Bob@@ 40
Bon 40
Broadway 40
Ce@@ 40
Chen@@ 40
Colin 40
Dok@@ 40
Dong 40
ESA 40
Econom@@ 40
Edwin 40
Ein@@ 40
Ethn@@ 40
Fem@@ 40
Fourth 40
Fried@@ 40
Front@@ 40
Hend@@ 40
Honor@@ 40
Houston 40
IST@@ 40
Jon@@ 40
Kang@@ 40
Koh@@ 40
Kre@@ 40
LT@@ 40
Libre 40
Minute 40
Ms 40
NAT@@ 40
Nad@@ 40
Nancy 40
Ne 40
Never@@ 40
Nob@@ 40
Peak 40
Philippine 40
Port@@ 40
Priv@@ 40
Rosa 40
Rud@@ 40
Siege 40
Ski@@ 40
Suk@@ 40
Targ@@ 40
Va@@ 40
Venice 40
Vice 40
Vista 40
Warren 40
Writing 40
aar 40
aber 40
absolute 40
acs 40
adis 40
aler 40
alled 40
aller@@ 40
alth 40
althcare 40
amph@@ 40
apor@@ 40
avia 40
bed 40
business 40
camp 40
cis 40
connected 40
contact 40
dent@@ 40
did 40
dn 40
dose 40
eles 40
endron 40
evol@@ 40
example 40
films 40
fri@@ 40
gers 40
gr 40
grey 40
gris 40
hee 40
height 40
hl 40
hon 40
how 40
ib 40
icked 40
iled 40
illed 40
illon 40
inter 40
isp@@ 40
kil@@ 40
lay 40
lis@@ 40
magn@@ 40
mill@@ 40
mobile 40
mouth 40
ograph 40
olor 40
oring 40
orn@@ 40
otes 40
outh 40
ovsky 40
population 40
quanti@@ 40
quez 40
refl@@ 40
ren 40
ried 40
rod 40
scre@@ 40
sible 40
solar 40
storage 40
stric@@ 40
substance 40
synchron@@ 40
tice 40
toler@@ 40
transmission 40
tubercul@@ 40
uba 40
ues 40
universal 40
vertebr@@ 40
vol 40
water@@ 40
website 40
wn@@ 40
yar 40
Ç 40
ë@@ 40
Δ@@ 40
Ω 40
ی@@ 40
म@@ 40
स@@ 40
รวจ 40
ធ@@ 40
♣ 40
け@@ 40
ル 40
前@@ 40
条@@ 40
歌@@ 40
起@@ 40
郡@@ 40
雲@@ 40
도@@ 40
라@@ 40
민@@ 40
1296 39
1744 39
192@@ 39
198@@ 39
31,@@ 39
41.@@ 39
413 39
439 39
446 39
518 39
603 39
656 39
Acu@@ 39
Alc@@ 39
Amateur 39
Andre@@ 39
Asp@@ 39
Baptist 39
Bavaria 39
Bundes@@ 39
Cali@@ 39
Cameron 39
Chung 39
Cola 39
Confes@@ 39
Constantine 39
Cox 39
Cyan@@ 39
Dee 39
Donn@@ 39
Dram@@ 39
Eras@@ 39
FP 39
FX 39
February 39
Fernando 39
Freder@@ 39
Fru@@ 39
Gram@@ 39
Hist@@ 39
Hou@@ 39
IG 39
Id@@ 39
Israel 39
KM 39
Lai 39
Lam 39
Lead@@ 39
Lights 39
Liverpool 39
MG@@ 39
Marqu@@ 39
Marsh@@ 39
Michigan 39
Miguel 39
Mt 39
Murder 39
Native 39
Neville 39
Non 39
Operations 39
Pengu@@ 39
Pis@@ 39
Poland 39
Put@@ 39
RF@@ 39
SG@@ 39
Self 39
Senate 39
Shal@@ 39
Shig@@ 39
Smil@@ 39
Spencer 39
Sweden 39
Ta 39
Vin@@ 39
Ward 39
Well 39
Wy@@ 39
Xavier 39
abri@@ 39
alisation 39
allo 39
alp@@ 39
app 39
arom@@ 39
atten@@ 39
atu 39
awi 39
bes@@ 39
biot@@ 39
camp@@ 39
commun@@ 39
cour@@ 39
cule 39
dez 39
eg 39
emma 39
epis@@ 39
erian 39
fan 39
fit@@ 39
fuel 39
icket 39
independent 39
iton 39
jan@@ 39
kup 39
lair 39
lot@@ 39
maker 39
mature 39
maxim@@ 39
oci@@ 39
oj@@ 39
omorph@@ 39
osaur@@ 39
owski 39
oz 39
palli@@ 39
param@@ 39
peace 39
pen 39
pit 39
pol 39
potenti@@ 39
present 39
promot@@ 39
rad 39
rapid 39
ratic 39
rea 39
resist@@ 39
resp@@ 39
respirat@@ 39
rit 39
screen 39
simple 39
soph@@ 39
sten 39
stret@@ 39
talk 39
tat 39
tible 39
tries 39
trom@@ 39
uga 39
ulum 39
ups 39
ushima 39
visible 39
warf 39
week 39
yline 39
yt@@ 39
zer@@ 39
ğ 39
̍ 39
ב@@ 39
بن 39
นิตย@@ 39
มนุ@@ 39
็กซิ@@ 39
ច@@ 39
ោ@@ 39
ំ@@ 39
‹ 39
せ@@ 39
ヒ@@ 39
仲@@ 39
將軍@@ 39
恭@@ 39
沙@@ 39
社@@ 39
虎@@ 39
고@@ 39
기@@ 39
선@@ 39
제@@ 39
1295 38
1377 38
1433 38
1444 38
1507 38
1668 38
1733 38
1749 38
40.@@ 38
438 38
Absol@@ 38
Ah 38
Amsterdam 38
Anh@@ 38
Avi@@ 38
Bears 38
Bill@@ 38
Billie 38
Brah@@ 38
Brand@@ 38
Brow@@ 38
CU@@ 38
Caesar 38
Cag@@ 38
Campbell 38
Cha 38
Dani@@ 38
Dau@@ 38
Democ@@ 38
Dul@@ 38
Dyn@@ 38
Estate 38
Gard@@ 38
Gek@@ 38
Gene@@ 38
Gill@@ 38
Guar@@ 38
Hardy 38
Historic 38
Hung@@ 38
Hurricane 38
Jab@@ 38
Jamie 38
Jewish 38
Jus@@ 38
Label 38
Labor 38
Lig@@ 38
Lil@@ 38
Mae 38
Mani@@ 38
Marx@@ 38
Monday 38
Nicol@@ 38
Nicole 38
Nish@@ 38
Och@@ 38
Paran@@ 38
Peninsula 38
Perf@@ 38
Plate 38
Problem 38
Raja 38
Raz@@ 38
Reich 38
Relations 38
Santos 38
Schools 38
Senior 38
Simul@@ 38
Soccer 38
Some 38
Spor@@ 38
Sullivan 38
TU 38
Technologies 38
Their 38
Trag@@ 38
Tu 38
UCLA 38
What@@ 38
Wiki 38
Yuri 38
Za@@ 38
` 38
acr@@ 38
amar@@ 38
ames 38
antes 38
archi@@ 38
areas 38
atan 38
bora 38
cade 38
chant 38
coin 38
coronavirus 38
cra@@ 38
critical 38
dine 38
dost@@ 38
dream 38
eka 38
emi 38
enburg 38
enna 38
ennial 38
fem@@ 38
flat 38
flux 38
forcement 38
fron@@ 38
gap 38
gian 38
given 38
greater 38
hed@@ 38
horizontal 38
ieu 38
ife 38
imus 38
ineer 38
influ@@ 38
inside 38
label 38
lau@@ 38
liquid 38
liter@@ 38
magazine 38
mare 38
mata 38
mini 38
nation@@ 38
nature 38
novel 38
olar@@ 38
oms 38
onau@@ 38
oso 38
oss 38
paras@@ 38
pas 38
peti@@ 38
phon 38
pio 38
plen@@ 38
ppen@@ 38
propor@@ 38
protection 38
province 38
punc@@ 38
rane 38
reduction 38
rei 38
relative 38
royal 38
solo 38
stan@@ 38
stick 38
thin 38
thing 38
uch 38
ved 38
within 38
xes 38
xima 38
İ 38
ʻ 38
ρ@@ 38
ូ@@ 38
ḥ 38
ネ@@ 38
ペ@@ 38
ヤ@@ 38
使@@ 38
場@@ 38
夢@@ 38
寧@@ 38
府@@ 38
度@@ 38
殿@@ 38
玄@@ 38
界@@ 38
胡@@ 38
興@@ 38
貞@@ 38
超@@ 38
龙@@ 38
영@@ 38
 38
1347 37
1458 37
1466 37
1528 37
1577 37
1586 37
1677 37
1691 37
1731 37
187@@ 37
383 37
436 37
463 37
722 37
Ail@@ 37
Americans 37
Art@@ 37
Athletic 37
Austrian 37
Bee 37
Beyon@@ 37
Bourbon 37
Buffalo 37
Buil@@ 37
Chaet@@ 37
Charts 37
Cum@@ 37
Drac@@ 37
EB 37
Est 37
Fields 37
Fif@@ 37
Fleet 37
Florence 37
Fuji@@ 37
Fuku@@ 37
Garr@@ 37
Greece 37
Greg@@ 37
Gustav 37
Gymn@@ 37
Gymnasium 37
Harbor 37
Harris 37
Internationale 37
Jacob@@ 37
Jans@@ 37
Job 37
Josef 37
Ling@@ 37
Manif@@ 37
Marcus 37
Mariah 37
Meh@@ 37
Mitchell 37
Morrison 37
Nobel 37
Noc@@ 37
Pant@@ 37
Poin@@ 37
RR 37
Roh@@ 37
Ron@@ 37
Sand 37
Sant 37
Sham@@ 37
Sic@@ 37
Solar 37
Steam 37
Superior 37
Swift 37
Tan 37
Tex@@ 37
Trail 37
Ves@@ 37
Vik@@ 37
WI 37
Wrest@@ 37
Wyatt 37
aders 37
adia 37
aena 37
aff 37
ained 37
alba 37
alphabet 37
anian 37
anol 37
anos 37
aret 37
assen 37
asu 37
azz@@ 37
bell 37
blu@@ 37
cari@@ 37
carry 37
cel 37
charge 37
circle 37
classification 37
cold 37
conqu@@ 37
continuous 37
cost@@ 37
definition 37
device 37
dii 37
diidae 37
domes@@ 37
dra 37
echn@@ 37
eder 37
effects 37
eir@@ 37
eler 37
elt@@ 37
emotional 37
erc@@ 37
eries 37
ernet 37
ets@@ 37
false 37
fan@@ 37
fighter 37
flight 37
foc@@ 37
fru@@ 37
garden 37
happy 37
hill 37
inata 37
interest 37
inv@@ 37
isco 37
jar@@ 37
jur@@ 37
later 37
lida 37
lun@@ 37
mam@@ 37
metr@@ 37
minister 37
movie 37
nan@@ 37
neum@@ 37
nov@@ 37
obe 37
ophorus 37
pack 37
pandemic 37
planet 37
proteins 37
record 37
recur@@ 37
rpm 37
salt 37
scher@@ 37
secret 37
session 37
sibility 37
storm 37
sugar 37
tad@@ 37
tec 37
technology 37
topo@@ 37
torate 37
trade 37
uca 37
urg 37
urt 37
utionary 37
valu@@ 37
want 37
wear 37
zen@@ 37
zia 37
ǐ@@ 37
ǔ@@ 37
ј@@ 37
न@@ 37
》@@ 37
ひ@@ 37
む@@ 37
や@@ 37
ェ@@ 37
佛@@ 37
力@@ 37
子 37
理@@ 37
臣@@ 37
葉@@ 37
阳@@ 37
雄@@ 37
문@@ 37
세@@ 37
우@@ 37
08@@ 36
110@@ 36
1375 36
1395 36
1417 36
1548 36
1695 36
464 36
69,@@ 36
76,@@ 36
94.@@ 36
Ahmad 36
Allo@@ 36
Arrow 36
Baptiste 36
Between 36
Beverly 36
Bond 36
Cardi@@ 36
Carmen 36
Ced@@ 36
Clarke 36
Cler@@ 36
Compan@@ 36
Costa 36
Dest@@ 36
Dob@@ 36
Dz@@ 36
Echo 36
FR@@ 36
Falls 36
Fern@@ 36
Fit@@ 36
Foot@@ 36
Gerard 36
Haj@@ 36
Hat 36
Hospit@@ 36
Hymen@@ 36
Inc@@ 36
Iron@@ 36
Jal@@ 36
Jos@@ 36
Jum@@ 36
Lightning 36
Luigi 36
Madame 36
Munich 36
Murphy 36
NL 36
Near 36
Neigh@@ 36
Networks 36
Nev@@ 36
Nikolai 36
Organisation 36
Orleans 36
PGA 36
Paral@@ 36
Patricia 36
Players 36
Pris@@ 36
Reed 36
Resources 36
Revival 36
Sherlock 36
Site 36
Solomon 36
Sophie 36
Status 36
Synchron@@ 36
Territory 36
Trap@@ 36
Troy 36
Ts@@ 36
Twitter 36
UFO 36
Vac@@ 36
Von 36
Will@@ 36
Wolf@@ 36
acting 36
actus 36
acty@@ 36
actylus 36
add 36
ael 36
amer 36
amy 36
andi 36
aning 36
anning 36
anthro@@ 36
arc 36
athus 36
bacteria 36
bius 36
bottom 36
cens@@ 36
climate 36
dev@@ 36
dou 36
eback 36
efficient 36
ehr 36
eko 36
electrom@@ 36
ellia 36
elo 36
enda 36
equilibri@@ 36
ever@@ 36
formed 36
harmon@@ 36
hart 36
hit@@ 36
identi@@ 36
ifolia 36
ify 36
inking 36
inver@@ 36
isto 36
kum@@ 36
lake 36
lee 36
lov@@ 36
lyc@@ 36
making 36
marketing 36
mash 36
max@@ 36
mie 36
mond 36
neph@@ 36
nt 36
ogn@@ 36
oner 36
onius 36
opteryx 36
osoma 36
otte 36
otyp@@ 36
ovo 36
pal 36
pard 36
partment 36
pend@@ 36
phili@@ 36
pid@@ 36
pler 36
received 36
recognition 36
register 36
rein@@ 36
report 36
rium 36
row@@ 36
sole 36
sports 36
substanti@@ 36
sule 36
temperature 36
testing 36
theme 36
toral 36
tul@@ 36
ulo 36
ult@@ 36
utions 36
vert 36
vie 36
vier 36
void 36
wire 36
yellow 36
yes 36
zar@@ 36
zero 36
Ā 36
ע@@ 36
ه@@ 36
ِ@@ 36
လ@@ 36
ầ 36
█@@ 36
ど@@ 36
六@@ 36
内@@ 36
劇@@ 36
县@@ 36
廣@@ 36
建@@ 36
志@@ 36
村@@ 36
洋@@ 36
紅@@ 36
車@@ 36
通@@ 36
阿@@ 36
飛@@ 36
상@@ 36
하@@ 36
1205 35
1310 35
1311 35
1312 35
1316 35
1404 35
1676 35
1734 35
1741 35
186@@ 35
466 35
469 35
552 35
572 35
589 35
901 35
Anthro@@ 35
Bradley 35
Bride 35
Chat@@ 35
Chuck 35
Cook 35
Corpus 35
Dion 35
Eden 35
Edmund 35
Edwards 35
Ensemble 35
Erik 35
Europa 35
Ex 35
External 35
Frank@@ 35
Gabri@@ 35
Gle@@ 35
Guerrero 35
Gw@@ 35
Habsburg 35
Hau@@ 35
Hudson 35
Ibn 35
Islam 35
Just@@ 35
Lamp@@ 35
Lug@@ 35
Mark@@ 35
Micha@@ 35
Minnesota 35
Missouri 35
Nana 35
Nationale 35
Neph@@ 35
Nis@@ 35
Pack 35
Parade 35
Prepar@@ 35
RM 35
Raven 35
Resort 35
Rik@@ 35
Rover 35
Saints 35
Salon 35
Shah@@ 35
Shan@@ 35
Structure 35
Tes@@ 35
Titan 35
Whitney 35
Willem 35
Wolfgang 35
abi@@ 35
acteri@@ 35
actions 35
activated 35
agne 35
allen 35
anas 35
anese 35
animal 35
argent@@ 35
atta 35
atures 35
awan 35
bad 35
bay 35
bles 35
borg 35
branch 35
chio 35
clav@@ 35
clock 35
comics 35
conv@@ 35
cript 35
delta 35
diffusion 35
drama 35
education 35
ellus 35
enti 35
estone 35
evi 35
fera 35
fiction 35
foot@@ 35
fran@@ 35
heavy 35
hit 35
hn 35
icians 35
iling 35
initi@@ 35
isol@@ 35
isten 35
itter 35
iwa 35
izing 35
jump 35
lon@@ 35
lor 35
luc@@ 35
medal 35
nage 35
neigh@@ 35
norm@@ 35
obus 35
ose@@ 35
oter@@ 35
performance 35
pinn@@ 35
pron@@ 35
radical 35
resc@@ 35
rest@@ 35
ridor 35
sau@@ 35
security 35
sie 35
sites 35
stan 35
studies 35
technique 35
teo 35
tered 35
terminus 35
tham 35
them@@ 35
trad@@ 35
uer@@ 35
unction 35
unique 35
uto 35
vent@@ 35
vian 35
wich 35
write 35
yeong@@ 35
«@@ 35
Ü 35
я@@ 35
หนังส@@ 35
უ@@ 35
′@@ 35
ォ@@ 35
化@@ 35
宝@@ 35
将@@ 35
常@@ 35
民@@ 35
盛@@ 35
線@@ 35
草@@ 35
长@@ 35
陈@@ 35
韓@@ 35
부@@ 35
스@@ 35
연@@ 35
윤@@ 35
1693 34
1726 34
546 34
965 34
Admiral 34
Alt@@ 34
Andri@@ 34
Ani@@ 34
Apostol@@ 34
Arn@@ 34
Assist@@ 34
Auguste 34
Ave@@ 34
Budapest 34
Cao 34
Carp@@ 34
Cock@@ 34
Commander 34
Cres@@ 34
Cruz 34
Dak@@ 34
Denis 34
Fifth 34
Fisher 34
Fou@@ 34
Fritz 34
Gad@@ 34
Gardens 34
Guinea 34
Gut@@ 34
Helena 34
Hockey 34
Ic@@ 34
Jackie 34
Jeremy 34
Jose 34
Jupiter 34
Kle@@ 34
Klein 34
Kyle 34
LIN@@ 34
Later 34
Lily 34
Lloyd 34
Marri@@ 34
Materi@@ 34
Mug@@ 34
Naj@@ 34
Nash 34
Naz@@ 34
Nog@@ 34
Notes 34
Observ@@ 34
Oracle 34
Prussia 34
Quar@@ 34
Railroad 34
Rangers 34
Reser@@ 34
Rin@@ 34
Rouge 34
SAS 34
SB@@ 34
Savage 34
Scho@@ 34
Semin@@ 34
Shaw 34
Slav@@ 34
Sphaer@@ 34
Stanford 34
Students 34
Swan 34
Tec@@ 34
Tennessee 34
Tigers 34
Trans 34
Tyler 34
Viv@@ 34
WM 34
Watson 34
acci 34
acon 34
agle 34
along@@ 34
among 34
anon 34
anto 34
arum 34
asus 34
autom@@ 34
azu 34
baby 34
bad@@ 34
berto 34
black@@ 34
bud@@ 34
ces@@ 34
cipi@@ 34
clim@@ 34
cn 34
continu@@ 34
coup 34
distr@@ 34
eba 34
ench@@ 34
esse 34
external 34
fis@@ 34
forms 34
fruit 34
gain 34
geh@@ 34
gender 34
gens 34
get@@ 34
hik@@ 34
hop@@ 34
ifer 34
iku@@ 34
ilg@@ 34
iso 34
kari 34
keys 34
kingdom 34
kit@@ 34
lak@@ 34
lap@@ 34
leb@@ 34
led@@ 34
letter 34
lith@@ 34
lou@@ 34
mach@@ 34
majority 34
marine 34
math 34
mother 34
notation 34
obi 34
oming 34
ommun@@ 34
onym@@ 34
oride 34
oscor@@ 34
osyn@@ 34
outs 34
oya 34
played 34
prises 34
private 34
pro 34
proced@@ 34
quet 34
rom 34
sover 34
speech 34
stab@@ 34
subj@@ 34
supply 34
tent@@ 34
thers 34
tically 34
tourism 34
tower 34
tram@@ 34
trat@@ 34
trees 34
unge 34
uso 34
uster 34
visi@@ 34
voir 34
weather 34
wild 34
yah 34
Æ 34
æ@@ 34
Č 34
ę 34
Ś 34
ˈ@@ 34
ε 34
ν 34
А@@ 34
َ@@ 34
น้ำเง@@ 34
บัลล@@ 34
อยู่กับ 34
ག@@ 34
ែ@@ 34
ṇ 34
ῖ@@ 34
ピ@@ 34
傳@@ 34
喜@@ 34
在@@ 34
徐@@ 34
汉@@ 34
波@@ 34
貴@@ 34
路@@ 34
1418 33
185@@ 33
195@@ 33
437 33
526 33
845 33
88.@@ 33
914 33
Alic@@ 33
Atlas 33
Att@@ 33
Blac@@ 33
Brad 33
Brazil 33
Britann@@ 33
Buff@@ 33
Cage 33
Chol@@ 33
Christina 33
Chronicle 33
Clay 33
Clem@@ 33
Cleveland 33
Conan 33
Contr@@ 33
Corner 33
Dam 33
Delhi 33
Disco 33
Dot@@ 33
Dragons 33
Dunk@@ 33
Dup@@ 33
Engineers 33
Floyd 33
Fus@@ 33
Gav@@ 33
Gow@@ 33
Guns 33
Hammer 33
Hart@@ 33
Hyde 33
Iran 33
Janet 33
Kansas 33
Kate 33
Kub@@ 33
Legion 33
MK 33
Macedonia 33
Malay 33
Marc@@ 33
Mek@@ 33
Mile 33
Mohammad 33
Mozart 33
Mozilla 33
Nile 33
Noah 33
Odys@@ 33
Ord@@ 33
Ost@@ 33
Parallel 33
Pat 33
Pedro 33
Philharmon@@ 33
Philosoph@@ 33
Politics 33
Powell 33
Prof@@ 33
RO 33
Rag@@ 33
Rah@@ 33
Regul@@ 33
Republican 33
Roses 33
Sach@@ 33
Scout 33
Shakespeare 33
Sheikh 33
Simp@@ 33
Stur@@ 33
Tik@@ 33
Tommy 33
Toronto 33
Tribunal 33
Trio 33
Turkish 33
Vec@@ 33
Vid@@ 33
Viktor 33
Wan@@ 33
Website 33
Westminster 33
Workers 33
XVI 33
Zak@@ 33
acht 33
algeb@@ 33
alli 33
anim@@ 33
ased 33
assa 33
auri 33
beck 33
brow@@ 33
clar@@ 33
crown 33
cules 33
days 33
depend@@ 33
ecture 33
electronic 33
embran@@ 33
enth 33
environment 33
erin 33
ers@@ 33
ests 33
etr@@ 33
every 33
evidence 33
ezer 33
fact 33
fat 33
feel 33
fest 33
geon 33
gest@@ 33
golden 33
hair@@ 33
hang 33
hes@@ 33
hui 33
igen@@ 33
igner 33
inity 33
itzer 33
jet 33
lade 33
largest 33
lati@@ 33
law@@ 33
lei 33
leria 33
light@@ 33
lumin@@ 33
mai 33
neu@@ 33
northern 33
ocean 33
ogle 33
oper 33
ophyllum 33
orama 33
orial 33
otion 33
pain@@ 33
pale@@ 33
para 33
phila 33
pink 33
polyg@@ 33
priv@@ 33
reci@@ 33
ridge 33
sai 33
shu@@ 33
sley 33
spin 33
ss@@ 33
stand 33
sts 33
subject 33
sus@@ 33
temper@@ 33
thium 33
transformation 33
vac@@ 33
vehicle 33
ven 33
vocal 33
ö@@ 33
ŏ 33
ɑ@@ 33
ʔ 33
η@@ 33
χ@@ 33
С@@ 33
і@@ 33
்@@ 33
ตะวัน@@ 33
ູ@@ 33
ར@@ 33
ნ@@ 33
ខ@@ 33
ế 33
♠ 33
で@@ 33
保@@ 33
出@@ 33
土@@ 33
堂@@ 33
梅@@ 33
業@@ 33
百@@ 33
萬@@ 33
蘭@@ 33
言@@ 33
進@@ 33
齊@@ 33
무@@ 33
박@@ 33
비@@ 33
안@@ 33
화@@ 33
）@@ 33
1409 32
1439 32
1706 32
1738 32
533 32
615 32
Adrian 32
Alexandra 32
Aragon 32
Arizona 32
Ashley 32
Athens 32
Beethoven 32
Bonn@@ 32
Boulevard 32
Brig@@ 32
Brook@@ 32
Bung@@ 32
Capitol 32
Card@@ 32
Career 32
Carol 32
Category 32
Claire 32
Cten@@ 32
Dami@@ 32
Dead@@ 32
Dhar@@ 32
Diane 32
Eb@@ 32
Economy 32
Eph@@ 32
Extr@@ 32
Focus 32
Galli@@ 32
Gear 32
GmbH 32
Hali@@ 32
Harvey 32
Holmes 32
Hook 32
Inn 32
Innov@@ 32
Inter 32
Jap@@ 32
Jaw@@ 32
Jeffrey 32
Jerusalem 32
Jiang@@ 32
Joachim 32
Juni@@ 32
Keith 32
Kob@@ 32
Kow@@ 32
Labour 32
Lan 32
Lao 32
Ley@@ 32
Lili@@ 32
Lud@@ 32
Meli@@ 32
Mohammed 32
Municipal 32
Palm@@ 32
Paulo 32
Petit 32
Pirates 32
Portuguese 32
Release 32
Rhe@@ 32
Ridge 32
Roberto 32
Roll@@ 32
Rollins 32
SQ@@ 32
Sali@@ 32
Sega 32
Shepher@@ 32
Smack@@ 32
Statis@@ 32
Stil@@ 32
Summit 32
Tamb@@ 32
Theodore 32
Thor 32
Tob@@ 32
Tri 32
Trump 32
Unix 32
Vita 32
Webster 32
Wein@@ 32
Yel@@ 32
acia 32
acteria 32
agents 32
aid@@ 32
alone 32
amia 32
amn@@ 32
amour 32
ancement 32
anes 32
angel@@ 32
anni@@ 32
anot@@ 32
another 32
aving 32
azi 32
bourne 32
buc@@ 32
cation 32
chy 32
communication 32
compl@@ 32
conj@@ 32
contract 32
deg@@ 32
discre@@ 32
display 32
dov@@ 32
ebe 32
elles 32
enf@@ 32
entertainment 32
entry 32
erson 32
escens 32
etan 32
etia 32
floor 32
fur 32
gamma 32
gang 32
gery 32
gii 32
glomer@@ 32
goal 32
gust@@ 32
icola 32
icro@@ 32
iji 32
impact 32
interaction 32
iris 32
iser 32
iv 32
ival@@ 32
just 32
kara 32
kard 32
kies 32
kol@@ 32
laria 32
lars 32
million 32
mixed 32
moder@@ 32
molec@@ 32
nic 32
nose 32
obs 32
offic@@ 32
ophylla 32
orch@@ 32
orit@@ 32
otive 32
patr@@ 32
point@@ 32
present@@ 32
presented 32
producer 32
qi@@ 32
rak@@ 32
relations 32
resid@@ 32
seg@@ 32
ships 32
sid@@ 32
sier 32
sou@@ 32
sover@@ 32
spontan@@ 32
standing 32
stein@@ 32
stra 32
therap@@ 32
those 32
tico 32
tienne 32
uck@@ 32
uit 32
utu 32
vill@@ 32
³ 32
ñ@@ 32
œ 32
ʃ@@ 32
َ 32
ष@@ 32
คาทอ@@ 32
ដ@@ 32
ណ@@ 32
▪ 32
今@@ 32
作@@ 32
外@@ 32
寶@@ 32
尹@@ 32
株@@ 32
殺@@ 32
老@@ 32
許@@ 32
顯@@ 32
香@@ 32
마@@ 32
유@@ 32
， 32
1.5@@ 31
1451 31
1476 31
498 31
553 31
582 31
685 31
928 31
97,@@ 31
985 31
Acr@@ 31
Adol@@ 31
Anast@@ 31
Aran@@ 31
Argentina 31
Ban 31
Bao 31
Beat@@ 31
Beng@@ 31
Benz@@ 31
Betty 31
Brag@@ 31
Brigade 31
Brooklyn 31
Byzantine 31
Canton 31
Coel@@ 31
Cong@@ 31
Coul@@ 31
Cricket 31
Expan@@ 31
Farm 31
Flora 31
Giorgio 31
Grim@@ 31
Gros@@ 31
Gum@@ 31
Humph@@ 31
Kah@@ 31
Kaiser 31
Kingston 31
Kul@@ 31
Ligh@@ 31
Linda 31
Mab@@ 31
Maver@@ 31
Mick 31
Monaster@@ 31
Moun@@ 31
Olivier 31
Pam@@ 31
Penn@@ 31
Pete 31
Pittsburgh 31
Proph@@ 31
Ptolem@@ 31
Reading 31
Reform 31
Rip@@ 31
Row 31
Rox@@ 31
Roy@@ 31
Royale 31
Royce 31
Said 31
Sebastian 31
Sind@@ 31
Sol 31
Soul@@ 31
Sub 31
Tah@@ 31
Tail@@ 31
Timothy 31
Tradi@@ 31
Turk@@ 31
UF@@ 31
Vand@@ 31
Vig@@ 31
Volta 31
Wilhel@@ 31
above 31
agen@@ 31
agency 31
agi@@ 31
aia 31
ails 31
alcohol 31
animation 31
aps 31
aran 31
arith@@ 31
arry 31
asing 31
atra 31
auda 31
balance 31
bed@@ 31
bera 31
bike 31
blast 31
blog 31
bou@@ 31
bun@@ 31
bur 31
cession 31
china 31
colour 31
complex@@ 31
condens@@ 31
cum 31
disambiguation 31
egr@@ 31
eign@@ 31
emin@@ 31
emo 31
eno@@ 31
ension 31
epa 31
equal 31
eres 31
etry 31
frag@@ 31
fs 31
gee 31
girls 31
gol@@ 31
hib@@ 31
host@@ 31
iles 31
inclus@@ 31
ingi 31
ird 31
ische 31
ising 31
ision@@ 31
items 31
ition 31
kap@@ 31
kie 31
lang@@ 31
lib@@ 31
lid 31
maj@@ 31
manager 31
maximum 31
military 31
milli@@ 31
nee 31
never 31
nific@@ 31
note 31
nov 31
ofi 31
oliv@@ 31
onym 31
option 31
ostoma 31
pharm@@ 31
plan 31
plot 31
poin@@ 31
pris@@ 31
proof 31
ques@@ 31
rail 31
rap 31
ras 31
refer@@ 31
reference 31
regional 31
rement 31
rep@@ 31
rik 31
ris@@ 31
rus@@ 31
saw 31
seri@@ 31
solid@@ 31
sui 31
sung 31
things 31
thir@@ 31
topl@@ 31
tured 31
ub 31
unci@@ 31
uti 31
valid@@ 31
vet@@ 31
vies 31
wake 31
west 31
wir@@ 31
wth 31
ypter@@ 31
za@@ 31
ü@@ 31
ּ@@ 31
ต่าน 31
นานา@@ 31
สื@@ 31
โ 31
ບ@@ 31
ས@@ 31
ἀ@@ 31
″ 31
だ@@ 31
ソ@@ 31
伝@@ 31
典@@ 31
別@@ 31
吉@@ 31
吴@@ 31
始@@ 31
崔@@ 31
懿@@ 31
普@@ 31
流@@ 31
烈@@ 31
蕭@@ 31
集@@ 31
1304 30
1323 30
189@@ 30
2,4 30
398 30
638 30
Abd 30
Aden@@ 30
Agro@@ 30
Alexandria 30
Alph@@ 30
Ans@@ 30
Arctic 30
Associated 30
Banks 30
Barrett 30
Bry@@ 30
Buk@@ 30
Carol@@ 30
Celtic 30
Chak@@ 30
Chau@@ 30
Cho 30
Choi 30
Cod@@ 30
Commons 30
Cord@@ 30
Cyn@@ 30
Daisy 30
Deutsch@@ 30
Dill@@ 30
Doc 30
Edgar 30
Egypt 30
Eul@@ 30
Euph@@ 30
Evan 30
Foot 30
Formation 30
Gamma 30
Gand@@ 30
Gim@@ 30
Grammar 30
Gren@@ 30
Gug@@ 30
Hammer@@ 30
Hein@@ 30
Horn 30
Hub 30
Hug@@ 30
Hul@@ 30
Idi@@ 30
Inh@@ 30
Iowa 30
Jah@@ 30
Jake 30
Jerome 30
Jonas 30
Joy@@ 30
KG 30
Khar@@ 30
Lasi@@ 30
Leuc@@ 30
Lionel 30
Louisiana 30
Maryland 30
Melan@@ 30
Mog@@ 30
Myth@@ 30
Nab@@ 30
Nath@@ 30
Nim@@ 30
PK 30
Pall@@ 30
Pilot 30
Planck 30
Prefecture 30
Psychi@@ 30
Puerto 30
SPD 30
SW 30
Sai@@ 30
Sched@@ 30
Shik@@ 30
Simpson 30
Sper@@ 30
Statistics 30
Syr@@ 30
Tand@@ 30
Tay@@ 30
Territ@@ 30
Terror 30
Tham@@ 30
Turn@@ 30
Ukraine 30
Utrecht 30
VHS 30
Wool@@ 30
Xin@@ 30
Yaz@@ 30
Zor@@ 30
abu 30
acer@@ 30
aden 30
ador@@ 30
adows 30
after@@ 30
aik@@ 30
alc@@ 30
alpin@@ 30
alter@@ 30
alu@@ 30
aman@@ 30
ambi@@ 30
amino 30
anya 30
arab@@ 30
ark 30
atch 30
att 30
austral@@ 30
avo 30
azza 30
ben 30
bet 30
bill 30
brand 30
cali@@ 30
chamber 30
cheon 30
cis@@ 30
classic 30
colum@@ 30
coming 30
command 30
control@@ 30
counter 30
crit@@ 30
cu 30
diab@@ 30
diam@@ 30
dion 30
dir@@ 30
empir@@ 30
enci@@ 30
endi 30
enny 30
ession 30
ested 30
estruc@@ 30
eten@@ 30
etz@@ 30
expon@@ 30
exposure 30
factor@@ 30
fill 30
frey 30
friend@@ 30
gracilis 30
gradi@@ 30
gram 30
heli@@ 30
here 30
hosts 30
icor@@ 30
iet 30
iff 30
iman 30
ional 30
ios@@ 30
issue 30
itan 30
izu 30
jum@@ 30
kinson 30
kor 30
leu@@ 30
loween 30
mant@@ 30
minim@@ 30
minimum 30
natur@@ 30
neutral 30
obile 30
omor@@ 30
onen 30
onnaire 30
oux 30
ovan 30
pf@@ 30
polym@@ 30
pore 30
portrait 30
pounds 30
quin 30
rang@@ 30
rett 30
rim 30
sat 30
sciences 30
sic@@ 30
sonia 30
soul 30
spo@@ 30
steel 30
street 30
studio 30
super 30
sych@@ 30
tav@@ 30
teenth 30
tenance 30
tention 30
than@@ 30
tir@@ 30
tori@@ 30
touch 30
truth 30
tua 30
ure@@ 30
vid 30
wine 30
yk@@ 30
yol@@ 30
zin@@ 30
zir@@ 30
ان@@ 30
ي@@ 30
श@@ 30
া@@ 30
นโย@@ 30
ဝ@@ 30
ị 30
ゆ@@ 30
善@@ 30
官@@ 30
弘@@ 30
急@@ 30
手@@ 30
斗@@ 30
来@@ 30
賢@@ 30
남@@ 30
전@@ 30
．@@ 30
1210 29
1302 29
1397 29
1454 29
184@@ 29
188@@ 29
196@@ 29
197@@ 29
3,4 29
43.@@ 29
Adolf 29
Advis@@ 29
Akira 29
Alexand@@ 29
Amend@@ 29
Ami@@ 29
Andre 29
Aurora 29
Barbara 29
Bass@@ 29
Bik@@ 29
Bing 29
Birmingham 29
Blin@@ 29
Botan@@ 29
Canc@@ 29
Canterbury 29
Caroline 29
Cash 29
Chelsea 29
Christi@@ 29
Cliff 29
Colorado 29
Cover@@ 29
Cowboys 29
Cun@@ 29
Dawson 29
Design@@ 29
Dub@@ 29
Dug@@ 29
Ell@@ 29
Emmanuel 29
Erich 29
Estr@@ 29
Ez@@ 29
Fischer 29
Flag@@ 29
GG 29
Harrison 29
Hellen@@ 29
Hund@@ 29
Infr@@ 29
Instagram 29
Invasion 29
Iris 29
Jakob 29
Kara@@ 29
Lars 29
Leh@@ 29
Lieutenant 29
Liter@@ 29
Lou 29
Louis@@ 29
Luxembourg 29
Mahar@@ 29
Mania 29
Mant@@ 29
Material 29
Matr@@ 29
Mey@@ 29
Mill 29
NHL 29
Nakamura 29
Nap@@ 29
Nel@@ 29
Nir@@ 29
Odon@@ 29
Ole@@ 29
Orph@@ 29
Ost 29
Pak@@ 29
Panther 29
Paramount 29
Persian 29
Phon@@ 29
Physi@@ 29
Pie 29
Publications 29
Que@@ 29
Rahman 29
Ramon 29
Raw@@ 29
Religi@@ 29
Schw@@ 29
Schwar@@ 29
Shor@@ 29
Sot@@ 29
Stade 29
Standards 29
Steg@@ 29
Titanic 29
Todd 29
Weib@@ 29
Welsh 29
Yokohama 29
Zan@@ 29
acias 29
adjus@@ 29
aes@@ 29
ahu 29
ald@@ 29
alised 29
alities 29
alternative 29
anarch@@ 29
anor@@ 29
anthes 29
atar 29
aug@@ 29
aup@@ 29
azaki 29
beam 29
books 29
bright 29
capac@@ 29
caus@@ 29
charts 29
collection 29
condition 29
construc@@ 29
copy 29
cred@@ 29
culp@@ 29
cup 29
day@@ 29
deriv@@ 29
direction 29
dragon 29
duch@@ 29
ebra 29
emann 29
enton 29
enus 29
eran 29
erial 29
etz 29
evil 29
expres@@ 29
extension 29
extrem@@ 29
fasc@@ 29
fields 29
gauge 29
gel 29
gom@@ 29
heav@@ 29
held 29
iPod 29
icas 29
icia 29
icky 29
iculata 29
ield 29
igi@@ 29
inas 29
inch 29
integration 29
kes@@ 29
lab 29
lift 29
lock@@ 29
lop 29
marks 29
mechanism 29
needed 29
nel 29
nine 29
nova 29
nut 29
oan 29
ob 29
odes@@ 29
oft 29
oi@@ 29
ombie 29
oney 29
otica 29
ovol@@ 29
printing 29
property 29
proxim@@ 29
psy@@ 29
pula 29
reality 29
regulation 29
released 29
saga 29
sci@@ 29
soon 29
stad 29
store 29
such 29
tein 29
tender 29
thel@@ 29
thinking 29
thy 29
tional@@ 29
took 29
transition 29
traumati@@ 29
tura 29
umbo 29
umen 29
ungs@@ 29
ustr@@ 29
wall@@ 29
wers 29
written 29
yard 29
ystal 29
zan 29
õ 29
ș 29
أَ@@ 29
द@@ 29
สปีชี@@ 29
เสด็จ@@ 29
โกสิน@@ 29
ຫ@@ 29
ོ@@ 29
ဒ@@ 29
ჷ@@ 29
ṣ 29
そ@@ 29
・ 29
万@@ 29
中国@@ 29
伊@@ 29
你@@ 29
勝@@ 29
商@@ 29
姫@@ 29
张@@ 29
溪@@ 29
茶@@ 29
董@@ 29
蘇@@ 29
話@@ 29
阪@@ 29
鬼@@ 29
방@@ 29
현@@ 29
． 29
： 29
1000@@ 28
179@@ 28
3500 28
Ab 28
Actu@@ 28
Agr@@ 28
Alam@@ 28
Alek@@ 28
Andrews 28
Athena 28
Aud@@ 28
Barn@@ 28
Blake 28
Bomb@@ 28
Boot@@ 28
Booth 28
Boris 28
Boyd 28
Cam 28
Cardinal 28
Chanc@@ 28
Chop@@ 28
Congo 28
Dad@@ 28
Darwin 28
Das@@ 28
Davies 28
Dek@@ 28
Demonstr@@ 28
Den 28
Denver 28
Derby 28
Din 28
Euphor@@ 28
FIA 28
FN 28
Fah@@ 28
Finn 28
Gay@@ 28
Gob@@ 28
Gospel 28
Goth@@ 28
Grig@@ 28
Grou@@ 28
Harr@@ 28
Herman 28
Hew@@ 28
Hughes 28
Institution 28
Inv@@ 28
Io@@ 28
Jesse 28
Jules 28
Kay 28
Kiss@@ 28
Lepto@@ 28
Ler@@ 28
Lie 28
Lol@@ 28
Lynn 28
Manila 28
Marcel 28
Maya 28
Melbourne 28
Merr@@ 28
Mickey 28
Mih@@ 28
Milli@@ 28
Montgomery 28
Nathan 28
Nept@@ 28
Oklahoma 28
Oregon 28
Organiz@@ 28
Parks 28
Pasha 28
Person 28
Peter@@ 28
Peti@@ 28
Pf@@ 28
Portugal 28
Pow@@ 28
Pre 28
Priest 28
Pub@@ 28
Raphael 28
Register 28
Ring@@ 28
Salm@@ 28
Sard@@ 28
Schmidt 28
Sik@@ 28
Silver@@ 28
Split 28
Stevens 28
Sur 28
Ted@@ 28
Teddy 28
Tempor@@ 28
Trent 28
Ud@@ 28
Vivi@@ 28
abo 28
acro@@ 28
acular 28
adin 28
ahr@@ 28
amed 28
ande 28
ank@@ 28
ared 28
arn@@ 28
article 28
artist 28
assi 28
atin@@ 28
augh 28
avar@@ 28
awa@@ 28
bol 28
cand@@ 28
cant@@ 28
celer@@ 28
combined 28
compar@@ 28
county 28
crist@@ 28
cun@@ 28
dean 28
dee 28
develop@@ 28
dial 28
diction 28
did@@ 28
directed 28
dum@@ 28
effic@@ 28
einer 28
ellectu@@ 28
eras 28
eties 28
etti@@ 28
examin@@ 28
extra@@ 28
ft@@ 28
geance 28
gil 28
gium 28
grand 28
gros@@ 28
help 28
hibi@@ 28
horse 28
hours 28
icornis 28
idi 28
impul@@ 28
inen 28
inensis 28
ingu@@ 28
injury 28
inning 28
inski 28
inson 28
invasi@@ 28
iture 28
joy 28
kaya 28
kham 28
kis@@ 28
lets 28
loy@@ 28
lub 28
lug 28
mortal 28
museum 28
musical 28
nad 28
oba 28
ocl@@ 28
ocul@@ 28
omes 28
onii 28
onymous 28
operative 28
opol@@ 28
orious 28
otto 28
philosophy 28
picture 28
plastic 28
power@@ 28
pped 28
pra 28
prehensive 28
products 28
records 28
references 28
reich 28
rim@@ 28
roy 28
rul@@ 28
ruption 28
sam 28
sample 28
scor@@ 28
secre@@ 28
soni 28
spar@@ 28
systemati@@ 28
tatus 28
techni@@ 28
train 28
tribu@@ 28
trin@@ 28
umph 28
uvar@@ 28
vette 28
vie@@ 28
views 28
weigh@@ 28
wid@@ 28
women 28
writer 28
xie 28
ymn@@ 28
zip 28
Ó 28
ä@@ 28
ç@@ 28
ą 28
ǒ 28
τ@@ 28
Б@@ 28
к@@ 28
، 28
الْ@@ 28
وَ 28
อินเทอร์@@ 28
เชี่ยว@@ 28
ປ@@ 28
ິ@@ 28
ო@@ 28
、 28
わ@@ 28
ポ@@ 28
ム 28
ヨ@@ 28
丹@@ 28
令@@ 28
撃@@ 28
時代@@ 28
曲@@ 28
电视@@ 28
節@@ 28
身@@ 28
风@@ 28
魚@@ 28
광@@ 28
루@@ 28
의 28
최@@ 28
치@@ 28
1484 27
1671 27
1739 27
4,5 27
Agnes 27
Akh@@ 27
Alberto 27
Alicia 27
Ambi@@ 27
Angelo 27
Anjou 27
Artic@@ 27
Assistant 27
Atari 27
Aub@@ 27
Beginning 27
Bi 27
Bronze 27
Buch@@ 27
Bund 27
Carnegie 27
Castile 27
Caus@@ 27
Clinton 27
Corona 27
Dalm@@ 27
Dh@@ 27
Direction 27
Domenico 27
Ehr@@ 27
Elementary 27
Eli 27
Euro 27
Faz@@ 27
Geneva 27
Glad@@ 27
Glasgow 27
Guinness 27
Gust@@ 27
Hans@@ 27
Harv@@ 27
Hassan 27
Hib@@ 27
His@@ 27
Hopkins 27
Indies 27
Indonesian 27
Journ@@ 27
Julie 27
Laborat@@ 27
Leng@@ 27
Leonardo 27
Lodge 27
Luc 27
Lund@@ 27
Lynch 27
MGM 27
Mack@@ 27
Madrid 27
Mia 27
Mish@@ 27
Molly 27
Muk@@ 27
Myster@@ 27
Nati@@ 27
Nil@@ 27
Norwegian 27
Nut@@ 27
Ony@@ 27
Rach@@ 27
Rachel 27
Rai 27
Religion 27
Remix 27
Resolution 27
Ricardo 27
Rober@@ 27
Saur@@ 27
Scal@@ 27
Sergei 27
Sey@@ 27
Silva 27
Smith@@ 27
Sofia 27
Sonn@@ 27
Sour@@ 27
Stan 27
TL 27
Teams 27
Tek@@ 27
Transportation 27
Ulrich 27
Val 27
Yer@@ 27
across 27
actress 27
adjacent 27
agh 27
amac@@ 27
aper@@ 27
appar@@ 27
arge 27
ariensis 27
arina 27
assault 27
aten 27
audi@@ 27
aux@@ 27
average 27
bey 27
blind@@ 27
cano 27
capacity 27
carri@@ 27
centre 27
ception 27
challenge 27
cht 27
circ@@ 27
civil 27
client 27
close 27
cool@@ 27
countries 27
dz@@ 27
eas@@ 27
eke 27
ele@@ 27
eled 27
enclat@@ 27
etc 27
eters 27
evi@@ 27
factors 27
features 27
female 27
galax@@ 27
geb@@ 27
graduate 27
hil@@ 27
his@@ 27
hn@@ 27
iPad 27
ici 27
idy 27
ikh 27
inn 27
inners 27
ios 27
irs 27
izi@@ 27
jah 27
jam@@ 27
kee 27
khe@@ 27
lett 27
lfriend 27
lice 27
main@@ 27
mani 27
mec@@ 27
migration 27
nas 27
ners 27
ney@@ 27
nez 27
nica 27
nier 27
ocol@@ 27
olt 27
omen 27
ospace 27
oti 27
oven 27
oyo 27
paper 27
petr@@ 27
phylla 27
plant@@ 27
pra@@ 27
prising 27
properties 27
pt 27
rab@@ 27
ray@@ 27
role 27
route 27
sburg 27
scientific 27
seu@@ 27
sexu@@ 27
sko@@ 27
slo@@ 27
spring 27
stable 27
stadt 27
steri@@ 27
still 27
sud@@ 27
symbol 27
tang@@ 27
tard 27
tata 27
tril@@ 27
uen@@ 27
umbr@@ 27
upa 27
vag@@ 27
vir 27
wind@@ 27
winner 27
wise 27
yer@@ 27
yright 27
yum 27
zard 27
ù@@ 27
ı@@ 27
ʰ 27
͡@@ 27
ή@@ 27
Т@@ 27
ְ@@ 27
ד@@ 27
ر@@ 27
คอนเสิร์@@ 27
່@@ 27
თ@@ 27
១ 27
ず@@ 27
ょ@@ 27
ワ@@ 27
中華@@ 27
乐@@ 27
団@@ 27
守@@ 27
工@@ 27
承@@ 27
教@@ 27
樂@@ 27
球@@ 27
羽@@ 27
自@@ 27
蔡@@ 27
袁@@ 27
銀@@ 27
鳥@@ 27
해@@ 27
09@@ 26
1,4 26
194@@ 26
3200 26
Abu@@ 26
Ada 26
Advisory 26
Aki@@ 26
Alaska 26
Aleksandr 26
Alexandre 26
Allan 26
Amph@@ 26
Appe@@ 26
Aul@@ 26
Bacon 26
Beck 26
Bennett 26
Brad@@ 26
Brandenburg 26
Britney 26
Brown@@ 26
CLC 26
Cec@@ 26
Cemetery 26
Coh@@ 26
Compl@@ 26
Conservat@@ 26
Construc@@ 26
Cool@@ 26
Curtis 26
Detroit 26
Diagn@@ 26
Dial@@ 26
Dudley 26
Eagles 26
Element 26
Engel@@ 26
Equi@@ 26
Esper@@ 26
Exec@@ 26
Expedition 26
Gag@@ 26
Gandhi 26
Gap 26
Gerald 26
Grac@@ 26
Greenwich 26
Guill@@ 26
Hanover 26
Heights 26
Horn@@ 26
Hull 26
Hung 26
Inn@@ 26
Ion 26
Jeanne 26
Jenn@@ 26
Jet@@ 26
Jug@@ 26
Keys 26
Kra@@ 26
Kron@@ 26
Kyoto 26
Lausanne 26
Leone 26
Light@@ 26
Luk@@ 26
Malta 26
Maritime 26
Marquis 26
Mason 26
Mau@@ 26
Maus@@ 26
Maximilian 26
Memphis 26
Metallica 26
Mustafa 26
Nest@@ 26
Now@@ 26
Nun@@ 26
Orion 26
Oto@@ 26
Palmer 26
Percy 26
Pes@@ 26
Pill@@ 26
Poli@@ 26
Polyn@@ 26
Pru@@ 26
Queens 26
Restaurant 26
Rhein@@ 26
Rij@@ 26
Sass@@ 26
Schen@@ 26
Scher@@ 26
Seb@@ 26
Shang@@ 26
Strat@@ 26
Suff@@ 26
Sultan@@ 26
Teg@@ 26
Tog@@ 26
Tokugawa 26
Treas@@ 26
Ukrainian 26
Ve@@ 26
Vera 26
Vic 26
Vu@@ 26
Warsaw 26
Word@@ 26
Xe 26
Zam@@ 26
aired 26
alar@@ 26
aled 26
alumin@@ 26
always 26
andal 26
anensis 26
ariz@@ 26
aron 26
arya 26
asse 26
asti@@ 26
atica 26
ativa 26
ato@@ 26
attention 26
aven 26
ayi 26
bab@@ 26
battle 26
baum 26
below 26
belt 26
berg@@ 26
bile 26
bour@@ 26
brac@@ 26
buri 26
cable 26
cac@@ 26
campus 26
cap 26
casting 26
cities 26
codes 26
comer 26
created 26
deb@@ 26
dens@@ 26
dich@@ 26
diseases 26
districts 26
drum 26
dul@@ 26
dur 26
ecker 26
economic 26
eler@@ 26
enders 26
endum 26
ensen 26
enses 26
estyle 26
eyes 26
fine 26
focus 26
fusi@@ 26
fut@@ 26
gris@@ 26
haw@@ 26
icke 26
idan 26
ident@@ 26
ilian 26
insula 26
integ@@ 26
intelligence 26
istem@@ 26
iyi 26
kern@@ 26
koo 26
kowski 26
lander 26
landing 26
laser 26
laz@@ 26
leges 26
letters 26
lez 26
lil@@ 26
lime 26
longitud@@ 26
lost 26
marked 26
means 26
measure 26
meet 26
metro 26
miles 26
mix 26
mt@@ 26
mtDNA 26
national@@ 26
navigation 26
oca 26
odr@@ 26
onica 26
oniidae 26
onto 26
ophi@@ 26
parad@@ 26
percep@@ 26
phys@@ 26
physi@@ 26
pick 26
pies 26
pop@@ 26
pound 26
ppo 26
primiti@@ 26
progressive 26
punk 26
queue 26
rad@@ 26
rates 26
rem 26
revol@@ 26
ril 26
rs 26
rug@@ 26
services 26
shaped 26
share 26
shaw 26
sional 26
smith 26
sof@@ 26
spac@@ 26
stal@@ 26
strike 26
strom 26
sue 26
taker 26
teries 26
think 26
tim 26
tir 26
tish@@ 26
tour@@ 26
transi@@ 26
treat 26
trium 26
ull@@ 26
ult 26
umo 26
undu@@ 26
units 26
uxe 26
vat@@ 26
vec@@ 26
vog@@ 26
wad@@ 26
zie 26
zing 26
zon 26
м@@ 26
ָ@@ 26
َّ@@ 26
ण@@ 26
สิงหา@@ 26
อุโบ@@ 26
ຍ@@ 26
ີ@@ 26
ຸ@@ 26
ს@@ 26
い 26
じ@@ 26
ふ@@ 26
ゃ@@ 26
來@@ 26
嚴@@ 26
基@@ 26
密@@ 26
左@@ 26
若@@ 26
近@@ 26
食@@ 26
黎@@ 26
포@@ 26
467 25
607 25
79,@@ 25
ACP 25
Abdullah 25
Ai@@ 25
Anders 25
Apidae 25
Apol@@ 25
Ash 25
Associate 25
Auth@@ 25
Barb@@ 25
Basin 25
Belgian 25
Block@@ 25
Both 25
Catal@@ 25
Cecil 25
Cell@@ 25
Chamberlain 25
Chambers 25
Chili 25
Clim@@ 25
Confl@@ 25
Connecticut 25
Conrad 25
Danish 25
Diab@@ 25
Dich@@ 25
Doug@@ 25
Duncan 25
Edinburgh 25
Establ@@ 25
Este 25
Foster 25
Fox@@ 25
Fund@@ 25
General@@ 25
Grove 25
Herr@@ 25
IAAF 25
Inspir@@ 25
Instrument 25
Invest@@ 25
Ip@@ 25
Islam@@ 25
Jen@@ 25
John@@ 25
Jubil@@ 25
KP@@ 25
Karate 25
Kes@@ 25
Koz@@ 25
Lambert 25
Leopold 25
Lod@@ 25
Lop@@ 25
Loy@@ 25
MK@@ 25
Maf@@ 25
Maiden 25
Mans@@ 25
Mary@@ 25
Maxwell 25
Mg@@ 25
Modern@@ 25
Monter@@ 25
Monument 25
Monuments 25
Moss 25
Mud@@ 25
Nina 25
Norway 25
Nueva 25
Oce@@ 25
Old@@ 25
Olivia 25
Orig@@ 25
Ottoman 25
Oy@@ 25
Pearson 25
Plu@@ 25
Pool 25
Pou@@ 25
Powers 25
Ques@@ 25
Rau@@ 25
Refer@@ 25
Regi@@ 25
Reu@@ 25
Rockefeller 25
Ronnie 25
Rue 25
SAO 25
Salvador 25
Sami 25
Sang 25
Schul@@ 25
Siemens 25
Sob@@ 25
Sophia 25
Stefan 25
Steiner 25
Sung 25
Tate 25
Titus 25
Tric@@ 25
Tyr@@ 25
Vall@@ 25
Vib@@ 25
Waters 25
Wiki@@ 25
Wing@@ 25
aco@@ 25
ados 25
akh 25
alle 25
aller 25
ament@@ 25
anat@@ 25
annual 25
apons 25
arak 25
are@@ 25
argument 25
arif 25
asan 25
asked 25
assemb@@ 25
attach@@ 25
aun 25
ayama 25
bach@@ 25
beautiful 25
bel 25
blan@@ 25
boys 25
broadcast 25
capture 25
cass@@ 25
chief 25
coff@@ 25
correc@@ 25
create 25
crow@@ 25
declar@@ 25
derived 25
dimension 25
dorf 25
ecia 25
edil@@ 25
egan 25
egia 25
ehr@@ 25
eign 25
enco@@ 25
ennes 25
enough 25
ently 25
esto 25
ete@@ 25
evid@@ 25
eville 25
expansion 25
fair 25
finger 25
foli@@ 25
generated 25
gle 25
god 25
had@@ 25
hag@@ 25
hoa 25
hoe 25
icidae 25
idis 25
idus 25
ief 25
ifera 25
imental 25
industry 25
inet 25
inium 25
intu@@ 25
isse 25
laim@@ 25
later@@ 25
lav 25
legal 25
leton 25
lington 25
litz 25
living 25
mang@@ 25
mann@@ 25
materials 25
mechanical 25
mini@@ 25
modified 25
mountain 25
move 25
nau@@ 25
networks 25
nie 25
ogi 25
okes 25
onde 25
[...]
