ya 1
. 1
na 1
, 0.8362717343964431
wa 1
katika 1
kwa 1
ni 1
&quot; 0.7965641122219399
) 1
( 1
la 1
za 1
cha 1
mwaka 1
kama 1
yake 1
@-@ 0.5052614641388191
kuwa 1
ku@@ 1
nchini 1
: 1
au 1
kutoka 1
kwenye 1
M@@ 1
pia 1
lugha 1
zaidi 1
vya 1
watu 1
&#91; 1
&#93; 1
mji 1
kati 1
wake 1
alikuwa 1
; 1
Mto 1
m@@ 1
U@@ 1
u@@ 1
kwanza 1
mwa 1
Kwa 1
nchi 1
hii 1
Tanzania 1
ak@@ 1
pamoja 1
i 1
hadi 1
wakazi 1
miaka 1
Mwaka 1
Ki@@ 1
ali@@ 1
hu@@ 1
jina 1
wali@@ 1
&apos; 1
Afrika 1
wakati 1
juu 1
Kenya 1
ilikuwa 1
lakini 1
ani 1
huko 1
o 1
ki@@ 1
kata 1
moja 1
tarehe 1
am@@ 1
mto 1
ili 1
K@@ 1
mara 1
u 1
hiyo 1
ndani 1
mnamo 1
kazi 1
ambayo 1
Bahari 1
ili@@ 1
ik@@ 1
idadi 1
ut@@ 1
N@@ 1
ia 1
in@@ 1
Mkoa 1
uli@@ 1
un@@ 1
Katika 1
Kati 1
an@@ 1
eneo 1
sana 1
Maji 1
sehemu 1
iko 1
hatimaye 1
nyingi 1
baada 1
mkoa 1
kwamba 1
ana 1
a 0.11752571912803375
yao 1
w@@ 1
kubwa 1
kundi 1
j@@ 1
Marekani 1
ambao 1
Wilaya 1
aji 1
ika 1
chini 1
a@@ 1
unapatikana 1
um@@ 1
hasa 1
hivyo 1
Kusini 1
huo 1
isha 1
ina 1
oni 1
tu 1
mkuu 1
im@@ 1
ini 1
yanaishia 1
kawaida 1
sensa 1
wak@@ 1
sababu 1
mbalimbali 1
k@@ 1
Baada 1
we 1
al@@ 1
y@@ 1
at@@ 1
- 1
as@@ 1
Uganda 1
wasemaji 1
kum@@ 1
huu 1
T@@ 1
namba 1
uk@@ 1
Mashariki 1
kaskazini 1
ma@@ 1
S@@ 1
p@@ 1
Ali@@ 1
W@@ 1
yenye 1
it@@ 1
wengi 1
wilaya 1
ari 1
timu 1
kila 1
ang@@ 1
kaunti 1
n@@ 1
1 0.856039738037261
I@@ 1
2 0.9450733750108858
ab@@ 1
KK 1
vile 1
aa 1
maji 1
alizaliwa 1
aka 1
om@@ 1
B@@ 1
us@@ 1
bahari 1
ua 1
ali 1
ambaye 1
Kufuatana 1
ama 1
kus@@ 1
H@@ 1
wapatao 1
lake 1
uainishaji 1
Wakati 1
kabla 1
Mungu 1
iliyofanyika 1
2012 1
z@@ 1
ah@@ 1
Mnamo 1
siku 1
magharibi 1
yote 1
/ 0.7465612757059906
Kanisa 1
A@@ 1
ka 1
Kristo 1
il@@ 1
kuna 1
inayozungumzwa 1
upande 1
Ni 1
o@@ 1
karne 1
ar@@ 1
mbili 1
ambapo 1
Uingereza 1
af@@ 1
kusini 1
hali 1
i@@ 1
Kik@@ 1
njia 1
akiwa 1
muziki 1
si 1
imehesabiwa 1
dhidi 1
Naili 1
tena 1
wan@@ 1
ajili 1
anga 1
sh@@ 1
karibu 1
aina 1
ek@@ 1
kut@@ 1
wenye 1
inahusu 1
oa 1
tofauti 1
ap@@ 1
taifa 1
Papa 1
jimbo 1
ot@@ 1
G@@ 1
ano 1
muda 1
ag@@ 1
filamu 1
asi 1
vi@@ 1
aw@@ 1
sasa 1
zake 1
is@@ 1
mtu 1
Makala 1
nyingine 1
ok@@ 1
3 0.9041872952532803
ur@@ 1
hata 1
b@@ 1
tangu 1
v@@ 1
wote 1
wao 1
– 0.4547821303472423
D@@ 1
mmoja 1
iwa 1
serikali 1
ai 1
kadhaa 1
pili 1
mashariki 1
kutokana 1
h@@ 1
humo 1
hivi 1
nafasi 1
zi 1
Kaskazini 1
or@@ 1
ishwa 1
J@@ 1
wengine 1
kuliko 1
Kim@@ 1
ch@@ 1
mw@@ 1
hilo 1
L@@ 0.9475943693917676
tatu 1
Tangu 1
Kongo 1
O@@ 1
maisha 1
aj@@ 1
ara 1
&amp; 0.9456255886837847
amu 1
&#124; 1
Chuo 1
ny@@ 1
anza 1
P@@ 0.8515708575841362
Mji 1
os@@ 1
on@@ 1
kuhusu 1
hili 1
ikiwa 1
chake 1
baadaye 1
duniani 1
ziwa 1
leo 1
Sikukuu 1
mujibu 1
mi@@ 1
ita 1
E@@ 1
Kis@@ 1
maeneo 1
ung@@ 1
asili 1
up@@ 1
ala 1
5 1
4 0.8760940101112843
Ulaya 1
wat@@ 1
mkubwa 1
endelea 1
Mak@@ 1
muhimu 1
Wa@@ 1
Kiingereza 1
Ufaransa 1
ing@@ 1
“ 0.6116758351063496
f@@ 1
nje 1
shule 1
Pia 1
mchezaji 1
iki 1
Kib@@ 1
una@@ 1
wa@@ 1
t@@ 0.9250062758823779
walikuwa 1
maarufu 1
Ch@@ 1
bila 1
awa 1
Hindi 1
kufanya 1
kale 1
de 0.030845406187908358
Wak@@ 1
eni 1
em@@ 1
ul@@ 1
Ujerumani 1
mjini 1
ati 1
kuf@@ 1
ona 1
wana@@ 1
Eneo 1
watoto 1
yaani 1
Magharibi 1
zote 1
familia 1
of 0.03845175623137415
pekee 1
mak@@ 1
kupitia 1
kim@@ 1
” 1
uni 1
imani 1
ea 1
una 0.5197806577696265
20 1
pa 1
ach@@ 1
wal@@ 1
wanawake 1
zamani 1
% 0.5428843922960979
kabisa 1
anda 1
The 0.11782894726071734
m 1
vita 1
ir@@ 1
ad@@ 1
itwa 1
kuu 1
Januari 1
amba 1
bunge 1
Mei 1
klabu 1
an 0.1643638598597116
eli 1
g@@ 1
kutumia 1
wimbo 1
habari 1
iti 1
Z@@ 1
mat@@ 1
weza 1
e@@ 0.8642083616791826
e 0.7875339979734569
Wakristo 1
al 0.37864368245718427
mwisho 1
10 0.9643271818813447
idi 1
okea 1
d@@ 0.9133424924766826
ishi 1
elimu 1
huwa 1
bora 1
en@@ 0.6400150219263397
maana 1
mtakatifu 1
ish@@ 1
Oktoba 1
Japani 1
awali 1
19 1
Mw@@ 1
R@@ 0.751530079215706
azi 1
F@@ 0.7919934434338125
Italia 1
amb@@ 1
6 0.9025151824481463
aliye@@ 1
mita 1
mpya 1
kipindi 1
s@@ 0.5807111020895006
ata 1
Kit@@ 1
mengine 1
Kikuu 1
ima 1
in 0.0336601374899634
ao 1
albamu 1
Julai 1
hizi 1
Roma 1
BK 1
ati@@ 1
el@@ 0.9276316700292165
ema 1
Juni 1
id@@ 1
Y@@ 1
ambazo 1
yan@@ 1
Mas@@ 1
kupata 1
mab@@ 1
kuanzia 1
unga 1
ug@@ 1
mpira 1
zin@@ 1
Novemba 1
Burundi 1
waishio 1
az@@ 1
V@@ 0.9761473600813662
uf@@ 1
Ma@@ 1
jamii 1
yo 1
mito 1
umri 1
oka 1
es@@ 1
Machi 1
hayo 1
biashara 1
milioni 1
Desemba 1
12 1
7 0.9953872395287084
Agosti 1
isi 1
ile 1
iri 1
Septemba 1
2000 1
zili@@ 1
op@@ 1
Maisha 1
s 0.35230766410042774
of@@ 1
Aprili 1
Wan@@ 1
huadhimishwa 1
km 1
mfano 1
Historia 1
umia 1
New 0.823010946432613
ol@@ 1
uch@@ 1
takriban 1
dunia 1
eti 1
oma 1
usawa 1
fu@@ 1
2014 1
Al@@ 1
alipo@@ 1
wam@@ 1
miguu 1
15 1
kifo 1
es 0.2033489418670213
nguvu 1
kimataifa 1
Nigeria 1
inga 1
ina@@ 1
kiasi 1
nyimbo 1
Kuna 1
2007 1
was@@ 1
ha 1
alit@@ 1
kit@@ 1
aki@@ 1
makuu 1
msingi 1
us 0.8749587443254769
x 1
In@@ 1
Februari 1
Yesu 1
eza 1
olewa 1
dini 1
hut@@ 1
matumizi 1
ig@@ 1
ub@@ 1
Tuzo 1
lili@@ 1
ash@@ 1
on 0.10855276021930717
kisiwa 1
mrefu 1
Dunia 1
amezaliwa 1
michezo 1
binadamu 1
julikana 1
and@@ 1
Hata 1
Jamhuri 1
kin@@ 1
9 1
mas@@ 1
mwenye 1
og@@ 1
da 0.9325042226217171
kuj@@ 1
hapo 1
iliyo@@ 1
zao 1
umika 1
ilit@@ 1
18 1
onyesha 1
er@@ 0.6110587238351604
Kin@@ 1
mengi 1
historia 1
d 0.5365233519027032
enga 1
mt@@ 1
Mar@@ 1
ep@@ 1
ulikuwa 1
hizo 1
li@@ 1
di 1
kampuni 1
onekana 1
enda 1
Katoliki 1
Idadi 1
unda 1
11 1
iti@@ 1
Sh@@ 1
2008 1
8 0.8704370859227845
usi 1
the 0.014992803532649576
2009 1
ko 1
mechi 1
fulani 1
maj@@ 1
ambalo 1
16 1
mpaka 1
uwezo 1
y 0.09495792524719814
13 1
alicheza 1
mtoto 1
Ny@@ 1
baadhi 1
rasmi 1
utawala 1
mfumo 1
2006 1
kur@@ 1
17 1
Misri 1
alim@@ 1
lin@@ 1
asa 1
tu@@ 1
kwenda 1
sheria 1
inaweza 1
abu 1
uma 1
ja 1
kik@@ 1
po@@ 1
2011 0.9644257322370158
am 0.4667630842313921
Ku@@ 1
kuv@@ 1
Lakini 1
if@@ 1
Jina 1
mwandishi 1
7@@ 1
ay@@ 1
Was@@ 1
ongo 1
haki 1
kiwango 1
An@@ 0.9604796488156945
’ 0.2817453939459944
iki@@ 1
nne 1
zinaz@@ 1
l@@ 0.7346548251680909
uka 1
iliy@@ 1
damu 1
alik@@ 1
8@@ 1
isho 1
mwingine 1
ungwa 1
30 1
Kazi 1
tuzo 1
jumla 1
oh@@ 1
2015 1
mwili 1
imu 1
14 1
inay@@ 1
Kil@@ 1
shirika 1
Marejeo 1
rangi 1
adi 1
ugonjwa 1
ziliz@@ 1
and 0.02760057724212743
umiwa 1
yeye 1
chama 1
olojia 1
Ziwa 1
ume 1
au@@ 1
kucheza 1
kutoa 1
eka 1
ki 1
ndege 1
yali@@ 1
neno 1
ila 1
C@@ 0.5455365033944581
aga 1
asilimia 1
Mat@@ 1
wana 1
ewa 1
Umoja 1
uliwa 1
ambako 1
ndio 1
any@@ 1
imba 1
21 1
kub@@ 1
sita 1
et@@ 1
mahali 1
kumi 1
6@@ 1
ar 0.4436472979791838
ambo 1
kw@@ 1
aliy@@ 1
chuo 1
nyota 1
hapa 1
okana 1
kis@@ 1
I 0.6746340259827724
ana@@ 1
askofu 1
oto 1
Tanganyika 1
eta 1
mfalme 1
A 0.4128343271438122
aja 1
ich@@ 1
Mkuu 1
halafu 1
uhuru 1
Uturuki 1
ingia 1
.@@ 1
ikia 1
uwanja 1
wanyama 1
do 1
umu 1
Amerika 1
bado 1
kup@@ 1
umbo 1
uz@@ 1
mambo 1
ame@@ 1
mwezi 1
po 1
ule 1
kul@@ 1
mu@@ 1
2005 1
ibu 1
oro 1
mp@@ 1
mdogo 1
jeshi 1
th@@ 0.9651514610338267
ti 1
ungu 1
ji@@ 1
uru 1
ta 1
amia 1
ingawa 1
25 1
ira 1
mbali 1
ha@@ 1
oko 1
ti@@ 1
inat@@ 1
iz@@ 1
24 1
wi 1
Wam@@ 1
asilia 1
io 1
katikati 1
uchaguzi 1
kuz@@ 1
izi 1
Jimbo 1
II 1
mama 1
kun@@ 1
mazingira 1
kikuu 1
chakula 1
Wakatoliki 1
ino 1
ndogo 1
ong@@ 1
Uwanja 1
hus@@ 1
Rais 1
aki 1
Atlantiki 1
2002 1
² 1
hi@@ 1
mwenyewe 1
aya 1
2010 0.6713248800103947
aka@@ 1
walio@@ 1
wap@@ 1
kijiji 1
kwake 1
sawa 1
zile 1
Guinea 1
Hii 1
dawa 1
fu 1
huelekea 1
hao 1
bi@@ 1
uzi 1
9@@ 1
Kig@@ 1
Alikuwa 1
Baadaye 1
ang 1
inayo@@ 1
iga 1
nyumbani 1
bali 1
ez@@ 1
fuata 1
Am@@ 1
Yeye 1
jinsi 1
ma 1
makubwa 1
ayo 1
ud@@ 1
Mia 1
namna 1
Tarafa 1
r@@ 0.544948423207396
Kiarabu 1
di@@ 0.8320481089539095
amini 1
kuch@@ 1
= 1
aliwa 1
anya 1
ib@@ 1
zo 1
Mara 1
ale 1
ime@@ 1
Maj@@ 1
Waorthodoksi 1
Kifaransa 1
enzi 1
visiwa 1
ho@@ 1
Ng@@ 1
Man@@ 1
man@@ 1
wanaoishi 1
rais 1
Kama 1
Ukristo 1
Ghana 1
bu@@ 1
pwani 1
lilikuwa 1
upo 1
kisiasa 1
hatari 1
Bar@@ 1
Vita 1
22 1
Watu 1
urefu 1
baba 1
iriki 1
ng@@ 1
ba 1
2016 0.7947524655032944
undwa 1
ing 0.19180824004321692
k 0.7645203142610677
matokeo 1
Yohane 1
alianza 1
ji 1
anaheshimiwa 1
huduma 1
kulingana 1
tano 1
et 0.0702755921484899
Mpya 1
mah@@ 1
ezi 1
wale 1
wenyewe 1
kidogo 1
tun@@ 1
ango 1
av@@ 1
ie 0.6510134632240316
vit@@ 1
Kid@@ 1
mag@@ 1
23 1
har@@ 1
ye 1
saba 1
Mal@@ 1
hak@@ 1
mar@@ 1
2018 0.7987383070864305
Orodha 1
kitabu 1
Tarehe 1
aba 1
egemea 1
h 0.9280830856492649
kanda 1
ob@@ 1
mch@@ 1
ura 1
apo 1
bu 1
Paulo 1
10@@ 1
Wat@@ 1
umba 1
nyumba 1
ania 1
Wal@@ 1
spishi 1
mlima 1
ej@@ 1
huku 1
watakatifu 1
wala 1
Jamii 1
hewa 1
hi 1
uj@@ 1
Urusi 1
ito 1
picha 1
vitabu 1
Dar 1
mwan@@ 1
maneno 1
haya 1
endo 1
uri 1
walit@@ 1
5@@ 1
mwigizaji 1
joto 1
miji 1
Kuu 1
Dola 1
kuh@@ 1
utamaduni 1
wawili 1
wezi 1
2017 0.7906428242233526
si@@ 1
Hispania 1
anywa 1
uh@@ 1
ou@@ 1
vijana 1
Kilatini 1
afu 1
2013 0.7244476677699591
mojawapo 1
aha 1
map@@ 1
aidia 1
milima 1
binafsi 1
ifu 1
korongo 1
alis@@ 1
Australia 1
2020 0.8492045775271139
apo@@ 1
makao 1
eh@@ 1
gt 1
yanay@@ 1
mb@@ 1
Kiswahili 1
shughuli 1
irika 1
esha 1
uko 1
masomo 1
26 1
udi 1
vin@@ 1
haz@@ 1
hicho 1
kuw@@ 1
28 1
bo@@ 1
Wab@@ 1
hiki 1
2019 0.7884228249353207
ane 1
postikodi 1
andikwa 1
um 0.4245096843862639
ah 1
sauti 1
moyo 1
majina 1
ajwa 1
msimu 1
ela 1
jiji 1
lt 1
Biblia 1
ada 0.5589265271005026
fanya 1
zwa 1
mbele 1
! 1
hatua 1
Ab@@ 0.8955646204920559
ate 0.3926871952328069
ishaji 1
kilomita 1
Hivyo 1
Wah@@ 1
Asia 1
eg@@ 1
27 1
ndiyo 1
oz@@ 1
ambacho 1
100 1
Ethiopia 1
yak@@ 1
ae 1
Bonde 1
2003 1
ip@@ 1
undi 1
lik@@ 1
eb@@ 1
York 0.8340954512662375
2001 1
ow@@ 1
Shule 1
alifariki 1
uta 1
John 0.7561896499279304
kili@@ 1
uv@@ 1
linalopatikana 1
mwimbaji 1
kuji@@ 1
vyake 1
kilich@@ 1
od@@ 1
at 0.09104183731172599
zinazo@@ 1
yaliy@@ 1
aribu 1
Kal@@ 1
Mad@@ 1
angaza 1
anay@@ 1
mabadiliko 1
1990 1
Salaam 1
waf@@ 1
kote 1
ush@@ 1
eng@@ 1
uo 1
2004 0.8994847181543161
kisha 1
B 1
Ar@@ 0.7086579920295072
kar@@ 1
uli 1
Th@@ 1
ardhi 1
kon@@ 1
el 0.060916819661000564
mz@@ 1
29 1
Uhindi 1
ike 1
ko@@ 1
ai@@ 1
apa 1
yako 1
Kir@@ 1
acha 1
utafiti 1
aza 1
ezo 1
mwanachama 1
mfululizo 1
maendeleo 1
Kibantu 1
kituo 1
mad@@ 1
mwanamke 1
we@@ 1
end@@ 1
China 1
indi 1
anzisha 1
Ak@@ 1
atia 1
Mag@@ 1
kitaifa 1
ezwa 1
kufikia 1
Zanzibar 1
.. 1
kisasa 1
iliwa 1
soka 1
alif@@ 1
dia 1
is 0.05052087469671761
omba 1
n.k. 1
ra 0.9125928354975812
to 0.024640441494181528
walio 1
aweza 1
du 0.10463708577028832
er 0.09490024726516148
inayot@@ 1
majimbo 1
posta 1
naye 1
pata 1
vizuri 1
alipata 1
halisi 1
huru 1
haraka 1
é 0.3491072489870929
Waislamu 1
ge@@ 0.817404310706693
Kigiriki 1
kifupi 1
kuli@@ 1
esh@@ 1
Ufa 1
g 0.7987252393090601
as 0.05458850320646074
du@@ 1
Alit@@ 1
umb@@ 1
wani 1
kiongozi 1
ezaji 1
aliz@@ 1
walik@@ 1
kikubwa 1
Chama 1
eo 1
Kar@@ 1
rekodi 1
ari@@ 1
ih@@ 1
vy@@ 1
Vi@@ 1
akili 1
alifanya 1
miwili 1
matatizo 1
zi@@ 1
Mi@@ 1
ungua 1
Kale 1
ov@@ 1
kuto@@ 1
upendo 1
Maria 1
or 0.1532279159939873
Kirumi 1
31 1
Kih@@ 1
mit@@ 1
tabia 1
hakuna 1
sanaa 1
angazwa 1
isi@@ 1
mwanzo 1
ba@@ 1
Makao 1
Nairobi 1
uchumi 1
kamili 1
kuishi 1
Mlima 1
und@@ 1
Lugha 1
mashindano 1
siasa 1
kali 1
matibabu 1
isa 1
be@@ 0.5832284685004329
zim@@ 1
Kif@@ 1
kil@@ 1
wenzake 1
Mataifa 1
oti 1
ef@@ 1
kusababisha 1
umeme 1
msanii 1
amani 1
unao@@ 1
afya 1
kina 1
kuingia 1
Mab@@ 1
azo 1
ndiye 1
lilil@@ 1
t 0.2553309519428314
anzishwa 1
indwa 1
nyuma 1
Kiaustronesia 1
huitwa 1
inda 1
ombe 1
Wimbo 1
wiki 1
ulio@@ 1
era 0.566316225460461
kweli 1
oli 1
omo 1
mwanasiasa 1
akuwa 1
alia 1
ole 1
b 0.7750222666771486
vifaa 1
sifa 1
usu 1
bara 1
ola 1
orodha 1
Turkana 1
vil@@ 1
kike 1
wanafunzi 1
imo 1
kabila 1
ato 1
Hu@@ 1
ongozwa 1
Kimataifa 1
ga 1
kilimo 1
ong 1
hal@@ 1
mshindi 1
seli 1
adi@@ 1
ishia 1
kijamii 1
oj@@ 1
dalili 1
ogo 1
1999 0.9634811660758742
mik@@ 1
akawa 1
och@@ 1
ham@@ 1
ukubwa 1
kushinda 1
ongoza 1
opo 1
Kikristo 1
esi 1
pande 1
Mt@@ 1
dh@@ 1
anyika 1
mkono 1
ta@@ 1
wame@@ 1
tarakimu 1
ele 1
Kombe 1
iku@@ 1
uu 1
mchezo 1
Bwana 1
hifadhi 1
lenye 1
maalumu 1
Kiafrika 1
Mp@@ 1
en 0.02637622992777937
pewa 1
Shirika 1
As@@ 1
ulit@@ 1
ori 1
bendi 1
l 0.24974937338095574
Indonesia 1
inayofuata 1
wah@@ 1
ath@@ 1
mafuta 1
jua 1
vu 1
Un@@ 1
mingi 1
pe@@ 1
alijiunga 1
awe 1
umma 1
lazima 1
ulia 1
Hapo 1
aanisha 1
elea 1
amp 0.5390444892558086
uti 1
yo@@ 1
zenye 1
Kas@@ 1
awala 1
kumbukumbu 1
mg@@ 1
Ru@@ 1
uhusiano 1
utu 1
kura 1
anat@@ 1
kuzuia 1
walioishi 1
osh@@ 1
zilizo@@ 1
atu 1
Ili@@ 1
1991 1
maf@@ 1
Siku 1
ndugu 1
Mu@@ 1
Kijerumani 1
kip@@ 1
mapema 1
C 0.7100464031008809
tasa 1
vijiji 1
wafiadini 1
afanya 1
avu 1
mamlaka 1
yaliyo@@ 1
Albamu 1
maziwa 1
te 0.26171965963140037
mbinu 1
nusu 1
opatikana 1
badala 1
kulikuwa 1
watumwa 1
ed@@ 0.7776549379435945
hawak@@ 1
sa 0.379341390055814
hat@@ 1
heshima 1
wach@@ 1
engwa 1
Map@@ 1
bar@@ 1
le 0.048874087485754586
vitu 1
ri@@ 0.8115123612026849
kat@@ 1
kan@@ 1
miezi 1
Waf@@ 1
ene 1
zil@@ 1
kikundi 1
tar 1
yoyote 1
hadithi 1
unaweza 1
man 0.37485410304886135
tayari 1
are 0.13369912921533314
engenezwa 1
ikwa 1
shahada 1
kam@@ 1
to@@ 0.8229243337803767
kufa 1
pokea 1
bidhaa 1
miongoni 1
Sudan 1
ij@@ 1
uhusu 1
kitu 1
kutangulia 1
de@@ 0.4898624924283926
1995 1
ilo 1
-------- 1
unat@@ 1
vingine 1
andika 1
inayoandikwa 1
Baba 1
ke 0.9580358791223682
pi@@ 1
ke@@ 1
mafanikio 1
ine 0.49660639600971923
moto 1
war@@ 1
Ingawa 1
ak 1
angwa 1
hawa 1
lil@@ 1
iliyot@@ 1
kia 1
kid@@ 1
kujit@@ 1
1994 1
barabara 1
kuk@@ 1
safari 1
Kam@@ 1
alama 1
zinaweza 1
Di@@ 0.9870798339794888
yam@@ 1
huyo 1
nane 1
wanaweza 1
Sehemu 1
? 1
tisa 1
tisha 1
40 1
50 0.9139141113648241
Mb@@ 1
hau@@ 1
kuanzisha 1
anacheza 1
wanaume 1
Ivoire 1
Jum@@ 1
ingo 1
karibuni 1
Hasa 1
chang@@ 1
ilia 1
wahi 1
Kisiwa 1
Miaka 1
aliyekuwa 1
ain@@ 1
ekwa 1
mawili 1
1993 1
mimea 1
umwa 1
Al 1
ida 1
linal@@ 1
wasanii 1
ingwa 1
mkataba 1
makabila 1
mis@@ 1
1997 1
awi 1
koloni 1
msh@@ 1
te@@ 0.8538482986004915
kichwa 1
Wayahudi 1
alish@@ 1
amp@@ 1
Waziri 1
pot@@ 1
su@@ 1
msaada 1
engo 1
Aliwahi 1
elekea 1
kuzaliwa 1
mach@@ 1
Baadhi 1
ako 1
kimo 1
mashuhuri 1
ulu 1
amua 1
elewa 1
1998 0.9067698029115677
War@@ 1
liwa 1
has@@ 1
one 0.17377310435181526
Elimu 1
Nchi 1
le@@ 0.5236722203007096
st@@ 0.3667785559395609
ri 1
uw@@ 1
maalum 1
wazi 1
lia 1
osa 1
Mtakatifu 1
zilikuwa 1
Kiniger 1
wadogo 1
Israeli 1
enea 1
kutengeneza 1
ulimwengu 1
alishinda 1
cheo 1
London 0.9760598409598507
programu 1
uba 1
2@@ 1
Kidemokrasia 1
Wali@@ 1
12@@ 1
ake 1
yalikuwa 1
1996 0.9582495061377992
eleza 1
ni@@ 1
4@@ 1
Cote 1
z 0.6156871061632226
1980 1
kijeshi 1
1970 1
vingi 1
Pamoja 1
apatikana 1
hai 1
kutokea 1
safu 1
El@@ 0.8913776169979429
Papua 1
eshi 1
kush@@ 1
lina 1
pu@@ 1
ahidi 1
Har@@ 1
r 0.8229099361902535
video 1
wako 1
Mah@@ 1
viongozi 1
1992 0.977394132729646
Mwan@@ 1
eri 1
chache 1
wen@@ 1
Tana 1
onga 1
sha 1
kuanza 1
mpango 1
jo 1
usiku 1
kuunda 1
mil@@ 1
Bo@@ 1
Nyanza 1
ad 0.8236697817121083
kud@@ 1
City 0.6717522518047209
imekuwa 1
mal@@ 1
dola 1
jambo 1
jirani 1
uso 1
uti@@ 1
zina@@ 1
mwanamuziki 1
ng 1
uki 1
enti 1
ei 1
kuelekea 1
ono 1
ou 0.3383775395744065
be 0.13284697436915838
imet@@ 1
United 0.39328230538263137
televisheni 1
virusi 1
fedha 1
athari 1
haw@@ 1
jeni 1
miz@@ 1
Uislamu 1
asi@@ 1
Kat@@ 1
Leo 1
kuchukua 1
masuala 1
waka@@ 1
fa 1
fika 1
kanuni 1
ech@@ 1
kujenga 1
California 1
kanisa 1
makazi 1
ote 1
pale 1
angalia 1
waj@@ 1
igo 1
sala 1
bao 1
kupunguza 1
mwanzilishi 1
0,000 1
Kabla 1
usha 1
Kich@@ 1
Korea 1
kujiunga 1
mfiadini 1
ambavyo 1
Kiy@@ 1
ota 1
Waarabu 1
ezea 1
Brazil 1
Nobel 1
re@@ 0.1411671814887772
waki@@ 1
ume@@ 1
kua 1
baridi 1
wakilisha 1
Muziki 1
ge 1
uku@@ 1
ora 1
• 1
asema 1
mapokeo 1
uliopo 1
azama 1
kwani 1
mfupi 1
magonjwa 1
n 0.37208096661188306
tan@@ 1
tr@@ 0.34226994534871474
Hapa 1
chati 1
mataifa 1
Ad@@ 1
osi 1
kushika 1
mtandao 1
dhuluma 1
un 0.05117536694144822
Lu@@ 1
kurudi 1
meli 1
ilianzishwa 1
lengo 1
viwango 1
kadiri 1
os 0.24569358643388198
vilevile 1
ngozi 1
oga 1
umi 1
nao 1
Injili 1
mikoa 1
Ligi 1
kab@@ 1
vyombo 1
atwa 1
ulioko 1
kuendelea 1
kilikuwa 1
kusoma 1
mtindo 1
Taifa 1
afuta 1
Arusha 1
anajulikana 1
mawasiliano 1
chi 1
simu 1
alij@@ 1
wezesha 1
Bunge 1
embe 1
ic@@ 0.5162807735317586
ru@@ 0.9850086586718318
tak@@ 1
umbu@@ 1
roho 1
athiri 1
wanat@@ 1
jit@@ 1
mbio 1
mraba 1
wanao@@ 1
elezea 1
hutumika 1
zinazot@@ 1
apata 1
mbaya 1
zina 1
Kuanzia 1
aliza 1
mf@@ 1
Tanga 1
Vigawo 1
200 1
maambukizi 1
makundi 1
anaweza 1
hum@@ 1
1988 1
jumuisha 1
matukio 1
mvua 1
kando 1
1960 1
Kab@@ 1
Kip@@ 1
saa 1
1@@ 1
andishi 1
kuongeza 1
adilika 1
kij@@ 1
Ali 1
umbali 1
weka 1
kuona 1
mali 1
Vijijini 1
basi 1
ngazi 1
Vietnam 1
je 1
unganisha 1
Kanada 1
chanzo 1
mbunge 1
muundo 1
amil@@ 1
ev@@ 0.9663557408471487
ibada 1
kutaja 1
uku 1
waziri 1
Msimbo 1
agua 1
vyote 1
wadudu 1
mwanzoni 1
uny@@ 1
usi@@ 1
vili@@ 1
mk@@ 1
mwalimu 1
wananchi 1
ndoa 1
waz@@ 1
penda 1
yanayo@@ 1
amizi 1
yale 1
uongozi 1
Bu@@ 1
aye 1
taasisi 1
Kitabu 1
Kutokana 1
dogo 1
mani 1
miti 1
wasi@@ 1
Ut@@ 1
alisema 1
sekondari 1
unguka 1
angi 1
hay@@ 1
padri 1
w 0.8938366666239693
wakiwa 1
3@@ 1
Mjini 1
ten@@ 0.8051989935665359
uza 1
kufika 1
Sal@@ 1
ongezeka 1
Sheria 1
itaji 1
kompyuta 1
yetu 1
askari 1
thi 1
Morogoro 1
kutumika 1
kumu@@ 1
waliot@@ 1
elek@@ 1
Hali 1
kuwepo 1
kufu@@ 1
zingine 1
Si@@ 1
evu 1
lililo@@ 1
Ame@@ 1
kusaidia 1
inap@@ 1
kas@@ 1
ungo 1
Mus@@ 1
Serikali 1
akam@@ 1
chu@@ 1
wastani 1
heri 1
dhahabu 1
Wap@@ 1
ambuliwa 1
mmojawapo 1
p 0.5160180055655665
taarifa 1
Wanawake 1
samaki 1
tiki 1
ababisha 1
bea 1
4,@@ 1
Kwanza 1
Rwanda 1
maonyesho 1
1989 0.9395000622109131
lo@@ 0.45433592074018664
olo 1
ugu 1
‘ 1
bi 1
yi 1
Ka@@ 1
Mik@@ 1
Re@@ 0.4621369152268395
lililo 1
ungaji 1
0 0.5392642833523121
mam@@ 1
ahi 1
ilik@@ 1
mash@@ 1
par@@ 0.5114037328077651
1987 1
juhudi 1
ujenzi 1
fupi 1
li 1
Waingereza 1
ekani 1
Botswana 1
Filamu 1
Uholanzi 1
gazeti 1
kinach@@ 1
ufalme 1
amo 1
ofanya 1
silaha 1
wingi 1
mtunzi 1
barani 1
ligi 1
adili 1
do@@ 1
13@@ 1
Na 1
c 0.39487812821286467
kasi 1
ur 0.988815380501533
1,@@ 1
hutumia 1
kiuchumi 1
utaratibu 1
Kan@@ 1
kuandika 1
ongeza 1
Is@@ 1
eshaji 1
iy@@ 1
ubongo 1
husika 1
me@@ 0.9905272622364596
sayansi 1
umaarufu 1
ushindi 1
biwa 1
En@@ 0.7403731270227796
baina 1
Q@@ 1
se@@ 0.47198946706176914
ukua 1
emb@@ 1
ere 0.9795252069018745
maadili 1
nd@@ 1
India 1
ilitolewa 1
Mo@@ 0.9427794024994076
ilianza 1
kuwa@@ 1
Akiwa 1
emia 1
Dodoma 1
Kiz@@ 1
tarafa 1
Zimbabwe 1
ikawa 1
yal@@ 1
wenyeji 1
gen@@ 0.6866743716487602
mke 1
Ush@@ 1
Wakazi 1
ahamika 1
kupiga 1
mafundisho 1
maumivu 1
pengine 1
Mor@@ 0.782374811933144
2021 0.5424878701391223
Kiislamu 1
Paris 0.6667410012189683
hai@@ 1
yon@@ 1
Ta@@ 1
ambua 1
iliopo 1
mabao 1
omu 1
iliyokuwa 1
mafunzo 1
pombe 1
Fransisko 1
mwishoni 1
Angola 1
nzuri 1
sin@@ 1
upya 1
La 0.10705853286580586
endel@@ 1
imbaji 1
isipokuwa 1
iv@@ 1
maandishi 1
Alizaliwa 1
Sahara 1
iliyo 1
mwendo 1
uchunguzi 1
usika 1
vid@@ 1
14@@ 1
akit@@ 1
kiume 1
aliandika 1
imb@@ 1
zinat@@ 1
jukumu 1
pesa 1
Mtume 1
f 0.6811135134584901
isti 1
kuonekana 1
kuwas@@ 1
mchanganyiko 1
Tar@@ 1
iba 1
it 0.08324416985627814
Sim@@ 1
madhehebu 1
ro@@ 0.46422340414409324
Kila 1
West 0.6996715596336741
alihamia 1
aini 1
ende@@ 1
aguliwa 1
olea 1
sa@@ 1
Sam@@ 1
kuja 1
emba 1
raia 1
umoja 1
Mur@@ 1
U 0.810780678045528
kiz@@ 1
B.K. 1
Wag@@ 1
lao 1
mkutano 1
wataalamu 1
avyo@@ 1
mashirika 1
ame 1
avyo 1
bakteria 1
barua 1
mno 1
wazazi 1
teknolojia 1
harakati 1
jum@@ 1
500 1
binti 1
kudumu 1
yanaweza 1
Kamerun 1
Kol@@ 1
iliana 1
kesi 1
sim@@ 1
Michael 1
toleo 1
wash@@ 1
Hakuna 1
akana 1
faida 1
walipo@@ 1
ajulikana 1
ye@@ 1
lime@@ 1
wanachama 1
faa 1
Mon@@ 0.6529784186873486
Pol@@ 1
ac@@ 0.35552414982785074
umishi 1
ikali 1
unguza 1
wakilishi 1
Bal@@ 1
ena 1
ambia 1
ando 0.506346017062299
ukoloni 1
Yerusalemu 1
kwao 1
wafuasi 1
Ag@@ 1
Sanaa 1
gari 1
reli 1
ula 1
Asili 1
waliokuwa 1
yat@@ 1
Tam@@ 1
Mbeya 1
mimba 1
wag@@ 1
Upande 1
Ureno 1
Il@@ 1
angu 1
ilisha 1
lina@@ 1
wakubwa 1
gi@@ 0.9653260717124627
ofisi 1
umbe 1
uwezekano 1
III 1
kom@@ 1
0@@ 1
ekea 1
huf@@ 1
mradi 1
wanda 1
kushiriki 1
upinzani 1
Spishi 1
daraja 1
vipindi 1
Olimpiki 1
Uchina 1
kui@@ 1
unaot@@ 1
utia 1
Ang@@ 1
Mach@@ 1
hutokea 1
kufuata 1
kupig@@ 1
° 0.8904853768753104
andi 1
eng 1
igizaji 1
kaisari 1
kir@@ 1
3,@@ 1
Kor@@ 1
Ugiriki 1
madogo 1
Cape 1
James 0.7958471026902547
akat@@ 1
dhambi 1
hutumiwa 1
wali 1
alitoa 1
br 1
ome 1
Wajerumani 1
for 0.032301812829451694
ilim@@ 1
kuweka 1
alianzisha 1
alil@@ 1
ifanya 1
ovu 1
riwaya 1
andi@@ 1
macho 1
ley 0.5280534738096255
mich@@ 1
Wasifu 1
kumaliza 1
ony@@ 1
monasteri 1
Aina 1
Visiwa 1
ir 0.6859094068786702
q@@ 1
wagonjwa 1
yenyewe 1
kikosi 1
Algeria 1
Neno 1
Roho 1
kihistoria 1
kutolewa 1
viwanda 1
ehe 1
jengwa 1
7,@@ 1
asha 1
Nyumba 1
R 0.7714250049166611
jer@@ 1
uki@@ 1
Mis@@ 1
T 0.7906919486049095
ufu@@ 1
Kampuni 1
bandari 1
studio 1
sik@@ 1
kilicho@@ 1
ondoka 1
tam@@ 1
Aleksandria 1
kuonyesha 1
ujumla 1
yana@@ 1
,000 1
Agano 1
ishara 1
vim@@ 1
Kitaifa 1
him@@ 1
redio 1
anaye@@ 1
vilivy@@ 1
Kur@@ 1
Mchezaji 1
Waafrika 1
mauaji 1
amekuwa 1
onyeshwa 1
soko 1
1982 0.9903117392309895
Africa 1
kutafuta 1
vik@@ 1
Kigoma 1
Muungano 1
ambaa 1
ika@@ 1
irikiana 1
Mkristo 1
alipokuwa 1
jenasi 1
yen@@ 1
adilishwa 1
anam@@ 1
pas@@ 1
irikisha 1
60 0.9496560727583491
ataa 1
etu 1
kinga 1
vinavy@@ 1
1981 0.9934416099217374
Baraza 1
Shirikisho 1
nia 1
uzwa 1
1986 0.8997566616098555
O 0.56766612000859
bo 1
maz@@ 1
tia 1
unganishwa 1
ukweli 1
African 1
chukua 1
kusim@@ 1
6,@@ 1
ee 1
elfu 1
idh@@ 1
uzito 1
5,@@ 1
aulu 1
iro 1
ju@@ 1
mapinduzi 1
Petro 1
huz@@ 1
alichaguliwa 1
ami 1
lilit@@ 1
makala 1
Mtwara 1
X 0.7964673821278107
amet@@ 1
wav@@ 1
Far@@ 1
Par@@ 0.5337664978723791
Somalia 1
sk@@ 0.9709034711320341
tukio 1
Milima 1
amri 1
alipokea 1
dio 1
pan@@ 1
majaribio 1
zilizot@@ 1
Ubelgiji 1
idae 1
ushwa 1
Kut@@ 1
Ufalme 1
hop 1
mtayarishaji 1
se 0.05067601293250407
Dar@@ 1
embo 1
iliyopita 1
Gu@@ 0.7695429264907196
Nam@@ 1
VVU 1
ay 0.5801312148118893
hip 1
kiungo 1
por@@ 1
Galana 1
abii 1
ende 0.813022398236634
had@@ 1
ol 0.7722312529937795
1985 0.8944329492545101
Mfalme 1
polisi 1
1984 0.8918527585844648
Chi@@ 1
alo 1
El 0.15686603575077826
FIFA 1
Pius 1
X@@ 0.7281375053932587
anikiwa 1
katiba 1
kich@@ 1
ofu 1
zilit@@ 1
imbo 1
kupokea 1
mitatu 1
mj@@ 1
nakala 1
win@@ 1
Bur@@ 0.902671552926631
auti 1
Austria 1
FC 0.9557232151750443
adamu 1
angani 1
ka@@ 1
waliouawa 1
William 0.6708970375304038
mawe 1
uzazi 1
Mer@@ 1
Sa@@ 1
aswa 1
hup@@ 1
taratibu 1
ubali 1
wanaheshimiwa 1
imep@@ 1
wezekana 1
Habari 1
Kilimanjaro 1
haku@@ 1
mayai 1
vikundi 1
Hadi 1
Vy@@ 1
herufi 1
ne 0.22624183276329468
oo 1
wanajeshi 1
hul@@ 1
ilich@@ 1
zu 0.10531285497775866
akatifu 1
asim@@ 1
mbegu 1
ra@@ 1
Mama 1
hudhuria 1
ilipo@@ 1
x@@ 0.620373700600288
sherehe 1
George 0.7259073768095967
Mch@@ 1
Athi 1
afanana 1
mwen@@ 1
2,@@ 1
fur@@ 1
hur@@ 1
kula 1
no 0.15613238461616824
kinyume 1
oy@@ 1
Le@@ 0.4738693632040055
Kaisari 1
Msumbiji 1
athiriwa 1
usimamizi 1
wachache 1
Paul 0.6905074211601911
sura 1
Car@@ 0.47744645666462954
Ko@@ 1
adilisha 1
walim@@ 1
wazo 1
ndi@@ 1
wafanyakazi 1
weze 1
afiti 1
ikiwemo 1
iliyopo 1
inas@@ 1
baharini 1
kukam@@ 1
utana 1
Joseph 1
Unguja 1
ingana 1
mawazo 1
wenda 1
Jua 1
mv@@ 1
Jeshi 1
King@@ 1
vituo 1
Hat@@ 1
egem@@ 1
gesi 1
pin@@ 1
tishwa 1
Utafiti 1
anti 1
Alianza 1
ant@@ 0.6753885226010755
kupel@@ 1
tiba 1
Kaunti 1
St@@ 0.4089088037667315
chombo 1
watatu 1
Chini 1
De@@ 0.576871465754388
Zambia 1
adiriwa 1
iny@@ 1
kiny@@ 1
lich@@ 1
men@@ 1
tawi 1
Iko 1
mirefu 1
pos@@ 0.8448854708120243
toka 1
usa 1
* 0.4595069636390671
300 1
Malcolm 1
Waj@@ 1
jijini 1
kisayansi 1
ot 0.9114505421955611
usiana 1
400 1
Taasisi 1
Uchaguzi 1
afiri 1
atiwa 1
kijijini 1
mwanam@@ 1
Tr@@ 0.4180639398184859
inak@@ 1
kutosha 1
sayari 1
eshwa 1
ishe 1
ahamu 1
kutu@@ 1
siri 1
udia 1
N 0.8109924042117549
Ni@@ 1
c@@ 0.2205738883533971
nyan@@ 1
son 0.09338610600287404
ukiwa 1
kuongezeka 1
E 0.701953613378415
K.K. 1
Sabaki 1
Ser@@ 1
afan@@ 1
fun@@ 1
izo 1
ofautiana 1
ozi 1
huyu 1
odi 1
ondo 1
vikuu 1
waji 1
mashairi 1
ond@@ 1
Be@@ 0.4634622256765211
Her@@ 0.7010971640838123
majira 1
neema 1
matunda 1
National 0.32274014031431036
aum@@ 1
bia 1
embelea 1
far@@ 1
kutambua 1
Uswidi 1
row 1
unja 1
ze 1
afuata 1
ishirini 1
D 0.5662784962407504
ingi 1
mifumo 1
min@@ 0.7152115469915604
nadharia 1
unge 1
CCM 1
ami@@ 1
ers 0.14606978784168154
okeza 1
ombo 1
wachezaji 1
ed 0.07660982304797317
hesabiwa 1
misitu 1
shida 1
Maf@@ 1
Wach@@ 1
afa 1
engeneza 1
fah@@ 1
lit@@ 1
ujuzi 1
8,@@ 1
Ig@@ 1
mwana 1
nguo 1
pen@@ 1
iliki 1
jiunga 1
sit@@ 1
viungo 1
5,000 1
80 1
Bab@@ 1
Hatimaye 1
Saint 0.393238433334742
ilikadiriwa 1
ilis@@ 1
nzima 1
TV 0.7274433732869064
andaa 1
hospitali 1
kuleta 1
mi 1
mikubwa 1
mwanaharakati 1
uia 1
Maw@@ 1
Us@@ 1
kidini 1
kuenea 1
nini 1
ungana 1
alfabeti 1
huj@@ 1
ukuliwa 1
eja 1
inah@@ 1
kukat@@ 1
kupatikana 1
Az@@ 1
East 0.7753653919968432
Nak@@ 1
V 0.65807276896191
fi@@ 0.9339115398019914
haj@@ 1
mapigano 1
walianza 1
wanah@@ 1
1964 0.9968666296798079
Jiografia 1
mbu@@ 1
milki 1
wanam@@ 1
Bora 1
Robert 0.7042081350102242
avy@@ 1
isim@@ 1
kaka 1
majani 1
undo 1
walish@@ 1
Awards 1
Maz@@ 1
Me@@ 0.7777485293800762
aku 1
rahisi 1
Ur@@ 1
ab 0.41445697361820294
aliwahi 1
nayo 1
apishwa 1
kusema 1
uzalishaji 1
Kh@@ 1
kiroho 1
mikono 1
Matumizi 1
ya@@ 1
zik@@ 1
UKIMWI 1
ajiri 1
nyeupe 1
Charles 0.6799180398736756
endi 1
kuhamia 1
mo@@ 0.5232819108708554
nishati 1
ui 1
vifo 1
waw@@ 1
Up@@ 1
90 1
Kituo 1
Tu@@ 1
ega 1
pokuwa 1
ulimwenguni 1
ushirikiano 1
vyama 1
zime@@ 1
ajabu 1
chem@@ 1
70 1
afir@@ 1
anap@@ 1
gharama 1
kundinyota 1
-@@ 0.5598837755114631
ey 0.7397482608318752
1950 0.8335817773711033
Benki 1
eno 1
pat@@ 1
peke 1
saf@@ 1
South 0.3880075185980416
Uajemi 1
amuzi 1
shu@@ 1
etea 1
kiko 1
ung 0.22267167319702444
Kiny@@ 1
Mit@@ 1
abara 1
alisoma 1
dar@@ 1
dua 1
mingine 1
pend@@ 1
San 0.3769983259087578
dakika 1
kilometa 1
madini 1
Nile 1
adil@@ 1
bus@@ 1
chuma 1
endesha 1
ngoma 1
so@@ 0.6606924103144423
uliot@@ 1
vyo 1
David 0.6800665684673496
pel@@ 1
pi 1
som@@ 1
linalo@@ 1
mipango 1
abila 1
mpangilio 1
mta@@ 1
ongozi 1
viwili 1
é@@ 0.3087911560343786
+ 0.7029468573227775
35 0.9714371615329129
Ina@@ 1
Tabora 1
tish@@ 1
afiki 1
gu@@ 0.6218127178120519
omb@@ 1
ton 0.3591108449800771
umuhimu 1
zaji 1
32 1
International 0.5273088612113561
ch 0.3535415743334235
diwa 1
elementi 1
tum@@ 1
Kagera 1
milele 1
ndefu 1
ofanana 1
ohusiana 1
akazi 1
ekundu 1
iriwa 1
kutoweka 1
unzi 1
Jumuiya 1
Mil@@ 1
ambukizwa 1
chenye 1
eto 1
kimoja 1
mkurugenzi 1
single 0.4891798348087009
usalama 1
Na@@ 1
esho 1
mia 1
sahihi 1
ungumza 1
Kisha 1
masi 1
ulinzi 1
yanaelekea 1
yangu 1
# 1
aliweza 1
anak@@ 1
azim@@ 1
hin@@ 1
kuti@@ 1
nyama 1
ue 0.7136229663578686
iitwayo 1
kufuatana 1
mahitaji 1
Njia 1
Viungo 1
adh@@ 1
aku@@ 1
atizo 1
isitiza 1
lote 1
maskini 1
omea 1
Per@@ 0.5670723449989048
ku 1
medali 1
okia 1
ongo@@ 1
Records 1
fariki 1
ukoo 1
10,000 1
Waz@@ 1
aliendelea 1
alipewa 1
izwa 1
fasihi 1
hinda 1
kh@@ 0.8603108128282334
vyuo 1
Kwenye 1
benki 1
gh@@ 1
itajika 1
jadi 1
majengo 1
mzuri 1
viumbe 1
wekwa 1
Lindi 1
isionari 1
ist@@ 0.7384690450607878
kug@@ 1
nyekundu 1
tatizo 1
Senegal 1
aliyet@@ 1
Mpaka 1
North 0.45800822081093534
ushahidi 1
Guthrie 1
Or@@ 0.6442877254041527
Sayansi 1
Ub@@ 1
wanamuziki 1
uke 1
wepo 1
Ber@@ 0.54980009673063
Kus@@ 1
aliteuliwa 1
hamia 1
he@@ 0.5592773482289101
mwanas@@ 1
Cor@@ 0.5485727912264906
bul@@ 1
he 0.05268743347439342
thamani 1
vipimo 1
1979 0.7922301186891914
9,@@ 1
Bi@@ 0.7017841289789375
Br@@ 0.3929264913681056
falsafa 1
Manchester 1
a.@@ 1
ask@@ 1
kile 1
mwanafunzi 1
ongezeko 1
yanayot@@ 1
Bus@@ 1
isiyo 1
kuny@@ 1
usisha 1
Bas@@ 1
Kihindi 1
Li@@ 0.7769174838876729
Maendeleo 1
Tak@@ 1
Uli@@ 1
taka 1
wanas@@ 1
wez@@ 1
ziko 1
Mwezi 1
akis@@ 1
huweza 1
kuimba 1
1977 0.8586441270141515
abati 1
itumia 1
j 1
Peter 0.7918719215064928
ard 0.47870182554442114
Muh@@ 1
Mwanza 1
Ndugu 1
kitovu 1
mig@@ 1
naf@@ 1
1978 0.8102351203042433
Huko 1
Jackson 1
Kon@@ 0.9889227729659441
haf@@ 1
kijana 1
School 0.3403594744294382
eke 1
pende@@ 1
1983 0.7648123581279979
kupita 1
scope 1
udisha 1
yap@@ 1
Biashara 1
Kw@@ 1
Mfano 1
Um@@ 1
bei 0.15640787524817437
kisheria 1
Ram@@ 1
ik 1
om 1
Mtaguso 1
kara 1
kuacha 1
onia 1
kitamaduni 1
zu@@ 1
1975 0.7590168340090945
Mapinduzi 1
aliyo@@ 1
euliwa 1
icho 1
imara 1
inaf@@ 1
kumw@@ 1
mashamba 1
oweka 1
paswa 1
uy@@ 1
wab@@ 1
World 0.2659411552679884
aria 1
ey@@ 1
Jersey 1
adui 1
auri 1
hudumu 1
kinacho@@ 1
wi@@ 1
Kiebrania 1
Pili 1
Sar@@ 1
akati 1
fainali 1
go 0.7691783448945526
indana 1
kadi 1
akifunga 1
kukaa 1
kuongoza 1
risasi 1
Hifadhi 1
Kom@@ 1
Mkoani 1
Pwani 1
S 0.5006433747032962
hiwa 1
irik@@ 1
nasaba 1
Ho@@ 0.9394183065409557
Kap@@ 1
Kutoka 1
maelezo 1
shinikizo 1
yaliyot@@ 1
Muhammad 1
Wazungu 1
fa@@ 1
igiza 1
ujumbe 1
undua 1
Bin@@ 1
Michezo 1
Tor@@ 0.8880244461398276
Wad@@ 1
by 0.026961279935023934
ekuwa 1
ew@@ 1
mapafu 1
sal@@ 0.9718340810125978
waandishi 1
... 0.5438727409772778
Hal@@ 1
ambi 1
iw@@ 1
nus@@ 1
G 0.6035552094486432
Gregori 1
ho 1
mtaalamu 1
umo 1
Kum@@ 1
akim@@ 1
bin 1
hisia 1
osha 1
udumu 1
usafiri 1
Bak@@ 1
Kundi 1
ashi 1
daktari 1
embamba 1
kufuatia 1
mchakato 1
salama 1
1969 0.8356440179952914
IV 1
ajumuisha 1
avi 1
jangwani 1
magari 1
mazao 1
M 0.618787821372479
kea 1
kulia 1
ndipo 1
nyakati 1
ushi 1
yana 1
1976 0.7711736853163889
Ruvuma 1
inajulikana 1
yalit@@ 1
Music 0.7330104844394091
epata 1
ilipata 1
land 0.26962249521543935
oaji 1
wanak@@ 1
Basi 1
vyo@@ 1
1963 0.924505377165546
Mali 1
maoni 1
mipaka 1
sera 1
wanap@@ 1
Ham@@ 1
Mombasa 1
mau@@ 1
takribani 1
ikilia 1
mazoezi 1
wenzao 1
Argentina 1
Sab@@ 1
kisiwani 1
kuuza 1
linat@@ 1
oidi 1
vidogo 1
vis@@ 1
Alipata 1
Kirusi 1
babu 1
hesabu 1
ilish@@ 1
im 0.050720463788813494
kuwaf@@ 1
minne 1
kana 1
wowote 1
Sous 1
kujitawala 1
mapenzi 1
matam@@ 1
omi 1
Te@@ 0.8155201796449856
gani 1
kukuza 1
kuta 1
mstari 1
sak@@ 1
Su@@ 0.9792644024112837
Utawala 1
amiwa 1
barafu 1
hupatikana 1
kavu 1
ph@@ 0.39558456168005524
préfecture 1
upasuaji 1
eki 1
tir@@ 1
1972 0.7241112317002295
We@@ 0.9119130703546868
ulizi 1
dada 1
kibiashara 1
ukuaji 1
cho@@ 1
ro 1
hutoa 1
ikit@@ 1
ilhali 1
mwenyekiti 1
ubaguzi 1
ulianza 1
hufanya 1
ind@@ 1
kukua 1
protestanti 1
suala 1
sw@@ 1
Nyam@@ 1
awa@@ 1
lio 1
wanaot@@ 1
Askofu 1
Wikipedia 1
em 0.5360692802918164
ger@@ 0.641815652952943
34 1
aji@@ 1
kifu@@ 1
osababisha 1
33 1
Uf@@ 1
ache 1
anaf@@ 1
inayoitwa 1
mashine 1
mwanga 1
tani 1
1961 0.9268611568166926
1974 0.7368482913946153
L 0.3790295008471179
Town 1
Uchumi 1
imbia 1
ire 0.6990536346442748
visi@@ 1
Se@@ 0.41880443172302134
id 0.6854097936812001
kalenda 1
mzima 1
ulianzishwa 1
uwa 1
Gal@@ 0.9817584740428363
Juu 1
Uswisi 1
beba 1
esabiwa 1
kuondoka 1
kushindwa 1
Kivuka 1
You 1
jinsia 1
oi 1
Iringa 1
br@@ 0.28390911514624295
bun@@ 1
gea 1
ingiza 1
injini 1
limet@@ 1
matatu 1
muungano 1
onda 1
Kulingana 1
Singida 1
Vilevile 1
fik@@ 1
yeyote 1
Ndege 1
iria 1
omunisti 1
upana 1
Kiv@@ 1
Nyerere 1
alichunguza 1
alikua 1
hula 1
Ime@@ 1
Tun@@ 1
aia 1
anti@@ 0.7580653186336439
asidi 1
huenda 1
tovuti 1
yas@@ 1
Malawi 1
Pakistan 1
Uz@@ 1
anz@@ 1
haifu 1
hani 1
hara 1
pe 0.7795912733972515
taa 1
tim@@ 1
11,@@ 1
1973 0.7395525162127405
Kioseaniki 1
Ndiyo 1
anaj@@ 1
don@@ 1
il 0.07526345173491368
kubali 1
uga 1
vir@@ 1
ze@@ 1
600 1
alimtangaza 1
baki 1
chumvi 1
mti 1
wasichana 1
hawa@@ 1
hitimu 1
idai 1
likana 1
mkali 1
rafiki 1
1967 0.7858542833468889
P 0.6261211220718548
Sul@@ 1
polepole 1
sum@@ 1
ter@@ 0.30634349405070566
Buk@@ 1
Ilikuwa 1
afikia 1
iliz@@ 1
ista 0.7981586858002885
protini 1
Mau@@ 1
aminika 1
jia 1
kani 1
sumu 1
data 1
hibi@@ 1
udongo 1
urithi 1
weusi 1
Urefu 1
ani@@ 1
ii 1
ondolewa 1
utendaji 1
alitumia 1
ingi@@ 1
kurekodi 1
ms@@ 1
ser@@ 0.5377217058642213
vinavyo@@ 1
esheni 1
kampeni 1
marufuku 1
Washington 0.7159873132238547
anguka 1
ikuja 1
jengo 1
madhara 1
mpiga 1
runinga 1
walij@@ 1
atikana 1
inj@@ 1
mshairi 1
watawala 1
Kak@@ 1
Kinapatikana 1
Tofauti 1
asia 1
husababisha 1
msimbo 1
ngumu 1
ondoa 1
oraji 1
anzi 1
ava 1
dhana 1
ek 0.861321020364232
iwe 1
mapya 1
unap@@ 1
Kihispania 1
Kitui 1
Ndani 1
Sp@@ 0.5921427892944172
adha 1
anisha 1
desturi 1
oba 1
Ri@@ 0.9133334538490593
hek@@ 1
kr@@ 1
kujua 1
lo 0.2238480001798319
uandishi 1
Ath@@ 1
ababishwa 1
ago 1
isheni 1
shi 1
son@@ 1
wasio 1
yanat@@ 1
1965 0.7906090723466274
Pr@@ 0.5320072710968349
ahili 1
div@@ 1
iliano 1
safi 1
wageni 1
Duniani 1
Kr@@ 0.6953195451495715
Ky@@ 1
Uch@@ 1
alishiriki 1
emi 1
ihusisha 1
kand@@ 1
kuuawa 1
Anatolia 1
alifunga 1
eko 1
fung@@ 1
ipo 1
sio 1
tas@@ 1
wakuu 1
wer@@ 0.973566227321577
Mt 1
alirudi 1
eshimiwa 1
fut@@ 1
kombe 1
lim@@ 1
ncha 1
ofanywa 1
Mambo 1
ber@@ 0.40942461989040413
fia 1
hati 1
onge 1
ford 0.6875786124839679
kukubali 1
thibitisha 1
zifuatazo 1
Ha@@ 1
Mkutano 1
Vit@@ 1
inam@@ 1
kati@@ 1
obaki 1
onaki 1
F 0.5324603296921157
anayejulikana 1
ayansi 1
ayarishwa 1
bilioni 1
gol@@ 1
kukab@@ 1
la@@ 0.9719923187027003
Pas@@ 1
Sak@@ 1
Wengine 1
alivy@@ 1
ilivyo 1
imbwa 1
ivu 1
mwingi 1
usishwa 1
Gr@@ 0.42318749657440263
alii 1
kari 1
majukumu 1
nad@@ 1
salaba 1
so 0.18931047026192205
wetu 1
Ina 1
Moroko 1
ilif@@ 1
iliyop@@ 1
mapato 1
metali 1
neva 1
elezo 1
homa 1
mfu@@ 1
Haki 1
ic 0.25336587962293566
1971 0.6881811033624576
Can@@ 1
K 0.6460094359702007
Ol@@ 1
jini 1
kipimo 1
kizazi 1
kuham@@ 1
mgongo 1
pitia 1
sar@@ 1
Billboard 1
linzi 1
ore 0.6001776750181705
Afya 1
Lo@@ 0.6978791239453717
Sababu 1
matendo 1
ubu 1
ugaji 1
upe 1
waamini 1
CC@@ 1
Gar@@ 0.9303575911216173
Mc@@ 0.44486670761536534
indani 1
kinat@@ 1
kutumiwa 1
kuzwa 1
zilizo 1
800 1
Muk@@ 1
Mwen@@ 1
Zaidi 1
ibu@@ 1
uyu 1
wakimbizi 1
36 1
ebaki 1
kk 1
kubadilisha 1
labda 1
mzunguko 1
uawa 1
vyakula 1
Wav@@ 1
West@@ 0.9756199192908641
adhili 1
chukuliwa 1
mchanga 1
mdomo 1
Msh@@ 1
Uhuru 1
efanya 1
ero 0.7309581997114357
kiini 1
re 0.27020816522141367
vipande 1
1962 0.8025698869417097
Bel@@ 0.5574367437689935
Richard 0.7555844083995354
amatwa 1
awaliwa 1
awany@@ 1
ekebisho 1
kuendeleza 1
kuondoa 1
nuru 1
yu 1
alip@@ 1
kibinafsi 1
mitano 1
Kata 1
Mam@@ 1
Mr@@ 1
makampuni 1
mitindo 1
ofanyika 1
undisha 1
volkeno 1
wanaj@@ 1
Mir@@ 1
angulia 1
bozi 1
indi@@ 1
jamhuri 1
sugu 1
wakifuata 1
Em@@ 0.936160166404946
Mahakama 1
River 0.45696594095766463
est@@ 0.3446416514630264
istoria 1
onesha 1
Kisovyeti 1
alich@@ 1
mtawala 1
okoa 1
tel@@ 0.7219471864751278
tor@@ 0.5099967894391492
vich@@ 1
Awali 1
Ok@@ 1
Ufilipino 1
University 0.17903530068805723
atibu 1
kujitegemea 1
msimamo 1
pembe 1
uhai 1
1945 0.4842629636268895
Mtu 1
Timu 1
age 0.1352904904499474
angavu 1
kibinadamu 1
kuitwa 1
kuwat@@ 1
ifunza 1
lika 1
linaloitwa 1
maumb@@ 1
owahi 1
ubini 1
ukosefu 1
45 0.7396157741604893
Tunisia 1
der 0.011653059980425625
haswa 1
ly 0.22793158383661394
michuano 1
mmonaki 1
uji 1
Black 0.8620474546179615
Er@@ 0.32488782850013803
Wagiriki 1
andaliwa 1
maaskofu 1
rej@@ 1
Bay 1
Denmark 1
etezi 1
ilip@@ 1
inapatikana 1
kufunga 1
kuigiza 1
porom@@ 1
udi@@ 1
wazima 1
Wash@@ 1
ames@@ 1
ingatia 1
kupanda 1
miradi 1
sekta 1
udu 1
ut 0.9460835497335687
Mg@@ 1
Mtanzania 1
Nchini 1
kad@@ 1
kal@@ 1
makanisa 1
v 0.5428044236196004
Familia 1
Kish@@ 1
Vik@@ 1
anifu 1
awishi 1
azamwa 1
kif@@ 1
madaraka 1
nyeusi 1
wewe 1
Anti@@ 1
Bikira 1
anah@@ 1
arini 1
azidi 1
nafsi 1
Nd@@ 1
ange@@ 1
ihi 1
kufundisha 1
ufu 1
So@@ 0.7809320158703802
Thomas 0.5405136102912627
atak@@ 1
daima 1
hakika 1
kezwa 1
king@@ 1
1,000 1
airi 1
esa 1
fikia 1
madawa 1
20@@ 1
Jiji 1
Lin@@ 1
Poland 1
ese 0.4429506626803903
hubiri 1
isababisha 1
tamaduni 1
Con@@ 0.26412243360123144
Kiar@@ 1
ein@@ 0.2738612740338193
engele 1
kuboresha 1
kudhibiti 1
oyo 1
uzima 1
wakulima 1
wokovu 1
49 1
Hivi 1
haina 1
kulevya 1
kupewa 1
kutawala 1
ogoro 1
opita 1
zis@@ 1
1966 0.7257873369876648
At@@ 0.9620920368906412
Massachusetts 1
Mz@@ 1
Sch@@ 0.19268048014953595
chapishwa 1
mu 1
ufa 1
Fr@@ 0.6123727117212657
Tibeti 1
aro 1
fereji 1
10,@@ 1
Dh@@ 1
Ili 1
Mashindano 1
kuongea 1
ubiri 1
vilivyo@@ 1
He@@ 0.5307435013757984
Kiyahudi 1
Martin 0.7344238327031498
Park 0.45618729275645314
gitaa 1
icha 1
kupinga 1
mnyama 1
thel@@ 1
1968 0.6265154278775531
Bug@@ 1
Chanzo 1
ariki 1
hali@@ 1
julikani 1
lile 1
Mfumo 1
Mkurugenzi 1
Mug@@ 1
atana 1
inganishwa 1
jarida 1
lis@@ 1
tawimto 1
Kup@@ 1
Pasifiki 1
angaz@@ 1
eneza 1
kari@@ 1
kuzingatia 1
oksijeni 1
urahisi 1
wanja 1
Mbali 1
Ne@@ 0.4764421098609396
Ti@@ 1
UEFA 1
Bon@@ 1
Co@@ 0.3690630178292517
Vip@@ 1
aliishi 1
mwilini 1
odi@@ 1
safa 1
Kisino 1
Lagos 1
Min@@ 0.7601837810047463
mahakama 1
mungu 1
Ba@@ 1
Men@@ 1
San@@ 0.9548452492176674
mtazamo 1
watumiaji 1
0.@@ 0.901787525396221
37 1
aliamua 1
ingereza 1
ion@@ 1
shirikisho 1
ukia 1
La@@ 1
baadae 1
himu 1
jamaa 1
mashauri 1
meno 1
oke 1
profesa 1
umiaji 1
utambuzi 1
uzulu 1
Pi@@ 0.7448268031771467
Str@@ 0.44895105645378663
Uk@@ 1
ard@@ 0.8699075393917872
fin@@ 0.5116165260473664
hairi 1
imaji 1
kujifunza 1
sikukuu 1
tamthilia 1
uharibifu 1
achana 1
kuhari@@ 1
nywele 1
uigizaji 1
ulio 1
uto 1
utwa 1
yule 1
aktari 1
kuanzishwa 1
kupan@@ 1
tamasha 1
wanaishi 1
Bun@@ 1
chembe 1
ete 1
eti@@ 1
kaz@@ 1
kubaliwa 1
ost@@ 1
Po@@ 0.6140923278826049
Shahada 1
bezi 1
ilivyo@@ 1
kifaa 1
kio 1
pl@@ 0.314730662245808
utumwa 1
yame@@ 1
0,@@ 1
Ash@@ 1
Shu@@ 1
ababishi 1
bonde 1
hawana 1
inayopatikana 1
kiti 1
muongo 1
omwa 1
umaini 1
… 0.7419707550699689
Kamati 1
Kiroma 1
Maeneo 1
Song@@ 1
Tiba 1
afsiri 1
ajali 1
aliye 1
ishinda 1
madai 1
ongoni 1
35@@ 1
chochote 1
kig@@ 1
kule 1
mon@@ 0.28816483833640416
ran@@ 0.5952684341884322
wango 1
May@@ 1
Mazingira 1
aguzi 1
ajemi 1
aliyem@@ 1
enge 1
hari@@ 1
kisanii 1
tajiri 1
vipengele 1
47 1
Mwanzoni 1
Wizara 1
adhabu 1
aliyezaliwa 1
diko 1
esia 1
fi 1
haik@@ 1
mateso 1
uasi 1
weng@@ 1
Hak@@ 1
ambul@@ 1
anach@@ 1
homoni 1
jipya 1
malaria 1
ukuma 1
wafanyabiashara 1
Isi@@ 1
kina@@ 1
marafiki 1
taaluma 1
udiwa 1
hujulikana 1
kuweza 1
mbinguni 1
onyesho 1
Mwanam@@ 1
Nyota 1
enia 1
hisi 1
kuhitimu 1
kupanga 1
kutekeleza 1
malengo 1
rasi 1
tab@@ 1
ve 0.09793691768488248
Fal@@ 1
Teknolojia 1
Way@@ 1
eba 1
endeleza 1
eon@@ 1
kel@@ 1
kemikali 1
na@@ 1
osisi 1
Katibu 1
ahudi 1
inayojulikana 1
kuzaa 1
magazeti 1
pemb@@ 1
saratani 1
takatifu 1
Uh@@ 1
ais@@ 1
inaitwa 1
kumaanisha 1
msaidizi 1
ombi 1
ope 1
ungi 1
zo@@ 1
2,000 1
Love 1
huohuo 1
jangwa 1
kilele 1
kuku@@ 1
kumt@@ 1
wasiwasi 1
Bara 1
Nyak@@ 1
Ro@@ 0.47062696966540607
kuku 1
sam@@ 1
sinema 1
tumbo 1
uhusiwa 1
wad@@ 1
39 1
Berlin 0.4929880431349484
Mash@@ 1
Nik@@ 1
adai 1
alipot@@ 1
awiwa 1
azamaji 1
changia 1
orodheshwa 1
angalau 1
iliyoko 1
inganisha 1
Af@@ 1
Asi@@ 1
alizi 1
duliwa 1
kushirikiana 1
mahusiano 1
ras@@ 1
tw@@ 0.9559528720797211
Es@@ 0.6481216420321255
Mn@@ 1
ambu@@ 1
edi 1
fan@@ 1
jaa 1
kifalme 1
madar@@ 1
uzam@@ 1
lu@@ 0.5585231159731432
mshambuliaji 1
okuwa 1
unza 1
weke 1
$ 0.25304375805407014
Anajulikana 1
Baringo 1
Du@@ 0.8477771650099692
hud@@ 1
iliyofuata 1
mbadala 1
tar@@ 0.7584840573677968
wamisionari 1
1000 1
Bor@@ 0.6592913297294671
Konstantinopoli 1
Ngu@@ 1
Nyimbo 1
ileta 1
mbwa 1
upepo 1
abi 1
akich@@ 1
amoto 1
ashiria 1
hifadhiwa 1
makosa 1
nj@@ 1
taji 1
tem@@ 1
Namibia 1
Watoto 1
abiri 1
afi 1
akia 1
beki 1
chapisha 1
mchana 1
me 0.32345702729182835
uliza 1
Jipya 1
King 0.504143484376306
Una 1
awamu 1
endeshwa 1
fanyika 1
idara 1
igwa 1
mashambu@@ 1
mid@@ 1
uen@@ 1
48 1
Bag@@ 1
Hadithi 1
agiza 1
apokuwa 1
der@@ 0.3403187165458933
linalot@@ 1
oda 1
wajibu 1
wangu 1
1958 0.71086555344564
Nj@@ 1
emekana 1
furaha 1
kikoloni 1
les@@ 1
mabaki 1
ous 0.23159646520024782
wazee 1
1959 0.7317548505340635
Miji 1
Party 0.5169135234360906
afisa 1
ande 1
dis@@ 0.15156522777214806
yaliyo 1
yan 1
42 1
700 1
Alish@@ 1
Coast 1
Ireland 0.9191426462684914
Kipama 1
Rasi 1
To@@ 0.9121507367113003
balozi 1
ekeb@@ 1
elekeza 1
eswa 1
mwelekeo 1
ufundi 1
zinabaki 1
DJ 1
Dis@@ 0.7800788173525305
Johannesburg 1
Mul@@ 1
Narok 1
ahitaji 1
akish@@ 1
kibao 1
kinachot@@ 1
kubeba 1
les 0.027954509456957006
igaji 1
kamati 1
koo 1
kukom@@ 1
kuunganisha 1
mabaya 1
ok 1
upa 1
vi 1
wimbi 1
Ben@@ 0.8957714771451989
Eritrea 1
Kiti@@ 1
Mig@@ 1
Sek@@ 1
Viktoria 1
ameichezea 1
anzia 1
ehemu 1
kiwa 1
kor@@ 1
zit@@ 1
38 0.9138122983425113
Col@@ 0.37035187565353483
Madrid 1
Mand@@ 1
Sel@@ 1
ajit@@ 1
aus@@ 0.2159274601774179
berg 0.40412331149387093
heria 1
kigeni 1
shaba 1
uhandisi 1
uishe 1
upungufu 1
utengenezaji 1
Bil@@ 1
Kanda 1
Kimarekani 1
Kiw@@ 1
astronomia 1
azwa 1
esab@@ 1
jitokeza 1
mhusika 1
odha 1
ongea 1
unua 1
urais 1
zam@@ 1
1930 0.6683526562637707
Alich@@ 1
Kij@@ 1
giza 1
iri@@ 1
kupungua 1
mila 1
ngono 1
sil@@ 0.9148332777927534
ubora 1
von 0.026805459815304928
ziara 1
zisizo 1
Jean 0.3972394136169489
Wareno 1
ez 0.9878134562375923
huadhimisha 1
ikuu 1
udhibiti 1
Alimfuata 1
Kay@@ 1
Kipindi 1
bas@@ 0.5849900860250595
ichezea 1
kutetea 1
lahaja 1
maafisa 1
tafsiri 1
ukwaa 1
000 0.6955379065601818
Central 0.5726308907327156
ait@@ 1
aliuawa 1
jumuiya 1
kikamilifu 1
kuelewa 1
wafalme 1
Ana 1
Huduma 1
Kiroho 1
Rufiji 1
Sultani 1
Uj@@ 1
Vijana 1
aguso 1
biolojia 1
inataja 1
patikana 1
sel@@ 0.5932623990234059
tah@@ 1
umbi 1
8,000 1
Com@@ 0.4511291782550918
Kichina 1
Malaysia 1
chumba 1
ikua 1
iliyotolewa 1
itu 1
jumba 1
liko 1
sanamu 1
uwepo 1
Chad 1
Mohamed 1
Sir@@ 1
Tab@@ 1
Wany@@ 1
haiku@@ 1
kufun@@ 1
lima 1
linaweza 1
maarifa 1
mot@@ 1
shwa 1
umet@@ 1
unia 1
54 1
Los 0.21763307097166268
Uy@@ 1
alifu 1
ban@@ 0.9959571318095843
eleka 1
ens@@ 0.3018912938456609
hav@@ 1
kimb@@ 1
magadi 1
upili 1
vij@@ 1
yar@@ 1
Henry 0.6216123425822551
Kisi@@ 1
Msingi 1
kadhalika 1
patia 1
Alipo@@ 1
Amani 1
Im@@ 0.7112423332047236
hakuwa 1
hoteli 1
ondo@@ 1
osababishwa 1
vyenye 1
Hungaria 1
Takwimu 1
chao 1
hayaj@@ 1
ikam@@ 1
ne@@ 0.3388276594967424
ombea 1
pasipo 1
wawa 1
yasiy@@ 1
Arsenal 1
Karne 1
Musa 1
Mzee 1
Uko 1
aliwa@@ 1
jiografia 1
matawi 1
mifano 1
saidia 1
ust@@ 1
Dam@@ 1
Ke@@ 1
Mwishoni 1
Shinyanga 1
ambi@@ 1
hisa 1
kuchangia 1
kushoto 1
kusudi 1
penye 1
uham@@ 1
umisha 1
waya 1
Julius 1
Mwana 1
achukua 1
ans 0.1424449856593719
hibiti 1
ikisha 1
mimi 1
ram@@ 1
umbusho 1
ungan@@ 1
Ger@@ 0.5395799673430196
hitaji 1
inaadhimishwa 1
kambi 1
kol@@ 1
kutana 1
liturujia 1
tasnia 1
vyanzo 1
zaa 1
52 1
Mwalimu 1
Postikodi 1
aminifu 1
ec@@ 0.24995453490074923
fuatia 1
kish@@ 1
mtangazaji 1
thelathini 1
uno 0.5712245878546546
1957 0.7059801851975286
H 0.583310067770738
Louis 0.5156535946907416
Mac@@ 0.5912506863834885
Waliozaliwa 1
adirio 1
bodi 1
doa 1
haja 1
imbi 1
karatasi 1
tiwa 1
weni 1
Nakuru 1
Tabia 1
ambamo 1
che 0.4172578036323503
etwa 0.4365372338650568
hamu 1
ingine 1
kurej@@ 1
mwamba 1
pak@@ 1
per@@ 0.24729168835670814
walis@@ 1
adiki 1
andam@@ 1
insia 1
ler 0.20791360131659356
waliuawa 1
Mediteranea 1
Mitume 1
Nyungan 1
hughulikia 1
igizo 1
mada 1
mume 1
q 1
wany@@ 1
ac 0.7130741110903397
aminiwa 1
arabu 1
indaji 1
jozi 1
kugun@@ 1
makumbusho 1
uamuzi 1
undu 1
Kumbe 1
Nyan@@ 1
VI 1
Wadogo 1
ambano 1
amilifu 1
chanjo 1
gr@@ 0.23541352911625926
hisabati 1
huk@@ 1
mishipa 1
takwimu 1
tut@@ 1
watawa 1
1940 0.5655194007357327
ahi@@ 1
akini 1
engen@@ 1
ganda 1
mgonjwa 1
mkoani 1
uhusika 1
ukumbi 1
umbuiza 1
wakit@@ 1
wanne 1
Kufikia 1
Sw@@ 1
anas@@ 1
arib@@ 1
bin@@ 1
hofu 1
iliendelea 1
iliyoitwa 1
indu@@ 1
maandiko 1
mabawa 1
makali 1
pol@@ 0.6563651404227316
41 1
46 1
Mari@@ 1
akifanya 1
alivyo@@ 1
ayar@@ 1
des 0.014103689222936049
laini 1
mahindi 1
sp@@ 0.26535595545956076
waliop@@ 1
ziada 1
Toleo 1
hewani 1
linatokana 1
ongoji 1
ripoti 1
walifariki 1
Sen@@ 1
TANU 1
araka 1
ation 0.058023977794026356
del 0.031216370371077665
hadhi 1
inaonekana 1
teolojia 1
44 0.859504912105413
55 0.9756731626863894
Bre@@ 0.6735274442643875
Ir@@ 1
Me 1
elew@@ 1
hana 1
ifu@@ 1
imi 1
jumuia 1
kutibu 1
mwake 1
panya 1
tendo 1
viz@@ 1
Fel@@ 1
Kadiri 1
Qu@@ 0.35984639727130047
Syria 1
amba@@ 1
atur@@ 1
haij@@ 1
inae 1
sadaka 1
walimu 1
Alis@@ 1
Anat@@ 1
Man 0.7764754899285101
Utamaduni 1
XIII 1
ambuzi 1
kuandaa 1
misingi 1
oleo 1
pop 1
vip@@ 1
visa 1
1948 0.617318031186785
Fl@@ 0.5461996973375375
Milki 1
Ruyigi 1
akap@@ 1
alionekana 1
dem@@ 0.5230214271250927
fr@@ 0.42450248801719326
hab@@ 1
ifuat@@ 1
isipaa 1
jenga 1
maradhi 1
ushawishi 1
zito 1
12,@@ 1
1956 0.6304799790852923
3,000 1
Mk@@ 1
Nje 1
Sau@@ 1
akilishi 1
akula 1
ambulika 1
ica 0.3631169454224183
ikira 1
let@@ 1
mhandisi 1
pr@@ 0.23869869986145673
Benin 1
ass@@ 0.3035029853813068
bak@@ 1
chi@@ 0.9510175700744647
engi 1
ian 0.5009809000453572
kez@@ 1
taba 1
tal@@ 0.7954959903948515
vibaya 1
1954 0.6883732821263754
Ker@@ 1
Matokeo 1
Palestina 1
ado 0.10559021211079204
air@@ 0.5951429583680184
arab@@ 1
baraza 1
duni 1
ent@@ 0.16342541018300744
kukimbia 1
kulinda 1
ufanisi 1
yeji 1
33@@ 1
43 1
Go@@ 0.6515334455452886
Os@@ 0.9989294880944385
Wengi 1
XII 1
alitangaza 1
engine 1
gavana 1
hudumia 1
iliyozungumzwa 1
japani 1
kipekee 1
kutambu@@ 1
kutofau@@ 1
mauzo 1
mkusanyiko 1
Alifanya 1
angia 1
bain@@ 1
hiri 1
inapo@@ 1
ite 0.2501972001444742
keza 1
lang@@ 1
lolote 1
mema 1
mfanyabiashara 1
waliweza 1
wili 1
1949 0.6463134215811048
Bad@@ 1
Diok@@ 1
MA 1
Makueni 1
Pemba 1
Rut@@ 1
UB 1
Wen@@ 1
abar@@ 1
alisha 1
isia 1
lam@@ 0.7926828075474491
mwenzake 1
ner 0.27784214346396297
pendekeza 1
ufi 1
waliz@@ 1
yasiyo 1
Ghuba 1
Kitur@@ 1
Mary 0.7070818305410248
alika 1
ifa 1
kimsingi 1
kuendesha 1
kuten@@ 1
lingine 1
miundo 1
mkia 1
situ 1
wafany@@ 1
64 0.7412379049125433
Amechaguliwa 1
Fas@@ 1
Gi@@ 0.8000834102622891
Mel@@ 0.7798182398148851
aidi 1
aliitwa 1
ambulia 1
kiasili 1
kuit@@ 1
okaa 1
owevu 1
pa@@ 1
Cal@@ 0.5061577516731086
Mich@@ 1
Nas@@ 1
akar@@ 1
amech@@ 1
angulizi 1
huka 1
imiza 1
kupambana 1
kuua 1
mikutano 1
mkopo 1
pofu 1
sisi 1
umbehai 1
unguzwa 1
upi 1
56 1
65 0.6279743766086872
Ay@@ 1
Waswahili 1
ikio 1
kijani 1
kitengo 1
rapa 1
ria 1
walitumia 1
Bah@@ 1
Kun@@ 1
Meru 1
Nyeusi 1
UN@@ 1
Yosefu 1
chan@@ 1
kaboni 1
malipo 1
mapadri 1
C. 0.6276937642166807
F.C. 1
Hassan 1
Maana 1
Mahali 1
Mexico 0.9079240113828594
P. 1
Pal@@ 0.7088075618448667
Video 1
iliza 1
kutunga 1
mitaa 1
tishu 1
unukiwa 1
vigumu 1
23@@ 1
Klabu 1
Lam@@ 1
Mkataba 1
ikazi 1
ikolojia 1
jaribio 1
kipya 1
miungu 1
vinaweza 1
88 1
Award 0.49032022741937065
Benedikto 1
Moshi 1
Wataalamu 1
fani 1
imwa 1
inde 1
je@@ 0.9547004888527338
malkia 1
michache 1
Mifano 1
Ofisi 1
arajiwa 1
ary 0.20769571839585024
azam@@ 1
dan@@ 1
haba 1
ick 0.5095751988297005
kukosa 1
pelekwa 1
tin@@ 1
wir@@ 1
yekevu 1
1920 0.5788868576835806
73 1
J. 0.6684614657214194
Jazz 1
Kiulaya 1
Manyara 1
Mwisho 1
Real 1
Tri@@ 0.5218974511091257
achia 1
afanua 1
anda@@ 1
dom@@ 1
elezwa 1
kodi 1
kuchang@@ 1
magumu 1
moshi 1
ofaa 1
qu@@ 0.20467385737534521
ungumzo 1
wahusika 1
weupe 1
1947 0.6334180684581817
53 1
Georgia 1
Idara 1
My 1
Tan@@ 1
idhi 1
jwa 1
kukusanya 1
mini 1
oe 1
oza 1
tropiki 1
Kad@@ 1
Sol@@ 0.5980036973895585
ekel@@ 1
sem@@ 1
shindano 1
tazama 1
tumb@@ 1
Anaheshimiwa 1
Daniel 0.9413952201429282
Dawa 1
Gitega 1
Homa 1
Iran 1
akaf@@ 1
fanikiwa 1
hamsini 1
huishi 1
kumbu@@ 1
kuruka 1
mazuri 1
nyuklia 1
ofia 1
vikubwa 1
yoya 1
St. 0.33899889011828044
kahawa 1
kupi@@ 1
mchango 1
mmea 1
mwanak@@ 1
tof@@ 1
umikia 1
1.@@ 0.7639084709426429
Afghanistan 1
Alicheza 1
Edward 0.8615147668935677
Maelezo 1
Mut@@ 1
ajiriwa 1
bilia 1
kem@@ 1
kupoteza 1
mpakani 1
sanifu 1
tendaji 1
ubunifu 1
vur@@ 1
waliendelea 1
ā@@ 0.7176154941204431
Kampala 1
adiliano 1
alikufa 1
enya 1
hua 1
maduka 1
uel@@ 1
unduliwa 1
wahamiaji 1
1918 0.6291057171990976
95 1
Angeles 0.6983042793710424
Brown 0.9137592923165117
Ju@@ 1
My@@ 1
Pulitzer 1
alimu@@ 1
anyiwa 1
azimishwa 1
dhar@@ 1
ensi 1
funguvisiwa 1
k.@@ 1
sm 1
uvamizi 1
wo@@ 0.9606711703567642
agizo 1
ambulisha 1
haria 1
ikana 1
kiv@@ 1
kupima 1
meneja 1
miliki 1
1955 0.6466849854193677
58 1
98 1
Alisoma 1
Cas@@ 0.6187735695819899
Ikiwa 1
Waw@@ 1
adilifu 1
aten@@ 1
ekelezwa 1
epu@@ 1
her@@ 0.30086843331037477
kipen@@ 1
mavazi 1
nah@@ 1
okrasia 1
vikosi 1
wito 1
100,000 1
Hospitali 1
Kajiado 1
Kiasia 1
Shab@@ 1
abaki 1
hekalu 1
imekaribia 1
kujiua 1
lenyewe 1
uhak@@ 1
ukom@@ 1
va 0.39038977795976704
wanadamu 1
20,000 1
Kili@@ 1
Simba 1
dii 1
egawanywa 1
fundisha 1
halijoto 1
imp@@ 0.7840851139884998
ishiwa 1
jen@@ 1
masaa 1
mn@@ 1
oliki 1
pig@@ 1
viv@@ 1
zimet@@ 1
B. 0.5491663684967986
Bou@@ 1
DNA 1
Karibi 1
Muda 1
Wafiadini 1
Wang@@ 1
Wil@@ 0.6566339892049309
endwa 1
likiwa 1
molekuli 1
nyoka 1
umbuzi 1
ville 0.21335813128052156
— 0.03061935347245716
1952 0.6273743563249223
67 1
Dalili 1
Sheikh 1
aikolojia 1
alichukua 1
alig@@ 1
anayet@@ 1
huv@@ 1
ini@@ 1
mapatano 1
mtaa 1
onek@@ 1
ongwe 1
tamaa 1
uaji 1
Academy 0.6097439705525051
Karibu 1
aidizi 1
die 0.013253103216467887
imi@@ 1
kifedha 1
kutunza 1
lililot@@ 1
nurur@@ 1
wel@@ 1
Elizabeth 1
a. 1
asubuhi 1
iliyoanzishwa 1
mgombea 1
pakana 1
peleka 1
ukuu 1
wil@@ 1
99 1
Albert 0.9995725003010055
Bongo 1
Daudi 1
One 0.3458003880623789
Waisraeli 1
Waroma 1
abisha 1
ajiunga 1
amer@@ 1
den 0.02459891301926551
kusafiri 1
makoloni 1
matangazo 1
mkon@@ 1
nyuzi 1
vyao 1
wamet@@ 1
Char@@ 0.5256063193088909
Kati@@ 1
Smith 0.6306047364782785
Ugonjwa 1
aharia 1
atika 1
doo 1
edi@@ 0.9457473910980942
go@@ 0.8553630139434245
pigwa 1
ubaliano 1
FA 1
Od@@ 1
State 0.23332226508157672
asai 1
ghafla 1
masharti 1
miamba 1
ty 0.26003530617292825
uk 1
Victoria 0.9957924851712244
bur@@ 0.523588877659751
ell 0.2967075490386433
fuatwa 1
halali 1
mifugo 1
mifupa 1
owekwa 1
pana 1
pole 1
shamba 1
ulikani 1
vijijini 1
vipaji 1
yezi 1
County 0.20368547423962716
Pro@@ 0.39597538530701737
anyia 1
cheza 1
choch@@ 1
ilio 1
ter 0.10987250608523344
walifanya 1
Halafu 1
Jumba 1
Ms@@ 1
adhaiko 1
amt@@ 1
han@@ 1
inayom@@ 1
kong@@ 1
misuli 1
mitandao 1
mwenyeji 1
sah@@ 1
yuko 1
Barcelona 1
De 0.25356861473849396
Don@@ 1
IC@@ 1
Mbinu 1
Muundo 1
Nyeri 1
Rom@@ 0.8498732509529334
Ten@@ 1
Tume 1
atokea 1
den@@ 0.4399274571982948
hambulia 1
inayoh@@ 1
ine@@ 1
kifodini 1
lilianzishwa 1
oku@@ 1
osim@@ 1
ov 0.5276403760375385
sekunde 1
uda 1
uliofuata 1
13,@@ 1
75 0.7870804916181446
Jubba 1
Lee 0.7927110681281379
Math@@ 1
Wafaransa 1
arobaini 1
az 0.9226640517187613
bele 1
bure 1
jumu@@ 1
manispaa 1
mashabiki 1
Alishinda 1
It 0.05483467043267233
Kiitalia 1
Zealand 0.7930862953646616
aalamu 1
ainishwa 1
alijit@@ 1
aliv@@ 1
atir@@ 1
elli 1
kutangaza 1
lad@@ 1
mkojo 1
ukuta 1
57 1
Jambo 1
Kenyatta 1
Mun@@ 1
Sekondari 1
Yakobo 1
amilia 1
amiza 1
andamizi 1
ent 0.07954102669532821
hariri 1
iliya 1
kimwili 1
kuungana 1
mjumbe 1
ungano 1
usafi 1
1900 0.8229158572110908
900 1
AN@@ 1
Geita 1
Norwei 1
Samb@@ 1
Sk@@ 1
dea 1
inus 1
kuchaguliwa 1
kuhakikisha 1
kuwapa 1
mwanariadha 1
njaa 1
pu 1
sigara 1
uteuzi 1
uzaji 1
uzoefu 1
150 0.9898478793355725
Ros@@ 0.5718390311337411
Rus@@ 1
Sasa 1
Watakatifu 1
ap 0.7560695316475305
bahati 1
kikapu 1
kosa 1
maili 1
misaada 1
wanaf@@ 1
zuia 1
72 1
Nab@@ 1
cho 0.2433799602966603
fuat@@ 1
kuzalisha 1
msichana 1
ofau@@ 1
tabaka 1
udishwa 1
62 1
85 1
ambaz@@ 1
azimio 1
field 0.247720537483665
fursa 1
kuamua 1
kuzi@@ 1
mkondo 1
mo 1
mzee 1
tambarare 1
wapinzani 1
1946 0.5266054447765701
Hot 1
Sher@@ 1
Sin@@ 1
igh@@ 0.9251521191217218
ongezwa 1
wo 0.41919469678834614
Niger 1
Times 0.7937363148471743
aliongoza 1
anapo@@ 1
iyo 1
majeraha 1
mumewe 1
nz@@ 1
ofika 1
olanzi 1
ubwa 1
watano 1
16@@ 1
1953 0.6153616011638481
Bul@@ 1
Jo@@ 0.9782404208441515
Kireno 1
Texas 0.5794491154859127
athira 1
farasi 1
hir@@ 1
kamwe 1
kuchunguza 1
CD 0.7204214854977217
Mwanzo 1
Uta@@ 1
aliji@@ 1
amano 1
bwana 1
egawanyika 1
faulu 1
kirefu 1
lebo 1
no@@ 0.3212016236156325
onde 1
petrol@@ 1
thibitishwa 1
utalii 1
utheri 1
wachanga 1
zinapatikana 1
97 1
Kag@@ 1
Kiambu 1
Kikatoliki 1
Kimungu 1
Pangani 1
haikuwa 1
hiari 1
ichi 1
umbukwa 1
ungu@@ 1
unjika 1
za@@ 1
59 1
Njombe 1
Wamar@@ 1
Wana@@ 1
alihitimu 1
atilia 1
bol@@ 1
digrii 1
gia 0.5432811008124758
hukum@@ 1
ilig@@ 1
kukutana 1
marefu 1
ord@@ 0.5260444357666806
zilizokuwa 1
Foundation 1
Kipap@@ 1
Mabadiliko 1
No@@ 0.7795906906742306
Val@@ 0.49744088926653146
abiria 1
akwa 1
anus 1
fizikia 1
mlango 1
nim@@ 1
njano 1
ramani 1
ufafanuzi 1
uji@@ 1
usanya 1
45@@ 1
61 1
69 1
Khan 1
akaendelea 1
alishwa 1
andao 1
awan@@ 1
dr@@ 0.2818306181910572
futwa 1
hait@@ 1
hio 1
kuzunguka 1
mm@@ 1
Hil@@ 1
Pe@@ 0.541408200519706
Sy@@ 0.9247591379481551
Wote 1
anana 1
anzilishi 1
ast@@ 0.6630930311551341
ens 0.14140398874531362
ingizwa 1
kijivu 1
ongozaji 1
tawala 1
ushauri 1
wanapo@@ 1
79 1
Hor@@ 0.6679657504423927
Muy@@ 1
S.@@ 1
Sum@@ 1
aliona 1
athirika 1
bendera 1
hukumu 1
ikil@@ 1
jaribu 1
life 0.17452554181713076
lisha 1
mgu@@ 1
tarakilishi 1
ubi 1
Karthago 1
Wanyama 1
Ya 1
achangia 1
apaswa 1
apishaji 1
awanyika 1
ilimali 1
ishowe 1
kitaaluma 1
kununua 1
maandamano 1
sisko 1
tro@@ 0.650750801129302
umu@@ 1
utajiri 1
viny@@ 1
Biz@@ 1
Juma 1
Kanuni 1
Matibabu 1
Serbia 1
Tur@@ 0.5717879666441998
Van 0.9832669323393964
ain 0.4130169245712034
alizika 1
alu 1
anini 1
atomu 1
boa 1
eleweka 1
ilir@@ 1
ishana 1
itia 1
mshauri 1
msim@@ 1
mwangaza 1
mweusi 1
sab@@ 1
unah@@ 1
wanash@@ 1
63 1
Do@@ 0.6158720721235188
Elfu 1
Nad@@ 1
Y 0.7149467047562176
Yoh 1
edonia 1
elelezi 1
ianchi 1
ilib@@ 1
ipot@@ 1
kuy@@ 1
mlipuko 1
nak@@ 1
opewa 1
wandani 1
wapo 1
Aj@@ 1
Cr@@ 0.44371112957177283
ach 0.3671775276391752
anyiko 1
duki 1
huonekana 1
ikw@@ 1
k.m. 1
kupumua 1
ler@@ 0.40608346243468363
okus@@ 1
Bururi 1
Kah@@ 1
Kemia 1
Kifo 1
Kilele 1
Kiorthodoksi 1
Ud@@ 1
aani 1
ans@@ 0.6020799084846801
ilishinda 1
imek@@ 1
injili 1
kilit@@ 1
kingine 1
kujik@@ 1
ogopa 1
saini 1
sukari 1
ungumzia 1
uvuvi 1
washiriki 1
Kilimo 1
Lengo 1
Plat@@ 1
afaa 1
akafuatwa 1
akas@@ 1
amana 1
asemekana 1
bura 1
kuimarisha 1
linam@@ 1
makamu 1
mikononi 1
mwanafizikia 1
pal@@ 0.6647012277047525
tambu@@ 1
vitendo 1
wakiwemo 1
zawadi 1
zima 1
1939 0.46217423405498853
71 1
Ah@@ 1
Chelsea 1
Fizikia 1
Gh@@ 1
Takriban 1
Vir@@ 1
ate@@ 1
avyot@@ 1
ebe 1
ipata 1
irani 1
kahawia 1
kutaka 1
pp@@ 0.6384244324261867
usambazaji 1
vyema 1
yafuatayo 1
J 0.6872748475312445
Pan@@ 0.6552363476394435
Rangi 1
Wana 1
ajira 1
akani 1
alitaka 1
amali 1
anishwa 1
chaguliwa 1
ice 0.3249912626679113
ilivy@@ 1
imef@@ 1
isiyo@@ 1
kezo 1
kutenda 1
miza 1
sia 1
Picha 1
Ug@@ 1
afu@@ 1
alikubali 1
anta 1
emp@@ 0.7464387969433175
gun@@ 1
hotuba 1
imbe 1
ishughulisha 1
izaji 1
kima@@ 1
mbao 1
shuleni 1
uhamisho 1
uziki 1
vol@@ 0.47043494104316635
14,@@ 1
Che@@ 1
Jer@@ 1
Kikan@@ 1
Mwenyekiti 1
Tatu 1
afsiriwa 1
bibi 1
huch@@ 1
ipoti 1
temi 1
usio 1
ustawi 1
250 1
74 1
91 1
Hot@@ 1
Katiba 1
Libya 1
Mexiko 1
Nor@@ 0.5543414679404787
Sil@@ 0.8826577009863785
akadiriwa 1
alikwenda 1
ambukiza 1
amiaji 1
kiafya 1
kuza 1
makundinyota 1
manu@@ 1
mhariri 1
mist@@ 1
ojiano 1
1888 1
E. 0.8757342445071548
Kilwa 1
O.@@ 1
Uchunguzi 1
Vitabu 1
Wahispania 1
anaishi 1
huruma 1
kuangalia 1
kujif@@ 1
wek@@ 1
83 1
Andrea 1
IX 1
Said 1
UNESCO 1
Union 0.3153359827374168
Ver@@ 0.13130187125126166
all 0.0768469567500887
amisha 1
bay@@ 1
kanaji 1
utaji 1
Cha 1
Licha 1
Mbu@@ 1
Nepal 1
_ 0.12559286763313943
alir@@ 1
atili 1
hada 1
inaz@@ 1
ise 0.20650819566593556
izo@@ 1
sabini 1
shabaha 1
uthi 1
vig@@ 1
vilivyo 1
1886 1
93 1
All 0.28826095196321083
Ngozi 1
aliana 1
alimu 1
burudani 1
vina@@ 1
wiz@@ 1
Moja 1
awas@@ 1
ca 0.3634537060629838
geni 1
hoja 1
itindo 1
kupo@@ 1
nik@@ 1
oloni 1
ongwa 1
opata 1
orodh@@ 1
tra 0.5889115311113314
upan@@ 1
Dini 1
Florida 0.7102895292291955
The@@ 0.8356535030647877
akos 1
apili 1
aume 1
bal@@ 0.4971550123691412
majini 1
opo@@ 1
66 1
Bi 1
Liberia 1
Ly@@ 0.8898316438968517
Togo 1
ade 0.3498771240017316
aje 0.9448153855596724
anzania 1
araj@@ 1
atom@@ 1
hari 1
igan@@ 1
kupot@@ 1
Jam@@ 1
Zamani 1
duk@@ 1
mand@@ 1
89 1
Soka 1
eva 1
iyu 1
manne 1
pun@@ 1
uzo 1
15,@@ 1
96 1
Dj@@ 1
Vil@@ 1
Yos@@ 1
hini 1
jo@@ 1
liki@@ 1
mtendaji 1
oc@@ 0.20528825193428837
osema 1
oshi 1
ukta 1
usiano 1
vina 1
Bung@@ 1
For@@ 0.3100651731283175
XX@@ 1
abe 1
hush@@ 1
2.@@ 0.6622889551039832
Don 0.790452148357268
FM 1
Hut@@ 1
Ji@@ 1
aburi 1
amo@@ 1
aru 1
jerumani 1
92 1
Han@@ 0.857861478853375
M. 0.6498381705347628
Moi 1
Sala 1
W 0.4825544971270423
Zam@@ 1
afsi 1
aska 1
ekana 1
eri@@ 1
hui 0.884715933616364
ity 0.14124033903891492
sen@@ 0.45571362841421653
Pen@@ 0.8710091134144671
Society 0.46475001815821504
anyi 1
inzani 1
mm 0.49035196226581856
mwanah@@ 1
Abu 1
Armenia 1
Band@@ 1
Ish@@ 1
Martyr@@ 1
Tom@@ 0.9336992980894918
ario 0.4916038729801859
ele@@ 1
imes@@ 1
liv@@ 1
them@@ 1
ukawa 1
vo 0.9223001850787415
waka 1
American 0.10633845352309142
Mos@@ 0.9681567312961401
bab@@ 1
elektr@@ 1
inal@@ 1
1951 0.5681046505002112
30@@ 1
Chicago 0.5290935811230529
Domin@@ 1
Gen@@ 0.5070205426417768
Meksiko 1
Say@@ 1
ange 1
co 0.21048267086260944
kamp@@ 1
94 1
Alexander 0.6515802890000787
Kuz@@ 1
ber 0.38273555488164107
elo 1
handisi 1
mer@@ 0.23773238272774083
mip@@ 1
mweng@@ 1
ova 1
uvi 1
09 1
Kro@@ 1
akash@@ 1
alam@@ 1
bon@@ 1
co@@ 0.1304159104342839
ish 0.4001192800180743
ken@@ 0.6983970775895475
pua 1
sen 0.3519544158846193
League 0.16893435285073846
Sam 1
bizi 1
but@@ 1
eket@@ 1
ella 0.345066625231528
elle 0.08643906158493866
ografia 1
ologium 1
tisini 1
ulana 1
yewe 1
zaliwa 1
51 0.8458576994336411
ANU 1
Aw@@ 1
Group 0.4105817920319829
Imam 1
Romanum 1
antu 1
hesh@@ 1
ido 0.30718448333603604
ilika 1
iya 1
jam@@ 1
ofa 1
onge@@ 1
orod@@ 1
Ana@@ 1
Bl@@ 0.4508783013501934
Ge@@ 0.30773298955101186
Jones 0.7492906566162426
Son@@ 1
Tena 1
1941 0.39220081271976254
Lyon 1
Sok@@ 1
akato 1
aur@@ 0.9796222269698003
pon@@ 0.96086719343879
Democratic 0.8784838380197921
Ken@@ 1
Vol@@ 0.6354599699257599
Z 0.7690572485623877
arakati 1
asiasa 1
ayarishaji 1
ci@@ 0.2711904147735659
ikuwa 1
khali@@ 1
1500 1
1914 0.585075139038643
Bom@@ 1
Cl@@ 0.6056388178942163
Gabon 1
Shak@@ 1
adhimisha 1
afunzi 1
aribia 1
azamo 1
burg 0.5283204539300413
eze 1
gar@@ 0.49694325492517155
kib@@ 1
kutengen@@ 1
ling@@ 1
ul 1
van 0.5462320232022166
1936 0.5024015810360939
84 1
Ac@@ 0.3674306894709664
College 0.21893141804931338
Grammy 1
Madag@@ 1
bel@@ 0.3960411394539573
ghuli 1
ius 1
ukur@@ 1
uru@@ 1
wau@@ 1
yol@@ 1
1917 0.5922600689584259
Bis@@ 1
Brit@@ 1
Kim 1
Le 0.04931112463535525
Mot@@ 0.7465943943698096
achama 1
ataba 1
ist 0.028291330792914085
ongez@@ 1
1944 0.3561978066906095
Fili@@ 1
High 0.326681277080797
Som@@ 1
dur@@ 0.8025213276852721
1933 0.5048734573794501
Cel@@ 1
Kamb@@ 1
Lim@@ 1
Pok@@ 1
Star 0.632351991823399
anja 1
bor@@ 0.5197440558805575
for@@ 0.187308927879677
imar@@ 1
met@@ 0.5530345508586443
obo 1
Grand 0.3420261189766028
Leb@@ 1
Ter@@ 0.658308413056604
Williams 0.7629050226891012
atomi 1
idi@@ 1
jin@@ 1
86 0.9928888361805238
Tim@@ 1
ibn 1
imin@@ 1
open@@ 1
ult@@ 1
utano 1
Island 0.42118573416964106
ais 0.6142280665892847
baya 1
emo 1
evi 1
ori@@ 0.5313698987247135
pino 1
76 0.9903650302492604
AS@@ 0.7066413756315008
Dem@@ 0.7945542720373034
Radio 0.5584747520239313
aham@@ 1
samb@@ 1
thai 1
.com 1
A. 0.41205140166545495
Abr@@ 1
Hay@@ 1
Pat@@ 0.7768216868527708
agi 1
angazaji 1
beg@@ 0.7740020825886168
pop@@ 1
unguzi 1
Aki@@ 1
Braz@@ 1
Vienna 1
elim@@ 1
3000 1
Chan@@ 1
House 0.2582307436061498
Jack 0.749692640713767
Moscow 1
SA@@ 1
Wiki 1
asisi 1
asiy@@ 1
mala@@ 1
zana 1
AD@@ 1
Association 0.3197307857079873
Bay@@ 0.9614148948370638
Hip 1
Rob@@ 1
Yo@@ 1
eria 1
ess@@ 0.3290004442647963
iliv@@ 1
jah@@ 1
mati@@ 1
nin@@ 1
unu 1
£ 0.837594379784394
Anaf@@ 1
Chile 0.8348468600903234
Go 1
Lug@@ 1
andar@@ 1
biot@@ 1
ishoni 1
pand@@ 1
77 0.9957621501410964
Carey 1
Ng 1
Pad@@ 1
Reg@@ 0.3877672802293658
Safari 1
Wain@@ 1
bes@@ 0.5982418016632773
gam@@ 1
len@@ 0.5896983049288612
rati@@ 0.9207154264319009
ts@@ 0.2981740348716606
ure 0.27578275097604604
78 0.9990099724641486
Jar@@ 1
Kamp@@ 1
Kl@@ 0.8150907103663569
Progr@@ 1
abo 1
ambuk@@ 1
inar@@ 1
op 0.8532067578147642
ougou 1
our 0.3202244461896172
ulo 1
Hill 0.5601719051113345
Ib@@ 1
Michigan 0.8296344388678915
Ph@@ 0.4661149471933524
amin@@ 1
ant 0.06974197328544962
dir@@ 1
département 0.6740354539091805
hap@@ 1
11@@ 1
Av@@ 0.6978395638332645
Dan@@ 1
Math 1
Mh@@ 1
Nar@@ 1
Ndi@@ 1
Uri@@ 1
per 0.19686029805626704
prot@@ 0.5314235009684046
16,@@ 1
Burkina 1
Hi@@ 1
Johnson 0.7323452088455651
Juli@@ 1
Ra@@ 1
aid@@ 1
andiko 1
eme 1
ile@@ 1
ill@@ 0.24613535086660962
jus@@ 1
06 1
6,000 1
AM@@ 1
Ahmed 1
Club 0.25356844798084366
Patri@@ 1
RC 1
Sun@@ 1
aso 1
ineo 1
inzi 1
ith 1
ju 1
lara 1
lat@@ 0.5953938901684698
sult@@ 1
uchi 1
August@@ 1
Milano 1
St 0.43605745541162483
Women 0.48711035150223025
afak@@ 1
baji 1
puko 1
undu@@ 1
wood 0.4022617345168301
Dr@@ 0.4419533292993773
Ste@@ 0.4307776696113821
umbani 1
usta@@ 1
25@@ 1
26@@ 1
CO@@ 0.9570442217876127
Hab@@ 1
Hitler 1
Jay 1
Les@@ 1
arki 1
ige 0.2517735647240052
robo 1
tamth@@ 1
15@@ 1
Cher@@ 1
Da@@ 1
Maur@@ 1
Nz@@ 1
achi 1
sta@@ 1
uni@@ 0.7323624439226327
« 0.01931697707534406
08 1
4,000 1
Marmara 1
amem@@ 1
assa 1
auti@@ 1
islamu 1
oni@@ 0.6425258643291704
ts 0.0811341910886614
unzo 1
» 0.019248854446635502
17@@ 1
Gav@@ 1
Has@@ 1
Mandela 1
Moy@@ 1
On@@ 1
ahis@@ 1
haa 1
inge@@ 1
onjwa 1
8.@@ 1
Google 1
Sierra 1
Ul@@ 0.8129325931148541
Young 0.6979800928857594
ahari 1
alini 1
baini 1
fe 0.49941749012184833
nit@@ 1
1934 0.5126785243456596
27@@ 1
68 0.9172561320163075
Accra 1
Gor@@ 0.7824946183500392
adhi 1
aribio 1
ase 0.3355644406743712
gel@@ 0.3469494134630088
hor@@ 0.5878706347590409
ille 0.47158296796842797
italia 1
juli@@ 1
poli@@ 1
1922 0.5726775407010561
1925 0.5751010151143264
1929 0.5169701154852587
BBC 0.7383327505356088
Ban@@ 0.6164410581313147
Queen 0.6778595679487897
Santa 0.41073498953337695
Wales 0.644622548859481
White 0.4555359297017505
hub@@ 1
ins 0.15349100398865279
iso 1
nam@@ 0.7278769028871099
rika 1
tath@@ 1
ute 0.6860919271162822
1942 0.37098197545371236
Aid@@ 1
DC 0.9292260703458386
Leone 1
Media 0.7820639668716908
Mol@@ 0.7305815803242298
Stars 1
ata@@ 1
erere 1
ham 0.7093282790591067
igu@@ 1
ker 0.27345650300366225
refu 1
umi@@ 1
5000 1
Company 0.3297229226275776
Ex@@ 0.22427054143861022
Sah@@ 1
XI 1
XVI 1
alb@@ 0.738021057846975
lav@@ 1
ver@@ 0.06189518998425119
1885 1
24@@ 0.8707114275559928
Dubai 1
Kou@@ 1
Kuk@@ 1
Pon@@ 1
Q 0.8322405838918633
akan@@ 1
anj@@ 1
bom@@ 1
hughu@@ 1
tian 1
tro 0.9081367257197679
1943 0.36351978460451484
Canada 0.26870815742714393
Dom@@ 0.67612171038476
Francis 0.897284692585116
adhi@@ 1
alme 1
ce 0.08122305536432015
ker@@ 0.7832710441311366
th 0.16136545192537433
ungum@@ 1
82 1
Dor@@ 0.6400804924273038
Had@@ 1
New@@ 1
Sik@@ 1
Ukraine 1
ash 0.7485383715218893
ell@@ 0.25586757536376226
sul@@ 1
tad@@ 1
tis@@ 0.5886475878142474
1926 0.5507970132602104
87 0.9922063489731875
F.@@ 1
Fre@@ 0.35707236345877236
ann@@ 0.38826335771714127
rap 1
Band 0.4760935033229241
Japan 0.35664219651292345
Long@@ 1
Mif@@ 1
Si 0.8178042507659345
onya 1
ule@@ 1
wakil@@ 1
1890 0.8654609127840102
Hum@@ 1
Myanmar 1
Naf@@ 1
News 0.8051893056419938
Oblast 1
Patrick 1
dari 1
eji 1
pum@@ 1
san@@ 0.5971712499409452
vua 1
zia 1
17,@@ 1
Miz@@ 1
Nag@@ 0.9949555823274999
Og@@ 1
adala 1
aman@@ 1
fig@@ 1
the@@ 0.4697982713334214
ve@@ 0.4159876862101974
Eli@@ 1
Lus@@ 1
Por@@ 0.5667860383842908
Prussia 1
all@@ 0.23977282801383562
amino 1
atio 1
hasara 1
laka 1
mish@@ 1
ubali@@ 1
ukumu 1
Profes@@ 1
fund@@ 1
mann 0.28021331285742745
mwanaf@@ 1
yab@@ 1
Fed@@ 1
Port 0.8611626312423201
ekeleza 1
ispania 1
toba 1
uria 1
י@@ 1
120 0.9340259590203163
3.@@ 0.7517298838170751
81 0.9133153156771845
Ben 0.9586419469536515
CH@@ 1
Cer@@ 0.6166337666896715
Klem@@ 1
Rose 1
akab@@ 1
bio 1
diye 1
fil@@ 0.5632432258635165
ropa 1
tari 1
yot@@ 1
1,0@@ 1
116 1
30,000 1
Gambia 1
Kaz@@ 1
Kimb@@ 1
pita 1
zani 1
39@@ 1
65@@ 1
Faso 1
Miss 1
Scott 0.6879002164780442
aila 1
aire 0.19377807865845298
ardin@@ 1
gom@@ 1
ikat@@ 1
imarisha 1
ons 0.11202857876658677
03 1
04 1
But@@ 1
Inter@@ 0.31167038273580694
MTV 1
Marie 0.48934189081960355
Sha@@ 1
Sir 0.5382776447531389
Taylor 0.8546131220813734
Wa 1
area 0.12804964823975842
bos@@ 1
buri 1
ego 1
elekeo 1
endera 1
huria 1
ilini 1
ime 1
tuli@@ 1
unifu 1
18,@@ 1
1910 0.5599261218800742
1937 0.42903467374809795
Bib@@ 1
Chris 0.8513953293900031
Hek@@ 1
Mohammed 1
afr@@ 1
ege 1
usia 1
00@@ 0.9740426164998222
AP@@ 0.9996964269239687
Cap@@ 0.7173677046112948
Christian 0.354100150439278
Dr. 0.5198496271138013
Kul@@ 1
Luka 1
Ob@@ 0.8687065259999458
Pl@@ 0.36174617437859496
Satur@@ 1
Trans@@ 0.5822152681273872
Vati@@ 1
bad@@ 1
gez@@ 1
huy@@ 1
indo 1
utar@@ 1
1938 0.38282680130558744
7.@@ 0.8999896677546999
Hus@@ 1
Kel@@ 1
Kris@@ 1
Lit@@ 1
Simon 0.8460484918841416
Verde 1
ail@@ 0.5481872563332768
bl@@ 0.18686805271137352
elektron@@ 1
hes@@ 1
inayoz@@ 1
nying@@ 1
ubia 1
102 1
1905 0.6197590885784223
Anthony 1
Met@@ 0.9050003650305922
Rek@@ 1
armen@@ 1
binu 1
mata 1
mli@@ 1
yesi 1
Ap@@ 0.5231864675574591
YouTube 1
alishaji 1
hem@@ 1
otea 1
ren@@ 0.2633046694842282
sanii 1
ui@@ 1
und 0.006940344135914636
Big 0.5412315937325143
Life 0.4505571491039714
Mark 0.4936595744164551
Rhodesia 1
Theod@@ 1
VIII 1
adr@@ 1
ambukizi 1
arifa 1
est 0.013255487001456009
hidro@@ 1
sentim@@ 1
usu@@ 1
wan 1
07 1
67@@ 1
Best 0.4122547460005908
Kari@@ 1
Kong 0.7603034247686997
LA 1
Zi@@ 1
anzo 1
ith@@ 1
Jose@@ 1
Kie@@ 1
Royal 0.26136840213157536
abor@@ 1
ambana 1
anisa 1
ello 0.4761927153314656
fal@@ 0.695276762120995
ff@@ 0.2914996151859695
ks 0.14464112559527018
paa 1
pro@@ 0.26791767421032714
sav@@ 0.7359650323566432
tom@@ 0.43200848980009504
vent@@ 1
1919 0.4218997105171046
36@@ 1
Category 1
Fu@@ 1
Rab@@ 1
akif@@ 1
alimt@@ 1
ensis 0.5584938970294648
euzi 1
ry 0.3312918624894814
1923 0.5193698340648721
7,000 1
British 0.1489815598686188
Bub@@ 1
In 0.014382551342259516
Northern 0.569691731561016
People 0.6538556959632152
bah@@ 1
domo 1
han 0.3144625742676737
rek@@ 1
ukw@@ 1
uro 1
1931 0.49364726695937905
2022 0.39969710103332956
Abdallah 1
Bro@@ 0.5345405342633051
Cam@@ 0.5460527343328646
Cham@@ 1
Columbia 0.6438652238002943
Congress 0.6469658130676297
Den@@ 0.8507976323133176
God@@ 1
Kais@@ 1
Kinshasa 1
Nis@@ 1
Ven@@ 0.8498593012025866
eth@@ 0.45843997717443
ger 0.34723652427026974
oria 1
tha 1
wemo 1
wing@@ 1
Des@@ 0.42481592217878217
Fil@@ 0.7532110858268628
Illinois 0.6770446935433038
Mf@@ 1
Yugoslavia 1
dhah@@ 1
emu 1
igi 1
mes@@ 0.886709412422317
shi@@ 0.897087447937466
sk 0.9422133823684323
1912 0.5042807319101404
200@@ 1
9.@@ 1
Israel 0.5760486721204079
Lut@@ 1
Sav@@ 0.7409652057454702
aio 1
eh 1
itu@@ 1
ruh@@ 1
1927 0.4921364623937947
Entertainment 0.8320449990492665
I. 0.45897821561350205
Ing@@ 0.8972822541419243
Lab@@ 1
Mimi 1
Rad@@ 0.6039908389943297
Raj@@ 0.8596148701979917
Rub@@ 1
UK 0.36219776453759184
Wit@@ 1
apos@@ 1
dy 0.6426195366307995
emek@@ 1
falme 1
radi@@ 0.7192738370710751
thibi@@ 1
tri@@ 0.2170326843960727
000,000 1
50,000 1
Bol@@ 0.655104265943376
Mito 1
avi@@ 1
lan@@ 0.4689863304154435
otho 1
tek@@ 1
tis 0.5801688593410543
with 0.009668890648642722
180 1
Kuba 1
Luther 1
Telev@@ 1
Tw@@ 0.9480366300581989
Vis@@ 0.8291904064969643
adam@@ 1
alay 1
api 1
apor@@ 1
des@@ 0.13177451334599924
esh 1
fon@@ 0.8024037570003282
hun@@ 1
lem@@ 0.9293007691813399
mus@@ 0.4562511383730429
nom@@ 0.738282153726169
ungumzwa 1
304 1
Carl 0.6703913412903199
Hong 0.7401205496348802
Je@@ 0.5895316565970656
bil@@ 0.4901382423787264
esis 1
ome@@ 1
AR@@ 0.6166728005218359
Antak@@ 1
Bos@@ 0.8737051155895099
Cu@@ 0.5925179292465801
Istanbul 1
Pierre 0.39065990957767044
She@@ 0.9491059374777202
eli@@ 0.6248572748830649
fet@@ 1
iana 1
kap@@ 1
kau@@ 1
yl@@ 0.3049865867658172
{ 0.8428469610483472
Arthur 0.6237842995910696
Euro 0.9511308601302085
Kabar@@ 1
Luk@@ 1
chap@@ 1
hospit@@ 1
sabit 1
ster@@ 0.45848702720159523
zw@@ 1
Gaz@@ 1
Hel@@ 0.42970030715061225
Hon@@ 0.7626676224316237
Hur@@ 1
Isa@@ 1
Nelson 1
alin@@ 1
ern@@ 0.349232415554976
huri 1
umizi 1
une 0.01962113185836783
wende 1
AK@@ 1
IM@@ 1
Moh@@ 1
Ou@@ 1
Rock 0.5268658185068081
Run@@ 1
UM 1
VII 1
edia 1
hauri 1
lava 1
yn 0.8502516035685526
Air 0.2854594165148295
Hop 1
Kong@@ 1
Sydney 0.6783398714753022
US@@ 0.5102054793652195
ambar@@ 1
car@@ 0.13482419504745213
endeleo 1
gal@@ 0.6637941936763243
su 0.0304898761823702
tang@@ 1
upe@@ 1
Francisco 0.36444132431504483
Hip@@ 1
IS@@ 0.75595388492905
May 0.11487764328543895
aua 1
ence 0.15671608574134235
ette 0.2032913223811808
hel@@ 1
mun@@ 0.8151659513114371
oleta 1
sea 0.3847882099773264
1928 0.4205668209498421
303 1
Jamaika 1
Kilom@@ 1
Liverpool 1
Mog@@ 1
Om@@ 1
Pre@@ 0.41901266943210386
Rio 0.9178662949857885
Southern 0.5582286566762511
day@@ 1
ie@@ 0.39279525358851075
induzi 1
lig@@ 0.39441465901208245
oth@@ 0.4214071142983932
wele 1
120@@ 1
1889 0.8499604989105981
Eu@@ 1
Frank 0.5311911491954711
Ivory 1
Joe 0.6538796732911292
S. 0.5139454169600396
Single 1
Thi@@ 1
anchi 1
arr@@ 0.3300908664153988
gan@@ 0.7562483408749995
ilimia 1
kt@@ 1
lango 1
que 0.010032578992982712
Bot@@ 0.7618019492827353
DM 1
Fer@@ 0.62848943389934
Fir@@ 1
Hom@@ 0.6576735466690182
Sc@@ 0.4230887020535982
Western 0.34068457140313363
aal@@ 1
anne 1
dis 1
e.@@ 1
erman@@ 1
jumbe 1
plasti@@ 1
ref 1
rut@@ 1
sent@@ 1
wakim@@ 1
} 0.9551115105541775
Anna 0.6918227313232745
Ari@@ 1
Hol@@ 0.34195408050832016
Ty@@ 0.866212596766984
ax@@ 0.5739562871525852
dor@@ 0.5885612401175907
inger 0.39030236954613684
jip@@ 1
lip@@ 1
o.@@ 1
rom@@ 0.4434268106695793
rowspan 1
vul@@ 1
01 0.8561853988456707
Beth@@ 1
Carlos 0.5073488004811627
Cross 0.8095622394537866
Fat@@ 1
Gre@@ 0.4814740914931432
Iraq 1
Omar 1
Ptolem@@ 1
Tig@@ 1
Zulu 1
anik@@ 1
faransa 1
iva 1
jan@@ 1
‎ 1
119 1
AC 0.6421521906084429
Adam 0.8426938907101248
Hir@@ 0.8709043237875257
Ik@@ 1
Knowles 1
Kuf@@ 1
Mesopotamia 1
Sing@@ 1
Sur@@ 0.46020309128287834
aut@@ 0.5267871727806489
beri 1
bert 0.6078037922451388
jana 1
lilik@@ 1
15,000 1
1903 0.6541279861992326
1916 0.54180507299778
CD@@ 1
Diamond 1
Munich 1
Natal 1
ington 0.4763415693458729
its 0.029105982947412748
mag 1
mfany@@ 1
mir@@ 0.7467325660239285
oud 1
sur@@ 0.18760703319981187
í@@ 0.20088945823361512
A.@@ 0.7701995895299211
AL@@ 1
Ed@@ 0.7173173555257695
Fo@@ 0.6423029667397551
Ford 0.766400647659492
Hen@@ 0.9129406017713396
Karl 0.44363431653740076
Star@@ 0.818931739758621
anii 1
apar@@ 1
bir@@ 0.8732118323362904
mek@@ 1
opa 1
23,@@ 1
Aleks@@ 1
Sou@@ 0.8719890438955812
Teresa 1
Virginia 0.41222692486983215
ech 0.9821706522561854
ige@@ 1
tol@@ 1
1.5 1
28@@ 1
4.@@ 0.8486275453186426
6.@@ 1
Fran@@ 0.7443465566413667
Tony 0.8383236475615021
Viv@@ 1
Wilson 0.6924324746727679
Yer@@ 1
adudu 1
atano 1
bani 1
ben@@ 0.4007522229942102
ejulikana 1
mav@@ 1
sta 1
val@@ 0.3828478133775301
Bangladesh 1
Golden 0.7830930516324409
It@@ 1
Limited 1
NBC 1
Osman@@ 1
Sever@@ 1
Tokyo 0.9198190415285548
ator 0.17065014423453484
ess 0.2163715789635657
iku 1
ilifu 1
ingira 1
kot@@ 1
shar@@ 1
sho@@ 0.6201559961191417
wang@@ 1
α 0.7561777596985656
1935 0.3824576580273956
5.@@ 0.8727916908985259
Dak@@ 1
Harvard 1
Mim@@ 1
SC 0.6134214690476543
Samuel 0.84820867442373
Sand@@ 0.5951822671748253
Shar@@ 0.9076101217641751
Tal@@ 0.5883368449702351
Yemen 1
ace 0.43821808835948683
afrika 1
bot@@ 0.7042847771933121
dens@@ 1
ento 0.637634530026076
kop@@ 1
rock 0.2990234022306185
tik@@ 1
ukio 1
ys 0.3699723937636358
19,@@ 1
1932 0.41069272886611374
Alim@@ 1
Kau@@ 1
Kimar@@ 1
OS 0.7665395217394831
Rip@@ 1
Sem@@ 0.7015737973265662
ance 0.10892498306137759
res@@ 0.14356606882328407
tan 0.42479584033297424
ć 0.9451084690231663
1908 0.5307195063567142
1913 0.48556069169647015
20,@@ 1
Bir@@ 0.5520968804525657
Boy@@ 1
Cairo 1
Fatima 1
Jin@@ 1
Kri@@ 1
R. 0.5774129178218107
Zu@@ 1
ion 0.26117332531639786
jener@@ 1
kto 1
tus@@ 1
uvu 1
wet 1
yem@@ 1
1896 0.7136141642843364
1906 0.5617504463413973
Ach@@ 0.8094570712738166
Delta 1
Ras@@ 1
Studio 1
Super 0.47826185846896896
Vid@@ 1
W. 0.5727888306908084
amata 1
any 0.13387384426287494
ekar@@ 1
hwa 1
irikiano 1
mer 0.22297667601057883
ozaliwa 1
sey 0.5989737639610508
Abu@@ 1
Bulgaria 1
Der@@ 0.6578957637993175
Ek@@ 1
Queensland 0.9748944770454631
Stefano 1
eana 1
hambu@@ 1
kumbu 1
mith@@ 1
otu 1
tou@@ 1
€ 1
AT@@ 0.7112753827447901
Bad 0.7728294534803273
Del@@ 0.41616301801343986
Mes@@ 0.6574856699234763
Walter 0.5724590624527299
adhim@@ 1
anthropo@@ 1
atifu 1
chor@@ 0.8602898172435605
eha 1
int@@ 0.3381498717298978
papa 1
stone 0.3928276105482518
2.5 1
29@@ 1
Dal@@ 0.9020195790612782
anal@@ 1
bud@@ 1
eso 1
lor@@ 1
oli@@ 1
oph@@ 0.3869885724802961
plat@@ 0.8164278332398656
sat@@ 1
seti 1
sur 0.033744799969486795
urah@@ 1
05 0.7964213530889456
1870 0.7076908739232528
Andrew 0.7005501260838016
Baad@@ 1
Bill 0.5406632235961116
Gat@@ 1
No 0.3253052823653281
Pel@@ 0.9354380874799451
SA 0.655943725570695
anc@@ 0.34331068945298976
ds 0.2909485868463242
estr@@ 0.4060057081179128
gu 1
illa 0.33220008628238806
lar@@ 0.38882178512531
obi 1
tus 1
way 0.10798428687550829
Chang@@ 1
Cur@@ 0.46242132030439875
D. 0.4607347708828115
Eng@@ 0.7904952648193322
Green 0.46108457078573584
Hall 0.26895119060381434
Rhine 1
Vo@@ 0.5898725486051162
aceae 0.5108923378776461
anar@@ 1
ark@@ 0.509405929580664
chai 1
liz@@ 0.9215485228633337
ofi 1
350 1
Bes@@ 0.7037351369449464
Boston 0.48587735699743545
Carolina 0.4801076796420088
Kwa@@ 1
Sig@@ 0.7157888889679611
WWE 1
jazz 0.9375037888934272
manga 1
od 0.423886314829745
1860 0.7953038428641537
200,000 1
AS 0.7270226456004866
Aegean 1
Bat@@ 0.5034033367299395
Benjamin 1
Center 0.2731388183858021
Geneva 1
IA 1
Nu@@ 0.9225198920523502
TA 0.9529259611842058
Tro@@ 0.5276953893392814
dha 1
etti 0.6397927832605359
hir 1
ins@@ 0.2624856419192779
iru 1
mili@@ 1
pati@@ 1
,@@ 1
1902 0.5994024301682185
Alfa 1
Ibrahim 1
Marko 1
Mati@@ 1
Shin@@ 1
Sud@@ 1
Time 0.579765818977936
ahada 1
aleta 1
als 0.01814712673703575
apu 1
kung 0.9905526181002643
tika 1
zuri 1
Antonio 0.4544692960286504
Ev@@ 1
Kiaus@@ 1
Lor@@ 0.6272073342433407
Pot@@ 0.7627447632194442
Red 0.32234031403487584
Siberia 1
Vincent 1
insi 1
ize 0.821207231352652
mez@@ 1
wahili 1
wor@@ 0.32481820340344436
02 0.8497723537712252
1907 0.5233188533767571
59@@ 1
AC@@ 0.6686118715369437
AI@@ 0.9845853923827602
Gro@@ 0.5718704338055982
Oxford 0.6705008760513986
Qur@@ 1
RE@@ 0.818728293178739
Show 0.5659022208502826
ambazaji 1
ante 0.11583897161816083
ates 0.1043505673856009
awesi 1
inad@@ 1
ney 0.4466211847325525
oya 1
tezi 1
use 0.08681205384009623
1924 0.38434417726748715
Amin 1
Astronom@@ 1
Christopher 1
Day@@ 1
Dun@@ 0.7379041613764428
EP 0.5787331825468006
Fi@@ 0.6047088106442297
IN@@ 0.7152446810584602
Id@@ 1
Neg@@ 1
Pin@@ 0.6704987214582503
Prince 0.4933856280234744
Yas@@ 1
hy@@ 0.4863060711880423
ich 0.2761005831422754
oua 1
AB@@ 1
Day 0.4063967982225437
Fa@@ 1
Laos 1
Liga 0.38034586435641143
Nah@@ 1
Napoli 1
Old 0.4702425119972001
Otto 0.7345382525654988
Peru 1
Sep@@ 1
Steve 0.6783673631710643
Tom 0.5131875820838314
adri 1
gi 1
ps 0.21362670589030483
1800 1
18@@ 1
Disney 0.7796058096655372
Haw@@ 0.992798374791121
Lok@@ 1
Mass@@ 0.8929590818985211
Pent@@ 1
Pom@@ 1
Umb@@ 1
Up 0.944861486061842
bar 0.2580202418584638
bra 1
delta 1
dik@@ 1
dikt@@ 1
izi@@ 1
yid 1
1625 1
Bayer 1
Buh@@ 1
Ful@@ 1
Hamburg 0.668378722031183
M.@@ 1
Prot@@ 0.5137541310432235
Tem@@ 1
Tos@@ 1
Tup@@ 1
afanuzi 1
akus@@ 1
angilio 1
awaida 1
ies 0.15438098556785
inev@@ 1
lak@@ 1
tur@@ 0.19350238781330095
unya 1
was 0.004269136310284201
well 0.06627755665100726
ו@@ 1
109 1
40,000 1
Bob 0.6531961637521791
Cib@@ 1
K. 0.847902120247982
Sad@@ 1
Wik@@ 1
ep 0.5587267987786346
isiwa 1
kok@@ 1
low 0.20123166506490459
odia 1
rud@@ 1
www.@@ 1
yc@@ 0.5601436883782424
yer@@ 1
市 0.37168753871529375
1836 1
Frederick 0.9643448823900309
Kand@@ 1
Kuch@@ 1
Mau 1
Patr@@ 0.6329269664671942
atu@@ 1
ett 0.3424304756799676
hit@@ 1
ism 0.19180398526455164
oki 1
ony 0.6406724921229353
yn@@ 0.3907843138932432
140 1
1911 0.45567898361872344
25,@@ 1
Abdul@@ 1
Kind@@ 1
Lag@@ 1
Pennsylvania 0.5146379207255275
Pretoria 1
Sor@@ 0.6258197691423086
Vin@@ 1
adia 1
atani 1
aunti 1
aw 1
eda 1
glut@@ 1
kaya 1
oste 1
pap@@ 0.7671171507322696
str@@ 0.13533054306546416
tic 0.24271466804485017
101 1
1880 0.6719014811392834
1921 0.38364949568244
America 0.21719610864648942
Gog@@ 1
José 0.29716938742156407
Khar@@ 1
MC 1
Saf@@ 1
Sho@@ 0.6325054407490328
Tand@@ 1
Tours 1
US 0.10324132432482427
pro 0.5069495343967915
ugo 1
ving@@ 1
Bid@@ 1
C.@@ 1
Jordan 1
Kub@@ 1
Mang@@ 1
Tel@@ 0.48724738549648955
ahara 1
ambuli@@ 1
baa 1
bira 1
hed@@ 1
http 1
mali@@ 1
mark 0.5367912900551028
oec@@ 1
oja 1
oper@@ 0.4170462836647462
own 0.13413419743637542
ˈ@@ 1
​ 1
110 0.9685072060361657
Aur@@ 1
CA@@ 0.5094660751282135
DP 1
Fe@@ 0.3545963640807326
Hai@@ 1
Mr. 0.7614815108079733
Orchestra 1
age@@ 1
da@@ 0.9609660167597487
hu 1
jaw@@ 1
oso 0.43607387370296063
piano 0.7186347236357111
singi 1
sy@@ 0.6421114795412941
tari@@ 1
thi@@ 0.7517251925741513
unde 0.8581254741141207
uwe@@ 1
37@@ 1
Antoni 1
Boy 1
Dav@@ 0.809771463637794
Gol@@ 0.5910192713803956
Jab@@ 1
Khalifa 1
Mav@@ 1
Mike 0.5877737150680642
Nach@@ 0.4257482175999868
Norway 0.9842952373241385
Ontario 0.6126222671155218
Scotland 0.5449233087307741
São 1
abr@@ 0.8061232349494036
ampa 1
ehebu 1
fus@@ 0.8116787909762354
hil@@ 1
ico 0.26409288702865386
ings 0.09543142276968011
issa 1
kimya 1
nor@@ 0.367807923706182
ufe 1
war 0.023395689332839864
ys@@ 0.32371499358149664
1,4@@ 1
12,000 1
1884 0.7719824163817672
1887 0.7585972702534957
1904 0.5065099093603622
Afro 1
Lincoln 0.8131265315111156
Ma 1
Nus@@ 1
Pac 1
Press 0.7062516476252851
RA 0.9660520202908494
Sun 0.6154507931247292
abi@@ 1
his@@ 1
jal@@ 1
kulu 1
moy@@ 1
sou@@ 0.30833138050703646
Beach 0.6626982860685293
DA 1
Dami@@ 1
Institute 0.2570772054231285
Nim@@ 1
Oy@@ 1
PA 0.6969801871679202
Peters 1
Saba 1
Tut@@ 1
Zab@@ 1
aff@@ 0.34287029125501894
buni 1
enz@@ 0.30848350552372794
from 0.010031903775802176
idia 1
inka 1
km2 1
ology 0.16311900977526095
1899 0.5969818137850913
Blue 0.48854553888927493
Durban 1
G. 0.6190446830692286
Win@@ 0.5470717021876715
ikan@@ 1
lind@@ 1
otor@@ 1
ping@@ 1
tago 1
zen@@ 0.8316436435718652
Abit@@ 1
Gir@@ 0.7658488904902488
Great 0.3005917690004236
Laur@@ 0.7850880059873702
Lazio 1
Qaeda 1
Sultan 1
Tav@@ 1
Yus@@ 1
bs 0.3679697648888356
ejeo 1
huba 1
kaf@@ 1
kupum@@ 1
lif@@ 0.8323176346363419
meth@@ 1
obe 1
vin 0.831573751570845
11.@@ 0.9523080647558406
124@@ 1
1891 0.6818321450925005
53@@ 1
EC@@ 1
Gas@@ 0.6960152571826065
Kang@@ 1
Mont@@ 0.3419397274827221
Peace 1
Sweden 0.8229175004470095
Territory 1
abab@@ 1
aluma 1
ekodi 1
imeh@@ 1
run@@ 0.8572553399663579
1898 0.5716580462882862
Dani@@ 1
ES@@ 0.7357850930806846
Est@@ 0.36611005860386475
Gaza 1
Gold 0.5760930054404811
Haf@@ 1
Nat@@ 1
Road 0.236172476492115
Trans 1
agu@@ 0.5384986253878733
beta 1
dai 1
gre@@ 0.6039198647476794
ks@@ 0.47809483143875103
pik 1
160 1
57@@ 1
Bin 1
Frankfurt 0.7800825487702965
Ibn 1
Iw@@ 1
Jr 0.7119255730989191
Lum@@ 1
Margaret 0.9307201095196808
Neb@@ 1
Vanuatu 1
Wel@@ 0.7489370338594284
`@@ 1
adiliko 1
ci 0.23325237364381574
elezi 1
my@@ 0.4722524492404783
non 0.1135760818769713
owe 1
yok@@ 1
ão 0.925457989317782
Bang@@ 1
Ca@@ 0.7908891869780765
Fort 0.4399431945359589
Gau@@ 0.7401345183822098
Kaw@@ 1
Mariah 1
Romania 1
Seg@@ 0.7120497080646639
acho 1
azia 1
bero 1
els 0.10226158137386492
indano 1
kran@@ 1
media 0.23921246583387482
ns 0.30298074033847566
ode 0.7602190080519049
solo 0.21816363508856862
thiop@@ 1
1,6@@ 1
ARC 1
Alek@@ 1
Anne 0.5475496785773113
Beng@@ 1
CL@@ 1
Dol@@ 0.5621434274185347
Hes@@ 1
Jen@@ 1
Kot@@ 1
Lang@@ 0.40857856405399523
Max@@ 1
Rug@@ 1
Sag@@ 1
Sali@@ 1
Ze@@ 0.5841880563930915
bera 1
efu 1
ekw@@ 1
gl@@ 0.30209768469872156
ill 0.2911048106777671
kuru 1
oué 1
sions 0.32485027984409703
sok@@ 1
ա@@ 1
1791 1
1839 1
1915 0.40435090093910847
22,@@ 1
Andes 1
Barn@@ 1
Chem@@ 1
Fon@@ 0.9089744076698711
Med@@ 0.7507731750195339
Roger 0.6961314232926943
Toyota 1
atr@@ 0.33052598696060975
che@@ 0.5924787559047483
col@@ 0.1294409080982459
ets 0.1213499747723837
hug@@ 1
mang 1
yeo 1
1897 0.57116832154801
1901 0.5081880324595247
Alex 0.8646525729279495
Brian 0.7198299304219716
Is 0.673602616709714
Nin@@ 1
Russia 0.4140951118278715
Solomon 1
Tov@@ 1
XIV 1
ales 0.07431708488364788
amerika 1
fre@@ 0.2701831272320088
lands 0.3387136236755495
nav@@ 0.6784649776065548
pom@@ 1
sol@@ 0.18377196712786606
ten 0.03886416834477918
tes 0.09151132075610202
á@@ 0.16446069518771247
ô@@ 0.7665515954145855
ō@@ 0.5497251154559462
Amb@@ 1
Ann@@ 0.54326165166346
CE@@ 0.7278694128089052
Film 0.16422224360511065
Fin@@ 0.5184103610407721
His@@ 1
Lom@@ 1
Orange 1
ajika 1
ambe 1
aud@@ 0.7532156711693863
ebu 1
elem@@ 1
fululizo 1
kuliwa 1
ky 0.34784479589293416
lie 0.42228535334550243
lis 0.5070307936659968
ole@@ 1
pil@@ 0.42362520741930426
ster 0.2496953622453286
xi 1
47@@ 1
500,000 1
60,000 1
Baden 0.8902191240333664
Davis 0.5681993800216237
Hy@@ 0.44269990471572634
Kos@@ 0.941846596685958
Mob@@ 1
Wilhelm 0.4201527357723284
Ya@@ 1
aam 1
aland 1
amar@@ 1
enza 1
rak@@ 1
uala 1
ugenzi 1
00 0.3491129805841309
10.@@ 0.6619421178779792
1866 0.6386891268067624
9,000 1
Cambridge 0.6407942119846477
Emmanuel 1
France 0.07559059179324157
Gabriel 0.9030200860467187
Hesse 1
Krist@@ 1
Movement 1
Obama 1
Panama 1
Rem@@ 0.5069362437722541
Street 0.16863238436700276
ag 0.6634630402262311
ations 0.04681559484629897
auso 1
bury 0.6290016346590082
elia 1
hr@@ 0.45779201080498133
neo 1
olia 1
ty@@ 0.2999163006337195
yr@@ 0.3695081276350112
ANC 1
Ard@@ 1
Arts 0.2759115062029563
Free 0.7656071612668836
Fur@@ 1
Kairo 1
Steven 1
banda 0.47868881593657314
jan 1
kes 0.7272873056011854
lin 0.3726407188383942
lu 0.991079321652253
sand@@ 0.7835675607543914
130 0.9144234117143546
27,@@ 1
Bank 0.3500469251032687
Dakar 1
Hollywood 0.6701112050194971
Lil@@ 1
Nov@@ 0.4945739491313485
Nur@@ 1
Ong@@ 1
Post 0.46625627418967225
Pu@@ 0.7276665612092603
Ruv@@ 1
Sis@@ 1
alm@@ 0.41050373337298823
anze 1
asin 1
cl@@ 0.16021635006695048
emokrasia 1
ener@@ 0.6669656340762493
ful@@ 0.92511379150058
kos@@ 1
laz@@ 1
mashu@@ 1
opera 0.8693147597116581
sonia 1
tata 1
tin 0.2400953030893026
uri@@ 1
1892 0.6110485508228423
75@@ 1
Beijing 1
CS@@ 0.7540921244546439
Cop@@ 0.6680439848206486
Earth 0.5300827852337463
England 0.14622461915943716
Grace 1
Howard 0.6978248968512814
Hussein 1
Lil 1
Naz@@ 1
Pap@@ 0.437166836336866
Rashid 1
Sat@@ 0.6691102742291779
Venezuela 0.6937133761099467
Yam@@ 1
alla 1
ao@@ 1
ax 0.6713948648543328
ays 0.26286442125918213
del@@ 0.24068291731043953
enn@@ 0.2493247099398277
fel@@ 0.4886332541324282
gul@@ 1
ichana 1
ide 0.31658593574300437
isiti@@ 1
iss@@ 0.32237544530594403
land@@ 0.24466972049704355
ling 0.16166360566118593
mor@@ 0.22649209177299615
my 0.3821986918105831
num@@ 1
ongoz@@ 1
out 0.04446001630242283
sou 1
thro@@ 0.6782587851883183
unj@@ 1
ven@@ 0.23458991621012074
ï@@ 0.3421262491064738
201@@ 1
24,@@ 1
Be 1
Blo@@ 0.6387101759366225
Centre 0.33084383283000757
Development 0.47352660162277516
Ga@@ 0.6483817987434151
Kaf@@ 1
Lat@@ 0.6359869000846491
Len@@ 0.935232009226098
PE@@ 1
Qatar 1
Ross 0.8682534392544454
andinavia 1
aun@@ 0.49189163960258103
bomba 1
doba 1
ehem@@ 1
etta 0.6798967984846811
ex@@ 0.07282332615948134
ga@@ 1
hala 1
imia 1
keti 1
raga 1
reg@@ 0.18614492388240977
til@@ 0.3406001982993174
„ 0.02857559841802461
103 1
105 1
119@@ 1
1895 0.5407027192661754
Alfred 0.6078537505035106
Dũng 1
Ellen 1
Iceland 1
Isaac 1
Juventus 1
Nap@@ 1
Num@@ 0.9750941181382556
Oc@@ 0.6913216172575343
On 0.03795076238404643
Pau@@ 1
Taiwan 1
Tamb@@ 1
Tas@@ 1
UK@@ 1
We 0.43221800354737755
ariadha 1
din 0.8488521868671762
fer@@ 0.14663713063684672
idizi 1
isini 1
kiza 1
krom@@ 1
olo@@ 0.9978676040524248
otop@@ 1
ungufu 1
4000 1
Aqu@@ 0.819019273907786
Bosnia 1
Brothers 0.9751946292859328
Cat@@ 0.36332510102700566
Cre@@ 0.3038719745917057
Ele@@ 1
Fox 0.5735890857990034
L. 0.49465254652356044
Live 0.47570591328887385
Lạc 1
Main 0.5147838476294776
Napoleon 1
Nye@@ 1
Ran@@ 0.45148943778616407
Shir@@ 1
Tag@@ 1
Vig@@ 1
XV 0.9232243523173637
Zin@@ 1
adan 1
att@@ 0.1915253198256576
cu@@ 0.14103295615260975
dei 1
enger 0.9817112465814811
eski 1
eu 0.4411064542869531
ics 0.16177343933959507
imto 1
key 0.30485432917185673
rav@@ 1
rei 1
ski 0.32511220320012174
ym@@ 0.3810036734592233
34@@ 1
Daily 1
Die 0.01766215637687172
FO@@ 1
H. 0.40372047088054935
Haiti 1
Kem@@ 1
Kok@@ 1
Laden 1
Laz@@ 1
Lem@@ 0.9060831625755192
Leon@@ 1
Now 0.9603326276109397
Rail@@ 1
Shi@@ 0.660819031109168
Sm@@ 0.8517238882466772
WHO 1
akh 1
athi 1
bis@@ 0.9683112536656897
eck 0.44251979481150927
erina 1
fo 1
giji 1
ikal@@ 1
106 1
115@@ 1
360 1
Ahmad 1
Anast@@ 1
Canterbury 1
Dur@@ 0.5081863366641283
Foreign 0.8303355424813885
Global 0.8388685597845476
Haz@@ 1
Kuh@@ 1
Lombar@@ 1
Red@@ 0.31487011877300153
Sicilia 1
Sus@@ 0.7302611799833821
adhimishwa 1
ck 0.442595468490142
con@@ 0.06439569435061049
dan 0.35043893667522596
ebi 1
ebo@@ 1
fur 1
ight 0.35630964809012183
inum 1
ishati 1
jili 1
kl@@ 0.2435251388063676
klin@@ 1
mbing@@ 1
pag@@ 0.8903161535279126
tete 0.4985723560794038
1200 1
1861 0.6644653297817269
1871 0.6251295439258985
60@@ 0.9935626372122728
Allen 0.712373760969544
Apo@@ 1
Da 0.36841481741414045
Gil@@ 0.590661486295936
Kath@@ 0.9755153451273814
Lake 0.23921955037027567
Lub@@ 1
Mub@@ 1
Stanley 0.9010825496751114
Tek@@ 1
auli@@ 1
ayan 0.9515378166059166
ayi 1
eland 0.755793271835317
fas@@ 0.5475393772636274
ifuata 1
iliyor@@ 1
ja@@ 1
kak@@ 1
ny 0.4423163314255526
ors 0.07799378540366143
uth@@ 1
ward 0.31131248561926056
1,8@@ 1
Bonif@@ 1
CNN 1
Div@@ 0.6177503403428336
Hem@@ 0.8452985183070431
Hills 0.9410442813186463
Kelly 0.857889743285442
Lati@@ 1
Nan@@ 1
Raf@@ 1
SS 0.4221202987766173
SS@@ 0.9296558112009629
Uni@@ 0.4526952805923998
ack 0.3495660012404598
alie 1
aster@@ 1
atan@@ 1
chin@@ 0.8947733907546502
dugu 1
fes@@ 1
grav@@ 0.4412610671231962
igano 1
inn@@ 0.3245192979629213
meng@@ 1
ock 0.3099502343732896
pri@@ 0.4023629896734585
tok@@ 1
uc@@ 0.2617036538841993
vo@@ 0.3107757735197605
á 0.21028213689835673
1,9@@ 1
1893 0.5640861920806195
26,@@ 1
Allah 1
Alliance 0.8463434540141779
Cle@@ 0.7319129467904979
Deb@@ 0.5940276113231653
Dog@@ 1
Op@@ 0.3696876911658189
Usw@@ 1
Var@@ 0.5538980904315053
Wand@@ 1
aksi 1
art 0.1069566070479491
avia 1
cr@@ 0.10720833773408926
kamera 1
mojaw@@ 1
oth 0.49885690483097794
our@@ 0.394107593461473
pyuta 1
ros@@ 0.4146154823001374
sun@@ 0.5956015447659141
tet@@ 1
vena 1
zab@@ 1
25,000 1
450 1
BC 0.41511674104421525
Bundesliga 0.8382546020215176
Diego 0.5139369158828349
Dou@@ 0.7156212678545052
Harris 0.834587419518103
Living@@ 1
Long 0.407534394232914
Max 0.42882826281052433
Santos 1
Suez 1
Tim 0.9019888968186976
Tus@@ 1
Villa 0.6002692898331934
aan 1
dam@@ 0.6283433505603689
eim@@ 1
kin 0.3829357894559181
more 0.03949780644636644
oug@@ 0.7119849662793234
ters 0.14606667619802327
unguko 1
én@@ 0.23490168115326557
1894 0.56322828879314
Alpha 1
Atlanta 0.7614515895159444
Claire 1
Eric 0.702748802732373
Jan@@ 0.5395781001446881
Ltd 0.9417930536076126
Luis 0.4003417489161004
Ohio 0.3768839947291386
Ony@@ 1
Orleans 1
Pam@@ 1
Pan 1
WA 1
able 0.046217097298902866
ador 0.17851719416798348
amm@@ 0.39022299096841534
anna 0.7860092187345756
aq 1
arg@@ 0.4657049699268394
awia 1
band@@ 0.8905778659934867
eci@@ 1
hep@@ 1
ory 0.21040372367794552
semin@@ 1
theid 1
zee 1
ø@@ 0.5361578765896116
ː 1
170 1
1840 0.7890221160251629
43@@ 1
Ankara 1
Bayern 0.7855248937501703
Cup 0.11857143109229422
F. 0.4500087141244174
Girls 0.910444071062925
Kazakhstan 1
Lak@@ 1
Microsoft 0.7739616462036002
RI 1
Serie 0.403594555907186
Stephen 0.5554854659661903
Theatre 0.4021383286374388
abiashara 1
bai 1
bie 1
enzo 1
him 0.048004351330787134
ispaa 1
nh@@ 0.27821656382516863
yor@@ 1
107 1
21,@@ 1
Adolf 0.9485496393643428
Anderson 0.6632592316247817
Arabia 1
CB 1
Ezra 1
Gem@@ 0.7542895884049169
Ot@@ 0.5926054047785126
Sas@@ 1
Seng@@ 1
Sinai 1
Tol@@ 0.7222294193245382
Tou@@ 1
ated 0.04054114670372917
bee 1
enberg 0.45429110154434404
esti 1
got@@ 0.6930531323790231
ias 0.9241721377155634
isti@@ 0.5355524918275375
mazo@@ 1
pet@@ 1
sius 1
town 0.095492663381185
usur@@ 1
Ale@@ 0.9216606620456916
BA 0.7012514665172177
Baby 1
Bern@@ 0.7311695519166435
Buy@@ 1
Dennis 1
Faus@@ 1
Front 0.6846179933790063
Hand@@ 0.3809914997605968
Hans 0.3571346623567169
Harry 0.5063556966357021
Marcus 1
Morocco 1
Shah 1
Silva 1
Soul 1
Tre@@ 0.3239536595993072
Trier 1
Youth 0.7773573916208134
ainishaji 1
bati@@ 1
bez@@ 0.9244244369614589
hom@@ 0.23039597397307202
iza 1
may@@ 0.6631740526027857
omin@@ 1
ons@@ 0.3235481145838286
ow 0.25305390416167123
sch@@ 0.060780665863873075
soni 1
ָ@@ 1
Art 0.1518124107915003
Cy@@ 0.5553425856959835
ER@@ 0.6246325723372087
Konstant@@ 1
Luc@@ 0.5354912236715906
NA 0.9602812023480876
Pa@@ 0.4569331132063969
RI@@ 0.8705639536326244
RT 0.969822213596112
Rap 1
Seoul 1
Sit@@ 1
^ 1
andisi 1
angi@@ 1
chen@@ 0.5177993604802678
enze 1
madeni 1
md@@ 1
ont@@ 0.5950946376781532
ton@@ 0.348323653625819
wara 1
50@@ 0.6777420811548389
80@@ 0.9288163673104642
Barbara 0.8557164706342886
By@@ 1
Cro@@ 0.3795205143522357
Denis 1
Dub@@ 1
Fad@@ 1
Gun@@ 0.7025131967266585
Gur@@ 0.9929622342768654
Houston 0.669858312312245
Lac@@ 0.8258214934672177
Lawrence 0.7789673267177093
Milan 0.8007042753397227
Mum@@ 1
Queens 1
Shel@@ 0.9771842224440064
Song 0.42391974901740836
Valley 0.32745184569151775
Victor 0.6071855824103574
Wallace 1
Wor@@ 0.44331948853431435
Yak@@ 1
alum 1
edo 0.5983707000761281
ff 0.33649034646851145
ison 0.3300568072792336
kg 0.5231997227279968
kugawa 1
kukus@@ 1
ly@@ 0.32412582621533975
mom@@ 1
ness 0.18893749604511126
ose 0.48152144919440937
owa 1
poin@@ 1
sburg 0.8913539286520115
yang@@ 1
ó@@ 0.17654875608397536
ī@@ 0.8165607718658593
1,7@@ 1
2,0@@ 1
34,@@ 1
AR 0.8457333918140508
Bell@@ 0.81882774008737
Bé@@ 0.9122980742692717
Country 0.5898726830282907
Galil@@ 1
MS@@ 0.989586417545851
Minnesota 0.5158948271346101
Mississippi 0.7521861642145637
Nation 1
Pep@@ 1
Ren@@ 0.32424448836078174
Sarah 0.7515388537086344
Sev@@ 1
Slovenia 1
Timor 1
Uruguay 0.9385114108427003
ick@@ 0.1898738234024492
ier@@ 0.20931030180553106
lywood 1
muh@@ 1
ometr@@ 1
taki 1
tor 0.16116509335126375
118@@ 1
ABC 0.7147168244402331
Abdul 1
Afric@@ 1
Aks@@ 1
Amsterdam 0.8454278211094061
Can 1
Daw@@ 1
Juan 0.21313647253505474
Lewis 0.5047928321620087
Ray 0.676098843221807
Sid@@ 1
Ther@@ 0.5691839536634103
Whit@@ 0.5164823429095613
atus 0.3916788868876903
eus 0.7389591263316582
lov@@ 0.759467117054882
mtaal@@ 1
oster@@ 1
ric@@ 0.7390588000942772
ser 0.09085742702913592
undisho 1
1881 0.5921799871446719
Abdullah 1
District 0.11569742666040511
Fun@@ 0.9844365735507797
Girl 0.8459069507773644
Mafia 1
Nol@@ 1
North@@ 0.5589306342421155
Pemb@@ 1
Sports 0.4272596632460088
Vod@@ 1
ein 0.017390652432227947
eman 0.5391434317992295
graf@@ 1
ide@@ 0.3231889189680613
ien 0.19369036967263303
ingen 0.20633192792870636
men 0.06623041083000598
nach@@ 0.3452759527659733
not@@ 0.207641398337473
off 0.08460095044872563
teri 1
tivo 1
12.@@ 0.7278085079303945
Banda 1
Bra@@ 0.8349156358468452
Brooklyn 0.8583712764313071
Cass@@ 0.9094374335145128
Chin@@ 0.9132224647355387
Donald 0.7338469009811746
Jaz@@ 1
Kennedy 0.7613540344572424
Lup@@ 1
Oscar 0.7828317708530744
Rah@@ 1
Res@@ 0.3283945020324294
UU 1
Ung@@ 0.9992879811159062
agr@@ 0.5660893689063607
alon@@ 1
ambuliaji 1
ath 0.2829139325888889
blog@@ 1
etab@@ 1
gon 1
hudi 1
kilogr@@ 1
kitab@@ 1
out@@ 0.15999830083165947
para 0.024562157814381026
sti@@ 0.24678477941606586
up 0.03670526120346371
ver 0.1886423806442625
wang 1
290 1
38@@ 1
AF@@ 0.9306681217353503
Bam@@ 1
Bernard 0.6253319271769479
COVID 0.5044006966824527
Corps 0.3884252943247812
Felix 1
Jacob 0.8014938460113403
Je 1
Nature 1
Pir@@ 0.6542952083537651
Porto 1
Sow@@ 1
Township 0.45988108434942154
alay@@ 1
aran@@ 1
asio 1
atie 1
audio 1
baj@@ 1
ei@@ 0.958883166248859
heim 0.29008093654297573
rah@@ 1
riz@@ 1
ump@@ 0.45853007199659324
1,3@@ 1
114@@ 1
3,0@@ 1
Bau@@ 0.16417193868608432
Camb@@ 1
Colorado 0.5482811996474416
Copa 0.4446931376509348
Emmy 1
Equ@@ 1
Little 0.38554331573660006
Mod@@ 0.5912038845289219
Mom@@ 1
Mongolia 1
NBA 0.5024602310038399
Nana 1
Network 0.5184689504431881
T. 0.5156827249656277
TE@@ 0.8365508649129043
Wol@@ 0.4466709934191851
XVII 0.9366314924428746
Yo 1
Zak@@ 1
Zel@@ 1
aifa 1
beb@@ 1
dol@@ 0.6884648127427421
esi@@ 0.8765187022902474
ft 0.21371639794934594
hol@@ 0.18488488739229178
inz@@ 1
kah@@ 1
king 0.12871034393816513
log@@ 0.30118082420185605
lol@@ 1
nas@@ 1
pedia 1
uklia 1
108 1
1830 0.7227415921366251
1850 0.5962839407354904
320 1
Adri@@ 0.9125791716125363
Alaska 0.9595326870944847
Alb@@ 0.7609642066835574
Bolivia 1
Boys 0.738740902898973
Brooks 1
Council 0.1477319217996456
Ep@@ 0.6965301094448627
Game 0.4236525114101315
Gl@@ 0.3098090277718264
Helen 1
Key@@ 1
Maryland 0.6004597533336264
Pak@@ 1
Pop 0.9458381840468275
Rak@@ 1
Tang@@ 1
ahu 1
andra 1
anger 0.5010383602724093
aus 0.024337366809832593
bou@@ 0.46622290079564077
department 0.406582209984695
ef 0.5682464264609073
eter@@ 0.7025654747826116
fo@@ 0.22569174091990882
into 0.030715797158966794
keli 1
kh 1
port 0.1680590602444915
thumb 1
urujia 1
1600 1
1700 1
1909 0.35820196873225063
28,@@ 1
Bush 0.9161864957921406
Business 0.49605113654872285
Chil@@ 0.6937887806200244
Church 0.1425267566365419
Corporation 0.37950222529559186
Dre 1
Forbes 1
Haj@@ 1
Iz@@ 1
Kamer@@ 1
Leopold 1
Lev@@ 0.5069099405076047
dal@@ 1
giz@@ 1
inge 0.712833608477781
ment 0.07778032988598435
orum 0.929977506823365
oy 0.5755992698871042
spek@@ 1
teria 1
zur@@ 1
1869 0.6405045884890039
36,@@ 1
Agost@@ 1
Aires 0.4601824804630613
Ann 0.8230537759066544
Azerbaijan 1
Bavaria 1
Bec@@ 0.7862614391809781
Bell 0.6368556205145927
Benn@@ 1
Chal@@ 1
Emer@@ 0.7699943690805592
Huy@@ 1
Ian 0.938404898016169
Lady 0.4466620748423767
Lov@@ 0.7347634598797831
Mario 0.7318155096518534
Not@@ 0.3548959402053914
Oliver 0.8596549391454035
Seb@@ 1
Thailand 0.9426013219578921
Tottenham 1
agara 1
anisi 1
aph@@ 0.6574091737813162
dop@@ 1
end 0.044291557500463596
etto 1
gio 0.7328927022084682
ien@@ 1
nan 1
u.@@ 1
æ@@ 0.8263913585047112
1,5@@ 1
270 1
Abo@@ 1
Adi@@ 1
Albania 1
Anton@@ 1
Athens 1
Bahrain 1
Buenos 0.45552051829710155
Cabo 1
Cav@@ 0.7181982765325097
Cent@@ 0.8109359858820842
Ci@@ 0.5408532723682746
FDA 1
Gel@@ 0.47363571437473984
Henri 0.45052845095393756
Heroes 1
Lebanon 1
Ludwig 0.4741603260925073
RD 1
Tennessee 0.5603400369242192
Tik@@ 1
Valencia 0.9615460796651597
Wall 0.9743276506765767
aik@@ 1
een 0.6516802806521446
feri 1
hist@@ 1
iche 0.7464610217396824
ikh 1
jar@@ 1
likia 1
lob@@ 0.5423911034820085
mr@@ 1
ran 0.23693723901633265
senti@@ 1
shire 0.424376824140925
ting 0.06412421477627976
va@@ 1
ê@@ 0.4299598871542091
13.@@ 0.8989603170720518
300,000 1
550 1
Ass@@ 0.9458693942669095
Beta 1
Chim@@ 1
Din@@ 0.6757970482202466
Fri@@ 0.4673195358120083
Gordon 0.6170740745310733
Just@@ 1
Karag@@ 1
Lar@@ 0.4267093760148161
Mok@@ 1
Naj@@ 1
Pic@@ 0.5957897585390156
Plateau 1
Rom 0.9676217942444219
USA 0.2238904214075774
Windows 0.44934588648739227
Württemberg 1
XL@@ 1
ass 0.31663598024364015
assi 1
besi 1
enne 0.1727711489029339
ensa 1
ides 0.16465260444992796
ines 0.127318333842735
leh@@ 1
leri 0.43459344148295714
rey 0.2932164392227606
risto 1
ste@@ 0.15427774842053157
taz 1
ud 0.7423384164303223
via 0.17181893638894313
150,000 1
1882 0.5518413132067886
Basil@@ 1
Bruce 0.69769952896717
Bruno 1
Cole 1
Gary 0.8470354928969009
Hawaii 1
Ind@@ 1
Jol@@ 1
Joyce 1
Let@@ 0.7948528302288232
Lucas 1
MS 0.484012413283358
Movie 1
Philip 0.6099867979469242
Tah@@ 1
ally 0.06070888310210901
ester@@ 0.7076210254219666
ister@@ 0.5426848619432537
itz 0.2415193568889766
iz 0.748155917186374
lea 1
mate 1
nch@@ 1
pare 1
pul@@ 0.2348923826925468
ray 0.8059623806414019
37,@@ 1
Clinton 0.972047041240939
Douglas 0.5439857318765835
Eg@@ 0.6942440590729052
Gab@@ 0.9277476106130915
Guyana 1
Irak 1
Jonathan 0.8610422537519706
Lik@@ 1
Maurit@@ 1
Mid@@ 0.485609647244891
PS@@ 0.5923903304794036
Pil@@ 0.45790932902918846
Prim@@ 0.5577995860331829
Puerto 0.47206401060200753
Rico 0.7488364221789787
Standard 0.7732785708763443
Wood@@ 0.43967167366114185
auf@@ 0.0790485621390699
ente 0.08578408934197047
erg@@ 0.4378444090052522
galak@@ 1
if 0.1027363301108737
lei 1
mari 1
mes 0.20273944365197416
pur@@ 0.2643465846865872
sky 0.3053488151044035
tera 0.6103644848406078
tic@@ 0.21709300468408405
timi@@ 1
trans@@ 0.09533363489513039
usim@@ 1
wei 1
ə@@ 1
Angel@@ 1
Cool 1
ET 1
Facebook 1
Family 0.39185261698295054
IP@@ 1
Johannes 0.5394813743237145
Junior 0.46230994706346584
PhD 1
Pres@@ 0.22259563925184606
SE@@ 0.5148594562135277
Shi 1
Tanz@@ 1
Tet@@ 1
That 0.30750335911202575
Tum@@ 1
Volta 1
Water@@ 0.8663165546258367
Yan@@ 1
anag@@ 1
asso 1
house 0.10086322386626172
inia 1
lat 1
lev@@ 0.520308401283571
name 0.052677565724666274
ologia 1
oun 1
poti 1
sig@@ 0.3220084695164412
sing@@ 0.46844588442326135
var@@ 0.36800464695811946
1883 0.5517035437545994
63@@ 1
Dah@@ 1
Emb@@ 1
Greenland 1
Hai 1
Ligue 0.5556109080548794
Magdalena 1
Nathan 1
Poly@@ 0.6357098886946346
Saudi 1
Ses@@ 1
Singles 0.5890701885696314
Super@@ 0.2606938573390783
Toronto 0.37557526328619184
Viz@@ 1
Wais@@ 1
Wall@@ 0.6466459952587837
Wayne 0.8709290739130673
air 0.14495302353206257
alis 0.4338836656582639
ank@@ 1
arm@@ 0.2323740509152303
asy 1
atha 1
ator@@ 0.6289909661231292
emaji 1
frey 1
ikizo 1
lah 1
opot@@ 1
sander 1
st 0.11979959242184447
tii 1
tion 0.07221382432358402
ū@@ 0.49668392805229644
β 1
104 1
305 1
70@@ 1
Aristot@@ 1
Bologna 1
Claude 0.5767212667256674
European 0.12357991709413049
For 0.09653973701195151
Friedrich 0.2412255575920158
Jane 0.639262860062113
Mih@@ 1
Pav@@ 0.675461255711107
Rum@@ 0.8139963295336361
Studios 0.5575266487364912
Warner 0.7510603833727334
Zo@@ 0.805365228238234
epa 1
ges 0.18999221832663885
istil@@ 1
odo@@ 1
pik@@ 1
pora 1
sti 1
sy 0.9172625026923968
tay@@ 1
ther@@ 0.2337088900003472
ē@@ 1
100@@ 1
112 1
750 1
Amar@@ 1
Angela 1
B.@@ 0.7045568993122927
Back 0.8414101524223424
Baf@@ 1
Black@@ 0.5314958872216358
Dev@@ 0.31724701304650443
Franklin 0.6981605509623209
Himalaya 1
Ice 1
Jennifer 1
Kevin 0.6309478875207197
ML@@ 1
Mart@@ 0.8314128401770995
Petr@@ 0.7218686766186565
Quebec 0.701881928658693
Rouge 1
Sara 1
Ton@@ 0.5883252787595227
Top 0.29956630631883474
Wi@@ 0.43520424370964667
Zan@@ 1
ait 0.07301240608692862
ams 0.2615134365699885
antan 1
arufu 1
bah 1
bat@@ 0.22910066703453844
engel@@ 1
ers@@ 0.6160733211429156
esta 0.1018055314892969
fe@@ 0.11005147228217077
hadi@@ 1
idge 0.7763492065720603
isio 1
iwemo 1
leng@@ 1
nu@@ 0.43621995496066657
opi 1
pep@@ 1
pir@@ 0.7749635792812793
poli 1
sid@@ 0.7408296510451962
tig@@ 0.225615459355779
udani 1
usan 1
vio 0.7546025170043444
ç@@ 0.2593164706071957
š@@ 0.24519047731807642
116@@ 1
2,9@@ 1
Afr@@ 1
Chik@@ 1
Emilia 1
Festival 0.16048438664317138
Fol@@ 0.40942354200213055
Hid@@ 1
Jac@@ 0.6144222029815594
Kali@@ 1
Khal@@ 1
MO 1
Marvel 0.9372857964020702
Mr 1
ST@@ 0.5288154720000616
Southampton 1
Spe@@ 0.36670047741771145
aca 0.479124517935367
aman 1
ansi 1
gee 1
illo 0.3948480878453489
metab@@ 1
nun@@ 1
ves 0.12263465242914998
ë@@ 0.6690982774718243
1865 0.5128353796717204
210 1
AD 0.5180618133190196
CM@@ 1
Campania 1
Cot@@ 0.6112189489769935
Cuba 0.6220781455749275
Dec@@ 0.29293164723902254
God 0.3575946661125618
IP 0.7165539257245018
Kenneth 1
Lah@@ 1
Raymond 0.7983240246254825
Ruf@@ 1
Ruh@@ 1
Tok@@ 1
Tul@@ 0.7484301259578288
amis 1
anao 1
aux 0.03021066641068765
bron@@ 1
chim@@ 1
dad 0.7498058169716774
eu@@ 0.40272812544731784
ev 0.3552932558162622
jed@@ 1
marais 1
meme 1
o. 1
taw@@ 1
tri 1
él@@ 0.3593294703317034
117@@ 1
240 1
6000 1
650 1
Akh@@ 1
All@@ 0.3717305809924106
Angel 0.9891648593240754
Arab 0.6688678590554135
Charlotte 0.6460220071527224
E.@@ 0.7201115304088789
Gis@@ 1
Good@@ 0.7946014889953742
Gul@@ 0.7812350555364229
Jak@@ 1
Jimmy 0.6624443465254881
Joshua 1
Las 0.11353228455070015
Luxemburg 1
Newton 1
Paraguay 1
Shim@@ 1
Uzbekistan 1
XIX 0.3795820293851369
Yor@@ 1
adies 1
dhul@@ 1
elius 1
endaji 1
fos@@ 0.6813184099200368
hand@@ 0.24427375885482963
kan 0.6198286214064583
lan 0.5173384463729266
luk@@ 1
mej@@ 1
mkus@@ 1
ogi 1
ret@@ 0.2088663643729027
wand@@ 0.8662334824755119
zio 1
125 0.7291796205342542
1857 0.6345404293735047
Alexandria 1
Ambro@@ 1
Bog@@ 0.6603823558640579
Channel 0.49225377811611704
Chiba 1
Cru@@ 0.6328388895080105
Din 1
Europa 0.23775347545517692
Gang@@ 1
Good 0.6304680787484414
Kn@@ 0.33211351687180185
Les 0.03425643761584831
Many@@ 1
Marshall 0.7166873669486452
Maurice 0.6011219880644628
Migu@@ 1
Opera 0.6832873690342425
Salvador 0.7557576281393419
Santiago 0.45154314485353647
Secondary 1
ail 0.24317304993300498
ambu 1
bay 0.3545889280759601
bon 0.464978763935393
bro@@ 0.32423560338684126
cher 0.14438674999197088
dos 0.06391942529682411
habiki 1
ones 0.10892729858605588
ron@@ 0.675628181341852
ted 0.04713833211999778
ב@@ 1
1838 0.8167859751234808
1867 0.5075658890252835
Alan 0.5544548101675265
Bagh@@ 1
Cab@@ 0.5604037877854601
Ever@@ 0.834817473541439
Kho@@ 1
Kosovo 1
Kud@@ 1
Leon 1
Master 0.399544890867609
Montenegro 1
Mount 0.3630003440453422
Republican 0.37150974463723824
To 0.19371870565451166
Vel@@ 0.4831113804886035
Vladimir 0.990729450993573
asu 1
diana 1
fab@@ 1
her 0.017238329009373242
inflam@@ 1
neur@@ 0.42741520222500123
other@@ 0.6037989997128568
pah@@ 1
sei 0.24422234958062916
sis 0.754232261350604
1.2 1
113 1
260 1
325 1
380 1
Alvar@@ 1
Apple 0.6742614425558444
Bernardo 1
Bih@@ 1
Bit@@ 0.8617375091869902
Gabri@@ 1
Hos@@ 1
I.@@ 0.9968592019152115
Jan 0.48512379553406376
Khmer 1
Law 0.2800267030767182
Lib@@ 0.5456860274416461
Mek@@ 1
Missouri 0.4542452393550206
Muz@@ 1
Ne 1
Oman 1
Ry@@ 0.5488252879428822
Sib@@ 1
Unit 1
XVIII 0.603891370345178
aro@@ 0.6110912744121436
atao 1
gen 0.14929985698644413
has 0.013899370705814687
illi@@ 0.5285103791283486
illy 0.43455491438306115
imoto 1
istan 0.8417879707841877
itus 1
jug@@ 0.38302783658862066
omp@@ 1
pokeo 1
star@@ 0.5258607110817861
uan 1
uma@@ 1
uvisiwa 1
yl 0.35299052722249347
É@@ 0.1575428417479317
1,500 1
1815 0.7198908365096531
1856 0.6160692120424671
220 1
230 1
280 1
313 1
Adams 0.6381832530179028
Alice 0.6277419877862841
Andr@@ 0.7897855520704888
Bati@@ 1
DD 1
Eliz@@ 1
Football 0.1674617075355755
Fres@@ 0.7166760361595494
Giovanni 0.7058794859860146
Hag@@ 0.8759668297114366
Ho 1
Irene 1
Leg@@ 0.34456538689278793
Miami 0.5148642190207082
Mill@@ 0.5555851717257169
Nev@@ 1
Rap@@ 0.5034779231693229
Rock@@ 0.727692787420682
SI 1
Shet@@ 1
Thes@@ 1
Yi 1
adini 1
alam 1
effer 1
ete@@ 1
harama 1
hindi 1
ier 0.1519886984245097
kar 0.8106752320565871
med@@ 0.3723009243518897
othe@@ 1
path@@ 0.45655562891658535
yoy@@ 1
zav@@ 1
1864 0.46834832465002
400,000 1
Arch@@ 0.4677611056018086
Bismarck 1
Bob@@ 1
Bour@@ 0.5313980653946423
DVD 0.34254290438876106
Ernest 0.9019721703306719
Eus@@ 1
Ferdinand 0.6060122201591566
Florence 0.8188869769849405
Gam@@ 0.7079104890598753
Git@@ 1
Grant 0.6356307276146491
Jacques 0.3110901626694078
Johann 0.238727488489727
Lav@@ 0.6982707806027505
Lisbon 1
Mali@@ 1
Meg@@ 0.5766186206985925
Miller 0.4561539725899999
Moses 1
Nikola 1
Power 0.42990483620420183
RO@@ 0.677700062758697
Sevilla 1
Slovakia 1
Tour@@ 0.3201168749001704
Walt 1
Will 0.6907818350690262
` 1
af 0.6402045582791729
alist@@ 1
amen@@ 1
astr@@ 0.36326069895499713
ats 0.10893434715179075
austr@@ 1
char@@ 0.21558909812858357
dish 0.8277343056822418
don 0.21455408933102682
ede 0.4347451529909184
hid@@ 0.6073037169244098
law@@ 0.36513971948321633
long@@ 0.5533927284238036
net 0.24594644899295148
osta 1
ouk 1
reh@@ 1
ru 1
were 0.009287440006891296
ר@@ 1
1863 0.482711963201271
3,7@@ 1
310 1
330 1
AA 0.5449796928201325
Air@@ 0.49858207518862985
Arizona 0.4404620912251112
Community 0.4362910343834674
Dublin 0.5842639378158127
Heinrich 0.3054190934394694
Hun@@ 0.5924301315050013
Indiana 0.4527843543185586
Kach@@ 1
Kash@@ 1
Kost@@ 1
Leeds 0.9793907915911233
Lop@@ 1
MP@@ 0.492245053425853
Mem@@ 0.6064393012879848
Reb@@ 0.5903763932751956
Rid@@ 0.6306978759671
Ryan 0.580313235841124
Sinema 1
Susan 1
Thel@@ 1
Trinidad 1
Wiss@@ 1
Yoh@@ 1
Zen@@ 1
abo@@ 1
api@@ 1
arra 1
atta 1
eb 0.8519403947935915
gy 0.6254449039704564
hariki 1
i.@@ 1
ical 0.07374718797525515
kha 1
lam 1
optera 1
rid@@ 0.6446982251230752
uge 1
zah@@ 1
ː@@ 1
א@@ 1
115 1
1300 1
Alt@@ 0.4465708851410157
Ball@@ 0.42919593191153776
Buch@@ 0.35253903048928503
CU@@ 1
DO@@ 0.8277602651371092
Dro@@ 0.4801119221013568
Ez@@ 1
Finland 0.8672123452038246
Force 0.19981676443824786
Hav@@ 0.5939403330438835
Herzegovina 1
Kardin@@ 1
Land@@ 0.11563815933533782
Lou@@ 0.5284291153472377
Matt 0.6579173369061674
PN@@ 1
RA@@ 0.3826377111317837
Sony 0.7712113715291014
Taj@@ 1
Taliban 1
Television 0.48087164133544136
Yeh@@ 1
alo@@ 1
anim@@ 0.3789208767481089
fen@@ 0.4274796448116482
form@@ 0.14768520418009162
fuatana 1
geg@@ 0.41699221987959373
gus@@ 1
ken 0.09286046471446767
mel@@ 0.17760794294102847
nar@@ 0.5602186077243279
pres@@ 0.12135381662244761
sar 0.8510636319075183
stein 0.17204205993658062
tul@@ 1
å@@ 0.5074714254158842
ā 0.927490417563267
135 1
1862 0.4676101774969166
Alberto 0.7483502303738668
Ant@@ 0.6537613798494297
Aston 1
Aut@@ 0.35497475160540165
Baltimore 0.6367923318002967
Bok@@ 1
CN@@ 0.6532106120483772
Costa 0.45972858788300086
Dance 0.6081163352243972
Do 0.5125894765905027
EC 0.9027415973043961
Hope 0.9603480371592181
IL@@ 1
Julia 0.9371572994250834
Kle@@ 0.4765647971325736
Law@@ 0.5403800912130144
Ler@@ 1
Nations 0.34101475972464274
Nig@@ 1
Petersburg 0.8324441176078002
Sri 0.4889104190857998
Stone 0.45259485877671846
alifor@@ 1
ellan 1
enti@@ 0.11365058587409389
ents 0.0752642939766412
eth 0.44223160997253186
fran@@ 0.6279074070736324
gn@@ 0.4960722946266306
har 1
latitu@@ 1
née 0.23687727152825028
oi@@ 1
osoma 1
tend@@ 0.3765506799753973
ī 0.9669601141123007
́ 0.08719412002368218
ְ@@ 1
211 1
340 1
Abd 1
Abdel@@ 1
Bremen 0.8450898212000156
CA 0.48759343324556026
Caesar 1
Chit@@ 1
DE@@ 0.48520521000148503
Dul@@ 1
Education 0.20305426477400107
Ere@@ 1
Fab@@ 0.7988113334311591
Fiji 1
Franco 0.7523538876378977
Home 0.34120087671210314
Hotel 0.4003127295856863
Kre@@ 0.3439131913232877
Kuwait 1
Lig@@ 0.4598238535925817
Lis@@ 0.665437465764394
Magaz@@ 1
Mauritius 1
Meng@@ 1
Michelle 1
Mk 1
Nath@@ 1
Rif@@ 1
SP@@ 0.4133328598647887
Sass@@ 1
Syl@@ 1
Vienne 1
Way 0.6580503354371975
What 0.5027854937161235
Wu 1
Your 0.5633975324478022
aj 0.6645711047370345
app@@ 0.2638996107016273
cana 1
egr@@ 0.5028233273933014
gur@@ 1
inc@@ 0.12732259000555157
jap@@ 1
kane 1
ody 0.36625752388427407
rad@@ 0.5470203797542268
raf@@ 0.9720723453810697
side 0.0662472353221999
taro 1
won 0.05039568450434404
â@@ 0.3132451288634967
113@@ 1
1858 0.5960102924669716
1879 0.4571318115667979
2500 1
AM 0.41314920455728826
Arg@@ 0.5855652767717185
Bac@@ 0.8633467276446063
Bru@@ 0.3244057755809151
Congo 0.7648040854079717
Connecticut 0.5682034783521883
Côte 1
Dag@@ 0.988393610880795
Et@@ 0.3321819754688536
Eva 1
Franz 0.34093650123802416
Grande 0.3330478425415003
Gw@@ 1
Helena 1
Herbert 0.6092545208785606
ISBN 1
Inter 1
Kansas 0.3921000014724364
Lord 0.22652055892920472
Men 0.29388406934497385
NASA 0.8806536819101464
Nde@@ 1
Path@@ 1
Pit@@ 0.6040164897174684
Project 0.440163933991189
Stadium 0.3408708462968961
Stewart 0.6174653445572235
This 0.02967410856490356
Yale 0.9581963199436659
Yu@@ 1
aci@@ 0.24077456977530623
agh@@ 1
akan 1
alle 0.13328837836813964
aram@@ 1
ativ@@ 0.9859899364517799
engenezaji 1
ges@@ 0.12328915168604146
hid 1
hot@@ 0.7984705776428167
izer 1
line 0.05868309087967745
osis 0.37851288385228105
ots 0.1512350935298292
rit@@ 0.2625128926366148
she 0.025329264740179446
tit@@ 0.7172669698118546
117 1
1873 0.4658094462870377
29,@@ 1
420 1
Abraham 0.7852359332375933
As 0.04868173805282954
Bet@@ 0.4842697837430567
Birmingham 0.6477816603983033
Bond 1
Cho@@ 1
D.@@ 0.8602398577948867
Dum@@ 0.7300266571229447
General 0.07993635302088306
Gon@@ 1
Kemal 1
Ket@@ 1
Lon@@ 0.9466116494467991
Magic 0.9878163453159726
Monte 0.6901924440447346
Princess 0.7819107685234709
Woman 0.8486136178898364
ampuni 1
ars 0.12393178894652801
atch 1
atil@@ 1
com@@ 0.06377322938481081
cor@@ 0.08426359966165768
eder@@ 0.3069197482584772
eir@@ 1
eye 0.46660125226634586
hon@@ 0.2773939051961744
kt 0.2769992231577033
lar 0.18575950942685748
lies 0.17121618035821687
old 0.07702435450694094
onte 1
opl@@ 1
osom@@ 1
taya 1
tico 0.3030406534134109
ה@@ 1
2,6@@ 1
An 0.0975143526491336
Ax@@ 1
Aziz 1
Beg@@ 0.45004819715082983
Bud@@ 0.577502922765381
Dab@@ 1
Emir 1
FI@@ 0.4485352189995106
Grass@@ 1
Hamilton 0.41725185062475934
Jam 1
Jun@@ 0.8422115372724222
Lad@@ 0.6044149518858218
Morav@@ 1
PC@@ 0.6259719637138037
Pop@@ 0.5021190442375494
Rh@@ 0.608204729548272
Sac@@ 0.6110955613440767
Sang@@ 1
Sé@@ 0.7759054915832364
Vill@@ 0.41720015387523945
abar 1
ades 0.1669781831770822
album 0.03584243104174441
boya 1
gun 0.3452526566947237
ilian 1
ium 0.27099199773485133
leen 1
ops 0.28097031429917213
ord 0.48347741254165444
osia 1
tz 0.5041236686718366
yang 1
114 1
14.@@ 0.7436168206680179
1400 1
1878 0.4096057857255195
3.5 1
40@@ 0.5677342669275114
Ajax 1
Amer@@ 0.8504873819028413
Beau@@ 0.4674478824597956
Cameroon 1
Dan 0.5403714606477422
Dr 1
Element@@ 1
Inc. 0.4477426930661268
Kaj@@ 1
Karak@@ 1
Litu@@ 1
Lol@@ 1
Morgan 0.5411383016178366
Morris 0.678969902654564
Philadelphia 0.3592850065651773
RNA 1
SW@@ 1
Shane 1
So 0.17510938220845787
Sub@@ 0.16929566898304466
Taf@@ 1
Urban 0.8563004145770573
Vivi@@ 1
ado@@ 0.8123310868542574
amel@@ 1
ape 1
atini 1
ayn@@ 1
azini 1
das 0.010656890260720746
dev@@ 0.24043361156137807
enj@@ 1
eshim@@ 1
had 0.011430817630600889
ibia 1
iye 1
kee 1
onne 0.29402899602720295
ores 0.1466215829126776
rand 1
rell 0.709214887951787
thia 1
viol@@ 0.19060317192221038
yd@@ 0.48177022275470593
ּ@@ 1
1.3 1
1100 1
127 1
129 1
1859 0.49883757644866084
2,4@@ 1
Bass@@ 0.6435433221109312
Diana 1
Down 0.7264254445920788
Duke 0.34636967375982947
EL@@ 1
Face 1
Gandhi 1
Hasan 1
IG@@ 1
Java 0.8543180733975211
Just 0.6452138137166056
Martha 1
Mask@@ 1
Miy@@ 1
Nav@@ 0.5554063298242792
Out 0.46786572953158034
Patricia 1
Point 0.3669408994410856
Pri@@ 0.34837282362957933
Sanc@@ 1
Stockholm 0.7939490606580462
Ubun@@ 1
Vij@@ 1
atem@@ 1
bifu 1
diploma 1
fields 0.3964579340426931
fol@@ 0.31089923954703724
hoa 0.22022932749482285
iliyoz@@ 1
isto 1
kro@@ 1
mivu 1
oh 1
oon 0.49206752586637337
oton@@ 1
proj@@ 0.3377186717743627
rik 1
tors 0.15358614952916472
unk@@ 0.38520356989026877
zan 1
zilishi 1
× 0.3048034728820507
ł@@ 0.2563358159103146
137 1
1837 0.6786665130596687
1844 0.6886716953118792
1876 0.42364696489355885
250,000 1
35,@@ 1
451 1
540 1
74@@ 1
AT 0.5537660679107466
AZ@@ 1
Abbas 1
Armstrong 1
BM@@ 0.7574198304268158
Berg@@ 0.22688034717182873
CIA 1
Campbell 0.5926481217859704
Coc@@ 0.8769511864577378
Cos@@ 0.3641285317989659
Dig@@ 0.9150897727625124
Dob@@ 1
Eb@@ 1
Epidem@@ 1
Iran@@ 1
Isid@@ 1
Ivan 0.8052928873841022
Jal@@ 1
Jap@@ 1
Kiev 1
LO@@ 0.9138216703691083
Marseille 0.8258952248726253
Norman 0.6076366370864619
Palm 1
Pur@@ 0.35918552342172466
Ray@@ 0.8960281689844032
Rhodes 1
Roberto 0.8247820098544609
Rosa 0.6957400593446834
Ruth 1
Schleswig 0.9610825120772684
Tch@@ 0.923174263918296
UN 0.6925407163171898
V. 0.34336626018535227
ald 0.4813995357180046
allo 0.9296054649082969
ands 0.19846312593436355
bit@@ 0.34407419957814794
can@@ 0.12684013388396556
ce@@ 0.274670513634221
court 0.12394592512605011
didae 1
eira 0.9892747137045167
ign@@ 0.1787806338599183
mem@@ 0.3714872990342475
olog@@ 0.3810640774538252
reggae 1
sini 1
thu@@ 1
ugen@@ 1
uya 1
wur@@ 1
yg@@ 0.5471284762088955
· 0.05246266086660553
1.6 1
1875 0.434815731350592
19@@ 0.9722253841916118
212 1
520 1
Austin 0.567106783300513
Austr@@ 0.9556108882319302
Bh@@ 1
Bran@@ 0.5102108140663285
Burma 1
CP@@ 0.6728995750906325
Carr@@ 0.7284739193541067
Child 0.9847156457750585
Eugene 1
Fernando 0.4295408444326943
Fund@@ 0.5567289129703565
Future 0.9228199313679231
Gn@@ 1
Hau@@ 0.9499062744274716
J.@@ 0.6698047322200749
Jose 0.7640505719467946
Kund@@ 1
Lanka 0.6894225594084903
Lili@@ 1
Louisiana 0.5791778923600972
Lucy 1
Martin@@ 1
Mond@@ 1
Money 1
Of 0.2952805759068863
PC 0.3495879543165335
Rod@@ 0.5733240057316235
Sean 1
Service 0.19391038453642956
Siria 1
Tibet 1
Venezia 1
Voice 1
Zh@@ 0.6537256537894044
Zuh@@ 1
amad@@ 1
aren 0.7504586252223442
aton 0.8525004466381996
cher@@ 0.36332825383021666
cio 0.3679884320956841
dad@@ 1
dale 0.4463193141616622
day 0.05325556740753817
deb@@ 0.4528726726227683
diz@@ 0.6034970505627945
ellen@@ 0.6856755826217029
fam@@ 0.5853314993247969
film 0.02766431672033273
istr@@ 0.5737855994940002
itz@@ 0.25548873450742543
klor@@ 1
let 0.17604752882887506
obi@@ 0.7204980705075663
ovich 0.9492736406983463
plas@@ 0.6275991652556914
tif@@ 0.44725496283104893
worth 0.27142048601888447
田 0.7221835460395745
1.4 1
1874 0.43400777146146663
3,6@@ 1
39,@@ 1
480 1
850 1
Aber@@ 1
D.C. 0.5422060367697932
Dallas 0.5663645139053609
Everton 1
Fred 0.6290003037554991
Get 1
Gray 0.7672650890477392
IT@@ 0.6511207398397478
Night 0.3472714684584882
Robin 0.7111795465762502
Schutz@@ 0.7194201677312421
Sergio 1
She 0.03337320469620239
Space 0.4376275697037555
Sto@@ 0.3886361234603944
Story 0.6635337528693669
Toledo 1
XX 0.30573209595750206
abak@@ 1
abul@@ 1
angu@@ 0.9441837021113296
anth@@ 0.484060883565283
auer 0.29029656359742706
ely 0.0824733698736213
enburg 0.39744399931366364
ense 0.21260268566934415
fit@@ 0.8799418827013519
iji 1
islam 1
itw@@ 1
kay@@ 1
kubor@@ 1
olim@@ 1
oti@@ 0.7280064016874358
rem@@ 0.2043864205000427
sc@@ 0.11429473534293441
tai 1
tica 0.24472203992680389
u. 0.3135448141910926
uhan 1
viel@@ 0.9617930683835088
zek@@ 1
zie 1
án 0.10798652538115455
111 1
1841 0.667811538287667
19.@@ 0.9592236072124712
2,5@@ 1
251 1
30,@@ 1
302 1
32,@@ 1
370 1
46@@ 1
Afro@@ 1
Aman@@ 1
Anay@@ 1
Brussels 1
CP 0.8668555341938349
Catherine 0.5350304250823086
Dream 0.8261076066225214
Esp@@ 0.3459024791738298
Ey@@ 1
Falls 0.6779112537717366
Gra@@ 0.6216861107452902
Han 0.6494522980118621
Harrison 0.6725490619274851
Heart 0.5756358982378328
Him@@ 1
IAAF 1
Lamb@@ 1
Manuel 0.2995089774351692
Mic@@ 0.6760044392722021
Nicolas 0.5089499390960349
Pug@@ 1
Rot@@ 0.3173543880549025
Rup@@ 1
Santo 0.6283011325968261
Sec@@ 0.35571680269432204
Sheffield 0.9729366273209582
Singapore 0.4855724903722449
Tour 0.13349633149501536
Zah@@ 1
ady 0.42443727122090824
amine 1
atlan@@ 1
aug@@ 0.5736130813263544
diplom@@ 0.46031750446052433
dog@@ 0.7322950720274296
ean 0.43011605551341975
ester 0.3652707056151446
fl@@ 0.0855423548868695
hie 1
inger@@ 0.5954119201195717
insul@@ 1
ishug@@ 1
kov@@ 0.6198991463091731
mong 1
nes 0.19232795608967462
opath@@ 1
ovi@@ 0.8379908353634696
ses 0.02872724501052162
sinte@@ 1
tel 0.2294048244377429
try 0.2017599267252962
uppe 1
vertebr@@ 1
wasi 1
win 0.09620346600490924
wit@@ 0.6982837690423662
à 0.0037691621972514703
ʿ@@ 1
0.5 1
1.8 1
1820 0.5023269082611626
2,7@@ 1
311 1
33,@@ 1
Abd@@ 1
Barack 1
Baz@@ 0.948804246132624
Duncan 1
EN@@ 0.9667347876088765
Fame 0.45640597814876505
Got 1
Grim@@ 0.8845275004521552
Guinness 1
IF@@ 0.8412596707067888
Jah@@ 1
Jason 0.6008300313547512
Kuv@@ 1
Liber@@ 0.4459812333994518
Mary@@ 1
Mili@@ 1
Mission 0.49460243380496205
Nept@@ 1
Nic@@ 0.5077257525767354
Palmer 1
Pasha 1
Pra@@ 0.9502507439250142
Sea 0.27335387256373106
Seattle 0.5267467222704125
Stalin 1
States 0.04003397937206277
Stella 1
Sung@@ 1
Ted@@ 1
Tib@@ 0.7813152224113459
Vie@@ 0.8574161348137972
Wer@@ 0.23772102357336736
With 0.11752453101832412
aine 0.22115168037781135
aq@@ 1
arak 0.825892022928421
ban 0.198630900184145
borg 0.8249051166088618
cas@@ 0.09459481158407958
dij@@ 1
ement 0.03913162420308365
enta 0.2274776880514408
enter@@ 0.3914388787898169
eter 0.20661520751770998
ids 0.16421635288240574
lock 0.4137177338947395
odo 1
plaz@@ 1
sos@@ 1
ston 0.4048116582823716
tua 1
ux 0.3480649858513938
wh@@ 0.16403257792280715
ó 0.026790284920723523
ος 0.34415967808855896
ḥ@@ 1
17.@@ 0.8171181365687223
1846 0.5876784071569401
306 1
410 1
430 1
560 1
90@@ 0.9171613318235557
Adrian 1
Alabama 0.4605937270375726
Au@@ 0.24680888361426243
Biss@@ 1
Castro 0.83925103881939
Chap@@ 0.8041160279926307
DSM 1
DV@@ 1
Fah@@ 1
Flor@@ 0.48188044901647537
Fortun@@ 1
Fro@@ 0.6411448624320156
Graham 0.5835750603181804
Hermann 0.4588866613081041
Iowa 0.41557658586171087
Kent 0.5337303007753891
Khali@@ 1
Nash 1
O. 0.7795357159606738
P.@@ 0.8837997613359246
Phil@@ 0.4190058034458253
Rich@@ 0.4400649448402424
Science 0.19765219947990867
Shig@@ 1
Sofia 1
U.S. 0.08076512085450176
Uran@@ 1
abad 0.42291852591887924
agna 1
aim@@ 0.5287303286271962
ano@@ 0.8459953911042851
art@@ 0.25280480007398476
ast 0.16190970984086847
ave 0.3702501554544113
borough 0.33481040643546456
cre@@ 0.09060939142750209
gae 1
hayat@@ 1
inho 1
nat@@ 0.4690935178572627
orn 0.46380472176254756
ple@@ 0.21282997781367605
teki 1
that 0.004487884333064746
urdu 1
122 1
1847 0.5794451230546779
1848 0.3677167705934906
1868 0.40573415417823205
1877 0.40527255310567195
203 1
309 1
Agnes 1
Ani@@ 1
Auxerre 1
Banks 1
Blackburn 1
Cant@@ 0.5200162173417735
Carter 0.5562110683516343
Conn@@ 0.3570533991552609
Cruz 0.4066472545252085
Dave 0.5264720090425091
First 0.11762080022398956
Ghost 1
Hugo 0.5507564770003398
IC 0.44392477314700496
Jubil@@ 1
Kant@@ 0.8003161274917446
LE@@ 0.6188356110895257
MI@@ 0.5679265357097322
Melbourne 0.365502583410323
Monica 1
NATO 0.9600662865569282
Nazar@@ 1
Organization 0.7073129190300614
Pope 0.49131108279844005
Rec@@ 0.1731004857072253
Ronald 0.9866579740862027
Sey@@ 1
Sidi 1
UC@@ 1
Vic@@ 0.3853749590059128
Wolf@@ 0.893723823241118
aduni 1
aul@@ 0.38305430754638914
avana 1
bana 1
bre@@ 0.09217181443916767
e. 1
fom@@ 1
gan 0.53168971588795
kei 1
lau@@ 0.41897602725143973
nam 0.3225372088697282
omia 1
opar@@ 1
ous@@ 0.5173749418522086
sie 0.02144012341460959
sim 1
tes@@ 0.43206077028280854
yaz@@ 0.9524242451639262
yp@@ 0.25285151582968746
è@@ 0.24576594751357947
מ@@ 1
190 1
215 1
314 1
4,0@@ 1
680 1
7000 1
Airport 0.29822445740898024
Alf@@ 1
Apar@@ 1
Bamb@@ 1
Championship 0.10952461715962987
Chel@@ 0.9753588138963271
Clar@@ 0.4962350477410949
Colombia 0.38297550873057484
Edgar 0.9364348921559807
Ernst 0.37552799507670187
Fair@@ 0.4190740096012718
Globe 1
Homo 1
Internet 0.2992548472157733
Lob@@ 0.9219955396509631
Mu 1
Noah 1
Ori@@ 0.45269879043798567
Orlando 1
Ow@@ 1
PL@@ 0.905370883614383
Pant@@ 1
Prize 0.3932288984273861
SPD 0.6338100788839975
TO@@ 0.8185738402659694
Tito 1
Warren 0.643419399659609
airo 1
alaya 1
ape@@ 1
aura 0.9414885538200498
bola 1
cap@@ 0.10312331070688824
cm 0.1733007219559154
ebo 1
erian 1
esco 1
fah 1
format 0.26245342925182497
lini 1
loc@@ 0.11826310615404552
mont 0.2826593461214011
org@@ 0.3845246770376503
ox@@ 0.30288734030557135
qui@@ 0.21247397531256898
sang@@ 1
see 0.09963120668784387
sis@@ 1
sson 0.41345625936988895
urn@@ 0.41001382717005014
uss@@ 0.28726611867442314
yay@@ 1
yer 0.15251033379422618
éd@@ 0.6525192957487276
ş@@ 0.41905971054062574
1.7 1
124 1
157 1
204 1
209 1
3,8@@ 1
Agr@@ 0.5728400178744322
Arkansas 0.5503818365468225
Aï@@ 1
Brid@@ 0.6331067743557884
Cologne 1
Disk@@ 1
Emirates 1
Gloria 1
Independent 0.4883296141780668
Jed@@ 1
Karen 1
Ki 1
Leonard 0.829319955119795
Log@@ 0.49270579099375983
MO@@ 0.6223441285796276
MT@@ 1
Marche 1
Raw@@ 1
Rog@@ 0.8256065652889444
Roy 0.49240091617295656
Samp@@ 1
Sof@@ 0.9693255181291038
Tin@@ 0.759938149191549
Vor@@ 0.06114092535799167
Wright 0.5309899095420516
ack@@ 0.1840177138483361
alg@@ 0.229840489061004
anes 0.4039012771036234
ating 0.04820735991868829
azi@@ 1
beck 0.8247508861038749
bet@@ 0.4021688903252497
biri 1
cin@@ 0.20782514983285869
dak@@ 1
eller 0.20997829230198856
este 0.05605050419845805
fort 0.1516016868385048
hij@@ 1
hip@@ 1
ibi 1
inyota 1
los@@ 0.2652306486117991
mail 0.6429879194445028
ment@@ 0.20691927140544156
otom@@ 0.8197427074442041
ough 0.25773443223445275
pol 0.9762572071722068
radio 0.11844249200393067
rag@@ 0.46899743879203926
rah 1
rie 0.44081253764376077
ron 0.608505631737343
san 0.5703926069953602
ube 1
ulaya 1
unge@@ 1
urs 0.1541905456673662
usiwa 1
ventr@@ 1
wal 0.8812717880557085
water 0.06836919327672397
wol@@ 0.9842488970333471
zuk@@ 1
1852 0.5227611669854212
199@@ 1
307 1
4.5 1
640 1
66@@ 1
8000 1
Amazon 1
Anah@@ 1
Bishop 0.3245726679819548
Boh@@ 0.5868447589095341
Carson 1
Did@@ 1
File 1
François 0.22511189691450462
Hali@@ 1
Holstein 0.8505967193467702
Hospital 0.23622550194902148
If 0.1986877914326065
Innoc@@ 1
Kentucky 0.41248034171239106
Main@@ 0.5942115746590696
Marathon 1
Medi@@ 0.29682440349378586
Mé@@ 0.26651505176680645
Nom@@ 0.6851653955967016
Portland 0.5780322325351815
Pos@@ 0.4350836556556412
Productions 0.7501224998905237
Rita 1
Sa 0.2284901215257405
Sham@@ 1
Technology 0.3249942668455486
There 0.052930699050863714
Vich@@ 1
Wo@@ 0.43220680329890065
bal 0.3903975226761074
blu@@ 0.9649450589248162
din@@ 0.2463011007714393
eaux 0.3197931577830551
ex 0.18968895089340168
hang@@ 0.6406976881421677
hiv@@ 1
ib 1
int 0.4840451998545723
kilis@@ 1
och 1
ort 0.2640826139248892
polis 0.6068310543397909
semi 0.25318986577366953
star 0.20336156893660318
sv@@ 1
tot@@ 0.3391621976688291
ulus 0.8340952001808234
yani 1
yek@@ 1
ú@@ 0.23341613761420124
ō 0.21530718886401445
נ@@ 1
123 1
1854 0.4836410176196999
1872 0.38792936828195096
201 1
206 1
214 1
3,5@@ 1
365 1
431 1
470 1
48@@ 0.9376216282852284
5,0@@ 1
AU 1
Ada 1
Allan 1
Andal@@ 1
CBS 0.5234481245859428
Chi 0.8417912418575355
Curtis 1
Dee 1
Delhi 0.6387413243489989
Dim@@ 0.720335377394871
Dir@@ 0.9806978523951018
Eastern 0.22624821037002527
End 0.5158655918428185
Eth@@ 0.41694377425888146
Fos@@ 0.8551900461827996
Gad@@ 1
Gom@@ 1
High@@ 0.46554173816242794
Janet 1
Johnny 0.48248258171805014
Kav@@ 1
Kilim@@ 1
Kob@@ 1
Lic@@ 0.6205580340201318
ME@@ 0.4936109820087883
Mac 0.6632190730740938
Mercy 1
Michel 0.2957362535089786
NE@@ 0.5252916151582367
Olu@@ 1
Palace 0.4989300115376098
Pay@@ 0.8839887096291302
Plan@@ 0.23911371004596332
Silv@@ 1
Simpson 0.8962203399664801
Sind@@ 1
T.@@ 0.9448001569180172
Tat@@ 0.5919921966481274
Walker 0.46386182685100363
XXIII 1
abl@@ 0.3109918101467365
adel@@ 0.5965347214669573
afe 0.8780958929744234
agan 0.624937805425628
agawa 1
asis 0.48417232883864003
burn 0.5526752655123714
dic@@ 0.11990388291241136
emat@@ 1
ency 0.14416451386007778
entr@@ 0.11000030275971955
etr@@ 0.8678514625572987
ever 0.11070999955711618
ilg@@ 1
italiano 0.892943732736806
itt 0.4789268286217972
kini 1
las 0.010163414755752534
less 0.07623674715400565
model 0.1606340469359945
oku 0.9707742594731482
ostr@@ 1
teri@@ 0.5072060097042255
yon 0.594495855329692
′ 1
1853 0.515632111799724
312 1
440 1
ARA 1
BO@@ 0.855164892297403
BS 0.6715817565189229
Barr@@ 0.39196098617092523
Bauer 1
Bla@@ 1
Bri@@ 0.281322458936612
CO 0.5917450520044512
CT@@ 0.9984743944561821
Ce@@ 1
Children 0.47189930090397825
Fac@@ 0.4068242016086681
Gran@@ 0.347327068419789
Green@@ 0.44263507005283614
Gut@@ 0.5866241408595536
Hotspur 1
How 0.7580202641153441
Jim 0.30946059052151387
Konya 1
Kır@@ 1
Laura 0.6806146765424204
Lloyd 0.6247493733723133
Lost 0.8798288463488076
Lot@@ 0.5427716653780125
Madonna 0.8892549542893731
Manga 1
Mbe@@ 1
Mud@@ 1
Newcastle 0.7623478015026552
Oper@@ 0.3505585185662471
Out@@ 0.38323008436773176
PF 1
PO@@ 0.675031689715485
Powell 1
Py@@ 0.617097144229372
Roc@@ 0.3684954559314833
Salzburg 1
Sup@@ 0.4259250152445449
Ukraina 1
Universal 0.5185894940551423
Valent@@ 1
Venice 0.9712900414147683
Versailles 1
When 0.0751666331875775
Yal@@ 1
Year 0.20275649316448077
aban 0.11808688044450479
ague 0.6109601582260742
aida 1
alum@@ 0.7599775793706152
ander 0.6114717687930583
anto 1
athe@@ 1
auch@@ 0.5792492960036342
bel 0.47224311849458406
gas@@ 0.32142718400023357
helik@@ 1
igi@@ 1
iss 0.47489448799079564
koa 1
mar 0.2450286844004176
mavi 1
nas 1
ning@@ 1
ossa 1
ović 0.6102621248699425
ovo 0.7650168174907291
pre@@ 0.049570867807863475
put@@ 0.4206727786750231
sion 0.08295290184120595
ska 0.45690751368029714
tho@@ 0.3323588342304222
western 0.1316204136599402
yakula 1
121 1
193 1
49@@ 0.7331166517335014
530 1
Adam@@ 1
Agency 0.5624069774557727
Bao 1
Buddha 1
Choice 1
Dipl@@ 1
Dut@@ 1
Ferr@@ 0.5025494297166049
Flam@@ 0.6187604925964744
G.@@ 0.952480783780362
Garcia 1
Glasgow 0.5191057295825144
L.@@ 0.6085370489444736
Land 0.14492543873323768
Monaco 1
Moore 0.39794441990060725
Nam 0.15412889676272054
Nancy 0.6379563534822765
Ner@@ 0.5841482173290128
Nevada 0.6503320035280581
Nih@@ 1
Nikol@@ 1
Niz@@ 1
Off 0.9590798091166347
Screen 1
Sound 0.47924431468562784
Sr. 0.9726226984252017
Tay@@ 1
Zim@@ 1
abil@@ 0.4486851254508416
aden@@ 0.7393336322105099
ahr@@ 0.5175342167097141
alaria 1
aldo 0.9339085604446747
ann 0.33490741636466975
asser 0.7199120340940183
asta 1
can 0.026164728749225156
cat@@ 0.1346234171831293
country 0.07545972029736966
eau 0.10524715900795933
elik 1
epe 1
fer 0.113032687033291
idan 1
ique 0.13457617440023573
mat 1
matem@@ 1
mit 0.006935811466990156
nan@@ 1
nis@@ 0.601169631860017
posa 1
red 0.07618700677874067
s.@@ 1
tula 1
van@@ 0.5190202824239318
waliou@@ 1
you 0.13606998826191577
ès 0.23793851167508284
ש@@ 1
118 1
139 1
202 1
216 1
301 1
308 1
361 1
460 1
Ama@@ 1
Atlas 1
Ces@@ 0.8523312429097454
Cit@@ 0.7396620304485261
Co 0.27486000850833553
Cou@@ 0.44262782458614147
Death 0.2983512371969244
Delgado 1
Derby 0.7528791874322657
Forum 0.7207166597568069
Get@@ 1
Gum@@ 1
ICC 1
Ip@@ 1
Iv@@ 0.7694617894489815
Jerome 1
Ladies 1
Pauli 1
Pedro 0.24314985843813022
Pictures 0.5805893852372497
Premier 0.20000713581292098
RT@@ 0.5930922237838505
Rev@@ 0.26806555303883467
Stre@@ 0.25896319957370983
Sz@@ 0.4584016927355195
Tir@@ 0.4890753223775034
Village 0.417166024630498
adir 1
ae@@ 0.6613121971652925
agin@@ 1
andamano 1
angle 0.3425348771811246
ants 0.04764952402372704
ardi 1
arn@@ 1
dal 0.7530823114542359
dig@@ 0.25642835635261546
entina 1
foro 1
gua 1
jab@@ 1
kunde 1
lib@@ 0.751207585926159
meg@@ 0.96989161987009
ning 0.1546169383152454
obo@@ 1
okula 1
oré 1
pens@@ 0.2987423971108391
school 0.03917638198985292
set 0.05178865201436652
sir@@ 0.549787689190598
traf@@ 0.8696043701123496
tre 0.18158691539680877
wich 0.7610697969803483
world 0.06121962430855952
1.1 1
155 1
1789 0.7216832560184682
1814 0.5521803185835358
2,8@@ 1
223 1
23.@@ 0.8295763914632976
AG@@ 0.6221799430166358
Amp@@ 1
Are 0.8635042950985606
Area 0.3529398510479805
Ast@@ 0.6303024152329758
Brunei 1
CT 0.9253204084600477
Cameron 0.814317098368279
Comp@@ 0.4269037915257858
Cour@@ 0.25098554568535475
Craig 0.740441043881099
End@@ 0.3937818928331693
Epi@@ 1
Fund 0.6019381845248886
Germain 0.983615096798079
Gram 1
Guatemala 0.6389965958432853
Guy 0.5010684716841534
Head 0.38088852421370895
IT 0.6105272596596875
Jackie 1
Kop@@ 0.6512778482637213
Mish@@ 1
Nest@@ 1
PR 0.702177804171207
Pascal 1
Pass@@ 0.32033540810940603
Pol 1
Row@@ 0.5132776556769062
Rud@@ 0.5763676300060979
SV 0.45628804621683167
Sao 1
Stanford 0.7782960961861937
Tobago 1
Wrestling 0.4408502798887008
Yusuf 1
ael 0.9674249004705483
agog@@ 1
ahu@@ 1
aille 1
brah@@ 1
cer@@ 0.1160832960856269
dae 1
dee 1
elly 0.6102897004146837
etown 0.8112724049345432
etus 1
fich@@ 1
fir@@ 0.17728833016503293
fri@@ 0.35632815059360895
gar 0.3947787086477253
hakikisha 1
hat 0.04964558733700034
hou 0.9225524091204086
ibe 1
ibo 1
ikistan 1
lon 0.5616028824354544
mikro@@ 1
molek@@ 1
obu 1
pili@@ 1
qi@@ 1
shab@@ 1
tein 1
ther 0.394208886950564
top@@ 0.2772516959797817
wiki@@ 1
− 0.2632931017971606
.S. 0.683120146794844
.jpg 1
16.@@ 0.6736378149606677
229 1
316 1
381 1
390 1
ATA 1
Act 0.12616367774857817
Atle@@ 1
Avon 1
Beyoncé 1
Bohemia 1
Bush@@ 1
Caes@@ 1
Calvin 1
Georg 0.28061382529600015
Jor@@ 0.9438257578484196
Leonardo 1
Mills 0.8208996996683716
Mitchell 0.5548941971610036
Mong@@ 1
Monte@@ 0.9315253289459899
Mozart 1
Oli@@ 0.6738565176127452
Pearl 0.8335025925785634
Phoenix 0.5999591470238258
Ronaldo 1
Sap@@ 0.7216518501805174
Siena 1
South@@ 0.54190558078104
Stade 0.7599758531524045
Ster@@ 0.5374637759966843
Sumatra 1
Wesley 1
Wing@@ 1
Yen@@ 1
aco 0.3796137069774412
altar@@ 1
amii 1
ater@@ 0.45171574875487863
aventura 1
awan 1
contributor 1
dibu@@ 1
diy@@ 1
hija 0.4814746692763317
iam 1
lus@@ 0.41624019742920565
modi@@ 0.39352685993421727
mur@@ 0.25422270807442743
onn@@ 0.13571864283306906
ozo@@ 1
ping 0.42394417097954396
rot@@ 0.18576954975644705
seg@@ 0.4620064496387094
tie 0.304794725657139
tras@@ 0.3275298327092028
trieved 1
³ 0.6431387021237184
ś@@ 0.6290888096301025
ִ@@ 1
128 0.7950155475377741
182 1
1821 0.5722653591658741
225 1
22@@ 0.5870435916926499
630 1
99@@ 1
Abi@@ 1
Augusto 1
Betty 1
Break 1
Brom@@ 0.9822694503018481
Champions 0.3860409529752832
Chief 0.2051433794050764
Cleveland 0.42862897867710903
Come 1
Digital 0.4960685825525898
Dong@@ 1
Emma 0.7056238978272669
Estonia 0.9999564862397454
Gan@@ 0.5837931879651866
Hampshire 0.5441018155028867
Hits 1
Janeiro 0.6541113255059556
K.@@ 1
Magazine 0.35641594194017057
Moon 0.5032470670465188
Nguy@@ 1
Nike 1
Peak 0.8801123842197411
Pro 0.2747868797930466
RIAA 1
Rainbow 1
Rav@@ 0.5127592783592515
Raven@@ 1
Richards 1
SO@@ 0.42942375152384077
Sent@@ 1
Surin@@ 1
Sweet 1
System 0.19066048381954961
Whitney 1
ZA 1
afuatwa 1
aniki 1
atic 0.1696827796996896
ats@@ 0.3593720670074902
bria 1
cel@@ 0.15840803159128006
dera 1
eg 0.6537565445150867
ering 0.2032307580556924
eum 0.38857239688097955
habu 1
igan 0.6550808700786495
izikia 1
lard 0.3751879463810787
leta 1
mea 1
ms 0.13349953346178842
oho 1
ott 0.4513129906792275
pH 1
rec@@ 0.06196372721629232
robot@@ 1
tag@@ 0.4417128259515381
tila 1
trop@@ 0.42255351892835136
zy 0.759907325596386
ér@@ 0.09709632458151832
ï 0.7471042889641396
1517 1
175 1
18.@@ 0.7214158389047514
1810 0.5901690958453188
207 1
208 1
213 1
323 1
André 0.3245360259414243
Army 0.08211809376283785
Auto 0.7420779184335841
Camp@@ 0.28781635925436616
Cecil 1
Dest@@ 1
Edinburgh 0.4461974323470607
Freder@@ 0.7330368453136701
Gates 1
Geor@@ 0.6079772577320647
Hudson 0.5694952451022567
Jos@@ 0.6856184399823105
Lip@@ 1
Loy@@ 1
Lun@@ 0.7635889994269253
Lyn@@ 0.9870474154144062
Manhattan 0.5128725302421985
Maxim@@ 0.5832392200780836
Meth@@ 0.8331482589247616
Next 0.769339086390687
PR@@ 0.6276714085300399
PS 0.26610416010344873
Pakistani 1
Pepe 1
Prison 1
Ra 1
Ric@@ 0.5526954585607297
SE 0.6696689068310371
Shang@@ 1
Smo@@ 1
Sno@@ 1
Son 0.10553188780283894
Sug@@ 1
Suz@@ 1
Til@@ 0.7102253038302097
Tot@@ 0.6065829118826477
Tran@@ 0.33405519451768345
Travis 1
Tuf@@ 1
Volume 1
Who 0.46459437329376435
ager 0.18000193102757042
agon@@ 0.49517466514194164
ald@@ 0.8351915327941473
anum 1
aten 0.12496974100254397
ding 0.1299205802933214
dom 0.4975151005442205
domin@@ 0.2129094247212
ehr@@ 0.3354164293294516
itis 0.9246212905468424
ksi 1
los 0.005665353191208272
mas 0.550127849027015
mol@@ 0.2705688698046749
ob 0.4074019028640567
odini 1
oll@@ 0.1938431336957978
oslov@@ 0.7134149238706876
sah 0.6133881801741794
stad 1
thu 0.4529072264950425
timestamp 1
viet@@ 1
xis 1
yasa 1
Ç@@ 0.4317090383443586
ée 0.019532612284557403
ør@@ 0.8319111470956647
č@@ 0.178764324730574
ր@@ 1
126 0.9678814073440376
2.4 1
205 1
217 1
256 1
264 1
406 1
44@@ 0.8668828054122164
AG 0.2561355097756365
AP 0.3757559404143797
Afrique 0.3694914422525521
Age 0.44635602687438036
Ain 1
Album 0.1797559610414808
Alois 1
BE 0.8088293756672931
Bath@@ 1
Brah@@ 0.681182372966309
Cent 1
Cook 0.5662199403515674
DF 0.7100473945011719
Elias 1
Flores 1
Gregory 0.6893676096762081
He 0.007517386349948491
Hin@@ 0.21054855284548019
ISO 0.8293840581043088
Joel 1
Journal 0.2397383349765712
Malta 0.7685373166896039
Mustafa 1
Oregon 0.3509022235340896
Piz@@ 1
Pun@@ 0.6295759970608117
RS 0.4193063630255806
Randy 1
Reh@@ 0.8197780624294175
Roosevelt 0.6757940120581845
Sandra 1
Seine 0.13516772743721908
Shan@@ 0.8594143214223522
Trade 0.5327887408415909
Vul@@ 0.6280769513984801
Wisconsin 0.29768146781472626
adj@@ 0.6338257792996355
agi@@ 0.6315417224372943
alar@@ 0.3672481468100095
aver 0.5794662760337662
aze 0.8755145555020353
cia 0.6045128438341696
ck@@ 0.2531352679515926
dar 0.19263337186375498
dum@@ 1
gli@@ 0.6002301953985475
icus 0.473586156891741
idy 1
inf@@ 0.11091181851677957
ink@@ 0.7313785500592257
ino@@ 0.7757018351865813
kov 0.4759824556244323
lab@@ 0.20753689828773147
lug@@ 0.615988080421469
mane 1
misa 1
opatra 1
owe@@ 1
ram 0.8463239799076169
sh 0.6130731124473645
sian 0.43492967677285366
username 1
way@@ 1
yet@@ 1
zon@@ 0.9835635082183775
zy@@ 0.2999550175498606
ַ@@ 1
ם 1
15.@@ 0.609439273347229
1835 0.5078219162644887
218 1
222 1
227 1
335 1
About 0.37663147908796163
Agu@@ 0.7394932895705555
Are@@ 1
Atlantic 0.2598787206248888
Au 0.10256830635576847
Aus@@ 0.052187643221509594
Belarus 1
Brescia 1
Brig@@ 0.3756402991558552
Brook 1
Christina 1
DT 1
Daddy 1
Danny 0.7027539348666656
Dik@@ 1
Eur@@ 0.2953582539138925
Faith 1
Fati@@ 1
Fern@@ 0.3064125958132879
Garden 0.43184831813393143
Guang@@ 0.8345385362227764
Gy@@ 0.6934427240810469
Kass@@ 1
Kingston 0.8883516491617853
Lec@@ 0.552872482292464
Li 0.3952002813825747
Madagascar 0.9314508921468317
Miguel 0.29072840702290986
Mind@@ 0.6792952324548733
More 0.3309601581788688
Museum 0.09704629972860597
Nicholas 0.5226772142404553
Nick 0.42580228796742503
Or 0.6399372406262944
Palermo 1
Paula 1
Perry 0.6067016757226104
Pet@@ 0.397253196812798
Pradesh 0.6342261117557719
Primary 0.8257604170152396
Rach@@ 1
Schrö@@ 1
Shah@@ 1
Torres 0.8102988835482414
Tra@@ 0.9790407563142746
Utah 0.47004764312182856
Vib@@ 1
Yun@@ 1
Zor@@ 1
ahan 1
amaz@@ 1
chil@@ 0.6111740046381405
chlor@@ 0.8461760037269018
deg@@ 0.8372503344991211
dub@@ 0.7377667700404137
ert 0.06352685873472279
etti@@ 0.6726743503091663
face 0.08931571180792064
gon@@ 1
ind 0.4523904897561025
jah 1
min 0.3230837014075586
ogr@@ 0.3924498541167135
onom@@ 0.4018860539061443
otic 0.4235480933470369
oul@@ 1
over 0.020038092367331284
parentid 1
pros@@ 0.5503109810875384
sel 0.26461717669425855
skop@@ 1
sup@@ 0.2633867475363797
sus@@ 0.23225239366199135
upta 1
uz 0.8403450897872895
weg@@ 0.8639268286413029
ég@@ 0.22874088363999534
-- 0.8240526616338115
181 1
1832 0.5161660862021054
1849 0.4111914696231086
185 1
1851 0.4270666531925499
199 1
20.@@ 0.6908512101077409
24.@@ 0.8155081012996832
3,9@@ 1
354 1
38,@@ 1
AE 0.8759896148344503
August 0.026525948996146704
Bali 1
Bar 0.4874989805495581
Berkeley 0.636846814374886
Big@@ 0.688641921790425
Broadcasting 0.636846814374886
CAF 1
Capital 0.45442612104546337
Convention 0.4234144110032245
Davies 0.8612263465567079
Dep@@ 0.634919907522925
Destiny 1
Dre@@ 0.2329357274730071
Fland@@ 0.7647910075759634
Greatest 1
Guardian 0.6779345528937386
Gö@@ 0.6624435375329528
Isma@@ 1
Joh@@ 0.8512067280736462
LP 0.3898442564666351
Lan@@ 0.29098513225127043
Latin 0.2028989202585995
Lithuania 1
Lorenzo 0.6961174389820799
Meh@@ 0.7653964018360114
Minneapolis 1
Montreal 0.39268788623397843
Netflix 0.8967296948190745
Pand@@ 0.7964107846943675
Pittsburgh 0.4497059839633996
Public 0.16989178490217613
Remix 1
Ris@@ 0.4833608705804741
Rolling 0.5994403376586708
Sardin@@ 1
Sot@@ 1
Sunday 0.3315736490243037
Tad@@ 1
Thompson 0.41986700080452405
Thriller 1
Vista 1
War 0.041698976468247384
Wolfgang 0.4912676892327135
Yem@@ 1
adu@@ 1
alism 0.16342485385932767
amoja 1
anatom@@ 0.933444876440791
angal@@ 1
bach 0.11565468296544767
boy 0.2576098178267757
bus 0.1604174291079184
eca 0.4727765627485791
egu 1
ishan@@ 1
kateg@@ 1
lier 0.2369846907633445
low@@ 0.25774176868654475
music 0.045302717519910544
naz@@ 1
nde@@ 1
ocho 0.5545891650452164
okee 1
opi@@ 1
ose@@ 1
remix 1
stadt 0.18713530302825473
sub@@ 0.04512359460698852
tham 0.2555803953328179
İzmir 1
136 1
145 0.9960991143393073
151 1
1521 1
165 1
177 1
179 1
1831 0.5298536482394494
226 1
283 1
397 1
3D 0.4276379160297407
401 1
55@@ 0.8179217652813692
7.5 1
Am 0.049010795570101975
Amazonas 1
Ba 0.5415065382738152
Barry 0.5014252894775504
Basel 0.6262542705733958
Benz 1
Book 0.25616704619390396
Britain 0.1997313641199516
Buz@@ 1
Calabria 1
Christ@@ 0.3253612961432701
Chu@@ 1
Coll@@ 0.6307117125534647
Di 0.7258322509179519
Dion@@ 1
Edwin 0.9424677844337079
English 0.0577259297132095
Fior@@ 1
Foster 0.7672945664439361
Gold@@ 0.2780557012332479
Granada 0.8034562121240963
Hob@@ 0.5969908467213962
Holland 0.6158515081297425
Honduras 0.8446227708340841
Hugh 0.566327912043366
Indian 0.0916375641016348
Jamaica 0.8074116146002176
Keith 0.6120806388898722
LL 1
Line 0.16446124988676913
Mack@@ 0.6084398216990762
Mann@@ 0.527709591441133
Medical 0.29063811006000384
Milton 0.9309165563213367
Minh 0.4981316014093653
Nish@@ 1
Peninsula 0.7197638527475281
Peter@@ 0.49056563362286654
Pru@@ 1
Punjab 0.9348738465729297
Rudolf 0.4444554022826879
Sankt 0.8323589069053768
Sky 0.4961140057390445
Sugar 1
Tob@@ 1
Too 1
Trump 0.41065827666371435
Trust 0.40210204266554334
Van@@ 0.5192929717901561
Winn@@ 1
Yang@@ 1
Ye@@ 0.56426719282619
assi@@ 0.3293411898799161
atan 1
band 0.04702121498661145
bes 0.22855366895785742
ble 0.14710227355607972
cul@@ 0.12735159413257466
ebra 1
ere@@ 1
ffy 1
gor@@ 0.5392613261445479
influ@@ 0.40561804630820364
itwayo 1
kins 0.4784238564772601
nik 0.3887708009778131
omy@@ 1
oney 0.755847060375386
paz@@ 1
pho 1
pio 1
pos 0.41664177551508147
rat 0.1896974572994767
res 0.14175288056138252
rio 0.7314062914843362
ubu@@ 1
uva 1
wick 0.4710182749217655
wing 0.11781162855891329
yah 1
yos@@ 1
zus@@ 0.49834709620016104
zz@@ 0.393405046035979
í 0.1257704955995332
ö@@ 0.09306067897605676
ı@@ 0.6402769295532169
ṣ@@ 1
131 1
144 1
167 1
402 1
56@@ 1
6.5 1
711 1
AO 1
Apol@@ 1
Billy 0.4005917266969493
Bordeaux 0.6294800284664597
Butler 0.6451941341711712
CC 0.3290554063664533
Chen 0.7692397585534575
Chir@@ 0.6222327662355218
Cla@@ 0.6889596077805754
Cul@@ 0.30779070497429545
Data 0.7147475973171732
Detroit 0.3520759544279269
Diz@@ 1
Dow@@ 0.4111538920206489
Es 0.03647262827759721
Fabaceae 1
Fak@@ 0.7700886574901755
Fem@@ 0.6784297864847182
Gamb@@ 0.8827967886941347
Glad@@ 0.989471672245702
Gren@@ 0.64645105152154
Hard@@ 0.35287187847381
Harold 0.5752047733937055
Haut 0.7494605225600115
Hed@@ 0.6197055449235639
Heights 0.8766158575656671
Hier@@ 0.47314879834367457
IBM 0.662276245441551
Ich@@ 1
Kimber@@ 1
LC 0.6906643328125628
Lau@@ 0.3063658860064894
Lif@@ 0.7755384072481798
Lopez 1
Marc 0.3788560010370147
Marco 0.5494048047457117
Matthew 0.4623743555388653
Mountain 0.26487796606076086
N.@@ 0.6888295927576229
Nun@@ 0.9803341249873384
Oth@@ 1
Our 0.49400446599782555
Over 0.2706058737183834
Pico 1
Plas@@ 0.9020281524139285
Province 0.1728270748746636
Ricardo 0.6916004924195057
Rovers 0.9059373601230861
Russell 0.37986289504308496
Simone 1
TV@@ 0.4156703252149401
Tong@@ 1
Upper 0.46576455620226864
W.@@ 1
Wake 1
Zeus 1
aada 1
aid 0.3378767960146333
apti@@ 1
arare 1
azar@@ 1
edr@@ 0.44540481697332507
emin@@ 0.7190691607323291
ett@@ 0.20084181806052132
gil 1
halika 1
inas 0.19744063721576097
indon@@ 1
jer 1
live 0.09060255773560329
mana 1
mor 1
mos@@ 0.23886443964162918
mus 0.46993902437125157
odoro 1
okovu 1
penal@@ 1
pok@@ 1
pra 1
ris 0.6487046027408048
rup@@ 0.289882909488968
super@@ 0.09369791896304402
sus 0.026829798016936874
text 0.1771473001100808
vok@@ 1
yum@@ 1
ía 0.04119641705594229
ğ@@ 0.9832389089717811
ɛ@@ 1
ɪ@@ 1
大@@ 0.05215610417778581
146 1
1845 0.438585675673933
195 1
2.2 1
224 1
233 1
257 1
258 1
331 1
407 1
49,@@ 1
490 1
510 1
610 1
710 1
970 1
AIDS 0.9799191109022731
Antoine 0.419658473966997
Any@@ 1
Bik@@ 1
Bond@@ 1
Burn@@ 0.8274930592331096
CE 0.43752148772769134
Cin@@ 0.3196244600867422
Dead 0.4981545786405686
Feld@@ 0.35868389441936005
Ferguson 1
Fly 1
Freedom 0.5656472708381716
GO 1
Gamma 1
Hilton 1
Human 0.32733148370497184
Instagram 1
Jeff 0.45582657054757414
Jerry 0.5393065288317616
Justin 0.6854221824596736
Mariana 1
Micha@@ 0.794481518377031
Micro@@ 0.569992646108523
Ministry 0.23904088928097825
Murphy 0.6032607569029581
Nazi 0.43136321294864455
Nes@@ 0.9397365880231374
Nickelodeon 1
Nit@@ 1
Owen 0.7411684264288398
Prix 0.17802223204854267
Renaissance 0.45530907248361085
Sophia 1
Suzuki 1
Theodore 0.9658810295875723
Trav@@ 0.40666852968246914
Ts@@ 1
UNICEF 1
Valeri@@ 1
Web@@ 0.40208172538145776
Wiki@@ 1
Without 0.9934157546462827
ace@@ 0.23960969421540113
agonjwa 1
aup@@ 0.5965768557736554
azu 1
bio@@ 0.8823286384342719
buy@@ 1
cal@@ 0.1075438928253894
cop@@ 0.18380379601384966
elles 0.06948851850758181
gang@@ 0.5997377825201162
hakim@@ 1
hifad@@ 1
ink 0.28553508169305103
kel 0.21429072755870868
kinson 0.6648230791998031
leg@@ 0.1359364282899136
marathon 1
ry@@ 0.4655750907207092
sag@@ 0.7060932487946668
ship 0.057099586607464684
stan 0.8538591107496774
thr@@ 0.24262760593762117
time 0.01347219931601357
umer@@ 1
ém@@ 0.19406423159265246
ž@@ 0.3053784587870988
بن 0.2954731707616827
1227 1
149 1
153 1
163 1
2.6 1
275 1
670 1
Aaron 0.6954228495596899
Alexandra 1
Alo@@ 1
Anglo 0.6133376373116073
Apollo 0.8740146577896921
Bonn@@ 0.534073995130132
Bridge 0.23411812194090315
CI@@ 0.31634431680960673
Caroline 0.5227212716757096
Chak@@ 1
Change 1
Cir@@ 0.41759385390821896
Climate 0.7702782083240474
Comics 0.46101104813521254
Corona 1
Dakota 0.45135359463700336
Dok@@ 1
Du 0.325698146837289
EU 0.33501283430047996
Eff@@ 0.3506100450211769
Estr@@ 0.5587091652588047
Evans 0.45869655402577353
FF 0.4688525976376358
Gardens 0.8585756689004673
Gib@@ 1
Gibraltar 0.9219288723263713
Gustav 0.5183471842906454
Hannah 1
Islands 0.23797735958347885
Ja@@ 0.6506432988580684
Last 0.4207890074878281
Lives 1
Loc@@ 0.2712939916708839
Lynn 0.9782265501069327
Mao 1
Mars 0.49128476933495374
Mumbai 0.8823880660037878
Muslim 0.32900986926762243
N. 0.42854938754790345
NL 1
Never 0.9171624171535077
Ober@@ 0.06497975632788555
Ox@@ 0.5022332374311083
PP@@ 0.6328511069291614
Plata 0.6762370636509546
Play 0.40427789339803955
R.@@ 0.4866749921997856
Raphael 1
Republic 0.12080314200090544
Research 0.13901205184160464
Rouen 1
SM@@ 0.7261715208620759
Sax@@ 0.5731861528071877
Series 0.14736367560268704
Shakespeare 0.6315886485320179
Social 0.21136111502521387
Sog@@ 1
Soy@@ 1
Square 0.31114769115572466
Stan@@ 0.5732654326633518
Two 0.12278315337189101
UR@@ 0.8553861534791217
Vancouver 0.4313837839854258
Werner 0.5153822203488962
Wh@@ 0.2798415558396476
Yamag@@ 1
alt@@ 0.11955124673015213
aly 0.8301237521946744
bank 0.14902697578592114
ben 0.09984434992167218
boro 0.7916105532666072
ean@@ 0.6201369269333186
ege@@ 1
epidem@@ 1
erry 0.6898563520500501
eton 0.35707134651423245
fan 0.4069119311890515
formes 0.2912302796877852
ful 0.10256974643812844
haribi 1
inan@@ 1
ingham 0.5009144171825143
inter@@ 0.029018795573708057
ix 0.2879815719131323
jem@@ 1
kala 1
magazine 0.12294009182987779
mina 0.838243516047063
nazi 1
nio 0.9474485992162036
oine 1
one@@ 0.8654699607859773
onz@@ 1
pha 0.9489671043499306
phine 1
qa 1
raine 1
soul 0.6372651951900101
stown 0.9399671483059545
tima 0.7902521423123434
tow 1
ude 0.7879984547121993
ulima 1
umbr@@ 0.9133040845025685
vel@@ 0.22030494232448905
vers 0.049844780809437904
vu@@ 1
wer 0.16813838163060602
är@@ 0.11933501532358501
şehir 1
ד@@ 1
ל@@ 1
1250 1
133 1
138 1
166 1
168 1
178 1
1806 0.4988360705739082
1855 0.3692683671656469
192 1
253 1
259 1
286 1
30.@@ 0.9416347255578235
315 1
345 1
377 1
525 1
720 1
980 1
Anj@@ 1
Augustine 1
Bei 0.06879019117739421
Bello 1
Bird 0.7339610083728904
Bov@@ 1
Byrne 1
Camp 0.3853224054051335
Celtic 0.7328169040181478
Chiefs 1
Cran@@ 0.6846454715244359
Edmund 0.7300497490556928
Ef@@ 1
Empire 0.11752283680899853
Express 0.3385855879918881
FBI 0.7233102825893919
Fall 0.2666809582578388
Fernández 0.5392578200471149
Flora 0.7402505038533781
Francesco 0.6087728442311006
From 0.06888228433176735
Goldman 1
Hey@@ 0.5987183070820978
Hud@@ 1
Hul@@ 1
Hull 0.8653850836785383
Islam 0.4203645736517418
Lang 0.8883830641009309
Level 0.9373657970087523
Louise 0.443432954033937
Nice 0.8219374521216505
Oran@@ 1
Peg@@ 0.7473359002423361
Pompe@@ 1
Provence 0.6930278447384821
Région 1
Still 0.8855119143150987
Thur@@ 0.7806329796452082
Tommy 0.5896748448398691
Vasco 1
Vol 1
WT@@ 1
Will@@ 0.3782729293057384
Yorkshire 0.48478999390475885
Za@@ 1
Zw@@ 0.290627926065478
ads 0.16147396937791325
ages 0.05156492423402394
also 0.0070749760512484675
ardo 0.7152822543720491
astani 1
ater 0.2567081097771634
ault 0.1973111788470004
aziz 1
born 0.022337611747835554
china 0.961770897546774
dov@@ 1
ect 0.09086224705808083
entia 1
err@@ 0.13902841657503698
esti@@ 0.1984377344841955
formula 0.02791313543972845
head 0.05918896051199265
his 0.003977300880091942
ici@@ 0.1533918132901101
itar@@ 1
jiang 0.8563910527033941
kund@@ 1
mel 0.45429459859301385
mifu@@ 1
neutr@@ 0.47109050766834387
off@@ 0.0951695663074225
otr@@ 0.4311761399364929
otte 0.47404066740770384
prop@@ 0.1913282356152169
sin 0.07465825714428381
spir@@ 0.3650129411256028
tier 0.16396984050666735
tina 1
tions 0.0414727037182525
tum 0.4607245336973055
tuz@@ 1
wn 0.2288055975863744
zen 0.10028966580843802
1492 1
169 1
1750 0.9437867746343002
221 1
241 1
285 1
321 1
332 1
362 1
404 1
587 1
76@@ 1
780 1
870 1
960 1
Adr@@ 1
Aff@@ 0.3901431036567723
Bash@@ 1
Bed@@ 0.2808160500024421
Ble@@ 0.41753738234651877
Boris 0.7213493262075498
CV 0.9981365882105425
Cardiff 0.8249766111281371
Cha@@ 0.9611279413323435
Constantine 1
Crystal 0.868424024995637
Cun@@ 0.9366108417794023
Ec@@ 0.320432321431201
Ellis 0.7943608690610579
Floyd 0.9659044971215331
Georges 0.29264975475095395
Harmon@@ 0.9202516877668412
Herald 0.8831026515616287
Hez@@ 1
Hizo 1
IB@@ 0.7076682612295541
Il 0.01254281464485033
Jung@@ 0.4073093420763039
KA 0.9217064011524987
Kids 0.8857858211160909
Königsberg 1
Latvia 1
Lima 0.4736516279561585
Lind@@ 0.3090135405373265
Lisa 0.5781762438379097
Liv@@ 0.4070553211147648
Mess@@ 0.2868825005260035
Miss@@ 0.4859522853090967
Mo 1
NA@@ 1
NS@@ 0.333358948343741
NSDAP 0.9481248011334972
Nagasaki 1
Nh@@ 0.7977809030863868
Nina 1
Pac@@ 0.5845054560880065
Pacific 0.14540580688312865
Panther 1
Pieter 1
Plu@@ 1
Pé@@ 0.8248676827818597
Raw 0.8247121207483318
Reading 0.8183382649552808
Robinson 0.3837477640728026
Run 0.6000488515420332
Réunion 1
Saw@@ 0.848046391084829
Semin@@ 0.4180682804435932
Springs 0.5457562924655588
Stuttgart 0.38495374257414494
Tow@@ 0.5237796167526685
Turk@@ 1
Us 0.8134367597224758
Weimar 0.8914193734366206
Yous@@ 1
Youtube 1
abri@@ 0.6001394348975572
aise 0.1733076004354661
anon 1
apr@@ 0.7076797132841424
aris 0.6302566866423621
arius 0.6525263769294403
asc@@ 0.18478371737442922
aç@@ 0.3458558553212984
bac@@ 0.3146635020880036
back 0.0358710197708804
body 0.08134140640175645
cius 1
dok@@ 1
ebr@@ 0.3503529955830112
eed 1
eem 1
entino 1
ezaliwa 1
hit 0.13338404773688298
iken 0.3104063727733356
kong 1
log 0.9576760222210606
mon 0.39990818742105966
n.@@ 1
nu 0.6111945687945366
okol@@ 1
oupe 1
plan@@ 0.11187726145416292
ras 0.38626283147561513
ris@@ 0.296786883951246
tics 0.1410984493259089
ubio 1
uck 0.23135920536825272
uela 0.6510012832744856
umuisha 1
unt 0.27566479363246865
ush 0.278542648602714
yin 1
zer 0.21718579688443157
än 1
ה 1
ע@@ 1
Ἀ@@ 1
134 1
147 1
1597 1
1807 0.5914124418864236
1824 0.5241235244535708
1843 0.450648882924575
235 1
248 1
249 1
252 1
269 1
333 1
334 1
344 1
347 1
366 1
395 1
40,@@ 1
405 1
660 1
AB 0.4674573445196931
AFC 0.6836502996067181
AK 0.9696403943561075
Acc@@ 0.4765130652409689
Albion 1
Arabic 0.5602451339338776
Arnold 0.44341687480578296
Beirut 1
Bobby 0.5248111903532499
CI 0.7539977275540586
Charlie 0.3732833906650961
Chr@@ 0.6534439763489303
Christi@@ 0.9564229498743818
Conference 0.1591300146744841
Corn@@ 0.3833092451739545
Dad@@ 1
Darwin 0.8836205175150935
Dod@@ 0.5419152813643954
Dorothy 0.940451043877798
East@@ 0.7888660401230962
Eminem 1
Fuk@@ 1
Fut@@ 0.4610322292979866
GT 0.5661815356626
Gall@@ 0.50264744162443
Hydro@@ 0.5973305282040778
ID 0.6270684063480322
Jacqueline 1
Jay@@ 0.7830496360437371
Jesus 0.3027832549742039
Joan 0.50275962653446
Julian 0.6735478881858017
Karab@@ 1
Larry 0.5518654762024188
Laurent 0.5074207688016146
León 0.3441061827213265
Like 0.2416586791573471
Mad 1
Mai 0.0729143595653046
Marina 0.6198216852064906
Mason 0.6352776673822743
Mediter@@ 1
Mens@@ 1
Metro 0.3493215723323669
Metz 0.8892567422995759
Nixon 0.9929686334333708
Not 0.33611276293705405
Nova 0.42996420649245637
Number 0.9518286484650309
Olivia 1
Order 0.1807314866325131
Pang@@ 1
Rel@@ 0.22669933159006858
Rights 0.38673817425727697
Rodney 1
Ron@@ 0.8547847457985378
Singh 0.40998454898632664
Six@@ 0.5665187759848388
Summer 0.12852213409229163
Tanaka 1
Tunis 1
Twitter 0.5835664013372772
Va@@ 0.8314378655880993
adha@@ 1
alan@@ 0.40016387118888685
aqu@@ 0.17381104517015067
bag@@ 0.8970286296581348
betr@@ 0.338896580993876
bit 0.19009094626758716
bula 1
chel@@ 1
chen 0.07232392896507084
chum@@ 1
city 0.03252106046714804
dell 0.9112765773176611
dida 0.9768996395252121
dos@@ 0.4908698849307114
dy@@ 0.42096908632712293
far 0.135594277806786
fis@@ 0.8356912429342689
hib@@ 1
hif@@ 1
ily 0.39626259855084844
imbali 1
jou@@ 0.27269784649173995
kham 0.881745509000383
kitaal@@ 1
las@@ 0.3623120884354405
lington 0.6041262316415689
migu@@ 1
ods 0.16942347234346544
orius 1
pei 1
pers 0.22413149946783648
pes@@ 0.40790971652969826
sle@@ 0.28880232531396227
trol@@ 0.3817706607576429
tron@@ 0.3561763159562151
uge@@ 1
è 0.7807498678720624
éré 0.3963396581738581
ę@@ 0.40285317489202566
ן 1
152 0.9877443160036066
1540 1
176 1
1813 0.47801682624816616
1818 0.5093364533487041
1842 0.4232533769808526
197 1
238 1
263 1
287 1
32.@@ 1
329 1
348 1
379 1
409 1
413 1
44,@@ 1
538 1
642 1
787 1
86@@ 1
9000 1
AO@@ 0.735158706496179
Alfonso 0.5114206086684444
Archi@@ 0.5848429804176066
Bach@@ 0.41752586568684563
Bomb@@ 1
Bradley 0.8043472895661598
Chau@@ 0.8232303148068596
Chess 1
Collins 0.4705706461413963
Edo 1
Emily 0.7300314510326728
Eul@@ 1
Fle@@ 0.3152490988229921
GSM 1
Galileo 1
Gertru@@ 1
Got@@ 0.3602141679449123
Gri@@ 0.36547453615576614
Haute 0.43566405297411037
Hood 1
Isabel 0.5855791361110596
Jon 0.5328805911912243
Kara 1
Kingdom 0.11633743490797888
Klo@@ 1
Lane 0.38391598869489796
Lap@@ 0.5433080791430094
Leicester 0.9276707983133975
Madison 0.4902119611183206
Management 0.24849691562799722
McDonald 0.877638371959605
Memphis 0.7465230861726077
Middle 0.2014651452475731
Nero 1
Oklahoma 0.32129697354909587
PD 0.7669388714867634
Petrus 1
Powers 1
Rangers 0.4366818640927491
Rey 0.44882933999825136
Roberts 0.4960722946266306
Schalke 1
Sv@@ 0.6748790104944694
Thu@@ 1
Tit@@ 0.23162517874729968
Toulouse 0.5154944942389609
Tsu@@ 1
VI@@ 0.3816796460380032
Vision 0.8222602869418083
Xbox 0.7214276032716521
Zag@@ 1
acc@@ 0.08958570935767292
akt@@ 1
alta 0.33225537876997263
ander@@ 0.2761839961152828
angep@@ 1
anu 1
asit@@ 1
aste 1
asti@@ 0.3879894528149904
asuaji 1
awo 1
berto 0.709171643141546
comment 0.6920691881035534
con 0.006476806011371112
cy 0.25921049614663105
cy@@ 0.268309914264602
dit 0.11265112386413059
ender 0.11503113821233044
enes 0.2912640177186724
enna 0.8429703398714868
enton 0.5377397679365657
ewski 1
gil@@ 1
gs 0.19646432119314397
hard 0.17851445277251551
hero@@ 0.7543101556754441
ider@@ 0.35725128892803587
kno@@ 0.48082194112331195
len 0.11073011835089436
lers 0.10928473052016423
mchang@@ 1
oir 0.19533783922608927
onto 0.27335131200473245
right 0.06837443221112699
ski@@ 0.29863266248521353
tara 1
taz@@ 1
tion@@ 0.13678058264292184
uano 1
ushima 1
vera 1
yk@@ 0.9889107870067049
132 0.9070357951761421
1825 0.4784165453100917
1828 0.4813245619337507
183 1
187 1
188 1
198@@ 1
21.@@ 0.6352952408447288
282 1
29.@@ 0.8133642066889549
317 1
337 1
3500 1
384 1
411 1
417 1
453 1
483 1
54@@ 0.9665697229435761
570 1
590 1
790 1
AN 0.40003381521487574
Action 0.41616155464685606
Adel@@ 0.5862507248149154
Augsburg 0.9733721822980854
Baker 0.3968963103043701
Blake 0.7113650845399683
Bonn 0.5217426734544283
Bow@@ 0.2860231158320653
Bronx 1
Brun@@ 0.41271294536292324
Bryan 0.6974167495489885
Carol@@ 0.8520805189875362
Chand@@ 0.8726963956273618
Chang 0.9479706528799882
Clermont 1
Cob@@ 0.44591069181216825
Cola 1
Cyn@@ 1
DL@@ 1
Dy@@ 0.5031532061116594
Dz@@ 1
ER 0.6480775782060341
Evening 1
Fan@@ 0.8738513226595055
Federal 0.16529747612852302
Fom@@ 1
Fou@@ 0.8378849900793117
GR 1
Geb@@ 0.37655154584004163
Gou@@ 0.8370968923092293
Grey 0.6024791484345362
Health 0.17941563947442885
Iberia 1
Industry 0.5660430088527504
Jag@@ 0.45564291884467467
Kond@@ 1
Laf@@ 0.9630680706503368
Lal@@ 1
MIT 0.9802006564017423
MV 0.8447662212718248
Make 1
Marino 1
Marne 0.7014316904870243
Mou@@ 0.6844394391827192
Non@@ 0.6363617523708699
Pall@@ 0.8409658925509987
PlayStation 0.4545754010134929
Rogers 0.5144132063640325
Rotterdam 0.9985623839034873
Ruby 1
SI@@ 0.5033635466830012
Say 1
Shik@@ 1
Sud 0.1730577504312812
Tali@@ 1
Telec@@ 0.8030100940582003
Tend@@ 1
Tog@@ 1
Tyler 0.7512719177743045
Under@@ 0.4380758102049734
Vegas 0.45993259951326426
Ves@@ 0.7819214358209059
Yar@@ 0.6805143139891815
Yv@@ 1
Zar@@ 0.6246137743965819
act@@ 0.21922322628208996
aff 1
agn@@ 0.2040738980567929
ale@@ 0.5741884264193772
ality 0.1220647745753431
andro@@ 1
atar 0.9404792238749178
benz@@ 1
bish@@ 0.5950877333421786
bridge 0.12599076317955532
cha@@ 0.7376274412222333
dag@@ 1
diki 1
dizi 1
ekee 1
elec@@ 0.15211912908602013
eran 0.06413222227051944
evich 0.9170114822882173
gana 1
hee 1
icia 0.6288255808441136
ideae 1
ife 0.4409113592236505
ig 0.15662719887701448
ilde 0.5777538578765601
illi 0.5786030756169199
ister 0.16679185420768047
ket@@ 0.4070622103097798
kle@@ 0.3784521434275495
nataka 1
opoli 1
otro@@ 0.9166008556169437
oui 1
pan 0.5087619999909924
swana 1
tap@@ 0.33309787000646984
uca 0.6505595292357287
union 0.1600695212477231
vali 1
zor@@ 0.8949797917774341
ép@@ 0.18422181199978027
1795 0.573329140614096
1799 0.6398718520211345
1822 0.5276790743797607
1829 0.47678131681809305
228 1
244 1
262 1
268 1
341 1
342 1
375 1
429 1
509 1
605 1
760 1
ADN 1
América 0.2723250003027156
App 1
Arab@@ 0.30510426534895224
Authority 0.42405379466945203
Beat 0.998194341944399
Bod@@ 0.32089049903331296
Boul@@ 0.510887570480558
Buc@@ 0.2558996285104958
CDU 0.5431821904457677
Clark 0.27133875047964695
Dand@@ 1
Democracy 1
Dortmund 0.8496024170111796
Edith 1
Edwards 0.5179043302931154
Fischer 0.5749605147585465
Fraser 0.8058457021324819
Fuj@@ 1
Gate 0.6906255272561057
Gilbert 0.43904251670167416
Greenwich 1
Gron@@ 1
Hannover 0.42262932224318617
Hap@@ 1
Hunter 0.44871333871082697
Ih@@ 1
Justice 0.1878947988760371
Karat@@ 1
Lep@@ 0.775105632242739
Lionel 1
Living 0.768598521140997
Mae 1
Maine 0.3402904383652014
Meyer 0.5946850694810034
Mix@@ 1
Montana 0.5362799235895322
Net@@ 0.5144348534109121
Pete 0.6781008359091111
Rivers 0.9156339951819078
SMS 1
Sanders 1
Spencer 0.5928785071496615
Syn@@ 0.2834978027952061
True 0.9234962357055942
a- 1
abol@@ 0.23891595805226032
agar 0.6660112434990255
agh 0.6371815164751308
ago@@ 0.4994086706045719
anos 0.11604843809127985
anton 0.9769639436284786
ayashi 1
ayn 1
azak@@ 1
bot 0.26563507897270167
ders 0.10986069213642156
dolar 1
dé@@ 0.023088764901722778
eni@@ 0.8508853130470749
erie 0.17643210997937717
ery 0.14027631075537741
fak@@ 0.6763583828288247
gig@@ 0.5496672128192323
isario 1
ities 0.15645115248145852
izu 1
lett 0.6583181528198483
ll 0.5420855960906912
lum 0.2834375503487192
mio 1
not 0.009080738826511642
og 0.35058383648329355
par 0.006152939458823174
pek@@ 1
px 1
quar@@ 0.27439442152621935
riwa 1
sap@@ 0.8153710650418493
tive 0.06239035687303565
tori 1
tuk@@ 1
ulata 1
umani 1
usho 1
var 0.4550468303663868
vie 0.09745034129365067
ways 0.12557753971152727
zif@@ 1
ón 0.050993232642745114
ς 0.4700096028038658
県 1
143 1
148 1
1520 1
1572 1
161 1
184 1
194 1
2.3 1
232 1
26.@@ 0.6741455349366321
288 1
318 1
336 1
339 1
346 1
355 1
356 1
357 1
422 1
50,@@ 1
515 1
580 1
58@@ 0.8814696551930109
604 1
622 1
625 1
Alum@@ 1
Amy 0.6928880693571119
Ansel@@ 1
Arap 1
Arn@@ 0.36165430454839015
Atlético 0.5751275880270174
Avenue 0.168104283775861
Broadway 0.29863281462720187
Bros@@ 1
Buffalo 0.4677446463465845
Ches@@ 1
Coca 1
Como 0.21386927661816854
Const@@ 0.7691498065949919
Danger@@ 1
Département 0.4297754706926628
EA 0.7304471901095676
ESA 1
Feder@@ 0.43136473666186587
Five 0.32955408819160015
Flav@@ 1
Forest 0.23451794507460602
Games 0.11061504644651637
Gran 0.23883361074478066
Gros@@ 0.4238002171552859
Hass@@ 0.8624058045962915
Hend@@ 0.6471614040751151
Hopkins 0.7783260481132839
IS 0.3172446356849469
Indo@@ 1
Jeremy 0.8464163014938975
Knight 0.39294312944868526
Lay@@ 0.9156734124627258
Leipzig 0.2483094367262799
MB 0.8700089993470569
Marx 0.6024635271286346
Morning 0.6226211558165787
Moss 1
NO@@ 0.319198489076436
Nakamura 1
Naw@@ 1
Neo 1
Original 0.4857994582821168
Pach@@ 0.5883320921332053
Pter@@ 1
Rice 0.7161506812482225
SH@@ 0.6301613246201886
Sabah 1
Sales 1
Sark@@ 1
Sed@@ 0.5854060314538717
Set@@ 0.8513211385676699
Stor@@ 0.38531813113719215
Tao 1
Toch@@ 1
Top@@ 0.38339017957452076
Turner 0.4097492342920988
VfL 1
Viol@@ 0.3638328435173848
Web 0.5449172298808009
Winston 0.9321421230272584
aeus 0.9132766417460504
alp@@ 0.33254358431553743
apia 1
asco 0.8270167236026359
assé 1
aud 0.15799702518313927
bomb@@ 0.2622451194093961
book 0.048011974336330025
by@@ 0.2951681299137549
cur@@ 0.0654489510159824
duk 1
eia 1
ensi@@ 0.3122259046314457
eraha 1
habit@@ 0.17421667628293128
hair@@ 0.8249043595227609
high 0.03530723978560952
holanzi 1
hydro@@ 0.19473471512837612
ider 0.1990130078614369
iman 0.9933955519770135
kopo 1
lamu 1
language 0.07112354961437488
long 0.03249073100345272
mbal@@ 1
million 0.046822269911074015
mut@@ 0.1410902659236523
new 0.016942131028237935
otti 0.7986714264275124
pes 0.18000338200745175
poda 1
prim@@ 0.16406862913096604
tawa 1
v. 0.18553004901330175
wald 0.2367514493134118
wanza 1
ä@@ 0.048203146206937414
Š@@ 0.2748675484006707
محمد 0.50906264865071
ه@@ 0.22756661478244927
∘ 1
1,200 1
162 1
173 1
1809 0.5102765021986656
1812 0.3476606580683883
1834 0.4061729240616487
191 1
254 1
276 1
36.@@ 1
373 1
386 1
609 1
632 1
8.5 1
950 1
98@@ 1
ACP 1
Ado@@ 1
Airbus 1
Airways 0.9159566132316088
Andre 1
Android 0.6574706323096419
Bahamas 1
Blood 0.5813878080906812
Bundestag 1
CR 0.5336396081452318
Cann@@ 0.7457726194062803
Chart 0.3504875050795653
Ciudad 0.2977874307427562
DO 1
DR 0.4674397871323373
DS 0.28403616389342284
Dark@@ 0.8640880906919916
Forever 1
Fuku@@ 1
Geoffrey 1
Hall@@ 0.4624083132666252
Hard 0.7844007366987445
Hop@@ 0.4617702153182352
Hou@@ 0.6392908068754197
Jul@@ 1
Kay 0.6894215211152485
Köln 0.3042061947502017
LM 1
Lahore 1
Manz@@ 1
Mar 0.45347060325079697
Ming 0.9181169922471731
Mist@@ 1
Nez@@ 1
Nicol@@ 0.5734608254091885
Oce@@ 1
Oh@@ 0.5913739753494976
Ple@@ 0.3541578720302843
Rahman 1
Rama 1
Rein@@ 0.2797371931353673
Rodriguez 1
Rou@@ 0.29404824545697733
Secret 0.5936655518047564
Seven 0.4197643132942709
Siy@@ 1
Spir@@ 0.453088200342895
Stoke 1
Stuart 0.4582919187865069
Swan@@ 0.8396856998056403
TH@@ 0.7298771864667287
TS 0.41445136052181614
Takri@@ 1
Tang 0.6531703483985694
Terr@@ 0.41039396935979133
Troyes 1
Vas@@ 0.2950717497882169
Vu@@ 1
Wang 0.4378609669991856
Wes@@ 0.28071497132249196
Wiz@@ 1
Wolf 0.38010542967756444
aer@@ 0.2915069157894459
agne 0.3122744658923064
alisi@@ 0.8490865613397001
aran 0.37120633109723983
aurus 0.8234810799324349
bano 1
bid@@ 0.541463969282643
blues 0.6402349796567879
chur@@ 1
coc@@ 0.32302331177914617
devi@@ 0.9818485323622382
eksi 1
enko 0.4970651373083945
eon 0.46393229751626647
eville 0.49776561272306225
ial 0.15812740066351103
ix@@ 0.48149342439377546
kum 0.9469000180671195
kö@@ 0.3081178349544059
lai 0.8679414139941309
mano 0.35741634212672907
mg 1
nig@@ 0.5532188791094327
nova 0.9635949639513511
nur@@ 0.3407814853037291
oker 0.41747205047024494
ost 0.17469243181498478
owo 0.6137422135895174
prom@@ 0.10018873100273414
ret 0.29072713506740877
rod@@ 0.38435644001440833
shut@@ 0.7380818618142603
sley 0.5446412299458903
stil@@ 0.662805334512554
than 0.019474818336436408
tria 1
ture 0.10078322548464662
uld 0.4969421093971217
unc@@ 0.13281259279277946
zoni 1
ël 0.7601124001807249
Ş@@ 0.3816760818412579
1519 1
159 1
1802 0.515732606730064
1811 0.5133282920756439
1833 0.4115231189551774
292 1
327 1
387 1
476 1
484 1
69@@ 1
730 1
79@@ 1
Again 0.7086180353014667
Airlines 0.39595008066459214
Alber@@ 0.5368683962331164
Amad@@ 1
Andorra 1
Athletic 0.32640193497863007
Back@@ 0.5010207965761795
Batman 0.6787395880595324
Bonaparte 0.9835705973220311
Borussia 1
Call 0.6901043543865815
Captain 0.2123379841395092
Deutsche 0.2062038907410373
Doha 1
Dop@@ 1
ESPN 0.8898983270065596
Economic 0.4182239134282702
Eduardo 0.4984040795477393
Four 0.2156513627344165
Freeman 1
Giuseppe 0.5935967308696981
Gob@@ 1
Hash@@ 1
Hippo@@ 1
Hiroshima 1
History 0.037791724248927794
Honor@@ 0.46244769234295074
Jorge 0.31620499432513455
Kaya 1
Kid 0.8201623657293917
Koch 0.7569728640131053
Kru@@ 0.6666785102027467
Lakes 0.8514602569679327
Let 0.4565815002768679
Liberation 0.921654437286554
Linda 0.6830998262222774
Low@@ 0.965154633750897
Lud@@ 0.5626117191284838
Mans@@ 0.5798265666267054
Maya 0.8522791937361074
Mountains 0.33052101944963974
Nord@@ 0.0987299159119069
Nottingham 0.8721925390093586
Osh@@ 1
Ost@@ 0.14688402682175056
Pain 1
Phillips 0.5433107229393489
Pointe 1
Prom@@ 0.3523533995935464
Quincy 1
Radi@@ 0.2670818944804973
Region 0.10008155493067022
Reims 0.9736893449511639
Rig@@ 0.6245670817108584
Rost@@ 0.9796095976012934
Río 0.2432060004186707
Samoa 1
Samsung 1
Sharon 1
Sn@@ 0.4154415117717066
Sob@@ 0.9341464278524219
TH 1
Tac@@ 0.4863484375106938
Takah@@ 1
Tap@@ 0.5100220335480504
Tau@@ 0.5497308434449761
Ted 0.5770665152117768
Theodor 0.5925288218953422
Torino 1
Trabzon 1
Tub@@ 1
Vanessa 1
View 0.829170721445212
Wind@@ 0.31985740169882376
XXII 1
Yahya 1
adv@@ 0.2285458956551567
aea 0.7470208914326958
ains 0.06062125419764458
anen 1
arian 0.2594373655113718
arin 0.7011025512785083
atas@@ 1
atra 0.714783126528162
away 0.07067851657905916
bek 0.7072713903587604
beth 1
bey 0.5067994965966057
ceph@@ 0.9788109258098607
ches 0.05455734258236351
chu 0.923071699002166
codice 0.33954937442584787
daf@@ 1
della 0.5600801780597191
dez 0.5866909614740579
dir 0.16512999188962887
dium 0.31267970991513133
ective 0.15446527947302197
eless 0.21585773844694423
enc@@ 0.06674903793789191
igh 0.3973238799195936
iso@@ 1
itas 0.30568396014873256
kn@@ 0.1515388191667142
loy@@ 0.3371745590874102
lut@@ 0.45489058169634716
mere 0.6800542297598687
micro@@ 0.16689684044587497
mix@@ 0.19410309706930393
nes@@ 0.5644890541940565
number 0.025385726244237728
ornis 1
outh 0.6096703715630819
pera 0.9229343541740442
phon@@ 0.2833813880141955
qi 0.4543907385547864
rap@@ 0.1192011089255703
rel@@ 0.05318751851702828
rh@@ 0.4546016493876526
sev@@ 0.9855239866557658
thal@@ 1
urg@@ 0.1756371093401495
xi@@ 0.20999214494035126
ð@@ 0.49304922675094504
μ@@ 0.28340944130420603
☉ 1
0.3 1
000@@ 0.9352292432027481
141 0.9416606886276536
142 1
1816 0.4475112181667196
198 1
2.7 1
2.8 1
219 1
245 1
246 1
293 1
295 1
298 1
319 1
322 1
324 1
349 1
374 1
378 1
382 1
391 1
408 1
419 1
432 1
445 1
449 1
56,@@ 1
616 1
620 1
88@@ 0.9593362759092301
Alberta 0.41061064619585874
Animation 1
App@@ 0.2530025772094588
Baj@@ 0.8854133332422377
Beni 1
Bermuda 1
Blu@@ 0.2633492607320316
Boc@@ 0.7130316683945418
CDC 1
Carl@@ 0.4138796080555076
Challenge 0.3561589124520693
Cic@@ 0.5467034476793116
Classic 0.40233387628772965
Clement 1
Columbus 0.573361373977162
Connor 0.6780822707378747
Corr@@ 0.8624131247330218
Creek 0.13674384858634414
Cube 1
Denizli 1
Dhar@@ 0.9584747255940893
Dick@@ 0.431971413357459
Dit@@ 1
Dream@@ 1
Eas@@ 0.46947193971338447
Eddy 1
Federation 0.22577568977461954
Fire 0.27876541934598315
German 0.04486926289686436
Gulf 0.375294962573474
Ham 1
Harlem 1
Herr@@ 0.2680353567802471
Hew@@ 1
Honey 1
Indi@@ 0.21399486130287154
Jeh@@ 1
Jel@@ 1
Jesse 0.7266825800794359
Jessica 0.7976018163812865
Joy@@ 1
João 1
Kings 0.41542902683824046
Labrador 1
Lenin 1
Loire 0.31617882001155934
Luigi 0.8074700068151633
Metropolitan 0.32169518024332333
Moldova 1
Monaster@@ 0.8579881927568777
Nass@@ 1
Neu@@ 0.1169526368526336
Nick@@ 0.7075123739718185
Nil@@ 0.8710039278045805
Paolo 0.8756912649323478
Parker 0.3672911315869734
Place 0.3007093223414625
Pod@@ 0.27772212121833645
Poitiers 1
Portsmouth 0.7813883726235842
Python 1
Rag@@ 0.5583801839821905
Rat@@ 0.30876419625321533
Recording 0.7603967778602004
Ring 0.43733903770267835
Row 1
SD 0.5481900872626919
Small 0.5768889943922454
Sos@@ 1
Talent 1
Traf@@ 0.6859267066701944
Tribune 0.8626386458163944
Trinity 0.4388039740766265
Twe@@ 1
UT@@ 0.9210339265004982
Vall@@ 0.5411350736875588
Ward 0.3704937068496317
Water 0.286479253434387
adre 1
ajara 1
aly@@ 0.29623889426465916
amus 1
angazo 1
arama 1
arina 0.6852013791356665
atis@@ 0.3367630729477562
atoliki 1
avius 1
aï@@ 0.25658592465292973
bik@@ 1
dam 0.3505539848740412
dong 0.9600215523643216
ennes 0.13627498671033034
enny 0.5043068437649975
esper@@ 0.35891016721824903
hik@@ 0.7395678107870505
iano 1
ices 0.12410697793404094
iger 0.10087650990299744
iné 1
issen@@ 0.5763300822125509
keno 1
lain 0.48199368581080726
lars 0.6772722878096724
leigh 1
oc 0.6460076309174952
oefu 1
otran@@ 1
ough@@ 0.18736843140389448
pam@@ 1
pod@@ 0.6830860027157604
pour 0.006956623234937283
rania 1
sella 1
sons 0.12659264184461727
stati@@ 0.3997498693047197
this 0.009252657054605196
ties 0.06110293523993942
tili@@ 0.4645673947466569
tiv@@ 0.16611303719559722
urus 0.66910485757978
wes@@ 0.28664445333249045
ín 0.1168321408811186
î@@ 0.2853506018610842
ü@@ 0.07099278006058404
ʻ@@ 0.8700432693856338
ν 0.4527655454022912
† 0.058322743535195336
1610 1
1780 0.6096151839798772
1801 0.45271336944730306
1803 0.4349369726103126
189 1
2,500 1
2.0 0.5327496224040159
2.1 1
236 1
239 1
243 1
265 1
274 1
343 1
363 1
4.3 1
403 1
444 1
46,@@ 1
668 1
690 1
820 1
910 1
AE@@ 0.399512553141447
AF 0.3071056688248291
Abel 1
Against 0.7552217498390491
Akira 1
Alpes 0.3781763299583378
And@@ 0.560768619198492
Anita 1
Antalya 1
Anth@@ 0.5611424174781762
Arc@@ 0.4426418628932961
Aud@@ 0.5826227476388716
Australian 0.06658103689339927
Bhutan 1
Bing@@ 1
Bj@@ 1
Burg@@ 0.2792592998899352
Bursa 1
Burton 0.6848576577783466
Carlo 0.4146850428738218
Commercial 0.6701122292647155
Design 0.21445184625651226
Dong 1
Drake 0.778502321658995
Dé@@ 0.1582532280017408
Ed 0.42586858230908575
Enrique 0.3902220762473227
Exchange 0.5444816656471745
Frank@@ 0.44835036508787734
Funk 1
Gener@@ 0.1855923773553847
Have 1
Her 0.07685652615571291
Hindu 0.4849861655436739
Hispan@@ 0.9721592961166081
II@@ 0.4229444164848189
Imperial 0.2663728043550957
Journ@@ 0.6112381827063295
Kai 0.9384096780652632
Kashmir 1
Ken 0.43900892062610875
Kisov@@ 1
Korn@@ 1
Logan 0.7879403958028374
Mahar@@ 1
Mine 0.7254244330098057
Moreno 0.7925680663632576
Mous@@ 1
NY@@ 0.5727505052642096
Nec@@ 0.5837771227683467
Negro 0.623438803788703
Orig@@ 0.7156743809174527
Phil 0.41349684747812926
Prin@@ 0.4065923944946402
Publi@@ 1
Rebecca 0.9196634527367646
Record 0.5775689597566799
Rihanna 1
SU@@ 0.9964619085864642
Shanghai 0.4299023800258371
Sisters 0.8213264597766428
Songs 0.2684784302802366
Spider 0.5945659946938573
Sul 1
Sutherland 1
Terry 0.42530507434519704
Text 0.5161225832136068
Things 0.9530300396362413
Tonight 1
Uru@@ 1
X. 0.7053236003922941
Yon@@ 1
alog 0.4975088499650318
anie 0.3718053866749208
annes 0.6505089314186215
ares 0.1209404658879031
arro 0.9050443209047488
atis 0.8813995473018128
biom@@ 0.9120952801688401
dec@@ 0.060802587533645834
digit@@ 0.6060622825682217
dinosaur@@ 1
dt 0.4275422499058602
ection 0.09149583605820742
emir@@ 1
evo 0.5438367932638845
ew 0.3003488119103699
glo@@ 0.3836629747758116
heter@@ 0.549328984672326
ift 0.44374739812574415
ignan 0.9923506536940391
ils 0.035547029063273124
irini 1
jur@@ 0.21872501633465874
kes@@ 0.30706032776468734
kri@@ 0.32816162315613295
lag@@ 0.1422217184985777
lane 0.3903858033793936
meridi@@ 1
nin 0.1274492510902937
nm 1
oba@@ 1
oji@@ 1
ological 0.06889707166025222
osp@@ 0.32103421717800223
plant 0.11023162006336745
quot 0.44680358692393624
ross 0.49816075521268244
sist@@ 1
tarak@@ 1
ths 0.15037879787196498
tib@@ 1
tos 0.11270213008091688
tou 1
umin@@ 0.376456962280954
öl@@ 0.1663003934059477
ık 0.594476022538292
ח@@ 1
כ@@ 1
0,0@@ 1
1220 1
158 1
1622 1
164 1
1648 0.9874943561661182
1826 0.4255801345579688
186 1
247 1
25.@@ 0.5728696416391521
266 1
271 1
3.2 1
368 1
455 1
475 1
507 1
54,@@ 1
612 1
615 1
628 1
68@@ 0.6856545289622022
705 1
880 1
Amir 1
And 0.20500835637733042
Andre@@ 0.47512356631744634
Andy 0.3205044896721335
Arena 0.2802851882325521
At 0.029695760809549297
Atal@@ 1
Castle 0.18394787227780354
Christ 0.2225959914175447
Christmas 0.24321957457919652
Crazy 1
Cum@@ 0.4038006949113039
DE 0.3726647929665419
DI 0.565269256258632
Dalm@@ 1
Derr@@ 1
Desmond 1
Deutsch 0.49703345573629804
Ear@@ 0.29523376365421344
Ej@@ 1
Eli 1
Eras@@ 1
Esther 1
Ethiop@@ 1
Fat 1
Frances 0.7576817555388505
Fus@@ 0.8035391602983734
Gand@@ 0.9451727821613599
Gerard 1
Hann@@ 0.7330925946478538
How@@ 0.4443903062511387
Jas@@ 0.5012161060590116
Kalin@@ 1
Kate 0.5139747423807586
Kend@@ 0.9797657240135246
Kerala 0.5857954710839779
Light 0.2407128400446325
Lille 0.623332456583737
Linn@@ 1
Liu 0.5110676540529863
Lux@@ 1
ME 0.4756881657661661
Mainz 0.5864341142794905
Mercury 0.6716225417430101
Methodist 0.6514528951587324
Molly 1
NCAA 0.20821229002282077
Nashville 0.5133309710822977
Nord 0.0988225703281736
Park@@ 0.4915967419877938
Pat 0.5883081539495054
Phyl@@ 0.8745117168283089
Princeton 0.5873045062808266
Pum@@ 1
Range 0.4572153296322891
Rast@@ 1
Rich 0.7661976863337832
Roz@@ 1
Rugby 0.22757248880954029
Ruiz 0.8203314169723874
Sant@@ 0.38229903658704284
Sivas 1
Sl@@ 0.3018609003793488
Smith@@ 0.824378070992893
Sporting 0.6490211384096528
Steph@@ 0.4906648648080615
TC 0.29692712883848865
TP 0.6350259766225782
Talk 0.8871773076142463
Thomson 0.7740708783708057
Toni 1
UT 1
Utrecht 0.9852052841674501
Walsh 0.8239045626235691
aar 0.614706596754932
alan 0.20043099816408483
aldi 1
alus 0.9039024377635669
ante@@ 0.37330732543904416
ara@@ 1
arch@@ 0.10243372355076072
ational 0.09770517685645136
awadi 1
ayama 1
bach@@ 0.5695053391232809
ball 0.10890590635056123
bibli@@ 0.403976017328067
bil 0.7109143674685228
brook 0.5868439773735269
cape 0.5090348698013191
coli 1
cus 0.3041168572850107
eline 0.3712781968299474
els@@ 0.2330129227419452
euro 1
gin@@ 0.5627558806790991
hab 0.48790414043089064
hand 0.10964157192706453
ifuatazo 1
isp@@ 0.5452332632984354
itude 0.5353304137068983
lings 0.9980583957516949
mang@@ 0.4135805120756281
muj@@ 1
né@@ 0.3824561812700744
ojo 1
oman 0.9623466928874629
osefu 1
osi@@ 1
raeli 1
ree 0.19609043098542517
rop@@ 0.6447425460186011
server 0.4581828716549085
she@@ 0.20871849305603984
skul@@ 0.7867727453300853
sl@@ 0.15244560276613842
tez 1
tidae 0.6026965729107705
tim 0.41767502086387553
tran@@ 0.23356148229709905
uf 0.6967562234544964
umen 0.31271940341790244
ury 0.23352504252954645
yu@@ 0.896487806168152
zeit@@ 0.23753719576249896
ça 0.3595257456050213
ɡ@@ 1
ܝ@@ 1
0.4 1
1.9 1
154 0.9295552824793668
1792 0.45116165899628924
1804 0.48540823199567423
1817 0.4452425235791772
196@@ 1
2030 1
255 1
277 1
28.@@ 0.6189706190309804
291 1
296 1
3.7 1
33.@@ 1
39.@@ 1
393 1
399 1
415 1
421 1
5.5 0.9627660903354748
559 1
629 1
64@@ 0.8122310203657096
704 1
740 1
751 1
Alex@@ 0.45757759417586275
Ama 1
Andri@@ 1
Anton 0.32254754637939953
April 0.01873029637957911
Aub@@ 0.4068653286794148
Augustus 0.7584366236948986
Ball 0.3780199874600657
Berger 0.9371756539789458
Bill@@ 0.49605466276970417
Blan@@ 0.3202408819624408
Boeing 0.4354714767526652
Bolton 0.9555154770749252
Booth 1
Bretagne 0.3315574862545063
CU 1
Cast@@ 0.3245099744122836
Charl@@ 0.8337007504010131
Computer 0.38840876468449526
Crew 1
Czech 0.31368497250317473
Deu@@ 1
Dion 1
Emil 0.6272935754604473
Erik 0.639485195381002
Field 0.17614519980049065
Friends 0.5065036828244167
García 0.2658971441976114
Glenn 0.670448259584898
HA 0.8561174453383132
Harr@@ 0.5282800260052284
Hep@@ 0.8870890396689929
Herman 0.7263964922116044
Holy 0.2630489025009542
Hug@@ 0.848247443498316
Idol 1
Inc 0.6674423642295806
Iron 0.32457286455160905
Jefferson 0.41385285965283064
Josef 0.2944434730338831
Jou@@ 0.742613791128733
Joy 0.8860330930288198
Judith 0.9510390417053238
KK@@ 1
KO 0.6490010859867373
Kayseri 1
Kod@@ 0.8479038843879481
Kug@@ 0.9253182421851847
Ligh@@ 1
MD 0.5129965241654899
Margar@@ 0.6587008131376276
María 0.12316232373102776
McCarthy 1
Meridi@@ 1
Muhammed 1
Murray 0.28864066877670497
Napole@@ 1
Norte 0.2397096987766864
ON@@ 0.4015343632609058
Ocean 0.27046166245871084
Only 0.25651397648078955
Oslo 0.4846006228133898
Over@@ 0.17201575074906794
Parma 1
Pek@@ 0.9372018760173896
Pereira 1
Rhy@@ 0.9332588963489872
Ricky 1
Rol@@ 0.2958948688515252
Roman 0.07460375751450288
Romano 1
Rome 0.12120802411763973
Shal@@ 1
Sport 0.20812990908722412
Station 0.10602723849409335
Strasbourg 0.579237986560975
Stu@@ 0.18608560535142307
Teb@@ 1
Tes@@ 0.5652215630661227
Tina 1
Tower 0.3126455631054128
UB@@ 1
Universe 0.6735219787835097
Verona 1
Vicente 0.5149207540178555
Virgin 0.4114887415248154
Weekly 0.5297672679213232
Wis@@ 0.5190057802978323
Wonder 0.8949819657153183
Xi 1
Yah@@ 1
Yel@@ 0.6916433345487518
Yosh@@ 1
Zer@@ 0.4204819865536217
acet@@ 0.5897942500503857
aden 0.18441156742291687
aker 0.18676730221731144
aragua 1
ariensis 1
arya 1
asus 1
ative 0.043323708232537284
att 0.4702522153738155
ayat 1
azz@@ 0.7032900465883113
bek@@ 0.20468324950723818
ca@@ 0.24612464398246406
cas 0.10643489950544638
cast 0.09398341479314337
chez 0.11439049187161139
doksi 1
eson 0.6159769584916971
esp@@ 0.1020846135173582
etia 1
fly 0.21622476808529736
fum@@ 0.5778190938063706
horn 0.3871651742340808
https 0.703112891724459
i. 1
igg@@ 0.7245894184970147
ionale 0.9358402729342171
ites 0.07343673207165188
iv 0.5018442587289161
kers 0.21931247985897664
krit 1
ley@@ 0.374960484589465
monaster@@ 1
ogen@@ 0.21054361999648946
ography 0.13743304919462465
orious 1
oru 1
osu 1
oto@@ 1
pierre 0.37717716200325996
pper 0.37591572823735747
ps@@ 0.4623908758815779
red@@ 0.16289413430496577
rep@@ 0.12295300393083443
sek 1
spor@@ 0.356814400673898
tamb@@ 1
ug 0.793715671402609
unds 0.1832122426424403
ère 0.044869105699877974
ú 0.2869591611882657
ān 0.8963231214573589
1453 1
171 1
1740 0.8743498953701112
1787 0.6252431044670109
1808 0.418295764438419
1827 0.43360089812872543
196 1
279 1
299 1
3.4 1
383 1
396 1
492 1
496 1
502 1
512 1
514 1
516 1
534 1
555 1
634 1
661 1
ACT 1
Allison 1
Andrews 0.6015768912319619
Baja 0.8508206885188712
Balıkesir 1
Beatrice 1
Bek@@ 0.36117298123506675
Benfica 1
Billie 1
Borneo 1
Braun 1
Budapest 0.4052762417465408
CF 0.5214263594495115
CO2 0.9809965614248644
Canal 0.23099791349633836
Chlor@@ 1
Coch@@ 0.5403660806945955
Colin 0.5508222434170564
Confeder@@ 0.5249397422957603
Crosby 1
Cyril 1
DH 1
Dean 0.28530643548821016
Dek@@ 0.3618552347692627
Dil@@ 0.6160177408644785
Doh@@ 1
Dominic 1
Double 0.5247198261909025
Encyclo@@ 0.8747256669010661
Enter@@ 0.6166476397095207
Fisher 0.5389709182744377
Flight 0.5128614242099594
GM 0.5752850681551714
Greater 0.42007638932251223
Hamb@@ 0.5843800354064493
Henderson 0.6313892210299125
Hind@@ 0.4487970377070299
Hong@@ 0.718592211771477
Hughes 0.4432262443762987
ID@@ 0.9536477056653331
Idi@@ 1
Iglesias 1
Image 1
Jaw@@ 1
Jenn@@ 0.7003260613561246
Jensen 1
Jo 0.6611947099216233
Josi@@ 1
Jur@@ 0.20156074553931727
Kirch@@ 0.219671232439946
Lydia 1
McKin@@ 1
Mussolini 1
Nem@@ 0.5246437443098999
Norwich 0.9191927812199333
Nos@@ 0.7619007499195123
Novgorod 1
Ph.D. 0.5849048396626876
Pitt 1
Prague 0.4176734282405576
Pride 0.9442735480923188
Pris@@ 1
Pul@@ 0.2565600082963822
Rand@@ 0.43828109408979293
Reserve 0.2535674607800463
Rica 0.3963772028318925
Right 0.5495766070890186
Riv@@ 0.3065302608582597
Ron 0.43858803842504773
SN@@ 0.41961629560554836
Sco@@ 0.7622574283287251
Scor@@ 0.594081323939357
Shor@@ 1
Sound@@ 0.8815452167797243
Special 0.1814285897113525
Strat@@ 0.6312545912433084
Suk@@ 1
TR 1
Taz@@ 1
Titan 1
Today 0.21255106913380759
UM@@ 0.9680775841451825
Umw@@ 1
Under 0.13698208432594464
VA 0.4049486663814046
Wanna 1
Watson 0.4428344781345671
Willem 1
Wing 0.46432774193771625
Word@@ 1
Yaz@@ 0.91719931990029
You@@ 1
Zürich 0.3364378148755067
acon 0.5279353130967479
afro@@ 1
aft@@ 1
agus 0.9678761770510548
aines 0.19400769624413805
alem@@ 1
andin@@ 1
ansen 0.7691528343385482
ashara 1
atsu 0.8705400409821373
augh@@ 0.40558919247561737
automati@@ 0.35970885270467673
avirus 1
avo 1
azaki 1
azar 0.45524033121396523
beat 0.21857280255761993
bet 0.6636335483902874
black 0.08236108664262268
board 0.07297858689834097
but 0.0071711882517427545
chester 0.40006832827258065
dou 1
down 0.03841268674330662
ear@@ 0.13388023340250943
eer 0.2054869562529802
eit@@ 0.31560588326623373
eki@@ 1
ener 0.09743134917157524
eph@@ 0.29371059168486846
fid@@ 0.40926431887721243
fot@@ 0.4201305843361001
gir@@ 0.20408840247837728
harti 1
heimer 0.48169753499089996
hn@@ 0.8627675679708516
ici 0.23669466324371322
igr@@ 1
ip 0.7746232600632682
isc@@ 0.37578511006427257
ision 0.16522738936978887
ism@@ 0.2685454323428837
kor 1
lang 0.11563142237858953
lian 0.9011085490207198
mac@@ 0.2001608030551633
madh@@ 1
modeli 1
mun 1
nov@@ 0.3345059921426129
ogy 0.4659488031629674
ond 0.14286223986637214
onna 0.6567807888401225
orith@@ 1
oyle 1
pard 0.6039981054429073
patri@@ 0.22287197742245746
prin@@ 0.3252515591128891
quel@@ 0.4265470601349094
reti 1
rugby 0.166699061970176
sept@@ 1
series 0.021566618003589316
show 0.0361928026560815
stad@@ 0.9962421027000671
sz@@ 0.3026305152365533
tenga 1
tres 0.04474908462098448
trus@@ 0.36577739922565194
tuy@@ 1
ushing 0.37755833897254315
ust 0.13020856398664452
wen 0.36268542753633287
ylo@@ 0.7174839572807745
à@@ 0.6291933816306933
én 0.24761368847181936
ə 1
ե@@ 1
ո@@ 1
ἀ@@ 1
0.2 0.994083796538921
0.7 1
174 1
1760 0.7805840219423615
1770 0.6472843626799683
1775 0.5884436134162591
1783 0.5910271584728274
1793 0.37613374540465
1797 0.5069749300030142
22.@@ 0.48406672568946757
231 1
242 1
267 1
27.@@ 0.5506576033918447
281 1
289 1
3.3 1
35.@@ 1
353 1
359 1
438 1
45,@@ 1
458 1
479 1
529 1
533 1
535 1
539 1
541 1
57,@@ 1
58,@@ 1
613 1
618 1
722 1
76,@@ 1
810 1
85@@ 1
Aar@@ 0.7959623756355194
Adelaide 0.4171465881277769
BAS@@ 1
BD 0.7257669234022687
Bois 0.5549465600782052
Born 0.16866278167890128
Brand@@ 0.34925014249724645
Calgary 0.6008837855387408
Castel@@ 0.7343933665442028
Clara 0.4812683115873255
Coalition 0.742982964377333
Commission 0.09927361485604837
Cooper 0.3208325252759385
Copenhagen 0.7012330959425905
Critics 0.653920843732726
Cub@@ 0.5050002180173058
Culture 0.22318685953434847
Doris 1
EMI 0.9187595451108876
Eddie 0.4051215779484176
Ella 0.4950119495087875
Elvis 0.9883690648063888
Erzurum 1
FK 0.42970875259454877
Fam@@ 0.4962076868109435
Fit@@ 0.7042459629843741
Flying 0.5405058887585102
Frauen 0.17101332362397875
Ga 1
Gerald 0.618578609281361
Guz@@ 1
HTML 1
Haus@@ 0.1768538289713939
Hayes 0.7170318605874586
Hill@@ 0.43970711873317236
Hof@@ 0.18449993967910142
Hunt@@ 1
Jon@@ 0.5198463315025813
Ka 1
Kiss 0.7968044092805925
Krasno@@ 0.97849454553845
Kurt 0.34300196963274115
Luna 0.5877329987414415
Machine 0.5007238066614658
Mikhail 1
Mohammad 0.7353493411728983
Mour@@ 1
Nay@@ 1
Newfoundland 0.933976813712559
Nissan 0.9734661247886908
Nou@@ 1
Och@@ 0.7433670612195246
PM 0.46769261764130815
Penny 1
Petrol@@ 1
Phillip 1
Pik@@ 1
Publ@@ 0.3113868933613348
Rang@@ 0.4803475455868397
Rov@@ 1
Sach@@ 0.2661690897692768
Scot@@ 0.35870292835243656
Senior 0.24091820558574117
Services 0.20470915104835855
Stam@@ 0.7360508308070938
Stop 0.9137703251663225
Sucre 1
Tai@@ 0.3355900182171524
Taur@@ 1
Them@@ 0.8057340088955756
Veronica 1
Vä@@ 1
Yuri 1
Zaragoza 0.7164959380607466
agon 0.47682878115968413
aleg@@ 0.9194271124264856
amin 0.755149638529029
ansa 1
aray 1
atidae 1
atum 0.38043544095603443
bir 0.02219239654491418
biz@@ 1
brand 0.18234008667357232
chat@@ 1
chie 1
dem 0.004719231111129722
duc@@ 0.13445394974247218
egen@@ 1
elt 0.11728164020441727
entes 0.06021625245027731
eros 0.11417141073281128
esse 0.13730827744564952
fug@@ 0.7179594357327875
gram 1
gy@@ 0.4517439975046851
het 1
hil 0.9579024574491471
ht@@ 1
illus 1
inh 1
irie 1
left 0.032076843795288544
lich 0.0312707063644693
love 0.11062602472805062
mal 0.07940762846213223
mith 1
mouth 0.21655459712530006
mul@@ 0.1813013499989001
nier 0.166705637830453
oia 1
oll 0.26050964851078023
onal@@ 0.22309242288318198
oz 0.3520328573190088
park 0.08109680597934323
peri@@ 0.2937028006430052
phone 0.1709994576038686
ref@@ 0.13161011560346506
ril 0.8607386786727093
rin 0.6680476550504305
rol@@ 0.24360828789115951
say 0.17361591044041297
say@@ 0.45879348905409684
shin@@ 1
system 0.029580454811933724
techni@@ 1
tine 0.48415562683284485
tre@@ 0.07141715484179748
uleni 1
use@@ 0.9100900074009806
yav@@ 1
year 0.013318293162947288
ö 0.46962276442590906
ն 1
ֹ@@ 1
1550 1
1640 0.9466116494467991
1650 0.9005776811596287
1690 1
172 1
1776 0.5782462091839089
1798 0.4436652235565757
1805 0.4369225526006258
1819 0.4206874669314167
237 1
272 1
326 1
338 1
37.@@ 1
371 1
4.2 1
4.8 1
412 1
414 1
423 1
425 1
446 1
4500 1
461 1
472 1
505 1
55,@@ 1
614 1
701 1
747 1
78@@ 0.8379993302799229
830 1
840 1
920 1
930 1
999 1
AW@@ 0.781021429589611
Alab@@ 1
Alto 0.5055536513560176
Amat@@ 1
Ambrose 1
Angels 0.6027304672265787
Ans@@ 0.5154841088821499
Aug@@ 0.5318971600571039
Aul@@ 1
Bahn 0.2552459034312585
Bailey 0.5960147422442809
Beh@@ 0.19887876221091397
Benson 0.9861032039520948
Bristol 0.31842010496496187
CK 1
Cartoon 1
Chamb@@ 0.9461740920605335
Civil 0.11447173451289724
Commonwealth 0.23161166692909582
Contemporary 0.492996186019113
Coun@@ 0.2839598577759563
DA@@ 1
DL 0.8217614672266453
Das 0.014336051414614553
Def@@ 0.4434025367374237
Diab@@ 1
Drama 0.42563865230681036
EM@@ 0.5009919797258208
Emir@@ 1
Fashion 0.9748633306279012
Fau@@ 0.9023774602203132
Fid@@ 0.8478570569795212
French 0.03552019446778801
Gang 0.5835765283281328
Gos@@ 0.3708472185694351
Gospel 0.8803341780336136
H.@@ 0.3717137050126677
Hiti@@ 1
IN 0.6127134311433664
IR@@ 0.4717786094689219
Internationale 0.4904761179766518
Joey 0.9174498897856509
Julio 0.4919219997990351
Jupiter 0.7402549655590043
Know 0.8383196489230704
Konstanz 1
Kütahya 1
Limoges 1
Lion 0.5879908742307661
Manisa 1
Marl@@ 0.835763935474342
Melan@@ 1
Memorial 0.18583997882481057
Müller 0.35004212984468486
Nair@@ 1
Nantes 0.5656024658559551
Norbert 1
Normand@@ 0.8482318211353217
Nothing 0.9098917013322381
Of@@ 1
Off@@ 0.14500531514860435
Ordu 1
Palma 0.8765893585364541
Pengu@@ 0.8640821596627561
Pier@@ 0.38617383518163195
Pisa 1
Polyn@@ 1
Price 0.45903355501586773
Professor 0.09321138252745519
Pseud@@ 0.40071904599736863
Ralph 0.37317746495364956
Resist@@ 0.8531103737450023
Rhein 0.48031748864225854
Rho@@ 0.6688660377182525
Rhythm 1
Ruther@@ 1
Shen@@ 1
Shield 0.8308788077462894
Sic@@ 0.3395215899048629
Sidney 0.7345349503948799
Sol 0.43456034110983327
Stand@@ 0.22035205079198214
Starr 1
Sti@@ 0.23587480765031174
Sunshine 1
Sánchez 0.43610339262926995
Trevor 0.9309409817917766
Volga 1
Wagner 0.3855337760884014
Want 1
Yose@@ 1
Zero 0.6600093605351643
aal 1
agio 1
agno@@ 1
ahe 1
ahl@@ 0.22650802597806335
akadem@@ 0.8974190524772426
allah 1
amie 0.8675980633358682
anka 1
atham 0.7830131706693284
audi@@ 0.3231656909353272
awak 1
baad@@ 1
bass 0.2647287165596667
bur 1
cam@@ 0.15150868443456866
cat 0.4491164535215806
dil@@ 0.20382970625713723
dn 0.3994990106490805
dorf 0.15936871547817616
dou@@ 0.1357509935027981
eig@@ 0.24753543583889373
entista 1
entius 1
erini 1
etano 1
etz@@ 0.15090775499084053
flam@@ 0.34887280378884644
have 0.007618875160099645
hen@@ 0.40276908243747955
hiz@@ 0.5652900703559978
hoe 0.9264187147046549
imini 1
inv@@ 0.08845160893569395
iny 0.7024707831672282
ists 0.05495766070890185
jav@@ 0.7670512743624966
kal 0.5475771844106143
kaza 1
kett 0.7064142519603446
kun 1
like 0.031425543101171356
lim 0.8851050868105038
melan@@ 1
mim@@ 0.8639362819768255
nitr@@ 0.49215855004177755
oris 1
orus 0.7300464943995525
part 0.012936490910102861
pedi@@ 0.4614897188080558
phy@@ 0.2327952405830165
poly@@ 0.14286715893007176
pon 0.6345960536842009
pur 0.22582831697929862
rapper 0.6963688528861557
seh@@ 0.4847765991672542
sichana 1
street 0.16188186629192852
suya 1
tain 0.16553430157239024
thon 1
uman 1
urn 0.5332736242155093
usul@@ 1
vic@@ 0.11442992599043089
web@@ 0.370364105779723
work 0.018020147733656268
ws 0.10993027550851349
xton 0.8916077318423898
yth@@ 0.568798196799918
~ 0.3818609755550683
École 0.22650468409197885
ène 0.1480974096778313
ë 0.4622261348767275
ɾ@@ 1
الله 0.759030343653129
ṭ@@ 1
.C. 0.3885963307489613
0.1 0.7931659189529189
0.9 1
1560 1
1591 1
1790 0.3821424186676764
3.1 1
328 1
351 1
358 1
367 1
385 1
416 1
427 1
435 1
443 1
477 1
521 1
527 1
536 1
547 1
601 1
602 1
603 1
969 1
AZ 0.802962844273319
Abe 1
Ago@@ 1
Alg@@ 0.44859746373649134
Amen@@ 1
Astr@@ 0.2299850321771564
Auckland 0.42792063965124993
BL 0.5062721010993823
Batt@@ 0.38255486085719553
Bella 1
Bergen 0.49456599889795466
Brandenburg 0.38056959501060483
Cag@@ 0.9644605702975176
Casablanca 1
Civ@@ 0.5173384463729266
Conrad 0.5496983654393078
Cornell 0.6837335751998959
Coron@@ 0.7988050939193161
Croatia 0.4713440708215342
Cuban 0.6441630917906291
Doctor 0.20543757471351262
Einstein 0.8308134683610422
Elisabeth 0.3281010982925382
Engineering 0.22101535301197106
Eskişehir 1
Fair 0.4169424767631238
Flo@@ 0.3324682567574276
Freiburg 0.47645040510881037
Félix 0.5383672476792758
Gig@@ 0.7476361557265636
Heath 0.7611683777905376
Heritage 0.259970158089329
Hubert 0.6180098857474453
Hunt 0.46410709188431826
IF 0.503949869935422
Information 0.2576262201752589
Jong 1
Jules 0.3687028626262141
KO@@ 0.7966037635288599
Kant 1
Kastamonu 1
Katr@@ 1
Klin@@ 0.7636673403522793
Ko 1
Kraków 1
Krishna 0.8375207388369809
Lek@@ 1
Lid@@ 1
Ling@@ 0.7986765274190474
Lo 0.386177022602818
Lou 0.723861282350838
Lower 0.31262914902458777
Mann 0.1603961830210835
March 0.021597862013334728
Matrix 1
Mecklenburg 0.6415536267890855
Mori@@ 1
Morton 0.7744332899561637
Neal 0.9323561804238325
Nebraska 0.381120072011145
Nich@@ 0.3392375524474423
Novo 1
Oakland 0.500653476806031
Ov@@ 1
Oz@@ 0.9620920368906412
Padua 1
Pag@@ 0.5426255196948181
Part 0.34443346789971047
Pho@@ 0.8602924749531818
Porter 0.5801157794726575
Richardson 0.5754292888882275
Ridge 0.3737852271126065
Rodrigu@@ 1
Rosario 0.5624501712568889
Salisbury 0.9558529091031709
Samsun 1
Sasha 1
Save 1
Sebasti@@ 1
Sex@@ 0.34297338200982214
Seymour 0.9688543251327543
Shirley 0.9182661690616416
Sylv@@ 0.826408967071574
Tari@@ 0.7722238371629492
Watch 0.6111721460229631
Yuk@@ 0.832392917488738
Zaf@@ 1
Zhang 0.4993184904267164
acks 0.18740078718044456
action 0.04715045531526635
ader 0.1466858918284075
adol@@ 1
aks 0.17775121798209387
angel@@ 0.4452698979415058
ank 0.459537007696357
asy@@ 0.5244554837091943
atl 1
aven 0.4211772515370151
ball@@ 0.12608243317970522
bat 0.22725190063621264
corona 0.9156680485193341
dre@@ 0.09695484146554648
dri@@ 0.18624494736560243
eld 0.2162022631534762
eles 0.2414808329939469
elik@@ 1
endorf 0.23035157337997023
eor@@ 1
esto 0.12362661163216064
form 0.02975591944622859
gers 0.1906527730754999
heli@@ 1
huel@@ 1
ican 0.19031155569681088
idel@@ 0.27841391295812334
iel 0.8088305741668161
igny 0.4025072293960426
iten@@ 0.5034896806570504
jpg 1
juz@@ 1
kê 1
leaf 0.40721961657190275
lid 1
litz 0.46687985739281607
lop 1
lun@@ 0.2749050123322316
mona 1
mond 0.36051948593774574
nau@@ 0.6289101065788236
neg@@ 0.14070025454914972
nen 0.07714415111155215
ner@@ 0.08544315127432008
ols 0.09633215972063307
opp@@ 0.3942148141148817
opus 0.5012856682490894
orr@@ 0.27868754226716336
oud@@ 0.9976164270616407
oux 0.24884546557948872
pandemia 1
phus 0.5964673811658286
pist@@ 0.3539577287070945
priv@@ 0.11869142345717046
put 0.07856542953554162
quer@@ 0.25110153462976115
rates 0.18156343996228136
roy 0.4970843659224113
rung 1
ström 0.8732874483972155
tos@@ 0.5693443401023935
uck@@ 0.6964809063523045
wey 1
wig@@ 1
yir@@ 1
zig@@ 1
Île 0.45961503960566025
ís 0.43543680280876124
ă@@ 0.1939412601983759
ū 0.35256201617116245
ск 0.13506928271344107
ֶ@@ 1
0.8 1
1. 0.04489599045817256
1516 1
1535 1
1598 1
197@@ 1
234 1
261 1
273 1
284 1
364 1
433 1
463 1
467 1
47,@@ 1
482 1
506 1
518 1
532 1
546 1
551 1
553 1
681 1
77@@ 0.868464081351709
978 1
990 1
Alc@@ 0.6507993923703285
Alessandro 0.9364749698004208
Alme@@ 1
Amaz@@ 0.7574429902797521
Amin@@ 1
Apostol@@ 0.5500797000067313
Bang 0.6180558213305254
Benedi@@ 0.7058741390498009
Board 0.0965105385071185
Books 0.32769921004627417
Box 0.3584593185838931
Brad 0.7069121383719661
Cartagena 1
Cec@@ 1
Chase 0.5369016244714077
Clarke 0.42621138206479536
Cristi@@ 0.6799488229574012
Córdoba 0.3677414013036816
Dat@@ 0.403297432428487
Det@@ 0.23625307419997998
Dus@@ 0.5788598593130962
Esta 0.11967085742793408
Fe 0.38097251446114067
Food 0.38187537659838955
Fried@@ 0.2910508377297198
Gru@@ 0.20324440030900862
Head@@ 0.36254137269011627
Hern@@ 0.6093210188616296
Hit@@ 0.3526091573331658
Hubble 1
IB 1
IU@@ 1
Indianapolis 0.5092952832194964
Initiative 0.3912193507107703
Iso@@ 1
Jack@@ 0.561768250815148
Jalisco 1
Kent@@ 1
Kiss@@ 1
Kyoto 0.9356547529715171
Latina 0.884523569255511
Lauren 1
Lena 1
MI 0.5700845749550936
MR 0.780543638401563
Miles 0.49469058192729665
Monroe 0.5807245926925376
München 0.1388626033635657
Nokia 1
Northwest 0.5430884780616261
Né@@ 0.5500062749295023
Oak 0.5595559211952773
Orth@@ 0.9265774380755232
Other 0.06657364022622413
Pirates 0.755993737579036
Production 0.17973783498895754
Railways 0.535774664620655
Review 0.2669699099394017
Rib@@ 0.44814376603978995
Scar@@ 0.29738253105806683
Sebastian 0.3772158018133103
September 0.015456802499509911
Serena 1
Shaw 0.44223466115502374
Sinclair 0.8697472806999657
Somali 1
Sophie 0.3976648799130448
Spr@@ 0.1850812301552403
Squad 1
Sung 1
Symphony 0.3886678399408842
Tech 0.3549785742222286
Teen 1
Tenerife 1
Thing 1
Timothy 0.7690965808029481
Training 0.26619379880811184
U.@@ 0.38061055487916606
Val 0.305198864315373
Vogue 1
Von 0.042522488345819696
Wanderers 0.8328307992334756
Warriors 0.5933030766194171
Watt 1
Woods 0.5390690589812911
Worcester 0.8007170359739315
Y. 1
Zucker@@ 1
alpa 1
anime 0.30734851852879147
aras@@ 1
aren@@ 1
asp@@ 0.44989828687515343
bian 0.37905994151622985
bius 0.9244688804440052
dian 0.4820494538289122
dle 0.35132497435843263
duda 1
dur 0.5660457859693256
ede@@ 0.6286162729895598
ems 0.2210038163055448
enf@@ 0.08514263258370959
ennale 1
ety 0.36443779227813455
first 0.005247099942978765
iens 0.4521835024354956
irikisho 1
isl@@ 0.28141578111746013
kisi@@ 1
koh@@ 0.5462667197563107
lay 0.2674774337631841
lidae 0.8113710391249531
nati@@ 0.27638659885446354
neb@@ 0.8620014067078976
obia 1
ois 0.13775505568698818
okie 0.36181827278472817
ore@@ 0.6676874249369883
parta 1
pic@@ 0.12285719365960575
plasma 0.705339032838211
play 0.028699615297596702
plus 0.009860101341126455
program 0.05320144436527001
qui 0.006201091655783359
song 0.026418404468477964
stat@@ 0.12047863709019768
stead 0.6402110640768197
sui 1
thar@@ 1
tional 0.07945388578030736
tius 0.8400101659974069
tru@@ 0.31965499395845154
ual 0.0990740530685706
vier 0.05484886801107678
word 0.0886674384792236
yst@@ 0.1644184137553111
zum@@ 1
émon 1
és 0.012395779347774572
ô 0.379403983923983
ũ@@ 1
γ 1
ת 1
وَ@@ 1
藤 1
--- 1
1210 1
1498 1
156 0.7993412335066223
1675 1
372 1
388 1
392 1
426 1
428 1
439 1
462 1
465 1
503 1
508 1
523 1
624 1
626 1
639 1
715 1
717 1
718 1
96@@ 1
975 1
Adana 1
Anthro@@ 0.8010157509699903
Aran@@ 0.583551018628379
Arist@@ 0.6068174498152406
Atatürk 1
BT 0.742505143884533
Base 0.26039699865711935
Bee 1
Belle 0.5227054900479626
Beverly 0.857226087895438
Bish@@ 0.5441554092726772
Bros. 0.6259642060022258
Brunswick 0.3846725724412063
By 0.04553536380996165
Call@@ 0.3440060619668386
Capitol 0.564526157832971
Caribbean 0.37071513213428847
Cath@@ 0.37607949063002727
Chamberlain 1
Comedy 0.4977175541894236
Crow@@ 0.5949188148522188
Cunningham 0.9420200423222723
Cyprus 0.6417813412285024
Daisy 1
Dic@@ 0.3634126116296642
Environmental 0.4892467683391102
Fish@@ 0.6817192788875627
Gaulle 0.922286333191847
Gene 0.5300506233085444
Goa 1
Gujar@@ 0.7446642800675288
HIV 0.5400076586196798
Hart 0.4035652759166534
Hawkins 0.9532801432345633
Heil@@ 0.2440587205915122
Hell 0.5242960212260045
Helsinki 0.4394432512169784
Homer 0.6301186481116812
John@@ 0.6244657794145564
Jung 0.611979475873172
Kenn@@ 0.2652998761944936
Konrad 0.5395275219199639
Look 0.995790227749679
Lucia 0.9765251845106091
Lucky 0.8916180883553074
Malatya 1
Malay 1
Mayo 0.639399745139188
NET 1
Name 0.08125817552342364
Nel@@ 0.9061484181941063
Nob@@ 0.5202310292433371
Norfolk 0.3572451925416752
Open 0.08034250809254156
Osaka 0.590738733022608
Paz 0.4330147354108041
Railway 0.09902509551668187
Rhode 0.49442036052946103
Ring@@ 0.40911349994212426
Saga 1
Savage 0.8183469428611584
Springfield 0.5731621329373974
Stevenson 0.9784763863726033
Studies 0.19020651221491677
Suc@@ 0.3281295434663412
Sussex 0.5004032891854081
Teh@@ 0.7277917209618869
Titus 1
Toy@@ 0.6871229567991348
Tu 0.7270145302404347
Ulu@@ 1
Viet@@ 1
Wed@@ 0.5403526312803928
Week 0.26673734183868714
Wet@@ 0.7341661197804117
What@@ 1
Wood 0.2444991054452476
XXI 0.6371375456300217
Zach@@ 0.9578927890889243
Zanz@@ 1
Zem@@ 1
acy 0.06923844857544656
adio 1
ahl 0.2127644663855361
aho 1
akter@@ 1
alu@@ 0.8710290168523763
ampton 0.38873331765268787
andro 1
anh 0.1480960524729612
aniel 1
annah 0.8349934450342892
atin 0.3581941544529015
com 0.3844818230836685
cona 1
dat@@ 0.12241468237019233
diya 1
eine 0.005224031084430867
ender@@ 0.31762987601191695
engen 0.7429992513322842
eron 0.10012050429367651
etime 0.658046015230592
flo@@ 0.07146769800406395
fungi@@ 1
gem@@ 0.10697790487634762
got 0.1033703634574481
html 1
illon 0.21544621272201278
inski 0.5053132003485084
iting 0.17506567158201522
kod@@ 1
law 0.0381886432434169
leton 0.31887447306309696
lot@@ 0.5553277867668958
ments 0.05046809672716026
milli@@ 0.4620744913596089
msa@@ 1
mund 0.562183961532522
nai@@ 1
occus 1
oidea 1
ologi@@ 0.3795053211248148
omus 1
onso 1
otra 0.13834683548382123
ph 0.33994636309890697
phen@@ 0.22175522847672854
pool 0.22082716945974948
ppo 0.6461341637511864
press 0.1164545699614137
quin@@ 0.29966607484998176
reno 1
rier 0.18040974582504685
sai 0.551052155289834
song@@ 0.671938467394893
sor@@ 0.06858752355597417
tical 0.0693383773780219
tona 0.879121787472875
tone 0.4044189492038721
ub 0.9409720831327957
wais@@ 1
ware 0.4235723739973482
xen 0.5511174355167283
yen 0.31051356472752334
yeti 1
ying 0.05857958365750729
yne 0.6824526508899843
zan@@ 0.620013235763022
zer@@ 0.16142050921548712
Ö@@ 0.1296614386836027
ʁ@@ 1
י 1
פ@@ 1
् 0.003210831300261055
.org 1
0.6 1
1.0 0.6966837768719222
1050 1
1215 1
1547 1
1555 1
1580 1
1730 0.8042492601564692
1762 0.7689530543815771
1823 0.36619296832758186
2. 0.07851528452030945
278 1
297 1
369 1
389 1
418 1
442 1
448 1
456 1
457 1
487 1
528 1
572 1
635 1
638 1
67,@@ 1
708 1
737 0.9775228300637446
815 1
860 1
87@@ 1
94@@ 1
ATP 0.27838312401470755
Ander@@ 0.43287765193797095
Aydın 1
Benedict 0.8919855430826296
Benito 0.8812934865679048
Berry 0.5219266253675102
Blues 0.26562346358852496
Cabr@@ 1
Carol 0.5329152053691252
Chan 0.6008542694513003
Chen@@ 0.718022370958502
Circle 0.4743352848422175
Clo@@ 0.3688662020266513
Cohen 0.49512923293910643
Commons 0.39818432616506616
Cool@@ 0.8767119172839959
Covid 0.8497374402673534
Dylan 0.5439813450717621
Ecuador 0.2960789470142489
Eisenhower 1
Elis@@ 1
Elo@@ 1
Eugenio 1
Europe 0.03597411213610941
Evangel@@ 0.2474193320702166
Evelyn 1
Eye 0.6119605070817732
Ferrari 0.40143662394182167
Fidel 1
GA 0.42909835371409216
GO@@ 0.4902889609741168
Germany 0.054510998495432346
Gian@@ 1
Grav@@ 0.4782700724648518
Guadalajara 0.6670101767050539
Gug@@ 0.6852540298214533
HP 0.4546345859856705
Habsburg 0.9928455193085898
Harriet 1
Heli@@ 0.654773536806269
Idaho 0.4970995334975966
Johns 0.6652177574638711
Julie 0.48133295298172507
Klaus 0.4098451102474261
Kobe 1
Kyr@@ 0.8714735055309587
LS 0.6594784963521825
Lama 1
Las@@ 0.2604519607163152
Leslie 0.4950293114324682
Lorraine 0.4728970990614733
Los@@ 0.5074771991395438
Louisville 0.6834315918606303
MB@@ 0.996622688861991
MG 0.6172098423553662
Major 0.1066201028887018
Mant@@ 0.5283550231696243
Maxwell 0.6404899990089618
Medici 1
Melissa 1
Midlands 0.8783100380277187
Morrison 0.5443984076799602
Nacional 0.06834367850177313
Nau@@ 0.558517991311493
Neil 0.32663377249478914
Ngo@@ 1
Nir@@ 0.8495501614637305
No. 0.0839537354876183
Oda 1
PDF 1
Pablo 0.24476865914574547
Palmas 1
Patterson 0.8652694547925072
Ped@@ 0.38621554274375275
Pig@@ 0.6313039628986112
Post@@ 0.15293723071745316
Regina 0.7374501264929225
Rest@@ 0.39289653850325507
Reynolds 0.5289246614311668
Sant 0.533843041275909
See 0.12722342932296757
Soccer 0.31374343245796077
Sparta 1
Staf@@ 0.5442446786528207
Take 0.5895637179244771
Teg@@ 1
Turkey 0.20216957762896298
Té@@ 1
Ural 1
Voc@@ 0.4749782192340787
Willie 0.6369370129181018
Willis 0.8000522646696775
Wolver@@ 0.635481928361977
Yang 0.4407043197048565
abus 1
aft 0.15102659605761493
anas 0.12301089431208219
anger@@ 0.5841013676425921
anner 0.30298421979708884
ards 0.0718098807139043
aspir@@ 0.4113634485120294
asse 0.1255359086915336
athini 1
aver@@ 0.14933813006486318
aves 0.11261127624390481
ayana 1
ayet@@ 1
azy 1
bau@@ 0.09084059184952982
bro 0.45221161557701856
cis 0.8977728390700231
com. 1
cro@@ 0.07560322075626734
door 0.10279502256570577
eich@@ 0.9207180331075391
erno 1
fac@@ 0.09954755057424236
fish 0.11893192996222372
force 0.054923652947743096
get 0.05949310575725138
gri 1
hane 1
hill 0.22827500954509689
ieu 0.570612698590512
imbab@@ 1
inian 0.3465033539860737
inson 0.6389732565655382
iran 1
isch 0.031153268852402653
kam 0.044793183513838486
lade 0.8899555618011658
lou 1
maine 0.8933440166285771
makam@@ 1
mod@@ 0.09581978031814807
news 0.11833834481627958
nis 0.11352236227885455
ocar@@ 0.5626524872435054
ocy@@ 0.38879773311598764
odor@@ 0.784422427997254
oides 0.325243942072173
olstadt 1
ords 0.1852930736518053
orie 0.47419357277862895
orio 0.25316959887266294
ove 0.6924109594356935
owski 0.26436645939596864
ple 0.19797031958567782
pler 0.426062887703293
ples 0.14271579974214976
point 0.031069436333566937
programming 0.22661473005551067
propaganda 0.5705644346334301
rea 0.37559246489768294
real 0.06661390730300905
revision 1
rif@@ 0.2894162100401105
rist@@ 0.8148877349072706
sant@@ 1
sep@@ 0.48652294767849874
sola 0.42248712426407703
sum 0.3048326028994707
tela 0.914539136328957
tere 0.33968103075784656
thouse 0.2853274681257684
tific@@ 0.6717761957439013
tino 1
tle 0.1550846773777749
top 0.03397199487604112
torate 0.3525795800056128
trof@@ 1
under 0.013361051173338244
wikitext 1
yat 1
yle 0.21136932598741573
zh@@ 0.5152785768786315
ár@@ 0.17129828132816277
än@@ 0.089898724206546
élé@@ 0.5684728258348161
č 0.5232626668395753
ħ@@ 1
š 0.29601723141839503
1450 1
1507 1
1530 1
1536 1
1603 1
1620 0.8790703699030853
1670 0.9686606983620685
1774 0.5783963741052315
193@@ 1
2.9 1
294 1
3. 0.09319009397818649
3.0 0.7715720267273163
352 1
394 1
4.4 1
424 1
434 1
485 1
486 1
4x@@ 1
5. 0.11796727743114008
511 1
531 1
542 1
607 1
707 1
770 1
775 1
89@@ 1
97@@ 1
Abbey 0.33833934392789394
Afyonkarahisar 1
Agri@@ 1
Alba 0.8461505564470374
Andreas 0.2754012228976377
Angelo 0.6387047851736457
Anti 0.3260673544074675
Anto@@ 1
BT@@ 0.6062018215387155
Baptiste 0.3753476469923904
Barbados 1
Bart@@ 0.5691717530902699
Beatles 0.4121976723011223
Bennett 0.4112282087771157
Bent@@ 0.6802833058922038
Bess@@ 0.7785819157361655
Bhar@@ 0.5771406619948568
Bron@@ 0.3285718004067126
Bureau 0.1760374174445094
CR@@ 0.35415200079453846
Camer@@ 0.858616092625662
Cash 0.7939091720995836
Catal@@ 0.5282157596652103
Cena 1
Chapman 0.68603369275702
Citi@@ 0.4132962557697761
Clifford 0.8819869145659095
Clin@@ 0.3429400855956907
Court 0.05395379505953658
Cry 1
Cuc@@ 1
DN@@ 0.9023007474958554
Del 0.21618768604685068
Díaz 0.4554568091337034
Echo 0.9590329277543838
Educ@@ 0.47154029000430475
Elliott 0.5987481207613669
Era 0.3394502720911012
Essex 0.41807156354726527
Estate 0.5517765430996047
Freud 0.8539721861358979
Fritz 0.29171757197106396
Fron@@ 0.2869809372378039
Generation 0.3338989219015666
Gill 0.552630976251492
Giresun 1
Gone 1
Government 0.07511043497769312
Guy@@ 0.5193909265026782
Hamm@@ 1
Hanover 1
Haven 0.5843118800172215
Institut 0.12088706443588097
Islamic 0.2113522965541264
Ivan@@ 0.5807559125804819
Jeanne 0.39895452569559176
Kenny 0.5594907972349419
Killer 1
Koh@@ 0.22633557028815537
Leh@@ 0.21457446469857294
Linux 0.34927107497583904
Magnus 0.6052722801553793
Maritime 0.46512523401560113
Maximilian 0.6322871995351754
Mi 0.477215150249997
Minor 0.46923019186340004
Molek@@ 1
Newman 0.5998648280554417
Nicole 0.6342575650017732
Ninja 1
Odessa 1
Pa 0.8791593656547712
Parad@@ 1
Paradise 0.7058476112180724
Peri@@ 0.292339529180482
Pes@@ 0.4399359904496578
Philippe 0.1736218317935091
Pi 1
Rachel 0.4423111966459734
Rafael 0.278745687899337
Ramon 1
Región 0.7052170830612267
Rit@@ 0.37110766915639143
Rubin 1
SK 0.3862092250125687
Salvat@@ 1
[...]
