， 1
的 1
。 1
、 1
年 1
在 1
（ 1
） 1
是 1
. 0.13918476664235832
和 1
月 1
了 1
於 1
人 1
為 1
日 1
有 1
中 1
》 1
《 1
· 1
为 1
- 1
他 1
被 1
： 1
「 1
」 1
上 1
大@@ 1
與 1
“ 1
也 1
” 1
一@@ 1
後 1
而 1
由 1
以 1
及 1
等 1
1 1
到 1
于 1
" 1
中@@ 1
； 1
2 1
与 1
) 0.1780910217550939
至 1
( 0.17654706295371436
但 1
地 1
不@@ 1
3 1
, 0.029538580618216573
會 1
斯 1
州 1
下 1
一个 1
位 1
其 1
名 1
西@@ 1
都 1
后 1
者 1
長 1
來 1
4 1
子 1
站 1
時 1
大 1
三@@ 1
5 1
或 1
對 1
之 1
南@@ 1
之@@ 1
部 1
出 1
道 1
人@@ 1
不 1
市 1
6 1
10 1
德 1
性 1
新@@ 1
省 1
用 1
區 1
可以 1
并 1
高@@ 1
8 1
7 1
德@@ 1
多@@ 1
山 1
所 1
北@@ 1
尔 1
阿@@ 1
日@@ 1
中国 1
斯@@ 1
特@@ 1
家 1
日本 1
12 1
使用 1
克 1
前 1
第 1
小@@ 1
向 1
9 1
克@@ 1
拉@@ 1
区 1
米 1
海@@ 1
香港 1
里 1
; 0.4362032358792413
特 1
会 1
曾 1
地@@ 1
时 1
将 1
包括 1
以及 1
新 1
作 1
她 1
政府 1
县 1
化 1
安@@ 1
其中 1
分@@ 1
科@@ 1
就 1
多 1
文@@ 1
一個 1
金@@ 1
上@@ 1
成 1
線 1
11 1
並@@ 1
公@@ 1
公司 1
有@@ 1
人口 1
对 1
巴@@ 1
/ 0.8362978030975731
法 1
路 1
水@@ 1
軍 1
: 0.2829537611331512
全@@ 1
爾@@ 1
入 1
主要 1
面 1
生 1
力 1
以@@ 1
天@@ 1
自@@ 1
馬 1
拉 1
個 1
法@@ 1
科 1
王@@ 1
卡@@ 1
本@@ 1
主@@ 1
年@@ 1
縣 1
任 1
分 1
國@@ 1
李@@ 1
二@@ 1
出@@ 1
加@@ 1
又 1
尔@@ 1
军 1
城 1
利 1
稱 1
利@@ 1
山@@ 1
行 1
四@@ 1
式 1
國 1
內 1
該 1
河 1
可 1
一 1
其@@ 1
重@@ 1
局 1
將 1
外@@ 1
爾 1
其他 1
五@@ 1
度 1
该 1
亦 1
事 1
个 1
尼@@ 1
行@@ 1
型 1
平方公里 1
它 1
文 1
已 1
前@@ 1
下@@ 1
因 1
美國 1
臺 1
西 1
因此 1
马@@ 1
軍@@ 1
美@@ 1
长 1
位于 1
起 1
定 1
期 1
世界 1
同@@ 1
林@@ 1
布@@ 1
最 1
從 1
能 1
此 1
可@@ 1
格@@ 1
外 1
相@@ 1
生@@ 1
大学 1
使 1
亞@@ 1
村 1
地区 1
哈@@ 1
車 1
更 1
並 1
東@@ 1
正@@ 1
台 1
派 1
製 1
原@@ 1
南 1
普@@ 1
从 1
自己 1
體 1
所@@ 1
号 1
器 1
本 1
里@@ 1
約 1
东@@ 1
夫 1
海 1
自 1
比 1
制 1
国@@ 1
水 1
美国 1
交@@ 1
中心 1
手 1
名@@ 1
士 1
线 1
高 1
成立 1
研究 1
王 1
可能 1
政治 1
十@@ 1
古@@ 1
天 1
兩@@ 1
次 1
工作 1
明@@ 1
這@@ 1
號 1
伊@@ 1
平@@ 1
基@@ 1
20 1
神@@ 1
開始 1
小 1
民@@ 1
吉@@ 1
波@@ 1
要 1
& 1
国 1
市镇 1
則 1
代表 1
林 1
镇 1
成@@ 1
即 1
得 1
各@@ 1
屬 1
後@@ 1
開@@ 1
場 1
清@@ 1
表示 1
合@@ 1
安 1
由@@ 1
首@@ 1
隊 1
之一 1
来 1
白@@ 1
將@@ 1
明 1
内 1
体 1
不同 1
說 1
格 1
属 1
無@@ 1
比@@ 1
座 1
處 1
球 1
家@@ 1
物 1
達 1
部分 1
流@@ 1
會@@ 1
量 1
两@@ 1
石@@ 1
此@@ 1
改@@ 1
發@@ 1
學@@ 1
率 1
— 0.32203483191805843
% 0.5133272392393501
東 1
保@@ 1
指 1
总@@ 1
工@@ 1
官 1
法国 1
_ 1
武@@ 1
元 1
去 1
為@@ 1
副 1
作品 1
年代 1
集 1
罗@@ 1
著 1
光@@ 1
卡 1
开始 1
公里 1
这 1
雷@@ 1
金 1
院 1
沙@@ 1
把 1
羅 1
中國 1
方 1
进行 1
台灣 1
賽 1
瓦@@ 1
戰@@ 1
正式 1
手@@ 1
国家 1
一些 1
而@@ 1
音 1
如 1
間 1
學 1
15 1
长@@ 1
總@@ 1
片 1
发@@ 1
時@@ 1
开@@ 1
级 1
太@@ 1
打@@ 1
點 1
星 1
提供 1
城@@ 1
成为 1
回@@ 1
反@@ 1
八@@ 1
因@@ 1
30 1
氏 1
語 1
尼 1
進行 1
行政 1
电@@ 1
所有 1
立@@ 1
和@@ 1
機 1
口 1
他們 1
事@@ 1
城市 1
六@@ 1
代 1
地區 1
光 1
基 1
无@@ 1
系 1
通@@ 1
维@@ 1
队 1
成為 1
兵 1
语 1
最@@ 1
米@@ 1
百@@ 1
场 1
塔@@ 1
文化 1
心 1
國家 1
第一 1
段 1
内@@ 1
大學 1
維@@ 1
案 1
內@@ 1
称 1
2010 0.9865923778413012
建@@ 1
主 1
受 1
族 1
子@@ 1
直@@ 1
周@@ 1
當@@ 1
原 1
推@@ 1
则 1
才 1
学 1
江@@ 1
还 1
获得 1
政@@ 1
女 1
教@@ 1
理 1
均 1
任@@ 1
意 1
作@@ 1
提@@ 1
约 1
亞 1
電@@ 1
形 1
數 1
以下 1
亚@@ 1
市@@ 1
轉@@ 1
生活 1
接@@ 1
方@@ 1
16 1
代@@ 1
因為 1
第一@@ 1
formula 1
像 1
色 1
人物 1
世@@ 1
洛@@ 1
面積 1
没有 1
英@@ 1
18 1
他们 1
北 1
福@@ 1
事件 1
21 1
我 1
元@@ 1
認為 1
動 1
府 1
室 1
塞@@ 1
立 1
台@@ 1
電影 1
通过 1
目前 1
島 1
历史 1
好 1
車@@ 1
字@@ 1
19 1
華@@ 1
车 1
战@@ 1
指@@ 1
當時 1
女@@ 1
埃@@ 1
老@@ 1
收@@ 1
數@@ 1
机 1
管 1
2019 1
較 1
重 1
但是 1
军@@ 1
2011 0.9882007722408747
版 1
空@@ 1
門 1
起@@ 1
森 1
加 1
青@@ 1
管理 1
足球 1
羅@@ 1
2009 1
14 1
花@@ 1
馬@@ 1
处 1
达 1
陳 1
13 1
蘭@@ 1
用@@ 1
2016 1
死 1
同 1
級 1
常@@ 1
員 1
經@@ 1
再 1
田@@ 1
认为 1
火@@ 1
加入 1
曲 1
過 1
同年 1
木@@ 1
合 1
非 1
17 1
共@@ 1
商@@ 1
師 1
歷史 1
書 1
2018 1
該@@ 1
發 1
民 1
讓 1
重要 1
進 1
政 1
塔 1
学院 1
学@@ 1
勒 1
區@@ 1
客@@ 1
第二@@ 1
2012 0.9979238128428085
永@@ 1
頭 1
防@@ 1
郡 1
门 1
港 1
戰 1
点 1
下辖 1
入@@ 1
2013 1
時間 1
心@@ 1
流 1
堂 1
例 1
需要 1
圣@@ 1
信@@ 1
支持 1
2017 1
着 1
便 1
委员会 1
2014 0.9860402314447828
种 1
教育 1
江 1
万@@ 1
乡 1
花 1
建立 1
生平 1
2015 0.9972136647048672
只 1
九@@ 1
说 1
伯@@ 1
姆 1
理@@ 1
影@@ 1
士@@ 1
字 1
宗 1
角 1
張@@ 1
艾@@ 1
面@@ 1
员 1
正 1
平 1
地方 1
{ 1
通 1
修@@ 1
美 1
獲得 1
今 1
威@@ 1
共 1
權 1
博@@ 1
取 1
受@@ 1
機@@ 1
25 1
泰@@ 1
回 1
托@@ 1
铁路 1
路@@ 1
要求 1
河@@ 1
师 1
zh 1
黑@@ 1
史 1
界 1
完成 1
作为 1
布 1
希@@ 1
千@@ 1
2008 0.9593632176511475
堡 1
列@@ 1
同時 1
黃 1
仍 1
對@@ 1
} 1
后@@ 1
工 1
华@@ 1
由于 1
車站 1
黄@@ 1
2020 1
曼 1
恩 1
单位 1
教 1
黨 1
七@@ 1
石 1
例如 1
經 1
制@@ 1
品 1
視 1
選@@ 1
纳 1
对@@ 1
類 1
史@@ 1
半@@ 1
在@@ 1
設 1
愛@@ 1
] 1
奇 1
及@@ 1
工程 1
[ 1
田 1
街 1
成功 1
梅@@ 1
帶 1
方式 1
傳@@ 1
得到 1
受到 1
甲@@ 1
灣 1
第二 1
很 1
種 1
道@@ 1
中央 1
迪@@ 1
定@@ 1
除 1
關 1
张@@ 1
目 1
奥@@ 1
上海 1
發展 1
分布 1
集@@ 1
業 1
歲 1
演@@ 1
机@@ 1
方面 1
一般 1
程 1
动@@ 1
纳@@ 1
列 1
身 1
24 1
参加 1
世 1
苏@@ 1
人民 1
復 1
索@@ 1
先@@ 1
莱@@ 1
往 1
得@@ 1
情@@ 1
该@@ 1
萬@@ 1
时@@ 1
聖@@ 1
每@@ 1
每 1
通常 1
存在 1
系统 1
亚 1
單@@ 1
前往 1
龍 1
奧@@ 1
战 1
且 1
达@@ 1
館 1
件 1
东 1
增@@ 1
车@@ 1
给 1
7@@ 1
一種 1
之后 1
真@@ 1
8@@ 1
層 1
为@@ 1
信 1
莫@@ 1
發現 1
商 1
系統 1
2001 1
校 1
義@@ 1
令 1
三 1
專@@ 1
化@@ 1
兰@@ 1
弗@@ 1
納@@ 1
人口密度 1
星@@ 1
转@@ 1
建 1
物@@ 1
传@@ 1
数 1
2007 0.9080554482839189
口@@ 1
另 1
季 1
動@@ 1
籍 1
22 1
登@@ 1
查@@ 1
－ 1
關@@ 1
寺 1
夫@@ 1
书 1
就是 1
土@@ 1
然而 1
同时 1
那@@ 1
提出 1
未 1
射@@ 1
空 1
瓦 1
社 1
深@@ 1
一名 1
过 1
考@@ 1
冠 1
灣@@ 1
形成 1
部@@ 1
耶@@ 1
另外 1
造 1
達@@ 1
官@@ 1
帕@@ 1
湖 1
國際 1
牌 1
担任 1
節 1
進@@ 1
張 1
所以 1
萨@@ 1
見 1
6@@ 1
州@@ 1
聯@@ 1
最大 1
2006 0.8940960332697486
端 1
精@@ 1
动 1
獎 1
世纪 1
具有 1
票 1
当@@ 1
波 1
23 1
进@@ 1
蘭 1
意@@ 1
组织 1
風@@ 1
摩@@ 1
封@@ 1
公 1
初@@ 1
团 1
皮@@ 1
主席 1
佈 1
宣布 1
北京 1
性@@ 1
鲁@@ 1
只有 1
胡@@ 1
最高 1
宣@@ 1
一种 1
治 1
歌曲 1
川 1
薩@@ 1
漢@@ 1
球@@ 1
神 1
英國 1
A 0.3401846999062695
比賽 1
唐@@ 1
擔任 1
间 1
放@@ 1
過@@ 1
投@@ 1
司@@ 1
汉@@ 1
学校 1
故事 1
会@@ 1
校@@ 1
萬 1
根據 1
帝 1
系列 1
9@@ 1
马 1
情 1
合作 1
权 1
遊戲 1
巴 1
密@@ 1
章 1
富@@ 1
源 1
音@@ 1
一位 1
接受 1
朝 1
支@@ 1
2021 1
学名 1
此外 1
北部 1
出現 1
係 1
船 1
首次 1
做 1
更@@ 1
置 1
現@@ 1
组 1
gt 1
食 1
附近 1
卻 1
先 1
= 1
連@@ 1
这些 1
知 1
发 1
杜@@ 1
朱@@ 1
被@@ 1
景@@ 1
應 1
小行星 1
首 1
給 1
头 1
劇 1
消@@ 1
28 1
2000 0.9337048663203795
造成 1
值 1
龍@@ 1
號@@ 1
角色 1
如@@ 1
游戏 1
體@@ 1
實@@ 1
印度 1
M@@ 0.38353031623765554
蘇@@ 1
发展 1
经 1
属于 1
影響 1
一直 1
类 1
发现 1
2005 0.9587068967758907
這些 1
專輯 1
款 1
樂@@ 1
攻@@ 1
寫 1
赛 1
自由 1
德国 1
常 1
一座 1
依@@ 1
少@@ 1
轄 1
数@@ 1
女性 1
團 1
參@@ 1
排@@ 1
停@@ 1
宗@@ 1
時期 1
落 1
26 1
組 1
取得 1
000 1
层 1
增加 1
修 1
嘉@@ 1
非@@ 1
面积 1
曼@@ 1
劉@@ 1
这@@ 1
体@@ 1
近 1
时间 1
設計 1
魚 1
開 1
群 1
这个 1
論 1
身@@ 1
中华人民共和国 1
广@@ 1
lt 1
陈@@ 1
刘@@ 1
二十@@ 1
国际 1
這個 1
活動 1
沒有 1
沒 1
社會 1
的@@ 1
南部 1
命名 1
之間 1
配@@ 1
運@@ 1
任何 1
歌 1
岛 1
如果 1
微@@ 1
0 1
当时 1
承@@ 1
司 1
期间 1
素 1
表@@ 1
英 1
屆 1
康@@ 1
相 1
學校 1
航@@ 1
共有 1
延@@ 1
罗 1
甲 1
兰 1
預@@ 1
雙@@ 1
選 1
引@@ 1
之前 1
海拔高度 1
向@@ 1
班 1
還@@ 1
阳 1
沃@@ 1
當 1
低@@ 1
街道 1
省@@ 1
除了 1
T@@ 0.331084611763922
架 1
报 1
近@@ 1
則@@ 1
不是 1
境 1
底 1
各 1
控制 1
瑞@@ 1
中国@@ 1
展 1
超@@ 1
至@@ 1
根据 1
设计 1
廣@@ 1
店 1
D@@ 0.32773079059059995
施@@ 1
一次 1
岁 1
根 1
雅@@ 1
27 1
次@@ 1
等@@ 1
时期 1
失@@ 1
邊 1
春@@ 1
發行 1
党 1
奇@@ 1
图@@ 1
霍@@ 1
解@@ 1
赫@@ 1
31 1
当 1
车站 1
皆 1
届 1
報 1
活@@ 1
言 1
打 1
建筑 1
故@@ 1
斯特 1
看@@ 1
单@@ 1
助 1
居 1
版本 1
' 1
治@@ 1
短@@ 1
电影 1
害 1
們 1
雷 1
节 1
問題 1
野@@ 1
命 1
納 1
主义 1
英国 1
勒@@ 1
無 1
参@@ 1
木 1
恩@@ 1
節目 1
話 1
G@@ 0.3035489463656618
平均 1
因为 1
清 1
氣 1
大量 1
二 1
反 1
具 1
追@@ 1
植物 1
力@@ 1
領@@ 1
登 1
目@@ 1
友 1
母 1
資@@ 1
板 1
鄉 1
教授 1
出版 1
酸 1
越 1
进 1
顿 1
感@@ 1
然 1
地理 1
圖 1
現 1
副@@ 1
發生 1
港@@ 1
29 1
庄 1
舉行 1
委 1
一起 1
非常 1
獲 1
想 1
病 1
佛@@ 1
比赛 1
宋@@ 1
管@@ 1
組@@ 1
直接 1
別 1
射 1
托 1
之间 1
诺@@ 1
2004 0.8578966434749051
警@@ 1
組織 1
兵@@ 1
位置 1
全国 1
问题 1
影响 1
主任 1
推出 1
岸 1
作為 1
期間 1
已经 1
有限公司 1
越@@ 1
100 0.9506411781321612
方法 1
曾@@ 1
強@@ 1
中央@@ 1
業@@ 1
房 1
党@@ 1
質 1
5@@ 1
降@@ 1
经@@ 1
編@@ 1
峰 1
賽@@ 1
門@@ 1
B@@ 0.2879509821189515
C 0.863558767043591
佩@@ 1
取@@ 1
望 1
血@@ 1
客 1
重新 1
歌@@ 1
思@@ 1
哥@@ 1
電 1
让 1
殺 1
甚至 1
該國 1
電視 1
著名 1
他@@ 1
未@@ 1
頓 1
玉@@ 1
奖 1
好@@ 1
带 1
游@@ 1
那 1
左@@ 1
升@@ 1
萊@@ 1
進入 1
职 1
擊 1
雖然 1
志@@ 1
P@@ 0.26519519201993397
形@@ 1
查 1
| 1
迪 1
蒙@@ 1
述 1
包含 1
女子 1
经济 1
出现 1
干@@ 1
交通 1
解 1
气@@ 1
图 1
发生 1
航空 1
假@@ 1
最佳 1
华 1
利用 1
复@@ 1
西班牙 1
实@@ 1
形式 1
播出 1
称为 1
廳 1
獲@@ 1
两个 1
魯@@ 1
務@@ 1
业 1
夏@@ 1
低 1
守@@ 1
编@@ 1
第三@@ 1
第三 1
蒂@@ 1
成員 1
松@@ 1
接 1
足@@ 1
福 1
进入 1
傳 1
包@@ 1
華 1
少 1
表 1
義 1
俄@@ 1
京@@ 1
现@@ 1
谷 1
風 1
男@@ 1
50 1
直到 1
伊 1
核@@ 1
倫@@ 1
专@@ 1
丁@@ 1
列表 1
貝@@ 1
選舉 1
月@@ 1
季@@ 1
留@@ 1
變 1
學院 1
場@@ 1
演 1
普 1
乌@@ 1
行政区划 1
第十@@ 1
击 1
完全 1
住 1
of 0.012955861333619156
战争 1
觀@@ 1
並且 1
職 1
展@@ 1
頭@@ 1
西部 1
S@@ 0.2158547232962719
最終 1
变@@ 1
感 1
共同 1
期@@ 1
創@@ 1
縣@@ 1
朝@@ 1
B 0.8853088976926028
10@@ 1
活动 1
條 1
K@@ 0.3066049112529886
出生 1
剧 1
火 1
不能 1
都@@ 1
男子 1
密 1
总面积 1
書@@ 1
技术 1
居@@ 1
C@@ 0.30481054555560066
切@@ 1
社@@ 1
美國@@ 1
諾@@ 1
分別 1
设 1
运@@ 1
參加 1
一部分 1
音樂 1
再次 1
关@@ 1
书@@ 1
演出 1
皇@@ 1
位@@ 1
整@@ 1
计划 1
何@@ 1
丹 1
家族 1
红@@ 1
贝@@ 1
龙@@ 1
2003 0.8977561731653592
后来 1
總 1
馆 1
藏@@ 1
但@@ 1
末 1
初 1
變@@ 1
致@@ 1
家庭 1
個@@ 1
這 1
民主 1
橋 1
桥 1
跟 1
決定 1
政策 1
菲@@ 1
联@@ 1
附@@ 1
话 1
送 1
師@@ 1
不過 1
大陆 1
氣@@ 1
居民 1
月台 1
希望 1
能力 1
共和 1
生涯 1
逃@@ 1
双@@ 1
歐@@ 1
万 1
強 1
裡 1
料 1
意大利 1
许多 1
存 1
走 1
船@@ 1
備 1
詞 1
塞 1
徐@@ 1
巴士 1
鐵 1
早期 1
草@@ 1
而且 1
服務 1
条 1
通過 1
抗@@ 1
右@@ 1
果 1
古 1
景 1
预@@ 1
學生 1
極@@ 1
功能 1
著@@ 1
写 1
諾 1
局@@ 1
當地 1
论 1
衛@@ 1
服 1
革命 1
草 1
世紀 1
词 1
落@@ 1
湖@@ 1
語@@ 1
署 1
即@@ 1
人士 1
最终 1
寶@@ 1
你 1
守 1
園 1
紅@@ 1
牛@@ 1
步 1
娜 1
速 1
兩個 1
作用 1
看 1
L@@ 0.24675608932639184
親@@ 1
爱@@ 1
委員會 1
告@@ 1
離 1
龙 1
安全 1
以上 1
止 1
平方千米 1
歐洲 1
死@@ 1
秀 1
供@@ 1
圖@@ 1
应 1
鐵@@ 1
列车 1
2002 0.8170007765908105
造@@ 1
门@@ 1
周 1
律 1
大部分 1
索 1
戰爭 1
經濟 1
殿 1
克斯 1
白 1
職@@ 1
略 1
混@@ 1
调@@ 1
島@@ 1
the 0.006511254278616902
N@@ 0.27827266803424944
宁@@ 1
升 1
若 1
產 1
法律 1
H@@ 0.27666733656788106
運動 1
A@@ 0.2716862829300581
隆@@ 1
民族 1
丁 1
察@@ 1
擊@@ 1
曲@@ 1
結@@ 1
判@@ 1
或@@ 1
稱@@ 1
應@@ 1
森@@ 1
方向 1
会议 1
选@@ 1
40 1
隆 1
許多 1
今@@ 1
使得 1
中華民國 1
模式 1
学家 1
艦 1
已經 1
最後@@ 1
厅 1
官方 1
域 1
聲 1
吳@@ 1
記 1
F@@ 0.2668702525924433
保 1
色@@ 1
气 1
良 1
4@@ 1
病@@ 1
S 1
… 1
熱@@ 1
影 1
邦 1
决定 1
計劃 1
甘@@ 1
份 1
毛@@ 1
区@@ 1
关系 1
母@@ 1
角@@ 1
0.@@ 1
+ 1
特別 1
三年 1
最初 1
探@@ 1
实 1
楼 1
去世 1
原因 1
中共 1
指出 1
加拿大 1
张 1
运动 1
旅@@ 1
拍 1
祖@@ 1
聯 1
梁@@ 1
放 1
鎮 1
終@@ 1
已@@ 1
離@@ 1
生物 1
风@@ 1
完@@ 1
野 1
照 1
模@@ 1
热@@ 1
藏 1
仍然 1
支 1
很多 1
班@@ 1
一年 1
十 1
男 1
樓 1
側 1
旗 1
群@@ 1
描述 1
委员 1
监@@ 1
彈 1
球隊 1
香@@ 1
進士 1
尾 1
項 1
言@@ 1
統@@ 1
学生 1
道路 1
E 1
典 1
死亡 1
槍 1
聯賽 1
宮 1
底@@ 1
相關 1
相同 1
勢 1
质 1
连@@ 1
总人口 1
巡@@ 1
費@@ 1
環@@ 1
2@@ 1
亡 1
E@@ 0.296724640276175
情况 1
年度 1
負責管 1
就@@ 1
几@@ 1
全 1
四 1
占 1
裝@@ 1
溪 1
暴@@ 1
奧 1
0@@ 1
隨@@ 1
目的 1
使@@ 1
戈@@ 1
組成 1
余@@ 1
兒 1
路線 1
舰 1
洲 1
片@@ 1
樂 1
興@@ 1
酒 1
园 1
兼 1
丹@@ 1
尼亚 1
过@@ 1
唯一 1
昌 1
T 1
報@@ 1
歌手 1
武 1
社会 1
始@@ 1
卫@@ 1
播 1
极@@ 1
存@@ 1
偏@@ 1
監@@ 1
擁有 1
評@@ 1
全球 1
巨@@ 1
遺@@ 1
防 1
杨@@ 1
洪@@ 1
費 1
1990 0.8613866559430274
X 1
議 1
網@@ 1
结构 1
茨 1
应@@ 1
黎@@ 1
狀 1
讀 1
圍 1
雲@@ 1
知@@ 1
刻 1
互@@ 1
認@@ 1
若@@ 1
資料 1
机构 1
錄 1
父 1
全部 1
诺 1
德國 1
臣 1
麥@@ 1
觀 1
辛@@ 1
再@@ 1
足 1
充@@ 1
第一次 1
男性 1
營@@ 1
村@@ 1
無法 1
領 1
川@@ 1
分别 1
宁 1
封 1
併 1
资@@ 1
省份 1
結果 1
来自 1
农@@ 1
这种 1
州市 1
從@@ 1
成员 1
公路 1
四年 1
沿@@ 1
招@@ 1
法院 1
喜@@ 1
沙 1
運 1
强@@ 1
兴@@ 1
尚@@ 1
法國 1
见 1
大型 1
总统 1
五 1
盃 1
杀 1
组成 1
最后 1
吉 1
松 1
产 1
呼@@ 1
獨立 1
裔 1
破@@ 1
祖 1
設有 1
黨@@ 1
装@@ 1
容 1
結束 1
是@@ 1
及其 1
哥 1
志 1
项目 1
優@@ 1
檢@@ 1
廠 1
飾 1
情況 1
烏@@ 1
人员 1
R@@ 0.21953035685015862
O@@ 0.29212457556539795
什 1
业@@ 1
每年 1
制度 1
楊@@ 1
總統 1
侧 1
一部 1
故 1
仁@@ 1
洛 1
s 0.11191808789710764
建築 1
象@@ 1
營 1
隊@@ 1
調 1
不久 1
背@@ 1
或者 1
卢@@ 1
1999 0.7628188546919689
產@@ 1
姆@@ 1
D 0.89167628475419
屋 1
变 1
! 0.6844588692484055
戶 1
3@@ 1
演唱 1
辦 1
卷 1
激@@ 1
町 1
康 1
超過 1
容@@ 1
仅 1
培@@ 1
离 1
夏季 1
快 1
1998 0.8367841975033978
春 1
圈 1
產生 1
象 1
冠@@ 1
美元 1
瑪@@ 1
收 1
員@@ 1
尾@@ 1
欧@@ 1
处@@ 1
赛@@ 1
乐@@ 1
用于 1
線@@ 1
县@@ 1
来@@ 1
桑@@ 1
列車 1
库@@ 1
裝 1
获 1
時代 1
土 1
名字 1
采用 1
威 1
铁@@ 1
朗 1
部队 1
陸@@ 1
參 1
导致 1
穆@@ 1
建设 1
明朝 1
告 1
伦@@ 1
根@@ 1
为了 1
洋@@ 1
秀@@ 1
散 1
術 1
生于 1
繼續 1
戴@@ 1
拥有 1
視@@ 1
当地 1
半 1
毕业 1
项 1
遭到 1
财@@ 1
崇@@ 1
轉 1
教堂 1
透過 1
境内 1
老 1
建造 1
並在 1
独立 1
議員 1
背景 1
油 1
边 1
〉 1
導 1
并且 1
幕 1
站@@ 1
〈 1
罪 1
示 1
费@@ 1
麗@@ 1
速度 1
飛@@ 1
集团 1
財@@ 1
J@@ 0.3190153790790995
土地 1
玩家 1
1980 0.9811041810815326
導致 1
西北 1
房@@ 1
佔 1
歷@@ 1
皮 1
吴@@ 1
休@@ 1
公園 1
證 1
联赛 1
集團 1
址 1
之後@@ 1
冰@@ 1
算 1
獨@@ 1
欧洲 1
产生 1
伯 1
劇@@ 1
接壤 1
佛 1
书记 1
俄罗斯 1
移@@ 1
宗教 1
公尺 1
六 1
青年 1
調@@ 1
G 1
條@@ 1
太 1
往@@ 1
二年 1
自然 1
地球 1
M 1
易@@ 1
智@@ 1
益 1
回到 1
引起 1
蒂 1
较 1
友@@ 1
勝 1
限 1
举行 1
音乐 1
环@@ 1
步@@ 1
别 1
从@@ 1
机场 1
据 1
组@@ 1
1997 0.8470552394682793
學家 1
最早 1
清朝 1
傳統 1
街@@ 1
利亚 1
葉@@ 1
標@@ 1
雪@@ 1
们 1
院@@ 1
地位 1
導@@ 1
厂 1
採用 1
义 1
阿 1
苏联 1
輪 1
庫 1
三十@@ 1
單位 1
遊@@ 1
奥 1
熱帶 1
幾@@ 1
边@@ 1
种@@ 1
基本 1
200 1
五年 1
越南 1
旧 1
作家 1
務 1
刊 1
差 1
身份 1
品@@ 1
改 1
标@@ 1
需 1
夜 1
待 1
材 1
服@@ 1
篇 1
維 1
溫@@ 1
油@@ 1
要@@ 1
语言 1
順@@ 1
經過 1
什@@ 1
聯盟 1
V@@ 0.27106514281196126
影片 1
元年 1
风 1
W@@ 0.2148012069132808
证 1
攻 1
音樂@@ 1
500 1
60 1
真 1
郎 1
舉 1
僅@@ 1
约@@ 1
郭@@ 1
主教 1
察 1
菌 1
畢業 1
营@@ 1
乙@@ 1
制作 1
惠@@ 1
取代 1
食@@ 1
機場 1
F 0.9999591223441587
多次 1
中部 1
來@@ 1
突@@ 1
股@@ 1
陵 1
佐@@ 1
派@@ 1
头@@ 1
劳@@ 1
早@@ 1
出身 1
標 1
– 0.08079241084453251
亲@@ 1
服务 1
不少 1
乘 1
阳@@ 1
敗 1
族@@ 1
语@@ 1
兴 1
云@@ 1
！ 1
主持 1
有人 1
處@@ 1
能@@ 1
任命 1
地面 1
撤@@ 1
P 1
天主教 1
复 1
除@@ 1
球队 1
发行 1
序 1
載 1
拿@@ 1
a 0.010938649157614364
占@@ 1
農@@ 1
池 1
獎@@ 1
武器 1
加上 1
短 1
只@@ 1
军队 1
费 1
還 1
结@@ 1
症 1
改革 1
退@@ 1
差@@ 1
勞@@ 1
强 1
遠@@ 1
终@@ 1
反应 1
請 1
交 1
住@@ 1
批 1
護@@ 1
温@@ 1
技術 1
选 1
创@@ 1
求 1
出任 1
仁 1
参与 1
鐵路 1
遠 1
息 1
观@@ 1
西南 1
行動 1
部长 1
分析 1
救@@ 1
亞洲 1
立法 1
The 0.026998637701042896
炮 1
內容 1
只是 1
判 1
阿尔@@ 1
电 1
晚@@ 1
態 1
击@@ 1
犯 1
論@@ 1
週@@ 1
秦@@ 1
剧@@ 1
曹@@ 1
久 1
皇帝 1
動畫 1
這種 1
毫米 1
领@@ 1
营 1
實 1
基地 1
1996 0.7771875662076801
帝国 1
畫@@ 1
晚 1
原本 1
盛@@ 1
L 0.6213018352276455
地下 1
还有 1
关于 1
屬@@ 1
沈@@ 1
負責 1
魔@@ 1
泉 1
鄭@@ 1
助@@ 1
聚@@ 1
持 1
陸 1
至今 1
表演 1
节目 1
I 0.2535843004284029
考 1
烈 1
卫 1
韓國 1
线@@ 1
點@@ 1
产@@ 1
骨 1
杰@@ 1
團@@ 1
网@@ 1
平台 1
一定 1
过程 1
结束 1
生产 1
协@@ 1
盟 1
父親 1
科技 1
興 1
晋@@ 1
徑 1
左右 1
早 1
英文 1
繁@@ 1
日至 1
运动员 1
孔@@ 1
发布 1
侵@@ 1
病毒 1
居住 1
场@@ 1
泰 1
靈@@ 1
作者 1
唱片 1
顺@@ 1
節@@ 1
新加坡 1
單曲 1
舊 1
岩 1
宫 1
同意 1
大多 1
擴@@ 1
到@@ 1
R 0.8555448772107587
圣 1
計@@ 1
辦@@ 1
务@@ 1
據 1
限制 1
李 1
？ 1
概念 1
1994 0.7841368929661056
日起 1
凱@@ 1
却 1
盧@@ 1
一家 1
分子 1
统@@ 1
师@@ 1
救 1
輕@@ 1
中学 1
公共 1
南京 1
拜@@ 1
记 1
印@@ 1
伦 1
拉斯 1
必須 1
宣 1
有些 1
降 1
00 1
範圍 1
骨@@ 1
梅 1
留 1
柯@@ 1
團體 1
韦@@ 1
科学 1
系@@ 1
麻@@ 1
演員 1
魏@@ 1
倫 1
太平洋 1
远@@ 1
艇 1
網 1
经过 1
维 1
魚@@ 1
度@@ 1
距 1
随后 1
城区 1
人口普查 1
控 1
執@@ 1
斷 1
率@@ 1
票@@ 1
奉@@ 1
聖 1
澳門 1
1992 0.7545189852961507
驻 1
职@@ 1
独@@ 1
警察 1
兄弟 1
1995 0.7630848795128371
希 1
滿@@ 1
航 1
協@@ 1
酒@@ 1
坑 1
乡镇级 1
br 1
蒙古 1
继续 1
我们 1
玛@@ 1
初期 1
孙@@ 1
排名 1
陆@@ 1
中國@@ 1
并@@ 1
快@@ 1
委@@ 1
陽@@ 1
蔡@@ 1
技@@ 1
私@@ 1
学习 1
深 1
畫 1
育 1
变化 1
镇@@ 1
号线 1
征 1
轮 1
中華 1
负责 1
竹@@ 1
元素 1
動物 1
傑@@ 1
烏克蘭 1
複 1
开发 1
带@@ 1
币 1
走@@ 1
呈 1
舉@@ 1
具@@ 1
失 1
媒體 1
功 1
拜 1
會議 1
报@@ 1
忠@@ 1
备 1
优@@ 1
硬@@ 1
單 1
百 1
這是 1
紀錄 1
主義@@ 1
刑@@ 1
聲@@ 1
曾任 1
二世 1
相关 1
虽然 1
叶 1
叶@@ 1
善 1
藝術 1
唱 1
效@@ 1
宝@@ 1
赵@@ 1
勝@@ 1
第二次 1
力量 1
免@@ 1
毛 1
秋@@ 1
1993 0.7865513908202786
朗@@ 1
移 1
夜@@ 1
廟 1
計畫 1
帶@@ 1
始 1
急 1
巴西 1
乘@@ 1
O 0.6030409582703925
補@@ 1
荷@@ 1
研究所 1
临@@ 1
动物 1
榜 1
审@@ 1
观 1
联盟 1
公布 1
蒙 1
对于 1
綫 1
认@@ 1
區域 1
海拔 1
1991 0.7424886834682285
超 1
洋 1
歸@@ 1
孫@@ 1
審@@ 1
人員 1
K 1
随@@ 1
幼@@ 1
弱 1
流域 1
記@@ 1
巴黎 1
务 1
它们 1
1.@@ 1
评@@ 1
顯示 1
姓 1
连 1
炮@@ 1
洞 1
僅 1
坦@@ 1
現時 1
麦@@ 1
有關 1
35 1
兹 1
王朝 1
超过 1
慶@@ 1
信息 1
護 1
授 1
昆@@ 1
或是 1
簡@@ 1
送@@ 1
首都 1
第四@@ 1
求@@ 1
所属 1
翼 1
称@@ 1
海军 1
达到 1
流行 1
琴 1
奈@@ 1
浙江 1
获@@ 1
部隊 1
照@@ 1
视 1
提 1
陽 1
令@@ 1
尼亞 1
U 0.7576610906666003
联 1
核 1
亮 1
北京@@ 1
公园 1
I@@ 0.29169843121742034
文物保护 1
結構 1
測 1
努@@ 1
權@@ 1
1950 1
售@@ 1
一世 1
六年 1
連 1
医院 1
滑@@ 1
庆@@ 1
昂 1
仙@@ 1
方案 1
萨 1
炸@@ 1
創作 1
計 1
碼 1
餘@@ 1
是否 1
办 1
雨 1
開發 1
新聞 1
妻子 1
调 1
決賽 1
配 1
始建 1
标准 1
約@@ 1
设@@ 1
保持 1
郑@@ 1
環境 1
散@@ 1
父亲 1
宮@@ 1
醫@@ 1
12@@ 1
冠军 1
命@@ 1
返回 1
露 1
貨@@ 1
昌@@ 1
区域 1
现 1
市場 1
結 1
續 1
紀 1
零@@ 1
競@@ 1
許@@ 1
研@@ 1
联邦 1
決@@ 1
如下 1
写@@ 1
45 1
别@@ 1
U@@ 0.3427964881213984
2.@@ 1
个@@ 1
果@@ 1
80 1
調查 1
亂 1
靠 1
领导 1
機構 1
1949 1
廷 1
第四 1
扎@@ 1
牧@@ 1
默@@ 1
级@@ 1
夏 1
程度 1
开 1
暗@@ 1
供 1
归@@ 1
赤@@ 1
必@@ 1
洲@@ 1
乐 1
传 1
源@@ 1
n 0.2683909964865736
棲息 1
穿@@ 1
過程 1
疑 1
衣 1
搭@@ 1
隔@@ 1
坡 1
彈@@ 1
幣 1
決 1
批准 1
效 1
跨@@ 1
眾 1
肯@@ 1
授@@ 1
凯@@ 1
传统 1
十年 1
冷@@ 1
换 1
相當 1
振@@ 1
許 1
博士 1
爲 1
1988 0.8262898321955522
統 1
and 0.008121495518647784
范@@ 1
十分 1
紫@@ 1
公分 1
俱乐部 1
鎮@@ 1
給@@ 1
银@@ 1
1970 0.8040136571715899
内容 1
库 1
克里@@ 1
医@@ 1
君 1
我們 1
兼@@ 1
帝@@ 1
in 0.0069909184724661405
企@@ 1
i 0.2159036325258445
重建 1
执@@ 1
博 1
細@@ 1
协会 1
国家@@ 1
采@@ 1
韓@@ 1
名稱 1
X@@ 0.7392199449126867
功@@ 1
下午 1
禮@@ 1
注@@ 1
飞@@ 1
覺 1
企业 1
界@@ 1
眾@@ 1
舉辦 1
罪@@ 1
諸@@ 1
成績 1
當中 1
人類 1
竞@@ 1
藝 1
莱 1
按 1
共和国 1
雅 1
程序 1
旋@@ 1
32 1
眼@@ 1
沃 1
急@@ 1
選擇 1
庄@@ 1
声 1
毒@@ 1
器@@ 1
水域 1
缺@@ 1
改為 1
范围 1
丽@@ 1
蓋 1
政治@@ 1
录 1
不再 1
鄉@@ 1
报告 1
数据 1
银行 1
状 1
協會 1
因而 1
决@@ 1
』 1
職業 1
異@@ 1
『 1
知道 1
豪@@ 1
接近 1
设立 1
社区 1
转 1
潮 1
距離 1
皇家 1
危@@ 1
菜 1
親 1
1989 0.7527255483804651
柱 1
小时 1
这一 1
更名 1
谢@@ 1
理论 1
宜@@ 1
时代 1
套 1
京 1
大臣 1
難 1
压 1
圓@@ 1
磁@@ 1
正在 1
還有 1
介@@ 1
征@@ 1
改为 1
艘 1
径 1
上映 1
无 1
远 1
聯合 1
表現 1
媒体 1
墓 1
莉 1
四川 1
柏@@ 1
保护 1
论@@ 1
人民@@ 1
某@@ 1
確 1
議會 1
建筑@@ 1
攝@@ 1
主演 1
户 1
切 1
銀@@ 1
1945 0.7235851269488339
截至 1
君@@ 1
溪@@ 1
韋@@ 1
难 1
而是 1
支援 1
设有 1
提名 1
300 1
声@@ 1
予 1
现在 1
导 1
齐@@ 1
資 1
末@@ 1
奉 1
70 1
专业 1
网 1
想@@ 1
標準 1
別@@ 1
13@@ 1
邦@@ 1
工业 1
著作 1
青 1
牙@@ 1
豐@@ 1
非洲 1
血 1
樹@@ 1
席 1
收入 1
限@@ 1
结果 1
中文 1
包 1
典@@ 1
藝@@ 1
種@@ 1
取消 1
型@@ 1
特别 1
徵@@ 1
尚 1
程@@ 1
井 1
未能 1
尤@@ 1
枚 1
画 1
坦 1
耳@@ 1
投 1
丽 1
彭@@ 1
保留 1
股 1
莉@@ 1
交流 1
运 1
交通@@ 1
势 1
良@@ 1
团@@ 1
攻擊 1
直至 1
赫 1
佛教 1
換 1
繼@@ 1
主角 1
诸@@ 1
艺术 1
1960 0.8358906376738185
尊@@ 1
旗下 1
衛 1
导@@ 1
善@@ 1
試 1
警方 1
養 1
岛@@ 1
眼 1
不會 1
虎 1
碑 1
播@@ 1
肉 1
2022 1
停止 1
议 1
薩 1
材料 1
其它 1
1@@ 1
各地 1
澤@@ 1
看到 1
N 0.8241209646646602
韩国 1
葬 1
自治区 1
逝世 1
千 1
节@@ 1
思想 1
雪 1
新增 1
块 1
高中 1
倍 1
于@@ 1
一樣 1
雄@@ 1
赛季 1
父@@ 1
90 1
禮 1
快速 1
活 1
赴 1
謝@@ 1
又名 1
可達 1
建成 1
线路 1
橫@@ 1
便@@ 1
電子 1
隔 1
忠 1
斯特@@ 1
诗@@ 1
億 1
麗 1
星期@@ 1
祖父 1
特殊 1
任务 1
奖@@ 1
額 1
计 1
H 1
紅 1
博物馆 1
遗@@ 1
牛 1
規@@ 1
满@@ 1
V 0.6812722537362446
翻@@ 1
雄 1
和平 1
宋 1
退 1
絲 1
网络 1
坐@@ 1
秒 1
吸@@ 1
威廉 1
西方 1
思 1
东北 1
投票 1
总 1
视@@ 1
省级 1
发表 1
埃 1
鎮區 1
海岸 1
輸@@ 1
賽事 1
氏@@ 1
漢 1
再度 1
葛@@ 1
能夠 1
藍@@ 1
軍隊 1
遂 1
兩 1
斯坦 1
隨著 1
主題 1
詩@@ 1
湾 1
只能 1
纪@@ 1
試@@ 1
测 1
效力 1
奏 1
年间 1
物种 1
孩子 1
载 1
村落 1
无法 1
沉@@ 1
联合 1
行动 1
物理 1
示@@ 1
芬 1
美洲 1
护@@ 1
如此 1
尚未 1
1985 0.8183407542368731
帝國 1
人民政府 1
俄羅斯 1
公民 1
天津 1
迁@@ 1
固@@ 1
改名 1
梁 1
舊@@ 1
排 1
乱 1
哈 1
協助 1
致 1
映 1
朋友 1
設立 1
尤其 1
之外 1
小時 1
国际@@ 1
庙 1
申@@ 1
福建 1
曆 1
假 1
中學 1
文件 1
盤 1
装 1
环 1
公主 1
～ 1
婚 1
童@@ 1
禁@@ 1
早年 1
命令 1
公開 1
以前 1
1984 0.8032168906109068
先生 1
文章 1
孝@@ 1
当选 1
壓 1
干 1
播放 1
卿 1
寧@@ 1
名称 1
茲 1
項目 1
胜 1
灰@@ 1
簡稱 1
擊敗 1
亦@@ 1
多年 1
現在 1
味 1
傷 1
模型 1
普通 1
召@@ 1
48 1
愛 1
隧道 1
擔 1
地震 1
庫@@ 1
持@@ 1
美国@@ 1
渡@@ 1
大樓 1
汉 1
1986 0.7745011006833272
液 1
佳@@ 1
关 1
爭@@ 1
陶@@ 1
傷@@ 1
环境 1
一度 1
安排 1
恐@@ 1
军事 1
乃@@ 1
滿 1
樣 1
14@@ 1
頂 1
邊@@ 1
集中 1
設@@ 1
速@@ 1
证@@ 1
士兵 1
提高 1
皇 1
兩人 1
驻@@ 1
额 1
參與 1
广场 1
研究@@ 1
台北 1
瑞 1
选举 1
谷@@ 1
妮 1
槍@@ 1
南方 1
發表 1
以外 1
铁 1
七年 1
宇@@ 1
裁 1
货@@ 1
失去 1
争@@ 1
葉 1
類@@ 1
耶 1
小说 1
震@@ 1
督 1
堅@@ 1
坊 1
候@@ 1
持續 1
否@@ 1
大道 1
1987 0.7560435904342905
珠@@ 1
漫畫 1
阻@@ 1
这是 1
算@@ 1
移民 1
全國 1
拿 1
细@@ 1
孟@@ 1
满 1
此后 1
至少 1
採@@ 1
警 1
录@@ 1
市民 1
易 1
醫院 1
生產 1
保護 1
選區 1
俗 1
引擎 1
不明 1
灵@@ 1
第@@ 1
潮@@ 1
租@@ 1
掉 1
Y@@ 0.3095852434991727
河南 1
有关 1
间@@ 1
以来 1
粉@@ 1
植@@ 1
懷@@ 1
戲@@ 1
語言 1
三个 1
津@@ 1
潘@@ 1
題 1
字母 1
遷 1
殺@@ 1
异@@ 1
顯@@ 1
舞@@ 1
股份 1
规定 1
銀行 1
球員 1
借@@ 1
樂團 1
群島 1
軍事 1
类似 1
表面 1
盟@@ 1
時候 1
实现 1
年間 1
酒店 1
严@@ 1
避免 1
基础 1
確@@ 1
机车 1
这样 1
乡@@ 1
輕 1
隻 1
以來 1
富 1
靈 1
塘 1
某些 1
之下 1
八年 1
断 1
陣@@ 1
国王 1
念 1
余 1
中国共产党 1
浦@@ 1
随着 1
x 0.41825342388237075
投入 1
教區 1
啟@@ 1
海域 1
牠 1
义@@ 1
高度 1
版@@ 1
礼 1
舞 1
量@@ 1
有效 1
適@@ 1
杯 1
各種 1
1982 0.8007815042020873
含@@ 1
設施 1
處理 1
操@@ 1
m 0.18286406718853204
八 1
前身 1
基金 1
本地 1
一同 1
役 1
毁 1
将军 1
随 1
行为 1
執行 1
温 1
駐 1
健康 1
環 1
得以 1
显@@ 1
时候 1
基督教 1
消息 1
现代 1
柳@@ 1
创作 1
补@@ 1
尼斯 1
九 1
直 1
云 1
遭 1
嚴@@ 1
屋@@ 1
弟 1
徒 1
刑 1
核心 1
选择 1
瑞典 1
運動員 1
适@@ 1
盛 1
訪 1
三個 1
藤@@ 1
经济@@ 1
编码 1
東部 1
禁止 1
儿 1
叛@@ 1
售 1
同一 1
隸屬 1
运行 1
部份 1
促@@ 1
十二 1
不过 1
瑞士 1
广州 1
壁 1
句 1
鱼 1
出口 1
河流 1
民國 1
免 1
迴 1
極 1
曾經 1
叫 1
右 1
逐漸 1
合并 1
离@@ 1
分为 1
轄@@ 1
恢复 1
澳洲 1
术 1
资 1
黑 1
1983 0.7813567092625784
33 1
反对 1
Z@@ 0.20569204126354748
購@@ 1
積 1
特色 1
历 1
y 0.020199062536313064
羽毛球 1
嚴重 1
议会 1
概@@ 1
珠 1
一系列 1
渡 1
与@@ 1
之中 1
委員 1
年底 1
态 1
作出 1
文字 1
墓@@ 1
鏡 1
英語 1
领 1
莫 1
榮 1
井@@ 1
J 1
尽管 1
茨@@ 1
乘客 1
鼓@@ 1
划@@ 1
侯@@ 1
找到 1
捷@@ 1
空間 1
36 1
大区 1
安德@@ 1
香 1
旗@@ 1
难@@ 1
罗马 1
唐 1
个人 1
溫 1
似 1
一条 1
试 1
必须 1
學習 1
本身 1
策 1
平方米 1
距离 1
20@@ 1
护 1
演员 1
訊@@ 1
宜 1
秋 1
属下 1
指定 1
hans 1
怀@@ 1
继@@ 1
何 1
英尺 1
战役 1
知名 1
一段 1
七 1
趙 1
水平 1
于是 1
宇 1
錄@@ 1
东部 1
數據 1
侯 1
一颗 1
先后 1
歸 1
1979 0.7680078632160429
专辑 1
讀@@ 1
很@@ 1
以色列 1
彩@@ 1
提升 1
楚@@ 1
精神 1
容易 1
劃 1
济@@ 1
约翰 1
调查 1
产品 1
市场 1
鲁 1
执行 1
能够 1
衣@@ 1
勇@@ 1
范 1
涅@@ 1
記者 1
儿子 1
跑 1
找 1
圆@@ 1
訊 1
價 1
塊 1
座@@ 1
羽@@ 1
體長 1
夫人 1
停 1
桂@@ 1
雨@@ 1
緣 1
九年 1
地铁 1
空间 1
厄@@ 1
刺 1
部门 1
38 1
雕@@ 1
露@@ 1
条@@ 1
民主@@ 1
議@@ 1
倒@@ 1
國立 1
翰@@ 1
基礎 1
庭 1
报道 1
爱 1
城鎮 1
决赛 1
400 1
3.@@ 1
樹 1
穿 1
运营 1
廣播 1
傑 1
齊@@ 1
大使 1
我@@ 1
特定 1
學者 1
略@@ 1
理論 1
砲 1
读 1
点@@ 1
雲 1
自由@@ 1
入侵 1
电视 1
生命 1
督@@ 1
陰@@ 1
信仰 1
產品 1
認 1
迅速 1
人口数量 1
34 1
邨 1
逐@@ 1
议员 1
岡@@ 1
社会@@ 1
us 0.15955850719852488
议@@ 1
应用 1
喀@@ 1
挑@@ 1
幸@@ 1
禁 1
跳@@ 1
画@@ 1
配合 1
1978 0.77360182685171
轻@@ 1
實際 1
印 1
大西洋 1
相似 1
離開 1
紐@@ 1
證@@ 1
導演 1
邮政编码 1
皇后 1
藥 1
涅 1
雜誌 1
琳 1
印度@@ 1
珍@@ 1
祥 1
報告 1
顶 1
还是 1
素@@ 1
慶 1
刻@@ 1
按@@ 1
運動會 1
餐@@ 1
试@@ 1
目標 1
注意 1
选区 1
刀 1
7.@@ 1
剂 1
仲@@ 1
扎 1
构@@ 1
台湾 1
埃及 1
津 1
森林 1
攝 1
众 1
等等 1
部落 1
寬 1
圍@@ 1
商業 1
定义 1
世界@@ 1
袁@@ 1
轨道 1
古代 1
倒 1
主義 1
注 1
同樣 1
迎@@ 1
微 1
感到 1
按照 1
权@@ 1
绿@@ 1
應用 1
读@@ 1
減@@ 1
价 1
连接 1
健@@ 1
旅客 1
旅 1
父母 1
人们 1
肉@@ 1
生长 1
黃@@ 1
礼@@ 1
品牌 1
韩@@ 1
5.@@ 1
交易 1
紧@@ 1
热 1
儘 1
风格 1
編號 1
岩@@ 1
負@@ 1
兹@@ 1
準 1
鐵道 1
充 1
電視劇 1
孔 1
酸@@ 1
设置 1
t 0.09838977185186726
举办 1
第五 1
讷 1
途 1
on 0.019551112946714546
迷 1
廢@@ 1
遇@@ 1
颱 1
哲@@ 1
符 1
帮助 1
病例 1
肯 1
人类 1
超級 1
漫@@ 1
树 1
撒@@ 1
才能 1
类型 1
表明 1
毒 1
虎@@ 1
桥@@ 1
宽 1
很大 1
做@@ 1
丘@@ 1
途@@ 1
瑟 1
如何 1
破 1
1981 0.7106495300974778
買 1
英雄 1
敦@@ 1
電視台 1
巨大 1
晚上 1
tw 1
普遍 1
弹 1
經營 1
旁 1
母親 1
妃 1
一样 1
兒子 1
° 0.5988691378222043
见@@ 1
本站 1
亭 1
仍@@ 1
英國@@ 1
amp 0.2229998882289385
各种 1
創 1
付 1
錢 1
裁@@ 1
佳 1
輪@@ 1
記載 1
吕@@ 1
白色 1
準@@ 1
质@@ 1
寫@@ 1
朝鲜 1
授予 1
紀念 1
养 1
离开 1
意思 1
浮@@ 1
案件 1
玩@@ 1
首府 1
輔@@ 1
改變 1
訓練 1
大學@@ 1
设备 1
举@@ 1
疾病 1
开放 1
拓@@ 1
北方 1
賓@@ 1
與@@ 1
秘@@ 1
困@@ 1
％ 1
工具 1
高速公路 1
事故 1
严重 1
简称 1
董事 1
電腦 1
飛 1
婚@@ 1
浪@@ 1
树@@ 1
都市 1
寄@@ 1
晶@@ 1
鱼@@ 1
改造 1
東京 1
飞机 1
菲 1
结 1
文化@@ 1
杀@@ 1
芬@@ 1
章@@ 1
64 1
抵@@ 1
建議 1
处理 1
毀 1
新闻 1
捐@@ 1
旺@@ 1
尖@@ 1
舒@@ 1
效果 1
暫@@ 1
階段 1
出席 1
逐渐 1
确 1
批@@ 1
疫情 1
糖 1
尉 1
因素 1
太阳 1
许@@ 1
o 0.08395189061511657
准@@ 1
HD 1
異 1
衰@@ 1
全面 1
37 1
律@@ 1
规划 1
函数 1
賣 1
小型 1
海外 1
廣 1
行為 1
仅@@ 1
药 1
文物 1
唱@@ 1
工人 1
废@@ 1
監 1
hk 1
物種 1
國際@@ 1
規模 1
久@@ 1
斗@@ 1
司令 1
齒 1
扩@@ 1
吃 1
京都 1
决 1
陷 1
魯 1
阿爾@@ 1
é 0.11688103792168579
卓@@ 1
妻 1
缺乏 1
榮@@ 1
反應 1
刊@@ 1
也@@ 1
乾@@ 1
崔@@ 1
建制 1
這樣 1
端@@ 1
飛機 1
本土 1
记载 1
台灣@@ 1
未來 1
细胞 1
溶@@ 1
旧@@ 1
坎@@ 1
法案 1
識 1
d 0.09494324175724887
办@@ 1
機會 1
企業 1
摩 1
42 1
泉@@ 1
不足 1
大區 1
描@@ 1
科學 1
弹@@ 1
很快 1
更加 1
紀@@ 1
爭 1
管理@@ 1
壓@@ 1
脱@@ 1
插@@ 1
規定 1
於@@ 1
识@@ 1
显示 1
马来西亚 1
積@@ 1
澳@@ 1
維持 1
其後@@ 1
整个 1
确@@ 1
被迫 1
魏 1
伐 1
逊 1
西亞 1
de 0.0037630802471850864
夺@@ 1
记@@ 1
提到 1
积@@ 1
折@@ 1
依 1
咸@@ 1
家人 1
第五@@ 1
汗 1
诉 1
戈 1
冲@@ 1
完整 1
默 1
收錄 1
乔@@ 1
絕@@ 1
伴 1
它們 1
为主 1
冷 1
聽 1
講@@ 1
難@@ 1
W 0.8725828157048839
分鐘 1
換@@ 1
玉 1
枪 1
指挥 1
6.@@ 1
壇 1
需求 1
55 1
高速 1
8.@@ 1
爆发 1
御@@ 1
西亚 1
境@@ 1
／ 1
願 1
值@@ 1
透@@ 1
辽@@ 1
遗址 1
领域 1
涉及 1
能量 1
植 1
p 0.27931680168781514
惡@@ 1
46 1
1946 0.8349757814649171
Windows 1
稱為 1
襲 1
鄰 1
队@@ 1
而成 1
鹿@@ 1
術@@ 1
败 1
玄@@ 1
戰役 1
c 0.21784180125748825
人工 1
段@@ 1
音乐@@ 1
梯 1
戏@@ 1
杰 1
延伸 1
遜 1
園@@ 1
陣 1
自治 1
住宅 1
换@@ 1
分類 1
樓@@ 1
宇宙 1
改善 1
慢 1
候 1
大戰 1
寧 1
西藏 1
昭@@ 1
b 0.2770714538252188
一切 1
齐 1
条件 1
工業 1
賞 1
统治 1
代表@@ 1
逢 1
1958 0.8591041663072562
抗 1
臨@@ 1
然后 1
厚 1
江西 1
四十@@ 1
尔德 1
蓝@@ 1
風格 1
1948 0.8280806751218845
借 1
累@@ 1
帕 1
遇 1
仔 1
宝 1
墙 1
國會 1
计@@ 1
券 1
箱 1
葡萄牙 1
太子 1
倫敦 1
战斗 1
少女 1
享@@ 1
规@@ 1
鼠 1
含 1
准 1
历史@@ 1
措施 1
勤 1
屏@@ 1
問@@ 1
退出 1
学者 1
週 1
is 0.015618783072955611
术@@ 1
迹 1
柏林 1
左 1
操作 1
爭議 1
阵@@ 1
腹@@ 1
驗 1
晉@@ 1
浪 1
頂@@ 1
整個 1
浦 1
天文 1
治療 1
獄 1
劇情 1
类@@ 1
幹@@ 1
訴 1
阮@@ 1
網路 1
修改 1
职业 1
捕@@ 1
留下 1
广东 1
驱@@ 1
博物 1
敵@@ 1
惠 1
敬@@ 1
降低 1
大約 1
频道 1
而言 1
军区 1
揭@@ 1
原名 1
燕@@ 1
撤销 1
e@@ 0.11141934078898144
鳳@@ 1
爆@@ 1
吸引 1
用户 1
照片 1
4.@@ 1
明治 1
組合 1
席@@ 1
将@@ 1
一帶 1
大小 1
围@@ 1
螺@@ 1
燃@@ 1
正常 1
样 1
一支 1
加盟 1
Y 1
敏@@ 1
国务院 1
1920 0.7920464017864385
過去 1
國民 1
棒 1
大约 1
逐 1
坦克 1
保存 1
約翰 1
65 0.843243309680171
架@@ 1
舍@@ 1
时区 1
协议 1
一條 1
盖 1
堂@@ 1
人次 1
俗@@ 1
横@@ 1
一天 1
凡 1
笑 1
行星 1
變化 1
投资 1
伊斯 1
湖南 1
裡@@ 1
連續 1
艺@@ 1
表现 1
1940 0.7117588122772733
興建 1
鳥 1
敏 1
險 1
批評 1
铜@@ 1
西北部 1
譯 1
援 1
尔斯 1
不可 1
評 1
爵 1
鬼 1
真正 1
维尔 1
第一个 1
蛇 1
舞台 1
患者 1
夏令时 1
云南 1
案@@ 1
即使 1
饰 1
少年 1
1976 0.6460624567881705
朝鮮 1
魚綱 1
國民黨 1
祭@@ 1
莎 1
冬@@ 1
目标 1
INSEE 1
据@@ 1
电视台 1
訂 1
蟲 1
设施 1
展示 1
比例 1
相信 1
汽车 1
亞州 1
柴@@ 1
上午 1
嘉 1
承 1
車輛 1
出演 1
之子 1
1975 0.6106540928309253
那些 1
39 1
泽@@ 1
板@@ 1
綠@@ 1
制造 1
刺@@ 1
基因 1
墨西哥 1
西南部 1
迈@@ 1
宫@@ 1
譯@@ 1
輻鰭 1
形象 1
慈@@ 1
土耳其 1
弘@@ 1
赞@@ 1
掌@@ 1
食物 1
山东 1
事務 1
确诊 1
儀 1
填@@ 1
呈@@ 1
滅 1
阿拉伯 1
首先 1
潛@@ 1
後來 1
冬季 1
稿 1
合成 1
任務 1
緊@@ 1
奪 1
1972 0.6114769864537966
狀況 1
丘 1
河畔 1
蘇 1
汇@@ 1
戰鬥 1
体育@@ 1
* 0.3057307606112922
44 1
压@@ 1
連接 1
匈牙利 1
感染 1
输@@ 1
官员 1
寺@@ 1
臨 1
屯@@ 1
荣@@ 1
銷 1
1930 0.7677551902786395
两 1
幾乎 1
修建 1
贵@@ 1
瑟@@ 1
众@@ 1
陵@@ 1
質@@ 1
遷@@ 1
設置 1
澳大利亚 1
一步 1
多个 1
公共@@ 1
灌@@ 1
球季 1
負 1
契@@ 1
習 1
智 1
1956 0.7868911186963157
茶 1
報導 1
600 1
简@@ 1
续 1
顶@@ 1
私人 1
終 1
床 1
今日 1
陳@@ 1
狀態 1
恢 1
残@@ 1
g 0.23844036421794915
伊斯@@ 1
中国人民解放军 1
内部 1
阶段 1
乳@@ 1
投降 1
撞@@ 1
國王 1
習@@ 1
減少 1
一所 1
騎@@ 1
染@@ 1
兼任 1
标 1
中山 1
疑@@ 1
编 1
小說 1
得知 1
隨後@@ 1
h 0.22192192838440025
墨@@ 1
丰@@ 1
固 1
固定 1
配音 1
每个 1
票房 1
比如 1
焦@@ 1
Q@@ 0.5599008002565772
二人 1
資訊 1
e 0.09534833664048999
迷@@ 1
阴@@ 1
呼 1
1937 0.8927852451133548
伊朗 1
宿 1
貌 1
相比 1
牌@@ 1
球會 1
艺 1
亨利 1
艺术@@ 1
母亲 1
大多数 1
經歷 1
记录 1
词@@ 1
冊 1
大陸 1
藥@@ 1
詞@@ 1
次年 1
成本 1
钢@@ 1
锡@@ 1
用作 1
金牌 1
红 1
廊 1
註 1
自治@@ 1
橋@@ 1
大致 1
JR 1
童 1
员@@ 1
历@@ 1
原始 1
重点 1
to 0.007011005933217134
扮演 1
顆 1
东南 1
符合 1
秘密 1
中國大陸 1
例子 1
芳 1
异 1
中共@@ 1
1947 0.8103392442922124
解放 1
絕 1
乾隆 1
錦@@ 1
路口 1
上述 1
题 1
民国 1
1000 1
覆@@ 1
列入 1
了解 1
庆 1
用途 1
北京市 1
釋 1
延 1
豪 1
自然@@ 1
1941 0.640337042365884
黑色 1
测@@ 1
52 1
年初 1
网站 1
41 1
通道 1
43 1
番 1
800 1
捕 1
齊 1
擔@@ 1
方言 1
75 1
户@@ 1
液@@ 1
需@@ 1
拒絕 1
細胞 1
舰队 1
南北 1
歐 1
虛@@ 1
抽@@ 1
伯特 1
琴@@ 1
澳 1
一份 1
教育@@ 1
違@@ 1
突然 1
莫斯科 1
熱 1
深度 1
湯@@ 1
幫助 1
蒙古@@ 1
伤 1
廣場 1
操 1
尋@@ 1
歷 1
下降 1
广 1
駐@@ 1
狄@@ 1
避@@ 1
舍 1
虫 1
重大 1
茲@@ 1
益@@ 1
识 1
續@@ 1
国会 1
捷 1
殘@@ 1
伏@@ 1
旋 1
苏 1
仔@@ 1
波兰 1
伍@@ 1
棋 1
凤@@ 1
他人 1
总理 1
英格蘭 1
冰 1
分為 1
屠@@ 1
爆發 1
甚@@ 1
斗 1
茶@@ 1
1952 0.817347571026733
杂志 1
控@@ 1
曾经 1
56 1
戴 1
談@@ 1
有所 1
法官 1
支流 1
r 0.32504916373624815
革@@ 1
技 1
廷@@ 1
斯蒂@@ 1
衝@@ 1
进攻 1
蘇聯 1
搜@@ 1
奥林匹克运动会 1
構 1
山西 1
1968 0.5950050286019206
喜 1
妹 1
苦 1
熊@@ 1
頻道 1
大會 1
日期 1
里斯 1
新疆 1
制定 1
1973 0.6069622903307049
淡水 1
脫@@ 1
退休 1
替 1
缩@@ 1
卒 1
裂 1
自行 1
摄@@ 1
47 1
奴 1
特征 1
敌@@ 1
辖 1
确定 1
壘 1
俄 1
烈@@ 1
電視@@ 1
脂 1
蛋白 1
歧@@ 1
建設 1
幅 1
办事处 1
鰭 1
分钟 1
猶@@ 1
炎 1
呂@@ 1
望@@ 1
火箭 1
占领 1
條件 1
源自 1
汽車 1
準備 1
大会 1
竹 1
娛樂 1
教會 1
敵 1
代码 1
化石 1
化合物 1
董@@ 1
三世 1
丙@@ 1
矿@@ 1
几乎 1
輝 1
網站 1
遵@@ 1
孤@@ 1
桑 1
这里 1
赢得 1
险 1
響 1
鋼@@ 1
奴@@ 1
旁@@ 1
还@@ 1
奪@@ 1
轮@@ 1
文学 1
状态 1
统一 1
介 1
雜@@ 1
成員@@ 1
藩 1
際 1
不斷 1
數量 1
药@@ 1
印尼 1
电子 1
混合 1
寻@@ 1
膜 1
觉 1
香港@@ 1
幕@@ 1
分配 1
孙 1
付@@ 1
1977 0.6137444027864971
公元 1
貿易 1
阵 1
每個 1
聯邦 1
還是 1
纪念 1
准备 1
围 1
苑 1
外交 1
城堡 1
最近 1
喬@@ 1
引 1
課程 1
莎@@ 1
養@@ 1
勃@@ 1
似@@ 1
醫療 1
解散 1
廉@@ 1
作战 1
中華@@ 1
另@@ 1
引入 1
腳 1
业务 1
盘 1
攻击 1
程式 1
海洋 1
属@@ 1
建于 1
答@@ 1
验 1
驅@@ 1
氧化@@ 1
宏@@ 1
维奇 1
英语 1
獸 1
an 0.01810748461765328
基于 1
的關 1
62 1
岭 1
變成 1
冒@@ 1
机关 1
精 1
家中 1
幻 1
體育@@ 1
辰 1
58 1
单 1
此次 1
隱@@ 1
1955 0.7934862898018797
里克 1
广泛 1
佐 1
以后 1
30@@ 1
1964 0.6379994891345357
實施 1
拆@@ 1
立即 1
粉 1
測@@ 1
亮@@ 1
輯 1
起来 1
1974 0.5660909390795005
上海市 1
塑@@ 1
资源 1
持续 1
1966 0.6536156113652115
51 1
盖@@ 1
高等@@ 1
退役 1
依然 1
利亞 1
人們 1
1938 0.7333452694653338
嶺 1
見@@ 1
一致 1
發出 1
TV 0.4534185898037897
女兒 1
去@@ 1
據@@ 1
已有 1
育@@ 1
夢 1
趣 1
年前 1
导演 1
商业 1
葡萄@@ 1
做出 1
平原 1
不到 1
允许 1
須 1
奥斯@@ 1
駕@@ 1
怒 1
极 1
結婚 1
举 1
粗@@ 1
返 1
半島 1
逮捕 1
统计 1
殖民地 1
軟@@ 1
飾演 1
归 1
旬 1
日本@@ 1
發售 1
9.@@ 1
一個@@ 1
伴@@ 1
脈 1
54 1
经常 1
金融 1
加州 1
数量 1
全国@@ 1
御 1
习@@ 1
慕@@ 1
同样 1
浩@@ 1
步兵 1
觀眾 1
疫 1
努力 1
此時 1
食品 1
说@@ 1
外交@@ 1
拍摄 1
估 1
讲@@ 1
伤@@ 1
側@@ 1
相对 1
劑 1
际 1
服務@@ 1
反對 1
备@@ 1
循@@ 1
弗 1
农业 1
一場 1
风暴 1
遊 1
廣告 1
業務 1
簽@@ 1
山大 1
绝@@ 1
今天 1
選手 1
邀 1
劃@@ 1
深圳 1
然@@ 1
評價 1
詩 1
1939 0.6198460421692823
民眾 1
尊 1
迁 1
25@@ 1
紐約 1
邓@@ 1
1954 0.7619261902523045
听@@ 1
銅@@ 1
缘 1
舰@@ 1
1944 0.5377452345917534
57 1
偶@@ 1
亚洲 1
郵@@ 1
不会 1
平面 1
管辖 1
鳥@@ 1
心理 1
委会 1
範@@ 1
公爵 1
坪 1
拉克 1
酶 1
協 1
崎@@ 1
群岛 1
派遣 1
比较 1
施 1
软件 1
將會 1
淮@@ 1
颁@@ 1
1971 0.5556386050530666
k 0.15642435953084874
天皇 1
建议 1
陆军 1
钱@@ 1
下令 1
枝 1
工程@@ 1
貴@@ 1
拒绝 1
城镇 1
响@@ 1
纪念@@ 1
袭 1
53 1
朝廷 1
拔 1
犯罪 1
資格 1
較@@ 1
創立 1
房屋 1
常見 1
调整 1
球場 1
多個 1
策@@ 1
本人 1
钱 1
洗@@ 1
現場 1
责 1
办公室 1
击败 1
鋒 1
列出 1
內部 1
贏得 1
自身 1
山脈 1
水库 1
王國 1
往往 1
第六@@ 1
签@@ 1
文學 1
揚 1
巡 1
从而 1
挪威 1
德语 1
迫 1
輛 1
雙 1
領域 1
購 1
1965 0.6131478985454633
走向 1
刺史 1
蓋@@ 1
泽 1
簡介 1
莊@@ 1
号@@ 1
证明 1
習性 1
更新 1
記錄 1
軌道 1
自動 1
沒@@ 1
身體 1
瓜@@ 1
剛@@ 1
49 1
設備 1
茂@@ 1
150 1
访 1
评价 1
宪法 1
近年 1
經常 1
專業 1
邻 1
上海@@ 1
庭@@ 1
召开 1
冠軍@@ 1
奈 1
劍 1
社區 1
蕭@@ 1
魂 1
瓜 1
1969 0.5759485817577484
管理局 1
扶@@ 1
某 1
間@@ 1
北美 1
名為 1
柔@@ 1
原子 1
級@@ 1
事業 1
胜@@ 1
请 1
国内 1
障@@ 1
革 1
訓 1
跡 1
責 1
解釋 1
1959 0.6945301776115568
临 1
俊@@ 1
团体 1
狱 1
由此 1
仙 1
昂@@ 1
生成 1
阻止 1
诗 1
助理 1
经历 1
九龍 1
er 0.023556769751012587
日军 1
代理 1
壽@@ 1
類似 1
太陽 1
荒@@ 1
敬 1
侍@@ 1
丈夫 1
廣泛 1
59 1
問 1
宾@@ 1
標為 1
胞@@ 1
─ 1
營運 1
太空 1
恶@@ 1
72 1
登上 1
健 1
出版社 1
起源 1
同盟 1
汪@@ 1
規劃 1
光緒 1
1942 0.6001696631350992
名为 1
電台 1
到达 1
啟 1
利益 1
籌@@ 1
鮮@@ 1
練@@ 1
小學 1
許多@@ 1
检@@ 1
物理@@ 1
01 1
工作@@ 1
鄧@@ 1
译@@ 1
省委 1
國民@@ 1
服役 1
63 1
升格 1
1957 0.7017090486458675
串 1
犯@@ 1
委书记 1
浙江省 1
阿拉@@ 1
例@@ 1
1953 0.7447465010428986
兒童 1
偉@@ 1
現代 1
破壞 1
剛 1
改制 1
题@@ 1
錫@@ 1
1936 0.7160636640096144
參賽 1
卜@@ 1
第六 1
热带 1
斯克 1
蒸@@ 1
痛 1
理事 1
媒 1
糖@@ 1
图书馆 1
高級 1
跨 1
军事@@ 1
养@@ 1
勇 1
中期 1
扬 1
敌 1
價值 1
1967 0.5664711667303219
苗@@ 1
翠@@ 1
翁 1
进一步 1
域@@ 1
大利 1
双 1
昭和 1
頻@@ 1
歇@@ 1
生物@@ 1
弟弟 1
辞@@ 1
截@@ 1
改变 1
託 1
像@@ 1
餘 1
批评 1
艦@@ 1
邮@@ 1
派出 1
給予 1
化学 1
縮 1
綜@@ 1
德里 1
背 1
討論 1
湘@@ 1
君主 1
y@@ 0.12048089433041673
样@@ 1
唐朝 1
賽季 1
未知 1
室@@ 1
賓 1
站台 1
科学院 1
上市 1
魔 1
彼得 1
譜 1
拆除 1
頁 1
主力 1
賴@@ 1
事情 1
贸易 1
唯@@ 1
繪@@ 1
星系 1
以南 1
絲@@ 1
伦敦 1
整 1
坚@@ 1
湖北 1
孫 1
怪 1
編 1
醇 1
羽 1
市政府 1
王子 1
敦 1
棒球 1
实施 1
破坏 1
江苏 1
积 1
王国 1
改編 1
討@@ 1
中共中央 1
l 0.07035629914722981
打算 1
1962 0.6127040388342004
山峰 1
伊利 1
凝@@ 1
1943 0.5743724686272245
濟 1
码 1
奏@@ 1
駛 1
薛@@ 1
灵 1
拉丁@@ 1
偵@@ 1
申請 1
计算 1
吨 1
擬 1
欧 1
跟@@ 1
校长 1
违@@ 1
万人 1
藤 1
患 1
灭 1
來源 1
桃@@ 1
姚@@ 1
辆 1
希臘 1
指揮 1
順 1
聞 1
争议 1
1961 0.6327427304546243
1951 0.7556464720233564
原住民 1
狗 1
汝@@ 1
从事 1
s@@ 0.0599496019543765
统 1
以北 1
爾斯 1
餐 1
岳@@ 1
规模 1
則是 1
綱 1
待@@ 1
體系 1
熟@@ 1
1963 0.6043668009760115
煤@@ 1
化学@@ 1
麼 1
车辆 1
作戰 1
靠近 1
76 1
卫星 1
謀 1
寮 1
议院 1
姐@@ 1
有限 1
外部 1
减少 1
吐@@ 1
c@@ 0.11561776236393954
广东省 1
人數 1
成都 1
火山 1
公开 1
公元前 1
鄉試 1
殖 1
希腊 1
沿海 1
原有 1
疏@@ 1
遇到 1
1935 0.7709767409797958
談 1
彩 1
胜利 1
下来 1
貴 1
脑 1
广播@@ 1
特性 1
錦標賽 1
此时 1
設計@@ 1
暂@@ 1
遭@@ 1
15@@ 1
午 1
联系 1
涉 1
罗马@@ 1
羅馬 1
式@@ 1
艦隊 1
開放 1
山东省 1
减@@ 1
讚 1
層@@ 1
議院 1
資源 1
迫@@ 1
正面 1
运输 1
含有 1
伏 1
实际 1
詹姆斯 1
试图 1
历任 1
飲@@ 1
替@@ 1
园@@ 1
婚姻 1
現代@@ 1
各自 1
粹 1
栽培 1
計算 1
概要 1
贊@@ 1
给@@ 1
胎 1
靜@@ 1
突破 1
61 1
创建 1
徒@@ 1
市长 1
厘米 1
協議 1
组建 1
杂@@ 1
池@@ 1
統治 1
分裂 1
匯@@ 1
收到 1
源于 1
丝 1
市区 1
產業 1
司令部 1
负@@ 1
險@@ 1
’ 0.03816447356138296
五月 1
穆斯林 1
拍@@ 1
夢@@ 1
00@@ 1
长期 1
四川省 1
飞 1
地名 1
南非 1
任教 1
飓风 1
辅@@ 1
學位 1
本線 1
首播 1
釋@@ 1
首席 1
隋@@ 1
骑@@ 1
态@@ 1
參考 1
88 1
硫@@ 1
雙方 1
頒@@ 1
羊@@ 1
暴力 1
淡@@ 1
爆炸 1
轴 1
乃 1
月球 1
空军 1
成绩 1
得名 1
比亚 1
主持人 1
汽@@ 1
大廈 1
滅@@ 1
嘉靖 1
波斯 1
置@@ 1
全長 1
担@@ 1
d@@ 0.08740975424558857
均@@ 1
進攻 1
頓@@ 1
断@@ 1
紙 1
領導 1
一款 1
虚@@ 1
主張 1
憑 1
測試 1
筹@@ 1
接替 1
NBA 1
・ 1
軌 1
憲@@ 1
婦 1
犹@@ 1
指挥@@ 1
66 1
解決 1
耳 1
奥地利 1
裏 1
频@@ 1
障 1
持有 1
忙 1
敘@@ 1
电子@@ 1
戶@@ 1
毫@@ 1
部門 1
模 1
卡尔 1
不断 1
滑 1
髮 1
革命@@ 1
意外 1
雷斯 1
II 0.18382560554253885
欲 1
撞 1
萧@@ 1
屬於@@ 1
两人 1
洞@@ 1
棋@@ 1
俱樂部 1
恰@@ 1
啟用 1
風暴 1
獻@@ 1
隐@@ 1
蓮@@ 1
小组 1
73 1
反映 1
康熙 1
教育部 1
傾@@ 1
训 1
沿 1
十三 1
肖@@ 1
农村 1
傅@@ 1
兄@@ 1
牙 1
斯基 1
× 1
市中心 1
怕 1
又称 1
95 1
阿根廷 1
质量 1
首相 1
商人 1
銜 1
电影@@ 1
厚@@ 1
游 1
賀@@ 1
抑@@ 1
解决 1
萊 1
半岛 1
济 1
理解 1
空中 1
拘@@ 1
同名 1
解释 1
說@@ 1
CD 0.7947536535537303
投資 1
然後@@ 1
女儿 1
衝突 1
良好 1
番@@ 1
裕 1
u 0.1383698850418098
十六 1
圖書館 1
控制@@ 1
河北 1
御史 1
戀@@ 1
双方 1
發動 1
承认 1
申 1
图示 1
状@@ 1
纵@@ 1
凡@@ 1
割 1
曰 1
锦@@ 1
吧 1
恆星 1
運作 1
移動 1
沖 1
豆 1
杭州 1
戲 1
资格 1
所在 1
700 1
廣東 1
性能 1
榜@@ 1
圓 1
t@@ 0.07507433535457614
喜歡 1
构成 1
文明 1
撰@@ 1
民間 1
缺 1
讯 1
锦标赛 1
出售 1
没 1
实验 1
耀@@ 1
共产党 1
評論 1
气候 1
~ 1
指示 1
河道 1
85 1
衔 1
探 1
霸@@ 1
保障 1
團隊 1
般@@ 1
问 1
互相 1
視為 1
僧@@ 1
碳 1
24@@ 1
输入 1
只要 1
荷蘭 1
高等 1
序@@ 1
职务 1
融@@ 1
本作 1
训练 1
f 0.269132903265446
实行 1
奥运会 1
学会 1
熙 1
日治 1
特徵 1
指控 1
叔@@ 1
偶像 1
繼 1
71 1
常委 1
氣象 1
袭击 1
几个 1
針 1
卡拉 1
牆 1
载@@ 1
斑@@ 1
階@@ 1
分类 1
勢力 1
在位 1
荷 1
ing 0.0329206551268158
消失 1
永 1
完工 1
方便 1
甫 1
物质 1
社会主义 1
荣 1
利斯 1
明星 1
未有 1
泛@@ 1
為止 1
服务@@ 1
獨 1
每天 1
兩種 1
醒 1
莊 1
总部 1
接收 1
民族@@ 1
詹@@ 1
追 1
胸@@ 1
工业@@ 1
维亚 1
86 1
静@@ 1
執導 1
套@@ 1
行政@@ 1
此站 1
拼@@ 1
重庆 1
分支 1
娘 1
应该 1
娃 1
英里 1
肥@@ 1
警告 1
南極洲 1
旅游 1
押 1
漁@@ 1
農 1
幽@@ 1
弦 1
幸 1
考慮 1
税 1
结合 1
檔 1
聽@@ 1
法庭 1
最多 1
夷 1
启@@ 1
条约 1
狀@@ 1
郊 1
留在 1
珍 1
球员 1
殿@@ 1
泥@@ 1
泥 1
強烈 1
恩省 1
創辦 1
燈 1
召 1
楼@@ 1
蒋@@ 1
防止 1
鍵 1
紋 1
67 1
尽@@ 1
穩定 1
價@@ 1
儒@@ 1
潜@@ 1
续@@ 1
宽@@ 1
科学@@ 1
碟 1
访问 1
1933 0.629236344613441
仿 1
掘 1
臨時 1
al 0.033501423990958935
治疗 1
120 1
专家 1
確定 1
上升 1
拿下 1
氯@@ 1
苦@@ 1
堪@@ 1
汇 1
1928 0.7165951088932339
小学 1
天文台 1
每日 1
願@@ 1
刚 1
师范@@ 1
地點 1
83 1
16@@ 1
怪@@ 1
衡 1
政权 1
主题 1
筆@@ 1
港口 1
以此 1
78 1
辭@@ 1
司法 1
典型 1
官員 1
現象 1
98 1
催@@ 1
外交部 1
巴赫 1
熊 1
河南省 1
1% 1
用来 1
戒 1
桃園 1
教会 1
石油 1
發布 1
开发@@ 1
身上 1
地利 1
毛泽东 1
轟@@ 1
所屬 1
顧 1
敢 1
細 1
獵@@ 1
腳@@ 1
形目 1
常用 1
弗朗@@ 1
寶 1
機關 1
74 1
不得 1
另一方面 1
氧化 1
x@@ 0.2784765241026521
奧林匹克 1
教練 1
共产@@ 1
質量 1
事务 1
99 1
接任 1
产业 1
辛 1
飛行 1
68 1
中华民国 1
69 1
镜 1
布拉@@ 1
當選 1
中式 1
织@@ 1
教徒 1
身分 1
宿@@ 1
任期 1
增长 1
行政院 1
予@@ 1
cn 1
硕@@ 1
盡 1
悲@@ 1
并于 1
驚@@ 1
特有 1
武汉 1
周年 1
實驗 1
被捕 1
艾 1
份@@ 1
蛋 1
出来 1
使用者 1
一场 1
尼亞@@ 1
译 1
規 1
蛋@@ 1
坛 1
第七 1
科夫 1
支付 1
構造 1
摧@@ 1
農業 1
玛 1
羊 1
體育 1
1931 0.7669707969995998
這次 1
50@@ 1
四个 1
賢 1
冲突 1
俘 1
手段 1
二十 1
凌晨 1
沿革 1
忽@@ 1
旦 1
西安 1
贾@@ 1
1932 0.7327264981282734
同日 1
並非 1
选手 1
電影@@ 1
權力 1
地形 1
第一位 1
该省 1
銷售 1
77 1
那里 1
少數 1
伍 1
um 0.07766141026580692
龄 1
運輸 1
codice 1
路段 1
1927 0.771983283553032
考虑 1
設定 1
獻 1
萬人 1
移动 1
祝 1
收集 1
愿 1
大賽 1
愿@@ 1
广西 1
證明 1
记者 1
许 1
郡@@ 1
麥 1
寿@@ 1
生存 1
鼻@@ 1
欧元 1
潭 1
所在地 1
純@@ 1
物質 1
逆@@ 1
性质 1
補 1
繞 1
领导人 1
恒星 1
成就 1
搬@@ 1
绍@@ 1
應該 1
海上 1
不要 1
承認 1
蛛 1
惡 1
藝人 1
合約 1
返@@ 1
政黨 1
賴 1
儲@@ 1
研 1
壁@@ 1
澤 1
规 1
坐标 1
英国@@ 1
通知 1
放棄 1
首位 1
明顯 1
i@@ 0.12012904358196104
選人 1
麻 1
失敗 1
一項 1
未来 1
旅行 1
掌 1
升任 1
蔣@@ 1
邁@@ 1
集合 1
次世界大战 1
开通 1
周邊 1
Z 0.9082028899045266
偷@@ 1
顺 1
玻@@ 1
責@@ 1
新闻@@ 1
汀 1
广播 1
麟 1
鬥@@ 1
名单 1
研究院 1
游泳 1
並將 1
振 1
提及 1
金属 1
意义 1
柱@@ 1
商品 1
84 1
92 1
早上 1
獎項 1
亿元 1
硬 1
能源 1
貢@@ 1
當年 1
讲 1
后者 1
有时 1
两种 1
料@@ 1
晉 1
必要 1
四個 1
歡迎 1
淘汰 1
殼 1
连续 1
謝 1
席位 1
一级 1
畢@@ 1
针 1
跑@@ 1
既 1
大幅 1
部長 1
落成 1
解放@@ 1
腐@@ 1
演奏 1
89 1
紅色 1
稳定 1
軟體 1
完 1
登場 1
81 1
下属 1
纽约 1
10.@@ 1
隶 1
德拉 1
院长 1
晶 1
盐@@ 1
盐 1
拟 1
繪 1
层@@ 1
数学 1
赖@@ 1
1934 0.6643783739207053
定居 1
儿童 1
91 1
增 1
害@@ 1
折 1
食用 1
数字 1
键 1
40@@ 1
哈尔@@ 1
商店 1
江苏省 1
档 1
貝 1
即位 1
甸 1
斯州 1
顧@@ 1
出道 1
安徽 1
东临 1
窗@@ 1
荷兰 1
古老 1
大夫 1
n@@ 0.07886103911772567
贝 1
06 1
大桥 1
05 1
俊 1
宣傳 1
狂@@ 1
縮@@ 1
79 1
十一 1
工厂 1
介紹 1
誕@@ 1
困 1
公斤 1
芒 1
抗日 1
东西 1
蝶 1
大学@@ 1
视频 1
中国人民@@ 1
另有 1
湖泊 1
祝@@ 1
祠 1
說法 1
劇集 1
駛@@ 1
享年 1
礦@@ 1
储@@ 1
贝尔 1
金山 1
筆 1
纪 1
体育 1
航空@@ 1
乐队 1
濱 1
粒子 1
亡@@ 1
发动 1
賈@@ 1
改建 1
最低 1
儀@@ 1
金屬 1
82 1
裝置 1
23@@ 1
来说 1
罕@@ 1
西斯 1
观点 1
丰 1
祥@@ 1
十八 1
引发 1
令人 1
舞蹈 1
第七@@ 1
原先 1
慢@@ 1
火星 1
教练 1
本片 1
冯@@ 1
廣州 1
謀@@ 1
儀式 1
评论 1
爵士 1
直播 1
起义 1
亨@@ 1
邑 1
範 1
豆@@ 1
欣@@ 1
撰 1
譽 1
當局 1
局长 1
大家 1
93 1
发射 1
理想 1
吸收 1
媒@@ 1
宣传 1
综合 1
拳@@ 1
这次 1
规则 1
廖@@ 1
一人 1
创办 1
教宗 1
枪@@ 1
谢 1
峰@@ 1
理由 1
87 1
下列 1
陕西 1
翔 1
堆 1
沟 1
蹟 1
丸 1
夕 1
a@@ 0.1340164187054925
临时 1
什么 1
高雄市 1
推動 1
類型 1
乔治 1
鐘 1
继 1
億@@ 1
打破 1
選為 1
亿@@ 1
仪 1
兄 1
礙 1
锡 1
經濟@@ 1
1929 0.6491216804961809
r@@ 0.07902770468256501
阳市 1
p@@ 0.0762494203476114
沉 1
‘ 0.6671173879196645
针对 1
東北 1
雀 1
出入口 1
08 1
壓力 1
抵抗 1
炸 1
烟@@ 1
奧斯@@ 1
十四 1
悉 1
现象 1
锋 1
不滿 1
鍾 1
憶 1
學名 1
國內 1
贈 1
袋 1
电视剧 1
兒@@ 1
痛@@ 1
灭@@ 1
店@@ 1
滨@@ 1
朝鲜@@ 1
配置 1
奎@@ 1
學會 1
宅 1
北海道 1
千米 1
雌@@ 1
束 1
缓@@ 1
衡@@ 1
姜@@ 1
斯坦@@ 1
發射 1
明显 1
ー 1
汉族 1
旨 1
號線 1
夠 1
統計 1
祿 1
基督 1
飞行 1
將其 1
失败 1
發起 1
一百@@ 1
麵 1
慧@@ 1
已知 1
符@@ 1
一项 1
蹤 1
零 1
英格兰 1
通用 1
人数 1
援助 1
網絡 1
覺@@ 1
玻璃 1
罗斯@@ 1
似乎 1
祭 1
兩年 1
螺 1
海軍@@ 1
2% 1
損@@ 1
藝術@@ 1
時任 1
聘 1
上下 1
权力 1
黑龙@@ 1
表達 1
杜 1
市區 1
多數 1
26@@ 1
公安@@ 1
撤退 1
形容 1
方程 1
斑 1
子女 1
97 1
常见 1
赞 1
南市 1
姐 1
1918 0.5298802397019422
青岛 1
噴@@ 1
鲍@@ 1
並以 1
布朗 1
雍@@ 1
陷入 1
经营 1
斯堡 1
处于 1
比利 1
戒@@ 1
1912 0.7153047959589196
建築@@ 1
徽 1
惟@@ 1
儿@@ 1
波蘭 1
冰川 1
剑 1
乌克兰 1
緬@@ 1
安全@@ 1
彌@@ 1
宾 1
引种 1
贵 1
出來 1
汤@@ 1
观众 1
在内 1
寬@@ 1
列为 1
洪 1
滩 1
96 1
委員@@ 1
讨论 1
尼克 1
天下 1
疫苗 1
構@@ 1
乎 1
屈@@ 1
規則 1
办理 1
电台 1
b@@ 0.07475137106606206
for 0.011469017912539098
劍@@ 1
OS 1
泰國 1
並沒有 1
最好 1
逃 1
大街 1
憲法 1
当年 1
避 1
拖@@ 1
擾 1
耐@@ 1
展開 1
練 1
福建省 1
围绕 1
大楼 1
聯合國 1
積為 1
維亞 1
暨 1
非法 1
加利福尼 1
結合 1
关注 1
岸@@ 1
Q 1
邵@@ 1
十字 1
地圖 1
聚落 1
上帝 1
成長 1
の 1
威脅 1
三角@@ 1
中有 1
安娜 1
魔法 1
医生 1
翌年 1
过去 1
较@@ 1
矿 1
扬@@ 1
算法 1
寒@@ 1
影像 1
女王 1
剪@@ 1
坑@@ 1
教师 1
平衡 1
響@@ 1
来到 1
资料 1
遭受 1
收購 1
展开 1
濃@@ 1
03 1
課 1
紀念@@ 1
首歌 1
通信 1
透露 1
抵达 1
猛@@ 1
敗@@ 1
腔 1
实际上 1
测试 1
此地 1
聚 1
此事 1
萬元 1
第八 1
巫@@ 1
内陆 1
腓@@ 1
太后 1
國東 1
經驗 1
漫 1
一首 1
起初 1
率领 1
肌@@ 1
... 0.26555273050025413
作曲 1
商場 1
构 1
鬼@@ 1
碧@@ 1
并入 1
停靠 1
陸續 1
一半 1
布鲁@@ 1
塞尔 1
崎 1
患@@ 1
朴@@ 1
鹿 1
国民@@ 1
重量 1
想要 1
三人 1
栖@@ 1
句@@ 1
驾@@ 1
南京@@ 1
披@@ 1
估計 1
災 1
辭 1
討 1
戀 1
勤@@ 1
hant 1
刚@@ 1
比亞 1
补 1
脫 1
以便 1
洛克 1
河北省 1
角度 1
定期 1
總理 1
带来 1
法兰@@ 1
壮@@ 1
晋 1
80@@ 1
新聞@@ 1
94 1
蟹 1
壤 1
女孩 1
誤 1
→ 1
引發 1
內閣 1
演化 1
工作室 1
枢@@ 1
客运 1
豐 1
监 1
标志 1
珊@@ 1
薄@@ 1
郊@@ 1
融合 1
泊@@ 1
通往 1
粒 1
晨 1
翼@@ 1
价值 1
擅@@ 1
學系 1
月底 1
相反 1
斷@@ 1
菌@@ 1
隶@@ 1
以西 1
滨 1
很少 1
一代 1
瑪 1
恒@@ 1
覽 1
更是 1
联合@@ 1
同性 1
朱 1
忍@@ 1
斜@@ 1
聚集 1
特里 1
计算机 1
一枚 1
联合会 1
兆@@ 1
09 1
策略 1
功率 1
銀 1
了@@ 1
创 1
常常 1
伊州 1
十五 1
侍郎 1
灾 1
遭遇 1
额@@ 1
萨克@@ 1
黄 1
卑@@ 1
嘉義@@ 1
院士 1
多名 1
姬 1
27@@ 1
编辑 1
02 1
AT@@ 1
绝对 1
旺 1
信號 1
衍生 1
四月 1
奥运 1
新建 1
搖@@ 1
AS@@ 0.7549076736978011
況 1
燕 1
开展 1
胺 1
1919 0.5517914273693448
聞@@ 1
獅@@ 1
信号 1
斯塔 1
鸟 1
氨@@ 1
港元 1
總部 1
呎 1
贡献 1
既@@ 1
谓 1
台北市 1
沿岸 1
陀 1
损@@ 1
权利 1
州府 1
市委 1
途中 1
項@@ 1
達成 1
1924 0.6367601780421169
覽@@ 1
械@@ 1
時段 1
公眾 1
連結 1
谱 1
电视@@ 1
杭@@ 1
说法 1
北面 1
佩 1
介绍 1
關注 1
划 1
密度 1
念@@ 1
亚历@@ 1
情形 1
卷@@ 1
效率 1
展出 1
高级 1
柴油机 1
简单 1
掩@@ 1
青少年 1
南省 1
鐘@@ 1
组合 1
凌@@ 1
钟@@ 1
覆 1
政党 1
開設 1
礁 1
航班 1
搬 1
冬 1
南美洲 1
華人 1
賣@@ 1
主流 1
接觸 1
悬@@ 1
撒 1
有着 1
花園 1
天体 1
必 1
大规模 1
參選 1
先後@@ 1
隨即 1
对象 1
幻@@ 1
邀請 1
中市 1
頻 1
武帝 1
肺炎 1
序列 1
赖 1
丑 1
赛事 1
献@@ 1
主打 1
末期 1
指揮@@ 1
伊拉克 1
闻@@ 1
繫 1
at 0.014625174463365202
奪得 1
衛生 1
襄@@ 1
坝 1
災@@ 1
凱 1
销@@ 1
新界 1
燃料 1
立陶宛 1
争 1
本科 1
参赛 1
古典 1
息@@ 1
继承 1
安装 1
道德 1
輻@@ 1
觉@@ 1
簡單 1
中文@@ 1
症@@ 1
整合 1
代替 1
島嶼 1
政權 1
巡洋@@ 1
校区 1
兩者 1
氣旋 1
芳@@ 1
贝尔@@ 1
平均@@ 1
霸 1
g@@ 0.07103485646867583
董事@@ 1
自我 1
數位 1
克拉 1
共產黨 1
昇 1
菩@@ 1
控股 1
米尔 1
差異 1
晓@@ 1
巴基斯坦 1
救援 1
分成 1
年齡 1
恐怖 1
时任 1
龐@@ 1
人生 1
月初 1
来源 1
鹽 1
防部 1
意味@@ 1
雖@@ 1
最高@@ 1
清代 1
倾@@ 1
ia 0.11434968732215199
動力 1
盡@@ 1
罰 1
1925 0.6449809015213326
28@@ 1
其實 1
涵@@ 1
z 0.14615526836354203
陪@@ 1
犹太人 1
援@@ 1
魚類 1
新型 1
菲律賓 1
伯爵 1
谋@@ 1
叔 1
答 1
時代@@ 1
氧@@ 1
玩 1
動作 1
秦 1
檔@@ 1
隸 1
像是 1
定性 1
埔@@ 1
稀@@ 1
仪式 1
備@@ 1
受傷 1
條例 1
1917 0.5870314208301189
单曲 1
喪@@ 1
錯 1
運行 1
勝利 1
1926 0.6299258054785292
镜@@ 1
十字@@ 1
引用 1
毕@@ 1
漸 1
癌 1
拍攝 1
分校 1
罩 1
Google 1
原理 1
o@@ 0.08335025609479238
1914 0.572280193756906
鎖 1
劇場 1
倉 1
誤@@ 1
DVD 1
區的 1
耀 1
卢瓦尔 1
尖 1
km 0.13263626425592828
屯 1
翻译 1
碳@@ 1
宪@@ 1
新竹 1
签署 1
12.@@ 1
八月 1
结婚 1
超级 1
幾個 1
公众 1
数据@@ 1
毗@@ 1
体系 1
着@@ 1
跳 1
挑戰 1
AR@@ 0.8148161040112019
現今 1
詳@@ 1
主管 1
胡 1
興趣 1
收藏 1
传播 1
安裝 1
事實 1
負責@@ 1
轨 1
優 1
29@@ 1
支持者 1
el 0.00967572925167404
洛斯 1
冀@@ 1
斯科@@ 1
格式 1
鏡@@ 1
偶 1
澳大利 1
软@@ 1
参数 1
稅 1
攻打 1
涉@@ 1
南面 1
創造 1
如今 1
万美元 1
燒 1
实验室 1
政部 1
纪录 1
矩@@ 1
貓 1
北市 1
生产@@ 1
Ch@@ 0.09938209846028419
運動@@ 1
回應 1
主义@@ 1
佔@@ 1
維爾 1
请求 1
坐 1
競爭 1
机会 1
柏 1
耗@@ 1
濟@@ 1
十二@@ 1
励 1
斐@@ 1
噶@@ 1
租 1
纽约@@ 1
福州 1
抓@@ 1
安徽省 1
天然 1
国民党 1
考古 1
茅@@ 1
匹 1
干部 1
菊@@ 1
信徒 1
十月 1
訴@@ 1
卡斯 1
曾祖 1
近代 1
动画 1
大聯盟 1
鄂@@ 1
針對 1
绘@@ 1
府@@ 1
溫度 1
览 1
喇@@ 1
太陽@@ 1
際@@ 1
疆 1
农 1
起來 1
南海 1
k@@ 0.07592655686590072
樣@@ 1
党员 1
as 0.00914495030439035
蒲@@ 1
證據 1
采取 1
威胁 1
依照 1
菜@@ 1
休 1
哲学 1
亨 1
此前 1
入境 1
附 1
1922 0.6180470096809366
統治@@ 1
巴伐@@ 1
載@@ 1
相互 1
牧 1
愛爾蘭 1
勒斯 1
罗斯 1
崖 1
叉 1
高原 1
相当 1
訂@@ 1
想法 1
太平 1
瑟夫 1
超越 1
亞目 1
联合国 1
七月 1
允許 1
毅 1
顏色 1
依據 1
众多 1
纽@@ 1
湖南省 1
裂@@ 1
专门 1
者@@ 1
视为 1
04 1
全长 1
爵@@ 1
成分 1
二月 1
俠 1
文献 1
特点 1
績 1
日报 1
迪士尼 1
意識 1
縱@@ 1
三角 1
卖 1
装置 1
族群 1
格勒 1
隨 1
至於 1
放在 1
編劇 1
織@@ 1
壽 1
拳 1
突出 1
技术@@ 1
死刑 1
機器 1
上方 1
哥伦@@ 1
審 1
狼 1
幫@@ 1
学科 1
馮@@ 1
採取 1
部署 1
分之一 1
征服 1
医学 1
女主角 1
豹 1
並未 1
什麼 1
伸@@ 1
万元 1
领袖 1
et 0.00911444600154231
雨量 1
轰@@ 1
布魯@@ 1
學術 1
教士 1
遗产 1
肃@@ 1
扩大 1
全国政协 1
司令@@ 1
250 1
瘤 1
主場 1
德國@@ 1
柄 1
函數 1
塘@@ 1
划归 1
海峡 1
话@@ 1
华盛@@ 1
聯合@@ 1
多种 1
那么 1
谋 1
烷 1
逼@@ 1
放弃 1
銷量 1
岡 1
一带 1
1.5 1
寨 1
尼古@@ 1
原來 1
创造 1
高雄 1
德斯 1
氣候 1
症状 1
星等 1
犬 1
訓@@ 1
定理 1
物品 1
畫家 1
班次 1
邱@@ 1
匹@@ 1
壞 1
紹@@ 1
邊界 1
閣 1
燒@@ 1
漸@@ 1
尔特 1
漠 1
大眾 1
发起 1
窗 1
阿富汗 1
六月 1
巧@@ 1
掌握 1
病逝 1
抗議 1
岩石 1
懸@@ 1
穴 1
谈 1
辑 1
碰@@ 1
红色 1
平等 1
帅 1
埔 1
十九 1
危機 1
山地 1
损失 1
牵引 1
上面 1
成熟 1
一共 1
内战 1
國家隊 1
巷 1
胶@@ 1
地点 1
肃 1
用以 1
屏 1
上陣 1
成人 1
稍@@ 1
半年 1
藉 1
迦@@ 1
貼 1
鷹 1
自动 1
叛 1
原則 1
阿里 1
流量 1
平民 1
涉嫌 1
自此 1
表达 1
山区 1
武装 1
性質 1
東南@@ 1
染 1
笔@@ 1
館@@ 1
关闭 1
堡@@ 1
代表团 1
磨@@ 1
替代 1
相對 1
声称 1
幼 1
現任 1
首度 1
航空公司 1
传说 1
奠@@ 1
阻 1
出色 1
地上 1
设计@@ 1
塑 1
隨後 1
夺 1
尼亚州 1
吻 1
仪@@ 1
码@@ 1
襲擊 1
岳 1
泡 1
贵族 1
殖民 1
购买 1
三月 1
生產@@ 1
議員@@ 1
饰@@ 1
繼承@@ 1
民众 1
07 1
妙 1
彻@@ 1
電車 1
变成 1
兵团 1
傳說 1
吏@@ 1
一套 1
改编 1
法蘭@@ 1
道光 1
爆 1
葡@@ 1
山西省 1
销售 1
梵@@ 1
清楚 1
理念 1
識@@ 1
转移 1
芭@@ 1
1921 0.5917884195466039
喷@@ 1
推行 1
仿@@ 1
鄰近 1
银 1
邀请 1
MV 1
哥哥 1
芝加哥 1
脊@@ 1
反而 1
$ 0.14411333768722903
書院 1
中間 1
迷你 1
一方 1
浙@@ 1
珊 1
幫 1
.@@ 0.17791879449649717
试验 1
行走 1
验@@ 1
四大 1
险@@ 1
省政府 1
耕@@ 1
鼓 1
格拉 1
路易 1
委任 1
居民点 1
大阪 1
棘 1
该市 1
入选 1
具体 1
成年 1
排行榜 1
映@@ 1
知識 1
名單 1
選出 1
徽@@ 1
工廠 1
泰勒 1
排列 1
聲音 1
合同 1
剑@@ 1
可用 1
威爾@@ 1
挖@@ 1
年轻 1
买@@ 1
or 0.025080511918368752
貨 1
加以 1
环形山 1
比較 1
化學 1
理器 1
现任 1
西班牙语 1
聲明 1
抵達 1
剧院 1
悠@@ 1
v 0.2738780614580335
人大代表 1
榮譽 1
周边 1
阿拉 1
史密斯 1
陨石坑 1
夫斯基 1
示威 1
装备 1
震 1
座位 1
砂@@ 1
做法 1
觀測 1
下方 1
吞@@ 1
發電@@ 1
韓 1
隊伍 1
101 1
校長 1
妹妹 1
典禮 1
圭 1
满足 1
領袖 1
梦@@ 1
长江 1
ar 0.04476442840272078
通车 1
任天堂 1
俄国 1
調整 1
一間 1
路上 1
团队 1
周围 1
連載 1
矛盾 1
盜 1
不得不 1
強調 1
碼頭 1
杨 1
进士 1
濱@@ 1
西接 1
雇@@ 1
山市 1
两次 1
创立 1
基本@@ 1
遣@@ 1
晚期 1
60@@ 1
尋找 1
認識 1
稻@@ 1
神社 1
CO@@ 0.9493656519370238
揚@@ 1
f@@ 0.06398872857623232
測量 1
精神@@ 1
天使 1
亥@@ 1
藥物 1
11.@@ 1
ン 1
纹 1
編輯 1
賢@@ 1
保守 1
es 0.01538070014973562
斜 1
緊 1
棄 1
部位 1
3000 1
奔@@ 1
全世界 1
電話 1
韦 1
IN@@ 1
世界杯 1
5% 1
刀@@ 1
訪問 1
邻@@ 1
鯉 1
1913 0.6438482397616351
1911 0.6809248366665507
囊 1
手中 1
水深 1
蕨 1
偉 1
络@@ 1
婆 1
祈@@ 1
種族 1
估计 1
織 1
1923 0.5875095395550735
管制 1
作曲家 1
生態 1
公交 1
声明 1
多利 1
污染 1
傳播 1
奧運@@ 1
激烈 1
聘@@ 1
淑@@ 1
课程 1
人大 1
婦@@ 1
洗 1
租界 1
可是 1
队伍 1
篇@@ 1
知縣 1
保护@@ 1
湖北省 1
西省 1
复杂 1
当局 1
正是 1
对应 1
暴 1
會長 1
發表@@ 1
政治家 1
法國@@ 1
顾@@ 1
崩@@ 1
彰 1
逐步 1
剩下 1
積極 1
嘗試 1
尹@@ 1
如同 1
蘇格蘭 1
徵 1
℃ 1
戰後@@ 1
成果 1
碎@@ 1
入口 1
整體 1
斯塔@@ 1
橡@@ 1
踏@@ 1
經典 1
行人 1
臂 1
綱@@ 1
领土 1
事业 1
十大 1
观察 1
荣誉 1
3% 1
貫 1
試圖 1
勞 1
意見 1
腦@@ 1
路线 1
連任 1
全新 1
損 1
碎 1
导弹 1
藉由 1
藍 1
課@@ 1
翻譯 1
色彩 1
重返 1
主张 1
天津市 1
疏 1
检测 1
妇 1
特拉 1
廢除 1
靜 1
形态 1
運用 1
ST@@ 1
泰国 1
女人 1
总督 1
合法 1
泳@@ 1
西里 1
嚴 1
恨 1
四世 1
方程式 1
施工 1
蔡 1
軍團 1
常务@@ 1
α 0.9805689287122688
贡 1
卢 1
職務 1
劫 1
娶 1
中间 1
國際賽 1
進步 1
鸟@@ 1
削@@ 1
认 1
一生 1
延長 1
税@@ 1
琉球 1
黑人 1
三名 1
講 1
販@@ 1
马尔@@ 1
倉@@ 1
兵力 1
大批 1
警報 1
发动机 1
绝 1
署@@ 1
件@@ 1
耗 1
责任 1
棕@@ 1
资金 1
雕 1
彥 1
推翻 1
劳 1
食性 1
小組 1
桃 1
第一部 1
沟@@ 1
醫學 1
鮑@@ 1
窄 1
座堂 1
1900 0.5870336550242705
韋 1
佔領 1
并未 1
芬兰 1
琪 1
东北部 1
首任 1
權利 1
隶属于 1
克尔 1
東西 1
疾@@ 1
习 1
惜 1
动力 1
拔@@ 1
35@@ 1
修道院 1
勃 1
覆盖 1
秘书长 1
原型 1
绕 1
长度 1
醫生 1
薦 1
理学 1
經理 1
旨在 1
示威者 1
最小 1
輸 1
罕 1
之戰 1
當中陸 1
斯托@@ 1
適 1
一篇 1
左翼 1
扭@@ 1
楚 1
努 1
燈@@ 1
担 1
损 1
路易@@ 1
沙田 1
修正 1
全国人民代表大会 1
三次 1
並不@@ 1
氢@@ 1
江南 1
氧 1
寸 1
彰化 1
筒 1
地中海 1
人才 1
腦 1
销 1
人民币 1
顧問 1
埋@@ 1
mm 0.39462101010019923
樂隊 1
研究生 1
槽 1
實現 1
藻 1
診@@ 1
麦 1
午@@ 1
尚书 1
衛星 1
塞尔@@ 1
買@@ 1
商业@@ 1
境外 1
男女 1
笔 1
質疑 1
中正 1
阿拉伯@@ 1
探索 1
賞@@ 1
交易所 1
誠@@ 1
貢獻 1
第三次 1
言人 1
之上 1
哪@@ 1
預計 1
遍@@ 1
卵@@ 1
顯 1
赤 1
辨@@ 1
鬥 1
海南 1
其餘 1
宏 1
纯@@ 1
慕尼黑 1
督府 1
理工@@ 1
意见 1
冕 1
法令 1
帶來 1
廠@@ 1
同步 1
鐵路@@ 1
乳 1
史蒂@@ 1
橄@@ 1
错误 1
亩 1
腿 1
賜 1
后期 1
铸@@ 1
立方米 1
地下@@ 1
錦 1
星期 1
接触 1
曲目 1
吉林@@ 1
没@@ 1
觀點 1
錯誤 1
灾@@ 1
腊@@ 1
額@@ 1
塔尼 1
民進 1
減 1
首個 1
新城 1
曉@@ 1
怎@@ 1
北平 1
捷克 1
厝 1
泽尔 1
购@@ 1
戰士 1
足以 1
视星等 1
东方 1
妮@@ 1
工程师 1
武裝 1
事務@@ 1
確認 1
才@@ 1
串@@ 1
亿 1
铁路局 1
保險 1
味@@ 1
歉 1
祀 1
贡@@ 1
剩@@ 1
簽署 1
饮@@ 1
雜 1
坡@@ 1
解除 1
经理 1
哲 1
迫使 1
納州 1
DNA 1
禄 1
伟@@ 1
定義 1
丝@@ 1
印第@@ 1
根本 1
w 0.20934573445395632
# 0.4225205889871201
陷@@ 1
階 1
百姓 1
洛夫 1
公室 1
柬埔寨 1
集团@@ 1
职业@@ 1
上游 1
光绪 1
肯定 1
湿@@ 1
德意志 1
機械 1
现场 1
戊@@ 1
軸@@ 1
问@@ 1
婆@@ 1
大部份 1
仇@@ 1
百年 1
多人 1
细 1
比利时 1
變得 1
欢迎 1
廣東@@ 1
模特 1
ensis 0.5901039159105971
箭 1
帥 1
藩@@ 1
链@@ 1
教学 1
薇 1
提交 1
评 1
放送 1
東方 1
出场 1
將軍@@ 1
塞爾@@ 1
顿@@ 1
蓮 1
先前 1
好友 1
暖 1
阁 1
阶级 1
綠色 1
溯 1
中原 1
裝備 1
閱@@ 1
顾问 1
冲 1
弟@@ 1
灰 1
十二年 1
軟 1
齡 1
盾 1
红军 1
爾德 1
王位 1
宰@@ 1
900 1
布尔 1
籃球 1
溝@@ 1
杆 1
侧@@ 1
些 1
剧情 1
练@@ 1
容量 1
阪@@ 1
马克@@ 1
办公@@ 1
览@@ 1
诚 1
菲利@@ 1
亿美元 1
强度 1
風險 1
民主党 1
絡 1
篮球 1
院校 1
本名 1
粮@@ 1
请@@ 1
听 1
新西@@ 1
除此之外 1
會試 1
‧ 1
私立 1
保安 1
1909 0.7144217929523701
纽 1
蓬@@ 1
訪@@ 1
量子 1
媽@@ 1
陈 1
關閉 1
现代@@ 1
定位 1
UN@@ 0.9184319548832689
教師 1
洛杉磯 1
鄰@@ 1
高地 1
110 1
苯@@ 1
九月 1
加强 1
合物 1
欣 1
知府 1
否 1
货运 1
压力 1
神秘 1
l@@ 0.06111004949313628
氣壓 1
en 0.004342359798672836
叫做 1
独 1
動機 1
尿@@ 1
社交 1
m@@ 0.07228319454672526
发出 1
巢 1
歌唱 1
請@@ 1
題@@ 1
终 1
舟 1
總督 1
on@@ 0.06647748752081374
校舍 1
仇 1
華盛頓 1
嗣 1
亞歷 1
拱@@ 1
囚@@ 1
蒙特 1
裁判 1
其余 1
梯@@ 1
确认 1
忆 1
緩@@ 1
边界 1
吹@@ 1
埃尔 1
町@@ 1
接管 1
大公 1
保罗 1
喬治@@ 1
南北@@ 1
农民 1
市長 1
缩 1
辖@@ 1
保護@@ 1
愈 1
加利 1
丹尼 1
丧@@ 1
加工 1
株 1
玲 1
公告 1
屍@@ 1
勳@@ 1
國家@@ 1
蔣 1
孟加@@ 1
两年 1
一群 1
腾@@ 1
脂@@ 1
對象 1
祭祀 1
古巴 1
福利 1
繼承 1
德尔 1
錢@@ 1
学术 1
英文@@ 1
姆斯 1
虹 1
印刷 1
对此 1
建築物 1
奶@@ 1
较大 1
寓 1
一批 1
這裡 1
v@@ 0.08086256985496494
太守 1
生長 1
每次 1
子公司 1
十一年 1
竣工 1
布里@@ 1
葬@@ 1
觸@@ 1
论文 1
卢瓦@@ 1
以往 1
永久 1
h@@ 0.06209740419482395
布里 1
領土 1
洛特 1
am 0.037290221974321025
采 1
政治部 1
凯 1
战略 1
ch@@ 0.047490881089422836
恭@@ 1
厦 1
喜欢 1
高架 1
拉德 1
磷@@ 1
享 1
蛇@@ 1
么 1
遊行 1
接著 1
私 1
大字 1
庇@@ 1
初年 1
证据 1
丰富 1
三届 1
日報 1
讷@@ 1
贫@@ 1
妇女 1
祖先 1
扁 1
億元 1
士学位 1
缅甸 1
气旋 1
宣言 1
山脉 1
標誌 1
移居 1
第九 1
Re@@ 0.10653771139054692
贵州 1
煙@@ 1
亲 1
前者 1
廟@@ 1
反抗 1
恆@@ 1
白人 1
是因为 1
11@@ 1
即可 1
烧@@ 1
架構 1
軌@@ 1
带有 1
入球 1
琳@@ 1
智慧 1
小姐 1
辯@@ 1
己@@ 1
启用 1
解放军 1
能性 1
闻 1
狂 1
戲劇 1
有意 1
利亚@@ 1
平方@@ 1
年任 1
较为 1
1916 0.6133665651631132
诞@@ 1
离子 1
逻@@ 1
天文@@ 1
對方 1
水量 1
合唱 1
辩@@ 1
勝出 1
最新 1
癌@@ 1
膠 1
够 1
山口 1
ER@@ 1
辟 1
顏@@ 1
订@@ 1
推 1
灘 1
夷@@ 1
涌 1
繁 1
貧@@ 1
指令 1
循 1
兩名 1
擁@@ 1
加勒@@ 1
履@@ 1
她@@ 1
棟 1
力学 1
定義@@ 1
屿 1
HR 1
幻想 1
斥 1
飯 1
吾 1
律師 1
温度 1
高校 1
出版@@ 1
外界 1
韓國@@ 1
甜@@ 1
貞@@ 1
斯山 1
便是 1
强烈 1
医 1
樞@@ 1
国人 1
id 0.26387980567324115
册 1
價格 1
壳 1
印地安 1
期刊 1
其父 1
圈@@ 1
碑@@ 1
2.5 1
岗@@ 1
穆罕默德 1
斯托 1
彼得@@ 1
知县 1
實行 1
不仅 1
民國@@ 1
芝 1
說明 1
智利 1
講述 1
国家队 1
喬治 1
AN@@ 1
豫@@ 1
律师 1
嘴 1
遮@@ 1
奖项 1
老師 1
十二月 1
任職 1
原来 1
国立 1
送到 1
元朝 1
释放 1
普通@@ 1
阿爾 1
消 1
中华人民共和国@@ 1
丹麦 1
罷@@ 1
學士 1
演員@@ 1
自殺 1
球场 1
齿 1
芒@@ 1
1910 0.5312609957458561
多種 1
莎白 1
AM@@ 0.98378801498554
女神 1
锁 1
靖@@ 1
鰭@@ 1
找@@ 1
拉丁 1
潜艇 1
實驗@@ 1
登陸 1
畔 1
误@@ 1
阿尔卑@@ 1
回答 1
棉@@ 1
九龍@@ 1
叙@@ 1
协助 1
取自 1
堤 1
年時 1
j@@ 0.07080790550461534
卫生@@ 1
得分 1
机械 1
眠 1
变得 1
奥尔@@ 1
彼此 1
滋@@ 1
东南部 1
爱尔兰 1
称作 1
1915 0.582865338780606
扩展 1
AC@@ 0.839661886943717
威尔 1
旅遊 1
拉姆 1
价格 1
十三年 1
页 1
沼@@ 1
飛彈 1
劇本 1
in@@ 0.0381218579710463
可見 1
新疆@@ 1
議題 1
專門 1
九州 1
責任 1
三位 1
撫 1
總站 1
路易斯 1
宗教@@ 1
至此 1
般 1
官至 1
脱 1
al@@ 0.05299321315484138
批判 1
江戶 1
东北@@ 1
損失 1
受伤 1
有名 1
陀@@ 1
夏威@@ 1
誉 1
污@@ 1
布拉 1
肇@@ 1
踪 1
荐 1
马克 1
赠 1
铺 1
13.@@ 1
罚 1
遣 1
黑暗 1
斯洛伐克 1
斗争 1
吃@@ 1
中山@@ 1
鯉@@ 1
倡@@ 1
書籍 1
紙@@ 1
之名 1
杀死 1
電力 1
祐 1
事物 1
償 1
刺激 1
谈@@ 1
贺@@ 1
羅馬@@ 1
90@@ 1
弱@@ 1
向量 1
桌@@ 1
立場 1
椅 1
頗 1
鹽@@ 1
難以 1
指导 1
澄@@ 1
明代 1
辽宁@@ 1
兩次 1
社群 1
AP@@ 0.9550500387019657
莱茵 1
分解 1
注入 1
克羅@@ 1
斯科 1
兩位 1
卫视 1
站房 1
挂 1
加強 1
灯 1
Ar@@ 0.08815844039514192
该地 1
马斯 1
叙利亚 1
戌 1
势力 1
專 1
克里 1
70@@ 1
多数 1
通車 1
貝爾@@ 1
福特 1
公式 1
滕@@ 1
公社 1
更改 1
а 0.07375830113930613
受害@@ 1
朵 1
領導@@ 1
爾頓 1
姑@@ 1
维持 1
貴族 1
一旦 1
汗@@ 1
茂 1
寿 1
龙省 1
新人 1
昭 1
頒獎 1
十七 1
態度 1
人民法院 1
金融@@ 1
基金@@ 1
突厥 1
裕@@ 1
搭 1
地址 1
各國 1
萨尔 1
常委会 1
戰車 1
主辦 1
姓氏 1
感染@@ 1
项@@ 1
列為 1
浓@@ 1
逾 1
卸@@ 1
垂直 1
尺寸 1
坂@@ 1
盆地 1
各类 1
籃@@ 1
魁@@ 1
構成 1
湾@@ 1
it 0.01941514872571624
脚@@ 1
距@@ 1
框@@ 1
教区 1
荷蘭@@ 1
东京 1
累计 1
龜 1
编号 1
芝@@ 1
筑 1
审 1
打擊 1
遲 1
南極條 1
晉級 1
更好 1
悉@@ 1
收购 1
内阁 1
楊 1
男孩 1
公署 1
閉@@ 1
嫁@@ 1
福音 1
鲜@@ 1
肝@@ 1
金曲 1
波特 1
紐 1
簽約 1
蝶@@ 1
姓@@ 1
国民政府 1
二次 1
漂@@ 1
憶@@ 1
停留 1
17@@ 1
铜 1
本屆 1
轉換 1
建有 1
所謂 1
幕府 1
炭 1
用戶 1
這項 1
侦@@ 1
印象 1
an@@ 0.046800377765199026
平行 1
大獎 1
现有 1
仑 1
召開 1
讨@@ 1
墨 1
穿越 1
辖区 1
性格 1
數字 1
签订 1
話@@ 1
勋章 1
轴@@ 1
議席 1
宣告 1
搜索 1
總會 1
銷@@ 1
技巧 1
烯 1
军委 1
la 0.0031208555502287255
肥 1
扣@@ 1
提前 1
赤經 1
申请 1
緒 1
大帝 1
多尔 1
文化大革命 1
研發 1
这颗 1
輔 1
巴勒@@ 1
滨海 1
等待 1
旧址 1
种子 1
正月 1
證實 1
高達 1
作業 1
布雷 1
公转 1
騎 1
它@@ 1
排名第 1
碍 1
会长 1
詢 1
僧 1
盘@@ 1
简介 1
誠 1
綜合 1
大埔 1
次日 1
追求 1
優勢 1
免費 1
最高法院 1
世界各地 1
讲述 1
登陆 1
密切 1
投手 1
防守 1
當天 1
造型 1
天府 1
平成 1
月份 1
漫画 1
抢@@ 1
通行 1
哲學 1
孕 1
整体 1
海峽 1
愛情 1
不可@@ 1
兽 1
函@@ 1
吸 1
員工 1
该国 1
摔@@ 1
懷 1
騎士 1
军官 1
大衛 1
鈴@@ 1
中华 1
启动 1
危机 1
菲律宾 1
药物 1
这座 1
熔@@ 1
嶼 1
宿舍 1
析@@ 1
SAO 1
参谋长 1
首批 1
少将 1
航天@@ 1
阳县 1
意识 1
機制 1
你@@ 1
丹麥 1
姊妹 1
基本上 1
其子 1
條約 1
该党 1
布萊@@ 1
材@@ 1
人大@@ 1
出自 1
测量 1
澎湖 1
馆@@ 1
夏天 1
身体 1
垂@@ 1
霞 1
对手 1
骑兵 1
擬@@ 1
估@@ 1
掛 1
释 1
高山 1
鐸 1
理事@@ 1
就任 1
惊@@ 1
靠@@ 1
大选 1
伯格 1
说明 1
1901 0.7011707990467132
株@@ 1
琉@@ 1
5000 1
ar@@ 0.05397453679268789
下游 1
病人 1
绘 1
颜色 1
第八@@ 1
乾 1
加速 1
幹 1
王室 1
三甲 1
检察@@ 1
鼎@@ 1
移交 1
赤緯 1
赶@@ 1
彼@@ 1
华人 1
弗里@@ 1
真實 1
割@@ 1
佛罗@@ 1
新北市 1
元音 1
因應 1
陨@@ 1
乙 1
党委 1
拟@@ 1
PC 0.8676962142230115
冈@@ 1
在此@@ 1
男人 1
行政区 1
运用 1
醫 1
坚持 1
貫@@ 1
产地 1
禦 1
其后 1
簽訂 1
错 1
两侧 1
碩士 1
启 1
陕西省 1
桂 1
布政@@ 1
基督徒 1
14.@@ 1
珀 1
截止 1
褐色 1
弃 1
科学家 1
UTC 1
酮 1
孝 1
紛 1
互联网 1
弟子 1
十一月 1
汽 1
蕃 1
洪水 1
世紀@@ 1
時會 1
检查 1
优势 1
改称 1
有時 1
草案 1
巴斯 1
徙 1
一艘 1
觀察@@ 1
训@@ 1
哺@@ 1
博士学位 1
一詞 1
出戰 1
1905 0.553658387622342
慎 1
瓶 1
豐富 1
同志 1
抗日战争 1
Al@@ 0.08313355661781044
不但 1
克林 1
蘋果 1
贤 1
南斯拉夫 1
璋 1
乌 1
le 0.0075081219746018155
一架 1
恋 1
秘書@@ 1
這場 1
加斯 1
躍@@ 1
告訴 1
扰 1
真的 1
称号 1
鴻@@ 1
誉@@ 1
一片 1
純 1
猪笼草 1
维吾@@ 1
候选人 1
咖啡 1
誌 1
村民 1
注册 1
原则 1
東南 1
渔@@ 1
趕@@ 1
将领 1
政府@@ 1
缸 1
综合@@ 1
el@@ 0.050746186746289786
厦@@ 1
霖 1
潔 1
人員@@ 1
长沙 1
负 1
给予 1
銀經 1
鼓勵 1
评为 1
猜@@ 1
械 1
添加 1
清真寺 1
伙@@ 1
翁@@ 1
外国 1
整理 1
娱乐 1
勳 1
斌 1
涵 1
强调 1
脊 1
负责@@ 1
閃@@ 1
丞 1
坎 1
銀緯 1
考察 1
一届 1
青年@@ 1
课 1
盧 1
名叫 1
忌 1
秩序 1
攜@@ 1
欺@@ 1
種類 1
B1900.0 1
兴建 1
积极 1
面向 1
佛羅@@ 1
谈判 1
不僅 1
匈@@ 1
平定 1
猫 1
嫩 1
驶 1
使馆 1
讨 1
乘坐 1
弄 1
拉特 1
種子 1
名人 1
文学@@ 1
陶 1
朗德 1
車隊 1
行业 1
多夫 1
栗 1
請求 1
YouTube 1
粵語 1
这部 1
庞@@ 1
风险 1
蝠 1
山東 1
伽 1
一本 1
中心@@ 1
回合 1
那州 1
鬆 1
周恩@@ 1
3D 1
嗣@@ 1
秘书 1
困難 1
治所 1
画家 1
美軍@@ 1
公開賽 1
仕 1
130 1
状况 1
希特勒 1
深圳@@ 1
知识 1
轨道交通 1
一面 1
仰@@ 1
东南@@ 1
太平@@ 1
希臘@@ 1
揮 1
頒 1
郎中 1
． 1
跃 1
析 1
一日 1
信息@@ 1
身亡 1
當日 1
翌@@ 1
出土 1
匯 1
吊@@ 1
紛@@ 1
抗议 1
箭@@ 1
酯 1
抱@@ 1
详@@ 1
花园 1
33@@ 1
深入 1
医疗 1
庵 1
符号 1
戰鬥機 1
敲@@ 1
en@@ 0.03294348350086513
屆@@ 1
愛的 1
慈善 1
伽@@ 1
國語 1
裸@@ 1
格林 1
弥@@ 1
凭@@ 1
霍 1
钟 1
尝@@ 1
促进 1
誓 1
介石 1
大同 1
John 0.08431237419368935
促 1
昔@@ 1
升級 1
斯克@@ 1
潘 1
稅@@ 1
任意 1
罗伯特 1
回国 1
劫@@ 1
眼睛 1
止@@ 1
苏格兰 1
透 1
庚@@ 1
生效 1
卡特 1
拜占@@ 1
軸 1
伟 1
竟 1
一路 1
阅@@ 1
參與@@ 1
纸@@ 1
麓 1
會員 1
柳 1
機車 1
牲 1
开工 1
抚@@ 1
東京@@ 1
吏 1
熙@@ 1
肢 1
鱸 1
感情 1
捲 1
天主@@ 1
鑑 1
com 1
相应 1
適合 1
名义 1
慈 1
藍色 1
募 1
俘@@ 1
河口 1
這也 1
节度使 1
协 1
电力机车 1
危 1
37@@ 1
傅 1
报纸 1
札@@ 1
á 0.2987964551835978
要性 1
雖 1
翰 1
圆 1
纲 1
u@@ 0.08565818289075193
润 1
政委 1
第一名 1
把@@ 1
领导@@ 1
達到 1
回家 1
岗 1
都督 1
階級 1
闭@@ 1
殷@@ 1
摇@@ 1
CA@@ 0.5998721101266814
い 1
分享 1
穆 1
娅 1
订 1
氟@@ 1
磨 1
培 1
刘 1
珀@@ 1
閉 1
反对@@ 1
江省 1
疗@@ 1
冈 1
雞 1
攀@@ 1
裴@@ 1
34@@ 1
嘴@@ 1
一个@@ 1
己 1
Sh@@ 0.11220032412150632
链 1
武汉@@ 1
縣人 1
盤@@ 1
TO@@ 1
棲@@ 1
赏 1
廢 1
又@@ 1
1903 0.6380181550991861
共和@@ 1
娛@@ 1
IC@@ 0.806785014367104
臟 1
糕 1
叉@@ 1
纯 1
脑@@ 1
戰鬥@@ 1
抵 1
央@@ 1
稍 1
哀@@ 1
RE@@ 0.9007004978344519
塌 1
穌 1
轨@@ 1
灯@@ 1
符號 1
厂@@ 1
暫 1
忍 1
赴@@ 1
奶 1
臣@@ 1
茄 1
抱 1
辐@@ 1
桓@@ 1
计算@@ 1
狹@@ 1
IM@@ 0.9541003430919421
尤 1
瑜 1
1500 1
靖 1
須@@ 1
廉 1
36@@ 1
恐怖@@ 1
椎 1
蜂 1
太郎 1
狼@@ 1
警察@@ 1
睡@@ 1
薄 1
180 1
1908 0.5282524808140451
寒 1
莲@@ 1
崙 1
噸 1
泳 1
陆 1
PlayStation 1
夸@@ 1
闽@@ 1
触@@ 1
BS 1
加利福@@ 1
辱 1
鼠@@ 1
太原 1
侍 1
储 1
謂 1
秉@@ 1
浩 1
緩 1
抚 1
脉 1
腺@@ 1
奔 1
舱 1
刷@@ 1
尺 1
抄@@ 1
帽 1
о 0.0976499179903917
ate 0.04033520720287037
140 1
藉@@ 1
烧 1
漳@@ 1
ISTAT 1
or@@ 0.054886876236301556
嫁 1
遞 1
忘@@ 1
蝙@@ 1
葵@@ 1
佑 1
甘 1
style 0.20291887401772657
泊 1
衝 1
脚 1
铁路@@ 1
Category 1
拥@@ 1
滾 1
购 1
歡@@ 1
詢@@ 1
姿@@ 1
舌@@ 1
矩 1
煌 1
驗@@ 1
160 1
蜜@@ 1
SO@@ 1
憲 1
牽@@ 1
床@@ 1
猎@@ 1
遼@@ 1
勘@@ 1
仓@@ 1
殊@@ 1
诉@@ 1
庸 1
酷 1
静 1
ac@@ 0.07395848309386871
ic@@ 0.08915969163349782
黛@@ 1
閩@@ 1
暗 1
颶@@ 1
陝@@ 1
獵 1
俄羅@@ 1
厢 1
蕾@@ 1
鼎 1
邪 1
盈@@ 1
禎 1
譚@@ 1
泡@@ 1
僚 1
浸@@ 1
粹@@ 1
阶@@ 1
媽 1
运动会 1
1906 0.5433563685819573
荒 1
逆 1
NGC 0.9379462628707514
顾 1
1907 0.5392367433807855
BD 1
累 1
align 0.8240503544802885
中华@@ 1
丛 1
泛 1
滕 1
沪 1
棚 1
廂 1
賀 1
赐 1
杉@@ 1
綠 1
孩 1
弘 1
硝@@ 1
os 0.04094281075031652
键@@ 1
妖@@ 1
款@@ 1
鉴@@ 1
动机 1
ation 0.02584191866216366
阶 1
软 1
as@@ 0.05928842992491417
扇 1
man 0.05161939797212302
英格@@ 1
鯰@@ 1
堆@@ 1
炎@@ 1
罢@@ 1
矶 1
賊 1
尽 1
郎@@ 1
劣 1
匠 1
梦 1
洛杉@@ 1
矮@@ 1
迟 1
樑 1
幢 1
貓@@ 1
1904 0.5564248808167157
垃@@ 1
坤 1
欄 1
蕾 1
鸡@@ 1
III 0.2209205737875661
RA@@ 0.7252434106325268
宴 1
翅@@ 1
er@@ 0.035301157178128637
16.@@ 1
colspan 1
渠 1
霧 1
In@@ 0.09326569480138076
厄 1
廿@@ 1
鋼 1
逸@@ 1
陕@@ 1
駁 1
冯 1
辉 1
专区 1
滾@@ 1
15.@@ 1
幅@@ 1
携@@ 1
蟲@@ 1
ed 0.01874325690777099
废 1
琼@@ 1
劾 1
焚@@ 1
衍@@ 1
艙 1
LO@@ 1
熟 1
榴@@ 1
TE@@ 1
荆@@ 1
慣 1
薪@@ 1
蛙 1
蜀 1
採 1
钦@@ 1
籤 1
錫 1
PS@@ 0.9496406512411004
毀@@ 1
臀@@ 1
括 1
by 0.00758529678712065
歧 1
侶 1
棠 1
櫻@@ 1
邪@@ 1
100@@ 1
拯@@ 1
銘 1
肺@@ 1
淺@@ 1
壬@@ 1
漏@@ 1
妻@@ 1
酷@@ 1
\ 1
翡@@ 1
融 1
w@@ 0.05638102508643207
尸@@ 1
政协 1
涛 1
贯@@ 1
访@@ 1
IC 0.9936749018637052
贸@@ 1
彗@@ 1
鞍@@ 1
募@@ 1
绥@@ 1
os@@ 0.09566016278350949
趨@@ 1
帆@@ 1
疾 1
肩@@ 1
行政区@@ 1
纤@@ 1
潭@@ 1
IS@@ 0.6297412355865022
SE@@ 0.8102769510757831
膨@@ 1
喬 1
牟@@ 1
卵 1
苯 1
45@@ 1
埠 1
炳@@ 1
MS 0.7413952409224657
爐 1
概 1
突 1
椒 1
轻 1
擋 1
輛@@ 1
爺 1
診 1
貢 1
邸 1
嫌@@ 1
减 1
AL@@ 0.9098656528767972
究 1
ol@@ 0.07499825379186072
闊 1
? 0.2080335250943359
奎 1
尼亚@@ 1
腹 1
吴 1
諮 1
疆@@ 1
z@@ 0.048686054414088076
烏 1
截 1
躍 1
Linux 1
38@@ 1
籲 1
AD@@ 0.7687097250233955
劉 1
庶 1
17.@@ 1
兆 1
坏 1
拆 1
虹@@ 1
伙 1
執 1
涂@@ 1
询 1
搶 1
39@@ 1
啤@@ 1
暂 1
允 1
color 0.3795162119431599
签 1
叫@@ 1
ch 0.08795575087076758
徐 1
瓷 1
閘@@ 1
柯 1
嘛 1
吹 1
骑 1
瞄@@ 1
凸@@ 1
慘@@ 1
礦 1
360 1
鄭 1
鸿@@ 1
韩 1
誰 1
魁 1
扫@@ 1
椎@@ 1
恒 1
函 1
禪@@ 1
鹰 1
胞 1
姬@@ 1
拒 1
贴 1
淺 1
蓄@@ 1
background 0.7158547114423055
况 1
须 1
档@@ 1
SP@@ 0.739734572281428
匣 1
卜 1
β 1
比利@@ 1
栋 1
鳳 1
货 1
鎖@@ 1
蜂@@ 1
另一@@ 1
軒 1
擺@@ 1
− 0.6241667875837692
愈@@ 1
禧 1
賭@@ 1
乒@@ 1
燃 1
勋 1
AC 0.5248195872583824
j 0.2970814074396026
燥 1
擁 1
汶@@ 1
105 1
徹@@ 1
唇 1
稳@@ 1
贯 1
邏@@ 1
и 0.006809806142162711
仓 1
掠 1
煤 1
彬 1
盜@@ 1
夾@@ 1
MO@@ 1
皆@@ 1
彙 1
径@@ 1
卖@@ 1
粵@@ 1
钢 1
帖 1
豬 1
渠@@ 1
堅 1
逼 1
儒 1
焦 1
勾@@ 1
昏@@ 1
枝@@ 1
350 1
欲@@ 1
殖@@ 1
淡 1
贞@@ 1
糧@@ 1
輝@@ 1
濕@@ 1
芙@@ 1
撤 1
伪@@ 1
宅@@ 1
掛@@ 1
坂 1
寓@@ 1
潤 1
黏@@ 1
插 1
am@@ 0.062147076566417804
ad@@ 0.048413930928271696
斯拉夫 1
頃 1
束@@ 1
齒@@ 1
玫@@ 1
center 0.2634943498547377
纷 1
垣 1
戏 1
怡 1
煙 1
狭@@ 1
浮 1
适 1
粤@@ 1
掠@@ 1
纸 1
趋@@ 1
梨 1
代表大会 1
碼@@ 1
吳 1
趁@@ 1
蜜 1
惑 1
顷 1
斯洛@@ 1
腺 1
仕@@ 1
Co@@ 0.11904435170722515
咖@@ 1
1898 0.5738005305193419
徹 1
縱 1
惟 1
磅 1
纖@@ 1
恶 1
欠@@ 1
响 1
焰 1
ana 0.08630712068730521
氢 1
躲@@ 1
倡 1
懼 1
咒 1
帆 1
鎊 1
迄@@ 1
穗 1
匪 1
盒 1
胎@@ 1
犬@@ 1
勁 1
壯@@ 1
ot@@ 0.071047585608039
牙语 1
慧 1
邀@@ 1
阔 1
粘@@ 1
荃@@ 1
Con@@ 0.081866252827411
1902 0.5183265793479352
递@@ 1
忘 1
瓣 1
啦 1
DS 0.9317527313314984
墙@@ 1
毁@@ 1
豫 1
握@@ 1
An@@ 0.05325438165617588
跋 1
迎 1
鞋 1
築 1
BO@@ 1
隙 1
欽@@ 1
挂@@ 1
寇 1
緣@@ 1
豬@@ 1
MP@@ 0.7969039555391823
诊@@ 1
债@@ 1
at@@ 0.05403290306369515
辅 1
浅@@ 1
卓 1
妥@@ 1
惨@@ 1
18.@@ 1
US@@ 0.3734772679365405
爪@@ 1
洁 1
觸 1
紹 1
ie 0.04872853823679696
舌 1
text 0.4500641216353674
梨@@ 1
標賽 1
孕@@ 1
昆 1
彎@@ 1
赵 1
丞@@ 1
弓@@ 1
曝@@ 1
扁@@ 1
1895 0.5781508193650045
歡 1
太人 1
鶴@@ 1
75@@ 1
崇 1
桐@@ 1
墨西@@ 1
om@@ 0.07653024205419894
败@@ 1
赋@@ 1
螢@@ 1
22@@ 1
汁 1
闭 1
契 1
í 0.30672232211401296
允@@ 1
递 1
is@@ 0.055452734693439414
玄 1
频 1
65@@ 1
咀 1
AM 0.6831139004783418
措 1
墟 1
喻 1
爬@@ 1
De@@ 0.1164497483802092
驶@@ 1
18@@ 0.9376558381462436
詳 1
飯@@ 1
艮@@ 1
薪 1
酋@@ 1
殉@@ 1
瀑@@ 1
鳴@@ 1
扣 1
葛 1
吾@@ 1
跌 1
纷@@ 1
隸@@ 1
腰 1
偽@@ 1
瑰 1
兔 1
峡@@ 1
逸 1
慰 1
賦@@ 1
鋪 1
偏 1
劝@@ 1
甚 1
仲 1
瓊@@ 1
伐@@ 1
勵 1
ü 0.9561078581345328
臉@@ 1
怨 1
厅@@ 1
添@@ 1
押@@ 1
坚 1
夕@@ 1
盲@@ 1
one 0.021004601292733845
鯨 1
偿 1
马来@@ 1
鸡 1
骸 1
膠@@ 1
DC 0.5451260721064145
鱗@@ 1
帳@@ 1
癸@@ 1
One 0.14061381255816716
侠 1
禾 1
AN 1
咨@@ 1
し 1
MI@@ 1
苗 1
Love 0.3334562211108242
塗@@ 1
鏈 1
竟@@ 1
夥@@ 1
捉 1
SH@@ 1
盗@@ 1
凹@@ 1
拓 1
天津@@ 1
雞@@ 1
慮 1
怀 1
墅 1
曹 1
ス 1
籍@@ 1
イ 1
岭@@ 1
学位 1
橙@@ 1
19.@@ 1
盗 1
国务@@ 1
FC 0.17774310056858977
恭 1
ve 0.030300988478828696
桶 1
倍@@ 1
繩@@ 1
苹@@ 1
貞 1
債@@ 1
ata 0.14540394071488946
驅 1
ā 1
墩 1
3.5 1
糾@@ 1
鴨 1
4000 1
乔 1
拋@@ 1
稣 1
吁 1
高雄@@ 1
NE@@ 1
删@@ 1
输 1
娘@@ 1
窟 1
BBC 0.4168415992207285
呢 1
貪@@ 1
勸 1
嬰@@ 1
黎 1
韻@@ 1
卯 1
彦@@ 1
冥@@ 1
郭 1
笑@@ 1
ad 0.10111539490820699
龜@@ 1
疊 1
价@@ 1
钠 1
ON@@ 1
態@@ 1
st@@ 0.04288132485016223
ap@@ 0.06824326480114123
預 1
47@@ 1
雀@@ 1
娥 1
胶 1
漏 1
卸 1
挺 1
蓝 1
ん 1
Facebook 1
un@@ 0.02821330523393606
針@@ 1
砂 1
吋 1
World 0.05993508729166054
狩@@ 1
104 1
绪 1
尹 1
欖@@ 1
齋 1
PS 0.5733049077664875
200@@ 1
寵@@ 1
堪 1
е 0.03681570049756776
鯰 1
48@@ 1
肅 1
贤@@ 1
Mar@@ 0.06623014486711082
恆 1
尺@@ 1
-- 1
誘@@ 1
偷 1
摘@@ 1
桐 1
108 1
es@@ 0.04319434139024848
淨@@ 1
【 1
】 1
纵 1
粒@@ 1
闪@@ 1
高速@@ 1
55@@ 1
帽@@ 1
潔@@ 1
菊 1
氮 1
ine 0.053808704642113826
慰@@ 1
穩 1
挥 1
Microsoft 0.8302069874373246
幾 1
掃@@ 1
稻 1
ó 0.04490819038144955
册@@ 1
舖 1
买 1
颜@@ 1
弓 1
券@@ 1
遍 1
凰 1
旱 1
102 1
鳴 1
牵@@ 1
獅 1
襲@@ 1
塚 1
with 0.0060187681397172515
棘@@ 1
蜘@@ 1
欢@@ 1
н 0.1021071576457719
※ 1
1896 0.5196188021144879
衍 1
俞@@ 1
ina 0.08316338879388144
晨@@ 1
棄@@ 1
妙@@ 1
1890 0.48858791487077247
岐@@ 1
糊 1
Th@@ 0.09989084965284285
-@@ 0.11178068558357145
詔@@ 1
梭 1
溯@@ 1
贾 1
爪 1
荔@@ 1
AG@@ 1
栏 1
喊 1
牡@@ 1
踢 1
课@@ 1
蓬 1
诏 1
46@@ 1
蔽 1
伺@@ 1
RI@@ 0.9479481036626861
瑚 1
淘@@ 1
荊@@ 1
巧 1
餅 1
氯 1
罹@@ 1
乓@@ 1
筑@@ 1
札 1
RO@@ 0.9670584984359228
怡@@ 1
憤@@ 1
绕@@ 1
125 0.9927017391824
ai 0.11959839912365669
仗 1
淨 1
墳 1
th@@ 0.05481667633577122
韶@@ 1
撥@@ 1
103 1
绩 1
膚 1
鼻 1
section 0.2262362506769645
圾 1
斬 1
晴@@ 1
宪 1
摆@@ 1
纺@@ 1
瀨@@ 1
Car@@ 0.08454943563597483
end 0.050167189601088895
寅 1
董 1
New 0.0322428029239667
鄂 1
ES@@ 0.6314975888884575
1897 0.5057132087317125
钦 1
篮@@ 1
鴻 1
杏@@ 1
斋 1
贏 1
纠@@ 1
訟 1
丈 1
埋 1
虐@@ 1
た 1
杉 1
逝 1
LE@@ 1
搞 1
it@@ 0.05031120014742056
DE@@ 0.704533601139484
飲 1
宰 1
AR 0.913883945892209
櫃 1
橫 1
20.@@ 1
萄 1
鑑@@ 1
錯@@ 1
Live 0.4470882164643099
魅@@ 1
绍 1
诸 1
穀 1
AKB48 1
桿 1
蓉 1
释@@ 1
寡@@ 1
騷@@ 1
柔 1
oc@@ 0.08768999025922539
彰@@ 1
斐 1
纂 1
da 0.03964394070630666
齿@@ 1
猎 1
Br@@ 0.07986035935153361
圭@@ 1
Par@@ 0.08755248247022124
CC@@ 0.7150847278212182
49@@ 1
冶@@ 1
Ex@@ 0.11562685342520286
猪 1
財 1
ル 1
侨 1
溝 1
106 1
ph@@ 0.08707845165745655
甸@@ 1
猛 1
蝦 1
遙@@ 1
净@@ 1
彭 1
辞 1
撫@@ 1
貿@@ 1
刪@@ 1
紫 1
翅 1
迦 1
re@@ 0.01638541339946961
id@@ 0.06487762050551174
弦@@ 1
AI@@ 0.7298838289676481
崛@@ 1
ul@@ 0.05850110836732385
う 1
噪@@ 1
裹 1
炉 1
賠@@ 1
垒 1
畢 1
萍 1
ay 0.094830688824761
壩 1
帮 1
庶@@ 1
贈@@ 1
Le@@ 0.08021048435602413
療@@ 1
GB 0.951613509027256
睡 1
葵 1
蜀@@ 1
ma 0.107248408557019
109 1
祇 1
剩 1
猴 1
Music 0.15599423465976325
滚@@ 1
繳@@ 1
蔬@@ 1
彪 1
拉夫 1
剥@@ 1
悟 1
俱@@ 1
蜥 1
懲@@ 1
泄@@ 1
欽 1
矢@@ 1
意志 1
son 0.01622303114227153
CH@@ 0.7132593128618414
Cor@@ 0.10840282474358344
綁 1
You 0.23413033814683004
辨 1
1200 1
宦@@ 1
慣@@ 1
紋@@ 1
瓶@@ 1
峻 1
棒@@ 1
喝@@ 1
础@@ 1
铺@@ 1
且@@ 1
RNA 1
恐 1
蜥@@ 1
荡 1
44@@ 1
湯 1
170 1
蘿@@ 1
鮮 1
閱 1
1899 0.4695800601939072
湘 1
嵌 1
凉@@ 1
谭@@ 1
li@@ 0.057244529141873245
夹@@ 1
淮 1
NO@@ 0.8320286134360613
郁@@ 1
僑 1
奸 1
鉴 1
耿@@ 1
茎 1
浏@@ 1
俯@@ 1
莲 1
+@@ 1
107 1
恰 1
乞@@ 1
彝@@ 1
旭@@ 1
淆 1
Tr@@ 0.0710974865710821
磁 1
0.5 1
Android 1
亂@@ 1
参 1
棉 1
SS 0.38631784185126244
砖@@ 1
q 0.35741118588871673
窮 1
狙@@ 1
渐@@ 1
坞 1
UA 1
2.0 1
矮 1
ic 0.05906045261519408
廈@@ 1
EN@@ 1
酬 1
ID 1
误 1
ers 0.02522722629271494
辉@@ 1
韻 1
虞@@ 1
IP 0.8690691576537962
穩@@ 1
塢 1
妇@@ 1
120@@ 1
倪@@ 1
纬 1
NHK 1
簡 1
筋 1
汕@@ 1
崩 1
ae 0.15134960476428627
脏 1
鬚 1
1.2 1
烟 1
ter 0.037937966118260225
惯@@ 1
ME@@ 0.8374715211877702
豚 1
禅@@ 1
鱷 1
銅 1
显 1
芽 1
络 1
р 0.11692679904837254
虏 1
晰 1
狮@@ 1
眉 1
烯@@ 1
添 1
RT 0.9498505463659817
疫@@ 1
戚 1
と 1
详 1
侄@@ 1
il@@ 0.06129469707771611
冒 1
鹏 1
则@@ 1
招 1
築@@ 1
ed@@ 0.07172119216045841
婉@@ 1
1889 0.5089677069242502
阜@@ 1
烹@@ 1
暖@@ 1
宴@@ 1
lo@@ 0.05667513708308577
巢@@ 1
St@@ 0.06689841664605423
醉 1
些@@ 1
掃 1
榆@@ 1
祯 1
蝕 1
禦@@ 1
僱@@ 1
氫 1
鹤@@ 1
菱 1
驚 1
璃@@ 1
silver 0.5325272554924345
SS@@ 0.8411149195149112
悼@@ 1
喉@@ 1
School 0.06471233156021164
挽@@ 1
ラ 1
der 0.0027313676349613957
错@@ 1
IG@@ 1
ö 1
SA@@ 0.5734716777230882
怒@@ 1
疊@@ 1
骼 1
贏@@ 1
顛@@ 1
騙 1
擲 1
24.@@ 1
• 0.6676157050643531
23.@@ 1
聰@@ 1
銘@@ 1
舟@@ 1
践 1
杖 1
鑽@@ 1
涌@@ 1
肆 1
ica 0.10889064357599451
严 1
搶@@ 1
眉@@ 1
PE@@ 0.9675681095854308
殖民@@ 1
饭@@ 1
115 1
ur@@ 0.05364769526710396
腰@@ 1
潰 1
囊@@ 1
狗@@ 1
か 1
繩 1
顆@@ 1
奮@@ 1
蔓@@ 1
擦@@ 1
Cl@@ 0.24875709183387695
頸 1
旦@@ 1
騰 1
AT 0.7756732427910533
馮 1
淳 1
碗 1
浴@@ 1
tr@@ 0.03677770941863605
恋@@ 1
描 1
禾@@ 1
鑼@@ 1
ER 1
64@@ 1
MA 0.48995788912021354
擦 1
笛 1
21.@@ 1
娜@@ 1
瞬@@ 1
68@@ 1
孚 1
暢@@ 1
廚@@ 1
穎 1
舶 1
拨@@ 1
爛 1
450 1
em@@ 0.05435658107176109
戎 1
渤@@ 1
弧@@ 1
猴@@ 1
盾@@ 1
111 1
漆 1
莖 1
sh@@ 0.052617457570435136
蝴@@ 1
彦 1
搞@@ 1
EP 0.3822199861328207
纹@@ 1
嵌@@ 1
爸 1
痕 1
砖 1
硫 1
箱@@ 1
卧@@ 1
ti@@ 0.05127496842434432
嗎 1
崗@@ 1
西班@@ 1
CR@@ 1
钻@@ 1
説 1
哭 1
辣@@ 1
瓷@@ 1
氛 1
杆@@ 1
Di@@ 0.09025260440395406
et@@ 0.05380014193240384
简 1
郝@@ 1
op@@ 0.06540557366908463
遞@@ 1
跌@@ 1
姑 1
啡@@ 1
67@@ 1
污 1
狐@@ 1
酰@@ 1
43@@ 1
Bo@@ 0.10539664820812526
丛@@ 1
庙@@ 1
墜@@ 1
咸 1
Qu@@ 0.10332861730949038
SA 0.4086245727730962
IS 0.7510798738909422
毅@@ 1
氟 1
檢 1
诱@@ 1
瑙@@ 1
淋@@ 1
辑@@ 1
楠 1
are 0.011717149753911499
哇 1
疲@@ 1
Mo@@ 0.11524621315920028
int 0.7489711966337839
慕 1
颗 1
蚀 1
輯@@ 1
le@@ 0.04939940446715608
抓 1
禍 1
99@@ 1
姊 1
220 1
腐 1
賈 1
喙 1
に 1
1860 0.5026749289902654
ton 0.06081705648264293
22.@@ 1
cm 0.25194225612663856
赣@@ 1
孢@@ 1
叠 1
譴@@ 1
1880 0.453415565555439
ab@@ 0.03138644526572576
谁 1
ang 0.12054791715035519
涼@@ 1
鵬 1
潛 1
沪@@ 1
湿 1
妾 1
愉@@ 1
ak 0.09871651241539761
陇@@ 1
祁@@ 1
​ 1
ag@@ 0.04834129998254095
GP@@ 1
汤 1
渐 1
1600 1
渦@@ 1
謙 1
凶@@ 1
AV 1
な 1
邢@@ 1
凤 1
陰 1
誓@@ 1
骚@@ 1
翻 1
凌 1
鱂 1
西洋 1
畜@@ 1
敖@@ 1
誼 1
CS@@ 0.586742564117155
樊@@ 1
趾 1
峽@@ 1
240 1
役@@ 1
25.@@ 1
1800 0.7155178886016731
挝 1
ec@@ 0.06661728353171717
傍@@ 1
雁@@ 1
ity 0.051450566825172635
嫡@@ 1
La 0.012887895399139884
ta 0.0644462121798938
135 1
1894 0.47215835902388603
繞@@ 1
赔@@ 1
聊@@ 1
112 1
胃@@ 1
奋@@ 1
踐 1
Me 0.322955458146002
′ 1
煽@@ 1
ト 1
谴@@ 1
谱@@ 1
针@@ 1
CD@@ 0.6196100293569391
1871 0.5040621951631001
58@@ 1
る 1
蟻 1
TVB 1
赠@@ 1
1870 0.42273522116443574
醛 1
缀 1
脈@@ 1
di@@ 0.04220150310562955
4.5 1
献 1
铭 1
辽 1
唇@@ 1
弼 1
叢@@ 1
悅 1
渭@@ 1
绿 1
un 0.005141714755161576
甄@@ 1
56@@ 1
凰@@ 1
哩 1
輩 1
Xbox 1
仆@@ 1
0.0@@ 1
樟@@ 1
拱 1
罵 1
栗@@ 1
David 0.10968816692967738
预 1
VI@@ 0.8009629049420467
邯@@ 1
im@@ 0.04775602841411334
碱@@ 1
衙@@ 1
贊 1
瘋@@ 1
峙 1
杯@@ 1
赏@@ 1
漿 1
丟@@ 1
织 1
脹 1
抽 1
57@@ 1
紮 1
练 1
虽 1
ah 0.1126828052421673
Se@@ 0.0780762915002708
贞 1
飼@@ 1
疼@@ 1
泌 1
茵@@ 1
削 1
天堂 1
憂@@ 1
AL 0.8682708491282309
Be@@ 0.0685079677730583
诏@@ 1
FI@@ 0.5428146359870152
勢@@ 1
讼 1
牺@@ 1
迅 1
PO@@ 1
贪@@ 1
胸 1
畜 1
115@@ 1
萌@@ 1
128 1
兔@@ 1
匿@@ 1
婿 1
è 1
颇@@ 1
畏 1
婷 1
剿 1
挺@@ 1
棍@@ 1
International 0.08396675283892016
University 0.03694030145331228
巩@@ 1
巫 1
颇 1
In 0.0067657701869423045
袍 1
蘆@@ 1
阅 1
98@@ 1
BA 0.5810660310840597
衷 1
輿@@ 1
饶@@ 1
肿@@ 1
闆 1
壯 1
抛@@ 1
26.@@ 1
扳@@ 1
您 1
薯 1
罰@@ 1
碱 1
遂@@ 1
寇@@ 1
95@@ 1
尋 1
赐@@ 1
CC 0.5835393733315642
遥@@ 1
朔@@ 1
屍 1
溃 1
却@@ 1
藻@@ 1
虜 1
剝@@ 1
琦 1
撐 1
检 1
te 0.020647190879320224
润@@ 1
粮 1
27.@@ 1
鍵@@ 1
En@@ 0.0821788899649492
究@@ 1
缅@@ 1
DO@@ 0.9313048342755158
朋@@ 1
с 0.011249728601815511
駿 1
Mon@@ 0.07718862849738903
狐 1
6000 1
懂 1
胤 1
人口@@ 1
Am@@ 0.08545454809544889
1885 0.43665996705669513
AB@@ 0.759582737499258
拾 1
稚 1
犧@@ 1
騰@@ 1
疇 1
闖@@ 1
衞 1
矣 1
磡 1
幣@@ 1
銳 1
势@@ 1
酉 1
笠 1
TC 0.7171263695094856
竭 1
斥@@ 1
捐 1
谊 1
鮋 1
帜 1
88@@ 1
廓 1
肖 1
卑 1
頸@@ 1
貸@@ 1
簿 1
127 1
201 1
Col@@ 0.08714474566101449
IT@@ 0.8182614747774195
肌 1
阜 1
be 0.01187943826371865
El@@ 0.07793598505217653
轟 1
暑@@ 1
茵 1
乱@@ 1
栏@@ 1
28.@@ 1
隱 1
惯 1
潤@@ 1
85@@ 1
Ge@@ 0.1074427563640525
埼 1
畿 1
撲 1
粟@@ 1
芦@@ 1
讯@@ 1
聂@@ 1
宛@@ 1
IV@@ 1
缘@@ 1
喀 1
Me@@ 0.11359065545048277
禄@@ 1
Li@@ 0.12364232009920013
抄 1
奥林匹@@ 1
旱@@ 1
挖 1
翠 1
喚 1
孟 1
愤@@ 1
坪@@ 1
账@@ 1
擾@@ 1
拒@@ 1
IA 0.8832547717679166
78@@ 1
膀 1
腸 1
横 1
謠 1
Bar@@ 0.06894280376742341
大战 1
阎@@ 1
堵 1
di 0.10060860885037502
320 1
Vi@@ 0.2117314003774226
臭@@ 1
碧 1
蕉 1
弯@@ 1
Mac 0.9254131325979653
誕 1
氫@@ 1
鯛 1
汶 1
鞭@@ 1
暹@@ 1
澄 1
韵@@ 1
Team 0.17364151966029873
阴 1
age 0.026370055881602465
280 1
釜@@ 1
膽 1
蛤@@ 1
芙 1
郁 1
饼 1
垂 1
柴 1
230 1
薇@@ 1
爽 1
Per@@ 0.08616426026541465
ps 0.12050446156510859
122 1
湛@@ 1
籌 1
atus 0.31266532541829734
勸@@ 1
颠 1
113 1
co@@ 0.04368815756873447
抬@@ 1
牆@@ 1
ley 0.062019216313151125
蛾 1
66@@ 1
1.6 1
簧 1
詠 1
醉@@ 1
ク 1
舆@@ 1
ref 0.5222176980329967
屈 1
to@@ 0.06281002468478004
ア 1
Saint 0.05482939029063983
慾 1
NH@@ 1
_@@ 1
幟 1
罚@@ 1
59@@ 1
鸣 1
濤 1
淵 1
特勒 1
十一@@ 1
桿@@ 1
ent 0.022393327858050767
Ac@@ 0.12581802412892068
啊 1
〜 1
梓@@ 1
190 1
緯 1
塾 1
缓 1
贺 1
瞭@@ 1
橘@@ 1
爬 1
ä 1
绵@@ 1
痕@@ 1
孜@@ 1
ra 0.05441465547652722
1.8 1
乏 1
煮 1
慎@@ 1
堵@@ 1
宙@@ 1
de@@ 0.03713791947189215
毓@@ 1
芯@@ 1
7.5 1
り 1
桓 1
述@@ 1
喝 1
宵 1
釣@@ 1
晴 1
旭 1
脉@@ 1
吞 1
贼 1
賦 1
Twitter 1
侨@@ 1
贸 1
憂 1
謙@@ 1
僵@@ 1
晓 1
т 0.060036476415620106
リ 1
沛 1
鸣@@ 1
肤 1
砌 1
娃@@ 1
匙 1
综@@ 1
趙@@ 1
遜@@ 1
榄@@ 1
雯 1
123 1
1892 0.4086245677824087
臥@@ 1
廁@@ 1
互 1
77@@ 1
蓄 1
IV 0.1996671839308807
001 1
淳@@ 1
贷@@ 1
迈 1
鵝@@ 1
氰@@ 1
0.00 1
閩 1
惩@@ 1
濫@@ 1
肩 1
兇@@ 1
胚@@ 1
孩@@ 1
牢@@ 1
29.@@ 1
CE@@ 0.4659845456246462
My 0.2631187006716591
1893 0.40052418473668167
ea 0.12917132126406158
AS 0.38502225208188073
沈 1
混 1
121 1
Sch@@ 0.037112149593695506
迭@@ 1
阀 1
se 0.006104970463053075
姿 1
AP 0.56115258700925
do 0.04383622653430282
框 1
舒 1
TV@@ 0.672497312060946
斩@@ 1
諸 1
CI@@ 0.52890861202941
懿 1
締@@ 1
臉 1
泗@@ 1
铭@@ 1
帮@@ 1
滇@@ 1
蒼@@ 1
賜@@ 1
氮@@ 1
溉 1
悟@@ 1
は 1
腾 1
210 1
殊 1
na 0.05770870958701107
IP@@ 0.9280182237093086
PA 0.4086304527361258
Mc@@ 0.07991938862413925
that 0.005235370465053615
扮 1
贫 1
闢 1
諭 1
114 1
淚 1
捍@@ 1
琛 1
胆@@ 1
Type 0.7750741693766897
TA 0.5012754219254397
饥@@ 1
届@@ 1
廈 1
煉 1
69@@ 1
遲@@ 1
擠 1
膜@@ 1
岑@@ 1
匈牙@@ 1
1884 0.4477296990111268
褒@@ 1
Pro 0.3873812014814185
瀏@@ 1
悔 1
邁 1
犁 1
潟 1
陞 1
瑙 1
1887 0.4384547583171935
侣 1
1886 0.4324539650583202
赋 1
MC 0.6645539075585614
蕊 1
ya 0.03799177241682757
哉 1
鳞@@ 1
54@@ 1
li 0.18697340167607202
Cr@@ 0.12720923320164174
啓 1
愚@@ 1
爸@@ 1
113@@ 1
iOS 1
握 1
ol 0.09194009891281234
Ro@@ 0.09618367189795435
镑 1
渊 1
錶 1
刃 1
崗 1
堯 1
渴@@ 1
阔@@ 1
William 0.08064245171801633
硅@@ 1
巾 1
吐 1
駕 1
118 1
稜 1
53@@ 1
祠@@ 1
堤@@ 1
廳@@ 1
ara 0.09381819539044621
毕 1
趕 1
Game 0.330937761346235
堀@@ 1
赦 1
醒@@ 1
1888 0.41145385213696234
was 0.002252800375358651
Ne@@ 0.09069016686265166
拖 1
奢@@ 1
斤 1
页@@ 1
橢@@ 1
碘 1
殼@@ 1
禪 1
傘 1
TS 0.8111571378984596
UB 1
淵@@ 1
聰 1
no@@ 0.08727892153752037
沧@@ 1
纲@@ 1
au 0.010320856252693415
117 1
James 0.08595673308271773
吕 1
腸@@ 1
750 0.9915375181212304
睹 1
伪 1
譜@@ 1
责@@ 1
憾 1
盈 1
挪@@ 1
醜@@ 1
ong 0.10542833343077317
浅 1
蛛@@ 1
Group 0.12804304302719502
苍@@ 1
CA 0.4836428027387616
涡@@ 1
冊@@ 1
滴 1
1861 0.44292960361898887
谐 1
債 1
缴@@ 1
ne 0.02674861640926428
For@@ 0.09241438000668277
肅@@ 1
棍 1
ED@@ 1
from 0.005536663459921841
狄 1
茅 1
饭 1
5.5 1
緯@@ 1
ir@@ 0.048046614550197535
弊 1
塵 1
倭@@ 1
大革命 1
枯@@ 1
ro@@ 0.04647575937880164
勉@@ 1
嘲@@ 1
л 0.04898533319840188
癒 1
穷 1
1876 0.4498225500521534
og@@ 0.09189599303655437
116 1
2500 1
墾 1
忧 1
愛爾@@ 1
淹@@ 1
韵 1
ka 0.07736048600365832
肺 1
om 0.15459648399722958
朴 1
114@@ 1
Open@@ 0.9064126245986389
檐 1
閣@@ 1
胆 1
129 1
哨 1
違 1
坠@@ 1
茱@@ 1
ty 0.06548593948336079
ing@@ 0.06524010149605171
ler 0.045342792843192634
梧@@ 1
瑚@@ 1
肢@@ 1
亭@@ 1
禹 1
鑽 1
锋@@ 1
閒 1
盆 1
髓 1
po@@ 0.052050118106903985
辆@@ 1
捨 1
詮@@ 1
擒 1
閒@@ 1
124 1
Pr@@ 0.08711029238982637
抨@@ 1
姊@@ 1
if 0.08119664772282623
劣@@ 1
锐 1
奕 1
в 0.0027623861318282197
ISO 1
际@@ 1
Fr@@ 0.11076587428445929
116@@ 1
畏@@ 1
踢@@ 1
魂@@ 1
祂 1
紡@@ 1
胀 1
79@@ 1
铎 1
抒@@ 1
霹@@ 1
诚@@ 1
1.3 1
淀@@ 1
祕 1
A1 1
Str@@ 0.0830320880391398
iPhone 1
ts 0.027447135380974846
陪 1
阐@@ 1
126 1
1891 0.3799614905643941
衫 1
馨 1
綽@@ 1
霞@@ 1
犀@@ 1
к 0.022410359834375625
让@@ 1
擢 1
301 1
庐@@ 1
憑@@ 1
ATP 0.7301814587488599
76@@ 1
漲 1
獸@@ 1
Lo@@ 0.1158651663830633
寂 1
BC 0.2704879805244191
跃@@ 1
歼@@ 1
蒿 1
博物@@ 1
ang@@ 0.06341818187442513
勁@@ 1
儲 1
坝@@ 1
瑾 1
嚇 1
崑 1
鄒@@ 1
叠@@ 1
襪 1
閘 1
〔 1
钾 1
〕 1
剌 1
260 1
肪 1
丑@@ 1
諜 1
酿@@ 1
si@@ 0.06624230929882692
稽 1
绑@@ 1
頌 1
峽 1
1850 0.4376622118008056
妓@@ 1
棱@@ 1
1.1 1
蹄@@ 1
駒 1
撕@@ 1
填 1
re 0.04467524732951898
117@@ 1
緻 1
捉@@ 1
猪@@ 1
Robert 0.08713440205454061
IT 0.7758562729216137
禧@@ 1
烤 1
鑄@@ 1
弄@@ 1
DE 0.753424541467656
浙 1
浆 1
鰍 1
滤@@ 1
1883 0.4361128629708689
q@@ 0.19146220591682592
ella 0.10048218201910007
璧 1
醬 1
Paul 0.07839062235170799
掀@@ 1
腫@@ 1
菇 1
1862 0.42829535225908383
蜒 1
卦 1
縫 1
盔 1
贬@@ 1
CO 0.7059879159268984
岱 1
郑 1
IBM 0.9725455594148565
閥 1
荃 1
淪@@ 1
询@@ 1
Com@@ 0.08995878350915211
漆@@ 1
Mac@@ 0.12176415469929952
1868 0.44042639697640884
鈞 1
ッ 1
莞 1
使用@@ 1
籃 1
鱸@@ 1
Java 0.8535992357900901
雾 1
慌 1
鸚@@ 1
74@@ 1
SU@@ 1
擇@@ 1
檀@@ 1
桌 1
欠 1
歇 1
艰@@ 1
共產@@ 1
des 0.0029313106275293825
净 1
菱@@ 1
ST 1
扑 1
崔 1
蜿@@ 1
DA 0.5407037476003711
膏 1
窑 1
US 0.05102690865211414
孚@@ 1
狮 1
Apple 0.5745707422264197
有限@@ 1
矢 1
驳 1
Te@@ 0.11574211673679798
ま 1
μ 1
絡@@ 1
炼 1
羟@@ 1
貿 1
CP 0.9088472411264114
滲@@ 1
SI@@ 0.8357088355126382
颜 1
饱@@ 1
舜@@ 1
弃@@ 1
闸 1
Michael 0.10296103252928551
Super 0.21024208516450085
滚 1
@ 1
ance 0.046917839032451863
1867 0.42180507865958794
My@@ 0.27710870169484714
凉 1
牲@@ 1
寄 1
嘎@@ 1
砍@@ 1
さ 1
喉 1
磷 1
婴@@ 1
帳 1
ak@@ 0.055062808794827556
赦@@ 1
耕 1
闲 1
优 1
峡 1
浴 1
119@@ 1
瑛 1
侏@@ 1
撑 1
委员@@ 1
悦 1
凍 1
凭 1
渝 1
茹 1
霆 1
550 1
ite 0.05276085624817992
缪@@ 1
罐 1
BM@@ 0.7439990325310423
² 0.08672562132475524
惧 1
As@@ 0.09511887490890401
椭@@ 1
盆@@ 1
普查 1
湧@@ 1
貼@@ 1
1848 0.3858378336686372
趁 1
RS 0.5398092282400228
SM@@ 1
330 1
1873 0.42567546096069075
淹 1
奧林匹@@ 1
猿 1
1878 0.38316089977949797
专 1
居民@@ 1
膛 1
襄 1
ا 0.6270948577633512
篡@@ 1
MS@@ 0.6556735309878162
溶 1
禹@@ 1
鞋@@ 1
が 1
DJ 0.548383352833017
て 1
僑@@ 1
鞏@@ 1
118@@ 1
145 1
朔 1
涼 1
汪 1
Ph@@ 0.14158965100030158
浸 1
Oricon 1
擺 1
諡 1
笼 1
National 0.036480337727159286
1864 0.39308141125008755
1879 0.40857638452151596
Ver@@ 0.033792909973751194
悼 1
碩@@ 1
1.4 1
四川@@ 1
im 0.006915548291787507
EX@@ 1
ri@@ 0.0503850812838035
牢 1
翔@@ 1
锁@@ 1
GDP 1
钩 1
1877 0.420639691512633
笼@@ 1
缝 1
莽 1
实验@@ 1
き 1
Un@@ 0.08693729735814418
苔 1
穷@@ 1
羞@@ 1
袋@@ 1
96@@ 1
療 1
AK@@ 1
Sp@@ 0.0873264478843077
剖@@ 1
甜 1
ME 0.9110912518775465
鴉@@ 1
彎 1
ard 0.060889153787534636
窩 1
SM 1
狸 1
迅@@ 1
蕩 1
CPU 1
丢@@ 1
屡@@ 1
畅@@ 1
F1 1
虞 1
岐 1
6.5 1
8000 1
皖@@ 1
禽 1
芜@@ 1
颗@@ 1
择@@ 1
激 1
綴 1
泵 1
土耳@@ 1
雇 1
ION 1
匡@@ 1
掉@@ 1
琅 1
芯 1
蔚@@ 1
欢 1
庚 1
ob@@ 0.06375073334214956
溢@@ 1
1875 0.4116800288331752
NT@@ 1
650 1
釐 1
1865 0.39124037217246926
刷 1
涨 1
籠 1
1882 0.38975123408704376
杭 1
City 0.04633508736363376
肠 1
32@@ 1
晤@@ 1
剪 1
畴 1
酵 1
1881 0.3804717229307968
挡 1
茜 1
ep@@ 0.08266014273897876
鹃 1
磚@@ 1
ng 0.551068587237449
糧 1
隕@@ 1
AD 0.391790318365081
秘 1
綿@@ 1
霧@@ 1
鬧 1
冤@@ 1
傲 1
Or@@ 0.07835292262958478
鸿 1
滴@@ 1
胰@@ 1
鰓 1
谥@@ 1
酵@@ 1
堊@@ 1
窦@@ 1
虐 1
海道 1
net 0.19663090625011864
樸 1
邹@@ 1
Go 0.4944518759972584
od@@ 0.07519983506463869
蝠@@ 1
礁@@ 1
onlyinclude 0.4047069004892843
岁@@ 1
戚@@ 1
175 1
梓 1
岑 1
墮@@ 1
麾@@ 1
2.2 1
孵@@ 1
猶 1
糟@@ 1
运会 1
迟@@ 1
喻@@ 1
GO@@ 1
邱 1
汾@@ 1
IX 0.4871960921892522
呂 1
曉 1
棵 1
濕 1
鹤 1
HK@@ 1
name 0.036549569044051565
姜 1
鍊 1
宠@@ 1
菸 1
俾@@ 1
鰕 1
逗@@ 1
挫@@ 1
敷 1
钧 1
鹅 1
MTV 0.6210791166408292
扇@@ 1
贴@@ 1
顱 1
155 1
埗 1
辈 1
黜 1
趨 1
奸@@ 1
莓 1
87@@ 1
蚌@@ 1
鑒 1
蔭@@ 1
1874 0.4018867082264589
Entertainment 0.29390458268984593
彻 1
63@@ 1
裙 1
豁@@ 1
焊@@ 1
頜 1
30.@@ 1
CS 0.5903393378196445
炼@@ 1
YO@@ 1
119 1
企 1
us@@ 0.044953585928163
1840 0.46155227280376837
1863 0.38421825463328296
苻 1
詐 1
諧 1
124@@ 0.9629693767336706
飾@@ 1
岬 1
支持@@ 1
ら 1
虫@@ 1
THE 1
ter@@ 0.04148588143213799
380 1
蕨@@ 1
攔@@ 1
篤 1
ell 0.06350581743195986
叙 1
7000 1
烃 1
シ 1
脆@@ 1
蕭 1
Netflix 1
ens 0.032219763387677326
喪 1
矛@@ 1
偽 1
谦 1
阱 1
壟@@ 1
ni@@ 0.06987453892800229
1872 0.3989883321545886
袁 1
th 0.04869892025458147
斬@@ 1
AV@@ 0.7739611596204796
CT 1
System 0.21438703267820486
86@@ 1
箕 1
HK 1
陡@@ 1
LED 1
ner 0.05374642684526622
霜 1
270 1
艱@@ 1
鸭@@ 1
屢@@ 1
昏 1
腎@@ 1
厭@@ 1
HO@@ 1
av@@ 0.04829863204827365
澀 1
杂 1
貶@@ 1
紧 1
羌 1
骗 1
ary 0.04100688030693224
19@@ 0.8849058732890756
聶@@ 1
酚 1
ig@@ 0.04980827523741713
芹 1
EST 1
鸦@@ 1
哀 1
per@@ 0.04473766995440465
帛 1
巳 1
鹰@@ 1
祿@@ 1
哭@@ 1
Gr@@ 0.05888345949730705
厲 1
碘@@ 1
UR@@ 1
鰻 1
扶 1
鶴 1
all 0.018003044883598444
ay@@ 0.07719075145593338
屑 1
不得@@ 1
It 0.011599233686910976
Unicode 1
汀@@ 1
讽@@ 1
89@@ 1
稽@@ 1
楠@@ 1
沦@@ 1
铝 1
炒@@ 1
SD@@ 0.9772027851322942
St 0.12180338877847287
咬@@ 1
闸@@ 1
娟 1
孜 1
Ma@@ 0.08345112166732163
虑 1
鋒@@ 1
152 1
盪 1
遺 1
盲 1
嵩 1
椰@@ 1
Metacritic 1
篷 1
All 0.06753581061224567
姦 1
禱 1
FO@@ 0.7886529140404448
George 0.06999594310784542
梳@@ 1
闡@@ 1
饒 1
頌@@ 1
濒 1
萼 1
俠@@ 1
壹 1
嫌 1
begin 0.38589527806575163
く 1
轩 1
禅 1
簽 1
茹@@ 1
Er@@ 0.04660535510241342
棣 1
衔@@ 1
39.@@ 1
UT@@ 1
ale 0.03515516864878526
媛 1
槟@@ 1
琼 1
OVA 1
駿@@ 1
齋@@ 1
ator 0.06345154217923873
玲@@ 1
2.4 1
CE 0.5492882890906708
亥 1
加拿@@ 1
稣@@ 1
EM@@ 0.9714562506618862
醚 1
鬱 1
鹹 1
137 1
AI 0.9270402052486412
NA 0.5510073285317901
夥 1
酪 1
孤 1
幌 1
绥 1
跤 1
Ad@@ 0.0891197141731564
浚 1
kg 0.29824498013978806
兽@@ 1
湛 1
ur 0.07520910642412604
钓@@ 1
皋 1
陛@@ 1
妨@@ 1
缮 1
165 1
袭@@ 1
鱷@@ 1
を 1
賺 1
傀@@ 1
幡 1
84@@ 1
舅@@ 1
um@@ 0.03619369645069997
淫 1
eb@@ 0.05484636421586542
趣@@ 1
LE 1
濾@@ 1
Go@@ 0.11965279953881693
ey 0.0779346144061984
括@@ 1
Club 0.06843400429459916
ach@@ 0.05262744574586042
坏@@ 1
Office 0.23017316269986968
qu@@ 0.038826837718736386
尉@@ 1
帖@@ 1
曙@@ 1
He@@ 0.07750674135950786
忆@@ 1
厌@@ 1
跋@@ 1
鵝 1
COVID 0.29817849043830996
淑 1
滙 1
era 0.027604436380823334
衰 1
锅@@ 1
猩@@ 1
怨@@ 1
Inter@@ 0.09425624428618909
盎@@ 1
漠@@ 1
釀@@ 1
ung 0.023404461245375874
龟 1
131 1
鲜 1
侵 1
窮@@ 1
葫@@ 1
1869 0.3937447075886426
巨 1
粗 1
辯 1
徑@@ 1
97@@ 1
妖 1
傘@@ 1
傲@@ 1
尸 1
甫@@ 1
驱 1
Min@@ 0.11176386067157983
IN 1
磚 1
Pro@@ 0.07935702950970339
Time 0.22793324499602982
圳 1
奕@@ 1
Mor@@ 0.06006451719572902
ut@@ 0.05740814409034485
1866 0.3056135234909627
GO 1
瑶@@ 1
蘇格@@ 1
Mark 0.15302463644122233
麒@@ 1
par@@ 0.03745422676011624
カ 1
羌@@ 1
width 0.6124776565264076
剿@@ 1
1300 1
鯨@@ 1
ti 0.09756941625408691
戟 1
bi@@ 0.04331885632900823
侮@@ 1
こ 1
渗@@ 1
龚@@ 1
ly 0.031454827383478844
閻@@ 1
塵@@ 1
丧 1
寻 1
尧 1
瘟@@ 1
蠻 1
溴@@ 1
壶 1
膽@@ 1
炬 1
land 0.03140219214586569
辣 1
γ 1
EL@@ 0.9731694072095661
闵@@ 1
掘@@ 1
Dis@@ 0.12507148192122244
NET 1
恕 1
剌@@ 1
On 0.01845211352197358
丙 1
参谋@@ 1
峨@@ 1
妈 1
紳 1
鈴 1
僕 1
贿@@ 1
頜@@ 1
弧 1
737 1
Ber@@ 0.05961489091314302
崁 1
SC 0.22141216835477773
财 1
沫 1
ax 0.3243824464291695
se@@ 0.03508353744562871
晃 1
錐@@ 1
Center 0.10422883773351085
Co 0.27144299015304113
琵@@ 1
鎌 1
132 1
疯@@ 1
205 1
Show 0.22112045603163505
赌@@ 1
mo@@ 0.052843972145686285
冕@@ 1
拦@@ 1
奮 1
碩 1
汞 1
烏克@@ 1
諷@@ 1
譬@@ 1
BE 0.8936331301162161
卻@@ 1
渊@@ 1
揮@@ 1
洽 1
隐 1
肾@@ 1
ON 1
逢@@ 1
沁@@ 1
み 1
峇 1
鷹@@ 1
莆@@ 1
瑜@@ 1
me 0.05008455346494651
溴 1
able 0.02371590945952699
阮 1
38.@@ 1
Park 0.06407769012295964
eg@@ 0.049926160925721955
濒@@ 1
酋 1
Sol@@ 0.10989278769352279
桨 1
1.7 1
袖@@ 1
138 1
144 1
Bi@@ 0.07521729930929913
姚 1
懋@@ 1
萱 1
Game@@ 0.888299002400067
1400 1
GA 0.8896921094873813
Games 0.15283138699104773
Star 0.15345413825224263
勿 1
隅 1
GT@@ 0.7665942878130944
BL@@ 1
勉 1
bo@@ 0.04785864222407719
タ 1
汐 1
33.@@ 1
歼 1
梭@@ 1
苷 1
敷@@ 1
con@@ 0.0312671846666007
耆 1
ABC 0.3925586743664063
敢@@ 1
RT@@ 0.5804386111046522
肝 1
蟾 1
妥 1
巖 1
挥@@ 1
API 1
Charles 0.06697622661759509
〇 1
201@@ 0.6824806491551969
瀕@@ 1
贩@@ 1
栓 1
飽 1
驟 1
Thomas 0.07298210769486664
啶 1
睿 1
糙 1
颂 1
ロ 1
咬 1
嵩@@ 1
詔 1
舷 1
2.3 1
ini 0.08159041501877891
哪 1
藓 1
彤 1
堰 1
沂@@ 1
驳@@ 1
136 1
154 1
匿 1
壮 1
滥@@ 1
聪@@ 1
Win@@ 0.22655717320440233
鋸@@ 1
瓊 1
兀@@ 1
熹 1
膝@@ 1
印地@@ 1
腕 1
橘 1
sa 0.019204488223770737
跆@@ 1
Lin@@ 0.16094119862701708
餓 1
硅 1
剖 1
沸@@ 1
鯊 1
鴨@@ 1
僕@@ 1
泣 1
LC 0.7829775980130927
阁@@ 1
戮 1
措@@ 1
撲@@ 1
棲 1
垄@@ 1
185 1
淫@@ 1
168 1
饮 1
公開@@ 1
狸@@ 1
婭 1
惹 1
1.0 1
炭@@ 1
烷@@ 1
仰 1
141 1
砍 1
あ 1
埠@@ 1
苣 1
妍 1
加利@@ 1
蔚 1
褐@@ 1
梗 1
眷@@ 1
匾 1
臟@@ 1
ous 0.03428726432377164
傣@@ 1
肋@@ 1
壞@@ 1
谍 1
st 0.07102699146312244
151 1
Val@@ 0.09731167727084591
荀@@ 1
楷 1
麟@@ 1
黔@@ 1
墳@@ 1
TH@@ 1
ジ 1
ans 0.022277903487493873
吗 1
樱@@ 1
滇 1
il 0.008671164519216337
烂 1
Pe@@ 0.10646197274104777
1830 0.39933581402288193
嶽 1
蛤 1
霄 1
糊@@ 1
32.@@ 1
ker 0.07013908164059753
溜@@ 1
販 1
ber@@ 0.049313227834080556
伸 1
擇 1
So@@ 0.10180082425841773
で 1
竺 1
156 1
倚@@ 1
Fe@@ 0.1381672808287003
硒 1
舅 1
ov@@ 0.0722919615871872
烤@@ 1
畿@@ 1
2.8 1
祸 1
Street 0.07319134975445638
罐@@ 1
讓@@ 1
琪@@ 1
竊 1
133 1
惊 1
Peter 0.08097777829200517
沛@@ 1
倆 1
潜 1
OK 1
IF@@ 0.6849400031864175
交易@@ 1
唯 1
埕 1
Media 0.2001936445812438
矛 1
蚤 1
謎 1
0.3 1
158 1
High 0.07404784701353417
扰@@ 1
舵 1
College 0.04912001385357616
棕 1
1853 0.4602979711074319
吊 1
鶯 1
戎@@ 1
榕 1
Life 0.12685873430462735
誅 1
魨 1
Do@@ 0.12115353941339974
吡@@ 1
颈@@ 1
Web 0.725325206833983
Wii 1
沼 1
Red 0.11495724927916416
ani 0.08575403438377842
駁@@ 1
枕@@ 1
酰 1
ok 0.16767666741982595
瘦@@ 1
虔@@ 1
颖 1
0.1 1
氛@@ 1
ce 0.020725080694350622
139 1
1700 0.8716475446986011
1858 0.4188322433394277
Man@@ 0.06258513491503714
慨 1
须@@ 1
π 1
od 0.14770070988581016
猩 1
悲 1
摺 1
霉@@ 1
骆@@ 1
148 1
謹 1
aw@@ 0.07367065412832247
ys 0.12134626817472097
擢@@ 1
竖@@ 1
per 0.046670602837631456
ant 0.016432045518637767
峯 1
文物@@ 1
晏@@ 1
炳 1
翟@@ 1
FM 0.2181901367726889
塗 1
擴 1
36.@@ 1
no 0.013027938189719427
巷@@ 1
焉 1
睦 1
We@@ 0.09852661598176188
House 0.0594305753350735
No@@ 0.14817661574775745
鑫 1
Bur@@ 0.07378034897433475
ino 0.05495370681347323
FA 0.22472347721809774
To@@ 0.13179832647312087
咪 1
寂@@ 1
懿@@ 1
肠@@ 1
褲 1
笛@@ 1
1100 1
SBS 1
窑@@ 1
1859 0.3636654175056199
雛@@ 1
TP 0.9521055948015149
2.1 1
脸 1
鑲@@ 1
Su@@ 0.10472145823202081
罷 1
恪 1
抹 1
ド 1
撥 1
币@@ 1
镶@@ 1
お 1
マ 1
134 1
Man 0.12292711867984106
勋@@ 1
49.@@ 1
MP 0.3352889712896794
煩 1
胃 1
SN@@ 0.6522701738164378
211 1
Big 0.1487735003341782
谦@@ 1
MBC 1
RC 0.3521443326720361
軒@@ 1
諷 1
倖@@ 1
逻 1
厨@@ 1
齡@@ 1
鈉 1
0.2 1
殷 1
ne@@ 0.050251975580663515
侖 1
203 1
钥 1
妓 1
遼 1
鯛@@ 1
陌@@ 1
1854 0.4086694649477965
誦 1
1857 0.38731801915669795
恢@@ 1
れ 1
br@@ 0.030693677066584123
mo 0.22231517164819523
尿 1
詠@@ 1
EN 1
ick 0.08326598575418509
mar@@ 0.04109960244378638
Pi@@ 0.09657775290797163
Red@@ 0.13945129155181304
闲@@ 1
CL@@ 0.9589282095138004
Cal@@ 0.08107121440467198
曦 1
櫃@@ 1
瑩 1
202 1
King 0.07007280854984689
No 0.10793433594961824
娄@@ 1
拼 1
爷 1
PP@@ 0.6914842982838648
AG 0.24384205597262754
idae 0.10147147464058999
棺@@ 1
毯 1
VO@@ 1
腥 1
鵡 1
屢 1
皓 1
羚 1
衆 1
OR@@ 0.9313672969318796
滯 1
鞘 1
est 0.003539666700370272
虛 1
倖 1
炒 1
暨@@ 1
泾@@ 1
INE 1
虽@@ 1
璃 1
莞@@ 1
諡@@ 1
吻@@ 1
em 0.056474110223822684
梗@@ 1
煮@@ 1
Richard 0.08895371200715253
ber 0.07893534084190229
ir 0.05000433837999403
黔 1
□ 1
噬 1
窝 1
蛮 1
辰@@ 1
166 1
NASA 0.595786340395413
Intel 1
矽@@ 1
祷 1
IL@@ 1
VE 1
les 0.003878277750361181
Po@@ 0.07920245738879797
賄@@ 1
34.@@ 1
伞@@ 1
OH 1
長@@ 1
PL@@ 0.7253481816703343
毘 1
铝@@ 1
94@@ 1
渣@@ 1
铃@@ 1
凍@@ 1
樺 1
AX 1
丕 1
誼@@ 1
1856 0.38067712324761255
抹@@ 1
曜 1
债 1
涂 1
绳 1
Limited 0.4790478395787495
妹@@ 1
盒@@ 1
レ 1
Mel@@ 0.12230737093145334
SD 0.7406275752941914
卤@@ 1
NBC 0.44436798954069273
EC@@ 0.7735616964610383
睿@@ 1
饶 1
腿@@ 1
谣 1
Her@@ 0.05865349899160132
躲 1
co 0.04260643470813939
俱 1
渲@@ 1
San 0.033673158152145694
卉 1
340 1
den 0.00412436185975774
磺@@ 1
du 0.003863674643658973
基督@@ 1
沐@@ 1
顎 1
忽 1
殘 1
笨@@ 1
央 1
嫩@@ 1
當中@@ 1
訥 1
纜 1
块@@ 1
匪@@ 1
稿@@ 1
鉤 1
225 1
披 1
153 1
祺@@ 1
疹 1
钙 1
146 1
IE@@ 0.7621531369206863
λ 0.6911408899983654
綏@@ 1
鱗 1
崖@@ 1
SK@@ 1
ure 0.060745083913530486
叱@@ 1
淚@@ 1
ab 0.035731749062257685
ot 0.07435945588421984
元前 1
摸 1
諒 1
鹅@@ 1
ver@@ 0.014602049101975179
毆 1
铸 1
235 1
256 1
310 1
禺 1
饲@@ 1
証 1
鏈@@ 1
3.2 1
end@@ 0.04293733890006353
143 1
DR@@ 1
ell@@ 0.061197407366050754
time 0.013504731036765983
氦 1
鄧 1
AE@@ 0.5401073657381313
Company 0.07774215303542575
VA 0.5959936527404104
EF@@ 1
帐@@ 1
晖 1
皈@@ 1
1851 0.410628284661802
焚 1
穹@@ 1
鍋 1
隼 1
Project 0.2855628465954793
攬 1
8.5 1
娱@@ 1
釘 1
del 0.004606938083520679
禽@@ 1
虚 1
鄞@@ 1
骤 1
Studio 0.3472407391207884
纬@@ 1
AK 1
pi@@ 0.051476077721848396
江苏@@ 1
KBS 1
2.6 1
3.0 1
靼 1
ha 0.037506370422317685
BL 0.8183636861703729
ge 0.054158590072367695
way 0.03425317284092926
○ 1
147 1
籠@@ 1
妄@@ 1
湄@@ 1
肚 1
銳@@ 1
裸 1
XX 0.21587654584982063
ww@@ 1
162 1
org 1
bit 0.20683347977563393
执 1
苔@@ 1
0.8 1
ち 1
嬪 1
畝 1
虾 1
皖 1
萝@@ 1
脏@@ 1
aria 0.11609088737794894
214 1
儡 1
颈 1
溺@@ 1
return 0.10762369363741359
CBS 0.41749053801816816
Har@@ 0.07084998157144769
阪 1
辜 1
缆 1
腊 1
坤@@ 1
祚 1
鈾 1
軼@@ 1
O2 1
000@@ 1
崙@@ 1
Mk 1
憩 1
胖 1
乍@@ 1
氨 1
35.@@ 1
China 0.06860380075712934
ho@@ 0.06074147540474465
ik@@ 0.04534720621245257
藔 1
忒 1
毙 1
穗@@ 1
臻 1
篮 1
踏 1
劝 1
濁 1
蛙@@ 1
傭@@ 1
敕@@ 1
0.4 1
稠@@ 1
辩 1
ο 0.044006876416049674
American 0.020609999827776677
坍@@ 1
GNU 1
ç 0.6524102092426189
拷@@ 1
Ab@@ 0.028782836762691284
庾@@ 1
肛@@ 1
Air 0.07873923427236686
犁@@ 1
AA 0.3281232901738116
壺 1
21@@ 1
142 1
諫 1
鸦 1
ICE 1
緝 1
48.@@ 1
yl@@ 0.08191372187875327
195 1
斧 1
欄@@ 1
豎@@ 1
謹@@ 1
駱@@ 1
HC 0.5347618928729162
type 0.07882156155591112
沮@@ 1
AB 0.502928512287215
臘 1
諧@@ 1
趟 1
暉 1
滬@@ 1
猫@@ 1
37.@@ 1
溃@@ 1
io 0.07170253228047281
汴@@ 1
揆 1
磊 1
忌@@ 1
雍 1
丸@@ 1
匀 1
洩@@ 1
硼@@ 1
Day 0.13154730292481925
勘 1
苓 1
們@@ 1
啸 1
窝@@ 1
筹 1
蜴 1
ex@@ 0.028575122700172578
± 1
窃 1
鍋@@ 1
锦 1
501 1
SE 0.5867033098082779
霜@@ 1
0.6 1
208 1
夠@@ 1
淤@@ 1
1855 0.37297079101956687
蒲 1
哨@@ 1
閃 1
嗜@@ 1
繹 1
舜 1
敛 1
ense 0.14330210477007732
mi 0.14642674462196842
囚 1
筒@@ 1
耦@@ 1
谕 1
濾 1
CN@@ 0.39509041950021956
斃 1
昊 1
绪@@ 1
菁@@ 1
Tri@@ 0.078120042861824
楓 1
蔷@@ 1
龄@@ 1
姻@@ 1
溥@@ 1
珂 1
寨@@ 1
隍 1
攤@@ 1
湊 1
锌 1
204 1
MB 1
alis 0.22298428001115125
â 1
偿@@ 1
抑 1
漕@@ 1
Gam@@ 0.41112773379801953
ED 1
RA 0.3333416526358864
my@@ 0.1690191876480812
si 0.05229125904883675
茜@@ 1
饒@@ 1
淄@@ 1
伞 1
珪 1
逊@@ 1
850 1
http 0.8216591629221864
iTunes 1
缔@@ 1
鱈 1
Al 0.064897992180818
咒@@ 1
1847 0.4155112920569383
冻@@ 1
淞@@ 1
狱@@ 1
Inc 0.9097077408927882
ist 0.00551498542547558
206 1
PC@@ 0.39383459602237714
out 0.016975219930778267
肆@@ 1
剂@@ 1
1841 0.4569319597787696
ati@@ 0.05061694342074099
401 1
磯 1
肽 1
毋@@ 1
207 1
懂@@ 1
Ho@@ 0.08481981795919781
榕@@ 1
ke 0.04171060449556968
汰@@ 1
Cy@@ 0.24036210217130444
car@@ 0.03558854145445971
osa 0.10638675000797913
ion 0.07542789759611275
RAM 1
顏 1
奋 1
its 0.008014185218944815
弊@@ 1
乞 1
167 1
157 1
Boy 0.3561623729672991
DOS 1
ect 0.08822826040876812
ú 0.37659493430058566
淀 1
192 1
ics 0.06266157938341982
pl@@ 0.03670271559098085
pp@@ 0.10929516257017473
も 1
尧@@ 1
槳 1
Girls 0.3832089304878968
be@@ 0.021390314348761156
捧 1
ca 0.06413590123347129
峭 1
繡 1
銜@@ 1
149 1
420 1
Road 0.08180307331405512
蔗 1
郸 1
ff@@ 0.07072617452468069
洁@@ 1
4.2 1
and@@ 0.04390616825857976
1852 0.3836127515417662
龔@@ 1
冀 1
馳 1
愚 1
厘 1
鋁 1
173 1
绳@@ 1
嘎 1
沫@@ 1
铅@@ 1
鴉 1
侃 1
Mal@@ 0.05680072543095832
樞 1
Cre@@ 0.11690652180608906
sp@@ 0.035887751081023385
厉 1
鳞 1
尘 1
纏 1
坊@@ 1
浑@@ 1
163 1
Ltd 0.388976064540062
NS@@ 0.33028827863236915
pr@@ 0.03289538417940946
圃 1
肚@@ 1
鹼 1
祺 1
新加@@ 1
莒@@ 1
匾@@ 1
靶@@ 1
扮@@ 1
濬 1
CP@@ 0.43586919848209843
ING 1
hi@@ 0.06585229785095516
2.7 1
class 0.0776239863690428
唤 1
壹@@ 1
搖 1
NT 1
Sal@@ 0.07130246619642823
椅@@ 1
潰@@ 1
邓 1
ao 0.10075281198711465
厲@@ 1
稳 1
膝 1
臧@@ 1
370 1
Mag@@ 0.09037970491145489
key 0.11634678043128602
new 0.018389856850178795
克兰 1
繆@@ 1
扯 1
琰 1
747 1
Force 0.11280984346865792
立方@@ 1
谥 1
龟@@ 1
ala 0.08807688916857863
オ 1
誇@@ 1
諱 1
Sc@@ 0.11153865676544145
謠@@ 1
艷@@ 1
绵 1
1849 0.3576625081975439
3.6 1
af@@ 0.042158478114105585
匈 1
綿 1
ki 0.0840943453680412
敕 1
诞 1
3.3 1
锐@@ 1
忧@@ 1
oph@@ 0.11123311636196663
铅 1
als 0.0053577754076723
拾@@ 1
筛@@ 1
LGBT 0.7168036920297856
do@@ 0.06803632893366487
廊@@ 1
Ap@@ 0.12229107765636425
Medi@@ 0.2112905610796548
kh@@ 0.07085250579016614
腎 1
妝@@ 1
vi@@ 0.04435099101046948
闯@@ 1
鲸 1
溥 1
笙 1
SI 0.6893174732361457
ene 0.050797513662588945
柜 1
鳩 1
劑@@ 1
EC 0.5195879995720616
妈@@ 1
ap 0.11725264132925048
澳大@@ 1
脸@@ 1
pe@@ 0.058427886803520804
à 0.002415746549084974
安徽@@ 1
琶 1
铀 1
not 0.009473262050716233
フ 1
嶺@@ 1
福建@@ 1
锂 1
161 1
183 1
von 0.00329920677876305
郵 1
1.9 1
2023 1
ue 0.05769160469398565
ta@@ 0.0818663702662435
1815 0.39052104750518385
ou@@ 0.0370189326545316
Gen@@ 0.09067160401265728
廂@@ 1
眷 1
蠟@@ 1
1846 0.3933532101784341
σ 1
Bel@@ 0.05694570882468686
沁 1
芽@@ 1
188 1
厭 1
蕴@@ 1
bu@@ 0.0727561143825552
瀛 1
猜 1
171 1
209 1
圻 1
颠@@ 1
Mer@@ 0.0727280799809083
檻 1
SARS 1
Sur@@ 0.12111667084224333
腔@@ 1
ome 0.12196191923000152
赶 1
221 1
摘 1
泌@@ 1
鸭 1
184 1
TR@@ 0.9290864029045192
3.7 1
A2 1
у 0.019966626782861194
兜@@ 1
蚊@@ 1
谊@@ 1
鼬 1
ET 0.7605817616450978
USB 1
M1 1
勛 1
Hall 0.07668296135572379
戍@@ 1
泸@@ 1
汲@@ 1
匡 1
潼@@ 1
鞭 1
挑 1
ε 0.43799086909888946
叡 1
嘆 1
ee 0.07877354205597037
д 0.04912758840578026
鹼@@ 1
绒 1
za 0.06161245018053851
儂 1
159 1
闊@@ 1
絮 1
穎@@ 1
ρ 0.6493197037301643
CT@@ 0.7322729833204707
ل 0.46769578041837206
← 1
裘@@ 1
暢 1
1820 0.3243760975514122
Gu@@ 0.051084336407542105
垦 1
庇 1
悔@@ 1
侠@@ 1
衢@@ 1
赣 1
扑@@ 1
烘@@ 1
畸@@ 1
輩@@ 1
佑@@ 1
励@@ 1
紳@@ 1
鉛 1
肋 1
萎@@ 1
222 1
ES 0.7427559448932911
帥@@ 1
悚@@ 1
蘿 1
1845 0.3902056865067472
瞿@@ 1
Server 1
164 1
沂 1
鯊@@ 1
178 1
290 1
惹@@ 1
215 1
厉@@ 1
霰@@ 1
176 1
chem 1
飢@@ 1
1844 0.4186841942185631
AMD 1
TE 0.6967627995811373
悖@@ 1
UC@@ 0.7373053767288763
so@@ 0.05073486440599323
South 0.029549337230387045
昧 1
Galaxy 0.9348887145571313
MHz 0.9403071608567617
ov 0.07765161510981124
LA 0.2882662788159112
稷 1
ah@@ 0.05364653600197053
ins 0.030977880706570277
pa 0.12582751893087826
晤 1
te@@ 0.03586507039516496
迹@@ 1
夹 1
Es@@ 0.07401730539362411
靴 1
182 1
逾@@ 1
Instagram 1
Association 0.059926186395190005
Records 0.08104831752584032
运动@@ 1
XP 1
騙@@ 1
恤 1
ru@@ 0.0478366670493854
É 1
1A 1
栽@@ 1
172 1
ν 0.5126138895013174
辜@@ 1
飘@@ 1
绎 1
人民代表大会 1
181 1
SQL 1
ons 0.02411737931918136
乏@@ 1
93.@@ 1
鈣 1
鑿 1
齣 1
吟 1
MO 1
CEO 0.34415584322948223
劲 1
邑@@ 1
Kar@@ 0.05545881505623995
譚 1
苷@@ 1
頑@@ 1
Ser@@ 0.08047012086847789
ci@@ 0.04766212315801572
靡 1
196 1
菁 1
擱@@ 1
燦@@ 1
Mat@@ 0.0828098025083979
搏@@ 1
芮@@ 1
遙 1
Store 0.8051767932397319
す 1
姪 1
岔 1
惱 1
簧@@ 1
馈 1
茉@@ 1
ano 0.035148983484976415
ath@@ 0.07443972322722628
480 1
Si@@ 0.11126147030503246
吟@@ 1
0.7 1
況@@ 1
遵 1
锥@@ 1
212 1
ium 0.15270438372080355
枫@@ 1
驰 1
Hy@@ 0.14915504786429734
189 1
ich@@ 0.07886236956745829
‰ 1
賃 1
敘 1
Play 0.35576210261990954
煉@@ 1
磐@@ 1
芝加@@ 1
AF@@ 0.38984616713352144
Fl@@ 0.06947817427908984
虧@@ 1
300@@ 1
ile 0.035486279113731395
IGN 0.6380382261130854
棺 1
馳@@ 1
Bu@@ 0.10676600154516676
濠 1
萧 1
遴@@ 1
10000 1
ess 0.055581448754395454
甦 1
tu@@ 0.05707075536925209
碉@@ 1
you 0.09454547965537602
庸@@ 1
45.@@ 1
North 0.03548429027410103
殲@@ 1
238 1
ura 0.07397949163494479
颖@@ 1
嘻@@ 1
撃 1
骂 1
鬍 1
鲤@@ 1
聪 1
︰ 1
濮@@ 1
Best 0.09063717983590935
Le 0.008605258704034032
楷@@ 1
濁@@ 1
瑤 1
1812 0.3626236528386578
暱 1
産 1
じ 1
咽@@ 1
陋 1
this 0.009963657456112145
薰 1
噸@@ 1
3.1 1
Black 0.08465091132474756
Bor@@ 0.07347393228892318
Mr 0.4918393931433028
櫻 1
ari@@ 0.0696056014725747
朽 1
蒋 1
99.@@ 1
App 1
1843 0.4176718972257811
坟@@ 1
臘@@ 1
Max 0.1581780283886683
傾 1
毫 1
Ag@@ 0.10260962480633315
Sa@@ 0.0880646998286244
Sony 0.40383765810069
FS 1
WWE 0.4125295098839091
几 1
侬 1
礙@@ 1
纜@@ 1
臭 1
鈕 1
KO@@ 1
濃 1
绣 1
糯@@ 1
1814 0.39524513541138345
223 1
MVP 0.935211018169144
佣 1
僱 1
浜 1
1842 0.3960478967968838
ei 0.09438270147813525
ks 0.03132702235631585
und 0.00147794135833177
渥@@ 1
谨@@ 1
楔@@ 1
潞@@ 1
铃 1
Lee 0.11135304696455166
憤 1
脆 1
酬@@ 1
187 1
CH 0.8976475462662343
au@@ 0.033384071354237294
蒸 1
薹 1
煥 1
鑲 1
601 1
Op@@ 0.13313931298854237
棱 1
Fi 1
ek 0.07670996394545924
DD 1
凸 1
紗@@ 1
驾 1
47.@@ 1
RPG 1
萌 1
雁 1
177 1
芷@@ 1
su@@ 0.040793437304944134
DI@@ 0.9504840066982811
ROM 1
Don 0.12711666994215404
SL@@ 0.6959451320196617
枣@@ 1
ã 1
绒@@ 1
CM@@ 0.624029716470891
DI 0.6438900118172461
ô 0.5123691640151398
佣@@ 1
197 1
430 1
キ 1
羧@@ 1
410 1
Kong 0.16263050678966032
覓 1
174 1
灌 1
瞻@@ 1
Envir@@ 1
Por@@ 0.11311413302116123
UE 1
az@@ 0.048758778223095704
弈 1
汕 1
To 0.09204802319204702
217 1
400@@ 1
Henry 0.07117061070870286
Jean 0.044555950310300435
berg 0.04495710043412082
vs 0.801167186367177
嬰 1
SP 0.6976515983800846
ac 0.08444841654290167
Tel@@ 0.14006223202750037
佬 1
Hol@@ 0.08084035686442102
Internet 0.1853352663970048
隘 1
猷 1
228 1
DB 0.6608099261180876
墊 1
斡@@ 1
羲 1
遏@@ 1
ba@@ 0.05972582308515647
烦 1
裳 1
鳍 1
尘@@ 1
搁@@ 1
皂 1
305 1
tion 0.031388084900782494
ry 0.07056345871465401
っ 1
夭@@ 1
膺 1
駝 1
哆 1
朋 1
閔@@ 1
169 1
CG 0.9689661249162346
DP 0.3858961897327324
ated 0.014720653424791966
ism 0.053408571194015604
滋 1
HTML 1
凹 1
field 0.034537163345934485
詛@@ 1
ick@@ 0.0715979179094448
扔 1
Del@@ 0.10570220139750611
橙 1
浑 1
跡@@ 1
胺@@ 1
ase 0.06254316105031678
岔@@ 1
爺@@ 1
BSD 1
磺 1
诊 1
晟 1
檀 1
磐 1
绰@@ 1
ula 0.18074275891625977
奚@@ 1
Steam 1
栖 1
袖 1
粵 1
苑@@ 1
逵 1
驕@@ 1
畅 1
缅 1
貸 1
滄@@ 1
苟@@ 1
ill 0.08905570812608676
つ 1
詹 1
ent@@ 0.019710621754950516
蜡@@ 1
HBO 0.9739900756846169
United 0.016390328882143135
倦 1
茄@@ 1
193 1
м 0.031246117631834328
触 1
ical 0.03585865848379007
ミ 1
燮 1
44.@@ 1
Na@@ 0.18672796579921194
ISBN 1
Pol@@ 0.06936790356292837
Ti@@ 0.11297941680698953
卧 1
0.9 1
BB 0.6941575257025732
秘书@@ 1
偕 1
冻 1
Up 0.2562706179611579
芸 1
911 1
Girl 0.3241546108006681
挫 1
锅 1
You@@ 1
挤 1
兑@@ 1
We 0.14219460373434722
钊 1
樵 1
Unix 1
46.@@ 1
歲@@ 1
贿 1
3.8 1
寅@@ 1
冶 1
滞@@ 1
煞@@ 1
Joseph 0.06563348433486922
滤 1
璽 1
瀋 1
肪@@ 1
213 1
δ 1
蹄 1
汐@@ 1
Martin 0.07012887403051077
Pan@@ 0.09537527817873268
up 0.013874821360723388
264 1
兇 1
渣 1
耐 1
ade 0.05272624462313871
コ 1
Tor@@ 0.06753318918203215
line 0.0295505893322574
τ 0.3589300598279134
吨@@ 1
play 0.036336777002251984
叢 1
稚@@ 1
镍 1
ena 0.07493780996668013
甥 1
萃 1
pe 0.06407882702974665
侗@@ 1
ora 0.08206109273515333
濂 1
mac@@ 0.22592021145493044
竿 1
躺 1
218 1
昨@@ 1
179 1
壕 1
mon@@ 0.02848870433308566
蒐@@ 1
Char@@ 0.06827056026689018
凶 1
靂 1
cr@@ 0.03638611389182123
ket 0.22451127739469845
呆 1
sur 0.00832033743724664
鬱@@ 1
ada 0.01425722540800872
鰻@@ 1
勐@@ 1
壢 1
PR@@ 0.44490092781648927
50.@@ 1
绑 1
谟 1
謨 1
ant@@ 0.04202108763506962
寰 1
鲨@@ 1
洙 1
菅@@ 1
Astr@@ 0.2818722150481264
潑 1
瞻 1
顽@@ 1
佚 1
谐@@ 1
噪 1
帐 1
潍@@ 1
堇 1
槃 1
猿@@ 1
饋 1
篩@@ 1
鋁@@ 1
Grand 0.05550968371100875
IUCN 1
ari 0.08633743581021183
row 0.12643843037163122
Hello 1
La@@ 0.12935499346060766
懸 1
Hong 0.1574565628825445
橇 1
1789 0.48094765569288395
1832 0.38114758194270293
斋@@ 1
216 1
☆ 1
冗@@ 1
夔 1
窩@@ 1
UL@@ 1
撈 1
str@@ 0.036071467877547406
冉@@ 1
嫻 1
B1 1
ach 0.05121598875338853
303 1
186 1
^ 1
柑@@ 1
兖@@ 1
澜 1
芋 1
Ni@@ 0.0966857051392742
man@@ 0.03407298644461526
River 0.040226225646969614
ations 0.01418281186277718
芥@@ 1
餉 1
电力@@ 1
砸 1
澈 1
蠕@@ 1
刮@@ 1
鲨 1
睦@@ 1
Video 0.25979993942314317
孛 1
枫 1
薛 1
Hel@@ 0.09153474519927135
gi@@ 0.05063787206651561
劲@@ 1
爐@@ 1
yr@@ 0.11187881918587993
搏 1
臂@@ 1
Bl@@ 0.06973072209640727
Im@@ 0.07622688024072025
敞@@ 1
琮 1
濫 1
贷 1
262 1
緬 1
Trans@@ 0.11247070312289745
Gar@@ 0.0797171655347244
LS 0.8986261671557603
my 0.11824346154103944
ff 0.11850094547486027
沽 1
eh@@ 0.04166134149445063
僖@@ 1
妃@@ 1
1835 0.36151475926908405
嘯 1
汙@@ 1
蔭 1
鞑@@ 1
ology 0.04472429952512029
咤 1
羰@@ 1
蒜 1
DS@@ 0.5715865287742876
泄 1
gen@@ 0.033238966538806536
祉 1
飄@@ 1
1839 0.3682708297449394
3.4 1
Japan 0.06474275548490185
廖 1
Des@@ 0.08581364158900442
魄 1
der@@ 0.034359930125499503
ok@@ 0.06671367679452653
吵 1
炫@@ 1
芮 1
IR@@ 0.5509205755826131
ong@@ 0.08258126944405336
艏 1
苞 1
凝 1
Bal@@ 0.05602218028910244
埤 1
缝@@ 1
Dr@@ 0.07481417291821274
咎 1
緝@@ 1
荫 1
娛 1
朕 1
骗@@ 1
ma@@ 0.062437642592414015
錐 1
191 1
斛 1
俸 1
Dr 0.5106958838072766
Radio 0.08889865607430311
嚇@@ 1
笃@@ 1
365 1
餅@@ 1
1801 0.4529906453577255
BR 0.8233137305064959
醋 1
ence 0.033154161520216274
U21 1
1821 0.3796678627512752
ET@@ 0.6670409374223933
й 0.028459125502261397
265 1
堰@@ 1
198 1
ore 0.050090834742628786
rpm 1
1795 0.505564004517098
4.6 1
穴@@ 1
1838 0.3572184352263291
塌@@ 1
寵 1
渝@@ 1
Ri@@ 0.07342829651021289
226 1
PM 0.5211256785282978
PT@@ 0.7286656288544008
so 0.015549955677454047
ς 0.41189093193077136
厝@@ 1
綁@@ 1
諮@@ 1
3500 1
褚@@ 1
瞞 1
穫 1
铵 1
誘 1
唑 1
孀 1
篠 1
罢 1
鳚 1
610 1
舱@@ 1
Is@@ 0.07263570782084186
Bre@@ 0.07370503071243753
ville 0.025664603558521355
テ 1
勻 1
嫉@@ 1
堕@@ 1
1806 0.38865260945320806
GT 0.4619212013129589
Lu@@ 0.08186514394101278
勾 1
熵 1
鰈 1
1793 0.4138005089574243
yn@@ 0.09925495437839972
拨 1
500@@ 1
ev@@ 0.040927747046321857
枢 1
255 1
Net@@ 0.44764505161980545
唔 1
tic 0.0618603551635176
ナ 1
灶 1
锥 1
驼 1
232 1
Power 0.19105574180838963
Smith 0.07677937266923159
ake 0.07250846540272317
纏@@ 1
腫 1
Ki@@ 0.1489638984048405
Mak@@ 0.14097585199656681
淇 1
薑 1
1836 0.34980904966034704
233 1
ist@@ 0.049315854534090355
This 0.013874949672665992
UI 1
凿 1
sch@@ 0.02014587195110428
婴 1
捞 1
虔 1
ja 0.05525241458051383
撼 1
ice 0.04365906039472676
1792 0.4655032692781347
谏 1
ack 0.10993843836002384
km2 0.3093235747969881
沌 1
澱 1
酗@@ 1
闽 1
31.@@ 1
Super@@ 0.10217452450035434
乂 1
紗 1
侄 1
诬@@ 1
嫔 1
竭@@ 1
PL 0.9813082155725253
Tw@@ 0.18916831346785276
ger 0.06707957855375428
ī 0.4469818237512639
叹 1
炯@@ 1
199 1
戛@@ 1
焕 1
Blue 0.12974113560170136
ai@@ 0.0935270449393958
蘚 1
刁@@ 1
涯 1
4.0 1
AO@@ 0.607215511755856
ise 0.028167319417868104
竇@@ 1
Mas@@ 0.07211403085295233
Youtube 1
忙@@ 1
鈔 1
News 0.14104701298693229
Switch 1
樁 1
ette 0.041654108134811706
墾@@ 1
暮@@ 1
194 1
249 1
謬@@ 1
Can@@ 0.0872791204869982
ウ 1
鈍 1
妳 1
MD 0.5248267380575602
Ros@@ 0.07077026291075574
ida 0.04477623267868393
や 1
暑 1
薨 1
2D 1
ung@@ 0.06148784900193136
gr@@ 0.024640251452946973
癮 1
稀 1
豔 1
ブ 1
檳@@ 1
鑰@@ 1
950 1
Be 0.3315288967002028
low 0.049486178530671214
tra 0.08048672401168822
渾@@ 1
昕 1
iz@@ 0.04179305335481883
瑶 1
蹈@@ 1
219 1
4.8 1
筠 1
貶 1
Sy@@ 0.11853843514839489
ι 0.2778334698857987
帧 1
宸 1
酱 1
镁 1
left 0.033710163174696245
縛 1
Tom 0.12347850667699113
煩@@ 1
巔@@ 1
妝 1
幌@@ 1
擠@@ 1
轎@@ 1
Network 0.18243321527716824
VC 0.6536385898359455
傭 1
携 1
炀@@ 1
甬@@ 1
粟 1
wood 0.06433248019080845
1837 0.33552948330283455
275 1
牽 1
777 1
Young 0.11475507623367334
斩 1
糞 1
躁 1
League 0.024192486437741686
樸@@ 1
汝 1
801 1
eri 0.13993597158418092
擒@@ 1
篤@@ 1
57.@@ 1
尬 1
ire 0.0510306904261594
va 0.04496946747086459
俩 1
殭 1
Art 0.0494076570356771
倭 1
荧@@ 1
59.@@ 1
9000 1
棚@@ 1
喚@@ 1
摸@@ 1
ñ 1
だ 1
愁 1
釀 1
ii 0.3045263454024509
遮 1
ita 0.05615336242097585
« 0.0030986063650474205
瀉 1
炔 1
2A 1
ane 0.05452792008493118
谣@@ 1
5.1 1
Book 0.17497517540024318
West 0.03249577887275627
朵@@ 1
饑 1
眶 1
粤 1
耍 1
gu@@ 0.03897116732178648
裙@@ 1
Hu@@ 0.08494296075956904
楨 1
701 1
well 0.015852437738257428
掙@@ 1
殆@@ 1
砌@@ 1
脾@@ 1
307 1
440 1
Power@@ 0.6728272770644974
倾 1
溧@@ 1
訝 1
贖@@ 1
醣 1
231 1
ish 0.056488841171463515
悄@@ 1
螈 1
229 1
Fre@@ 0.059999178098447147
anus 0.2212732699267293
淋 1
綜 1
224 1
MI 0.6647118306531727
eng@@ 0.04411670327029641
轍 1
ou 0.012334123679703992
State 0.027221837809786077
サ 1
槟 1
1831 0.36226651449420305
ow@@ 0.056933486177759576
Ga@@ 0.18718753647658445
泪 1
Cam@@ 0.10181785783576643
嘗 1
秩@@ 1
Mi@@ 0.08846811222539187
ain 0.05211411358796696
姻 1
牒 1
琥@@ 1
繳 1
雉 1
Island 0.0623704657353565
Now 0.28498941063052735
Plus 0.24887637555669137
勿@@ 1
圾@@ 1
4.3 1
At@@ 0.08080134632644254
Cos@@ 0.17520280681947126
誣@@ 1
308 1
ge@@ 0.020972821394786526
void 1
洼@@ 1
ock 0.09336152908666055
昱 1
書館 1
谨 1
氹 1
秃@@ 1
葆@@ 1
蟬 1
褒 1
Du@@ 0.07811549199355239
Vol@@ 0.09078589450560606
251 1
tis 0.10988951918702071
CI 0.5842482264975564
渚 1
绞@@ 1
1824 0.40239087199679263
6.2 1
640 1
阡@@ 1
Chi@@ 0.10715232157283155
輾@@ 1
now 0.028313515378102783
Mobile 0.46233462278928145
ko 0.08195443920049007
1825 0.38244761315229603
Jump 1
ting 0.022619312791525514
吓 1
Sir 0.09373095406409718
go 0.05093937501297531
he@@ 0.03565266442699319
耆@@ 1
Online 0.4146393591917836
ates 0.023859859521424224
邏 1
CF@@ 0.47674601170819714
he 0.003357131858171435
oth@@ 0.08330692545332621
兌@@ 1
綸 1
靳@@ 1
306 1
mi@@ 0.05365435615842228
妊@@ 1
Ste@@ 0.06699123139814853
Top 0.11393163177885036
tor 0.05197637524198517
que 0.001983800666270634
仆 1
扫 1
粥 1
驿@@ 1
SV@@ 0.9191379275845579
all@@ 0.04028393780627619
蜗@@ 1
﹐ 1
dia 0.12765048259892894
胖@@ 1
淇@@ 1
鉛@@ 1
II@@ 0.38895175704191737
UR 0.9909506582938077
go@@ 0.09784499806122489
嶋 1
蠅 1
彼 1
恥 1
锯@@ 1
駭@@ 1
UN 0.33005960215988356
渥 1
Core 1
颂@@ 1
LD 1
nm 1
诛@@ 1
掷 1
婺@@ 1
盔@@ 1
壳@@ 1
戍 1
榔 1
欖 1
鍾@@ 1
锻@@ 1
07@@ 1
302 1
6.4 1
MT@@ 0.7463799267043378
挤@@ 1
瞰 1
09@@ 1
M2 1
羚@@ 1
Cl 1
瑋 1
520 1
拌 1
謊@@ 1
Institute 0.06330882167898302
com@@ 0.028103189470663568
ford 0.05141479551660163
ens@@ 0.028669202217935525
05@@ 1
Em@@ 0.07319566011879225
Gal@@ 0.06881263473773434
EA 0.605537793416876
毗 1
爱尔@@ 1
蘆 1
蚁 1
﹑ 1
1833 0.3537311461988158
CV 0.7436902907467393
Pre@@ 0.08122246244840654
ni 0.047308710619689845
檸@@ 1
HT@@ 1
SR 0.17114921063470456
咪@@ 1
敖 1
闹@@ 1
CN 0.8357283021951484
ola 0.08887538597208736
ω 0.821503227213934
1790 0.4104411181107445
right 0.05132168615122014
洽@@ 1
瑄 1
2.9 1
5.6 1
Home 0.14643718198949734
Python 1
S2 1
SF@@ 0.5484780040125532
yc@@ 0.12994435241230481
ム 1
檬@@ 1
韶 1
390 1
560 1
溢 1
69.@@ 1
eon 0.38744341035668356
膳 1
242 1
脖@@ 1
245 1
5.2 1
Production 0.19647534844714226
FF 0.32601015526267596
ML@@ 0.5532226997907569
聊 1
豹@@ 1
CV@@ 0.8865529730617526
set 0.028973611274280935
譽@@ 1
me@@ 0.04183376374888794
ro 0.09286052864514525
谭 1
enti@@ 0.047667130016275386
sin@@ 0.06779605278125025
楓@@ 1
鲸@@ 1
FF@@ 0.5013266854454111
325 1
唸 1
燦 1
鋪@@ 1
DM 0.49849694611169476
Direc@@ 0.19278725065409527
峪@@ 1
Asia 0.114672544124398
ek@@ 0.03873630197327472
垮@@ 1
1804 0.4594435852169271
1810 0.3572685491331295
Ang@@ 0.06612762959688658
エ 1
泼@@ 1
AF 0.27274505696700635
Bank 0.09442866030964749
プ 1
肤@@ 1
骏 1
Society 0.06105617381021105
if@@ 0.05706838409223789
叻 1
ML 0.774495221353403
栈 1
227 1
Kr@@ 0.05052244773627046
惜@@ 1
廬@@ 1
讳 1
110@@ 1
5.8 1
盼 1
荡@@ 1
驛 1
DF@@ 0.7998708192390578
乎@@ 1
杏 1
285 1
Vista 0.7979843748348973
硼 1
雳 1
tic@@ 0.07588716752558373
膳@@ 1
饿 1
碟@@ 1
SL 0.5858982304200602
亏@@ 1
芸@@ 1
媚 1
460 1
Jack 0.1071363356547052
攸@@ 1
慷@@ 1
轿@@ 1
畑@@ 1
仑@@ 1
庞 1
汾 1
庐 1
摇 1
鋰 1
龕 1
ys@@ 0.07622917834601868
萃@@ 1
蟾@@ 1
6.1 1
DR 0.38125852506508645
Dream 0.39476299132688997
IEEE 1
寡 1
残 1
窯 1
隋 1
摆 1
垣@@ 1
縫@@ 1
XML 1
which 0.004077926024195476
伎 1
桩 1
煥@@ 1
砷 1
诈@@ 1
Cas@@ 0.0657029246841924
239 1
悍 1
赎@@ 1
羈@@ 1
瀛@@ 1
陂 1
謎@@ 1
254 1
tri@@ 0.038303884856495475
爽@@ 1
58.@@ 1
ut 0.07253088071276106
ə 1
蛮@@ 1
飽@@ 1
PRO@@ 1
拐@@ 1
偕@@ 1
1799 0.49506284389039873
チ 1
昵@@ 1
诵 1
Research 0.09227266953595997
冢 1
B2 1
ba 0.07031359721435976
撾 1
璜 1
94.@@ 1
GM 0.5456738821563552
妒 1
Rock 0.09605742002822744
惕 1
鉅 1
311 1
琦@@ 1
踪@@ 1
嬌 1
醇@@ 1
1644 1
ings 0.022006221663782317
刹@@ 1
簇 1
ath 0.08803479178155481
our 0.045353697348758396
ASA 1
lu@@ 0.04754899359512035
་ 1
韌@@ 1
暱@@ 1
獄@@ 1
篆@@ 1
韃@@ 1
ash 0.11521978717723601
https 0.6480676401115454
殴@@ 1
318 1
Good 0.23552001834349973
Junior 0.1592684338720839
よ 1
1809 0.40770631015297504
BT 0.8272274142923925
聆@@ 1
234 1
グ 1
弯 1
S1 1
ty@@ 0.07657407770304396
鮨 1
澎@@ 1
赂 1
bl@@ 0.03056364455881489
垫 1
筋@@ 1
901 1
TG@@ 1
厘@@ 1
柵@@ 1
Open 0.08598341609074672
衷@@ 1
遥 1
1776 0.5755915718341054
Tour 0.061109261306064644
佥@@ 1
呀 1
舵@@ 1
pH 0.8367855146057273
栅@@ 1
Sports 0.13053349494482774
雌 1
Kh@@ 0.07166997518917871
1834 0.3203629400157706
oma 0.10118261907161756
绅 1
530 1
aj@@ 0.05135424187405247
osaurus 0.46567996484082747
涪@@ 1
600@@ 1
can 0.013648738138726989
more 0.011023286106939739
ve@@ 0.06439263069225645
瀾 1
mol 0.8082507611023986
sen 0.0450014372834362
ニ 1
丕@@ 1
行榜 1
252 1
92.@@ 1
Web@@ 0.25856182200693434
1822 0.39693757327365864
540 1
Award 0.04871879890159504
Magazine 0.2003459866244244
閏 1
304 1
Billboard 0.11876727684253545
CM 0.6352228887819127
First 0.055822482760266225
up@@ 0.04257088969637575
5.7 1
ra@@ 0.050986667326012605
轶@@ 1
3.9 1
580 1
Church 0.04520328427818113
8.1 1
Comic 0.7078975065134316
ua 0.10960377873783317
旨@@ 1
241 1
Mus@@ 0.07095700870764708
White 0.0671576965013105
蟬@@ 1
4.1 1
H2O 1
mann 0.043465401487924736
630 1
T1 1
sa@@ 0.07691102320069144
傻@@ 1
襪@@ 1
1.0@@ 0.9406764876539939
攤 1
1813 0.3403412613536706
470 1
嫡 1
淞 1
踩 1
C1 1
LG@@ 0.6068999181233555
MAX 1
SW@@ 0.47202348820034756
DF 0.41417342321260125
GS 0.5707767918303934
GE 0.611787897061284
皿 1
Night 0.15477265626236228
» 0.0027612925519771105
岱@@ 1
386 1
tus 0.2068930726425212
苛@@ 1
EM 0.4756306769976567
慘 1
歪@@ 1
け 1
苞@@ 1
ain@@ 0.06915287862257716
ash@@ 0.07697762629176871
van 0.0706243911558963
廁 1
槐 1
1828 0.34798257170215974
286 1
Star@@ 0.15352766108628793
デ 1
ャ 1
訟@@ 1
辟@@ 1
Service 0.08447366299440599
蕙 1
蠢 1
嵐 1
葡 1
鷲 1
ib@@ 0.06329327299032533
梧 1
鹦@@ 1
1826 0.3649585978247306
ment 0.024275941121523693
蘊@@ 1
詭@@ 1
Do 0.20151476091714055
掣 1
暇 1
葱 1
鉉 1
GL 1
Mary 0.06749478580415909
埤@@ 1
246 1
攏 1
Channel 0.17737275084266205
CNN 0.8646968740709551
och@@ 0.09375011432284605
scope 0.3279610680635803
瀚 1
褶@@ 1
Louis 0.04608408994047572
絨 1
Adobe 1
坳 1
窃@@ 1
we 0.04796808772451336
逝@@ 1
Green 0.0919478112999119
Mir@@ 0.10828328205764484
贛@@ 1
720 1
dis@@ 0.012654297479340298
晃@@ 1
湳 1
璟 1
For 0.03251507913882327
Ha@@ 0.08789350531662674
PE 0.8678797996409585
ex 0.09210301448505981
翎 1
跪 1
骄@@ 1
氓 1
酮@@ 1
俸@@ 1
剃@@ 1
荫@@ 1
肿 1
1819 0.4010146090711309
IB@@ 0.4752124021711844
Your 0.22234070520991167
芜 1
钮 1
麴 1
Ca@@ 0.18615880023631326
懋 1
芦 1
Sim@@ 0.08555685829136524
2025 1
Jo@@ 0.10568023547939433
Wil@@ 0.06619316139020708
岷@@ 1
澜@@ 1
玺 1
璞 1
邺 1
隴@@ 1
Vo@@ 0.11686011420032168
鉀 1
East 0.04056229299850704
兜 1
匝@@ 1
遗 1
263 1
PG 0.7416595475626949
バ 1
奄@@ 1
抗日@@ 1
榆 1
瘦 1
5.3 1
Data 0.4390753245018658
冤 1
擂@@ 1
晏 1
1807 0.4018377750599421
兗@@ 1
嗜 1
鄱@@ 1
鷗 1
擄 1
枕 1
滞 1
1805 0.41354199102169253
620 1
PP 0.534745480834568
Pl@@ 0.056356314933701836
Sub@@ 0.06933618885355369
for@@ 0.024018544836198325
Ⅱ 1
丫@@ 1
艳 1
莹 1
诠@@ 1
243 1
323 1
Pal@@ 0.0675229859470772
Sw@@ 0.09983169184185799
Wi@@ 0.14732640481603745
1794 0.4156276755146145
Visual 0.7728107084563896
楞 1
ico 0.05778210903489267
ama 0.05860713779625415
吼 1
宠 1
Ly@@ 0.1044567607768138
倩 1
Maria 0.07004149475086531
Ran@@ 0.11531022391722437
滩@@ 1
稟 1
MB@@ 1
Sho@@ 0.1355737240183547
est@@ 0.02421326215553837
钉 1
De 0.026106927992986396
Point 0.15204902892515804
Sar@@ 0.06820465032799398
Ta@@ 0.10313666198796338
僚@@ 1
桢 1
謊 1
Act 0.06638693233709284
Arts 0.06735768628892831
Line 0.09666579938491342
UP 0.6582085657641357
hu@@ 0.06694398375415152
貧 1
Is 0.1598987049236756
ema 0.13152231294150288
Corporation 0.1158291143632484
Sun 0.13523535866238381
哇@@ 1
4.7 1
Hal@@ 0.07147461988177772
Lam@@ 0.13458664959710384
public 0.02457459662504406
吠@@ 1
噬@@ 1
玟 1
Science 0.08848604772110118
竊@@ 1
贖 1
ser@@ 0.03484710175011693
償@@ 1
绸@@ 1
1808 0.3682809803059894
618 1
椒@@ 1
Tur@@ 0.06260047107596178
VII 0.20008467134532745
曳 1
aceae 0.09943572982756319
史密@@ 1
1791 0.4613603686942142
DA@@ 1
Ke@@ 0.08626549193193414
ato 0.052436117619675024
ors 0.020155322839186342
挾@@ 1
闹 1
я 0.02502227740040734
煞 1
邮 1
icus 0.26301470840214514
灼@@ 1
秒@@ 1
翊@@ 1
靶 1
6.7 1
face 0.04997597595805519
銓 1
1829 0.3392279464853069
5.4 1
iPad 1
star 0.09608133883373234
uc@@ 0.06811936051023632
蛺@@ 1
蝸@@ 1
衬@@ 1
谓@@ 1
253 1
ann@@ 0.055970058908109216
媛@@ 1
忻@@ 1
撓 1
VI 0.1446513889747842
ng@@ 0.08711350438431364
璇 1
瘋 1
4.4 1
EP@@ 0.4655947335233985
port 0.05005746163043093
拇@@ 1
昔 1
312 1
680 1
ona 0.05882275754859638
General 0.031137116241367443
have 0.006916884205498384
š 0.3103481585611754
1796 0.45366295598021944
│ 0.12437449355284526
倩@@ 1
愧 1
擅 1
椿 1
266 1
锈@@ 1
6.8 1
dr@@ 0.030008963143181824
昼@@ 1
蔥 1
Hi@@ 0.18751114524783938
訶@@ 1
钞 1
孢 1
Cat@@ 0.09066049987958537
fo@@ 0.0668417411469836
AU 0.5793451493441878
妲 1
飪 1
Cube 1
Edward 0.08222057358912799
Ko@@ 0.061515870361850425
eta 0.06358266740069556
斂 1
斧@@ 1
査 1
螂 1
E3 1
毓 1
俭 1
315 1
COM 0.9282357898207281
Ger@@ 0.045885118976909
僻 1
喊@@ 1
悅@@ 1
楞@@ 1
洩 1
矯@@ 1
詐@@ 1
1823 0.3819228838462006
236 1
κ 0.4051391440905618
赢 1
鼩 1
7.2 1
El 0.007096070626068524
ュ 1
271 1
Station 0.08769217579156573
down 0.03259059342942366
睞 1
肇 1
150@@ 1
黛 1
叭 1
79.@@ 1
Cur@@ 0.08803466660162304
姨@@ 1
迭 1
1818 0.340099122489597
GPS 0.9582801982840176
lin 0.08848229110737073
湧 1
芥 1
007 1
244 1
ACE 1
self 0.07890649085741293
迺@@ 1
雏@@ 1
DT@@ 0.8555424536454266
RI 0.5143733498647676
况@@ 1
叮@@ 1
妆 1
襯@@ 1
鳅 1
281 1
282 1
敞 1
BE@@ 1
YG 1
ny 0.11200366838224023
癱@@ 1
Battle 0.08839860421206497
MG 0.6467051390242016
鄺@@ 1
饷 1
257 1
PI 0.67305852107366
г 0.02494142027419681
绣@@ 1
鸞 1
08@@ 1
1775 0.5219712463894858
248 1
War@@ 0.07019393551037457
1803 0.3419752631026607
tor@@ 0.03465703113638306
匆@@ 1
焘 1
弥 1
Chinese 0.06478978472045233
Gi@@ 0.0722221861897698
儉 1
喃 1
MW 0.5034840708306888
ィ 1
禍@@ 1
诈 1
Mozilla 1
ame 0.07243952017350229
攀 1
趋 1
237 1
CL 0.669713266519849
彥@@ 1
洮@@ 1
1802 0.38429869202158234
338 1
Ba@@ 0.09528482470059316
Fo@@ 0.11242162165402537
Rad@@ 0.09592674238874534
厢@@ 1
昶 1
纂@@ 1
鏢 1
GP 0.41778422307683966
龛 1
1816 0.3405526128851976
9.5 1
佟@@ 1
涿@@ 1
321 1
臼@@ 1
麒 1
BI@@ 1
lis 0.11600151120711073
灑 1
熄@@ 1
鵰 1
247 1
鑄 1
2400 1
2600 1
6.3 1
Party 0.04055879228137071
パ 1
硕 1
272 1
Hill 0.07189067545865428
mg 0.7597928203700373
ن 0.3443780927396223
碁 1
357 1
CK 1
table 0.08857890988538833
ere 0.03612473652573083
歙@@ 1
ê 0.4648499364706819
伶 1
煎 1
蝽 1
319 1
98.@@ 1
嘱 1
墜 1
樟 1
廚 1
颍@@ 1
Az@@ 0.10536750188702607
ters 0.03711330908562322
彌 1
艋 1
268 1
eo 0.07088882369608118
oh@@ 0.07689870523535108
旌@@ 1
沅@@ 1
960 1
HE@@ 1
瘓 1
蕃@@ 1
1798 0.39507040041689473
anti@@ 0.045789928934249526
虧 1
僉 1
檗 1
261 1
ius 0.12446259352028637
ر 0.3063261013499663
舺 1
黴@@ 1
284 1
崧 1
碰 1
胥 1
Note 0.280986014519265
oides 0.3275382814555647
蓼 1
As 0.018175061556293257
Rem@@ 0.11616848479034814
Sun@@ 0.13291089436666867
la@@ 0.06189288860348911
ハ 1
杠 1
N1 1
卿@@ 1
堯@@ 1
脅@@ 1
葺 1
え 1
寝 1
秩 1
FL@@ 0.7031098130481656
ota 0.0946417192559154
骁@@ 1
ts@@ 0.037344834709766975
撿 1
歴 1
730 1
纱@@ 1
骷@@ 1
295 1
JT@@ 1
ack@@ 0.08114017353851367
eus 0.20087446553836494
沾@@ 1
VR 1
わ 1
誡 1
鎂 1
締 1
鹏@@ 1
let 0.06988187520511535
ops 0.10583800396991738
咐 1
囑 1
鏽 1
2100 1
Cu@@ 0.09355761176470159
ets 0.026602605170327764
2024 1
Av@@ 0.088147296049387
Firefox 1
賂 1
web 0.14509872193018455
峨 1
蝦@@ 1
6.6 1
Mike 0.11987331390935496
桅@@ 1
殯@@ 1
Royal 0.03889855558784711
ight 0.08602690205110879
绩@@ 1
缠@@ 1
has 0.004638030700077813
頰 1
1568 1
Free@@ 0.7202223128800181
辱@@ 1
FT 1
don 0.07344339459359928
light 0.0508664361540766
С 0.022710097147580786
LP 0.2102052258473786
WTA 0.5840656041205857
form 0.026342333630187446
lan@@ 0.07233752440382105
ness 0.04960834615104057
屎 1
黯@@ 1
Little 0.10738901497207703
扼@@ 1
潟@@ 1
蓟@@ 1
1817 0.3554201141448203
Hz 1
eng 0.12059601430279734
煎@@ 1
660 1
IL 0.3964911254244797
var 0.3030981631376684
伶@@ 1
僉@@ 1
剔@@ 1
510 1
999 1
ß 0.13944997879576868
钻 1
1780 0.4622982052039868
274 1
Cer@@ 0.08635286210980136
ran@@ 0.04253819287676075
tr 1
螨 1
258 1
Digital 0.24801065151164933
赁 1
aya 0.07863197630746831
of@@ 0.0627445169761867
倘@@ 1
ym@@ 0.08957775689272394
以色@@ 1
膚@@ 1
艳@@ 1
288 1
η 0.02628100130627573
Alexander 0.07333942962518727
first 0.00474989156393582
琉 1
薯@@ 1
Awards 0.05803827059441109
Sin@@ 0.11991135890624592
● 1
檎 1
诰 1
Scott 0.0967446862817293
mer@@ 0.026667013937606798
匠@@ 1
Wal@@ 0.06557037832784418
oa 0.12001143174887217
沥@@ 1
籽 1
践@@ 1
辗@@ 1
269 1
276 1
Ter@@ 0.07760987199858711
cast 0.0732795761571409
283 1
垦@@ 1
壤@@ 1
钩@@ 1
驸@@ 1
Mad@@ 0.0679489995883935
ud@@ 0.0656240501083439
Daniel 0.08366066236705556
Wo@@ 0.1901531866563331
bus 0.08480561329244739
use 0.016054566153208983
捆@@ 1
滁@@ 1
Rec@@ 0.07228713049105798
ima 0.08139621882120168
were 0.0031205716985230826
沽@@ 1
笈 1
AW@@ 0.6807534650653095
逍@@ 1
醮 1
鬧@@ 1
1750 0.5731515189220603
SB 0.5460263915766542
缚 1
1650 0.7864286192018487
313 1
瀝@@ 1
缴 1
Of 0.11435077284781967
ides 0.047178391202294195
凋@@ 1
96.@@ 1
world 0.028313162550568954
錘 1
髒 1
Far@@ 0.073193731905421
Reg@@ 0.04697849792910269
ili@@ 0.05985049133572429
墘 1
櫛@@ 1
除此@@ 1
AND 1
唤@@ 1
謬 1
MX 0.9724670240372012
瑤@@ 1
Cap@@ 0.10086943944747395
cor@@ 0.03022742348963399
op 0.10365739166607968
驰@@ 1
ガ 1
垫@@ 1
42.@@ 1
Great 0.0610348453842247
urus 0.4835494868731668
莘@@ 1
199@@ 0.9321658089974273
宵@@ 1
醯 1
钴 1
YP 1
king 0.034697953572002685
long@@ 0.18462164238138967
潢 1
艙@@ 1
Bas@@ 0.06228234336241641
WS 0.8947200197699869
貌@@ 1
Mil@@ 0.06866972027968773
咏@@ 1
遁 1
1645 1
Hor@@ 0.06574133105114707
ess@@ 0.039070956798128595
7.1 1
Phone 1
San@@ 0.06450503931822826
锤 1
1622 1
HTTP 1
ND@@ 1
40.@@ 1
ax@@ 0.09139616393954522
窒@@ 1
窖 1
1788 0.49348268257116795
ass@@ 0.024942990614352338
掖 1
CW 0.767310874235575
Sky@@ 0.3404235343952988
兀 1
徘@@ 1
梵 1
榄 1
緒@@ 1
腕@@ 1
333 1
EV@@ 0.9926110181147418
TCP 1
ye 0.044554668347751715
Tub@@ 0.8468648121811233
刪 1
Dec@@ 0.08981210646742188
疗 1
2030 1
375 1
els 0.021038267970081403
堺 1
晦 1
槐@@ 1
皂@@ 1
740 1
PV 1
lin@@ 0.04216873821662269
ひ 1
洼 1
湊@@ 1
舷@@ 1
4.9 1
孺 1
259 1
277 1
309 1
綾@@ 1
蚕@@ 1
メ 1
拂@@ 1
隧@@ 1
1640 0.8048730244219956
憎@@ 1
1787 0.4931244729748977
Technology 0.1377913921397793
焕@@ 1
苳 1
莺 1
Master 0.1258795654120069
ill@@ 0.029503150484640733
п 0.08074552951809494
287 1
ダ 1
佗 1
SN 0.8507092361065325
opsis 0.40513967687607705
咳@@ 1
騷 1
4500 1
APG 1
奘 1
滯@@ 1
胥@@ 1
BAS@@ 0.8750405922756614
Jr 0.1445405109025116
攜 1
蘑@@ 1
孺@@ 1
oni 0.106250248857369
160@@ 1
570 1
his 0.0022180009326457912
ling 0.03523413961378789
婢 1
Drive 0.3133692303067316
Tar@@ 0.07402242926648943
彬@@ 1
柩 1
賭 1
鹃@@ 1
ky 0.07285516959308257
佃@@ 1
肘 1
膀@@ 1
姨 1
阙 1
GHz 1
ning 0.0689200303671824
767 1
砸@@ 1
Works 0.18661149607835045
atum 0.3021680309771076
彝 1
魮 1
Frank 0.0814674028882951
RE 0.7049676259508073
Software 0.2860589360851535
ali@@ 0.05455529455156322
侈 1
勵@@ 1
拙 1
279 1
Hot 0.126126484767331
day 0.019672024772221432
IU@@ 1
function 0.11343764889319774
歳 1
涧 1
誥 1
A3 1
Brown 0.0781078923835878
ast 0.06330210379636705
ili 0.1806433804910889
釉 1
鬣@@ 1
鹘 1
JavaScript 1
ler@@ 0.03913761324631495
烽@@ 1
皓@@ 1
裴 1
por@@ 0.042055893283858115
瘫@@ 1
296 1
Union 0.03135961878779606
鞍 1
餵 1
1783 0.46936456846231406
坟 1
湍@@ 1
180@@ 0.8408513096404793
2200 1
Taiwan 0.2448009897241692
anensis 1
螯 1
The@@ 0.08434220611585364
″ 1
妆@@ 1
Lake 0.05397564732458059
嚮 1
曬 1
穆斯@@ 1
LG 1
ese 0.02784277886643744
Global 0.18849936615284996
War 0.02070609115420129
悦@@ 1
腭 1
97.@@ 1
Fin@@ 0.10690510005234778
min@@ 0.031235248482008787
off 0.021186996535272614
thys 1
谎@@ 1
刹 1
摄 1
蝇 1
43.@@ 1
PR 0.316839195898437
cu@@ 0.030866987820117688
抬 1
歉@@ 1
ji 0.08732122901961548
栃 1
膛@@ 1
荼 1
710 1
A4 1
煜 1
睾@@ 1
闰 1
1827 0.3292964613983629
299 1
KB 1
沱@@ 1
HP 0.4181721295813161
ents 0.02462191701199956
蠻@@ 1
5.0 1
system 0.022749504734288484
南極@@ 1
栓@@ 1
徊 1
灶@@ 1
贬 1
130@@ 1
滦@@ 1
堃 1
弼@@ 1
簷 1
账 1
sc@@ 0.04199115344285419
蔔 1
324 1
Ban@@ 0.07480998741670998
Chris 0.1123761541489836
inus 0.21106728456370705
θ 1
筱@@ 1
谜 1
焰@@ 1
He 0.0035500365806896686
289 1
780 1
Model 0.24419558596182733
Wi 1
art 0.024158993834880623
ze@@ 0.0642281458587495
嗓@@ 1
骚 1
298 1
Bay 0.061977159185261955
忱 1
桅 1
绸 1
謗 1
冼@@ 1
娩 1
癖 1
385 1
MM 0.9516454948694191
Ty@@ 0.13108104622316186
喇 1
鑰 1
2O@@ 1
335 1
Cup 0.027412796555596704
512 1
檯 1
蔗@@ 1
331 1
Joe 0.0973458192265448
York 0.014448151749795772
ich 0.047582287994797114
ki@@ 0.06730506958191086
ي 0.1446233316215051
丈@@ 1
槌 1
Journal 0.11295650799404636
Series 0.07780633954594932
Ul@@ 0.09694340797403211
所在@@ 1
璐 1
繕 1
Dem@@ 0.08738131857396617
Sor@@ 0.11247866327727657
ira 0.08094418028761712
甯 1
痪 1
278 1
CR 0.34042187508041877
MR 0.6690010868526023
chi@@ 0.07390711806229644
ela 0.066141444800975
崴 1
挠 1
疣 1
Santa 0.04921684560719714
Sn@@ 0.2705212295069255
Special 0.13414338526967762
ATA 1
odon 0.568071436313193
瀧@@ 1
抢 1
273 1
7.3 1
Explorer 0.602286617525473
ast@@ 0.060825298528646765
凳 1
赢@@ 1
馴@@ 1
1592 1
820 1
ë 0.3646654854283885
2300 1
267 1
act 0.04728429619196164
ō 0.08633988509010022
婁@@ 1
趾@@ 1
م 0.21535879856647652
膏@@ 1
鲷 1
筲@@ 1
Sam@@ 0.06709224577516466
adi@@ 0.057183921915022765
ian 0.03852569913756879
ビ 1
钝 1
闖 1
Andrew 0.11423085248818646
ez@@ 0.05503208320635714
res@@ 0.022458654474136135
め 1
琅@@ 1
顛 1
驯@@ 1
757 1
PD 0.4430262739406093
col@@ 0.025371753637506867
ero 0.04243647059976897
fr@@ 0.03238697226616823
over 0.009449108323938318
ten 0.007670797736621117
ь 0.051007836791717234
佘@@ 1
惇 1
郴@@ 1
蔽@@ 1
蟹@@ 1
霉 1
1811 0.33101529890620685
Square 0.16246716710027673
纶 1
蜱 1
Eur@@ 0.13966858117324746
Lady 0.11504981934515207
廓@@ 1
轎 1
鈔@@ 1
Ben@@ 0.06199394468460713
H2@@ 1
NS 0.30691581464928364
but 0.005194282562911833
攔 1
笃 1
臼 1
韬 1
ost@@ 0.0791285066766774
屠 1
炉@@ 1
EG 0.6472873103274864
M3 1
arg@@ 0.10477009112866348
tia 0.10539391805797861
垮 1
釜 1
櫚@@ 1
糸 1
镶 1
Free 0.1556497203665587
KK@@ 1
住民 1
燭 1
衮 1
U19 1
lo 0.012248670650757802
寞 1
揽 1
杞 1
inae 0.226477176411929
ett 0.059603187213768304
Express 0.17893540811669784
MT 0.5406174943915286
SK 0.35288712176319226
ly@@ 0.07574275715773764
胄 1
讽 1
Mess@@ 0.1545263489263415
Pres@@ 0.059671678696461006
WO@@ 0.970879496272997
ft 0.05278034065178913
FX 1
ted 0.013612782710299275
铉 1
PN 0.9268077731497145
bar@@ 0.025845114984648556
髻 1
590 1
978 1
Air@@ 0.15349037919595665
Sm@@ 0.1808565671905766
僭 1
忒@@ 1
Les 0.00986556104889826
Sel@@ 0.08189137186579369
aris 0.34132560826168246
pot 0.17394068977858462
賄 1
踝 1
An 0.03215392781859278
喆 1
嬉@@ 1
磋@@ 1
190@@ 0.533436821676371
Gre@@ 0.07060495622499023
φ 0.6041027238051605
薰@@ 1
鸠 1
589 1
670 1
Space 0.155086418917791
Town 0.0806041468528969
sub@@ 0.021288666389301786
ten@@ 0.023838671967294795
x86 1
樽 1
莪 1
粲 1
艇@@ 1
880 1
NO 0.9169113092748566
Press 0.12740949451346484
Tre@@ 0.07368276498612496
ray 0.21137836766388465
Sil@@ 0.08231600902969809
鞠@@ 1
鵬@@ 1
291 1
292 1
ati 0.08937172403012802
嘗@@ 1
沾 1
405 1
AST 1
Christian 0.044788955707307905
File 1
羣 1
鈎 1
钛 1
1582 1
293 1
Museum 0.044754801811675626
198@@ 0.9796213601464426
690 1
AAA 0.7206136039357853
Lov@@ 0.1858387640072192
und@@ 0.038027109369683586
1580 0.9442567641952992
NP 0.6884219859219128
捏@@ 1
犀 1
膦 1
杞@@ 1
柠@@ 1
綢 1
C2 0.8380815190056695
Mi 0.4309296078479655
trans@@ 0.02487944361700347
賺@@ 1
郸@@ 1
鎚 1
饪 1
Res@@ 0.0784066094410686
苏格@@ 1
― 0.6602180906471439
ょ 1
纱 1
铬 1
die 0.0010768393949274937
ns 0.05683563743287902
wa 0.044804706152343506
瘾 1
瑰@@ 1
榴 1
314 1
5.9 1
Bill 0.0851474350419651
咏 1
NCAA 0.13944277801879199
tes 0.01747411659801133
窄@@ 1
驹 1
Code 0.2004206737045598
泵@@ 1
綺@@ 1
250@@ 1
322 1
FIFA 0.17291195316021316
Micro@@ 0.28389846836017263
What 0.1575211916349454
Obj@@ 0.3199090952560645
ode 0.14227193136040603
ろ 1
殲 1
泼 1
艉 1
鋅 1
钥@@ 1
1583 1
1797 0.37232915538812317
404 1
mRNA 1
吒 1
嗅@@ 1
痴@@ 1
羁@@ 1
謁 1
鈦 1
1550 0.8333145365916498
1777 0.5135047710789974
2700 1
Council 0.03590325561545891
kin 0.08262334843266618
m3 1
竄 1
CoV 1
WA 0.39987201925921356
illa 0.051877303898706775
祸@@ 1
345 1
DV@@ 0.39357395402070205
Meg@@ 0.17114525299730715
珉 1
耻 1
肄@@ 1
＋ 1
ace 0.06543391996327197
鎧@@ 1
缔 1
圩 1
妤 1
鱇 1
1598 1
cl@@ 0.031512858158675425
卅@@ 1
糟 1
H2 1
么@@ 1
驿 1
607 1
糕@@ 1
pre@@ 0.019439049695082814
闕 1
鴿 1
VS 1
ative 0.029221882218930455
case 0.03954020543658681
莽@@ 1
1571 1
Lis@@ 0.2060167523734388
mat@@ 0.04676236782994259
蔑 1
釉@@ 1
502 1
back 0.01848972543718549
禱@@ 1
跪@@ 1
闇 1
1570 0.9204317182961643
Heart 0.20073755953170222
Nor@@ 0.05011687644880712
SU 0.4303422289995034
cul@@ 0.059393977382247526
荥@@ 1
294 1
IEC 1
疵 1
鮭 1
Mu@@ 0.08218862664298315
浊 1
艷 1
316 1
ement 0.013687081106123157
ey@@ 0.06470133830161573
490 1
1648 0.6631373869316303
830 1
Prot@@ 0.08445094073013766
data 0.06117022460309137
two 0.005550874326527837
弩 1
耿 1
麽 1
ali 0.07557034542226433
蟒 1
787 1
810 1
FDA 0.8381716691125064
SR@@ 0.5445605130919937
翹 1
NI@@ 0.8825442528877275
OT@@ 1
ish@@ 0.05644704715626262
稠 1
絞@@ 1
鮟 1
厥 1
捧@@ 1
氾 1
渦 1
翊 1
逮@@ 1
317 1
峻@@ 1
IPv@@ 1
London 0.02339946828159741
can@@ 0.041688969042285334
cha 0.059223707655921116
愷 1
1621 1
the@@ 0.05468426272653235
505 1
SF 0.531690948187482
宕 1
挡@@ 1
HIV 0.4390557951333503
Mul@@ 0.09514652156023508
pop 0.08723921727029221
奬 1
聆 1
Net 0.6566086546010277
匣@@ 1
б 0.06827586873930512
馏 1
707 1
Summer 0.0667577173976844
du@@ 0.03938870496674141
嫂 1
尝 1
柚@@ 1
邵 1
SH 0.49825680771817465
ha@@ 0.05997042048090232
倪 1
兮 1
334 1
Flash 0.5289965787445308
ole 0.05528775684152707
羞 1
逕 1
噴 1
诱 1
los@@ 0.0972781388686125
琨 1
蝎@@ 1
1625 0.9442075510970194
DL 0.6078100350965907
ri 0.09305032973469304
FBI 0.36315241964092876
aur@@ 0.09506666890747684
pro@@ 0.03327357092282054
tan@@ 0.046819258071797806
锰 1
Play@@ 0.19473490287200748
拢 1
1778 0.4833661322834279
760 1
Ol@@ 0.06583558619776708
廬 1
矚@@ 1
Run@@ 0.1845835266742529
⋯ 1
履 1
佤@@ 1
呤 1
夾 1
扭 1
畠 1
裤 1
誹@@ 1
402 1
America 0.035871586691969874
Ur@@ 0.046886808431645915
1770 0.4584693220728305
Centre 0.06407056781948911
UM@@ 0.6728363432562747
ito 0.053314431711255626
厕@@ 1
拐 1
檬 1
uk@@ 0.05443506824409092
剎@@ 1
＂ 1
Out@@ 0.1462245616262133
fe@@ 0.028450532385162226
唾@@ 1
诫 1
谅 1
PK 0.9829542708048122
rom@@ 0.060669919421676245
tom@@ 0.05320871244009736
ズ 1
碇 1
荆 1
贩 1
驟@@ 1
Festival 0.041898431748805386
ik 0.04898152858390319
oo 0.16672709913373635
塚@@ 1
腈 1
GI 0.6671631717788314
Steve 0.10716590291775886
ard@@ 0.05078287237334135
摔 1
撇@@ 1
穹 1
膩 1
pu@@ 0.046202647463251596
楣 1
镀@@ 1
顱@@ 1
297 1
AE 0.39377826020771034
ы 0.01804348197995505
峪 1
缉@@ 1
蕉@@ 1
353 1
Conn@@ 0.12525014165770543
Eric 0.14626251758025915
XT 1
old 0.0233984136644975
329 1
Bro@@ 0.06655681043424357
Two 0.05865887484062301
tical 0.054096564984199645
灘@@ 1
脇 1
鷺 1
檐@@ 1
泪@@ 1
臥 1
麼@@ 1
ori@@ 0.052523069807756964
吵@@ 1
茛@@ 1
蘊 1
elle 0.00810900322304665
sion 0.031163792570221973
璘 1
EMI 0.6475785257950483
Kin@@ 0.11150911701821424
New@@ 0.11229273247803487
fl@@ 0.028433562908361163
丐 1
颅@@ 1
CII 1
ass 0.07604254886855213
ding 0.05399685541669993
ster 0.04537708732386993
槭 1
425 1
ce@@ 0.0876242778321597
幽 1
曜@@ 1
蕈 1
鋸 1
閑 1
恺 1
鐮@@ 1
钓 1
Chr@@ 0.33411379699172367
蔑@@ 1
媳@@ 1
352 1
FN 1
緋@@ 1
婉 1
醬@@ 1
Studios 0.14066997538150428
蚜 1
髓@@ 1
Central 0.03659577255770926
Soc@@ 0.39179652650381697
tive 0.03348753117736748
汛 1
鮭@@ 1
355 1
Dol@@ 0.09921843450876092
GN 1
HD@@ 0.7286661774512981
RN@@ 0.4678462116101337
less 0.02789488818843405
佬@@ 1
2800 1
465 1
IF 0.3686832813275248
Management 0.12778548837308154
ating 0.017071562554445776
ello 0.05747750540903275
³ 0.2581467873938436
谜@@ 1
RFC 0.8476660776461555
Rob@@ 0.10823095090281583
ech 0.1359158422041127
瀕 1
競 1
Dev@@ 0.08032663151496669
hi 0.09987802823078676
厌 1
暈 1
555 1
ч 0.07301847949175476
910 1
DL@@ 0.8129872672910615
oto 0.10096838831293327
ø 0.6241152838829274
贻@@ 1
Place 0.17802316438875754
cher 0.03805879976996016
ser 0.01963936873603771
モ 1
揭 1
褲@@ 1
Dance 0.17525874002811564
Pas@@ 0.06204024197001674
SG 0.24693349604847953
Systems 0.20550803939731496
Tom@@ 0.08467695014215305
А 0.03624643953681966
瑕@@ 1
竺@@ 1
诽@@ 1
ARM 1
Bon@@ 0.0904365017057681
int@@ 0.048694713564358165
狡@@ 1
ip@@ 0.10561814734785727
涨@@ 1
玖 1
褐 1
迥@@ 1
384 1
app@@ 0.07645355879129251
iPod 1
巒 1
愤 1
暮 1
漱@@ 1
猝@@ 1
1628 0.9746525066222116
840 1
Key 0.3134932371870892
Met@@ 0.10620224166168905
Pat@@ 0.07586292453144862
Pierre 0.04927759919374007
滥 1
瞳@@ 1
荊 1
镰@@ 1
407 1
Gro@@ 0.08652877436187527
ē 1
帅@@ 1
搜 1
赚@@ 1
USS 0.21503688546313718
晷 1
770 1
STS 0.921316668493754
iv@@ 0.05524558068666029
宦 1
蔓 1
une 0.0024883770269831136
凑 1
喘 1
櫸 1
Box 0.2655972132703376
Design 0.12877136101641204
Mic@@ 0.22125766884736225
Syn@@ 0.1505886193858013
峭@@ 1
邂@@ 1
鹉 1
1785 0.43788934638523125
89.@@ 1
MA@@ 1
梢 1
藜 1
1630 0.745734301510451
Ru@@ 0.05605263813753995
mer 0.03138871542605252
yp@@ 0.0857616160460628
焉@@ 1
绛 1
Sky 0.21797188371463702
Not@@ 0.08128252938030499
dium 0.17793456050521614
inter@@ 0.013374673322984433
蔻 1
1784 0.40128272968614004
刮 1
昊@@ 1
］ 1
359 1
Cin@@ 0.14499386955558183
HA 0.5499145673436946
amp@@ 0.04704553351799848
扔@@ 1
祷@@ 1
酱@@ 1
403 1
Ch 1
atr@@ 0.05736278781145387
tin 0.04365918473253128
肾 1
逅 1
颁 1
con 0.0032365306807320316
扈@@ 1
脅 1
鞅 1
Luc@@ 0.11089797144578595
鹛 1
327 1
354 1
BP 0.4943617742584
ars 0.036178495559516154
哩@@ 1
胱 1
＝ 1
ory 0.04182141532567989
res 0.061292263784782856
懲 1
邕 1
咕@@ 1
咽 1
Black@@ 0.13147241213004315
MK 0.9071201177662405
aster 0.1401228560082716
惰@@ 1
［ 1
328 1
Blo@@ 0.11763974577568209
Football 0.044656967585821515
bar 0.03903742323982078
П 0.09218197361143748
婪 1
碲 1
鈕@@ 1
麝@@ 1
3G 1
Kan@@ 0.06548655455896188
elli 0.08081202453568788
ver 0.04058286023597853
潼 1
Ben 0.1063372183827685
tro@@ 0.05232709664954073
ū 0.24877773515372337
办事@@ 1
踞 1
銃 1
鳃 1
344 1
NG 0.9616191189743097
inger 0.05068698669947903
uch@@ 0.06197996347685957
豌@@ 1
頤 1
叟 1
碾@@ 1
輿 1
1631 1
1661 0.8658899516777656
356 1
get 0.04569611728094807
嘧@@ 1
Mont@@ 0.056377414434360736
az 0.06961878386297043
bre@@ 0.030589403223395893
و 0.061575224821197774
AO 0.5221531278367033
1573 1
1636 0.9971529216083693
525 1
Kir@@ 0.09738104363915619
壠 1
笋 1
羹 1
萍@@ 1
1521 1
Ku@@ 0.1058845764483923
Os@@ 0.06710412676343881
罄 1
Men@@ 0.07124293481485816
Ple@@ 0.1926305411894472
su 0.003806878910988586
Δ 0.700264736539641
1601 1
Kit@@ 0.13113856908769456
MR@@ 0.7202894556929269
TER 0.9416832712431255
UK@@ 0.7305632008637623
iss@@ 0.05800403231059232
ul 0.09283188171337316
せ 1
曇 1
6.0 1
Bob 0.09908365167513472
Je@@ 0.0716446761805178
懈 1
纤 1
蓉@@ 1
O4 1
Si 0.08692285411998807
Van 0.07842941086018917
NC 0.44226321382427974
蝗@@ 1
1565 1
1616 1
416 1
PO 0.6026031499852659
溜 1
煦 1
贮@@ 1
Ed@@ 0.09416272447326199
夸 1
柿@@ 1
蜆 1
谤 1
888 1
貪 1
140@@ 1
Pop 0.20722821532756203
巅@@ 1
泾 1
Mah@@ 0.061717041121310816
Poly@@ 0.15074158236284746
瘤@@ 1
韧@@ 1
1553 1
Out 0.13923557602112036
戳 1
炫 1
炯 1
疟@@ 1
瞒 1
诅@@ 1
鼐 1
1603 0.8254745776715242
367 1
Edge 0.44140084463841067
F2 1
Song 0.08613273869603143
錨 1
Kal@@ 0.05737454128339087
勖 1
卦@@ 1
挣@@ 1
毛泽@@ 1
1786 0.4492780367252089
395 1
870 1
930 1
Su 0.035227509891659035
斡 1
渾 1
脷 1
菸@@ 1
隍@@ 1
88.@@ 1
had 0.0033190292842830405
side 0.018274032853105946
xi@@ 0.11493698987470008
睐 1
1368 1
Che@@ 0.15561465560739618
GN@@ 0.8385306291154758
瓚 1
絃 1
蚓 1
诃 1
1620 0.7056172504134715
All@@ 0.09217997945357714
del@@ 0.04260105032868797
kW 0.32155022651994486
嗽 1
蚌 1
Light 0.1421995714200718
Marie 0.053496954515118066
Ig@@ 0.20700156493450608
ike 0.11528984008879016
lar@@ 0.05383245665886941
弁 1
枣 1
諦 1
遐@@ 1
358 1
860 1
Beyond 0.49437661811842926
Bit@@ 0.22188017016748932
District 0.023898789904003986
ef@@ 0.0422943232165837
eme 0.1468148090075311
fac@@ 0.07464139821084989
衢 1
鄴 1
鎬 1
BR@@ 0.45381923583499106
fer@@ 0.026260642070910407
缉 1
襟 1
К 0.0478746795572727
噁 1
樊 1
PDF 1
1646 1
晝@@ 1
桁@@ 1
IO@@ 0.7629748240958353
TL 1
Uni@@ 0.08444627490929399
sky 0.06951061314791093
悠 1
谿 1
鲤 1
1643 0.9066004413200017
椿@@ 1
氙 1
醋@@ 1
钞@@ 1
Sam 0.12565165884277035
bian 0.26647725707855763
拮@@ 1
耽@@ 1
蚜@@ 1
1772 0.46523408580768094
CON@@ 0.7977403331815778
ats 0.02824630358009533
mail 0.21475186216795858
垒@@ 1
轩@@ 1
192@@ 1
County 0.014684041245887148
ales 0.012376878097727185
嘌@@ 1
弛 1
抖@@ 1
Rap@@ 0.12933200667808417
WT@@ 0.5693973316946808
壢@@ 1
聿@@ 1
陕 1
1st 0.06116197088783091
WH@@ 0.4855823457679656
will 0.015133423022129886
賑@@ 1
軀@@ 1
HT 1
Mur@@ 0.06694814190794911
滘 1
346 1
UT 0.637321746128096
code 0.08301366935311663
Dor@@ 0.06528716778813473
Ir@@ 0.06960604018638199
top 0.025058069175562556
苛 1
1586 1
Dar@@ 0.04580221929068819
Pa@@ 0.089829068823057
宙 1
嵐@@ 1
掏@@ 1
矗@@ 1
蠶@@ 1
貳 1
1760 0.5013496043634287
BW@@ 0.508898849361539
Ci@@ 0.11829909804385812
nan@@ 0.48074453168857834
瞳 1
蜓 1
1577 1
705 1
Mol@@ 0.07292498371262332
寸@@ 1
蚂@@ 1
Han@@ 0.07177534169582817
sy@@ 0.09730648518997882
抉@@ 1
立陶@@ 1
TT@@ 0.7343465978118942
菠@@ 1
锑 1
髏 1
Bul@@ 0.08738560533099272
Ray 0.13613097685950076
aus@@ 0.012520519480933317
ins@@ 0.03621362913950102
č 0.3900158270217414
.1 0.7713304810968471
Dream@@ 0.5680049666933544
Johnson 0.06916296591275241
ebook 1
eli@@ 0.0733810391787452
螞@@ 1
1624 0.9593470923769681
351 1
ART 0.831431447230132
Plat@@ 0.09364166728993567
cc 0.46637483362398574
1763 0.4789061882889456
Ju 0.8832647460295693
恥@@ 1
祗 1
1574 1
411 1
Il@@ 0.07274793025715429
LM 0.5722255546896798
Public 0.06794352752481324
訥@@ 1
1781 0.4548726781744551
Law 0.06975533028389781
ga 0.06280873304450342
绅@@ 1
鍛@@ 1
鏞 1
Fi@@ 0.0853087597952847
D1 1
Disney 0.11147871464976919
Ram@@ 0.061067030380111256
hy@@ 0.06848655474665913
杵 1
衙 1
鎳 1
鮑 1
鹵@@ 1
--- 1
343 1
361 1
Class 0.14058712065112172
cin@@ 0.067489494442712
rowspan 1
幂 1
桔@@ 1
蒴@@ 1
625 1
Stephen 0.10473799014047629
图书@@ 1
窘@@ 1
訣 1
閔 1
485 1
UE@@ 0.6806286239778508
ost 0.08985690170858637
谏@@ 1
1610 0.7621799756837293
1619 0.9875449826753019
195@@ 1
336 1
BMW 0.34569239469427443
Block 0.30327865701173046
Nav@@ 0.1584347399216781
ally 0.013260108687746977
舆 1
1642 0.7784999826921523
980 1
爛@@ 1
ms 0.04909310204610606
yl 0.087192883147029
媳 1
谍@@ 1
霑 1
326 1
her@@ 0.020355708474435106
亳@@ 1
塊@@ 1
釁 1
371 1
Alpha 0.3238602664199458
British 0.016461817185629033
mu@@ 0.04988802013710874
pos@@ 0.02850036891939546
挨@@ 1
籲@@ 1
胱@@ 1
鱨 1
ila 0.07357058354641197
ゆ 1
嚼 1
岚 1
浓 1
Children 0.1593698662442151
Foundation 0.07671745833478028
inc@@ 0.03354834941548361
war@@ 0.024523229257114348
巾@@ 1
泻 1
燧 1
sk@@ 0.03014572156070764
棧 1
餚 1
their 0.003985617673304103
娠 1
浆@@ 1
鑫@@ 1
Pa 0.6717500821354284
che 0.024934176968176364
number 0.013157617893814644
GC 0.37244213135821086
May@@ 0.0869826209067747
Story 0.19517842954290157
yi 0.1319990217975997
璧@@ 1
627 1
倚 1
悍@@ 1
憐 1
Cle@@ 0.13222032889686053
怜 1
悶 1
Last 0.1786889951617085
彷 1
Arthur 0.07163670628258655
1615 0.9991536680516037
337 1
Player 0.18460874421798557
Post@@ 0.10916047447719072
ug@@ 0.048855541722591295
澡 1
鑣 1
馥 1
while 0.011513390766811996
慌@@ 1
昇@@ 1
Film 0.02639178677721758
loc@@ 0.03688083742006969
size 0.05299250557638789
壘@@ 1
旷@@ 1
獾 1
酐 1
鱲 1
Sig@@ 0.09516454830437815
Williams 0.06595722531496065
弔 1
灸 1
眠@@ 1
1618 0.7942091564584073
HS 0.3735159007613635
薔@@ 1
Final 0.08690430505166048
red 0.025612716496549236
惑@@ 1
掩 1
敲 1
洵 1
狠@@ 1
邮政@@ 1
581 1
HF 0.2875187837798872
Pen@@ 0.07027096634311729
cal@@ 0.04405464758708789
箔 1
雾@@ 1
＆ 1
DT 0.4883959037316404
Tu@@ 0.0781435053117631
try 0.05901129388614164
Bir@@ 0.06971217248912616
Fire 0.14681617264580837
GE@@ 0.7223784892988404
UM 0.7551772897878964
aurus 0.4178432624151182
into 0.0062046441613796315
枋@@ 1
碌 1
128@@ 1
1590 0.8271920203065855
406 1
tro 0.08757604620218194
俞 1
疚 1
龐 1
332 1
Academy 0.040880331208613195
UC 0.36340129241638797
asi@@ 0.05245384258614257
ble 0.05773472805829948
form@@ 0.03717301244180481
咀@@ 1
捆 1
3200 1
535 1
icul@@ 0.18957550009940274
幔 1
铂 1
鳄 1
1.5@@ 1
ality 0.05649688780594756
帘 1
貂@@ 1
迂@@ 1
酿 1
隘@@ 1
folia 0.40378842030014916
TRA@@ 1
з 0.04146445229628103
岚@@ 1
985 1
Bus@@ 0.0846392254539645
Jones 0.06180760721147744
Tai@@ 0.20177460443540793
兑 1
417 1
ds 0.037537915475415004
we@@ 0.03493091158333733
ze 0.03689256132992277
篆 1
馀 1
528 1
MF 0.8322974608597842
MG@@ 1
М 0.0645447708297476
壩@@ 1
彧 1
Mini 0.5183981995067836
ke@@ 0.05902324660690621
圩@@ 1
昀 1
柑 1
瓯 1
诛 1
1589 1
605 1
cur@@ 0.03146243611293024
炱 1
礫@@ 1
繹@@ 1
肴 1
1730 0.574009203828315
940 1
Nov@@ 0.08060233254856684
anc@@ 0.04411712789059988
tics 0.060631125652644766
纖 1
Name 0.05463248892918718
Pop@@ 0.13372411137803938
body 0.03487315501099102
stein 0.04281111935185124
В 0.0030876421442643633
1000@@ 1
1627 0.8987811997596818
1774 0.42363026324543823
341 1
Band 0.04607867831185317
Show@@ 0.4152658589361613
侷 1
aw 0.1871044421387571
bal@@ 0.03814299283106679
oni@@ 0.059027570350572656
鸽 1
1604 0.9169111537563219
Queen 0.06337551557487317
also 0.002956026665850231
酥 1
Cop@@ 0.10930769303560714
ika 0.07559447879538306
咲@@ 1
娑 1
宛 1
巽@@ 1
1585 0.9496669564714657
Moon 0.178135247767401
TO 1
Up@@ 0.19309116664765147
WHO 0.9079823943945871
gen 0.03520178003919015
ith 0.10676203837956322
ŋ 1
祚@@ 1
驼@@ 1
415 1
D2 0.7383964283206186
Tak@@ 0.07277002231819715
ez 0.05448179700388782
where 0.0075589030995199796
俟 1
渔 1
cape 0.27835649129743606
dit 0.050101631033923656
栢 1
爷@@ 1
粱 1
菴 1
鑾 1
闍 1
犹 1
窦 1
Pur@@ 0.09847325696552682
ington 0.05628435711276658
剃 1
璉 1
筏 1
SO 0.49310764166353455
group 0.015403089372119528
1683 0.7832801011545856
342 1
DNS 1
gl@@ 0.04593570395173661
sel@@ 0.032794288997095106
弋@@ 1
綾 1
虢 1
褶 1
366 1
Cro@@ 0.07000030693436844
Earth 0.08590143524912958
ID@@ 0.5555364106368619
ISA 0.7385243621960119
Pix@@ 0.5988572314053939
ep 0.07624061190817537
ı 0.08764623493481026
1609 0.841177761680727
Hotel 0.10098330422707011
PI@@ 0.44174817976158426
偃@@ 1
冥 1
淦 1
狩 1
瘧@@ 1
葱@@ 1
鴞 1
383 1
ros@@ 0.07158799411047553
惧@@ 1
袜 1
1782 0.38832858541103904
Ham@@ 0.06482862334853752
Ra@@ 0.0901397228440088
叩@@ 1
恨@@ 1
戦 1
Edition 0.2614796056240586
tica 0.06829204616534854
｢ 1
907 1
Control 0.20801402386294407
Fam@@ 0.291983928612708
Lab@@ 0.1333001451716695
Shi@@ 0.11008449327680865
ely 0.022942014039736287
etta 0.1104773658793637
fer 0.03662118785137083
弩@@ 1
賤@@ 1
109@@ 1
1634 0.8143268061505212
Bridge 0.09458454431032005
棟@@ 1
１ 1
Let 0.22715087737684375
ind@@ 0.045925895852235554
浇@@ 1
睢@@ 1
祐@@ 1
諺@@ 1
476 1
Lord 0.057258742411744085
main 0.019862388286993205
咎@@ 1
熏@@ 1
腱 1
蕙@@ 1
399 1
348 1
VV@@ 1
ader 0.0903374950492258
aka 0.07762798110833338
box 0.09004920854359877
ど 1
寰@@ 1
汞@@ 1
AZ@@ 1
Ash@@ 0.08142099251273478
PT 0.5126617987231854
粪@@ 1
1559 0.9594911827133868
196@@ 0.880468805944725
EL 0.580470305420016
Gl@@ 0.06021737343768941
呆@@ 1
扳 1
碍@@ 1
aph@@ 0.1306261873156947
non 0.016713077307569518
920 1
Jim 0.09795415327798526
PH@@ 0.8289716994130222
歆 1
珩 1
脩 1
铯 1
飆@@ 1
鰨 1
970 1
瀨 1
踩@@ 1
377 1
value 0.08161395919965761
闵 1
骠@@ 1
508 1
Avenue 0.07822421638973406
God 0.07851100405225801
chi 0.04670327300213914
phy@@ 0.13827301323502006
歪 1
泮@@ 1
1723 0.7390667389159228
On@@ 0.10532349461995501
list 0.03623060401549441
紓 1
綬 1
绢 1
鶯@@ 1
194@@ 0.5380951836075423
AH 0.6298964944634391
App@@ 0.12680024409278676
Fil@@ 0.07849806367865528
GR@@ 0.5989056620651285
So 0.04545556627970171
嘔@@ 1
林匹@@ 1
柜@@ 1
1660 0.49736265051999073
347 1
California 0.0262828682696302
DSM 1
栾@@ 1
箏 1
193@@ 0.9513044544380143
sson 0.12212561755125431
筍 1
醍@@ 1
釣 1
435 1
懶 1
ail@@ 0.05421246547591538
睽 1
酯@@ 1
靴@@ 1
驴 1
412 1
427 1
U2 0.8831577864502193
厥@@ 1
枋 1
砾@@ 1
秧@@ 1
蚊 1
袞 1
cap@@ 0.030163000858019307
pm 0.2384969431200179
抖 1
蜈@@ 1
鵑 1
Ak@@ 0.045063737550413686
傢 1
摊@@ 1
轰 1
41.@@ 1
Dragon 0.23569870221599054
xx 0.693881919171067
墅@@ 1
胁@@ 1
芋@@ 1
轭 1
1680 0.6110399196156908
Taylor 0.08277690827638624
霄@@ 1
Business 0.09560417461179777
Space@@ 0.8341460885361395
micro@@ 0.08038283868703697
ski 0.05211252551347171
寢 1
槿@@ 1
軀 1
1613 0.9363508187468962
ful 0.04020427624222272
帚 1
轅 1
1595 0.9260631101058325
1779 0.43708670269677913
CF 0.28923404885348974
History 0.018107129496617323
men 0.012084737282321178
棵@@ 1
蜍 1
339 1
408 1
551 1
嶄@@ 1
珈 1
纥 1
185@@ 0.4996905420480418
Don@@ 0.06672932140136371
Fe 0.23748535173418683
yo@@ 0.15448280655733493
憬 1
蜻@@ 1
遶 1
1556 1
Tro@@ 0.06557043006785662
Walter 0.06890392458789353
air 0.02978474312663643
ody 0.088834774829027
Д 0.11576331909284795
喵 1
囉 1
骰@@ 1
SAT 0.8866453654965039
Zo@@ 0.16812920185597208
only 0.007618624039971866
una 0.0028273551231017447
zi@@ 0.046009436910868236
ب 0.19737654701585852
俚@@ 1
嬌@@ 1
槓@@ 1
舫 1
醐 1
隈 1
1562 1
廍 1
慄 1
旻 1
螃@@ 1
387 1
612 1
GL@@ 0.7800245404603975
May 0.01242049048371466
ck 0.07155965623958753
ele 0.05246025182884723
匕@@ 1
荚 1
醴@@ 1
409 1
H1 0.9273107847257122
She@@ 0.10001526663031242
lam@@ 0.04597912356140693
ub@@ 0.05295727855105225
諏 1
鱈@@ 1
BT@@ 0.41917239465025435
Baby 0.23111654546649055
Mot@@ 0.05891311905645612
Simon 0.08217505856037574
ust 0.0708371799234433
002 1
364 1
381 1
398 1
727 1
KO 0.3474049764896683
ault 0.07820517145930851
辍@@ 1
1662 0.8355313254359223
States 0.010990815252012065
TF 0.7022379998999836
USA 0.043786348015885136
char@@ 0.049288615003108424
har@@ 0.026361983074384043
赈@@ 1
頁@@ 1
剋 1
叹@@ 1
噩@@ 1
烴 1
耻@@ 1
Vita 0.719632546819684
狠 1
讞 1
谔 1
鄙@@ 1
1755 0.5403430720058
like 0.017984221298334317
悌 1
蚣 1
atic 0.05625412831351489
don@@ 0.05243252639094446
head 0.02326635184718547
ual 0.06041052132062262
vol@@ 0.03287614675097475
恂 1
晒 1
讶 1
186@@ 0.4804369184720762
479 1
Hem@@ 0.1380058114349802
Yahoo 1
ies 0.019787431173202426
tions 0.016278361602510515
劭 1
卅 1
滔 1
腻 1
菏@@ 1
378 1
418 1
475 1
Sk@@ 0.06482294351997685
tur@@ 0.024778511750504405
懇@@ 1
榨@@ 1
焯 1
甄 1
钚 1
372 1
NFL 0.10512956037300447
ney 0.05568297308478646
媲@@ 1
浚@@ 1
蝉@@ 1
賊@@ 1
鰂 1
368 1
Talk 0.4597485816751268
onia 0.0779649389347957
other 0.005702720848976893
yn 0.08993773003329807
桦@@ 1
澍 1
鸥 1
1612 0.8629206832940401
CB 0.3844123490153749
oi 0.14319764892980114
ova 0.08462971390745659
ush 0.11164654150614622
攸 1
钡 1
1517 1
Back 0.17442494922989576
den@@ 0.02784549018662492
綺 1
貂 1
Ker@@ 0.07874370559916148
chin@@ 0.14512503699568158
ev 0.07488941967046657
mor@@ 0.03447920518625352
噶 1
爹 1
螳@@ 1
이 1
Apache 0.6479274969680378
Rho@@ 0.38553626833123666
iko 0.12350555198050223
zi 0.09284247777902423
ゅ 1
ェ 1
佯@@ 1
儁 1
眺@@ 1
石坑 1
辈@@ 1
Get@@ 0.3791114445447964
ko@@ 0.06319559367576337
寢@@ 1
煒 1
373 1
Jackson 0.07128176835065814
PD@@ 0.5209002876031914
奠 1
芎 1
酉@@ 1
Operation 0.11265924478206868
£ 0.06764880220626754
嘻 1
弋 1
彿 1
螢 1
郢 1
1547 0.9405136122759536
1567 1
Anim@@ 0.2432944441596656
Like 0.09811076759309771
List 0.04449360953912806
frame 0.1473019300944037
house 0.019964223929482227
sen@@ 0.033259962636012025
晕 1
瀚@@ 1
矫@@ 1
賤 1
499 1
509 1
Can 0.19401892073235713
Li 0.1367585731943105
Ma 0.19217151201649935
Times 0.05143955730002672
ami 0.06346160850012224
ave@@ 0.13487728464849108
桔 1
漁 1
瀧 1
驊 1
1508 1
376 1
Alex 0.12497018552724679
Long 0.06649124812747911
Sem@@ 0.08008431770007268
vir@@ 0.07510841525405124
怠@@ 1
昴 1
靼@@ 1
Sen@@ 0.062316025947446584
her 0.0037138149251244924
凿@@ 1
瑭 1
貯@@ 1
187@@ 0.42261263828511525
1250 0.7751860647719977
Voc@@ 0.307191262189382
嬅 1
磅@@ 1
蛹 1
392 1
506 1
552 1
Adv@@ 0.3213337930078148
Pri@@ 0.08725170254173739
log@@ 0.054639348702099605
襟@@ 1
镖 1
Land 0.04389621889079418
UK 0.0361507468568549
then 0.00787918794402525
圳@@ 1
釗 1
Metro 0.1407893714055745
cer@@ 0.036297099056953254
iy@@ 0.0688667096492209
than 0.008751690114905791
they 0.005475521613002872
宥 1
洒 1
548 1
BB@@ 0.5145156673751932
Way 0.15430274954836803
tra@@ 0.0783672526895011
ć 0.10712354212998851
仄 1
侈@@ 1
墊@@ 1
栅 1
1637 0.8485560937072351
1701 0.6643813003233197
486 1
else 0.2519729339099113
ho 0.15451649587331698
ノ 1
歹@@ 1
氐 1
熬 1
瓮@@ 1
顫@@ 1
466 1
OR 0.6471798767836328
PGA 0.4742235350182224
Spe@@ 0.07502731188706321
Stre@@ 0.07950312898164721
Who 0.15334872925683324
喧@@ 1
1773 0.4445904250958642
Mod@@ 0.10674767005233944
389 1
Kids 0.35078356649787146
Link 0.35552734743346043
PAC 0.7665153613934365
point 0.019634690858363887
寝@@ 1
鮃 1
432 1
English 0.02032114081666031
Happy 0.3625857217495709
Tim@@ 0.10689515985466708
hr@@ 0.0666337148920776
ョ 1
1607 0.8940434910574487
Old 0.05778612707615083
Sec@@ 0.09322096548869332
With 0.031156994773491077
嫖@@ 1
漳 1
622 1
Development 0.07103061271514774
LT@@ 0.616045441791936
ł 0.6106384242452729
颐 1
Alan 0.11811230197995957
Albert 0.06043401418217131
Beta 0.5322951473295371
隕 1
442 1
After 0.009946467553061202
dy 0.06338310098972876
溺 1
焙 1
茫 1
1511 1
503 1
Cloud 0.34737334649802964
dis 0.15148064799602443
そ 1
庠 1
烦@@ 1
鸾 1
Bus 0.2329698703871122
Rub@@ 0.17304226702531303
Wilson 0.07597693087065117
謚 1
453 1
C4 1
Karl 0.0479870542043587
Phot@@ 0.20154849324138333
ny@@ 0.09266635553451187
絨@@ 1
覃@@ 1
詣 1
諜@@ 1
轼 1
ツ 1
卞@@ 1
诡@@ 1
黍 1
1569 0.9482184284502395
1765 0.4861570371681779
｣ 1
European 0.024302809033053662
LR 0.8629137181788109
model 0.04617957522938056
tar@@ 0.0363006785516308
沧 1
179@@ 1
414 1
451 1
And@@ 0.2698128653499169
Om@@ 0.14755746639695475
Voice 0.28098942758715434
ther@@ 0.04594982779373762
窟@@ 1
锤@@ 1
Hub 0.8124939450856523
po 0.09768454617766907
369 1
388 1
397 1
aro 0.08488074484526396
姦@@ 1
葦 1
170@@ 1
1771 0.49023157016276403
Kon@@ 0.03345559419991252
MBA 0.7115444448221275
ania 0.07964291655824167
map 0.16632073842913517
堇@@ 1
痴 1
胚 1
雯@@ 1
2.0@@ 1
FE 0.8053337238019332
PM@@ 1
蛟 1
604 1
TM 0.7121433287941227
Tony 0.09094839707932852
ix 0.10598425803824979
ome@@ 0.12648192941044564
small 0.01920703903907723
sus 0.009443945332637996
尷@@ 1
畲@@ 1
峒 1
榷 1
涸 1
Cel@@ 0.09942187674696841
igo 0.18188366594900612
log 0.3711273019805337
巍 1
戸 1
诵@@ 1
輟@@ 1
197@@ 0.7836182809976389
495 1
Nic@@ 0.13235919040847582
Tal@@ 0.06430569241262375
掸@@ 1
攘@@ 1
濑@@ 1
颅 1
鮠 1
504 1
Carl 0.06594752873127245
KS 0.522333037293787
妄 1
欺 1
罂@@ 1
躋@@ 1
鴿@@ 1
鹭 1
433 1
Plan@@ 0.06790871250821208
WC 0.5029212481160025
lat@@ 0.047490857892342836
誦@@ 1
谅@@ 1
1535 0.9238310541939773
1740 0.45471789680534236
396 1
413 1
Kur@@ 0.040929888076520086
Rock@@ 0.15540532701739504
Tam@@ 0.09018502758183575
lia 0.09369648553940442
哔@@ 1
婁 1
屁@@ 1
LL 1
isa 0.0868596278226267
mel@@ 0.03908363363306993
ワ 1
亘 1
烛 1
184@@ 0.5538735054726774
Francis 0.07578760487845501
ability 0.027841396759757865
夭 1
幺 1
蚀@@ 1
酪@@ 1
锺 1
Kim 0.08478003850780691
any 0.01476826486446171
ier 0.03216326323974613
pel@@ 0.04373934627010554
俑 1
塹 1
簾 1
KA 0.35346066877548404
amb@@ 0.045205242260616084
care 0.06772638340934926
躬 1
EE 0.3546198566355448
mag@@ 0.04080454506361629
1762 0.4797873093403873
455 1
Script 1
ail 0.04954226559539258
iro 0.07947522252436508
★ 1
ゃ 1
囪 1
柿 1
稼@@ 1
莪@@ 1
1649 0.7415958296843134
445 1
sey 0.06589016243761377
乖@@ 1
菈 1
錘@@ 1
Sunday 0.11094593839075027
oz@@ 0.06835093211004384
敍 1
飄 1
1560 0.6985602742009683
Mos@@ 0.06785703492139
Samuel 0.0914691766791268
æ 0.9244550118690006
娶@@ 1
瓘 1
骏@@ 1
C3 1
Pin@@ 0.0789230494282096
Pu@@ 0.10373302164915027
漯@@ 1
秤 1
簇@@ 1
蠍@@ 1
Bat@@ 0.05759411103706938
IM 0.541257321823136
Å 1
腋@@ 1
1541 0.9871973120533141
391 1
Brian 0.09837194858658992
SV 0.13663639188425278
皱@@ 1
镐 1
Ju@@ 0.06814583610702202
cre@@ 0.023390237902569933
婷@@ 1
盂 1
518 1
BF 0.7874700034107749
Mes@@ 0.07263192118001695
People 0.06072993459542549
SY@@ 0.9087678757782145
Vir@@ 0.09841710422401834
ection 0.042253531769862296
min 0.10529826290179878
υ 0.5956035228107447
菀 1
賬@@ 1
鲍 1
1720 0.5048107385110313
1736 0.6757358608924913
1748 0.5821058768051666
Next 0.2430243576818476
ois 0.07802060503161866
蒐 1
End 0.1440031860259757
RD 0.5378914506489788
oid 0.1439534501599566
娣 1
翟 1
1.4@@ 1
1001 1
422 1
585 1
ace@@ 0.08394767738374119
hol@@ 0.031671617319400526
ule 0.08180355665324002
咲 1
擎@@ 1
镍@@ 1
1629 0.7340444769871034
ESS 1
Fal@@ 0.08177850764900703
Touch 0.6164477834795131
Т 0.11402983471621037
扈 1
沔@@ 1
竇 1
蟻@@ 1
KP@@ 0.8424816067035115
Kevin 0.12133285328944231
蟠@@ 1
1769 0.4638127359831992
362 1
363 1
bi 0.09553033555013694
unc@@ 0.056464553379243006
奥林匹克@@ 1
悬 1
赎 1
188@@ 0.33308564325879003
尻@@ 1
EF 0.45762573636369236
Pap@@ 0.061795888229884466
ever 0.030516806902487995
縻 1
赓 1
Just 0.15205508196495174
Year 0.05678877133498098
ison 0.05305228420748084
Р 0.1301240251102408
堀 1
奚 1
恪@@ 1
猖@@ 1
Patrick 0.08741164337169816
Real 0.06057101863143173
Tan@@ 0.08397691248907715
ate@@ 0.1419318606931634
ger@@ 0.022714249524394513
pol@@ 0.03332815183941133
val@@ 0.03995851712362997
巽 1
掾 1
漾 1
邕@@ 1
511 1
990 1
Will 0.14472124690308824
pan@@ 0.040313159088655647
tel@@ 0.02882497897470476
喃@@ 1
懶@@ 1
榻 1
189@@ 0.36206968401914696
2nd 0.05669961868778456
532 1
啄@@ 1
壕@@ 1
歎 1
瑁 1
1757 0.5279145110223712
Gor@@ 0.06257463496009202
Library 0.08477915668427384
asa 0.0961300409929828
orum 0.16140108867610323
蓓@@ 1
谬 1
529 1
杓 1
毎 1
泗 1
盼@@ 1
砷@@ 1
邃 1
549 1
645 1
Ki 0.5071447482744055
cas@@ 0.023592842300021503
sur@@ 0.01909781261367042
ume 0.05677142558529456
墮 1
1651 0.7838478726615783
431 1
666 1
NN 0.8012247790572257
ham 0.057028079354149136
tu 0.09481111539989058
煌@@ 1
428 1
639 1
啉 1
蛟@@ 1
鮫 1
1450 0.747585386013415
443 1
515 1
553 1
Eu@@ 0.20093796503084335
Land@@ 0.02447675329964646
West@@ 0.03800646966208947
Wor@@ 0.07051381533348353
hp 0.5241877200853955
ular 0.04255880460575063
usa 0.08740295590506454
1724 0.6588600261599018
536 1
Shar@@ 0.09501748689134726
TB 0.7857590565761048
len 0.042172614639910816
劈 1
甾@@ 1
531 1
DO 0.6030101809973412
ɛ 1
夯@@ 1
甩@@ 1
遽 1
1523 1
349 1
632 1
925 1
Ubuntu 1
vi 0.11465373463379076
≤ 1
柘@@ 1
426 1
oth 0.0741522181482973
坛@@ 1
釧 1
537 1
Ath@@ 0.11165028237786537
sh 0.19139045927308124
摊 1
芭 1
NR@@ 0.19647262590504597
include 0.01699499013697813
mal@@ 0.03177423265485587
恬 1
愉 1
懺@@ 1
湃 1
Pot@@ 0.08547814972394929
bur@@ 0.02975396164205423
ken 0.01947824111866555
呕@@ 1
帷@@ 1
躯@@ 1
394 1
enc@@ 0.028329709683342533
侏 1
勐 1
575 1
Ha 0.14962074288939217
Lisa 0.21035603663828462
渴 1
1756 0.485635703488914
890 1
bul@@ 0.0352393848974948
摒@@ 1
燭@@ 1
Adam 0.08399699720478553
ie@@ 0.03796516297085024
sti@@ 0.0401474066916456
yd@@ 0.1090260463871434
癡 1
闪 1
3.0@@ 1
554 1
Bad 0.08225660194483118
Gear 0.7752313979290585
Oc@@ 0.09676769952816354
That 0.05531473239209461
eri@@ 0.10312545355494673
佚@@ 1
憧@@ 1
焊 1
籬 1
褫@@ 1
1689 0.5799585999219402
382 1
ca@@ 0.11581174834748441
oy@@ 0.05757534079755762
戌@@ 1
浣@@ 1
鳌 1
1647 0.8421390343271162
CH3 1
En 0.002759083267126845
Lev@@ 0.08560558713994118
Magic 0.2179627761564251
anthus 0.44339552793028847
fil@@ 0.046995336374709595
垢 1
崭@@ 1
Fle@@ 0.11837326381474016
VB 0.5743123071712615
嶠 1
494 1
ady 0.10222851341250705
pedia 0.38347869166314014
仗@@ 1
624 1
Arc@@ 0.19706156310300407
Rose 0.09472087997859659
Zero 0.3406765001891038
ery 0.05481802323617103
town 0.01442781892968312
wan@@ 0.0892755057657875
轿 1
陂@@ 1
ech@@ 0.03779747172715135
紊@@ 1
鮡 1
1529 0.9726989965723971
1688 0.5924368559965416
423 1
468 1
538 1
636 1
Opera 0.13206566297771402
Sav@@ 0.06676580527187707
Valley 0.050797272601416046
Yo@@ 0.13596885979692827
ines 0.02196367022671801
itch 0.13719331828772582
栎 1
璿 1
1623 0.7436290609480943
Ther@@ 0.08999925311522014
ado 0.005326863043921519
aki 0.07798203400118314
ans@@ 0.03673062810503369
惶@@ 1
1578 0.8964747782400426
1588 0.8291146062538574
534 1
790 1
ITV 0.43868100752763045
Proc@@ 0.17668138608611975
Ruby 0.49733587152499364
pal@@ 0.04065222321793268
ture 0.041067376726133996
呋@@ 1
牟 1
禿 1
虱 1
1490 0.9960384379814003
Over@@ 0.07987367099295137
RP 0.719831541985536
灿@@ 1
缠 1
萩@@ 1
钵 1
1727 0.6007591959878543
嫦@@ 1
寥@@ 1
琊 1
迥 1
1745 0.5172826616438492
DB@@ 0.9565694973552636
len@@ 0.04283637714058485
lie 0.054922975880730245
癲@@ 1
125@@ 1
454 1
751 1
Family 0.06936117592626372
岌@@ 1
拥 1
涡 1
翘 1
鍛 1
1670 0.5893893494935424
1758 0.4486117478843019
Market 0.19570234697710395
uli@@ 0.07959177173862668
缕 1
472 1
675 1
Nokia 0.5800407342246082
Pacific 0.05130999445486577
Pseud@@ 0.20285794782138047
U20 0.6788799208996782
罔@@ 1
虾@@ 1
貽@@ 1
1764 0.44576000334408783
1768 0.4067265215697775
507 1
Miss 0.08377979442497106
Services 0.09996204520996346
arr@@ 0.0313848208893866
map@@ 0.24687695729165138
ward 0.04404828931254896
实际@@ 1
杲 1
泓 1
瀬 1
煬@@ 1
鏗 1
Education 0.04249662734906541
Jason 0.14464121883635167
lig@@ 0.03724615680871459
讼@@ 1
闰@@ 1
1635 0.6526590922907242
602 1
Aut@@ 0.07336809522004634
Ryan 0.11724399890946917
WW@@ 0.3351596733119987
apo@@ 0.04188969456914557
ency 0.03777861224244221
our@@ 0.05661561234851491
丢 1
剎 1
祀@@ 1
苟 1
铲@@ 1
鳄@@ 1
651 1
Dro@@ 0.09798583916045205
Tim 0.13095333494995084
att@@ 0.02629874587619295
cell 0.08178568957952582
son@@ 0.03887693233917736
岖 1
择 1
萝 1
鄚 1
霾 1
1502 1
1505 1
379 1
Comp@@ 0.11959329265671141
ster@@ 0.04193635380149038
佼@@ 1
鈺 1
603 1
626 1
FL 0.12935660885533315
Under 0.06444661361751873
uk 0.10364996410510119
唆 1
恼 1
暹 1
蕪 1
.. 0.07375497330765834
1.7@@ 1
439 1
esa 0.04031341050991576
iki 0.05721350805060616
ille 0.03583966780250202
悚 1
珥 1
374 1
436 1
516 1
tho@@ 0.08812530018946718
ㄧ 1
嵊@@ 1
洄@@ 1
狹 1
鯙 1
586 1
Fer@@ 0.059540142323392393
Golden 0.07784146302107695
ci 0.028711075869345182
ye@@ 0.08369934669154865
帑 1
漪 1
稔 1
蛭 1
1667 0.6713841799516582
615 1
alm@@ 0.054183544540441185
囱 1
榭 1
祈 1
鳖 1
1591 0.9380611279366013
522 1
Div@@ 0.08717076631931699
Fol@@ 0.07443344634580652
UB@@ 0.7685800944893109
not@@ 0.03229571437039737
瑠@@ 1
鐸@@ 1
424 1
456 1
Gil@@ 0.08251013124319515
Vis@@ 0.07400526558831348
愍 1
馨@@ 1
Dan 0.11781405188923484
ESPN 0.3681710617315097
Harry 0.07511435211204803
pei 0.4169386650376175
兌 1
燊 1
颚 1
BM 0.43056209134694834
拂 1
痊 1
絹 1
1538 0.9618302760191433
DH@@ 0.664787602799754
MAC 0.6285501174968108
剷 1
摹 1
秉 1
筝 1
1526 0.783634016977797
393 1
lum 0.10733015736113712
ton@@ 0.051887289254854856
摯@@ 1
og 0.13273814162295888
搅@@ 1
涩 1
硤 1
礫 1
鉑 1
1626 0.7284947816357937
1735 0.5768088861501641
1759 0.48286323457902286
492 1
ARA 1
LCD 1
ava 0.08566497893763357
title 0.021052498132123832
瑗 1
禿@@ 1
谒 1
444 1
Collection 0.20078807405729673
Dom@@ 0.05180342702539244
ren@@ 0.021918879374978086
栩@@ 1
汁@@ 1
綵 1
肱@@ 1
軾 1
颌@@ 1
419 1
Are 0.23844138585390093
Bab@@ 0.08366856950465304
Holdings 0.4428468801066469
amework 0.9497029178268845
aux 0.005471476978040193
px 1
浊@@ 1
漲@@ 1
穢 1
芹@@ 1
1597 0.8664443406820587
Stadium 0.07055268919023233
Tower 0.14070032225501147
inn@@ 0.045108467450715437
sil@@ 0.04048934516151602
吩@@ 1
绶 1
蒜@@ 1
鉅@@ 1
1.8@@ 1
Amazon 0.2727713787290472
FR 0.6376102214933623
ば 1
孽 1
嵇@@ 1
耘 1
酥@@ 1
545 1
Deb@@ 0.08319927548789835
MIT 0.3636726561879095
Na 0.2546787740663105
ご 1
乩 1
拘 1
曠@@ 1
琬 1
瑕 1
镉 1
Angel 0.18161469327938823
Soul 0.2323497808390609
ein 0.002655095855771693
ʰ 1
疽 1
1487 1
541 1
565 1
CU@@ 1
bert 0.05735803504426216
勅 1
瑋@@ 1
聾 1
1370 1
1606 0.7896473901438616
Lon@@ 0.19826972514262947
Stage 0.23435852646692368
Victor 0.09022023547564176
aga 0.0644601733555359
anth@@ 0.1095272329952119
砾 1
綏 1
羯 1
臚 1
533 1
Engine 0.42382456900066384
Gh@@ 0.10117689305746383
Lor@@ 0.06604762075531366
das 0.002268638256150724
ku@@ 0.06884494903880876
ote 0.04189580237480649
砦 1
羨@@ 1
込 1
霓@@ 1
Hom@@ 0.06074903902753593
Social 0.06899070791160802
print 0.12141106499355654
懦@@ 1
栈@@ 1
渎 1
蝰 1
酌 1
釘@@ 1
1767 0.45084127237808874
523 1
But@@ 0.10283536287199323
Port 0.06770696610387601
pen@@ 0.03757506145381855
zo@@ 0.12833640183835293
蚕 1
蛾@@ 1
邈 1
镓 1
髦 1
Au@@ 0.05786053589389714
kar@@ 0.04383286654286251
pes 0.06836286486513737
闾 1
鸽@@ 1
452 1
524 1
711 1
Alice 0.11928708426186689
bor@@ 0.03457026248986719
ids 0.03785431253063769
long 0.012290394338545984
olo@@ 0.1316659125700249
戡@@ 1
楹 1
瀆 1
灼 1
荨@@ 1
餡@@ 1
715 1
Ep@@ 0.10987173773541083
Prince 0.05226521712045877
sal@@ 0.029878040601398353
桦 1
1752 0.5406652322434109
458 1
725 1
Ka@@ 0.08712733652976073
Nex@@ 0.6422977568274637
ological 0.028749742904825924
ow 0.036485370467989
sim@@ 0.07107790690227263
word 0.045391067745753744
裘 1
贛 1
韜 1
IST 0.9587938011782665
Sound 0.12495137932895994
action 0.02332678517869129
ham@@ 0.09174928709519155
嚨 1
擱 1
梟 1
矶@@ 1
粘 1
缪 1
钒 1
457 1
613 1
dor@@ 0.054150903650314226
tig@@ 0.03922077280234617
巍@@ 1
梳 1
鐮 1
钯 1
颐@@ 1
722 1
Die 0.0023409446937475075
Main 0.06784607094070896
dic@@ 0.030056621441081715
lock 0.09496623303334747
ず 1
苇 1
Capital 0.13588525343507057
Samsung 0.4216982923229774
View 0.3315817880644252
ll 0.20041569505896303
ulu 0.1494441222176672
yun@@ 1
傻 1
喘@@ 1
跻@@ 1
1572 0.7143207746240178
493 1
Kn@@ 0.06019793159330303
MK@@ 0.9565053525686402
Not 0.11554069298751413
struc@@ 0.15547785156127952
tex 0.3070152607617411
Ⅰ 1
涟@@ 1
畹@@ 1
1493 1
1544 1
628 1
634 1
BI 0.2661413760579161
def 1
繇 1
茴@@ 1
釐@@ 1
績@@ 1
钙@@ 1
614 1
655 1
Bo 0.40652513810697904
Jan@@ 0.07502880305189528
V8 0.3812562374361567
max 0.368232045784094
钨 1
1545 0.9121020998379028
1633 0.731662616510662
546 1
547 1
Friedrich 0.04108616732872482
H.@@ 0.1776810702863405
NH 0.41333431141759663
iti@@ 0.029752938504970055
los 0.0015825335873129365
檜 1
祁 1
668 1
815 1
Dakota 0.1448524666264346
print@@ 0.9773036469659112
د 0.18438591915898128
س 0.15699483147386456
澹 1
Bol@@ 0.05565170563035746
pin@@ 0.07956288662142122
蕴 1
顗 1
Am 0.014691650448260523
Dark 0.1508539634462617
MD@@ 0.5922702542627207
Take 0.321562064964125
晞 1
1.6@@ 1
527 1
Bar 0.14403569508961067
GSM 1
LIN@@ 0.613021042824207
pi 0.21333706972096647
yo 0.08498632919607715
喂@@ 1
齦 1
Aer@@ 0.11009855686903278
Lim@@ 0.0684359942901192
OM 0.7593468661393303
RB 0.5557506921250438
icum 0.3036366515429511
戟@@ 1
賠 1
餌 1
1575 0.8387604416034695
Level 0.30727645574198464
Mand@@ 0.06889643464305661
app 0.20523547022598332
ori 0.06423918996231341
vo@@ 0.041632215937997576
ζ 0.5288893249949616
尻 1
炙@@ 1
荠 1
钉@@ 1
鹊 1
1555 0.7797755414482249
1659 0.7059149333004697
576 1
Interactive 0.5323891370786019
掺@@ 1
隧 1
Cross 0.07344184208398422
Department 0.03257505349561726
char 0.31620537659319137
セ 1
儸 1
捻 1
湟@@ 1
疼 1
鍍 1
Information 0.12511171238955787
Py@@ 0.15484335002598398
ational 0.04087223342147204
pa@@ 0.08998744078084948
蘋 1
颌 1
Ace 0.5400043414288357
Kor@@ 0.04113452150302191
via 0.027357678384570504
啮@@ 1
嘯@@ 1
骥 1
Access 0.3412121033207547
Count@@ 0.3726321805328205
PN@@ 0.24612010962437866
ado@@ 0.1681068790002104
ae@@ 0.17112136703471711
sis 0.13591087533965104
暈@@ 1
様 1
燁 1
1540 0.5729436495561375
Din@@ 0.10767449468680314
Jane 0.10739173815631206
Ken 0.17922963001767378
PCI 0.7125287860021619
ond@@ 0.045425423058552135
vel@@ 0.06938761999811628
µ 1
亢 1
薊@@ 1
1632 0.6303810391738518
And 0.08546146849126993
Fair@@ 0.09797554036869827
ites 0.03138361547750384
nam@@ 0.05210205037045593
rot@@ 0.049314480391624026
恃 1
捣@@ 1
滸@@ 1
璨 1
鈺@@ 1
1733 0.5948175158878314
438 1
Bou@@ 0.061619269505795306
Zone 0.1282250310944212
itz 0.03865834570980161
nig@@ 0.20902760692467345
tem@@ 0.0671542885766919
俐 1
癸 1
1639 0.7723230853568621
521 1
717 1
air@@ 0.02756392425456131
yg@@ 0.11540790539712306
俭@@ 1
1.9@@ 1
498 1
544 1
Ari@@ 0.09168988333125501
Kiss 0.3647201529603428
Sab@@ 0.06457310574937564
ui 0.10555311299929829
using 0.018101884396937714
瘡 1
祜@@ 1
鷺@@ 1
1652 0.6898265093328414
421 1
Davis 0.06853658434617378
Good@@ 0.13877217951683604
Sport 0.08868718347639407
ink 0.0875908090214575
oro 0.06668254959391343
壬 1
沭@@ 1
漿@@ 1
燮@@ 1
瞄 1
诲 1
鱧 1
0.0 0.7065846979295243
1664 0.6798796142608906
635 1
Bet@@ 0.09634962444460522
cat@@ 0.0337173101236509
ʁ 1
嬪@@ 1
晟@@ 1
獺 1
羲@@ 1
颊 1
1594 0.841336118741947
France 0.009142002560950995
Map@@ 0.17301417566531377
作曲@@ 1
哮@@ 1
垩@@ 1
涇@@ 1
1728 0.6178787079954303
Pul@@ 0.1120968943381277
sor@@ 0.03483487168180355
琐 1
迂 1
邢 1
锚 1
驍@@ 1
By@@ 0.1428178449091019
Oh 0.3039051954490875
PF 0.5011030745411933
PHP 1
Prim@@ 0.08953337037851555
Women 0.03321756621334901
ine@@ 0.05914796758400391
犍 1
肽@@ 1
1684 0.7077424674477861
Anthony 0.08963197682766172
Base 0.13249366350957392
Juan 0.03053876349086159
Unit 0.1943898590035578
ves 0.02068707149822535
恳@@ 1
陇 1
1584 0.81590192626601
629 1
704 1
匐 1
妒@@ 1
痘 1
絶 1
羔@@ 1
豎 1
鄙 1
釷 1
钼 1
镛 1
Elizabeth 0.05995192703985822
Human 0.0994766093503918
UD 0.4901624952599797
been 0.0037221187088584324
love 0.04932860157806485
嚕 1
缆@@ 1
526 1
587 1
656 1
Bio@@ 0.38864561604097914
Lewis 0.07214714236060521
osus 0.3774147127816776
忏@@ 1
痺 1
衅 1
1654 0.6126885373490331
1725 0.5720757545634836
464 1
559 1
Committee 0.03908494135579214
Health 0.06167736123135794
Rev@@ 0.0675918688500884
eria 0.09722735262756875
偃 1
娄 1
屡 1
蒯@@ 1
蜡 1
閏@@ 1
鰲 1
Ren@@ 0.045727169661602424
esis 0.08529117987326984
hin@@ 0.04940016741153672
win 0.020717765988826835
綦@@ 1
萸 1
饿@@ 1
Prix 0.0536795912069973
Vel@@ 0.08479772335697888
tw@@ 0.037766708997776656
val 0.1021139515114989
恺@@ 1
撐@@ 1
1655 0.6802805524095284
1713 0.551071247298143
Computer 0.16328132357777547
Spir@@ 0.1672647483359874
live 0.026712246691770695
Б 0.11585435913448291
淅@@ 1
漬 1
471 1
Ay@@ 0.062350330344611536
Jay 0.15162288072142271
Tech@@ 0.2649980813155604
UFO 0.9903431028112857
旻@@ 1
罩@@ 1
437 1
483 1
488 1
Hyper@@ 0.30077120724731654
Mik@@ 0.10282374120517399
Nu@@ 0.09001818983534388
栽 1
糙@@ 1
胭@@ 1
562 1
Spot@@ 0.44334034903897707
Theatre 0.05381065713235266
匍@@ 1
悄 1
柵 1
汙 1
汰 1
淖@@ 1
辻@@ 1
1350 0.699858357894195
447 1
448 1
712 1
Tran@@ 0.08943708364753834
ial 0.057744117735927185
ux 0.07557752981159956
х 0.015520751211917174
胪 1
茗 1
1050 1
446 1
Kat@@ 0.0439266468818347
ify 0.34195739829855687
space 0.03758576883593332
婕 1
恙 1
瘟 1
1721 0.5760979423018647
461 1
965 1
Anna 0.060020238560983354
Christopher 0.11102087019715685
Division 0.01855189862783128
Rom@@ 0.04280036309665837
U23 0.5737833376378512
Wh@@ 0.08536651437738803
ective 0.05765031199916202
shell 0.1797810771743276
嘅 1
媚@@ 1
烂@@ 1
迄 1
钰 1
鳍@@ 1
Den@@ 0.06744630535075198
dec@@ 0.023815097280344477
uma 0.08765053764213923
槛 1
浒@@ 1
熾@@ 1
543 1
572 1
ARC 0.4285302013037451
L2 1
LV@@ 0.8118976064552763
Standard 0.12147191130772139
des@@ 0.01069418611728661
汛@@ 1
痰 1
竿@@ 1
茫@@ 1
鈸 1
1080 1
Board 0.04625273019446388
Hay@@ 0.07116364531488356
ert 0.0174533800783789
opo@@ 0.11477736046966883
壺@@ 1
渭 1
珅 1
璠 1
盏 1
砵 1
铋 1
麓@@ 1
681 1
685 1
HMS 0.13643301901610308
Philip 0.09443758116193493
Wiki 1
je 0.03057084443899625
wh@@ 0.03524558645495409
峠 1
漩 1
玫 1
642 1
975 1
Jo 0.2829785651373061
NY 0.19839810536322044
ici@@ 0.047339073461265736
score 0.0442139793141716
婕@@ 1
恤@@ 1
沅 1
示威@@ 1
荀 1
1707 0.5270066656953553
1761 0.44685473430592104
Blu@@ 0.10013445596705312
Imag@@ 0.20542310054733012
Pad@@ 0.09844116711365834
act@@ 0.07379067454052339
ais 0.038462425239227674
侗 1
铊 1
锗 1
1638 0.6514047372431739
434 1
482 1
Mount 0.062377617309906805
Sea 0.058540330269744596
ami@@ 0.07746818629184657
parent 0.13077170631037624
thr@@ 0.07175452954750794
wan 0.10826658711090625
互联@@ 1
1754 0.4676788903860421
469 1
Raw 0.26137097336646825
bas@@ 0.023795063199522005
咄@@ 1
尴@@ 1
峴 1
溉@@ 1
滬 1
澗 1
582 1
Wood@@ 0.06820960724435911
冉 1
潇@@ 1
窪@@ 1
ox@@ 0.06754465195695557
reg@@ 0.022409007500636874
瓣@@ 1
輻 1
铨 1
靺 1
496 1
orn 0.10038694000612663
uri 0.09084555149650818
苴 1
478 1
Miller 0.08069085701204196
PH 0.7411056331004188
Ze@@ 0.06541576532138596
html 1
igh@@ 0.0470614836502029
乍 1
1766 0.41938260768890123
616 1
next 0.02089023848999025
ron 0.13761323524211816
Ⅲ 1
嗪 1
嵯@@ 1
掖@@ 1
eth@@ 0.035617241874997284
熹@@ 1
瑣@@ 1
1260 0.9619940769334152
Stone 0.08270571846238033
aa 0.14987473244241648
gar@@ 0.029816148607680663
han 0.02425620528816979
iri 0.10645081457382949
ste@@ 0.023189901313339537
water 0.01533148472893645
榈 1
瀾@@ 1
盞 1
鐳 1
陲 1
Roger 0.07812846898749165
pres@@ 0.021811185890124027
俺 1
802.@@ 1
Band@@ 0.09294184083770163
Gaga 0.6389509842004412
ISS 0.5494240633435361
Kam@@ 0.0579193884837523
VHS 0.5287008143779219
book 0.01661459697042877
ネ 1
揣@@ 1
榈@@ 1
郢@@ 1
頗@@ 1
1751 0.5071230866303621
1753 0.3897881508850907
467 1
CB@@ 0.5082884476506844
Loc@@ 0.08058794239178751
Wa@@ 0.08508817402228287
ago 0.055594997972283566
bs 0.03929714294876718
ogo 0.20840438730480082
灑@@ 1
缸@@ 1
駒@@ 1
487 1
638 1
NA@@ 0.4765652024019775
NY@@ 0.22051358962786274
Part 0.15701846427710198
Rot@@ 0.0658396209274672
alan 0.07872944924092413
娼 1
闫@@ 1
鞨 1
鱺 1
542 1
FP@@ 0.4926024278047673
How 0.17819742093096475
Pascal 0.2978584647267822
Wat@@ 0.07990401228881544
after 0.003952459269532241
thi@@ 0.07731798964831335
栋@@ 1
皺 1
祜 1
酌@@ 1
鈣@@ 1
Paris 0.012418927609842418
Pic@@ 0.08901033821665293
amm@@ 0.04995801443026268
sw@@ 0.03096456930697919
偈 1
眺 1
窪 1
笹@@ 1
荻@@ 1
萤@@ 1
1466 1
1561 0.8446122518232598
429 1
AU@@ 0.840589280455839
Hans 0.0468933730471763
Maj@@ 0.08188454342236651
Pit@@ 0.11218168751215596
oll@@ 0.05001246377069813
彪@@ 1
1587 0.816910088323158
1729 0.6017173917405694
Da 0.045408514464248886
ibn 0.15922889603806836
tier 0.04928196763938257
wal@@ 0.04204565472282786
勺 1
啡 1
臧 1
荔 1
鰺 1
1690 0.4971893745161489
EB@@ 0.5302091676375378
bis 0.003836547549566003
height 0.10102140495713853
澧@@ 1
Fri@@ 0.06934251596152219
Lar@@ 0.06330035435226077
Nar@@ 0.06474512362897167
Over 0.07641331841204785
Pon@@ 0.06898034202968893
tional 0.03684585964099736
颓@@ 1
駙@@ 1
1460 0.8686713757505419
449 1
718 1
Dynam@@ 0.2526026577305668
UMP 0.7660519578843551
kin@@ 0.0778114430496861
mus@@ 0.03577152221979967
used 0.006058834454156139
Н 0.054701832678310726
啞@@ 1
槽@@ 1
酶@@ 1
514 1
539 1
rec@@ 0.015564702193798139
俏@@ 1
啼@@ 1
炽@@ 1
珞@@ 1
盱@@ 1
阇 1
馭 1
1520 0.5476856667924306
CIA 0.21722689828655017
From 0.02052083701231388
Matt 0.11663213474880922
Sand@@ 0.051948127940581956
Tech 0.16487430239084472
偵 1
嘲 1
墻 1
慨@@ 1
栱 1
烙@@ 1
鍍@@ 1
Garden 0.11467747772576188
Pel@@ 0.08526804683508794
acy 0.032973870368608924
炬@@ 1
蘚@@ 1
112@@ 1
1658 0.6489542133629728
441 1
Allen 0.08703212072769419
anum 0.26228143351248373
eh 0.09206626227802162
幀 1
皱 1
钧@@ 1
Bug@@ 0.18837051818041955
Dur@@ 0.06140210030580576
Log@@ 0.10832719683098586
Pay@@ 0.20136771700909656
SQ@@ 1
enger 0.11690218674719505
nh@@ 0.035379469586646756
qui@@ 0.04587817649174388
ulus 0.18690974532243454
zo 0.057606019164319816
嵴 1
榘 1
炙 1
鑼 1
1492 0.6932656547968433
768 1
Ka 0.44898415907561906
RCA 0.3537797046301676
TR 0.7934336325437329
acc@@ 0.02830674221508644
alb@@ 0.04928383478791518
ket@@ 0.13218072801150746
uck 0.070128007394392
世界大战 1
亟@@ 1
沐 1
瘠 1
绰 1
荖 1
菓 1
蝗 1
1478 1
BK 0.3635226860880333
Enterprise 0.2977327016663596
SB@@ 0.47950851548904944
Virtual 0.588387595474543
ature 0.07579350365191881
eter 0.042537494609181666
ols 0.04276973194228761
玠 1
骤@@ 1
1150 0.8455655223489034
1530 0.5498735006116141
484 1
Rus@@ 0.05288540097864149
ants 0.011248712386486753
cus 0.1170042344233935
poly@@ 0.061469129250787326
亢@@ 1
昱@@ 1
灿 1
Jan 0.08096053687346234
ship 0.016154736643457325
炜 1
hop 0.14513425245829814
iga 0.10176909744483599
怜@@ 1
珏 1
羥@@ 1
鸫 1
1453 0.8791259801676621
1522 0.8904090719951568
1525 0.5987836329436789
463 1
Common 0.17036528284545807
Ky@@ 0.07996392151412815
Re 0.3604520437144536
ots 0.02735707503739994
壇@@ 1
専 1
揀 1
癇 1
瞩@@ 1
蟒@@ 1
Days 0.1921077831726657
1532 0.8945546330140048
Fox 0.06733974949894217
Ing@@ 0.06830920091882954
Ry@@ 0.09107338228039108
垩 1
奭 1
焜 1
1685 0.526082558696096
Big@@ 0.1838066227467982
cos@@ 0.07058627592477498
dan 0.04173175859359558
eck 0.05227660181376571
view 0.0375164076332843
醃 1
Antonio 0.04194563619771034
CY@@ 0.7099634838890079
Gold 0.0603608551537803
Hit 0.336972894199375
TNT 0.6922021410881515
嬴@@ 1
盪@@ 1
饼@@ 1
1576 0.8113275432898812
595 1
Chan 0.2938190656027439
Fantasy 0.24099998405843673
Nam@@ 0.09055151177666437
Tree 0.2573539118942093
af 0.10837973629254635
ih@@ 0.05694211794149644
熒@@ 1
491 1
609 1
Francisco 0.028944425164749082
Rue 0.2799468329052469
span 0.16484029344675705
string 0.17351656184707318
佥 1
樱 1
魷@@ 1
Ali@@ 0.07913781973386587
Coc@@ 0.16873751573703566
aff@@ 0.034686901523674284
service 0.012360686789399196
who 0.0028634275343741946
塭 1
恿 1
苻@@ 1
鲈 1
1469 1
667 1
Howard 0.07922884965580623
RO 0.6564630221151839
most 0.00611223787597749
ァ 1
冪 1
瀘@@ 1
猾 1
琶@@ 1
薈@@ 1
1524 0.7733060369161674
mas@@ 0.02550061001794245
洮 1
茸 1
饵 1
1732 0.5386724357265563
Г 0.07756572423251466
і 0.9675517635343239
ほ 1
筷@@ 1
蟑@@ 1
474 1
661 1
ISC 0.9767376099236337
UF@@ 0.6711765781644128
sol@@ 0.019754492679969232
Ω 1
襯 1
1641 0.5917045666267596
775 1
Sym@@ 0.1716327472085354
囤@@ 1
怯 1
柝@@ 1
檜@@ 1
禺@@ 1
窺@@ 1
笨 1
蝨 1
1593 0.7757075429391004
477 1
Mega 0.39596766711079323
illy 0.07083368738310065
sp 0.8266496797719828
tre 0.04188313118837425
worth 0.05219118434504792
珲@@ 1
蒼 1
豈@@ 1
鸮 1
641 1
Anne 0.057776905276286185
UV 0.4323709144966475
Whit@@ 0.06738666750917176
life 0.008629117977058898
吓@@ 1
滔@@ 1
澎 1
蹦@@ 1
1614 0.6835192824075967
Carlos 0.04091554763021107
Hen@@ 0.07503432229818381
Rab@@ 0.08207591019390378
Rel@@ 0.06807518214178378
tz 0.09170670648472132
Σ 0.9369522765429276
1581 0.7975973848649756
Hil@@ 0.055889699963143864
Roc@@ 0.08201491862835468
SG@@ 0.713672554031716
Victoria 0.045843234212426684
thumb 0.6448813701585239
澂 1
邾 1
1742 0.4658198368765397
Bell 0.08863307115630312
撑@@ 1
柬 1
矾 1
诣 1
辕 1
锚@@ 1
1731 0.5836879075615624
Fran@@ 0.06159441293972078
Kab@@ 0.11032903371255799
Spec@@ 0.14504890821140495
game 0.009889608804985085
has@@ 0.08542680285986289
庵@@ 1
惨 1
棻 1
瓏 1
窯@@ 1
覲 1
逞 1
陝 1
２ 1
1605 0.6056710501647847
Court 0.02640074306693169
Get 0.2210230391207892
Premi@@ 0.21361740818969382
sing 0.038672301587416254
姥@@ 1
甬 1
矚 1
荪 1
Castle 0.0681403814172403
RF 0.527854520992045
Style 0.25612090132435583
Ven@@ 0.06189491800216397
ays 0.029232054083241952
И 0.0321539950941856
弒 1
恬@@ 1
攪@@ 1
浬 1
Money 0.2619723409818341
base 0.017944051796553524
ふ 1
娱 1
Alfred 0.06860685882893651
core 0.07519035556232698
ml 0.8923143041027677
ony 0.06031526870401255
zer 0.0631176676723088
า 0.3696544758624097
禰 1
臀 1
ABA 0.5249683345053897
Call 0.23719931121489166
Multi@@ 0.15792561490887622
pul@@ 0.033317717487635665
墩@@ 1
搗@@ 1
聾@@ 1
頡@@ 1
Fire@@ 0.34262011203744114
Med@@ 0.07864937170375311
ag 0.07169128862514687
ear@@ 0.05205843223885256
tha 0.09506896484956144
ute 0.04338515588228999
黏 1
875 1
Gir@@ 0.07655842921341119
out@@ 0.02087124412856156
tel 0.044509263171388265
å 0.4572106916913017
慑 1
殡@@ 1
肼 1
譏@@ 1
邛@@ 1
醌 1
鏟 1
濛 1
酚@@ 1
魟 1
473 1
Ali 0.06238295477286001
ani@@ 0.052911260475194934
nes 0.03718502673195372
呵@@ 1
扒 1
獗 1
蠡@@ 1
軔 1
1602 0.6851334064772013
997 1
CH3@@ 1
MM@@ 0.8378934583886736
Mid@@ 0.06915925486758057
TI 0.6122753173981623
Tu 0.332080429839996
version 0.01567090662943888
ц 0.047154899547531284
匀@@ 1
匮@@ 1
荻 1
1710 0.43588262384969795
708 1
845 1
Cir@@ 0.1153935619635431
Dave 0.10633538765955719
Hand@@ 0.04673904287155634
杠@@ 1
赔 1
鯤 1
1430 0.9348182056705995
las 0.002169548251717001
咆@@ 1
嶄 1
1666 0.5757022902438839
481 1
652 1
996 1
Boys 0.09860353075511537
Los 0.008185875225975343
Program 0.1052951792379233
bin 0.06757213879311594
tle 0.07204288742617432
吡 1
1501 0.9617929916502105
1514 0.9688161052379615
1718 0.5167420643351265
Dan@@ 0.06354939986103582
IG 0.7283519081193879
Trav@@ 0.10956889340322146
泓@@ 1
裨@@ 1
驥 1
1726 0.5699432943536763
Ann@@ 0.05692684167049073
Building 0.08556590950896623
Var@@ 0.06462664544760582
alism 0.04134283098946393
ボ 1
俳@@ 1
娇 1
怕@@ 1
筵 1
葆 1
1673 0.6680028254036139
1737 0.5113331926933717
Action 0.12711698413801437
Future 0.17255232952684094
Plaza 0.12992822513337432
fi@@ 0.0212222954823444
gs 0.05849059504731487
榛 1
蒨 1
邠 1
鵜@@ 1
1722 0.49685804682857254
Ultra 0.45989009966569366
eph@@ 0.11253526167175394
湮@@ 1
甕 1
蠟 1
醛@@ 1
馱 1
1611 0.6273857242060771
Gol@@ 0.05634521232076168
Ho 0.27559929359891083
Hon@@ 0.05685867547110023
ide@@ 0.04106244263481777
∞ 1
幂@@ 1
抛 1
盎 1
鸢@@ 1
1739 0.5023338016814486
Blu 0.323530345140059
Cour@@ 0.05670801320039199
adi 0.08532347231153294
eum 0.0910169348376731
ی 0.566407694707935
ケ 1
佰@@ 1
珮@@ 1
艮 1
蚵 1
訖 1
誨 1
躬@@ 1
Double 0.2009020542750033
Gary 0.11771028863564822
arch@@ 0.036814967159046336
poem 0.09531108099194545
umia 1
噻@@ 1
晰@@ 1
1496 1
1681 0.6385046199887998
1747 0.4613678436786775
HI 0.855102955817467
ones 0.016605628995515376
î 0.2341531164712838
О 0.055740107515871155
丶 1
刈 1
坵 1
庑 1
柴油@@ 1
珣 1
珮 1
虏@@ 1
裤@@ 1
訶 1
1679 0.5969463321790234
BN 0.4109834809340425
Perf@@ 0.752026214333894
lon 0.12667113707774486
卤 1
排名@@ 1
睇 1
莅@@ 1
鉞 1
驒 1
1653 0.6197449999433604
1697 0.5573573928207802
wiki 0.77577648219368
僖 1
癢 1
苍 1
蛸 1
袒 1
Fu@@ 0.07421415058205366
IR 0.4081753596624918
LF 0.6235459356144895
Post 0.04969016599135543
Security 0.09432270571017029
age@@ 0.10750980369095647
anga 0.09357254304761332
free 0.026833430668208605
part 0.005171506071469635
very 0.01417575493021874
won 0.008416540933172626
敎 1
鄯@@ 1
驛@@ 1
魴 1
Card 0.34427486769824206
Cli@@ 0.18109123678047748
ams 0.03790105814738509
bin@@ 0.05056780466042712
mis@@ 0.021848917648408316
寛 1
憐@@ 1
鵲 1
1519 0.8122822998357105
Da@@ 0.09073766771953892
Down 0.12978244862779065
Mem@@ 0.09763207911020218
ND 0.4125939237957878
Source 0.18678089441744108
eno 0.06648735830688517
ί 0.18393002813422749
ा 0.18380288628807334
撮@@ 1
笏 1
銨 1
969 1
Autom@@ 0.10264035487293326
Liv@@ 0.11426552663044705
Pod@@ 0.09386975201358017
Tor 0.14691203440739434
槓 1
猕@@ 1
莅 1
蛺 1
閹@@ 1
1130 1
Basic 0.3774633020298193
HL 0.1572666373704735
Pass 0.17919173556197698
Walker 0.09689330744193467
itude 0.1912782372436159
jpg 1
over@@ 0.018207860543308255
拦 1
晦@@ 1
猥@@ 1
鄢@@ 1
1741 0.45211140589040494
KC 0.587077520643237
Secret 0.19109907456274186
estr@@ 0.03387105085955884
uy@@ 0.05212164920744782
uz@@ 0.04527959568150501
缽 1
蕲@@ 1
錮 1
Engineering 0.09058717141914044
Mill@@ 0.08670129065787671
Son@@ 0.07422120236134354
Wol@@ 0.057326787851730614
hip 0.050711864027110594
mp@@ 0.07007937221797926
oli@@ 0.08789029392782959
uv@@ 0.06615781798428755
् 0.0013978533966399213
岂@@ 1
愫 1
玳@@ 1
绛@@ 1
谕@@ 1
1536 0.5834577729900234
462 1
BO 0.3920516438615702
Ye@@ 0.14240232440437336
ects 0.03158218463647421
ern@@ 0.025460741445946254
flora 0.20471580715180088
icken 0.2783866263397794
yer 0.03016884354609802
姥 1
懒@@ 1
1563 0.7155403193326867
1665 0.563706560159416
Dy@@ 0.1498841077796279
If 0.04048359911294491
Kol@@ 0.03997173367555588
粿 1
1454 1
Vision 0.24009088131771691
Western 0.025614597101205696
XL 0.7102870747836187
under 0.005988955908603338
楫 1
熾 1
稼 1
郝 1
鎧 1
馥@@ 1
Epic 0.4981922535310784
Prime 0.06674369704055662
瀰 1
1714 0.47111726865029385
Anderson 0.07763834850777929
CU 0.4136607878376589
Dra@@ 0.1595147484688681
aci@@ 0.04005124639266491
kr@@ 0.03793257706035416
place 0.007163876039670623
ven@@ 0.02472721621797732
zen 0.027095672608562105
羡@@ 1
1380 0.9610321240587111
843 1
Van@@ 0.1298966882358321
nd@@ 0.06914023343978831
see 0.019536687691760965
start 0.033419799281365896
儉@@ 1
卍 1
屹@@ 1
撻 1
枉@@ 1
榨 1
縊 1
1475 0.9902830068519657
Color 0.3993331534712245
NF 0.6644801167353116
Sl@@ 0.10584089766843925
een 0.08615263985100448
sin 0.020097251724011993
ă 0.27586455190876186
1552 0.6945739121364677
1657 0.6379954253324809
1744 0.4664173643130413
Dre@@ 0.05678798622404279
Nintendo 0.1334853671797484
media 0.023376515761827484
ond 0.05273512656617871
yu 0.15102932161726004
憫 1
1709 0.5220945286816027
976 1
Fan 0.3945130980800312
Language 0.1667400995632073
Men 0.048578708697263155
Order 0.05066855770112318
VIII 0.10660977876853892
anna 0.08982056639610789
some 0.00670209366396581
聋@@ 1
邳@@ 1
郧@@ 1
鵑@@ 1
1280 0.9489508398568329
1564 0.7300602857151469
Hot@@ 0.166116519475661
Kelly 0.09535847438048124
Mari@@ 0.044315971496323235
Pictures 0.12498914290510008
ender 0.0328839697031548
ry@@ 0.12026129927907095
state 0.008985232385965181
yst@@ 0.0683462114316912
洱@@ 1
浔@@ 1
灝 1
砚@@ 1
1579 0.8166371188345956
Clark 0.08122119258641107
Doc@@ 0.12407129879655836
cli@@ 0.0747546619184692
date 0.023971446407967216
low@@ 0.06253704873665214
oe 0.0945342115552254
捏 1
楯 1
銮 1
Bom@@ 0.1053236337005034
Johann 0.036878826840187034
ect@@ 0.06668486054065363
idi@@ 0.05918445804628964
link 0.1092917284664715
ties 0.020075626250722525
梶@@ 1
爍 1
贱 1
闷 1
928 1
Championship 0.02122810858459965
Nick 0.10123731377615994
Poc@@ 0.24579418670069902
蝕@@ 1
镕@@ 1
1672 0.49871917797012577
1715 0.3735842331704086
Hard@@ 0.08863462498299812
Head 0.08267240003358779
Lac@@ 0.09794888109527464
Mo 0.3877008587224568
anda 0.055223258746687376
chen 0.020078365914718885
double 0.03822970840087501
ign@@ 0.031289240248244324
壑 1
蝓 1
豈 1
驃 1
﹕ 1
Bra@@ 0.10268602393414256
Jacques 0.04783757587670401
Ti 0.7534007642873103
anti 0.030418206329124058
亏 1
晁@@ 1
闐 1
鴕@@ 1
Pass@@ 0.0692530040404355
chrom@@ 0.12601829352764482
fin@@ 0.01618699216474055
hom@@ 0.026661713626000304
music 0.010874228228985084
xy 0.22650384720877376
† 0.019032427184455955
├ 0.3049927934638416
匆 1
撮 1
櫟 1
紜 1
虢@@ 1
郃 1
Centr@@ 0.1259418952695361
Nova 0.11930379983911318
gi 0.10274149585302778
japon@@ 0.42290736466171464
桧 1
檳 1
漩@@ 1
緹 1
颤@@ 1
Airport 0.05740727835829639
about 0.005736103004860391
atan 0.3149962147170564
cy@@ 0.0758235317789708
dod@@ 0.6760859122298655
onic 0.0757869797486107
ush@@ 0.06678639857538703
ع 0.16212378051491658
怛 1
瑀 1
瓢@@ 1
絳 1
蝇@@ 1
1669 0.61750706842437
Field 0.06208061800621993
Kit 0.5409430026794735
bach 0.027641259371475466
fa@@ 0.03350407521832971
gre@@ 0.05714205141074664
ji@@ 0.11437182745783384
ш 0.03787394700734041
噹 1
枚@@ 1
艘@@ 1
褪@@ 1
遁@@ 1
914 1
tin@@ 0.06374165274757979
哗@@ 1
犍@@ 1
莘 1
蟎 1
錳 1
1699 0.5224639289332524
Cit@@ 0.15651820032740021
Eng@@ 0.06403809568601485
Hi 0.4044295179045135
` 1
alus 0.3125151875839389
yan 0.06351076351377218
ピ 1
悖 1
歿 1
綬@@ 1
蛞@@ 1
豚@@ 1
鯽 1
ARD 0.42524652403336377
Rh@@ 0.10116852712044995
based 0.009285169265704975
ple 0.08627423033265659
潁@@ 1
藐@@ 1
邇 1
锯 1
Bay@@ 0.05237763584885191
Eg@@ 0.09217656136410887
Mach@@ 0.08473899128296204
Stand 0.05310279327915011
Stor@@ 0.11589322985022495
tan 0.03278429119086507
umi 0.13239015983479369
劈@@ 1
厨 1
洱 1
豊 1
贼@@ 1
1558 0.6604508450788172
Andy 0.10920991600123313
Jeff 0.11495293747857988
aha 0.09344885005515077
bo 0.07079664472786035
endron 0.8779678690579839
哮 1
錠 1
1481 1
ACP 0.5493073226027472
Alph@@ 0.5621077971922742
Lit@@ 0.0720430887484805
Vit@@ 0.08415660213233171
men@@ 0.020889617795651436
県 1
賁 1
Alex@@ 0.16007803434522144
Stars 0.10629880219913683
True 0.2718426958378113
ide 0.03221522001091519
ɔ 1
ね 1
涝 1
齧 1
1675 0.5234557130173231
Ross 0.0891223541049382
Tru@@ 0.2009096774659937
ś 1
愍@@ 1
秽 1
鵙 1
黒 1
1527 0.7160089325088788
Donald 0.08821975567571434
Johnny 0.09581113948711494
met@@ 0.028850157183207086
ò 0.20275960114499658
剽@@ 1
藓@@ 1
陋@@ 1
aca 0.0663889677857225
elia 0.11031303297235405
high 0.010459250406294151
ت 0.10173773226710586
啄 1
嫣 1
蹲 1
阆@@ 1
1510 0.7331925515733595
Arg@@ 0.09357427925928358
Classic 0.1288380250241119
Vil@@ 0.05827131794739613
hal@@ 0.024002733560157318
­ 0.14945224238858676
燬 1
Dal@@ 0.07093238077561496
aba 0.01208587357504653
ave 0.06767833829202168
む 1
燾 1
瑯@@ 1
篙 1
鹫 1
Advanced 0.19750310247798905
Clo@@ 0.15854055307585918
Five 0.09751010890262847
Gun@@ 0.08073589705916785
Ken@@ 0.07567189073596392
Word 0.3787528648455029
ker@@ 0.045991386874326974
pat@@ 0.03104767821158563
song 0.010548168489061323
傈@@ 1
孖 1
瓯@@ 1
鯖 1
0000@@ 1
Lang@@ 0.03857531235996242
Sak@@ 0.07300755921301331
Sir@@ 0.10415753938121979
VIP 0.7706679909145653
XIII 0.10523738638436612
ald 0.08173111895168372
film 0.004746104099562576
ods 0.04558103455683485
true 0.06777790734918168
uta 0.09168103966661748
wo@@ 0.038181545464785166
would 0.00452982227659035
婢@@ 1
爨 1
龈 1
1749 0.456288681870904
Arch@@ 0.06968501444988763
Long@@ 0.07873753225211526
Matthew 0.11234162062144513
Three 0.0520864813100932
WB 0.625546227493737
bel@@ 0.020187398230142227
gh@@ 0.048359948116313105
hor@@ 0.03358800964408847
jo 0.04196013159290579
oria 0.08589216660466094
枯 1
氚 1
814 1
AZ 0.3133722660801626
Bruce 0.08977571093455074
EB 0.4655670909765864
Mis@@ 0.05744786126252567
bili@@ 0.6866940091495737
emb@@ 0.023058504203808255
wer 0.04231098770487065
ð 0.8890925229108736
晒@@ 1
筠@@ 1
1734 0.4696607786829497
Bot@@ 0.05419993661164279
RN 0.32048123003296125
Sau@@ 0.05459262599859409
Wonder@@ 0.33680841627631647
station 0.009108522777343551
唁 1
槎 1
瓒 1
痒 1
繆 1
諺 1
CH2@@ 1
Ni 0.40380017908564364
Wong 0.352777414147538
Zi@@ 0.08241248518025175
edi@@ 0.03856790767364679
lang 0.04059348638036429
pro 0.04354703281164343
儼@@ 1
旬@@ 1
煊 1
癫@@ 1
秃 1
覓@@ 1
1542 0.6517088276472481
Gordon 0.07813210383451501
Wild 0.12368682284692052
je@@ 0.03655309848184985
mes 0.026154547288509116
sive 0.03049462793752153
倻 1
Kot@@ 0.12511469194479696
Review 0.10576959078942069
Sup@@ 0.08426810579054117
awa 0.0610482849783098
district 0.012845972488840916
ying 0.02388976428355193
拯 1
煇 1
軫 1
麋@@ 1
Benjamin 0.08817383610259988
Dig@@ 0.15394723650687075
Pter@@ 0.3118448746538705
eu@@ 0.05533038128726866
there 0.006167834287891058
ぶ 1
彊 1
辙 1
1738 0.4789293759687238
Dun@@ 0.06003842273338986
Jac@@ 0.08342729471161131
String 0.5985162525311958
ild 0.18466834827348697
stone 0.030118878279681086
凑@@ 1
睪 1
蝉 1
赚 1
魅 1
鸳@@ 1
August 0.006085706586849934
Mountain 0.06331692691543306
ages 0.013066786283226784
board 0.025376975505182992
kHz 0.5058812329226475
sk 0.06137533701072559
tis@@ 0.034111209781391816
vin 0.07453912709115358
匱@@ 1
妞 1
暐 1
矽 1
Jar@@ 0.07829026533461644
Mail 0.24928186069727637
Republic 0.0299572656843211
WD 0.6001102389019369
isi@@ 0.027004243087063003
m2 0.583185642288277
ulata 0.31999756354904746
yan@@ 0.08962116236466933
ร 0.18116935228981132
卞 1
坠 1
殴 1
烨 1
聶 1
2050 1
Creek 0.0425557146341849
Score 0.5194476408589911
bit@@ 0.05723541984682414
沸 1
瘍 1
蹈 1
ACT 0.4905998993866221
Delta 0.14250619900355957
Hospital 0.044718767212018416
ante 0.009279170014791673
isti@@ 0.05847633174145638
ph 0.13791018280337858
俶 1
朽@@ 1
萎 1
萼@@ 1
1746 0.43672635900254736
More 0.07422419976835051
Tab@@ 0.0678341496992003
Velvet 0.6587528344527513
ku 0.11122199322344098
three 0.005061660866819054
骧 1
鲀 1
龢 1
1516 0.7551633378758499
1537 0.7385953189331264
Max@@ 0.15019493496385258
Run 0.15491466524931932
Tap@@ 0.15472864449245005
count 0.09204167385704895
ew@@ 0.041230772840765116
tree 0.060261570780722314
蝌@@ 1
1506 0.9474541681300043
Fort 0.040146449473462555
Transport 0.0870257582787022
enn@@ 0.024402403914246636
example 0.022951520778281255
otr@@ 0.10857279834462182
窺 1
薦@@ 1
邳 1
鴦 1
1499 0.9060234089382729
1687 0.5640457790749327
Jonathan 0.10930653380172778
Produc@@ 0.10183110085965603
Saf@@ 0.12920136725539824
han@@ 0.09676252465588454
kl@@ 0.024800927637371958
tion@@ 0.03655295133019617
愧@@ 1
緞 1
31@@ 1
Ann 0.10004076905934482
Boy@@ 0.0924442163029793
Car 0.13148060323345584
Kel@@ 0.06833784229348484
boy 0.05840292077779005
child 0.035727518112544474
dh@@ 0.061541888796501076
lower 0.03062246558942021
news 0.04901594854062903
test 0.04087444431832129
urs 0.02846377945927241
乖 1
咳 1
惰 1
阯 1
Has@@ 0.08480700278744727
Only 0.0855783904877206
Triple 0.1685468065907437
idea 0.03725419965000466
istr@@ 0.09572908915388402
tim@@ 0.028980090678819743
癬 1
睽@@ 1
箴@@ 1
Alliance 0.08818683739343602
Bag@@ 0.09157173384639641
Clar@@ 0.09013716449658794
Hap@@ 0.28521607269726934
拙@@ 1
覬@@ 1
諒@@ 1
锭 1
1599 0.6417248191682627
Camp@@ 0.06143012892162692
Commission 0.034859554302374154
ete 0.032395821441637676
kw@@ 0.06727788456207372
哑@@ 1
怠 1
违 1
閭 1
顒 1
驤 1
1566 0.6421642643936658
Formation 0.10956432421027924
ISE 1
Kw@@ 0.2897521267309429
pp 0.27809856944463046
墀 1
揉@@ 1
蜚@@ 1
袍@@ 1
鉢 1
＞ 1
Key@@ 0.1364380138891839
Kingdom 0.030747241667544705
Temple 0.0728845889395955
eti@@ 0.04563824432177697
ision 0.05621363331687944
י 1
ソ 1
檄@@ 1
淄 1
谎 1
韬@@ 1
1528 0.7013118395164916
1712 0.4926850371589861
Lind@@ 0.07822194289787664
Metal 0.11835902494731772
Utr@@ 1
law 0.01510157079299425
oon 0.07909982008874612
傣 1
蠍 1
錡 1
1512 0.7553141277994009
1674 0.5743460636897166
Chart 0.10163305771031787
Git@@ 0.2737633408158503
Soft 0.5610871956852606
TH 0.6707410320397117
she 0.0038433514074148597
syn@@ 0.04997623356708926
▲ 1
ゲ 1
疱@@ 1
蝨@@ 1
餡 1
1717 0.4447671173593021
Arena 0.08985304481084067
Cat 0.2411505566759195
Our 0.11501073138772634
Seven 0.1216119714283161
SmackDown 0.3468689392105907
Wit@@ 0.07116296917156092
dow 0.42022695178175945
ough 0.04693275143143778
涕 1
潑@@ 1
輒 1
鉗 1
閨@@ 1
1656 0.5121225385819916
ICA@@ 0.7038481264573875
alia 0.08633651731003393
archi@@ 0.10161428782190314
second 0.005737807303250435
vers 0.01200021538668057
嬴 1
氪 1
籽@@ 1
胤@@ 1
蹇 1
韭@@ 1
1371 1
Carex 0.8804501349184956
GG 0.5383029361902139
RM 0.38866182749986977
Stop 0.3210531072208441
Wright 0.09654947165702359
XX@@ 0.196998440730077
vo 0.04295240913630164
ゴ 1
嗆 1
磊@@ 1
箴 1
纺 1
1702 0.47388422965522725
Dam@@ 0.0521951766972662
Mission 0.08451748907393691
Solo 0.17937081129378063
Storm 0.14863860416125405
TT 0.3833522642044689
ein@@ 0.007697221892645774
ner@@ 0.03141296093403597
orus 0.26309158158617924
static 0.3250599184237269
your 0.09256946650008738
ポ 1
奢 1
渺@@ 1
蓁 1
蚯@@ 1
觐 1
阈@@ 1
隗@@ 1
韌 1
鳌@@ 1
Mam@@ 0.10676936884457748
Wilhelm 0.03885024903770784
by@@ 0.08272136770046482
cho@@ 0.050327151385777105
娇@@ 1
弭 1
怯@@ 1
晝 1
曇@@ 1
曖@@ 1
杖@@ 1
1703 0.491474980369654
Audio 0.3624959262043403
Stu@@ 0.060671461366352965
V6 0.5705208830171202
ザ 1
儋@@ 1
晕@@ 1
疮 1
蓓 1
蕊@@ 1
觅@@ 1
軋 1
铰@@ 1
Macintosh 0.6512151955456075
Side 0.14295782374432553
nia 0.08925268120574167
棗@@ 1
氈 1
Champion 0.10659474076574613
Les@@ 0.062479502660768675
Modern 0.0816383665883929
Second 0.03249524695658771
inf@@ 0.023540784918939406
okie 0.13698366903258258
燼 1
玮 1
锷 1
Canada 0.014829951857063785
Elec@@ 0.09137737851907067
Mun@@ 0.059637807354087656
中海 1
挚@@ 1
挨 1
歩 1
澧 1
瞎@@ 1
靚@@ 1
Sul@@ 0.07289985791711114
ust@@ 0.05504732392844754
唆@@ 1
濠@@ 1
粽@@ 1
藕 1
蹂@@ 1
through 0.00614077428327624
thus 0.0338806665602621
掣@@ 1
琢@@ 1
锟 1
Creative 0.27587067595106857
God@@ 0.07256575182849484
Top@@ 0.10617942256023462
ann 0.06373077535699748
egr@@ 0.0739067771206508
ei@@ 0.10823132771035501
fri@@ 0.07012626116115196
rol@@ 0.08325917969254933
work 0.00632271046020782
斟@@ 1
橐 1
洺 1
涓 1
箍 1
羯@@ 1
醜 1
雒@@ 1
1546 0.7722681478553308
1668 0.528591858098353
Infin@@ 0.3042904386929972
Laur@@ 0.06686262722992845
Medical 0.06476472342769651
Pun@@ 0.13304256900466832
Thi@@ 0.0757360336631408
eil@@ 0.08346122434547759
fly 0.06961966594227191
僞 1
嚐 1
烁 1
餾 1
1180 0.8160281426087681
Douglas 0.06621507369567281
Lib@@ 0.07426601638401642
bol@@ 0.048234918306702984
rit@@ 0.03887664509841555
unds 0.058851023711429605
ˋ 1
妨 1
搗 1
樽@@ 1
炽 1
糠 1
蚪 1
鄔@@ 1
Est@@ 0.03148619707414495
Jimmy 0.08696447083042377
Pil@@ 0.055609451463088704
She 0.005411816160952313
Turbo 0.49920459943037104
WM 0.1567521731189506
Watch 0.22213791873932714
When 0.013963774122114239
ks@@ 0.041131943606187805
滎@@ 1
竖 1
郯@@ 1
1220 0.8173969188863486
129@@ 1
絆 1
莿 1
阎 1
霏 1
鱔 1
1472 1
1504 0.8444047431316996
Productions 0.13520748063374713
Sac@@ 0.09257403680622739
aker 0.05965936434053775
people 0.00679449070076393
曷 1
煲 1
琏 1
脲 1
鮪 1
1596 0.5831396683583553
Lab 0.34105808503262164
Moore 0.07491843129043103
Singapore 0.07967352013726924
aus 0.0027584187796380923
lan 0.06747946930269567
ogr@@ 0.08349768919087586
咁 1
徭@@ 1
蠔@@ 1
Kas@@ 0.040910515995894
PCR 0.6447810986440088
Po 0.3561808468115913
琢 1
膾 1
鑾@@ 1
HQ 0.48237520442198767
Khan 0.06274115266409401
Sher@@ 0.08466470858678554
Sum@@ 0.059813524603745685
acid 0.09224827083017387
eli 0.06852354197217436
when 0.004190466693495642
∈ 1
ぐ 1
喷 1
1440 0.7602170890364757
1534 0.6268764606806432
1617 0.5669374190416032
1711 0.4546354720421631
VP 0.16357214207809742
win@@ 0.1094103115019951
劭@@ 1
蠣 1
鞘@@ 1
颢 1
駝@@ 1
1543 0.676207886846305
Army 0.016670776048045826
Cul@@ 0.0687721983388612
Kom@@ 0.028513251971401497
any@@ 0.049708681446114664
ements 0.01465159268556659
enia 0.2060873007193611
iz 0.08885400169216265
lex 0.29579955445371486
ses 0.004663000671579124
玥 1
瑩@@ 1
謫 1
赭@@ 1
Bak@@ 0.05704283386039677
FE@@ 0.461556061963997
Forever 0.32593261580298694
秤@@ 1
蘋@@ 1
郓@@ 1
1557 0.6810975638633614
1663 0.5410702603837196
1719 0.45108890619575753
Zen@@ 0.20649843774175491
ef 0.06383612208140386
index 0.1933060716942203
啸@@ 1
汨@@ 1
溟 1
舶@@ 1
袜@@ 1
铍 1
雹 1
頹@@ 1
1507 0.9891529191853228
Mind 0.2590203269585719
Movie 0.20377604975945818
Nak@@ 0.10012432256179614
ais@@ 0.03150055229589061
ord@@ 0.02100647551786703
plus 0.003593355712167767
ά 0.07399668919484655
勗 1
殆 1
谛 1
阀@@ 1
1513 0.7636670934304414
Florida 0.03058756811043457
Frederick 0.07518334882929245
Ian 0.10732939606851805
Ng@@ 0.07589924601942422
Sus@@ 0.06995999169902789
each 0.009533796489001354
flo@@ 0.026891644137677834
former 0.008429813531089887
oli 0.08347310486018925
崂@@ 1
犢 1
Dat@@ 0.14740468588532574
Der@@ 0.04634297676314871
Que@@ 0.284549454377807
Rap 0.43538539628132533
Work@@ 0.17410058241946638
amin@@ 0.09218568506653955
mit@@ 0.02448803544050912
暠 1
耒@@ 1
詰 1
铮 1
頤@@ 1
1676 0.48576115904581246
Ale@@ 0.09445197318564215
Beat 0.2638678363060835
CO2 0.31947458049446686
Chen 0.1707020068837153
Christmas 0.07408083237670687
Energy 0.09841397287079154
Pier@@ 0.13224112950384104
Sa 0.04016703075613677
Shop 0.3386710112913148
Spring 0.1083296433143986
Vic@@ 0.06478140473379033
aea 0.2117937950382764
var@@ 0.04404804561485081
≥ 1
宕@@ 1
糜@@ 1
Bos@@ 0.054204911764391024
Ny@@ 0.10848086165825911
cal 0.06765663018247753
entr@@ 0.0195890040520449
qu 0.030534339707031035
ws 0.03740661677435901
０ 1
Asian 0.04469946844708882
Gold@@ 0.05998592163786264
latitude 0.3760035005030339
勰 1
嘆@@ 1
爰 1
瞬 1
竞 1
褻 1
鈷 1
Beach 0.05372876290488271
FP 0.4629963609823075
Index 0.1944641911476029
Pet@@ 0.08244959480401057
otus 0.276901957315716
碗@@ 1
稹 1
繭 1
讫 1
跖@@ 1
躁@@ 1
逗 1
Never 0.21059341530177636
Nik@@ 0.07631959556829249
Russell 0.08332224286841085
Silver 0.10078649167979888
Som@@ 0.08138780134573007
bes 0.0490929997039137
level 0.017068799114858084
へ 1
燉 1
痹 1
粪 1
蒿@@ 1
诃@@ 1
chu 0.2597661060809185
err@@ 0.032265268758147544
lip 0.11452094318519863
淩 1
絢@@ 1
縉 1
録 1
陡 1
1682 0.5021429501478996
March 0.007495677023763956
Ware 0.3558857063735553
ches 0.015152836581118542
etti 0.04619752870128465
mini 0.1311626409768703
疃 1
铬@@ 1
鬃@@ 1
1270 0.8276121101797327
1608 0.5532366008322473
Factory 0.22299628085544493
Fly 0.3477673825774643
KG 0.30109708108962996
amer 0.16034035361144874
ges 0.022903983721063736
ities 0.04038943192470609
press 0.04309928327797884
喱 1
朐 1
洒@@ 1
灝@@ 1
蛻@@ 1
鶘 1
麝 1
IB 0.4807749502628454
UFC 0.20084999971745887
duc@@ 0.04382203585782728
edia 0.17758660509009885
power 0.015217641835020192
潢@@ 1
砜 1
1204 0.8043805838914314
GR 0.3938608159293513
Lost 0.15771368984937273
Set 0.233472625711406
acker 0.10011920207600349
burg 0.024012118645770807
emp@@ 0.03053580440289466
eth 0.06117073744537509
囂 1
塱 1
隅@@ 1
靡@@ 1
骅 1
----@@ 0.871112386839911
1692 0.5015172649390024
1705 0.46166876913465127
AH@@ 0.6514241987770684
Bri@@ 0.05009387966901456
Lap@@ 0.13381083258558943
Ober@@ 0.0146179516251783
Palazzo 0.35771152561890174
Water 0.08122153816056797
ame@@ 0.0763111884534397
uni@@ 0.036709221596653366
孃 1
帘@@ 1
柬埔@@ 1
瀑 1
疹@@ 1
靛 1
鳗 1
1549 0.7065052678068153
1743 0.40092062600724593
Again 0.19653198410326378
Ca 0.43102388120232926
Fir@@ 0.0705350712113943
Fun@@ 0.103501727872745
Perfect 0.3931697199083281
fu@@ 0.04656308074784529
ister 0.041755916829228475
nor@@ 0.02891458824356987
odi@@ 0.0396227699850289
rent 0.08562177037970821
tern@@ 0.07435951509489766
χ 0.49921867027352884
獼@@ 1
鈹 1
1704 0.4381935362715725
Sing@@ 0.0907960513819445
ains 0.016642385676034325
home 0.00983691762054834
ier@@ 0.021482904743509803
imb@@ 0.0830031560848397
厩 1
揉 1
暄 1
碓 1
芩 1
蚺 1
誇 1
赌 1
辎@@ 1
閤 1
1464 1
Deep 0.17178542747379003
Ring 0.12350552266136404
Sarah 0.07715307743441148
Say 0.3156877228555273
ZA 0.7463160206993229
agr@@ 0.05975132164009978
ments 0.01843901070136763
ベ 1
娼@@ 1
枉 1
竣 1
1470 0.6804572806707488
159@@ 1
afe 0.15336199758142577
aqu@@ 0.04137582922925333
fa 0.09149453035254204
lamb@@ 0.8117364351551998
opus 0.17260024880979555
top@@ 0.05147777301758716
晩 1
沢 1
眩@@ 1
虜@@ 1
輋 1
Fro@@ 0.10330929927466415
asi 0.09613191657959831
city 0.007714625635650183
series 0.006723657965801327
soft 0.14233806168769134
tal@@ 0.026148784819539368
甩 1
簪 1
谟@@ 1
Pink 0.21177029849592988
Scr@@ 0.26359417397879975
album 0.005135431322144212
mil@@ 0.0319663368362403
til@@ 0.030428752279760874
® 1
徳 1
昉 1
樵@@ 1
氡 1
沮 1
溼@@ 1
痫 1
AMC 0.5403484070059226
Eff@@ 0.07801770629793488
andra 0.12362885029929323
berry 0.14657858380828787
may 0.007022240091102883
such 0.004845304197735941
△ 1
愁@@ 1
捞@@ 1
橈 1
潦@@ 1
濮 1
筊 1
钠@@ 1
Under@@ 0.10849707260506594
ope 0.09023019349022782
wer@@ 0.023103323003783535
ギ 1
们@@ 1
儡@@ 1
柚 1
聳@@ 1
菖@@ 1
龚 1
1554 0.6332122503274293
1694 0.5284633780154707
Every@@ 0.25669414445934635
aun@@ 0.04370620392950462
咯 1
恍@@ 1
氘 1
猬 1
胀@@ 1
钛@@ 1
Meth@@ 0.16184308430456362
della 0.1522901532660979
him 0.004630119568214905
plic@@ 0.07684965995536507
school 0.007054388886393706
朮 1
樺@@ 1
痊@@ 1
耸@@ 1
At 0.008654703474064511
Beautiful 0.28077558966236715
Billy 0.08499050093419563
Lou@@ 0.07052906845057177
Machine 0.15992894488590126
Oliver 0.09395220622900219
One@@ 0.3960707709793758
Technologies 0.30230600623160586
format 0.04294395943693589
蝮@@ 1
覦 1
鲱 1
1451 1
Aur@@ 0.08262031145174697
Europe 0.013353120519856671
Vent@@ 0.1206330431797843
ait 0.008634284344223064
show 0.011130035551666893
wi@@ 0.05080726627119232
Á 0.21121537681226113
蟆 1
軛 1
骸@@ 1
Steven 0.1207074643623753
esti@@ 0.04447363183803434
file 0.11297519702298948
works 0.015073383522440063
凪 1
莢 1
锈 1
闢@@ 1
1515 0.6120609252080808
Giovanni 0.09037647631893624
band 0.009692950787588995
び 1
嶷 1
甌 1
砥@@ 1
篩 1
羽毛@@ 1
隣 1
1275 1
1678 0.452731606243434
Hir@@ 0.05487928259119605
Pie 0.3912706378325352
There 0.008847062706793385
Universal 0.08979206139550108
iller 0.053365675859177224
super@@ 0.019662859178929477
year 0.00418946513392197
½ 0.21838121510142247
妍@@ 1
鱉 1
Yu@@ 0.14080392534987085
channel 0.046474409933218476
ext@@ 0.044726176611811684
ό 0.06511385145138825
ヤ 1
恼@@ 1
憚 1
捩@@ 1
疤@@ 1
竑 1
鰓@@ 1
1716 0.43772385532461705
Cru@@ 0.07771671976438921
Hum@@ 0.056210569337720194
Sweet 0.19934002488108388
Wave 0.28561689735512424
Yes 0.3939253681907645
ango 0.08179208291172735
away 0.018834579830795586
order 0.01351281795460998
result 0.019396852867168062
ˊ 1
伉@@ 1
冑 1
擋@@ 1
汜 1
玷@@ 1
窜 1
腌@@ 1
鳐 1
Ass@@ 0.10407465865981023
FIA 0.2949526982180615
Lanc@@ 0.19912157832343685
圜 1
撼@@ 1
滷 1
漂 1
阗 1
鴛@@ 1
1382 1
Studies 0.06746387601766143
Ten@@ 0.07146590411649617
bird 0.08893775171782292
cel@@ 0.029516378939208568
ple@@ 0.03324604683435401
talk 0.1037875222933185
ه 0.05122815606911802
淖 1
甥@@ 1
苇@@ 1
178@@ 1
CAD 0.6298207522629584
Michel 0.04979869917376538
Mode 0.2618197916924915
Scar@@ 0.1020318753122153
Um@@ 0.023621242571578983
ather 0.0630724206811659
major 0.011482740481184311
own 0.010002728824995956
tom 0.09282356251190454
trol@@ 0.08820412243883957
ぎ 1
坻@@ 1
寥 1
巩 1
疤 1
萘 1
觐@@ 1
Flo@@ 0.11032177285935946
Friends 0.14966073379780484
Tokyo 0.05900610136335309
ther 0.07080324119853793
屁 1
瞎 1
紇 1
諫@@ 1
賬 1
钕 1
钝@@ 1
1420 0.6820874613671594
Daily 0.08991832157157108
Ec@@ 0.07210982711108666
Thompson 0.08382986174000202
family 0.00605682439026146
rie 0.07171862502501329
sec@@ 0.023005102821658015
sole 0.11893998838283903
旷 1
訛 1
訢 1
譙 1
醞@@ 1
1185 1
Kill 0.3438747044274987
Maz@@ 0.06397590522924741
Real@@ 0.2324424469520256
pur 0.07224040980124721
櫥 1
燙 1
窥@@ 1
1696 0.5056974138085771
Bru@@ 0.04374801341654207
CBC 0.32899113086664283
Orange 0.09053392002181636
illi@@ 0.0654596191315489
nom@@ 0.0424144363590164
ont 0.006302385226845765
廨 1
皋@@ 1
簾@@ 1
荐@@ 1
銫 1
Aqu@@ 0.07170681957509051
Bun@@ 0.08986453615185906
Eth@@ 0.06955455087590666
Grace 0.12507914846709237
Justin 0.1445673537720295
Law@@ 0.07098577283032068
Sailor 0.597111782260708
icon 0.13399458566145636
mot@@ 0.03051955342845071
ont@@ 0.05733247905818835
trop@@ 0.07794246937136697
war 0.0017511030909857451
揄 1
琇 1
筵@@ 1
飙@@ 1
鳶 1
FI 0.4667094645489335
Tol@@ 0.06821450455734707
ands 0.028462006868974092
car 0.014168311789401198
length 0.032010007001408415
sea 0.02287755986969788
疲 1
谚@@ 1
谬@@ 1
赟 1
Conference 0.03615707752037463
England 0.012410975603743301
Gran@@ 0.05860626521596931
Hyp@@ 0.16716897548173276
Number 0.21804763238043334
ecraft 0.19182074339629665
咕 1
嗚 1
挽 1
畑 1
祟 1
耙 1
蚶 1
褚 1
贅 1
1415 0.8018030748113243
Dav@@ 0.060361135306665606
Dead 0.10423422720937284
Ever@@ 0.10150639437644098
Rain 0.29132805207829826
XI 0.09289716347408429
off@@ 0.020665873978372246
root 0.17235592557182325
zone 0.02877222242157353
ペ 1
俏 1
傕 1
攣 1
朦@@ 1
珲 1
瑯 1
缙@@ 1
High@@ 0.07704849540238845
IST@@ 1
JP 0.33564653678052314
Single 0.08544360991354456
anger 0.0516571023263481
object 0.09885764602775396
page 0.05748871677123076
set@@ 0.10779230529583646
umb@@ 0.057307786777125
棧@@ 1
韧 1
鰨@@ 1
1691 0.522298972288244
Area 0.062205145950121
Cot@@ 0.07142715277488021
Fel@@ 0.04798921350833322
Jam@@ 0.0821788816840668
Lin 0.27989067743960716
Mar 0.11530360066026575
Mathemati@@ 0.10110071578760274
Plan 0.07200494921086698
eni 0.08258260196895771
oke 0.06128146948011799
र 0.03514114879998331
諭@@ 1
1548 0.666638925717911
Alabama 0.07030881362133817
Math@@ 0.13375746850960585
Ob@@ 0.04569669145414878
Seg@@ 0.05593826149864644
oy 0.059708756661826845
ston 0.06087326237874261
uti@@ 0.06317492565179413
棗 1
炅 1
璀@@ 1
鶇 1
＊ 1
1390 0.862482189398258
1706 0.47545344245848553
ABS 0.49756183057611814
Nature 0.12414778061843167
Roman 0.0214228380154235
aye 0.0669349527159157
ces 0.011116937801843923
da@@ 0.07055987305193819
fish 0.04243788869543285
plat@@ 0.05345977863751728
豺@@ 1
鼱 1
1693 0.48888016218530034
Bad@@ 0.050823636514032336
Guy 0.08786108745065818
Lawrence 0.0745469178886758
control 0.015679428315342397
culus 0.39460475313178933
ering 0.036804493433162715
ista 0.017427542871609244
itor 0.06490956630204689
san@@ 0.029756260709461288
ull 0.1814360548931406
ž 0.6062781677480071
挟@@ 1
檄 1
笠@@ 1
覃 1
1498 0.8187624651423777
Cou@@ 0.07612108356099923
Luis 0.03648650157523877
Television 0.06120986464519679
Tem@@ 0.07614167778120003
cop@@ 0.03786999580539174
pil@@ 0.03407913887585819
ו 1
扛 1
蜢 1
鎢 1
钋 1
鯔 1
鶲 1
｜ 1
1480 0.5644200472358113
Low 0.16565799866651845
Lun@@ 0.1408074667718861
Monster 0.2615265764443322
Riv@@ 0.09025727210041452
Vincent 0.07736003337115752
ards 0.02544313208865249
iti 0.09012523108923423
multi@@ 0.046027467266631907
仡@@ 1
玘 1
痢@@ 1
蠢@@ 1
鈞@@ 1
1340 0.7407369238302195
1531 0.7239109464523242
Brothers 0.0834867157439541
See 0.045023600286106864
Sid@@ 0.10579488823182165
mus 0.09476717840031768
round 0.01520287021127374
ş 0.22730468710555435
悯 1
鮎@@ 1
默德 1
1330 0.7394106700753057
1686 0.4672869043770422
Anti@@ 0.05024954139452329
Cent@@ 0.08485170275171715
Washington 0.015702447502850127
ben@@ 0.02469207994154297
俨 1
晗 1
炊@@ 1
窿 1
鄜 1
镠 1
镭 1
1234 1
1433 1
Joy 0.253942157206683
azza 0.33968649839567977
cs 0.05873346649284722
enberg 0.04180531265942178
勣 1
孪@@ 1
1533 0.6612279382123888
Chin@@ 0.0896741585476168
Jordan 0.0752464225561751
Lan@@ 0.056012067951903916
Lem@@ 0.07771235411839242
Num@@ 0.08226142924957348
́ 0.011097015931831202
1240 0.7094733071195295
DN@@ 0.3323636253198457
Ford 0.046396397323967206
cat 0.13910176372013916
load 0.07223440262537857
sum 0.10728333886909602
睫@@ 1
锆 1
闾@@ 1
Death 0.05050104407636891
Ev@@ 0.06763661422806094
Hur@@ 0.05769146525958112
NK 0.36991435259266275
Version 0.07700142045451071
amo@@ 0.0771753737178786
ded 0.02568531964693487
lu 0.08058413685940244
uf@@ 0.058692696570312244
Л 0.07392196733229621
箐 1
蔴 1
3rd 0.04839308292872175
Day@@ 0.10009072532766185
Memorial 0.057098034750463454
Nag@@ 0.04890776112659449
Tin@@ 0.11883008363751128
Urban 0.11601677430085659
Work 0.11727194767855999
ector 0.10271761787649149
eller 0.03271281278597459
fol@@ 0.04256091358763653
heim 0.02851086608460741
阙@@ 1
1435 0.8788458102843169
1551 0.6244153891505291
Ah@@ 0.058723478804524366
Call@@ 0.1163380063848152
Chrom@@ 0.23530011256027056
Heart@@ 0.2944646152072311
Int@@ 0.10062063050614477
Radi@@ 0.06758405827329132
Revolution 0.05197757731975506
Songs 0.07152703233456514
Spar@@ 0.08059393437659756
eless 0.05458964800401981
enne 0.017985792894094056
good 0.023279832261175
mon 0.0861910950368346
osis 0.04906743278440996
wing 0.02288477987439028
铟 1
锣@@ 1
Bil@@ 0.039948027137257244
Face 0.18876312097606068
Se 0.012042282698058755
Tit@@ 0.05194986841751928
ark@@ 0.03291614247718506
esp@@ 0.02859062761771659
loop 0.1750077750225813
method 0.0536012313429862
minor 0.04497173259098253
↔ 1
镧 1
1279 1
1708 0.38771867324570053
Fac@@ 0.06611835557135312
ache 0.035563592354074726
arius 0.14037678347823973
nic@@ 0.10828620167607207
sch 0.028148308902452505
ヒ 1
啞 1
斯洛伐@@ 1
钵@@ 1
1392 1
1404 1
Gas@@ 0.05178644075518533
Hunter 0.10512344014330424
LAN 0.6609035833026439
Mb@@ 0.5085397992976897
Peace 0.09573545368852054
between 0.004117787514601635
lers 0.024375765160142403
na@@ 0.095601042010236
ogen@@ 0.05879613817079697
rey 0.030343895307619655
丟 1
锶 1
Bud@@ 0.07626465919474759
Dou@@ 0.06295190680489694
Graham 0.0861751111584272
Sou@@ 0.05232657189540631
gon 0.27645032986853485
templ@@ 0.2010721569787948
囑@@ 1
寔 1
揖 1
芪 1
銹@@ 1
1385 0.8891181139417816
1695 0.46081346114748195
Album 0.032674643432262285
Hope 0.12043743758557379
Phil 0.10917509328102719
Robinson 0.0818099237825751
cho 0.0083795527740989
illus 0.30443502134803163
tre@@ 0.020989943972570698
咱@@ 1
拚 1
泫 1
鉻@@ 1
＜ 1
Charlie 0.08113197858357578
Franz 0.043620833699795664
Green@@ 0.07133806707997907
abr@@ 0.05747397694099365
ades 0.02190645301777192
ư 0.7489171271304363
喂 1
滄 1
発 1
舂 1
钗 1
闺@@ 1
Community 0.05300258345253258
DJ@@ 0.3339922644318648
IATA 0.8391017777520203
Jacob 0.07758159728869625
Jet 0.2806341726660629
Ric@@ 0.09852855417114395
array 0.21270393492290354
ign 0.1083327062079226
ime 0.06133701938801303
mph 0.1999865889889454
polis 0.09463302119473625
ports 0.04568892080712743
verse 0.0406202447004742
vic@@ 0.03452315196021862
叱 1
塬 1
摻@@ 1
熏 1
聳 1
蛄 1
谘@@ 1
遏 1
騫 1
1320 0.7689826867260442
Apo@@ 0.11951617829723446
Lol@@ 0.3859546327380392
Moh@@ 0.07188528671666905
Right 0.15687095179927002
eb 0.10348705058983645
gic 0.21815898121600058
mb@@ 0.05821885136043438
rel@@ 0.013196534938231525
ˈ 1
弈@@ 1
惩 1
橡 1
淦@@ 1
灏 1
畈 1
篷@@ 1
藨 1
钺 1
雉@@ 1
1509 0.7787351080267014
Pav@@ 0.07287545625526863
ump 0.10670880055177231
ures 0.024662656415490234
ː 0.9718778524977039
愔 1
漓@@ 1
釵 1
锌@@ 1
1066 0.831465395116481
1539 0.5588106842688214
Def@@ 0.13351337646114167
Lat@@ 0.05157861575018373
Pep@@ 0.10760025857991956
Sof@@ 0.14820678217736427
ean 0.06083664875547705
four 0.006330473539972946
macro@@ 0.22658621230598322
mod@@ 0.03267995206205647
吶@@ 1
岬@@ 1
戊 1
葦@@ 1
飆 1
Cab@@ 0.06437969504503605
Ice 0.11076953897438377
KM 0.80979557590962
Sph@@ 0.18104191123054952
ando 0.00678710159841104
cel 0.22100239865132137
plication 0.15582096380776206
tube 0.13754959059122537
儷 1
悶@@ 1
摹@@ 1
綝 1
驢 1
鷲@@ 1
Ed 0.1107524779906929
Fres@@ 0.08417742696023413
Ret@@ 0.07685091765482104
Swe@@ 0.1324639021699468
call 0.043761148690369546
kings 0.0946871901660685
omo 0.10307341324588715
onn@@ 0.02303093689603703
them 0.005649857735573315
喔 1
礎 1
肱 1
脛@@ 1
芷 1
荳 1
贲 1
镌@@ 1
4x@@ 0.5132966918849355
Age 0.07990116474377178
French 0.010565418050430493
Full 0.2004494591234452
Harris 0.07201947430754788
Mut@@ 0.07736580220933541
Norman 0.08194536987963494
Southern 0.03132603197123456
dei 0.19638294362415706
edo 0.054470351750633667
傍 1
棣@@ 1
殮 1
涤@@ 1
簋 1
袂 1
躯 1
铠@@ 1
３ 1
Bau@@ 0.015766064818898577
Change 0.2105464459327843
DH 0.5345648099946112
Generation 0.11738146832349422
Margaret 0.06867201306949178
Ner@@ 0.09412764472907274
Patr@@ 0.04279341403683482
Rod@@ 0.07820828580074685
lac@@ 0.08237946039503814
node 0.2302031945181131
哌@@ 1
埴 1
嬤 1
廸 1
摯 1
汎 1
煒@@ 1
铿 1
MiG 0.39424071602458116
OC 0.4332982706324038
Word@@ 0.6560149578832589
慤 1
扒@@ 1
毙@@ 1
濺 1
蝟 1
銬 1
Original 0.11331266594441029
Pack 0.42239567075928813
Roy 0.07406715935419737
imi 0.09038224984084316
iner 0.06394717374203099
ony@@ 0.08534093087333224
urn@@ 0.060704974766751386
vin@@ 0.03288230156764409
峦 1
祆 1
綑 1
膊 1
菇@@ 1
菰 1
菲律@@ 1
CAR 0.8575863979288829
Kap@@ 0.04665034431768926
aire 0.009424860721195059
mm@@ 0.30476234707132516
冢@@ 1
剔 1
嘩@@ 1
笞 1
蔥@@ 1
阉@@ 1
By 0.01473840021803719
Four 0.05243872633771349
Search 0.3250423211968653
tors 0.020156268239490023
ས 1
惶 1
瑣 1
蓟 1
钳@@ 1
铀@@ 1
fre@@ 0.02029283998977428
sum@@ 0.025550911016636986
Đ 1
绶@@ 1
1356 0.9852393260547087
Thor@@ 0.0738729083000921
ball 0.028471499073783345
lard 0.06376381299771647
look 0.05685978764792987
radi@@ 0.03760071605833625
Ö 0.2106279789004337
ù 0.2770587008075059
扯@@ 1
曰@@ 1
榛@@ 1
皎 1
蜑 1
酝@@ 1
骡@@ 1
Campbell 0.07850969781334122
Equ@@ 0.1270066390128389
FK 0.12250966191672145
Graph@@ 0.35183679092246345
Here 0.08970741900926844
Partners 0.2331977690107024
Phyl@@ 0.23022255937911934
Vas@@ 0.06958875043152793
aj 0.08135637320826955
astr@@ 0.04225834629410908
break 0.050833899019484846
din 0.0677867288522743
team 0.004440160133464233
榎 1
珙 1
繽@@ 1
衬 1
袱 1
Ach@@ 0.048427832779311605
Active 0.3867027324818531
Kil@@ 0.04570940275141155
Lag@@ 0.06708274281538684
Leg@@ 0.039513303407753504
Room 0.15800786180304563
beta 0.1978399564366589
big 0.04743888091709651
longi@@ 0.6628862308045101
osp@@ 0.0815528164269447
惋@@ 1
揶@@ 1
芾 1
钍 1
1360 0.738607102800014
1388 1
Cav@@ 0.07051687564090742
GmbH 0.06814286544077429
asp@@ 0.14017022511062813
ceph@@ 0.23734701487749074
戾 1
挟 1
礪 1
鞠 1
Exchange 0.13805055227359878
FR@@ 0.35362883917522353
Fron@@ 0.09858309360759444
abe 0.0510513942306016
equ@@ 0.0258678423806045
ider 0.0454603004111262
mode 0.05628985819055749
拽 1
曄 1
渍 1
薙 1
譁 1
鏢@@ 1
飭 1
1170 0.809936715571309
1677 0.5063373314731425
Bow@@ 0.06227226912450988
Tik@@ 0.28205012270109303
other@@ 0.06725112939643282
û 0.7062570931012748
ж 0.03487323300890853
刃@@ 1
嘢 1
涞@@ 1
瀟@@ 1
痙@@ 1
藁@@ 1
驭 1
Bang 0.1917205756160505
Wing 0.12718680184860784
agu@@ 0.03835406515740866
aud 0.035913349096098675
dus 0.22671609944002533
ges@@ 0.01507478886944702
wa@@ 0.05188858951662014
吒@@ 1
毯@@ 1
獠@@ 1
粽 1
胛@@ 1
裟 1
顔 1
鲑 1
鹟 1
鹬 1
Crystal 0.17710230729393964
ESA 0.40944971655310125
Leon 0.1404076355122746
Mars 0.09575257691205773
Trich@@ 0.22571960139572753
Trust 0.07377564639478812
auer 0.03894595045033504
bot 0.058903235172768006
river 0.023980769151810084
徠 1
腮@@ 1
袤 1
1494 0.7390698872941822
Dean 0.07762069550911335
Elev@@ 0.21377832728905963
Gate 0.1534456712448335
Government 0.025482740934103666
Morning 0.14155679954668496
Off 0.15014438932836163
Princess 0.09673456426255185
Te 0.17100278549043132
Test 0.0775852233008077
Way@@ 0.29624797999090624
Youth 0.06722142544528292
gia 0.018220749089764374
gun 0.04318018979569091
oper@@ 0.027892822219400093
phus 0.1783184496188294
臍 1
薈 1
蚩@@ 1
诋@@ 1
郤 1
霆@@ 1
1402 0.8931424896314635
Books 0.10053957050925696
Cus@@ 0.09705652962156065
Hat@@ 0.07608205121053013
Heinrich 0.03531065084805448
Hop@@ 0.10713842376200229
Major 0.03486161787036976
Sciences 0.04978083538815916
Tac@@ 0.11570820283675967
They 0.006967426043923273
Vice 0.06787315820384279
Yan@@ 0.11288330278160036
net@@ 0.05605587170497094
ska 0.06997442926623207
tii 0.44313383472080764
吼@@ 1
堑 1
曳@@ 1
缨 1
蟀 1
1406 1
1671 0.48093649985016046
Cher@@ 0.06540361292690211
cis 0.29644637077962493
oft 0.04216781742516869
park 0.02255217129334502
rt 0.24602202238912632
铈 1
리 1
﹔ 1
Ax@@ 0.1427941842677752
Korea 0.046043144259547815
being 0.004757058487258173
ize 0.050997982276485734
lot 0.028924848964251796
oud@@ 0.29784075854405617
vit@@ 0.05470237379453527
zy@@ 0.051509993366183386
岙 1
枇@@ 1
楸 1
涤 1
翘@@ 1
辄 1
錕 1
钏 1
鸯 1
Australia 0.012531734349928384
Mg@@ 0.9818311470028009
chan 0.266767771164424
eva 0.06817581084186006
lib@@ 0.11831690767663389
ross 0.12395487807006668
yth@@ 0.16328117512729262
У 0.03985746415379163
夙@@ 1
挹@@ 1
淘 1
萘@@ 1
锺@@ 1
馗 1
1190 0.8288791024512292
Concert 0.2317481001755468
DN 0.789087510063416
Legacy 0.12281850346600216
Leo 0.08958142036303725
MLB 0.19990602480042702
Morgan 0.06787328295885844
Page 0.14645686632790408
Police 0.0462589739653668
Sing 0.34581785921833047
Smart 0.26544499707464625
aver 0.09926074932403184
flow 0.06383967809018092
lit@@ 0.03219892037721695
open 0.019297439820672536
ski@@ 0.06242693418216792
坻 1
増 1
擄@@ 1
皺@@ 1
绮 1
鳟 1
Beg@@ 0.05554896773384151
Boss 0.37645159855732024
Jon 0.11138213882770882
Kenneth 0.15180389055553886
chu@@ 0.13935155029329382
ett@@ 0.03691709574205718
hab@@ 0.03238022391469937
onal 0.030990595349416644
両 1
冏 1
宸@@ 1
屑@@ 1
嵙 1
謇 1
钮@@ 1
阡 1
Dic@@ 0.11371210678556644
Ful@@ 0.06977128384417548
Mart 0.12934434728069702
Phil@@ 0.05767700176484847
Planet 0.1785939483800526
Wonder 0.23463486569202816
eau 0.01612199001075241
eman 0.0480332371726731
language 0.01582383322225233
made 0.0039432784571050775
ocy@@ 0.12592303510173808
oud 0.059592566117554716
ox 0.22448026785635272
zy 0.12516293264823264
吲@@ 1
哦 1
庠@@ 1
惣 1
氰 1
牯@@ 1
蓀 1
覲@@ 1
Ast@@ 0.09995435004452152
Bran@@ 0.06619857366626627
Il 0.002486457287342193
Report 0.13360112878947142
bye 0.2192276293244874
dem@@ 0.014590868859316796
gracilis 1
phone 0.04695580301116417
ˇ 1
佺 1
沱 1
篝@@ 1
蝸 1
1230 0.606623363136742
1503 0.6313807888499229
Beauty 0.28732881470122246
Come 0.17583714905610578
Soci@@ 0.07234901670579756
agn@@ 0.043192385738146315
hr 0.17074419366379187
uni 0.09242599062572696
瓮 1
蹲@@ 1
錒 1
雒 1
Ball 0.09780875941067509
Hero 0.20532600589928562
MCA 0.3187175979422216
Memory 0.3799878487577681
Pent@@ 0.11876941419084426
Sto@@ 0.05086636733596596
Trade 0.09018222585153472
single 0.008128446056173567
tron 0.18108939225299364
佃 1
佢 1
浒 1
燎@@ 1
緋 1
诀 1
钾@@ 1
Arm@@ 0.06577709659430539
Carolina 0.028682768061412043
Grande 0.03956675762980736
Rio 0.048593976114566194
aku 0.1705970415575403
ec 0.08796044964245947
gan@@ 0.04025790508373999
ij@@ 0.0882625890564702
make 0.012871099671807891
冇 1
祯@@ 1
靳 1
骞 1
＃ 1
Enter@@ 0.1638424708472004
Fed@@ 0.23620570306196317
Federation 0.053563982959794774
Fred 0.08205037836115353
Guide 0.14362830016769282
Jer@@ 0.065048528691199
Wang 0.0990138577497764
isi 0.05133826085249373
mont 0.03959595625398523
ï 0.12161675213377973
忿@@ 1
桶@@ 1
溼 1
紘 1
蔵 1
鹊@@ 1
Baker 0.0833749988414556
Child 0.12660433514508082
Evolution 0.2737451158485365
Sex@@ 0.09914885588084643
Via 0.1905385812027341
Writ@@ 0.18096838907895965
kel 0.03953501038650847
pic@@ 0.0365565797586916
theory 0.03514579925976522
ulation 0.037165338085779855
咩 1
坨 1
滌 1
舯 1
貘 1
鞮 1
鼬@@ 1
Abu 0.09807845663950973
Country 0.05074280411478268
Culture 0.06047435980671698
Larry 0.11076178259465405
Pyr@@ 0.10078798516654482
Sad@@ 0.0765854318937743
Wanna 0.6126669875257906
ads 0.030947997704441413
bury 0.04593660722996884
change 0.018731411550897862
enth@@ 0.055342167413113326
sam@@ 0.038069645621419616
[...]
