, 40383438
. 38741872
в 23217722
и 16043789
@-@ 9276523
на 8621319
) 8384807
( 8361292
— 7948827
« 7199178
» 7195185
с 6371973
В 5816756
года 4643830
&quot; 4295802
году 3503865
по 3411009
к 2959469
не 2920028
из 2842356
: 2446409
был 2318867
от 2081743
что 2073403
у 2031840
а 2003704
ной 1944126
за 1895027
для 1708347
но 1703228
его 1693103
ных 1661922
ского 1654774
как 1653744
не@@ 1640925
; 1590221
ской 1570638
ный 1562949
до 1517399
он 1501595
у@@ 1484277
ного 1470332
ные 1445698
ли 1440549
о 1407646
на@@ 1397969
ский 1396216
ла 1380609
по@@ 1370782
л 1330979
ки 1311962
за@@ 1290248
ка 1257579
про@@ 1249114
ном 1221355
ы 1203744
ная 1172044
й 1168824
при@@ 1157396
е 1154045
ным 1135248
также 1132669
С 1121718
с@@ 1121199
т 1120232
м 1115385
вы@@ 1100486
ли@@ 1072311
пере@@ 1055247
была 1044685
том 1041221
ль@@ 1038266
в@@ 1033656
до@@ 1027353
я 1027025
были 1020883
А@@ 1020081
ное 1014109
ко@@ 986167
было 979426
во 977624
т@@ 956704
время 953158
та 950757
ская 933814
н 929585
но@@ 915482
со@@ 913091
ском 912387
1 905461
О@@ 904103
ни@@ 895711
или 894901
ре@@ 892530
же 888836
о@@ 887125
при 862860
х 862598
к@@ 856526
ка@@ 853274
ю 853058
д@@ 850355
ш@@ 846993
м@@ 837759
ль 831706
́ 829146
ро@@ 824541
ны 823903
ты 821489
ских 821440
ра@@ 812107
2 795386
э@@ 795384
са 790135
ную 789886
то 788818
ва@@ 785422
ке 774866
Э@@ 762163
ло@@ 760880
С@@ 758071
от@@ 757102
И@@ 753247
У@@ 751900
ти@@ 751706
после 746740
д 744273
то@@ 739109
да 735235
ри@@ 734633
ло 733436
г 729925
р 727364
ве@@ 725655
ле@@ 716177
ма@@ 713398
а@@ 709892
ров 707984
во@@ 702010
ку 701141
На 699814
мо@@ 698146
ви@@ 696756
и@@ 687611
ными 684866
ди@@ 683415
п@@ 680414
л@@ 679921
ж@@ 679483
та@@ 678559
ков 678288
б@@ 678000
ть 669611
раз@@ 666313
ма 661184
го@@ 659583
де@@ 659367
под 655254
По 649031
си@@ 648495
де 647413
ра 643326
з@@ 641611
лись 638658
области 634561
их 633377
3 633053
тов 632682
ром 632284
лся 630271
ру@@ 630052
г@@ 624925
те 621343
/ 616565
бо@@ 612538
% 609914
где 596875
я@@ 595425
её 593368
км 592557
ские 592281
По@@ 585775
лет 585643
К@@ 585187
н@@ 585113
который 584417
се@@ 583575
В@@ 581342
нии 580107
П@@ 580025
го 579498
х@@ 579351
ми@@ 579218
са@@ 577526
ить 577162
ют 576898
те@@ 574248
лась 573392
ла@@ 571507
под@@ 568912
ба@@ 567076
А 564753
бе@@ 562913
Г@@ 561084
ет 560021
ния 556901
После 556700
й@@ 556634
со 553405
ва 552785
4 549811
ме@@ 548419
того 542536
стал 541161
кой 540865
р@@ 540594
год 540449
это 539877
ское 538165
да@@ 537694
су@@ 537611
па@@ 537378
га@@ 536499
ским 532583
Ка@@ 532007
ми 529259
ч@@ 528100
Т@@ 524196
Ко@@ 523803
более 521708
ние 519787
России 514420
ку@@ 508978
она 505070
ле 504873
вой 504344
нов 501000
ф@@ 499630
Ма@@ 498692
ется 496330
ля 488843
Б@@ 487929
ги@@ 487272
ст@@ 484039
ний 479608
5 478195
является 477348
так 477055
человек 469253
е@@ 468421
об@@ 467559
состав 464536
ь@@ 464525
цы 464346
ды 462508
га 462296
ь 460960
ни 457481
лось 457007
пе@@ 456573
ё@@ 455373
чи@@ 454107
пи@@ 451282
&amp; 446722
Д@@ 445929
ду@@ 443187
М@@ 441210
ан@@ 441108
ей 438486
жи@@ 433388
которые 432763
ции 428800
только 427296
города 424329
з 423596
ко 422385
вых 422061
6 421260
ком 420724
ки@@ 419358
скую 419308
На@@ 417407
10 416602
ше@@ 415303
ность 414851
ности 414755
ры 413009
че@@ 410826
ля@@ 409634
К 408805
Со@@ 408290
мы 407988
них 404655
Ш@@ 404342
СССР 403387
льной 399214
вер@@ 397222
войны 395790
Са@@ 393254
ши@@ 392714
му@@ 391158
сто@@ 388669
лей 388374
хо@@ 383571
этого 381858
нию 381193
Р@@ 381036
И 380232
они 379764
этом 379626
годах 379250
За@@ 375270
пре@@ 374520
ин@@ 374155
би@@ 374135
ме 373330
ников 373193
ства 370369
це@@ 370181
Л@@ 369142
зо@@ 367695
вал 367406
ник 367262
района 366976
зи@@ 366772
ю@@ 366332
кон@@ 365857
льного 364275
США 363950
История 362848
гу@@ 361196
8 360553
льный 360317
между 358478
7 356109
ы@@ 355768
ту@@ 355106
му 354654
Биография 354393
из@@ 353003
составе 352310
ста@@ 350960
лов 349408
ча@@ 347610
ются 346160
когда 345877
ному 345790
Он 344866
цию 344739
бы 343192
Н@@ 341394
против 341370
части 337620
реки 337602
рас@@ 336855
ту 336520
дом 336231
ство 333948
ем 332229
ха@@ 331571
сти@@ 330597
которых 328888
Не@@ 328511
Ми@@ 328364
ника 328251
ре 327047
Ку@@ 326986
льных 326986
мая 326886
ду 326333
годы 326199
Ф@@ 325811
чтобы 325195
ники 325004
него 324809
воз@@ 324574
При@@ 323604
ней 323534
января 322155
пу@@ 321277
нием 320327
20 320280
се 319522
вать 319350
вая 318802
ди 318578
Ба@@ 318067
все 317317
около 317259
вые 317152
ге@@ 316861
бу@@ 316427
15 315169
лом 314502
Ли@@ 312299
ев 311777
ца 311274
же@@ 310981
ления 310945
бы@@ 310791
районе 309500
мира 308550
ками 308474
июля 306885
цев 306046
дов 305505
лы 303708
12 303452
ст 303374
века 303205
ша@@ 302131
вого 300463
б 299780
населения 299779
ать 299712
место 299103
ц@@ 298682
им 298215
9 296354
Се@@ 294877
ги 294557
лу@@ 293279
рии 292684
несколько 291908
через 290804
декабря 290401
ещё 290159
уже 288900
получил 288594
2010 288462
льно 287489
мен@@ 287342
которой 286717
Ро@@ 286550
часть 285755
ры@@ 285614
марта 285207
Про@@ 284869
которая 284694
жа@@ 284252
Де@@ 283930
Мо@@ 283558
августа 283351
Су@@ 282764
ар@@ 282710
Ар@@ 282313
сти 282029
над 281548
сентября 281172
М 281168
ья 280735
Х@@ 280123
Я@@ 279820
октября 279817
территории 279666
Ра@@ 279594
фи@@ 278832
вали 278746
апреля 278588
своей 277427
ти 275701
п 275503
июня 274408
Та@@ 273966
два 273224
может 273202
№ 271477
льные 271367
один 270806
ческих 270450
Е@@ 269562
Ре@@ 268989
ну@@ 268843
пол@@ 267833
ш 267611
ему 266129
чем 266037
ление 264929
Го@@ 264648
ман@@ 264420
вает 264189
Си@@ 263985
30 263982
ри 263820
сы 263613
других 263283
затем 262906
Ле@@ 262711
Мар@@ 262054
скому 259909
качестве 259741
ноября 258798
ция 257720
18 257575
Население 257393
ч 257093
Ки@@ 256871
группы 256732
З@@ 256479
вым 256404
ье 256343
Ю@@ 255145
полу@@ 254757
находится 254714
ций 254106
льная 253954
Бо@@ 253718
Бе@@ 253447
район 253195
11 252899
Па@@ 252267
ат@@ 252187
вместе 252172
ци@@ 252074
жен@@ 250890
ках 249776
Га@@ 249559
ха 249353
зна@@ 249299
февраля 248693
лю@@ 247573
сте@@ 247531
ческой 247159
16 246241
поло@@ 246057
_ 244913
сов 244741
хи@@ 244391
Однако 243825
Ч@@ 241818
Ме@@ 241787
однако 241670
среди 241658
сом 240827
участие 240677
ор@@ 240407
ником 239650
которого 239624
стве 238808
стра@@ 238253
составляет 238237
лен@@ 238190
вания 237831
14 237824
ён 237752
Н 237559
&#93; 237539
&#91; 237321
жение 237296
ран@@ 237139
ня@@ 236314
Бу@@ 236039
работал 235532
гор@@ 233997
городе 233911
стро@@ 233772
всех 233417
город 233268
ями 233163
25 233120
ак@@ 232700
ством 232206
г. 231871
период 231725
числе 231129
ческого 230990
- 230971
жения 230965
тан@@ 230905
ц 230672
13 229649
лё@@ 229382
двух 228797
ен@@ 228790
ве 228125
той 227831
свою 227511
ге 227223
цией 226979
начале 226386
ж 226163
кар@@ 225822
три 225767
ска@@ 225082
мом 225016
ста 224752
ба 224634
17 224631
быть 223993
стала 223576
годов 223014
фа@@ 222304
этой 221471
жизни 221410
ря@@ 221336
ющий 221046
себя 221012
Ла@@ 220862
ско@@ 220831
рия 219557
Ви@@ 219456
вом 218876
сло@@ 218283
нами 217956
вы 217915
стов 217592
ке@@ 217424
рен@@ 217089
армии 215582
своего 215278
название 214901
П 214760
есть 214259
обра@@ 213874
данным 213728
ью 213677
За 213367
Ва@@ 213040
О 213006
У 212850
времени 212559
льным 212293
сть 211268
ним 211261
лем 210950
Ве@@ 210754
лу 210233
Кар@@ 209562
без 209269
всего 209112
ск 209111
Ру@@ 209101
19 208920
При 208629
род@@ 208609
фе@@ 208042
ск@@ 207934
До@@ 207246
I 207084
чи 206780
Это 206529
чных 206376
скими 206102
имени 206000
конце 205938
там 205891
работы 205814
село 205648
ющих 204730
деревня 204292
человека 204159
рами 203752
ческий 203442
вала 203260
Ц@@ 203232
откры@@ 203016
пло@@ 202908
2011 202759
пред@@ 202504
.@@ 202475
раз 202176
Во 201818
ческие 201543
ско 201146
Лу@@ 200942
ден@@ 200786
2012 200629
истории 200111
лин@@ 199216
гу 199170
тах 198825
эн@@ 198632
си 198208
име@@ 198025
formula 197491
Му@@ 197088
вен@@ 197012
ван@@ 196634
2008 196558
2014 195350
2009 195228
теле@@ 194989
мы@@ 194939
вый 194864
первый 194691
тами 194522
gt 193517
йской 193511
тем 193253
чной 193127
кра@@ 192940
гре@@ 192780
ностью 192453
нения 192394
Также 192373
имеет 191947
льное 191875
этот 191778
ров@@ 191319
Ан@@ 190365
ос@@ 190225
связи 190122
ться 189726
21 188468
2007 188331
24 188284
II 188006
lt 187934
зе@@ 187367
2013 186885
бер@@ 186885
можно 186869
2015 186619
мм 186423
об 186192
То@@ 186173
лен 185331
Пе@@ 184888
Да@@ 184569
22 184355
второй 184064
э 184054
° 183754
зу@@ 183492
кие 183062
чего 182968
чно 182670
ющие 182332
2006 182247
три@@ 181661
ит@@ 181029
шей 180891
род 180767
Ду@@ 180578
ша 180565
2002 180002
йского 179684
гов 179403
па 179344
нов@@ 179321
ру 179086
Хо@@ 178582
электро@@ 177837
Кон@@ 177639
стали 177340
ший 177147
чный 176914
переписи 176883
щ@@ 176813
ска 176302
Ри@@ 176284
Его 175938
сон 175838
своих 175779
ро 175739
Аль@@ 175670
ству 175548
2016 175435
2000 175397
гра@@ 175337
тра@@ 175100
образом 174658
ниях 174316
Гу@@ 174238
мов 174158
пла@@ 174145
другие 174043
эк@@ 173889
вра@@ 173852
аль@@ 173614
Ха@@ 173463
ходе 173446
сельского 173213
23 172774
лет@@ 172237
отде@@ 171599
вший 171020
результате 171020
пер@@ 170944
тер@@ 170306
вание 170159
лан@@ 170085
сты 170035
вается 169943
собой 169895
котором 169839
100 169386
ком@@ 169355
сы@@ 169304
фильм 169285
одной 169233
Вы@@ 168971
мер@@ 168221
ёт 168012
Те@@ 167958
ня 167921
центра 167612
течение 166891
… 166879
26 166855
обще@@ 166727
Ди@@ 166516
кор@@ 166029
роль 165961
одним 165942
лишь 165939
вое 165856
² 165802
точ@@ 165587
обо@@ 165097
чного 165034
Украины 164921
ёр@@ 164862
ях 164469
гру@@ 164303
Для 164298
кан@@ 164162
ну 164023
ван 163772
встре@@ 163723
ман 163138
очень 163069
поселения 162905
нах 162515
Но@@ 162430
2017 161987
мой 161812
су 161570
льном 161431
фо@@ 161328
дней 161157
день 161082
начала 160997
Ж@@ 160949
Пер@@ 160860
Ни@@ 160773
страны 160506
28 160420
ур@@ 160419
область 160394
став@@ 160333
пар@@ 160213
он@@ 160209
призна@@ 160154
боль@@ 160114
цен@@ 160030
ших 159993
юго 159927
Российской 159641
сборной 159469
ств 159315
Пи@@ 159280
2005 159222
От@@ 159140
Г 159110
им@@ 158798
C 158708
The 158576
Ти@@ 158242
ске 158204
вую 158078
ча 157841
ница 157710
кры@@ 157366
зы 157134
смерти 156488
северо 156472
Во@@ 156448
гла@@ 156305
прав@@ 156027
чу@@ 155795
Александр 155792
2018 155510
27 155500
тро@@ 155268
2004 155202
Согласно 155157
кре@@ 154856
начал 154796
нее 154691
являются 154450
Ту@@ 154291
само@@ 154142
производ@@ 154094
ится 153796
округа 153691
много 153338
вод@@ 152701
дра@@ 152644
мя@@ 152625
пле@@ 152413
1941 150615
уда@@ 150584
поли@@ 149963
2001 149936
тся 149784
свой 149591
йский 149506
Би@@ 149409
кам 149404
Ло@@ 149324
мар@@ 148995
даже 148993
лов@@ 148878
команды 148866
чные 148809
бро@@ 148707
метров 148457
тре@@ 148319
кая 148172
Республики 148134
ниями 147853
назначен 147789
ок@@ 147671
ды@@ 147664
способ@@ 147440
1990 147329
первой 147251
иться 147144
2019 146676
ким 146665
фа 146424
центр 146350
бор@@ 145469
могут 145378
ян@@ 145214
вос@@ 145029
рин@@ 145006
кий 144979
Ин@@ 144920
церкви 144826
’ 144474
кино@@ 144422
тор@@ 144378
кру@@ 144359
це 144311
партии 144103
нем 144008
кли@@ 143964
Д 143960
стороны 143957
цами 143751
ева 143573
тель@@ 143534
Ша@@ 143424
ты@@ 143383
Бер@@ 143158
шие 143067
льную 142987
50 142689
две 142654
наук 142321
шего 142317
ал@@ 142015
университета 141904
разде@@ 141892
авто@@ 141741
сле@@ 141708
итель@@ 141705
ски 141554
стом 141525
свои 141407
29 141288
Из 140963
компании 140899
сил 140778
этих 140724
Ор@@ 140722
Ал@@ 140410
Пу@@ 140393
вают 140340
жил 140273
клуб 140201
кова 140197
будет 139916
ще@@ 139916
ген@@ 139910
уч@@ 139693
бра@@ 139595
ровать 139486
вин@@ 139434
вар@@ 139390
Че@@ 139387
сме@@ 138927
рода 138830
ков@@ 138829
зем@@ 138723
впервые 138394
образ@@ 138375
ев@@ 138335
1944 138092
менее 137856
лли@@ 137710
вался 137638
ых 137628
Пре@@ 137439
География 137408
вели@@ 137122
чей 137001
ан 136916
ющим 136893
ф 136821
Но 136638
пор@@ 136463
низ@@ 136454
Фе@@ 136259
лич@@ 136173
много@@ 135834
например 135451
рей@@ 135403
нова 135304
вались 134914
зан@@ 134805
родился 134797
лой 134686
выми 134348
тот 134270
мор@@ 134151
Ф 134132
Кроме 134020
сня@@ 133955
щения 133782
семье 133666
шен@@ 133650
чен@@ 133590
чемпионате 133497
ям 133338
ницы 133277
щий 133139
лл 132937
оста@@ 132652
гом 132631
сезона 132601
тия 132581
зы@@ 132398
31 132304
чер@@ 132291
Франции 132086
Т 131955
рах 131743
отме@@ 131623
которое 131575
группа 131538
либо 131515
бан@@ 131477
разме@@ 131389
образования 131381
щих 131291
ённых 131118
ниям 131011
рования 130970
вич 130940
Совета 130927
Ке@@ 130711
Европы 130662
2020 130478
над@@ 130406
берегу 130359
ху@@ 130327
ровал 130299
количество 130249
Бар@@ 130245
! 130232
жителей 130038
лены 129788
спи@@ 129672
фор@@ 129268
кого 129221
бе 129167
зов 129084
Ста@@ 129058
перед 129041
пра@@ 128993
если 128858
рован 128647
женщин 128625
1999 128503
няя 128420
тных 128333
цкий 128244
мест@@ 128069
вского 128043
никами 127981
села 127901
br 127846
– 127766
рав@@ 127558
ющей 127371
стре@@ 127315
сни@@ 127282
ща@@ 127154
тя@@ 127085
системы 127043
1945 126963
одного 126712
нович 126664
жи 126587
часто 126393
ато@@ 126381
свя@@ 126374
ход@@ 126204
дами 126173
рой 126136
вана 125957
зе 125877
шая 125789
нок 125773
сель@@ 125715
0 125644
вет@@ 125423
ис@@ 125248
Родился 125148
всё 125115
стар@@ 125076
школы 124984
1943 124846
нам 124758
пы 124727
созда@@ 124707
Входит 124549
ер@@ 124544
жа 124488
тной 124375
сен@@ 124369
окончил 124251
селе 124119
сси@@ 124002
анти@@ 123961
называ@@ 123887
40 123732
Об@@ 123693
ющего 123615
нь 123421
сла@@ 123276
альбом 123244
тин@@ 123231
шения 123229
станции 123071
управления 123024
Фи@@ 122931
Л 122908
2003 122796
представ@@ 122641
Германии 122560
поль@@ 122560
ныне 122311
совет@@ 122299
нен@@ 122041
стан@@ 121983
почти 121816
До 121713
част@@ 121621
организации 121424
ят 121410
детей 121348
ющая 121261
вский 121221
Санкт 121210
ряд 121155
сь 121053
дер@@ 120884
ав@@ 120843
вновь 120796
ате@@ 120793
оп@@ 120792
кла@@ 120739
тный 120699
Мак@@ 120529
типа 120489
эти 120381
ясь 120156
власти 120004
уз@@ 120003
логи@@ 119984
хотя 119939
тен@@ 119918
тый 119917
культуры 119908
ые 119845
сам 119775
игры 119751
ата@@ 119566
еди@@ 119545
жизнь 119473
8@@ 119469
Лю@@ 119360
вя@@ 119304
Федерации 119185
дах 119138
Как 119021
ственных 118971
честь 118919
итель 118743
чемпионата 118603
Москве 118583
шим 118533
площадь 118353
щи@@ 118350
больше 118246
ву@@ 118245
город@@ 118163
переда@@ 118061
ких 117996
имя 117910
льского 117784
Кор@@ 117738
Она 117666
губернии 117580
чная 117474
ган@@ 117473
занима@@ 117418
настоящее 117377
цу 117276
частности 117110
направ@@ 117100
ческая 117077
ённые 116862
людей 116721
нет 116653
лями 116507
одно@@ 116440
льской 116373
кин 116146
чение 115927
Р 115834
окру@@ 115703
важ@@ 115594
бере@@ 115532
лении 115516
клуба 115472
генерал 115436
сту@@ 115375
многих 115182
7@@ 115178
ши 115091
графи@@ 114990
моло@@ 114901
тон 114803
ённый 114781
стало 114516
ати@@ 114458
состоя@@ 114456
1980 114238
истори@@ 114052
вших 113764
тру@@ 113585
лена 113545
че 113396
дви@@ 113367
ый 113279
Ге@@ 113201
деятельность 113107
момент 113048
1991 113014
коро@@ 112761
1992 112675
Эн@@ 112664
би 112585
степени 112472
ез@@ 112467
членом 112448
гар@@ 112397
“ 112175
наиболее 111987
основном 111917
Б 111880
ство@@ 111865
ера 111830
работу 111760
льский 111742
дан@@ 111731
мировой 111699
ита@@ 111698
различных 111627
лия 111610
сезоне 111596
лы@@ 111445
права 111313
дивизии 110978
XIX 110882
ностей 110784
Ча@@ 110582
цкого 110409
пан@@ 110344
должность 110318
входит 110299
жд@@ 110244
1942 110204
Великой 110074
первого 110072
высо@@ 110027
совета 109946
кое 109919
матче 109909
Ново@@ 109854
ссо@@ 109787
соб@@ 109765
вед@@ 109606
аться 109518
широ@@ 109189
ственного 109186
+ 109182
стью 109065
лением 109014
лю 109012
принял 108988
1960 108940
нескольких 108937
Отечественной 108924
вшие 108917
ителей 108887
изда@@ 108842
ун@@ 108813
здесь 108807
дал 108708
таких 108520
1970 108485
право@@ 108478
диа@@ 108399
лей@@ 108266
рий 108222
своим 108169
лению 108026
вской 108025
тысяч 107956
Так 107766
лах 107713
Кри@@ 107657
национа@@ 107657
щие 107559
бой 107219
ваться 107178
своё 107078
новых 106862
ше 106850
моря 106842
син@@ 106786
расска@@ 106638
эта@@ 106445
кро@@ 106261
ранее 106138
Я 106074
примерно 106071
зер@@ 106060
рус@@ 106031
месте 105906
новой 105903
советский 105896
рует 105838
Раз@@ 105707
линии 105622
войск 105589
нение 105481
учё@@ 105456
спа@@ 105444
кто@@ 105263
Из@@ 105229
сса 105190
10@@ 105143
дро@@ 104972
„ 104925
фильма 104834
логии 104722
пове@@ 104722
первым 104713
Ман@@ 104651
вшись 104515
ья@@ 104455
1998 104413
чески 104406
восто@@ 104404
участвовал 104386
дома 104371
вид 104353
чу 104309
сс 104096
дия 103977
тного 103789
пода@@ 103614
Ги@@ 103595
прода@@ 103585
лла 103461
кри@@ 103421
пара@@ 103294
рабо@@ 103242
Пере@@ 103226
самого 103208
трёх 103197
цов 103061
серии 103030
названием 102955
число 102792
000 102665
щение 102609
лек@@ 102596
образование 102459
Союза 102372
1930 102339
1994 102338
мин@@ 102321
полка 102206
Нью 102165
тон@@ 102041
новый 102018
Ак@@ 101937
1997 101871
дой 101840
мен 101809
которую 101778
возрасте 101776
каз@@ 101773
золо@@ 101674
вз@@ 101587
of 101540
Владимир 101500
Сер@@ 101442
1996 101404
рова@@ 101400
позже 101306
воды 101233
поме@@ 101221
кин@@ 101220
1995 101166
Николай 101072
получила 101026
2021 101022
виде 100999
кур@@ 100949
жением 100846
вышел 100773
приня@@ 100734
6@@ 100567
полностью 100014
сын 99976
вича 99877
ток 99869
заклю@@ 99790
фак@@ 99787
1920 99779
вол@@ 99774
ней@@ 99717
образо@@ 99644
нил 99516
лин 99497
Кур@@ 99485
Бело@@ 99474
ново@@ 99454
ет@@ 99419
назва@@ 99415
нём 99285
деятельности 99212
игр 99179
Под@@ 99086
рон@@ 99033
деревни 99031
чёр@@ 98902
III 98827
бу 98801
вернулся 98797
актив@@ 98775
современ@@ 98746
Александ@@ 98709
стер@@ 98709
попа@@ 98696
класси@@ 98626
каза@@ 98537
1993 98488
обы@@ 98378
исследовате@@ 98160
ённого 98137
рей 98040
жена 98035
уничто@@ 97903
ственной 97856
гг 97721
уче@@ 97720
Вер@@ 97709
случае 97704
чения 97644
сотруд@@ 97521
значения 97290
Гор@@ 97273
ённой 97257
член 97249
закры@@ 97236
первых 97214
XX 97170
дет@@ 97164
см 97094
ём 97057
дж@@ 97027
ита 96731
Чер@@ 96672
9@@ 96645
валась 96595
др 96532
вое@@ 96411
чё@@ 96326
специаль@@ 96319
городского 96314
многие 96309
ССР 96189
млн 96127
Второй 96098
Был 96064
ены 96004
альбома 95945
общества 95937
тер 95913
круп@@ 95902
мужчин 95825
&apos; 95824
евич 95814
использо@@ 95716
тых 95710
провёл 95701
жений 95699
крас@@ 95557
н. 95518
уезда 95506
тё@@ 95375
прекра@@ 95316
ён@@ 95315
Ше@@ 95288
посе@@ 95261
рай@@ 95255
согла@@ 95226
Когда 95071
Они 95032
коло@@ 95014
щей 94987
организо@@ 94977
муж@@ 94895
ителя 94858
1989 94857
четыре 94826
яв@@ 94825
места 94819
жении 94817
тора 94809
империи 94718
опублико@@ 94708
американ@@ 94687
жены 94554
ческое 94470
дин@@ 94449
кино 94402
решение 94350
сохрани@@ 94306
руководством 94265
себе 94207
стиче@@ 94202
1950 94093
заня@@ 94077
ься 94003
рок 93996
Восто@@ 93987
сса@@ 93958
лях 93934
тные 93890
нового 93846
вов 93814
60 93697
язы@@ 93689
хов 93591
эй@@ 93546
тии 93496
Олимпийских 93428
некоторые 93406
действия 93391
вой@@ 93342
тому 93288
сер@@ 93205
1940 93119
плани@@ 93114
Воз@@ 93107
ть@@ 93089
выпол@@ 93072
дол@@ 93065
популяр@@ 93045
некоторых 92961
движения 92902
поч@@ 92791
кол@@ 92758
писал 92668
помощью 92595
гово@@ 92569
шу@@ 92464
бри@@ 92431
тор 92389
доро@@ 92264
тур@@ 92234
население 92174
выде@@ 92152
песни 92134
яр@@ 92071
хи 92062
основе 91965
нес@@ 91886
Дже@@ 91768
= 91629
ено 91597
веке 91532
Пред@@ 91455
профессиона@@ 91391
восстанов@@ 91326
лова 91227
видов 91183
иде@@ 91124
ся 91122
Среди 91081
чки 91066
5@@ 91031
церковь 91017
развития 90965
тно 90889
поскольку 90888
Фа@@ 90749
побе@@ 90744
голо@@ 90740
сельсовета 90694
совер@@ 90486
цо@@ 90485
йских 90443
Мат@@ 90403
государственного 90378
бал@@ 90365
Иван 90159
работ 90148
ву 90137
кую 90067
цар@@ 90031
удалось 89970
ждения 89880
возвра@@ 89831
включая 89802
емых 89802
рамках 89749
лый 89677
тогда 89667
лина 89619
сами 89577
циях 89426
содержа@@ 89312
вшего 89151
мана 89139
центра@@ 89099
шение 88924
генера@@ 88910
уро@@ 88854
одна 88830
языка 88798
1918 88791
чка 88769
все@@ 88753
кс 88748
возмож@@ 88734
мон@@ 88701
ству@@ 88619
играх 88607
заме@@ 88566
слу@@ 88547
Ши@@ 88492
1939 88422
версии 88365
имеют 88302
гон@@ 88201
академии 88185
пя@@ 88066
Затем 88056
стри@@ 88040
тил 88029
проек@@ 88023
установ@@ 87951
рование 87946
окончания 87849
воло@@ 87848
чным 87781
другой 87717
Хи@@ 87703
компания 87612
Мин@@ 87565
участ@@ 87556
изобра@@ 87505
деревне 87465
корот@@ 87395
вода 87360
рев@@ 87352
немец@@ 87347
вид@@ 87332
0@@ 87327
ред@@ 87317
такие 87248
ины 87187
ними 87186
ян 87120
выпу@@ 87118
роди@@ 87099
пис@@ 87080
2@@ 87023
самых 86915
шко@@ 86898
дел 86889
рию 86826
S@@ 86824
ствуют 86822
тие 86810
вил 86739
Ай@@ 86669
поле 86668
конца 86616
обычно 86578
Эр@@ 86495
мо 86397
тов@@ 86307
жда@@ 86305
мет@@ 86292
института 86266
положение 86132
войска 86109
льными 86081
руется 86052
Зе@@ 86019
расши@@ 85961
мат@@ 85912
благодаря 85898
тех 85857
Е 85845
река 85692
дии 85641
све@@ 85618
йн 85343
тыс. 85267
зу 85261
? 85258
ер 85204
явля@@ 85181
владе@@ 85082
требо@@ 84992
ара 84897
стер 84893
университете 84876
атов 84858
Мор@@ 84715
шка 84696
ход 84683
здание 84500
фон 84447
пы@@ 84391
хе@@ 84367
веду@@ 84332
Пет@@ 84322
поэтому 84265
которым 84262
дела@@ 84254
ческом 84180
сс@@ 84149
украин@@ 84096
ье@@ 84014
художе@@ 83948
пря@@ 83926
дости@@ 83895
жен 83890
обнару@@ 83824
Кре@@ 83775
школу 83678
чат@@ 83672
присут@@ 83647
мире 83617
выступал 83608
грани@@ 83608
дены 83580
работе 83435
цкой 83353
школе 83352
большой 83260
жу@@ 83239
роли 83232
ся@@ 83223
Кара@@ 83190
водо@@ 83128
лег@@ 83117
официаль@@ 83089
Сан@@ 83054
перешёл 83053
дать 83032
ут@@ 82992
тура 82918
чил 82870
кат@@ 82772
тек@@ 82673
ил 82594
вшая 82528
провинции 82519
радио@@ 82476
физи@@ 82446
самым 82310
вало 82296
ссе@@ 82241
городской 82221
щего 82208
луч@@ 82191
ыва@@ 82138
Хар@@ 82026
национальной 81990
строитель@@ 81950
бин@@ 81942
отправ@@ 81905
вании 81849
M@@ 81840
Шу@@ 81797
Первый 81688
клю@@ 81680
главным 81673
кина 81655
ваются 81654
тической 81650
чное 81639
сов@@ 81637
сан@@ 81573
края 81459
без@@ 81437
позиции 81397
Иванович 81377
языке 81338
испол@@ 81297
настоя@@ 81286
Гар@@ 81285
шки 81282
бар@@ 81274
ви 81243
хра@@ 81238
округ 81173
рез@@ 81168
1917 81131
ден 81068
ем@@ 81052
мир@@ 81042
опера@@ 81041
команда 81023
работа@@ 81017
зат@@ 80951
согласно 80925
нике 80924
собствен@@ 80909
постоян@@ 80886
йн@@ 80850
искусства 80847
спор@@ 80842
земли 80773
ственные 80608
производства 80581
Вол@@ 80453
гер@@ 80451
поселение 80407
бли@@ 80389
мир 80388
шта@@ 80386
нин@@ 80355
нос@@ 80329
куль@@ 80265
лер 80240
хар@@ 80183
впоследствии 80154
должен 80132
ще 80118
200 80091
миро@@ 80089
частью 80068
тина 80047
Гер@@ 80007
тол@@ 80006
промышлен@@ 79928
административ@@ 79927
сторон@@ 79911
новые 79892
закон@@ 79851
нин 79821
российский 79790
фер@@ 79766
P@@ 79697
происходит 79680
коллек@@ 79566
сентябре 79352
бит@@ 79333
най@@ 79270
зада@@ 79189
плат@@ 79165
чик 79140
мнению 79051
вызва@@ 79032
язык 79008
шую 78932
Михаил 78810
полк 78800
кита@@ 78791
гро@@ 78782
создания 78708
ответ@@ 78618
стран 78552
шёл 78552
тые 78526
1988 78525
серебря@@ 78517
Вен@@ 78495
шла 78493
звание 78329
мати@@ 78329
щен@@ 78314
ческим 78277
мае 78269
волости 78236
спорта 78189
всей 78167
завод 78166
карьеру 78161
Ху@@ 78129
концер@@ 78126
ходя@@ 78053
нер 78035
− 78020
другими 78011
британ@@ 77965
Верховного 77960
сли@@ 77937
выра@@ 77922
продолжа@@ 77913
бо 77893
мать 77864
состоит 77800
неё 77770
избран 77767
утвер@@ 77765
январе 77743
литератур@@ 77725
составляло 77720
Чу@@ 77709
доб@@ 77647
отношения 77636
рова 77632
данных 77619
ственно 77607
театра 77601
ствовал 77572
должности 77542
учеб@@ 77427
ители 77413
s 77373
особенно 77361
целью 77333
профессор 77309
the 77263
имел 77203
ждение 77194
ственный 77129
ляется 77105
поддержи@@ 77085
постав@@ 77048
лок 77046
фина@@ 77001
япон@@ 76983
нер@@ 76974
марте 76894
Джо@@ 76892
тай@@ 76888
ым 76843
лат@@ 76835
тив@@ 76794
деятель 76763
кими 76762
D@@ 76710
Ниж@@ 76700
Сергей 76663
древ@@ 76534
кто 76522
ствия 76509
чел 76491
ус 76449
вскоре 76318
коммуны 76216
авиа@@ 76165
именно 76131
температура 76082
сыграл 76017
комплек@@ 75985
Москва 75976
станция 75856
расположен 75830
дня 75782
сро@@ 75705
12@@ 75703
дер 75642
посёлок 75584
ваны 75554
октябре 75546
короля 75541
занял 75507
РФ 75490
продолж@@ 75488
лено 75477
РСФСР 75473
тар@@ 75465
фильме 75464
государства 75462
первом 75447
Кан@@ 75430
августе 75418
Сан 75380
декабре 75260
проект 75253
так@@ 75233
Италии 75215
снова 75150
рядом 75115
институт 75112
семьи 75041
лии 75006
аре@@ 74985
священ@@ 74932
ителем 74892
зии 74807
шин@@ 74795
запре@@ 74752
лами 74743
возможность 74704
слож@@ 74655
семейства 74649
ца@@ 74636
приобре@@ 74631
относится 74603
рим@@ 74585
шло 74556
представля@@ 74537
поэ@@ 74503
право 74404
массо@@ 74403
противника 74401
располага@@ 74357
рам 74355
евре@@ 74213
этим 74208
микро@@ 74192
умер 74109
служил 74073
Этот 74050
ковского 74002
русской 73987
команду 73923
расстоянии 73921
пе 73859
опис@@ 73806
выс@@ 73797
первые 73771
предло@@ 73759
сбор@@ 73705
женщины 73629
од@@ 73557
35 73508
1938 73496
Все 73454
находился 73431
ствует 73370
емые 73339
ковых 73331
хоро@@ 73329
правления 73305
пов 73304
1937 73302
двумя 73297
контракт 73286
книги 73234
зм 73226
востоку 73217
шли 73198
суще@@ 73164
спе@@ 73151
отца 73145
повы@@ 73115
играл 73098
вида 73040
отли@@ 73007
управля@@ 72959
выступа@@ 72949
Мон@@ 72923
сборную 72901
Несмотря 72875
нару@@ 72866
шо@@ 72857
дей@@ 72817
особ@@ 72811
представляет 72773
вве@@ 72765
йские 72726
проис@@ 72675
долларов 72657
1986 72581
Тре@@ 72540
середине 72484
службу 72465
назна@@ 72438
ски@@ 72425
уровнем 72400
состав@@ 72396
прове@@ 72371
Александра 72359
июле 72354
острова 72338
культур@@ 72256
церков@@ 72239
школа 72173
премии 72160
тела 72103
корпуса 72050
основ@@ 72025
емый 72022
70 71975
значение 71972
силы 71970
западу 71923
лес@@ 71877
север@@ 71837
1987 71822
региона@@ 71777
вка 71772
цей 71734
кладбище 71685
80 71653
уго@@ 71636
1919 71627
испан@@ 71624
ётся 71600
операции 71587
проекта 71559
дат@@ 71508
бело@@ 71497
вили 71480
цве@@ 71456
разви@@ 71450
Джа@@ 71433
ё 71325
гой 71323
1985 71292
1946 71264
празд@@ 71230
отец 71227
итальян@@ 71214
шее 71190
0,@@ 71183
Жи@@ 71175
объеди@@ 71135
совет 71076
ходит 71071
Описание 71030
прожи@@ 71017
жной 70986
дебютировал 70947
жили 70907
опреде@@ 70873
мах 70871
дне@@ 70832
рения 70825
граждан@@ 70806
своём 70806
Поли@@ 70793
Кра@@ 70754
службы 70747
бур@@ 70690
расположен@@ 70646
док 70641
лые 70624
ано 70623
чен 70620
необходи@@ 70608
эту 70564
разных 70547
3@@ 70503
выда@@ 70501
москов@@ 70482
валось 70475
сия 70401
университет 70381
математи@@ 70314
первую 70288
пор 70260
камен@@ 70240
система 70225
дар@@ 70213
июне 70185
завер@@ 70121
дов@@ 70105
миче@@ 70075
гну@@ 70071
взя@@ 70070
рово@@ 70058
ули@@ 70040
нений 70035
Если 70003
&#124; 69984
ствен@@ 69967
лий 69951
работать 69946
Кубка 69925
ём@@ 69911
определ@@ 69908
она@@ 69867
Сто@@ 69801
1965 69772
друг 69760
един@@ 69688
поступил 69685
Ис@@ 69622
длин@@ 69602
виде@@ 69587
помощи 69558
апреле 69326
таким 69323
буду@@ 69305
нико@@ 69303
искус@@ 69255
хов@@ 69217
Гре@@ 69207
используется 69192
другим 69184
йти 69168
становится 69166
нови@@ 69154
цем 69139
внеш@@ 69127
бле@@ 69113
вшей 69064
чин@@ 69052
Тем 69050
титул 69003
дороги 68978
центром 68914
ноябре 68913
дру@@ 68899
прави@@ 68835
дополнитель@@ 68798
постанов@@ 68774
смо@@ 68767
ковский 68753
4@@ 68748
отра@@ 68737
нар@@ 68717
ственная 68715
исполня@@ 68697
значитель@@ 68666
русский 68663
территориаль@@ 68657
щая 68647
цам 68633
т. 68630
Глав@@ 68622
сен 68596
ора 68570
гг. 68536
1984 68531
росси@@ 68511
Через 68474
месяца 68473
противо@@ 68454
должны 68437
экономи@@ 68396
штат 68366
ственное 68337
ссии 68330
G@@ 68319
меня@@ 68281
моно@@ 68247
куп@@ 68213
Май@@ 68181
Пар@@ 68181
1979 68143
пять 68111
пути 68096
план@@ 68066
стату@@ 68063
реаль@@ 68011
ват@@ 67985
Великобритании 67911
нить 67889
Гри@@ 67885
1966 67873
съ@@ 67838
транспор@@ 67817
Московской 67780
иногда 67778
йском 67696
ху 67691
тирова@@ 67670
русского 67626
стен@@ 67585
федера@@ 67568
глав@@ 67548
помо@@ 67535
подтвер@@ 67529
ниче@@ 67488
тым 67488
1968 67459
пен@@ 67442
цвет@@ 67424
стоя@@ 67410
1975 67407
дам 67403
тая 67345
C@@ 67319
благо@@ 67299
сона 67248
45 67239
сли 67239
рак@@ 67217
1926 67207
Гра@@ 67201
ордена 67187
русские 67154
создан@@ 67153
ковой 67137
уби@@ 67103
близ@@ 67101
Никола@@ 67004
Джон 67003
подоб@@ 66991
интер@@ 66957
феврале 66935
1948 66850
аны 66823
чном 66802
рассматри@@ 66792
T@@ 66782
кроме 66763
атом 66686
ителями 66676
ённая 66675
государственный 66628
пат@@ 66619
эта 66602
ен 66575
всегда 66560
обороны 66525
бронзо@@ 66510
мя 66486
получа@@ 66464
евна 66450
A 66443
востоке 66439
проте@@ 66393
здания 66372
горо@@ 66362
F@@ 66361
дочь 66352
рован@@ 66330
лений 66297
остро@@ 66269
нику 66245
бое@@ 66241
чай@@ 66226
ющее 66219
отве@@ 66215
1963 66163
итоге 66154
комитета 66144
1973 66137
забил 66133
пли@@ 66114
училище 66106
жан@@ 66102
протяжении 66087
лле@@ 66050
нина 66035
чает 66035
1976 66031
второго 65982
вышла 65980
тран@@ 65969
войне 65964
Бур@@ 65940
практически 65934
подчи@@ 65894
щены 65887
гах 65884
мент 65852
класса 65843
хан@@ 65827
ката@@ 65811
R@@ 65734
мета@@ 65734
отличие 65713
стой 65695
француз@@ 65682
начало 65678
Дон@@ 65673
ствие 65670
ью@@ 65665
руковод@@ 65656
1959 65649
дил 65624
Москвы 65622
бре@@ 65592
продол@@ 65539
правительства 65530
год@@ 65513
1972 65486
матчей 65484
четвёр@@ 65462
этому 65427
пти@@ 65358
Пра@@ 65325
ек@@ 65282
тяжё@@ 65275
ляет 65251
похо@@ 65245
чь 65232
аль 65217
V 65213
пригла@@ 65202
фу@@ 65194
вре@@ 65153
сах 65092
дере@@ 65090
32 65073
Рус@@ 65037
фронта 65009
президента 64992
вшим 64946
чную 64940
мского 64911
эт@@ 64907
500 64888
послед@@ 64857
1971 64851
1958 64818
покры@@ 64814
1956 64797
счита@@ 64790
расположена 64773
B@@ 64754
меха@@ 64682
Климат 64635
меры 64626
составляли 64598
мени@@ 64596
королев@@ 64573
гри@@ 64562
1982 64547
коль@@ 64545
лли 64537
Сте@@ 64531
май@@ 64515
эпизо@@ 64512
ску 64491
стами 64439
дри@@ 64422
уча@@ 64418
вёл 64399
запис@@ 64384
ванием 64346
вшийся 64344
пу 64334
сезон 64296
музыкан@@ 64288
ался 64275
тий 64254
вопро@@ 64243
рин 64239
жено 64236
сты@@ 64222
состоянию 64216
граф 64196
сына 64169
провод@@ 64132
ставля@@ 64113
кам@@ 64100
бло@@ 64096
народ@@ 64083
ково 64072
ктора 64035
жению 64020
стат@@ 64015
гидро@@ 63978
мер 63943
вод 63939
1974 63934
сдела@@ 63928
мента 63883
Рай@@ 63880
сам@@ 63880
освобо@@ 63871
ул 63849
стране 63844
двух@@ 63840
зва@@ 63816
запад@@ 63805
гло@@ 63786
щим 63781
1929 63750
рий@@ 63748
состава 63731
чены 63713
следо@@ 63687
сразу 63643
членов 63630
общей 63602
карьера 63578
вместо 63560
держи@@ 63522
1983 63481
1978 63447
Член 63429
изо@@ 63425
поез@@ 63419
государствен@@ 63413
авиацион@@ 63399
программы 63343
филь@@ 63316
являлся 63308
льности 63299
1981 63244
награждён 63232
мин 63231
словам 63227
фин@@ 63194
времен@@ 63182
публи@@ 63157
Ком@@ 63154
улица 63152
военного 63132
1967 63121
ана 63112
результатам 63104
Мэ@@ 63076
распростра@@ 63070
Тер@@ 63050
хом 62948
союз@@ 62943
центре 62927
позднее 62904
свобод@@ 62834
улицы 62830
англи@@ 62787
большое 62779
демокра@@ 62761
издате@@ 62754
ряда 62720
воздуш@@ 62712
хро@@ 62706
прото@@ 62691
джа@@ 62684
вле@@ 62667
1954 62666
1964 62652
люди 62638
1957 62601
рованных 62599
дель@@ 62596
выполня@@ 62594
Уэ@@ 62589
цах 62581
жных 62578
техниче@@ 62563
кну@@ 62555
IV 62419
спо@@ 62391
Тор@@ 62380
держа@@ 62363
Фо@@ 62333
ган 62319
зин@@ 62309
симво@@ 62299
90 62278
1962 62253
Чи@@ 62235
зи 62220
автор 62210
тических 62196
Дэ@@ 62177
N@@ 62126
1949 62124
безопасности 62096
свидетель@@ 62094
ата 62053
мед@@ 62051
внимание 61961
завода 61945
рес@@ 61935
Англии 61920
Запад@@ 61868
очередь 61829
дав@@ 61819
сте 61809
Японии 61784
ам@@ 61777
слова 61772
включа@@ 61737
турнира 61726
мог 61715
XVIII 61712
ющими 61694
журнала 61670
чий 61635
обеспечи@@ 61608
1936 61563
правитель@@ 61561
нали@@ 61542
З 61539
вшихся 61513
чена 61509
жде@@ 61486
иг@@ 61485
1961 61478
X 61428
собра@@ 61373
сельское 61367
ждении 61337
мало@@ 61296
жела@@ 61285
вне@@ 61263
источ@@ 61251
Первой 61231
религиоз@@ 61144
дво@@ 61125
Юж@@ 61102
нан@@ 61093
произо@@ 61090
защи@@ 61048
шед@@ 60981
получи@@ 60977
1977 60957
восточной 60947
Мари@@ 60936
преподавате@@ 60881
главе 60878
главного 60859
пост 60857
ческую 60793
зации 60785
Тур@@ 60779
зар@@ 60747
западе 60736
графа 60719
исследования 60719
западной 60714
Кол@@ 60689
спустя 60620
военных 60590
дву@@ 60559
написал 60545
Вар@@ 60540
ъ@@ 60527
старо@@ 60523
опы@@ 60521
летом 60506
мей@@ 60505
Ры@@ 60469
строительство 60465
Код 60448
вано 60442
лиги 60430
юж@@ 60421
1947 60390
общи@@ 60384
Бра@@ 60352
Стар@@ 60345
соответствии 60345
нему 60338
хода 60324
превра@@ 60307
получили 60274
одновременно 60271
ченко 60255
дре@@ 60237
Дан@@ 60209
Таким 60136
W@@ 60130
поро@@ 60122
игра@@ 60115
еся 60113
мости 60112
зоне 60084
мена 60068
льства 60053
L@@ 60048
граф@@ 60029
Пав@@ 60025
тур 59978
гото@@ 59964
кисло@@ 59954
одном 59939
1969 59924
ал 59917
бес@@ 59871
фото@@ 59831
штаба 59815
стрел@@ 59791
1935 59777
ум 59745
показа@@ 59742
Бел@@ 59700
начальник 59668
обла@@ 59661
мых 59619
сельсовет 59616
американский 59585
хозяй@@ 59561
совершен@@ 59542
действу@@ 59540
нении 59515
форми@@ 59488
ванию 59452
ед@@ 59448
Позже 59408
жает 59405
зда@@ 59396
уэ@@ 59350
научных 59335
мии 59330
строительства 59311
орга@@ 59260
упомина@@ 59232
компози@@ 59224
четырёх 59216
коми@@ 59207
a 59193
площади 59186
форма@@ 59172
населённых 59160
развитие 59157
кси@@ 59142
зен@@ 59137
ити@@ 59108
щении 59051
кни@@ 59045
хорошо 59031
сто 59030
Россия 59010
роман@@ 59007
шоу 58978
есте@@ 58957
зрения 58943
футболист 58903
реш@@ 58865
Свя@@ 58850
гами 58821
дена 58749
принадлежа@@ 58740
Авто@@ 58709
ьи 58698
соответственно 58691
емой 58689
формы 58689
игро@@ 58688
Кры@@ 58680
Фран@@ 58674
меж@@ 58654
рё@@ 58653
Северной 58650
собира@@ 58644
новым 58642
статус 58628
одино@@ 58625
Лин@@ 58604
цвета 58564
руко@@ 58563
дебю@@ 58535
начали 58535
Прав@@ 58531
Испании 58524
выше 58515
Бри@@ 58488
цион@@ 58487
Ев@@ 58485
крат@@ 58471
дели@@ 58383
революции 58364
дя@@ 58362
Це@@ 58354
движение 58353
чении 58335
чается 58318
нача@@ 58313
проходит 58277
сей 58272
полож@@ 58260
турнире 58251
кома 58237
начальника 58213
млад@@ 58212
стей 58206
цент@@ 58205
шими 58197
дивизия 58186
-@@ 58171
ительной 58168
решения 58164
влияние 58143
ционных 58119
флота 58066
финансо@@ 58063
град@@ 58040
ционной 58011
Мария 57990
льд 57979
точки 57926
основате@@ 57914
заявил 57896
бой@@ 57885
види@@ 57885
слав@@ 57855
ент@@ 57849
мастер@@ 57839
13@@ 57834
водного 57834
тона 57815
зыва@@ 57796
множество 57791
верну@@ 57760
сор@@ 57755
основан@@ 57753
1924 57741
нюю 57708
боевых 57701
одно 57692
финале 57687
сочи@@ 57678
торго@@ 57612
пока 57598
выиграл 57552
зом 57550
правительство 57540
музыка@@ 57534
ссия 57501
Советского 57498
сол@@ 57452
лож@@ 57438
нал 57435
мест 57409
дали 57387
ющихся 57338
рю@@ 57322
награ@@ 57311
ровали 57306
1921 57283
торов 57278
Не 57250
километров 57237
сокра@@ 57168
возможно 57156
шел 57143
исто@@ 57088
существо@@ 57065
Сюжет 56993
Син@@ 56979
Всего 56975
Бре@@ 56949
йская 56944
главный 56905
живо@@ 56904
периода 56902
лка 56851
список 56844
хозяйства 56840
ывает 56834
считается 56819
фон@@ 56819
Дру@@ 56800
традицион@@ 56799
озера 56793
Народ@@ 56751
ственным 56722
никам 56712
верх@@ 56708
сторо@@ 56647
Рабо@@ 56646
орденом 56630
деву@@ 56614
стандар@@ 56577
тики 56553
эле@@ 56553
известно 56552
стать 56552
пози@@ 56537
65 56511
храни@@ 56509
нского 56491
находятся 56469
Карьера 56461
христиан@@ 56454
химиче@@ 56409
мия 56406
относительно 56402
пос@@ 56379
чено 56360
Фор@@ 56334
ленные 56326
запа@@ 56325
большинство 56312
известный 56308
1922 56289
предполага@@ 56288
группу 56281
лон@@ 56274
проводи@@ 56253
реке 56250
музыки 56218
медали 56216
шем 56214
вер 56198
Петро@@ 56154
европей@@ 56138
64 56132
тная 56106
рина 56102
Тро@@ 56074
Длина 56054
захват@@ 56047
личе@@ 56047
Королев@@ 55998
условиях 55966
имели 55961
Э 55941
ровки 55941
свет@@ 55930
Ленина 55922
сне@@ 55914
1953 55880
рована 55860
понима@@ 55849
чек 55830
одну 55801
оригина@@ 55786
Алексей 55774
ене@@ 55752
жем 55748
правило 55741
пору@@ 55735
баш@@ 55730
недо@@ 55724
ново 55724
кле@@ 55721
архи@@ 55715
Киев@@ 55711
вила 55710
Эта 55683
военной 55678
гене@@ 55667
группе 55666
ран 55594
несмотря 55589
создан 55536
Эд@@ 55535
1928 55528
днев@@ 55509
которому 55481
ёв 55473
ото@@ 55433
категории 55417
самой 55406
записи 55385
Бори@@ 55377
тился 55329
Харь@@ 55316
лки 55301
совместно 55298
пункт 55282
Сим@@ 55275
состоялась 55265
вно 55233
применя@@ 55222
дворов 55220
использовать 55213
победу 55187
лев@@ 55182
достаточно 55150
дела 55130
Окончил 55129
известен 55128
различные 55087
Список 55085
нена 55083
1955 55073
контра@@ 55063
туре 55043
Эти 55037
ступа@@ 54993
дей 54963
лог 54951
политиче@@ 54945
воль@@ 54933
узна@@ 54933
1934 54925
ённым 54905
могли 54875
автомоби@@ 54851
выбра@@ 54844
следующие 54837
мской 54806
1@@ 54786
Занимает 54786
Совет@@ 54781
E@@ 54774
1952 54762
чиков 54758
дения 54738
хокке@@ 54737
ане 54709
сред@@ 54707
Вскоре 54689
деревян@@ 54668
рен 54625
твор@@ 54622
A@@ 54618
образова@@ 54609
жей 54596
оно 54594
научно 54593
B 54583
сь@@ 54502
K@@ 54468
гии 54462
форме 54461
основной 54450
матч 54423
команд 54412
мым 54412
сильно 54395
занимался 54386
код 54375
теории 54357
1932 54324
Европе 54303
окра@@ 54274
последовате@@ 54257
циями 54256
названия 54245
разру@@ 54236
1933 54218
прямой 54175
няется 54169
тера 54137
тным 54125
лая 54098
интере@@ 54096
тического 54094
учился 54084
Деревня 54083
лам 54070
наи@@ 54048
Андрей 54031
укра@@ 54026
владель@@ 54004
Бор@@ 53973
Полу@@ 53971
информации 53970
оби@@ 53965
Нар@@ 53960
ща 53957
300 53917
исследований 53898
мость 53895
пехот@@ 53869
Центра@@ 53867
али@@ 53863
месяцев 53859
чар@@ 53859
лых 53852
уровне 53844
спортив@@ 53804
министра 53784
целом 53767
Нов@@ 53757
посёлка 53730
дальнейшем 53715
журнали@@ 53708
чие 53706
песен 53679
ляр@@ 53653
наход@@ 53651
1931 53643
шан@@ 53638
Хан@@ 53628
туре@@ 53617
1923 53593
такой 53587
документа@@ 53581
угро@@ 53580
36 53573
Некоторые 53572
русских 53569
щена 53542
Лей@@ 53538
потому 53532
обе@@ 53529
разв@@ 53513
рождения 53498
воро@@ 53486
участок 53484
острове 53479
лиге 53476
жить 53475
оз@@ 53475
Её 53471
Вели@@ 53461
ционного 53454
мами 53385
пунктов 53380
вице 53367
33 53365
вии 53365
успеш@@ 53354
брат 53348
штата 53335
студен@@ 53324
ствами 53309
значительно 53295
Тай@@ 53287
юр@@ 53281
убе@@ 53261
позволя@@ 53259
педагоги@@ 53254
уни@@ 53251
лан 53247
игре 53217
принимал 53215
Московского 53198
вокруг 53196
состоялся 53193
ато 53189
йским 53182
Гон@@ 53077
внутрен@@ 53047
лян@@ 53045
капита@@ 53030
образу@@ 52969
стр 52923
числа 52922
включает 52901
работает 52887
смер@@ 52875
Красной 52873
представителей 52872
соеди@@ 52851
супру@@ 52801
смог 52732
эр@@ 52730
быстро 52703
учре@@ 52634
Название 52617
ющую 52605
аэро@@ 52601
убий@@ 52589
действий 52582
факультет 52581
ас@@ 52565
лица 52563
руют 52532
Ю 52530
транс@@ 52517
муниципального 52469
Василий 52466
выборах 52457
ствах 52448
промышленности 52408
Бен@@ 52380
путеше@@ 52372
Вин@@ 52341
подо@@ 52319
ющиеся 52296
судь@@ 52280
участник 52256
скульп@@ 52246
мую 52235
поля 52234
Азии 52217
скры@@ 52190
электри@@ 52185
нной 52179
дно 52177
анд@@ 52175
производство 52116
Пен@@ 52100
команде 52080
науки 52077
молодёж@@ 52071
военно 52021
тором 52021
посвя@@ 52016
ктором 52010
социаль@@ 52010
мужчины 52002
станов@@ 51992
дли@@ 51983
странах 51948
арти@@ 51939
us 51930
летних 51921
глу@@ 51907
област@@ 51891
Александрович 51886
гат@@ 51884
Кла@@ 51882
вор@@ 51879
песня 51832
ссы 51826
Административный 51821
гия 51820
воздуха 51819
заво@@ 51787
тяже@@ 51778
титу@@ 51776
1951 51765
ницей 51747
мень@@ 51737
гли@@ 51733
зал 51728
сков 51728
Гла@@ 51725
бург@@ 51720
хо 51712
чемпионат 51710
Николаевич 51705
экра@@ 51688
президент 51671
38 51668
Од@@ 51659
нау@@ 51642
Рас@@ 51636
V@@ 51630
успе@@ 51625
тические 51619
коммер@@ 51618
Дей@@ 51594
административного 51594
1927 51583
чал 51570
Основ@@ 51558
нский 51553
мые 51540
счёт 51523
системе 51515
став 51514
жный 51503
37 51492
Дж@@ 51484
Сло@@ 51451
лучших 51449
H@@ 51448
Зем@@ 51448
зма 51429
сё@@ 51426
Южной 51406
орке@@ 51380
ходил 51370
рованы 51360
принима@@ 51343
искусств 51336
просто 51307
соответству@@ 51295
бен@@ 51289
ровка 51283
принци@@ 51246
Джи@@ 51198
кана@@ 51198
дже@@ 51192
ап@@ 51164
даль@@ 51164
доме 51145
мере 51142
ност@@ 51126
первое 51111
границы 51106
щее 51098
войсками 51093
1925 51075
девя@@ 51039
дочери 51006
серьёз@@ 51000
суда 50996
последний 50987
уси@@ 50985
вла@@ 50980
сем@@ 50979
Иль@@ 50974
первая 50974
дан 50972
сначала 50971
Академии 50943
коле@@ 50916
следует 50908
воору@@ 50880
знамени@@ 50837
оцен@@ 50835
вок 50834
34 50817
преимущественно 50770
тое 50750
in 50735
ссе 50727
рией 50717
ждён 50692
воен@@ 50677
стра 50662
явление 50661
Даль@@ 50658
Вос@@ 50648
Росси@@ 50592
1914 50590
эль 50579
Же@@ 50559
Автор 50550
Под 50531
каждый 50531
сп@@ 50529
официально 50522
посвящ@@ 50518
дь@@ 50507
Ген@@ 50494
подня@@ 50488
вин 50467
Коро@@ 50455
музей 50448
нице 50441
Джон@@ 50426
остав@@ 50423
произведения 50402
сум@@ 50393
матча 50374
медаль 50361
работа 50350
отношении 50348
емого 50342
извест@@ 50340
ёт@@ 50294
14@@ 50249
тическая 50229
бат@@ 50211
Верх@@ 50208
пье@@ 50190
своими 50188
дает 50186
грам@@ 50137
произ@@ 50120
ционный 50042
армия 50041
долго 50040
заместитель 50037
ниже 50025
ум@@ 50019
следующий 50016
регионе 50010
гвардей@@ 50009
эн 50003
медицин@@ 49996
рение 49992
структуре 49984
данные 49972
Ива@@ 49961
поста@@ 49954
Нико@@ 49928
джи@@ 49927
заболе@@ 49920
нор@@ 49919
коне@@ 49898
работала 49895
and 49880
Три@@ 49856
старший 49842
броне@@ 49839
тен 49838
стана 49827
железнодорож@@ 49817
веща@@ 49808
ждена 49798
тю@@ 49776
Здесь 49771
Умер 49750
боро@@ 49741
историю 49730
всю 49722
води@@ 49709
распреде@@ 49688
рон 49678
гит@@ 49658
совмест@@ 49657
книг 49647
улице 49607
солдат 49605
сторону 49595
Дани@@ 49550
базе 49530
театра@@ 49529
храм 49528
изготов@@ 49510
дение 49499
готов@@ 49466
силь@@ 49441
Анто@@ 49418
сра@@ 49408
XVII 49389
Помимо 49356
стка 49355
тки 49345
Нор@@ 49323
осуществ@@ 49318
обви@@ 49305
Боль@@ 49303
независи@@ 49283
Казан@@ 49278
власть 49240
реестра 49232
разработ@@ 49219
герман@@ 49143
тив 49141
большую 49135
предыду@@ 49117
ниж@@ 49094
активно 49086
позволяет 49082
железной 49041
вари@@ 49033
мощ@@ 49032
определя@@ 49007
море 48975
занимал 48956
Виктор 48928
округе 48926
заключ@@ 48922
Президиума 48892
юриди@@ 48887
вами 48862
ыми 48828
половине 48808
amp 48769
военный 48768
жав@@ 48761
нены 48738
приве@@ 48737
вшиеся 48735
возник@@ 48730
кен@@ 48726
часов 48692
дерев@@ 48686
инстру@@ 48666
челове@@ 48625
тин 48622
Хотя 48588
трав@@ 48569
сохра@@ 48568
эффектив@@ 48541
общего 48536
фамилия 48536
государственной 48534
вали@@ 48493
ад@@ 48460
Дмитрий 48450
1905 48439
ленных 48431
олимпи@@ 48425
решил 48401
Бан@@ 48396
потреб@@ 48367
Бай@@ 48355
духов@@ 48354
.. 48345
Аб@@ 48330
литературы 48284
льство 48253
пом 48249
евского 48234
развед@@ 48226
ступ@@ 48206
студии 48201
защит@@ 48191
средств 48191
умень@@ 48178
бригады 48140
Сы@@ 48131
пяти 48107
Лан@@ 48092
одноим@@ 48087
ительный 48077
восток 48073
общество 48067
кг 48054
вия 48049
йся 48045
городов 48024
тюрь@@ 48016
держ@@ 48008
ланд@@ 48006
Кру@@ 47989
ходят 47980
будут 47973
фе 47968
дело 47961
стороне 47955
зву@@ 47954
арен@@ 47937
добав@@ 47925
лям 47925
менты 47918
глубо@@ 47885
существует 47876
экономиче@@ 47866
происхождения 47846
пяти@@ 47846
Село 47805
мента@@ 47782
фом 47782
прежде 47760
печат@@ 47744
голосо@@ 47708
ёр 47699
отдела 47615
формирова@@ 47604
лья 47581
нич@@ 47581
актё@@ 47571
маршру@@ 47564
фрон@@ 47559
сельскохозяй@@ 47548
желез@@ 47537
сть@@ 47503
de 47501
ради@@ 47499
книге 47476
директор 47444
тренер 47433
действие 47428
районного 47396
региона 47393
раза 47355
фре@@ 47344
Чемпи@@ 47338
ковые 47327
мого 47323
мал@@ 47319
Луч@@ 47317
следующем 47309
храма 47246
гол 47240
фици@@ 47204
вной 47203
ню 47194
привле@@ 47162
служи@@ 47145
уровня 47145
домаш@@ 47132
бед@@ 47098
цом 47094
ковая 47067
заве@@ 47053
лого 47052
селе@@ 47049
шек 47014
административно 47013
длиной 47006
цо 46997
чика 46991
средней 46988
нало@@ 46983
погиб@@ 46936
степень 46929
прибы@@ 46915
пробле@@ 46904
линей@@ 46890
туры 46887
тное 46866
замет@@ 46860
втором 46857
футболь@@ 46840
кали@@ 46836
Все@@ 46831
обозна@@ 46817
ую 46809
действо@@ 46803
новский 46794
Чемпионат 46793
люби@@ 46784
газеты 46770
проживало 46758
местного 46753
всем 46748
большая 46743
Пор@@ 46742
процесс 46739
управление 46715
голов@@ 46711
характер@@ 46703
выигра@@ 46700
пру@@ 46690
сказал 46688
звания 46684
Фу@@ 46683
Кли@@ 46681
зелё@@ 46669
огром@@ 46644
Рим@@ 46635
техники 46631
ленный 46614
Вла@@ 46596
кому 46584
реали@@ 46582
жу 46568
зако@@ 46548
рублей 46545
католиче@@ 46539
фильмов 46533
против@@ 46493
оши@@ 46492
дении 46490
вариан@@ 46487
сыгра@@ 46484
O@@ 46481
путь 46410
Бал@@ 46407
лод@@ 46400
нас 46386
музея 46361
защиты 46356
вести 46347
война 46338
рик 46327
продук@@ 46321
итогам 46312
рэ@@ 46275
гин@@ 46269
основных 46264
Федера@@ 46259
образован 46256
Наиболее 46236
побед@@ 46216
Ара@@ 46209
Мер@@ 46189
возможности 46187
государ@@ 46183
ана@@ 46181
артиллерий@@ 46172
вому 46168
нен 46166
пункты 46166
Сти@@ 46150
сериала 46150
полага@@ 46145
модели 46137
измени@@ 46136
реб@@ 46122
долж@@ 46073
Ря@@ 46058
Хе@@ 46057
вступил 46031
международных 45984
последние 45984
зависимости 45977
партий@@ 45977
Выс@@ 45964
ску@@ 45954
командира 45945
оборо@@ 45935
художник 45900
помощь 45891
аб@@ 45884
ментов 45880
отделения 45842
пересе@@ 45836
тех@@ 45833
шает 45802
сии 45772
ог@@ 45767
средства 45765
географи@@ 45763
щено 45757
Воен@@ 45756
Пол@@ 45756
организа@@ 45753
вошёл 45739
клад@@ 45705
должна 45700
политической 45690
довольно 45665
паро@@ 45664
семей@@ 45648
хе 45645
44 45640
Красно@@ 45628
Тру@@ 45628
гер 45620
известных 45611
42 45600
рал@@ 45573
версия 45569
поня@@ 45568
берг 45563
напря@@ 45561
доступ@@ 45555
щем 45543
1915 45539
ец 45539
раст@@ 45532
самом 45530
струк@@ 45528
опас@@ 45513
крити@@ 45510
Зи@@ 45506
испыта@@ 45501
кварти@@ 45489
ленной 45479
подписал 45442
улуч@@ 45438
управ@@ 45431
крупных 45425
Мал@@ 45416
рана 45414
полномо@@ 45405
йна 45404
высота 45391
поселе@@ 45380
Жу@@ 45378
расположены 45371
боях 45349
местных 45333
Петербурге 45331
сно 45331
рели@@ 45259
Пан@@ 45255
теперь 45255
хот@@ 45234
истреб@@ 45232
начина@@ 45223
комиссии 45211
нией 45199
осу@@ 45195
председатель 45165
жила 45163
космиче@@ 45154
Филип@@ 45125
хол@@ 45112
Евро@@ 45110
строй@@ 45094
Ян@@ 45084
Андре@@ 45035
тации 45028
пользо@@ 45020
400 45012
неуда@@ 45007
революцион@@ 44998
ЦК 44995
нат 44994
сце@@ 44987
ённое 44979
Пётр 44972
Семья 44952
председателем 44942
карьеры 44938
останов@@ 44927
партия 44921
фло@@ 44919
жского 44916
Первая 44910
рованной 44895
значи@@ 44889
Кро@@ 44854
поле@@ 44849
кло@@ 44817
Святого 44796
сим@@ 44796
дорога 44786
оказа@@ 44779
частей 44766
путём 44762
отсут@@ 44725
выступил 44723
Васильевич 44712
S 44695
евский 44675
театр 44671
осуществля@@ 44670
устро@@ 44664
трёх@@ 44652
суд 44651
пись 44639
центральной 44638
чности 44620
вки 44608
чемпионом 44581
дор@@ 44570
поз@@ 44545
Ах@@ 44500
рио@@ 44482
корпус 44453
футболу 44441
Юрий 44433
Впервые 44421
пока@@ 44416
суб@@ 44415
вошли 44413
тический 44410
следу@@ 44408
Коман@@ 44407
Черно@@ 44391
сения 44360
лизации 44288
йт 44272
подвер@@ 44271
предме@@ 44270
шен 44249
указа@@ 44246
компанией 44219
добы@@ 44214
кти@@ 44187
среднем 44183
шу 44180
объек@@ 44178
групп 44156
бай@@ 44140
дин 44138
Василь@@ 44133
Украин@@ 44133
потом 44114
брига@@ 44112
сети 44102
никогда 44081
обязате@@ 44078
национального 44061
моби@@ 44052
стиле 44049
пит@@ 44038
запу@@ 44035
мый 44015
ятся 44009
Слу@@ 43985
Ган@@ 43965
езда 43965
Мен@@ 43958
миллионов 43950
КПСС 43945
соору@@ 43945
севере 43944
уве@@ 43939
зано 43935
Ура@@ 43930
использования 43919
чился 43919
ительно 43898
сад@@ 43898
ворота 43894
деся@@ 43866
дивизи@@ 43859
Крас@@ 43851
шесть 43841
футбо@@ 43838
пон@@ 43833
Бы@@ 43828
говорит 43814
Ир@@ 43805
животных 43800
юге 43790
Вместе 43784
Кал@@ 43783
чемпион@@ 43776
­ 43725
Один 43722
щик 43719
рованный 43717
уез@@ 43710
бывший 43693
дон@@ 43687
форму 43657
обслужи@@ 43644
альной 43642
летний 43641
чь@@ 43626
худож@@ 43603
оса@@ 43584
Ско@@ 43582
мель@@ 43576
пита@@ 43572
цкая 43560
растений 43556
рис 43540
десяти@@ 43537
наслед@@ 43537
именем 43533
швед@@ 43533
чными 43531
входила 43520
Ос@@ 43489
получить 43472
председателя 43472
шах@@ 43456
люб@@ 43454
жерт@@ 43452
туру 43449
приняли 43446
c 43413
лизо@@ 43393
республики 43388
скла@@ 43378
Михайлович 43371
комму@@ 43371
Хор@@ 43367
психо@@ 43361
лью 43355
основан 43355
иностранных 43340
Павел 43313
дважды 43293
малень@@ 43286
пило@@ 43273
око@@ 43259
Фер@@ 43247
уг@@ 43240
уезд 43239
систем 43228
мел@@ 43223
клу@@ 43210
произошло 43209
ря 43199
нили 43195
езд 43193
дальней@@ 43189
I@@ 43149
Эк@@ 43145
построен 43143
позволи@@ 43140
вив 43122
тка 43110
Тю@@ 43109
Джей@@ 43107
команд@@ 43105
щиков 43103
направлении 43097
увеличи@@ 43089
лес 43088
ницу 43077
родилась 43075
работ@@ 43072
четвер@@ 43065
православ@@ 43036
слов 43022
своему 43018
i 43016
временем 43012
присвоено 43008
Париже 43006
чув@@ 43005
выпуска@@ 43000
жать 42996
ляции 42976
Лит@@ 42960
игра 42951
режи@@ 42935
Смолен@@ 42917
коммуна 42910
крупней@@ 42902
сво@@ 42896
принято 42879
борьбы 42875
депутатов 42871
изменения 42857
предназна@@ 42857
зам@@ 42850
XVI 42845
маль@@ 42832
заяв@@ 42823
слав 42803
Рей@@ 42793
Указом 42775
ниц 42769
инди@@ 42768
участия 42744
нец 42737
рабочих 42732
министр 42713
мото@@ 42711
льность 42710
мыш@@ 42699
счётом 42656
39 42645
ровала 42645
Площадь 42636
высоко@@ 42636
участников 42625
мино@@ 42621
осадков 42604
Тар@@ 42601
командир 42599
проведения 42587
современной 42573
Эй@@ 42569
выхода 42557
оло@@ 42556
технологи@@ 42550
свер@@ 42539
Ли 42529
поддержку 42507
вплоть 42498
Америки 42496
сделать 42481
знач@@ 42470
командованием 42469
автор@@ 42461
вай@@ 42452
рубе@@ 42445
Сол@@ 42435
приблизительно 42414
нных 42386
почто@@ 42376
работали 42367
премьер 42366
Например 42361
учи@@ 42361
князя 42334
началось 42334
тием 42332
Сар@@ 42310
вам 42292
высоте 42276
Первые 42251
бов 42250
бывшего 42242
написан@@ 42230
Моло@@ 42211
пут@@ 42207
мп@@ 42199
75 42182
кня@@ 42171
ительные 42148
любо@@ 42147
следующих 42146
борьбе 42142
началась 42125
ин 42114
призёр 42101
скан@@ 42097
Национа@@ 42092
окончании 42089
хозяйств 42057
выпущен 42055
рованные 42055
Х 42052
ительного 42037
1912 42029
директором 42024
взгля@@ 41994
входят 41992
фи 41991
тепло@@ 41986
фы 41985
вате@@ 41947
ёл 41926
остров 41924
Большой 41914
кости 41901
журна@@ 41899
монастыря 41897
данный 41891
составляла 41891
матери 41886
персона@@ 41852
вати@@ 41839
бран@@ 41837
ходов 41834
y 41833
возглавил 41829
богат@@ 41800
финала 41791
законодате@@ 41788
матчах 41786
чере@@ 41786
сделал 41742
оба 41738
морской 41732
1913 41721
упоминается 41720
Зна@@ 41718
домо@@ 41717
Поль@@ 41698
судеб@@ 41692
кает 41690
переве@@ 41678
императора 41670
d@@ 41667
взаимо@@ 41652
увиде@@ 41652
тем@@ 41641
рази@@ 41638
секре@@ 41634
прошёл 41632
вах 41627
Север@@ 41626
Австралии 41624
низации 41624
нове@@ 41603
Армии 41583
теоре@@ 41581
собы@@ 41580
Государ@@ 41574
диссертацию 41572
избе@@ 41555
широко 41536
Рос@@ 41529
Николая 41526
скло@@ 41525
информа@@ 41490
АССР 41486
ющийся 41483
жёл@@ 41442
1910 41434
От 41433
Али@@ 41429
вклю@@ 41414
протекает 41396
некоторое 41392
президентом 41375
моде@@ 41368
лист 41367
Казах@@ 41360
Карл 41345
располо@@ 41338
Пал@@ 41332
директора 41332
произведений 41323
Ас@@ 41296
Средняя 41292
метра 41278
построен@@ 41274
эти@@ 41266
рос@@ 41252
ника@@ 41245
тую 41245
Кэ@@ 41237
Сибир@@ 41228
проблемы 41207
дано 41203
Ещё 41202
Воро@@ 41193
аппара@@ 41186
песню 41177
резер@@ 41143
пи 41127
ее 41108
сту 41096
сер 41088
пределах 41084
заняла 41074
король 41065
новую 41060
правом 41048
втор@@ 41022
институте 40999
тера@@ 40993
зая@@ 40992
Ци@@ 40986
писатель 40985
нению 40976
емая 40975
Летом 40966
жители 40963
вина 40947
геро@@ 40936
сных 40935
переехал 40915
четы@@ 40903
расположено 40899
друга 40894
объ@@ 40887
55 40867
вшейся 40859
лиц 40857
взры@@ 40852
кир@@ 40851
метро@@ 40842
ани 40827
повре@@ 40827
Андже@@ 40806
советской 40803
режиссёра 40797
тт 40795
вез@@ 40791
история 40775
Брю@@ 40767
лега@@ 40764
сной 40764
фран@@ 40756
минут 40707
южной 40705
жской 40696
хан 40688
Ст@@ 40662
лья@@ 40629
влия@@ 40604
вская 40592
занимает 40588
J@@ 40586
ческими 40583
армию 40581
рал 40577
рил 40576
ссу 40575
создание 40566
числен@@ 40565
бор 40563
ляют 40563
представители 40563
стин@@ 40562
функции 40554
кового 40526
сан 40520
Находится 40514
ряд@@ 40513
Коло@@ 40511
автобу@@ 40487
международ@@ 40486
проходи@@ 40485
моти@@ 40470
альных 40465
ун 40450
Ам@@ 40413
генерала 40401
превы@@ 40398
Дю@@ 40397
постоянно 40361
весь 40351
силу 40336
графии 40334
оказался 40329
Индии 40327
сочета@@ 40327
ьев 40325
Й@@ 40323
тили 40316
Гру@@ 40312
университе@@ 40310
набра@@ 40294
чемпион 40289
копи@@ 40274
150 40272
Само@@ 40255
ственном 40255
советских 40253
вдоль 40246
зон@@ 40226
вопрос 40220
начальником 40216
Кир@@ 40215
тить 40215
Их 40214
проце@@ 40205
епархии 40188
новое 40172
Нача@@ 40171
тип 40169
главной 40154
кер 40148
театре 40148
назад 40145
Герой 40113
e@@ 40110
ходы 40108
1916 40068
48 40067
контро@@ 40066
умеренно 40059
вероятно 40042
мон 40035
появился 40029
ходить 40028
лёг@@ 40025
топо@@ 40004
милли@@ 39978
систему 39975
исклю@@ 39963
Генера@@ 39954
конец 39953
пришлось 39947
жного 39937
кторов 39917
распростран@@ 39903
ровано 39903
Похоронен 39885
ево 39871
ктор 39868
пят@@ 39866
Тогда 39861
выборов 39850
имеется 39845
зим@@ 39831
раун@@ 39812
дают 39810
группой 39802
запад 39791
доли@@ 39784
играть 39784
ологии 39782
деле 39773
говори@@ 39771
Является 39755
сопер@@ 39741
Бат@@ 39740
АН 39715
обита@@ 39712
заверши@@ 39681
ительных 39677
озеро 39677
ряде 39668
кара@@ 39664
хло@@ 39657
природ@@ 39633
43 39631
удар@@ 39619
поверхности 39605
анали@@ 39599
создании 39596
отделение 39594
ционные 39579
ственную 39575
две@@ 39556
сел@@ 39555
магни@@ 39546
рек 39529
следования 39523
дили 39502
началом 39499
мало 39491
мини@@ 39478
гео@@ 39451
парк 39399
меда@@ 39397
книга 39383
семья 39370
00 39366
програм@@ 39362
дено 39354
ничего 39334
спектак@@ 39329
профессора 39326
появились 39320
строй 39294
находились 39285
использу@@ 39283
і@@ 39282
двигате@@ 39281
выстав@@ 39272
мной 39266
успешно 39259
лию 39252
зло@@ 39231
боя 39224
Современ@@ 39166
брата 39166
Откры@@ 39139
гам 39139
подготов@@ 39134
форм 39131
воду 39104
ительность 39101
употреб@@ 39093
Впоследствии 39083
хор@@ 39076
ровского 39064
польского 39050
Хай@@ 39041
надц@@ 39035
леги@@ 39028
каче@@ 39027
$ 39007
появилась 38996
простран@@ 38993
основании 38979
действ@@ 38965
леса 38962
жные 38961
трени@@ 38950
дека@@ 38945
стской 38944
Гро@@ 38940
гвардии 38940
французский 38932
лесо@@ 38925
неболь@@ 38923
художника 38907
мас@@ 38899
событий 38890
Ио@@ 38877
картины 38864
народа 38853
потеря@@ 38847
которыми 38846
Стра@@ 38840
стран@@ 38838
очеред@@ 38833
количе@@ 38831
биологи@@ 38825
след@@ 38820
Макси@@ 38809
пользовате@@ 38809
эр 38807
век 38798
новая 38787
1,@@ 38786
уры 38775
тского 38773
льда 38767
Пя@@ 38764
обеспе@@ 38761
ваний 38757
дя 38742
режиссёр 38728
Исто@@ 38723
нской 38715
Город 38687
преступ@@ 38683
сообще@@ 38683
фикация 38680
меся@@ 38672
отря@@ 38670
летия 38665
бил 38660
регуляр@@ 38655
Западной 38654
имела 38647
Восточной 38620
стаби@@ 38615
фили@@ 38614
дания 38609
Министерства 38608
библиоте@@ 38604
труда 38598
торгов@@ 38593
52 38591
северной 38591
догово@@ 38589
ремон@@ 38578
цы@@ 38574
союза 38568
41 38564
кандидат@@ 38563
Чёр@@ 38555
блю@@ 38539
Дар@@ 38533
большим 38528
Льво@@ 38524
Шар@@ 38515
мину@@ 38504
L 38490
команду@@ 38488
реше@@ 38486
комплекс 38464
иты 38459
стые 38438
пусти@@ 38415
части@@ 38409
максима@@ 38401
каждой 38398
Влади@@ 38391
гале@@ 38389
шин 38381
Кам@@ 38373
Марии 38363
общ@@ 38352
экономики 38345
приток 38314
языков 38314
виду 38313
называют 38307
рат 38307
клубе 38306
родо@@ 38304
главных 38287
стоит 38270
эй 38234
лым 38232
народов 38222
ору@@ 38218
Кубок 38181
сельский 38174
проходил 38171
Северо 38153
кт 38148
дений 38147
ид@@ 38146
ляются 38144
преде@@ 38123
Поло@@ 38107
Послед@@ 38103
почёт@@ 38088
ковый 38078
местности 38063
Международ@@ 38061
бира@@ 38061
мили@@ 38061
стрелковой 38056
зя@@ 38055
секретарь 38053
памятник 38033
игру 38024
куда 38019
исполнитель@@ 38018
бази@@ 38013
Воло@@ 38007
книгу 38006
мина@@ 38006
ологи@@ 38001
доктор 37999
зала 37997
ведения 37987
темпера@@ 37987
зами 37986
образовате@@ 37976
предприятия 37963
политики 37950
ны@@ 37941
основа@@ 37925
Гали@@ 37913
46 37909
Тол@@ 37908
турнир 37905
щён 37905
вшегося 37899
заводе 37898
напа@@ 37895
современного 37881
механиз@@ 37880
тоже 37865
ванных 37861
Многие 37856
гли 37841
чаются 37827
сила 37825
кса 37807
большого 37799
подви@@ 37791
кад@@ 37788
вру@@ 37787
Борис 37780
атив@@ 37779
случа@@ 37757
льному 37747
Род@@ 37721
чёт@@ 37714
баро@@ 37695
Ван@@ 37692
создал 37691
концу 37685
обучения 37681
Американ@@ 37674
роман 37662
факультета 37657
Уилья@@ 37649
дворян@@ 37629
рая 37629
покинул 37627
Основные 37590
земле 37569
создана 37564
нитель@@ 37557
памяти 37542
данной 37540
Фри@@ 37529
посо@@ 37527
слава 37526
зимой 37525
Благодаря 37518
плав@@ 37505
ступила 37501
победы 37497
тво@@ 37474
состоял 37473
Йорк 37466
том@@ 37449
Об 37448
насчит@@ 37445
подразде@@ 37430
пес@@ 37420
регули@@ 37415
войну 37412
Белоруссии 37389
актёр 37389
Фло@@ 37385
канала 37373
начинает 37367
нением 37364
действи@@ 37357
немецкий 37350
выпуск@@ 37345
памят@@ 37342
измен@@ 37328
отправился 37310
Пуш@@ 37287
вось@@ 37270
стых 37260
Спи@@ 37258
шер@@ 37246
дета@@ 37227
льская 37225
заместителем 37215
Динамо 37208
отряд 37202
чет@@ 37191
построена 37183
Владимира 37159
члены 37158
длитель@@ 37150
ната 37146
гая 37134
гне@@ 37117
ровался 37115
чис@@ 37088
потом@@ 37076
третий 37076
внутри 37069
находилась 37066
открыт 37063
автором 37032
трас@@ 37031
творче@@ 37030
Национальный 37027
ченных 37026
аналоги@@ 37007
Ленин@@ 36994
тари@@ 36993
весьма 36990
Петербург 36988
Фё@@ 36978
c@@ 36967
уровень 36962
1900 36960
сеть 36941
ходом 36940
сосед@@ 36939
тренером 36939
мит@@ 36937
лай@@ 36935
Москов@@ 36934
момента 36932
стру@@ 36931
лейб@@ 36929
номина@@ 36924
Алексе@@ 36921
пора@@ 36919
лично 36898
мето@@ 36889
степен@@ 36886
ие@@ 36885
Виль@@ 36880
тан 36875
чением 36856
виды 36853
сейчас 36853
сви@@ 36844
территория 36840
тской 36830
слом 36809
фика@@ 36806
араб@@ 36797
D 36787
коп@@ 36773
тном 36771
упраздн@@ 36766
наси@@ 36732
издания 36728
встречается 36725
отношений 36719
лом@@ 36717
основания 36697
вынужден 36693
Мекси@@ 36681
Мит@@ 36675
рем 36667
входил 36656
морского 36656
слова@@ 36651
носит 36649
разработан@@ 36636
каждого 36635
Сла@@ 36626
изм 36625
цвет 36621
бою 36613
гори@@ 36594
эпи@@ 36588
това@@ 36563
сова 36560
щается 36559
Джор@@ 36550
t 36547
меди@@ 36544
армей@@ 36542
двой@@ 36541
Москву 36533
монастырь 36533
шены 36531
завое@@ 36529
иностран@@ 36519
отвер@@ 36513
охот@@ 36499
пытался 36496
щен 36490
художников 36487
использование 36474
распоря@@ 36472
тила 36472
времена 36446
округу 36443
хся 36442
лежа@@ 36433
вошла 36424
Лондоне 36416
АО 36412
1911 36408
восста@@ 36394
передачи 36393
сопровожда@@ 36389
Государственной 36386
другом 36376
территорию 36370
1000 36362
Кле@@ 36362
известна 36358
1907 36357
используются 36352
Там 36348
югу 36341
потер@@ 36339
ровской 36335
агент@@ 36334
ступил 36325
требу@@ 36311
особен@@ 36310
автомати@@ 36304
серд@@ 36304
премию 36297
джа 36261
внутренних 36252
това 36236
1906 36235
замени@@ 36232
зки 36226
зная 36215
ёнными 36206
начинается 36187
льском 36174
дель 36173
присво@@ 36164
ау@@ 36161
млрд 36161
Обще@@ 36151
привело 36145
мам 36141
раб@@ 36126
54 36121
Тан@@ 36113
объя@@ 36111
ровский 36111
бах 36097
ген 36080
оружия 36078
кано@@ 36077
Сей@@ 36061
47 36056
труд@@ 36054
чит 36047
тности 36044
Оль@@ 36022
Героя 36017
ссы@@ 36008
провер@@ 36003
уме@@ 35992
ссив@@ 35983
особо@@ 35975
торы 35970
конструк@@ 35948
тика 35944
выя@@ 35927
неоднократно 35925
районов 35919
новского 35909
Британ@@ 35898
рам@@ 35886
вли@@ 35883
переме@@ 35879
Щ@@ 35864
студи@@ 35864
энергии 35863
мое 35860
женился 35848
рекомен@@ 35847
чив 35840
отда@@ 35837
стане 35836
относи@@ 35833
гель@@ 35825
фир@@ 35806
сад 35795
мол@@ 35789
прав 35787
Польши 35782
епископ 35778
фов 35731
состоянии 35720
ведён 35714
трудо@@ 35714
Евгений 35710
стрем@@ 35707
сел 35699
рейтин@@ 35694
U@@ 35689
Ну@@ 35689
M 35681
подвод@@ 35669
R 35665
общины 35654
ального 35648
мович 35646
большей 35641
on 35638
Казахстана 35637
сон@@ 35633
слишком 35632
попал 35630
лага@@ 35627
предложил 35622
дского 35619
полно@@ 35616
паралле@@ 35607
ёж@@ 35603
индивиду@@ 35593
1908 35590
нос 35590
найти 35575
Эль@@ 35571
туда 35571
Валь@@ 35558
российских 35556
обсу@@ 35553
допол@@ 35550
ванной 35538
интервью 35536
спут@@ 35532
подготовки 35531
экспер@@ 35528
вока@@ 35527
Бол@@ 35520
финал 35495
рь@@ 35484
кан 35481
составил 35464
американской 35461
причём 35449
армян@@ 35447
назы@@ 35445
приме@@ 35430
сбо@@ 35430
альные 35421
преж@@ 35414
парламен@@ 35401
присоеди@@ 35401
мисси@@ 35400
полё@@ 35395
облада@@ 35389
Новый 35385
в. 35381
лейтенант 35374
Комму@@ 35370
объектов 35362
прив@@ 35362
стол@@ 35359
сар@@ 35354
обладате@@ 35344
циона@@ 35344
лучшим 35330
мона@@ 35330
гает 35329
ите@@ 35317
пыта@@ 35313
сингл 35302
горы 35299
X@@ 35294
Кири@@ 35294
русском 35284
хии 35284
чия 35284
Позднее 35282
оном 35281
нес 35274
устанавли@@ 35272
сий 35265
инженер@@ 35264
стить 35248
щи 35237
объё@@ 35236
называется 35231
небольшой 35221
оры 35205
Петрович 35200
писала 35191
назвал 35187
визи@@ 35184
Самар@@ 35179
меня 35173
чают 35162
наблюда@@ 35160
скончался 35153
табли@@ 35153
военные 35151
Z@@ 35146
демонстри@@ 35125
Украине 35124
руются 35124
обуча@@ 35122
ВВС 35115
Поэтому 35112
знаком@@ 35110
кер@@ 35110
Расстояние 35108
Анна 35107
Ала@@ 35099
журнал 35099
тения 35093
домов 35076
относятся 35074
шению 35069
1,5 35063
воин@@ 35056
соци@@ 35040
Экономика 35035
нео@@ 35033
Петра 35029
нической 35024
исследо@@ 35020
Высо@@ 35015
специализи@@ 35015
няет 35001
кии 34987
содержит 34976
означает 34974
государств 34973
семина@@ 34973
модер@@ 34972
грамо@@ 34953
рос 34946
F 34935
тиче@@ 34933
меньше 34928
Кен@@ 34920
Первоначально 34892
Эм@@ 34883
пах 34878
Ник@@ 34877
корпу@@ 34870
Побед@@ 34869
Иванов@@ 34840
сест@@ 34838
чению 34829
фактически 34826
Пау@@ 34825
самостоятель@@ 34808
Данные 34806
издание 34806
исполните@@ 34800
снаб@@ 34790
Бру@@ 34784
забо@@ 34758
Росто@@ 34745
мани@@ 34737
свет 34726
соревнованиях 34722
бить 34718
Отец 34714
связь 34698
вну@@ 34696
Кавказ@@ 34694
пунк@@ 34691
ночь 34683
философии 34682
мене@@ 34677
58 34669
коричне@@ 34666
науч@@ 34661
самый 34654
уста@@ 34652
лиза@@ 34642
нических 34641
VI 34638
раство@@ 34627
сек@@ 34627
мато@@ 34625
заниматься 34624
дор 34623
корреспон@@ 34620
ительности 34603
днее 34590
кораблей 34590
меру 34588
численность 34585
ковым 34584
кафедры 34582
гита@@ 34580
x 34579
газо@@ 34578
древне@@ 34571
ровна 34571
организация 34568
7,@@ 34566
голов 34562
археологи@@ 34560
уде@@ 34519
фронт 34518
остался 34505
замен@@ 34502
характер 34498
Ла 34496
синте@@ 34480
Работал 34465
ано@@ 34465
австри@@ 34457
лон 34454
ллы 34451
51 34450
переимено@@ 34438
ковской 34433
ландии 34431
рекла@@ 34422
состояние 34421
зоны 34416
ати 34414
герцо@@ 34412
шь 34404
объявил 34382
наме@@ 34374
Старо@@ 34329
постепенно 34322
Роберт 34319
ар 34317
кило@@ 34317
дный 34309
различ@@ 34303
товой 34294
видео 34293
президент@@ 34286
G 34283
старше 34280
m 34276
вероя@@ 34268
час 34263
снима@@ 34256
дж 34253
альный 34246
провозгла@@ 34245
Фон@@ 34236
мина 34234
сове@@ 34232
Маль@@ 34227
доль@@ 34227
рович 34212
командиром 34210
архитектуры 34203
Ц 34190
объедин@@ 34189
план 34189
российского 34182
второе 34176
Лос 34155
городах 34147
био@@ 34146
мыс@@ 34145
большие 34140
события 34124
Бро@@ 34109
йское 34109
порядка 34100
оны 34098
команди@@ 34097
крестьян@@ 34097
исла@@ 34089
изме@@ 34087
чила 34086
Фильм 34081
зия 34080
Олимпи@@ 34077
Дне@@ 34047
клубом 34045
материалов 34041
народного 34041
международного 34038
находи@@ 34037
иллю@@ 34031
мян@@ 34031
наро@@ 34030
жо@@ 34017
вей 33991
очков 33985
топли@@ 33979
Израи@@ 33973
край@@ 33968
Института 33964
явления 33964
бка 33963
сей@@ 33962
лист@@ 33930
ари 33924
чики 33924
сре@@ 33913
чность 33910
этапе 33910
лите@@ 33906
стон 33906
1904 33875
порт 33873
началу 33869
отдельных 33855
они@@ 33840
56 33823
совой 33823
сю@@ 33823
нический 33822
свой@@ 33813
чита@@ 33792
метр 33791
62 33790
Йо@@ 33786
современных 33780
N 33773
принят 33772
политических 33771
отставку 33768
бук@@ 33756
счит@@ 33755
рованного 33751
необходимо 33750
метри@@ 33737
тонн 33735
лье 33734
подъ@@ 33731
курс 33728
последо@@ 33724
вклад 33706
индекс 33691
пер 33681
ально 33675
музе@@ 33671
начиная 33667
нем@@ 33648
будучи 33643
получения 33643
агре@@ 33640
шении 33635
Новой 33625
пас@@ 33623
2022 33588
игроком 33582
сюже@@ 33581
драмати@@ 33574
сравнению 33570
организаций 33565
сформирова@@ 33559
берт 33558
абсолютный 33556
реша@@ 33542
Чет@@ 33540
выска@@ 33529
отказа@@ 33520
телем 33517
перевод@@ 33506
Екатери@@ 33499
ими 33495
ченные 33487
шить 33485
создать 33476
49 33465
такого 33456
шина 33456
йдя 33449
57 33444
губер@@ 33429
кавале@@ 33420
тури@@ 33416
земле@@ 33409
пры@@ 33407
колон@@ 33399
лета 33394
льских 33393
града 33392
чины 33391
нуж@@ 33390
компьютер@@ 33386
стики 33381
Кай@@ 33376
Кер@@ 33364
золотой 33361
бассейна 33360
результат 33351
претен@@ 33347
стил 33347
новка 33340
игроков 33333
соответ@@ 33319
Вя@@ 33316
Тран@@ 33310
кораб@@ 33303
игрок 33298
поль 33295
вопросам 33292
частично 33276
ядер@@ 33269
номе@@ 33268
Вене@@ 33255
актриса 33255
ктов 33251
53 33239
Герма@@ 33237
отряда 33228
группи@@ 33221
защитил 33221
миру 33221
альбо@@ 33220
устрой@@ 33207
дипло@@ 33202
ванный 33196
Кат@@ 33194
Трои@@ 33193
Новая 33188
ходили 33185
сведения 33177
каза 33175
результаты 33160
Зу@@ 33158
дить 33156
напомина@@ 33149
постро@@ 33137
слово 33135
офи@@ 33127
неу@@ 33125
контроль 33123
объекта 33119
канал 33109
пто@@ 33100
нала 33097
государственном 33086
горе@@ 33058
замуж 33057
вило 33048
семей 33048
завоевал 33042
линия 33039
дек@@ 33030
непосредственно 33024
император@@ 33016
высокой 33013
смешан@@ 33011
выпущен@@ 33009
обеспечения 32999
бю@@ 32993
ожи@@ 32977
образ 32973
пишет 32968
мери@@ 32961
располагается 32958
ени 32951
щает 32950
началь@@ 32946
тивно 32946
рить 32940
зан 32927
спек@@ 32882
местах 32878
битве 32874
наблю@@ 32871
йки 32869
E 32867
фанта@@ 32847
Европей@@ 32845
ент 32844
мся 32842
эффек@@ 32834
Име@@ 32829
лович 32827
Гал@@ 32823
льское 32813
модель 32808
маги@@ 32806
ехал 32799
бок 32787
упа@@ 32784
ствовали 32778
гать 32777
асси@@ 32774
смотре@@ 32772
Викто@@ 32770
Гос@@ 32769
парка 32767
ьями 32765
препода@@ 32757
мский 32747
лоша@@ 32743
рика 32743
чаще 32735
вро@@ 32730
недостато@@ 32730
Участник 32729
прия@@ 32727
лён 32721
семь 32715
реши@@ 32712
решением 32705
1909 32697
Сен 32687
самолё@@ 32684
утвержда@@ 32682
веков 32664
Семё@@ 32631
продолжил 32629
командой 32624
отказался 32623
Орга@@ 32610
Зо@@ 32593
Заслуженный 32591
чина 32576
дит 32566
пато@@ 32566
союз 32564
диалек@@ 32558
дате@@ 32557
минимум 32552
оце@@ 32544
еты 32537
еще 32529
подпис@@ 32529
иметь 32528
корабля 32528
гла 32527
ывается 32524
исторических 32519
лить 32519
площад@@ 32510
рь 32509
удостоен 32481
Йор@@ 32472
машины 32469
заказ@@ 32467
um 32459
предлага@@ 32444
терро@@ 32442
фаль@@ 32427
нического 32419
совершил 32411
Пара@@ 32401
Вален@@ 32399
Сам@@ 32395
километрах 32365
капитан 32357
женных 32315
Конститу@@ 32314
стой@@ 32301
стого 32295
родствен@@ 32291
каса@@ 32284
сва@@ 32281
проблем 32276
n 32270
знания 32260
назван 32253
попыт@@ 32246
поражение 32246
тную 32245
святой 32244
высшей 32236
бассейн 32235
термин 32215
прош@@ 32204
данного 32195
сою@@ 32192
дра 32191
станови@@ 32184
дети 32183
Джона 32172
деяте@@ 32165
случаях 32160
реги@@ 32154
теат@@ 32154
зарегистри@@ 32116
континентальный 32116
чался 32111
тата@@ 32107
реку 32094
Бразилии 32093
ждению 32084
ште@@ 32084
Группа 32079
шести 32075
ока@@ 32074
островов 32073
выпуск 32064
дороге 32064
жом 32055
предста@@ 32042
последнего 32024
нера 32020
руки 32016
возглавлял 32008
слы@@ 32004
спу@@ 31995
энерге@@ 31994
штаб 31988
уголов@@ 31984
американского 31982
рю 31980
прошли 31965
евреев 31957
конференции 31957
Петербург@@ 31956
дь 31945
северу 31944
приводит 31942
прось@@ 31941
проигра@@ 31940
польский 31916
бург 31914
едино@@ 31904
канад@@ 31884
нова@@ 31882
направлен 31867
ступле@@ 31841
сыном 31839
эро@@ 31826
обучение 31824
рации 31824
солне@@ 31811
нила 31807
левом 31804
вече@@ 31797
стера 31792
вторым 31788
боло@@ 31778
характеризуется 31750
дного 31743
длина 31741
ква@@ 31734
дати@@ 31732
реак@@ 31729
лик 31727
корабль 31726
чили 31717
органов 31716
Дер@@ 31713
эфи@@ 31709
больших 31684
беспо@@ 31676
лял 31668
тео@@ 31658
манов 31655
митрополи@@ 31644
структуры 31640
установлены 31639
встречаются 31638
Константин 31635
дию 31634
тыся@@ 31627
процессе 31625
разли@@ 31623
живу@@ 31621
следующим 31608
чить 31595
доктора 31592
левой 31590
положения 31589
дон 31566
гате@@ 31558
КП@@ 31554
батальона 31542
ченный 31538
P 31536
Большая 31524
систе@@ 31522
юни@@ 31518
2,@@ 31513
сда@@ 31512
O 31502
посеща@@ 31495
бюро 31492
раско@@ 31483
Памя@@ 31476
полиции 31475
Михаила 31472
первен@@ 31467
деньги 31460
царя 31459
пами 31458
Остро@@ 31451
руководство 31451
ровая 31440
эпохи 31439
Дом 31435
осно@@ 31434
усили@@ 31434
ничества 31433
мастер 31431
порта 31425
зывает 31424
предостав@@ 31410
шена 31404
голосов 31402
муниципа@@ 31399
Карла 31392
мс 31390
щу@@ 31383
ходу 31378
зона 31375
атой 31373
Следу@@ 31365
сериал 31361
принадлежит 31351
далее 31324
вшее 31311
единственный 31310
память 31308
Яков@@ 31301
Уже 31286
щать 31278
лять 31273
пуска@@ 31267
экспеди@@ 31253
хле@@ 31246
политический 31211
отлич@@ 31207
кость 31201
связано 31194
восстания 31188
вел 31185
бомбарди@@ 31183
вском 31179
грузо@@ 31158
тивный 31152
финанси@@ 31148
продолжал 31143
латин@@ 31131
Стро@@ 31129
шением 31123
расстре@@ 31121
тский 31114
лое 31105
цу@@ 31104
Совет 31099
ближай@@ 31098
пото@@ 31094
бир@@ 31088
Перед 31085
Греции 31083
Мини@@ 31078
комплекса 31078
гор 31067
отправи@@ 31066
успех 31065
оцени@@ 31061
писате@@ 31060
майор 31051
y@@ 31046
Шо@@ 31043
госп@@ 31041
вся@@ 31040
жесто@@ 31038
Бого@@ 31034
имен@@ 31031
кс@@ 31024
Соедин@@ 31023
традиции 31019
крепости 31014
регион 31009
душ@@ 31005
научной 30998
цеп@@ 30993
основана 30992
Швеции 30989
ённом 30987
тически 30982
Миха@@ 30975
Балти@@ 30971
экипа@@ 30971
сом@@ 30966
желе@@ 30959
дар 30956
Труда 30953
оформ@@ 30952
риа@@ 30945
като@@ 30940
пери@@ 30929
1897 30925
государственных 30924
онов 30923
вдо@@ 30922
дина@@ 30916
двадц@@ 30914
срок 30914
вера 30911
Ур@@ 30909
Ивана 30904
Камен@@ 30898
специали@@ 30893
болез@@ 30884
контроли@@ 30881
ходи@@ 30873
монасты@@ 30849
мун@@ 30847
ставляет 30846
исключением 30841
b@@ 30825
тит@@ 30824
вит@@ 30802
архитектур@@ 30799
сные 30789
мок 30776
составила 30776
основал 30768
произве@@ 30760
Сверд@@ 30754
статьи 30748
служ@@ 30746
Олимпиа@@ 30735
лети@@ 30730
возника@@ 30726
Сын 30715
журнале 30704
ьер@@ 30704
средневе@@ 30698
мело@@ 30696
нный 30694
Тал@@ 30692
обре@@ 30690
связан@@ 30688
бина 30687
сборная 30684
ждая 30677
представлены 30675
доби@@ 30672
Пос@@ 30667
романа 30665
тренера 30656
технологии 30654
строения 30650
литературе 30640
числи@@ 30634
говой 30626
известны 30613
республикан@@ 30605
кризи@@ 30593
аку@@ 30587
тери@@ 30580
погиб 30572
примечате@@ 30571
верси@@ 30570
Степа@@ 30548
арестован 30540
природы 30536
спортсме@@ 30531
возраста 30527
вариант 30520
скорость 30520
Первым 30510
пр 30506
принять 30494
Ита@@ 30492
чемпиона@@ 30492
съём@@ 30490
выступает 30489
чку 30474
стан 30469
Сент 30468
объяв@@ 30468
судов 30463
относ@@ 30450
Награды 30444
Украина 30440
норма@@ 30427
шается 30424
дел@@ 30422
рец 30413
6,@@ 30411
перево@@ 30409
Жан 30397
дной 30393
Уол@@ 30390
замок 30385
моги@@ 30385
дора 30378
дене@@ 30375
сена 30370
дорож@@ 30364
рекор@@ 30345
описание 30342
поя@@ 30342
пользу 30335
лера 30331
присоедини@@ 30326
портре@@ 30325
резо@@ 30314
кампании 30310
сай@@ 30305
насел@@ 30295
Покров@@ 30293
Интер@@ 30285
пресси@@ 30284
соста@@ 30272
тировал 30266
Елиза@@ 30265
штур@@ 30261
ваго@@ 30255
паль@@ 30254
Лен@@ 30253
татар@@ 30248
философ@@ 30244
квадра@@ 30233
раунде 30221
двор@@ 30219
транспорта 30213
пулем@@ 30205
чая 30200
известного 30198
парти@@ 30197
сси 30193
бурга 30191
a@@ 30190
ничество 30188
600 30185
Кё@@ 30184
сериале 30183
63 30182
ственности 30174
Всемир@@ 30170
колхо@@ 30169
перемен@@ 30168
продю@@ 30168
лец 30156
форма 30151
Джеймс 30147
Кин@@ 30144
ловской 30144
офицеров 30135
нологи@@ 30131
Дмит@@ 30128
пев@@ 30125
элементов 30119
десан@@ 30114
нд 30100
Миро@@ 30089
бель 30087
одеж@@ 30080
мате@@ 30075
изма 30071
Русской 30068
провед@@ 30067
середины 30055
английский 30042
десят@@ 30029
рит 30026
объединения 30017
стрелкового 30017
72 30014
муниципальное 30013
графия 30011
щика 30000
эска@@ 29994
T 29992
уника@@ 29987
Ката@@ 29986
строе@@ 29986
емым 29981
Национальной 29965
какой 29963
сосредо@@ 29963
династии 29962
никах 29956
юг 29956
комби@@ 29951
120 29950
экспедиции 29950
заведу@@ 29941
Шан@@ 29929
получает 29924
фар@@ 29907
Большинство 29905
аресто@@ 29896
младший 29896
иска@@ 29893
силами 29890
тыми 29888
канале 29886
фигу@@ 29886
Ярослав@@ 29879
вме@@ 29877
95 29875
особенности 29857
рея 29857
компаний 29854
лато@@ 29854
Более 29850
студентов 29844
прито@@ 29843
обязанности 29833
предприятий 29830
Баш@@ 29828
ракет@@ 29826
увеличе@@ 29824
Китая 29822
Пале@@ 29822
цком 29818
болезни 29812
ностями 29805
ъ 29801
крупнейших 29799
Известные 29797
сцене 29796
Куль@@ 29794
немецких 29789
плен@@ 29785
напис@@ 29777
Уильям 29775
администрации 29775
сно@@ 29770
гражданской 29766
авиации 29758
e 29752
рес 29750
мися 29747
российской 29746
бума@@ 29742
дила 29742
Церковь 29734
опи@@ 29734
разные 29732
мяг@@ 29727
76 29719
воспомина@@ 29719
ждений 29710
дет 29709
говор@@ 29704
отече@@ 29704
бом@@ 29697
d 29678
Татар@@ 29673
обнов@@ 29655
Вал@@ 29643
всему 29641
зывал 29641
радио 29620
зало@@ 29617
скон@@ 29617
Ау@@ 29609
ните@@ 29606
предваритель@@ 29603
Венгрии 29598
ленд 29598
греб@@ 29596
собора 29596
Том@@ 29595
звезды 29581
ответ 29577
сих 29575
турни@@ 29573
направления 29570
близ 29568
Владимирович 29566
o 29565
коллед@@ 29559
отношение 29555
сексу@@ 29552
бер 29550
Советской 29547
созыва 29543
свыше 29541
руководитель 29538
последних 29532
дных 29530
избиратель@@ 29530
59 29524
пуль@@ 29522
трен@@ 29511
щими 29508
сный 29504
лиш@@ 29497
опу@@ 29490
ительное 29487
полковник 29485
мульт@@ 29473
Хер@@ 29469
стратеги@@ 29465
ритель@@ 29456
ловский 29452
экспери@@ 29451
дево@@ 29444
довой 29439
Вто@@ 29432
Америке 29422
Поскольку 29420
входили 29416
игрока 29413
Георги@@ 29410
характери@@ 29402
Именно 29400
считает 29400
фронте 29390
кот@@ 29389
завод@@ 29387
дипломати@@ 29385
православной 29371
князь 29365
долго@@ 29363
жан 29363
Кубке 29360
участием 29360
Арген@@ 29355
1890 29345
наде@@ 29345
сили 29344
магистра@@ 29335
голу@@ 29328
20@@ 29326
Кали@@ 29326
зой 29311
формирования 29303
произведён 29297
преподавал 29287
турой 29283
переименован 29281
услови@@ 29281
программе 29272
птиц 29262
Сво@@ 29259
циям 29255
причи@@ 29254
посёлке 29240
бурге 29233
наци@@ 29233
наряду 29231
стрель@@ 29226
появляется 29220
ука@@ 29213
щ 29213
Ада@@ 29209
получив 29208
ию@@ 29207
ито 29202
шему 29198
основным 29193
конститу@@ 29192
серия 29192
Социалистического 29186
измене@@ 29185
ств@@ 29181
давно 29180
составля@@ 29176
писали 29172
руководил 29172
тело 29172
специальности 29167
носи@@ 29166
достижения 29153
нынеш@@ 29145
элементы 29136
масте@@ 29126
ментом 29107
скри@@ 29106
Дет@@ 29103
сухо@@ 29077
пенси@@ 29073
посла@@ 29067
Пла@@ 29065
СМИ 29052
85 29046
низи@@ 29044
плен 29037
РАН 29035
музыку 29032
уров@@ 29025
гов@@ 29024
Стре@@ 29022
× 29017
чин 29015
астроно@@ 29014
ентов 29013
мне 29013
опер@@ 29013
метал@@ 29009
фигур@@ 29008
месторо@@ 29004
полице@@ 28991
усадь@@ 28985
надцать 28982
командовал 28977
юри@@ 28975
вок@@ 28973
пункта 28966
мост 28964
совхо@@ 28959
инжене@@ 28952
следовате@@ 28950
здании 28949
главы 28947
произведе@@ 28945
Анатолий 28936
депутатом 28917
венгер@@ 28914
Константи@@ 28908
Воору@@ 28899
чом 28899
фри@@ 28895
тат@@ 28887
льник 28876
земе@@ 28870
Новосибир@@ 28868
писателей 28857
Ль@@ 28855
Игорь 28854
ала 28849
жин@@ 28847
собрания 28846
мно@@ 28843
следование 28843
Тра@@ 28808
установлен 28808
констру@@ 28800
Со 28794
Ран@@ 28793
роваться 28789
статей 28787
изуче@@ 28771
вооруж@@ 28769
первоначально 28767
ступили 28763
известным 28761
Париж 28758
Исполь@@ 28756
джи 28753
взял 28752
хозяйство 28737
Первое 28732
ительства 28721
Records 28717
прин@@ 28706
лето@@ 28704
коллекти@@ 28698
Науч@@ 28696
трак@@ 28693
дове@@ 28691
этно@@ 28689
власт@@ 28685
зав@@ 28684
безу@@ 28677
зей 28676
композиции 28666
опа@@ 28664
вен 28656
координа@@ 28655
переселе@@ 28655
хана 28642
дие 28640
существования 28639
мени 28635
тяну@@ 28635
ствовать 28634
опубликовал 28631
представлен 28623
Верхов@@ 28620
ленно 28617
осна@@ 28614
дни 28594
ствием 28590
чит@@ 28587
8,@@ 28586
морских 28579
утра@@ 28576
Председате@@ 28568
мова 28564
Сал@@ 28558
неза@@ 28557
Франция 28548
оборудо@@ 28547
дзе 28541
городом 28538
Сара@@ 28536
реда@@ 28528
даёт 28519
Почтовый 28509
Австрии 28507
э. 28496
Средне@@ 28487
вец 28487
конкре@@ 28484
ланд 28481
Атлан@@ 28471
1903 28457
стви@@ 28455
синг@@ 28452
самолётов 28447
поэт 28442
Сталин@@ 28428
крупные 28424
чиком 28422
ани@@ 28418
многочисленные 28418
училища 28415
соревнований 28413
XV 28401
дт 28400
столи@@ 28400
прибыл 28395
юноше@@ 28395
избра@@ 28394
объясня@@ 28392
колле@@ 28387
европейских 28375
должно 28371
телевизион@@ 28364
Географическое 28361
номер 28358
раскры@@ 28358
вшаяся 28353
состоялось 28328
Бон@@ 28326
оне@@ 28299
мини 28296
наступление 28296
тей@@ 28294
is 28287
фильмах 28281
исключительно 28272
устройства 28269
времён 28265
двое 28262
гран@@ 28260
знак 28257
сформи@@ 28230
звёз@@ 28229
казать 28226
Союз 28223
1902 28216
СП@@ 28211
десяти 28206
ительным 28182
выступления 28181
Юго 28180
прояв@@ 28178
има 28177
Кос@@ 28170
проекту 28168
шоссе 28166
гин 28163
хозя@@ 28162
вернуться 28157
освя@@ 28156
населе@@ 28154
вступ@@ 28150
похоронен 28149
статистиче@@ 28145
руд@@ 28134
бек 28133
назначения 28133
Теат@@ 28132
Чарль@@ 28131
дисципли@@ 28129
вес@@ 28126
пола 28124
нями 28118
зация 28115
считал 28114
писателя 28105
00@@ 28098
2,5 28092
b 28088
ленного 28080
поддержке 28080
уру 28070
жная 28054
жид@@ 28050
корпора@@ 28049
ографи@@ 28049
сайте 28049
евича 28027
продюсе@@ 28021
Тимо@@ 28013
66 28007
единственным 28006
67 28001
техни@@ 27990
Участвовал 27981
НИ@@ 27979
остальные 27979
Гоме@@ 27976
лыми 27974
половины 27974
Азербайджана 27970
районах 27967
французского 27962
Турции 27957
дской 27946
Земли 27941
соедин@@ 27940
Пру@@ 27939
тными 27939
американских 27936
женой 27936
прошла 27933
Горь@@ 27917
карьере 27914
академиче@@ 27911
приняла 27906
Иса@@ 27900
жал 27895
Инди@@ 27893
комна@@ 27893
Генри 27891
зать 27888
Анато@@ 27886
Доро@@ 27886
Брай@@ 27877
евка 27865
Хэ@@ 27858
ствии 27846
лез@@ 27834
разгро@@ 27833
литов@@ 27831
существу@@ 27829
граждан 27817
Одес@@ 27810
f@@ 27806
текст 27794
старто@@ 27792
пусты@@ 27785
попро@@ 27782
дации 27774
дут 27768
магази@@ 27768
живописи 27764
убит@@ 27756
победил 27751
рестав@@ 27748
населённые 27746
выходит 27737
ас 27736
250 27729
вест@@ 27726
мэ@@ 27726
отмен@@ 27722
делает 27711
писи 27707
Воль@@ 27703
окончательно 27696
функциони@@ 27687
молодых 27675
летнего 27670
запи@@ 27655
средняя 27655
оли@@ 27649
профессором 27649
Германия 27645
инженер 27644
Алек@@ 27630
изи@@ 27628
паци@@ 27628
областного 27625
фраг@@ 27625
актри@@ 27624
бом 27613
Сам 27609
чинов@@ 27606
g@@ 27599
вышед@@ 27593
рованная 27593
ыш@@ 27590
верх 27583
Скончался 27582
рабаты@@ 27578
ООН 27574
машин 27553
славян@@ 27549
смен@@ 27539
вышли 27532
клады@@ 27523
кров@@ 27521
голь@@ 27517
органи@@ 27515
двину@@ 27514
идеи 27507
используют 27506
разработа@@ 27502
разо@@ 27501
тс 27493
карти@@ 27491
Эл@@ 27474
основные 27469
чами 27466
тивы 27464
месяц 27457
хождения 27457
мнение 27450
кон 27428
вей@@ 27421
продукции 27419
любой 27418
говор 27387
Личная 27383
сообща@@ 27367
61 27359
Мухам@@ 27357
XIV 27356
жизнен@@ 27352
чений 27348
Мир@@ 27347
оне 27347
бригада 27342
персонажей 27340
языках 27334
РККА 27322
производи@@ 27322
дея@@ 27321
Хол@@ 27316
Абду@@ 27300
прибли@@ 27299
лёт@@ 27297
газ@@ 27294
фикации 27291
Московский 27284
офф 27281
молод@@ 27279
реформы 27271
кас@@ 27265
фоне 27265
жая 27262
чалась 27259
лана 27258
критиков 27251
ВКП 27247
сада 27247
сохраня@@ 27244
недалеко 27241
стика 27239
компью@@ 27235
тью 27232
Джу@@ 27229
смот@@ 27222
успеха 27216
Петербурга 27209
оставался 27201
количества 27200
достав@@ 27199
святого 27193
учёный 27193
оператив@@ 27190
прово@@ 27185
брю@@ 27184
обеща@@ 27184
укреп@@ 27178
автора 27176
атель 27174
Средний 27172
третьего 27166
чивается 27159
пари@@ 27152
активи@@ 27150
свободы 27146
креп@@ 27140
форму@@ 27140
курсы 27136
зданий 27130
жно 27129
публика@@ 27126
стая 27122
ванные 27114
Доб@@ 27111
Финляндии 27110
тель 27106
земель 27104
крайне 27104
рена 27103
обу@@ 27089
ристи@@ 27084
самолёта 27077
проживали 27075
сит 27074
Сэ@@ 27066
диссерта@@ 27065
спец@@ 27063
зарубе@@ 27055
Ер@@ 27054
карте 27045
ционная 27043
ене 27039
нужно 27034
помимо 27030
мышлен@@ 27028
технических 27022
Великого 27019
жается 27019
отлича@@ 27019
условия 27017
пытается 27007
устойчи@@ 26992
гон 26980
предпринимате@@ 26979
енко 26970
нические 26969
строен@@ 26968
потери 26959
Канады 26958
удовлетво@@ 26952
социалистиче@@ 26933
Чтобы 26931
бел@@ 26919
Марк 26904
известные 26902
сок 26901
кови@@ 26900
жет 26896
Пь@@ 26890
зво@@ 26888
вит 26884
иско@@ 26884
процесса 26882
выход@@ 26873
VII 26870
изначально 26862
дент 26857
телевиде@@ 26850
авторов 26849
имеются 26843
U 26842
Национального 26838
Коми@@ 26837
кович 26834
герцога 26833
Бак@@ 26832
Администра@@ 26829
ктор@@ 26810
нейших 26810
тину 26808
Военно 26807
ленная 26802
тему 26802
раньше 26783
ассоциации 26778
бюдже@@ 26773
Ана@@ 26772
жский 26771
кции 26764
ента@@ 26760
Болгарии 26757
носите@@ 26756
степ@@ 26755
дные 26754
Мы 26750
сборник 26743
Мур@@ 26739
1901 26738
установи@@ 26733
трам@@ 26732
каз 26728
немецкой 26727
Император@@ 26725
масси@@ 26725
73 26723
бота@@ 26719
сегодня 26719
рун@@ 26717
списке 26717
превос@@ 26716
Другие 26714
Михайлов@@ 26713
Особен@@ 26712
зах 26707
обстоятель@@ 26705
Приме@@ 26700
Фрэн@@ 26694
показате@@ 26685
жени@@ 26684
to 26681
Егип@@ 26679
двига@@ 26670
край 26669
нного 26663
архите@@ 26656
После@@ 26652
XIII 26651
шал 26649
прису@@ 26626
74 26612
футбольный 26609
Дви@@ 26595
подав@@ 26593
сторон 26577
выиграла 26571
груп@@ 26565
библиотека 26561
98 26551
циони@@ 26548
иск@@ 26547
тта 26546
находящи@@ 26539
дением 26538
умер@@ 26537
поддержки 26522
сереб@@ 26522
тины 26522
звезда 26521
Гам@@ 26520
бель@@ 26520
емое 26520
Грузии 26512
Кита@@ 26505
принимает 26502
методи@@ 26501
интерес 26491
K 26490
вину 26486
согласи@@ 26486
маши@@ 26483
Одновременно 26472
созна@@ 26472
крае@@ 26469
институ@@ 26468
стам 26464
манд@@ 26462
Гол@@ 26459
кского 26447
вто@@ 26446
Сай@@ 26445
кистана 26443
шать 26438
технического 26437
тради@@ 26437
моду@@ 26432
цифро@@ 26429
Ирландии 26425
тивных 26424
Оста@@ 26421
закон 26419
зор@@ 26415
формат@@ 26411
избира@@ 26410
ловского 26400
армией 26398
мигран@@ 26396
Центр 26393
Сю@@ 26392
вес 26386
преем@@ 26385
Григорий 26384
Томас 26384
музее 26381
Йорке 26372
тей 26367
перио@@ 26362
вследствие 26360
культуре 26360
освобождения 26356
казом 26345
скор@@ 26336
химии 26333
Архи@@ 26332
Общая 26322
впадения 26320
звуча@@ 26320
судо@@ 26315
пале@@ 26313
составляют 26308
содерж@@ 26306
Вале@@ 26303
потребо@@ 26303
резко 26303
Вой@@ 26301
Француз@@ 26294
форд 26292
могла 26291
убийства 26287
историк 26285
конкурен@@ 26284
71 26280
Ву@@ 26266
щую 26265
Сити 26259
хотел 26257
чате@@ 26255
номером 26254
лечения 26252
Телефонный 26248
гун@@ 26248
фестивале 26241
испо@@ 26234
сет@@ 26225
советского 26222
письмен@@ 26218
але 26195
выве@@ 26190
фер 26190
ансамб@@ 26184
большеви@@ 26181
вои@@ 26174
кратный 26171
цели 26169
68 26160
менте 26157
Доне@@ 26153
численности 26146
Обла@@ 26143
закан@@ 26143
разработки 26141
жён 26134
XII 26133
чле@@ 26131
декора@@ 26130
отличается 26130
сделан@@ 26130
Всероссийской 26129
появи@@ 26128
Тех@@ 26124
Твер@@ 26116
йной 26116
ума 26111
Бель@@ 26108
гет@@ 26098
проходили 26093
участвовала 26091
Георгий 26090
конструкции 26083
поддерж@@ 26072
жар@@ 26071
мероприя@@ 26068
800 26065
покину@@ 26049
стиль 26041
Бю@@ 26039
сели@@ 26036
рых 26034
периоди@@ 26018
ённую 26016
выдели@@ 26015
учен@@ 26015
немного 26012
фун@@ 26004
света 26002
er 26001
сфере 26001
тение 25999
полковника 25997
инвести@@ 25994
зова 25987
p 25983
азербайджан@@ 25979
психи@@ 25977
йскую 25975
играет 25974
льт@@ 25972
ци 25969
ваясь 25967
последней 25950
отсутствие 25943
удосто@@ 25942
дистанции 25933
Боб@@ 25926
независимости 25921
позицию 25921
Англи@@ 25912
пассажир@@ 25910
выборы 25904
делам 25901
попытки 25895
немецкого 25893
эксперимента@@ 25893
использованием 25892
аспиран@@ 25890
Красного 25886
Аре@@ 25881
воде 25881
мпи@@ 25879
Спа@@ 25872
Древ@@ 25871
пропа@@ 25868
супер@@ 25868
рост 25865
стую 25864
лев 25863
первонача@@ 25863
Располо@@ 25862
Центральной 25858
дз@@ 25855
возле 25852
Пло@@ 25851
тел 25848
лови@@ 25840
совершенно 25830
своем 25827
достига@@ 25817
ступает 25817
Моги@@ 25811
возра@@ 25808
Истори@@ 25793
мно 25793
никова 25792
Рязан@@ 25785
дки 25779
женат 25772
лэ@@ 25772
торговли 25771
видео@@ 25770
включ@@ 25770
улиц 25767
начались 25760
кинемато@@ 25753
Цар@@ 25752
щин@@ 25750
национальных 25743
министер@@ 25735
фу 25735
Церкви 25734
вшими 25727
Краснояр@@ 25724
гей@@ 25718
Пит@@ 25709
являлась 25705
скорости 25701
редко 25699
et 25693
приё@@ 25692
активных 25691
боевой 25690
s@@ 25686
мар 25683
поражения 25681
даты 25680
тик 25675
фан@@ 25668
открытия 25666
сложности 25664
Главный 25658
гло 25638
руя 25638
оказались 25637
дина 25633
позволило 25632
Бей@@ 25631
вных 25624
холодного 25622
99 25613
тиях 25610
свето@@ 25608
нач@@ 25605
корен@@ 25603
присоединился 25603
имуще@@ 25597
контак@@ 25594
африкан@@ 25579
лил 25578
палат@@ 25569
бин 25563
яд@@ 25563
выдвину@@ 25560
идёт 25556
тысячи 25556
выпуска 25544
тропи@@ 25541
рабат@@ 25534
летней 25531
прогре@@ 25530
оке@@ 25527
откуда 25526
устья 25526
ыр@@ 25519
кост@@ 25514
ведение 25505
Узбе@@ 25503
Нью@@ 25501
чать 25499
Армении 25492
коммунистиче@@ 25489
дий 25486
районы 25483
городских 25481
размер 25480
уса 25475
применения 25473
удоб@@ 25460
огонь 25457
кол 25456
градской 25453
Тома@@ 25445
чества 25445
прямо@@ 25441
сама 25436
69 25427
сверх@@ 25425
выбо@@ 25421
чине 25417
индей@@ 25414
этап 25414
вета 25413
тира@@ 25412
81 25411
Святой 25406
артилле@@ 25406
зор 25404
тическое 25398
польской 25387
бит 25374
материалы 25373
национальный 25372
довал 25369
нк@@ 25369
границе 25367
физики 25363
ранен 25355
Иоган@@ 25354
тивное 25349
вторая 25347
мора@@ 25347
новича 25347
приро@@ 25345
мур@@ 25344
Ленинград@@ 25343
30@@ 25339
проектов 25335
научный 25331
Стат@@ 25329
владения 25326
рийской 25323
фестиваля 25303
Констан@@ 25300
упомяну@@ 25288
лился 25279
нис 25279
женщи@@ 25275
основу 25262
построе@@ 25256
звез@@ 25255
двора 25253
Объ@@ 25247
деление 25244
рассмотре@@ 25235
Круп@@ 25221
1896 25215
глава 25212
попы@@ 25211
марки 25208
3,@@ 25207
составлял 25205
сыновей 25203
жало@@ 25194
шку 25192
обоих 25186
государство 25184
партизан@@ 25184
письмо 25184
ул@@ 25179
1880 25177
крестьян 25162
Али 25161
ежегод@@ 25145
Тео@@ 25141
урав@@ 25139
ностях 25138
приходится 25138
Вологод@@ 25137
нато@@ 25137
поддержа@@ 25136
типи@@ 25133
езде 25131
ющем 25129
88 25127
результатом 25113
считают 25110
кантона 25101
награды 25099
смерть 25098
пись@@ 25097
Вну@@ 25094
вень 25091
металличе@@ 25091
непосред@@ 25084
Гей@@ 25083
существова@@ 25081
вёр@@ 25072
действует 25067
комитет 25066
ёс 25064
логия 25061
мусульман@@ 25060
Рес@@ 25058
банка 25058
лище 25056
ническое 25056
вне 25052
ВС 25049
оружие 25043
Серге@@ 25029
газете 25029
купи@@ 25028
берга 25020
фабри@@ 25017
нё@@ 25013
Иркут@@ 25011
министром 25011
реализо@@ 24995
Город@@ 24992
емо@@ 24992
восемь 24989
водохрани@@ 24979
реи 24976
Зак@@ 24974
захва@@ 24971
представляют 24970
бки 24968
86 24965
мат 24965
французской 24962
Россию 24959
Оли@@ 24958
Спор@@ 24952
перевоз@@ 24952
ограничен@@ 24950
смы@@ 24946
человеком 24946
после@@ 24938
1899 24937
метод 24933
чрезвы@@ 24928
диф@@ 24919
практи@@ 24916
Бере@@ 24915
источников 24914
близо@@ 24912
чью 24912
говорил 24911
вопросы 24899
жество 24896
женщина 24892
такими 24889
1898 24887
озна@@ 24878
оте@@ 24869
стя@@ 24867
архиеписко@@ 24861
Тихо@@ 24858
пограни@@ 24858
ай@@ 24852
активности 24847
чет 24845
Песня 24843
пии 24842
старшего 24838
речной 24832
флот 24822
уточ@@ 24821
атого 24820
нг 24819
Оде@@ 24816
жали 24809
обладает 24809
иници@@ 24805
78 24800
открыта 24792
твер@@ 24790
кирпи@@ 24780
92 24779
Между 24778
указыва@@ 24777
работой 24773
Мест@@ 24765
лед@@ 24762
зрителей 24761
бет 24749
ведом@@ 24749
йс 24742
обшир@@ 24740
ключе@@ 24737
многи@@ 24734
использовались 24726
народных 24725
буд@@ 24716
фро@@ 24713
призван 24712
поводу 24704
ствовала 24702
самолёт 24698
сного 24697
Сле@@ 24682
зь 24679
организато@@ 24673
оставши@@ 24666
Алексеевич 24665
аген@@ 24665
пары 24663
бии 24659
лева 24658
менед@@ 24651
губернатора 24650
84 24648
Фёдорович 24646
ствам 24639
существование 24637
Ок@@ 24629
Соб@@ 24627
оставил 24627
веще@@ 24624
Профе@@ 24621
83 24620
зер 24610
ситуации 24609
сход@@ 24605
пки 24600
лища 24590
ежегодно 24587
медалью 24586
программа 24585
Воронеж@@ 24581
рону 24581
конгре@@ 24580
Абсолютная 24572
окон@@ 24572
высотой 24569
Дра@@ 24565
водит 24563
звёзд 24558
тремя 24558
Расположена 24556
подверга@@ 24554
96 24549
военную 24532
влиянием 24529
среды 24529
груз@@ 24524
побережье 24523
ителям 24519
гастро@@ 24517
предприятие 24516
фил@@ 24516
израи@@ 24515
Клубная 24511
убит 24511
чеш@@ 24506
доказате@@ 24505
листа 24505
Северная 24502
использует 24501
использовал 24498
ябрь 24498
Супер@@ 24495
вообще 24492
срав@@ 24490
Представ@@ 24489
кафедрой 24487
Жа@@ 24479
дский 24478
каж@@ 24478
носители 24478
поля@@ 24472
указан@@ 24467
Государственного 24461
рее 24460
тат 24444
рисо@@ 24440
худ@@ 24434
Ян 24428
статье 24418
Пон@@ 24412
Доктор 24407
изображения 24407
лога 24407
коно@@ 24406
опере@@ 24405
Гран 24393
другого 24389
реч@@ 24389
брон@@ 24385
равни@@ 24374
отметил 24372
77 24369
изучения 24365
чемпиона 24364
железнодорожной 24354
выступать 24352
Суще@@ 24348
запове@@ 24345
ляли 24340
известность 24331
нях 24331
ситуа@@ 24330
задачи 24328
1870 24324
средне@@ 24324
Елена 24321
Анти@@ 24319
прак@@ 24319
состояния 24319
Лиги 24312
стки 24311
ворот 24306
лово 24301
лока@@ 24301
ске@@ 24297
ющейся 24296
Мель@@ 24295
Распространение 24293
руководителем 24293
1860 24290
консу@@ 24289
способности 24285
97 24283
исход@@ 24282
вино@@ 24280
исчез@@ 24280
маном 24278
неш@@ 24277
четырёх@@ 24276
КП 24268
низация 24264
нефте@@ 24263
смогли 24263
старшим 24259
причинам 24255
ящи@@ 24254
нёс 24251
тию 24249
доход 24248
Ад@@ 24241
станций 24240
йо@@ 24236
скоро@@ 24235
Сре@@ 24231
социальной 24230
яви@@ 24227
дата 24220
причине 24219
препят@@ 24217
ственными 24215
тник 24213
север 24212
альная 24204
призва@@ 24201
Золо@@ 24200
предприя@@ 24199
представлена 24197
такое 24195
пластин@@ 24193
позна@@ 24174
рас 24172
тече@@ 24166
бами 24157
Джордж 24144
плей 24136
нью 24135
сотрудни@@ 24132
лучше 24131
плане 24130
сопротив@@ 24127
потенци@@ 24126
Пат@@ 24125
Состав 24122
рый 24121
творчества 24112
ена 24105
годами 24103
Транспорт 24100
ери 24096
командование 24096
атри@@ 24088
ито@@ 24085
Швейцарии 24080
стены 24080
временно 24079
службе 24078
Окон@@ 24073
оказалась 24072
аре 24066
ави@@ 24064
общественной 24061
договор 24055
представитель 24051
серий@@ 24051
устройство 24051
наследия 24045
варь 24043
нарко@@ 24038
дала 24037
ьо@@ 24035
любви 24034
духо@@ 24031
1895 24030
преду@@ 24029
л. 24024
покуп@@ 24024
португа@@ 24023
тивной 24020
сумел 24005
дорог 24004
капитана 24001
хин@@ 24001
ительная 23997
тских 23997
счё@@ 23994
ванного 23993
причиной 23991
схо@@ 23988
o@@ 23984
ственность 23983
нации 23980
гек@@ 23960
Константино@@ 23958
партию 23956
жды 23955
сюда 23952
процессо@@ 23950
фай@@ 23942
скорее 23934
захвати@@ 23931
гости@@ 23929
Стан@@ 23928
угле@@ 23919
участвовали 23917
Цент@@ 23908
необходимости 23895
класс 23894
82 23890
вис 23885
столицы 23885
зах@@ 23883
фф 23878
тились 23877
зин 23876
программ 23874
арх@@ 23873
верхней 23872
переехала 23867
академию 23862
страции 23862
целе@@ 23862
Бир@@ 23859
атор 23858
специально 23858
Священ@@ 23857
вынуж@@ 23855
лучший 23850
Альбом 23843
оборудования 23843
шё@@ 23843
домашних 23839
садо@@ 23838
собо@@ 23833
верши@@ 23831
жёст@@ 23826
лян 23823
годам 23820
Желез@@ 23817
отстав@@ 23816
93 23815
ьи@@ 23814
остаётся 23806
надцати 23803
баталь@@ 23798
кола 23794
нные 23781
охраны 23780
большинства 23777
крови 23771
собран@@ 23771
атами 23766
Ари@@ 23764
Большого 23760
цик@@ 23756
распространение 23752
Вит@@ 23740
легко 23739
австрали@@ 23736
Свет@@ 23735
Мей@@ 23734
случаев 23734
щина 23733
оба@@ 23728
принце@@ 23714
сках 23709
гар 23706
базы 23704
участии 23702
бассейновому 23698
ужа@@ 23698
сценари@@ 23693
расположенный 23691
вблизи 23675
сообщения 23674
отношению 23673
Досто@@ 23672
необы@@ 23670
епископа 23669
товых 23669
военнослужа@@ 23666
водой 23660
жден 23646
ино@@ 23646
командующего 23642
апосто@@ 23641
руб@@ 23636
черно@@ 23634
гимназии 23633
обратно 23632
разнообраз@@ 23632
ом 23627
племян@@ 23625
Обо@@ 23617
третьей 23608
ia 23603
множе@@ 23603
одина@@ 23602
чием 23593
вед 23587
91 23583
аты 23582
Институт 23572
чемпионов 23568
рекорд 23567
Киеве 23557
программу 23556
воспита@@ 23554
мса 23553
Роди@@ 23548
болгар@@ 23547
всеми 23547
знание 23545
нит 23543
аэропорт 23540
щиком 23540
Соло@@ 23539
одному 23539
9,@@ 23537
встречи 23537
ing 23533
парламента 23526
Уил@@ 23525
плана 23525
треть@@ 23525
Вь@@ 23521
Челябин@@ 23518
теря@@ 23503
ционно 23503
подряд 23501
материаль@@ 23494
торже@@ 23492
дная 23487
стихи 23486
технологий 23486
деятельностью 23481
остат@@ 23474
волость 23473
школ 23471
собор 23469
моз@@ 23467
включён 23466
Киев 23465
неделю 23461
обнаружи@@ 23448
дова 23439
следовал 23438
качества 23437
коммуника@@ 23427
рассказывает 23426
зре@@ 23425
Сою@@ 23423
риаль@@ 23420
Израиля 23412
поступ@@ 23412
Фар@@ 23406
развитию 23400
тивные 23400
сным 23398
столкнове@@ 23390
акти@@ 23389
Луи 23388
регулярно 23380
щением 23379
Юр@@ 23374
катастро@@ 23369
роты 23369
консуль@@ 23367
преобразо@@ 23367
IX 23366
населённый 23360
братом 23351
Начиная 23350
годо@@ 23346
x@@ 23344
разве@@ 23343
сч@@ 23343
равно@@ 23331
ина 23329
языки 23329
муниципальных 23328
Молда@@ 23317
посад@@ 23316
лам@@ 23314
Жен@@ 23306
рецен@@ 23301
женные 23300
воспит@@ 23299
дивизиона 23299
предложение 23296
Ван 23295
применение 23295
Президента 23291
мона 23288
преимуще@@ 23287
бокс@@ 23286
выступ@@ 23278
отдельные 23278
даны 23276
заслуги 23276
k 23273
Бос@@ 23272
падает 23272
стадии 23271
жиз@@ 23269
скре@@ 23269
семи 23267
нане@@ 23259
зато@@ 23257
ствования 23255
атмосфер@@ 23254
заведующий 23252
шала 23250
89 23248
рыва 23238
ждены 23236
инициативе 23231
герба 23230
выпустил 23228
цио@@ 23228
Петр 23223
конкурса 23220
местной 23208
Ска@@ 23206
надеж@@ 23202
византи@@ 23199
артиллерии 23197
ват 23197
подро@@ 23197
леген@@ 23192
классов 23190
Вита@@ 23184
Было 23169
постройки 23163
Дэвид 23155
достигну@@ 23151
призёром 23148
начался 23147
очи@@ 23145
будущего 23137
трех 23135
вдох@@ 23134
контроля 23130
шины 23130
американская 23129
гда@@ 23118
красно@@ 23114
недели 23114
стен 23113
крепость 23111
являлись 23107
Бит@@ 23105
Ат@@ 23097
героя 23090
Шах@@ 23087
очер@@ 23087
возвышен@@ 23084
решено 23083
гал 23071
ГУ 23070
мет 23069
создате@@ 23069
дире@@ 23064
экс@@ 23059
посел@@ 23057
Владимир@@ 23056
друз@@ 23050
район@@ 23045
сотрудников 23042
петро@@ 23040
писа@@ 23037
печ@@ 23036
СС 23034
укре@@ 23034
автомобилей 23033
сестра 23033
информацию 23031
сколько 23024
ходила 23024
христи@@ 23016
Мака@@ 23013
учение 23013
интел@@ 23012
отмет@@ 23009
Африки 23005
пой@@ 23003
офицер@@ 23002
фотографи@@ 22995
ительство 22992
сообщил 22992
голланд@@ 22990
картина 22986
1859 22965
Китае 22965
Фёдор 22958
музыкальных 22958
удо@@ 22958
тельных 22957
вертика@@ 22956
Польше 22955
ОАО 22951
ждает 22951
диапа@@ 22947
Сбор@@ 22944
еро@@ 22942
появ@@ 22941
поезда 22940
слуш@@ 22929
учебных 22927
Робер@@ 22926
металлур@@ 22922
слов@@ 22921
опыт 22917
вард 22910
берта 22909
осуществляется 22909
стров 22901
переведён 22899
ология 22893
Анны 22888
неактивными 22883
повто@@ 22879
вызыва@@ 22877
серию 22877
завершения 22876
Специ@@ 22868
порядке 22867
n@@ 22865
выступала 22862
дна 22862
кко 22861
высшего 22860
град 22860
муниципалитет 22854
братьев 22849
многочисленных 22846
вни@@ 22842
сообщение 22841
пони@@ 22838
предо@@ 22838
чке 22832
ограни@@ 22827
Олег 22824
минера@@ 22816
противополож@@ 22813
протя@@ 22812
бух@@ 22808
рато@@ 22806
литера@@ 22801
зон 22799
батальон 22793
йных 22789
лит@@ 22787
печата@@ 22786
информация 22776
враже@@ 22772
# 22768
обли@@ 22768
NGC 22765
87 22764
объявлено 22764
рово 22763
побережья 22762
местом 22761
решили 22758
сосе@@ 22757
Сту@@ 22756
сут@@ 22755
Сергеевич 22754
товарище@@ 22753
повстан@@ 22748
юн@@ 22748
полез@@ 22743
промеж@@ 22743
Саратов@@ 22739
хать 22732
годом 22731
Рома@@ 22728
единица 22722
красо@@ 22718
сфе@@ 22714
академи@@ 22711
памятника 22709
Без@@ 22706
всп@@ 22705
наконец 22705
энерги@@ 22705
шт@@ 22704
исследова@@ 22700
ань 22699
обе 22697
тность 22697
сотрудник 22696
VIII 22695
кской 22689
поте@@ 22688
компа@@ 22685
тёплого 22684
герой 22682
днего 22674
ровалось 22667
ила 22666
Калу@@ 22663
пля@@ 22663
отцом 22662
t@@ 22659
Жиз@@ 22656
краси@@ 22655
суд@@ 22653
иденти@@ 22652
йного 22647
среднего 22647
доров@@ 22630
МГУ 22627
Крым 22626
тена 22618
погибли 22611
Музей 22610
Таш@@ 22608
известной 22604
оккупи@@ 22604
откло@@ 22603
пуск@@ 22603
пой 22602
1892 22599
оценки 22594
нажды 22593
террито@@ 22593
Сем@@ 22585
русская 22585
выйти 22582
редактор 22580
водохозяйственный 22578
ост@@ 22571
продуктов 22563
Теле@@ 22561
рыв 22561
Бала@@ 22557
гай@@ 22555
ок 22552
выраз@@ 22550
изуча@@ 22549
прямо 22549
Риме 22544
хин 22544
листов 22537
цир@@ 22532
Калинин@@ 22531
талан@@ 22531
поче@@ 22530
нима@@ 22529
румы@@ 22528
стый 22526
закона 22525
символ 22525
сх@@ 22524
любов@@ 22522
щате@@ 22520
летов 22518
сфер@@ 22517
национали@@ 22511
свойства 22510
признан 22505
яния 22499
украинский 22498
дворе 22497
хва@@ 22496
новил 22495
тоне 22490
сче@@ 22487
соглашение 22482
выпадает 22481
цин@@ 22480
факт 22479
деб@@ 22475
принимать 22475
показал 22468
Оле@@ 22467
гно@@ 22464
Около 22463
редактором 22463
числе@@ 22463
заслу@@ 22460
стах 22453
Ш 22446
атая 22440
спас@@ 22440
комисса@@ 22435
УССР 22434
космо@@ 22433
рока 22429
ушёл 22424
Кузне@@ 22421
психологи@@ 22420
яще@@ 22413
сены 22412
Одним 22403
Последний 22402
див 22402
дера 22398
орудия 22398
будди@@ 22394
94 22389
гиган@@ 22389
Роман 22388
блоки@@ 22386
лесов 22384
льством 22383
пл@@ 22376
последнее 22375
ждено 22373
Улица 22360
es 22359
етна@@ 22353
чались 22352
уна@@ 22350
вь 22340
ори@@ 22337
моста 22335
строительстве 22329
брак 22325
Колум@@ 22324
Наталь@@ 22322
выступлений 22322
бата@@ 22321
лис 22321
выгля@@ 22320
рассчит@@ 22315
певи@@ 22309
79 22306
новом 22306
объект 22304
Была 22303
зали@@ 22303
брака 22298
лизи@@ 22298
кари@@ 22295
функ@@ 22295
зад@@ 22292
подразделения 22289
битвы 22281
Берлине 22280
шев 22276
фф@@ 22274
библиотеки 22267
достиг 22267
проходят 22264
Образование 22263
Только 22259
крейсе@@ 22257
хова 22256
Лат@@ 22254
Дмитри@@ 22250
оперы 22248
ровании 22244
английского 22243
служа@@ 22241
домой 22236
New 22231
дц@@ 22231
Латвии 22230
выпустила 22227
ровалась 22224
фт 22215
царь 22210
посту 22208
Постанов@@ 22207
излу@@ 22207
ура 22199
стреми@@ 22194
Чело@@ 22189
Существует 22187
водства 22185
опе@@ 22185
ровались 22184
дуб@@ 22179
Бли@@ 22175
дению 22168
жив 22167
осве@@ 22161
чим 22160
тал 22159
низма 22150
Сви@@ 22148
i@@ 22147
флан@@ 22147
рит@@ 22145
берега 22144
орудий 22143
жел@@ 22139
парата 22122
Вторая 22116
рующих 22116
мужа 22115
вся 22114
рито@@ 22114
жки 22111
оти@@ 22110
5,@@ 22106
адми@@ 22105
динами@@ 22101
миллиона 22099
совме@@ 22099
p@@ 22097
доку@@ 22087
командования 22084
оче@@ 22063
лс 22062
пел 22061
Азербайджан@@ 22059
жным 22052
ФК 22045
либера@@ 22044
били 22036
тром 22029
стили 22025
розыгры@@ 22024
впа@@ 22023
Y@@ 22022
общественного 22021
шай@@ 22015
Всесоюз@@ 22012
лест@@ 22011
общественных 22002
НКВД 22001
землю 22001
ориенти@@ 22000
Казахстан 21997
линского 21994
1885 21992
ловой 21991
Речной 21982
лар@@ 21977
пришёл 21973
охран@@ 21972
созданы 21960
обязан@@ 21958
Категория 21956
возвращения 21956
специалистов 21954
ять 21950
спорт 21945
Шотландии 21942
заместителя 21942
местные 21941
корре@@ 21935
штейн 21931
дович 21929
зывать 21929
чём 21929
композитор 21928
выступи@@ 21925
Вил@@ 21919
ждением 21917
функциона@@ 21917
Иоанна 21910
заста@@ 21902
атаки 21898
пуска 21897
ресурсов 21894
запись 21893
федерации 21889
Обы@@ 21888
ренко 21886
ощу@@ 21885
бассей@@ 21881
пара 21874
окружа@@ 21873
ХЛ 21869
первенстве 21867
эм@@ 21867
тр 21863
Жо@@ 21859
сой 21859
стым 21859
лика 21858
Яку@@ 21856
газета 21856
музыкальной 21854
связанных 21852
рар@@ 21849
Крыма 21846
дка 21837
ведёт 21835
денег 21826
летняя 21826
700 21825
Людови@@ 21825
прикры@@ 21818
типов 21818
верхов@@ 21815
альбоме 21813
способность 21811
соли@@ 21807
деви@@ 21802
образований 21797
Свобо@@ 21790
Выступал 21785
международной 21785
эволю@@ 21785
сложи@@ 21784
император 21781
ресур@@ 21779
каждом 21778
ющаяся 21765
правил 21762
евро 21754
железнодорожная 21751
выну@@ 21750
проиграл 21749
большинстве 21744
снаря@@ 21741
Китай 21738
стиля 21735
полной 21733
лета@@ 21729
максимум 21726
собрание 21725
наличие 21724
отобра@@ 21711
ряды 21708
стройки 21702
миль 21701
Награ@@ 21696
покров@@ 21696
военное 21694
данном 21692
профи@@ 21688
... 21678
группо@@ 21677
дом@@ 21675
Аль 21662
Бара@@ 21659
матри@@ 21658
уско@@ 21657
шотланд@@ 21652
Часть 21651
Расположен 21650
Але@@ 21649
форте@@ 21648
ситуация 21642
следующего 21641
актёр@@ 21631
взро@@ 21626
темати@@ 21621
молодой 21615
предотвра@@ 21615
щики 21614
Един@@ 21612
моне@@ 21611
Жур@@ 21600
дес 21598
Васи@@ 21594
вели 21594
вспо@@ 21594
Джер@@ 21593
казах@@ 21593
ллер 21589
сообщества 21585
людьми 21578
подру@@ 21577
выста@@ 21568
Billboard 21567
4,@@ 21566
домини@@ 21562
огра@@ 21562
Вяче@@ 21561
Кло@@ 21560
товари@@ 21558
участке 21558
ЭС 21557
головы 21554
кандидата 21539
Варшав@@ 21535
Изначально 21535
позд@@ 21531
130 21524
костю@@ 21519
концентра@@ 21516
открыл 21512
ари@@ 21511
плений 21510
Роб@@ 21509
шко 21509
ствий 21508
1894 21505
рев 21504
Золотой 21503
королём 21503
Тем@@ 21502
Ави@@ 21497
наград 21496
чёт 21494
Санта 21492
жённых 21491
менту 21491
десять 21489
ённость 21488
Литов@@ 21487
анализа 21487
занимается 21486
установки 21484
левич 21478
материа@@ 21475
средний 21475
выход 21472
установлена 21467
Так@@ 21459
* 21458
вающих 21456
1889 21453
Глу@@ 21453
лагер@@ 21450
пов@@ 21447
проф@@ 21445
радика@@ 21443
гипоте@@ 21442
выстре@@ 21435
щины 21435
независимость 21434
чан 21434
дая 21433
шев@@ 21432
приказ 21422
Португалии 21419
диагно@@ 21416
симфо@@ 21416
роз@@ 21415
империя 21411
Учился 21405
суль@@ 21399
Далее 21398
использовался 21392
мных 21392
ьер 21391
вна 21390
общем 21389
целях 21389
штате 21389
орган 21385
опти@@ 21382
колони@@ 21377
посы@@ 21376
Округ 21374
ческому 21374
гора 21372
01 21371
импера@@ 21371
учеников 21369
режиссёром 21364
машин@@ 21361
фли@@ 21361
подбассейн 21359
1893 21357
лейтенанта 21354
минима@@ 21353
Сино@@ 21348
называли 21347
корей@@ 21346
социальных 21342
недостат@@ 21337
сток 21323
именова@@ 21319
женный 21317
рат@@ 21313
орденами 21311
Занима@@ 21306
ъя@@ 21306
сами@@ 21300
Иоси@@ 21298
альтерна@@ 21288
йка 21287
Родилась 21286
родной 21274
досту@@ 21270
про 21268
Баку 21266
чемпионатов 21264
учит@@ 21258
изображение 21256
показатель 21255
Майкл 21247
цер@@ 21247
Севасто@@ 21245
Генрих 21238
решает 21234
мал 21232
дух 21224
связыва@@ 21218
престол 21212
методы 21211
редакции 21211
видом 21204
францу@@ 21204
ибн 21203
кский 21203
реди@@ 21202
ступи@@ 21200
перво@@ 21199
Нового 21194
Пари@@ 21193
пределами 21189
Мюн@@ 21187
примене@@ 21180
l 21178
припис@@ 21174
достоин@@ 21173
восстание 21171
сыграла 21171
Дебю@@ 21170
Эстонии 21165
чуть 21164
лона 21163
Св 21159
уна 21154
соединения 21153
отрицате@@ 21150
сцены 21146
высоких 21143
гола 21143
галакти@@ 21133
любы@@ 21131
поко@@ 21131
танков 21131
1878 21130
1891 21129
верто@@ 21127
кавказ@@ 21121
стоял 21121
правах 21119
охра@@ 21116
социали@@ 21113
разработке 21111
Music 21105
преми@@ 21099
жают 21098
изучал 21094
преда@@ 21087
штурмо@@ 21087
весной 21086
яне 21086
перси@@ 21084
заря@@ 21082
изобре@@ 21080
квалифика@@ 21078
пур@@ 21077
вери@@ 21073
глуби@@ 21071
закончи@@ 21070
стара@@ 21069
Андреевич 21050
направление 21049
Большо@@ 21045
каль@@ 21041
департамента 21038
использовали 21038
Прин@@ 21035
интернет 21034
стаи@@ 21032
соединение 21031
недель 21016
типо@@ 21014
матчи 21011
парат 21011
Ричар@@ 21009
клубов 21009
умерла 21004
лекар@@ 21003
входя@@ 20999
z@@ 20997
ура@@ 20994
World 20993
научного 20982
рака 20973
провести 20965
переговоры 20963
Устье 20957
живопис@@ 20957
сино@@ 20950
седь@@ 20949
гораздо 20948
возглавля@@ 20944
ирланд@@ 20939
разу 20937
роста 20937
статисти@@ 20934
Государственный 20931
крестьянской 20931
Ё@@ 20930
эпоху 20930
ит 20929
вата 20928
прозви@@ 20922
участники 20921
безопас@@ 20913
вспомина@@ 20911
убийство 20905
алгорит@@ 20894
Законом 20890
лоне 20888
публико@@ 20883
Республике 20874
брази@@ 20870
источниках 20869
соответствует 20864
самые 20861
доста@@ 20854
тическим 20852
музыка 20851
жениях 20850
стоят 20849
памятников 20848
вшем 20846
оказывается 20846
нка 20844
Абра@@ 20839
часа 20837
лос 20836
ведущих 20835
пище@@ 20832
настолько 20831
ьях 20829
ссу@@ 20828
Даге@@ 20825
номинации 20825
одержал 20825
Шев@@ 20821
горя@@ 20818
Славы 20814
насчитывалось 20814
лагерь 20809
проя@@ 20809
Павлович 20808
мифо@@ 20806
вернулась 20798
ити 20797
оборот 20796
Наи@@ 20790
Саль@@ 20790
пан 20790
эмо@@ 20786
цких 20777
участка 20776
точно 20775
ванная 20774
деми@@ 20768
гвардейской 20767
никаких 20765
Павла 20763
метро 20762
XI 20761
операций 20761
мё@@ 20758
нования 20757
мерно 20756
лёт 20752
делать 20751
Владими@@ 20748
звать 20748
помощником 20746
держал 20743
щихся 20743
приходилось 20741
масштаб@@ 20735
Извест@@ 20733
ак 20730
Университе@@ 20728
лую 20725
Красный 20723
нашей 20721
зывали 20717
выте@@ 20715
предусматри@@ 20712
сражении 20711
йл 20710
син 20703
чень 20699
режима 20697
субъек@@ 20689
ьян@@ 20680
построено 20678
Богороди@@ 20672
сить 20672
грузин@@ 20666
Сибири 20665
частных 20665
ню@@ 20660
принимали 20660
бла@@ 20655
яна 20653
гена 20650
Пле@@ 20638
енты 20635
физической 20632
считать 20630
кция 20627
йный 20626
столь 20625
атако@@ 20624
высокого 20624
ликвиди@@ 20617
площадью 20614
трек 20610
Григорьевич 20607
пин@@ 20606
Фин@@ 20605
дворя@@ 20605
категори@@ 20602
бей@@ 20599
основного 20598
епархи@@ 20589
Спустя 20584
огне@@ 20583
плотность 20582
ющегося 20576
Украинской 20572
переу@@ 20572
писания 20569
гле@@ 20565
йскому 20564
проспек@@ 20550
перегово@@ 20545
работников 20544
газа 20543
глуб@@ 20543
здоров@@ 20541
определения 20539
рист 20537
ссию 20537
штра@@ 20537
щал 20534
поднима@@ 20529
боевые 20528
инте@@ 20528
ссон 20524
остались 20520
коли@@ 20511
Фридрих 20509
вернуть 20503
полити@@ 20499
суме@@ 20491
заняли 20489
Официальный 20484
самостоятельно 20484
Сезон 20482
концов 20482
изменя@@ 20480
Силь@@ 20474
тилась 20474
Будучи 20472
Днепро@@ 20472
23@@ 20471
азиат@@ 20470
вет 20467
заключения 20465
нави@@ 20460
Террито@@ 20458
Мил@@ 20457
лёгкой 20456
Вре@@ 20454
Смер@@ 20453
поколения 20453
третье 20453
Два 20448
ори 20447
Нан@@ 20444
Ранее 20443
перешла 20443
Ля@@ 20442
увелич@@ 20442
завоевала 20439
конкурсе 20439
пост@@ 20439
реализации 20432
Псковской 20430
намере@@ 20430
существуют 20430
распа@@ 20429
хочет 20428
собственной 20427
банк 20425
Выбор@@ 20419
распространя@@ 20411
текста 20410
обя@@ 20409
счаст@@ 20407
Екатерин@@ 20400
хреб@@ 20396
биографи@@ 20385
насеком@@ 20384
связаны 20383
1886 20378
руководства 20375
Монго@@ 20374
гибели 20370
организовал 20366
перед@@ 20365
последующие 20361
серб@@ 20360
Происхождение 20357
Каль@@ 20350
жоу 20350
иза 20347
проекти@@ 20344
1864 20342
общим 20340
созданию 20340
an 20338
вшую 20332
атлети@@ 20331
ликви@@ 20330
благотворитель@@ 20328
реме@@ 20327
Стани@@ 20325
ары 20316
действительно 20314
экономического 20314
предоставля@@ 20311
1862 20310
H 20310
Волго@@ 20305
твёр@@ 20303
остальных 20294
экономической 20294
чему 20292
24@@ 20290
110 20289
корабли 20289
построены 20288
ек 20285
Ч 20276
восточнее 20275
инфра@@ 20273
высоты 20271
шений 20271
вшимся 20268
концеп@@ 20268
Северного 20266
k@@ 20265
тивная 20265
выпущена 20264
губерния 20262
мера 20260
оборонитель@@ 20255
u 20252
зависит 20249
зеф 20249
фра@@ 20249
искусство 20240
Уи@@ 20239
труп@@ 20236
защитник 20231
Российская 20229
чан@@ 20229
Юрь@@ 20227
Сен@@ 20226
дана 20221
ковском 20220
Хал@@ 20219
кос@@ 20218
военным 20217
нив 20217
усло@@ 20212
Уни@@ 20211
увле@@ 20210
гля@@ 20209
ТВ 20208
автодороги 20204
щер@@ 20204
водство 20202
жка 20202
ранен@@ 20200
атак@@ 20197
профессиональный 20197
Почёт@@ 20195
рус 20195
W 20192
Италия 20190
ткан@@ 20187
Республика 20186
бора 20186
стое 20184
Счита@@ 20182
примы@@ 20182
Валерий 20181
холодной 20180
Юнайтед 20179
кафе@@ 20179
1887 20178
пом@@ 20177
художественный 20176
майора 20162
Кня@@ 20158
включают 20156
бывшей 20153
возникнове@@ 20147
Оре@@ 20143
лата 20143
удар 20143
уд@@ 20141
машино@@ 20139
фонда 20139
похоро@@ 20137
поэта 20136
Класси@@ 20131
Беларусь 20128
западнее 20128
ува@@ 20128
минуте 20122
общее 20120
дворец 20119
добро@@ 20116
ленным 20116
составили 20116
сение 20113
ёз@@ 20111
Гаври@@ 20110
Премьер 20109
Лондон 20106
Муниципа@@ 20105
ступив 20104
пехоты 20100
выставки 20090
хирур@@ 20089
Ричард 20087
пад@@ 20087
проводились 20081
экологи@@ 20080
1877 20076
заим@@ 20076
архитектор 20075
Мол@@ 20071
АЗ 20069
церемонии 20066
ывал 20064
редак@@ 20063
гера 20062
печати 20062
представлял 20059
марок 20058
борь@@ 20049
личного 20049
отправлен 20047
резиден@@ 20046
йскими 20041
версию 20036
материала 20028
отступ@@ 20028
нижней 20018
линский 20016
ята 20016
фильмы 20008
экипажа 20006
заседа@@ 19999
цель 19998
партий 19997
релье@@ 19996
условий 19992
подготовке 19990
альбомов 19989
Кей@@ 19978
этапа 19976
охват@@ 19974
победителем 19972
сельских 19968
листиче@@ 19960
самое 19960
состояла 19958
ранних 19952
читал 19949
Тамбо@@ 19947
пресс 19944
11@@ 19943
1812 19943
тата 19943
лак@@ 19939
правление 19938
Хен@@ 19934
1861 19932
ывая 19927
секретаря 19926
обозначения 19924
брен@@ 19914
полный 19914
длину 19903
еха@@ 19902
компанию 19891
большее 19889
Сергея 19888
тивного 19887
чали 19887
1500 19885
теку@@ 19883
Пис@@ 19877
читате@@ 19877
осенью 19872
Конгре@@ 19867
возраст 19866
сообщи@@ 19866
письма 19862
ыгра@@ 19862
ющимся 19860
спокой@@ 19859
лор@@ 19857
Фридри@@ 19856
личности 19854
бои 19853
трибу@@ 19853
Румынии 19851
тра 19850
топ@@ 19839
стин 19838
КОАТУУ 19835
крупный 19830
семью 19829
Афа@@ 19828
связанные 19826
веро@@ 19824
результатов 19824
существенно 19820
нная 19816
Ав@@ 19815
героев 19810
нистиче@@ 19802
сигна@@ 19802
Феодо@@ 19796
Гражданской 19793
Отде@@ 19792
рядо@@ 19791
смогла 19789
японской 19785
Сове@@ 19784
окончила 19783
княже@@ 19782
многочислен@@ 19778
связана 19778
Дво@@ 19775
сна 19772
Верхняя 19771
Леонид 19768
Физи@@ 19766
ьевич 19758
скресен@@ 19756
шке 19756
российская 19755
архитектора 19750
вавших 19747
Любо@@ 19745
розо@@ 19742
башни 19740
рата 19737
Память 19733
доброволь@@ 19733
соревнования 19733
развитии 19732
тарь 19731
комите@@ 19730
ствовало 19727
дого 19726
1884 19724
водных 19723
закончил 19721
замка 19720
св 19719
делу 19718
миграции 19714
мыми 19706
единиц 19705
Каре@@ 19703
on@@ 19695
Мартин 19690
приеха@@ 19690
законо@@ 19685
помощ@@ 19682
оказалось 19681
1863 19680
человече@@ 19674
здоровья 19673
Осенью 19669
руп@@ 19666
фос@@ 19661
границ 19655
находилось 19655
конечном 19654
сынов@@ 19652
награду 19649
Уч@@ 19645
Встре@@ 19640
влияния 19624
лекате@@ 19624
уне 19624
властей 19618
мбу@@ 19610
намест@@ 19609
Парижа 19607
Инфраструктура 19606
освобод@@ 19606
оккупации 19601
Windows 19598
гено@@ 19594
здравоохранения 19594
инду@@ 19591
лидеров 19591
разби@@ 19588
центри@@ 19588
содержание 19585
вав 19577
окрестностях 19573
указывает 19571
вполне 19569
шено 19567
виз@@ 19565
побед 19557
заявля@@ 19555
возвращается 19553
Пин@@ 19545
Клю@@ 19543
лекции 19543
мигри@@ 19541
ос 19541
губернато@@ 19540
пати@@ 19539
оказыва@@ 19535
Хосе 19533
Мета@@ 19530
факультете 19526
чиками 19524
ид 19522
руках 19518
поп 19516
правительством 19515
лялся 19514
еписко@@ 19512
родов 19499
арми@@ 19498
языком 19498
монар@@ 19496
провин@@ 19493
См@@ 19492
рецеп@@ 19491
физико 19490
приказал 19488
ывать 19488
Ольга 19486
Парти@@ 19485
прошлом 19485
гонке 19479
сохранились 19479
задач 19465
Медве@@ 19462
питания 19455
несколькими 19453
испыты@@ 19451
лаборатории 19448
You 19446
кона 19441
Полта@@ 19440
духе 19440
отмечает 19440
ьч@@ 19440
Югославии 19437
итальянский 19436
истин@@ 19431
деж@@ 19428
Лев 19427
боле@@ 19414
кала 19412
публикации 19411
меч@@ 19410
действиях 19409
страну 19409
выбор@@ 19408
Бельгии 19407
хват@@ 19400
юще@@ 19398
треуго@@ 19396
Есть 19394
жется 19393
изменений 19389
сная 19382
участвовать 19380
уст@@ 19378
преоблада@@ 19376
колхоза 19374
популярность 19373
льевич 19372
зен 19371
ковская 19368
упо@@ 19366
переводе 19363
эт 19362
почита@@ 19358
Турк@@ 19355
Среднегодовая 19348
рованным 19346
зуб@@ 19345
Оси@@ 19343
крыль@@ 19343
лингви@@ 19343
фла@@ 19343
привод@@ 19339
Шта@@ 19328
полку 19326
зави@@ 19325
кул@@ 19323
сед@@ 19323
большом 19319
Гран@@ 19318
сравнитель@@ 19318
боли@@ 19312
автодороге 19307
Мед@@ 19306
бизнес 19304
любовь 19302
питан@@ 19302
рег@@ 19301
Нау@@ 19297
автомобиль 19296
четверть@@ 19292
1888 19290
вные 19289
Демография 19287
пытались 19287
небольших 19283
позво@@ 19275
Андер@@ 19274
городском 19274
конфликта 19270
отказыва@@ 19269
страхо@@ 19263
обыгра@@ 19262
приз@@ 19261
помест@@ 19260
МВД 19255
документов 19253
секун@@ 19252
классификации 19250
держан@@ 19248
депутат 19247
олог 19246
Строительство 19241
Демокра@@ 19240
зани 19240
растения 19232
швейцар@@ 19231
экономических 19231
выигры@@ 19229
парт@@ 19229
Краснодар@@ 19227
Пот@@ 19226
достигает 19226
Ната@@ 19225
ребёнка 19224
плоско@@ 19222
тиви@@ 19220
пропове@@ 19219
зуется 19210
мульти@@ 19210
кля@@ 19205
противостоя@@ 19205
приез@@ 19199
Международной 19197
женного 19195
раста@@ 19195
Несколько 19194
имена 19194
британский 19193
ничестве 19191
вете 19190
вена 19184
окончате@@ 19184
гана 19183
миссии 19177
пои@@ 19174
целей 19174
гна@@ 19172
Западного 19171
кавалерий@@ 19171
глаза 19167
одержа@@ 19166
поединке 19165
лицо 19162
циф@@ 19162
прочем 19158
кат 19156
ресто@@ 19154
католи@@ 19152
заму@@ 19150
сопрово@@ 19150
тря@@ 19145
договора 19139
продолжает 19132
Бах@@ 19131
секретарём 19129
Численность 19128
сками 19127
Алта@@ 19122
кай@@ 19121
ООО 19117
гражда@@ 19117
ману@@ 19113
съё@@ 19110
Брян@@ 19106
Хью@@ 19105
политика 19104
опро@@ 19100
Эри@@ 19099
двигателя 19094
соба@@ 19086
критики 19082
Андрея 19077
Вай@@ 19072
министров 19072
доне@@ 19069
незакон@@ 19069
чья 19068
чо 19064
СН@@ 19061
длины 19061
учёных 19060
названа 19055
программи@@ 19050
провел 19049
бесплат@@ 19048
музыкальный 19048
Три 19046
старин@@ 19046
чах 19043
границу 19042
Гай@@ 19040
главой 19034
звании 19034
Компания 19033
колхоз 19031
Яро@@ 19025
борьбу 19023
долгое 19019
йцев 19019
оправ@@ 19016
иту@@ 19013
порядок 19011
созвез@@ 19009
Красную 19006
коллекции 19001
Бек@@ 19000
МИ@@ 18994
происхождение 18991
темы 18981
пассажиров 18980
различными 18980
бок@@ 18977
помочь 18975
британской 18974
дворца 18972
системой 18970
обществе 18961
бав@@ 18958
жден@@ 18956
несла 18956
журналист 18954
Калифорния 18953
дому 18952
труд 18952
щений 18947
думы 18943
клет@@ 18941
Кот@@ 18931
наказа@@ 18931
КНР 18926
ад 18926
Николаев@@ 18924
пет@@ 18922
Творчество 18919
Екатерина 18917
снят 18917
устраи@@ 18911
столице 18909
уволен 18909
говорить 18908
белых 18907
патриар@@ 18907
винов@@ 18897
пространства 18895
Еди@@ 18894
пок 18887
речь 18887
Были 18884
процессов 18884
английском 18883
сович 18883
аудито@@ 18878
цкое 18874
символизи@@ 18867
трудоспособ@@ 18866
якобы 18866
обрёл 18865
фестиваль 18862
инструмента@@ 18859
кафедре 18857
линг 18857
перевод 18857
Усть 18853
личных 18851
кустар@@ 18849
Рейн@@ 18848
рона 18848
непреры@@ 18846
17,@@ 18842
Норвегии 18837
Комитета 18836
Кни@@ 18832
внимания 18830
мастера 18829
жилых 18826
старей@@ 18824
след 18823
коны 18822
Рожде@@ 18821
Брон@@ 18820
Астра@@ 18813
кла 18810
уми@@ 18810
гур@@ 18803
А.@@ 18799
премьера 18798
низа@@ 18793
РК 18790
предшествен@@ 18790
Основной 18789
Вильгель@@ 18784
Волы@@ 18782
гаран@@ 18780
поставил 18779
пера 18775
нском 18773
поверх@@ 18773
вше@@ 18772
кал 18772
двор 18771
мети@@ 18771
ара@@ 18769
ционе@@ 18761
ьей 18760
поста 18757
фельд@@ 18754
заслуженный 18751
ожида@@ 18751
переход 18751
температуры 18751
немед@@ 18746
сент@@ 18746
водном 18745
Объедин@@ 18744
мому 18740
Бран@@ 18737
материал 18736
эпо@@ 18735
Улья@@ 18734
часов@@ 18734
риях 18731
ступен@@ 18731
пси@@ 18730
демо@@ 18727
Каждый 18722
1879 18719
Международного 18717
кта 18717
цева 18717
эксплуатацию 18717
внес@@ 18715
Иногда 18710
матер@@ 18708
последним 18707
политического 18705
Имеет 18696
бра 18696
Витеб@@ 18695
открыто 18695
специалист 18695
сл 18694
Георгия 18690
главную 18690
лати@@ 18686
живёт 18685
соединя@@ 18685
тировала 18685
ут 18685
сис 18682
вного 18681
объём 18680
зок 18677
изде@@ 18677
Центрального 18671
рабочего 18660
фамили@@ 18660
октябрь 18659
1873 18655
цова 18654
белые 18653
родителей 18653
отло@@ 18646
южно@@ 18643
контр@@ 18641
мони@@ 18640
взять 18634
лате@@ 18634
Среднегодовое 18633
номини@@ 18633
выполнение 18631
отсутствует 18621
писать 18621
гал@@ 18620
Осман@@ 18618
Ден@@ 18615
повторя@@ 18615
произведение 18612
терми@@ 18608
мощностью 18607
женского 18605
избран@@ 18605
штат@@ 18601
используя 18600
Диа@@ 18598
ился 18598
крестья@@ 18597
АТ@@ 18588
схе@@ 18587
правила 18584
ровку 18581
гат 18579
заби@@ 18578
Флаг 18576
защиту 18576
хой 18573
обстре@@ 18572
партнё@@ 18571
кате@@ 18567
консерватории 18567
атам 18564
деления 18563
1882 18562
la 18562
рассе@@ 18562
известная 18552
формирование 18552
баскет@@ 18551
Лар@@ 18550
Постоян@@ 18550
требует 18550
Ссылки 18548
бывших 18548
великого 18546
методов 18546
среде 18546
вооружение 18540
обеих 18538
герцог 18532
речи 18532
Уор@@ 18526
создано 18523
рак 18522
рация 18521
3,5 18514
гры@@ 18513
реестре 18511
Одна 18508
Голу@@ 18506
альное 18502
значительной 18497
al 18496
бомбардиров@@ 18496
Тей@@ 18493
Нидерландов 18489
буква@@ 18489
шести@@ 18487
провинцию 18485
Софи@@ 18484
помина@@ 18484
тана 18482
Международный 18478
Звезда 18476
Мать 18476
Эдуар@@ 18475
захоро@@ 18475
перебра@@ 18475
социально 18467
городу 18466
Весной 18462
активное 18459
quot 18458
проводится 18458
назначил 18453
характеристи@@ 18453
акций 18449
держать 18449
персонажа 18448
09 18447
женной 18447
Каза@@ 18446
шпи@@ 18445
мороз@@ 18443
передан 18443
День 18442
КО@@ 18441
еры 18439
Игро@@ 18437
войн 18437
ae 18436
спро@@ 18430
Мате@@ 18428
ник@@ 18427
заду@@ 18425
цким 18424
бас 18421
Костро@@ 18420
Теха@@ 18419
семи@@ 18413
годи@@ 18412
распространения 18411
ющему 18410
хво@@ 18406
Лео@@ 18405
Лиг@@ 18404
дир 18400
выращи@@ 18394
прило@@ 18394
гнез@@ 18389
Он@@ 18387
посё@@ 18385
помог 18382
Зим@@ 18381
педагог 18380
Игна@@ 18378
шил 18378
отказ@@ 18375
яние 18375
могате@@ 18374
кандидатов 18372
разведки 18372
ПВО 18368
вающие 18364
оборудование 18362
нено 18361
изобраз@@ 18360
политик 18360
g 18356
видные 18351
востока 18349
проявля@@ 18349
чёте 18347
образует 18338
осла@@ 18337
чник 18333
Антонио 18329
Ле 18327
передал 18327
ента 18323
Арханге@@ 18319
Здание 18319
запада 18317
карто@@ 18312
него@@ 18305
Мари 18302
пова 18299
продажи 18295
бан 18294
носится 18293
начать 18290
упраздне@@ 18290
культурного 18288
исторической 18283
учителем 18282
докторскую 18281
Руковод@@ 18280
наступате@@ 18278
Чере@@ 18275
шириной 18273
монастыре 18272
специфи@@ 18272
Ильи@@ 18271
экспо@@ 18270
выступле@@ 18265
рые 18264
префек@@ 18257
метра@@ 18256
Коз@@ 18254
Таджи@@ 18252
Де 18250
полное 18248
провела 18246
риф@@ 18245
творчество 18238
Мя@@ 18237
филологи@@ 18234
работах 18233
шили 18232
тни@@ 18231
члена 18230
экземпляров 18227
Дмитриевич 18225
Дор@@ 18225
Мона@@ 18225
неожидан@@ 18212
черты 18207
вавший 18206
фирмы 18203
мию 18200
подозре@@ 18193
льские 18192
включены 18186
предлагает 18186
Дол@@ 18184
длится 18183
залива 18180
цикл 18180
выставке 18179
вшееся 18177
щаются 18176
Лауреат 18175
работают 18173
прежнему 18172
Съ@@ 18170
дивизионе 18167
Северный 18166
холод@@ 18166
обстанов@@ 18158
прихода 18155
Треть@@ 18153
гую 18152
³ 18150
чук 18149
новской 18148
спортивной 18146
Основная 18145
Ленинградской 18144
голову 18142
заинтересо@@ 18140
куз@@ 18138
учреждения 18138
щались 18138
авторите@@ 18137
попол@@ 18136
Уай@@ 18134
отзывы 18134
каме@@ 18132
1881 18131
зо 18124
церк@@ 18119
парке 18117
путей 18117
приход@@ 18115
анализ 18113
слен@@ 18110
тенден@@ 18110
выжи@@ 18109
режим 18106
03 18105
оды 18105
Ранние 18103
нование 18103
далеко 18096
способ 18092
членами 18089
лас 18088
объекты 18087
показыва@@ 18087
тическую 18086
персо@@ 18083
Им@@ 18082
Чехослова@@ 18082
1871 18079
06 18072
сумму 18071
еже@@ 18069
художественной 18068
Ему 18066
Мах@@ 18065
ув@@ 18065
11,@@ 18063
основы@@ 18061
носить 18054
исправ@@ 18050
организ@@ 18049
рала 18048
покинуть 18044
Вест@@ 18042
стро 18042
Тара@@ 18040
немцев 18040
достато@@ 18037
сержант 18037
пин 18035
гим 18033
Осно@@ 18032
тате@@ 18031
участником 18029
внешней 18028
успехом 18028
энциклопе@@ 18025
08 18023
1876 18019
лер@@ 18017
вс@@ 18007
медицинских 18007
Музыка@@ 18004
круг 18003
посетил 18003
вооружённых 18002
докла@@ 18002
альным 18000
подготовку 17999
Джо 17998
нился 17998
гового 17996
общая 17996
гряз@@ 17994
пропаган@@ 17994
областей 17992
стадионе 17992
территорий 17992
надо 17990
Лы@@ 17986
молит@@ 17986
тельность 17986
водил 17985
линию 17979
лялись 17978
управлением 17978
плодо@@ 17974
Йе@@ 17972
интерпре@@ 17971
ГБ 17965
прибыли 17961
Чай@@ 17960
автономного 17954
студийный 17951
Лет@@ 17948
горизонта@@ 17946
скрип@@ 17945
автоно@@ 17942
Ставро@@ 17939
деревню 17937
Критика 17936
источники 17936
западном 17935
at 17933
сегодняш@@ 17933
бежал 17932
лагеря 17932
танковой 17928
Джен@@ 17927
документы 17926
лёв 17926
стром 17918
мара 17913
браке 17909
демон@@ 17907
Иг@@ 17906
Офици@@ 17902
Проект 17900
ката 17900
конкур@@ 17895
скорост@@ 17894
использоваться 17893
изгна@@ 17890
любитель@@ 17889
международный 17887
Тен@@ 17884
дс 17883
писто@@ 17883
льстве 17882
Главного 17881
Мы@@ 17881
конструкция 17881
левый 17880
невозможно 17869
Испол@@ 17866
скам 17864
Пол 17862
ганд@@ 17860
тут 17859
вар 17858
классе 17858
Эли@@ 17848
медицинской 17847
южнее 17839
соблю@@ 17836
спортсмен@@ 17835
потерял 17831
возве@@ 17823
пожало@@ 17817
возобнов@@ 17815
Принима@@ 17812
Фут@@ 17812
рынке 17811
водоро@@ 17810
шате@@ 17806
ждать 17805
секу@@ 17804
Дж 17803
льди@@ 17801
дат 17800
друзей 17799
европе@@ 17797
мемориаль@@ 17793
фолькло@@ 17787
ордина@@ 17786
Результаты 17782
ловка 17780
гендер@@ 17778
нельзя 17778
дорович 17775
привели 17775
испы@@ 17774
никто 17772
иск 17769
номера 17769
перешли 17765
плы@@ 17765
народной 17762
Филипп 17761
брь 17759
мми 17754
Великобритания 17751
интегра@@ 17748
брат@@ 17745
атмосферных 17737
восьми 17737
рений 17737
изло@@ 17736
гель 17735
нападающий 17735
Посёлок 17730
Департамент 17728
засе@@ 17728
проводит 17727
стор@@ 17725
Верну@@ 17720
Ол@@ 17712
боя@@ 17709
пережи@@ 17707
приглаш@@ 17706
Министерство 17705
появления 17699
нужда@@ 17698
граде 17695
Кана@@ 17691
полков@@ 17691
Питер 17688
импе@@ 17686
место@@ 17683
окрест@@ 17683
автомобиля 17682
Оренбург@@ 17681
фонд 17680
ваш@@ 17678
стихотво@@ 17675
новна 17673
Университет 17670
ментами 17669
массы 17668
характера 17668
Московском 17666
Русский 17659
завершил 17659
богосло@@ 17657
работка 17648
связан 17647
бру@@ 17645
кут@@ 17645
дистан@@ 17640
щению 17640
алкого@@ 17638
золото 17635
1883 17631
Гера@@ 17631
шиф@@ 17630
Оскар 17629
Плотность 17626
небольшие 17626
организацию 17626
Чернигов@@ 17623
рынка 17623
жное 17619
замену 17616
относя@@ 17612
ателей 17611
кно@@ 17611
исторического 17610
пуск 17609
могло 17606
льств 17604
Православ@@ 17603
служить 17601
формули@@ 17600
Вей@@ 17598
воспитан@@ 17597
поход 17597
05 17592
енных 17589
Роберта 17584
бун@@ 17583
тюр@@ 17583
разновид@@ 17579
ченной 17579
интерес@@ 17577
певица 17577
получило 17570
зафикси@@ 17569
озер@@ 17567
равно 17567
нередко 17566
Что 17564
прошед@@ 17564
сообщает 17562
хождение 17562
колоколь@@ 17560
посредством 17555
Ред@@ 17554
Сав@@ 17553
Вет@@ 17550
Неме@@ 17550
Re@@ 17545
12.@@ 17541
административный 17541
духовной 17537
мило@@ 17537
квар@@ 17535
исследование 17534
эскад@@ 17533
ьям 17530
Македо@@ 17529
росла 17525
эксплуатации 17525
принимала 17524
фотографии 17524
непри@@ 17520
бого@@ 17519
порта@@ 17511
славы 17510
теров 17510
жениями 17506
Руси 17504
идея 17502
населением 17497
наших 17494
In@@ 17492
горных 17492
обнаружены 17491
нефти 17488
поки@@ 17487
класс@@ 17483
дник 17481
борту 17480
курса 17479
Музе@@ 17478
лав@@ 17477
Вильгельм 17473
Мет@@ 17472
Таври@@ 17472
княжества 17470
абсолю@@ 17468
строя 17467
принята 17465
Чикаго 17463
ухода 17461
ране 17460
02 17459
Ори@@ 17458
показывает 17454
низм 17453
провинция 17453
русским 17453
экспози@@ 17453
работан@@ 17452
действовать 17451
обусло@@ 17450
Кем@@ 17447
рым 17447
предпоч@@ 17445
евой 17444
Гур@@ 17443
напротив 17441
популя@@ 17436
Гит@@ 17433
нефтя@@ 17433
писана 17430
сопротивление 17430
подроб@@ 17427
мусуль@@ 17426
1865 17425
вторую 17421
визу@@ 17420
внутри@@ 17419
h@@ 17417
телевидения 17415
аэродро@@ 17413
посред@@ 17413
артист 17409
некоторым 17409
выбира@@ 17407
утверждает 17404
Электро@@ 17403
обвиня@@ 17403
особо 17399
мская 17396
политику 17391
ширина 17390
ленное 17388
колонии 17384
международном 17383
Сак@@ 17380
собственные 17378
совсем 17378
Сред@@ 17377
Общества 17374
дольф 17371
Африке 17369
Президент 17368
кар 17366
устра@@ 17365
пожар@@ 17361
научным 17359
плати@@ 17358
r 17357
рачи@@ 17352
Востока 17350
Голо@@ 17346
движении 17345
сег@@ 17345
бек@@ 17342
автоном@@ 17339
пространство 17339
щу 17338
левого 17337
жителя 17327
лун@@ 17327
пок@@ 17327
наименование 17322
Мэри 17321
древних 17321
храме 17321
Библи@@ 17320
несли 17319
Участ@@ 17312
открытие 17308
дился 17307
платформы 17307
хутор 17306
зени@@ 17304
говорят 17303
высокие 17302
Перво@@ 17301
дальше 17301
Вир@@ 17299
познакомился 17299
копий 17293
Ама@@ 17287
взо@@ 17287
лат 17287
пейза@@ 17282
пребывания 17280
утверждён 17280
1867 17279
обез@@ 17279
Джек@@ 17277
аро@@ 17277
врач 17277
перспек@@ 17277
манитар@@ 17276
расстояние 17276
Шер@@ 17274
вещества 17273
динамиче@@ 17273
жё@@ 17273
пожертво@@ 17273
другое 17272
мра@@ 17270
теория 17265
арте@@ 17262
указом 17258
Яв@@ 17257
описа@@ 17256
мед 17255
окружающей 17253
научные 17252
реакции 17252
сак@@ 17249
Музы@@ 17247
мян 17247
забро@@ 17246
океана 17244
торпе@@ 17243
Солнца 17236
кампа@@ 17234
Премьера 17233
игровой 17232
исключ@@ 17229
нейтра@@ 17229
отделом 17227
дови@@ 17224
базо@@ 17220
шахмат@@ 17218
Соци@@ 17217
Рим 17211
воспо@@ 17208
Дании 17206
приказу 17206
Возможно 17204
Книга 17203
доступ 17201
культура 17200
НБА 17199
щему 17199
Ради@@ 17198
рано 17198
лого@@ 17192
конфликт 17186
инского 17183
Ленинград 17177
политике 17171
сож@@ 17171
Вид 17170
выступила 17168
позиция 17167
мб@@ 17166
соборе 17165
er@@ 17159
музыкального 17159
мёр@@ 17159
нейро@@ 17159
досто@@ 17156
свадь@@ 17155
наступления 17153
эффици@@ 17153
медицины 17152
служба 17149
10.@@ 17147
Хей@@ 17146
берег 17145
полузащитник 17144
мад 17139
историко 17137
станет 17137
Сиг@@ 17135
служит 17131
Всё 17129
видит 17128
j@@ 17127
внутренней 17126
ывают 17123
случай 17121
бежать 17112
родину 17109
гни@@ 17108
ваемых 17106
прокуро@@ 17104
политические 17102
цикла 17101
Нижегородской 17099
входило 17097
каждые 17097
короле@@ 17093
Крымской 17091
дивизион 17090
щаться 17087
Дал@@ 17085
вере 17085
турнирах 17085
Краснозна@@ 17076
моро@@ 17074
13,@@ 17072
технический 17068
предположительно 17064
эвакуи@@ 17064
победитель 17056
осталось 17055
НР 17054
защите 17054
утверждал 17054
ьё@@ 17054
мексикан@@ 17050
1868 17046
семейство 17044
Горо@@ 17043
фамилии 17043
Гиль@@ 17039
адво@@ 17038
Звез@@ 17036
вшему 17035
телефон@@ 17034
следующее 17033
Иерусали@@ 17027
Татьяна 17027
1850 17026
благоприя@@ 17022
отборо@@ 17022
уезде 17022
веществ 17019
запро@@ 17018
140 17017
Арка@@ 17015
объясни@@ 17013
Сербии 17006
ПУ 17002
зрите@@ 17002
распо@@ 17002
падения 17001
сериа@@ 17001
объявила 16999
органы 16997
городская 16995
женской 16994
вела 16993
защитника 16993
родители 16993
платы 16992
теро@@ 16992
мный 16991
шали 16991
определяется 16989
носят 16988
лки@@ 16986
натура@@ 16986
собственности 16986
евской 16985
третьем 16985
менти@@ 16981
Знамени 16980
музыке 16979
Василия 16975
Ней@@ 16971
народ 16971
ограниче@@ 16969
детства 16963
море@@ 16956
двер@@ 16953
кристал@@ 16953
чев 16952
ывате@@ 16952
Грэ@@ 16951
Рио 16951
исполнение 16947
Иоанн 16942
кред@@ 16937
крепост@@ 16936
оружи@@ 16935
вра 16934
дома@@ 16931
ьёй 16926
гипер@@ 16922
тёплым 16922
щался 16922
Генриха 16919
локо@@ 16918
издал 16915
епископом 16912
пласти@@ 16910
гонки 16909
практике 16909
сингла 16909
ительную 16904
причин 16901
ic@@ 16899
СМ 16899
кори@@ 16899
зале 16897
шю@@ 16895
среднюю 16894
ференци@@ 16894
Ленинградского 16891
эстафе@@ 16891
посмер@@ 16887
1869 16886
инфек@@ 16886
сведениям 16886
умерен@@ 16879
правой 16877
муниципалитета 16874
Игра 16869
Куйбы@@ 16868
находит 16868
кет@@ 16864
Долго@@ 16856
энерго@@ 16856
допу@@ 16853
играла 16851
риал 16851
лежит 16849
листо@@ 16847
отдыха 16843
профе@@ 16842
исполнения 16841
поэзии 16839
будь 16838
дирижё@@ 16837
Токио 16836
лив 16836
высшее 16834
мбо@@ 16834
голе@@ 16833
признание 16832
мор 16827
смысле 16826
отношениях 16825
тает 16824
Ие@@ 16822
приходит 16821
Ленинграде 16818
производству 16818
религи@@ 16817
интенсив@@ 16813
принадлеж@@ 16806
дизай@@ 16805
хия 16805
чания 16805
молодёжи 16803
останови@@ 16803
Яр@@ 16802
марк@@ 16802
r@@ 16800
египет@@ 16796
Канаде 16794
линий 16794
Октябрьской 16791
Франсуа 16791
Начало 16790
комсомо@@ 16789
Лон@@ 16787
сооружения 16785
услуг 16785
закреп@@ 16781
конфлик@@ 16781
криста@@ 16781
Гло@@ 16779
Дея@@ 16778
остатки 16777
официальным 16777
z 16774
мелких 16772
жие 16766
Геро@@ 16760
тренер@@ 16758
Францию 16749
Хам@@ 16746
Христа 16742
1866 16741
el 16741
Собра@@ 16741
ническая 16740
1830 16739
зависи@@ 16739
Гви@@ 16732
картин 16732
реконструкции 16732
вручением 16728
Петербургской 16727
вести@@ 16727
распада 16726
решению 16726
Серебря@@ 16723
ЦИК 16722
впадает 16719
комеди@@ 16716
обыкновен@@ 16713
вело@@ 16711
объединение 16710
1848 16709
Саха@@ 16708
отсутствия 16707
подобных 16707
аристокра@@ 16704
количестве 16701
фило@@ 16701
точка 16700
добился 16699
запол@@ 16698
футбола 16698
тавли@@ 16697
озву@@ 16693
пен 16693
Система 16691
йско 16690
кана 16687
Южная 16685
подзем@@ 16683
лениях 16680
перёд 16679
хен@@ 16678
советские 16677
осталась 16676
Ага@@ 16670
вере@@ 16668
Мало@@ 16666
Финлян@@ 16663
исполнении 16661
нести 16661
преступления 16661
Ближайшие 16660
сезонов 16660
НИИ 16659
клеток 16658
каких 16649
ковать 16649
трое 16649
Кун@@ 16648
мощность 16648
религии 16646
Ии@@ 16643
Смит 16643
волей@@ 16639
квалификации 16637
водом 16627
добра@@ 16624
закре@@ 16624
Иде@@ 16622
шир 16620
компонен@@ 16618
хта 16618
круг@@ 16617
мозга 16616
дзи@@ 16607
ляция 16607
королевства 16604
0,5 16601
продоволь@@ 16597
сное 16593
препара@@ 16589
Институте 16587
высокий 16583
выбор 16578
дона 16575
изданий 16572
отне@@ 16572
двигатель 16571
сражения 16571
метрополи@@ 16567
Хель@@ 16566
слобо@@ 16566
детстве 16564
коали@@ 16563
специальных 16563
Group 16561
МВ@@ 16559
рио 16557
трол@@ 16557
характеристики 16552
давле@@ 16550
противоре@@ 16546
тенни@@ 16544
значительное 16541
протестан@@ 16541
говора 16540
Храм 16539
дочерью 16537
щенко 16534
Курской 16529
результ@@ 16529
числилось 16526
чайно 16525
приклад@@ 16519
хвой@@ 16518
гина 16514
проживает 16509
серде@@ 16506
Z 16504
персонаж 16502
опор@@ 16499
ГЭС 16496
выполнен@@ 16496
имо@@ 16492
Леони@@ 16491
Велико@@ 16490
носили 16485
флаг 16485
адъ@@ 16482
важным 16479
кап@@ 16479
поверхность 16476
Уро@@ 16473
лениями 16473
клави@@ 16472
ради 16472
УЕФА 16471
губернатор 16470
Фила@@ 16469
общественный 16468
советское 16467
фю@@ 16466
соном 16464
12,@@ 16461
нял 16458
коди@@ 16457
ограничи@@ 16456
кандидат 16452
Эль 16449
хими@@ 16442
основано 16439
строение 16435
en 16434
общий 16432
рите@@ 16431
Сала@@ 16430
кресто@@ 16429
тинский 16424
банд@@ 16421
эффект 16418
ракеты 16416
Ch@@ 16415
сайта 16414
07 16413
Лав@@ 16412
шуюся 16411
Игра@@ 16410
аван@@ 16406
восточном 16405
ДНК 16402
морф@@ 16398
Отече@@ 16396
агро@@ 16396
слабо@@ 16394
слан 16394
Научная 16392
линг@@ 16392
правый 16389
пети@@ 16385
огнём 16382
епархия 16379
Абу 16378
стоимость 16377
СД@@ 16375
Сначала 16374
коммуни@@ 16374
функций 16374
установлено 16370
цов@@ 16367
глад@@ 16360
монго@@ 16359
1856 16355
Лай@@ 16351
Кари@@ 16347
клетки 16347
станцию 16347
официальных 16331
чок 16331
возглав@@ 16330
многом 16330
Высота 16328
ходило 16327
служеб@@ 16326
Парк 16325
жер 16325
idae 16321
посвящен@@ 16320
ционным 16318
селение 16315
торе 16311
учреждений 16307
1872 16300
учред@@ 16299
for 16297
княз@@ 16297
Университета 16296
магазин 16296
Коль@@ 16294
Мю@@ 16292
ГИ@@ 16291
пришли 16290
танце@@ 16288
нрав@@ 16287
лиде@@ 16285
Алексея 16284
людям 16282
собственных 16280
самая 16279
взрослых 16274
погре@@ 16274
ковод@@ 16271
Зар@@ 16266
свиде@@ 16266
анима@@ 16264
следующей 16264
вара 16263
Золотая 16258
колледж 16256
тация 16253
частях 16253
Михай@@ 16251
универса@@ 16249
действием 16248
емы 16240
врага 16237
называет 16235
шенко 16234
роб@@ 16232
севера 16230
французских 16227
товар@@ 16225
Хро@@ 16219
стек@@ 16211
планы 16208
фашист@@ 16208
вато@@ 16205
КБ 16204
рису@@ 16199
гского 16189
проводятся 16189
рук 16185
дным 16178
кации 16177
поляр@@ 16176
160 16173
полуострова 16172
нская 16169
ченного 16168
коллегии 16162
швили 16156
el@@ 16154
исторический 16154
кварта@@ 16154
братья 16152
вил@@ 16151
община 16148
высоту 16146
шают 16141
преодоле@@ 16139
течению 16137
гося 16134
приготов@@ 16134
переданы 16130
множества 16128
одоб@@ 16128
1875 16124
личные 16123
представления 16123
Корне@@ 16119
размера 16119
району 16116
таки 16115
кевич 16114
балан@@ 16096
лауре@@ 16093
отри@@ 16091
проводил 16090
свободу 16086
Широ@@ 16076
Уд@@ 16075
Ты@@ 16068
повсе@@ 16067
нист 16064
регионов 16062
наре@@ 16060
значительные 16058
термина@@ 16056
ьера 16054
бен 16053
спорт@@ 16045
ринг 16044
Академи@@ 16041
описан 16041
боеприпа@@ 16038
свое 16033
лицензи@@ 16032
тна 16030
йцы 16028
обеспечить 16025
Кузь@@ 16019
Трудо@@ 16019
лье@@ 16019
прочих 16018
Тек@@ 16016
Чили 16015
тун@@ 16008
монеты 16005
гря@@ 15999
строго 15997
вик 15996
нон 15996
риту@@ 15996
считали 15992
Жена 15989
возраст@@ 15989
стиму@@ 15987
наблюдате@@ 15980
нета 15979
Кы@@ 15970
Дени@@ 15968
применяется 15968
волж@@ 15964
инициати@@ 15962
патри@@ 15962
операция 15961
приклю@@ 15961
сани@@ 15959
пра 15956
Бет@@ 15950
дисло@@ 15945
ранга 15944
Семе@@ 15934
курор@@ 15933
Смир@@ 15932
хай@@ 15927
сотни 15915
бакала@@ 15914
Кала@@ 15911
Най@@ 15911
показали 15903
рян@@ 15895
каби@@ 15893
Ере@@ 15891
мак 15891
поклон@@ 15888
бог@@ 15881
l@@ 15879
буль@@ 15876
м. 15874
200@@ 15872
бараб@@ 15871
лекту@@ 15865
кове 15864
Виш@@ 15863
нки 15859
носил 15858
господ@@ 15854
неде@@ 15854
принадле@@ 15854
происхо@@ 15854
структура 15851
04 15846
лея 15838
лице@@ 15835
зеро 15823
написана 15803
принца 15802
финиши@@ 15802
отправил 15799
бия 15794
труды 15790
впечат@@ 15787
Великий 15784
Лебе@@ 15784
отдел 15774
Запоро@@ 15768
администра@@ 15768
настав@@ 15764
дуард 15763
разуме@@ 15762
сэ@@ 15762
блок 15755
пиани@@ 15751
повлия@@ 15746
Ны@@ 15743
насле@@ 15742
v@@ 15738
венства 15733
следствие 15732
1874 15731
глав 15728
Наполе@@ 15720
Берлин@@ 15713
стоимо@@ 15712
XXI 15711
риса 15699
нападения 15697
нете 15697
1840 15696
Y 15694
АМ@@ 15687
m@@ 15686
пенсионе@@ 15686
Тере@@ 15685
понятие 15681
цк 15681
цилин@@ 15678
Оно 15666
обработки 15664
пропу@@ 15663
Мала@@ 15661
ряду 15661
Жан@@ 15658
парламент 15657
Зан@@ 15655
зина 15655
аз@@ 15646
Таи@@ 15644
лидер 15643
премия 15643
Австри@@ 15641
кал@@ 15640
фини@@ 15636
владение 15633
обсервато@@ 15629
танка 15629
глоба@@ 15628
шля@@ 15625
музы@@ 15621
ПО 15620
Публи@@ 15620
зеле@@ 15620
ист 15620
Луган@@ 15618
Обра@@ 15618
бизне@@ 15613
Програм@@ 15608
юби@@ 15601
25@@ 15597
пау@@ 15593
лизма 15587
Режи@@ 15578
Бул@@ 15577
Фак@@ 15573
План@@ 15570
пиано 15568
лаборато@@ 15564
признал 15562
Кова@@ 15561
циви@@ 15556
Манче@@ 15547
неприя@@ 15541
департамент 15540
сравни@@ 15535
International 15534
Осе@@ 15533
125 15530
могу@@ 15526
Ом@@ 15525
форси@@ 15520
прести@@ 15518
своеобраз@@ 15511
Джан@@ 15510
тли@@ 15494
Октябрь@@ 15489
Спе@@ 15482
работки 15480
Собо@@ 15479
май 15476
дес@@ 15475
мезо@@ 15474
яче@@ 15474
публици@@ 15472
жба 15471
Рели@@ 15465
дент@@ 15463
ниси@@ 15449
герб 15443
ир@@ 15441
купа@@ 15434
180 15425
ис 15425
Q@@ 15415
Благо@@ 15415
тели 15412
пар 15409
h 15408
моря@@ 15408
филд 15405
юно@@ 15402
or@@ 15399
произво@@ 15393
риан@@ 15391
Литератур@@ 15388
Ефи@@ 15387
санд@@ 15387
континента@@ 15384
лодки 15382
стадион 15374
як 15371
гови@@ 15369
гимнази@@ 15366
овладе@@ 15355
Вашинг@@ 15353
Коб@@ 15349
ол@@ 15343
Гроз@@ 15341
звуко@@ 15334
дание 15330
обмен 15330
осе@@ 15327
10,@@ 15325
мали 15325
балета 15322
Дем@@ 15320
Серги@@ 15319
концерт 15318
сят 15312
хит 15302
пол 15299
спект 15299
туро@@ 15292
хон@@ 15292
кет 15288
сма@@ 15286
начи@@ 15282
Эсто@@ 15280
мара@@ 15279
транспорт 15279
Андре 15277
йска 15277
Фла@@ 15276
зов@@ 15273
Буд@@ 15268
ох@@ 15268
Давид 15260
Максим 15260
провели 15260
играли 15257
пород@@ 15257
al@@ 15251
дис@@ 15250
иран@@ 15250
делега@@ 15245
пож@@ 15239
Река 15238
Ход@@ 15236
Мел@@ 15232
знал 15231
фей 15230
сиф 15226
in@@ 15225
3000 15221
еви@@ 15220
критик 15219
дю@@ 15216
крей@@ 15216
остана@@ 15213
рисун@@ 15213
акции 15206
ауди@@ 15203
Спо@@ 15200
писание 15190
чии 15190
изго@@ 15189
Револю@@ 15187
гона 15181
кван@@ 15180
сиг@@ 15180
чо@@ 15178
Смо@@ 15173
просве@@ 15172
Сток@@ 15167
Известно 15166
1.@@ 15160
Герб 15158
В.@@ 15154
лд 15150
неактив@@ 15149
СА@@ 15148
Аш@@ 15147
внедре@@ 15141
установил 15140
кау@@ 15139
НК@@ 15127
кардина@@ 15121
феро@@ 15119
казывает 15116
герои@@ 15115
Рафа@@ 15105
ване 15103
зве@@ 15099
офицер 15093
придвор@@ 15091
Печ@@ 15084
тар 15080
Дон 15076
радо@@ 15076
охраня@@ 15074
чество 15070
адап@@ 15066
en@@ 15062
бакте@@ 15061
сми@@ 15059
расстоя@@ 15055
дорф 15048
нари@@ 15041
построй@@ 15036
контин@@ 15034
Хаба@@ 15026
теля 15019
маршрут 15008
шеб@@ 15002
― 14996
дим 14991
доброво@@ 14991
Бое@@ 14982
втори@@ 14963
безработ@@ 14959
яко@@ 14955
Божи@@ 14952
Сур@@ 14952
коман@@ 14950
камер@@ 14947
Слова@@ 14940
балти@@ 14940
референ@@ 14939
Цвет@@ 14935
ьо 14930
Иванов 14926
фур@@ 14918
ch@@ 14915
гие 14909
предстоя@@ 14908
оси 14906
гау@@ 14902
мле@@ 14902
плацдар@@ 14902
пособи@@ 14902
конферен@@ 14901
сюжет 14896
кани 14883
ноги 14877
ГДР 14876
тока 14869
видно 14865
Усп@@ 14850
разно@@ 14846
Кав@@ 14843
публике 14843
тел@@ 14838
емы@@ 14837
моди@@ 14837
см. 14837
стройка 14831
Ап@@ 14830
​ 14830
Аба@@ 14825
победа 14824
ида 14823
наблюдения 14823
набор 14815
Антон 14809
включена 14805
подписа@@ 14805
разрешение 14800
сайт 14798
Дире@@ 14795
Башкортостан 14792
Яков 14792
положительно 14787
Франк@@ 14785
жир@@ 14777
Команд@@ 14768
проведена 14762
Све@@ 14761
геологи@@ 14760
няк 14754
капе@@ 14752
хран@@ 14750
ссиона@@ 14748
рита 14743
or 14741
негатив@@ 14738
Awards 14736
Sh@@ 14736
Румы@@ 14736
гали 14733
Стати@@ 14729
Тони 14725
Подо@@ 14724
Цин@@ 14722
монаше@@ 14718
хал@@ 14718
тино 14713
лауреат 14710
случайно 14707
предпочита@@ 14706
льян@@ 14704
каде@@ 14703
Фун@@ 14702
Мос@@ 14700
новому 14697
Марти@@ 14694
токси@@ 14693
оде@@ 14683
столетия 14677
вот 14672
Зай@@ 14669
мощности 14669
Берлин 14664
депо 14664
жур@@ 14658
построил 14658
монта@@ 14653
морфо@@ 14649
слави@@ 14645
зий 14644
фен@@ 14641
стади@@ 14631
Тат@@ 14628
Нем@@ 14622
Мои@@ 14621
Сор@@ 14621
планет@@ 14620
туристи@@ 14619
чко 14618
эваку@@ 14618
1858 14605
монографи@@ 14604
лики 14600
виру@@ 14581
орден 14579
предполо@@ 14573
Артур 14572
Ирина 14572
кора@@ 14571
юри 14563
вку@@ 14559
астро@@ 14557
баскетбо@@ 14554
юга 14549
означа@@ 14545
Барсе@@ 14544
нат@@ 14542
Рен@@ 14541
вица 14541
взаим@@ 14540
фигури@@ 14539
чков 14527
пович 14525
лано 14524
Побе@@ 14521
квалифици@@ 14520
Алекса 14519
Ar@@ 14517
ета 14515
предше@@ 14513
Христи@@ 14510
Министер@@ 14507
• 14506
носа 14500
похода 14500
DVD 14497
горно@@ 14496
То 14494
дизе@@ 14483
кас 14482
Сул@@ 14480
концепции 14479
ориента@@ 14474
серти@@ 14473
ВИ@@ 14471
Сухо@@ 14469
игры@@ 14462
Архан@@ 14457
облож@@ 14452
Спар@@ 14450
шева 14449
сомо@@ 14446
зай@@ 14445
рови@@ 14444
независимо 14438
псевдони@@ 14433
помещения 14431
ГУ@@ 14429
Никола 14424
занятия 14423
кримина@@ 14419
Дона@@ 14416
РП 14414
академик 14413
Love 14408
Работа 14395
Успе@@ 14395
теран@@ 14391
база 14387
финансов 14387
Юли@@ 14383
заи@@ 14381
спон@@ 14380
Дости@@ 14375
предоста@@ 14373
Док@@ 14370
Меди@@ 14363
хим 14361
архиепископ 14359
трет@@ 14351
ФИ@@ 14346
Евгения 14342
14,@@ 14338
Шам@@ 14337
гам@@ 14337
15@@ 14313
инжен@@ 14311
видение 14310
350 14307
J 14306
напада@@ 14306
неодно@@ 14301
услуги 14301
СК@@ 14299
комик@@ 14295
Хра@@ 14293
чих 14291
навод@@ 14289
трудов 14287
учителя 14274
онер@@ 14269
оре 14269
поведение 14261
1800 14260
Семи@@ 14260
28@@ 14258
ПК 14258
граница 14258
лке 14254
Кази@@ 14253
дис 14247
блока 14244
вян@@ 14242
Закон 14241
комедии 14234
неф@@ 14233
обвинения 14228
вши@@ 14225
подве@@ 14225
родом 14225
Вашингтон 14224
пострада@@ 14221
Производство 14212
кера 14212
Много@@ 14207
мероприятия 14191
Византи@@ 14189
Рок@@ 14189
ar 14187
Ибра@@ 14187
необ@@ 14186
готов 14185
пещер@@ 14171
сдел@@ 14169
д. 14168
Богда@@ 14167
лейтенан@@ 14165
желание 14162
ac@@ 14160
ed 14160
AS@@ 14158
мба@@ 14157
служили 14155
хищ@@ 14152
лизация 14151
допуска@@ 14147
системати@@ 14143
композитора 14141
Обу@@ 14139
портрет 14139
105 14137
Григо@@ 14137
INSEE 14136
Груп@@ 14132
направи@@ 14127
друж@@ 14125
бизнеса 14122
самбле@@ 14121
повести 14116
АС@@ 14110
конкурс 14109
водят 14108
избирате@@ 14104
мага@@ 14097
фундамента@@ 14092
задача 14085
приви@@ 14063
Брат@@ 14060
Каро@@ 14059
Пана@@ 14057
le 14045
шле@@ 14042
Меж@@ 14039
бери 14039
тис 14035
лик@@ 14032
Мето@@ 14030
неж@@ 14028
календар@@ 14024
сценарий 14022
Майк@@ 14021
кум 14018
страда@@ 14015
губ@@ 14012
предупре@@ 14012
газе@@ 14007
сати@@ 14006
удив@@ 14005
депутат@@ 14002
упразд@@ 13999
бя@@ 13995
лига 13995
ВМС 13994
блестя@@ 13992
масшта@@ 13991
Вод@@ 13988
апре@@ 13988
консервати@@ 13987
сина 13984
тёп@@ 13980
1857 13974
Люд@@ 13972
Вз@@ 13971
лили 13971
хара 13964
ког@@ 13961
11.@@ 13960
Кристи@@ 13959
интерфе@@ 13959
оранже@@ 13954
гоно@@ 13953
реабили@@ 13952
дино@@ 13951
Канди@@ 13939
приспособ@@ 13939
Уру@@ 13935
диска 13934
флага 13932
заре@@ 13931
летий 13931
подчер@@ 13922
an@@ 13921
Импера@@ 13921
термо@@ 13920
яро@@ 13918
посет@@ 13917
совете 13915
лз 13913
Парла@@ 13905
написа@@ 13905
фикси@@ 13904
нидерланд@@ 13893
окси@@ 13885
Рот@@ 13879
фестива@@ 13874
рациона@@ 13872
шат@@ 13862
пал 13861
техника 13861
лидер@@ 13859
Al@@ 13858
om@@ 13848
подход 13846
сколь@@ 13845
Перу 13843
ур 13843
лар 13837
свобо@@ 13837
жок 13833
социация 13832
ar@@ 13826
Яко@@ 13824
охла@@ 13824
Инте@@ 13819
адре@@ 13813
диск 13806
описания 13797
сена@@ 13791
шири@@ 13789
Заха@@ 13786
18,@@ 13785
Динами@@ 13785
as 13784
влюб@@ 13784
Каме@@ 13780
жит 13772
Грод@@ 13770
Касти@@ 13764
хит@@ 13762
der 13756
сул@@ 13752
TV 13748
отноше@@ 13747
мосексу@@ 13743
осман@@ 13741
репер@@ 13739
Исла@@ 13737
лидера 13728
папа 13726
Снеж@@ 13724
двиг 13717
траге@@ 13712
АК 13703
Комите@@ 13701
инци@@ 13697
помощник 13697
Фан@@ 13696
Фро@@ 13696
Фра@@ 13695
бол@@ 13694
Hot 13692
Да 13690
неизвестно 13690
прием@@ 13689
клуб@@ 13688
офице@@ 13688
дец 13687
меда 13685
зали 13683
Герман@@ 13682
Суво@@ 13682
изве@@ 13674
4,5 13667
диску@@ 13664
сбли@@ 13658
стина 13651
хам@@ 13648
предска@@ 13644
цла@@ 13644
вие 13642
мари@@ 13642
Будапе@@ 13636
предложения 13634
март 13632
Луис 13628
Дек@@ 13619
дик@@ 13606
диск@@ 13604
отро@@ 13604
Флорен@@ 13603
литет 13596
кух@@ 13590
шах 13589
ревизи@@ 13582
растение 13581
стати@@ 13578
Иван@@ 13576
пка 13574
сде@@ 13571
запас 13570
1855 13569
27@@ 13568
движ@@ 13565
Христо@@ 13562
фру@@ 13562
льд@@ 13558
гроб@@ 13556
лейбу@@ 13552
ВМФ 13547
ете 13547
успехи 13546
Ск@@ 13543
иначе 13538
Кю@@ 13523
сезон@@ 13519
чеб@@ 13518
фин 13510
Количе@@ 13509
дзи 13509
поколе@@ 13506
поряд@@ 13504
второ@@ 13500
Амур@@ 13495
шей@@ 13495
теж@@ 13494
нера@@ 13492
плаз@@ 13491
Дай@@ 13490
зур@@ 13484
спла@@ 13482
поиска@@ 13480
Бога 13475
бак@@ 13475
инспе@@ 13475
Калифор@@ 13468
англ 13468
матика 13467
Стефа@@ 13466
Патриар@@ 13464
тара 13459
Гот@@ 13456
неве@@ 13455
OS 13454
адрес@@ 13453
900 13451
Генерал 13447
вокали@@ 13446
Нидерланд@@ 13444
Гле@@ 13440
лд@@ 13434
гим@@ 13432
жества 13432
теч@@ 13432
Мир 13430
сун@@ 13430
цена 13430
исче@@ 13425
жанра 13424
фарма@@ 13415
адрес 13413
словно 13404
нар 13402
Грин@@ 13401
Афгани@@ 13397
ленко 13394
Ники@@ 13388
Маха@@ 13387
кратер 13387
Entertainment 13381
капиту@@ 13378
астеро@@ 13375
мила 13375
Канада 13373
Бота@@ 13368
челю@@ 13364
1849 13360
скро@@ 13359
Дис@@ 13358
Спартак 13358
1829 13356
Чар@@ 13356
боже@@ 13353
определение 13353
Me 13347
берг@@ 13344
назем@@ 13344
взаимодействия 13338
традиционно 13333
батареи 13318
КС 13317
митрополит 13315
Моро@@ 13310
бар 13308
участво@@ 13308
отличия 13303
фрак@@ 13301
Тон@@ 13297
Граждан@@ 13295
тема 13292
зар 13287
атели 13278
фера 13277
Дву@@ 13261
славя@@ 13257
f 13256
жер@@ 13254
функция 13254
Закон@@ 13253
представление 13250
ере 13248
течения 13246
Бла@@ 13241
Управление 13236
новения 13236
ru 13235
Времен@@ 13232
вирту@@ 13229
изменение 13221
друже@@ 13220
гарни@@ 13208
стере@@ 13195
26@@ 13186
Художе@@ 13176
работник 13176
фор 13171
Бой@@ 13170
става 13162
сите@@ 13156
it@@ 13154
codice 13152
ЕС 13145
императри@@ 13144
яйце@@ 13135
индустри@@ 13133
Хуан 13128
Леон@@ 13124
кандид@@ 13122
Риг@@ 13115
рене@@ 13115
мю@@ 13114
ремонт 13113
лири@@ 13103
шер 13102
Всеволо@@ 13093
лакти@@ 13092
Tr@@ 13088
гс 13085
отъ@@ 13085
Кап@@ 13084
Распо@@ 13084
бека 13079
вещи 13079
достовер@@ 13079
хина 13078
режисс@@ 13074
Особ@@ 13073
обращение 13073
правед@@ 13068
рождение 13049
Уа@@ 13047
РС@@ 13040
гизи@@ 13033
Times 13027
экземпля@@ 13025
ате 13024
пребы@@ 13021
департа@@ 13018
муниципалите@@ 13011
тинг 13011
циан@@ 13010
Крон@@ 13004
кули@@ 13004
La 13001
ава@@ 13000
ющи@@ 12999
гун 12997
бс 12996
страна 12995
15,@@ 12994
усилия 12992
Отли@@ 12989
машина 12987
рот 12986
вечер@@ 12985
ренно 12985
сцен@@ 12985
холо@@ 12985
влаж@@ 12982
демоби@@ 12980
Патри@@ 12978
Том 12978
CD 12973
нан 12973
схват@@ 12964
Кристо@@ 12960
рих 12957
стойчи@@ 12956
Двор@@ 12955
1854 12952
главно@@ 12951
чувств@@ 12950
патрио@@ 12944
куб@@ 12942
пехо@@ 12936
коат@@ 12932
ica 12931
изя@@ 12922
An@@ 12918
1853 12916
Поз@@ 12916
кия 12913
метода 12910
Вселе@@ 12897
йд 12889
Бела@@ 12881
госпо@@ 12878
мюзи@@ 12878
палу@@ 12877
вита@@ 12876
ясно 12865
кове@@ 12860
Лорен@@ 12857
Вместо 12856
динг 12852
тим 12847
ография 12839
молекуляр@@ 12836
сана 12830
бита@@ 12822
зоо@@ 12820
горе 12815
структур@@ 12815
фия 12813
Ог@@ 12804
назначение 12803
40@@ 12800
Окс@@ 12800
Лондон@@ 12798
прокура@@ 12792
тормо@@ 12791
ВО 12786
ливо@@ 12777
брать@@ 12766
стия 12760
.-@@ 12757
фаши@@ 12749
ату 12746
Соко@@ 12745
саунд@@ 12745
вивален@@ 12742
офицера 12740
репу@@ 12736
северо@@ 12726
Жене@@ 12723
Англия 12722
строен 12718
Депу@@ 12715
доче@@ 12715
шал@@ 12713
Господ@@ 12710
Абха@@ 12709
Евре@@ 12706
принадлежат 12705
серви@@ 12695
едва 12694
мата 12687
аргу@@ 12686
Мати@@ 12680
характе@@ 12680
ol@@ 12679
ребён@@ 12677
газ 12674
Испа@@ 12673
рили 12673
as@@ 12672
регистра@@ 12672
Габри@@ 12671
Неф@@ 12668
Ази@@ 12664
практики 12663
at@@ 12661
развити@@ 12661
Шве@@ 12659
пожа@@ 12658
сие 12652
симпто@@ 12652
Форму@@ 12647
Япон@@ 12644
орбит@@ 12632
войско@@ 12629
Виктория 12627
ител@@ 12621
лаго@@ 12620
колеба@@ 12616
Стру@@ 12615
трон 12613
16,@@ 12611
член@@ 12606
хам 12603
ФРГ 12599
пассажи@@ 12599
конфи@@ 12596
Тради@@ 12595
50@@ 12594
Минск 12590
сражение 12584
забра@@ 12583
казате@@ 12581
летие 12570
подразделение 12554
Млад@@ 12552
метал 12546
Лоу@@ 12545
принц 12545
сат@@ 12543
инвали@@ 12541
разруш@@ 12541
пав@@ 12536
МО@@ 12535
онлайн 12533
5000 12527
петер@@ 12520
цет@@ 12518
скоп 12517
Япония 12515
просвет@@ 12505
Иоан@@ 12499
спектра@@ 12498
Маро@@ 12496
Систе@@ 12496
горь@@ 12495
Амстер@@ 12494
фоку@@ 12493
эф@@ 12493
уво@@ 12488
оккупа@@ 12487
принцип 12485
рейтинг 12484
навли@@ 12480
Cr@@ 12477
неже@@ 12473
аспек@@ 12471
композиция 12467
хово 12467
юся 12464
души 12463
общин@@ 12463
лечеб@@ 12450
ключ@@ 12449
1852 12447
равна 12442
оки@@ 12440
Неа@@ 12438
вуд 12438
фракции 12432
еле@@ 12428
медици@@ 12427
патро@@ 12427
лондон@@ 12425
1820 12422
акту@@ 12422
предвод@@ 12422
перь 12421
секции 12420
1842 12400
Димит@@ 12400
фабрики 12398
16@@ 12394
os@@ 12393
вас 12392
люс 12392
марке@@ 12387
Пове@@ 12383
надий 12379
дев 12378
Con@@ 12375
дта 12373
Лор@@ 12369
мла@@ 12363
созы@@ 12363
вени@@ 12361
благодар@@ 12359
англо@@ 12357
идеологи@@ 12357
w@@ 12356
заменя@@ 12348
качество 12342
Род 12341
пина 12333
скопи@@ 12333
et@@ 12327
лекси@@ 12326
мнения 12325
страте@@ 12317
Австра@@ 12316
Край@@ 12316
оча@@ 12315
Ким 12314
тях 12310
Структура 12309
Остров 12305
am 12303
доба@@ 12301
маться 12297
шка@@ 12290
Франциско 12285
нино 12285
стория 12285
кури@@ 12283
флоти@@ 12271
1834 12264
фаса@@ 12255
Шей@@ 12252
легендар@@ 12251
нарушения 12249
Саму@@ 12240
пример 12240
ярко 12239
февра@@ 12232
одобре@@ 12222
прида@@ 12219
наши 12217
отказ 12215
годно 12214
Характеристи@@ 12213
слой 12212
органа 12210
свин@@ 12207
лице 12205
граду@@ 12202
Литера@@ 12200
Microsoft 12196
расте@@ 12193
ЮАР 12191
вселе@@ 12186
нс 12185
бке 12183
170 12182
Q 12182
Испания 12182
иска 12182
Ата@@ 12181
Препода@@ 12178
мили 12175
тони 12171
мов@@ 12167
Бернар@@ 12161
социа@@ 12161
сезо@@ 12158
Запа@@ 12156
Company 12154
формации 12154
чай 12151
возгла@@ 12147
водосбор@@ 12143
сюжета 12143
35@@ 12139
101 12138
Уча@@ 12137
1814 12130
Ж 12118
хау@@ 12113
мология 12102
Образо@@ 12099
1,2 12097
архиманд@@ 12097
жник 12096
115@@ 12085
МТ@@ 12085
лост@@ 12082
отрасли 12082
командо@@ 12081
вий 12075
80@@ 12072
ов@@ 12072
сило@@ 12072
блу@@ 12069
робо@@ 12069
Выступа@@ 12065
социации 12065
One 12062
уд 12055
ждал 12053
мён 12047
механизи@@ 12044
рын@@ 12040
размно@@ 12033
гард 12032
Гю@@ 12021
мотор@@ 12020
1831 12019
бита 12019
наб@@ 12013
Начи@@ 12008
мож@@ 12003
хла@@ 12003
Авгу@@ 11998
чно@@ 11993
председате@@ 11987
цин 11983
зови@@ 11977
inae 11976
ot@@ 11975
лицен@@ 11975
целя@@ 11970
дзу@@ 11965
консервато@@ 11963
рд 11961
бера 11959
гини 11957
велосипе@@ 11952
бара@@ 11947
фона 11946
Себа@@ 11943
певец 11943
кор 11942
Индоне@@ 11937
Импе@@ 11930
кафед@@ 11922
авари@@ 11917
лосо@@ 11916
ам 11915
НО@@ 11911
мах@@ 11906
прозра@@ 11904
Фили@@ 11903
Андро@@ 11900
Пир@@ 11900
марка 11897
Апосто@@ 11895
1838 11893
De@@ 11893
импер@@ 11893
зем 11891
ово@@ 11890
входи@@ 11887
Ун@@ 11886
набе@@ 11886
Лондо@@ 11885
склю@@ 11872
отсе@@ 11870
прогно@@ 11868
клон@@ 11867
понятия 11867
анато@@ 11866
проло@@ 11859
кой@@ 11857
дочер@@ 11856
цен 11846
зака@@ 11839
Алба@@ 11836
случи@@ 11820
студент@@ 11814
соции@@ 11812
чер 11805
РО@@ 11804
u@@ 11792
Швар@@ 11792
Гил@@ 11790
Моск@@ 11783
гент@@ 11778
имену@@ 11777
Еванге@@ 11771
Знач@@ 11770
справ@@ 11768
НК 11765
увен@@ 11762
НАТО 11761
Монте@@ 11760
1836 11759
благород@@ 11744
публику@@ 11741
повтор@@ 11740
почет@@ 11737
уре@@ 11732
Бен 11731
Станислав 11731
My 11730
is@@ 11729
Лам@@ 11729
СТ@@ 11729
Вра@@ 11715
дже 11715
лага 11714
дало 11704
скус@@ 11701
льо 11691
шо 11690
вул@@ 11687
склон@@ 11684
фабрика 11682
мета 11681
ta 11676
гата 11675
дюй@@ 11671
St@@ 11660
лак 11659
цент 11656
Капита@@ 11653
форм@@ 11652
доров 11645
ЦСКА 11642
Кава@@ 11637
деле@@ 11629
учения 11625
порти@@ 11624
1813 11623
укрепления 11621
Прак@@ 11619
величина 11617
лим@@ 11611
зывы 11609
неправи@@ 11609
племен@@ 11608
кен 11607
фик@@ 11603
западно@@ 11600
хирурги@@ 11600
ционер@@ 11596
1846 11595
Католиче@@ 11592
преди@@ 11590
оттен@@ 11589
таря 11584
Вероятно 11580
анг@@ 11580
албан@@ 11574
эксплу@@ 11571
Япо@@ 11562
уте@@ 11560
трудно 11556
нология 11551
Аг@@ 11550
Амери@@ 11550
Перио@@ 11545
Сон@@ 11544
Юлия 11537
декла@@ 11535
450 11533
образа 11533
Григорь@@ 11524
индуст@@ 11522
познакоми@@ 11522
половина 11516
ере@@ 11514
дели 11505
мур 11501
обработ@@ 11501
нена@@ 11496
Арсе@@ 11492
феода@@ 11489
отре@@ 11486
архипе@@ 11481
ллю@@ 11480
Секре@@ 11476
зян@@ 11469
увеличение 11469
ядра 11468
венти@@ 11463
прими@@ 11463
кли 11458
лита 11454
ad@@ 11450
бул@@ 11445
юк 11445
била 11438
различия 11437
Браун 11423
ститу@@ 11418
явно 11411
Ка 11407
фан 11407
чат 11406
тр@@ 11405
Подоб@@ 11396
шар@@ 11396
Фре@@ 11391
1851 11388
En@@ 11386
арки 11382
чета 11375
зана 11371
уи 11369
богослу@@ 11368
es@@ 11366
Уин@@ 11366
Европе@@ 11364
Яна 11364
Клуб 11362
ферен@@ 11361
Кве@@ 11352
хт 11350
Рах@@ 11349
38@@ 11348
пира@@ 11347
1802 11346
Валентин 11346
лем@@ 11345
гр 11344
Белару@@ 11338
1839 11337
бей 11336
Вера 11321
тивен 11320
стот@@ 11319
убил 11317
Еже@@ 11312
СК 11312
основание 11309
пое@@ 11309
режиссё@@ 11306
des 11303
дири@@ 11303
пше@@ 11297
Корпу@@ 11296
впечатление 11295
сков@@ 11289
пушки 11282
op@@ 11278
соли 11278
депре@@ 11277
изви@@ 11268
заба@@ 11263
135 11259
лине 11256
сар 11255
лечение 11254
1847 11253
хар 11253
Социалистиче@@ 11252
гала 11251
топ 11250
1837 11247
поедин@@ 11247
шов 11243
бани 11242
Шек@@ 11237
пс 11236
менно 11232
нев 11231
Плат@@ 11230
доцент 11229
проник@@ 11229
т.@@ 11228
шков 11227
кожи 11225
Мемо@@ 11222
Произве@@ 11219
1828 11217
спир@@ 11217
Рю@@ 11211
хромо@@ 11211
Камчат@@ 11210
ниг@@ 11210
сценарист 11208
мут 11206
спер@@ 11206
19,@@ 11204
август 11203
Азиат@@ 11202
демонстра@@ 11202
ази@@ 11200
нати@@ 11197
фта 11194
дебют 11193
ред 11193
юрис@@ 11193
Преображен@@ 11192
Th@@ 11191
Торонто 11186
компен@@ 11186
Грей@@ 11181
дио@@ 11181
драв@@ 11181
СП 11178
кантон 11176
дера@@ 11174
драматур@@ 11173
.com 11172
Худо@@ 11170
андар@@ 11169
Жор@@ 11161
Сера@@ 11160
поток 11160
бон 11156
имущество 11152
ор 11152
Опреде@@ 11150
Нови@@ 11144
Проце@@ 11140
Водо@@ 11135
кресть@@ 11133
полиция 11133
гара 11130
102 11129
Жер@@ 11129
ите 11127
Епи@@ 11125
дай@@ 11125
декс 11125
энер@@ 11123
29@@ 11119
блока@@ 11113
сибир@@ 11113
нормати@@ 11104
Тбилиси 11103
квартира 11102
СО 11100
сал@@ 11100
жити@@ 11096
залив 11096
Роман@@ 11094
р. 11091
ограничения 11090
Сици@@ 11089
Ще@@ 11087
Шарло@@ 11083
СО@@ 11073
Чан@@ 11070
ел 11070
id@@ 11063
столько 11063
разногла@@ 11062
Проис@@ 11061
случаи 11058
мора 11053
Car@@ 11051
хард 11050
1826 11049
Ново 11048
драма 11047
Адми@@ 11045
1845 11044
така 11043
рет 11041
спешно 11040
Аф@@ 11034
карбо@@ 11033
бя 11028
Рек@@ 11026
пару@@ 11025
сина@@ 11022
Ту 11021
критика 11020
комбинат 11019
Ближай@@ 11015
плу@@ 11014
нор 11010
Франци@@ 11007
Адам 11002
Клин@@ 10998
подно@@ 10996
тет 10995
рания 10994
Герман 10991
сара@@ 10990
удара 10990
зел 10988
хоре@@ 10987
Порт 10982
ливо 10980
2.@@ 10976
уса@@ 10966
постра@@ 10964
вост 10957
дене 10955
Хру@@ 10954
AR@@ 10945
Коре@@ 10939
миниат@@ 10937
кос 10932
само 10931
поправ@@ 10930
Библиоте@@ 10928
подписан 10920
подходя@@ 10918
грав@@ 10917
бий@@ 10916
нарушение 10911
гиня 10910
кус 10909
разгра@@ 10909
матери@@ 10907
Анри 10906
Право@@ 10906
Рам@@ 10905
серь@@ 10903
Виде@@ 10902
ландшаф@@ 10902
цито@@ 10902
академия 10900
Соф@@ 10895
возвы@@ 10892
зара@@ 10889
зян 10882
фено@@ 10882
платформа 10879
лито@@ 10877
115 10875
зас 10875
реаги@@ 10872
партн@@ 10865
сово 10865
ценности 10863
пада 10854
хотели 10852
установка 10849
Орден 10845
шав@@ 10843
цит@@ 10842
зачислен 10840
сприн@@ 10834
анге@@ 10833
най 10832
барон 10830
ata 10829
графство 10829
жина 10829
жим 10826
изделия 10826
Фрей@@ 10824
редакти@@ 10824
г.@@ 10819
разработка 10812
v 10810
Каспи@@ 10806
пите@@ 10806
кология 10799
антрополо@@ 10798
литература 10794
реду@@ 10792
животно@@ 10786
вмест@@ 10784
траги@@ 10781
Щер@@ 10779
провинци@@ 10779
проли@@ 10778
Юн@@ 10773
стипен@@ 10771
Вор@@ 10769
Мани@@ 10765
сет 10763
Санд@@ 10760
пера@@ 10758
туризма 10752
Геор@@ 10749
Арно@@ 10747
чев@@ 10746
коре@@ 10743
1844 10738
Air 10737
сборника 10736
Оцен@@ 10733
хер@@ 10726
Мило@@ 10724
турне 10718
городи@@ 10710
фо 10707
орто@@ 10700
Генри@@ 10698
Ани@@ 10694
Австро 10687
гражданин 10685
Хат@@ 10683
вино 10681
Известен 10677
интересо@@ 10677
километра 10677
престо@@ 10672
осад@@ 10671
соревнова@@ 10661
Рак@@ 10660
w 10656
Сат@@ 10651
публикан@@ 10651
Южно 10643
лето 10640
лна 10639
порт@@ 10639
тово 10628
док@@ 10623
модели@@ 10622
сур@@ 10618
Лука@@ 10611
зрение 10611
регу@@ 10610
1835 10609
1796 10606
ers 10605
Ени@@ 10604
ina 10603
шила 10599
дизайн 10598
освобождение 10597
ana 10581
ap@@ 10579
07.@@ 10578
фред 10574
Адри@@ 10573
Су 10572
тя 10572
рое 10563
Mon@@ 10562
остан@@ 10561
Основан 10557
кура@@ 10551
св@@ 10546
it 10544
лум@@ 10544
лит 10536
│ 10536
маро@@ 10533
проблема 10531
oc@@ 10529
комендан@@ 10529
тетра@@ 10526
Перси@@ 10525
нца 10525
тания 10524
АН@@ 10520
адмирал 10516
Ца@@ 10515
футбол 10512
ch 10509
Крис 10509
АП@@ 10506
вулка@@ 10501
соно@@ 10498
аф@@ 10497
рие 10496
минист@@ 10489
ation 10487
сну@@ 10486
надле@@ 10485
спира@@ 10485
бай 10484
ледо@@ 10484
Родо@@ 10481
мура 10481
Брен@@ 10469
1806 10468
1832 10465
Австралия 10464
яйца 10464
звук 10460
Лек@@ 10455
пави@@ 10454
видеокли@@ 10453
марки@@ 10453
грар@@ 10452
1200 10446
равнове@@ 10446
Шен@@ 10442
Почти 10440
лков 10440
1825 10436
20,@@ 10436
шеви@@ 10435
отды@@ 10433
ПС 10431
евро@@ 10431
Родри@@ 10428
патру@@ 10426
дем 10422
06.@@ 10418
Плани@@ 10416
кви@@ 10416
орна@@ 10414
тно@@ 10414
архитек@@ 10411
отстра@@ 10411
Хали@@ 10408
Тя@@ 10406
РНК 10401
Хил@@ 10399
тали@@ 10399
1815 10389
сла 10382
откро@@ 10379
Леон 10374
Тихоокеан@@ 10358
ринга 10356
Qu@@ 10351
Co@@ 10350
Ex@@ 10349
мем@@ 10349
Благове@@ 10345
таты 10344
стие 10343
Две 10336
дента 10332
1817 10326
трево@@ 10325
Мори@@ 10324
кафе 10321
риз@@ 10319
Скоро@@ 10313
Кау@@ 10312
Бог 10310
слабо 10310
чест@@ 10309
Кристиан 10308
os 10306
арт 10306
педаго@@ 10303
извле@@ 10302
Законодате@@ 10301
поколение 10299
осуще@@ 10296
фора 10285
чети 10282
орде@@ 10276
104 10266
бус 10265
Август 10264
толо@@ 10261
1841 10259
Ниже@@ 10257
премь@@ 10257
Египет 10256
полови@@ 10256
зания 10255
220 10253
въ@@ 10253
записан 10252
опо@@ 10250
ph@@ 10248
Мали@@ 10248
Франси@@ 10247
гломе@@ 10243
ора@@ 10241
разбира@@ 10235
скал@@ 10231
am@@ 10224
залож@@ 10224
рид 10224
способен 10220
изобретате@@ 10219
приори@@ 10216
проби@@ 10207
зора 10201
рота 10194
зя 10192
гот@@ 10189
атаку@@ 10188
09.@@ 10182
дино 10179
прости@@ 10174
22@@ 10167
04.@@ 10166
дово@@ 10163
ели 10156
Жанейро 10155
рила 10153
цента 10148
шан 10147
1810 10146
стани@@ 10146
ние@@ 10144
одо@@ 10142
АП 10141
строена 10139
физ@@ 10139
чело@@ 10138
шахмати@@ 10137
лай 10136
Скан@@ 10129
7,5 10128
профессо@@ 10126
і 10125
мемо@@ 10121
In 10120
тизма 10120
Турни@@ 10111
Вед@@ 10110
пирами@@ 10105
1843 10101
фунда@@ 10100
Ордена 10097
It 10093
затруд@@ 10093
султана 10087
Стюарт 10085
душно 10083
Black 10079
мл@@ 10079
1833 10077
Партия 10077
Пробле@@ 10076
Цве@@ 10073
кологи@@ 10072
Гин@@ 10071
имение 10070
хай 10066
1821 10065
недвижи@@ 10063
ожесто@@ 10061
Пей@@ 10059
чна 10052
ремо@@ 10047
сирий@@ 10047
Испан@@ 10045
Берн@@ 10044
Владислав 10044
чувства 10044
1805 10041
Над 10040
Аз@@ 10038
числения 10034
района@@ 10030
княжество 10029
сму@@ 10029
стояние 10027
льм 10016
осново@@ 10015
трене@@ 10015
Война 10014
ve 10013
пци@@ 10012
ова@@ 10010
ti@@ 10006
соз@@ 10005
Диего 10003
Стен@@ 10003
Защ@@ 10001
108 10000
бета 9998
спекти@@ 9996
або@@ 9993
109 9990
лодка 9990
мунд 9988
справедливо@@ 9986
Коста 9985
инструк@@ 9985
престола 9985
Волга 9984
пр@@ 9983
ик 9981
Жана 9978
парта@@ 9978
анар@@ 9975
изоли@@ 9975
обмен@@ 9975
разре@@ 9975
дара 9972
восточ@@ 9971
пости@@ 9971
Un@@ 9965
Георг 9965
Управ@@ 9957
заведения 9956
АТО 9954
Си 9954
консер@@ 9954
цикло@@ 9947
цити@@ 9942
АС 9932
реконструи@@ 9924
Ая@@ 9922
Клу@@ 9922
леп@@ 9917
нелега@@ 9915
яну@@ 9915
Рат@@ 9914
ur@@ 9912
конвен@@ 9911
церемо@@ 9907
широко@@ 9900
свободно 9899
Каби@@ 9897
геоло@@ 9894
акт 9893
спря@@ 9893
климат 9892
Цу@@ 9884
хали@@ 9884
Над@@ 9876
Чо@@ 9874
Дя@@ 9873
нодорож@@ 9872
доктор@@ 9870
Мора@@ 9869
ini 9868
бари@@ 9866
вани 9865
язви@@ 9865
Орле@@ 9864
York 9858
кур 9856
цизма 9852
напит@@ 9848
08.@@ 9845
гство 9837
Вави@@ 9833
оконча@@ 9827
Live 9823
Веро@@ 9823
Нер@@ 9820
площа@@ 9810
Зеле@@ 9808
градо@@ 9805
пия 9803
Бло@@ 9798
man 9795
Латин@@ 9794
друго@@ 9792
103 9790
жат 9789
насо@@ 9781
раке@@ 9781
стато@@ 9773
зун@@ 9772
ЮНЕСКО 9771
вражде@@ 9769
мос 9766
военноплен@@ 9763
Нидерлан@@ 9761
обща@@ 9757
Венг@@ 9756
ментар@@ 9750
уе@@ 9749
сио 9745
навига@@ 9744
акция 9738
ралле@@ 9734
Стефан 9732
попу@@ 9727
дром 9724
ma 9721
входа 9721
1795 9717
мей 9717
Бот@@ 9714
норве@@ 9714
34@@ 9713
упраж@@ 9712
1807 9708
Монре@@ 9697
ate 9695
th@@ 9692
лень@@ 9685
Специали@@ 9684
Псков@@ 9683
шест@@ 9683
колеп@@ 9678
1809 9677
ad 9675
Джейн 9674
Макс 9674
ято 9674
фору@@ 9669
Аля@@ 9666
стадиона 9660
пнев@@ 9659
RA@@ 9655
122 9646
прекрат@@ 9646
ат 9641
норвеж@@ 9637
псевдо@@ 9637
написан 9636
компак@@ 9631
45@@ 9628
Порт@@ 9626
Блан@@ 9624
All 9623
37@@ 9622
рено 9622
бол 9621
плате@@ 9620
стоян@@ 9620
алге@@ 9616
жило 9615
Франц 9612
106 9611
климата 9611
Мун@@ 9598
вонача@@ 9597
сигнал 9596
Надежда 9590
ним@@ 9587
отчасти 9587
танк 9585
герои 9584
рица 9581
Президен@@ 9578
бло 9578
носо@@ 9573
Педро 9572
Карл@@ 9569
05.@@ 9568
Петер@@ 9565
привет@@ 9562
Рад@@ 9559
шево 9558
ie 9556
психиат@@ 9554
112 9543
Тим@@ 9540
отка@@ 9534
Дро@@ 9532
надписи 9529
оператор 9516
матизи@@ 9512
Br@@ 9510
Ан 9510
1811 9507
сна@@ 9507
арда 9505
оценка 9500
гова 9499
югослав@@ 9497
автомобили 9496
лиса 9494
PlayStation 9477
направил 9474
гина@@ 9473
ници@@ 9473
Джули@@ 9463
128 9462
Чудо@@ 9461
швей@@ 9461
one 9458
канц@@ 9458
показатели 9457
перифе@@ 9453
Life 9449
окла@@ 9447
onlyinclude 9440
сорев@@ 9440
популяри@@ 9439
зага@@ 9436
лур@@ 9435
36@@ 9432
позити@@ 9430
цина 9426
American 9424
000@@ 9423
Сало@@ 9423
има@@ 9416
риат 9409
сни 9402
Индия 9400
модификации 9399
форт 9399
st@@ 9397
вло@@ 9389
мас 9387
Le@@ 9384
Квин@@ 9384
1,3 9382
1827 9381
регла@@ 9381
Домини@@ 9380
лие 9378
Поме@@ 9371
вай 9371
ensis 9369
Копен@@ 9369
na 9367
107 9364
вал@@ 9362
рополи@@ 9352
Чин@@ 9346
чева 9343
Великобрита@@ 9342
хер 9342
Роу@@ 9328
км2 9327
несота 9325
плато 9324
берто 9320
Живо@@ 9318
Интернет 9312
Атлети@@ 9304
Обе@@ 9300
характеристика 9298
метрах 9297
голове 9294
кве@@ 9292
Играл 9289
разоча@@ 9288
Вул@@ 9285
Проте@@ 9279
цев@@ 9277
ter 9267
Октя@@ 9263
145 9262
пада@@ 9261
подобно 9260
Либе@@ 9257
покой@@ 9253
джу@@ 9249
Развитие 9246
факульте@@ 9246
Туни@@ 9244
рико 9244
ректор 9242
филосо@@ 9240
Гале@@ 9238
молеку@@ 9236
пох@@ 9232
очевидно 9231
Хри@@ 9228
компро@@ 9228
инг 9221
1816 9220
Муста@@ 9215
лабора@@ 9211
дум 9209
что@@ 9207
BBC 9206
Ди 9206
употре@@ 9206
1808 9205
ляне 9204
Отно@@ 9202
автобиографи@@ 9199
1793 9193
Йохан@@ 9191
вале@@ 9190
Time 9187
Франческо 9184
публика 9183
кото@@ 9181
ФА 9176
Cor@@ 9174
подготовка 9172
Вис@@ 9170
писец 9169
биз@@ 9167
Люб@@ 9166
трофе@@ 9166
подробно 9165
детекти@@ 9161
цио 9161
насе@@ 9160
диктат@@ 9158
33@@ 9156
Di@@ 9154
da 9150
интегри@@ 9150
Белору@@ 9147
убед@@ 9147
und 9143
океан@@ 9141
пови@@ 9140
Франко 9137
Праз@@ 9130
ьор@@ 9129
Лау@@ 9127
жай@@ 9124
ваку@@ 9123
защита 9123
Тури@@ 9121
интен@@ 9121
никнове@@ 9120
наименова@@ 9117
увели@@ 9117
360 9116
Боли@@ 9112
отрас@@ 9111
Архитектура 9109
администрация 9107
1,6 9105
Конструкция 9102
Лод@@ 9094
1824 9093
Австрия 9093
Лип@@ 9089
YouTube 9086
Джей 9085
завеща@@ 9085
СУ 9084
Мадри@@ 9083
зена 9083
большин@@ 9081
Гуан@@ 9078
льти@@ 9078
защити@@ 9076
скоп@@ 9074
Сел@@ 9069
Марина 9068
подоби@@ 9067
Am@@ 9057
сценария 9051
цка 9050
монумента@@ 9049
Августа 9048
Rock 9046
парамет@@ 9044
спор 9042
фек@@ 9040
пиро@@ 9037
4.@@ 9034
→ 9033
Корея 9028
средство 9025
Sp@@ 9020
лее 9020
скоро 9014
ето 9006
рест@@ 9005
иконо@@ 8996
1792 8993
варианта 8991
ВП 8986
Marvel 8985
проро@@ 8985
отча@@ 8983
чувство 8983
пала 8978
сфера 8977
ксе@@ 8974
Фай@@ 8973
хор 8973
гас 8972
111 8968
пап@@ 8963
паке@@ 8961
бана 8960
храбро@@ 8959
Кост@@ 8957
КА 8955
свое@@ 8955
48@@ 8951
5,5 8948
Сме@@ 8938
Мех@@ 8933
кун@@ 8933
Пай@@ 8931
подполковник 8930
нара@@ 8929
игу@@ 8928
потока 8927
нака@@ 8925
раса 8921
Майк 8919
документ 8911
уа 8910
сержан@@ 8909
Ной@@ 8905
3.@@ 8901
em@@ 8901
гравита@@ 8900
AM@@ 8899
Mar@@ 8896
звука 8894
трапе@@ 8891
ДР 8889
лане 8888
кине@@ 8886
Str@@ 8881
Добро@@ 8879
абсолютно 8873
тант 8868
Люби@@ 8867
бр 8865
дисцип@@ 8864
стота 8863
100@@ 8854
Стран@@ 8853
носец 8844
рер 8844
сматри@@ 8843
фина 8843
аэрод@@ 8837
организма 8837
le@@ 8831
цер 8829
чисто 8827
прие@@ 8826
порно@@ 8824
60@@ 8821
Bo@@ 8820
Саксо@@ 8819
евреи 8819
Алжи@@ 8818
Ино@@ 8816
li@@ 8815
Северо@@ 8815
ul@@ 8806
имено@@ 8806
Принци@@ 8805
Юри@@ 8802
жия 8797
блей@@ 8795
преки 8792
Сва@@ 8791
Чарли 8789
вход@@ 8789
концерта 8789
рент@@ 8787
1803 8785
240 8785
Карлос 8785
мигра@@ 8785
повторно 8784
24,@@ 8781
1823 8778
иро@@ 8776
ed@@ 8770
обособ@@ 8768
монт 8761
PC 8757
вариа@@ 8754
1790 8751
бат 8750
диско@@ 8746
маг@@ 8745
поги@@ 8744
Анастасия 8739
анто@@ 8736
шир@@ 8734
Америка 8729
03.@@ 8725
Хан 8723
Еле@@ 8722
ял 8722
брь@@ 8718
указ 8718
разделена 8715
ka 8711
оре@@ 8709
важно 8707
близко 8698
ec@@ 8690
свети@@ 8690
перееха@@ 8685
152 8675
дизайна 8672
by 8671
Бед@@ 8671
рэн@@ 8671
Рон@@ 8669
Маргарет 8668
сбург 8668
Граф 8666
едо@@ 8665
Малай@@ 8664
Марко 8663
Зиг@@ 8662
юрист 8661
age 8659
яй@@ 8659
постановки 8657
племена 8647
разреша@@ 8647
il@@ 8646
сус 8640
HD 8636
фган@@ 8635
трудности 8632
изби@@ 8631
Mo@@ 8629
Ква@@ 8628
Опера@@ 8628
25,@@ 8627
опера 8621
София 8620
санти@@ 8618
1818 8616
Антио@@ 8614
1797 8611
Google 8610
1822 8609
заселе@@ 8607
царство 8606
Стри@@ 8603
Ся@@ 8603
обит@@ 8602
останки 8600
Архите@@ 8597
1,8 8590
неиз@@ 8589
образец 8587
ждали 8586
революцио@@ 8584
Независи@@ 8583
1784 8582
работо@@ 8581
дово 8578
ine 8577
противоречи@@ 8577
героин@@ 8576
покло@@ 8575
Поч@@ 8572
накло@@ 8567
тюрк@@ 8566
гт 8565
Плу@@ 8564
ref 8563
ското@@ 8560
1819 8559
заведение 8554
нст 8551
кис 8546
взрос@@ 8544
геометри@@ 8543
Урал 8539
принуд@@ 8538
внезапно 8537
менена 8537
философ 8537
1780 8536
ученик 8535
кара 8530
Гун@@ 8529
дете@@ 8527
пояс 8525
куку@@ 8521
Попу@@ 8520
лём 8520
нау 8520
” 8518
Карло 8517
127 8515
Колумбия 8515
Жак 8513
били@@ 8513
насти@@ 8513
публики 8511
Пото@@ 8510
Авра@@ 8506
технология 8497
114 8486
Форт 8484
Пала@@ 8483
se 8476
вход 8474
Ы@@ 8473
рите 8471
крови@@ 8465
Нобе@@ 8464
1801 8461
мил@@ 8461
рино 8461
ниста 8458
ES@@ 8453
ов 8453
750 8446
трети 8440
120@@ 8435
AT@@ 8435
Фердина@@ 8435
сит@@ 8435
Стив 8432
Кит@@ 8430
пад 8429
равнин@@ 8428
1,4 8427
пота@@ 8427
Департа@@ 8425
птица 8422
венство 8419
Par@@ 8418
Брат 8418
удостоена 8415
унд@@ 8411
ир 8407
депу@@ 8403
сив 8403
кода 8401
баси@@ 8393
Петров 8392
опла@@ 8389
Локомотив 8388
туберку@@ 8385
стор 8380
дале@@ 8375
концепция 8369
Норман@@ 8366
Фреде@@ 8366
приш@@ 8363
чак 8361
пил 8360
1804 8353
Corporation 8350
около@@ 8347
хри@@ 8344
шос@@ 8344
адапти@@ 8342
стери@@ 8342
брони@@ 8341
align 8336
Реги@@ 8336
еро 8334
поли 8332
зани@@ 8329
забе@@ 8328
термина 8327
COVID 8324
ea 8323
MTV 8318
Ели@@ 8318
чрез@@ 8312
Проек@@ 8310
Швеция 8309
разрушен 8309
Участи@@ 8305
мала 8303
Дур@@ 8301
продукт 8296
Тур 8295
190 8292
Африкан@@ 8292
револю@@ 8292
гражданство 8281
Постро@@ 8280
макро@@ 8274
философи@@ 8274
глю@@ 8273
гарнизон 8271
соби@@ 8271
фирма 8271
цилиндри@@ 8264
кономиче@@ 8260
Рене 8259
триум@@ 8258
тос 8256
116 8250
помещение 8244
сал 8244
Азербайджан 8243
непо@@ 8243
un@@ 8240
Турция 8238
полуфинал 8237
124 8233
Аристо@@ 8229
лива 8228
археоло@@ 8226
пропорциона@@ 8225
дума 8223
Денис 8220
дискри@@ 8217
Швейцария 8216
CO@@ 8215
Или@@ 8214
Иванова 8211
дун 8207
Хара@@ 8204
рка 8201
монархи@@ 8200
отте@@ 8198
зате@@ 8193
комедия 8192
te 8188
лоя@@ 8188
служат 8185
нападение 8170
пей@@ 8168
сберг 8168
некро@@ 8166
Патрик 8164
Club 8162
Основа@@ 8153
Фредерик 8150
гра 8146
39@@ 8144
Кораб@@ 8144
приложения 8138
Много 8137
апо@@ 8137
Be@@ 8135
Шот@@ 8133
1799 8130
новение 8127
онер 8125
гиз@@ 8124
довате@@ 8124
Гай 8119
гане 8117
нинг 8113
ьон 8107
Настоя@@ 8105
Уо@@ 8105
Люксем@@ 8103
прияте@@ 8102
нев@@ 8098
люд@@ 8097
гда 8096
Боро@@ 8092
Вли@@ 8092
Радио 8092
1782 8091
126 8088
наказание 8088
двигатели 8083
ежедне@@ 8081
17@@ 8080
Прод@@ 8078
уха@@ 8078
наше@@ 8077
индо@@ 8076
равен 8076
резуль@@ 8073
3D 8070
идентифици@@ 8067
тни 8066
казыва@@ 8065
венециан@@ 8063
сцена 8060
писе@@ 8059
Маг@@ 8057
султан 8054
коме@@ 8052
глас 8051
Se@@ 8049
революция 8049
DC 8038
губерна@@ 8038
с. 8038
щаяся 8038
j 8034
мото 8029
Каролина 8028
Пси@@ 8024
Леген@@ 8021
произведен 8020
Apple 8017
промо@@ 8016
01.@@ 8014
{ 8011
дама 8011
ag@@ 8009
Флорида 8009
Хиро@@ 8007
113 8006
Иран 8003
Конго 8000
конден@@ 7999
Боле@@ 7996
эста@@ 7995
Иск@@ 7990
семит@@ 7990
Уот@@ 7989
5.@@ 7988
дипломат 7986
подчинение 7986
лип@@ 7985
Би 7979
Col@@ 7976
Тун@@ 7974
псевдоним 7973
рую 7970
ствола 7968
риск 7967
непре@@ 7965
Дат@@ 7963
компонент 7962
противник 7958
сек 7958
мит 7956
1794 7954
мито@@ 7953
Попов 7952
гени@@ 7949
CA@@ 7947
1798 7946
Studios 7938
параз@@ 7935
Комплек@@ 7934
мала@@ 7932
117 7931
Сара 7926
инструмент 7923
стеро@@ 7916
невро@@ 7914
нят 7912
пано@@ 7912
реми@@ 7907
02.@@ 7900
Airlines 7899
цита@@ 7896
смя@@ 7893
Сели@@ 7888
Зам@@ 7887
деятель@@ 7886
Фернан@@ 7885
Милан 7879
предате@@ 7879
IS@@ 7877
Серия 7874
ity 7873
аранжи@@ 7870
англича@@ 7869
re@@ 7864
день@@ 7861
самы@@ 7860
Те 7859
архе@@ 7859
di 7856
формат 7855
практика 7853
жанр 7849
Проти@@ 7845
стре 7844
кали 7843
проб@@ 7843
1.0@@ 7840
Red 7839
литур@@ 7839
114@@ 7836
храните@@ 7833
призё@@ 7831
6,5 7829
климати@@ 7828
Моно@@ 7816
155 7815
Man 7814
Калифорни@@ 7814
гвар@@ 7814
Вати@@ 7812
po@@ 7806
тома 7805
прони@@ 7804
ro@@ 7797
мба 7797
Лота@@ 7793
дока@@ 7790
масло 7790
характерно 7789
Nintendo 7786
случая 7783
рад 7776
шни 7776
флек@@ 7773
справед@@ 7771
RE@@ 7768
68@@ 7766
26,@@ 7764
негати@@ 7762
реакция 7753
ic 7752
Ски@@ 7749
1783 7745
Прото@@ 7745
Рона@@ 7743
23,@@ 7742
ес 7740
словен@@ 7740
Черни@@ 7739
22,@@ 7737
йно 7737
Араб@@ 7735
публично 7735
550 7734
керами@@ 7734
с.@@ 7733
27,@@ 7731
230 7729
ИК 7722
55@@ 7721
Pr@@ 7721
Open 7720
Средиземно@@ 7719
1600 7716
Боб 7714
Синга@@ 7714
нус 7714
освобожда@@ 7712
Леонар@@ 7707
преодо@@ 7706
рёх@@ 7702
компи@@ 7701
lo@@ 7698
Киргиз@@ 7697
епископ@@ 7694
No 7689
Хон@@ 7684
WWE 7683
65@@ 7682
7.@@ 7682
Тибе@@ 7678
мий 7676
хора 7676
to@@ 7672
Кате@@ 7659
МиГ 7659
казал 7659
Boeing 7658
112@@ 7657
Производ@@ 7657
тайно 7656
Церков@@ 7654
210 7649
Sony 7649
Густав 7647
tr@@ 7646
пена 7646
гария 7641
дубли@@ 7638
119@@ 7635
Pro@@ 7634
потенциал 7634
нт 7628
внук 7622
пал@@ 7608
Нат@@ 7605
124@@ 7600
бул 7598
биография 7597
Top 7587
бели 7585
Ac@@ 7584
Com@@ 7584
70@@ 7578
Алекс 7577
Ro@@ 7576
Фести@@ 7576
лимпи@@ 7574
подар@@ 7574
предмет 7574
приказ@@ 7574
Вел@@ 7571
Зав@@ 7570
вза@@ 7566
Бургун@@ 7564
Европа 7561
Обер@@ 7561
4000 7557
схема 7557
ада 7556
джо 7556
Кинг 7553
СС@@ 7549
примити@@ 7547
рее@@ 7545
мь@@ 7540
пилот 7537
Административно 7536
Позна@@ 7536
дея 7536
121 7535
123 7535
СМ@@ 7535
мил 7528
формация 7512
ганы 7511
еванге@@ 7508
0.@@ 7507
117@@ 7507
висо@@ 7502
пожар 7501
РБ 7498
Реда@@ 7498
столица 7496
атия 7495
Анд@@ 7494
· 7493
Games 7492
комбини@@ 7492
спонсо@@ 7492
Бразилия 7488
мане 7483
ab@@ 7479
чести 7479
тес 7476
em 7467
poem 7466
Фир@@ 7466
Пери@@ 7465
Анаста@@ 7463
дворцо@@ 7463
джин@@ 7456
вика@@ 7454
процеду@@ 7454
Linux 7452
нея 7452
абстрак@@ 7447
46@@ 7446
проду@@ 7446
македон@@ 7442
Award 7441
Дипло@@ 7440
разнообрази@@ 7440
Анге@@ 7437
Бенеди@@ 7437
Tour 7434
конфли@@ 7430
кипа@@ 7426
прину@@ 7426
Характер@@ 7425
28,@@ 7424
USD 7418
кабинет 7418
радиа@@ 7417
Кот 7416
320 7414
Мек@@ 7410
ядро 7409
co@@ 7408
Марга@@ 7405
крепо@@ 7403
47@@ 7400
IM@@ 7397
MA 7397
ляна 7389
доктри@@ 7388
Сената 7385
For@@ 7381
дружества 7377
Й 7376
Нил 7376
церемония 7376
ук 7374
Кара 7373
кампания 7370
клин 7368
Касте@@ 7365
Bank 7360
0,1 7359
избрана 7357
сили@@ 7356
усе@@ 7349
страх 7348
ДС 7346
окс 7340
скуль@@ 7339
жда 7338
подкреп@@ 7337
гимнасти@@ 7329
Бона@@ 7324
варя 7324
держит 7323
ориен@@ 7304
гава 7303
HMS 7295
манипу@@ 7294
паша 7294
Академия 7292
Украи@@ 7292
1770 7289
di@@ 7289
Media 7288
Йозеф 7277
понен@@ 7277
no 7276
фара@@ 7276
Ниге@@ 7274
ella 7273
мега@@ 7273
комен@@ 7269
1,7 7268
Рейн 7268
21,@@ 7266
116@@ 7265
пур 7265
Клау@@ 7261
Азербай@@ 7256
услу@@ 7251
Star 7248
кажд@@ 7248
Уз@@ 7246
дос 7246
участи@@ 7246
Бати@@ 7243
кратно 7241
мимо 7239
Нюр@@ 7233
im@@ 7230
Твор@@ 7229
Узбекистан 7226
физика 7222
йор@@ 7220
фонсо 7217
Мичи@@ 7211
2,4 7208
Маргарита 7208
ator 7203
Super 7199
Акаде@@ 7198
архив 7197
мец 7197
Rolling 7195
1789 7194
Фил@@ 7193
наби@@ 7193
Боло@@ 7189
Стю@@ 7188
взаимодействие 7182
Gr@@ 7181
наследство 7178
Дома@@ 7177
старт 7177
Шри 7175
рез 7174
Португа@@ 7173
Game 7169
нах@@ 7162
Петер 7159
li 7157
клад 7157
Хим@@ 7156
Radio 7155
махта 7155
Мара@@ 7149
Фол@@ 7147
ai 7144
оната 7142
1791 7133
тексти@@ 7132
Кларк 7129
Кавказ 7124
хет@@ 7124
18@@ 7123
Колорадо 7122
2,3 7121
фект 7120
154 7119
кава 7118
om 7112
ER@@ 7110
od@@ 7109
федерация 7108
Фернандо 7107
шно 7107
Филосо@@ 7103
фектив@@ 7100
конференция 7099
фолк 7099
Куз@@ 7097
линко@@ 7097
гости 7095
включен 7094
Хин@@ 7092
правосла@@ 7092
Ланд@@ 7090
Сце@@ 7090
Президент@@ 7086
хослова@@ 7084
вален@@ 7081
чени 7079
знаме@@ 7077
катего@@ 7077
1700 7076
Брази@@ 7075
йе@@ 7073
генери@@ 7070
кинс 7070
метео@@ 7070
Марио 7069
смар@@ 7069
лото 7066
гол@@ 7065
Тома 7064
175 7061
Стандар@@ 7060
лоу 7055
113@@ 7049
эксплуата@@ 7048
8.@@ 7034
Мике@@ 7033
Близ@@ 7031
теми 7030
площадка 7025
Лим@@ 7024
Te@@ 7013
Ой@@ 7011
Постепенно 7010
Диони@@ 7009
бн 7007
драматург 7007
Ил@@ 7006
118@@ 7003
118 6998
Башкорто@@ 6996
Дуна@@ 6995
Inter@@ 6989
кош@@ 6984
космонав@@ 6982
кав@@ 6979
гю@@ 6978
модифици@@ 6976
конку@@ 6974
метеоро@@ 6973
еги@@ 6972
неа@@ 6972
134 6971
44@@ 6971
1,1 6970
131 6970
жилищ@@ 6970
132 6968
Орен@@ 6968
Фердинанд 6967
селек@@ 6967
Lo@@ 6965
дли 6965
IP 6963
ter@@ 6962
между@@ 6960
Ахмед 6957
хайм 6957
De 6954
Балкан@@ 6951
Сене@@ 6950
Загре@@ 6948
зова@@ 6947
отбора 6946
награда 6943
Феликс 6935
погребе@@ 6933
1775 6932
жо 6932
Цари@@ 6927
монах 6922
флаг@@ 6922
исторически 6920
IN@@ 6915
Me@@ 6915
Джузе@@ 6913
Дре@@ 6913
Ов@@ 6912
дят 6911
Фило@@ 6910
us@@ 6909
кора 6909
Stone 6906
Без 6903
констан@@ 6902
Мав@@ 6900
Сатур@@ 6896
рани 6894
отраз@@ 6890
хозяйственный 6890
AC@@ 6888
смыс@@ 6888
положен 6886
ят@@ 6885
Трен@@ 6882
сман 6881
химик 6881
Мадрид 6880
á@@ 6875
традиция 6875
Доми@@ 6866
рог 6866
диана 6863
стихотворения 6853
поне@@ 6851
национал 6848
бий 6844
мону@@ 6843
океан 6840
City 6837
650 6831
AD@@ 6828
антро@@ 6827
гел@@ 6826
зиди@@ 6821
бод@@ 6820
фигура 6818
ir@@ 6815
чуж@@ 6812
Трини@@ 6807
тман 6804
контакт 6800
вёт 6798
og@@ 6796
тук 6796
si@@ 6795
Медицин@@ 6791
Реал 6790
News 6789
Le 6786
памя@@ 6786
id 6780
Изабе@@ 6778
165 6775
теше@@ 6774
ношение 6773
129 6768
СКА 6768
дад 6765
наимено@@ 6765
SP@@ 6757
вещество 6756
Бавария 6754
colspan 6753
Куин@@ 6751
Армения 6749
талант 6743
рум 6738
лорд 6737
Per@@ 6735
XX@@ 6734
Евге@@ 6733
ел@@ 6733
физик 6728
личане 6723
Хот@@ 6721
1774 6720
Спорт 6720
деля 6719
риал@@ 6717
тене 6711
0,3 6706
зап@@ 6705
писан 6698
тани 6698
заку@@ 6688
280 6678
ay 6673
вмести@@ 6670
Микро@@ 6669
ak 6661
Локо@@ 6658
мач@@ 6650
министерство 6650
вене@@ 6649
поди@@ 6644
1787 6643
29,@@ 6639
Ge@@ 6638
Операция 6633
ale 6630
Браун@@ 6628
EP 6627
трафи@@ 6620
IB@@ 6619
регистри@@ 6618
сектор 6618
ts 6615
ема 6614
нта 6612
Ака@@ 6610
Дрез@@ 6609
Освобо@@ 6605
Бил@@ 6592
внезап@@ 6592
ST@@ 6586
атака 6584
Запад 6582
фал@@ 6582
Пес@@ 6581
диалект 6581
середи@@ 6580
субтропи@@ 6574
0,2 6573
духа 6563
безо@@ 6560
Ску@@ 6559
полуостров 6559
небе@@ 6558
MS 6556
Теодор 6551
стена 6548
агент 6546
МС 6542
Шпи@@ 6539
хребет 6538
Blue 6537
фат 6537
лево 6533
CG 6526
Афри@@ 6519
Кристина 6516
царе@@ 6516
шаяся 6516
6.@@ 6512
2,2 6511
Андреа 6511
Маса@@ 6511
Челси 6509
бал 6504
Co 6503
Die 6503
El@@ 6502
SS 6499
ent 6499
отбор 6499
ance 6497
US@@ 6493
Радо@@ 6492
рожден@@ 6486
eb@@ 6479
Бава@@ 6479
Бруно 6478
National 6475
59@@ 6473
рион 6473
цари 6469
бара 6467
Наполеон 6463
Луиза 6457
многократно 6457
Disney 6456
чино 6456
маршал 6455
son 6453
дас 6453
стандарт 6450
8,5 6449
As@@ 6449
http 6445
сев 6445
мид 6438
Виз@@ 6434
Страс@@ 6434
Лига 6432
огла@@ 6424
133 6423
кота 6422
vi@@ 6421
43@@ 6420
Учи@@ 6414
yr@@ 6409
хок@@ 6405
ite 6403
кю@@ 6402
рида 6396
Размно@@ 6395
млн. 6393
гари 6391
вис@@ 6386
мово 6385
находки 6383
механика 6381
рим 6377
хим@@ 6374
жертво@@ 6372
Team 6371
no@@ 6369
гово 6364
снение 6363
Север 6362
Sol@@ 6361
Сталин 6358
маз@@ 6354
1788 6352
зв@@ 6352
циклопе@@ 6352
Анг@@ 6347
спуска@@ 6346
136 6343
Хау@@ 6341
144 6339
style 6337
Ману@@ 6335
atus 6331
етро 6330
Фланд@@ 6329
260 6325
НС 6310
крите@@ 6309
Ел@@ 6305
карта 6301
шру@@ 6301
мония 6299
Бун@@ 6296
Норве@@ 6296
бюджет 6292
ьяна 6285
Ne@@ 6284
мрамор@@ 6284
ВД 6282
фен 6282
3,6 6281
137 6274
тери 6272
ni@@ 6270
гей 6270
ov@@ 6269
бре 6264
Li@@ 6261
числен 6260
лаг 6258
поде@@ 6258
9.@@ 6257
~ 6255
1785 6252
ty 6247
буква 6246
141 6240
era 6223
Бата@@ 6223
зале@@ 6223
Фели@@ 6222
Азия 6220
наука 6220
Ver@@ 6219
ака@@ 6217
Оу@@ 6214
клон 6214
Лаза@@ 6208
гел 6206
ig@@ 6205
метрия 6203
Средизем@@ 6202
Аги@@ 6200
Mercedes 6194
вир@@ 6187
de@@ 6186
UK 6184
Маври@@ 6184
лек 6183
2500 6181
Is 6175
1764 6172
270 6170
um@@ 6170
тест 6162
119 6159
тори@@ 6157
рел 6154
ант 6149
380 6145
разу@@ 6142
ранг 6142
нея@@ 6140
est 6134
Ford 6131
58@@ 6128
печа@@ 6128
плавате@@ 6127
90@@ 6117
Night 6116
нав@@ 6116
MP@@ 6115
тексто@@ 6114
He@@ 6110
2,6 6102
CD@@ 6101
кабинета 6099
ri@@ 6094
AT 6091
рали 6086
Xbox 6083
0,6 6076
PGC 6071
приходи@@ 6069
q 6067
цате@@ 6066
Do@@ 6059
1781 6058
вечер 6056
Cl@@ 6053
Симон 6052
AC 6051
US 6049
проти@@ 6047
AN@@ 6044
Свер@@ 6040
лиза 6040
слад@@ 6039
Рав@@ 6034
Sch@@ 6031
Резу@@ 6027
Ню@@ 6020
Стади@@ 6020
SA 6018
Journal 6016
On 6016
секс 6012
201 6010
СР 6007
alis 6006
Помпе@@ 6005
Bl@@ 6004
Pol@@ 6002
201@@ 6000
вят 5997
заседание 5995
Заслу@@ 5994
110@@ 5992
Саксония 5991
минг 5988
коне 5981
www.@@ 5980
1778 5979
стя 5967
ens 5966
несколь@@ 5966
ak@@ 5964
зал@@ 5963
взи@@ 5962
амби@@ 5961
15.@@ 5958
Коле@@ 5955
Your 5954
барди@@ 5951
co 5947
дует 5945
лини 5945
Стеф@@ 5944
пораз@@ 5942
неожи@@ 5940
Sc@@ 5932
Окта@@ 5932
вее 5925
A.@@ 5924
School 5921
легенда 5920
убежище 5920
ne 5919
ико@@ 5915
Уст@@ 5912
автом@@ 5912
даго@@ 5910
гент 5908
BA 5907
ob@@ 5905
Pictures 5903
mo@@ 5899
водоизме@@ 5899
142 5897
Or@@ 5892
My@@ 5890
Сли@@ 5888
Формула 5888
149 5880
БА 5880
мерикан@@ 5880
династи@@ 5878
Гранд 5876
Хел@@ 5876
Антоний 5869
Pro 5865
тени 5864
un 5863
AG 5860
DE@@ 5857
2,7 5852
330 5847
формата 5847
56@@ 5842
др. 5840
два@@ 5837
оло 5837
шел@@ 5832
146 5831
гимна@@ 5829
Бундесли@@ 5828
опусто@@ 5827
49@@ 5826
приложение 5820
Като@@ 5817
Big 5814
Проду@@ 5812
Птоле@@ 5812
враг 5810
риана 5809
дал@@ 5801
Фрай@@ 5799
SS@@ 5798
53@@ 5793
Пример 5789
Sonic 5788
ā@@ 5785
АР 5784
Street 5783
вестник 5783
могила 5779
av@@ 5770
цело@@ 5769
Скор@@ 5765
концентри@@ 5762
ландия 5761
Mor@@ 5760
Монте 5759
местно 5758
лите 5754
are 5753
нак 5750
Региона@@ 5746
Бангладеш 5745
1300 5743
шанс 5743
зидиума 5742
Inc 5741
Френ@@ 5740
работи@@ 5737
Of 5734
Монако 5734
67@@ 5730
SE@@ 5726
14.@@ 5724
доклад 5723
Cre@@ 5721
Po@@ 5721
рисунки 5720
ing@@ 5719
138 5718
Dis@@ 5716
Tri@@ 5716
ant 5716
du 5714
изоби@@ 5712
тари 5712
3,2 5711
Bi@@ 5711
SO@@ 5706
консул 5704
Ph@@ 5703
стове 5701
оно@@ 5688
ti 5685
ut@@ 5685
пеще@@ 5683
Сури@@ 5680
эксп@@ 5678
Антаркти@@ 5677
успо@@ 5677
ото 5670
re 5668
148 5665
do 5662
AS 5661
икона 5660
визия 5659
итер 5658
县 5658
2,8 5657
политан@@ 5653
макси@@ 5652
0,8 5650
конту@@ 5646
рево 5646
кардинал 5645
1776 5644
затор 5637
Скон@@ 5635
139 5634
квартал 5628
1773 5622
пропор@@ 5620
разнообразие 5620
мери 5619
151 5617
русалим 5616
целу@@ 5616
UN@@ 5614
IC@@ 5606
Распростра@@ 5601
лива@@ 5599
ә@@ 5599
госу@@ 5598
старта 5597
спери@@ 5595
Fox 5589
замест@@ 5587
щера 5586
лента 5583
реформа 5580
хре@@ 5570
Кампа@@ 5566
мео 5566
даря 5561
20.@@ 5558
резерва 5558
пит 5557
РК@@ 5553
} 5550
Fe@@ 5547
Гене@@ 5547
‘ 5545
лько 5543
видят 5538
Bar@@ 5537
але@@ 5536
ler 5535
октя@@ 5533
FM 5531
Швей@@ 5526
н.@@ 5523
доволь@@ 5522
гау 5519
UFC 5517
кул 5517
иконоста@@ 5515
президен@@ 5513
патриарх 5511
147 5509
бог 5507
Best 5505
варе 5498
среда 5494
СВ 5491
als 5490
143 5488
FI@@ 5485
bi@@ 5485
лайн 5484
with 5483
ru@@ 5482
Бене@@ 5481
Норвегия 5476
ада@@ 5476
1772 5469
IC 5469
land 5469
пай@@ 5469
зра@@ 5454
карь@@ 5453
ra 5452
РО 5450
Есте@@ 5448
долина 5445
прова@@ 5445
eg@@ 5442
Дит@@ 5442
System 5441
сбур@@ 5441
,@@ 5439
6000 5439
AL@@ 5438
1786 5436
продукция 5436
Лихтен@@ 5435
сив@@ 5434
телеви@@ 5432
тре 5431
розы@@ 5429
чудови@@ 5424
Цю@@ 5420
мине 5411
причина 5409
полис 5407
Up 5405
лиев 5403
203 5402
sh@@ 5401
α 5400
3,3 5399
1779 5396
Out 5395
185 5394
Grand 5394
нойс 5393
2,1 5391
лете 5388
пласт@@ 5387
0,7 5386
НАСА 5386
нически 5386
156 5385
почи@@ 5385
name 5383
инфраструктура 5381
0,4 5377
Min@@ 5376
13.@@ 5374
1,9 5370
фата 5370
Африка 5369
War@@ 5368
ЗИ@@ 5367
ОО@@ 5366
qu@@ 5364
щите 5362
ия 5358
прене@@ 5357
ans 5356
тист 5356
256 5355
Компа@@ 5355
Art 5351
воде@@ 5351
Фау@@ 5350
докто@@ 5350
копия 5350
Закона 5349
баб@@ 5348
Шва@@ 5346
хаузен 5342
Хайн@@ 5338
Comics 5337
глаго@@ 5336
мани 5335
9,5 5334
уи@@ 5330
Super@@ 5328
1768 5326
унд 5322
высту@@ 5320
MI@@ 5315
вор 5313
225 5309
1100 5307
Интере@@ 5307
ki 5303
DS 5302
ó@@ 5295
фактор 5294
64@@ 5292
практику@@ 5292
Хит@@ 5290
разрушена 5290
Video 5287
неме@@ 5281
ke 5279
звукозапис@@ 5277
спира 5276
Bur@@ 5274
сериал@@ 5274
бро 5271
ley 5269
тета 5269
Коста@@ 5268
нио 5268
ol 5265
153 5261
Конрад 5259
3,8 5258
вари 5258
предназначен 5256
PS 5252
Мно@@ 5252
So@@ 5250
17.@@ 5248
ks 5243
Go 5242
отно@@ 5242
63@@ 5239
образно 5238
Ханс 5236
q@@ 5235
AP@@ 5232
лят 5231
нация 5230
дри 5228
Шиш@@ 5225
гнал 5225
категория 5220
развита 5220
.с. 5218
реж@@ 5218
1777 5217
мп 5216
мус 5216
\ 5211
писатели 5211
ard 5210
Дания 5208
принципа 5200
Ирландия 5196
Android 5194
ot 5194
камера 5190
ure 5189
бров@@ 5189
лиан@@ 5185
ik@@ 5183
специ@@ 5179
ist 5177
206 5176
борн 5172
Studio 5170
ə@@ 5168
бите 5168
гос 5164
30,@@ 5163
To@@ 5162
атова 5157
отво@@ 5157
Warner 5154
88@@ 5152
Грузия 5149
Поб@@ 5149
BC 5148
партиза@@ 5148
We 5146
ology 5142
IBM 5141
кири@@ 5139
1400 5131
Баден 5131
сипи 5130
ракета 5119
ton 5118
22.@@ 5116
Христос 5114
вкус 5110
Day 5107
1763 5105
205 5105
Зон@@ 5099
дика 5096
ber@@ 5090
лва 5089
Мла@@ 5088
интересу@@ 5080
1762 5079
167 5077
Sun 5077
ывалось 5077
No@@ 5076
ver@@ 5074
3,4 5072
Star@@ 5069
ya 5069
глобус 5063
отпечат@@ 5062
ATP 5059
тев 5058
222 5057
сним@@ 5057
pi@@ 5049
University 5046
архитектура 5045
инспектор 5044
1760 5042
br@@ 5040
бана@@ 5040
см@@ 5036
дове 5035
168 5034
Songs 5034
Образу@@ 5032
Mus@@ 5030
повя@@ 5029
162 5028
Man@@ 5027
Произ@@ 5027
ABC 5021
RI@@ 5020
RS 5018
кала@@ 5016
ca 5014
дежда 5011
me@@ 5009
Don 5004
color 5003
адвокат 4997
побереж@@ 4996
гуа 4992
атмо@@ 4991
дио 4991
авгу@@ 4987
aceae 4982
химия 4982
ч. 4981
Ltd 4980
Кама@@ 4979
ci@@ 4975
ax 4969
les 4961
несо@@ 4960
кв. 4956
зно 4954
19.@@ 4953
мотив 4948
Network 4947
критику@@ 4944
UTC 4943
популярен 4942
венту@@ 4940
3,7 4937
S.@@ 4937
щица 4935
AN 4933
стент 4932
Mac@@ 4930
Her@@ 4927
ick 4924
Комп@@ 4924
тане 4924
гори 4919
Лука 4917
Сек@@ 4916
ics 4911
тове 4910
NO@@ 4909
услож@@ 4908
per@@ 4905
159 4904
33,@@ 4904
57@@ 4902
173 4897
Варшава 4897
убежи@@ 4897
th 4894
ous 4893
пресе@@ 4892
результат@@ 4891
сцена@@ 4891
бассе@@ 4889
Попо@@ 4888
Афганистан 4882
ach@@ 4877
цки 4877
Географи@@ 4876
ters 4875
АД 4869
202 4865
терапия 4864
ѣ@@ 4862
вения 4858
Boy 4856
философия 4856
America 4854
насилие 4854
сор 4854
ута 4854
RO@@ 4852
исти@@ 4851
кновен@@ 4844
Benz 4843
King 4843
Абсолю@@ 4842
Кан 4841
172 4840
ker 4840
Ma@@ 4838
75@@ 4834
джо@@ 4833
Мюнхен 4832
хен 4830
ys 4826
me 4823
pr@@ 4821
дъ@@ 4821
Open@@ 4815
sp@@ 4813
To 4810
свобода 4810
ent@@ 4809
произвед@@ 4808
300@@ 4806
тава 4805
Magazine 4804
нада 4801
Бог@@ 4796
Su@@ 4795
итуа@@ 4795
джаз 4792
1740 4790
Beatles 4790
емо 4789
163 4788
ah 4787
ell 4787
мпе@@ 4787
4,6 4783
насла@@ 4780
колония 4779
Press 4778
ino 4768
https 4766
Бавар@@ 4766
Пед@@ 4766
Chart 4762
династия 4761
обработка 4760
Dr@@ 4759
β 4759
Месо@@ 4759
Space 4758
21.@@ 4755
студент 4754
se@@ 4753
Intel 4750
еве 4748
Fl@@ 4746
Луций 4741
кмет@@ 4741
Изда@@ 4739
18.@@ 4733
Археологи@@ 4731
лани 4730
John 4727
WTA 4726
етнам 4725
Ad@@ 4724
Барбара 4723
здра@@ 4723
чете 4722
74@@ 4721
166 4719
Теодо@@ 4719
Франк 4718
Mag@@ 4716
Беле@@ 4714
Оба@@ 4710
сенатор 4709
чни 4708
Камбо@@ 4707
Косово 4701
лаборатория 4701
za 4699
General 4697
im 4697
Be 4696
Гео@@ 4693
Якоб 4693
ons 4692
204 4690
1771 4689
3,1 4685
340 4681
China 4680
16.@@ 4676
Никарагуа 4674
йни 4671
див@@ 4668
резиденция 4666
математика 4663
161 4662
den 4662
нове 4661
рами@@ 4661
ja 4660
кит@@ 4655
плоть 4655
проход 4652
вено 4650
спан@@ 4650
Рождество 4649
ссов 4649
ly 4648
1750 4647
2,9 4646
Digital 4646
Институ@@ 4646
158 4641
Sega 4633
Вран@@ 4630
Гюн@@ 4630
157 4628
Архе@@ 4624
кула 4624
бавар@@ 4623
164 4620
AB@@ 4620
зима 4616
IR@@ 4615
Провин@@ 4613
Pi@@ 4611
é 4611
сажи@@ 4611
Хю@@ 4609
тёпло@@ 4609
½ 4608
NE@@ 4605
дек 4601
Metacritic 4594
джан@@ 4592
авиация 4587
ФР@@ 4586
sa 4582
рини 4581
Go@@ 4580
Гвате@@ 4574
Народно 4572
Семей@@ 4572
House 4571
ner 4570
ISBN 4564
Цер@@ 4560
aw@@ 4558
Del@@ 4557
CE@@ 4556
континента 4556
ati@@ 4553
so@@ 4551
изнача@@ 4550
MLS 4549
Tel@@ 4549
рингия 4549
алистиче@@ 4548
миш@@ 4546
Симе@@ 4545
Series 4544
ura 4539
ep@@ 4532
припа@@ 4532
Vi@@ 4525
Global 4520
буди@@ 4520
Весе@@ 4519
Fr@@ 4517
ce 4512
гимназия 4510
ела 4507
нег@@ 4507
± 4506
yl@@ 4505
Ser@@ 4501
Осве@@ 4501
36,@@ 4500
тези 4500
176 4499
211 4496
Прага 4496
oph@@ 4495
GC 4487
кира 4487
природа 4487
огро@@ 4486
Адриа@@ 4485
par@@ 4484
PS@@ 4471
Медичи 4470
Юлий 4466
30.@@ 4465
шна 4464
Карта@@ 4463
AI@@ 4462
набро@@ 4460
TE@@ 4454
бридж 4450
коалиция 4450
Поп@@ 4446
25.@@ 4445
курфюр@@ 4445
стихот@@ 4442
Show 4440
High 4437
противопостав@@ 4436
шат 4435
Рей 4434
Михайлов 4432
Почто@@ 4431
Daily 4429
холм 4429
фами@@ 4428
наблюдение 4426
Er@@ 4425
tra 4425
AM 4422
1730 4417
ВМ@@ 4416
Феде@@ 4416
бище 4414
195 4413
AL 4412
квартала 4412
SA@@ 4409
del 4407
Universal 4406
Сиби@@ 4406
ISO 4405
новь 4404
снаряда 4404
поручик 4403
аз 4401
кален@@ 4399
видна 4397
дация 4397
Post 4396
Буду@@ 4396
192 4395
48,@@ 4395
Фал@@ 4393
Facebook 4390
Pan@@ 4390
23.@@ 4389
Pe@@ 4387
волю@@ 4383
ire 4382
чево 4379
1765 4374
WG 4374
Швейца@@ 4374
178 4370
MC 4369
ps 4367
дого@@ 4363
ne@@ 4362
Форд 4362
Чика@@ 4362
310 4357
трона 4357
ограничен 4356
Game@@ 4352
Венеция 4350
мирович 4350
Cal@@ 4346
Wrestling 4346
ade 4346
гласно 4346
никой 4345
Сил@@ 4340
35,@@ 4339
This 4338
пани 4338
212 4335
é@@ 4323
охрана 4323
850 4321
47,@@ 4318
средо@@ 4317
MS@@ 4315
We@@ 4315
беле@@ 4315
Болга@@ 4314
зрители 4314
миграция 4311
Дой@@ 4310
реа@@ 4310
Power 4309
близки 4309
A. 4305
54@@ 4304
1769 4303
bo@@ 4303
дол 4302
174 4299
гради@@ 4298
Ь@@ 4296
Park 4291
183 4289
бно 4289
Rotten 4284
GP@@ 4281
专区 4281
78@@ 4279
1648 4278
0,9 4276
Film 4276
Country 4275
from 4275
Еги@@ 4275
Хаджи 4275
Нед@@ 4274
CH@@ 4273
Bre@@ 4267
бата 4266
ква 4265
182 4264
Джорджия 4264
Чем@@ 4263
ist@@ 4262
Хаб@@ 4260
Клав@@ 4257
215 4256
бестсел@@ 4256
Шотландия 4255
VI@@ 4252
перу@@ 4252
001 4251
do@@ 4251
Мери@@ 4251
деш 4251
астронав@@ 4246
религия 4245
ence 4244
Ho@@ 4243
терна@@ 4242
420 4241
определена 4240
TA 4237
финан@@ 4237
CI@@ 4230
305 4228
Mas@@ 4228
White 4227
Бя@@ 4225
171 4222
Барселона 4221
Ирак 4219
основа 4219
ї@@ 4219
El 4218
Папа@@ 4217
Укра@@ 4217
условие 4217
ватия 4215
169 4214
ni 4213
left 4212
1710 4210
pe@@ 4210
Center 4204
il 4203
Югославия 4203
š@@ 4199
Краси@@ 4198
66@@ 4196
32@@ 4195
text 4195
Португалия 4194
193 4193
Line 4193
die 4192
Мадага@@ 4191
няко@@ 4190
What 4188
background 4188
І@@ 4184
Mat@@ 4183
прили@@ 4182
ł@@ 4177
графиня 4177
синг 4177
28.@@ 4169
AR 4169
Mc@@ 4169
per 4166
hi@@ 4165
38,@@ 4164
толе@@ 4164
Band 4160
кого@@ 4153
янов 4146
Es@@ 4142
235 4140
Dance 4140
Люксембург 4140
Марс 4140
ьше 4135
27.@@ 4133
Des@@ 4132
Tomatoes 4132
лабо@@ 4132
чане 4127
оси@@ 4125
ore 4115
куро@@ 4115
and@@ 4113
Демо@@ 4113
United 4112
ok@@ 4111
разрабо@@ 4110
Gam@@ 4108
Тбили@@ 4104
физически 4103
1767 4102
Свето@@ 4100
208 4096
материал@@ 4096
Максимили@@ 4094
маха@@ 4094
IT@@ 4093
end@@ 4093
истре@@ 4092
Латвия 4091
Express 4090
Община 4089
гроз@@ 4088
Hy@@ 4081
Харак@@ 4080
DJ 4076
Вито@@ 4074
26.@@ 4073
Championship 4072
Ен@@ 4072
земно@@ 4071
бря 4070
pl@@ 4069
отбо@@ 4064
177 4062
ake 4062
фурт 4057
Ber@@ 4056
49,@@ 4055
Science 4055
Кул@@ 4048
Сереб@@ 4044
69@@ 4043
нати 4041
пролет@@ 4040
стически 4040
ens@@ 4039
ath@@ 4032
Вискон@@ 4023
Зал@@ 4020
большо@@ 4019
лени 4019
Литва 4018
статистика 4017
Богдан 4016
ей@@ 4016
Куба 4014
соф@@ 4014
производители 4012
orum 4009
1660 4007
4,4 4007
£ 4006
34,@@ 4004
24.@@ 4001
Final 3999
Леона@@ 3999
изре@@ 3998
Нами@@ 3997
Royal 3996
чини 3996
46,@@ 3993
io 3989
CBS 3988
DA 3987
NBC 3987
Forbes 3984
Dead 3979
1758 3974
мити@@ 3972
Har@@ 3969
ү@@ 3968
Дел@@ 3967
way 3965
1720 3963
188 3963
жна 3962
ei 3958
ограничена 3957
спози@@ 3957
конструи@@ 3955
bl@@ 3954
Само 3950
лм 3950
ьора 3949
насий 3948
Val@@ 3944
€ 3944
1766 3943
вска 3943
императрица 3943
29.@@ 3939
RT@@ 3938
хаме@@ 3934
Bal@@ 3933
1654 3931
370 3931
end 3931
ur 3931
муску@@ 3930
0000@@ 3929
CC 3929
ho@@ 3929
сылки 3929
Филип 3925
410 3924
Горно@@ 3921
лта 3921
редки 3919
флу@@ 3918
ma@@ 3917
Cy@@ 3915
RT 3915
Racing 3915
290 3913
лектри@@ 3912
апси@@ 3909
средиземно@@ 3906
1727 3905
ant@@ 3905
подло@@ 3905
Aer@@ 3902
ary 3902
ME 3900
ash 3900
Среди@@ 3900
Ag@@ 3893
1676 3891
Bel@@ 3891
Bad 3889
196 3884
ion 3881
говорен 3881
Ab@@ 3880
Александров 3880
1761 3879
загла@@ 3878
186 3874
удов@@ 3874
затру@@ 3873
наследник 3872
Манд@@ 3871
Ri@@ 3870
1756 3869
CO 3866
кистан 3866
Ferrari 3862
ex 3858
Hel@@ 3857
af@@ 3855
† 3854
сол 3853
Fantasy 3852
Пакистан 3852
IP@@ 3851
Software 3851
Зеландия 3851
CC@@ 3849
net 3849
спеди@@ 3849
184 3843
скет@@ 3843
ys@@ 3840
тура@@ 3840
пизо@@ 3831
гнали 3830
катастрофа 3828
Cup 3827
Sho@@ 3826
─ 3823
be 3821
sch@@ 3821
MO@@ 3819
Шлезвиг 3819
st 3817
181 3815
ari@@ 3815
217 3813
icus 3811
Sk@@ 3809
данов 3809
der@@ 3808
oth@@ 3808
187 3807
Festival 3806
дани 3804
1708 3803
Im@@ 3803
брехт 3803
Хари@@ 3799
вя 3799
214 3798
сервато@@ 3797
Op@@ 3796
фрид 3794
рели 3791
Mel@@ 3789
AP 3785
Майн@@ 3785
ara 3783
врата 3782
Si@@ 3781
sk@@ 3781
able 3780
ice 3780
ick@@ 3780
Дина@@ 3780
купа 3778
Eur@@ 3777
Gu@@ 3777
Mer@@ 3776
TS 3776
дирек@@ 3776
Boys 3772
Les 3772
yc@@ 3770
RC 3769
Hol@@ 3767
TO@@ 3767
Home 3766
32,@@ 3764
ow@@ 3763
Albums 3762
Death 3762
ьор 3762
si 3761
4,8 3756
mi@@ 3755
480 3753
British 3753
tic@@ 3753
приблиз@@ 3752
tion 3751
az@@ 3749
лича 3748
Can 3744
реван@@ 3741
Соломо@@ 3738
be@@ 3737
BMW 3736
IS 3736
207 3734
France 3734
Македония 3734
Чехия 3730
TV@@ 3729
189 3728
Ultimate 3726
сура 3726
Metal 3724
1722 3723
Подобно 3719
1650 3716
LC 3716
бив@@ 3716
Like 3714
tu@@ 3713
ey 3709
изли@@ 3708
ida 3705
бараба@@ 3705
Mac 3704
4,2 3703
1755 3702
all 3701
Vo@@ 3699
198 3698
232 3697
ниан 3694
2.0 3693
Dark 3693
que 3693
масо@@ 3693
1721 3692
ang@@ 3692
псе@@ 3692
фут@@ 3692
191 3690
ell@@ 3689
Toyota 3688
фаза 3686
Вирджи@@ 3684
воя 3682
дере 3682
Little 3681
center 3681
ou@@ 3681
Heart 3678
von 3678
PO@@ 3677
Rem@@ 3673
Молдова 3670
1719 3669
Сарди@@ 3668
1620 3667
Av@@ 3666
ванов 3663
301 3657
населя@@ 3653
рове 3653
ong 3649
Air@@ 3647
ber 3647
парла@@ 3647
1735 3646
Foundation 3646
немато@@ 3645
199 3644
PP@@ 3644
сове 3644
179 3639
5,6 3636
забав@@ 3636
238 3635
Майка 3634
Рене@@ 3630
пиво@@ 3628
Pink 3623
Dream 3617
NCAA 3617
a.@@ 3616
mar@@ 3616
194 3613
45,@@ 3610
Play@@ 3610
Мехмед 3610
Java 3609
меро@@ 3609
254 3608
Белград 3608
1757 3607
275 3605
ors 3604
ev@@ 3602
варя@@ 3602
Girl 3601
ight 3600
Mot@@ 3599
Sim@@ 3594
определено 3592
ette 3591
440 3589
окли@@ 3589
1741 3587
3,9 3585
430 3583
стве@@ 3583
мести 3581
1759 3578
150@@ 3572
PA 3571
Sound 3571
Нова 3570
ken 3569
County 3566
1745 3561
War 3561
osa 3560
su@@ 3559
ME@@ 3557
стила 3557
tic 3552
ano 3549
ola 3549
Can@@ 3547
зни 3547
фоль@@ 3547
216 3545
ere 3545
CR@@ 3542
Electric 3541
out 3540
gr@@ 3539
ek@@ 3538
te@@ 3537
Limited 3534
209 3533
Ня@@ 3531
ab 3529
con@@ 3527
коми 3527
1640 3526
мандат 3526
деспо@@ 3525
Renault 3523
хтен@@ 3523
IGN 3521
бена 3520
ресторан@@ 3516
That 3515
1704 3513
Por@@ 3513
255 3512
Fre@@ 3511
Mark 3508
ile 3508
AV@@ 3507
ro 3506
ita 3504
Trans@@ 3501
Джак@@ 3501
проф 3501
1680 3500
Чехословакия 3499
8000 3498
West 3498
44,@@ 3497
375 3492
е. 3490
213 3487
IT 3485
For 3484
Вирджиния 3483
Сестра 3482
що@@ 3482
245 3481
Два@@ 3477
ge 3475
шинство 3475
Guardian 3473
San 3470
ните 3470
факта 3470
1743 3469
76@@ 3466
IA 3466
197 3463
Наслед@@ 3461
Singles 3459
Tor@@ 3458
1723 3457
LE@@ 3455
Сидни 3455
5,7 3453
маса 3453
пциг 3453
Граф@@ 3452
Arts 3451
ьон@@ 3451
Light 3450
M. 3450
Апо@@ 3449
Lin@@ 3448
DE 3444
Do 3443
ө@@ 3443
SI@@ 3441
Japan 3439
Project 3439
равенство 3439
ada 3434
ex@@ 3434
ops 3434
ова 3431
go 3430
19@@ 3429
ë@@ 3423
ations 3418
ets 3418
ha 3418
Рика 3416
Research 3415
1747 3414
ala 3410
SC 3408
чели 3407
Em@@ 3406
2,0 3404
Queen 3404
поту@@ 3404
All@@ 3403
рк 3401
шия 3400
au 3397
460 3394
Ул@@ 3393
ა@@ 3392
ena 3386
секция 3386
корона 3383
Play 3382
CS@@ 3380
ani 3380
1748 3379
USS 3378
218 3377
4,3 3377
Prot@@ 3375
à 3375
Way 3371
1744 3370
Ste@@ 3370
дира 3369
ect 3368
Dol@@ 3367
Sw@@ 3367
сп 3367
ora 3365
Индонезия 3364
1678 3363
lu@@ 3363
rowspan 3363
праздне@@ 3361
Res@@ 3358
сали@@ 3355
Down 3351
est@@ 3350
1628 3349
242 3348
секретар@@ 3348
Ti@@ 3347
сил@@ 3347
tica 3345
нали 3345
пак 3342
Kar@@ 3339
1754 3333
Good 3333
ek 3333
мел 3333
ated 3331
car@@ 3331
Bros 3330
ess@@ 3330
224 3329
Скоп@@ 3329
12,5 3325
5,3 3325
London 3325
Sa@@ 3325
ID 3324
gi@@ 3324
od 3324
1742 3323
7000 3323
бел 3323
FO@@ 3322
ir 3322
Бранденбург 3322
Sur@@ 3321
ee 3320
va 3320
Pre@@ 3319
ff@@ 3318
Папуа 3318
Cam@@ 3317
low 3317
ry 3313
str@@ 3312
Ap@@ 3311
che 3310
50,@@ 3309
77@@ 3309
ib@@ 3308
оза@@ 3307
Mal@@ 3303
Productions 3300
самолета 3298
dia 3297
Алжир 3296
Airways 3295
Sub@@ 3295
Место@@ 3295
I.@@ 3292
ничи 3292
ua 3291
Семейство 3290
внима@@ 3289
Channel 3287
AG@@ 3285
la@@ 3285
гория 3285
рич 3284
37,@@ 3282
Куку@@ 3282
Road 3280
737 3278
GE 3276
стено@@ 3276
P. 3274
1630 3272
221 3272
Young 3272
com@@ 3270
yp@@ 3270
Bor@@ 3269
напад@@ 3269
1711 3268
космоса 3268
AB 3267
кожа 3266
фол@@ 3266
сково 3265
CA 3262
Дерев@@ 3261
5,2 3260
йнт 3258
Гвинея 3257
RA 3255
tis 3255
жд 3255
iTunes 3254
aria 3253
Pl@@ 3252
4,7 3251
ill@@ 3251
pa 3249
Char@@ 3248
yn@@ 3245
Магда@@ 3243
66,@@ 3240
Green 3240
tor 3240
252 3239
ba@@ 3239
1701 3238
54,@@ 3237
Вернер 3237
ели@@ 3237
Association 3236
милия 3235
своя 3232
3500 3230
Арме@@ 3230
преобразу@@ 3228
man@@ 3227
Dec@@ 3225
Ы 3222
1670 3219
Back 3216
1667 3214
подкре@@ 3210
Hal@@ 3205
почит@@ 3205
365 3204
инста@@ 3202
ang 3197
ales 3194
регент@@ 3194
978 3193
05@@ 3191
Who 3191
ise 3190
lin@@ 3190
Мекленбург 3190
застра@@ 3188
Last 3186
кнове@@ 3185
5,4 3183
234 3181
Резо@@ 3179
ach 3177
55,@@ 3176
iz@@ 3175
aj@@ 3172
PE@@ 3171
енен 3171
Samsung 3170
ge@@ 3170
1753 3169
1724 3168
Sports 3165
жете 3164
1736 3163
Gal@@ 3163
Ломбар@@ 3162
гост 3162
Girls 3160
DO@@ 3159
op 3158
king 3157
қ@@ 3157
39,@@ 3156
Мексико 3156
юго@@ 3154
ef@@ 3153
FC 3152
1550 3151
Ана 3151
Weekly 3148
219 3147
Резуль@@ 3147
ი@@ 3147
1715 3146
241 3146
Вс@@ 3146
ium 3145
tor@@ 3144
напом@@ 3144
LA 3143
Драго@@ 3142
виден 3139
ars 3138
сета 3137
ходится 3136
1739 3134
mon@@ 3134
Brothers 3133
ius 3133
265 3132
325 3132
Преобра@@ 3132
GT 3131
Желе@@ 3131
LP 3129
223 3128
Авре@@ 3128
1703 3127
Russia 3127
Cat@@ 3125
Cas@@ 3124
Вюртем@@ 3124
1618 3123
ця@@ 3123
Edition 3122
Kr@@ 3121
CS 3120
фео@@ 3118
Юта 3114
99,@@ 3113
99@@ 3112
Systems 3112
либе@@ 3110
тег@@ 3110
227 3109
Bu@@ 3108
популярна 3108
anus 3107
ay@@ 3107
tro 3107
Sal@@ 3105
инициатива 3105
1627 3104
1737 3104
Reg@@ 3104
Кристоф 3104
гонь 3104
зет@@ 3104
психология 3104
Родж@@ 3101
eo 3100
Sky 3097
ula 3096
Cos@@ 3095
влади@@ 3094
228 3093
ess 3092
ko 3092
водно 3092
рун 3092
Fo@@ 3089
dr@@ 3087
play 3087
Нос@@ 3087
League 3086
eus 3086
API 3085
Classic 3084
зви@@ 3084
Na@@ 3083
GT@@ 3082
ac 3081
верса@@ 3081
226 3078
251 3077
NA 3076
вадор 3076
обле@@ 3076
10,5 3075
Raw 3075
1702 3070
DOS 3070
Meg@@ 3070
депут@@ 3070
нама@@ 3070
č@@ 3068
Tw@@ 3067
тика@@ 3067
1746 3066
Let 3064
1734 3062
скала 3060
Force 3059
Квинт 3059
M.@@ 3058
фести@@ 3055
ляз@@ 3053
cor@@ 3050
ok 3050
квали@@ 3050
1725 3048
Society 3043
ones 3043
политически 3043
osaurus 3042
ou 3042
каф@@ 3041
At@@ 3040
ast 3040
Song 3038
хове 3037
07@@ 3035
Baby 3034
Ban@@ 3034
cr@@ 3034
Mad@@ 3029
дениям 3025
II@@ 3024
ser@@ 3024
как@@ 3024
98@@ 3023
AE@@ 3020
Сингапур 3020
1709 3019
Columbia 3017
здравоохра@@ 3017
Tur@@ 3015
нади@@ 3013
Deep 3012
Du@@ 3012
enti@@ 3012
85@@ 3010
ich@@ 3009
Преми@@ 3008
виан 3007
1717 3004
Cap@@ 3004
1690 3003
470 3003
Sun@@ 3003
236 3000
303 3000
Fire 3000
239 2999
Micro@@ 2998
mat@@ 2997
AD 2996
South 2995
ical 2994
Сед@@ 2994
LO@@ 2990
ah@@ 2989
min@@ 2989
т.е. 2989
Sky@@ 2988
бик 2988
роля 2988
вити@@ 2987
иму@@ 2984
0,0@@ 2982
1649 2982
E.@@ 2979
Лом@@ 2979
екс@@ 2976
69,@@ 2975
изгнание 2974
пул 2973
Sy@@ 2972
XXII 2972
люция 2970
Machine 2967
Ni@@ 2967
[...]
