, 0.9871275432102617
. 0.9281876784600556
του 1
και 1
της 1
το 1
&quot; 0.9316824956556938
την 1
από 1
με 1
ο 1
η 1
) 1
( 1
να 1
τον 1
που 1
των 1
στην 1
σε 1
για 1
στο 1
τη 1
είναι 1
τα 1
Η 1
οι 1
τους 1
Το 1
Ο 1
@-@ 0.45183011997204947
ήταν 1
στη 1
ως 1
ή 1
τις 1
: 1
στις 1
ένα 1
ότι 1
μια 1
στον 1
« 1
» 1
στα 1
ών 1
δεν 1
Οι 1
ικό 1
ική 1
Σ@@ 1
ος 1
΄ 1
ου 1
ων 1
είχε 1
ία 1
κατά 1
έχει 1
αν@@ 1
ες 1
ό 1
σ@@ 1
αλλά 1
ής 1
ους 1
ά 1
ενώ 1
ίας 1
α 1
ικής 1
οποία 1
ός 1
ές 1
θα 1
τ@@ 1
ικά 1
Κ@@ 1
χ@@ 1
όπως 1
δύο 1
ι@@ 1
&apos; 0.9781508235551457
εν@@ 1
προ@@ 1
φ@@ 1
β@@ 1
- 1
Π@@ 1
ο@@ 1
ικού 1
Τ@@ 1
ν@@ 1
ι 1
μετά 1
ης 1
ικές 1
π@@ 1
Μ@@ 1
απο@@ 1
αν 1
επίσης 1
Ν@@ 1
μ@@ 1
Α@@ 1
γ@@ 1
δ@@ 1
όπου 1
Β@@ 1
ικών 1
α@@ 1
/ 1
ού 1
όταν 1
δι@@ 1
εκ@@ 1
Τα 1
τ 1
ας 1
ά@@ 1
Λ@@ 1
κ@@ 1
μία 1
Ρ@@ 1
ί@@ 1
ου@@ 1
καθώς 1
υπο@@ 1
οποίο 1
ε@@ 1
ό@@ 1
Φ@@ 1
στ@@ 1
εξ@@ 1
ζ@@ 1
ρι@@ 1
θ@@ 1
Α 1
στους 1
έ@@ 1
μέχρι 1
γκ@@ 1
μεταξύ 1
μπ@@ 1
ε 1
αρ@@ 1
Χ@@ 1
λ@@ 1
αυτό 1
απ@@ 1
αντι@@ 1
ω@@ 1
έγινε 1
ιν@@ 1
χρόνια 1
έχουν 1
συν@@ 1
2 0.9692515026290268
ίου 1
κατα@@ 1
ρ@@ 1
ς 1
πρώτη 1
τι@@ 1
Δ@@ 1
προς 1
ακ@@ 1
Μπ@@ 1
ύ@@ 1
πιο 1
ούς 1
Β 1
Ε@@ 1
Ο@@ 1
ικ@@ 1
λι@@ 1
ρο@@ 1
1 0.8076560377890847
Στις 1
επι@@ 1
; 0.37509091887427537
κα@@ 1
η@@ 1
υ@@ 1
ει 1
παρ@@ 1
τική 1
άν@@ 1
περιοχή 1
ν 1
πόλη 1
ισ@@ 1
ού@@ 1
ον@@ 1
τσ@@ 1
μπορεί 1
Ι@@ 1
ερ@@ 1
θέση 1
ια 1
ουν 1
μα 1
αυτή 1
ομάδα 1
ικός 1
επ@@ 1
ανα@@ 1
έν@@ 1
ένας 1
διάρκεια 1
οί 1
τα@@ 1
ί 1
ή@@ 1
αλ@@ 1
αιώνα 1
κ 1
Γ@@ 1
3 0.931842779838058
ίες 1
ευ@@ 1
αγ@@ 1
οποίος 1
Από 1
το@@ 1
ση 1
τικό 1
είχαν 1
σης 1
&amp; 1
ρα@@ 1
Στην 1
εία 1
% 0.6983341543494865
ορ@@ 1
έναν 1
– 0.4360535638707404
Ζ@@ 1
σι@@ 1
ενός 1
τος 1
λ 1
ρ 1
ατ@@ 1
περίοδο 1
μέρος 1
μόνο 1
ασ@@ 1
σκ@@ 1
πολύ 1
βι@@ 1
ομ@@ 1
άρ@@ 1
μαζί 1
ώ@@ 1
Μετά 1
σαν 1
έως 1
τά@@ 1
Με 1
ρί@@ 1
4 0.9210071757838979
τες 1
Γκ@@ 1
ει@@ 1
περι@@ 1
τικά 1
περίπου 1
βρίσκεται 1
προσ@@ 1
μ 1
όμως 1
θε@@ 1
ολ@@ 1
ησε 1
ήθηκε 1
ιο 1
ίων 1
ον 1
μετα@@ 1
ξ@@ 1
φορά 1
αφ@@ 1
αι@@ 1
Ά@@ 1
όνομα 1
αργότερα 1
ίν@@ 1
Στο 1
τότε 1
πλ@@ 1
θεί 1
τρ@@ 1
κάθε 1
Κατά 1
υπ@@ 1
δια@@ 1
κλ@@ 1
μέσα 1
Αν@@ 1
μένη 1
ελ@@ 1
εται 1
ερ 1
όν@@ 1
&#93; 1
ήσει 1
να@@ 1
Τζ@@ 1
ρά@@ 1
5 0.8966026457629517
ούν 1
έ 1
&#91; 1
πι@@ 1
εν 1
άς 1
ονται 1
Τον 1
Είναι 1
ίδια 1
Σε 1
ψ@@ 1
πρώτο 1
ρα 1
λε@@ 1
τικές 1
οπ@@ 1
λόγω 1
πως 1
ικούς 1
πριν 1
υπό 1
ταινία 1
ώντας 1
κυρίως 1
ηση 1
Τσ@@ 1
Την 1
κο@@ 1
Θ@@ 1
μη 1
ρος 1
ότητα 1
τη@@ 1
τικής 1
συνέχεια 1
είο 1
ισμό 1
γι@@ 1
τού 1
σειρά 1
μον@@ 1
άλ@@ 1
μι@@ 1
εγ@@ 1
Για 1
Έ@@ 1
αμ@@ 1
πάνω 1
ίσ@@ 1
όρ@@ 1
έργο 1
φορές 1
τζ@@ 1
τικών 1
10 0.8537196820985807
λα@@ 1
είς 1
εί@@ 1
υλ@@ 1
6 0.8238173798376848
Δι@@ 1
εισ@@ 1
οδ@@ 1
ετών 1
Ελλάδα 1
είας 1
Στη 1
έρ@@ 1
2011 1
όν 1
χωριό 1
Ήταν 1
Προ@@ 1
ωση 1
ισμού 1
μένο 1
.@@ 1
ήσεις 1
σήμερα 1
ρου 1
έκ@@ 1
π 1
μάτων 1
Παρ@@ 1
εί 1
ρε@@ 1
χωρίς 1
ίδα 1
θηκαν 1
τε@@ 1
μέ@@ 1
άν 1
Γι@@ 1
αυτά 1
μιας 1
τι 1
οσ@@ 1
έλ@@ 1
Γ 1
μα@@ 1
ίδιο 1
καλ@@ 1
κά@@ 1
σύμφωνα 1
πο@@ 1
Επίσης 1
μέσω 1
Σύμφωνα 1
μεγάλη 1
αποτέλεσμα 1
ούσε 1
ιών 1
ιά 1
ώθηκε 1
όλα 1
τικού 1
τών 1
μέλος 1
πόλης 1
εποχή 1
άγ@@ 1
_ 1
έλαβε 1
ομάδες 1
ιστορία 1
ήσουν 1
μά@@ 1
έτσι 1
ιλ@@ 1
8 0.8451348091668951
πολλές 1
τμήμα 1
οκ@@ 1
εύ@@ 1
ρο 1
7 0.8148519232571645
άκ@@ 1
είται 1
εκλογές 1
ογ@@ 1
ήματα 1
στοιχεία 1
φ 1
ικοί 1
ματος 1
Καρ@@ 1
τερ@@ 1
ματα 1
έκανε 1
τρεις 1
12 0.8895760795065343
άλλα 1
Συν@@ 1
ισμός 1
αρχές 1
π.Χ. 1
είου 1
αναφέρεται 1
Μαρ@@ 1
Γου@@ 1
ησης 1
Ου@@ 1
τέλος 1
άσ@@ 1
τρι@@ 1
20 0.8960108205924311
οφ@@ 1
χώρα 1
ησαν 1
αρχ@@ 1
Ωστόσο 1
επί 1
φορ@@ 1
= 1
κοντά 1
αποτελεί 1
Αρ@@ 1
ων@@ 1
τίτλο 1
πολλά 1
αστ@@ 1
κι 1
τόσο 1
οντας 1
ώσει 1
Η@@ 1
εφ@@ 1
καν@@ 1
δε@@ 1
άλλες 1
σπ@@ 1
ηλικία 1
έδρα 1
μερ@@ 1
καθ@@ 1
ξεκίνησε 1
ειας 1
γιος 1
μένα 1
ήθηκαν 1
του@@ 1
οβ@@ 1
ω 1
όσο 1
The 0.0726777224035106
τά 1
ιστ@@ 1
ζωή 1
υπάρχει 1
νε@@ 1
αβ@@ 1
15 0.8953520303996664
εκ 1
τού@@ 1
πρωτάθλημα 1
ρού@@ 1
κόρη 1
τέ@@ 1
μεγάλο 1
2010 0.7317704687648005
οχ@@ 1
κατοίκους 1
Αλ@@ 1
ώστε 1
έργα 1
ϊ@@ 1
χρήση 1
πέ@@ 1
υ 1
χω@@ 1
μέλη 1
Ιουλίου 1
σσ@@ 1
Αυγούστου 1
Ό@@ 1
όλ@@ 1
όπ@@ 1
9 0.7992708120867891
of 0.021105739572671978
υρ@@ 1
Μαρτίου 1
ηθεί 1
πρό@@ 1
Εθνική 1
χρόνο 1
όσ@@ 1
αντ@@ 1
αυτές 1
οποι@@ 1
τή 1
με@@ 1
αφού 1
υπάρχουν 1
Σεπτεμβρίου 1
Οκτωβρίου 1
βάση 1
εκτός 1
σει 1
ακόμη 1
περ@@ 1
ντ 1
formula 1
’ 0.2317389309266452
Ιουνίου 1
λογ@@ 1
ίζει 1
Στα 1
φιλ@@ 1
οποίες 1
Μαΐου 1
τικός 1
γύρω 1
περιοχές 1
Όταν 1
θηκε 1
κιν@@ 1
Ιανουαρίου 1
όμ@@ 1
σύστημα 1
τον@@ 1
υγ@@ 1
γκ 1
δεύτερη 1
λλ@@ 1
πρέπει 1
16 0.9499874592409435
ξη 1
ωσε 1
συχνά 1
Απριλίου 1
ακόμα 1
σεζόν 1
ζ 1
τας 1
11 0.8488418694713584
ομάδας 1
ολογία 1
ώνει 1
ότητας 1
κυβέρνηση 1
ούν@@ 1
σχ@@ 1
μορφή 1
αδ@@ 1
αρχικά 1
Υ@@ 1
Αυτό 1
Αγίου 1
ουλ@@ 1
έφ@@ 1
νέα 1
ημ@@ 1
όρος 1
14 0.9744959879091076
ηλ@@ 1
παν@@ 1
Νοεμβρίου 1
θέ@@ 1
τελευταία 1
αυ@@ 1
αί@@ 1
εκεί 1
σα 1
Δ 1
Ιστορία 1
ντε 1
30 0.881779223141704
αχ@@ 1
ρέ@@ 1
τί@@ 1
ιν 1
ημα 1
κυ@@ 1
Αθήνα 1
εναντίον 1
18 0.8265489690822598
ονομασία 1
μυ@@ 1
όλη 1
είτε 1
τεχν@@ 1
β 1
εμ@@ 1
πρώην 1
τελ@@ 1
γεν@@ 1
2012 0.7711908833305736
ουν@@ 1
καρ@@ 1
ιμ@@ 1
κοινότητα 1
ξης 1
έα 1
ετ@@ 1
μο 1
έπ@@ 1
αγώνες 1
μένος 1
όχι 1
ματ@@ 1
τελικά 1
Ανα@@ 1
σχετικά 1
αλλ@@ 1
βλ@@ 1
σεις 1
ην@@ 1
13 0.9563103214713897
γλώσσα 1
ώς 1
Έχει 1
δηλαδή 1
ότ@@ 1
υσ@@ 1
συνήθως 1
κέντρο 1
πρ@@ 1
Δεκεμβρίου 1
πήρε 1
Κα@@ 1
ηγ@@ 1
2009 0.7672086277957602
βασιλιά 1
ταν@@ 1
βά@@ 1
εργ@@ 1
gt 1
2008 0.7653759863758975
εσ@@ 1
ρόλο 1
τής 1
θη@@ 1
ωσης 1
ριν@@ 1
2014 0.7412277837702441
ώσεις 1
17 0.9547132350520622
10@@ 1
πρώτος 1
μπορούν 1
υπερ@@ 1
σία 1
ώνεται 1
μέτρα 1
εια 1
ουσ@@ 1
Εν@@ 1
μεν@@ 1
πλέον 1
μαν@@ 1
lt 1
Φεβρουαρίου 1
κατηγορία 1
άλλη 1
2015 0.7390876757020565
άλλων 1
ίστηκε 1
κα 1
ίνα 1
2013 0.7403252610848071
μεγαλύτερο 1
Απο@@ 1
λί@@ 1
γεννήθηκε 1
θούν 1
Ευ@@ 1
8@@ 1
τέλη 1
Βιογραφία 1
άλμπουμ 1
ελ 1
ποι@@ 1
αγώνα 1
κτ@@ 1
γραφ@@ 1
ίσει 1
Μά@@ 1
δυ@@ 1
γίνει 1
25 0.915567850128098
τς 1
χαρ@@ 1
Αγ@@ 1
Ε 1
άσει 1
άρχισε 1
ανάμεσα 1
συ@@ 1
κυκλοφόρησε 1
ίλ@@ 1
γεγονός 1
τυ@@ 1
κάτω 1
παιδιά 1
Ως 1
έτος 1
Με@@ 1
Πανεπιστήμιο 1
de 0.013171958971089373
2007 0.7566969849298767
λά@@ 1
κέρδισε 1
μεγαλύτερη 1
μένες 1
ούνται 1
πρώτα 1
Αν 1
επαν@@ 1
Άν@@ 1
Κά@@ 1
πά@@ 1
2016 0.7128115542155676
μου 1
δεύτερο 1
πολιτική 1
ΗΠΑ 1
χώρας 1
γνωστή 1
χρονιά 1
τρία 1
ιερ@@ 1
ώ 1
σίας 1
ίκ@@ 1
σχεδόν 1
19 0.8459897753841414
δεκαετία 1
αξι@@ 1
όκ@@ 1
υπήρξε 1
είων 1
Ελλάδας 1
όλες 1
πα@@ 1
γνωστό 1
ρω@@ 1
στο@@ 1
υν@@ 1
άζει 1
σχέση 1
ιδιαίτερα 1
Κου@@ 1
ριο 1
στα@@ 1
0 0.998162867154003
χώρες 1
ήματος 1
περιοχής 1
Έτσι 1
2006 0.7422979637729641
άστηκε 1
μπο@@ 1
πέντε 1
επειδή 1
όγ@@ 1
ανακ@@ 1
μο@@ 1
ασκ@@ 1
εις 1
ιδ@@ 1
οποίοι 1
the 0.00877260615836171
-@@ 1
αζ@@ 1
9@@ 1
νομ@@ 1
ότερα 1
ειδ@@ 1
ούσαν 1
περισσότερο 1
αθ@@ 1
άμ@@ 1
θάνατο 1
21 0.9314415587040237
υφ@@ 1
βαρ@@ 1
συμμετείχε 1
ορι@@ 1
κόσμο 1
οικ@@ 1
τικ@@ 1
οι@@ 1
λη@@ 1
ίδιος 1
τρόπο 1
οργαν@@ 1
ωθεί 1
2019 0.732396757175325
s 0.17285312291106691
Ευρώπη 1
μάχη 1
παραγωγή 1
γίνεται 1
παρα@@ 1
νο@@ 1
Ντ@@ 1
ονταν 1
ρυ@@ 1
κάνει 1
στική 1
πληθυσμό 1
Καλ@@ 1
εδ@@ 1
ίνη 1
όλο 1
Κλ@@ 1
όφ@@ 1
εκείνη 1
ωστόσο 1
ιάς 1
κατάσταση 1
στι@@ 1
έδωσε 1
μας 1
πολ@@ 1
απογραφή 1
άφ@@ 1
ρίου 1
πατέρα 1
πε@@ 1
2017 0.6783519509129716
χρησιμοποιείται 1
ύν@@ 1
ρού 1
χ 1
ίζεται 1
νέο 1
όλων 1
πρόεδρος 1
2018 0.6490419943512084
Βι@@ 1
Κορ@@ 1
παράδειγμα 1
ύ 1
αρκετά 1
Μα@@ 1
άτομα 1
ανά 1
πέθανε 1
οικογένεια 1
Αθηνών 1
τούν 1
κρατ@@ 1
χιλιόμετρα 1
ψηφ@@ 1
Γαλλία 1
Μια 1
ιζ@@ 1
συμβ@@ 1
διά@@ 1
2004 0.8359553610891862
Λου@@ 1
θεωρείται 1
22 0.9618608701743905
Μπο@@ 1
κας 1
Ένα 1
βόρεια 1
θρ@@ 1
τές 1
ιδρύθηκε 1
24 0.8626158152392375
ιος 1
τε 1
2000 0.7507773469366836
πολυ@@ 1
αριθμός 1
ωρ@@ 1
Παν@@ 1
Πρωτάθλημα 1
αυτο@@ 1
έβ@@ 1
νότια 1
δυνάμεις 1
ονομ@@ 1
ζωής 1
δρ@@ 1
πατέρας 1
ρίας 1
σμ@@ 1
επιτυχία 1
νι@@ 1
οικισμός 1
εβ@@ 1
δυο 1
βρίσκονται 1
ίζουν 1
όμενη 1
κατά@@ 1
περιλαμβάνει 1
λο 1
συνεχ@@ 1
νη 1
έσ@@ 1
τραγούδι 1
ητές 1
ις 1
χρ@@ 1
παρά 1
ίδες 1
Θε@@ 1
ότητες 1
αυτός 1
ήδη 1
2005 0.748197535442884
βασ@@ 1
επί@@ 1
πόλεις 1
χώρο 1
ρία 1
ματική 1
τερ 1
τό 1
ελληνική 1
διάστημα 1
ών@@ 1
κου@@ 1
Σου@@ 1
ουρ@@ 1
23 0.9548750591007802
ώρα 1
έγιναν 1
περί@@ 1
αμπ@@ 1
δο@@ 1
βαθμ@@ 1
μουσική 1
κολ@@ 1
διατ@@ 1
Γεννήθηκε 1
μήκος 1
βα 1
κατέ@@ 1
κατ@@ 1
δε 1
τρο@@ 1
ταλ@@ 1
S@@ 0.21951725925399332
13@@ 1
διασ@@ 1
ιστική 1
κι@@ 1
σημείο 1
αυτού 1
άρι 1
βί@@ 1
αυτών 1
γνωστός 1
ότερη 1
βασιλιάς 1
amp 0.5792726037581319
Μπρ@@ 1
εμπ@@ 1
&#124; 1
ανάπτυξη 1
κύ@@ 1
ανέλαβε 1
όρο 1
θέσεις 1
ώθηκαν 1
όβ@@ 1
πίσω 1
ελλ@@ 1
ανά@@ 1
Μον@@ 1
7@@ 1
12@@ 1
έχ@@ 1
μένων 1
2001 0.8752313506271524
λέ@@ 1
Στον 1
ντ@@ 1
άλλους 1
οποίων 1
αυτόν 1
περιόδου 1
κάποια 1
Απ@@ 1
Αυτή 1
εκατομμύρια 1
ότερο 1
μηχαν@@ 1
ρου@@ 1
C 0.7616767721857004
ιού 1
εποχής 1
αγι@@ 1
έκδοση 1
ναυ@@ 1
μεσ@@ 1
ρό@@ 1
άλλο 1
Γερμανία 1
εντός 1
ολογ@@ 1
αυτής 1
ήσεων 1
Ί@@ 1
δη 1
είδος 1
ητή 1
ήγ@@ 1
αρχαι@@ 1
επίπεδο 1
ρά 1
μπορούσε 1
26 0.9649450338015007
όπουλος 1
Περ@@ 1
28 0.9905496514058012
φθ@@ 1
διάφορες 1
κάτι 1
ικα 1
όνομά 1
Αντι@@ 1
ενεργ@@ 1
σω@@ 1
κατασκευ@@ 1
πλευρά 1
διακ@@ 1
κορ@@ 1
ξι@@ 1
επέστρεψε 1
μαρ@@ 1
πόλεμο 1
άζ@@ 1
Δεν 1
Νέα 1
ίδας 1
είδη 1
ογραφία 1
άδα 1
ούρ@@ 1
νησί 1
αριθμό 1
δεκαετίας 1
τρα 1
Έλληνας 1
μαχ@@ 1
έχοντας 1
ουμε 1
εξής 1
M@@ 0.2725595995176371
εταιρεία 1
· 0.8250795144870505
μητέρα 1
P@@ 0.23393487341089075
σημ@@ 1
αναφέρει 1
100 0.7911864016987364
Γαλλίας 1
πολέμου 1
τικούς 1
συμμετοχή 1
Παγκόσμιο 1
βρισκόταν 1
περισσότερα 1
μόλις 1
θ 1
άβ@@ 1
Νε@@ 1
νης 1
ρον@@ 1
Μαρία 1
αία 1
στικό 1
ητής 1
εγκ@@ 1
έγραψε 1
Άλ@@ 1
χορ@@ 1
ιρ@@ 1
φυ@@ 1
χαρακτηριστικά 1
κάτοικοι 1
οτ@@ 1
Ένωση 1
τρί@@ 1
Κατ@@ 1
ΐ@@ 1
ονομάζεται 1
σφ@@ 1
ίνο 1
ξ 1
αϊ@@ 1
ίστηκαν 1
τικοί 1
δικα@@ 1
λίγο 1
μένοι 1
ιστεί 1
ητ@@ 1
μαν 1
Σι@@ 1
σή 1
σχε@@ 1
έρα 1
κατασκευή 1
χλμ. 1
δημιουργία 1
1990 0.9417571923303538
καριέρα 1
ποτέ 1
τιμ@@ 1
ίο 1
κρι@@ 1
οδηγ@@ 1
σον 1
Κύπελλο 1
όμενο 1
μήνες 1
δος 1
C@@ 0.2776309403383002
τοπ@@ 1
έγ@@ 1
Επι@@ 1
μφ@@ 1
έξι 1
τελικό 1
μελ@@ 1
! 0.8000031877734338
βιβλίο 1
σεων 1
αντί@@ 1
μβ@@ 1
επόμενη 1
άρα 1
27 0.9499547729022547
όχ@@ 1
ανήκει 1
Βαλ@@ 1
Επ@@ 1
6@@ 1
T@@ 0.24213089279137473
παρέμεινε 1
μει@@ 1
έν 1
Ιταλία 1
2002 0.7802805700377314
όνα 1
σημαίνει 1
χωριού 1
μόν@@ 1
τολ@@ 1
ροφ@@ 1
μη@@ 1
νη@@ 1
ίζ@@ 1
παρά@@ 1
λεγ@@ 1
σύν@@ 1
ζει 1
50 0.9321721410194159
έλ 1
από@@ 1
ραγ@@ 1
πρωτεύουσα 1
σκι 1
2020 0.5778187547125135
σημαντικό 1
περίπτωση 1
είες 1
βαθμό 1
ανδρών 1
ημάτων 1
όμενος 1
ίδ@@ 1
αγων@@ 1
2003 0.7798295038146683
οξ@@ 1
περισσότερες 1
ιστικό 1
άρ 1
καταστ@@ 1
αντ 1
Ιωάννης 1
γον@@ 1
οποίηση 1
29 0.9990691606050502
... 1
ακή 1
ίν 1
Ιωάννη 1
Εκ@@ 1
γαλλικά 1
μένης 1
Ερ@@ 1
αρχή 1
νίκη 1
πάλι 1
άκη 1
έας 1
αποτελούν 1
ιγ@@ 1
σκοπό 1
1999 0.8363520882761332
συγκ@@ 1
δημιουργ@@ 1
ιδι@@ 1
ψη 1
επαρχία 1
ώματα 1
οποίου 1
σμό 1
Παλαι@@ 1
ίζονται 1
τέσσερις 1
σώμα 1
άνα 1
Μακ@@ 1
B@@ 0.22202200102977931
θεωρ@@ 1
ψει 1
συμ@@ 1
5@@ 1
ζε 1
Εξ@@ 1
φαίνεται 1
μένου 1
άδ@@ 1
Παπ@@ 1
γιο 1
ταινίες 1
G@@ 0.21624199463974408
έκταση 1
H@@ 0.2544613389376944
ξει 1
σημαντική 1
Κύ@@ 1
ήμ@@ 1
χος 1
in 0.010736418246486459
υμ@@ 1
F@@ 0.24857615884450443
Σαρ@@ 1
μικρό 1
πληθυσμού 1
επικεφαλής 1
μένους 1
μακ@@ 1
δύναμη 1
ιτ@@ 1
κατέκτησε 1
ρύ@@ 1
D@@ 0.22000783248477118
στά@@ 1
ολογίας 1
επίσημα 1
αυτήν 1
ιστές 1
πρόγραμμα 1
άκι 1
ταν 1
Λι@@ 1
έμ@@ 1
χρον@@ 1
κατάφερε 1
Εθνικής 1
άδες 1
1η 1
τό@@ 1
R@@ 0.22990946231408618
εχ@@ 1
Θεσσαλονίκης 1
1997 0.9516601797766724
παλ@@ 1
πρόσ@@ 1
ευση 1
Έλληνες 1
ροι 1
ραν@@ 1
ξανά 1
Πέ@@ 1
αγγ@@ 1
έζ@@ 1
εκκλησία 1
Στα@@ 1
Παρίσι 1
λιο 1
σύνολο 1
εξουσία 1
πρώτες 1
φω@@ 1
κομ@@ 1
μ. 1
Αρχ@@ 1
όρους 1
αποτελείται 1
θυ@@ 1
Χά@@ 1
L@@ 0.212379036538297
γυναίκες 1
A@@ 0.2379570878368117
συνολικά 1
στερ@@ 1
διάφορα 1
ίγ@@ 1
μετρ@@ 1
οπότε 1
Πολέμου 1
μικρή 1
ίνης 1
μεγάλες 1
ίζοντας 1
έπειτα 1
οντα 1
δύ@@ 1
ψυχ@@ 1
δική 1
Σχολή 1
πορ@@ 1
ωσαν 1
απέκτησε 1
γάμο 1
μην 1
άκης 1
δί@@ 1
τησε 1
ειών 1
τεί 1
σχέδιο 1
έρ 1
απόσταση 1
ώνα 1
έτη 1
ειες 1
Κον@@ 1
αργ@@ 1
συγκρότημα 1
έι@@ 1
έφερε 1
σπίτι 1
άι@@ 1
έων 1
Κο@@ 1
Περι@@ 1
ανατολικά 1
Πι@@ 1
ωνα 1
14@@ 1
a 0.012617330557120327
ίδης 1
παραγωγής 1
αυτούς 1
πον@@ 1
3@@ 1
ισε 1
άνο 1
τοι 1
μέτρων 1
διαφ@@ 1
Φιλ@@ 1
Αμερικαν@@ 1
απλ@@ 1
μό 1
όρια 1
αγωνίστηκε 1
τεύ@@ 1
ωμα 1
πιστ@@ 1
εθνική 1
and 0.011377481525518856
Δημοκρατίας 1
άντα 1
εστ@@ 1
χαμηλ@@ 1
θέματα 1
οδήγησε 1
αναπ@@ 1
Δημ@@ 1
πληθυσμός 1
Ιν@@ 1
δημ@@ 1
1998 0.8127985950107541
πατ@@ 1
έφτασε 1
δυτικά 1
λερ 1
προέρχεται 1
κο 1
άρια 1
πολεμ@@ 1
στρατό 1
ότερες 1
Αντ@@ 1
1991 0.9335768965209438
Παλ@@ 1
θη 1
στη@@ 1
στικά 1
προκειμένου 1
κοινό 1
αρκ@@ 1
πος 1
1980 0.9821933290028895
ώνοντας 1
λευ@@ 1
άσεις 1
δρα@@ 1
άζεται 1
ναν 1
31 0.9315215132201746
γαλ@@ 1
ιου 1
Ορ@@ 1
Δημοκρατία 1
Ω@@ 1
υπήρχε 1
Πόλεμο 1
N@@ 0.22548766488575123
o 0.16180208319851186
εμβ@@ 1
Δήμου 1
ειρ@@ 1
βολ@@ 1
υψόμετρο 1
κατοικ@@ 1
στιγμή 1
ικαν@@ 1
παλαι@@ 1
Βασίλειο 1
τσι@@ 1
αση 1
μερικές 1
ύρ@@ 1
ημέρα 1
1996 0.856875717945423
φαν@@ 1
σε@@ 1
Χριστιαν@@ 1
ητική 1
ειο 1
ορο@@ 1
μέσο 1
δικό 1
A 0.1752935379300306
αρκετές 1
δου 1
ξαν 1
τσα 1
επίθεση 1
σημαντικά 1
ώσεων 1
.. 1
μή@@ 1
τορ@@ 1
χει@@ 1
ωμένη 1
απεβίωσε 1
σειράς 1
τούσε 1
αυξ@@ 1
ποδοσφαίρου 1
Αργότερα 1
ταρ@@ 1
Καν@@ 1
ουσι@@ 1
ηθ@@ 1
τηκε 1
γκα 1
br 1
πηγές 1
Τρι@@ 1
πρωταθλήματος 1
φάση 1
λυ@@ 1
E@@ 0.2500145088086906
δο 1
χή 1
βοήθεια 1
αφορά 1
κόμμα 1
ώσουν 1
γου@@ 1
ταμ@@ 1
Κολ@@ 1
μαγ@@ 1
παρουσία 1
λέξη 1
λύ@@ 1
νω@@ 1
Ελ@@ 1
βαν@@ 1
μουσ@@ 1
ίνι 1
ανό 1
Μου@@ 1
πολλούς 1
έρας 1
όνι 1
νερό 1
θέμα 1
Ένωσης 1
+ 1
ρας 1
Πά@@ 1
αρχαία 1
αναγνω@@ 1
βο@@ 1
Νέας 1
1970 1
ήρ@@ 1
αγωγ@@ 1
ητών 1
π.χ. 1
ημέρες 1
όνων 1
Νομ@@ 1
ρίν@@ 1
συμπ@@ 1
στεί 1
ξε 1
πρω@@ 1
συνα@@ 1
μέγεθος 1
άρι@@ 1
σχέσεις 1
αγγλικά 1
ρούς 1
σιο 1
πολης 1
2@@ 1
κράτος 1
ιση 1
χημ@@ 1
καλοκαίρι 1
βραβείο 1
τυπ@@ 1
ζω@@ 1
Βρεταν@@ 1
περί 1
y 0.03200113046946173
ώνουν 1
1992 0.8320483578234784
ταινίας 1
άδας 1
έλεγχο 1
ημένη 1
Μέ@@ 1
ακό 1
μέν@@ 1
αίο 1
οπλ@@ 1
πολιτικός 1
Κοιν@@ 1
διαδικασία 1
συλλ@@ 1
οικογένειας 1
2021 0.5759657796424259
χριστιαν@@ 1
εμφαν@@ 1
Κύπρου 1
μν@@ 1
Σήμερα 1
Ιταλ@@ 1
λόγο 1
1960 1
μετ@@ 1
περιλαμβάνουν 1
Πολιτείες 1
άνη 1
ρη@@ 1
νεκ@@ 1
νό@@ 1
τμήματα 1
τύπου 1
40 0.8302308245058433
παράδοση 1
ίτ@@ 1
αίνει 1
Γερμανίας 1
Ελλην@@ 1
άστηκαν 1
δημιουργήθηκε 1
γυναίκα 1
άπ@@ 1
K@@ 0.20492363180485468
δούκα 1
Κόμμα 1
τρίτη 1
Ντι@@ 1
ίδων 1
δήμο 1
Ή@@ 1
κρα@@ 1
1994 0.8227352929486803
Αυτοκρατορίας 1
κη 1
ηλεκτρ@@ 1
πτ@@ 1
κερ@@ 1
1993 0.8691934763084203
αλ 1
θεση 1
μάν@@ 1
ιπ@@ 1
Επιπλέον 1
Μέχρι 1
ταγ@@ 1
Ηνωμένες 1
γιατί 1
γυ@@ 1
χν@@ 1
ελλην@@ 1
όλους 1
Σκ@@ 1
λα 1
Πλ@@ 1
δόθηκε 1
τομ@@ 1
τέσσερα 1
Βρίσκεται 1
άζουν 1
μος 1
νέου 1
έπρεπε 1
Γεν@@ 1
ικότητα 1
όρι@@ 1
Συ@@ 1
τρα@@ 1
νέ@@ 1
τησαν 1
ίσουν 1
τροφ@@ 1
Ξ@@ 1
πολλοί 1
άλλοι 1
επικ@@ 1
δράση 1
ριστ@@ 1
βουλευτής 1
ούλ@@ 1
πό@@ 1
λειτουργία 1
O@@ 0.24360208803561573
Ιερ@@ 1
πρωτο@@ 1
ρη 1
1995 0.7929125185801653
λη 1
επηρε@@ 1
έστ@@ 1
κατοίκων 1
Υπο@@ 1
μεταλλ@@ 1
ήλ@@ 1
i 0.2560064341154629
1989 0.8971898727040818
βαλ@@ 1
γυναικών 1
όνια 1
έμεινε 1
μό@@ 1
ίνου 1
νομού 1
ρακ@@ 1
κον@@ 1
παιχνίδι 1
άνι 1
ίρ@@ 1
μαζ@@ 1
νικ@@ 1
φων@@ 1
υδ@@ 1
γι 1
τιν@@ 1
ώρες 1
Ιανουάριο 1
Σα@@ 1
Πανεπιστημίου 1
τύ@@ 1
γνω@@ 1
παντρεύτηκε 1
ιβ@@ 1
πάντα 1
φόρ@@ 1
ζεται 1
ούνταν 1
Κάρ@@ 1
πέρασε 1
συνέχισε 1
1974 1
Οικογένεια 1
° 0.949458186168448
ιακή 1
ορίζεται 1
Ρώμη 1
σουν 1
εξελέγη 1
Μουσείο 1
τραγούδια 1
απέναντι 1
υπολογ@@ 1
νά@@ 1
Μετα@@ 1
ομάδων 1
διπλ@@ 1
κάποιο 1
περιπτώσεις 1
έλα 1
ειν@@ 1
ερω@@ 1
Υπάρχουν 1
ώσ@@ 1
απ 1
πορεία 1
Αγώνες 1
Και 1
κε 1
συγγραφέας 1
ματικά 1
γκολ 1
4@@ 0.9795441267105274
ίμ@@ 1
γέν@@ 1
κλη@@ 1
κυβέρνησης 1
αμέσως 1
ασία 1
αποκ@@ 1
άνδρες 1
ποταμού 1
κανον@@ 1
κυρι@@ 1
κακ@@ 1
όμενα 1
κρί@@ 1
ισχυ@@ 1
Ευρώπης 1
λιος 1
σμού 1
Ρωσία 1
βασιλ@@ 1
ιστής 1
στής 1
στατ@@ 1
ινγκ 1
Ένας 1
Γεώργιος 1
γραμμή 1
περιέχει 1
ρκ@@ 1
καν 1
Μάρ@@ 1
Φλ@@ 1
τηση 1
αποφάσισε 1
εμφάνιση 1
Οκτώβριο 1
άθ@@ 1
δήμου 1
ματο@@ 1
ίος 1
αρι@@ 1
γράφ@@ 1
ητικό 1
άου@@ 1
V@@ 0.23823323320825923
τουλάχιστον 1
Ελλάδος 1
Σεπτέμβριο 1
Σύ@@ 1
Κυ@@ 1
οπο@@ 1
ικο 1
ισης 1
Κ 1
ημένο 1
κάστρο 1
παγ@@ 1
ανατ@@ 1
Λού@@ 1
άλα 1
σύ@@ 1
μάλιστα 1
θέν@@ 1
ριος 1
τευ@@ 1
ώνονται 1
θερ@@ 1
ούτε 1
Αγίας 1
συγκεντρ@@ 1
ργ@@ 1
μέρη 1
Βαρ@@ 1
χο 1
Άρ@@ 1
ποσοστό 1
τω@@ 1
Ιούνιο 1
αστεί 1
προβλήματα 1
τακ@@ 1
Εθνικό 1
βοηθ@@ 1
σκοπ@@ 1
λόγ@@ 1
Πρόεδρος 1
Άγιος 1
I@@ 0.3054443180429734
ασης 1
ρατ@@ 1
συγ@@ 1
ηθοποιός 1
ακολούθησε 1
όλοι 1
ύψος 1
τιμή 1
ίδη 1
συλλογή 1
χώ@@ 1
υψηλ@@ 1
Εκεί 1
εμφανίζεται 1
έτους 1
στρ@@ 1
όζ@@ 1
εθν@@ 1
λεκ@@ 1
μικ@@ 1
Βεν@@ 1
ηλι@@ 1
αμβ@@ 1
Σ 1
διοικ@@ 1
κόμη 1
φύ@@ 1
μ.Χ. 1
συνθήκες 1
Λέ@@ 1
στές 1
W@@ 0.18457076554179183
ται 1
Ρου@@ 1
Ε.@@ 1
αποφ@@ 1
σιος 1
Λε@@ 1
εκδ@@ 1
πους 1
πλο@@ 1
Α. 1
τοπική 1
συνεργασία 1
ουσα 1
ταχ@@ 1
τραυματ@@ 1
Μπαρ@@ 1
ηματ@@ 1
Μάιο 1
θερμ@@ 1
Μελ@@ 1
ελι@@ 1
ησι@@ 1
αρ 1
χρησιμοποιούνται 1
Κάτω 1
επιτυχ@@ 1
έδ@@ 1
εντ@@ 1
συγκεκριμένα 1
τρια 1
1940 1
ξεις 1
εξ 1
τελευταίο 1
αλληλ@@ 1
εμπο@@ 1
οστ@@ 1
ματικό 1
φέρει 1
ικ 1
I 0.2282101639310929
κοιν@@ 1
κίνηση 1
ελληνικό 1
θεωρία 1
Μάρτιο 1
αναγ@@ 1
ηθούν 1
κύρια 1
γαλλική 1
οφ 1
άνης 1
Ιούλιο 1
στ 1
Σαλ@@ 1
υπήρχαν 1
σχηματ@@ 1
άλλ@@ 1
σημει@@ 1
έξ@@ 1
νομό 1
μή 1
κοσμ@@ 1
60 0.9714563035638739
μέση 1
δικ@@ 1
εντ 1
έρν@@ 1
ισσ@@ 1
συγκροτήματος 1
έπαιξε 1
κορυφ@@ 1
o@@ 0.24716469275033065
τέρ@@ 1
μύ@@ 1
χαρακτήρα 1
Αύγουστο 1
γεω@@ 1
πραγματοποιήθηκε 1
Κομ@@ 1
επίσημη 1
πολιτι@@ 1
προσπάθεια 1
άχ@@ 1
ζουν 1
διδ@@ 1
ήσ@@ 1
κύριο 1
Οίκο 1
βρέθηκε 1
οποίας 1
ώματος 1
Αγγλίας 1
βρα@@ 1
έλλ@@ 1
Ασ@@ 1
Εργ@@ 1
ναός 1
Δήμος 1
ατική 1
σμός 1
Παγκοσμίου 1
κορυφή 1
διοίκηση 1
ανού 1
απέ@@ 1
Αμερική 1
ιμο 1
παράλληλα 1
ρίζεται 1
ρες 1
ρική 1
1.@@ 1
Αμ@@ 1
Κωνσταντινούπολη 1
ράς 1
Νικ@@ 1
ψης 1
άει 1
κατηγορίας 1
επτά 1
Συμ@@ 1
γενικά 1
κλει@@ 1
Κι@@ 1
αντίθεση 1
τηκαν 1
γειτον@@ 1
καμπ@@ 1
έγκ@@ 1
προβλ@@ 1
λειτουργ@@ 1
Μαλ@@ 1
Τρί@@ 1
τια 1
αρχία 1
ψε 1
χαλ@@ 1
κράτους 1
θος 1
ολογική 1
έδαφος 1
εργάστηκε 1
άντ@@ 1
Βόρεια 1
επόμενο 1
ρών 1
λος 1
υπέγραψε 1
Δεκέμβριο 1
Μπι@@ 1
ίσως 1
άσεων 1
δα 1
S 0.6448553205448777
Τζον 1
λιγ@@ 1
ασαν 1
μικρο@@ 1
Κατα@@ 1
ρίων 1
Πρ@@ 1
x 0.5057073281391654
Αυτοκρατορία 1
αποτελέσματα 1
ερμην@@ 1
Γερμαν@@ 1
ειδικά 1
υποστήριξη 1
Εκκλησία 1
άμπ@@ 1
διοργάνωση 1
ωνική 1
1981 0.9716507860692057
άνου 1
στή 1
άζονται 1
ασι@@ 1
άνιο 1
Α.@@ 1
Αγία 1
έρευνα 1
συνεργ@@ 1
έργου 1
αντίστοιχα 1
μελέτη 1
ανέ@@ 1
καθαρ@@ 1
Πρά@@ 1
άνθρωποι 1
όμενες 1
άλη 1
κό@@ 1
σπουδές 1
αθλη@@ 1
Νοέμβριο 1
στρατού 1
Γαλ@@ 1
μισ@@ 1
τιο 1
Πολωνίας 1
εδάφη 1
άνει 1
Ψ@@ 1
ανθ@@ 1
ρό 1
Χρυσ@@ 1
πυ@@ 1
ωπ@@ 1
μιλ@@ 1
λει@@ 1
1950 0.9580167226064107
Μεσ@@ 1
λλο 1
υψ@@ 1
ένωση 1
ορισμένες 1
συμμετείχαν 1
σο@@ 1
Π 1
παρακάτω 1
συστήματος 1
άλ 1
Όπως 1
υπηρε@@ 1
Κερ@@ 1
μέρα 1
θρόνο 1
Μαν@@ 1
βα@@ 1
συμβολ@@ 1
us 0.2085979344117048
Αγγλία 1
τώρα 1
σ 1
ίνος 1
ημερ@@ 1
εύεται 1
ρυθμ@@ 1
αναπαρ@@ 1
d 0.13566291412139686
στών 1
θύ@@ 1
Απρίλιο 1
δρο@@ 1
on 0.026429781174104806
επο@@ 1
σχολ@@ 1
Εκτός 1
κόρης 1
τέχνης 1
οποίους 1
σύνθεση 1
ίνας 1
γλώσσες 1
όντων 1
1@@ 1
αδελφός 1
πολι@@ 1
όδ@@ 1
ηδ@@ 1
υπουργός 1
δημο@@ 1
Μιχαήλ 1
τελική 1
τυχ@@ 1
αζε 1
ώδη 1
παραγωγ@@ 1
εμφανίστηκε 1
ρίες 1
διαθέτει 1
Παρά 1
πληροφορίες 1
ασε 1
δήλωσε 1
γύ@@ 1
βιβλία 1
τήρ@@ 1
δίδ@@ 1
έμπ@@ 1
τηλε@@ 1
Πολων@@ 1
κυκλ@@ 1
πόν@@ 1
ισχυρ@@ 1
ανθρώπους 1
ασσ@@ 1
τή@@ 1
ανατολική 1
κλι@@ 1
Λιγκ 1
Ελλήνων 1
t 0.12976274691926049
λόγους 1
ανός 1
80 1
εντά@@ 1
λιγότερο 1
νο 1
ητικά 1
εκτελ@@ 1
εξαιτίας 1
επαρχίας 1
περίοδος 1
όριο 1
ραβ@@ 1
αίας 1
μέρες 1
ποδ@@ 1
Τη 1
σχολείο 1
κόσμου 1
ίδιου 1
ωνίας 1
χών 1
άρκ@@ 1
Σά@@ 1
δήμος 1
στρατ@@ 1
έξω 1
n 0.25198438481964797
χά@@ 1
οικονομική 1
έρι 1
ρίζει 1
μουσικής 1
Δήμο 1
συμφωνία 1
ηλεκτρον@@ 1
1945 0.7016175183403618
τσι 1
m 0.21029913219240087
εζ@@ 1
επιφάνεια 1
ρεκόρ 1
μορφ@@ 1
1985 0.8478704294779338
αστική 1
σημερινή 1
1944 0.92555028282773
βιτς 1
ομοι@@ 1
Είχε 1
σκλη@@ 1
πί@@ 1
τρο 1
ματά 1
υδρο@@ 1
Βερ@@ 1
άρχισαν 1
ίνες 1
περιφέρεια 1
σμα 1
Μπου@@ 1
εκπαιδευ@@ 1
ρεύ@@ 1
εύει 1
πολη 1
νησιού 1
ψεις 1
Φι@@ 1
χρησιμοποιήθηκε 1
απόφαση 1
τρίτο 1
δίνει 1
συνδυ@@ 1
γράφει 1
διοικητική 1
ήττα 1
εντάχθηκε 1
αντί 1
δημιούργησε 1
χθηκε 1
μίας 1
Αργ@@ 1
αποτέλεσε 1
κάποιες 1
ύλ@@ 1
πυρ@@ 1
αρχηγός 1
θμ@@ 1
λή@@ 1
1988 0.745459085172378
ώνης 1
υπέρ 1
Μερ@@ 1
Αλεξ@@ 1
εκπαίδευση 1
περιοδικό 1
αναφέρονται 1
δικαι@@ 1
1986 0.8042459857631168
Πολωνία 1
κοπ@@ 1
ικώς 1
κυβερν@@ 1
χές 1
πηγή 1
πνευ@@ 1
τίτλος 1
Χρ@@ 1
θέατρο 1
κλασ@@ 1
μεγάλα 1
200 0.8746468914723766
έργων 1
αρχική 1
Πολι@@ 1
άρχ@@ 1
Τελικά 1
ντεμπούτο 1
άρχης 1
ωνία 1
ιακό 1
ζαν 1
Πολ@@ 1
ιαν@@ 1
ιχ@@ 1
κατηγορίες 1
καθηγητής 1
ολογικό 1
ανδ@@ 1
σί@@ 1
δημοσι@@ 1
μπουργκ 1
αγορά 1
ίδρυση 1
υλικό 1
19ου 1
Κό@@ 1
πολλών 1
Όμως 1
κατέλαβε 1
κόμματος 1
σπουδ@@ 1
ιου@@ 1
αγκ@@ 1
ελληνικής 1
άνια 1
ψουν 1
ησ@@ 1
Ρωσίας 1
διαβ@@ 1
Μακεδονίας 1
Αστ@@ 1
1987 0.7840468920335387
Ιταλίας 1
Στ@@ 1
Ομ@@ 1
παραπάνω 1
Π.@@ 1
μαλ@@ 1
βολή 1
χωριά 1
ίτες 1
οχή 1
κω@@ 1
αγρο@@ 1
σύνορα 1
μετέπειτα 1
Βασιλ@@ 1
πλαίσιο 1
ψαν 1
ιας 1
δηλ@@ 1
λογία 1
ίχ@@ 1
ότητά 1
ορίστηκε 1
οτήτων 1
διοργαν@@ 1
Χαρ@@ 1
θάνατό 1
μονα@@ 1
οί@@ 1
αναφορά 1
αλλαγή 1
κομμάτι 1
ενδιαφέρον 1
τήσει 1
Ισπαν@@ 1
στό 1
ιστικής 1
ξέν@@ 1
θεραπεία 1
ταξι@@ 1
στρατιώτες 1
αυτοκράτορα 1
ανακοίνωσε 1
σχέδια 1
ακολουθεί 1
συλλόγου 1
αμερικαν@@ 1
παρατηρ@@ 1
λάβει 1
ϋ@@ 1
σημαντικές 1
έχασε 1
πόντους 1
άσουν 1
στικής 1
ζήτησε 1
ηφ@@ 1
ζη@@ 1
όρου 1
1920 1
Λονδίνο 1
αντα@@ 1
υθ@@ 1
ήρθε 1
λευκ@@ 1
Γεωργίου 1
οδος 1
άδων 1
ίδρυσε 1
επισκ@@ 1
Θεσσαλονίκη 1
δεκα@@ 1
τεν@@ 1
πλοία 1
οργάνωση 1
1975 0.8379136090760946
αγωγή 1
ιστών 1
Δια@@ 1
επίδραση 1
οκτώ 1
κοινότητας 1
περισσότεροι 1
1984 0.7850083161721226
δρομ@@ 1
δης 1
δυνατότητα 1
ιστούν 1
1982 0.8318366308041087
έστειλε 1
500 0.919476073699631
Κωνσταντίνος 1
παρουσι@@ 1
ϊ 1
ναό 1
τελε@@ 1
εικον@@ 1
Καλλικράτης 1
Ενώ 1
Παράλληλα 1
σι 1
et 0.023396876630789473
Λα@@ 1
Στρ@@ 1
Κρι@@ 1
11@@ 1
Ντά@@ 1
παιδί 1
σιμο 1
εκστρατεία 1
θάλασσα 1
ώρ@@ 1
χα@@ 1
τοκ@@ 1
Φεβρουάριο 1
ατζ@@ 1
άτες 1
έτ@@ 1
που@@ 1
Ηνωμένων 1
τομέα 1
άνω 1
χι@@ 1
Σαν 1
νερού 1
ρι 1
Ακ@@ 1
Ελληνική 1
πρωταγων@@ 1
εξέλιξη 1
σχήμα 1
εντοπ@@ 1
ριζ@@ 1
ισμούς 1
Αρχικά 1
έτα 1
αποκαλ@@ 1
θεατρ@@ 1
Αντί@@ 1
Ντα@@ 1
οντ@@ 1
70 1
τερο 1
ορθ@@ 1
εξωτερ@@ 1
γραφή 1
δών 1
ώνη 1
1979 0.8309120128976069
δού@@ 1
ιταλ@@ 1
πραγματικότητα 1
O 0.4707934567155629
δώσει 1
συμπεριλαμβανομένων 1
άποψη 1
πήγε 1
σμούς 1
άζοντας 1
ράφ@@ 1
οιν@@ 1
προγραμματ@@ 1
διέ@@ 1
Βασιλείου 1
Γκα@@ 1
ξουν 1
Μικ@@ 1
1967 0.9378843773886808
ύλου 1
ήν@@ 1
ιδιω@@ 1
διεξήχθη 1
ϊκ@@ 1
Χάρ@@ 1
Κύπρο 1
δομή 1
ογραφ@@ 1
Νέ@@ 1
κόμ@@ 1
διορίστηκε 1
θυμ@@ 1
χιλι@@ 1
άι 1
συμβόλαιο 1
ψήφ@@ 1
θηση 1
Βυζαντιν@@ 1
ελληνικά 1
αύξηση 1
ισαν 1
φι@@ 1
εαυτό 1
ατρ@@ 1
μπου@@ 1
στόχο 1
τεν 1
Πατ@@ 1
μπορούσαν 1
παρουσιάζει 1
όρων 1
ανήκε 1
1941 0.8949742768963886
σου 1
1912 1
ίτη 1
νέων 1
στεν@@ 1
σύντομα 1
κος 1
ωμένο 1
Σω@@ 1
φυλ@@ 1
σαρ@@ 1
κης 1
90 1
χής 1
κυκλοφορία 1
μπι 1
πο 1
έννοια 1
ίρ 1
Συμβούλιο 1
τριών 1
νόμ@@ 1
διεξ@@ 1
ώνας 1
πιθαν@@ 1
πρόσωπο 1
εφημερίδα 1
” 0.2860806936067979
Αθήνας 1
Ισπανία 1
Ρώσ@@ 1
πηγ@@ 1
ουργ@@ 1
ιστο@@ 1
Δυ@@ 1
ρωσ@@ 1
δέκα 1
ηκε 1
κου 1
όδου 1
γεγονότα 1
λλα 1
σο 1
δικαιώματα 1
εργασία 1
σωματ@@ 1
ασθεν@@ 1
νησιά 1
στρατιωτική 1
όγκ@@ 1
διαδέχθηκε 1
έι 1
αποστολή 1
δεύτερος 1
εκκλησι@@ 1
2.@@ 1
δικαίωμα 1
Ασία 1
Στέ@@ 1
τισε 1
εκείν@@ 1
λεύ@@ 1
Μεταξύ 1
Ατ@@ 1
ζωγράφ@@ 1
λεπτά 1
ύγ@@ 1
Κόμματος 1
ίπ@@ 1
ταυ@@ 1
γλ@@ 1
ριση 1
στικές 1
τιος 1
έναντι 1
χθεί 1
ιδέα 1
“ 0.08742969224647328
Ι 1
μοντέλο 1
1978 0.8288984216173735
L 0.4222571173204914
μορφές 1
εάν 1
νες 1
ιντ 1
εργασίες 1
1983 0.783363760991712
λειτουργεί 1
Σαμ@@ 1
σταυ@@ 1
πραγματ@@ 1
ίους 1
ενέργεια 1
χαρακτη@@ 1
τισ@@ 1
πεζ@@ 1
συστήματα 1
τάφ@@ 1
είδ@@ 1
ολογικά 1
παπ@@ 1
στερ 1
τεχνική 1
Εφ@@ 1
συνέ@@ 1
πα 1
Γερ@@ 1
1973 0.838697273075354
εικόνα 1
Αχ@@ 1
γρήγορα 1
ην 1
μην@@ 1
κεφαλ@@ 1
έζησε 1
γνωστοί 1
πολιτικής 1
γαλλ@@ 1
διευθυντής 1
1976 0.813052667497796
Ναυ@@ 1
ιώ@@ 1
Επιτροπής 1
συζύγου 1
βεν@@ 1
1930 0.9828567888425088
λέγεται 1
νου 1
επιρροή 1
ημι@@ 1
πραγματοποι@@ 1
Κού@@ 1
φρά@@ 1
ταυτόχρονα 1
Κατηγορία 1
ισμένη 1
είπε 1
συχν@@ 1
αρν@@ 1
όνο 1
ιλι@@ 1
λου 1
1977 0.8517869627786513
ισμένο 1
νών 1
εκδοχή 1
χώρ@@ 1
σημασία 1
σύλλογος 1
1971 0.8163993630514216
εφ 1
γύρο 1
ούσ@@ 1
είδους 1
R 0.5796896905605229
άρχη 1
κριτική 1
μερικά 1
σκορ 1
πληρ@@ 1
αδελφό 1
αρνη@@ 1
Επιτροπή 1
Πριν 1
αερ@@ 1
δευ@@ 1
δίκτυο 1
τάν@@ 1
ωνικό 1
γη 1
καιν@@ 1
εσωτερικό 1
συναντ@@ 1
οικογεν@@ 1
έδρας 1
δω@@ 1
κη@@ 1
σελ@@ 1
ιδρύ@@ 1
περιβάλλον 1
προσπαθ@@ 1
1972 0.7642553322901413
e@@ 0.1362622783909771
άνοντας 1
Ρό@@ 1
ομιλ@@ 1
1968 0.7944088276422557
πάρει 1
ευσε 1
δρόμο 1
γκο 1
ιστή 1
ογράφ@@ 1
γ 1
ατα 1
επιπλέον 1
ότερος 1
θερμοκρασία 1
χρησιμοποιεί 1
ειά 1
χρόνου 1
ξεν@@ 1
ξη@@ 1
κτίριο 1
σύζυγος 1
1964 0.883192304718674
εφαρμογή 1
ινή 1
πρώτου 1
όρ 1
ατών 1
ωγ@@ 1
εταιρείας 1
κατε@@ 1
γγ@@ 1
καταγωγή 1
ιδρυ@@ 1
Λί@@ 1
ανώ@@ 1
λω@@ 1
Μεγάλη 1
Γαλλ@@ 1
τούς 1
ακριβώς 1
Άννα 1
ζόταν 1
αποτελούσε 1
ίτης 1
ανάλογα 1
κατ 1
Τότε 1
ήτρια 1
ανταγων@@ 1
φαιν@@ 1
κεντρική 1
Κ. 1
μάχ@@ 1
ίκη 1
1961 0.981896759005228
Αμπ@@ 1
εξωτερικό 1
Εκκλησίας 1
πλά@@ 1
Αφρική 1
ότερους 1
Τσι@@ 1
ραμ@@ 1
τερματ@@ 1
αντά@@ 1
αλλαγές 1
ποταμό 1
χρονικό 1
δημόσια 1
έρχεται 1
Αυ@@ 1
Βιογραφικά 1
ακολουθ@@ 1
Νό@@ 1
βυζαντιν@@ 1
1939 0.8681071857972498
μεθ@@ 1
ίσεις 1
προστασία 1
πλειοψηφία 1
άλια 1
ρή@@ 1
επαγγελματ@@ 1
σταθερ@@ 1
έβαλε 1
υπουργ@@ 1
32 0.9458670822013286
Μπλ@@ 1
αγορ@@ 1
λεπ@@ 1
ποδοσφαι@@ 1
ροί 1
ερι@@ 1
οντες 1
αι. 1
δομ@@ 1
ρασε 1
ατικό 1
θήκης 1
δολάρια 1
χώρος 1
Κοινότητα 1
αγωνίζεται 1
ριακ@@ 1
κάνουν 1
αξ@@ 1
σημεία 1
Φρ@@ 1
άλης 1
αυτοί 1
αίου 1
καταγωγής 1
παραλ@@ 1
1821 1
e 0.12015696662563566
σύγχρον@@ 1
κράτη 1
μές 1
ρν@@ 1
Ολυμπιακούς 1
έτο 1
επίσκοπος 1
Λόγω 1
πρώτης 1
Καστ@@ 1
έφεραν 1
παραδ@@ 1
τύπος 1
κομμουν@@ 1
1963 0.9220992793839644
Θεοδ@@ 1
λεια 1
διαφορετικές 1
καθεστώς 1
ινγκ@@ 1
γνωστά 1
ποδοσφαιριστής 1
χρυσ@@ 1
ώνες 1
βιομηχαν@@ 1
μης 1
άνοδο 1
ετο@@ 1
U@@ 0.25394367425131836
γραμμ@@ 1
δυνάμεων 1
παραμένει 1
δίπλα 1
υπηρεσίες 1
δρά@@ 1
Μουσ@@ 1
αναδείχθηκε 1
παρακ@@ 1
υχ@@ 1
Κάρολος 1
έκαναν 1
σας 1
μεγαλ@@ 1
H 0.8371054049611532
γονείς 1
Νότια 1
p 0.31090281601179737
πίνακα 1
F 0.5851051101534058
αστυνομ@@ 1
μεγαλύτερος 1
Καθώς 1
παιδ@@ 1
to 0.008821761242533666
επιλογή 1
D 0.46562596051158694
άσσ@@ 1
δια 1
υπηρέτησε 1
απαι@@ 1
ανασ@@ 1
βάρος 1
θεσε 1
ορ 1
μονή 1
επιστροφή 1
κρά@@ 1
ύπαρξη 1
αποσπ@@ 1
νευ@@ 1
# 1
ανοιχ@@ 1
αισθη@@ 1
μετάλλιο 1
τούσαν 1
πολιτικό 1
μπροστά 1
Δ. 1
ησή 1
ιστορικό 1
προπονητής 1
παράγεται 1
Αφού 1
Μιλ@@ 1
λαμβάνει 1
ήχ@@ 1
άτ@@ 1
er 0.03382368819959707
θέσεων 1
ανι@@ 1
εικ@@ 1
ιστικά 1
προσπάθησε 1
εμφανίσεις 1
διετέλεσε 1
ονομάστηκε 1
άρη 1
πρόβλημα 1
υπόθεση 1
μήνα 1
είτο 1
παι@@ 1
γράφηκε 1
ορισμό 1
βερ@@ 1
σύγχρονη 1
ασίας 1
ιδε@@ 1
εργασίας 1
Γκου@@ 1
δέχτηκε 1
δεκ@@ 1
εκδόσεις 1
1943 0.8441897102745423
γλώσσας 1
ηχ@@ 1
φρ@@ 1
Χριστ@@ 1
s@@ 0.09013854449616775
βρ@@ 1
1969 0.7995122007277919
βου@@ 1
έφυγε 1
συμφ@@ 1
ίστ@@ 1
Χαλ@@ 1
ανθρώπων 1
μικρά 1
Ερρίκος 1
τικότητα 1
πλοκ@@ 1
νίκες 1
1946 0.8921567868246031
ηγεσία 1
βελτι@@ 1
35 0.8402130550901795
αφιερ@@ 1
χρησιμοποιώντας 1
κατόπιν 1
λιμάνι 1
άνθρακα 1
χωρ@@ 1
γνώ@@ 1
φασ@@ 1
ζονται 1
καλά 1
Ρομ@@ 1
νέες 1
ωρι@@ 1
κερδίσει 1
τοποθε@@ 1
um 0.13280569915119986
επεκ@@ 1
Μο@@ 1
πεί@@ 1
εσωτερ@@ 1
επαναλ@@ 1
σταδιοδρομία 1
χρει@@ 1
ιστορίας 1
ονόματα 1
στρατεύματα 1
X 0.5720573415776511
Όσκαρ 1
Κυπέλλου 1
τάν 1
ανή 1
To 1
χρώμα 1
δοκ@@ 1
επιχειρήσεις 1
ιω@@ 1
Πέθανε 1
ναού 1
Άγιο 1
αίνουν 1
τροπ@@ 1
σχέ@@ 1
στοιχείο 1
αντιμετωπ@@ 1
γνωστ@@ 1
Σε@@ 1
ρισ@@ 1
οδό 1
ανδρ@@ 1
δημοκρατ@@ 1
στεγ@@ 1
χειρο@@ 1
θρησκευ@@ 1
ουντ 1
τζ 1
στάδιο 1
ιτς 1
έλη 1
μυθ@@ 1
τέχνη 1
εξαιρετικά 1
Αλέξανδρος 1
διάσ@@ 1
παί@@ 1
καλύτερη 1
τύπο 1
θου 1
στρατός 1
τήριο 1
στες 1
έκθεση 1
σκα 1
αρχηγ@@ 1
Υπήρξε 1
ιους 1
μάχης 1
δεδομένων 1
αδελφ@@ 1
φερ@@ 1
ενάντια 1
Συμβουλίου 1
αντζ@@ 1
γενε@@ 1
δεξι@@ 1
ιες 1
Αι@@ 1
Ευρωπαϊκό 1
αιρε@@ 1
μεγάλου 1
κεντρ@@ 1
έδειξε 1
σημείωσε 1
υπηρεσία 1
1965 0.8127936838596036
συμφων@@ 1
απο 1
an 0.02301573336788421
θο 1
ιατρ@@ 1
ενσωματ@@ 1
χθηκαν 1
αεροπο@@ 1
πρωταθλήματα 1
σκηνή 1
ιοι 1
J@@ 0.1698224073653492
ρή 1
προκάλεσε 1
πεδίο 1
άσκ@@ 1
αξία 1
πρωθυπουργός 1
γραμ@@ 1
απε@@ 1
διά 1
ξε@@ 1
χωρι@@ 1
αι 1
B 0.33099754300655304
όνας 1
όροι 1
Μι@@ 1
υπέ@@ 1
άσματα 1
ειακή 1
σει@@ 1
ωματ@@ 1
έδρες 1
αγγλ@@ 1
ρεμ@@ 1
σκηνοθεσία 1
στικών 1
οντάς 1
Σερ@@ 1
ωνε 1
Βραβείο 1
περιφερ@@ 1
ίωση 1
άτομο 1
αρχι@@ 1
δεδομένα 1
παιχνίδια 1
γνώρισε 1
ειακό 1
20@@ 1
Καμ@@ 1
1918 0.9417088488609208
χρω@@ 1
όνη 1
ονίας 1
χρησιμοποιηθεί 1
ιακά 1
ικότητας 1
ερν@@ 1
πιθανώς 1
μήκους 1
τοποθεσία 1
χέρια 1
δευτερ@@ 1
προηγ@@ 1
ολόγος 1
άμε@@ 1
Z@@ 0.17957792477047288
σώματος 1
μπερ@@ 1
Μάχη 1
όλε@@ 1
πλη@@ 1
τουρκ@@ 1
τερμάτισε 1
προσπάθειες 1
έσει 1
γράψει 1
al 0.05295116654794154
οργ@@ 1
Τρ@@ 1
καιρό 1
ζωνταν@@ 1
1966 0.8042472726697724
Άνω 1
εύτηκε 1
ποίηση 1
αποστ@@ 1
έναρξη 1
Ηνωμένο 1
ξυλ@@ 1
αιν@@ 1
Μπερ@@ 1
σιμη 1
ύστερα 1
Πορ@@ 1
σκοτ@@ 1
Σπούδασε 1
ογεν@@ 1
διατηρ@@ 1
is 0.016599822127422996
μελών 1
χαρακτηριστικό 1
χρυσό 1
Έπειτα 1
αποφασ@@ 1
ρωμαϊκ@@ 1
μάν 1
οικογένειες 1
Διοικ@@ 1
πρωτ@@ 1
Μ 1
Μία 1
θήκη 1
προκρι@@ 1
χάρη 1
τέκνα 1
αποτελ@@ 1
πραγματοποίησε 1
Διακ@@ 1
ολοκληρώθηκε 1
χρονιάς 1
Ισπανίας 1
ινό 1
γραμμές 1
εση 1
φά@@ 1
Του@@ 1
μεγάλης 1
αντικείμενο 1
εχθρ@@ 1
αρνήθηκε 1
καμία 1
αμυν@@ 1
300 0.9960632802504927
σοβιε@@ 1
Βασ@@ 1
Πρω@@ 1
Κρήτης 1
μετά@@ 1
Ν 1
έτ 1
ωλ@@ 1
Δικα@@ 1
εθνικής 1
σχολή 1
ακ 1
ωνο 1
θητεία 1
κέρ@@ 1
πού@@ 1
ενέργειας 1
λαβ@@ 1
κεν@@ 1
τηθεί 1
έλαβαν 1
εκφρά@@ 1
ψηλ@@ 1
μι 1
φον 1
τισμού 1
κοινή 1
ξεων 1
ρισε 1
κού@@ 1
1928 1
Σύστημα 1
βολής 1
ώνων 1
ίλ 1
ανακαλύ@@ 1
ατομ@@ 1
Γεωγραφία 1
οίκ@@ 1
δαν@@ 1
Κιν@@ 1
Κίνα 1
δων 1
λίμνη 1
ρικών 1
τορα 1
βαθμούς 1
υβ@@ 1
φυσική 1
τελευταίος 1
ing 0.04935383296979651
ωμ@@ 1
φυλακ@@ 1
πρόταση 1
δραστηριότητες 1
ήθελε 1
σκ 1
Φω@@ 1
ευρωπαϊκ@@ 1
λαϊκ@@ 1
αιο 1
ολόκληρη 1
κίνημα 1
Πα@@ 1
ικη 1
Να@@ 1
όμενοι 1
δρόμου 1
φαν 1
διορ@@ 1
σπούδασε 1
Μαγ@@ 1
μάχες 1
ΣΤ 1
γα 1
υνση 1
45 0.7682514052213048
αποδ@@ 1
κυριαρχία 1
ιστικού 1
λι 1
βασίλειο 1
προσκ@@ 1
1947 0.8903163996592384
ούδ@@ 1
el 0.01859661910920499
Ντε@@ 1
δραστηριότητα 1
a@@ 0.22320786454531794
Βο@@ 1
παρελθόν 1
χρησιμοποιούν 1
άλλαξε 1
βο 1
βάλλ@@ 1
ουά 1
σταθμός 1
μετακιν@@ 1
Νικολ@@ 1
Καναδά 1
ήλθε 1
εισβολή 1
σημερινό 1
ίκα 1
καθολ@@ 1
πρωταθλ@@ 1
μαγνη@@ 1
βίντεο 1
δου@@ 1
ίνων 1
συμμετοχές 1
Ιαπωνία 1
ατο@@ 1
Τουρκία 1
ελε@@ 1
Αιγ@@ 1
ούμεν@@ 1
αδελφή 1
αξιωματ@@ 1
πεν@@ 1
ευσης 1
άλι 1
τός 1
ίσματος 1
νέος 1
πολίτες 1
ατόμων 1
Πε@@ 1
βελ@@ 1
ονα 1
περαιτέρω 1
ρικό 1
διαθέ@@ 1
καλλιτέχνες 1
διαφορά 1
ανίας 1
χιλιάδες 1
σου@@ 1
ισμοί 1
φέρ@@ 1
διευ@@ 1
Αρχαι@@ 1
διο 1
άσης 1
σβ@@ 1
P 0.5779813792550045
χλ@@ 1
σιν@@ 1
ελληνικού 1
μορ@@ 1
εκλογ@@ 1
οξύ 1
Σοβιετική 1
αντικείμενα 1
σαφ@@ 1
δυν@@ 1
πολιτικές 1
αγαπ@@ 1
άγνω@@ 1
μευ@@ 1
περιστ@@ 1
ακριβ@@ 1
παίκτης 1
1948 0.8050081080801339
Αμερικής 1
σύζυγό 1
1958 0.8322410651640686
δείχνει 1
Ισ@@ 1
Κάθε 1
Τέλος 1
κωμ@@ 1
διεθνή 1
πτώση 1
ελευθερ@@ 1
αρτη@@ 1
Έκ@@ 1
Τέ@@ 1
πρίγκιπα 1
δικά 1
κοινων@@ 1
επαφή 1
αγωνιστική 1
κανείς 1
μεταφορά 1
Καριέρα 1
1962 0.7932653764558815
χρώματα 1
τάξη 1
Μονή 1
επανάσταση 1
συγκεκριμένη 1
Κρί@@ 1
ξεκίνησαν 1
προστ@@ 1
Που@@ 1
αύ@@ 1
σκόπ@@ 1
1956 0.8184967545256663
Ζαν 1
ρός 1
Μυ@@ 1
Γιώργος 1
ακού 1
άτα 1
Μορ@@ 1
μοναστήρι 1
ia 0.20819452221463097
πλοίο 1
συρ@@ 1
Αρχι@@ 1
Πρόκειται 1
γερμαν@@ 1
δέ@@ 1
άτο 1
Σί@@ 1
μοναδικό 1
λεξ@@ 1
V 0.4793763260678605
γλωσσ@@ 1
Μπέ@@ 1
Βου@@ 1
Ελισάβετ 1
ήγηση 1
θαν@@ 1
Αραβ@@ 1
διών 1
συμπερι@@ 1
Δύο 1
Λονδίνου 1
οθε@@ 1
συνηθ@@ 1
διότι 1
ΦΚ 1
προϊόντα 1
διώ@@ 1
Πειραιά 1
Ουρ@@ 1
Ακαδημία 1
διαφορετικά 1
ορειν@@ 1
αντιπροσωπ@@ 1
ενα@@ 1
ματικές 1
σεν@@ 1
ερμηνεία 1
πίεση 1
Τουρκ@@ 1
μάτια 1
ημένα 1
αισ@@ 1
ίκης 1
κεντρικό 1
λέει 1
ούζ@@ 1
και@@ 1
Γη 1
ηθοποι@@ 1
μού 1
εύουν 1
κομμάτια 1
Φαρ@@ 1
ίσματα 1
Ανατολικής 1
όπουλου 1
εθνικ@@ 1
επίπεδα 1
τήθηκε 1
g 0.24899047431036897
ραφ@@ 1
μενη 1
βιομηχανία 1
la 0.007462694838256698
εδώ 1
νεο@@ 1
Τελ@@ 1
καταστροφή 1
Καζ@@ 1
Σημ@@ 1
μεγαλύτερες 1
δεκαετίες 1
πουλ@@ 1
ανία 1
ονες 1
γερ@@ 1
δίσκο 1
τοξ@@ 1
κατάκτηση 1
δό@@ 1
ισσας 1
πν@@ 1
μικρές 1
οικονομικά 1
ρευ@@ 1
ίλι@@ 1
μυθιστόρημα 1
παθ@@ 1
ονία 1
φιλοξεν@@ 1
Τι@@ 1
Αυτός 1
αποκλειστικά 1
δυτική 1
l 0.08966867285896243
Σελ@@ 1
όντα 1
es 0.0305152611915984
επέ@@ 1
μεταφέρθηκε 1
μπα 1
Μάν@@ 1
μετονομάστηκε 1
ρίσει 1
ινο 1
μεθυλ@@ 1
αρχικό 1
1919 0.9302135347220479
Ομοσπονδία 1
Στους 1
αρχίας 1
ητικές 1
επόμενα 1
Υόρκης 1
δουλειά 1
πράξη 1
μόνη 1
Σοσιαλ@@ 1
αντίδραση 1
σιμ@@ 1
μισό 1
απλά 1
ογράφος 1
ετή 1
μάλλον 1
ρούν 1
ορισμένα 1
κων 1
βρά@@ 1
Τιμ@@ 1
ιστικές 1
κείμενο 1
ρίστηκε 1
στρα@@ 1
κάποιος 1
δοκιμ@@ 1
1955 0.8666793124284466
Σταυ@@ 1
ακού@@ 1
διαγωνισμό 1
0,@@ 1
πόλεμος 1
Πολιτειών 1
φυσικό 1
n@@ 0.11937601304799325
Βλ@@ 1
Σάν@@ 1
γυναικ@@ 1
μακριά 1
ανεξαρτησία 1
βγ@@ 1
συγκεκριμένο 1
Τά@@ 1
Κρ@@ 1
άλου 1
ενότητα 1
βρεθεί 1
εξέγερση 1
ετ 1
οποίησης 1
ολοκληρ@@ 1
πρεσβ@@ 1
σενάριο 1
άντ 1
κατοχή 1
φύση 1
1959 0.8112229410042786
κρυ@@ 1
νά 1
στασ@@ 1
επιτε@@ 1
γερμανική 1
ακής 1
Αγγλ@@ 1
Δημο@@ 1
άδης 1
διοικητής 1
μεσαι@@ 1
πέτυχε 1
δραστηρι@@ 1
μός 1
ανατολ@@ 1
σκην@@ 1
ουδ@@ 1
επιστρέψει 1
ασφαλ@@ 1
ιππ@@ 1
σιμα 1
συνδυασμό 1
3.@@ 1
επιχειρηματ@@ 1
καλαθοσφαίρισης 1
ταχύτητα 1
ανο@@ 1
τελευτα@@ 1
μιν@@ 1
ούμενη 1
T 0.4588866779184724
δούκας 1
θέτει 1
τοί 1
βρεταν@@ 1
Τύ@@ 1
Βρετανία 1
σημαν@@ 1
ενς 1
ητό 1
σεως 1
συνέπεια 1
1942 0.7052695147031159
άτων 1
αναφορές 1
πλήρως 1
στηρι@@ 1
γιου 1
οθωμαν@@ 1
παλιά 1
λιθ@@ 1
— 0.040270185516804065
σταθμό 1
Κέντρο 1
Πρωταθλ@@ 1
Τ 1
ρίσ@@ 1
ριών 1
αξίωμα 1
φυσικά 1
βαση 1
τηλεοπ@@ 1
Λευκ@@ 1
φή 1
μβούργου 1
οδο 1
Βά@@ 1
άνος 1
ζώνη 1
ρικής 1
Κρά@@ 1
άξ@@ 1
διεθνής 1
σειρές 1
όλης 1
Ελληνικής 1
Σπ@@ 1
αίων 1
τσο 1
ρέφ@@ 1
Βαλκαν@@ 1
αστικό 1
αίος 1
μονάδες 1
Πρώ@@ 1
αθλ@@ 1
ζώα 1
αποκτήσει 1
Μακεδονία 1
κόμης 1
στρατηγ@@ 1
εθνικό 1
κατασκευάστηκε 1
ref 1
ηγε@@ 1
Μαζί 1
ίς 1
ποδόσφαιρο 1
1951 0.909939492775094
τοποι@@ 1
Ενότητα 1
σημαντικ@@ 1
ακολούθησαν 1
Χρον@@ 1
υπόλοιπο 1
διεκδικ@@ 1
Στρατού 1
d@@ 0.11160998947836295
ενι@@ 1
Ρά@@ 1
ερς 1
πλήρη 1
τωση 1
τοιχ@@ 1
Κρατ@@ 1
κατατά@@ 1
ιές 1
Έν@@ 1
νησ@@ 1
έμβ@@ 1
γραφής 1
1922 1
ματικής 1
ληση 1
απαγορ@@ 1
Ντέ@@ 1
κίν@@ 1
τισμό 1
σταδιακά 1
μπά@@ 1
ΦΕΚ 1
μεγάλος 1
Υπουργείο 1
οικονομία 1
προσωπικό 1
δυσ@@ 1
κλίμα 1
y@@ 0.14401852628759146
Επανάσταση 1
πλαίσια 1
1936 0.8266666029805105
όπουλο 1
κή@@ 1
αέρα 1
βία 1
μελε@@ 1
προσωπ@@ 1
Ακαδημίας 1
πωλ@@ 1
ήτη 1
Γιου@@ 1
μολ@@ 1
υπάγεται 1
k@@ 0.1318987803602784
λιν 1
οικισμό 1
τηρ@@ 1
λίγα 1
ουσιαστικά 1
Εθνικού 1
τροχ@@ 1
λιά 1
ότες 1
ερχ@@ 1
καλλιτεχν@@ 1
φυσι@@ 1
κυβερνη@@ 1
μείωση 1
Ρο@@ 1
δεύ@@ 1
φοβ@@ 1
ατιν@@ 1
κατασκευής 1
επιβ@@ 1
άγεται 1
ίζονταν 1
αραβ@@ 1
Καπ@@ 1
1949 0.7781994027238951
Αυστρίας 1
βασίζεται 1
αϊκ@@ 1
σύγκρουση 1
ειδών 1
αστερ@@ 1
βρίσκονταν 1
χρησιμοποίησε 1
Βόρειας 1
Σ.@@ 1
ετία 1
απαρ@@ 1
γερμανικά 1
άνων 1
βραβεία 1
ντα 1
όμηση 1
ρίζονται 1
αποικ@@ 1
δά@@ 1
κατάλ@@ 1
μέρους 1
μαθ@@ 1
Κωνσταντίνου 1
ανήκουν 1
ραν 1
αυλ@@ 1
επιστημον@@ 1
επιθέσεις 1
λογοτεχν@@ 1
απελευθερ@@ 1
δυναμ@@ 1
πανεπιστήμιο 1
σύζυγο 1
Κέν@@ 1
αστικά 1
σερ@@ 1
Αίγυπτο 1
εϊ 1
προ 1
b 0.24588582206483972
χτίστηκε 1
ανέφερε 1
φέρεται 1
Μόν@@ 1
Χι@@ 1
εγκαταστάθηκε 1
ολογικές 1
μετακόμισε 1
ούμενος 1
όσα 1
ίβ@@ 1
ηκαν 1
καλλιεργ@@ 1
μπού@@ 1
φαλ@@ 1
Αλλά 1
Ύ@@ 1
άρθρο 1
γκα@@ 1
1957 0.7925278011034811
Έγινε 1
ηχογραφ@@ 1
χα 1
κρύ@@ 1
χώρου 1
μετο@@ 1
λου@@ 1
διαν@@ 1
μαθητές 1
Ασίας 1
Κυπ@@ 1
είσ@@ 1
Νικόλαος 1
παρόμοια 1
Νι@@ 1
33 0.8889006289299751
Αριστο@@ 1
φίλ@@ 1
1938 0.7587252699011415
Μπα@@ 1
Λουδοβίκος 1
ταξ@@ 1
κληρονομ@@ 1
Κόλ@@ 1
βραβ@@ 1
θησαν 1
καλύτερ@@ 1
φλ@@ 1
κάτοικοί 1
ονομαζόταν 1
πίνακας 1
παγκόσμια 1
πια 1
γράμματα 1
Ανατολ@@ 1
Εθν@@ 1
θους 1
Πατρι@@ 1
διακοσμ@@ 1
μετέ@@ 1
βόρ@@ 1
ανακοινώθηκε 1
θω@@ 1
οφείλεται 1
τησης 1
λόγος 1
νίκησε 1
ίσθηκε 1
ισμα 1
πιθανότατα 1
Μονα@@ 1
πύργ@@ 1
ανάπτυξης 1
αναπτύχθηκε 1
1952 0.7925306661151287
ιστορική 1
επιθυμ@@ 1
βρέθηκαν 1
κ.ά. 1
ολόγ@@ 1
Ισραήλ 1
γήπεδο 1
τέθηκε 1
άζονταν 1
Πολυ@@ 1
ημένες 1
όρα 1
βασίλισσα 1
Χ 1
Νά@@ 1
ινά 1
Αττικής 1
Σερβίας 1
Φεστιβάλ 1
πληροφορ@@ 1
ούρα 1
τί 1
ωμένα 1
ασχολ@@ 1
Στρατ@@ 1
M 0.46364119535550713
κοινού 1
1924 0.984370021516542
συγκεκρι@@ 1
πτη@@ 1
άνθρωπος 1
αμφι@@ 1
Αυτές 1
αριθμ@@ 1
Αυτά 1
άδι 1
πυροβολ@@ 1
ακά 1
Σού@@ 1
ανάκ@@ 1
δίου 1
Ζ 1
άκ 1
σιδηροδρομ@@ 1
ελπ@@ 1
φως 1
Μπέρ@@ 1
άσι@@ 1
μακρο@@ 1
ντε@@ 1
Ινστιτούτο 1
διεξήχθησαν 1
αποκλει@@ 1
ευκαιρία 1
πρώτοι 1
οποιήθηκε 1
u 0.17127641793197734
φτάσει 1
1927 1
κοντιν@@ 1
όνος 1
Απεβίωσε 1
θή@@ 1
κοινωνική 1
συνδέεται 1
αλι@@ 1
κατακτήσει 1
άλλου 1
ξή 1
άκα 1
δουλ@@ 1
εμπόριο 1
ευρύτερ@@ 1
τελει@@ 1
λεϊ 1
πρόκειται 1
άτη 1
αλο 1
γρ@@ 1
γίνονται 1
Ινδία 1
μουσείο 1
επιστ@@ 1
νας 1
δεξιά 1
χαρακτηρίζεται 1
Μπεν@@ 1
Ρώμης 1
έρι@@ 1
σπίτια 1
Λιβ@@ 1
σημαία 1
400 0.874458708474543
Σαν@@ 1
πρι@@ 1
ντα@@ 1
μενε 1
κτη@@ 1
μνημείο 1
ΠΑ@@ 1
έλφ@@ 1
βασιλείας 1
όμενης 1
ετα@@ 1
κατάστασης 1
οικογένειά 1
απελευθέρωση 1
παγκοσμίως 1
περιλαμβάνονται 1
µ@@ 1
επαναστατ@@ 1
οδηγεί 1
τιμές 1
υποστήριξε 1
βη@@ 1
ητο 1
πλατ@@ 1
άκια 1
συγγραφείς 1
βρήκε 1
υρό 1
φορο@@ 1
λίγες 1
περισσότερους 1
λαντ 1
X@@ 0.4118839166516678
επιτρ@@ 1
θεν@@ 1
παλι@@ 1
ώνται 1
πέρα 1
ιστορικός 1
τίτλους 1
1953 0.8018724382331256
εκδόθηκε 1
Ανατολική 1
Σχολής 1
άλων 1
κοινωνία 1
ποι 1
εμφ@@ 1
επιβεβαι@@ 1
μελέτες 1
παραδοσιακ@@ 1
ροφή 1
συμπεριφορά 1
κριτικές 1
χωρήσει 1
σύμβολο 1
υκλ@@ 1
φαινόμενο 1
υπό@@ 1
Άρη 1
Φερ@@ 1
μόνος 1
εντολή 1
παρέχει 1
οθ@@ 1
υιοθε@@ 1
ώδης 1
ανοικ@@ 1
Υόρκη 1
δέχεται 1
Δημήτριος 1
ανεξάρτη@@ 1
ίλα 1
αναγκάστηκε 1
1929 0.8911972951474489
ιστορικά 1
ικος 1
1954 0.7685445061124557
Μάλ@@ 1
γάμος 1
ευρέως 1
πόλ@@ 1
διού 1
προκαλ@@ 1
G 0.43148998623932633
χωρών 1
βόρειο 1
όμενους 1
Βί@@ 1
έπεσε 1
Οικονομ@@ 1
ήσεως 1
Αυτοκράτορα 1
παλαιότερα 1
N 0.4849850508346421
Αφ@@ 1
Μπολ@@ 1
κείμενα 1
συνδέ@@ 1
Δυτικής 1
αρχίζει 1
γενική 1
τμήματος 1
όλ 1
Όλ@@ 1
διακή 1
πλατεία 1
προστατ@@ 1
όμενων 1
Κυκλ@@ 1
οποιείται 1
Γκά@@ 1
ριακή 1
εμφανίζονται 1
τίου 1
1935 0.8566639840978942
άτου 1
ανατολικό 1
ρίζουν 1
μπαν@@ 1
οκρατ@@ 1
γαρ@@ 1
πρόσβαση 1
ώνιο 1
κύριος 1
ευρώ 1
κρ@@ 1
τοπο@@ 1
διακρι@@ 1
θανάτου 1
καλύπτει 1
μοναχ@@ 1
ιμα 1
Ροδ@@ 1
άμ 1
ημερολόγιο 1
Βίκ@@ 1
εκτετα@@ 1
άνδ@@ 1
άρων 1
Δυτική 1
καλύτερα 1
παρατ@@ 1
τοπικό 1
36 0.8584986589464946
ήφ@@ 1
διαλύ@@ 1
χιλιομέτρων 1
απέκτησαν 1
ευε 1
τρας 1
Άγγλ@@ 1
συγγραφέα 1
χορηγ@@ 1
τισμός 1
μματα 1
Νίκος 1
συνολ@@ 1
συμμαχ@@ 1
Λυ@@ 1
υδρ@@ 1
ίδι 1
ενισχύ@@ 1
Θέ@@ 1
νόμο 1
άνεται 1
θεια 1
μενος 1
υποστήρι@@ 1
Λάν@@ 1
περν@@ 1
k 0.15938953193322206
φρου@@ 1
εκλογή 1
συνταγ@@ 1
άμεσα 1
Άλλες 1
λίστα 1
αγώνων 1
Μιν@@ 1
ακόλου@@ 1
όνου 1
ουσία 1
αρχαίας 1
γης 1
επιχείρηση 1
θέα 1
μυθολογία 1
μοναδική 1
στούντιο 1
Γεω@@ 1
αρχείο 1
δολοφ@@ 1
θετο 1
τίθεται 1
περιβάλλ@@ 1
συλλογ@@ 1
Βουλή 1
άριος 1
αγώνας 1
μεγάλων 1
Χα@@ 1
Αξι@@ 1
τορας 1
Ρού@@ 1
i@@ 0.15417909956293732
Γραφ@@ 1
μονάδα 1
ιζε 1
E 0.4112408569765271
συμμετάσχει 1
Αϊ@@ 1
Σχ@@ 1
θεραπ@@ 1
Σοβιε@@ 1
υκ@@ 1
χολ@@ 1
ελέγχ@@ 1
δοθεί 1
Πόλεμος 1
διαλ@@ 1
δολοφονία 1
μαθηματ@@ 1
ιδιότητες 1
πτυχ@@ 1
παίκτες 1
τως 1
δημιουργήσει 1
t@@ 0.0886819628856415
έντονα 1
περιγράφει 1
Ευρω@@ 1
παραγ@@ 1
c@@ 0.12783467810479357
Τμήμα 1
αίνοντας 1
ισμών 1
έδωσαν 1
τάξης 1
εξηγ@@ 1
Ε.Π.Σ. 1
Ξεκίνησε 1
αναγκα@@ 1
μπ 1
διαίρεση 1
σπι@@ 1
διοργανώσεις 1
Τεχν@@ 1
πόδια 1
τηρίου 1
διαγ@@ 1
μνήμη 1
πρώτους 1
τέτοια 1
δημοσίευσε 1
εξυπηρε@@ 1
οθέ@@ 1
αυτοκρατορ@@ 1
κε@@ 1
ρίζ@@ 1
διεθνείς 1
34 0.8861351896914961
παίζει 1
Κινηματογράφου 1
ατμ@@ 1
δημοτική 1
ερευνη@@ 1
Μεγάλ@@ 1
ιζόταν 1
Ν. 1
ηλικίας 1
1926 0.9392614516199749
ΑΕΚ 1
όντος 1
ασμό 1
ακολουθούν 1
επαρχίες 1
τήρια 1
όνες 1
Ού@@ 1
ορκ@@ 1
Ε. 1
ρασ@@ 1
πλήθος 1
οικονομ@@ 1
οϊ@@ 1
ωσ@@ 1
αιτ@@ 1
δες 1
χη 1
στοιχ@@ 1
πρόσωπα 1
είσοδο 1
χρόνων 1
42 0.976687014017487
κινηματογραφ@@ 1
κύκλο 1
σού@@ 1
Χέρ@@ 1
πολογ@@ 1
ολοκληρω@@ 1
αίν@@ 1
Γιάννης 1
κατάληψη 1
πραγματικό 1
38 0.8824354818820188
Χρησιμ@@ 1
ούμενο 1
Καλλι@@ 1
επέκταση 1
Κάστρο 1
μής 1
ποντας 1
χλμ 1
γινόταν 1
Μέσα 1
Σύνταγμα 1
άνοιξε 1
ανάλυση 1
Λα 1
Κυβερν@@ 1
γενν@@ 1
h 0.19290260127585102
Αιγύπτου 1
βασικό 1
ευγεν@@ 1
βαθ@@ 1
καλή 1
θεωρούνται 1
συνθήκη 1
0@@ 0.667435322862895
διαφόρων 1
χρήματα 1
αμφ@@ 1
εβραϊκ@@ 1
ικανότητα 1
μικρότερο 1
νεφ@@ 1
Τοπ@@ 1
Ιστορικό 1
εβδομάδες 1
ντι 1
οποιαδήποτε 1
λαχ@@ 1
Στάδιο 1
Τί@@ 1
2η 1
περιόδους 1
άδεια 1
αρχος 1
γεωργ@@ 1
1933 0.7362912528281063
Ολλανδ@@ 1
σεν 1
στρια 1
Τζέιμς 1
άριο 1
αίες 1
απειλ@@ 1
Γενικά 1
πολύ@@ 1
ελεύθερ@@ 1
πρόεδρο 1
ασχολήθηκε 1
μά 1
Επιστ@@ 1
καρδι@@ 1
καταλ@@ 1
αμά@@ 1
πολλαπλ@@ 1
τημα 1
Ουγγαρίας 1
Αβ@@ 1
Ιδρύθηκε 1
θεσης 1
βέρ@@ 1
μελλον@@ 1
ωδία 1
Θέατρο 1
Κωνσταντινούπολης 1
m@@ 0.1292960366404943
ιαπ@@ 1
αρχιτεκτονική 1
θει@@ 1
Εγ@@ 1
Υπάρχει 1
όσον 1
Ντου@@ 1
αμ 1
μεγαλύτερα 1
οικισμού 1
ηπ@@ 1
τόμ@@ 1
c 0.16993693611413102
δείξει 1
αυστη@@ 1
γραφική 1
ισμένα 1
64 0.7876107090869922
στάση 1
Ρόμπερτ 1
θαλ@@ 1
ποταμός 1
γλυκ@@ 1
μαθη@@ 1
πρακ@@ 1
άφησε 1
ίοι 1
απεικον@@ 1
αυτοκράτορας 1
εταιρείες 1
Αθλη@@ 1
1934 0.8209223263845536
Ρέ@@ 1
μυθιστορ@@ 1
μητέρας 1
άνουν 1
οειδή 1
υποψήφιος 1
-- 1
διαδοχ@@ 1
υπήρξαν 1
όπο@@ 1
σταση 1
Αφρικής 1
περιορι@@ 1
χρονολογείται 1
b@@ 0.10055878429304642
Καρόλου 1
τηλεοπτική 1
ποτά@@ 1
λειτουργίας 1
αντίπαλ@@ 1
ότεροι 1
φέρουν 1
Ευρωπαϊκή 1
Παρισιού 1
δημοσιεύ@@ 1
μεί@@ 1
1937 0.7448707936297175
νησι@@ 1
πλού@@ 1
έλεγ@@ 1
εννέα 1
φτι@@ 1
χέρι 1
χρησιμοποι@@ 1
αποτελεσ@@ 1
πακ@@ 1
Περσ@@ 1
φος 1
πολιτικών 1
γράφτηκε 1
γλυπ@@ 1
φαντα@@ 1
παραμ@@ 1
στηκαν 1
στήρια 1
κ.α. 1
διαστ@@ 1
r 0.285336151901671
Μητρο@@ 1
εύσει 1
ζωγράφος 1
j@@ 0.1311384923765494
μαθήματα 1
πώς 1
επιτρέπει 1
ιακές 1
δήποτε 1
Πύργ@@ 1
Συνολικά 1
αναλάβει 1
δίσκος 1
όργανα 1
Αυστραλία 1
στολ@@ 1
1923 0.9394588584969241
όλου 1
αναφερ@@ 1
ιδών 1
U 0.3643191618010703
κεφάλι 1
φωτο@@ 1
άδια 1
ηλεκτρο@@ 1
Αχαΐας 1
βιβλιο@@ 1
Ελευθερ@@ 1
έντονη 1
Καλλ@@ 1
πρότεινε 1
at 0.02078054459664371
βιβλιοθήκη 1
κίνδυνο 1
παραστάσεις 1
μπορ@@ 1
δας 1
μάρ@@ 1
πληρω@@ 1
Σέρβ@@ 1
ακτές 1
εκτέλεση 1
αξιωματού@@ 1
εύκολα 1
λατιν@@ 1
φάν@@ 1
37 0.9233819781138812
1932 0.8546192158741328
ίκο 1
αιώνες 1
ότου 1
ίκων 1
ενέργειες 1
ιδιαίτερη 1
Πολλοί 1
αρίου 1
πολιορκία 1
Κί@@ 1
προπονητή 1
Εύ@@ 1
g@@ 0.1007942645249995
ωμένος 1
Ολυμπιακό 1
δολοφον@@ 1
κατεύθυνση 1
ομώνυμο 1
Ούγ@@ 1
https 1
χαρακτήρες 1
f 0.29933668123223883
Σύν@@ 1
δέχ@@ 1
φωτός 1
λια 1
ριά 1
υπόλοιπα 1
αθλητές 1
μπάσκετ 1
εκκλησίας 1
έθ@@ 1
προγράμματος 1
Κρήτη 1
ημένος 1
έλι@@ 1
μπαρ@@ 1
στιγ@@ 1
όφιλ@@ 1
Χίτλερ 1
ηπειρω@@ 1
όπλων 1
Όσ@@ 1
Αμερικανός 1
πυρην@@ 1
Τεχνών 1
Τορ@@ 1
Ειδ@@ 1
55 0.9740890638242613
ητα 1
4.@@ 1
κάλ@@ 1
καθημερ@@ 1
Γερμανοί 1
Ερρίκου 1
εκτελε@@ 1
τραγουδ@@ 1
παρο@@ 1
ταξίδι 1
τουριστ@@ 1
ανών 1
εγκαταστάσεις 1
κτίρια 1
p@@ 0.0964791239063784
παραιτήθηκε 1
λάβ@@ 1
πολιτικά 1
βασιλική 1
συμπεριλαμβ@@ 1
οσία 1
δίσκου 1
χώρους 1
κέντρα 1
σοσιαλ@@ 1
θλ@@ 1
φήμη 1
δίκη 1
αναγνώριση 1
κάν@@ 1
Καμπ@@ 1
Μιχ@@ 1
αρχο 1
λαμβάνοντας 1
‘ 0.8263216828217039
συνεισ@@ 1
en 0.007473799667482213
τέτοιο 1
ημερομηνία 1
οικοδομ@@ 1
ομορφ@@ 1
ητήριο 1
μαρτυ@@ 1
ουσίας 1
βολές 1
εγκαταστάθηκαν 1
Φίλιππος 1
στυλ 1
προηγούμεν@@ 1
Εν 1
άτι 1
επικεντρ@@ 1
μικρ@@ 1
Ίν@@ 1
Οδ@@ 1
κανένα 1
μπεργκ 1
Βουλγαρία 1
ισμένος 1
μεν 1
1917 0.8168314354624535
καταρ@@ 1
Κέ@@ 1
βοηθήσει 1
εξέ@@ 1
αρχαί@@ 1
θάλασσας 1
ένιο 1
κατέλαβαν 1
Κουρ@@ 1
μοιρά@@ 1
Υ 1
τουργ@@ 1
πει@@ 1
πού 1
1925 0.8856084625047019
Πολεμ@@ 1
γερμ. 1
ριακό 1
κυπ@@ 1
Στά@@ 1
υγείας 1
προκρί@@ 1
Τερ@@ 1
ρεί 1
Γκι@@ 1
στοιχείων 1
πατρι@@ 1
65 0.6379639803416199
Συνθήκη 1
προσφέρει 1
Ορισ@@ 1
ιστικών 1
Πτολεμα@@ 1
στηκε 1
εύθηκε 1
άμεση 1
Λουδοβίκου 1
ακτή 1
όμενου 1
σα@@ 1
Σερβ@@ 1
ανθρωπ@@ 1
κοινότητες 1
Κόν@@ 1
αρχαιότητα 1
πλούσια 1
ρίζοντας 1
Διαδ@@ 1
προέρχονται 1
σφαίρισης 1
γων@@ 1
επανα@@ 1
περιοδεία 1
Μεν@@ 1
Ο.@@ 1
ητικής 1
φυλάκ@@ 1
βοήθησε 1
εγκλ@@ 1
γραμματ@@ 1
μικρότερη 1
ονομάζονται 1
ραδιοφ@@ 1
τριες 1
ιμη 1
Ελληνικό 1
μεταφρά@@ 1
εντελώς 1
συμμετέχει 1
πίνακες 1
τραγ@@ 1
νύ@@ 1
ανάγκη 1
μπερτ 1
ήθ@@ 1
ωνικής 1
συμπεριλαμβανομένου 1
απόψεις 1
ύς 1
Γ. 1
ήχθη 1
ιατρική 1
μειον@@ 1
οβιτς 1
πετρ@@ 1
επιτροπή 1
Παναγ@@ 1
πόλεων 1
Y@@ 0.17968877774381914
νι 1
τρου 1
σμοί 1
Αθη@@ 1
στερε@@ 1
εκείνος 1
οδήγησαν 1
γιους 1
μεταβλ@@ 1
ουσίες 1
ϋ 1
στρω@@ 1
Αλ 1
τεκ@@ 1
ναύ@@ 1
οσύνης 1
ιων 1
πάν@@ 1
Παρα@@ 1
επεισόδιο 1
παράσταση 1
Λίγο 1
γράφεται 1
σύλλογο 1
άκρο 1
σχεδιασ@@ 1
Κεντρική 1
κύπελλο 1
ουσες 1
Πολιτική 1
θν@@ 1
Επειδή 1
υπέστη 1
άνδρα 1
ιδιοκτή@@ 1
τηλεόραση 1
52 0.9868454886623478
ίτσα 1
Χαλκ@@ 1
επίσημο 1
κρε@@ 1
κυνηγ@@ 1
θέλ@@ 1
Γεωργ@@ 1
αυλή 1
δίν@@ 1
νου@@ 1
ακαδημαϊκ@@ 1
φαρ@@ 1
Γης 1
κατο@@ 1
Σαιν 1
τελευταίες 1
υλικά 1
δ 1
έγιο 1
περιέχουν 1
Κομμουν@@ 1
σταϊν 1
στροφ@@ 1
εναλλακ@@ 1
ποικιλία 1
πρακτική 1
στε 1
πυρο@@ 1
Βραβεία 1
όντ@@ 1
75 0.8589119376235278
τετρα@@ 1
ήτης 1
γραπ@@ 1
παρουσίασε 1
Αθηνα@@ 1
πατρίδα 1
1914 0.7734161711006431
καθιστώντας 1
λιου 1
αγγελ@@ 1
08 1
ΕΠ@@ 1
έργ@@ 1
έσεις 1
Βολ@@ 1
εξοπλ@@ 1
Πεν@@ 1
έλλειψη 1
48 0.8948039703236581
Μάλιστα 1
φη 1
Γουλιέλμος 1
στρατόπεδο 1
τω 1
κάρ@@ 1
παρασκευ@@ 1
όφων@@ 1
Πασ@@ 1
θια 1
ουραν@@ 1
ούμενα 1
συμβούλιο 1
άδη 1
ρές 1
κόσ@@ 1
Συγκεκριμένα 1
ήριο 1
πειρα@@ 1
ητικού 1
ιδίως 1
κύτταρα 1
ογραφικό 1
ρια 1
διαμέρισμα 1
ερευν@@ 1
ταρα@@ 1
x@@ 0.3054492120808096
πασ@@ 1
ἐ@@ 1
στασης 1
μαχία 1
οικο@@ 1
μετανα@@ 1
νότιο 1
αια 1
προέδρου 1
Σ. 1
εκπαίδευσης 1
ωνας 1
μπήκε 1
χειρ@@ 1
Δανίας 1
σπάνια 1
εξέδωσε 1
ς.@@ 1
χυ@@ 1
ημο 1
σκηνές 1
κρίση 1
Έδρα 1
Επισ@@ 1
γραφεί 1
K 0.4568535770780567
διάφορους 1
δαλ@@ 1
εργάζεται 1
εξουσίας 1
πράξεις 1
Eurovision 1
Περιφέρεια 1
μικρός 1
αιώνας 1
επιφαν@@ 1
σεβ@@ 1
Εταιρείας 1
προγράμματα 1
στρατηγός 1
άσθηκε 1
Τζό@@ 1
ύρω@@ 1
Γάλλος 1
εως 1
πολέμ@@ 1
ποδοσφαιρική 1
χλω@@ 1
Βελ@@ 1
Μπό@@ 1
εχθ@@ 1
σχετίζεται 1
έδρ@@ 1
υψηλή 1
βουλευτικές 1
φυλακή 1
Σερβία 1
ακών 1
θεωρήθηκε 1
ροσ@@ 1
ταινιών 1
υποστηρίζει 1
La 0.0432744607225861
αστές 1
εμπορική 1
Ιερουσαλήμ 1
εκπομπή 1
ορισ@@ 1
σχολεία 1
βρει 1
οσι@@ 1
μουσικό 1
τίνα 1
χρήσης 1
διοργάνωσης 1
κληρονόμ@@ 1
κυβ@@ 1
βας 1
θανά@@ 1
τούτου 1
άλας 1
έθν@@ 1
στικός 1
Οθωμαν@@ 1
απόσ@@ 1
διάδοχος 1
τουν 1
φτάνει 1
κτήριο 1
πληθ@@ 1
τρόπος 1
διάσημ@@ 1
καριέρας 1
μπα@@ 1
συμβαίνει 1
ανθρω@@ 1
Μαρίας 1
Οικ@@ 1
Al@@ 0.15111237219075435
Μασ@@ 1
Επαρχία 1
μετε@@ 1
τρέ@@ 1
νήσ@@ 1
εισαγωγή 1
απόδοση 1
μου@@ 1
νέας 1
τέλε@@ 1
Κυβέρνηση 1
ώδες 1
Κεντρικής 1
Παι@@ 1
συνθέ@@ 1
αναγνώ@@ 1
δέκα@@ 1
Ιωαννίνων 1
μητρο@@ 1
στος 1
ερείπια 1
Τούρκους 1
ασμός 1
Σιν@@ 1
μερ 1
προετοιμ@@ 1
Μπάρ@@ 1
κατάλληλ@@ 1
ολο@@ 1
γεωγραφ@@ 1
Αυγ@@ 1
έπεται 1
απόλυτο 1
μπλ@@ 1
γραφία 1
εκπροσωπ@@ 1
ύπ@@ 1
39 0.9429216385614204
τιμήν 1
χρόν@@ 1
πρόσφ@@ 1
άνονται 1
τραγουδιού 1
5.@@ 1
New 0.08826491453887174
δοχ@@ 1
εργαζ@@ 1
λογική 1
Ar@@ 0.14983318821929484
Βασιλιά 1
Μπαλ@@ 1
τέταρτη 1
ευτεί 1
δία 1
Πέτρος 1
Τζι@@ 1
Χαν@@ 1
αρντ 1
άλλος 1
έρτο 1
Νικολάου 1
προσδι@@ 1
Κοινοβούλιο 1
ίτσ@@ 1
στήριο 1
19ο 1
z@@ 0.10543650736143743
πάρ@@ 1
Δομ@@ 1
ροπ@@ 1
οπαδ@@ 1
άσα 1
αξιοσημείω@@ 1
δείχνουν 1
γν@@ 1
ορφ@@ 1
ήν 1
ήρια 1
1913 0.9222402325599466
1931 0.8066270783899036
βασιλείου 1
χε 1
ίδιας 1
ρισμός 1
όμου 1
Σοβιετικής 1
πολιορκ@@ 1
πη 1
τουρνουά 1
συνολικό 1
Θ 1
Ματ@@ 1
Νότιας 1
Σοφία 1
Φραγκ@@ 1
αγόρ@@ 1
τουρκική 1
ήσιο 1
ούντα 1
νηση 1
ρίδα 1
όφ 1
ανικά 1
εδάφους 1
παράγει 1
χειμώνα 1
κόμματα 1
ριες 1
παράγοντες 1
άντρες 1
αλυσ@@ 1
Τρο@@ 1
εκτιμάται 1
σκοτώθηκε 1
0.000 1
44 0.7789426050788159
ιερό 1
κανάλι 1
όπλα 1
όργανο 1
Βιβλιοθήκη 1
γραμμής 1
μένει 1
αγγέλ@@ 1
δράσης 1
Αδ@@ 1
πτει 1
τέτο@@ 1
ακές 1
πρίγκιπας 1
παράνομ@@ 1
περιοχών 1
Αποτελεί 1
ριακής 1
Κόμ@@ 1
μων 1
θέσης 1
ιδέες 1
Αυστρία 1
λιν@@ 1
σταθμ@@ 1
ωνίου 1
Πρέ@@ 1
φεστιβάλ 1
λαμβάνουν 1
εκείνο 1
ξεκινήσει 1
Αζ@@ 1
χάρι@@ 1
βραχ@@ 1
κυριαρχ@@ 1
κ. 1
μενο 1
τορ 1
Επίσ@@ 1
ευτική 1
Χό@@ 1
κάτο@@ 1
εκδηλώσεις 1
ορισμός 1
μπαλ@@ 1
Διεθνές 1
Μίλ@@ 1
άγει 1
Λατιν@@ 1
φαγ@@ 1
όχου 1
Ομοσπονδίας 1
γει@@ 1
πιθανόν 1
άνοιξη 1
αποχώρησε 1
συμμετέχουν 1
Γκλ@@ 1
νύχτα 1
Φορ@@ 1
σιακ@@ 1
συμμάχ@@ 1
διαμαρτυ@@ 1
επιστολή 1
τέρου 1
γέφυρα 1
όρε@@ 1
Μετ@@ 1
μνημ@@ 1
Αί@@ 1
ίστα 1
έχουμε 1
αστεροειδής 1
ισχύ 1
άζ 1
di 0.3555039862548963
ατη 1
Δημοκρατ@@ 1
θρησκεία 1
Κώστας 1
αστής 1
κυκλοφόρησαν 1
Καθολ@@ 1
άγκ@@ 1
βλέ@@ 1
χους 1
ποιητής 1
1,@@ 0.7251629665361649
Δω@@ 1
θησης 1
πελ@@ 1
ικες 1
ύσ@@ 1
Νο@@ 1
Τόμας 1
μόνιμ@@ 1
Αυστ@@ 1
περιελάμβανε 1
ωθούν 1
γά@@ 1
διω@@ 1
μέθοδος 1
ξεχωριστ@@ 1
έπαι@@ 1
ιστορ@@ 1
λογαριασμό 1
γκεν 1
ζευγάρι 1
Στρατιω@@ 1
62 1
έλθει 1
Τουρκίας 1
Τε@@ 1
διαδρομή 1
ιάν@@ 1
54 1
ζυγ@@ 1
οικισμούς 1
τεράστια 1
χεί@@ 1
γνωστές 1
χρή@@ 1
Ρα@@ 1
βάσει 1
Εκλογ@@ 1
Παγ@@ 1
προκαλεί 1
επικοινων@@ 1
ρισμό 1
ελί@@ 1
επιτρέ@@ 1
γεννη@@ 1
δεί@@ 1
βασιλεία 1
έφτασαν 1
υψηλής 1
ανώτα@@ 1
τισαν 1
Ευρωπαϊκής 1
θήκες 1
ανάγκες 1
επάνω 1
τιν 1
κλιν@@ 1
ορά 1
αναλ@@ 1
γκλ@@ 1
ελέγχου 1
σκόρερ 1
λέγ@@ 1
χειρουργ@@ 1
Πρωταθλήματος 1
άντο 1
συμμαχία 1
συνεδ@@ 1
Αλβαν@@ 1
ίκ 1
αίρε@@ 1
πλευρές 1
όντο 1
ντόπ@@ 1
τυπο@@ 1
ραδι@@ 1
σχετίζονται 1
φρούριο 1
ρισαν 1
σύμβουλος 1
ποί@@ 1
σύζυγός 1
56 1
δελ@@ 1
προτιμ@@ 1
Βουλής 1
Χόλ@@ 1
μοι@@ 1
Μόσχα 1
αντιδράσεις 1
ιον@@ 1
Αδρι@@ 1
βίας 1
μεγέθους 1
νομοθε@@ 1
προώθηση 1
r@@ 0.08817634106386966
διέταξε 1
ενεργό 1
ομένων 1
προστά@@ 1
χτισ@@ 1
δίσ@@ 1
πράγμα 1
τούνται 1
Ρε@@ 1
ισχυρή 1
σις 1
νόμου 1
προσέγγιση 1
Βάλ@@ 1
φόρο 1
Ευρ@@ 1
ποιν@@ 1
1900 0.8309036859753255
Μ. 1
Γερμανούς 1
επιχειρ@@ 1
σελίδα 1
σώματα 1
τεχνικές 1
ατσ@@ 1
Επιστημών 1
έλος 1
00 0.8154366137847321
όνης 1
Λακ@@ 1
γμα 1
μοντέλα 1
άτης 1
επίσημ@@ 1
ασίες 1
λαμ@@ 1
περιοδ@@ 1
Ανατολή 1
επαρχ@@ 1
Λος 1
συντά@@ 1
en@@ 0.05786903927839403
Φυσικά 1
άνθρωπο 1
επιτυχίες 1
Υπουργός 1
φιλοσοφία 1
αζόταν 1
έλι 1
παιχνιδιού 1
Ch@@ 0.12598749803057713
διαγων@@ 1
Λίγ@@ 1
απώλεια 1
εκκλησίες 1
παραδοσιακά 1
ταφ@@ 1
δρόμους 1
συνεχώς 1
χοι 1
Λαμ@@ 1
διαπ@@ 1
προσοχή 1
συστη@@ 1
Παντρεύτηκε 1
μπρ@@ 1
αποκτ@@ 1
νωρίτερα 1
νερ 1
ποσ@@ 1
47 0.9646738053958844
43 0.9422306096966648
εκλογών 1
μητ@@ 1
πρά@@ 1
πρόσφατα 1
Ανδρέα 1
εξαφαν@@ 1
Ερυ@@ 1
άται 1
θι@@ 1
ορχή@@ 1
απογ@@ 1
απορρί@@ 1
ασμένο 1
τροποποι@@ 1
αντίσταση 1
ασμένη 1
προηγούμενη 1
οειδ@@ 1
επιφάν@@ 1
οκα@@ 1
Ρωμαϊκή 1
ήσι@@ 1
νοτιοδυτικά 1
ρικ@@ 1
Ιατρ@@ 1
95 1
δείκ@@ 1
ότερων 1
ar 0.06096996688654255
z 0.17897671396063827
Re@@ 0.16333478892292455
κατοικία 1
φρα@@ 1
Ελληνικού 1
Κόσ@@ 1
ετερ@@ 1
πυκν@@ 1
Διετέλεσε 1
Επικ@@ 1
ωνι@@ 1
Δημήτρης 1
ίως 1
ελά@@ 1
Εταιρεία 1
κατηγορ@@ 1
Ιστορικά 1
κάποιον 1
όνιο 1
ελαφ@@ 1
παίρνει 1
φοιτη@@ 1
περάσει 1
μισθ@@ 1
φορντ 1
ενώσεις 1
ρόλους 1
στικού 1
l@@ 0.09083955991146744
Έργ@@ 1
βορειοδυτικά 1
Ρωμαϊκής 1
Μεγάλου 1
άση 1
εξαίρεση 1
θημα 1
καταστροφ@@ 1
άνδρας 1
τσας 1
κοιλάδα 1
Δρά@@ 1
Δημοτικό 1
ολογικής 1
αντά 1
συνελήφθη 1
Δί@@ 1
Χω@@ 1
εικόνες 1
3η 1
ΙΙ 1
Μόσχας 1
άου 1
κανόνες 1
μπλε 1
προϊόντων 1
Ανακαλύφθηκε 1
επιγραφή 1
επιστημονική 1
άνθ@@ 1
γραφο 1
δεικ@@ 1
ακου@@ 1
πιθανό 1
ψευδ@@ 1
Ζώνης 1
νεύ@@ 1
αρχών 1
ισπαν@@ 1
αντίστοιχ@@ 1
στρα 1
41 0.9132870539472242
Ακόμη 1
ετές 1
συνοικία 1
τζι 1
ομοσπον@@ 1
1921 0.7699935088494031
άγου 1
βορειο@@ 1
ίλλ@@ 1
υρο 1
προσθήκη 1
κόκκινο 1
καύ@@ 1
αντικ@@ 1
Κλε@@ 1
έλευσης 1
χαν 1
Κ.@@ 1
πλάτος 1
κυβερνήτης 1
σκηνοθέτης 1
άρης 1
κερδίζοντας 1
Γκρ@@ 1
Εκείνη 1
Εξωτερικών 1
βασική 1
βουλγαρ@@ 1
er@@ 0.06723470324340529
ηττήθηκε 1
δασ@@ 1
παγκόσμιο 1
βε@@ 1
Πομ@@ 1
απόφ@@ 1
League 0.19251626487206588
έστερ@@ 1
μητρ@@ 1
κει@@ 1
μεγάλωσε 1
στόχ@@ 1
τ.χλμ. 1
Νυμφεύτηκε 1
κοιλ@@ 1
λογοτεχνία 1
αυτοκρατορίας 1
Δεύ@@ 1
άλυ@@ 1
ταξε 1
Θεωρείται 1
δορυφ@@ 1
μιο 1
f@@ 0.08571464649570515
γενιά 1
ευρήματα 1
Μεγάλο 1
Τουρκο@@ 1
αντικαταστάθηκε 1
διαρκ@@ 1
εθνικές 1
Φράν@@ 1
έρευνες 1
Πάρ@@ 1
ευνο@@ 1
ματικών 1
Επανάστασης 1
Ουγγαρία 1
λύση 1
μέτα@@ 1
γένος 1
εκτιμ@@ 1
τραπεζ@@ 1
εγκατέλειψε 1
Μπρά@@ 1
Παπαδ@@ 1
Πρωτο@@ 1
for 0.012693743984848899
άσια 1
δυτικό 1
χου 1
ένοπλ@@ 1
πωλήσεις 1
Οίκου 1
έληξε 1
δισκ@@ 1
μπο 1
ατικής 1
θεσμ@@ 1
νους 1
ρόλος 1
Πλά@@ 1
αινε 1
τεσσάρων 1
τιση 1
Αντίθετα 1
εβιτς 1
τόν@@ 1
καταναλ@@ 1
Ηπείρου 1
Ταρ@@ 1
ήλ 1
μορφω@@ 1
Κόρ@@ 1
καθορ@@ 1
ροφής 1
συνολική 1
Αλέ@@ 1
Π. 1
ασπ@@ 1
Ρωσ@@ 1
ειπ@@ 1
ζήτημα 1
ύφος 1
ανέβηκε 1
φα 1
72 1
Πειραιώς 1
Σουηδία 1
or 0.0328918462559808
κάνοντας 1
πισ@@ 1
Μπρο@@ 1
Προσ@@ 1
ήνη 1
τοπικές 1
ακτ@@ 1
μεγαλύτερ@@ 1
ογραφίας 1
οια 1
γματος 1
Άλλα 1
τερα 1
Φρειδερίκος 1
ηματική 1
Ηλιακό 1
τομείς 1
απόκ@@ 1
ωτικό 1
φημ@@ 1
χρονη 1
μέτρηση 1
μείνει 1
οφόρ@@ 1
στά 1
ότζ@@ 1
επεισόδια 1
είχ@@ 1
εδρ@@ 1
20ού 1
τερη 1
υπερβολ@@ 1
δήμ@@ 1
θέρ@@ 1
κυπέλλου 1
Εθνών 1
Χατζ@@ 1
επέτρεψε 1
κύρι@@ 1
διαχει@@ 1
ναζ@@ 1
στήρι@@ 1
as 0.01120583286973705
συνέβη 1
Καθ@@ 1
57 1
Βορ@@ 1
ώπ@@ 1
δεχ@@ 1
αποτελούσαν 1
δικές 1
ωμένες 1
600 0.9944528876855454
Τζέ@@ 1
γαμ@@ 1
καταστράφηκε 1
έθεσε 1
ίλι 1
ειδική 1
ειρήνη 1
κατάφεραν 1
II 0.16449899378698693
ναϊκ@@ 1
Έλ@@ 1
Ανδρέας 1
Μηχαν@@ 1
μετάφραση 1
διατηρεί 1
εγκαταλεί@@ 1
βιβλίων 1
έβαλαν 1
επισκέπ@@ 1
χρη@@ 1
Παρόλο 1
λέξεις 1
πήραν 1
άμου 1
δημοφιλ@@ 1
λεηλ@@ 1
σύγκριση 1
πρότυπο 1
λις 1
46 0.9110997777864732
Καταλ@@ 1
βορειοανατολικά 1
εργασ@@ 1
σύμπ@@ 1
κινηματογράφου 1
δικτύου 1
Ματθ@@ 1
αίθουσα 1
πεπ@@ 1
ατικά 1
οσκ@@ 1
Βερολίνο 1
παρόλο 1
Θάλασσα 1
εγγ@@ 1
ολοκλήρωσε 1
67 1
έντο 1
υπηρέ@@ 1
δίνοντας 1
νοσ@@ 1
βιβ@@ 1
κόμβ@@ 1
Σαβ@@ 1
παρουσιάστηκε 1
βάλ@@ 1
ομαδ@@ 1
συνεργάστηκε 1
απλώς 1
ξεκιν@@ 1
on@@ 0.09474658272710826
αρμ@@ 1
πλήρω@@ 1
χερσ@@ 1
Οργαν@@ 1
ήσι 1
γρα@@ 1
ψήφων 1
όδων 1
Σαξονίας 1
μετατρ@@ 1
στόχος 1
ήλθαν 1
παρατήρ@@ 1
ανθρώπιν@@ 1
συμπεριλαμβανομένης 1
24@@ 1
αυτόνομ@@ 1
όρισε 1
πεντα@@ 1
γεννημένος 1
παραγωγός 1
πλευ@@ 1
Αλφόν@@ 1
Σκο@@ 1
ολόκληρο 1
ταξη 1
κουζ@@ 1
αναφέρουν 1
Αμφ@@ 1
Καρλ@@ 1
εβδομάδα 1
1910 0.7781642992354194
λευκό 1
νυ@@ 1
Κίνας 1
αγγλική 1
νοτιοανατολικά 1
Βενετία 1
ευρύτερη 1
νοσοκομείο 1
Διεθνούς 1
ανε 1
έκρινε 1
λεί@@ 1
συνάρτηση 1
πέρασμα 1
παιδιών 1
Γρηγ@@ 1
εκμεταλλ@@ 1
εποχών 1
καταλάβει 1
ειλ@@ 1
περ 1
απόγον@@ 1
μονής 1
πλανήτη 1
Records 0.5107792037551427
αιτία 1
αυτ@@ 1
σαλ@@ 1
συγγραφ@@ 1
Αντρ@@ 1
Καρλ 1
ειρα 1
εξω@@ 1
ριμπάουντ 1
σες 1
ραι@@ 1
ύρων 1
εντα@@ 1
ολόγηση 1
ροκ 1
μορι@@ 1
αμερικανική 1
le 0.0119950968118484
οντος 1
Σουηδίας 1
ΕΕ 1
συμμετοχής 1
16@@ 1
φωνή 1
Σέρ@@ 1
διοικητικά 1
πρώτων 1
v@@ 0.11523987644522411
Α.Ο. 1
ανα 1
αυτοκίνητο 1
κάστρου 1
ισσα 1
διαμορφ@@ 1
Βασίλ@@ 1
ΕΛ 1
ζώων 1
Μαυ@@ 1
εται@@ 1
Περιγραφή 1
οπά@@ 1
Μάικλ 1
γκου@@ 1
αληθ@@ 1
αντέ@@ 1
ασφάλεια 1
πόρ@@ 1
δακ@@ 1
συνδεδε@@ 1
59 1
πρεμιέρα 1
73 1
Οθωμανική 1
θου@@ 1
χτ@@ 1
αξίας 1
ται@@ 1
ούλα 1
πετ@@ 1
συνασπ@@ 1
γη@@ 1
επικρατ@@ 1
πραγματοποιήθηκαν 1
τάση 1
τιδας 1
ικου 1
συνέχ@@ 1
63 1
ρώ@@ 1
άγονται 1
καθιερ@@ 1
ούχος 1
τάρ 1
15@@ 1
αποδίδ@@ 1
ψία 1
Γεώργιο 1
Καλιφόρνια 1
ανώτερ@@ 1
Βιέννη 1
εταιρία 1
ξεκινά 1
Συγκ@@ 1
λιών 1
προφ@@ 1
ότα 1
συγγεν@@ 1
έψει 1
αριστοκρατ@@ 1
ύμν@@ 1
αζαν 1
πολιτισμού 1
στολή 1
αποφοίτησε 1
gr 1
μού@@ 1
Παναγίας 1
καθεδρ@@ 1
ξανα@@ 1
πιθανότητα 1
el@@ 0.08015386034241229
Δούκα 1
παρέ@@ 1
World 0.13542151954438097
Άντζελες 1
κατάλογο 1
Προσωπική 1
έρων 1
δημόσι@@ 1
καθήκοντα 1
ωσή 1
Γυμνα@@ 1
αεροσκάφη 1
ηγέτης 1
5.000 1
επιδ@@ 1
κατείχε 1
μακρ@@ 1
κλί@@ 1
έλευση 1
εκδό@@ 1
μί@@ 1
Μί@@ 1
δεύτηκε 1
85 1
Ανδ@@ 1
Θερ@@ 1
Πο@@ 1
λοιπόν 1
λέγοντας 1
στίχους 1
σφαι@@ 1
σίες 1
αυτοκ@@ 1
διεύθυνση 1
εθελον@@ 1
ενημερ@@ 1
νό 1
πολιτεία 1
ρίστηκαν 1
ότα@@ 1
Ζω@@ 1
ηβ@@ 1
Πέτρου 1
στρο@@ 1
53 0.9604577558064294
Βενετίας 1
διοίκησης 1
εω@@ 1
τέταρτο 1
ώνυμ@@ 1
Χιλ@@ 1
άτ 1
ρί 1
in@@ 0.05539350532144008
Ιωάν@@ 1
λο@@ 1
υπέρ@@ 1
ιστορίες 1
στρατιωτικό 1
όμιλο 1
σιμες 1
σσεται 1
τόξ@@ 1
ch@@ 0.06660947493629343
καφ@@ 1
εξετά@@ 1
θεμελι@@ 1
προσαρτήθηκε 1
Κατάλογος 1
φο 1
συμπτώματα 1
όλυ@@ 1
ιακής 1
ιτ 1
συντηρη@@ 1
υλικού 1
στρατιωτικές 1
ψήφους 1
Κάν@@ 1
νομίσματα 1
Εσ@@ 1
πράγματα 1
τρίτος 1
διέθετε 1
Βουλγαρίας 1
είδε 1
οπτική 1
ωνικά 1
Θα 1
Περί@@ 1
άστ@@ 1
Κασ@@ 1
εξελ@@ 1
σχετική 1
800 0.9894575292985962
Όλα 1
Βασιλιάς 1
Πάπας 1
ύγει 1
71 1
150 0.9038281335854891
αρχίσει 1
γραμματέας 1
προηγουμένως 1
σημεριν@@ 1
δει 1
καλύτερο 1
ύνει 1
Αζερμπαϊτζάν 1
Μεγάλης 1
τίν 1
βάλει 1
et@@ 0.14617696874915878
Πάπα 1
ανησυχ@@ 1
απευθείας 1
απέχει 1
αλία 1
ρυθμό 1
φύλλα 1
περιοδικά 1
πων 1
Διεθνής 1
ασμα 1
προστατευ@@ 1
ανεβ@@ 1
διευθύν@@ 1
ράβ@@ 1
καιρ@@ 1
αφήν@@ 1
Ιωσήφ 1
καταστήσει 1
λων 1
παράδ@@ 1
αεροδρόμιο 1
διακρίσεις 1
BBC 0.9085396957566441
83 1
86 1
ραμα 1
τικο 1
ώνου 1
single 0.22953941945361356
2ο 1
οργάνωσης 1
ζούσε 1
ιταλική 1
al@@ 0.07604492588611214
αριστερ@@ 1
αντίπαλο 1
πειρο 1
τειν@@ 1
Χέν@@ 1
γραφείο 1
ar@@ 0.08167596318020984
Τού@@ 1
προσωπική 1
1915 0.8192882267339346
Καποδίστριας 1
ετε 1
66 1
Βικ@@ 1
Περιφερειακή 1
Πριγκ@@ 1
βάθος 1
κινήματος 1
νταν 1
Ακολούθησε 1
Ντέιβιντ 1
βουλευ@@ 1
διαφορετική 1
ήγαγε 1
αδελφού 1
τελετή 1
ανοίγ@@ 1
Τζάκσον 1
οργανώσεις 1
πόλεως 1
κόστος 1
δημιουργώντας 1
εκατομμυρίων 1
οξειδ@@ 1
Σεβ@@ 1
αυξαν@@ 1
Αρι@@ 1
Ποδοσφαίρου 1
μάζα 1
μικρού 1
τόπο 1
αίματος 1
ουμ 1
τετρ@@ 1
όου 1
περικ@@ 1
σταμάτησε 1
άσματος 1
οριστεί 1
τιμήθηκε 1
τιου 1
γκερ 1
ολι@@ 1
6.@@ 1
στοχ@@ 1
Κύριας 1
περιοδικού 1
νερά 1
αντίτυπα 1
μεταγενέστερ@@ 1
ολοκλήρωση 1
1908 0.8571841682194312
Υπουργ@@ 1
ανθρώπου 1
νος 1
γραφές 1
δικαιωμάτων 1
οσης 1
Ρουμανία 1
διαφορές 1
Συμμετείχε 1
Δήμ@@ 1
Έρ@@ 1
υποχρεω@@ 1
διεξαγωγή 1
καμ@@ 1
σχεδί@@ 1
σύνδεση 1
ρασης 1
πληροφοριών 1
Σπουδ@@ 1
κράτησε 1
αντάται 1
Λίν@@ 1
ειές 1
Σημαν@@ 1
αδέλφια 1
λεν 1
Γερμανός 1
ελληνικών 1
81 1
Γιού@@ 1
Ιερά 1
πολιτ@@ 1
Θεού 1
Γαλλική 1
Λέν@@ 1
ασχολείται 1
στησαν 1
αναγνωρίστηκε 1
όφσκι 1
58 0.9664977306252548
Ελένη 1
ρικός 1
Πρώτα 1
Εισ@@ 1
γυμνα@@ 1
κόπ@@ 1
υσή 1
προσπαθεί 1
χαρακτήρας 1
49 0.8761811638797551
ροβ@@ 1
ειακές 1
επρόκειτο 1
ερευνητές 1
ζοντας 1
οδηγήσει 1
φυλή 1
Τέχνης 1
αυτό@@ 1
ρίζες 1
συγκέντρωσε 1
06 1
επόμενες 1
σκευ@@ 1
τηλ@@ 1
Πάν@@ 1
βάλλει 1
μεί 1
στρατιω@@ 1
μες 1
κίνησης 1
κλπ. 1
ρισης 1
βυθ@@ 1
04 1
ίστας 1
επιθε@@ 1
οριστικά 1
Α1 1
ΠΟ@@ 1
Ρωμα@@ 1
ίτα 1
κατώ@@ 1
98 1
Όρ@@ 1
αγάπη 1
απώλειες 1
Τούρκοι 1
μέρει 1
ολό@@ 1
ύλιο 1
09 1
ώτες 1
man 0.08758599860495166
Κρο@@ 1
οσύνη 1
93 1
Συγ@@ 1
αστυνομία 1
δεύτερης 1
στούν 1
Πανελλήνιο 1
τονία 1
διαφορ@@ 1
προσφορά 1
λόγια 1
γυμ@@ 1
ρικές 1
στρατο@@ 1
51 0.8809428164332695
Μακεδον@@ 1
Σχε@@ 1
ερασι@@ 1
ητικών 1
διεθνές 1
ισορροπ@@ 1
στέγ@@ 1
Εσθ@@ 1
Λά@@ 1
Μπορεί 1
ακρο@@ 1
φθηκε 1
όδια 1
όλογ@@ 1
όντας 1
έθηκε 1
εθ 1
τιζ@@ 1
φυλλ@@ 1
παραχωρ@@ 1
ρίς 1
βομβαρδι@@ 1
κόρ@@ 1
ροή 1
συνεργασίας 1
δικτα@@ 1
επιστήμη 1
ίμων 1
ελευθερία 1
Πρόεδρο 1
χρησιμοποιήθηκαν 1
Μπά@@ 1
ύθηκε 1
ώδεις 1
* 0.18825696342997741
θάνατος 1
μάς 1
διπλωματ@@ 1
ηλικ@@ 1
σί 1
84 1
αγγλ. 1
γε@@ 1
ασμού 1
Βυζ@@ 1
Ντί@@ 1
γενικές 1
γνωστο@@ 1
κατευθύν@@ 1
π. 1
ιακών 1
τανίας 1
07 1
αμμ@@ 1
αποδεκ@@ 1
συνήθ@@ 1
Βόλ@@ 1
ριας 1
Ουκρανία 1
Κατο@@ 1
ωνικών 1
Ντο@@ 1
αεροπλ@@ 1
ειρην@@ 1
πάει 1
δρα 1
ύλη 1
Πόρ@@ 1
αρμον@@ 1
ενήλ@@ 1
στρο 1
ακός 1
σεξουαλ@@ 1
ξύλ@@ 1
92 1
John 0.12818184377865216
μένως 1
ύψους 1
πιν@@ 1
πουν 1
Φόρ@@ 1
αίρεση 1
περιγραφή 1
Μεσσηνίας 1
διαχείριση 1
πριγκ@@ 1
πώ@@ 1
τοπικής 1
ωτές 1
ίτ 1
εφαρμό@@ 1
στίβου 1
διάκριση 1
αγωνιστεί 1
περιλάμβανε 1
πρωταθλητής 1
λαδ@@ 1
συγκρούσεις 1
δήμαρχος 1
νέους 1
πρωτεΐ@@ 1
Ωκε@@ 1
βιν@@ 1
κλεί@@ 1
κόρες 1
προωθ@@ 1
Κομνην@@ 1
εύονται 1
τευσε 1
αλκο@@ 1
αντίθε@@ 1
ώρας 1
Πολιτ@@ 1
στηρίου 1
ήμα 1
αυτοκρατορία 1
ολόκλη@@ 1
φυγ@@ 1
von 0.0183731567104001
ιδρυτής 1
κάλεσε 1
εθ@@ 1
μ.@@ 1
an@@ 0.06625314737949929
απάντηση 1
ητες 1
παρακολουθ@@ 1
διαδηλ@@ 1
88 1
αφήνοντας 1
Ολυμπιακός 1
εκδηλ@@ 1
σύνδεσμοι 1
εκλεγ@@ 1
πίστη 1
Πρόγραμμα 1
λαό 1
Βερολίνου 1
ήντα 1
βράδυ 1
διάδ@@ 1
καπν@@ 1
νόμος 1
1916 0.8055529395107957
h@@ 0.08169102959602599
αρκετούς 1
$ 0.1667117269533732
πυρήνα 1
έρες 1
έτες 1
βενζ@@ 1
ελληνικές 1
ανακάλυψη 1
78 1
γεγραμ@@ 1
κτι@@ 1
ώτης 1
αλογ@@ 1
μέθοδο 1
Γκέ@@ 1
ζούσαν 1
σίου 1
61 1
βαθμολογία 1
Ολλανδία 1
άσο 1
περιουσία 1
εμπειρία 1
αιθ@@ 1
συνοικ@@ 1
des 0.01027547727685733
γραψαν 1
διασχ@@ 1
ουζ@@ 1
1ο 1
? 0.3637140332526225
Λύ@@ 1
σκηνοθε@@ 1
θεάτρου 1
θει 1
κλήθηκε 1
διπλό 1
περιστατ@@ 1
δυσκολ@@ 1
ονόματος 1
σοβαρ@@ 1
Γιάννη 1
Υπ@@ 1
der 0.006709697408422106
κινηματογράφο 1
χώρησαν 1
διατηρού@@ 1
τύπων 1
αιχμαλω@@ 1
ζητήματα 1
ποσότητα 1
σιών 1
δέν@@ 1
εσωτερική 1
είν@@ 1
λό@@ 1
οβα 1
Εξωτερικοί 1
ασθενείς 1
αστρονομ@@ 1
Σφ@@ 1
εστι@@ 1
ιάν 1
δημιουργήθηκαν 1
λίγ@@ 1
τοντας 1
Κω@@ 1
ιδίου 1
ικανοποι@@ 1
έρευνας 1
αστρονόμο 1
μουσουλμάν@@ 1
τινγκ 1
γας 1
βάθ@@ 1
ανής 1
ελα@@ 1
έφθασε 1
αγοράς 1
ανεπ@@ 1
κινη@@ 1
γραμμα 1
επίσκοπο 1
φυσ@@ 1
Ψυχ@@ 1
διάλυση 1
πρωταθλήτρια 1
Β. 1
αγωνιζόταν 1
ενότητας 1
ρεαλ@@ 1
φοίτησε 1
Τις 1
άνες 1
ήτου 1
ύπαρ@@ 1
ημιτελ@@ 1
συνδε@@ 1
ἀ@@ 1
1905 0.7855476962465191
ενδεχ@@ 1
τία 1
Πολλά 1
έλο 1
αρσεν@@ 1
ματι 1
συναυλίες 1
κομητεία 1
πραγματική 1
68 1
έγερση 1
παντρ@@ 1
Μεσσ@@ 1
εκτ@@ 1
σημασίας 1
άρθρα 1
αφηγ@@ 1
βιο@@ 1
δημοτικό 1
ωκε@@ 1
αναλογ@@ 1
ισμένες 1
υπηρεσιών 1
κέν@@ 1
όλι@@ 1
Επί 1
δομές 1
σχηματισμό 1
Θράκης 1
Ον@@ 1
Ινδ@@ 1
επιβλ@@ 1
χτυπ@@ 1
ξεως 1
τίζεται 1
φίλος 1
ιέ 1
νοτιο@@ 1
έρνησης 1
δρομή 1
18ου 1
κί@@ 1
λεί 1
ούχο 1
You 0.5344441049213766
συνεχίζει 1
Απόλλωνα 1
έρχονται 1
Πέρ@@ 1
ινη 1
ομίλου 1
Απέχει 1
Γέν@@ 1
αναλυ@@ 1
μόνον 1
προέλευση 1
ριστεί 1
ράκ@@ 1
φρού@@ 1
όκ 1
ΕΣΣΔ 1
Ουκρανίας 1
οποί@@ 1
πήγ@@ 1
Διοικητικά 1
γνώση 1
εκτίμηση 1
αίμα 1
δέχθηκε 1
ανακηρύχθηκε 1
κινητήρα 1
πραγματικά 1
Βασιλική 1
βιβλίου 1
επαγγελματική 1
ούργ@@ 1
Δημητρίου 1
Πλη@@ 1
κόλ@@ 1
πολεμική 1
ρασι@@ 1
ιακού 1
Ιουδ@@ 1
Μαργαρίτα 1
αθλητής 1
ητη 1
Music 0.35114803644150144
Φράγκ@@ 1
απού@@ 1
τονται 1
κατοχής 1
σχεδιασμό 1
97 1
αξιόλογ@@ 1
δίας 1
ύβ@@ 1
καθηγ@@ 1
νευρ@@ 1
αντα 1
προσχ@@ 1
ύλες 1
ασθένεια 1
σημαντικός 1
τοποθετήθηκε 1
ακαδημ@@ 1
συστ@@ 1
υγεία 1
χρειάζεται 1
Πορτογαλίας 1
εργοστάσιο 1
ζωγραφ@@ 1
ολογικού 1
παραθ@@ 1
τόπος 1
Σάβ@@ 1
Α2 1
εορτα@@ 1
πιλ@@ 1
ed 0.030757464128042596
Κάρολο 1
ηκ@@ 1
ιταλικά 1
προϊόν 1
ορεινό 1
Μολ@@ 1
Πατρών 1
Ναβ@@ 1
Πλα@@ 1
ολυμπ@@ 1
69 1
δερ@@ 1
Ρι@@ 1
επίδ@@ 1
ανάλογ@@ 1
απορ@@ 1
αρχηγό 1
ετό 1
σχεδια@@ 1
ευγενείς 1
Εβρα@@ 1
Μισ@@ 1
Ντάν@@ 1
Γιουγκοσλαβίας 1
Ταϊ@@ 1
αναπτύσσ@@ 1
βις 1
or@@ 0.08479023798409918
προκαλέσει 1
αστή 1
πή@@ 1
74 1
ειάς 1
ομώνυμης 1
Ράι@@ 1
Σολ@@ 1
όμα 1
ΚΚΕ 1
ίκι 1
αρχιτεκτον@@ 1
γεωργία 1
αντιμετώπισε 1
κες 1
φωτογραφ@@ 1
ύλης 1
ιπά@@ 1
σήμα 1
ισμ@@ 1
Εμ@@ 1
Μνημ@@ 1
Οθωμανικής 1
σλαβ@@ 1
Κόκκιν@@ 1
Παρ 1
91 1
βασί@@ 1
Καλύτερ@@ 1
σπουδών 1
όμορφ@@ 1
ανική 1
πληθυσμ@@ 1
Λαϊκ@@ 1
διαμερίσματα 1
πολιτισμό 1
Έκανε 1
Σουλ@@ 1
βάσεις 1
γεμά@@ 1
εφαρμογές 1
τοπικά 1
Τα@@ 1
Sh@@ 0.16609350700511652
γάμου 1
περιορ@@ 1
87 1
Πανι@@ 1
Πρώτη 1
ηγέτες 1
Πετ@@ 1
συμβολή 1
Σικ@@ 1
προτού 1
Ανώτα@@ 1
οικισμοί 1
ΑΣ 1
Αστεροειδών 1
Πον@@ 1
Σκωτίας 1
αιότητα 1
σύμβ@@ 1
έντα 1
χρέ@@ 1
J 0.6066686594959511
Πολλές 1
Αλβανία 1
αστικές 1
Δευ@@ 1
ελεύθερη 1
ερχόταν 1
Υπερ@@ 1
βιλ 1
κά 1
στενά 1
Καρο@@ 1
αστικής 1
ευρ@@ 1
οικονομικών 1
ύρωση 1
ίτσι 1
δυναστείας 1
ωδ@@ 1
συνδέονται 1
χώρηση 1
έρα@@ 1
αρχαίο 1
ατς 1
τραγουδίστρια 1
Ολ@@ 1
κλε@@ 1
χρωμ@@ 1
Γιαν@@ 1
άρκα 1
ανακαλύφθηκε 1
οτεχν@@ 1
πρόσφυγες 1
τούτοις 1
τορες 1
76 1
κώδικα 1
έντον@@ 1
εκείνης 1
εμπορικό 1
κατέληξε 1
υση 1
τάξεις 1
όξ@@ 1
In@@ 0.14834293561920558
ξεπερν@@ 1
ομένου 1
τρέχουσα 1
ονας 1
φαρμακ@@ 1
αρχεία 1
ουσας 1
παλιό 1
δημοφιλής 1
γραμμάτων 1
μασε 1
ρωσική 1
25@@ 1
ποσό 1
στήρ@@ 1
Στρατηγ@@ 1
επιν@@ 1
ηγεμόν@@ 1
τρων 1
Ευαγγελ@@ 1
Σουηδ@@ 1
λήξη 1
Κυβ@@ 1
Τρα@@ 1
ονγκ 1
τριβ@@ 1
Ντέι@@ 1
λόγου 1
παλάτι 1
συνεχίσει 1
ύχ@@ 1
πιστεύεται 1
• 1
προϋ@@ 1
συνθε@@ 1
κρέ@@ 1
τράπεζ@@ 1
όσημο 1
Λόρ@@ 1
άξεις 1
Νήσ@@ 1
αλλάξει 1
επαγγελματίας 1
Βιβλ@@ 1
αύξ@@ 1
ζητ@@ 1
κοινωνικής 1
οικονομικής 1
Βε@@ 1
Πρόσ@@ 1
περσ@@ 1
τιδα 1
ΚΑ@@ 1
ωνικού 1
Διονύ@@ 1
δήλ@@ 1
1906 0.8232783721991999
βουλ@@ 1
περιεχόμενο 1
Ανάμεσα 1
δώδεκα 1
Ριχάρ@@ 1
Συνέλευση 1
τυλ@@ 1
79 1
Μεσαίωνα 1
κανονική 1
σουλτάν@@ 1
διαχωρι@@ 1
χ. 1
θέσει 1
οστά 1
πάπα 1
7.@@ 1
99 0.9764209957785204
διαμάχη 1
εμπει@@ 1
καθ 1
νικητής 1
οριών 1
πρότυπα 1
αμοιβ@@ 1
κατανομή 1
πει 1
φυτά 1
Λιθου@@ 1
μέτρ@@ 1
συνθέτης 1
ΚΑ 1
έλου 1
δύσκολο 1
θρα@@ 1
Πυ@@ 1
διατήρηση 1
άρας 1
Συνα@@ 1
μαύρο 1
οχυρ@@ 1
89 1
Ινδίας 1
Ναός 1
σος 1
αγιά 1
απέτυχε 1
εύοντας 1
σφαγ@@ 1
Βενιζ@@ 1
Βουλγαρ@@ 1
αρο 1
επιχειρήσεων 1
θηλυκ@@ 1
εντυπωσι@@ 1
ae 0.34004290677577476
Εί@@ 1
Ελβετία 1
Πάτρα 1
άγγελ@@ 1
ανέπτυξε 1
κηρύ@@ 1
μέτωπο 1
χαλκ@@ 1
− 1
μαξ@@ 1
ς@@ 1
Βισ@@ 1
αποσύρθηκε 1
κοινοβουλευ@@ 1
δυνατό 1
επαναστά@@ 1
οσφαι@@ 1
Ντό@@ 1
εξασφαλ@@ 1
θέλει 1
καλύ@@ 1
ρωσικά 1
τίστηκε 1
align 1
γενιάς 1
Δου@@ 1
Βοσνίας 1
Λογ@@ 1
υψηλότερη 1
αποτυχ@@ 1
ισχύει 1
μμ@@ 1
ζημ@@ 1
κτισ@@ 1
άσου 1
Δημιουργ@@ 1
Μακεδ@@ 1
Μεγαλ@@ 1
λειτουργούν 1
ταξινομ@@ 1
Δικαι@@ 1
Λατ@@ 1
παντρευτεί 1
καρ 1
κινεζ@@ 1
πάρκο 1
Ηρακλείου 1
αριθμού 1
ντου@@ 1
τοίχ@@ 1
Γκρέ@@ 1
Ακολου@@ 1
ναλ@@ 1
αγαθ@@ 1
ασμ@@ 1
ουλα 1
δυνατή 1
ιμος 1
ψηφοφορία 1
Κάποι@@ 1
χρωματ@@ 1
Κλί@@ 1
περιγράφ@@ 1
ταρχ@@ 1
τεται 1
μιά 1
κεφάλ@@ 1
Τζορτζ 1
.000 1
συνάντηση 1
τακτική 1
Εμπο@@ 1
άχ 1
Τρικ@@ 1
Αρκ@@ 1
εγκατάσταση 1
Ιμπ@@ 1
διανο@@ 1
εξαιρε@@ 1
επισκοπ@@ 1
ρων 1
94 1
διν@@ 1
ίλια 1
ολιθ@@ 1
άξει 1
αχθεί 1
θεωρεί 1
μαχος 1
πλησι@@ 1
ad@@ 0.0835071010313913
γίνουν 1
δημοσιογράφος 1
σταφ@@ 1
τελείωσε 1
χάρ@@ 1
ουχ@@ 1
ανακοιν@@ 1
ανεξάρτητα 1
πρώ@@ 1
φτερ@@ 1
βουνά 1
δικηγόρος 1
ισο@@ 1
is@@ 0.10126736376212771
ΐα 1
Ηρακλή 1
αλε@@ 1
οφεί@@ 1
προκύπτει 1
υπεύθυνος 1
φθινόπωρο 1
έγγραφα 1
θηκών 1
κρίν@@ 1
Χάν@@ 1
καθιέρ@@ 1
τιά 1
ιώτη 1
γνώμη 1
επανάστασης 1
διαστημ@@ 1
υποστη@@ 1
Μπέν@@ 1
διάλεκ@@ 1
επιχείρ@@ 1
θησε 1
4η 1
Επο@@ 1
βασικά 1
αναφ@@ 1
Άρης 1
Μαχ@@ 1
ασμένα 1
αστρονόμ@@ 1
λαού 1
πολιτών 1
Νόμ@@ 1
άγαλμα 1
αρχιτεκτονικής 1
έτο@@ 1
λεπτό 1
σοβαρά 1
τείχη 1
έκτασης 1
ετήσια 1
καλλιέργεια 1
τρό@@ 1
ρίδας 1
αναφέρθηκε 1
δημοψήφισμα 1
ζωγραφική 1
Κωνσταντίνο 1
κοινωνίας 1
ρισμού 1
Στέφανος 1
γή@@ 1
στροφή 1
ότερης 1
Νορβηγία 1
στόλου 1
πρωταγωνίστησε 1
Disney 1
Ιδρ@@ 1
κυρί@@ 1
χαρακτηριστ@@ 1
ωτών 1
Χριστού 1
μπουρ@@ 1
νων 1
Αλεξάνδρου 1
φιλοσοφ@@ 1
77 0.9960232058307472
Κατηγορίας 1
δάση 1
δει@@ 1
ιόν 1
όσι@@ 1
1904 0.8326677278274341
λευθέρ@@ 1
συλλογές 1
Αναφέρεται 1
μεταφρα@@ 1
έρια 1
αγωγής 1
ωτική 1
βρο@@ 1
διαστάσεις 1
τιμωρ@@ 1
ΠΑΟΚ 1
είκοσι 1
βουνό 1
Ποδοσφαι@@ 1
εβο 1
συντον@@ 1
σφαί@@ 1
τετραγ@@ 1
χρονικά 1
Windows 1
άκος 1
ιον 1
διαχω@@ 1
μοιάζει 1
λιβ@@ 1
τρόπους 1
Mar@@ 0.127559085317284
κατακτ@@ 1
Χορ@@ 1
καφέ 1
ς- 1
ώμα 1
ώτη 1
ίσσ@@ 1
ηρε@@ 1
03 1
βουλευτές 1
οχής 1
Εάν 1
ανθρώπινη 1
προσεγγ@@ 1
διατήρησε 1
πέμπ@@ 1
λογίας 1
οδοξ@@ 1
παρατηρούσε 1
ποικίλ@@ 1
ανέβ@@ 1
αναρ@@ 1
ειακ@@ 1
σινγκλ 1
Ιαπωνίας 1
αίσθηση 1
αεροσκάφος 1
τιες 1
Νί@@ 1
κύριες 1
προσπάθ@@ 1
Ηλείας 1
αλγ@@ 1
ηφαιστ@@ 1
Ολυμπ@@ 1
Στί@@ 1
διακόπ@@ 1
θεωρούν 1
φόβ@@ 1
χων 1
ανατολικής 1
εξαρτάται 1
οζ@@ 1
προήλθε 1
ταυτ@@ 1
ραση 1
συνεν@@ 1
αιγυπτι@@ 1
ανεξάρτητη 1
1911 0.7136390407255252
Μαδ@@ 1
Τάγματος 1
λίου 1
άρχου 1
μοι 1
σμών 1
τρόπ@@ 1
χρόνους 1
αποσαφήνιση 1
ληφθεί 1
μονο@@ 1
παρέμειναν 1
κόκκιν@@ 1
μετάλλ@@ 1
ζευγ@@ 1
γωνία 1
επομένως 1
κληση 1
αντικατέστησε 1
ασίστ 1
ιδίων 1
κλίμακα 1
προηγούμενο 1
αναγνωρισ@@ 1
θρο@@ 1
Συνήθως 1
αριστερά 1
μέλλον 1
Μεξικό 1
Υπήρ@@ 1
παντρεμένος 1
​ 1
Μαυρο@@ 1
ατικού 1
λατρ@@ 1
σκηνοθέ@@ 1
έρω@@ 1
Οικουμεν@@ 1
DNA 1
όφωνο 1
at@@ 0.09395765192477863
Πηγ@@ 1
άβα 1
λανδ@@ 1
πολίτη 1
Κρη@@ 1
ανταπο@@ 1
νεαρή 1
Εμφ@@ 1
καταργήθηκε 1
Αθλ@@ 1
ολλανδ@@ 1
αντιμετωπίσει 1
δημιούργησαν 1
ιστορικοί 1
σχεδίου 1
υλίου 1
05 1
Νορ@@ 1
άμι 1
εορ@@ 1
παίξει 1
περιείχε 1
άντες 1
κινήσεις 1
πτήση 1
προχώρησε 1
τωρ 1
Σοφ@@ 1
προσανατολ@@ 1
στικ@@ 1
ήττες 1
μεταγραφή 1
όι 1
Κέντρου 1
αλβαν@@ 1
αρισ@@ 1
κατανο@@ 1
γράμμα 1
σύγχρονο 1
ϊκή 1
Ερρίκο 1
ιό 1
os 0.0599339325990175
ίμ 1
ολα 1
τεχνολογία 1
περιφέρειας 1
ΡΙ@@ 1
Χει@@ 1
οδού 1
συμβουλίου 1
Επαρχ@@ 1
εύτηκαν 1
οξείδιο 1
1896 0.9887279102250587
Αιγαίου 1
έσπασε 1
χαμ 1
άνε@@ 1
αδύνα@@ 1
διηγ@@ 1
λει 1
τώντας 1
φρον@@ 1
Αγι@@ 1
Ειρην@@ 1
βορειοδυ@@ 1
μμα 1
στάδια 1
μνημον@@ 1
φέρονται 1
Πρό@@ 1
ευρωπαϊκή 1
Ιράν 1
διαλυ@@ 1
προσδιορ@@ 1
πτυχίο 1
τομή 1
υποψήφ@@ 1
επιτροπής 1
οχώρι 1
τελ 1
Οικονομικών 1
Παναθηναϊκό 1
έχεται 1
αιρέ@@ 1
w@@ 0.0860867208790682
Έχουν 1
απλό 1
λάβουν 1
παραμονή 1
κατέχει 1
κειμένου 1
λίμνης 1
Δού@@ 1
τεχνών 1
96 0.9986223977468338
εφημερίδες 1
κοκ@@ 1
ρομαν@@ 1
1907 0.7660418303026713
αναπληρω@@ 1
νώ@@ 1
ότερου 1
Έλαβε 1
Σεν@@ 1
συστημάτων 1
Χου@@ 1
ρισμα 1
Παπανδρέου 1
Φιλίππου 1
λόφ@@ 1
Γιάν@@ 1
έμπο@@ 1
αυτονομ@@ 1
μετονομ@@ 1
μετέφερε 1
γματα 1
Νέων 1
Περίπου 1
μεταφοράς 1
name 0.1223920895302064
Ουκραν@@ 1
αυξήθηκε 1
μεταπτυχ@@ 1
δημοκρατία 1
μπόρεσε 1
Φυσ@@ 1
κανα@@ 1
συνεχίστηκε 1
2022 0.465743437593448
ματός 1
συγχων@@ 1
συνοδεύ@@ 1
Εκπαίδευ@@ 1
σκέ@@ 1
φέρνει 1
Δία 1
Μάγ@@ 1
περιφέρειες 1
ers 0.05285691718016109
αφορούν 1
νησε 1
γελ@@ 1
Κλει@@ 1
παραλία 1
ταρ 1
μεθόδους 1
Μαντ@@ 1
μαθηματικά 1
παράγοντας 1
Ναζ@@ 1
ημερών 1
λαύ@@ 1
πυροβ@@ 1
φοιτητές 1
Βέρ@@ 1
Βυζαντινή 1
έκρηξη 1
Δ.@@ 1
επαφ@@ 1
περιστρέφεται 1
ωτικά 1
Car@@ 0.1634539201284038
καθηγητή 1
82 1
εξωτερική 1
εύματα 1
ωφ@@ 1
Χαϊ@@ 1
Ανατολής 1
ευρωπαϊκές 1
es@@ 0.08029529666607128
Νέο 1
δεια 1
διαπραγματεύσεις 1
TV 0.26610112206392267
´ 1
ΕΣ@@ 1
οποιοδήποτε 1
Πελ@@ 1
ακρα@@ 1
εκπρόσωπος 1
κατασκεύ@@ 1
άχν@@ 1
αντιστοιχεί 1
θάν@@ 1
ισχύ@@ 1
κώ@@ 1
μέτ 1
Φραγκίσ@@ 1
ατόμου 1
διεκδίκ@@ 1
εγκαταλείψει 1
ουελ 1
υποστηρίζουν 1
κυττάρων 1
φου 1
01 1
ίνια 1
ανακάλυψε 1
δημιουργεί 1
εινε 1
ρον 1
Con@@ 0.1364987818454746
βοηθός 1
εμποδ@@ 1
πλοίων 1
Αγίων 1
Αλβέρ@@ 1
ινών 1
ονος 1
προσωρινά 1
πρωτοβουλία 1
διαταρα@@ 1
παραμείνει 1
παρουσί@@ 1
Άλλοι 1
επιδρομές 1
κρατών 1
παρουσιάζουν 1
προκύ@@ 1
ωνύμιο 1
Αρμεν@@ 1
Πολιτι@@ 1
ερεύ@@ 1
αίους 1
απομακρ@@ 1
επιστήμονες 1
κατοίκ@@ 1
ρικά 1
Αφγανιστάν 1
Επαν@@ 1
άρο 1
φθηκαν 1
διάταγμα 1
ζα 1
παρόμοιο 1
υπόλοιπες 1
ογραφική 1
Πύ@@ 1
κύκλου 1
οδο@@ 1
συγκέντρωση 1
υποψηφιότητα 1
CD 0.5458195866881689
εισήχθη 1
20ου 1
ασφαλείας 1
εθνο@@ 1
πανηγ@@ 1
Λει@@ 1
άλμα 1
καλοκαι@@ 1
περιλαμβ@@ 1
Νεκ@@ 1
επιβεβαί@@ 1
Γεωργίας 1
δεσ@@ 1
δημιουργηθεί 1
Μπαν@@ 1
ραντ 1
συνόλου 1
χρήστες 1
Νορβηγίας 1
ευτικό 1
μεταφέρθηκαν 1
1000 0.7634386783044482
κυκλοφορίας 1
Νορμαν@@ 1
Στέφαν@@ 1
Στίβου 1
ίασε 1
κ.@@ 1
λεψε 1
ορατ@@ 1
Μάρκ@@ 1
αρά 1
ήρου 1
καλλιέργ@@ 1
υπερασπ@@ 1
1909 0.772331940164197
Λεον@@ 1
δυναστεία 1
ηχογράφ@@ 1
τίας 1
Ανεξ@@ 1
Χαν 1
υποστηρικ@@ 1
Σο@@ 1
στού 1
όλι 1
Βίλ@@ 1
Δρα@@ 1
Αικατερίνη 1
δόγ@@ 1
χρονολογ@@ 1
βιβλι@@ 1
λντ 1
ρις 1
Ταμ@@ 1
αφορού@@ 1
οκλ@@ 1
βορ@@ 1
δεικνύ@@ 1
τηγ@@ 1
φυσικής 1
Φρειδερίκου 1
τρεψε 1
άσχ@@ 1
ύλων 1
Τούρκων 1
άληψη 1
αριθμούς 1
αριθμών 1
ιλ 1
πέν@@ 1
τηλεοπτικό 1
Κατόπιν 1
θερμοκρασίες 1
μπαχ 1
ολογικών 1
Κάλ@@ 1
ελάχι@@ 1
Θεοτόκου 1
υπάρχ@@ 1
CO@@ 0.9301447150484601
Ξεν@@ 1
Στε@@ 1
άνε 1
διοικητικό 1
τύπους 1
17@@ 1
Συμβ@@ 1
αναγκά@@ 1
ομώνυμη 1
οπούλου 1
πλοκή 1
17ου 1
βασιλείς 1
σχεδίων 1
Εδουάρ@@ 1
Μέγας 1
κυβερνήτη 1
νούμερο 1
ie 0.08125939113127609
βασικός 1
κυν@@ 1
μπει 1
άνθη 1
έρον@@ 1
εκτείνεται 1
επιτέθηκε 1
ριού 1
τίποτα 1
Ολυμπιακού 1
θεωρούσε 1
λαϊκή 1
δύναμης 1
κοινοβούλιο 1
Ταν@@ 1
www.@@ 1
λαμβ@@ 1
τζαμ@@ 1
χρόνος 1
όλλ@@ 1
Δημοσ@@ 1
Ιβάν 1
Φου@@ 1
βασης 1
ρικού 1
ξέσπασε 1
υψηλότερο 1
σταθερά 1
Προέδρου 1
νομισ@@ 1
χτηκε 1
Μω@@ 1
Φινλανδ@@ 1
ήνης 1
πλοίου 1
8.@@ 1
Αυτοί 1
ορα@@ 1
στας 1
αποφάσισαν 1
ηθοποιό 1
λόφο 1
φυλές 1
αίτηση 1
αντιστοιχ@@ 1
μών 1
Περί 1
αιμ@@ 1
διαφορετικό 1
νυμφ@@ 1
συνιστ@@ 1
υψηλό 1
Ευρωπαί@@ 1
δίνουν 1
οικονομικές 1
Αλέξανδρο 1
Πηγές 1
επιστρέφει 1
ωμάτων 1
Αγων@@ 1
γεωμετρ@@ 1
ριακού 1
οκύ@@ 1
πειρατ@@ 1
φεύγ@@ 1
Βίν@@ 1
βαθιά 1
ειδικότερα 1
χρησιμοποιούσαν 1
Tr@@ 0.14239096624404474
Κοπ@@ 1
αυτοκιν@@ 1
γενικ@@ 1
σπο@@ 1
απασχολ@@ 1
ειδικό 1
επιτυχημένη 1
καταφύγιο 1
Συρία 1
επιπέδου 1
κους 1
Βαυαρίας 1
Κέρκυρας 1
υνε 1
Ανάπτυ@@ 1
Παραγωγή 1
εμφανίστηκαν 1
υποδοχ@@ 1
έμφαση 1
ισπανικά 1
ναβ@@ 1
τιού 1
εκτάσεις 1
καλλιτέχνη 1
σταθμού 1
χημική 1
Billboard 0.7856258024964275
καὶ 1
Γρηγοριανό 1
απομον@@ 1
κοι@@ 1
σκηνοθέτη 1
ρωμαϊκή 1
συνοδ@@ 1
έκλεισε 1
δασκ@@ 1
σύνταγμα 1
Αρμενίας 1
Διά@@ 1
Υψηλ@@ 1
Υπουργείου 1
χον@@ 1
da 0.07522141283745447
απλή 1
δημοσιογράφ@@ 1
μαστε 1
σχημά@@ 1
Μικρά 1
Νομού 1
Φιλοσοφ@@ 1
κοινά 1
μεγ@@ 1
προσαρ@@ 1
ρούσε 1
Μπάν@@ 1
έκφραση 1
ίντ 1
επιζ@@ 1
νται 1
αθλή@@ 1
δρόμος 1
ζύ@@ 1
Μόνο 1
τροχιά 1
Βραζιλία 1
διασκευ@@ 1
μνημεία 1
σατ@@ 1
φύγει 1
10.000 1
ΟΥΕΦΑ 1
αποδεικνύ@@ 1
δεσμ@@ 1
χάσει 1
δάσος 1
βάρ@@ 1
ετός 1
μουν@@ 1
βλ. 1
βρύ@@ 1
λης 1
νυμφεύτηκε 1
σά@@ 1
προεδρικές 1
ανασκαφές 1
ουλ 1
Μπελ@@ 1
έμαθε 1
ευρέ@@ 1
02 1
Κατερ@@ 1
δεύτερου 1
λλαγ@@ 1
οργάν@@ 1
ρης 1
βασίλ@@ 1
δυνατ@@ 1
Ιακ@@ 1
Κυριακή 1
πρωί 1
Γιαν 1
δικηγ@@ 1
καλλιτέχνης 1
Ευρωπαϊκού 1
Ολυμπιακ@@ 1
ic@@ 0.1199273204647245
style 0.26902372514796324
Αλι@@ 1
απαντ@@ 1
απογόνους 1
δυνατόν 1
Ομοσπον@@ 1
εφόσον 1
δημιουργίας 1
τιών 1
ρεφ@@ 1
18@@ 1
An@@ 0.08528481710706713
εκλογική 1
ουγ@@ 1
πλημ@@ 1
σκοτώθηκαν 1
επέλεξε 1
κόλπο 1
συμπληρ@@ 1
1.000 1
Τηλε@@ 1
εξακολουθεί 1
καλές 1
καυσ@@ 1
μενα 1
νωση 1
υπεύθυν@@ 1
ανιχν@@ 1
παραστ@@ 1
θεατών 1
ματικού 1
ατμόσφαιρα 1
γενικός 1
μεταβ@@ 1
ακόλουθα 1
Θεόδωρος 1
ίστ 1
δικαστήριο 1
αποστολής 1
επιθυμία 1
ηρω@@ 1
as@@ 0.08085814769445912
Καζακστάν 1
βελτίωση 1
ζωγραφικής 1
στρά@@ 1
συγκρού@@ 1
τρομοκρατ@@ 1
έπει 1
απαιτεί 1
τρού@@ 1
ώνος 1
δεται 1
ενεργά 1
λή 1
2,@@ 0.6839741742045199
ελαι@@ 1
παρεκκλ@@ 1
αναστ@@ 1
επικίνδυν@@ 1
Ομάδα 1
ανοσ@@ 1
γκι 1
εφημερίδας 1
δόσεις 1
ειου 1
σύντομη 1
Ηνωμένου 1
Χάιν@@ 1
ψεων 1
έστερα 1
βιχ 1
ντο 1
στρατιωτικός 1
αποτελούνταν 1
οποίησε 1
ωτή 1
Ιστο@@ 1
λημα 1
μάζ@@ 1
υποθέσεις 1
ξεχω@@ 1
τασης 1
τραγουδιστής 1
Ζηλανδ@@ 1
αποκατάσταση 1
ειος 1
ταξίδεψε 1
ταξιν@@ 1
Τό@@ 1
Φ 1
παραδοσιακή 1
Ονομ@@ 1
Ρουμανίας 1
διάδοχο 1
καταστάσεις 1
ναρκ@@ 1
γωγ@@ 1
1897 0.9110933614259042
SS 0.7472166961190426
λατινικά 1
τρες 1
Κρα@@ 1
ήλιο 1
αποτυχία 1
απόλυ@@ 1
όγκο 1
Σχολ@@ 1
βλάβ@@ 1
σκοπο@@ 1
Τουρ@@ 1
δηλ. 1
όβα 1
ήμης 1
κυτταρ@@ 1
συμφώνησε 1
Μό@@ 1
Πλοκή 1
Σχεδ@@ 1
ήμερ@@ 1
κάθ@@ 1
ωτικών 1
Σημει@@ 1
αντιπ@@ 1
άμυνα 1
τροφή 1
αξιωματικός 1
θρησκευτική 1
πανεπιστημι@@ 1
όσια 1
Ιησού 1
δήλωση 1
ισχυρό 1
ογέν@@ 1
απέζ@@ 1
αρκετοί 1
ειρήνης 1
ποσότητες 1
επεξεργασία 1
κύκλος 1
ροφορ@@ 1
όλιο 1
ol@@ 0.10720969415111947
γαλλικό 1
λοι 1
μαλλ@@ 1
όνε 1
Br@@ 0.14716636008082942
Εβραίοι 1
δημόσιο 1
λάθος 1
πούς 1
γερμανικό 1
χωρητικότητας 1
Λεβ@@ 1
Παύλου 1
καρδιά 1
μεταφορ@@ 1
πετυχ@@ 1
Οξ@@ 1
Υγείας 1
ιδιότητα 1
Βρετανίας 1
Παύλος 1
Προς 1
κυκλοφορήσει 1
ρεπ@@ 1
ινής 1
παγκόσμι@@ 1
ρόπολη 1
Ατλαν@@ 1
Γουλιέλμου 1
τέταρ@@ 1
προβλημάτων 1
διαπιστ@@ 1
Σικελίας 1
αντίθετα 1
κοινωνικές 1
μαι 1
ξεκ@@ 1
χαρακτή@@ 1
120 0.9411286217195183
νόμισμα 1
Πί@@ 1
μαϊκ@@ 1
νοτιοδυ@@ 1
πλευρό 1
700 1
Βατ@@ 1
Πιο 1
άκων 1
επαρκ@@ 1
ευόταν 1
κάποτε 1
συγκέντρωσης 1
υποτελ@@ 1
Σβ@@ 1
σωλ@@ 1
αλίας 1
περιγράφεται 1
Αυτοκράτορας 1
επιλέχθηκε 1
Γαλλικής 1
Ρωσική 1
τικότητας 1
υδρογόνου 1
βασικές 1
ιδιοκτησία 1
ταση 1
Πελοπόννησο 1
διαλύθηκε 1
κορυφαία 1
v 0.2566125176859695
κλασική 1
τέν 1
γεί@@ 1
Τούρκ@@ 1
Ενότητας 1
Τμή@@ 1
θρι@@ 1
ίσταται 1
ολο 1
χο@@ 1
Κυρι@@ 1
ερή 1
κρυφ@@ 1
συλλόγους 1
φορού@@ 1
ΚΟ@@ 1
ειο@@ 1
ετς 1
όσους 1
7,@@ 0.9234643839403537
9.@@ 1
γλυ@@ 1
λειτουργίες 1
διάταξη 1
θων 1
νεαρ@@ 1
βάλλεται 1
μέρ@@ 1
παραδείγματα 1
τήθηκαν 1
ψή 1
ματικός 1
οργανισμούς 1
υπόλοιπη 1
ούδα 1
ούσα 1
προέ@@ 1
τέρματα 1
έσκ@@ 1
απειλή 1
δομής 1
εκτικά 1
ιδιοκτη@@ 1
ούντας 1
Ώ@@ 1
ελάχ@@ 1
βλέπει 1
ουστ@@ 1
π.Χ 1
2.000 1
Κώστα 1
Σιγ@@ 1
ασημέν@@ 1
διδάσκ@@ 1
μάρτυ@@ 1
οξέος 1
ταθεί 1
ΕΠΣ 1
Σαχ@@ 1
ειακά 1
Μητ@@ 1
θως 1
φωτειν@@ 1
χρησιμοποιούνταν 1
16ο 1
Παλαιστ@@ 1
Ι. 1
Μπού@@ 1
έτι 1
εξέχ@@ 1
αγκα@@ 1
ατος 1
δώ@@ 1
μεταφέρ@@ 1
νή 1
σιν 1
Πόν@@ 1
18ο 1
Συντάγματος 1
κατάταξη 1
it 0.021620753705946738
κομητ@@ 1
νακ@@ 1
στόλο 1
σιδηρο@@ 1
1903 0.77305736242141
λάμβανε 1
Δαμ@@ 1
Μογγ@@ 1
νευσε 1
am 0.039059689357374236
Ελεύθερ@@ 1
Ναυτικού 1
καθή@@ 1
one 0.0337873137170446
Ευρωπαϊκ@@ 1
επισκόπου 1
χρησιμοποιήσει 1
Εβραίων 1
άρου 1
βου 1
εκλέχθηκε 1
χρησιμοποιούσε 1
θεν 1
θρί@@ 1
Βουργουνδίας 1
θυν@@ 1
ούλια 1
τελευταίου 1
τοποίηση 1
Ιω@@ 1
Κεφαλ@@ 1
ισλαμ@@ 1
Γκαρ@@ 1
Μουσουλμάν@@ 1
Πόλη 1
ίσεων 1
επεν@@ 1
καλύτερες 1
σταλλ@@ 1
συνείδ@@ 1
ύψ@@ 1
26@@ 1
it@@ 0.08921140845205901
Αδελφ@@ 1
θουν 1
ισθ@@ 1
πλούσι@@ 1
στατο 1
συνωμ@@ 1
6,@@ 0.9183826253965708
καταφέρει 1
αντιμετώπιση 1
απαιτείται 1
μετανάστ@@ 1
Γυναικών 1
άστι@@ 1
συστατ@@ 1
Ακόμα 1
Μερικά 1
Τομ@@ 1
Αγκ@@ 1
Πέν@@ 1
ειρά 1
μέσου 1
om@@ 0.11960935800476244
σώ@@ 1
ττα@@ 1
λέγονται 1
πολιτείας 1
φιλελεύθερ@@ 1
Όμιλος 1
Ολλανδίας 1
μάρ 1
Σαβοΐας 1
εισήγαγε 1
μεταφερ@@ 1
εγκαθ@@ 1
αποτελέσ@@ 1
ητος 1
κεραμ@@ 1
σκα@@ 1
άλυψ@@ 1
κάποιοι 1
ήμες 1
ρίγκ@@ 1
Πελοποννήσου 1
γραφεία 1
δηλώνει 1
ελάχιστα 1
Δυναστ@@ 1
ζητώντας 1
πολιτικού 1
πρός 1
στρατευμάτων 1
βροχ@@ 1
γεύ@@ 1
μαθητής 1
οπρ@@ 1
ριάς 1
παίκτη 1
σκοπούς 1
Βαρκελ@@ 1
Λιμ@@ 1
άλματα 1
γενικότερα 1
επεξ@@ 1
κυρίαρχ@@ 1
εμφανιστεί 1
μονία 1
τετράγ@@ 1
χορο@@ 1
Βρα@@ 1
μεσολ@@ 1
άρρ@@ 1
επιβί@@ 1
μεταφέρει 1
Άγγελ@@ 1
Του 1
άλυψε 1
μαύ@@ 1
συστάθηκε 1
Βέ@@ 1
Μητροπολίτης 1
ποιήματα 1
ΑΣ@@ 1
αποτέλεσαν 1
δηλητη@@ 1
ac@@ 0.09393761940648043
καθιστά 1
παραμένουν 1
προεδρ@@ 1
Κεντρ@@ 1
συγκρο@@ 1
Δημήτρη 1
Μερικές 1
Μικρασι@@ 1
Πανα@@ 1
Σίν@@ 1
τείν@@ 1
αξίες 1
εκθέσεις 1
νοντας 1
σύντομο 1
ξία 1
παροχή 1
διασκ@@ 1
υπη@@ 1
βρίσκει 1
κοιλι@@ 1
πρόποδες 1
συναλλαγ@@ 1
τάχθηκε 1
Ιωάννα 1
ασθέν@@ 1
επισκέπτες 1
πτερ@@ 1
σκοτειν@@ 1
τησή 1
Βλαχ@@ 1
Μέσ@@ 1
Σύμβ@@ 1
Τράπεζα 1
Τσε@@ 1
βασαν@@ 1
ενημέρωσης 1
καλό 1
υπολογιστή 1
συνέχισαν 1
δημοφιλές 1
διοικητή 1
μέτρο 1
ουδέ@@ 1
τέλει@@ 1
Βέλγιο 1
εύκολ@@ 1
ράφηκαν 1
σταθερή 1
συνταγματ@@ 1
όχθη 1
ήρθαν 1
σοφ@@ 1
τέν@@ 1
αντιπροσωπεύει 1
ντερ 1
απομακρύν@@ 1
είπ@@ 1
λογοτεχνίας 1
αναπτυ@@ 1
ζώ@@ 1
λαβ 1
άρχες 1
διαθέτουν 1
θορ@@ 1
τοποθετη@@ 1
Φρανς 1
τρόφ@@ 1
Ελληνίδα 1
μεναν 1
παρ 1
Τραγ@@ 1
ήτ@@ 1
υγρό 1
ϊν@@ 1
ώσεως 1
4ο 1
ine 0.08971457084751992
Ιαπ@@ 1
έβδομ@@ 1
χελ@@ 1
αναμετρ@@ 1
Ρωμαίοι 1
αυθεν@@ 1
εκατοντάδες 1
μεταβολ@@ 1
Νου@@ 1
γκελ@@ 1
μονοπ@@ 1
πυκνότητα 1
ρισκ@@ 1
5η 1
Τσάμπιονς 1
Εμμανουήλ 1
Υπό 1
Ζά@@ 1
Πολέμ@@ 1
λίγους 1
προβλήθηκε 1
φώ@@ 1
βασιλικό 1
διώκ@@ 1
επισημ@@ 1
μέσων 1
μερικούς 1
πεδίου 1
δεξαμεν@@ 1
κισσα 1
Γερμανών 1
Ελ 1
1878 1
λαμαν@@ 1
σημερινής 1
Διευθυν@@ 1
αντιπρόεδρος 1
χρηματ@@ 1
Δημοτική 1
Πάτρας 1
φανέλα 1
πανελλήν@@ 1
De@@ 0.17889922465169097
αιχμάλω@@ 1
εσε 1
κουν@@ 1
προσώπων 1
Λορ@@ 1
Χρήστος 1
αντικει@@ 1
βεβ@@ 1
περιβαλλον@@ 1
στέλ@@ 1
ελέγ@@ 1
μπια 1
πεθάνει 1
Μπον@@ 1
ακρίβεια 1
πλαγιές 1
σύγχρονης 1
φράση 1
άξονα 1
λαν@@ 1
προσωπικ@@ 1
υποβιβασ@@ 1
Σαλαμ@@ 1
όσχ@@ 1
Διεθνή 1
άντι 1
χρηματοδο@@ 1
Παραδ@@ 1
ολογίες 1
ψι@@ 1
Διαγων@@ 1
Ναυτικό 1
Πορτογαλία 1
Συμμετ@@ 1
νομικά 1
οδομ@@ 1
όρη 1
Κοινοβουλευ@@ 1
Χέ@@ 1
άκρη 1
ανταρ@@ 1
απογραφές 1
Τσεχ@@ 1
ρολογ@@ 1
χαμηλή 1
1890 0.8058733787203475
πολιτικούς 1
Δανία 1
άρτηση 1
γραφικά 1
δακτύ@@ 1
διαιτη@@ 1
πίστευε 1
φροντ@@ 1
Βάρ@@ 1
Σύλλογος 1
επώνυμο 1
όσεων 1
Λό@@ 1
έκα 1
προπ@@ 1
Επί@@ 1
έδινε 1
ονική 1
συντήρ@@ 1
φάλ@@ 1
προειδ@@ 1
συνδέει 1
υποχρε@@ 1
Live 0.762113288883856
όπερ@@ 1
Μόρ@@ 1
θεωρηθεί 1
μεύ@@ 1
αρχείου 1
επισ@@ 1
εκμετάλλ@@ 1
μπέ@@ 1
πραξικόπημα 1
συντελε@@ 1
χρονική 1
λειτούργησε 1
οφόρων 1
αίοι 1
ρίτη 1
υποστηρικτές 1
πραγματοποιείται 1
στέλεχος 1
δίδαξε 1
επεκτάθηκε 1
ποιητή 1
τολή 1
βη 1
θι 1
Άργ@@ 1
Αντιόχ@@ 1
συγκρότη@@ 1
17ο 1
αντίστοιχο 1
βλεπε 1
διαπραγματ@@ 1
τροφίμων 1
000 0.3665034427595629
Ναπολέοντα 1
άλογα 1
εκπροσώπ@@ 1
κιθαρ@@ 1
πριγκίπισσα 1
γράφοντας 1
φυσικού 1
χρονολογούνται 1
Αερ@@ 1
εβί@@ 1
ούτ@@ 1
Πό@@ 1
τέλεσε 1
ΑΝ@@ 1
δήμους 1
ησία 1
συλ@@ 1
Ζερ@@ 1
Ορθόδοξη 1
Σουλτάν@@ 1
Δύ@@ 1
Λάρισας 1
έσκο 1
κανόνα 1
συνάντησε 1
ωβ@@ 1
W 0.35885559661718675
Εικ@@ 1
τεράστι@@ 1
τικα 1
λεγόμενη 1
ογι@@ 1
ρίσεις 1
επικράτησε 1
Ελευ@@ 1
διαδικασίες 1
ζι 1
καθε@@ 1
πολέμους 1
μεγάλους 1
παράλληλ@@ 1
σερβ@@ 1
κ.λπ. 1
ραφεί 1
Βορείου 1
μιγ@@ 1
ορος 1
Πυρ@@ 1
οτέχ@@ 1
χώρησε 1
Χημ@@ 1
εμπλ@@ 1
επικράτεια 1
Πεζ@@ 1
Σκην@@ 1
λεωφορ@@ 1
ταξης 1
εύσεις 1
οριζ@@ 1
πετρελαίου 1
στρατηγό 1
δύσκολη 1
ιφ@@ 1
ότυπο 1
διαφημ@@ 1
συμμε@@ 1
Άρτας 1
Ρεθύ@@ 1
διστ@@ 1
Q@@ 0.2592965536962821
ψευδώνυμο 1
ik@@ 0.1735679987034538
Λ 1
Πίτερ 1
ηγέτη 1
αρμεν@@ 1
βαλλ@@ 1
κατάταξης 1
ούντ@@ 1
Αγγελ@@ 1
Αρκαδίας 1
Ντε 1
άλογο 1
έσουν 1
διεθνούς 1
θύματα 1
Τάγμα 1
έλας 1
γενέτ@@ 1
εγκεφαλ@@ 1
τομα 1
Βιέννης 1
δρόμων 1
καθόλου 1
Οσ@@ 1
σκορ@@ 1
διδασκαλία 1
σταματήσει 1
Ρωσικής 1
ήνες 1
αδερφ@@ 1
ιστες 1
μουσουλμαν@@ 1
χιον@@ 1
Εκκλησι@@ 1
ημιτελικά 1
καταγ@@ 1
Γιουγκοσλαβία 1
ka 0.19058520875340648
Λεω@@ 1
Σπύ@@ 1
Λειτουργ@@ 1
Αλεξάντερ 1
Αψβούργων 1
Παρόλα 1
Χρυσή 1
Αυλ@@ 1
εκατο@@ 1
εντερ@@ 1
ερν 1
πρωτεύουσας 1
Μαζ@@ 1
λεπτομέρειες 1
παραδό@@ 1
φάρμακα 1
ύχημα 1
καθεστώτος 1
ούμε 1
Άλλ@@ 1
εκδο@@ 1
ευθεί 1
ντεν 1
Αρχαία 1
Σερρών 1
έδειξαν 1
βάρους 1
πεθ@@ 1
πρωτοπ@@ 1
ούρ 1
παρεμβ@@ 1
πλέ@@ 1
Μπουρ@@ 1
βάν 1
επέμβαση 1
προέκυψε 1
Καστο@@ 1
Υπηρε@@ 1
ευρωπαϊκό 1
μπρι@@ 1
ποιότητα 1
πολεμικά 1
ρρο@@ 1
Κλά@@ 1
δίνεται 1
Ιρλανδία 1
Κέρκυρα 1
εταιρ@@ 1
μετάλλια 1
μηδεν@@ 1
τίθενται 1
Καραϊ@@ 1
άνοι@@ 1
θλι@@ 1
Σκοπ@@ 1
επιστημ@@ 1
ριβ@@ 1
καταλήγει 1
πεδιν@@ 1
πρα@@ 1
ύρης 1
Black 0.37492088756973546
Δικαστήριο 1
θεωρούνταν 1
κρατίας 1
παραδόσεις 1
τομέ@@ 1
φιν@@ 1
Αλβανίας 1
Πολ 1
μοτί@@ 1
τοποί@@ 1
1899 0.8153566307524895
Αγ 1
Αλε@@ 1
ίδ 1
ανιψι@@ 1
γρήγορ@@ 1
οσίας 1
προσωπο@@ 1
th@@ 0.08985258550453463
παιδική 1
ρεύμα 1
φίλους 1
16ου 1
καταργ@@ 1
φτωχ@@ 1
σχηματίζει 1
φωτιά 1
Κοινοβουλίου 1
εδαφ@@ 1
υπτο@@ 1
αίνεται 1
αναφοράς 1
γενν 1
εισι@@ 1
ation 0.031711227707344886
πνεύμα 1
ριου 1
στάθ@@ 1
σχηματίζουν 1
κωδικ@@ 1
πιθανή 1
αίτη@@ 1
αιναν 1
κοι 1
συνεχή 1
Ιουστ@@ 1
αγόρασε 1
Ρίτσαρντ 1
αφορμή 1
καλύπ@@ 1
ποινή 1
International 0.17352871717126556
Ταξι@@ 1
έκα@@ 1
ανεξ@@ 1
καθιερώθηκε 1
ορισμένων 1
εύρεση 1
στι 1
Ηλι@@ 1
τίτ@@ 1
ωνόταν 1
Ίδρυμα 1
άνοιγμα 1
ήβ@@ 1
ζητήσει 1
υγή 1
Οκ@@ 1
ζημιές 1
κέρδισαν 1
μπος 1
8,@@ 0.992749222830643
ίδου 1
καιρούς 1
απόπειρα 1
στυχ@@ 1
Th@@ 0.16028338227723193
πειρά@@ 1
τίων 1
Man 0.42736115366248084
Αραγωνίας 1
Οθωμανούς 1
Ροβέρ@@ 1
αερο@@ 1
0.@@ 0.41022094765005734
21@@ 1
Αγώνων 1
Κρε@@ 1
δραματική 1
κελ@@ 1
οκρά@@ 1
Cor@@ 0.18622008292311973
Αυτοκ@@ 1
δισ@@ 1
Καβ@@ 1
Προεδρ@@ 1
διαφων@@ 1
ιακός 1
ομίλους 1
τσε 1
ύλακα 1
Πασά 1
σουλ@@ 1
τριχ 1
Μεγ@@ 1
δολοφονήθηκε 1
θώ@@ 1
Χριστο@@ 1
δίκ@@ 1
τελετουργ@@ 1
Ζωή 1
ένδειξη 1
αποχώρηση 1
εκπομπές 1
Η.Π.Α. 1
Μπορ@@ 1
έκτησε 1
δωρε@@ 1
Γκρά@@ 1
Κοκ@@ 1
αποστολές 1
αρχαίων 1
βαν 1
τορο 1
δύσκολ@@ 1
εργαλ@@ 1
εφαρμογ@@ 1
πέδου 1
προτάσεις 1
Βοιω@@ 1
Γενικός 1
Κογκρέ@@ 1
παρέχουν 1
3ο 1
αγνο@@ 1
αλλού 1
πληροφ@@ 1
Μέρ@@ 1
αντάλλαγμα 1
ευρε@@ 1
όγειο 1
ανω@@ 1
κοιμ@@ 1
έγεται 1
καλλιτεχνών 1
ξεκινώντας 1
πλησί@@ 1
σής 1
εξαπλ@@ 1
προβολή 1
Λευκορω@@ 1
αποφάσεις 1
δημοσ@@ 1
χωρίζεται 1
Κινέζ@@ 1
Κοζ@@ 1
ανέρχεται 1
γρά@@ 1
te 0.042849304674012524
Σέ@@ 1
δέσμ@@ 1
ετούς 1
σκότωσε 1
ύρη 1
Αλεξάνδρεια 1
ακρω@@ 1
ανούς 1
αποδίδεται 1
ογραφικά 1
ταυτότητα 1
Καλαβ@@ 1
ευρύ 1
ισμένοι 1
κινηματογραφική 1
χαρακτηριστεί 1
Κοσσυφοπ@@ 1
άλε 1
παραίτηση 1
Σάντα 1
αγώνισμα 1
νόμους 1
φτάνοντας 1
ΒΑ 1
υποβιβάστηκε 1
23@@ 1
γράφος 1
χάλκινο 1
βρε@@ 1
δικής 1
εντρ@@ 1
ούλ 1
1870 0.8249973221637839
βρίσκ@@ 1
εκατ@@ 1
μελετητές 1
ύφ@@ 1
γεται 1
ζήτησης 1
καταστήματα 1
προϋπολογ@@ 1
Ρωμαίους 1
θήματα 1
μηχανή 1
αρχιτέκτονα 1
οδός 1
πράσινο 1
τάς 1
τραγουδιών 1
Διατ@@ 1
ευρω@@ 1
στρατηγική 1
σωματείο 1
St@@ 0.11882651259675593
Αστυνομ@@ 1
Κίν@@ 1
εγγον@@ 1
θεωρίας 1
σχολι@@ 1
υπάλληλ@@ 1
πίσ@@ 1
pop 0.6618635587645688
Φραν@@ 1
εξέφ@@ 1
θεωρίες 1
σύγ@@ 1
ad 0.1533868512089165
θαλάσσι@@ 1
όχθες 1
αφρικαν@@ 1
τολόγ@@ 1
Μέγα 1
νικ 1
οντ 1
ουζ 1
ίδι@@ 1
βιν 1
ιζαν 1
πρώιμη 1
Α.Ε. 1
οικονομίας 1
σετ 1
250 0.7974378638115109
ευθ@@ 1
δανει@@ 1
άγνωστο 1
ανανέ@@ 1
ομιλία 1
πληθυσμών 1
υλικών 1
Μέν@@ 1
Φέρ@@ 1
δυσαρ@@ 1
Αριστ@@ 1
Ρ 1
Σταδιοδρομία 1
αριστερό 1
δάσκαλος 1
υρα 1
́ 0.19611692965487396
Δούκας 1
επενδύ@@ 1
υποβιβ@@ 1
ήματά 1
λαμβάνεται 1
τονίας 1
Le@@ 0.13356893011076199
Εξελέγη 1
ίδρυσαν 1
Γουίλιαμ 1
Καλαμά@@ 1
έξοδο 1
ευθύνη 1
όπων 1
1881 1
άθλημα 1
ιστάν 1
τοί@@ 1
Μόλις 1
αδια@@ 1
αλφάβητο 1
αποκλείστηκε 1
γέννηση 1
30@@ 0.7673662513471097
αποκλεί@@ 1
γνωρίζει 1
δημοσιεύθηκε 1
ελεύθερο 1
ενσωμά@@ 1
μορφής 1
Πρώτος 1
επέστρεψαν 1
επανήλθε 1
τάσεις 1
τίο 1
τιθέ@@ 1
ώβ@@ 1
ana 0.11795829016756595
ton 0.11442041824548856
Λάρ@@ 1
Φωκ@@ 1
εμπορικά 1
Κώ@@ 1
ίνιο 1
Ρί@@ 1
Ρεν@@ 1
άχθηκε 1
κια 1
προηγούμενες 1
πρόσθετα 1
συναυλία 1
Μερικοί 1
γκο@@ 1
θεμάτων 1
θητείας 1
ινές 1
κιθάρα 1
προκαλώντας 1
Γνω@@ 1
εξώ@@ 1
κάποιου 1
ξέσπ@@ 1
περιβάλλοντος 1
σωματεία 1
ta 0.12396187727528804
Αρχηγ@@ 1
Κωνσταντιν@@ 1
θεώρηση 1
κτιρίου 1
συμπέρασμα 1
εργαζόταν 1
δαπ@@ 1
διαδεδο@@ 1
ντρ@@ 1
ονήσου 1
ρέν@@ 1
ωνος 1
ύρες 1
έφτηκε 1
βυζαντινή 1
κατηγ@@ 1
συνειδη@@ 1
χαρτο@@ 1
ισχύος 1
κάλυψη 1
μβούργο 1
πέρασαν 1
τζα 1
ότυπ@@ 1
Ραμ@@ 1
έτης 1
αστικών 1
διάδοχ@@ 1
διάρκειας 1
ημέρας 1
γερμανικής 1
λαβαν 1
μπολ 1
ΑΕ@@ 1
ήσουμε 1
Νταν@@ 1
ονόμασε 1
ωνικές 1
3.000 1
δυναμικό 1
ώδους 1
ολόγο 1
υπεύθυνη 1
Ναύ@@ 1
μίλια 1
στέ@@ 1
Διαθή@@ 1
ίδρυμα 1
αρμοδι@@ 1
κάποι@@ 1
λεκτ@@ 1
Μονής 1
Παγκόσμιος 1
αμο 1
Σωματ@@ 1
ευμα 1
ομοσπονδία 1
υπολογιστών 1
έθηκαν 1
ίθμ@@ 1
ναλντ 1
ρέψει 1
ρινή 1
Λευκωσίας 1
Μαδρίτης 1
Πιερ@@ 1
Χασ@@ 1
εκατό 1
ούπολη 1
όκο 1
Ντού@@ 1
βρετανική 1
ποιότητας 1
στερη 1
ενίσχυση 1
καταδικάστηκε 1
Γυμνάσιο 1
ΕΡ@@ 1
γλύπ@@ 1
θείο 1
ογραφίες 1
όλας 1
ώπου 1
Όθωνα 1
Δεδ@@ 1
διακοπ@@ 1
προεδρία 1
όζεφ 1
Λε 1
ιερέας 1
1902 0.6980237924312004
επικρα@@ 1
ημά 1
μικρότερα 1
ειλε 1
ευθύν@@ 1
θέτοντας 1
απεικόνιση 1
απονεμήθηκε 1
ενδ@@ 1
πολυτελ@@ 1
Αιτωλοακαρνανίας 1
Υπηρέτησε 1
κτήρια 1
συναισθ@@ 1
Ανθ@@ 1
Κληρονομ@@ 1
άδελφ@@ 1
ήση 1
ανεξαρτησίας 1
γλωσσών 1
ηματο@@ 1
αμερικανικό 1
ομαλ@@ 1
φυσικές 1
χης 1
1880 0.8358064531601281
αυξάνεται 1
background 0.9008019542385669
δόθηκαν 1
ειχθεί 1
κανδι@@ 1
λεπτομερ@@ 1
ορία 1
σκεπ@@ 1
άνας 1
αναζήτηση 1
δυλ@@ 1
οποιηθεί 1
τυγ@@ 1
Αμβέρ@@ 1
άγο 1
όβια 1
μασ@@ 1
ορίου 1
παράγ@@ 1
πορτρέ@@ 1
όλια 1
u@@ 0.09253541742841644
δείγμα 1
δημοφιλή 1
εξελί@@ 1
λήμ@@ 1
προστασίας 1
στρατηγού 1
τεκμη@@ 1
τικη 1
όπερα 1
ύτερα 1
αστούν 1
μπι@@ 1
Λυκ@@ 1
Σίτι 1
διάμετρος 1
Λουδοβίκο 1
άσταση 1
αναπτύ@@ 1
κατάρ@@ 1
λάμβαναν 1
πετοσφαίρισης 1
υπογραφή 1
οβο 1
παραδοσιακό 1
ύρι 1
ot@@ 0.09578589774530043
Ηρακλής 1
διήρκεσε 1
μετατράπηκε 1
ύτερ@@ 1
Πακιστάν 1
Συνέδριο 1
ικς 1
κρο@@ 1
οποιούνται 1
αρο@@ 1
σεναρι@@ 1
συντάκ@@ 1
re@@ 0.026465046215456315
Ισλάμ 1
ξεπερ@@ 1
Πιθαν@@ 1
μουσικά 1
ΕΔ@@ 1
Ταξ@@ 1
έρθει 1
μπλ 1
χρησιμοποίησαν 1
Παναγιώτης 1
έκτη 1
αντες 1
καθορι@@ 1
κλίμακας 1
ley 0.12999655843820593
Νίκ@@ 1
ραδιο@@ 1
αΐ@@ 1
αντλ@@ 1
βουν@@ 1
εξεγέρ@@ 1
νει 1
προνόμ@@ 1
ράν 1
φυτών 1
ασχολούνται 1
πρέσ@@ 1
πύλη 1
Γερμανική 1
ήρω@@ 1
αντρ@@ 1
δημοτικά 1
μπορούμε 1
σσας 1
σχολής 1
28@@ 1
Παναγία 1
Συνταγ@@ 1
κασ@@ 1
διος 1
θμισης 1
μηχανική 1
ορισμένοι 1
ίστρια 1
ίχνη 1
ομοσπονδιακ@@ 1
τομία 1
Αυστραλίας 1
Λομβαρ@@ 1
γέφυρ@@ 1
πρωθυπουργ@@ 1
li@@ 0.09446661152693091
Παγκόσμια 1
Συχνά 1
παράγουν 1
προσπάθησαν 1
Αεροπο@@ 1
Θεωρ@@ 1
εξέταση 1
νερ@@ 1
id 0.246292576043616
Ρωμαίων 1
απεί 1
επιστήμες 1
κήρυ@@ 1
τσαρτ 1
Μαρτ@@ 1
Χοσ@@ 1
ίτιδα 1
στρατιωτών 1
Πολιτισμού 1
Σμύρνης 1
Τουλ@@ 1
κατάλογος 1
color 0.46747230413952906
άνεια 1
έπαιζε 1
εξορ@@ 1
σύνη 1
Έχοντας 1
Λουξε@@ 1
φίλο 1
1895 0.7830395542432413
Μέση 1
αλλιώς 1
ρέψουν 1
συναρτ@@ 1
Δαρ@@ 1
κοινωνικά 1
Πρεσβ@@ 1
Φίλιππο 1
άσμα 1
έται 1
βασιλικής 1
κίτρι@@ 1
Καπ 1
ακολουθούσε 1
διαρ@@ 1
θάλ@@ 1
Ασφ@@ 1
Πήρε 1
διαιρέ@@ 1
περιέγραψε 1
1835 1
ch 0.10917579281111765
δεχτεί 1
όπα 1
ΙΑ 1
Πρε@@ 1
αποφασίζει 1
υγι@@ 1
Ν.@@ 1
δολαρίων 1
μηση 1
παλαιότερη 1
παρουσιάζεται 1
ποιος 1
συσσ@@ 1
φάσμα 1
Όλοι 1
Ιταλός 1
αποθηκ@@ 1
θησαυ@@ 1
τυπικά 1
Ειρήνη 1
Συμφ@@ 1
αλλαγ@@ 1
σή@@ 1
σχέσεων 1
Ποσειδ@@ 1
Φρανκ 1
αμιν@@ 1
δηλώσει 1
ωμά 1
Θεσσαλ@@ 1
αναζη@@ 1
κολλ@@ 1
ριχ 1
αστέρες 1
εργαστήριο 1
πράσ@@ 1
στάλθηκε 1
ήτες 1
αερίου 1
εξίσ@@ 1
ικία 1
μεγάλ@@ 1
στεφ@@ 1
ύματα 1
ώνια 1
Σύντομα 1
ικης 1
ιτών 1
μόνιμα 1
λαμπρ@@ 1
έσοδα 1
ενσ@@ 1
εξελίχθηκε 1
ποικιλ@@ 1
Ρωμαιοκαθολ@@ 1
δρόμ@@ 1
αντίληψη 1
δυνα@@ 1
πρόλ@@ 1
τύποι 1
Αλεξανδ@@ 1
Αυτοκρατορ@@ 1
αρτ@@ 1
ικανότητες 1
Ιππ@@ 1
Διεθν@@ 1
αναγνώρισε 1
δημοσιεύτηκε 1
ιδιαίτερο 1
ροπή 1
υποστεί 1
φυσικών 1
θοι 1
λλου 1
ωνες 1
Mon@@ 0.15210664190041587
Λι 1
Μαρκ 1
Φερδινάν@@ 1
αιχμαλώ@@ 1
επιλεγ@@ 1
εϊ@@ 1
Βασίλης 1
επίθεσης 1
εργασιών 1
ευρεία 1
υπουργού 1
ωτά 1
na 0.12450779663590154
Σύγ@@ 1
επε 1
τιμής 1
Μαί@@ 1
έφυγαν 1
Ταιν@@ 1
Ταυτόχρονα 1
ανταλλαγή 1
συνεπ@@ 1
ate 0.04433656972164781
κυβερνήσεις 1
καταγόταν 1
μηνών 1
πρώιμ@@ 1
τερος 1
οικονομικό 1
συλλογής 1
φέροντας 1
ακολουθήσει 1
βιντεοπαιχν@@ 1
9,@@ 1
Αναπ@@ 1
ενμπεργκ 1
… 0.3204455957462003
καθαρά 1
οειδών 1
ούδια 1
απομάκρ@@ 1
διαδ@@ 1
προσώπου 1
σώζονται 1
Δεκ@@ 1
Καθεδρ@@ 1
Ντρ@@ 1
αυτοκρά@@ 1
ενμπουργκ 1
Αριστερ@@ 1
Πατριάρχης 1
επιπτώσεις 1
τάφο 1
εξαρτ@@ 1
κλήρω@@ 1
μίσ@@ 1
καρι@@ 1
σημαντικότερα 1
ύρας 1
ica 0.18602103149102533
ΕΛ@@ 1
δεδομένου 1
ενθουσι@@ 1
καλύπτεται 1
ταύ@@ 1
όδω@@ 1
βιος 1
θεατές 1
Γραμ@@ 1
ίθεται 1
θεί@@ 1
μεμον@@ 1
πέτρι@@ 1
Βασίλισσα 1
τύπωση 1
Love 0.4607583198173708
ίστανται 1
ίχν@@ 1
επιδημ@@ 1
λαφ 1
λοχαγ@@ 1
μέσος 1
αυστ@@ 1
εξορία 1
επιδράσεις 1
σεβασ@@ 1
στρατιωτικών 1
ωτό 1
Le 0.034733180444216874
Μάρτιν 1
βάν@@ 1
γάμ@@ 1
επιστήμης 1
οχυρω@@ 1
ούκ 1
σχεδιάστηκε 1
Δελ@@ 1
διαιρείται 1
ενδιά@@ 1
Θρη@@ 1
απαγόρ@@ 1
είμεν@@ 1
εκείνα 1
κόσμος 1
ανήκαν 1
ύτερος 1
Αρμενία 1
Μέγ@@ 1
δεσμούς 1
θέτως 1
συσκευ@@ 1
Αντιπροσώπων 1
έκδοσης 1
βήμα 1
μικρότερος 1
τόνους 1
Gr@@ 0.15942208267256613
ίσα 1
απορροφ@@ 1
θαλασσ@@ 1
ομώνυμου 1
τρε@@ 1
ina 0.12282753040542009
ανθρακ@@ 1
πέμπτη 1
διάλυ@@ 1
θαυ@@ 1
καλεί 1
μερικοί 1
σουηδ@@ 1
όνους 1
ητήρ@@ 1
πιάνο 1
Φρου@@ 1
δείγματα 1
οργανισμός 1
Ολυμπι@@ 1
ιστορικούς 1
Ιππο@@ 1
Σέλ@@ 1
αποφασίστηκε 1
ειδικές 1
πτουν 1
συνέντευξη 1
Νόμπελ 1
προσαρτάται 1
τείνουν 1
χαρντ 1
θρόνου 1
οσπ@@ 1
όψη 1
Καλών 1
δείχ@@ 1
διάθεση 1
εμφάν@@ 1
Γερμανό 1
Σπάρ@@ 1
δουκάτο 1
ώπι@@ 1
Θάλασσας 1
ισμένων 1
λαός 1
σοβαρές 1
Σικελία 1
ιθαγεν@@ 1
κωμόπολη 1
προσωπικά 1
συμβεί 1
ώρησε 1
Γάλλοι 1
λανθ@@ 1
πάντως 1
τογ@@ 1
τύχη 1
Χ. 1
ιστοσελίδα 1
κληρονομιά 1
κόν@@ 1
νεϊ 1
συνέδριο 1
τεχνολογίας 1
τσου@@ 1
Rock 0.5007077205820496
γενικό 1
ευχαρ@@ 1
πλαν@@ 1
ρωση 1
ότ 1
Μεσόγειο 1
Στρατό 1
Τόμ@@ 1
ανάγλυ@@ 1
βήματα 1
θεσή 1
λους 1
No 0.3495236577862385
μεθαν@@ 1
σκοτώσει 1
τρικ 1
Αρμέν@@ 1
Περιστ@@ 1
κέντρου 1
καθημερινή 1
κανονικά 1
κινα 1
τοιχογραφίες 1
Αμαλ@@ 1
Κουν@@ 1
Ναό 1
αξε 1
ατικές 1
υπάρξει 1
αυγ@@ 1
βασισμένη 1
διακόσ@@ 1
καρκ@@ 1
ουκραν@@ 1
προέλευσης 1
τ.@@ 1
ότοπ@@ 1
Qu@@ 0.1798145355153784
Υπηρεσία 1
έκτοτε 1
διεθνώς 1
λείψ@@ 1
Άμυνας 1
Λογοτεχν@@ 1
έλες 1
αναλαμβάνει 1
εδαφών 1
ειακών 1
οπαδούς 1
Παρασκευ@@ 1
γυναίκας 1
δισεκατομμύρια 1
φωτογραφίες 1
χρυσά 1
ύτερο 1
αξαν 1
γεγονότων 1
μόνων 1
πη@@ 1
τλ@@ 1
ul@@ 0.09046808271432447
Βόρ@@ 1
Μπατ@@ 1
αποικία 1
Ιράκ 1
Μεθ@@ 1
ένωσης 1
ασμένος 1
κλειδ@@ 1
ρίσκ@@ 1
ανεξάρτητο 1
ητεία 1
έγγραφο 1
κατασκευάστηκαν 1
νεαρός 1
συσκευές 1
έλα@@ 1
εθνικών 1
ναι 1
οποιεί 1
τίες 1
τοπικών 1
ώνονταν 1
1901 0.6630734031422794
έμειναν 1
ανοί 1
θωρακ@@ 1
μένουν 1
Αρκε@@ 1
αμερικάν@@ 1
κουλ@@ 1
Νόβ@@ 1
Πρωσίας 1
βορρά 1
ποίημα 1
Πρωθυπουργός 1
ήθελαν 1
αισθ@@ 1
5ο 1
Σούπερ 1
βιολ@@ 1
μάτι 1
πες 1
{ 0.7830166122435489
Σαιντ 1
Σπαρτι@@ 1
τουρκικά 1
δέντρα 1
επίσημες 1
συνεπώς 1
τευση 1
χες 1
οφορ@@ 1
υδατο@@ 1
Αφροδί@@ 1
τέκ@@ 1
Δελφ@@ 1
ήχου 1
δεδο@@ 1
ιζόμενος 1
μπασ@@ 1
ag@@ 0.08536860907444253
Σταν@@ 1
αποτελεσματ@@ 1
επέτρ@@ 1
Βικτ@@ 1
Βραζιλίας 1
Κροατίας 1
εκείνες 1
οργάνων 1
τηρίων 1
Δράμας 1
Εδώ 1
Μαθ@@ 1
Νικηφ@@ 1
κατάρρευση 1
κοψε 1
λοβ@@ 1
μάγ@@ 1
συστατικά 1
συχνότητα 1
ωμένων 1
Γκρι@@ 1
Εβραίους 1
απουσία 1
ζή@@ 1
ιδρύματα 1
νέοι 1
τελικός 1
ωγράφ@@ 1
Κυπριακή 1
Ουν@@ 1
Χίου 1
άγνωστη 1
άσεως 1
αί 1
ηγορ@@ 1
Top 0.5492790884791313
Αλμπ@@ 1
Λωρραίνης 1
Μουσείου 1
εγκαινι@@ 1
κομματ@@ 1
Απόλλων 1
ήρυξη 1
παράγωγ@@ 1
παρακολούθησε 1
όρθ@@ 1
αριθμοί 1
πανεπιστημίου 1
προσωριν@@ 1
όμιλ@@ 1
παρατηρού@@ 1
συγγενείς 1
τοποθεσίες 1
ΠΑΣΟΚ 1
ήνας 1
θετική 1
υπολογίζεται 1
1,5 1
tr@@ 0.061776932962815966
Οργάν@@ 1
καρκίνο 1
μεταβολές 1
προτείνει 1
Μεξικού 1
κατακτη@@ 1
σύλλογοι 1
Γραμματ@@ 1
Διοίκηση 1
ΕΑ@@ 1
Πιστ@@ 1
διαφορετικών 1
στελέχη 1
Ισλανδ@@ 1
Μύ@@ 1
έχασαν 1
ηψης 1
όλος 1
γκαρ@@ 1
θρησκευτικές 1
son 0.025099164811124477
Δικ@@ 1
Πού@@ 1
εξασφαλίσει 1
παραχώρησε 1
πραγματοποί@@ 1
τείνει 1
ύματος 1
στρατιωτικής 1
Βρυξ@@ 1
εισήλθε 1
εκδήλωση 1
οδοσία 1
πίεσης 1
στενή 1
συνόρων 1
Σεν 1
έγραφε 1
φορτηγ@@ 1
άντη 1
άπο@@ 1
βάτες 1
120@@ 1
En@@ 0.15434324145432485
διαδικτυ@@ 1
διευθυντή 1
μοναδικός 1
πιστεύουν 1
χρησιμοποιηθούν 1
Φοίν@@ 1
μικρών 1
πρόσω@@ 1
τρό 1
όδρομος 1
γιατ@@ 1
ιτζ@@ 1
προσαρμογ@@ 1
Ρέν@@ 1
αναφερθεί 1
απόλυτη 1
οδήγηση 1
τοποθετείται 1
φύσης 1
Γιόχαν 1
ίνσκι 1
αρχής 1
ναυπηγ@@ 1
Me 0.5687934768690056
Έξ@@ 1
αμε 1
στέμμα 1
Αλλ@@ 1
Γάλλους 1
Ραφ@@ 1
Ρωμαϊκ@@ 1
μικρής 1
μπροστ@@ 1
ομοί@@ 1
6ο 1
Χάρι 1
πολωνικά 1
υπουργό 1
ώρι@@ 1
Βασιλικό 1
Κοινότητας 1
ισπανική 1
όργ@@ 1
ώνιος 1
Αργεντιν@@ 1
θιο 1
μηχανικός 1
Ορθόδοξ@@ 1
μέγιστο 1
χήρα 1
ιστορικές 1
Γκού@@ 1
ΟΗΕ 1
Παρασκευή 1
Χαρακτηριστικά 1
άλει 1
πόσο 1
σταθμούς 1
τελεί@@ 1
ινς 1
παρακολού@@ 1
am@@ 0.07628069802754026
Θεσσαλίας 1
Σαμπ@@ 1
ηλικιω@@ 1
μένοντας 1
οχος 1
περιορισ@@ 1
σφαίρα 1
τρέχ@@ 1
Στάν@@ 1
επικοινωνία 1
νεοσύ@@ 1
st@@ 0.05899970416855759
ter 0.06009726306479115
αστρο@@ 1
ουγγρ@@ 1
Ζακ 1
βαδ@@ 1
διαμόρφωση 1
εκλέχ@@ 1
λειτουργούσε 1
ούταν 1
αναμ@@ 1
βλήθηκε 1
πτέρυγ@@ 1
Αύγουστος 1
διάσημο 1
κεντρικής 1
Ελληνικά 1
Βραβ@@ 1
Ρεάλ 1
επεξεργαστ@@ 1
επιτέθηκαν 1
παλαιά 1
27@@ 1
Φρά@@ 1
αποδείχθηκε 1
συνθέσεις 1
Έβ@@ 1
φορείς 1
άλλον 1
έκτακ@@ 1
ερί 1
τοποθέ@@ 1
Κάσ@@ 1
αίθουσες 1
περίφημ@@ 1
Πανελλήν@@ 1
άλλοτε 1
βό@@ 1
όντια 1
άλες 1
δυσκολίες 1
συνθέτη 1
cm 0.42775592245939015
Όλες 1
ίζα 1
ρέει 1
Ιστορίας 1
Κορινθ@@ 1
θρησκ@@ 1
πολιτισμ@@ 1
1898 0.696634901339888
Ανδρ@@ 1
Θεός 1
επικοινωνίας 1
προσώπους 1
Αλέξανδρου 1
φωνητικά 1
νομική 1
εκλ@@ 1
πρόκρι@@ 1
συνέβαλε 1
ωρών 1
ζήτησαν 1
θεμέ@@ 1
πεδα 1
ποίησης 1
πολέμησε 1
στησε 1
συμβάλλ@@ 1
Ραδι@@ 1
διδασκαλ@@ 1
ειδή 1
εκδίδ@@ 1
ουγκ@@ 1
παραγγελ@@ 1
Γενική 1
Μουν@@ 1
Φρειδερ@@ 1
έργη 1
ενδιαφέρ@@ 1
θεά 1
κτίστηκε 1
λιού 1
ούχων 1
παράγονται 1
πης 1
mm 0.31254891657699246
Φραντσ@@ 1
Χαμ@@ 1
δίων 1
ορισμένους 1
παράκ@@ 1
παραλλαγές 1
προπον@@ 1
διακρίνονται 1
Βελιγράδι 1
ικοι 1
μόδ@@ 1
ολογείται 1
οργανισμό 1
Κολομ@@ 1
άφους 1
ατ 1
αφιέρ@@ 1
επίδοση 1
επαγγελματικό 1
λοι@@ 1
000.000 1
NBA 0.8014562834826233
ήσια 1
πράκ@@ 1
ότητές 1
Bo@@ 0.17587276417649955
Ισαβέλλα 1
απόδειξη 1
εμπορίου 1
όκιο 1
νεα@@ 1
ντοκιμαντέρ 1
σκάφος 1
Αλγερ@@ 1
Θράκη 1
αφήσει 1
δέρμα 1
ϊκό 1
Ιπ@@ 1
σίγου@@ 1
όσοι 1
αέριο 1
άμα 1
θαρ@@ 1
θαυμα@@ 1
τωμα 1
φάσης 1
ημένων 1
ξένων 1
ξεφ@@ 1
Sp@@ 0.20599483857980386
ανάγκασε 1
νότο 1
οργανισμού 1
πτική 1
Βιομηχαν@@ 1
Παναθηναϊκός 1
Πραγ@@ 1
εκτέλε@@ 1
ενδείξεις 1
ομοφυλ@@ 1
ωφ 1
Ελλ@@ 1
Ιάκωβος 1
Περιοχή 1
αναπτύσσεται 1
ατιού 1
ωφελ@@ 1
ανη@@ 1
απάντησε 1
εργαστ@@ 1
κοβιτς 1
μετανάστευ@@ 1
μετρία 1
ομό@@ 1
119@@ 1
διακυβ@@ 1
ούμενοι 1
πρωτε@@ 1
Γκον@@ 1
γένους 1
γιοι 1
θυγατρ@@ 1
οδότη@@ 1
w 0.16938162746712251
γράφων 1
ελλαδ@@ 1
μούς 1
ρίδες 1
φιλοξενεί 1
Μίν@@ 1
αγορές 1
σύλληψη 1
καταγράφ@@ 1
οσσ@@ 1
σήμαινε 1
σύμβολα 1
τοποθετ@@ 1
Έντ@@ 1
εργαλεία 1
Αθαν@@ 1
Αναγέννηση 1
αδυνα@@ 1
εμπιστο@@ 1
συγκεκριμένες 1
υποψηφ@@ 1
All 0.1745508583246751
Λευ@@ 1
αποτελούνται 1
αρραβ@@ 1
διάκ@@ 1
επιγραφές 1
ιανός 1
προτάθηκε 1
os@@ 0.10663847406409645
κυκλοφορού@@ 1
ρίζα 1
Βαρσοβίας 1
Εθνικός 1
πλευράς 1
ποδοσφαιριστές 1
προσώπ@@ 1
Αντα@@ 1
άμερ 1
αίτημα 1
ενθ@@ 1
Βουκου@@ 1
όρι 1
Μικράς 1
τηλεοπτικές 1
αποτρέ@@ 1
δόκ@@ 1
πληκ@@ 1
Το@@ 1
ολόγου 1
άφιξη 1
γραφα 1
νωρίς 1
υψηλές 1
φρόν@@ 1
del 0.014671490615166573
Κεφ@@ 1
ευτές 1
πορτογαλ@@ 1
πυρι@@ 1
φασματικός 1
Δύση 1
Χού@@ 1
λαι@@ 1
φέ@@ 1
Di@@ 0.14798079084407922
έλια 1
ίφ@@ 1
αντικειμένων 1
κωμωδία 1
sh@@ 0.0855355770521027
Μή@@ 1
αλήθεια 1
κινητήρ@@ 1
λατ@@ 1
πλήρης 1
Κατασκευ@@ 1
θετικές 1
ξεχωριστή 1
πολις 1
φυλής 1
Nissan 1
Ζακ@@ 1
Σλοβεν@@ 1
κιλά 1
κύκλους 1
δημοκρατίας 1
εκστρατείας 1
ωθ@@ 1
Ειδικότερα 1
Κέι@@ 1
αδρ@@ 1
ασυνήθι@@ 1
δείχτηκε 1
δευτερόλεπτα 1
ειλαν 1
κατανάλωση 1
μπορέ@@ 1
σκο 1
γαλλικής 1
διάμετρο 1
δράσεις 1
κατοικίες 1
λίγκα 1
ρούσα 1
Λουί 1
αντού@@ 1
εξισ@@ 1
ώστου 1
Νάξ@@ 1
αναμεν@@ 1
πρόσκ@@ 1
διαι@@ 1
ονό@@ 1
ρικούς 1
στρας 1
τίμ@@ 1
εξοπλισμό 1
ορθόδοξ@@ 1
ύπν@@ 1
Καλαθοσφαίρισης 1
ήχο 1
βεν 1
επιστημονικής 1
θεατρικό 1
περιορισμένη 1
τάφηκε 1
Άννας 1
αραβικά 1
επισκοπή 1
ονομασίες 1
Γιώργο 1
Δεκα@@ 1
Νορμανδίας 1
θηλα@@ 1
τυχαν 1
Ιλ 1
εισόδου 1
οδρομ@@ 1
πρότ@@ 1
Αχιλλ@@ 1
ήνου 1
ευγενών 1
θολ@@ 1
θον@@ 1
μαρ 1
Α.Σ. 1
Επιχειρ@@ 1
τριας 1
Χανίων 1
ένταση 1
συνέβ@@ 1
im@@ 0.0826161233871986
Νορβηγ@@ 1
άρει 1
ένκο 1
ανικό 1
διαταγ@@ 1
μιρ 1
Τζέν@@ 1
επιτυγχ@@ 1
μω@@ 1
συλλόγων 1
σύνδρομο 1
τρι 1
NGC 0.9404814928258511
ήρωα 1
αυτοκίνητα 1
καυ@@ 1
παγκόσμιας 1
αναλογία 1
θετικά 1
em@@ 0.08719319343569921
μακρά 1
πανεπιστήμια 1
Times 0.4360617859439825
ur@@ 0.08492947514803971
μορ 1
ωμένοι 1
Πληθυσμός 1
εικα@@ 1
σύνθε@@ 1
Επισκοπ@@ 1
Καναδ@@ 1
Σώμα 1
Τσαρλς 1
προορι@@ 1
στόλος 1
όβαθ@@ 1
Απόστολ@@ 1
άλους 1
ακριβής 1
λατρεία 1
μουσικός 1
συζήτηση 1
φανερ@@ 1
χρώματος 1
Άραβες 1
αφιερωμένο 1
13ο 1
Γλ@@ 1
Δούναβη 1
αγόταν 1
ακυρ@@ 1
δεκάδες 1
εμπνευσ@@ 1
ευτικά 1
ουρά 1
ΕΛΑΣ 1
κατέφυγε 1
νοσοκομ@@ 1
πραγ@@ 1
προϊ@@ 1
ύλα 1
Αγγλικά 1
Σμιθ 1
se 0.011919098280457669
έρο 1
βιομηχανίας 1
οποιήσει 1
πλέγ@@ 1
σκι@@ 1
στράφηκε 1
όμορφη 1
αγρι@@ 1
απεικονίζει 1
καταλή@@ 1
παρατηρήσεις 1
πρε@@ 1
σοβαρή 1
Βελγίου 1
Μπράι@@ 1
αντίστοιχη 1
απελευθέρ@@ 1
συγχρον@@ 1
αρχαίος 1
ζωντανά 1
κατακτώντας 1
στασή 1
υποδεικνύ@@ 1
ens 0.07878215484608257
Λίβ@@ 1
Μοχ@@ 1
διατηρούσε 1
επιρροές 1
πλέι 1
εγερ@@ 1
κό 1
ρους 1
σελίδες 1
σμπερ@@ 1
στης 1
συμμετέχ@@ 1
Ρόδ@@ 1
νίκ@@ 1
παχ@@ 1
τείται 1
ώνυμο 1
11,@@ 1
Επαγγελ@@ 1
ιδιαίτερ@@ 1
κατεδ@@ 1
κτηνοτροφία 1
ουφ@@ 1
υποδύ@@ 1
όμετρο 1
One 0.17839765770471763
Ρω@@ 1
ήλαιο 1
ευαν 1
Παυσ@@ 1
άντιο 1
ηψη 1
κορύ@@ 1
στραμ@@ 1
αντιπάλους 1
κλάδο 1
κύκλ@@ 1
νυχτερ@@ 1
ρονομ@@ 1
υφίσταται 1
Μιλάνο 1
Νόρ@@ 1
τιστεί 1
Αυστρο@@ 1
ικα@@ 1
Πρέβεζ@@ 1
έκ 1
δίκα@@ 1
χτύπ@@ 1
Co@@ 0.14036920507085734
Σλοβακ@@ 1
μέγιστη 1
ξαφν@@ 1
οξείδ@@ 1
Αγγ@@ 1
Μπρι@@ 1
Συρίας 1
έμβλημα 1
επιτυχώς 1
ισχυρίστηκε 1
ζόν 1
ξύλο 1
τετραγωνικά 1
1889 0.7631230365065489
Μητρόπολη 1
γραφικό 1
ισοδύνα@@ 1
καταστάθηκε 1
λεγόμενο 1
μονομ@@ 1
φε@@ 1
αντές 1
γραψε 1
εβδομ@@ 1
μικρότερες 1
οτροπ@@ 1
προδ@@ 1
χωρητικότητα 1
Βόρειο 1
Κωνσταντ@@ 1
ατικών 1
Σκωτία 1
αιγ@@ 1
παρουσ@@ 1
τουρκικό 1
φιλανθρωπ@@ 1
Έντουαρντ 1
οξι@@ 1
υπόψη 1
Έσσης 1
δη@@ 1
εξειδικευ@@ 1
κάνια 1
κίνδυν@@ 1
παρατηρείται 1
100.000 1
Γλώσ@@ 1
άντας 1
ευτικές 1
λέσ@@ 1
Αφρικαν@@ 1
διατηρήσει 1
επισκευ@@ 1
πλανή@@ 1
ανγκ@@ 1
συγγραφή 1
ωνύ@@ 1
Θεόδω@@ 1
Παιδείας 1
αρχαίου 1
εκπαι@@ 1
πεδο 1
στήλη 1
τσελ@@ 1
Αμμ@@ 1
Τάρ@@ 1
αριθμούσε 1
καπ@@ 1
κοινωνικό 1
παίζοντας 1
πολυάριθμ@@ 1
φιγ@@ 1
αλφαβ@@ 1
βαριά 1
ζά@@ 1
Μεταξ@@ 1
Νάπολης 1
Τσεχοσλοβακ@@ 1
γιατρός 1
εγκληματ@@ 1
Πωλ 1
κοφ@@ 1
μεταρρυθμίσεις 1
οκομ@@ 1
ουκ 1
τουρκο@@ 1
Λήμ@@ 1
γά 1
πάρα 1
σκοπός 1
Έρευ@@ 1
Επέστρεψε 1
Κολλ@@ 1
έψ@@ 1
διαδικασίας 1
θέας 1
πλήρ@@ 1
πονη@@ 1
πυρα@@ 1
ριζε 1
Οδυσσ@@ 1
Τζων 1
αλλήλ@@ 1
παρουσίαση 1
φυτό 1
Εσωτερικών 1
ανθρώπινο 1
διαφορετικούς 1
στρατόπεδα 1
αποκαλείται 1
επισκέφθηκε 1
μεγαλύτερους 1
πλήρες 1
άθλ@@ 1
άτσ@@ 1
απολύ@@ 1
αψ@@ 1
ησί@@ 1
λήψη 1
ολόγησης 1
υπόγ@@ 1
Εμφαν@@ 1
Οίκος 1
ικάν@@ 1
E9E9E9 1
Νυ@@ 1
Χαρακτηριστ@@ 1
κίνη@@ 1
οφιλ@@ 1
Εδουάρδος 1
Ελεον@@ 1
Πετρ@@ 1
Σύνοδο 1
ευτής 1
πολε@@ 1
Όρος 1
Πάνω 1
εγγονός 1
ισχ@@ 1
Ανδρών 1
αίθ@@ 1
απέρριψε 1
ετησίως 1
τιμών 1
Λέων 1
Σερ 1
πολλαπλασι@@ 1
σιδη@@ 1
χερσόνησο 1
ti@@ 0.08060282919245744
Πάσ@@ 1
έροντα 1
οικοδ@@ 1
προσευ@@ 1
Ανήκει 1
Ρόδου 1
CH@@ 1
Θάνατος 1
άνα@@ 1
δεξ@@ 1
πλαισ@@ 1
ηχογραφήσεις 1
θεού 1
λιση 1
2,5 1
Πινακο@@ 1
αμερ@@ 1
Ινστιτούτου 1
δεχθεί 1
μανση 1
νεαρό 1
συνέλευση 1
τροπή 1
15ο 1
Πρωθ@@ 1
εργάτες 1
καλείται 1
μαντ@@ 1
μετατρέ@@ 1
πετύχει 1
My 0.4967246517915827
ντι@@ 1
πολίτευ@@ 1
φυσικός 1
Ακου@@ 1
Περιφέρειας 1
αφαιρέ@@ 1
δουλεύ@@ 1
μονα 1
νύχ@@ 1
υδροξ@@ 1
Y 0.3957072575451694
Γυναικ@@ 1
Τζόρ@@ 1
ξενοδοχ@@ 1
ουσιών 1
δίσκους 1
κήρυξε 1
Ολυμπιακών 1
Ρόλου 1
Τραπεζ@@ 1
αργά 1
οδε@@ 1
ονόματι 1
στάιν 1
metal 0.5692922702320448
Αμέσως 1
Βερν@@ 1
Λεμεσού 1
διαδοχή 1
σκέψη 1
όμε@@ 1
Μανουήλ 1
αντίστροφ@@ 1
un@@ 0.036268822232894966
Νοσοκομ@@ 1
μαρμά@@ 1
Αντώνιος 1
Δε@@ 1
Διαφ@@ 1
Καστίλης 1
Τραγουδιού 1
ανανε@@ 1
εθνικά 1
θεραπείας 1
κλάδος 1
πρωθυπουργού 1
σπουδαι@@ 1
υπεράσ@@ 1
ὸ@@ 1
Διοικητική 1
Ζι@@ 1
ειδικ@@ 1
κν@@ 1
πελλα 1
σφραγ@@ 1
Ορθ@@ 1
ουπόλεως 1
ραγκ@@ 1
Μονάχου 1
άγι@@ 1
αναφερόταν 1
αυτοκινήτων 1
επιβι@@ 1
κυλ@@ 1
ab@@ 0.05023169269421371
αναλύ@@ 1
ητικός 1
κλασσ@@ 1
ρύθμιση 1
χειμερ@@ 1
Γ.Σ. 1
Στρα@@ 1
αναπτυχθεί 1
απαιτήσεις 1
βλεψη 1
τάφος 1
τολές 1
χυση 1
Αγρο@@ 1
Βρετανική 1
Σχέδιο 1
Τέτο@@ 1
ζονταν 1
κάς 1
λαση 1
ορυκτ@@ 1
ούρι 1
σια 1
σκλάβ@@ 1
Αργεντινή 1
Βον@@ 1
Κοζάνης 1
Τζόν@@ 1
κάποιους 1
ωνικός 1
Θεό 1
καλύψει 1
σύγχρονες 1
τηλεόρασης 1
Ανγκ@@ 1
άνγκ 1
ατες 1
βίαι@@ 1
ικίας 1
κρατική 1
ard 0.13531079266664237
ΟΣ 1
αργύρου 1
λοί@@ 1
ale 0.086448638800359
Κορέα 1
Φρανσουά 1
έντε@@ 1
ίτσια 1
σκο@@ 1
ed@@ 0.10594522794667512
ΑΕ 1
Ιού@@ 1
θεσαν 1
σύσταση 1
1830 1
Πέτρο 1
γεννα@@ 1
σχεδι@@ 1
όδι 1
2ου 1
Θεάτρου 1
αλλάζει 1
δοκιμα@@ 1
Πρίγκιπα 1
Πρωταγων@@ 1
άσκηση 1
αντιπολίτευσης 1
κς 1
WWE 1
Γι 1
Κριμαίας 1
αριστ@@ 1
γερμανικές 1
επισήμως 1
κοί 1
λίνα 1
ολοκλήρου 1
Χάμ@@ 1
άκου 1
άρε@@ 1
ατο 1
Ποι@@ 1
πλήρωμα 1
Γεωργία 1
Διασ@@ 1
Ειρήνης 1
Λαυ@@ 1
δάσκαλ@@ 1
εκτελέστηκε 1
6η 1
Ωδ@@ 1
ήχθησαν 1
ίδιες 1
αιθαν@@ 1
μετρι@@ 1
ύρια 1
ύρου 1
Εθνοσυνέλευση 1
Τοποθεσία 1
αστών 1
νινα 1
περιλαμβάνεται 1
ωδίες 1
1885 0.7468723124245161
III 0.22145423492388056
δυνατότητες 1
σιδ@@ 1
τάζ 1
χαρακτήρων 1
ve 0.03771521133607105
Γιανν@@ 1
Φαλ@@ 1
διάγνωση 1
διαφοροποι@@ 1
ερυθρ@@ 1
Γκαλ@@ 1
αιφ@@ 1
εσης 1
άκρα 1
μέτρησης 1
σελ 1
χρήστη 1
Pr@@ 0.1736144557839855
Δημοκρατικό 1
Ιησ@@ 1
άδος 1
ακόλουθες 1
καλλ@@ 1
πλα 1
προβιβ@@ 1
συμμετ@@ 1
Μεσογείου 1
Νερ@@ 1
Προφ@@ 1
πάροδο 1
προϊστο@@ 1
τερματο@@ 1
τοποθέτηση 1
Τζέρ@@ 1
αδέλφ@@ 1
αϊκή 1
βασίζονται 1
διατριβ@@ 1
ηνα@@ 1
θεός 1
ιθ@@ 1
κηδ@@ 1
οφόρησε 1
χή@@ 1
Κροατία 1
οθόνη 1
Mo@@ 0.1794638226647955
Ακτ@@ 1
Γ.@@ 1
19@@ 1
άνιση 1
κόκ@@ 1
Γερουσία 1
Κράτους 1
Στι@@ 1
Φώ@@ 1
κόντρα 1
σκάφη 1
ταξίδια 1
Αθηναίων 1
Σλάβ@@ 1
εκπομπής 1
εξασφάλισε 1
επιμελ@@ 1
14ο 1
απόρ@@ 1
προσωρινή 1
ρίδιο 1
Cr@@ 0.24082267546611352
ορού@@ 1
σύμμαχ@@ 1
CH2@@ 1
age 0.04671508218667718
Ναζί 1
Πέρσες 1
γιορ@@ 1
ευαισθη@@ 1
ηγήθηκε 1
νεότερος 1
προστέθηκε 1
πτω@@ 1
συνοδευ@@ 1
φεραν 1
Όθ@@ 1
Ποδοσφαιρική 1
δυτικής 1
Εξαιτίας 1
Πρα@@ 1
βος 1
ρασαν 1
στιχ@@ 1
ῶν 1
Βασίλειος 1
άρτη@@ 1
Μπί@@ 1
μεμβ@@ 1
προκαλούν 1
τριάντα 1
Καλύτερης 1
ητριών 1
Ομίλου 1
αυθ@@ 1
επιστρέφ@@ 1
κατέστησε 1
λατινική 1
μειώθηκε 1
ορυχ@@ 1
περνάει 1
σύνθεσης 1
Saint 0.09804711596003599
ανακηρύ@@ 1
δέντρο 1
καθένα 1
ρόφ@@ 1
ic 0.08404121440723704
Κιλ@@ 1
Σλαβ@@ 1
έλυσε 1
ίω@@ 1
συμβουλ@@ 1
ταξιδεύ@@ 1
ότο 1
αμφισβητ@@ 1
απάν@@ 1
νησιών 1
1860 0.7718632103208808
Έθελ@@ 1
Ανδρόν@@ 1
άνους 1
εξάπλ@@ 1
επικράτ@@ 1
παρείχε 1
εμόνα 1
αναγκ@@ 1
αφ 1
διαστάσεων 1
υλι@@ 1
Ο. 1
ένο 1
αντιδρα@@ 1
συντομ@@ 1
Ακολούθησαν 1
Κλέ@@ 1
εμιν@@ 1
υλο 1
du 0.01127382305377151
Δυνάμεων 1
Κίνημα 1
έλαιο 1
έφαλ@@ 1
προμή@@ 1
Βυζαντινής 1
Ουάσινγκτον 1
Πειρα@@ 1
Be@@ 0.11251688153835221
ενορ@@ 1
λε 1
μιλι@@ 1
πρωτό@@ 1
σύγχρονα 1
Αθανάσιος 1
Μέτωπο 1
Χερσ@@ 1
γκό 1
δοκιμές 1
κινητήρες 1
νοτι@@ 1
φαι@@ 1
ανακαιν@@ 1
ετική 1
ιακούς 1
Σακ@@ 1
διατυπ@@ 1
εξέγερσης 1
μπού 1
τέλ 1
δύνα@@ 1
καλλιτεχνική 1
κρίθηκε 1
πρωτεύ@@ 1
DVD 0.611940959447484
κακή 1
Άγγλος 1
κενό 1
κυκλοφορεί 1
στάν 1
ήθη 1
δίκτυα 1
διαγραφ@@ 1
θείος 1
κοινο@@ 1
όδο@@ 1
ότητος 1
Γενικό 1
στήριξη 1
τσέζ@@ 1
υπόλοιποι 1
1848 0.8143678948886036
Ζα@@ 1
Ηθ@@ 1
εκ. 1
10.@@ 0.7780769684989531
Star 0.3897576887186032
Ουγ@@ 1
δωμάτιο 1
εστιατ@@ 1
πολιτιστική 1
στου 1
El@@ 0.13299390120468763
θαρρ@@ 1
σαν@@ 1
Χάλ@@ 1
έλαγος 1
γοτθ@@ 1
γυναικεία 1
ετεροθαλ@@ 1
έζ 1
βαρύτη@@ 1
μόνιμη 1
άνδρ@@ 1
διαδραματ@@ 1
ιακ@@ 1
καζ@@ 1
Δουκάτο 1
Εποχή 1
Πολύ@@ 1
αγωνίσματα 1
κυρ@@ 1
λάν@@ 1
λίμνες 1
ποτε 1
un 0.008228438430598936
γεωγραφικό 1
ορθογ@@ 1
συσκευή 1
ῦ 1
ακολουθώντας 1
καταλήφθηκε 1
οινων@@ 1
συγκροτήματα 1
Ύστερα 1
βγήκε 1
πρωθυπουργό 1
ψυχαγωγ@@ 1
Ιεράς 1
δοκί@@ 1
ειλημ@@ 1
ομίλων 1
παρόν 1
Εμπ@@ 1
αντο@@ 1
εδρεύει 1
εργαστεί 1
ρούχα 1
συγχώνευση 1
βοήθ@@ 1
στία 1
Αδόλ@@ 1
θεία 1
μηχανές 1
πεδία 1
συνόδευ@@ 1
φιλόσοφος 1
χρονιές 1
OS 0.6908627388172401
York 0.08158907043758155
Οργανισμού 1
διατήρ@@ 1
επιλέ@@ 1
πηγαίνει 1
δημοσίευση 1
Φραγκίσκος 1
άγιος 1
οδηγίες 1
ποταμών 1
Am@@ 0.14299822904808482
άρτησης 1
ήρυξε 1
δεσμεύ@@ 1
υποψήφια 1
φαντασίας 1
Αποτελέσματα 1
υποστήριζε 1
Επιχείρ@@ 1
αποφεύγ@@ 1
επωνυμία 1
μυρ@@ 1
τέχνες 1
Νικόλαο 1
Παλάτι 1
άσκησε 1
είνουν 1
Ανθρω@@ 1
Ορλε@@ 1
ροφο 1
φρουρά 1
In 0.011035957834116825
Κιλκίς 1
άλει@@ 1
ήσης 1
ία@@ 1
γυαλ@@ 1
εξετάσεις 1
ιατρικής 1
νομιμ@@ 1
Συνέχισε 1
βρήκαν 1
εμφάνισή 1
καλύπτουν 1
πούλ@@ 1
id@@ 0.08667757592527711
Ντάρ@@ 1
έλλειψης 1
βασίστηκε 1
συμπεριλήφθηκε 1
όπη 1
Σάλ@@ 1
ίδος 1
ευκολ@@ 1
θείου 1
στόχους 1
Οικονομία 1
εξέλι@@ 1
ημιτελικό 1
κατάργηση 1
τρόφιμα 1
ύκ@@ 1
Εδ@@ 1
Νήσων 1
γυρίσματα 1
διαφορε@@ 1
διόρισε 1
ινός 1
κυριαρχίας 1
τόπου 1
20.000 1
Γενεύ@@ 1
Δρ@@ 1
Τους 1
δότησε 1
εκτοπ@@ 1
μάζας 1
πλείστον 1
Όν@@ 1
ΕΚ 1
ζώνες 1
κοινωνικών 1
έλεγχος 1
εννο@@ 1
σπάν@@ 1
συζητ@@ 1
συνεργάτες 1
Ριζ@@ 1
Στάλιν 1
ενδο@@ 1
προσκυν@@ 1
ριακές 1
τέρμα 1
Αντόνιο 1
ζι@@ 1
μετανάστες 1
σημειώνοντας 1
Άρχ@@ 1
επίλ@@ 1
ισον 1
αγροτική 1
αδερφή 1
ειακής 1
πουλιά 1
φόρου 1
χρονο 1
² 0.180079725707498
Σικάγο 1
Χοεν@@ 1
βίλ 1
εξόρι@@ 1
ερμή@@ 1
καταστροφές 1
νακας 1
περισσότερων 1
American 0.060749187752263206
qu@@ 0.09269044775940367
διδακτορικό 1
συνορεύει 1
κάτου 1
τερς 1
διανομή 1
εφηβ@@ 1
κινδύ@@ 1
μόρφω@@ 1
ίκια 1
ειακού 1
εκατοστά 1
κατοχ@@ 1
μαυ@@ 1
πρωτότυπο 1
ρουμαν@@ 1
σερ 1
συνδέθηκε 1
απεσταλ@@ 1
θαναν 1
μήνυμα 1
Βόλου 1
δι 1
πραγματοποιήσει 1
τριπλ@@ 1
βες 1
επηρέασε 1
σωμάτων 1
τέ 1
τακτικά 1
Time 0.546929380378934
Ιδιαίτερ@@ 1
Σιλε@@ 1
Χο@@ 1
θεώρησε 1
χειρό@@ 1
× 0.5947643343549792
Έρικ 1
Ενω@@ 1
οχήματα 1
στίχοι 1
ώρου 1
Νοτιο@@ 1
εφαρμόσ@@ 1
κατηγόρ@@ 1
φάσεις 1
φυλε@@ 1
AN@@ 0.769165767925849
γεν. 1
πνεύ@@ 1
Καβάλας 1
Λίμνη 1
αντς 1
δικαίου 1
ινι@@ 1
ιστορικών 1
Εγκ@@ 1
Σμύρνη 1
Χαλκιδ@@ 1
ετυμ@@ 1
εφοδιασ@@ 1
ητά 1
ολόγοι 1
σχηματίστηκε 1
τραγουδιστή 1
όρκ@@ 1
ασθένειες 1
εξίσωση 1
ξέρ@@ 1
άντης 1
φοράς 1
Βιβλιο@@ 1
Μαραθ@@ 1
Φιλιππ@@ 1
άνοι 1
αναπαραγωγής 1
εντυπω@@ 1
κάστ@@ 1
προσέφερε 1
πότε 1
Φινλανδία 1
αποθήκ@@ 1
διαπίστ@@ 1
νησή 1
συμπαίκ@@ 1
όγδο@@ 1
όδημ@@ 1
ΑΟ 1
Πρώτο 1
νικώντας 1
σχεδιασμού 1
σύρ@@ 1
Λιθουανίας 1
Πατριάρχη 1
Φθιώ@@ 1
λιο@@ 1
πληθυσμούς 1
πολωνική 1
σημεί@@ 1
Λαζ@@ 1
ολογικός 1
υπολογιστές 1
όπλο 1
μβέργης 1
Κοσ@@ 1
θαλάσ@@ 1
ολόγων 1
πλούσιο 1
Ερευ@@ 1
Ηλία 1
ήτων 1
οπή 1
ρε 1
σώζεται 1
Ενε@@ 1
Κοινοπολι@@ 1
ΣΥ@@ 1
ελήφ@@ 1
επάγγελμα 1
μηδέν 1
φερε 1
Μπερν@@ 1
δανε@@ 1
τυπο 1
φαινόμενα 1
άλεσε 1
έπει@@ 1
ελαφρώς 1
εμπορικές 1
ενισχυ@@ 1
προφανώς 1
υιοθέτησε 1
φιλοσοφίας 1
επανεξελέγη 1
οντα@@ 1
προώ@@ 1
σημερινού 1
1866 0.7255854408693563
Δήμαρχος 1
δίκαιο 1
δίω@@ 1
εύς 1
ιμπ@@ 1
νορ@@ 1
ξύ@@ 1
οφθαλ@@ 1
σημαντικότερο 1
Αιτωλ@@ 1
Ετυμ@@ 1
Παναθηναϊκού 1
αλάσ@@ 1
δεύτερ@@ 1
εμπό@@ 1
ινούς 1
υποψήφιοι 1
Γκο@@ 1
Καλαμ@@ 1
άλογ@@ 1
εγκαταστ@@ 1
ζώνης 1
ουλίου 1
όδευ@@ 1
Cl@@ 0.35435524365749543
Play 1
Βαλδου@@ 1
Καρδί@@ 1
νεκροταφείο 1
πτήσεις 1
1ου 1
Ηράκλ@@ 1
ήρας 1
αριστερή 1
ενώσεων 1
πολίτης 1
ino 0.14595220243229046
αιτι@@ 1
αυτοκινητο@@ 1
δείτε 1
εκλεγεί 1
εργο@@ 1
θαλάσσια 1
φίλοι 1
χαρακτηριστική 1
Ιρλανδ@@ 1
Ντεν@@ 1
Πάρκο 1
άσος 1
αζ 1
αριού 1
προσωπικότητα 1
συνεργάτης 1
Παγκόσμιας 1
Χένρι 1
λόφου 1
σημαντικότερες 1
Μόναχο 1
Σιλ@@ 1
Σμ@@ 1
απονέ@@ 1
γιορτά@@ 1
εδίου 1
ελεγχ@@ 1
π.@@ 1
Καραμαν@@ 1
ενοχ@@ 1
φοι@@ 1
ata 0.1701026891655277
Βουρβόνων 1
ορίζει 1
πλασ@@ 1
It 0.02629773306142802
ΑΤ@@ 1
Κυν@@ 1
αδερφός 1
απόγ@@ 1
διάβ@@ 1
θαύ@@ 1
συν 1
φού@@ 1
Μάντσεστερ 1
άσι 1
στέφθηκε 1
τώ 1
ότοπο@@ 1
Ελβ@@ 1
επιστήμ@@ 1
θαμ@@ 1
ιστορι@@ 1
ποταμ@@ 1
τει 1
Sch@@ 0.06522609891070584
Ιρλανδίας 1
Λαμπ@@ 1
Περιφερειακής 1
ίμου 1
αδελφούς 1
βιογραφία 1
πάντοτε 1
ύρος 1
Ex@@ 0.14836321831682497
il@@ 0.08448267886211488
Έγραψε 1
Πλέ@@ 1
μουσικούς 1
φάρμακο 1
1894 0.7071953763699613
Σταθμός 1
έψεις 1
διατηρη@@ 1
παλαιότερο 1
συγκλ@@ 1
σχόλια 1
άμεν@@ 1
διακοπή 1
εφαλ@@ 1
κατάλληλη 1
λέν@@ 1
πύργος 1
ρυθμού 1
επιστολές 1
τεράστιο 1
Σόφ@@ 1
έζα 1
εθεί 1
κατανόηση 1
πε 1
σχηματίζοντας 1
υποστηρίξει 1
Ελε@@ 1
Σάρ@@ 1
Συμφωνία 1
εγκρίθηκε 1
μνήμης 1
ορδ@@ 1
συνέπειες 1
τζο 1
1879 0.8307972838750617
Αεροπορίας 1
Αυλή 1
Πρί@@ 1
Χίλ@@ 1
εγκατα@@ 1
εξαιρετική 1
εων 1
ροής 1
τέτοιες 1
Συλλόγου 1
προσελκύ@@ 1
σφαλ@@ 1
Γρηγόριος 1
Σιδη@@ 1
Σιμ@@ 1
Φερν@@ 1
ένια 1
εξαφ@@ 1
κλίση 1
Βέλ@@ 1
βάσης 1
μεγαλύτερου 1
μους 1
προπαγ@@ 1
Αγωνίστηκε 1
προσωπικού 1
ανν@@ 1
θρω@@ 1
λογισμικού 1
12ο 1
AR@@ 0.4789582333711718
Γάλλο 1
ήρυ@@ 1
ισθη@@ 1
σερβικά 1
Cup 0.148137841666083
ίσμα 1
γιορτή 1
τρεψαν 1
Ναπολέ@@ 1
Παγκόσμιου 1
βασισμένο 1
συμπερ@@ 1
υρι@@ 1
δετερ@@ 1
επιθετικός 1
μόρφωση 1
περ. 1
πιστοποι@@ 1
τίμησε 1
όρυ@@ 1
επιτρέπουν 1
καλαθοσφαιριστής 1
περιστασ@@ 1
σχηματίζεται 1
τυφλ@@ 1
CE 1
καθυστερ@@ 1
λουλ@@ 1
μύθο 1
πεδιάδα 1
αίσ@@ 1
διοργανώθηκε 1
τέκνο 1
ώρια 1
Κοι@@ 1
καθυστέρ@@ 1
οργάνωσε 1
στήλ@@ 1
χημικό 1
ύν 1
Ασφαλ@@ 1
Δυνάμεις 1
Στρατός 1
έντι 1
έτρ@@ 1
δούλ@@ 1
καταλαμβάνει 1
παρέμβαση 1
ριντ 1
συγχ@@ 1
άχα 1
γίνονταν 1
κατασκευές 1
τεχνικό 1
τιλ@@ 1
15ου 1
Γαβ@@ 1
Κορέας 1
αποικίες 1
εκφρα@@ 1
επιλογ@@ 1
κρατούμεν@@ 1
πρακτικές 1
προερχ@@ 1
De 0.11914769913495508
Ζεν@@ 1
ανθρώπινης 1
απεικονίζεται 1
εγκατέλει@@ 1
Εργάστηκε 1
Ολύ@@ 1
Τρεις 1
άνονταν 1
ελος 1
ενδιαφ@@ 1
νού@@ 1
παρουσιάζονται 1
σιγά 1
στέκ@@ 1
αναπτύξει 1
επιχείρησης 1
οδηγώντας 1
παραλλαγή 1
πολιτισμός 1
συντεταγ@@ 1
ότητάς 1
Στιούαρτ 1
ίγκ@@ 1
εγχ@@ 1
κινδύνου 1
κριτήρια 1
ντελ 1
οφόρα 1
όκα@@ 1
ὐ@@ 1
Πετρούπολη 1
άκες 1
μέσ@@ 1
νοι@@ 1
παίρνοντας 1
σχεδίασε 1
Κάποια 1
Λαϊκό 1
Συλλογ@@ 1
αλλαγής 1
αποσυρ@@ 1
διεξαγωγής 1
ευημερ@@ 1
μαθηματικών 1
άγους 1
έχθηκε 1
διαταραχή 1
δραστηριότητας 1
κατεστη@@ 1
ολοκληρωθεί 1
πρωτότοκος 1
χαρακτηρίστηκε 1
χείρ@@ 1
2ος 1
Ημέρα 1
έπε 1
βέβαια 1
δίπλωμα 1
δωρεάν 1
θρο 1
σκληρή 1
Δαλ@@ 1
ΕΣ 1
Ποταμ@@ 1
μεσα 1
πέμπτο 1
συνεργαστεί 1
ταξί@@ 1
τελείου 1
τοκρά@@ 1
φυλακίστηκε 1
Βούλγα@@ 1
Στερε@@ 1
άργ@@ 1
ελεύθερος 1
μετάδοση 1
Γουιν@@ 1
Σπάρτη 1
ματς 1
Γκραν 1
Χουάν 1
έντονο 1
ανε@@ 1
εκδοχές 1
λησης 1
om 0.2813948712068979
Χάρι@@ 1
κατοικούσαν 1
κυνήγ@@ 1
Hot 0.6564662176662323
ζεύγος 1
ινες 1
νομοθεσία 1
σεξουαλική 1
ψυχή 1
4,@@ 0.6691494144849164
Bar@@ 0.1121880653021227
Αστεροσκοπ@@ 1
ουνς 1
παίζουν 1
τμημάτων 1
όρν@@ 1
ύτερη 1
Βορρά 1
αγκά@@ 1
αστικού 1
στασίου 1
av@@ 0.10535543410626894
Γκραντ 1
Κρέ@@ 1
Νότιο 1
άντρα 1
διακυβέρνηση 1
θερμοκρασίας 1
λευσε 1
οξυγόνο 1
καλύτερος 1
κορυφές 1
περιπέτ@@ 1
πυρκαγιά 1
Ηλίας 1
γυμνάσιο 1
διαλέξ@@ 1
ευτυχ@@ 1
κουλτούρα 1
κυριολ@@ 1
προορισμό 1
σχήματος 1
Q 0.5428722008797037
Γκό@@ 1
Ηλ@@ 1
ασχόλ@@ 1
ιατ@@ 1
στράτηγ@@ 1
Λάμ@@ 1
ηματικά 1
ογιάν@@ 1
πολύτι@@ 1
σημειώθηκε 1
Λουίζα 1
ινού 1
καρπ@@ 1
οδρόμ@@ 1
Ιστορική 1
Ουίλιαμ 1
Προοδευ@@ 1
ήκ@@ 1
ήνιο 1
βόμβ@@ 1
Έλληνα 1
κομμάτων 1
μπαράζ 1
σχολές 1
} 0.7635933132629318
αλγόρι@@ 1
επίκεντρο 1
ροφυλ@@ 1
χώρισε 1
ῖ@@ 1
παραμον@@ 1
τσια 1
τύχει 1
Ξάνθης 1
αναστατ@@ 1
διακρίνεται 1
διαρκεί 1
διαστήματα 1
προσαρμ@@ 1
τέρν@@ 1
Σατ@@ 1
Τελευτα@@ 1
ίασ@@ 1
ημένης 1
καλα@@ 1
υποψηφιότητες 1
Αμερικανική 1
ηχογράφηση 1
ιδιωτική 1
περνά 1
ριακά 1
τείας 1
ηθική 1
φτ@@ 1
χημικά 1
χρηματοδότηση 1
χώροι 1
Str@@ 0.152721105836613
Βούλγαρ@@ 1
Παράδ@@ 1
μοίρα 1
νότιας 1
ταχύτητας 1
τιμάται 1
χαρακτηρίζονται 1
κατασταθεί 1
κλάδ@@ 1
κυμαίνεται 1
τιμος 1
le@@ 0.0705267090135041
Ανω@@ 1
ΕΡΤ 1
Σπυρί@@ 1
αδερφό 1
αντίστασης 1
αντιστασ@@ 1
εκτεν@@ 1
ετής 1
κερδίζει 1
μετέβη 1
ομιλίες 1
οξυγόνου 1
census 0.35455119054848017
γκτον 1
κατόρθωσε 1
λεσ@@ 1
ορισμού 1
1892 0.6827588885262932
Γκάρ@@ 1
Λιν@@ 1
απαραίτητη 1
πνευματική 1
όφυ@@ 1
School 0.08733824374914005
by 0.007113910033733109
Σαρλ 1
διεθν@@ 1
δικας 1
επλ@@ 1
εύθυν@@ 1
hous 1
­ 1
Αρά@@ 1
Εύβοιας 1
άντε 1
κριτικούς 1
σιακά 1
τορίας 1
National 0.07247217396287577
Ισλαμ@@ 1
Μεδ@@ 1
αρα 1
διασώ@@ 1
επίσκεψη 1
ερασ@@ 1
μοιρα@@ 1
ξεκινάει 1
ποινα 1
ελικ@@ 1
επικρά@@ 1
καινο@@ 1
ξερ@@ 1
πάπας 1
σύντροφ@@ 1
www.statistics.gr 1
Αξιοθέατα 1
Γαλατ@@ 1
Πέρα 1
ούλι 1
ριζαν 1
ωδίας 1
Νίκο 1
Πλατ@@ 1
Τατ@@ 1
άλβεδό 1
ανάδειξη 1
κιβ@@ 1
μαχίας 1
.Το 1
Μαξι@@ 1
ίνει 1
θεωρούσαν 1
κίτρινο 1
μαρκ@@ 1
ύγουν 1
Ονομασία 1
μβαναν 1
οργανισμών 1
περιεχομένου 1
στάθηκε 1
τήτων 1
Βρετανοί 1
Μιχα@@ 1
αγωνιστικές 1
εύρος 1
κραν@@ 1
πράγ@@ 1
προσφύγων 1
σπαν@@ 1
υρί@@ 1
ψυχρ@@ 1
Γουλιέλμο 1
Δεύτερη 1
Κηφ@@ 1
αγωγές 1
αναρχ@@ 1
περιεκ@@ 1
πρωταγωνιστές 1
ρίαση 1
ύλακες 1
ΕΟ@@ 1
ίκους 1
βιομηχανική 1
είσοδος 1
εκτιμήσεις 1
εξάδελφ@@ 1
κυβέρνησε 1
συγκαταλ@@ 1
τεία 1
ότερ@@ 1
00@@ 0.6746167837563618
Γκαμπ@@ 1
έμ 1
ανατολικές 1
ολυμπιονίκης 1
συνεχείς 1
τέλους 1
υποστηρί@@ 1
εφαλής 1
Μάρκο 1
Ιβη@@ 1
Σίλ@@ 1
στευ@@ 1
Βραν@@ 1
έλτα 1
αρχιτέκτονας 1
ξεπέ@@ 1
πληγ@@ 1
ρούνται 1
τελεί 1
φλοι@@ 1
Αλή 1
Μαυροβ@@ 1
Χολ@@ 1
δίωξη 1
επεξεργασίας 1
μοναστηρι@@ 1
ούχου 1
άλλης 1
δημόσιες 1
στρέ@@ 1
χρυσού 1
Ακρω@@ 1
έντρ@@ 1
αναγκάστηκαν 1
διάδοση 1
ενν@@ 1
οικοδόμ@@ 1
πιστεύει 1
Βαβυλ@@ 1
ΕΤ@@ 1
διατηρήθηκε 1
δραστηριοτήτων 1
πουμπλικαν@@ 1
ρούσαν 1
τέλης 1
ασβεστ@@ 1
εμφύ@@ 1
κρέας 1
ναί 1
στάσιο 1
φυγή 1
Βουδ@@ 1
Κέρ@@ 1
Νίκαιας 1
λεξε 1
τόπ@@ 1
υποδηλώνει 1
Ίδρυ@@ 1
Βαθμ@@ 1
μετατροπή 1
Θή@@ 1
Σοφίας 1
ακτιβ@@ 1
ακτινοβολία 1
αρκετών 1
διαγωνισμού 1
οπτ@@ 1
ec@@ 0.09629522103377752
Εκείν@@ 1
Λαϊκή 1
εμπλέκ@@ 1
προσφέρουν 1
συνάν@@ 1
3,@@ 0.5745506874521676
Li@@ 0.19457005983001344
ίδιοι 1
αντιμετώπι@@ 1
ηνίας 1
νομής 1
ξενοδοχείο 1
χάρτη 1
μαύρη 1
ξιος 1
Βουλευ@@ 1
Ιάπ@@ 1
αϊμ 1
διαφέρουν 1
ενδιαφέροντος 1
ξεχωριστά 1
όμορφα 1
Com@@ 0.16870737010924305
Γενικού 1
βερ 1
δεσπό@@ 1
νουν 1
ολική 1
Πρωταθλητής 1
Ταχ@@ 1
αγρότες 1
φωλι@@ 1
αεροσκαφών 1
βλάστηση 1
γύρ@@ 1
δικού 1
θηλυκά 1
τει@@ 1
j 0.2906858906779378
Καυ@@ 1
Κολο@@ 1
διαφέρει 1
καλύφθηκε 1
παίρν@@ 1
Έπαι@@ 1
Ερζεγοβίνης 1
Λόγ@@ 1
απαραίτητα 1
κατηγορού@@ 1
Άντρι@@ 1
Νιού@@ 1
Ολο@@ 1
Πολύ 1
Πρωτεύουσα 1
αρχίες 1
βορει@@ 1
σύγκ@@ 1
τρόμ@@ 1
φτάνουν 1
έμου 1
απευθύν@@ 1
γνωρίζουμε 1
γνώσεις 1
πομπ@@ 1
σκυ@@ 1
υποχρέ@@ 1
4ου 1
Ήλιο 1
Βιετνάμ 1
Βοσνία 1
λής 1
μαζική 1
υιοθέ@@ 1
υπερβ@@ 1
Αμερ@@ 1
Μπακ@@ 1
Τράπεζας 1
αρσενικά 1
δον@@ 1
μώ@@ 1
ψυχής 1
Mor@@ 0.1345500331459972
Δημητ@@ 1
Λεοπόλ@@ 1
Ράιν@@ 1
εσωτερικά 1
οντο@@ 1
σακ@@ 1
1871 0.7185985222229693
Hall 0.23038496291112548
Ιζ@@ 1
Ρωμαν@@ 1
ακολουθία 1
ακολού@@ 1
λλας 1
πονται 1
12,@@ 1
ανεγέρ@@ 1
ασίου 1
διεξάγεται 1
εκστρατείες 1
Microsoft 0.9309326154199763
ανιψ@@ 1
ελατ@@ 1
σύνης 1
τωνα 1
φαίν@@ 1
7ο 1
αδελφοί 1
ερώ@@ 1
4.000 1
άρντο 1
ίωσης 1
σύνθετος 1
υσι@@ 1
διαχείρισης 1
κατευθυν@@ 1
απαραίτητο 1
βακτη@@ 1
ευμένη 1
κινείται 1
ωναν 1
όρθωση 1
Νιου 1
βης 1
κόλπου 1
ρίκ@@ 1
Ιλλ@@ 1
Κιέβου 1
Λισ@@ 1
Τρε@@ 1
Φυσικής 1
δικούς 1
μπάλα 1
Στοκ@@ 1
ίκτυο 1
περιφερειακής 1
5,@@ 0.6887431717880711
Μουσική 1
αερίων 1
κατάλληλο 1
μς 1
Δη@@ 1
Θερινούς 1
Ινδον@@ 1
Ισρα@@ 1
απεργ@@ 1
λί 1
ap@@ 0.07622837964272913
Απολλ@@ 1
αμφισβη@@ 1
ιδρυτικό 1
κινουμένων 1
κύμα 1
μάτισε 1
μέθοδοι 1
οπολ@@ 1
σκόραρε 1
συνεχεία 1
όχους 1
Par@@ 0.1056080276089918
Μαϊ@@ 1
Σταυροφορία 1
ανακοίνωση 1
ασφάλειας 1
ηνία 1
υπερασ@@ 1
φαρμάκων 1
ra 0.08774238564946123
Δόξ@@ 1
Χατζη@@ 1
Σκω@@ 1
βρέ@@ 1
επιτροπ@@ 1
κατηγορήθηκε 1
ρόλου 1
χόλ@@ 1
Άμστερνταμ 1
Βελιγραδίου 1
Σχολείο 1
Φαν@@ 1
δράμα 1
οδυναμ@@ 1
πολεμικές 1
τερσον 1
τοτε 1
Μουσικής 1
θεώρ@@ 1
υπογράψει 1
δοξ@@ 1
προκάλεσαν 1
ρηκ@@ 1
ηρυ@@ 1
ισοπαλία 1
ποια 1
Βασιλικής 1
Ξη@@ 1
Φύ@@ 1
άκου@@ 1
δημιουργείται 1
τονομ@@ 1
UNESCO 1
Γιώργου 1
επένδυ@@ 1
ημένου 1
πλακ@@ 1
ραχ@@ 1
συγκεντρώσει 1
χωρη@@ 1
900 1
Μαυροβουνίου 1
εκατομμύριο 1
χρήσεις 1
ψάρια 1
ne 0.046065524098621476
Ντελ@@ 1
βοηθη@@ 1
διαθέσιμο 1
οστών 1
πέφτει 1
παλαιό 1
14ου 1
Άξ@@ 1
Γραμματέας 1
Κελ@@ 1
αυξηθεί 1
οητευ@@ 1
οικογέν@@ 1
πλεονέκτημα 1
τορπιλ@@ 1
φωτογραφία 1
Μολδαβίας 1
Ρίο 1
ίσχυ@@ 1
ερα 1
νικητές 1
ορυκ@@ 1
κυρία 1
ταχυδρομ@@ 1
φύλακας 1
Κέρδισε 1
αντιλη@@ 1
εκτοξ@@ 1
ισι 1
Ac@@ 0.19952724550688083
ini 0.1894129911564647
van 0.29574364735164443
έννοιες 1
αντάρτες 1
εναπο@@ 1
πλατφόρμα 1
ρόμ@@ 1
βέν@@ 1
εταιρίας 1
λήφθηκε 1
ναλ 1
νατ@@ 1
παραιτηθεί 1
ριστου@@ 1
Se@@ 0.1132022287629677
Μυκ@@ 1
έστερη 1
ήτριο 1
ελκυ@@ 1
ιώτης 1
μεταρρύθμιση 1
ποικίλλ@@ 1
προϋπο@@ 1
1893 0.6473783177116947
αερό@@ 1
ενταχθεί 1
ναυτικό 1
νευρο@@ 1
πτέρυγα 1
τρέφ@@ 1
όνησε 1
1822 1
ano 0.10788951755367668
Βουλγ@@ 1
Γάλλων 1
Γρε@@ 1
θετα 1
κάτοχος 1
κιν 1
οσφαί@@ 1
συζητήσεις 1
άγιο 1
πλειον@@ 1
1888 0.6856082811675837
Per@@ 0.13437860158223294
Εκπαι@@ 1
Θεοφ@@ 1
απόκτηση 1
ιανού 1
σταθερό 1
Βοημίας 1
Σομ@@ 1
απεικόν@@ 1
κάπως 1
χαρακ@@ 1
Αιγάλεω 1
ανταλλ@@ 1
εναλλ@@ 1
θεώρημα 1
στόμα 1
Πλατεία 1
εποπτ@@ 1
θηκ@@ 1
τελικούς 1
χριστιανική 1
ύλους 1
ακτινοβολ@@ 1
καίν@@ 1
λάχ@@ 1
λογισμικό 1
νόσ@@ 1
Όσον 1
αποτελεσματική 1
μοί@@ 1
Φλωρεντία 1
ένιος 1
αριθ@@ 1
αριών 1
επιλογής 1
λέξης 1
σηματοδο@@ 1
υποχρεώσεις 1
χρε@@ 1
10,@@ 1
Γύρω 1
Λύκειο 1
αρχαιότητας 1
αστέρια 1
ηρο 1
Καρχ@@ 1
βρετανικό 1
δισκογραφική 1
στρεψε 1
Μαρσ@@ 1
είλ@@ 1
οκτ@@ 1
πολλ@@ 1
σπαθ@@ 1
29@@ 1
Jean 0.14234987286899947
Super 0.3877099594088155
Δημοκρατικού 1
γραμμένο 1
εξερευν@@ 1
ογραφικής 1
Τεν@@ 1
ηδες 1
ήρωας 1
ίζ 1
διπλωμά@@ 1
εγκατασταθεί 1
ελαφρ@@ 1
αποκτά 1
γνώριζε 1
κρατήσει 1
τροφία 1
1884 0.7263611174877164
Γιουνάιτεντ 1
Ράν@@ 1
έλλες 1
αθλητικό 1
διοικητικές 1
εκδιώ@@ 1
ουλος 1
ποσοστά 1
Αξ@@ 1
Ελβετίας 1
Μωάμεθ 1
διαί@@ 1
επιδόσεις 1
μετασχηματ@@ 1
προετο@@ 1
σύμ@@ 1
Βρετάν@@ 1
Ιουλι@@ 1
ανικής 1
μελέτης 1
ρινγκ 1
ροβολ@@ 1
110 0.898719879921696
7η 1
Αμπν@@ 1
ΝΑΤΟ 1
μπε@@ 1
ανασκαφ@@ 1
επεισοδ@@ 1
κριτικής 1
ούνιο 1
σόλο 1
τρώ@@ 1
όρις 1
Ανατολικό 1
Ανζού 1
διακρίν@@ 1
δρο 1
χαμηλό 1
Αλφ@@ 1
επίπεδ@@ 1
θρησκευτικό 1
ικόν 1
τάει 1
Έφ@@ 1
Ζαχαρ@@ 1
διαταγή 1
επισκεφ@@ 1
μοντέλου 1
πόρων 1
ah 0.16065337989340173
Μάρκος 1
Μαξ 1
ίδρυσης 1
Bur@@ 0.17822222356525116
Βιρτζίνια 1
Ηρ@@ 1
Θου@@ 1
ανεπάρκ@@ 1
βακ@@ 1
διοργάνωσε 1
ματοποι@@ 1
στείλει 1
στρώματα 1
115@@ 1
ένταξη 1
δικός 1
πεν 1
τίτλου 1
Καίσαρα 1
διάσημος 1
ζεύγ@@ 1
κεντρικός 1
υι@@ 1
Βρ@@ 1
Λω@@ 1
δικτύ@@ 1
πασμα 1
Αεροδρόμιο 1
άμυνας 1
άρθρω@@ 1
δευτερεύ@@ 1
εκάστοτε 1
υδρογόνο 1
όδρομο 1
Προτεστ@@ 1
καλυμ@@ 1
σχολείου 1
ὰ 1
Νέου 1
Ρος 1
αγγελι@@ 1
ποπ 1
υπόλοιπους 1
Ασι@@ 1
γύρος 1
εορτά@@ 1
επιστημονικά 1
λαΐ@@ 1
συμφωνίας 1
χη@@ 1
ύμβ@@ 1
Ισα@@ 1
αποφοί@@ 1
οροσειρά 1
παραπέ@@ 1
τισης 1
ότυπα 1
βουνού 1
δρομής 1
μείγμα 1
συμπεριφοράς 1
ίθενται 1
καταδικ@@ 1
μονάδων 1
μπου 1
φου@@ 1
Λέσβου 1
έγκριση 1
απαγόρευση 1
ογκ@@ 1
παρότι 1
ψευ@@ 1
University 0.05299928142616554
Στεφάν@@ 1
Υπόθεση 1
αγάπ@@ 1
δολ@@ 1
δυναμική 1
Ηρόδο@@ 1
βραβεύτηκε 1
κτισμένο 1
παρόμοιες 1
ριζόταν 1
1ος 1
Σιδηροδρομ@@ 1
ήθος 1
πολύπλοκ@@ 1
di@@ 0.058710506631248466
Αρχιτεκτον@@ 1
Λεων@@ 1
ατρί@@ 1
επέκ@@ 1
μεταρρυθμ@@ 1
ῆς 1
Μεσογ@@ 1
διάσπαση 1
πρόσθε@@ 1
King 0.17209669340585587
δείξεις 1
εδρών 1
οχω@@ 1
σκεψη 1
Αποτελείται 1
ευαίσθη@@ 1
ια@@ 1
στί@@ 1
ma 0.12669202646522168
διακεκρι@@ 1
νακλ@@ 1
περιφέρ@@ 1
ler 0.0765015336728735
Νίκου 1
ΟΚ 1
δημοτικής 1
θευ@@ 1
ούλης 1
προτερ@@ 1
Κορρά@@ 1
Πρι@@ 1
ανί@@ 1
ενδυ@@ 1
μοναχός 1
11.@@ 0.906724679584987
Κοντά 1
Φρανσίσκο 1
ίσκο 1
απομπές 1
περισσότερη 1
1867 0.7569504043506329
Citroën 1
ti 0.2088285305726569
Σφαί@@ 1
Τέξ@@ 1
πρόγον@@ 1
Οθωμανών 1
ήρα 1
ζήσει 1
Βιλ@@ 1
γαι@@ 1
θυρα 1
τανε 1
υπν@@ 1
Αναγέννησης 1
στρατιωτικά 1
μαρτυρίες 1
προέρχονταν 1
πρωταγωνιστ@@ 1
.com 0.652460585068056
FIFA 0.8938034760663958
αποκλ@@ 1
φιλντ 1
ενίσχυ@@ 1
λιμ@@ 1
Καθολική 1
άξουν 1
Ιωανν@@ 1
φυλακές 1
1886 0.6857043294128402
Ro@@ 0.15484495434075846
Κάρο@@ 1
Οδός 1
Σύνδεσμ@@ 1
Φερδινάνδος 1
πίστευ@@ 1
έλλα 1
αστέρων 1
κοινοτήτων 1
θεό 1
1891 0.640367556167325
ro@@ 0.076855497662775
βαφ@@ 1
ισοβ@@ 1
Καισ@@ 1
Τομ 1
ασμούς 1
γιν@@ 1
δάκ@@ 1
δημοσί@@ 1
ηνός 1
νόσου 1
πέναλτι 1
όδους 1
118@@ 1
oc@@ 0.10005533699698115
ˈ@@ 1
Κε@@ 1
Συνεπ@@ 1
δότη@@ 1
παραπ@@ 1
ρικ 1
ριπ@@ 1
τείχος 1
Club 0.14207539132640284
θρησκείας 1
χειρόγραφα 1
1500 0.8629500433813158
Un@@ 0.15963160207135565
off 0.10096148925878327
κλάδου 1
τσες 1
διακρίθηκε 1
ρίνη 1
For@@ 0.15097092481654778
1864 0.7110929026588383
right 0.19005272195569178
διδακ@@ 1
τυχε 1
Όμιλ@@ 1
Πλού@@ 1
Νιγ@@ 1
Ούν@@ 1
μβαν@@ 1
op@@ 0.08423504577351044
€ 1
6.000 1
Ραβ@@ 1
Φα@@ 1
απώ@@ 1
ελεύθερα 1
Τόσο 1
ίτσας 1
αντιμετ@@ 1
σιά 1
1840 0.884723184220051
Μέλ@@ 1
σταλ@@ 1
τοπία 1
σύλλ@@ 1
αντι 1
1850 0.7382487583591503
Metal 1
παντρε@@ 1
Me@@ 0.1646839595656362
νοια 1
Paul 0.1344876330271744
ya 0.05973339828404389
ετίας 1
ent 0.03352830436786942
θηναϊκ@@ 1
22@@ 1
ke 0.11021977152377747
0,0@@ 1
Αικατερ@@ 1
θηγ@@ 1
ανάγκ@@ 1
ig@@ 0.09748035005032174
πλεον@@ 1
Περιφερ@@ 1
1887 0.6749958824553877
καταλήγ@@ 1
λλην@@ 1
χαμ@@ 1
He@@ 0.15753966808387518
επιρρο@@ 1
do 0.0669970930017123
ισή 1
us@@ 0.08545386954256054
James 0.1356899936757998
Z 0.38559092689832053
1882 0.7061111666278808
ατό 1
Studios 0.7438543873635024
ay 0.10660991021673805
έκλει@@ 1
απαραίτη@@ 1
lo@@ 0.06766502199785636
1833 1
Λευκω@@ 1
διαμερ@@ 1
ουλευ@@ 1
David 0.14568509269163848
1883 0.724778510788417
Life 0.2834948093237405
συμφών@@ 1
Πετρού@@ 1
ανθρώ@@ 1
κοινοβ@@ 1
πεδ@@ 1
William 0.12444648386559351
ice 0.14490931224632247
έσπ@@ 1
IV 0.29712547005794515
to@@ 0.0909884650303063
13,@@ 1
.-@@ 1
Εσωτερ@@ 1
1,2 1
FIBA 1
φθεί 1
1828 1
αλή@@ 1
σύνδε@@ 1
a.@@ 1
Παιδ@@ 1
ισοδ@@ 1
διάφορ@@ 1
τεια 1
ity 0.06606321041297986
αμφισβ@@ 1
ενημέρω@@ 1
ποδοσφαιριστ@@ 1
παιχνιδι@@ 1
πύ@@ 1
AS@@ 0.35875440388540564
διοδρο@@ 1
1834 1
é 0.030457449093460525
Λέσ@@ 1
1877 0.7237247655109559
ολοκλήρω@@ 1
Κωνστ@@ 1
δέρ@@ 1
ιτέχ@@ 1
κερδ@@ 1
παρόμοι@@ 1
τίμηση 1
χειμ@@ 1
80@@ 1
αναφορ@@ 1
Col@@ 0.11943583458893317
εκκλη@@ 1
ir@@ 0.07431929629531392
μελέ@@ 1
1815 1
ζύγ@@ 1
Deep 1
no 0.028753757998704735
έδει@@ 1
βέβ@@ 1
ner 0.09964104718998133
αναδ@@ 1
οδευ@@ 1
τευξη 1
έροντας 1
απου@@ 1
ψυ@@ 1
Καίσ@@ 1
3,5 1
Po@@ 0.18104641634526092
50@@ 0.7415999655664535
play 0.10837598180765025
δισε 1
τροπο@@ 1
OH 1
UN@@ 0.5364960780939243
les 0.00883283149317224
de@@ 0.05283548914171207
κινηματογράφ@@ 1
Channel 0.6636970964866424
ίκας 1
όπλ@@ 1
Lo@@ 0.18297692000219437
καταστάθηκαν 1
ons 0.06501211952206094
βαρι@@ 1
μοντέ@@ 1
Awards 0.23988673615114833
ja 0.1759427897079848
θεωρού@@ 1
μεγέ@@ 1
στρατιώ@@ 1
Βαυαρ@@ 1
Λάρι@@ 1
180 0.9637539237091262
έλευ@@ 1
οσμ@@ 1
Φιλι@@ 1
σηματο@@ 1
ήγαγ@@ 1
ευγ@@ 1
1861 0.6603291100261047
Or@@ 0.13670455321248018
Πρίγκιπ@@ 1
1876 0.6746308972105559
Έχ@@ 1
δρομές 1
οδα 1
ρίτης 1
όδιο 1
φιλοξ@@ 1
ψηφοφορ@@ 1
Μολδαβ@@ 1
ἰ@@ 1
αντιν@@ 1
Βαρσοβ@@ 1
ενδιαφέρον@@ 1
όδρο@@ 1
um@@ 0.06818589591556454
Μαργαρ@@ 1
Μη@@ 1
άλυση 1
τέθηκαν 1
Γρ@@ 1
1875 0.6928905157451078
ήνων 1
διδακτορ@@ 1
φτω@@ 1
140 0.9551870183678163
1863 0.6733743921871778
χάλ@@ 1
130 0.844595946621576
Company 0.17575524192710434
Διοίκ@@ 1
όσφαι@@ 1
οθέατα 1
υργ@@ 1
College 0.10248263422399409
τμ@@ 1
ā@@ 0.2599793431421132
συνελήφ@@ 1
House 0.12595501754445457
ant 0.03472922700945737
ut@@ 0.10897164816695162
Βοημ@@ 1
Αμβ@@ 1
ca 0.15579599837240504
οφυλ@@ 1
συχ@@ 1
1868 0.687295054559866
οσημείω@@ 1
ώνυ@@ 1
1825 1
θε 1
μβανε 1
τύπ@@ 1
ak 0.11728625988155764
ματοποί@@ 1
Αιγύπ@@ 1
Robert 0.13456008569542757
CH3@@ 1
top 0.13098934436220747
καλαθ@@ 1
λελεύθερ@@ 1
ci@@ 0.12415026417159573
Ρόμ@@ 1
προσω@@ 1
Ροβ@@ 1
φτά@@ 1
φύγ@@ 1
είγματα 1
`@@ 1
Radio 0.26462658525278576
ΟΥ@@ 1
έναρ@@ 1
παρχ@@ 1
Παρισ@@ 1
ήμη 1
άντως 1
σταθ@@ 1
em 0.1212409443054633
γενέστερ@@ 1
si@@ 0.10042762709511766
εφαρ@@ 1
ea 0.1768291565347842
άρθ@@ 1
λεσε 1
co@@ 0.0576585842771114
Association 0.1524380542814004
ίωμα 1
είλει 1
στημα 1
Grand 0.1580604027996515
Pe@@ 0.21278844889990017
Αυστρα@@ 1
124@@ 1
As@@ 0.15055727355335785
ts 0.04066340336004218
αποσύρ@@ 1
τηρεί 1
Ber@@ 0.1113164737758338
eb@@ 0.0994292257888772
land 0.058210300267331205
τορία 1
Michael 0.16016786326748678
http 1
po@@ 0.07575301528393434
Παύ@@ 1
ικότερα 1
ρεια 1
RA@@ 0.5192738818080479
eg@@ 0.09410083562477545
ani 0.1731941693788106
ειξη 1
ποικ@@ 1
εξου@@ 1
ιέρ@@ 1
bit 0.4529728203960471
1862 0.6417604991267355
1873 0.6644075021000645
θάνα@@ 1
114@@ 1
άγνωση 1
αντιπολίτευ@@ 1
ite 0.08274827338572634
City 0.07557160142223822
κατέκ@@ 1
άβει 1
αρίων 1
τέρ 1
μιση 1
Air 0.17521385931742745
ΚΕ 1
ετη@@ 1
οβολ@@ 1
σταματ@@ 1
τοκος 1
ai 0.11374231459142982
km 0.061616381828765776
κυκλοφορ@@ 1
Group 0.17943375067278208
Her@@ 0.12433821040416192
1800 0.8106941407998772
Πόλε@@ 1
ορεύει 1
ημά@@ 1
Do@@ 0.23982447605843366
φιλόσοφ@@ 1
1836 1
υρία 1
όγου 1
Σαξ@@ 1
βίν@@ 1
ak@@ 0.08401511835783337
den 0.008681679050271403
ερευ@@ 1
1826 1
1869 0.6942687313328166
αναλαμβ@@ 1
Καρα@@ 1
Φίλιπ@@ 1
117@@ 1
ανταλλαγ@@ 1
διακά 1
ans 0.043084191858916994
πλειοψηφ@@ 1
Black@@ 0.6244207447373913
ri@@ 0.07817628426450252
Αποτελ@@ 1
ειναν 1
UEFA 0.6450483229290189
πας 1
RNA 1
έγι@@ 1
στήρι 1
12.@@ 0.7471370022775106
Τρά@@ 1
vi@@ 0.10398270706270636
ou@@ 0.08732516065170325
DC 0.4602940550605169
no@@ 0.11897819048076451
with 0.0055404652550759895
φωση 1
υπτι@@ 1
1872 0.6520220719284662
Ελέν@@ 1
εξασφάλι@@ 1
άλυψη 1
δορ@@ 1
era 0.04814980847992611
θμιση 1
BMW 1
ριστής 1
Αρκα@@ 1
ραϊκ@@ 1
1865 0.6061302053537545
Purple 1
1874 0.6429225700397351
απαιτ@@ 1
ορα 1
ρίσκεται 1
ա@@ 1
βοή@@ 1
μπελ 1
116@@ 1
γλω@@ 1
Entertainment 0.4696184239284918
re 0.06394355645213812
όπεδ@@ 1
ρεψαν 1
ινε 1
za 0.14470312832274637
Άμ@@ 1
s.@@ 1
πραξικ@@ 1
ist 0.012144928891401636
more 0.03585637312995204
Ρουμαν@@ 1
ολόγιο 1
τύχ@@ 1
1.0@@ 1
εκπρόσω@@ 1
AL@@ 0.6430632252988185
El 0.02470349794417402
όμετρα 1
30.000 1
Google 0.8175438393332016
co 0.08657365698036565
έος 1
χρησιμ@@ 1
350 0.92152899976319
καταφύγ@@ 1
νήσου 1
CA@@ 0.3738569600288743
q 0.3484473613255219
ph@@ 0.08184636207743085
υπόλοι@@ 1
ληψη 1
60@@ 0.8811530841389185
Charles 0.12060129405889378
έρευ@@ 1
δισεκατο@@ 1
κτηνο@@ 1
ni@@ 0.11222132185925913
στέρ@@ 1
ϊν 1
San 0.0676296732947604
Ακολού@@ 1
Διον@@ 1
ίκου 1
τραγουδι@@ 1
Young 0.32783852802534125
ΣΔ 1
200@@ 0.9140616034804862
Καποδί@@ 1
έδιο 1
Bal@@ 0.15143436668857893
γίν@@ 1
συνέν@@ 1
Royal 0.13875208198074568
Ορθόδο@@ 1
ίρι 1
Red 0.21491688359610717
1824 1
ανάδ@@ 1
πρόσωπ@@ 1
± 1
Εκλ@@ 1
Κινηματο@@ 1
ανακοίν@@ 1
σκότ@@ 1
Pol@@ 0.17549782430682853
παραδο@@ 1
αρμογ@@ 1
οδυ@@ 1
τούρα 1
τοις 1
codice 0.8601814461260145
q@@ 0.2651511057621509
ημερομ@@ 1
ταμ 1
Hel@@ 0.24058373056292873
40@@ 0.7635077197376932
und 0.0035723371212411353
όκου 1
il 0.01577831437755107
Σιδ@@ 1
Πελοπον@@ 1
μελετη@@ 1
1829 1
φάρ@@ 1
ωρο 1
ερμαν@@ 1
101 0.8472309754051516
ing@@ 0.08586818931959297
ov@@ 0.13140839657259207
διαδρα@@ 1
κοπο@@ 1
ρισκόταν 1
ταχύτη@@ 1
πούδ@@ 1
ξεκίν@@ 1
113@@ 1
λαίου 1
λιμάν@@ 1
βηγ@@ 1
γίου 1
δελφ@@ 1
Φλωρεντ@@ 1
ισοπ@@ 1
office 0.17088662882148473
1856 0.7274525010146643
θετε 1
So@@ 0.18241559554022058
Ab@@ 0.057901679215330425
bi@@ 0.07171032096477326
Ιάκωβ@@ 1
IS@@ 0.42316850566378067
Ver@@ 0.048333842030392864
στάλ@@ 1
Ἀ@@ 1
Maria 0.22458448465000286
Marvel 1
Τέχ@@ 1
κιλ@@ 1
1854 0.7571258638858159
Na@@ 0.4569673927591444
Λον@@ 1
Ποδ@@ 1
ακτι@@ 1
γεγονό@@ 1
ζήτηση 1
Pi@@ 0.18093201561219308
Αυτοκρά@@ 1
au 0.013051223003099067
Mag@@ 0.19278379337452067
SA 0.40804954470806354
160 0.8762879852827183
κεφ@@ 1
ποσο@@ 1
1859 0.6597657282204469
νησης 1
οδοι 1
λυκ@@ 1
τείνεται 1
ty 0.08404291741417608
Ξεκ@@ 1
1844 0.9221292783255414
ώδ@@ 1
450 1
Night 0.47492279575831825
AT@@ 0.43325329104521465
εβδ@@ 1
μετάδ@@ 1
πλατφόρ@@ 1
Cer@@ 0.29487340203430396
τεστ@@ 1
io 0.14313320022765094
35@@ 0.7905553906198172
Mc@@ 0.09659796859416557
me 0.0829000582244292
AC 0.3637717748724901
ara 0.11529935915331273
Apple 0.7676018163474474
ter@@ 0.06208121527578036
πυρκαγι@@ 1
οτε 1
όργαν@@ 1
Man@@ 0.11107497921411115
als 0.011328337491042261
ασφάλ@@ 1
τούργ@@ 1
κατέλη@@ 1
Game 0.40135901977896365
Σταθμ@@ 1
περιελά@@ 1
Bl@@ 0.1746739173975672
est 0.006533117129879378
όμη 1
κυμαίν@@ 1
1814 0.8994609774799373
ήποτε 1
ρίθηκε 1
od@@ 0.10852914319203408
To@@ 0.234271296264439
σταθεί 1
πόλε@@ 1
τομο 1
are 0.011600122830362315
συμμετάσχ@@ 1
Ma@@ 0.127340871036201
NH@@ 1
νομή 1
Ηνω@@ 1
George 0.10683926632341517
ευθύ@@ 1
ce 0.036246831827678246
διαμέ@@ 1
District 0.10376501467760144
Pro@@ 0.12513189588267024
τημ@@ 1
αποστολ@@ 1
1820 0.6898076696624188
NO@@ 0.7205659261821445
ash 0.3359884478902701
ot 0.13849755828210697
Pa@@ 0.3949506273331145
Award 0.14373010618448953
ομηχαν@@ 1
τυπα 1
ey 0.12052248733299362
Φιλίπ@@ 1
βλε@@ 1
Er@@ 0.07085416528719628
ore 0.1259514786475704
mo@@ 0.08428813907077513
καρν@@ 1
ζων@@ 1
Mer@@ 0.15155013001304968
ber@@ 0.08365557085542512
ol 0.10893797281352134
ΐας 1
Γυνα@@ 1
ανου@@ 1
Αραγ@@ 1
όδοξ@@ 1
1832 0.9128428836922886
DS 0.6471047108356993
per@@ 0.06592218126864942
ταχυ@@ 1
ὲ 1
χρηματοδότη@@ 1
ρέφεται 1
→ 1
έφθ@@ 1
τουρ@@ 1
δοσης 1
επέστ@@ 1
τούμεν@@ 1
8.000 1
se@@ 0.05510967941114519
Te@@ 0.15069165428384154
επιστημι@@ 1
μπή@@ 1
απόδ@@ 1
μόρ@@ 1
ταχθεί 1
1851 0.7467602233498017
ασβ@@ 1
όγον@@ 1
ker 0.11730680694497078
Βιβ@@ 1
Πορτογαλ@@ 1
σύγκρου@@ 1
Best 0.19713921241116444
ανάγκα@@ 1
š@@ 0.24739588529722395
υνα@@ 1
ταγμα 1
ὴ@@ 1
επίσ@@ 1
ρακα 1
Is 0.47958648721946606
τηρού@@ 1
50.000 1
Bel@@ 0.11621284349350917
ανή@@ 1
απόπ@@ 1
ator 0.0942918214978306
og@@ 0.11000877778333973
φύλα@@ 1
ly 0.04832389497433489
αναφέρ@@ 1
εκπομπ@@ 1
θελ@@ 1
1843 0.9007405075729401
ER@@ 0.5240315629426322
br@@ 0.05352880686730027
Iron 0.8275235903271877
άλω@@ 1
δικα 1
1,3 1
facto 1
αιο@@ 1
php 1
νια 1
Big 0.254638224852989
Pan@@ 0.219411186596279
sp@@ 0.07070582522556507
ειγμα 1
συγκέντρ@@ 1
Inter@@ 0.14190373305707457
box 0.4156721366227749
met 0.14355104649656736
ous 0.05624978885082019
όνομ@@ 1
ὸ 1
125 0.7637395205008501
do@@ 0.1357912335505904
end 0.04038691233111925
1858 0.695133907963058
On 0.02826069535650251
ησιμ@@ 1
va 0.11410839543123973
ογγ@@ 1
Ge@@ 0.11253007916051007
RE@@ 0.4900620065695984
Σεπτέμβ@@ 1
Βουλ@@ 1
Bre@@ 0.17957836009585923
ell 0.08908610479319001
ερις 1
τείχ@@ 1
Ag@@ 0.2201965305806982
ακτιν@@ 1
πτώ@@ 1
προφαν@@ 1
1841 0.8624757376578828
1845 0.7924271136412294
ane 0.1380740548451635
1827 1
ανάγ@@ 1
4,5 1
Ne@@ 0.1037774514500956
bo@@ 0.07404935829241738
Ford 0.40731383817250627
κειο 1
1823 1
κιθ@@ 1
ΠΑ 1
καλοκα@@ 1
Προσωπ@@ 1
LA 0.5835715231634155
out 0.031963280277796186
ΰ@@ 1
τραγούδ@@ 1
1812 0.7565614482328117
ella 0.12304903296135668
όλου@@ 1
Γιουγκοσλαβ@@ 1
καταστά@@ 1
Film 0.11327176490962383
κατέφυγ@@ 1
Ανώ@@ 1
Ερζεγοβ@@ 1
gr@@ 0.06038798465628274
τροπής 1
Av@@ 0.2721183062476542
Si@@ 0.2291596855538538
ίδραση 1
ίπισσα 1
ηρύ@@ 1
θυγ@@ 1
Κλη@@ 1
σοβ@@ 1
Al 0.12019110743767311
th 0.06689078499914533
σιαλ@@ 1
έρχονταν 1
συνο@@ 1
Euro 0.4631366182209657
Your 0.6267612350166297
sa 0.029898220439541594
βελτί@@ 1
Tour 0.16645952559028854
1853 0.7307218058662617
que 0.005017553629658895
Εταιρ@@ 1
Φίλι@@ 1
αφορ@@ 1
θαν 1
³ 0.9766164341500915
εριν@@ 1
1793 0.9728563682794826
Dis@@ 0.18379214333807944
Blue 0.3095773952872982
Σύλλογ@@ 1
δοβ@@ 1
FC 0.12663948683059367
Βουργουν@@ 1
Οκτώβ@@ 1
Φιλιπ@@ 1
πουργ@@ 1
τρά@@ 1
1849 0.6740280215112768
διακρί@@ 1
ταιν@@ 1
τηρη@@ 1
1837 0.8082478662269437
σταμά@@ 1
τωπ@@ 1
Go@@ 0.16997597483513988
IC@@ 0.42067211804963683
NASA 0.9828677632403796
Park 0.0950149375000906
pi@@ 0.08866998160778894
ur 0.10641143494903355
Σλοβ@@ 1
ki 0.15920970878636553
αιχ@@ 1
πιστο@@ 1
Fe@@ 0.2163356869540117
Gu@@ 0.09978926234284574
Day 0.2344640982157989
Thomas 0.11015816056133707
ins 0.061237669685921425
γράμματος 1
πολυάρι@@ 1
αντάρ@@ 1
διανομ@@ 1
MP@@ 0.5166447374544726
ick 0.13662637600304242
ινγκτον 1
ουμένων 1
κύττα@@ 1
Sonic 1
μετακόμ@@ 1
IM@@ 0.4943074685866511
SO@@ 0.6467081282961789
Εθνο@@ 1
Μεξ@@ 1
οχές 1
105 0.8645324550361441
COVID 0.41862717554788215
ιωμάτων 1
1806 0.8918687637721388
ary 0.05519345040054637
κατερ@@ 1
33@@ 0.8911986456065352
Football 0.16912542368598193
εκστρατ@@ 1
εύγ@@ 1
Αλεξάν@@ 1
έστηκε 1
ερνη@@ 1
λογαρι@@ 1
πεδι@@ 1
Warner 0.6947180358502612
1.500 1
ne@@ 0.0807169691868285
1831 0.8678327093241913
όμεν@@ 1
Fr@@ 0.1242529718426311
all 0.024284501184646288
καταν@@ 1
1857 0.6172707602886877
7.000 1
Martin 0.14950067958536195
Άγ@@ 1
1792 1
14,@@ 0.8700215129440153
Sol@@ 0.15856179071274004
έριο 1
Les 0.032923376689549415
Ναπο@@ 1
ηλεκτ@@ 1
FI@@ 0.49601266085770424
λαδή 1
οίτησε 1
Kr@@ 0.12678564599123104
άστια 1
είωσε 1
Ph@@ 0.17131704833533068
διαφορο@@ 1
δοκι@@ 1
Bor@@ 0.1456882265585777
πολί@@ 1
αεροσκ@@ 1
ρίσματα 1
σειρ@@ 1
1789 1
επηρέ@@ 1
πέφ@@ 1
Mus@@ 0.18575077671798637
oles 0.5514671746076337
Louis 0.122628950703168
οιας 1
SE@@ 0.45498410891732427
οκρα@@ 1
έλυ@@ 1
AS 0.39063023091376653
CH3 1
ῦ@@ 1
Ad@@ 0.12026894613666547
ek 0.1532541438227382
Richard 0.14197574709416444
Έλλ@@ 1
Tri@@ 0.13484065240166865
ευθυν@@ 1
προσέγ@@ 1
1847 0.7149691920827659
αιτίας 1
παρελθ@@ 1
IN@@ 0.3920004262390381
ac 0.16972351011548625
London 0.07979939036968453
ριστο@@ 1
ὶ 1
ver@@ 0.023671686603650127
Min@@ 0.15216922110518746
Os@@ 0.2468818906892613
Έσ@@ 1
af@@ 0.0755521809160967
ens@@ 0.06878316251352799
Bi@@ 0.10561835693599798
αιτέρ@@ 1
US@@ 0.2338487862851075
à 0.0043565890112811055
σκεύ@@ 1
υζ@@ 1
Ho@@ 0.14645760950419756
Peter 0.11996130752586386
St 0.1583311257893908
Cal@@ 0.12591833033393932
tra 0.18099510910736466
~ 0.944665804316973
1855 0.6246661786234962
οδρο@@ 1
General 0.0836053670283642
MA 0.39415134852601275
so@@ 0.09379680200173042
Super@@ 0.2255122313346774
els 0.06219263286140799
προέκυ@@ 1
Show 0.30143428229758995
elli 0.2900038830583184
pr@@ 0.057477771808755455
1600 1
Φιν@@ 1
Hal@@ 0.18828317734245476
στερα 1
AC@@ 0.35535426759423994
Lord 0.2327758077374742
15.000 1
δευτερόλεπ@@ 1
li 0.18895069304179446
pp@@ 0.18757142815443606
á@@ 0.10181147577468071
Λίμ@@ 1
ita 0.12667884704454263
from 0.005787375389447982
ir 0.0773679628184559
13.@@ 0.7440487517625661
κοπος 1
ροταφ@@ 1
1852 0.6539599855879462
Mega 1
kg 0.3864102158853075
Eur@@ 0.4349971914724421
βιβλ@@ 1
ψήφισμα 1
RO@@ 0.6504270477742399
EP 0.3056043521686858
θες 1
πρωτοβουλ@@ 1
στίβ@@ 1
ance 0.052668188091970665
220 1
be@@ 0.036333008261932614
Καλιφόρ@@ 1
τομη 1
μελι@@ 1
A.@@ 0.3612314096791489
No@@ 0.21738489497282334
PlayStation 0.8195379059114986
σύνδεσμ@@ 1
ME@@ 0.6191655867773777
Ri@@ 0.15548109498646362
mg 1
My@@ 0.3069409984116312
Σταυροφορ@@ 1
γέννησης 1
200.000 1
1204 1
Εξωτερ@@ 1
ημέ@@ 1
FA 0.3270973510654718
Sal@@ 0.12159006482817847
ada 0.02853598379300603
Cre@@ 0.19761798722407448
ἔ@@ 1
detail@@ 1
μπόρε@@ 1
500.000 1
Of 0.3199742865218054
Ακαδημ@@ 1
Σιδηρο@@ 1
εφαρμ@@ 1
όλα@@ 1
όνησ@@ 1
Fre@@ 0.13280874576829368
metab@@ 1
Ω 1
201@@ 0.9103954741126556
Sony 0.7439412717036334
rock 0.1413425477907826
ent@@ 0.03818634217792279
βασιλι@@ 1
Art 0.10761362857921156
νήθηκε 1
τυπω@@ 1
gi@@ 0.10257734797258214
Mat@@ 0.1487185660428094
οίν@@ 1
Su@@ 0.15144539891713385
ade 0.10303525944497739
ou 0.027063424406202127
Don 0.2374256868522068
360 0.8238951225107086
YouTube 0.5671631014717852
ότατα 1
Es@@ 0.13045051028994614
ensis 0.2251420353156942
αρχιτέκτον@@ 1
συνε@@ 1
34@@ 0.8356574274692471
Can@@ 0.1849565455115142
γράφου 1
par@@ 0.04808477768603635
1797 1
Μανου@@ 1
127 1
1700 1
είστηκε 1
Βραζ@@ 1
ανέπτυ@@ 1
1842 0.7211734490197823
center 0.14991300402971294
Kar@@ 0.0980792229135459
Pictures 0.7412772891516172
ημέρ@@ 1
40.000 1
36@@ 0.8367159233992504
US 0.054530353264857175
χρηματο@@ 1
per 0.06572874786659327
λευθερ@@ 1
ette 0.08709615894148867
λληλ@@ 1
mi 0.23067091890103103
LE@@ 0.7000033791898019
ks 0.05690769204703981
άντια 1
δάσ@@ 1
Mal@@ 0.0926261535489131
Cas@@ 0.15029683794356447
διεύθυν@@ 1
περιεχ@@ 1
EB@@ 1
mann 0.1029583267373421
ανάπτυ@@ 1
εψη 1
Sc@@ 0.18311463962822297
and@@ 0.0710318305498165
Center 0.13259224630463362
Fame 0.4969220702293851
High 0.10170798699353552
aw@@ 0.10253570161549017
ουλι@@ 1
περτ 1
έρρι@@ 1
εκτε@@ 1
1813 0.7972540429847558
1846 0.6465275755522344
Die 0.011011690860415558
Street 0.09940239382459878
ev@@ 0.08278888810911064
Αίγ@@ 1
δρυ@@ 1
102 0.8992886795606201
ati@@ 0.07997089005612655
Ser@@ 0.13891860598783812
ho@@ 0.09162645398910241
τοκρατ@@ 1
τάγματος 1
az@@ 0.0882922349962966
γα@@ 1
γαν@@ 1
Rolling 0.8431753951234965
διαδικα@@ 1
Val@@ 0.1299447446701313
ato 0.12747106837495484
διευθυν@@ 1
38@@ 0.8184036630043819
up 0.02592021254476041
ατμόσφαι@@ 1
Lee 0.19745949413517216
1839 0.7099455656520159
45@@ 0.8316512629366126
Joseph 0.12167961902883925
MS 0.3707345777581675
Απρί@@ 1
τυγχ@@ 1
1809 0.9212272790625747
στιτού@@ 1
μμυ@@ 1
υποψηφι@@ 1
au@@ 0.05900471402612389
hp 1
άλωση 1
ess 0.09558082029066504
ιλία 1
Mot@@ 0.22584627892891163
A. 0.12811051194042763
Gal@@ 0.1475234914869599
ff@@ 0.11102118527824341
μάται 1
70@@ 0.8197237191031267
ence 0.06460520424857885
ob@@ 0.06894487173407275
ro 0.2006106090690077
δεψε 1
υλ 1
έρον 1
1810 0.7702338611405279
art 0.06727300135585852
Λευκορ@@ 1
Har@@ 0.1036466599809312
Mercedes 0.8441897454472246
ST@@ 0.4260505549045927
Society 0.13213758870537504
Corporation 0.27434740678513614
Stone 0.4097276117360469
ning 0.18610579673995153
Υγ@@ 1
Fl@@ 0.11781462973246683
France 0.04319720534523764
width 0.7289426709244333
Μητρό@@ 1
είνει 1
εφημερ@@ 1
109 0.9895436247490583
Dr@@ 0.1430325178324272
Final 0.30435139883895473
άφι@@ 1
εγκατέ@@ 1
λέχ@@ 1
Mas@@ 0.14293124549594938
im 0.007239705210815911
Νοτι@@ 1
end@@ 0.06112954624538642
λς 1
επίσκε@@ 1
κυτ@@ 1
22.@@ 1
yl@@ 0.12001101607069108
ES@@ 0.39197021031912493
Fox 0.34102995631020333
ράφηκε 1
FM 0.2883737964182178
ep@@ 0.08844831950671757
ire 0.10215660630891059
Ισαβ@@ 1
Europe 0.0880521365283537
Gi@@ 0.174274884132613
ister 0.26972181903059034
Αίγυπ@@ 1
έμφ@@ 1
τρομ@@ 1
S.@@ 0.3948520168031537
θεατ@@ 1
Alpha 1
Cl 1
σχετί@@ 1
ise 0.05504047174351997
ek@@ 0.08184260855163679
ήνα 1
CE@@ 0.4025001223947188
Festival 0.12580364584656176
berg 0.07782683603128268
Θεοτ@@ 1
126 1
MTV 0.6596856830444303
εφο@@ 1
πυρί@@ 1
CIA 1
Media 0.2575735622540647
εκκλ@@ 1
1790 0.8480907965805474
1818 0.8032096606100239
ters 0.09005804200557131
Ιανου@@ 1
ερσ@@ 1
DE@@ 0.43314366190595033
AD@@ 0.3722077156859227
Tor@@ 0.12042135677639937
ef@@ 0.1367322808813939
News 0.2727188172316709
ger 0.12929890447329004
ασκαλ@@ 1
Out 0.4435293510498361
1838 0.6673611538985706
ps 0.10001243838990666
tu@@ 0.09405425921530919
ets 0.06501807750771771
ors 0.04642144204540261
κατάργ@@ 1
15,@@ 0.8515929461253736
car@@ 0.05298776990527297
Έντου@@ 1
ρείται 1
MI@@ 0.5905725183791226
mar@@ 0.0546415533773273
τεκτον@@ 1
1200 0.8522952521790975
ni 0.09656704297064622
Κριμα@@ 1
οσκοπ@@ 1
Mel@@ 0.16526742088196836
Ste@@ 0.13405536124408182
Ε.Π.@@ 1
τέσσ@@ 1
Arts 0.15238653606684974
Queen 0.2177704698686143
στιαν@@ 1
ell@@ 0.08394462586823385
Box 0.8037397552918615
sen 0.09706681762847238
Paris 0.05896249935761788
Tur@@ 0.14165256980373622
be 0.009492934454647908
είμενο 1
1807 0.8905345235025512
ford 0.10374473635696803
21.@@ 1
album 0.03226013752211944
kin 0.23032940940527263
ena 0.13053019564432816
Αυστραλ@@ 1
ake 0.13517254158229663
ge 0.07418731268714857
sch@@ 0.037714226680560604
μέλλ@@ 1
CH 1
Ros@@ 0.1340837832917026
White 0.14460991424675604
πετο@@ 1
Who 0.5689684666629736
bu@@ 0.11086381706224731
tes 0.04831635803357931
We 0.24359621466741707
field 0.058314114985045205
PS@@ 0.42577709681958853
μαίν@@ 1
συγκροτ@@ 1
1803 0.7846928386608181
IP 0.5500015390857472
Im@@ 0.1360754964951783
Renault 0.9858725616892334
συζύγ@@ 1
AM@@ 0.34891725035421023
Reg@@ 0.11488376658016003
ais 0.17668994650505504
ari 0.1515004430627572
ληρω@@ 1
Gar@@ 0.1422962205610998
System 0.22708831642279287
1808 0.8169687592898992
United 0.027784393221336162
ere 0.08416278137374869
é@@ 0.03702457215600833
έγερσης 1
γιατρ@@ 1
1804 0.9219470583928696
ile 0.05648107483192726
θάλασ@@ 1
alis 0.31561635784279735
back 0.05146251445372459
Du@@ 0.1511373145642433
Mac@@ 0.11446433845668973
ain 0.1004531457859605
ουλμαν@@ 1
14.@@ 0.6715721741556434
2,3 1
Sk@@ 0.2314969894335845
όνησο 1
ουμένως 1
107 0.9731434038585189
39@@ 0.8384608803117246
Journal 0.2931764124023643
orum 0.6279672662097744
άπηκε 1
υμπ@@ 1
Ben@@ 0.16356656748032194
πρίγκιπ@@ 1
Be 0.613828505366395
Nintendo 0.6945162298393245
SA@@ 0.37293528500917805
παση 1
Cam@@ 0.19413312396675356
aj@@ 0.1075219798928244
ήσου 1
νημ@@ 1
1798 0.9066384766244923
Ετα@@ 1
Θεριν@@ 1
RI@@ 0.5349600807664874
106 0.9214743599277423
240 1
CN@@ 0.5464907587659341
ach 0.08882037753690887
ene 0.07497279807030129
1795 0.8957887451529595
Φθ@@ 1
1770 1
100@@ 0.8320562052653858
ok@@ 0.11736638947012952
Fiat 1
colspan 0.43578481963823806
κοντα 1
απέρρι@@ 1
37@@ 0.751370118913144
Bank 0.18675553292400165
Little 0.25027197285895214
Ρίτσ@@ 1
βάλ 1
ροταφείο 1
ł@@ 0.22879145258746417
διπλω@@ 1
εμπειρ@@ 1
Συλλ@@ 1
χάλκιν@@ 1
170 0.8519511016448937
Mario 0.4869109156830053
25.000 1
HMS 0.6030416749429507
ab 0.04636619812836238
ola 0.17184406303114916
European 0.08773541975375622
TA 0.40560360364909925
ένδυ@@ 1
1819 0.8401959454062083
3000 0.5529133208967959
CF 0.9837364623951008
tro 0.2799799624876915
\ 0.5551150592785123
live 0.11581200419978356
ys@@ 0.15077262268373764
BA 0.41658172088691753
Καλλικρά@@ 1
Death 0.32427388898060056
ISO 0.9920259475964666
PC 0.3165837871654348
δημό@@ 1
επιστη@@ 1
ello 0.1619953175667179
ευμάτων 1
Gill@@ 1
γκοσ@@ 1
Free 0.3982239721966304
ting 0.04236304810063232
Αλέξ@@ 1
ανάπ@@ 1
δεκαε@@ 1
μάτιο 1
οη@@ 1
1794 0.8713215785745301
able 0.026443170836035437
ura 0.11320548969896772
ιονίκης 1
ρότη@@ 1
Hol@@ 0.12852867188183079
εγκαταλ@@ 1
Dar@@ 0.1383248429288276
λοιπ@@ 1
Βιρ@@ 1
Εκκλη@@ 1
ριστιαν@@ 1
go 0.09472202838889884
Hor@@ 0.1538635108401885
ari@@ 0.10653147160367729
ov 0.11451370095533771
Hill 0.15843163982884537
104 0.8193581765724105
1805 0.8574664877400603
Open 0.17185348507665305
Vol@@ 0.16681084336697677
las 0.010317199575087796
ure 0.07706868831572461
Βούλ@@ 1
κτί@@ 1
Ger@@ 0.09830627360687147
Αθανά@@ 1
αστεροειδ@@ 1
κοσμίου 1
115 0.8754886773767863
16,@@ 0.8059004765971743
750 0.7905675147136664
tion 0.049445830323917014
ko 0.1504614857492722
πίνα@@ 1
ανεξαρτη@@ 1
ότη@@ 1
We@@ 0.11689433997826539
pl@@ 0.050161734823099526
Χρήσ@@ 1
Des@@ 0.14410332123952044
West 0.058386989604444585
Αθή@@ 1
Πει@@ 1
ala 0.1223419541725405
108 0.8422946649082433
ta@@ 0.11529493646081573
est@@ 0.05012823246757453
Green 0.18668647956196088
ep 0.24187676588407592
si 0.06967422668212796
εξε@@ 1
ath@@ 0.10976301857000824
ii 0.5388871297660531
αφν@@ 1
Del@@ 0.16487588961539282
Lu@@ 0.1399370373551776
Pierre 0.1359084163538758
ach@@ 0.05480555940665342
ay@@ 0.07781294953086199
charts 0.5410806451913546
ë@@ 0.47019424908931967
άλε@@ 1
135 0.8259710144539383
te@@ 0.05194822740700448
ώνυμη 1
Home 0.2718339006247638
ations 0.023311096096729253
con@@ 0.03424333679696196
ma@@ 0.10449769601201861
st 0.08087838748818961
Up 0.4013039815647176
απώλει@@ 1
103 0.8357019774030967
ati 0.22352030470033904
dr@@ 0.0625606899699058
lu@@ 0.09193307530722483
ειδικευ@@ 1
PS 0.2966549100305669
πτωση 1
Ko@@ 0.12815114365958377
our 0.0873117809734998
Ηρακλ@@ 1
1817 0.7752328698781252
ye 0.10147144114310967
2.500 1
Friedrich 0.1625844946743339
com@@ 0.05128556581912833
θεται 1
16.@@ 0.7246303489463312
στίχ@@ 1
υφή 1
έρχ@@ 1
ατρών 1
ant@@ 0.06674428286510987
άτω 1
Kil@@ 0.29319822129391043
ib@@ 0.1247516442538505
ry 0.10749118034022176
μελλ@@ 1
ρωπα@@ 1
Boeing 0.7514426832420629
Marie 0.15147128131836093
ill@@ 0.06732286640775173
ole 0.1429118249496747
1453 1
America 0.09339420020368709
Mark 0.1573748685587509
γράμ@@ 1
Bu@@ 0.1543576258718771
Jones 0.18696476281693522
O2 1
atus 0.2270281619163377
στή@@ 1
Airlines 0.6106922143249007
Wrestling 0.4594097249691777
soundtrack 0.6870885308396136
επιθυ@@ 1
Βρε@@ 1
Τσαρ@@ 1
ξεπ@@ 1
1816 0.705270228743847
βιντε@@ 1
διάμε@@ 1
SP@@ 0.3194621840521338
kh@@ 0.0953357520721578
ois 0.27122364999294274
oni 0.2407544249212946
Ένω@@ 1
Je@@ 0.19715585056211743
ken 0.06969059756810152
ings 0.041368615611870094
καφών 1
όπος 1
1801 0.7288039920188211
Rom@@ 0.1742132579597161
č@@ 0.1938851449400262
Ποσ@@ 1
elle 0.02109361637788591
20.@@ 0.7959351444011732
εκδήλ@@ 1
Αχα@@ 1
τούργησε 1
ist@@ 0.08140545029809369
left 0.05691166679473349
IC 0.400936267869051
der@@ 0.054948897051915094
απέκ@@ 1
1791 0.90908103246755
mon@@ 0.04382062719589082
Š@@ 0.39505212407105866
Men 0.22660800035347464
συμμετο@@ 1
65@@ 0.9603290114934102
Char@@ 0.10455092320503498
ἄ@@ 1
ber 0.09154294287929508
ster 0.11670303474250027
συμβόλ@@ 1
1,4 1
Euro@@ 1
jure 1
tica 0.20593515760419243
ενέργ@@ 1
1799 0.8961556488637566
tri@@ 0.06987072457270926
Σπαρ@@ 1
Press 0.3030549410045512
Vi@@ 0.14818706352834463
17,@@ 0.728712309255149
hi@@ 0.08544233443382512
Φεβρου@@ 1
ski 0.16050915425852014
ser@@ 0.06787874429057347
300.000 1
AT 0.44996825333594725
μεταρ@@ 1
90@@ 0.8026361006960564
ha 0.04429928262180013
δισαν 1
CD@@ 0.38542581018523947
Σεπ@@ 1
Στερ@@ 1
0,5 1
mi@@ 0.09114528222831829
su@@ 0.05824966651580365
text 0.20408031613386904
і@@ 1
Dark 0.5669802556577604
War@@ 0.13945110671354538
ion 0.09444442263680264
ones 0.07324100806899168
ann@@ 0.10855103896108942
Κρή@@ 1
Γιουν@@ 1
πειτα 1
1630 1
ερμπ@@ 1
Video 0.39408887614138366
Benz 1
gen@@ 0.05111235784856969
ίλης 1
συνειδ@@ 1
12.000 1
190 0.9789019279854161
Linux 0.7294979680500037
εξαρ@@ 1
480 1
Sun 0.25682216663826185
καγι@@ 1
ὁ 1
pe@@ 0.07508614659973459
εγκαιν@@ 1
ABC 0.3902318172801429
Co 0.26478728611473185
Ru@@ 0.1425405548401662
ima 0.16786641488455656
At@@ 0.1331561399503033
British 0.04536827231180917
Region 0.14421203480032227
str@@ 0.054097167356508866
1715 1
Mad@@ 0.13958465671004514
ah@@ 0.07087747298100333
line 0.043189055246431074
βιβασ@@ 1
CN 1
bl@@ 0.05458658923580294
tic 0.09655406806275384
Βρυ@@ 1
λεω@@ 1
Cur@@ 0.16971245054355702
IS 0.43413208093630606
ba@@ 0.08422819833443138
αγρ@@ 1
ύτη@@ 1
Netflix 0.9765875429138128
Λεμεσ@@ 1
Santa 0.10885073441639917
Γε@@ 1
ρεψε 1
όπουλ@@ 1
Can 0.5931401438366243
Mary 0.12302544112767921
128 0.7999406079821135
1583 1
ow@@ 0.09222453500222953
ούσια 1
περιπέ@@ 1
1,1 1
Sa@@ 0.11920121312480948
pH 1
στέμ@@ 1
iz@@ 0.06586943241219759
46@@ 0.8398336346696005
48@@ 0.8471125640259207
CI@@ 0.3652486721633051
che 0.06773925562443027
Institute 0.1048724888909097
λικαν@@ 1
15.@@ 0.6390065778199752
CO 0.5396570378889094
Karl 0.14851886215248492
17.@@ 0.6796771151214237
he@@ 0.05787559602481755
Columbia 0.19217291887338855
ten 0.016874370314726394
AP@@ 0.2846171482652774
Mir@@ 0.19493402083463812
οσφ@@ 1
je 0.11534769995650598
ska 0.413752216276551
Dr 0.753191904800838
Arena 0.42428598614126334
Η.@@ 1
κ.λ@@ 1
Los 0.03391350065531169
διοίκ@@ 1
AD 0.3245950495114782
Story 0.522503410993346
ama 0.10646675894597646
ζημι@@ 1
περισσ@@ 1
συνέπ@@ 1
Boy 0.4206971020438654
Glover 1
tification 0.6037775191117194
Επέ@@ 1
βιε@@ 1
550 1
Max 0.2088669240384819
εκρι@@ 1
Studio 0.3807374962128954
chi 0.13260680821038423
Pro 0.2672019626054417
θήκ@@ 1
ουμεν@@ 1
For 0.057921946998120685
Master 0.2570778728062956
ics 0.07442539243515166
Κατηγορ@@ 1
ικρά@@ 1
Σικελ@@ 1
ηρέ@@ 1
RS 0.421061895747329
ik 0.1146315866453085
ora 0.1150185504800513
σκόρ@@ 1
way 0.03774370117204634
ήφθηκε 1
ίστοιχ@@ 1
ona 0.10735584257953745
DJ 0.4279644535496347
of@@ 0.12178576307210381
πρου 1
320 0.9767115445072401
Il 0.014580264187549253
Toyota 0.9808963201061247
τώματα 1
υπόλ@@ 1
23.@@ 0.7746432917064124
Em@@ 0.11773880780397558
LC 0.7459081036127793
επίκ@@ 1
ιστον 1
μηδ@@ 1
μμυρίων 1
οιβ@@ 1
Space 0.3371831311427232
This 0.020728332707743543
άλληλ@@ 1
Champions 0.37016305383105413
Pl@@ 0.09998580290075035
Henry 0.09490905480133012
anus 0.34101989820749173
sk@@ 0.0788364348375014
Εκτ@@ 1
PE@@ 0.5080200939179889
low 0.07482449567482144
Αφρο@@ 1
γραφε 1
ελέγη 1
κοπο 1
ra@@ 0.08708697085083189
κατανό@@ 1
οση 1
3D 0.44741501135525064
Nor@@ 0.11199015256945655
πείρου 1
bourne 1
ουήλ 1
Cat@@ 0.16361638378441784
Γεώργ@@ 1
έννοι@@ 1
εδρο 1
μήνυ@@ 1
H2@@ 1
19.@@ 0.7418211940256677
43@@ 0.9709510294889301
Sir 0.14527968841643835
ang 0.06819718691671975
δυναστ@@ 1
AG 0.25021342891429693
CA 0.3319123376512324
Project 0.3033618468400946
so 0.022532450006202576
επισήμ@@ 1
οτθ@@ 1
set 0.04618684619639564
ξικ@@ 1
ταγων@@ 1
18.@@ 0.6941247524049419
Universal 0.4492440215427577
enti@@ 0.0759361387120915
επεισ@@ 1
ρίβ@@ 1
HIV 0.9724384634607137
άνθρω@@ 1
εδρεύ@@ 1
υρω@@ 1
ight 0.16109207308850296
α. 1
Ni@@ 0.1342242709217489
War 0.041857564141640824
μπορού@@ 1
έου 1
εντιν@@ 1
eh@@ 0.05835869784111051
AI@@ 0.34653043947649703
Far@@ 0.1397099791908519
sur 0.011308768932851373
Ρωμ@@ 1
What 0.33788240786190826
Bad 0.2569336560134338
ical 0.0474367577168157
nik 0.3961416771478406
γκοσλαβ@@ 1
οιχ@@ 1
πρόκει@@ 1
5,5 1
SS@@ 0.4239466308911605
TS 0.5358660180650184
Αστερ@@ 1
απονε@@ 1
Facebook 0.5935424217866668
Last 0.4540510253937722
ΦΑ 1
ille 0.11471503228623739
7,5 1
87@@ 1
Down 0.5178163146989103
Jan 0.30022079603994745
Res@@ 0.16581518012233581
la@@ 0.11276191461288591
ō@@ 0.22390733055315382
δικτυ@@ 1
πτέρ@@ 1
AIDS 1
ψ 1
Band 0.11974926571912803
IF@@ 0.6422884961132956
zi@@ 0.1260587217649051
MVP 1
άχου 1
ῶ@@ 1
Wil@@ 0.11190308662004889
ler@@ 0.07698862980160548
έφερ@@ 1
CC@@ 0.3302384903802373
Go 0.38476245030566747
ang@@ 0.04497658008323709
ated 0.019006245444653628
singles 0.22383762507066152
Σμι@@ 1
Android 0.8423446995006939
LP 0.3840265191944538
pe 0.0849359169121429
video 0.07950985296194339
ύλακ@@ 1
112 0.7644032110275464
ius 0.22359173710867683
ung 0.020265566783948967
Hell 0.9163944477863568
330 1
Nov@@ 0.20677972233258976
ιθαγ@@ 1
κατευ@@ 1
ales 0.029762660802089228
280 1
Ban@@ 0.14806482943116792
bert 0.184731444104747
time 0.01389728190203959
εγον@@ 1
οχαγ@@ 1
Is@@ 0.1014358383533487
ante 0.0395188178675245
inger 0.1169886317751059
wa 0.09331932743476817
αθμ@@ 1
1802 0.6687825793535982
650 0.9988868012140281
ling 0.06762990087613412
Dead 0.5149257695684218
UTC 0.7611396784439309
ὑ@@ 1
47@@ 0.740686717848066
Ang@@ 0.10152494608531315
Edward 0.14124727537476556
me@@ 0.06394046962247733
Dance 0.39097493228801916
Smith 0.1073261410311512
Sur@@ 0.13876714272522522
ετερο@@ 1
ιούργ@@ 1
φθιν@@ 1
1811 0.661644229514702
Island 0.09129092493503711
PO@@ 0.5604454362106538
wood 0.09227512682138915
BAFTA 1
Άντζελ@@ 1
Hu@@ 0.12281264546576288
eo 0.12479158115551023
ji 0.16946239981411879
£ 0.18508240771678805
άσσια 1
Road 0.08976676635974536
ny 0.19278364055299246
Χαρακτη@@ 1
117 0.8811636635674925
Na 0.8050209426604358
ut 0.11289334660908909
75@@ 0.8300612357658915
AB@@ 0.43117444675168654
Bas@@ 0.11500240484219738
C.@@ 0.3691916866502935
Mi@@ 0.12834274259394143
Οκτωβ@@ 1
τιας 1
Vo@@ 0.19192071658608362
ίσι 1
2,4 1
Scream 1
ero 0.08411647010762324
αιν 1
260 1
iOS 1
ru@@ 0.05585252265523782
Ιρ@@ 1
δρομο 1
ito 0.11381169584227446
έργης 1
είω@@ 1
τραγουδί@@ 1
Cap@@ 0.18338539707654203
cl@@ 0.06499982701579543
1.200 1
1780 0.8139103640776946
44@@ 0.799270285476879
Great 0.11107603320390072
IP@@ 0.5654876465794934
αρτ 1
AR 0.39798134318072514
Grammy 0.5717157504285821
Ur@@ 0.09955587635856986
ten@@ 0.047803521873804815
we 0.07743848391613516
ιλίας 1
1788 0.8952142377761159
5000 0.5292321374537995
GT 0.6209134799292927
υσμ@@ 1
2,2 1
Ly@@ 0.17032710548179375
Medi@@ 0.23205383175562294
έφτα@@ 1
ακτη@@ 1
│ 0.20664232300314742
Mac 0.527894264535435
PA 0.2522791428869787
tor@@ 0.058684923760701564
μμύ@@ 1
DE 0.5042812684349631
οδήγ@@ 1
σσαλ@@ 1
1796 0.7437707630705872
HD 0.42885018386351537
Ul@@ 0.1860692236561891
ese 0.05242983908146884
Mil@@ 0.12381423164434341
οπαι@@ 1
Kon@@ 0.09190387142966691
cor@@ 0.054128227136808905
1,6 1
19,@@ 0.8103242146692295
60.000 1
AM 0.2622589986799848
Heart 0.407922719371016
Tel@@ 0.16966046293944653
ei 0.11240826963833064
ish 0.07935960699395274
Μόσ@@ 1
230 0.8622004259989071
SI 0.737811909253438
Wilhelm 0.16332129255648015
su 0.008489042885710256
tis 0.15561601986565257
Chevrolet 1
ame 0.12139135548178856
πειρω@@ 1
1783 0.8637501769786429
Rem@@ 0.19808187586676954
ó@@ 0.08037838548426568
123 0.8545102822028622
Way 0.4106204200315273
RC 0.32321798167756144
ge@@ 0.029484436222965562
ology 0.05792154192530848
du@@ 0.0807932033216082
αζί 1
αιτέρω 1
194@@ 1
AN 0.4464329433595083
Office 0.18488075393870865
αρε 1
1100 1
210 0.8591974933824248
MO@@ 0.468704924137774
Union 0.05771858173166268
show 0.050357395123768765
TE@@ 0.4003845895272978
VI 0.23308821714983258
ve@@ 0.0982098055453966
ō 0.16379995999005711
Van 0.17243997285025772
ian 0.07324015676476
είδιο 1
Dream 0.5757378975596575
Ferrari 0.6765719812247373
Op@@ 0.15598572471178188
ηνα 1
ηξε 1
τραυ@@ 1
Bros 1
CO2 1
RA 0.3373447262010462
Volkswagen 1
ier 0.08759485926035428
Οκτ@@ 1
κάλεσαν 1
Internet 0.21952948451401605
Power 0.2508531888671573
ats@@ 0.3056053644632603
etta 0.26990311681544604
ich 0.08895829375898752
iss@@ 0.12672901196776146
Science 0.14036718627756514
Song 0.18963893571977608
ico 0.091026858484183
διάρκ@@ 1
Sar@@ 0.10762399409165078
eta 0.10259435618926982
É@@ 0.08930402545691396
1300 0.9407306419287513
NA 0.42544671287623886
San@@ 0.1130788699701558
Sho@@ 0.21304061042063788
ba 0.10420454925674061
ex@@ 0.02869337247348264
man@@ 0.042851053137119864
Pre@@ 0.1150096568144867
ville 0.0334604064315629
στριας 1
τάται 1
1787 0.8655496089037844
Fire 0.34394345249860064
La@@ 0.16030702772325092
ast 0.11421738613640739
lin@@ 0.07443194401627569
tin 0.09284603141818984
ῷ 1
122 0.8024271958328643
Johann 0.13778668858269516
Post 0.18019315117826096
ong 0.06548859517467284
Τζάκ@@ 1
1400 1
Off 0.7579539866543428
1772 1
Dec@@ 0.1572036272028737
RAF 0.510909524975519
ίκος 1
αγό@@ 1
Walt 0.777331042405505
ft 0.09984229218194686
house 0.051101900760612676
its 0.008197833588827511
Blues 0.43780477816280594
Dem@@ 0.1608926704847639
die 0.002071666484094593
ελεγ@@ 1
Four 0.2566417674298
πτώσεις 1
Audi 1
Fo@@ 0.18142982925420248
Girl 0.3833053676297658
Wal@@ 0.11076670123523112
dia 0.1753969946350385
gu@@ 0.05241117745537699
stein 0.10072910739313723
δοση 1
ομώνυμ@@ 1
ὺ@@ 1
Alexander 0.12318088223712872
ard@@ 0.10221925977664328
ex 0.1401834124181127
Research 0.13395944087041933
Sw@@ 0.15337718621884863
Οικογέν@@ 1
State 0.03661081182976052
aceae 0.15437189411497268
Πακ@@ 1
6,5 1
Ter@@ 0.13010487205302756
ack 0.1418168260607337
ys 0.10610961371248075
18,@@ 0.6966115715164399
Championship 0.07791836751893652
Giovanni 0.396079613676306
Woman 0.5202809111092245
ze 0.08551315921098991
σκολ@@ 1
111 0.6812119447551238
121 0.8273124996916876
2.0@@ 1
306 1
ace 0.12529861785392038
τέχ@@ 1
ὰ@@ 1
Ti@@ 0.13235600480196022
παραιτ@@ 1
1774 0.9768900910579517
Cos@@ 0.2335105248467449
Ga@@ 0.24877453894642904
Gen@@ 0.09436514189754583
Theatre 0.16792476157063943
iPhone 1
less 0.05652670190078764
une 0.005116975373697294
201 1
Brown 0.13705361283532083
Class 0.3105428267567211
Sports 0.1900516491901743
ky 0.12682246457107935
1648 1
Si 0.18323939584088317
T1 1
ny@@ 0.237402471512561
1,8 1
1.5@@ 1
1785 0.8895584621783188
Christian 0.08355788055215986
Fi@@ 0.1876291393401527
Foundation 0.17121247232433964
Ven@@ 0.21040636173819124
for@@ 0.03641481853510261
οπολι@@ 1
270 0.967264176551745
Lady 0.20939413584885821
Sam@@ 0.1216317932372411
sc@@ 0.07459705297688533
Albert 0.15314756023545412
Cro@@ 0.16272783035386262
Jo@@ 0.15827908346802919
TV@@ 0.37855234053904263
ash@@ 0.11332210810868525
ua 0.15966059444148534
Ap@@ 0.1245911257741299
000@@ 1
Ba@@ 0.1496181072691526
Century 0.5014728994393778
Sky@@ 0.570668281276546
ds 0.0854474015790183
ies 0.04840568429866907
Aer@@ 0.3256681040109239
Inc 0.8624077845729128
Network 0.2344153114689552
Blood 0.6566863287797302
ori 0.19003713987760495
ée 0.016018229093049004
3,4 1
Pal@@ 0.10096908964852838
ars 0.0738440179353411
ock 0.12265020496933672
ούλιο 1
32@@ 1
E.@@ 0.3761656282818362
zi 0.22717533122858796
Θάνα@@ 1
διαπραγ@@ 1
ὴ 1
76@@ 1
Trans@@ 0.13519202121629562
ates 0.031582190546692784
πλει@@ 1
Basketball 0.34863662098514886
Daily 0.38938905638484617
Ig@@ 0.43350220797341255
lin 0.13617296507121546
od 0.12489227904472636
tor 0.06875197151011732
ə@@ 0.9298682679171133
Ηρά@@ 1
Greece 0.3618276614737357
net 0.13514433172869666
pa 0.13163634708042385
tic@@ 0.10417948147695795
Αψ@@ 1
ίλου 1
φαρμά@@ 1
IT@@ 0.41903275098349674
North 0.038202548678776885
burg 0.09891097185685016
850 1
Mak@@ 0.17452342337604165
ela 0.11644970699738068
mer@@ 0.043168452688021566
′ 0.9277977962833563
heavy 0.1859557044225785
ula 0.20314347137625363
Greek 0.1486351333839954
aff@@ 0.11250667571175448
βεζ@@ 1
βλάσ@@ 1
καλαθοσφαι@@ 1
114 0.7726243113160066
AF 0.3666585352754547
Model 0.42229495053463234
uc@@ 0.10198087988557827
αίωνα 1
Meg@@ 0.31433211116028253
P. 0.16610354211808662
head 0.055621480701995234
ng@@ 0.13040474785910422
ī@@ 0.34213706210058176
1660 1
ida 0.05602856338752157
J.@@ 0.42006686881719796
Lin@@ 0.1284920145573778
Sun@@ 0.2070986693455118
ανδρο 1
τζελ@@ 1
ὲ@@ 1
116 0.8130152898046292
Bir@@ 0.15307136642840752
Division 0.055871510944979774
Gre@@ 0.12642733127099218
aro 0.2111073088593186
ue 0.05766497790636245
Sabbath 1
sec 1
Star@@ 0.218334874619663
ap 0.11621449352582656
ū@@ 0.23936476949320273
δεσπ@@ 1
ὅ@@ 1
Por@@ 0.12349418253709421
Taylor 0.19194674467785242
ῆ@@ 1
1577 1
Scott 0.1534116400099253
ax 0.24377773434387356
della 0.6287835848623231
βαλλον@@ 1
Hil@@ 0.18070778907267213
απομπ@@ 1
καλλι@@ 1
ωνυμία 1
1.4@@ 1
Dom@@ 0.1424135473134103
Sil@@ 0.146350456034009
lo 0.021554334182968097
ράκ 1
all@@ 0.05185108655597573
βομβαρ@@ 1
Motors 0.8273924322397863
ey@@ 0.11827343545319555
20,@@ 0.7054722086032037
55@@ 0.6995760261952149
CBS 0.367947530378608
Η.Π.@@ 1
μυθιστόρ@@ 1
ότε 1
Chi@@ 0.13574044040358796
ee 0.07825593273690666
type 0.07156806489810248
1650 1
Bon@@ 0.17350796709141825
FBI 0.6676562085637726
ili@@ 0.09479171900528786
49@@ 0.5305441132813083
Tar@@ 0.12113558979261936
val@@ 0.10123912905754047
πάρο@@ 1
υδρογ@@ 1
koda 1
tur@@ 0.057658644303617196
ευθείας 1
224 1
ISBN 1
129 0.8970373019211214
Sim@@ 0.12091170829803234
έκτημα 1
κατεύθυν@@ 1
Peugeot 1
ain@@ 0.09592744814670201
cr@@ 0.040614639190123265
e.@@ 0.9225639613841016
itz 0.10969618650758065
kW 0.6398895127223577
Βουρ@@ 1
Bol@@ 0.1549973033302125
Hollywood 0.23552683526145696
South 0.029538922715995695
VII 0.28582187093386213
RT@@ 0.4312692783318658
ele 0.11957789687468813
ium 0.15502074712573652
θεω@@ 1
Ca@@ 0.2602687405908297
Museum 0.07792517942161727
ko@@ 0.1465911443698573
Απόλλ@@ 1
SUV 1
ains 0.06558923955787019
όσεις 1
1750 0.8765687481999456
370 1
Johnson 0.14066226883771976
illa 0.09141777956500352
ran@@ 0.06506730079074859
μέγε@@ 1
Kn@@ 0.16480719068774263
Like 0.22702554259457672
action 0.06354187781003513
fer@@ 0.0522477191263593
άιτ@@ 1
υπάρ@@ 1
1640 1
ts@@ 0.05603053408540039
είμενα 1
συγχών@@ 1
ј@@ 1
Land@@ 0.06134117583604919
col@@ 0.042770499672815224
Κροατ@@ 1
1689 1
‎ 1
MS@@ 0.3974631967377944
Mont@@ 0.10848896373144494
chart 0.19453025302738064
Ανζ@@ 1
προσέγγι@@ 1
ћ 1
Gro@@ 0.16200683279390724
ul 0.17921609020746643
Όμ@@ 1
124 0.7583681528157781
SD 0.603946267660005
VI@@ 0.3632749107347239
Νοσ@@ 1
Good 0.30894910760025324
ali 0.1331962983305972
eth 0.23547429480847712
thr@@ 0.20666721907943
ρονόμ@@ 1
eng@@ 0.053359215978306215
model 0.10825674468112834
ome 0.11576484556743045
ո@@ 1
Hard 0.818367417970465
Sport 0.24548267745975375
Year 0.1386511566142601
inus 0.34147725631482956
Blo@@ 0.22171885436249308
Book 0.20867843822679175
Team 0.08673638764685804
όκειται 1
Dig@@ 0.5320723393426369
IX 0.30870284146825655
Wall 0.4213170122174437
aria 0.09871361459363191
ž@@ 0.2584163137588021
Τοπο@@ 1
Τοποθε@@ 1
δημιούργ@@ 1
ναυπ@@ 1
ill 0.09363636170846779
CS@@ 0.25833581683741297
East 0.0554047979220201
ich@@ 0.07784027009675747
École 0.2895105833597951
145 0.8117405394269104
3,3 1
DA 0.31438605348426807
Pres@@ 0.09943593055294761
Sub@@ 0.09478412808966483
τσεστερ 1
150.000 1
195@@ 1
25.@@ 0.6537660689960342
Academy 0.0840159944288712
Back 0.38886847180312367
ez 0.11398899036660835
Intel 0.8939067279360114
ail@@ 0.11700317450463919
ray 0.35227416484740826
р@@ 0.0672731410041813
Mr 0.48149839589448146
εμπνευ@@ 1
1784 0.7339363340617738
Williams 0.13360680743670303
ր@@ 1
Earth 0.17945856017913203
Ἐ@@ 1
Bell 0.2676824115539634
Hotel 0.21074145642823564
Nar@@ 0.18704716152437387
307 1
Cu@@ 0.1357229068329997
mag@@ 0.09535357023587307
σεκατο@@ 1
1460 1
223 1
eri 0.16235514553319916
web 0.21010405000920396
400.000 1
Air@@ 0.2515922954330006
I.@@ 0.48661504972460545
Stadium 0.18068056079138886
Win@@ 0.16502442707363113
ie@@ 0.0926794612240662
As 0.0260423074629716
Gl@@ 0.12649344314229125
Jack 0.13320677616121196
Light 0.2688390625082875
Play@@ 0.33714888237740753
her@@ 0.04010425393140586
Βοσ@@ 1
αιοκαθολ@@ 1
Ann@@ 0.17477259691796457
ai@@ 0.10595109019216385
ase 0.0638876630906139
ess@@ 0.058566585626418435
oh@@ 0.10913337209465948
διαχεί@@ 1
1688 1
An 0.05267255721450679
Roll 0.782827126298734
Men@@ 0.1318041110101933
^ 1
hip 0.15896009663305818
mer 0.0567439838698066
0,1 1
DP 0.3862878678849397
Washington 0.06280607696004238
az 0.127939564860978
Wi@@ 0.19555188489695702
Wit@@ 0.2457603998237545
dy 0.14189551442789947
let 0.09987235217363921
Πρωτεύ@@ 1
αυτοκινη@@ 1
επικίν@@ 1
MC 0.3351773110302958
king 0.051413054581011294
Θρά@@ 1
Ke@@ 0.11575824668610206
Series 0.12242314496031838
Twitter 0.5190515508079294
ish@@ 0.0954068204277423
έκρη@@ 1
Ram@@ 0.11744753682343322
U21 1
ez@@ 0.08750480944971101
pro@@ 0.0569330137241365
uck 0.20020546775705053
175 0.7522133674975338
340 1
Ak@@ 0.094670056458859
Do 0.2602450508606929
STS 1
mRNA 1
my 0.1259881358464168
Fran@@ 0.18153575437410252
Off@@ 0.17800128546172056
Sega 1
ody 0.18778851155507628
μμύρια 1
παγκοσμ@@ 1
118 0.775993235120342
1570 1
1776 0.7134759487839415
God 0.16238205358769214
άφη 1
βγή@@ 1
8,5 1
Gra@@ 0.3591379875355676
AP 0.27549421095149085
IA 0.40380071410582147
NS@@ 0.2860669562968772
adi@@ 0.08998768537341979
cu@@ 0.04725272673056558
eus 0.2810270381816397
ασυνήθ@@ 1
1.8@@ 1
Cy@@ 0.20481567782418936
sil@@ 0.10084811233726731
zo 0.1623677468922003
Ϊ 1
καλλιτέχ@@ 1
Chicago 0.08443796109003746
Hy@@ 0.13975340810138903
Frank 0.12211804752517137
mol 0.9904165358599849
Νικόλα@@ 1
1450 1
Az@@ 0.14484823257607327
Orchestra 0.29979633141104634
UK 0.07813247886629505
ly@@ 0.11984494152670258
ory 0.07431561560385984
port 0.06640750308023693
you 0.08905581012905858
Χίτ@@ 1
ωλ 1
1.6@@ 1
113 0.6687996099635998
Fer@@ 0.14479684399851572
Pir@@ 0.2535679730652396
Γιώργ@@ 1
168 1
Daniel 0.11880366171424005
Ran@@ 0.14971031182301267
Raw 0.7033609921252542
Sav@@ 0.15848519621727483
ser 0.034064543021548814
επιστήμια 1
Bro@@ 0.11285184155141952
fr@@ 0.05040688759570635
νακο@@ 1
στελέχ@@ 1
BC 0.1443315760868726
Long 0.1416911780651269
Prix 0.14115343414303752
καθεστώ@@ 1
68@@ 0.7390009577166708
Golden 0.18779301572510165
he 0.003846610547992206
2.0 0.5566824897148845
CC 0.2551703460528886
ova 0.17772063668857233
und@@ 0.06031321212544922
yr@@ 0.1157487515300153
Cin@@ 0.25231664763227535
Get 0.6341725965937861
ωνστ@@ 1
1550 1
380 0.9366659931401616
Angel 0.44367910228926016
can@@ 0.06828632591485694
lia 0.20616598894259805
tus 0.2570913020752087
1775 0.6843987096800036
AU 0.7483315407757244
Tom@@ 0.14478746759230618
anti@@ 0.0621585670047324
atr@@ 0.09975010846261236
ok 0.12122096300906288
ze@@ 0.09683371745152472
ουνίου 1
ᾶ@@ 1
Are 0.5765900650586543
First 0.06872631720312765
Hans 0.127173873975296
ug@@ 0.09270654575547731
zo@@ 0.31467498643836744
24.@@ 0.6052770685798312
960 1
Games 0.10295364716207002
Πολλ@@ 1
use 0.022405188182018122
è@@ 0.14317105402488156
1620 1
Force 0.09603659968367886
air 0.06065182213811731
tors 0.08078648659880683
yn@@ 0.10491172572614832
§ 0.5042312964201551
58@@ 0.8231708101914929
Business 0.19293670619080044
Deutsche 0.20058901194684042
sa@@ 0.09433305711094564
ολικά 1
250.000 1
ET 0.645546978822294
ness 0.06781211355794813
θερμοκρα@@ 1
GA 0.5763619652712794
Tw@@ 0.20062510635799058
ado 0.012332503040536185
bar@@ 0.039796445705396116
side 0.03242928243165887
á 0.07013002890135626
ακρίβ@@ 1
ika 0.14534935841662788
155 0.785806473971577
25,@@ 0.7421785949087063
67@@ 0.8488497323738459
Digital 0.33650848609224016
Line 0.12196565267736391
Sky 0.3690670020380769
That 0.12614151146725547
ami 0.13142850889748287
χιλιο@@ 1
1.9@@ 1
Mur@@ 0.11997671313291752
έλλει@@ 1
SC 0.14364428002593285
ebo@@ 0.36269655093228714
ga 0.11395175881832162
ori@@ 0.08640667519086558
cas@@ 0.05250630625382657
lis 0.1518557649743689
nes 0.10529655961208868
res@@ 0.03372251035275436
vo@@ 0.10265676987260058
≡ 1
All@@ 0.16166191484651407
1530 1
80.000 1
Mes@@ 0.15787939143286775
Pat@@ 0.12667643749994859
ass@@ 0.034855850305856466
op 0.14281459312083017
αυτοκίν@@ 1
βούργ@@ 1
σινγκ@@ 1
ταθλ@@ 1
217 1
Ali@@ 0.2157606739386354
GB 0.3231918788559307
M.@@ 0.2733402814625584
Wor@@ 0.15644052913036602
frame 0.30054087100301474
ism 0.0503519115537328
ox@@ 0.1749733406376789
Καλαθ@@ 1
Ed@@ 0.16236544850325427
int 0.2881858236298176
Arthur 0.13147223601050848
People 0.13124319627147982
Two 0.09506627965522521
ents 0.0356650130878864
ick@@ 0.06729213460162245
ητη@@ 1
λυμπ@@ 1
Carl 0.13946963842025675
Rotten 0.7966932697660151
θελον@@ 1
Bill 0.130129316407351
Cel@@ 0.20919019614596626
VA 0.43916101396038026
ci 0.06623323748091753
idae 0.07371252018417813
Der 0.011364973262869919
ats 0.049461113956150396
Δυνα@@ 1
Τάγ@@ 1
άσκετ 1
1.7@@ 1
1758 1
22,@@ 0.724100151107552
Ltd 0.3136971146908026
Magazine 0.2352400636492458
The@@ 0.11973647978600763
ect 0.0710713088594381
ett 0.08866382299406565
ίστα@@ 1
Heaven 0.7682078636838552
Il@@ 0.12866082735939507
ρίτερα 1
BO@@ 0.5185657436292403
Let 0.428790360646748
Walter 0.13467596212070648
domain 0.4266220947943932
min@@ 0.04437753894325687
Ρώ@@ 1
EL@@ 0.5922348400517307
ign@@ 0.09140523753958478
oni@@ 0.10947472101896084
24,@@ 0.7172785277765521
Li 0.27322038742829147
osa 0.08450890026719778
πετρε@@ 1
Ir@@ 0.12075211317895622
κωμό@@ 1
τιμή@@ 1
1520 1
2- 1
Lor@@ 0.1531193630064842
Tre@@ 0.10925132881953852
ali@@ 0.07588793682369396
eto 0.13364784873189484
fer 0.06871662511388466
up@@ 0.04966710677002371
οδοχ@@ 1
420 1
Page 0.5777629112411695
reg@@ 0.05645125511435435
λοβακ@@ 1
1683 1
Jacques 0.13852707291196406
More 0.22679688028774828
Tom 0.12724867622297137
ud@@ 0.08653137047430598
yn 0.17653634715843658
Γυμ@@ 1
Dio 1
ao 0.0810623232040853
ign 0.4014186262508423
ted 0.01995633994727639
1786 0.747928421135842
Bri@@ 0.16708024376727512
Mu@@ 0.12481810657590174
1,7 1
Lif@@ 0.5615767253130646
Old 0.1158627195360219
PR@@ 0.41313165471794777
iv@@ 0.08903335151202918
Ha@@ 0.10365606832712142
Uni@@ 0.14302903692392424
οπόλ@@ 1
י@@ 1
ა@@ 1
Victoria 0.12169784528406513
ass 0.11936481123307974
lu 0.29041138833082486
απονεμ@@ 1
26.@@ 0.5893497335043425
Pep@@ 0.39630099234010896
yp@@ 0.13746678092922104
ίστησε 1
Anna 0.14615316154469662
Comics 0.3428962036403279
History 0.0343005583086533
PP@@ 0.47146971137409494
Tomatoes 0.8433275065578293
Land 0.08612522273370397
Paramount 0.8315412679507835
icus 0.3130263815983147
oth@@ 0.08726846704524575
Boys 0.26508355586852145
EC@@ 0.533794876595802
MT 0.7644348473760268
Pas@@ 0.09785568773196984
ila 0.12741063592182966
ym@@ 0.11487129183426986
ατρο 1
κάλε@@ 1
Evil 0.9830946773377219
FO@@ 0.4466565731426297
Ta@@ 0.12174220184324515
Xbox 0.5823824882517231
21,@@ 0.7200768341590227
Pap@@ 0.12806182929750975
Television 0.21415395305127266
chi@@ 0.1031184181234273
í@@ 0.042789570997419285
1521 1
AA 0.2393032659804579
Luc@@ 0.17673855821967807
Party 0.050036303601004875
ington 0.10129891802812495
199@@ 1
AL 0.334143257222116
Kal@@ 0.09399139224761831
Rec@@ 0.09267452510579528
Singles 0.22753541852691317
ke@@ 0.10463679765323122
325 1
Mis@@ 0.16681237237045182
ath 0.09736621195070544
ax@@ 0.11943634343160986
iti@@ 0.06797395234274693
ng 0.29130231324299233
συμπα@@ 1
χρησιμοποί@@ 1
Fal@@ 0.1671288895464861
Kh@@ 0.08005103061966115
ania 0.1576982600006257
έρονται 1
132 0.7408261285181872
1610 1
Gor@@ 0.12909679245025546
SH 0.7348602068602736
sey 0.13261015771084275
57@@ 0.6934974600410324
cap@@ 0.05554384551608449
media 0.064420425150511
βλημα 1
C. 0.06912229272469964
Est@@ 0.0969448800372634
Out@@ 0.219698074927179
ri 0.13874529674328798
Lewis 0.16875691179743652
ck 0.13285850568414628
430 1
Red@@ 0.09427554941136078
bo 0.19906667055786562
franchise 0.267731615661063
ment 0.02746136930318651
ote 0.09255435193689678
pu@@ 0.06957203687165626
sen@@ 0.06310234597024306
ήμερα 1
1768 0.8599245536159665
Real 0.12316310409430713
συντε@@ 1
ωτερ@@ 1
1571 1
54@@ 0.7796576508902364
AE@@ 0.3712440503273911
Opel 1
ines 0.0461507202771545
sky 0.11309864453682365
star 0.11181844744626969
uk@@ 0.08114589313094206
una 0.005212020208006301
άλογος 1
καθιστ@@ 1
165 0.7802324288382144
1777 0.7237091470560436
27,@@ 0.7280207844682169
Dev@@ 0.12241850321449653
Dir@@ 0.5495070227659388
Kor@@ 0.09343510907039529
LO@@ 0.4412569410303839
Machine 0.5199270071028893
Prince 0.11546798227909391
map@@ 0.5213310027599325
pol@@ 0.06751322139419041
οδρόμιο 1
146 0.9095350263387607
2,6 1
28.@@ 0.6063340981649302
B.@@ 0.27173618179880643
Drive 0.40598449598166353
Fair@@ 0.22276892838998782
Unix 1
ost@@ 0.10907009619469456
Guardian 0.4490822548773998
ind@@ 0.08135522015950972
online 0.16444843011882063
tel@@ 0.058214530309562196
ώδεκα 1
ἡ 1
Critics 0.6759197423595783
Just 0.30484088446208574
Metallica 1
Moon 0.30874336811435404
Ren@@ 0.10568821894556615
Sel@@ 0.11363231415438886
ηλε@@ 1
ρασμα 1
460 1
Express 0.24595731081998498
Heinrich 0.1296646734830418
Ludwig 0.16849868453052194
PI 0.7774488233671202
Roc@@ 0.20712020505972029
etti 0.14460825505526573
oth 0.15102801074431735
κλήρου 1
ῳ 1
1670 1
1782 0.6745728628122398
Bob 0.15540653550743072
FF 0.3332634456233547
Homo 1
R.@@ 0.3459867246707288
eli@@ 0.11986081576031063
light 0.06220712939098484
æ@@ 0.29044961035503475
Βαβ@@ 1
196@@ 1
225 0.8564186019037618
Dol@@ 0.14872996223137575
West@@ 0.07673944017506706
well 0.015605969248452775
ă@@ 0.21032458091156403
άρκο 1
νούμερ@@ 1
Electric 0.3708593555609341
IU@@ 1
Lov@@ 0.2570125850446883
NE@@ 0.28893085735759144
Sound 0.2721953969825101
ants 0.027432795882716868
aux 0.011723174762493287
cher 0.05734668937437133
ier@@ 0.06759886022159192
vette 1
σπί@@ 1
28,@@ 0.7732162158429251
78@@ 0.8850510056060823
Bay 0.0822075594024728
Georg 0.1670417445214285
Silent 1
data 0.08738284067757561
fl@@ 0.042126567050017764
level 0.052763423655356634
¨ 1
διήρ@@ 1
1690 1
Sl@@ 0.2814959983552798
ely 0.03995327945120445
ø@@ 0.16340025940491165
σίγ@@ 1
BS 0.3732446735720675
Blu 0.8309766724939464
PC@@ 0.2834673159473807
Productions 0.40400703853400033
River 0.0361182585971112
mo 0.14527151587231446
ör@@ 0.13586718163846753
Συχν@@ 1
1540 1
29,@@ 0.8291475328244716
Battle 0.1024148210701336
FDA 1
RT 0.30551518020213636
key 0.08702764626376187
pre@@ 0.027373851726100025
tar@@ 0.06868742338751416
Family 0.14258334963419175
GP@@ 0.4306993961101143
Ob@@ 0.15076767774418484
by@@ 0.24073390421274257
1470 1
1778 0.6866856655101684
Jackson 0.13012992839517068
Ol@@ 0.09468499605845876
Steve 0.155354606333543
uma 0.2005713152684275
εκατοντ@@ 1
Global 0.24229103169835578
NBC 0.2920111984538555
don 0.08797002311427503
sy@@ 0.15505186591366732
400@@ 1
CY@@ 1
Fried@@ 0.31980320117296357
RI 0.5809722832883704
SE 0.40766667076593854
Tu@@ 0.12955064021540955
ong@@ 0.07442446969645485
qui@@ 0.10934329150723718
å@@ 0.21303519667735932
ετέλεσε 1
ημέν@@ 1
1580 1
56@@ 0.686318285458337
66@@ 0.8121123294235827
Antonio 0.10128613105712941
Dor@@ 0.10323563347965727
Sy@@ 0.11184193345314208
ast@@ 0.08018245737704353
Πληθυσμ@@ 1
Pink 0.6559748795189871
USA 0.07800759461380864
VIII 0.2794128047440207
Web 0.44056668858066306
aya 0.09410590189251133
long@@ 0.2257227322847124
TE 0.5255677774412506
ense 0.10100559388789379
Ηρα@@ 1
310 1
Cru@@ 0.2451916943651595
Theater 0.16153500331332185
ble 0.09520512651294116
hi 0.14582027424412494
iki 0.11716643193798375
ira 0.10538192647865124
λεον@@ 1
E. 0.11006975043673786
Plat@@ 0.14796055341824144
With 0.05716328800905548
ful 0.07026643683307221
go@@ 0.09534777543798217
po 0.18128823162339944
θύν@@ 1
πετύχ@@ 1
ו@@ 1
Baby 0.40518274145769595
Chart 0.2870970708986985
DO@@ 0.34330402308533864
Mol@@ 0.11433129839454662
Now 0.27078905035493805
Nu@@ 0.20081813924166075
Tro@@ 0.11478103828441527
manga 0.35185102731033213
1769 0.8813493860023079
AF@@ 0.3026418463527995
Campbell 0.2719042664290271
PAC 1
Patr@@ 0.14592891790407697
TO@@ 0.4161284844825226
1430 1
1618 1
And 0.184998605384796
IBM 0.43488495566818686
mor@@ 0.061373729616619764
oma 0.10546688298245852
sel@@ 0.05489948410642122
έπτυ@@ 1
᾽ 1
1763 0.7426147658805735
1781 0.7072667174851968
bus 0.10071263173888295
ff 0.10365563306594029
ider 0.1577867376738702
69@@ 0.8913067975782187
Junior 0.16336361020205942
UR@@ 0.5830198223112467
if@@ 0.056733068537381054
ώργ@@ 1
1760 0.7670162513411906
205 0.8397584888633444
GNU 1
Sm@@ 0.23733895833547416
ento 0.12876069651320202
oph@@ 0.08108162510259218
ː@@ 1
Γρηγορι@@ 1
4000 0.5671076566052539
del@@ 0.06462271618393106
isi@@ 0.07342275433219189
Κορι@@ 1
1603 1
167 0.9426375387189093
29.@@ 0.6133957202959851
Angeles 0.07395479828201301
Petr@@ 0.26195928796346596
tan@@ 0.06498721463369282
ð@@ 0.40798293643752775
1492 1
1669 1
II@@ 0.36735709703794606
Pon@@ 0.1577130615925557
Service 0.0885658483990799
air@@ 0.05907773586083946
ement 0.018634673981358523
height 0.23049226982840854
thumb 1
vil 0.5327891352811669
½ 0.6699158353119988
Συνέχ@@ 1
131 0.7348248670567301
1560 1
53@@ 0.7040820382347959
Anth@@ 0.4870002899849441
Head 0.21212825402933635
SN@@ 0.39493993444092634
down 0.03598693044298729
ech 0.19307524428734305
m3 1
1566 1
Ci@@ 0.1808119244860884
HF 0.45635577976823616
Henri 0.15056623980020406
ins@@ 0.05576036805415816
ki@@ 0.08512665271560266
mel@@ 0.07175553593395372
row 0.10677654694211562
ΐ 1
Rob@@ 0.15315537223771936
Sab@@ 0.13752506375086643
over 0.012106931561431365
οδυτικά 1
ἶ@@ 1
185 0.8520089171974118
440 1
Athens 0.45581637026949273
Beatles 0.4821471049456764
Doctor 0.20950807019831327
Leg@@ 0.13370149293598316
U19 1
Vil@@ 0.15264726691054883
γρήγ@@ 1
147 0.867584681145148
Come 0.61416508126116
Sac@@ 0.2618636875869424
Sand@@ 0.1179550132836496
TP 0.5612768687231569
Voice 0.5019383950380514
ack@@ 0.09202168234008297
ιστόρ@@ 1
κυκλοφ@@ 1
166 0.9435270149390221
Gold@@ 0.17358123513771842
Women 0.07079006710040137
dan 0.09629407788810246
ord@@ 0.06022865891876315
sion 0.043362156143322735
sti@@ 0.07692800207818405
υζαντιν@@ 1
26,@@ 0.6559766279258933
64@@ 0.7360227331400953
IUCN 0.8626843603098403
Jr 0.1732716384636703
Sz@@ 0.24763426997174437
François 0.11355285842017043
Open@@ 0.37223947323051637
aur@@ 0.1290073496599497
εναντί@@ 1
Dur@@ 0.1387112162041844
EN@@ 0.4530304919436721
Lost 0.45893593028851426
M. 0.08200184469906958
Under 0.1260847417760627
ding 0.07468724626093298
ham 0.10668784989009997
ΐου 1
Πάπ@@ 1
νάει 1
1185 1
27.@@ 0.5231893251733196
Astr@@ 0.2313030902315385
Cadillac 1
Dragon 0.3907485532480647
May@@ 0.13451661685927851
Premier 0.10709840889067707
V8 0.7747840153210271
itude 0.4670278054339481
men 0.020243666783542613
133 0.7472257136006203
1740 0.8079995040396931
9,5 1
Grande 0.13689424277765985
Liga 0.08177249762072758
U20 1
Whit@@ 0.15622663036029
sin@@ 0.06466459044308051
station 0.02373036269071955
CR@@ 0.40606498352442344
Ep@@ 0.22074730293052833
Joe 0.12012462997254521
MR 0.8125741665604418
ail 0.08934772808434556
ust 0.11898503896190131
Κογ@@ 1
Σαβο@@ 1
αναπτυχ@@ 1
ῇ 1
1764 0.850765024841167
198@@ 1
59@@ 0.7033386539125641
Fol@@ 0.1451577566845139
Mah@@ 0.08960551460245193
eme 0.21495394555712669
tis@@ 0.08935565372067557
τζάν 1
1250 1
99@@ 0.7842157022975333
Brothers 0.25894445940779964
anger 0.15792537764580297
eck 0.11832428268789999
hu@@ 0.0697690398966883
ā 0.36541881671897736
23,@@ 0.5890560662668
F.@@ 0.42632182589168405
Gol@@ 0.1340117603296994
Never 0.5978424243068942
USB 1
Kan@@ 0.09256206082665072
Lam@@ 0.13965506996747865
Wild 0.3190158595793583
τηρούσε 1
Pin@@ 0.14121629557578624
Ra@@ 0.14348499398663275
bal@@ 0.059889864775124244
ball 0.09298130457051883
mod@@ 0.10439479417615491
ods 0.11637941620215755
ă 0.6713740538948259
παρελ@@ 1
138 0.7491581528369242
950 1
Central 0.049932295982890555
Dan@@ 0.14906821461104766
Ernst 0.17947107801630738
Gaz@@ 0.33693930498517033
Porsche 0.6699629517695203
ide 0.08107931138639779
og 0.25745787299189493
ots 0.06107121514514126
year 0.01233147354493232
1205 1
God@@ 0.1966757847287203
Over 0.16694767145771608
eum 0.2146079376395192
wi@@ 0.14822880334633742
119 0.6725572894280344
2,8 1
Lar@@ 0.13799598957728446
Rainbow 0.9269401425776856
Town 0.10081159012077434
560 1
Ay@@ 0.1297483488663281
Cop@@ 0.1699917689158135
Cou@@ 0.23114961064461936
D. 0.09235865544671233
Magic 0.402698833420971
dei 0.6248193053691596
eman 0.16071134089268166
enn@@ 0.0633772206101385
lan@@ 0.07969157763708107
mat@@ 0.06022364106910231
ow 0.07193559406961013
urs 0.07418698876414825
137 0.7475836349659482
1671 1
1720 0.8883982090632252
323 1
Public 0.10003849363196687
ha@@ 0.07840665587478673
kr@@ 0.09123091198597329
met@@ 0.07215660400586421
onia 0.12926324214826482
the@@ 0.0711210935672887
ub@@ 0.08676381490771878
Child 0.4273616874100534
Han@@ 0.10466202442265747
Φρανσ@@ 1
ե@@ 1
1480 1
Mul@@ 0.1232026043115241
anime 0.30875452329549236
fo@@ 0.06936135236580088
ó 0.012044654346509032
ωμα@@ 1
134 0.7433705503394261
Mé@@ 0.12904438254962103
Summer 0.0865411258533413
cin@@ 0.09904361138422223
har@@ 0.04304997929336205
Τζέιμ@@ 1
235 0.9273857960032598
fe@@ 0.037341480918689114
ucci 0.8648004504784214
αποσ@@ 1
τονα 1
1526 1
AG@@ 0.32594520025804646
GT@@ 0.39717086508442073
Kat@@ 0.09062173432290421
MP 0.19305288784035507
Plan@@ 0.11701747444926933
Sea 0.12214571439874014
ks@@ 0.10996171314595463
Βοσν@@ 1
1590 1
37.@@ 1
ME 0.3968455833002933
Met@@ 0.14268155503298455
Natura 1
Ερζ@@ 1
2,1 1
Gir@@ 0.17279240265735687
Rose 0.1727379514899518
Zeppelin 1
aka 0.12093620734829146
Μέχ@@ 1
μμύριο 1
όσφαιρο 1
на 0.0022311353919097824
148 0.8480403717252711
1714 1
1730 0.8569606553303262
Atlantic 0.14733090960684028
Haw@@ 0.20536577982972237
vol@@ 0.05325746906271989
Αιτ@@ 1
144 0.6980216292391928
365 1
540 1
Francesco 0.38846221582017615
P.@@ 0.39802426202684477
Scar@@ 0.29353274933759954
ische 0.018834792775050374
Αψβούργ@@ 1
1667 1
1779 0.6857742787436095
3,2 1
Kur@@ 0.06978522963810772
cul@@ 0.07453475169150339
pers 0.1484254623140224
ë 0.42824819253563123
οιο 1
1762 0.8127368628342507
Tam@@ 0.15318226371879265
ισορ@@ 1
οχώ@@ 1
1598 1
1699 1
1771 0.8140657819241379
Europa 0.08275154811668874
Laur@@ 0.1749261524961337
Simon 0.1307123163208227
ede@@ 0.6183959798627572
hop 0.31020317387977964
tu 0.16666627158835975
yline 0.48789764286360526
ç@@ 0.08629164668650953
1685 1
30.@@ 0.5963570762375181
Am 0.02845217134262648
Blu@@ 0.20429940090090393
Game@@ 0.4482818255805925
Harris 0.22141363023251004
Kit@@ 0.178552157450556
Will 0.25185619209578886
cur@@ 0.047052891718166845
ret@@ 0.07168068792436869
Λωρρα@@ 1
1536 1
215 0.9174070073197332
BM@@ 0.3134342180479533
DL 0.7568737972450024
NCAA 0.16975343742094276
Plant 0.539688617556111
Ray 0.19237020557781132
eth@@ 0.07344028907533412
yl 0.1251753208848561
193 1
Fantasy 0.5149499230492508
ads 0.10112880742079738
ani@@ 0.11745805215191606
boy 0.1461941982651637
ern@@ 0.058604097439170784
ides 0.0509921115206973
1461 1
192 0.9427993784990965
2,7 1
Bou@@ 0.12012759102566767
Review 0.25877316497683667
Wa@@ 0.1754101945291609
aci@@ 0.09254090158729474
pos@@ 0.04086275559946326
Δημήτρι@@ 1
1- 1
1680 0.9339791950931776
Gil@@ 0.151027027737926
He 0.004083018643523457
Not 0.21885736133159137
Not@@ 0.10720386677151546
agon 0.42119436991502546
amb@@ 0.07607718175458088
bul@@ 0.06219129714988954
peri@@ 0.25889684394085666
por@@ 0.04744180227669757
tics 0.08977645126228352
όπο 1
1627 1
1632 1
Dow@@ 0.24091029297597846
End 0.24467591166638514
Hen@@ 0.16212138308639784
hard 0.11837057435610217
ms 0.06984135857936566
Ειρ@@ 1
αυτοκρα@@ 1
παίκ@@ 1
Alfred 0.1495103268521277
Douglas 0.1704821842957616
When 0.03604517041485591
ades 0.0653425133448182
Div@@ 0.15810381990511943
ROM 0.9925899609770656
Sn@@ 0.3090657984435688
Tem@@ 0.21930396030365887
non 0.02531906179893982
ture 0.07293121183741728
ver 0.05379688856149215
vo 0.10811657045076656
μετρος 1
1,9 1
1625 1
DI 0.4543041008018023
Design 0.1672077675161119
Pur@@ 0.14571614223455642
Van@@ 0.2963216665239482
lam@@ 0.07146314207863755
zz@@ 0.22429063352942732
í 0.07157209736792315
2O@@ 1
Ju@@ 0.11439910595133805
SH@@ 0.4449227191586165
VC 0.5284249897502643
ava 0.15601971527557246
cast 0.07706225594733512
lie 0.09737776883035945
remix 0.6790560601839509
ush@@ 0.15523586516431523
Θεσσαλον@@ 1
πλεί@@ 1
† 0.04412471502169047
1718 1
1773 0.7047864131814243
Med@@ 0.17013475837613432
mus 0.27192552164460515
sal@@ 0.05538179056081204
vin 0.18014110429791344
1282 1
Again 0.5231380431967475
Cul@@ 0.17743308618782672
Maiden 1
Oli@@ 0.3422324240813046
Pop 0.2755145114651637
She@@ 0.1540080665320629
Victor 0.16520865318894018
ema 0.1263125988786364
enc@@ 0.04898501630372666
tro@@ 0.0686903865876396
Καρι@@ 1
1180 1
1572 1
1642 1
Butler 0.37184580940952927
Gam@@ 0.25024993966282455
Heavy 0.6323088753232693
Soul 0.4217678188030594
Spe@@ 0.11937250755669956
ɪ@@ 1
ἡ@@ 1
1350 1
1559 1
HC 0.31595271452794527
José 0.060679538834125905
L.@@ 0.2921439135838086
Sex 0.564019861495143
Wh@@ 0.16701176733376802
eca 0.26115265245788133
inc@@ 0.047059653298695804
ron 0.2740823065474324
uz@@ 0.10093190024852589
Άραβ@@ 1
-1 1
222 0.9218327869567602
AZ 0.7373206677738874
FP@@ 0.9812509220290819
HO@@ 0.7438415075394177
ON@@ 0.32600483241450584
Wolf 0.2707683931174719
ns 0.06685161571311449
ś@@ 0.3169029422888212
αλφάβ@@ 1
θανε 1
1765 0.76975414505271
Bay@@ 0.1209068771526615
Forbes 0.5178276307736259
Girls 0.23654616129156106
MD@@ 1
Romeo 0.6388553417384794
Standard 0.23689676294087672
άφος 1
1537 1
193@@ 1
39.@@ 0.9561117209101975
Cour@@ 0.1233532965205432
jo 0.09847918571188692
los 0.0029293577485355726
Παγκόσμι@@ 1
ն@@ 1
212 0.8957620088054614
256 0.7882096047443052
Children 0.22037003162627636
Francisco 0.05982476730974705
Jac@@ 0.19756676212769483
alia 0.21118166840464833
dis@@ 0.011797711970950864
pel@@ 0.07107672688060435
μακα 1
How 0.35359882924737235
Place 0.2227002939523706
Point 0.14304958748856653
Tran@@ 0.17216515137529786
ays 0.06158862113130892
bur@@ 0.050443280374680675
oto 0.12650145378925992
uv@@ 0.1457207653692509
yc@@ 0.11060653807998304
ασφάλι@@ 1
1420 1
3,7 1
Dam@@ 0.12752762313119442
Hay@@ 0.13767565060815942
Stars 0.24381379232275385
Three 0.1212553839407159
iro 0.12880846154467626
mix@@ 0.13963716394752773
tw@@ 0.07207298070892258
εξά@@ 1
τουρν@@ 1
1604 1
AB 0.2921849061082384
Alice 0.21459934937771882
Development 0.11131492695907372
Human 0.18798460485796506
Mari@@ 0.09876224609858647
Movie 0.5153413046738441
Vir@@ 0.16056784781884684
bit@@ 0.1352397691766425
bor@@ 0.06232179526661286
face 0.047412433983121414
lar@@ 0.07099263064551287
not 0.006050561947203499
ö@@ 0.051303031264202985
ἑ@@ 1
395 1
Nickelodeon 1
isa 0.1391503163552152
oy@@ 0.09750468999166183
ão 0.19917696510403957
έρνηση 1
84@@ 1
BL 0.4534687355066541
CP@@ 0.2671287441069826
D.@@ 0.31949417976717515
Run@@ 0.22130664153997764
Son@@ 0.16171821761586427
Songs 0.20184583612855472
Ty@@ 0.14366686442413512
den@@ 0.04235752706482994
px 1
Don@@ 0.09906891291312357
Hom@@ 0.1081283203941139
Pop@@ 0.18816065089609238
emann 0.30457717008432067
ket 0.162308296570527
ὀ@@ 1
1661 1
63@@ 0.7525739971583396
Billy 0.2232335718324166
Bul@@ 0.1164359643801411
Fil@@ 0.11425469752148924
MHz 0.5911743820400039
Tesla 1
old 0.02836139142375615
sp 1
υθρ@@ 1
1766 0.8038085349775221
197@@ 1
DSM 1
Liber@@ 0.18308689298692335
act 0.05220685990917514
con 0.004068655527133743
lat@@ 0.07516544660795857
μέγι@@ 1
1527 1
164 0.9031275185244814
3,6 1
Elizabeth 0.1115803708656737
Library 0.13836403905969075
So 0.06586793161593141
lers 0.06852037889468497
oria 0.19610718813695982
sus 0.014833057281903525
ung@@ 0.048185139534575275
Οργ@@ 1
εντελ@@ 1
् 0.003017300207914039
156 0.7564180723078047
Chris 0.12098574899773137
Days 0.38223230136987113
Ker@@ 0.11813844051877637
aire 0.027244412040482117
aki 0.13104582254937555
ce@@ 0.10590937157747309
server 0.349688520507299
son@@ 0.06633947172936279
ποτα 1
151 0.7458008242828693
Alfa 0.8965963373862554
Opera 0.22072771374920033
Stones 0.8080086425258777
Type 0.265296157267555
dis 0.23261760932160905
gh@@ 0.10988827683600388
oll@@ 0.09716508196953456
δείχθηκε 1
εδρος 1
1328 1
1415 1
1605 1
305 0.9652821419053308
74@@ 0.7975806826889995
Fin@@ 0.11336367961093743
G.@@ 0.4388489834966597
Guy 0.2381353252964071
ista 0.04727414249071913
AV@@ 0.32889071132980674
Anne 0.11667581753237605
Autom@@ 0.21763004894163135
Fel@@ 0.1289638314793295
Juan 0.056100522933409586
Lake 0.05704523907293569
Tul@@ 0.23508115237955607
Water 0.2053617770021487
latitude 0.9319397106564103
log@@ 0.08240653004241613
oli 0.20620068781779824
0,2 0.9690318265501835
640 1
Act 0.060533741664112156
Lil 0.9360097963577199
USS 0.26110945072524244
ert 0.032727606977973986
Bat@@ 0.09071936228543155
Bru@@ 0.11548702963262635
SM@@ 0.4130534514200394
dic@@ 0.05281349421833649
fi@@ 0.044029854969000894
red 0.03465076149754041
â@@ 0.11009530254195692
ʲ@@ 1
≤ 1
1655 1
3.0@@ 1
Bull 0.4176248204625566
DS@@ 0.4098358441818308
Ian 0.2628498949170592
Lem@@ 0.21099547630519805
aus@@ 0.01631598313158157
guest 0.18895961368513353
141 0.6715220100186432
1638 1
1767 0.7720573628438913
321 1
530 1
79@@ 0.8948552995132659
Bot@@ 0.1215538592696709
CV 0.5899321938673597
Empire 0.06758107101260825
H2O 1
Java 0.31953864678657157
On@@ 0.14887604470099566
Vic@@ 0.1589223286895386
Volvo 1
da@@ 0.1882675757068409
1515 1
31@@ 1
36.@@ 0.8682745597477064
410 1
Eg@@ 0.2014071687449089
Mass@@ 0.16616853242478458
cer@@ 0.054147165184891995
cy@@ 0.164317283476212
das 0.00390813557553606
dier 0.4224968271180228
zy@@ 0.15026299368693133
136 0.6507217737894326
152 0.6065051712638476
154 0.7145894844985128
158 0.826516763754701
163 0.8414794262654617
1707 0.9671671434878298
999 1
Lev@@ 0.13922508514289514
Weekly 0.4056769852620881
amp@@ 0.05719092491949025
if 0.029669290471426617
water 0.028857911767349993
CP 0.33999976400834214
Federation 0.15864903390835763
Fu@@ 0.15366364948714645
Pen@@ 0.09382476665856164
Sin@@ 0.11647895098258089
ders 0.06993775737704337
gi 0.22091867642128984
gl@@ 0.06310772549658487
nh@@ 0.06798487452204005
we@@ 0.047187531568475376
οσοφ@@ 1
202 0.7461493558662267
3,8 1
3- 1
88@@ 0.6765814272805174
Centre 0.07401299514390568
Lim@@ 0.1199490435052319
Mik@@ 0.1868092312613946
SI@@ 0.31322100759103366
Sau@@ 0.12107474256424501
Special 0.1416330745098837
body 0.04722930103574388
gar@@ 0.05579002588282578
mas@@ 0.05001150853742775
1635 1
1675 1
169 0.9153388138990217
1701 0.9647524532616224
Airways 0.6122337321039448
ality 0.07552154391556647
anda 0.11758986644603116
hat@@ 0.19720433014901967
rey 0.0822831975218015
vir@@ 0.10990235500383208
Τζορ@@ 1
οπον@@ 1
и 0.0013724893795512131
747 1
77@@ 0.7672821121714407
Airbus 0.7672121280926193
Animation 0.7401629104242613
Challenge 0.24844807523131637
F2 1
Sanc@@ 0.4223326210057631
Soccer 0.29453258911590574
Wood@@ 0.12568233781966412
fur@@ 0.1348551966369232
sson 0.17023107818002606
χας 1
1651 1
1757 0.816433320175735
38.@@ 0.8105685917129342
85@@ 0.8074474188530462
ST 0.3730990356612349
Serie 0.09754763881522385
Sig@@ 0.12501573104831717
Sor@@ 0.1176508963448662
Symphony 0.34055991989411444
TNA 1
mu@@ 0.0645464164524028
ols 0.08149974692111923
ond@@ 0.07976824384186755
ér@@ 0.046094212161595004
ი@@ 1
142 0.703454124395243
1458 1
Bab@@ 0.13971007348013004
Hed@@ 0.32899185285404897
Law@@ 0.18252595886564768
Pic@@ 0.16592413138644765
ev 0.10778116043408625
section 0.05375826681201971
ä@@ 0.03096324178099885
μπουμ 1
1261 1
1340 1
211 0.8390156888612537
ATP 0.2590098223991005
Emmy 0.4506443433031411
GM 0.444503923844738
Hum@@ 0.1418189983178615
ans@@ 0.05910241565699537
enberg 0.11017765842596723
nm 0.8511745092264358
ī 0.32619515909081825
C1 0.8306436438147049
F1 0.45690191970374294
Ham@@ 0.08774474632936505
Mike 0.11268910115020501
Otto 0.13233639976270875
RAM 0.6298289273807819
Via 0.5539038080379693
Wilson 0.11194785854329971
XX@@ 0.447285690992673
ches 0.036591259660020546
tions 0.023175516970358884
ρεση 1
1347 1
1503 1
1672 1
1745 0.821142002287421
From 0.03838978428808398
GC 0.4755243866531142
T.@@ 0.4028655232014295
dom@@ 0.12286331075792388
ew@@ 0.09143180690215609
ingen 0.052571327957586775
τμή@@ 1
,@@ 0.6479959680635845
1512 1
1665 1
978 1
Ari@@ 0.15943980899871632
C4 1
Dro@@ 0.15830840964191714
Led 1
Mad 0.7510710760322817
Plus 0.1885426605056071
Sweet 0.49759061379465397
Thriller 1
Town@@ 0.4226214248951664
eson 0.4588528186691255
für 0.004540870256246385
ward 0.0709910048657645
0,3 0.9145179081440444
1440 1
1516 1
1547 1
1568 1
1621 1
Choice 0.5633393659308203
Mand@@ 0.11786891172689491
Stephen 0.1320260398124937
Technology 0.13521585902378475
bi 0.14570082635788062
mail 0.26378880189163695
ney 0.07868512931094915
ντοκ@@ 1
1525 1
Away 0.6907808595914035
ons@@ 0.07803333255327641
vers 0.026975753859428547
Αφγαν@@ 1
νυχ@@ 1
ἱ@@ 1
1596 1
1609 1
1649 1
1659 1
1697 1
290 0.8861013622089722
Gall@@ 0.289863515297437
H2 1
ML@@ 0.42679744229119204
Mountain 0.13751386291163772
Soci@@ 0.20560976951188142
Us 0.4600480613806744
1569 1
1612 1
720 1
Johnny 0.20232446984559085
Reb@@ 0.19015070804235298
arium 0.31114934360427093
k.@@ 0.6106156731615512
161 0.8048868966937527
197 1
Andrew 0.11737257800796905
Ath@@ 0.17187244007251098
Ball 0.27692484622373964
Cab@@ 0.1715637312337747
California 0.035563392335306754
Money 0.5017227962647723
Shar@@ 0.1455989134566058
Strange 0.8200296428973544
Ther@@ 0.14131268230999092
Tony 0.13284978306950526
WrestleMania 1
off@@ 0.05213967316635295
ven@@ 0.0501462480677823
1355 1
1713 0.948285993450204
840 1
Aur@@ 0.2009923843007147
Friends 0.37040260661154284
Ward 0.2497120094389295
cat@@ 0.0578701322953018
that 0.0017294751324429944
1684 1
38,@@ 0.9111464500446079
Captain 0.13893822116475885
was 0.0007588054193848333
Ξ 1
ἱ 1
1616 1
162 0.7653441852067244
206 0.779772098751236
But@@ 0.1678011774823621
Jacob 0.20312418873128893
SB 0.5020446073959149
Spider 0.40970227489617106
Trav@@ 0.21242717902373381
arum 0.6774704628324484
att@@ 0.041595178114603525
ave 0.14207382738222948
ech@@ 0.05876358694863637
esta 0.0291537158836149
ough 0.1034197710939306
pp 0.605692688215152
Ö@@ 0.11275889419059927
έγερ@@ 1
1644 0.9400285081961944
1645 1
610 1
IE@@ 0.3808284161502026
Lab@@ 0.1747654039419199
Luftwaffe 0.5282305629297349
W.@@ 0.5148070750590925
anc@@ 0.05682407849646535
ating 0.0192687306177426
ative 0.03127172394098693
ici@@ 0.08309112175052914
leg@@ 0.07067924860056021
offs 0.40198484657403544
ony 0.11487574183389575
ual 0.08310312166495597
0,6 0.9417324605973951
1475 1
1711 1
Management 0.14326682522141387
Miller 0.14255066907494082
PN@@ 0.4111142423613155
Prim@@ 0.1523009114003675
Seven 0.2660276459938193
Slayer 1
Wol@@ 0.11354054365610507
iti 0.22713995043563562
1346 1
1504 1
1589 1
208 0.8202228409739224
CT 0.4068956502075996
EMI 0.7039957647037076
GR@@ 0.7813830967154981
Good@@ 0.23373155232173526
Hell@@ 0.3671730336640656
Magn@@ 0.3891790306602111
Priest 0.991292959434259
Tip@@ 0.6816070656701788
ip@@ 0.11904533429362574
kl@@ 0.053317460699364064
παραι@@ 1
After 0.014064675338907243
Sec@@ 0.13102344110535047
Secret 0.3745174433859185
ais@@ 0.07175880989695235
heim 0.0725602163757281
uto 0.35008965602996156
vin@@ 0.08682451871638319
ère 0.0321017676009125
Βιετ@@ 1
αλφ@@ 1
στερν@@ 1
1454 1
1654 1
1735 0.9019903308241289
186 0.9310697789603972
490 1
Computer 0.27791898775736124
Dre@@ 0.11296904237505669
Stu@@ 0.13290856461506675
Tak@@ 0.09323964775191625
Walk 0.5995381672789646
Years 0.32451699733541817
int@@ 0.054614266894781625
len@@ 0.06612128603117313
tz 0.17058761915228385
Č@@ 0.2501681345109207
ακολου@@ 1
συναυλ@@ 1
″ 1
1585 1
1595 1
1666 1
390 1
451 1
Au@@ 0.09298828593047603
EF@@ 0.6948966740379975
Hard@@ 0.1774552442501982
Limited 0.23599848591637526
OR 0.8851324843301527
Over@@ 0.12247766092803959
Say 0.7338054058714399
Stor@@ 0.2354780640389033
V. 0.12054082392689458
asi@@ 0.06584574671758442
iga 0.1840810082400595
world 0.026121264324395526
περισσότερ@@ 1
143 0.6812716715537342
1519 1
CL@@ 0.4530068591649542
Jan@@ 0.12198155750554164
Καλι@@ 1
εκόρ 1
τρεύτηκε 1
1380 1
1493 1
1623 1
195 0.7413032394230707
36,@@ 0.710166323783207
Board 0.07928213577130995
Mos@@ 0.0977718039571172
Sou@@ 0.132960470816326
TB 1
af 0.19663684705565077
amm@@ 0.08792500264852764
estr@@ 0.06582156499280645
igh@@ 0.0817356197294123
ίσταν@@ 1
διήρκε@@ 1
ն 1
1330 1
1611 1
1626 1
1628 1
1755 0.7143561870099304
238 1
375 0.9079862642476265
Adam 0.12583834206432862
Aqu@@ 0.1733827362323679
Diamond 0.40431515006356217
Miss 0.1282970414585964
PL@@ 0.34930612326727045
ami@@ 0.13305671384305756
bar 0.04423427257181213
des@@ 0.01826616959439685
ection 0.06111746728215423
ty@@ 0.06040536748034877
Τραγου@@ 1
Φλωρ@@ 1
άνθης 1
εγέρ@@ 1
1602 1
1606 1
1687 1
324 1
520 1
Kam@@ 0.10070230330077104
Rev@@ 0.11312595319881359
SL@@ 0.41782934506760755
aud 0.09523889579309945
enne 0.04506102375796388
ost 0.10788829953137617
tia 0.10493672702585487
Ό 1
а 0.010395258169585555
1370 1
August 0.012619806714090905
Hend@@ 0.3903305628684777
Pu@@ 0.14813861649506485
Sem@@ 0.10859612280337973
bre@@ 0.034696460593167645
ein 0.004175773159715152
σύζυγ@@ 1
1.5 0.2426913385171128
12,5 1
1710 0.8051166303641003
Country 0.13874617488867677
LG@@ 0.4734915827212655
Pul@@ 0.18467278469144652
Sle@@ 0.39358156081701184
ego 0.17572263620655834
pan@@ 0.05857905382224566
Εμμαν@@ 1
1341 1
1360 1
1617 1
176 0.811978129770426
275 0.8340836410484747
Hat@@ 0.20119378014417874
Ing@@ 0.12162813272451647
Pix@@ 0.7413634779556746
Vit@@ 0.16810246883996663
org@@ 0.1462332694729488
ota 0.08245908023479569
ć 0.1454432828764598
1402 1
1471 1
1555 1
1759 0.7365270532738679
218 0.9103892086115463
35,@@ 0.772715577084206
CS 0.223608054586532
IG@@ 0.37550981056979
Kir@@ 0.10952140936739338
Saturn 0.7293626180385326
act@@ 0.12465774590277963
icum 0.48429155084319525
С@@ 0.0279366286642637
н@@ 0.03683376400123286
Bau@@ 0.040101780952129754
Cambridge 0.12680011452849757
DV@@ 0.39550399430479066
Got 0.6165484775924435
H. 0.08455870375890175
NP 0.6745153407164018
RIAA 1
Shi@@ 0.13847425695606075
Var@@ 0.12008900334419188
ag 0.13129089654059745
mac@@ 0.14268721540301954
sz@@ 0.21593214926303617
1485 1
1622 1
1716 1
630 1
Et@@ 0.10586077829414961
Oc@@ 0.14203699906148884
Take 0.5080577024115145
Tour@@ 0.0958580743912016
ader 0.11397984935344661
anti 0.05925552374349839
ente 0.02242551580418398
ves 0.03384406603352775
υναμ@@ 1
404 1
Ash@@ 0.10255514557775287
Hi@@ 0.15431441407070182
Jon 0.29416179022896
ault 0.10187422996490465
cal@@ 0.05327395229429867
ger@@ 0.03248062448949665
és 0.009898988749330977
ę@@ 0.21734559890525051
μέθ@@ 1
1371 1
Bell@@ 0.189174463601921
Collection 0.30530738941036073
Deb@@ 0.12761216942405956
EN 0.5720624467033251
Five 0.19408380782801019
Francis 0.1049909060074992
Franz 0.10798428329486716
HS 0.4440437531125585
LM 0.6557486161836447
Memorial 0.13920975873520092
Modern 0.17247001869277248
O4 1
Siemens 0.7081090025424978
Square 0.15698743469106713
Stre@@ 0.10663468036355592
bank 0.07511721270738603
mes 0.05268940943656071
war@@ 0.029092442208413782
οιω@@ 1
οξυγ@@ 1
1463 1
1522 1
153 0.7022995168752091
1624 1
1754 0.7722214424588373
179 0.9231525189352239
Fe 0.3034864365011461
Gri@@ 0.20027688283221717
Law 0.08111104102030886
Michel 0.11562899309660538
Sen@@ 0.08259201871503863
bus@@ 0.08533056295591529
m2 1
ston 0.14455468049236095
zy 0.32920984314472196
š 0.25191388364917
ρίζουμε 1
1483 1
1534 1
1601 1
1643 1
2023 0.5831815368430692
Cloud 0.463583112769645
MIT 0.5499665166796482
Racing 0.16083655800125418
TH@@ 0.4389174164298451
bel@@ 0.040139254847345325
lum 0.16196796361735363
1320 1
139 0.6731718871430575
1410 1
1464 1
1499 1
1615 1
870 1
BSD 1
Edition 0.32091985025979364
Judas 1
Maj@@ 0.13857382752388964
Motor 0.1746223203150898
Ober@@ 0.03243237418434409
rec@@ 0.026584292931297788
ste@@ 0.03889789571110192
1490 1
1494 1
159 0.7943458040568171
1634 0.9809818439370929
1742 0.8175143426688504
183 0.8151925266970772
470 0.9816613412964155
680 1
Age 0.1982392233407286
Anthony 0.14365881908874634
Fri@@ 0.1175469548358306
Mem@@ 0.18057684294751936
There 0.020160243645838394
aha 0.18117994888382233
ally 0.01541404099322875
bas@@ 0.03938013247923944
class 0.041318893060379926
cop@@ 0.08968420368383419
gre@@ 0.10993438145768218
icon 0.3109413139884251
inter@@ 0.01443535988625447
olo 0.1756543471086745
super@@ 0.04479807203247513
tig@@ 0.060459014762156656
Ή 1
κατόρθ@@ 1
ομάδ@@ 1
1517 1
1565 1
1588 1
204 0.8007195387406265
Cav@@ 0.1783518429749715
ER 0.3593918942166098
EU@@ 1
Ice 0.27263345730539845
Lib@@ 0.15621717355214232
Nature 0.291439158580316
TC 0.19543759794784618
bach 0.05304732180591175
ids 0.057856228029444456
our@@ 0.08331974145821497
yd@@ 0.15631980372916113
171 0.812037544945399
4,6 1
B1 1
BF 1
Church 0.03452860549971173
Hav@@ 0.17791171091864352
Reichs@@ 0.13249852899314304
Ric@@ 0.23968461297164062
Vel@@ 0.1362364105653628
black 0.05702983661557549
oz@@ 0.09362941625955638
ւ@@ 1
1479 1
1574 1
1633 1
1721 0.919750515548762
1723 0.8958342143547845
20th 0.09550476241201673
216 0.9001421451763991
232 0.8882883335600057
312 1
Action 0.22896960368122513
Album 0.07897416213375757
Allmusic 1
Fac@@ 0.1586937425163332
Fourier 1
Hz 1
ID 0.3304034344953498
IL 0.33406923303387764
eau 0.041672737189514655
master 0.08816360553396237
spin 0.33934324008175887
tive 0.03504289784666198
ηχαν@@ 1
μνες 1
1230 1
1592 1
1709 0.9646331357390079
4x@@ 1
Hermann 0.16269147016089525
Let@@ 0.19964214439507338
Nik@@ 0.1645506441111002
Vol 0.5873066058170191
aga 0.096858894445581
aus 0.00579916980420091
book 0.02751918120719011
inn@@ 0.06736464335674142
lio 0.2753146398796721
ē@@ 0.5776103275318936
1349 1
1474 1
1629 0.9882219783412662
1717 0.8947677531696068
1761 0.7175920011193364
189 0.8844150098195444
780 1
App@@ 0.15592023473849695
GmbH 0.17018018072369212
Greatest 0.5718087206746898
SV@@ 0.618487630315225
T. 0.12142038908312211
iTunes 0.513421700890572
inf@@ 0.04840248171962501
ασκευ@@ 1
αφος 1
Ἑ@@ 1
1260 1
1498 1
1524 1
172 0.7694587189644762
1741 0.8174933443142941
EC 0.27059873826465053
Kom@@ 0.05998414414932296
Mod@@ 0.13878152435725585
Storm 0.3016063721241979
zu 0.0039040888728412745
1692 1
196 0.8585404194371251
880 1
Fle@@ 0.16732039287875103
Lang@@ 0.07438775370767838
NT@@ 0.39234716970774186
Poly@@ 0.16319577411495337
Pot@@ 0.11971378201579327
Prac@@ 0.49184573673016385
aris 0.32085960814380515
vs 0.4549202296342601
yo 0.12991211098620978
157 0.7523391427627893
33.@@ 0.6803118440049793
ABA 0.9052345674190985
Den@@ 0.1075889570989118
Dream@@ 0.6246781025443444
Harry 0.10947992259968703
Lac@@ 0.18198137416603666
Moore 0.15527226439477576
Smo@@ 0.4277535916669918
ages 0.02553197555098407
fa@@ 0.06287377418108903
ison 0.07265976457170682
αρμο@@ 1
ηλανδ@@ 1
1532 1
221 0.8505346081126984
301 0.7177035021653841
Hand@@ 0.08208933494880993
NT 0.6539544939157108
Prot@@ 0.0828217988618542
Side 0.28891635803046795
eu 0.08712222698548122
imo 0.23801996810274245
ses 0.009720365506264032
zen 0.04951208528136637
Έγ@@ 1
0,4 1
1455 1
1528 1
188 0.7870912306681639
335 1
Aut@@ 0.10486232703475004
Chan@@ 0.30668204248849174
Da@@ 0.16257886975689137
Metro 0.17965457126636494
PL 0.6151333879358607
Ξεκίν@@ 1
πρόσφυγ@@ 1
1656 1
1658 1
Cast@@ 0.2126675390158797
Gold 0.10124342248674087
Lit@@ 0.13514997554889543
MW 0.39627651931414287
Nacional 0.055492855105512835
OR@@ 0.40821683209777315
Pit@@ 0.18256437633685033
Pos@@ 0.16024977960246056
alt@@ 0.05744904180876048
ango 0.18043387182142254
arius 0.32796280692473734
hom@@ 0.049306652836579236
mal@@ 0.04394499648549738
sol@@ 0.033530366476606406
Καθε@@ 1
λάμ 1
στελ@@ 1
1390 1
1703 0.9744318997593103
1704 0.9285338437200984
203 0.7075088313808117
Alliance 0.17287262064982298
Circle 0.38550713507357315
Ev@@ 0.15635789545601578
Hoffmann 0.6255705307622336
IL@@ 0.461069139976965
Japan 0.040222215987418125
Next 0.3234146334955132
Oxford 0.10422291503142464
PT@@ 0.4491962371114171
etto 0.24470063237396
1280 1
209 0.8366535753193224
3,1 1
CF@@ 0.3172411126998387
DR 0.26739590203640967
Edge 0.46489099023578145
File 1
Ky@@ 0.13236768386521675
SN 0.7170607124398939
Sto@@ 0.12814039595131396
Sus@@ 0.14485718049209656
Ultimate 0.53205126097431
Valley 0.07092582636178045
studio 0.05142630089098461
Πέτ@@ 1
1708 0.8931464491716953
1748 0.7615919101835013
2.5 0.25882832404753564
355 1
580 1
EP@@ 0.35501214867107256
Films 0.18330053101781182
Italia 0.13439857238532374
Run 0.2985436092976278
ards 0.05774098048651499
can 0.009995720010029605
eder@@ 0.09296882451122744
1476 1
1508 1
1619 1
178 0.8014967606259308
303 0.8512232791001229
510 1
BD 0.49884930429003455
Cir@@ 0.19839291012050678
Council 0.03398162650078662
Nic@@ 0.17121450716051467
Rus@@ 0.08663587917504548
ady 0.14103626988673398
arg@@ 0.09579714753265352
aster 0.14472192454365412
out@@ 0.035741950159837305
λίμ@@ 1
1584 1
199 0.883867014907982
476 1
@ 0.5939570740521125
Carlo 0.25340100027386825
Forum 0.2789327525289798
Lis@@ 0.19538146720923932
Long@@ 0.14756955313580977
PSA 1
bits 0.35341337675004025
ever 0.040697227124235354
hr@@ 0.08416267992371422
kar@@ 0.06373360700977901
pa@@ 0.13449442316007584
1597 1
[...]
