. 0.9111439402643768
، 1
في 1
من 1
على 1
( 1
) 1
إلى 1
&quot; 0.409541581443576
ب@@ 1
وال@@ 1
ل@@ 1
لل@@ 1
أن 1
عام 1
ي@@ 1
هو 1
و@@ 1
التي 1
مع 1
ك@@ 1
و 1
: 1
عن 1
أو 1
أ@@ 1
الم@@ 1
ه 1
ت@@ 1
كان 1
ف@@ 1
ه@@ 1
ما 1
الت@@ 1
ين 1
ها 1
ي 1
وي@@ 1
وت@@ 1
هي 1
بعد 1
ية 1
المتحدة 1
غ@@ 1
الأ@@ 1
بين 1
« 1
» 1
ح@@ 1
ة 1
الذي 1
الح@@ 1
ذلك 1
هذه 1
وم@@ 1
تم 1
د@@ 1
لا 1
هذا 1
ع@@ 1
ز@@ 1
ج@@ 1
- 1
إ@@ 1
لي@@ 1
ش@@ 1
ال@@ 1
ان 1
بي@@ 1
حيث 1
كانت 1
ولد 1
ط@@ 1
سي@@ 1
ق@@ 1
الع@@ 1
ًا 1
وأ@@ 1
هم 1
م@@ 1
ص@@ 1
@-@ 0.1574864566904761
ت 1
ون 1
ات 1
قبل 1
الس@@ 1
وقد 1
س@@ 1
خلال 1
الف@@ 1
الولايات 1
ن@@ 1
ري@@ 1
الق@@ 1
م 1
في@@ 1
والم@@ 1
وب@@ 1
مي@@ 1
بن 1
كما 1
رو@@ 1
الج@@ 1
ك 1
ان@@ 1
الك@@ 1
ر@@ 1
وا@@ 1
دي@@ 1
وفي 1
سنة 1
ى 1
ا 1
ث@@ 1
را@@ 1
قد 1
ب 1
لم 1
لا@@ 1
ق 1
له 1
الإ@@ 1
خ@@ 1
غير 1
ين@@ 1
ته 1
الب@@ 1
ور@@ 1
الش@@ 1
مثل 1
ف 1
ض@@ 1
كل 1
الن@@ 1
وهو 1
دي 1
ر 1
ون@@ 1
س 1
عدد 1
الخ@@ 1
ل 1
/ 1
ول@@ 1
حتى 1
الص@@ 1
ز 1
ع 1
كرة 1
ير 1
د 1
ال 1
لة 1
ست@@ 1
اً 1
ار@@ 1
ثم 1
است@@ 1
رة 1
ح 1
لو@@ 1
بة 1
وق@@ 1
مة 1
لاعب 1
بعض 1
المملكة 1
دة 1
تي@@ 1
تر@@ 1
من@@ 1
تش@@ 1
وس@@ 1
ن 1
ني@@ 1
ار 1
تح@@ 1
الد@@ 1
أكثر 1
أمريكي 1
عة 1
يمكن 1
مع@@ 1
يا 1
الر@@ 1
وك@@ 1
ج 1
وهي 1
بي 1
مو@@ 1
لها 1
أنه 1
ذ@@ 1
لي 1
ّ@@ 1
– 0.64263235669865
يات 1
بشكل 1
أن@@ 1
% 0.9996877802568879
مت@@ 1
سي 1
وج@@ 1
تها 1
أي 1
يل 1
بر@@ 1
ام@@ 1
قدم 1
ط 1
اء 1
اب@@ 1
رات 1
بال@@ 1
الط@@ 1
مدينة 1
ور 1
؛ 1
وكان 1
المع@@ 1
العديد 1
تع@@ 1
يد 1
قة 1
عبد 1
بها 1
يت@@ 1
وا 1
مح@@ 1
تق@@ 1
لات 1
بو@@ 1
, 0.015314237972486195
يتم 1
جي@@ 1
تم@@ 1
حة 1
الغ@@ 1
كي@@ 1
أخرى 1
مر@@ 1
اني 1
1 0.7441974978512469
اد@@ 1
اله@@ 1
ول 1
والتي 1
ش 1
أول 1
تف@@ 1
ث 1
به 1
تي 1
القرن 1
وح@@ 1
فيها 1
المح@@ 1
ات@@ 1
حسب 1
غ 1
تحت 1
ومن 1
مارس 1
نادي 1
ما@@ 1
الأول 1
مجلس 1
زي@@ 1
فة 1
عندما 1
هناك 1
عشر 1
ولكن 1
اد 1
وص@@ 1
بن@@ 1
با@@ 1
ُ@@ 1
قي@@ 1
بسبب 1
مركز 1
مي 1
العالم 1
ام 1
محمد 1
هي@@ 1
الي@@ 1
وف@@ 1
2 0.738759997660789
ص 1
الذين 1
منها 1
ري 1
مار@@ 1
رية 1
يين 1
فر@@ 1
منذ 1
يكون 1
الله 1
بع@@ 1
اع@@ 1
ود@@ 1
3 0.8755277144480085
الأولى 1
أحد 1
ني 1
وع@@ 1
الز@@ 1
لعب 1
تو@@ 1
شي@@ 1
إي@@ 1
وتوفي 1
العام 1
جميع 1
عند 1
نا@@ 1
دية 1
ير@@ 1
اس@@ 1
أيضًا 1
تك@@ 1
مرة 1
منطقة 1
بح@@ 1
نسمة 1
جامعة 1
انية 1
آ@@ 1
لية 1
تص@@ 1
نة 1
2004 1
يُ@@ 1
دون 1
اف@@ 1
بية 1
حول 1
تكون 1
الاست@@ 1
مان 1
الحرب 1
مست@@ 1
الث@@ 1
الأمريكية 1
مق@@ 1
ند@@ 1
مص@@ 1
َ@@ 1
تن@@ 1
مايو 1
رين 1
مس@@ 1
ّ 1
وي 1
علي 1
بار@@ 1
المت@@ 1
مجموعة 1
المست@@ 1
ا@@ 1
يوم 1
تلك 1
اب 1
تج@@ 1
يناير 1
شركة 1
دا 1
فبراير 1
عمل 1
وس 1
4 0.8610117770538337
كي 1
تين 1
ائ@@ 1
أبريل 1
ولا 1
اي@@ 1
بل@@ 1
َّ@@ 1
أكتوبر 1
مج@@ 1
أنها 1
اس 1
عد@@ 1
فقد 1
إلا 1
بد@@ 1
مية 1
ود 1
&#93; 1
الثاني 1
دا@@ 1
مل@@ 1
&#91; 1
سل@@ 1
بـ 1
ِ@@ 1
يونيو 1
سك@@ 1
أس@@ 1
العمل 1
يوليو 1
سياسي 1
سن@@ 1
ديسمبر 1
لت@@ 1
المن@@ 1
عضو 1
هما 1
5 0.9383437582977072
ارة 1
وإ@@ 1
بت@@ 1
سبتمبر 1
يقع 1
لكرة 1
نا 1
العربية 1
مما 1
فيه 1
حي@@ 1
علم 1
عل@@ 1
لت 1
الية 1
المص@@ 1
عليه 1
سب@@ 1
المدينة 1
يق@@ 1
تا@@ 1
نوفمبر 1
القدم 1
يع@@ 1
فية 1
فإن 1
كار@@ 1
الة 1
6 0.96793969382317
بدأ 1
رئيس 1
يو@@ 1
ولاية 1
رت 1
وري 1
إن 1
أغسطس 1
والأ@@ 1
ارات 1
تُ@@ 1
ضد 1
عي 1
عدة 1
نو@@ 1
طريق 1
ظ@@ 1
يه 1
أر@@ 1
وية 1
فقط 1
ض 1
الأخرى 1
ذات 1
10 0.9529296150127765
خ 1
مش@@ 1
الوقت 1
مك@@ 1
وم 1
لك@@ 1
المر@@ 1
تخ@@ 1
اك@@ 1
أما 1
مد@@ 1
إحدى 1
الي 1
الل@@ 1
قية 1
.@@ 1
أكبر 1
باسم 1
ورة 1
نظام 1
الض@@ 1
المنطقة 1
يس 1
عم@@ 1
جن@@ 1
وش@@ 1
بط@@ 1
يك@@ 1
بما 1
ده 1
كت@@ 1
تا 1
مه@@ 1
برا@@ 1
إذا 1
لق@@ 1
حالة 1
الحزب 1
قام 1
بإ@@ 1
استخدام 1
دت 1
بات 1
ةً 1
أل@@ 1
سون 1
وكانت 1
عليها 1
فو@@ 1
وذلك 1
دو@@ 1
آخر 1
عية 1
دين 1
حين 1
ئ@@ 1
الرغم 1
عبر 1
لكن 1
والذي 1
كبير 1
فا@@ 1
أيضا 1
يت 1
جون 1
لح@@ 1
يم 1
7 0.9750440627863597
حوالي 1
ٍ 1
أم@@ 1
برو@@ 1
اسم 1
نفس 1
الرسمي 1
8 0.9900352874335572
عملية 1
لإ@@ 1
الثانية 1
كة 1
در@@ 1
عات 1
يًا 1
الان@@ 1
مت 1
بر 1
مر 1
واحد 1
20 1
يون 1
الو@@ 1
مقاطعة 1
ائية 1
وه@@ 1
الحكومة 1
جو@@ 1
راء 1
بري@@ 1
مُ@@ 1
كم 1
سو@@ 1
تاريخ 1
ضمن 1
جهة 1
نية 1
بالت@@ 1
بالإضافة 1
أي@@ 1
مواليد 1
ونادي 1
جي 1
اش@@ 1
دات 1
سن 1
15 1
فترة 1
ولة 1
وجود 1
12 1
العامة 1
لف@@ 1
المس@@ 1
داخل 1
فيلم 1
كس 1
يقدر 1
المق@@ 1
اق@@ 1
تد@@ 1
وز@@ 1
الوطني 1
ئة 1
أثناء 1
بور@@ 1
بل 1
ادة 1
نق@@ 1
اري 1
اف 1
تب@@ 1
; 0.17291258689630443
ّة 1
كر@@ 1
مات 1
اح@@ 1
ينتمي 1
المغربية 1
را 1
للسكان 1
والإ@@ 1
إن@@ 1
شر@@ 1
نوع 1
مون 1
تقع 1
الآ@@ 1
اه@@ 1
تضم 1
سم@@ 1
شارك 1
9 1
واحدة 1
بينما 1
اته 1
ابة 1
دور 1
19 1
الدولة 1
رون 1
سة 1
قال 1
العالمية 1
مؤ@@ 1
جنوب 1
تس@@ 1
لين 1
لأ@@ 1
نج@@ 1
لسنة 1
انتخب 1
الاتحاد 1
يست@@ 1
وغ@@ 1
از@@ 1
كبيرة 1
ست 1
11 1
عين 1
اليوم 1
غي@@ 1
نسبة 1
كو@@ 1
نحو 1
درجة 1
بلغ 1
نشط 1
أجل 1
2010 0.8377365968187903
يني 1
اة 1
بأن 1
رب 1
وقت 1
التعليم 1
ومع 1
الملك 1
ائي 1
طة 1
إقليم 1
سنوات 1
الخاصة 1
مين 1
الإحصاء 1
المج@@ 1
السي@@ 1
الرا@@ 1
للأ@@ 1
مصر 1
30 1
رب@@ 1
هـ 1
خط@@ 1
أصبح 1
سية 1
حر@@ 1
ينا 1
يح@@ 1
بت 1
حد 1
16 1
مان@@ 1
14 1
أ 1
سين@@ 1
سم 1
موسم 1
أخ@@ 1
ثة 1
كل@@ 1
وان@@ 1
ابن 1
البي@@ 1
ء 1
اج@@ 1
دو 1
ترا@@ 1
ادي 1
دار 1
جة 1
معظم 1
كية 1
ولم 1
18 1
ـ@@ 1
الحياة 1
تت@@ 1
يو 1
والسكنى 1
الفترة 1
أص@@ 1
الجيش 1
فل@@ 1
ولدت 1
بطولة 1
ذ 1
عي@@ 1
حزبياً 1
انا 1
فرنسا 1
عت 1
الوطنية 1
كون@@ 1
َ 1
حص@@ 1
25 1
17 1
تز@@ 1
وض@@ 1
منتخب 1
مل 1
التح@@ 1
2013 0.9761863383168808
وط@@ 1
ثلاثة 1
13 1
أُ@@ 1
عرض 1
عمر 1
أك@@ 1
اط@@ 1
فيما 1
أد@@ 1
فت@@ 1
فق@@ 1
بق@@ 1
بني 1
ولا@@ 1
مز@@ 1
الذ@@ 1
فر 1
نهاية 1
قي 1
المُ@@ 1
مه 1
حي 1
تون 1
شكل 1
نس@@ 1
المش@@ 1
الدين 1
راً 1
حزب 1
وب 1
سر 1
نف@@ 1
يبلغ 1
الأرض 1
لو 1
اتها 1
21 1
فات 1
أبو 1
ابات 1
المؤ@@ 1
مها 1
التاريخ 1
كر 1
إل@@ 1
قر@@ 1
وبعد 1
ُ 1
مب@@ 1
&amp; 0.4525373813287996
يم@@ 1
واست@@ 1
آيت 1
مث@@ 1
زي 1
كا 1
بريطاني 1
2009 0.9059250031188161
وتح@@ 1
يش@@ 1
تهم 1
لاً 1
فري@@ 1
مليون 1
مون@@ 1
أح@@ 1
نش@@ 1
دها 1
2007 0.9556908237556153
شا@@ 1
الفيلم 1
ألمانيا 1
شمال 1
حصل 1
2008 0.8929632134905667
الدوري 1
أحمد 1
مض@@ 1
بالم@@ 1
عادة 1
ته@@ 1
وت 1
اص@@ 1
قد@@ 1
هار@@ 1
خاصة 1
يف 1
24 1
والح@@ 1
طر@@ 1
دًا 1
شار@@ 1
سان 1
وار 1
يجب 1
مختلفة 1
حية 1
ادات 1
الآن 1
بدأت 1
طل@@ 1
بناء 1
فت 1
ليس 1
وات 1
كتاب 1
صي@@ 1
اللغة 1
عدم 1
لان@@ 1
از 1
سكانها 1
2016 0.8658172865894618
الأمريكي 1
وعلى 1
الثالث 1
لعام 1
وما 1
توفي 1
تل@@ 1
المركز 1
مف@@ 1
ولي@@ 1
لب 1
جر@@ 1
يوجد 1
إنتاج 1
نظ@@ 1
خي@@ 1
فريق 1
ظهر 1
كأس 1
السكان 1
نفسه 1
2006 0.9185634440116759
لمدة 1
كتب 1
حركة 1
سكانه 1
إذ 1
عر@@ 1
لين@@ 1
23 1
ينة 1
البر@@ 1
بأ@@ 1
جديدة 1
22 1
بش@@ 1
زة 1
2011 0.7370500500191554
ولي 1
ورية 1
كو 1
برنامج 1
الشيخ 1
عه 1
لم@@ 1
عب@@ 1
سين 1
أث@@ 1
اغ@@ 1
دير 1
بجماعة 1
النظام 1
لدى 1
أنواع 1
تو 1
إدارة 1
ئ 1
أيضاً 1
ضة 1
يف@@ 1
ِّ@@ 1
سكان 1
قرية 1
النا@@ 1
قانون 1
الدوّار 1
أفضل 1
لمشيخة 1
وف 1
دُوَّار 1
قص@@ 1
وكذلك 1
القوات 1
شه@@ 1
وار@@ 1
جر 1
الرئيس 1
تل 1
أوروبا 1
الكويكب 1
انة 1
ره 1
سر@@ 1
بان@@ 1
بول@@ 1
قب@@ 1
لال 1
المه@@ 1
مباراة 1
تر 1
كان@@ 1
ينية 1
مجال 1
2012 0.7519577273884476
وتع@@ 1
كلي@@ 1
منه 1
شع@@ 1
شخص 1
او@@ 1
خر@@ 1
در 1
وث@@ 1
محافظة 1
مدرسة 1
داً 1
الأطفال 1
با 1
أمريكية 1
أصبحت 1
منصب 1
كندا 1
القانون 1
التع@@ 1
يل@@ 1
الات 1
الرئيسي 1
كلية 1
دولة 1
المناطق 1
سبيل 1
منظمة 1
ارية 1
بين@@ 1
ذكر 1
وفي@@ 1
خص@@ 1
البلاد 1
اض@@ 1
الفر@@ 1
تض@@ 1
الجديدة 1
النساء 1
وتم 1
قه 1
المط@@ 1
الأس@@ 1
نشر 1
قل 1
26 1
عالم 1
2000 0.9343765343963133
مط@@ 1
سا@@ 1
الشمالية 1
كام@@ 1
دار@@ 1
27 1
اث@@ 1
مسيرته 1
ؤ@@ 1
القديمة 1
للإ@@ 1
الشركة 1
28 1
الدولي 1
الفي@@ 1
لهم 1
الدولية 1
الأر@@ 1
رج@@ 1
شرق 1
أه@@ 1
_ 0.7692059907875446
مغ@@ 1
سلسلة 1
يب 1
ينات 1
للا@@ 1
هر 1
طي@@ 1
غري@@ 1
رار 1
ثلاث 1
الدي@@ 1
البحر 1
بواسطة 1
الكثير 1
نه@@ 1
الغربية 1
أعمال 1
داء 1
دد 1
وله 1
أقل 1
2015 0.7133730297215841
بداية 1
موقع 1
قائمة 1
قائ@@ 1
ثر 1
طلب 1
نيويورك 1
قط@@ 1
الناس 1
أو@@ 1
ومن@@ 1
ضع 1
مور@@ 1
جانب 1
2014 0.6945365354007857
السل@@ 1
العربي 1
قل@@ 1
2005 0.9197934948763135
عاماً 1
عها 1
الدول 1
مستوى 1
اخت@@ 1
دف@@ 1
َّة 1
أعلى 1
الاسم 1
وحدة 1
نقل 1
ورا@@ 1
فوق 1
الإنسان 1
الأعمال 1
زيادة 1
فاز 1
فين 1
جائزة 1
نز@@ 1
كانوا 1
اللا@@ 1
دولار 1
درا@@ 1
تتبع 1
صة 1
بلا@@ 1
الأح@@ 1
الهند 1
لان 1
دائرة 1
الطاقة 1
تور@@ 1
يلعب 1
المف@@ 1
يه@@ 1
تست@@ 1
ياً 1
الأمر 1
صح@@ 1
دان 1
-@@ 1
المثال 1
المياه 1
لف 1
وري@@ 1
المغ@@ 1
حياته 1
المي@@ 1
المجلس 1
وخ@@ 1
سع@@ 1
ادية 1
29 1
الدفاع 1
وتق@@ 1
وضع 1
عد 1
شهر 1
وزارة 1
الاجتماعية 1
لاند 1
لأن 1
وني 1
كور@@ 1
أغ@@ 1
كري@@ 1
بات@@ 1
المجتمع 1
وهذا 1
يكن 1
باستخدام 1
وسي@@ 1
جية 1
شي 1
زا 1
الرئيسية 1
إعادة 1
العشرين 1
لوا 1
يان 1
نتيجة 1
انتقل 1
مخ@@ 1
اق 1
تصنيف 1
اع 1
البل@@ 1
العسكرية 1
دراسة 1
انت@@ 1
عم 1
الجنوبية 1
بالإ@@ 1
ممثل 1
ْ@@ 1
يون@@ 1
أمريكا 1
المرأة 1
وين@@ 1
سان@@ 1
المز@@ 1
الأكثر 1
وة 1
منهم 1
هد 1
باء 1
السياسية 1
يك 1
الكتاب 1
رف 1
لكل 1
جوائز 1
المد@@ 1
بيل 1
مرا@@ 1
اله 1
الرو@@ 1
موا@@ 1
كن 1
جمهورية 1
خارج 1
&apos; 0.13696951977489735
الفرنسية 1
الدم 1
أش@@ 1
اي 1
نص@@ 1
القي@@ 1
رقم 1
تغ@@ 1
جه@@ 1
وبة 1
يس@@ 1
داد 1
قامت 1
= 0.9237870554193967
رها 1
أق@@ 1
هر@@ 1
رس@@ 1
حل 1
الصين 1
لذلك 1
ترو@@ 1
الشرقية 1
2003 0.9892491489388056
2020 0.7292141879289248
الجديد 1
لهذا 1
دون@@ 1
سب 1
يعتبر 1
جمع 1
الألعاب 1
حالات 1
الأم@@ 1
أمام 1
المخ@@ 1
ألف 1
جورج 1
بالنسبة 1
2017 0.6495131013022252
ميل 1
قسم 1
حرب 1
حياة 1
السعودية 1
الجن@@ 1
٪ 1
وجه 1
جين 1
اليد 1
عق@@ 1
سام@@ 1
التر@@ 1
المعلومات 1
جمعية 1
يلي 1
تأ@@ 1
حد@@ 1
اللي@@ 1
يري 1
قات 1
تعتبر 1
كن@@ 1
يخ@@ 1
أولاد 1
أدى 1
الحكم 1
يز@@ 1
تستخدم 1
حات 1
غرب 1
السابق 1
رام 1
وسط 1
اخ@@ 1
البريطانية 1
الحركة 1
كذلك 1
مال@@ 1
متر 1
ملك 1
جزء 1
بأنه 1
والع@@ 1
أشهر 1
به@@ 1
روس 1
فه 1
لندن 1
جان 1
أربعة 1
فا 1
كون 1
الإسلامية 1
التالية 1
بير@@ 1
فور@@ 1
عص@@ 1
خط 1
هة 1
غرا@@ 1
كريكت 1
إنشاء 1
بيت 1
يز 1
تط@@ 1
أور@@ 1
تطوير 1
8@@ 1
نت 1
ذا 1
جو 1
الشرق 1
عائلة 1
جان@@ 1
هدف 1
والت@@ 1
نهر 1
روا@@ 1
المنا@@ 1
وصل 1
أف@@ 1
أصل 1
أستراليا 1
جيمس 1
عبارة 1
ينيات 1
شو@@ 1
مكان 1
كندي 1
دين@@ 1
تقدم 1
حكم 1
دائ@@ 1
أهم 1
فار@@ 1
وى 1
التالي 1
وبالتالي 1
يستخدم 1
قو@@ 1
فن 1
يقوم 1
سبب 1
العليا 1
بير 1
باب 1
بار 1
خرج 1
دع@@ 1
العراق 1
القر@@ 1
ريك@@ 1
التق@@ 1
الصحة 1
ئات 1
عمليات 1
كول@@ 1
فض@@ 1
بول 1
رًا 1
إس 1
هيئة 1
صل 1
سط@@ 1
2002 0.8715133142123772
السنة 1
كويكبات 1
المواد 1
قوة 1
سجل 1
ند 1
تعداد 1
2018 0.5713604409281552
عُ@@ 1
.. 1
ممثلة 1
المرا@@ 1
كين 1
لون 1
... 1
ارت 1
اوي 1
بع 1
مرض 1
هام 1
مشروع 1
رجل 1
الجزء 1
دوار 1
قاعدة 1
العاصمة 1
عنه 1
31 1
الجامعة 1
نين 1
الخلايا 1
حت@@ 1
نت@@ 1
حكومة 1
عب 1
تعل@@ 1
أفريقيا 1
طول 1
الجمعية 1
جزيرة 1
أع@@ 1
يق 1
أعضاء 1
للح@@ 1
أمر 1
روا 1
تري@@ 1
يني@@ 1
جل@@ 1
لك 1
التص@@ 1
اتهم 1
قصة 1
انيا 1
بص@@ 1
شر 1
مذ@@ 1
ِ 1
الاس@@ 1
قرار 1
2019 0.5959123430274536
طية 1
خت@@ 1
الماء 1
صر 1
عش@@ 1
ندي 1
توجد 1
ضي@@ 1
صغيرة 1
2001 0.8364501646792001
القرية 1
لأول 1
ماء 1
تعلم 1
الحديث 1
عهد 1
بالق@@ 1
إليه 1
العلمي 1
حدث 1
ويمكن 1
التاسع 1
تشمل 1
اما 1
مناطق 1
تحديد 1
كوم@@ 1
ء@@ 1
100 0.7957550329765073
اذ@@ 1
مجلة 1
فق 1
أنحاء 1
الشخصية 1
يعمل 1
المختلفة 1
وأن 1
الفرنسي 1
امة 1
الجزائر 1
ويل 1
أهل 1
جل 1
وفق 1
العلوم 1
الديمقراطي 1
معركة 1
عقد 1
وسياسي 1
وزير 1
قت 1
التابعة 1
ترك 1
البحرية 1
الرابع 1
طي 1
الحالات 1
تعمل 1
7@@ 0.9994546919095453
المجموعة 1
العصر 1
امي 1
مرحلة 1
بالأ@@ 1
النوع 1
درس 1
جديد 1
النق@@ 1
سطح 1
دن 1
ائل 1
الموقع 1
ٌ 1
يرا 1
كرا@@ 1
لاح@@ 1
قين 1
ناء 1
ناد@@ 1
قوات 1
المدرسة 1
بان 1
فيروس 1
دعم 1
دور@@ 1
ويليام 1
الخاص 1
الأخيرة 1
حقوق 1
البط@@ 1
واق@@ 1
عيد 1
ونية 1
التجارية 1
وَ@@ 1
طف@@ 1
ارد 1
مختلف 1
إسبانيا 1
كاتب 1
انه 1
لق 1
دل 1
توضيح 1
ضية 1
نى 1
سل 1
المث@@ 1
فرا@@ 1
كين@@ 1
إضافة 1
الألمانية 1
الدراسات 1
هن 1
ريا 1
المحلية 1
اتي 1
الظ@@ 1
جار 1
الاجتماعي 1
روسيا 1
إيطاليا 1
اليابان 1
تمثل 1
لويس 1
أنهم 1
تقوم 1
العق@@ 1
وفر 1
افة 1
الشمس 1
وفقًا 1
مًا 1
الخارجية 1
شخصية 1
العملية 1
المك@@ 1
ملا@@ 1
أفلام 1
البعض 1
العظمى 1
الأشخاص 1
ليل 1
سيا 1
قبة 1
ادل 1
امية 1
رق@@ 1
اه 1
دورة 1
معه 1
الخط@@ 1
اتحاد 1
تأثير 1
البحث 1
زم 1
دم 1
يؤدي 1
وسائل 1
طن 1
مصطلح 1
ـ 1
بك@@ 1
جرا@@ 1
وادي 1
اوية 1
نطاق 1
وغيرها 1
وان 1
والد@@ 1
الفريق 1
باً 1
سا 1
إليها 1
فورد 1
زل 1
اسية 1
العلاج 1
ظهرت 1
ظهور 1
الهجوم 1
أس 1
رك@@ 1
فان 1
وفاة 1
الوسط 1
المغرب 1
دى 1
جه 1
اح 1
طور 1
سات 1
كات@@ 1
أة 1
آل 1
يّة 1
اك 1
والده 1
عاد 1
دول 1
9@@ 0.9864125327686178
ارا 1
له@@ 1
سام 1
ورد 1
العالمي 1
ديد 1
لغ@@ 1
شك@@ 1
النواب 1
نظرية 1
طريقة 1
وتر@@ 1
حت 1
هام@@ 1
الحديثة 1
ائر 1
الأراضي 1
ولها 1
بس@@ 1
خو@@ 1
الشمال 1
فين@@ 1
وحتى 1
سيدي 1
الأساسية 1
1999 0.8309217975050324
الملكية 1
دخل 1
خل@@ 1
ةٍ 1
الكبير 1
صدر 1
أج@@ 1
باريس 1
العمر 1
الأمير 1
الثورة 1
البرو@@ 1
رو 1
الجسم 1
ماك@@ 1
نات 1
يش 1
الجنوب 1
مار 1
معسكر 1
البا@@ 1
الحصول 1
تحتوي 1
وصف 1
أم 1
اسي 1
مؤسسة 1
يعد 1
سابقاً 1
أيام 1
متوسط 1
بالك@@ 1
الكنيسة 1
10@@ 1
لام 1
لديها 1
تان 1
فرقة 1
أواخر 1
دوري 1
الأوروبي 1
الانتخابات 1
تمت 1
فها 1
ستون 1
الام@@ 1
الحيوانات 1
بغ@@ 1
شبكة 1
كثير 1
آسيا 1
اية 1
ستر 1
عامي 1
الجزيرة 1
تصل 1
بوت@@ 1
6@@ 0.9859133790597917
نور@@ 1
زية 1
عامة 1
طرق 1
أول@@ 1
خار@@ 1
50 0.8614547380220847
سير 1
بط 1
الدرجة 1
الميلاد 1
مام 1
الجوية 1
غل 1
خدمة 1
حسن 1
1998 0.8788778359466447
ريك 1
روبرت 1
عا 1
سوف 1
قيم 1
بس 1
فرة 1
أبي 1
الداخلية 1
الكبرى 1
مسلسل 1
الحالة 1
الإمبراطورية 1
لاء 1
رأس 1
صف@@ 1
يوس 1
راد 1
معهد 1
الأولمبية 1
ماً 1
وك 1
1990 0.8262146890920693
فيا 1
قها 1
ثي@@ 1
ريد 1
ابه 1
واء 1
بعدها 1
جبل 1
تحقيق 1
كلا@@ 1
13@@ 1
لما 1
ارتفاع 1
المرحلة 1
السلطة 1
يمي 1
الوصول 1
البيانات 1
دل@@ 1
كات 1
اج 1
إسرائيل 1
وز 1
عًا 1
وال 1
بج@@ 1
علماء 1
جون@@ 1
رواية 1
حصلت 1
حاليا 1
دري@@ 1
واسع 1
طات 1
لجنة 1
ضر@@ 1
بًا 1
عنها 1
تش 1
افي 1
طلق 1
1996 0.9198017531083451
انتق@@ 1
رائ@@ 1
السياسي 1
الطب 1
اعات 1
تصميم 1
بعة 1
الأمم 1
غة 1
عط@@ 1
ديا 1
تحدث 1
مقابل 1
5@@ 1
1992 0.9418447000474172
خلالها 1
الطبية 1
فيل 1
لقد 1
عالية 1
علاج 1
تعد 1
كرو@@ 1
الوسطى 1
ران 1
حق 1
جم 1
بالقرب 1
الإنترنت 1
التن@@ 1
قناة 1
ولية 1
التف@@ 1
بوب 1
تقديم 1
توا@@ 1
طويلة 1
العرب 1
الري@@ 1
اره 1
صناعة 1
جهاز 1
الحدود 1
أفراد 1
عامًا 1
مال 1
أوائل 1
هل 1
خاص 1
أخذ 1
سوريا 1
0 0.6138911174176618
لل 1
1997 0.8982625509313347
الإسلام 1
الصحية 1
بلدية 1
لكنه 1
الإن@@ 1
فص@@ 1
فون 1
الوزراء 1
لـ 1
أمين 1
الموسم 1
وقال 1
ادت 1
قيادة 1
ها@@ 1
ليون 1
ظل 1
الطبيعية 1
ودي@@ 1
مَ@@ 1
مول@@ 1
حق@@ 1
بو 1
وليس 1
الصح@@ 1
باب@@ 1
صور 1
الشر@@ 1
هنري 1
البداية 1
التش@@ 1
الإنجليزية 1
أعلن 1
لتح@@ 1
نصف 1
جنس 1
الألماني 1
البطولة 1
بلو@@ 1
الأكبر 1
نقطة 1
فران@@ 1
شبه 1
ستة 1
ثي 1
قيق 1
الشكل 1
ريات 1
رح@@ 1
المض@@ 1
تقل 1
مات@@ 1
ايا 1
الأمن 1
الأن@@ 1
النادي 1
يص@@ 1
الطريق 1
خلا@@ 1
شيء 1
للو@@ 1
بحلول 1
سابق 1
المسيحية 1
موا 1
إنجلترا 1
الأق@@ 1
للم@@ 1
الشعب 1
عشرة 1
شري@@ 1
يشير 1
جمع@@ 1
لقب 1
رير 1
بأنها 1
كتابة 1
السابقة 1
الإي@@ 1
المصرية 1
formula 0.5170896914329562
الخامس 1
gt 0.574832935025364
معهم 1
دفع 1
عام@@ 1
ونة 1
المرض 1
المسلمين 1
مباشرة 1
جيش 1
غو 1
تعرض 1
والك@@ 1
منع 1
والص@@ 1
يوم@@ 1
منح 1
1991 0.9087019896218098
عمل@@ 1
فع 1
البريطاني 1
بهم 1
الموجودة 1
جا@@ 1
نغ@@ 1
اليمن 1
البار@@ 1
سوق 1
الحرارة 1
1994 0.8935031990504255
قيمة 1
القط@@ 1
الموا@@ 1
نفسها 1
وفاته 1
حجم 1
تار@@ 1
انو 1
ستر@@ 1
الأحيان 1
الجمهوري 1
الشه@@ 1
كاليفورنيا 1
برت 1
والش@@ 1
كامل 1
العلاقات 1
المدارس 1
عض@@ 1
الدينية 1
تشير 1
تون@@ 1
معدل 1
بيا 1
وني@@ 1
ضم 1
يتبع 1
فئة 1
lt 0.6112204123633499
شاركت 1
أند@@ 1
ذو 1
بون@@ 1
الها 1
وست@@ 1
اللعب 1
البرلمان 1
لغة 1
والث@@ 1
يار 1
1995 0.8708806583949782
رك 1
ً 1
كلمة 1
الصغيرة 1
حم@@ 1
اعة 1
عرف 1
2@@ 1
رض 1
يحدث 1
رغم 1
وو@@ 1
برامج 1
لى 1
وجد 1
ورات 1
يرة 1
الرجال 1
وهناك 1
جنسية 1
المكان 1
ألعاب 1
الثالثة 1
عن@@ 1
القلب 1
خمسة 1
لاست@@ 1
مدة 1
1980 0.922665324689635
إبراهيم 1
1993 0.9139213670836045
شركات 1
النظر 1
العلمية 1
الغربي 1
ناحية 1
سيتي 1
سون@@ 1
جاء 1
الشركات 1
اعي 1
العزيز 1
الاقتصادية 1
بالع@@ 1
قتل 1
النباتات 1
العمال 1
الخي@@ 1
مرك@@ 1
1989 0.9713439476340003
لًا 1
غان 1
الصيفية 1
اط 1
بذلك 1
الشرطة 1
لاف 1
يعرف 1
ثية 1
اللو@@ 1
تنظيم 1
؟ 1
دز 1
الحر@@ 1
مخت@@ 1
تلا@@ 1
سو 1
انات 1
للت@@ 1
لوس 1
سكي 1
ويات 1
ولكنه 1
تشكل 1
ويُ@@ 1
انتخابات 1
of 0.00890299727673942
اللجنة 1
توماس 1
3@@ 1
سلة 1
ديفيد 1
يته 1
لهذه 1
يكي 1
لاحق 1
وظ@@ 1
بحث 1
مسؤ@@ 1
ولين 1
يع 1
ماني 1
اض 1
مساحة 1
الأسرة 1
اند 1
الأوروبية 1
الجهاز 1
بالح@@ 1
هاب 1
علا@@ 1
تية 1
الجمهورية 1
جز@@ 1
خان 1
أسرة 1
1988 1
الإشارة 1
امل 1
اعية 1
الشعبية 1
واح@@ 1
بحيث 1
عمال 1
اند@@ 1
وتش@@ 1
ديل 1
حه 1
مدى 1
يكا 1
بريطانيا 1
سانت 1
بغداد 1
منتصف 1
الطريقة 1
ائق 1
روب 1
سلام 1
العلماء 1
إجراء 1
تشكيل 1
زن 1
معينة 1
أعلنت 1
لن 1
يخ 1
الور@@ 1
خدم 1
كيف 1
إي 1
فهو 1
تين@@ 1
المدن 1
سوس 1
1984 1
أهمية 1
فصل 1
مرات 1
تب 1
لصالح 1
السادس 1
يعني 1
ولت 1
بنسبة 1
تسمى 1
خد@@ 1
الخامسة 1
المتح@@ 1
فهي 1
الإنتاج 1
200@@ 1
ربة 1
فلسطين 1
تبلغ 1
ليات 1
الموج@@ 1
تظهر 1
خدمات 1
شة 1
الكبيرة 1
لِ@@ 1
غر@@ 1
نها 1
جري 1
1986 1
العلم 1
يسمى 1
تحمل 1
قيد 1
المسؤ@@ 1
وقف 1
40 0.8141293019279291
بعنوان 1
جار@@ 1
تأسيس 1
فير 1
تس 1
تولى 1
لن@@ 1
politician 1
الشباب 1
تنفيذ 1
تعرف 1
ظة 1
بلدة 1
تنا@@ 1
قر 1
تشارلز 1
كت 1
الأحداث 1
رش@@ 1
هان 1
الثقافة 1
ذي 1
اسمه 1
حدود 1
فهم 1
مهمة 1
ارع 1
مين@@ 1
جات 1
سوي@@ 1
صورة 1
مدر@@ 1
ارب 1
أساس 1
هول@@ 1
سمى 1
مته 1
محطة 1
بلاد 1
بيع 1
منة 1
أوب@@ 1
غار@@ 1
أشكال 1
مساعدة 1
ائد 1
الآخر 1
جعل 1
هؤلاء 1
ماري 1
فكرة 1
الواقع 1
الأسر 1
1982 1
عائ@@ 1
مانية 1
التابع 1
يقول 1
الاخت@@ 1
صحيفة 1
يناهز 1
نقاط 1
دراسات 1
يعود 1
1979 1
امات 1
ندية 1
رض@@ 1
عل 1
أوك@@ 1
القديم 1
المعروف 1
عز@@ 1
فضل 1
يظهر 1
أغنية 1
1987 1
ألف@@ 1
يها 1
فرد 1
سري@@ 1
البرنامج 1
تأسست 1
المحيط 1
يؤ@@ 1
باد@@ 1
المالية 1
وكاتب 1
يَّة 1
المباراة 1
الإسلامي 1
وبين 1
الا 1
تمكن 1
ودية 1
نوا@@ 1
نان 1
1948 1
المحكمة 1
بِ@@ 1
رف@@ 1
شعر 1
1985 1
علاقة 1
1945 0.8601642146540394
تَ@@ 1
المصري 1
أحداث 1
السلام 1
بخ@@ 1
طر 1
امه 1
واج@@ 1
متعددة 1
القص@@ 1
بم@@ 1
غالبًا 1
منية 1
الأقل 1
المادة 1
كوب@@ 1
ظه@@ 1
فن@@ 1
14@@ 1
المخت@@ 1
دان@@ 1
واسعة 1
مهم 1
زيد 1
لس 1
دخ@@ 1
هير@@ 1
مز 1
ّل 1
البيضاء 1
مبي@@ 1
يحتوي 1
للش@@ 1
1970 0.8992786094888657
توفير 1
مجموعات 1
قض@@ 1
الخدمة 1
الهواء 1
رجال 1
ينغ 1
إدار@@ 1
نه 1
بدون 1
ظر 1
كار 1
إم 1
رد 1
قائد 1
افع 1
الشرقي 1
تونس 1
بنفس 1
أهداف 1
الأنواع 1
الأص@@ 1
معلومات 1
الأبيض 1
يصل 1
ومة 1
وين 1
واله@@ 1
سرطان 1
فتح 1
الإعلام 1
متها 1
ونسبة 1
جرة 1
جمي@@ 1
واشنطن 1
الطلاب 1
الأحمر 1
1967 1
التاريخية 1
جام@@ 1
جد 1
اش 1
البشرية 1
ورا 1
قق 1
امين 1
تكن 1
الحالي 1
دول@@ 1
ذهب 1
المعد@@ 1
ريين 1
القوة 1
وير 1
وحمل 1
ضي 1
سُ@@ 1
ألي@@ 1
1983 1
ائه 1
جب@@ 1
ستان 1
سما@@ 1
مير 1
جا 1
حض@@ 1
التقليدية 1
ذية 1
قا 1
الأمراض 1
بَ@@ 1
والق@@ 1
الـ 1
المجال 1
طبي@@ 1
نظر 1
لأنه 1
باللغة 1
الشع@@ 1
فير@@ 1
يوسف 1
المستوى 1
الفنية 1
فول@@ 1
ظ 1
غا 1
وهم 1
الإدارة 1
جزر 1
عظ@@ 1
فيد 1
نُ@@ 1
ربية 1
الثانوية 1
أربع 1
ناب@@ 1
النهاية 1
غل@@ 1
ملكة 1
الأخير 1
لبريطانيا 1
نسخة 1
مد 1
ستي@@ 1
قرا@@ 1
محاولة 1
انس@@ 1
1981 1
الدراسة 1
تحول 1
وأن@@ 1
المنش@@ 1
مكان@@ 1
الشخص 1
المتوسط 1
السنوات 1
عديدة 1
ماس@@ 1
التهاب 1
دهم 1
إيران 1
الغرب 1
عَ@@ 1
زات 1
وأيرلندا 1
الحكومية 1
شخص@@ 1
وائية 1
البشر 1
حسين 1
سياسة 1
! 0.521596092818283
ابي 1
النظ@@ 1
بنية 1
واي 1
فل 1
القاهرة 1
القصة 1
لور@@ 1
بقيادة 1
قُ@@ 1
الثامن 1
ازات 1
هية 1
مسل@@ 1
بشأن 1
بيانات 1
قلي@@ 1
حب 1
ابية 1
ضغط 1
مدن 1
الرعاية 1
تغيير 1
العل@@ 1
طروادة 1
دمشق 1
السلطان 1
تركيا 1
الاع@@ 1
كنيسة 1
سلا@@ 1
قاد@@ 1
الماضي 1
إطلاق 1
جير@@ 1
الجنسية 1
الاقتصاد 1
ملة 1
بعضها 1
ولى 1
دوا 1
نر 1
الرواية 1
واع@@ 1
مسي@@ 1
البيئة 1
الكويت 1
+ 0.8781633020293466
زين 1
بالس@@ 1
ومؤ@@ 1
سواء 1
مياه 1
الفضاء 1
داف@@ 1
ئية 1
وع 1
السياسة 1
قياس 1
للغاية 1
P@@ 0.1431011309402882
سار@@ 1
الاحترافية 1
12@@ 1
المل@@ 1
وافق 1
شار 1
اكتشف 1
تزال 1
ائع 1
رى 1
لز 1
مثال 1
يمي@@ 1
4@@ 0.900580838202059
ارها 1
كث@@ 1
النفس 1
شاعر 1
تشار@@ 1
1974 1
بيه 1
الخدمات 1
سميث 1
نز 1
تمل 1
نيو 1
رفض 1
طلا@@ 1
اعد 1
1975 0.9973357923689538
زر 1
يتعلق 1
الكتب 1
1978 1
جعل@@ 1
دبليو 1
ثورة 1
سعيد 1
مكتب 1
1976 1
جدا 1
ربي 1
أَ@@ 1
كه 1
يمكن@@ 1
فيلد 1
يج@@ 1
اللون 1
فرو@@ 1
انت 1
سياسية 1
تابعة 1
أط@@ 1
المتعلقة 1
ويتم 1
الطفل 1
مم 1
الكلية 1
السابع 1
ناف@@ 1
حل@@ 1
تبا@@ 1
بون 1
ساب@@ 1
ربع 1
الأوسط 1
بوا@@ 1
شهادة 1
يدة 1
التجارة 1
الت 1
اليهود 1
أوس@@ 1
َّ 1
الثامنة 1
بالإنجليزية 1
خلايا 1
عرا@@ 1
الروسية 1
ادرة 1
الدرا@@ 1
نان@@ 1
1973 1
باس@@ 1
عمان 1
البلدان 1
ائها 1
الأفراد 1
درجات 1
فعل 1
والف@@ 1
انضم 1
ندا 1
وذ@@ 1
مدير 1
الطبيعي 1
جب 1
الموسيقى 1
خفض 1
شغل 1
فرق 1
المنظمة 1
بهذا 1
الرومانية 1
نتائج 1
نمو 1
اجات 1
قطاع 1
يكية 1
الأمريكيين 1
الطائرة 1
ليست 1
الأعلى 1
والعشرين 1
زب@@ 1
نام@@ 1
قطع 1
حال 1
لاحقًا 1
ولكنها 1
بدا@@ 1
طب 1
عصر 1
لول 1
وُ@@ 1
ديات 1
بد 1
او 1
أجهزة 1
الأكاديمية 1
الساعة 1
باست@@ 1
ورت 1
ومح@@ 1
نقص 1
عليهم 1
فائ@@ 1
لَ@@ 1
مملكة 1
وق 1
يزيد 1
جوا@@ 1
دواوير 1
الأردن 1
صلة 1
1972 0.9636350875263469
هان@@ 1
طائرة 1
واض@@ 1
فس@@ 1
الولاية 1
الزواج 1
المشروع 1
حملة 1
أمراض 1
القدرة 1
الرحمن 1
العمليات 1
اهر 1
وانتخب 1
الشعر 1
العثمانية 1
رز 1
حرارة 1
أساس@@ 1
الرياضية 1
السوق 1
المرضى 1
موت 1
تدري@@ 1
خطر 1
طالب 1
حدوث 1
لر 1
الأعضاء 1
البرازيل 1
الضغط 1
ميد 1
باشا 1
تسجيل 1
سلو@@ 1
المعروفة 1
مجتمع 1
لبنان 1
الأي@@ 1
عكس 1
لائ@@ 1
موسيقى 1
الفن 1
برة 1
60 0.8999900662285278
الجنسي 1
المكسيك 1
الطرق 1
أجزاء 1
مِ@@ 1
تبر@@ 1
غر 1
كريست@@ 1
ثاني 1
قرر 1
سكو 1
النه@@ 1
1968 0.9783470227265882
الآثار 1
ده@@ 1
مسجد 1
كتابه 1
جبال 1
الهي@@ 1
لش@@ 1
1960 0.8520592330241733
هب 1
يَ@@ 1
1977 1
باح@@ 1
عمله 1
عداد 1
تتضمن 1
تقنية 1
ران@@ 1
والن@@ 1
خمس 1
H@@ 0.1606746249975805
الأفلام 1
البع@@ 1
وقعت 1
1971 0.982961348931901
C@@ 0.16056413049649945
تطور 1
اقة 1
مالية 1
تاج 1
يونايتد 1
جذ@@ 1
مفهوم 1
كوك@@ 1
راب 1
لوب 1
النوادي 1
تقد@@ 1
عادةً 1
هند@@ 1
روف 1
إنج@@ 1
العص@@ 1
لون@@ 1
ليا 1
الزي@@ 1
وبي 1
سيد 1
آثار 1
تتكون 1
تمث@@ 1
العسكري 1
صالح 1
هات 1
إيه 1
متح@@ 1
رغ@@ 1
ودة 1
صاحب 1
فرض 1
متا@@ 1
تقريبًا 1
التأ@@ 1
ترض 1
الهدف 1
الدكتور 1
ريق 1
ارض 1
يزال 1
سه@@ 1
1969 1
بطريقة 1
1964 1
بالن@@ 1
كاب@@ 1
صف 1
خل 1
السيد 1
ّر 1
إم@@ 1
النووي 1
رَ@@ 1
مو 1
سلم 1
مشاركة 1
” 0.32269324240899744
المسلسل 1
المعهد 1
وه 1
تدريب 1
صد 1
الجانب 1
ريف 1
نيين 1
السورية 1
افية 1
the 0.0037184920101338433
المنزل 1
وأصبح 1
يط 1
عاً 1
الوحيد 1
بالف@@ 1
تطبيق 1
سد 1
العدد 1
D@@ 0.13764442768648527
نو 1
بوس@@ 1
وعندما 1
يض@@ 1
تذ@@ 1
يران 1
ومي@@ 1
000 1
جيل 1
غي 1
ونات 1
موظ@@ 1
مير@@ 1
s 0.07464901540008433
اكتشاف 1
إصدار 1
والمع@@ 1
الأل@@ 1
كب 1
إنه 1
وممثل 1
ائب 1
ساعة 1
لفة 1
الا@@ 1
المهنية 1
تول@@ 1
فع@@ 1
انظر 1
1963 1
الصينية 1
معرفة 1
ذه@@ 1
ريتشارد 1
قصيرة 1
الحالية 1
تث@@ 1
مبار@@ 1
ابع 1
جري@@ 1
N@@ 0.1544185103395901
ربط 1
نواب 1
بموجب 1
تعود 1
مود 1
حك@@ 1
مطار 1
تعتمد 1
وغير 1
سور 1
زت 1
حياتها 1
1950 0.884683361762484
آخرين 1
السيطرة 1
اون@@ 1
طه 1
مقارنة 1
سلطة 1
البرا@@ 1
صنع 1
ضاء 1
رر 1
لاب 1
اء@@ 1
القدس 1
الأساسي 1
إر@@ 1
هير 1
اثنين 1
كلا 1
توس@@ 1
لديه 1
إير@@ 1
النار 1
النقطة 1
مجرد 1
امرأة 1
شرف 1
حماية 1
S@@ 0.10677128278499365
ونصف 1
ابل 1
عود 1
اختبار 1
أكد 1
الأدب 1
العصور 1
برغ 1
مصدر 1
ساهم 1
اكتش@@ 1
محامي 1
سبق 1
القرآن 1
واد 1
شن 1
الأصل 1
كتاب@@ 1
مني 1
فإنه 1
ءات 1
قصر 1
فو 1
تسبب 1
جرى 1
ربما 1
وحد@@ 1
الحيوية 1
الآخرين 1
فًا 1
الإغريق 1
ترف 1
الهند@@ 1
بدلاً 1
والس@@ 1
قت@@ 1
الشي@@ 1
فان@@ 1
تكنولوجيا 1
الإصابة 1
بذ@@ 1
1962 1
الثقافية 1
خة 1
تقد 1
أسط@@ 1
الحص@@ 1
الجنس 1
هنا 1
المحور 1
أنظمة 1
ماسة 1
داخ@@ 1
نح@@ 1
آنذاك 1
المركزية 1
كيلومتر 1
جنب 1
تز 1
ظم 1
فرنسية 1
نس 1
تاب@@ 1
عاصمة 1
مارك 1
شت@@ 1
مالك 1
صدي@@ 1
ئي 1
احة 1
العائلات 1
وزي@@ 1
وبات 1
1965 1
الثلاثة 1
رياض@@ 1
الرسمية 1
ائدة 1
جد@@ 1
ونا 1
&#124; 0.7158780262246054
ويبلغ 1
G@@ 0.12584966091965946
إل 1
المبكرة 1
شية 1
الذكور 1
1956 1
النقل 1
البناء 1
السوفي@@ 1
الفرقة 1
إست@@ 1
اختيار 1
وصلت 1
تة 1
هور 1
الأسود 1
عزلة 1
الإل@@ 1
لار@@ 1
بك 1
وقع 1
صد@@ 1
شح 1
تسل@@ 1
تاح 1
ينو 1
اليابانية 1
حقق 1
* 0.4305303905378397
القوى 1
توزيع 1
رعاية 1
فلا@@ 1
انها 1
خطوط 1
بتاريخ 1
العالي 1
نائ@@ 1
تحليل 1
مواقع 1
طاقة 1
وعية 1
المشاركة 1
الإنجليزي 1
السبب 1
العنف 1
بري 1
يسمح 1
ادا 1
زها 1
يعتقد 1
حدي@@ 1
الاقتصادي 1
وفقا 1
كش@@ 1
مادة 1
مليار 1
المنتخب 1
والغ@@ 1
أسترالي 1
جور@@ 1
قيام 1
الدور 1
انج@@ 1
البح@@ 1
وخاصة 1
زال 1
مدرب 1
اور 0.8240948030333731
متحف 1
مرت 1
مهرجان 1
روز 1
بنا@@ 1
ريح 1
إما 1
القائمة 1
مربع 1
تميز 1
لديهم 1
1@@ 1
المؤتمر 1
السلة 1
المصطلح 1
M@@ 0.13595299395145072
مصادر 1
ءة 1
اسة 1
صنا@@ 1
السلطات 1
الصناعية 1
الممكن 1
تصوير 1
تكوين 1
قدرة 1
الشيوخ 1
العائلة 1
وج 1
المحلي 1
امن 1
لكنها 1
سيس 1
النمو 1
1958 1
الجغرا@@ 1
مؤتمر 1
مرور 1
المعل@@ 1
الشمالي 1
مدار 1
آسفي 1
السكاني 1
دخول 1
طع 1
صات 1
روما 1
ملعب 1
أسس 1
حز@@ 1
ريس 1
الدر@@ 1
العرض 1
نسي@@ 1
تج 1
B@@ 0.12284482235408048
السودان 1
جوزيف 1
قاء 1
• 1
مس 1
خذ 1
يتكون 1
يغ@@ 1
وتم@@ 1
سليمان 1
إص@@ 1
تقييم 1
الحقوق 1
1966 0.9857174333152858
العلاقة 1
نع 1
يرو 1
المدنية 1
خر 1
متز@@ 1
ليب 1
ومات 1
سها 1
كُ@@ 1
ريب 1
انتشار 1
لز@@ 1
مواد 1
F@@ 0.13997496177910193
الزوج@@ 1
بسرعة 1
تعزيز 1
أت@@ 1
الفلسطينية 1
جن 1
النهائي 1
لس@@ 1
كثيرة 1
ستخدام 1
T@@ 0.12479116426862644
cricketer 1
ثق@@ 1
تشر 1
كز 1
نائب 1
1961 1
ليف 1
سج@@ 1
خز@@ 1
إصابة 1
رفع 1
يبدو 1
السوي@@ 1
ديه 1
الته@@ 1
صغير 1
المال 1
والي 1
أبناء 1
كيم 1
A@@ 0.13836097589696983
سري 1
قبل@@ 1
الإج@@ 1
نون 1
صوت 1
يان@@ 1
راتيجية 1
نموذج 1
طرف 1
مستويات 1
الديمقراطية 1
بيتر 1
5.@@ 1
والاست@@ 1
اسمها 1
200 0.801660003083428
R@@ 0.13005224988490727
وراء 1
المسجد 1
دث 1
المعركة 1
كوك 1
كد 1
إدوارد 1
سيل 1
كوريا 1
الـ@@ 1
500 0.880714161449607
The 0.018896741662187303
وكالة 1
الكه@@ 1
أنَّ 1
ذت 1
لاع 1
خارجية 1
أعماله 1
الفق@@ 1
بينها 1
شعار 1
فصيلة 1
تجاوز 1
أطلق 1
هدف@@ 1
مدريد 1
قًا 1
المصادر 1
الفرق 1
قَ@@ 1
إطار 1
أسماء 1
برلين 1
سيناريو 1
مستشفى 1
اده 1
هاي@@ 1
الإص@@ 1
مسافة 1
ونيا 1
كورونا 1
أبرز 1
ناش@@ 1
خالد 1
العهد 1
اها 1
عامل 1
منح@@ 1
الزراعة 1
القيادة 1
حس@@ 1
ولوجية 1
النج@@ 1
تعريف 1
الذاتية 1
لفترة 1
1944 0.80569649768863
محمود 1
وبعض 1
برية 1
قبيلة 1
موق@@ 1
املة 1
فض 1
للع@@ 1
الولادة 1
تعني 1
إلي 1
نار@@ 1
وهذه 1
سعى 1
1949 1
الجه@@ 1
يتها 1
سه 1
ّن 1
1947 1
سوى 1
هات@@ 1
الخليج 1
دقيقة 1
80 0.9232034767320272
ائن 1
أمير 1
اهد 1
زواج 1
المزيد 1
قف 1
زوجته 1
وتُ@@ 1
ولوجيا 1
تغي@@ 1
معل@@ 1
جدًا 1
الشبكة 1
نشا@@ 1
ولو 1
ليلة 1
1946 0.9831334643089501
معالجة 1
لمحافظة 1
أرض 1
بورغ 1
أعم@@ 1
تشي@@ 1
عملت 1
يرًا 1
يمثل 1
تحدي@@ 1
الجنوبي 1
قرى 1
الطعام 1
الاستقلال 1
بوي@@ 1
بهدف 1
ويا 1
الجوي 1
حالياً 1
خوان 1
التعداد 1
بالر@@ 1
جراء 1
ذر 1
صار@@ 1
L@@ 0.11730902407294629
جين@@ 1
بعين 1
لعبة 1
A 0.10612179783306232
بجامعة 1
فرع 1
الروسي 1
بُ@@ 1
أنجلوس 1
ؤون 1
يد@@ 1
المؤسسات 1
أقدم 1
المجموعات 1
موسى 1
بز@@ 1
لفات 1
الضوء 1
ينز 1
التط@@ 1
ميزة 1
الإمام 1
هد@@ 1
1940 0.8731473501970431
جماعة 1
بمدينة 1
علوم 1
للحصول 1
التصميم 1
جاج 1
حمل 1
أكاديمية 1
اليمنية 1
تحرير 1
ارًا 1
مراكش 1
الحد 1
1941 0.8423119372204283
صلاح 1
الملكي 1
الهيئة 1
خراج 1
النووية 1
الوا@@ 1
رابطة 1
الست@@ 1
بصورة 1
قيل 1
هار 1
الأصلية 1
الطبقة 1
عون 1
1939 0.8917079459636607
افات 1
اعتم@@ 1
انس 1
تعيين 1
للص@@ 1
تعليم 1
سمح 1
35 0.9042770312272704
المستخدمة 1
الاح@@ 1
خلف 1
أسلوب 1
التحكم 1
ساع@@ 1
الصحي 1
لكي 1
شارع 1
وجدت 1
للعمل 1
1959 1
1957 1
“ 0.08398785953418472
أدت 1
ترك@@ 1
الأغ@@ 1
الشخصيات 1
ثات 1
الإمبراطور 1
كوي@@ 1
اللح@@ 1
الشري@@ 1
سف@@ 1
سور@@ 1
1955 1
شرة 1
الوحدة 1
البرامج 1
قطر 1
نشرت 1
قضية 1
ونظ@@ 1
تأث@@ 1
دس 1
جغرافيا 1
الإمارات 1
ففي 1
المناخ 1
عسكرية 1
كاف@@ 1
القدر 1
عان 1
footballer 1
الهندية 1
راف 1
ومي 1
ايد 1
كيلو@@ 1
برج 1
تاون 1
يعتمد 1
المؤقت 1
نات@@ 1
هجوم 1
انتهت 1
المدر@@ 1
قوانين 1
تقدي@@ 1
دام 1
طان 1
واة 1
وشارك 1
ضات 1
لد 1
للج@@ 1
الوضع 1
بنى 1
الاستخدام 1
أثر 1
النفط 1
إح@@ 1
بحسب 1
القرار 1
القسم 1
الني@@ 1
طلاب 1
ومع@@ 1
توفر 1
اءات 1
العثور 1
النظرية 1
رمز 1
1954 1
التركية 1
وّ@@ 1
سباق 1
نط@@ 1
الحاكم 1
مور 1
تختلف 1
زه 1
الرابعة 1
تدخل 1
اكت@@ 1
الات@@ 1
مناف@@ 1
اكمة 1
1952 1
تجاه 1
روة 1
مدي@@ 1
وبلغ 1
الح 1
الرق@@ 1
عدام 1
سرعة 1
وح 1
كيفية 1
قري@@ 1
الحال 1
الرجل 1
لاعبة 1
المريض 1
بيئة 1
بلغت 1
E@@ 0.146920031233293
حاول 1
غلا@@ 1
وتو 1
يعيش 1
اليونانية 1
زوجها 1
استخدم 1
النبي 1
بينهم 1
صن@@ 1
إث@@ 1
لوك@@ 1
توم@@ 1
هاج@@ 1
كشف 1
يحمل 1
الهندسة 1
الصوت 1
المتع@@ 1
تقرير 1
غور@@ 1
كمية 1
النز@@ 1
زان 1
تجمع 1
المطلق 1
منز@@ 1
آن 1
الأهلية 1
اليين 1
فاء 1
إخراج 1
تلق@@ 1
رحلة 1
النشاط 1
يتح@@ 1
قلب 1
محددة 1
المسلحة 1
ثقافة 1
الإنسانية 1
الحمل 1
بنت 1
برلمان 1
فور 1
معين 1
آخرون 1
زراعة 1
رئي@@ 1
ذوي 1
فأ@@ 1
قلعة 1
فاف 1
الاتصال 1
المعرفة 1
روي@@ 1
يمية 1
شرا@@ 1
إحصائيات 1
الجما@@ 1
خاص@@ 1
وص 1
رسالة 1
روي 1
الكندي 1
للق@@ 1
الطائرات 1
لمح@@ 1
الطبيعة 1
الكر@@ 1
تعيش 1
زون 1
تاريخية 1
طلاق 1
الدقيقة 1
قرب 1
ماد@@ 1
باكستان 1
ّم 1
عناصر 1
القمر 1
الأد@@ 1
الدماغ 1
المشتري 1
ْ 1
تغير 1
خلاف 1
ومنها 1
واجه@@ 1
الصي@@ 1
زوج@@ 1
للاست@@ 1
البيئية 1
يمة 1
بالفعل 1
كيل 1
والخ@@ 1
1943 0.8447632780653194
التصوير 1
اهرة 1
تؤدي 1
الإسباني 1
جزءًا 1
الفصل 1
نيات 1
احتف@@ 1
امها 1
قدر@@ 1
الطيران 1
عبة 1
توق@@ 1
الدعم 1
قدر 1
الأصلي 1
بور 1
تمد 1
وعين 1
in 0.005234156150329955
تسم@@ 1
مشار@@ 1
ملح@@ 1
مهاج@@ 1
لاحظ 1
تشغيل 1
الإيطالي 1
ثانية 1
ياب@@ 1
John 0.24629953956512504
حمل@@ 1
مسر@@ 1
أراضي 1
الأم 1
المرتبة 1
أيرلندا 1
بحر 1
نشأ 1
حاليًا 1
طوله 1
العش@@ 1
انخفاض 1
ويت 1
الفنون 1
الطر@@ 1
عاد@@ 1
1953 1
متنوعة 1
أبر@@ 1
الفار@@ 1
ديم 1
الحفاظ 1
منزل 1
الب 1
الملا@@ 1
فَ@@ 1
الأسلحة 1
مكافحة 1
ُّ@@ 1
كانون 1
فرنسي 1
أصول 1
طري@@ 1
لط@@ 1
هن@@ 1
الضر@@ 1
المثليين 1
دته 1
شن@@ 1
شرطة 1
أغاني 1
الخط 1
تؤ@@ 1
دوية 1
علاقات 1
لأنها 1
يطلق 1
وط 1
and 0.0059691500327625205
رؤية 1
ضعف 1
إج@@ 1
آر@@ 1
كتي@@ 1
تجارة 1
خرى 1
طبقة 1
السكانية 1
ولون 1
70 0.8924985137034093
براون 1
لتون 1
ديو 1
النهائية 1
البلدة 1
السفر 1
العناصر 1
خطة 1
1942 0.8290980929619967
الأز@@ 1
اللغات 1
1951 1
عج@@ 1
راج@@ 1
ة.@@ 1
فيف 1
آلاف 1
السوفيتي 1
شير 1
معاهدة 1
هج 1
رس 1
سك 1
مح 1
الرقم 1
بلة 1
الكيميائية 1
قليل 1
بعضهم 1
يصبح 1
ائم 1
هيل 1
انق@@ 1
ماث@@ 1
ستخد@@ 1
O@@ 0.14771496115730642
هذ@@ 1
اور@@ 1
دارة 1
فقة 1
القيام 1
الكون@@ 1
قدمت 1
آي 1
يرات 1
جاك 1
اول@@ 1
شو 1
عنوان 1
تاريخ@@ 1
مارتن 1
كاس@@ 1
مى 1
فيديو 1
حلب 1
المسرح 1
تفاعل 1
وممثلة 1
التخ@@ 1
زوجة 1
ويست@@ 1
بهذه 1
شيو@@ 1
يّ 1
ساك@@ 1
أغلب 1
ضيف 1
ّف 1
دود 1
ترج@@ 1
الجرا@@ 1
معروف 1
الخلية 1
الناحية 1
مواجهة 1
أساسي 1
بدء 1
تناول 1
زر@@ 1
الزراعية 1
حضر 1
خلق 1
فعل@@ 1
مناصب 1
هُ 1
الأولية 1
32 0.8699076214746159
الاحتلال 1
تنظ@@ 1
كمال 1
مقر 1
اعتق@@ 1
الكار@@ 1
والج@@ 1
وليد 1
قوا@@ 1
الانتق@@ 1
يقصد 1
السري@@ 1
غار 1
نجاح@@ 1
ّي 1
90 0.8738686660614876
ترجمة 1
ابنة 1
سوية 1
اللعبة 1
وسجل 1
شهد 1
البرلمانية 1
راي 1
مجموع@@ 1
أمي@@ 1
إد@@ 1
ولعب 1
الجليد 1
المرجعية 1
جاه@@ 1
كير@@ 1
أعط@@ 1
الحض@@ 1
الاب@@ 1
النتائج 1
تاي@@ 1
الصحي@@ 1
1936 0.9654973347166311
اربة 1
ثنائي 1
بالج@@ 1
محرك 1
مول 1
باح 1
هج@@ 1
العوامل 1
القبائل 1
بمثابة 1
نف 1
الم 1
تحويل 1
التأثير 1
طين 1
لب@@ 1
محكمة 1
y 0.017854963291827446
ستخدم 1
أطفال 1
أنّ 1
والمج@@ 1
صار 1
عاما 1
بالكامل 1
كاملة 1
وصول 1
ارس 1
سرا@@ 1
التمييز 1
ألماني 1
شف@@ 1
البيض 1
الواقعة 1
وحصل 1
تلقى 1
النسخة 1
انته@@ 1
بالغ@@ 1
فري 1
التعل@@ 1
الذاتي 1
للسيدات 1
بكثير 1
كارل 1
قط 1
أداء 1
موجودة 1
حساب 1
طرة 1
الوث@@ 1
رئاسة 1
ولقد 1
ؤ 1
ويعتبر 1
بقية 1
بيان 1
شباط 1
حيات 1
الجوائز 1
سال 1
لوي 1
طق 1
الفني 1
قوى 1
إلغاء 1
الأحياء 1
لقى 1
تقلي@@ 1
وجه@@ 1
الإر@@ 1
تفع 1
تمثيل 1
التج@@ 1
فلكية 1
البول@@ 1
اليا 1
مقاومة 1
الفرد 1
شارات 1
الأدوية 1
ًّا 1
القانونية 1
لإقليم 1
ينت@@ 1
مجالات 1
الإسرائيلية 1
حاكم 1
المواقع 1
الإسرائيلي 1
التدريب 1
العين 1
تجربة 1
لقي 1
موس 1
المهمة 1
انع 1
القرى 1
العض@@ 1
السعودي 1
جونز 1
أخر 1
الإناث 1
الغر@@ 1
روح 1
سلطان 1
مج 1
يرون 1
غز@@ 1
أكيد 1
واصل 1
2.@@ 1
الخارج 1
الوق@@ 1
شراف 1
والتح@@ 1
الموارد 1
بيروت 1
كيمي@@ 1
بسي@@ 1
حلقة 1
العقد 1
الإسبانية 1
مدارس 1
المشا@@ 1
روز@@ 1
الأبحاث 1
الزمن 1
1920 0.8163126196164328
متلازمة 1
تصبح 1
الكويكبات 1
جما@@ 1
دليل 1
راتي@@ 1
البص@@ 1
طوال 1
مبنى 1
ضل@@ 1
السع@@ 1
الإست@@ 1
لشركة 1
ّه 1
شيكاغو 1
المذ@@ 1
ذكر@@ 1
سائ@@ 1
موج@@ 1
الإض@@ 1
عضوًا 1
الملحق 1
صب 1
حام@@ 1
المؤسسة 1
تيني 1
لص@@ 1
اليهودية 1
الصور 1
كيا 1
استمر 1
يث@@ 1
فقال 1
الفيديو 1
النطاق 1
ّد 1
البشري 1
النش@@ 1
ينيا 1
أسب@@ 1
ينغ@@ 1
إنس@@ 1
ممارسة 1
أست@@ 1
بولاية 1
المسل@@ 1
جدي@@ 1
وتن@@ 1
استخدامها 1
تان@@ 1
تفسير 1
علام 1
المنتجات 1
المشتركة 1
السفن 1
جمال 1
الكاثوليكية 1
لذا 1
عى 1
ليين 1
300 0.9688313424057102
فشل 1
فوز 1
ظروف 1
مصطفى 1
جداً 1
أصغر 1
فته 1
وكي 1
الأعراض 1
الغذائية 1
خت 1
مرد 1
ملايين 1
نظم 1
التصويت 1
مراكز 1
x 0.33407263084222855
سلالة 1
سعود 1
وحدات 1
0@@ 0.8408067681826241
قول 1
معروفة 1
مشاكل 1
201@@ 1
دَ@@ 1
ميز@@ 1
ومست@@ 1
وقام 1
طويل 1
فيات 1
هندسة 1
استمرت 1
شاء 1
اعتب@@ 1
المجاورة 1
ديان 1
كنت 1
مسرحية 1
وض 1
انتخ@@ 1
كه@@ 1
مايكل 1
الف 1
وريا 1
ذة 1
اليونان 1
سفر 1
ضر 1
روم 1
مشيخات 1
ساب 1
اتفاقية 1
السويد 1
قوية 1
كبار 1
والط@@ 1
توس 1
نظرًا 1
جسم 1
درب 1
الورا@@ 1
طبيعة 1
سرية 1
زمن 1
صرف 1
بلا 1
باي 1
ينه 1
تحسين 1
معها 1
مباريات 1
التعاون 1
الدستور 1
أنش@@ 1
ابنه 1
عاش 1
البلد 1
سيما 1
جاك@@ 1
ائح 1
سلاح 1
حًا 1
خض@@ 1
حج@@ 1
شعبية 1
زار 1
فكان 1
45 0.7453590863020242
أض@@ 1
ائلة 1
خاض 1
سارة 1
النس@@ 1
كويكب 1
الأخ@@ 1
البرية 1
فيل@@ 1
ويع@@ 1
65 0.8370801523722122
التك@@ 1
طان@@ 1
مديرية 1
نم@@ 1
بعينيات 1
قواعد 1
محل 1
ولاعب 1
الموت 1
ضح 1
لندي 1
نزالا 1
وائل 1
الجان@@ 1
الكتابة 1
مصري 1
وبر 1
وسط@@ 1
تأسس 1
أري@@ 1
السلا@@ 1
منش@@ 1
وسيلة 1
الجزي@@ 1
صر@@ 1
فتح@@ 1
زو 1
احتي@@ 1
كولومبيا 1
عند@@ 1
متع@@ 1
قوم 1
يح 1
طار 1
جونسون 1
نوات 1
تيك 1
الساحل 1
انيين 1
تأليف 1
قامة 1
نشاط 1
الأغنية 1
المسيحيين 1
تبدأ 1
نع@@ 1
خري@@ 1
الاحتف@@ 1
الشام 1
مويل 1
الأور@@ 1
تكساس 1
حيل 1
طاء 1
عبد@@ 1
لندية 1
فز 1
التحرير 1
ويلز 1
تزوج 1
كمة 1
يْ@@ 1
تسمية 1
تقسيم 1
كام 1
مراقبة 1
وعدد 1
1930 0.7805652863018372
ةِ 1
اضطراب 1
نمية 1
وسع 1
رتبة 1
وبي@@ 1
شل 1
بولندا 1
كتلة 1
ليكون 1
موضوع 1
ميت 1
الإنج@@ 1
الطيور 1
دولية 1
قاب@@ 1
كالي@@ 1
ّا 1
أنفسهم 1
سيطرة 1
قبائل 1
مبر@@ 1
يعانون 1
المركزي 1
وأصبحت 1
المنافسة 1
تام@@ 1
حمض 1
ساحة 1
بلية 1
كا@@ 1
البرتغال 1
النجوم 1
روض 1
نوب@@ 1
يدي 1
ضى 1
الحق 1
إسباني 1
الأك@@ 1
وإلى 1
تقليل 1
شف 1
ماريا 1
مرو@@ 1
الحي@@ 1
ويل@@ 1
فيلي@@ 1
البحرين 1
الإعلان 1
حدة 1
الأرجنتين 1
دراسته 1
السينما 1
بـ@@ 1
النخ@@ 1
وفة 1
الخلا@@ 1
درو 1
المتحف 1
خلف@@ 1
رئيسي 1
محترف 1
الحديد 1
الوحيدة 1
مشاركًا 1
سس 1
كاث@@ 1
التطور 1
رم 1
1938 0.8202285742777441
اتل 1
وتي 1
اليم 1
توى 1
ستين 1
وفا 1
ّى 1
الداخلي 1
ماي@@ 1
1933 0.8857076841345203
عرض@@ 1
افظ 1
مداره 1
الجلد 1
بيد 1
نساء 1
لله@@ 1
بكر 1
مواسم 1
والد 1
يرية 1
حف@@ 1
التنمية 1
طاق@@ 1
العثماني 1
سال@@ 1
السين@@ 1
بقي 1
وإن 1
وتعتبر 1
تضمن 1
سبعة 1
علامة 1
واخت@@ 1
العودة 1
ومنذ 1
الرياضي 1
1937 0.9026851252355825
الحجم 1
رؤ@@ 1
المنظمات 1
تشرين 1
رُ@@ 1
الأسماك 1
الكل@@ 1
القيمة 1
جها 1
الأخلا@@ 1
الجزائرية 1
مراجع 1
القناة 1
قليلة 1
الفعل 1
طالب@@ 1
ميم 1
وزن 1
تخرج 1
كباقي 1
مشكلة 1
انتقلت 1
يرى 1
العالية 1
توني 1
واجه 1
المساعدة 1
القتال 1
تمامًا 1
وخلال 1
التحق 1
الحجر 1
الشعبي 1
اللغ@@ 1
عظم 1
نيا 1
تصر 1
المجتمعات 1
الحاجة 1
الكهربائية 1
راع 1
الانق@@ 1
التمثيل 1
فرانك 1
الدورة 1
ينيين 1
بال 1
W@@ 0.1063364594942585
صل@@ 1
أز@@ 1
الته 1
ظاه@@ 1
الصحافة 1
يمر 1
الإطلاق 1
للأطفال 1
للسي@@ 1
وإداريًا 1
الرئ@@ 1
عزل 1
فاق 1
نجم 1
1.@@ 1
ولوجي 1
تتميز 1
ميد@@ 1
واجد 1
الاتصالات 1
يب@@ 1
الثلا@@ 1
بث@@ 1
ومغ@@ 1
جح 1
سوم 1
الجنرال 1
جريدة 1
مستقلة 1
الترا@@ 1
ذك@@ 1
رصده 1
حُ@@ 1
للمرة 1
موض@@ 1
الدار 1
للط@@ 1
199@@ 1
القصر 1
ضافة 1
عمره 1
فرط 1
ائط 1
السرطان 1
السيارات 1
تبة 1
يلا 1
نيوزيلندا 1
والدها 1
عهم 1
غزو 1
هرة 1
الار@@ 1
دوا@@ 1
سعد 1
ثين 1
لاغرانج 1
الثقافي 1
ــ@@ 1
الجامعات 1
المقاومة 1
حال@@ 1
العراقية 1
المرتبطة 1
a 0.005524810066536536
روج 1
ونغ 1
تسمح 1
التقنية 1
الهندي 1
بحرية 1
القضاء 1
منا 1
عوامل 1
سيارة 1
بوا 1
1918 0.8171322255655535
الناتج 1
يبدأ 1
والر@@ 1
الكريم 1
الأساس 1
انتقال 1
أرا@@ 1
ثناء 1
مكتبة 1
الأصليين 1
السجن 1
وتر 1
الكاتب 1
يقدم 1
أوغ@@ 1
إجمالي 1
إف 1
الروماني 1
الإلكترونية 1
الخص@@ 1
درة 1
آر 1
تبع@@ 1
خطط 1
ديك@@ 1
سلطنة 1
مساع@@ 1
وعمل 1
تعديل 1
سوا 1
بعدما 1
ثان@@ 1
علن 1
التز@@ 1
المسي@@ 1
الحمض 1
الحرة 1
جزء@@ 1
شهدت 1
ويكون 1
طفل 1
الحم@@ 1
ورو 1
1935 0.9322191285699137
أصدر 1
الفلسفة 1
الحملة 1
صيف 1
لمدارات 1
اتية 1
واش@@ 1
لتحديد 1
33 0.9106007046738666
احية 1
المبنى 1
صنف 1
يتين 1
لمداره 1
أسباب 1
التعين 1
ّت 1
ذن 1
لته 1
فيليب 1
التواصل 1
MPO@@ 1
تتم 1
نيل 1
هى 1
باع 1
الجنود 1
ميز 1
إمكانية 1
أحد@@ 1
تدفق 1
وتوفيت 1
التشريعية 1
القوانين 1
يضم 1
الحسن 1
طًا 1
وأخ@@ 1
إسماعيل 1
دعى 1
السوري 1
باقي 1
يمات 1
ينت 1
الصورة 1
شد 1
الدكتوراه 1
زيارة 1
غرفة 1
اللاتينية 1
بالرغم 1
الوزن 1
غول@@ 1
القومية 1
يشمل 1
الاشتراكية 1
سيكون 1
فاس 1
الكائنات 1
البنية 1
لفت 1
الظروف 1
العراقي 1
منت 1
عقب 1
الحدي@@ 1
ديدة 1
قبول 1
الكربون 1
التعبير 1
المحيطة 1
جع 1
يتع@@ 1
المستخدم 1
وظيفة 1
الروا@@ 1
علية 1
سكوت 1
سفينة 1
القضايا 1
المار@@ 1
ريم 1
القومي 1
المنز@@ 1
المقدس 1
مسرح 1
الحين 1
رسم 1
كلو@@ 1
استق@@ 1
الجر@@ 1
الحمراء 1
قب 1
رئيسية 1
هولندا 1
والمؤ@@ 1
طبق 1
يتي 1
المستقبل 1
اول 1
للعلوم 1
وبدأ 1
وته 1
وره 1
يسون 1
وهي@@ 1
1931 1
استعمال 1
ونش@@ 1
الرابطة 1
نجاح 1
إعلان 1
وهكذا 1
ويوجد 1
K@@ 0.09776408812478596
وعلم 1
تقنيات 1
قيقة 1
وفية 1
العصبية 1
تشي 1
وأر@@ 1
أصحاب 1
الرك@@ 1
تبط 1
عمو@@ 1
ودي 1
الحديدية 1
ساعد 1
كثافة 1
تقريبا 1
1929 0.9295301584492568
الغاز 1
مراحل 1
1934 0.9168718526517143
بلغ@@ 1
إلكترو@@ 1
بقى 1
نجد 1
حظ@@ 1
تبادل 1
الأنظمة 1
التركيز 1
ضابط 1
البكتيريا 1
حَ@@ 1
ضع@@ 1
سمي 1
صحفي 1
ميات 1
الرح@@ 1
راز 1
يتضمن 1
الحقيقي 1
كجزء 1
ليصبح 1
نوعة 1
20@@ 1
ذه 1
قصير 1
سلط@@ 1
طها 1
يوب 1
الأربعة 1
الخارجي 1
بعي@@ 1
وائ@@ 1
أنا 1
كافة 1
الفح@@ 1
انتهاء 1
واريخ 1
استح@@ 1
الحكومي 1
الموض@@ 1
هول 1
البلا@@ 1
بعض@@ 1
غان@@ 1
معاد@@ 1
ينبغي 1
ميناء 1
القاعدة 1
تمتلك 1
توم 1
مظ@@ 1
النمسا 1
ثا 1
ستان@@ 1
المستشفى 1
نشر@@ 1
S 0.36533864635759106
استخد@@ 1
ساو@@ 1
الفنان 1
ثمانية 1
راس 1
طبيب 1
تجارية 1
دُ@@ 1
الاغ@@ 1
وبية 1
تعامل 1
هلاك 1
كوفيد 1
الخل@@ 1
المدى 1
الوحدات 1
إس@@ 1
الكلمة 1
يفة 1
ءً 1
الطبي 1
غير@@ 1
C 0.2406054808328575
الفل@@ 1
ستيف@@ 1
يجعل 1
ترتيب 1
ضت 1
ملي@@ 1
يول@@ 1
آي@@ 1
أوق@@ 1
الثمان@@ 1
الإيطالية 1
أكسيد 1
العب@@ 1
نوا 1
القطاع 1
خلفية 1
مجة 1
النفسي 1
بالذ@@ 1
أبو@@ 1
الجز@@ 1
تاين 1
تخصص 1
صيب 1
إند@@ 1
درج 1
شقي@@ 1
إزالة 1
درو@@ 1
V@@ 0.12234140706884465
التسمية 1
اولة 1
باستثناء 1
كيين 1
اصل 1
وأيضا 1
اللاعب 1
طرح 1
الحي 1
ذها 1
أكاد@@ 1
المدني 1
سليم 1
ناق@@ 1
المتك@@ 1
وبا 1
الكث@@ 1
لاك 1
ملت 1
نصر 1
ريض 1
تلعب 1
حرية 1
ً@@ 1
الاحتي@@ 1
الد 1
يقرب 1
الأجهزة 1
وتقع 1
24@@ 1
القد@@ 1
باط 1
غية 1
مائية 1
معايير 1
2م 1
ندر 1
غون 1
كسي@@ 1
ادها 1
خش@@ 1
تتراوح 1
المطاف 1
اظ 1
1922 0.9933751997192951
I@@ 0.1571056416458349
سلات 1
عاش@@ 1
استخدامه 1
الملكة 1
كوس@@ 1
ألبوم 1
أماكن 1
الوج@@ 1
400 0.8632038403812501
تدور 1
وتشمل 1
المقاطعة 1
جاب@@ 1
تري 1
كوين 1
بحيرة 1
طوي@@ 1
الرئي@@ 1
توب@@ 1
حن 1
رق 1
اقتصاد 1
درالي 1
التعليمية 1
شخصيات 1
ابق 1
خصائص 1
ضرورة 1
النهر 1
ولذلك 1
سائر 1
التعامل 1
المسرحية 1
معظ@@ 1
وجود@@ 1
الأسباب 1
الكرة 1
المحافظة 1
تناف@@ 1
شعب 1
مكة 1
الجبل 1
جامع 1
لعبت 1
ريال 1
الأفريقية 1
فار 1
ويًا 1
يستطيع 1
الرأس 1
أنط@@ 1
ائفة 1
نَ@@ 1
وجهة 1
الحقيقة 1
ياس 1
ائيات 1
ياباني 1
عمار 1
وجامعة 1
الصد@@ 1
بطل 1
ريه 1
عسكري 1
بيب 1
ناف 1
الثلاث 1
ناصر 1
نتج 1
دونالد 1
تبع 1
البطولات 1
ارين 1
ميس 1
الهجرة 1
عثمان 1
وغيرهم 1
النصف 1
حدد 1
تكلفة 1
تنق@@ 1
خص 1
طبق@@ 1
تعاون 1
ملاكم 1
منتج 1
اتا 1
شعب@@ 1
الصغير 1
الحية 1
الكامل 1
المباني 1
جم@@ 1
كس@@ 1
توي 1
قوس 1
الناش@@ 1
1928 0.8753792077968995
المسيرة 1
بيلة 1
وتف@@ 1
يكرو@@ 1
الهر@@ 1
1919 0.805905497762912
de 0.0030507090213405747
أسر@@ 1
عمه 1
الحادي 1
والتعليم 1
السر@@ 1
جيد 1
الأماكن 1
السفينة 1
القائد 1
باد 1
فيين 1
موسيقي 1
رقام 1
مجموع 1
تهدف 1
العصبي 1
الصراع 1
انتخاب 1
ترح 1
صول 1
قاط@@ 1
القلعة 1
شرح 1
علاق@@ 1
برات 1
جلة 1
كبيرًا 1
أعداد 1
مقتل 1
الأصول 1
المؤس@@ 1
إنها 1
الدموية 1
البرتغ@@ 1
الج 1
عامين 1
قاد 1
ارك 1
أظهرت 1
اطي 1
مباشر 1
الحرية 1
حيوانات 1
كونه 1
تهر 1
الجمهور 1
يحيى 1
ستيفن 1
اقتصادية 1
أعراض 1
نوف@@ 1
الدائرة 1
لبعض 1
الشيوعي 1
اقات 1
المري@@ 1
للأمم 1
المتج@@ 1
تال 1
يرا@@ 1
أنشطة 1
الفوز 1
سَ@@ 1
ناية 1
يدعى 1
منظ@@ 1
السريع 1
ينتج 1
الصحراء 1
صفات 1
ويد 1
سياس@@ 1
واستمر 1
اتجاه 1
التوا@@ 1
والعلوم 1
شاه@@ 1
السك@@ 1
اجة 1
راض 1
أت 1
قضايا 1
الأدبية 1
الطف@@ 1
قع 1
مالي 1
الأهداف 1
تصاب 1
مزي@@ 1
1924 0.9112781450068647
رون@@ 1
موسكو 1
مؤس@@ 1
تصنيع 1
خوسيه 1
الرحلة 1
عوا 1
وآ@@ 1
ورها 1
ريان 1
جنة 1
نهائي 1
هُ@@ 1
أبطال 1
الطلب 1
كم@@ 1
أجريت 1
الجبهة 1
التجارب 1
تصدر 1
1932 0.8910158267566788
اطة 1
بقاء 1
إضافية 1
تتح@@ 1
ساعات 1
موند 1
وند 1
زع@@ 1
نظيم 1
فازت 1
ملية 1
طت 1
آب@@ 1
رسمية 1
فه@@ 1
النموذج 1
الواحد 1
الأداء 1
الحماية 1
جرت 1
فعال 1
يكون@@ 1
بشدة 1
كونها 1
يلية 1
منتجات 1
اعلات 1
بينهما 1
مؤلف 1
اللازمة 1
سيطر 1
شمل 1
34 0.8726075163391798
وكي@@ 1
دخلت 1
إض@@ 1
أقصى 1
الشاعر 1
1م 1
لد@@ 1
مم@@ 1
أستاذ 1
الموسيقية 1
خف@@ 1
السلسلة 1
الفئة 1
بارك 1
بدي@@ 1
باي@@ 1
زيم 1
لتها 1
اشترا@@ 1
البابا 1
فيز 1
الغذاء 1
فلم 1
مجمع 1
0.@@ 0.7762296488700415
الإدارية 1
كَ@@ 1
المائية 1
المنتج 1
لوك 1
نائي 1
مساه@@ 1
الرياضيات 1
J@@ 0.12589785748870355
صدرت 1
التسع@@ 1
اصر 1
حا 1
ديف 1
لجميع 1
1921 0.9325384478023094
الأسنان 1
عمة 1
ويم 1
التشري@@ 1
برز 1
نائية 1
الحب 1
للك@@ 1
أصدرت 1
البري@@ 1
دست@@ 1
نوبل 1
وخ 1
ويين 1
الجدول 1
1923 0.9511944288480011
ددة 1
التل@@ 1
باعتبارها 1
النفسية 1
ضا 1
باك 1
والمست@@ 1
انتهى 1
ترا 1
تركي@@ 1
زب 1
وتص@@ 1
تنفي@@ 1
ظات 1
فيفة 1
خليج 1
دعي 1
الدست@@ 1
غب 1
وبر@@ 1
وش 1
أمر@@ 1
باع@@ 1
فرانسيسكو 1
للفنون 1
انض@@ 1
ثه 1
عالم@@ 1
الإلكتروني 1
واضحة 1
وبذلك 1
نب 1
العموم 1
عرب 1
الأنشطة 1
جز 1
وسام 1
وسي 1
مركب 1
يره 1
البقاء 1
حها 1
وسية 1
يأتي 1
بكل 1
سيم 1
75 0.9158619107702983
بح 1
تدمير 1
تقدير 1
ساء 1
التعلم 1
يتي@@ 1
اخ 1
يرجع 1
36 0.8049875857662049
i 0.1126570816331585
تنتج 1
وحيد 1
1917 0.8408175132192501
الاجتماع 1
الدخول 1
ونها 1
اثر 1
كلها 1
كوا@@ 1
نقاذ 1
الأسترالي 1
الفيروس 1
النحو 1
توج@@ 1
جاز 1
سقوط 1
مري 1
الأمثلة 1
علمية 1
يلة 1
استطاع 1
الغالب 1
بيك 1
كاست@@ 1
للمست@@ 1
السج@@ 1
القديس 1
للغ@@ 1
جودة 1
قطعة 1
ثقافية 1
قوق 1
واقع 1
المهاج@@ 1
سوء 1
التنفيذي 1
الكي@@ 1
1000 1
جول@@ 1
التنظ@@ 1
فارس 1
مناسبة 1
أقيمت 1
فلسط@@ 1
us 0.10893925972764665
صبح 1
المباشر 1
لاز@@ 1
لث 1
عملها 1
ريت 1
سبا@@ 1
37 0.9229317103651752
ساحل 1
وعدم 1
كتش@@ 1
خلي@@ 1
فاهيم 1
وظائف 1
15@@ 1
القانوني 1
معدلات 1
أبد@@ 1
ترتبط 1
ساد 1
ثًا 1
بوط 1
توقف 1
أولى 1
الهم 1
سيين 1
ملائ@@ 1
يث 1
البالغ@@ 1
قيب 1
أدب 1
يعيشون 1
التجاري 1
ماية 1
أجن@@ 1
استخدمت 1
سمة 1
شان@@ 1
العظ@@ 1
عيسى 1
ونه 1
ارهم 1
فما 1
اضي 1
نسب 1
جوز 1
دبي 1
سلامة 1
شغ@@ 1
الكروية 1
الميلادي 1
عراق 1
الدع@@ 1
وقة 1
الأخضر 1
لع@@ 1
يتم@@ 1
افتتاح 1
باول 1
دوم@@ 1
سيف 1
1925 0.8984912417729506
الكت@@ 1
قيه 1
العلوي 1
الاش@@ 1
جير 1
واقف 1
خلص 1
ويح@@ 1
تن 1
دران 1
عاص@@ 1
طا 1
لقت 1
ائز 1
الصف@@ 1
الفرا@@ 1
ضوء 1
ازة 1
ريز 1
ليو 1
ستن 1
صحة 1
البيت 1
الشمسية 1
دستور 1
ورئيس 1
إفريقيا 1
تاب 1
آرثر 1
دال@@ 1
غذ@@ 1
وكات@@ 1
أطول 1
ظاهرة 1
نًا 1
فيس 1
لوحة 1
الأثرية 1
التقليدي 1
عيم 1
قاع@@ 1
1927 0.8851465030563942
المنصب 1
لوية 1
مساعد 1
التد@@ 1
التغييرات 1
الصيني 1
القضية 1
المحر@@ 1
كونغ 1
ميخائيل 1
المصابين 1
وربما 1
البلدية 1
تبقى 1
الألبوم 1
جيم 1
صحيح 1
إحصاء 1
بناءً 1
تركز 1
حمد 1
داث 1
اذ 1
المحرك 1
جنوب@@ 1
اعم 1
جات@@ 1
يخت@@ 1
الأوراق 1
قاعة 1
العاملة 1
بيين 1
فاي@@ 1
مرتين 1
مسار 1
وفقاً 1
القض@@ 1
قادة 1
أدوات 1
اللقب 1
لج@@ 1
القبض 1
مهندس 1
يقو@@ 1
الاد@@ 1
التونسية 1
ثلاث@@ 1
فقدان 1
إنش@@ 1
لاس 1
born 0.15251542796583287
الأمير@@ 1
خليفة 1
ورك 1
امرة 1
بق 1
النح@@ 1
ذر@@ 1
مخص@@ 1
لفين 1
سلسل 1
الخمس@@ 1
الوطن 1
38 0.8205392357135072
{ 1
الإعلا@@ 1
بيري 1
الموس@@ 1
زيل 1
غالبا 1
اصيل 1
تركيز 1
تشري@@ 1
قصص 1
انغ 1
جع@@ 1
روع 1
والأر@@ 1
العظيم 1
دفاع 1
منخفضة 1
الأطباء 1
ريبة 1
وإذا 1
الانتخابية 1
رسم@@ 1
حر 1
الوقود 1
قلة 1
المرك@@ 1
بوم@@ 1
يُعرف 1
البيزنط@@ 1
الحس@@ 1
فى 1
طرد 1
وعند 1
الإيرانية 1
بريطانية 1
داف 1
جُ@@ 1
ارتف@@ 1
الخطوط 1
قيدة 1
198@@ 1
رسول 1
نشأت 1
هِ 1
ينها 1
16@@ 1
1914 0.7848922639027317
فظ 1
يذكر 1
اردو 1
اعت@@ 1
تداء 1
فتها 1
لتحقيق 1
ارض@@ 1
والتر@@ 1
أولي@@ 1
الأصغر 1
الكبد 1
بنك 1
فإن@@ 1
الفلسطيني 1
ذاته 1
شيئ@@ 1
وهما 1
يشكل 1
براء 1
وأل@@ 1
سات@@ 1
سميت 1
ألمانية 1
التركيب 1
التوالي 1
زوج 1
سبي@@ 1
سلحة 1
فلا 1
مكن 1
منط@@ 1
نمط 1
ائف 1
التخص@@ 1
والدته 1
ابت@@ 1
الحج@@ 1
المفتوحة 1
توي@@ 1
رح 1
رسوم 1
B 0.22904677063532544
قيين 1
وأس@@ 1
البحوث 1
التربية 1
المتوقع 1
الفردية 1
رن 1
رين@@ 1
عربية 1
وأيض@@ 1
إصدار@@ 1
الإجمالي 1
تتطلب 1
سابقة 1
فاً 1
48 0.9028788211259373
التجري@@ 1
ساف@@ 1
قته 1
الذهبية 1
لأي 1
أدي@@ 1
عتها 1
حف 1
قمة 1
تؤثر 1
النص 1
المواطنين 1
لعدة 1
المعم@@ 1
فنان 1
ويلسون 1
أشار 1
بدلا 1
بمعنى 1
ديث 1
معتم@@ 1
المرة 1
غام@@ 1
باش@@ 1
ابلة 1
وائي 1
1926 0.8471649248843399
الكشف 1
باعتباره 1
طى 1
الجبال 1
P 0.42340780146657914
التربة 1
الفكرة 1
سول@@ 1
شرات 1
أبحاث 1
ربات 1
ساح@@ 1
ابر 1
تشكي@@ 1
عباس 1
اكي 1
الأسط@@ 1
تقول 1
العلامة 1
بته 1
شفيات 1
فلسفة 1
اجتماع@@ 1
اللبنانية 1
داي 1
7م 1
فاد@@ 1
كوس 1
اتصال 1
الحيوان 1
الأول@@ 1
المعارضة 1
شب@@ 1
الصناعة 1
ونت 1
باك@@ 1
حينها 1
رِ@@ 1
55 0.9238634256701092
الملعب 1
ساه@@ 1
قاً 1
ملها 1
العلا@@ 1
فرصة 1
ويض 1
لاه@@ 1
لكن@@ 1
موي 1
هيو@@ 1
يكو 1
اسب 1
النرويج 1
بلي@@ 1
مماثلة 1
O 0.2646347964851236
التشغيل 1
الأمريك@@ 1
اليومية 1
حقي@@ 1
مؤسس 1
شا 1
المصدر 1
الأفكار 1
النبات 1
ليون@@ 1
8م 1
الجيل 1
الكندية 1
ذكرت 1
سابقًا 1
شال 1
وامر 1
التطبي@@ 1
تابع 1
الهادئ 1
الآسيوية 1
عالمية 1
الإجراءات 1
التذ@@ 1
طيف 1
يسبب 1
السلوك 1
ومج@@ 1
1912 0.856532111031508
قدة 1
الأمور 1
الكون 1
فعالية 1
أسم@@ 1
جورجيا 1
ريو 1
طئ 1
علامات 1
لمة 1
تات 1
كلات 1
لاق 1
وأكثر 1
وكل 1
الصلي@@ 1
توأمة 1
اعتماد 1
همة 1
ٌ@@ 1
الصحف 1
إقامة 1
الحسين 1
مشاريع 1
هور@@ 1
وزراء 1
جنود 1
لاي 1
أشخاص 1
قوي 1
وعي 1
المشاكل 1
بث 1
عمدة 1
وتكون 1
زمة 1
لبن@@ 1
للدولة 1
خان@@ 1
داول 1
الخلفية 1
الشرا@@ 1
حكوم@@ 1
لاد 1
توفيت 1
وضعت 1
بأك@@ 1
شديدة 1
ولات 1
يحصل 1
عك@@ 1
مساحتها 1
زعيم 1
إشارة 1
25@@ 1
العرش 1
تزيد 1
ثنائية 1
وجيه 1
الذاكرة 1
الطوارئ 1
سلوك 1
طبيعية 1
قالت 1
وايت 1
D 0.2919291141485402
التلفزيون 1
انتص@@ 1
الين 1
ثت 1
معرض 1
الأدلة 1
الحروب 1
ثرة 1
الأرضية 1
المحتمل 1
للتح@@ 1
فيق 1
ممث@@ 1
ناه 1
تاد 1
فحص 1
ويك@@ 1
التحليل 1
فمن 1
مغنية 1
المقاطعات 1
ناس@@ 1
الفضائية 1
تيل 1
فلور@@ 1
عرفت 1
هوكي 1
وأك@@ 1
واص@@ 1
ينش@@ 1
42 0.8525684719354514
ترنت 1
افر 1
الأف@@ 1
رياضة 1
0م 1
اناً 1
غون@@ 1
النبات@@ 1
شهرة 1
جزئ@@ 1
الكهرباء 1
الأث@@ 1
الاختبار 1
نيك@@ 1
أحيانًا 1
العضوية 1
دتها 1
سياسات 1
الأيام 1
ضرب 1
جيدة 1
وصلات 1
قِبل 1
أوت@@ 1
إز@@ 1
الكتلة 1
باري 1
خيص 1
الأط@@ 1
E 0.35183059653142695
شاع@@ 1
يتطلب 1
السيدة 1
بلد 1
بوس 1
بيلي 1
قادرة 1
5م 1
on 0.01254698193064615
إتش 1
الكلي 1
المجالات 1
الجائزة 1
آت 1
تمام 1
كاي@@ 1
خبر@@ 1
اريا 1
لنا 1
مقدار 1
الغابات 1
ايدة 1
فيتش 1
متعدد 1
إرسال 1
لإنتاج 1
موز@@ 1
الرياض 1
تشخيص 1
64 0.6940069397598393
التركي 1
العمل@@ 1
مسابقة 1
الغير 1
رجع 1
شبي@@ 1
6م 1
William 0.3132685333948793
الإير@@ 1
الليبرالي 1
الوفاة 1
الرباط 1
كومة 1
وفاز 1
يور@@ 1
3م 1
التكنولوجيا 1
الصوم@@ 1
حدثت 1
ذاعة 1
الإث@@ 1
نك@@ 1
أولئك 1
الفيزي@@ 1
بدء@@ 1
بلاده 1
تسع 1
جهزة 1
سبع 1
علاوة 1
وإي@@ 1
وطنية 1
المهني 1
كريس 1
مخرج 1
رت@@ 1
عادت 1
للنساء 1
والمح@@ 1
ابقة 1
اختياره 1
الجل@@ 1
حقيقة 1
الأشياء 1
المنف@@ 1
صندوق 1
رئ@@ 1
الإسك@@ 1
صية 1
لتكون 1
السير 1
يوش 1
الجهة 1
الرئاسية 1
سمع@@ 1
التحالف 1
الحاسوب 1
النسبة 1
مبدأ 1
معد@@ 1
مقاطعات 1
عته 1
196@@ 1
اقترح 1
اطير 1
الاشتراكي 1
سيتم 1
ثقاف@@ 1
غرق 1
الرأي 1
السيرة 1
مغني 1
نزوي@@ 1
n 0.12173273568942689
مأ@@ 1
غزة 1
كيلو 1
قان 1
نيس 1
وام 1
يختلف 1
اشية 1
آلة 1
زياء 1
ليبيا 1
المركبات 1
بجانب 1
معنى 1
وعة 1
بدور 1
تسب@@ 1
عار@@ 1
الألمان 1
طائرات 1
وراق 1
يقارب 1
سكنية 1
صُ@@ 1
قص 1
لحة 1
بعاد 1
درك 1
اللاحقة 1
تشيلي 1
مائي 1
نجة 1
انسحاب 1
نجوم 1
الاهتمام 1
العذ@@ 1
تد 1
اليون@@ 1
باخت@@ 1
دانيال 1
لدعم 1
رود 1
ناج@@ 1
التراث 1
تقريباً 1
الاعتراف 1
نص 1
السادسة 1
فرز 1
المناعة 1
أساليب 1
مقدمة 1
الأسبوع 1
طل 1
قار@@ 1
تيس 1
حاد@@ 1
مؤسسات 1
قوم@@ 1
نجح 1
تالية 1
الحقيقية 1
راسة 1
وبعدها 1
برشلونة 1
قضاء 1
متص@@ 1
القراءة 1
السن 1
الأسب@@ 1
دورًا 1
مخط@@ 1
السرعة 1
صيلة 1
تمييز 1
شرك@@ 1
غوا@@ 1
كاه@@ 1
الطبيب 1
زالت 1
197@@ 1
بلوماسي 1
زرا@@ 1
لـ@@ 1
كلارك 1
وزوج@@ 1
بورن 1
نانة 1
القنيطرة 1
المؤرخ 1
دري 1
يرتبط 1
البق@@ 1
اللاعبين 1
والمعلومات 1
والمن@@ 1
وعادة 1
تتعلق 1
حديقة 1
المعر@@ 1
اني@@ 1
سورية 1
التقدم 1
تأسي@@ 1
تينية 1
الفردي 1
بأي 1
درسة 1
ميث@@ 1
أمريك@@ 1
الأدنى 1
ادم 1
تدريس 1
كثيرا 1
إندونيسيا 1
التفاعل 1
المضادة 1
امز 1
بوسطن 1
فش@@ 1
ولاد 1
الأب 1
فريدريك 1
التغذية 1
دراك 1
لج 1
مشرو@@ 1
شعر@@ 1
التدريس 1
وأُ@@ 1
تباع 1
تقارير 1
المساواة 1
بشر@@ 1
حفل 1
لنادي 1
وليام 1
ياس@@ 1
الأولي 1
الرومان 1
الضفة 1
الممتاز 1
ثابت 1
الأوس@@ 1
فيزي@@ 1
والرابعة 1
بوجود 1
دوق 1
مله 1
القصيرة 1
اهتمام 1
لقة 1
مثلا 1
المقابل 1
الموضوع 1
جس@@ 1
الشهير 1
هيكل 1
السطح 1
سويسرا 1
يجعل@@ 1
الأمة 1
الصناعي 1
مند@@ 1
موقف 1
تيال 1
واضح 1
الاستي@@ 1
الوظائف 1
بالد@@ 1
أسفل 1
أنشأ 1
تمع 1
كلم 1
اسكتلندا 1
الأغاني 1
يستخد@@ 1
فذ 1
باني 1
وأنه 1
4م 1
بوت 1
تكار 1
خدمين 1
سالم 1
فضاء 1
قديمة 1
ابن@@ 1
لوي@@ 1
رسمي 1
منهما 1
المتب@@ 1
انتباه 1
ويعد 1
الجماعة 1
تعرض@@ 1
حظر 1
صال 1
كاري 1
الأشعة 1
الإسكندرية 1
نيسان 1
ومرا@@ 1
اكل 1
فورت 1
لأكثر 1
هدفًا 1
عازف 1
المنق@@ 1
شبكات 1
الإم@@ 1
الطرف 1
مقاطعه 1
ملو@@ 1
مواط@@ 1
الظه@@ 1
تبه 1
هاري 1
اجتماع 1
اشتهر 1
السوداء 1
المسر@@ 1
سيلف@@ 1
لوان 1
ويه 1
} 1
شديد 1
بالش@@ 1
سند@@ 1
احتج@@ 1
ثم@@ 1
فلي@@ 1
أفكار 1
هتلر 1
يتميز 1
التفكير 1
الابن 1
الممثل 1
شعاع 1
3.@@ 1
زيز 1
نيت 1
بمع@@ 1
اتفاق 1
قابلة 1
لغات 1
إع@@ 1
كلمات 1
الوظي@@ 1
نج 1
البد@@ 1
الليل 1
المشترك 1
نظمة 1
اث 1
I 0.09335666819880056
يكس 1
9م 1
المسته@@ 1
دما@@ 1
مري@@ 1
1910 0.8131986177422845
الباب 1
دولارًا 1
رسميًا 1
توقع 1
دب@@ 1
ملكية 1
ابير 1
الأموال 1
تمتد 1
فيت@@ 1
كتبت 1
محتر@@ 1
وارع 1
إيجابية 1
سبورغ 1
مانويل 1
الدين@@ 1
والستين 1
دج 1
بحوث 1
حدو@@ 1
قدي@@ 1
ريًا 1
T 0.3220977896234294
الأه@@ 1
الإقليمية 1
قتها 1
حياء 1
قراءة 1
وسر@@ 1
James 0.3169776232458432
الديني 1
الليبر@@ 1
جندي 1
حركات 1
الشؤون 1
تصني@@ 1
قاضي 1
الأصوات 1
ريل 1
عمرو 1
الوعي 1
منظمات 1
بوب@@ 1
السود@@ 1
150 0.9716512624272399
13.@@ 1
باه@@ 1
اسات 1
لاحقا 1
نبول 1
يلي@@ 1
الماجستير 1
المشاريع 1
الوجه 1
صاد@@ 1
الحلفاء 1
الحلقة 1
الطويل 1
تلفزيوني 1
ثلاثين 1
18@@ 1
اجتماعية 1
البلو@@ 1
الحدث 1
مراجعة 1
تارودانت 1
1915 0.8853477335686682
الجامعي 1
الضرائب 1
صاح@@ 1
عمرها 1
الْ@@ 1
الدنمارك 1
رمضان 1
قرة 1
منصبه 1
والتر 1
غيرها 1
L 0.22021867285411656
شات 1
الموجود 1
براطورية 1
افي@@ 1
الزرا@@ 1
التشخيص 1
الميث@@ 1
غالباً 1
الشتاء 1
النيل 1
نعة 1
تفعة 1
فإنها 1
تشبه 1
التيار 1
ماساتشوستس 1
وتي@@ 1
المقام 1
فرن@@ 1
ناث 1
أصد@@ 1
البروتين 1
الجزر 1
جاكسون 1
إسلا@@ 1
التصنيف 1
وارد 1
الجزائري 1
تحاد 1
فنون 1
مقبرة 1
أشعة 1
الدخل 1
الرسوم 1
تجارب 1
جبهة 1
سيرة 1
آذار 1
الكنائس 1
ةٌ 1
لتصبح 1
النمط 1
سلا 1
المحد@@ 1
المعنى 1
طراز 1
فترات 1
وسلا@@ 1
أساسية 1
جاءت 1
للولايات 1
التوق@@ 1
اعتبارًا 1
البحري 1
وخسر 1
التنظيم 1
وقية 1
صحي@@ 1
مرتبطة 1
لدراسة 1
الخصائص 1
بتون 1
مجيات 1
اجي 1
ألا@@ 1
الكلمات 1
بسهولة 1
بنتيجة 1
الذهبي 1
تمرات 1
المدير 1
الموافقة 1
خرية 1
ادر 1
تمام@@ 1
جهود 1
ريش 1
عر 1
تدعى 1
تعليم@@ 1
العمارة 1
الكويتي 1
بقوة 1
رضي 1
كسي 1
نبات 1
الأطراف 1
المقدسة 1
طبيعي 1
تخذ 1
غيل 1
لمنع 1
ورغم 1
39 0.8472431035854965
الياباني 1
الانتقال 1
المحافظين 1
الملح@@ 1
ترشي@@ 1
خام@@ 1
لأفضل 1
an 0.013631244297249503
er 0.019155583564908953
كهرب@@ 1
مقد@@ 1
أسود 1
بلي 1
خم 1
وئية 1
الك 1
المعايير 1
روط 1
محافظ@@ 1
اقتر@@ 1
الصيف 1
صنعاء 1
واحدًا 1
أكس@@ 1
اكا 1
سعر 1
والمنا@@ 1
أسابيع 1
المغربي 1
عائلته 1
فلوريدا 1
مشوار@@ 1
المعالجة 1
منص@@ 1
احت@@ 1
بني@@ 1
العائ@@ 1
العضلات 1
مرتب@@ 1
ويلي@@ 1
النف@@ 1
محطات 1
ألبرت 1
ابها 1
صور@@ 1
الشريف 1
لإعادة 1
ائهم 1
الأجن@@ 1
هيدرو@@ 1
تقي@@ 1
اتخاذ 1
البريد 1
مسألة 1
عضوا 1
مونت@@ 1
بوي 1
ضعي@@ 1
الذهب 1
النصوص 1
الفض@@ 1
الفيدرالية 1
الكلاسيكية 1
تشك@@ 1
شراء 1
أين 1
البكالوريوس 1
غادر 1
نور 1
وست 1
تايلور 1
سجلت 1
ترجم 1
والز@@ 1
النمس@@ 1
تماما 1
رج 1
إيجاد 1
ثالث 1
هونغ 1
للحزب 1
ومنتخب 1
رسون 1
ويند@@ 1
49 0.9290530180519394
التخطيط 1
نفسي 1
آد@@ 1
النقاد 1
وريين 1
عيين 1
قام@@ 1
والتع@@ 1
الأردنية 1
الغلاف 1
سؤ@@ 1
شام 1
الأش@@ 1
سرى 1
إثر 1
روسية 1
شاه 1
البنك 1
للرجال 1
الكات@@ 1
سطات 1
محلية 1
وعش@@ 1
غاز 1
ويقع 1
التحديد 1
لاح 1
95 0.9796729454538565
التض@@ 1
تسوي@@ 1
زاد 1
طُ@@ 1
الصلة 1
ضخم 1
عمرات 1
فيينا 1
بيات 1
الغزو 1
سكر 1
وران 1
الأمطار 1
الجو 1
ربي@@ 1
إجراءات 1
الكيمياء 1
الميكان@@ 1
تطبيقات 1
حضور 1
كبي@@ 1
برتغ@@ 1
خرة 1
نجلي@@ 1
R 0.29742135827269744
الجامعية 1
القتل 1
الكام@@ 1
المسيح 1
النصر 1
الهوية 1
وبدأت 1
وها 1
2021 0.18896353924368595
44 0.6913555992046452
أمثلة 1
أقسام 1
الناتجة 1
ڤ@@ 1
ة- 1
قون 1
أرسل 1
المبكر 1
ريون 1
البسي@@ 1
التاريخي 1
رأ@@ 1
1916 0.8679791207904007
تصف 1
نماذج 1
هيك@@ 1
الأجنبية 1
خوا@@ 1
فقت 1
1913 0.8100297013145772
المشكلة 1
الواق@@ 1
بلدان 1
تتألف 1
دينية 1
رئيسًا 1
رته 1
كير 1
ناً 1
وأم@@ 1
d 0.05649778151190938
آدم 1
الافترا@@ 1
المكتب 1
مصنع 1
ويت@@ 1
سلبية 1
مارات 1
بند@@ 1
ناز@@ 1
ائزة 1
السط@@ 1
انح@@ 1
بريد 1
تعليمه 1
كانا 1
هاء 1
اعتزل 1
العاملين 1
ترى 1
وعن 1
ونتيجة 1
الكثافة 1
بجائزة 1
تمر 1
عودة 1
فيدة 1
روك 1
لوز@@ 1
اهم 1
حصول 1
مؤشر 1
M 0.3254749082638494
الأنسجة 1
دوره 1
تخصص@@ 1
مشتركة 1
اوس 1
قبال 1
الابتدائية 1
رمز@@ 1
سابقا 1
لاحقاً 1
مضرب 1
موضع 1
وزيع 1
أخيه 1
استُ@@ 1
عراض 1
ادًا 1
السوفيتية 1
ديين 1
زاوية 1
ورن 1
ومية 1
يعقوب 1
ومث@@ 1
amp 0.1254836793988099
دني 1
فيلادلفيا 1
إصلاح 1
بلقب 1
زايد 1
كرية 1
وجيزة 1
الوا 1
تهي 1
ولكن@@ 1
الهيكل 1
تربية 1
التحقيق 1
طلحات 1
الرئة 1
حاج@@ 1
بعده 1
دوج@@ 1
الجميع 1
بقايا 1
قررت 1
اختص@@ 1
الصدر 1
رع@@ 1
ولهم 1
56 0.9386059452928468
عدا 1
العام@@ 1
العمو@@ 1
انف@@ 1
تجاه@@ 1
للمركز 1
يمور 1
الخليفة 1
العم@@ 1
هزيمة 1
والعديد 1
أندية 1
بلوماسية 1
طرية 1
فرج 1
وسيا 1
المستوط@@ 1
الموافق 1
بمساعدة 1
صيل 1
إيق@@ 1
دمج 1
فح@@ 1
محدودة 1
وعضو 1
أون@@ 1
روبر@@ 1
مائ@@ 1
تبعد 1
تحالف 1
طلاع 1
للمدينة 1
195@@ 1
تلة 1
ثلاثي 1
إكس 1
زف 1
ممن 1
الباحثين 1
القيم 1
17@@ 1
1908 0.8691106490143563
41 0.8417666077668241
النتيجة 1
طه@@ 1
مترو 1
الفنانين 1
غلاق 1
المستقلة 1
النجم 1
تعيينه 1
دمان 1
ولف 1
ٍ@@ 1
أسعار 1
ئاب 1
النجاح 1
اوضات 1
جميل 1
دراجات 1
قانونية 1
الإع@@ 1
المجر 1
ميون@@ 1
يوفر 1
t 0.05409968526744032
بلجيكا 1
شخاص 1
فاس@@ 1
واق 1
النهضة 1
فيصل 1
مكناس 1
أدلة 1
دن@@ 1
قن@@ 1
وير@@ 1
السائل 1
تسجي@@ 1
السفلي 1
ماي 1
زًا 1
فرت 1
للمرأة 1
ابا 1
الاتحادية 1
الكمبيوتر 1
المخاطر 1
عال 1
المب@@ 1
تح 1
سكا 1
الكوك@@ 1
نال 1
الأشجار 1
تجت 1
المنازل 1
المجلة 1
اعل@@ 1
الأجزاء 1
53 0.9421821548970576
أغراض 1
المسيحي 1
آلية 1
طري 1
غيرات 1
كلين 1
لحقوق 1
معرو@@ 1
d@@ 0.07334507388027493
اعتبار 1
دّ 1
كتور 1
وبري@@ 1
600 0.9335047821835012
الفكر 1
بيض 1
فون@@ 1
كها 1
الدف@@ 1
السلو@@ 1
اليه 1
مقياس 1
ينين 1
أحي@@ 1
تخزين 1
حاجة 1
مستقل 1
بديل 1
روسي 1
والسي@@ 1
وتعد 1
تعرضت 1
الطويلة 1
جرائم 1
فريد 1
يعاني 1
متق@@ 1
وبل@@ 1
ياته 1
الرسالة 1
العاشر 1
القادر 1
تساعد 1
رط@@ 1
فال@@ 1
الأحزاب 1
ولل@@ 1
الأخبار 1
النازية 1
جسر 1
المتعددة 1
سفي@@ 1
نيه 1
والتق@@ 1
الأسواق 1
الإنس@@ 1
الترتيب 1
يونغ 1
مئات 1
مشترك 1
الأو@@ 1
وول@@ 1
ليد 1
U@@ 0.1320213981691627
أسيس 1
القاضية 1
حكومية 1
مبادئ 1
ناول 1
ومو@@ 1
L4 1
إِ@@ 1
54 0.8860906004460544
دودة 1
ضباط 1
للقوات 1
الكحول 1
بارة 1
بعثة 1
ذربي@@ 1
الشهيرة 1
الفرعية 1
القارة 1
سافر 1
عاية 1
للحكومة 1
معبد 1
كثيرًا 1
ماة 1
ينس 1
52 0.7873588865091062
الفن@@ 1
وكتب 1
المخرج 1
بحوالي 1
كدة 1
ءه 1
ميلي@@ 1
X 0.3061097935144762
الاق@@ 1
الدراسية 1
المور@@ 1
كافية 1
أنطونيو 1
تزوجت 1
ديها 1
معًا 1
يانا 1
سرعان 1
كارلوس 1
مئوية 1
رسل 1
زيرة 1
أل 1
انى 1
مائة 1
H 0.431190805706261
الأطلسي 1
تبين 1
تصمي@@ 1
ثها 1
المخط@@ 1
كشاف 1
السياس@@ 1
انيون 1
التدري@@ 1
وبسبب 1
تستطيع 1
تفاع 1
شين@@ 1
المجموع 1
حجر 1
الرياضة 1
الكاملة 1
الإذاعة 1
العظام 1
وعبد 1
اتصالات 1
احتم@@ 1
مقابلة 1
اقم 1
جائحة 1
متن 1
اتفاقيات 1
انًا 1
تايمز 1
دام@@ 1
البوس@@ 1
التغ@@ 1
الطبقات 1
43 0.8260571175727602
أته 1
أطلقت 1
أندرو 1
المهام 1
دولي 1
كبيرا 1
كيز 1
أب@@ 1
ألكسندر 1
ازي 1
نظرة 1
استقلال 1
الأقصى 1
نيكولا@@ 1
ئين 1
سهل 1
غالبية 1
كوكب 1
إدخال 1
التطبيقات 1
بحاث 1
جاي 1
عنصر 1
فوا 1
الفري@@ 1
المتمر@@ 1
توح 1
والذين 1
العدالة 1
قيلة 1
القصص 1
صعوبة 1
صفحة 1
الدواء 1
ق.م 1
مبكر 1
أقرب 1
ألا 1
سى 1
مانشستر 1
يقل 1
الأشكال 1
بلاغ 1
شت 1
19@@ 1
التركيبة 1
العنص@@ 1
المكت@@ 1
الإداري 1
الدوائر 1
المجمع 1
توكول 1
فتاة 1
قدره 1
قس 1
ابت 1
اعدة 1
افترا@@ 1
السكنية 1
العقل 1
علان 1
ماض 1
مقرها 1
الإصلاح 1
باف@@ 1
ينا@@ 1
التونسي 1
الرقمية 1
جنيه 1
قى 1
ماك 1
هورة 1
إنهاء 1
الجماعية 1
الجميلة 1
بابا 1
دائمًا 1
ملاح@@ 1
وزع 1
ومحمد 1
ورم 1
الأبعاد 1
الرس@@ 1
اليب 1
شائ@@ 1
شيخ 1
وهات 1
إدو@@ 1
الوادي 1
ايت 1
ديز 1
لاحات 1
وود 1
ازية 1
الصوتية 1
ومخرج 1
فات@@ 1
باغ@@ 1
تنتمي 1
صيد 1
وديو 1
الحوا@@ 1
ثرو@@ 1
جًا 1
قتة 1
ليك 1
ماج@@ 1
إليزابيث 1
الناج@@ 1
محدد 1
دامة 1
لحماية 1
85 0.9643184582726002
القائم 1
يرها 1
الرحم 1
السياسات 1
الكومي@@ 1
بيرغ 1
يُعتبر 1
الصار@@ 1
سجن 1
وصح@@ 1
الباب@@ 1
سانتا 1
عضوية 1
اللواء 1
بواب 1
حققت 1
47 0.8293070620233217
التعرض 1
القاد@@ 1
خمس@@ 1
فاءة 1
معة 1
1911 0.795325268930073
اكس 1
الجماعات 1
القضائية 1
قاموا 1
واج 1
جَ@@ 1
إخ@@ 1
اكم 1
قوا 1
كانية 1
للعديد 1
للكريكت 1
يؤثر 1
إعداد 1
المكتبة 1
سلي@@ 1
طبقات 1
° 0.3094743420320888
إغلاق 1
خي 1
محركات 1
مركبات 1
ةُ 1
جريمة 1
مارة 1
46 0.8196927039559402
ئلة 1
استي@@ 1
العثمان@@ 1
المستقبل@@ 1
حديث 1
علانات 1
ؤدي 1
السينمائي 1
تخطيط 1
تقري@@ 1
نك 1
وعالم 1
المتحركة 1
لعلاج 1
العدوى 1
غاف@@ 1
كاتبة 1
1905 0.7936410021223083
أداة 1
الفيزياء 1
وضح 1
والولايات 1
الحيوي 1
بيون 1
ليف@@ 1
نفو@@ 1
افتتا@@ 1
البروتينات 1
امت 1
أستاذ@@ 1
الأكسجين 1
بفضل 1
عقود 1
اللبن@@ 1
اليمين 1
حفظ 1
وثيقة 1
الحرارية 1
الصخور 1
تشاب@@ 1
جامعي 1
فرنان@@ 1
استجابة 1
القل@@ 1
المقارنة 1
خصوصا 1
يهود 1
الأمين 1
برا 1
عضاء 1
موريس 1
الأفريقي 1
هود 1
أخبار 1
قائق 1
للإحصاء 1
موافقة 1
y@@ 0.0899203222817453
اوا 1
وبحلول 1
بسيطة 1
ميين 1
تراك 1
والاجتماعية 1
السيارة 1
الأفارقة 1
للجيش 1
الهولندية 1
جوانب 1
يساعد 1
تحصل 1
مايك 1
e@@ 0.06451118988203958
اريس 1
البالغ 1
التفا@@ 1
الثدي 1
تسعة 1
تور 1
كال 1
ثمار 1
فنلندا 1
مجد@@ 1
الأكاد@@ 1
عنف 1
كيت 1
مجتم@@ 1
اص 1
المساحة 1
X@@ 0.27197533658085243
تيد 1
حان 1
ذور 1
للطاقة 1
ارته 1
ارف 1
الساح@@ 1
حيم 1
فيكتوريا 1
مالا 1
احات 1
بارية 1
تخرج@@ 1
يقال 1
12.@@ 1
سلي 1
سيرته 1
لبناء 1
ملوك 1
القاطنين 1
السود 1
غيير 1
والدتها 1
َّا 1
المركبة 1
قاسم 1
أية 1
القطع 1
المتص@@ 1
المستمر 1
ساي@@ 1
72 0.9001213218453508
احتلال 1
نخ@@ 1
السو@@ 1
خفاض 1
لاعب@@ 1
للكتلة 1
النقد 1
تياز 1
جت 1
وتست@@ 1
التغيير 1
بدلًا 1
بنات 1
تجميع 1
وطة 1
وظي@@ 1
أراد 1
افه 1
الأند@@ 1
مركبة 1
معر@@ 1
أعد@@ 1
زيمة 1
قِ@@ 1
الرغ@@ 1
السلع 1
بروتين 1
الفرنسيين 1
الممثلة 1
جيب 1
التقارير 1
الصيد 1
ضبط 1
وور@@ 1
الرب@@ 1
قرن 1
وإعادة 1
التحول 1
الدفع 1
تدى 1
المول@@ 1
طيلة 1
غضون 1
لواء 1
متم@@ 1
اطئ 1
الدما@@ 1
جعفر 1
دعا 1
دوس 1
شاب 1
معي@@ 1
العدل 1
رأى 1
للتع@@ 1
يشبه 1
أفغانستان 1
المقرر 1
قيقات 1
أوهايو 1
الأزرق 1
وُلد 1
1909 0.8701405557683616
السكك 1
تضمنت 1
شب 1
للمر@@ 1
ألك@@ 1
العادية 1
بريدج 1
ديش 1
شيوعًا 1
يط@@ 1
الإجه@@ 1
التنفس 1
التقي@@ 1
جهات 1
57 0.8746657272553303
الرسم 1
باتجاه 1
شمس 1
غال 1
مشاه@@ 1
نموذ@@ 1
الخلي@@ 1
أقوى 1
يتمكن 1
اجتماعي 1
متط@@ 1
منفصلة 1
يشار 1
تفاضة 1
تِ@@ 1
ساس@@ 1
صباح 1
الاتجاه 1
الغذائي 1
تأتي 1
وبشكل 1
اهدة 1
جمه@@ 1
نباتي 1
هوب@@ 1
ستا 1
ؤه 1
كميات 1
وغرا@@ 1
الاستعمار 1
الرياح 1
دعوة 1
سار 1
مرضى 1
84 1
عث@@ 1
التزام 1
الجس@@ 1
تراجع 1
وكما 1
p 0.1501350412304228
F 0.2819172557231094
الواحدة 1
الوفيات 1
بْ@@ 1
is 0.008721058032057688
المعاد@@ 1
جذب 1
زيت 1
قبلات 1
مكت@@ 1
ميلر 1
ندوق 1
الطي@@ 1
تاريخها 1
تحتاج 1
ربيع 1
عرضة 1
الشائعة 1
اوف 1
قابل 1
أخت@@ 1
بالب@@ 1
بالضربة 1
هارفارد 1
يمتد 1
c 0.11782096953537136
التحتية 1
خري 1
شارة 1
التعرف 1
بدرجة 1
يومًا 1
شخصًا 1
ستيوارت 1
لسون 1
الخضراء 1
رفض@@ 1
ضائع 1
كاز@@ 1
كثرة 1
مك 1
ّع 1
القاضي 1
صفوف 1
صي 1
كيلي 1
لولاية 1
أخلا@@ 1
انفص@@ 1
سجيل 1
مثلاً 1
250 1
حاول@@ 1
درائية 1
رادات 1
اتب 1
التحر@@ 1
الأج@@ 1
والعمل 1
إله 1
العاط@@ 1
القواعد 1
بام@@ 1
معارضة 1
وقت@@ 1
المنظ@@ 1
زع 1
قرط@@ 1
زن@@ 1
أنثى 1
الإيجاب@@ 1
انتش@@ 1
دورات 1
صفة 1
كته 1
ونس 1
يهدف 1
الحاج 1
الغز@@ 1
بروس 1
تمي@@ 1
جانية 1
سوري 1
بران@@ 1
بدو 1
أطل@@ 1
الصرف 1
اسم@@ 1
الشعوب 1
المعادن 1
روايات 1
مكونات 1
الأجسام 1
ديلات 1
غم 1
يجري 1
أوري@@ 1
مثلت 1
واحي 1
القليل 1
توجيه 1
طقة 1
ولاً 1
الحر 1
الوح@@ 1
ثارة 1
مناه@@ 1
ومجمو@@ 1
اتين 1
السابعة 1
العلامات 1
المنط@@ 1
ارو 1
الكونغرس 1
النسب@@ 1
حافظ@@ 1
التجربة 1
الكوا@@ 1
مؤخر@@ 1
أصوات 1
العمي@@ 1
اليس 1
لحن 1
b 0.14855469282858397
المتوسطة 1
تجه 1
تشارك 1
روية 1
أولاً 1
بريت 1
عامر 1
نشاء 1
فردي 1
ذب 1
طيع 1
ظهار 1
وريات 1
الأسماء 1
الإقليم 1
البوذية 1
الين@@ 1
طوي 1
تاف@@ 1
صحية 1
أكدت 1
أوروب@@ 1
الفلسط@@ 1
تلال 1
توحيد 1
يسجل 1
الويب 1
رجح 1
مساح@@ 1
اراً 1
متلكات 1
التصني@@ 1
ثلاثية 1
يّ@@ 1
بالتعاون 1
رومانيا 1
غن 1
62 0.8480812254435647
التي@@ 1
الجيولوج@@ 1
بلاء 1
بولي@@ 1
1906 0.819538388268188
ضاف 1
كيب 1
جماعات 1
هز@@ 1
المراكز 1
خطاب 1
ظلت 1
المنخفضة 1
فيهم 1
وقبل 1
زاب@@ 1
لتطوير 1
ماذا 1
الله@@ 1
اليمنى 1
جامعات 1
ولوج@@ 1
القن@@ 1
بدل 1
ضيق 1
شيد 1
قاط 1
ندق 1
المفهوم 1
عددًا 1
أثار 1
اضط@@ 1
السلاح 1
تقي 1
جيا 1
George 0.2632724113117285
آلات 1
800 0.8681331007413883
أسو@@ 1
التلفزيونية 1
الرومان@@ 1
شملت 1
طبية 1
فروع 1
للاتحاد 1
وطات 1
الألوان 1
التدخل 1
التعريف 1
خمة 1
عمق 1
وأص@@ 1
دائما 1
زرع 1
سيات 1
شجرة 1
مقار@@ 1
استخدامات 1
المهاجرين 1
كلي 1
لمجموعة 1
يحاول 1
00 0.6449123222187995
إيطالي 1
المحليين 1
بالط@@ 1
سلطات 1
مجرة 1
نفسية 1
أزمة 1
الآداب 1
المبي@@ 1
دوب@@ 1
سفن 1
بوصف@@ 1
ستكون 1
ارعة 1
الصلا@@ 1
شائعة 1
عالي 1
58 0.8648265356816252
السماح 1
العبيد 1
الغرض 1
المشاة 1
المعيش@@ 1
فيتنام 1
كوف 1
لدرجة 1
وجنوب 1
وده 1
قطت 1
السياحة 1
حرف 1
إعطاء 1
الباكست@@ 1
الصوديوم 1
الوسط@@ 1
بعدم 1
واجهة 1
30@@ 0.9859007241451088
استعادة 1
التسويق 1
الكرا@@ 1
كلما 1
الأوروب@@ 1
سيًا 1
والمرا@@ 1
دائم 1
ستيف 1
o 0.0420230150308
أندرسون 1
الانتشار 1
البور@@ 1
الطالب 1
العدو 1
حافظ 1
حديثة 1
رال 1
الجينات 1
افا 1
العد@@ 1
بالخ@@ 1
وزيادة 1
أنماط 1
اللق@@ 1
المحي@@ 1
الهيدرو@@ 1
بساطة 1
66 0.8908501466925617
إنتاجه 1
الداخل 1
الزاوية 1
السباق 1
بادة 1
حوا@@ 1
وأحي@@ 1
الاعتبار 1
انوية 1
بعيد 1
ويجب 1
الأستر@@ 1
الإله 1
الثلاث@@ 1
طاع 1
اجد 1
القرا@@ 1
راضي 1
عرضه 1
فال 1
الأدوات 1
الحاضر 1
الخيرية 1
الموظفين 1
ظبي 1
والأربعين 1
ارتبا@@ 1
المقدمة 1
بيل@@ 1
تدعم 1
ركة 1
سير@@ 1
محاولات 1
سائل 1
عدن 1
تردد 1
مارسة 1
مهنة 1
هاي 1
قصيدة 1
أبيض 1
الإند@@ 1
السريرية 1
المائة 1
يورو 1
الخز@@ 1
اعل 1
تكري@@ 1
لإنشاء 1
لتلك 1
لمدينة 1
لُ@@ 1
آب 1
الاتفاق 1
الكلام 1
بصفة 1
رْ@@ 1
شون 1
اليهودي 1
تموز 1
شان 1
لوف 1
c@@ 0.08187259202647784
نود 1
نْ@@ 1
51 0.783129370163736
اشي 1
الإمبراط@@ 1
الحضرية 1
جناح 1
راق 1
المسافة 1
علمي 1
لند@@ 1
هاب@@ 1
نفس@@ 1
الاستجابة 1
جاح 1
اتٍ 1
الشديد 1
دعم@@ 1
ضه 1
إسرائ@@ 1
تفق 1
نست 1
1907 0.790349542081465
المغناطيسي 1
استن@@ 1
مخطط 1
البة 1
ثار 1
ارتك@@ 1
الجناح 1
بشكلٍ 1
تيم 1
طلقت 1
— 0.02263990189434633
أوكرانيا 1
ثمان@@ 1
رئيس@@ 1
لاخت@@ 1
والبي@@ 1
يمتلك 1
اتخ@@ 1
جيمي 1
حصار 1
قيات 1
الفم 1
مهام 1
1900 0.6392381237350176
اختي@@ 1
استغ@@ 1
يصف 1
يُعد 1
أغلبية 1
السماء 1
مسقط 1
أنشأت 1
القريبة 1
الكوي@@ 1
تاز 1
رول 1
مسيرة 1
أسماك 1
أونتاريو 1
باتريك 1
حزيران 1
ضغ@@ 1
المحاكم 1
المعدنية 1
فعلى 1
البروتست@@ 1
الحركات 1
الساب@@ 1
المخص@@ 1
مالة 1
فادة 1
فيض 1
منصور 1
يناء 1
الجمعة 1
داخلية 1
s@@ 0.04182560487357755
خطأ 1
ويب 1
7.@@ 1
إمارة 1
الجودة 1
المناسبة 1
مرمى 1
86 0.9470980225533421
إذ@@ 1
أشجار 1
الروايات 1
سيمة 1
وجهات 1
أظهر 1
النظم 1
بقيت 1
جزائ@@ 1
سعة 1
المتط@@ 1
ماد 1
التقنيات 1
الفضل 1
ميزات 1
الإصدار 1
الكيميائي 1
طوكيو 1
فريق@@ 1
لعب@@ 1
العملاء 1
بنفسه 1
الصعب 1
تفظ 1
توف@@ 1
أعقاب 1
الاحتج@@ 1
تملك 1
يشارك 1
59 0.865373145045965
الممارسة 1
تجة 1
دورا 1
زالة 1
يمث@@ 1
المبادئ 1
فرص 1
هري 1
شريك 1
طم 1
المراجع 1
تشجيع 1
كريستيان 1
أرسل@@ 1
أسست 1
رسائل 1
مطلع 1
71 0.9299784655835228
99 0.9286199384989244
القادة 1
اليون 1
ختلف 1
طرا@@ 1
متوا@@ 1
الكهربائي 1
النقاط 1
الهاتف 1
بنحو 1
غهام 1
كيميائي 1
ومق@@ 1
الأندية 1
التقد@@ 1
ضخمة 1
تمعات 1
رواد 1
مستوط@@ 1
الفقر 1
ثبت 1
كثيراً 1
مؤلفاته 1
يتان 1
الحراري 1
الموسيقي 1
حصن 1
قرابة 1
وغير@@ 1
وتعل@@ 1
وغالبًا 1
أيار 1
التنفيذ 1
السنين 1
كتبها 1
اختلاف 1
ارتفاع@@ 1
نسبيًا 1
السيوم 1
الهيدروجين 1
بالعمل 1
تطوي@@ 1
مسا@@ 1
ميلان 1
ّب 1
أعيد 1
الربيع 1
المؤلف 1
بوش 1
ضيع 1
1904 0.8121989361807005
63 0.8491744424904137
البيئي 1
الرئاسة 1
لعدم 1
بدوره 1
تتمتع 1
المدرب 1
مكسيكي 1
الاعتماد 1
التقلي@@ 1
المخدرات 1
وامت@@ 1
يرلندي 1
بلان@@ 1
تركيب 1
حوض 1
مدادات 1
مرش@@ 1
مناقشة 1
وذكر 1
ولهذا 1
إك@@ 1
الفيروسات 1
شكلت 1
قصد 1
ميكان@@ 1
67 0.8921199951853532
تحدد 1
خطاء 1
صرا@@ 1
والدين 1
استمرار 1
واط 1
David 0.26501114418767435
عربي 1
الأوعية 1
وأول 1
بورت 1
شق@@ 1
فتاء 1
وبيا 1
شروط 1
الشيء 1
امتد@@ 1
دقة 1
فكانت 1
لمجلس 1
خار 1
أعوام 1
194@@ 1
98 0.9334203922589627
الحربية 1
المشاركين 1
ديز@@ 1
ميش@@ 1
الده@@ 1
Y@@ 0.12175887165351243
اغو 1
الاختلافات 1
تقدر 1
السفل@@ 1
الشرعية 1
المتو@@ 1
خروج 1
اخر 1
منه@@ 1
استئ@@ 1
المباد@@ 1
تخفيف 1
تيار 1
حايا 1
َا 1
إسحاق 1
الجريمة 1
المناخية 1
ساس 1
فُ@@ 1
محاض@@ 1
مريض 1
برئ@@ 1
خسر 1
الفات@@ 1
مره 1
يمت@@ 1
إسك@@ 1
الآلهة 1
تطورت 1
لإدارة 1
8.@@ 1
اضطرابات 1
الجلي@@ 1
الوط@@ 1
للف@@ 1
استط@@ 1
الناصر 1
الوزير 1
وبط@@ 1
كينغ 1
يدخل 1
الاختبارات 1
المحتوى 1
المساه@@ 1
خوة 1
شه 1
المسلمون 1
الهولندي 1
طلبات 1
مقاب@@ 1
استر@@ 1
الجراحة 1
بمعدل 1
ديب 1
سيدني 1
88 0.9323906827435127
أهمها 1
المرمى 1
73 0.894106926120183
الذات 1
ديس 1
متف@@ 1
البريطانيين 1
الترجمة 1
للمح@@ 1
الشهر 1
سياق 1
شاشة 1
مانيا 1
الاصطنا@@ 1
المرو@@ 1
موجود 1
دورها 1
سيل@@ 1
ماس 1
أرض@@ 1
انهيار 1
درا 1
زين@@ 1
موية 1
نغ 1
واتف 1
http 1
انوي 1
غياب 1
خرا@@ 1
للحفاظ 1
مشابهة 1
تُعرف 1
الاستثمار 1
بلوم 1
رّ@@ 1
غلي@@ 1
افت 1
الإحص@@ 1
كًا 1
الاث@@ 1
ضمان 1
وائف 1
الألي@@ 1
التشريعي 1
المراحل 1
لح 1
83 0.959542046818236
المعارك 1
تهرت 1
التشي@@ 1
المباشرة 1
سنتين 1
صلاة 1
مازي@@ 1
نافس 1
ادين 1
الفائ@@ 1
شيا 1
علي@@ 1
بقيمة 1
مقات@@ 1
وجين 1
وقوع 1
حضارة 1
وعد@@ 1
الخمسة 1
تُستخدم 1
جود 1
عضواً 1
مكون 1
الشبكات 1
ترامب 1
ذين 1
التقرير 1
المعاصرة 1
صرح 1
مشاهدة 1
والخدمات 1
وَّ@@ 1
أسي@@ 1
أنشئت 1
الأسلوب 1
الريفية 1
المالي 1
محمية 1
تمان 1
جدول 1
رياضي 1
وقيل 1
الحكومات 1
كور 1
مصرية 1
وإن@@ 1
وتا 1
الفلبين 1
دينام@@ 1
رأس@@ 1
سوفت 1
es 0.015715361432059868
انون 1
ثابتة 1
حراسة 1
نيوزلندي 1
اقتصادي 1
خرجت 1
عاء 1
N 0.2828759645586662
الثقافات 1
رأسه 1
رئيسة 1
اؤه 1
اريو 1
رع 1
قطار 1
ويس 1
داع 1
يء 1
أوف 1
نام 1
وفد 1
الأستاذ 1
رسام 1
ثانوية 1
ربا 1
قطر@@ 1
ماكس 1
يعطي 1
الحرس 1
الغدة 1
بعدة 1
ديون 1
الانف@@ 1
متطلبات 1
وإنما 1
69 0.9284328883198009
الممث@@ 1
بز 1
لوت 1
ذيب 1
فإذا 1
هاد@@ 1
يتحدث 1
um 0.05866687571484004
أبن@@ 1
جراحة 1
تواصل 1
توسيع 1
المطار 1
تقدات 1
ليه 1
ميلا@@ 1
www.@@ 1
تاجر 1
روبن@@ 1
المبار@@ 1
المكونات 1
يعر@@ 1
1- 1
الفت@@ 1
G 0.2487847158573861
الجامع 1
الأرثوذكسية 1
العسك@@ 1
المعمارية 1
راجع 1
غور 1
هامة 1
تنا 1
شين 1
طون 1
كتبه 1
ينج 1
سمية 1
مرتبة 1
بإنشاء 1
الفور 1
بتت 1
ديرة 1
رفي@@ 1
عسك@@ 1
موسيقية 1
Z@@ 0.08245589936370115
\ 1
بأن@@ 1
وليامز 1
يحتاج 1
باعة 1
شاركة 1
وابن 1
وبد@@ 1
يده 1
1901 0.8352804518213145
المحطة 1
تخت@@ 1
رقاء 1
Robert 0.2532880227993743
الحضارة 1
المثل 1
تعري@@ 1
ومد@@ 1
الأض@@ 1
الانتهاء 1
القول 1
الملوك 1
قم 1
ليني 1
أعظم 1
الشخصي 1
نظرا 1
واب@@ 1
وفو 1
الكري@@ 1
المجتم@@ 1
المسار 1
درست 1
سيارات 1
ميدان 1
مسلم 1
لأسباب 1
التنفيذية 1
الفتا@@ 1
غتون 1
الشريعة 1
هنالك 1
وريد 1
اقترا@@ 1
التقسيم 1
المخابرات 1
توظ@@ 1
طاقم 1
ومحامي 1
p@@ 0.060761636644667195
أنفاق 1
الخطاب 1
دنا 1
لوصف 1
ووص@@ 1
b@@ 0.06154821212840397
حيثُ 1
منصة 1
أعمالها 1
التكلفة 1
لاحية 1
120 0.9721748411812143
العقلية 1
دريس 1
فردة 1
للد@@ 1
ليم 1
وابن@@ 1
أحيانا 1
الأهمية 1
حذ@@ 1
مترا 1
يُعتقد 1
اجية 1
الهجمات 1
ديفيس 1
سيمات 1
93 0.9310933129868545
ادق 1
يعملون 1
1903 0.8109985789082239
الوكالة 1
دعاء 1
كوت@@ 1
التقى 1
الوس@@ 1
بيني 1
العرقي 1
ذاك 1
اللاجئين 1
النسائية 1
تاجها 1
تزل 1
سمه 1
لتقديم 1
مارسات 1
وقامت 1
يجيد 1
يُستخدم 1
آل@@ 1
اءة 1
عبيد 1
لدي@@ 1
ونتو 1
يرس 1
الأوق@@ 1
اهتم@@ 1
عادل 1
متكر@@ 1
أحكام 1
الجهود 1
سعودي 1
مبراطورية 1
يتراوح 1
أثينا 1
اعتبر 1
تطبي@@ 1
رضا 1
مؤرخ 1
متابعة 1
السكر 1
ايات 1
e 0.04976229710097228
الجري@@ 1
القرون 1
الورم 1
كفاءة 1
to 0.003708904914142378
جنا@@ 1
كري 1
11@@ 1
تجار@@ 1
وشي@@ 1
ومان 1
الصناعات 1
الموقف 1
حقيقية 1
داود 1
ذاتية 1
ووضع 1
الدب@@ 1
ساو 1
التقاليد 1
دِ@@ 1
قضى 1
أسبوع 1
تشف 1
سحب 1
يدع@@ 1
اشة 1
فنية 1
نيك 1
والثقافة 1
وقتها 1
الجهد 1
المتاحة 1
الاستعمارية 1
حنا 1
رشيد 1
شاهد 1
الشيوعية 1
العامل 1
شام@@ 1
شح@@ 1
الأردني 1
الدعوة 1
الصغرى 1
الفتيات 1
اللاه@@ 1
كسية 1
هوارد 1
إسب@@ 1
استبدال 1
ذاتها 1
الأهلي 1
المأ@@ 1
الياب@@ 1
بعينات 1
مهما 1
جال 1
طف 1
كتوراه 1
للإشارة 1
محر@@ 1
مخاطر 1
نسخ 1
ومركز 1
الكاثوليك 1
المقالات 1
الأوك@@ 1
الصيغة 1
دمت 1
ستار@@ 1
شُ@@ 1
ويقول 1
غرين 1
مسيرتها 1
‌ 1
اؤها 1
المؤرخين 1
الهض@@ 1
رومان@@ 1
شور 1
96 0.9290864833532959
اءً 1
تعالى 1
صياغة 1
طرت 1
القادمة 1
تلى 1
شير@@ 1
9.@@ 1
رحلات 1
اصط@@ 1
الحقبة 1
دال 1
رأي 1
قانوني 1
واني 1
الأزمة 1
الدرافت 1
المتقدمة 1
المشرو@@ 1
باستمرار 1
جاي@@ 1
كينيدي 1
مستقبل 1
يمه 1
قريبة 1
الماضية 1
بضعة 1
ذكره 1
المظ@@ 1
الوزارة 1
قلبية 1
نجليزية 1
أمل 1
إلينوي 1
تلفزي@@ 1
تلفزيونية 1
رويجي 1
سمع 1
مبا@@ 1
موجة 1
ادو 1
المنح@@ 1
مكسي@@ 1
ملاحظة 1
وّل 1
v 0.26048298676964715
درت 1
عف 1
مفتوحة 1
المو@@ 1
دث@@ 1
سح@@ 1
والتنمية 1
a@@ 0.10302765264355637
أرجن@@ 1
مدين@@ 1
يمها 1
الزمني 1
سبت 1
شائع 1
القرارات 1
بدورها 1
وتضم 1
2- 1
جغرا@@ 1
سيب 1
لقات 1
يسوع 1
الألم 1
النسيج 1
رؤساء 1
رايت 1
الرصاص 1
طيران 1
1898 0.870642134936212
81 0.9228242407309781
اختبارات 1
تجري@@ 1
فاط@@ 1
لزيادة 1
الرسائل 1
أفريقي 1
الطلبة 1
الميدالية 1
نسون 1
وفيات 1
صلات 1
لوبي@@ 1
واهر 1
يي 1
وحي@@ 1
النفايات 1
سترا@@ 1
كله 1
أمور 1
تحقق 1
تشرة 1
تناسب 1
النماذج 1
تغطي 1
راج 1
وإدارة 1
1902 0.7951766824869655
حلقات 1
مترًا 1
61 0.8520756290639474
آث@@ 1
الجمع@@ 1
تفوق 1
رسميا 1
فقات 1
وث 1
الإقلي@@ 1
التها 1
الحشرات 1
تيبة 1
جهد 1
حارس 1
خلية 1
كولن 1
المادية 1
المباريات 1
تيا 1
صلا@@ 1
ممكن 1
منخفض 1
78 0.8875711427923374
79 0.9544342623291587
تفاصيل 1
فرانسيس 1
إيط@@ 1
الخض@@ 1
الوظيفة 1
صاص 1
عرضت 1
فوج@@ 1
وقعة 1
الفلك 1
بنيت 1
تكاليف 1
مكانة 1
وعات 1
الجسيمات 1
تأثيرات 1
فرعية 1
مقالات 1
الأجانب 1
الصادر 1
النص@@ 1
ذكور 1
روح@@ 1
يتمتع 1
أسرع 1
شَ@@ 1
كيك 1
.com 1
76 0.8503448673649907
خور 1
أحمر 1
التحض@@ 1
تجنب 1
ضحايا 1
ممة 1
193@@ 1
t@@ 0.049945536640882277
آنا 1
إضاف@@ 1
كرب@@ 1
متخصصة 1
موسمين 1
نزي 1
الفص@@ 1
المطلوبة 1
النشر 1
الوجود 1
حيوان 1
خبارات 1
تُعتبر 1
صع@@ 1
موز 1
الأندلس 1
التطوير 1
الروح 1
الما 1
فعالة 1
يتك@@ 1
يحد@@ 1
الضباط 1
دلي 1
سنت 1
عارضة 1
كولوم@@ 1
ؤها 1
الشرف 1
اليوناني 1
برازيلي 1
بكلية 1
زز 1
فني 1
وعاد 1
ويعتقد 1
العضل@@ 1
محاك@@ 1
وياً 1
الواضح 1
يأ@@ 1
الأيمن 1
دوغلاس 1
الره@@ 1
ديمقراطية 1
77 0.8706857451750715
طرنج 1
غاية 1
لأن@@ 1
وانات 1
التوجه 1
ذى 1
رخ 1
فندق 1
نحن 1
الباحثون 1
السبا@@ 1
وبلغت 1
وبناء 1
ناطيسية 1
هجمات 1
أبي@@ 1
دنية 1
صراع 1
ندن 1
ينما 1
الأسد 1
عنا@@ 1
تاريخه 1
عتبر 1
الصلبة 1
حكمه 1
زائ@@ 1
عمارة 1
يرن 1
10.@@ 1
26@@ 1
الأسطول 1
حلة 1
عرق 1
ونشر 1
الملابس 1
الهامة 1
تجار 1
عمومًا 1
الإضافة 1
تصور 1
كيبي@@ 1
23@@ 1
احتمال 1
بعث 1
تسون 1
سًا 1
التغيرات 1
العاش@@ 1
المذهب 1
جواز 1
درالية 1
محور 1
وأستاذ 1
ألين 1
الاحترا@@ 1
تميز@@ 1
وئي 1
وتسمى 1
أعلا@@ 1
نهج 1
وأه@@ 1
السويدية 1
بنظام 1
قات@@ 1
وفرنسا 1
r 0.16550117221201402
حيين 1
للتعليم 1
مغادرة 1
هت 1
وتطوير 1
إقلي@@ 1
اؤ@@ 1
صدار 1
فيك 1
مّ@@ 1
نيفة 1
يوود 1
× 0.8159923986507585
الصباح 1
روسات 1
بيري@@ 1
ستير 1
ربين 1
هوة 1
العُ@@ 1
بوز@@ 1
ماليزيا 1
ملي 1
وأف@@ 1
واستخد@@ 1
m 0.06660402542816464
آخ@@ 1
اليسار 1
سخ@@ 1
مولة 1
الساحلية 1
العادة 1
العرقية 1
فرجينيا 1
ليبر@@ 1
موئيل 1
ألبوم@@ 1
ازد@@ 1
امنة 1
جزي@@ 1
واح 1
al 0.0226925323520341
أفلا@@ 1
البصرة 1
الممت@@ 1
حينما 1
وطن 1
ينظر 1
جنرال 1
سيمون 1
لوث 1
مسؤولية 1
يملك 1
إسط@@ 1
انضمام 1
فضلاً 1
استث@@ 1
الثقة 1
الزيتون 1
السنوي 1
طفال 1
عطاء 1
كريم 1
لط 1
واس@@ 1
وتار@@ 1
68 0.8346835357068672
91 0.8926472145276191
حاً 1
حبي@@ 1
شرط 1
لفزيون 1
التأثيرات 1
الخطة 1
عْ@@ 1
مستخد@@ 1
أراض@@ 1
إيجاب@@ 1
الأزواج 1
تميزة 1
دييات 1
اقد 1
المرج@@ 1
ذاكرة 1
اعتمد 1
خطيرة 1
رص@@ 1
أوبلاست 1
ضًا 1
عشرات 1
ى@@ 1
ألان 1
الأميرة 1
المسب@@ 1
تُعد 1
المناسب 1
معا 1
الاتفاقية 1
الرؤية 1
جاني 1
ناض@@ 1
والثاني 1
الأدبي 1
تنسيق 1
داني 1
فوكس 1
فيزياء 1
ورقة 1
الدهون 1
النوم 1
دراست@@ 1
للوصول 1
ةَ 1
تحكم 1
حادث 1
لضمان 1
74 0.8300873944540956
اختراع 1
البه@@ 1
الكورية 1
المحتر@@ 1
مينيا 1
وتية 1
وضعها 1
ومر@@ 1
الارتبا@@ 1
الكسندر 1
المحتملة 1
تفعات 1
كبيراً 1
متر@@ 1
هزم 1
هون@@ 1
87 0.9251699850949299
تايوان 1
ثان 1
دراج 1
قرارات 1
لْ@@ 1
ووك@@ 1
28@@ 1
حجم@@ 1
دش@@ 1
البيولوجية 1
الحادث 1
طيب 1
الأعصاب 1
الجدد 1
باق 1
زيا 1
نيسة 1
المرش@@ 1
ديق 1
منت@@ 1
يريد 1
القطب 1
رفضت 1
سريع 1
لنظام 1
اقتراح 1
المخطط 1
الى 1
رضية 1
ولًا 1
الباح@@ 1
مرية 1
700 0.9755701566541121
بيكر 1
حيز 1
خير 1
موقعها 1
أحدث 1
المغول 1
بارزة 1
بشر 1
دوائر 1
ميل@@ 1
البريطان@@ 1
الذكاء 1
براطور 1
تمويل 1
لعدد 1
مانة 1
ماير 1
92 0.8527960548919616
تواجد 1
جوه@@ 1
ولما 1
َّى 1
تبات 1
جيال 1
لنقل 1
موسي@@ 1
هارت 1
واحل 1
ببناء 1
حديد 1
شتو@@ 1
يكفي 1
1,@@ 0.46509817469324827
NGC 1
أحياء 1
المذكورة 1
تبدو 1
تصاص 1
متو@@ 1
نبذ@@ 1
1890 0.8064449997288429
إلقاء 1
ازي@@ 1
المهندس 1
بمنطقة 1
مكونة 1
الجذ@@ 1
بتقديم 1
جلي@@ 1
دوج 1
سوم@@ 1
غيره 1
ويستخدم 1
1899 0.8399371061718207
الأوب@@ 1
البوا@@ 1
الدوا@@ 1
تجديد 1
ذان 1
عه@@ 1
كليات 1
العمرية 1
مركزية 1
n@@ 0.055819936978465705
أحر@@ 1
داد@@ 1
عارض 1
50@@ 1
عودته 1
اطع 1
السرية 1
انتشرت 1
مطالب@@ 1
يحدد 1
نظريات 1
يّاً 1
كبرى 1
00@@ 0.9493980963647973
الاً 1
المناصب 1
بصفته 1
بى 1
توقيع 1
ودا 1
نهار 1
و0.@@ 1
حرة 1
كلين@@ 1
وقتل 1
جماع 1
كوف@@ 1
متهم 1
هاجر 1
يأخذ 1
97 0.8974994295562403
ابون 1
الدول@@ 1
الًا 1
جزيئات 1
حاد 1
وتن 1
² 0.2373154211216037
الرياض@@ 1
الوصف 1
راحة 1
صت 1
قسم@@ 1
05 0.9694847631533526
قيس 1
ونسو 1
الفرنسي@@ 1
جوجل 1
مستعمرة 1
مسيحية 1
موط@@ 1
ومص@@ 1
بشير 1
زلي 1
هوف@@ 1
89 0.8706321911391386
رائد 1
قصور 1
82 0.9160653806800246
إليهم 1
إنتر@@ 1
تخصصة 1
29@@ 1
السنو@@ 1
تماث@@ 1
دفن 1
كوم 1
باها 1
البن@@ 1
ديوان 1
قناع 1
وقود 1
ة@@ 1
موارد 1
وانب 1
غاد@@ 1
فيت 1
كوين@@ 1
الحصار 1
الخصوص 1
خون 1
اشات 1
حكام 1
فاق@@ 1
وروب@@ 1
الاضطرابات 1
فيكتور 1
وروبا 1
التاسعة 1
الممارسات 1
دقائق 1
مونت 1
ائمة 1
مختلف@@ 1
البارزة 1
بتح@@ 1
سوا@@ 1
ليصل 1
يقات 1
كفر 1
الصف 1
المناف@@ 1
سكان@@ 1
مجل@@ 1
ومنهم 1
1896 0.8332691069400425
الملاح@@ 1
رخ@@ 1
سرائ@@ 1
Charles 0.21942771449547488
إيفان@@ 1
جوم 1
لندا 1
الرسول 1
اوى 1
رويج 1
وضاع 1
الإلكترو@@ 1
بمو@@ 1
لهما 1
الاج@@ 1
الاقتراع 1
التلفزي@@ 1
المتق@@ 1
باحث 1
بطولات 1
قديم 1
لتع@@ 1
مينيسوتا 1
السف@@ 1
القذ@@ 1
بطال 1
بلغاريا 1
السلط@@ 1
عشرين 1
يج 1
يوت 1
المعبد 1
المكسي@@ 1
مناس@@ 1
هين@@ 1
موث@@ 1
امتداد 1
ره@@ 1
نجليزي 1
الفلا@@ 1
قريب 1
جام 1
جوا 1
عما 1
ادى 1
جاع 1
متس@@ 1
المالك@@ 1
صَ@@ 1
g@@ 0.055489273738017875
نب@@ 1
بعون 1
جند@@ 1
ضين 1
الشعور 1
رتها 1
كست@@ 1
موم 1
واز@@ 1
ing 0.020457099323565216
استف@@ 1
الدو@@ 1
موسم@@ 1
الجي@@ 1
امًا 1
اندل@@ 1
1897 0.8173735524314253
اعت 1
بدر 1
تلو@@ 1
دٍ 1
ائرات 1
ازت 1
بادل 1
تدل 1
عالمي 1
شباب 1
شياء 1
كيس 1
بخ 1
طرابلس 1
لمع@@ 1
وطني 1
داي@@ 1
V 0.20438519078734743
نسان 1
براط@@ 1
سول 1
عاب 1
سلمان 1
معام@@ 1
تركي 1
توب 1
موجو@@ 1
ّق 1
البحيرة 1
جزاء 1
كاني 1
ولايات 1
11.@@ 1
Q@@ 0.250343761614242
الحرم 1
حاصل 1
الند@@ 1
وسطة 1
وات@@ 1
بغض 1
ريكي 1
الفلس@@ 1
تير@@ 1
فتر@@ 1
كوا 1
سلف@@ 1
Thomas 0.23176658784042323
ملف 1
تصرف 1
تينات 1
o@@ 0.06460813902152551
البك@@ 1
حساس 1
فلو@@ 1
نصوص 1
اجم 1
النض@@ 1
غيرة 1
لينا 1
ماري@@ 1
يور 1
ناة 1
يري@@ 1
تات@@ 1
سرب 1
ريقة 1
مفر@@ 1
يقة 1
افت@@ 1
قرأ 1
بروكلين 1
27@@ 1
دوى 1
1895 0.8026627406883009
اغ 1
روق 1
وامل 1
الاز@@ 1
التكن@@ 1
الكلاسي@@ 1
عِ@@ 1
كتب@@ 1
الاول@@ 1
قرون 1
ابو 1
اكر 1
خُ@@ 1
شاب@@ 1
نصب 1
ref 1
أفري@@ 1
باه 1
i@@ 0.07665114560429452
الإسب@@ 1
الاي@@ 1
السما@@ 1
الوار@@ 1
g 0.10473812973327809
الحوز 1
راعات 1
موس@@ 1
هَ@@ 1
ائة 1
يراً 1
الوريوس 1
البند@@ 1
توث@@ 1
رجان 1
1892 0.8814567464059015
الاتح@@ 1
سيو 1
مريم 1
انتظار 1
فضل@@ 1
فضلا 1
Re@@ 0.09984734946332018
ريني 1
طب@@ 1
احترا@@ 1
94 0.8416566361093359
بياً 1
رل 1
شور@@ 1
اتذ@@ 1
الخار@@ 1
ياء 1
حدى 1
المَ@@ 1
بيك@@ 1
توت@@ 1
تار 1
تك 1
قن 1
باز 1
ربت 1
الدن@@ 1
بروك 1
بعد@@ 1
4.@@ 0.8964244358793142
الحيو@@ 1
اسوب 1
بغ 1
الفتح 1
حاض@@ 1
تعدد 1
بض@@ 1
بوج@@ 1
تعلق 1
01 0.8729203855171079
· 0.12457052445018399
ندرية 1
هيم 1
الولا@@ 1
انج 1
ربا@@ 1
سجين 1
وذك@@ 1
لاحقة 1
خليل 1
تسلسل 1
سوس@@ 1
شرو@@ 1
طارق 1
ميا 1
احمد 1
اقتصاد@@ 1
الجمه@@ 1
زيف 1
سنان 1
et 0.007064048920383895
ابد 1
قانون@@ 1
عبين 1
راك 1
لمن 1
son 0.026070388248058685
مسة 1
درز 1
لَّ@@ 1
يشن 1
3000 1
تجاو@@ 1
عال@@ 1
بولو 1
الاص@@ 1
حرم 1
فِي 1
ia 0.08256036419527515
تباد@@ 1
طنين 1
1889 0.8324010888281749
انقلاب 1
صلى 1
اوت 1
لفظ 1
هرباء 1
المدار@@ 1
حن@@ 1
مغربي 1
ابهة 1
حار@@ 1
3- 1
ئون 1
ائس 1
فتي 1
ويورك 1
اري@@ 1
باس 1
k 0.07469324437430058
اين 1
نباتات 1
بيريا 1
35@@ 1
ابتة 1
عدل 1
لحم 1
واس 1
American 0.07076757123266086
سطنط@@ 1
5000 1
است 1
متعل@@ 1
صالح@@ 1
واري 1
1885 0.8306759152354967
عاب@@ 1
نوان 1
العرا@@ 1
جانات 1
ستي 1
1894 0.8375778672808025
الو 1
عاط@@ 1
ائرة 1
’ 0.020251057626061473
المنت@@ 1
شمال@@ 1
ارتباط 1
خوار@@ 1
مقاط@@ 1
40@@ 1
id 0.23550063855065984
1891 0.8449934173568352
الرؤ@@ 1
وْ@@ 1
x@@ 0.1602163483912984
عمر@@ 1
وكس 1
ائنات 1
داية 1
03 0.93517382971237
النمو@@ 1
فوس 1
اظ@@ 1
f@@ 0.05034510536008674
لفت@@ 1
روفة 1
دّ@@ 1
غا@@ 1
اورة 1
رز@@ 1
اسبة 1
بئر 1
قادر 1
مكاف@@ 1
1893 0.8115973103583151
صوت@@ 1
عاز@@ 1
وائد 1
اجر 1
ناسا 1
04 0.9058826475064794
الاجتماع@@ 1
al@@ 0.04770324171188213
امر 1
مناص@@ 1
09 0.7767414590352262
f 0.1460600358455111
قيت 1
لَ 1
مسح 1
هولة 1
خصوصاً 1
فوس@@ 1
لات@@ 1
قان@@ 1
08 0.7722083873201183
1888 0.8520599368735643
طاني 1
مقب@@ 1
حاس@@ 1
روابط 1
C. 0.3168728070764718
شرقي 1
يوان 1
حمد@@ 1
سْ@@ 1
1880 0.764503370866023
وكا 1
نسي 1
تى 1
ثون 1
سطة 1
حسن@@ 1
سمت 1
اون 1
وء 1
Al@@ 0.0784976568917988
الحاد@@ 1
تعم@@ 1
أمم 1
المكون@@ 1
1884 0.8958604347910171
العملا@@ 1
مؤلف@@ 1
ابتد@@ 1
قلت 1
نسجة 1
06 0.7876155364691121
بريل 1
والرا@@ 1
فلت 1
ستار 1
قتال 1
كذا 1
الاعتقاد 1
دوس@@ 1
بطة 1
عرش 1
فوف 1
المهدي 1
امام 1
ثى 1
ماب@@ 1
اوت@@ 1
192@@ 1
ريتش@@ 1
نض@@ 1
ئت 1
وسيع 1
0,000 1
حاص@@ 1
مْ 1
الزمان 1
باط@@ 1
ملحوظ 1
انتداب 1
انتظام 1
عروض 1
جوان 1
جائ@@ 1
دَّ@@ 1
غازي 1
السن@@ 1
دوران 1
1886 0.848000817381694
l 0.03374139909707197
البغ@@ 1
فقر 1
1870 0.7079368577176729
المتا@@ 1
1887 0.8562284153972516
ترو 1
داس 1
آراء 1
جاو@@ 1
عنص@@ 1
نمو@@ 1
مروان 1
شريف 1
1500 1
actor 0.3937624408056399
en 0.0035083381957472324
راشد 1
انوس 1
ق.@@ 1
U 0.16649787476649508
ناد 1
وراس 1
1878 0.8484949462685326
جنوبي 1
موسو@@ 1
اسل 1
نما@@ 1
اعترا@@ 1
وّر 1
عمران 1
سلسل@@ 1
ولان 1
وفى 1
طبع@@ 1
مقدم 1
1882 0.8862689835049272
New 0.04411582914959444
كَ 1
تملة 1
مدع@@ 1
نِ@@ 1
اشم 1
بنو 1
Mc@@ 0.15311382416301428
لع 1
الآسي@@ 1
طار@@ 1
ماق 1
نار 1
el 0.006425162340637836
1881 0.8631683499903937
جرات 1
وسل@@ 1
الاعتق@@ 1
العاب@@ 1
فران 1
سرد 1
ماكن 1
m@@ 0.05688829244178277
اجتم@@ 1
ڭ@@ 1
r@@ 0.045530558287365526
بحق 1
جريت 1
يحي@@ 1
D8 1
لفاء 1
واب 1
or 0.017798375856366906
بالغ 1
غال@@ 1
لبة 1
الهول@@ 1
بود@@ 1
وسلم 1
وو 1
الاقترا@@ 1
اولات 1
داع@@ 1
الائ@@ 1
برل@@ 1
دوم 1
راس@@ 1
مَّ@@ 1
خلل 1
an@@ 0.03979221515770762
دَ 1
on@@ 0.051795447736851914
التمي@@ 1
تْ 1
فِ@@ 1
الاشترا@@ 1
صفر 1
ميع 1
02 0.8445646999504315
u 0.06785411733161081
برد 1
عبور 1
كول 1
صوب@@ 1
مراد 1
1.5 1
الحاد 1
الأمي@@ 1
طانية 1
سند 1
اِ@@ 1
رد@@ 1
ّس 1
E. 0.4874903804856375
القاسم 1
خصوصًا 1
فاع 1
مراء 1
as 0.005993104096614267
إلي@@ 1
راض@@ 1
عوام 1
استبد@@ 1
1861 0.8414402537585478
فاظ 1
Ch@@ 0.06381972033906935
in@@ 0.030771466761688262
إحص@@ 1
سورة 1
استم@@ 1
نست@@ 1
رفت 1
لادي 1
الحارث 1
الخوار@@ 1
سوب@@ 1
مبلغ 1
يار@@ 1
1883 0.8713720681984672
رومان 1
الجام@@ 1
حو 1
داني@@ 1
الشاف@@ 1
1876 0.8502845632523962
الطبي@@ 1
شق 1
لبية 1
معالج@@ 1
ضرر 1
اتح@@ 1
وارث 1
W. 0.518350314694405
نسب@@ 1
محاص@@ 1
ناس 1
K 0.2100931278244707
دف 1
قز@@ 1
كال@@ 1
ربون 1
07 0.8059818042368316
Henry 0.2527379495036378
سِ@@ 1
نانين 1
ويك 1
تاً 1
عليا 1
خَ@@ 1
مَّ 1
منى 1
L5 1
ابين 1
حلول 1
محدود 1
1860 0.743759304761809
الثق@@ 1
زام@@ 1
لمان 1
تخلص 1
حبيب 1
اقل 1
وغالب@@ 1
الإسرائ@@ 1
1871 0.7665540899434414
ar 0.030246910615611373
شعراء 1
غت 1
القصي@@ 1
j@@ 0.05505766817946595
l@@ 0.04507989283755286
الس 1
تمت@@ 1
لفية 1
at 0.008756344718247508
حالت@@ 1
حزاب 1
عيل 1
غضب 1
منتظ@@ 1
اسا 1
man 0.04849416057286789
اوم 1
خام 1
اجل 1
اُ@@ 1
واقع@@ 1
وود@@ 1
1879 0.8322352237367651
دبل@@ 1
واف 1
80@@ 1
مناز@@ 1
طرس 1
استع@@ 1
مقدون@@ 1
المحافظ@@ 1
ابيع 1
for 0.006350990014927882
جور 1
عمرة 1
فعال@@ 1
بارات 1
60@@ 1
ألة 1
جراءات 1
والت 1
حامل 1
أولا@@ 1
فاش@@ 1
الجزائ@@ 1
جلد 1
ed 0.01776203659703357
بست@@ 1
شعور 1
المنصور 1
ريفي@@ 1
طوير 1
نقد 1
توت 1
مملو@@ 1
نْ 1
34@@ 1
وجي@@ 1
الثة 1
بحي@@ 1
إبرا@@ 1
ثُ@@ 1
درات 1
سبور@@ 1
القدي@@ 1
دق 1
طبا@@ 1
جست@@ 1
نَ 1
ورق 1
# 0.2918734164277495
فوائد 1
لر@@ 1
Michael 0.20158357662977153
حمام 1
البر 1
مهورية 1
ارن 1
انط@@ 1
سرا 1
عز 1
2,@@ 0.45446190586374946
6.@@ 0.8300628573403653
يام@@ 1
تبت 1
قلال 1
قوط 1
ی@@ 1
برمن@@ 1
جابر 1
قصائد 1
Richard 0.23527894161069943
الوز@@ 1
برنار@@ 1
en@@ 0.02705723808363183
حمص 1
واحد@@ 1
k@@ 0.045475547528952893
علاء 1
ضل 1
مئ@@ 1
روان 1
عموما 1
$ 0.09058825258933836
h@@ 0.04441054899639734
أستر@@ 1
الشمس@@ 1
فلس@@ 1
مام@@ 1
مناسب 1
ساد@@ 1
باغ 1
تمتع 1
بب 1
روت 1
نر@@ 1
زرق 1
ينيسي 1
نادر 1
la 0.002387463213474009
1867 0.7956025664509332
الأرجن@@ 1
قنا@@ 1
جرز 1
خبر 1
دريك 1
ايك@@ 1
مسعود 1
وتوفي@@ 1
سترو@@ 1
4,@@ 0.6459184834365989
القوا@@ 1
زو@@ 1
منظور 1
مْ@@ 1
اجز 1
الأرث@@ 1
بائ@@ 1
2.5 1
جس 1
منازل 1
هو@@ 1
الإسلا@@ 1
آخر@@ 1
جابة 1
33@@ 1
شرع 1
مَ 1
واز 1
موضوع@@ 1
افل 1
or@@ 0.04642255879313989
تنز@@ 1
عرب@@ 1
مقام 1
انتخابية 1
الديمقرا@@ 1
بؤ@@ 1
1877 0.797928517044139
L. 0.5424801958954673
W 0.24793613907072248
خية 1
العالم@@ 1
دخال 1
نفا@@ 1
احب 1
شج@@ 1
Ar@@ 0.06376491605310516
Paul 0.14178135135129863
اختلا@@ 1
جلال 1
1873 0.7927943114341592
شامل 1
تام 1
تاس@@ 1
قليم 1
محسن 1
نسا 1
المذك@@ 1
جال@@ 1
قاتل 1
تخب 1
1848 0.7148452245654023
اعر 1
لص 1
خال@@ 1
شاط 1
5,@@ 0.669427217390633
ie 0.04953515084246122
العاص@@ 1
عار 1
رموز 1
14.@@ 1
900 0.9875199209021805
ac@@ 0.06209343422178016
فرق@@ 1
بيًا 1
استعم@@ 1
الكاث@@ 1
آباد 1
تفر@@ 1
المؤمن@@ 1
ation 0.02198159405827051
تق 1
ضخ@@ 1
صدام 1
37@@ 1
h 0.07060380381396489
جبر 1
روش 1
3,@@ 0.543688103140709
سلو 1
1875 0.7737761093888267
صدا@@ 1
1866 0.6479938930634531
جاب 1
1865 0.7365956143184308
تاج@@ 1
قبر 1
ميني@@ 1
كيني@@ 1
1864 0.7192008670342775
طور@@ 1
190@@ 1
اوي@@ 1
روش@@ 1
1868 0.7700379477036708
زيلي 1
قمر 1
إمكان@@ 1
قوب 1
130 0.9368018225670647
جاد 1
صفحات 1
ic@@ 0.07317155490967253
ine 0.058525494872097725
حمز@@ 1
صادق 1
حوا 1
رَ 1
110 0.86699866202336
Smith 0.2631190261184493
بغي 1
180 1
نشطة 1
الاقتص@@ 1
السّ@@ 1
نوم@@ 1
اوم@@ 1
فراز 1
football 0.1157155003445615
شوا@@ 1
شيك@@ 1
اعتراف 1
خفض@@ 1
كِ@@ 1
مشر@@ 1
Y 0.32203692139700607
توازن 1
حساب@@ 1
جلا@@ 1
4- 1
om@@ 0.07507444113831341
لمد@@ 1
1872 0.764325480090913
ابتداء 1
تتأ@@ 1
عمار@@ 1
تاء 1
مماثل 1
1869 0.7991826250113943
مسئ@@ 1
خصوص@@ 1
قبرص 1
نفر 1
حلق@@ 1
والسك@@ 1
جاس@@ 1
ستاني 1
نازل 1
وِ@@ 1
لفظ@@ 1
v@@ 0.05190889626635337
رقص 1
شخ@@ 1
خوف 1
طواف 1
قس@@ 1
يُع@@ 1
ستو 1
المشار@@ 1
رجب 1
1874 0.7452741972884084
el@@ 0.036386923907188305
استقبال 1
تال@@ 1
تند@@ 1
الث 1
روبن 1
طَ@@ 1
جزائر 1
سلاسل 1
زونا 1
وفان 1
S. 0.35634988538483386
ارضة 1
الميد@@ 1
لار 1
er@@ 0.028574714726327187
حور 1
160 1
ate 0.030945830181659927
ol@@ 0.06335816986809036
الشب@@ 1
الجة 1
خدمت 1
إنتا@@ 1
الطب@@ 1
توزي@@ 1
سد@@ 1
ندو 1
اصة 1
قائم 1
مشتق 1
احترام 1
ديمقرا@@ 1
شِ@@ 1
خول 1
متنا@@ 1
بيرة 1
جوع 1
حْ@@ 1
مرا 1
ابتدا@@ 1
خور@@ 1
فريقيا 1
لترا 1
مناق@@ 1
قذ@@ 1
ar@@ 0.03695629675354448
تخص@@ 1
بابل 1
صادر 1
رفعت 1
عذ@@ 1
وجا 1
1863 0.6931237493909778
عبر@@ 1
الق 1
بض 1
عود@@ 1
باعتب@@ 1
جول 1
R. 0.41687755188720954
لازمة 1
6,@@ 0.5387850965703264
اين@@ 1
صدور 1
ch@@ 0.029270718674435696
زار@@ 1
تراوح 1
تقرر 1
حاق 1
ton 0.07414087975115143
le 0.005134464091023095
وسا 1
مجالس 1
سبة 1
D9 1
اتو 1
الهج@@ 1
تشار 1
بنا 1
هيار 1
ورئ@@ 1
الاف@@ 1
خسر@@ 1
شل@@ 1
تجرب@@ 1
ونز 1
الزب@@ 1
قسطنط@@ 1
برس 1
شمالي 1
غض@@ 1
مقر@@ 1
B. 0.20583987881318094
1857 0.8403119510591212
اقب 1
وعض@@ 1
ad@@ 0.04167220799645246
مرتفع 1
النفا@@ 1
داعش 1
الإدار@@ 1
تنوع 1
رم@@ 1
38@@ 1
90@@ 1
os@@ 0.07582907623686401
الوك@@ 1
جسم@@ 1
مباد@@ 1
مرق@@ 1
w@@ 0.044451888964459285
بلو 1
رش 1
ضربة 1
الإغ@@ 1
برو 1
خيرة 1
اتباع 1
Mar@@ 0.06366499457420446
1850 0.6670352353065109
انخ@@ 1
غرنا@@ 1
مَا 1
مقت@@ 1
Con@@ 0.07065843934264512
انسداد 1
مشتر@@ 1
1862 0.6561910643657264
فوج 1
350 0.99336455659161
الإيط@@ 1
تكن@@ 1
as@@ 0.04388908788035747
بنفس@@ 1
II 0.06625522570952062
125 0.9389504805233245
ائعة 1
^ 1
اصرة 1
بروز 1
ابعة 1
قطب 1
7,@@ 0.5074392733793932
المعارف 1
حيدة 1
عرو@@ 1
آداب 1
الذك@@ 1
مطبو@@ 1
تعي@@ 1
ختم 1
كتورا@@ 1
1859 0.7459218769198822
An@@ 0.04545354232248387
22@@ 1
حدات 1
داة 1
قوت@@ 1
ميري 1
Br@@ 0.07961141775197948
مبيوتر 1
جِ@@ 1
رن@@ 1
140 0.9098156827353951
D. 0.3220295977207165
series 0.06706578653183949
י@@ 1
مصور 1
ae 0.15858796176011877
z@@ 0.03752690458263107
اقتص@@ 1
فف 1
مش 1
Car@@ 0.08120899032730673
جلو@@ 1
موضوعات 1
وَ 1
معلم 1
يرلندا 1
تجات 1
ورس 1
كى 1
النسي@@ 1
ذج 1
عَلَ@@ 1
حصر 1
فوق@@ 1
CO@@ 0.4641641631118722
خوف@@ 1
اختلافات 1
حسان 1
الشيو@@ 1
مسائل 1
ley 0.07894351039512568
سيق 1
شنا@@ 1
طرابات 1
قبض@@ 1
لبر@@ 1
نون@@ 1
لاج@@ 1
4000 1
باتات 1
بورو 1
سطو 1
Joseph 0.17481881674606448
Le@@ 0.07824948953190018
دستان 1
Edward 0.2892825392863593
مشق 1
نم 1
حفا@@ 1
ئك 1
المقد@@ 1
حِ@@ 1
AS@@ 0.3147087860585291
مثلًا 1
هيرة 1
الابتد@@ 1
1856 0.7689923577265299
70@@ 1
اصطنا@@ 1
خادم 1
معز@@ 1
دوان 1
? 0.15201561465443492
يمز 1
متلك@@ 1
الذه@@ 1
36@@ 1
In@@ 0.06461467049812825
اقتب@@ 1
العباس 1
الجنا@@ 1
سنا 1
خات@@ 1
منتظم 1
1849 0.7988248387834589
39@@ 1
Australian 0.17948123701102275
z 0.06352727195746213
باز@@ 1
نجر 1
ot@@ 0.0556803078726406
ter 0.037585406163586146
ايل 1
دِ 1
حضرموت 1
جوب@@ 1
مساجد 1
مثال@@ 1
1840 0.7151528701843217
ab@@ 0.03352793595958832
ولن 1
ic 0.0571684823359307
المسا@@ 1
رخص@@ 1
مِنْ 1
البحي@@ 1
os 0.02727667478137687
افظ@@ 1
سرت 1
سوت@@ 1
2022 0.21367283989763658
واضع 1
Frank 0.30592036617697344
مساب@@ 1
ــــ@@ 1
1854 0.7706535727521024
مجر@@ 1
8,@@ 0.5336626315012427
ورز 1
1830 0.7160897854533408
غَ@@ 1
1858 0.7641592112653137
di@@ 0.045718055372096916
name 0.05572344866770131
ana 0.06540397400006331
قران 1
مرغ@@ 1
Peter 0.14674167597013232
زلز@@ 1
5- 1
الموظ@@ 1
De@@ 0.09148788112513011
ضاب@@ 1
ضان 1
am 0.019405136668685086
مطلو@@ 1
منفص@@ 1
100@@ 1
تداد 1
محافظ 1
ورش 1
لائل 1
تيجة 1
قرار@@ 1
مباب@@ 1
45@@ 1
خلاء 1
لوم 1
Z 0.30664792292461446
is@@ 0.043018502070815035
101 0.8198846666196543
am@@ 0.04512252568125389
الداخ@@ 1
1800 0.722330695386245
id@@ 0.05763480049621599
فارقة 1
التشخ@@ 1
حاء 1
ناظ@@ 1
الأطل@@ 1
شعبان 1
عشر@@ 1
فخر 1
مخالف@@ 1
الاستعم@@ 1
حماس 1
AD@@ 0.5053238021836935
فجر 1
Sh@@ 0.06612483969710799
امر@@ 1
تمرار 1
رود@@ 1
فتو@@ 1
مثيل 1
it@@ 0.04273161607352139
اعون 1
حلف 1
450 1
div 1
قرض 1
تقدمة 1
حب@@ 1
زَ@@ 1
موسوم 1
النسل 1
250@@ 1
اللَّ@@ 1
طانيا 1
ممل@@ 1
ولز 1
افس@@ 1
كنساس 1
فساد 1
ازان 1
هِ@@ 1
حاب 1
طبع 1
der 0.0025265920482548817
محم@@ 1
مُ 1
Cor@@ 0.094095494396074
الجنوب@@ 1
اوب@@ 1
حامد 1
قبر@@ 1
188@@ 1
حوال@@ 1
مسم@@ 1
مورا@@ 1
th@@ 0.044661371155427544
الأولمب@@ 1
ו@@ 1
نبو@@ 1
15.@@ 1
جئين 1
le@@ 0.04739287781758592
سعد@@ 1
ed@@ 0.06436826918193515
co@@ 0.04791134314932659
مصنف@@ 1
اختصار 1
فاص@@ 1
وليكية 1
عدنان 1
النات@@ 1
دوز 1
صلح 1
نبات@@ 1
اَ@@ 1
زمان 1
نَّ@@ 1
at@@ 0.038231363666158195
سطس 1
طس 1
لونة 1
ائي@@ 1
189@@ 1
عضو@@ 1
الحكوم@@ 1
صدر@@ 1
غرس 1
AT@@ 0.40215255045461623
القاع@@ 1
Brown 0.262330215891092
الاتفاق@@ 1
1851 0.7217914087037869
360 0.9541551783282332
صلاح@@ 1
by 0.004640033969508463
باش 1
درس@@ 1
es@@ 0.03288449508081043
آن@@ 1
ستور 1
وليك 1
ph@@ 0.07050471185021388
زور 1
Co@@ 0.08002660123045278
غط 1
ذِ@@ 1
1853 0.7369476491260858
ئل 1
اتنا 1
ذرات 1
فتا@@ 1
− 0.39271855935635835
1200 1
تيب 1
عنو@@ 1
كيلي@@ 1
ناطيسي 1
,000 0.8794227309272945
3.5 1
كلة 1
نوس 1
بنظ@@ 1
وابط 1
CD@@ 0.5705602411570635
برن@@ 1
جنون 1
خطر@@ 1
ربان 1
65@@ 1
re@@ 0.013126259100635366
خاطر 1
مب 1
124@@ 1
5,000 0.6867395583438521
Martin 0.15372445720139025
التركي@@ 1
16.@@ 1
one 0.014755458787061495
أعل@@ 1
1847 0.7496299421000641
وفات 1
1835 0.8145232931869801
حوص@@ 1
فط@@ 1
واد@@ 1
10000 1
المتعل@@ 1
وراث@@ 1
1839 0.8301007123928849
بحت 1
1852 0.7038004560744916
ul@@ 0.04630697600931617
1837 0.7993436703534493
جواب 1
AC@@ 0.37822628226607324
Scott 0.29357131564982913
قرب@@ 1
منق@@ 1
1845 0.7498112369286174
ائر@@ 1
ينَ 1
1832 0.8318505949457429
1855 0.6552456275836865
ؤلاء 1
كاون@@ 1
لاسي@@ 1
oc@@ 0.06714219738682324
ا- 1
CA@@ 0.30500473032763514
SS 0.3072118425109376
ur@@ 0.0455738048332468
متض@@ 1
ترن 1
105 0.8500923574895793
J 0.21325092207443944
راش@@ 1
sen 0.11862715163170118
اضر 1
اطق 1
ti@@ 0.04416878415964634
مدد 1
ea 0.1339612721624241
بلس 1
Lee 0.22433353927883717
17.@@ 1
55@@ 1
ئر 1
دب 1
آ 1
120@@ 0.9557900987555922
1820 0.6073938462528462
codice 0.7089959336792341
ايير 1
موال@@ 1
1844 0.7858921728006911
راست@@ 1
زنج@@ 1
187@@ 1
46@@ 1
u@@ 0.043468560837949255
طالبان 1
SO@@ 0.6241433557027555
جيع 1
ونيسيا 1
1834 0.820985162880239
Mark 0.2104965325717503
جرم 1
سمو@@ 1
محلات 1
1846 0.713292582036689
مرح@@ 1
ST@@ 0.4832826876481455
ميلة 1
G. 0.3707026461285425
آش@@ 1
baseball 0.4254062428498273
اطب 1
اشا 1
سود 1
مدرس 1
براسكا 1
خا 1
Tom 0.28029068601583407
et@@ 0.04518092009172157
1843 0.7998161716615101
184@@ 1
Joe 0.3053901240492482
اتِ 1
فاض@@ 1
مسو@@ 1
Mor@@ 0.08163724003980316
1815 0.6957175734363389
Bill 0.27857700951780096
الغ 1
فاروق 1
Q 0.3171001497707322
مصالح@@ 1
نجا 1
تِ 1
فلاح 1
اتفاق@@ 1
بِ 1
عزم 1
عماد 1
23.@@ 1
فرح 1
قار 1
ونيو 1
وون 1
فز@@ 1
ap@@ 0.04572083617037969
حتم@@ 1
ظلم 1
نقش 1
it 0.008649440704020512
أمة 1
1.2 1
ne 0.027687015248106912
اولا@@ 1
ensis 0.2323684106586274
st@@ 0.02857633841563385
9,@@ 0.5081085693953238
Jack 0.2550607499918637
جند 1
دلال 1
اسلا@@ 1
10,000 0.7896604725338627
1838 0.7506067399883991
عموماً 1
Alexander 0.20470734716295164
La 0.01090784806461139
بلج@@ 1
علومات 1
مِ 1
پ@@ 1
1842 0.7401744636405247
AL@@ 0.48466838218176017
Daniel 0.23399734697186503
da 0.028247990418526946
ولس 1
6- 1
اومة 1
نسل@@ 1
1812 0.6648511511632008
اوس@@ 1
منظم 1
IC@@ 0.38009697001840836
زد 1
170 1
آز@@ 1
صوف@@ 1
1836 0.7353390277750068
El@@ 0.07024561067992115
انص@@ 1
بطن 1
درج@@ 1
انتظ@@ 1
ثوم 1
صاب@@ 1
مدا@@ 1
مشغ@@ 1
2500 1
صغ@@ 1
ina 0.05585402647974518
محفو@@ 1
داب 1
48@@ 1
1821 0.7719372852167203
بخار 1
مداف@@ 1
‘ 0.18864770255370303
115@@ 0.9587931117543618
اعتقاد 1
فس 1
واجب 1
1841 0.7297118083109887
Williams 0.24371365630814848
ترجم@@ 1
طغ@@ 1
علما 1
ent 0.02058142334675095
البرل@@ 1
لازم 1
47@@ 1
ice 0.09066308610696303
li@@ 0.04099649833069314
رسومات 1
ata 0.09085542712855568
IS@@ 0.3242116893068547
آرا@@ 1
شاف@@ 1
op@@ 0.050702767004362596
ملا 1
75@@ 1
تمي 1
حضرات 1
شوق@@ 1
لِ 1
نامج 1
التنفي@@ 1
سماع 1
ماجد 1
البو@@ 1
هوم 1
186@@ 1
ler 0.04469306664426441
مولا 1
1833 0.7687191378359743
اصمة 1
يص 1
220 0.9852836275564057
Jim 0.37106976220663296
https 1
نعت 1
تصاد@@ 1
25.@@ 1
جج 1
عوض 1
19.@@ 1
اعتراض 1
لتا 1
ch 0.04625838421214583
اونت 1
20.@@ 0.9626992155195403
خضر 1
فنا 1
SP@@ 0.3839183074793327
ob@@ 0.06954687074905964
خراسان 1
1831 0.748785715184064
Na@@ 0.34069772564358836
24.@@ 1
Cl@@ 0.18191609766361255
IM@@ 0.421801418025819
وسف 1
شستر 1
عقاب 1
135 0.9513875892913471
Th@@ 0.06326879666977869
im@@ 0.03809514485542114
سفر@@ 1
Bob 0.3247948575520029
محرم 1
وارئ 1
José 0.14993601863183212
Di@@ 0.06703869689193148
Johnson 0.23451474006750728
سانس 1
ناك 1
idae 0.14033698620806148
اسكت@@ 1
ممن@@ 1
18.@@ 0.9308329466643195
lo@@ 0.039924968636245554
غالب 1
لور 1
128 1
ella 0.09966949120154561
Bar@@ 0.05815239339797542
ER@@ 0.4108207692234343
التسوي@@ 1
انتقام 1
بالتر@@ 1
بندر 1
قيمت 1
49@@ 0.8634977346943628
خواص 1
240 1
Mike 0.2996809132506068
التون@@ 1
اللّ@@ 1
بسم@@ 1
فائز 1
Cr@@ 0.11480524815765342
بلوماس@@ 1
مترا@@ 1
وفاق 1
32@@ 1
تائج 1
100,000 0.9990312577022058
140@@ 1
22.@@ 1
مخلو@@ 1
Jones 0.21574841649436524
اقب@@ 1
per 0.06154647458821185
خو 1
لسن 1
نسن 1
0,@@ 0.18015537599260928
68@@ 1
Arthur 0.2447289560812908
tr@@ 0.026299047031580113
21.@@ 1
6000 1
ey 0.09056481470177696
برش@@ 1
تزوج@@ 1
26.@@ 1
27.@@ 1
AR@@ 0.23936085050169628
ick 0.11211187658375253
الترج@@ 1
نِ 1
ad 0.059506910279078166
102 0.8441026592183714
Canadian 0.1496611698807895
University 0.028925450202940767
سوز@@ 1
نَّ 1
حضرت 1
ag@@ 0.035671467117403335
وسعت 1
Chris 0.29854958851879515
حروف 1
Walter 0.24950738192629382
بمب@@ 1
اغوا 1
ner 0.0583156836101432
ترال 1
نوح 1
وجام@@ 1
117@@ 1
1810 0.7270557103549312
ma 0.06819143231062708
انسان 1
كتوريا 1
دريا 1
لاية 1
57@@ 1
Er@@ 0.051886717246606325
St@@ 0.04493000034175341
1826 0.7899254363139595
Col@@ 0.06905260194241744
em@@ 0.03787645275917744
1814 0.6406700124601613
eb@@ 0.06175944378948126
ارون 1
شم@@ 1
MA 0.33224472194853605
شم 1
67@@ 1
7- 1
Am@@ 0.06665707619053503
ابرا@@ 1
2.0 0.9573390032123011
TV 0.08310062611469567
نسخ@@ 1
نقاد 1
شروع 1
مونرو 1
… 0.12642854491064595
Bur@@ 0.09330150705124296
des 0.002795211530408383
جاد@@ 1
دماغ 1
زبر@@ 1
عصاب 1
وانين 1
1825 0.7357927825803854
ءت 1
ثعل@@ 1
رانيا 1
نقوش 1
53@@ 1
DNA 0.4424921488939853
محص@@ 1
مساف@@ 1
750 0.8295476016529544
ملون 1
ers 0.01626013671810802
ica 0.07270982959190547
ro@@ 0.04071299534003447
كلٍ 1
ثالث@@ 1
مقبول 1
0.5 1
Taylor 0.2857145248470083
محق@@ 1
4.5 1
Par@@ 0.05289339337263534
آغا 1
فيلا@@ 1
قدرت 1
104 0.8436552289715699
خوذ 1
ملازم 1
w 0.06972748143628243
حاتم 1
صنعت 1
معتدل 1
320 1
World 0.033405318650024586
متوقع 1
الموسيق@@ 1
103 0.8746189954557557
109 0.899344391695536
الحقي@@ 1
مبل 1
28.@@ 1
Se@@ 0.05652763173005476
زمان@@ 1
زنط@@ 1
غارت 1
56@@ 1
Mon@@ 0.057800334194443206
ter@@ 0.04231916519857121
بند 1
ونَ 1
SA 0.27295198074369753
ta 0.0452400346876936
توسط 1
1829 0.726108768059054
تناز@@ 1
ک@@ 1
Andrew 0.28939076979933065
ir@@ 0.04081253191852909
il@@ 0.038780402756790795
yl@@ 0.10894946857231118
وإدار@@ 1
basketball 0.24177897873566148
ist 0.007571568717513535
ادئ 1
الشخص@@ 1
اندر 1
1828 0.7083078271199579
AM@@ 0.33082402083660833
ويلة 1
1824 0.7365271946229216
99@@ 1
AC 0.24307547525932408
ov@@ 0.08492543832086621
مراج@@ 1
115 0.8784159067212028
un@@ 0.015333019288198075
بقا 1
مختص@@ 1
جيم@@ 1
مفصل 1
po@@ 0.04416054652928046
to@@ 0.04821459290090941
صنع@@ 1
مواز@@ 1
44@@ 1
66@@ 1
MS 0.3216841861090874
الرزاق 1
غرض 1
190 1
White 0.13470891480223293
114@@ 0.9633871381269928
COVID 0.3112346267002661
داغ@@ 1
1600 0.8576006908139049
المقاط@@ 1
معمر 1
107 0.9125282026046218
امور 1
جرو@@ 1
الَّ@@ 1
قرآن 1
For@@ 0.07595212967812717
Wilson 0.2629270376510474
ناص@@ 1
RA@@ 0.2973824356391833
الحار@@ 1
سمر 1
ضلع 1
مشي 1
na 0.045469200085441044
te 0.014779333635425544
ec@@ 0.04481926042801285
with 0.0032880543712940566
خلو@@ 1
210 1
جبر@@ 1
عوف 1
111 0.9053085081437192
1819 0.7999070775808147
الهات@@ 1
امان 1
روان@@ 1
1822 0.7667212726506166
ارتق@@ 1
AP@@ 0.31501527090615183
اطلاع 1
سلر 1
OS 0.2913733287550651
US@@ 0.17846670603981218
وئ@@ 1
تارا 1
Francis 0.2623519049852386
Tr@@ 0.04172710127726314
فرانس 1
1.3 1
58@@ 1
ازم 1
تعال@@ 1
نسل 1
113@@ 1
Wil@@ 0.13123104839333313
th 0.04666704666878488
جوش 1
Cal@@ 0.0948534704031739
مصط@@ 1
106 0.8378945948006353
108 0.8063812301874442
7.5 1
Steve 0.27713783986668467
ase 0.0944477802780088
ell 0.06031325854621904
المطلب 1
قح@@ 1
Mo@@ 0.07280849434093911
حماد 1
ity 0.033528896253711075
أنفس@@ 1
أوه@@ 1
ملحق 1
1.6 1
حقائق 1
سرو@@ 1
محمد@@ 1
→ 0.7954756432344203
AN@@ 0.32149979348870944
As@@ 0.08261827028538356
se 0.004600815927672901
آذ@@ 1
ولر 1
bi@@ 0.04395505255806095
Samuel 0.31112683386622264
og@@ 0.072468728735547
PA 0.3032415984666856
ay 0.052504809788181964
شفى 1
1808 0.7189940866809652
230 1
de@@ 0.02708815796879019
غسل 1
1806 0.6221056438036353
~ 0.6932145483389737
116@@ 0.9865517813866846
WWE 0.5810116441293707
بتا@@ 1
چ@@ 1
Allen 0.36208243197679457
رِ 1
افراد 0.8971783848302541
قوان@@ 1
ينوي 1
الملك@@ 1
نظر@@ 1
1827 0.7348959639614414
section 0.11732635090161955
us@@ 0.04100932645813026
جامع@@ 1
تنام 1
نث@@ 1
AS 0.275973594505662
Davis 0.2615505359216787
ens 0.029475574147306612
q@@ 0.1541354718368022
se@@ 0.03494875455082103
تقر@@ 1
راؤ@@ 1
نعم@@ 1
sh@@ 0.031395190856629195
ظفر 1
1.1 1
Sch@@ 0.026919970837253872
صالات 1
1804 0.7871116499458141
Ex@@ 0.06108582872273345
ard 0.05198974495179521
ماع 1
مرجع 1
30.@@ 1
5.5 1
Ad@@ 0.08452127243904332
التجار@@ 1
مختار 1
مط 1
والا 1
118@@ 0.8996496519127202
1789 0.7104193576225054
29.@@ 1
Albert 0.19128999550552772
إلغ@@ 1
ائيل 1
und 0.0020576925933447816
بولا 1
لادن 1
78@@ 1
Be@@ 0.04374728594061725
131 1
1818 0.6517046177197013
ri@@ 0.04219571810591649
III 0.08428795550409286
175 1
بخار@@ 1
0.1 1
1.4 1
Gr@@ 0.05329899485991646
الحرام 1
مؤرخ@@ 1
ya 0.02732976232756037
استاد 1
بالا 1
مثلة 1
ai 0.05944097706987917
نقط@@ 1
Al 0.07736562722356835
رونا 1
185@@ 1
Lewis 0.2675240114983151
سفار@@ 1
330 1
SE@@ 0.3071368334754138
اجستير 1
جاه 1
ممتاز 1
واع 1
1823 0.7092021720038401
Don 0.1725130921408883
طلح 1
قاف@@ 1
270 1
UN@@ 0.2548708212902207
ve 0.014026686721336565
א@@ 1
ثن@@ 1
فاضل 1
1813 0.5933538434587388
59@@ 1
ناقص 1
‍ 1
Bo@@ 0.06051906821428457
Ro@@ 0.06799220774395306
امتحان 1
ماف@@ 1
54@@ 1
الجب@@ 1
حلال 1
لمب@@ 1
121 0.9728444360204395
88@@ 1
En@@ 0.05180961841274807
j 0.11965520835795504
od@@ 0.0631116054719228
شمول@@ 1
اتم 1
مناظ@@ 1
International 0.05168224401645179
افرا@@ 1
القاط@@ 1
1300 1
Harry 0.2530116398651338
Li@@ 0.0793741953263992
Miller 0.3022210370992257
Stephen 0.272637252367022
اترا 1
المشتر@@ 1
برس@@ 1
1790 0.6573845791888809
ר@@ 1
مقص@@ 1
1809 0.683678656426789
hockey 0.25073264926034333
القان@@ 1
برن 1
جلوس 1
مرو 1
٬ 1
1,000 0.488168634159182
43@@ 0.9820846547396641
CS@@ 0.3349125734817757
di 0.06476846341484269
اجن@@ 1
تدو@@ 1
عقل 1
نيوز@@ 1
11,@@ 0.46878921415334623
Pr@@ 0.06303882506091558
av@@ 0.04159962160261988
محفوظ 1
المجمو@@ 1
مطلق 1
MP@@ 0.32582241644825793
PS 0.25782172247144347
ملر 1
1811 0.6972796961910928
ni@@ 0.05916309092198888
2000@@ 1
Ray 0.34464367179171823
Anderson 0.3220880171210913
عزت 1
1798 0.7242078456688543
2,000 0.6105907780494291
ans 0.021731336993643956
ing@@ 0.04625872394519941
اغة 1
وارن 1
1700 0.8368551664024048
1816 0.6161202375317961
550 1
74@@ 1
ارد@@ 1
اوق@@ 1
قسمت 1
مبر 1
132 1
King 0.07186183103366903
بلال 1
رابط@@ 1
قاس@@ 1
7000 1
زند@@ 1
منتق@@ 1
وجل 1
مغرب 1
69@@ 1
حج 1
عاصم 1
112 0.7754596587479092
1807 0.6828582948635827
280 1
Brian 0.2953122514366302
Qu@@ 0.05657993883894177
أيض@@ 1
صاف 1
عارف 1
نما 1
1.8 1
from 0.0038313968808793134
ology 0.06232090194681722
منطق 1
123 0.9126187899612123
Fred 0.467475260893192
عس@@ 1
كريك@@ 1
† 0.07868668673255415
Str@@ 0.05859300041313448
ھ@@ 1
145 1
95@@ 1
day 0.03863810577007613
no@@ 0.058866683762529556
1801 0.6238760260380328
جوان@@ 1
ە@@ 1
ak 0.05429864670931195
Howard 0.29478378556055673
ator 0.05352882351637976
ماذج 1
122 0.8630542510412754
8000 1
ATP 0.4975844034218554
اسما@@ 1
113 0.8638987952126074
63@@ 1
98@@ 1
IP 0.4158599142038923
RNA 0.7329469763687183
Young 0.16577252480145055
ايو 1
117 0.8872170596183838
1776 0.9070470889558366
1792 0.6473205441073684
20,000 0.892700866884848
260 1
ep@@ 0.06383819074480235
α 0.23522138848885418
اضاف@@ 1
تدار 1
شكال 1
1400 1
Alan 0.3304810562873267
ES@@ 0.2812873261810658
AT 0.388134746257217
قومي 1
Hall 0.08779559673359019
اليف 1
ly 0.026979041174941164
si@@ 0.04614803605235009
جماع@@ 1
نافع 1
36.@@ 1
مشاع@@ 1
CC@@ 0.32021882588961836
NO@@ 0.3852763934594186
musician 0.4438528357192694
q 0.17067458392836188
33.@@ 1
Ph@@ 0.10356996645926615
ol 0.059062701834188186
ts 0.018680004865413827
מ@@ 1
اثنا 1
عائد 1
مسلح 1
A. 0.08859957964342006
ah 0.06255261088809823
trieved 1
اتر 1
واً 1
1,0@@ 0.9702872291340543
1799 0.7511639258111429
1817 0.6237403347675207
2.2 1
Ap@@ 0.13540671696940756
CT@@ 0.8130675777954398
قلم 1
AP 0.34289235405346347
Frederick 0.3335557019721681
RE@@ 0.2718291009319285
Clark 0.3159054441940855
be 0.00691694884326299
onlyinclude 0.30318256573115326
العاص 1
فورا 1
Ger@@ 0.07680734453934815
Lo@@ 0.0782968245173741
ale 0.02855775685862493
az@@ 0.059556226890994816
ra 0.033040428220370795
شاد 1
فوت 1
نزول 1
Gordon 0.3168279845037951
do@@ 0.07470029211349005
116 0.895713382601172
land 0.026362729848871655
راجا 1
Com@@ 0.062150892883376024
Gar@@ 0.10385447473790078
تحصيل 1
Ac@@ 0.07492583219623222
CD 0.12475034178687643
Sp@@ 0.06322746912160451
actress 0.31610991428012963
21@@ 1
77@@ 1
ak@@ 0.03870892076656862
text 0.171173709812312
خدرات 1
صوم@@ 1
گ@@ 1
0.000 0.6118315136501817
10,@@ 0.45880587025867875
64@@ 1
IN@@ 0.23382919973424066
تسا 1
خدا@@ 1
مسافر 1
واخر 1
2030 1
York 0.027348441971461124
فاتح 1
مشرف 1
ممالك 1
124 0.8644142314237021
34.@@ 1
Her@@ 0.05618093797851815
PC 0.2370297785072887
Man@@ 0.05648304837452403
CI@@ 0.3138380913855921
Jackson 0.18516560733477377
طاق 1
قصى 1
مانا 1
British 0.03813675377508847
CP@@ 0.4535804683995055
1795 0.6466693252685489
1803 0.5547525937471457
ik@@ 0.04458028112204735
mo@@ 0.043600857261532205
119@@ 0.676982362415212
les 0.0036463233361146
oph@@ 0.11796315485393558
114 0.8186768552274969
So@@ 0.08905402638160585
جنا 1
مخد@@ 1
1783 0.8381923770216521
Mac@@ 0.08137363552247961
SS@@ 0.3847441605564741
رحم@@ 1
رقي 1
سحر 1
الصنا@@ 1
تفاض@@ 1
155 0.96768647708812
180@@ 1
K. 0.276461109531808
ada 0.017400933569680654
end 0.021267343723004005
127 0.7890547072174935
Kevin 0.32945690414058265
do 0.025950274350695805
ism 0.06273475318185105
اعضاء 1
انواع 1
1.7 1
برق 1
ضمان@@ 1
ماط 1
You 0.10266068821334867
all 0.01359274690276845
144 1
ara 0.056370528221391554
ti 0.07700831529924403
متصل 1
13,@@ 0.4479964418611017
un 0.0026351272908897157
فنان@@ 1
وظ 1
126 0.8268061525427745
1805 0.621284178098154
79@@ 1
Carlos 0.1386153909555904
Har@@ 0.066968678956371
زبان 1
650 0.8993235667276456
CH@@ 0.3022589454732222
Per@@ 0.04782993857582397
الكيمي@@ 1
1793 0.5159893155727459
340 1
J. 0.09764991435490611
SA@@ 0.25836329429692756
are 0.0056914036472587035
der@@ 0.042377801631115396
CE@@ 0.2638490221070845
DE@@ 0.28510563545671763
vi@@ 0.0455439879128841
ستاذ 1
Ber@@ 0.046863047322116234
Patrick 0.23295694261592398
age 0.014503837287586254
be@@ 0.021327784652098582
مدت 1
Jean 0.05043398406433567
Lab 1
National 0.024541001479016833
بود 1
か@@ 1
AB@@ 0.38969113373002606
Green 0.13595645657438057
OH 1
Ryan 0.3260413541247276
Thompson 0.36516241926744275
احتجاج 1
تقاض@@ 1
مترجم 1
class 0.07773589992484906
دأ 1
صدار@@ 1
Gu@@ 0.05313418865191217
MI@@ 0.3886956706835103
Mer@@ 0.07448345590284469
Walker 0.3375134449018433
ig@@ 0.03622259374168039
2.4 1
mon@@ 0.033269496881907674
مارا 1
وديوم 1
Rec@@ 0.11761401347348158
مشيخة 1
مناظر 1
6.5 1
ous 0.0282423200138383
نجات 1
76@@ 1
Bruce 0.3295372477612156
English 0.05024489404710923
Ge@@ 0.05660714962591554
ارنة 1
1780 0.7281198555370292
35.@@ 1
Eric 0.28111416206416273
129 0.9214013145735481
ah@@ 0.055417739281563475
field 0.03847469553806268
زائد 1
85@@ 1
In 0.0034063725845388236
Wi@@ 0.21438331208215206
133 1
اطلاق 1
IS 0.3371888999521297
Mal@@ 0.05492384222106595
qu@@ 0.02865637031679137
ty 0.0385931021687196
خطيط 1
ذوق 1
كيرو@@ 1
.org 1
Bi@@ 0.05769006266682686
TE@@ 0.3650147825258766
par@@ 0.027990322914484153
ב@@ 1
ی 1
152 0.9794231787105595
Alfred 0.2227458853823859
Sal@@ 0.069017739114971
لفزي@@ 1
معاملات 1
منفرد 1
يعيش@@ 1
1788 0.7856752353863141
He@@ 0.05674684046067357
Moore 0.2887087914740094
Robinson 0.3615795855626568
136 1
Mat@@ 0.08510600763975307
car@@ 0.03355146113156011
Black 0.0884483275118555
ME@@ 0.3449940268781547
ano 0.03618592012683803
138 1
Dan 0.31628173158563205
IV 0.10774095385827505
امتح@@ 1
1775 0.7606188763533676
1791 0.6559065732063198
Donald 0.30881700885583535
IC 0.2900188194078169
Roy 0.33169252954447487
ary 0.02843972793903802
im 0.004421953526947146
دارا 1
نعمان 1
225 1
html 1
معاصر 1
نقص@@ 1
يولوج@@ 1
Juan 0.08739107526829457
Me@@ 0.057732469058273034
NH@@ 0.598934690967178
حيث@@ 1
af@@ 0.0402339023285153
ance 0.028951590627195496
اورا@@ 1
12,@@ 0.4309572458813207
86@@ 1
sa 0.01481216561342956
اطر 1
منظر 1
1100 1
1802 0.5578715437078637
CA 0.266370963841531
il 0.006811144234555939
انعقاد 1
حاضر 1
صحن 1
عطا 1
حجاج 1
134 1
AI@@ 0.27971733895680073
s.@@ 0.9008232258550012
اعداد 1
منسوب 1
H2O 1
Love 0.11521181651118843
eg@@ 0.03678301379173477
جنت 1
لوع 1
Ag@@ 0.1044400334316445
Hill 0.10515105083818338
um@@ 0.025496680039135616
الأحي@@ 1
تعاقب 1
لسان@@ 1
1784 0.746018020915765
CC 0.2746329222475492
LE@@ 0.39232156001825014
Ne@@ 0.04933635754521028
net 0.12561627989198615
بوم 1
رسن 1
لال@@ 1
-- 0.6599680131457901
1.0 1
300@@ 1
Mar 0.46886123290563536
ut@@ 0.04068502358428359
صورت 1
نن 1
201 1
Zone 0.3508795698676773
اعمال 1
118 0.8048866015752865
119 0.9004290932726247
Gary 0.37142197239015845
برز@@ 1
حصاء 1
معاش@@ 1
3,000 0.6093886356898719
Harris 0.3071249934795752
تصادم 1
1796 0.6223456486638415
My@@ 0.16319671656693344
التاريخ@@ 1
اندر@@ 1
ميخ@@ 1
وذكسية 1
38.@@ 1
39.@@ 1
O2 1
اعلا@@ 1
عابد 1
متن@@ 1
89@@ 1
Billy 0.3268878011434483
Te@@ 0.06796355865202304
نيوزي@@ 1
130@@ 1
Wright 0.338972978051635
era 0.01901887536426749
ino 0.04265076973878114
الرحمان 1
box@@ 0.27006395607149636
br@@ 0.024308422905777047
ex@@ 0.024639674107667615
ה@@ 1
14,@@ 0.42441575888125327
1797 0.6166677379811893
Dave 0.3241193603788074
RO@@ 0.3367769321071475
den 0.0033520090351300963
ite 0.03129578488023431
اخذ 1
صفت 1
154 1
Campbell 0.33389796017412876
Russell 0.30632965736987144
ir 0.03984919265086066
style 0.05333804465195288
ל@@ 1
ابرات 1
تلامذ@@ 1
380 0.9715321512393605
De 0.03504845497148877
atus 0.15131276595172452
om 0.08317132217198894
سرب@@ 1
1794 0.5459070762192777
Tony 0.20619584044347714
حالي@@ 1
سوان@@ 1
e.@@ 0.857116328797933
فرز@@ 1
2.3 1
235 1
Louis 0.06008549985474336
ps 0.058155874071955375
184 1
Ross 0.2882079833833738
ay@@ 0.05000341698987124
لاش 1
ka 0.04106733666986516
tis 0.1271663687405963
Du@@ 0.0901278273548377
kh@@ 0.06295653990882842
تلا 1
ومت 1
146 1
Ab@@ 0.023637308567344598
cher 0.06652907851428416
ins 0.02860859984087056
tri@@ 0.04701617317317431
Or@@ 0.04730101284724918
PE@@ 0.3727356051080685
Pro@@ 0.05308596027985046
per@@ 0.028469623171405337
دلائل 1
سالم@@ 1
Lawrence 0.28776864162037075
ida 0.049574901322309906
حاش@@ 1
32.@@ 1
802.@@ 1
Charlie 0.3230281769572295
خاصا 1
فلوري@@ 1
مائل 1
Fr@@ 0.058408086891529376
Ma@@ 0.05323065137219023
able 0.01614387153259737
ov 0.07035830362314012
za 0.05504424783182118
فرعون 1
موص@@ 1
Alex 0.26411201996439954
Dis@@ 0.08317388918536091
Far@@ 0.10372440689316856
Ian 0.37383618833040816
Mel@@ 0.0941224531880544
School 0.02521730237244527
اضية 1
تاث@@ 1
ناز 1
142 1
143 1
1787 0.704693570728571
8.5 1
96@@ 1
97@@ 1
Po@@ 0.060518050374641655
تبر 1
ناطي@@ 1
000@@ 0.9447535041310837
At@@ 0.09042260341177369
Sam 0.2274239276599886
go@@ 0.11113932325402363
model 0.0997840023532279
ذبح 1
001 1
Benjamin 0.2812570077804813
IP@@ 0.43746642877343234
Luis 0.13823407011670288
سوار 1
137 0.9301247757613085
202 1
211 1
Baker 0.3515375978849208
Herbert 0.304207153429883
ns 0.08925177741014659
اعتد@@ 1
مرشد 1
0.2 1
165 0.8592831078367639
وامي 1
161 1
185 1
87@@ 1
ini 0.055686169346058675
ساؤ@@ 1
لانا 1
193 1
37.@@ 1
TS 0.39041517141505966
اولاد 1
206 1
CN@@ 0.31407570422258346
Sa@@ 0.08085652895903263
مختصر 1
153 1
205 0.9683284712819187
30,000 0.9781453075339938
850 0.9892340345546626
Douglas 0.21940981051750105
HD 0.3299463681014819
ke 0.034139976318152646
157 1
1763 0.8499515100340547
179@@ 1
Craig 0.48037486299565496
Ed 0.4289254106447915
Stewart 0.3025727667864376
oma 0.1207265082166238
بلح@@ 1
فرار 1
148 1
1785 0.7238443735645647
Des@@ 0.08640754203273665
Ros@@ 0.07472387751889642
man@@ 0.033896688287117185
mar@@ 0.030035434030119518
public 0.030772417514296654
sp@@ 0.02967541776395769
yl 0.15806939420303937
● 1
168 1
Group 0.0630136491015217
MP 0.23752751290934
tic 0.06390682157435755
رور@@ 1
50,000 0.7831997126289048
Bell 0.24341653142222802
ש@@ 1
16,@@ 0.4735954029492073
Andy 0.32708655027647754
Carl 0.13880183727876505
Graham 0.32395393124302685
Tim 0.2985003292311552
ou@@ 0.031120945358263097
tion 0.02925028204647517
كترو@@ 1
171 1
no 0.00917229504131651
ver@@ 0.010909727397190825
β 0.44625725965864416
اصطلاح 1
شوال 1
151 0.993829865823892
شراب 1
عثمان@@ 1
1.9 1
17,@@ 0.4551124009769176
Le 0.007632463367800842
Mas@@ 0.07437978405951719
berg 0.041184541053569335
format 0.1484881241512813
pr@@ 0.026737967945828764
May 0.024271154296632486
ati@@ 0.04009363593550629
رحم 1
مخلوق 1
176 1
Marshall 0.305900647563287
ne@@ 0.035471074108664145
اجزاء 1
اوا@@ 1
شاف 1
1786 0.7490193241496419
3500 1
49.@@ 1
Kelly 0.2736152362446367
تحف@@ 1
تحفظ 1
فِ 1
139 1
CR@@ 0.4674832309363359
Evans 0.34557618923436945
ics 0.049651575743871926
ys@@ 0.08517339983625774
زوال 1
سارا 1
غزوات 1
0.3 1
181 1
منز 1
منو@@ 1
وكيو 1
84@@ 1
ence 0.03257588885346675
ks 0.027703875919212428
خاتون 1
AM 0.19336602242435932
DA 0.27274909060516567
Simon 0.15745847209001718
als 0.004324500525917934
لعل 1
Anthony 0.214186143921963
RS 0.2776029827777134
147 0.9643512045424764
1781 0.7684594632690315
Un@@ 0.0461174952618859
Zealand 0.09770504842664374
ene 0.04082639896240113
ical 0.03258056651101464
st 0.04666943574810803
تأس@@ 1
تورا@@ 1
لارا 1
موصل 1
166 1
256 0.9830331955423804
PO@@ 0.39412456221657494
Roger 0.19349192149146824
align 0.18894530435130408
الرز@@ 1
1770 0.6886795906323279
MS@@ 0.3333798504307871
ca 0.04972288780707
co 0.030171797284931735
unc@@ 0.11665018727073093
انِ 1
ثلا@@ 1
معجز@@ 1
1774 0.7451840411600079
AA 0.23868322512226892
Ly@@ 0.12226750964120861
167 1
195 1
Christopher 0.26564584923286
del 0.003300570139443427
ry 0.06232600493371337
wood 0.06447497748838638
شرائط 1
نَا 1
156 0.9562955095958686
2.6 1
48.@@ 1
94@@ 1
au 0.004771567876942707
ā@@ 0.08165627570781471
النا 1
غص@@ 1
لَا 1
192 1
over@@ 0.04930383777752469
بلدي@@ 1
199 1
P. 0.13021318483220554
غزل 1
0.4 1
158 1
2.1 0.9902373181276379
3.6 1
9000 1
Jason 0.3076451929850908
ber@@ 0.0317198205295801
ce 0.013572123443819946
إ 1
معص@@ 1
173 1
Fe@@ 0.08839829427933962
Inter@@ 0.05503790335593878
Larry 0.422869704523069
te@@ 0.02905137988221311
von 0.002587443255549602
Adams 0.2664786220868119
Pol@@ 0.06091218935752448
du 0.002674164827072537
النو@@ 1
سرور 1
212 1
310 1
ISO 0.5282224105309162
Ken 0.40440578795158866
Manuel 0.14945759095224706
My 0.11322143611865303
Nor@@ 0.0721822461565162
bo@@ 0.02900970395486543
اخراج 1
برى 1
خائر 1
فرانسي@@ 1
169 1
208 1
3.7 1
FI@@ 0.20551169356613933
ant 0.010684241299689957
film 0.013362656161422284
hi@@ 0.05001632550587564
مند 1
١@@ 1
163 1
Adam 0.17189177737956016
NE@@ 0.28953264835821535
PS@@ 0.2163752257070465
ci@@ 0.03851841460518224
pi@@ 0.035719329903337274
آم@@ 1
141 0.8392364440612305
2.7 1
20,@@ 0.5499391684427386
4,000 0.7099391456865296
DS 0.23968257298054851
Mil@@ 0.08628709080106324
Sol@@ 0.06534940650725622
con@@ 0.018848133557588992
مؤثر 1
ま@@ 1
1,4@@ 1
15,@@ 0.4181124557093313
204 1
737 1
Hugh 0.37582910494532745
Jimmy 0.25947624903269
ach@@ 0.029982095030213488
ura 0.06021367860062322
yr@@ 0.10097343551531324
TO@@ 0.4265766100600493
ant@@ 0.03710319384041416
159 1
Fl@@ 0.055879658602078296
217 1
Norman 0.28398328521296984
ani 0.05395521863945698
نن@@ 1
い@@ 1
186 1
365 1
420 1
Ca@@ 0.20350688075654716
Morgan 0.24522367322654118
3.2 1
Hor@@ 0.08095191489508038
Ron 0.425113505079866
pp@@ 0.07936433013521763
vin 0.2069430272388415
ظالم 1
290 1
Jonathan 0.305922087022573
Mitchell 0.3230734732125824
RI@@ 0.26948757514971056
Ver@@ 0.016631028802452562
ell@@ 0.041054652650886536
ford 0.05101173938256691
sson 0.2113676138606717
اكرة 1
جلا 1
Conn@@ 0.17912607754657767
Jeff 0.3067453381450615
Pe@@ 0.06491404598290033
ita 0.05330243188545362
mer 0.04650317780058026
اليه@@ 1
لباس 1
215 1
DO@@ 0.3425891786242095
Dennis 0.4032210143674544
ER 0.4945377348101156
Kar@@ 0.043204690345520394
ارير 1
Nelson 0.25053940982832007
su@@ 0.03311617280162943
بلن 1
سندر 1
2.8 1
Antonio 0.09933715325327117
Christian 0.05970405553914497
Ste@@ 0.06445057290919193
ge 0.03608808156610043
ons 0.018603573040099505
נ@@ 1
غلام 1
1750 0.6677587768904607
Hol@@ 0.06580156300657725
Keith 0.39060114339835417
M. 0.08433155364635955
Ser@@ 0.06200853529195008
ent@@ 0.016337287741119727
tu@@ 0.04462772332244054
type 0.05378864931749661
نوج@@ 1
209 1
301 0.9979633779709213
ang@@ 0.0284914973125388
com@@ 0.027311338898433287
ker 0.04213368202837923
tic@@ 0.07537587019342068
اعلان 1
194 1
216 1
West 0.03026736444280173
value 0.13714636374767938
الشعب@@ 1
لائق 1
مثبت 1
172 1
Murray 0.26295208508908996
background 0.16578914087481356
177 1
ABC 0.22013323362108703
alis 0.15227058590305434
مقدس 1
196 1
AN 0.2960305315962401
ISBN 1
LA 0.21315191883121815
Ward 0.30936706893683275
دوغ@@ 1
نعر@@ 1
し@@ 1
179 1
FA 0.13540970555524026
RA 0.2251793190193767
Terry 0.36328401373019076
رستم 1
ضرو@@ 1
غرى 1
191 1
200,000 0.9897951564163825
203 0.971558798420044
207 1
Ben 0.15309276173073227
Fre@@ 0.055101113919701135
ates 0.022287378215834822
ot 0.047534303154689435
000,000 1
Dr@@ 0.06396539614950997
LC 0.43645976318775126
Matt 0.26137972912137364
TNA 1
ald 0.21215838919619795
gen@@ 0.02830626793457277
lin@@ 0.04989208444833388
آفاق 1
اصد 1
た@@ 1
1777 0.6577598522467881
1779 0.7195847646625809
AR 0.2533301723446973
Bor@@ 0.055962310127134623
Im@@ 0.064114497032949
Mag@@ 0.06326177806311913
ated 0.011690946990568402
re 0.01969855933553437
± 0.8126599102310096
بازار 1
تخطي@@ 1
さ@@ 1
Dick 0.36528006475690394
Miguel 0.17188529743514352
ho@@ 0.039429933456335234
تمبر 1
محصول 1
164 1
480 0.9838826859640136
El 0.007595455745296898
Gal@@ 0.06440558917853323
Lu@@ 0.07060671879698846
Morris 0.28811186268418265
PC@@ 0.26208198275397404
Sc@@ 0.07770728273678146
pl@@ 0.02511765161148851
2O@@ 1
3.3 1
4.6 1
500@@ 1
8,000 0.8063329988335464
London 0.030895822636901417
ane 0.0488528155719259
ge@@ 0.019049076342485566
int 0.23973605802221598
آغ@@ 1
بش 1
ماؤ@@ 1
مختص 1
178 1
Hir@@ 0.16158887040987774
SH@@ 0.4746962352979187
ari@@ 0.05228075974755918
gr@@ 0.021636211631623572
he@@ 0.03252093136996163
ire 0.04533083670269639
mann 0.04330775353162318
ole 0.07316015191203766
23,@@ 0.5817081762411954
Hamilton 0.17261085733852352
em 0.034419495287937626
ome 0.0856720783663725
ys 0.07086580270048641
كش 1
Val@@ 0.055184382460356576
ath@@ 0.05449203120714738
انقلا@@ 1
زنا 1
1772 0.6631530786224059
182 0.9469036840232283
183 1
One 0.03568320836677642
SD@@ 0.47074631507262127
ab 0.02211196319875682
cr@@ 0.029057733120331695
sc@@ 0.050185413441796826
é 0.007997539681743477
فاسو 1
متنوع 1
149 0.9254477080995451
19,@@ 0.5062583052650554
221 1
370 0.9685177664029976
DC 0.1348295502357376
Go@@ 0.06128366267912563
Rob@@ 0.1456275245411018
Stanley 0.23937245268254745
Turner 0.3035581300531029
1778 0.620685467449634
222 0.9752606926266034
228 1
232 1
787 1
AD 0.18019800353569865
عشق 1
0.8 1
275 1
Day 0.08404440322066002
South 0.02092727486486343
الاختلا@@ 1
مضمون 1
0.6 1
162 0.8989892279901136
3.1 1
4.2 1
47.@@ 1
Edwards 0.3705811460855156
II@@ 0.3424027742391014
Reg@@ 0.0519595030553808
begin 0.1894376491376002
٢@@ 1
IT@@ 0.28079510301401855
contributor 0.8369803173605402
timestamp 1
اواخر 1
خوا 1
علی 1
174 1
Do@@ 0.06792764756158726
new 0.012281391532451336
soccer 0.3055850085444417
username 1
اديمية 1
田@@ 0.26416680449523333
0.7 1
BM@@ 0.3152468038947112
CM@@ 0.4509370578486889
ations 0.011267069518269219
ies 0.031849093024687275
طرز 1
1782 0.5849212228778542
18,@@ 0.44594024233084856
243 1
Hel@@ 0.07251629681904002
IEEE 1
IF@@ 0.3691137801544784
Warren 0.29500892658437006
ev@@ 0.03367760753325442
درد 1
طروا@@ 1
منتشر 1
189 1
198 1
IBM 0.39172877440596254
Is@@ 0.059206778906122665
STS 1
تلر 1
188 0.9968338342787708
281 1
400@@ 1
Tommy 0.3690569523470631
We@@ 0.05517021606898115
comment 0.46235102428791947
ens@@ 0.025334227875683835
ett 0.07077615887357155
ה 1
اندا@@ 1
218 1
238 1
HTML 1
sw@@ 0.06394279763163664
آند@@ 1
اصغر 1
بسا@@ 1
مطالبات 1
1,5@@ 0.9742650686358322
110@@ 1
Bobby 0.3399245219313534
Me 0.10243531364959925
Ralph 0.33697528402416976
SI@@ 0.34086307696676194
ha 0.022372201270772104
آس@@ 1
بخت@@ 1
حالت 1
مدراس 1
187 1
Bel@@ 0.03766267186882976
Can@@ 0.07159422407008018
US 0.02137252961835786
ess 0.03882125215663933
متعلق 1
محب 1
AB 0.3002366944710904
AE@@ 0.3106694197308796
Bro@@ 0.0838364949168006
Francisco 0.061054307263133246
Lin@@ 0.0842358156272286
Man 0.06831565704442652
ang 0.0374639756431365
est 0.002024765397996512
pe 0.04816219875278534
اقت 1
المرتب@@ 1
سراج 1
فوراً 1
213 1
3.8 1
Hal@@ 0.06897042187710123
Red 0.06227597258948034
اسن 1
سی@@ 0.7932419640001888
قلات 1
Cook 0.3016488425058008
Raymond 0.2626692906095949
a.@@ 0.28195950901250083
aceae 0.09578834199683182
and@@ 0.027776913555963
جيك@@ 1
متبادل 1
Bu@@ 0.07315754764426392
Es@@ 0.0496531749715168
SC 0.10895201569495189
SN 0.8913004623645588
United 0.011962977505721412
ales 0.016776960759458167
ger 0.05378956768815871
ma@@ 0.04846391459611458
me@@ 0.03630016232320739
الشرق@@ 1
224 1
Matthew 0.2633989066872081
Si@@ 0.07544695800729682
tin 0.056163395482909675
was 0.0008421890366549655
العث@@ 1
تصوف 1
توان@@ 1
رحال 1
مطاب@@ 1
1769 0.7581354368736869
H2@@ 1
Ho@@ 0.052243928630658666
Journal 0.12598857868673438
NS@@ 0.20513204380307518
Park 0.03189214780584627
TE 0.44898299224137306
dis@@ 0.011797242560459465
ek@@ 0.03348950583505814
ings 0.019686794274073213
we 0.04459168759685883
لنج 1
A.@@ 0.13189017400944839
Kr@@ 0.04364457596982624
Mr 0.3307034618231769
ئن 1
الن 1
جانا 1
214 0.9763629347549218
46.@@ 1
6,000 0.6835792932887781
All 0.03126901318240144
As 0.018107913079853898
Jordan 0.21135478815594716
Ram@@ 0.08283620123852571
223 1
Johnny 0.21871595243664327
Max 0.10732761868490213
pe@@ 0.037047690138459544
-1 1
AL 0.26420948713167397
Roberts 0.3137595510220271
غانستان 1
مرتض@@ 1
500,000 0.7953220247415618
EC@@ 0.4161336164567118
Les 0.011134906875136743
NA 0.24941743833755764
Os@@ 0.08557031453936716
To@@ 0.06968607658429087
ac 0.05860129564194162
io 0.042010845038347164
str@@ 0.02657722878141517
توضي@@ 1
,@@ 0.682259700769168
242 1
27,@@ 0.5816498357015892
40,000 0.959883129367797
Bennett 0.4148812315876743
Cl 1
Oliver 0.24480535854297752
ala 0.054389444875466667
if 0.030454750764138984
ion 0.045399641714975666
رنز 1
وسر 1
Bernard 0.170359529526364
Carter 0.23309504431334405
EC 0.3169600928201961
time 0.007554678933336353
حرام 1
داغ 1
197 1
Ba@@ 0.09054873035511093
ain 0.041621078238182105
ise 0.02175384249010442
ser@@ 0.032065774206020824
tes 0.01980504276313685
دفتر 1
سنن 1
IL 0.3841512900184828
ack 0.08379412032761248
ok@@ 0.04919268392494729
ro 0.07674726703419002
لايات 1
مزار 1
262 1
AF 0.2240399844023978
Em@@ 0.059669376240644736
ko 0.06541160541900853
1765 0.7274928209702535
255 1
Eddie 0.32915192826777684
や@@ 1
21,@@ 0.5461582512301201
26,@@ 0.5545347659452848
460 1
Maria 0.06284459760893726
eh@@ 0.03018083230390096
ium 0.09788121564173853
التار@@ 1
باقر 1
بدار 1
رجوع 1
كرك@@ 1
Leonard 0.34927623511060607
Murphy 0.3303143578808556
kinson 0.36410817770101334
حنبل 1
ڨ@@ 1
ひ@@ 1
100.000 0.7225549444489322
22,@@ 0.5220763240423545
3D 0.22398467706557526
bl@@ 0.025928020318968785
ist@@ 0.036696087013171196
lis 0.10776621255041828
اصول 1
ٱ@@ 1
0.9 1
241 1
Cooper 0.2559721107810345
Dar@@ 0.05799765940210433
Parker 0.2554555460305485
Wallace 0.34678034985851497
Wood 0.22102915173487866
aria 0.06332175697386583
aths 1
au@@ 0.021904586306778804
ek 0.050341776885727677
ele 0.07453044742305928
mi@@ 0.042074368510575826
زاب 1
ھا 1
5.6 1
B1 1
CO 0.25768067222300833
Ernest 0.29339144275055645
Franklin 0.20701749800591096
GP@@ 0.33891715421687746
Hy@@ 0.09398967755069695
Min@@ 0.05032470941864706
Price 0.37600098568820756
Tak@@ 0.09786087847218745
end@@ 0.023051185067895705
ru@@ 0.02984084385511348
ן 1
تصورات 1
سماعيل 1
き 1
--@@ 1
245 1
251 1
284 1
325 1
GA 0.3982669106175304
Lam@@ 0.11837427976024001
San@@ 0.06307823865102524
£ 0.09729301861484163
ד@@ 1
تشدد 1
سست 1
1768 0.6481666521189021
239 1
24,@@ 0.5121808156727475
99.@@ 0.9084615096367346
Dean 0.21811080297445828
MC 0.21927883792382175
colspan 0.17515449815118583
ja 0.04049470724102262
ta@@ 0.04868915900318609
اهز 1
فرائ@@ 1
لوبة 1
226 1
5.3 1
Gray 0.28787584255210763
IG@@ 0.39903623506614033
ach 0.035503453528315215
cin@@ 0.08507040007533496
row 0.08677578811120108
sch@@ 0.014694751665907122
that 0.0017550856258798768
án 0.040455593184288915
احت 1
عرفان 1
् 0.0028462079582375756
し 1
1,6@@ 0.9412160625499935
264 1
440 0.9030829046297125
Cameron 0.3662446193551237
Vi@@ 0.06590131702890635
fo@@ 0.05917110651673893
ill@@ 0.028958774736692654
osa 0.06009007929052926
ure 0.03187996373430577
بتا 1
مقرر 1
1,8@@ 0.9593741632519645
Barry 0.25454694611079864
HA 0.6296216293521252
Jerry 0.28479348483884237
MO@@ 0.2527078402274742
ass@@ 0.024087368888180912
singer 0.0845721176559697
way 0.018125646750506173
ע@@ 1
آتش@@ 1
اخبار 1
فاض 1
ناظم 1
257 1
4.3 1
BO@@ 0.3626508943342615
Mary 0.05670704259420897
Philip 0.16681544555799424
Tri@@ 0.04304339623966784
width 0.26362040374140105
دبا@@ 1
موش 1
1760 0.6021914086097019
252 1
Con 0.09027601448050407
Life 0.060960292543816255
mer@@ 0.024829158509226883
اخلا@@ 1
الأفري@@ 1
زخ@@ 1
ڤ 1
430 0.9396872950576838
Fox 0.12429572797099846
Grant 0.19926214579777435
Jay 0.26142211273238736
McDonald 0.5087271234077224
dr@@ 0.02606596188901984
me 0.022415252937423115
خلفاء 1
ماسات@@ 1
متاز 1
0.0@@ 1
150@@ 1
1773 0.6172024330171582
410 0.9621430525089604
Award 0.039633441160719686
Little 0.09783166786293984
Music 0.0373862803318032
Neil 0.29204453771649763
System 0.0865843955600409
Wayne 0.24257190107696278
wiki 1
شنطن 1
مماث@@ 1
منس 1
227 1
285 1
313 1
375 0.9176505127361771
CN 0.615705220287021
CS 0.2302349272751011
Co 0.11805165352090803
Ir@@ 0.0836660237914991
Kenneth 0.41606212098686896
eb 0.2679281307608652
gi@@ 0.03426106954337356
ington 0.07258942206752342
ong 0.035239639052765975
ur 0.03184292770833568
4.7 1
A1 0.47400078684930486
Foster 0.37915541118353646
Men@@ 0.0824040125172812
Micro@@ 0.2927626245950344
NET 0.8783741421926601
Nick 0.2023708785484184
SI 0.3811065409423957
SN@@ 0.30798511651175303
TA 0.15865620525054572
center 0.05051298800749959
cor@@ 0.028052200860833494
iro 0.11483776009779795
lard 0.1688891535095045
ock 0.06850198519017389
out 0.009264625621464535
php 1
si 0.02831207729687937
تعظ@@ 1
می@@ 0.7252069332599984
1596 1
247 1
249 1
3.4 1
30,@@ 0.6956744807945425
Connor 0.44496769718880796
House 0.028393178389082726
It 0.004757789344034698
Time 0.09668742284871479
ht@@ 0.8047952643343349
ian 0.038486021059460244
ki 0.04721066845898276
lu@@ 0.0375830070427469
oney 0.3717251403384161
á@@ 0.03252566960986801
شجاع 1
1740 0.6372727692980087
Aaron 0.36122550400030407
News 0.09876110723976304
Ol@@ 0.0705039822273858
RI 0.4329978606798006
Tel@@ 0.08714103908335934
ber 0.03886708471350823
hy@@ 0.08233069604364802
lin 0.07570961113353507
ō 0.0854595269770638
معاذ 1
نفوس 1
286 1
390 1
AG@@ 0.26692900357024935
Collins 0.2647319209835219
Sar@@ 0.05644679613958475
خوان@@ 1
نسر 1
CF@@ 0.34079242923679
DP 0.23689583274775994
Gil@@ 0.12702362499431216
don 0.06503177774950526
parentid 1
so@@ 0.02929115210275214
الخام@@ 1
رام@@ 1
شاد@@ 1
لاست 1
محض 1
مصنف 1
25,@@ 0.47948589233814976
3.0 0.6933807155928813
Gene 0.4437092264768957
Jar@@ 0.1610801162987011
Pedro 0.1014926816789364
Pre@@ 0.05993188027925324
oa 0.106769573343299
معلوم 1
← 1
253 1
272 1
3.9 1
300,000 1
AG 0.11608512163167
BA 0.15889446005599195
Char@@ 0.043486694580208166
González 0.24195055261832848
Google 0.1953918647197649
Gre@@ 0.07013956249862778
Rogers 0.29180234047099124
Watson 0.3158852013541231
ors 0.0166050836354317
تغلق 1
شنو 1
محقق 1
1756 0.6993109773167457
4500 1
640 1
Harold 0.2800946798302944
Long 0.08864387991308396
On 0.007774695320374519
TV@@ 0.2023041150838686
VA 0.28740359180911773
ula 0.11094193948561362
up 0.008748781767452887
yc@@ 0.09512394478111927
1,7@@ 0.9434504205724484
254 1
Blue 0.08798732741391903
Edwin 0.4484168255332034
FM 0.09991084016605557
SH 0.5062381362080851
Stone 0.13966007887004114
TP 0.42467838023214327
ela 0.06323095295905502
ili@@ 0.05318308152478595
اسد 1
244 1
263 1
4.8 1
BR@@ 0.5055416514813766
Brooks 0.42602004683041966
Doug 0.5509035826770619
Pi@@ 0.045462863784004805
Sub@@ 0.05542673160146393
Trans@@ 0.07254805404608275
ama 0.0470036606475854
ei 0.05584905839037147
iz@@ 0.028619892046637233
sk@@ 0.03559867254169109
ym@@ 0.07795988138647417
ō@@ 0.10464146800248154
ת 1
ادب 1
229 1
Ang@@ 0.04832851640228318
Fernando 0.14584835351561845
H. 0.08289559753285494
Ko@@ 0.050330414027657894
LO@@ 0.30631161745064234
Press 0.1241541100633969
Tom@@ 0.09012909436275975
Windows 0.11321472447762501
illa 0.051690429422982714
ory 0.0454901975336518
اوز@@ 1
تايل@@ 1
な@@ 1
269 1
DS@@ 0.3592832813736375
Danny 0.3169782251439442
FC 0.03560382909450924
Lloyd 0.2452974687550977
anus 0.15207648008113042
tor@@ 0.02862019032000449
فی 1
233 1
248 1
Bas@@ 0.05476900257667607
Curtis 0.42154782943455155
Gilbert 0.24737534521325577
N1 1
Pierre 0.052204153365264946
Pl@@ 0.044412557882707177
Shar@@ 0.13388000130113967
Sullivan 0.3132401801019566
Vincent 0.18190516351713412
ato 0.04188963285928692
ette 0.027937290848795364
immer 0.0635555298260957
li 0.057174512195858826
pro@@ 0.033926509652035294
ters 0.030992953678506435
の@@ 1
265 0.9699601528292979
273 1
Austin 0.18975872989885037
BS 0.2610983118747227
Bl@@ 0.044104555770160536
Todd 0.37817142590887254
ao 0.05294219345884515
aw@@ 0.03302191055060435
inae 0.21432018652970838
ore 0.03244622630538861
ra@@ 0.03865847532701962
سعو@@ 1
مباح@@ 1
٠@@ 1
あ@@ 1
1,9@@ 0.9436897995435648
DR@@ 0.46228934052836496
García 0.17709045042424645
Harrison 0.23037030024633987
ari 0.05344604670963228
est@@ 0.019011334042225107
ile 0.02003630749075868
ox@@ 0.10996230450184849
غالب@@ 1
1689 0.8028253957259054
1755 0.6683031301412029
302 1
333 1
5.1 0.96637232777295
5.2 1
5.4 1
Phillips 0.32435823459291657
all@@ 0.027866091133033354
cap@@ 0.037234280096385686
ler@@ 0.03517736540755657
tro@@ 0.05575916799170867
́ 0.02597114026016545
اقسام 1
ذخائر 1
274 1
305 0.8132317088655794
9.5 1
AF@@ 0.21438235979921635
IA 0.23735412304965808
Op@@ 0.0762245756059021
Ri@@ 0.0469374161805156
Su@@ 0.046676960143536374
Washington 0.03640502570169958
ung 0.009258847141489432
تحال 1
درن 1
قرآ@@ 1
مقرا@@ 1
1759 0.6924487070212387
ly@@ 0.07080074442950499
osis 0.11451913997527897
tia 0.09781011600402521
1758 0.62492462787642
1771 0.627727705651765
306 1
Bre@@ 0.04688092138433219
March 0.015838546680709154
aj@@ 0.03778307680768466
back 0.017910255592396365
ide 0.06040546144336986
ito 0.05298297757288579
ting 0.015354256879405018
ա@@ 1
باعث 1
وی@@ 0.9804968056616695
15,000 0.703201483608716
237 1
258 1
45.@@ 1
Arch@@ 0.1316462258871808
EP 0.09008172228766056
Earl 0.14136435021362637
Fin@@ 0.09457117825112299
Harvey 0.31146173692152307
PR@@ 0.26208200671166365
RT@@ 0.23107874229168568
ff@@ 0.03562682047844476
براير 1
1766 0.6568327377445388
4.4 1
950 0.9345945749819243
CO2 0.6540294985647463
Duncan 0.3960669142455842
Prince 0.07639890737365013
RC 0.15279403310457007
ax 0.126816913206379
elle 0.008094225578370957
ney 0.0686983409433129
ou 0.008183329012225514
بدن 1
جائز 1
دی@@ 1
رقب@@ 1
وائز 1
واسط@@ 1
1660 0.5807339976480284
1764 0.6130117185576276
234 0.9857325135480244
7,000 0.6995076122011641
Art 0.032181371523656764
Bryan 0.3671181480529054
Cy@@ 0.11776106302765324
Die 0.0034290327269066922
Karl 0.0610119973289825
PP@@ 0.2989772861963027
Research 0.06557157039909271
Shel@@ 0.2092075730463729
fr@@ 0.029357518912527514
its 0.003978938471187184
kin 0.0776270761936708
ver 0.041913144973144634
י 1
مومن 1
1762 0.612228334639872
2.9 1
283 1
31@@ 1
470 0.9206488686572285
540 0.996129467196229
6.4 1
747 0.9769696304962284
College 0.020790892641488277
Cu@@ 0.07523850350017222
DM 0.33577099004964117
How@@ 0.2765852403484679
Ke@@ 0.06538982475888915
Richardson 0.41455346281335803
Ronald 0.33911496197629876
Shaw 0.32866974996620835
Star 0.0608000115786103
die 0.0010019444509037426
خالص@@ 1
1,3@@ 0.8393289781274118
323 1
6.2 1
Hu@@ 0.05503312452244619
Hunter 0.23896775435496007
Lar@@ 0.10061752590491228
ML@@ 0.36814152541727746
Mes@@ 0.09455210165378142
Mur@@ 0.07130439057159324
Perry 0.25728674643388966
Row@@ 0.1991383038912294
Stuart 0.2560109955669891
1757 0.6828889166404443
246 1
288 1
44.@@ 1
Boy@@ 0.17489768129124109
CT 0.3574565168427057
City 0.01580557346083922
Mus@@ 0.050899879175356384
Pat 0.362545977401196
Power 0.11786394382534747
of@@ 0.05056937390758613
well 0.010253883475456967
اندرا 1
بخش 1
مستند 1
.000 0.36982830496337366
1517 1
2100 1
5.7 1
777 1
Allan 0.36155074756734373
Association 0.03130913898593632
DVD 0.0934040325918617
Ford 0.10320853165624914
ID 0.30902099953577167
LS 0.5164402375203769
Mul@@ 0.08977125738551704
Ni@@ 0.057025763743353323
TC 0.18177768650471096
eri 0.08872979499770454
ick@@ 0.04014901024015444
ii 0.19252369790061452
ves 0.030829001472577913
ָ@@ 1
بلخ 1
خراب 1
مقصود 1
∈ 1
276 1
Ellis 0.3812729811830082
ative 0.027084332480038914
sin@@ 0.045432329547479944
sy@@ 0.10249420201962225
ּ@@ 1
اطراف 1
حفاظ@@ 1
ری@@ 0.694351309025609
سوع 1
قاز@@ 1
مجرم 1
محراب 1
1492 1
303 0.816504196169222
CP 0.27758835238342583
Clarke 0.3084187120529013
Jacob 0.17427940294006744
Marcus 0.2735624789036
No@@ 0.061855055602387694
Rodríguez 0.23565497322642887
Society 0.04094578023253039
du@@ 0.036952801378268604
ech@@ 0.050465350156067096
ima 0.06510630993190465
تراجم 1
خلا 1
سمرقند 1
متفق 1
1350 1
60,000 1
660 1
B.@@ 0.17248638714573214
Rose 0.12535353972317084
Service 0.059972334444610344
ady 0.13507699019447172
ess@@ 0.03170255272766439
ni 0.031092297945149852
yn@@ 0.06000117431389563
ئم 1
صحت 1
فورس 1
مقدمات 1
4.1 1
Center 0.03927117947285492
Martínez 0.2778367754780389
ann@@ 0.0411286870055008
chi@@ 0.06339266658199788
cu@@ 0.026023210597427765
if@@ 0.037866427922751786
امراض 1
بانو 1
يونين 1
′ 0.44862056486027996
‹ 1
160@@ 1
297 1
720 1
Arnold 0.2125645847652032
Az@@ 0.07987466157454581
Black@@ 0.12868533821055494
CL@@ 0.3898068886449558
Davies 0.35863134427661736
Dec@@ 0.07250039833393682
Justin 0.30245423777943425
Mason 0.3047259621800978
RT 0.1960616854436777
Steven 0.24663244013842056
Ter@@ 0.060897731424245476
Vol@@ 0.05733817881070873
ents 0.02071876706959519
ib@@ 0.04455158676598063
pa 0.06357894071720588
que 0.00126964776176987
بمث@@ 1
داست@@ 1
لی@@ 0.8175352167582648
نفاذ 1
25,000 0.6284517909057938
293 1
296 1
312 1
Bailey 0.3966806007074299
Ul@@ 0.0820301627074821
anti@@ 0.03471359888878989
cer@@ 0.04309934412043478
sel@@ 0.03607841030730403
system 0.01905574812708003
ub@@ 0.060918039913475115
ارِ 1
فرمان 1
231 0.8784608447155466
28,@@ 0.48559427681815037
321 1
Hughes 0.27635570480039046
IE@@ 0.3185164452916212
Live 0.08636093692183676
North 0.01829705383465045
T. 0.11015799760758346
Victor 0.1225001043742299
ade 0.029192557297079827
amp@@ 0.045397049074551346
for@@ 0.01706815252421393
oth@@ 0.05244664518323472
thi@@ 0.11614130425205313
آخذ 1
عبدالرحمن 1
282 1
36,@@ 0.6018509471764996
Club 0.024516870380371675
Science 0.06297755611922108
Spencer 0.2992408807670638
col@@ 0.021567138250194146
tive 0.031432787182641024
مولانا 1
1714 0.7706964375117328
2,0@@ 0.9039023708726529
267 1
277 1
324 1
520 0.9377828481337196
610 1
7.1 1
Butler 0.27295958082536653
Hay@@ 0.10312677259384952
List 0.05146275310880289
Media 0.07870284197953764
Pan@@ 0.052065073392596174
Prot@@ 0.07528558132707816
Robertson 0.38323330970909275
ng 0.17504231379973262
so 0.009060048447919413
خوزستان 1
راغب 1
فضائل 1
ملاز@@ 1
268 1
501 0.7369993274399876
630 1
BBC 0.07354327251851554
Cer@@ 0.06537780268347636
IR@@ 0.3068891666380841
Silva 0.26689070181704944
ids 0.050989058929728596
sey 0.07968930295060028
تناظر 1
پس 1
1250 0.8666741379110844
1720 0.6027650615444988
BC 0.0775736694799727
Bal@@ 0.0317552335083816
Rick 0.25376493998382565
Rob 0.31921429409843816
XX 0.09175666841076893
ba@@ 0.03136361489597209
inter@@ 0.01261422384543064
low 0.029356566191827516
volleyball 0.42615221529293873
التغي@@ 1
بقول 1
نسو 1
﴾ 1
5.8 1
Bow@@ 0.13779403155731904
Gen@@ 0.04277227718006148
Ig@@ 0.20042666293060554
Mah@@ 0.059522979065120704
ce@@ 0.07971707579747886
ez@@ 0.04564386199901002
ον 0.3594473907349025
الفرنس@@ 1
خوس@@ 1
رخين 1
﴿ 1
219 0.8645569173972422
278 1
322 1
5.9 1
560 0.9945981451878928
680 1
Hernández 0.4818402651629605
Met@@ 0.09771864769105387
Porter 0.38280980953979604
VI@@ 0.17881670617384912
data 0.0533642805137337
ect 0.03987136389677612
ier 0.03810794240811987
ora 0.04403877971394602
نگ@@ 1
1742 0.6986812714803808
236 1
33,@@ 0.5830953099888048
@ 0.5353145341270088
AI 0.30517163329546454
Cur@@ 0.062066318361272826
EM@@ 0.3185920781640006
IB@@ 0.3158952975840951
Is 0.10935573824753551
López 0.19214699766645602
Reid 0.42342754822996453
Rus@@ 0.07806147426986428
bar@@ 0.021546320002716404
ef@@ 0.040800380368314085
ona 0.04098726282423384
tra 0.04687260883191849
1718 0.7878248346868276
1754 0.6501954936646298
287 1
8.1 1
Cox 0.38377367415196767
Patterson 0.6239907719322054
Vo@@ 0.0787187656148802
br 0.0352829359904685
cy@@ 0.12422107067537827
ish 0.03344627949116671
ue 0.026752311548032676
الكهرب@@ 1
ستم 1
شعل@@ 1
كويك@@ 1
ین 1
1550 0.6797527590149789
1610 0.7298633986558268
1648 0.5545171166566457
1650 0.5671246034497227
1745 0.6318649399571904
4.0 0.743559962550596
6.1 1
Eugene 0.33757061811088324
Knight 0.19388558105251044
Mills 0.2934356710115861
SL@@ 0.3410078964075675
SM@@ 0.30732071353551443
Super 0.061482589446355866
bit 0.08557437445900455
cc 0.44732086483159506
od 0.05660260578096211
› 1
1767 0.5727333670235143
1920@@ 1
266 1
525 1
570 1
Av@@ 0.06352323051640447
DI 0.31504670648194794
GE 0.3899453776172196
Health 0.08394872358396957
Microsoft 0.14225136910401692
Mir@@ 0.0715732032057686
Pérez 0.2254632183469553
Ren@@ 0.0623654484195722
SD 0.28979985861001806
ai@@ 0.05298677669021514
cal@@ 0.04426922656671572
ody 0.09543843039060715
onia 0.08523973062878737
ye 0.03361896779860151
à 0.0011079343196144127
آف 1
الر 1
اوائل 1
خسرو 1
170@@ 1
1730 0.5696908201040046
29,@@ 0.49199432878001015
338 1
Air 0.03299007775508895
CE 0.17919970444265787
Entertainment 0.091994338124204
History 0.019329096326442734
Lane 0.17471864256205308
Mario 0.15129652783712533
Sur@@ 0.05537555748217853
Ther@@ 0.1098815359724193
WHO 0.8950715109506534
ם 1
اصحاب 1
تاريو 1
ثبوت 1
1688 0.7043458645056163
1741 0.6915512777125135
1761 0.605486350226067
315 0.9621093744642719
6.3 1
A2 0.5579559127779885
Blo@@ 0.10649130692677287
FDA 0.684892599660261
Gibson 0.33919262411197826
Page 0.31607435365030184
This 0.007736678012831343
Tor@@ 0.03490685700673084
UR@@ 0.35579538837161984
USB 0.6436098699984478
eng@@ 0.02557797007323513
ensen 0.39060369443051957
enti@@ 0.02889322346387801
lam@@ 0.049124886301762836
ment 0.015817947017433553
oh@@ 0.053937959737090875
tel@@ 0.033889675318801965
this 0.004824713611235261
ular 0.050449527278631556
va 0.025770377315198222
van 0.04570340238027394
اشخاص 1
سورا@@ 1
عجائب 1
10.000 0.3643508766939939
304 0.9290173519497208
4.9 1
ES 0.33230071918967613
Elliott 0.43367423641544
Pal@@ 0.044482801347036194
Sil@@ 0.06655515207594337
St. 0.02182091324666408
ap 0.05250461377811103
ash@@ 0.04950605585638984
bu@@ 0.03288226421630164
vir@@ 0.08162090811385966
امِ 1
تلفظ 1
Company 0.031104365902239264
ME 0.25881324534452355
No 0.04163764763624925
ba 0.043528602425276175
can@@ 0.03492167976027786
la@@ 0.04318406051596971
ola 0.05276311860652487
ח@@ 1
ק@@ 1
تسلط 1
مداخ@@ 1
1748 0.6496878279484516
2050 1
317 1
Blu@@ 0.13500337785965294
Brien 0.38098788475622486
CR 0.26043595249917184
Carroll 0.4255872588402163
Cre@@ 0.05058717695685291
LP 0.14705509535684483
NXT 0.7428045566064511
Ru@@ 0.049349886898143916
gu@@ 0.022089988478116086
ira 0.06256196457439754
och@@ 0.06002567690499361
tor 0.030088833853503336
uc@@ 0.045069331964704494
1707 0.6950228509595201
307 0.9788063559398656
America 0.030156721396440034
Henderson 0.3590687961524109
Network 0.10095424930951932
SR 0.09983199591254416
Sam@@ 0.05209638192421476
State 0.015439685435866454
Steph@@ 0.26377205865227005
Super@@ 0.055666586376575886
jo 0.06747442218020835
kin@@ 0.10749935904082845
line 0.014938309549945078
34,@@ 0.5686473630342458
490 1
Cam@@ 0.057313460101425136
Cap@@ 0.07185085427563458
Chapman 0.4852415419279781
GSM 1
Royal 0.02700317916964517
Van 0.07001916151536543
dium 0.15442044948414052
fil@@ 0.055018352495798235
mat@@ 0.038015156958822925
off 0.01590085804710641
port 0.03283990696790738
rom@@ 0.050874048812488255
ts@@ 0.025692553232741798
ty@@ 0.04697688057917622
ə@@ 0.3985468787717118
مصنو@@ 1
1640 0.5648825931521216
271 1
6.7 1
Cs 0.4676138229480972
Kent 0.15406972784766554
Night 0.0959791783479848
P.@@ 0.25525711684182284
RN@@ 0.39084828027612256
Red@@ 0.0523433695721469
Reed 0.301055760832315
ena 0.03742821027772581
محبوب 1
مطلب 1
1620 0.6147766051024377
35,@@ 0.5996541494323916
505 1
6.8 1
Business 0.09672831484716286
Colin 0.3074404075623304
Fisher 0.30081167949932197
GS 0.34496993692430233
Institute 0.03631524240089245
Sean 0.2730386650568612
athlete 0.3113885829710558
cases 0.06241101209785043
icus 0.1680158167628428
min@@ 0.023146092751772113
بابر 1
2200 1
261 0.9636558007533705
299 1
620 1
C.@@ 0.1404410056572557
Fi@@ 0.0781034454130311
High 0.026366790543877108
Isaac 0.23585760694404634
Jamie 0.38217283479469516
Kay 0.32646626253041483
Kennedy 0.14188699338857985
Medi@@ 0.08989263737148
Pat@@ 0.06429642673524336
Plat@@ 0.0853541831561163
Por@@ 0.05355536202789841
Show 0.07260665015061668
art 0.018018731047376835
color 0.05185819265762084
els 0.015008715169592023
ement 0.01098746725316198
tan@@ 0.03821355651328779
val@@ 0.04467938188921062
مرتب 1
نافذ 1
----@@ 1
EL@@ 0.304129441467767
EN@@ 0.27011104228793803
FO@@ 0.23748772475011234
FS 0.4560973673444042
Greg 0.27566440094874695
Hunt 0.2797848356493788
Reynolds 0.35204732626715163
ji 0.06391029231627395
my@@ 0.06836847487672788
yer 0.044498492397248283
اشع@@ 1
AO@@ 0.3131875376380857
Cas@@ 0.03830000204785256
Dale 0.41850867407572945
Foundation 0.0703957957394242
Hart 0.2578511008851942
Il@@ 0.06567593978834355
Je@@ 0.061967884997915355
Johnston 0.4102808714808508
Neill 0.3798738066155471
Owen 0.2840975191402855
Res@@ 0.06042397796314791
ax@@ 0.06384043340916351
ere 0.023792600027815518
oshi 0.21473180279627446
return 0.04158367992144316
é@@ 0.010472442053753429
انفرا@@ 1
انو@@ 1
خوب@@ 1
زخم 1
فارغ 1
مواصلات 1
12,000 0.7945608768436793
298 1
311 0.9377284139721603
395 1
AK@@ 0.35910815893889103
Brandon 0.4775344545844244
Crawford 0.39677250972726896
Ed@@ 0.08117228930021536
MT@@ 0.40387471862761326
Mu@@ 0.06450114057776477
ail@@ 0.05316782875374077
her@@ 0.018508669072333984
ides 0.03227534334018306
ve@@ 0.038387840412258616
تاق 1
شرم 1
نواز 1
37,@@ 0.6199686494967025
960 1
Best 0.040559966842261895
Derek 0.43747607333508826
Fol@@ 0.08596879200306419
GB 0.15998171629029054
Lucas 0.19730767068372707
Pa@@ 0.07921151106122698
Ted 0.27303774873837716
ish@@ 0.04430434754797339
ison 0.05774349598077066
خالق 1
دست 1
ستس 1
ー@@ 1
1603 0.6849442527114863
600@@ 1
Coleman 0.46017266954445346
Education 0.048258141391621774
F. 0.07543599206953079
LED 0.6241206939640576
S.@@ 0.10428843926083278
Sher@@ 0.13895611027042873
Wells 0.24947710975731613
acteri@@ 1
aga 0.07549958068693857
ein 0.003109021298922181
eria 0.12055325206823848
ich@@ 0.03474683724341374
iv@@ 0.045536395705075214
mag@@ 0.043185421137730794
por@@ 0.029800560848576275
pos@@ 0.025603862995504125
pu@@ 0.03697647341499136
α@@ 0.14959267427723644
السكان@@ 1
نول 1
1538 1
425 0.9956644586178132
André 0.10815411464715001
Cle@@ 0.11873553457530424
ED@@ 0.36858681525986847
IT 0.19320450961656072
July 0.013237762528186554
Kim 0.08877709262323948
Leslie 0.31910843583696263
PT@@ 0.3560920905597822
Poly@@ 0.12754814889124808
Ran@@ 0.07018238083187012
Sy@@ 0.061571285606702546
aka 0.07354958358092187
lig@@ 0.0420333726114145
ness 0.03263120100271691
out@@ 0.028695839429784955
pal@@ 0.04539730037448593
right 0.02834389420143189
tom@@ 0.0421814191765918
use 0.010722706906805603
ó@@ 0.030491377742801886
حالف 1
1644 0.6657969647285119
1715 0.5352003165795295
294 1
295 0.8273659100057366
39,@@ 0.6993096004303202
7.2 1
Big 0.05195939497992787
Jo@@ 0.06335168635009293
Law@@ 0.12523681965417222
Lind@@ 0.12192631443974249
RAM 0.43308327343220576
War 0.014580617558505248
char@@ 0.048141996098178756
ese 0.019583931873989276
king 0.023384775698478282
ong@@ 0.040629941507820226
our 0.026023183700694966
und@@ 0.02833443965990009
ר 1
الاول 1
خون@@ 1
غوث 1
259 0.9886598492421345
337 1
512 0.956261963265183
6.6 1
Gi@@ 0.045162662768022
IX 0.13434496602435392
Jan 0.10511745838121471
Maurice 0.127267138808791
Ti@@ 0.05204358216908781
UC@@ 0.3020440215116593
Win@@ 0.07352135762067936
ame 0.04536467692446219
cas@@ 0.02524247832367749
don@@ 0.05110589493900006
eli@@ 0.06355023335040873
yp@@ 0.06950279783155434
سوتا 1
مظفر 1
1749 0.665788845748392
1752 0.6113728362611425
399 1
Anna 0.07355987817798205
Deb@@ 0.09449529342341231
Fraser 0.3435184985027736
Han@@ 0.061507410851464356
IL@@ 0.3583776539397473
ON@@ 0.20428511454964288
Oscar 0.13772600494758783
Simpson 0.26054202488408507
TT@@ 0.6134444647752028
WA 0.2938825492579163
ans@@ 0.04017821400283531
more 0.006337039864768945
occus 0.9167957600112543
مندر 1
1701 0.6395159919307198
279 1
291 1
309 0.9182339496327511
Active 0.7213519903860974
Fletcher 0.4790887648904293
Golden 0.08622713186687976
LGBT 0.27925147833113495
Mad@@ 0.04407632125596353
ali@@ 0.037185905818189494
ally 0.01149060172892434
loc@@ 0.032562817207284295
ng@@ 0.052494706458398786
ori@@ 0.040901680396901646
pre@@ 0.014528259048953952
wan 0.13291510599561743
web 0.09216781654702588
ִ@@ 1
اسلوب 1
بحال 1
نانا 1
ونسب 1
ED 0.4668014119426356
Ham@@ 0.05901847343005338
SL 0.31176133061147376
ee 0.03207171426288941
ger@@ 0.023678470801788764
har@@ 0.025103437775305402
isa 0.0877979861354705
دوست 1
صحاف@@ 1
مقبر@@ 1
289 1
316 1
336 1
5.000 0.2962684251306777
AV@@ 0.21088568000465135
Armstrong 0.26307664320151297
Brad 0.4100307232673271
Bradley 0.3211104898057351
DE 0.18079996906127865
Freeman 0.4566197669342221
Nov@@ 0.0715172727816369
San 0.011896416065243902
Tam@@ 0.09042938736181065
ado 0.005719043736107246
ation@@ 0.12055073345961408
dia 0.06626634124267762
ding 0.04160499694580409
hi 0.07766981541509536
rell 0.16966731026655754
tica 0.06181517336661406
і@@ 0.3036623272123043
البشر@@ 1
قبائ@@ 1
قدس 1
مردم 1
1260 1
1743 0.6403018894337899
319 0.9999234985678361
7.3 1
Anne 0.07444159944097191
DR 0.20330211519536232
Nicholas 0.17254206673505582
Sim@@ 0.049298833395121845
Thomson 0.37350342165244943
ating 0.013208667875767651
ema 0.07659364172256482
eter 0.05334011162256228
ik 0.03711682984171357
ika 0.06699551318813071
the@@ 0.04060810777072741
up@@ 0.023859845685744216
ְ@@ 1
ولِ 1
159@@ 1
331 1
Ben@@ 0.043148580293500605
Fran@@ 0.07930731472360261
Gerald 0.3225243913954553
Law 0.05828566900924796
Pro 0.08531190041172597
Times 0.048898955168294254
Wat@@ 0.09745074782025008
Will 0.14729819516631276
ali 0.055389324650664505
enc@@ 0.02952257839811592
sub@@ 0.015060905756979005
void 0.5861657101587525
الكويك@@ 1
عصمت 1
ゆ@@ 1
ら 1
31.@@ 0.8580481361410482
359 1
404 0.9707118589872896
978 1
Bir@@ 0.059868208597908555
Chuck 0.32995855777240096
Cohen 0.3005906139040249
EP@@ 0.26696637148832186
Gregory 0.2204663617583417
Gro@@ 0.06653241586069378
PH 0.8647665322974801
Phil 0.19140749190246809
Torres 0.26400841479288967
he 0.0017108552177520402
micro@@ 0.07333580238452586
sol@@ 0.025027777980464107
uk@@ 0.04053338473046949
ל 1
كيوب@@ 1
مخالف 1
お@@ 1
1735 0.6086936386519178
292 0.9999297408590482
346 1
354 1
760 1
An 0.022388905221934874
Carr 0.49717810066295015
Cross 0.08259110254453746
IN 0.324677186856933
SE 0.2088842768357843
UM@@ 0.48417368077922546
Willis 0.4830068236491118
edi@@ 0.05479191899219881
ex 0.05172621683154788
ill 0.03877298082793152
ine@@ 0.06778059565458339
inger 0.039589564649647725
ome@@ 0.12234610019629996
rey 0.05274980940122777
ville 0.01216387531720959
1630 0.553104902298831
1746 0.6169409801089212
2400 1
Ali 0.07980823379374247
CY@@ 0.854683862174963
LE 0.4301927017879797
Malcolm 0.33322795502793096
Project 0.097819357042262
Randy 0.404088069083047
Wrestling 0.12955874613022114
cl@@ 0.022388669353646935
elli 0.062481936603841985
ines 0.022744640674536524
ip@@ 0.07980507332194642
ut 0.03845552421006435
ος 0.08646027528989911
باطل 1
مطالع@@ 1
つ@@ 1
129@@ 1
510 0.962193884341968
89.@@ 1
Andrews 0.2963432492654513
Fern@@ 0.09769070831543046
Guy 0.14624559518389016
María 0.0588912661172312
PI@@ 0.3761646587619183
Rafael 0.17151000076666637
Rice 0.2939438189249441
Tur@@ 0.03550837264529653
Ty@@ 0.0866428044093603
UT@@ 0.4074399155485826
acid 0.13873314825318675
alism 0.05307333839946034
atum 0.19278636933669702
aur@@ 0.0687712372919502
ense 0.051536587698022246
ets 0.016062258818537983
go 0.025339647493670615
mu@@ 0.0410449292070328
net@@ 0.10169628239756337
org@@ 0.10029847854987067
سوخ 1
مزاج 1
い 1
1744 0.607581838680948
1751 0.5858201190554088
353 1
355 0.9841516894221669
367 1
Cole 0.25108162593457917
FL@@ 0.40645258452026595
HC 0.18446991704678103
HP 0.2683793303328272
ISC 1
Mol@@ 0.05831726553095859
Na 0.2683566792296966
PDF 1
PI 0.3793001477054369
Pearson 0.5108935789872641
States 0.009914170073203084
eo 0.04178666229715311
ius 0.07346574117802997
oides 0.19189342399244017
ros@@ 0.0616098339847455
uk 0.1074304410674511
š@@ 0.046045084690027174
ندو@@ 1
نسبت 1
پ 1
大@@ 0.017475730271277124
子 0.03714908106518196
1450 0.7185265698809905
530 0.8124564457172085
580 0.9307799964790897
625 0.8948488600581237
Barnes 0.3656289227628341
Burns 0.3263936470647237
Eth@@ 0.11234808013867599
IO@@ 0.5814161077045177
Leon 0.24930950805106464
Powell 0.2781532031837147
Pres@@ 0.04018171269665831
S2 0.828184709106834
chi 0.040614774582199004
folia 0.331967041833015
ud@@ 0.03975218198510079
نائس 1
み@@ 1
1624 0.7332212700399982
332 1
345 0.9504045045867718
347 1
385 1
93.@@ 0.7478087351929885
DI@@ 0.37439558317556526
DL 0.42070137396046486
Del@@ 0.04408996599075403
Linux 0.21045236297490588
Otto 0.08304319609234123
Sánchez 0.22296293104660153
V. 0.07926445854056276
Wal@@ 0.03934699222965707
arg@@ 0.06943540724405961
ash 0.06003091187148618
can 0.007226014590105117
lar@@ 0.04171842477235173
ord@@ 0.031304628745334066
ow@@ 0.027378098824890375
tical 0.03894643607099739
tics 0.050588445752239225
writer 0.04674933738660948
گان 1
と@@ 1
も@@ 1
20.000 0.47441128674221017
Ak@@ 0.03906741336296811
Burton 0.30203034330916484
CI 0.2746045321064516
Dav@@ 0.09674201140732254
Dev@@ 0.05832001738496747
Mi@@ 0.04225597080227847
OC 0.7309588275718515
Ricardo 0.2271045683119012
fe@@ 0.020228558740650396
fer 0.030997385576231502
fer@@ 0.02026992518209809
fl@@ 0.020441177124496553
sen@@ 0.02988398186274192
ای@@ 0.49518291402312403
1000@@ 1
401 0.7545863632900804
98.@@ 0.6704050936546211
April 0.008640016792424373
August 0.008311178011999388
CDC 0.8777500163824791
Ferguson 0.38690195548454653
Holmes 0.24992568285420982
Inc. 0.09917232566941862
Sho@@ 0.07344556425763397
Sm@@ 0.11886746825127635
Walsh 0.37065844081194727
adi@@ 0.03715015674650719
ain@@ 0.03654203660875438
cul@@ 0.0406768233652805
dic@@ 0.03160872635172362
eta 0.035355937537019
ran@@ 0.025013973341953592
ten@@ 0.01583048314594574
tw@@ 0.04163654435895028
π 0.3100013200177451
פ@@ 1
إليزاب@@ 1
ستيو@@ 1
محدث 1
318 0.9299823038697674
32,@@ 0.571276328270106
342 1
59.@@ 0.8252998728934127
AK 0.348207635535973
Ash@@ 0.06824347245124324
Carl@@ 0.17513957018080176
Claude 0.10337106171804876
For 0.017299337537683573
Gl@@ 0.05057237954751222
H2 1
Ha@@ 0.046646325600783634
PG 0.38531409394639327
SW@@ 0.24203430754472127
Wh@@ 0.09419761799253255
ard@@ 0.035650744680753715
ati 0.058952483243167486
ila 0.05804998084096856
ling 0.02166730443133465
my 0.05122636476429121
آس 1
دفاتر 1
1430 1
362 1
366 1
670 1
Davidson 0.4206841047434313
Great 0.036169763085578774
HT@@ 0.4906625575884169
Hayes 0.3459172703065578
MacDonald 0.544338641751886
Morton 0.397116490717327
Nathan 0.2698970218396482
Office 0.06184877424328758
PP 0.2790835530460016
Rock 0.04843167471542548
Sun@@ 0.07527606632200083
Timothy 0.4071405018205186
U.S. 0.01943838245885878
Women 0.035738908900983135
enzie 0.3101825392577362
esis 0.09235861025769594
mayor 0.030070822100073377
ms 0.03833528998273795
tions 0.014140478022596688
tz 0.10859674120123354
ابو@@ 1
شوق 1
فرنس@@ 1
فورنيا 1
معمول 1
نواع 1
だ 1
1,500 0.48609921321337374
1680 0.5035744264824226
2600 1
329 1
351 1
363 1
536 1
Blair 0.3509562726151357
DF 0.2099468383053914
FF 0.15557036083376322
Gun@@ 0.10568541686322429
Hansen 0.3738845475929111
Ltd 0.13541444103788408
Mann 0.08146807332983028
Marc 0.12075293676802537
Mos@@ 0.06237890051277118
NBC 0.13913031681097476
PR 0.19351731478231862
To 0.03659544039234748
Up 0.10369791933231859
Virginia 0.04009455185996464
War@@ 0.03864695447150609
ds 0.030102316557245774
ency 0.037178946681270246
ha@@ 0.04083153548025846
ie@@ 0.03645764618471488
iss@@ 0.04257688382830809
oo 0.1146506674285888
ster 0.031689050638724396
ten 0.0048939875526678054
yn 0.07757717196332903
you 0.03624197995492841
اطلا@@ 1
لاؤ@@ 1
1649 0.656585635511537
1753 0.42674797854652563
2025 0.6561261835033069
371 1
389 1
DSM 0.9357154110773473
Dixon 0.3975916355922696
Li 0.11807833823258701
NP 0.43425840697609375
PD 0.2752518197894303
Paris 0.013863456128317922
Robin 0.16161770609315396
SF@@ 0.256226626117455
Santos 0.1750971660341166
Tyler 0.2757628289947817
aki 0.07506905375513824
asp@@ 0.23438203327401436
eus 0.11242918198566458
ning 0.0415592992132745
omy@@ 0.38854048445569017
phen@@ 0.11928476163285953
ris 0.20532566701069047
syndrome 0.24540469444985705
we@@ 0.027807264700447462
win 0.022161906316646197
اعتدال 1
توبر 1
دولت 1
فرانس@@ 1
مخلوط 1
150,000 0.8813997593916649
1702 0.6342264049392107
1710 0.5091942528182056
1721 0.605176489947685
327 1
C1 0.49216220575649605
COM 0.47985458203611836
Corporation 0.06074254824880084
Der@@ 0.06579691188629119
HS 0.28692707598201767
Kyle 0.3171875074057469
Management 0.08842103486970415
Pas@@ 0.04329488800061288
Percy 0.37641861406448224
Power@@ 0.29765852144253446
Tar@@ 0.044150218329635324
Ur@@ 0.03175554916158631
air 0.024945582672148397
gar@@ 0.03272018567019304
has 0.002616978151173031
icks 0.1338099167430157
los@@ 0.06532209505978333
oth 0.06942802573372182
oto 0.0702094327046363
γ 0.612545457861812
1521 0.7271408130546382
1580 0.5803420335567433
1616 0.7214963571997494
1713 0.5701107123108736
2,5@@ 0.9208879539208915
326 0.9758590784814096
386 0.9461209913266623
999 0.8729641375463681
Boyd 0.4365981235641368
Dick@@ 0.17612215331334127
Leo 0.1512074351776466
Milton 0.28478619244450054
NT@@ 0.2606145713773228
Nag@@ 0.0766853119088938
PD@@ 0.4344674374400255
Pete 0.2508556810925188
Willie 0.3497020796148241
XX@@ 0.2639001765093298
hydro@@ 0.07367691283712792
ins@@ 0.02707134540474453
met@@ 0.03674356765353519
not 0.00335431630623311
سجاد 1
قون@@ 1
لائف 1
山@@ 0.06335052248166352
112@@ 1
1325 1
1683 0.6008870957834376
1733 0.5967309070665695
314 0.9074090350728297
AND 1
Gabriel 0.11297529066308848
Jesse 0.29425299909480057
Joel 0.31586949159808203
Kenny 0.3156723323622424
Net@@ 0.18879630598169694
Nik@@ 0.1076373661280963
Open 0.042227004853917796
PL@@ 0.21644066340843165
Ramírez 0.4631901286597443
Rich 0.3271060114165119
SR@@ 0.3488026121071667
Woods 0.274621807173017
arr@@ 0.02990102392228776
ast 0.03753823769188201
ey@@ 0.042165939486820014
lock 0.09455151134558747
oke 0.09294094087527657
ַ@@ 1
تنازع 1
لغت 1
يزاب@@ 1
1570 0.5721106361337195
1605 0.6761041753724079
1727 0.5512857309663203
2023 0.3701832434631794
349 1
Dunn 0.558563709684224
Dur@@ 0.06737162647948149
God@@ 0.0977960328119726
Greene 0.35076142534443105
McK@@ 0.34397217364029553
NI@@ 0.5534028358647081
Proc@@ 0.1645412309450209
leton 0.16645883369826872
pedi@@ 0.2190754197007921
revision 0.6021968051322696
trans@@ 0.015698236713730825
urus 0.268825743581423
כ@@ 1
ס@@ 1
قوت 1
2300 1
415 0.9785579600651468
429 1
BB@@ 0.42488046989296013
But@@ 0.09983504488056118
CH 0.32443474105044257
DV@@ 0.24567151344834834
Kn@@ 0.059265292530361974
Meth@@ 0.23120636718537288
Morrison 0.2919807725335901
PE 0.4188913780556152
Systems 0.13823122799936352
Union 0.018398159657020585
Vir@@ 0.0868687449707471
ath 0.04222902277043172
eder@@ 0.061885535865459036
his 0.0012862003749988312
inc@@ 0.02501924954154129
ri 0.06066916301596067
sion 0.02077016888272309
tar@@ 0.03113004843838562
yg@@ 0.11639134900473462
دادا 1
عقائد 1
250,000 0.71688740780196
381 1
384 1
412 1
422 1
780 1
911 0.6411605423453617
96.@@ 0.669559374011175
All@@ 0.06507333182861468
Au@@ 0.05591548356143892
Awards 0.03180290382720421
Burke 0.33454522555703564
Cul@@ 0.09299954755868975
Den@@ 0.06968194266162192
Edgar 0.21873737742442462
France 0.009240092308183102
Gor@@ 0.05577728629740656
Riley 0.39006448956044476
Stevens 0.23986641808317455
a.org 1
artist 0.04571041020312457
atr@@ 0.03915961689605272
enton 0.18424740973734788
hom@@ 0.03226103884441528
ight 0.04650913035648369
orum 0.14327570492157826
tur@@ 0.02027383321514885
حيد 1
صبر 1
نقصان 1
٩@@ 1
き@@ 1
こ 1
1066 1
1516 0.9306598789973072
1737 0.5731928417044609
1739 0.5660504650392475
2,4@@ 1
3,8@@ 1
3200 1
328 0.9246681167536488
476 1
508 1
810 1
AMD 0.8149141237574999
Cat@@ 0.046269664500440476
Clarence 0.43085426597136023
Duke 0.07154779438995244
ET 0.25296887632004655
Gardner 0.3705371389081088
Lynn 0.30559279640906245
Marie 0.03757067414802711
OR 0.5244595046778378
ST 0.21011395769710597
Ta@@ 0.05152869372362018
Web 0.1985037014522171
bre@@ 0.021024910918370276
ga 0.04535141707037442
hu@@ 0.033524838681607785
iko 0.10053327133407475
oy@@ 0.052101948081058475
wikitext 1
צ@@ 1
اتار 1
1340 1
1420 0.9567083065907451
1662 0.6459686775657356
393 1
707 1
710 1
BI 0.2541146034384835
C2 0.4946582502517896
French 0.016321018113187213
GP 0.21276377757353526
Grand 0.02178443593487606
Hard@@ 0.10496107843570664
Warner 0.1238100017613135
aya 0.04221277150242545
bul@@ 0.03154681702249396
ection 0.03651369388200657
für 0.0025819990424907078
lia 0.07942628376516993
mb@@ 0.08880493535209655
scale 0.07408145099899978
sil@@ 0.03808031956344542
ul 0.06350062561638774
بی@@ 0.42597729136008383
سخت 1
عاشق 1
す@@ 1
0.0 0.6770212534488034
1590 0.5894990029503039
1672 0.5766019665460926
1731 0.6259093130301093
2,6@@ 0.9559225635273372
2,7@@ 0.9468678166468345
308 0.6743461827225083
334 0.9758528924091915
383 1
4,0@@ 1
405 0.7576993140249169
767 1
870 1
980 1
A4 0.7043133532984507
Dawson 0.4242491384496988
Ful@@ 0.11210922230888333
GR@@ 0.45201079842512243
Hugo 0.12370464359621863
Lynch 0.33040670341959144
Palmer 0.22949666005313568
Preston 0.2910591558179821
Ps 0.37623212436594927
Saint 0.009937396517925832
Sand@@ 0.05457813213699697
Street 0.02013021455424227
dy 0.05223523079924087
eck 0.055933854501141946
firm@@ 0.2661602573229405
left 0.014191600596719095
ok 0.04646224288374141
una 0.002230615288178625
اعظم 1
العرق@@ 1
خفضة 1
فی@@ 1
مجاز 1
کان 1
1453 0.8987924821571859
3,5@@ 1
369 1
509 1
790 1
Alberto 0.13963597911306358
CF 0.22260480524973772
Data 0.20933921437037098
GT@@ 0.19173743083212336
Montgomery 0.21404176193956048
NT 0.40973817010211594
Rap@@ 0.08945473493907516
Rem@@ 0.0600301331358665
WCW 0.7274548668727674
Whit@@ 0.07270776886544861
aa 0.1525928915398047
ability 0.023347497165219607
anth@@ 0.10176550685315017
app@@ 0.04985079565723194
bas@@ 0.02410186870450309
cha 0.03680464441875789
eth@@ 0.03637827137691195
onas 0.3617183084783714
عقاد 1
€ 0.13199665965676152
1642 0.5323073455260754
1696 0.6996286657907622
730 0.9780391355653104
Chi@@ 0.04558581534587805
Diego 0.06672638437790825
FF@@ 0.2167775053720515
Global 0.10522094386826797
Irish 0.047880916634827526
LD 0.430767987636373
UI 0.5057770238645304
USA 0.03416374590966496
Wo@@ 0.099993399716517
elly 0.15320284614689242
ith 0.07860578937347062
ki@@ 0.03849869589667055
quot 0.1742101664675392
zo 0.05981033364500489
ת@@ 1
جينيا 1
ورِ 1
1150 0.8476376677497363
1609 0.6005994801740941
1729 0.5989665575389954
2,8@@ 0.9550296027212453
431 1
451 0.9870525638184168
Adri@@ 0.13266799454246272
Barrett 0.4264387567317905
Bou@@ 0.058816732671563815
Bryant 0.44179038645791147
CM 0.2857257421579627
CoV 0.9378490372232389
Hem@@ 0.1069795920809484
Island 0.02619359482779836
Jan@@ 0.07010102069911596
MT 0.3080893530500124
Sk@@ 0.05046491309435916
UL@@ 0.4488017801839801
VI 0.07023655892774297
ail 0.04103649549076525
ashi 0.1485123938863256
lan@@ 0.03741080179378821
lat@@ 0.039008408881080585
mel@@ 0.03219198378978501
う@@ 1
1632 0.5822356009575334
1747 0.4976261149571659
2700 1
361 0.9909206149863894
373 1
449 1
705 1
BP 0.3138975305855117
Fil@@ 0.05862798661622889
Humph@@ 0.3601264249535829
Japan 0.02496052513483437
Ken@@ 0.08879296130538666
Mic@@ 0.14068098787557948
Sarah 0.10227453439239391
Sw@@ 0.04729311290990915
action 0.02145611446662358
atic 0.043351667031946595
des@@ 0.010483672443544537
disease 0.0813006039086038
eng 0.061816668921536
gs 0.06358871252436844
inf@@ 0.02936508180219395
lum 0.09602469380181694
mal@@ 0.027181329699248837
ological 0.026402275850434965
over 0.005402915426459703
res@@ 0.012823332040429722
une 0.0015959600208145784
wer 0.04997353457999243
مسند 1
335 0.7600655169064611
356 0.877411055174935
403 0.8936950759554716
454 1
94.@@ 0.757579681788576
Academy 0.028950197334106073
Ari@@ 0.0862190952352259
Ay@@ 0.05988107540042167
CBS 0.12003393382090495
Cunningham 0.454788872307593
Donn@@ 0.21455018567589082
M.@@ 0.10343782203226422
MB 0.2996257293168582
MR 0.36444547734479726
Mach@@ 0.0970541735126717
PN@@ 0.22835684185471766
Pablo 0.12197372647975058
Pur@@ 0.07106467044431483
ROM 0.4788949196848437
Richards 0.2793354556894254
Sun 0.0639277023802977
TCP 0.9799356730006277
UK 0.028266007319201866
act 0.026655155531030292
ake 0.028562325301758194
ko@@ 0.04878541576553302
language 0.024455447630871766
m.@@ 1
mi 0.044180729642009295
ost@@ 0.04495930071493121
set 0.012463997592386854
ther@@ 0.03668347193182213
اشرف 1
التأث@@ 1
معزول 1
منافع 1
1390 1
1631 0.6572748113566002
1670 0.4970512022906388
1734 0.5374328530132426
3,0@@ 0.9428846727670407
343 0.8927204788393381
368 1
392 1
411 0.9296602069777603
57.@@ 0.9051539116922539
97.@@ 0.5415837571625318
Bul@@ 0.05875797897266193
European 0.01923501557978561
Ga@@ 0.07609902341980125
Go 0.10542568765636871
Gra@@ 0.12723067780354566
Green@@ 0.10227268518372201
Jeffrey 0.3458173811503474
Khan 0.0785941175239994
Lake 0.029277113606434004
Lord 0.04158954257360301
MIT 0.3195644246047896
Maxwell 0.31692660036629444
Rom@@ 0.041090444974164676
SM 0.21634855598639655
SV@@ 0.3671956681144967
She@@ 0.0750585091137418
Trevor 0.40500244486254516
WWF 0.3710717587510663
West@@ 0.0317257155183294
ami 0.048807058695391044
bor@@ 0.031130448782159308
bus 0.04334953837858736
group 0.011074973400365496
mus@@ 0.03569389487696992
tim@@ 0.034649641555241896
vo@@ 0.03836263764058361
بزر@@ 1
لطف 1
مطابق 0.6521592063340489
128@@ 1
178@@ 1
357 0.8720133845252781
417 0.9548972009799755
426 1
590 0.9679099403295452
6.0 0.8574119143015293
970 1
Ann 0.11806395860083793
Barbara 0.11251066918376736
EA 0.24729054481324453
First 0.024928819142140023
Force 0.03502999670026559
Human 0.09299855532718057
India 0.019155681056103997
La@@ 0.04743099610297584
Miles 0.22691909472093238
Rh@@ 0.11366943527148639
Scottish 0.059724514014791945
Sky 0.13555724858715087
Tim@@ 0.08261317192714811
VC 0.2531231371773061
ago 0.05431061494829562
article 0.042020798161397116
awa 0.07075869835064923
bur@@ 0.024855465013194338
inus 0.11412604550491512
ister 0.05383983264686833
oni 0.05605078883294214
pes 0.06087430606051009
poly@@ 0.06149514860847164
uli@@ 0.0679861607745921
سز 1
お 1
は@@ 1
000.000 1
1520 0.5278254875656865
1625 0.5379705583357691
1699 0.5714617016367525
465 1
5.0 0.6782501488591954
820 0.99847893322034
975 1
Berry 0.2538082760108049
Blake 0.22790064068962615
Cecil 0.35302641490143216
Cour@@ 0.05990544824851891
Der 0.004247603779578575
Ever@@ 0.13670613474277168
Herman 0.28457007505632376
Hum@@ 0.07414623793574075
Jenn@@ 0.2821975338213116
Jeremy 0.2841811325751213
Mak@@ 0.0540365128848016
Nath@@ 0.26539386763615375
Series 0.04234910858300429
Shi@@ 0.07817805080700933
Star@@ 0.06860832853171475
ages 0.01512523699846963
arab@@ 0.15278170597195656
cre@@ 0.01876070780991818
ind@@ 0.03277744028295159
rie 0.09551237832161319
افز@@ 1
التحت@@ 1
شتر 1
ん@@ 1
中@@ 0.02222414621655979
1560 0.5372559249690696
1712 0.5690350731401358
1722 0.5096173078903359
421 1
639 1
Ball 0.14670033745568994
Glenn 0.260366629396097
Jenkins 0.3742892234214456
asi@@ 0.03588951474529675
meth@@ 0.12540398480405282
minor 0.06223565467172707
ont 0.008376442325211276
uki 0.17836465794480744
اجز@@ 1
حی@@ 1
دفت@@ 1
شروعات 1
■ 1
1.0@@ 0.39556145576321844
1385 1
1585 0.630546541144865
1690 0.4690564255031876
364 0.9696588208794245
377 1
88.@@ 1
910 1
Casey 0.3507063037599966
Edmund 0.21069466884265559
Hen@@ 0.0751735825099082
Ker@@ 0.058081108937124155
MTV 0.1286920998704296
Server 0.3485416844514618
Travis 0.4215549022211053
act@@ 0.0689708307145413
ania 0.06106211352760927
ck 0.05190224265267973
com 0.17755371133349418
cur@@ 0.021566164868756756
gen 0.024307006810871678
hand@@ 0.03841453210419109
op 0.05175931587391758
oy 0.07965755222474029
pha 0.26836046071319586
Ángel 0.2251487247291597
اسباب 1
راست 1
عذاب 1
منقطع 1
ندس 1
″ 0.5389789778816559
1370 0.9802743604452131
1526 0.6421721848048642
1647 0.662780919821191
1654 0.5433217901748191
2,9@@ 0.9766737200028066
341 0.9209302383286438
376 1
379 1
394 1
40,@@ 0.6593228728689263
400,000 0.8329421244532191
504 1
880 0.8642451363080089
Barr@@ 0.08675171232911696
East 0.01807635528063319
Game 0.05754231046638568
HD@@ 0.4205051453939337
Hale 0.4213797805472837
Javier 0.22270798954783153
Jer@@ 0.09644301508245245
Line 0.04339355301128318
MAC 0.5176917406099082
MD 0.19570614838378123
Nu@@ 0.08215171228942061
OR@@ 0.237119090643865
Radio 0.03258929103480181
Roberto 0.15506223026359708
aph@@ 0.09110044377585065
ational 0.03623132371283501
bert 0.04903367796797727
ero 0.022827005313644285
ici@@ 0.04384628815584469
inn@@ 0.03837543912719582
ski 0.03716360785540275
tal@@ 0.03284956316048705
ón 0.016268848784469245
ھ 0.8855319623254476
1724 0.5093696711501531
1725 0.5036712525820668
374 1
378 1
38,@@ 0.4701306028374713
475 0.960316875843051
605 1
Clifford 0.42953907996999807
Cos@@ 0.06783784034894984
Dor@@ 0.041430897350826584
Fernández 0.15287737779873303
Fleming 0.4398739446596555
Hans 0.04414595212580338
Kat@@ 0.03998500160353337
Luke 0.15887098807459757
Newton 0.16772792928734212
Open@@ 0.15639249539343283
Payne 0.4629565822211129
`@@ 0.4724480738799146
ast@@ 0.03218688102773493
che 0.016345217283125414
den@@ 0.020202701508360326
icum 0.2624188865869395
index@@ 0.5048571180955487
kar@@ 0.03741534894184277
kl@@ 0.028061055265781117
mot@@ 0.039558533261487616
self 0.036188719706960595
top 0.015930008527536565
yi 0.08621341067278408
گو@@ 1
井@@ 0.5048974147885363
1348 1
1547 0.6550651380062706
1623 0.5817600849826497
1717 0.49863828177182296
1732 0.511743740428357
1736 0.5059007855933201
40.000 0.7316639556375325
447 1
AMC 0.6564368585339773
B2 0.7106810741167554
Brig@@ 0.09378931958858928
Ep@@ 0.09294810365525649
GPS 0.4184634363996673
Jackie 0.32476707774452296
Jane 0.09365762056493705
Kam@@ 0.05361818881099124
Reichs@@ 0.07364380404956881
Stan 0.2887699346363916
What 0.08579071620826371
Wisconsin 0.07296586503259238
ace 0.03600544671141111
ack@@ 0.038158824588995464
ars 0.021692264487824683
bal@@ 0.02556491175447266
book 0.015407218072627139
esp@@ 0.038224780123509425
essman 0.5067390127991931
iki 0.04691641674916575
men@@ 0.022463654504491264
ops 0.049830537803177706
ung@@ 0.023024455976827344
½ 0.2729247969640439
عور@@ 1
يزيا 1
よ@@ 1
1431 1
1540 0.48570699683716534
1704 0.5244028703298047
3,7@@ 1
372 1
387 1
416 1
461 1
58.@@ 0.8697109119655477
Anti@@ 0.06554620994681169
Bet@@ 0.08402103498195292
Bruno 0.14241200991343078
Championship 0.022166351943813497
Costa 0.07676906344291545
Dow@@ 0.10773371264543061
Drew 0.3391822708336939
General 0.01386633343904652
Jon 0.1582974450497505
Kal@@ 0.03500174404890525
May@@ 0.055915857012714114
Of 0.05478587522626991
Public 0.042822779988751704
Ra@@ 0.06064966945860095
Schmidt 0.15974624291173756
Sec@@ 0.06788833531493656
Syn@@ 0.08810125850596362
T.@@ 0.20045970934406088
Tucker 0.37715627378074995
anda 0.057681735660331176
ants 0.010607615773253021
az 0.04174885853056328
cat@@ 0.029480431985927237
log@@ 0.03943947350054811
men 0.008424836378984252
mor@@ 0.024594000413767143
oni@@ 0.039173302214027
ted 0.007236900268677043
which 0.0016618855415528528
wiki@@ 1
§ 0.17223537789247448
ú@@ 0.048721705360065044
آصف 1
طوفان 1
متعارف 1
مقصد 1
نذر 1
1380 0.9466058086422282
1402 1
1415 0.9885488497700586
1598 0.5469595652174183
202@@ 1
3,9@@ 1
626 1
Ban@@ 0.037937950361456814
Cruz 0.08035744905900148
Don@@ 0.04609466293790732
Eur@@ 0.07242018165074264
Floyd 0.27239701777079445
Good 0.09593629018022427
Holland 0.15687533845963758
Logan 0.2748960171972185
Michel 0.062148160185078745
PM 0.18227667945111875
Sherman 0.2911978996130566
Webb 0.32543248607233544
agan 0.1313636434179775
ality 0.036726911954585106
dec@@ 0.021181343684532093
ender 0.03384088648967322
fa@@ 0.03500605893712839
ken 0.015174787473151154
org 0.28062758506176116
sal@@ 0.024908462312580676
son@@ 0.031212057608118682
tus 0.08641192802668689
ug@@ 0.031338501316703196
xx 0.4634008718556363
ū@@ 0.07069697053619933
اسود 1
باؤ@@ 1
تخت 1
تعارف 1
حضر@@ 1
1530 0.4980159941150452
1618 0.49078559902654606
1664 0.5682335593124915
1665 0.5551787416311845
1711 0.5146284282796385
344 0.9246388786024448
348 0.9641608532665772
382 1
Bat@@ 0.04286687176100641
DB 0.2076994965499969
E.@@ 0.1073476123520647
Ear@@ 0.10471951464632698
Harper 0.2504182861322143
Ja@@ 0.17430666494972313
Lindsay 0.3850498191965124
Lor@@ 0.054110283068155914
On@@ 0.07069671362906722
PW 0.737008329496018
Team 0.026900912877985433
Vernon 0.3066793305135471
Wilhelm 0.04338811253531442
abe 0.06980063100459337
acter 0.42321428540992084
ani@@ 0.05124931302881373
ges@@ 0.020732334696635952
gi 0.10571283465548963
je 0.027052562563417492
ocar@@ 0.2548956454130476
red 0.016382272208328837
tig@@ 0.032519463417207795
ture 0.03224612273856192
ui 0.09009778007320311
Δ@@ 0.14257955274909528
ג@@ 1
آرام 1
آزاد 1
اتر@@ 1
خدا 1
سز@@ 1
فرش@@ 1
فرم@@ 1
1608 0.6349872003547288
1655 0.5722397666424395
1667 0.5193465453635746
1685 0.4769040888678215
358 0.9809691926946897
396 1
616 1
632 1
661 1
830 0.9414065921173113
African 0.028731646870912335
Book 0.06403848353761483
Christ@@ 0.08134267712417756
Film 0.016672563106487393
Josh 0.22208107609658645
Kas@@ 0.046459919191388234
Pen@@ 0.044539741299032126
Romero 0.32826807485352516
Sig@@ 0.05999903868541062
Tre@@ 0.03827187956115893
ats 0.01705667575000987
director 0.018380497186481128
ery 0.04240403674286597
form 0.012085057443881818
iner 0.08505744582820805
nd@@ 0.06929025276873164
ser 0.011139038479184474
world 0.013260338355533367
ze@@ 0.032074195041035654
انور 1
متنازع 1
کو@@ 0.5349478506903839
1433 1
1513 0.8464261017815604
1621 0.5194236924300579
352 0.8565941092967052
391 1
428 1
612 1
840 0.8613365414520006
860 0.9536274970955598
Cel@@ 0.07120125421113133
Cup 0.013630504349341455
Donnell 0.33530575247052435
Field 0.06302064632440987
GO@@ 0.21798290666195544
German 0.014814029456882736
Gill 0.2545411176192428
Hart@@ 0.1511509509622664
ID@@ 0.35155149132863084
Ivan 0.1420883479838029
Jake 0.25780039206581784
Myers 0.4291562878309961
Ras@@ 0.10362234655785915
Republic 0.03174689504910499
The@@ 0.04104370978450899
Wade 0.34954098443377757
Wales 0.0385894219657461
ew@@ 0.04398604948288185
fi@@ 0.020432632632113444
jpg 1
ough@@ 0.06187805978633263
ova 0.057929758833782694
pan@@ 0.029990132905027257
tha 0.08980582653148533
title 0.01676010389278993
war@@ 0.015175121600823932
ائج 1
اباد 1
خانم 1
ساز@@ 1
فتوحات 1
گ 1
ⴰ@@ 1
1080 1
1638 0.5486597766007444
1666 0.534187566072835
1674 0.6050530726967525
1681 0.5986738116266005
1697 0.5260188363935154
432 0.9784410065029352
479 1
503 1
614 1
9,000 0.6730284675253276
Bishop 0.06470023371046217
Brenn@@ 0.17637939135417188
Forbes 0.22631941125301033
Griffin 0.31187614232823774
June 0.00892483962217081
Med@@ 0.0736504066074243
Moreno 0.2664341737657515
O4 1
TH@@ 0.2273425981853624
We 0.04555823797318948
Your 0.09098130902470966
apo@@ 0.03236105542583783
congr@@ 0.18159369212685308
ech 0.07498553662155703
ez 0.034682982975980145
gol@@ 0.06321247985444818
judge 0.09348398125102683
oz@@ 0.04926833821639482
sky 0.04099808601341821
su 0.0021971066105075754
true 0.06980806677494442
í@@ 0.015160374666100452
ī@@ 0.09643443575952237
الی@@ 1
جوزف 1
ری 0.5790442043363797
سنس 1
.jpg 1
1604 0.5551619040015954
1656 0.5376670928116438
1695 0.5729944100815841
1738 0.4873980396050326
200.000 0.6890711205881466
444 1
486 1
Abraham 0.12888447886453
Apple 0.100240064440829
Bot@@ 0.05561783905997635
DH@@ 0.5033635915574968
Gall@@ 0.13815434618913833
H.@@ 0.14243975908437878
Julian 0.18517056497178516
Kan@@ 0.036939386175904844
League 0.008605551448405198
Men 0.047608753107216024
PCR 0.6951013077834544
PH@@ 0.5171822840841962
Rad@@ 0.04123771632464458
Sat@@ 0.0687234199164822
Sin@@ 0.05374532324419839
` 1
ae@@ 0.13933003030903357
air@@ 0.02270709385524118
ares 0.040220314552991424
cell 0.0625601534646411
com. 0.5385045037670079
eri@@ 0.07690002693326126
ial 0.04874121856529598
ico 0.023831738848941214
ische 0.0078051644566246355
news 0.05157392126401174
sa@@ 0.030677651429643786
sor@@ 0.02889094780762012
tion@@ 0.03841094118626806
ø@@ 0.05994519934338125
فاتح@@ 1
معاون 1
0000@@ 1
0s 0.03580254312226439
1572 0.5514893983135253
2024 0.47967354645272553
339 0.8969721644398319
427 1
539 1
555 0.9483299940212949
740 0.8675007947096899
BE 0.1841758251596561
BT@@ 0.2714124864007799
Be 0.11404332765179981
Chry@@ 0.4238350198963839
Core 0.35287900553380586
EX@@ 0.4181575028404905
Eduardo 0.15606154306576228
Family 0.0521694520610134
GC 0.22150852595060322
GmbH 0.08863544830505429
HO@@ 0.3173852604970141
Ing@@ 0.06067027067359396
Jensen 0.42508837452424003
Peg@@ 0.19502203648990785
Potter 0.25422142893372324
Sab@@ 0.05267951728337922
UTC 0.18386753729263586
Wagner 0.14633147752411033
amb@@ 0.03184634144542516
bri@@ 0.05337230661535886
coach 0.02609817339300018
function 0.05323541012254746
gl@@ 0.028856852418477203
hin@@ 0.040961220811279356
less 0.015144288915037976
ori 0.051680636250464755
tery 0.09041743544288888
ä@@ 0.014363531432842188
آسام 1
اسحاق 1
بلقان 1
شاخ 1
مباش@@ 1
と 1
む@@ 1
1399 1
1659 0.5482119332518725
1676 0.525814509869734
1708 0.4711406282053087
1728 0.49049927758201345
3,6@@ 1
418 1
585 1
770 0.9604095957319178
CW 0.33726128965702906
Clayton 0.37397885571438744
DT@@ 0.3455483044454374
Garrett 0.43894933637673234
HBO 0.28948507633872567
Home 0.05353492978753011
IF 0.19541837003818227
Ireland 0.03076645896063396
Marsh 0.3336700814801255
Multi@@ 0.14299969018183226
SY@@ 0.6185837365064445
Sem@@ 0.05332993273869333
Sergio 0.24386486805999824
Yam@@ 0.11247964354922005
ands 0.033697745277588884
del@@ 0.024250890648757212
first 0.002097824415017186
ich 0.02281085115304666
key 0.03148449756447026
ocy@@ 0.16633929573252657
ost 0.05282254976181988
ota 0.04075172548601151
ow 0.028511406690830264
pH 0.3126545567321839
rec@@ 0.013473853589288274
try 0.035726220547723626
very 0.013313365754936255
via 0.0219538178909683
ˈ@@ 0.7530619745283835
الغذ@@ 1
شنز 1
عروج 1
قاصر 1
村@@ 0.2546964841406736
1050 0.8575264973577243
1240 0.8342840711070145
1525 0.508649074219982
1652 0.5383594364186693
1716 0.49583953650787266
522 1
618 1
715 1
BM 0.31937801670524707
Banks 0.2342018122500577
Barton 0.3743789255257783
Bern@@ 0.0815773031968398
Bon@@ 0.04838048104471217
Che@@ 0.08719576352116439
Cro@@ 0.04312910149714597
Digital 0.10686080910787268
Fac@@ 0.08055757252015981
Fuller 0.4001850422383241
Geoffrey 0.3129965839471787
Gir@@ 0.06910087900540851
Gutiérrez 0.37353396458566057
Gómez 0.20177183181640043
Hod@@ 0.2445380064950602
Intel 0.25988076021375484
Mart@@ 0.11214786221054154
Maur@@ 0.09527833704873194
NF 0.6148207367994409
Nat@@ 0.09371378226374205
PL 0.3179729455174254
Quinn 0.32731463685725626
Ramos 0.3621271718824422
SP 0.20417443573890715
Texas 0.024856733196884803
Wang 0.13116721836522036
Williamson 0.4017053737622349
aud 0.046182106421242805
ello 0.030592472126618916
enn@@ 0.024877635132283915
iti@@ 0.023316414572784806
itz 0.030878522238330496
mes 0.02619330920051474
plex 0.247909004109778
vis 0.10855415849457989
جاوا 1
قائل 1
نی@@ 0.5027816829706694
う 1
1368 0.9705366676399015
1515 0.6777178732198078
1541 0.6550644603564184
1627 0.5226346235289561
1669 0.5784297260561918
457 1
641 1
Barker 0.3873436342504194
Canada 0.015474725976051758
Di 0.1697626854429956
François 0.042753254267386395
Israel 0.03762819027084607
Kir@@ 0.05322308169892776
Meyer 0.1682221204521414
Mit@@ 0.03718520288160324
Morales 0.3126962755011474
Out@@ 0.0751398621472167
Pin@@ 0.054311828600732436
Pot@@ 0.06096859142640506
Pratt 0.3389706740211785
SAT 0.5439281694488668
Tro@@ 0.04163588224235599
Var@@ 0.05853161506637245
Way 0.1012529120746476
borne 0.11672487963532896
cel@@ 0.03377920118855188
phy@@ 0.0857776365411413
ster@@ 0.030949282534554656
u.@@ 0.7946955312862811
were 0.0013599057897800229
غائب 1
け@@ 1
ろ@@ 1
1349 1
1360 0.9004153984262644
1613 0.5643026745983958
1687 0.5525498501644542
419 1
44,@@ 0.5441441100380155
527 1
642 1
711 1
Archib@@ 0.4462597681773028
Berg@@ 0.03740087545819096
Brow@@ 0.18795563012510783
Cad@@ 0.0984468103833155
England 0.014304451343315533
HIV 0.21688812599829857
Hil@@ 0.048801151898874406
Int@@ 0.11951455601729531
João 0.3172144008622477
Ku@@ 0.05733126997896463
LT@@ 0.39555416421820844
Land@@ 0.017178980723159078
ML 0.2705663516284147
Muñoz 0.42417841418626095
River 0.012664806646145131
Shane 0.3063304439102597
Thi@@ 0.07863464649509522
cho@@ 0.05153899831068675
eme 0.08100311881598227
iy@@ 0.044857883205315155
journalist 0.08477658269625003
mac@@ 0.06884194222487962
ny 0.04548683252901765
service 0.010662562310567617
ulus 0.15690012141981294
water 0.012657060692119438
® 1
المباش@@ 1
شدت 1
٠ 1
《 0.00913578302797029
本@@ 0.04661483688641734
1290 0.8963855570878972
1503 0.7900076559794619
1524 0.6417954495305066
1559 0.5598730824565262
1606 0.5689839534595406
1709 0.47310087986135607
438 1
604 1
627 1
California 0.016114424599192302
Central 0.018887627253240464
Dudley 0.349316338272671
GE@@ 0.40869496362064345
Gol@@ 0.05028015393412228
Head 0.07692547741535795
IW@@ 0.4036346472466078
Pap@@ 0.04233563303410075
amine 0.20403525971304698
ays 0.02545695947438837
bel@@ 0.019490343308548274
dat@@ 0.04862364022703059
ear@@ 0.04557917653968858
ges 0.024601325559036994
hr@@ 0.043276850985857276
iah 0.343407095470066
mas@@ 0.021832615179469914
nor@@ 0.03129295278982439
tis@@ 0.03338063869255443
ual 0.038080571882938515
ías 0.045181939194064165
ør@@ 0.17708874424246832
ט@@ 1
صارف 1
1070 1
1346 1
1389 1
1612 0.5229920283498511
1645 0.46922335725747455
1658 0.5228424952466775
1661 0.44211023744818184
1684 0.5339619312220911
408 0.859795451982723
467 1
518 1
638 1
AE 0.1950585746013534
Ach@@ 0.05926725057529522
Ann@@ 0.050041959575246535
Dan@@ 0.0557583522436871
EF@@ 0.31797854695700706
Gard@@ 0.23045263101767544
Harr@@ 0.1732132952773239
Hopkins 0.21877192859211056
I. 0.02924921827581742
IV@@ 0.24854116576625956
Mack 0.4144073788620459
Mari@@ 0.04060970827658628
O. 0.13523288628241933
Randall 0.4646332583531604
SPD 0.11328002150358808
Simmons 0.39251063437740236
Stu@@ 0.060975384784574364
WO@@ 0.4362044194629479
XML 0.5240161315670803
aci@@ 0.036403193660049266
ault 0.04848429171730747
hal@@ 0.022777161416038746
ker@@ 0.04375508367796395
ond@@ 0.03475282699288757
phosph@@ 0.1144462731722614
pol@@ 0.02268650093925618
super@@ 0.021666797848992926
sus 0.006203737652007805
ua 0.04065756230175472
vin@@ 0.03973306835597843
اوه@@ 1
دانت 1
ذائ@@ 1
مائع 1
مقامات 1
نل 1
1395 1
30.000 0.48568390483502716
406 0.6740250814368922
575 1
581 1
628 1
AO 0.26840394731003203
Battle 0.03488639999007753
Chase 0.2023984663804832
Dem@@ 0.03944375798911547
Dol@@ 0.05007812501261745
FL 0.0914563440014755
Haw@@ 0.07826723634714103
Kerr 0.41537166234887
Klein 0.16445411763449036
Kon@@ 0.0216777294291299
L.@@ 0.11648370297552538
Marco 0.12580385654176365
Marvin 0.4277400493170746
Medical 0.06525397093051648
NA@@ 0.3764782677706166
Nak@@ 0.10303991756830216
Not@@ 0.04184107212883482
Out 0.07380702677136046
Ronnie 0.37621742229997945
S1 0.5981434298364842
Sel@@ 0.03802350097024337
Sidney 0.2601981961355921
Solomon 0.2072814954976181
Video 0.0788399816481873
WW@@ 0.23394351935785976
aba 0.011377059087030345
acet@@ 0.19142782803249028
asc@@ 0.04589843965779206
ca@@ 0.07983395043858538
eda 0.08492717080315004
ff 0.03636412744350682
ho 0.09748731675713393
ny@@ 0.059389756598624104
pel@@ 0.028706103443738935
ross 0.15313956302772624
stein 0.024791670537138124
sul@@ 0.06491695277102026
theory 0.04448696966217098
thr@@ 0.05665222757160478
unders 0.11664760593030297
wal@@ 0.03403362691162516
you@@ 0.3936312339015987
ð@@ 0.1439788419546211
ائيو 1
احسن 1
اوقات 1
خالص 1
دی 0.2487320975724607
فارد 1
み 1
川@@ 0.23462078147452217
1204 0.8152256114586534
1280 0.8207662818992657
1607 0.5438412417887408
1651 0.5098156940266998
1694 0.5522806876044851
177@@ 1
423 0.9794891516878598
455 0.8866469610188817
481 1
50.000 0.47673251104328607
565 0.9513130165932806
636 1
656 1
AX 0.3553976080110735
Ali@@ 0.06534930267388314
And 0.06402686941650414
Control 0.12066840082486678
Elizabeth 0.04566865152359031
F2 0.7154795940268196
FR 0.44589837626414225
Friedrich 0.030288669751925842
Garcia 0.21926058184522093
Hawkins 0.36789096222731077
Holt 0.3878860464639967
Howe 0.346026672079807
Hudson 0.11752541728415875
Jesús 0.13637433971312596
Kh@@ 0.02589539253267274
Kirk 0.29105896664962994
Laur@@ 0.06666708718301234
Laura 0.12685970116108833
Martín 0.11552074357496193
Meg@@ 0.08025877760290694
NS 0.13794081473196973
Pierce 0.3049059421693868
Wolf 0.1071514611436094
aff@@ 0.0286973554949867
down 0.012678786921790334
ev 0.04611580708076273
state 0.008077619012936358
uz@@ 0.03990841379600425
wing 0.02617406409487519
É@@ 0.021410611866489408
ão 0.0803571868941839
ç@@ 0.032918131304178755
رانا 1
ٰ 1
藤@@ 0.4131913909530557
1330 0.8033215113920364
1637 0.5087523586927467
1675 0.4692480724799507
458 0.9831740442623925
499 1
725 1
801 0.9868228623891783
920 0.9249479790269209
BT 0.2834144321794544
Baldwin 0.25335818987209535
CL 0.25355146397517314
ECW 0.7409765090449048
Eli@@ 0.0971446286359038
Ernst 0.06505303957155521
Fow@@ 0.34035125794657806
Kor@@ 0.030426930039737503
Mand@@ 0.05061858371802096
Mun@@ 0.058425629169100504
Psych@@ 0.1056351112451638
Shannon 0.3337509982060551
Shor@@ 0.33302992800922326
Sou@@ 0.05966385331293615
Technology 0.05805790962046421
ami@@ 0.059886919616615686
anc@@ 0.02499289597431752
ely 0.01327885380473271
eman 0.058692585110672754
ental 0.04194559527235735
have 0.0026392211577934525
lo 0.0055495981076385216
min 0.06841132308167158
nom@@ 0.04609966673817084
oxide 0.17879197167211142
reg@@ 0.01744071653826695
ynn 0.2698938492395088
æ@@ 0.09541731089488072
ée 0.003987225858254697
جمش@@ 1
روشن 1
محدث@@ 1
ە 1
1230 0.7211195806626176
1320 0.8509071119170635
1396 1
1502 0.8368335846207253
1555 0.5507074390471084
1679 0.4977072196826787
1686 0.5076709676888683
388 0.9334769522964558
488 1
541 1
586 1
690 0.8904322836272308
925 1
Alejandro 0.15820596744171375
Bank 0.03192724811585966
Billboard 0.04212522729805122
Bot 1
Ca 0.43577719089814665
Calvin 0.33228148396660273
Enter@@ 0.19950369017061748
Girl 0.09111468239084908
H1 0.53015057982924
HMS 0.1036410108051785
Hand@@ 0.039173571511701956
Heart 0.0930332932009993
Jacques 0.04239590044873442
Joan 0.12369266308020781
Kaz@@ 0.10103414033956627
Kur@@ 0.025940141482929037
MR@@ 0.35738850002344014
Matthews 0.34436108635811136
Newman 0.24269023061041972
Nich@@ 0.11999337734667626
Northern 0.03408324263114848
O.@@ 0.1953196703882675
Pennsylvania 0.04041590657271985
Road 0.01993370437822874
Sul@@ 0.07075827098533094
Three 0.04768429447938959
VO@@ 0.26584533205825756
Wesley 0.33357694887921147
Who 0.09387058620121165
aniel 0.38120835875648357
ava 0.059743288033142834
code 0.04374054621630933
ks@@ 0.04034958519517309
lan 0.06649744828316488
nia 0.0860937929808837
odi@@ 0.0406978609306283
rest 0.03191088728172811
wi@@ 0.05331019629195051
ē@@ 0.269943547945166
بلت@@ 1
1220 0.7701798586840682
1406 1
1428 1
1519 0.6684682530527684
1578 0.5788337508088681
1636 0.4817053670853536
2,500 0.4759799547222821
424 0.9761002633870742
442 0.946378977417735
471 1
533 0.9227278898927614
930 0.8677441044711992
Ahmed 0.14439937743807618
Ashley 0.2735624789036
Buchanan 0.40616584784669085
Castillo 0.17820328454764703
Denis 0.11342856297306926
Hardy 0.2212225706359138
Internet 0.050746481150756514
Jerome 0.34330381844274194
Joyce 0.27397277943242604
N. 0.09791201427060042
Parsons 0.33911091419847317
Rhodes 0.22875104926840345
Rod 0.3705096259892506
T1 0.6841488606051593
TR@@ 0.22419011496996147
af 0.08632333344014459
anner 0.11699997201489931
body 0.019368790814853383
etta 0.062353274303380064
hol@@ 0.020283605499742695
ones 0.014011109120421784
tho@@ 0.059999086705140224
vo 0.04076910114119103
vol@@ 0.01949141688126053
zi 0.05540334540977544
ادوار 1
زِ 1
مفس@@ 1
125@@ 0.9441840552671736
1404 1
1511 0.8035029143388406
1534 0.5943510593715867
1611 0.5079447607707662
1617 0.5388210848979701
1693 0.5149794439732812
1703 0.45555523480360893
414 0.8999653874101876
433 0.986978139029283
435 0.7937199552215148
478 1
492 1
CIA 0.1667681922657513
Fischer 0.14812620597833637
Fo@@ 0.04231082061177378
Georgia 0.04148400006004889
Glen 0.1990396695377611
Gold 0.04758388936122552
Horace 0.35913890721442115
Julius 0.11496549796200148
MBC 0.8619333773146107
October 0.0078087229825909675
Sanders 0.2885425626497912
Sn@@ 0.11504254139713399
Sor@@ 0.0480991853990539
Sph@@ 0.2019271865535415
Tw@@ 0.057320562620188864
Uni@@ 0.04319770450094404
Vent@@ 0.12353058681125914
ace@@ 0.053062138016369755
anna 0.0769905508798481
je@@ 0.033003210119097445
ky 0.030080585540173527
let 0.02706927788543661
ock@@ 0.08330249709988595
osaurus 0.15854606808037433
ren@@ 0.015022721796450879
usa 0.05627918488296013
vi 0.07401679991168086
yo@@ 0.08889592255697996
zi@@ 0.026664174218617095
معاو@@ 1
》 0.008404440322066
1258 1
1410 0.8547102523715836
1719 0.42846943427829404
397 0.9742895867140936
456 1
485 0.8747442438627352
506 1
532 1
624 1
907 0.988468633770183
Berlin 0.014088740934712978
Bio@@ 0.2770776776793385
Blan@@ 0.09745691800525422
Byrne 0.4319024209703369
Cab@@ 0.07135555545783216
Clay 0.2305584242293167
DF@@ 0.25459545213957263
Dam@@ 0.0485464215314169
Development 0.04249505194294565
Fe 0.13467476811988466
G.@@ 0.17106259794266557
Gam@@ 0.09339896782484072
IU@@ 0.488944963683317
Last 0.09406902920704747
Ler@@ 0.15820348465456416
Margaret 0.07660202711460272
Paulo 0.09675811964736479
Perkins 0.355383919641038
SB 0.20993068777213073
Two 0.027441118013616064
Vit@@ 0.07333136265875836
Whitney 0.23965342040528032
arm@@ 0.02735976230612867
asis 0.08417242548492036
aus@@ 0.0064589368952087875
ect@@ 0.05687856928148724
fill 0.1167762760991378
ille 0.023899398320566548
ner@@ 0.02924225027846695
nes 0.03008716591194662
old 0.010953523675064402
ote 0.02868349007936349
pen@@ 0.02579976400764074
pun@@ 0.04626559288074691
rot@@ 0.03507565949511219
string 0.13506219039769435
two 0.0025239618617368554
uch@@ 0.030361894427084746
ware 0.15474568195068616
ā 0.12539719876757638
اصلاح 1
التاس@@ 1
بخت 1
نجف 1
472 1
515 0.9168506421864381
572 1
Abbott 0.36938883193888683
BL 0.17150375404461046
Chambers 0.33154081855846784
Clin@@ 0.13274736259309602
D.@@ 0.12100622742438999
EM 0.1606202247242911
Gom@@ 0.17344628632266593
MHz 0.22446399103651046
Mac 0.114040795844413
NO 0.3820645568433229
Neal 0.31610580241024455
Peters 0.26234608825320127
Point 0.053704728430722166
Queen 0.03412938356776451
R.@@ 0.10760790018613121
Singh 0.0965614619801529
ag 0.05701233220903916
arch@@ 0.02998615757505016
ass 0.03534996213747831
aus 0.002609528630372458
illi@@ 0.06733799725753799
into 0.00329344143403515
isi@@ 0.024072657541149126
lett 0.16592600585619172
mus 0.09982750017465478
ogen@@ 0.06335751150756715
omys 0.5215418508089521
opus 0.16981290860051831
ray 0.09091407317046481
β@@ 0.0751797278003772
انی@@ 1
اُن@@ 1
تامل 1
پي@@ 1
1328 0.9996218807171582
1510 0.6134854640431371
1542 0.5548630642047351
1622 0.4369126943343258
1629 0.4368169263508234
1657 0.5161476771296883
434 1
436 1
446 1
45,@@ 0.4659012908303471
484 1
502 0.8593558350141124
523 1
727 0.8603204029518764
814 1
Adrian 0.2019462699780838
Android 0.17187413162777507
Aqu@@ 0.07307565477605246
Buck 0.315703406215976
Ci@@ 0.05910017797844965
Jennifer 0.1795227534409886
New@@ 0.05148834721785738
Social 0.046202783541862226
Summer 0.029925041691033907
any 0.008904314709819927
ave 0.05831741936175764
band 0.00968422133141218
c.@@ 0.3662916188283878
flora 0.16669283503393725
frey 0.29405155246971115
not@@ 0.02117719637545218
ography 0.04089231709684669
other@@ 0.07519039320094048
pon@@ 0.04197303622212941
scope 0.11133716486757658
sin 0.01665808076572673
team 0.004932352944635885
val 0.07239184634880548
μ@@ 0.07590580483875824
بالخصوص 1
زرو 1
مشرق 1
か 1
り@@ 1
わ@@ 1
109@@ 0.9560672737844067
1337 1
1409 1
1425 0.9891840618823604
1493 0.7895082343415587
1588 0.507875316065174
1615 0.4915568156637385
1626 0.462548040204146
1641 0.44162774021015333
1726 0.44020701739637685
402 0.6093687070972483
439 1
514 1
542 1
685 1
API 0.30411066630701333
Aer@@ 0.07468879211247213
Augustus 0.22334678219868317
Block 0.1511618094780108
Brett 0.30193911297420506
CPU 0.3569146955639875
Card@@ 0.16211862792648443
Chen 0.15980978518002129
Cob@@ 0.10736300216145753
Games 0.027891554507192978
Gau@@ 0.0593571224543978
Hom@@ 0.040240625306731545
IM 0.31836984606567287
Inc 0.19652271470584867
LG@@ 0.19850647276652786
Lang@@ 0.03302120664276386
Ortiz 0.3207955605739877
RE 0.27181684203355716
Ricky 0.337117989952038
Rodney 0.4179828287449964
Roland 0.13372432347505714
Small 0.1567535361857747
Son@@ 0.05998851199705491
agn@@ 0.04912259495100497
composer 0.07366516072757141
eth 0.058537165531931404
ever 0.018608786715727712
gie 0.2565295333111574
ham 0.03508244522115824
original 0.010455359290970046
ough 0.04199068003387593
radi@@ 0.04115264843425579
sia 0.1343681144572414
tra@@ 0.044952039057494814
var 0.11211435593327392
xi@@ 0.05560475695518958
yo 0.05763653053357539
λ 0.14068847557937872
جاتا 0.17798343882844025
معاش 1
معزز 1
05@@ 0.7251035216041085
1215 1
1535 0.52134644359621
43.@@ 1
448 1
534 1
562 1
Andrés 0.16007881416845512
Ant@@ 0.08555468739916898
Boy 0.07899239788258566
Cerat@@ 0.8954965161081171
Chil@@ 0.07262280316210606
Death 0.05206274911115619
Down 0.10277955455589897
Enrique 0.10756005174318925
Fer@@ 0.03801840595514438
GT 0.1289203023798921
J.@@ 0.09740218203525955
Jam@@ 0.08267887517683699
Jiménez 0.32732854809651474
Kin@@ 0.0499813505083051
Lang 0.1939027254137318
Leon@@ 0.08926242307283715
Lisa 0.1288486752524372
Mel 0.36726803686542703
Mill@@ 0.06924181676186271
Ok@@ 0.06957914983111523
Oliveira 0.47786467182004555
Pop@@ 0.06916953518518931
Rivera 0.20850063373807667
Spec@@ 0.11010485175560668
Sto@@ 0.05730777281033148
Sus@@ 0.06477307286872899
Tal@@ 0.03754404963712959
Under@@ 0.10427598631510872
Wall 0.104067648251079
cells 0.05947993750356007
dir@@ 0.06437494617337045
essor 0.07210348517786916
eto@@ 0.5250277924594647
hem@@ 0.07879303024379739
her 0.0020983824248517963
kes 0.0608948604009177
kr@@ 0.030609228369837968
p.@@ 0.4781696419100632
patr@@ 0.03420631147703261
sch 0.029294006068258202
sim@@ 0.04684240305142874
ze 0.01906449149114722
å@@ 0.06558914249155241
سردار 1
فام 1
مقاصد 1
نثر 1
٫ 1
007 0.715171800866647
1170 0.8496609561478704
1327 1
1386 1
1527 0.5772050809344564
1563 0.5519265093188689
1593 0.5622727140310481
1671 0.5169310616915961
1705 0.4255251670600463
473 1
495 0.8954946014757875
552 0.9697208132810623
655 1
666 0.8772991303022931
69.@@ 0.8868341120998129
718 1
751 1
815 1
Bush 0.09479622675292332
Can 0.10719614735100944
Computer 0.11171343986480331
DN@@ 0.3341439512430216
Daily 0.08793583110397621
EL 0.29895233815840244
Emer@@ 0.08047707688056492
Eng@@ 0.05241748394035293
Ern@@ 0.1218794915766993
Fab@@ 0.10464469030613703
GM 0.17024467704695645
ISA 0.37238389368300073
Jaime 0.22594884084827793
Mayer 0.2117192856843606
Name 0.028033908340178503
Pic@@ 0.06355603492592225
Pul@@ 0.07588614313690735
Records 0.019347999773064655
Rel@@ 0.05100954647835125
Review 0.08916384641448041
Schneider 0.17482265919323953
Schwar@@ 0.11299298168177802
Seymour 0.3138624361921853
Spe@@ 0.042162697625120066
TM 0.39799760065590556
aca 0.05508875754563001
ache 0.03657454218970978
aea 0.19343762842928514
ate@@ 0.0843726872864487
chn@@ 0.18932962255565172
date 0.019325126859216963
enia 0.18612715938657776
ert 0.012174418430215495
file 0.10838717543106353
history 0.011936878668231662
ide@@ 0.031849813781008145
ites 0.02111181071791887
mp@@ 0.055362753746493486
ony@@ 0.09029858906729628
static 0.282480796686744
uh@@ 0.07215009445606688
vers 0.010527086949180012
éndez 0.35178509152603826
ö@@ 0.01852073879201812
ֹ@@ 1
نقش@@ 1
野@@ 0.1444918355703774
1,200 0.5146225559391816
1512 0.6326552522555077
1574 0.574280387690987
1595 0.4747755091013443
1635 0.3936300589190663
1691 0.5042870173508212
1692 0.4561158121370469
1723 0.37606798278709136
183@@ 1
407 0.7241762654613306
413 0.848315234839307
464 0.995856038554557
487 1
543 1
549 1
582 1
79.@@ 0.8967584154190864
AH@@ 0.5888497187319687
ARC 0.28979841355829666
Africa 0.023721141997884596
Allison 0.3475548849358075
Angel 0.11496291652887658
Booth 0.36015593628381887
Bull 0.15375816429308062
CH3 1
Deutsche 0.05273909381038525
Gn@@ 0.2022571317172291
Hammond 0.3282196421475942
Hope 0.1227875089277492
Hydro@@ 0.1328864913413395
Kath@@ 0.08525330619867723
Kel@@ 0.058155553477681365
Light 0.06656268354977195
Mam@@ 0.09271267979060974
NC 0.20143513969111498
Nova 0.0956383693562806
Ober@@ 0.013564125145637663
Software 0.10857645218236045
Tu@@ 0.03900547719622973
Ware 0.3230717104979408
Winter 0.0500294418157639
X. 0.19002017340762656
ams 0.029392198560186752
andi 0.1327585768313851
annon 0.13834390161695856
bar 0.01782905418640535
ci 0.017935878171633907
def 1
dwell 0.3821540560769153
entr@@ 0.017859067007019364
house 0.010974582046342878
ih@@ 0.04154200212340436
mis@@ 0.016955482691431295
ologist 0.058340947322641695
ther 0.06835070498550838
ths 0.040483433819122665
ton@@ 0.032681966276855524
watch 0.1102456013024484
worth 0.038558533510102536
í 0.024740028244528478
γ@@ 0.08427634237309352
اجرا 1
الی 1
ٰ@@ 1
ま 1
1001 0.7475709581706697
1279 1
1310 0.8717503386899355
1375 0.9506158550274966
1377 1
1424 1
1495 0.7152755288855358
1565 0.48940688248267195
1568 0.48279904788680245
1614 0.4872768214397422
2800 0.8645378427824071
437 1
468 1
516 1
601 0.6069340208962262
635 1
875 0.7914198984925545
ART 0.38241878065171697
Ale@@ 0.08466902535978163
BL@@ 0.3277266048852462
Back 0.09345101260781065
CG 0.2324207956351982
Carey 0.2282133187844166
Díaz 0.16457445495217388
EN 0.23293314147191319
FIFA 0.07056630965316553
GL@@ 0.40041055280738386
IR 0.30740504866430307
Jr 0.05408893227001222
Kend@@ 0.2680091950352529
Mem@@ 0.0747529362737131
Norton 0.24217656770754317
People 0.03495412636930182
RD 0.3038788501288298
Real 0.03529666211449866
Search 0.33416631680300696
Sky@@ 0.12434968932270722
TF 0.363358421056604
Western 0.019900886766209498
Wor@@ 0.041485368554772424
amin@@ 0.08248715171156314
baller 0.5552602381641981
based 0.007453520841205651
gram@@ 0.23505230326885843
ink 0.057733511693414265
ith@@ 0.0830957327859884
land@@ 0.020104198838755034
las 0.0016306041627321536
len 0.024874016165199242
ots 0.019597978306090474
wor@@ 0.02159617389518179
اصلاحات 1
انصار 1
تورات 1
جوق 1
لاغر@@ 1
じ@@ 1
1,5 0.07933886311214355
1392 0.9887726115286979
1417 1
1440 0.6463887731738107
1564 0.5503722460996625
1569 0.5019437694132071
1592 0.47306852329820814
1599 0.5234318145184871
1628 0.40887424662941446
1633 0.452519357348269
1677 0.518698576787424
1706 0.45093827355494265
634 1
722 1
990 0.7921306796647092
Adap@@ 0.18513139026869152
BR 0.21271082276122105
Benson 0.2989186799352367
Buddy 0.34729173685939013
Cli@@ 0.13628941660770735
Conrad 0.17172370785479835
Earth 0.043033315287082353
Gav@@ 0.15260350127513347
Julie 0.16592538038616353
Ka@@ 0.054739599919571995
Ki@@ 0.04046086492187221
Mickey 0.2519381033279119
Mis@@ 0.04650637353872761
Nam@@ 0.0644126087626708
Nash 0.24983156346677515
Noel 0.29265825784664595
Ontario 0.04369130405598281
Pand@@ 0.15014760301744579
Pictures 0.09666481159195996
Reyes 0.19225565860774407
Sav@@ 0.039768577971560456
TR 0.539351384476563
Te 0.17875663671796518
Tran@@ 0.05958707391660491
UN 0.09475745929421718
Welsh 0.09393464749200608
dom@@ 0.04582997141027176
een 0.06640619865898711
eller 0.03226523683137572
emia 0.14427308300310052
ern@@ 0.019481427368062153
eti@@ 0.03830436199750492
illon 0.07175331647295649
inal 0.03987095820524278
leg@@ 0.02715528729901023
lie 0.03294378012325515
list 0.0185734544645254
o.@@ 0.4106994167394459
oid 0.0817654952409783
opo@@ 0.0769398307871324
ston 0.05859882835668695
til@@ 0.027879239280754073
vie 0.022636219478864794
á 0.018103524866006818
ér@@ 0.017013563275080426
č@@ 0.03188450876382506
ای 1
راسخ 1
نصرت 1
وفاد@@ 1
پي 1
ン@@ 1
木@@ 0.0884232237122751
1314 1
1397 1
1480 0.5302678537807648
1514 0.6843989378639019
1536 0.430687152960517
1634 0.3931366629199375
1682 0.43706390633212955
409 0.8111439611686146
498 1
5,0@@ 1
524 1
Berg 0.08144324895989621
Child 0.13496607448444423
Da 0.03106577699743969
Darren 0.3745166790073178
Dwight 0.3285448002185299
Erik 0.1754252068963442
Food 0.12162860827379943
Hur@@ 0.05603930676709852
Irving 0.26343732538972087
Jacob@@ 0.22355543156154437
Ju@@ 0.03822862298460275
Nature 0.11800618728879496
Pereira 0.3688736480434901
Rev@@ 0.044087763959153356
Rex 0.2732462453868201
Strong 0.2942665347941016
Susan 0.12387871044686044
Test 0.08042793748800993
Theodore 0.19073249854582888
ben@@ 0.02381527709612046
by@@ 0.0693639536127355
cos@@ 0.049496049991947275
dem@@ 0.015444408961459129
general 0.009664455639755876
include 0.009858210303392491
ix@@ 0.11593477909892257
len@@ 0.025398038411652495
mes@@ 0.04676164824071381
national 0.008423220836737796
off@@ 0.019564590024990048
olen 0.11897114470759636
olog@@ 0.051508572220107275
page 0.05445475622816526
side 0.008274166842420768
source 0.02711391428746299
ven@@ 0.01881699038196784
ward 0.026251229140354174
ó 0.0038310077444115073
δ@@ 0.08228859725277982
آف@@ 1
پرو@@ 1
ず@@ 1
小@@ 0.029286033956151244
1427 1
1504 0.6928919393235069
1506 0.7379420377464446
1533 0.6164063146999769
1537 0.5792022547017985
1601 0.4669706334637517
176@@ 1
452 0.9189876065936421
493 1
526 1
595 1
667 0.9514814502010345
704 1
890 0.943856130502296
976 1
AW@@ 0.23095809758986527
Bak@@ 0.04891591124631756
Beck 0.1890545718367674
CV 0.20714901781410888
Chad 0.2547064852787906
Dro@@ 0.05777115765582873
Dy@@ 0.11150611968652935
Fire 0.06968961101274176
Gold@@ 0.052126005620759766
Honor 0.13272890495091125
I.@@ 0.11430009707418778
LM 0.2572279024781183
MBA 0.3735765067710014
Magazine 0.060954520230857526
Mohammad 0.2110294766915519
Moses 0.18946931245149823
Obj@@ 0.12515449705165763
Phone 0.5332884270429908
Song 0.038252870269272064
Sports 0.03965615577167246
Sutton 0.28143157688191844
UV 0.29990639929446583
V8 0.23329310819783028
Weber 0.15431398066714413
Yas@@ 0.17115352839230083
about 0.004410624180776596
ais 0.025356131452897987
alb@@ 0.033754316551030505
eon 0.1103406828557565
eves 0.118963265143199
fol@@ 0.04095012825176361
ived 0.07315250469367948
ku@@ 0.04190302886943812
lier 0.043586948297178456
prot@@ 0.022910090118474356
than 0.004629691212596614
uchi 0.16227778934320025
virus 0.07928041632600195
ín 0.029201829352840974
ո@@ 1
بم 1
بولر 1
پر@@ 0.44785271874492866
‚ 0.11899916939213011
た 1
002 0.8019170965373568
1470 0.5826196611738592
1505 0.6521488314566578
1698 0.440020243243711
463 1
602 0.8293159306690497
615 0.910317313875977
681 1
768 1
A3 0.5579400766975479
AV 0.18732195698384863
Bay 0.022945726794467724
Bay@@ 0.040037245375539154
Das 0.004181996907712276
Dom@@ 0.030832241695126376
Emma 0.1192037485024121
Fili@@ 0.06280846026861991
Hippo@@ 0.6647329709979024
Impact 0.15837274200278914
Jefferson 0.11072308820681573
Kurt 0.09716121249282121
Lem@@ 0.07327251201539417
Lev@@ 0.04879126246786369
Lun@@ 0.1313055188416369
MB@@ 0.33144403105597964
MD@@ 0.3566240115956893
NY@@ 0.1451897753444818
Now 0.07765803710289886
Party 0.013406436103337067
Sing@@ 0.0793505329059459
Stor@@ 0.08834693283907809
Story 0.08997098996710937
Sz@@ 0.07355714374713165
Tem@@ 0.07104475332137493
Year 0.0314824937212455
acc@@ 0.019165374692619048
aton 0.11398951372242393
computer 0.04845681357750741
core 0.052972002053593745
dan 0.02858487125950499
esh 0.07797919232472629
ester 0.05023422744760561
lav@@ 0.06907874601818428
light 0.017252455073149837
max 0.22266282290182068
pil@@ 0.03185343318998277
proc@@ 0.05738659010876653
ques 0.012306588509358108
rh@@ 0.10945656806014736
sier 0.13430217500713354
tam@@ 0.05663257763827267
tiv@@ 0.041009001818749204
view 0.025702235021137
web.archive.org 1
wo@@ 0.029712555155637695
یا 0.1066847565479398
ܐ 1
1418 1
1528 0.5459663210237911
1653 0.4342426551740679
462 0.9450426755620703
469 1
496 0.9484884075694816
521 0.96768647708812
757 0.8322030862425118
940 0.7713809873177582
Aur@@ 0.07275419227422629
Aus@@ 0.009187151404962414
Australia 0.012663532613035452
Cass@@ 0.08310614324117618
Fitz@@ 0.1488623142402662
Free 0.058204981676299325
Hi@@ 0.059165129677274324
Higgins 0.2523079275591332
Il 0.002536861769500945
Jas@@ 0.12885005609582062
Julia 0.11135576567899348
L2 0.6177728854219051
Mass@@ 0.05732858698849763
Moh@@ 0.06869047615804022
Old 0.029993571733338133
Online 0.11207682093093183
PM@@ 0.5290814380920869
Post 0.03573713251573956
Roman 0.019701326468046555
Standard 0.07736548551547295
Sydney 0.03641618762001101
Tracy 0.25736642031616763
Walton 0.32738578622243913
ader 0.04358475533723656
att@@ 0.015170855725588746
chr@@ 0.09385045309506818
da@@ 0.06475710123285218
eira 0.1288331643737315
führer 0.08797237291583779
ham@@ 0.05492755366023335
jav@@ 0.22121037442376548
macro@@ 0.2160816573972788
mod@@ 0.031414486393339
ple 0.06491680049752224
sing 0.026819862940704153
sive 0.023647733660730436
table 0.02889088129805127
their 0.0018263626809832834
tin@@ 0.04784514984629133
ulation 0.038307618080799605
yon 0.0897169358170232
ís 0.12944028099788404
ς 0.10394836344665362
الساد@@ 1
بالآخر 1
دوش 1
ک 0.3056837768917335
1180 0.6417797273421837
1241 0.8865681979639689
1270 0.6772682449158596
1429 0.9838549740812409
1483 0.7421975820113118
1523 0.5787075381010666
1602 0.46280654777386687
1673 0.45594406881141825
1A 0.32805021600094264
443 0.9259566058684225
535 0.7340251113679999
544 1
589 1
629 1
651 1
708 1
775 0.9852980649830864
Act 0.020416901633888356
Andre 0.29074100246188217
CH3@@ 1
Castro 0.11585206227208329
Cop@@ 0.05096230508383187
César 0.12080423790871365
EG 0.2330708004148899
ET@@ 0.16338983946610838
Flores 0.20202884326073092
Grace 0.11145467569360189
Griff@@ 0.21875492860583903
Hyper@@ 0.1860316294564589
If 0.029139002338892706
Language 0.12075913365062704
Log@@ 0.07115140670022238
MA@@ 0.41592192560226204
Moon 0.08288121891675615
NR@@ 0.10753890462342336
Oc@@ 0.05360968942959897
Produc@@ 0.07926205355067024
Short 0.13434298032314038
Space 0.057853501274935194
Studies 0.05952636789939602
Troy 0.22798393770742204
UK@@ 0.3004850578055569
Universal 0.07851591186946014
Weiss 0.2829870297140249
anne 0.07940836531067084
aves 0.036453219248473626
eau 0.01619412249573036
number 0.005956676852834409
osaur@@ 0.16680731872602944
print 0.07108943064567282
server 0.1162886576995152
tional 0.02405873905553867
top@@ 0.04410898449310584
umi 0.09832789206351725
wh@@ 0.02231280597161066
xy 0.1655613079654399
Álvarez 0.2222456099036748
Ö@@ 0.04057416669738646
الوظ@@ 1
محترم 1
وسطن 1
▪ 1
1259 1
1347 0.9130204511019671
545 0.9395900925672777
587 1
609 1
645 0.9327785218897178
717 0.9947771866264451
914 1
Alice 0.06923676702704798
Alonso 0.16667773436911065
Andersen 0.3686124385045013
App@@ 0.060122180527556704
Arts 0.020448885961702596
Beh@@ 0.05585442228869966
China 0.01293185869676157
Dana 0.2709731281607083
FX 0.3597220571376913
Ferr@@ 0.07634309915166153
Fi 0.24521387812335793
GI 0.2558994033277361
Hello 0.31688068734808944
Lac@@ 0.07082899877830265
Liv@@ 0.0802668420154819
Los 0.0056472408841594535
Lou 0.20981670843100672
MI 0.17054222831915117
Marion 0.16099387639465837
Mich@@ 0.0581319732110426
Mod@@ 0.05369437378111
Och@@ 0.20277889349857153
Rich@@ 0.059964518928972296
SF 0.20111840003977166
Wa@@ 0.054161257911796164
Zo@@ 0.08109667832500585
alm@@ 0.030667763897335023
alt@@ 0.02260732734361705
bi 0.05069561772962365
cus 0.07618185842439706
ering 0.03303749970991106
ig 0.032985923256161453
itor 0.05819751094859732
ix 0.054463398927913395
line@@ 0.06950135120411467
main 0.009349799028338494
ust 0.03447495820691509
δ 0.5639261528949284
σ@@ 0.05680845002210708
احمد@@ 1
افتخار 1
سپ@@ 1
شوستس 1
فرائض 1
قربان 1
ماح@@ 1
مشائخ 1
0,0@@ 0.33867144756664747
1.5@@ 0.5896591440515905
1371 0.9184781356503078
1497 0.7424117833229605
1539 0.5056924669359593
1619 0.4122072206503464
2.000 0.25789656741322253
483 1
551 0.8974561173572883
622 1
985 0.9814050113799827
Age 0.07423016783711038
Bond 0.1385546799215849
Bus@@ 0.03808304926738689
Byron 0.2870805846575273
Carolina 0.028318805077029028
County 0.0062496420804846265
Doyle 0.2843463924831055
Eg@@ 0.06681991729685681
Fal@@ 0.04275468785444466
Fried@@ 0.08589869819763013
Hoffman 0.33967191411834136
Joshua 0.1974790876288544
Jud@@ 0.06085829964784713
Julio 0.13641551686062223
KO 0.16499159311753603
Kit@@ 0.05399966649107038
Manning 0.3031920413577698
Nur@@ 0.08707664505981057
Over@@ 0.043705602148427454
Owens 0.32707212948931197
Pet@@ 0.06728703055367088
Pter@@ 0.23065904331005044
Ruiz 0.20294276835128797
Sims 0.3933423376786451
Stevenson 0.29875290364328677
Thorn@@ 0.24795376642570377
Ven@@ 0.041317600850091535
WH@@ 0.20268172384327315
aris 0.1226827015494615
ary@@ 0.3529150331258586
bol@@ 0.03817103363060064
clus@@ 0.09069841866527864
ders 0.023366593477464764
dit 0.022895040263544452
[...]
