۔ 1107595
کے 1041225
میں 920589
، 848254
کی 798529
ہے 701535
اور 643981
سے 508657
کا 494247
اس 359274
نے 348009
پر 323107
کو 317508
ایک 312979
ہیں 217337
) 208652
( 204095
. 194646
جو 183122
ان 165511
کیا 164165
یہ 154645
کہ 148914
&quot; 143715
تھا 142926
واقع 136912
بھی 133031
کر 120669
وہ 109584
و 108174
تھے 107392
@-@ 105482
لیے 99619
گیا 95799
یا 83819
بعد 83509
: 81598
جس 73931
ہو 71174
آبادی 70956
بن 67781
ساتھ 67150
تھی 66699
نہیں 65012
مجموعی 61820
افراد 61395
کرنے 61174
; 59939
تک 59668
دیا 59468
اپنے 58719
تفصیلات 58629
مشتمل 57796
&amp; 57439
طور 55996
کاؤنٹی 55743
جاتا 55355
ہوئے 53990
تو 52992
آپ 50912
ہی 49641
پاکستان 49125
ہوا 47374
نام 47150
متحدہ 45813
ک@@ 44871
پ@@ 44028
ی@@ 43789
دی 43307
شہر 43219
اللہ 41382
زیادہ 40394
ضلع 40259
امریکا 40196
انہوں 39922
گئے 39817
اپنی 39748
علاقہ 39104
سطح 38869
وں 38720
نہ 38047
ریاستہائے 37871
شپ 37636
گ@@ 37397
جب 37163
ہ@@ 36803
میٹر 36626
گئی 36613
حاصل 36074
دو 35936
محمد 35871
لیکن 35703
کرتے 35397
مربع 35345
ڈ@@ 34984
ہ 34925
رقبہ 34672
ہوئی 34599
ٹاؤن 34572
س@@ 34473
سی@@ 34155
بہت 33536
بلندی 33427
بی@@ 32916
کیلومیٹر 32807
سب 32649
اسے 32633
می@@ 32586
ن@@ 32281
چ@@ 31702
سال 31687
وقت 31547
و@@ 31511
ب@@ 31323
کہا 31189
ای@@ 30958
ان@@ 30765
پہلے 30462
ہونے 30437
شامل 30262
ہوتا 30216
ری@@ 29976
والے 29948
کچھ 29939
/ 29549
ل@@ 29404
کسی 29392
سی 29248
ٹ@@ 29133
د@@ 29085
ار@@ 29082
ز@@ 28976
ر@@ 28940
رہے 28827
gt 28612
خان 28470
lt 28446
ک 28444
ج@@ 27855
کی@@ 27513
ش@@ 27495
آ@@ 27226
م@@ 27090
وجہ 26895
ٹ 26799
اسی 26788
جن 26690
آباد 26593
طرح 26087
جنگ 25742
‘ 25626
حکومت 25507
رہائشی 25380
ے 25184
پی@@ 25056
علی 25053
لی@@ 24886
کام 24765
لے 23934
طرف 23820
سو 23668
کر@@ 23199
دور 23087
سمندر 23033
کوئی 22640
لی 22610
لا 22606
س 22583
خلاف 22556
نی@@ 22555
را@@ 22444
لیا 22444
کو@@ 22354
شاہ 22323
دے 22217
وی@@ 22150
کم 22148
حضرت 22130
ڈ 22022
استعمال 21898
رو@@ 21723
ف@@ 21720
ا 21610
فلم 21493
’ 21464
لا@@ 21462
انہیں 21455
ا@@ 21418
زبان 21021
تعلیم 20971
بھارت 20887
تی 20806
بر@@ 20768
ی 20533
مطابق 20429
ح@@ 20417
شروع 20374
صوبہ 20363
پیدا 20274
ری 20256
ِ 20227
اب 20118
پر@@ 20106
ہر 20051
ت@@ 20036
ائی 19958
رہا 19934
زندگی 19860
م 19797
نا 19745
یں 19578
والی 19394
پھر 19272
من@@ 19230
اس@@ 19104
ن 19027
تھیں 18860
تمام 18826
دوران 18653
بی 18541
ل 18472
لو@@ 18441
تا 18332
عام 18292
ال@@ 18277
مقام 18220
صرف 18188
ٹی 18135
گا 18086
ملک 17979
کرکٹ 17964
مشہور 17863
لئے 17804
کتاب 17797
یہاں 17747
ہم 17699
کیے 17616
شی@@ 17612
کئی 17493
انی 17459
تین 17455
ہوتی 17331
پیش 17327
خود 17307
جہاں 17283
غیر 17178
بے 17123
اے 17076
کرنا 17033
ہی@@ 17017
کرتا 17000
لوگوں 16959
خ@@ 16948
ور@@ 16926
ڈی@@ 16912
مختلف 16865
اور@@ 16860
اسلام 16815
ش 16755
عبد 16703
موجود 16670
تاریخ 16655
ہو@@ 16564
دار 16506
نی 16403
ڈی 16395
ٹی@@ 16393
حصہ 16385
جاتی 16384
&#124; 16312
امام 16255
مو@@ 16138
دی@@ 16129
ق@@ 16091
دنیا 16065
عمر 16058
بھ@@ 15999
ت 15846
فرانسیسی 15818
او@@ 15743
جائے 15720
ع@@ 15711
ام@@ 15710
ز 15697
ر 15676
قائم 15672
دوسرے 15657
اہم 15653
ین 15652
ور 15599
پہلی 15584
ون 15546
وا@@ 15451
ابن 15442
آف 15367
پور 15324
سینٹ 15319
ہوائی 15294
احمد 15277
دونوں 15222
بات 15207
ریاست 15195
سو@@ 15078
جا 14977
وفات 14927
&#93; 14925
الدین 14827
دریا 14798
- 14766
کھ@@ 14758
جانے 14744
اردو 14655
جنوبی 14650
&#91; 14592
با@@ 14541
جی@@ 14527
نا@@ 14485
علاوہ 14452
وی 14367
پی 14343
تے 14331
یعنی 14316
ھ 14305
بین 14300
ہزار 14291
سر@@ 14226
بڑے 14197
of 14128
؛ 14095
گی@@ 14035
اب@@ 13961
&apos; 13867
بار 13856
رہ 13853
پاس 13789
گی 13757
فوج 13749
دیگر 13745
فہرست 13677
دن 13635
رہی 13587
تھ@@ 13444
علیہ 13438
ہوں 13428
سلطنت 13397
یونیورسٹی 13397
سید 13389
جیسے 13360
اسٹیشن 13346
بڑا 13297
لوگ 13266
سر 13203
بڑی 13198
ہندوستان 13189
ون@@ 13161
ایران 13140
نگ 13081
ط@@ 13014
سن 13010
ہوتے 12981
جبکہ 12979
, 12890
اگر 12884
لینڈ 12871
ابو 12834
فی@@ 12769
خاندان 12767
علم 12727
صدی 12718
د 12703
خواتین 12702
یوں 12697
اڈا 12651
زی@@ 12646
ریلوے 12410
دوسری 12383
قومی 12377
شمالی 12361
اں 12316
نو@@ 12262
انہ 12256
بو@@ 12176
مگر 12173
جاری 12073
صدر 12062
اپنا 12052
چی@@ 12018
تر 12002
مغربی 11996
اک@@ 11995
بیان 11973
بارے 11936
فی 11909
مر@@ 11893
دہ 11869
عدد 11853
پنجاب 11836
عمل 11796
ابتدائی 11773
اری 11738
درمیان 11738
آئی 11719
خاص 11648
بنا 11593
تعلق 11575
کل 11535
ٹیسٹ 11512
ب 11509
جسے 11452
جی 11448
پ 11445
آغاز 11439
ق 11425
کار@@ 11414
فرانس 11407
اد@@ 11401
والا 11386
ار 11362
گ 11354
کرتی 11350
غ@@ 11345
تاہم 11339
والد 11333
گن 11287
نیو 11282
تی@@ 11269
علاقے 11259
جاتے 11216
حسین 11144
نظر 11127
چھ@@ 11006
کار 10982
سن@@ 10967
دھ@@ 10954
کردار 10954
کالج 10935
ٹن 10910
چار 10880
ص@@ 10873
مع@@ 10837
الاقوامی 10827
ائے 10801
2 10785
گھر 10755
تعمیر 10752
امریکی 10745
گاؤں 10646
سیاسی 10633
ٹیم 10629
ما@@ 10623
ج 10578
گے 10573
ھ@@ 10570
ف 10456
عرب 10379
تعداد 10373
ك@@ 10353
– 10328
انگریزی 10302
چین 10297
صاحب 10293
جگہ 10270
نگ@@ 10257
می 10236
ممالک 10217
سکتا 10182
شادی 10178
مسجد 10156
پیدائش 10111
سٹ@@ 10087
کیونکہ 10055
شیخ 10015
مسلم 9997
ٹر 9996
کس 9995
لہ 9983
تر@@ 9957
ئ@@ 9936
مکمل 9927
1 9887
دو@@ 9876
کہتے 9836
اسلامی 9834
فر@@ 9813
“ 9803
قریب 9759
ات 9754
لاہور 9743
گو@@ 9706
ذریعہ 9667
وزیر 9652
حیثیت 9588
کن@@ 9587
گھ@@ 9564
ۃ 9551
یونین 9541
مان@@ 9509
در@@ 9501
قبل 9477
3 9471
عربی 9458
مشرقی 9404
مین 9403
گر@@ 9383
8@@ 9379
سلطان 9367
مولانا 9290
ام 9256
مدد 9233
قدیم 9228
آئے 9215
جو@@ 9152
اتی 9107
الینوائے 9104
رکھا 9092
ایس 9046
مل 9043
قتل 9037
نظام 9026
را 9024
عظیم 9023
انے 9019
ؓ 9011
شائع 8997
فرمایا 8979
حملہ 8960
نو 8924
مش@@ 8899
توں 8898
تو@@ 8877
ول@@ 8856
وہاں 8837
” 8832
ال 8792
مار@@ 8783
بلکہ 8759
علاقوں 8754
واپس 8752
بہ@@ 8740
آیا 8736
ذکر 8720
اختیار 8701
بعض 8664
ختم 8655
7@@ 8650
ما 8650
وری 8648
ي 8603
اش@@ 8583
تحریک 8576
فتح 8568
انا 8562
بنایا 8551
ي@@ 8535
میچ 8529
شخص 8525
فوجی 8516
قرآن 8493
ول 8456
زمین 8443
ائ@@ 8401
ست@@ 8389
ویں 8383
9@@ 8346
دین 8331
دینے 8327
پہلا 8312
اعظم 8291
کوشش 8257
ادا 8247
بار@@ 8245
تقسیم 8229
مزید 8162
4 8157
برطانوی 8150
جان 8149
پاکستانی 8130
ایم 8127
رسول 8114
انھوں 8111
ٹھ@@ 8109
رنز 8083
بد@@ 8077
وا 8060
جانب 8048
وغیرہ 8038
لکھا 8033
آخری 8014
خدمات 8012
20 8008
حسن 7978
مل@@ 7962
اسکول 7947
تیار 7914
کاونٹی 7903
بھائی 7899
5 7895
مارچ 7894
ولی 7893
ترکی 7886
هٔ 7886
پانی 7886
پانچ 7869
مح@@ 7868
كاونٹي 7862
كاؤنٹي 7861
جمہوریہ 7818
من 7812
بولا 7805
یت 7805
ات@@ 7790
ترین 7781
قرار 7779
آج 7776
چند 7752
پو@@ 7728
این 7686
بنیاد 7686
انجام 7662
جھ@@ 7661
ۂ 7656
بہ 7650
ایسے 7639
ذ@@ 7629
روس 7611
بن@@ 7601
ٹا 7596
اپ@@ 7572
کبھی 7552
خیال 7544
کراچی 7542
مسلمانوں 7540
اف@@ 7537
رین 7537
خدا 7532
مس@@ 7506
اج@@ 7501
6@@ 7500
ٹس 7481
ترقی 7468
10 7465
ہر@@ 7465
اگ@@ 7457
موجودہ 7452
ث@@ 7451
مرکزی 7425
شمار 7414
چو@@ 7408
متعلق 7404
ء 7401
عالم 7365
شن 7363
اہل 7361
وس@@ 7348
مہ@@ 7344
دیتے 7336
تم 7334
کونسل 7313
آزاد 7301
6 7282
تحت 7280
مینیسوٹا 7260
سندھ 7254
حدیث 7252
دل 7240
بادشاہ 7234
عالمی 7229
ایسا 7214
آزادی 7210
کرکے 7210
بنیادی 7200
ذیل 7181
اگست 7169
مقامی 7138
قیام 7136
آر@@ 7135
سلسلہ 7120
ٹو@@ 7115
متعدد 7113
گروپ 7104
پارٹی 7096
سرکاری 7093
ادب 7088
انڈیانا 7084
رکھنے 7064
چ 7063
قانون 7036
جن@@ 7035
رکھتے 7028
بل@@ 7027
جنوری 7017
سفر 7003
آخر 7000
سنگھ 6990
حکم 6978
موت 6955
مشی 6953
اصل 6936
ٹر@@ 6934
دان 6928
زیر 6914
مہ 6911
رے 6905
پوری 6904
ہند 6896
ڑ 6894
کل@@ 6894
اکتوبر 6887
قسم 6887
مسلمان 6878
دسمبر 6874
قبضہ 6870
وس 6852
دوبارہ 6826
رات 6817
جون 6795
انتخابات 6774
ابی 6770
مئی 6757
تا@@ 6755
ذریعے 6741
بیٹے 6731
الی 6724
کافی 6723
ہاتھ 6715
فن 6712
قابل 6700
اعلان 6699
کیں 6692
شی 6685
سا 6683
یو@@ 6678
جدید 6669
ستمبر 6661
شمال 6647
رکن 6642
گئیں 6632
قوم 6613
بھارتی 6604
کن 6593
جولائی 6592
چھ 6580
درجہ 6567
صورت 6566
جانا 6560
حق 6556
نومبر 6507
از 6502
دہلی 6500
لاطینی 6497
منتخب 6487
آسٹریلیا 6482
ملا 6477
بہترین 6475
نس 6470
سامنے 6469
انگ@@ 6456
لوں 6447
اسٹ@@ 6437
مذہبی 6437
عوامی 6434
میر 6434
کیریئر 6432
سکتے 6426
لفظ 6424
ِ@@ 6413
ں 6405
اکثر 6404
جرمنی 6398
لندن 6397
آنے 6380
بنانے 6372
نڈ@@ 6361
وال@@ 6318
اسمبلی 6315
یر 6306
7 6297
شکست 6285
لو 6282
ایسی 6279
ڈاکٹر 6275
جنوب 6268
ند@@ 6268
دیں 6250
سین 6248
5@@ 6235
روسی 6228
است@@ 6224
اپریل 6218
12 6202
ع 6198
داری 6195
8 6191
فارسی 6179
انتقال 6170
قی@@ 6168
پھ@@ 6156
کلی@@ 6148
15 6140
برطانیہ 6140
بطور 6136
؟ 6131
کریں 6103
بنائے 6093
ڑ@@ 6092
ٹری@@ 6087
آ 6082
سوویت 6080
کا@@ 6080
فروری 6078
مقرر 6078
تقریباً 6070
جامعہ 6064
ائی@@ 6060
کرے 6058
تحصیل 6043
ئی 6040
وار 6023
جنرل 6020
الم@@ 6019
قبول 6018
جات 5992
کامیاب 5977
از@@ 5975
رائے 5964
نئی 5948
بند 5944
دا@@ 5918
تاریخی 5917
کاری 5914
دہائی 5908
دیکھا 5903
پسند 5902
مد@@ 5901
9 5888
نٹ 5888
عہد 5879
نس@@ 5858
000 5857
ٹاون 5841
ظاہر 5837
بچوں 5835
سل@@ 5827
امیر 5819
زی 5810
شاعری 5808
روایت 5804
شام 5784
ہوئیں 5769
چنانچہ 5764
السلام 5763
ئے 5755
خانہ 5755
حالات 5751
مرکز 5749
سک@@ 5747
شریف 5735
وم@@ 5733
اول 5728
شاعر 5717
فری@@ 5703
مذہب 5703
سٹ 5698
پار@@ 5692
19 5678
آئیووا 5676
ترک 5674
صلی 5672
اندر 5662
اثر 5655
جماعت 5647
شکل 5634
بھر 5627
11 5622
روں 5617
گر 5616
سیاست 5615
غلام 5614
چھوٹا 5606
ح 5603
نتیجے 5599
بنی 5588
عبد@@ 5581
ملی 5579
موقع 5572
مشرق 5565
فیصد 5552
اسرائیل 5551
یل 5544
انداز 5543
فٹ 5542
_ 5534
دا 5526
میری 5526
افغانستان 5522
معلوم 5521
قصبہ 5520
حال 5512
سکے 5502
مت 5502
کری@@ 5501
دس 5500
نئے 5500
او 5499
چکے 5495
کردہ 5492
الگ 5487
شدہ 5487
حصے 5479
اِس 5470
مک@@ 5454
الی@@ 5446
تاکہ 5435
اگرچہ 5432
یہی 5432
ڈا 5422
ٹو 5408
رام 5407
رو 5405
ستان 5403
یو 5397
کلومیٹر 5380
اد 5378
درج 5353
بر 5347
تیں 5345
ڑا 5342
دریائے 5337
انسان 5335
وب@@ 5324
گو 5318
14 5315
جر@@ 5311
لیگ 5310
ض@@ 5296
اُس 5289
فیصلہ 5288
پڑا 5288
داخل 5280
نمبر 5277
انسانی 5276
ہندو 5274
گری@@ 5258
الح@@ 5253
نوں 5251
اوہائیو 5246
پائی 5246
ڈھ@@ 5230
ترجمہ 5227
حد 5221
بری@@ 5215
در 5207
علامت 5195
حقوق 5187
کردیا 5185
آر 5174
کان@@ 5173
سات 5165
مصر 5147
کنساس 5144
خواجہ 5140
جواب 5137
نز 5121
فراہم 5119
ئر 5116
وار@@ 5110
16 5109
دیے 5109
ایل 5105
پرو@@ 5091
والوں 5088
جمع 5087
کتب 5078
رکھی 5077
مج@@ 5074
ہندوستانی 5066
13@@ 5065
باہر 5063
13 5059
مقصد 5051
اُن 5040
معروف 5038
کمپنی 5038
اداکارہ 5032
برا@@ 5025
زمانے 5019
چی 5012
30 5011
18 5001
وسلم 4999
مراد 4993
ہار@@ 4990
انگ 4982
شاہی 4975
مال@@ 4975
ویل 4959
کرو@@ 4950
ادارہ 4946
ري@@ 4945
سابق 4936
لگا 4925
اجازت 4922
محل 4920
الہ 4919
دوسرا 4918
باوجود 4916
رنگ 4913
سیریز 4903
قہ 4901
پس 4897
17 4888
فل@@ 4885
وسطی 4884
25 4882
شر@@ 4879
اي@@ 4876
ثابت 4873
قلعہ 4869
مرتبہ 4862
دار@@ 4859
تشکیل 4858
حمایت 4848
عوام 4841
4@@ 4832
اتحاد 4828
باقی 4820
تنظیم 4819
واشنگٹن 4819
ڈے 4812
حملے 4810
وج@@ 4809
چھوڑ 4809
ضرورت 4801
برائے 4799
سپ@@ 4799
ریہ 4785
نک@@ 4780
ہونا 4777
بغیر 4775
تعلیمی 4774
3@@ 4771
مغرب 4764
فیلڈ 4752
اق@@ 4751
زمانہ 4746
ڑی 4746
یہودی 4738
اح@@ 4737
اروں 4733
مدینہ 4728
ﷺ 4713
َ@@ 4711
منتقل 4701
مقابلہ 4700
کیلیفورنیا 4694
ے@@ 4678
فہ 4662
جے 4661
ﺎ@@ 4660
سکتی 4657
خ 4656
سمجھا 4656
علامہ 4648
کشمیر 4647
دیتا 4644
انگلینڈ 4629
10@@ 4622
کمیون 4619
اع@@ 4614
با 4613
خدمت 4609
مت@@ 4595
مي@@ 4595
ه@@ 4581
الفاظ 4578
تع@@ 4577
کھیل 4574
کھلاڑی 4567
سری 4561
حالت 4558
Saint 4543
روز 4536
مب@@ 4524
خلافت 4522
باز 4518
عل@@ 4518
شو@@ 4513
یم 4512
پاک 4509
جڑواں 4508
کرا@@ 4506
بغاوت 4499
اعلیٰ 4492
ماں 4489
نماز 4486
فلموں 4479
! 4473
میرے 4468
جان@@ 4464
نیا 4462
میل 4455
ط 4442
آگے 4430
یورپ 4423
ایا 4417
چھوٹے 4416
مص@@ 4405
ناول 4399
سينٹ 4394
ٹیلی 4390
پری@@ 4389
ایف 4381
افواج 4379
اولاد 4377
1,@@ 4373
حلقہ 4373
جلد 4372
سم@@ 4370
معنی 4367
تعلقات 4366
حوالے 4365
میدان 4363
چکی 4358
ند 4352
ایوارڈ 4349
طاقت 4348
تربیت 4343
کش@@ 4343
ؤ 4342
سنہ 4342
ہوگا 4342
وت@@ 4340
.@@ 4337
کامیابی 4333
سماجی 4330
مار 4325
رہتے 4321
راج 4318
سخت 4314
تبدیل 4313
نسل 4298
گاہ 4298
رہنے 4297
نش@@ 4296
سب@@ 4290
متاثر 4290
خاتون 4286
مست@@ 4286
مر 4283
= 4279
دیکھ 4279
کیوں 4279
نار@@ 4272
وي@@ 4271
لائ@@ 4269
امن 4265
انتہائی 4263
نہایت 4259
مور@@ 4256
سا@@ 4254
پنسلوانیا 4250
ولادت 4239
پولینڈ 4239
پا 4237
جرمن 4236
سائنس 4234
اضافہ 4223
نور 4222
ادبی 4217
رہ@@ 4217
مصنف 4214
باعث 4211
نامی 4209
گڑھ 4207
یات 4204
سہ 4201
رب@@ 4197
مون@@ 4194
نقل 4194
جنہوں 4192
مملکت 4187
21 4184
کہانی 4182
رن 4176
عثمانی 4169
24 4167
ہدایت 4157
بل 4156
نیشنل 4149
اُ@@ 4145
جل@@ 4140
بتایا 4139
لینے 4133
واقعہ 4130
انھیں 4122
the 4118
ذیلی 4118
کپ 4117
بلند 4115
علمی 4113
قیادت 4109
بال@@ 4104
موں 4104
گور@@ 4104
موسیقی 4087
الب@@ 4080
کلاس 4079
جیسا 4078
چونکہ 4077
بندی 4076
لگے 4073
برو@@ 4067
گنتی 4066
ہائی 4058
مثال 4056
خط 4053
23 4046
ولی@@ 4045
یاد 4045
ہلاک 4043
محبت 4040
چینی 4037
بانی 4035
وسیع 4035
مالک 4033
سعودی 4023
حی@@ 4021
منٹ 4021
مابین 4019
بیٹی 4017
انڈیا 4014
کور@@ 4010
Canton 4008
نڈ 4005
بری 4004
22 4003
عراق 4001
چلے 4001
منظر 3997
واقعات 3997
لاکھ 3992
روزہ 3976
1ء 3970
محمود 3968
حوالہ 3962
مہم 3955
اہ@@ 3947
اٹھ@@ 3945
فو@@ 3945
اقبال 3944
پہنچ 3944
ندی 3942
قدر 3940
بنگلہ 3939
نج@@ 3936
اعزاز 3934
ای 3934
دیش 3932
اون@@ 3926
مختار 3924
ژ@@ 3919
بنے 3918
نگر 3912
مسائل 3904
19@@ 3903
ویسٹ 3903
شریک 3902
مجھے 3902
9ء 3899
اضلاع 3898
رس@@ 3894
آئ@@ 3887
پورے 3886
ين@@ 3884
جارجیا 3878
تسلیم 3868
تن@@ 3865
ك 3864
ماہ 3857
مکہ 3856
الع@@ 3855
ڈن 3855
پردیش 3851
عددی 3850
طویل 3844
کون@@ 3830
شہروں 3826
نبی 3817
بجائے 3814
ورلڈ 3813
پور@@ 3810
ظ@@ 3809
جزیرہ 3805
لین 3797
ایرانی 3793
ہسپانوی 3791
واضح 3787
ایڈ@@ 3785
تقریبا 3780
ميں 3780
سردار 3779
پیر 3774
چاہیے 3774
ذمہ 3770
علوم 3770
ؒ 3769
اتا 3769
کول@@ 3769
14@@ 3768
گرد 3768
افریقہ 3767
ُ@@ 3765
تھ 3762
کلام 3759
قبیلہ 3758
2@@ 3755
ٹیکساس 3752
لکھی 3751
انوں 3747
عباس 3746
ہندی 3738
لحاظ 3737
وق@@ 3737
چل 3728
نظاموں 3726
لان@@ 3719
آل 3718
4ء 3717
امی@@ 3717
وف@@ 3716
12@@ 3715
گرا@@ 3713
نگار 3712
شہری 3711
پولیس 3707
شہ@@ 3706
اص@@ 3704
انتخاب 3704
پایا 3701
شکار 3700
چلا 3695
ڈو@@ 3688
بلحاظ 3685
خلیفہ 3685
مقابلے 3683
والدہ 3680
ونی 3680
عی@@ 3679
مقبول 3676
بند@@ 3673
آٹھ 3671
26 3668
ٹے 3665
ائیں 3661
تحریر 3657
اینڈ 3655
نمایاں 3654
کینیڈا 3650
اہمیت 3648
وے 3646
ادی 3642
فرسٹ 3642
کتابیں 3641
نوا@@ 3640
چکا 3640
جاپان 3638
وطن 3635
ملکی 3634
گل 3632
محفوظ 3631
8ء 3630
علما 3620
لیں 3620
توجہ 3614
اقوام 3608
یورپی 3605
6ء 3601
رکھتا 3601
مضامین 3601
صوبے 3596
الق@@ 3593
ریکارڈ 3593
مسیح 3593
ارہ 3592
اِ@@ 3589
وادی 3589
انی@@ 3588
مطلب 3587
فلمی 3586
گروہ 3586
حکمران 3585
2ء 3583
192@@ 3577
ڈگری 3575
نیز 3574
شا@@ 3572
رہیں 3569
مان 3569
ایشیا 3559
وسکونسن 3559
بہتر 3555
مقامات 3555
كي 3554
نور@@ 3554
ابھی 3552
لڑائی 3552
صحیح 3549
وز@@ 3549
County 3545
مخصوص 3545
حیات 3544
بچے 3543
مز@@ 3535
16@@ 3530
آتا 3528
گورنر 3528
پیمانے 3527
حقیقت 3526
تحقیق 3525
شیعہ 3523
e 3522
ہمیشہ 3520
کردی 3508
زبانوں 3506
معاہدے 3506
ہجرت 3504
بنائی 3502
تم@@ 3498
موسم 3498
بیٹا 3494
2018 3492
ڑے 3491
ريلوے 3489
ولا 3488
جسم 3485
3ء 3483
28 3482
ابراہیم 3482
اظہار 3482
مق@@ 3482
یوسف 3481
برگ 3477
قر@@ 3474
مجموعہ 3473
ماہر 3470
چھوٹی 3465
زر@@ 3460
آتے 3455
انڈ@@ 3448
اسٹيشن 3446
کام@@ 3446
پورا 3445
اوسط 3442
ضروری 3442
27 3441
شہرت 3441
صحت 3435
ائن 3431
عمارت 3431
انکار 3430
نما 3430
ممتاز 3429
بلے 3426
ذاتی 3416
معاہدہ 3416
تق@@ 3410
تھی@@ 3406
دل@@ 3402
ﺍ@@ 3402
لائن 3399
پہاڑ 3399
یارک 3392
نواب 3387
کنٹرول 3387
سمیت 3385
ٹوں 3382
چر 3382
سٹی@@ 3381
پیچھے 3376
معلومات 3375
چیز 3374
تش@@ 3373
مختصر 3370
نتیجہ 3369
بال 3367
عیسوی 3361
قانونی 3361
طریقہ 3359
كے 3359
مرا@@ 3359
پروگرام 3359
یاں 3357
سائ@@ 3355
سان 3353
مال 3351
نامہ 3347
باب 3346
ء@@ 3345
خی@@ 3345
ورجینیا 3345
مبنی 3344
تباہ 3338
دولت 3337
اک 3336
شخصیت 3335
نام@@ 3333
ئی@@ 3328
روڈ 3326
ڈز 3325
زندہ 3324
پنجابی 3322
رس 3321
جنگی 3319
اقتدار 3316
یونانی 3313
سان@@ 3311
بیوی 3310
جہاز 3309
کہیں 3308
آیت 3304
انقلاب 3300
ڈر 3299
وان 3298
کتابوں 3297
0ء 3290
ؤ@@ 3290
ثقافت 3288
باپ 3282
سارے 3282
واحد 3279
ڈو 3271
نر 3260
جائیں 3256
برس 3251
نصف 3247
انعام 3243
شاہ@@ 3242
کھیلے 3242
District 3238
وم 3238
ص 3237
طالب 3232
کہ@@ 3232
سعید 3228
دورہ 3226
اء 3224
عبداللہ 3219
عرصہ 3218
فار@@ 3218
بینک 3216
شہید 3212
اؤ 3202
نسب 3202
ریاستوں 3199
0 3197
رت 3197
سلسلے 3191
حافظ 3188
آواز 3187
لیک 3187
پورٹ 3184
عرصے 3181
ہاں 3181
روانہ 3179
لان 3179
0@@ 3176
29 3174
ایچ 3173
وَ@@ 3172
کشی 3171
ہا 3170
in 3169
ملین 3169
ونگ 3165
تصور 3159
سٹی 3159
روم 3158
طرز 3157
لز 3157
َ 3155
ملتا 3154
محکمہ 3152
وو@@ 3152
وال 3147
مے 3141
بیت 3140
پرا@@ 3137
15@@ 3135
پارک 3128
اوپر 3127
شرح 3127
لکھتے 3127
پروفیسر 3126
بڑھ 3117
پہنچا 3117
پل 3115
مندرجہ 3114
کھیلا 3113
5ء 3111
کس@@ 3110
بننے 3108
وجود 3106
اسٹی@@ 3101
الحکومت 3101
دوم 3100
عورت 3099
مطالعہ 3099
زور 3092
شرکت 3092
ملے 3086
ّ@@ 3086
منصوبہ 3083
ویب 3081
قی 3080
مرزا 3080
نز@@ 3079
نیوزی 3075
فرماتے 3070
چک 3070
لنکا 3069
لگ@@ 3069
بھیجا 3068
نمائندگی 3054
ہمارے 3053
وکٹیں 3052
کمی 3051
50 3050
اخبار 3048
یون@@ 3048
طی@@ 3045
اداکار 3044
تلاش 3042
ئ 3035
الت@@ 3035
سیزن 3035
بخش 3033
لوک 3030
معاشی 3029
ْ@@ 3029
اصطلاح 3025
پائے 3025
نجی 3022
بیعت 3021
-@@ 3016
حصوں 3015
سربراہ 3014
جاسکتا 3013
جنسی 3013
الج@@ 3011
تج@@ 3008
دہ@@ 3008
مدرسہ 3008
ابتدا 3006
بوں 3005
تک@@ 3002
دریافت 2998
ائر 2997
انتظام 2997
ثقافتی 2997
سامنا 2993
قبائل 2991
روایات 2989
کہنا 2984
مف@@ 2981
نقصان 2978
استاد 2976
بان@@ 2976
فضل 2972
حل 2970
صف@@ 2969
خبر 2968
ہیپلو 2968
تخت 2966
علی@@ 2966
اؤ@@ 2965
مشترکہ 2964
شدید 2962
تجارت 2961
خصوصی 2961
رہتا 2958
زائد 2956
سبب 2956
امریکہ 2955
مرد 2955
گل@@ 2953
2019 2952
آدمی 2948
سنت 2946
روایتی 2942
ممکن 2940
مالی 2938
رز 2934
بیس 2931
رون 2931
رائ@@ 2925
عہدے 2925
سالوں 2924
ترتیب 2922
اخ@@ 2921
لگایا 2921
کان 2920
7ء 2917
عملی 2917
عثمان 2914
100 2913
درس 2913
نظ@@ 2912
فقہ 2911
ازاں 2910
اٹ@@ 2910
ود 2910
ادارے 2905
مجبور 2904
آن 2900
جا@@ 2897
ارا 2895
وو 2894
دیر 2890
ملا@@ 2890
گار@@ 2890
اکبر 2887
کوٹ 2886
اری@@ 2885
ﻮ@@ 2884
برقرار 2883
بیشتر 2882
کیرولائنا 2879
2,@@ 2878
واں 2878
سہ@@ 2875
ویژن 2874
راستہ 2873
سون@@ 2872
% 2868
شہنشاہ 2863
قاضی 2863
ناکام 2859
تشدد 2858
جہ@@ 2857
عدالت 2856
چے 2855
بدھ 2853
قید 2849
اگلے 2847
صوبائی 2846
اننگز 2845
شیر 2844
لڑ@@ 2843
2013 2842
مضبوط 2841
گرفتار 2839
پیشہ 2834
بچ@@ 2832
خون 2831
عہ 2831
کمیونٹی 2831
دوں 2824
طے 2824
خان@@ 2823
تب@@ 2822
جر 2818
لس 2817
بلوچستان 2815
بي@@ 2814
تیز 2811
ئن 2810
عت 2805
دینا 2803
ذات 2802
سي@@ 2801
کرکٹر 2800
لي@@ 2799
رضا 2798
اتے 2797
نظم 2797
الا 2796
پہ@@ 2795
ns 2794
انس@@ 2791
رہنما 2791
تجارتی 2789
سام@@ 2789
model 2788
پن 2786
اعلی 2785
دہشت 2785
کرو 2785
زم 2783
پہنچے 2782
تعریف 2781
رکھ 2781
کمیٹی 2781
الف@@ 2780
كي@@ 2778
کنارے 2774
حالانکہ 2773
مخالف 2771
انٹرنیشنل 2768
format 2767
ران 2766
بہار 2765
contributor 2764
timestamp 2764
مغل 2763
وابستہ 2763
کوڈ 2758
آب@@ 2757
زہ 2757
فوجیوں 2753
ہاتھوں 2753
حر@@ 2752
1@@ 2748
مند 2746
جیت 2745
نٹ@@ 2744
مشکل 2742
اف 2740
راستے 2740
ٰ@@ 2740
زمرہ 2737
موضوع 2736
‌ 2736
کانگریس 2734
لکھے 2730
روشنی 2729
تفسیر 2726
پتہ 2721
کلب 2721
ہجری 2718
31 2716
شا 2714
اہ 2711
گان 2711
حکمرانی 2705
ملاقات 2702
راہ 2699
سنی 2697
وہی 2697
مسوری 2695
نظریہ 2692
مستقل 2691
ني@@ 2690
نیو@@ 2690
username 2686
طلبہ 2686
بول@@ 2685
ه 2677
190@@ 2676
بہن 2676
سرحد 2674
ارے 2671
بنگال 2670
br 2669
نامزد 2669
فیض 2665
موسیٰ 2665
الن@@ 2662
رکھتی 2661
لگ 2661
راجا 2660
شعبہ 2660
ٹنگ 2656
ى 2655
ست 2654
خوش 2653
کش 2653
سابقہ 2652
حیدرآباد 2648
عطا 2648
تبدیلی 2647
نیٹ 2647
ہار 2646
40 2645
مانی 2645
کٹ@@ 2645
دیتی 2644
یک 2644
بلا@@ 2642
رضی 2642
کٹر 2640
باغ 2639
راست 2637
نیچے 2637
ابھ@@ 2630
ادی@@ 2630
میچوں 2629
نوازا 2629
برابر 2628
ہوگئے 2628
پک@@ 2626
محدود 2625
سکا 2619
بحیرہ 2618
جنہیں 2618
اختتام 2616
193@@ 2614
بارہ 2613
پناہ 2612
دنوں 2611
چار@@ 2608
دست@@ 2607
اعداد 2606
اباد 2602
ُ 2602
بت@@ 2600
خیبر 2600
ادہ 2599
دینی 2596
میڈیا 2594
ورا 2594
وڈ 2594
T@@ 2593
یافتہ 2588
مبارک 2586
نسبت 2583
انتظامی 2581
سزا 2581
مط@@ 2581
منعقد 2581
مپ@@ 2577
کال@@ 2574
چا 2569
ہوکر 2569
یمن 2569
تعالیٰ 2564
دوست 2563
لار@@ 2563
مزار 2563
میاں 2561
گیند 2560
میرا 2559
ساری 2557
بلدیہ 2555
کریم 2555
اوی@@ 2551
بور@@ 2548
ڑوں 2548
2018ء 2547
mtDNA 2546
امور 2546
دم 2545
نزدیک 2544
انگلستان 2542
آئین 2541
بالکل 2541
دور@@ 2541
بنت 2540
لال 2539
ائي 2536
خطے 2536
ٹری 2534
جھیل 2532
ٹل 2532
فلسطین 2527
معمولی 2526
لہذا 2525
وائ@@ 2525
سلیمان 2523
مخالفت 2523
خو@@ 2522
آب 2520
دفاع 2520
قط@@ 2520
خد@@ 2518
آتی 2516
2015 2515
and 2515
مز 2514
خر@@ 2513
مندر 2512
ؤں 2511
2013ء 2507
كا 2505
چلی 2503
comment 2502
لایا 2502
بورڈ 2501
بیرونی 2499
وسط 2499
لائے 2497
2014 2496
فرق 2496
کون 2496
h 2495
الو@@ 2493
ارکان 2491
تنقید 2491
ملتان 2489
دعوت 2486
ﮐ@@ 2486
جامع 2484
مخ@@ 2483
کمال 2482
سکی 2481
ونا 2481
پڑ@@ 2480
بازی 2478
تصنیف 2478
مدت 2475
حاضر 2473
گا@@ 2472
بیگم 2471
وکٹ 2466
شن@@ 2465
بت 2458
آبشار 2457
الزام 2456
بازار 2456
اداکاری 2455
ين 2453
چر@@ 2451
اختلاف 2450
دفتر 2450
روک 2450
اشاعت 2449
شے 2447
وان@@ 2443
اداروں 2441
مجلس 2440
ٰ 2440
کارکردگی 2440
وش@@ 2439
سعد 2438
پھی@@ 2438
انت@@ 2437
ثانی 2437
حامل 2436
پال 2436
اوقات 2435
تح@@ 2434
اصول 2432
مثلاً 2431
تہ 2430
اورا@@ 2429
تیسری 2428
مقدس 2427
جاپانی 2426
سورج 2425
ملتی 2425
ود@@ 2425
وف 2424
الس@@ 2422
العلوم 2422
بحری 2422
شماری 2422
زا 2419
ائل 2418
وزارت 2418
سنگ 2415
مول@@ 2415
نہ@@ 2413
عبادت 2411
منی 2410
تعاون 2408
نق@@ 2408
Gmina 2404
پابندی 2404
تب 2402
ساز 2402
اکی@@ 2400
لقب 2397
صی@@ 2396
روز@@ 2395
شخصیات 2395
لائی 2394
حضور 2392
میر@@ 2390
۱@@ 2390
جنھوں 2387
سٹن 2387
اندازہ 2386
ذرائع 2386
کھا 2386
اکثریت 2385
پہ 2385
تخ@@ 2384
دگی 2379
پیداوار 2379
ہند@@ 2379
مضمون 2375
محسوس 2372
formula 2369
کثیر 2369
کاروں 2367
اعتبار 2365
فروغ 2364
لشکر 2364
منسلک 2364
چہ 2361
ث 2358
انیہ 2357
رج@@ 2356
ین@@ 2356
کوریا 2352
رک@@ 2351
ٹک 2351
قوت 2349
خطاب 2348
اقسام 2347
عی 2345
مفتی 2344
آمد 2342
اڑ@@ 2342
جیسی 2342
تخلیق 2339
سائٹ 2339
فورڈ 2339
بزرگ 2338
گن@@ 2336
فیصل 2335
كو@@ 2334
لیتے 2334
نان@@ 2333
وت 2333
ریل 2332
میہ 2332
حقیقی 2321
لاس 2321
چیف 2320
شوہر 2318
2008 2315
ـ 2312
نائب 2311
مطالبہ 2304
رہتی 2299
زر 2299
parentid 2298
داد 2298
دشمن 2298
کٹ 2298
جزائر 2296
جنس 2296
فکر 2296
سکھ 2295
اوائل 2294
ریاستی 2294
17@@ 2293
تذکرہ 2291
شہ 2291
ملازمت 2291
ووڈ 2291
ہوگی 2291
ریوں 2290
انگریزوں 2289
درخواست 2288
الش@@ 2285
اپ 2284
کے@@ 2284
ریا 2283
نيو 2281
ﻣ@@ 2280
ڈراما 2278
لر 2277
مردم 2276
سال@@ 2274
نشان 2274
3,@@ 2273
الحق 2273
وک 2273
پہاڑی 2273
مسلسل 2271
تہذیب 2270
رقم 2269
رک 2269
تس@@ 2266
دفعہ 2264
ایئر 2262
2012 2257
علاقائی 2256
ریڈیو 2255
ایمان 2254
آذربائیجان 2253
شہادت 2253
منظور 2253
بس 2252
اج 2251
لکھ@@ 2250
آگ 2246
سنگ@@ 2246
محض 2246
آرمی 2245
آثار 2241
18@@ 2240
مُ@@ 2239
تشریف 2238
والدین 2238
اتر 2237
مقیم 2235
ندر 2235
بابا 2233
2010 2232
سلی@@ 2232
ساحل 2231
کین@@ 2231
x 2230
خوبصورت 2227
غازی 2226
مین@@ 2226
کوں 2226
باقاعدہ 2224
تجویز 2223
کھی@@ 2222
معاشرے 2219
پہنچ@@ 2219
4,@@ 2217
شار@@ 2217
شت 2217
پشاور 2217
غی@@ 2216
شان 2214
فر 2214
یقین 2214
سور@@ 2213
امہ 2210
ٹنے 2210
کلا@@ 2210
بغداد 2209
عنوان 2206
آسٹریا 2204
خانے 2204
لوٹ 2204
خط@@ 2202
بورو 2201
عدم 2201
ڈالر 2200
سار@@ 2197
عثمانیہ 2196
مسیحی 2193
رپورٹ 2192
اچھی 2189
معاملات 2189
منہ 2187
پن@@ 2187
گرو@@ 2186
قدم 2183
ولا@@ 2183
زار 2182
پے 2182
تیزی 2175
لم 2175
زخمی 2174
اکیڈمی 2171
رد 2170
قبیلے 2170
ڈویژن 2169
2017 2168
انڈین 2168
طریقے 2168
1.@@ 2167
روحانی 2167
مَ@@ 2166
يا 2163
پزیر 2162
رہائش 2159
صاف 2159
ماؤنٹ 2158
ویل@@ 2157
امی 2156
صحابہ 2156
2016 2155
شناخت 2153
تحفظ 2152
راج@@ 2149
جارج 2148
اؤں 2147
سامان 2147
شو 2147
چاہتے 2147
فا@@ 2146
آپ@@ 2145
ایئرپورٹ 2145
لف@@ 2144
٪ 2136
باری 2134
صنعت 2134
سونے 2133
فرا@@ 2133
میونسپل 2133
باد 2131
نک 2129
کھانے 2129
بالا 2128
شہرستان 2127
غور 2126
شاید 2125
جلال 2124
راہ@@ 2124
شمولیت 2123
60 2122
ہائے 2121
زن 2118
فروخت 2118
اول@@ 2117
لت 2117
پتھر 2117
بخاری 2116
غ 2116
ﺮ@@ 2114
ریس 2113
خالد 2110
نکل 2108
اسک@@ 2107
شک@@ 2107
آئیں 2104
دائیں 2104
صبح 2104
نسلی 2104
عمرو 2103
واپسی 2103
اط@@ 2102
بدر 2102
پالیسی 2101
صلاحیت 2099
ورک 2096
ہمیں 2096
دربار 2095
گجرات 2095
دیکھنے 2094
رار 2094
سالہ 2094
تِ 2092
کوئ@@ 2090
اطلاع 2089
تاج 2089
2011 2086
غالب 2085
نشانہ 2085
ہٹ 2085
حرکت 2084
ہری 2083
ہزاروں 2081
فائدہ 2079
ائیوں 2078
خود@@ 2075
دارالحکومت 2073
علا@@ 2073
بنو 2068
رخ 2064
پلا@@ 2062
براہ 2061
بش@@ 2059
بولی 2059
سلا@@ 2059
ٹورنامنٹ 2058
ڈیبیو 2058
2008ء 2056
شاخ 2055
قیمت 2054
نوجوان 2053
جگ@@ 2052
بالآخر 2050
دھا 2050
باب@@ 2049
زے 2049
اتفاق 2044
قت 2043
بھی@@ 2042
کت@@ 2040
روح 2037
سازی 2037
فارس 2036
نڈر 2036
طر@@ 2034
موجودگی 2034
اسکور 2033
خصوصیات 2033
سوی@@ 2033
انت 2032
جانی 2032
حروف 2032
سفید 2032
آہستہ 2030
خوا@@ 2030
بدل 2029
یار 2028
الرحمن 2026
داخلہ 2026
جہ 2025
پڑھ@@ 2025
یکم 2024
ٹاؤنشپ 2020
آؤٹ 2019
تصانیف 2018
تل@@ 2016
جعفر 2016
ساتھی 2015
ﯿ@@ 2014
غلط 2013
لیہ 2013
پختونخوا 2012
بحر 2011
حفاظت 2011
تف@@ 2010
لانے 2010
بچپن 2009
خوش@@ 2009
ملکہ 2008
سوال 2007
فلپائن 2007
مردوں 2007
de 2006
ٹھ 2005
ڈائریکٹر 2003
ہل 2002
یاد@@ 2001
فائز 2000
بحث 1999
جیل 1999
ہوگئی 1999
مغ@@ 1997
ہل@@ 1997
افغان 1996
اما 1996
مقدار 1996
کین 1996
ہوگیا 1996
قدرتی 1995
مائ@@ 1994
سرزمین 1993
وفاقی 1993
انڈیز 1992
بح@@ 1992
متعارف 1992
نیویارک 1992
لن 1991
ممبئی 1989
نوبل 1987
0.@@ 1985
تار@@ 1984
دستخط 1984
کوہ 1984
حج 1983
رفتار 1981
مجھ 1981
میکسیکو 1981
جدوجہد 1980
وز 1979
ڈکوٹا 1979
بیر 1978
مسیسپی 1977
سمجھتے 1976
کم@@ 1974
سلیم 1973
2.@@ 1972
آئرلینڈ 1972
وہیں 1972
ریڈ 1971
شوں 1970
مسلح 1970
پاشا 1970
اسماعیل 1969
قص@@ 1969
اثرات 1968
یہودیوں 1968
بلوچ 1967
خواہش 1967
شعر 1967
بکر 1966
ترا@@ 1966
دراصل 1966
ماؤنٹین 1965
چرچ 1964
کہہ 1964
علاج 1962
کپتان 1960
20@@ 1957
35 1956
ٹرو@@ 1955
ٰی 1954
لیس 1953
وین 1951
سربراہی 1950
قوانین 1950
دورے 1949
تیسرے 1948
یے 1948
رسم 1947
تیس 1946
حملوں 1946
خاتمہ 1945
مسئلہ 1944
ثبوت 1943
فائ@@ 1943
کشن 1943
بہادر 1940
نگٹن 1939
تھائی 1938
ٹیوٹ 1937
کمیشن 1936
البتہ 1935
اتنا 1934
منصوبے 1934
پان@@ 1931
5,@@ 1929
سکیں 1929
ڈال 1929
برصغیر 1928
ٹرز 1927
خیر 1926
شمس 1925
سٹر 1922
2020 1921
رانی 1921
نر@@ 1920
قول 1919
لن@@ 1918
متعلقہ 1917
کینٹکی 1917
بلی@@ 1916
جانوروں 1916
کور 1916
امت 1915
عم@@ 1915
کولمبیا 1915
ستی 1913
کربلا 1910
تصویر 1908
خاتمے 1908
قبرص 1908
احادیث 1907
بو 1906
لي 1906
زید 1905
فا 1905
قب@@ 1903
آز@@ 1902
لَ@@ 1902
قاسم 1901
اسرائیلی 1898
کنگ 1898
الجزائر 1896
فورس 1894
آپریشن 1893
ٹائ@@ 1892
اك@@ 1891
صوفی 1891
ماہرین 1891
کوفہ 1888
سندھی 1887
2009 1886
دری@@ 1886
تکمیل 1885
يل 1885
تص@@ 1882
ابی@@ 1881
في@@ 1880
کرلی 1880
یس 1879
پوچھا 1878
پیرس 1878
قو@@ 1877
نگرانی 1875
80 1873
الخ@@ 1871
کرایا 1870
فری 1868
کارروائی 1867
189@@ 1866
انگریز 1866
ونیا 1866
پول@@ 1865
حصول 1864
ڑہ 1864
داد@@ 1862
مارشل 1862
2007 1861
قل@@ 1860
طلب 1859
194@@ 1858
عر@@ 1858
کرام 1858
ناک 1857
نیپال 1857
7.@@ 1856
انس 1855
عرض 1855
عورتوں 1855
وسی 1855
خوف 1854
اَ@@ 1853
داروں 1851
دلچسپی 1850
کمپیوٹر 1849
2019ء 1848
ڈر@@ 1848
ہتھیار 1848
عمران 1847
سالانہ 1846
وب 1844
فاطمہ 1841
قطب 1840
کانفرنس 1840
ﺎ 1840
فت 1839
ڈنگ 1839
اذ@@ 1838
تیاری 1837
دری 1837
رومی 1837
زوں 1837
صفحات 1837
َّ@@ 1837
گلی@@ 1837
an 1834
تیل 1834
ضد 1834
مائی 1834
وبی 1834
جوا@@ 1833
8.@@ 1831
دفن 1831
گرم 1831
200 1829
نواز 1828
پي@@ 1828
اسلامیہ 1826
ایل@@ 1826
خوب 1825
دعا 1823
اتنی 1821
اشارہ 1820
پیک 1820
نم@@ 1819
انسٹی 1817
جام@@ 1816
ماضی 1815
پرست 1815
eh 1814
مواد 1814
اٹلی 1813
زئی 1813
معیشت 1813
آرکنساس 1812
سرخ 1811
مولوی 1811
فاصلے 1809
اق 1808
دادا 1808
مری 1806
الغ@@ 1805
رق@@ 1804
عنہ 1804
دیوی 1802
بیماری 1801
کاروبار 1801
خارجہ 1800
منی@@ 1800
درست 1799
سوانح 1799
گردی 1797
بع@@ 1796
منظم 1796
دیو 1795
سینٹر 1794
ٹیکنالوجی 1793
30@@ 1792
70 1792
24@@ 1790
عزیز 1789
سائنسی 1788
مرتب 1788
ٹیوں 1788
ستہ 1787
بائیں 1786
رش@@ 1786
سوں 1784
عائد 1784
6,@@ 1781
ماحول 1781
ہا@@ 1781
ﺭ@@ 1781
نیبراسکا 1778
بس@@ 1777
فرار 1777
ير@@ 1777
اجلاس 1776
ویوں 1776
چاہتا 1776
یزید 1776
خی 1774
رب 1774
نظریات 1774
رکھے 1773
خاں 1771
La 1770
پرستی 1770
الص@@ 1768
لکھنے 1766
چلتا 1766
K@@ 1765
مہاراشٹر 1765
abad 1763
تصدیق 1763
دستیاب 1763
عروج 1762
غز@@ 1762
قریبی 1761
مات 1761
سوار 1760
ﯽ 1760
گیت 1759
لکھنؤ 1758
اوی 1757
بیل 1757
سرمایہ 1756
حی 1755
45 1754
غزل 1754
قبضے 1754
ہنگری 1752
188@@ 1751
اسٹیٹ 1751
انتظامیہ 1751
حاجی 1751
نف@@ 1751
تفصیل 1750
کوس@@ 1750
جزیرے 1749
معاویہ 1748
بلا 1747
وٹ 1747
ہمراہ 1747
ورا@@ 1746
مث@@ 1745
مارے 1742
انوے 1741
خفیہ 1741
فارم 1741
ووٹ 1740
آس 1739
ابہام 1739
عب@@ 1739
چھو@@ 1738
یوم 1736
انہی 1735
کورٹ 1734
500 1731
بلی 1731
لگی 1731
عہدہ 1729
حرارت 1727
a 1726
بجلی 1726
حج@@ 1725
ڈبلیو 1722
ساؤتھ 1720
معاشرتی 1720
آلہ 1718
نقطہ 1716
اساتذہ 1715
شہریوں 1714
یونان 1714
ﺑ@@ 1713
ایسوسی 1712
باشندوں 1711
رنگ@@ 1711
مارٹن 1711
الر@@ 1709
سپر 1709
منسوب 1708
توانائی 1707
مض@@ 1707
نت 1707
یک@@ 1706
مسعود 1704
احتجاج 1703
ایسٹ 1703
لڑکی 1703
23@@ 1701
روپے 1701
انصاف 1700
متحرک 1700
کرم 1700
انیس 1699
تری@@ 1699
سلام 1699
دکھ@@ 1698
نامور 1698
L@@ 1696
ایشن 1696
دھی@@ 1696
سربیا 1694
2015ء 1693
سي 1693
برادری 1692
فلوریڈا 1691
وضاحت 1691
2006 1690
نگاری 1690
پڑے 1690
احساس 1689
جیتا 1687
موضوعات 1686
گلو@@ 1686
2021 1685
امداد 1685
لباس 1685
بیچ 1684
کھانا 1684
گاندھی 1684
انتخابی 1682
حہ 1682
کہلاتا 1682
2016ء 1681
بوس@@ 1681
روشن 1678
s 1676
طالبان 1676
دروازہ 1674
پلی@@ 1674
بخ@@ 1673
سند 1673
گانے 1673
ید 1673
سنچری 1672
نتائج 1671
شیا 1670
يو@@ 1670
33 1669
سرا@@ 1669
بیک 1668
خت@@ 1668
سک 1666
عمر@@ 1666
چاند 1666
شر 1665
26@@ 1664
وقوع 1664
کائنات 1664
پارلیمنٹ 1662
بون@@ 1660
سیوں 1659
شور 1659
ملنے 1659
زن@@ 1657
اہتمام 1656
ایشیائی 1655
کھیلی 1654
9.@@ 1652
سلوک 1652
مند@@ 1652
زب@@ 1651
آنحضرتﷺ 1650
مصروف 1650
گرو 1649
زي@@ 1648
فرد 1647
مظاہرہ 1647
گول@@ 1647
2014ء 1646
حمل 1645
سلو@@ 1645
مستقبل 1645
خطرہ 1643
ماس@@ 1643
ریت 1642
قلعے 1641
کھیلنے 1641
سل 1639
فرائض 1639
وائٹ 1639
5.@@ 1638
سروس 1638
چا@@ 1637
تدریس 1636
نل 1636
حیدر 1635
روکنے 1635
قائد 1635
ریلویز 1634
کروڑ 1634
کھلاڑیوں 1633
ناگ@@ 1632
27@@ 1631
ائیر 1629
جرسی 1629
صد@@ 1629
نیل 1629
زبردست 1627
صحافی 1626
اسم 1624
ہسپتال 1624
بغ@@ 1623
ير 1623
6.@@ 1622
4.@@ 1621
سڑک 1621
معیار 1621
پھیل 1621
گھروں 1621
زون 1620
کمزور 1620
ریلیز 1619
محافظہ 1619
الله 1618
​ 1618
آنحضرت 1617
برج 1616
جنم 1615
دھی 1615
لات 1615
ملتے 1615
مٹی 1615
ارات 1614
دکھائی 1614
32 1613
چٹ@@ 1613
توسیع 1612
ہال 1612
ادیب 1610
دي@@ 1610
مرہ 1610
کھیلوں 1610
لم@@ 1609
فرو@@ 1608
گفتگو 1608
گنج 1608
3.@@ 1607
مہدی 1607
اسد 1605
درد 1604
کاش@@ 1604
دباؤ 1603
ماد@@ 1603
کلو 1602
چڑھ@@ 1601
کھو@@ 1600
امر 1599
عات 1599
2000 1598
اڈ@@ 1598
بک 1597
طب 1597
قبرستان 1597
ﯾ@@ 1596
کوم@@ 1595
ئیر 1594
بھیج 1594
تہ@@ 1594
سمجھ@@ 1594
راولپنڈی 1593
سیاہ 1593
ویلز 1592
کمیونسٹ 1592
خلیج 1591
صح@@ 1591
مرو@@ 1591
جیکسن 1589
دان@@ 1589
انات 1588
ایوان 1588
بالی 1587
Z 1586
ناتھ 1586
نکال 1586
گرام 1586
یار@@ 1586
خواب 1582
بان 1581
طبی 1581
ہن@@ 1581
ارت 1580
اشعار 1580
تجربہ 1580
آبائی 1578
کمانڈر 1578
دع@@ 1577
ٹہ 1577
28@@ 1576
بلو@@ 1576
شوق 1576
نگی 1576
ڈالا 1576
کاپ@@ 1576
الط@@ 1575
کھڑے 1573
7,@@ 1572
تھیٹر 1572
کروں 1572
درجے 1571
ریں 1571
لڈ 1571
ہان 1571
36 1570
جناب 1570
حکمت 1570
زائ@@ 1570
مناسب 1570
2017ء 1569
شعبے 1568
غریب 1567
تاب@@ 1566
نیم 1566
زبانیں 1565
عقائد 1564
رشتہ 1563
لینا 1563
چن 1563
اند@@ 1562
ناموں 1562
29@@ 1561
خاطر 1561
اث@@ 1560
اندرونی 1559
سم 1559
ماڈل 1559
وہ@@ 1559
رجوع 1558
صادق 1558
مور 1558
یز 1558
تز@@ 1557
گون@@ 1557
برٹش 1556
بھاری 1556
درخت 1556
عامر 1556
الْ@@ 1555
تیہ 1555
رل 1553
پہلو 1553
عین 1552
فون 1552
کرلیا 1552
گزر@@ 1552
خراسان 1551
نافذ 1551
بھو@@ 1549
خیل 1549
34 1548
چلنے 1548
گرین 1548
جمال 1547
الے 1546
ظلم 1546
ابوال@@ 1544
الز@@ 1544
حزب 1544
نائ@@ 1544
دیکھتے 1543
لنگ 1543
ایہ 1541
مہارت 1541
گورنمنٹ 1541
ﻧ@@ 1541
ڑھ@@ 1540
سپر@@ 1538
آسان 1537
عموماً 1537
جموں 1533
پندرہ 1532
ہماری 1532
رَ@@ 1531
کوششوں 1531
سط@@ 1530
سند@@ 1530
فور@@ 1530
ڈیم 1529
ﺗ@@ 1529
برعکس 1528
اختر 1527
الاباما 1527
زوال 1527
سرگرمیوں 1527
انج@@ 1526
جون@@ 1526
دروازے 1526
اغ@@ 1525
عباسی 1525
یادگار 1525
أَ@@ 1524
حکام 1524
شمالي 1524
ؔ 1523
نگز 1523
گھریلو 1521
ڈاک@@ 1518
2011ء 1517
پال@@ 1517
آیات 1515
سیر 1515
ہاؤس 1514
رض@@ 1513
سری@@ 1513
مارا 1513
ٹوئنٹی 1513
دھو@@ 1512
ض 1512
چچا 1512
باس@@ 1510
بولنے 1510
پہنچنے 1510
شریعت 1509
شہزادہ 1509
پٹ@@ 1508
کابل 1506
انجمن 1505
حدود 1505
صدیوں 1504
لیوں 1504
چوں 1504
کرنسی 1503
پائ@@ 1502
الملک 1501
فلمیں 1501
پا@@ 1501
آسانی 1499
اصلاح 1499
جین 1499
ڈین 1499
دعویٰ 1498
اردن 1497
90 1496
تبہ 1496
کہنے 1496
مزاحمت 1495
بِ@@ 1494
پڑی 1494
ڈری@@ 1493
انقلابی 1492
تمہارے 1492
حبیب 1491
حکیم 1491
ّ 1491
امین 1490
وش 1489
S@@ 1488
فت@@ 1488
فلسفہ 1488
سکول 1487
مراکش 1487
جائزہ 1486
صحابی 1486
پرانے 1486
اقدامات 1485
ڈیل 1484
مصری 1483
جانور 1481
سیرت 1481
+ 1479
اسحاق 1479
بلغاریہ 1479
تینوں 1479
فار 1479
جہاد 1478
تمل 1477
صوبوں 1477
دہی 1476
اوا 1475
بشمول 1475
نادر 1475
ارشاد 1474
مجید 1474
مس 1474
چل@@ 1474
ایک@@ 1473
ریاضی 1473
معاون 1473
کاموں 1473
کوچ 1473
وری@@ 1471
بیگ 1470
مہینے 1470
میک 1468
چھی@@ 1468
نت@@ 1467
نشر 1467
آن@@ 1466
راؤ 1466
300 1465
اعتماد 1465
حاکم 1465
دانوں 1464
ناصر 1464
تَ@@ 1463
ران@@ 1463
سیل 1463
كر@@ 1463
سوسائٹی 1462
کیوبک 1460
کولوراڈو 1459
wiki 1458
استنبول 1458
فرم@@ 1458
تون@@ 1457
سنسکرت 1456
نم 1454
38 1453
8,@@ 1453
فرمائی 1453
يہ 1453
25@@ 1452
الک@@ 1452
لينڈ 1452
یر@@ 1451
امید 1450
انڈونیشیا 1450
جسمانی 1449
text 1448
تحقیقی 1448
گیارہ 1446
رسائی 1445
عشق 1445
کیو 1445
افسر 1444
فائنل 1444
فرزند 1444
شک 1443
فیصلے 1443
187@@ 1442
سکندر 1441
مو 1441
نیوز 1440
سين 1439
آسٹریلوی 1438
سُ@@ 1438
افریقی 1437
وکٹوریہ 1437
کلو@@ 1436
55 1435
راس 1435
وبا 1435
قبر 1434
تیسرا 1433
خیالات 1433
ندہ 1433
اصلاحات 1432
حکمرانوں 1432
محنت 1432
مشن 1432
مقاصد 1432
شاندار 1431
عائشہ 1431
لک 1431
1,0@@ 1428
انٹر@@ 1428
حص@@ 1428
رہنماؤں 1428
قلم 1428
Rural 1427
اسکواڈ 1427
مری@@ 1427
منگ 1427
کری 1427
A@@ 1426
شاگرد 1426
پیغام 1426
اکرم 1425
تور@@ 1425
سمجھ 1425
ولیم 1425
پڑھنے 1425
کمار 1425
2005 1422
58 1422
رومانیہ 1422
غرض 1422
نوٹ 1422
بمطابق 1421
عَ@@ 1421
ومی 1421
کامل 1421
مسل@@ 1420
ممکنہ 1420
مِ@@ 1420
حساب 1419
فق@@ 1419
اوریگون 1418
رواج 1418
دعوی 1417
42 1416
44 1416
قین 1416
G@@ 1415
ارادہ 1415
37 1414
اني 1413
انڈيانا 1413
امیدوار 1412
عزت 1411
درا@@ 1410
فرقہ 1410
65 1409
نے@@ 1409
شائر 1408
محلہ 1408
مہر 1408
پش@@ 1408
یور@@ 1408
جانشین 1407
ھی 1407
تعارف 1406
پانے 1405
کُ@@ 1405
ہیمپشائر 1405
2009ء 1404
ٹینیسی 1404
معاملہ 1403
توڑ 1402
ذی@@ 1402
دائ@@ 1401
الف 1400
اصحاب 1399
بڑھ@@ 1399
جناح 1399
مد 1399
امتحان 1398
راز 1398
اِن 1397
باضابطہ 1396
صوف@@ 1396
يں 1395
نازل 1394
M@@ 1393
حوصلہ 1393
محدث 1393
2004 1392
وزن 1392
زیارت 1391
يم 1391
تری 1390
علماء 1390
سول 1389
ٹران@@ 1389
گروہوں 1387
آندھرا 1386
فوری 1386
میت 1386
ونڈ@@ 1386
2012ء 1384
revision 1384
186@@ 1383
اعتراف 1383
برا 1383
جار@@ 1382
جری@@ 1382
لکھ 1382
wikitext 1381
ارب 1381
داس 1381
معاملے 1381
الد@@ 1380
مون 1380
نارتھ 1379
ؑ 1378
بم 1378
رح@@ 1378
تن 1377
نامے 1377
شین 1376
یہود 1376
57 1375
داؤد 1375
سرو@@ 1375
سکور 1375
صدیق 1375
1990 1374
P@@ 1374
اطالوی 1374
تبلیغ 1373
سوا 1373
مقدمہ 1373
ناقابل 1372
پہاڑوں 1372
تقریب 1371
جوش 1371
خطوط 1369
شدت 1369
عمان 1369
گوئی 1369
دیہ 1367
ڈرامے 1367
اوہائيو 1366
قادری 1366
دیوار 1364
ye 1363
كنساس 1363
پیپلز 1363
رقص 1361
مڈ@@ 1361
اچھا 1360
دُ@@ 1360
روا@@ 1360
پرورش 1360
ونی@@ 1358
عراقی 1357
2020ء 1356
راک 1356
قریش 1356
مینار 1356
B@@ 1355
وح@@ 1355
پاس@@ 1355
بلدیات 1354
پیری 1354
تحری@@ 1353
ذ 1353
2007ء 1352
انِ 1352
زراعت 1352
تصوف 1351
شرف 1351
75 1350
الت 1350
48 1349
52 1349
بھگ 1348
پڑتا 1348
2010ء 1346
لون@@ 1346
پیش@@ 1346
کارکن 1346
ہن 1346
39 1345
ساز@@ 1344
ٹي 1344
پانچویں 1344
‎ 1344
خیز 1343
عبرانی 1343
خاندانی 1341
صنعتی 1341
مساوات 1341
ورڈ 1341
منافع 1339
43 1338
بنگالی 1338
جرم 1338
پشتو 1338
مداخلت 1337
مشورہ 1337
منصور 1337
مک 1337
ہوگئیں 1337
ﮧ 1337
رف@@ 1336
سون 1336
معین 1336
41 1335
گراؤنڈ 1335
9,@@ 1333
لیتا 1333
عبور 1332
لگتا 1332
انصاری 1331
مکان 1331
نان 1331
ڈیزائن 1331
گھنٹے 1331
مذاہب 1329
آئی@@ 1328
مذ@@ 1328
47 1326
جنت 1326
روی 1326
لہ@@ 1326
بوسنیا 1325
township 1324
جد 1324
پار 1324
پریس 1324
کیفیت 1324
ئین 1323
ربی 1323
ھے 1323
عظ@@ 1322
اچھے 1321
غزوہ 1321
نبوی 1321
امیہ 1320
محمد@@ 1320
چارلس 1320
گری 1320
ہارون 1320
انور 1316
ملکیت 1316
46 1315
54 1315
نکاح 1315
ar 1314
بڑھا 1314
تہران 1314
نیک 1314
ڑھی 1314
فال@@ 1313
امارات 1312
حامی 1312
گار 1312
ریٹ 1311
وصول 1311
ﮨ@@ 1311
ئر@@ 1309
ممبر 1309
بچ 1308
حس@@ 1308
عش@@ 1308
وسائل 1308
روزنامہ 1307
پون@@ 1307
کھ 1307
ہرا 1307
دائرہ 1306
64 1305
عص@@ 1305
مونٹانا 1305
گنی 1305
اٹھایا 1303
* 1302
الل@@ 1302
شمار@@ 1302
اسٹیڈیم 1301
ریاستیں 1301
مرحوم 1301
D@@ 1300
دنی@@ 1300
سلم 1300
کاس@@ 1300
ظفر 1299
فرما 1299
نج 1299
پو 1299
کھو 1299
گھرانے 1299
اقتصادی 1298
انو@@ 1298
کاروباری 1298
سلط@@ 1297
1947ء 1295
53 1295
الينوائے 1295
56 1294
عز@@ 1294
آکر 1293
لبنان 1292
95 1290
جنگل 1290
ساتھیوں 1289
مرض 1289
چندر 1289
ڈائ@@ 1289
گوشت 1289
ہائ@@ 1289
ﺳ@@ 1289
خواہ 1288
سادہ 1287
شراکت 1287
دیہی 1286
ماسٹر 1286
ہویں 1286
عد@@ 1285
منا 1285
86 1284
پرچم 1284
سول@@ 1283
عمومی 1283
مبر@@ 1283
نوعیت 1283
چالیس 1283
آور 1282
رومن 1282
وول@@ 1281
پرانی 1281
2006ء 1280
اتحادی 1280
سسٹم 1280
مقبرہ 1279
ٹھی 1279
اخلاق 1278
لائنز 1278
ڑنے 1278
ﮯ 1278
الحسن 1277
پہچان 1277
خراب 1276
سبھا 1276
ماسکو 1276
وفد 1276
ٹک@@ 1276
یقینی 1276
سین@@ 1275
قائ@@ 1275
ماہ@@ 1275
پُ@@ 1275
ہیڈ 1275
ﻨ@@ 1275
خالی 1274
مقبولیت 1274
الہ@@ 1273
بحریہ 1273
فَ@@ 1273
ہوا@@ 1272
اٹ 1271
نشین 1271
ویہ 1271
دمشق 1270
سنا 1270
ﻭ@@ 1270
بھائیوں 1269
وع@@ 1269
فضائی 1268
پنج@@ 1268
امتیاز 1267
برازیل 1267
برقی 1267
رحمہ 1267
نین 1267
پریفیکچر 1267
چاندی 1267
کنیت 1267
کیسے 1267
72 1266
The 1266
آرٹ 1266
اعزازات 1266
فیس 1266
ہول@@ 1266
تد@@ 1265
ستر 1265
شعرا 1265
ڈي@@ 1265
طبیعیات 1264
پڑ 1264
قابو 1263
بد 1262
49 1261
d 1261
چینل 1259
61 1257
تباہی 1255
دکھایا 1255
چوتھی 1255
مِ 1254
کثرت 1254
گیس 1254
ائمہ 1252
بڑھتی 1251
ادھ@@ 1250
بائی 1250
آدم 1249
ترمیم 1249
زند@@ 1249
سٹھ 1249
ماتحت 1249
میڈیکل 1249
کئے 1249
63 1248
آغا 1248
جم@@ 1248
محاصرہ 1248
73 1247
صاح@@ 1247
وآلہ 1247
یحییٰ 1247
62 1246
پیغمبر 1246
رائج 1245
لیٹ 1245
انسانوں 1244
98 1243
بلیک 1243
دکن 1243
59 1242
آپس 1242
ازبکستان 1242
جیمز 1242
ضرور 1242
منگ@@ 1242
جمہوری 1241
بَ@@ 1240
بچہ 1240
پیٹ 1239
رمضان 1238
مانا 1237
پڑھا 1237
آمدنی 1236
است 1236
خوشی 1236
کریک 1236
اہی 1235
بستی 1235
تي 1235
ورو 1235
بیٹھ@@ 1234
تنگ 1234
ں@@ 1234
92 1233
ارد 1233
دست 1233
پچاس 1233
گناہ 1233
ذہ@@ 1232
گنا 1232
منڈی 1230
ہوجاتا 1230
دون@@ 1229
لِ@@ 1229
مظ@@ 1229
دیو@@ 1228
سفیر 1228
وعدہ 1228
یہیں 1228
احترام 1227
عناصر 1227
85 1226
88 1226
97 1226
علمائے 1226
93 1225
عقیدہ 1225
نبوت 1225
کوک 1225
برف 1224
تات@@ 1224
نمائش 1224
وائی 1224
74 1223
اش 1223
زیر@@ 1223
لل@@ 1223
سیف 1222
لیتی 1222
زرعی 1221
وك@@ 1221
گول 1221
افریقا 1220
فارغ 1220
فوجوں 1220
مواقع 1220
2003 1218
شری@@ 1218
قد@@ 1218
ویٰ 1218
بازو 1217
جہلم 1217
مسترد 1217
ٹیکس 1217
2004ء 1216
دادی 1216
وجوہات 1216
99 1215
جنوبي 1215
خطہ 1215
رسالہ 1215
مْ 1215
الاسلام 1214
جوہر 1214
فات 1214
مستحکم 1214
ئل 1213
بھٹو 1213
انٹرنیٹ 1212
روابط 1212
اون 1211
سپرد 1211
ئم 1210
سج@@ 1210
ویلی 1210
83 1208
انانکارپوریٹڈ 1208
دودھ 1208
سافٹ 1208
ٹور@@ 1208
کھی 1208
دہلوی 1207
گز@@ 1207
سمت 1206
ابو@@ 1205
دِ@@ 1205
ائیاں 1204
ارک 1204
مجمع 1203
اوکلاہوما 1202
سوئ@@ 1202
تقریر 1201
رکھنا 1200
سوم 1200
شب 1200
نع@@ 1200
يم@@ 1200
خار@@ 1199
مؤ@@ 1199
منفرد 1199
کوہ@@ 1199
کھڑا 1199
بندرگاہ 1198
تنظیموں 1198
ٔ 1197
ڈرا@@ 1197
سنی@@ 1196
سکھوں 1196
ویڈیو 1196
بھاگ 1195
تنازع 1195
ریو 1195
جنگوں 1194
رحمت 1193
منزل 1193
پارلیمان 1193
آسمان 1192
اشیاء 1192
راء 1192
سمی@@ 1192
سے@@ 1192
بحال 1191
دوسروں 1191
خصوصیت 1190
دیکھیے 1190
سبز 1190
اٹھا 1189
تحقیقات 1189
متی 1189
پت 1189
گائے 1189
66 1188
آگ@@ 1188
خری@@ 1188
ري 1188
حکومتی 1187
کلاسیکی 1187
اسپین 1186
ڈیرہ 1186
کنگ@@ 1186
بادشاہت 1185
رسوخ 1185
فوراً 1185
معیاری 1185
انیوں 1184
بارش 1184
دیوان 1184
رُ@@ 1184
طاقتور 1184
84 1183
ادات 1183
94 1182
افت 1182
سرگرم 1182
ظ 1182
ایوب 1181
باہمی 1181
دیئے 1181
سز 1181
ایڈیشن 1180
بیرون 1180
رابطہ 1180
68 1178
جانتے 1178
فاتح 1178
پوسٹ 1178
ہور@@ 1178
87 1177
برہ@@ 1177
جي@@ 1177
زین 1177
شع@@ 1177
فلا@@ 1177
ﺟ@@ 1177
بحالی 1176
خلی@@ 1176
زو@@ 1175
یروشلم 1175
لام 1174
نیوں 1174
ورہ 1174
کہتا 1174
Ch@@ 1173
متن 1173
غم 1172
عالیہ 1171
غی 1171
پڑھ 1171
ادائیگی 1170
فل 1169
اض@@ 1168
مساجد 1168
ﻠ@@ 1168
y 1167
ﺩ@@ 1167
H@@ 1166
دھے 1166
ملکوں 1166
موا@@ 1166
400 1165
بصرہ 1165
بنانا 1165
دیوبند 1165
سماج 1165
فض@@ 1165
مورخین 1165
پہن@@ 1165
96 1164
تعلیمات 1164
وط@@ 1164
یوکرین 1164
1990ء 1163
91 1163
اشی 1163
افسانہ 1163
کرا 1163
J@@ 1162
محبوب 1162
سما@@ 1161
ملی@@ 1161
نسی 1161
ہسپانیہ 1161
مشاہ@@ 1160
2002 1159
انو 1158
پہنچی 1158
کابینہ 1157
بط@@ 1156
تصاویر 1156
حرف 1156
فعال 1156
یری 1156
سور 1155
وصال 1155
فعل 1154
لکڑی 1154
اولین 1153
راضی 1153
سکی@@ 1153
اوری@@ 1152
77 1151
لائبریری 1151
والہ 1151
2005ء 1150
سع@@ 1150
لڑکے 1150
چودہ 1150
ﺮ 1150
دي 1149
شامی 1149
شنل 1149
عصر 1148
لڑکیوں 1148
منڈ 1148
ٹرک 1148
پاكستان 1148
جغرافیائی 1147
لڑنے 1147
اخذ 1146
جاوید 1146
داستان 1146
ٹھا 1146
1980 1145
مرکوز 1145
نِ 1145
ڈون@@ 1145
پھول 1144
فراہمی 1143
مینی@@ 1143
حیرت 1142
عن@@ 1142
لف 1142
چکوال 1142
تمغ@@ 1141
جم 1141
محاذ 1141
پٹ 1141
کیر@@ 1141
یاتی 1141
89 1140
اشرف 1140
صدارتی 1140
قرض 1140
متبادل 1140
پل@@ 1140
مات@@ 1139
نشست 1139
چیئرمین 1139
ہائی@@ 1139
بڑ@@ 1137
سك@@ 1137
گاڑی 1136
بیٹنگ 1135
مرک@@ 1135
کاؤنٹیاں 1135
51 1134
on 1134
سفیان 1134
مع 1134
چیت 1134
گز 1134
71 1133
صدیقی 1133
طلاق 1133
ویک 1132
پچ@@ 1132
78 1130
Q@@ 1130
جذبات 1130
رز@@ 1130
سنیما 1130
عارضی 1130
کاٹ 1130
رضوی 1129
سیٹ 1129
بحرین 1128
مانہ 1128
مشرف 1128
پسندوں 1128
گوا@@ 1128
زیریں 1127
قطر 1127
وي 1127
ربیع 1126
قبائلی 1126
ھا 1126
185@@ 1125
67 1124
راجہ 1124
سز@@ 1124
سعود 1124
منایا 1124
چھاپ@@ 1124
باتیں 1123
عربوں 1123
مہیا 1122
کالم 1122
نص@@ 1121
ئیس 1120
ایکٹ 1120
تنازعات 1120
منصب 1120
منفی 1120
قاف@@ 1119
شراب 1118
فخر 1118
في 1118
وروں 1118
ہرات 1118
خشک 1117
سپی@@ 1117
موسی 1117
اہے 1116
جمعہ 1116
طریقوں 1116
ٹوٹ 1116
دش@@ 1115
صد 1115
١@@ 1115
کمیون@@ 1115
حالیہ 1114
ہوجاتی 1114
اٹک 1113
جوہری 1113
فرض 1113
ﭘ@@ 1113
ملائیشیا 1112
وتی 1112
پورہ 1112
این@@ 1110
لگانے 1110
وند 1110
عمدہ 1109
ٹون@@ 1109
ڈچ 1108
ندے 1107
کپور 1107
پیار 1106
ہیرو 1106
آتش 1105
اتحادیوں 1105
بوس 1105
پبلک 1105
69 1104
محروم 1104
کروایا 1104
گیم 1104
اڈے 1103
واس 1103
ﻤ@@ 1103
مہاجرین 1102
نکلا 1102
ویتنام 1102
ہے@@ 1102
اخبارات 1101
اسلحہ 1101
خاک 1101
خوراک 1101
عقیدت 1101
لٹ 1101
چش@@ 1101
راوی 1100
مشي 1100
ہری@@ 1100
پھانسی 1099
حسب 1098
خور@@ 1098
ولہ 1098
پردہ 1098
بائبل 1097
المعروف 1095
سام 1095
بنا@@ 1094
سرور 1094
گس 1094
آرٹس 1093
بہاؤ 1093
تہوار 1093
فوت 1093
79 1092
بمبئی 1092
تقی 1092
جنازہ 1092
مائی@@ 1092
ائز 1091
برز@@ 1091
واٹر 1090
چک@@ 1090
2021ء 1089
بیہ 1089
واقعے 1089
ﮭ@@ 1089
جایا 1088
سمندری 1088
ویر 1088
العزیز 1087
بُ@@ 1087
خارج 1087
عبید 1087
وائرس 1087
گیری 1087
تیرہ 1086
فنون 1086
چاروں 1086
کلی 1086
ناٹ 1085
ٹاونشپ 1085
آئینی 1084
بھرپور 1084
علیحدگی 1084
فائر 1084
ڈالی 1084
ہہ 1084
ا- 1083
اسلا@@ 1083
برداشت 1083
برسوں 1083
بٹ 1083
ساتویں 1083
ظاہری 1083
فران@@ 1083
ہیلی 1083
03 1082
اُسے 1082
جماعتوں 1082
درو@@ 1082
شمسی 1082
قیس 1082
ارد@@ 1081
سورت 1081
عسکری 1081
لازمی 1081
نچ 1081
وک@@ 1081
پوزیشن 1081
دفاعی 1080
مانے 1080
نائی 1080
وید 1080
گلی 1080
حرام 1079
رحمۃ 1079
سائی@@ 1079
34@@ 1078
سہولت 1078
76 1077
تعینات 1077
نعت 1077
راش@@ 1076
شاہراہ 1075
صالح 1075
آلات 1074
اختیارات 1074
امان 1074
مارکیٹ 1074
میوزک 1074
کمان 1074
82 1073
منورہ 1073
یل@@ 1073
بحران 1072
دھ 1072
ڈالنے 1072
احکام 1071
سرے 1071
گلوکار 1071
آنکھوں 1069
بردار 1069
ریجنل 1069
گزر 1069
جگہوں 1068
منظوری 1068
گویا 1068
ترا 1067
شاہد 1067
عبدالرحمن 1067
عیسائی 1067
وقف 1067
چاہ@@ 1067
سوچ 1066
N@@ 1065
ابشار 1065
بادشاہوں 1065
ناروے 1065
کیمپ 1065
ایجاد 1064
گرامی 1064
ماخذ 1063
نمونہ 1063
پنسلوانيا 1063
1945 1062
حارث 1062
حضرات 1062
سولہ 1062
کالونی 1062
آل@@ 1061
صوبهٔ 1061
میڈی@@ 1061
2001 1060
محقق 1060
کوری@@ 1060
دلیل 1059
پھیلا 1059
طبقے 1058
چنگ 1058
القرآن 1057
قم 1057
مقابلوں 1057
دراز 1056
ونس 1056
چیک 1056
184@@ 1055
33@@ 1055
اخلاقی 1055
پولی@@ 1055
کنی@@ 1055
ایوارڈز 1054
کات@@ 1054
ایڈیٹر 1053
باشندے 1053
بگ@@ 1053
خانقاہ 1053
شاع@@ 1053
بنگ@@ 1052
شل 1052
لنے 1052
میوزیم 1052
ٹین 1052
آصف 1051
ئي 1051
چند@@ 1051
یعقوب 1051
كول@@ 1050
محرم 1050
ظہور 1049
عجائب 1049
مونٹ 1049
جرائم 1048
جہازوں 1048
شي@@ 1048
کچ@@ 1048
کیلئے 1048
بجے 1047
نسخہ 1046
گاوں 1046
نژاد 1045
یاس@@ 1045
عمری 1044
کپڑے 1044
شاپ@@ 1043
ضی 1043
مي 1043
گانا 1043
مایا 1042
مفہوم 1042
وارڈ 1042
روپ 1041
سادات 1041
ہفتہ 1041
وتوں 1040
06 1039
خرچ 1039
مصنفین 1039
مپ 1039
چیزوں 1039
ہیر 1039
جنگ@@ 1038
صلح 1038
فانی 1037
چاہے 1037
دانی 1036
2000ء 1035
الان@@ 1035
جوان 1035
درہ 1035
شور@@ 1035
گھوڑے 1034
81 1033
ref 1033
باد@@ 1032
عبدالعزیز 1032
عصمت 1032
فن@@ 1032
مبتلا 1032
مثبت 1032
وما 1032
پیروی 1032
آفس 1030
صحافت 1030
منز@@ 1030
to 1029
جیتنے 1029
رجحان 1029
مادہ 1029
ہنگ@@ 1029
2002ء 1028
تنازعہ 1028
مراکز 1028
مڈل 1028
فیروز 1027
مریم 1027
میم 1027
ولید 1027
آی@@ 1026
ڈیا 1026
ریز 1025
شرائط 1025
فطرت 1025
ءمیں 1024
عمرؓ 1024
آرمینیائی 1023
ورانہ 1023
الیک@@ 1022
بول 1022
سارا 1022
09 1021
مرے 1021
انعقاد 1020
فے 1020
لڑی 1020
1980ء 1019
تجزیہ 1018
ریاض 1018
فرمان 1018
مشکلات 1018
مظفر 1018
ٹرافی 1018
تالیف 1017
تیوں 1017
جد@@ 1017
سپریم 1017
خل@@ 1016
محیط 1016
وین@@ 1016
کاشت 1016
طاقتوں 1015
میساچوسٹس 1015
گریجویشن 1015
ھو 1015
انگلش 1014
سویڈن 1014
ابوبکر 1012
دلی 1012
لیم 1012
مذکورہ 1012
کوئٹہ 1012
ہٹ@@ 1012
مشیر 1011
کیپ 1011
گذ@@ 1011
فلسطینی 1010
تازہ 1009
تھو@@ 1009
خاندانوں 1009
فیڈریشن 1009
قاری 1009
اء@@ 1008
اگو 1008
سنچریاں 1008
شری 1008
ٹي@@ 1008
کرناٹک 1008
کرنل 1008
۲@@ 1008
اکا 1007
تي@@ 1007
فاؤنڈیشن 1007
نجات 1007
امکان 1006
ْ 1006
کث@@ 1006
کیتھولک 1006
ہوم 1006
R@@ 1005
دِ 1005
نویں 1005
پروڈیوسر 1005
بون 1004
رکھ@@ 1004
چان@@ 1004
انڈر 1003
شنز 1003
لسٹ 1003
چون@@ 1003
عط@@ 1002
ناد@@ 1002
ٹیوب 1002
انیسویں 1001
راب 1001
... 1000
زو 1000
پسندی 999
کرداروں 999
an@@ 998
ایجنسی 997
سرائے 997
کلکتہ 997
11@@ 996
استفادہ 996
تال 996
ترجیح 996
سینئر 996
قز@@ 996
قصبے 996
مشاہدہ 996
مينيسوٹا 996
سکو 995
وانی 995
ہیم 995
اندا@@ 994
کویت 994
اتھ 993
ادي 993
اطراف 993
تیمور 993
جہانگیر 993
راجپوت 993
شعبوں 993
2001ء 992
جوں 992
طل@@ 992
عوض 992
عید 992
افسران 991
انگیز 991
رہنمائی 991
صلاحیتوں 991
اقدام 990
مخدوم 990
چھوڑ@@ 990
کات 990
شعری 989
کیاں 989
جہان 988
دات 988
صفحہ 988
ننگ 988
وقار 988
علاحدہ 987
فیئر 987
قرا@@ 987
يس 987
پتی 987
پاک@@ 986
تبادلہ 985
رشید 985
مجموعے 985
نن 985
پین 985
حالی 984
سف@@ 984
كو 984
نما@@ 984
وکیل 984
چنے 984
افزائی 983
تیلگو 983
سفارتی 983
طاہر 983
کیچ 983
باز@@ 982
فنی 982
مذاکرات 982
اجتماعی 981
تیر@@ 981
خرا@@ 981
دیکھی 981
مسیحیت 981
واقف 981
چوتھے 981
وارث 980
کوی@@ 980
2003ء 979
ائف 979
مرحلے 979
کٹی@@ 979
اسپی@@ 978
اٹھارہ 978
بروز 978
زمینی 978
لاتے 978
نگا 978
دخل 977
رسمی 977
ریسرچ 977
اين 976
بدولت 976
فاصلہ 976
بیٹھے 975
حکومتوں 975
کیمی@@ 975
انفرادی 974
اہل@@ 974
سرحدی 974
لہٰذا 974
نفس 974
ٹیک 974
بچانے 973
ثہ 973
وکٹوں 973
گولی 973
اً 972
رائل 972
سانتا 972
طبقہ 972
اجی 971
اسم@@ 971
اکی 970
شبہ 970
شرط 970
نٹس 970
ولے 970
ٹیموں 970
پیرو 970
ادیوں 969
برلن 969
لائٹ 969
ڈل 969
ہے- 969
خرید 968
زد 968
ڈار@@ 968
1970ء 967
ایت 967
بائ@@ 967
بیٹوں 967
زمبابوے 967
مالا 967
فین 966
نڈے 966
کیل 966
ینی 966
سہولیات 965
فتوحات 965
اضافی 964
آرام 963
سورہ 963
شیں 963
انٹرویو 962
دیوتا 962
عالم@@ 962
کوششیں 962
کھنڈ 962
— 962
02 961
A 961
افی 961
ایئر@@ 961
جب@@ 961
مینی 961
ہتھیاروں 961
اراکین 960
شعور 960
فورسز 960
عارف 959
دماغ 958
قدیمہ 958
آرڈر 957
قسطنطنیہ 957
لاحی 957
کمی@@ 957
گیر 957
ہيں 957
الرحمٰن 956
اچانک 956
ّہ 956
احاطہ 955
سعادت 955
فاضل 955
ِّ@@ 955
اترپردیش 954
انڈی@@ 954
اگر@@ 954
ترکوں 954
شہزادی 954
قرون 954
مرشد 954
1970 953
یرہ 953
ادے 952
لمبائی 952
مہمان 952
00@@ 951
قَ@@ 951
ماری 951
يو 951
جیو 950
حمید 950
منہ@@ 950
سیل@@ 949
فاروق 949
نسن 949
نڈا 949
بیر@@ 948
درمیانی 948
كھ@@ 948
يون@@ 948
گھو@@ 948
05 947
سٹر@@ 947
شکر 947
عجیب 947
08 946
سفارت 946
نیں 946
پچھلے 946
1992 945
سلمان 945
سود 945
سینی@@ 945
شتہ 945
لون 945
پاؤں 945
انکا 944
ایڈی@@ 944
بالخصوص 944
بیٹھ 944
تلوار 944
چشتی 944
1991 943
تناسب 943
جاسکے 943
جغرافیہ 943
جمہوریت 943
سالار 943
1948ء 942
1999 942
باؤلنگ 942
باغی 942
بنتا 942
متوفی 942
يري 942
ازی 941
علي 941
مظہر 941
ٹاور 941
الاس@@ 940
ورثہ 940
پرویز 940
اتنے 939
اینڈ@@ 939
جرا@@ 939
جوزف 939
سنائی 939
فقیہ 939
سَ@@ 938
شات 938
چوٹی 938
کرنی 938
انحصار 937
زدہ 937
وق 937
موبائل 935
کنڈ@@ 935
اطلاعات 934
زیاد 934
لک@@ 934
چترال 934
الحدیث 933
سترہ 933
مذکور 933
پکڑ 933
ہاشم 933
یونس 933
al 932
ایام 932
سکونت 932
طبع 932
لغت 932
میگزین 932
الي@@ 931
جاسکتی 930
جسٹس 930
عاش@@ 930
ہندوؤں 930
تعالی 929
داخلی 929
بائی@@ 928
توا@@ 928
حرم 928
زیوں 928
سلامتی 928
کہلاتے 928
پائی@@ 927
چلانے 927
بز@@ 926
قریشی 926
قیامت 926
آگیا 925
انیا 925
ریٹائرمنٹ 925
عظمت 924
مورخ 924
کہانیاں 924
1960 923
بہاولپور 923
شافعی 923
شیو 923
کوش@@ 923
ماہی 922
ٹریٹ 922
10.@@ 921
تاہے 921
سیالکوٹ 921
عقل 921
عیسیٰ 921
محسن 921
ناز 921
نوجوانوں 921
1950 919
صدارت 919
مدیر 919
تیر 918
جملہ 918
ضبط 918
قد 918
قدر@@ 918
Municipality 917
قدرت 917
ویٹ 917
زمان 916
صنف 916
طوفان 916
غزنوی 916
مراٹھی 916
نوی 916
گاہوں 915
بناتے 914
بھال 914
وسكونسن 914
استع@@ 913
بِ 913
بیسویں 913
ذہن 913
فرید 913
فضائیہ 913
مزاحیہ 913
الخط 912
ساح@@ 912
ٹيكساس 912
حفظ 911
خراج 911
ہوسکتا 911
جل 910
ناظم 910
1947 909
باللہ 909
خلا@@ 909
لسانی 909
نہر 909
آنکھ 908
حق@@ 908
فورٹ 908
لز@@ 908
مزاج 908
پوجا 908
کرد 908
کہاں 908
گرما 908
رع@@ 907
زیب 907
پٹی 907
ادوں 906
جائز 906
دیت 906
منص@@ 906
نوی@@ 906
ني 906
پرانا 906
اوس@@ 905
قدمی 905
ناب@@ 905
150 904
بدلے 904
تکلیف 904
جام 904
ساخت 904
ویت 904
لاکھوں 903
متوا@@ 903
اسکولوں 902
مدار 902
آرمینیا 901
بي 901
ستر@@ 901
مسند 901
میڈ@@ 901
1999ء 900
ذخیرہ 900
شہاب 900
مبینہ 900
کوٹ@@ 900
گلگت 900
ایڈاہو 899
فضا 899
گنگا 899
امری@@ 898
ہون 898
بھر@@ 897
جنگجو 897
حمد 897
دامن 897
زبیر 897
اعمال 896
جائ@@ 896
سرہ@@ 896
شائ@@ 896
عباس@@ 896
قیاس 896
ندا 896
دام@@ 895
رابرٹ 895
سیریل 895
نیت 895
ہڑ@@ 895
آپری@@ 894
تمہیں 894
کیٹ 894
بیش 893
روک@@ 893
سیکرٹری 893
فرینکلن 893
ڈیوڈ 893
گیٹ 893
جارجيا 892
فیل@@ 892
نگاہ 892
پھل 892
ڈراموں 892
کاو@@ 892
کینی@@ 892
نازی 891
ويل 891
پلیٹ 891
ہانی 891
ہندو@@ 891
اظ@@ 890
کنیکٹیکٹ 890
04 889
اجداد 889
گزار 889
C@@ 888
اوراس 888
لب 888
مرنے 888
يَ@@ 888
کلے 888
کھیل@@ 888
اتار 887
راجستھان 887
ﻋ@@ 887
امراض 886
سیاحت 886
عثمانیوں 886
ٹار@@ 886
گرے 886
جع@@ 885
ریاض@@ 885
لیاں 885
المطلب 884
ضہ 884
مای@@ 884
ایکشن 883
سرپرستی 883
صفر 883
نصب 883
چیزیں 883
یونٹ 883
قاہرہ 882
لنکن 882
مغربي 882
نکلے 882
يارك 882
جنگلات 881
طی 881
لغ@@ 881
مصنوعات 881
ڈبلن 881
کال 881
ہوسکتی 881
بھیجے 880
جمع@@ 880
ضیاء 880
کہانیوں 880
O@@ 879
i 879
جنکشن 879
منظ@@ 879
نظامی 879
کارکنوں 879
1998ء 878
آش@@ 878
فص@@ 878
لح@@ 878
مبار@@ 878
وج 878
چیمپئن 878
کشتی 878
1998 877
ائیڈ 877
كس 877
یسوع 877
تاً 876
دہائیوں 876
مغلیہ 876
خیر@@ 875
ہمد@@ 875
عد 874
ورجينيا 874
کشمیری 874
ہوچکی 874
خز@@ 873
دائی 873
شیوں 873
فورا 873
ویئر 873
یکساں 873
1960ء 872
دیہات 872
سرد 872
سیا 872
ٹائم 872
کبیر 872
ہز@@ 872
پڑھی 871
گنے 871
ﮐﮯ 871
اصولوں 870
اطالیہ 870
تلامذہ 870
خالص 870
خلیل 870
ڈینی@@ 870
اچ@@ 869
متحد 869
ونٹ 869
اختلافات 868
اخراجات 868
امات 868
خاص@@ 868
روزانہ 868
نغ@@ 868
تعین 867
سمجھنے 867
قفقاز 867
کاک@@ 867
کینیا 867
گنبد 867
القادر 866
ترو@@ 866
ستانی 866
سلمہ 866
ضروریات 866
ضی@@ 866
ماخوذ 866
ناس@@ 866
ٹیل 866
ah 865
اوب@@ 865
خانوں 865
لمبی 865
مفید 865
z@@ 864
» 864
اننگ 864
سازش 864
ژاں 864
گلیشیر 864
گہری 864
روی@@ 863
ڈیو 863
کمپنیوں 862
باغیوں 861
سرکار 861
فیل 861
منصوبوں 861
ڈھانچے 861
بقول 860
خام 860
حَ@@ 859
عرف 859
موری@@ 859
نوری 859
کیمیائی 859
ﺘ@@ 859
0,@@ 858
تابعین 858
جزوی 858
ٹروں 858
چھٹی 858
گزشتہ 858
ماہنامہ 857
نوب@@ 857
ٹھے 857
07 856
آنا 856
بھاگ@@ 856
خاموش 856
سبھی 856
سين@@ 856
عمارتوں 856
ڈیٹا 856
600 855
district 855
بیل@@ 855
دوستی 855
عنصر 855
مہار@@ 855
ولس 855
خطرے 854
سڈنی 854
نوآبادیاتی 854
کھیلتے 854
آٹھویں 853
إِ@@ 853
انتہا 853
بچنے 853
خوار@@ 853
ذوق 853
فحش 853
موہن 853
يك@@ 853
پری 853
کوا@@ 853
ائیت 852
اصلی 852
بالائی 852
رفتہ 852
عہدوں 852
غالباً 852
كل@@ 852
دت 851
سوائے 851
سورۃ 851
معمول 851
نفرت 851
نون 851
وئی 851
ڈا@@ 851
ڈس 851
اڑ 850
بگ 850
صلاح 850
لس@@ 850
مربوط 850
تان@@ 849
لاک 849
کونسلیں 849
گہرا 849
الحال 848
الوں 848
سس 848
عق@@ 848
پرواز 848
is 847
مذمت 847
مہینوں 847
نصر 847
ورژن 847
گوئ@@ 847
یٰ 847
1,4@@ 846
لارڈ 846
پشتون 846
انصار 845
فسادات 845
مکر@@ 845
نکل@@ 845
ٹیاں 845
انڈسٹری 844
ساحلی 844
سوشل 844
قرارداد 844
ليك 844
پریشان 844
چودھری 844
الا@@ 843
انتداب 843
اہلیہ 843
ریٹائر 843
لگائے 843
1ھ 842
سدھ@@ 842
مول 842
Z@@ 841
ذہنی 841
زان 841
شروعات 841
صارفین 841
معی@@ 841
نظر@@ 841
کیہ 841
ایلن 840
سینکڑوں 840
نڈی 840
کیس 840
تاجر 839
تال@@ 839
تجربات 839
سپاہی 839
غلطی 839
کول 839
اکائی 838
جلا 838
خش@@ 838
رن@@ 838
وسی@@ 838
چھوڑنے 838
گوار 838
پوتے 837
بلایا 836
تاب 836
دستاویزات 836
دوس@@ 836
ساک@@ 836
علوی 836
قلب 836
کیم@@ 836
زل 835
میڈیسن 835
United 834
بلغ@@ 834
خلائی 834
ونگ@@ 834
پھیلی 834
ہنری 834
1989 833
وري 833
آفتاب 832
امامت 832
تلفظ 832
وص@@ 832
گرانٹ 832
انتظار 831
تحریری 831
تدفین 831
پہنچایا 831
چوک 831
1997 830
بات@@ 830
بع 830
لِ 830
نمائندہ 830
يْ@@ 830
کیر 830
گورن@@ 830
یان 830
بسر 829
ـ@@ 829
میزبانی 829
یوگنڈا 829
حتمی 828
رم 828
شوکت 828
مدھ@@ 828
تھامس 827
کلارک 827
گلوکارہ 827
ہوچکا 827
ارجنٹائن 826
الزامات 826
بابر 826
سرگودھا 826
قض@@ 826
لانگ 826
میجر 826
جج 825
دشمنی 825
800 824
اُردو 824
حلقوں 824
مدی@@ 824
کف@@ 824
گھاٹ 824
1,6@@ 823
امارت 823
حک@@ 823
رِ@@ 823
مدارس 823
پڑھتے 823
کوب@@ 823
زاد 822
سونا 822
فاس@@ 822
قل 822
لطف 822
لمح@@ 822
نظیر 822
ٹیک@@ 822
پلے 822
ہرزیگووینا 822
ادھر 821
برآمد 821
توپ 821
W@@ 820
باتوں 820
پین@@ 820
الیس 819
دوا@@ 819
خزانہ 818
رومان@@ 818
كار@@ 818
لیل 818
q@@ 817
اموات 817
ایلی@@ 817
سیکس 817
وچ 817
ٹز 817
پوپ 817
کھر 817
minor 816
رتی 816
رضاک@@ 816
مسو@@ 816
پنے 816
کشش 816
ہٹلر 816
الام@@ 815
بای@@ 814
درآمد 814
سمجھے 814
وامی 814
چاہئے 814
آغ@@ 813
آمد@@ 813
حلقے 813
زادہ 813
متع@@ 813
1992ء 812
جور@@ 812
جیفرسن 812
شرا@@ 812
ہفتے 812
01 811
1940 811
ایشیاء 811
حیاتیات 811
نصیر 811
یہودیت 811
بھرتی 810
تار 810
تمہاری 810
نَ@@ 810
کالا 810
کالی 810
تھوڑی 809
ستارے 809
معاشیات 809
ڈیز 809
افرا@@ 808
رہنا 808
پچیس 808
1950ء 807
تض@@ 807
دلی@@ 807
مساوی 807
ٹائمز 807
کھڑی 807
municipality 806
آگاہ 806
ئس 806
احد 806
اریوں 806
اسلوب 806
الیہ 806
سمجھی 806
ہاکی 806
b@@ 805
اسلم 805
اکر 805
راں 805
غلامی 805
فیئر@@ 805
کرسکتے 805
کسی@@ 805
ہؓ 805
1996 804
e@@ 804
انسانیت 804
توب@@ 804
جمعیت 804
زنی 804
ماؤ@@ 804
وایا 804
ویلا 804
پوچھ@@ 804
الدين 803
انجن 803
پیٹر 803
اولمپکس 802
جاؤ 802
جات@@ 802
دستور 802
دول@@ 802
قات 802
وَ 802
پرتگالی 802
گان@@ 802
ہمارا 802
ایش@@ 801
بولتے 801
عن 801
قائل 801
پھر@@ 801
ادوار 800
اپنایا 800
بزرگوں 800
رانا 800
مرکب 800
ناکامی 800
وسعت 800
جوڑے 799
ہتر 799
ئیں 798
تل 798
جاکر 798
مام 798
وتھ 798
ویسٹ@@ 798
کمرے 798
b 797
آہ@@ 797
دوستوں 797
1918 796
المن@@ 796
الیکشن 796
سالم@@ 796
ورزی 796
کینٹ 796
بلتستان 795
تاج@@ 795
لٹن 795
میزائل 795
میک@@ 795
یاب 795
دف@@ 794
مثالیں 794
پیٹر@@ 794
استحکام 793
اصفہان 793
فطری 793
قار@@ 793
مالیاتی 793
مباح@@ 793
مگ@@ 793
ٹرین 793
اثنا 792
تُ@@ 792
رنجیت 792
ساس@@ 792
موسیقار 792
کیم 792
ھم 792
الرشید 791
عنایت 790
لیبیا 790
مائل 790
ہاشمی 790
E@@ 789
النہار 789
جینی@@ 789
ریاں 789
نثر 789
ویر@@ 789
البر@@ 788
وْ@@ 788
گور 788
رول 787
لاش 787
ڈھاکہ 787
کارپوریشن 787
دوا 786
مسٹر 786
کشی@@ 786
بلقان 785
حجر 785
لائی@@ 785
کہلاتی 785
الاسکا 784
الحاق 784
توقع 784
قیمتی 784
ملوث 784
منتقلی 784
يت 784
چو 784
ڈاک 784
ہوچکے 784
افضل 783
اگلی 783
بٹلر 783
موقف 783
نیہ 783
گراف 783
تراجم 782
فور 782
محققین 782
کانگ 782
رپور@@ 781
مید 781
پیرش 781
کرہ 781
گایا 781
تغ@@ 780
سلسل@@ 780
مراحل 780
مسافر 780
گرینڈ 780
1997ء 779
رام@@ 779
میز 779
دیکھے 778
لوب 778
پریمیئر 778
تحریروں 777
ثر 777
غلبہ 777
لوئس 777
پلان@@ 777
گرجا 777
ہوٹل 777
1993 776
تسلط 776
خطیب 776
نذر 776
ولد 776
ٹھیک 776
چارج 776
یہو@@ 776
مالیہ 775
نظریاتی 775
یب 775
sur 774
آسام 774
اوران 774
بازنطینی 774
جیک 774
ذی 774
مارکس 774
مثلا 774
ملت 774
کرمان 774
کلیسیا 774
I@@ 773
Sh@@ 773
ترقیاتی 773
دسویں 773
شجرہ 773
Y@@ 772
آباد@@ 772
ستانہ 772
علامات 772
لکھیں 772
پرائمری 772
چکر 772
تیرے 771
جوڑ 771
روزگار 771
نبھ@@ 771
وزیر@@ 771
1920 770
اوت@@ 770
بادشاہی 770
ومن 770
گریٹ 770
گیلانی 770
93.@@ 769
قدامت 769
مستعمل 769
موثر 769
کارروائیوں 769
گوری@@ 769
اضافے 768
تیری 768
عزم 768
لارنس 768
موضع 768
وائیومنگ 768
۰@@ 768
بج@@ 767
داں 767
مرو 767
وض@@ 767
ولایت 767
خطرناک 766
ساوتھ 766
طارق 766
نصاب 766
کپتانی 766
States 765
d@@ 765
امجد 765
اونٹ 765
مچھلی 765
تخمینہ 764
جلدوں 764
حجاز 764
طالب@@ 764
نمودار 764
12.@@ 763
انوی 763
تحصی@@ 763
روان@@ 763
لیکر 763
کیرئیر 763
گزرنے 763
ہرے 763
1993ء 762
Ohio 762
اسی@@ 762
ریکار@@ 762
سروے 762
سوڈان 762
کنی 762
قیدیوں 761
چائ@@ 761
ہرا@@ 761
1971ء 760
ایکسپریس 760
جمی@@ 760
ذوال@@ 760
شرعی 760
طیارے 760
پوں 760
گرفتاری 760
1996ء 759
ادر 759
ارض 759
ارڈ 759
جنگجوؤں 759
جنی@@ 759
قربانی 759
نفاذ 759
ووڈ@@ 759
250 758
الٰہی 758
ستارہ 758
مانتے 758
میری@@ 758
نکالا 758
ونڈ 758
ڈور 758
المومنین 757
ایتھ@@ 757
بحیثیت 757
جدا 757
خام@@ 757
دیکھیں 757
مریض 757
مشغول 757
وینی@@ 757
پاب@@ 757
کارڈ 757
F@@ 756
اولی@@ 756
مسلک 756
نقشہ 756
پالی 756
یوٹاہ 756
تشریح 755
برٹ 754
دوب@@ 754
ستاروں 754
ستوں 754
سیلاب 754
فوجیں 754
at 753
اعی 753
ضرب 753
واسطہ 753
کمان@@ 753
کیپ@@ 753
ہوجائے 753
ہیرو@@ 753
یلی 753
y@@ 752
ضم 752
طبقات 752
میٹرک 752
ناڈو 752
هُ 752
اوبلاست 751
برو 751
سختی 751
ماجد 751
نٹل 751
هِ 751
چوری 751
ڈان 751
V@@ 750
en 750
بخارا 750
بقیہ 750
خر 750
قری@@ 750
متوں 750
کرائی 750
کعب 750
700 749
آلو@@ 749
ازیں 749
منع 749
مکتب 749
ندیوں 749
ہمہ 749
فلی@@ 748
فیت 748
متعین 748
ﻟ@@ 748
تکنیکی 747
خصوصاً 747
خلفاء 747
1941 746
احمد@@ 746
بالترتیب 746
بوجھ 746
بڑھانے 746
ثق@@ 746
قلمی 746
1,3@@ 745
10,@@ 745
11.@@ 745
تعالٰی 745
زیں 745
کھول 745
تاجکستان 744
ثی 744
جبل 744
جز@@ 744
رحیم 744
شد 744
ناد 744
کلنٹن 744
1988ء 743
} 743
تحلیل 743
حامد 743
مدنی 743
مقالہ 743
مکی 743
ٹون 743
ہمت 743
ہٹا 743
1,8@@ 742
195@@ 742
I 742
مقابل 742
آم@@ 741
جذ@@ 741
رسالت 741
لوی 741
لکھنا 741
مجاہدین 741
افسانے 740
بہتری 740
طریقت 740
فقیر 740
قس@@ 740
نقش 740
یقی@@ 740
تائید 739
سوی 739
طلباء 739
مسئلے 739
نْ@@ 739
ٹین@@ 739
گرا 739
بٹ@@ 738
تھر@@ 738
فلو@@ 738
لمبے 738
مزدور 738
پایہ 738
ڑیاں 738
انچ 737
فرنٹ 737
کرشن 737
1,7@@ 736
آسٹ@@ 736
باکو 736
جذبہ 736
شہز@@ 736
صنع@@ 736
فيلڈ 736
وابستگی 736
کیمبرج 736
1988 735
جلاوطنی 735
خلیات 735
صاحبزادے 735
معاش@@ 735
پسندیدہ 735
کرن 735
کیلی 735
ورنہ 734
کرانے 734
1977ء 733
c 733
u 733
اصرار 733
بلاک 733
ساٹھ 733
قات@@ 733
ماری@@ 733
البم 732
حت 732
خوف@@ 732
فرن@@ 732
مریخ 732
چوہدری 732
ڈنمارک 732
اورنگ 731
دید 731
رئیس 731
روت 731
لیڈر 731
ملازم 731
واہ 731
ڈینس 731
فلکیات 730
مبی@@ 730
مسوري 730
واک 730
ورمونٹ 730
پڑھائی 730
گولڈ 730
14.@@ 729
دشمنوں 729
رون@@ 729
ستم 729
شکایت 729
قبر@@ 729
نقاد 729
چراغ 729
1,5@@ 728
آئندہ 728
اتِ 728
ساہ@@ 728
نکلنے 728
13.@@ 727
1985ء 727
آسٹریلیائی 727
جنگلی 727
حمزہ 727
زینب 727
شب@@ 727
معرکہ 727
موی@@ 727
نصیب 727
پیرا 727
پیچیدہ 727
اتر@@ 726
الاول 726
اوور 726
بتاتے 726
حقائق 726
شیعوں 726
مرہ@@ 726
وجے 726
پلی 726
پینے 726
کلمہ 726
ائش 725
بوت@@ 725
183@@ 724
2ھ 724
امتیازی 724
اُنہوں 724
سرگرمیاں 724
سزائے 724
مفت 724
اسود 723
منسوخ 723
پوس@@ 723
ہول 723
ائم 722
جانتا 722
زِ 722
سرائیکی 722
سکریٹری 722
شیطان 722
ندھ@@ 722
وائس 722
et 721
اسٹو@@ 721
دب@@ 721
دَ@@ 721
سکون 721
پیرا@@ 721
کیا@@ 721
ﺪ@@ 721
مائیکل 720
مستند 720
ہمدر@@ 720
1995ء 719
بک@@ 719
سیکیورٹی 719
لیو 719
پچھ@@ 719
ڈپٹی 719
حنفی 718
سنبھال 718
عورتیں 718
اشتہ@@ 717
قواعد 717
نظمیں 717
پابند 717
ہوجاتے 717
ابہ 716
پارلیمانی 716
پوائنٹ 716
چوبیس 716
کھلے 716
سیک@@ 715
منقسم 715
میلبورن 715
نفسیات 715
وزہ 715
ۃ@@ 715
اسپ@@ 714
باکس 714
عالمگیر 714
اسباب 713
انسی 713
بیوں 713
صحبت 713
چہرے 713
گروپوں 713
اسٹریٹ 712
افغ@@ 712
جاس@@ 712
رسائل 712
پول 712
1939 711
بیڑے 711
فیہ 711
مرید 711
ٹکڑے 711
ڑو 711
1971 710
Bot 710
انکشاف 710
دستے 710
رحم 710
کعبہ 710
1944 709
1982ء 709
j@@ 709
تھک 709
خطبہ 709
نتی@@ 709
واج 709
پیر@@ 709
کانوں 709
کسانوں 709
کیل@@ 709
ہزارہ 709
ﮐﯽ 709
40@@ 708
ریشن 708
فوائد 708
مجدد 708
ڈرامہ 708
۹@@ 708
1989ء 707
name 707
بزنس 706
تقری@@ 706
جاوا 706
رخصت 706
ضے 706
وصیت 706
وِ@@ 706
پلو@@ 706
پہچ@@ 706
Kh@@ 705
بیریا 705
سنگاپور 705
يات 705
پروڈکشن 705
چم@@ 705
کاس 705
گرہن 705
براعظم 704
سرگرمی 704
قمر 704
ٹرا@@ 704
چوتھا 704
00 703
روپیہ 703
مہاراجا 703
نٹن 703
یْ@@ 703
« 702
تہذی@@ 702
فرقے 702
ہلا@@ 702
نفسیاتی 701
کھل 701
ؐ 700
تھر 700
جھڑ@@ 700
دوس 700
فون@@ 700
مخلوق 700
کرائے 700
1995 699
بیمار 699
جز 699
خت 699
غار 699
لانگ@@ 699
نیدرلینڈز 699
ٹا@@ 699
پھو@@ 699
چنگ@@ 699
ڈي 699
# 698
اوهایو 698
تنقیدی 698
سار 698
فرعون 698
لاتی 698
نمونے 698
کھلی 698
کیپر 698
گلا@@ 698
گھوم@@ 698
ہانگ 698
الو 697
اُنہیں 697
شہر@@ 697
مدر@@ 697
ویکیپیڈیا 697
پتا 697
s@@ 696
الدولہ 696
دیستریک 696
سوت@@ 696
سٹو@@ 696
قابض 696
منط@@ 696
منگول 696
میا 696
یز@@ 696
180@@ 695
1979ء 695
جھنگ 695
دلچسپ 695
دیسی 695
مبر 695
میٹروپولیٹن 695
نظریے 695
گریڈ 695
1948 694
اموی 694
بینک@@ 694
رگ@@ 694
شیر@@ 694
قادر 694
موسوم 694
ڈیلاویئر 694
کانتی 694
المع@@ 693
تنہا 693
راشد 693
رِ 693
ستا 693
سینا 693
سیکنڈ 693
مکالم@@ 693
مکھ@@ 693
نغمہ 693
ڑھ 693
گردش 693
گوا 693
ینگ 693
آگرہ 692
اٹھ 692
اہلِ 692
ماحولیاتی 692
کورس 692
h@@ 691
ئے@@ 691
سوا@@ 691
عب 691
نائی@@ 691
ڈن@@ 691
رين 690
لہجہ 690
چنا 690
أ@@ 689
ابرا@@ 689
امرتسر 689
قیدی 689
ویو 689
پارہ 689
کب 689
آس@@ 688
ایریزونا 688
جائداد 688
دھرم 688
کھلا 688
ﮩ@@ 688
اشترا@@ 687
اغوا 687
تارکین 687
تسم@@ 687
لطیف 687
تلا@@ 686
سارہ 686
صورتحال 686
مطالعے 686
کھوار 686
گھی@@ 686
120 685
اصطلاحات 685
العلماء 685
امِ 685
بینڈ 685
جیب 685
عکس 685
پیمائش 685
1974ء 684
استحصال 684
بائیس 684
قصہ 684
ﻮ 684
اسپتال 683
الوی 683
ایتھوپیا 683
بعہ 683
رجب 683
عبدالح@@ 683
قیہ 683
یحی@@ 683
دانہ 682
سیدہ 682
صف 682
غربت 682
مناظر 682
نَ 682
ھو@@ 682
1994 681
ترجمان 681
تنظی@@ 681
جابر 681
جھگ@@ 681
دفاتر 681
رویہ 681
سراج 681
قابلِ 681
مجاہد 681
ندوی 681
چاہتی 681
کاش 681
as 680
دستاویز 680
راد 680
مخالفین 680
ولو 680
ٹاپ 680
پورٹو 680
اجن@@ 679
اشع@@ 679
سفار@@ 679
عذاب 679
میزبان 679
پونچھ 679
or 678
ارتقا 678
ایکس 678
باقر 678
فس@@ 678
فوں 678
گوجرانوالہ 678
احسان 677
بظاہر 677
بلین 677
تاری@@ 677
قندھار 677
مطلق 677
نتالیس 677
وراثت 677
وکالت 677
انڈے 676
اپیل 676
تبدیلیاں 676
توحید 676
شکل@@ 676
مرحلہ 676
ٹیلی@@ 676
پاد@@ 676
پروگراموں 676
ہد@@ 676
ہمایوں 676
ہي@@ 676
رئ@@ 675
سرب@@ 675
ملٹری 675
ڈسن 675
اعوان 674
انیاں 674
ایڈورڈ 674
بق@@ 674
دیواروں 674
رکاوٹ 674
لتا 674
واق@@ 674
ٹیز 674
1000 673
اري 673
بنائیں 673
بين@@ 673
ریکو 673
زلزلے 673
لك@@ 673
نمبر@@ 673
ۓ 673
ابت 672
اتھ@@ 672
اریہ 672
برتن 672
داعش 672
سکاٹ 672
كري@@ 672
چھت 672
ڈک@@ 672
ڈیجیٹل 672
گرمی 672
بڑھنے 671
حان 671
خالق 671
ریٰ 671
سپاہیوں 671
فنڈ 671
میٹ@@ 671
وضع 671
ومت 671
2022 670
by 670
افسوس 670
انٹر 670
بناتا 670
تعل@@ 670
حجاج 670
لیت 670
1984ء 669
village 669
درحقیقت 669
متنازع 669
نذیر 669
واری 669
پاور 669
گھر@@ 669
11,@@ 668
1930 668
22@@ 668
اط 668
افتتاح 668
الرحمان 668
بہرائچ 668
بیٹھا 668
زیدی 668
سٹوں 668
سچ 668
لیز 668
يور@@ 668
گہرائی 668
2,0@@ 667
ar@@ 667
آدمیوں 667
اوت 667
غائب 667
ّی 667
گنگ@@ 667
امر@@ 666
امرا 666
بڑھتے 666
جھو@@ 666
داغ 666
ملازمین 666
میں@@ 666
ہروں 666
1965ء 665
ارہویں 665
بہادری 665
تدریسی 665
ثے 665
جڑ@@ 665
دگار 665
زبانی 665
طہ 665
نعیم 665
چہرہ 665
اوس 664
سائز 664
لال@@ 664
چنا@@ 664
ڈیموکریٹک 664
1972ء 663
مصطفی 663
وث@@ 663
پیروکار 663
چیچن 663
کھاتے 663
گہ 663
ﺣ@@ 663
ایس@@ 662
خوبصورتی 662
عکاسی 662
وارانہ 662
ہالی 662
بنتی 661
مين 661
1975ء 660
خور 660
سوشلسٹ 660
لڑکا 660
مشین 660
ً 660
ہمس@@ 660
الکاہل 659
الیون 659
بري@@ 659
محترم 659
پرتگال 659
ڈس@@ 659
کائ@@ 659
ﮞ 659
انکی 658
سویں 658
شہریت 658
فلسفی 658
ٍ 658
کمانڈ 658
الذکر 657
اواخر 657
ایجن@@ 657
جنھیں 657
حي@@ 657
ریزی 657
سنبھ@@ 657
فاروقی 657
نگے 657
پاپ@@ 657
گاڑیوں 657
بھٹی 656
سڑکوں 656
عادل 656
معزول 656
نایا 656
دک 655
سرداروں 655
متفق 655
مسی@@ 655
میئن 655
ٹڈ 655
چھتیس 655
یخ 655
la 654
تاث@@ 654
خوان 654
دینار 654
صحرا 654
لگائی 654
مارک 654
کوالی@@ 654
گریجویٹ 654
تفصیلی 653
مہی@@ 653
وزی@@ 653
کیوبا 653
بیری 652
تامل 652
تشیع 652
روسیوں 652
شق@@ 652
لفظی 652
مولا 652
نزول 652
ٹکٹ 652
کارنامہ 652
آبی 651
اِسی 651
درانی 651
مؤرخ 651
کاف@@ 651
19ء 650
آرتھر 650
اص 650
بچا 650
زکریا 650
لوزیانا 650
واس@@ 650
اخلا@@ 649
بزر@@ 649
جال 649
جلو@@ 649
سواری 649
قصور 649
مم@@ 649
میرا@@ 649
چاول 649
1984 648
آمادہ 648
خاصی 648
سیارے 648
عقبہ 648
مرضی 648
1986 647
اسٹالن 647
ذر 647
سنجی@@ 647
مرا 647
مقد@@ 647
واڈور 647
يني 647
اوٹ@@ 646
ایگزیکٹو 646
بازوں 646
رهٔ 646
روٹی 646
معجز@@ 646
وجی 646
1956ء 645
بصری 645
سائنس@@ 645
نجف 645
الاح@@ 644
الہی 644
موڑ 644
ناف 644
200@@ 643
تبریز 643
تہجی 643
خمینی 643
درہم 643
صر 643
صفائی 643
ہوش 643
35@@ 642
استدلال 642
اندازے 642
جادو 642
حف@@ 642
دوچار 642
ماننے 642
گاری 642
گرافی 642
ﮔ@@ 642
بچھ@@ 641
داست@@ 641
دبئی 641
رچرڈ 641
سیال 641
ممالك 641
کسان 641
1979 640
جماع@@ 640
دھماکے 640
فائرنگ 640
قاع@@ 640
لیون 640
چیسٹر 640
۳@@ 640
جنوں 639
خلاصہ 639
شل@@ 639
عج@@ 639
كور@@ 639
لاً 639
معصوم 639
پڑتی 639
ڈین@@ 639
احکامات 638
اض 638
رسومات 638
سائی 638
صحی@@ 638
محافظ@@ 638
ڈٹ 638
گنی@@ 638
یوری@@ 638
1,9@@ 637
اطاعت 637
بے@@ 637
نوح 637
1991ء 636
k 636
t 636
تعبیر 636
تمغا 636
شاخیں 636
پرنسپل 636
گزی@@ 636
1987ء 635
اؤن@@ 635
بین@@ 635
جدہ 635
دوڑ 635
سات@@ 635
صور@@ 635
لگیں 635
مدھیہ 635
ندیم 635
ونسب 635
کاغذ 635
کلیدی 635
ہدف 635
ہشام 635
1994ء 634
بندر 634
بیتی 634
تلاوت 634
داء 634
روش 634
ستون 634
سٹي 634
سپورٹ 634
شعب@@ 634
كيرولائنا 634
یا@@ 634
le 633
آرتھوڈوکس 633
مود 633
نقوی 633
کورونا 633
ﺴ@@ 633
تصوی@@ 632
رہائی 632
پودوں 632
پینٹ@@ 632
چلتے 632
ڈال@@ 632
گندم 632
re@@ 631
افسانوں 631
افسانوی 631
تیاں 631
لاد 631
نوم@@ 631
انجیل 630
اٹھانے 630
اینٹی 630
جشن 630
دلائل 630
جلیل 629
دون 629
قحط 629
قوں 629
كان@@ 629
واسط@@ 629
ھر 629
ہدایات 629
اکیس 628
بابل 628
لازم 628
ماڈ@@ 628
ویس 628
ڈومیسٹک 628
اعتراض 627
ایجوکیشن 627
بشیر 627
تذ@@ 627
سہارا 627
سیدنا 627
فِ 627
مردہ 627
نپولین 627
وارن 627
چلائی 627
بیٹیاں 626
حدیث@@ 626
شاگردوں 626
ظر 626
مجسمہ 626
وریا 626
وع 626
چشمہ 626
ڈرو@@ 626
کہلا@@ 626
1985 625
ئرو@@ 625
اتھارٹی 625
اینج@@ 625
جئے 625
شان@@ 625
فتنہ 625
مصنوعی 625
{ 624
اسٹار 624
زیادتی 624
عدی 624
متصل 624
پیشکش 624
ڈیو@@ 624
گیندوں 624
36@@ 623
اندلس 623
ایسٹ@@ 623
سجاد 623
شنوں 623
فیکٹ@@ 623
كيليفورنيا 623
لوئر 623
لینڈ@@ 623
میٰ 623
ٹرا 623
پیری@@ 623
چڑھ 623
کمشنر 623
بنتے 622
بولنگ 622
تائی 622
تاجروں 622
رچ@@ 622
سپہ 622
سہر@@ 622
فیشن 622
پہنچانے 622
کیرولینا 622
ہیملٹن 622
آسم@@ 621
اقدار 621
اقوال 621
اکٹھا 621
ساڑھے 621
مروان 621
میانمار 621
ناظ@@ 621
پیدا@@ 621
ابلاغ 620
اصغر 620
النجوم 620
الیکٹ@@ 620
بڑھایا 620
رای@@ 620
ساخت@@ 620
17.@@ 619
ارس 619
جاتاہے 619
رکھیں 619
عے 619
نیازی 619
1986ء 618
New 618
اکاؤن@@ 618
بنیں 618
ظہ 618
عرفان 618
مفادات 618
ملہ 618
نامعلوم 618
ﻣﯿﮟ 618
سرپرست 617
سفر@@ 617
فصل 617
محک@@ 617
نہرو 617
ورم 617
کیپٹن 617
آنکھیں 616
أت 616
اخت@@ 616
بارگاہ 616
عابد 616
كُ@@ 616
مسیحیوں 616
چلتی 616
گم 616
گون 616
1930ء 615
آرٹ@@ 615
رشتے 615
سوات 615
سینٹرل 615
فاط@@ 615
فراغت 615
قاد@@ 615
وژن 615
ہالینڈ 615
یف 615
12,@@ 614
روح@@ 614
زمان@@ 614
سکھ@@ 614
مترجم 614
ٌ 614
گام@@ 614
ﺷ@@ 614
n 613
آئس 613
باؤلر 613
دوری 613
رانہ 613
لش@@ 613
ماریون 613
ولف 613
وٹ@@ 613
.com 612
16.@@ 612
g@@ 612
اع 612
ایٹمی 612
بانو 612
برن 612
تبصرہ 612
حتی 612
روا 612
سڑ@@ 612
نمائندے 612
کروائی 612
گہرے 612
اونچی 611
مجتہ@@ 611
محم@@ 611
مقدونیہ 611
ورٹ 611
ڈفورڈ 611
ہجوم 611
براؤن 610
تعمیرات 610
راف 610
روکا 610
محی 610
نسواں 610
وحید 610
َا 610
1987 609
m 609
دود 609
راغب 609
فقہی 609
چائے 609
ڑھے 609
ہموار 609
ﺋ@@ 609
آخ@@ 608
بمباری 608
تصادم 608
تنے 608
سیاحوں 608
قوتوں 608
لنک@@ 608
وحی 608
گھنٹہ 608
1978ء 607
1981ء 607
اسٹاک 607
رومیوں 607
سد@@ 607
سننے 607
منشی 607
ﻥ 607
اجزاء 606
تقویت 606
جلدی 606
سولہویں 606
مقبرے 606
وزیرا@@ 606
C 605
q 605
آزادانہ 605
ائب 605
اخراج 605
دانش@@ 605
ربانی 605
فال 605
مزاح 605
میوں 605
پرہ@@ 605
چھوڑا 605
ہِ 605
1975 604
p@@ 604
الشان 604
امریکیوں 604
باء 604
تردید 604
جاگیر@@ 604
جٹ 604
ضل@@ 604
فوق@@ 604
معافی 604
ٹیج 604
ینگ@@ 604
یوکر@@ 604
1919 603
48@@ 603
اطلاق 603
خسرو 603
دیوبندی 603
سخن 603
سنبھالا 603
معنوں 603
پاتے 603
کاؤن@@ 603
کمپ@@ 603
کوت@@ 603
کِ@@ 603
a@@ 602
ak 602
انجینئری 602
اه@@ 602
تحسین 602
عار@@ 602
قیصر 602
پسند@@ 602
کرسٹ@@ 602
کہے 602
الزبتھ 601
تقویم 601
جوانی 601
رد@@ 601
سلی 601
شاهٔ 601
مرتض@@ 601
پتے 601
پشت 601
باقیات 600
جَ@@ 600
حجم 600
غلاموں 600
مبل 600
مکانی 600
مینے 600
نیات 600
چہارم 600
گيا 600
ہلال 600
ہیڈ@@ 600
اسکو@@ 599
اچھ@@ 599
تھوڑا 599
جک@@ 599
حلقهٔ 599
سینٹی 599
غزنی 599
نانا 599
نْ 599
نڈز 599
خدا@@ 598
درکار 598
طبع@@ 598
غزوات 598
قازقستان 598
پھینک@@ 598
179@@ 597
T20 597
بجٹ 597
تبت 597
غہ 597
نویس 597
پذیر 597
گنجائش 597
گیوں 597
18ء 596
1958ء 596
اکھ@@ 596
بنی@@ 596
تسمیہ 596
حد@@ 596
عامہ 596
موزوں 596
نمک 596
پھیلاؤ 596
گارڈ 596
1974 595
آکسفورڈ 595
ائد 595
افسر@@ 595
رحم@@ 595
سرحدوں 595
عام@@ 595
لہر 595
پختہ 595
ﺭ 595
1942 594
ation 594
زمرے 594
شرما 594
عوامل 594
لیفٹیننٹ 594
مائے 594
مقدمے 594
مگر@@ 594
نوا 594
ڑیا 594
انٹ@@ 593
ایبٹ 593
دما@@ 593
دہند@@ 593
صل 593
عدالت@@ 593
عطیہ 593
قسمتی 593
ٹرانس@@ 593
التے 592
اینٹ@@ 592
تمہارا 592
دیل 592
سہیل 592
مومن 592
ڈكوٹا 592
یونی@@ 592
تختہ 591
رابطے 591
سائنسز 591
شاپیل 591
پرستوں 591
کیمپس 591
station 590
ایکڑ 590
بست@@ 590
تبلی@@ 590
ترغیب 590
جائی@@ 590
رسالے 590
ممن@@ 590
ورد 590
پنڈ@@ 590
کوس 590
ہونی 590
1982 589
حم@@ 589
دستاویزی 589
عقیل 589
فتو@@ 589
لیاقت 589
مواصلات 589
میتھ@@ 589
واب 589
ينا 589
٭ 589
1976ء 588
اتوں 588
اینگلو 588
بدلہ 588
تسلسل 588
جبو@@ 588
سیر@@ 588
كى 588
گوج@@ 588
1949ء 587
1978 587
بیانات 587
جاننے 587
دھمکی 587
غل@@ 587
فري@@ 587
لمبا 587
مختاری 587
بیٹ 586
روان 586
شاد 586
غوث 586
ماب@@ 586
17ء 585
1983 585
اگ 585
تول@@ 585
عبی@@ 585
معاشرہ 585
منعقدہ 585
مکانات 585
کیشن 585
آخرت 584
ابہ@@ 584
ذر@@ 584
سوالات 584
لمیٹڈ 584
نرم 584
پسپ@@ 584
گران@@ 584
1973ء 583
سوٹا 583
قسمت 583
الب 582
بعید 582
تقریبات 582
دھن 582
شاعروں 582
شم 582
مجد@@ 582
محدثین 582
مسر@@ 582
مشق 582
lu 581
انیت 581
بنیادوں 581
تخلص 581
لبرل 581
مارنے 581
متح@@ 581
ً@@ 581
کلاں 581
آبنائے 580
اعلٰی 580
بدن 580
بولے 580
دستہ 580
سمتیہ 580
سپین 580
مجرم 580
نظموں 580
گروو 580
اسکاٹ 579
جانسن 579
درس@@ 579
شار 579
نکالنے 579
نیر 579
ائیووا 578
اقلی@@ 578
ریڈ@@ 578
سنگین 578
قدس 578
لور@@ 578
مظاہرے 578
آئيووا 577
آفیسر 577
ائيووا 577
افعال 577
الي 577
اين@@ 577
حب 577
فام 577
فو 577
لارا 577
متیں 577
ہیز 577
n@@ 576
حض@@ 576
دیوں 576
فنکار 576
ناقدین 576
چال 576
ڑک@@ 576
گولڈن 576
ہلاکتوں 576
12ء 575
انقرہ 575
ستائیس 575
عنہا 575
غزہ 575
محافظ 575
معتبر 575
ڈھانچہ 575
جنگیں 574
رومانوی 574
صفات 574
قوموں 574
لونگ 574
معانی 574
نائٹ 574
وغ@@ 574
om@@ 573
عمارتیں 573
لیف 573
ّت 573
for 572
اتب 572
اللهٔ 572
ایٹ 572
دستوں 572
صلیبی 572
عقیدے 572
فکری 572
قرب@@ 572
نری 572
يك 572
پولس 572
1946ء 571
1969ء 571
38@@ 571
افتخار 571
باطنی 571
توازن 571
راس@@ 571
رجی 571
رقبے 571
سراہا 571
فتا@@ 571
لانا 571
مقت@@ 571
مناسبت 571
نقشبندیہ 571
ڈرائی@@ 571
کلینڈ 571
ارو 570
اسماء 570
بھیجی 570
جنتا 570
زہر 570
صہی@@ 570
فک 570
كون@@ 570
نگل 570
پریم 570
ہاتھی 570
المر@@ 569
اوز@@ 569
اٹھائیس 569
بنوں 569
تھن 569
جي 569
دیشی 569
شف@@ 569
فضیلت 569
لڑے 569
مقصود 569
کفر 569
گي@@ 569
1962ء 568
باغات 568
جمیل 568
صاحبز@@ 568
مانند 568
وردی 568
1973 567
50@@ 567
آئرش 567
ابواب 567
جبر@@ 567
علي@@ 567
عمل@@ 567
لاگو 567
محور 567
نوع 567
پنڈت 567
پڑھے 567
غذ@@ 566
پمنٹ 566
1983ء 565
اونچائی 565
جرمنوں 565
خاکہ 565
عموما 565
لوس 565
مثل 565
موسم@@ 565
ڈوب@@ 565
کوئی@@ 565
کیرلا 565
کیری 565
اسٹیج 564
الین 564
بریلوی 564
جارحیت 564
رياست@@ 564
سنہری 564
طبیعت 564
عملے 564
غر 564
معل@@ 564
1917 563
ازم 563
اسکالر@@ 563
جڑے 563
زاہد 563
ظہیر 563
نال 563
ٹینی@@ 563
چیلنج 563
ﻗ@@ 563
15.@@ 562
اناطولیہ 562
ایمی@@ 562
باؤ@@ 562
بران@@ 562
رغ@@ 562
شید 562
al@@ 561
www.@@ 561
الیا 561
اویہ 561
حاج@@ 561
ریور 561
سرفراز 561
صحر@@ 561
غر@@ 561
قُ@@ 561
نری@@ 561
هُ@@ 561
ٹرسٹ 561
ڈومینی@@ 561
کرسکتا 561
1920ء 560
برپا 560
جبر 560
خلق 560
سلے 560
شہرہ 560
صفوی 560
مورگن 560
موہ@@ 560
نشریات 560
همپشائر 560
ڑیوں 560
1967ء 559
آد@@ 559
ئو 559
برما 559
تان 559
جاں 559
حیران 559
زبردستی 559
سماعت 559
سوری 559
شرو@@ 559
عاشق 559
مظاہرین 559
ممبروں 559
وحد@@ 559
گزارا 559
گیمز 559
اوم@@ 558
محاصرے 558
مدراس 558
مقر@@ 558
٫ 558
ڈیوں 558
کالے 558
کبھار 558
گین 558
ہیری@@ 558
ئرز 557
بنگلور 557
جانچ 557
حکوم@@ 557
دکان 557
ذا 557
سینے 557
مجر@@ 557
پرائی@@ 557
چي 557
گزار@@ 557
60@@ 556
النا 556
برکت 556
تنا@@ 556
ثانوی 556
جواہر 556
جول@@ 556
زیہ 556
سوس@@ 556
عبارت 556
مجاز 556
چلایا 556
چي@@ 556
گرد@@ 556
es 555
تخلیقی 555
تقاض@@ 555
حامیوں 555
لُ@@ 555
مضامين 555
ملٹن 555
وفاق 555
1940ء 554
t@@ 554
احسن 554
الکریم 554
بھوپال 554
سد 554
شجاع 554
كيرولينا 554
پادری 554
کاغذی 554
کافر 554
کمل 554
کوف 554
13,@@ 553
1954ء 553
اتي 553
جگر 553
خوان@@ 553
ربط 553
غذا 553
قرآنی 553
مثنوی 553
ًا 553
پالیسیوں 553
کشائر 553
am 552
استقبال 552
انیان 552
دیکھ@@ 552
فِ@@ 552
لینگ@@ 552
پیڈیا 552
1956 551
جلاوطن 551
جُ@@ 551
راکٹ 551
سوم@@ 551
ووو 551
پیشے 551
چون 551
ڈسٹرکٹ 551
کراس 551
ing 550
افکار 550
جتنی 550
دعوے 550
ساد@@ 550
سلا 550
سورۂ 550
صفت 550
صفی 550
نُ@@ 550
وات 550
يونين 550
کفار 550
1967 549
1969 549
اسکالر 549
خطوں 549
درختوں 549
رف 549
موم 549
ولر 549
چھبیس 549
کاہ@@ 549
گجراتی 549
1952ء 548
اشرافیہ 548
برہمن 548
جھوٹ 548
سانس 548
صب 548
فرڈ 548
لاہ@@ 548
مزدوروں 548
ٹزرلینڈ 548
پوش 548
گذر@@ 548
37@@ 547
ببر 547
تصنیفات 547
سید@@ 547
لکشمی 547
پیشر@@ 547
چن@@ 547
ڈرا 547
اموں 546
انجی@@ 546
بریگیڈ 546
تصورات 546
عیسائیوں 546
لاز@@ 546
لینن 546
پیروکاروں 546
1972 545
U@@ 545
جیتے 545
راستوں 545
ویانا 545
ڈیڑھ 545
کاربن 545
ایندھن 544
داشت 544
سلاطین 544
عسکریت 544
ملیالم 544
گوری 544
ارف 543
اعجاز 543
تبدیلیوں 543
ثار 543
جهٔ 543
حات 543
ضا 543
كر 543
پرنس 543
کامیاب@@ 543
ہفتوں 543
,@@ 542
آگئے 542
انتظ@@ 542
بتیس 542
بڑھے 542
بھیجنے 542
جتنا 542
دائرے 542
روئے 542
رواں 542
سالگرہ 542
سرطان 542
لق@@ 542
متعلقهٔ 542
میل@@ 542
پڑنے 542
ہوسکتے 542
18.@@ 541
اللَّ@@ 541
سکھر 541
مؤثر 541
میسر 541
پڑھیں 541
چونتیس 541
امک@@ 540
بیچلر 540
حریف 540
دف 540
فیلو 540
مچھ@@ 540
نعمت 540
ولوں 540
ٹوم@@ 540
۵@@ 540
۸@@ 540
اشوک 539
ایڈمز 539
تفری@@ 539
سرما 539
سنٹر 539
عدالتی 539
غصہ 539
لَّ@@ 539
گولی@@ 539
ہستی 539
ہوجائیں 539
ﺍﻭﺭ 539
الثانی 538
المص@@ 538
سِ@@ 538
عرو@@ 538
عَلَ@@ 538
فارمی@@ 538
ملاحظہ 538
گزاری 538
14ء 537
بتائی 537
جزیروں 537
جھا 537
دیوتاؤں 537
سمجھتا 537
عالی 537
علاء 537
مہمات 537
وفادار 537
پند@@ 537
ہد 537
یئ@@ 537
… 537
ﺖ 537
1914 536
تجربے 536
فوج@@ 536
ڈون 536
Airport 535
II 535
تاریخ@@ 535
تناؤ 535
تہائی 535
جامعات 535
حسینی 535
فق 535
متوجہ 535
منحصر 535
ٹائی@@ 535
پتھروں 535
کتاب@@ 535
کھول@@ 535
گائ@@ 535
اسرار 534
اوسی@@ 534
اکتیس 534
بخت@@ 534
برس@@ 534
بھری 534
جزي@@ 534
خادم 534
سانی 534
صبر 534
طبا@@ 534
لاتا 534
لطی@@ 534
مسي@@ 534
ٹینک 534
پھینک 534
پیدائشی 534
چیر@@ 534
کوارٹر 534
ہاٹ 534
10ء 533
p 533
انتیس 533
انقلا@@ 533
دانش 533
دیپ 533
ضمانت 533
غوری 533
قطع 533
معر@@ 533
نکس 533
پکارا 533
چھپ 533
ڈبل 533
گانہ 533
1981 532
اسٹوڈیو 532
اطمینان 532
انص@@ 532
بیات 532
حادثے 532
زي 532
فرانس@@ 532
لری 532
مصالح@@ 532
میڈیم 532
1955ء 531
بالش@@ 531
تحریکوں 531
ریب 531
لٹی 531
نسلوں 531
واد 531
واٹ@@ 531
کنندہ 531
0,000 530
آگئی 530
ادت 530
اسا 530
التحصیل 530
الیاس 530
اوکا@@ 530
حنی@@ 530
عمومًا 530
قون@@ 530
لنگ@@ 530
لوہے 530
مہاجر 530
نط@@ 530
چرز 530
اسسٹنٹ 529
اولیاء 529
ة 529
حلف 529
دوز 529
فرش@@ 529
قي@@ 529
لیڈ 529
موری 529
پام@@ 529
پرساد 529
کھولا 529
ارِ 528
بہرحال 528
روٹ 528
سایہ 528
سفارش 528
سلطنتوں 528
متوقع 528
معاش 528
واجب 528
گوتم 528
یورو@@ 528
ﻌ@@ 528
اسیر 527
اقب 527
اہلکار 527
برے 527
بیلجی@@ 527
زاب@@ 527
واقعی 527
ٹنڈ@@ 527
گال 527
یونیورسٹیوں 527
ﺍﻟ@@ 527
15ء 526
o@@ 526
آرٹیکل 526
اراضی 526
خبروں 526
دھر@@ 526
سواں 526
عمارات 526
لوان 526
ٹائی 526
پروجیکٹ 526
چاہا 526
کھڑ@@ 526
3ھ 525
International 525
اپن@@ 525
تقلید 525
ثقاف@@ 525
جاندار 525
خلجی 525
دکھائے 525
ذرا 525
سیہ 525
متاثرہ 525
مك@@ 525
ندیاں 525
ڈویژ@@ 525
کروز 525
ہلاکت 525
تخلیقات 524
تفریح 524
سیاح 524
ناف@@ 524
l 523
ایشین 523
بیماریوں 523
ستانیوں 523
عطاء 523
فاسو 523
لائیں 523
لالہ 523
لغوی 523
مرثیہ 523
مینا 523
گردن 523
الڈ 522
باغ@@ 522
فہم 522
میٹرکس 522
ناراض 522
نعم@@ 522
ورس 522
پہاڑیوں 522
r 521
سویڈش 521
شواہد 521
عہدِ 521
قے 521
مصنفہ 521
130 520
g 520
اداکاروں 520
توق@@ 520
رجمنٹ 520
سفی@@ 520
عہدیداروں 520
لتھ 520
مشاور@@ 520
مه@@ 520
نول 520
ٸ@@ 520
ہج@@ 520
۰ 520
1968ء 519
45@@ 519
اؤن 519
جور 519
خلف@@ 519
سائیڈ 519
ضائع 519
لڑکوں 519
مخط@@ 519
پیغ@@ 519
39@@ 518
us 518
اترا 518
رفیع 518
سنن 518
سیکول@@ 518
فش@@ 518
نتیس 518
پڑھنا 518
گواہی 518
الاق@@ 517
جالندھ@@ 517
رحمان 517
ویمن 517
پروڈی@@ 517
چیچ@@ 517
کروا 517
گوان 517
1949 516
1951ء 516
ادیاں 516
ارجن 516
اسپورٹس 516
الٹ 516
ایڈمن@@ 516
تعاقب 516
جوابی 516
خیص 516
روب 516
قصی@@ 516
كن 516
نگاروں 516
کاسٹ 516
کولمب@@ 516
کھین@@ 516
ہت 516
19.@@ 515
v@@ 515
آرا@@ 515
بھوک 515
تجدید 515
ضلعی 515
قاز@@ 515
لسانیات 515
مشورے 515
ندو@@ 515
نیواڈا 515
گاہ@@ 515
اجتماع 514
انجینئر 514
اوورز 514
جمش@@ 514
جھی@@ 514
حال@@ 514
خالص@@ 514
خلا 514
سیت 514
سینہ 514
میئر 514
کمپلیکس 514
ہور 514
1976 513
1977 513
ate 513
° 513
ابر 513
اہو 513
خوب@@ 513
دریاؤں 513
ذيلي 513
رونما 513
سکر@@ 513
عمروبن 513
كلا@@ 513
نیاز 513
وشنو 513
ٹھوس 513
پولش 513
پیشوا 513
کھائی 513
1946 512
k@@ 512
آرا 512
الیوں 512
بکھ@@ 512
دلائی 512
ذخائر 512
رکنیت 512
طول 512
مشائخ 512
کالی@@ 512
کمر@@ 512
کونے 512
گذشتہ 512
1964ء 511
Ar@@ 511
آئوٹ 511
انبیا 511
بیورو 511
دۂ 511
روش@@ 511
ریزرو 511
سائڈ 511
شہزادے 511
مپٹن 511
نن@@ 511
پٹنہ 511
گھنٹوں 511
ہنر 511
ad 510
kh@@ 510
؁ 510
اشتراکی 510
بیوہ 510
ترویج 510
تینتیس 510
رورل 510
زلزلہ 510
سٹری 510
عیسی 510
قیات 510
كين@@ 510
لکھتا 510
مقدمات 510
نقصانات 510
کتیں 510
ﯿﮟ 510
urban 509
آف@@ 509
اہوں 509
بسا@@ 509
بلوچی 509
رند 509
زمینوں 509
عم 509
عون 509
كينٹكي 509
مدرس 509
مصوری 509
پالی@@ 509
چائی 509
کاب@@ 509
ﮑ@@ 509
تالی@@ 508
ثم 508
جاب@@ 508
جاد@@ 508
حویلی 508
داخلے 508
داغ@@ 508
وکمال 508
گوں 508
ہیئت 508
110 507
1965 507
900 507
List 507
بااثر 507
دارالعلوم 507
درگاہ 507
قدی@@ 507
لاگت 507
معاف 507
موصول 507
کینسر 507
1958 506
اجتہ@@ 506
اعزازی 506
عظم 506
عہ@@ 506
لہجے 506
موازنہ 506
ولسن 506
ٹیلر 506
پروٹ@@ 506
کمزوری 506
o 505
اعت 505
اودھ 505
حُ@@ 505
صغیر 505
لائف 505
لين@@ 505
مودی 505
چشم 505
کالج@@ 505
کتابت 505
یوس@@ 505
B 504
اسکند@@ 504
النساء 504
بٹالین 504
بہرائچی 504
بیو@@ 504
حاضری 504
طر 504
علیا 504
عْ@@ 504
قابلیت 504
معد@@ 504
مغلوں 504
ناممکن 504
ّے 504
پائلٹ 504
پڑوسی 504
پکڑنے 504
کلیئر 504
ہیکل 504
14,@@ 503
ad@@ 503
انڈر@@ 503
اولمپک 503
اونٹاریو 503
بھیج@@ 503
توثیق 503
جیک@@ 503
شیرازی 503
وام 503
کاظم 503
X 502
اجات 502
بارہویں 502
ثانیہ 502
كيوبك 502
نیٰ 502
چور@@ 502
کلر 502
کپ@@ 502
201@@ 501
49@@ 501
حسن@@ 501
دھما@@ 501
زہرہ 501
عظمی 501
میچز 501
ورتھ 501
ہین@@ 501
یام@@ 501
Qeshlaq 500
اؤنڈ 500
بوٹ 500
توبہ 500
دستی 500
صنفی 500
٢@@ 500
پہلوی 500
کہتی 500
گلے 500
گنا@@ 500
13ء 499
1936 499
بھا 499
جلوس 499
جواز 499
خبریں 499
راحت 499
زمیندار 499
سرا 499
غنیمت 499
فیظ 499
متن@@ 499
مخلوط 499
نیس 499
کامیڈی 499
کک 499
کیتھرین 499
r@@ 498
آرکی@@ 498
بسم@@ 498
مظالم 498
مٹھ@@ 498
نقشبندی 498
نٹی 498
يل@@ 498
چین@@ 498
کاٹ@@ 498
کستان 498
گرہ 498
1962 497
ed 497
آوا@@ 497
البرٹا 497
جدول 497
حنیف 497
شخص@@ 497
طرفہ 497
مدفون 497
ورے 497
پیس 497
چانسلر 497
گرفت 497
۷@@ 497
80@@ 496
اث 496
جاگیر 496
خبر@@ 496
خزر@@ 496
سخ@@ 496
سوس 496
صدر@@ 496
نشینی 496
وخ@@ 496
ویک@@ 496
گاؤ 496
یونانیوں 496
65@@ 495
ra@@ 495
ایرانیوں 495
باندھ 495
بود 495
بورن 495
تعمیراتی 495
حلال 495
ذب 495
شکوہ 495
لند@@ 495
مضافات 495
گھوڑوں 495
ہفت 495
ﺳﮯ 495
O 494
ايڈ@@ 494
شاہکار 494
موصوف 494
میموریل 494
ch@@ 493
انتقام 493
بیا 493
جڑی 493
ريك@@ 493
سرفہرست 493
كہ 493
مصط@@ 493
مونٹگمری 493
میٹرو 493
نچلے 493
ولِ 493
کرسکے 493
کنو@@ 493
کولی@@ 493
یال 493
یش 493
Province 492
تھے@@ 492
جوڑی 492
دال 492
زخم 492
شای@@ 492
شورش 492
پروگرا@@ 492
گوہر 492
یی@@ 492
ائیو 491
اسٹاف 491
اشا 491
اضی 491
جوڑا 491
خرید@@ 491
ذو 491
زاب 491
سحر 491
سٹک 491
فائل 491
فقہا 491
لیبر 491
مدرسے 491
مپیئن 491
چمک@@ 491
کیرول 491
اثاث@@ 490
سيد 490
فلسفے 490
مالٹا 490
مظاہروں 490
کارہ 490
کمپنیاں 490
کیت 490
ہریانہ 490
العاص 489
بریلی 489
تیرا 489
سورا@@ 489
سیکھ@@ 489
قاسمی 489
مخت@@ 489
چھپا 489
یکا 489
● 489
اسب 488
امپھؤ 488
دلوں 488
ریشم 488
صلی@@ 488
صومالیہ 488
لعل 488
یوگوسلا@@ 488
L 487
اسلامک 487
تالیس 487
سکو@@ 487
مانوں 487
موئ@@ 487
ڈیل@@ 487
اعظمی 486
بھتیجے 486
جری 486
جمہوريہ 486
حنبل 486
سالم 486
صدا@@ 486
ضمن 486
طور@@ 486
غزوۂ 486
فرانسی@@ 486
ودھ@@ 486
وینا 486
پروان 486
چادر 486
کتے 486
کنز 486
یوروپی 486
T 485
ساسانی 485
شفیع 485
عادت 485
پیسے 485
ڈروں 485
کارا 485
کمائی 485
کیمپ@@ 485
گزارے 485
گست@@ 485
اجرا 484
ارتی 484
بہبود 484
حار@@ 484
خانم 484
ربیعہ 484
رت@@ 484
ساہیوال 484
شماریات 484
لْ@@ 484
نمون@@ 484
نکتہ 484
وفا 484
ٹیڈ 484
پھولوں 484
کیف 484
ہاک@@ 484
ﮨﮯ 484
20.@@ 483
اتھا 483
بالغ 483
جعفری 483
دعو@@ 483
سردیوں 483
سنبھالنے 483
فریڈرک 483
لٹل 483
مایوس 483
معزز 483
منیر 483
واج@@ 483
وسطیٰ 483
ٹان 483
گت 483
11ء 482
16,@@ 482
ایٹم 482
جاسوسی 482
جونز 482
سٹون 482
غیر@@ 482
مادی 482
مونٹ@@ 482
نڈن 482
گاہیں 482
ﺒ@@ 482
ﺧ@@ 482
Regional 481
اجاگر 481
جعفرآباد 481
حادثہ 481
رفت 481
لت@@ 481
میز@@ 481
نار 481
پرندوں 481
گزرے 481
1945ء 480
ادری 480
امرو@@ 480
اہت 480
اینٹی@@ 480
جاسک@@ 480
زیرِ 480
سیکریٹری 480
لگاتے 480
نڈل 480
هم 480
ولک 480
گھڑ@@ 480
آقا 479
برکینا 479
دارا 479
دهٔ 479
غسل 479
فلاح 479
میدانوں 479
نمائندوں 479
ورن 479
کاری@@ 479
گوگل 479
یع@@ 479
du 478
اکادمی 478
باطل 478
برداری 478
بکثرت 478
تنخواہ 478
جارجیائی 478
حافظ@@ 478
حوں 478
خطرات 478
راگوئے 478
زہد 478
سعد@@ 478
سہارن@@ 478
عملہ 478
عیت 478
فنکشن 478
مؤرخ@@ 478
مرمت 478
مسافروں 478
مظاہر 478
واد@@ 478
پذی@@ 478
کڑی 478
گلاب 478
ہسپان@@ 478
یلے 478
ﻓ@@ 478
برآں 477
برن@@ 477
بلدي@@ 477
توہین 477
جذب 477
ذہبی 477
رضام@@ 477
سیّد 477
عمار 477
مامور 477
مہینہ 477
نسخے 477
گوی@@ 477
آریائی 476
ائس 476
العاب@@ 476
باقاعدگی 476
جوق 476
دیس 476
رین@@ 476
لڑ 476
ماریہ 476
مزدوری 476
منسٹر 476
منگولوں 476
میانوالی 476
نصرت 476
نيبراسكا 476
پوشیدہ 476
کہی 476
گپتا 476
ہالٹ 476
ائزیشن 475
بڑھتا 475
شعبان 475
قلی 475
مختص 475
مدعو 475
معاہدوں 475
ڈگلس 475
el@@ 474
المجید 474
انک 474
بص@@ 474
جبری 474
جمادی 474
حیاتیاتی 474
سیمی 474
مکرمہ 474
نکات 474
نیکوسیا 474
وای@@ 474
کاظمی 474
کرس@@ 474
ہدایتکار 474
1963ء 473
town 473
آفاق 473
اخ 473
اشیا 473
الرحیم 473
تلے 473
حب@@ 473
قاتل 473
قرط@@ 473
مادے 473
مسلمہ 473
مطاب@@ 473
کزن 473
کڑ@@ 473
گري@@ 473
اسکرین 472
القاعدہ 472
انسداد 472
بیلار@@ 472
تائیوان 472
حراست 472
حسینؑ 472
درا 472
دیکھنا 472
رخ@@ 472
نایاب 472
ومن@@ 472
پہل 472
یونیسکو 472
140 471
بینٹن 471
ریح 471
شیلڈ 471
لاحق 471
مناظ@@ 471
میلہ 471
ہوتاہے 471
احوال 470
تاؤ 470
جاہلیت 470
راسخ 470
زینت 470
سیکھنے 470
مصطفٰی 470
مطالبات 470
نشستیں 470
نِ@@ 470
پاکی@@ 470
چتر@@ 470
چھین 470
ہلز 470
1957 469
1968 469
Olya 469
افتتاحی 469
تناظر 469
جوئی 469
خوبی 469
دوز@@ 469
روای@@ 469
عشر@@ 469
فاتح@@ 469
قلیل 469
موومنٹ 469
ٹیکنی@@ 469
پنگ 469
کمیت 469
् 469
-دے 468
آنند 468
ائي@@ 468
اسن 468
اوٹ 468
تقرری 468
درویش 468
ساب@@ 468
سیاست@@ 468
فرانسس 468
متھ 468
مَا 468
پاگئے 468
کاشت@@ 468
کیری@@ 468
16ء 467
46@@ 467
انعام@@ 467
اﷲ 467
توج@@ 467
خواہ@@ 467
رفیق 467
زدگی 467
فائیٹ 467
فیسٹیول 467
قادریہ 467
مناف@@ 467
نسی@@ 467
وسا 467
پانچواں 467
پاگ@@ 467
چغ@@ 467
کارل 467
ھن 467
178@@ 466
ادارت 466
اقلیت 466
اورنج 466
خات@@ 466
فع 466
قبیلوں 466
مسٹر@@ 466
مطلع 466
منوں 466
پسمان@@ 466
ابد@@ 465
بخشی 465
راتی 465
عری@@ 465
فورنیا 465
كرك@@ 465
وقفے 465
ٹکنالوجی 465
پکوان 465
پیدل 465
گنج@@ 465
المقدس 464
خداوند 464
سست 464
شیل@@ 464
معرفت 464
منگولیا 464
میرزا 464
ڈور@@ 464
کنارہ 464
1964 463
47@@ 463
ODI 463
اسماعیلی 463
تورات 463
دیوار@@ 463
دیکھتا 463
سبزی 463
عیسائیت 463
مشاع@@ 463
ویات 463
چور 463
ڈیوز 463
کرشنا 463
گیند@@ 463
آہنگی 462
به@@ 462
جونیئر 462
دانت 462
سرت 462
سیلی@@ 462
مطالع@@ 462
ڈالے 462
گذر 462
۴@@ 462
in@@ 461
آذ@@ 461
برباد 461
تھام@@ 461
رود 461
شام@@ 461
طبیب 461
لائق 461
لول 461
پبلکن 461
پتن 461
پہلوؤں 461
چسٹر 461
ڈیپارٹمنٹ 461
1963 460
آسٹری@@ 460
ئیے 460
اوڈیشا 460
تدوین 460
خطاطی 460
سنگھ@@ 460
طلحہ 460
لاح@@ 460
متغیر 460
مردان 460
مصی@@ 460
مہاراج@@ 460
گرنے 460
امیر@@ 459
اکابر 459
دیہ@@ 459
راجپ@@ 459
روف 459
زاں 459
سجدہ 459
سوریہ 459
فرمائے 459
فریدی 459
كَ@@ 459
للہ 459
مہا 459
ولز 459
ویز 459
ay 458
sh@@ 458
تھم 458
جيكسن 458
خاموشی 458
روضہ 458
زوجہ 458
ساو@@ 458
سوچا 458
لگنے 458
نشو 458
وسیم 458
ّل 458
پیرو@@ 458
کندہ 458
Sofla 457
انح@@ 457
اکہ 457
تانی 457
قاصر 457
قبی@@ 457
لڑتے 457
مشرو@@ 457
مقناطیسی 457
موٹر 457
نوے 457
وظی@@ 457
وفاد@@ 457
ٗ 457
چارٹر 457
گروں 457
ہیں- 457
city 456
الوہ@@ 456
سیٹ@@ 456
طلا@@ 456
ملیشیا 456
گندھ@@ 456
گولہ 456
15,@@ 455
1935 455
D 455
am@@ 455
انگا 455
بلیو 455
تھام 455
سبی 455
شنکر 455
شیوخ 455
عرب@@ 455
كلي@@ 455
ملاز@@ 455
مونرو 455
نعمان 455
پونے 455
چرا@@ 455
180 454
ارٹ 454
ایان 454
جیلانی 454
حر 454
خوشبو 454
داریاں 454
سامی 454
سلج@@ 454
عبوری 454
لانی 454
ماس 454
نجر 454
پیٹ@@ 454
ہیر@@ 454
1961ء 453
https 453
آئینہ 453
انگو@@ 453
بجا 453
جاہ 453
حاض@@ 453
زخ@@ 453
لیول 453
مشرکین 453
موسی@@ 453
میسور 453
نسیم 453
پٹھان 453
پٹی@@ 453
چھی 453
کمر 453
codice 452
اسٹر@@ 452
الك@@ 452
انتشار 452
بالوں 452
جارحانہ 452
راہی 452
سبق 452
لتے 452
ماء 452
مادری 452
نجم 452
نڈر@@ 452
وگ@@ 452
ٹوی@@ 452
ڈائری@@ 452
کھیلتا 452
گبول 452
گرمیوں 452
گریز 452
1953ء 451
as@@ 451
اللّٰ@@ 451
اورنگزیب 451
اکثریتی 451
دھات 451
صحن 451
فاق@@ 451
مائع 451
مشہد 451
مہات@@ 451
ناولوں 451
نوکری 451
کرز 451
گوس@@ 451
1943 450
اوسط@@ 450
ایتھنز 450
بْ@@ 450
تالاب 450
تحصيل 450
حام@@ 450
سرم@@ 450
سمرقند 450
فیٰ 450
لاگ 450
لد 450
ماح@@ 450
معاوضہ 450
مٹ@@ 450
وکا 450
کونسل@@ 450
امل 449
اندرون 449
بدعنوانی 449
بلال 449
حز@@ 449
خوزستان 449
ظالم 449
عا 449
فورم 449
میات 449
نٹو 449
وارد 449
ڈویل@@ 449
کانگو 449
Al@@ 448
آئل 448
آوروں 448
انجینئرنگ 448
تفریحی 448
تقریبا@@ 448
راؤ@@ 448
سمتھ 448
شجاعت 448
شنگ@@ 448
صاحبزادہ 448
ضمیر 448
لیری 448
لیک@@ 448
محلے 448
پنچ@@ 448
1937ء 447
تباد@@ 447
تکنیک 447
رگ 447
سلووینیا 447
فقار 447
ملحقہ 447
منانے 447
پھوٹ 447
پہنچتا 447
• 447
آندرے 446
اٹھائے 446
بولر 446
بھیڑ 446
تفویض 446
سنس 446
شعیب 446
صوب@@ 446
متاثرین 446
مریضوں 446
170 445
بینکوں 445
سنٹرل 445
قوی 445
منتشر 445
مندروں 445
ٹیکل 445
پودے 445
چپ@@ 445
گزارنے 445
گزرا 445
گود 445
ہمی 445
ایکسچینج 444
برادری@@ 444
بش 444
بصی@@ 444
بیدار 444
تاخیر 444
خاک@@ 444
دال@@ 444
سٹنٹ 444
سکوں 444
شنگ 444
مرگ 444
وقی 444
ٹم 444
کیوب@@ 444
ﺪ 444
1935ء 443
آکسی@@ 443
النبی 443
اندراج 443
اوپن 443
جامع@@ 443
درمی@@ 443
عامل 443
فنکاروں 443
مذی 443
معص@@ 443
وران 443
پرنس@@ 443
پریشانی 443
1953 442
1966ء 442
ازبک 442
بھول 442
بینی 442
شق 442
فضائل 442
قرہ 442
پرفارمنس 442
ہینری 442
ینہ 442
ﻦ 442
E 441
آری@@ 441
ارانہ 441
ارکنساس 441
باش@@ 441
بیج 441
جذباتی 441
ضعی@@ 441
طیارہ 441
عر 441
عمو@@ 441
لینڈز 441
منور 441
نکلتا 441
ٹیمیں 441
کوو 441
الناس 440
انفنٹری 440
جارہی 440
خون@@ 440
ستے 440
سینیٹ 440
شوال 440
طیاروں 440
لٹ@@ 440
مجموع@@ 440
مرجع 440
ولوج@@ 440
کروانے 440
کشف 440
ابوح@@ 439
الفق@@ 439
بيا 439
شَ@@ 439
طبی@@ 439
عاصم 439
ــــ@@ 439
فان 439
فلپ 439
قبلہ 439
معطل 439
میراث 439
ودی@@ 439
وہب 439
پروپی@@ 439
ﯼ 439
101 438
Maz@@ 438
ئى 438
انخ@@ 438
اپور 438
اگوا 438
ایڈز 438
تس 438
جہتی 438
شیخوپورہ 438
نسبتا 438
ٹریفک 438
پھیلانے 438
کب@@ 438
کت 438
ہما@@ 438
آخر@@ 437
ارباب 437
استعفیٰ 437
اسپیکر 437
الیگزینڈر 437
اوقیانوس 437
اہداف 437
باریک 437
تفتیش 437
سامعین 437
شاخوں 437
شرم 437
صر@@ 437
علاقهٔ 437
عوں 437
مامون 437
معاصر 437
ملائ@@ 437
ناجائز 437
پاپوا 437
ژو 437
گُ@@ 437
124@@ 436
3,0@@ 436
حدہ 436
رحمتہ 436
روانی 436
شنا@@ 436
فلٹن 436
مقبوضہ 436
ودی 436
کارٹون 436
کیمیا 436
Central 435
اینی@@ 435
تلنگانہ 435
دانشور 435
ریج 435
عوف 435
مام@@ 435
منطق 435
نسل@@ 435
وڑ 435
ڈھان@@ 435
ڈھوک 435
کرپ@@ 435
کوسٹ 435
گردوں 435
ﺕ 435
اھ@@ 434
خیالی 434
سنبھالی 434
صارف 434
فیات 434
قال 434
مش 434
گواہ 434
یانہ 434
1957ء 433
ترکیب 433
خرابی 433
خریدا 433
دھر 433
رنگین 433
لنا 433
مخاطب 433
۶@@ 433
f 432
ابات 432
اٹھاتے 432
ایجنٹ 432
جانشی@@ 432
رح 432
شم@@ 432
شناس 432
ضر@@ 432
مرتفع 432
ممل@@ 432
نتھ 432
پروفی@@ 432
پھیلے 432
کریمیا 432
ﻡ 432
ایات 431
برانچ 431
بناتی 431
جتوئی 431
حن@@ 431
ختی 431
رائٹ 431
رْ@@ 431
زبرگ 431
سدھنوتی 431
سٹار 431
ضوں 431
فلسفی@@ 431
قلندر 431
مجسمے 431
محتر@@ 431
مفس@@ 431
ملیں 431
ویکی 431
کتنی 431
اشخاص 430
البی@@ 430
المبار@@ 430
بخت 430
بھارتیہ 430
تھوڑے 430
حتیٰ 430
داعی 430
روایتوں 430
رچلینڈ 430
سرحدیں 430
صحافیوں 430
قلات 430
لفظ@@ 430
ورکس 430
ٹلینڈ 430
پگھ@@ 430
ہادی 430
160 429
N 429
احتمال 429
اقدس 429
برتری 429
تھری 429
جارہا 429
جزو 429
حفاظتی 429
خیمہ 429
دوپہر 429
دھماکا 429
فلور@@ 429
فیکلٹی 429
موس 429
میڈل 429
نسبتاً 429
نقاب 429
وقتی 429
ویلی@@ 429
پتلی 429
پي 429
پٹھ@@ 429
کنونشن 429
ہنگامی 429
199@@ 428
Mar@@ 428
آمیز 428
ابویوسف 428
القاسم 428
اونت 428
ایر@@ 428
ترجمے 428
تعزی@@ 428
خا 428
سردی 428
عیہ 428
لبرٹی 428
لگانا 428
مفصل 428
موز@@ 428
مين@@ 428
نائجیریا 428
ورات 428
گھاس 428
ﺁ@@ 428
2022ء 427
بعد@@ 427
بين 427
بہر 427
جدی@@ 427
جوانوں 427
دیہاتوں 427
ذائ@@ 427
صی 427
قربان 427
مروی 427
مشتاق 427
وئ@@ 427
واپ@@ 427
ویچ 427
ٹینس 427
یتیم 427
یکجا 427
1937 426
i@@ 426
ia 426
اذ 426
اشاع@@ 426
اینڈرسن 426
بھرا 426
تنوع 426
جوی@@ 426
خَ@@ 426
ذِ@@ 426
راگ 426
ریٹجک 426
زیل 426
غان 426
قوت@@ 426
ليے 426
متف@@ 426
مصدر 426
منقطع 426
نشانات 426
وطہ 426
پخت@@ 426
کانسی 426
ہیٹ 426
68@@ 425
ic 425
برک 425
بندہ 425
جاپ@@ 425
ربی@@ 425
طب@@ 425
فرقوں 425
لیون@@ 425
نگہ@@ 425
کردستان 425
کرکٹرز 425
کہکش@@ 425
گاڑیاں 425
1951 424
انضمام 424
بستیوں 424
خدیجہ 424
فارمیشن 424
نوآبادیات 424
کِ 424
Jar@@ 423
اعلا@@ 423
بوی@@ 423
تشویش 423
ثناء 423
حلب 423
دیکھو 423
فریم 423
قلعوں 423
ماموں 423
وثی 423
1952 422
6ھ 422
70@@ 422
j 422
آرگن@@ 422
بنادیا 422
ترکمانستان 422
جوڑ@@ 422
خزانے 422
خوانی 422
دربار@@ 422
لج 422
مقالے 422
واح@@ 422
کیریبین 422
احتیاط 421
ادیا 421
دکھ 421
رائی@@ 421
شفقت 421
کنبہ 421
گانوں 421
1932ء 420
ثعل@@ 420
خودمختاری 420
سْ@@ 420
سیم 420
قا 420
نازک 420
یہ@@ 420
حل@@ 419
ریم 419
مطبوعہ 419
نصیحت 419
٣@@ 419
حماد 418
سمس 418
صاب@@ 418
350 417
دوش 417
عُ@@ 417
مرح@@ 417
نشی@@ 417
ﮦ 417
ﻧﮯ 417
1912 416
1959 416
Republic 416
el 416
الج 416
املاک 416
تاثر 416
تغلق 416
ریات 416
عاب@@ 416
غری@@ 416
معذ@@ 416
ورِ 416
1857ء 415
1938 415
l@@ 415
بہرام 415
جرات 415
حنفیہ 415
سمو@@ 415
لاء 415
محفل 415
ومہ 415
63@@ 414
آخذ 414
اعترا@@ 414
سہرا 414
شوق@@ 414
مستحق 414
1961 413
الذ@@ 413
حاش@@ 413
حصار 413
خص@@ 413
طری@@ 413
فیڈرل 413
مصور 413
معاذ 413
20ء 412
c@@ 412
اصط@@ 412
مقالات 412
ولیت 412
کمال@@ 412
20,@@ 411
m@@ 411
بندر@@ 411
جاپانیوں 411
رسل 411
طبق@@ 411
متص@@ 411
يني@@ 411
سیارہ 410
عدل 410
ناء 410
نب@@ 410
نسو 410
ولن 410
یان@@ 410
1933 409
44@@ 409
ol 409
حسين 409
ملحق 409
ہیل 409
17,@@ 408
T20I 408
جِ@@ 408
متوسط 408
منقول 408
198@@ 407
amp 407
http 407
اجد 407
ایٹ@@ 407
بوب@@ 407
ریٹ@@ 407
شاه 407
لسن 407
ناقص 407
ولي@@ 407
1954 406
V 406
امتح@@ 406
باع@@ 406
يس@@ 406
ﺍ 406
125 405
1921 405
بدار 405
67@@ 404
السّ@@ 404
المح@@ 404
حدی@@ 404
سوان@@ 404
شاء 404
طن 404
ندوں 404
III 403
ارتق@@ 403
اصف@@ 403
خضر 403
منت@@ 403
اولا@@ 402
حت@@ 402
خواص 402
صَ@@ 402
صیل 402
فنا 402
لاؤ@@ 402
موصل 402
ۡ@@ 402
اعتدال 401
رال 401
شاد@@ 401
فساد 401
ممبر@@ 401
نوف@@ 401
55@@ 400
75@@ 400
؍ 400
ثیت 400
عاد 400
نقط@@ 400
120@@ 399
تنز@@ 399
توم@@ 399
صدی@@ 399
مقدم 399
115@@ 398
177@@ 398
\ 398
تابع 398
ضات 398
نست@@ 398
اندر@@ 397
انواع 397
بادل 397
تجرب@@ 397
تعظ@@ 397
فتہ 397
قران 397
مدا@@ 397
مماث@@ 397
‏ 397
en@@ 396
الفر@@ 396
اندرا 396
ایشی@@ 396
تسا 396
دروا@@ 396
طاہ@@ 396
باً 395
بلخ 395
خلاء 395
قاب@@ 395
وائے 395
پبل@@ 395
پت@@ 395
23.@@ 394
Dar@@ 394
Sainte 394
ذبح 394
ماج@@ 394
کتوں 394
باط 393
تون 393
سیاح@@ 393
قبہ 393
ڈرل 393
59@@ 392
كرا@@ 392
۲ 392
176@@ 391
58@@ 391
اقی 391
خصوصا 391
زنج@@ 391
عائ@@ 391
علیٰ 391
فس 391
قان 391
ورز 391
1966 390
عثمان@@ 390
ميري 390
نات@@ 390
$ 389
ابا 389
تور 389
جزی@@ 389
جنا 389
راً 389
نث@@ 389
ﻞ 389
آتش@@ 388
ثن@@ 388
خاصا 388
رر 388
F 387
وسط@@ 387
يز 387
105 386
بتا 386
برطان@@ 386
ناً 386
چوہ@@ 386
175@@ 385
21.@@ 385
تارا 385
تقرر 385
ریف 385
مائش 385
محب 385
يان 385
ہوما 385
21@@ 384
24.@@ 384
تند@@ 384
جال@@ 384
ضاب@@ 384
قلت 384
کچر 384
ابوب@@ 383
رود@@ 383
كل 383
مطلو@@ 383
ناز@@ 383
نح@@ 383
1955 382
er@@ 382
on@@ 382
z 382
تبص@@ 382
تحف@@ 382
زنا 382
صدام 382
لث 381
محصول 381
مشر@@ 381
منتظم 381
وست@@ 381
102 380
الرا@@ 380
ثالث 380
حاتم 380
وعد@@ 380
ژ 380
ów 379
اعضاء 379
انفرا@@ 379
تاس@@ 379
فیص@@ 379
نصی@@ 379
زیشن 378
مترا@@ 378
57@@ 377
اتو 377
باس 377
درن 377
محص@@ 377
نفوس 377
197@@ 376
الاز@@ 376
الرح@@ 376
تام@@ 376
تلق@@ 376
توت@@ 376
شعل@@ 376
لوم 376
1934 375
22.@@ 375
er 375
استح@@ 375
شت@@ 375
لاؤ 375
ولي 375
ہدایت@@ 375
اینگ@@ 374
نقوش 374
والم@@ 374
2,8@@ 373
66@@ 373
ur@@ 373
الاع@@ 373
وامي 373
وجا 373
2,5@@ 372
An@@ 372
اجر 372
جوب@@ 372
متض@@ 372
مزاح@@ 372
18,@@ 371
with 371
زمیند@@ 371
موج@@ 371
ووا 371
ى@@ 371
پتھ@@ 371
1932 370
w@@ 370
اح 370
المق@@ 370
بحق 370
جاو@@ 370
رسوم 370
سماع 370
واز 370
ﺱ 370
.. 369
99@@ 369
G 369
تدری@@ 369
قر 369
محراب 369
موش 369
يش@@ 369
R 368
ous 368
ur 368
اوق@@ 368
فاق 368
نحو 368
نخ@@ 368
ناس 367
الائ@@ 366
الرزاق 366
جمہو@@ 366
حاد@@ 366
ضل 366
قامت 366
ينيسي 366
25.@@ 365
andi 365
الٰ@@ 365
بشر 365
عقی@@ 365
ّا 365
افت@@ 364
غیب 364
نعر@@ 364
وري@@ 364
Re@@ 363
جار 363
جلا@@ 363
خض@@ 363
غص@@ 363
معلم 363
يُ@@ 363
ڈیشن 363
ﭼ@@ 363
x@@ 362
اطلا@@ 362
بطن 362
صہ 362
ليا 362
نافع 362
Region 361
آکس@@ 361
المؤمن@@ 361
بقا 361
مثلًا 361
منو@@ 361
موق@@ 361
گیر@@ 361
ﺯ@@ 361
S 360
معمر 360
نوج@@ 360
پائن 360
1913 359
دخ@@ 359
رموز 359
صرا@@ 359
کیلی@@ 359
آند@@ 358
حسی@@ 358
عالمي 358
لوع 358
یاء 358
114@@ 357
ؤنڈ 357
احتج@@ 357
بخار@@ 357
ٹيك@@ 357
90@@ 356
ul@@ 356
الخلا@@ 356
تلا 356
ذرات 356
صن@@ 356
ژن 356
۱ 356
117@@ 355
1922 355
Bar@@ 355
باح 355
حوال@@ 355
داع 355
رور@@ 355
عِ@@ 355
لع@@ 355
مشتق 355
کٹرز 355
الوج@@ 354
بھار@@ 354
تلو@@ 354
شفی@@ 354
فلسط@@ 354
قي 354
منز 354
مِنْ 354
ﻲ 354
۳ 353
ash@@ 352
es@@ 352
برق 352
رقي 352
متنوع 352
نَّ@@ 352
گند@@ 352
ﻴ@@ 352
اوا@@ 351
نقد 351
نوس 351
19,@@ 350
220 350
ادم 350
امي 350
زاہ@@ 350
میان@@ 350
ندق 350
27.@@ 349
ابل 349
بام@@ 349
سٹس 349
منت 349
ناش@@ 349
108 347
2,6@@ 347
240 347
5000 347
f@@ 347
الم 347
براؤ@@ 347
جیکٹ 347
رستم 347
1931 346
اقب@@ 346
دري@@ 346
طاق@@ 346
لار 346
ناص@@ 346
نَّ 346
يد 346
کرین 346
2,4@@ 345
43@@ 345
اله@@ 345
جاگ@@ 345
معز@@ 345
کھلا@@ 345
ہم@@ 345
یوال 345
ﻢ 345
2,7@@ 344
روپ@@ 344
كن@@ 344
القدر 343
تِ@@ 343
ذور 343
والح@@ 343
وور@@ 343
ani 342
خانق@@ 342
عک@@ 342
قف 342
لَا 342
مير 342
وين 342
um 341
انیں 341
حساس 341
ریٹائر@@ 341
ضابطہ 341
غت 341
فنان@@ 341
كام@@ 341
مبلغ 341
ها 341
ﷲ 341
104 340
اجل 340
جند@@ 340
صلا@@ 340
مجاہ@@ 340
نباتات 340
پود@@ 340
ائع 339
اك 339
ذخی@@ 339
مئ@@ 339
کمپیو@@ 339
فز@@ 338
ونَ 338
ag@@ 337
الث@@ 337
جک 337
سوز@@ 337
قصر 337
كت 337
ليس 337
نَا 337
ٓ@@ 337
1929 336
2,9@@ 336
at@@ 336
حا 336
فاؤن@@ 336
فول@@ 336
كَ 336
Iowa 335
are 335
انط@@ 335
برت 335
سیکر@@ 335
قت@@ 335
وزراء 335
ویژ@@ 335
پیچھ@@ 335
ڈکو@@ 335
ﻝ 335
California 334
بلدی@@ 334
عان 334
قومي 334
نہر@@ 334
٠@@ 334
115 333
بلو 333
تط@@ 333
ثوم 333
فقط 333
والی@@ 333
78@@ 332
it 332
اصد 332
قان@@ 332
معالج@@ 332
نسر 332
ﺤ@@ 332
190 331
تحقی@@ 331
عدنان 331
عنو@@ 331
فلوري@@ 331
56@@ 330
جس@@ 330
ونت 330
ab@@ 329
ge@@ 329
un@@ 329
· 329
ترجم@@ 329
تونس 329
حْ@@ 329
دوم@@ 329
رج 329
طف@@ 329
لبن@@ 329
لوا 329
100@@ 328
NA 328
South 328
ايل 328
بخار 328
فجر 328
متناز@@ 328
1924 327
ir 327
العل@@ 327
شيخ 327
صالح@@ 327
صور 327
130@@ 326
54@@ 326
احاط@@ 326
بور 326
تخت@@ 326
رم@@ 326
فرنس@@ 326
پیچی@@ 326
ہاؤ@@ 326
‍ 326
1500 325
or@@ 325
آداب 325
آراء 325
انگو 325
رونا 325
شتر 325
كتاب 325
ينَ 325
اتباع 324
المعارف 324
بحي@@ 324
بز 324
حوا@@ 324
عہدی@@ 324
مداف@@ 324
وين@@ 324
64@@ 323
Haj@@ 323
ak@@ 323
di 323
باش 323
قرار@@ 323
لب@@ 323
پرت@@ 323
106 322
اداک@@ 321
خُ@@ 321
ستھ@@ 321
سنچ@@ 321
ضخ@@ 321
ظات 321
ماع 321
٩@@ 321
گنڈا 321
ﻼ@@ 321
👈 321
155 320
360 320
be@@ 320
des 320
ł@@ 320
ارون 320
اُن@@ 320
دران 320
ربا 320
طرس 320
لیف@@ 320
پہا@@ 320
94.@@ 319
مرغ@@ 319
٢ 319
107 318
114 318
Minnesota 318
افری@@ 318
الحرام 318
خروج 318
فرح 318
قرب 318
109 317
235 317
is@@ 317
os@@ 317
خم 317
دب 317
فاف 317
معام@@ 317
يون 317
۵ 317
112 316
122 316
126 316
M 316
حالت@@ 316
طان@@ 316
مجالس 316
25,@@ 315
450 315
ah@@ 315
ارض@@ 315
فان@@ 315
پنڈی 315
یع 315
28.@@ 314
بلوم 314
جست@@ 314
صحاف@@ 314
كرو@@ 314
میون@@ 314
نجد 314
ولیات 314
de@@ 313
اولمپ@@ 313
ہرہ 313
116@@ 312
De@@ 312
اقتب@@ 312
المسل@@ 312
اہلیت 312
به 312
تصاد@@ 312
حذ@@ 312
طریق@@ 312
فہر@@ 312
واضع 312
commune 311
ایکسپ@@ 311
جید 311
شعر@@ 311
چز 311
128 310
u@@ 310
ارٹر 310
ملر 310
نفی 310
پیا 310
ab 309
الحارث 309
سمند@@ 309
عماد 309
قح@@ 309
135 308
32@@ 308
H 308
الرحم@@ 308
تسل@@ 308
توسط 308
خال@@ 308
رسن 308
یق 308
23,@@ 307
Qar@@ 307
بًا 307
سرب 307
ماف@@ 307
پس@@ 307
فضاء 306
قع 306
الض@@ 305
دبا@@ 305
وُ@@ 305
53@@ 304
il@@ 304
اسلح@@ 304
لادن 304
موس@@ 304
میونسپ@@ 304
نون@@ 304
103 303
3000 303
ثالث@@ 303
دريا 303
طواف 303
يت@@ 303
اسکوا@@ 302
شخ@@ 302
شي 302
۴ 302
196@@ 301
X@@ 301
ايك@@ 301
تمد 301
رؤ@@ 301
سمر 301
سنان 301
ay@@ 300
الاش@@ 300
1915 299
le@@ 299
ology 299
se@@ 299
استعم@@ 299
اقتصاد@@ 299
شغ@@ 299
مديرية 299
وراڈو 299
گزین 299
116 298
2.5 298
21,@@ 298
76@@ 298
79@@ 298
98@@ 298
W 298
Y 298
زع@@ 298
ستگی 298
مُ 298
29.@@ 297
ICC 297
ity 297
آرمینی@@ 297
طغ@@ 297
على 297
وتو 297
26.@@ 296
260 296
that 296
ريا 296
طار 296
124 295
22,@@ 295
Ab@@ 295
بیمار@@ 295
تعامل 295
رمز 295
ريس 295
سیکی@@ 295
شاب@@ 295
نيك@@ 295
ٹوئ@@ 295
129 294
ari 294
les 294
داود 294
ریک 294
کیرو@@ 294
مختص@@ 293
یدہ 293
118@@ 292
166 292
280 292
74@@ 292
P 292
railway 292
بھتی@@ 292
سوب@@ 292
شباب 292
ظاہ@@ 292
غارت 292
مْ@@ 292
نات 292
ورت 292
کامی@@ 292
88@@ 291
النسل 291
الوجی 291
ستیں 291
نمائی 291
نيا 291
واست@@ 291
وك 291
U 290
un 290
توس@@ 290
رش 290
لاف 290
نوائے 290
K 289
ans 289
ot@@ 289
י@@ 289
خلو@@ 289
خي@@ 289
سقوط 289
قطار 289
مراہ 289
مساب@@ 289
نف 289
وفی 289
يوسف 289
ﷺ@@ 289
121 288
آث@@ 288
الار@@ 288
جنا@@ 288
ساؤ@@ 288
متا@@ 288
نمو 288
ہید 288
1857 287
320 287
ical 287
ir@@ 287
ادو 287
الَّ@@ 287
بہاول@@ 287
ونز 287
175 286
1916 286
برمن@@ 286
بمب@@ 286
جرو@@ 286
صغ@@ 286
لط@@ 286
مطالب@@ 286
وابط 286
132 285
210 285
gh@@ 285
عس@@ 285
فف 285
لح 285
واش@@ 285
وني 285
پارٹ@@ 285
1.5 284
230 284
270 284
29,@@ 284
87@@ 284
حقی@@ 284
دق 284
عض@@ 284
قنا@@ 284
ہران 284
170@@ 283
1923 283
العظ@@ 283
مسم@@ 283
Am@@ 282
id 282
é 282
تعدد 282
تنا 282
ديش 282
لکش@@ 282
ﺠ@@ 282
Ali 281
برنار@@ 281
مولی 281
پرائ@@ 281
ہاتھ@@ 281
me@@ 280
ابت@@ 280
ایری@@ 280
بیب 280
جند 280
خو 280
عي@@ 280
ورق 280
ﺅ@@ 280
1926 279
3,5@@ 279
الحک@@ 279
بالع@@ 279
قِ@@ 279
مورا@@ 279
ّد 279
کتہ 279
117 278
160@@ 278
الاعتقاد 278
فعال@@ 278
ندي 278
ٹائن 278
Township 277
ol@@ 277
was 277
خلل 277
مثال@@ 277
نبات@@ 277
يز@@ 277
یونیور@@ 277
ﺩ 277
1900 276
ang 276
الوا 276
تجاوز 276
حنا 276
رہائ@@ 276
ستار 276
معتدل 276
24,@@ 275
69@@ 275
Par@@ 275
ine 275
ka 275
دنا 275
ستور 275
فقدان 275
ہتھ@@ 275
ﮏ 275
140@@ 274
3,6@@ 274
3,8@@ 274
Martin 274
na 274
المج@@ 274
صوم@@ 274
مؤلف 274
ﮕ@@ 274
111 273
144 273
77@@ 273
da 273
انھ@@ 273
رچر@@ 273
مبا@@ 273
ٹاریو 273
۷ 273
123 272
th@@ 272
آٹھ@@ 272
انڈونی@@ 272
رجال 272
طرابلس 272
لائبری@@ 272
يكا 272
113 271
118 271
137 271
Kar@@ 271
الفضل 271
دوروں 271
ربان 271
طرنج 271
ﺻ@@ 271
113@@ 270
26,@@ 270
اختصار 270
الغ 270
لر@@ 270
المال 269
حِ@@ 269
وبر@@ 269
وینیا 269
پریش@@ 269
ڈیموکری@@ 269
138 268
4,0@@ 268
انتق@@ 268
نجوم 268
يران 268
131 267
150@@ 267
ایکس@@ 267
لل 267
ُّ@@ 267
145 266
بریگی@@ 266
حسین@@ 266
سلاسل 266
ضر 266
قصد 266
مرث@@ 266
ana 265
استغ@@ 265
اعتقاد 265
عمال 265
غضب 265
مباد@@ 265
متنا@@ 265
ٹرول 265
چودھ@@ 265
ہمی@@ 265
85@@ 264
community 264
poem 264
باق 264
تاريخ 264
درجات 264
رازی 264
وصف 264
چوب@@ 264
ﻘ@@ 264
750 263
North 263
الأ@@ 263
تبع 263
نسا 263
کارکن@@ 263
330 262
Khan 262
az@@ 262
territorial 262
اعون 262
باتی 262
ربت 262
ناسا 262
کٹو 262
142 261
City 261
entity 261
ism 261
اختلا@@ 261
الاب@@ 261
ایاں 261
جوا 261
حمد@@ 261
غرنا@@ 261
لغات 261
نیدر@@ 261
ٖ@@ 261
ڪ@@ 261
ہین 261
۶ 261
119 260
27,@@ 260
no@@ 260
region 260
تبر@@ 260
حمام 260
فاش@@ 260
لص 260
نسخ@@ 260
ai 259
اتفاق@@ 259
ایجو@@ 259
تاح 259
داً 259
رض 259
عضو 259
فریڈ@@ 259
لاب 259
واقع@@ 259
وتر 259
وود@@ 259
133 258
3,7@@ 258
As@@ 258
Qal@@ 258
ابتد@@ 258
درج@@ 258
مشغ@@ 258
واع@@ 258
134 257
86@@ 257
In@@ 257
ard 257
ﻻ@@ 257
1,000 256
119@@ 256
28,@@ 256
3,9@@ 256
ac@@ 256
ئرنگ 256
حیدر@@ 256
طس 256
فید 256
میٹر@@ 256
1878 255
1905 255
الات 255
المد@@ 255
بط 255
ته@@ 255
مہاراش@@ 255
1910 254
ابع 254
الدو@@ 254
المش@@ 254
توس 254
شرق 254
فوس@@ 254
کارپو@@ 254
1925 253
205 253
بروس 253
حسان 253
حوص@@ 253
سلو 253
طل 253
كسي@@ 253
ملو@@ 253
موجو@@ 253
from 252
اختراع 252
سرائی@@ 252
سعيد 252
سوشل@@ 252
قطر@@ 252
مذہ@@ 252
ڈش 252
203 251
Th@@ 251
آذرب@@ 251
افل 251
دوار 251
طا 251
وکٹو@@ 251
۸ 251
ang@@ 250
ترن 250
ده 250
سرچ 250
محلات 250
وانات 250
پرتگ@@ 250
یتی@@ 250
192 249
1927 249
ec@@ 249
us@@ 249
ו@@ 249
ارك 249
عقد 249
ــ@@ 249
قوس 249
مپی@@ 249
چیمپ@@ 249
1928 248
206 248
232 248
level 248
الرسول 248
بوز@@ 248
ترکی@@ 248
توف@@ 248
نجا 248
وون 248
کز 248
136 247
146 247
ازان 247
مانیہ 247
معظ@@ 247
مینہ 247
نشا@@ 247
هَ@@ 247
والد@@ 247
وفر 247
201 246
225 246
India 246
im@@ 246
top 246
؎ 246
منتظ@@ 246
منق@@ 246
ناٹک 246
نیوی@@ 246
ولات 246
185 245
94@@ 245
ou@@ 245
برد 245
ثات 245
صادر 245
نظری@@ 245
نمائ@@ 245
159 244
1908 244
97@@ 244
no 244
برل@@ 244
قاط 244
مرتب@@ 244
یاف@@ 244
158 243
167 243
1870 243
1911 243
256 243
Sar@@ 243
Se@@ 243
اقت 243
حوض 243
زیانا 243
يلي 243
153 242
193 242
650 242
ali 242
ary 242
ers 242
ā@@ 242
ائنٹ 242
الحاج 242
حمص 242
دیث 242
يرا 242
کیات 242
30.@@ 241
جنون 241
دفت@@ 241
مرات 241
184 240
1848 240
1890 240
Es@@ 240
Pakistan 240
ed@@ 240
te 240
v 240
اعل@@ 240
جہانگ@@ 240
حاک@@ 240
رك@@ 240
عرا@@ 240
لين 240
مَ 240
,000 239
262 239
Jean 239
Tr@@ 239
ing@@ 239
ازد@@ 239
سیکری@@ 239
لوت 239
ﺸ@@ 239
159@@ 238
1907 238
se 238
المدارس 238
رَ 238
مصطف@@ 238
١ 238
165 237
255 237
Air 237
Sal@@ 237
eh@@ 237
ابتداء 237
البا@@ 237
القر@@ 237
درات 237
له 237
ﻔ@@ 237
152 236
186 236
1880 236
Qu@@ 236
ap@@ 236
درخوا@@ 236
كان 236
كوم@@ 236
واب@@ 236
وبر 236
129@@ 235
رسم@@ 235
سسٹ@@ 235
شعراء 235
عود@@ 235
غالبا 235
لائل 235
معبد 235
181 234
550 234
ابي 234
سح@@ 234
صدور 234
كال@@ 234
يار@@ 234
٣ 234
کیتھ@@ 234
149 233
163 233
187 233
Bo@@ 233
Ho@@ 233
ic@@ 233
um@@ 233
انق@@ 233
بلان@@ 233
ذری@@ 233
طان 233
علاق@@ 233
وراث@@ 233
کلاسی@@ 233
156 232
194 232
92.@@ 232
96@@ 232
الر 232
الن 232
ثت 232
ريفي@@ 232
طَ@@ 232
كاس@@ 232
نمائند@@ 232
هن@@ 232
يان@@ 232
پہلو@@ 232
127 231
141 231
84@@ 231
China 231
bot 231
it@@ 231
اوہ@@ 231
فلت 231
لبر@@ 231
162 230
183 230
247 230
265 230
D8 230
Tol@@ 230
ville 230
الشام 230
الیگزی@@ 230
برٹ@@ 230
بلد 230
حرب 230
شِ@@ 230
هر 230
واح 230
ہارا 230
171 229
one 229
اجتماع@@ 229
حك@@ 229
رمز@@ 229
مجل@@ 229
221 228
West 228
ac 228
il 228
unincorporated 228
العباس 228
العرب 228
اند 228
عداد 228
فرینک@@ 228
منازل 228
میوزی@@ 228
پہر 228
176 227
217 227
3.5 227
Mal@@ 227
Mor@@ 227
اسرائی@@ 227
العلم 227
تعی@@ 227
سطو 227
عدن 227
متم@@ 227
ورٹی 227
148 226
154 226
1860 226
195 226
man 226
ائیہ 226
المت@@ 226
اوڈی@@ 226
كا@@ 226
معظم 226
وطات 226
۹ 226
ﻭ 226
147 225
189 225
1909 225
197 225
268 225
World 225
ائر@@ 225
متر 225
٤@@ 225
204 224
Bol@@ 224
Department 224
Jersey 224
ong 224
آبادیاتی 224
استقلال 224
اعل 224
سري@@ 224
سوي@@ 224
مورخ@@ 224
139 223
168 223
89@@ 223
Pierre 223
Sa@@ 223
ow@@ 223
الموت 223
بلن 223
درو 223
مخلو@@ 223
227 222
275 222
Mon@@ 222
ثبت 222
فُ@@ 222
کرش@@ 222
5,0@@ 221
be 221
آبادیات 221
العاص@@ 221
زَ@@ 221
سڈ@@ 221
٠ 221
191 220
209 220
259 220
اي 220
توب 220
زرا@@ 220
غرق 220
ﺐ 220
207 219
af@@ 219
المست@@ 219
زت 219
ساس 219
صع@@ 219
مرق@@ 219
واء 219
161 218
164 218
241 218
domain 218
دام 218
غض@@ 218
فعل@@ 218
متو@@ 218
ملك 218
182 217
1897 217
253 217
32.@@ 217
اضاف@@ 217
تد 217
مطبو@@ 217
موز 217
2.2 216
London 216
area 216
ki 216
الخوار@@ 216
باط@@ 216
حانہ 216
دين 216
لَ 216
ندو 216
ہف@@ 216
1895 215
Bal@@ 215
Be@@ 215
تث@@ 215
ترج@@ 215
تمث@@ 215
دوان 215
هِ@@ 215
وطنی 215
178 214
245 214
305 214
Br@@ 214
ian 214
ra 214
حضرموت 214
خلف 214
صنعاء 214
ضان 214
مدن 214
ميون@@ 214
وظائف 214
ّر 214
212 213
30,@@ 213
5,000 213
aj@@ 213
county 213
li 213
ton 213
بري 213
جونی@@ 213
زبر@@ 213
سمع@@ 213
ينس 213
گوئے 213
218 212
272 212
tube 212
ؒ@@ 212
آبادی@@ 212
ایو 212
قسم@@ 212
واز@@ 212
وانوں 212
٦@@ 212
1200 211
202 211
222 211
254 211
Sea 211
غلا@@ 211
ﻬ@@ 211
1876 210
242 210
370 210
4000 210
Gu@@ 210
حماس 210
ويا 210
38.@@ 209
University 209
os 209
ph@@ 209
قذ@@ 209
مہاج@@ 209
نیاں 209
وکٹ@@ 209
া@@ 209
169 208
1901 208
? 208
av@@ 208
ti@@ 208
ze@@ 208
الوا@@ 208
زوج@@ 208
طق 208
عل 208
ﺰ@@ 208
172 207
borough 207
li@@ 207
tr@@ 207
الست@@ 207
بالغ@@ 207
بدلا 207
ةِ 207
حديث 207
شعار 207
غَ@@ 207
فقت 207
مة 207
وائی@@ 207
کاون@@ 207
143 206
284 206
القدس 206
عیات 206
مقدون@@ 206
196 205
198 205
Japan 205
Man@@ 205
البلا@@ 205
الما 205
ترجی@@ 205
عار 205
فرائ@@ 205
لوي 205
پختون@@ 205
1906 204
95@@ 204
انجین@@ 204
ایگزی@@ 204
باخت@@ 204
تعال@@ 204
توت 204
ريكي 204
رہن 204
غون 204
ویکی@@ 204
173 203
213 203
244 203
اقل 203
الين@@ 203
فِي 203
كس@@ 203
وتن 203
ﭖ 203
177 202
1812 202
380 202
ala 202
di@@ 202
w 202
اسماعی@@ 202
عیب 202
لاج@@ 202
لور 202
مائي 202
معاو@@ 202
پروڈ@@ 202
151 201
1896 201
271 201
310 201
34.@@ 201
agh 201
ji 201
ère 201
العالم 201
المنا@@ 201
تورا@@ 201
دين@@ 201
مري 201
302 200
36.@@ 200
ie 200
اوم 200
سباق 200
شارع 200
عاط@@ 200
نفر 200
وائف 200
ونيا 200
کاغ@@ 200
ہیں@@ 200
269 199
299 199
340 199
Con@@ 199
الحر@@ 199
المس@@ 199
روما 199
لوف 199
وراء 199
ٴ 199
1- 198
174 198
1877 198
1904 198
199 198
252 198
39.@@ 198
420 198
أُ@@ 198
اضطراب 198
داخ@@ 198
نٹین 198
پارٹمنٹ 198
1898 197
215 197
228 197
249 197
290 197
326 197
au 197
اطی 197
الدار 197
المغ@@ 197
بوج@@ 197
دن@@ 197
شال 197
ولم 197
يلا 197
َّا 197
2- 196
224 196
ne 196
أ 196
اسي 196
الاف@@ 196
بولو 196
كش@@ 196
ويك 196
یونیورسٹی@@ 196
157 195
188 195
216 195
37.@@ 195
Bel@@ 195
em@@ 195
id@@ 195
الزمان 195
الوط@@ 195
سائل 195
مب 195
پاك@@ 195
ہرزی@@ 195
ہسپ@@ 195
﴾ 195
273 194
روض 194
والت 194
1800 193
211 193
223 193
239 193
251 193
National 193
ai@@ 193
ent 193
صباح 193
فيصل 193
كوس@@ 193
ويل@@ 193
277 192
4.5 192
جیریا 192
شُ@@ 192
وراس 192
وه 192
َّ 192
243 191
291 191
35,@@ 191
Park 191
اسات 191
استث@@ 191
الور@@ 191
بوا@@ 191
ترف 191
داؤ@@ 191
ستاني 191
1.6 190
1899 190
Kal@@ 190
اوي@@ 190
راض 190
زيد 190
ساو 190
سپی 190
عذ@@ 190
فتاری 190
فتح@@ 190
فرت 190
کاررو@@ 190
2.3 189
208 189
279 189
301 189
دد 189
ستان@@ 189
وض 189
1.2 188
233 188
Ag@@ 188
Chapelle 188
aq 188
ins 188
je@@ 188
ons 188
الات@@ 188
بلج@@ 188
درز 188
دوق 188
لگو 188
231 187
248 187
292 187
430 187
Col@@ 187
San 187
age 187
انک@@ 187
طي@@ 187
واجد 187
واصل 187
واڈا 187
پیپ@@ 187
کردگی 187
ov@@ 186
ve 186
القض@@ 186
جماع 186
قانون@@ 186
مصادر 186
مَّ@@ 186
وست 186
10,000 185
214 185
263 185
285 185
286 185
37,@@ 185
Ur@@ 185
ya 185
اتم 185
تائی@@ 185
جما@@ 185
رفع 185
قسطنط@@ 185
مير@@ 185
﴿ 185
234 184
ابراہ@@ 184
الق 184
الواحد 184
ساب 184
فاء 184
پیدائ@@ 184
ﺌ@@ 184
ﻳ@@ 184
1830 183
283 183
288 183
303 183
33.@@ 183
34,@@ 183
Pennsylvania 183
اسما@@ 183
انف@@ 183
تقسيم 183
33,@@ 182
Car@@ 182
Mont@@ 182
que 182
اجز 182
بوا 182
نقش@@ 182
ٹاہ 182
ﮢ@@ 182
219 181
35.@@ 181
آزاد@@ 181
اكي 181
الجن@@ 181
الناصر 181
بادشاہ@@ 181
تاء 181
رفی@@ 181
زلز@@ 181
شهد 181
عث@@ 181
عليا 181
غازي 181
نقاط 181
يوم 181
ٖ 181
پیو@@ 181
ﮬ@@ 181
2.6 180
238 180
aw@@ 180
البر 180
التر@@ 180
تصرف 180
سكي 180
فراز 180
نبو@@ 180
٥ 180
ﻃ@@ 180
1882 179
2,000 179
2.7 179
St@@ 179
human 179
شاف@@ 179
غاف@@ 179
فقر 179
وتع@@ 179
کینٹ@@ 179
125@@ 178
1892 178
257 178
293 178
Ne@@ 178
ari@@ 178
language 178
og@@ 178
ؓ@@ 178
افات 178
بناء 178
عاد@@ 178
كِ@@ 178
نشاط 178
نٹری 178
وائل 178
يار 178
٧ 178
297 177
Mo@@ 177
ash 177
land 177
الظ@@ 177
رابط@@ 177
صل@@ 177
مملو@@ 177
يع@@ 177
1.1 176
246 176
258 176
281 176
295 176
89.@@ 176
Morocco 176
Ro@@ 176
ice 176
آذربائی@@ 176
احب 176
اخر 176
السل@@ 176
بلاد 176
جول 176
راست@@ 176
سکری@@ 176
2.9 175
226 175
278 175
306 175
307 175
Autonom@@ 175
qi 175
جرز 175
صلى 175
ahr@@ 174
du@@ 174
باف@@ 174
بوم@@ 174
تت@@ 174
صار@@ 174
فتار 174
مماثل 174
يرس 174
٦ 174
ﮍ@@ 174
ﺏ 174
179 173
1881 173
1894 173
264 173
Ta@@ 173
et@@ 173
ri@@ 173
tion 173
البحر 173
بك@@ 173
مخالف@@ 173
وادي 173
چیئر@@ 173
کوز 173
2.0 172
266 172
312 172
Airlines 172
br@@ 172
المط@@ 172
جمہوري@@ 172
حلق@@ 172
ربا@@ 172
ريك 172
ساد 172
عاص@@ 172
يب 172
٨@@ 172
1871 171
1902 171
325 171
Kingdom 171
Q 171
section 171
ָ@@ 171
استن@@ 171
بذ@@ 171
زار@@ 171
سورة 171
هو@@ 171
وشی 171
٤ 171
236 170
294 170
31.@@ 170
Voivodeship 170
ha 170
hi 170
أبو 170
بجانب 170
سپاہ@@ 170
قب 170
مَّ 170
کوان 170
46.@@ 169
all 169
ch 169
ina 169
ter 169
to@@ 169
الرو@@ 169
المنصور 169
غرب 169
كم 169
نسخ 169
٧@@ 169
ٹیکس@@ 169
1903 168
229 168
267 168
311 168
AD 168
In 168
Per@@ 168
administrative 168
ez@@ 168
ديا 168
صلاحی@@ 168
فاض@@ 168
كار 168
پریفی@@ 168
ہیپ@@ 168
1815 167
1887 167
289 167
Mah@@ 167
Or@@ 167
az 167
تعلی@@ 167
مسقط 167
مم 167
پرچ@@ 167
ہاش@@ 167
1.7 166
276 166
36,@@ 166
ated 166
ek 166
han 166
he@@ 166
ts 166
بحی@@ 166
رع 166
زیاد@@ 166
ستو 166
سك 166
شه@@ 166
ظم 166
غا 166
٥@@ 166
als 165
iy@@ 165
ro@@ 165
اجز@@ 165
افظ 165
العمل 165
جاز 165
جسم@@ 165
زام@@ 165
ساچوسٹس 165
صول 165
فع@@ 165
وآ@@ 165
ودا 165
ّم 165
ﻄ@@ 165
1.8 164
1884 164
261 164
296 164
365 164
410 164
Bag@@ 164
Gen@@ 164
ance 164
lu@@ 164
ابتدا@@ 164
ارن 164
الواق@@ 164
الوقت 164
شريف 164
عاز@@ 164
عود 164
فوق 164
مجسم@@ 164
نسب@@ 164
چیس 164
298 163
DNA 163
Lower 163
Wisconsin 163
man@@ 163
od@@ 163
yn@@ 163
احترا@@ 163
التف@@ 163
الح 163
بشر@@ 163
شير 163
وظ@@ 163
ووك@@ 163
کمز@@ 163
1.3 162
237 162
282 162
309 162
England 162
العزيز 162
حفا@@ 162
محر@@ 162
معاہ@@ 162
ومح@@ 162
1.4 161
2.4 161
ola 161
province 161
ר@@ 161
الینڈ 161
تها 161
جاج 161
میٹڈ 161
وير 161
يوان 161
ﮮ 161
2.1 160
2.8 160
287 160
Ah@@ 160
Co@@ 160
En@@ 160
Ma@@ 160
She@@ 160
ics 160
local 160
ong@@ 160
ver@@ 160
اعتق@@ 160
سيل@@ 160
لاك 160
ويك@@ 160
کانگری@@ 160
0.7 159
1879 159
850 159
East 159
Mi@@ 159
é@@ 159
ازات 159
تين 159
حف 159
حید 159
دائم 159
سوال@@ 159
سيل 159
سیال@@ 159
والي 159
يش 159
---- 158
274 158
321 158
Le 158
River 158
آں 158
بتا@@ 158
توان@@ 158
خلي@@ 158
شخصی@@ 158
عاً 158
عرق 158
يشن 158
ٌ@@ 158
8.5 157
Har@@ 157
Sey@@ 157
co@@ 157
has 157
ik@@ 157
البلد 157
رفعت 157
صال 157
فرسن 157
قبائ@@ 157
كاري 157
لط 157
ماد 157
2500 156
Az@@ 156
Ber@@ 156
aire 156
ce 156
ּ@@ 156
حور 156
غير 156
وسف 156
وه@@ 156
1886 155
1891 155
aux 155
ni@@ 155
tic 155
type 155
מ@@ 155
الصباح 155
ثلاث@@ 155
جيم@@ 155
حضر 155
ره 155
ريل 155
فرز@@ 155
قضاء 155
لق 155
میکسی@@ 155
نای@@ 155
ويت 155
يرو 155
پارلی@@ 155
ﺼ@@ 155
128@@ 154
313 154
460 154
Mohammad 154
Ru@@ 154
bi@@ 154
ographic 154
بازن@@ 154
سوخ 154
كيا 154
ويلز 154
் 154
333 153
375 153
Islands 153
Mos@@ 153
ek@@ 153
qu@@ 153
st@@ 153
were 153
اريو 153
بيت 153
جلي@@ 153
راك 153
رومان 153
رين@@ 153
عیل 153
مفر@@ 153
يد@@ 153
1864 152
329 152
6000 152
People 152
ci@@ 152
ig@@ 152
اختی@@ 152
بود@@ 152
حساب@@ 152
رة 152
طرا@@ 152
غن 152
نقص 152
وجد 152
وح 152
0.8 151
109@@ 151
1856 151
1885 151
Go@@ 151
Pr@@ 151
har@@ 151
ru@@ 151
امتی@@ 151
خول 151
ساع@@ 151
ضعف 151
غا@@ 151
كوي@@ 151
مقناطی@@ 151
نصوص 151
وص 151
1813 150
3- 150
308 150
316 150
317 150
334 150
390 150
Shu@@ 150
عنا@@ 150
فوف 150
متق@@ 150
مدين@@ 150
مرك@@ 150
ملاح@@ 150
نه@@ 150
هن 150
کابی@@ 150
کعب@@ 150
ﻀ@@ 150
1814 149
324 149
ara 149
au@@ 149
ę@@ 149
تفاعل 149
طاق 149
طاقم 149
عشر 149
قاس@@ 149
نى 149
304 148
315 148
Char@@ 148
Mississippi 148
ne@@ 148
بني 148
خص 148
زات 148
سترو@@ 148
صاد@@ 148
ماً 148
ٔ@@ 148
٨ 148
32,@@ 147
Al 147
Her@@ 147
country 147
eb@@ 147
ly 147
ma@@ 147
re 147
this 147
ریجن@@ 147
عند@@ 147
فران 147
لوے 147
میٹرو@@ 147
وجل 147
وّ@@ 147
٬ 147
ڈگ@@ 147
ۡ 147
1850 146
480 146
787 146
Germain 146
ica 146
iz@@ 146
yr@@ 146
افس@@ 146
الدر@@ 146
الرجال 146
النے 146
بئر 146
حو 146
ذت 146
رقام 146
شوا@@ 146
مقاب@@ 146
نفس@@ 146
680 145
Gol@@ 145
Mas@@ 145
Shah@@ 145
uy@@ 145
اده 145
اطب 145
الخطاب 145
بوت 145
تداد 145
تقد 145
تك@@ 145
خار 145
ده@@ 145
سوق 145
فاس 145
ماني 145
مقبر@@ 145
هر@@ 145
ڙ@@ 145
0.5 144
1.9 144
520 144
Le@@ 144
Me@@ 144
and@@ 144
ha@@ 144
oc@@ 144
ta 144
te@@ 144
É@@ 144
́ 144
ؔ@@ 144
اعز@@ 144
رق 144
سكو 144
طون 144
1889 143
314 143
322 143
323 143
CO@@ 143
Cor@@ 143
Mac@@ 143
Su@@ 143
ant 143
ey@@ 143
its 143
state 143
أبي 143
اري@@ 143
البي@@ 143
العالم@@ 143
الوجود 143
تركي 143
تصنی@@ 143
سليمان 143
صار 143
فرآباد 143
لص@@ 143
نض@@ 143
چوس@@ 143
← 143
1893 142
39,@@ 142
York 142
ho@@ 142
بير 142
بيل 142
ثُ@@ 142
سؤ@@ 142
سبت 142
ٍ@@ 142
4.2 141
BC 141
adi@@ 141
اغ 141
حوا 141
داع@@ 141
دَ 141
شج@@ 141
طرت 141
عجائ@@ 141
عي 141
موضوع@@ 141
ولت 141
يوس 141
1867 140
332 140
Com@@ 140
Gar@@ 140
State 140
bar@@ 140
احتی@@ 140
ارجن@@ 140
الاص@@ 140
الشر@@ 140
الفتح 140
انٹرو@@ 140
بؤ@@ 140
تفر@@ 140
تنی 140
ذن 140
شون 140
ندن 140
ڈومی@@ 140
1888 139
440 139
Tar@@ 139
Ver@@ 139
א@@ 139
أن 139
اتل 139
الثق@@ 139
المنت@@ 139
ةً 139
شعاع 139
عرش 139
وكا 139
ہتھی@@ 139
110@@ 138
AC@@ 138
Bas@@ 138
J 138
Parish 138
chi 138
government 138
not 138
op@@ 138
style 138
zy@@ 138
ائخ 138
اتح@@ 138
بير@@ 138
ةَ 138
زونا 138
شرات 138
فاص@@ 138
كلارك 138
ملحوظ 138
منح@@ 138
وث 138
٩ 138
328 137
352 137
40,@@ 137
7.5 137
الوار@@ 137
شرع 137
قوم@@ 137
مندر@@ 137
نب 137
يلي@@ 137
1700 136
327 136
40.@@ 136
48.@@ 136
Bi@@ 136
D9 136
Far@@ 136
Has@@ 136
Nebraska 136
U.S. 136
mar@@ 136
جوان@@ 136
شيا 136
عقب 136
فرج 136
كام 136
وتق@@ 136
وني@@ 136
چہار@@ 136
335 135
38,@@ 135
381 135
45.@@ 135
For@@ 135
Hu@@ 135
Un@@ 135
^ 135
اعتم@@ 135
الآثار 135
بدو 135
رونی 135
غار@@ 135
غل 135
مالك 135
گھن@@ 135
ﭽ@@ 135
ﻑ 135
ﻫ@@ 135
0.6 134
59.@@ 134
ator 134
po@@ 134
ə@@ 134
الجام@@ 134
تبا@@ 134
ريو 134
سري 134
سہار@@ 134
ضاء 134
فروع 134
لات@@ 134
لیکس 134
مونٹگ@@ 134
ينز 134
پنس@@ 134
র@@ 134
345 133
372 133
395 133
41.@@ 133
560 133
Indian 133
UN@@ 133
end 133
ok@@ 133
world 133
الآ@@ 133
تناز@@ 133
جاب 133
معرو@@ 133
مینیا 133
ﭩ@@ 133
Moh@@ 132
lo@@ 132
par@@ 132
rural 132
إ@@ 132
اوقیان@@ 132
اوي 132
اکیڈ@@ 132
صوت@@ 132
قهٔ 132
كيرو@@ 132
وتا 132
يف@@ 132
گہر@@ 132
318 131
336 131
354 131
44,@@ 131
47.@@ 131
Lan@@ 131
Santa 131
able 131
del 131
ש@@ 131
المذ@@ 131
تحمل 131
رضي 131
سوسائ@@ 131
عليه 131
كوك 131
ومنٹ 131
چینج 131
338 130
348 130
Di@@ 130
Ham@@ 130
Sau@@ 130
hi@@ 130
ille 130
si@@ 130
states 130
ايا 130
تز 130
رط@@ 130
مناس@@ 130
منسو@@ 130
ولان 130
-- 129
1849 129
20,000 129
339 129
45,@@ 129
College 129
John 129
Shar@@ 129
Sub@@ 129
ach@@ 129
eg@@ 129
mad@@ 129
الدع@@ 129
الغرض 129
قن 129
كاون@@ 129
موا 129
ينو 129
ٗ@@ 129
31@@ 128
Ali@@ 128
era 128
im 128
ley 128
ś@@ 128
ة@@ 128
تعليم 128
طین 128
فنک@@ 128
وسي@@ 128
ويس 128
1858 127
357 127
363 127
49.@@ 127
570 127
8000 127
Ger@@ 127
Korea 127
Pal@@ 127
ati@@ 127
ite 127
pi@@ 127
ל@@ 127
البغ@@ 127
الجامع 127
الرؤ@@ 127
انگری@@ 127
حول 127
حیات@@ 127
دير 127
سيا 127
كتب 127
كوك@@ 127
كير@@ 127
لاق 127
مصنف@@ 127
ملائی@@ 127
نص 127
1840 126
344 126
362 126
540 126
CC 126
Is@@ 126
Tal@@ 126
aj 126
ama 126
ber@@ 126
cities 126
ni 126
si 126
za 126
ְ@@ 126
ئت 126
ابلا@@ 126
ادائی@@ 126
العصر 126
بكر 126
تمر 126
غرا@@ 126
فضلا 126
كول 126
متز@@ 126
ٽ@@ 126
0.9 125
1873 125
319 125
331 125
337 125
355 125
5.5 125
Ab 125
Laurent 125
Li@@ 125
Po@@ 125
der 125
field 125
ill@@ 125
ؑ@@ 125
اه 125
جود 125
سرگر@@ 125
فیڈری@@ 125
مقتل 125
ਰ@@ 125
ﮫ 125
1300 124
3.3 124
364 124
530 124
ba@@ 124
dan 124
he 124
ish@@ 124
jan 124
pa@@ 124
th 124
ב@@ 124
المخت@@ 124
تري@@ 124
غور@@ 124
معرض 124
0.2 123
1861 123
351 123
356 123
AR@@ 123
Ac@@ 123
Kur@@ 123
Time 123
do 123
ob@@ 123
ou 123
ה@@ 123
ضرر 123
عين 123
مجھ@@ 123
مراجع 123
وأ@@ 123
والق@@ 123
گفت@@ 123
3.4 122
3.6 122
6.5 122
640 122
Lab@@ 122
Ph@@ 122
Pi@@ 122
ane 122
division 122
ot 122
ה 122
ازت 122
انوس 122
اویر 122
خصائص 122
خصوص@@ 122
عمار@@ 122
فرنس 122
قن@@ 122
1875 121
347 121
366 121
396 121
57.@@ 121
Ba@@ 121
Prefecture 121
ca 121
اشم 121
براون 121
خدی@@ 121
زين@@ 121
غال 121
گوجران@@ 121
0.3 120
000@@ 120
1804 120
490 120
Ex@@ 120
Gr@@ 120
Ku@@ 120
Loire 120
Mir@@ 120
ex@@ 120
object 120
pr@@ 120
استم@@ 120
اناط@@ 120
ةٍ 120
تْ 120
روج 120
طراز 120
قتال 120
كاؤن@@ 120
كات@@ 120
متعل@@ 120
پسم@@ 120
3,000 119
346 119
367 119
385 119
48,@@ 119
639 119
Gal@@ 119
IS@@ 119
Shah 119
include 119
ta@@ 119
ةُ 119
ترو 119
سلک 119
قصائد 119
قفق@@ 119
مقص@@ 119
پولین 119
﻿ 119
3.1 118
342 118
343 118
AS@@ 118
Sol@@ 118
esh@@ 118
× 118
المتو@@ 118
بعنوان 118
جين@@ 118
زين 118
فري 118
كين 118
لما 118
مارس 118
ٴ@@ 118
AM@@ 117
Bor@@ 117
Em@@ 117
Ser@@ 117
Str@@ 117
om 117
ul 117
ut@@ 117
السع@@ 117
بقاء 117
حضر@@ 117
صت 117
ماتح@@ 117
مقبوض@@ 117
ویش 117
ﺨ@@ 117
1400 116
1839 116
1872 116
349 116
em 116
est 116
gu@@ 116
mo@@ 116
mon@@ 116
المثل 116
المز@@ 116
النج@@ 116
روق 116
سكا 116
ضي 116
عبر@@ 116
عیس@@ 116
نك@@ 116
يول@@ 116
ّن 116
یوگ@@ 116
ﺲ 116
￼ 116
1600 115
369 115
96.@@ 115
99.@@ 115
Bu@@ 115
Ra@@ 115
So@@ 115
den 115
elle 115
ette 115
ja 115
la@@ 115
ma 115
ment 115
ost 115
ִ@@ 115
ئون 115
ائیس 115
اكا 115
اندل@@ 115
اني@@ 115
انيا 115
بالم@@ 115
بلي@@ 115
جزئ@@ 115
راض@@ 115
ساء 115
عة 115
فائی@@ 115
قرآ@@ 115
مسئ@@ 115
موسو@@ 115
ﺿ@@ 115
1865 114
353 114
359 114
368 114
42.@@ 114
44.@@ 114
Av@@ 114
It 114
Kor@@ 114
Poland 114
our 114
system 114
ure 114
ائق 114
الاد@@ 114
المقد@@ 114
بلي 114
ثاني 114
حبيب 114
ليل 114
نزدی@@ 114
نفا@@ 114
نفو@@ 114
کاروب@@ 114
ݨ 114
ਾ@@ 114
་ 114
ﻏ@@ 114
ﻱ 114
378 113
5.2 113
Lin@@ 113
Russia 113
ale 113
ations 113
est@@ 113
اکث@@ 113
جغرا@@ 113
خطر 113
راع 113
ساتھ@@ 113
قار 113
ومي 113
يام@@ 113
ﺅ 113
1.0 112
386 112
Hil@@ 112
Lo@@ 112
Now@@ 112
Si@@ 112
Val@@ 112
go@@ 112
ti 112
á@@ 112
افر 112
بم@@ 112
ریلو@@ 112
ساف@@ 112
ستار@@ 112
صدي@@ 112
عز 112
غي@@ 112
قصص 112
مونت@@ 112
্ 112
0.1 111
379 111
403 111
470 111
630 111
999 111
El@@ 111
Ha@@ 111
department 111
ency 111
hir 111
استف@@ 111
تعالى 111
تعم@@ 111
خمس@@ 111
دائرة 111
عقاب 111
فين@@ 111
كيلي 111
يه@@ 111
− 111
1828 110
1859 110
1862 110
1883 110
341 110
393 110
5.4 110
6,000 110
At@@ 110
Aub@@ 110
Hasan 110
Pro@@ 110
cr@@ 110
ence 110
sa 110
ءت 110
المقابل 110
زیز 110
عروض 110
قرن 110
كت@@ 110
مناصب 110
مه 110
1838 109
371 109
376 109
391 109
4- 109
4.0 109
46,@@ 109
88.@@ 109
IM@@ 109
Kam@@ 109
Lake 109
Peru 109
ano 109
ao 109
people 109
ès 109
ادق 109
المخ@@ 109
المهدي 109
اہب 109
بوي@@ 109
رك 109
صوت 109
عيل 109
كريم 109
384 108
Bur@@ 108
IV 108
No@@ 108
Nord 108
UTC 108
do@@ 108
ion 108
lam@@ 108
ome 108
osis 108
ter@@ 108
ą@@ 108
اشرا@@ 108
الثاني 108
بوب 108
توح 108
سمرق@@ 108
صندوق 108
قيس 108
لد@@ 108
منس 108
وكي 108
ﺍﻭ@@ 108
1832 107
1853 107
50,@@ 107
79.@@ 107
Fer@@ 107
Georges 107
Lam@@ 107
Lar@@ 107
RE@@ 107
ast@@ 107
languages 107
ng@@ 107
their 107
uk@@ 107
ˈ@@ 107
ַ@@ 107
تات 107
جروں 107
صحيح 107
فح@@ 107
نساء 107
وَّ@@ 107
ﻒ 107
1863 106
404 106
5.6 106
54,@@ 106
660 106
960 106
Ko@@ 106
Taz@@ 106
ais 106
estan 106
ford 106
geograph@@ 106
have 106
lès 106
son 106
آئر@@ 106
استر@@ 106
الحاد 106
الشاف@@ 106
براء 106
حاص@@ 106
فلوری@@ 106
قديم 106
مقب@@ 106
ناہ 106
وير@@ 106
ٹورنام@@ 106
1866 105
398 105
405 105
412 105
5.8 105
610 105
720 105
AL@@ 105
Ban@@ 105
bar 105
ó@@ 105
اسل 105
الس 105
اللح@@ 105
بعث 105
بیو 105
تام 105
تروی@@ 105
تکلی@@ 105
خوا 105
سندر 105
فلسف@@ 105
لکھن@@ 105
مصنع 105
والع@@ 105
وصی@@ 105
ٰن 105
05@@ 104
1,200 104
1806 104
373 104
399 104
435 104
481 104
49,@@ 104
510 104
58,@@ 104
Ad@@ 104
Empire 104
IN@@ 104
Maryland 104
Paul 104
ie@@ 104
me 104
more 104
per@@ 104
pur 104
ty 104
بغض 104
بيل@@ 104
رخص@@ 104
سوف 104
شري@@ 104
شك@@ 104
كون 104
يف 104
گجرا@@ 104
100,000 103
1826 103
1846 103
1851 103
1869 103
3.2 103
361 103
401 103
408 103
55,@@ 103
760 103
Carni@@ 103
IC@@ 103
Julien 103
San@@ 103
St. 103
Tom@@ 103
ji@@ 103
التح@@ 103
تخصص 103
تکنی@@ 103
ربع 103
صاص 103
ومو@@ 103
425 102
CA@@ 102
ada 102
ؤٹ 102
ادل 102
بنات 102
خمس 102
ميد 102
وسي 102
وقعت 102
ومع@@ 102
یکس@@ 102
ﭨ@@ 102
358 101
387 101
394 101
406 101
47,@@ 101
Bon@@ 101
Nas@@ 101
Sad@@ 101
ey 101
oli 101
ran@@ 101
trans@@ 101
الاست@@ 101
العلا@@ 101
انگل@@ 101
اکین 101
بوط 101
جارج@@ 101
جت 101
داول 101
زال 101
كلين@@ 101
لاح 101
وقت@@ 101
″ 101
 101
1834 100
1854 100
382 100
388 100
50,000 100
525 100
620 100
661 100
830 100
Arabic 100
Bois 100
IA@@ 100
Stadium 100
Trans@@ 100
ets 100
hu@@ 100
اظ 100
البق@@ 100
باح@@ 100
جاء 100
سوتا 100
سپ 100
محاص@@ 100
نع 100
نوتی 100
0.4 99
377 99
392 99
69.@@ 99
730 99
English 99
Union 99
air@@ 99
bi 99
car@@ 99
rah@@ 99
ze 99
الروا@@ 99
المو@@ 99
ته 99
رہنما@@ 99
شغل 99
گلگ@@ 99
0,0@@ 98
1831 98
397 98
424 98
452 98
590 98
ita 98
you 98
بح 98
تناول 98
جديد 98
خل 98
ريز 98
ریاست@@ 98
شنو 98
قندھ@@ 98
لوث 98
ماي@@ 98
مشار@@ 98
کھوں 98
1821 97
1835 97
383 97
4,000 97
428 97
441 97
445 97
Mat@@ 97
com@@ 97
gr@@ 97
lar 97
oma 97
way 97
الشمس 97
ةٌ 97
تصر 97
توم 97
دري 97
دز 97
ربي 97
ساك@@ 97
فتوں 97
لك 97
وزير 97
يق@@ 97
1790 96
1818 96
1820 96
1845 96
3.9 96
374 96
4.7 96
56,@@ 96
AN@@ 96
Archiv@@ 96
COVID 96
Internet@@ 96
a.org 96
ali@@ 96
ant@@ 96
ative 96
dis@@ 96
ens 96
ev@@ 96
line 96
owo 96
population 96
wa 96
ys@@ 96
اة 96
دث 96
زه 96
مظاہ@@ 96
معي@@ 96
مك 96
ولاد 96
ية 96
ّس 96
ٕ@@ 96
ۖ 96
07@@ 95
09@@ 95
1874 95
423 95
438 95
Ash@@ 95
Now 95
Ow@@ 95
Sur@@ 95
Sy@@ 95
also 95
bo@@ 95
cas@@ 95
che 95
end@@ 95
eng@@ 95
ish 95
str@@ 95
uv@@ 95
which 95
بني@@ 95
جزء 95
ربيع 95
طيف 95
كوا@@ 95
مساف@@ 95
وسل@@ 95
يمي 95
کریا 95
1809 94
1868 94
415 94
433 94
493 94
495 94
6.4 94
950 94
97.@@ 94
Bah@@ 94
Cal@@ 94
Council 94
Inter@@ 94
Sab@@ 94
Tri@@ 94
adi 94
alism 94
appe@@ 94
ata 94
ath@@ 94
ess@@ 94
ge 94
single 94
ura 94
افع 94
الصح@@ 94
العب@@ 94
النص@@ 94
جه@@ 94
شمل 94
قاء 94
قوط 94
لج@@ 94
ميا 94
هـ 94
وجود@@ 94
وزي@@ 94
ٹاؤن@@ 94
1799 93
389 93
426 93
473 93
5.9 93
656 93
670 93
7000 93
He@@ 93
Island 93
Mol@@ 93
Sav@@ 93
tan@@ 93
tu@@ 93
use 93
ابن@@ 93
الجرا@@ 93
الجز@@ 93
الفار@@ 93
المُ@@ 93
انکارپو@@ 93
تقد@@ 93
دلچ@@ 93
سعودي 93
وتي 93
وذ@@ 93
ٹرل 93
₹ 93
ﮪ 93
432 92
442 92
455 92
57,@@ 92
58.@@ 92
8.1 92
978 92
AT@@ 92
Cy@@ 92
Haute 92
LC 92
Ni@@ 92
Tang 92
Western 92
ku@@ 92
sp@@ 92
tes 92
yn 92
ë@@ 92
ئری 92
المغرب 92
جہاز@@ 92
حدث 92
قبل@@ 92
مرش@@ 92
مسا@@ 92
ولون 92
ونسو 92
يزيد 92
ہدای@@ 92
ি@@ 92
001 91
3.0 91
30,000 91
4.6 91
418 91
456 91
Bad@@ 91
Games 91
Ge@@ 91
Lag@@ 91
Mad@@ 91
Mag@@ 91
Pan@@ 91
Pl@@ 91
ell@@ 91
ological 91
sub@@ 91
uz@@ 91
افز@@ 91
برکی@@ 91
تخلی@@ 91
حضرت@@ 91
حيات 91
دوغ@@ 91
ديل 91
شخصيات 91
ضي@@ 91
لى 91
موسي@@ 91
نکھ 91
ڊ@@ 91
409 90
43.@@ 90
465 90
Borough 90
Dow@@ 90
Dynasty 90
Tur@@ 90
ain 90
od 90
ular 90
yan 90
ye@@ 90
التص@@ 90
المسلمون 90
تدار 90
راعات 90
روبن 90
صُ@@ 90
عال@@ 90
قوا@@ 90
كيم 90
ليون 90
وتم 90
وّر 90
پنسلو@@ 90
ਸ@@ 90
3.7 89
4.9 89
439 89
444 89
545 89
586 89
860 89
940 89
980 89
Ang@@ 89
Cas@@ 89
Do@@ 89
Great 89
History 89
Il@@ 89
Islamic 89
Lac@@ 89
Nor@@ 89
OS 89
SA 89
Tak@@ 89
US 89
anti@@ 89
bu@@ 89
ent@@ 89
ib@@ 89
mer@@ 89
over 89
Étienne 89
ō@@ 89
آسٹریلی@@ 89
المث@@ 89
تنظيم 89
عنص@@ 89
لاه@@ 89
مترا 89
وسلا@@ 89
️ 89
1100 88
1855 88
3.8 88
411 88
485 88
543 88
6.1 88
6.3 88
DB 88
System 88
ability 88
html 88
ik 88
mi@@ 88
most 88
ran 88
space 88
ud@@ 88
va 88
vi@@ 88
تیب 88
خصوصًا 88
دلال 88
ظروف 88
مجتمع 88
ياس@@ 88
یروش@@ 88
1,500 87
1789 87
413 87
421 87
422 87
446 87
454 87
737 87
Ak@@ 87
Lou@@ 87
Ray@@ 87
US@@ 87
aye 87
bot@@ 87
can 87
her@@ 87
number 87
time 87
war 87
š@@ 87
ادیث 87
الشع@@ 87
رًا 87
غام@@ 87
فرق@@ 87
قري@@ 87
كيمي@@ 87
ماري 87
ماق 87
مالي 87
ناک@@ 87
نه 87
ਦ@@ 87
1801 86
1847 86
4.8 86
402 86
416 86
417 86
448 86
484 86
580 86
7,000 86
André 86
Bak@@ 86
Bay@@ 86
Bey@@ 86
Lahore 86
Ou@@ 86
Sam@@ 86
Spain 86
ates 86
ba 86
con@@ 86
ham@@ 86
istan 86
ke 86
ting 86
yk@@ 86
נ@@ 86
ازي 86
اعتب@@ 86
الاث@@ 86
البشر 86
الحديث 86
بعض@@ 86
جعل 86
جمي@@ 86
جين 86
زز 86
صنا@@ 86
صي@@ 86
مري@@ 86
وفى 86
़ 86
ক@@ 86
ﭙ@@ 86
ﯽ@@ 86
1837 85
300@@ 85
407 85
414 85
437 85
5- 85
515 85
64,@@ 85
930 85
975 85
Deh@@ 85
Gor@@ 85
Romania 85
TV 85
VI 85
aki 85
bas@@ 85
bl@@ 85
fac@@ 85
gen@@ 85
non 85
ny 85
pedi@@ 85
آندھ@@ 85
تؤ@@ 85
ثا 85
خليج 85
دفع 85
سلر 85
وتن@@ 85
1810 84
1817 84
419 84
427 84
494 84
499 84
5.3 84
548 84
642 84
652 84
740 84
790 84
Jon@@ 84
Muhammad 84
NS@@ 84
Valley 84
ault 84
ju@@ 84
nor@@ 84
parish 84
wiki@@ 84
ères 84
البل@@ 84
بالت@@ 84
بض 84
سير 84
سيف 84
فة 84
فرانسي@@ 84
مًا 84
نين 84
هو 84
وبي 84
ੀ 84
ﻊ 84
08@@ 83
112@@ 83
1829 83
1842 83
468 83
486 83
544 83
632 83
8,000 83
Beau@@ 83
Est 83
House 83
Hungary 83
Jan@@ 83
Las 83
PO@@ 83
Ri@@ 83
fi@@ 83
settlements 83
yg@@ 83
Ś@@ 83
إلى 83
المرا@@ 83
ديه 83
شح@@ 83
شیدہ 83
مى 83
ميل 83
وظ 83
وعمل 83
1520 82
1844 82
436 82
457 82
483 82
507 82
549 82
6.6 82
840 82
Land@@ 82
Lu@@ 82
SA@@ 82
Tw@@ 82
apo@@ 82
ep@@ 82
ino 82
mont 82
s.@@ 82
ush@@ 82
will 82
ע@@ 82
تى 82
حدگی 82
طع 82
كوب@@ 82
متر@@ 82
محق@@ 82
مخد@@ 82
منتج 82
مني 82
1807 81
429 81
5.1 81
527 81
565 81
59,@@ 81
6.2 81
810 81
910 81
Kah@@ 81
Kr@@ 81
La@@ 81
Mur@@ 81
ST@@ 81
Var@@ 81
core 81
countries 81
gi@@ 81
ip 81
kar@@ 81
rate 81
ts@@ 81
ut 81
width 81
á 81
ائص 81
الاغ@@ 81
السن@@ 81
المل@@ 81
بارات 81
تش 81
ريت 81
ريم 81
زيل 81
سى 81
طلق 81
كاب@@ 81
مجرد 81
يحي@@ 81
يكي 81
کمش@@ 81
ﮈ@@ 81
ﺀ 81
ﺯ 81
ﻈ@@ 81
4.3 80
447 80
512 80
555 80
7.3 80
870 80
Ay@@ 80
El 80
Road 80
ae 80
class 80
had 80
ham 80
his 80
ile 80
ko 80
mu@@ 80
net 80
oph@@ 80
two 80
آرتھو@@ 80
اتذ@@ 80
استط@@ 80
بغ 80
تبات 80
دوج@@ 80
دّ@@ 80
سرائ@@ 80
فورنيا 80
كث@@ 80
يي 80
ﷲ@@ 80
434 79
466 79
516 79
518 79
Chesh@@ 79
Cr@@ 79
DA 79
VII 79
arr@@ 79
ist 79
life 79
ć 79
č@@ 79
احت 79
البرو@@ 79
تاد 79
تکمی@@ 79
شاخ@@ 79
طلاح 79
عرص@@ 79
مباش@@ 79
مدي@@ 79
موريس 79
وفو 79
ਿ@@ 79
ﭦ 79
1000@@ 78
1707 78
449 78
458 78
463 78
478 78
5.0 78
551 78
602 78
625 78
780 78
AB@@ 78
CEO 78
Nar@@ 78
Netherlands 78
Qur@@ 78
form 78
nes 78
pl@@ 78
poly@@ 78
ren@@ 78
sk 78
they 78
ue 78
ابق 78
ابوی@@ 78
اشي 78
اكت@@ 78
المف@@ 78
امز 78
بالن@@ 78
بدا@@ 78
بولي@@ 78
بوم 78
تست@@ 78
تعلم 78
توقف 78
ثم@@ 78
راجستھ@@ 78
فلا 78
قاط@@ 78
لاند 78
لقت 78
لًا 78
وسر 78
ব@@ 78
․ 78
🔹 78
--- 77
1526 77
467 77
5.7 77
572 77
820 77
970 77
Chi@@ 77
Dis@@ 77
Ram@@ 77
Vil@@ 77
ann@@ 77
arg@@ 77
cell 77
dar@@ 77
ory 77
settlement 77
up@@ 77
urdu 77
ym@@ 77
zi@@ 77
ת 77
ارتباط 77
الجما@@ 77
الملك 77
النس@@ 77
ترکمان@@ 77
سترا@@ 77
عند 77
فط@@ 77
كلو@@ 77
مؤلف@@ 77
مارك 77
ميت 77
ميم 77
وئي 77
ينا@@ 77
ন 77
ﮌ@@ 77
ﺫ@@ 77
431 76
453 76
475 76
536 76
6.7 76
651 76
7.2 76
76,@@ 76
A. 76
Hill 76
Kas@@ 76
Mer@@ 76
Punjab 76
Quebec 76
Reg@@ 76
SE@@ 76
achi 76
ids 76
iec 76
ography 76
onne 76
ors 76
oux 76
quot 76
so@@ 76
الإمام 76
باست@@ 76
جارجی@@ 76
حمل@@ 76
دًا 76
كور 76
لسان@@ 76
هي@@ 76
ويد 76
1770 75
1819 75
4.4 75
482 75
511 75
552 75
589 75
6.8 75
98.@@ 75
American 75
Bab@@ 75
Burkina 75
Can@@ 75
ES@@ 75
Khar@@ 75
Les 75
ME@@ 75
MO@@ 75
Ol@@ 75
Pol@@ 75
RA@@ 75
RC 75
Sweden 75
Tor@@ 75
act 75
begin 75
der@@ 75
esh 75
function 75
hol@@ 75
hou 75
illy 75
ire 75
ke@@ 75
oh@@ 75
ps 75
أن@@ 75
الواقع 75
برش@@ 75
ترقی@@ 75
حلول 75
دَّ@@ 75
روي@@ 75
شرقي 75
ظل 75
كيني@@ 75
مسح 75
ومات 75
ਤ@@ 75
1795 74
1824 74
25,000 74
462 74
469 74
479 74
505 74
508 74
539 74
717 74
777 74
880 74
Air@@ 74
British 74
Cl@@ 74
Er@@ 74
Faso 74
Sc@@ 74
Sor@@ 74
WT@@ 74
ach 74
ist@@ 74
ole 74
public 74
row 74
sc@@ 74
sion 74
tical 74
une 74
£ 74
ī@@ 74
الجزائ@@ 74
الشيخ 74
باع 74
بة 74
بيان 74
تاريخ@@ 74
تقر@@ 74
خير 74
دة 74
دورا 74
شير@@ 74
طري@@ 74
فات@@ 74
قاً 74
مشک@@ 74
ۂ@@ 74
1453 73
15,000 73
1783 73
1836 73
4.1 73
451 73
477 73
506 73
521 73
522 73
6- 73
612 73
711 73
911 73
ER@@ 73
Hal@@ 73
Ju@@ 73
Mu@@ 73
Shir@@ 73
XI 73
agne 73
ase 73
ast 73
gar@@ 73
ֹ@@ 73
ارتفاع 73
ازب@@ 73
التن@@ 73
الصدر 73
بب 73
جمہ@@ 73
ناج@@ 73
نساس 73
ڈیز@@ 73
۞ 73
ﮯ@@ 73
1803 72
1833 72
501 72
509 72
532 72
542 72
559 72
603 72
685 72
705 72
718 72
722 72
914 72
Fo@@ 72
Mak@@ 72
Seine 72
`@@ 72
ain@@ 72
ami 72
ania 72
ati 72
list 72
national 72
ubi 72
van 72
wi@@ 72
ם 72
اختبار 72
افي 72
التار@@ 72
السلا@@ 72
جاد 72
خوس@@ 72
زرلینڈ 72
سبع 72
سیع 72
غوا@@ 72
قام@@ 72
لحم 72
متہ 72
ّق 72
٘ 72
کنون@@ 72
1793 71
491 71
500@@ 71
502 71
524 71
534 71
576 71
585 71
66,@@ 71
67,@@ 71
69,@@ 71
690 71
7.1 71
CA 71
Colombia 71
George 71
Jam@@ 71
Maurice 71
Min@@ 71
Portugal 71
This 71
Vi@@ 71
all@@ 71
aza 71
ebo@@ 71
ess 71
lah 71
oth@@ 71
out 71
pe@@ 71
per 71
qa 71
su@@ 71
tics 71
uch@@ 71
ä@@ 71
ā 71
البح@@ 71
الحوز 71
النفس 71
اله 71
ترك@@ 71
تصف 71
تیش 71
جورج 71
ستي@@ 71
غزو@@ 71
فلي@@ 71
لمع@@ 71
مراء 71
مرت 71
موض@@ 71
نشر@@ 71
نيل 71
ولاية 71
يرا@@ 71
ڏ@@ 71
ڙ 71
10000 70
1788 70
474 70
528 70
537 70
604 70
609 70
775 70
920 70
Asian 70
Azerbaijan 70
European 70
IW@@ 70
Kan@@ 70
Khal@@ 70
Kol@@ 70
Lang@@ 70
My@@ 70
Na@@ 70
Sud 70
book 70
ri 70
tig@@ 70
und 70
ابد 70
البد@@ 70
ایتھو@@ 70
تك 70
خسر@@ 70
خليل 70
دستان 70
سليم 70
غالبًا 70
فيض 70
قط 70
مشتر@@ 70
وتر@@ 70
وفي 70
ٶ 70
1792 69
1843 69
1852 69
461 69
464 69
533 69
601 69
626 69
636 69
815 69
Bou@@ 69
Company 69
Division 69
Egypt 69
Hey@@ 69
Islam 69
Koh@@ 69
Meh@@ 69
Michel 69
RNA 69
Sel@@ 69
ag 69
don 69
historic 69
ira 69
lin@@ 69
ly@@ 69
other 69
pol@@ 69
tri@@ 69
ud 69
uri 69
wo 69
wood 69
yl@@ 69
zi 69
السلط@@ 69
تجاو@@ 69
تقدم 69
جوز 69
حي 69
خرج 69
دخول 69
شمال@@ 69
شين@@ 69
عاب 69
كمال 69
ليو 69
ملي 69
نيس 69
ويلي@@ 69
ویم 69
ﮎ 69
ﻖ 69
0.0 68
1791 68
1825 68
20I 68
3D 68
504 68
538 68
575 68
622 68
655 68
710 68
770 68
AK@@ 68
Airways 68
Nag@@ 68
berg 68
fl@@ 68
ht 68
ki@@ 68
ser@@ 68
sous 68
table 68
ve@@ 68
اقتص@@ 68
الآخر 68
الصلا@@ 68
الغز@@ 68
القص@@ 68
اللغ@@ 68
النوع 68
جغرافی@@ 68
حصن 68
خف@@ 68
ريد 68
طبي@@ 68
قبال 68
مقاط@@ 68
وصل 68
ومي@@ 68
وى 68
يب@@ 68
ې 68
ー@@ 68
1762 67
1776 67
1805 67
200,000 67
3500 67
471 67
526 67
582 67
628 67
AI@@ 67
AM 67
CC@@ 67
Denis 67
Der@@ 67
Diz@@ 67
Dr@@ 67
Gur@@ 67
Human 67
IX 67
Kus@@ 67
Metropolitan 67
PA 67
Pe@@ 67
Rah@@ 67
School 67
Tu@@ 67
astr@@ 67
ating 67
ine@@ 67
lan@@ 67
mad 67
place 67
tier 67
tions 67
tive 67
var 67
who 67
الد 67
المؤ@@ 67
ایوار@@ 67
حاس@@ 67
ربي@@ 67
روع 67
زمی@@ 67
فيت 67
قائق 67
كوت@@ 67
مبي@@ 67
وخ 67
يكو 67
يمي@@ 67
پرفار@@ 67
਼ 67
ﺝ 67
1808 66
1827 66
514 66
535 66
613 66
Ahmad 66
Ben@@ 66
Châ@@ 66
Im@@ 66
Mus@@ 66
Ouest 66
War 66
William 66
any 66
ap 66
ars 66
atic 66
dec@@ 66
ect 66
eng 66
enne 66
gene 66
group 66
res@@ 66
up 66
ן 66
اتذہ 66
افسان@@ 66
الإ@@ 66
البط@@ 66
البند@@ 66
القاد@@ 66
النا@@ 66
الیٰ 66
ثان@@ 66
دراج 66
سعو@@ 66
شہن@@ 66
فتاء 66
فظ 66
كوريا 66
كير 66
مركز 66
ميدان 66
ورك 66
وط 66
يعقوب 66
يكس 66
ۓ@@ 66
ﻐ@@ 66
476 65
487 65
496 65
547 65
553 65
624 65
629 65
681 65
997 65
@ 65
Cau@@ 65
Dom@@ 65
Eastern 65
Mil@@ 65
SO@@ 65
Sha@@ 65
Vis@@ 65
a.@@ 65
arrondissement 65
constituency 65
ee 65
onlyinclude 65
ore 65
than 65
try 65
أس@@ 65
البص@@ 65
برز 65
تأ@@ 65
دول 65
ديو 65
ذان 65
طم 65
غالب@@ 65
فير@@ 65
نك 65
ولیہ 65
يث 65
ٱ@@ 65
ﺬ@@ 65
472 64
541 64
587 64
634 64
635 64
68,@@ 64
707 64
712 64
Aer@@ 64
Bank 64
Cer@@ 64
Chen@@ 64
Chinese 64
Cricket 64
Dam@@ 64
Development 64
Ir@@ 64
Louis 64
Mand@@ 64
Sch@@ 64
Te@@ 64
Upper 64
aine 64
alu 64
aq@@ 64
arab@@ 64
ban 64
dar 64
ens@@ 64
hal@@ 64
ise 64
we 64
ד@@ 64
أح@@ 64
ئين 64
الموس@@ 64
النبي 64
ایران@@ 64
تاف@@ 64
جرت 64
جزر 64
جع 64
حيم 64
طفل 64
طُ@@ 64
عبيد 64
غان@@ 64
فضل@@ 64
فلسطين 64
قوق 64
كيل 64
موال@@ 64
نائس 64
ناك 64
نسي 64
هاي 64
يمز 64
ম@@ 64
ਹ@@ 64
ி@@ 64
ﭔ@@ 64
.org 63
1740 63
1763 63
1774 63
1798 63
1841 63
443 63
488 63
492 63
627 63
675 63
747 63
9,000 63
990 63
CH@@ 63
Du@@ 63
Grand 63
L4 63
Mir 63
Res@@ 63
Sp@@ 63
Ukraine 63
Washington 63
aya 63
bad 63
bat 63
co 63
ere 63
for@@ 63
inter@@ 63
jiang 63
men 63
my 63
ner 63
trieved 63
uk 63
well 63
would 63
â@@ 63
ż@@ 63
ائح 63
اتصال 63
الاول@@ 63
الحفاظ 63
بلوچ@@ 63
تري 63
تفاض@@ 63
حدو@@ 63
ريش 63
مجال 63
مکن 63
। 63
স@@ 63
498 62
581 62
595 62
638 62
641 62
645 62
704 62
814 62
890 62
AS 62
Carolina 62
Cro@@ 62
Gh@@ 62
IC 62
James 62
Missouri 62
NH 62
NO@@ 62
Socialist 62
Women 62
ard@@ 62
ath 62
ding 62
ena 62
gan 62
ider 62
ings 62
och@@ 62
privileg@@ 62
ry 62
sar@@ 62
ə 62
أهل 62
إل@@ 62
بالس@@ 62
بموجب 62
تير@@ 62
تين@@ 62
ذي 62
سيات 62
شعب 62
عسک@@ 62
لمب@@ 62
مراج@@ 62
هد 62
وعات 62
ونات 62
يه 62
چوسٹس 62
◼ 62
ﺛ@@ 62
ﺦ 62
1519 61
1524 61
1540 61
400@@ 61
6.0 61
616 61
9.5 61
AC 61
App@@ 61
Baba 61
Bay 61
Bengal 61
Bl@@ 61
Chal@@ 61
Don@@ 61
Hy@@ 61
Index 61
MI@@ 61
Northern 61
Sil@@ 61
To@@ 61
Wiel@@ 61
awa 61
but 61
cel@@ 61
ell 61
elles 61
ix 61
ok 61
ov 61
pref@@ 61
pro@@ 61
set 61
ski 61
st 61
tor@@ 61
ub@@ 61
uc@@ 61
xi@@ 61
å@@ 61
اختص@@ 61
الخط@@ 61
المدر@@ 61
بہرائ@@ 61
تنظ@@ 61
جة 61
داب 61
عربي 61
قاضي 61
كاي@@ 61
كش 61
كيلي@@ 61
وريا 61
ু@@ 61
ਮ@@ 61
1750 60
1765 60
50.@@ 60
529 60
725 60
757 60
Arab 60
Bri@@ 60
Chile 60
Cre@@ 60
L2 60
Marie 60
Naz@@ 60
Party 60
Sultan 60
We@@ 60
anner 60
aska 60
court 60
first 60
following 60
ila 60
ind@@ 60
inf@@ 60
io 60
lat@@ 60
mal@@ 60
ng 60
nucle@@ 60
pp@@ 60
so 60
tic@@ 60
­ 60
Ł@@ 60
إن 60
المحد@@ 60
امين 60
باي@@ 60
بوش 60
رص@@ 60
سرگو@@ 60
سير@@ 60
عنه 60
موص@@ 60
مونت 60
نمو@@ 60
ومان 60
ينيا 60
ّف 60
ڈیمو@@ 60
া 60
ਾ 60
1780 59
503 59
607 59
715 59
AD@@ 59
Ap@@ 59
Bonn@@ 59
CD 59
Ground 59
IT@@ 59
Is 59
Kon@@ 59
PS 59
acid 59
ages 59
ality 59
arch@@ 59
cells 59
ement 59
ene 59
eth@@ 59
ign@@ 59
inn@@ 59
ko@@ 59
million 59
only 59
osh@@ 59
tra 59
í 59
ת@@ 59
ادئ 59
البرا@@ 59
الحسين 59
الموا@@ 59
الموض@@ 59
جيك@@ 59
ریتی 59
سمع 59
سه@@ 59
صورتی 59
طاء 59
فتي 59
كيس 59
لوك 59
هي 59
وائد 59
واسع 59
وقد 59
ومحمد 59
وکال@@ 59
يوم@@ 59
ہمای@@ 59
আ@@ 59
ল@@ 59
1325 58
1699 58
1718 58
1761 58
1811 58
2000@@ 58
562 58
618 58
925 58
Af@@ 58
CI@@ 58
Cou@@ 58
General 58
Gulf 58
IE@@ 58
IS 58
KV@@ 58
L5 58
Pon@@ 58
Power 58
Sak@@ 58
Saône 58
St 58
Sz@@ 58
Ter@@ 58
ame@@ 58
azi 58
din 58
eri 58
ili@@ 58
jpg 58
kan 58
ks 58
land@@ 58
oa 58
pa 58
ros@@ 58
team 58
zad@@ 58
جري@@ 58
حمز@@ 58
خسر 58
دراجات 58
دى 58
روي 58
كتاب@@ 58
لة 58
لمان 58
محدث@@ 58
ميني@@ 58
هار 58
هذ@@ 58
يح@@ 58
ো@@ 58
ਕ@@ 58
ਲ@@ 58
000,000 57
1648 57
1772 57
1802 57
523 57
546 57
605 57
667 57
7- 57
768 57
875 57
969 57
Arrondissement 57
Bre@@ 57
Cape 57
Croix 57
Dor@@ 57
Garonne 57
Green 57
Hor@@ 57
Ji@@ 57
King 57
M. 57
Mel@@ 57
Mexico 57
Nigeria 57
Sham@@ 57
Soviet 57
Ti@@ 57
ass@@ 57
bal 57
dia 57
dr@@ 57
eter 57
ga 57
ines 57
iti@@ 57
king 57
let 57
mer 57
port 57
sa@@ 57
und@@ 57
wor@@ 57
ys 57
~ 57
ée 57
ū@@ 57
כ@@ 57
أحمد 57
أو 57
اعت@@ 57
البلاد 57
العق@@ 57
ستي 57
فضی@@ 57
لوي@@ 57
هما 57
وجہد 57
يتي@@ 57
يوب 57
ّب 57
پولیٹن 57
୍ 57
్ 57
1796 56
531 56
668 56
888 56
AP@@ 56
Ari@@ 56
Asia 56
Bil@@ 56
Coast 56
France 56
French 56
Hel@@ 56
LO@@ 56
Life 56
Mot@@ 56
Por@@ 56
Saf@@ 56
Sir 56
Street 56
aff@@ 56
alm@@ 56
ana@@ 56
aran 56
aro@@ 56
been 56
dynasty 56
fer@@ 56
hr@@ 56
ini 56
ire@@ 56
istic 56
mis@@ 56
veur 56
web 56
xi 56
zar 56
ֶ@@ 56
اقتصادي 56
الشرق 56
الفض@@ 56
المرتب@@ 56
اليس 56
انیف 56
بالق@@ 56
دٍ 56
راول@@ 56
ره@@ 56
ريق 56
زيز 56
سجن 56
سيدي 56
موسى 56
وات@@ 56
ياس 56
್ 56
ﮟ 56
1660 55
1720 55
1775 55
1816 55
1822 55
250@@ 55
701 55
708 55
727 55
9000 55
A.@@ 55
Au@@ 55
Do 55
IA 55
ISBN 55
Lap@@ 55
Lithuania 55
Mam@@ 55
Mes@@ 55
Rem@@ 55
Sind@@ 55
anj@@ 55
bol@@ 55
cri@@ 55
ecture 55
ef@@ 55
electric 55
ez 55
fra@@ 55
ho 55
ization 55
lier 55
ona 55
ori 55
sac 55
su 55
tro@@ 55
ung@@ 55
éger 55
ér@@ 55
ח@@ 55
פ@@ 55
اليا 55
اُر@@ 55
بالف@@ 55
بيك@@ 55
بيون 55
حاق 55
راق 55
سفي@@ 55
سنة 55
ضًا 55
عنوانی 55
فرنان@@ 55
فى 55
قه 55
نقشبند@@ 55
وقال 55
يين 55
ਨ@@ 55
ﺡ 55
.jpg 54
1739 54
500,000 54
554 54
614 54
845 54
965 54
996 54
Act 54
As 54
BE 54
Bat@@ 54
Beh@@ 54
Cat@@ 54
DC 54
Dur@@ 54
EC@@ 54
Je@@ 54
Lim@@ 54
Maj@@ 54
Mé@@ 54
Pot@@ 54
TR@@ 54
The@@ 54
White 54
about 54
ais@@ 54
eli@@ 54
hem@@ 54
ida 54
ide 54
ites 54
money 54
ota 54
out@@ 54
schools 54
shan 54
sil 54
skie 54
zyn 54
اره 54
اللغات 54
النظ@@ 54
انتخ@@ 54
بمع@@ 54
توئی 54
سینک@@ 54
طلاب 54
عال 54
فين 54
لوز@@ 54
مجموعات 54
محی@@ 54
مساعد 54
منگول@@ 54
نسان 54
نيوز@@ 54
هنري 54
وائي 54
يمور 54
1570 53
1580 53
1687 53
1784 53
1823 53
751 53
79,@@ 53
Abbas 53
Assembly 53
Baz@@ 53
Charente 53
Church 53
Fir@@ 53
Guinea 53
MS 53
Oxford 53
Pre@@ 53
RI@@ 53
agn@@ 53
bal@@ 53
bers 53
computer 53
data 53
date 53
energy 53
fort 53
ich@@ 53
khan 53
known 53
locality 53
mag@@ 53
ow 53
oy@@ 53
pe 53
second 53
ska 53
ted 53
tem@@ 53
tery 53
ties 53
work 53
years 53
án 53
آت 53
السج@@ 53
انون 53
انکارپوریٹڈ 53
بيكر 53
خطر@@ 53
شيد 53
صدار@@ 53
غال@@ 53
غو 53
قون 53
محافظة 53
نيك 53
هل 53
ويب 53
ੰ@@ 53
ﺶ 53
1515 52
1556 52
1605 52
1683 52
1760 52
1769 52
Capital 52
Day 52
Henry 52
May@@ 52
Mer 52
R. 52
Rec@@ 52
SS 52
Zar@@ 52
abi 52
acy 52
amb@@ 52
anga 52
ann 52
arak 52
ational 52
ber 52
cin@@ 52
cl@@ 52
ea 52
enc@@ 52
eville 52
ier 52
ier@@ 52
ih@@ 52
iss@@ 52
lands 52
lines 52
min@@ 52
ome@@ 52
ster@@ 52
tan 52
theory 52
ula 52
we@@ 52
ń 52
ارع 52
الورم 52
بك 52
بيري 52
تردد 52
ذكر 52
رقب@@ 52
شياء 52
عرض@@ 52
فیکل@@ 52
لأ@@ 52
لفاء 52
معتم@@ 52
منش@@ 52
مينيا 52
هذا 52
واخت@@ 52
واط 52
ﻩ 52
007 51
1550 51
1757 51
97,@@ 51
99,@@ 51
America 51
Bos@@ 51
Ci@@ 51
DE@@ 51
De 51
Federal 51
Florida 51
For 51
Local 51
Pas@@ 51
Pont 51
Qesh@@ 51
Rad@@ 51
TE@@ 51
aa 51
alan 51
arm@@ 51
atr@@ 51
awn 51
background 51
bridge 51
burg 51
civil 51
cur@@ 51
ff@@ 51
ington 51
nin 51
of@@ 51
oni 51
ora 51
pu@@ 51
site 51
sive 51
ten@@ 51
title 51
التزام 51
الخز@@ 51
القمر 51
باري 51
بروك 51
ترال 51
ترك 51
خلال 51
ديات 51
رى 51
عه 51
قاہ@@ 51
كم@@ 51
ماري@@ 51
مّ@@ 51
هار@@ 51
وليد 51
پورٹس 51
ন@@ 51
র 51
ﺜ@@ 51
--@@ 50
002 50
1250 50
1492 50
1560 50
1618 50
1686 50
600@@ 50
843 50
Agu@@ 50
Ard@@ 50
Armenia 50
CE@@ 50
DF 50
Dec@@ 50
Fre@@ 50
Government 50
Gow@@ 50
Language 50
Mau@@ 50
Neu@@ 50
Op@@ 50
PS@@ 50
Pod@@ 50
RO@@ 50
Sem@@ 50
Town 50
ago 50
agu@@ 50
ahi 50
animation 50
col@@ 50
current 50
during 50
ents 50
has@@ 50
if@@ 50
ium 50
iv@@ 50
je 50
killed 50
lan 50
ler@@ 50
ness 50
nica 50
org@@ 50
oz@@ 50
php 50
power 50
them 50
thi 50
tis 50
university 50
ush 50
vi 50
water 50
ː 50
ֵ@@ 50
ائنات 50
البلدان 50
النظر 50
بالج@@ 50
بلغ 50
تفسير 50
جانات 50
سلي@@ 50
سيم 50
طبق 50
فرط 50
فيد 50
مح 50
معا 50
وابن 50
ورجی@@ 50
وكس 50
ويت@@ 50
يج@@ 50
يع 50
க@@ 50
ﭧ 50
1721 49
1758 49
1st 49
31,@@ 49
615 49
801 49
AF 49
An 49
Arch@@ 49
Cam@@ 49
Centre 49
Cos@@ 49
D. 49
Elec@@ 49
FI@@ 49
Fi@@ 49
First 49
Ga@@ 49
Greater 49
IP 49
Ireland 49
Juan 49
Key@@ 49
Kuh@@ 49
Maritime 49
My 49
Nations 49
Port 49
Pu@@ 49
Raj@@ 49
Red 49
Rev@@ 49
Roche 49
SH@@ 49
Sen@@ 49
UR@@ 49
against 49
ato 49
aum 49
capital 49
ean 49
ese 49
ever 49
fe@@ 49
go 49
independent 49
kin@@ 49
law 49
link 49
micro@@ 49
qui@@ 49
sch@@ 49
school 49
ther@@ 49
tim@@ 49
total 49
ui 49
vol@@ 49
الدعوة 49
السي@@ 49
بلاء 49
ذيب 49
رواد 49
رياضي 49
سجل 49
علام 49
نفیہ 49
هان 49
يانا 49
ত@@ 49
ਸ 49
ା@@ 49
市 49
12,000 48
1350 48
1606 48
1650 48
1735 48
1785 48
1794 48
767 48
96,@@ 48
Bro@@ 48
DE 48
Gi@@ 48
Group 48
Institute 48
Kho@@ 48
Latvia 48
Self 48
Sw@@ 48
Zone 48
ade 48
body 48
des@@ 48
divisions 48
ella 48
ely 48
engineering 48
ern@@ 48
han@@ 48
ichi 48
into 48
mat@@ 48
ney 48
rec@@ 48
science 48
tar 48
tur@@ 48
ty@@ 48
ug@@ 48
½ 48
الذي 48
برات 48
تعمی@@ 48
دستاوی@@ 48
روك 48
متاث@@ 48
موند 48
هور 48
وائز 48
واع 48
وله 48
ومنین 48
ياء 48
ّع 48
ݙ@@ 48
ে@@ 48
ਪ@@ 48
﷤ 48
ﻪ 48
1571 47
1598 47
1603 47
1746 47
1747 47
1773 47
40,000 47
Cap@@ 47
Center 47
Fr@@ 47
Hes@@ 47
How@@ 47
Jal@@ 47
Long@@ 47
Main 47
Muslim 47
One 47
Royal 47
Singh 47
Switzerland 47
Ul@@ 47
ans@@ 47
ban@@ 47
canton 47
els 47
gu 47
hai 47
ick 47
igny 47
ingen 47
mi 47
ocy@@ 47
old 47
pak@@ 47
phot@@ 47
tum@@ 47
value 47
¿ 47
ская 47
і@@ 47
افترا@@ 47
انه 47
بعيد 47
بق 47
بلس 47
تيس 47
جاني 47
جري 47
جعل@@ 47
حة 47
رقاء 47
زرو 47
سلي 47
سيو 47
ضمان@@ 47
قازق@@ 47
كه 47
مخص@@ 47
مطار 47
وتص@@ 47
يق 47
ٶ@@ 47
′ 47
ﺹ 47
0000@@ 46
1620 46
1659 46
1690 46
1696 46
1737 46
901 46
928 46
98,@@ 46
985 46
All 46
Asi@@ 46
Bus@@ 46
Dag@@ 46
Fl@@ 46
Ful@@ 46
GDP 46
God 46
Jab@@ 46
LE@@ 46
Press 46
Rab@@ 46
Sultan@@ 46
Tah@@ 46
Vo@@ 46
War@@ 46
XVI 46
af 46
air 46
amm@@ 46
anc@@ 46
article 46
ax@@ 46
bor@@ 46
cad@@ 46
century 46
cor@@ 46
cy@@ 46
day 46
down 46
enty@@ 46
eu@@ 46
ew@@ 46
hat@@ 46
ick@@ 46
ies 46
ight 46
lig@@ 46
munici@@ 46
red 46
sey 46
sk@@ 46
territories 46
uan 46
uni@@ 46
wan 46
í@@ 46
Ż@@ 46
י 46
؂ 46
أخ@@ 46
أم@@ 46
ازي@@ 46
الشرق@@ 46
المرو@@ 46
الوث@@ 46
بالح@@ 46
بيد 46
تجار@@ 46
ديس 46
شاف 46
شديد 46
فريد 46
فقد 46
فيق 46
ليم 46
ماك@@ 46
ٲ@@ 46
پوت 46
ې@@ 46
ۚ 46
ਵ@@ 46
1320 45
1517 45
1532 45
1709 45
1777 45
1778 45
666 45
AN 45
Africa 45
Association 45
B. 45
B.@@ 45
Châte@@ 45
Div@@ 45
E. 45
Gav@@ 45
Gold 45
Gon@@ 45
IR@@ 45
Ke@@ 45
Ker@@ 45
Lot 45
NE@@ 45
Naj@@ 45
Shi@@ 45
Sim@@ 45
Vel@@ 45
Verde 45
Xi@@ 45
ail 45
ches 45
ds 45
esis 45
eux 45
gold 45
har 45
hid 45
history 45
new 45
ols 45
onal 45
osta 45
point 45
some 45
una 45
under 45
ung 45
ves 45
yc@@ 45
à 45
ē@@ 45
اطر 45
المَ@@ 45
النحو 45
ايت 45
بيريا 45
بيك 45
جه 45
دیوب@@ 45
ضع@@ 45
عيد 45
فض 45
كثير 45
ليون@@ 45
منتق@@ 45
موث@@ 45
ميز@@ 45
ناق@@ 45
واري 45
واض@@ 45
والمع@@ 45
وتم@@ 45
وسر@@ 45
ﻪ@@ 45
.1 44
1565 44
1610 44
1622 44
1689 44
1759 44
60,000 44
AT 44
Anti@@ 44
Bridge 44
C.@@ 44
Carroll 44
Chad 44
Congo 44
Fort 44
II@@ 44
IP@@ 44
Kat@@ 44
LA 44
Las@@ 44
Lub@@ 44
M.@@ 44
Mey@@ 44
Mount 44
North@@ 44
PI@@ 44
Pain 44
Plan@@ 44
SI 44
Sard@@ 44
Som@@ 44
Sul@@ 44
Vol@@ 44
You 44
ains 44
amp@@ 44
asi@@ 44
ave@@ 44
colspan 44
das 44
del@@ 44
edi@@ 44
ein 44
ert 44
fo@@ 44
gues 44
hab@@ 44
ide@@ 44
ler 44
military 44
now 44
oll@@ 44
orr@@ 44
ping 44
programming 44
ray 44
sky 44
tar@@ 44
tel@@ 44
tors 44
view 44
year 44
ž@@ 44
ׁ@@ 44
ק@@ 44
إن@@ 44
اخرا@@ 44
ارة 44
اعتد@@ 44
التون@@ 44
الفت@@ 44
الفور 44
خي 44
رجان 44
شاه@@ 44
شهر 44
فيل@@ 44
يري@@ 44
پانچ@@ 44
ੇ 44
ﮉ@@ 44
ﹰ 44
ﺰ 44
ﻇ@@ 44
ﻉ 44
� 44
1290 43
1530 43
1722 43
976 43
AU 43
CG 43
Cant@@ 43
Germany 43
Gironde 43
Gl@@ 43
I.@@ 43
Just 43
Kuch@@ 43
Log@@ 43
Man 43
Mc@@ 43
Men@@ 43
Of 43
Paris 43
Pir@@ 43
Rivière 43
Ros@@ 43
Theory 43
Turkish 43
VIII 43
bert 43
between 43
ec 43
ff 43
her 43
ides 43
illa 43
ima 43
kr@@ 43
log@@ 43
mes@@ 43
mor@@ 43
mus@@ 43
ust 43
war@@ 43
± 43
ç@@ 43
él@@ 43
ôme 43
الباب 43
الحرب 43
الداخل 43
العام@@ 43
القصص 43
انع 43
بالر@@ 43
تداء 43
ثي 43
علان 43
غي 43
فاد@@ 43
قة 43
لمن 43
مخطط 43
مما 43
مینان 43
وء 43
وبل@@ 43
َّى 43
ٸ 43
کاغذ@@ 43
کورہ 43
है 43
ੁ@@ 43
県 43
ﮓ 43
1541 42
1697 42
1753 42
1756 42
2400 42
907 42
Abu 42
Akh@@ 42
All@@ 42
BR 42
C. 42
CD@@ 42
Christophe 42
Computer 42
Cruz 42
Cup 42
Greece 42
H. 42
Highway 42
I. 42
Joseph 42
Mans@@ 42
Middle 42
Nam@@ 42
Oblast 42
Oc@@ 42
Rus@@ 42
Sah@@ 42
Screen 42
Sho@@ 42
Sin@@ 42
Southern 42
Standard 42
Teh@@ 42
Victoria 42
Wal@@ 42
Wood 42
after 42
aga 42
age@@ 42
ait 42
ally 42
ami@@ 42
aur@@ 42
avan 42
da@@ 42
development 42
iri 42
isi@@ 42
ize 42
kh 42
low 42
m.@@ 42
mass 42
mir@@ 42
ms 42
mud@@ 42
na@@ 42
news 42
organization 42
ote 42
owice 42
ro 42
see 42
small 42
special 42
subs@@ 42
tin 42
uf 42
uil 42
wan@@ 42
yp@@ 42
ó 42
û@@ 42
ר 42
الحص@@ 42
السلطان 42
المثال 42
الند@@ 42
انى 42
تفصی@@ 42
تقلی@@ 42
جسر 42
حيث@@ 42
ختلف 42
ساعد 42
سبور@@ 42
ستن 42
سلات 42
شين 42
عبر 42
عیسی@@ 42
قبض@@ 42
كوس 42
كولوم@@ 42
ليبيا 42
مريم 42
ملح@@ 42
نائي 42
واحد@@ 42
وتف@@ 42
ਗ@@ 42
් 42
 42
-1 41
1409 41
1666 41
1729 41
1768 41
300,000 41
Blue 41
Cher@@ 41
Din 41
Fal@@ 41
Fron@@ 41
GC 41
Hat@@ 41
Lal@@ 41
Land 41
Liv@@ 41
Mari@@ 41
Marne 41
Mirza 41
Mont 41
No 41
PE@@ 41
Pap@@ 41
Pur@@ 41
Pyrénées 41
Robert 41
SP@@ 41
SR 41
Ste@@ 41
Tam@@ 41
acc@@ 41
atom@@ 41
aw 41
back 41
bat@@ 41
bur@@ 41
cell@@ 41
death 41
direct 41
e.@@ 41
eo 41
font 41
ft 41
him 41
hy@@ 41
ju 41
neur@@ 41
ois 41
organ@@ 41
ous@@ 41
pos@@ 41
tel 41
æ@@ 41
ô@@ 41
ț 41
ؐ@@ 41
إلا 41
اضر 41
الداخ@@ 41
العد@@ 41
الكبير 41
المار@@ 41
انض@@ 41
تقي 41
جنوب@@ 41
حفاظ@@ 41
خصوصی@@ 41
روسي 41
ريني 41
ریلوی 41
ساي@@ 41
غنی@@ 41
فقال 41
قام 41
قلال 41
مخرج 41
مكت@@ 41
نژ@@ 41
واني 41
وسيا 41
ڈیجی@@ 41
یووا 41
ਰ 41
ு@@ 41
ﻼ 41
1323 40
1521 40
1525 40
1535 40
1595 40
1658 40
1672 40
1710 40
1714 40
Category 40
Cher 40
Cur@@ 40
Del@@ 40
Desert 40
Dá@@ 40
EB 40
ET 40
FA 40
High 40
J. 40
Jah@@ 40
KO@@ 40
MP@@ 40
Mul@@ 40
No. 40
Nu@@ 40
Nur@@ 40
On 40
Pen@@ 40
Prot@@ 40
Rock 40
S. 40
Sat@@ 40
aba 40
ail@@ 40
ake 40
akh 40
align 40
amu 40
app@@ 40
cul@@ 40
cultural 40
device 40
enti@@ 40
etic 40
ger@@ 40
gl@@ 40
ich 40
ists 40
pel@@ 40
sh 40
ten 40
the@@ 40
tor 40
ua 40
ão 40
èze 40
ؕ 40
آي@@ 40
اختيار 40
اعي 40
السر@@ 40
بخ 40
بلت@@ 40
تعرض 40
حاء 40
حکمر@@ 40
رفي@@ 40
ريف 40
سرح@@ 40
طرق 40
طف 40
غري@@ 40
فرز 40
لوك@@ 40
ماريا 40
مسار 40
معين 40
نتوں 40
نسي@@ 40
هب 40
ورش 40
وفي@@ 40
وقتل 40
وقع 40
ٹاون@@ 40
ம@@ 40
ர@@ 40
⇽ 40
ﭜ@@ 40
1258 39
1562 39
1642 39
1708 39
1713 39
1744 39
1749 39
1764 39
2030 39
AA 39
Aj@@ 39
Ann@@ 39
Archi@@ 39
Aur@@ 39
Award 39
BL 39
Bagh@@ 39
Champ@@ 39
Dakota 39
Dav@@ 39
Dev@@ 39
Fe@@ 39
Free 39
German 39
Jan 39
Lincoln 39
Nan@@ 39
Old 39
Pat@@ 39
Public 39
Rom@@ 39
Tre@@ 39
West@@ 39
Wil@@ 39
Zey@@ 39
Zi@@ 39
asa 39
atory 39
center 39
chen@@ 39
cu@@ 39
esia 39
illon 39
index@@ 39
institution 39
int@@ 39
lar@@ 39
mac@@ 39
mail 39
nam@@ 39
ning 39
ny@@ 39
ony 39
otic 39
pap@@ 39
penetr@@ 39
rights 39
san 39
sub 39
there 39
uni 39
when 39
za@@ 39
ém@@ 39
Š@@ 39
ג@@ 39
ז@@ 39
ל 39
الأح@@ 39
الاخت@@ 39
الاعتق@@ 39
الحج@@ 39
الحمراء 39
الرق@@ 39
القائم 39
بھار 39
تبدی@@ 39
تزل 39
تيل 39
رجل 39
ريات 39
رّ@@ 39
زوج 39
سهل 39
عقدہ 39
فاظ 39
لع 39
موط@@ 39
وبات 39
وة 39
وتح@@ 39
وتش@@ 39
ودي@@ 39
يخ@@ 39
ٰذا 39
܂ 39
த@@ 39
1522 38
1542 38
1627 38
1656 38
1684 38
1695 38
1703 38
2,500 38
Amir 38
CS@@ 38
Cour@@ 38
Des@@ 38
Education 38
FL 38
FO@@ 38
Fair@@ 38
Gul@@ 38
H.@@ 38
Jav@@ 38
Kel@@ 38
Lach@@ 38
Lav@@ 38
Municipal 38
Nicolas 38
Norway 38
Os@@ 38
PC@@ 38
Sain@@ 38
Social 38
Tir@@ 38
XV 38
Zh@@ 38
akan 38
ales 38
asti@@ 38
bit 38
bs 38
bury 38
code 38
college 38
control 38
cs 38
eli 38
enton 38
ery 38
force 38
gas 38
ial 38
ignan 38
ities 38
las 38
light 38
ling 38
mail@@ 38
nay 38
ode 38
played 38
sal@@ 38
sin 38
stan 38
tal 38
ven@@ 38
èvre 38
ա@@ 38
اقتصاد 38
اكر 38
البع@@ 38
التعداد 38
النق@@ 38
باشا 38
بشير 38
بیچل@@ 38
تمان 38
ضع 38
كلي 38
نة 38
نًا 38
وافق 38
وفق 38
ومد@@ 38
ياب@@ 38
يتي 38
يث@@ 38
ਂ 38
☆ 38
1296 37
1380 37
1568 37
1574 37
1576 37
1604 37
1723 37
1797 37
250,000 37
2600 37
400,000 37
Black 37
Book 37
CO 37
Camp@@ 37
Canada 37
Château 37
Commission 37
Côte 37
David 37
Finland 37
Franklin 37
G. 37
Hur@@ 37
ISO 37
Isère 37
Kav@@ 37
Ki@@ 37
L. 37
Law 37
MA 37
Mach@@ 37
Neg@@ 37
Peace 37
Pos@@ 37
Romain 37
SC 37
Sang@@ 37
Sir@@ 37
Society 37
Super@@ 37
TO@@ 37
V. 37
W. 37
Wyoming 37
action 37
alia 37
aman 37
ani@@ 37
areas 37
aug@@ 37
bon 37
cal@@ 37
dish 37
ech@@ 37
fan 37
fr@@ 37
lin 37
min 37
nom@@ 37
ond@@ 37
our@@ 37
partic@@ 37
right 37
ruled 37
stone 37
sz@@ 37
tab@@ 37
tial 37
tu 37
ual 37
uss@@ 37
vel@@ 37
wh@@ 37
zor@@ 37
ław@@ 37
ń@@ 37
ɛ@@ 37
افا 37
الاج@@ 37
الجمع@@ 37
الطب 37
امرت@@ 37
انفص@@ 37
اوف 37
ايات 37
بما 37
بيروت 37
تماث@@ 37
جماعة 37
جير@@ 37
حتى 37
درك 37
ستس 37
سوء 37
ضرو@@ 37
عيسى 37
غير@@ 37
فورد 37
فوس 37
قرأ 37
قوب 37
لائنا 37
مقار@@ 37
موسيقي 37
ميد@@ 37
نبات 37
وقامت 37
وكي@@ 37
يح 37
ينت@@ 37
ੋ@@ 37
ா@@ 37
ﭺ 37
ﻻ 37
1340 36
1528 36
1572 36
1701 36
1715 36
1716 36
1730 36
1736 36
1754 36
1787 36
1920@@ 36
AG@@ 36
AP 36
African 36
Alpes 36
Arab@@ 36
Charles 36
Cir@@ 36
Corporation 36
Din@@ 36
Dou@@ 36
ER 36
Hab@@ 36
Hed@@ 36
Indonesia 36
Internet 36
Iran 36
Moldova 36
PL@@ 36
Pak@@ 36
Ran@@ 36
SI@@ 36
Science 36
Soci@@ 36
Sum@@ 36
Sun@@ 36
TH@@ 36
Trade 36
Virginia 36
Wayne 36
aan 36
aka 36
ame 36
amo@@ 36
ark@@ 36
art 36
ask@@ 36
att@@ 36
ax 36
bei 36
bin@@ 36
ble 36
dan@@ 36
ection 36
eed 36
effect 36
engine 36
house 36
iki 36
inal 36
lab@@ 36
lymph@@ 36
mathematics 36
may 36
mutation 36
nan 36
onia 36
ord@@ 36
oth 36
pas 36
plat@@ 36
por@@ 36
sea 36
sin@@ 36
tional 36
ulation 36
ver 36
vet@@ 36
vor@@ 36
ws 36
ór@@ 36
أم 36
اريا 36
الحجر 36
الغرب 36
النصر 36
تنام 36
شیخو@@ 36
عور@@ 36
فيل 36
كاز@@ 36
كاست@@ 36
كز 36
لفات 36
مصنو@@ 36
مناق@@ 36
میوز@@ 36
ومج@@ 36
يحيى 36
ڄ@@ 36
ۤ 36
শ@@ 36
ﻢ@@ 36
1390 35
1405 35
1545 35
1593 35
1616 35
1645 35
1702 35
1743 35
1748 35
1752 35
1766 35
1786 35
ACC 35
Allah 35
And 35
Army 35
Assam 35
Authority 35
Battle 35
Belgium 35
Bis@@ 35
Bot@@ 35
Earth 35
Ed@@ 35
Gaz@@ 35
Haz@@ 35
IN 35
Kab@@ 35
Kashmir 35
Kaz@@ 35
Khali@@ 35
Lah@@ 35
Mali 35
Money 35
Nak@@ 35
Nic@@ 35
Non 35
P. 35
PK 35
Peter 35
Puy 35
Regi@@ 35
Richard 35
Station 35
Tan@@ 35
USA 35
VI@@ 35
Vas@@ 35
WA 35
alp@@ 35
ande 35
ands 35
ange 35
ants 35
any@@ 35
ass 35
ava 35
con 35
cricket 35
czy@@ 35
dium 35
eal 35
educational 35
enberg 35
ennes 35
even 35
fa@@ 35
fourth 35
ful 35
hal 35
hu 35
ill 35
ingham 35
kam@@ 35
men@@ 35
mic 35
ner@@ 35
nia 35
ombe 35
osa 35
page 35
path@@ 35
political 35
press 35
rel 35
res 35
rom@@ 35
rule 35
sar 35
self 35
standard 35
technology 35
these 35
three 35
tom@@ 35
tron 35
tw@@ 35
ë 35
استق@@ 35
الجل@@ 35
الدم 35
العمال 35
العمر 35
القلب 35
بروكلين 35
جبال 35
حاً 35
دث@@ 35
ريح 35
سبا@@ 35
سه 35
سيس 35
محفو@@ 35
والن@@ 35
وروب@@ 35
وغير@@ 35
وهو 35
يغ@@ 35
ښ@@ 35
ڪ 35
হ@@ 35
ମ@@ 35
ର@@ 35
ང 35
ﻕ 35
ﻦ@@ 35
0.0@@ 34
1150 34
1336 34
1360 34
1389 34
1420 34
1516 34
1611 34
1629 34
1694 34
1712 34
1751 34
1755 34
2200 34
Anj@@ 34
Bres@@ 34
Butler 34
CP 34
Cel@@ 34
Chak@@ 34
Cyprus 34
Global 34
Gran@@ 34
Hay@@ 34
He 34
Hom@@ 34
IB@@ 34
Maine 34
Met@@ 34
Montana 34
Nov@@ 34
ON@@ 34
PKK 34
PT@@ 34
Pres@@ 34
Pri@@ 34
Red@@ 34
Rich@@ 34
Rud@@ 34
S.@@ 34
Sag@@ 34
Territory 34
They 34
Thomas 34
UK 34
Vir@@ 34
XIII 34
abl@@ 34
aches 34
amba 34
archae@@ 34
around 34
asse 34
ats 34
based 34
cap@@ 34
cha 34
doc@@ 34
duc@@ 34
ei 34
ental 34
fication 34
gi 34
head 34
if 34
inh 34
inum 34
jar 34
jer@@ 34
ker 34
kings 34
long 34
mas@@ 34
mine 34
nik 34
original 34
scope 34
sen@@ 34
ser 34
star 34
sy@@ 34
teachers 34
ton@@ 34
té 34
uz 34
val 34
val@@ 34
van@@ 34
vo@@ 34
wave 34
zan 34
Év@@ 34
ī 34
ō 34
р@@ 34
آيت 34
أب@@ 34
إذا 34
اختبارات 34
البن@@ 34
الصحي@@ 34
القرا@@ 34
الكر@@ 34
النجم 34
الين 34
بها 34
تمتع 34
جح 34
جوؤں 34
حیت 34
درت 34
روبر@@ 34
ریلو 34
زلي 34
طات 34
غون@@ 34
فرع 34
قس 34
كري 34
لكي 34
للو@@ 34
معاد@@ 34
مواز@@ 34
هد@@ 34
ومر@@ 34
ٓ 34
ړ@@ 34
گریجوی@@ 34
ݨ@@ 34
জ@@ 34
ਬ@@ 34
ப@@ 34
1433 33
1512 33
1555 33
1566 33
1589 33
1590 33
1612 33
1621 33
1628 33
1632 33
1640 33
1663 33
1711 33
1741 33
1779 33
2nd 33
Afghanistan 33
Ahmed 33
BA 33
CT@@ 33
Catedral 33
Community 33
Croatia 33
DL@@ 33
Dam 33
Dem@@ 33
Ecuador 33
Grande 33
Had@@ 33
IT 33
Jas@@ 33
Kom@@ 33
Ly@@ 33
MS@@ 33
Madagascar 33
Mary 33
Miy@@ 33
Mug@@ 33
Museum 33
N. 33
NET 33
PN@@ 33
PP@@ 33
Ple@@ 33
Pul@@ 33
Raz@@ 33
Rock@@ 33
Sand@@ 33
Sid@@ 33
Tul@@ 33
UC@@ 33
Val 33
Yu@@ 33
Zav@@ 33
aceae 33
alb@@ 33
amarca 33
anne 33
aria 33
aud@@ 33
audi@@ 33
aus@@ 33
blog@@ 33
by@@ 33
c.@@ 33
cz@@ 33
den@@ 33
dou@@ 33
economic 33
ential 33
esti@@ 33
ett 33
flu@@ 33
ican 33
ii 33
inc@@ 33
ind 33
iz 33
ja@@ 33
los@@ 33
mes 33
metropolitan 33
obi@@ 33
och 33
oid 33
olog@@ 33
pil@@ 33
popul@@ 33
sen 33
sexual 33
son@@ 33
spec@@ 33
story 33
tal@@ 33
til@@ 33
towns 33
uli 33
unit 33
ute 33
vers 33
women 33
yd@@ 33
yl 33
yo 33
ă@@ 33
الة 33
الحس@@ 33
الحم@@ 33
السن 33
الصف@@ 33
الطالب 33
العاش@@ 33
الفي@@ 33
اللّ@@ 33
النو@@ 33
الوق@@ 33
اليم 33
جزائ@@ 33
دج 33
روبن@@ 33
سمبر 33
فز 33
كارل 33
لقد 33
مؤس@@ 33
مرور 33
نيت 33
واف 33
ويم 33
يخ 33
ڳ@@ 33
প@@ 33
ੂ@@ 33
ﺚ 33
1.5@@ 32
1260 32
1270 32
1529 32
1534 32
1547 32
1569 32
1601 32
1653 32
1745 32
1767 32
1781 32
51,@@ 32
AR 32
Anti 32
Area 32
Australia 32
B1 32
Bes@@ 32
Biał@@ 32
Bir@@ 32
Bosnia 32
Che@@ 32
DO@@ 32
Dan@@ 32
Edward 32
Eff@@ 32
Fam@@ 32
Hak@@ 32
Hamilton 32
Hindu 32
Hol@@ 32
Hus@@ 32
ION 32
Kad@@ 32
Library 32
Philosophy 32
Point 32
SE 32
SF@@ 32
See 32
Sok@@ 32
Sri 32
To 32
Tour@@ 32
Tran@@ 32
Uni@@ 32
Ven@@ 32
Villeneuve 32
Za@@ 32
alist 32
cher 32
civili@@ 32
common 32
comput@@ 32
cos@@ 32
din@@ 32
disease 32
eb 32
eland 32
emia 32
equ@@ 32
es.@@ 32
eu 32
hk 32
hor@@ 32
igu@@ 32
ived 32
ière 32
jan@@ 32
jure 32
kin 32
ky 32
mal 32
medi@@ 32
mill@@ 32
mit@@ 32
oblast 32
oscop@@ 32
ost@@ 32
part 32
post 32
profile 32
regional 32
soci@@ 32
trib@@ 32
vais 32
wala 32
yed@@ 32
yi 32
án@@ 32
är@@ 32
è@@ 32
ادمی 32
اطع 32
التق@@ 32
التي 32
السما@@ 32
العام 32
الفل@@ 32
القضاء 32
الورا@@ 32
باك 32
بيري@@ 32
توي@@ 32
حدي@@ 32
حصل 32
حقي@@ 32
خوز@@ 32
داي@@ 32
دراسات 32
زمن 32
كالي@@ 32
كبير 32
وراق 32
کھیں 32
ۀ 32
গ@@ 32
ੱ@@ 32
☃ 32
ﮅ@@ 32
🐢 32
1001 31
1316 31
1341 31
1404 31
1450 31
1498 31
1502 31
1527 31
1578 31
1594 31
1599 31
1624 31
1635 31
1639 31
1670 31
1704 31
1706 31
1717 31
2050 31
4500 31
AE@@ 31
AL 31
Aegean 31
Bud@@ 31
Delhi 31
Domin@@ 31
Est@@ 31
Europe 31
Gan@@ 31
Gir@@ 31
Gre@@ 31
K. 31
Ka@@ 31
Kin@@ 31
Kit@@ 31
Lak@@ 31
Lat@@ 31
Laur@@ 31
May 31
Med@@ 31
Name 31
Ori@@ 31
Ostr@@ 31
PC 31
Peri@@ 31
Phot@@ 31
RA 31
RS 31
Sang 31
Tarn 31
That 31
Tib@@ 31
Tro@@ 31
U.@@ 31
ayi 31
ays 31
bin 31
brothers 31
cancer 31
ected 31
ector 31
ela 31
enn@@ 31
enz@@ 31
ev 31
genes 31
graphy 31
hom@@ 31
ieu 31
international 31
mani 31
modern 31
negative 31
ones 31
onn@@ 31
oug@@ 31
ox@@ 31
period 31
reaction 31
sel@@ 31
side 31
social 31
support 31
third 31
tica 31
tissue 31
tric 31
tv 31
uy 31
verse 31
ward 31
western 31
ève 31
ê@@ 31
ï@@ 31
Республика 31
أي@@ 31
اجم 31
الحار@@ 31
الخص@@ 31
الصرف 31
الوطن 31
حاد 31
حكم 31
داف@@ 31
صلاح@@ 31
طي 31
عسكري 31
قطاع 31
قيام 31
قيل 31
كات 31
للا@@ 31
مراكش 31
وحيد 31
ولين 31
ونظ@@ 31
يج 31
ٻ@@ 31
ڈیلا@@ 31
ফ@@ 31
ਜ@@ 31
ੇ@@ 31
ರ@@ 31
ﻆ 31
0.00 30
1291 30
1370 30
1499 30
1561 30
1564 30
1585 30
1630 30
1644 30
1680 30
1688 30
2700 30
Academy 30
Age 30
Austria 30
Bains 30
Bau@@ 30
CP@@ 30
Chap@@ 30
Civ@@ 30
Cop@@ 30
Cze@@ 30
Dal@@ 30
Day@@ 30
Didier 30
EL@@ 30
Economic 30
Four 30
Francisco 30
Golden 30
HV@@ 30
Indies 30
Jac@@ 30
King@@ 30
Lau@@ 30
Macedonia 30
Mash@@ 30
Middlesex 30
Mog@@ 30
Olympi@@ 30
PG 30
Pacific 30
Paraguay 30
Pin@@ 30
Plat@@ 30
Quentin 30
Rio 30
Service 30
Syria 30
TS 30
Tag@@ 30
Tel@@ 30
Test 30
Thailand 30
Tour 30
Ty@@ 30
Up@@ 30
Vill@@ 30
Wood@@ 30
Wor@@ 30
Yam@@ 30
aci@@ 30
ads 30
agne@@ 30
agon 30
alization 30
ams 30
andi@@ 30
arc@@ 30
avi 30
band 30
being 30
cal 30
cer@@ 30
charge 30
chia 30
dir 30
dom@@ 30
eau 30
eem 30
een 30
emy 30
former 30
gen 30
home 30
ins@@ 30
ip@@ 30
km 30
kow@@ 30
kö@@ 30
las@@ 30
like 30
may@@ 30
ock 30
pre@@ 30
press@@ 30
published 30
references 30
ret 30
ship 30
such 30
sur@@ 30
test 30
tion@@ 30
tr 30
wa@@ 30
zhou 30
ú@@ 30
ابون 30
احتم@@ 30
ارٹی 30
استبد@@ 30
اعد 30
اكس 30
الغر@@ 30
القول 30
الكتاب 30
اللا@@ 30
المي@@ 30
النار 30
امة 30
بلدية 30
تمہ@@ 30
جاك@@ 30
جزء@@ 30
ختوں 30
رأ@@ 30
رائد 30
رشيد 30
سواء 30
سياسي 30
شيك@@ 30
طار@@ 30
فمن 30
فير 30
فيه 30
ماث@@ 30
مشروع 30
مقر 30
ميل@@ 30
نزي 30
نود 30
يض@@ 30
ۤ@@ 30
ம 30
് 30
ﮠ 30
ﮧ@@ 30
ﺢ 30
----@@ 29
1160 29
1285 29
1392 29
1431 29
1494 29
1511 29
1533 29
1538 29
1539 29
1552 29
1563 29
1586 29
1588 29
1592 29
1596 29
1607 29
1678 29
1727 29
1731 29
1734 29
BT@@ 29
Band 29
Caribbean 29
Cham@@ 29
Club 29
DP 29
Dol@@ 29
EN@@ 29
Encyclo@@ 29
Eure 29
Ey@@ 29
Fay@@ 29
Gang@@ 29
Gel@@ 29
Gro@@ 29
Guang@@ 29
Hill@@ 29
Hydro@@ 29
IL 29
Ind@@ 29
Industrial 29
January 29
Kang@@ 29
Kos@@ 29
Kul@@ 29
Landes 29
Lor@@ 29
Lord 29
Los 29
March 29
Mehr@@ 29
Mem@@ 29
Military 29
Mobile 29
Mong@@ 29
Nav@@ 29
Or 29
Prince 29
Puerto 29
Ras@@ 29
Right 29
Rost@@ 29
Ry@@ 29
ST 29
Savoie 29
Second 29
Sic@@ 29
TA 29
Technology 29
There 29
W.@@ 29
ack 29
active 29
ara@@ 29
aud 29
ayan 29
bank 29
curr@@ 29
dat@@ 29
dol@@ 29
emp@@ 29
ense 29
ero 29
etary 29
family 29
fre@@ 29
gener@@ 29
here 29
ht@@ 29
ider@@ 29
ignac 29
ili 29
institutions 29
ized 29
kar 29
ks@@ 29
lard 29
ments 29
mil@@ 29
nation 29
off 29
ogen@@ 29
ont 29
operation 29
ori@@ 29
ough@@ 29
ouv@@ 29
own 29
pedia 29
qu 29
ras@@ 29
reg@@ 29
sol@@ 29
sul@@ 29
tak@@ 29
ters 29
ult 29
urs 29
using 29
var@@ 29
very 29
vo 29
won 29
ín 29
ס@@ 29
أر@@ 29
الرياض 29
بيلي 29
تبر 29
تعريف 29
تق 29
شراف 29
شمول@@ 29
شيو@@ 29
صات 29
صغير 29
ضت 29
علن 29
فه 29
فیسر 29
كيت 29
مداخ@@ 29
مذاک@@ 29
ڈوکس 29
ە@@ 29
ह@@ 29
ன 29
ར@@ 29
： 29
0s 28
1050 28
1314 28
1346 28
1371 28
1397 28
1399 28
1402 28
1410 28
1415 28
1475 28
1510 28
1548 28
1553 28
1582 28
1609 28
1719 28
1725 28
1732 28
1738 28
1771 28
AB 28
AH 28
Ach@@ 28
Argentina 28
Astronom@@ 28
August 28
Aut@@ 28
Band@@ 28
Bin@@ 28
Bul@@ 28
By@@ 28
CE 28
Chang@@ 28
Columbia 28
DI 28
Davis 28
Dong@@ 28
Dé@@ 28
ES 28
Express 28
Field 28
Forest 28
GNU 28
Gem@@ 28
HTML 28
Haut 28
Hautes 28
Hen@@ 28
ID 28
Information 28
Islam@@ 28
Langu@@ 28
Lee 28
Loir 28
MC 28
Maria 28
Mask@@ 28
Maur@@ 28
Mid@@ 28
NH@@ 28
Oregon 28
Pay@@ 28
Pom@@ 28
President 28
Sep@@ 28
Shel@@ 28
Space 28
Tav@@ 28
Ther@@ 28
Venezuela 28
Wah@@ 28
Yan@@ 28
angi 28
anti 28
aqu@@ 28
aun@@ 28
avi@@ 28
before 28
blo@@ 28
bu 28
cat@@ 28
char@@ 28
color 28
dom 28
dy 28
dz@@ 28
ef 28
eign 28
ele 28
elec@@ 28
ema 28
emb@@ 28
ems 28
enty 28
eph@@ 28
estim@@ 28
eto 28
face 28
free 28
freguesia 28
genetic 28
get 28
heim 28
hin@@ 28
ign 28
ils 28
indi@@ 28
induc@@ 28
iran 28
ison 28
itor 28
ius 28
jin 28
just 28
ld@@ 28
les@@ 28
many 28
movement 28
o.@@ 28
odi@@ 28
oto 28
pal@@ 28
pep@@ 28
phen@@ 28
ports 28
position 28
positive 28
process 28
rat 28
ron 28
sec@@ 28
shi@@ 28
sil@@ 28
tag@@ 28
tia 28
used 28
your 28
² 28
â 28
èche 28
ö 28
ş@@ 28
о 28
צ@@ 28
الترج@@ 28
التع@@ 28
الدي@@ 28
السماء 28
العراق 28
المسجد 28
النف@@ 28
انتش@@ 28
انج 28
بعين 28
بلاغ 28
تتبع 28
تحقيق 28
تياز 28
حادث 28
دوري 28
ديوان 28
رأس 28
سبي@@ 28
طینی 28
فيس 28
قلي@@ 28
قى 28
كاف@@ 28
كينٹ@@ 28
كيوب@@ 28
ليف@@ 28
مأ@@ 28
مصطفى 28
موریل 28
ميلي@@ 28
وإن 28
وامر 28
وجه 28
وعبد 28
وعن 28
ومست@@ 28
څ@@ 28
۽ 28
۾ 28
ल@@ 28
ਨ 28
ਲ 28
క@@ 28
ོ@@ 28
ﭤ@@ 28
ﮂ@@ 28
1215 27
1234 27
1280 27
1328 27
1330 27
1347 27
1348 27
1365 27
1394 27
1480 27
150,000 27
1537 27
1602 27
1608 27
1613 27
1623 27
1631 27
1649 27
1675 27
1724 27
1742 27
AK 27
Alli@@ 27
Bar 27
Bash@@ 27
Big 27
Bourg 27
Boy@@ 27
Chiba 27
Clark 27
Commonwealth 27
Cu@@ 27
Cumberland 27
Dh@@ 27
Dr. 27
Fa@@ 27
Fres@@ 27
Fu@@ 27
Hem@@ 27
Heritage 27
IO@@ 27
IR 27
Kir@@ 27
Kot@@ 27
Ky@@ 27
LG 27
Lane 27
Les@@ 27
Lon@@ 27
ML 27
Marcel 27
Medi@@ 27
Mis@@ 27
Modern 27
Mountain 27
PR@@ 27
Pa@@ 27
Pad@@ 27
Priv@@ 27
RT 27
Railway 27
Rights 27
Salvador 27
Shak@@ 27
Smith 27
Sus@@ 27
São 27
Taj@@ 27
Three 27
Tit@@ 27
Ud@@ 27
Vie@@ 27
Ville@@ 27
WW@@ 27
Wa@@ 27
Wi@@ 27
XII 27
Xin@@ 27
Yang@@ 27
Yar@@ 27
agr@@ 27
aks 27
arian 27
ator@@ 27
ave 27
census 27
chain 27
cre@@ 27
dic@@ 27
direc@@ 27
eira 27
els@@ 27
fruits 27
ger 27
ges 27
gir 27
haz@@ 27
hey@@ 27
hua 27
illac 27
interface 27
ix@@ 27
lb 27
lists 27
make 27
medicine 27
mel@@ 27
minute 27
mod@@ 27
natural 27
network 27
num 27
oll 27
oning 27
org 27
ovi@@ 27
philosophy 27
pot@@ 27
pur@@ 27
ram@@ 27
riz 27
sciences 27
shire 27
since 27
tide 27
tiv@@ 27
tre 27
ture 27
ules 27
ult@@ 27
unc@@ 27
where 27
yang 27
êt 27
ón 27
Ş@@ 27
и 27
أي 27
ابة 27
اعات 27
الشري@@ 27
العقل 27
العين 27
الكريم 27
المجمو@@ 27
بنفس 27
بيب 27
تاز 27
تخار 27
جامعة 27
جميل 27
حاب 27
داني 27
ديان 27
ديم 27
دیق 27
ساه@@ 27
صلات 27
عوا 27
قق 27
كتي@@ 27
كوا 27
كيميائي 27
لاسي@@ 27
مؤسس 27
ملف 27
ناه 27
يست@@ 27
يكن 27
يور 27
ۙ 27
দ@@ 27
ল 27
ী 27
ਜ 27
੍ 27
ა@@ 27
1180 26
1284 26
1490 26
1513 26
1531 26
1551 26
1597 26
1614 26
1636 26
1647 26
1654 26
1661 26
1664 26
1681 26
1691 26
1782 26
2300 26
AF@@ 26
Amer@@ 26
BO@@ 26
Barr@@ 26
Beng@@ 26
Black@@ 26
Boh@@ 26
Brown 26
Bru@@ 26
Business 26
By 26
Bé@@ 26
Ca@@ 26
Calv@@ 26
Chel@@ 26
Clinton 26
Comp@@ 26
Constitu@@ 26
Cot@@ 26
Democratic 26
F. 26
Fin@@ 26
Freedom 26
Gand@@ 26
Hum@@ 26
Ivory 26
Iz@@ 26
Ja@@ 26
Jiang@@ 26
Kak@@ 26
Kash@@ 26
Lawrence 26
Lyon 26
Lé@@ 26
Manche 26
Market 26
Maul@@ 26
Maurit@@ 26
Micro@@ 26
Monroe 26
NT@@ 26
Nepal 26
New@@ 26
News 26
Nova 26
Ny@@ 26
OR@@ 26
Our 26
Palace 26
Post 26
Priest 26
Rhône 26
Rob@@ 26
Russian 26
SQL 26
Shan@@ 26
Sig@@ 26
Sk@@ 26
Sow@@ 26
Spanish 26
Sud@@ 26
Swedish 26
T.@@ 26
Tanzania 26
Thi@@ 26
Tum@@ 26
UR 26
Urban 26
Wh@@ 26
Zak@@ 26
acu@@ 26
ader 26
ado 26
ados 26
ae@@ 26
agent 26
aling 26
arat 26
asi 26
asp@@ 26
banks 26
bian 26
bil@@ 26
blood 26
bo 26
bra@@ 26
cant@@ 26
chemical 26
chi@@ 26
council 26
cy 26
dari 26
die 26
dig@@ 26
double 26
ect@@ 26
ej@@ 26
esi 26
exchange 26
fab@@ 26
gan@@ 26
geome@@ 26
hep@@ 26
hol 26
hur@@ 26
ike 26
ina@@ 26
index 26
interaction 26
ion@@ 26
khi 26
member 26
met@@ 26
mond 26
my@@ 26
nuclear 26
olan 26
onde 26
ont@@ 26
oo 26
oun 26
ousness 26
polis 26
px 26
rit@@ 26
ux 26
vil@@ 26
worth 26
yu@@ 26
ár@@ 26
ás@@ 26
én@@ 26
î@@ 26
ü@@ 26
х@@ 26
أص@@ 26
ادة 26
الإسلام 26
البار@@ 26
الحرم 26
العش@@ 26
القانون 26
المب@@ 26
النخ@@ 26
الى 26
اهر 26
بريل 26
بيني 26
ترض 26
جاح 26
ديك@@ 26
ریٹڈ 26
سائر 26
سلف@@ 26
شف 26
ضوء 26
فإن 26
قين 26
كامل 26
كسي 26
للش@@ 26
ناطيسي 26
والخ@@ 26
ڈسٹر@@ 26
ڌ@@ 26
ನ@@ 26
‬ 26
√ 26
 26
ﮒ 26
1240 25
1303 25
1305 25
1308 25
1310 25
1349 25
1378 25
1406 25
1422 25
1435 25
1518 25
1523 25
1651 25
ABC 25
Alb@@ 25
Arabia 25
Aviation 25
Bran@@ 25
Chin@@ 25
Cog@@ 25
Data 25
Dod@@ 25
Douglas 25
Emir@@ 25
Eth@@ 25
FC 25
Gau@@ 25
HO@@ 25
Herzegovina 25
IF@@ 25
ING 25
Israel 25
Kand@@ 25
Lig@@ 25
Line 25
Luc@@ 25
Luis 25
Nah@@ 25
Pasha 25
Persian 25
Radi@@ 25
Rand@@ 25
Ren@@ 25
SS@@ 25
Sports 25
Studies 25
T. 25
TE 25
Tem@@ 25
Tong@@ 25
Turk@@ 25
We 25
XVIII 25
Yus@@ 25
ades 25
aji 25
alg@@ 25
anat 25
ancy 25
angle 25
anka 25
ares 25
azan 25
bacteri@@ 25
base 25
ben@@ 25
board 25
both 25
building 25
business 25
chrom@@ 25
chron@@ 25
committee 25
dé@@ 25
elli 25
entr@@ 25
fil@@ 25
fran@@ 25
him@@ 25
hydro@@ 25
ico 25
int 25
isti@@ 25
jus@@ 25
later 25
lieu 25
los 25
mam 25
municipalities 25
olith@@ 25
ond 25
oni@@ 25
onian 25
onic 25
ories 25
oy 25
proj@@ 25
ption 25
resort 25
sain 25
sia 25
spot@@ 25
status 25
ster 25
ston 25
teri@@ 25
then@@ 25
tro 25
tus 25
ule 25
villages 25
word 25
zer@@ 25
zh@@ 25
å 25
ð@@ 25
ö@@ 25
ān 25
ź@@ 25
ɔ@@ 25
א 25
آنحضرت@@ 25
الاتحاد 25
التج@@ 25
الثالث 25
العرا@@ 25
الفتا@@ 25
الفن 25
القل@@ 25
الوز@@ 25
بالب@@ 25
بث 25
بدون 25
بلح@@ 25
بنك 25
تعمل 25
تلامذ@@ 25
تيا 25
دية 25
ذیر 25
رسون 25
رير 25
ريون 25
سانت 25
ظمی 25
ظهر 25
عرفت 25
فاً 25
فما 25
قريب 25
قًا 25
كاني 25
كه@@ 25
كوين@@ 25
لاحات 25
له@@ 25
مصري 25
ناطی@@ 25
ها@@ 25
هز@@ 25
واخر 25
وتعل@@ 25
وجام@@ 25
يرن 25
ينج 25
र 25
ঙ 25
় 25
ా@@ 25
ಿ@@ 25
€ 25
↑ 25
﷫ 25
ﺵ 25
.S. 24
1.0@@ 24
1304 24
1375 24
1382 24
1425 24
1430 24
1481 24
1493 24
1509 24
1573 24
1617 24
1619 24
1625 24
1669 24
1674 24
1682 24
Aqu@@ 24
Art 24
Ben 24
Bid@@ 24
CB 24
CT 24
Chil@@ 24
Committee 24
Cs 24
Cum@@ 24
Cz@@ 24
Dad@@ 24
Dul@@ 24
E.@@ 24
EU 24
Ep@@ 24
FIFA 24
Faz@@ 24
Fe 24
Fou@@ 24
GB 24
Gil@@ 24
Grant 24
Grove 24
Hind@@ 24
Jo@@ 24
Kil@@ 24
LG@@ 24
Laf@@ 24
Lamb@@ 24
Madison 24
Medical 24
Nev@@ 24
Number 24
OH 24
ON 24
Oise 24
On@@ 24
Out@@ 24
Pel@@ 24
Pey@@ 24
Phys@@ 24
Pomeranian 24
Provence 24
Put@@ 24
Queen 24
RT@@ 24
Revolution 24
Rou@@ 24
SD@@ 24
Sac@@ 24
Seg@@ 24
Seoul 24
Sev@@ 24
Shab@@ 24
Sou@@ 24
Square 24
Sun 24
Tab@@ 24
Tunisia 24
Two 24
UP 24
Um@@ 24
Van 24
Village 24
Ville 24
Virgin 24
Vä@@ 24
Zah@@ 24
aca 24
access 24
ace@@ 24
act@@ 24
ado@@ 24
anz@@ 24
ation@@ 24
aur 24
azar 24
bach 24
bel@@ 24
books 24
can@@ 24
coun@@ 24
cular 24
defined 24
div@@ 24
eine 24
ello 24
ences 24
esz@@ 24
eti@@ 24
eus 24
fol@@ 24
gar 24
general 24
igh@@ 24
included 24
kl@@ 24
ky@@ 24
lang 24
less 24
lic 24
lis 24
loc@@ 24
lon 24
main 24
major 24
mand@@ 24
mechan@@ 24
met 24
mph 24
mut@@ 24
new@@ 24
ogen 24
ogy 24
opo@@ 24
order 24
oro 24
pin@@ 24
play 24
qi@@ 24
ques 24
several 24
sko 24
sor@@ 24
sper@@ 24
sun 24
sw@@ 24
tax 24
tax@@ 24
usa 24
usta 24
various 24
vir@@ 24
vor 24
wi 24
à@@ 24
ène 24
ø@@ 24
š 24
الاي@@ 24
الطر@@ 24
العربي 24
الفات@@ 24
الفرا@@ 24
القي@@ 24
النض@@ 24
امتد@@ 24
انستان 24
بالخ@@ 24
باني 24
بيات 24
حصر 24
درب 24
ذلك 24
ربات 24
زرق 24
طيب 24
طين 24
فيلي@@ 24
كفر 24
كما 24
ليب 24
مؤتمر 24
متاز 24
وإ@@ 24
والدين 24
ورة 24
ولوجي 24
ومق@@ 24
ومنگ 24
ٕ 24
टो 24
दूर 24
न 24
म 24
१ 24
ੀ@@ 24
♦ 24
1220 23
1225 23
1241 23
1302 23
1337 23
1385 23
1395 23
1424 23
1440 23
1451 23
1543 23
1615 23
1633 23
1646 23
1676 23
1733 23
Abdul 23
Ain 23
Alexander 23
Anton@@ 23
Atom@@ 23
Aw@@ 23
Bad 23
Bang@@ 23
Bec@@ 23
Bell 23
Bon 23
CAD 23
CIA 23
Cathedral 23
Champs 23
Change 23
Circle 23
Complex 23
Cyc@@ 23
Da@@ 23
Equ@@ 23
Essex 23
Ev@@ 23
Exchange 23
Eyal@@ 23
Falken@@ 23
Federation 23
File 23
Flor@@ 23
Fol@@ 23
Force 23
Fru@@ 23
Gabriel 23
Gom@@ 23
Guatemala 23
HS 23
Haw@@ 23
Hez@@ 23
Jol@@ 23
LE 23
Leg@@ 23
Li 23
Little 23
Love 23
Marion 23
Marseille 23
Moselle 23
Muslims 23
Nos@@ 23
O. 23
Organization 23
Peninsula 23
Prov@@ 23
Rez@@ 23
Riz@@ 23
Ré@@ 23
Son@@ 23
Statis@@ 23
Sur 23
TF 23
Tas@@ 23
Texas 23
Tus@@ 23
UM@@ 23
Vienne 23
Vit@@ 23
Warren 23
Was@@ 23
Yun@@ 23
aban 23
aft 23
aic 23
aise 23
alar 23
ale@@ 23
anus 23
arde 23
asc@@ 23
assi@@ 23
astronom@@ 23
ate@@ 23
ators 23
bes 23
bomb 23
chol@@ 23
chu@@ 23
complex 23
construction 23
dem@@ 23
ech 23
ective 23
ects 23
eds 23
electr@@ 23
eni 23
etes 23
gay 23
gn@@ 23
hel@@ 23
hist@@ 23
hood 23
including 23
iron 23
islam@@ 23
itation 23
kan@@ 23
kon@@ 23
ledge 23
lers 23
made 23
media 23
mo 23
municipal 23
museum 23
nd@@ 23
normal 23
oe 23
oi 23
oka 23
omb@@ 23
onom@@ 23
otte 23
pay@@ 23
plas@@ 23
product 23
prot@@ 23
pt 23
quad@@ 23
records 23
regul@@ 23
rel@@ 23
sab@@ 23
sac@@ 23
san@@ 23
series 23
sy 23
telec@@ 23
then 23
theorem 23
times 23
uf@@ 23
uses 23
video 23
yan@@ 23
you@@ 23
zone 23
és 23
к 23
ֲ@@ 23
اجتم@@ 23
اعلات 23
البيضاء 23
الحض@@ 23
الزي@@ 23
الشعر 23
الصد@@ 23
الفنون 23
القرن 23
المتق@@ 23
النح@@ 23
بـ@@ 23
تقري@@ 23
تلنگ@@ 23
جدي@@ 23
جرى 23
خدم 23
خطاء 23
روط 23
ريال 23
ريه 23
شارك 23
شيئ@@ 23
ضابط 23
طت 23
طلاع 23
عمرات 23
عمق 23
غب 23
فاع 23
فيا 23
لاع 23
ملي@@ 23
نقص@@ 23
هان@@ 23
وجي@@ 23
وسع 23
وكان 23
ّة 23
ٽ 23
گھنٹ@@ 23
য 23
வ@@ 23
 23
ﻛ@@ 23
1.4@@ 22
1080 22
1279 22
1327 22
1386 22
1501 22
1503 22
1514 22
1536 22
1546 22
1559 22
1567 22
1655 22
1662 22
1667 22
20th 22
2800 22
AW@@ 22
Abu@@ 22
Adobe 22
Agency 22
Agr@@ 22
Anne 22
Arm@@ 22
Arthur 22
Baj@@ 22
Blood 22
Bolívar 22
Bour@@ 22
Bretagne 22
Bulgaria 22
But@@ 22
CN@@ 22
CS 22
Cab@@ 22
Castel@@ 22
Celle 22
Century 22
Chu@@ 22
Clair 22
Clément 22
Code 22
EM 22
Electr@@ 22
FF 22
Flu@@ 22
Fon@@ 22
Gate 22
Gilles 22
Gun@@ 22
Hall 22
Han@@ 22
Hancock 22
Hash@@ 22
Hello 22
Holy 22
Home 22
Hon@@ 22
Isle 22
Jacques 22
Jer@@ 22
June 22
Ken@@ 22
Knox 22
Kum@@ 22
L.@@ 22
League 22
Ltd 22
ME 22
MR@@ 22
Mal 22
Management 22
Mar 22
Mass@@ 22
Mother 22
Mun@@ 22
Méd@@ 22
NT 22
Nucle@@ 22
Om@@ 22
Path@@ 22
Pis@@ 22
Pou@@ 22
Produc@@ 22
Prof@@ 22
Qi@@ 22
Quar@@ 22
Rel@@ 22
SN@@ 22
Sarg@@ 22
Saudi 22
Sci@@ 22
Sciences 22
Story 22
TCP 22
TRA@@ 22
UN 22
VA 22
Vosges 22
Vé@@ 22
Wo@@ 22
Wy@@ 22
Yen@@ 22
Zealand 22
` 22
abor@@ 22
aco 22
afa 22
agar 22
alar@@ 22
alu@@ 22
anism 22
apa 22
ark 22
articles 22
asis 22
aul@@ 22
ayet 22
bility 22
brah@@ 22
bul@@ 22
central 22
che@@ 22
coma 22
come 22
dale 22
dian 22
different 22
differenti@@ 22
disorder 22
districts 22
dos 22
eer 22
electron 22
ements 22
enburg 22
eth 22
ex 22
gor@@ 22
hiv@@ 22
hundreds 22
idal 22
imperi@@ 22
ited 22
iti 22
ker@@ 22
kg 22
kor 22
ku 22
lia 22
lion 22
live 22
located 22
machine 22
mun@@ 22
nav@@ 22
nh@@ 22
numbers 22
op 22
ort 22
osh 22
ova 22
park 22
pas@@ 22
person 22
po 22
popular 22
potential 22
prime 22
production 22
publi@@ 22
reh@@ 22
rière 22
roc@@ 22
sam@@ 22
sav@@ 22
saw 22
ses 22
sites 22
software 22
stat@@ 22
stop 22
tain@@ 22
through 22
tigen 22
trans 22
ull 22
ump 22
ury 22
uta 22
while 22
yar 22
yst@@ 22
zo@@ 22
Ö@@ 22
ô 22
ʃ@@ 22
А@@ 22
н 22
أثر 22
إ 22
احت@@ 22
اصر 22
اصطنا@@ 22
اعر 22
البو@@ 22
الحدود 22
الحكم 22
السو@@ 22
العدل 22
العم@@ 22
الكتب 22
المسلمين 22
الولا@@ 22
امتداد 22
اورنگ@@ 22
تبلغ 22
تمام@@ 22
تمي@@ 22
جمه@@ 22
جوم 22
خذ 22
خري@@ 22
دني 22
ذك@@ 22
شتو@@ 22
شروط 22
شعبية 22
عك@@ 22
قانوني 22
لاست@@ 22
لينا 22
ماسات@@ 22
ممن 22
ميس 22
نسبتا@@ 22
هذه 22
واص@@ 22
واق 22
ونکہ 22
ڤ@@ 22
ڻ 22
का 22
ज 22
त 22
ਆ@@ 22
ਭ@@ 22
ತ@@ 22
ි@@ 22
ე@@ 22
ﭻ 22
ﮄ@@ 22
1070 21
1205 21
1259 21
1377 21
1417 21
1469 21
1479 21
1485 21
1508 21
1579 21
1591 21
1638 21
1643 21
1657 21
1671 21
1698 21
1705 21
1726 21
1728 21
2100 21
Adam 21
Ax@@ 21
BM@@ 21
BP 21
Bangladesh 21
Beach 21
Bell@@ 21
Bill 21
Brazil 21
CL 21
Chev@@ 21
Clay 21
Coul@@ 21
Coun@@ 21
Court 21
Cross 21
DR 21
Dun@@ 21
EP 21
Economics 21
Estonia 21
Foundation 21
Fri@@ 21
GE 21
GO@@ 21
Google 21
Green@@ 21
Guy@@ 21
HIV 21
Hack@@ 21
Haf@@ 21
Hav@@ 21
Health 21
High@@ 21
Hun@@ 21
IL@@ 21
Ing@@ 21
Italy 21
Jun@@ 21
Justice 21
Kach@@ 21
Kay@@ 21
Kow@@ 21
Kut@@ 21
Latin 21
Lev@@ 21
Lib@@ 21
Ma 21
Mahmud 21
Manz@@ 21
Mars 21
Michael 21
Morgan 21
Mou@@ 21
Order 21
Organisation 21
P.@@ 21
PR 21
Page 21
Philippines 21
Pic@@ 21
Post@@ 21
Psych@@ 21
Rav@@ 21
Rh@@ 21
Rid@@ 21
Rot@@ 21
Roy@@ 21
SL@@ 21
Sach@@ 21
Say@@ 21
Shal@@ 21
Sheikh 21
Siy@@ 21
Source 21
South@@ 21
Sup@@ 21
Taiwan 21
Temple 21
Territ@@ 21
Third 21
Tim@@ 21
UNESCO 21
Var 21
Vau@@ 21
Vieux 21
Vin@@ 21
Water 21
XIV 21
Yous@@ 21
ack@@ 21
administration 21
ahl@@ 21
alla 21
ango 21
aph@@ 21
arif 21
author 21
azi@@ 21
born 21
bos@@ 21
bre@@ 21
bro@@ 21
bus 21
bus@@ 21
ck 21
com 21
consci@@ 21
cou@@ 21
dat 21
diseases 21
dun@@ 21
edi 21
elected 21
emi 21
enclat@@ 21
eri@@ 21
esa 21
estimated 21
eter@@ 21
fa 21
far@@ 21
film 21
game 21
grav@@ 21
great 21
had@@ 21
hand 21
ika 21
imm@@ 21
internal 21
ka@@ 21
kal@@ 21
ked 21
keh@@ 21
lain 21
mann 21
mat 21
matrix 21
maus@@ 21
mobile 21
nar@@ 21
ods 21
ogr@@ 21
ommun@@ 21
otr@@ 21
ovo 21
pen@@ 21
plex@@ 21
protein 21
pun@@ 21
rah 21
record 21
record@@ 21
regions 21
research 21
result 21
rian 21
say 21
sburg 21
shi 21
sign@@ 21
sover@@ 21
start 21
statistics 21
tification 21
ulan 21
uli@@ 21
ures 21
vector 21
veloc@@ 21
vin@@ 21
wat@@ 21
watch 21
wo@@ 21
xx 21
ynam@@ 21
yo@@ 21
ysis 21
zac 21
ì 21
ñ@@ 21
ú 21
Łódź 21
Ō@@ 21
ʁ@@ 21
π 21
э@@ 21
اقد@@ 21
الأس@@ 21
الأن@@ 21
الشرف 21
القد@@ 21
المتع@@ 21
المض@@ 21
المعر@@ 21
برنامج 21
بسبب 21
بعة 21
بورت 21
ثان 21
ثي@@ 21
جوع 21
جيا 21
جيم 21
حبي@@ 21
داث 21
رئيس 21
رياض@@ 21
ريان 21
رية 21
سوري 21
سيمات 21
فلس@@ 21
لتون 21
لحن 21
لدي@@ 21
لعب@@ 21
ليف 21
وتي@@ 21
ودي 21
يط 21
ګ@@ 21
क 21
य 21
ে 21
ਅ@@ 21
ਤ 21
ସ@@ 21
ା 21
ୁ@@ 21
ನ 21
ი 21
რ@@ 21
ﺾ 21
1282 20
1312 20
1368 20
1418 20
1461 20
1463 20
1470 20
1504 20
1507 20
1554 20
1577 20
2023 20
AND 20
Aff@@ 20
Alaska 20
BS 20
Beth@@ 20
Bit@@ 20
Blo@@ 20
Brunswick 20
Bug@@ 20
Calais 20
Castle 20
Channel 20
Chemical 20
Child 20
Christian 20
Co 20
Country 20
D.@@ 20
Death 20
Den@@ 20
Dig@@ 20
Digital 20
Dj@@ 20
Dordogne 20
Dynam@@ 20
ED@@ 20
EM@@ 20
ET@@ 20
Ec@@ 20
Ele@@ 20
Elizabeth 20
Emp@@ 20
Eng@@ 20
Fak@@ 20
Film 20
Granada 20
HR 20
Ha 20
Hi@@ 20
IM 20
Ish@@ 20
Jin@@ 20
KA 20
Kaf@@ 20
Kn@@ 20
LP 20
Laval 20
Marshall 20
Mathemati@@ 20
Me 20
Mic@@ 20
Model 20
Most 20
Mut@@ 20
NY@@ 20
Nez@@ 20
Nicol@@ 20
Nuclear 20
Open 20
Oper@@ 20
Pas 20
Pav@@ 20
Phil@@ 20
Political 20
Publ@@ 20
Pun@@ 20
RI 20
Rai@@ 20
Research 20
Roch@@ 20
SM@@ 20
SR@@ 20
SW@@ 20
Services 20
Syn@@ 20
Taylor 20
Telec@@ 20
These 20
UL@@ 20
V.@@ 20
Van@@ 20
Vend@@ 20
Vermont 20
Vic@@ 20
Vietnam 20
XX 20
Ye@@ 20
Year 20
Zir@@ 20
actions 20
aja 20
alam@@ 20
alif@@ 20
ambi@@ 20
anda 20
ary@@ 20
aus 20
aut@@ 20
ayat 20
azia 20
birth 20
borg 20
bra 20
brahim 20
cardi@@ 20
cer 20
codes 20
colonial 20
culture 20
design 20
dev@@ 20
dh@@ 20
does 20
don@@ 20
dong 20
electrom@@ 20
elling 20
erg@@ 20
erie 20
ers@@ 20
esian 20
esser 20
ester@@ 20
eta 20
eti 20
etus 20
eum 20
far 20
frequency 20
fusion 20
gas@@ 20
gate 20
hat 20
hay@@ 20
heli@@ 20
ians 20
ict 20
ien 20
ignes 20
ij@@ 20
ily 20
imi 20
inces 20
iny 20
ior 20
ité 20
ket 20
kup 20
largest 20
leg@@ 20
lev@@ 20
mar 20
matter 20
mission 20
motion 20
nal 20
nam 20
names 20
net@@ 20
ons@@ 20
ord 20
origin 20
osia 20
pack 20
phone 20
physical 20
pi 20
plan@@ 20
plantation 20
plur@@ 20
polyg@@ 20
port@@ 20
quality 20
radi@@ 20
ref@@ 20
ret@@ 20
secre@@ 20
serving 20
sey@@ 20
skaya 20
society 20
source 20
stan@@ 20
sv@@ 20
sym@@ 20
territory 20
tha 20
thi@@ 20
tice 20
tis@@ 20
took 20
tres 20
true 20
trus@@ 20
ufi 20
uh@@ 20
usha 20
vehicle 20
vic 20
vis 20
vis@@ 20
wal 20
wal@@ 20
wel@@ 20
what 20
wr@@ 20
xin 20
xy 20
ya@@ 20
yar@@ 20
yer 20
zar@@ 20
zer 20
ê 20
õ@@ 20
ǎ@@ 20
ɪ@@ 20
ος 20
ский 20
؀ 20
ادى 20
الأر@@ 20
الأز@@ 20
الشعب@@ 20
الشعور 20
الشه@@ 20
العربية 20
القط@@ 20
اللو@@ 20
باك@@ 20
بض@@ 20
بمث@@ 20
تبع@@ 20
تخصص@@ 20
تخطيط 20
ترجم 20
تشار 20
تقل 20
تلك 20
رمض@@ 20
سابقًا 20
شاب 20
ظه@@ 20
غاز 20
فيها 20
قرر 20
قص 20
قوا 20
كانا 20
لعب 20
مج 20
مدع@@ 20
مهاج@@ 20
هج@@ 20
هند@@ 20
هيم 20
وبة 20
وبد@@ 20
وشي@@ 20
چنان@@ 20
দ 20
ੈ@@ 20
ି@@ 20
ག 20
◾ 20
 20
ﻡ@@ 20
1.9@@ 19
1130 19
1170 19
1235 19
1274 19
1311 19
1315 19
1388 19
1429 19
1444 19
1454 19
1478 19
1497 19
1505 19
1575 19
1583 19
1634 19
1677 19
2025 19
3rd 19
Aires 19
Ale@@ 19
Alt@@ 19
Anglo 19
Angola 19
Antoine 19
Arg@@ 19
BBC 19
Bac@@ 19
Barth@@ 19
Benoît 19
Biz@@ 19
Capr@@ 19
Cay@@ 19
Cha@@ 19
Charlotte 19
Chor@@ 19
Cuba 19
Czech 19
DS 19
Dar 19
Deb@@ 19
Era 19
Fat@@ 19
February 19
From 19
Front 19
Giv@@ 19
Gra@@ 19
HP 19
Hebrew 19
Hyper@@ 19
IG@@ 19
IU@@ 19
Indi@@ 19
Indre 19
Jou@@ 19
Kens@@ 19
Khu@@ 19
Kis@@ 19
Kun@@ 19
LAN 19
Ley@@ 19
Lot@@ 19
MB@@ 19
MT 19
Mang@@ 19
Midlands 19
Mill@@ 19
Moz@@ 19
Music 19
Mys@@ 19
Nad@@ 19
Natal 19
Natural 19
Network 19
Nicaragua 19
Num@@ 19
Ox@@ 19
PH@@ 19
PP 19
Paulo 19
Paz 19
Real 19
Sec@@ 19
Sidi 19
Some 19
Spec@@ 19
Star 19
Sullivan 19
Turkey 19
Uz@@ 19
Web 19
Whit@@ 19
Wikipedia 19
Windows 19
Zab@@ 19
Ze@@ 19
ace 19
adan 19
agan 19
agh@@ 19
aha 19
ald 19
alis 19
alle@@ 19
anger 19
anth@@ 19
art@@ 19
asia 19
ativ@@ 19
atus 19
autonom@@ 19
aves 19
avia 19
became 19
because 19
black 19
bri@@ 19
called 19
carrying 19
ce@@ 19
cheon 19
constant 19
count 19
cus 19
ded 19
democ@@ 19
dit 19
duction 19
ear 19
ear@@ 19
eastern 19
ehr 19
embr@@ 19
eme 19
entum 19
esc@@ 19
este 19
etan 19
fier 19
fri@@ 19
fu@@ 19
gender 19
gene@@ 19
ges@@ 19
given 19
good 19
gram@@ 19
graph@@ 19
green 19
hang 19
heritage 19
historical 19
hospit@@ 19
igh 19
imb@@ 19
industry 19
insky 19
istics 19
itz 19
kara 19
killing 19
know 19
led 19
license 19
lie 19
lim@@ 19
lot 19
mier 19
near 19
oire 19
oj@@ 19
ologist 19
open 19
osc@@ 19
osom@@ 19
owa 19
paper 19
pat@@ 19
ple@@ 19
proc@@ 19
pt@@ 19
ranked 19
rant 19
ratio 19
ry@@ 19
sept@@ 19
sian 19
sim@@ 19
spirit 19
stead 19
stein 19
sum 19
tas@@ 19
teenth 19
ticism 19
tif@@ 19
tox@@ 19
tt@@ 19
urn@@ 19
virus 19
white 19
wing 19
works 19
zu@@ 19
§ 19
Ç@@ 19
çon 19
éc@@ 19
ét@@ 19
ów@@ 19
ć@@ 19
Č@@ 19
ı 19
ńsk 19
ƒ 19
Φ 19
α 19
Рес@@ 19
к@@ 19
ка 19
أش@@ 19
اته 19
اضط@@ 19
اغو 19
افي@@ 19
البالغ@@ 19
الخدمات 19
الدوا@@ 19
الرجل 19
السيد 19
اللي@@ 19
المك@@ 19
المناف@@ 19
المنش@@ 19
المه@@ 19
انظر 19
ايو 19
باسم 19
بى 19
تحال 19
تيار 19
ثلاث 19
دعاء 19
دلي 19
دمت 19
ريب 19
زايد 19
سنسکر@@ 19
فاي@@ 19
فهم 19
فوا 19
فیسٹی@@ 19
قيم 19
كال 19
كانت 19
كست@@ 19
لكل 19
لها 19
محاض@@ 19
مساح@@ 19
هري 19
والص@@ 19
وجين 19
وحمل 19
وريات 19
ّه 19
प 19
ি 19
ਟ 19
ச@@ 19
ட@@ 19
ి@@ 19
ཁ@@ 19
⁄ 19
大@@ 19
ﮌ 19
ﮟ@@ 19
ﺕ@@ 19
1.7@@ 18
1190 18
1204 18
1248 18
1261 18
1356 18
1396 18
1458 18
1460 18
1482 18
1487 18
1557 18
1584 18
1626 18
1637 18
1665 18
16th 18
17th 18
5م 18
Amp@@ 18
Arth@@ 18
Autom@@ 18
Be 18
Beaumont 18
Buenos 18
Bâ@@ 18
CR 18
Ce@@ 18
Chit@@ 18
Cé@@ 18
DA@@ 18
DI@@ 18
Dah@@ 18
Das@@ 18
Die 18
Duc 18
Emperor 18
Estate 18
Far 18
Fil@@ 18
Félix 18
GT@@ 18
Greek 18
Hard@@ 18
Heil@@ 18
Howard 18
ICA@@ 18
Iraq 18
Janeiro 18
Java 18
Jr 18
Kap@@ 18
Kong 18
Lac 18
Lad@@ 18
Lanka 18
Left 18
Limited 18
Luxembourg 18
Minister 18
Montgomery 18
Multi@@ 18
Muz@@ 18
Neur@@ 18
Niz@@ 18
Nom@@ 18
Not 18
Not@@ 18
OR 18
Oce@@ 18
Office 18
Oriental 18
Other 18
PD@@ 18
Phen@@ 18
Pil@@ 18
Proph@@ 18
Rak@@ 18
Ray 18
Roman 18
Sever@@ 18
Springs 18
Summer 18
THE 18
Tang@@ 18
Ten@@ 18
Tot@@ 18
Tub@@ 18
Tut@@ 18
Universal 18
Vari@@ 18
Vincent 18
WH@@ 18
Wat@@ 18
Way 18
Win@@ 18
Yer@@ 18
Zag@@ 18
ador 18
anges 18
anna 18
arch 18
arts 18
ats@@ 18
axis 18
ayer 18
belonged 18
bine 18
box 18
ca@@ 18
calcul@@ 18
case 18
cinemat@@ 18
cop@@ 18
cription 18
cycle 18
density 18
digital 18
dim 18
down@@ 18
dul@@ 18
eck@@ 18
entino 18
eral 18
euil 18
every 18
evi@@ 18
example 18
facility 18
full 18
hausen 18
high 18
ib 18
idi@@ 18
ification 18
iman 18
isi 18
island 18
itis 18
jar@@ 18
jet 18
ken@@ 18
kot 18
lake 18
lem@@ 18
lui 18
lum 18
mah@@ 18
med@@ 18
meth@@ 18
mul@@ 18
multiple 18
mur@@ 18
nic@@ 18
orders 18
ose 18
osph@@ 18
over@@ 18
par 18
pic 18
plic@@ 18
polar@@ 18
problem 18
provinces 18
ps@@ 18
pul@@ 18
put 18
que@@ 18
rest 18
ries 18
ross 18
sha 18
sho@@ 18
shu@@ 18
sing@@ 18
som@@ 18
squ@@ 18
stimul@@ 18
sup@@ 18
super@@ 18
systems 18
tam@@ 18
taught 18
tering 18
tern 18
thr@@ 18
tie 18
tillon 18
tium 18
tos 18
traffic 18
trum 18
ube 18
ui@@ 18
until 18
uru 18
ust@@ 18
wealth 18
ying 18
yth@@ 18
yu 18
èvres 18
ý@@ 18
й 18
т@@ 18
ألا 18
أولاد 18
ائط 18
اشات 18
اضطرابات 18
الإسلامية 18
البحث 18
البناء 18
الرب@@ 18
الروح 18
الري@@ 18
الزب@@ 18
السط@@ 18
السفر 18
العص@@ 18
الفوز 18
القواعد 18
الك 18
الكون 18
اليون 18
انوي 18
بأ@@ 18
بواب 18
تجار 18
توي 18
تيك 18
جيب 18
جيل 18
داف 18
دريس 18
شح 18
صلاة 18
طلحات 18
عليهم 18
غانستان 18
كنت 18
كيك 18
مجموع 18
ميز 18
ندس 18
نظرا 18
نوان 18
هور@@ 18
والتع@@ 18
والز@@ 18
والش@@ 18
والك@@ 18
واي 18
وبي@@ 18
وود 18
يدي 18
ڻ@@ 18
की 18
य@@ 18
हमारा 18
ফ 18
ম 18
ী@@ 18
ਿ 18
ବ@@ 18
ய@@ 18
ு 18
ಗ@@ 18
ྫ@@ 18
თ@@ 18
ი@@ 18
∗ 18
 18
ﺖ@@ 18
ﻚ@@ 18
ﻞ@@ 18
1.8@@ 17
1210 17
1227 17
1295 17
1428 17
1488 17
1506 17
1558 17
1652 17
1673 17
1685 17
1693 17
802.@@ 17
AE 17
AX 17
Additionally 17
Aisne 17
Alam@@ 17
Albert 17
Alc@@ 17
Antarctic 17
Australian 17
Auvergne 17
Aux@@ 17
Aziz 17
Barn@@ 17
Base 17
Bern@@ 17
Bish@@ 17
Boulogne 17
Brazilian 17
Burma 17
CH 17
Cad@@ 17
Cambridge 17
Camii 17
Camp 17
Canal 17
Castil@@ 17
Champagne 17
Christ 17
Chron@@ 17
Civil 17
Corps 17
Corr@@ 17
Crawford 17
Cri@@ 17
Crim@@ 17
Cus@@ 17
Dat@@ 17
December 17
Deux 17
Dra@@ 17
End 17
Energy 17
Fac@@ 17
Fah@@ 17
Fel@@ 17
Fran@@ 17
GI 17
GP@@ 17
Gab@@ 17
Gaza 17
Gut@@ 17
Gy@@ 17
Gö@@ 17
Hep@@ 17
Hin@@ 17
Hip@@ 17
Hir@@ 17
Hong 17
Hul@@ 17
Hér@@ 17
Identi@@ 17
Image 17
Iran@@ 17
Iv@@ 17
Jerusalem 17
K.@@ 17
Know@@ 17
Lady 17
Lago 17
Long 17
Lud@@ 17
Madrid 17
Map@@ 17
Meg@@ 17
Mish@@ 17
Mountains 17
Musa 17
NF 17
Nam 17
Navy 17
Nevada 17
Nis@@ 17
Non@@ 17
Nur 17
Ob@@ 17
Ontario 17
PM 17
PRO@@ 17
Palau 17
Pau@@ 17
Pent@@ 17
Pet@@ 17
Prin@@ 17
Pyr@@ 17
RO 17
Rome 17
Russell 17
Satur@@ 17
Scott 17
Sett@@ 17
Sher@@ 17
Sierra 17
Sik@@ 17
Slovenia 17
Soh@@ 17
Song 17
Star@@ 17
Study 17
TC 17
TO 17
Tax@@ 17
Tay@@ 17
Thir@@ 17
Tiber@@ 17
Tower 17
Trin@@ 17
UC 17
Vali 17
Vallée 17
Vent@@ 17
Vid@@ 17
Viol@@ 17
Wak@@ 17
What 17
Wilson 17
Yemen 17
abase 17
aea 17
afr@@ 17
aille 17
alized 17
aly 17
amar@@ 17
ao@@ 17
araj@@ 17
ashi 17
assimil@@ 17
ayn@@ 17
become 17
berry 17
bourg 17
brain 17
capit@@ 17
car 17
cc 17
chan@@ 17
chu 17
ci 17
cz 17
dal@@ 17
designated 17
did 17
dil@@ 17
dington 17
dre@@ 17
dur@@ 17
eas 17
ecti@@ 17
edia 17
entia 17
ering 17
erk@@ 17
established 17
eva 17
extr@@ 17
failure 17
fer 17
fish 17
gia 17
global 17
gy@@ 17
hang@@ 17
ically 17
ini@@ 17
islands 17
ism@@ 17
ken 17
key 17
lam 17
last 17
lat 17
left 17
len@@ 17
liber@@ 17
lik 17
market 17
matches 17
medical 17
medium 17
metric 17
mind 17
mm 17
mot@@ 17
multi@@ 17
murdered 17
nac 17
neighbour@@ 17
not@@ 17
official 17
og 17
oga 17
omo 17
opath@@ 17
oper@@ 17
other@@ 17
partisan 17
partition 17
peri@@ 17
physics 17
ples 17
pol 17
pole 17
pot 17
pres@@ 17
pressure 17
pri@@ 17
price 17
principle 17
print 17
processing 17
rat@@ 17
ratic 17
religious 17
river 17
ru 17
ré@@ 17
seat 17
sequ@@ 17
sequence 17
service 17
sex 17
sing 17
sit@@ 17
size 17
sm 17
songs 17
sou@@ 17
stadt 17
star@@ 17
sti@@ 17
study 17
sus 17
syndrome 17
tile 17
tin@@ 17
today 17
tou 17
ullah 17
umi 17
unda 17
ups 17
uro 17
user 17
vacc@@ 17
visual 17
von 17
ways 17
xia 17
zo 17
zon 17
ég@@ 17
ʻ@@ 17
ον 17
а@@ 17
ט@@ 17
ءً 17
أحد 17
أصول 17
أع@@ 17
أق@@ 17
أل@@ 17
أه@@ 17
التراث 17
الشباب 17
الطبقات 17
القصر 17
انتص@@ 17
بالذ@@ 17
باي 17
برة 17
ترتيب 17
تشار@@ 17
تقريباً 17
تكن 17
جوانب 17
حن 17
ديد 17
دیوت@@ 17
رئیر 17
زع 17
سرحد@@ 17
عبة 17
علمي 17
عًا 17
فأ@@ 17
كشف 17
كوم 17
كيز 17
لفت 17
مؤسسة 17
مدينة 17
معنى 17
نسون 17
واحل 17
والأ@@ 17
وبيا 17
وره 17
وفة 17
ولاً 17
يكرو@@ 17
ّي 17
ټ@@ 17
ڊ 17
ڌ 17
ۍ 17
न@@ 17
ਚ@@ 17
ੜ@@ 17
ર@@ 17
க 17
த 17
ந@@ 17
ತ 17
ು 17
ს@@ 17
ḥ@@ 17
ン@@ 17
 17
ﺽ 17
ﻥ@@ 17
1230 16
1307 16
1355 16
1427 16
1484 16
1544 16
1581 16
1641 16
2024 16
3200 16
5th 16
7th 16
AH@@ 16
AI 16
Abi@@ 16
Administr@@ 16
Ancient 16
Andr@@ 16
Ast@@ 16
At 16
Atlan@@ 16
Atlantic 16
Ave@@ 16
Avi@@ 16
BCE 16
Bas 16
Bernard 16
Bih@@ 16
Bra@@ 16
CB@@ 16
CF 16
CM@@ 16
COM 16
Chief 16
Cl 16
Cle@@ 16
Crown 16
Cré@@ 16
DR@@ 16
DS@@ 16
Def@@ 16
Det@@ 16
Dil@@ 16
Dublin 16
Dutch 16
ED 16
Emirates 16
Esp@@ 16
Eul@@ 16
F.@@ 16
Falls 16
Fen@@ 16
Fos@@ 16
Fur@@ 16
Gardens 16
Gener@@ 16
German@@ 16
Giovanni 16
God@@ 16
Gos@@ 16
Grav@@ 16
HF 16
Haft 16
Hag@@ 16
Hamp@@ 16
Han 16
Harrison 16
Hills 16
However 16
Hydr@@ 16
Integr@@ 16
Jed@@ 16
Johannesburg 16
Jud@@ 16
July 16
Junction 16
Karak@@ 16
Key 16
Koz@@ 16
Law@@ 16
Lebanon 16
Lip@@ 16
Lis@@ 16
Loc@@ 16
Lu 16
Lun@@ 16
MF 16
MT@@ 16
Men 16
Minor 16
Mob@@ 16
Mom@@ 16
Monte 16
Muh@@ 16
Myr@@ 16
NB 16
Night 16
Noble 16
Nog@@ 16
Nou@@ 16
Ocean 16
PAC 16
Palm@@ 16
Pam@@ 16
Parliament 16
Petit 16
Pol 16
Poly@@ 16
Port@@ 16
Prim@@ 16
Prime 16
Proc@@ 16
Project 16
Py@@ 16
Pér@@ 16
RD 16
Ram 16
Rap@@ 16
Ret@@ 16
Rib@@ 16
Roma 16
Rose 16
Roy 16
SF 16
SU@@ 16
Sanc@@ 16
Sap@@ 16
Serbia 16
Sing@@ 16
Small 16
Spir@@ 16
Su 16
Tai@@ 16
Tari@@ 16
Tat@@ 16
Tig@@ 16
Tun@@ 16
UE@@ 16
Ulu@@ 16
VO@@ 16
Valle 16
Vig@@ 16
WI 16
Wad@@ 16
Wall 16
Who 16
Will 16
Yak@@ 16
Yi 16
abar 16
ables 16
abri@@ 16
acha 16
ading 16
agram 16
ahr 16
airport 16
alle 16
almost 16
ampton 16
anch@@ 16
ander 16
ando 16
anes 16
anian 16
anya 16
apr@@ 16
apur 16
astic 16
atan 16
atis@@ 16
bani 16
bec 16
berg@@ 16
burned 16
cav@@ 16
change 16
china 16
cler@@ 16
combus@@ 16
commercial 16
conn@@ 16
cont@@ 16
could 16
course 16
crip@@ 16
cut@@ 16
dal 16
dean 16
def@@ 16
det@@ 16
display 16
document 16
due 16
ecki 16
economics 16
egan 16
ells 16
eman 16
emblem@@ 16
ennium 16
eno 16
eous 16
etta 16
eval 16
ew 16
expression 16
fact 16
father 16
fe 16
feet 16
ference 16
figures 16
fin@@ 16
final 16
fis@@ 16
flow 16
football 16
fos@@ 16
garh 16
grave 16
growth 16
hara 16
held 16
hill 16
hop@@ 16
hui 16
hum@@ 16
ication 16
ices 16
icity 16
icle 16
idae 16
idence 16
ignant 16
ilan 16
ilin 16
iliz@@ 16
important 16
inas 16
includes 16
indi 16
inge 16
isch 16
ith@@ 16
ito 16
jal@@ 16
jo 16
kas@@ 16
kent 16
lay@@ 16
lied 16
liter@@ 16
lower 16
meter 16
mol@@ 16
nu@@ 16
née 16
officer 16
oke 16
olar 16
otes 16
p.@@ 16
ph 16
pia 16
prop@@ 16
près 16
quar@@ 16
ranking 16
rem@@ 16
rod@@ 16
rol@@ 16
rou@@ 16
scale 16
scop@@ 16
sel 16
sens@@ 16
server 16
shell 16
shows 16
sions 16
ss@@ 16
ste@@ 16
stor@@ 16
sville 16
tari@@ 16
technique 16
techniques 16
ther 16
thesis 16
thor@@ 16
tivity 16
tol@@ 16
tom 16
tot@@ 16
trade 16
transport 16
tries 16
tural 16
u.@@ 16
uba 16
ucle@@ 16
udi@@ 16
uj@@ 16
uka 16
uma 16
umb@@ 16
urg@@ 16
values 16
vari@@ 16
version 16
verty 16
ware 16
whole 16
win 16
ymph@@ 16
zam@@ 16
zy 16
Á@@ 16
Île 16
ège 16
ě@@ 16
ński 16
ș@@ 16
ʿ@@ 16
β 16
ы@@ 16
ד 16
أد@@ 16
أما 16
أمر 16
إبراهيم 16
اءً 16
ارًا 16
الجبل 16
الحقوق 16
الخض@@ 16
الدراسات 16
الدف@@ 16
الذين 16
السنة 16
السوي@@ 16
الشمال 16
الصف 16
العث@@ 16
العُ@@ 16
الماء 16
المنز@@ 16
المنق@@ 16
الوس@@ 16
باعتب@@ 16
بنفس@@ 16
بنى 16
تصل 16
تفق 16
جنود 16
دعوة 16
دّ 16
سيب 16
عاء 16
عارض 16
عزل 16
عقاد 16
عما 16
قيات 16
قيب 16
قيد 16
قيق 16
كوف 16
كوف@@ 16
كيف 16
لهم 16
موظ@@ 16
ميات 16
هول@@ 16
وعلم 16
وفان 16
وليس 16
ܐ 16
छ@@ 16
श 16
ા@@ 16
ର 16
ఖ@@ 16
మ@@ 16
ದ@@ 16
ಮ@@ 16
བ@@ 16
⭐ 16
の 16
ス@@ 16
ﭖ@@ 16
ﭴ@@ 16
ﮀ@@ 16
ﺙ 16
🌺 16
1.6@@ 15
1066 15
1464 15
1472 15
1587 15
1668 15
1679 15
1692 15
19th 15
202@@ 15
4th 15
A2 15
AG 15
Abr@@ 15
Access 15
Administration 15
Afgh@@ 15
Aix 15
Algeria 15
Antigua 15
Arts 15
Aun@@ 15
Ball@@ 15
Barbados 15
Best 15
Bib@@ 15
Bio@@ 15
Bloom@@ 15
Broken 15
Bureau 15
Burundi 15
Buz@@ 15
CI 15
Can 15
Cell 15
Chan@@ 15
Chau@@ 15
Christ@@ 15
Confl@@ 15
Conn@@ 15
Consum@@ 15
Corn@@ 15
Creek 15
Curr@@ 15
Dim@@ 15
Down 15
Ds 15
EN 15
Early 15
Euc@@ 15
Ex 15
Foreign 15
François 15
Frederick 15
Gad@@ 15
Gall@@ 15
Garr@@ 15
Good 15
Gug@@ 15
HC 15
HM@@ 15
HT@@ 15
Hand 15
Hand@@ 15
Heli@@ 15
Hit@@ 15
Hou@@ 15
ID@@ 15
Id@@ 15
Infer@@ 15
Iron 15
Jag@@ 15
Jagu@@ 15
Jaz@@ 15
Jura 15
Kre@@ 15
Kuy@@ 15
LS 15
Light 15
Lit@@ 15
Lublin 15
Lug@@ 15
Lut@@ 15
ML@@ 15
Main@@ 15
Malaysia 15
Malta 15
Marguerite 15
Maxim@@ 15
Media 15
Meth@@ 15
Metro 15
Mik@@ 15
Mongolia 15
Moore 15
N.@@ 15
NATO 15
ND 15
Nab@@ 15
Nation 15
Nem@@ 15
Norte 15
Oak 15
Ober@@ 15
Off@@ 15
Ok@@ 15
Pakistani 15
Palest@@ 15
Pass@@ 15
Pedro 15
Posi@@ 15
Ps 15
R.@@ 15
ROM 15
Ross 15
Sax@@ 15
Slovakia 15
Sm@@ 15
Special 15
Statistics 15
Summit 15
Trujillo 15
UM 15
Unión 15
Vali@@ 15
Winn@@ 15
Wis@@ 15
XX@@ 15
Young 15
Yur@@ 15
Zam@@ 15
Zan@@ 15
abr@@ 15
acet@@ 15
adel@@ 15
ago@@ 15
alan@@ 15
aland 15
alit@@ 15
alli@@ 15
aman@@ 15
amin 15
ancient 15
anta 15
anza 15
apar@@ 15
aries 15
arti@@ 15
ater 15
atin 15
attacks 15
atur 15
bad@@ 15
ben 15
best 15
bio 15
book@@ 15
bro 15
capita 15
chil@@ 15
cho 15
circle 15
cite 15
cle@@ 15
clus@@ 15
command 15
content 15
conver@@ 15
cryp@@ 15
dead 15
degree 15
differ@@ 15
doba 15
drawn 15
dri@@ 15
drug 15
dynam@@ 15
early 15
eaux 15
ebr@@ 15
eck 15
ees 15
ehr@@ 15
eil 15
election 15
emont 15
empire 15
empl@@ 15
encing 15
enco@@ 15
ep 15
erre 15
escence 15
ete 15
fare 15
fiel@@ 15
fields 15
financial 15
five 15
fon@@ 15
found 15
ging 15
gol 15
groups 15
hap@@ 15
hari@@ 15
heart 15
hen@@ 15
hil 15
hold 15
hole 15
idan 15
ikh 15
imal 15
income 15
inst@@ 15
isa 15
ista 15
jo@@ 15
kab@@ 15
kingdom 15
kir@@ 15
kor@@ 15
kur@@ 15
lak@@ 15
largely 15
lay 15
lip 15
little 15
lob@@ 15
mak@@ 15
mation 15
mean 15
mel 15
membrane 15
mental 15
mid@@ 15
ming 15
mir 15
mom@@ 15
mp@@ 15
nad 15
nas@@ 15
neutr@@ 15
non@@ 15
nov@@ 15
numer@@ 15
né 15
oci@@ 15
olle 15
olo 15
omat@@ 15
oral 15
ored 15
ores 15
orial 15
othe@@ 15
oul@@ 15
ourt 15
ović 15
pan@@ 15
pend@@ 15
pes 15
phy@@ 15
police 15
powiat 15
pre 15
program 15
quan 15
raf 15
rather 15
refl@@ 15
rot@@ 15
ruling 15
said 15
sert 15
she@@ 15
short 15
sid@@ 15
sine 15
spin 15
sun@@ 15
tai 15
tain 15
thu@@ 15
tiques 15
trac@@ 15
translated 15
tras@@ 15
trol@@ 15
trom@@ 15
trop@@ 15
tru@@ 15
tures 15
ulu 15
usi@@ 15
vin 15
vit@@ 15
wali 15
zen@@ 15
zz@@ 15
ède 15
ław 15
ɑ 15
ός 15
л@@ 15
ми 15
с@@ 15
э 15
і 15
إليه 15
ائيات 15
اتٍ 15
احک@@ 15
افظ@@ 15
التاريخ 15
الترا@@ 15
الخاص 15
الخصوص 15
الصار@@ 15
الفقر 15
القذ@@ 15
المظ@@ 15
المعل@@ 15
انية 15
باقاع@@ 15
بعون 15
بيه 15
تاق 15
تخب 15
تزال 15
جاع 15
جاه@@ 15
حكوم@@ 15
دوره 15
ديق 15
رؤساء 15
روايات 15
عالي 15
عى 15
غة 15
فتر@@ 15
قدي@@ 15
قوي 15
كرب@@ 15
محدد 15
مرة 15
مزي@@ 15
معرفة 15
مناز@@ 15
موارد 15
مية 15
نشرت 15
هة 15
والف@@ 15
ومص@@ 15
يؤ@@ 15
फ 15
व 15
स 15
ु 15
ং@@ 15
ই@@ 15
ক 15
ੈ 15
ପ@@ 15
ି 15
ெ@@ 15
ை@@ 15
ర@@ 15
ల@@ 15
ಾ@@ 15
ೆ 15
න 15
ර@@ 15
ས@@ 15
ლ@@ 15
ო@@ 15
ṭ@@ 15
ッ@@ 15
ン 15
ー 15
 15
ﮭ 15
﷾ 15
13th 14
1439 14
1466 14
1477 14
1483 14
1495 14
15th 14
1م 14
3G 14
4x@@ 14
Abd@@ 14
Alabama 14
Alan 14
Amin@@ 14
Argent@@ 14
Astr@@ 14
Autr@@ 14
B2 14
Bam@@ 14
Basic 14
Bav@@ 14
Beg@@ 14
Belle@@ 14
Benito 14
Berkeley 14
Berlin 14
Beyond 14
Bh@@ 14
Bla@@ 14
Bob@@ 14
Boc@@ 14
Body 14
Books 14
Brid@@ 14
Britain 14
Bush@@ 14
C2 14
Ced@@ 14
Cent@@ 14
Cheshire 14
Ciudad 14
Coll@@ 14
Common 14
Culture 14
Cô@@ 14
Daniel 14
Design 14
Distr@@ 14
Dob@@ 14
Don 14
Dream 14
Drum@@ 14
Dub@@ 14
Dy@@ 14
EC 14
Et@@ 14
Eu@@ 14
Family 14
Fed@@ 14
Feder@@ 14
Ferdinand 14
Finance 14
Fire@@ 14
GE@@ 14
Ghana 14
Gim@@ 14
Grand@@ 14
Greene 14
Gren@@ 14
Head@@ 14
Heath 14
Henri 14
Homo 14
IV@@ 14
If 14
Ig@@ 14
Inc. 14
Independent 14
Inf@@ 14
Istanbul 14
Jesus 14
Jet 14
Jordan 14
Kent 14
Ket@@ 14
Kip@@ 14
Laguna 14
Leon@@ 14
Liechtenstein 14
Linux 14
Lion 14
Lus@@ 14
Luz@@ 14
Mark 14
Marmara 14
Marsh@@ 14
Memory 14
Meur@@ 14
Microsoft 14
Mind@@ 14
Ministry 14
Miss@@ 14
Mod@@ 14
Monta@@ 14
Moon 14
Muk@@ 14
N1 14
Ner@@ 14
Ng@@ 14
Nig@@ 14
October 14
Olympic 14
Over@@ 14
Patri@@ 14
Pes@@ 14
Pie@@ 14
Pier@@ 14
Pont@@ 14
Pope 14
Program 14
Prom@@ 14
Provincial 14
Raf@@ 14
Rai 14
Reserve 14
Réunion 14
SB 14
Sa 14
Server 14
Seven 14
She 14
Sib@@ 14
Sky 14
Sky@@ 14
Solomon 14
Sot@@ 14
Stephen 14
Stor@@ 14
Sub 14
Super 14
Syrian 14
Sé@@ 14
Television 14
Through 14
Tok@@ 14
Unit 14
Universe 14
Up 14
Va@@ 14
Valence 14
Vancouver 14
Veh@@ 14
Video 14
Vila 14
Virtual 14
Water@@ 14
Wes@@ 14
Whe@@ 14
Zem@@ 14
Zhu@@ 14
Zo@@ 14
Zulu 14
acks 14
aden@@ 14
adjus@@ 14
adr@@ 14
alis@@ 14
alog@@ 14
alphabet 14
amine 14
analysis 14
angu@@ 14
ards 14
aster 14
ature 14
aussée 14
awan 14
aç@@ 14
aş@@ 14
bab@@ 14
bard 14
baz@@ 14
bic 14
bit@@ 14
bor 14
border 14
bron@@ 14
cestershire 14
chat@@ 14
ck@@ 14
comm@@ 14
compati@@ 14
cord 14
counties 14
cross 14
cá@@ 14
ders 14
developed 14
dic 14
dol 14
dra@@ 14
dun 14
eca 14
eda 14
eder@@ 14
edr@@ 14
electrical 14
eller 14
endi 14
endra 14
eness 14
ensi@@ 14
enth 14
ento 14
essor 14
eur@@ 14
fall 14
feld 14
flo@@ 14
formation 14
four 14
gel@@ 14
glass 14
gre@@ 14
gro@@ 14
hab 14
hadi 14
hak 14
hil@@ 14
hockey 14
hr 14
icon 14
idi 14
ilg@@ 14
image 14
independence 14
information 14
inger 14
inhabitants 14
internet 14
inus 14
issi@@ 14
itude 14
jah 14
jav@@ 14
jun@@ 14
kad@@ 14
kazi 14
kes@@ 14
kil@@ 14
kn@@ 14
kol@@ 14
laine 14
late 14
lav 14
leader 14
lech@@ 14
liers 14
lit@@ 14
lière 14
log 14
mark 14
ment@@ 14
mia 14
mm@@ 14
molec@@ 14
nant 14
nec@@ 14
next 14
nil 14
north 14
objects 14
ocar@@ 14
omen@@ 14
onym 14
oon 14
orn 14
otro@@ 14
ots 14
oud 14
ough 14
ought 14
oxide 14
painted 14
phon@@ 14
play@@ 14
plication 14
prehensive 14
properties 14
quanti@@ 14
radiation 14
rati@@ 14
red@@ 14
related 14
respon@@ 14
response 14
return 14
rh@@ 14
rid 14
rol 14
screen 14
sem@@ 14
sis 14
sok@@ 14
sovi@@ 14
speci@@ 14
sph@@ 14
stable 14
stem 14
storage 14
syl@@ 14
tage 14
take 14
teams 14
thousands 14
tiers 14
tism 14
tière 14
usion 14
uss 14
vier 14
web@@ 14
wick 14
wide 14
wil@@ 14
wounded 14
writing 14
yat 14
zu 14
ä 14
éri@@ 14
ía 14
ña 14
ım 14
ő@@ 14
ɡ@@ 14
ɪ 14
ʊ 14
ː@@ 14
Ка@@ 14
Совет@@ 14
а 14
г@@ 14
м@@ 14
н@@ 14
ни 14
ный 14
у@@ 14
қ@@ 14
ү@@ 14
ו 14
أصحاب 14
أغ@@ 14
ألف 14
أنا 14
إبرا@@ 14
اجي 14
الآداب 14
الاسم 14
البحرين 14
التعل@@ 14
الجر@@ 14
الجنوب 14
الخل@@ 14
الرئ@@ 14
الربيع 14
العرش 14
الفري@@ 14
القتل 14
المحلي 14
المعم@@ 14
النه@@ 14
الني@@ 14
امپھ@@ 14
اوه@@ 14
بالط@@ 14
باول 14
بيع 14
تباع 14
تخص@@ 14
تدو@@ 14
تسع 14
تصنيف 14
تصوير 14
تيم 14
ثة 14
ثون 14
حدوث 14
خري 14
دوج 14
ديث 14
روة 14
سوريا 14
شريك 14
ضة 14
طريق 14
طوال 14
طويل 14
فوز 14
قاد 14
قيمت 14
كريست@@ 14
كلا 14
للط@@ 14
لية 14
مكان 14
ملون 14
مناطق 14
ميكان@@ 14
نوات 14
نيفة 14
هت 14
وسيع 14
وصح@@ 14
وضح 14
ومرا@@ 14
يرون 14
يط@@ 14
کھیے 14
ः 14
जी 14
द@@ 14
ভ@@ 14
ਖ@@ 14
ਟ@@ 14
କ@@ 14
ා@@ 14
ු@@ 14
უ@@ 14
Ἰ@@ 14
‑ 14
ﮁ@@ 14
ﮝ@@ 14
ﮡ 14
ﯼ@@ 14
🌹 14
1455 13
1474 13
1496 13
ATA 13
AV@@ 13
AZ 13
Acc@@ 13
Alo@@ 13
Ankara 13
Anthro@@ 13
Antil@@ 13
Arc@@ 13
Ath@@ 13
Aul@@ 13
Auth@@ 13
BF 13
BSD 13
Bari 13
Bass@@ 13
Bel 13
Bez@@ 13
Bhar@@ 13
Board 13
Bog@@ 13
Born 13
Boz@@ 13
Bush 13
CL@@ 13
CNN 13
Caesar 13
Campbell 13
Cardi@@ 13
Cass@@ 13
Cast@@ 13
Castile 13
Cath@@ 13
Celtic 13
Centr@@ 13
Chav@@ 13
Chelsea 13
Chir@@ 13
Chol@@ 13
Clar@@ 13
Cli@@ 13
Colonial 13
Communes 13
Confeder@@ 13
Congress 13
Coordin@@ 13
Cru@@ 13
DN 13
DN@@ 13
Delta 13
Duc@@ 13
Dyn@@ 13
ESCO 13
Economy 13
Electric 13
Exper@@ 13
Eye 13
Fem@@ 13
Fey@@ 13
Flag 13
Flo@@ 13
Forces 13
Forum 13
Friedrich 13
Fuku@@ 13
Fut@@ 13
GN@@ 13
GO 13
GPS 13
GS 13
Game 13
Gandhi 13
Garden 13
Gas@@ 13
Ges@@ 13
Gold@@ 13
Good@@ 13
Gour@@ 13
Gros@@ 13
Gó@@ 13
Hain@@ 13
Hastings 13
Hawaii 13
His 13
Hospital 13
Ib@@ 13
Il 13
Int@@ 13
Intel 13
Israeli 13
Ivan@@ 13
Jard@@ 13
Jay@@ 13
Jorge 13
Jum@@ 13
Jur@@ 13
KS 13
Kuwait 13
Kō@@ 13
LIN@@ 13
Landgemeinde 13
Last 13
Lef@@ 13
Leh@@ 13
Leo 13
Lid@@ 13
Live 13
Lives 13
MI 13
MP 13
Magn@@ 13
Many 13
Marc 13
Mare 13
Mich@@ 13
Michigan 13
NO 13
NR@@ 13
NS 13
Ning@@ 13
Note 13
O.@@ 13
O2 13
Only 13
Ot@@ 13
PCR 13
PDF 13
PE 13
PL 13
Par 13
Pass 13
Paw@@ 13
Perry 13
Pierce 13
Pit@@ 13
Pob@@ 13
Punj@@ 13
RN@@ 13
Rat@@ 13
Raw@@ 13
Reb@@ 13
Reino 13
Ris@@ 13
Rog@@ 13
Row@@ 13
Rule 13
Rum@@ 13
Rup@@ 13
SW 13
Sali@@ 13
Santo 13
Saur@@ 13
Scientific 13
Seb@@ 13
September 13
Series 13
Sex@@ 13
Shim@@ 13
Silver 13
Singapore 13
Sit@@ 13
Six@@ 13
Sn@@ 13
Somerset 13
Somme 13
Sov@@ 13
Spe@@ 13
Staff 13
Surin@@ 13
Sussex 13
Swe@@ 13
Sym@@ 13
Szcz@@ 13
Tai 13
Tan 13
Til@@ 13
Treaty 13
Trig@@ 13
Trust 13
Té@@ 13
Vernon 13
Viz@@ 13
WB 13
Wales 13
Wall@@ 13
When 13
Wik@@ 13
Wol@@ 13
Yaz@@ 13
Yo@@ 13
Youth 13
Zaf@@ 13
ache 13
afi 13
agnes 13
agus 13
aia 13
aill@@ 13
alli 13
allo@@ 13
alt@@ 13
amour@@ 13
ampa 13
anag@@ 13
anic 13
anni@@ 13
anos 13
antum 13
archiv@@ 13
archy 13
aro 13
artificial 13
asing 13
atia 13
atra 13
available 13
away 13
awi 13
ayo 13
aí@@ 13
ał@@ 13
below 13
bia 13
bid 13
biology 13
ble@@ 13
borne 13
burn 13
cano 13
chester 13
chin 13
ching 13
cho@@ 13
cit@@ 13
cles 13
cm 13
conqu@@ 13
cons@@ 13
constitution 13
continent 13
contr@@ 13
dam@@ 13
dek 13
dependent 13
dial 13
dial@@ 13
dies 13
dis 13
divided 13
dro@@ 13
dw@@ 13
earth 13
east 13
eha 13
ei@@ 13
element 13
elements 13
eless 13
emat@@ 13
ender 13
eni@@ 13
enza 13
ept@@ 13
eran 13
ered 13
esi@@ 13
euv@@ 13
ext@@ 13
fal@@ 13
false 13
fen@@ 13
fu 13
graduate 13
graph 13
gy 13
half 13
health 13
i.@@ 13
ici@@ 13
ided 13
igues 13
immun@@ 13
inflam@@ 13
ingu@@ 13
inos 13
input 13
iro 13
ische 13
ishi 13
isse 13
ister@@ 13
isy 13
ith 13
jaw@@ 13
kai 13
kel@@ 13
kho@@ 13
kie 13
knowledge 13
lag@@ 13
large 13
laur@@ 13
least 13
leges 13
let@@ 13
lington 13
lis@@ 13
lit 13
lo 13
load 13
mab@@ 13
master 13
material 13
mathemati@@ 13
melan@@ 13
members 13
mit 13
mon 13
motor 13
mouth 13
nation@@ 13
native 13
neighborhood 13
nel 13
nes@@ 13
nice 13
nière 13
node 13
nu 13
off@@ 13
ogo 13
oko 13
oks 13
ologists 13
ope 13
oria 13
orit@@ 13
oud@@ 13
ource 13
oz 13
parts 13
pic@@ 13
plant 13
practice 13
prob@@ 13
psych@@ 13
rap@@ 13
recognized 13
regular 13
rey 13
rich 13
rie 13
rif@@ 13
rig@@ 13
rik 13
rine 13
ring 13
riz@@ 13
rul@@ 13
script 13
sdorf 13
security 13
should 13
signal 13
sons 13
south 13
stad 13
started 13
structure 13
surgery 13
sus@@ 13
swe@@ 13
syn@@ 13
tes@@ 13
thre@@ 13
thumb 13
top@@ 13
tournament 13
train 13
tree 13
tribe 13
tun 13
ual@@ 13
ume 13
under@@ 13
unds 13
uzi 13
va@@ 13
vertebr@@ 13
via 13
vision 13
wall 13
wani 13
waves 13
web.archive.org 13
website 13
west 13
wick@@ 13
wn 13
words 13
xe 13
xes 13
zem@@ 13
zw@@ 13
¥ 13
¼ 13
École 13
éch@@ 13
éry 13
î 13
ör@@ 13
ē 13
œ@@ 13
ż 13
ɾ@@ 13
ʼ@@ 13
ν@@ 13
д@@ 13
е 13
ш 13
ы 13
ї@@ 13
ј@@ 13
ի@@ 13
ע 13
ءات 13
أج@@ 13
أخبار 13
أمير 13
ائيل 13
افة 13
الأخبار 13
البوا@@ 13
التعرف 13
الرحم 13
الرز@@ 13
الصوت 13
الطبي@@ 13
الطعام 13
العذ@@ 13
القرون 13
المدار@@ 13
المسا@@ 13
المسي@@ 13
المنظ@@ 13
النز@@ 13
النوم 13
الوزن 13
بالك@@ 13
بث@@ 13
برئ@@ 13
بفضل 13
تجديد 13
تحاد 13
تحرير 13
ترجمة 13
تعرف 13
تفوق 13
تقريبا 13
تمبر 13
توماس 13
جاك 13
جزاء 13
حاكم 13
حتی@@ 13
حدات 13
دولة 13
ديز 13
ذه@@ 13
رجع 13
رحال 13
سلسل 13
سلطنة 13
سية 13
سيرة 13
شه 13
صحي@@ 13
ضح 13
فشل 13
فية 13
كارلوس 13
كبي@@ 13
كة 13
كندي 13
كوٹا 13
مباب@@ 13
ملة 13
موي 13
ميش@@ 13
نحن 13
نقشب@@ 13
هاب 13
والت@@ 13
والث@@ 13
وتار@@ 13
وعلى 13
ولى 13
ومؤ@@ 13
يرى 13
ًّا 13
ۢ 13
अ@@ 13
क@@ 13
ग 13
म@@ 13
ला 13
व@@ 13
वा@@ 13
स@@ 13
চ@@ 13
ਗ 13
ੁ 13
ੌ@@ 13
ହ@@ 13
େ@@ 13
ல@@ 13
ම@@ 13
ව@@ 13
タ@@ 13
モ@@ 13
山@@ 13
 13
08.@@ 12
1185 12
1468 12
1476 12
1549 12
3,3 12
3م 12
9th 12
AFL 12
Abdullah 12
Acu@@ 12
Aden@@ 12
After 12
Alber@@ 12
Am 12
Anh@@ 12
Asp@@ 12
Austr@@ 12
Baja 12
Basil@@ 12
Benin 12
Berg@@ 12
Between 12
Bolivia 12
Boston 12
Boul@@ 12
Bret@@ 12
Brussels 12
Buff@@ 12
Campe@@ 12
Canadian 12
Chem@@ 12
Chester 12
Chiang 12
Cla@@ 12
Classification 12
Clo@@ 12
Compos@@ 12
Cont@@ 12
Costa 12
Crystal 12
Dan 12
Declar@@ 12
Denmark 12
Dist@@ 12
Dong 12
Double 12
Dragon 12
Dre@@ 12
Dro@@ 12
Du 12
Dum@@ 12
E9E9E9 12
EL 12
Ear@@ 12
Egyptian 12
Einstein 12
Eli@@ 12
Elle 12
Entertainment 12
Eus@@ 12
FM 12
Facebook 12
Francis 12
G.@@ 12
GR@@ 12
Gag@@ 12
Gam@@ 12
Girl 12
Got@@ 12
Gou@@ 12
Gun 12
HD 12
HMS 12
Hall@@ 12
Heart 12
Hier@@ 12
Honduras 12
Hong@@ 12
Honor@@ 12
Hope 12
Hot@@ 12
How 12
Human@@ 12
IOC 12
Inc 12
It@@ 12
Italian 12
Jackson 12
Ji 12
Johannes 12
Johnson 12
José 12
KK@@ 12
Kag@@ 12
Kid@@ 12
Kou@@ 12
Kwa@@ 12
LD 12
LM 12
Lamp@@ 12
Learning 12
Legal 12
Lem@@ 12
Like 12
Lost 12
MD 12
MD@@ 12
Mac 12
Malik 12
Marri@@ 12
Martin@@ 12
Master 12
Matrix 12
Mec@@ 12
Mechan@@ 12
Medal 12
Mediterranean 12
Mess@@ 12
Mi 12
MiG 12
Mid 12
Miguel 12
Mind 12
Mit@@ 12
Montr@@ 12
Motor@@ 12
Mr. 12
Nach@@ 12
Naf@@ 12
Nap@@ 12
Nec@@ 12
Neo 12
Net 12
Net@@ 12
Nih@@ 12
Norman 12
Nouvelle 12
Obj@@ 12
Oman 12
Operation 12
Orange 12
Ottoman 12
Pa 12
Pant@@ 12
Papua 12
Paraná 12
Part 12
Partido 12
Paul@@ 12
Peak 12
Physical 12
Plant@@ 12
Plas@@ 12
Politics 12
Prac@@ 12
Private 12
Pé@@ 12
RE 12
Radio 12
Randolph 12
Range 12
Reh@@ 12
Renaissance 12
Review 12
Rhin@@ 12
Rim@@ 12
Riv@@ 12
SD 12
SK@@ 12
SM 12
SP 12
Saj@@ 12
Salv@@ 12
Sark@@ 12
Sas@@ 12
Scotia 12
Secre@@ 12
Set 12
Shen@@ 12
Shor@@ 12
Si 12
Sign@@ 12
Software 12
Solar 12
Spirit 12
Sr@@ 12
Stan@@ 12
Stat@@ 12
Stone 12
Stre@@ 12
Synagog@@ 12
Table 12
Taf@@ 12
Tart@@ 12
Tek@@ 12
Testament 12
Text 12
Tin@@ 12
Tom 12
Top@@ 12
Tou@@ 12
Training 12
Trans 12
Trav@@ 12
Type 12
Ural 12
Vall@@ 12
Vic 12
Vul@@ 12
WD 12
Walker 12
Wan@@ 12
Welcome 12
Williams 12
With 12
Word 12
Work 12
Wright 12
Writ@@ 12
XVII 12
Your 12
Z. 12
Zen@@ 12
abab@@ 12
activity 12
adow 12
agen 12
aging 12
ahu 12
alie 12
altern@@ 12
amo 12
ampli@@ 12
anao 12
ances 12
ander@@ 12
ank 12
ante 12
antic 12
ape 12
application 12
archi@@ 12
arn 12
arri@@ 12
aton 12
atos 12
att 12
attempted 12
auf 12
aup@@ 12
authority 12
aver@@ 12
bara 12
bek 12
bek@@ 12
bir@@ 12
blog 12
bodies 12
bond 12
bre 12
bres 12
brother 12
carbon 12
cep@@ 12
cin 12
comp@@ 12
cot@@ 12
cricketer 12
crimes 12
cut 12
d.@@ 12
dam 12
dea 12
della 12
dens@@ 12
depos@@ 12
dera 12
details 12
diff@@ 12
dorf 12
dow@@ 12
each 12
ean@@ 12
edit@@ 12
edo 12
education 12
eling 12
ement@@ 12
emo 12
encia 12
ende 12
enge 12
engi 12
engl@@ 12
ening 12
ente 12
entes 12
environmental 12
ephone 12
equation 12
erian 12
esp@@ 12
eton 12
ett@@ 12
explo@@ 12
expres@@ 12
fam@@ 12
fi 12
finger 12
flight 12
forces 12
foreign 12
gee 12
gian 12
gil 12
gio 12
gir@@ 12
graphic 12
gs 12
gun 12
hak@@ 12
hard 12
hav@@ 12
hin 12
hon@@ 12
hop 12
hormon@@ 12
hs 12
hud@@ 12
hus@@ 12
ications 12
icts 12
ied 12
ift 12
ignon 12
ikistan 12
iller 12
illé 12
ination 12
incident 12
inian 12
ink 12
inter 12
interpre@@ 12
ique 12
iret 12
ished 12
istr@@ 12
ital 12
iting 12
itual 12
iya 12
jap@@ 12
kat@@ 12
kul@@ 12
laq 12
legal 12
length 12
ling@@ 12
lip@@ 12
listed 12
living 12
liz@@ 12
lost 12
love 12
luch@@ 12
lé 12
mRNA 12
magazine 12
management 12
manipul@@ 12
map 12
march@@ 12
marine 12
mas 12
match 12
mb@@ 12
med 12
mg 12
mili@@ 12
muscle 12
nis@@ 12
nières 12
nj@@ 12
nois 12
nut 12
office 12
oku 12
olet 12
ondr@@ 12
ony@@ 12
ood 12
operating 12
osci@@ 12
ose@@ 12
otype 12
ougou 12
oul 12
ovan 12
para 12
party 12
pent@@ 12
pith@@ 12
places 12
plan 12
plasma 12
plo@@ 12
poli 12
policy 12
pon 12
pron@@ 12
quantum 12
ras 12
reci@@ 12
relation 12
religion 12
repe@@ 12
report 12
reson@@ 12
resp@@ 12
rier 12
row@@ 12
run 12
sau@@ 12
say@@ 12
scientific 12
seas 12
seed 12
sep@@ 12
sim 12
sius 12
smith 12
solution 12
song 12
sonne 12
soul 12
sound 12
sources 12
spac@@ 12
spor@@ 12
sta@@ 12
stream 12
stress 12
stroke 12
sum@@ 12
tas 12
thing 12
those 12
throughout 12
tiliz@@ 12
tle 12
tot 12
ub 12
ulin 12
ulus 12
ump@@ 12
unga 12
union 12
uria 12
ved 12
verdi 12
versity 12
vik 12
voir 12
vous 12
vre 12
wak@@ 12
want 12
weapon 12
wich 12
working 12
yal 12
yet 12
yr 12
zel@@ 12
© 12
ées 12
én 12
éré 12
év@@ 12
êque 12
öder@@ 12
ū 12
ɔ 12
̃ 12
али@@ 12
в@@ 12
коно@@ 12
льный 12
ная 12
рай@@ 12
ь@@ 12
я@@ 12
ե@@ 12
ո@@ 12
ֱ@@ 12
ב 12
ך@@ 12
؏ 12
أث@@ 12
أس 12
إذ@@ 12
إس@@ 12
إسماعيل 12
افتتا@@ 12
اقات 12
اكل 12
الأربعة 12
الأص@@ 12
الأولى 12
الجسم 12
الخار@@ 12
الدرا@@ 12
الدماغ 12
الدول@@ 12
الغالب 12
الفص@@ 12
الفلا@@ 12
القسم 12
الكامل 12
الكبرى 12
الكلام 12
المالك@@ 12
المدينة 12
المشار@@ 12
الموج@@ 12
الوادي 12
انة 12
باقي 12
بسي@@ 12
تج 12
تحول 12
تسب@@ 12
تقدات 12
توحيد 12
توفي 12
حين 12
خاض 12
خرى 12
راجع 12
زواج 12
سبيل 12
سطات 12
سمي 12
شة 12
صنع 12
صي 12
صيف 12
طاني 12
طه@@ 12
عمدة 12
غلي@@ 12
فيات 12
قوانين 12
قيقات 12
قيه 12
كانوا 12
لاي 12
مايو 12
متحف 12
متس@@ 12
مجمو@@ 12
مسیحی@@ 12
مضرب 12
مكتبة 12
ممكن 12
منه 12
ميلا@@ 12
واً 12
ورئ@@ 12
وسام 12
وعش@@ 12
ولعب 12
ولما 12
يرًا 12
ينة 12
ينت 12
يورو 12
ٹیننٹ 12
ٿ@@ 12
چانک 12
کنالوجی 12
ं 12
आ@@ 12
ऐ 12
ख 12
जहाँ 12
तान 12
ने 12
ब@@ 12
या 12
গ 12
ত 12
ਕ 12
ਬ 12
ତ@@ 12
ు 12
ು@@ 12
ക@@ 12
ල@@ 12
ད@@ 12
ა 12
ṣ@@ 12
ῖ@@ 12
の@@ 12
ケ@@ 12
地方 12
 12
ﭠ@@ 12
ﮍ 12
ﮘ@@ 12
ﺞ 12
ﺺ 12
🐱 12
🔸 12
.C. 11
04.@@ 11
0م 11
1471 11
18th 11
2.0@@ 11
6th 11
8th 11
API 11
Adams 11
Adri@@ 11
Afr@@ 11
Agri@@ 11
Ai@@ 11
Aig@@ 11
Alliance 11
Amar@@ 11
And@@ 11
Angeles 11
Antonio 11
Ar 11
Armenian 11
Arn@@ 11
BD 11
Bang 11
Bangalore 11
Bard@@ 11
Bataille 11
Bhutan 11
Bik@@ 11
Blanc 11
Blanche 11
Bov@@ 11
Brah@@ 11
Brom@@ 11
Bré@@ 11
Bun@@ 11
Bén@@ 11
CO2 11
CU 11
Caes@@ 11
Cancer 11
Cann@@ 11
Capit@@ 11
Carthage 11
Ces@@ 11
Chamb@@ 11
[...]
