the 153330736
, 143961830
. 127062019
of 84785779
and 73260750
in 64843860
&quot; 57075854
to 51082552
a 50025973
was 31681036
@-@ 28215936
The 25680845
is 23970897
) 21842243
( 21815566
for 20319936
on 20279001
as 20038317
with 17642440
by 17598480
&apos;s 15730555
that 14075220
at 13792184
from 12754559
an 11682314
his 11207769
In 10195014
he 9354298
were 8304289
ing 7675556
it 7655269
which 7471490
are 7323524
ed 7002964
or 6872270
He 6783224
be 6167600
also 6124390
; 6111639
had 6089932
: 5925151
– 5673399
has 5665825
first 5488686
its 5108864
one 4977969
It 4915315
their 4836792
who 4525757
s 4445759
her 4408729
not 4358187
but 4336054
two 4027352
have 4020441
this 3901416
es 3788787
been 3777123
&apos; 3773915
ation 3740177
y 3593560
re@@ 3470728
after 3387239
time 3372698
A 3181755
they 3119463
other 3053880
ate 3041665
into 2994708
all 2969959
she 2857414
al 2704857
ers 2694528
more 2631789
% 2607027
On 2599290
up 2548509
New 2547758
would 2534197
when 2528611
years 2527559
1 2523987
ated 2512804
S@@ 2500935
un@@ 2485432
er 2478541
over 2478055
s@@ 2457943
/ 2452128
where 2450879
out 2445796
This 2412673
during 2394560
year 2367947
season 2323139
only 2323023
new 2279422
between 2263050
three 2215702
made 2197585
used 2197087
2 2177461
him 2150543
later 2141876
then 2141033
most 2112825
United 2108872
P@@ 2105900
&amp; 2085483
known 2079693
can 2075884
such 2067841
part 2059211
about 2047853
American 2037739
de 2011872
became 1999807
well 1992960
under 1987400
team 1985424
University 1984465
B@@ 1973530
G@@ 1971589
age 1970535
D@@ 1968556
She 1965672
t 1942531
born 1937829
I 1927932
than 1926016
T@@ 1920188
e@@ 1915025
W@@ 1904227
including 1867589
being 1841382
film 1840538
there 1836659
R@@ 1828092
in@@ 1827803
N@@ 1800216
L@@ 1799932
3 1784668
M@@ 1784632
some 1782148
C@@ 1775019
second 1760170
ations 1752361
through 1752221
against 1728918
dis@@ 1724294
K@@ 1720620
A@@ 1695434
work 1692436
After 1690030
ted 1688714
F@@ 1687240
able 1675522
while 1659310
ts 1657542
before 1656148
many 1638292
d@@ 1626686
family 1617081
them 1610946
als 1609006
H@@ 1605456
until 1603361
ity 1589593
man 1588927
World 1587913
ch@@ 1584946
no 1584473
both 1582117
ly 1578853
people 1565596
en@@ 1554546
name 1551171
played 1548772
States 1548678
album 1536603
4 1531186
ar 1520836
National 1511139
son 1504182
released 1502510
ic 1491328
life 1475784
b@@ 1463968
number 1461014
series 1453075
ally 1443353
As 1442269
won 1441660
area 1434417
t@@ 1429561
may 1423640
w@@ 1419713
four 1418053
called 1413130
d 1412720
school 1412161
g@@ 1405915
end 1405362
p@@ 1403971
e 1401128
O@@ 1399720
May 1391242
ous 1375887
E@@ 1375363
h@@ 1371379
r@@ 1368236
March 1363460
use 1355625
ting 1352246
September 1348712
January 1342098
y@@ 1340326
ist 1326372
ary 1325033
5 1324672
June 1322042
career 1318327
October 1316170
several 1313526
state 1311331
following 1310073
et 1309926
July 1308148
same 1308001
city 1307678
J@@ 1307361
early 1303542
an@@ 1300111
f@@ 1293176
August 1286241
John 1286227
School 1277133
o@@ 1273602
April 1272613
us 1268643
South 1268247
ad@@ 1267093
st@@ 1265354
game 1263916
found 1262804
sh@@ 1261753
way 1260397
based 1258123
They 1257085
ings 1255937
land 1255447
amp 1254305
began 1243808
i 1242716
November 1241229
ar@@ 1239403
10 1238582
these 1236125
ating 1233543
since 1231638
will 1229242
6 1227638
December 1225753
day 1225357
V@@ 1225176
ors 1221749
el@@ 1220577
so 1218862
His 1218594
k 1214852
ent 1210554
led 1205951
place 1198227
located 1194650
n@@ 1191097
group 1190025
de@@ 1189337
County 1189154
ans 1177429
back 1176529
named 1173675
al@@ 1173208
el 1169552
held 1167553
line 1166817
former 1161359
At 1146743
took 1142629
c 1142568
m 1142398
War 1139744
York 1134886
$ 1132956
le 1130379
government 1129584
or@@ 1129314
k@@ 1126486
now 1120263
member 1114220
There 1113213
State 1108453
February 1105704
tr@@ 1103383
ates 1102055
l@@ 1101065
high 1100771
on@@ 1099369
League 1097458
British 1097267
each 1096797
City 1095266
population 1094437
century 1090641
o 1086597
Ch@@ 1085616
served 1082698
- 1079938
music 1075812
as@@ 1073367
company 1068510
2010 1067788
station 1066595
any 1063894
’ 1060132
&apos;@@ 1058524
7 1053212
song 1048659
town 1046585
am 1042726
However 1039683
ter 1037572
received 1035671
h 1034483
home 1031826
did 1030562
around 1027541
j@@ 1024805
co@@ 1024493
er@@ 1023978
ine 1020413
set 1019895
off 1019397
side 1019240
th 1018543
c@@ 1018486
I@@ 1009286
could 1008615
2011 1007241
North 1006914
men 1005102
built 1000457
8 999046
due 998712
th@@ 997665
ment 995325
ton 988502
long 981988
species 979518
12 979456
lo@@ 974803
single 970296
2012 968352
system 967714
left 964949
like 964660
20 963841
ance 963375
local 962993
public 961860
field 959369
along 959055
own 956108
History 955761
ical 954910
band 954352
During 953708
died 952849
play 951065
ve 950532
2014 950508
18 949188
published 947769
members 945000
five 943530
building 937997
2013 935764
2016 934368
club 933328
am@@ 932670
2015 931737
es@@ 930990
said 928255
include 927973
final 923378
within 923066
ks 922143
U@@ 913869
en 911990
Sh@@ 911242
2008 908749
9 907969
2009 907414
Z@@ 905160
large 903515
because 902582
at@@ 900687
15 898079
world 893738
ons 892553
Y@@ 891258
v@@ 886436
2018 886135
included 884585
2017 882032
se@@ 880951
third 879604
village 879259
it@@ 874139
u 873032
ch 872665
ty 870505
p 867256
2019 864283
small 863294
form 861545
est 860682
b 858963
For 858803
water 858719
n 856571
l 855902
election 853819
very 851040
2007 847614
College 847356
old 845600
French 845542
m@@ 845060
show 843068
national 841910
children 841319
2006 839949
inter@@ 837525
Al@@ 836799
death 835366
le@@ 831373
ley 828747
g 828418
football 827846
li@@ 826724
last 822368
main 821649
for@@ 820527
ic@@ 820047
moved 819655
11 819525
down 818843
&#93; 817854
&#91; 817208
house 815560
English 815497
2020 813354
West 812900
ab@@ 812824
those 809375
ant 809266
tions 806314
if 805537
ac@@ 804463
history 803878
million 803351
still 801789
District 799437
i@@ 798256
women 797679
a@@ 797368
ship 796603
book 796207
30 794409
per 792392
ex@@ 792194
war 791609
German 791340
ro@@ 788129
do 786351
another 786140
16 783949
using 782107
Ar@@ 782084
di@@ 780700
service 780171
der 777492
Re@@ 777452
original 776310
II 774288
— 773734
major 771742
late 769823
ia 769471
pre@@ 768774
district 767556
International 766706
ely 763907
often 763842
near 758724
River 758203
U.S. 756660
London 756057
19 755731
14 755695
went 755616
north 752948
When 751919
father 748253
different 747781
ology 747459
les 747081
tion 746805
less 744730
z@@ 741551
established 741503
games 735875
ap@@ 734807
country 734055
announced 733840
again 732572
top 732364
is@@ 732275
best 732119
All 731661
ul@@ 730915
13 729671
House 728216
ence 727466
order 726725
head 726619
record 724876
um 722154
Cup 722138
south 720074
started 717081
ol@@ 716963
US 714898
25 714288
Con@@ 714286
ag@@ 714200
six 713708
title 710454
role 710181
u@@ 708799
One 708103
im@@ 706073
joined 706022
co 704923
17 704590
em@@ 704542
ad 703180
Mar@@ 703078
law 701351
ator 700050
period 698628
sp@@ 698596
sub@@ 697219
_ 696802
came 695729
worked 693741
br@@ 692437
se 691221
just 690817
ets 689378
con@@ 688392
king 687059
Mc@@ 686975
what 685368
ot@@ 684745
much 684537
support 684134
ism 683241
married 681139
re 680006
produced 678125
bo@@ 676580
among 675530
2005 670683
In@@ 667847
power 666052
make 665665
ur@@ 665508
2021 661906
24 660654
England 659993
om@@ 658784
wrote 658636
development 657836
ents 657586
become 656416
player 655984
having 655769
described 655707
given 655628
be@@ 654089
works 653178
total 652563
over@@ 650656
general 649692
next 648495
community 647961
These 647185
continued 646735
ay 646396
European 646063
red 645933
non 644994
returned 644881
Park 642337
various 642226
ite 641886
C 640897
op@@ 640220
even 639769
under@@ 639748
written 639037
ec@@ 638371
General 638358
ies 636931
political 636801
et@@ 636701
21 636568
point 636341
East 636325
win 634670
po@@ 634667
formed 634392
elected 634319
created 633705
William 633510
2000 633063
id@@ 632002
From 630719
mon@@ 629579
x 629080
Co@@ 628548
B 626542
production 626110
position 625789
west 624066
2004 622954
ti@@ 620991
ed@@ 618413
round 618389
take 616021
Church 615275
cr@@ 613612
times 610765
site 610339
Party 609811
India 608397
Australia 607012
ics 606007
days 604725
formula 604369
An@@ 604330
O 604291
level 603385
however 602401
church 602393
By 602291
founded 601426
= 600720
! 600640
opened 599431
Council 599173
ess 598865
ie 598614
he@@ 598217
te 597960
ph@@ 597491
right 596502
low 595099
few 594821
Army 594454
art 594374
According 594348
France 594212
to@@ 593808
Br@@ 593586
High 593535
ants 593404
students 593184
Street 592819
os 592078
Car@@ 591192
gr@@ 587298
ability 585920
res@@ 585748
100 585687
version 585260
la 583564
military 582788
match 581354
w 579584
James 579566
ters 579183
signed 579023
De@@ 578285
Le@@ 578194
Division 578057
King 577431
party 577396
region 577074
22 576693
appeared 576063
George 576056
appointed 575811
without 575544
ative 575237
east 574817
0 574663
ement 574329
Par@@ 572520
ard 572429
war@@ 570843
San 569402
car@@ 569348
ass@@ 567580
event 566660
television 565076
making 564911
St. 564825
os@@ 563061
run 562525
lost 561837
com@@ 560971
considered 560012
together 558778
ens 558769
present 558554
President 557882
professional 557624
recorded 557340
California 557325
short 556074
pr@@ 555498
half 554448
ri@@ 552081
full 550946
America 550498
fe@@ 550268
case 549884
els 549339
international 548657
working 547975
ists 547730
Canada 547502
ties 547270
language 546357
education 544483
debut 543939
23 543741
style 543605
il@@ 542400
research 541646
2003 541113
ver@@ 540790
&apos;t 540155
story 537535
TV 537242
program 536469
ian 536262
class 535910
ir@@ 535313
str@@ 535038
trans@@ 533562
Bar@@ 530763
Association 530412
further 529545
wife 529291
Col@@ 529218
With 528475
Th@@ 528393
developed 527940
up@@ 526860
te@@ 525740
av@@ 525629
St@@ 524454
ins 524057
body 523463
ves 523156
ling 522965
mo@@ 522866
important 522130
Early 521687
Union 521606
ler 521071
playing 521039
bi@@ 520782
2002 520569
out@@ 519972
ments 519828
per@@ 518486
term 518469
ish 518047
points 517928
areas 516162
While 514877
ten 514225
release 512674
teams 511954
oc@@ 510807
league 510799
video 510388
result 509863
2001 509826
lead 509193
away 509135
Royal 508832
L 507759
Indian 505977
business 505420
office 505233
Australian 505029
26 504668
addition 504664
ak 503707
D 502653
Tr@@ 502209
“ 501247
control 501185
28 500547
” 499640
El@@ 499082
we 497895
director 497433
every 497129
light 495894
col@@ 494541
par@@ 494445
ing@@ 493720
pl@@ 492863
tic 492847
popular 492300
although 491485
average 491389
ah 491308
common 491056
similar 490675
Award 490078
man@@ 489831
Championship 489625
ness 489269
Club 489220
list 488872
others 488556
mother 488355
27 488003
ological 487907
qu@@ 486799
example 486759
design 486576
social 485300
ana 485293
Germany 485164
den 484828
dr@@ 483861
ever 483163
First 481730
act 480295
taken 480116
aw@@ 479840
across 478869
himself 477619
tive 477304
our 477174
daughter 477116
Music 476403
race 476257
president 475558
ey 475328
project 474879
um@@ 474854
air 474702
ai 474638
live 474236
Se@@ 473891
finished 473396
S 472762
Ex@@ 472297
events 471586
David 471518
bl@@ 471448
China 470488
services 469849
Road 469723
ages 469125
Company 468933
ford 468786
ps 468720
living 468345
mar@@ 467837
ong 466439
... 466049
gt 466028
action 464506
go 464038
da 463982
sold 463119
ise 461756
ak@@ 460263
though 460201
z 459932
ying 459365
lt 458407
Central 457340
ol 456846
Court 455997
Some 454685
how 454592
ect 454441
Group 454264
ended 453670
R 453268
1999 453215
Europe 452597
Bo@@ 452540
designed 452468
stage 452327
months 451610
Mor@@ 450847
road 450436
29 450083
free 449634
uses 449406
followed 448989
available 448748
gave 448554
bar@@ 447405
Thomas 447032
never 445990
r 445678
Cor@@ 444912
completed 444415
ice 443777
Japanese 443341
ars 443188
ory 442675
construction 441717
Robert 441642
ell 441269
performed 440964
sent 440346
air@@ 440097
open 439786
Japan 438894
official 438824
coach 438702
sur@@ 438561
white 438336
track 438193
remained 438084
T 437882
current 436883
Air 436436
see 436240
rel@@ 436016
largest 435919
seven 435526
character 435467
id 434693
sc@@ 434421
har@@ 434075
ya 433941
young 433682
reported 433591
UK 433560
modern 433256
Washington 433246
An 432248
ses 432227
Charles 431953
ner 431863
leading 431771
cl@@ 431760
ho@@ 431092
Her 430619
should 430285
Center 430044
8@@ 430020
Hall 429788
ry 428634
pe@@ 428386
Mon@@ 428218
originally 427596
Western 427467
once 426926
songs 426634
wood 426345
active 425790
ut@@ 425408
players 424842
ful 424841
Other 424558
board 424031
1998 424025
cre@@ 423569
ou@@ 423291
great 422556
Department 422349
seen 421963
process 421576
Per@@ 420863
directed 420408
Russian 420024
return 419778
Paul 419594
Institute 419426
get 419257
performance 419187
refer 419183
brother 419001
western 418634
groups 418340
od@@ 418319
currently 418262
study 418139
owned 417780
ter@@ 417680
.@@ 417658
Although 417618
Since 417359
post 417033
features 416573
ised 416557
af@@ 416300
ge@@ 416109
includes 415743
U 415589
end@@ 415399
change 413559
Chinese 413553
eight 413468
throughout 412781
training 411933
Man@@ 411763
listed 411594
ina 411320
ka 411301
Canadian 411267
Be@@ 411172
Island 410845
7@@ 410313
front 410156
placed 409881
Society 408969
does 408789
rec@@ 408786
help 408229
1996 408074
forces 407633
featured 406907
era 406604
ne@@ 406233
awarded 405154
50 404674
tri@@ 404516
African 404377
F 404180
Am@@ 404110
involved 403069
il 402796
usually 402770
1997 402333
ited 401756
range 400536
ake 400534
ick 400211
information 399748
stated 399716
eventually 399559
ge 399481
episode 398851
ains 398504
schools 398243
no@@ 397950
Minister 397560
Q@@ 397534
31 397026
court 396654
good 396551
wing 396153
ev@@ 396116
sion 395416
fire 395113
bre@@ 394397
Its 394285
tors 393342
degree 392997
human 392266
ne 391884
cap@@ 391656
you 391444
Academy 391217
central 391170
added 391168
countries 390481
saw 390450
na 390003
ob@@ 389926
come 389055
der@@ 388856
force 388759
Act 388509
replaced 387239
close 386907
ats 386752
ements 386751
black 385871
ach@@ 385797
families 385547
Women 385310
M 385235
winning 384883
ency 384069
Ro@@ 383922
ds 383594
ators 383369
media 383351
car 382982
competition 382909
fourth 382852
tical 382745
forms 382655
related 382597
x@@ 382130
wide 381902
private 381895
Africa 381616
Mo@@ 381460
special 381394
either 381250
ches 380828
us@@ 380806
1995 380622
acy 380080
parts 379683
ore 379648
ays 379576
ang 379403
ma 379158
her@@ 379004
Spanish 378951
previous 378574
En@@ 378316
9@@ 378294
provided 378255
police 377806
1992 376479
college 375458
center 375195
reached 374839
si@@ 374769
killed 374705
Great 374680
1994 374549
radio 374398
km 374345
ically 374219
f 373852
lies 373619
Lake 373377
X@@ 372895
must 372461
ang@@ 372399
Gu@@ 371812
least 371624
via 371482
ay@@ 371400
To 371322
List 371179
E 371139
Italian 370974
Michael 370876
ce 370731
X 369973
ee 369781
ots 369697
5@@ 369616
Gr@@ 369609
og@@ 368932
states 368913
est@@ 368803
Best 368586
person 368519
above 367962
type 367656
rights 367624
plays 367373
writing 367252
Henry 367096
Me@@ 366891
attended 366556
me@@ 366437
ships 366427
division 366400
ized 366334
6@@ 366271
wh@@ 366173
scored 366017
ow@@ 365995
aircraft 365277
section 365239
ground 365219
mer@@ 365081
ected 364887
Football 364873
introduced 364422
Republic 364301
upon 363767
ig@@ 363747
Sch@@ 362433
rock 362376
ending 362318
ects 362313
attack 362237
ently 362168
ra 362029
ends 361973
Ab@@ 361791
ded 361437
cur@@ 361326
space 361068
pi@@ 360869
changed 360771
room 360623
Bur@@ 360286
railway 360001
For@@ 359909
campaign 359659
decided 359351
ion 359282
St 359190
Str@@ 359052
river 358712
ep@@ 358092
contract 357785
mid 357776
cas@@ 357430
eb@@ 357368
40 357213
Pr@@ 356678
gu@@ 356394
Awards 356371
shows 356135
White 355957
Career 355883
Di@@ 355708
size 355022
put 354862
books 354517
lower 354386
P 353866
ville 353394
female 353315
census 353125
im 353056
Ireland 353024
1990 352844
un 352772
1993 352579
films 351241
1991 350586
defeated 350279
ase 349888
v 349356
Museum 349293
Saint 349103
ill@@ 349068
port 348648
Texas 348322
market 348193
success 347915
Qu@@ 347725
previously 347582
goal 347319
und@@ 347139
La 346745
ding 346634
ran 346543
model 346538
Har@@ 346398
represented 346347
bur@@ 346262
ant@@ 346159
Mac@@ 345961
start 345857
hol@@ 345533
Kingdom 345061
tor 345022
so@@ 344985
pro@@ 344904
G 344889
rather 344845
Following 344592
instead 344514
tournament 344384
Education 344345
Christian 344271
met 343914
buildings 343850
Two 343765
ain 343440
alist 343396
eg@@ 343389
ines 343067
studio 342988
tional 342979
ese 342761
ure 342241
des 342038
and@@ 342009
ath@@ 341826
ru@@ 341649
organization 341524
whose 341059
det@@ 340692
provide 340498
Black 340363
ched 339656
ids 339245
fin@@ 339026
successful 338693
behind 338451
Peter 338417
ale 337990
lived 337987
taking 337641
ational 337121
week 336894
night 336879
brought 336716
almost 336705
eh@@ 336553
health 336513
Roman 336470
stone 336153
ta 336106
Government 336073
hi@@ 335590
self 335420
ni@@ 335371
Art 335175
closed 335004
Los 334971
novel 334787
ade 334770
mis@@ 334707
A. 334205
lines 334205
cast 334121
ent@@ 333473
view 333384
ur 333222
Ac@@ 333196
data 333111
pres@@ 332740
Paris 332504
aged 332325
Grand 332028
min@@ 331867
dec@@ 331754
movement 331089
ani 330815
ke 330556
me 330372
sed 330093
possible 329876
Committee 329602
fl@@ 329159
Catholic 329145
N 329141
Later 328681
su@@ 328628
units 328619
ste@@ 328415
base 328049
soon 327907
approximately 327793
ati@@ 327769
Championships 327713
significant 327446
Soviet 327321
Mary 327306
date 326723
outside 326456
He@@ 326391
ov@@ 326132
ils 326078
structure 325815
writer 325336
Zealand 325081
1989 324937
ae 324884
aries 324574
allowed 324255
contr@@ 323861
key 323849
cor@@ 323600
Com@@ 323502
northern 323502
Smith 323152
ill 323104
primary 322675
especially 322377
ber@@ 322257
industry 322136
runs 321600
Life 321422
ra@@ 321089
ess@@ 320860
st 320392
too 320267
interest 320175
southern 319349
Red 319259
V 318950
1st 318816
Ad@@ 318749
cover 318646
0s 318421
disambiguation 317748
Ne@@ 316995
regular 316653
ously 316481
course 316366
forced 316236
summer 316182
word 316140
rest 316054
ell@@ 316045
ens@@ 316007
island 315667
ality 315528
Ber@@ 315494
1988 315175
ward 315154
Richard 315000
woman 314962
ished 314770
pos@@ 314262
beginning 314061
fall 314046
&#124; 314005
Olympics 313791
spent 313553
No. 312797
capital 312587
wor@@ 312430
Mal@@ 312344
artist 312066
leader 311981
Bay 311848
Bel@@ 311764
systems 311716
ning 311485
sive 311404
itself 311197
10@@ 310866
Arts 310804
Virginia 310767
bu@@ 310579
highest 310230
studies 310131
hit 310118
Un@@ 310036
Summer 309442
Most 309202
sing 309091
Festival 309018
little 308927
Chicago 308888
K 308882
whom 308696
sea 308510
tor@@ 308348
location 308053
towards 307318
4@@ 307033
sometimes 306865
Or@@ 306844
gen@@ 305777
older 305625
Second 305505
traditional 305312
independent 305041
county 304815
ked 304609
Sp@@ 304275
Records 304122
park 303970
plant 303663
higher 303406
child 303193
opening 303098
Ho@@ 303032
fo@@ 302895
magazine 302879
far 302675
dem@@ 302601
length 302548
operations 302485
ences 302471
hand 302418
loss 302307
As@@ 302258
ach 302166
generally 301984
emb@@ 301973
appearance 301692
bridge 301676
ber 301455
kh@@ 301314
running 301168
studied 301132
Cr@@ 300884
ker 300844
Force 300806
seat 300622
Film 300324
route 300315
according 300027
noted 299472
culture 299232
army 299105
strong 299080
launched 299060
thus 298892
ns 298815
network 298527
natural 298424
ered 298203
flo@@ 298128
ino 297990
# 297967
ways 297893
3@@ 297656
1987 297522
entered 297319
collection 297168
ata 297156
ara 296963
future 296633
Italy 296451
sec@@ 296335
ik@@ 296210
equ@@ 295715
real 295631
below 295624
J. 295574
going 295312
required 295264
money 295240
genus 294703
issues 294624
You 294502
Games 294391
alism 294020
ot 293368
Navy 293196
ders 293146
Mexico 293054
sw@@ 293032
ection 292908
1986 292782
month 292495
Hill 292474
let 292322
super@@ 292190
des@@ 292009
ah@@ 291359
means 290712
practice 290639
tour 290389
ish@@ 290349
gener@@ 290202
Battle 289942
Many 289938
we@@ 289881
matches 289873
atic 289755
1984 289426
operated 288961
Lo@@ 288854
Mer@@ 288693
hom@@ 288494
ci@@ 288412
earlier 288002
senior 287994
Northern 287928
Angeles 287833
changes 287568
vers 287327
centre 287162
anti 287140
property 286696
passed 286480
Cal@@ 286360
economic 286322
complete 286280
ides 286148
results 286062
att@@ 285951
cases 285812
gold 285316
If 285160
1980 285058
try 285041
Bi@@ 284934
Po@@ 284870
ones 284826
companies 284297
1985 284154
ards 283953
increased 283774
do@@ 283738
individual 283712
singer 283276
Russia 283172
associated 282969
selected 282827
ved 282710
victory 282659
becoming 282631
numerous 282492
pe 282203
ching 281808
Pro@@ 281609
majority 281226
already 281170
Day 280714
sk@@ 280655
limited 280251
tics 279966
decision 279879
ick@@ 279766
enti@@ 279749
Ma@@ 279638
Greek 279533
ov 279527
author 279347
yl@@ 279007
manager 278882
contains 278709
Joseph 278685
find 278493
fr@@ 278360
competed 278285
ms 278273
Her@@ 278058
activities 277923
den@@ 277606
ately 277576
mission 276723
ir 276553
initially 276543
caused 276306
2nd 276242
reg@@ 275816
serving 275816
commercial 275801
shot 275751
award 275522
love 275196
unit 275116
Inter@@ 275079
move 274665
income 274662
food 274200
issue 274194
terms 273956
annual 273638
W 273619
student 273369
Board 273255
2@@ 273224
au@@ 273027
ams 272841
supported 272741
sol@@ 272599
certain 272481
Irish 272143
1983 272022
Kar@@ 271978
di 271948
vi@@ 271909
ran@@ 271874
coming 271868
personal 271594
trade 271586
az@@ 271429
Bal@@ 271366
nine 271365
access 271300
actor 271146
mostly 271048
retired 271047
acc@@ 270959
staff 270893
Wales 270682
artists 270667
Florida 270600
Char@@ 270497
rate 270474
Sir 270396
eastern 270047
Route 270019
goals 269834
Service 269738
additional 269726
+ 269469
standard 269289
better 269035
elling 269006
tu@@ 268525
characters 268386
face 268314
Pacific 268254
chief 268185
ned 268021
municipality 267972
ash@@ 267593
university 267590
Research 267491
elections 267291
1982 267271
particularly 267184
om 266701
thought 266619
Pe@@ 266530
-@@ 266436
past 266423
fact 266055
Tri@@ 266042
ring 265158
Southern 265058
my 264974
du@@ 264970
husband 264761
Assembly 264613
edition 264419
ture 264414
claimed 264189
lin@@ 263678
religious 263629
ight 263387
ire 262691
officer 262654
Valley 262549
lands 262549
Go@@ 262456
1979 262444
plan 262118
management 262095
entire 261822
parents 261774
ged 261509
not@@ 261488
off@@ 261454
famous 261286
1972 261177
create 260463
subsequently 260322
Year 260051
Congress 259942
ances 259714
politician 259707
ette 259566
Louis 259520
inc@@ 259464
give 259454
That 259239
Public 259135
remains 258820
championship 258807
ored 258636
Parliament 258544
feature 258511
Al 258509
evidence 258484
spec@@ 258332
mas@@ 258223
medical 258201
engine 258192
legal 258006
del@@ 257263
battle 257067
? 256955
od 256848
programs 256671
status 256633
earned 256527
relationship 256506
science 256449
Spain 256444
hours 256434
raised 256396
ā@@ 256092
musical 255976
turn 255951
Province 255802
names 255668
today 255166
ist@@ 255164
Jewish 254579
ano 254573
report 253777
Old 253702
eng@@ 253608
friend 253603
operation 253444
19th 253265
1976 253257
Commission 253225
score 253048
fre@@ 253000
sports 252919
1981 252911
ery 252835
Law 252699
FC 252240
Fr@@ 252232
door 252093
sister 252084
1974 252049
allow 251947
particular 251933
Their 251901
loc@@ 251836
helped 251806
1945 251695
ail 251658
got 251634
Democratic 251452
Wil@@ 251306
ington 251241
referred 251010
Min@@ 250987
star 250968
ast 250910
weeks 250804
Times 250783
presented 250586
ica 250576
back@@ 250260
1970 250066
meeting 250038
Martin 249844
larger 249831
Kh@@ 249624
1968 249435
Science 249059
Railway 249015
material 248750
1975 248700
asked 248635
shown 248471
energy 248442
ari@@ 248412
turned 248378
believed 248162
ads 248160
table 248151
1978 248150
ane 248117
likely 248101
response 248092
istic 247816
complex 247669
Despite 247586
weight 247571
Queen 247461
minutes 247376
Empire 247206
ver 247117
fied 247101
head@@ 246956
def@@ 246934
Sc@@ 246786
failed 246456
seasons 246254
ins@@ 246214
leaving 246032
200 245900
ath 245780
longer 245758
deal 245742
stations 245718
Green 245674
Hol@@ 245647
Te@@ 245603
Sub@@ 245576
basketball 245485
gi@@ 245138
specific 244953
igh@@ 244748
ular 244611
au 244542
tur@@ 244471
aired 244285
composed 244233
Bre@@ 244056
acquired 243954
ained 243674
Line 243533
People 243327
ong@@ 243188
Personal 243128
Is@@ 243124
surface 243069
Lord 243056
increase 243019
H 242976
carried 242826
bed 242568
takes 242557
sions 242053
issued 242026
Eastern 241981
policy 241926
65 241925
ek 241880
eth@@ 241840
covered 241762
ws 241753
houses 241719
But 241625
cher 241573
stor@@ 241540
eds 241441
footballer 241432
multiple 241402
financial 241362
fight 241357
Li@@ 241334
themselves 241327
constructed 241233
ering 241193
Big 240920
bs 240917
offered 240820
1973 240806
theory 240776
cost 240762
overall 240745
1977 240686
ities 240661
Conference 240442
graduated 240355
mainly 240216
Town 240207
bul@@ 240156
comp@@ 240090
need 240015
regional 240013
federal 239922
Chief 239829
row 239786
Series 239765
cat@@ 239726
ari 239650
latter 239529
remaining 239514
promoted 239356
native 239233
ile 239062
Sal@@ 239043
starting 238862
care 238714
ue 238679
Edward 238628
vote 238176
III 237830
the@@ 237657
Radio 237462
Station 237279
acted 237193
ta@@ 237104
Carolina 237084
enc@@ 237014
1971 236999
cu@@ 236956
source 236903
subject 236883
acts 236865
ini 236836
We@@ 236824
ha 236817
ography 236769
ys 236644
proposed 236626
Nor@@ 236229
male 236073
direct 236043
unc@@ 235885
troops 235749
ren@@ 235401
berg 235178
60 235168
1969 234994
Star 234957
consists 234740
effect 234720
medal 234559
ek@@ 234342
ten@@ 234256
Britain 234141
Dis@@ 234073
variety 233899
Poland 233845
cities 233816
marriage 233804
individuals 233774
ace 233704
actions 233616
pul@@ 233580
separate 233353
ock 233278
master 233096
cultural 233088
ala 232800
appears 232741
1980s 232384
train 232305
500 232295
all@@ 232250
teen 232230
So@@ 232123
vari@@ 231977
Dutch 231896
appearances 231896
command 231784
sons 231657
0.@@ 231632
moving 231500
Pol@@ 231472
recording 231249
ney 231238
Team 231231
ual 230929
prot@@ 230917
hand@@ 230845
arch@@ 230764
conf@@ 230676
acting 230600
experience 230575
und 230537
department 230428
ods 230321
press 230302
1967 230207
test 230180
Brown 230174
Lee 230089
civil 230008
ti 229982
speed 229976
middle 229924
prior 229864
tracks 229747
influence 229635
square 229588
done 229496
society 229433
ze 229306
meaning 229230
C. 229086
ser@@ 228797
Im@@ 228564
lot 228561
ky 228512
historical 228483
always 228323
titled 228313
Bank 228293
producer 228259
cons@@ 228123
ols 228107
sel@@ 228038
pu@@ 227992
fifth 227982
directly 227967
professor 227657
ison 227613
divided 227464
ba@@ 227372
ster 227167
broadcast 227165
Biography 227106
can@@ 226998
despite 226931
ther@@ 226675
discovered 226280
20th 226250
Man 226181
Cre@@ 225962
Pres@@ 225954
foreign 225721
ble 225716
Ste@@ 225676
attempt 225650
tre@@ 225623
ain@@ 225563
conditions 225361
Ge@@ 225208
Bor@@ 225124
£ 225121
1964 225057
Open 225024
ap 224857
ene 224849
quality 224760
speci@@ 224740
responsible 224717
ff@@ 224706
int@@ 224703
provides 224553
managed 224522
bank 224501
Both 224337
Prince 224244
arrived 223928
ty@@ 223875
Dr. 223704
records 223594
US@@ 223469
Mat@@ 223379
ans@@ 223349
Creek 223296
serve 223114
administrative 223082
por@@ 222850
ands 222751
Love 222711
news 222670
Another 222643
wanted 222583
Asian 222422
Under 222296
ao 222166
sound 222076
nearly 221852
wer 221838
1970s 221732
finally 221438
hold 221257
We 221123
inf@@ 221067
ills 220962
recent 220837
inv@@ 220813
oned 220727
ades 220330
2022 220205
nearby 220144
Scotland 220059
sa 219905
Pennsylvania 219854
border 219830
mat@@ 219827
bas@@ 219797
technology 219795
Senate 219742
don 219626
ges 219556
45 219272
extended 219253
trial 219221
transferred 219068
Theatre 218997
cut 218890
movie 218815
Mad@@ 218798
plans 218675
Ver@@ 218571
organized 218419
essed 218298
told 218236
lu@@ 218084
problems 218038
oth@@ 217946
comes 217749
1965 217536
Latin 217462
Mas@@ 217350
Mark 217333
enough 217212
fish 216777
ites 216748
Rec@@ 216480
Development 216478
ple@@ 216405
officially 216345
participated 216314
province 216304
Jones 216226
pur@@ 216217
might 216144
bor@@ 216042
Dr@@ 215925
rural 215865
fi@@ 215699
council 215621
text 215404
ball 215334
que 215212
Sur@@ 214746
saying 214565
alongside 214545
primarily 214536
tered 214534
products 214514
Order 214505
heavy 214375
Bl@@ 214301
dic@@ 214235
1960 214233
1966 213786
workers 213748
function 213633
Foundation 213629
Men 213559
pre 213363
ett 213356
br 213212
tures 213202
ma@@ 213159
esses 213135
coun@@ 213134
ye 213052
cause 212999
cer@@ 212906
residents 212870
ea 212676
lers 212627
Michigan 212388
review 212346
atory 212326
ger 212216
Boston 212156
Governor 212010
mer 211986
ome 211933
leave 211845
positive 211791
1944 211662
channel 211659
elements 211560
ki 211475
Civil 211466
value 211238
Republican 211192
God 211071
Health 211043
oil 211017
tel@@ 211017
candidate 211006
double 210898
levels 210793
Centre 210771
land@@ 210757
appear 210684
editor 210470
soci@@ 210315
here 210172
ths 210172
produce 210007
aling 209995
za 209976
ective 209944
Francisco 209836
firm 209806
1990s 209757
Ohio 209694
places 209692
nature 209438
BC 209222
friends 208979
newspaper 208934
idea 208897
Young 208709
anti@@ 208443
Ros@@ 208300
whether 208237
makes 208090
lack 208073
host 207877
historic 207825
sum@@ 207815
amp@@ 207809
Do@@ 207670
ises 207626
wel@@ 207622
Val@@ 207600
aches 207552
elec@@ 207532
renamed 207480
grew 207465
M. 207260
Johnson 207093
Secretary 207086
yard 207059
ella 206918
sky 206881
Asia 206784
whole 206758
No 206737
households 206621
ada 206544
assigned 206521
fully 206440
ok@@ 206417
activity 206400
ac 206168
call 206122
Scottish 206103
draw 206021
j 205966
cross 205930
tic@@ 205916
Reg@@ 205754
Director 205611
em 205572
numbers 205444
mm 205426
ordered 205247
build 205146
Polish 205011
1960s 204960
projects 204958
hospital 204930
growth 204577
refl@@ 204293
lives 204258
Major 204014
ard@@ 203802
Sea 203731
ys@@ 203678
words 203630
ided 203538
ve@@ 203478
Gal@@ 203370
ack 203334
Israel 203314
stars 203241
ame 203224
Alexander 203057
la@@ 203040
aging 203017
executive 202998
rule 202905
é 202822
continue 202749
fer@@ 202749
Williams 202702
Far@@ 202550
ving 202496
Sw@@ 202473
ep 202381
officers 202357
giving 202342
planned 202249
conducted 202166
ests 202151
q@@ 202147
union 202016
label 201947
tw@@ 201616
Georgia 201532
security 201359
pol@@ 201334
D. 201221
worth 200907
letter 200850
intended 200765
ack@@ 200755
notable 200731
tal@@ 200641
prominent 200578
ably 200513
Three 200435
Office 200221
ili@@ 200181
Avenue 200151
stop 199956
batt@@ 199716
Er@@ 199691
Highway 199572
forward 199515
Columbia 199475
females 199465
ough 199438
ham 199201
chart 199083
ha@@ 199016
35 198984
dy 198935
El 198903
1963 198744
ere 198660
1962 198546
Pi@@ 198488
trav@@ 198445
eding 198186
Gar@@ 198138
scene 198138
coast 198030
minor 198007
agreed 197892
Ser@@ 197821
highly 197820
soldiers 197808
owner 197778
effects 197716
exp@@ 197702
Su@@ 197612
Fort 197512
Family 197454
races 197339
tro@@ 197198
revealed 197153
treatment 197072
removed 197062
stories 197038
ke@@ 197015
investig@@ 196921
formerly 196915
Sar@@ 196895
ind@@ 196824
commonly 196816
hip 196740
Bill 196738
parish 196727
ancient 196720
J 196714
basis 196439
capacity 196387
Also 196221
ey@@ 196172
ita 196171
Middle 196057
designated 196032
1942 196026
youth 196018
ging 195854
1948 195793
sites 195750
Super 195510
administration 195375
Corps 195246
distance 195127
smaller 195098
Mah@@ 194968
follows 194803
ales 194631
Sol@@ 194603
alized 194575
Tor@@ 194559
My 194454
quickly 194419
dedicated 194375
Sim@@ 194279
Mag@@ 194181
sho@@ 194134
singles 193992
Sydney 193935
ca 193929
ops 193920
agreement 193894
Hospital 193879
bel@@ 193753
CD 193749
graduate 193673
ash 193487
anc@@ 193437
ef@@ 193422
nation 193421
ishes 193375
floor 193200
awards 193155
assistant 192998
expected 192991
fellow 192919
Sa@@ 192891
BBC 192753
drama 192452
yet 192310
Tour 192241
mixed 192192
Pl@@ 192038
Ke@@ 191885
Historic 191782
arr@@ 191680
Coast 191656
leaders 191595
color 191592
settlement 191557
1940 191387
uc@@ 191368
News 191232
Pre@@ 191074
1@@ 191073
paper 191069
efforts 190995
1941 190929
wo@@ 190892
pass 190811
purchased 190741
tim@@ 190649
Kr@@ 190578
3rd 190429
initial 190365
activ@@ 190273
marked 190252
positions 190127
1961 190093
relations 190086
cars 190016
median 189999
winner 189961
ow 189895
Ministry 189698
mot@@ 189644
sil@@ 189590
ali@@ 189589
Jack 189511
1939 189482
Of 189437
Fre@@ 189426
immediately 189402
B. 189395
potential 189380
tly 189254
Little 189149
estimated 189058
To@@ 188947
iz@@ 188908
ial 188821
respectively 188821
sen 188809
govern@@ 188587
1946 188578
defeat 188500
del 188483
founder 188345
mag@@ 188327
join 188315
Mil@@ 188176
ok 188159
facilities 188115
Blue 188048
kn@@ 187980
charge 187836
ures 187797
Federal 187605
32 187502
mark 187343
cle@@ 187243
featuring 187064
E. 187006
formation 186956
Ph@@ 186846
arms 186839
probably 186703
poor 186626
Cas@@ 186600
dra@@ 186599
typically 186547
Jersey 186504
compared 186497
bal@@ 186412
1956 186371
ja 186324
iti@@ 186299
ama 186295
medi@@ 186202
Olympic 186183
Hor@@ 186120
identified 186114
ann@@ 186083
scale 186053
focus 185996
types 185984
expl@@ 185911
hon@@ 185792
clubs 185700
Illinois 185674
conference 185663
piece 185625
percent 185503
refer@@ 185474
needed 185332
inside 185298
80 185285
article 185239
declared 185176
shi@@ 185086
1943 185071
elled 185036
gained 184998
Tur@@ 184965
green 184923
Gre@@ 184836
physical 184719
gun 184708
upper 184657
viol@@ 184616
prom@@ 184494
ole 184370
wards 184203
attention 184078
paid 184029
Scott 184026
finals 183980
oph@@ 183938
destroyed 183920
hosted 183907
Ram@@ 183825
housing 183687
S. 183674
Post 183664
celebr@@ 183587
War@@ 183559
operating 183445
pay 183433
Jean 183328
Bro@@ 183279
format 183204
amount 183173
crew 183168
Victoria 183091
museum 183012
miles 182995
largely 182959
W. 182806
fir@@ 182769
bit 182749
reach 182737
ko 182669
Earth 182643
Fe@@ 182643
Airport 182566
languages 182417
Justice 182379
ony 182290
Berlin 182288
1950 182224
adopted 182213
aj@@ 182207
roles 182143
Rock 182139
committee 182121
widely 181993
yn@@ 181761
1958 181702
suffered 181510
online 181386
wall 181373
estate 181351
les@@ 181336
street 181334
my@@ 181209
hard 181134
Frank 181022
1947 180849
Can@@ 180761
sal@@ 180735
branch 180622
leaves 180532
Dar@@ 180394
accepted 180360
1959 180359
ranked 180307
compl@@ 180264
pan@@ 180138
H. 180105
territory 180099
tically 179959
ail@@ 179938
communities 179906
votes 179742
yards 179724
confirmed 179652
captured 179559
Cur@@ 179555
distribution 179458
edly 179381
website 179340
reviews 179238
sources 179193
minister 179109
sex 179064
flight 179050
pressure 178979
ts@@ 178952
Each 178831
cell 178809
keep 178677
direction 178595
At@@ 178504
occurred 178495
Kong 178252
teacher 178220
taught 178146
Iran 178119
Mount 178091
scoring 178029
computer 178011
post@@ 178006
pay@@ 177952
job 177947
spring 177897
Corporation 177854
FM 177820
64 177762
Du@@ 177758
Es@@ 177664
semi 177619
char@@ 177580
Pan@@ 177511
academic 177472
ret@@ 177461
Hong 177436
ass 177397
approach 177396
tree 177343
dance 177221
Fl@@ 177216
meet 177173
episodes 177151
resulted 177069
gas 176965
product 176896
bar 176833
Ri@@ 176735
1957 176645
Red@@ 176503
sey 176467
90 176304
serves 176178
leadership 176149
Ko@@ 176002
hy@@ 175946
combined 175840
Supreme 175806
recognized 175806
concept 175765
Before 175695
Islands 175623
wat@@ 175614
Massachusetts 175472
onal 175468
Pal@@ 175460
arm@@ 175435
ena 175422
wn 175374
losing 175362
plants 175352
log@@ 175313
ly@@ 175237
ading 175150
alone 175144
ym@@ 175137
Ap@@ 175026
don@@ 175014
ung 174905
Mus@@ 174793
purpose 174762
stat@@ 174697
campus 174645
critical 174618
hal@@ 174441
Sports 174431
metal 174421
Stadium 174362
mass 174332
ough@@ 174319
develop@@ 174199
recently 174054
silver 174029
ni 173980
box 173949
Korea 173920
nominated 173911
analysis 173909
presence 173902
titles 173796
platform 173724
go@@ 173670
Wal@@ 173645
Super@@ 173518
code 173515
mentioned 173507
bus 173266
Mel@@ 173231
camp 173165
method 173123
equipment 173087
Bishop 173045
therefore 173008
Time 173006
Gen@@ 173002
Elizabeth 172899
felt 172898
Professor 172716
sexual 172688
prison 172684
Tom 172683
ali 172627
expanded 172580
70 172570
ai@@ 172526
ff 172418
imp@@ 172375
du 172358
mor@@ 172355
ear@@ 172337
1952 172293
va 172271
fell 172118
albums 172095
heart 172040
Background 172019
store 171994
pat@@ 171961
birth 171864
connected 171767
2.@@ 171705
shire 171661
difficult 171559
Home 171504
Pakistan 171426
Born 171403
adi@@ 171395
buried 171313
Santa 171199
account 171150
offers 171128
urban 171122
bat@@ 170988
advis@@ 170948
parties 170932
1949 170873
cul@@ 170855
image 170714
1955 170643
secondary 170598
remain 170566
Library 170538
Duke 170536
Sam@@ 170284
reduced 170175
Swedish 170054
growing 170038
oth 170012
vo@@ 169986
R. 169861
Cl@@ 169793
von 169728
except 169716
gl@@ 169697
lin 169620
San@@ 169536
Final 169499
performances 169369
Geography 169364
voice 169325
clear 169253
aff@@ 169236
eded 169200
pop 169164
law@@ 169141
Police 169119
Don 168917
newly 168911
Prime 168840
champion 168763
comm@@ 168751
Top 168699
solo 168631
defined 168591
fields 168558
digital 168449
gets 168293
literature 168283
Bas@@ 168132
Res@@ 167934
met@@ 167806
content 167786
Atlantic 167784
inspired 167707
sav@@ 167576
ago 167563
van 167514
Toronto 167417
No@@ 167416
versions 167403
1954 167372
mountain 167261
ast@@ 167204
twice 167177
rules 167148
Ag@@ 167138
granted 167020
painting 167018
density 167007
models 166777
12@@ 166260
prec@@ 166241
ura 166174
true 166145
tom@@ 166083
problem 166049
organizations 166013
resulting 165908
Joe 165872
figure 165816
surname 165783
ising 165730
break 165704
Ash@@ 165661
dro@@ 165579
1,@@ 165558
kill 165546
minute 165501
pp@@ 165501
fa@@ 165478
spread 165417
sen@@ 165261
Brazil 165194
existing 165177
mental 165139
Em@@ 165130
with@@ 165116
1953 165109
De 165068
disease 165024
mi@@ 165005
damage 164984
chairman 164941
contemporary 164781
Cross 164675
Kal@@ 164632
couple 164546
generation 164512
tax 164384
Media 164273
Ontario 164104
faced 164034
share 164013
suggested 163931
ls 163900
Nations 163814
nation@@ 163705
mel@@ 163695
quarter 163626
une 163592
ust 163565
op 163539
Jackson 163490
gro@@ 163470
die 163461
males 163441
background 163405
obtained 163368
seats 163223
arts 163167
creation 163129
surrounding 163030
travel 163027
4th 163018
kept 162913
44 162905
ign@@ 162874
Arthur 162865
nam@@ 162819
idae 162737
Bridge 162733
offer 162695
ab 162608
ou 162551
ster@@ 162459
sides 162370
actually 162287
amb@@ 162285
Hal@@ 162245
showed 162166
continues 162009
comedy 161985
eless 161924
providing 161909
ody 161862
ologist 161859
13@@ 161790
ingly 161725
cells 161714
thre@@ 161575
uk@@ 161453
high@@ 161367
twenty 161348
Des@@ 161321
cro@@ 161312
1918 161279
verse 161256
lake 161235
Me 161193
but@@ 161185
P. 161175
officials 161108
Rome 160952
Military 160721
Premier 160634
prov@@ 160623
Korean 160543
vic@@ 160537
Social 160534
develop 160532
association 160527
Philadelphia 160492
suit 160489
successfully 160392
Game 160321
tain 160263
greater 160240
lied 160208
ecting 160199
thro@@ 160110
occupied 159980
finish 159905
teaching 159863
politics 159804
ices 159764
Show 159721
pun@@ 159640
Ben@@ 159628
1951 159619
ide@@ 159482
Over@@ 159434
yl 159418
AS@@ 159401
rep@@ 159276
injury 159225
entry 159198
lab@@ 159185
know 159159
orders 159010
USA 158970
forest 158966
tower 158931
split 158918
inst@@ 158884
says 158828
ped 158819
necessary 158815
ner@@ 158756
1936 158722
wal@@ 158715
claims 158655
Township 158516
billion 158497
‘ 158483
Long 158468
cour@@ 158317
ree 158263
becomes 158251
Y 158177
ft 158120
ola 158052
sets 158000
Book 157834
boy 157820
feet 157733
tar@@ 157733
tried 157665
work@@ 157603
attacks 157597
Because 157591
authorities 157545
guitar 157476
metres 157460
Regiment 157432
1920 157329
receive 157268
Over 157168
ells 157118
nor@@ 157114
tig@@ 157108
hor@@ 157085
resid@@ 157064
festival 156956
any@@ 156955
adv@@ 156917
tra 156853
1938 156836
governor 156827
ban@@ 156792
val@@ 156769
knowledge 156765
lam@@ 156638
regions 156628
Among 156597
acking 156531
Lu@@ 156530
situated 156438
ez@@ 156351
succeeded 156344
Netherlands 156283
kin 156242
ud@@ 156233
hur@@ 156220
Sun 156200
ce@@ 156196
Community 156138
Wilson 156121
interview 156010
villages 155965
fle@@ 155758
Dec@@ 155705
Mr. 155699
impact 155668
opposed 155655
arrested 155650
sixth 155555
Ran@@ 155495
effort 155465
applied 155464
0@@ 155426
traffic 155401
stand 155381
ben@@ 155379
block 155338
younger 155325
iled 155322
opposition 155263
rank 155234
form@@ 155187
ening 155104
ord@@ 155079
kind 155048
ples 155038
ened 155037
library 155025
employed 154985
dated 154942
ew@@ 154930
Billboard 154833
cont@@ 154806
Mur@@ 154804
zen 154772
300 154732
effective 154692
Ta@@ 154647
á@@ 154639
tradition 154421
unique 154365
dead 154356
scientific 154350
Captain 154339
Between 154248
blue 154224
ax@@ 154176
gives 154148
suff@@ 154132
uni@@ 154069
33 154009
mid@@ 153980
pas@@ 153970
SR 153964
sales 153932
headquarters 153926
iv@@ 153910
entr@@ 153896
ech@@ 153691
lec@@ 153439
Daniel 153414
say 153313
ato 153249
sch@@ 153160
captain 153094
borough 153093
sl@@ 153002
ports 152932
of@@ 152892
facility 152891
tells 152851
holds 152782
hour 152774
Lady 152636
goes 152591
Like 152561
ives 152517
ji 152483
ights 152464
approved 152445
bro@@ 152413
Andrew 152366
baseball 152331
figures 152330
Technology 152321
aya 152215
allowing 152173
commander 152139
fighting 152065
if@@ 152014
400 151954
pping 151934
commissioned 151897
pil@@ 151827
Ban@@ 151816
drawn 151782
software 151756
Ol@@ 151703
dark 151703
Ang@@ 151672
aining 151634
Business 151611
Del@@ 151602
ler@@ 151515
qualified 151514
che@@ 151450
look 151439
trains 151352
ump@@ 151309
Due 151300
climate 151300
apo@@ 151295
squad 151284
classes 151268
settled 151258
Special 151256
theatre 151256
big 151213
Hu@@ 151172
cannot 151118
returning 151105
completely 151069
sn@@ 151059
Dev@@ 151032
critics 151023
sa@@ 151008
bers 150994
1.@@ 150887
she@@ 150833
views 150827
leg@@ 150777
pri@@ 150691
Ger@@ 150689
situation 150650
visit 150629
Sweden 150624
mod@@ 150617
1950s 150585
laws 150543
Bu@@ 150537
risk 150532
claim 150525
electric 150525
Death 150488
Taylor 150471
ich 150402
down@@ 150378
Ly@@ 150360
Register 150293
Field 150280
inal 150171
ona 150138
Port 150105
allows 149977
inger 149955
brothers 149933
simply 149924
1919 149850
notes 149843
Oxford 149779
blood 149725
Mike 149701
1937 149627
promotion 149445
tan@@ 149445
illa 149407
tier 149382
bought 149370
ulation 149311
tle 149194
tion@@ 149144
iting 149143
sign 149119
Maria 149109
Ti@@ 149024
boat 148997
visited 148980
deep 148960
je@@ 148937
achieved 148902
grade 148885
environment 148833
ati 148750
Castle 148745
reser@@ 148706
Cro@@ 148669
refused 148622
materials 148613
chosen 148601
advanced 148527
Tar@@ 148469
oldest 148453
Medical 148378
odi@@ 148367
ested 148360
duc@@ 148342
36 148231
hall 148144
Emperor 148131
Mountain 148109
frequently 148053
unds 147945
And 147837
reports 147775
Golden 147597
relatively 147568
Americans 147479
Ham@@ 147386
swe@@ 147307
present@@ 147294
tries 147269
asi@@ 147024
rac@@ 146754
pen@@ 146687
New@@ 146683
ark@@ 146678
lay@@ 146623
industrial 146586
CA@@ 146544
hop@@ 146536
Si@@ 146507
Van 146425
merged 146425
Le 146422
portion 146417
advoc@@ 146383
drive 146314
ories 146301
Four 146265
Wood@@ 146237
stre@@ 146211
brand 146202
Francis 146190
Several 146063
cal@@ 145855
things 145727
credited 145672
household 145606
joining 145583
compar@@ 145556
Press 145493
theme 145485
1930 145450
ute 145436
Junior 145373
publication 145329
read 145329
begins 145322
temple 145180
transport 145121
direc@@ 145115
Master 145057
actress 145050
mile 145022
ref@@ 144992
micro@@ 144965
creating 144916
rise 144868
ex 144735
ased 144669
standing 144649
Pat@@ 144636
q 144631
ental 144609
proce@@ 144606
osis 144580
focused 144578
Cam@@ 144503
murder 144381
ut 144227
authority 144218
ide 144194
00 144182
broke 144164
starring 144090
Hel@@ 143976
itation 143974
mann 143914
something 143913
foot 143858
enter 143822
rooms 143813
vin@@ 143805
Trans@@ 143754
bury 143719
shop 143696
° 143627
1917 143395
ace@@ 143361
transfer 143262
1914 143246
Beach 143235
fare 143224
consisted 143212
stream 143189
fly 143153
app@@ 143126
improv@@ 143122
founding 143120
gar@@ 143082
Davis 143080
bring 143008
smo@@ 142966
fans 142960
eman 142926
Chris 142912
ski 142897
stock 142841
susp@@ 142803
indic@@ 142772
pair 142762
pic@@ 142547
Plot 142452
gen 142416
cop@@ 142415
Cat@@ 142340
Journal 142332
illing 142330
1935 142313
14@@ 142311
ented 142268
fought 142266
Federation 142233
conflict 142212
alists 142158
attempted 142122
architecture 142062
1933 141956
Region 141912
uck 141896
AR@@ 141875
subsequent 141848
concert 141817
pot@@ 141741
NCAA 141675
Network 141547
audience 141514
unable 141484
missions 141459
tropical 141404
net 141381
gs 141373
journ@@ 141342
carri@@ 141337
Minnesota 141330
Tel@@ 141293
low@@ 141291
bus@@ 141236
supply 141224
Whit@@ 141186
aker 141167
retirement 141130
agent 141043
34 141004
origin 140984
follow 140948
apped 140939
Today 140920
ern@@ 140871
roads 140847
begin 140834
cycle 140834
Prize 140764
aka 140700
selling 140654
partner 140620
safety 140574
attacked 140533
spe@@ 140452
West@@ 140440
Ni@@ 140405
principal 140350
performing 140340
dates 140264
defense 140211
districts 140127
acks 140082
methods 140082
perform 140044
girl 140035
ond 139998
path@@ 139987
18th 139937
Kur@@ 139930
prevent 139853
Mexican 139812
shared 139808
receiving 139675
daily 139663
thr@@ 139633
sus@@ 139618
joint 139545
ine@@ 139522
dropped 139474
ung@@ 139428
entitled 139403
ib@@ 139302
vice 139277
covers 139246
onic 139174
mil@@ 139166
animals 139119
Sho@@ 139113
Co 139014
L. 138993
ancing 138982
Chi@@ 138935
reason 138935
75 138929
Inc. 138911
Sy@@ 138884
winter 138839
5th 138836
beat 138834
pers 138767
shar@@ 138706
EP 138666
Gro@@ 138628
lif@@ 138532
protection 138527
vol@@ 138514
engineering 138430
economy 138426
mut@@ 138415
38 138293
1928 138260
ny 138260
š@@ 138202
io 138173
Mu@@ 138054
aks 138002
ization 137973
Bob 137952
setting 137948
expansion 137865
Reception 137856
reference 137851
unknown 137792
1929 137774
volume 137765
Sun@@ 137764
representing 137721
write 137625
ancy 137592
yc@@ 137575
sense 137495
FA 137489
trees 137465
kl@@ 137381
exchange 137337
revol@@ 137316
determined 137259
ather 137206
System 137172
morning 137172
crime 137059
mayor 137048
machine 137040
Bat@@ 136980
wings 136933
girls 136896
lat@@ 136852
Cer@@ 136851
oma 136849
presidential 136816
Sel@@ 136807
lie 136771
fiction 136643
onto 136547
Steve 136541
towns 136535
represent 136513
Gold 136500
sin@@ 136456
ost 136436
our@@ 136350
Forest 136318
Pen@@ 136309
edge 136248
attempts 136159
sport 136143
Kansas 136128
permanent 136096
ush 136005
normal 136004
1934 135947
prepar@@ 135925
regul@@ 135887
patr@@ 135836
Z 135831
run@@ 135767
highway 135749
card 135609
scheduled 135601
yr@@ 135580
analy@@ 135573
cru@@ 135567
contributed 135565
Jr 135564
extensive 135560
increasing 135463
Melbourne 135450
Han@@ 135402
Area 135378
cancer 135364
Bir@@ 135309
demonstr@@ 135309
articles 135307
converted 135249
shortly 135226
Mul@@ 135208
flu@@ 135194
yp@@ 135124
Description 135059
zed 135054
priv@@ 135034
bronze 135031
memory 134978
resources 134951
ier 134907
containing 134875
arian 134866
guest 134840
grounds 134779
influenced 134770
AC 134731
Missouri 134708
Sunday 134697
ultimately 134688
Gor@@ 134659
hockey 134644
Pur@@ 134635
vehicles 134585
aring 134577
pieces 134567
derived 134532
copies 134472
ond@@ 134447
hood 134420
ault 134319
Fox 134312
e.g. 134300
Raj@@ 134287
core 134267
The@@ 134226
institutions 134198
pped 134178
Ha@@ 134157
fast 134085
North@@ 134077
Moscow 134053
Muslim 134025
ug@@ 133999
global 133982
Memorial 133979
constituency 133975
guns 133912
Fo@@ 133883
locations 133867
yer 133819
Mak@@ 133809
fort 133772
trac@@ 133764
learning 133719
racing 133713
structures 133648
citizens 133565
vis@@ 133506
Jim 133503
ligh@@ 133496
meant 133487
documentary 133483
Stephen 133471
Pas@@ 133456
Country 133407
educational 133402
ium 133398
Bul@@ 133333
Lewis 133296
La@@ 133285
ger@@ 133283
farm 133272
Night 133241
Sav@@ 133229
lik@@ 133208
holding 133161
Mid@@ 133140
urs 133120
controlled 133067
Wisconsin 133065
Cape 132983
rail 132959
properties 132935
letters 132802
mus@@ 132736
sector 132690
pel@@ 132652
Hon@@ 132539
simple 132516
Os@@ 132507
aid 132488
Power 132482
maximum 132406
Q 132384
phase 132368
flow 132359
water@@ 132341
airport 132276
rot@@ 132246
hu@@ 132222
consider@@ 132166
1932 132159
More 132144
coordin@@ 132024
hands 132002
NFL 131996
i.e. 131976
Live 131970
separ@@ 131969
peace 131913
1924 131868
Mi@@ 131763
qui@@ 131754
birds 131710
centuries 131690
headed 131685
bound 131671
Project 131637
alization 131575
F. 131527
lets 131493
onian 131485
lyrics 131445
powerful 131367
drug 131359
Ba@@ 131358
Turkish 131347
recru@@ 131323
hi 131311
domestic 131285
ici@@ 131280
counter@@ 131187
passing 131129
och@@ 131023
syn@@ 130972
condition 130941
arly 130888
establishment 130883
mouth 130852
Turkey 130839
funding 130827
Vol@@ 130809
ket 130805
pal@@ 130765
offices 130690
launch 130656
sought 130642
IS@@ 130641
laid 130579
Point 130529
ition 130459
Dor@@ 130433
Sciences 130424
Queensland 130401
1922 130382
after@@ 130337
ora 130288
beyond 130271
Television 130234
non@@ 130220
application 130167
yellow 130090
Ter@@ 130068
voc@@ 130065
doing 130050
Philippines 130030
Production 130013
aded 129996
factory 129974
psych@@ 129950
Is 129942
Norway 129896
castle 129806
independence 129760
Rus@@ 129735
Vietnam 129733
identity 129731
alleg@@ 129506
esis 129494
rap@@ 129482
expressed 129449
supporting 129381
poly@@ 129372
bands 129352
recognition 129297
matter 129277
occurs 129218
contact 129162
ba 129160
ban 129157
dev@@ 129132
ize 129129
Upon 129120
ais@@ 129078
ima 129062
fac@@ 129028
vehicle 129021
ken 128990
Hy@@ 128974
ela 128969
walls 128940
invited 128887
ision 128838
finishing 128837
consecutive 128828
ush@@ 128818
amm@@ 128787
slightly 128733
1927 128686
Prior 128684
stay 128659
Tennessee 128598
proved 128596
producing 128569
looking 128537
decre@@ 128477
functions 128475
Wh@@ 128449
bill 128428
reasons 128346
armed 128242
1921 128241
Jews 128226
Land@@ 128145
Channel 128137
Dun@@ 128126
height 128124
candidates 128123
Song 128113
Land 128084
temperature 128080
unt 128017
ours 127973
developing 127917
Tw@@ 127900
PA 127847
pa 127813
technical 127765
Manchester 127757
alternative 127699
inn@@ 127674
Cambridge 127645
ert 127527
Khan 127511
ev 127482
eo 127466
1912 127459
category 127389
1931 127367
royal 127353
ight@@ 127352
scre@@ 127332
aled 127312
Native 127263
fleet 127257
contained 127226
ores 127222
educated 127155
search 127132
emp@@ 127105
Building 127087
estr@@ 126962
sle@@ 126955
yan 126933
lion 126907
consum@@ 126903
want 126856
writers 126804
Norwegian 126778
liter@@ 126750
ye@@ 126673
repe@@ 126668
judge 126647
journalist 126646
hotel 126601
needs 126583
architect 126564
protein 126551
mix@@ 126522
Maryland 126512
IV 126399
abandoned 126397
Class 126378
Indiana 126372
existence 126357
G. 126354
chor@@ 126322
Don@@ 126267
ader 126252
violence 126244
tis 126227
COVID 126103
ink 126103
til@@ 126071
horse 126066
rugby 126051
Studies 126037
Az@@ 126031
Notable 125999
wer@@ 125987
Colorado 125869
loan 125839
din@@ 125784
stating 125783
Christmas 125777
investigation 125734
Men@@ 125721
eer 125715
Tournament 125704
termin@@ 125663
Services 125661
aci@@ 125601
Labour 125599
hydro@@ 125598
Sil@@ 125576
acked 125523
Mir@@ 125452
ean 125400
1925 125350
Hot 125297
negative 125250
lar@@ 125240
hum@@ 125173
brown 125165
refers 125105
decades 125090
ment@@ 125072
Austria 125067
patients 124991
voted 124987
48 124938
42 124929
screen 124888
speech 124870
37 124841
bodies 124840
Portuguese 124834
She@@ 124818
oper@@ 124785
incorporated 124757
Affairs 124728
ie@@ 124695
combat 124660
basic 124634
achiev@@ 124589
Uni@@ 124570
enemy 124514
multi 124501
Gl@@ 124491
Rev@@ 124487
1923 124480
bow@@ 124384
eling 124381
hired 124317
Shar@@ 124277
chi@@ 124275
shaped 124219
Then 124145
Kil@@ 124101
whe@@ 124083
Ur@@ 124082
operate 124023
Ir@@ 124010
resigned 123943
marine 123939
1926 123856
literary 123849
maintained 123823
planning 123816
honor 123810
Harry 123797
stri@@ 123728
han 123727
trained 123724
amed 123718
Infantry 123717
registered 123649
DC 123630
edi@@ 123626
anded 123560
tes 123559
composer 123533
straight 123531
gre@@ 123511
explo@@ 123468
connection 123451
Albert 123382
ceremony 123344
arily 123340
Arizona 123335
herself 123198
reaching 123190
exhibition 123179
argued 123175
establish 123093
mine 123048
affected 122968
cut@@ 122951
examin@@ 122943
oke 122931
nuclear 122921
funds 122891
grand@@ 122885
1910 122868
č@@ 122826
ived 122792
Wor@@ 122751
mit@@ 122738
arri@@ 122698
Ru@@ 122675
Foreign 122672
1916 122664
regarding 122648
Av@@ 122593
installed 122556
ub@@ 122554
phone 122501
representative 122501
Walter 122493
rear 122484
mand@@ 122477
spo@@ 122468
collected 122428
cin@@ 122398
ote 122327
junior 122324
Revolution 122307
realiz@@ 122246
li 122188
burg 122135
Cap@@ 122127
pes 122122
1915 122062
Sri 122055
aves 122051
shape 122044
profit 122016
specifically 122003
Entertainment 121985
display 121965
abilities 121840
gender 121831
Jo@@ 121793
About 121790
actors 121771
oy@@ 121715
worldwide 121659
sti@@ 121646
wins 121616
eter 121580
tery 121530
Il@@ 121508
Swiss 121496
shor@@ 121446
entrance 121416
antly 121413
wa@@ 121372
Oregon 121352
classical 121338
Gi@@ 121322
0,000 121092
was@@ 121091
glass 121060
heard 121039
References 121033
owners 121012
pilot 121009
oh@@ 120998
si 120996
preser@@ 120979
zone 120928
Management 120897
passes 120894
Representatives 120892
religion 120874
Por@@ 120851
scenes 120838
finds 120833
iy@@ 120788
powers 120746
Ali 120723
observed 120723
heavily 120693
occur 120668
Human 120666
bomb@@ 120645
Islamic 120631
abad 120605
lock 120600
Miller 120527
Vi@@ 120465
Census 120428
engaged 120419
Sk@@ 120408
ruled 120337
forming 120327
Political 120320
secretary 120308
plane 120275
ida 120238
eters 120229
Ford 120211
grav@@ 120160
Switzerland 120139
Ed@@ 120133
question 120106
ied 120059
ki@@ 119930
Tom@@ 119920
page 119901
cel@@ 119888
Winter 119879
illustr@@ 119851
Miss 119740
programme 119686
rare 119661
roof 119649
Head 119629
someone 119608
Egypt 119576
avoid 119570
ston 119433
foot@@ 119380
cycl@@ 119369
ext@@ 119364
Places 119347
fil@@ 119213
Singapore 119197
fuel 119153
poet 119151
Pope 119118
tribut@@ 119065
1900 119021
serious 119006
failure 118900
carry 118830
Tak@@ 118820
etc 118789
Lin@@ 118716
regarded 118698
Tu@@ 118688
rich 118683
T. 118682
pion@@ 118669
cricket 118647
yn 118647
iron 118638
Holy 118636
Earl 118626
Win@@ 118558
Only 118550
Medal 118549
concluded 118492
coll@@ 118476
eth 118460
exist 118435
dist@@ 118421
incident 118355
aus@@ 118350
* 118300
inhabitants 118270
Bol@@ 118262
northeast 118232
importance 118219
choice 118193
statement 118186
load 118144
chi 118133
compete 118116
praised 118053
programming 118048
pit@@ 118028
ables 117991
protect 117972
20@@ 117929
What 117928
Conn@@ 117917
airs 117916
promote 117912
foundation 117894
reserve 117863
bishop 117849
Though 117839
Ukraine 117800
55 117781
MP 117760
Rom@@ 117713
My@@ 117711
think 117597
municipal 117531
bil@@ 117482
vision 117458
Ak@@ 117451
AT@@ 117393
oon 117379
ami 117370
spot 117354
poetry 117303
gh@@ 117292
sett@@ 117284
Tony 117276
Regional 117238
mur@@ 117236
cros@@ 117212
Design 117200
tis@@ 117198
Arab 117182
Security 117171
cho@@ 117164
consisting 117096
tia 117072
scr@@ 117003
internal 116992
graphy 116893
sections 116866
mu@@ 116848
kers 116847
Member 116831
passenger 116802
historian 116771
Je@@ 116766
Bureau 116709
price 116694
SA 116645
tie 116637
iss@@ 116626
ike 116615
outs 116613
Professional 116606
users 116534
Youth 116461
ady 116426
weapons 116419
sell 116341
toward 116339
causing 116314
Main 116295
quite 116234
aver@@ 116212
aun@@ 116157
twelve 116036
AC@@ 116003
Temple 115998
ply 115995
MA 115976
eli@@ 115860
ik 115860
Greece 115857
Kentucky 115734
adult 115725
volunte@@ 115715
Spe@@ 115698
comment@@ 115697
Howard 115687
acqu@@ 115678
selection 115672
entirely 115650
rant 115649
Free 115626
closely 115624
driver 115622
dri@@ 115593
tin 115508
Vis@@ 115495
improve 115474
break@@ 115473
starred 115446
1930s 115441
divisions 115436
invasion 115426
aten 115370
AD 115327
ł@@ 115302
session 115221
alities 115155
Op@@ 115142
peak 115111
iling 115099
environmental 114988
conver@@ 114947
May@@ 114946
stadium 114927
Hockey 114899
Engineering 114861
med@@ 114847
Brigade 114806
paintings 114780
Shi@@ 114761
possibly 114714
calls 114680
ahead 114679
Mos@@ 114658
Forces 114653
sam@@ 114650
1913 114644
Hamilton 114631
1911 114618
trying 114612
17th 114601
Liberal 114463
gath@@ 114444
aching 114403
storm 114394
leg 114317
sale 114292
cler@@ 114289
ideas 114247
Square 114225
A.@@ 114196
personnel 114180
far@@ 114159
sign@@ 114151
Senior 114137
ado 114108
gain 114108
target 114096
Ra@@ 114069
employees 114057
counter 113853
homes 113816
escape 113810
steel 113795
chair 113766
Cour@@ 113731
Administration 113663
Anne 113663
enter@@ 113656
abol@@ 113608
standards 113603
commit@@ 113575
Tre@@ 113573
print 113520
Kam@@ 113508
stands 113504
52 113495
starts 113442
Vice 113406
premiered 113369
advance 113322
tioned 113295
northwest 113268
Ben 113211
Works 113201
marks 113122
6th 113118
believe 113118
viewed 113068
otic 113059
animal 113057
accused 113052
rup@@ 113048
fur@@ 113029
41 113010
Sen@@ 112966
tex@@ 112949
ck 112944
gers 112902
39 112844
Operation 112818
Israeli 112815
ume 112797
draft 112753
agency 112725
boys 112724
Marine 112723
stand@@ 112676
wr@@ 112658
Mol@@ 112651
broken 112618
improved 112587
really 112564
equal 112501
values 112481
speaking 112460
itor 112417
SS 112371
trip 112322
Naval 112295
phen@@ 112232
Ven@@ 112203
Squadron 112194
rated 112190
.com 112174
describes 112126
dale 112117
rati@@ 112115
Sand@@ 112092
ican 112008
seventh 112006
tain@@ 111917
Third 111873
charged 111823
Black@@ 111780
covering 111755
fol@@ 111748
I. 111724
wid@@ 111698
corner 111688
Prix 111670
Nag@@ 111665
thor@@ 111599
residence 111588
regularly 111577
uring 111575
briefly 111543
seconds 111397
opportunity 111381
killing 111373
ached 111326
Houston 111289
Kan@@ 111262
Patrick 111260
alli@@ 111251
predic@@ 111251
ori 111152
stein 111152
Thus 111143
wers 111136
pool 111120
7th 111096
ider 111094
extension 111035
injured 110952
courses 110946
1908 110941
nick@@ 110899
30@@ 110867
tile 110850
painted 110841
spar@@ 110839
reduce 110814
3.@@ 110809
ury 110778
ele 110727
Out@@ 110691
distributed 110691
ushed 110688
atus 110650
valu@@ 110649
your 110620
Stone 110584
chose 110543
ello 110509
opera 110506
Arch@@ 110478
getting 110459
theastern 110445
Fame 110425
hill 110421
Div@@ 110415
ball@@ 110399
count 110389
Light 110307
ners 110271
Rural 110227
junction 110217
asc@@ 110162
Simon 110108
introduction 110102
Diego 110006
5,000 109998
accur@@ 109891
Hotel 109884
wa 109830
wind 109828
Brian 109786
mit 109756
filled 109745
Space 109710
onia 109709
continu@@ 109702
arch 109700
calling 109690
Rem@@ 109670
deleg@@ 109655
combination 109597
fine 109576
Iowa 109536
Once 109525
squ@@ 109504
tas@@ 109493
Ul@@ 109472
agricultural 109428
Ocean 109414
enh@@ 109408
applications 109329
eng 109328
engineer 109314
oud 109299
lig@@ 109285
neighborhood 109243
enn@@ 109209
elli 109200
oring 109188
tees 109164
art@@ 109134
anced 109084
step 109049
mi 109021
cy 109009
interests 108984
Gil@@ 108982
dry 108944
frame 108887
DVD 108861
Jan@@ 108848
weather 108848
custom@@ 108835
Water 108792
neur@@ 108778
Executive 108763
Out 108659
Est@@ 108603
strik@@ 108523
los@@ 108503
interior 108490
Fi@@ 108487
ven@@ 108474
ping 108464
esh@@ 108459
prop@@ 108457
49 108438
Samuel 108428
journal 108406
impres@@ 108399
resistance 108369
urg@@ 108301
chain 108299
Communist 108275
angle 108274
engines 108271
plus 108260
earliest 108232
kar@@ 108230
replace 108225
dat@@ 108211
cal 108120
rating 108106
democ@@ 108083
strength 108053
nur@@ 107999
enses 107997
resp@@ 107995
debuted 107970
sequ@@ 107937
ro 107867
address 107851
Hay@@ 107803
author@@ 107796
singing 107787
reading 107772
Nar@@ 107747
SC 107727
ethnic 107690
sun@@ 107678
Air@@ 107654
ith 107639
mem@@ 107635
valley 107630
multi@@ 107591
atr@@ 107589
Anderson 107560
ul 107560
composition 107552
Frederick 107535
CO@@ 107490
Danish 107477
appro@@ 107411
Kat@@ 107407
ose 107395
depic@@ 107394
causes 107346
iced 107336
cy@@ 107312
Rugby 107287
formal 107262
AM 107257
adjacent 107253
aul@@ 107243
ori@@ 107236
ich@@ 107204
rose 107194
ict 107165
47 107164
thir@@ 107163
eh 107153
mal@@ 107109
liber@@ 107092
sor@@ 107056
treated 107021
ski@@ 106992
advantage 106935
class@@ 106934
16th 106899
dings 106895
Anthony 106862
Leg@@ 106857
ila 106856
fication 106851
objects 106838
coal 106805
7.@@ 106803
tured 106769
Sem@@ 106756
Fair@@ 106699
gene 106639
Bowl 106636
decade 106624
actual 106616
islands 106542
ō 106474
aster 106396
pack@@ 106384
alm@@ 106375
techniques 106356
demand 106342
Lieutenant 106340
southeast 106337
Ren@@ 106318
survived 106292
elle 106284
ographic 106275
mill 106268
anger 106231
organisation 106216
Sam 106206
46 106170
Alabama 106116
humans 106104
nations 106084
duty 106030
Jesus 106010
So 106007
mos@@ 106005
motor@@ 106000
document@@ 105996
employment 105991
eran 105989
bass 105973
Program 105935
notably 105929
Modern 105901
eta 105900
centr@@ 105898
MS 105886
Baseball 105841
person@@ 105811
Mayor 105775
measures 105767
ø@@ 105761
Quebec 105757
experienced 105750
Tokyo 105744
ero 105739
musician 105701
AP@@ 105658
Bow@@ 105656
stores 105633
play@@ 105589
arding 105588
Kor@@ 105570
pur 105511
concentr@@ 105507
Children 105505
criminal 105504
ei 105486
Pro 105477
43 105461
reception 105461
participate 105448
shore 105443
vocals 105414
leads 105411
ille 105403
Village 105376
IC@@ 105372
wave 105372
bottom 105354
Nov@@ 105350
tot@@ 105348
Philip 105344
racial 105330
rejected 105312
K. 105311
signal 105285
ova 105271
Magazine 105268
churches 105265
charges 105261
ani@@ 105218
piano 105216
Juan 105205
Kir@@ 105177
ported 105164
plot 105157
Commonwealth 105152
committed 105143
list@@ 105127
Imperial 105121
med 105106
eland 105067
theater 105053
ham@@ 105038
Lincoln 105033
contain 105004
meters 104982
philosophy 104904
oa 104887
een 104871
ense 104868
ez 104857
eye 104820
quar@@ 104791
greatest 104750
ze@@ 104743
heads 104734
partnership 104722
Hollywood 104717
Allen 104715
examples 104713
mind 104712
pro 104669
popul@@ 104547
sian 104533
Douglas 104525
opposite 104492
Mot@@ 104398
easily 104374
Hungarian 104373
Argentina 104339
goods 104335
typical 104284
Christ 104262
Clark 104249
cit@@ 104199
cli@@ 104169
Heritage 104143
rates 104133
strike 104122
Czech 104115
isi@@ 104115
southwest 104089
top@@ 104072
Independent 103957
Tro@@ 103909
businesses 103908
fired 103835
ito 103807
budget 103803
hosts 103782
elev@@ 103715
bad 103699
renov@@ 103688
ga 103666
appointment 103656
rem@@ 103632
Legislative 103591
Dem@@ 103578
comic 103564
Detroit 103563
designs 103560
nor 103529
Law@@ 103522
Cemetery 103491
vac@@ 103459
sub 103444
seems 103441
details 103440
operates 103423
oning 103418
venture 103373
ost@@ 103360
ared 103346
sequence 103340
purchase 103334
hundred 103327
Adam 103321
leagues 103299
agre@@ 103271
Band 103269
Oklahoma 103245
Ty@@ 103216
motion 103214
eties 103210
1905 103163
Miami 103117
rebel@@ 103105
div@@ 103093
equivalent 103051
musicians 103041
Denmark 103014
factors 103010
lying 102994
ika 102969
links 102943
alls 102920
damaged 102862
Puerto 102843
images 102753
Mississippi 102710
extr@@ 102690
95 102689
collaboration 102675
affili@@ 102660
Wat@@ 102653
roc@@ 102642
consequ@@ 102622
user 102597
Gallery 102595
mining 102577
didn 102526
az 102491
depos@@ 102488
dating 102439
Fin@@ 102409
Ottoman 102408
Fire 102399
gate 102398
oll@@ 102333
AA 102314
tax@@ 102305
Gordon 102276
cally 102230
champions 102176
stood 102174
Rob@@ 102173
ped@@ 102165
chemical 102120
residential 102110
51 102107
Direc@@ 102089
fer 102075
proc@@ 102010
provincial 101988
vation 101981
criticized 101980
jazz 101971
passengers 101966
request 101964
contrast 101949
Local 101914
medium 101910
winners 101865
Antonio 101858
Mun@@ 101842
ira 101822
Ga@@ 101811
secret 101798
protected 101795
intelligence 101756
Iraq 101754
Dom@@ 101749
acid 101703
54 101701
skills 101654
apping 101636
ful@@ 101545
pain@@ 101523
admitted 101522
accompanied 101495
1906 101483
All@@ 101476
aki 101425
contributions 101373
reality 101342
accommod@@ 101337
aders 101299
maintain 101267
defeating 101262
Reserve 101259
flat 101215
freedom 101155
ured 101136
habitat 101113
proj@@ 101110
Marie 101105
8.@@ 101093
items 101080
Doctor 101070
costs 101055
Rose 101044
arranged 101033
Singles 101020
Constitution 101013
Belgium 100986
routes 100965
why 100965
distinct 100955
oir 100938
commission 100864
assumed 100846
rul@@ 100826
esting 100806
Kn@@ 100790
capture 100773
retained 100772
1907 100770
Lar@@ 100758
flying 100732
bird 100615
Up 100601
stages 100576
encies 100573
Ku@@ 100547
gun@@ 100542
Dublin 100535
Rel@@ 100498
tend@@ 100471
prize 100465
attached 100449
Athletics 100441
deputy 100418
lawyer 100397
tural 100358
persons 100346
men@@ 100275
Trust 100230
1909 100168
Bay@@ 100154
conqu@@ 100051
Louisiana 99994
Railroad 99988
2,@@ 99967
driving 99947
illy 99922
ius 99921
delivered 99890
communication 99829
tac@@ 99797
flag 99781
UN@@ 99762
Tal@@ 99752
educ@@ 99725
mission@@ 99692
PC 99685
arm 99619
documents 99601
mobile 99574
Five 99558
ons@@ 99537
contest 99480
extra 99476
CC 99455
Ukrainian 99401
ny@@ 99395
timate 99344
nothing 99338
yst@@ 99293
banks 99278
archae@@ 99267
calcul@@ 99209
Harvard 99191
graph@@ 99154
six@@ 99142
Hungary 99131
bal 99115
justice 99064
dam@@ 99055
determine 99039
Bell 98976
colonial 98976
onds 98959
electronic 98921
bin@@ 98919
Palace 98907
una 98887
reaction 98876
understanding 98866
oni 98826
Cop@@ 98764
aft 98751
attend 98715
link 98691
Hom@@ 98674
Season 98655
ein 98646
invest@@ 98640
Moore 98627
Demographics 98551
painter 98542
path 98526
heat 98483
falls 98475
linked 98444
represents 98435
ails 98423
investment 98418
streets 98390
rid@@ 98346
Brazilian 98331
Not 98309
Bon@@ 98273
Additionally 98267
poem 98267
requ@@ 98251
fashion 98242
lis 98230
crisis 98220
reign 98215
separated 98203
Kim 98199
spr@@ 98191
adapted 98181
formally 98143
addres@@ 98141
brief 98138
showing 98134
ownership 98067
publications 98054
essor 98045
anniversary 98002
Anna 98000
cot@@ 97984
shops 97973
significantly 97945
simil@@ 97933
interested 97919
swit@@ 97915
CEO 97913
restored 97909
degrees 97854
ily 97823
translated 97808
aking 97798
dies 97758
visual 97719
pot 97717
12th 97712
RA@@ 97634
teenth 97615
Lev@@ 97547
device 97544
shooting 97544
lim@@ 97513
var@@ 97503
See 97489
filed 97480
bad@@ 97402
1904 97365
Loc@@ 97328
ju@@ 97266
Rights 97260
Deputy 97252
Saturday 97175
mill@@ 97163
ri 97158
Cle@@ 97143
FL 97115
regiment 97105
Connecticut 97100
fixed 97090
policies 97087
plant@@ 97081
naval 97060
sem@@ 97048
dig@@ 97041
pandemic 97009
Battalion 97004
folk 96995
atives 96971
prof@@ 96960
Dol@@ 96953
dynasty 96940
su 96896
cent 96885
purposes 96884
caught 96873
ature 96869
rest@@ 96856
LA 96842
Guard 96822
abled 96818
Lam@@ 96812
Mand@@ 96798
1,000 96792
difference 96790
popularity 96774
escap@@ 96760
carrying 96749
Edinburgh 96734
flows 96708
nom@@ 96705
box@@ 96702
lum 96661
8th 96622
Rad@@ 96599
aud 96594
awa 96575
Internet 96534
slo@@ 96528
ues 96526
sym@@ 96507
behavior 96484
quot@@ 96478
classified 96474
Green@@ 96417
56 96411
courts 96357
publishing 96351
radi@@ 96345
concerns 96321
object 96303
ō@@ 96303
poss@@ 96297
Lor@@ 96295
franchise 96285
alised 96260
chron@@ 96255
accident 96215
ton@@ 96200
alter@@ 96137
edit@@ 96116
thing 96114
severe 96108
Good 96106
rou@@ 96082
Kol@@ 96064
ections 96052
township 96015
factor 96014
map 95984
Dur@@ 95975
Age 95928
tun@@ 95896
oid 95888
critic@@ 95884
printed 95871
phot@@ 95839
fas@@ 95829
Margaret 95828
Hur@@ 95816
stret@@ 95786
Austrian 95784
53 95756
150 95752
Var@@ 95736
Ay@@ 95717
AM@@ 95714
announc@@ 95684
Plat@@ 95666
qualifying 95661
ko@@ 95655
biggest 95653
lights 95639
fel@@ 95602
appearing 95593
stopped 95571
invent@@ 95518
urn@@ 95517
bot@@ 95506
ases 95494
arrival 95400
Tam@@ 95372
learned 95371
port@@ 95334
suggests 95284
guard 95276
vet@@ 95269
missing 95268
Montreal 95265
save 95257
duties 95246
brick 95228
Atlanta 95217
human@@ 95190
eled 95153
DNA 95135
Tamil 95110
require 95110
mechan@@ 95067
powered 95047
construc@@ 95039
tied 95023
S.@@ 95022
membership 95006
legislation 95001
Even 94955
NBA 94942
institution 94938
sing@@ 94911
Indonesia 94869
diff@@ 94850
dom@@ 94850
Na@@ 94833
13th 94817
Sin@@ 94812
1902 94797
offensive 94779
ABC 94724
declar@@ 94722
Mountains 94701
weekly 94682
scholars 94673
wounded 94624
Lat@@ 94582
lit@@ 94563
red@@ 94542
66 94527
priest 94493
600 94434
faculty 94425
Week 94422
rounds 94405
involving 94401
conn@@ 94381
esh 94379
commune 94342
competitions 94311
1901 94301
perhaps 94290
SA@@ 94288
expres@@ 94267
mal 94242
oo 94234
Portugal 94204
script 94166
defensive 94158
72 94121
vely 94102
God@@ 94085
Ray 94076
thetic 94054
bin 94053
lan@@ 94050
chance 94025
stayed 93994
flowers 93970
hat@@ 93969
Colonel 93951
prepared 93946
sig@@ 93944
ishing 93902
Max 93901
José 93888
Now 93855
Broadway 93813
MP@@ 93799
Command 93786
Sup@@ 93691
inform@@ 93661
occupation 93604
wan@@ 93600
Defense 93597
prime 93593
bol@@ 93547
subjects 93536
daughters 93528
medicine 93527
crossing 93515
Metropolitan 93464
windows 93453
Ear@@ 93441
decor@@ 93439
estim@@ 93432
note 93371
ranking 93349
Ju@@ 93348
Lawrence 93324
collec@@ 93323
criticism 93293
measure 93277
1903 93210
umb@@ 93189
reform 93185
Cos@@ 93159
respect 93100
extremely 93036
moth 93006
57 92996
successor 92987
ification 92972
Cleveland 92966
roughly 92963
Ryan 92962
tennis 92962
responsibility 92953
waters 92946
Global 92932
ules 92926
son@@ 92867
destroy@@ 92838
locality 92811
Dal@@ 92806
hits 92804
Pap@@ 92773
organiz@@ 92766
illi@@ 92761
maint@@ 92757
9th 92741
ula 92709
Construction 92708
natur@@ 92700
Pri@@ 92686
ems 92673
sens@@ 92672
porting 92658
walk 92641
bringing 92633
tail 92627
bac@@ 92605
AS 92549
wi@@ 92504
62 92499
oz@@ 92498
Chairman 92462
Liverpool 92456
Maj@@ 92439
ensure 92417
testing 92380
otherwise 92362
Gh@@ 92345
relative 92322
poverty 92275
boats 92264
vel@@ 92231
long@@ 92201
Champions 92199
Pin@@ 92187
85 92185
Walker 92160
crip@@ 92160
CS@@ 92151
err@@ 92146
arg@@ 92121
Malaysia 92107
Fer@@ 92095
turns 92061
peaked 92050
Sum@@ 92046
hr@@ 92039
Der@@ 92004
thousands 91951
Mont@@ 91945
plan@@ 91930
aga 91900
Welsh 91894
itz 91883
CA 91879
practices 91868
favour@@ 91846
context 91838
Nazi 91836
differences 91829
pursu@@ 91827
Fal@@ 91756
oral 91755
akes 91744
eld 91734
recogni@@ 91715
veget@@ 91664
narrow 91657
ota 91651
north@@ 91604
je 91594
mp@@ 91578
Alan 91539
mean 91530
parliament 91528
Ky@@ 91521
edited 91507
Upper 91506
collabor@@ 91500
Harris 91498
ional 91470
ident 91468
pattern 91465
lap 91458
markets 91450
fit 91446
description 91430
gy 91424
authors 91414
aspects 91408
treat 91408
15th 91404
800 91393
universities 91386
solution 91370
Vienna 91363
publ@@ 91362
bility 91354
ogen@@ 91350
sac@@ 91350
isions 91311
behavi@@ 91309
Track 91305
anda 91293
rein@@ 91288
eller 91163
Round 91156
olling 91136
adding 91126
assembly 91120
bert 91110
crow@@ 91108
expression 91101
hot 91076
conduct 91061
sion@@ 91054
ua 91050
val 91046
elimin@@ 91037
doc@@ 91035
ential 91013
imprison@@ 90999
CC@@ 90965
Plan@@ 90912
Seattle 90899
ming 90857
58 90851
Singh 90837
anian 90837
ć 90812
accept@@ 90712
compos@@ 90696
Fran@@ 90688
challenge 90680
teachers 90669
aqu@@ 90660
assistance 90615
Mari@@ 90614
Gulf 90605
coastal 90604
returns 90556
Eric 90521
ager 90511
innings 90478
sand@@ 90437
Star@@ 90413
cab@@ 90389
Cy@@ 90387
graduating 90358
lists 90340
rain@@ 90339
63 90323
bed@@ 90308
Blo@@ 90299
explained 90274
incorpor@@ 90244
Not@@ 90237
99 90215
10th 90172
soil 90164
mounted 90143
ater 90108
Studios 90097
Pot@@ 90060
High@@ 90028
Sab@@ 90017
storage 90015
cri@@ 90004
Culture 89973
emplo@@ 89948
Schools 89941
technique 89938
replacement 89937
Through 89928
window 89909
mir@@ 89902
Orchestra 89896
scor@@ 89878
59 89876
eu@@ 89876
eous 89871
cards 89852
proper 89836
restaurant 89795
Commander 89793
oy 89791
interpre@@ 89783
garden 89768
D.C. 89718
Haw@@ 89706
ef 89677
Elec@@ 89656
Baltimore 89655
14th 89654
SP@@ 89653
anch@@ 89637
phys@@ 89600
classic 89592
Hil@@ 89588
Meanwhile 89553
BA 89529
rivers 89522
hard@@ 89512
heritage 89489
Bab@@ 89485
sit@@ 89474
talk 89470
lob@@ 89452
Dow@@ 89432
á 89363
ums 89358
brain 89356
ros@@ 89345
changing 89328
bit@@ 89325
Tim@@ 89321
fan 89287
nes 89270
novels 89265
stable 89252
oked 89210
cited 89150
dre@@ 89129
Cathedral 89127
ensis 89121
Bak@@ 89108
broadcas@@ 89094
scheme 89094
occup@@ 89089
instruc@@ 89074
Transport 89060
translation 89019
labor 89007
strong@@ 88997
grown 88964
fair@@ 88952
Crown 88951
Basketball 88943
lay 88925
capable 88884
Dean 88871
evening 88858
ă@@ 88850
viewers 88849
Jordan 88836
forests 88836
parliamentary 88792
Alliance 88790
AD@@ 88783
eness 88783
tionally 88754
devices 88731
equipped 88730
uch@@ 88720
cos@@ 88704
chen 88687
alg@@ 88672
tress 88658
farm@@ 88623
ome@@ 88577
aro@@ 88572
Disney 88568
osa 88521
Lim@@ 88505
IN@@ 88503
Your 88502
Kelly 88492
Ross 88485
determin@@ 88483
victims 88480
Fac@@ 88407
Cu@@ 88394
Officer 88380
kin@@ 88371
Cul@@ 88352
gone 88349
Kennedy 88345
Agency 88324
ces 88318
signing 88306
Player 88271
Front 88270
Bos@@ 88219
Vo@@ 88202
Carl 88191
Buc@@ 88187
mates 88147
Morgan 88141
OS 88114
Athletic 88102
deb@@ 88086
depth 88078
16@@ 88055
1920s 88050
Kit@@ 88038
oes 88025
wear 87996
squadron 87971
jud@@ 87951
prisoners 87949
consci@@ 87937
legi@@ 87922
threat 87918
coverage 87917
Kevin 87874
listing 87861
medieval 87846
Grant 87822
Ken@@ 87810
Wood 87788
sy@@ 87785
Camp 87781
electoral 87780
kings 87777
asing 87773
neg@@ 87764
renew@@ 87756
breaking 87668
critic 87642
conduc@@ 87640
10.@@ 87637
send 87631
Garden 87604
grow 87580
replacing 87576
drawing 87565
aut@@ 87560
temporary 87555
Tit@@ 87547
3,@@ 87533
ister 87518
parallel 87444
Energy 87440
Sig@@ 87438
Prot@@ 87393
resol@@ 87383
idge 87307
artistic 87297
asis 87283
sim@@ 87266
Ltd 87230
ference 87203
tank 87178
dog 87133
Li 87118
attrac@@ 87116
etic 87102
opinion 87089
offering 87068
seri@@ 87049
anth@@ 87034
eri 87030
drop 87023
fishing 87009
Jane 86910
Hills 86901
inner 86878
instance 86857
9.@@ 86847
friendly 86746
Chil@@ 86726
ew 86724
mitted 86703
ox@@ 86695
controversy 86676
agers 86675
ū@@ 86667
rev@@ 86665
losses 86653
declined 86644
10,000 86543
Lane 86540
approval 86537
dish 86530
meth@@ 86528
Conservative 86513
ther 86505
surviv@@ 86502
Thompson 86495
evalu@@ 86491
Here 86436
TA 86422
entering 86387
requirements 86380
slow 86363
ker@@ 86362
dh@@ 86357
counc@@ 86345
branches 86336
rit@@ 86318
defin@@ 86304
soccer 86304
1898 86298
driven 86297
Chart 86285
finding 86277
wooden 86271
Review 86265
nomination 86217
che 86211
thi@@ 86210
math 86196
south@@ 86194
dial@@ 86181
Convention 86177
picture 86176
manus@@ 86167
Roger 86158
Sarah 86153
eph@@ 86153
broad 86090
terror@@ 86085
&apos;m 86035
questions 86032
Rio 86027
influential 86004
hid@@ 85991
short@@ 85991
landing 85981
studying 85927
processes 85913
celebrated 85908
refu@@ 85886
Lower 85880
,000 85871
credit 85841
sessions 85797
etta 85774
other@@ 85773
Boys 85766
increasingly 85766
eighth 85761
shif@@ 85760
uy@@ 85697
tiv@@ 85689
Patri@@ 85677
Russell 85668
Pad@@ 85641
dep@@ 85621
Luc@@ 85619
childhood 85610
ple 85594
neighbour@@ 85576
AI@@ 85562
struck 85542
element 85538
promot@@ 85533
67 85522
Rid@@ 85511
boundary 85505
Deb@@ 85501
ange 85499
prosec@@ 85488
km2 85486
rece@@ 85483
Coun@@ 85480
oni@@ 85478
Dan 85476
visible 85464
ambi@@ 85450
Wa@@ 85388
debate 85383
Finland 85381
edo 85368
existed 85356
Opera 85353
Metro 85348
Pittsburgh 85348
Sus@@ 85347
iro 85324
railroad 85312
Bangladesh 85306
fic@@ 85306
shel@@ 85289
Roman@@ 85258
Voivodeship 85255
idence 85241
let@@ 85224
threatened 85205
proposal 85180
competing 85157
ST@@ 85155
86 85103
fy 85074
Off@@ 85068
downtown 85061
safe 85060
sufficient 85043
thouse 85014
Kent 84992
vessels 84979
Sher@@ 84976
affairs 84963
Domin@@ 84944
eby 84943
raise 84929
medals 84913
facing 84897
requires 84896
exhib@@ 84894
frequency 84894
dam 84891
achieve 84887
App@@ 84882
Trump 84881
Donald 84872
plat@@ 84849
AN@@ 84846
wine 84846
guitarist 84756
denied 84723
ority 84684
ires 84681
Mill@@ 84664
Taiwan 84635
components 84635
tho@@ 84610
ords 84568
feel 84564
Medi@@ 84478
Long@@ 84469
Information 84463
chap@@ 84444
Ka@@ 84441
strongly 84439
obj@@ 84411
recre@@ 84380
task 84373
Senator 84326
manufacturing 84324
genre 84308
ax 84298
wed 84262
Oc@@ 84233
11th 84224
nh@@ 84217
Test 84215
Peace 84205
parent 84201
ind 84179
Roc@@ 84168
gas@@ 84160
ania 84125
71 84114
tained 84106
carbon 84086
prevent@@ 84083
constitu@@ 84067
Dallas 84054
tons 84052
pend@@ 84035
ges@@ 84008
hair 84003
00@@ 83996
fill 83971
limit 83966
virtu@@ 83961
sm@@ 83951
ks@@ 83950
ó@@ 83947
Austin 83913
1899 83906
Stewart 83904
Murray 83897
challeng@@ 83860
End 83854
reputation 83763
Arkansas 83758
annually 83750
burn 83749
adi 83731
South@@ 83708
filmed 83707
pon@@ 83696
Real 83688
Training 83682
Birmingham 83668
illed 83662
olog@@ 83647
accompl@@ 83628
strategy 83603
v. 83587
message 83572
appeal 83566
IM@@ 83556
practic@@ 83549
considerable 83543
ership 83543
Bruce 83529
instruments 83523
laimed 83519
accounts 83503
Pierre 83472
helping 83460
Campbell 83429
Brothers 83419
ris@@ 83408
sts 83390
Authority 83384
tell 83380
modified 83344
constant 83329
handed 83309
wood@@ 83276
relation 83259
experiences 83249
artillery 83247
collections 83238
Daily 83232
texts 83220
web 83204
bri@@ 83199
tom 83153
Orthodox 83129
preserved 83124
recordings 83106
zz@@ 83106
involvement 83096
Ten 83077
Ki@@ 83067
Nelson 83065
73 83056
line@@ 83046
alleged 83043
SE@@ 83040
icks 83022
oto 83022
blo@@ 83014
Ann@@ 82995
surrounded 82990
fund 82980
Adams 82965
ck@@ 82957
colour 82945
Dam@@ 82885
lasted 82875
maker 82875
Fol@@ 82850
ograph@@ 82833
Alex 82821
expedition 82800
Cher@@ 82786
Jud@@ 82782
1890 82770
cent@@ 82767
huge 82760
é@@ 82740
Express 82708
Sec@@ 82694
profession@@ 82659
indicated 82643
meets 82633
aying 82629
Dance 82626
skin 82620
M.@@ 82609
representation 82603
abor@@ 82601
69 82584
77 82584
fair 82572
estone 82569
papers 82561
unders 82546
eria 82545
eleven 82533
hospit@@ 82447
74 82443
Lan@@ 82437
promp@@ 82415
has@@ 82413
reli@@ 82413
len@@ 82405
61 82372
absor@@ 82370
adaptation 82358
Our 82303
sponsored 82287
Bot@@ 82281
championships 82259
dou@@ 82232
Emer@@ 82225
dia 82220
emergency 82215
eum 82208
funded 82194
Franklin 82191
Girls 82185
tory 82175
charts 82142
star@@ 82110
4,@@ 82100
decline 82080
Che@@ 82071
rival 82046
anna 82026
Christopher 82004
nar@@ 81988
screen@@ 81985
Heart 81977
accoun@@ 81959
concrete 81933
zi@@ 81931
FI@@ 81895
completion 81888
Medicine 81876
visitors 81834
athle@@ 81827
Dan@@ 81821
boards 81809
Med@@ 81756
Dave 81732
touchdown 81714
&apos;re 81713
camera 81683
consider 81669
drew 81664
Mission 81656
progress 81655
F.C. 81651
Tour@@ 81647
Judge 81639
Robinson 81617
option 81599
78 81574
mic 81554
Den@@ 81505
supp@@ 81489
counties 81465
ushing 81434
Way 81375
voting 81360
oking 81333
movements 81288
RC 81280
Wright 81260
canc@@ 81252
contested 81242
sees 81225
survey 81223
Utah 81203
eliminated 81201
somewhat 81197
eck 81186
1896 81184
88 81159
penalty 81149
V. 81131
suspended 81073
classification 81035
cs 81026
98 81025
bes@@ 81025
Moh@@ 80963
cus@@ 80962
RA 80952
Unlike 80942
favor 80936
Norman 80925
Originally 80909
raising 80882
ald 80881
Critical 80875
sever@@ 80855
amateur 80839
Nam@@ 80825
guar@@ 80815
umption 80799
moder@@ 80798
exc@@ 80783
portr@@ 80778
dynam@@ 80770
NS@@ 80759
compr@@ 80757
Pa@@ 80736
Sm@@ 80717
Romania 80689
rain 80689
depend@@ 80683
cip@@ 80679
surviving 80678
quanti@@ 80661
executed 80650
altern@@ 80649
Trade 80641
songwriter 80623
Just 80605
Brooklyn 80572
portrayed 80533
sud@@ 80528
Baron 80523
impl@@ 80522
vers@@ 80498
CBS 80485
Tan@@ 80479
fu@@ 80448
Alfred 80437
hab@@ 80433
68 80412
Princess 80406
Movement 80403
mont 80403
sou@@ 80393
vessel 80382
Economic 80357
mountains 80338
Six 80313
continuing 80294
affiliated 80279
theatr@@ 80271
84 80266
neighbor@@ 80266
soundtrack 80245
definition 80236
philosoph@@ 80219
elevation 80176
trus@@ 80172
shares 80167
1895 80157
uncle 80153
tall 80151
populations 80147
Organization 80141
donated 80138
directors 80118
lieutenant 80116
sk 80112
Fri@@ 80091
Produc@@ 80087
ech 80051
benefit 80026
satis@@ 80021
pounds 80015
idel@@ 80014
76 79970
hel@@ 79930
xi@@ 79912
NBC 79908
Gol@@ 79860
plic@@ 79839
worn 79833
organised 79799
cm 79786
UEFA 79777
Ann 79774
fe 79764
participation 79731
Bes@@ 79724
igned 79723
Ker@@ 79719
ih@@ 79701
aw 79697
Silver 79681
doubles 79681
secure 79662
Racing 79644
Around 79634
doors 79621
respon@@ 79614
illegal 79585
AP 79570
Hen@@ 79556
distinguished 79556
synth@@ 79538
Wol@@ 79529
infrastructure 79525
induc@@ 79516
ord 79508
host@@ 79489
250 79485
Belgian 79470
Within 79449
Bus@@ 79437
thirty 79416
dres@@ 79380
graphic 79357
CH@@ 79331
Bachelor 79284
eers 79282
cha 79276
bi 79246
manner 79244
Theater 79231
seeing 79216
tack@@ 79216
Place 79202
jo 79194
Spring 79189
designer 79189
tin@@ 79186
steam 79185
arrest 79149
wit@@ 79142
96 79130
Marshall 79126
cultiv@@ 79116
Trophy 79062
happened 79050
92 79045
emerged 79031
Stre@@ 79029
commemor@@ 79020
Stanley 79019
Thailand 79010
Who 78996
1897 78981
ser 78977
nin@@ 78976
Eur@@ 78966
83 78947
Sound 78946
deaths 78914
visiting 78903
oe 78887
grant 78874
step@@ 78864
alty 78860
combin@@ 78821
econom@@ 78808
Tower 78805
speak 78790
wild 78776
sup@@ 78762
domin@@ 78750
widespread 78723
borne 78722
Wo@@ 78708
clus@@ 78695
Jimmy 78691
resolution 78677
recommended 78675
bid 78673
domain 78664
controversial 78662
occasionally 78659
posted 78647
tests 78641
taining 78639
PS 78636
Treaty 78607
inj@@ 78599
25@@ 78567
CI@@ 78556
effectively 78547
aim@@ 78529
relief 78518
FIFA 78502
ett@@ 78482
ayan 78476
Portland 78466
Row@@ 78457
Laur@@ 78447
hin@@ 78440
eing 78431
dom 78408
ishment 78397
partic@@ 78393
themes 78360
But@@ 78355
chapter 78335
cold 78316
andi@@ 78312
Victorian 78311
newspapers 78304
eyes 78287
thly 78287
dur@@ 78285
jobs 78282
discovery 78279
Boy 78277
1000 78276
ip@@ 78259
enth 78249
encing 78234
circuit 78202
enth@@ 78169
Bad@@ 78146
sul@@ 78134
Wrestling 78128
attracted 78120
whereas 78099
key@@ 78066
AL@@ 78057
í 78056
spoken 78024
aps 78023
learn 78019
Carter 78015
alis@@ 77998
LP 77986
versity 77969
attributed 77953
Carlos 77899
couples 77889
uz@@ 77859
blocks 77842
roots 77818
93 77773
Lang@@ 77772
suicide 77766
agriculture 77763
output 77758
traveled 77751
appropriate 77738
fruit 77713
rig@@ 77706
characteristics 77705
organ 77689
Victor 77687
chem@@ 77680
solved 77647
Matt 77641
jo@@ 77630
Staff 77608
minimum 77605
Kel@@ 77595
ruling 77589
dominated 77580
aha 77556
Go 77553
fix@@ 77479
wheel 77471
spoke 77464
patient 77445
Ball@@ 77413
lia 77408
Roy 77361
Serbian 77361
zi 77351
depending 77318
Egyptian 77301
Water@@ 77269
meetings 77269
predec@@ 77266
by@@ 77258
Shortly 77229
seed 77221
journey 77201
feed 77175
81 77163
rang@@ 77163
24@@ 77158
grand 77122
competitive 77121
Girl 77118
Iron 77117
Hus@@ 77108
fro@@ 77054
youngest 77031
Lov@@ 77023
Cultural 77011
cylin@@ 76991
Billy 76953
uss 76953
protest 76950
Tim 76927
sid@@ 76918
presid@@ 76912
yal@@ 76910
eping 76865
Sto@@ 76862
positi@@ 76861
Richmond 76842
grandfather 76791
associate 76783
effici@@ 76781
mist@@ 76772
astr@@ 76752
ava 76746
trading 76742
faith 76740
tioning 76732
97 76724
longest 76721
iring 76702
prob@@ 76694
ions 76692
Ward 76666
capit@@ 76659
ump 76659
entertainment 76658
massive 76626
lem@@ 76625
keeper 76591
accept 76578
platforms 76576
Ing@@ 76575
ów 76575
ray 76572
underground 76559
Ful@@ 76542
91 76527
1893 76500
mary 76488
Champion 76486
Further 76486
Graham 76484
grad@@ 76467
assemb@@ 76457
Phil@@ 76453
Instead 76436
remainder 76411
transition 76410
whilst 76402
flood@@ 76374
runner 76339
Finnish 76338
irs 76329
satellite 76329
Nick 76312
demolished 76302
Ot@@ 76281
Limited 76269
solid 76269
Distribution 76265
Serbia 76252
zo 76215
gn@@ 76201
Ry@@ 76196
Eng@@ 76179
eigh@@ 76174
reco@@ 76169
89 76140
turning 76118
uv@@ 76109
may@@ 76108
CD@@ 76101
wick 76090
Defence 76084
surgery 76082
column 76077
Moon 76057
belonging 76055
2,000 76050
rapidly 76043
fif@@ 76036
mode 76035
pick 76031
negoti@@ 76013
Glasgow 76012
spir@@ 76008
autom@@ 75988
79 75983
videos 75973
injuries 75901
departure 75868
tribe 75867
endemic 75858
processing 75855
Hampshire 75846
å@@ 75826
erected 75825
architectural 75811
alis 75807
weak@@ 75807
Cricket 75780
Windows 75760
Indians 75757
aph@@ 75716
ution 75707
inde@@ 75672
Draft 75671
anything 75663
mul@@ 75651
fying 75648
mun@@ 75634
ries 75616
tenure 75606
emphas@@ 75601
exper@@ 75601
imm@@ 75586
tened 75579
Muhammad 75566
Romanian 75562
Fleet 75536
predomin@@ 75530
1889 75524
representatives 75506
maintenance 75474
cousin 75470
usi@@ 75465
1894 75457
rob@@ 75457
Madrid 75427
Knight 75422
B.@@ 75411
ame@@ 75409
national@@ 75409
versus 75397
rier 75392
Bah@@ 75381
tools 75366
Canal 75360
1892 75349
insec@@ 75340
techn@@ 75330
Pon@@ 75327
furn@@ 75327
landscape 75314
aceae 75304
eton 75282
diameter 75269
than@@ 75268
moment 75258
emer@@ 75257
tric 75250
gros@@ 75247
dram@@ 75246
knew 75218
Barr@@ 75216
infantry 75213
08 75195
Kon@@ 75191
steps 75186
lane 75184
Dav@@ 75179
quarters 75172
writes 75169
anese 75164
Gun@@ 75155
jum@@ 75151
keeping 75143
grave 75123
Arabic 75117
itable 75111
generated 75091
foc@@ 75090
suffering 75085
chapel 75065
Kas@@ 75032
utionary 75024
command@@ 75021
visi@@ 75006
assault 75005
align 74994
bay 74981
Capital 74936
NHL 74924
intersection 74915
theless 74911
Natural 74900
venue 74891
Las 74882
int 74879
Orleans 74877
greatly 74869
protests 74864
sional 74857
occasions 74849
easy 74827
ave 74796
94 74783
terminal 74774
09 74770
uk 74739
defence 74730
transportation 74705
Cel@@ 74704
uri 74692
tha 74687
networks 74683
torate 74678
Islam 74662
claiming 74654
everything 74639
supporters 74634
watch 74629
kno@@ 74622
Benjamin 74600
Afghanistan 74599
centers 74574
motor 74574
cabinet 74554
regime 74554
PS@@ 74549
After@@ 74547
Will 74542
integrated 74501
mail 74491
anga 74483
specif@@ 74482
encounter@@ 74477
ayer 74474
Base 74450
dor@@ 74445
conce@@ 74440
Matthew 74422
ign 74406
hundreds 74400
photograp@@ 74389
bir@@ 74386
channels 74386
tric@@ 74355
Last 74350
21st 74321
kg 74315
iliz@@ 74312
span 74310
concerned 74278
describe 74263
RE@@ 74256
vocal 74253
Mediterranean 74228
rid 74216
narr@@ 74185
schedule 74178
owed 74093
Morris 74087
concern 74083
encouraged 74083
Mes@@ 74074
CE@@ 74066
agents 74066
onist 74062
etary 74040
igh 74028
sentenced 74021
1885 74020
unusual 74014
scope 74006
disput@@ 73996
periods 73977
document 73931
relationships 73919
Municipality 73918
lic@@ 73917
license 73894
shell 73866
gal@@ 73839
Nigeria 73815
bloc@@ 73807
Good@@ 73805
Yo@@ 73796
Wel@@ 73776
statue 73776
oration 73761
goal@@ 73755
Books 73748
competi@@ 73745
Bush 73743
Historical 73731
producers 73714
Johnny 73706
streng@@ 73698
rd 73688
defending 73674
Yorkshire 73673
lad@@ 73670
horses 73667
real@@ 73652
reportedly 73642
isms 73603
amoun@@ 73569
appe@@ 73569
reve@@ 73569
Germans 73563
ico 73559
Bru@@ 73558
Farm 73554
indigenous 73552
func@@ 73539
stroke 73527
82 73512
colspan 73463
begun 73443
Note 73435
assist 73424
origin@@ 73403
band@@ 73402
gradually 73369
pup@@ 73344
colony 73330
af 73319
Seven 73306
Hispanic 73303
50@@ 73294
Whe@@ 73250
categories 73249
í@@ 73222
hang@@ 73219
supplies 73206
Delhi 73202
afterwards 73170
missed 73163
territories 73144
lo 73143
Until 73111
1891 73086
abroad 73085
Rico 73080
marketing 73080
Gary 73069
thousand 73054
87 73051
frequent 73051
Chile 73024
Back 73015
aware 73005
orn 73005
immediate 73000
vill@@ 72999
hearing 72984
characterized 72981
ive 72981
ES@@ 72973
vir@@ 72929
memorial 72925
Lanka 72915
Jan 72900
myth@@ 72899
subur@@ 72881
Zone 72878
doctor 72835
participants 72835
AF 72832
cell@@ 72826
exists 72813
sal 72792
cancelled 72790
Fund 72757
tering 72743
inhab@@ 72740
ually 72727
relocated 72676
ety 72674
Met@@ 72652
honour 72651
agencies 72645
obtain 72644
Aqu@@ 72641
administr@@ 72614
genetic 72595
tage 72576
impos@@ 72569
crowd 72543
inian 72536
inaugural 72533
heim 72520
wrest@@ 72515
amongst 72511
absence 72501
ule 72499
aria 72485
governments 72484
ER@@ 72455
tro 72422
ratio 72408
rapid 72405
1888 72404
normally 72375
put@@ 72360
athletes 72352
Arena 72342
linear 72329
Honours 72306
Maine 72284
Shel@@ 72272
aimed 72252
conservative 72236
Labor 72204
Sor@@ 72197
Nicholas 72184
Jerusalem 72174
tivity 72169
iness 72164
assi@@ 72159
Appe@@ 72151
Liga 72144
spending 72144
toured 72143
supports 72140
extinc@@ 72128
creative 72105
concerts 72083
fire@@ 72079
teen@@ 72064
integr@@ 72060
poems 72045
suppl@@ 72043
embr@@ 72035
commanded 72025
styles 72017
hydr@@ 72015
ador 72012
asure 71987
dy@@ 71981
seeking 71981
preci@@ 71923
eline 71909
transmission 71900
design@@ 71887
bone 71874
sson 71867
cable 71866
dan 71863
constitutional 71851
fled 71850
Indi@@ 71848
kins 71817
seek 71810
DS 71798
scholar 71760
profile 71738
recipi@@ 71734
yd@@ 71725
submarine 71717
publicly 71707
yers 71705
migr@@ 71702
CE 71699
idi@@ 71674
facts 71664
án 71662
Run@@ 71646
lier 71642
Greater 71609
descent 71589
ready 71586
picked 71577
string 71577
Karl 71565
Rab@@ 71564
fail@@ 71542
ninth 71538
bon 71529
main@@ 71526
duo 71503
Fellow 71499
eover 71479
Ob@@ 71478
Work 71473
recovered 71462
Members 71446
moves 71418
exception 71405
Charlie 71390
Son@@ 71374
substantial 71366
ht 71355
Bristol 71323
perfect 71314
diocese 71292
Jason 71288
Play@@ 71285
pole 71257
identify 71254
Vancouver 71233
ason 71221
operational 71205
gard@@ 71203
compilation 71200
Transportation 71199
asts 71172
Warner 71160
deployed 71150
behalf 71138
makeup 71128
Alice 71110
onn@@ 71100
ock@@ 71084
panel 71075
cribed 71070
unk 71024
cam@@ 70977
EU 70976
eper 70969
Hum@@ 70968
attending 70961
intellectu@@ 70961
N. 70951
Thor@@ 70930
convention 70929
wan 70894
resident 70881
wering 70880
Vic@@ 70868
external 70866
monument 70819
opportunities 70818
Category 70815
extent 70791
Persian 70765
Mitchell 70762
audio 70745
Beijing 70744
Late 70737
hero 70737
Hun@@ 70730
Milan 70730
hibition 70726
Andy 70722
Mis@@ 70716
sh 70709
releases 70708
sentence 70688
rebuilt 70686
assy 70685
Diocese 70667
suitable 70667
advertising 70660
amps 70653
contribution 70649
aming 70645
comput@@ 70640
Part 70629
segment 70624
succe@@ 70619
ician 70602
patri@@ 70574
ranks 70552
witn@@ 70527
ead 70514
essing 70509
camp@@ 70472
1865 70447
Eth@@ 70444
researchers 70404
closure 70403
1.5 70402
1880 70375
leaf 70370
Clar@@ 70362
sole 70360
endor@@ 70358
show@@ 70358
Tran@@ 70352
earning 70350
leng@@ 70335
ectives 70321
gay 70307
adults 70306
15@@ 70294
wild@@ 70283
iding 70280
Lak@@ 70277
symbol 70276
Vari@@ 70258
disco@@ 70257
ologists 70244
onlyinclude 70229
Rap@@ 70223
licensed 70223
5,@@ 70208
× 70190
dic 70179
eti@@ 70158
Kin@@ 70145
lined 70140
commented 70136
Baker 70135
Jar@@ 70127
eries 70118
Caribbean 70111
ī@@ 70086
Digital 70084
sel 70064
Bible 70038
qi 70033
subs@@ 70031
06 70017
component 70001
spiritual 69973
shed 69969
beach 69962
apparently 69930
volumes 69907
convinc@@ 69878
ceased 69835
questi@@ 69826
Pit@@ 69793
benefits 69791
borders 69783
restoration 69775
rail@@ 69764
assisted 69760
broadcasting 69749
tent@@ 69709
Gran@@ 69705
customers 69688
craft 69674
secured 69669
enjoyed 69654
corporate 69652
Jeff 69640
insurance 69633
ellor 69628
clin@@ 69620
din 69602
Ah@@ 69597
abuse 69582
Under@@ 69574
Pan 69550
instrumental 69533
rescue 69520
Challenge 69516
autonom@@ 69509
Hir@@ 69491
bles 69485
dle 69476
facilit@@ 69474
indicate 69461
On@@ 69454
mathemati@@ 69452
Sad@@ 69444
Wit@@ 69441
pit 69418
Orange 69406
esti@@ 69396
looked 69373
ratic 69373
Count 69344
1864 69337
Iranian 69310
excav@@ 69290
iki 69287
1887 69271
serv@@ 69269
ect@@ 69245
phon@@ 69242
jus@@ 69225
cup 69206
nat@@ 69205
implemented 69203
lan 69194
1870 69192
TC 69186
file 69164
fresh@@ 69159
Stars 69158
ians 69158
legislative 69146
Having 69108
width 69088
Along 69087
businessman 69075
Communications 69063
eously 69063
Manhattan 69060
struc@@ 69034
resear@@ 69019
pm 69012
Charlotte 69004
iser 69002
Warren 69001
detailed 68995
mate 68971
plate 68959
kingdom 68958
lows 68940
Zh@@ 68925
Spec@@ 68917
none 68910
eligible 68902
four@@ 68889
legs 68863
possession 68849
UN 68828
animated 68806
outs@@ 68806
premiere 68803
buy 68796
beautiful 68795
fat@@ 68780
Ther@@ 68776
Evans 68772
ng@@ 68755
percentage 68751
Results 68749
1861 68747
conventional 68745
significance 68740
pron@@ 68738
activist 68733
conc@@ 68694
belonged 68690
tee 68676
Friday 68660
acres 68647
publisher 68646
Hard@@ 68632
rom@@ 68564
nearest 68555
Et@@ 68549
establishing 68549
partially 68544
1940s 68525
née 68520
voters 68498
vin 68482
understand 68461
fortun@@ 68429
Vir@@ 68422
struggle 68413
disc 68400
izes 68397
Brid@@ 68396
exposed 68391
Hawaii 68373
Harrison 68368
Tow@@ 68350
variant 68346
icians 68333
len 68310
Market 68299
drugs 68288
experimental 68257
destruction 68242
pap@@ 68235
lard 68224
apart 68217
fighter 68217
lose 68210
violent 68200
Constitu@@ 68188
simultan@@ 68176
Alberta 68170
responded 68161
23@@ 68154
coalition 68122
Songs 68119
Wayne 68119
Fine 68083
everyone 68060
outer 68059
rey 68052
iefs 68046
opponents 68031
rendered 68031
cription 68027
ener 68021
constitution 68018
nomin@@ 68008
Initially 68005
Wars 68002
eto 68000
mathematics 67993
palace 67979
res 67978
Up@@ 67968
Dou@@ 67952
attorney 67942
jury 67941
inking 67940
spaces 67935
oga 67928
substitute 67921
principles 67914
earthqu@@ 67911
Falls 67898
partly 67898
dog@@ 67890
augh@@ 67881
atures 67880
ema 67880
izing 67876
legiate 67855
cript 67828
itch 67825
Commissioner 67817
extreme 67784
heav@@ 67778
iri 67774
sum 67767
propos@@ 67758
prising 67756
spirit 67754
vern@@ 67754
aj 67741
thers 67725
18@@ 67717
sensi@@ 67714
pressed 67704
swimming 67698
1886 67694
surve@@ 67667
Thir@@ 67666
makers 67657
17@@ 67646
drafted 67645
loy@@ 67645
− 67643
municipalities 67642
phosph@@ 67632
pic 67620
discussed 67594
Fred 67579
VI 67574
Together 67572
Person@@ 67551
Scot@@ 67545
assets 67545
rie 67539
occurr@@ 67536
1862 67518
avi@@ 67518
inch 67510
struggl@@ 67502
Wi@@ 67500
add 67498
ingham 67494
exclu@@ 67476
scientists 67472
Muslims 67468
apartment 67456
concentration 67439
Sou@@ 67437
bic@@ 67420
ras@@ 67420
Section 67396
agu@@ 67386
ud 67386
aine 67354
Rangers 67349
bish@@ 67347
instrument 67339
Jam@@ 67326
Hindu 67316
Story 67310
YouTube 67308
productions 67299
movies 67293
asser@@ 67285
Municipal 67276
4.@@ 67274
Sport 67269
Soon 67268
Pass@@ 67247
certain@@ 67227
1863 67218
correspond@@ 67214
subsidiary 67191
Throughout 67190
bo 67164
qualify 67146
possibility 67126
cus 67122
signs 67113
Guinea 67090
dismissed 67069
oms 67059
sang 67039
locally 67034
gri@@ 67017
atively 66994
commerci@@ 66992
orial 66992
merchant 66986
tribes 66983
revenue 66951
inning 66946
outbreak 66939
wants 66937
tend 66927
700 66919
Nur@@ 66916
Philippine 66909
useful 66904
alt 66896
belief 66884
Freedom 66882
statistics 66861
laborat@@ 66854
Day@@ 66841
accessible 66836
terminus 66829
120 66807
sculp@@ 66802
settlers 66798
distr@@ 66780
ate@@ 66779
rell 66776
Ian 66769
tap@@ 66768
immigrants 66761
assign@@ 66758
produces 66754
sy 66731
&apos;ve 66719
Trinity 66718
continuous 66712
honorary 66706
provinces 66704
archy 66697
ongoing 66689
restricted 66673
Studio 66667
conservation 66664
Nova 66658
Head@@ 66655
passage 66650
yle 66646
ride 66640
congreg@@ 66632
pointed 66632
essential 66630
coaching 66629
fitted 66628
Boy@@ 66614
12.@@ 66613
withdrew 66567
trust 66565
neither 66557
expensive 66549
wedding 66541
1884 66536
ation@@ 66535
bach 66534
net@@ 66531
Tul@@ 66519
raid 66514
ced 66473
Pet@@ 66468
act@@ 66450
cians 66450
cost@@ 66441
Socialist 66434
Broadcasting 66428
Tigers 66418
talent 66412
chamber 66406
Vas@@ 66390
civilian 66388
lak@@ 66382
Ci@@ 66372
05 66323
ž@@ 66275
Da@@ 66271
thesis 66264
numbered 66262
ural 66257
Cooper 66243
Kath@@ 66243
nav@@ 66242
oting 66242
hot@@ 66232
rising 66211
merger 66202
Ali@@ 66198
completing 66198
tification 66195
farmers 66191
Common 66189
matters 66181
physics 66169
Vel@@ 66143
grades 66136
balance 66118
scholarship 66112
displayed 66111
Parker 66109
exce@@ 66093
oted 66074
apply 66073
aro 66071
Aer@@ 66070
throne 66055
target@@ 66052
leton 66023
hat 66013
partners 66008
ffs 66006
tives 65990
CP@@ 65985
Branch 65984
repair 65972
closing 65952
Gmina 65927
Cin@@ 65915
Such 65910
personality 65910
Grade 65906
tica 65902
soft 65900
enders 65882
adop@@ 65879
vs. 65872
initiated 65869
kes@@ 65859
playoffs 65851
Clinton 65818
round@@ 65814
Adelaide 65807
ami@@ 65807
cemetery 65805
ector 65802
Barry 65795
1881 65783
Eli@@ 65766
assassin@@ 65757
Video 65732
initiative 65707
AT 65698
cular 65696
Universal 65695
ott 65684
false 65668
aim 65658
rel 65651
Armenian 65640
Sat@@ 65620
efficient 65620
ennial 65616
confer@@ 65611
sculpture 65610
asks 65569
harmon@@ 65551
Legacy 65531
Oblast 65525
Dakota 65497
conv@@ 65493
cath@@ 65485
crash 65484
symbol@@ 65455
11.@@ 65424
noon 65407
Parish 65376
Allied 65348
trials 65301
voir 65292
Patr@@ 65278
touring 65269
arrangement 65260
respective 65256
choose 65243
suburb 65238
Attorney 65233
dispute 65225
aint 65220
ait 65219
kw@@ 65195
edy 65189
honors 65189
bor 65184
minority 65168
nel 65168
moun@@ 65157
tari@@ 65157
RAF 65151
electricity 65124
umn 65119
onymous 65112
eral 65110
charity 65108
phy@@ 65107
Sky 65100
disband@@ 65098
kar 65093
Syria 65079
guilty 65064
traditions 65026
Bar 65012
falling 65005
Code 64990
Wall 64986
sequently 64973
pursue 64968
Sul@@ 64964
IS 64957
Sak@@ 64957
ashed 64944
connecting 64943
escor@@ 64938
Action 64935
metre 64934
Jonathan 64925
ag 64923
lowest 64915
eau 64914
Nik@@ 64905
Soccer 64891
arded 64881
desc@@ 64874
isa 64866
tant 64863
2000s 64848
introduc@@ 64842
Virgin 64840
diverse 64838
tou@@ 64838
stimul@@ 64816
Admiral 64815
acker 64812
Standard 64805
oxy@@ 64795
inity 64788
evacu@@ 64764
Pradesh 64760
Turner 64759
ees 64755
MC 64750
correc@@ 64748
crossed 64740
flan@@ 64734
Type 64726
communications 64721
ounced 64721
anyone 64709
exclusively 64707
sailed 64697
semin@@ 64697
fictional 64693
Blu@@ 64691
elly 64691
wrestling 64691
weekend 64685
illness 64660
remove 64638
weigh@@ 64632
prim@@ 64621
aur@@ 64596
happy 64587
measur@@ 64587
PhD 64578
consult@@ 64551
unsuccessful 64539
flower 64533
Buffalo 64529
desire 64523
Kings 64522
Barbara 64500
evol@@ 64497
mark@@ 64496
uma 64496
retail 64488
closer 64487
Cuba 64485
Lou@@ 64468
clinical 64463
algorith@@ 64460
ous@@ 64458
alliance 64457
ranging 64455
faces 64410
iller 64406
consistent 64395
buil@@ 64379
eldest 64368
arities 64355
wearing 64348
tan 64345
judges 64344
asa 64342
Saints 64338
Gold@@ 64334
Brig@@ 64324
iture 64323
Cav@@ 64313
Be 64303
limits 64303
kes 64301
margin 64289
occasion 64274
principle 64263
Ca@@ 64246
hope 64246
pitch 64245
sman 64241
fee 64238
solar 64201
RO@@ 64191
electrical 64191
advice 64190
hem@@ 64188
Pic@@ 64179
crimes 64176
fri@@ 64176
Meg@@ 64160
dn 64145
treaty 64134
conven@@ 64124
Technical 64119
eted 64114
fron@@ 64111
focuses 64109
Abbey 64107
dominant 64102
Beh@@ 64064
doesn 64018
gir@@ 63997
Years 63995
Bou@@ 63987
1882 63978
credits 63974
Peninsula 63962
ague 63962
Trav@@ 63958
Furthermore 63956
AF@@ 63936
battalion 63924
excep@@ 63923
Food 63920
Woman 63914
01 63905
Hunter 63878
earth 63877
ME@@ 63867
marry 63859
references 63852
Cot@@ 63846
regulations 63841
han@@ 63836
hop 63832
Classic 63825
Post@@ 63818
ester 63816
ric@@ 63798
Fili@@ 63790
requested 63779
neph@@ 63769
Christ@@ 63764
enberg 63757
novel@@ 63746
acknowled@@ 63745
emperor 63745
phil@@ 63740
supervis@@ 63728
Control 63714
Baptist 63695
beating 63683
lowing 63681
patterns 63670
submitted 63659
onym 63648
okie 63643
banned 63640
monit@@ 63623
Collins 63616
fam@@ 63615
ogy 63612
dow@@ 63607
Peru 63597
traded 63595
colors 63592
Tech 63588
qualification 63581
rif@@ 63567
isolated 63564
reduction 63553
contest@@ 63536
Century 63525
Brisbane 63524
Hudson 63523
operator 63502
Ze@@ 63483
aus 63478
allies 63477
Cent@@ 63469
Assistant 63443
intr@@ 63409
grey 63359
CS 63355
Saudi 63347
ón 63346
Therefore 63345
coff@@ 63341
C.@@ 63323
istics 63321
Bud@@ 63275
Alaska 63274
Race 63270
sight 63270
shift 63231
conclusion 63221
ui 63221
Munich 63209
Cook 63196
Ice 63196
circumstances 63181
Conservation 63169
Catherine 63156
Bengal 63144
ags 63144
differ@@ 63139
enger 63131
sanc@@ 63109
wak@@ 63094
cargo 63093
layer 63088
eased 63079
26@@ 63074
clearly 63072
Buddhist 63069
school@@ 63045
Jacob 63031
lain 63019
connections 63002
experim@@ 62995
inten@@ 62986
lic 62982
hos@@ 62977
Hat@@ 62969
Anglo 62953
Au@@ 62953
Malay@@ 62953
isation 62934
decisions 62923
ographer 62917
Fil@@ 62873
MS@@ 62867
yo@@ 62867
strategic 62862
tif@@ 62859
conversion 62841
bank@@ 62835
ship@@ 62833
practical 62825
prehensive 62825
dual 62824
5.@@ 62806
crown 62804
NY 62787
Beng@@ 62773
Ath@@ 62766
drummer 62754
aly@@ 62749
editions 62703
sters 62701
travelled 62698
Scar@@ 62696
cool@@ 62694
else 62676
etti 62666
Cincinnati 62647
housed 62622
org@@ 62622
backs 62609
som@@ 62609
battery 62606
Urban 62593
Mrs. 62591
mol@@ 62587
canal 62579
bing 62550
soldier 62535
clothing 62526
persu@@ 62506
hunting 62502
Cru@@ 62497
rat@@ 62492
activated 62451
Language 62449
Fel@@ 62448
stones 62443
ought 62426
roll 62424
IP 62423
Lloyd 62417
influences 62412
Industry 62399
initi@@ 62379
grows 62377
nd@@ 62375
Din@@ 62369
Liber@@ 62366
Maz@@ 62361
wick@@ 62345
NO@@ 62343
Down 62342
comedi@@ 62330
Nation 62329
originated 62329
Model 62325
alb@@ 62309
asses 62306
peri@@ 62305
Pul@@ 62301
bom@@ 62300
nee 62292
bomb 62285
sisters 62285
indicates 62284
fast@@ 62271
skat@@ 62254
organic 62249
Duch@@ 62248
Students 62233
drums 62232
racy 62226
throw 62223
ave@@ 62206
reven@@ 62206
recognised 62205
motiv@@ 62199
ebo@@ 62194
apparent 62191
NE@@ 62165
boundaries 62164
tunnel 62157
Camp@@ 62139
negotiations 62138
photography 62131
translat@@ 62131
cinema 62130
oured 62128
repeated 62126
defended 62124
internationally 62118
kit@@ 62117
san@@ 62112
jurisdiction 62101
evolution 62096
ode 62087
Faculty 62074
ingen 62063
suggest 62059
iment 62057
Found@@ 62053
eas@@ 62050
intention 62046
monastery 62037
Territory 62027
infl@@ 62007
reveals 61977
libr@@ 61972
drivers 61967
decides 61964
involves 61949
perce@@ 61946
Trail 61940
1883 61931
DA 61917
aire 61910
innov@@ 61876
settlements 61875
Om@@ 61845
Oliver 61841
chers 61839
27@@ 61836
aggres@@ 61833
nucle@@ 61795
Represent@@ 61791
pin@@ 61770
origins 61754
mechanism 61750
locomotives 61745
Barcelona 61742
prac@@ 61742
timber 61724
Eas@@ 61723
relevant 61703
pain 61699
partner@@ 61697
Fu@@ 61692
manufactured 61690
Š@@ 61681
proteins 61676
Unit 61669
attend@@ 61656
Springs 61652
Dark 61636
1871 61635
07 61632
Doc@@ 61622
tab@@ 61609
mac@@ 61595
render 61562
mix 61538
Do 61533
riding 61531
erial 61524
100,000 61523
tested 61518
mechanical 61495
tone 61493
proxim@@ 61491
aster@@ 61489
wal 61482
Jay 61473
Ep@@ 61470
IC 61457
King@@ 61456
Mass@@ 61442
spl@@ 61439
1876 61437
ashes 61410
inher@@ 61384
opponent 61384
organis@@ 61384
pav@@ 61379
survive 61379
ocked 61370
Publ@@ 61364
astic 61353
trail@@ 61348
exhibited 61341
astronom@@ 61338
expect@@ 61328
Masters 61288
curr@@ 61285
vacc@@ 61285
Operations 61284
rand@@ 61282
1860 61271
Nic@@ 61269
overseas 61263
2.5 61243
Latino 61228
acquisition 61207
Father 61205
Apple 61188
abl@@ 61186
utiliz@@ 61182
1878 61181
6.@@ 61175
opo@@ 61174
thereafter 61169
cash 61165
bian 61154
Hugh 61135
Hans 61109
Sl@@ 61107
increases 61104
Phoenix 61095
kr@@ 61095
Pav@@ 61082
Nevada 61069
temperatures 61063
compet@@ 61061
essment 61050
sph@@ 61045
Bil@@ 61032
Luis 61029
thy 61023
styl@@ 61022
Hebrew 60998
esi@@ 60985
Mut@@ 60984
warm 60968
strip 60964
ble@@ 60954
helicop@@ 60934
Current 60898
Bernard 60882
Leeds 60881
anner 60881
fear 60874
auc@@ 60872
Hi@@ 60871
Democrat 60853
Roberts 60850
zing 60844
condem@@ 60829
landed 60816
kan 60798
trag@@ 60796
climb@@ 60793
copy 60791
Les 60782
cattle 60772
Colombia 60764
alled 60764
wealthy 60757
rement 60744
hole 60736
etown 60724
twin 60705
Ye@@ 60699
bow 60697
Microsoft 60696
Shah 60690
mention 60683
romantic 60683
Democrats 60673
migration 60648
Dead 60643
ust@@ 60641
commission@@ 60636
debt 60625
promoting 60614
truth 60610
Stu@@ 60576
tempor@@ 60567
neigh@@ 60559
reviewed 60555
search@@ 60555
ason@@ 60552
Palest@@ 60542
lip 60542
Let 60532
iler 60515
dit 60513
lear@@ 60513
tious 60499
tres 60474
campaigns 60464
dress 60438
festivals 60425
mon 60422
Systems 60395
Wild 60390
fifteen 60384
Industrial 60379
umes 60361
registr@@ 60360
Sau@@ 60357
Players 60326
tanks 60304
cian 60289
Barn@@ 60285
ulum 60278
Finally 60277
DE@@ 60267
Chamber 60266
liz@@ 60263
delivery 60252
Tol@@ 60244
Arg@@ 60243
rows 60241
Herbert 60221
assists 60204
hau@@ 60203
orchestra 60192
yo 60190
planet 60182
6,@@ 60137
permission 60123
Nepal 60113
itt 60111
quarter@@ 60102
las 60101
Arab@@ 60090
shoot 60088
lands@@ 60086
tre 60086
DJ 60077
preferred 60073
Vincent 60072
manufacturer 60064
adr@@ 60038
participating 60038
outstanding 60030
nant 60028
collaborated 60022
Bell@@ 60017
traditionally 60014
demonstrated 60010
member@@ 59998
olls 59998
resignation 59997
bases 59990
mes 59989
pression 59989
rocks 59968
Rot@@ 59967
managing 59967
alt@@ 59955
Symphony 59952
How 59943
topics 59907
Archbishop 59899
Ple@@ 59898
provid@@ 59893
explor@@ 59865
chrom@@ 59858
Naz@@ 59853
Borough 59820
soul 59818
cerem@@ 59813
magazines 59798
mad@@ 59794
02 59787
photographs 59781
trig@@ 59781
forcing 59761
Corn@@ 59750
dependent 59741
shall 59741
loaded 59735
rarely 59724
deemed 59709
Athens 59703
joy 59699
Cus@@ 59692
mant@@ 59691
spac@@ 59687
Mem@@ 59663
organ@@ 59650
Costa 59626
SS@@ 59612
mines 59581
3,000 59580
tape 59570
atom@@ 59565
biological 59560
midfielder 59556
Azerbaijan 59555
administer@@ 59554
Vil@@ 59553
Electric 59551
stress 59541
placing 59496
operative 59461
ishers 59458
Rail 59450
Hem@@ 59447
web@@ 59445
Bran@@ 59442
Nak@@ 59438
certified 59426
flights 59421
ante 59418
tum@@ 59412
usual 59401
Wing 59400
vertical 59382
lap@@ 59369
gence 59363
RS 59361
Jazz 59352
eggs 59340
Christianity 59331
shoul@@ 59316
expand 59308
fit@@ 59300
SO@@ 59295
discussion 59294
aud@@ 59293
funeral 59288
Gur@@ 59278
haz@@ 59267
Ever@@ 59259
airing 59251
compiled 59249
aer@@ 59243
hear@@ 59231
bear 59218
enz@@ 59199
ref 59195
aise 59193
observ@@ 59175
lov@@ 59174
vast 59170
dil@@ 59163
tz 59159
Formula 59157
Pictures 59145
moral 59141
Cathol@@ 59134
alia 59127
Prim@@ 59120
Wang 59109
Nebraska 59097
eting 59095
Madison 59084
Les@@ 59078
peoples 59076
favour 59071
implementation 59060
convicted 59032
amo@@ 59030
symptoms 59029
rab@@ 59020
exercise 59014
industries 59011
tim 58983
1867 58965
iti 58964
Jr. 58952
playoff 58940
pag@@ 58939
Buil@@ 58931
interpretation 58921
cooperation 58891
1872 58888
gang 58887
Anti@@ 58886
Norfolk 58854
Ji@@ 58853
scrip@@ 58837
departed 58803
pper 58799
Circuit 58798
thick 58789
atri@@ 58782
plain 58781
U.@@ 58777
lift 58769
py@@ 58747
1875 58734
gran@@ 58734
Nas@@ 58727
finance 58726
Bag@@ 58702
ital 58688
nik 58673
Ten@@ 58671
van@@ 58671
Formation 58666
Gir@@ 58665
describing 58653
recur@@ 58641
barr@@ 58632
Dru@@ 58630
unlike 58630
Cad@@ 58612
usage 58607
viewer 58594
Kenya 58593
Hope 58589
vary 58589
accord@@ 58584
Cab@@ 58576
PC@@ 58575
ier@@ 58553
Mit@@ 58548
Blues 58539
Det@@ 58535
1879 58522
Pu@@ 58521
economics 58518
friend@@ 58517
Lions 58512
sharing 58498
03 58481
Sha@@ 58468
extensively 58468
slaves 58467
manage 58438
virus 58436
Som@@ 58426
lav@@ 58421
bright 58420
lingu@@ 58420
devoted 58412
Stor@@ 58405
Jur@@ 58401
Gray 58400
delayed 58399
Astr@@ 58395
tak@@ 58385
conflic@@ 58378
baby 58367
Lind@@ 58359
ministry 58359
enrolled 58352
RI@@ 58344
Cri@@ 58331
express 58330
dub@@ 58323
Much 58304
contributing 58299
Drive 58292
coat 58289
wealth 58286
Ari@@ 58269
04 58265
Lit@@ 58257
Nav@@ 58254
Nu@@ 58226
emed 58214
J.@@ 58193
Clin@@ 58173
gency 58170
bilities 58157
inducted 58153
Bri@@ 58143
ask@@ 58128
informed 58123
wider 58109
distingu@@ 58095
tified 58088
wher@@ 58085
mo 58080
roster 58076
quit@@ 58074
Those 58073
iver 58067
rej@@ 58065
tox@@ 58061
machines 58060
Gam@@ 58054
thin 58053
defend 58049
giant 58030
walking 58025
athlete 58016
consist@@ 58014
restr@@ 58008
exposure 58005
Pel@@ 57998
semif@@ 57996
Non 57995
arc@@ 57994
1868 57970
prices 57958
28@@ 57937
RT 57937
supposed 57932
narrative 57927
sevent@@ 57921
elsewhere 57909
elt 57909
ope 57899
zy@@ 57893
Giants 57888
ames 57886
partial 57883
lighting 57874
Alban@@ 57845
AB@@ 57842
ska 57838
viewing 57831
circle 57829
inherited 57827
designation 57822
ridge 57821
emerg@@ 57807
corresponding 57806
preparation 57790
trail 57786
row@@ 57766
farming 57763
oug@@ 57763
Rogers 57759
sized 57751
Commons 57745
reaches 57745
ause 57739
breeding 57739
Croatia 57736
reun@@ 57736
householder 57735
ll 57733
pages 57727
peti@@ 57726
gan 57710
tournaments 57690
limit@@ 57684
Mik@@ 57670
aboard 57664
correct 57656
filming 57652
USS 57627
Newcastle 57622
tribute 57617
ined 57611
simul@@ 57587
Proc@@ 57581
AR 57566
Architecture 57560
Independence 57539
Ev@@ 57533
open@@ 57479
approached 57475
advertis@@ 57473
bachelor 57462
disch@@ 57450
Side 57438
emph@@ 57430
progr@@ 57421
Plan 57418
believes 57414
charter 57402
Phil 57378
camps 57373
Rock@@ 57360
Bra@@ 57351
fresh 57344
Haz@@ 57334
prosp@@ 57330
TV@@ 57314
crit@@ 57302
Range 57301
decorated 57285
Soci@@ 57279
import@@ 57269
concerning 57261
resumed 57259
Fair 57253
gy@@ 57253
ku@@ 57229
commenced 57224
Jerry 57223
deck 57222
cricketer 57205
vic 57204
Album 57203
exclusive 57190
aver 57189
colon@@ 57188
syl@@ 57188
identi@@ 57186
1874 57184
posts 57174
edral 57169
Abu 57163
diagnos@@ 57158
inaugur@@ 57149
incumbent 57149
sort 57130
film@@ 57122
Policy 57119
Vegas 57108
zero 57108
golf 57097
communic@@ 57094
oker 57082
How@@ 57081
Primary 57079
Confederate 57076
Derby 57072
Od@@ 57060
sounds 57041
ji@@ 57034
reporting 57029
Had@@ 57027
Terry 57009
ven 56999
automatic 56992
liberal 56990
recalled 56986
hit@@ 56985
waste 56983
politi@@ 56970
winds 56958
inspiration 56956
Brit@@ 56955
expert 56952
riv@@ 56945
1873 56940
Gener@@ 56917
allo@@ 56915
worker 56913
Tai@@ 56911
grandson 56911
cred@@ 56906
Flo@@ 56901
eme 56898
imb@@ 56898
continental 56885
diplomatic 56857
sibl@@ 56857
identical 56855
mili@@ 56843
alcohol 56841
dangerous 56836
depression 56829
caval@@ 56809
NA 56792
1877 56791
inclus@@ 56789
imperial 56787
specialized 56784
explic@@ 56763
weapon 56763
Hav@@ 56760
Storm 56750
idential 56749
Denver 56732
eve 56729
Poly@@ 56708
13.@@ 56702
recommend@@ 56674
São 56671
scar@@ 56664
clo@@ 56656
depicted 56640
ephone 56636
1866 56635
€ 56624
turing 56622
Neil 56620
physician 56613
adap@@ 56606
Bun@@ 56602
Argentine 56599
Dod@@ 56582
buses 56564
pitched 56557
utes 56539
Sultan 56514
ović 56498
Mill 56493
acle 56493
Bulgarian 56476
Sn@@ 56476
legislature 56476
Jefferson 56465
happ@@ 56462
Species 56460
speaker 56458
Ed 56445
ehouse 56434
Based 56418
Croatian 56409
diseases 56403
Petersburg 56401
Pedro 56390
Southeast 56386
belongs 56382
found@@ 56379
saf@@ 56362
morph@@ 56347
rub@@ 56335
Florence 56322
Gra@@ 56312
evolved 56302
gaining 56297
seem 56297
Jose 56296
ource 56285
exhibitions 56284
nominations 56274
Kap@@ 56258
communist 56257
alizing 56253
nak@@ 56239
Anti 56238
thinking 56233
MI@@ 56227
clan 56219
iker 56210
uniform 56209
Pil@@ 56208
dol@@ 56166
sand 56164
Ridge 56136
soph@@ 56119
corruption 56108
yan@@ 56078
shopping 56074
character@@ 56073
black@@ 56069
Nature 56067
follow@@ 56067
portrait 56056
transi@@ 56054
poli@@ 56050
Eventually 56033
ament 56031
acceler@@ 56026
Warsaw 56024
bid@@ 56017
enters 56005
lun@@ 56001
sure 55987
historians 55971
oll 55959
Can 55944
icon 55928
gallery 55927
Amsterdam 55901
legacy 55886
Comp@@ 55881
fordshire 55880
Murphy 55876
7,@@ 55863
measured 55863
environ@@ 55858
burned 55848
legend 55845
convers@@ 55839
till 55829
horror 55805
uli@@ 55786
vering 55778
Kom@@ 55775
speakers 55761
Ottawa 55758
asant 55753
Slav@@ 55749
Has@@ 55742
Xi@@ 55735
Ass@@ 55714
annon 55714
Helen 55713
relegated 55701
ander 55698
placement 55691
Baron@@ 55681
ram@@ 55671
departments 55667
difficulties 55667
Economy 55661
cho 55661
Climate 55628
Jer@@ 55620
Comics 55615
brigade 55612
Reb@@ 55609
enforcement 55607
Auckland 55588
reducing 55581
argument 55579
summit 55578
Christians 55574
sung 55572
hul@@ 55554
ken@@ 55534
extend 55532
phrase 55531
files 55520
Dick 55508
mainstream 55482
wil@@ 55482
DP 55439
ampton 55439
tern@@ 55426
a.@@ 55421
consolid@@ 55421
interviews 55412
Play 55410
columns 55408
molec@@ 55401
oriented 55396
TE@@ 55390
Bern@@ 55384
conclu@@ 55377
belt 55357
vo 55356
challenges 55353
olo@@ 55352
Bulgaria 55320
punk 55277
Syrian 55270
param@@ 55266
ont@@ 55242
zes 55234
siege 55233
Edwards 55231
onom@@ 55217
gees 55216
grass 55212
Delaware 55206
vit@@ 55192
nia 55184
scores 55182
tool 55179
clean 55176
proof 55164
Yale 55155
yi 55154
constitut@@ 55153
Chapel 55151
connect 55151
Vit@@ 55121
Sud@@ 55117
win@@ 55111
idents 55109
Keith 55104
fighters 55103
addi@@ 55094
Shanghai 55074
Luke 55072
Currently 55067
trum 55051
ordinary 55048
stab@@ 55040
attemp@@ 55037
unincorporated 55037
eva 55027
essenti@@ 55021
intermedi@@ 55019
removal 55016
Nat@@ 54999
Perry 54983
excellent 54975
Eg@@ 54972
hyper@@ 54961
Venice 54959
Sierra 54958
wir@@ 54958
authored 54942
Rav@@ 54921
omen@@ 54891
arti@@ 54882
pharm@@ 54881
po 54881
prove 54880
helps 54873
execution 54871
esia 54858
spend 54855
Six@@ 54853
regard 54843
murdered 54841
Writing 54829
looks 54828
osp@@ 54828
Campaign 54824
exact 54815
Ret@@ 54814
affect 54814
historically 54810
Dre@@ 54808
Hut@@ 54808
Lebanon 54801
Harold 54785
bes 54769
recovery 54769
enny 54749
clos@@ 54743
Finance 54734
Grace 54714
retr@@ 54707
characteristic 54701
Sund@@ 54696
Kno@@ 54688
implic@@ 54684
Obama 54683
sitting 54674
.S. 54671
argu@@ 54668
birthday 54666
Confeder@@ 54653
writings 54643
every@@ 54639
carrier 54633
spin 54614
awareness 54605
guests 54571
pairs 54567
decide 54554
beauty 54526
basin 54487
yg@@ 54484
latest 54477
internet 54469
Band@@ 54468
academy 54455
plas@@ 54425
mes@@ 54419
ete@@ 54397
slave 54396
colleges 54384
ualties 54370
Cau@@ 54364
Camb@@ 54352
Release 54342
oli 54338
deriv@@ 54335
Never@@ 54332
remote 54326
Protestant 54306
ications 54290
counts 54284
Jac@@ 54283
collective 54272
Thai 54255
Manuel 54248
sexu@@ 54247
1869 54230
CO 54221
sample 54203
spots 54202
mits 54199
esser 54191
Cass@@ 54164
sent@@ 54164
IA 54159
therapy 54141
Child 54131
Robin 54131
Amer@@ 54108
Num@@ 54077
hypoth@@ 54068
parks 54067
coins 54064
1848 54062
Anglican 54053
Wellington 54047
minis@@ 54028
29@@ 54013
Mack@@ 54003
aints 54002
dollars 53990
Protection 53978
jump 53959
adjus@@ 53953
variable 53953
Stage 53943
perspective 53935
versi@@ 53929
Ken 53926
Mod@@ 53920
ão 53913
calend@@ 53909
Broad@@ 53902
Semin@@ 53893
sil 53886
weak 53875
neck 53862
35@@ 53860
reporter 53857
fal@@ 53849
trol@@ 53817
3D 53813
affair 53807
Fir@@ 53804
sley 53799
beetle 53784
tice 53772
Psych@@ 53769
ogen 53767
gauge 53759
æ@@ 53747
Gregory 53736
Bobby 53734
revis@@ 53731
• 53717
Future 53716
geome@@ 53716
tours 53716
Craig 53714
Sid@@ 53706
Ghana 53702
sun 53685
ener@@ 53684
Sir@@ 53664
uss@@ 53661
ry@@ 53657
Stuart 53644
printing 53641
Report 53638
slowly 53632
emotional 53617
Collection 53616
Rod@@ 53615
Administr@@ 53603
coup 53601
restrictions 53594
rum@@ 53591
tol@@ 53585
deser@@ 53583
kir@@ 53578
Former 53571
Will@@ 53570
bly 53569
Mother 53564
promin@@ 53554
da@@ 53544
elder 53539
worst 53539
achi 53528
kov 53515
Workers 53504
encour@@ 53495
Gul@@ 53493
Batt@@ 53487
Larry 53483
laun@@ 53478
mature 53473
Short 53471
berry 53466
sat 53462
Flight 53458
copper 53452
esc@@ 53449
geon 53446
flag@@ 53442
… 53434
alive 53432
decom@@ 53430
Financial 53414
bak@@ 53398
distinction 53386
L.@@ 53379
earn 53376
Guy 53372
Hughes 53363
revolution 53361
egr@@ 53343
root 53327
cutting 53325
tar 53322
oxide 53318
wing@@ 53316
Car 53301
spect@@ 53269
lavery 53253
Contemporary 53252
condi@@ 53245
Mich@@ 53244
atmosphere 53235
Every 53228
ng 53197
Shu@@ 53194
Gilbert 53190
chemistry 53187
prohib@@ 53185
que@@ 53184
distinctive 53146
uns 53134
maps 53129
element@@ 53122
theories 53116
book@@ 53101
ée 53101
lington 53076
ancestr@@ 53075
ocean 53075
ej@@ 53070
collapse 53069
otes 53064
acial 53058
options 53050
inum 53047
Kl@@ 53033
broad@@ 53030
premi@@ 53020
ministers 53012
independ@@ 52992
vival 52991
ester@@ 52981
Venezuela 52972
gap 52963
Bad 52958
tles 52950
clock 52944
binding 52939
iko 52930
14.@@ 52929
enton 52925
wind@@ 52914
imagin@@ 52910
Ira@@ 52902
Harbor 52881
citi@@ 52861
Sz@@ 52852
jer@@ 52851
Commun@@ 52840
Byzantine 52839
Sac@@ 52836
vian 52827
MO@@ 52826
Key 52817
sug@@ 52817
kidn@@ 52806
opped 52797
CDP 52792
clar@@ 52792
ais 52788
Bog@@ 52778
Eagles 52773
Exchange 52767
sugar 52757
recep@@ 52744
retir@@ 52744
icked 52743
1850 52719
waiting 52711
guide 52704
Computer 52693
Han 52680
Sullivan 52678
compu@@ 52673
Playing 52669
benef@@ 52667
scat@@ 52659
enty 52647
Indonesian 52639
Dam 52624
Cast@@ 52609
Hitler 52605
Guardian 52595
Sah@@ 52588
feeling 52583
Tir@@ 52582
aja 52579
uru 52578
bat 52577
Ralph 52566
Ale@@ 52548
vention 52547
graduation 52546
Aviation 52527
Albums 52523
Chanc@@ 52514
ony@@ 52507
intercep@@ 52496
scientist 52482
beam 52477
Run 52472
evil 52465
Next 52451
Vermont 52447
shut 52430
anism 52429
clay 52415
elite 52412
emis@@ 52412
000 52397
By@@ 52390
Environmental 52387
cap 52373
mb@@ 52364
rol@@ 52362
ph 52350
40@@ 52341
Len@@ 52331
descendants 52303
propor@@ 52287
Dennis 52286
functional 52278
potenti@@ 52257
restaurants 52238
Joint 52233
Wy@@ 52233
erian 52232
ares 52226
ERA 52224
try@@ 52198
Montana 52192
ann 52191
Delta 52190
ancer 52173
Provincial 52134
Agriculture 52121
yline 52105
pros@@ 52096
Productions 52090
inter 52088
mari@@ 52087
regulation 52082
compound 52081
Mr 52078
organisations 52077
press@@ 52077
clim@@ 52074
Villa 52072
cat 52055
Prefecture 52047
unk@@ 52043
anus 52029
Sheffield 52025
ando 52022
Swe@@ 52020
Butler 52011
bridges 51989
rian 51983
proced@@ 51962
entation 51961
agan 51960
aic 51954
got@@ 51949
Yugoslavia 51944
rhy@@ 51941
mamm@@ 51935
sequel 51935
ete 51925
ully 51925
à 51924
pt 51912
technologies 51909
altitude 51884
rich@@ 51869
sover@@ 51848
ousness 51835
turer 51824
Steven 51815
Motor@@ 51808
alle@@ 51799
rebo@@ 51797
convic@@ 51790
Artillery 51784
asking 51783
tionary 51769
stem 51763
Kerala 51758
objective 51757
Mach@@ 51738
bey 51732
tes@@ 51726
amin@@ 51713
error 51709
tainable 51707
Berkeley 51706
sket@@ 51699
Oper@@ 51696
accomp@@ 51678
Aut@@ 51674
Treas@@ 51674
comprises 51674
dian 51672
ith@@ 51670
framework 51661
abase 51660
forth 51657
mies 51652
Secondary 51642
wise 51637
tourism 51623
Some@@ 51607
Rat@@ 51597
anim@@ 51590
understood 51577
Ancient 51572
breaks 51571
Small 51554
radical 51521
capita 51520
meter 51496
Leo 51493
eus 51490
ticket 51482
Hill@@ 51477
studios 51475
Pop@@ 51462
Lab@@ 51456
ret 51442
Monday 51434
Yam@@ 51422
eon 51417
ci 51387
bars 51377
meat 51369
Jacques 51363
Friends 51348
dean 51326
ix 51324
rice 51320
Citi@@ 51295
Mathemati@@ 51294
bell 51285
mers 51285
Google 51268
disc@@ 51257
aggregate 51246
installation 51239
aton 51236
E.@@ 51234
turn@@ 51228
ean@@ 51224
Hin@@ 51197
Cabinet 51196
Stanford 51195
Susan 51191
lod@@ 51186
Student 51178
Acc@@ 51163
elia 51158
life@@ 51150
coin@@ 51148
dered 51148
Roosevelt 51144
Ny@@ 51130
eder@@ 51129
suspension 51128
Days 51118
destro@@ 51107
Fall 51089
lon 51088
Gau@@ 51066
Nashville 51065
lord 51058
Motor 51047
Ma 51044
Nig@@ 51043
las@@ 51042
ordin@@ 51031
IT 51025
endum 51018
andal 51009
Equ@@ 51000
Dick@@ 50986
Finals 50984
Shr@@ 50970
difficul@@ 50969
Performance 50957
Mills 50951
exerc@@ 50946
incar@@ 50942
institute 50938
gam@@ 50933
kilom@@ 50933
defender 50932
Interstate 50924
Armed 50919
ku 50917
lar 50916
obi@@ 50893
labour 50884
Ok@@ 50875
Horse 50872
Fres@@ 50871
ask 50871
favorite 50868
ticism 50863
curric@@ 50860
tourist 50854
dering 50843
bel 50830
Saf@@ 50827
angered 50814
spot@@ 50802
sail@@ 50795
conspir@@ 50774
tube 50772
quarterback 50758
asi 50752
collap@@ 50750
alum@@ 50743
shut@@ 50743
ho 50733
petition 50722
ling@@ 50720
set@@ 50720
entic@@ 50717
oblig@@ 50717
stati@@ 50715
news@@ 50712
Vietnam@@ 50711
martial 50709
Cruz 50708
alize 50703
impossible 50695
Sic@@ 50692
oria 50688
structural 50657
External 50653
Kos@@ 50646
usias@@ 50636
enced 50625
metropolitan 50613
pass@@ 50608
Tab@@ 50605
elabor@@ 50587
aces 50581
Watson 50568
Brah@@ 50558
nu@@ 50555
osh@@ 50552
wrong 50538
Intelligence 50537
Methodist 50531
AL 50529
Coll@@ 50529
rap 50520
ambass@@ 50504
exact@@ 50489
procedure 50477
sburg 50476
admir@@ 50470
superior 50461
eps 50447
certific@@ 50444
60@@ 50440
nutri@@ 50439
ticul@@ 50436
Pos@@ 50432
mass@@ 50404
Govern@@ 50373
enship 50372
Holland 50371
Reser@@ 50369
favor@@ 50326
Dame 50319
Af@@ 50318
Coach 50307
Higher 50296
Ron 50281
ques 50272
emigr@@ 50252
Previ@@ 50251
tel 50247
taxes 50241
Starting 50239
plastic 50236
lement 50234
oi 50226
insist@@ 50221
Dream 50220
argues 50219
fish@@ 50211
Rud@@ 50194
BS 50191
Wallace 50177
town@@ 50175
interrup@@ 50153
ified 50148
Beginning 50146
Sony 50135
salt 50128
eign@@ 50108
vulner@@ 50103
agn@@ 50101
cats 50101
kind@@ 50100
PE@@ 50097
archi@@ 50097
Pir@@ 50089
althcare 50084
mach@@ 50080
Box 50071
orph@@ 50051
Cum@@ 50050
ignor@@ 50029
1857 50015
Private 49992
god@@ 49988
Petr@@ 49986
resist@@ 49981
HMS 49975
Lem@@ 49970
zens 49965
Neg@@ 49950
Nich@@ 49929
alan 49926
rus@@ 49919
alp@@ 49906
Commerce 49903
Carl@@ 49901
Wells 49886
1859 49884
abund@@ 49868
20,000 49823
Dra@@ 49817
abstr@@ 49801
Eddie 49799
touchdowns 49792
exemp@@ 49777
cad@@ 49773
ible 49757
oli@@ 49727
Emp@@ 49714
flav@@ 49702
light@@ 49689
parking 49664
bass@@ 49658
IT@@ 49657
public@@ 49645
das 49639
Ivan 49635
MD 49618
Spar@@ 49602
unanim@@ 49602
RT@@ 49598
cali@@ 49592
kinson 49575
emen 49564
loop 49549
fundamental 49548
Pop 49546
Eff@@ 49511
Phillips 49509
MTV 49504
perman@@ 49494
Golf 49490
ort 49484
Mason 49482
pris@@ 49474
ulu 49474
golden 49461
Raymond 49452
DO@@ 49445
wich 49436
compositions 49432
tour@@ 49430
NY@@ 49427
Cold 49423
integration 49422
Map@@ 49416
acon 49403
HL 49401
Yan@@ 49397
Py@@ 49396
best@@ 49389
eri@@ 49382
week@@ 49382
orchestr@@ 49368
sity 49368
Open@@ 49364
garr@@ 49352
umin@@ 49340
Ground 49337
dead@@ 49331
logo 49324
Dro@@ 49318
Rick 49312
aspect 49304
Gothic 49303
kil@@ 49280
Was@@ 49277
Palestine 49275
app 49274
diz@@ 49245
tra@@ 49226
conserv@@ 49224
waves 49213
fus@@ 49206
Ambassador 49199
Fourth 49162
zer 49162
Rol@@ 49139
Ig@@ 49136
CN@@ 49113
engagement 49105
Price 49102
appr@@ 49102
Jon 49089
ender 49085
ovich 49078
Rif@@ 49074
strateg@@ 49074
Railways 49058
eni 49054
Bron@@ 49048
arians 49045
AFL 49031
esty 49026
radar 49026
ilk 49022
Indies 49013
BM@@ 49004
new@@ 48994
Pod@@ 48989
pet@@ 48984
Cir@@ 48983
Bec@@ 48980
manif@@ 48973
serial 48968
variation 48962
toler@@ 48960
stric@@ 48945
bie 48944
Arnold 48936
explan@@ 48923
anthro@@ 48919
erry 48901
victor@@ 48894
ensi@@ 48885
Revolutionary 48873
pig@@ 48852
mond 48844
Down@@ 48835
inks 48812
input 48810
pa@@ 48808
Leonard 48806
tail@@ 48797
secre@@ 48785
LE@@ 48763
Angel 48754
eks 48753
divor@@ 48735
ement@@ 48735
cultures 48734
Tib@@ 48727
pling 48712
Northwest 48704
gene@@ 48704
Literature 48695
coc@@ 48686
Prague 48678
Magic 48677
academ@@ 48671
gift 48658
appoint@@ 48655
eter@@ 48647
enem@@ 48644
Junction 48610
orange 48595
zo@@ 48595
Hob@@ 48593
acre 48581
Leb@@ 48570
Columbus 48561
doctor@@ 48543
aye 48536
Archit@@ 48535
Vin@@ 48534
Economics 48518
puts 48518
Gabriel 48510
Celtic 48500
produc@@ 48492
uts 48461
Grey 48458
Dr 48447
Congo 48432
Newton 48430
rival@@ 48411
Harvey 48409
Grove 48407
handle 48407
Politics 48405
Dy@@ 48402
locomotive 48399
corpor@@ 48396
fung@@ 48396
memor@@ 48395
esters 48393
poll 48391
chec@@ 48390
grap@@ 48389
tec@@ 48383
CR 48364
AN 48356
agon 48350
phi@@ 48317
tiles 48309
olen 48307
ę@@ 48296
Mars 48269
Cze@@ 48268
inals 48266
Die 48263
ashi 48240
Hand@@ 48229
chanc@@ 48219
discrimination 48219
Lac@@ 48213
progressive 48209
aviation 48198
programmes 48173
diesel 48155
igan 48149
ease 48146
Chair 48134
aba 48126
Vid@@ 48118
illo 48117
Prom@@ 48080
icas 48070
con 48066
empire 48062
Tommy 48061
cape 48056
iday 48055
eno 48052
imens 48052
power@@ 48049
bonus 48048
femin@@ 48034
exile 48027
TS 48019
cens@@ 47997
Ng@@ 47994
R.@@ 47987
dir@@ 47968
Abraham 47952
Renaissance 47942
Buck@@ 47939
interaction 47925
Rich@@ 47919
Chang@@ 47912
server 47903
Oscar 47895
bond 47893
Airlines 47879
judicial 47878
insig@@ 47861
Record 47845
prints 47840
Clarke 47835
virtual 47831
ledge 47810
Dum@@ 47808
dimensional 47808
market@@ 47806
Competition 47805
Films 47803
flat@@ 47770
equation 47768
Grammy 47754
É@@ 47736
immigration 47723
Ow@@ 47720
god 47718
artificial 47715
bra 47711
syndrome 47707
aux 47704
gi 47696
familiar 47688
molecular 47674
lit 47664
Fle@@ 47656
8,@@ 47636
Hamburg 47633
som 47624
Wes@@ 47607
Right 47606
Otto 47601
dis 47591
obvi@@ 47573
Vladimir 47570
concepts 47564
fold 47562
Mam@@ 47556
ectiv@@ 47554
isha 47551
Marsh@@ 47536
Weekly 47533
pin 47522
jur@@ 47508
enr@@ 47490
otions 47481
Zi@@ 47457
Phot@@ 47454
keys 47452
Cork 47448
kup 47444
Ball 47439
contribu@@ 47434
universal 47427
chester 47426
planes 47399
ket@@ 47391
ante@@ 47388
aes@@ 47387
1854 47380
perf@@ 47375
Statistics 47374
comics 47364
bot 47363
Sing@@ 47362
Essex 47357
nic@@ 47356
Minor 47352
itarian 47351
iga 47343
icking 47330
horn 47323
enzyme 47322
biology 47316
sciences 47293
Boulevard 47281
Vik@@ 47276
PR 47267
colonies 47258
deli@@ 47258
sar@@ 47248
worthy 47236
urs@@ 47232
Arabia 47204
dw@@ 47193
kal@@ 47185
Tem@@ 47183
Hind@@ 47182
O. 47176
ious 47170
ango 47161
ups 47156
dar@@ 47140
liquid 47140
Ph.D. 47139
trian 47137
culmin@@ 47115
cot 47101
amend@@ 47083
Dragon 47081
pian@@ 47078
aman 47068
Liu 47064
Commercial 47048
Liberty 47047
11@@ 47027
radiation 47024
acht 47018
1855 47008
IP@@ 47007
Ober@@ 47005
segments 46998
min 46988
invol@@ 46980
differenti@@ 46972
ibn 46967
aving 46963
Sett@@ 46952
ideal 46945
Rac@@ 46912
Honor 46911
Hunt 46903
tine 46900
Campus 46886
gan@@ 46881
geograph@@ 46877
annex@@ 46864
solutions 46856
Thi@@ 46850
ā 46850
deliber@@ 46841
Viol@@ 46838
Cameron 46833
Milwaukee 46833
vern 46830
genes 46828
some@@ 46825
centres 46814
prison@@ 46795
PO@@ 46789
denomin@@ 46778
Montgomery 46770
onies 46769
tag@@ 46768
Strateg@@ 46765
Serie 46761
Pearl 46760
transmit@@ 46748
flies 46742
brook 46741
har 46731
Gas@@ 46718
nati@@ 46715
psychology 46712
Stakes 46706
phy 46698
Musical 46665
Fro@@ 46662
Jamaica 46655
lev@@ 46649
oppos@@ 46646
succession 46636
Punjab 46619
king@@ 46585
Perth 46580
Roy@@ 46578
pir@@ 46574
ric 46573
photo 46572
fun 46569
Panama 46567
Gri@@ 46565
manga 46554
abi 46542
sely 46537
discre@@ 46532
infection 46532
intense 46530
Liter@@ 46529
Maurice 46514
prince 46514
consec@@ 46512
venues 46510
Amend@@ 46509
1856 46508
tension 46505
pure 46485
engage 46483
Wolf 46475
veter@@ 46465
Leader 46464
rat 46464
arrive 46462
Outstanding 46457
reverse 46447
cau@@ 46445
requi@@ 46440
missile 46433
inge 46428
Site 46415
cave 46400
IL 46395
esp@@ 46395
resort 46392
Wall@@ 46386
fate 46364
tag 46352
Danny 46350
Data 46340
1858 46337
brid 46327
codes 46320
plac@@ 46312
Hart 46298
sively 46298
Morning 46296
fur 46289
liv@@ 46288
Elementary 46286
adem@@ 46274
employe@@ 46269
exhaus@@ 46266
Cant@@ 46245
Revival 46245
ettes 46239
Shaw 46232
avi 46226
Hop@@ 46223
omb@@ 46217
Joan 46182
Original 46171
Cob@@ 46157
tem@@ 46149
brevi@@ 46146
doctoral 46136
Rolling 46135
Population 46117
dal 46114
icious 46114
Vill@@ 46103
Marvel 46092
Beth@@ 46090
Tradi@@ 46075
ers@@ 46052
Survey 46045
ycle 46034
Main@@ 46033
Bosnia 46031
pref@@ 46021
Bennett 46014
Oakland 46009
graph 46004
AB 45998
Article 45989
Notes 45988
Brunswick 45986
patent 45986
fallen 45979
adil@@ 45968
arena 45960
quiry 45959
15.@@ 45950
Nan@@ 45918
ece 45916
abe 45914
gee 45911
ae@@ 45910
Kot@@ 45897
Pep@@ 45882
Ori@@ 45875
Friedrich 45874
drum 45873
tea 45873
eventual 45872
experts 45851
Laura 45838
tru@@ 45834
Miguel 45827
110 45824
rag@@ 45817
22@@ 45808
H.@@ 45803
Volunte@@ 45794
ego 45791
disorder 45783
ucks 45783
intens@@ 45778
anj@@ 45760
manipul@@ 45743
Greg 45735
AG 45732
Investig@@ 45731
plates 45729
queen 45727
propri@@ 45722
tip 45718
ii 45713
Source 45707
hes@@ 45705
day@@ 45695
model@@ 45685
tissue 45685
catch 45684
Kun@@ 45677
eck@@ 45670
aning 45668
og 45662
aside 45656
tus 45641
pose 45635
awn 45633
Key@@ 45624
venti@@ 45607
protagon@@ 45601
nan 45599
Lithu@@ 45596
hardware 45589
itz@@ 45589
age@@ 45574
frag@@ 45562
dium 45558
last@@ 45553
Georgian 45544
volcan@@ 45539
Spencer 45534
Name 45523
Kab@@ 45488
Van@@ 45479
autobi@@ 45479
Cardinal 45466
dialogue 45459
fantasy 45453
Spirit 45440
animation 45424
Baby 45398
releas@@ 45386
ensu@@ 45385
Non@@ 45368
Ox@@ 45367
ross 45367
wentieth 45358
insky 45337
anz@@ 45311
Forum 45305
oney 45303
inscription 45297
editorial 45292
frac@@ 45282
Mang@@ 45268
tent 45232
Mess@@ 45224
enda 45212
isol@@ 45212
Syn@@ 45208
Academic 45205
Scientific 45204
aliz@@ 45196
eves 45184
Mario 45180
Nin@@ 45176
circulation 45165
ș@@ 45155
magnetic 45154
trad@@ 45153
constr@@ 45147
xi 45138
Stockholm 45133
boxing 45125
asting 45124
lander 45112
Bus 45107
ield 45105
sville 45104
Lost 45088
dict@@ 45081
hair@@ 45067
theore@@ 45065
Stat@@ 45061
Mumbai 45057
destin@@ 45053
acher 45051
Typ@@ 45044
civili@@ 45043
Johann 45040
adj@@ 45037
Wilhelm 45035
Where 45030
agh 45025
101 45021
Bed@@ 45005
anime 45003
kov@@ 44997
Gan@@ 44984
gli@@ 44983
glo@@ 44983
Location 44946
Lib@@ 44944
Spo@@ 44943
noise 44940
Flying 44934
Room 44921
iter@@ 44915
fun@@ 44904
Ras@@ 44901
nec@@ 44895
Shakespeare 44894
cann@@ 44880
Legal 44874
surprise 44874
variations 44874
80@@ 44873
anticip@@ 44863
Louise 44862
Sax@@ 44861
ovo 44861
metric 44850
Foster 44840
Tac@@ 44819
enco@@ 44814
kick 44813
vali@@ 44813
mere 44804
prestigi@@ 44784
1840 44783
Ec@@ 44772
Facebook 44771
itary 44755
agar 44752
Paulo 44749
maj@@ 44748
Kaz@@ 44743
Manila 44743
1851 44734
ini@@ 44728
situations 44704
Liv@@ 44702
alling 44699
pist@@ 44691
AE@@ 44687
lac@@ 44685
AV@@ 44676
matrix 44673
auth@@ 44658
intervention 44658
Penn 44657
refin@@ 44648
index 44646
unded 44633
pad@@ 44626
eption 44621
los 44618
Pakistani 44616
iss 44616
Cuban 44596
switch 44593
dock 44590
Grande 44571
guid@@ 44570
tual 44564
Caval@@ 44552
notice 44547
3.5 44544
ion@@ 44543
freestyle 44528
pyr@@ 44516
D.@@ 44515
Wak@@ 44515
Shan@@ 44501
Uganda 44500
instruction 44496
diam@@ 44495
Carr@@ 44483
ehr@@ 44475
sedi@@ 44474
ecu@@ 44469
Nine 44465
iments 44456
oner 44455
Fur@@ 44450
dream 44449
fos@@ 44444
polis 44439
manufactur@@ 44425
fest@@ 44409
Mac 44387
aa 44386
Mechan@@ 44380
adier 44376
usa 44368
16.@@ 44367
Eagle 44361
PM 44355
aug@@ 44351
onal@@ 44345
divorce 44343
HD 44340
Manager 44337
Bour@@ 44331
unter 44318
Micro@@ 44314
acles 44312
seek@@ 44311
Low 44266
andra 44254
Aaron 44245
François 44237
Rub@@ 44236
Advanced 44234
eath 44224
jan 44224
tains 44210
Blood 44200
Cycl@@ 44193
ineers 44189
umi 44183
releg@@ 44182
prin@@ 44179
eli 44113
urer 44103
Bet@@ 44102
Mobile 44098
Somerset 44096
bound@@ 44092
conductor 44066
oles 44049
Sev@@ 44046
congr@@ 44041
observation 44041
Presbyteri@@ 44039
sin 44039
succes@@ 44038
quest 44034
liner 44030
Continental 44026
triple 44023
Isaac 44022
Tas@@ 44009
amid 43987
.C. 43986
Wildlife 43986
minim@@ 43980
Sean 43978
disper@@ 43976
Laboratory 43969
orium 43966
Gaz@@ 43963
ld@@ 43963
Wild@@ 43958
Individ@@ 43957
boro 43951
Circle 43922
Miss@@ 43922
ido 43915
lide 43906
kies 43905
lateral 43902
pology 43902
pen 43901
distribut@@ 43900
acoustic 43890
Indianapolis 43886
Secret 43877
Lau@@ 43867
Owen 43862
protoc@@ 43862
Call@@ 43857
olo 43856
Voice 43834
Top@@ 43821
anno@@ 43817
agon@@ 43814
Say@@ 43810
p.m. 43810
vent 43800
wake 43783
Sussex 43778
tam@@ 43766
Bom@@ 43763
abr@@ 43750
aler 43750
NASA 43744
Tex@@ 43736
erup@@ 43734
Tennis 43725
adow 43722
tender 43706
icket 43697
Guide 43694
Scotia 43689
Durham 43685
sur 43684
arry 43663
flex@@ 43660
orth@@ 43654
transit 43641
1852 43632
Ted 43632
codice 43628
gif@@ 43627
otion 43627
agr@@ 43624
Multi@@ 43620
RNA 43606
Gardens 43587
Ferr@@ 43582
bran@@ 43582
Ernest 43581
signature 43576
arrangements 43566
Bird 43565
sit 43564
destination 43562
iden 43558
900 43551
Cardinals 43542
Gate 43533
Pass 43520
Sched@@ 43509
Cole 43507
Heights 43507
volleyball 43507
check 43506
Aires 43502
favorable 43500
applic@@ 43496
oid@@ 43482
ä@@ 43482
siz@@ 43481
feder@@ 43478
Environment 43474
Are 43460
clients 43452
rifle 43452
jet 43432
Addi@@ 43427
isc@@ 43426
Buenos 43423
revers@@ 43418
purch@@ 43412
Log@@ 43407
ado@@ 43406
blu@@ 43405
Reading 43401
EC 43397
49@@ 43391
Beg@@ 43390
bour 43384
Fisher 43381
arium 43365
sof@@ 43361
Yu@@ 43359
uted 43353
commun@@ 43324
urn 43320
Ages 43310
Educ@@ 43295
oslov@@ 43290
tut@@ 43285
corps 43284
BI 43269
campa@@ 43268
NR@@ 43239
Sox 43236
Artists 43231
ogr@@ 43231
pow@@ 43230
associations 43180
Mass 43171
Reed 43169
Lithuania 43167
Triple 43164
accus@@ 43159
Rh@@ 43141
audiences 43141
Beau@@ 43126
encourage 43121
ware 43112
Archae@@ 43111
substanti@@ 43109
unions 43108
Mart@@ 43097
axis 43097
Wu 43077
Shak@@ 43075
Pun@@ 43074
preced@@ 43074
optim@@ 43070
volun@@ 43068
ayed 43063
statis@@ 43062
althy 43054
relatives 43037
Gradu@@ 43036
Og@@ 43031
neutr@@ 43016
neys 43009
onder@@ 42983
prises 42977
carto@@ 42973
thum@@ 42973
Let@@ 42970
Rhode 42969
Ray@@ 42968
VII 42963
Kate 42948
Isle 42947
comprom@@ 42947
trio 42928
Bears 42927
west@@ 42926
Westminster 42910
circular 42899
icles 42898
Fun@@ 42891
occas@@ 42891
Knights 42889
suggest@@ 42876
matern@@ 42873
yon 42865
subj@@ 42858
Bill@@ 42850
hic 42836
Nancy 42834
BCE 42833
Hab@@ 42827
Armenia 42824
cord 42821
proper@@ 42818
Lucas 42815
gies 42811
ibil@@ 42802
1853 42786
touch 42776
vector 42774
complic@@ 42768
Aus@@ 42766
citiz@@ 42765
bt 42746
exterior 42739
Kum@@ 42712
Terr@@ 42700
locks 42696
Stand@@ 42693
Lad@@ 42686
diction 42672
iles 42672
Ach@@ 42667
Hag@@ 42655
Cran@@ 42648
Transit 42641
Teams 42640
Exper@@ 42635
Rovers 42617
lab 42612
Son 42606
anes 42587
Todd 42570
systemati@@ 42566
Justin 42557
Human@@ 42552
ein@@ 42523
icity 42515
Mic@@ 42511
spre@@ 42504
ont 42476
Lav@@ 42473
Newport 42455
Vent@@ 42452
Abr@@ 42444
ín 42442
Buch@@ 42437
AG@@ 42429
bis@@ 42418
Steel 42417
lip@@ 42417
identification 42414
17.@@ 42413
ois 42409
Tampa 42403
theorem 42388
Rice 42378
Cit@@ 42367
uter 42367
Morocco 42359
Gos@@ 42353
Copenhagen 42351
130 42347
wire 42342
Slo@@ 42324
Honor@@ 42323
Iv@@ 42322
aly 42317
Lif@@ 42307
hik@@ 42304
Salt 42303
AFC 42302
disciplin@@ 42297
gestion 42293
enne 42288
Stan@@ 42287
Fam@@ 42281
Block 42279
traf@@ 42272
isi 42266
Marc 42238
lus@@ 42236
pale 42232
Drama 42231
cover@@ 42221
hips 42219
liamentary 42216
continent 42205
Writ@@ 42198
Radi@@ 42197
prototype 42193
4,000 42185
Compan@@ 42175
Hindi 42173
Fitz@@ 42168
uf@@ 42161
Lancashire 42132
ras 42100
Sky@@ 42094
mollus@@ 42090
uan 42090
1849 42083
Chester 42060
Suc@@ 42058
Shin@@ 42057
Squ@@ 42037
itus 42036
edr@@ 42013
Prus@@ 42012
Pat 42007
edings 42005
nal 41999
Bh@@ 41992
alog@@ 41990
immun@@ 41987
erg@@ 41986
Hurricane 41985
Concer@@ 41983
elds 41980
Parks 41976
anta 41971
Aur@@ 41965
Diamond 41955
valid@@ 41950
Franco 41940
Palmer 41927
scholar@@ 41911
appen 41910
receiv@@ 41908
Bis@@ 41879
util@@ 41858
owski 41841
Ahmed 41840
Rob 41836
ista 41835
verl@@ 41831
lux@@ 41827
PR@@ 41826
50,000 41815
ocy@@ 41808
Oil 41794
Autom@@ 41789
gramm@@ 41787
Ric@@ 41786
perform@@ 41783
ank@@ 41781
Fighter 41780
Safety 41771
crimin@@ 41764
Idaho 41758
I.@@ 41741
wright 41731
dispos@@ 41723
rent 41723
Davies 41717
eb 41712
istan 41681
Luth@@ 41671
Cros@@ 41647
chants 41646
Dog@@ 41640
okes 41638
prelimin@@ 41631
Chen 41627
Zo@@ 41627
egg 41624
elers 41623
Dig@@ 41619
Ring 41618
Care 41614
confron@@ 41613
Jay@@ 41607
audi@@ 41604
Plant 41596
Cyprus 41595
reduc@@ 41590
Game@@ 41589
register 41581
alar@@ 41567
Agre@@ 41566
ó 41556
Lisa 41529
Oak 41525
Maur@@ 41516
prise 41514
restore 41501
interface 41493
toral 41485
Tag@@ 41474
mini 41468
Stevens 41459
colonel 41457
pino 41447
NH@@ 41446
dition 41440
pseud@@ 41430
esque 41425
VA 41424
Yang 41424
wash@@ 41423
ark 41421
syndic@@ 41421
Brussels 41415
Malta 41413
East@@ 41412
temper@@ 41401
Events 41398
consultant 41394
wet 41390
Ferdinand 41385
Mug@@ 41384
ventures 41373
grou@@ 41372
Box@@ 41366
Chelsea 41365
Emb@@ 41365
SE 41362
ö@@ 41360
atis@@ 41352
1847 41347
Pain@@ 41324
Ruth 41317
Annual 41310
hier@@ 41308
iders 41286
eda 41283
unter@@ 41280
ichi 41276
nut 41267
Sle@@ 41262
Tun@@ 41251
quot 41248
Giovanni 41236
Gall@@ 41235
consul@@ 41233
Sr. 41231
Canterbury 41230
Aub@@ 41226
chy 41197
messages 41197
Net@@ 41190
enjoy@@ 41184
tropo@@ 41176
enburg 41166
insp@@ 41160
trouble 41160
pies 41146
ecraft 41137
rever@@ 41137
ferry 41135
danger 41130
Santiago 41119
lfriend 41118
ig 41110
rage 41103
plication 41075
dess 41074
ī 41071
elic 41066
Soul 41043
{ 41038
Still 41037
ander@@ 41031
Living 41019
hap@@ 41009
201@@ 41007
Peak 41007
Um@@ 41004
aper 41000
entity 41000
mati@@ 40994
Rag@@ 40986
ili 40963
Guang@@ 40959
circum@@ 40951
HIV 40938
Town@@ 40935
persist@@ 40935
kan@@ 40923
IX 40921
ë@@ 40919
array 40908
modi@@ 40907
rapper 40904
adows 40901
hu 40892
Evangel@@ 40883
Napoleon 40869
tal 40863
hs 40853
mentions 40827
Burn@@ 40822
consensus 40786
atha 40775
ovsky 40773
Lot@@ 40772
gest@@ 40769
nitr@@ 40752
automati@@ 40750
Artist 40736
attr@@ 40727
ano@@ 40715
engag@@ 40712
comb@@ 40705
Marri@@ 40692
oci@@ 40659
Saskatchewan 40637
Armstrong 40629
š 40628
diver@@ 40626
Estate 40620
tham 40620
devast@@ 40610
larv@@ 40606
revi@@ 40583
Left 40571
telec@@ 40569
porters 40567
Queens 40557
Cardiff 40543
algeb@@ 40537
Machine 40535
uly 40525
Fernando 40520
haw@@ 40513
Ses@@ 40511
ption 40503
factor@@ 40491
Twitter 40484
sar 40472
rew@@ 40469
tale 40464
oshi 40454
Chapter 40447
outh 40447
configuration 40444
Princeton 40431
camer@@ 40411
Franz 40410
boy@@ 40409
etes 40409
imen 40406
inus 40406
Sag@@ 40402
Wednes@@ 40400
Cou@@ 40394
quantum 40394
Sabha 40392
vertebr@@ 40391
aco 40389
doubl@@ 40381
CF@@ 40378
rh@@ 40377
corn 40370
conten@@ 40364
trop@@ 40354
Marcus 40340
Actor 40324
Berg@@ 40321
ather@@ 40320
Solomon 40304
definiti@@ 40299
CR@@ 40295
bery 40284
Far 40281
eses 40276
igu@@ 40276
cataly@@ 40268
Interior 40247
1846 40209
esday 40191
odes 40186
Emma 40183
Belgrade 40181
Powell 40166
permit 40166
IF@@ 40165
Spr@@ 40158
supporter 40148
Holmes 40145
ister@@ 40142
stic 40141
.. 40134
alumin@@ 40133
Rut@@ 40132
ime 40131
Dynasty 40125
Page 40111
Geneva 40101
ember 40100
torn@@ 40098
vor@@ 40087
temples 40084
Total 40076
voyage 40074
ram 40068
coinc@@ 40060
Hull 40030
big@@ 40025
esian 40023
pan 40021
BE 40020
Tiger 40019
Arm@@ 40015
neutral 40011
100@@ 39988
custo@@ 39985
Republic@@ 39983
aut 39982
aji 39971
intendent 39966
Bac@@ 39964
Chin@@ 39964
HF 39962
territorial 39945
Dep@@ 39941
fiel@@ 39938
inary 39938
ator@@ 39932
Work@@ 39929
muscle 39898
meas@@ 39890
Nintendo 39880
urb@@ 39876
Bod@@ 39873
ried 39864
Zhang 39857
Peter@@ 39848
Pete 39847
1,0@@ 39831
WA 39827
Ellis 39814
Amateur 39812
II@@ 39812
vi 39803
stown 39801
Kingston 39784
Aff@@ 39783
beer 39772
vie@@ 39764
tiz@@ 39756
Pent@@ 39750
aca 39750
enko 39736
imental 39728
Tin@@ 39722
FO@@ 39714
Popular 39709
Without 39709
Crim@@ 39706
ST 39703
alog 39703
bee 39687
afts 39686
Bradford 39680
Cub@@ 39677
corporation 39673
lett 39670
esa 39655
tary 39647
cogni@@ 39641
membrane 39631
icus 39630
noble 39629
genous 39610
Double 39596
Lis@@ 39595
blues 39590
infr@@ 39585
phones 39580
interactions 39566
ridor 39563
amo 39559
Engineers 39558
duction 39556
XI 39555
eur@@ 39546
eze 39538
18.@@ 39520
ś@@ 39515
Fifth 39511
kilome@@ 39507
Sudan 39490
Seg@@ 39482
Java 39480
utor 39477
Albania 39474
Relations 39460
Ton@@ 39458
define 39448
Desert 39445
Yellow 39438
Freder@@ 39434
9,@@ 39430
Leon@@ 39412
carp@@ 39404
Lodge 39400
Woods 39390
super 39377
Simpson 39359
olly 39341
rine 39339
gor@@ 39331
Distinguished 39324
Herald 39324
rog@@ 39317
Harr@@ 39313
PP@@ 39309
ME 39304
testimon@@ 39301
Bhar@@ 39294
PlayStation 39280
LC 39268
DF 39267
Lic@@ 39256
33@@ 39254
NATO 39251
nt 39242
Ronald 39241
etto 39239
ider@@ 39238
imag@@ 39233
gin 39225
oss 39224
oks 39221
ław 39217
testi@@ 39211
Again 39209
ache 39203
Film@@ 39197
aughter 39190
client 39186
discipline 39166
SN@@ 39163
Tree 39162
ris 39158
metabol@@ 39155
Tat@@ 39152
Advisory 39150
Manitoba 39145
\ 39140
Pre 39137
Andrews 39125
nam 39116
criptions 39104
Speed@@ 39101
inser@@ 39093
acu@@ 39089
FBI 39067
appl@@ 39063
hous@@ 39063
modern@@ 39057
Recording 39050
reloc@@ 39040
Comedy 39032
verses 39027
Us 39026
shap@@ 39022
lars 39018
reconstruction 39013
Julian 39009
Command@@ 38996
20.@@ 38989
IBM 38983
1812 38949
yu 38944
erst@@ 38931
Proper@@ 38925
casting 38903
prefer@@ 38898
fusion 38890
fix 38887
attraction 38882
terrain 38879
feld 38871
peer 38869
FF 38861
Steph@@ 38855
Julia 38833
1830 38823
SI@@ 38823
Territ@@ 38822
approxim@@ 38814
zones 38800
Wind 38799
ism@@ 38798
mel 38794
Basin 38787
Fut@@ 38787
institut@@ 38787
uni 38783
Cath@@ 38772
AI 38755
Brooks 38749
oric 38741
alisation 38740
DE 38732
apa 38732
Mid 38727
Return 38726
eville 38722
steri@@ 38720
1845 38716
oun 38712
Eight 38708
Eugene 38705
Adri@@ 38694
Jag@@ 38691
Anton@@ 38686
yright 38673
Publishing 38666
Rest@@ 38664
explosion 38646
LGBT 38635
Brad@@ 38623
Abdul 38622
islature 38621
180 38606
accumul@@ 38604
Tus@@ 38600
Caroline 38593
uit 38589
stal@@ 38583
hire 38578
Andr@@ 38575
23.@@ 38570
Plaza 38567
Connor 38560
tional@@ 38555
Duncan 38553
eka 38547
Complex 38546
vot@@ 38543
125 38542
tise 38539
Kenneth 38534
tu 38532
Memphis 38531
Pau@@ 38525
bacteria 38523
part@@ 38516
survi@@ 38499
Lakes 38498
Official 38492
bud@@ 38492
believ@@ 38487
Legion 38485
uel@@ 38484
Chase 38451
observations 38442
dad 38438
Critics 38430
exec@@ 38430
ematic 38422
Philosophy 38418
Chal@@ 38416
emble 38416
stell@@ 38414
Shah@@ 38412
portraits 38406
aran 38405
Colonial 38404
arbitr@@ 38402
xy 38399
Tang 38386
avo@@ 38386
mph 38385
regard@@ 38384
Against 38373
Nation@@ 38373
erson 38370
grain 38368
ML@@ 38365
shock 38360
kel 38358
oro 38320
eston 38317
pent@@ 38312
Universe 38310
Arsenal 38308
thm 38302
Number 38300
tran@@ 38294
moon 38291
sible 38287
Allan 38286
absolute 38275
Ast@@ 38271
iner 38265
intern@@ 38261
explore 38255
P.@@ 38233
amer 38230
acet@@ 38225
Get 38213
resur@@ 38213
Emily 38210
Rabbi 38206
divid@@ 38201
hav@@ 38201
tium 38189
Am 38179
Surrey 38175
Amazon 38171
symb@@ 38165
congres@@ 38152
s. 38151
incidents 38148
AIDS 38143
ede 38133
circ@@ 38125
transformation 38110
Course 38108
Edition 38106
transfer@@ 38103
wery 38095
Henri 38093
Itali@@ 38091
Glen 38086
Bryan 38080
1800 38072
emes 38070
excit@@ 38070
Gibson 38068
orian 38058
Cow@@ 38045
genera 38044
ife 38041
sers 38039
snow@@ 38034
Park@@ 38031
nose 38031
tril@@ 38027
surfaces 38017
doctrine 37997
hero@@ 37996
ycl@@ 37993
wen 37989
Alb@@ 37976
anne 37959
compensation 37959
bon@@ 37953
Midd@@ 37952
marg@@ 37952
Sang@@ 37945
45@@ 37944
Estonia 37942
selec@@ 37942
dense 37918
ensemble 37918
cos 37910
Calgary 37908
Episcopal 37888
bacteri@@ 37857
imming 37856
magnitude 37855
Lec@@ 37854
Bau@@ 37852
19.@@ 37848
habitats 37844
paras@@ 37827
tit@@ 37825
Leon 37821
Reform 37817
Shir@@ 37816
attitude 37814
Moun@@ 37805
Michel 37800
Richardson 37791
HC 37781
prosper@@ 37778
figur@@ 37772
MLB 37770
Lucy 37768
Actress 37757
usion 37747
servant 37744
Blake 37740
ication 37736
ú@@ 37724
pith@@ 37722
BL 37721
Chor@@ 37717
Colin 37712
sha 37694
Sik@@ 37676
pack 37673
Hart@@ 37668
escu 37658
wns 37657
Brow@@ 37656
Leslie 37647
Fern@@ 37645
Iceland 37640
bos@@ 37635
Bailey 37628
adoption 37623
Rou@@ 37618
Progressive 37607
Angels 37592
wn@@ 37584
auto@@ 37582
Kay 37580
Frankfurt 37562
Study 37543
Off 37539
penetr@@ 37539
Prac@@ 37536
mises 37536
1837 37533
introduce 37533
Sas@@ 37531
eson 37522
Capitol 37515
Dh@@ 37500
Til@@ 37497
song@@ 37496
Deep 37493
Josh 37485
starter 37475
kel@@ 37470
necess@@ 37448
utions 37443
vent@@ 37443
gian 37427
Rep@@ 37424
clu@@ 37418
sbury 37416
lyr@@ 37415
Alpha 37413
profession 37394
uta 37381
mart@@ 37378
inners 37372
tern 37368
Def@@ 37356
oter 37347
Jes@@ 37338
Riv@@ 37332
balls 37330
Frank@@ 37329
Sex@@ 37327
asy@@ 37323
navig@@ 37319
process@@ 37316
moments 37315
Rachel 37314
ju 37300
offs 37299
mom@@ 37298
CT 37297
bet@@ 37295
Sevent@@ 37293
nian 37289
Regular 37285
manual 37279
Bradley 37273
Henderson 37267
aur 37265
Resources 37251
Clo@@ 37247
ting@@ 37226
Yor@@ 37221
photos 37219
Brighton 37218
patron 37217
Fig@@ 37215
polog@@ 37211
Chap@@ 37199
marri@@ 37197
Aircraft 37196
25.@@ 37173
24.@@ 37163
34@@ 37162
receptor 37160
Traf@@ 37159
Bull 37146
Lag@@ 37146
succ@@ 37144
wet@@ 37144
leys 37139
nic 37132
exploration 37131
Stein@@ 37124
Call 37123
archit@@ 37119
Cox 37112
Wind@@ 37104
vous 37104
WWE 37103
Plymouth 37098
Edmund 37090
preval@@ 37090
smith 37089
botan@@ 37088
spann@@ 37079
argue 37072
Stock 37071
teri@@ 37067
Fish 37064
sad@@ 37063
1500 37057
proph@@ 37053
Agricul@@ 37049
enna 37049
36@@ 37044
CP 37042
Gy@@ 37038
nific@@ 37030
Adv@@ 37026
hou 37022
EC@@ 37019
Robertson 37019
oka 37017
Kad@@ 37013
ater@@ 37013
demol@@ 37004
cham@@ 37002
Eurovision 36989
brid@@ 36981
ank 36976
fers 36972
CM@@ 36968
Quali@@ 36966
rotation 36964
Notre 36938
boss 36933
cardi@@ 36931
Flor@@ 36925
vas@@ 36916
uri@@ 36909
dedic@@ 36894
Gill@@ 36891
fin 36867
Inter 36865
otive 36864
Liberation 36855
bine 36855
Smo@@ 36854
hir 36848
polic@@ 36841
skul@@ 36840
m. 36837
Crus@@ 36835
ape 36822
Bloom@@ 36815
thi 36814
eal 36813
mort@@ 36791
pod@@ 36774
faction 36768
Cli@@ 36766
amine 36759
Ind@@ 36745
Support 36732
350 36727
eval 36724
Curtis 36699
inae 36696
ix@@ 36693
Vij@@ 36686
att 36683
Tyler 36667
1841 36643
manufacture 36642
restric@@ 36632
McC@@ 36626
cav@@ 36625
Stock@@ 36617
Gel@@ 36596
pink 36596
Saxon 36591
igns 36576
heter@@ 36574
istr@@ 36560
Achiev@@ 36553
them@@ 36552
Oslo 36547
Bang@@ 36544
27.@@ 36524
confusion 36523
Brien 36522
ij@@ 36512
Nathan 36510
eff@@ 36505
140 36500
onne 36497
tide 36496
María 36490
Staf@@ 36490
WW@@ 36477
Edmonton 36476
Amy 36469
Claude 36468
ecture 36465
sab@@ 36464
SU 36458
Cov@@ 36457
2.0 36455
adver@@ 36455
Windsor 36447
prol@@ 36446
70@@ 36407
1.2 36401
ocene 36401
tible 36399
one@@ 36389
massacre 36383
uld 36383
1844 36371
orientation 36370
Porter 36366
ims 36363
Coc@@ 36341
6,000 36340
constant@@ 36328
olf 36328
integral 36326
Bonn@@ 36322
Preston 36317
Him@@ 36302
physi@@ 36302
sch 36288
infin@@ 36279
princ@@ 36276
Naples 36269
perio@@ 36249
tables 36249
Slovenia 36240
itude 36236
quet 36232
Mong@@ 36231
Globe 36227
VIII 36220
stick 36216
iny 36211
circul@@ 36204
Orlando 36203
ecti@@ 36203
torp@@ 36199
Cla@@ 36192
genres 36191
Religi@@ 36190
ega 36186
ommun@@ 36183
Eve 36181
emia 36179
omo 36172
Physics 36169
1838 36153
coin 36133
Jun@@ 36130
Canyon 36127
Impact 36109
Nadu 36106
numer@@ 36094
ologi@@ 36093
logic 36083
elles 36073
bold 36066
insula 36065
Reynolds 36056
Lyon 36055
fa 36055
log 36050
ugu 36040
sex@@ 36031
26.@@ 36028
hen@@ 36023
kat@@ 36023
Arc@@ 36022
Buddh@@ 36002
brig@@ 36002
Mā@@ 36001
Bear 35997
Principal 35990
streaming 35990
stopp@@ 35987
tian 35983
lem 35980
Jose@@ 35979
subordin@@ 35979
Las@@ 35977
ago@@ 35973
glu@@ 35971
1836 35969
Burton 35966
Hall@@ 35957
kni@@ 35953
ination 35948
inist 35946
ec 35937
Ele@@ 35917
Chand@@ 35914
IR@@ 35912
cryp@@ 35909
tens 35908
Pack@@ 35907
Associ@@ 35905
unif@@ 35900
Lon@@ 35898
Electoral 35897
irt 35896
Establ@@ 35883
Copa 35881
athi 35868
Ahmad 35865
GA 35860
tended 35860
stic@@ 35857
sm 35856
GP 35842
lag@@ 35834
complex@@ 35832
ū 35831
Milton 35822
Bond 35821
pedi@@ 35819
berger 35816
elin 35807
uh@@ 35800
Blan@@ 35797
fen@@ 35796
Being 35779
joint@@ 35769
Sap@@ 35768
Emmy 35766
Quar@@ 35763
cer 35762
Inn 35747
inos 35740
Jas@@ 35733
dimin@@ 35732
finale 35709
ron 35703
Albany 35701
Path@@ 35701
consid@@ 35693
ancement 35685
1839 35674
Thur@@ 35674
Rein@@ 35671
avail@@ 35671
Sisters 35670
stere@@ 35669
apy 35665
Monte 35653
enzie 35643
Fraser 35642
Discovery 35639
Leh@@ 35622
aze 35617
Religion 35613
Kumar 35605
uka 35603
Dog 35602
discussions 35597
instructions 35586
och 35573
par 35570
Belfast 35565
horizontal 35565
thriller 35553
Boeing 35552
Gab@@ 35540
SM@@ 35536
Wyoming 35528
icial 35527
Tropical 35526
supre@@ 35523
cen@@ 35511
legend@@ 35500
trick 35500
telev@@ 35496
Fron@@ 35485
gradu@@ 35477
organize 35470
Compar@@ 35457
Harbour 35457
rav@@ 35455
icul@@ 35452
Feder@@ 35447
Warriors 35446
Hed@@ 35439
bits 35428
deteri@@ 35425
lis@@ 35424
compact 35421
stead 35418
betr@@ 35412
gic 35411
Flam@@ 35410
Spir@@ 35395
Halifax 35392
anthrop@@ 35389
Cornwall 35386
Hopkins 35382
Lead@@ 35381
quer@@ 35381
Near 35380
Ax@@ 35378
ero@@ 35372
Coalition 35368
McDonald 35360
uki 35358
Peri@@ 35345
unger 35333
Meth@@ 35326
gar 35325
Fon@@ 35316
Gang@@ 35314
feminist 35310
37@@ 35300
Miles 35296
honor@@ 35284
Burns 35271
electr@@ 35266
Classical 35252
atics 35252
innoc@@ 35248
hub 35227
contribut@@ 35217
mar 35211
vey 35210
Aj@@ 35207
gia 35203
sia 35203
hyp@@ 35196
ricane 35181
F.@@ 35175
ennium 35170
event@@ 35165
dimensions 35160
SW@@ 35158
therap@@ 35134
uli 35134
Grim@@ 35127
ritual 35127
Afgh@@ 35121
Herzegovina 35120
crucial 35112
folio 35107
Got@@ 35094
dramati@@ 35093
lance 35075
proportion 35075
38@@ 35067
cio 35064
1842 35054
Guild 35052
vis 35052
Ou@@ 35043
Crystal 35038
Hos@@ 35037
iv 35029
inda 35015
hun@@ 35014
Kann@@ 35009
amba 35003
amy 34995
Voc@@ 34993
Devon 34990
foss@@ 34986
Pac@@ 34940
rehabilit@@ 34937
veloc@@ 34933
Kosovo 34932
color@@ 34923
convo@@ 34917
Case 34916
cum@@ 34914
Wid@@ 34909
eti 34904
German@@ 34902
contamin@@ 34899
confin@@ 34896
Cohen 34883
coupl@@ 34868
André 34853
Reid 34851
Portsmouth 34842
respond@@ 34832
deploy@@ 34831
Southwest 34819
360 34813
Esp@@ 34813
21.@@ 34809
Springfield 34809
cycles 34809
bout 34805
sculptures 34785
Hak@@ 34784
compatible 34777
Istanbul 34773
Kus@@ 34765
ilar 34763
és 34760
Working 34751
oux 34749
isons 34747
1832 34746
Depression 34744
Criminal 34731
GO@@ 34726
GP@@ 34726
ID 34718
Bish@@ 34716
Č@@ 34705
neces@@ 34703
oko 34690
angers 34685
Kul@@ 34684
4.5 34682
frustr@@ 34681
Brook 34680
22.@@ 34667
frequ@@ 34650
Cinema 34636
illon 34634
Fellowship 34626
Insur@@ 34626
cher@@ 34624
Lun@@ 34622
Rosa 34610
Andrea 34607
Glen@@ 34607
Rah@@ 34586
gly@@ 34584
hist@@ 34584
ATP 34580
Sr@@ 34579
gio 34579
Inc@@ 34573
Alexandria 34569
borg 34569
TO@@ 34568
juven@@ 34565
ca@@ 34560
gent@@ 34559
Anim@@ 34552
Macedonia 34552
Train 34548
Imag@@ 34546
Indo 34542
fortune 34540
Ced@@ 34536
gage 34526
azi 34513
gres@@ 34513
VC 34512
Snow 34508
200@@ 34506
Salvador 34506
Recre@@ 34501
vital 34499
Martha 34493
bic 34493
reper@@ 34493
1835 34488
Writers 34482
Dut@@ 34465
Carlo 34454
Spider 34435
cle 34432
Movie 34417
Garr@@ 34409
Lords 34406
Software 34393
commerce 34387
Wis@@ 34384
cha@@ 34371
zar@@ 34354
Baltic 34344
Ish@@ 34340
com 34336
188@@ 34334
orum 34324
nu 34322
wait 34316
theor@@ 34314
1843 34313
etal 34306
Web 34297
Docum@@ 34292
Mov@@ 34288
nit@@ 34281
Physical 34280
Gw@@ 34279
Wool@@ 34279
industri@@ 34267
Arctic 34261
oval 34244
eleg@@ 34238
inger@@ 34228
temp@@ 34218
Enter@@ 34213
Change 34197
propaganda 34194
arguments 34191
Bath 34187
Mau@@ 34186
oscop@@ 34185
hir@@ 34182
Zimbabwe 34181
imo 34178
endra 34173
museums 34170
Lancaster 34164
Harper 34162
19@@ 34144
Gros@@ 34130
ayn@@ 34130
lug@@ 34129
ingu@@ 34117
NC 34110
uti@@ 34105
hil@@ 34104
Hell 34090
Neigh@@ 34088
Ethiopia 34082
aked 34080
Associate 34076
Publications 34076
160 34072
gol@@ 34061
minimal 34056
ysis 34046
excell@@ 34041
Linda 34025
Rochester 34023
Contest 34017
assur@@ 34016
Hugo 34013
achers 34009
LO@@ 33991
CIA 33986
Rog@@ 33985
Silva 33983
HS 33981
Juli@@ 33980
Pand@@ 33974
Rivers 33968
uro 33962
Sheriff 33955
Journ@@ 33950
ify 33947
immer 33934
30,000 33931
Chel@@ 33920
Theodore 33920
distribu@@ 33920
glaci@@ 33916
Judi@@ 33914
icker 33905
FK 33904
atta 33900
Big@@ 33890
etan 33882
photograph@@ 33882
Fish@@ 33880
exam@@ 33873
ats@@ 33868
Taxonom@@ 33854
Bros. 33846
Jennifer 33834
Factory 33832
tivities 33832
stan 33821
Pay@@ 33818
Mercury 33813
Dag@@ 33797
Gru@@ 33795
quali@@ 33795
princip@@ 33793
8,000 33782
alam 33776
sponsor 33773
pollution 33755
Ellen 33751
sponsor@@ 33744
NASCAR 33742
PL@@ 33732
Faith 33724
Nacional 33723
bull 33720
Vale 33716
acular 33716
Rhine 33714
ool 33693
mobil@@ 33684
Sever@@ 33681
28.@@ 33677
Lyn@@ 33677
gel@@ 33676
cep@@ 33674
ornam@@ 33665
aceu@@ 33663
Testament 33653
Inside 33647
TE 33632
Kid@@ 33630
Morrison 33629
olled 33629
sures 33629
Lud@@ 33615
Haven 33614
Ecuador 33608
icle 33605
endant 33601
opath@@ 33596
rad@@ 33596
notori@@ 33595
ente 33594
cial 33590
Single 33582
Jesse 33579
Santos 33573
Guil@@ 33569
UC 33569
Archi@@ 33562
Excell@@ 33560
ilo 33560
Gill 33554
oxid@@ 33549
plantation 33549
mineral 33545
wav@@ 33530
Chess 33527
substance 33526
Moses 33524
electron 33502
affirm@@ 33500
SD 33490
Contro@@ 33466
batteries 33458
GT@@ 33441
Devil 33438
Khar@@ 33437
Clem@@ 33434
lds 33423
jiang 33419
tili@@ 33413
Wagner 33401
triang@@ 33391
Self 33368
Monroe 33356
Seoul 33356
point@@ 33352
akers 33346
Chuck 33344
Dj@@ 33334
Sweet 33328
BO@@ 33314
opp@@ 33314
fier 33308
Audi@@ 33294
Lynn 33284
milit@@ 33269
kon@@ 33268
initiatives 33259
diagn@@ 33249
etime 33247
Store 33242
Online 33238
sus 33238
Churchill 33237
vil 33232
EM@@ 33230
Koh@@ 33228
profess@@ 33221
navigation 33208
Luxembourg 33205
kham 33201
Never 33195
Salem 33188
Lion 33179
millions 33177
innovation 33173
ør@@ 33170
Gerald 33169
inas 33168
wen@@ 33167
Kyle 33163
icon@@ 33157
Manor 33152
Watch 33143
augh 33135
transl@@ 33132
institu@@ 33120
opping 33106
chim@@ 33103
fier@@ 33099
ael 33098
National@@ 33095
eros 33089
iven 33068
chlor@@ 33066
Hawai@@ 33064
bike 33061
Secre@@ 33059
Differ@@ 33051
Congreg@@ 33036
Access 33031
ESPN 33025
extraordin@@ 33015
mug@@ 33000
onym@@ 32998
Rai@@ 32996
Maritime 32994
Now@@ 32986
Class@@ 32963
Dul@@ 32962
quart@@ 32956
View 32954
11,@@ 32946
amph@@ 32943
Web@@ 32942
mud 32932
gamb@@ 32926
Lines 32922
Swan@@ 32922
DR 32916
Euro 32916
Apollo 32905
bourne 32904
aspir@@ 32902
Glenn 32888
Level 32886
ebr@@ 32881
glob@@ 32879
Fem@@ 32870
Than@@ 32855
Gav@@ 32851
Algeria 32843
Ve@@ 32838
invitation 32823
Islam@@ 32814
indi@@ 32812
Banks 32810
Marx@@ 32808
kab@@ 32797
Nord@@ 32787
enor@@ 32786
inga 32786
Edgar 32779
mig@@ 32777
VI@@ 32768
Style 32766
Pom@@ 32759
Forbes 32755
Ulster 32755
lah 32726
fut@@ 32716
romance 32710
hai 32707
Ja@@ 32706
zy 32706
beg@@ 32705
Jon@@ 32704
assist@@ 32702
GB 32697
Bug@@ 32686
ps@@ 32685
Julius 32683
landers 32672
Winnipeg 32671
Heaven 32664
Inspec@@ 32655
Full 32652
www.@@ 32652
altar 32645
Prussia 32644
aller 32639
monuments 32639
lanes 32632
Vor@@ 32630
riers 32630
Hund@@ 32619
Manufac@@ 32616
SH@@ 32610
105 32599
zhou 32599
na@@ 32587
Gujar@@ 32584
tism 32582
alco@@ 32580
isti@@ 32579
lau@@ 32575
anos 32572
Barnes 32564
dul@@ 32554
notion 32554
Crow@@ 32551
skir@@ 32548
fic 32545
Yar@@ 32541
Te 32527
antic 32522
hide 32517
Austr@@ 32504
Richards 32497
intensi@@ 32495
ear 32492
assis 32478
eign 32477
Meh@@ 32476
persec@@ 32472
Rocky 32456
² 32449
Industries 32445
Carol 32442
Money 32440
parall@@ 32436
appropri@@ 32430
ologies 32430
1815 32427
brut@@ 32423
dice 32412
rectangular 32410
estan 32409
Gene 32408
Prison 32397
atur@@ 32396
apart@@ 32394
0.5 32392
stoc@@ 32392
onial 32391
immig@@ 32358
Tru@@ 32356
Myanmar 32353
enza 32348
T.@@ 32347
RI 32346
SL@@ 32340
Slovakia 32339
bab@@ 32338
inspec@@ 32330
Bronze 32326
sper@@ 32325
Rand@@ 32320
otypes 32304
Veter@@ 32302
Mann@@ 32298
Chur@@ 32296
bye 32292
Del 32290
parade 32282
Hayes 32281
ifer@@ 32280
Marion 32272
fund@@ 32268
Boul@@ 32260
polit@@ 32237
Cornell 32231
Mans@@ 32229
Neill 32216
AE 32213
accident@@ 32213
Rich 32210
Annie 32207
Yankees 32199
cig@@ 32196
Come 32193
diplomat 32192
passion 32185
Antarctic 32183
Europ@@ 32174
SH 32167
pois@@ 32167
aven 32166
Coch@@ 32165
vas 32156
Elev@@ 32148
Hend@@ 32148
disk 32146
Lap@@ 32144
chin@@ 32143
ochem@@ 32141
Pick@@ 32140
toon 32140
Superior 32138
tir@@ 32137
Leicester 32130
Frances 32125
Louisville 32124
Grammar 32111
Kids 32109
Mine 32109
Marqu@@ 32107
Inf@@ 32104
Johnston 32100
cock@@ 32097
Oli@@ 32093
privileg@@ 32090
Sign@@ 32083
rend@@ 32063
Week@@ 32059
Conserv@@ 32048
Table 32041
Constantinople 32028
t. 32028
Raz@@ 32026
Jake 32017
onau@@ 31990
Thr@@ 31974
Elliott 31972
Nobel 31969
Put@@ 31955
Cat 31953
UFC 31943
blan@@ 31943
Raiders 31938
aristoc@@ 31933
had@@ 31931
SI 31930
Ballet 31925
Picture 31925
osph@@ 31914
Fighting 31905
Rang@@ 31904
Alex@@ 31898
refuge 31894
Marco 31893
Hous@@ 31892
penn@@ 31891
arge 31883
Ludwig 31882
Yugoslav 31875
Karen 31861
39@@ 31849
Jamie 31846
GM 31844
olith@@ 31842
Institution 31840
Ant@@ 31839
División 31823
McK@@ 31823
mic@@ 31820
Beyond 31818
Cham@@ 31817
Farm@@ 31814
epidem@@ 31811
G.@@ 31810
stitut@@ 31810
Sons 31804
Marines 31794
quad@@ 31788
1.6 31786
Learning 31784
EP@@ 31783
alli 31778
cation 31767
Diana 31760
arc 31760
Sep@@ 31759
lu 31757
Betty 31754
Cs 31747
Edwin 31743
bio@@ 31741
compan@@ 31727
Ris@@ 31725
Olympi@@ 31719
Mall 31715
Dorothy 31711
Newfoundland 31709
Kazakhstan 31708
unge 31698
adia 31695
Carroll 31692
DS@@ 31687
Mind@@ 31683
Female 31676
rod 31669
civiliz@@ 31654
1.1 31649
1814 31646
Brother 31646
Eye 31635
Rain@@ 31633
Pharm@@ 31624
Clay 31614
liqu@@ 31611
Malcolm 31610
Jeremy 31601
static 31591
189@@ 31578
pler 31575
cles 31571
exces@@ 31570
eira 31551
1.3 31550
Structure 31547
ift 31538
Baldwin 31531
Carnegie 31531
ffer 31531
idan 31528
Brook@@ 31518
shaw 31502
SL 31501
ses@@ 31501
Aber@@ 31495
Wolver@@ 31494
Sant@@ 31492
shi 31490
ecos@@ 31482
1834 31471
Yu 31468
Cairo 31467
Vish@@ 31466
dar 31465
xes 31464
retire 31462
cott 31457
Dale 31455
ateral 31438
SP 31435
Hey@@ 31433
Bob@@ 31430
pense 31430
Premi@@ 31426
sacrif@@ 31418
ñ@@ 31417
Jenn@@ 31412
Pier@@ 31411
ț@@ 31408
Raja 31407
Rever@@ 31407
categ@@ 31406
ingre@@ 31405
meg@@ 31404
Canadi@@ 31402
Nottingham 31394
identifi@@ 31389
Tribune 31373
frig@@ 31372
Gren@@ 31371
Thames 31370
Brun@@ 31367
Da 31355
aggreg@@ 31350
fiscal 31340
imin@@ 31337
concep@@ 31327
mart 31320
colum@@ 31315
lens 31312
ballet 31309
Jack@@ 31305
It@@ 31303
irrig@@ 31302
vić 31300
gul@@ 31298
brand@@ 31297
Episode 31294
parti@@ 31291
hectares 31290
Logan 31287
Mohammad 31281
Fab@@ 31275
29.@@ 31273
Large 31268
otr@@ 31267
mortal@@ 31263
premier 31258
Programme 31248
asp@@ 31242
iz 31239
ř@@ 31231
Theory 31229
larg@@ 31222
Ernst 31216
evich 31213
emin@@ 31206
ulus 31202
Charleston 31198
Newman 31184
Heinrich 31179
percus@@ 31169
Crawford 31168
seas 31160
control@@ 31158
ET 31155
formul@@ 31151
Link 31145
Budapest 31140
hind@@ 31140
Holocaust 31138
mak@@ 31128
Romans 31125
Sham@@ 31125
Statis@@ 31125
sour@@ 31125
Count@@ 31122
mus 31109
tronics 31104
Chiefs 31099
eback 31098
Math@@ 31091
chr@@ 31071
cia 31071
ingo 31064
Minister@@ 31062
akia 31059
Horn@@ 31053
Ladies 31047
Fat@@ 31038
reci@@ 31034
atten@@ 31028
~ 31021
Tap@@ 31014
Saw@@ 31006
Metal 31005
idi 30990
Raw@@ 30986
Twin 30970
Burke 30968
ovi@@ 30959
Minneapolis 30950
Aberdeen 30947
Sv@@ 30944
trap 30938
itu@@ 30923
Chronicle 30914
nas@@ 30912
Trus@@ 30906
ð@@ 30905
electro@@ 30885
Blair 30883
Choice 30875
tram 30871
Chic@@ 30863
Combat 30862
ron@@ 30858
symp@@ 30854
Tah@@ 30849
Wr@@ 30843
drain@@ 30831
oming 30831
Bass@@ 30828
Glass 30824
Scout 30821
Planet 30820
coron@@ 30817
Rum@@ 30813
500,000 30809
cant@@ 30808
Jos@@ 30806
milli@@ 30804
Pra@@ 30798
Andre@@ 30795
perception 30795
eder 30791
Doug 30787
reck 30787
Burma 30784
insur@@ 30784
Arms 30780
Lut@@ 30776
RN@@ 30776
Well@@ 30774
Arti@@ 30758
Raf@@ 30751
MW 30749
sep@@ 30748
chant 30746
1831 30737
cand@@ 30737
dollar 30729
1820 30728
cou@@ 30727
feud@@ 30718
inn 30717
interven@@ 30714
WH@@ 30710
atin 30699
amen 30697
associ@@ 30686
Chenn@@ 30685
Gat@@ 30685
Neur@@ 30685
ampli@@ 30664
Tel 30663
Kenny 30654
Chemical 30653
polar 30653
Loy@@ 30645
Ner@@ 30635
Ho 30631
aters 30626
Shadow 30601
decisi@@ 30600
ilian 30600
uchi 30586
fragments 30583
Enterprise 30579
igg@@ 30578
lee 30574
Wimbledon 30571
Gem@@ 30570
Wer@@ 30565
matr@@ 30560
UC@@ 30557
Roh@@ 30551
cue 30546
variables 30539
GT 30538
Clara 30537
erc@@ 30533
Task 30531
Sci@@ 30529
N.@@ 30520
aught 30510
Southampton 30496
True 30496
eca 30496
Bavaria 30486
ilers 30483
led@@ 30480
nice 30480
submar@@ 30475
saint 30457
bu 30455
25,000 30454
Panthers 30444
Hero 30442
Cancer 30441
Joh@@ 30434
Nixon 30425
Set 30425
Comm@@ 30424
Janeiro 30417
reconnaissance 30417
Nuclear 30413
SM 30398
Heat 30397
Hod@@ 30392
Peg@@ 30390
Shore 30390
contradic@@ 30387
omin@@ 30384
wald 30383
Happy 30380
block@@ 30372
cestershire 30369
imi 30356
Scor@@ 30355
fi 30344
Palm 30338
aan 30336
andi 30336
pep@@ 30321
pastor 30311
Summit 30307
uba 30301
Hit@@ 30298
PGA 30295
Walt 30285
Drake 30284
Shim@@ 30282
Walsh 30281
Dim@@ 30280
Every@@ 30280
Geor@@ 30273
Uruguay 30264
Speed 30263
Tag 30263
alien 30263
Index 30261
threaten@@ 30249
Corpor@@ 30248
thal 30237
Ecol@@ 30236
1833 30228
shan 30220
nd 30207
remix 30206
â@@ 30206
ON@@ 30204
Yak@@ 30189
entum 30183
stig@@ 30180
Dubai 30179
Ps 30177
Aud@@ 30171
NT@@ 30170
eres 30169
ynam@@ 30166
ER 30163
Krishna 30163
SF@@ 30159
Ž@@ 30153
Sebastian 30143
750 30128
dos@@ 30115
dorsal 30113
Dylan 30105
coul@@ 30101
maritime 30100
3000 30096
sert 30092
} 30090
Lub@@ 30084
oper 30080
Rak@@ 30076
theast 30070
Dist@@ 30064
Iz@@ 30061
ror 30044
tices 30043
Sloven@@ 30041
Sport@@ 30036
Well 30028
CT@@ 30024
Mé@@ 30020
Jin 30018
Yel@@ 30013
itter 30012
Adult 30004
odia 29990
roy 29990
Vul@@ 29978
rug@@ 29968
Combin@@ 29965
Contr@@ 29957
wo 29957
Victory 29951
cons 29939
Strat@@ 29938
Daw@@ 29927
Observatory 29926
Poetry 29924
ą@@ 29919
unda 29906
Kurt 29903
Arn@@ 29899
Grand@@ 29895
Beatles 29880
Agr@@ 29877
Hot@@ 29870
Hid@@ 29867
mons 29866
HP 29841
Flin@@ 29840
Half 29835
Alt@@ 29822
Vision 29818
idal 29816
Joel 29809
rhyth@@ 29809
oque 29808
Cowboys 29805
yar@@ 29798
190@@ 29789
Joshua 29789
sibility 29785
Ey@@ 29781
Max@@ 29779
Pine 29776
Tasmania 29772
rod@@ 29771
Lamb@@ 29769
UP 29760
front@@ 29758
kit 29758
Pyr@@ 29753
7.5 29743
apar@@ 29740
Stra@@ 29728
Civ@@ 29726
automobile 29718
Ard@@ 29715
Julie 29697
blog 29693
vid@@ 29682
Hub@@ 29680
Georges 29678
bou@@ 29673
Gospel 29672
Port@@ 29653
spons@@ 29648
iber 29643
Heath 29638
PN@@ 29622
Qatar 29621
Ut@@ 29611
CI 29607
Auth@@ 29603
Pirates 29600
90@@ 29598
Madonna 29597
segreg@@ 29594
degrad@@ 29592
Ghost 29589
Cut@@ 29586
udi@@ 29584
atham 29574
Adrian 29560
Scho@@ 29552
oso 29552
substr@@ 29539
-- 29538
boom 29534
Sed@@ 29530
Take 29527
Berry 29515
rim 29515
classi@@ 29514
ère 29514
Fund@@ 29511
ishi 29511
iff 29509
Asi@@ 29500
miner@@ 29499
Sym@@ 29494
Fiji 29479
John@@ 29474
ege 29474
SD@@ 29471
strug@@ 29462
dible 29460
CF 29452
Vie@@ 29444
Kim@@ 29439
Smith@@ 29429
Karnataka 29417
Sanc@@ 29410
Monument 29403
Power@@ 29398
inflam@@ 29390
sympath@@ 29386
ahi 29378
auer 29366
agi@@ 29359
appar@@ 29359
Vander@@ 29358
egan 29355
Creative 29345
Sherman 29344
asia 29344
Expedition 29342
Tot@@ 29335
antiqu@@ 29325
Telec@@ 29317
Anton 29314
Edge 29302
Trinidad 29299
atum 29289
Solar 29288
eccl@@ 29287
Rhodes 29285
trainer 29275
hen 29269
Leipzig 29264
Terminal 29262
Volume 29261
trou@@ 29261
theaters 29260
Ferry 29239
Rib@@ 29238
kid@@ 29237
75@@ 29236
102 29234
ult@@ 29232
Willie 29231
opinions 29226
Animal 29221
Rica 29217
Bach 29216
Batman 29213
Bolivia 29210
Gay 29192
GS 29191
Legend 29191
contacts 29185
illustrations 29177
kor@@ 29161
alian 29159
Claire 29147
tos 29143
Baz@@ 29119
vil@@ 29119
erie 29109
suc@@ 29104
traces 29100
comment 29095
IB@@ 29091
Kaw@@ 29087
kata 29086
LLC 29083
propag@@ 29076
fruits 29075
finger 29071
amer@@ 29068
conces@@ 29065
pec@@ 29065
UCLA 29064
Bin@@ 29054
Oak@@ 29053
cir@@ 29052
ific@@ 29047
Turn@@ 29046
Sugar 29045
vine 29039
dem 29037
Sanskrit 29036
Syracuse 29031
staff@@ 29025
entrepreneur 29016
Chang 29012
Concep@@ 29010
Chan 28999
UNESCO 28989
obst@@ 28985
Kre@@ 28977
aru 28974
san 28973
1,500 28972
oh 28972
IF 28968
Pak@@ 28968
polar@@ 28963
dissolution 28959
15,000 28958
Penn@@ 28956
modes 28952
beta 28939
ige 28938
lor@@ 28934
Archives 28931
Cann@@ 28931
arin 28912
ale@@ 28896
1.4 28890
oku 28885
Ferguson 28879
issu@@ 28877
Fantasy 28874
cano 28872
Greene 28863
Fiction 28853
him@@ 28841
ITV 28839
emic 28837
Lisbon 28835
agi 28835
enes 28834
Belarus 28828
Greatest 28823
laser 28822
Rig@@ 28814
Associated 28812
ende@@ 28809
zh@@ 28809
Dani@@ 28802
Communication 28801
1825 28797
olan 28794
missiles 28789
dose 28786
plain@@ 28779
Plus 28777
zu 28771
Lum@@ 28770
sworth 28752
10,@@ 28751
Johns 28750
ept@@ 28745
confirm@@ 28740
ono 28734
Marathon 28730
Electronic 28729
47@@ 28724
Kirk@@ 28724
Ibn 28715
esta 28706
Respon@@ 28692
aç@@ 28689
Colombi@@ 28679
instrum@@ 28665
Augustus 28661
Rit@@ 28660
Nicol@@ 28651
bless@@ 28645
Cave 28644
comparable 28643
wara 28642
Tig@@ 28638
ruption 28632
Monaster@@ 28621
Low@@ 28612
Generation 28610
Thomson 28610
Amar@@ 28602
gery 28599
nels 28596
Hardy 28585
licence 28585
salv@@ 28575
etus 28573
Mohammed 28568
Chemistry 28556
inhibit@@ 28556
7,000 28530
extrem@@ 28530
tex 28528
Il 28527
agle 28527
O.@@ 28526
Hampton 28515
improvis@@ 28509
ga@@ 28508
fasc@@ 28506
Dhar@@ 28502
versary 28499
Kerry 28497
aris 28497
antagon@@ 28496
saxoph@@ 28496
SEC 28491
ild 28491
ession 28473
Jo 28470
Tanzania 28468
Cho@@ 28466
Body 28461
Santo 28455
formations 28453
kho@@ 28453
arer 28452
Troy 28444
scop@@ 28442
trace 28442
Orig@@ 28436
alit@@ 28436
Fe 28430
Gad@@ 28420
García 28418
yes 28418
lut@@ 28414
Conservat@@ 28412
opti@@ 28410
Ley@@ 28409
nier 28405
Hood 28404
surveillance 28401
Celebr@@ 28393
contributor 28388
Madagascar 28385
1821 28382
Show@@ 28382
lio 28364
ford@@ 28350
Shield 28348
Webb 28347
ativ@@ 28347
30.@@ 28343
test@@ 28334
GO 28333
inson 28330
auxili@@ 28325
Maharashtra 28323
Roll 28322
phases 28319
chang@@ 28316
tensions 28307
Francesco 28304
Centr@@ 28303
Bombay 28302
Oh 28302
terres@@ 28300
conventi@@ 28298
Bih@@ 28293
187@@ 28291
hus@@ 28285
pid 28282
Yuan 28278
Cloud 28275
Origin 28274
Deg@@ 28272
transform@@ 28266
garage 28263
toms 28261
sanctu@@ 28260
Va@@ 28259
ikh 28253
Fen@@ 28251
Suffolk 28251
costume 28245
Philharmon@@ 28243
utili@@ 28235
W.@@ 28227
lung 28227
Darwin 28226
Bedford 28220
Burg@@ 28218
Phase 28204
plaque 28204
200,000 28202
IG@@ 28189
forc@@ 28184
Catal@@ 28164
Floyd 28164
Rush 28164
Nick@@ 28157
afe 28146
reson@@ 28146
Sacramento 28145
aven@@ 28144
istic@@ 28136
chu@@ 28133
Magn@@ 28129
descendant 28123
sie 28122
train@@ 28116
Bla@@ 28113
demand@@ 28111
implement@@ 28110
Providence 28108
elage 28099
Bagh@@ 28097
Winston 28095
Denis 28089
1828 28085
Aw@@ 28082
Jorge 28082
oses 28078
UTC 28077
lor 28076
Kid 28061
bats 28057
install@@ 28056
Gamb@@ 28055
Maxwell 28049
partisan 28045
seller 28037
uls 28035
Partners 28029
Heavyweight 28028
Lil@@ 28028
Bath@@ 28025
lav 28025
Mom@@ 28022
eley 28012
Yos@@ 27999
Cumberland 27990
Bruno 27981
Basel 27976
indie 27975
Sandy 27972
lefield 27970
surg@@ 27957
Toyota 27932
ink@@ 27917
Griffin 27914
wag@@ 27907
Crime 27906
Histor@@ 27906
Vernon 27901
Cler@@ 27894
AO@@ 27892
Ble@@ 27891
patern@@ 27889
Wad@@ 27888
Garcia 27886
Brad 27883
Merr@@ 27882
Gle@@ 27881
Sara 27880
amaz@@ 27880
är@@ 27880
α 27877
Castro 27873
Dub@@ 27871
archives 27865
itis 27860
Nem@@ 27855
Boris 27846
Papua 27844
Serge@@ 27837
folkl@@ 27829
Luther 27827
Coff@@ 27825
diplom@@ 27824
Congr@@ 27823
ighty 27818
ario 27817
forts 27817
dial 27812
tral 27812
Autonom@@ 27808
pard 27808
Duc@@ 27794
pens@@ 27786
pon 27781
captur@@ 27777
Neu@@ 27769
cla@@ 27759
Walk 27743
Kem@@ 27742
Highland 27740
Montenegro 27740
Whitney 27739
Chron@@ 27734
Dob@@ 27728
Guatemala 27728
eur 27727
rely 27727
Siege 27724
ults 27716
Heavy 27713
evo 27701
Ō@@ 27701
corrup@@ 27700
Synopsis 27697
edi 27695
robot@@ 27693
anton 27692
dier 27691
1810 27690
expedi@@ 27677
Nev@@ 27675
ben 27674
1.8 27672
echn@@ 27664
atorial 27657
intellig@@ 27657
effectiv@@ 27656
Pati@@ 27650
ynn 27648
bun@@ 27647
Prov@@ 27642
Scre@@ 27640
Reagan 27633
Night@@ 27631
Ming 27627
Mind 27622
var 27622
mini@@ 27618
emy 27609
Lynch 27608
occu@@ 27601
1824 27599
flam@@ 27599
Mog@@ 27594
metr@@ 27592
Greg@@ 27587
endr@@ 27581
leen 27579
angu@@ 27577
fli@@ 27575
moderni@@ 27574
penal@@ 27573
icide 27571
traits 27570
uno 27569
AU 27559
Things 27559
Los@@ 27553
arker 27551
tubes 27548
acces@@ 27546
anci@@ 27542
chen@@ 27539
urai 27539
chol@@ 27537
1829 27533
Felix 27531
sius 27529
Donn@@ 27527
prostitu@@ 27516
ć@@ 27510
lender 27507
450 27506
Match 27502
tico 27501
chur@@ 27500
alla 27497
Kashmir 27496
Lew@@ 27483
Stories 27478
104 27477
anning 27475
Sit@@ 27474
0,@@ 27473
Derek 27471
impression 27468
norm@@ 27467
utt@@ 27467
Ski@@ 27463
olar 27460
Boh@@ 27457
Or 27456
correspondent 27447
arest 27445
audit@@ 27444
arius 27437
Norton 27434
Alternative 27428
hurst 27426
invasi@@ 27426
mare 27422
hid 27420
Pink 27412
Buddha 27411
Mann 27409
burgh 27407
yor 27404
fan@@ 27394
Ds 27392
PP 27389
suppos@@ 27389
Zero 27388
Qing 27387
desper@@ 27386
dell 27380
lam 27362
PT@@ 27339
yak@@ 27337
pora 27335
Bit@@ 27325
Sex 27318
oline 27317
Telegraph 27306
ward@@ 27305
Sofia 27303
Continu@@ 27291
MVP 27286
emat@@ 27285
Silver@@ 27281
incorrec@@ 27281
fru@@ 27267
nave 27262
Editor 27260
Thunder 27253
Gibraltar 27247
eler 27245
Mercedes 27243
Lus@@ 27242
uke 27237
garten 27236
Jav@@ 27235
vents 27235
Reh@@ 27232
120@@ 27231
Morton 27230
Mary@@ 27228
experiment@@ 27227
Helena 27226
Civic 27222
Sources 27208
Declar@@ 27206
yt@@ 27202
Angel@@ 27196
Dragons 27192
0.1 27188
ellip@@ 27178
Marin@@ 27177
Int@@ 27175
dys@@ 27170
mentor 27169
Brom@@ 27168
Dark@@ 27161
tall@@ 27156
News@@ 27155
Worcester 27147
Hawks 27145
Tyr@@ 27138
inscriptions 27138
establ@@ 27135
anas 27133
fabri@@ 27132
Stan 27128
oul 27122
ky@@ 27120
Sporting 27111
canton 27108
uth 27106
Jacksonville 27103
dos 27097
Back@@ 27092
Mail 27086
Democracy 27081
Wed@@ 27079
tras@@ 27072
cass@@ 27070
lecture 27065
Nad@@ 27062
Canton 27061
nes@@ 27060
Gandhi 27052
invention 27048
Wei 27040
Latvia 27033
dimension 27032
Anni@@ 27031
Kah@@ 27028
Sti@@ 27023
Compos@@ 27021
Nah@@ 27009
Wir@@ 27007
leman 27003
Herman 27001
Khal@@ 26996
Powers 26996
osh 26992
Dynam@@ 26984
Kay@@ 26980
Myr@@ 26976
Hits 26975
Rafael 26969
Influ@@ 26963
Roberto 26963
pi 26953
vor 26953
Dixon 26950
statues 26948
SV 26937
habit@@ 26936
Tob@@ 26934
spor@@ 26926
Ip@@ 26923
Tunnel 26919
Venez@@ 26917
Trou@@ 26914
CL@@ 26903
Nun@@ 26895
hal 26887
Ram 26879
Tales 26875
fluor@@ 26865
LG@@ 26860
Salv@@ 26860
Linux 26856
1813 26854
Potter 26853
Histori@@ 26849
46@@ 26844
Letters 26835
prolif@@ 26831
esi 26830
ér@@ 26829
accep@@ 26826
tonnes 26823
ows 26822
MI 26812
Speci@@ 26811
lum@@ 26807
atra 26806
Netflix 26804
ayo 26803
Charl@@ 26800
Dil@@ 26799
Tok@@ 26799
sz@@ 26799
Chan@@ 26792
Helsinki 26785
Organisation 26783
Tech@@ 26781
analog@@ 26776
anatom@@ 26765
River@@ 26755
urst 26749
Chi 26748
ainer 26745
Initiative 26743
va@@ 26742
brow@@ 26732
Gib@@ 26730
Flag 26725
Jets 26723
Norwich 26711
Fos@@ 26708
lock@@ 26705
remake 26694
Carey 26688
Adventures 26684
els@@ 26679
Georgetown 26678
Cologne 26673
ood 26667
nch@@ 26664
Adolf 26655
Eu@@ 26654
eclip@@ 26652
Nep@@ 26651
Analysis 26649
Michelle 26647
Georg 26638
Hard 26627
Gardner 26620
Coleman 26607
ient 26607
Humph@@ 26605
Form@@ 26599
Nicolas 26590
ino@@ 26588
kis@@ 26587
ique 26586
EL@@ 26582
precurs@@ 26581
ystal 26580
Ivan@@ 26575
escope 26571
Davidson 26568
Slovak 26567
Chapman 26565
Casey 26561
conson@@ 26558
Concert 26555
escence 26555
Quarter@@ 26550
influ@@ 26547
Vatican 26544
humor 26544
nership 26542
Sof@@ 26540
Talk 26539
bein@@ 26534
Rules 26523
toire 26517
Baden 26509
luc@@ 26506
flor@@ 26501
Ethiop@@ 26494
rode 26490
ineer 26487
iya 26482
kett 26482
religions 26482
sport@@ 26477
tty 26474
Belle 26472
BT@@ 26467
vert 26464
Wings 26460
amino 26459
Negro 26455
tri 26451
1826 26449
Fight 26444
Snow@@ 26436
Maya 26432
ove 26426
Co. 26421
Sheikh 26417
Ped@@ 26415
Bach@@ 26406
tz@@ 26403
Dawn 26402
Bolton 26401
vig@@ 26399
Hell@@ 26397
Meyer 26385
demo 26384
Gas 26381
MT 26378
DI 26375
disciplines 26374
103 26371
istry 26371
cc 26370
pher@@ 26369
Const@@ 26368
Deutsche 26364
Break@@ 26362
Freeman 26361
Honda 26351
Libya 26347
ample 26342
Flem@@ 26337
umbr@@ 26335
modifications 26333
alternati@@ 26325
ë 26323
combe 26321
Glad@@ 26314
Activ@@ 26306
intensive 26306
Us@@ 26299
sprint 26298
hym@@ 26295
anarch@@ 26292
Swan 26291
music@@ 26290
Asp@@ 26289
Sind@@ 26282
ull 26278
Jessica 26276
Marsh 26268
financi@@ 26268
EN@@ 26266
fat 26254
Soundtrack 26253
Academ@@ 26252
flora 26231
Pride 26223
compens@@ 26219
Crisis 26193
beit 26188
Fall@@ 26186
izer 26184
Thorn@@ 26183
cliffe 26183
Rule 26182
Icel@@ 26181
xa 26179
cuisine 26178
cone 26168
timately 26165
mess@@ 26163
1818 26162
beck 26158
Timothy 26152
pse 26116
Yas@@ 26115
ambigu@@ 26111
Ś@@ 26103
alo 26102
Ana 26095
Slam 26090
sank 26088
ilities 26086
visit@@ 26083
Philippe 26081
Johannes 26080
raf@@ 26080
Integr@@ 26077
Flu@@ 26073
osom@@ 26069
KO 26067
yel@@ 26066
Nath@@ 26061
etz 26058
ES 26057
tren@@ 26057
asan 26056
Mar 26054
Underground 26054
vie 26050
nus 26047
48@@ 26045
anic 26045
will@@ 26037
agram 26021
rection 26014
Carol@@ 26012
Why 26005
patron@@ 26005
Assy@@ 26003
ana@@ 26002
anya 25999
Jal@@ 25996
Grav@@ 25994
Hermann 25992
5.5 25991
Parti@@ 25989
urt 25987
acier 25985
hiz@@ 25985
xton 25981
Particip@@ 25979
cium 25973
HA 25970
collectiv@@ 25967
Paramount 25963
Living@@ 25952
ux 25937
bling 25936
Micha@@ 25934
integ@@ 25931
UCI 25927
Admir@@ 25923
Sach@@ 25920
unction 25915
distances 25911
Bundesliga 25908
Riley 25899
108 25898
enta 25898
lins 25883
hua 25882
Lou 25856
Gom@@ 25847
wyn 25846
Europa 25840
viral 25840
twe@@ 25839
Goth@@ 25831
skaya 25829
EA 25818
pei 25811
sic 25811
Miy@@ 25810
án@@ 25806
otype 25803
Priv@@ 25799
interrog@@ 25787
ʻ@@ 25776
ocolate 25768
Boyd 25767
MIT 25767
Composition 25764
osaurus 25764
guil@@ 25761
1.7 25757
olar@@ 25754
Euc@@ 25752
Stefan 25751
voy 25728
iah 25727
sta 25727
mas 25726
osc@@ 25726
cra@@ 25725
Carson 25721
Stoke 25717
isher 25717
nou@@ 25716
epis@@ 25704
raph 25704
FIBA 25703
Qur@@ 25699
Jenkins 25696
fratern@@ 25694
44@@ 25691
Wein@@ 25688
Pag@@ 25684
gig@@ 25683
omena 25683
Haj@@ 25680
Thunder@@ 25680
Toledo 25677
Ashley 25676
Bav@@ 25675
Sco@@ 25672
master@@ 25661
Canberra 25656
Haiti 25655
yro@@ 25655
compil@@ 25653
Gard@@ 25651
Cra@@ 25650
Pall@@ 25642
liers 25642
tire 25642
pedia 25637
Webster 25632
apos@@ 25622
iner@@ 25616
alan@@ 25615
Jeffrey 25598
Kak@@ 25597
Sidney 25596
Pablo 25595
conting@@ 25592
Hud@@ 25583
lowers 25583
Rebecca 25576
inces 25573
Nab@@ 25570
Hack@@ 25569
lery 25569
mentation 25566
clas@@ 25563
dens@@ 25562
verside 25561
106 25554
Ligh@@ 25548
sten 25547
ammed 25544
Fire@@ 25541
Visual 25540
MHz 25538
Chr@@ 25535
Turk@@ 25534
Mey@@ 25533
Bergen 25521
Regul@@ 25515
Butter@@ 25507
Jacob@@ 25498
legislat@@ 25491
pill@@ 25490
ren 25488
ingers 25486
devi@@ 25485
irregular 25482
eurs 25481
Ship@@ 25480
Brandon 25479
Offic@@ 25472
awa@@ 25470
Shiva 25466
Janet 25460
Monica 25460
ley@@ 25460
Mrs 25451
Dus@@ 25450
GC 25449
Fletcher 25445
Alberto 25443
rats 25442
Lima 25439
vend@@ 25433
Kut@@ 25430
Veh@@ 25430
oven 25427
List@@ 25424
Malay 25417
Albion 25403
Carni@@ 25403
Stir@@ 25402
1806 25399
Exeter 25390
Sharon 25388
López 25386
Kirk 25383
Wiz@@ 25367
1801 25365
abdom@@ 25364
hibit@@ 25363
annah 25362
55@@ 25361
Male 25354
etz@@ 25353
Sent@@ 25335
ʼ@@ 25334
now@@ 25330
Song@@ 25320
Swift 25320
1.0 25317
deten@@ 25312
65@@ 25310
metro 25307
Truth 25303
Cali@@ 25302
Drew 25302
Tang@@ 25295
Alexandra 25286
Organ@@ 25285
ventr@@ 25284
Very 25279
Mahar@@ 25276
bias 25272
Inde@@ 25263
Xavier 25263
adul@@ 25258
primiti@@ 25255
Kane 25254
emann 25254
ogo 25254
Singer 25249
bis 25249
bik@@ 25243
Sutton 25232
Hannah 25230
Xbox 25229
tron@@ 25227
TH@@ 25226
Ultimate 25226
Stalin 25222
Patricia 25218
poli 25211
Poin@@ 25208
220 25202
Hog@@ 25200
Sister 25199
sis 25199
rop@@ 25191
1827 25190
PD 25185
Sug@@ 25185
lary 25183
ockey 25176
Lay@@ 25170
euv@@ 25161
confront@@ 25160
1816 25159
Beck 25159
histori@@ 25158
Initi@@ 25157
Spring@@ 25154
elt@@ 25151
Sophie 25149
IN 25148
gin@@ 25143
Shane 25142
109 25136
zin@@ 25136
Metacritic 25130
Nothing 25125
40,000 25123
aines 25123
185@@ 25120
bei 25116
Develop@@ 25111
candid@@ 25109
Paradise 25108
pneum@@ 25108
Motion 25107
Caesar 25106
BR 25104
vec@@ 25102
oughton 25100
afor@@ 25095
ucture 25091
ç@@ 25091
Cecil 25090
Kav@@ 25087
arcade 25085
Lt@@ 25084
evangel@@ 25084
caus@@ 25083
alogue 25081
canon@@ 25079
ento 25074
conflu@@ 25072
MT@@ 25069
Sally 25066
pension 25066
Buz@@ 25058
Homer 25058
Tip@@ 25052
111 25050
Basic 25050
Chad 25050
Evening 25049
twel@@ 25048
ofs 25046
186@@ 25044
quir@@ 25042
eas 25039
SB 25034
bra@@ 25032
Jackie 25030
fabric@@ 25026
umph 25021
declin@@ 25017
employ@@ 25017
ICC 25012
stom@@ 25011
Wag@@ 25008
Zagreb 25005
refr@@ 24995
2.2 24992
Clare 24991
loway 24975
sitcom 24967
console 24957
materi@@ 24955
auto 24954
Ibrahim 24950
stad 24949
Mall@@ 24942
biom@@ 24942
liga 24940
UR@@ 24939
facto 24932
Lok 24916
critici@@ 24911
Four@@ 24910
Paper 24907
Gow@@ 24900
Sanders 24900
Jol@@ 24898
Rally 24898
recogn@@ 24896
wi 24890
Normand@@ 24889
Trans 24886
Fields 24884
ru 24877
Away 24864
emi 24862
Joyce 24860
entrepren@@ 24848
Ler@@ 24847
baptis@@ 24846
Free@@ 24844
Maxim@@ 24843
pound 24842
rot 24837
depres@@ 24826
Fried@@ 24823
sher@@ 24818
fon@@ 24815
Progress 24812
Alger@@ 24807
Aviv 24799
Id@@ 24799
Card@@ 24795
Roland 24785
osci@@ 24782
tish 24779
DM 24774
Alpine 24770
atmosph@@ 24765
ilia 24763
vibr@@ 24762
yr 24754
Fit@@ 24750
plasma 24745
franch@@ 24744
Card 24743
rane 24741
Torres 24737
hex@@ 24731
tos@@ 24731
González 24730
egu@@ 24730
Geoffrey 24729
gall@@ 24724
1819 24718
Electr@@ 24718
1803 24713
BW@@ 24712
Syl@@ 24709
fielder 24696
Investment 24690
topo@@ 24682
elong@@ 24681
tales 24679
Mab@@ 24675
ring@@ 24675
drag@@ 24674
BP 24665
isional 24661
guber@@ 24649
Euro@@ 24647
Rhin@@ 24642
Wonder 24633
Joy 24628
viv@@ 24627
qua 24626
synagog@@ 24624
Luk@@ 24622
bio 24616
Hein@@ 24615
Carr 24614
GDP 24614
Katherine 24605
TR@@ 24601
Mark@@ 24592
bet 24592
Percy 24590
Hearts 24586
treat@@ 24586
115 24584
1822 24578
Refu@@ 24577
Worth 24577
Afric@@ 24575
Apo@@ 24573
Winter@@ 24567
absol@@ 24555
endi@@ 24549
Intro@@ 24547
CB 24538
max 24535
nis 24530
sty@@ 24530
0.3 24523
bris 24518
hiv@@ 24517
buc@@ 24516
5000 24515
Rotten 24513
Tos@@ 24503
Ces@@ 24497
Pok@@ 24491
Gun 24490
Antwer@@ 24485
Cand@@ 24484
elop@@ 24482
pol 24467
Doug@@ 24466
Dat@@ 24459
Alexand@@ 24456
Bart@@ 24450
nan@@ 24440
Erie 24437
abandon 24437
ocar@@ 24436
inad@@ 24433
orn@@ 24432
Uttar 24428
akh 24428
divide 24426
ador@@ 24418
Got 24415
DV@@ 24411
Bibli@@ 24410
Randy 24404
Holdings 24400
6.5 24399
Conrad 24399
nica 24396
jan@@ 24393
draf@@ 24392
Commission@@ 24391
Comple@@ 24385
Nash 24383
Heroes 24381
Auto 24375
Grou@@ 24375
ISO 24367
Kw@@ 24363
eem 24361
Prin@@ 24360
Ston@@ 24360
adapt@@ 24357
Hastings 24353
Winchester 24350
avia 24348
Fif@@ 24347
oun@@ 24345
Advis@@ 24342
Techn@@ 24342
athlon 24330
β 24328
Beautiful 24324
Savage 24321
Dundee 24320
½ 24319
Pool 24318
DB 24316
ritu@@ 24316
135 24312
dair@@ 24311
Midlands 24310
hak@@ 24305
Adventure 24304
este 24296
gang@@ 24295
Diam@@ 24292
tings 24288
Erik 24283
guit@@ 24278
graves 24276
Kis@@ 24274
Drum@@ 24273
solic@@ 24271
1823 24266
Chit@@ 24266
neo 24266
stra@@ 24261
escal@@ 24259
Lig@@ 24257
Benedict 24256
ception 24254
mise 24250
Lik@@ 24248
Consum@@ 24247
Cotton 24247
sue 24247
dong 24246
Di 24243
amar@@ 24242
Hydro@@ 24238
Spart@@ 24238
forum 24236
odo@@ 24231
lex@@ 24230
Pasha 24216
Hartford 24213
Bolsh@@ 24212
Tunisia 24212
Valencia 24204
represent@@ 24199
asse 24194
Wonder@@ 24193
IL@@ 24192
MB 24188
Gon@@ 24186
aea 24185
fj@@ 24183
Nielsen 24182
Ug@@ 24180
ieved 24178
configur@@ 24177
Chat@@ 24172
icken 24170
Tank 24169
Jin@@ 24168
Gent@@ 24164
Galaxy 24160
1809 24153
Mohamed 24145
magistr@@ 24139
Constantine 24138
Dart@@ 24138
lian 24136
AK@@ 24127
aza 24124
Pierce 24121
Apostol@@ 24117
essman 24113
ă 24099
Lom@@ 24091
Android 24084
Set@@ 24082
Angola 24080
Donnell 24078
Hyde 24075
particip@@ 24074
Abdullah 24071
popular@@ 24071
Lanc@@ 24068
map@@ 24068
128 24066
Tucker 24066
Trent 24059
Gloucester 24058
Jab@@ 24052
Raw 24044
issa 24041
ACC 24037
module 24037
Art@@ 24027
frey 24025
synchron@@ 24019
Lob@@ 24017
Horn 24011
amphibi@@ 24011
busin@@ 24010
mang@@ 24008
pinn@@ 24006
Mixed 24004
nell 24004
analog 24001
Krist@@ 24000
lon@@ 23999
mou@@ 23999
orus 23996
embles 23984
stan@@ 23983
Toy@@ 23982
CBC 23976
112 23972
postal 23970
Wong 23967
Quinn 23965
1,4@@ 23962
sover 23958
specific@@ 23957
agne@@ 23953
Get@@ 23952
ML 23951
Face 23949
dio 23949
opsis 23947
trau@@ 23945
Hassan 23943
discuss@@ 23942
isters 23933
hara 23930
Niz@@ 23926
hypo@@ 23926
kad@@ 23925
Roma 23924
eras 23917
Cao 23916
Make 23913
orious 23912
0.2 23893
lumin@@ 23892
CL 23880
Strong 23878
pendi@@ 23877
Cherry 23874
Bomb@@ 23869
rim@@ 23869
Christine 23868
Oce@@ 23868
etti@@ 23865
Hamp@@ 23864
yu@@ 23861
Neo 23853
Agnes 23844
Dresden 23843
Newark 23839
ei@@ 23839
Primera 23834
Rey 23832
Leone 23830
ospace 23829
gem@@ 23828
leb@@ 23819
Ord@@ 23816
Abo@@ 23804
Quart@@ 23794
petr@@ 23794
sched@@ 23792
Tax@@ 23790
zan 23787
Rudolf 23778
fum@@ 23777
spin@@ 23776
PI 23771
Kho@@ 23764
Capit@@ 23760
elf 23755
lation 23754
Clyde 23751
Flora 23749
Ostr@@ 23738
ult 23737
Cres@@ 23731
ān 23728
Tou@@ 23724
iman 23723
Have 23720
inclin@@ 23720
hoe 23718
Know 23714
Chem@@ 23711
Hung@@ 23710
titudes 23708
Middlesex 23707
Dir@@ 23704
12,@@ 23700
guerr@@ 23694
Sno@@ 23686
cide 23680
VP 23676
WT@@ 23675
HBO 23674
avan 23670
Mili@@ 23667
Coventry 23663
juana 23663
Oriental 23662
ird 23660
Emirates 23656
107 23652
leigh 23643
enge 23641
Rahman 23639
ostr@@ 23633
Dawson 23632
Kenn@@ 23629
Mile 23629
vet 23627
1793 23625
1817 23624
Ferrari 23624
Yemen 23617
lyn 23617
za@@ 23613
1808 23612
Tay@@ 23607
Mt 23595
Motors 23591
cinemat@@ 23589
hamshire 23588
Patterson 23578
Hou@@ 23575
ias 23573
abis 23569
tific@@ 23564
Koz@@ 23560
Akh@@ 23559
satisfac@@ 23559
visu@@ 23558
Fland@@ 23556
Zen@@ 23556
rah 23554
Prepar@@ 23553
expos@@ 23553
Fow@@ 23548
Cay@@ 23545
Hang@@ 23530
A1 23527
Whiteh@@ 23524
Hand 23522
Tracy 23519
Plant@@ 23518
Classification 23514
Gang 23506
Bass 23505
ui@@ 23492
aeus 23491
otro@@ 23487
elo 23485
nov@@ 23474
contin@@ 23471
chip 23464
revel@@ 23463
Too 23459
aku 23458
exten@@ 23453
Lorenzo 23450
intim@@ 23450
Giuseppe 23446
vial 23446
Prel@@ 23444
gren@@ 23435
Superman 23433
discrimin@@ 23432
bag@@ 23430
mation 23428
concer@@ 23421
Tut@@ 23415
Zar@@ 23413
Horiz@@ 23411
Parade 23409
Brown@@ 23405
én 23401
Der 23389
get@@ 23388
orch@@ 23388
alpha 23387
proces@@ 23386
sacri@@ 23383
Chambers 23377
WR 23377
TP 23376
cane 23374
Nom@@ 23368
radic@@ 23367
prais@@ 23365
reform@@ 23364
Kens@@ 23363
Laun@@ 23355
Cha@@ 23353
Pengu@@ 23351
mim@@ 23350
reproduc@@ 23346
Shab@@ 23339
Herr@@ 23336
Antoine 23335
cel 23332
Scr@@ 23329
dington 23328
Osaka 23326
firm@@ 23322
trem@@ 23320
warf 23319
Lin 23314
Arlington 23312
CM 23312
Kuwait 23308
Shepher@@ 23306
Llan@@ 23303
SF 23303
experi@@ 23302
Tall@@ 23297
Bang 23294
okee 23294
yth@@ 23290
Hul@@ 23281
ulin 23281
eed 23277
Vy@@ 23273
rector 23272
Rising 23271
Kand@@ 23266
Miz@@ 23251
allo 23250
Hour 23249
Zor@@ 23249
Angela 23245
oda 23243
distinc@@ 23235
Cerambycidae 23234
atu 23224
Hip 23223
Prec@@ 23221
Venus 23218
vs 23218
1807 23214
Leigh 23211
iTunes 23211
Consult@@ 23204
incur@@ 23203
Ham 23194
Wolf@@ 23194
Eleanor 23193
170 23190
titude 23190
43@@ 23185
umed 23185
dioc@@ 23183
SK 23180
oc 23180
ular@@ 23174
anted 23162
Hug@@ 23156
Dudley 23153
Kod@@ 23153
Cun@@ 23152
Sinclair 23151
magn@@ 23146
ahl 23141
1794 23127
Wave 23127
1798 23126
Willis 23126
1795 23125
oirs 23125
versities 23121
Alg@@ 23120
Na 23117
Irving 23107
Lang 23106
Byr@@ 23103
Matthews 23103
León 23101
mans 23098
lang 23095
Opposition 23091
Barb@@ 23087
Nil@@ 23087
flash 23081
1804 23080
otte 23080
Pam@@ 23076
CNN 23071
Tuc@@ 23070
Buk@@ 23069
ien 23057
usive 23054
conform@@ 23044
s.@@ 23044
dan@@ 23039
sati@@ 23038
Yi 23032
tat@@ 23029
Lambert 23028
haven 23028
Sub 23026
Skat@@ 23023
agara 23021
Kov@@ 23017
ě@@ 23015
1805 23014
Cyc@@ 23002
esan 23002
hip@@ 23002
Chir@@ 23001
ía 23000
Bryant 22997
sberg 22997
esto 22994
McCarthy 22992
angles 22990
FF@@ 22985
000,000 22981
Wanderers 22978
dorf 22975
ilg@@ 22971
Screen 22970
Mongolia 22966
1,5@@ 22962
igo 22962
polo 22958
para 22950
ński 22950
1811 22944
Alder@@ 22943
Variety 22943
ór@@ 22942
diploma 22939
Mud@@ 22936
iva 22927
number@@ 22925
della 22924
Eva 22918
adolesc@@ 22918
Augusta 22914
Sey@@ 22913
trans 22912
fax 22911
phin 22908
Encyclo@@ 22897
Prairie 22897
ffy 22897
alter 22896
astal 22896
anza 22895
ahan 22883
Bermuda 22882
ambul@@ 22877
eu 22873
ahr@@ 22871
Pig@@ 22868
AAA 22866
owo 22866
Porto 22863
atch 22859
iche 22859
Wade 22857
sau@@ 22855
Tibet 22851
ès 22850
Zam@@ 22848
biot@@ 22847
ograph 22847
Lopez 22843
Italia 22840
eke 22840
tempo 22837
Fashion 22836
bons 22833
quez 22831
Shirley 22825
homosexu@@ 22820
Obj@@ 22817
Pearson 22815
Alleg@@ 22809
humor@@ 22806
urity 22802
av 22798
Anth@@ 22797
participant 22797
sives 22792
Gates 22791
iger 22781
Clement 22775
anium 22773
Bent@@ 22772
osyn@@ 22772
Australi@@ 22768
sertation 22767
Lindsay 22765
Bangkok 22760
void 22756
Kok@@ 22754
portal 22752
Atlas 22748
distor@@ 22741
vul@@ 22733
zon@@ 22732
Flash 22731
Shor@@ 22731
eco 22729
Schmidt 22724
Word 22720
Eden 22717
itan 22715
Folk 22712
Cameroon 22708
Resolution 22707
ż@@ 22705
omer@@ 22703
KO@@ 22700
zen@@ 22693
Eyes 22685
Gov@@ 22679
Trevor 22671
observe 22660
Promotion 22658
Era 22652
dal@@ 22649
Tonight 22647
Beauty 22645
Johan 22645
marathon 22643
uled 22640
Marina 22634
alise 22628
nham 22627
heimer 22623
fork 22621
Princip@@ 22619
sonian 22618
Cool@@ 22609
prior@@ 22607
yon@@ 22607
eshi 22606
Yun@@ 22603
Hop 22599
ern 22598
pac@@ 22596
CU 22591
Epis@@ 22590
aland 22589
2.3 22588
ystem 22586
ï@@ 22576
Bulls 22572
hung 22572
Hew@@ 22569
itas 22569
Pitt 22565
eant 22563
ensen 22560
2.1 22556
RCA 22553
Tomatoes 22553
azz@@ 22553
dop@@ 22548
circa 22540
Elite 22539
Selec@@ 22539
Pear@@ 22537
notation 22530
Muk@@ 22528
tas 22528
Innovation 22519
apur 22515
Tong@@ 22512
Zoo 22506
hem 22504
oz 22503
Peterson 22502
halt 22489
Phillip 22483
omes 22478
Bic@@ 22467
atro@@ 22464
JR 22461
Lein@@ 22461
Aston 22460
fascin@@ 22460
Benn@@ 22454
vik 22453
illar@@ 22451
catalogue 22446
Mih@@ 22439
Cog@@ 22438
immer@@ 22437
conj@@ 22431
diab@@ 22431
miz@@ 22431
evid@@ 22429
2.4 22427
Challenger 22427
tribu@@ 22426
ebe 22425
ither 22419
iter 22409
isch@@ 22408
SR@@ 22407
1790 22400
Mickey 22400
Shi 22399
Names 22398
Monte@@ 22396
Hellen@@ 22392
Antarc@@ 22384
installations 22382
Pale@@ 22380
Bid@@ 22378
Fa@@ 22378
techni@@ 22375
zu@@ 22371
agonal 22365
dragon 22365
hang 22365
Clarence 22360
Barton 22354
AW@@ 22347
ković 22341
pus 22341
Pow@@ 22330
mos 22325
acul@@ 22323
hammer 22323
Beat 22320
migrants 22316
mud@@ 22314
Know@@ 22306
Alber@@ 22304
Candid@@ 22301
Net 22293
amen@@ 22276
wang 22275
oti@@ 22274
Cey@@ 22269
Clayton 22263
57@@ 22261
ppo 22260
final@@ 22257
attach@@ 22250
uck@@ 22241
Du 22238
Moor@@ 22235
fres@@ 22231
Barack 22225
Neal 22219
Benson 22216
Mad 22215
lot@@ 22211
child@@ 22207
gren 22206
Salisbury 22194
Kang@@ 22182
Nap@@ 22175
isch 22169
Lug@@ 22167
ften 22147
GE 22145
Kru@@ 22143
Rebel@@ 22140
mutation 22139
pren@@ 22138
Barrett 22135
spap@@ 22128
DR@@ 22126
punc@@ 22123
1802 22121
Cash 22118
Paraguay 22117
alphabet 22113
Carpenter 22108
Carmen 22107
Unity 22107
LS 22106
Taj@@ 22102
amoto 22099
Paral@@ 22096
imit@@ 22094
charg@@ 22093
Part@@ 22085
fib@@ 22072
1792 22067
Gaza 22065
leyball 22064
http 22063
listen 22063
orbital 22063
Laz@@ 22061
Klein 22056
aments 22052
cous@@ 22052
intest@@ 22052
Hale 22047
Smart 22046
Brand@@ 22043
Disco@@ 22035
Genesis 22029
Vol 22028
Gabri@@ 22020
Jerome 22020
Identi@@ 22016
Giant 22014
Poc@@ 22013
canon 22005
Distr@@ 22004
Augustine 21998
ako 21989
Mell@@ 21988
stadt 21987
Duk@@ 21982
lava 21982
minor@@ 21976
Adap@@ 21975
vamp@@ 21966
Mikhail 21965
confes@@ 21962
Pratt 21958
Lean 21954
orr@@ 21947
onna 21941
Warwick 21935
180@@ 21934
Airways 21934
Waterloo 21933
Kle@@ 21930
Squad 21930
gens 21925
Cross@@ 21922
Tsu@@ 21922
amin 21921
psy@@ 21921
Murder 21918
dive 21916
Comic 21911
Lab 21911
Din 21908
Valentine 21905
Normal 21904
uch 21901
Aver@@ 21894
NS 21891
inspir@@ 21891
kum@@ 21884
Beth 21881
Jus@@ 21880
ED 21877
BR@@ 21871
zer@@ 21871
chil@@ 21867
Andreas 21866
CW 21864
tariat 21861
Hansen 21860
Estr@@ 21858
Blu 21852
Basil@@ 21847
Foot 21847
logan 21846
Rodríguez 21844
stu@@ 21843
ox 21837
Piano 21832
Kash@@ 21831
Sib@@ 21825
reside 21822
aller@@ 21819
inski 21818
Christie 21813
Cunningham 21813
yang 21812
simpli@@ 21811
Amanda 21806
Jupiter 21804
BT 21792
End@@ 21791
Ron@@ 21791
Ches@@ 21790
Martin@@ 21789
uca 21789
enario 21788
icz 21778
Organiz@@ 21773
aman@@ 21772
Stop 21771
maxim@@ 21766
1789 21757
attribu@@ 21745
Omar 21744
Vig@@ 21741
Ö@@ 21738
Must@@ 21734
Heart@@ 21733
MLS 21730
Elisabeth 21728
Alfonso 21727
fauna 21727
Beverly 21726
Engine 21726
Yer@@ 21722
bard 21718
senti@@ 21716
Was 21704
Harmon@@ 21700
Å@@ 21699
fric@@ 21686
calyp@@ 21682
erman 21676
acer@@ 21675
Samoa 21668
defici@@ 21665
psychiatr@@ 21665
kee 21662
SO 21657
Bo 21651
licens@@ 21650
garh 21648
aken 21641
lich@@ 21638
Moss 21624
Isabella 21620
expon@@ 21608
singular 21608
Foot@@ 21607
aun 21607
Ide@@ 21605
blog@@ 21605
ár@@ 21604
awi 21601
Gustav 21592
Dic@@ 21590
Gloria 21585
Re 21585
Coron@@ 21581
Howe 21574
fu 21572
Beat@@ 21571
ionally 21570
phus 21569
jung@@ 21567
bour@@ 21566
Marx 21563
ET@@ 21561
Targ@@ 21555
modification 21551
plum@@ 21549
blast 21545
Iron@@ 21542
EM 21541
KA 21540
Technologies 21536
enf@@ 21529
plateau 21528
uster 21528
Jenny 21524
Leopold 21507
Weber 21507
Kiss 21500
kara 21497
enia 21496
Luz@@ 21492
Yes@@ 21490
aar 21489
Brenn@@ 21487
Cheshire 21484
unga 21482
Resist@@ 21481
Lomb@@ 21473
IE@@ 21452
interpret@@ 21451
1796 21449
ka@@ 21442
Wesley 21438
Zel@@ 21431
Revol@@ 21430
Peters 21429
orit@@ 21427
Dami@@ 21424
Shannon 21424
gie 21418
Joey 21414
Kend@@ 21413
OR@@ 21413
Tan 21409
tron 21409
Das 21408
Fru@@ 21397
expan@@ 21397
HR 21395
Vall@@ 21389
icts 21381
Yang@@ 21377
exploitation 21377
Treat@@ 21364
Lip@@ 21359
chin 21358
vered 21354
itions 21351
ospel 21349
ević 21342
Orch@@ 21340
idental 21337
auses 21335
culp@@ 21330
Marketing 21328
BN 21326
cultur@@ 21326
ü@@ 21326
Agu@@ 21323
BMW 21318
acter@@ 21315
pet 21315
meteor@@ 21313
elis 21312
Cic@@ 21303
salm@@ 21303
PBS 21301
Bry@@ 21297
Made 21292
Proj@@ 21291
Sok@@ 21290
leges 21287
13,@@ 21286
Recordings 21282
Tell 21277
sko@@ 21275
Jacobs 21274
Parsons 21274
suite 21264
113 21263
Stuttgart 21263
Moy@@ 21258
Jubil@@ 21244
Find@@ 21241
aid@@ 21241
angi 21240
Bowie 21237
Hip@@ 21232
Gene@@ 21231
Bash@@ 21230
ficit 21228
uda 21227
Von 21226
ympi@@ 21225
Elena 21224
Turin 21221
Kati@@ 21216
1799 21207
refus@@ 21206
Marcos 21201
1,6@@ 21194
glomer@@ 21194
Manning 21191
you@@ 21191
René 21177
Relief 21176
tiliz@@ 21166
atia 21165
Jah@@ 21162
eci@@ 21162
nobl@@ 21161
thia 21161
fortifications 21159
WC 21156
Honduras 21148
interfer@@ 21142
Kyr@@ 21134
Pius 21132
gymnas@@ 21132
procur@@ 21131
asons 21129
uer@@ 21120
fantas@@ 21117
perpet@@ 21112
ör@@ 21109
affin@@ 21108
Ordin@@ 21106
bibl@@ 21106
eg 21106
Mick 21104
Astronom@@ 21095
aber 21093
cade 21093
Infrastr@@ 21092
Tracks 21091
complement@@ 21088
uo 21087
talents 21081
yev 21080
Buck 21078
XII 21073
rol 21072
tial 21065
Jakarta 21062
Better 21061
Habitat 21053
oj@@ 21049
ayat 21048
jour@@ 21041
Zhou 21040
Jor@@ 21032
Bronx 21030
Rodriguez 21030
spatial 21029
Ski 21025
Monster 21023
dyn@@ 21016
33.@@ 21008
Standards 21008
heli@@ 21003
Plate 21002
Sutherland 20999
Jam 20994
adan 20991
PL 20980
Stand 20979
p. 20972
Sales 20970
bro 20965
forcement 20960
wol@@ 20959
Clu@@ 20953
Yan 20953
AV 20947
quin@@ 20947
signi@@ 20947
Ud@@ 20945
Waters 20944
Pole 20938
Capr@@ 20936
orts 20931
Dee 20929
Sovi@@ 20928
atir@@ 20920
Barker 20919
dits 20910
Hammond 20909
boot 20903
Rhy@@ 20899
Ł@@ 20896
300,000 20892
Nord 20892
Marl@@ 20887
Ek@@ 20885
Doyle 20882
Rain 20881
Dover 20877
Scienti@@ 20877
cock 20877
armo@@ 20876
Williamson 20874
bins 20872
epo@@ 20868
Travis 20867
Ster@@ 20866
Noah 20861
Everything 20858
Renault 20857
ht@@ 20848
Glory 20844
Coordin@@ 20842
1,3@@ 20840
Alum@@ 20840
reas 20834
defe@@ 20833
node 20833
Blackburn 20829
Light@@ 20828
Gay@@ 20823
Coul@@ 20817
ao@@ 20813
articul@@ 20809
Fitzgerald 20805
depar@@ 20803
MV 20802
Bub@@ 20801
Lands@@ 20799
oki 20792
Roth@@ 20790
parap@@ 20789
12,000 20787
Wheeler 20780
ffe 20780
oides 20779
progression 20776
Mayo 20773
Walton 20771
Stil@@ 20769
macro@@ 20765
Randolph 20763
common@@ 20761
Emmanuel 20755
Hau@@ 20751
Dictionary 20750
Bologna 20748
Evil 20735
0.4 20729
Lafayette 20723
Voy@@ 20719
Mi 20716
Ce@@ 20706
anu 20703
nar 20700
Canon 20690
240 20687
podium 20686
Grig@@ 20680
U. 20679
Fuller 20675
JP 20668
MG 20667
a. 20666
Commodore 20664
shin@@ 20660
UT@@ 20657
estu@@ 20650
Ves@@ 20645
Hunt@@ 20642
ylo@@ 20638
Assist@@ 20627
Viking 20623
Hanover 20620
Ruby 20617
aser 20616
Josef 20613
Rainbow 20613
Assam 20612
olin 20610
Expl@@ 20609
ís 20605
Perman@@ 20601
handball 20601
Isa@@ 20594
dir 20593
1797 20592
Chak@@ 20590
tard 20581
sted 20580
115@@ 20577
awk 20577
kol@@ 20576
otti 20569
Gin@@ 20564
Cong@@ 20563
Progr@@ 20551
Protest@@ 20548
Dead@@ 20541
Rita 20539
ilst 20537
pier 20536
Clan 20535
Palm@@ 20533
Angelo 20530
Taliban 20527
Thre@@ 20527
Fantas@@ 20517
Francis@@ 20499
Pug@@ 20494
oman 20493
eni@@ 20486
gil@@ 20480
chard 20479
destruc@@ 20472
1776 20468
Pérez 20451
bay@@ 20448
Bangalore 20447
scru@@ 20447
öl@@ 20437
Pioneer 20432
oty@@ 20431
Shop 20430
č 20428
Yuk@@ 20424
Comput@@ 20423
Jung@@ 20417
Plas@@ 20416
aurus 20410
rak@@ 20402
bli@@ 20400
march@@ 20399
F1 20398
Somalia 20396
Seymour 20393
Nina 20390
qui 20390
Pac 20388
Corin@@ 20383
Pach@@ 20383
Holly 20379
ald@@ 20375
lywood 20375
porno@@ 20371
Harlem 20370
BB@@ 20367
ya@@ 20363
Afr@@ 20357
enty@@ 20357
Recon@@ 20355
esch@@ 20351
Bé@@ 20337
ophys@@ 20336
Rouge 20335
Geographic 20332
2,500 20331
abu 20324
Edith 20322
lid 20319
Jew@@ 20316
Lahore 20316
Mo 20316
Spot@@ 20316
Reich 20314
Rox@@ 20313
incre@@ 20311
Á@@ 20304
56@@ 20303
Dream@@ 20303
gram 20303
fran@@ 20299
Steam 20296
ney@@ 20282
Namibia 20281
MR 20280
akin 20279
Close 20278
efs 20278
Pras@@ 20270
Vista 20267
grab@@ 20266
ingle 20266
Griffith 20262
Perkins 20261
Dipl@@ 20259
MCA 20258
bann@@ 20256
114 20251
anterior 20247
andez 20245
chal@@ 20242
117 20236
delic@@ 20227
cruci@@ 20224
Att@@ 20219
Eb@@ 20217
carbon@@ 20215
ms@@ 20213
anni@@ 20210
omorph@@ 20206
illas 20205
And@@ 20204
robot 20203
Rin@@ 20202
Hert@@ 20201
jana 20196
Greenwich 20193
Noble 20177
bombard@@ 20177
kam@@ 20177
184@@ 20176
Plateau 20172
dot 20170
victori@@ 20170
Deleg@@ 20168
MO 20165
Gly@@ 20163
fet@@ 20162
liquid@@ 20155
MacDonald 20149
Ranger 20149
lass@@ 20148
diversi@@ 20136
Attack 20131
Mec@@ 20127
aird 20125
Langu@@ 20119
1.9 20113
Simmons 20112
abandon@@ 20110
complexes 20104
inhib@@ 20098
yne 20098
cum 20097
imal 20097
aden 20089
NA@@ 20087
Say 20084
Search 20084
Infin@@ 20083
Sophia 20080
Ling@@ 20077
obsol@@ 20077
fes@@ 20076
3.0 20071
lings 20071
kie 20068
Holiday 20064
Sunderland 20055
Myers 20054
UM@@ 20054
Viv@@ 20054
Liz@@ 20053
14,@@ 20046
Forever 20045
onde 20044
1,8@@ 20043
happen@@ 20040
Stevenson 20039
Rapid 20038
tubercul@@ 20036
like@@ 20035
orthodo@@ 20033
2.7 20031
Con 20030
Ha 20028
ina@@ 20025
Fritz 20021
Cliff 20019
PT 20017
Cannes 20016
lith@@ 20011
bek 20009
Strange 20003
merc@@ 20002
Navig@@ 20000
abrup@@ 20000
ahl@@ 19998
8.5 19996
Nassau 19988
McCl@@ 19985
Soc@@ 19985
Donna 19981
Regina 19975
prolong@@ 19973
imi@@ 19970
Pis@@ 19966
Sek@@ 19963
besieg@@ 19963
Knox 19958
Rivera 19954
123 19953
Dunn 19953
coral 19951
McKin@@ 19949
Suz@@ 19947
athe@@ 19945
kard 19945
Val 19941
mash 19937
Blac@@ 19935
dot@@ 19927
Hyper@@ 19923
omy@@ 19922
lim 19921
coe 19917
Sut@@ 19915
Nec@@ 19913
earth@@ 19913
olds 19905
titular 19905
raz@@ 19904
pos 19903
org 19899
Corner 19898
16,@@ 19897
99.@@ 19897
Ques@@ 19897
Per 19890
Lans@@ 19888
ymn@@ 19887
Monaco 19884
· 19879
Bates 19869
DT 19860
jurisdic@@ 19850
assimil@@ 19849
Naw@@ 19847
Lily 19845
Lightning 19839
spontan@@ 19829
precis@@ 19828
68@@ 19826
Pes@@ 19826
revision 19823
stag@@ 19819
Rise 19811
Xin@@ 19810
equilibri@@ 19810
Amp@@ 19804
Phys@@ 19799
ambo@@ 19796
Fleming 19794
CV@@ 19790
Lexington 19787
terti@@ 19786
abul@@ 19784
reput@@ 19783
Dong@@ 19773
Fan@@ 19771
Tai 19765
FS 19762
Mirror 19761
127 19754
Brett 19751
Oh@@ 19750
Way@@ 19750
agog@@ 19748
Isra@@ 19747
1,7@@ 19746
Tate 19746
Sph@@ 19745
Clifford 19737
Kro@@ 19726
abri@@ 19721
Mozart 19718
circuits 19716
yana 19711
Rama 19710
margin@@ 19709
Ricardo 19705
ces@@ 19704
probable 19694
Bahrain 19692
provisional 19690
Ricky 19686
Mish@@ 19685
baum 19685
Goa 19681
polyg@@ 19681
superi@@ 19674
extraction 19669
Quin@@ 19661
hian 19660
gradi@@ 19659
posterior 19658
nominal 19657
iger@@ 19647
plen@@ 19647
Intel 19645
Stur@@ 19643
Samp@@ 19634
Bush@@ 19627
BB 19626
ás@@ 19626
HO@@ 19624
1200 19623
121 19622
satellites 19621
Khali@@ 19619
Laugh@@ 19617
opl@@ 19613
reproduction 19613
Higgins 19612
Solo 19612
Dreams 19610
dispar@@ 19608
ior 19606
Jiang@@ 19605
qualifi@@ 19604
Birds 19601
lowship 19598
ști 19598
Avi@@ 19590
c.@@ 19587
Direct 19583
eim 19581
Thom@@ 19577
Satellite 19575
Hawk 19574
Purple 19572
rift 19570
0.6 19568
Wester@@ 19566
Baj@@ 19554
Journey 19541
Core 19530
DL 19524
homo@@ 19522
stellation 19522
Cyn@@ 19520
jah 19517
jin 19517
ois@@ 19517
Kes@@ 19515
opar@@ 19515
avant 19512
infer@@ 19510
Event 19505
Brand 19494
Format 19492
uga 19488
Ket@@ 19487
Gug@@ 19485
lave 19485
Hawkins 19479
Lu 19479
infiltr@@ 19476
ude 19476
tane 19475
xy@@ 19475
Eil@@ 19473
Jules 19469
strat@@ 19462
Nir@@ 19459
Quest 19459
https 19458
individ@@ 19457
Fis@@ 19445
Tes@@ 19444
Hig@@ 19441
École 19440
subst@@ 19438
agne 19437
[...]
