, 1
. 1
в 1
и 1
@-@ 1
на 1
) 1
( 1
— 1
« 1
» 1
с 1
В 1
года 1
&quot; 0.3316553794567305
году 1
по 1
к 1
не 1
из 1
: 1
был 1
от 1
что 1
у 1
а 1
ной 1
за 1
для 1
но 1
его 1
ных 1
ского 1
как 1
не@@ 1
; 1
ской 1
ный 1
до 1
он 1
у@@ 1
ного 1
ные 1
ли 1
о 1
на@@ 1
ский 1
ла 1
по@@ 1
л 1
ки 1
за@@ 1
ка 1
про@@ 1
ном 1
ы 1
ная 1
й 1
при@@ 1
е 1
ным 1
также 1
С 1
с@@ 1
т 1
м 1
вы@@ 1
ли@@ 1
пере@@ 1
была 1
том 1
ль@@ 1
в@@ 1
до@@ 1
я 1
были 1
А@@ 1
ное 1
ко@@ 1
было 1
во 1
т@@ 1
время 1
та 1
ская 1
н 1
но@@ 1
со@@ 1
ском 1
1 1
О@@ 1
ни@@ 1
или 1
ре@@ 1
же 1
о@@ 1
при 1
х 1
к@@ 1
ка@@ 1
ю 1
д@@ 1
ш@@ 1
м@@ 1
ль 1
́ 1
ро@@ 1
ны 1
ты 1
ских 1
ра@@ 1
2 1
э@@ 1
са 1
ную 1
то 1
ва@@ 1
ке 1
Э@@ 1
ло@@ 1
С@@ 1
от@@ 1
И@@ 1
У@@ 1
ти@@ 1
после 1
д 1
то@@ 1
да 1
ри@@ 1
ло 1
г 1
р 1
ве@@ 1
ле@@ 1
ма@@ 1
а@@ 1
ров 1
во@@ 1
ку 1
На 1
мо@@ 1
ви@@ 1
и@@ 1
ными 1
ди@@ 1
п@@ 1
л@@ 1
ж@@ 1
та@@ 1
ков 1
б@@ 1
ть 1
раз@@ 1
ма 1
го@@ 1
де@@ 1
под 1
По 1
си@@ 1
де 1
ра 1
з@@ 1
лись 1
области 1
их 1
3 1
тов 1
ром 1
лся 1
ру@@ 1
г@@ 1
те 1
/ 0.8611344798466355
бо@@ 1
% 0.9752982911753423
где 1
я@@ 1
её 1
км 1
ские 1
По@@ 1
лет 1
К@@ 1
н@@ 1
который 1
се@@ 1
В@@ 1
нии 1
П@@ 1
го 1
х@@ 1
ми@@ 1
са@@ 1
ить 1
ют 1
те@@ 1
лась 1
ла@@ 1
под@@ 1
ба@@ 1
А 1
бе@@ 1
Г@@ 1
ет 1
ния 1
После 1
й@@ 1
со 1
ва 1
4 1
ме@@ 1
того 1
стал 1
кой 1
р@@ 1
год 1
это 1
ское 1
да@@ 1
су@@ 1
па@@ 1
га@@ 1
ским 1
Ка@@ 1
ми 1
ч@@ 1
Т@@ 1
Ко@@ 1
более 1
ние 1
России 1
ку@@ 1
она 1
ле 1
вой 1
нов 1
ф@@ 1
Ма@@ 1
ется 1
ля 1
Б@@ 1
ги@@ 1
ст@@ 1
ний 1
5 1
является 1
так 1
человек 1
е@@ 1
об@@ 1
состав 1
ь@@ 1
цы 1
ды 1
га 1
ь 1
ни 1
лось 1
пе@@ 1
ё@@ 1
чи@@ 1
пи@@ 1
&amp; 1
Д@@ 1
ду@@ 1
М@@ 1
ан@@ 1
ей 1
жи@@ 1
которые 1
ции 1
только 1
города 1
з 1
ко 1
вых 1
6 1
ком 1
ки@@ 1
скую 1
На@@ 1
10 1
ше@@ 1
ность 1
ности 1
ры 1
че@@ 1
ля@@ 1
К 1
Со@@ 1
мы 1
них 1
Ш@@ 1
СССР 1
льной 1
вер@@ 1
войны 1
Са@@ 1
ши@@ 1
му@@ 1
сто@@ 1
лей 1
хо@@ 1
этого 1
нию 1
Р@@ 1
И 1
они 1
этом 1
годах 1
За@@ 1
пре@@ 1
ин@@ 1
би@@ 1
ме 1
ников 1
ства 1
це@@ 1
Л@@ 1
зо@@ 1
вал 1
ник 1
района 1
зи@@ 1
ю@@ 1
кон@@ 1
льного 1
США 1
История 1
гу@@ 1
8 1
льный 1
между 1
7 1
ы@@ 1
ту@@ 1
му 1
Биография 1
из@@ 1
составе 1
ста@@ 1
лов 1
ча@@ 1
ются 1
когда 1
ному 1
Он 1
цию 1
бы 1
Н@@ 1
против 1
части 1
реки 1
рас@@ 1
ту 1
дом 1
ство 1
ем 1
ха@@ 1
сти@@ 1
которых 1
Не@@ 1
Ми@@ 1
ника 1
ре 1
Ку@@ 1
льных 1
мая 1
ду 1
годы 1
Ф@@ 1
чтобы 1
ники 1
него 1
воз@@ 1
При@@ 1
ней 1
января 1
пу@@ 1
нием 1
20 1
се 1
вать 1
вая 1
ди 1
Ба@@ 1
все 1
около 1
вые 1
ге@@ 1
бу@@ 1
15 1
лом 1
Ли@@ 1
ев 1
ца 1
же@@ 1
ления 1
бы@@ 1
районе 1
мира 1
ками 1
июля 1
цев 1
дов 1
лы 1
12 1
ст 1
века 1
ша@@ 1
вого 1
б 1
населения 1
ать 1
место 1
ц@@ 1
им 1
9 1
Се@@ 1
ги 1
лу@@ 1
рии 1
несколько 1
через 1
декабря 1
ещё 1
уже 1
получил 1
2010 1
льно 1
мен@@ 1
которой 1
Ро@@ 1
часть 1
ры@@ 1
марта 1
Про@@ 1
которая 1
жа@@ 1
Де@@ 1
Мо@@ 1
августа 1
Су@@ 1
ар@@ 1
Ар@@ 1
сти 1
над 1
сентября 1
М 1
ья 1
Х@@ 1
Я@@ 1
октября 1
территории 1
Ра@@ 1
фи@@ 1
вали 1
апреля 1
своей 1
ти 1
п 1
июня 1
Та@@ 1
два 1
может 1
№ 1
льные 1
один 1
ческих 1
Е@@ 1
Ре@@ 1
ну@@ 1
пол@@ 1
ш 1
ему 1
чем 1
ление 1
Го@@ 1
ман@@ 1
вает 1
Си@@ 1
30 1
ри 1
сы 1
других 1
затем 1
Ле@@ 1
Мар@@ 1
скому 1
качестве 1
ноября 1
ция 1
18 1
Население 1
ч 1
Ки@@ 1
группы 1
З@@ 1
вым 1
ье 1
Ю@@ 1
полу@@ 1
находится 1
ций 1
льная 1
Бо@@ 1
Бе@@ 1
район 1
11 1
Па@@ 1
ат@@ 1
вместе 1
ци@@ 1
жен@@ 1
ках 1
Га@@ 1
ха 1
зна@@ 1
февраля 1
лю@@ 1
сте@@ 1
ческой 1
16 1
поло@@ 1
_ 1
сов 1
хи@@ 1
Однако 1
Ч@@ 1
Ме@@ 1
однако 1
среди 1
сом 1
участие 1
ор@@ 1
ником 1
которого 1
стве 1
стра@@ 1
составляет 1
лен@@ 1
вания 1
14 1
ён 1
Н 1
&#93; 1
&#91; 1
жение 1
ран@@ 1
ня@@ 1
Бу@@ 1
работал 1
гор@@ 1
городе 1
стро@@ 1
всех 1
город 1
ями 1
25 1
ак@@ 1
ством 1
г. 1
период 1
числе 1
ческого 1
- 0.3626261912861143
жения 1
тан@@ 1
ц 1
13 1
лё@@ 1
двух 1
ен@@ 1
ве 1
той 1
свою 1
ге 1
цией 1
начале 1
ж 1
кар@@ 1
три 1
ска@@ 1
мом 1
ста 1
ба 1
17 1
быть 1
стала 1
годов 1
фа@@ 1
этой 1
жизни 1
ря@@ 1
ющий 1
себя 1
Ла@@ 1
ско@@ 1
рия 1
Ви@@ 1
вом 1
сло@@ 1
нами 1
вы 1
стов 1
ке@@ 1
рен@@ 1
армии 1
своего 1
название 1
П 1
есть 1
обра@@ 1
данным 1
ью 1
За 1
Ва@@ 1
О 1
У 1
времени 1
льным 1
сть 1
ним 1
лем 1
Ве@@ 1
лу 1
Кар@@ 1
без 1
всего 1
ск 1
Ру@@ 1
19 1
При 1
род@@ 1
фе@@ 1
ск@@ 1
До@@ 1
I 0.658875734322354
чи 1
Это 1
чных 1
скими 1
имени 1
конце 1
там 1
работы 1
село 1
ющих 1
деревня 1
человека 1
рами 1
ческий 1
вала 1
Ц@@ 1
откры@@ 1
пло@@ 1
2011 0.8216538416496452
пред@@ 1
.@@ 1
раз 1
Во 1
ческие 1
ско 1
Лу@@ 1
ден@@ 1
2012 0.8760456249718084
истории 1
лин@@ 1
гу 1
тах 1
эн@@ 1
си 1
име@@ 1
formula 1
Му@@ 1
вен@@ 1
ван@@ 1
2008 0.8903408223694365
2014 0.862295438267125
2009 0.8793416394734845
теле@@ 1
мы@@ 1
вый 1
первый 1
тами 1
gt 1
йской 1
тем 1
чной 1
кра@@ 1
гре@@ 1
ностью 1
нения 1
Также 1
имеет 1
льное 1
этот 1
ров@@ 1
Ан@@ 1
ос@@ 1
связи 1
ться 1
21 1
2007 0.9103712702019614
24 1
II 1
lt 1
зе@@ 1
2013 0.8441849495144793
бер@@ 1
можно 1
2015 0.8358078952971165
мм 1
об 1
То@@ 1
лен 1
Пе@@ 1
Да@@ 1
22 1
второй 1
э 1
° 1
зу@@ 1
кие 1
чего 1
чно 1
ющие 1
2006 0.9061305609914563
три@@ 1
ит@@ 1
шей 1
род 1
Ду@@ 1
ша 1
2002 1
йского 1
гов 1
па 1
нов@@ 1
ру 1
Хо@@ 1
электро@@ 1
Кон@@ 1
стали 1
ший 1
чный 1
переписи 1
щ@@ 1
ска 1
Ри@@ 1
Его 1
сон 1
своих 1
ро 1
Аль@@ 1
ству 1
2016 0.7999955500118785
2000 0.9997866306672889
гра@@ 1
тра@@ 1
образом 1
ниях 1
Гу@@ 1
мов 1
пла@@ 1
другие 1
эк@@ 1
вра@@ 1
аль@@ 1
Ха@@ 1
ходе 1
сельского 1
23 1
лет@@ 1
отде@@ 1
вший 1
результате 1
пер@@ 1
тер@@ 1
вание 1
лан@@ 1
сты 1
вается 1
собой 1
котором 1
100 1
ком@@ 1
сы@@ 1
фильм 1
одной 1
Вы@@ 1
мер@@ 1
ёт 1
Те@@ 1
ня 1
центра 1
течение 1
… 1
26 1
обще@@ 1
Ди@@ 1
кор@@ 1
роль 1
одним 1
лишь 1
вое 1
² 1
точ@@ 1
обо@@ 1
чного 1
Украины 1
ёр@@ 1
ях 1
гру@@ 1
Для 1
кан@@ 1
ну 1
ван 1
встре@@ 1
ман 1
очень 1
поселения 1
нах 1
Но@@ 1
2017 0.7877324303161015
мой 1
су 1
льном 1
фо@@ 1
дней 1
день 1
начала 1
Ж@@ 1
Пер@@ 1
Ни@@ 1
страны 1
28 1
ур@@ 1
область 1
став@@ 1
пар@@ 1
он@@ 1
призна@@ 1
боль@@ 1
цен@@ 1
ших 1
юго 1
Российской 1
сборной 1
ств 1
Пи@@ 1
2005 0.9379225312282553
От@@ 1
Г 1
им@@ 1
C 1
The 0.049784196761288035
Ти@@ 1
ске 1
вую 1
ча 1
ница 1
кры@@ 1
зы 1
смерти 1
северо 1
Во@@ 1
гла@@ 1
прав@@ 1
чу@@ 1
Александр 1
2018 0.7258878282693615
27 1
тро@@ 1
2004 0.971036094998905
Согласно 1
кре@@ 1
начал 1
нее 1
являются 1
Ту@@ 1
само@@ 1
производ@@ 1
ится 1
округа 1
много 1
вод@@ 1
дра@@ 1
мя@@ 1
пле@@ 1
1941 1
уда@@ 1
поли@@ 1
2001 1
тся 1
свой 1
йский 1
Би@@ 1
кам 1
Ло@@ 1
мар@@ 1
даже 1
лов@@ 1
команды 1
чные 1
бро@@ 1
метров 1
тре@@ 1
кая 1
Республики 1
ниями 1
назначен 1
ок@@ 1
ды@@ 1
способ@@ 1
1990 1
первой 1
иться 1
2019 0.739252563437285
ким 1
фа 1
центр 1
бор@@ 1
могут 1
ян@@ 1
вос@@ 1
рин@@ 1
кий 1
Ин@@ 1
церкви 1
’ 0.16182092267931547
кино@@ 1
тор@@ 1
кру@@ 1
це 1
партии 1
нем 1
кли@@ 1
Д 1
стороны 1
цами 1
ева 1
тель@@ 1
Ша@@ 1
ты@@ 1
Бер@@ 1
шие 1
льную 1
50 1
две 1
наук 1
шего 1
ал@@ 1
университета 1
разде@@ 1
авто@@ 1
сле@@ 1
итель@@ 1
ски 1
стом 1
свои 1
29 1
Из 1
компании 1
сил 1
этих 1
Ор@@ 1
Ал@@ 1
Пу@@ 1
вают 1
жил 1
клуб 1
кова 1
будет 1
ще@@ 1
ген@@ 1
уч@@ 1
бра@@ 1
ровать 1
вин@@ 1
вар@@ 1
Че@@ 1
сме@@ 1
рода 1
ков@@ 1
зем@@ 1
впервые 1
образ@@ 1
ев@@ 1
1944 1
менее 1
лли@@ 1
вался 1
ых 1
Пре@@ 1
География 1
вели@@ 1
чей 1
ан 1
ющим 1
ф 1
Но 1
пор@@ 1
низ@@ 1
Фе@@ 1
лич@@ 1
много@@ 1
например 1
рей@@ 1
нова 1
вались 1
зан@@ 1
родился 1
лой 1
выми 1
тот 1
мор@@ 1
Ф 1
Кроме 1
сня@@ 1
щения 1
семье 1
шен@@ 1
чен@@ 1
чемпионате 1
ям 1
ницы 1
щий 1
лл 1
оста@@ 1
гом 1
сезона 1
тия 1
зы@@ 1
31 1
чер@@ 1
Франции 1
Т 1
рах 1
отме@@ 1
которое 1
группа 1
либо 1
бан@@ 1
разме@@ 1
образования 1
щих 1
ённых 1
ниям 1
рования 1
вич 1
Совета 1
Ке@@ 1
Европы 1
2020 0.6939404202201059
над@@ 1
берегу 1
ху@@ 1
ровал 1
количество 1
Бар@@ 1
! 0.9580497040866356
жителей 1
лены 1
спи@@ 1
фор@@ 1
кого 1
бе 1
зов 1
Ста@@ 1
перед 1
пра@@ 1
если 1
рован 1
женщин 1
1999 1
няя 1
тных 1
цкий 1
мест@@ 1
вского 1
никами 1
села 1
br 1
– 0.1173053243620003
рав@@ 1
ющей 1
стре@@ 1
сни@@ 1
ща@@ 1
тя@@ 1
системы 1
1945 1
одного 1
нович 1
жи 1
часто 1
ато@@ 1
свя@@ 1
ход@@ 1
дами 1
рой 1
вана 1
зе 1
шая 1
нок 1
сель@@ 1
0 0.8280810916645784
вет@@ 1
ис@@ 1
Родился 1
всё 1
стар@@ 1
школы 1
1943 1
нам 1
пы 1
созда@@ 1
Входит 1
ер@@ 1
жа 1
тной 1
сен@@ 1
окончил 1
селе 1
сси@@ 1
анти@@ 1
называ@@ 1
40 1
Об@@ 1
ющего 1
нь 1
сла@@ 1
альбом 1
тин@@ 1
шения 1
станции 1
управления 1
Фи@@ 1
Л 1
2003 0.9038805884872657
представ@@ 1
Германии 1
поль@@ 1
ныне 1
совет@@ 1
нен@@ 1
стан@@ 1
почти 1
До 1
част@@ 1
организации 1
ят 1
детей 1
ющая 1
вский 1
Санкт 1
ряд 1
сь 1
дер@@ 1
ав@@ 1
вновь 1
ате@@ 1
оп@@ 1
кла@@ 1
тный 1
Мак@@ 1
типа 1
эти 1
ясь 1
власти 1
уз@@ 1
логи@@ 1
хотя 1
тен@@ 1
тый 1
культуры 1
ые 1
сам 1
игры 1
ата@@ 1
еди@@ 1
жизнь 1
8@@ 0.9943293424996682
Лю@@ 1
вя@@ 1
Федерации 1
дах 1
Как 1
ственных 1
честь 1
итель 1
чемпионата 1
Москве 1
шим 1
площадь 1
щи@@ 1
больше 1
ву@@ 1
город@@ 1
переда@@ 1
ких 1
имя 1
льского 1
Кор@@ 1
Она 1
губернии 1
чная 1
ган@@ 1
занима@@ 1
настоящее 1
цу 1
частности 1
направ@@ 1
ческая 1
ённые 1
людей 1
нет 1
лями 1
одно@@ 1
льской 1
кин 1
чение 1
Р 1
окру@@ 1
важ@@ 1
бере@@ 1
лении 1
клуба 1
генерал 1
сту@@ 1
многих 1
7@@ 1
ши 1
графи@@ 1
моло@@ 1
тон 1
ённый 1
стало 1
ати@@ 1
состоя@@ 1
1980 1
истори@@ 1
вших 1
тру@@ 1
лена 1
че 1
дви@@ 1
ый 1
Ге@@ 1
деятельность 1
момент 1
1991 1
коро@@ 1
1992 1
Эн@@ 1
би 1
степени 1
ез@@ 1
членом 1
гар@@ 1
“ 0.16778551641827272
наиболее 1
основном 1
Б 1
ство@@ 1
ера 1
работу 1
льский 1
дан@@ 1
мировой 1
ита@@ 1
различных 1
лия 1
сезоне 1
лы@@ 1
права 1
дивизии 1
XIX 1
ностей 1
Ча@@ 1
цкого 1
пан@@ 1
должность 1
входит 1
жд@@ 1
1942 1
Великой 1
первого 1
высо@@ 1
совета 1
кое 1
матче 1
Ново@@ 1
ссо@@ 1
соб@@ 1
вед@@ 1
аться 1
широ@@ 1
ственного 1
+ 1
стью 1
лением 1
лю 1
принял 1
1960 1
нескольких 1
Отечественной 1
вшие 1
ителей 1
изда@@ 1
ун@@ 1
здесь 1
дал 1
таких 1
1970 1
право@@ 1
диа@@ 1
лей@@ 1
рий 1
своим 1
лению 1
вской 1
тысяч 1
Так 1
лах 1
Кри@@ 1
национа@@ 1
щие 1
бой 1
ваться 1
своё 1
новых 1
ше 1
моря 1
син@@ 1
расска@@ 1
эта@@ 1
кро@@ 1
ранее 1
Я 1
примерно 1
зер@@ 1
рус@@ 1
месте 1
новой 1
советский 1
рует 1
Раз@@ 1
линии 1
войск 1
нение 1
учё@@ 1
спа@@ 1
кто@@ 1
Из@@ 1
сса 1
10@@ 1
дро@@ 1
„ 0.2284908304882658
фильма 1
логии 1
пове@@ 1
первым 1
Ман@@ 1
вшись 1
ья@@ 1
1998 0.9353794829384564
чески 1
восто@@ 1
участвовал 1
дома 1
вид 1
чу 1
сс 1
дия 1
тного 1
пода@@ 1
Ги@@ 1
прода@@ 1
лла 1
кри@@ 1
пара@@ 1
рабо@@ 1
Пере@@ 1
самого 1
трёх 1
цов 1
серии 1
названием 1
число 1
000 1
щение 1
лек@@ 1
образование 1
Союза 1
1930 1
1994 1
мин@@ 1
полка 1
Нью 1
тон@@ 1
новый 1
Ак@@ 1
1997 0.9982211664330584
дой 1
мен 1
которую 1
возрасте 1
каз@@ 1
золо@@ 1
вз@@ 1
of 0.009905510637633404
Владимир 1
Сер@@ 1
1996 0.9909829043397553
рова@@ 1
позже 1
воды 1
поме@@ 1
кин@@ 1
1995 1
Николай 1
получила 1
2021 0.692311052159661
виде 1
кур@@ 1
жением 1
вышел 1
приня@@ 1
6@@ 1
полностью 1
сын 1
вича 1
ток 1
заклю@@ 1
фак@@ 1
1920 1
вол@@ 1
ней@@ 1
образо@@ 1
нил 1
лин 1
Кур@@ 1
Бело@@ 1
ново@@ 1
ет@@ 1
назва@@ 1
нём 1
деятельности 1
игр 1
Под@@ 1
рон@@ 1
деревни 1
чёр@@ 1
III 1
бу 1
вернулся 1
актив@@ 1
современ@@ 1
Александ@@ 1
стер@@ 1
попа@@ 1
класси@@ 1
каза@@ 1
1993 1
обы@@ 1
исследовате@@ 1
ённого 1
рей 1
жена 1
уничто@@ 1
ственной 1
гг 1
уче@@ 1
Вер@@ 1
случае 1
чения 1
сотруд@@ 1
значения 1
Гор@@ 1
ённой 1
член 1
закры@@ 1
первых 1
XX 1
дет@@ 1
см 1
ём 1
дж@@ 1
ита 1
Чер@@ 1
9@@ 0.9152766726275303
валась 1
др 1
вое@@ 1
чё@@ 1
специаль@@ 1
городского 1
многие 1
ССР 1
млн 1
Второй 1
Был 1
ены 1
альбома 1
общества 1
тер 1
круп@@ 1
мужчин 1
&apos; 0.08720847546378775
евич 1
использо@@ 1
тых 1
провёл 1
жений 1
крас@@ 1
н. 1
уезда 1
тё@@ 1
прекра@@ 1
ён@@ 1
Ше@@ 1
посе@@ 1
рай@@ 1
согла@@ 1
Когда 1
Они 1
коло@@ 1
щей 1
организо@@ 1
муж@@ 1
ителя 1
1989 1
четыре 1
яв@@ 1
места 1
жении 1
тора 1
империи 1
опублико@@ 1
американ@@ 1
жены 1
ческое 1
дин@@ 1
кино 1
решение 1
сохрани@@ 1
руководством 1
себе 1
стиче@@ 1
1950 1
заня@@ 1
ься 1
рок 1
Восто@@ 1
сса@@ 1
лях 1
тные 1
нового 1
вов 1
60 1
язы@@ 1
хов 1
эй@@ 1
тии 1
Олимпийских 1
некоторые 1
действия 1
вой@@ 1
тому 1
сер@@ 1
1940 1
плани@@ 1
Воз@@ 1
ть@@ 1
выпол@@ 1
дол@@ 1
популяр@@ 1
некоторых 1
движения 1
поч@@ 1
кол@@ 1
писал 1
помощью 1
гово@@ 1
шу@@ 1
бри@@ 1
тор 1
доро@@ 1
тур@@ 1
население 1
выде@@ 1
песни 1
яр@@ 1
хи 1
основе 1
нес@@ 1
Дже@@ 1
= 0.6038291929042134
ено 1
веке 1
Пред@@ 1
профессиона@@ 1
восстанов@@ 1
лова 1
видов 1
иде@@ 1
ся 1
Среди 1
чки 1
5@@ 0.9746028606760296
церковь 1
развития 1
тно 1
поскольку 1
Фа@@ 1
побе@@ 1
голо@@ 1
сельсовета 1
совер@@ 1
цо@@ 1
йских 1
Мат@@ 1
государственного 1
бал@@ 1
Иван 1
работ 1
ву 1
кую 1
цар@@ 1
удалось 1
ждения 1
возвра@@ 1
включая 1
емых 1
рамках 1
лый 1
тогда 1
лина 1
сами 1
циях 1
содержа@@ 1
вшего 1
мана 1
центра@@ 1
шение 1
генера@@ 1
уро@@ 1
одна 1
языка 1
1918 1
чка 1
все@@ 1
кс 1
возмож@@ 1
мон@@ 1
ству@@ 1
играх 1
заме@@ 1
слу@@ 1
Ши@@ 1
1939 1
версии 1
имеют 1
гон@@ 1
академии 1
пя@@ 1
Затем 1
стри@@ 1
тил 1
проек@@ 1
установ@@ 1
рование 1
окончания 1
воло@@ 1
чным 1
другой 1
Хи@@ 1
компания 1
Мин@@ 1
участ@@ 1
изобра@@ 1
деревне 1
корот@@ 1
вода 1
рев@@ 1
немец@@ 1
вид@@ 1
0@@ 1
ред@@ 1
такие 1
ины 1
ними 1
ян 1
выпу@@ 1
роди@@ 1
пис@@ 1
2@@ 1
самых 1
шко@@ 1
дел 1
рию 1
S@@ 0.14238175513634765
ствуют 1
тие 1
вил 1
Ай@@ 1
поле 1
конца 1
обычно 1
Эр@@ 1
мо 1
тов@@ 1
жда@@ 1
мет@@ 1
института 1
положение 1
войска 1
льными 1
руется 1
Зе@@ 1
расши@@ 1
мат@@ 1
благодаря 1
тех 1
Е 1
река 1
дии 1
све@@ 1
йн 1
тыс. 1
зу 1
? 1
ер 1
явля@@ 1
владе@@ 1
требо@@ 1
ара 1
стер 1
университете 1
атов 1
Мор@@ 1
шка 1
ход 1
здание 1
фон 1
пы@@ 1
хе@@ 1
веду@@ 1
Пет@@ 1
поэтому 1
которым 1
дела@@ 1
ческом 1
сс@@ 1
украин@@ 1
ье@@ 1
художе@@ 1
пря@@ 1
дости@@ 1
жен 1
обнару@@ 1
Кре@@ 1
школу 1
чат@@ 1
присут@@ 1
мире 1
выступал 1
грани@@ 1
дены 1
работе 1
цкой 1
школе 1
большой 1
жу@@ 1
роли 1
ся@@ 1
Кара@@ 1
водо@@ 1
лег@@ 1
официаль@@ 1
Сан@@ 1
перешёл 1
дать 1
ут@@ 1
тура 1
чил 1
кат@@ 1
тек@@ 1
ил 1
вшая 1
провинции 1
радио@@ 1
физи@@ 1
самым 1
вало 1
ссе@@ 1
городской 1
щего 1
луч@@ 1
ыва@@ 1
Хар@@ 1
национальной 1
строитель@@ 1
бин@@ 1
отправ@@ 1
вании 1
M@@ 0.18096044706948836
Шу@@ 1
Первый 1
клю@@ 1
главным 1
кина 1
ваются 1
тической 1
чное 1
сов@@ 1
сан@@ 1
края 1
без@@ 1
позиции 1
Иванович 1
языке 1
испол@@ 1
настоя@@ 1
Гар@@ 1
шки 1
бар@@ 1
ви 1
хра@@ 1
округ 1
рез@@ 1
1917 1
ден 1
ем@@ 1
мир@@ 1
опера@@ 1
команда 1
работа@@ 1
зат@@ 1
согласно 1
нике 1
собствен@@ 1
постоян@@ 1
йн@@ 1
искусства 1
спор@@ 1
земли 1
ственные 1
производства 1
Вол@@ 1
гер@@ 1
поселение 1
бли@@ 1
мир 1
шта@@ 1
нин@@ 1
нос@@ 1
куль@@ 1
лер 1
хар@@ 1
впоследствии 1
должен 1
ще 1
200 1
миро@@ 1
частью 1
тина 1
Гер@@ 1
тол@@ 1
промышлен@@ 1
административ@@ 1
сторон@@ 1
новые 1
закон@@ 1
нин 1
российский 1
фер@@ 1
P@@ 0.15105940041833968
происходит 1
коллек@@ 1
сентябре 1
бит@@ 1
най@@ 1
зада@@ 1
плат@@ 1
чик 1
мнению 1
вызва@@ 1
язык 1
шую 1
Михаил 1
полк 1
кита@@ 1
гро@@ 1
создания 1
ответ@@ 1
стран 1
шёл 1
тые 1
1988 0.969594373441056
серебря@@ 1
Вен@@ 1
шла 1
звание 1
мати@@ 1
щен@@ 1
ческим 1
мае 1
волости 1
спорта 1
всей 1
завод 1
карьеру 1
Ху@@ 1
концер@@ 1
ходя@@ 1
нер 1
− 1
другими 1
британ@@ 1
Верховного 1
сли@@ 1
выра@@ 1
продолжа@@ 1
бо 1
мать 1
состоит 1
неё 1
избран 1
утвер@@ 1
январе 1
литератур@@ 1
составляло 1
Чу@@ 1
доб@@ 1
отношения 1
рова 1
данных 1
ственно 1
театра 1
ствовал 1
должности 1
учеб@@ 1
ители 1
s 0.08628173531156484
особенно 1
целью 1
профессор 1
the 0.004219940133469481
имел 1
ждение 1
ственный 1
ляется 1
поддержи@@ 1
постав@@ 1
лок 1
фина@@ 1
япон@@ 1
нер@@ 1
марте 1
Джо@@ 1
тай@@ 1
ым 1
лат@@ 1
тив@@ 1
деятель 1
кими 1
D@@ 0.1581333857392499
Ниж@@ 1
Сергей 1
древ@@ 1
кто 1
ствия 1
чел 1
ус 1
вскоре 1
коммуны 1
авиа@@ 1
именно 1
температура 1
сыграл 1
комплек@@ 1
Москва 1
станция 1
расположен 1
дня 1
сро@@ 1
12@@ 1
дер 1
посёлок 1
ваны 1
октябре 1
короля 1
занял 1
РФ 1
продолж@@ 1
лено 1
РСФСР 1
тар@@ 1
фильме 1
государства 1
первом 1
Кан@@ 1
августе 1
Сан 1
декабре 1
проект 1
так@@ 1
Италии 1
снова 1
рядом 1
институт 1
семьи 1
лии 1
аре@@ 1
священ@@ 1
ителем 1
зии 1
шин@@ 1
запре@@ 1
лами 1
возможность 1
слож@@ 1
семейства 1
ца@@ 1
приобре@@ 1
относится 1
рим@@ 1
шло 1
представля@@ 1
поэ@@ 1
право 1
массо@@ 1
противника 1
располага@@ 1
рам 1
евре@@ 1
этим 1
микро@@ 1
умер 1
служил 1
Этот 1
ковского 1
русской 1
команду 1
расстоянии 1
пе 1
опис@@ 1
выс@@ 1
первые 1
предло@@ 1
сбор@@ 1
женщины 1
од@@ 1
35 1
1938 1
Все 1
находился 1
ствует 1
емые 1
ковых 1
хоро@@ 1
правления 1
пов 1
1937 1
двумя 1
контракт 1
книги 1
зм 1
востоку 1
шли 1
суще@@ 1
спе@@ 1
отца 1
повы@@ 1
играл 1
вида 1
отли@@ 1
управля@@ 1
выступа@@ 1
Мон@@ 1
сборную 1
Несмотря 1
нару@@ 1
шо@@ 1
дей@@ 1
особ@@ 1
представляет 1
вве@@ 1
йские 1
проис@@ 1
долларов 1
1986 0.9699271486342478
Тре@@ 1
середине 1
службу 1
назна@@ 1
ски@@ 1
уровнем 1
состав@@ 1
прове@@ 1
Александра 1
июле 1
острова 1
культур@@ 1
церков@@ 1
школа 1
премии 1
тела 1
корпуса 1
основ@@ 1
емый 1
70 1
значение 1
силы 1
западу 1
лес@@ 1
север@@ 1
1987 0.9540110666637206
региона@@ 1
вка 1
цей 1
кладбище 1
80 1
уго@@ 1
1919 1
испан@@ 1
ётся 1
операции 1
проекта 1
дат@@ 1
бело@@ 1
вили 1
цве@@ 1
разви@@ 1
Джа@@ 1
ё 1
гой 1
1985 0.9781516289462715
1946 1
празд@@ 1
отец 1
итальян@@ 1
шее 1
0,@@ 1
Жи@@ 1
объеди@@ 1
совет 1
ходит 1
Описание 1
прожи@@ 1
жной 1
дебютировал 1
жили 1
опреде@@ 1
мах 1
дне@@ 1
рения 1
граждан@@ 1
своём 1
Поли@@ 1
Кра@@ 1
службы 1
бур@@ 1
расположен@@ 1
док 1
лые 1
ано 1
чен 1
необходи@@ 1
эту 1
разных 1
3@@ 0.9181427723479737
выда@@ 1
москов@@ 1
валось 1
сия 1
университет 1
математи@@ 1
первую 1
пор 1
камен@@ 1
система 1
дар@@ 1
июне 1
завер@@ 1
дов@@ 1
миче@@ 1
гну@@ 1
взя@@ 1
рово@@ 1
ули@@ 1
нений 1
Если 1
&#124; 0.8508586026944491
ствен@@ 1
лий 1
работать 1
Кубка 1
ём@@ 1
определ@@ 1
она@@ 1
Сто@@ 1
1965 1
друг 1
един@@ 1
поступил 1
Ис@@ 1
длин@@ 1
виде@@ 1
помощи 1
апреле 1
таким 1
буду@@ 1
нико@@ 1
искус@@ 1
хов@@ 1
Гре@@ 1
используется 1
другим 1
йти 1
становится 1
нови@@ 1
цем 1
внеш@@ 1
бле@@ 1
вшей 1
чин@@ 1
Тем 1
титул 1
дороги 1
центром 1
ноябре 1
дру@@ 1
прави@@ 1
дополнитель@@ 1
постанов@@ 1
смо@@ 1
ковский 1
4@@ 0.8918939443707197
отра@@ 1
нар@@ 1
ственная 1
исполня@@ 1
значитель@@ 1
русский 1
территориаль@@ 1
щая 1
цам 1
т. 1
Глав@@ 1
сен 1
ора 1
гг. 1
1984 0.9346407174026583
росси@@ 1
Через 1
месяца 1
противо@@ 1
должны 1
экономи@@ 1
штат 1
ственное 1
ссии 1
G@@ 0.1354929963618762
меня@@ 1
моно@@ 1
куп@@ 1
Май@@ 1
Пар@@ 1
1979 1
пять 1
пути 1
план@@ 1
стату@@ 1
реаль@@ 1
ват@@ 1
Великобритании 1
нить 1
Гри@@ 1
1966 1
съ@@ 1
транспор@@ 1
Московской 1
иногда 1
йском 1
ху 1
тирова@@ 1
русского 1
стен@@ 1
федера@@ 1
глав@@ 1
помо@@ 1
подтвер@@ 1
ниче@@ 1
тым 1
1968 1
пен@@ 1
цвет@@ 1
стоя@@ 1
1975 0.9844524430475236
дам 1
тая 1
C@@ 0.15749220367627673
благо@@ 1
сона 1
45 1
сли 1
рак@@ 1
1926 1
Гра@@ 1
ордена 1
русские 1
создан@@ 1
ковой 1
уби@@ 1
близ@@ 1
Никола@@ 1
Джон 1
подоб@@ 1
интер@@ 1
феврале 1
1948 1
аны 1
чном 1
рассматри@@ 1
T@@ 0.13749240608046948
кроме 1
атом 1
ителями 1
ённая 1
государственный 1
пат@@ 1
эта 1
ен 1
всегда 1
обороны 1
бронзо@@ 1
мя 1
получа@@ 1
евна 1
A 0.12246762955534356
востоке 1
проте@@ 1
здания 1
горо@@ 1
F@@ 0.1531113016843374
дочь 1
рован@@ 1
лений 1
остро@@ 1
нику 1
бое@@ 1
чай@@ 1
ющее 1
отве@@ 1
1963 1
итоге 1
комитета 1
1973 1
забил 1
пли@@ 1
училище 1
жан@@ 1
протяжении 1
лле@@ 1
нина 1
чает 1
1976 1
второго 1
вышла 1
тран@@ 1
войне 1
Бур@@ 1
практически 1
подчи@@ 1
щены 1
гах 1
мент 1
класса 1
хан@@ 1
ката@@ 1
R@@ 0.14275492039776524
мета@@ 1
отличие 1
стой 1
француз@@ 1
начало 1
Дон@@ 1
ствие 1
ью@@ 1
руковод@@ 1
1959 1
дил 1
Москвы 1
бре@@ 1
продол@@ 1
правительства 1
год@@ 1
1972 0.9658328490646452
матчей 1
четвёр@@ 1
этому 1
пти@@ 1
Пра@@ 1
ек@@ 1
тяжё@@ 1
ляет 1
похо@@ 1
чь 1
аль 1
V 0.7163365349291535
пригла@@ 1
фу@@ 1
вре@@ 1
сах 1
дере@@ 1
32 1
Рус@@ 1
фронта 1
президента 1
вшим 1
чную 1
мского 1
эт@@ 1
500 1
послед@@ 1
1971 1
1958 1
покры@@ 1
1956 1
счита@@ 1
расположена 1
B@@ 0.13000185413712004
меха@@ 1
Климат 1
меры 1
составляли 1
мени@@ 1
королев@@ 1
гри@@ 1
1982 0.9347136000925246
коль@@ 1
лли 1
Сте@@ 1
май@@ 1
эпизо@@ 1
ску 1
стами 1
дри@@ 1
уча@@ 1
вёл 1
запис@@ 1
ванием 1
вшийся 1
пу 1
сезон 1
музыкан@@ 1
ался 1
тий 1
вопро@@ 1
рин 1
жено 1
сты@@ 1
состоянию 1
граф 1
сына 1
провод@@ 1
ставля@@ 1
кам@@ 1
бло@@ 1
народ@@ 1
ково 1
ктора 1
жению 1
стат@@ 1
гидро@@ 1
мер 1
вод 1
1974 0.9786155181880462
сдела@@ 1
мента 1
Рай@@ 1
сам@@ 1
освобо@@ 1
ул 1
стране 1
двух@@ 1
зва@@ 1
запад@@ 1
гло@@ 1
щим 1
1929 1
рий@@ 1
состава 1
чены 1
следо@@ 1
сразу 1
членов 1
общей 1
карьера 1
вместо 1
держи@@ 1
1983 0.9189291140045436
1978 0.9751077994597953
Член 1
изо@@ 1
поез@@ 1
государствен@@ 1
авиацион@@ 1
программы 1
филь@@ 1
являлся 1
льности 1
1981 0.9259640414347471
награждён 1
мин 1
словам 1
фин@@ 1
времен@@ 1
публи@@ 1
Ком@@ 1
улица 1
военного 1
1967 1
ана 1
результатам 1
Мэ@@ 1
распростра@@ 1
Тер@@ 1
хом 1
союз@@ 1
центре 1
позднее 1
свобод@@ 1
улицы 1
англи@@ 1
большое 1
демокра@@ 1
издате@@ 1
ряда 1
воздуш@@ 1
хро@@ 1
прото@@ 1
джа@@ 1
вле@@ 1
1954 1
1964 1
люди 1
1957 1
рованных 1
дель@@ 1
выполня@@ 1
Уэ@@ 1
цах 1
жных 1
техниче@@ 1
кну@@ 1
IV 1
спо@@ 1
Тор@@ 1
держа@@ 1
Фо@@ 1
ган 1
зин@@ 1
симво@@ 1
90 1
1962 1
Чи@@ 1
зи 1
автор 1
тических 1
Дэ@@ 1
N@@ 0.1455517272692556
1949 1
безопасности 1
свидетель@@ 1
ата 1
мед@@ 1
внимание 1
завода 1
рес@@ 1
Англии 1
Запад@@ 1
очередь 1
дав@@ 1
сте 1
Японии 1
ам@@ 1
слова 1
включа@@ 1
турнира 1
мог 1
XVIII 1
ющими 1
журнала 1
чий 1
обеспечи@@ 1
1936 1
правитель@@ 1
нали@@ 1
З 1
вшихся 1
чена 1
жде@@ 1
иг@@ 1
1961 1
X 0.7166305546072275
собра@@ 1
сельское 1
ждении 1
мало@@ 1
жела@@ 1
вне@@ 1
источ@@ 1
Первой 1
религиоз@@ 1
дво@@ 1
Юж@@ 1
нан@@ 1
произо@@ 1
защи@@ 1
шед@@ 1
получи@@ 1
1977 0.98861277073439
восточной 1
Мари@@ 1
преподавате@@ 1
главе 1
главного 1
пост 1
ческую 1
зации 1
Тур@@ 1
зар@@ 1
западе 1
графа 1
исследования 1
западной 1
Кол@@ 1
спустя 1
военных 1
дву@@ 1
написал 1
Вар@@ 1
ъ@@ 1
старо@@ 1
опы@@ 1
летом 1
мей@@ 1
Ры@@ 1
строительство 1
Код 1
вано 1
лиги 1
юж@@ 1
1947 1
общи@@ 1
Бра@@ 1
Стар@@ 1
соответствии 1
нему 1
хода 1
превра@@ 1
получили 1
одновременно 1
ченко 1
дре@@ 1
Дан@@ 1
Таким 1
W@@ 0.1437923920971242
поро@@ 1
игра@@ 1
еся 1
мости 1
зоне 1
мена 1
льства 1
L@@ 0.12219284310422483
граф@@ 1
Пав@@ 1
тур 1
гото@@ 1
кисло@@ 1
одном 1
1969 0.9904687581742068
ал 1
бес@@ 1
фото@@ 1
штаба 1
стрел@@ 1
1935 1
ум 1
показа@@ 1
Бел@@ 1
начальник 1
обла@@ 1
мых 1
сельсовет 1
американский 1
хозяй@@ 1
совершен@@ 1
действу@@ 1
нении 1
форми@@ 1
ванию 1
ед@@ 1
Позже 1
жает 1
зда@@ 1
уэ@@ 1
научных 1
мии 1
строительства 1
орга@@ 1
упомина@@ 1
компози@@ 1
четырёх 1
коми@@ 1
a 0.00735857099873773
площади 1
форма@@ 1
населённых 1
развитие 1
кси@@ 1
зен@@ 1
ити@@ 1
щении 1
кни@@ 1
хорошо 1
сто 1
Россия 1
роман@@ 1
шоу 1
есте@@ 1
зрения 1
футболист 1
реш@@ 1
Свя@@ 1
гами 1
дена 1
принадлежа@@ 1
Авто@@ 1
ьи 1
соответственно 1
емой 1
формы 1
игро@@ 1
Кры@@ 1
Фран@@ 1
меж@@ 1
рё@@ 1
Северной 1
собира@@ 1
новым 1
статус 1
одино@@ 1
Лин@@ 1
цвета 1
руко@@ 1
дебю@@ 1
начали 1
Прав@@ 1
Испании 1
выше 1
Бри@@ 1
цион@@ 1
Ев@@ 1
крат@@ 1
дели@@ 1
революции 1
дя@@ 1
Це@@ 1
движение 1
чении 1
чается 1
нача@@ 1
проходит 1
сей 1
полож@@ 1
турнире 1
кома 1
начальника 1
млад@@ 1
стей 1
цент@@ 1
шими 1
дивизия 1
-@@ 0.5466170830033908
ительной 1
решения 1
влияние 1
ционных 1
флота 1
финансо@@ 1
град@@ 1
ционной 1
Мария 1
льд 1
точки 1
основате@@ 1
заявил 1
бой@@ 1
види@@ 1
слав@@ 1
ент@@ 1
мастер@@ 1
13@@ 0.9755377730802622
водного 1
тона 1
зыва@@ 1
множество 1
верну@@ 1
сор@@ 1
основан@@ 1
1924 1
нюю 1
боевых 1
одно 1
финале 1
сочи@@ 1
торго@@ 1
пока 1
выиграл 1
зом 1
правительство 1
музыка@@ 1
ссия 1
Советского 1
сол@@ 1
лож@@ 1
нал 1
мест 1
дали 1
ющихся 1
рю@@ 1
награ@@ 1
ровали 1
1921 1
торов 1
Не 1
километров 1
сокра@@ 1
возможно 1
шел 1
исто@@ 1
существо@@ 1
Сюжет 1
Син@@ 1
Всего 1
Бре@@ 1
йская 1
главный 1
живо@@ 1
периода 1
лка 1
список 1
хозяйства 1
ывает 1
считается 1
фон@@ 1
Дру@@ 1
традицион@@ 1
озера 1
Народ@@ 1
ственным 1
никам 1
верх@@ 1
сторо@@ 1
Рабо@@ 1
орденом 1
деву@@ 1
стандар@@ 1
тики 1
эле@@ 1
известно 1
стать 1
пози@@ 1
65 1
храни@@ 1
нского 1
находятся 1
Карьера 1
христиан@@ 1
химиче@@ 1
мия 1
относительно 1
пос@@ 1
чено 1
Фор@@ 1
ленные 1
запа@@ 1
большинство 1
известный 1
1922 1
предполага@@ 1
группу 1
лон@@ 1
проводи@@ 1
реке 1
музыки 1
медали 1
шем 1
вер 1
Петро@@ 1
европей@@ 1
64 1
тная 1
рина 1
Тро@@ 1
Длина 1
захват@@ 1
личе@@ 1
Королев@@ 1
условиях 1
имели 1
Э 1
ровки 1
свет@@ 1
Ленина 1
сне@@ 1
1953 1
рована 1
понима@@ 1
чек 1
одну 1
оригина@@ 1
Алексей 1
ене@@ 1
жем 1
правило 1
пору@@ 1
баш@@ 1
недо@@ 1
ново 1
кле@@ 1
архи@@ 1
Киев@@ 1
вила 1
Эта 1
военной 1
гене@@ 1
группе 1
ран 1
несмотря 1
создан 1
Эд@@ 1
1928 1
днев@@ 1
которому 1
ёв 1
ото@@ 1
категории 1
самой 1
записи 1
Бори@@ 1
тился 1
Харь@@ 1
лки 1
совместно 1
пункт 1
Сим@@ 1
состоялась 1
вно 1
применя@@ 1
дворов 1
использовать 1
победу 1
лев@@ 1
достаточно 1
дела 1
Окончил 1
известен 1
различные 1
Список 1
нена 1
1955 1
контра@@ 1
туре 1
Эти 1
ступа@@ 1
дей 1
лог 1
политиче@@ 1
воль@@ 1
узна@@ 1
1934 1
ённым 1
могли 1
автомоби@@ 1
выбра@@ 1
следующие 1
мской 1
1@@ 1
Занимает 1
Совет@@ 1
E@@ 0.14774109846539007
1952 1
чиков 1
дения 1
хокке@@ 1
ане 1
сред@@ 1
Вскоре 1
деревян@@ 1
рен 1
твор@@ 1
A@@ 0.12515778861289523
образова@@ 1
жей 1
оно 1
научно 1
B 0.36597797745660837
сь@@ 1
K@@ 0.1268784821794569
гии 1
форме 1
основной 1
матч 1
команд 1
мым 1
сильно 1
занимался 1
код 1
теории 1
1932 1
Европе 1
окра@@ 1
последовате@@ 1
циями 1
названия 1
разру@@ 1
1933 1
прямой 1
няется 1
тера 1
тным 1
лая 1
интере@@ 1
тического 1
учился 1
Деревня 1
лам 1
наи@@ 1
Андрей 1
укра@@ 1
владель@@ 1
Бор@@ 1
Полу@@ 1
информации 1
оби@@ 1
Нар@@ 1
ща 1
300 1
исследований 1
мость 1
пехот@@ 1
Центра@@ 1
али@@ 1
месяцев 1
чар@@ 1
лых 1
уровне 1
спортив@@ 1
министра 1
целом 1
Нов@@ 1
посёлка 1
дальнейшем 1
журнали@@ 1
чие 1
песен 1
ляр@@ 1
наход@@ 1
1931 1
шан@@ 1
Хан@@ 1
туре@@ 1
1923 1
такой 1
документа@@ 1
угро@@ 1
36 1
Некоторые 1
русских 1
щена 1
Лей@@ 1
потому 1
обе@@ 1
разв@@ 1
рождения 1
воро@@ 1
участок 1
острове 1
лиге 1
жить 1
оз@@ 1
Её 1
Вели@@ 1
ционного 1
мами 1
пунктов 1
вице 1
33 1
вии 1
успеш@@ 1
брат 1
штата 1
студен@@ 1
ствами 1
значительно 1
Тай@@ 1
юр@@ 1
убе@@ 1
позволя@@ 1
педагоги@@ 1
уни@@ 1
лан 1
игре 1
принимал 1
Московского 1
вокруг 1
состоялся 1
ато 1
йским 1
Гон@@ 1
внутрен@@ 1
лян@@ 1
капита@@ 1
образу@@ 1
стр 1
числа 1
включает 1
работает 1
смер@@ 1
Красной 1
представителей 1
соеди@@ 1
супру@@ 1
смог 1
эр@@ 1
быстро 1
учре@@ 1
Название 1
ющую 1
аэро@@ 1
убий@@ 1
действий 1
факультет 1
ас@@ 1
лица 1
руют 1
Ю 1
транс@@ 1
муниципального 1
Василий 1
выборах 1
ствах 1
промышленности 1
Бен@@ 1
путеше@@ 1
Вин@@ 1
подо@@ 1
ющиеся 1
судь@@ 1
участник 1
скульп@@ 1
мую 1
поля 1
Азии 1
скры@@ 1
электри@@ 1
нной 1
дно 1
анд@@ 1
производство 1
Пен@@ 1
команде 1
науки 1
молодёж@@ 1
военно 1
тором 1
посвя@@ 1
ктором 1
социаль@@ 1
мужчины 1
станов@@ 1
дли@@ 1
странах 1
арти@@ 1
us 0.1544627914939884
летних 1
глу@@ 1
област@@ 1
Александрович 1
гат@@ 1
Кла@@ 1
вор@@ 1
песня 1
ссы 1
Административный 1
гия 1
воздуха 1
заво@@ 1
тяже@@ 1
титу@@ 1
1951 1
ницей 1
мень@@ 1
гли@@ 1
зал 1
сков 1
Гла@@ 1
бург@@ 1
хо 1
чемпионат 1
Николаевич 1
экра@@ 1
президент 1
38 1
Од@@ 1
нау@@ 1
Рас@@ 1
V@@ 0.1554378855089793
успе@@ 1
тические 1
коммер@@ 1
Дей@@ 1
административного 1
1927 1
чал 1
Основ@@ 1
нский 1
мые 1
счёт 1
системе 1
став 1
жный 1
37 1
Дж@@ 1
Сло@@ 1
лучших 1
H@@ 0.1198479301078792
Зем@@ 1
зма 1
сё@@ 1
Южной 1
орке@@ 1
ходил 1
рованы 1
принима@@ 1
искусств 1
просто 1
соответству@@ 1
бен@@ 1
ровка 1
принци@@ 1
Джи@@ 1
кана@@ 1
дже@@ 1
ап@@ 1
даль@@ 1
доме 1
мере 1
ност@@ 1
первое 1
границы 1
щее 1
войсками 1
1925 1
девя@@ 1
дочери 1
серьёз@@ 1
суда 1
последний 1
уси@@ 1
вла@@ 1
сем@@ 1
Иль@@ 1
первая 1
дан 1
сначала 1
Академии 1
коле@@ 1
следует 1
воору@@ 1
знамени@@ 1
оцен@@ 1
вок 1
34 1
преимущественно 1
тое 1
in 0.004973318489685129
ссе 1
рией 1
ждён 1
воен@@ 1
стра 1
явление 1
Даль@@ 1
Вос@@ 1
Росси@@ 1
1914 1
эль 1
Же@@ 1
Автор 1
Под 1
каждый 1
сп@@ 1
официально 1
посвящ@@ 1
дь@@ 1
Ген@@ 1
подня@@ 1
вин 1
Коро@@ 1
музей 1
нице 1
Джон@@ 1
остав@@ 1
произведения 1
сум@@ 1
матча 1
медаль 1
работа 1
отношении 1
емого 1
извест@@ 1
ёт@@ 1
14@@ 0.9868788262030243
тическая 1
бат@@ 1
Верх@@ 1
пье@@ 1
своими 1
дает 1
грам@@ 1
произ@@ 1
ционный 1
армия 1
долго 1
заместитель 1
ниже 1
ум@@ 1
следующий 1
регионе 1
гвардей@@ 1
эн 1
медицин@@ 1
рение 1
структуре 1
данные 1
Ива@@ 1
поста@@ 1
Нико@@ 1
джи@@ 1
заболе@@ 1
нор@@ 1
коне@@ 1
работала 1
and 0.005655318913576397
Три@@ 1
старший 1
броне@@ 1
тен 1
стана 1
железнодорож@@ 1
веща@@ 1
ждена 1
тю@@ 1
Здесь 1
Умер 1
боро@@ 1
историю 1
всю 1
води@@ 1
распреде@@ 1
рон 1
гит@@ 1
совмест@@ 1
книг 1
улице 1
солдат 1
сторону 1
Дани@@ 1
базе 1
театра@@ 1
храм 1
изготов@@ 1
дение 1
готов@@ 1
силь@@ 1
Анто@@ 1
сра@@ 1
XVII 1
Помимо 1
стка 1
тки 1
Нор@@ 1
осуществ@@ 1
обви@@ 1
Боль@@ 1
независи@@ 1
Казан@@ 1
власть 1
реестра 1
разработ@@ 1
герман@@ 1
тив 1
большую 1
предыду@@ 1
ниж@@ 1
активно 1
позволяет 1
железной 1
вари@@ 1
мощ@@ 1
определя@@ 1
море 1
занимал 1
Виктор 1
округе 1
заключ@@ 1
Президиума 1
юриди@@ 1
вами 1
ыми 1
половине 1
amp 0.21315118518579573
военный 1
жав@@ 1
нены 1
приве@@ 1
вшиеся 1
возник@@ 1
кен@@ 1
часов 1
дерев@@ 1
инстру@@ 1
челове@@ 1
тин 1
Хотя 1
трав@@ 1
сохра@@ 1
эффектив@@ 1
общего 1
фамилия 1
государственной 1
вали@@ 1
ад@@ 1
Дмитрий 1
1905 1
ленных 1
олимпи@@ 1
решил 1
Бан@@ 1
потреб@@ 1
Бай@@ 1
духов@@ 1
.. 1
Аб@@ 1
литературы 1
льство 1
пом 1
евского 1
развед@@ 1
ступ@@ 1
студии 1
защит@@ 1
средств 1
умень@@ 1
бригады 1
Сы@@ 1
пяти 1
Лан@@ 1
одноим@@ 1
ительный 1
восток 1
общество 1
кг 1
вия 1
йся 1
городов 1
тюрь@@ 1
держ@@ 1
ланд@@ 1
Кру@@ 1
ходят 1
будут 1
фе 1
дело 1
стороне 1
зву@@ 1
арен@@ 1
добав@@ 1
лям 1
менты 1
глубо@@ 1
существует 1
экономиче@@ 1
происхождения 1
пяти@@ 1
Село 1
мента@@ 1
фом 1
прежде 1
печат@@ 1
голосо@@ 1
ёр 1
отдела 1
формирова@@ 1
лья 1
нич@@ 1
актё@@ 1
маршру@@ 1
фрон@@ 1
сельскохозяй@@ 1
желез@@ 1
сть@@ 1
de 0.0036400841607778845
ради@@ 1
книге 1
директор 1
тренер 1
действие 1
районного 1
региона 1
раза 1
фре@@ 1
Чемпи@@ 1
ковые 1
мого 1
мал@@ 1
Луч@@ 1
следующем 1
храма 1
гол 1
фици@@ 1
вной 1
ню 1
привле@@ 1
служи@@ 1
уровня 1
домаш@@ 1
бед@@ 1
цом 1
ковая 1
заве@@ 1
лого 1
селе@@ 1
шек 1
административно 1
длиной 1
цо 1
чика 1
средней 1
нало@@ 1
погиб@@ 1
степень 1
прибы@@ 1
пробле@@ 1
линей@@ 1
туры 1
тное 1
замет@@ 1
втором 1
футболь@@ 1
кали@@ 1
Все@@ 1
обозна@@ 1
ую 1
действо@@ 1
новский 1
Чемпионат 1
люби@@ 1
газеты 1
проживало 1
местного 1
всем 1
большая 1
Пор@@ 1
процесс 1
управление 1
голов@@ 1
характер@@ 1
выигра@@ 1
пру@@ 1
сказал 1
звания 1
Фу@@ 1
Кли@@ 1
зелё@@ 1
огром@@ 1
Рим@@ 1
техники 1
ленный 1
Вла@@ 1
кому 1
реали@@ 1
жу 1
зако@@ 1
рублей 1
католиче@@ 1
фильмов 1
против@@ 1
оши@@ 1
дении 1
вариан@@ 1
сыгра@@ 1
O@@ 0.13371083344490545
путь 1
Бал@@ 1
лод@@ 1
нас 1
музея 1
защиты 1
вести 1
война 1
рик 1
продук@@ 1
итогам 1
рэ@@ 1
гин@@ 1
основных 1
Федера@@ 1
образован 1
Наиболее 1
побед@@ 1
Ара@@ 1
Мер@@ 1
возможности 1
государ@@ 1
ана@@ 1
артиллерий@@ 1
вому 1
нен 1
пункты 1
Сти@@ 1
сериала 1
полага@@ 1
модели 1
измени@@ 1
реб@@ 1
долж@@ 1
Ря@@ 1
Хе@@ 1
вступил 1
международных 1
последние 1
зависимости 1
партий@@ 1
Выс@@ 1
ску@@ 1
командира 1
оборо@@ 1
художник 1
помощь 1
аб@@ 1
ментов 1
отделения 1
пересе@@ 1
тех@@ 1
шает 1
сии 1
ог@@ 1
средства 1
географи@@ 1
щено 1
Воен@@ 1
Пол@@ 1
организа@@ 1
вошёл 1
клад@@ 1
должна 1
политической 1
довольно 1
паро@@ 1
семей@@ 1
хе 1
44 1
Красно@@ 1
Тру@@ 1
гер 1
известных 1
42 1
рал@@ 1
версия 1
поня@@ 1
берг 1
напря@@ 1
доступ@@ 1
щем 1
1915 1
ец 1
раст@@ 1
самом 1
струк@@ 1
опас@@ 1
крити@@ 1
Зи@@ 1
испыта@@ 1
кварти@@ 1
ленной 1
подписал 1
улуч@@ 1
управ@@ 1
крупных 1
Мал@@ 1
рана 1
полномо@@ 1
йна 1
высота 1
поселе@@ 1
Жу@@ 1
расположены 1
боях 1
местных 1
Петербурге 1
сно 1
рели@@ 1
Пан@@ 1
теперь 1
хот@@ 1
истреб@@ 1
начина@@ 1
комиссии 1
нией 1
осу@@ 1
председатель 1
жила 1
космиче@@ 1
Филип@@ 1
хол@@ 1
Евро@@ 1
строй@@ 1
Ян@@ 1
Андре@@ 1
тации 1
пользо@@ 1
400 1
неуда@@ 1
революцион@@ 1
ЦК 1
нат 1
сце@@ 1
ённое 1
Пётр 1
Семья 1
председателем 1
карьеры 1
останов@@ 1
партия 1
фло@@ 1
жского 1
Первая 1
рованной 1
значи@@ 1
Кро@@ 1
поле@@ 1
кло@@ 1
Святого 1
сим@@ 1
дорога 1
оказа@@ 1
частей 1
путём 1
отсут@@ 1
выступил 1
Васильевич 1
S 0.40817499715529715
евский 1
театр 1
осуществля@@ 1
устро@@ 1
трёх@@ 1
суд 1
пись 1
центральной 1
чности 1
вки 1
чемпионом 1
дор@@ 1
поз@@ 1
Ах@@ 1
рио@@ 1
корпус 1
футболу 1
Юрий 1
Впервые 1
пока@@ 1
суб@@ 1
вошли 1
тический 1
следу@@ 1
Коман@@ 1
Черно@@ 1
сения 1
лизации 1
йт 1
подвер@@ 1
предме@@ 1
шен 1
указа@@ 1
компанией 1
добы@@ 1
кти@@ 1
среднем 1
шу 1
объек@@ 1
групп 1
бай@@ 1
дин 1
Василь@@ 1
Украин@@ 1
потом 1
брига@@ 1
сети 1
никогда 1
обязате@@ 1
национального 1
моби@@ 1
стиле 1
пит@@ 1
запу@@ 1
мый 1
ятся 1
Слу@@ 1
Ган@@ 1
езда 1
Мен@@ 1
миллионов 1
КПСС 1
соору@@ 1
севере 1
уве@@ 1
зано 1
Ура@@ 1
использования 1
чился 1
ительно 1
сад@@ 1
ворота 1
деся@@ 1
дивизи@@ 1
Крас@@ 1
шесть 1
футбо@@ 1
пон@@ 1
Бы@@ 1
говорит 1
Ир@@ 1
животных 1
юге 1
Вместе 1
Кал@@ 1
чемпион@@ 1
­ 1
Один 1
щик 1
рованный 1
уез@@ 1
бывший 1
дон@@ 1
форму 1
обслужи@@ 1
альной 1
летний 1
чь@@ 1
худож@@ 1
оса@@ 1
Ско@@ 1
мель@@ 1
пита@@ 1
цкая 1
растений 1
рис 1
десяти@@ 1
наслед@@ 1
именем 1
швед@@ 1
чными 1
входила 1
Ос@@ 1
получить 1
председателя 1
шах@@ 1
люб@@ 1
жерт@@ 1
туру 1
приняли 1
c 0.19871096416043174
лизо@@ 1
республики 1
скла@@ 1
Михайлович 1
комму@@ 1
Хор@@ 1
психо@@ 1
лью 1
основан 1
иностранных 1
Павел 1
дважды 1
малень@@ 1
пило@@ 1
око@@ 1
Фер@@ 1
уг@@ 1
уезд 1
систем 1
мел@@ 1
клу@@ 1
произошло 1
ря 1
нили 1
езд 1
дальней@@ 1
I@@ 0.1689861285921753
Эк@@ 1
построен 1
позволи@@ 1
вив 1
тка 1
Тю@@ 1
Джей@@ 1
команд@@ 1
щиков 1
направлении 1
увеличи@@ 1
лес 1
ницу 1
родилась 1
работ@@ 1
четвер@@ 1
православ@@ 1
слов 1
своему 1
i 0.1309200410497054
временем 1
присвоено 1
Париже 1
чув@@ 1
выпуска@@ 1
жать 1
ляции 1
Лит@@ 1
игра 1
режи@@ 1
Смолен@@ 1
коммуна 1
крупней@@ 1
сво@@ 1
принято 1
борьбы 1
депутатов 1
изменения 1
предназна@@ 1
зам@@ 1
XVI 1
маль@@ 1
заяв@@ 1
слав 1
Рей@@ 1
Указом 1
ниц 1
инди@@ 1
участия 1
нец 1
рабочих 1
министр 1
мото@@ 1
льность 1
мыш@@ 1
счётом 1
39 1
ровала 1
Площадь 1
высоко@@ 1
участников 1
мино@@ 1
осадков 1
Тар@@ 1
командир 1
проведения 1
современной 1
Эй@@ 1
выхода 1
оло@@ 1
технологи@@ 1
свер@@ 1
Ли 1
поддержку 1
вплоть 1
Америки 1
сделать 1
знач@@ 1
командованием 1
автор@@ 1
вай@@ 1
рубе@@ 1
Сол@@ 1
приблизительно 1
нных 1
почто@@ 1
работали 1
премьер 1
Например 1
учи@@ 1
князя 1
началось 1
тием 1
Сар@@ 1
вам 1
высоте 1
Первые 1
бов 1
бывшего 1
написан@@ 1
Моло@@ 1
пут@@ 1
мп@@ 1
75 1
кня@@ 1
ительные 1
любо@@ 1
следующих 1
борьбе 1
началась 1
ин 1
призёр 1
скан@@ 1
Национа@@ 1
окончании 1
хозяйств 1
выпущен 1
рованные 1
Х 1
ительного 1
1912 1
директором 1
взгля@@ 1
входят 1
фи 1
тепло@@ 1
фы 1
вате@@ 1
ёл 1
остров 1
Большой 1
кости 1
журна@@ 1
монастыря 1
данный 1
составляла 1
матери 1
персона@@ 1
вати@@ 1
бран@@ 1
ходов 1
y 0.014724838081521915
возглавил 1
богат@@ 1
финала 1
законодате@@ 1
матчах 1
чере@@ 1
сделал 1
оба 1
морской 1
1913 1
упоминается 1
Зна@@ 1
домо@@ 1
Поль@@ 1
судеб@@ 1
кает 1
переве@@ 1
императора 1
d@@ 0.10737308671992145
взаимо@@ 1
увиде@@ 1
тем@@ 1
рази@@ 1
секре@@ 1
прошёл 1
вах 1
Север@@ 1
Австралии 1
низации 1
нове@@ 1
Армии 1
теоре@@ 1
собы@@ 1
Государ@@ 1
диссертацию 1
избе@@ 1
широко 1
Рос@@ 1
Николая 1
скло@@ 1
информа@@ 1
АССР 1
ющийся 1
жёл@@ 1
1910 1
От 1
Али@@ 1
вклю@@ 1
протекает 1
некоторое 1
президентом 1
моде@@ 1
лист 1
Казах@@ 1
Карл 1
располо@@ 1
Пал@@ 1
директора 1
произведений 1
Ас@@ 1
Средняя 1
метра 1
построен@@ 1
эти@@ 1
рос@@ 1
ника@@ 1
тую 1
Кэ@@ 1
Сибир@@ 1
проблемы 1
дано 1
Ещё 1
Воро@@ 1
аппара@@ 1
песню 1
резер@@ 1
пи 1
ее 1
сту 1
сер 1
пределах 1
заняла 1
король 1
новую 1
правом 1
втор@@ 1
институте 1
тера@@ 1
зая@@ 1
Ци@@ 1
писатель 1
нению 1
емая 1
Летом 1
жители 1
вина 1
геро@@ 1
сных 1
переехал 1
четы@@ 1
расположено 1
друга 1
объ@@ 1
55 1
вшейся 1
лиц 1
взры@@ 1
кир@@ 1
метро@@ 1
ани 1
повре@@ 1
Андже@@ 1
советской 1
режиссёра 1
тт 1
вез@@ 1
история 1
Брю@@ 1
лега@@ 1
сной 1
фран@@ 1
минут 1
южной 1
жской 1
хан 1
Ст@@ 1
лья@@ 1
влия@@ 1
вская 1
занимает 1
J@@ 0.13584539769742296
ческими 1
армию 1
рал 1
рил 1
ссу 1
создание 1
числен@@ 1
бор 1
ляют 1
представители 1
стин@@ 1
функции 1
кового 1
сан 1
Находится 1
ряд@@ 1
Коло@@ 1
автобу@@ 1
международ@@ 1
проходи@@ 1
моти@@ 1
альных 1
ун 1
Ам@@ 1
генерала 1
превы@@ 1
Дю@@ 1
постоянно 1
весь 1
силу 1
графии 1
оказался 1
Индии 1
сочета@@ 1
ьев 1
Й@@ 1
тили 1
Гру@@ 1
университе@@ 1
набра@@ 1
чемпион 1
копи@@ 1
150 1
Само@@ 1
ственном 1
советских 1
вдоль 1
зон@@ 1
вопрос 1
начальником 1
Кир@@ 1
тить 1
Их 1
проце@@ 1
епархии 1
новое 1
Нача@@ 1
тип 1
главной 1
кер 1
театре 1
назад 1
Герой 1
e@@ 0.09655118063461877
ходы 1
1916 1
48 1
контро@@ 1
умеренно 1
вероятно 1
мон 1
появился 1
ходить 1
лёг@@ 1
топо@@ 1
милли@@ 1
систему 1
исклю@@ 1
Генера@@ 1
конец 1
пришлось 1
жного 1
кторов 1
распростран@@ 1
ровано 1
Похоронен 1
ево 1
ктор 1
пят@@ 1
Тогда 1
выборов 1
имеется 1
зим@@ 1
раун@@ 1
дают 1
группой 1
запад 1
доли@@ 1
играть 1
ологии 1
деле 1
говори@@ 1
Является 1
сопер@@ 1
Бат@@ 1
АН 1
обита@@ 1
заверши@@ 1
ительных 1
озеро 1
ряде 1
кара@@ 1
хло@@ 1
природ@@ 1
43 1
удар@@ 1
поверхности 1
анали@@ 1
создании 1
отделение 1
ционные 1
ственную 1
две@@ 1
сел@@ 1
магни@@ 1
рек 1
следования 1
дили 1
началом 1
мало 1
мини@@ 1
гео@@ 1
парк 1
меда@@ 1
книга 1
семья 1
00 1
програм@@ 1
дено 1
ничего 1
спектак@@ 1
профессора 1
появились 1
строй 1
находились 1
использу@@ 1
і@@ 1
двигате@@ 1
выстав@@ 1
мной 1
успешно 1
лию 1
зло@@ 1
боя 1
Современ@@ 1
брата 1
Откры@@ 1
гам 1
подготов@@ 1
форм 1
воду 1
ительность 1
употреб@@ 1
Впоследствии 1
хор@@ 1
ровского 1
польского 1
Хай@@ 1
надц@@ 1
леги@@ 1
каче@@ 1
$ 0.24312520676786334
появилась 1
простран@@ 1
основании 1
действ@@ 1
леса 1
жные 1
трени@@ 1
дека@@ 1
стской 1
Гро@@ 1
гвардии 1
французский 1
лесо@@ 1
неболь@@ 1
художника 1
мас@@ 1
событий 1
Ио@@ 1
картины 1
народа 1
потеря@@ 1
которыми 1
Стра@@ 1
стран@@ 1
очеред@@ 1
количе@@ 1
биологи@@ 1
след@@ 1
Макси@@ 1
пользовате@@ 1
эр 1
век 1
новая 1
1,@@ 0.942720833629885
уры 1
тского 1
льда 1
Пя@@ 1
обеспе@@ 1
ваний 1
дя 1
режиссёр 1
Исто@@ 1
нской 1
Город 1
преступ@@ 1
сообще@@ 1
фикация 1
меся@@ 1
отря@@ 1
летия 1
бил 1
регуляр@@ 1
Западной 1
имела 1
Восточной 1
стаби@@ 1
фили@@ 1
дания 1
Министерства 1
библиоте@@ 1
труда 1
торгов@@ 1
52 1
северной 1
догово@@ 1
ремон@@ 1
цы@@ 1
союза 1
41 1
кандидат@@ 1
Чёр@@ 1
блю@@ 1
Дар@@ 1
большим 1
Льво@@ 1
Шар@@ 1
мину@@ 1
L 0.2806640597840132
команду@@ 1
реше@@ 1
комплекс 1
иты 1
стые 1
пусти@@ 1
части@@ 1
максима@@ 1
каждой 1
Влади@@ 1
гале@@ 1
шин 1
Кам@@ 1
Марии 1
общ@@ 1
экономики 1
приток 1
языков 1
виду 1
называют 1
рат 1
клубе 1
родо@@ 1
главных 1
стоит 1
эй 1
лым 1
народов 1
ору@@ 1
Кубок 1
сельский 1
проходил 1
Северо 1
кт 1
дений 1
ид@@ 1
ляются 1
преде@@ 1
Поло@@ 1
Послед@@ 1
почёт@@ 1
ковый 1
местности 1
Международ@@ 1
бира@@ 1
мили@@ 1
стрелковой 1
зя@@ 1
секретарь 1
памятник 1
игру 1
куда 1
исполнитель@@ 1
бази@@ 1
Воло@@ 1
книгу 1
мина@@ 1
ологи@@ 1
доктор 1
зала 1
ведения 1
темпера@@ 1
зами 1
образовате@@ 1
предприятия 1
политики 1
ны@@ 1
основа@@ 1
Гали@@ 1
46 1
Тол@@ 1
турнир 1
щён 1
вшегося 1
заводе 1
напа@@ 1
современного 1
механиз@@ 1
тоже 1
ванных 1
Многие 1
гли 1
чаются 1
сила 1
кса 1
большого 1
подви@@ 1
кад@@ 1
вру@@ 1
Борис 1
атив@@ 1
случа@@ 1
льному 1
Род@@ 1
чёт@@ 1
баро@@ 1
Ван@@ 1
создал 1
концу 1
обучения 1
Американ@@ 1
роман 1
факультета 1
Уилья@@ 1
дворян@@ 1
рая 1
покинул 1
Основные 1
земле 1
создана 1
нитель@@ 1
памяти 1
данной 1
Фри@@ 1
посо@@ 1
слава 1
зимой 1
Благодаря 1
плав@@ 1
ступила 1
победы 1
тво@@ 1
состоял 1
Йорк 1
том@@ 1
Об 1
насчит@@ 1
подразде@@ 1
пес@@ 1
регули@@ 1
войну 1
Белоруссии 1
актёр 1
Фло@@ 1
канала 1
начинает 1
нением 1
действи@@ 1
немецкий 1
выпуск@@ 1
памят@@ 1
измен@@ 1
отправился 1
Пуш@@ 1
вось@@ 1
стых 1
Спи@@ 1
шер@@ 1
дета@@ 1
льская 1
заместителем 1
Динамо 1
отряд 1
чет@@ 1
построена 1
Владимира 1
члены 1
длитель@@ 1
ната 1
гая 1
гне@@ 1
ровался 1
чис@@ 1
потом@@ 1
третий 1
внутри 1
находилась 1
открыт 1
автором 1
трас@@ 1
творче@@ 1
Национальный 1
ченных 1
аналоги@@ 1
Ленин@@ 1
тари@@ 1
весьма 1
Петербург 1
Фё@@ 1
c@@ 0.12212355587397337
уровень 1
1900 1
сеть 1
ходом 1
сосед@@ 1
тренером 1
мит@@ 1
лай@@ 1
Москов@@ 1
момента 1
стру@@ 1
лейб@@ 1
номина@@ 1
Алексе@@ 1
пора@@ 1
лично 1
мето@@ 1
степен@@ 1
ие@@ 1
Виль@@ 1
тан 1
чением 1
виды 1
сейчас 1
сви@@ 1
территория 1
тской 1
слом 1
фика@@ 1
араб@@ 1
D 0.3251292212719492
коп@@ 1
тном 1
упраздн@@ 1
наси@@ 1
издания 1
встречается 1
отношений 1
лом@@ 1
основания 1
вынужден 1
Мекси@@ 1
Мит@@ 1
рем 1
входил 1
морского 1
слова@@ 1
носит 1
разработан@@ 1
каждого 1
Сла@@ 1
изм 1
цвет 1
бою 1
гори@@ 1
эпи@@ 1
това@@ 1
сова 1
щается 1
Джор@@ 1
t 0.06865667061812268
меди@@ 1
армей@@ 1
двой@@ 1
Москву 1
монастырь 1
шены 1
завое@@ 1
иностран@@ 1
отвер@@ 1
охот@@ 1
пытался 1
щен 1
художников 1
использование 1
распоря@@ 1
тила 1
времена 1
округу 1
хся 1
лежа@@ 1
вошла 1
Лондоне 1
АО 1
1911 1
восста@@ 1
передачи 1
сопровожда@@ 1
Государственной 1
другом 1
территорию 1
1000 1
Кле@@ 1
известна 1
1907 1
используются 1
Там 1
югу 1
потер@@ 1
ровской 1
агент@@ 1
ступил 1
требу@@ 1
особен@@ 1
автомати@@ 1
серд@@ 1
премию 1
джа 1
внутренних 1
това 1
1906 1
замени@@ 1
зки 1
зная 1
ёнными 1
начинается 1
льском 1
дель 1
присво@@ 1
ау@@ 1
млрд 1
Обще@@ 1
привело 1
мам 1
раб@@ 1
54 1
Тан@@ 1
объя@@ 1
ровский 1
бах 1
ген 1
оружия 1
кано@@ 1
Сей@@ 1
47 1
труд@@ 1
чит 1
тности 1
Оль@@ 1
Героя 1
ссы@@ 1
провер@@ 1
уме@@ 1
ссив@@ 1
особо@@ 1
торы 1
конструк@@ 1
тика 1
выя@@ 1
неоднократно 1
районов 1
новского 1
Британ@@ 1
рам@@ 1
вли@@ 1
переме@@ 1
Щ@@ 1
студи@@ 1
энергии 1
мое 1
женился 1
рекомен@@ 1
чив 1
отда@@ 1
стане 1
относи@@ 1
гель@@ 1
фир@@ 1
сад 1
мол@@ 1
прав 1
Польши 1
епископ 1
фов 1
состоянии 1
ведён 1
трудо@@ 1
Евгений 1
стрем@@ 1
сел 1
рейтин@@ 1
U@@ 0.1681883519039198
Ну@@ 1
M 0.41156148776413476
подвод@@ 1
R 0.37059695813825955
общины 1
ального 1
мович 1
большей 1
on 0.013294014650809113
Казахстана 1
сон@@ 1
слишком 1
попал 1
лага@@ 1
предложил 1
дского 1
полно@@ 1
паралле@@ 1
ёж@@ 1
индивиду@@ 1
1908 1
нос 1
найти 1
Эль@@ 1
туда 1
Валь@@ 1
российских 1
обсу@@ 1
допол@@ 1
ванной 1
интервью 1
спут@@ 1
подготовки 1
экспер@@ 1
вока@@ 1
Бол@@ 1
финал 1
рь@@ 1
кан 1
составил 1
американской 1
причём 1
армян@@ 1
назы@@ 1
приме@@ 1
сбо@@ 1
альные 1
преж@@ 1
парламен@@ 1
присоеди@@ 1
мисси@@ 1
полё@@ 1
облада@@ 1
Новый 1
в. 1
лейтенант 1
Комму@@ 1
объектов 1
прив@@ 1
стол@@ 1
сар@@ 1
обладате@@ 1
циона@@ 1
лучшим 1
мона@@ 1
гает 1
ите@@ 1
пыта@@ 1
сингл 1
горы 1
X@@ 0.3698962688899958
Кири@@ 1
русском 1
хии 1
чия 1
Позднее 1
оном 1
нес 1
устанавли@@ 1
сий 1
инженер@@ 1
стить 1
щи 1
объё@@ 1
называется 1
небольшой 1
оры 1
Петрович 1
писала 1
назвал 1
визи@@ 1
Самар@@ 1
меня 1
чают 1
наблюда@@ 1
скончался 1
табли@@ 1
военные 1
Z@@ 0.12620518118277144
демонстри@@ 1
Украине 1
руются 1
обуча@@ 1
ВВС 1
Поэтому 1
знаком@@ 1
кер@@ 1
Расстояние 1
Анна 1
Ала@@ 1
журнал 1
тения 1
домов 1
относятся 1
шению 1
1,5 1
воин@@ 1
соци@@ 1
Экономика 1
нео@@ 1
Петра 1
нической 1
исследо@@ 1
Высо@@ 1
специализи@@ 1
няет 1
кии 1
содержит 1
означает 1
государств 1
семина@@ 1
модер@@ 1
грамо@@ 1
рос 1
F 0.38952829361941865
тиче@@ 1
меньше 1
Кен@@ 1
Первоначально 1
Эм@@ 1
пах 1
Ник@@ 1
корпу@@ 1
Побед@@ 1
Иванов@@ 1
сест@@ 1
чению 1
фактически 1
Пау@@ 1
самостоятель@@ 1
Данные 1
издание 1
исполните@@ 1
снаб@@ 1
Бру@@ 1
забо@@ 1
Росто@@ 1
мани@@ 1
свет 1
соревнованиях 1
бить 1
Отец 1
связь 1
вну@@ 1
Кавказ@@ 1
пунк@@ 1
ночь 1
философии 1
мене@@ 1
58 1
коричне@@ 1
науч@@ 1
самый 1
уста@@ 1
лиза@@ 1
нических 1
VI 1
раство@@ 1
сек@@ 1
мато@@ 1
заниматься 1
дор 1
корреспон@@ 1
ительности 1
днее 1
кораблей 1
меру 1
численность 1
ковым 1
кафедры 1
гита@@ 1
x 0.24495296033128147
газо@@ 1
древне@@ 1
ровна 1
организация 1
7,@@ 1
голов 1
археологи@@ 1
уде@@ 1
фронт 1
остался 1
замен@@ 1
характер 1
Ла 1
синте@@ 1
Работал 1
ано@@ 1
австри@@ 1
лон 1
ллы 1
51 1
переимено@@ 1
ковской 1
ландии 1
рекла@@ 1
состояние 1
зоны 1
ати 1
герцо@@ 1
шь 1
объявил 1
наме@@ 1
Старо@@ 1
постепенно 1
Роберт 1
ар 1
кило@@ 1
дный 1
различ@@ 1
товой 1
видео 1
президент@@ 1
G 0.38061825789317855
старше 1
m 0.10656455636590008
вероя@@ 1
час 1
снима@@ 1
дж 1
альный 1
провозгла@@ 1
Фон@@ 1
мина 1
сове@@ 1
Маль@@ 1
доль@@ 1
рович 1
командиром 1
архитектуры 1
Ц 1
объедин@@ 1
план 1
российского 1
второе 1
Лос 1
городах 1
био@@ 1
мыс@@ 1
большие 1
события 1
Бро@@ 1
йское 1
порядка 1
оны 1
команди@@ 1
крестьян@@ 1
исла@@ 1
изме@@ 1
чила 1
Фильм 1
зия 1
Олимпи@@ 1
Дне@@ 1
клубом 1
материалов 1
народного 1
международного 1
находи@@ 1
иллю@@ 1
мян@@ 1
наро@@ 1
жо@@ 1
вей 1
очков 1
топли@@ 1
Израи@@ 1
край@@ 1
Института 1
явления 1
бка 1
сей@@ 1
лист@@ 1
ари 1
чики 1
сре@@ 1
чность 1
этапе 1
лите@@ 1
стон 1
1904 1
порт 1
началу 1
отдельных 1
они@@ 1
56 1
совой 1
сю@@ 1
нический 1
свой@@ 1
чита@@ 1
метр 1
62 1
Йо@@ 1
современных 1
N 0.42446712169215417
принят 1
политических 1
отставку 1
бук@@ 1
счит@@ 1
рованного 1
необходимо 1
метри@@ 1
тонн 1
лье 1
подъ@@ 1
курс 1
последо@@ 1
вклад 1
индекс 1
пер 1
ально 1
музе@@ 1
начиная 1
нем@@ 1
будучи 1
получения 1
агре@@ 1
шении 1
Новой 1
пас@@ 1
2022 0.6998063441883556
игроком 1
сюже@@ 1
драмати@@ 1
сравнению 1
организаций 1
сформирова@@ 1
берт 1
абсолютный 1
реша@@ 1
Чет@@ 1
выска@@ 1
отказа@@ 1
телем 1
перевод@@ 1
Екатери@@ 1
ими 1
ченные 1
шить 1
создать 1
49 1
такого 1
шина 1
йдя 1
57 1
губер@@ 1
кавале@@ 1
тури@@ 1
земле@@ 1
пры@@ 1
колон@@ 1
лета 1
льских 1
града 1
чины 1
нуж@@ 1
компьютер@@ 1
стики 1
Кай@@ 1
Кер@@ 1
золотой 1
бассейна 1
результат 1
претен@@ 1
стил 1
новка 1
игроков 1
соответ@@ 1
Вя@@ 1
Тран@@ 1
кораб@@ 1
игрок 1
поль 1
вопросам 1
частично 1
ядер@@ 1
номе@@ 1
Вене@@ 1
актриса 1
ктов 1
53 1
Герма@@ 1
отряда 1
группи@@ 1
защитил 1
миру 1
альбо@@ 1
устрой@@ 1
дипло@@ 1
ванный 1
Кат@@ 1
Трои@@ 1
Новая 1
ходили 1
сведения 1
каза 1
результаты 1
Зу@@ 1
дить 1
напомина@@ 1
постро@@ 1
слово 1
офи@@ 1
неу@@ 1
контроль 1
объекта 1
канал 1
пто@@ 1
нала 1
государственном 1
горе@@ 1
замуж 1
вило 1
семей 1
завоевал 1
линия 1
дек@@ 1
непосредственно 1
император@@ 1
высокой 1
смешан@@ 1
выпущен@@ 1
обеспечения 1
бю@@ 1
ожи@@ 1
образ 1
пишет 1
мери@@ 1
располагается 1
ени 1
щает 1
началь@@ 1
тивно 1
рить 1
зан 1
спек@@ 1
местах 1
битве 1
наблю@@ 1
йки 1
E 0.3559761040619896
фанта@@ 1
Европей@@ 1
ент 1
мся 1
эффек@@ 1
Име@@ 1
лович 1
Гал@@ 1
льское 1
модель 1
маги@@ 1
ехал 1
бок 1
упа@@ 1
ствовали 1
гать 1
асси@@ 1
смотре@@ 1
Викто@@ 1
Гос@@ 1
парка 1
ьями 1
препода@@ 1
мский 1
лоша@@ 1
рика 1
чаще 1
вро@@ 1
недостато@@ 1
Участник 1
прия@@ 1
лён 1
семь 1
реши@@ 1
решением 1
1909 1
Сен 1
самолё@@ 1
утвержда@@ 1
веков 1
Семё@@ 1
продолжил 1
командой 1
отказался 1
Орга@@ 1
Зо@@ 1
Заслуженный 1
чина 1
дит 1
пато@@ 1
союз 1
диалек@@ 1
дате@@ 1
минимум 1
оце@@ 1
еты 1
еще 1
подпис@@ 1
иметь 1
корабля 1
гла 1
ывается 1
исторических 1
лить 1
площад@@ 1
рь 1
удостоен 1
Йор@@ 1
машины 1
заказ@@ 1
um 0.08195614532688573
предлага@@ 1
терро@@ 1
фаль@@ 1
нического 1
совершил 1
Пара@@ 1
Вален@@ 1
Сам@@ 1
километрах 1
капитан 1
женных 1
Конститу@@ 1
стой@@ 1
стого 1
родствен@@ 1
каса@@ 1
сва@@ 1
проблем 1
n 0.11990268949154176
знания 1
назван 1
попыт@@ 1
поражение 1
тную 1
святой 1
высшей 1
бассейн 1
термин 1
прош@@ 1
данного 1
сою@@ 1
дра 1
станови@@ 1
дети 1
Джона 1
деяте@@ 1
случаях 1
реги@@ 1
теат@@ 1
зарегистри@@ 1
континентальный 1
чался 1
тата@@ 1
реку 1
Бразилии 1
ждению 1
ште@@ 1
Группа 1
шести 1
ока@@ 1
островов 1
выпуск 1
дороге 1
жом 1
предста@@ 1
последнего 1
нера 1
руки 1
возглавлял 1
слы@@ 1
спу@@ 1
энерге@@ 1
штаб 1
уголов@@ 1
американского 1
рю 1
прошли 1
евреев 1
конференции 1
Петербург@@ 1
дь 1
северу 1
приводит 1
прось@@ 1
проигра@@ 1
польский 1
бург 1
едино@@ 1
канад@@ 1
нова@@ 1
направлен 1
ступле@@ 1
сыном 1
эро@@ 1
обучение 1
рации 1
солне@@ 1
нила 1
левом 1
вече@@ 1
стера 1
вторым 1
боло@@ 1
характеризуется 1
дного 1
длина 1
ква@@ 1
дати@@ 1
реак@@ 1
лик 1
корабль 1
чили 1
органов 1
Дер@@ 1
эфи@@ 1
больших 1
беспо@@ 1
лял 1
тео@@ 1
манов 1
митрополи@@ 1
структуры 1
установлены 1
встречаются 1
Константин 1
дию 1
тыся@@ 1
процессе 1
разли@@ 1
живу@@ 1
следующим 1
чить 1
доктора 1
левой 1
положения 1
дон 1
гате@@ 1
КП@@ 1
батальона 1
ченный 1
P 0.3953449094340721
Большая 1
систе@@ 1
юни@@ 1
2,@@ 1
сда@@ 1
O 0.2451893403098815
посеща@@ 1
бюро 1
раско@@ 1
Памя@@ 1
полиции 1
Михаила 1
первен@@ 1
деньги 1
царя 1
пами 1
Остро@@ 1
руководство 1
ровая 1
эпохи 1
Дом 1
осно@@ 1
усили@@ 1
ничества 1
мастер 1
порта 1
зывает 1
предостав@@ 1
шена 1
голосов 1
муниципа@@ 1
Карла 1
мс 1
щу@@ 1
ходу 1
зона 1
атой 1
Следу@@ 1
сериал 1
принадлежит 1
далее 1
вшее 1
единственный 1
память 1
Яков@@ 1
Уже 1
щать 1
лять 1
пуска@@ 1
экспеди@@ 1
хле@@ 1
политический 1
отлич@@ 1
кость 1
связано 1
восстания 1
вел 1
бомбарди@@ 1
вском 1
грузо@@ 1
тивный 1
финанси@@ 1
продолжал 1
латин@@ 1
Стро@@ 1
шением 1
расстре@@ 1
тский 1
лое 1
цу@@ 1
Совет 1
ближай@@ 1
пото@@ 1
бир@@ 1
Перед 1
Греции 1
Мини@@ 1
комплекса 1
гор 1
отправи@@ 1
успех 1
оцени@@ 1
писате@@ 1
майор 1
y@@ 0.1037228826631141
Шо@@ 1
госп@@ 1
вся@@ 1
жесто@@ 1
Бого@@ 1
имен@@ 1
кс@@ 1
Соедин@@ 1
традиции 1
крепости 1
регион 1
душ@@ 1
научной 1
цеп@@ 1
основана 1
Швеции 1
ённом 1
тически 1
Миха@@ 1
Балти@@ 1
экипа@@ 1
сом@@ 1
желе@@ 1
дар 1
Труда 1
оформ@@ 1
риа@@ 1
като@@ 1
пери@@ 1
1897 1
государственных 1
онов 1
вдо@@ 1
дина@@ 1
двадц@@ 1
срок 1
вера 1
Ур@@ 1
Ивана 1
Камен@@ 1
специали@@ 1
болез@@ 1
контроли@@ 1
ходи@@ 1
монасты@@ 1
мун@@ 1
ставляет 1
исключением 1
b@@ 0.08292953927128424
тит@@ 1
вит@@ 1
архитектур@@ 1
сные 1
мок 1
составила 1
основал 1
произве@@ 1
Сверд@@ 1
статьи 1
служ@@ 1
Олимпиа@@ 1
лети@@ 1
возника@@ 1
Сын 1
журнале 1
ьер@@ 1
средневе@@ 1
мело@@ 1
нный 1
Тал@@ 1
обре@@ 1
связан@@ 1
бина 1
сборная 1
ждая 1
представлены 1
доби@@ 1
Пос@@ 1
романа 1
тренера 1
технологии 1
строения 1
литературе 1
числи@@ 1
говой 1
известны 1
республикан@@ 1
кризи@@ 1
аку@@ 1
тери@@ 1
погиб 1
примечате@@ 1
верси@@ 1
Степа@@ 1
арестован 1
природы 1
спортсме@@ 1
возраста 1
вариант 1
скорость 1
Первым 1
пр 1
принять 1
Ита@@ 1
чемпиона@@ 1
съём@@ 1
выступает 1
чку 1
стан 1
Сент 1
объяв@@ 1
судов 1
относ@@ 1
Награды 1
Украина 1
норма@@ 1
шается 1
дел@@ 1
рец 1
6,@@ 1
перево@@ 1
Жан 1
дной 1
Уол@@ 1
замок 1
моги@@ 1
дора 1
дене@@ 1
сена 1
дорож@@ 1
рекор@@ 1
описание 1
поя@@ 1
пользу 1
лера 1
присоедини@@ 1
портре@@ 1
резо@@ 1
кампании 1
сай@@ 1
насел@@ 1
Покров@@ 1
Интер@@ 1
пресси@@ 1
соста@@ 1
тировал 1
Елиза@@ 1
штур@@ 1
ваго@@ 1
паль@@ 1
Лен@@ 1
татар@@ 1
философ@@ 1
квадра@@ 1
раунде 1
двор@@ 1
транспорта 1
пулем@@ 1
чая 1
известного 1
парти@@ 1
сси 1
бурга 1
a@@ 0.14063604834386995
ничество 1
600 1
Кё@@ 1
сериале 1
63 1
ственности 1
Всемир@@ 1
колхо@@ 1
перемен@@ 1
продю@@ 1
лец 1
форма 1
Джеймс 1
Кин@@ 1
ловской 1
офицеров 1
нологи@@ 1
Дмит@@ 1
пев@@ 1
элементов 1
десан@@ 1
нд 1
Миро@@ 1
бель 1
одеж@@ 1
мате@@ 1
изма 1
Русской 1
провед@@ 1
середины 1
английский 1
десят@@ 1
рит 1
объединения 1
стрелкового 1
72 1
муниципальное 1
графия 1
щика 1
эска@@ 1
T 0.3179672243262123
уника@@ 1
Ката@@ 1
строе@@ 1
емым 1
Национальной 1
какой 1
сосредо@@ 1
династии 1
никах 1
юг 1
комби@@ 1
120 1
экспедиции 1
заведу@@ 1
Шан@@ 1
получает 1
фар@@ 1
Большинство 1
аресто@@ 1
младший 1
иска@@ 1
силами 1
тыми 1
канале 1
фигу@@ 1
Ярослав@@ 1
вме@@ 1
95 1
особенности 1
рея 1
компаний 1
лато@@ 1
Более 1
студентов 1
прито@@ 1
обязанности 1
предприятий 1
Баш@@ 1
ракет@@ 1
увеличе@@ 1
Китая 1
Пале@@ 1
цком 1
болезни 1
ностями 1
ъ 1
крупнейших 1
Известные 1
сцене 1
Куль@@ 1
немецких 1
плен@@ 1
напис@@ 1
Уильям 1
администрации 1
сно@@ 1
гражданской 1
авиации 1
e 0.06518761063021832
рес 1
мися 1
российской 1
бума@@ 1
дила 1
Церковь 1
опи@@ 1
разные 1
мяг@@ 1
76 1
воспомина@@ 1
ждений 1
дет 1
говор@@ 1
отече@@ 1
бом@@ 1
d 0.0569168664082622
Татар@@ 1
обнов@@ 1
Вал@@ 1
всему 1
зывал 1
радио 1
зало@@ 1
скон@@ 1
Ау@@ 1
ните@@ 1
предваритель@@ 1
Венгрии 1
ленд 1
греб@@ 1
собора 1
Том@@ 1
звезды 1
ответ 1
сих 1
турни@@ 1
направления 1
близ 1
Владимирович 1
o 0.049200813042104066
коллед@@ 1
отношение 1
сексу@@ 1
бер 1
Советской 1
созыва 1
свыше 1
руководитель 1
последних 1
дных 1
избиратель@@ 1
59 1
пуль@@ 1
трен@@ 1
щими 1
сный 1
лиш@@ 1
опу@@ 1
ительное 1
полковник 1
мульт@@ 1
Хер@@ 1
стратеги@@ 1
ритель@@ 1
ловский 1
экспери@@ 1
дево@@ 1
довой 1
Вто@@ 1
Америке 1
Поскольку 1
входили 1
игрока 1
Георги@@ 1
характери@@ 1
Именно 1
считает 1
фронте 1
кот@@ 1
завод@@ 1
дипломати@@ 1
православной 1
князь 1
долго@@ 1
жан 1
Кубке 1
участием 1
Арген@@ 1
1890 1
наде@@ 1
сили 1
магистра@@ 1
голу@@ 1
20@@ 0.9690087020734304
Кали@@ 1
зой 1
формирования 1
произведён 1
преподавал 1
турой 1
переименован 1
услови@@ 1
программе 1
птиц 1
Сво@@ 1
циям 1
причи@@ 1
посёлке 1
бурге 1
наци@@ 1
наряду 1
стрель@@ 1
появляется 1
ука@@ 1
щ 1
Ада@@ 1
получив 1
ию@@ 1
ито 1
шему 1
основным 1
конститу@@ 1
серия 1
Социалистического 1
измене@@ 1
ств@@ 1
давно 1
составля@@ 1
писали 1
руководил 1
тело 1
специальности 1
носи@@ 1
достижения 1
нынеш@@ 1
элементы 1
масте@@ 1
ментом 1
скри@@ 1
Дет@@ 1
сухо@@ 1
пенси@@ 1
посла@@ 1
Пла@@ 1
СМИ 1
85 1
низи@@ 1
плен 1
РАН 1
музыку 1
уров@@ 1
гов@@ 1
Стре@@ 1
× 1
чин 1
астроно@@ 1
ентов 1
мне 1
опер@@ 1
метал@@ 1
фигур@@ 1
месторо@@ 1
полице@@ 1
усадь@@ 1
надцать 1
командовал 1
юри@@ 1
вок@@ 1
пункта 1
мост 1
совхо@@ 1
инжене@@ 1
следовате@@ 1
здании 1
главы 1
произведе@@ 1
Анатолий 1
депутатом 1
венгер@@ 1
Константи@@ 1
Воору@@ 1
чом 1
фри@@ 1
тат@@ 1
льник 1
земе@@ 1
Новосибир@@ 1
писателей 1
Ль@@ 1
Игорь 1
ала 1
жин@@ 1
собрания 1
мно@@ 1
следование 1
Тра@@ 1
установлен 1
констру@@ 1
Со 1
Ран@@ 1
роваться 1
статей 1
изуче@@ 1
вооруж@@ 1
первоначально 1
ступили 1
известным 1
Париж 1
Исполь@@ 1
джи 1
взял 1
хозяйство 1
Первое 1
ительства 1
Records 0.5156851315349308
прин@@ 1
лето@@ 1
коллекти@@ 1
Науч@@ 1
трак@@ 1
дове@@ 1
этно@@ 1
власт@@ 1
зав@@ 1
безу@@ 1
зей 1
композиции 1
опа@@ 1
вен 1
координа@@ 1
переселе@@ 1
хана 1
дие 1
существования 1
мени 1
тяну@@ 1
ствовать 1
опубликовал 1
представлен 1
Верхов@@ 1
ленно 1
осна@@ 1
дни 1
ствием 1
чит@@ 1
8,@@ 1
морских 1
утра@@ 1
Председате@@ 1
мова 1
Сал@@ 1
неза@@ 1
Франция 1
оборудо@@ 1
дзе 1
городом 1
Сара@@ 1
реда@@ 1
даёт 1
Почтовый 1
Австрии 1
э. 1
Средне@@ 1
вец 1
конкре@@ 1
ланд 1
Атлан@@ 1
1903 1
стви@@ 1
синг@@ 1
самолётов 1
поэт 1
Сталин@@ 1
крупные 1
чиком 1
ани@@ 1
многочисленные 1
училища 1
соревнований 1
XV 1
дт 1
столи@@ 1
прибыл 1
юноше@@ 1
избра@@ 1
объясня@@ 1
колле@@ 1
европейских 1
должно 1
телевизион@@ 1
Географическое 1
номер 1
раскры@@ 1
вшаяся 1
состоялось 1
Бон@@ 1
оне@@ 1
мини 1
наступление 1
тей@@ 1
is 0.009363473796481897
фильмах 1
исключительно 1
устройства 1
времён 1
двое 1
гран@@ 1
знак 1
сформи@@ 1
звёз@@ 1
казать 1
Союз 1
1902 1
СП@@ 1
десяти 1
ительным 1
выступления 1
Юго 1
прояв@@ 1
има 1
Кос@@ 1
проекту 1
шоссе 1
гин 1
хозя@@ 1
вернуться 1
освя@@ 1
населе@@ 1
вступ@@ 1
похоронен 1
статистиче@@ 1
руд@@ 1
бек 1
назначения 1
Теат@@ 1
Чарль@@ 1
дисципли@@ 1
вес@@ 1
пола 1
нями 1
зация 1
считал 1
писателя 1
00@@ 1
2,5 1
b 0.16371419015110805
ленного 1
поддержке 1
уру 1
жная 1
жид@@ 1
корпора@@ 1
ографи@@ 1
сайте 1
евича 1
продюсе@@ 1
Тимо@@ 1
66 1
единственным 1
67 1
техни@@ 1
Участвовал 1
НИ@@ 1
остальные 1
Гоме@@ 1
лыми 1
половины 1
Азербайджана 1
районах 1
французского 1
Турции 1
дской 1
Земли 1
соедин@@ 1
Пру@@ 1
тными 1
американских 1
женой 1
прошла 1
Горь@@ 1
карьере 1
академиче@@ 1
приняла 1
Иса@@ 1
жал 1
Инди@@ 1
комна@@ 1
Генри 1
зать 1
Анато@@ 1
Доро@@ 1
Брай@@ 1
евка 1
Хэ@@ 1
ствии 1
лез@@ 1
разгро@@ 1
литов@@ 1
существу@@ 1
граждан 1
Одес@@ 1
f@@ 0.07737047503089677
текст 1
старто@@ 1
пусты@@ 1
попро@@ 1
дации 1
дут 1
магази@@ 1
живописи 1
убит@@ 1
победил 1
рестав@@ 1
населённые 1
выходит 1
ас 1
250 1
вест@@ 1
мэ@@ 1
отмен@@ 1
делает 1
писи 1
Воль@@ 1
окончательно 1
функциони@@ 1
молодых 1
летнего 1
запи@@ 1
средняя 1
оли@@ 1
профессором 1
Германия 1
инженер 1
Алек@@ 1
изи@@ 1
паци@@ 1
областного 1
фраг@@ 1
актри@@ 1
бом 1
Сам 1
чинов@@ 1
g@@ 0.07583950176964656
вышед@@ 1
рованная 1
ыш@@ 1
верх 1
Скончался 1
рабаты@@ 1
ООН 1
машин 1
славян@@ 1
смен@@ 1
вышли 1
клады@@ 1
кров@@ 1
голь@@ 1
органи@@ 1
двину@@ 1
идеи 1
используют 1
разработа@@ 1
разо@@ 1
тс 1
карти@@ 1
Эл@@ 1
основные 1
чами 1
тивы 1
месяц 1
хождения 1
мнение 1
кон 1
вей@@ 1
продукции 1
любой 1
говор 1
Личная 1
сообща@@ 1
61 1
Мухам@@ 1
XIV 1
жизнен@@ 1
чений 1
Мир@@ 1
оне 1
бригада 1
персонажей 1
языках 1
РККА 1
производи@@ 1
дея@@ 1
Хол@@ 1
Абду@@ 1
прибли@@ 1
лёт@@ 1
газ@@ 1
фикации 1
Московский 1
офф 1
молод@@ 1
реформы 1
кас@@ 1
фоне 1
жая 1
чалась 1
лана 1
критиков 1
ВКП 1
сада 1
сохраня@@ 1
недалеко 1
стика 1
компью@@ 1
тью 1
Джу@@ 1
смот@@ 1
успеха 1
Петербурга 1
оставался 1
количества 1
достав@@ 1
святого 1
учёный 1
оператив@@ 1
прово@@ 1
брю@@ 1
обеща@@ 1
укреп@@ 1
автора 1
атель 1
Средний 1
третьего 1
чивается 1
пари@@ 1
активи@@ 1
свободы 1
креп@@ 1
форму@@ 1
курсы 1
зданий 1
жно 1
публика@@ 1
стая 1
ванные 1
Доб@@ 1
Финляндии 1
тель 1
земель 1
крайне 1
рена 1
обу@@ 1
ристи@@ 1
самолёта 1
проживали 1
сит 1
Сэ@@ 1
диссерта@@ 1
спец@@ 1
зарубе@@ 1
Ер@@ 1
карте 1
ционная 1
ене 1
нужно 1
помимо 1
мышлен@@ 1
технических 1
Великого 1
жается 1
отлича@@ 1
условия 1
пытается 1
устойчи@@ 1
гон 1
предпринимате@@ 1
енко 1
нические 1
строен@@ 1
потери 1
Канады 1
удовлетво@@ 1
социалистиче@@ 1
Чтобы 1
бел@@ 1
Марк 1
известные 1
сок 1
кови@@ 1
жет 1
Пь@@ 1
зво@@ 1
вит 1
иско@@ 1
процесса 1
выход@@ 1
VII 1
изначально 1
дент 1
телевиде@@ 1
авторов 1
имеются 1
U 0.2693920677813778
Национального 1
Коми@@ 1
кович 1
герцога 1
Бак@@ 1
Администра@@ 1
ктор@@ 1
нейших 1
тину 1
Военно 1
ленная 1
тему 1
раньше 1
ассоциации 1
бюдже@@ 1
Ана@@ 1
жский 1
кции 1
ента@@ 1
Болгарии 1
носите@@ 1
степ@@ 1
дные 1
Мы 1
сборник 1
Мур@@ 1
1901 1
установи@@ 1
трам@@ 1
каз 1
немецкой 1
Император@@ 1
масси@@ 1
73 1
бота@@ 1
сегодня 1
рун@@ 1
списке 1
превос@@ 1
Другие 1
Михайлов@@ 1
Особен@@ 1
зах 1
обстоятель@@ 1
Приме@@ 1
Фрэн@@ 1
показате@@ 1
жени@@ 1
to 0.004330141249766582
Егип@@ 1
двига@@ 1
край 1
нного 1
архите@@ 1
После@@ 1
XIII 1
шал 1
прису@@ 1
74 1
футбольный 1
Дви@@ 1
подав@@ 1
сторон 1
выиграла 1
груп@@ 1
библиотека 1
98 1
циони@@ 1
иск@@ 1
тта 1
находящи@@ 1
дением 1
умер@@ 1
поддержки 1
сереб@@ 1
тины 1
звезда 1
Гам@@ 1
бель@@ 1
емое 1
Грузии 1
Кита@@ 1
принимает 1
методи@@ 1
интерес 1
K 0.36199564139908497
вину 1
согласи@@ 1
маши@@ 1
Одновременно 1
созна@@ 1
крае@@ 1
институ@@ 1
стам 1
манд@@ 1
Гол@@ 1
кского 1
вто@@ 1
Сай@@ 1
кистана 1
шать 1
технического 1
тради@@ 1
моду@@ 1
цифро@@ 1
Ирландии 1
тивных 1
Оста@@ 1
закон 1
зор@@ 1
формат@@ 1
избира@@ 1
ловского 1
армией 1
мигран@@ 1
Центр 1
Сю@@ 1
вес 1
преем@@ 1
Григорий 1
Томас 1
музее 1
Йорке 1
тей 1
перио@@ 1
вследствие 1
культуре 1
освобождения 1
казом 1
скор@@ 1
химии 1
Архи@@ 1
Общая 1
впадения 1
звуча@@ 1
судо@@ 1
пале@@ 1
составляют 1
содерж@@ 1
Вале@@ 1
потребо@@ 1
резко 1
Вой@@ 1
Француз@@ 1
форд 1
могла 1
убийства 1
историк 1
конкурен@@ 1
71 1
Ву@@ 1
щую 1
Сити 1
хотел 1
чате@@ 1
номером 1
лечения 1
Телефонный 1
гун@@ 1
фестивале 1
испо@@ 1
сет@@ 1
советского 1
письмен@@ 1
але 1
выве@@ 1
фер 1
ансамб@@ 1
большеви@@ 1
вои@@ 1
кратный 1
цели 1
68 1
менте 1
Доне@@ 1
численности 1
Обла@@ 1
закан@@ 1
разработки 1
жён 1
XII 1
чле@@ 1
декора@@ 1
отличается 1
сделан@@ 1
Всероссийской 1
появи@@ 1
Тех@@ 1
Твер@@ 1
йной 1
ума 1
Бель@@ 1
гет@@ 1
проходили 1
участвовала 1
Георгий 1
конструкции 1
поддерж@@ 1
жар@@ 1
мероприя@@ 1
800 0.9778209903951598
покину@@ 1
стиль 1
Бю@@ 1
сели@@ 1
рых 1
периоди@@ 1
ённую 1
выдели@@ 1
учен@@ 1
немного 1
фун@@ 1
света 1
er 0.016333392583379437
сфере 1
тение 1
полковника 1
инвести@@ 1
зова 1
p 0.15019679470387612
азербайджан@@ 1
психи@@ 1
йскую 1
играет 1
льт@@ 1
ци 1
ваясь 1
последней 1
отсутствие 1
удосто@@ 1
дистанции 1
Боб@@ 1
независимости 1
позицию 1
Англи@@ 1
пассажир@@ 1
выборы 1
делам 1
попытки 1
немецкого 1
эксперимента@@ 1
использованием 1
аспиран@@ 1
Красного 1
Аре@@ 1
воде 1
мпи@@ 1
Спа@@ 1
Древ@@ 1
пропа@@ 1
супер@@ 1
рост 1
стую 1
лев 1
первонача@@ 1
Располо@@ 1
Центральной 1
дз@@ 1
возле 1
Пло@@ 1
тел 1
лови@@ 1
совершенно 1
своем 1
достига@@ 1
ступает 1
Моги@@ 1
возра@@ 1
Истори@@ 1
мно 1
никова 1
Рязан@@ 1
дки 1
женат 1
лэ@@ 1
торговли 1
видео@@ 1
включ@@ 1
улиц 1
начались 1
кинемато@@ 1
Цар@@ 1
щин@@ 1
национальных 1
министер@@ 1
фу 1
Церкви 1
вшими 1
Краснояр@@ 1
гей@@ 1
Пит@@ 1
являлась 1
скорости 1
редко 1
et 0.009584940568352877
приё@@ 1
активных 1
боевой 1
s@@ 0.043471974336882636
мар 1
поражения 1
даты 1
тик 1
фан@@ 1
открытия 1
сложности 1
Главный 1
гло 1
руя 1
оказались 1
дина 1
позволило 1
Бей@@ 1
вных 1
холодного 1
99 1
тиях 1
свето@@ 1
нач@@ 1
корен@@ 1
присоединился 1
имуще@@ 1
контак@@ 1
африкан@@ 1
лил 1
палат@@ 1
бин 1
яд@@ 1
выдвину@@ 1
идёт 1
тысячи 1
выпуска 1
тропи@@ 1
рабат@@ 1
летней 1
прогре@@ 1
оке@@ 1
откуда 1
устья 1
ыр@@ 1
кост@@ 1
ведение 1
Узбе@@ 1
Нью@@ 1
чать 1
Армении 1
коммунистиче@@ 1
дий 1
районы 1
городских 1
размер 1
уса 1
применения 1
удоб@@ 1
огонь 1
кол 1
градской 1
Тома@@ 1
чества 1
прямо@@ 1
сама 1
69 1
сверх@@ 1
выбо@@ 1
чине 1
индей@@ 1
этап 1
вета 1
тира@@ 1
81 1
Святой 1
артилле@@ 1
зор 1
тическое 1
польской 1
бит 1
материалы 1
национальный 1
довал 1
нк@@ 1
границе 1
физики 1
ранен 1
Иоган@@ 1
тивное 1
вторая 1
мора@@ 1
новича 1
приро@@ 1
мур@@ 1
Ленинград@@ 1
30@@ 1
проектов 1
научный 1
Стат@@ 1
владения 1
рийской 1
фестиваля 1
Констан@@ 1
упомяну@@ 1
лился 1
нис 1
женщи@@ 1
основу 1
построе@@ 1
звез@@ 1
двора 1
Объ@@ 1
деление 1
рассмотре@@ 1
Круп@@ 1
1896 1
глава 1
попы@@ 1
марки 1
3,@@ 1
составлял 1
сыновей 1
жало@@ 1
шку 1
обоих 1
государство 1
партизан@@ 1
письмо 1
ул@@ 1
1880 1
крестьян 1
Али 1
ежегод@@ 1
Тео@@ 1
урав@@ 1
ностях 1
приходится 1
Вологод@@ 1
нато@@ 1
поддержа@@ 1
типи@@ 1
езде 1
ющем 1
88 1
результатом 1
считают 1
кантона 1
награды 1
смерть 1
пись@@ 1
Вну@@ 1
вень 1
металличе@@ 1
непосред@@ 1
Гей@@ 1
существова@@ 1
вёр@@ 1
действует 1
комитет 1
ёс 1
логия 1
мусульман@@ 1
Рес@@ 1
банка 1
лище 1
ническое 1
вне 1
ВС 1
оружие 1
Серге@@ 1
газете 1
купи@@ 1
берга 1
фабри@@ 1
нё@@ 1
Иркут@@ 1
министром 1
реализо@@ 1
Город@@ 1
емо@@ 1
восемь 1
водохрани@@ 1
реи 1
Зак@@ 1
захва@@ 1
представляют 1
бки 1
86 1
мат 1
французской 1
Россию 1
Оли@@ 1
Спор@@ 1
перевоз@@ 1
ограничен@@ 1
смы@@ 1
человеком 1
после@@ 1
1899 1
метод 1
чрезвы@@ 1
диф@@ 1
практи@@ 1
Бере@@ 1
источников 1
близо@@ 1
чью 1
говорил 1
вопросы 1
жество 1
женщина 1
такими 1
1898 1
озна@@ 1
оте@@ 1
стя@@ 1
архиеписко@@ 1
Тихо@@ 1
пограни@@ 1
ай@@ 1
активности 1
чет 1
Песня 1
пии 1
старшего 1
речной 1
флот 1
уточ@@ 1
атого 1
нг 1
Оде@@ 1
жали 1
обладает 1
иници@@ 1
78 1
открыта 1
твер@@ 1
кирпи@@ 1
92 1
Между 1
указыва@@ 1
работой 1
Мест@@ 1
лед@@ 1
зрителей 1
бет 1
ведом@@ 1
йс 1
обшир@@ 1
ключе@@ 1
многи@@ 1
использовались 1
народных 1
буд@@ 1
фро@@ 1
призван 1
поводу 1
ствовала 1
самолёт 1
сного 1
Сле@@ 1
зь 1
организато@@ 1
оставши@@ 1
Алексеевич 1
аген@@ 1
пары 1
бии 1
лева 1
менед@@ 1
губернатора 1
84 1
Фёдорович 1
ствам 1
существование 1
Ок@@ 1
Соб@@ 1
оставил 1
веще@@ 1
Профе@@ 1
83 1
зер 1
ситуации 1
сход@@ 1
пки 1
лища 1
ежегодно 1
медалью 1
программа 1
Воронеж@@ 1
рону 1
конгре@@ 1
Абсолютная 1
окон@@ 1
высотой 1
Дра@@ 1
водит 1
звёзд 1
тремя 1
Расположена 1
подверга@@ 1
96 1
военную 1
влиянием 1
среды 1
груз@@ 1
побережье 1
ителям 1
гастро@@ 1
предприятие 1
фил@@ 1
израи@@ 1
Клубная 1
убит 1
чеш@@ 1
доказате@@ 1
листа 1
Северная 1
использует 1
использовал 1
ябрь 1
Супер@@ 1
вообще 1
срав@@ 1
Представ@@ 1
кафедрой 1
Жа@@ 1
дский 1
каж@@ 1
носители 1
поля@@ 1
указан@@ 1
Государственного 1
рее 1
тат 1
рисо@@ 1
худ@@ 1
Ян 1
статье 1
Пон@@ 1
Доктор 1
изображения 1
лога 1
коно@@ 1
опере@@ 1
Гран 1
другого 1
реч@@ 1
брон@@ 1
равни@@ 1
отметил 1
77 1
изучения 1
чемпиона 1
железнодорожной 1
выступать 1
Суще@@ 1
запове@@ 1
ляли 1
известность 1
нях 1
ситуа@@ 1
задачи 1
1870 1
средне@@ 1
Елена 1
Анти@@ 1
прак@@ 1
состояния 1
Лиги 1
стки 1
ворот 1
лово 1
лока@@ 1
ске@@ 1
ющейся 1
Мель@@ 1
Распространение 1
руководителем 1
1860 1
консу@@ 1
способности 1
97 1
исход@@ 1
вино@@ 1
исчез@@ 1
маном 1
неш@@ 1
четырёх@@ 1
КП 1
низация 1
нефте@@ 1
смогли 1
старшим 1
причинам 1
ящи@@ 1
нёс 1
тию 1
доход 1
Ад@@ 1
станций 1
йо@@ 1
скоро@@ 1
Сре@@ 1
социальной 1
яви@@ 1
дата 1
причине 1
препят@@ 1
ственными 1
тник 1
север 1
альная 1
призва@@ 1
Золо@@ 1
предприя@@ 1
представлена 1
такое 1
пластин@@ 1
позна@@ 1
рас 1
тече@@ 1
бами 1
Джордж 1
плей 1
нью 1
сотрудни@@ 1
лучше 1
плане 1
сопротив@@ 1
потенци@@ 1
Пат@@ 1
Состав 1
рый 1
творчества 1
ена 1
годами 1
Транспорт 1
ери 1
командование 1
атри@@ 1
ито@@ 1
Швейцарии 1
стены 1
временно 1
службе 1
Окон@@ 1
оказалась 1
аре 1
ави@@ 1
общественной 1
договор 1
представитель 1
серий@@ 1
устройство 1
наследия 1
варь 1
нарко@@ 1
дала 1
ьо@@ 1
любви 1
духо@@ 1
1895 1
преду@@ 1
л. 1
покуп@@ 1
португа@@ 1
тивной 1
сумел 1
дорог 1
капитана 1
хин@@ 1
ительная 1
тских 1
счё@@ 1
ванного 1
причиной 1
схо@@ 1
o@@ 0.07865530653069068
ственность 1
нации 1
гек@@ 1
Константино@@ 1
партию 1
жды 1
сюда 1
процессо@@ 1
фай@@ 1
скорее 1
захвати@@ 1
гости@@ 1
Стан@@ 1
угле@@ 1
участвовали 1
Цент@@ 1
необходимости 1
класс 1
82 1
вис 1
столицы 1
зах@@ 1
фф 1
тились 1
зин 1
программ 1
арх@@ 1
верхней 1
переехала 1
академию 1
страции 1
целе@@ 1
Бир@@ 1
атор 1
специально 1
Священ@@ 1
вынуж@@ 1
лучший 1
Альбом 1
оборудования 1
шё@@ 1
домашних 1
садо@@ 1
собо@@ 1
верши@@ 1
жёст@@ 1
лян 1
годам 1
Желез@@ 1
отстав@@ 1
93 1
ьи@@ 1
остаётся 1
надцати 1
баталь@@ 1
кола 1
нные 1
охраны 1
большинства 1
крови 1
собран@@ 1
атами 1
Ари@@ 1
Большого 1
цик@@ 1
распространение 1
Вит@@ 1
легко 1
австрали@@ 1
Свет@@ 1
Мей@@ 1
случаев 1
щина 1
оба@@ 1
принце@@ 1
сках 1
гар 1
базы 1
участии 1
бассейновому 1
ужа@@ 1
сценари@@ 1
расположенный 1
вблизи 1
сообщения 1
отношению 1
Досто@@ 1
необы@@ 1
епископа 1
товых 1
военнослужа@@ 1
водой 1
жден 1
ино@@ 1
командующего 1
апосто@@ 1
руб@@ 1
черно@@ 1
гимназии 1
обратно 1
разнообраз@@ 1
ом 1
племян@@ 1
Обо@@ 1
третьей 1
ia 0.10518742867042487
множе@@ 1
одина@@ 1
чием 1
вед 1
91 1
аты 1
Институт 1
чемпионов 1
рекорд 1
Киеве 1
программу 1
воспита@@ 1
мса 1
Роди@@ 1
болгар@@ 1
всеми 1
знание 1
нит 1
аэропорт 1
щиком 1
Соло@@ 1
одному 1
9,@@ 1
встречи 1
ing 0.02374822975913928
парламента 1
Уил@@ 1
плана 1
треть@@ 1
Вь@@ 1
Челябин@@ 1
теря@@ 1
ционно 1
подряд 1
материаль@@ 1
торже@@ 1
дная 1
стихи 1
технологий 1
деятельностью 1
остат@@ 1
волость 1
школ 1
собор 1
моз@@ 1
включён 1
Киев 1
неделю 1
обнаружи@@ 1
дова 1
следовал 1
качества 1
коммуника@@ 1
рассказывает 1
зре@@ 1
Сою@@ 1
риаль@@ 1
Израиля 1
поступ@@ 1
Фар@@ 1
развитию 1
тивные 1
сным 1
столкнове@@ 1
акти@@ 1
Луи 1
регулярно 1
щением 1
Юр@@ 1
катастро@@ 1
роты 1
консуль@@ 1
преобразо@@ 1
IX 1
населённый 1
братом 1
Начиная 1
годо@@ 1
x@@ 0.20878801609717426
разве@@ 1
сч@@ 1
равно@@ 1
ина 1
языки 1
муниципальных 1
Молда@@ 1
посад@@ 1
лам@@ 1
Жен@@ 1
рецен@@ 1
женные 1
воспит@@ 1
дивизиона 1
предложение 1
Ван 1
применение 1
Президента 1
мона 1
преимуще@@ 1
бокс@@ 1
выступ@@ 1
отдельные 1
даны 1
заслуги 1
k 0.09439089239309457
Бос@@ 1
падает 1
стадии 1
жиз@@ 1
скре@@ 1
семи 1
нане@@ 1
зато@@ 1
ствования 1
атмосфер@@ 1
заведующий 1
шала 1
89 1
рыва 1
ждены 1
инициативе 1
герба 1
выпустил 1
цио@@ 1
Петр 1
конкурса 1
местной 1
Ска@@ 1
надеж@@ 1
византи@@ 1
артиллерии 1
ват 1
подро@@ 1
леген@@ 1
классов 1
Вита@@ 1
Было 1
постройки 1
Дэвид 1
достигну@@ 1
призёром 1
начался 1
очи@@ 1
будущего 1
трех 1
вдох@@ 1
контроля 1
шины 1
американская 1
гда@@ 1
красно@@ 1
недели 1
стен 1
крепость 1
являлись 1
Бит@@ 1
Ат@@ 1
героя 1
Шах@@ 1
очер@@ 1
возвышен@@ 1
решено 1
гал 1
ГУ 1
мет 1
создате@@ 1
дире@@ 1
экс@@ 1
посел@@ 1
Владимир@@ 1
друз@@ 1
район@@ 1
сотрудников 1
петро@@ 1
писа@@ 1
печ@@ 1
СС 1
укре@@ 1
автомобилей 1
сестра 1
информацию 1
сколько 1
ходила 1
христи@@ 1
Мака@@ 1
учение 1
интел@@ 1
отмет@@ 1
Африки 1
пой@@ 1
офицер@@ 1
фотографи@@ 1
ительство 1
сообщил 1
голланд@@ 1
картина 1
1859 1
Китае 1
Фёдор 1
музыкальных 1
удо@@ 1
тельных 1
вертика@@ 1
Польше 1
ОАО 1
ждает 1
диапа@@ 1
Сбор@@ 1
еро@@ 1
появ@@ 1
поезда 1
слуш@@ 1
учебных 1
Робер@@ 1
металлур@@ 1
слов@@ 1
опыт 1
вард 1
берта 1
осуществляется 1
стров 1
переведён 1
ология 1
Анны 1
неактивными 1
повто@@ 1
вызыва@@ 1
серию 1
завершения 1
Специ@@ 1
порядке 1
n@@ 0.06083023450943206
выступала 1
дна 1
кко 1
высшего 1
град 1
муниципалитет 1
братьев 1
многочисленных 1
вни@@ 1
сообщение 1
пони@@ 1
предо@@ 1
чке 1
ограни@@ 1
Олег 1
минера@@ 1
противополож@@ 1
протя@@ 1
бух@@ 1
рато@@ 1
литера@@ 1
зон 1
батальон 1
йных 1
лит@@ 1
печата@@ 1
информация 1
враже@@ 1
# 0.4587896904133956
обли@@ 1
NGC 1
87 1
объявлено 1
рово 1
побережья 1
местом 1
решили 1
сосе@@ 1
Сту@@ 1
сут@@ 1
Сергеевич 1
товарище@@ 1
повстан@@ 1
юн@@ 1
полез@@ 1
промеж@@ 1
Саратов@@ 1
хать 1
годом 1
Рома@@ 1
единица 1
красо@@ 1
сфе@@ 1
академи@@ 1
памятника 1
Без@@ 1
всп@@ 1
наконец 1
энерги@@ 1
шт@@ 1
исследова@@ 1
ань 1
обе 1
тность 1
сотрудник 1
VIII 1
кской 1
поте@@ 1
компа@@ 1
тёплого 1
герой 1
днего 1
ровалось 1
ила 1
Калу@@ 1
пля@@ 1
отцом 1
t@@ 0.051483971499132315
Жиз@@ 1
краси@@ 1
суд@@ 1
иденти@@ 1
йного 1
среднего 1
доров@@ 1
МГУ 1
Крым 1
тена 1
погибли 1
Музей 1
Таш@@ 1
известной 1
оккупи@@ 1
откло@@ 1
пуск@@ 1
пой 1
1892 1
оценки 1
нажды 1
террито@@ 1
Сем@@ 1
русская 1
выйти 1
редактор 1
водохозяйственный 1
ост@@ 1
продуктов 1
Теле@@ 1
рыв 1
Бала@@ 1
гай@@ 1
ок 1
выраз@@ 1
изуча@@ 1
прямо 1
Риме 1
хин 1
листов 1
цир@@ 1
Калинин@@ 1
талан@@ 1
поче@@ 1
нима@@ 1
румы@@ 1
стый 1
закона 1
символ 1
сх@@ 1
любов@@ 1
щате@@ 1
летов 1
сфер@@ 1
национали@@ 1
свойства 1
признан 1
яния 1
украинский 1
дворе 1
хва@@ 1
новил 1
тоне 1
сче@@ 1
соглашение 1
выпадает 1
цин@@ 1
факт 1
деб@@ 1
принимать 1
показал 1
Оле@@ 1
гно@@ 1
Около 1
редактором 1
числе@@ 1
заслу@@ 1
стах 1
Ш 1
атая 1
спас@@ 1
комисса@@ 1
УССР 1
космо@@ 1
рока 1
ушёл 1
Кузне@@ 1
психологи@@ 1
яще@@ 1
сены 1
Одним 1
Последний 1
див 1
дера 1
орудия 1
будди@@ 1
94 1
гиган@@ 1
Роман 1
блоки@@ 1
лесов 1
льством 1
пл@@ 1
последнее 1
ждено 1
Улица 1
es 0.014907840754873712
етна@@ 1
чались 1
уна@@ 1
вь 1
ори@@ 1
моста 1
строительстве 1
брак 1
Колум@@ 1
Наталь@@ 1
выступлений 1
бата@@ 1
лис 1
выгля@@ 1
рассчит@@ 1
певи@@ 1
79 1
новом 1
объект 1
Была 1
зали@@ 1
брака 1
лизи@@ 1
кари@@ 1
функ@@ 1
зад@@ 1
подразделения 1
битвы 1
Берлине 1
шев 1
фф@@ 1
библиотеки 1
достиг 1
проходят 1
Образование 1
Только 1
крейсе@@ 1
хова 1
Лат@@ 1
Дмитри@@ 1
оперы 1
ровании 1
английского 1
служа@@ 1
домой 1
New 0.05838067751936537
дц@@ 1
Латвии 1
выпустила 1
ровалась 1
фт 1
царь 1
посту 1
Постанов@@ 1
излу@@ 1
ура 1
стреми@@ 1
Чело@@ 1
Существует 1
водства 1
опе@@ 1
ровались 1
дуб@@ 1
Бли@@ 1
дению 1
жив 1
осве@@ 1
чим 1
тал 1
низма 1
Сви@@ 1
i@@ 0.08741836498039549
флан@@ 1
рит@@ 1
берега 1
орудий 1
жел@@ 1
парата 1
Вторая 1
рующих 1
мужа 1
вся 1
рито@@ 1
жки 1
оти@@ 1
5,@@ 1
адми@@ 1
динами@@ 1
миллиона 1
совме@@ 1
p@@ 0.058486642399960716
доку@@ 1
командования 1
оче@@ 1
лс 1
пел 1
Азербайджан@@ 1
жным 1
ФК 1
либера@@ 1
били 1
тром 1
стили 1
розыгры@@ 1
впа@@ 1
Y@@ 0.11224740580386129
общественного 1
шай@@ 1
Всесоюз@@ 1
лест@@ 1
общественных 1
НКВД 1
землю 1
ориенти@@ 1
Казахстан 1
линского 1
1885 1
ловой 1
Речной 1
лар@@ 1
пришёл 1
охран@@ 1
созданы 1
обязан@@ 1
Категория 1
возвращения 1
специалистов 1
ять 1
спорт 1
Шотландии 1
заместителя 1
местные 1
корре@@ 1
штейн 1
дович 1
зывать 1
чём 1
композитор 1
выступи@@ 1
Вил@@ 1
ждением 1
функциона@@ 1
Иоанна 1
заста@@ 1
атаки 1
пуска 1
ресурсов 1
запись 1
федерации 1
Обы@@ 1
ренко 1
ощу@@ 1
бассей@@ 1
пара 1
окружа@@ 1
ХЛ 1
первенстве 1
эм@@ 1
тр 1
Жо@@ 1
сой 1
стым 1
лика 1
Яку@@ 1
газета 1
музыкальной 1
связанных 1
рар@@ 1
Крыма 1
дка 1
ведёт 1
денег 1
летняя 1
700 1
Людови@@ 1
прикры@@ 1
типов 1
верхов@@ 1
альбоме 1
способность 1
соли@@ 1
деви@@ 1
образований 1
Свобо@@ 1
Выступал 1
международной 1
эволю@@ 1
сложи@@ 1
император 1
ресур@@ 1
каждом 1
ющаяся 1
правил 1
евро 1
железнодорожная 1
выну@@ 1
проиграл 1
большинстве 1
снаря@@ 1
Китай 1
стиля 1
полной 1
лета@@ 1
максимум 1
собрание 1
наличие 1
отобра@@ 1
ряды 1
стройки 1
миль 1
Награ@@ 1
покров@@ 1
военное 1
данном 1
профи@@ 1
... 0.21232983814082101
группо@@ 1
дом@@ 1
Аль 1
Бара@@ 1
матри@@ 1
уско@@ 1
шотланд@@ 1
Часть 1
Расположен 1
Але@@ 1
форте@@ 1
ситуация 1
следующего 1
актёр@@ 1
взро@@ 1
темати@@ 1
молодой 1
предотвра@@ 1
щики 1
Един@@ 1
моне@@ 1
Жур@@ 1
дес 1
Васи@@ 1
вели 1
вспо@@ 1
Джер@@ 1
казах@@ 1
ллер 1
сообщества 1
людьми 1
подру@@ 1
выста@@ 1
Billboard 0.7954424410944574
4,@@ 1
домини@@ 1
огра@@ 1
Вяче@@ 1
Кло@@ 1
товари@@ 1
участке 1
ЭС 1
головы 1
кандидата 1
Варшав@@ 1
Изначально 1
позд@@ 1
130 1
костю@@ 1
концентра@@ 1
открыл 1
ари@@ 1
плений 1
Роб@@ 1
шко 1
ствий 1
1894 1
рев 1
Золотой 1
королём 1
Тем@@ 1
Ави@@ 1
наград 1
чёт 1
Санта 1
жённых 1
менту 1
десять 1
ённость 1
Литов@@ 1
анализа 1
занимается 1
установки 1
левич 1
материа@@ 1
средний 1
выход 1
установлена 1
Так@@ 1
* 0.1468685862111785
вающих 1
1889 1
Глу@@ 1
лагер@@ 1
пов@@ 1
проф@@ 1
радика@@ 1
гипоте@@ 1
выстре@@ 1
щины 1
независимость 1
чан 1
дая 1
шев@@ 1
приказ 1
Португалии 1
диагно@@ 1
симфо@@ 1
роз@@ 1
империя 1
Учился 1
суль@@ 1
Далее 1
использовался 1
мных 1
ьер 1
вна 1
общем 1
целях 1
штате 1
орган 1
опти@@ 1
колони@@ 1
посы@@ 1
Округ 1
ческому 1
гора 1
01 1
импера@@ 1
учеников 1
режиссёром 1
машин@@ 1
фли@@ 1
подбассейн 1
1893 1
лейтенанта 1
минима@@ 1
Сино@@ 1
называли 1
корей@@ 1
социальных 1
недостат@@ 1
сток 1
именова@@ 1
женный 1
рат@@ 1
орденами 1
Занима@@ 1
ъя@@ 1
сами@@ 1
Иоси@@ 1
альтерна@@ 1
йка 1
Родилась 1
родной 1
досту@@ 1
про 1
Баку 1
чемпионатов 1
учит@@ 1
изображение 1
показатель 1
Майкл 1
цер@@ 1
Севасто@@ 1
Генрих 1
решает 1
мал 1
дух 1
связыва@@ 1
престол 1
методы 1
редакции 1
видом 1
францу@@ 1
ибн 1
кский 1
реди@@ 1
ступи@@ 1
перво@@ 1
Нового 1
Пари@@ 1
пределами 1
Мюн@@ 1
примене@@ 1
l 0.04157386214795188
припис@@ 1
достоин@@ 1
восстание 1
сыграла 1
Дебю@@ 1
Эстонии 1
чуть 1
лона 1
Св 1
уна 1
соединения 1
отрицате@@ 1
сцены 1
высоких 1
гола 1
галакти@@ 1
любы@@ 1
поко@@ 1
танков 1
1878 1
1891 1
верто@@ 1
кавказ@@ 1
стоял 1
правах 1
охра@@ 1
социали@@ 1
разработке 1
Music 0.28533675579500767
преми@@ 1
жают 1
изучал 1
преда@@ 1
штурмо@@ 1
весной 1
яне 1
перси@@ 1
заря@@ 1
изобре@@ 1
квалифика@@ 1
пур@@ 1
вери@@ 1
глуби@@ 1
закончи@@ 1
стара@@ 1
Андреевич 1
направление 1
Большо@@ 1
каль@@ 1
департамента 1
использовали 1
Прин@@ 1
интернет 1
стаи@@ 1
соединение 1
недель 1
типо@@ 1
матчи 1
парат 1
Ричар@@ 1
клубов 1
умерла 1
лекар@@ 1
входя@@ 1
z@@ 0.0662098416120753
ура@@ 1
World 0.09753207548717825
научного 1
рака 1
провести 1
переговоры 1
Устье 1
живопис@@ 1
сино@@ 1
седь@@ 1
гораздо 1
возглавля@@ 1
ирланд@@ 1
разу 1
роста 1
статисти@@ 1
Государственный 1
крестьянской 1
Ё@@ 1
эпоху 1
ит 1
вата 1
прозви@@ 1
участники 1
безопас@@ 1
вспомина@@ 1
убийство 1
алгорит@@ 1
Законом 1
лоне 1
публико@@ 1
Республике 1
брази@@ 1
источниках 1
соответствует 1
самые 1
доста@@ 1
тическим 1
музыка 1
жениях 1
стоят 1
памятников 1
вшем 1
оказывается 1
нка 1
Абра@@ 1
часа 1
лос 1
ведущих 1
пище@@ 1
настолько 1
ьях 1
ссу@@ 1
Даге@@ 1
номинации 1
одержал 1
Шев@@ 1
горя@@ 1
Славы 1
насчитывалось 1
лагерь 1
проя@@ 1
Павлович 1
мифо@@ 1
вернулась 1
ити 1
оборот 1
Наи@@ 1
Саль@@ 1
пан 1
эмо@@ 1
цких 1
участка 1
точно 1
ванная 1
деми@@ 1
гвардейской 1
никаких 1
Павла 1
метро 1
XI 1
операций 1
мё@@ 1
нования 1
мерно 1
лёт 1
делать 1
Владими@@ 1
звать 1
помощником 1
держал 1
щихся 1
приходилось 1
масштаб@@ 1
Извест@@ 1
ак 1
Университе@@ 1
лую 1
Красный 1
нашей 1
зывали 1
выте@@ 1
предусматри@@ 1
сражении 1
йл 1
син 1
чень 1
режима 1
субъек@@ 1
ьян@@ 1
построено 1
Богороди@@ 1
сить 1
грузин@@ 1
Сибири 1
частных 1
ню@@ 1
принимали 1
бла@@ 1
яна 1
гена 1
Пле@@ 1
енты 1
физической 1
считать 1
кция 1
йный 1
столь 1
атако@@ 1
высокого 1
ликвиди@@ 1
площадью 1
трек 1
Григорьевич 1
пин@@ 1
Фин@@ 1
дворя@@ 1
категори@@ 1
бей@@ 1
основного 1
епархи@@ 1
Спустя 1
огне@@ 1
плотность 1
ющегося 1
Украинской 1
переу@@ 1
писания 1
гле@@ 1
йскому 1
проспек@@ 1
перегово@@ 1
работников 1
газа 1
глуб@@ 1
здоров@@ 1
определения 1
рист 1
ссию 1
штра@@ 1
щал 1
поднима@@ 1
боевые 1
инте@@ 1
ссон 1
остались 1
коли@@ 1
Фридрих 1
вернуть 1
полити@@ 1
суме@@ 1
заняли 1
Официальный 1
самостоятельно 1
Сезон 1
концов 1
изменя@@ 1
Силь@@ 1
тилась 1
Будучи 1
Днепро@@ 1
23@@ 1
азиат@@ 1
вет 1
заключения 1
нави@@ 1
Террито@@ 1
Мил@@ 1
лёгкой 1
Вре@@ 1
Смер@@ 1
поколения 1
третье 1
Два 1
ори 1
Нан@@ 1
Ранее 1
перешла 1
Ля@@ 1
увелич@@ 1
завоевала 1
конкурсе 1
пост@@ 1
реализации 1
Псковской 1
намере@@ 1
существуют 1
распа@@ 1
хочет 1
собственной 1
банк 1
Выбор@@ 1
распространя@@ 1
текста 1
обя@@ 1
счаст@@ 1
Екатерин@@ 1
хреб@@ 1
биографи@@ 1
насеком@@ 1
связаны 1
1886 1
руководства 1
Монго@@ 1
гибели 1
организовал 1
перед@@ 1
последующие 1
серб@@ 1
Происхождение 1
Каль@@ 1
жоу 1
иза 1
проекти@@ 1
1864 1
общим 1
созданию 1
an 0.009084120489629017
вшую 1
атлети@@ 1
ликви@@ 1
благотворитель@@ 1
реме@@ 1
Стани@@ 1
ары 1
действительно 1
экономического 1
предоставля@@ 1
1862 1
H 0.31965262039013415
Волго@@ 1
твёр@@ 1
остальных 1
экономической 1
чему 1
24@@ 0.827689522758129
110 1
корабли 1
построены 1
ек 1
Ч 1
восточнее 1
инфра@@ 1
высоты 1
шений 1
вшимся 1
концеп@@ 1
Северного 1
k@@ 0.061941320071657965
тивная 1
выпущена 1
губерния 1
мера 1
оборонитель@@ 1
u 0.08421795648467413
зависит 1
зеф 1
фра@@ 1
искусство 1
Уи@@ 1
труп@@ 1
защитник 1
Российская 1
чан@@ 1
Юрь@@ 1
Сен@@ 1
дана 1
ковском 1
Хал@@ 1
кос@@ 1
военным 1
нив 1
усло@@ 1
Уни@@ 1
увле@@ 1
гля@@ 1
ТВ 1
автодороги 1
щер@@ 1
водство 1
жка 1
ранен@@ 1
атак@@ 1
профессиональный 1
Почёт@@ 1
рус 1
W 0.36049994246314865
Италия 1
ткан@@ 1
Республика 1
бора 1
стое 1
Счита@@ 1
примы@@ 1
Валерий 1
холодной 1
Юнайтед 1
кафе@@ 1
1887 1
пом@@ 1
художественный 1
майора 1
Кня@@ 1
включают 1
бывшей 1
возникнове@@ 1
Оре@@ 1
лата 1
удар 1
уд@@ 1
машино@@ 1
фонда 1
похоро@@ 1
поэта 1
Класси@@ 1
Беларусь 1
западнее 1
ува@@ 1
минуте 1
общее 1
дворец 1
добро@@ 1
ленным 1
составили 1
сение 1
ёз@@ 1
Гаври@@ 1
Премьер 1
Лондон 1
Муниципа@@ 1
ступив 1
пехоты 1
выставки 1
хирур@@ 1
Ричард 1
пад@@ 1
проводились 1
экологи@@ 1
1877 1
заим@@ 1
архитектор 1
Мол@@ 1
АЗ 1
церемонии 1
ывал 1
редак@@ 1
гера 1
печати 1
представлял 1
марок 1
борь@@ 1
личного 1
отправлен 1
резиден@@ 1
йскими 1
версию 1
материала 1
отступ@@ 1
нижней 1
линский 1
ята 1
фильмы 1
экипажа 1
заседа@@ 1
цель 1
партий 1
релье@@ 1
условий 1
подготовке 1
альбомов 1
Кей@@ 1
этапа 1
охват@@ 1
победителем 1
сельских 1
листиче@@ 1
самое 1
состояла 1
ранних 1
читал 1
Тамбо@@ 1
пресс 1
11@@ 1
1812 1
тата 1
лак@@ 1
правление 1
Хен@@ 1
1861 1
ывая 1
секретаря 1
обозначения 1
брен@@ 1
полный 1
длину 1
еха@@ 1
компанию 1
большее 1
Сергея 1
тивного 1
чали 1
1500 1
теку@@ 1
Пис@@ 1
читате@@ 1
осенью 1
Конгре@@ 1
возраст 1
сообщи@@ 1
письма 1
ыгра@@ 1
ющимся 1
спокой@@ 1
лор@@ 1
Фридри@@ 1
личности 1
бои 1
трибу@@ 1
Румынии 1
тра 1
топ@@ 1
стин 1
КОАТУУ 1
крупный 1
семью 1
Афа@@ 1
связанные 1
веро@@ 1
результатов 1
существенно 1
нная 1
Ав@@ 1
героев 1
нистиче@@ 1
сигна@@ 1
Феодо@@ 1
Гражданской 1
Отде@@ 1
рядо@@ 1
смогла 1
японской 1
Сове@@ 1
окончила 1
княже@@ 1
многочислен@@ 1
связана 1
Дво@@ 1
сна 1
Верхняя 1
Леонид 1
Физи@@ 1
ьевич 1
скресен@@ 1
шке 1
российская 1
архитектора 1
вавших 1
Любо@@ 1
розо@@ 1
башни 1
рата 1
Память 1
доброволь@@ 1
соревнования 1
развитии 1
тарь 1
комите@@ 1
ствовало 1
дого 1
1884 1
водных 1
закончил 1
замка 1
св 1
делу 1
миграции 1
мыми 1
единиц 1
Каре@@ 1
on@@ 0.06211426811606879
Мартин 1
приеха@@ 1
законо@@ 1
помощ@@ 1
оказалось 1
1863 1
человече@@ 1
здоровья 1
Осенью 1
руп@@ 1
фос@@ 1
границ 1
находилось 1
конечном 1
сынов@@ 1
награду 1
Уч@@ 1
Встре@@ 1
влияния 1
лекате@@ 1
уне 1
властей 1
мбу@@ 1
намест@@ 1
Парижа 1
Инфраструктура 1
освобод@@ 1
оккупации 1
Windows 0.9101635581631488
гено@@ 1
здравоохранения 1
инду@@ 1
лидеров 1
разби@@ 1
центри@@ 1
содержание 1
вав 1
окрестностях 1
указывает 1
вполне 1
шено 1
виз@@ 1
побед 1
заявля@@ 1
возвращается 1
Пин@@ 1
Клю@@ 1
лекции 1
мигри@@ 1
ос 1
губернато@@ 1
пати@@ 1
оказыва@@ 1
Хосе 1
Мета@@ 1
факультете 1
чиками 1
ид 1
руках 1
поп 1
правительством 1
лялся 1
еписко@@ 1
родов 1
арми@@ 1
языком 1
монар@@ 1
провин@@ 1
См@@ 1
рецеп@@ 1
физико 1
приказал 1
ывать 1
Ольга 1
Парти@@ 1
прошлом 1
гонке 1
сохранились 1
задач 1
Медве@@ 1
питания 1
несколькими 1
испыты@@ 1
лаборатории 1
You 0.4020554379336462
кона 1
Полта@@ 1
духе 1
отмечает 1
ьч@@ 1
Югославии 1
итальянский 1
истин@@ 1
деж@@ 1
Лев 1
боле@@ 1
кала 1
публикации 1
меч@@ 1
действиях 1
страну 1
выбор@@ 1
Бельгии 1
хват@@ 1
юще@@ 1
треуго@@ 1
Есть 1
жется 1
изменений 1
сная 1
участвовать 1
уст@@ 1
преоблада@@ 1
колхоза 1
популярность 1
льевич 1
зен 1
ковская 1
упо@@ 1
переводе 1
эт 1
почита@@ 1
Турк@@ 1
Среднегодовая 1
рованным 1
зуб@@ 1
Оси@@ 1
крыль@@ 1
лингви@@ 1
фла@@ 1
привод@@ 1
Шта@@ 1
полку 1
зави@@ 1
кул@@ 1
сед@@ 1
большом 1
Гран@@ 1
сравнитель@@ 1
боли@@ 1
автодороге 1
Мед@@ 1
бизнес 1
любовь 1
питан@@ 1
рег@@ 1
Нау@@ 1
автомобиль 1
четверть@@ 1
1888 1
вные 1
Демография 1
пытались 1
небольших 1
позво@@ 1
Андер@@ 1
городском 1
конфликта 1
отказыва@@ 1
страхо@@ 1
обыгра@@ 1
приз@@ 1
помест@@ 1
МВД 1
документов 1
секун@@ 1
классификации 1
держан@@ 1
депутат 1
олог 1
Строительство 1
Демокра@@ 1
зани 1
растения 1
швейцар@@ 1
экономических 1
выигры@@ 1
парт@@ 1
Краснодар@@ 1
Пот@@ 1
достигает 1
Ната@@ 1
ребёнка 1
плоско@@ 1
тиви@@ 1
пропове@@ 1
зуется 1
мульти@@ 1
кля@@ 1
противостоя@@ 1
приез@@ 1
Международной 1
женного 1
раста@@ 1
Несколько 1
имена 1
британский 1
ничестве 1
вете 1
вена 1
окончате@@ 1
гана 1
миссии 1
пои@@ 1
целей 1
гна@@ 1
Западного 1
кавалерий@@ 1
глаза 1
одержа@@ 1
поединке 1
лицо 1
циф@@ 1
прочем 1
кат 1
ресто@@ 1
католи@@ 1
заму@@ 1
сопрово@@ 1
тря@@ 1
договора 1
продолжает 1
Бах@@ 1
секретарём 1
Численность 1
сками 1
Алта@@ 1
кай@@ 1
ООО 1
гражда@@ 1
ману@@ 1
съё@@ 1
Брян@@ 1
Хью@@ 1
политика 1
опро@@ 1
Эри@@ 1
двигателя 1
соба@@ 1
критики 1
Андрея 1
Вай@@ 1
министров 1
доне@@ 1
незакон@@ 1
чья 1
чо 1
СН@@ 1
длины 1
учёных 1
названа 1
программи@@ 1
провел 1
бесплат@@ 1
музыкальный 1
Три 1
старин@@ 1
чах 1
границу 1
Гай@@ 1
главой 1
звании 1
Компания 1
колхоз 1
Яро@@ 1
борьбу 1
долгое 1
йцев 1
оправ@@ 1
иту@@ 1
порядок 1
созвез@@ 1
Красную 1
коллекции 1
Бек@@ 1
МИ@@ 1
происхождение 1
темы 1
пассажиров 1
различными 1
бок@@ 1
помочь 1
британской 1
дворца 1
системой 1
обществе 1
бав@@ 1
жден@@ 1
несла 1
журналист 1
Калифорния 1
дому 1
труд 1
щений 1
думы 1
клет@@ 1
Кот@@ 1
наказа@@ 1
КНР 1
ад 1
Николаев@@ 1
пет@@ 1
Творчество 1
Екатерина 1
снят 1
устраи@@ 1
столице 1
уволен 1
говорить 1
белых 1
патриар@@ 1
винов@@ 1
пространства 1
Еди@@ 1
пок 1
речь 1
Были 1
процессов 1
английском 1
сович 1
аудито@@ 1
цкое 1
символизи@@ 1
трудоспособ@@ 1
якобы 1
обрёл 1
фестиваль 1
инструмента@@ 1
кафедре 1
линг 1
перевод 1
Усть 1
личных 1
кустар@@ 1
Рейн@@ 1
рона 1
непреры@@ 1
17,@@ 1
Норвегии 1
Комитета 1
Кни@@ 1
внимания 1
мастера 1
жилых 1
старей@@ 1
след 1
коны 1
Рожде@@ 1
Брон@@ 1
Астра@@ 1
кла 1
уми@@ 1
гур@@ 1
А.@@ 1
премьера 1
низа@@ 1
РК 1
предшествен@@ 1
Основной 1
Вильгель@@ 1
Волы@@ 1
гаран@@ 1
поставил 1
пера 1
нском 1
поверх@@ 1
вше@@ 1
кал 1
двор 1
мети@@ 1
ара@@ 1
ционе@@ 1
ьей 1
поста 1
фельд@@ 1
заслуженный 1
ожида@@ 1
переход 1
температуры 1
немед@@ 1
сент@@ 1
водном 1
Объедин@@ 1
мому 1
Бран@@ 1
материал 1
эпо@@ 1
Улья@@ 1
часов@@ 1
риях 1
ступен@@ 1
пси@@ 1
демо@@ 1
Каждый 1
1879 1
Международного 1
кта 1
цева 1
эксплуатацию 1
внес@@ 1
Иногда 1
матер@@ 1
последним 1
политического 1
Имеет 1
бра 1
Витеб@@ 1
открыто 1
специалист 1
сл 1
Георгия 1
главную 1
лати@@ 1
живёт 1
соединя@@ 1
тировала 1
ут 1
сис 1
вного 1
объём 1
зок 1
изде@@ 1
Центрального 1
рабочего 1
фамили@@ 1
октябрь 1
1873 1
цова 1
белые 1
родителей 1
отло@@ 1
южно@@ 1
контр@@ 1
мони@@ 1
взять 1
лате@@ 1
Среднегодовое 1
номини@@ 1
выполнение 1
отсутствует 1
писать 1
гал@@ 1
Осман@@ 1
Ден@@ 1
повторя@@ 1
произведение 1
терми@@ 1
мощностью 1
женского 1
избран@@ 1
штат@@ 1
используя 1
Диа@@ 1
ился 1
крестья@@ 1
АТ@@ 1
схе@@ 1
правила 1
ровку 1
гат 1
заби@@ 1
Флаг 1
защиту 1
хой 1
обстре@@ 1
партнё@@ 1
кате@@ 1
консерватории 1
атам 1
деления 1
1882 1
la 0.002993609934703587
рассе@@ 1
известная 1
формирование 1
баскет@@ 1
Лар@@ 1
Постоян@@ 1
требует 1
Ссылки 1
бывших 1
великого 1
методов 1
среде 1
вооружение 1
обеих 1
герцог 1
речи 1
Уор@@ 1
создано 1
рак 1
рация 1
3,5 1
гры@@ 1
реестре 1
Одна 1
Голу@@ 1
альное 1
значительной 1
al 0.01943539022132818
бомбардиров@@ 1
Тей@@ 1
Нидерландов 1
буква@@ 1
шести@@ 1
провинцию 1
Софи@@ 1
помина@@ 1
тана 1
Международный 1
Звезда 1
Мать 1
Эдуар@@ 1
захоро@@ 1
перебра@@ 1
социально 1
городу 1
Весной 1
активное 1
quot 1
проводится 1
назначил 1
характеристи@@ 1
акций 1
держать 1
персонажа 1
09 0.8689564724773434
женной 1
Каза@@ 1
шпи@@ 1
мороз@@ 1
передан 1
День 1
КО@@ 1
еры 1
Игро@@ 1
войн 1
ae 0.25074393230794517
спро@@ 1
Мате@@ 1
ник@@ 1
заду@@ 1
цким 1
бас 1
Костро@@ 1
Теха@@ 1
семи@@ 1
годи@@ 1
распространения 1
ющему 1
хво@@ 1
Лео@@ 1
Лиг@@ 1
дир 1
выращи@@ 1
прило@@ 1
гнез@@ 1
Он@@ 1
посё@@ 1
помог 1
Зим@@ 1
педагог 1
Игна@@ 1
шил 1
отказ@@ 1
яние 1
могате@@ 1
кандидатов 1
разведки 1
ПВО 1
вающие 1
оборудование 1
нено 1
изобраз@@ 1
политик 1
g 0.09945616981115683
видные 1
востока 1
проявля@@ 1
чёте 1
образует 1
осла@@ 1
чник 1
Антонио 1
Ле 1
передал 1
ента 1
Арханге@@ 1
Здание 1
запада 1
карто@@ 1
него@@ 1
Мари 1
пова 1
продажи 1
бан 1
носится 1
начать 1
упраздне@@ 1
культурного 1
исторической 1
учителем 1
докторскую 1
Руковод@@ 1
наступате@@ 1
Чере@@ 1
шириной 1
монастыре 1
специфи@@ 1
Ильи@@ 1
экспо@@ 1
выступле@@ 1
рые 1
префек@@ 1
метра@@ 1
Коз@@ 1
Таджи@@ 1
Де 1
полное 1
провела 1
риф@@ 1
творчество 1
Мя@@ 1
филологи@@ 1
работах 1
шили 1
тни@@ 1
члена 1
экземпляров 1
Дмитриевич 1
Дор@@ 1
Мона@@ 1
неожидан@@ 1
черты 1
вавший 1
фирмы 1
мию 1
подозре@@ 1
льские 1
включены 1
предлагает 1
Дол@@ 1
длится 1
залива 1
цикл 1
выставке 1
вшееся 1
щаются 1
Лауреат 1
работают 1
прежнему 1
Съ@@ 1
дивизионе 1
Северный 1
холод@@ 1
обстанов@@ 1
прихода 1
Треть@@ 1
гую 1
³ 1
чук 1
новской 1
спортивной 1
Основная 1
Ленинградской 1
голову 1
заинтересо@@ 1
куз@@ 1
учреждения 1
щались 1
авторите@@ 1
попол@@ 1
Уай@@ 1
отзывы 1
каме@@ 1
1881 1
зо 1
церк@@ 1
парке 1
путей 1
приход@@ 1
анализ 1
слен@@ 1
тенден@@ 1
выжи@@ 1
режим 1
03 1
оды 1
Ранние 1
нование 1
далеко 1
способ 1
членами 1
лас 1
объекты 1
показыва@@ 1
тическую 1
персо@@ 1
Им@@ 1
Чехослова@@ 1
1871 0.974943417186859
06 0.8847788282638299
сумму 1
еже@@ 1
художественной 1
Ему 1
Мах@@ 1
ув@@ 1
11,@@ 1
основы@@ 1
носить 1
исправ@@ 1
организ@@ 1
рала 1
покинуть 1
Вест@@ 1
стро 1
Тара@@ 1
немцев 1
достато@@ 1
сержант 1
пин 1
гим 1
Осно@@ 1
тате@@ 1
участником 1
внешней 1
успехом 1
энциклопе@@ 1
08 0.8463706807405531
1876 1
лер@@ 1
вс@@ 1
медицинских 1
Музыка@@ 1
круг 1
посетил 1
вооружённых 1
докла@@ 1
альным 1
подготовку 1
Джо 1
нился 1
гового 1
общая 1
гряз@@ 1
пропаган@@ 1
областей 1
стадионе 1
территорий 1
надо 1
Лы@@ 1
молит@@ 1
тельность 1
водил 1
линию 1
лялись 1
управлением 1
плодо@@ 1
Йе@@ 1
интерпре@@ 1
ГБ 1
прибыли 1
Чай@@ 1
автономного 1
студийный 1
Лет@@ 1
горизонта@@ 1
скрип@@ 1
автоно@@ 1
Ставро@@ 1
деревню 1
Критика 1
источники 1
западном 1
at 0.010030412845856394
сегодняш@@ 1
бежал 1
лагеря 1
танковой 1
Джен@@ 1
документы 1
лёв 1
стром 1
мара 1
браке 1
демон@@ 1
Иг@@ 1
Офици@@ 1
Проект 1
ката 1
конкур@@ 1
скорост@@ 1
использоваться 1
изгна@@ 1
любитель@@ 1
международный 1
Тен@@ 1
дс 1
писто@@ 1
льстве 1
Главного 1
Мы@@ 1
конструкция 1
левый 1
невозможно 1
Испол@@ 1
скам 1
Пол 1
ганд@@ 1
тут 1
вар 1
классе 1
Эли@@ 1
медицинской 1
южнее 1
соблю@@ 1
спортсмен@@ 1
потерял 1
возве@@ 1
пожало@@ 1
возобнов@@ 1
Принима@@ 1
Фут@@ 1
рынке 1
водоро@@ 1
шате@@ 1
ждать 1
секу@@ 1
Дж 1
льди@@ 1
дат 1
друзей 1
европе@@ 1
мемориаль@@ 1
фолькло@@ 1
ордина@@ 1
Результаты 1
ловка 1
гендер@@ 1
нельзя 1
дорович 1
привели 1
испы@@ 1
никто 1
иск 1
номера 1
перешли 1
плы@@ 1
народной 1
Филипп 1
брь 1
мми 1
Великобритания 1
интегра@@ 1
брат@@ 1
атмосферных 1
восьми 1
рений 1
изло@@ 1
гель 1
нападающий 1
Посёлок 1
Департамент 1
засе@@ 1
проводит 1
стор@@ 1
Верну@@ 1
Ол@@ 1
боя@@ 1
пережи@@ 1
приглаш@@ 1
Министерство 1
появления 1
нужда@@ 1
граде 1
Кана@@ 1
полков@@ 1
Питер 1
импе@@ 1
место@@ 1
окрест@@ 1
автомобиля 1
Оренбург@@ 1
фонд 1
ваш@@ 1
стихотво@@ 1
новна 1
Университет 1
ментами 1
массы 1
характера 1
Московском 1
Русский 1
завершил 1
богосло@@ 1
работка 1
связан 1
бру@@ 1
кут@@ 1
дистан@@ 1
щению 1
алкого@@ 1
золото 1
1883 1
Гера@@ 1
шиф@@ 1
Оскар 1
Плотность 1
небольшие 1
организацию 1
Чернигов@@ 1
рынка 1
жное 1
замену 1
относя@@ 1
ателей 1
кно@@ 1
исторического 1
пуск 1
могло 1
льств 1
Православ@@ 1
служить 1
формули@@ 1
Вей@@ 1
воспитан@@ 1
поход 1
05 0.8926459744474377
енных 1
Роберта 1
бун@@ 1
тюр@@ 1
разновид@@ 1
ченной 1
интерес@@ 1
певица 1
получило 1
зафикси@@ 1
озер@@ 1
равно 1
нередко 1
Что 1
прошед@@ 1
сообщает 1
хождение 1
колоколь@@ 1
посредством 1
Ред@@ 1
Сав@@ 1
Вет@@ 1
Неме@@ 1
Re@@ 0.09109584596689697
12.@@ 1
административный 1
духовной 1
мило@@ 1
квар@@ 1
исследование 1
эскад@@ 1
ьям 1
Македо@@ 1
росла 1
эксплуатации 1
принимала 1
фотографии 1
непри@@ 1
бого@@ 1
порта@@ 1
славы 1
теров 1
жениями 1
Руси 1
идея 1
населением 1
наших 1
In@@ 0.10057340375562077
горных 1
обнаружены 1
нефти 1
поки@@ 1
класс@@ 1
дник 1
борту 1
курса 1
Музе@@ 1
лав@@ 1
Вильгельм 1
Мет@@ 1
Таври@@ 1
княжества 1
абсолю@@ 1
строя 1
принята 1
Чикаго 1
ухода 1
ране 1
02 0.9933720572595115
Ори@@ 1
показывает 1
низм 1
провинция 1
русским 1
экспози@@ 1
работан@@ 1
действовать 1
обусло@@ 1
Кем@@ 1
рым 1
предпоч@@ 1
евой 1
Гур@@ 1
напротив 1
популя@@ 1
Гит@@ 1
нефтя@@ 1
писана 1
сопротивление 1
подроб@@ 1
мусуль@@ 1
1865 1
вторую 1
визу@@ 1
внутри@@ 1
h@@ 0.052068065962381886
телевидения 1
аэродро@@ 1
посред@@ 1
артист 1
некоторым 1
выбира@@ 1
утверждает 1
Электро@@ 1
обвиня@@ 1
особо 1
мская 1
политику 1
ширина 1
ленное 1
колонии 1
международном 1
Сак@@ 1
собственные 1
совсем 1
Сред@@ 1
Общества 1
дольф 1
Африке 1
Президент 1
кар 1
устра@@ 1
пожар@@ 1
научным 1
плати@@ 1
r 0.1339091139406513
рачи@@ 1
Востока 1
Голо@@ 1
движении 1
сег@@ 1
бек@@ 1
автоном@@ 1
пространство 1
щу 1
левого 1
жителя 1
лун@@ 1
пок@@ 1
наименование 1
Мэри 1
древних 1
храме 1
Библи@@ 1
несли 1
Участ@@ 1
открытие 1
дился 1
платформы 1
хутор 1
зени@@ 1
говорят 1
высокие 1
Перво@@ 1
дальше 1
Вир@@ 1
познакомился 1
копий 1
Ама@@ 1
взо@@ 1
лат 1
пейза@@ 1
пребывания 1
утверждён 1
1867 1
обез@@ 1
Джек@@ 1
аро@@ 1
врач 1
перспек@@ 1
манитар@@ 1
расстояние 1
Шер@@ 1
вещества 1
динамиче@@ 1
жё@@ 1
пожертво@@ 1
другое 1
мра@@ 1
теория 1
арте@@ 1
указом 1
Яв@@ 1
описа@@ 1
мед 1
окружающей 1
научные 1
реакции 1
сак@@ 1
Музы@@ 1
мян 1
забро@@ 1
океана 1
торпе@@ 1
Солнца 1
кампа@@ 1
Премьера 1
игровой 1
исключ@@ 1
нейтра@@ 1
отделом 1
дови@@ 1
базо@@ 1
шахмат@@ 1
Соци@@ 1
Рим 1
воспо@@ 1
Дании 1
приказу 1
Возможно 1
Книга 1
доступ 1
культура 1
НБА 1
щему 1
Ради@@ 1
рано 1
лого@@ 1
конфликт 1
инского 1
Ленинград 1
политике 1
сож@@ 1
Вид 1
выступила 1
позиция 1
мб@@ 1
соборе 1
er@@ 0.03711212859384295
музыкального 1
мёр@@ 1
нейро@@ 1
досто@@ 1
свадь@@ 1
наступления 1
эффици@@ 1
медицины 1
служба 1
10.@@ 0.9021161107537792
Хей@@ 1
берег 1
полузащитник 1
мад 1
историко 1
станет 1
Сиг@@ 1
служит 1
Всё 1
видит 1
j@@ 0.06036375961659873
внутренней 1
ывают 1
случай 1
бежать 1
родину 1
гни@@ 1
ваемых 1
прокуро@@ 1
политические 1
цикла 1
Нижегородской 1
входило 1
каждые 1
короле@@ 1
Крымской 1
дивизион 1
щаться 1
Дал@@ 1
вере 1
турнирах 1
Краснозна@@ 1
моро@@ 1
13,@@ 1
технический 1
предположительно 1
эвакуи@@ 1
победитель 1
осталось 1
НР 1
защите 1
утверждал 1
ьё@@ 1
мексикан@@ 1
1868 1
семейство 1
Горо@@ 1
фамилии 1
Гиль@@ 1
адво@@ 1
Звез@@ 1
вшему 1
телефон@@ 1
следующее 1
Иерусали@@ 1
Татьяна 1
1850 1
благоприя@@ 1
отборо@@ 1
уезде 1
веществ 1
запро@@ 1
140 1
Арка@@ 1
объясни@@ 1
Сербии 1
ПУ 1
зрите@@ 1
распо@@ 1
падения 1
сериа@@ 1
объявила 1
органы 1
городская 1
женской 1
вела 1
защитника 1
родители 1
платы 1
теро@@ 1
мный 1
шали 1
определяется 1
носят 1
лки@@ 1
натура@@ 1
собственности 1
евской 1
третьем 1
менти@@ 1
Знамени 1
музыке 1
Василия 1
Ней@@ 1
народ 1
ограниче@@ 1
детства 1
море@@ 1
двер@@ 1
кристал@@ 1
чев 1
ывате@@ 1
Грэ@@ 1
Рио 1
исполнение 1
Иоанн 1
кред@@ 1
крепост@@ 1
оружи@@ 1
вра 1
дома@@ 1
ьёй 1
гипер@@ 1
тёплым 1
щался 1
Генриха 1
локо@@ 1
издал 1
епископом 1
пласти@@ 1
гонки 1
практике 1
сингла 1
ительную 1
причин 1
ic@@ 0.0897324081698967
СМ 1
кори@@ 1
зале 1
шю@@ 1
среднюю 1
ференци@@ 1
Ленинградского 1
эстафе@@ 1
посмер@@ 1
1869 1
инфек@@ 1
сведениям 1
умерен@@ 1
правой 1
муниципалитета 1
Игра 1
Куйбы@@ 1
находит 1
кет@@ 1
Долго@@ 1
энерго@@ 1
допу@@ 1
играла 1
риал 1
лежит 1
листо@@ 1
отдыха 1
профе@@ 1
исполнения 1
поэзии 1
будь 1
дирижё@@ 1
Токио 1
лив 1
высшее 1
мбо@@ 1
голе@@ 1
признание 1
мор 1
смысле 1
отношениях 1
тает 1
Ие@@ 1
приходит 1
Ленинграде 1
производству 1
религи@@ 1
интенсив@@ 1
принадлеж@@ 1
дизай@@ 1
хия 1
чания 1
молодёжи 1
останови@@ 1
Яр@@ 1
марк@@ 1
r@@ 0.04600873139127819
египет@@ 1
Канаде 1
линий 1
Октябрьской 1
Франсуа 1
Начало 1
комсомо@@ 1
Лон@@ 1
сооружения 1
услуг 1
закреп@@ 1
конфлик@@ 1
криста@@ 1
Гло@@ 1
Дея@@ 1
остатки 1
официальным 1
z 0.09543554173221855
мелких 1
жие 1
Геро@@ 1
тренер@@ 1
Францию 1
Хам@@ 1
Христа 1
1866 0.8445952439155604
el 0.006406157051230392
Собра@@ 1
ническая 1
1830 1
зависи@@ 1
Гви@@ 1
картин 1
реконструкции 1
вручением 1
Петербургской 1
вести@@ 1
распада 1
решению 1
Серебря@@ 1
ЦИК 1
впадает 1
комеди@@ 1
обыкновен@@ 1
вело@@ 1
объединение 1
1848 0.9204595411007158
Саха@@ 1
отсутствия 1
подобных 1
аристокра@@ 1
количестве 1
фило@@ 1
точка 1
добился 1
запол@@ 1
футбола 1
тавли@@ 1
озву@@ 1
пен 1
Система 1
йско 1
кана 1
Южная 1
подзем@@ 1
лениях 1
перёд 1
хен@@ 1
советские 1
осталась 1
Ага@@ 1
вере@@ 1
Мало@@ 1
Финлян@@ 1
исполнении 1
нести 1
преступления 1
Ближайшие 1
сезонов 1
НИИ 1
клеток 1
каких 1
ковать 1
трое 1
Кун@@ 1
мощность 1
религии 1
Ии@@ 1
Смит 1
волей@@ 1
квалификации 1
водом 1
добра@@ 1
закре@@ 1
Иде@@ 1
шир 1
компонен@@ 1
хта 1
круг@@ 1
мозга 1
дзи@@ 1
ляция 1
королевства 1
0,5 1
продоволь@@ 1
сное 1
препара@@ 1
Институте 1
высокий 1
выбор 1
дона 1
изданий 1
отне@@ 1
двигатель 1
сражения 1
метрополи@@ 1
Хель@@ 1
слобо@@ 1
детстве 1
коали@@ 1
специальных 1
Group 0.25667158006373647
МВ@@ 1
рио 1
трол@@ 1
характеристики 1
давле@@ 1
противоре@@ 1
тенни@@ 1
значительное 1
протестан@@ 1
говора 1
Храм 1
дочерью 1
щенко 1
Курской 1
результ@@ 1
числилось 1
чайно 1
приклад@@ 1
хвой@@ 1
гина 1
проживает 1
серде@@ 1
Z 0.4983174123293799
персонаж 1
опор@@ 1
ГЭС 1
выполнен@@ 1
имо@@ 1
Леони@@ 1
Велико@@ 1
носили 1
флаг 1
адъ@@ 1
важным 1
кап@@ 1
поверхность 1
Уро@@ 1
лениями 1
клави@@ 1
ради 1
УЕФА 1
губернатор 1
Фила@@ 1
общественный 1
советское 1
фю@@ 1
соном 1
12,@@ 1
нял 1
коди@@ 1
ограничи@@ 1
кандидат 1
Эль 1
хими@@ 1
основано 1
строение 1
en 0.0033634787379119586
общий 1
рите@@ 1
Сала@@ 1
кресто@@ 1
тинский 1
банд@@ 1
эффект 1
ракеты 1
Ch@@ 0.06495122216857932
сайта 1
07 0.911733084679325
Лав@@ 1
шуюся 1
Игра@@ 1
аван@@ 1
восточном 1
ДНК 1
морф@@ 1
Отече@@ 1
агро@@ 1
слабо@@ 1
слан 1
Научная 1
линг@@ 1
правый 1
пети@@ 1
огнём 1
епархия 1
Абу 1
стоимость 1
СД@@ 1
Сначала 1
коммуни@@ 1
функций 1
установлено 1
цов@@ 1
глад@@ 1
монго@@ 1
1856 1
Лай@@ 1
Кари@@ 1
клетки 1
станцию 1
официальных 1
чок 1
возглав@@ 1
многом 1
Высота 1
ходило 1
служеб@@ 1
Парк 1
жер 1
idae 0.2984685428996376
посвящен@@ 1
ционным 1
селение 1
торе 1
учреждений 1
1872 1
учред@@ 1
for 0.006688321642551915
княз@@ 1
Университета 1
магазин 1
Коль@@ 1
Мю@@ 1
ГИ@@ 1
пришли 1
танце@@ 1
нрав@@ 1
лиде@@ 1
Алексея 1
людям 1
собственных 1
самая 1
взрослых 1
погре@@ 1
ковод@@ 1
Зар@@ 1
свиде@@ 1
анима@@ 1
следующей 1
вара 1
Золотая 1
колледж 1
тация 1
частях 1
Михай@@ 1
универса@@ 1
действием 1
емы 1
врага 1
называет 1
шенко 1
роб@@ 1
севера 1
французских 1
товар@@ 1
Хро@@ 1
стек@@ 1
планы 1
фашист@@ 1
вато@@ 1
КБ 1
рису@@ 1
гского 1
проводятся 1
рук 1
дным 1
кации 1
поляр@@ 1
160 1
полуострова 1
нская 1
ченного 1
коллегии 1
швили 1
el@@ 0.04412636342306375
исторический 1
кварта@@ 1
братья 1
вил@@ 1
община 1
высоту 1
шают 1
преодоле@@ 1
течению 1
гося 1
приготов@@ 1
переданы 1
множества 1
одоб@@ 1
1875 0.9839453944767312
личные 1
представления 1
Корне@@ 1
размера 1
району 1
таки 1
кевич 1
балан@@ 1
лауре@@ 1
отри@@ 1
проводил 1
свободу 1
Широ@@ 1
Уд@@ 1
Ты@@ 1
повсе@@ 1
нист 1
регионов 1
наре@@ 1
значительные 1
термина@@ 1
ьера 1
бен 1
спорт@@ 1
ринг 1
Академи@@ 1
описан 1
боеприпа@@ 1
свое 1
лицензи@@ 1
тна 1
йцы 1
обеспечить 1
Кузь@@ 1
Трудо@@ 1
лье@@ 1
прочих 1
Тек@@ 1
Чили 1
тун@@ 1
монеты 1
гря@@ 1
строго 1
вик 1
нон 1
риту@@ 1
считали 1
Жена 1
возраст@@ 1
стиму@@ 1
наблюдате@@ 1
нета 1
Кы@@ 1
Дени@@ 1
применяется 1
волж@@ 1
инициати@@ 1
патри@@ 1
операция 1
приклю@@ 1
сани@@ 1
пра 1
Бет@@ 1
дисло@@ 1
ранга 1
Семе@@ 1
курор@@ 1
Смир@@ 1
хай@@ 1
сотни 1
бакала@@ 1
Кала@@ 1
Най@@ 1
показали 1
рян@@ 1
каби@@ 1
Ере@@ 1
мак 1
поклон@@ 1
бог@@ 1
l@@ 0.04582598198616613
буль@@ 1
м. 1
200@@ 1
бараб@@ 1
лекту@@ 1
кове 1
Виш@@ 1
нки 1
носил 1
господ@@ 1
неде@@ 1
принадле@@ 1
происхо@@ 1
структура 1
04 0.8674888665544173
лея 1
лице@@ 1
зеро 1
написана 1
принца 1
финиши@@ 1
отправил 1
бия 1
труды 1
впечат@@ 1
Великий 1
Лебе@@ 1
отдел 1
Запоро@@ 1
администра@@ 1
настав@@ 1
дуард 1
разуме@@ 1
сэ@@ 1
блок 1
пиани@@ 1
повлия@@ 1
Ны@@ 1
насле@@ 1
v@@ 0.0610791008667687
венства 1
следствие 1
1874 0.9702621511753063
глав 1
Наполе@@ 1
Берлин@@ 1
стоимо@@ 1
XXI 1
риса 1
нападения 1
нете 1
1840 1
Y 0.3844984396575655
АМ@@ 1
m@@ 0.05363142971300388
пенсионе@@ 1
Тере@@ 1
понятие 1
цк 1
цилин@@ 1
Оно 1
обработки 1
пропу@@ 1
Мала@@ 1
ряду 1
Жан@@ 1
парламент 1
Зан@@ 1
зина 1
аз@@ 1
Таи@@ 1
лидер 1
премия 1
Австри@@ 1
кал@@ 1
фини@@ 1
владение 1
обсервато@@ 1
танка 1
глоба@@ 1
шля@@ 1
музы@@ 1
ПО 1
Публи@@ 1
зеле@@ 1
ист 1
Луган@@ 1
Обра@@ 1
бизне@@ 1
Програм@@ 1
юби@@ 1
25@@ 0.71886046954985
пау@@ 1
лизма 1
Режи@@ 1
Бул@@ 1
Фак@@ 1
План@@ 1
пиано 1
лаборато@@ 1
признал 1
Кова@@ 1
циви@@ 1
Манче@@ 1
неприя@@ 1
департамент 1
сравни@@ 1
International 0.1341983916486013
Осе@@ 1
125 1
могу@@ 1
Ом@@ 1
форси@@ 1
прести@@ 1
своеобраз@@ 1
Джан@@ 1
тли@@ 1
Октябрь@@ 1
Спе@@ 1
работки 1
Собо@@ 1
май 1
дес@@ 1
мезо@@ 1
яче@@ 1
публици@@ 1
жба 1
Рели@@ 1
дент@@ 1
ниси@@ 1
герб 1
ир@@ 1
купа@@ 1
180 1
ис 1
Q@@ 0.196696652919641
Благо@@ 1
тели 1
пар 1
h 0.07786915623094288
моря@@ 1
филд 1
юно@@ 1
or@@ 0.049515203473349784
произво@@ 1
риан@@ 1
Литератур@@ 1
Ефи@@ 1
санд@@ 1
континента@@ 1
лодки 1
стадион 1
як 1
гови@@ 1
гимнази@@ 1
овладе@@ 1
Вашинг@@ 1
Коб@@ 1
ол@@ 1
Гроз@@ 1
звуко@@ 1
дание 1
обмен 1
осе@@ 1
10,@@ 1
мали 1
балета 1
Дем@@ 1
Серги@@ 1
концерт 1
сят 1
хит 1
пол 1
спект 1
туро@@ 1
хон@@ 1
кет 1
сма@@ 1
начи@@ 1
Эсто@@ 1
мара@@ 1
транспорт 1
Андре 1
йска 1
Фла@@ 1
зов@@ 1
Буд@@ 1
ох@@ 1
Давид 1
Максим 1
провели 1
играли 1
пород@@ 1
al@@ 0.040388209350141105
дис@@ 1
иран@@ 1
делега@@ 1
пож@@ 1
Река 1
Ход@@ 1
Мел@@ 1
знал 1
фей 1
сиф 1
in@@ 0.028931978825585195
3000 1
еви@@ 1
критик 1
дю@@ 1
крей@@ 1
остана@@ 1
рисун@@ 1
акции 1
ауди@@ 1
Спо@@ 1
писание 1
чии 1
изго@@ 1
Револю@@ 1
гона 1
кван@@ 1
сиг@@ 1
чо@@ 1
Смо@@ 1
просве@@ 1
Сток@@ 1
Известно 1
1.@@ 0.3484900203555455
Герб 1
В.@@ 1
лд 1
неактив@@ 1
СА@@ 1
Аш@@ 1
внедре@@ 1
установил 1
кау@@ 1
НК@@ 1
кардина@@ 1
феро@@ 1
казывает 1
герои@@ 1
Рафа@@ 1
ване 1
зве@@ 1
офицер 1
придвор@@ 1
Печ@@ 1
тар 1
Дон 1
радо@@ 1
охраня@@ 1
чество 1
адап@@ 1
en@@ 0.027235995312307113
бакте@@ 1
сми@@ 1
расстоя@@ 1
дорф 1
нари@@ 1
построй@@ 1
контин@@ 1
Хаба@@ 1
теля 1
маршрут 1
шеб@@ 1
― 1
дим 1
доброво@@ 1
Бое@@ 1
втори@@ 1
безработ@@ 1
яко@@ 1
Божи@@ 1
Сур@@ 1
коман@@ 1
камер@@ 1
Слова@@ 1
балти@@ 1
референ@@ 1
Цвет@@ 1
ьо 1
Иванов 1
фур@@ 1
ch@@ 0.03412683848545356
гие 1
предстоя@@ 1
оси 1
гау@@ 1
мле@@ 1
плацдар@@ 1
пособи@@ 1
конферен@@ 1
сюжет 1
кани 1
ноги 1
ГДР 1
тока 1
видно 1
Усп@@ 1
разно@@ 1
Кав@@ 1
публике 1
тел@@ 1
емы@@ 1
моди@@ 1
см. 1
стройка 1
Ап@@ 1
​ 1
Аба@@ 1
победа 1
ида 1
наблюдения 1
набор 1
Антон 1
включена 1
подписа@@ 1
разрешение 1
сайт 1
Дире@@ 1
Башкортостан 1
Яков 1
положительно 1
Франк@@ 1
жир@@ 1
Команд@@ 1
проведена 1
Све@@ 1
геологи@@ 1
няк 1
капе@@ 1
хран@@ 1
ссиона@@ 1
рита 1
or 0.015778799448060318
негатив@@ 1
Awards 0.28465758466813046
Sh@@ 0.09388563046890985
Румы@@ 1
гали 1
Стати@@ 1
Тони 1
Подо@@ 1
Цин@@ 1
монаше@@ 1
хал@@ 1
тино 1
лауреат 1
случайно 1
предпочита@@ 1
льян@@ 1
каде@@ 1
Фун@@ 1
Мос@@ 1
новому 1
Марти@@ 1
токси@@ 1
оде@@ 1
столетия 1
вот 1
Зай@@ 1
мощности 1
Берлин 1
депо 1
жур@@ 1
построил 1
монта@@ 1
морфо@@ 1
слави@@ 1
зий 1
фен@@ 1
стади@@ 1
Тат@@ 1
Нем@@ 1
Мои@@ 1
Сор@@ 1
планет@@ 1
туристи@@ 1
чко 1
эваку@@ 1
1858 1
монографи@@ 1
лики 1
виру@@ 1
орден 1
предполо@@ 1
Артур 1
Ирина 1
кора@@ 1
юри 1
вку@@ 1
астро@@ 1
баскетбо@@ 1
юга 1
означа@@ 1
Барсе@@ 1
нат@@ 1
Рен@@ 1
вица 1
взаим@@ 1
фигури@@ 1
чков 1
пович 1
лано 1
Побе@@ 1
квалифици@@ 1
Алекса 1
Ar@@ 0.06475647635749994
ета 1
предше@@ 1
Христи@@ 1
Министер@@ 1
• 0.9421987094756257
носа 1
похода 1
DVD 0.5785638500476842
горно@@ 1
То 1
дизе@@ 1
кас 1
Сул@@ 1
концепции 1
ориента@@ 1
серти@@ 1
ВИ@@ 1
Сухо@@ 1
игры@@ 1
Архан@@ 1
облож@@ 1
Спар@@ 1
шева 1
сомо@@ 1
зай@@ 1
рови@@ 1
независимо 1
псевдони@@ 1
помещения 1
ГУ@@ 1
Никола 1
занятия 1
кримина@@ 1
Дона@@ 1
РП 1
академик 1
Love 0.3666978202607794
Работа 1
Успе@@ 1
теран@@ 1
база 1
финансов 1
Юли@@ 1
заи@@ 1
спон@@ 1
Дости@@ 1
предоста@@ 1
Док@@ 1
Меди@@ 1
хим 1
архиепископ 1
трет@@ 1
ФИ@@ 1
Евгения 1
14,@@ 1
Шам@@ 1
гам@@ 1
15@@ 0.8167398155975294
инжен@@ 1
видение 1
350 1
J 0.34147734596969387
напада@@ 1
неодно@@ 1
услуги 1
СК@@ 1
комик@@ 1
Хра@@ 1
чих 1
навод@@ 1
трудов 1
учителя 1
онер@@ 1
оре 1
поведение 1
1800 1
Семи@@ 1
28@@ 1
ПК 1
граница 1
лке 1
Кази@@ 1
дис 1
блока 1
вян@@ 1
Закон 1
комедии 1
неф@@ 1
обвинения 1
вши@@ 1
подве@@ 1
родом 1
Вашингтон 1
пострада@@ 1
Производство 1
кера 1
Много@@ 1
мероприятия 1
Византи@@ 1
Рок@@ 1
ar 0.027322245598230006
Ибра@@ 1
необ@@ 1
готов 1
пещер@@ 1
сдел@@ 1
д. 1
Богда@@ 1
лейтенан@@ 1
желание 1
ac@@ 0.062179474858641434
ed 0.016396373876145665
AS@@ 0.4035251404519313
мба@@ 1
служили 1
хищ@@ 1
лизация 1
допуска@@ 1
системати@@ 1
композитора 1
Обу@@ 1
портрет 1
105 1
Григо@@ 1
INSEE 1
Груп@@ 1
направи@@ 1
друж@@ 1
бизнеса 1
самбле@@ 1
повести 1
АС@@ 1
конкурс 1
водят 1
избирате@@ 1
мага@@ 1
фундамента@@ 1
задача 1
приви@@ 1
Брат@@ 1
Каро@@ 1
Пана@@ 1
le 0.005636832054998287
шле@@ 1
Меж@@ 1
бери 1
тис 1
лик@@ 1
Мето@@ 1
неж@@ 1
календар@@ 1
сценарий 1
Майк@@ 1
кум 1
страда@@ 1
губ@@ 1
предупре@@ 1
газе@@ 1
сати@@ 1
удив@@ 1
депутат@@ 1
упразд@@ 1
бя@@ 1
лига 1
ВМС 1
блестя@@ 1
масшта@@ 1
Вод@@ 1
апре@@ 1
консервати@@ 1
сина 1
тёп@@ 1
1857 1
Люд@@ 1
Вз@@ 1
лили 1
хара 1
ког@@ 1
11.@@ 0.9957694233132903
Кристи@@ 1
интерфе@@ 1
оранже@@ 1
гоно@@ 1
реабили@@ 1
дино@@ 1
Канди@@ 1
приспособ@@ 1
Уру@@ 1
диска 1
флага 1
заре@@ 1
летий 1
подчер@@ 1
an@@ 0.03359290135773795
Импера@@ 1
термо@@ 1
яро@@ 1
посет@@ 1
совете 1
лз 1
Парла@@ 1
написа@@ 1
фикси@@ 1
нидерланд@@ 1
окси@@ 1
Рот@@ 1
фестива@@ 1
рациона@@ 1
шат@@ 1
пал 1
техника 1
лидер@@ 1
Al@@ 0.0617043321857277
om@@ 0.07687062557024105
подход 1
сколь@@ 1
Перу 1
ур 1
лар 1
свобо@@ 1
жок 1
социация 1
ar@@ 0.039352380842679405
Яко@@ 1
охла@@ 1
Инте@@ 1
адре@@ 1
диск 1
описания 1
сена@@ 1
шири@@ 1
Заха@@ 1
18,@@ 1
Динами@@ 1
as 0.005059255663154671
влюб@@ 1
Каме@@ 1
жит 1
Грод@@ 1
Касти@@ 1
хит@@ 1
der 0.0033836568188489735
сул@@ 1
TV 0.15535490693164689
отноше@@ 1
мосексу@@ 1
осман@@ 1
репер@@ 1
Исла@@ 1
лидера 1
папа 1
Снеж@@ 1
двиг 1
траге@@ 1
АК 1
Комите@@ 1
инци@@ 1
помощник 1
Фан@@ 1
Фро@@ 1
Фра@@ 1
бол@@ 1
Hot 0.628226838120166
Да 1
неизвестно 1
прием@@ 1
клуб@@ 1
офице@@ 1
дец 1
меда 1
зали 1
Герман@@ 1
Суво@@ 1
изве@@ 1
4,5 1
диску@@ 1
сбли@@ 1
стина 1
хам@@ 1
предска@@ 1
цла@@ 1
вие 1
мари@@ 1
Будапе@@ 1
предложения 1
март 1
Луис 1
Дек@@ 1
дик@@ 1
диск@@ 1
отро@@ 1
Флорен@@ 1
литет 1
кух@@ 1
шах 1
ревизи@@ 1
растение 1
стати@@ 1
Иван@@ 1
пка 1
сде@@ 1
запас 1
1855 1
27@@ 0.9280298905261721
движ@@ 1
Христо@@ 1
фру@@ 1
льд@@ 1
гроб@@ 1
лейбу@@ 1
ВМФ 1
ете 1
успехи 1
Ск@@ 1
иначе 1
Кю@@ 1
сезон@@ 1
чеб@@ 1
фин 1
Количе@@ 1
дзи 1
поколе@@ 1
поряд@@ 1
второ@@ 1
Амур@@ 1
шей@@ 1
теж@@ 1
нера@@ 1
плаз@@ 1
Дай@@ 1
зур@@ 1
спла@@ 1
поиска@@ 1
Бога 1
бак@@ 1
инспе@@ 1
Калифор@@ 1
англ 1
матика 1
Стефа@@ 1
Патриар@@ 1
тара 1
Гот@@ 1
неве@@ 1
OS 0.6139619914424751
адрес@@ 1
900 1
Генерал 1
вокали@@ 1
Нидерланд@@ 1
Гле@@ 1
лд@@ 1
гим@@ 1
жества 1
теч@@ 1
Мир 1
сун@@ 1
цена 1
исче@@ 1
жанра 1
фарма@@ 1
адрес 1
словно 1
нар 1
Грин@@ 1
Афгани@@ 1
ленко 1
Ники@@ 1
Маха@@ 1
кратер 1
Entertainment 0.5818773315584262
капиту@@ 1
астеро@@ 1
мила 1
Канада 1
Бота@@ 1
челю@@ 1
1849 1
скро@@ 1
Дис@@ 1
Спартак 1
1829 1
Чар@@ 1
боже@@ 1
определение 1
Me 0.43763609654857105
берг@@ 1
назем@@ 1
взаимодействия 1
традиционно 1
батареи 1
КС 1
митрополит 1
Моро@@ 1
бар 1
участво@@ 1
отличия 1
фрак@@ 1
Тон@@ 1
Граждан@@ 1
тема 1
зар 1
атели 1
фера 1
Дву@@ 1
славя@@ 1
f 0.10841436500860895
жер@@ 1
функция 1
Закон@@ 1
представление 1
ере 1
течения 1
Бла@@ 1
Управление 1
новения 1
ru 1
Времен@@ 1
вирту@@ 1
изменение 1
друже@@ 1
гарни@@ 1
стере@@ 1
26@@ 0.8749569804507112
Художе@@ 1
работник 1
фор 1
Бой@@ 1
става 1
сите@@ 1
it@@ 0.054191488602325644
codice 1
ЕС 1
императри@@ 1
яйце@@ 1
индустри@@ 1
Хуан 1
Леон@@ 1
кандид@@ 1
Риг@@ 1
рене@@ 1
мю@@ 1
ремонт 1
лири@@ 1
шер 1
Всеволо@@ 1
лакти@@ 1
Tr@@ 0.08114218954383612
гс 1
отъ@@ 1
Кап@@ 1
Распо@@ 1
бека 1
вещи 1
достовер@@ 1
хина 1
режисс@@ 1
Особ@@ 1
обращение 1
правед@@ 1
рождение 1
Уа@@ 1
РС@@ 1
гизи@@ 1
Times 0.3389587113507445
экземпля@@ 1
ате 1
пребы@@ 1
департа@@ 1
муниципалите@@ 1
тинг 1
циан@@ 1
Крон@@ 1
кули@@ 1
La 0.016392464768538353
ава@@ 1
ющи@@ 1
гун 1
бс 1
страна 1
15,@@ 1
усилия 1
Отли@@ 1
машина 1
рот 1
вечер@@ 1
ренно 1
сцен@@ 1
холо@@ 1
влаж@@ 1
демоби@@ 1
Патри@@ 1
Том 1
CD 0.3074391656789922
нан 1
схват@@ 1
Кристо@@ 1
рих 1
стойчи@@ 1
Двор@@ 1
1854 1
главно@@ 1
чувств@@ 1
патрио@@ 1
куб@@ 1
пехо@@ 1
коат@@ 1
ica 0.1295498127109089
изя@@ 1
An@@ 0.04863968148381307
1853 1
Поз@@ 1
кия 1
метода 1
Вселе@@ 1
йд 1
Бела@@ 1
госпо@@ 1
мюзи@@ 1
палу@@ 1
вита@@ 1
ясно 1
кове@@ 1
Лорен@@ 1
Вместо 1
динг 1
тим 1
ография 1
молекуляр@@ 1
сана 1
бита@@ 1
зоо@@ 1
горе 1
структур@@ 1
фия 1
Ог@@ 1
назначение 1
40@@ 0.9783615404710313
Окс@@ 1
Лондон@@ 1
прокура@@ 1
тормо@@ 1
ВО 1
ливо@@ 1
брать@@ 1
стия 1
.-@@ 1
фаши@@ 1
ату 1
Соко@@ 1
саунд@@ 1
вивален@@ 1
офицера 1
репу@@ 1
северо@@ 1
Жене@@ 1
Англия 1
строен 1
Депу@@ 1
доче@@ 1
шал@@ 1
Господ@@ 1
Абха@@ 1
Евре@@ 1
принадлежат 1
серви@@ 1
едва 1
мата 1
аргу@@ 1
Мати@@ 1
характе@@ 1
ol@@ 0.061265257377142654
ребён@@ 1
газ 1
Испа@@ 1
рили 1
as@@ 0.045407704953834754
регистра@@ 1
Габри@@ 1
Неф@@ 1
Ази@@ 1
практики 1
at@@ 0.048685405488851294
развити@@ 1
Шве@@ 1
пожа@@ 1
сие 1
симпто@@ 1
Форму@@ 1
Япон@@ 1
орбит@@ 1
войско@@ 1
Виктория 1
ител@@ 1
лаго@@ 1
колеба@@ 1
Стру@@ 1
трон 1
16,@@ 1
член@@ 1
хам 1
ФРГ 1
пассажи@@ 1
конфи@@ 1
Тради@@ 1
50@@ 0.7811821846775721
Минск 1
сражение 1
забра@@ 1
казате@@ 1
летие 1
подразделение 1
Млад@@ 1
метал 1
Лоу@@ 1
принц 1
сат@@ 1
инвали@@ 1
разруш@@ 1
пав@@ 1
МО@@ 1
онлайн 1
5000 1
петер@@ 1
цет@@ 1
скоп 1
Япония 1
просвет@@ 1
Иоан@@ 1
спектра@@ 1
Маро@@ 1
Систе@@ 1
горь@@ 1
Амстер@@ 1
фоку@@ 1
эф@@ 1
уво@@ 1
оккупа@@ 1
принцип 1
рейтинг 1
навли@@ 1
Cr@@ 0.1861694839563194
неже@@ 1
аспек@@ 1
композиция 1
хово 1
юся 1
души 1
общин@@ 1
лечеб@@ 1
ключ@@ 1
1852 1
равна 1
оки@@ 1
Неа@@ 1
вуд 1
фракции 1
еле@@ 1
медици@@ 1
патро@@ 1
лондон@@ 1
1820 0.906186751490852
акту@@ 1
предвод@@ 1
перь 1
секции 1
1842 1
Димит@@ 1
фабрики 1
16@@ 0.6052476711260509
os@@ 0.07558937158214463
вас 1
люс 1
марке@@ 1
Пове@@ 1
надий 1
дев 1
Con@@ 0.0713604552849029
дта 1
Лор@@ 1
мла@@ 1
созы@@ 1
вени@@ 1
благодар@@ 1
англо@@ 1
идеологи@@ 1
w@@ 0.04407430377771964
заменя@@ 1
качество 1
Род 1
пина 1
скопи@@ 1
et@@ 0.06250554487772197
лекси@@ 1
мнения 1
страте@@ 1
Австра@@ 1
Край@@ 1
оча@@ 1
Ким 1
тях 1
Структура 1
Остров 1
am 0.022063397363214145
доба@@ 1
маться 1
шка@@ 1
Франциско 1
нино 1
стория 1
кури@@ 1
флоти@@ 1
1834 1
фаса@@ 1
Шей@@ 1
легендар@@ 1
нарушения 1
Саму@@ 1
пример 1
ярко 1
февра@@ 1
одобре@@ 1
прида@@ 1
наши 1
отказ 1
годно 1
Характеристи@@ 1
слой 1
органа 1
свин@@ 1
лице 1
граду@@ 1
Литера@@ 1
Microsoft 0.8381077395842323
расте@@ 1
ЮАР 1
вселе@@ 1
нс 1
бке 1
170 1
Q 0.4559116928195559
Испания 1
иска 1
Ата@@ 1
Препода@@ 1
мили 1
тони 1
мов@@ 1
Бернар@@ 1
социа@@ 1
сезо@@ 1
Запа@@ 1
Company 0.17375849976942756
формации 1
чай 1
возгла@@ 1
водосбор@@ 1
сюжета 1
35@@ 1
101 1
Уча@@ 1
1814 1
Ж 1
хау@@ 1
мология 1
Образо@@ 1
1,2 1
архиманд@@ 1
жник 1
115@@ 1
МТ@@ 1
лост@@ 1
отрасли 1
командо@@ 1
вий 1
80@@ 1
ов@@ 1
сило@@ 1
блу@@ 1
робо@@ 1
Выступа@@ 1
социации 1
One 0.12685614664728576
уд 1
ждал 1
мён 1
механизи@@ 1
рын@@ 1
размно@@ 1
гард 1
Гю@@ 1
мотор@@ 1
1831 1
бита 1
наб@@ 1
Начи@@ 1
мож@@ 1
хла@@ 1
Авгу@@ 1
чно@@ 1
председате@@ 1
цин 1
зови@@ 1
inae 1
ot@@ 0.05960938139058521
лицен@@ 1
целя@@ 1
дзу@@ 1
консервато@@ 1
рд 1
бера 1
гини 1
велосипе@@ 1
бара@@ 1
фона 1
Себа@@ 1
певец 1
кор 1
Индоне@@ 1
Импе@@ 1
кафед@@ 1
авари@@ 1
лосо@@ 1
ам 1
НО@@ 1
мах@@ 1
прозра@@ 1
Фили@@ 1
Андро@@ 1
Пир@@ 1
марка 1
Апосто@@ 1
1838 1
De@@ 0.10130826213178892
импер@@ 1
зем 1
ово@@ 1
входи@@ 1
Ун@@ 1
набе@@ 1
Лондо@@ 1
склю@@ 1
отсе@@ 1
прогно@@ 1
клон@@ 1
понятия 1
анато@@ 1
проло@@ 1
кой@@ 1
дочер@@ 1
цен 1
зака@@ 1
Алба@@ 1
случи@@ 1
студент@@ 1
соции@@ 1
чер 1
РО@@ 1
u@@ 0.05656541185110811
Швар@@ 1
Гил@@ 1
Моск@@ 1
гент@@ 1
имену@@ 1
Еванге@@ 1
Знач@@ 1
справ@@ 1
НК 1
увен@@ 1
НАТО 1
Монте@@ 1
1836 1
благород@@ 1
публику@@ 1
повтор@@ 1
почет@@ 1
уре@@ 1
Бен 1
Станислав 1
My 0.35882538811634135
is@@ 0.047280380911873504
Лам@@ 1
СТ@@ 1
Вра@@ 1
дже 1
лага 1
дало 1
скус@@ 1
льо 1
шо 1
вул@@ 1
склон@@ 1
фабрика 1
мета 1
ta 0.07392845725238563
гата 1
дюй@@ 1
St@@ 0.0699322388737391
лак 1
цент 1
Капита@@ 1
форм@@ 1
доров 1
ЦСКА 1
Кава@@ 1
деле@@ 1
учения 1
порти@@ 1
1813 1
укрепления 1
Прак@@ 1
величина 1
лим@@ 1
зывы 1
неправи@@ 1
племен@@ 1
кен 1
фик@@ 1
западно@@ 1
хирурги@@ 1
ционер@@ 1
1846 1
Католиче@@ 1
преди@@ 1
оттен@@ 1
таря 1
Вероятно 1
анг@@ 1
албан@@ 1
эксплу@@ 1
Япо@@ 1
уте@@ 1
трудно 1
нология 1
Аг@@ 1
Амери@@ 1
Перио@@ 1
Сон@@ 1
Юлия 1
декла@@ 1
450 1
образа 1
Григорь@@ 1
индуст@@ 1
познакоми@@ 1
половина 1
ере@@ 1
дели 1
мур 1
обработ@@ 1
нена@@ 1
Арсе@@ 1
феода@@ 1
отре@@ 1
архипе@@ 1
ллю@@ 1
Секре@@ 1
зян@@ 1
увеличение 1
ядра 1
венти@@ 1
прими@@ 1
кли 1
лита 1
ad@@ 0.037939587953435716
бул@@ 1
юк 1
била 1
различия 1
Браун 1
ститу@@ 1
явно 1
Ка 1
фан 1
чат 1
тр@@ 1
Подоб@@ 1
шар@@ 1
Фре@@ 1
1851 0.9210486108706515
En@@ 0.09775831856512829
арки 1
чета 1
зана 1
уи 1
богослу@@ 1
es@@ 0.03831323430395077
Уин@@ 1
Европе@@ 1
Яна 1
Клуб 1
ферен@@ 1
Кве@@ 1
хт 1
Рах@@ 1
38@@ 1
пира@@ 1
1802 1
Валентин 1
лем@@ 1
гр 1
Белару@@ 1
1839 1
бей 1
Вера 1
тивен 1
стот@@ 1
убил 1
Еже@@ 1
СК 1
основание 1
пое@@ 1
режиссё@@ 1
des 0.004246218191929375
дири@@ 1
пше@@ 1
Корпу@@ 1
впечатление 1
сков@@ 1
пушки 1
op@@ 0.0695867328967427
соли 1
депре@@ 1
изви@@ 1
заба@@ 1
135 1
лине 1
сар 1
лечение 1
1847 0.983168463685123
хар 1
Социалистиче@@ 1
гала 1
топ 1
1837 1
поедин@@ 1
шов 1
бани 1
Шек@@ 1
пс 1
менно 1
нев 1
Плат@@ 1
доцент 1
проник@@ 1
т.@@ 1
шков 1
кожи 1
Мемо@@ 1
Произве@@ 1
1828 1
спир@@ 1
Рю@@ 1
хромо@@ 1
Камчат@@ 1
ниг@@ 1
сценарист 1
мут 1
спер@@ 1
19,@@ 1
август 1
Азиат@@ 1
демонстра@@ 1
ази@@ 1
нати@@ 1
фта 1
дебют 1
ред 1
юрис@@ 1
Преображен@@ 1
Th@@ 0.08921665746413925
Торонто 1
компен@@ 1
Грей@@ 1
дио@@ 1
драв@@ 1
СП 1
кантон 1
дера@@ 1
драматур@@ 1
.com 0.5505814700761094
Худо@@ 1
андар@@ 1
Жор@@ 1
Сера@@ 1
поток 1
бон 1
имущество 1
ор 1
Опреде@@ 1
Нови@@ 1
Проце@@ 1
Водо@@ 1
кресть@@ 1
полиция 1
гара 1
102 1
Жер@@ 1
ите 1
Епи@@ 1
дай@@ 1
декс 1
энер@@ 1
29@@ 0.8600927013302774
блока@@ 1
сибир@@ 1
нормати@@ 1
Тбилиси 1
квартира 1
СО 1
сал@@ 1
жити@@ 1
залив 1
Роман@@ 1
р. 1
ограничения 1
Сици@@ 1
Ще@@ 1
Шарло@@ 1
СО@@ 1
Чан@@ 1
ел 1
id@@ 0.0602799413387579
столько 1
разногла@@ 1
Проис@@ 1
случаи 1
мора 1
Car@@ 0.07597253533743172
хард 1
1826 1
Ново 1
драма 1
Адми@@ 1
1845 0.9783043950781181
така 1
рет 1
спешно 1
Аф@@ 1
карбо@@ 1
бя 1
Рек@@ 1
пару@@ 1
сина@@ 1
Ту 1
критика 1
комбинат 1
Ближай@@ 1
плу@@ 1
нор 1
Франци@@ 1
Адам 1
Клин@@ 1
подно@@ 1
тет 1
рания 1
Герман 1
сара@@ 1
удара 1
зел 1
хоре@@ 1
Порт 1
ливо 1
2.@@ 0.26493291714591644
уса@@ 1
постра@@ 1
вост 1
дене 1
Хру@@ 1
AR@@ 0.35139757652648956
Коре@@ 1
миниат@@ 1
кос 1
само 1
поправ@@ 1
Библиоте@@ 1
подписан 1
подходя@@ 1
грав@@ 1
бий@@ 1
нарушение 1
гиня 1
кус 1
разгра@@ 1
матери@@ 1
Анри 1
Право@@ 1
Рам@@ 1
серь@@ 1
Виде@@ 1
ландшаф@@ 1
цито@@ 1
академия 1
Соф@@ 1
возвы@@ 1
зара@@ 1
зян 1
фено@@ 1
платформа 1
лито@@ 1
115 1
зас 1
реаги@@ 1
партн@@ 1
сово 1
ценности 1
пада 1
хотели 1
установка 1
Орден 1
шав@@ 1
цит@@ 1
зачислен 1
сприн@@ 1
анге@@ 1
най 0.6428113150534585
барон 1
ata 0.11962399438700655
графство 1
жина 1
жим 1
изделия 1
Фрей@@ 1
редакти@@ 1
г.@@ 1
разработка 1
v 0.12678215523787215
Каспи@@ 1
пите@@ 1
кология 1
антрополо@@ 1
литература 1
реду@@ 1
животно@@ 1
вмест@@ 1
траги@@ 1
Щер@@ 1
провинци@@ 1
проли@@ 1
Юн@@ 1
стипен@@ 1
Вор@@ 1
Мани@@ 1
сет 1
Санд@@ 1
пера@@ 1
туризма 1
Геор@@ 1
Арно@@ 1
чев@@ 1
коре@@ 1
1844 1
Air 0.1596686149194817
сборника 1
Оцен@@ 1
хер@@ 1
Мило@@ 1
турне 1
городи@@ 1
фо 1
орто@@ 1
Генри@@ 1
Ани@@ 1
Австро 1
гражданин 1
Хат@@ 1
вино 1
Известен 1
интересо@@ 1
километра 1
престо@@ 1
осад@@ 1
соревнова@@ 1
Рак@@ 1
w 0.10318330706554975
Сат@@ 1
публикан@@ 1
Южно 1
лето 1
лна 1
порт@@ 1
тово 1
док@@ 1
модели@@ 1
сур@@ 1
Лука@@ 1
зрение 1
регу@@ 1
1835 1
1796 1
ers 0.023392435212456958
Ени@@ 1
ina 0.07015572914940481
шила 1
дизайн 1
освобождение 1
ana 0.06354207573628272
ap@@ 0.05547053636665106
07.@@ 1
фред 1
Адри@@ 1
Су 1
тя 1
рое 1
Mon@@ 0.08539007206302442
остан@@ 1
Основан 1
кура@@ 1
св@@ 1
it 0.010438684844249247
лум@@ 1
лит 1
│ 0.4132248328056504
маро@@ 1
проблема 1
oc@@ 0.07650775869434405
комендан@@ 1
тетра@@ 1
Перси@@ 1
нца 1
тания 1
АН@@ 1
адмирал 1
Ца@@ 1
футбол 1
ch 0.06035560814989921
Крис 1
АП@@ 1
вулка@@ 1
соно@@ 1
аф@@ 1
рие 1
минист@@ 1
ation 0.01632670348692959
сну@@ 1
надле@@ 1
спира@@ 1
бай 1
ледо@@ 1
Родо@@ 1
мура 1
Брен@@ 1
1806 1
1832 1
Австралия 1
яйца 1
звук 1
Лек@@ 1
пави@@ 1
видеокли@@ 1
марки@@ 1
грар@@ 1
1200 1
равнове@@ 1
Шен@@ 1
Почти 1
лков 1
1825 1
20,@@ 1
шеви@@ 1
отды@@ 1
ПС 1
евро@@ 1
Родри@@ 1
патру@@ 1
дем 1
06.@@ 1
Плани@@ 1
кви@@ 1
орна@@ 1
тно@@ 1
архитек@@ 1
отстра@@ 1
Хали@@ 1
Тя@@ 1
РНК 1
Хил@@ 1
тали@@ 1
1815 0.8904628205915666
сла 1
откро@@ 1
Леон 1
Тихоокеан@@ 1
ринга 1
Qu@@ 0.10151685282717274
Co@@ 0.08557389485856318
Ex@@ 0.0997800533835888
мем@@ 1
Благове@@ 1
таты 1
стие 1
Две 1
дента 1
1817 1
трево@@ 1
Мори@@ 1
кафе 1
риз@@ 1
Скоро@@ 1
Кау@@ 1
Бог 1
слабо 1
чест@@ 1
Кристиан 1
os 0.02539631795820323
арт 1
педаго@@ 1
извле@@ 1
Законодате@@ 1
поколение 1
осуще@@ 1
фора 1
чети 1
орде@@ 1
104 1
бус 1
Август 1
толо@@ 1
1841 0.9892919130963579
Ниже@@ 1
премь@@ 1
Египет 1
полови@@ 1
зания 1
220 1
въ@@ 1
записан 1
опо@@ 1
ph@@ 0.07445646173899802
Мали@@ 1
Франси@@ 1
гломе@@ 1
ора@@ 1
разбира@@ 1
скал@@ 1
am@@ 0.04347854019080152
залож@@ 1
рид 1
способен 1
изобретате@@ 1
приори@@ 1
проби@@ 1
зора 1
рота 1
зя 1
гот@@ 1
атаку@@ 1
09.@@ 1
дино 1
прости@@ 1
22@@ 1
04.@@ 1
дово@@ 1
ели 1
Жанейро 1
рила 1
цента 1
шан 1
1810 1
стани@@ 1
ние@@ 1
одо@@ 1
АП 1
строена 1
физ@@ 1
чело@@ 1
шахмати@@ 1
лай 1
Скан@@ 1
7,5 1
профессо@@ 1
і 1
мемо@@ 1
In 0.006976698924384963
тизма 1
Турни@@ 1
Вед@@ 1
пирами@@ 1
1843 1
фунда@@ 1
Ордена 1
It 0.01707357808320454
затруд@@ 1
султана 1
Стюарт 1
душно 1
Black 0.18767938918792068
мл@@ 1
1833 1
Партия 1
Пробле@@ 1
Цве@@ 1
кологи@@ 1
Гин@@ 1
имение 1
хай 1
1821 1
недвижи@@ 1
ожесто@@ 1
Пей@@ 1
чна 1
ремо@@ 1
сирий@@ 1
Испан@@ 1
Берн@@ 1
Владислав 1
чувства 1
1805 1
Над 1
Аз@@ 1
числения 1
района@@ 1
княжество 1
сму@@ 1
стояние 1
льм 1
осново@@ 1
трене@@ 1
Война 1
ve 0.022878942163221158
пци@@ 1
ова@@ 1
ti@@ 0.04802180623622787
соз@@ 1
Диего 1
Стен@@ 1
Защ@@ 1
108 1
бета 1
спекти@@ 1
або@@ 1
109 1
лодка 1
мунд 1
справедливо@@ 1
Коста 1
инструк@@ 1
престола 1
Волга 1
пр@@ 1
ик 1
Жана 1
парта@@ 1
анар@@ 1
изоли@@ 1
обмен@@ 1
разре@@ 1
дара 1
восточ@@ 1
пости@@ 1
Un@@ 0.11639446768677018
Георг 1
Управ@@ 1
заведения 1
АТО 1
Си 1
консер@@ 1
цикло@@ 1
цити@@ 1
АС 1
реконструи@@ 1
Ая@@ 1
Клу@@ 1
леп@@ 1
нелега@@ 1
яну@@ 1
Рат@@ 1
ur@@ 0.04880734186782433
конвен@@ 1
церемо@@ 1
широко@@ 1
свободно 1
Каби@@ 1
геоло@@ 1
акт 1
спря@@ 1
климат 1
Цу@@ 1
хали@@ 1
Над@@ 1
Чо@@ 1
Дя@@ 1
нодорож@@ 1
доктор@@ 1
Мора@@ 1
ini 0.13071271009280452
бари@@ 1
вани 1
язви@@ 1
Орле@@ 1
York 0.050239589445844564
кур 1
цизма 1
напит@@ 1
08.@@ 1
гство 1
Вави@@ 1
оконча@@ 1
Live 0.3676881380094471
Веро@@ 1
Нер@@ 1
площа@@ 1
Зеле@@ 1
градо@@ 1
пия 1
Бло@@ 1
man 0.03053396667884031
Латин@@ 1
друго@@ 1
103 1
жат 1
насо@@ 1
раке@@ 1
стато@@ 1
зун@@ 1
ЮНЕСКО 1
вражде@@ 1
мос 1
военноплен@@ 1
Нидерлан@@ 1
обща@@ 1
Венг@@ 1
ментар@@ 1
уе@@ 1
сио 1
навига@@ 1
акция 1
ралле@@ 1
Стефан 1
попу@@ 1
дром 1
ma 0.08835017039353821
входа 1
1795 1
мей 1
Бот@@ 1
норве@@ 1
34@@ 1
упраж@@ 1
1807 1
Монре@@ 1
ate 0.022783886827001384
th@@ 0.04276458518782737
лень@@ 1
Специали@@ 1
Псков@@ 1
шест@@ 1
колеп@@ 1
1809 1
ad 0.07503964737182245
Джейн 1
Макс 1
ято 1
фору@@ 1
Аля@@ 1
стадиона 1
пнев@@ 1
RA@@ 0.43394845492061535
122 1
прекрат@@ 1
ат 1
норвеж@@ 1
псевдо@@ 1
написан 1
компак@@ 1
45@@ 1
Порт@@ 1
Блан@@ 1
All 0.09616811946757091
37@@ 1
рено 1
бол 1
плате@@ 1
стоян@@ 1
алге@@ 1
жило 1
Франц 1
106 1
климата 1
Мун@@ 1
вонача@@ 1
сигнал 1
Надежда 1
ним@@ 1
отчасти 1
танк 1
герои 1
рица 1
Президен@@ 1
бло 1
носо@@ 1
Педро 1
Карл@@ 1
05.@@ 1
Петер@@ 1
привет@@ 1
Рад@@ 1
шево 1
ie 0.033272038305464845
психиат@@ 1
112 1
Тим@@ 1
отка@@ 1
Дро@@ 1
надписи 1
оператор 1
матизи@@ 1
Br@@ 0.06308088918523265
Ан 1
1811 1
сна@@ 1
арда 1
оценка 1
гова 1
югослав@@ 1
автомобили 1
лиса 1
PlayStation 0.9899608597917875
направил 1
гина@@ 1
ници@@ 1
Джули@@ 1
128 1
Чудо@@ 1
швей@@ 1
one 0.014665777475957882
канц@@ 1
показатели 1
перифе@@ 1
Life 0.20442111030587284
окла@@ 1
onlyinclude 0.5512671354277708
сорев@@ 1
популяри@@ 1
зага@@ 1
лур@@ 1
36@@ 1
позити@@ 1
цина 1
American 0.036147465726099566
000@@ 1
Сало@@ 1
има@@ 1
риат 1
сни 1
Индия 1
модификации 1
форт 1
st@@ 0.030899069439064297
вло@@ 1
мас 1
Le@@ 0.06363521917719495
Квин@@ 1
1,3 1
1827 1
регла@@ 1
Домини@@ 1
лие 1
Поме@@ 1
вай 1
ensis 0.25673235267610317
Копен@@ 1
na 0.06192401075318553
107 1
вал@@ 1
рополи@@ 1
Чин@@ 1
чева 1
Великобрита@@ 1
хер 1
Роу@@ 1
км2 1
несота 1
плато 1
берто 1
Живо@@ 1
Интернет 1
Атлети@@ 1
Обе@@ 1
характеристика 1
метрах 1
голове 1
кве@@ 1
Играл 1
разоча@@ 1
Вул@@ 1
Проте@@ 1
цев@@ 1
ter 0.031038495319600866
Октя@@ 1
145 1
пада@@ 1
подобно 1
Либе@@ 1
покой@@ 1
джу@@ 1
Развитие 1
факульте@@ 1
Туни@@ 1
рико 1
ректор 1
филосо@@ 1
Гале@@ 1
молеку@@ 1
пох@@ 1
очевидно 1
Хри@@ 1
компро@@ 1
инг 1
1816 1
Муста@@ 1
лабора@@ 1
дум 1
что@@ 1
BBC 0.29599442270088927
Ди 1
употре@@ 1
1808 1
ляне 1
Отно@@ 1
автобиографи@@ 1
1793 1
Йохан@@ 1
вале@@ 1
Time 0.32715786199182134
Франческо 1
публика 1
кото@@ 1
ФА 1
Cor@@ 0.08500481358635086
подготовка 1
Вис@@ 1
писец 1
биз@@ 1
Люб@@ 1
трофе@@ 1
подробно 1
детекти@@ 1
цио 1
насе@@ 1
диктат@@ 1
33@@ 0.9600014317383986
Di@@ 0.0778656465922532
da 0.03001265785084008
интегри@@ 1
Белору@@ 1
убед@@ 1
und 0.0029618284726127533
океан@@ 1
пови@@ 1
Франко 1
Праз@@ 1
ьор@@ 1
Лау@@ 1
жай@@ 1
ваку@@ 1
защита 1
Тури@@ 1
интен@@ 1
никнове@@ 1
наименова@@ 1
увели@@ 1
360 0.9801129173795695
Боли@@ 1
отрас@@ 1
Архитектура 1
администрация 1
1,6 1
Конструкция 1
Лод@@ 1
1824 1
Австрия 1
Лип@@ 1
YouTube 0.651288783242868
Джей 1
завеща@@ 1
СУ 1
Мадри@@ 1
зена 1
большин@@ 1
Гуан@@ 1
льти@@ 1
защити@@ 1
скоп@@ 1
Сел@@ 1
Марина 1
подоби@@ 1
Am@@ 0.08125247861595751
сценария 1
цка 1
монумента@@ 1
Августа 1
Rock 0.24940613514765644
парамет@@ 1
спор 1
фек@@ 1
пиро@@ 1
4.@@ 0.4394660878456512
→ 1
Корея 1
средство 1
Sp@@ 0.10589701203062854
лее 1
скоро 1
ето 1
рест@@ 1
иконо@@ 1
1792 1
варианта 1
ВП 1
Marvel 0.9406669218650145
проро@@ 1
отча@@ 1
чувство 1
пала 1
сфера 1
ксе@@ 1
Фай@@ 1
хор 1
гас 1
111 1
пап@@ 1
паке@@ 1
бана 1
храбро@@ 1
Кост@@ 1
КА 1
свое@@ 1
48@@ 1
5,5 1
Сме@@ 1
Мех@@ 1
кун@@ 1
Пай@@ 1
подполковник 1
нара@@ 1
игу@@ 1
потока 1
нака@@ 1
раса 1
Майк 1
документ 1
уа 1
сержан@@ 1
Ной@@ 1
3.@@ 0.31064997928982196
em@@ 0.04495353835279843
гравита@@ 1
AM@@ 0.4340094108609195
Mar@@ 0.045789467461291034
звука 1
трапе@@ 1
ДР 1
лане 1
кине@@ 1
Str@@ 0.09070262394960074
Добро@@ 1
абсолютно 1
тант 1
Люби@@ 1
бр 1
дисцип@@ 1
стота 1
100@@ 1
Стран@@ 1
носец 1
рер 1
сматри@@ 1
фина 1
аэрод@@ 1
организма 1
le@@ 0.0415042891706632
цер 1
чисто 1
прие@@ 1
порно@@ 1
60@@ 0.736576554138879
Bo@@ 0.08796532049406976
Саксо@@ 1
евреи 1
Алжи@@ 1
Ино@@ 1
li@@ 0.04349721732124969
Северо@@ 1
ul@@ 0.043287829764315396
имено@@ 1
Принци@@ 1
Юри@@ 1
жия 1
блей@@ 1
преки 1
Сва@@ 1
Чарли 1
вход@@ 1
концерта 1
рент@@ 1
1803 1
240 1
Карлос 1
мигра@@ 1
повторно 1
24,@@ 1
1823 1
иро@@ 1
ed@@ 0.056143106664111764
обособ@@ 1
монт 1
PC 0.4031482913057592
вариа@@ 1
1790 1
бат 1
диско@@ 1
маг@@ 1
поги@@ 1
Анастасия 1
анто@@ 1
шир@@ 1
Америка 1
03.@@ 1
Хан 1
Еле@@ 1
ял 1
брь@@ 1
указ 1
разделена 1
ka 0.08107651446200773
оре@@ 1
важно 1
близко 1
ec@@ 0.056701584223416736
свети@@ 1
перееха@@ 1
152 1
дизайна 1
by 0.004102998647695989
Бед@@ 1
рэн@@ 1
Рон@@ 1
Маргарет 1
сбург 1
Граф 1
едо@@ 1
Малай@@ 1
Марко 1
Зиг@@ 1
юрист 1
age 0.024672173446711278
яй@@ 1
постановки 1
племена 1
разреша@@ 1
il@@ 0.04721768723663147
сус 1
HD 0.7303684241868083
фган@@ 1
трудности 1
изби@@ 1
Mo@@ 0.09476827310648811
Ква@@ 1
Опера@@ 1
25,@@ 1
опера 1
София 1
санти@@ 1
1818 0.9855095552117475
Антио@@ 1
1797 1
Google 0.657999488551062
1822 1
заселе@@ 1
царство 1
Стри@@ 1
Ся@@ 1
обит@@ 1
останки 1
Архите@@ 1
1,8 1
неиз@@ 1
образец 1
ждали 1
революцио@@ 1
Независи@@ 1
1784 1
работо@@ 1
дово 1
ine 0.03620291442071018
противоречи@@ 1
героин@@ 1
покло@@ 1
Поч@@ 1
накло@@ 1
тюрк@@ 1
гт 1
Плу@@ 1
ref 0.5043684616174577
ското@@ 1
1819 1
заведение 1
нст 1
кис 1
взрос@@ 1
геометри@@ 1
Урал 1
принуд@@ 1
внезапно 1
менена 1
философ 1
1780 1
ученик 1
кара 1
Гун@@ 1
дете@@ 1
пояс 1
куку@@ 1
Попу@@ 1
лём 1
нау 1
” 0.04034469008668817
Карло 1
127 1
Колумбия 1
Жак 1
били@@ 1
насти@@ 1
публики 1
Пото@@ 1
Авра@@ 1
технология 1
114 1
Форт 1
Пала@@ 1
se 0.005859305367211509
вход 1
Ы@@ 1
рите 1
крови@@ 1
Нобе@@ 1
1801 1
мил@@ 1
рино 1
ниста 1
ES@@ 0.4418370251337147
ов 1
750 1
трети 1
120@@ 0.9721205753889717
AT@@ 0.3557148913644476
Фердина@@ 1
сит@@ 1
Стив 1
Кит@@ 1
пад 1
равнин@@ 1
1,4 1
пота@@ 1
Департа@@ 1
птица 1
венство 1
Par@@ 0.06120290244481595
Брат 1
удостоена 1
унд@@ 1
ир 1
депу@@ 1
сив 1
кода 1
баси@@ 1
Петров 1
опла@@ 1
Локомотив 1
туберку@@ 1
стор 1
дале@@ 1
концепция 1
Норман@@ 1
Фреде@@ 1
приш@@ 1
чак 1
пил 1
1804 1
Corporation 0.29683064078965615
около@@ 1
хри@@ 1
шос@@ 1
адапти@@ 1
стери@@ 1
брони@@ 1
align 0.4136537578724197
Реги@@ 1
еро 1
поли 1
зани@@ 1
забе@@ 1
термина 1
COVID 0.3856764964646476
ea 0.12246834454225212
MTV 0.7627821105332961
Ели@@ 1
чрез@@ 1
Проек@@ 1
Швеция 1
разрушен 1
Участи@@ 1
мала 1
Дур@@ 1
продукт 1
Тур 1
190 1
Африкан@@ 1
револю@@ 1
гражданство 1
Постро@@ 1
макро@@ 1
философи@@ 1
глю@@ 1
гарнизон 1
соби@@ 1
фирма 1
цилиндри@@ 1
кономиче@@ 1
Рене 1
триум@@ 1
тос 1
116 1
помещение 1
сал 1
Азербайджан 1
непо@@ 1
un@@ 0.017867444452069194
Турция 1
полуфинал 1
124 1
Аристо@@ 1
лива 1
археоло@@ 1
пропорциона@@ 1
дума 1
Денис 1
дискри@@ 1
Швейцария 1
CO@@ 0.33446955489474084
Или@@ 1
Иванова 1
дун 1
Хара@@ 1
рка 1
монархи@@ 1
отте@@ 1
зате@@ 1
комедия 1
te 0.017507064154118096
лоя@@ 1
служат 1
нападение 1
пей@@ 1
сберг 1
некро@@ 1
Патрик 1
Club 0.08445024169943251
Основа@@ 1
Фредерик 1
гра 1
39@@ 1
Кораб@@ 1
приложения 1
Много 1
апо@@ 1
Be@@ 0.056480325508407946
Шот@@ 1
1799 1
новение 1
онер 1
гиз@@ 1
довате@@ 1
Гай 1
гане 1
нинг 1
ьон 1
Настоя@@ 1
Уо@@ 1
Люксем@@ 1
прияте@@ 1
нев@@ 1
люд@@ 1
гда 1
Боро@@ 1
Вли@@ 1
Радио 1
1782 1
126 1
наказание 1
двигатели 1
ежедне@@ 1
17@@ 0.5357642547748749
Прод@@ 1
уха@@ 1
наше@@ 1
индо@@ 1
равен 1
резуль@@ 1
3D 0.6465642612505077
идентифици@@ 1
тни 1
казыва@@ 1
венециан@@ 1
сцена 1
писе@@ 1
Маг@@ 1
султан 1
коме@@ 1
глас 1
Se@@ 0.06335974123041997
революция 1
DC 0.32790825078447117
губерна@@ 1
с. 1
щаяся 1
j 0.1603810433471322
мото 1
Каролина 1
Пси@@ 1
Леген@@ 1
произведен 1
Apple 0.6174091819342029
промо@@ 1
01.@@ 1
{ 0.3514476557906856
дама 1
ag@@ 0.037401006488854305
Флорида 1
Хиро@@ 1
113 1
Иран 1
Конго 1
конден@@ 1
Боле@@ 1
эста@@ 1
Иск@@ 1
семит@@ 1
Уот@@ 1
5.@@ 0.40283855154008524
дипломат 1
подчинение 1
лип@@ 1
Би 1
Col@@ 0.07366655088854848
Тун@@ 1
псевдоним 1
рую 1
ствола 1
риск 1
непре@@ 1
Дат@@ 1
компонент 1
противник 1
сек 1
мит 1
1794 1
мито@@ 1
Попов 1
гени@@ 1
CA@@ 0.2680467683834875
1798 1
Studios 0.4588935743031582
параз@@ 1
Комплек@@ 1
мала@@ 1
117 1
Сара 1
инструмент 1
стеро@@ 1
невро@@ 1
нят 1
пано@@ 1
реми@@ 1
02.@@ 1
Airlines 0.772351613296869
цита@@ 1
смя@@ 1
Сели@@ 1
Зам@@ 1
деятель@@ 1
Фернан@@ 1
Милан 1
предате@@ 1
IS@@ 0.31754581525821785
Серия 1
ity 0.03965292800344092
аранжи@@ 1
англича@@ 1
re@@ 0.010782707446813379
день@@ 1
самы@@ 1
Те 1
архе@@ 1
di 0.08530335684081405
формат 1
практика 1
жанр 1
Проти@@ 1
стре 1
кали 1
проб@@ 1
1.0@@ 1
Red 0.15316184319226203
литур@@ 1
114@@ 1
храните@@ 1
призё@@ 1
6,5 1
климати@@ 1
Моно@@ 1
155 1
Man 0.1670577242228727
Калифорни@@ 1
гвар@@ 1
Вати@@ 1
po@@ 0.04919478584018208
тома 1
прони@@ 1
ro@@ 0.04331061889040711
мба 1
Лота@@ 1
дока@@ 1
масло 1
характерно 1
Nintendo 0.7934703714030074
случая 1
рад 1
шни 1
флек@@ 1
справед@@ 1
RE@@ 0.39896310664564044
68@@ 1
26,@@ 1
негати@@ 1
реакция 1
ic 0.03995156628898546
Ски@@ 1
1783 1
Прото@@ 1
Рона@@ 1
23,@@ 1
ес 1
словен@@ 1
Черни@@ 1
22,@@ 1
йно 1
Араб@@ 1
публично 1
550 1
керами@@ 1
с.@@ 1
27,@@ 1
230 1
ИК 1
55@@ 1
Pr@@ 0.08174619822638089
Open 0.1913835710012193
Средиземно@@ 1
1600 1
Боб 1
Синга@@ 1
нус 1
освобожда@@ 1
Леонар@@ 1
преодо@@ 1
рёх@@ 1
компи@@ 1
lo@@ 0.03895825638998287
Киргиз@@ 1
епископ@@ 1
No 0.1466729662396915
Хон@@ 1
WWE 0.7353023180336994
65@@ 1
7.@@ 0.3315482533462139
Тибе@@ 1
мий 1
хора 1
to@@ 0.05280958350455282
Кате@@ 1
МиГ 1
казал 1
Boeing 0.9307538469233507
112@@ 1
Производ@@ 1
тайно 1
Церков@@ 1
210 1
Sony 0.7145662293930244
Густав 1
tr@@ 0.025931366557286104
пена 1
гария 1
дубли@@ 1
119@@ 1
Pro@@ 0.09279413349142777
потенциал 1
нт 1
внук 1
пал@@ 1
Нат@@ 1
124@@ 1
бул 1
биография 1
Top 0.23224035229999346
бели 1
Ac@@ 0.1054958780105361
Com@@ 0.08711759580167548
70@@ 0.843515269186892
Алекс 1
Ro@@ 0.08485196374704733
Фести@@ 1
лимпи@@ 1
подар@@ 1
предмет 1
приказ@@ 1
Вел@@ 1
Зав@@ 1
вза@@ 1
Бургун@@ 1
Европа 1
Обер@@ 1
4000 1
схема 1
ада 1
джо 1
Кинг 1
СС@@ 1
примити@@ 1
рее@@ 1
мь@@ 1
пилот 1
Административно 1
Позна@@ 1
дея 1
121 1
123 1
СМ@@ 1
мил 1
формация 1
ганы 1
еванге@@ 1
0.@@ 0.15392272489144804
117@@ 1
висо@@ 1
пожар 1
РБ 1
Реда@@ 1
столица 1
атия 1
Анд@@ 1
· 0.04902547677450407
Games 0.18245740444166433
комбини@@ 1
спонсо@@ 1
Бразилия 1
мане 1
ab@@ 0.022536827662887022
чести 1
тес 1
em 0.0747112541953981
poem 0.5122977332914249
Фир@@ 1
Пери@@ 1
Анаста@@ 1
дворцо@@ 1
джин@@ 1
вика@@ 1
процеду@@ 1
Linux 0.934439106261255
нея 1
абстрак@@ 1
46@@ 1
проду@@ 1
македон@@ 1
Award 0.10443032694639498
Дипло@@ 1
разнообрази@@ 1
Анге@@ 1
Бенеди@@ 1
Tour 0.1302991084190542
конфли@@ 1
кипа@@ 1
прину@@ 1
Характер@@ 1
28,@@ 1
USD 0.913354397182433
кабинет 1
радиа@@ 1
Кот 1
320 1
Мек@@ 1
ядро 1
co@@ 0.035263739751929174
Марга@@ 1
крепо@@ 1
47@@ 1
IM@@ 0.4043886963202238
MA 0.3393985213267798
ляна 1
доктри@@ 1
Сената 1
For@@ 0.08135944854480179
дружества 1
Й 1
Нил 1
церемония 1
ук 1
Кара 1
кампания 1
клин 1
Касте@@ 1
Bank 0.19229396689778608
0,1 1
избрана 1
сили@@ 1
усе@@ 1
страх 1
ДС 1
окс 1
скуль@@ 1
жда 1
подкреп@@ 1
гимнасти@@ 1
Бона@@ 1
варя 1
держит 1
ориен@@ 1
гава 1
HMS 0.6512501879934766
манипу@@ 1
паша 1
Академия 1
Украи@@ 1
1770 1
di@@ 0.03044663966613796
Media 0.24798016180759216
Йозеф 1
понен@@ 1
no 0.016120736369866363
фара@@ 1
Ниге@@ 1
ella 0.09257503403055499
мега@@ 1
комен@@ 1
1,7 1
Рейн 1
21,@@ 1
116@@ 1
пур 1
Клау@@ 1
Азербай@@ 1
услу@@ 1
Star 0.17711894875730447
кажд@@ 1
Уз@@ 1
дос 1
участи@@ 1
Бати@@ 1
кратно 1
мимо 1
Нюр@@ 1
im@@ 0.03448987163388479
Твор@@ 1
Узбекистан 1
физика 1
йор@@ 1
фонсо 1
Мичи@@ 1
2,4 1
Маргарита 1
ator 0.06796565843825156
Super 0.19802700425995362
Акаде@@ 1
архив 1
мец 1
Rolling 0.8066507085030706
1789 0.8789891186007475
Фил@@ 1
наби@@ 1
Боло@@ 1
Стю@@ 1
взаимодействие 1
Gr@@ 0.06154777913094811
наследство 1
Дома@@ 1
старт 1
Шри 1
рез 1
Португа@@ 1
Game 0.2811596876324425
нах@@ 1
Петер 1
li 0.15590327886821617
клад 1
Хим@@ 1
Radio 0.1566868390481295
махта 1
Мара@@ 1
Фол@@ 1
ai 0.06863135004678493
оната 1
1791 1
тексти@@ 1
Кларк 1
Кавказ 1
хет@@ 1
18@@ 0.4914123513359846
Колорадо 1
2,3 1
фект 1
154 1
кава 1
om 0.13284167442012956
ER@@ 0.38543614734099996
od@@ 0.07413791805411397
федерация 1
Фернандо 1
шно 1
Филосо@@ 1
фектив@@ 1
конференция 1
фолк 1
Куз@@ 1
линко@@ 1
гости 1
включен 1
Хин@@ 1
правосла@@ 1
Ланд@@ 1
Сце@@ 1
Президент@@ 1
хослова@@ 1
вален@@ 1
чени 1
знаме@@ 1
катего@@ 1
1700 1
Брази@@ 1
йе@@ 1
генери@@ 1
кинс 1
метео@@ 1
Марио 1
смар@@ 1
лото 1
гол@@ 1
Тома 1
175 1
Стандар@@ 1
лоу 1
113@@ 1
эксплуата@@ 1
8.@@ 0.32747959092431356
Мике@@ 1
Близ@@ 1
теми 1
площадка 1
Лим@@ 1
Te@@ 0.10516235600057004
Ой@@ 1
Постепенно 1
Диони@@ 1
бн 1
драматург 1
Ил@@ 1
118@@ 1
118 1
Башкорто@@ 1
Дуна@@ 1
Inter@@ 0.10022874609793699
кош@@ 1
космонав@@ 1
кав@@ 1
гю@@ 1
модифици@@ 1
конку@@ 1
метеоро@@ 1
еги@@ 1
неа@@ 1
134 1
44@@ 1
1,1 1
131 1
жилищ@@ 1
132 1
Орен@@ 1
Фердинанд 1
селек@@ 1
Lo@@ 0.1002008869247652
дли 1
IP 0.5395484571290168
ter@@ 0.041000588842173
между@@ 1
Ахмед 1
хайм 1
De 0.05425644708226305
Балкан@@ 1
Сене@@ 1
Загре@@ 1
зова@@ 1
отбора 1
награда 1
Феликс 1
погребе@@ 1
1775 1
жо 1
Цари@@ 1
монах 1
флаг@@ 1
исторически 1
IN@@ 0.309187497635556
Me@@ 0.08397769883077348
Джузе@@ 1
Дре@@ 1
Ов@@ 1
дят 1
Фило@@ 1
us@@ 0.04397902248859554
кора 1
Stone 0.3689765893523781
Без 1
констан@@ 1
Мав@@ 1
Сатур@@ 1
рани 1
отраз@@ 1
хозяйственный 1
AC@@ 0.28522315570450646
смыс@@ 1
положен 1
ят@@ 1
Трен@@ 1
сман 1
химик 1
Мадрид 1
á@@ 0.08007936197002237
традиция 1
Доми@@ 1
рог 1
диана 1
стихотворения 1
поне@@ 1
национал 1
бий 1
мону@@ 1
океан 1
City 0.043226480375038616
650 1
AD@@ 0.3398481146460934
антро@@ 1
гел@@ 1
зиди@@ 1
бод@@ 1
фигура 1
ir@@ 0.039057284453739294
чуж@@ 1
Трини@@ 1
тман 1
контакт 1
вёт 1
og@@ 0.07485819253958098
тук 1
si@@ 0.056249152201995424
Медицин@@ 1
Реал 1
News 0.24580678666992092
Le 0.01258663677898319
памя@@ 1
id 0.08756955201014889
Изабе@@ 1
165 1
теше@@ 1
ношение 1
129 1
СКА 1
дад 1
наимено@@ 1
SP@@ 0.3325002470775199
вещество 1
Бавария 1
colspan 0.4201476754533556
Куин@@ 1
Армения 1
талант 1
рум 1
лорд 1
Per@@ 0.06306006591868547
XX@@ 1
Евге@@ 1
ел@@ 1
физик 1
личане 1
Хот@@ 1
1774 1
Спорт 1
деля 1
риал@@ 1
тене 1
0,3 1
зап@@ 1
писан 1
тани 1
заку@@ 1
280 1
ay 0.05323503596338182
вмести@@ 1
Микро@@ 1
ak 0.06342584978528207
Локо@@ 1
мач@@ 1
министерство 1
вене@@ 1
поди@@ 1
1787 1
29,@@ 1
Ge@@ 0.0758170809735889
Операция 1
ale 0.03453644405451625
Браун@@ 1
EP 0.23783205361155965
трафи@@ 1
IB@@ 1
регистри@@ 1
сектор 1
ts 0.022240243292557454
ема 1
нта 1
Ака@@ 1
Дрез@@ 1
Освобо@@ 1
Бил@@ 1
внезап@@ 1
ST@@ 0.3652728680103348
атака 1
Запад 1
фал@@ 1
Пес@@ 1
диалект 1
середи@@ 1
субтропи@@ 1
0,2 1
духа 1
безо@@ 1
Ску@@ 1
полуостров 1
небе@@ 1
MS 0.31005710466036307
Теодор 1
стена 1
агент 1
МС 1
Шпи@@ 1
хребет 1
Blue 0.21631719363334037
фат 1
лево 1
CG 1
Афри@@ 1
Кристина 1
царе@@ 1
шаяся 1
6.@@ 0.3709645904494011
2,2 1
Андреа 1
Маса@@ 1
Челси 1
бал 1
Co 0.27849444064043116
Die 0.008745717854335165
El@@ 0.05365866912432766
SS 0.21955669090094215
ent 0.01599925104888931
отбор 1
ance 0.03947984152338554
US@@ 0.1727992576461812
Радо@@ 1
рожден@@ 1
eb@@ 0.05349076728183159
Бава@@ 1
Бруно 1
National 0.03132016176227977
59@@ 1
рион 1
цари 1
бара 1
Наполеон 1
Луиза 1
многократно 1
Disney 0.3192366673449681
чино 1
маршал 1
son 0.008907203539841797
дас 1
стандарт 1
8,5 1
As@@ 0.08070979658924642
http 1
сев 1
мид 1
Виз@@ 1
Страс@@ 1
Лига 1
огла@@ 1
133 1
кота 1
vi@@ 0.0575076399129399
43@@ 1
Учи@@ 1
yr@@ 0.1735692904152675
хок@@ 1
ite 0.044296960199394754
кю@@ 1
рида 1
Размно@@ 1
млн. 1
гари 1
вис@@ 1
мово 1
находки 1
механика 1
рим 1
хим@@ 1
жертво@@ 1
Team 0.11993851963397549
no@@ 0.06545742917501872
гово 1
снение 1
Север 1
Sol@@ 0.11032079162423118
Сталин 1
маз@@ 1
1788 1
зв@@ 1
циклопе@@ 1
Анг@@ 1
спуска@@ 1
136 1
Хау@@ 1
144 1
style 0.07519582221448423
Ману@@ 1
atus 0.21712533406708337
етро 1
Фланд@@ 1
260 1
НС 1
крите@@ 1
Ел@@ 1
карта 1
шру@@ 1
мония 1
Бун@@ 1
Норве@@ 1
бюджет 1
ьяна 1
Ne@@ 0.06675313927561276
мрамор@@ 1
ВД 1
фен 1
3,6 1
137 1
тери 1
ni@@ 0.06257941144832596
гей 1
ov@@ 0.07561730403847886
бре 1
Li@@ 0.08273123535533959
числен 1
лаг 1
поде@@ 1
9.@@ 0.33118792018835674
~ 0.7101316304281844
1785 1
ty 0.04928761187844549
буква 1
141 1
era 0.025957492280770874
Бата@@ 1
зале@@ 1
Фели@@ 1
Азия 1
наука 1
Ver@@ 0.02787571679391227
ака@@ 1
Оу@@ 1
клон 1
Лаза@@ 1
гел 1
ig@@ 0.04471681318958753
метрия 1
Средизем@@ 1
Аги@@ 1
Mercedes 0.7027137185800097
вир@@ 1
de@@ 0.025485237341198945
UK 0.1109949000832065
Маври@@ 1
лек 1
2500 1
Is 0.30212407272420166
1764 1
270 1
um@@ 0.03355578349760698
тест 1
119 1
тори@@ 1
рел 1
ант 1
380 1
разу@@ 1
ранг 1
нея@@ 1
est 0.00381518056630404
Ford 0.26079960588663
58@@ 1
печа@@ 1
плавате@@ 1
90@@ 0.8186040486121363
Night 0.27966980426421956
нав@@ 1
MP@@ 0.3457391906539165
тексто@@ 1
He@@ 0.07163892860892453
2,6 1
CD@@ 0.3764622831351002
кабинета 1
ri@@ 0.04082008531070886
AT 0.4398287625055356
рали 1
Xbox 0.9852591322666071
0,6 1
PGC 1
приходи@@ 1
q 0.18934834514436175
цате@@ 1
Do@@ 0.12410528530674257
1781 1
вечер 1
Cl@@ 0.13871796292448846
Симон 1
AC 0.21195979786502867
US 0.03971352134680589
проти@@ 1
AN@@ 0.30134453114743165
Свер@@ 1
лиза 1
слад@@ 1
Рав@@ 1
Sch@@ 0.0253566452079334
Резу@@ 1
Ню@@ 1
Стади@@ 1
SA 0.23374613296197366
Journal 0.24418880122022765
On 0.017113911533434063
секс 1
201 1
СР 1
alis 0.2613902360590532
Помпе@@ 1
Bl@@ 0.10075381880159684
Pol@@ 0.09553075133322703
201@@ 0.6818983854192405
вят 1
заседание 1
Заслу@@ 1
110@@ 1
Саксония 1
минг 1
коне 1
www.@@ 0.7689312799405004
1778 1
стя 1
ens 0.027357204790532476
несколь@@ 1
ak@@ 0.042662220961185535
зал@@ 1
взи@@ 1
амби@@ 1
15.@@ 0.6556182490099794
Коле@@ 1
Your 0.4024850958760555
барди@@ 1
co 0.045375171012578173
дует 1
лини 1
Стеф@@ 1
пораз@@ 1
неожи@@ 1
Sc@@ 0.13333777595769516
Окта@@ 1
вее 1
A.@@ 0.2530153064836954
School 0.03448231780974474
легенда 1
убежище 1
ne 0.018801565699184744
ико@@ 1
Уст@@ 1
автом@@ 1
даго@@ 1
гент 1
BA 0.35497046279220257
ob@@ 0.0510886619021003
Pictures 0.5505031093585875
mo@@ 0.04850964020805951
водоизме@@ 1
142 1
Or@@ 0.06359935465185819
My@@ 0.21335516982731345
Сли@@ 1
Формула 1
149 1
БА 1
мерикан@@ 1
династи@@ 1
Гранд 1
Хел@@ 1
Антоний 1
Pro 0.2638769260192726
тени 1
un 0.002988750252466822
AG 0.2544208115138515
DE@@ 0.3385357740305489
2,7 1
330 1
формата 1
56@@ 1
др. 1
два@@ 1
оло 1
шел@@ 1
146 1
гимна@@ 1
Бундесли@@ 1
опусто@@ 1
49@@ 0.6847999913815752
приложение 1
Като@@ 1
Big 0.1501287899265021
Проду@@ 1
Птоле@@ 1
враг 1
риана 1
дал@@ 1
Фрай@@ 1
SS@@ 0.44226011905482754
53@@ 1
Пример 1
Sonic 1
ā@@ 0.12169955918175558
АР 1
Street 0.07063410456415568
вестник 1
могила 1
av@@ 0.04012392153315803
цело@@ 1
Скор@@ 1
концентри@@ 1
ландия 1
Mor@@ 0.05285303104840033
Монте 1
местно 1
лите 0.8690943931903096
are 0.006385683690017921
нак 1
Региона@@ 1
Бангладеш 1
1300 1
шанс 1
зидиума 1
Inc 1
Френ@@ 1
работи@@ 1
Of 0.2183125054654785
Монако 1
67@@ 1
SE@@ 0.2936279596547733
14.@@ 0.5466296105183351
доклад 1
Cre@@ 0.13316651056744713
Po@@ 0.08061495382912091
рисунки 1
ing@@ 0.04494273691904199
138 1
Dis@@ 0.11072745055621684
Tri@@ 0.08573293154152177
ant 0.015925420622725447
du 0.003951869957892955
изоби@@ 1
тари 1
3,2 1
Bi@@ 0.06767255107867833
SO@@ 0.4077732845960539
консул 1
Ph@@ 0.10729843736426219
стове 1
оно@@ 1
ti 0.08524170798168747
ut@@ 0.04984674230024768
пеще@@ 1
Сури@@ 1
эксп@@ 1
Антаркти@@ 1
успо@@ 1
ото 1
re 0.03168918898926201
148 1
do 0.02814086761892962
AS 0.2488689011490592
икона 1
визия 1
итер 1
县 0.16735866683634182
2,8 1
политан@@ 1
макси@@ 1
0,8 1
конту@@ 1
рево 1
кардинал 1
1776 1
затор 1
Скон@@ 1
139 1
квартал 1
1773 1
пропор@@ 1
разнообразие 1
мери 1
151 1
русалим 1
целу@@ 1
UN@@ 0.2385208178980119
IC@@ 0.25437104139586963
Распростра@@ 1
лива@@ 1
ә@@ 1
госу@@ 1
старта 1
спери@@ 1
Fox 0.2488128231389088
замест@@ 1
щера 1
лента 1
реформа 1
хре@@ 1
Кампа@@ 1
мео 1
даря 1
20.@@ 0.7106005813967095
резерва 1
пит 1
РК@@ 1
} 0.28650061828249485
Fe@@ 0.12814700357635153
Гене@@ 1
‘ 0.12576026026951156
лько 1
видят 1
Bar@@ 0.04095536238585356
але@@ 1
ler 0.030208192725945812
октя@@ 1
FM 0.20759836715698887
Швей@@ 1
н.@@ 1
доволь@@ 1
гау 1
UFC 1
кул 1
иконоста@@ 1
президен@@ 1
патриарх 1
147 1
бог 1
Best 0.10832330935608443
варе 1
среда 1
СВ 1
als 0.0058982992629835205
143 1
FI@@ 0.3034338938488284
bi@@ 0.03641602833375194
лайн 1
with 0.0026088524132729736
ru@@ 0.05528428154105892
Бене@@ 1
Норвегия 1
ада@@ 1
1772 1
IC 0.3411311526413059
land 0.026401705509871327
пай@@ 1
зра@@ 1
карь@@ 1
ra 0.03285016257302036
РО 1
Есте@@ 1
долина 1
прова@@ 1
eg@@ 0.04261875941614034
Дит@@ 1
System 0.16799464455976115
сбур@@ 1
,@@ 1
6000 1
AL@@ 0.315078627875035
1786 1
продукция 1
Лихтен@@ 1
сив@@ 1
телеви@@ 1
тре 1
розы@@ 1
чудови@@ 1
Цю@@ 1
мине 1
причина 1
полис 1
Up 0.3240407058966388
лиев 1
203 1
sh@@ 0.02643046483108434
α 0.22994367344549363
3,3 1
1779 1
Out 0.3203445271846439
185 1
Grand 0.07073072377043517
нойс 1
2,1 1
лете 1
пласт@@ 1
0,7 1
НАСА 1
нически 1
156 1
почи@@ 1
name 0.027393678357464375
инфраструктура 1
0,4 1
Min@@ 0.09180782248509524
13.@@ 0.4758368047143909
1,9 1
фата 1
Африка 1
War@@ 0.11717049649472697
ЗИ@@ 1
ОО@@ 1
qu@@ 0.031360650456452845
щите 1
ия 1
прене@@ 1
ans 0.019718422953818513
тист 1
256 1
Компа@@ 1
Art 0.06799538548318897
воде@@ 1
Фау@@ 1
докто@@ 1
копия 1
Закона 1
баб@@ 1
Шва@@ 1
хаузен 1
Хайн@@ 1
Comics 0.480198898843349
глаго@@ 1
мани 1
9,5 1
уи@@ 1
Super@@ 0.13735949272595913
1768 1
унд 1
высту@@ 1
MI@@ 0.42829186199270514
вор 1
225 1
1100 1
Интере@@ 1
ki 0.08974701790887085
DS 0.34603990626408604
ó@@ 0.07907246637255655
фактор 1
64@@ 1
практику@@ 1
Хит@@ 1
разрушена 1
Video 0.3359213169885054
неме@@ 1
ke 0.04283833488283699
звукозапис@@ 1
спира 1
Bur@@ 0.06644939722351272
сериал@@ 1
бро 1
ley 0.03560211138201517
тета 1
Коста@@ 1
нио 1
ol 0.05617323660322772
153 1
Конрад 1
3,8 1
вари 1
предназначен 1
PS 0.23206585071689956
Мно@@ 1
So@@ 0.08900905895969478
17.@@ 0.6117635807752887
ks 0.03608861068947248
Go 0.36411864138034106
отно@@ 1
63@@ 1
образно 1
Ханс 1
q@@ 0.12686652121262967
AP@@ 0.2471183901684981
лят 1
нация 1
дри 1
Шиш@@ 1
гнал 1
категория 1
развита 1
.с. 1
реж@@ 1
1777 1
мп 1
мус 1
\ 0.4190213462718826
писатели 1
ard 0.0424683118196475
Дания 1
принципа 1
Ирландия 1
Android 0.8274247237167384
ot 0.06984746440284569
камера 1
ure 0.05693179143703154
бров@@ 1
лиан@@ 1
ik@@ 0.043553258748063664
специ@@ 1
ist 0.005504621925403759
206 1
борн 1
Studio 0.33309351792406217
ə@@ 1
бите 1
гос 1
30,@@ 1
To@@ 0.11667419709606153
атова 1
отво@@ 1
Warner 0.39856971897767407
88@@ 1
Грузия 1
Поб@@ 1
BC 0.17309635644019838
партиза@@ 1
We 0.16966404582089767
ology 0.055369380817697315
IBM 0.6505219195606057
кири@@ 1
1400 1
Баден 1
сипи 1
ракета 1
ton 0.029695861273789325
22.@@ 0.71491924590597
Христос 1
вкус 1
Day 0.12794716644489718
1763 1
205 1
Зон@@ 1
дика 1
ber@@ 0.04164605991523327
лва 1
Мла@@ 1
интересу@@ 1
1762 1
167 1
Sun 0.20837966465582086
ывалось 1
No@@ 0.12885822505480016
ver@@ 0.01336687962778538
3,4 1
Star@@ 0.22956202052004723
ya 0.022226586124047
глобус 1
отпечат@@ 1
ATP 0.46365582001495503
тев 1
222 1
сним@@ 1
pi@@ 0.04735727057994413
University 0.018968722514856217
архитектура 1
инспектор 1
1760 1
br@@ 0.026950091942062934
бана@@ 1
см@@ 1
дове 1
168 1
Songs 0.3346400771997001
Образу@@ 1
Mus@@ 0.10310596664807481
повя@@ 1
162 1
Man@@ 0.05317824410126168
Произ@@ 1
ABC 0.31776905343474227
RI@@ 0.37890081867975617
RS 0.36097063888388814
кала@@ 1
ca 0.06316778092710697
дежда 1
me@@ 0.05688539213889181
Don 0.14209959304572314
color 0.12293860654612143
адвокат 1
побереж@@ 1
гуа 1
атмо@@ 1
дио 1
авгу@@ 1
aceae 0.1502420606891826
химия 1
ч. 1
Ltd 0.3928328016114904
Кама@@ 1
ci@@ 0.05033630744439499
ax 0.2527028173502225
les 0.0034032949734153113
несо@@ 1
кв. 1
зно 1
19.@@ 0.6619804134131275
мотив 1
Network 0.23380671534546965
критику@@ 1
UTC 0.7118015170133741
популярен 1
венту@@ 1
3,7 1
S.@@ 0.2555802219047946
щица 1
AN 0.4263408201075502
стент 1
Mac@@ 0.07645937556537853
Her@@ 0.051704760587108954
ick 0.07176708554886134
Комп@@ 1
тане 1
гори 1
Лука 1
Сек@@ 1
ics 0.0603481021239244
тове 1
NO@@ 0.35169386558993965
услож@@ 1
per@@ 0.03175267706393145
159 1
33,@@ 1
57@@ 0.9551376162089394
173 1
Варшава 1
убежи@@ 1
th 0.034010217919297404
ous 0.027658105004871883
пресе@@ 1
результат@@ 1
сцена@@ 1
бассе@@ 1
Попо@@ 1
Афганистан 1
ach@@ 0.038627228229177926
цки 1
Географи@@ 1
ters 0.05691413061118396
АД 1
202 1
терапия 1
ѣ@@ 1
вения 1
Boy 0.34502354006868163
философия 1
America 0.06725289599466554
насилие 1
сор 1
ута 1
RO@@ 0.37427380779444985
исти@@ 1
кновен@@ 1
Benz 1
King 0.0594785625967071
Абсолю@@ 1
Кан 1
172 1
ker 0.05634174174255769
Ma@@ 0.05927134890614549
75@@ 0.7726620948015718
джо@@ 1
Мюнхен 1
хен 1
ys 0.09967637501482444
me 0.03781286148717331
pr@@ 0.031389876949809936
дъ@@ 1
Open@@ 0.532248641953638
sp@@ 0.034130352345197686
To 0.09921015177413488
свобода 1
ent@@ 0.02154378622469939
произвед@@ 1
300@@ 1
тава 1
Magazine 0.2808719282558718
нада 1
Бог@@ 1
Su@@ 0.08630691148589971
итуа@@ 1
джаз 1
1740 1
Beatles 0.6903121526416469
емо 1
163 1
ah 0.054206339278741064
ell 0.043206298120855476
мпе@@ 1
4,6 1
насла@@ 1
колония 1
Press 0.2254638572033973
ino 0.044690117107221934
https 0.9354773762599322
Бавар@@ 1
Пед@@ 1
Chart 0.38519328257993346
династия 1
обработка 1
Dr@@ 0.08660004030317807
β 0.5429030050073295
Месо@@ 1
Space 0.2739754610677406
21.@@ 0.6704797269587971
студент 1
se@@ 0.025836060984131392
Intel 1
еве 1
Fl@@ 0.07080371471195714
Луций 1
кмет@@ 1
Изда@@ 1
18.@@ 0.5901353822151948
Археологи@@ 1
лани 1
John 0.021871779331662337
WTA 0.955437088660962
етнам 1
Ad@@ 0.06286465763998329
Барбара 1
здра@@ 1
чете 1
74@@ 1
166 1
Теодо@@ 1
Франк 1
Mag@@ 0.08517895344568185
Беле@@ 1
Оба@@ 1
сенатор 1
чни 0.9001159716396732
Камбо@@ 1
Косово 1
лаборатория 1
za 0.05971345679129843
General 0.04436710552634475
im 0.004306325205444968
Be 0.4056246989454429
Гео@@ 1
Якоб 1
ons 0.023854775363185046
204 1
1771 1
3,1 1
340 1
China 0.059538667037718596
16.@@ 0.5216764303928029
Никарагуа 1
йни 1
див@@ 1
резиденция 1
математика 1
161 1
den 0.0034386619891289797
нове 1
рами@@ 1
ja 0.06441050788642846
кит@@ 1
плоть 1
проход 1
вено 1
спан@@ 1
Рождество 1
ссов 1
ly 0.02240801283704443
1750 0.9377776951139379
2,9 1
Digital 0.3824213002704446
Институ@@ 1
158 1
Sega 1
Вран@@ 1
Гюн@@ 1
157 1
Архе@@ 1
кула 1
бавар@@ 1
164 1
AB@@ 0.36878733398884483
зима 1
IR@@ 0.6424568662169058
Провин@@ 1
Pi@@ 0.07798699802133599
é 0.01072376352620501
сажи@@ 1
Хю@@ 1
тёпло@@ 1
½ 0.9363463791224302
NE@@ 0.36230866527204947
дек 1
Metacritic 0.9493282958351663
джан@@ 1
авиация 1
ФР@@ 1
sa 0.014243918473443586
рини 1
Go@@ 0.08259715378799957
Гвате@@ 1
Народно 1
Семей@@ 1
House 0.046294967687334335
ner 0.03517737328739316
ISBN 1
Цер@@ 1
aw@@ 0.05697975680133273
Del@@ 0.10931868479387113
CE@@ 0.24103752786064928
континента 1
ati@@ 0.04466114551376013
so@@ 0.04824339306512607
изнача@@ 1
MLS 1
Tel@@ 0.14362693635283671
рингия 1
алистиче@@ 1
миш@@ 1
Симе@@ 1
Series 0.12552531888505686
ura 0.07246871219543495
ep@@ 0.051372197931974714
припа@@ 1
Vi@@ 0.10315618182738165
Global 0.3009893226360207
буди@@ 1
Весе@@ 1
Fr@@ 0.06072881230839816
ce 0.01575004833605536
гимназия 1
ела 1
нег@@ 1
± 1
yl@@ 0.06925539954484268
Ser@@ 0.07700410523999127
Осве@@ 1
36,@@ 1
тези 0.9972393826127547
176 1
211 1
Прага 1
oph@@ 0.10080915674495601
GC 0.7843301151528199
кира 1
природа 1
огро@@ 1
Адриа@@ 1
par@@ 0.025658633997153922
PS@@ 0.2599912849695479
Медичи 1
Юлий 1
30.@@ 0.874297970680652
шна 1
Карта@@ 1
AI@@ 0.271563458153342
набро@@ 1
TE@@ 0.34385315246553666
бридж 1
коалиция 1
Поп@@ 1
25.@@ 0.6722849459963962
курфюр@@ 1
стихот@@ 1
Show 0.15327035646393788
High 0.0550072150358442
противопостав@@ 1
шат 1
Рей 1
Михайлов 1
Почто@@ 1
Daily 0.3547513423968295
холм 1
фами@@ 1
наблюдение 1
Er@@ 0.030504499495057805
tra 0.09059871277404893
AM 0.21739445217475492
1730 1
ВМ@@ 1
Феде@@ 1
бище 1
195 1
AL 0.3877668902897888
квартала 1
SA@@ 0.22747334567191285
del 0.0036857565614629474
Universal 0.3471513098868188
Сиби@@ 1
ISO 0.6468931645208204
новь 1
снаряда 1
поручик 1
аз 1
кален@@ 1
видна 1
дация 1
Post 0.15225319096519452
Буду@@ 1
192 1
48,@@ 1
Фал@@ 1
Facebook 0.4698465717320843
Pan@@ 0.09712013729790625
23.@@ 0.5977267278221442
Pe@@ 0.0774460935629684
волю@@ 1
ire 0.057400104740457966
чево 1
1765 1
WG 1
Швейца@@ 1
178 1
MC 0.33696675106725266
ps 0.05704622294498688
дого@@ 1
ne@@ 0.03794879761291336
Форд 1
Чика@@ 1
310 1
трона 1
ограничен 1
Game@@ 0.6246670948788663
Венеция 1
мирович 1
Cal@@ 0.06168330406580178
Wrestling 0.304429306629176
ade 0.053048217210764956
гласно 1
никой 1
Сил@@ 1
35,@@ 1
This 0.014964844332345097
пани 1
212 1
é@@ 0.02147213004794249
охрана 1
850 1
47,@@ 1
средо@@ 1
MS@@ 0.37700701505985323
We@@ 0.07250513877519958
беле@@ 1
Болга@@ 1
зрители 1
миграция 1
Дой@@ 1
реа@@ 1
Power 0.2068960816153182
близки 1
A. 0.06915286444858162
54@@ 0.951550691088624
1769 1
bo@@ 0.0324975419739731
дол 1
174 1
гради@@ 1
Ь@@ 1
Park 0.04310206846643063
183 1
бно 1
Rotten 0.8936219230448843
GP@@ 0.5155294191085964
专区 1
78@@ 1
1648 1
0,9 1
Film 0.04994515143655793
Country 0.21873225237769645
from 0.002813994443253361
Еги@@ 1
Хаджи 1
Нед@@ 1
CH@@ 0.2580541669164762
Bre@@ 0.0778524449582735
бата 1
ква 1
182 1
Джорджия 1
Чем@@ 1
ist@@ 0.05236585541379694
Хаб@@ 1
Клав@@ 1
215 1
бестсел@@ 1
Шотландия 1
VI@@ 0.3394731973855859
перу@@ 1
001 1
do@@ 0.05820206945763515
Мери@@ 1
деш 1
астронав@@ 1
религия 1
ence 0.03434098807282329
Ho@@ 0.07002689903417997
терна@@ 1
420 1
определена 1
TA 0.2439468523556021
финан@@ 1
CI@@ 0.2545847287514891
305 1
Mas@@ 0.07695982332101385
White 0.08181724615445123
Бя@@ 1
171 1
Барселона 1
Ирак 1
основа 1
ї@@ 1
El 0.009138435717582256
Папа@@ 1
Укра@@ 1
условие 1
ватия 1
169 1
ni 0.053589589368877276
left 0.03612328781349935
1710 1
pe@@ 0.04978340520986665
Center 0.06801954788791077
il 0.006019413380399087
Югославия 1
š@@ 0.10364490307572254
Краси@@ 1
66@@ 1
32@@ 1
text 0.13397073967763395
Португалия 1
193 1
Line 0.12175424972341811
die 0.0016545764644293433
Мадага@@ 1
няко@@ 1
What 0.24824818711678243
background 0.19621254111727485
І@@ 1
Mat@@ 0.07375603194632115
прили@@ 1
ł@@ 0.13300553886910127
графиня 1
синг 1
28.@@ 0.7024993216544996
AR 0.30894047807323277
Mc@@ 0.038049639083244415
per 0.032969799771391826
hi@@ 0.05455226231595362
38,@@ 1
толе@@ 1
Band 0.08703774228273879
кого@@ 1
янов 1
Es@@ 0.06439183512721133
235 1
Dance 0.29463821903721354
Люксембург 1
Марс 1
ьше 1
27.@@ 0.6524671121470593
Des@@ 0.08579567281055948
Tomatoes 0.9565887353611208
лабо@@ 1
чане 1
оси@@ 1
ore 0.05050666222979819
куро@@ 1
and@@ 0.03550828505799171
Демо@@ 1
United 0.015317702618071631
ok@@ 0.06634786259668651
разрабо@@ 1
Gam@@ 0.32930628104358745
Тбили@@ 1
физически 1
1767 1
Свето@@ 1
208 1
материал@@ 1
Максимили@@ 1
маха@@ 1
IT@@ 0.3537972064322252
end@@ 0.031798604170101705
истре@@ 1
Латвия 1
Express 0.2694073617407809
Община 1
гроз@@ 1
Hy@@ 0.13070623056843053
Харак@@ 1
DJ 0.29705663284748807
Вито@@ 1
26.@@ 0.6360090847775693
Championship 0.06160729427649235
Ен@@ 1
земно@@ 1
бря 1
pl@@ 0.02921751258313011
отбо@@ 1
177 1
ake 0.07334678590544025
фурт 1
Ber@@ 0.037386338585742696
49,@@ 1
Science 0.10803619428700102
Кул@@ 1
Сереб@@ 1
69@@ 1
нати 1
пролет@@ 1
стически 1
ens@@ 0.031020903591647147
ath@@ 0.06402234120319367
Вискон@@ 1
Зал@@ 1
большо@@ 1
лени 1
Литва 1
статистика 1
Богдан 1
ей@@ 1
Куба 1
соф@@ 1
производители 1
orum 0.3512041044065755
1660 1
4,4 1
£ 0.13344788721160958
34,@@ 1
24.@@ 0.5961922944177176
Final 0.15574960319433118
Леона@@ 1
изре@@ 1
Нами@@ 1
Royal 0.04977655598688352
чини 1
46,@@ 1
io 0.053968774654846785
CBS 0.3108321044705551
DA 0.278226821422237
NBC 0.3204698641395583
Forbes 0.6909987146038236
Dead 0.37460842821188306
1758 1
мити@@ 1
Har@@ 0.05182021438366204
ү@@ 1
Дел@@ 1
way 0.024755448452547797
1720 1
188 1
жна 1
ei 0.08226979749610785
ограничена 1
спози@@ 1
конструи@@ 1
bl@@ 0.03425576803869154
Само 1
лм 1
ьора 1
насий 1
Val@@ 0.06341578871047707
€ 0.32773239562059403
1766 1
вска 1
императрица 1
29.@@ 0.7143978154762283
RT@@ 0.36750305836604336
хаме@@ 1
Bal@@ 0.05340251516071991
1654 1
370 1
end 0.015948954135785873
ur 0.044220832611258205
муску@@ 1
0000@@ 1
CC 0.23581001324747308
ho@@ 0.04419325775563237
сылки 1
Филип 1
410 1
Горно@@ 1
лта 1
редки 1
флу@@ 1
ma@@ 0.05940115500645172
Cy@@ 0.1843976846488943
RT 0.32722093523169327
Racing 0.23846183650210478
290 1
лектри@@ 1
апси@@ 1
средиземно@@ 1
1727 1
ant@@ 0.0384054911315263
подло@@ 1
Aer@@ 0.256552322478961
ary 0.023054559445367117
ME 0.47945843363361035
ash 0.12763945897012272
Среди@@ 1
Ag@@ 0.08721500307790847
1676 1
Bel@@ 0.04503822464304962
Bad 0.17450701257190065
196 1
ion 0.05700428978985041
говорен 1
Ab@@ 0.020765249281286913
Александров 1
1761 1
загла@@ 1
186 1
удов@@ 1
затру@@ 1
наследник 1
Манд@@ 1
Ri@@ 0.06991105343190596
1756 1
CO 0.34756284228237955
кистан 1
Ferrari 0.5131850245853035
ex 0.10477254389571285
Hel@@ 0.08461465654948397
af@@ 0.032524134393046945
† 0.05249267060623579
сол 1
Fantasy 0.6387570549750988
Пакистан 1
IP@@ 0.40853043860309884
Software 0.3866674047946165
Зеландия 1
CC@@ 0.22603775128376483
net 0.10449443507976731
спеди@@ 1
184 1
скет@@ 1
ys@@ 0.08111856474753443
тура@@ 1
пизо@@ 1
гнали 1
катастрофа 1
Cup 0.036830076154752735
Sho@@ 0.15591459286787948
─ 0.3763893371272663
be 0.00479333343610743
sch@@ 0.01915360037908925
MO@@ 0.3442855891646666
Шлезвиг 1
st 0.044738552789581124
181 1
ari@@ 0.05763256740606058
217 1
icus 0.30773882029966887
Sk@@ 0.1201631418759177
данов 1
der@@ 0.03155598346181413
oth@@ 0.08379266063344072
187 1
Festival 0.061873611931552594
дани 1
1708 1
Im@@ 0.06948554966719409
брехт 1
Хари@@ 1
вя 1
214 1
сервато@@ 1
Op@@ 0.11188312014661247
фрид 1
рели 1
Mel@@ 0.08278025131939606
AP 0.24066451280355675
Майн@@ 1
ara 0.04131466974965895
врата 1
Si@@ 0.0899343428969633
sk@@ 0.04991283998955198
able 0.014017129734516116
ice 0.04121974428485285
ick@@ 0.061146072451688065
Дина@@ 1
купа 1
Eur@@ 0.191185626140155
Gu@@ 0.03989861013931171
Mer@@ 0.05601081480120102
TS 0.3601261540270406
дирек@@ 1
Boys 0.25715932533201996
Les 0.013465263983679001
yc@@ 0.13291353417385193
RC 0.23028848138968977
Hol@@ 0.06831662098922607
TO@@ 0.4448607696584527
Home 0.14979696010642005
32,@@ 1
ow@@ 0.05571093323220385
Albums 0.33965598781635986
Death 0.17274930984969064
ьор 1
si 0.03776613896389268
4,8 1
mi@@ 0.053135780899664475
480 1
British 0.026859939192509934
tic@@ 0.07833623048820054
приблиз@@ 1
tion 0.026445680261622855
az@@ 0.04074564255506858
лича 1
Can 0.3659718766569546
реван@@ 1
Соломо@@ 1
be@@ 0.01563991870055253
BMW 0.5865940402239364
IS 0.2633403989727012
207 1
France 0.02032476194474405
Македония 0.8864017145476502
Чехия 1
TV@@ 0.28427349047244627
189 1
Ultimate 0.8376826785962236
сура 1
Metal 0.3484161744540729
1722 1
Подобно 1
1650 1
LC 0.4811968957486361
бив@@ 1
Like 0.1803506761277622
tu@@ 0.045555468862004296
ey 0.04345715635270752
изли@@ 1
ida 0.041933452736514734
бараба@@ 1
Mac 0.36812889962704165
4,2 1
1755 1
all 0.009688800627370667
Vo@@ 0.12845737521453446
198 1
232 1
ниан 1
2.0 0.4959789281865427
Dark 0.3340601089660958
que 0.0019278791750693732
масо@@ 1
1721 1
ang@@ 0.028972178733455426
псе@@ 1
фут@@ 1
191 1
ell@@ 0.04087240036081007
Toyota 0.63596616290547
фаза 1
Вирджи@@ 1
воя 1
дере 1
Little 0.1278032949328041
center 0.06615538908944782
ou@@ 0.02761525647192781
Heart 0.28279942810544034
von 0.0024523924942862845
PO@@ 0.3783900726485781
Rem@@ 0.13584974904197986
Молдова 1
1719 1
Сарди@@ 1
1620 1
Av@@ 0.1036498204657776
ванов 1
301 1
населя@@ 1
рове 1
ong 0.04543234614000474
Air@@ 0.20551258863599797
ber 0.050824286218425024
парла@@ 1
1735 1
Foundation 0.12313187638861775
немато@@ 1
199 1
PP@@ 0.4483920868379763
сове 1
179 1
5,6 1
забав@@ 1
238 1
Майка 1
Рене@@ 1
пиво@@ 1
Pink 0.6824058531352613
Dream 0.4045959688057979
NCAA 0.18832255166137044
a.@@ 0.3270667673166181
mar@@ 0.025927912268292157
194 1
45,@@ 1
Play@@ 0.27498022587740356
Мехмед 1
Java 0.3944543896082248
меро@@ 1
254 1
Белград 1
1757 1
275 1
ors 0.0218015671853316
ev@@ 0.03650334829012923
варя@@ 1
Girl 0.27079974668350865
ight 0.0995236078836121
Mot@@ 0.10206456200936125
Sim@@ 0.09099185583357862
определено 1
ette 0.037705883262253055
440 1
окли@@ 1
1741 1
3,9 1
430 1
стве@@ 1
мести 1
1759 1
150@@ 1
PA 0.16635776985079329
Sound 0.26171321723409463
Нова 1
ken 0.037196778062940715
County 0.022116248027997713
1745 1
War 0.02543631152031699
osa 0.07374919215221626
su@@ 0.032120844293832204
ME@@ 0.2599204379983368
стила 1
tic 0.0545303725789126
ano 0.02654317244136714
ola 0.08516451907533878
Can@@ 0.07832865509160428
зни 1
фоль@@ 1
216 1
ere 0.04008711471889164
CR@@ 0.4258733473288551
Electric 0.35696686846867115
out 0.01159810700092994
gr@@ 0.02203867005694645
ek@@ 0.037292202963137504
te@@ 0.026548929272570715
Limited 0.3046395536352752
209 1
Ня@@ 1
ab 0.022721518952090982
con@@ 0.017457898407421877
коми 1
1640 1
мандат 1
деспо@@ 1
Renault 0.48332090472770944
хтен@@ 1
IGN 0.49292247770021647
бена 1
ресторан@@ 1
That 0.10535256364665768
1704 1
Por@@ 0.08879244957838049
255 1
Fre@@ 0.054629151894701196
Mark 0.08196873324090542
ile 0.026649703155472867
AV@@ 0.3899504629006549
ro 0.08848672947223306
ita 0.050638101505313164
Trans@@ 0.0946528774035755
Джак@@ 1
проф 1
1680 1
Чехословакия 1
8000 1
West 0.029268120731318324
44,@@ 1
375 1
е. 1
213 1
IT 0.3393669543992085
For 0.033220293130241885
Вирджиния 1
Сестра 1
що@@ 1
245 1
Два@@ 1
ge 0.03430907300990413
шинство 1
Guardian 0.4219625163262639
San 0.020891181300708602
ните 0.13831521439280092
факта 1
1743 1
76@@ 0.8046608398335163
IA 0.3256016011274489
197 1
Наслед@@ 1
Singles 0.20297595757748713
Tor@@ 0.054058769524613415
1723 1
LE@@ 0.298915656210624
Сидни 1
5,7 1
маса 1
пциг 1
Граф@@ 1
Arts 0.0695004372021101
ьон@@ 1
Light 0.2081368019379932
M. 0.08028672743029136
Апо@@ 1
Lin@@ 0.09006682344642031
DE 0.32601855272058694
Do 0.20442562152622695
ө@@ 1
SI@@ 0.37186503877998317
Japan 0.053695464802662
Project 0.1793241957618539
равенство 1
ada 0.011393817128332779
ex@@ 0.018594186593955567
ops 0.11647245545201639
ова 1
go 0.045961884351174605
19@@ 0.4405910637240294
ë@@ 0.23665708634395632
ations 0.011510807928987645
ets 0.028976492849587702
ha 0.023349267414521743
Рика 1
Research 0.08860736807292072
1747 1
ala 0.06002056525272695
SC 0.11691171843189181
чели 1
Em@@ 0.06696535848664055
2,0 1
Queen 0.09820912859911271
поту@@ 1
All@@ 0.13211007660476307
рк 1
шия 1
au 0.004121286094197423
460 1
Ул@@ 1
ა@@ 1
ena 0.05887793964079255
секция 1
корона 1
Play 0.26027300812694387
CS@@ 0.19169039133225949
ani 0.0487342278618812
1748 1
USS 0.2961139143202202
218 1
4,3 1
Prot@@ 0.10808172767703048
à 0.0016453037375806353
Way 0.2618937079340651
1744 1
Ste@@ 0.05958448623508042
дира 1
ect 0.05810321622584914
Dol@@ 0.13276753075899955
Sw@@ 0.10013341899965733
сп 1
ora 0.06416251527282495
Индонезия 1
1678 1
lu@@ 0.04507427001734888
rowspan 1
праздне@@ 1
Res@@ 0.09705286407605705
сали@@ 1
Down 0.30843044945691767
est@@ 0.024140567933121547
1628 1
242 1
секретар@@ 1
Ti@@ 0.08648491555335602
сил@@ 1
tica 0.1056459523973892
нали 1
пак 1
Kar@@ 0.03920357519389112
1754 1
Good 0.22430683873053658
ek 0.05644962897559018
мел 1
ated 0.011026544163348504
car@@ 0.02302684761157772
Bros 1
ess@@ 0.04313564215734082
224 1
Скоп@@ 1
12,5 1
5,3 1
London 0.02947861788125594
Sa@@ 0.06383452327294097
ID 0.4308595139919057
gi@@ 0.04021219310845103
od 0.08305873422340455
1742 1
7000 1
бел 1
FO@@ 0.3871624733612208
ir 0.02929490330543518
Бранденбург 1
Sur@@ 0.082131888602696
ee 0.053725447238213056
va 0.038248454730959634
Pre@@ 0.0725215114232659
ff@@ 0.04607408843108968
Папуа 1
Cam@@ 0.08806992265945089
low 0.04157920977436977
ry 0.052598122374040664
str@@ 0.028265588065136786
Ap@@ 0.0815638817323409
che 0.03616693272560268
50,@@ 1
77@@ 0.9310213861167036
ib@@ 0.0609975915407253
оза@@ 1
Mal@@ 0.03702830329579631
Productions 0.3649917792528367
самолета 1
dia 0.11170296064878527
Алжир 1
Airways 0.7228025942466216
Sub@@ 0.06785602669003771
Место@@ 1
I.@@ 0.36419782319064564
ничи 1
ua 0.10394084697796359
Семейство 1
внима@@ 1
Channel 0.17169058426499406
AG@@ 0.32547568257660553
la@@ 0.0643658013019334
гория 1
рич 1
37,@@ 1
Куку@@ 1
Road 0.05264251463871281
737 1
GE 0.5999273821389393
стено@@ 1
P. 0.11038508799263365
1630 1
221 1
Young 0.09628310030089296
com@@ 0.024585215149148774
yp@@ 0.11317750312649201
Bor@@ 0.052030797362763295
напад@@ 1
1711 1
космоса 1
AB 0.3114793188263212
кожа 1
фол@@ 1
сково 1
CA 0.1861766861163096
Дерев@@ 1
5,2 1
йнт 1
Гвинея 1
RA 0.20965587974199126
tis 0.09388008554075317
жд 1
iTunes 0.6761397118045788
aria 0.0693979535852492
Pl@@ 0.054382241432605574
4,7 1
ill@@ 0.0323071581484992
pa 0.08573094348864059
Char@@ 0.05162513728410776
yn@@ 0.07988101448869045
Магда@@ 1
66,@@ 1
Green 0.08754253788773732
tor 0.04439999539545063
252 1
ba@@ 0.043385786082733614
1701 1
54,@@ 1
Вернер 1
ели@@ 1
Association 0.04072575951840763
милия 1
своя 1
3500 1
Арме@@ 1
преобразу@@ 1
man@@ 0.026112953053932908
Dec@@ 0.09716127518195733
Ы 1
1670 1
Back 0.2777958195693396
1667 1
подкре@@ 1
Hal@@ 0.06866475158484837
почит@@ 1
365 1
инста@@ 1
ang 0.03692485988074251
ales 0.016687884697567074
регент@@ 1
978 1
05@@ 1
Who 0.2465290994841831
ise 0.02255743904069211
lin@@ 0.04506183504800239
Мекленбург 1
застра@@ 1
Last 0.2550447540844787
кнове@@ 1
5,4 1
234 1
Резо@@ 1
ach 0.038558082420333976
55,@@ 1
iz@@ 0.03363375011545081
aj@@ 0.046474324567515865
PE@@ 0.2756616224529313
енен 1
Samsung 0.8262976301414162
ge@@ 0.01730488953902847
1753 0.8309489566279966
1724 1
Sports 0.11815985888251156
жете 1
1736 1
Gal@@ 0.05841775334140975
Ломбар@@ 1
гост 1
Girls 0.23888377558247265
DO@@ 0.30244583979368656
op 0.10824858811593796
king 0.03621040893758168
қ@@ 1
39,@@ 1
Мексико 1
юго@@ 1
ef@@ 0.05596686211552901
FC 0.041988182461212956
1550 1
Ана 1
Weekly 0.4410415609102941
219 1
Резуль@@ 1
ი@@ 1
1715 0.906695717513816
241 1
Вс@@ 1
ium 0.10271742070600219
tor@@ 0.03363547090719613
напом@@ 1
LA 0.19051633918040442
Драго@@ 1
виден 1
ars 0.04596138440356069
сета 1
ходится 1
1739 1
mon@@ 0.020740490337147734
Brothers 0.23669821064955437
ius 0.12364464397003722
265 1
325 1
Преобра@@ 1
GT 0.36367947901344083
Желе@@ 1
LP 0.21352793646445006
223 1
Авре@@ 1
1703 1
Russia 0.09181129840494402
Cat@@ 0.08649167074750763
Cas@@ 0.05697258598486266
Вюртем@@ 1
1618 1
ця@@ 1
Edition 0.38624256618701164
Kr@@ 0.04307709051023124
CS 0.25976838673643055
фео@@ 1
Юта 1
99,@@ 1
99@@ 0.7486222265068907
Systems 0.25823181513165533
либе@@ 1
тег@@ 1
227 1
Bu@@ 0.07123158089321538
популярна 1
anus 0.1794706772642589
ay@@ 0.034912274134951404
tro 0.12210303564552533
Sal@@ 0.04400927117193962
инициатива 1
1627 1
1737 1
Reg@@ 0.04782755066276449
Кристоф 1
гонь 1
зет@@ 1
психология 1
Родж@@ 1
eo 0.06916313698333824
Sky 0.2760820419897975
ula 0.12719885716064727
Cos@@ 0.1420458540782301
влади@@ 1
228 1
ess 0.036854752278618556
ko 0.06663604926285589
водно 1
рун 1
Fo@@ 0.10820198317368737
dr@@ 0.028111015701445752
play 0.025948726995754953
Нос@@ 1
League 0.019068123472317188
eus 0.19918638410575548
API 0.8837623223066519
Classic 0.29805372633520205
зви@@ 1
Na@@ 0.13181128063372866
GT@@ 0.3737720211670977
ac 0.05816566203649545
верса@@ 1
226 1
251 1
NA 0.2523923436148197
вадор 1
обле@@ 1
10,5 1
Raw 0.5179988773273421
1702 1
DOS 0.7903251823784969
Meg@@ 0.19746359966011595
депут@@ 1
нама@@ 1
č@@ 0.08957811453866196
Tw@@ 0.14617080288861786
тика@@ 1
1746 1
Let 0.32878167925501206
1734 1
скала 1
Force 0.06885119181814309
Квинт 1
M.@@ 0.20288320844609817
фести@@ 1
ляз@@ 1
cor@@ 0.030318857410905353
ok 0.08611957803056187
квали@@ 1
1725 1
Society 0.0506778998109189
ones 0.03462524358334635
политически 1
osaurus 0.41312654685354866
ou 0.009713475000064328
каф@@ 1
At@@ 0.06405915490985092
ast 0.06602306213145397
Song 0.10929284687345159
хове 1
07@@ 1
Baby 0.34417701100163406
Ban@@ 0.07943287100413848
cr@@ 0.025677975678505573
Mad@@ 0.0670150832120972
дениям 1
II@@ 0.31595156430622606
ser@@ 0.031550693475916436
как@@ 1
98@@ 1
AE@@ 0.29742819131041437
Сингапур 1
1709 1
Columbia 0.09451505482515417
здравоохра@@ 1
Tur@@ 0.056680168196971664
нади@@ 1
Deep 0.44652166287806017
Du@@ 0.06153944183064469
enti@@ 0.03890699499153903
85@@ 0.8892571990392967
ich@@ 0.05070593482435608
Преми@@ 1
виан 1
1717 1
Cap@@ 0.10011875865266875
1690 1
470 1
Sun@@ 0.12683728364863447
236 1
303 1
Fire 0.19862369662627508
239 1
Micro@@ 0.32095941709566217
mat@@ 0.0525688418491913
AD 0.1607854976659253
South 0.018454948103000763
ical 0.024442746551358915
Сед@@ 1
LO@@ 0.3526466799895167
ah@@ 0.03352355414294854
min@@ 0.032242752546461806
т.е. 1
Sky@@ 0.34603856908676933
бик 1
роля 1
вити@@ 1
иму@@ 1
0,0@@ 1
1649 1
E.@@ 0.22642025404845104
Лом@@ 1
екс@@ 1
69,@@ 1
изгнание 1
пул 1
Sy@@ 0.08970812428629088
XXII 1
люция 1
Machine 0.41478608820759194
Ni@@ 0.06821610700011022
time 0.007242616790778614
Red@@ 0.07215751389835301
зас@@ 1
Mir@@ 0.09424723144848828
учи 1
самолет 1
1610 1
рёх 1
Netflix 0.478466573728104
дено@@ 1
1705 1
наступ@@ 1
1707 1
Fi 0.770188478515093
USA 0.06211684678177482
Максимилиан 1
243 1
плато@@ 1
229 1
Los 0.01630645659040304
su 0.004602246514266731
og 0.22332788635532924
ut 0.05962275938273938
железо@@ 1
дини 1
нель@@ 1
10000 1
богато 1
ock 0.07161648962158056
86@@ 0.9525674496404721
Europe 0.033096118071944264
5,8 1
цбург 1
чета@@ 1
els 0.020623175562173617
Book 0.13272391942759257
84@@ 1
1570 1
D.@@ 0.30627281380653365
tus 0.17633749769891005
Коли@@ 1
1751 1
231 1
263 1
Paul 0.028838963354752084
ins 0.01892213413433709
Вюртемберг 1
ero 0.04419124989867409
500@@ 1
BM@@ 0.2830369468417854
1646 1
St 0.0518721144621915
Cur@@ 0.07885470943316761
EN@@ 0.38568978259184666
ains 0.0401084017160417
нберг 1
244 1
ta@@ 0.048199025203234595
Cer@@ 0.08096217311750518
au@@ 0.021317482089511834
1672 1
264 1
ина@@ 1
so 0.011059458193832646
Оби@@ 1
ra@@ 0.042351153955611544
римско 1
pp@@ 0.06198233874944473
‑ 1
237 1
мна 1
tri@@ 0.030858972971643656
First 0.04625129286131892
ep 0.10139679476699241
1718 1
ari 0.058789280699074624
pe 0.04293718674156832
Арх@@ 1
57,@@ 1
ates 0.018096331120262498
1689 0.9752281493666675
конституция 1
56,@@ 1
1699 1
1752 0.9653593719363761
76,@@ 1
Ros@@ 0.051420669290285895
Интер 1
Дрезден 1
illa 0.05527229099000505
La@@ 0.08755670719358763
близи 1
Nor@@ 0.053954075541158955
Drive 0.3101061542404332
Get 0.4354312234470955
1520 1
седа@@ 1
Nov@@ 0.1044080923801843
for@@ 0.020320031317172027
iOS 0.7332502869692085
Mobile 0.35224225598309367
посещение 1
ez@@ 0.05604710455142371
майки 1
air 0.040410585014933255
Испо@@ 1
ON@@ 0.29768210173333487
kin 0.08749143495038265
TC 0.21202635244151993
гне 1
285 1
eta 0.05521350053214771
джет 1
262 1
Win@@ 0.1039349356401744
ack 0.0781870586787336
1655 1
1712 1
Airbus 0.7866593214117212
ряз@@ 1
ness 0.045157546742478905
540 1
НЕ@@ 1
253 1
233 1
архитектурно 1
гласа 1
520 1
рибо@@ 1
ning 0.06635831513104506
390 1
PR 0.31457355103830215
скохозяй@@ 1
1733 1
фганг 1
our 0.03591573820061383
oh@@ 0.0680514234885683
oni 0.10160734729537485
Мозам@@ 1
Холмс 1
затвора 1
1714 1
пред 1
284 1
1738 1
Gen@@ 0.05159381983860301
ap 0.0663405397725846
революционер 1
Plat@@ 0.11291794011916251
Land 0.06053151782757333
затво@@ 1
400@@ 1
68,@@ 1
1732 1
BS 0.2819058353206413
1728 1
79@@ 0.8924270947087506
ено@@ 1
радо 1
ain 0.037672186335586694
ези@@ 1
246 1
Great 0.05584922703408306
302 1
MP 0.1598885812302527
ä@@ 0.028884807121176387
Server 0.6804610320630515
C.@@ 0.18547295782274137
he@@ 0.025927897249440696
266 1
List 0.06026663599765692
R.@@ 0.25620144636116127
лове 1
Nokia 0.949187854860838
UCI 0.3154149519598357
народно 1
1688 0.9596363490024107
Hall 0.04336018009023295
Ca@@ 0.15249166791542831
its 0.004311066388923944
Боя@@ 1
Кало@@ 1
North 0.02105297180422555
286 1
Black@@ 0.14845950635755537
1682 1
пата 1
inus 0.20527159324584862
Ran@@ 0.09487288581248791
вою@@ 1
1658 1
can@@ 0.04346958815216753
Ul@@ 0.0941114770081425
Vol@@ 0.06521580833832745
Катарина 1
530 1
Уругвай 1
стате@@ 1
257 1
312 1
Golden 0.11936745997920323
uc@@ 0.05635544170950953
ba 0.05406939677122445
ler@@ 0.03676867439321315
306 1
зана@@ 1
копа@@ 1
tom@@ 0.056365409395376015
мни 1
SL@@ 0.42714264714684536
CP 0.3174958789763778
Обя@@ 1
1716 1
анек@@ 1
1713 0.9845865365514568
ish 0.03983642209117748
ting 0.016181815973328274
1726 1
EA 0.45164132668686524
1629 1
GmbH 0.178131834586734
Внук 1
Симеон 1
стично 1
Free 0.15342290480510812
gen@@ 0.02174323120703225
1686 1
тини 1
Pop 0.236546043809171
ger 0.04565469277619466
Capital 0.216097695802212
Юго@@ 1
пун@@ 1
1580 0.9989057820316943
ota 0.08149983688868793
zi@@ 0.059555342677211916
Mak@@ 0.0952443395312038
Сева@@ 1
ts@@ 0.032040232842565707
width 0.2530579764021461
Света 1
Тене@@ 1
HBO 0.6113956321617504
SQL 1
IG@@ 0.3823081751018015
говоре@@ 1
оксид 1
308 1
заменен 1
V8 0.6252632778151264
282 1
Television 0.14700407635522497
Je@@ 0.07953825647276833
248 1
cu@@ 0.0286680238208583
2.0@@ 1
ym@@ 0.07784894083832385
Honda 0.4455122938902235
ene 0.027465440883536064
272 1
1603 0.9832607543975038
приема 1
соб 1
ST 0.34662619904723374
ati 0.08761044585988668
uk@@ 0.056283339526126124
ense 0.0731743621201411
софи@@ 1
ona 0.047634910976256654
sc@@ 0.03914100935535027
1623 1
249 1
сравнение 1
1634 1
Rec@@ 0.06289666690947399
.н. 1
560 1
Cu@@ 0.07966632907683692
SL 0.43708660267247834
UR@@ 0.44285601129445984
кел@@ 1
1706 1
Myr@@ 0.4127835338023928
1656 1
Deutsche 0.12604997300559395
SD@@ 0.37859960568289974
Type 0.23335917968747
зна 1
67,@@ 1
Gold 0.10473954396755816
ain@@ 0.053304939808169464
eri 0.09543696731062007
1731 1
Нови 1
Петербур@@ 1
ителен 1
Century 0.26794321198888343
Ko@@ 0.04977060689347364
iv@@ 0.058638356369988744
ima 0.07037507512251022
oma 0.07658682654139534
col@@ 0.023949105311671288
onia 0.1004814407136523
Moon 0.21695909420880946
STS 1
стар 1
269 1
640 1
пис 1
1625 1
Nissan 0.742940004128316
Сирия 1
ii 0.2076403817570714
State 0.01857274069068941
ī@@ 0.18383343874764482
1590 1
cer@@ 0.047095941332637864
′ 0.5095229866619642
Hor@@ 0.05732144527284042
Motors 0.4651109221221595
полета 1
снимки 1
type 0.03882810094333309
засел@@ 1
мите 1
Hu@@ 0.05760382531660675
eh@@ 0.026233963152278078
Голе@@ 1
College 0.021546261187982085
Между@@ 1
1560 1
295 1
настоящем 1
Engine 0.6647199635783981
Ga@@ 0.1277672079493498
обще 1
Is@@ 0.046840559704921944
ody 0.11118974444314723
Sport 0.13902510103327187
Мано@@ 1
2023 0.5974728432648863
Medi@@ 0.11111045610232306
1642 0.9400867291192186
1645 1
Are 0.36023152284413307
Kor@@ 0.06334099228912467
Lov@@ 0.1789296800810293
field 0.020294424526633433
á 0.043037077328337
шот@@ 1
ER 0.36257116981085136
AA 0.15971820636326348
Blo@@ 0.12524885598193608
Погре@@ 1
Словакия 1
дуин 1
98,@@ 1
58,@@ 1
Now 0.19425832413333988
And 0.132475298416932
повод 1
08@@ 1
1697 1
1749 0.9466548887989168
Net@@ 0.290904730309613
87@@ 0.9059961419555181
Blu@@ 0.16174099960874735
Zo@@ 0.2106716573859117
ve@@ 0.04770006701721999
Museum 0.042423041000561025
610 1
History 0.022242157153206866
PR@@ 0.27148261720886235
berg 0.02598525985611934
1729 1
512 1
God 0.09518961777887977
304 1
ill 0.05236496285527036
хоронен 1
Model 0.22341810752835448
sa@@ 0.057207922494258524
Югосла@@ 1
цера 1
247 1
eng@@ 0.029470720037478075
Motor@@ 0.16702776389641452
ame 0.05787370635666745
BAFTA 1
1613 1
ki@@ 0.06107299195005432
Публий 1
нито 1
Ангел 1
Dragon 0.29150158055691183
tes 0.01652724054433917
Спу@@ 1
ноафрикан@@ 1
F1 0.412664229368571
балкан@@ 1
нини 1
тори 1
§ 0.30994773468245906
David 0.027958731081436698
Асе@@ 1
Der 0.006988862379270501
Sil@@ 0.07685354291412855
Ter@@ 0.0644658918670082
лн 1
Not@@ 0.0837336322956775
Two 0.058369794023340915
ski 0.06313160794791729
1685 0.9393995177697766
less 0.02806702885584207
C. 0.04520709100163775
NT@@ 0.3956070135299155
Square 0.14911795556682558
sus 0.012155514246866611
B.@@ 0.18230050943615592
Union 0.02742194928224075
ганда 1
Twitter 0.30281118037136573
288 1
Plant 0.4310848897929291
Review 0.20320326546391737
1683 0.9745658974025567
ato 0.04007478961508387
ies 0.02425004991994109
месе@@ 1
технически 1
пома@@ 1
307 1
boy 0.11317975062757595
258 1
Works 0.16261453311776042
NS@@ 0.16596837551673327
1621 1
постоя@@ 1
страк@@ 1
Hill 0.05695213337634155
ე@@ 1
People 0.08002016286515219
WWF 0.637012106902816
обеди@@ 1
BO 0.7349179177574271
Out@@ 0.14397430064338687
ong@@ 0.05051623898686236
1632 1
Blood 0.33755138514005595
Куй@@ 1
274 1
1675 1
ae@@ 0.25970716310588216
line 0.0172367224188108
Institute 0.04278276537915147
1612 1
Hollywood 0.12516382592002726
1637 1
офици@@ 1
Island 0.04088946792613313
USB 0.7847098137416622
European 0.030724299377688762
Ru@@ 0.05666677849492483
T.@@ 0.3554612372752226
ama 0.04380098042624617
aur@@ 0.09188736178442154
Ang@@ 0.04522851499386576
all@@ 0.026683506660465244
пет 1
Atari 0.7330284944704589
199@@ 0.8074931716990584
315 1
Service 0.061625492078668756
стата 1
1609 1
2000@@ 1
СШ@@ 1
валу@@ 1
живо 1
IF@@ 0.2851035943899448
мис@@ 1
1651 1
309 1
1598 1
гроби@@ 1
1638 1
Angel 0.26146588588828434
276 1
311 1
Kon@@ 0.042130376246731355
SH@@ 0.3525174748304884
1617 1
du@@ 0.037397031139352714
ili@@ 0.0488932820098622
Pal@@ 0.04987094124088772
1668 1
Electronic 0.5191620580034026
сас 1
1626 1
95@@ 1
ole 0.052470149830785975
ast@@ 0.0535275821436019
GNU 0.9107306752566142
министра@@ 1
ITF 1
Gar@@ 0.047344069086940894
Porsche 0.5013382910085227
XXIII 1
eli@@ 0.07813400519929846
Йохан 1
Computer 0.24906096026937907
com 0.2973812576423316
1611 1
Dev@@ 0.07884019366705407
1644 0.884201293951591
ome 0.06151430659675315
490 1
atr@@ 0.05728202081277824
ten 0.006749257217417332
поре@@ 1
Not 0.16660681068004599
opsis 0.34388425797382444
1250 1
ета@@ 1
A1 0.43217939820289164
Paris 0.019234041823231494
SE 0.2754687959498695
Ger@@ 0.03450601558696717
Technology 0.1147638397928422
Wor@@ 0.09247741388238019
Mes@@ 0.09310814523764363
ue 0.02873110757215033
anti@@ 0.03544893507893933
Fiat 0.454876435755425
1661 0.9218447439360561
21@@ 0.7097247718888763
Wi@@ 0.10758584447828354
Kom@@ 0.056045953738732425
ings 0.015155229405941455
326 1
273 1
Dream@@ 0.6197703295306747
321 1
yg@@ 0.16917935211158408
онора 1
психоанали@@ 1
Martin 0.039493846909326266
ely 0.02577434136056782
ž@@ 0.13727487743042138
верен 1
Astr@@ 0.16188202727149398
япо@@ 1
Online 0.26843794766673923
och@@ 0.0668642756907664
Am 0.020859027210786394
ents 0.020820464296231345
Кума@@ 1
730 1
Dr 0.3053607507470835
Alice 0.16788908893426277
мати 1
1605 1
402 1
AF 0.18184485008674517
405 1
Ke@@ 0.06306677163615751
More 0.13707072171985352
жава 1
прите@@ 1
FA 0.09296054428467246
Gro@@ 0.08408468712785963
склон 1
59,@@ 1
Lu@@ 0.04912419212274008
art 0.020496771270064558
велик 1
259 1
chem 0.9562042361286732
карьер@@ 1
сос 1
1635 0.9340476556931374
DP 0.21125161040878232
star 0.07022907450856207
било 1
CP@@ 0.20931709366162782
wood 0.039618099654082146
аза 1
тенан@@ 1
une 0.0023958802460845603
267 1
950 0.9705882905079343
Cl 1
1643 0.979027485890121
керамика 1
1666 1
Human 0.14492118182390717
Mi@@ 0.05534044594319834
нски 1
East 0.028769027852081103
ранже@@ 1
TP 0.38985086422699494
пропаганда 1
747 1
Хаджи@@ 1
лека 1
268 1
Sl@@ 0.180680728257302
Вюр@@ 1
1615 1
97,@@ 1
ai@@ 0.05614999071443903
ѣ 1
1. 0.03147374745455884
1652 1
630 1
субъ@@ 1
1540 0.863254368140423
храна 1
720 1
Films 0.1730185320487189
Среднегодо@@ 1
271 1
Met@@ 0.10134433120744392
Mk 0.6968881291022627
bus 0.06587144006081486
праж@@ 1
1665 1
ane 0.03343066010036007
ash@@ 0.053158126125721135
BO@@ 0.3079935693747129
1698 1
Wii 0.6797939096438971
277 1
elle 0.007505445822418808
дем@@ 1
матур@@ 1
1530 0.8999075273063997
Избра@@ 1
Sims 1
dy 0.07522886359676242
Academy 0.043258501665764934
Audi 0.6848594719004112
1657 1
CL@@ 0.3962581192516655
здрав@@ 1
333 1
wa 0.03894247705437512
Конструк@@ 1
общности 1
местообита@@ 1
1653 1
ї 1
283 1
Atlantic 0.1040501279131002
Form@@ 0.23511390696742948
Как@@ 1
Nik@@ 0.14817201508432837
ust 0.08015127858424154
89@@ 0.843799248200271
ko@@ 0.07267489818144386
Зако@@ 1
Office 0.08119519246346607
64,@@ 1
Earth 0.09259021200020227
ung 0.008312661399766476
SI 0.327201776162136
aster 0.13427912452341043
Magic 0.28110497197317136
DM 0.3208316185665415
279 1
1616 1
1633 1
SM@@ 0.32579585768073177
Floyd 0.4583225718257592
Master 0.09948399025449597
ich 0.039124332982858535
Горно 1
лния 1
1572 1
1647 1
1552 1
1671 1
Volkswagen 0.6572577691050527
Чле@@ 1
ost@@ 0.06630254584244781
ten@@ 0.020195498172871647
1696 1
Pacific 0.0658631293277979
освет@@ 1
With 0.03611938025927478
up 0.0074596684027430525
Марков 1
Business 0.10597328688413732
D. 0.06277800893680052
aris 0.2927073785090682
Washington 0.03249147913338105
гаш@@ 1
зелен@@ 1
нел 1
цел 1
From 0.030347410144077703
ML 0.5005760598415983
Year 0.06943735259388288
жертва 1
кио 1
261 1
DS@@ 0.32208956716829784
Instagram 0.716275380413536
ard@@ 0.045726851131401444
iss@@ 0.05545596636192199
1619 1
Internet 0.0963193912356245
Store 0.399232506561351
Ur@@ 0.041884008011840106
das 0.0029863163138235064
1624 1
Fi@@ 0.08546496350239449
лищ@@ 1
Bon@@ 0.08353010396820618
Pres@@ 0.04999174781425051
278 1
медицина 1
сента 1
gu@@ 0.023223883218436145
292 1
Агнес 1
Ломбардия 1
циан 1
1622 0.9460341197006071
Never 0.4102218906398624
So 0.049117268051211166
ze@@ 0.05191131835547028
ema 0.09080063483542883
пише@@ 1
oidea 0.8307725792182904
1585 1
house 0.022455153532910166
Family 0.08784799378036395
лда 1
406 1
SR 0.10604757778891107
urus 0.3732377640148784
Web 0.2791487585987439
Management 0.11657939446632244
oth 0.09128219741083123
293 1
DV@@ 0.34214376244769357
353 1
West@@ 0.04634871328146894
324 1
Dem@@ 0.07083136236270782
ides 0.03543618057185629
ische 0.012857920916788166
æ@@ 0.17689572606308204
Story 0.19849408189007975
322 1
335 1
Fall 0.11688494234641918
130@@ 1
V. 0.09869409522698636
Railway 0.06900636668381634
Steam 0.6388132174483918
345 1
ech@@ 0.04695901912318339
oni@@ 0.061162839413209276
Al 0.028517421025852224
SN@@ 0.25561229209205094
Клуб@@ 1
лата@@ 1
425 1
Vir@@ 0.11727423836162125
314 1
mann 0.028486086070704873
1679 1
леп 1
нично 1
вски 1
Collection 0.26217091386907215
Буда@@ 1
1569 1
GP 0.29921411628758277
289 1
Ba@@ 0.06733463197844182
bu@@ 0.03365065654646281
tro@@ 0.048470017912087056
und@@ 0.03161237913691979
1659 1
313 1
Spec@@ 0.2218845233093475
Russian 0.04506035572334535
ly@@ 0.062155949657233284
1695 1
І 1
пече@@ 1
Box 0.24428987356861068
ann@@ 0.038313075400224356
mer@@ 0.01956277544175675
í 0.049876005232274784
беля@@ 1
бунт 1
Iron 0.18876055239079587
287 1
1687 1
281 1
поря@@ 1
ny 0.07791370858635178
ov 0.03653942640941214
Иконо@@ 1
620 1
Албания 1
Aut@@ 0.09148080307316567
Ob@@ 0.09085689419755359
cl@@ 0.026428631443812738
добра 1
комбинация 1
смес@@ 1
Max 0.07734987642914802
Ty@@ 0.10378361119983202
Standard 0.16896748491421348
you 0.04565081587830742
299 1
Over 0.10934058424608036
Pop@@ 0.13654699645083035
OH 0.5198399847898568
прини@@ 1
Paramount 0.4882017293123776
Uni@@ 0.08005667855475204
Ь 1
140@@ 1
1681 1
oides 0.2339540253364529
385 1
ela 0.052291907803586404
ted 0.011004855859819307
----@@ 1
für 0.0034544228172837844
ey@@ 0.05452092583825739
298 1
Central 0.032223092608222634
1566 1
драта 1
680 1
разделен 1
AF@@ 0.18657998590254324
Ju@@ 0.07898571012006017
570 1
580 1
Площа@@ 1
1641 0.9303759271516636
190@@ 0.4410980483468161
Canada 0.025754708822764233
Canon 0.6032130665655749
Just 0.1793851302529085
atum 0.23167117296122652
DR@@ 0.40608892918114275
GA 0.30893808343916646
Point 0.10107451556185273
96,@@ 1
O.@@ 0.3621156589931937
Климент 1
ego 0.1427770434884232
1662 0.948414004948163
1573 1
of@@ 0.04494267230002171
карти 1
ғ@@ 1
1663 1
Evil 0.5777138389223136
Virgin 0.23613659349709146
eum 0.13926085369831892
mag@@ 0.046489852174443465
Dor@@ 0.06162865714952138
Dro@@ 0.12070159335845351
.1 0.7677666215380159
mac@@ 0.11638089157596607
равнина 1
Cin@@ 0.13016483723838182
наем@@ 1
1595 1
ест 1
1606 1
ლ@@ 1
маке@@ 1
Райн@@ 1
къ@@ 0.9938423879898007
нато 1
Party 0.027911581278572434
Sec@@ 0.10271876514543615
k.@@ 0.48532336871939896
SmackDown 0.618758543355811
1692 0.990772542719638
316 1
Stre@@ 0.08689271958372305
etta 0.11248316200606978
1664 0.9563223059381304
331 1
Old 0.06331862830448082
ie@@ 0.044917963224042005
mor@@ 0.03680472784143524
1565 1
1684 1
296 1
510 1
H.@@ 0.22992877056234534
3.0@@ 1
Metro 0.1535069233150439
ster 0.03891032348919537
прослед@@ 1
1669 1
342 1
ran@@ 0.029934264414378797
323 1
Fighting 0.45822489283416856
ce@@ 0.0750599404849494
ung@@ 0.03390418570627458
地区 0.09773010237266075
HL 0.2420897907376284
Hotel 0.10129164989482807
ito 0.044815648755080005
1636 0.9402132591937625
├ 0.49353487784355127
1631 1
port 0.03294254690855521
Bell 0.12867492560445368
Power@@ 0.3817679870474038
iga 0.14365098276737434
Син 1
1614 1
1639 1
356 1
EL@@ 0.321563538895223
Pit@@ 0.15495016517873794
key 0.05022887903642676
гани 1
09@@ 1
the@@ 0.04503428270260457
1584 1
Š@@ 0.13050464585488283
1608 1
right 0.029935893035513233
198@@ 0.8090844398369048
Sm@@ 0.1427096761046618
inger 0.044729323674690284
Blu 0.49719476593778256
ase 0.0305590190950566
Bul@@ 0.08114995267589303
Tro@@ 0.06765366432578838
s.@@ 0.4296859015085101
tur@@ 0.02587086935902967
MD@@ 0.7909563405348666
ling 0.02580830242849115
зат 1
покри@@ 1
TE 0.3143581968543437
tel@@ 0.032731306770261044
Tre@@ 0.057903994240434645
je 0.040455923695862574
40,@@ 1
Ra@@ 0.08947065947448571
sel@@ 0.03224905342051811
Rev@@ 0.08799679022572966
1350 0.9859223591299809
ye 0.0319536407899447
Вероя@@ 1
ա@@ 1
Mr 0.22942900275333314
ants 0.01549773390130394
ats 0.025641345213942027
1578 1
1547 1
ds 0.036209696224408144
352 1
Special 0.10194186855114327
if@@ 0.033343347602691024
Dom@@ 0.0626052118657364
1450 0.9038893040383699
Ben@@ 0.04754666096269134
Hell 0.3528554263389232
L.@@ 0.1977476739208668
Mitsubishi 0.7612943148620316
sen 0.027472377796364668
å@@ 0.12306827425514187
1588 1
Douglas 0.11228324312910419
Kiss 0.478691672102713
1571 1
CT 0.31423965377180146
NES 0.8287224036660154
ыду@@ 1
End 0.16118651181166416
Sin@@ 0.08297984604389455
1607 1
GPS 0.6432044325078113
Run@@ 0.15225601641378944
sy@@ 0.08883526242006817
Pep@@ 0.21457745627689265
ud@@ 0.04546640181048679
Ta@@ 0.06555014575330899
2100 1
Alfa 0.65632650990135
Long 0.06946379545462274
SM 0.3011477672508578
Michael 0.028265225454892406
O2 0.6070879690725065
San@@ 0.045500429080415516
Siemens 0.5853400834095663
Fil@@ 0.07820738662663099
Lil 0.6921988320444152
May@@ 0.08134123601855056
джик 1
660 1
Motor 0.13932600495183858
cin@@ 0.061910665146724074
1582 1
Take 0.4090113870557803
1577 1
328 1
Interactive 0.6947733440248129
Бий@@ 1
Fu@@ 0.1088203224180426
arum 0.5243620670890518
Фамилия 1
BSD 1
ES 0.32591782793912616
Висконти 1
1604 0.928968832589215
1602 1
pos@@ 0.026151450659879484
кратко 1
336 1
Soul 0.2827388924814905
сред 0.6215087676702247
318 1
IV@@ 0.4205224195952551
stein 0.04063947087146896
живот 0.8744766205746376
1558 1
í@@ 0.022684361314491672
LE 0.4984388129429688
Cru@@ 0.14048328641921126
1601 1
294 1
Законо@@ 1
Клавдий 1
енер@@ 1
291 1
денбург 1
кули 1
1555 1
1674 1
Public 0.06118996541962395
William 0.01954666790033695
Comic 0.4300692351808319
Ly@@ 0.06493464243327372
1596 1
332 1
CN@@ 0.15709317506606654
317 1
Prix 0.06779031867648216
ХХ 1
James 0.021051993616122436
Jo@@ 0.06501590874344398
fl@@ 0.02313616496464765
ug@@ 0.04493274691275151
ky 0.05158382390128669
Car 0.21076080917354406
Bas@@ 0.04287322205175927
Homo 0.7457210868969683
ali@@ 0.03871640159873876
CI 0.3199254211347017
amp@@ 0.03939380722756682
Wall 0.19095903917764415
1563 1
4500 1
ga 0.056117274666206286
pH 0.5008470782669501
ty@@ 0.044932533029837816
chi@@ 0.054067598000084
Today 0.11549221607347274
char@@ 0.049012839799323145
1677 1
297 1
Blues 0.1753170369389591
Money 0.37122428768676313
down 0.02063400849423938
kar@@ 0.0519108859799121
MG 0.4183232090088051
355 1
ax@@ 0.06286298202023179
light 0.03364570831732059
Pa@@ 0.07905565035550983
lan@@ 0.047820434111824434
ждане 1
E. 0.06157958405855822
Masters 0.18206477688694858
Roc@@ 0.11226093764806322
401 0.9346444654501712
Франсу@@ 1
ждан@@ 1
oto 0.08239418491515282
ray 0.15905908814632985
iPhone 0.6625465853665469
1589 1
ace 0.04995201580317009
Lab@@ 0.1266024775093297
Real 0.06534694685148587
делят 1
Syn@@ 0.12416897638029951
ass@@ 0.0169924063299239
mes 0.039779814819954615
ny@@ 0.09544011081224998
343 1
pro@@ 0.026089791725008485
ement 0.010526290946595181
e.@@ 0.4062186688500731
opus 0.30015478797270684
ian 0.027983414126878232
Mic@@ 0.18223467609326435
vir@@ 0.0752061437947302
NT 0.5374889207410888
1492 0.9713755642175236
потен@@ 1
@ 0.49713344221025735
Pap@@ 0.06598536149850297
Tokyo 0.1039045638022545
Volvo 0.933156393011399
don 0.0478770329409596
fr@@ 0.023455076614475687
ik 0.03853653232425204
1673 0.9950574402898593
Men 0.06985502816629574
386 1
DI 0.290229819455927
Direc@@ 0.10640628109840304
G.@@ 0.29672761475084963
Tal@@ 0.06639824009230973
igh@@ 0.05938530623034645
1581 1
tics 0.05546507663043678
ji 0.061317009239656176
гове 1
ă@@ 0.11261076958341822
Hed@@ 0.2286259314095416
Lim@@ 0.08125586480391905
NET 0.6731277274850607
Holdings 0.523175121710123
SN 0.5957022291962867
The@@ 0.05879075643267877
2200 1
Come 0.35801291735985574
Morning 0.28016863828416777
1524 1
az 0.05755160728993572
мация 1
1586 1
Lost 0.26705537259946605
ver 0.03322467398206528
виг 1
cel@@ 0.05098790657736013
нага 1
CE 0.16252795531687045
рят 1
ami 0.06254277493559957
Дитрих 1
1592 0.9566189513031733
381 1
As 0.011529677909786616
такова 1
1567 1
bar@@ 0.018752535353327892
1694 0.963693608806897
2400 1
319 1
When 0.022092363807192147
441 1
501 0.6697573640236427
музи@@ 1
1525 0.8213621187658796
Web@@ 0.14838212696944175
mi 0.0558498844447829
Mega 0.5425054006274768
T. 0.09262221944113991
Wil@@ 0.039059655283347684
ico 0.0343317180115228
DB 0.29653064783693805
Run 0.23749709152044957
добро 1
неделя 1
1568 0.9580208787288242
Щи@@ 1
1559 0.9386274517092713
Arc@@ 0.2156389329052948
Opera 0.14407861782619935
-- 0.2898954359405819
Fighter 0.32418282973002915
Цан@@ 1
ath 0.04924910426259214
дьми 1
Bir@@ 0.0617409853267525
uck 0.0895015572917207
1553 1
Cro@@ 0.06359224791159708
eon 0.2082401953958774
sion 0.024094947139286053
сау 1
Jean 0.019660740927643593
ble 0.05102671043515575
ful 0.037700049811629326
денти@@ 1
384 1
412 1
Pas@@ 0.04869912630438991
`@@ 0.6683298419403899
Словения 1
Gi@@ 0.04409012679818056
рол 1
625 1
ловина 1
Қ@@ 1
Stars 0.15382767458778326
mm 0.03460154530677451
Design 0.10182962738878565
Mod@@ 0.10457530929759148
Age 0.14694992971209228
lat@@ 0.047563198095991556
зад 1
OR@@ 0.31858477383719536
Rap@@ 0.10797533133409232
1521 0.895013941636815
fa 0.15079751079566697
por@@ 0.0283111184494073
van 0.04012955105010057
Variety 0.5532899940962571
He 0.0024281041484281608
P.@@ 0.23709983747499377
9000 1
417 1
Auto 0.24165702813301315
Control 0.1890967240453862
cas@@ 0.024353496804707473
ots 0.03448221188494021
Cle@@ 0.11412392452656339
важна 1
мля@@ 1
сица 1
Щ 1
1691 0.9679483677283769
533 1
Судан 1
inc@@ 0.02858479772190649
ze 0.032312544018461564
1693 0.9062462745659984
Wild 0.1812412623543615
ines 0.0232530242214465
нами@@ 1
нинген 1
зае@@ 1
1536 0.8444759967958498
670 1
Plus 0.12629116647620459
Tim@@ 0.10383752171376837
tan@@ 0.03493225683554577
Малайзия 1
западно 1
י@@ 0.6368800708108033
If 0.05508854212587293
Mil@@ 0.04425560043501491
337 1
Chevrolet 0.47944864229757195
баня 1
EMI 0.5039877067421129
PC@@ 0.14752851364375996
Top@@ 0.16385747643818996
aurus 0.36897073892961535
гани@@ 1
EC 0.2032691556247809
вди@@ 1
CL 0.4083103254953347
Il@@ 0.060806336363977934
Sound@@ 0.4673679990305271
1526 0.9068166630516115
БН@@ 1
аэ@@ 1
тея 1
Tom@@ 0.06531267224977173
Сили@@ 1
шаф@@ 1
ET 0.30022473644631315
Modern 0.12418140889076024
her@@ 0.01711905711934295
ols 0.05316544867628531
Герхард 1
FS 0.43529621832117665
^ 0.73587227264072
Добру@@ 1
Over@@ 0.0845172336396475
ub@@ 0.048979171279655905
George 0.01985665582030816
go@@ 0.049998199223893695
вите 0.5813832079079483
250@@ 1
361 1
tia 0.07309409495692498
338 1
Sex 0.3486673133512912
96@@ 0.7732418996337487
395 1
Fin@@ 0.07116637013825332
Дим@@ 1
Ci@@ 0.09722068546670778
Sam@@ 0.045950387776893295
Sea 0.06958169460818094
сьма 1
ІІ 1
бни 1
ori@@ 0.03931237096571381
2. 0.04731471247375967
Battle 0.05225289032036828
Secret 0.25909393598647523
327 1
DF 0.22983923949597201
row 0.05690321643953073
Премь@@ 1
334 1
южно 1
2025 0.7640968549363588
NH@@ 0.24438026184513736
icum 0.3471610920747266
404 1
Industries 0.3541855948675669
ip@@ 0.08037444282853834
ковски 1
училищ@@ 1
362 1
NASA 0.19964108320443713
Romeo 0.39475054750469757
uz@@ 0.06007272845593448
LS 0.41143563387401183
lis 0.06890001175218374
ś@@ 0.19135526532203634
354 1
Animation 0.49302056842711833
Challenge 0.16041480891763193
Album 0.0566969767558432
ali 0.0542619801982836
table 0.05266737166993396
скар 1
525 1
Lib@@ 0.11181319457840837
fe@@ 0.020848406761856828
uch@@ 0.04794712524204937
vo@@ 0.046315022634094885
отбра@@ 1
Amazon 0.2980032590772395
Fair@@ 0.11047126283028157
sey 0.06436465521031177
kh@@ 0.02696993658585307
Angeles 0.03868382811127822
Az@@ 0.06267295752163064
F.@@ 0.23582373206207452
Services 0.10459326922803192
Theatre 0.062049520473325695
bor@@ 0.037467751130002266
Chicago 0.0362744455649566
optera 0.48939173835358885
Ali@@ 0.09800888580104249
atic 0.05131149175139737
Стой@@ 1
Galaxy 0.3676968694284132
SW@@ 0.2586117342684509
Stones 0.5180221459126537
Chi@@ 0.05303215265806163
GL 0.66855538549376
FF 0.16667739612778656
Hard 0.3398706935405242
cap@@ 0.026784786483937853
vs 0.3370681561841434
Ep@@ 0.11937691467335872
Sor@@ 0.07484303137952285
Wo@@ 0.11689898735135612
ket 0.09846698323056045
2600 1
18,7 1
Gear 0.828323360751423
Here 0.16094378884234248
Radi@@ 0.11533456285187262
Robert 0.020517494009923934
цеговина 1
339 1
364 1
Eth@@ 0.1141002972027485
1594 1
ng@@ 0.04940555608372534
HT@@ 0.5400125593003252
Jazz 0.11141377415653413
რ@@ 1
1583 0.9622927697405941
Hom@@ 0.0650436981682342
Stu@@ 0.08873229468622856
my 0.05307736597461859
тец 1
Autom@@ 0.13408841284767686
Монтана 1
Os@@ 0.05158064362394117
Poly@@ 0.1174283636468728
1556 1
Gl@@ 0.0522272256408934
VHS 0.6460830609273571
Kids 0.33088132951598564
ail@@ 0.047531383836790314
обили 1
Мадагаскар 1
км@@ 1
Batt@@ 0.20680177609855907
dic@@ 0.03226647102160692
dit 0.042492290111503746
ו@@ 0.6843414315092531
Days 0.2345242977800106
EM@@ 0.26404494909502674
On@@ 0.0918820356511662
индустрия 1
ē@@ 0.4215985773379334
415 1
day 0.012477840487505096
ish@@ 0.039676763876724905
определен 1
Wh@@ 0.09723579689871782
head 0.02081129260929058
гвай 1
344 1
Head 0.11000839831620368
IL@@ 0.3418275420989022
GM 0.2854814421673378
IN 0.3238920810374752
sin@@ 0.03406323613715286
Action 0.16188397560639967
Fight 0.45574735614827133
HC 0.18495846201472155
Солу@@ 1
диза@@ 1
Watch 0.3326081031665255
1470 1
eth 0.0936057363804938
world 0.017129397416882578
Vision 0.31723801536966906
ment 0.013044269503333908
1480 1
357 1
let 0.0411158829109107
Jam 0.47377026189167193
SR@@ 0.3859140771035979
box 0.07712429955039049
ä 0.23938682560317057
леку@@ 1
DI@@ 0.38692813550401084
asi@@ 0.043147922500627746
изво@@ 1
Zero 0.3473632673055923
BR@@ 0.3565123094380897
CH 0.3626510312748233
Van 0.05957470520293604
back 0.012751284346905116
lam@@ 0.040476758979840065
пивовар@@ 1
cus 0.13926807486886253
RCA 0.4287389730238877
Lady 0.07574394443696511
Wal@@ 0.0390476898829031
section 0.03328898773237449
важен 1
нность 1
960 1
офор@@ 1
elli 0.06035787961306713
1591 1
590 1
Sar@@ 0.037270503543979344
служители 1
Lotus 0.4397192225726416
Mario 0.12450203826348058
GO@@ 0.29018747816326795
Нигерия 1
Ray 0.10709803142981204
yd@@ 0.10789141671240458
Got 0.4276599904081738
Флоренция 1
Ha@@ 0.04714137578396166
atis 0.40218935109650894
напра@@ 1
Mars 0.16914619518028068
дите 0.8821046543737837
EC@@ 0.24952155223234318
tal 0.05622463276259922
гнат 1
1460 1
HTML 0.7930907005199872
Ir@@ 0.05394890631588021
97@@ 0.799549269825762
Again 0.3026083926931315
ello 0.04132204936569063
una 0.0024478948182437535
Steel 0.2644605323197943
XP 0.7510435781057196
pa@@ 0.09674145066797836
po 0.08987116913730213
1564 1
Arena 0.12670830666673294
Genesis 0.4772052692133551
рополия 1
1551 1
Sn@@ 0.17447618233414494
351 1
HP 0.26600707815055136
trum 0.1603967423913838
ител 0.848524988940088
Energy 0.1459032776997487
403 1
lar@@ 0.0408913308760084
Spider 0.26482829715707595
Wi 0.9452418773118674
1535 0.9004848866181322
1562 0.9374131145179979
Tek@@ 0.3820914901880156
fer@@ 0.019932280630208295
zi 0.08200074228504967
Мом@@ 1
1534 0.977648941817785
1597 0.9409976558006921
Ice 0.18744365404983757
aft 0.08628037394009218
сира 1
760 1
2030 0.7350171408177211
епи@@ 1
1240 1
Ak@@ 0.03840934091297928
1380 1
Peter 0.024318527894953323
1587 0.9975739891672395
VA 0.19351255980895918
Walt 0.2728101813848529
thumb 0.8147499350863656
1576 1
911 0.7353267049201565
wi@@ 0.07768085997710432
Summer 0.04586673244694851
юли 0.4236364716830133
840 1
Future 0.21429095319564834
Mid@@ 0.08421633390994121
chi 0.03923698000414255
бъ@@ 1
94@@ 1
Chr@@ 0.23809481159806073
Dur@@ 0.07080055409190658
79,@@ 1
pal@@ 0.0398529084421815
Mis@@ 0.0765294915266444
N.@@ 0.22567189237222302
Rus@@ 0.06111245453906769
Pen@@ 0.056130580326048556
Rel@@ 0.08086964774465598
enc@@ 0.027214710168035984
Готфрид 1
Сицилия 1
346 1
ova 0.07370820746173364
затвор 1
линген 1
1599 0.9412876276396428
бна 1
1150 1
1503 1
ays 0.03474117934764405
1542 0.9261926445158108
363 1
amm@@ 0.056240957159758326
AMD 0.9532900916249383
3.0 0.4699634994209542
Gre@@ 0.045743397871792046
369 1
PL@@ 0.2274111981206274
lin 0.048425821668551375
red 0.020227302001994567
Data 0.23238438598682887
ack@@ 0.04595799545704924
ader 0.07466903836377385
nik 0.12236780778968497
358 1
Development 0.06304527788830581
MGM 0.5073638920508399
Холи@@ 1
удовлет@@ 1
341 1
Gor@@ 0.058694446131255726
Rob@@ 0.07612314326066501
ao 0.03553865129069128
ual 0.05174714410004088
1593 0.9697610030774371
Sem@@ 0.06975419961266459
sen@@ 0.02883056590856728
oft 0.07223525788076632
Python 0.7229653293006092
Dog@@ 0.2005268469402348
‰ 1
mu@@ 0.03842187873607566
tis@@ 0.04514859995836748
1554 1
DR 0.18661967021241319
ier 0.029085329850485092
Плов@@ 1
2024 0.6589828668065697
Forever 0.4786655412076635
ever 0.028230474846814627
oa 0.06880267303773673
Saint 0.01058584929450642
анга@@ 1
383 1
How 0.20003628042009283
An 0.020558973098600074
Ща@@ 1
Bell@@ 0.12388229866993683
Heroes 0.4467991796041858
ā 0.18648823704852502
квадор 1
AX 0.5190035941759241
1260 1
451 1
Luc@@ 0.07895570187577149
1420 1
1440 1
1574 0.9944768228199836
M1 0.5912114274453462
Maria 0.03659020340673283
Free@@ 0.4091654246622023
Div@@ 0.08545113105720158
Far@@ 0.042072030050963834
Mol@@ 0.054574035630245106
31,@@ 1
tidae 0.2667960049658337
реда 1
Williams 0.051161085748108466
наги 1
1501 1
Infin@@ 0.4328150734609824
itz 0.04010100573341762
ha@@ 0.040014932477044775
Independent 0.12065062019348816
cul@@ 0.03896968936736221
870 1
U2 0.7552552719169839
Western 0.031281652378681746
ality 0.044145188168018316
тира 1
Lif@@ 0.24747561032898202
Ther@@ 0.0857759918364707
ll 0.20418968908267424
men 0.009991622732934729
rom@@ 0.04097113662965539
ender 0.04061381559738758
州 0.03153640004683796
Ple@@ 0.13871682688870496
kr@@ 0.04645380944175667
Da@@ 0.10988873475998859
Mind 0.3732185084975261
over 0.005861980353796233
отбор@@ 1
Beach 0.07639926192216726
bre@@ 0.021759089228514838
372 1
Asia 0.05422852086245864
tar@@ 0.03171570284992214
348 1
Dark@@ 0.34502417944377894
well 0.007102747069863416
бря@@ 1
BI@@ 0.6645814716836563
387 1
лед 1
рур@@ 1
Sweet 0.30147694357244154
≈ 1
kl@@ 0.03250968938582714
Трай@@ 1
1579 1
Empire 0.03857909030864385
Fol@@ 0.0719406118398517
NP 0.44299329166383855
ision 0.07469865131523402
idea 0.04901801712125739
Йоа@@ 1
сини 1
Kn@@ 0.06018569903968748
Pent@@ 0.20422274902469684
408 1
411 1
1435 1
Adventure 0.4011476154722624
Il 0.004169056338202697
Като 0.9191677242107934
432 1
860 1
IEEE 0.5583716406040907
TH@@ 0.2868796569599026
1575 0.89486631252247
Imag@@ 0.22036159427260762
Will 0.13165963113268153
fer 0.028979361765108846
690 1
Gaz@@ 0.16931252656196924
Nature 0.19032374913264039
Spe@@ 0.06393008369732597
002 1
366 1
Shi@@ 0.08724107937974557
set 0.013451495918167291
Call 0.2767494138903307
Flash 0.35096075924695297
Four 0.08461467914157335
She 0.007311619637695778
359 1
382 1
475 1
ado 0.0049545973615744525
HD@@ 0.5020770868874276
Thomas 0.019943404535146324
pu@@ 0.030645455448667796
FL@@ 0.3840527360156411
1512 1
416 1
IE@@ 0.23208602986524915
Kal@@ 0.04077107150235165
Tar@@ 0.04292811682384591
Ig@@ 0.14881360046864653
Rom@@ 0.04463753065222084
DD 0.43049526541489747
Trophy 0.14937327936018158
1453 1
Dam@@ 0.06903674809808982
Hi@@ 0.0972303058772716
lo 0.007507766499748036
правител@@ 1
Zeppelin 0.6994617114849073
tu 0.08573866369096486
богат 1
Bay 0.036942122580393096
Mode 0.39444912063493814
кили@@ 1
сиона@@ 1
River 0.016245000606174485
431 1
830 1
Under 0.06065120657469332
Us 0.2747770747437907
Silver 0.14069363452565883
1515 0.947836993137501
Epic 0.6181527794449369
Roll 0.30044043177434065
Plan@@ 0.05869386190238828
Vogue 0.6347727088226404
Bab@@ 0.08013127006907099
тога@@ 1
черно 1
1204 1
Movie 0.2832198756201663
ady 0.09402670050343473
fo@@ 0.034416936477359425
ass 0.05033667301737755
367 1
cha 0.037937111778811636
pf@@ 0.04480816744481798
McLaren 0.48790712121282315
389 1
Republic 0.037856947333507786
зиден@@ 1
777 1
Camp@@ 0.0791982246896363
MVP 0.34302213625383576
Metallica 1
Мохамед 1
Na 0.24610727694481763
Ven@@ 0.06949628370918086
329 1
гъ@@ 0.964291324628256
1370 1
WA 0.251434695225507
not 0.003218407121354013
пари 1
los@@ 0.06257048772428894
Choice 0.3325141261243334
Fe 0.191166438862029
Only 0.10980561106078153
тичен 1
NXT 0.6019469165963509
Ram@@ 0.044185281179390384
ania 0.06760714528073193
aro 0.07198569491709228
ö@@ 0.02730088123392759
коли 1
1340 1
Stop 0.4288382708386893
Brown 0.04482131674520703
mer 0.02108384105095731
Dar@@ 0.03262790377951066
Sunday 0.09601697824398159
Ec@@ 0.10468152278990277
Net 0.42434209711155374
lia 0.08008014800643853
1.0 0.37993875147650097
Cube 0.6455199073326698
Mu@@ 0.051663746364603906
RAM 0.3679726453895727
scope 0.16027855738986163
ј@@ 1
New@@ 0.07336622345746595
RPG 0.7318739304947494
tig@@ 0.0376824956225685
кото 1
рене 1
1490 0.9600630367720464
548 1
Tak@@ 0.05522943276054246
hin@@ 0.04978409030337409
Друг 1
ez 0.041269493302639224
UT@@ 0.3719531185421191
Моха@@ 1
447 1
Das 0.006560321427587824
Guide 0.2397724377697763
up@@ 0.02026125576687407
use 0.008683366686010163
Лите@@ 1
geh@@ 0.05619436854162562
Hav@@ 0.11191028851286582
reg@@ 0.0230541089135233
Fun@@ 0.14347322787220773
1557 0.9778807603977572
197@@ 0.686678733695008
ческо 1
del@@ 0.029516118901250304
Pix@@ 0.46422018824427885
ster@@ 0.038429812232281514
али 1
умения 1
740 1
Cry 0.6206374049421335
407 1
Technologies 0.43556511186161484
top 0.01759609812235788
Rock@@ 0.13170693369030845
мерки 1
1514 1
Cop@@ 0.08199953896547103
MI 0.2841005734571118
ush 0.08953833842468463
1517 0.9760718267500034
Hand@@ 0.05206076978097804
Lat@@ 0.07858041775761243
loc@@ 0.026861023634562914
ods 0.05539535027201672
2300 1
Dog 0.28849161344102664
Smith 0.03136707597842757
ska 0.11140208203119054
uli@@ 0.07203910389995467
богата 1
347 1
368 1
Apo@@ 0.18244680101865546
Chrysler 0.45079556340217647
Око@@ 1
майка 1
хата 1
Pin@@ 0.06708285810089439
RIAA 0.730362364514005
ident 0.08599720874202298
Госу@@ 1
Planet 0.2918853123010359
SB@@ 0.5219649247794415
1508 1
cape 0.20958653397274019
odon 0.3324222576456674
Know 0.39493157833075804
A2 0.426058042411915
CM@@ 0.2259165509554262
Elec@@ 0.11770479337250987
isa 0.0728239683736866
sur 0.0031735742547062316
tin@@ 0.07540124190007588
Visual 0.37749315652342347
inn@@ 0.04172184158566568
pot 0.10347430534203379
sal@@ 0.02802321512778014
ə 1
378 1
ind@@ 0.03465237460526727
Него@@ 1
1510 0.9370143844686885
Town 0.04783568647488379
we 0.02290555805940292
373 1
зидент@@ 1
чне@@ 1
1561 0.922003010855786
Dynam@@ 0.26544533057216835
Kin@@ 0.07109508246003143
Side 0.18328028968658247
off 0.011911230684410955
ust@@ 0.07034131700029532
льям 1
френ@@ 1
1549 1
780 1
194@@ 0.41742211118728195
Christmas 0.09803309694467052
adi@@ 0.03308785288854457
ў@@ 1
1495 1
Voice 0.23231305364563015
1050 1
602 1
BAS@@ 0.4861861807485402
jo 0.05025793736760481
pes 0.06350464929457672
1360 1
376 1
Jump 0.5832357599887067
Sle@@ 0.23517069259105927
ew@@ 0.05047168347366188
AK@@ 0.28582224639077886
AW@@ 0.3618940232111128
PL 0.39693129889923623
Sciences 0.07767755678625855
html 1
1516 0.9897736514349792
1529 0.9000995144513264
1539 0.8922075210641328
Garden 0.11879776567714884
ū@@ 0.07896002978993076
Камерун 1
Trust 0.11474751430484767
he 0.0014265260416565797
ori 0.06089409613609089
lers 0.035693165692678185
onidae 0.5643913412021158
зараз@@ 1
куре@@ 1
bat 0.10515356070398593
Comp@@ 0.10707305589047789
1533 1
586 1
Kat@@ 0.04316793482773128
Rosa 0.1414751294844399
SP 0.2497932035021394
hy@@ 0.047608611269666944
535 1
Generation 0.177724382851357
Telegraph 0.38571129464379206
820 1
res@@ 0.01285368992302914
tical 0.0338164989424731
alm@@ 0.048472416964479986
ws 0.04879320327346499
мул@@ 1
1527 0.8933942145085203
ace@@ 0.07031725613835377
amb@@ 0.03719429326456731
series 0.008978321432965149
еми 1
ture 0.03590568609678978
благотворите@@ 1
унгар@@ 1
3200 1
Want 0.49210937992136256
Сома@@ 1
Населе@@ 1
вси@@ 1
Ker@@ 0.06131538962197786
cur@@ 0.02267077014413408
ech 0.08612049535102693
Wol@@ 0.0639542563117334
Trav@@ 0.11949034271022767
Woman 0.1626538867729596
eri@@ 0.08902238161937934
1475 1
MD 0.21131259092533092
EX@@ 0.5104097696966522
sil@@ 0.036430370649605345
aen@@ 0.4762629855289686
лато 1
точен 1
COM 0.45370901520455853
CR 0.19184701702482343
Core 0.42583011040765545
Purple 0.45291257767997845
затвор@@ 1
1522 0.9723842953082862
can 0.0061855531403634595
ites 0.02949717648975371
Sen@@ 0.0485745842361992
ika 0.05449658905820212
1430 1
GS 0.2618159569639061
lum 0.09592116903608582
борд 1
1513 1
Centre 0.03917332679470376
pol@@ 0.027757489196416428
zy@@ 0.07915574123404857
1543 0.9178860809535229
Pul@@ 0.10667441465000584
Bit@@ 0.14806141131406317
Bro@@ 0.04102067851191616
Son@@ 0.08213310952620324
ი 1
391 1
OVA 1
стри 1
585 1
880 1
AI 0.21370971763142338
Gold@@ 0.07735114380470691
hr@@ 0.05239320392862402
527 1
русали@@ 1
409 1
CT@@ 0.23684978476447457
bur@@ 0.02513726965228784
кономи@@ 1
31.@@ 0.75487982744516
Led 0.6250572438475929
продуци@@ 1
ო@@ 1
435 1
562 1
Inc. 0.08610437042515656
nom@@ 0.057976982818837265
Mary 0.030957047186255186
Nu@@ 0.08630309321034255
iti@@ 0.027200510836451936
xx 0.528968634309821
Mul@@ 0.05694927039913012
com. 0.6519697037318755
ira 0.04489506755602731
любов 1
Alliance 0.1061491042177009
Post@@ 0.07580228446891177
ul 0.06006563926498702
196@@ 0.661516176983728
MT@@ 0.3125751339291507
ink 0.08208038460055836
Cel@@ 0.07938316396662178
Med@@ 0.08292109349987835
ke@@ 0.04169977586234127
S. 0.04219069665071374
ff 0.04452463074963079
Heaven 0.2985584490639829
ң 1
anc@@ 0.03114000965229517
ory 0.02650512653069548
Чарлз 1
[...]
