. 2561227
، 2410930
في 2359132
من 1318872
على 616365
( 584198
) 583747
إلى 468975
&quot; 413254
ب@@ 399916
وال@@ 385666
ل@@ 364860
لل@@ 342862
أن 292370
عام 286800
ي@@ 281828
هو 266304
و@@ 237463
التي 236146
مع 233487
ك@@ 231915
و 225589
: 224661
عن 213158
أو 212144
أ@@ 210237
الم@@ 207826
ه 187011
ت@@ 185891
كان 180597
ف@@ 165163
ه@@ 164983
ما 163883
الت@@ 162756
ين 157877
ها 155760
ي 155680
وي@@ 150744
وت@@ 148138
هي 144437
بعد 139968
ية 139773
المتحدة 138840
غ@@ 137635
الأ@@ 136603
بين 136020
« 131089
» 131019
ح@@ 128769
ة 127072
الذي 126435
الح@@ 123181
ذلك 121761
هذه 121529
وم@@ 119870
تم 114491
د@@ 114115
لا 113190
هذا 112696
ع@@ 112223
ز@@ 111108
ج@@ 110820
- 110056
إ@@ 109803
لي@@ 109183
ش@@ 108804
ال@@ 107438
ان 105530
بي@@ 105249
حيث 104632
كانت 104084
ولد 103511
ط@@ 103177
سي@@ 102908
ق@@ 102378
الع@@ 102358
ًا 100010
وأ@@ 99925
هم 99539
م@@ 98665
ص@@ 98594
@-@ 98351
ت 97349
ون 94597
ات 94390
قبل 94018
الس@@ 93951
وقد 93369
س@@ 93230
خلال 92591
الف@@ 92396
الولايات 91798
ن@@ 90289
ري@@ 90063
الق@@ 89928
م 89733
في@@ 89582
والم@@ 89148
وب@@ 88054
مي@@ 87503
بن 86844
كما 86187
رو@@ 85528
الج@@ 84318
ك 84266
ان@@ 84097
الك@@ 83735
ر@@ 83697
وا@@ 82867
دي@@ 82568
وفي 81919
سنة 80772
ى 79920
ا 79721
ث@@ 79512
را@@ 79051
قد 78056
ب 77699
لم 76780
لا@@ 76645
ق 76633
له 76378
الإ@@ 75693
خ@@ 75652
غير 75624
ين@@ 75205
ته 75133
الب@@ 74261
ور@@ 74251
الش@@ 74211
مثل 73792
ف 73316
ض@@ 72983
كل 72153
الن@@ 71628
وهو 71191
دي 71042
ر 70968
ون@@ 69482
س 69346
عدد 69009
الخ@@ 68724
ل 68244
/ 68064
ول@@ 68044
حتى 67893
الص@@ 67034
ز 66986
ع 66125
كرة 65922
ير 65621
د 65042
ال 65038
لة 64119
ست@@ 64001
اً 63547
ار@@ 63026
ثم 62293
است@@ 62191
رة 61810
ح 61504
لو@@ 60935
بة 60730
وق@@ 60263
مة 60217
لاعب 60096
بعض 60034
المملكة 59871
دة 59856
تي@@ 59787
تر@@ 59686
من@@ 59680
تش@@ 59092
وس@@ 59043
ن 58629
ني@@ 58579
ار 57647
تح@@ 57429
الد@@ 57379
أكثر 57294
أمريكي 57245
عة 57171
يمكن 57077
مع@@ 57066
يا 56925
الر@@ 56638
وك@@ 56411
ج 55949
وهي 55045
بي 54565
مو@@ 54446
لها 54338
أنه 54252
ذ@@ 53949
لي 53666
ّ@@ 53259
– 53083
يات 52662
بشكل 52470
أن@@ 52057
% 52011
مت@@ 51953
سي 51863
وج@@ 51788
تها 51759
أي 50166
يل 49970
بر@@ 49867
ام@@ 49339
قدم 48630
ط 48340
اء 48154
اب@@ 47899
رات 47843
بال@@ 47842
الط@@ 47748
مدينة 47743
ور 47493
؛ 47444
وكان 46802
المع@@ 46719
العديد 46708
تع@@ 46689
يد 46664
قة 46382
عبد 46356
بها 46168
يت@@ 46137
وا 46095
مح@@ 45938
تق@@ 45936
لات 45840
بو@@ 45832
, 45828
يتم 45663
جي@@ 45360
تم@@ 44916
حة 44707
الغ@@ 44271
كي@@ 43807
أخرى 43804
مر@@ 43575
اني 42924
1 42822
اد@@ 42775
اله@@ 42359
ول 42315
والتي 42286
ش 42220
أول 42091
تف@@ 41977
ث 41889
به 41868
تي 41779
القرن 41674
وح@@ 41511
فيها 41487
المح@@ 41462
ات@@ 41254
حسب 41033
غ 41014
تحت 40917
ومن 40784
مارس 40700
نادي 40469
ما@@ 40004
الأول 39975
مجلس 39960
زي@@ 39891
فة 39867
عندما 39846
هناك 39772
عشر 39743
ولكن 39537
اد 39297
وص@@ 39207
بن@@ 39126
با@@ 39118
ُ@@ 38947
قي@@ 38893
بسبب 38891
مركز 38852
مي 38820
العالم 38810
ام 38628
محمد 38586
هي@@ 38482
الي@@ 38437
وف@@ 38338
2 38258
ص 38222
الذين 38155
منها 38150
ري 38110
مار@@ 37972
رية 37950
يين 37883
فر@@ 37786
منذ 37786
يكون 37502
الله 37378
بع@@ 37353
اع@@ 37325
ود@@ 37254
3 37213
الأولى 37130
أحد 37065
ني 37017
وع@@ 37014
الز@@ 37009
لعب 36995
تو@@ 36898
شي@@ 36874
إي@@ 36864
وتوفي 36827
العام 36734
جميع 36662
عند 36496
نا@@ 36345
دية 36339
ير@@ 36298
اس@@ 36278
أيضًا 35844
تك@@ 35744
مرة 35546
منطقة 35468
بح@@ 35433
نسمة 35395
جامعة 35177
انية 35063
آ@@ 35031
لية 35025
تص@@ 34996
نة 34943
2004 34505
يُ@@ 34405
دون 34378
اف@@ 34096
بية 33892
حول 33891
تكون 33854
الاست@@ 33412
مان 33405
الحرب 33332
مست@@ 33272
الث@@ 33194
الأمريكية 33047
مق@@ 32621
ند@@ 32621
مص@@ 32593
َ@@ 32525
تن@@ 32501
مايو 32443
رين 32247
مس@@ 32217
ّ 32208
وي 32178
علي 32163
بار@@ 32118
المت@@ 32117
مجموعة 32083
المست@@ 32045
ا@@ 31981
يوم 31950
تلك 31836
اب 31813
تج@@ 31795
يناير 31752
شركة 31517
دا 31511
فبراير 31505
عمل 31388
وس 31367
4 31283
كي 31277
تين 31233
ائ@@ 30841
أبريل 30796
ولا 30774
اي@@ 30666
بل@@ 30663
َّ@@ 30597
أكتوبر 30592
مج@@ 30584
أنها 30506
اس 30425
عد@@ 30343
فقد 30314
إلا 30298
بد@@ 30242
مية 30201
ود 30144
&#93; 29939
الثاني 29904
دا@@ 29811
مل@@ 29763
&#91; 29702
سل@@ 29586
بـ 29580
ِ@@ 29554
يونيو 29396
سك@@ 29373
أس@@ 29336
العمل 29327
يوليو 29325
سياسي 29322
سن@@ 29303
ديسمبر 29297
لت@@ 29291
المن@@ 29208
عضو 29203
هما 29159
5 29149
ارة 29139
وإ@@ 29136
بت@@ 29087
سبتمبر 29050
يقع 29037
لكرة 28939
نا 28810
العربية 28778
مما 28746
فيه 28690
حي@@ 28598
علم 28594
عل@@ 28590
لت 28539
الية 28339
المص@@ 28313
عليه 28299
سب@@ 28297
المدينة 28200
يق@@ 28063
تا@@ 28045
نوفمبر 28014
القدم 28011
يع@@ 27989
فية 27959
فإن 27917
كار@@ 27899
الة 27869
6 27827
بدأ 27814
رئيس 27775
يو@@ 27718
ولاية 27699
رت 27686
وري 27629
إن 27521
أغسطس 27518
والأ@@ 27513
ارات 27270
تُ@@ 27270
ضد 27253
عي 27169
عدة 27159
نو@@ 27046
طريق 26989
ظ@@ 26909
يه 26860
أر@@ 26854
وية 26765
فقط 26744
ض 26737
الأخرى 26680
ذات 26658
10 26582
خ 26568
مش@@ 26517
الوقت 26471
مك@@ 26414
وم 26350
لك@@ 26256
المر@@ 26231
تخ@@ 26186
اك@@ 25930
أما 25812
مد@@ 25806
إحدى 25709
الي 25682
الل@@ 25567
قية 25552
.@@ 25499
أكبر 25470
باسم 25413
ورة 25400
نظام 25399
الض@@ 25396
المنطقة 25336
يس 25316
عم@@ 25247
جن@@ 25214
وش@@ 25172
بط@@ 25163
يك@@ 25134
بما 25092
ده 25085
كت@@ 25071
تا 25063
مه@@ 24970
برا@@ 24835
إذا 24821
لق@@ 24817
حالة 24801
الحزب 24795
قام 24773
بإ@@ 24688
استخدام 24635
دت 24635
بات 24597
ةً 24403
أل@@ 24383
سون 24296
وكانت 24283
عليها 24270
فو@@ 24263
وذلك 24224
دو@@ 24194
آخر 24125
عية 24047
دين 23981
حين 23976
ئ@@ 23920
الرغم 23897
عبر 23892
لكن 23862
والذي 23860
كبير 23837
فا@@ 23779
أيضا 23741
يت 23664
جون 23646
لح@@ 23638
يم 23614
7 23599
حوالي 23599
ٍ 23494
أم@@ 23490
برو@@ 23462
اسم 23433
نفس 23393
الرسمي 23333
8 23324
عملية 23307
لإ@@ 23267
الثانية 23231
كة 23214
در@@ 23138
عات 23134
يًا 23130
الان@@ 23093
مت 23087
بر 23082
مر 23032
واحد 23016
20 22954
يون 22908
الو@@ 22879
مقاطعة 22859
ائية 22841
وه@@ 22827
الحكومة 22802
جو@@ 22802
راء 22740
بري@@ 22734
مُ@@ 22708
كم 22691
سو@@ 22665
تاريخ 22630
ضمن 22555
جهة 22505
نية 22478
بالت@@ 22475
بالإضافة 22467
أي@@ 22456
مواليد 22425
ونادي 22282
جي 22174
اش@@ 22139
دات 22121
سن 22070
15 22016
فترة 21997
ولة 21969
وجود 21964
12 21897
العامة 21773
لف@@ 21679
المس@@ 21645
داخل 21645
فيلم 21579
كس 21561
يقدر 21560
المق@@ 21526
اق@@ 21518
تد@@ 21426
وز@@ 21373
الوطني 21364
ئة 21319
أثناء 21274
بور@@ 21257
بل 21241
ادة 21233
نق@@ 21201
اري 21182
اف 21149
تب@@ 21145
; 21126
ّة 21092
كر@@ 21033
مات 21028
اح@@ 21027
ينتمي 21015
المغربية 20988
را 20899
للسكان 20888
والإ@@ 20861
إن@@ 20845
شر@@ 20838
نوع 20837
مون 20809
تقع 20792
الآ@@ 20746
اه@@ 20728
تضم 20728
سم@@ 20700
شارك 20692
9 20691
واحدة 20666
بينما 20657
اته 20585
ابة 20511
دور 20483
19 20444
الدولة 20435
رون 20431
سة 20427
قال 20421
العالمية 20333
مؤ@@ 20331
جنوب 20325
تس@@ 20234
لين 20222
لأ@@ 20168
نج@@ 20151
لسنة 20113
انتخب 20079
الاتحاد 20010
يست@@ 19985
وغ@@ 19941
از@@ 19903
كبيرة 19806
ست 19797
11 19746
عين 19735
اليوم 19704
غي@@ 19636
نسبة 19627
كو@@ 19599
نحو 19575
درجة 19562
بلغ 19561
نشط 19521
أجل 19514
2010 19469
يني 19468
اة 19462
بأن 19457
رب 19419
وقت 19416
التعليم 19413
ومع 19402
الملك 19399
ائي 19380
طة 19324
إقليم 19252
سنوات 19237
الخاصة 19201
مين 19198
الإحصاء 19188
المج@@ 19160
السي@@ 19148
الرا@@ 19116
للأ@@ 19093
مصر 19058
30 18996
رب@@ 18953
هـ 18947
خط@@ 18889
أصبح 18880
سية 18873
حر@@ 18851
ينا 18843
يح@@ 18781
بت 18780
حد 18741
16 18732
مان@@ 18677
14 18670
أ 18664
سين@@ 18653
سم 18615
موسم 18596
أخ@@ 18594
ثة 18525
كل@@ 18525
وان@@ 18495
ابن 18456
البي@@ 18439
ء 18431
اج@@ 18427
دو 18421
ترا@@ 18415
ادي 18412
دار 18386
جة 18374
معظم 18370
كية 18339
ولم 18338
18 18314
ـ@@ 18305
الحياة 18292
تت@@ 18281
يو 18263
والسكنى 18262
الفترة 18177
أص@@ 18169
الجيش 18111
فل@@ 18106
ولدت 18089
بطولة 18082
ذ 18079
عي@@ 18062
حزبياً 18061
انا 18038
فرنسا 18036
عت 18032
الوطنية 18015
كون@@ 18013
َ 17992
حص@@ 17965
25 17922
17 17913
تز@@ 17898
وض@@ 17871
منتخب 17861
مل 17759
التح@@ 17756
2013 17732
وط@@ 17728
ثلاثة 17727
13 17692
أُ@@ 17674
عرض 17639
عمر 17533
أك@@ 17518
اط@@ 17479
فيما 17478
أد@@ 17444
فت@@ 17434
فق@@ 17421
بق@@ 17381
بني 17350
ولا@@ 17313
مز@@ 17305
الذ@@ 17262
فر 17245
نهاية 17225
قي 17223
المُ@@ 17178
مه 17176
حي 17127
تون 17123
شكل 17115
نس@@ 17110
المش@@ 17103
الدين 17098
راً 17083
حزب 17065
وب 17056
سر 17046
نف@@ 17042
يبلغ 17017
الأرض 17000
لو 16988
اتها 16984
21 16941
فات 16940
أبو 16938
ابات 16929
المؤ@@ 16890
مها 16858
التاريخ 16855
كر 16853
إل@@ 16850
قر@@ 16792
وبعد 16783
ُ 16770
مب@@ 16722
&amp; 16709
يم@@ 16660
واست@@ 16640
آيت 16611
مث@@ 16610
زي 16605
كا 16593
بريطاني 16591
2009 16576
وتح@@ 16569
يش@@ 16526
تهم 16512
لاً 16511
فري@@ 16507
مليون 16475
مون@@ 16469
أح@@ 16406
نش@@ 16396
دها 16372
2007 16341
شا@@ 16340
الفيلم 16318
ألمانيا 16292
شمال 16284
حصل 16278
2008 16268
الدوري 16254
أحمد 16249
مض@@ 16234
بالم@@ 16228
عادة 16223
ته@@ 16221
وت 16159
اص@@ 16155
قد@@ 16155
هار@@ 16066
خاصة 16054
يف 16052
24 16025
والح@@ 16019
طر@@ 16012
دًا 16002
شار@@ 15985
سان 15918
وار 15902
يجب 15884
مختلفة 15847
حية 15839
ادات 15829
الآن 15741
بدأت 15739
طل@@ 15707
بناء 15683
فت 15681
ليس 15655
وات 15638
كتاب 15629
صي@@ 15619
اللغة 15617
عدم 15615
لان@@ 15601
از 15600
سكانها 15561
2016 15520
الأمريكي 15506
وعلى 15486
الثالث 15457
لعام 15447
وما 15439
توفي 15432
تل@@ 15417
المركز 15415
مف@@ 15414
ولي@@ 15414
لب 15404
جر@@ 15399
يوجد 15388
إنتاج 15383
نظ@@ 15364
خي@@ 15343
فريق 15343
ظهر 15342
كأس 15324
السكان 15296
نفسه 15288
2006 15268
لمدة 15266
كتب 15253
حركة 15247
سكانه 15226
إذ 15174
عر@@ 15156
لين@@ 15151
23 15094
ينة 15059
البر@@ 15033
بأ@@ 14998
جديدة 14991
22 14942
بش@@ 14941
زة 14935
2011 14919
ولي 14891
ورية 14882
كو 14860
برنامج 14844
الشيخ 14831
عه 14831
لم@@ 14824
عب@@ 14800
سين 14796
أث@@ 14790
اغ@@ 14779
دير 14779
بجماعة 14774
النظام 14765
لدى 14754
أنواع 14720
تو 14718
إدارة 14684
ئ 14671
أيضاً 14670
ضة 14670
يف@@ 14662
ِّ@@ 14650
سكان 14644
قرية 14628
النا@@ 14625
قانون 14618
الدوّار 14612
أفضل 14598
لمشيخة 14597
وف 14594
دُوَّار 14584
قص@@ 14581
وكذلك 14576
القوات 14525
شه@@ 14525
وار@@ 14501
جر 14480
الرئيس 14471
تل 14468
أوروبا 14463
الكويكب 14451
انة 14437
ره 14418
سر@@ 14415
بان@@ 14390
بول@@ 14386
قب@@ 14385
لال 14338
المه@@ 14316
مباراة 14288
تر 14277
كان@@ 14238
ينية 14234
مجال 14226
2012 14207
وتع@@ 14190
كلي@@ 14185
منه 14185
شع@@ 14160
شخص 14155
او@@ 14138
خر@@ 14136
در 14136
وث@@ 14132
محافظة 14116
مدرسة 14115
داً 14113
الأطفال 14112
با 14107
أمريكية 14103
أصبحت 14081
منصب 14063
كندا 14023
القانون 14019
التع@@ 14013
يل@@ 13989
الات 13973
الرئيسي 13950
كلية 13925
دولة 13922
المناطق 13900
سبيل 13896
منظمة 13887
ارية 13862
بين@@ 13854
ذكر 13847
وفي@@ 13837
خص@@ 13816
البلاد 13772
اض@@ 13766
الفر@@ 13763
تض@@ 13760
الجديدة 13754
النساء 13748
وتم 13748
قه 13747
المط@@ 13737
الأس@@ 13726
نشر 13698
قل 13697
26 13695
عالم 13691
2000 13681
مط@@ 13640
سا@@ 13630
الشمالية 13629
كام@@ 13575
دار@@ 13573
27 13560
اث@@ 13553
مسيرته 13552
ؤ@@ 13548
القديمة 13545
للإ@@ 13537
الشركة 13513
28 13501
الدولي 13494
الفي@@ 13483
لهم 13466
الدولية 13461
الأر@@ 13460
رج@@ 13453
شرق 13431
أه@@ 13407
_ 13398
مغ@@ 13374
سلسلة 13351
يب 13328
ينات 13300
للا@@ 13272
هر 13256
طي@@ 13246
غري@@ 13226
رار 13201
ثلاث 13196
الدي@@ 13174
البحر 13173
بواسطة 13173
الكثير 13162
نه@@ 13159
الغربية 13151
أعمال 13150
داء 13147
دد 13140
وله 13094
أقل 13092
2015 13088
بداية 13075
موقع 13074
قائمة 13073
قائ@@ 13062
ثر 13050
طلب 13042
نيويورك 13042
قط@@ 13036
الناس 13011
أو@@ 13001
ومن@@ 12991
ضع 12989
مور@@ 12988
جانب 12972
2014 12968
السل@@ 12968
العربي 12959
قل@@ 12950
2005 12948
عاماً 12947
عها 12931
الدول 12908
مستوى 12904
اخت@@ 12903
دف@@ 12878
َّة 12878
أعلى 12866
الاسم 12857
وحدة 12840
نقل 12826
ورا@@ 12821
فوق 12820
الإنسان 12816
الأعمال 12813
زيادة 12810
فاز 12810
فين 12808
جائزة 12765
نز@@ 12764
كانوا 12710
اللا@@ 12708
دولار 12706
درا@@ 12675
تتبع 12662
صة 12662
بلا@@ 12661
الأح@@ 12660
الهند 12606
لان 12605
دائرة 12596
الطاقة 12591
تور@@ 12588
يلعب 12563
المف@@ 12560
يه@@ 12517
تست@@ 12513
ياً 12498
الأمر 12492
صح@@ 12488
دان 12470
-@@ 12452
المثال 12442
المياه 12439
لف 12429
وري@@ 12429
المغ@@ 12413
حياته 12408
المي@@ 12404
المجلس 12402
وخ@@ 12376
سع@@ 12365
ادية 12348
29 12308
الدفاع 12307
وتق@@ 12298
وضع 12239
عد 12209
شهر 12202
وزارة 12196
الاجتماعية 12183
لاند 12181
لأن 12168
وني 12159
كور@@ 12115
أغ@@ 12073
كري@@ 12053
بات@@ 12000
المجتمع 11986
وهذا 11972
يكن 11963
باستخدام 11939
وسي@@ 11936
جية 11922
شي 11911
زا 11885
الرئيسية 11876
إعادة 11866
العشرين 11848
لوا 11842
يان 11807
نتيجة 11789
انتقل 11752
مخ@@ 11737
اق 11734
تصنيف 11719
اع 11717
البل@@ 11690
العسكرية 11684
دراسة 11675
انت@@ 11661
عم 11658
الجنوبية 11652
بالإ@@ 11651
ممثل 11650
ْ@@ 11643
يون@@ 11627
أمريكا 11622
المرأة 11622
وين@@ 11611
سان@@ 11607
المز@@ 11598
الأكثر 11589
وة 11587
منهم 11586
هد 11563
باء 11551
السياسية 11541
يك 11537
الكتاب 11534
رف 11513
لكل 11508
جوائز 11506
المد@@ 11492
بيل 11492
مرا@@ 11463
اله 11458
الرو@@ 11456
موا@@ 11455
كن 11441
جمهورية 11433
خارج 11432
&apos; 11425
الفرنسية 11417
الدم 11403
أش@@ 11399
اي 11364
نص@@ 11350
القي@@ 11341
رقم 11333
تغ@@ 11318
جه@@ 11263
وبة 11257
يس@@ 11231
داد 11229
قامت 11219
= 11209
رها 11201
أق@@ 11185
هر@@ 11178
رس@@ 11175
حل 11167
الصين 11142
لذلك 11119
ترو@@ 11109
الشرقية 11100
2003 11097
2020 11092
الجديد 11078
لهذا 11075
دون@@ 11056
سب 11047
يعتبر 11036
جمع 11032
الألعاب 11008
حالات 11001
الأم@@ 10996
أمام 10981
المخ@@ 10977
ألف 10958
جورج 10958
بالنسبة 10956
2017 10924
ميل 10923
قسم 10911
حرب 10904
حياة 10879
السعودية 10870
الجن@@ 10855
٪ 10843
وجه 10836
جين 10832
اليد 10831
عق@@ 10830
سام@@ 10822
التر@@ 10803
المعلومات 10801
جمعية 10801
يلي 10779
تأ@@ 10770
حد@@ 10769
اللي@@ 10767
يري 10763
قات 10751
تعتبر 10742
كن@@ 10737
يخ@@ 10728
أولاد 10695
أدى 10689
الحكم 10685
يز@@ 10675
تستخدم 10674
حات 10671
غرب 10668
السابق 10653
رام 10650
وسط 10650
اخ@@ 10630
البريطانية 10621
الحركة 10600
كذلك 10599
مال@@ 10599
متر 10597
ملك 10595
جزء 10589
بأنه 10584
والع@@ 10572
أشهر 10554
به@@ 10550
روس 10550
فه 10547
لندن 10545
جان 10527
أربعة 10516
فا 10514
كون 10510
الإسلامية 10509
التالية 10509
بير@@ 10507
فور@@ 10491
عص@@ 10480
خط 10476
هة 10471
غرا@@ 10460
كريكت 10447
إنشاء 10437
بيت 10431
يز 10429
تط@@ 10419
أور@@ 10418
تطوير 10412
8@@ 10401
نت 10401
ذا 10379
جو 10374
الشرق 10360
عائلة 10358
جان@@ 10341
هدف 10337
والت@@ 10332
نهر 10330
روا@@ 10318
المنا@@ 10293
وصل 10290
أف@@ 10283
أصل 10276
أستراليا 10273
جيمس 10264
عبارة 10240
ينيات 10238
شو@@ 10237
مكان 10228
كندي 10225
دين@@ 10220
تقدم 10216
حكم 10214
دائ@@ 10212
أهم 10208
فار@@ 10183
وى 10180
التالي 10177
وبالتالي 10176
يستخدم 10173
قو@@ 10172
فن 10165
يقوم 10134
سبب 10127
العليا 10125
بير 10123
باب 10117
بار 10117
خرج 10116
دع@@ 10106
العراق 10104
القر@@ 10092
ريك@@ 10074
التق@@ 10065
الصحة 10050
ئات 10048
عمليات 10048
كول@@ 10048
فض@@ 10046
بول 10043
رًا 10034
إس 10029
هيئة 10025
صل 10022
سط@@ 10008
2002 10000
السنة 9989
كويكبات 9982
المواد 9981
قوة 9980
سجل 9973
ند 9965
تعداد 9952
2018 9951
عُ@@ 9951
.. 9950
ممثلة 9950
المرا@@ 9949
كين 9946
لون 9933
... 9931
ارت 9920
اوي 9917
بع 9917
مرض 9915
هام 9912
مشروع 9902
رجل 9898
الجزء 9897
دوار 9896
قاعدة 9881
العاصمة 9873
عنه 9873
31 9865
الجامعة 9843
نين 9837
الخلايا 9833
حت@@ 9818
نت@@ 9810
حكومة 9809
عب 9795
تعل@@ 9789
أفريقيا 9788
طول 9784
الجمعية 9783
جزيرة 9783
أع@@ 9753
يق 9751
أعضاء 9746
للح@@ 9733
أمر 9724
روا 9712
تري@@ 9705
يني@@ 9691
جل@@ 9686
لك 9686
التص@@ 9681
اتهم 9676
قصة 9676
انيا 9674
بص@@ 9671
شر 9671
مذ@@ 9665
ِ 9665
الاس@@ 9645
قرار 9628
2019 9624
طية 9623
خت@@ 9622
الماء 9617
صر 9613
عش@@ 9605
ندي 9601
توجد 9594
ضي@@ 9593
صغيرة 9591
2001 9588
القرية 9581
لأول 9573
ماء 9570
تعلم 9566
الحديث 9565
عهد 9562
بالق@@ 9561
إليه 9551
العلمي 9551
حدث 9548
ويمكن 9541
التاسع 9531
تشمل 9519
اما 9514
مناطق 9514
تحديد 9507
كوم@@ 9506
ء@@ 9495
100 9488
اذ@@ 9480
مجلة 9477
فق 9476
أنحاء 9471
الشخصية 9469
يعمل 9469
المختلفة 9466
وأن 9454
الفرنسي 9452
امة 9452
الجزائر 9451
ويل 9448
أهل 9439
جل 9439
وفق 9439
العلوم 9437
الديمقراطي 9432
معركة 9431
عقد 9428
وسياسي 9427
وزير 9420
قت 9416
التابعة 9415
ترك 9415
البحرية 9408
الرابع 9402
طي 9397
الحالات 9395
تعمل 9395
7@@ 9394
المجموعة 9375
العصر 9373
امي 9373
مرحلة 9363
بالأ@@ 9355
النوع 9353
درس 9351
جديد 9345
النق@@ 9344
سطح 9343
دن 9339
ائل 9337
الموقع 9331
ٌ 9330
يرا 9325
كرا@@ 9323
لاح@@ 9323
قين 9316
ناء 9314
ناد@@ 9313
قوات 9312
المدرسة 9304
بان 9300
فيروس 9290
دعم 9283
دور@@ 9273
ويليام 9269
الخاص 9248
الأخيرة 9225
حقوق 9216
البط@@ 9200
واق@@ 9191
عيد 9182
ونية 9169
التجارية 9166
وَ@@ 9166
طف@@ 9145
ارد 9140
مختلف 9136
إسبانيا 9135
كاتب 9129
انه 9127
لق 9127
دل 9125
توضيح 9119
ضية 9117
نى 9107
سل 9096
المث@@ 9093
فرا@@ 9093
كين@@ 9082
إضافة 9079
الألمانية 9071
الدراسات 9070
هن 9064
ريا 9058
المحلية 9056
اتي 9053
الظ@@ 9048
جار 9040
الاجتماعي 9035
روسيا 9027
إيطاليا 9020
اليابان 9007
تمثل 9003
لويس 8989
أنهم 8976
تقوم 8972
العق@@ 8959
وفر 8957
افة 8956
الشمس 8954
وفقًا 8946
مًا 8943
الخارجية 8934
شخصية 8928
العملية 8911
المك@@ 8909
ملا@@ 8890
أفلام 8889
البعض 8882
العظمى 8875
الأشخاص 8858
ليل 8857
سيا 8851
قبة 8846
ادل 8837
امية 8837
رق@@ 8827
اه 8825
دورة 8818
معه 8812
الخط@@ 8809
اتحاد 8807
تأثير 8806
البحث 8800
زم 8799
دم 8797
يؤدي 8797
وسائل 8796
طن 8793
مصطلح 8787
ـ 8786
بك@@ 8785
جرا@@ 8785
وادي 8785
اوية 8784
نطاق 8779
وغيرها 8777
وان 8761
والد@@ 8757
الفريق 8740
باً 8739
سا 8735
إليها 8733
فورد 8727
زل 8726
اسية 8720
العلاج 8702
ظهرت 8700
ظهور 8691
الهجوم 8689
أس 8687
رك@@ 8686
فان 8685
وفاة 8684
الوسط 8683
المغرب 8680
دى 8677
جه 8672
اح 8668
طور 8658
سات 8657
كات@@ 8645
أة 8638
آل 8635
يّة 8622
اك 8620
والده 8619
عاد 8618
دول 8616
9@@ 8611
ارا 8611
له@@ 8608
سام 8599
ورد 8593
العالمي 8581
ديد 8574
لغ@@ 8574
شك@@ 8566
النواب 8560
نظرية 8557
طريقة 8556
وتر@@ 8550
حت 8542
هام@@ 8541
الحديثة 8539
ائر 8531
الأراضي 8528
ولها 8527
بس@@ 8526
خو@@ 8518
الشمال 8515
فين@@ 8513
وحتى 8501
سيدي 8496
الأساسية 8488
1999 8482
الملكية 8482
دخل 8482
خل@@ 8471
ةٍ 8463
الكبير 8458
صدر 8457
أج@@ 8443
باريس 8438
العمر 8436
الأمير 8434
الثورة 8434
البرو@@ 8431
رو 8431
الجسم 8424
ماك@@ 8424
نات 8423
يش 8416
الجنوب 8404
مار 8390
معسكر 8388
البا@@ 8380
الحصول 8366
تحتوي 8355
وصف 8349
أم 8343
اسي 8342
مؤسسة 8334
يعد 8334
سابقاً 8323
أيام 8318
متوسط 8318
بالك@@ 8314
الكنيسة 8311
10@@ 8310
لام 8294
لديها 8292
تان 8289
فرقة 8278
أواخر 8277
دوري 8273
الأوروبي 8263
الانتخابات 8263
تمت 8262
فها 8262
ستون 8258
الام@@ 8254
الحيوانات 8254
بغ@@ 8249
شبكة 8248
كثير 8230
آسيا 8228
اية 8226
ستر 8220
عامي 8220
الجزيرة 8216
تصل 8210
بوت@@ 8207
6@@ 8204
نور@@ 8202
زية 8200
عامة 8200
طرق 8198
أول@@ 8193
خار@@ 8190
50 8186
سير 8182
بط 8178
الدرجة 8174
الميلاد 8173
مام 8170
الجوية 8169
غل 8158
خدمة 8149
حسن 8140
1998 8136
ريك 8129
روبرت 8128
عا 8127
سوف 8120
قيم 8108
بس 8106
فرة 8092
أبي 8088
الداخلية 8075
الكبرى 8074
مسلسل 8068
الحالة 8066
الإمبراطورية 8065
لاء 8054
رأس 8051
صف@@ 8051
يوس 8045
راد 8044
معهد 8044
الأولمبية 8034
ماً 8032
وك 8028
1990 8024
فيا 8020
قها 8012
ثي@@ 8011
ريد 8010
ابه 8006
واء 8005
بعدها 7996
جبل 7996
تحقيق 7994
كلا@@ 7992
13@@ 7989
لما 7986
ارتفاع 7981
المرحلة 7977
السلطة 7974
يمي 7972
الوصول 7971
البيانات 7970
دل@@ 7966
كات 7955
اج 7952
إسرائيل 7950
وز 7949
عًا 7943
وال 7943
بج@@ 7937
علماء 7916
جون@@ 7913
رواية 7910
حصلت 7903
حاليا 7894
دري@@ 7894
واسع 7889
طات 7887
لجنة 7881
ضر@@ 7877
بًا 7872
عنها 7871
تش 7869
افي 7865
طلق 7856
1996 7849
انتق@@ 7840
رائ@@ 7839
السياسي 7827
الطب 7822
اعات 7813
تصميم 7812
بعة 7802
الأمم 7801
غة 7799
عط@@ 7793
ديا 7791
تحدث 7778
مقابل 7775
5@@ 7771
1992 7767
خلالها 7765
الطبية 7758
فيل 7757
لقد 7757
عالية 7756
علاج 7756
تعد 7755
كرو@@ 7755
الوسطى 7754
ران 7753
حق 7752
جم 7749
بالقرب 7744
الإنترنت 7742
التن@@ 7732
قناة 7732
ولية 7730
التف@@ 7722
بوب 7720
تقديم 7711
توا@@ 7711
طويلة 7711
العرب 7700
الري@@ 7699
اره 7694
صناعة 7688
جهاز 7687
الحدود 7683
أفراد 7681
عامًا 7681
مال 7678
أوائل 7674
هل 7674
خاص 7673
أخذ 7664
سوريا 7655
0 7654
لل 7654
1997 7652
الإسلام 7651
الصحية 7651
بلدية 7645
لكنه 7640
الإن@@ 7639
فص@@ 7637
فون 7632
الوزراء 7620
لـ 7614
أمين 7612
الموسم 7611
وقال 7606
ادت 7590
قيادة 7586
ها@@ 7585
ليون 7577
ظل 7574
الطبيعية 7573
ودي@@ 7569
مَ@@ 7567
مول@@ 7563
حق@@ 7560
بو 7558
وليس 7553
الصح@@ 7552
باب@@ 7546
صور 7542
الشر@@ 7529
هنري 7527
البداية 7508
التش@@ 7507
الإنجليزية 7505
أعلن 7502
لتح@@ 7498
نصف 7494
جنس 7492
الألماني 7488
البطولة 7488
بلو@@ 7487
الأكبر 7484
نقطة 7484
فران@@ 7483
شبه 7482
ستة 7480
ثي 7475
قيق 7475
الشكل 7474
ريات 7471
رح@@ 7469
المض@@ 7466
تقل 7461
مات@@ 7460
ايا 7457
الأمن 7455
الأن@@ 7455
النادي 7449
يص@@ 7445
الطريق 7432
خلا@@ 7431
شيء 7430
للو@@ 7426
بحلول 7425
سابق 7425
المسيحية 7422
موا 7418
إنجلترا 7417
الأق@@ 7417
للم@@ 7413
الشعب 7408
عشرة 7396
شري@@ 7390
يشير 7383
جمع@@ 7382
لقب 7378
رير 7377
بأنها 7373
كتابة 7372
السابقة 7369
الإي@@ 7366
المصرية 7364
formula 7356
الخامس 7352
gt 7349
معهم 7346
دفع 7342
عام@@ 7341
ونة 7330
المرض 7328
المسلمين 7328
مباشرة 7325
جيش 7323
غو 7312
تعرض 7310
والك@@ 7306
منع 7293
والص@@ 7293
يوم@@ 7290
منح 7287
1991 7282
عمل@@ 7281
فع 7280
البريطاني 7277
بهم 7275
الموجودة 7273
جا@@ 7264
نغ@@ 7263
اليمن 7261
البار@@ 7258
سوق 7258
الحرارة 7256
1994 7254
قيمة 7251
القط@@ 7250
الموا@@ 7238
نفسها 7236
وفاته 7235
حجم 7234
تار@@ 7227
انو 7226
ستر@@ 7223
الأحيان 7220
الجمهوري 7219
الشه@@ 7219
كاليفورنيا 7217
برت 7214
والش@@ 7210
كامل 7209
العلاقات 7208
المدارس 7203
عض@@ 7203
الدينية 7193
تشير 7189
تون@@ 7189
معدل 7187
بيا 7177
وني@@ 7177
ضم 7173
يتبع 7173
فئة 7167
lt 7166
شاركت 7166
أند@@ 7165
ذو 7163
بون@@ 7161
الها 7147
وست@@ 7139
اللعب 7133
البرلمان 7111
لغة 7107
والث@@ 7105
يار 7102
1995 7101
رك 7098
ً 7096
كلمة 7091
الصغيرة 7087
حم@@ 7085
اعة 7082
عرف 7081
2@@ 7080
رض 7079
يحدث 7079
رغم 7076
وو@@ 7075
برامج 7068
لى 7067
وجد 7065
ورات 7065
يرة 7061
الرجال 7058
وهناك 7051
جنسية 7048
المكان 7046
ألعاب 7043
الثالثة 7042
عن@@ 7042
القلب 7029
خمسة 7028
لاست@@ 7020
مدة 7012
1980 7009
إبراهيم 7008
1993 7005
شركات 7003
النظر 7000
العلمية 6997
الغربي 6989
ناحية 6989
سيتي 6982
سون@@ 6981
جاء 6980
الشركات 6979
اعي 6978
العزيز 6976
الاقتصادية 6974
بالع@@ 6973
قتل 6969
النباتات 6968
العمال 6964
الخي@@ 6960
مرك@@ 6960
1989 6958
لًا 6958
غان 6956
الصيفية 6954
اط 6953
بذلك 6952
الشرطة 6947
لاف 6946
يعرف 6945
ثية 6933
اللو@@ 6928
تنظيم 6928
؟ 6924
دز 6923
الحر@@ 6916
مخت@@ 6913
تلا@@ 6912
سو 6911
انات 6905
للت@@ 6901
لوس 6896
سكي 6894
ويات 6890
ولكنه 6889
تشكل 6886
ويُ@@ 6882
انتخابات 6877
of 6873
اللجنة 6873
توماس 6870
3@@ 6869
سلة 6868
ديفيد 6866
يته 6866
لهذه 6865
يكي 6865
لاحق 6864
وظ@@ 6864
بحث 6863
مسؤ@@ 6863
ولين 6862
يع 6856
ماني 6855
اض 6854
مساحة 6844
الأسرة 6841
اند 6839
الأوروبية 6822
الجهاز 6822
بالح@@ 6822
هاب 6820
علا@@ 6816
تية 6815
الجمهورية 6813
جز@@ 6813
خان 6811
أسرة 6806
1988 6804
الإشارة 6799
امل 6791
اعية 6790
الشعبية 6789
واح@@ 6788
بحيث 6787
عمال 6787
اند@@ 6786
وتش@@ 6783
ديل 6780
حه 6779
مدى 6779
يكا 6774
بريطانيا 6773
سانت 6771
بغداد 6768
منتصف 6768
الطريقة 6765
ائق 6753
روب 6751
سلام 6747
العلماء 6745
إجراء 6744
تشكيل 6740
زن 6738
معينة 6732
أعلنت 6729
لن 6725
يخ 6725
الور@@ 6724
خدم 6722
كيف 6722
إي 6717
فهو 6712
تين@@ 6711
المدن 6709
سوس 6707
1984 6704
أهمية 6703
فصل 6702
مرات 6701
تب 6699
لصالح 6699
السادس 6697
يعني 6697
ولت 6696
بنسبة 6695
تسمى 6691
خد@@ 6690
الخامسة 6686
المتح@@ 6685
فهي 6683
الإنتاج 6681
200@@ 6680
ربة 6676
فلسطين 6675
تبلغ 6673
ليات 6672
الموج@@ 6671
تظهر 6668
خدمات 6668
شة 6655
الكبيرة 6652
لِ@@ 6651
غر@@ 6649
نها 6649
جري 6646
1986 6643
العلم 6639
يسمى 6637
تحمل 6634
قيد 6633
المسؤ@@ 6632
وقف 6628
40 6624
بعنوان 6624
جار@@ 6623
تأسيس 6615
فير 6615
تس 6612
تولى 6606
لن@@ 6600
politician 6598
الشباب 6597
تنفيذ 6596
تعرف 6590
ظة 6584
بلدة 6581
تنا@@ 6581
قر 6578
تشارلز 6577
كت 6576
الأحداث 6575
رش@@ 6574
هان 6571
الثقافة 6565
ذي 6564
اسمه 6562
حدود 6561
فهم 6560
مهمة 6560
ارع 6554
مين@@ 6553
جات 6548
سوي@@ 6548
صورة 6548
مدر@@ 6546
ارب 6545
أساس 6544
هول@@ 6542
سمى 6538
مته 6537
محطة 6535
بلاد 6534
بيع 6534
منة 6533
أوب@@ 6530
غار@@ 6529
أشكال 6526
مساعدة 6519
ائد 6518
الآخر 6508
جعل 6501
هؤلاء 6501
ماري 6497
فكرة 6496
الواقع 6491
الأسر 6489
1982 6488
عائ@@ 6485
مانية 6484
التابع 6482
يقول 6476
الاخت@@ 6475
صحيفة 6467
يناهز 6455
نقاط 6443
دراسات 6439
يعود 6434
1979 6433
امات 6432
ندية 6423
رض@@ 6417
عل 6412
أوك@@ 6407
القديم 6401
المعروف 6401
عز@@ 6401
فضل 6398
يظهر 6398
أغنية 6397
1987 6390
ألف@@ 6390
يها 6387
فرد 6385
سري@@ 6384
البرنامج 6381
تأسست 6379
المحيط 6374
يؤ@@ 6373
باد@@ 6366
المالية 6364
وكاتب 6362
يَّة 6359
المباراة 6357
الإسلامي 6348
وبين 6348
الا 6340
تمكن 6340
ودية 6339
نوا@@ 6337
نان 6336
1948 6331
المحكمة 6329
بِ@@ 6329
رف@@ 6324
شعر 6324
1985 6322
علاقة 6319
1945 6317
تَ@@ 6313
المصري 6311
أحداث 6305
السلام 6297
بخ@@ 6296
طر 6292
امه 6283
واج@@ 6283
متعددة 6282
القص@@ 6278
بم@@ 6277
غالبًا 6277
منية 6267
الأقل 6266
المادة 6261
كوب@@ 6258
ظه@@ 6257
فن@@ 6253
14@@ 6251
المخت@@ 6247
دان@@ 6246
واسعة 6246
مهم 6245
زيد 6240
لس 6240
دخ@@ 6235
هير@@ 6234
مز 6228
ّل 6223
البيضاء 6221
مبي@@ 6220
يحتوي 6210
للش@@ 6209
1970 6205
توفير 6205
مجموعات 6202
قض@@ 6200
الخدمة 6199
الهواء 6198
رجال 6185
ينغ 6182
إدار@@ 6181
نه 6181
بدون 6178
ظر 6178
كار 6178
إم 6177
رد 6176
قائد 6172
افع 6169
الشرقي 6167
تونس 6166
بنفس 6164
أهداف 6163
الأنواع 6157
الأص@@ 6154
معلومات 6154
الأبيض 6153
يصل 6153
ومة 6151
وين 6151
واله@@ 6146
سرطان 6145
فتح 6141
الإعلام 6138
متها 6132
ونسبة 6132
جرة 6130
جمي@@ 6130
واشنطن 6130
الطلاب 6125
الأحمر 6122
1967 6121
التاريخية 6121
جام@@ 6115
جد 6114
اش 6113
البشرية 6113
ورا 6112
قق 6105
امين 6104
تكن 6101
الحالي 6098
دول@@ 6094
ذهب 6093
المعد@@ 6090
ريين 6086
القوة 6085
وير 6085
وحمل 6083
ضي 6082
سُ@@ 6079
ألي@@ 6078
1983 6075
ائه 6075
جب@@ 6075
ستان 6073
سما@@ 6073
مير 6070
جا 6066
حض@@ 6066
التقليدية 6063
ذية 6055
قا 6054
الأمراض 6052
بَ@@ 6048
والق@@ 6047
الـ 6046
المجال 6046
طبي@@ 6040
نظر 6038
لأنه 6034
باللغة 6031
الشع@@ 6030
فير@@ 6030
يوسف 6019
المستوى 6015
الفنية 6014
فول@@ 6014
ظ 6010
غا 6004
وهم 5999
الإدارة 5995
جزر 5993
عظ@@ 5989
فيد 5982
نُ@@ 5979
ربية 5974
الثانوية 5971
أربع 5969
ناب@@ 5968
النهاية 5967
غل@@ 5967
ملكة 5964
الأخير 5959
لبريطانيا 5959
نسخة 5958
مد 5955
ستي@@ 5949
قرا@@ 5949
محاولة 5947
انس@@ 5946
1981 5945
الدراسة 5944
تحول 5943
وأن@@ 5943
المنش@@ 5941
مكان@@ 5936
الشخص 5934
المتوسط 5934
السنوات 5933
عديدة 5933
ماس@@ 5933
التهاب 5932
دهم 5932
إيران 5931
الغرب 5929
عَ@@ 5925
زات 5924
وأيرلندا 5923
الحكومية 5921
شخص@@ 5921
وائية 5920
البشر 5915
حسين 5915
سياسة 5914
! 5913
ابي 5911
النظ@@ 5904
بنية 5902
واي 5901
فل 5897
القاهرة 5896
القصة 5895
لور@@ 5894
بقيادة 5882
قُ@@ 5882
الثامن 5879
ازات 5878
هية 5876
مسل@@ 5872
بشأن 5856
بيانات 5856
قلي@@ 5856
حب 5854
ابية 5853
ضغط 5852
مدن 5851
الرعاية 5846
تغيير 5846
العل@@ 5845
طروادة 5843
دمشق 5842
السلطان 5841
تركيا 5840
الاع@@ 5839
كنيسة 5837
سلا@@ 5836
قاد@@ 5836
الماضي 5833
إطلاق 5832
جير@@ 5832
الجنسية 5826
الاقتصاد 5825
ملة 5824
بعضها 5823
ولى 5822
دوا 5821
نر 5817
الرواية 5814
واع@@ 5813
مسي@@ 5809
البيئة 5806
الكويت 5805
+ 5804
زين 5801
بالس@@ 5797
ومؤ@@ 5792
سواء 5788
مياه 5787
الفضاء 5786
داف@@ 5785
ئية 5782
وع 5782
السياسة 5780
قياس 5779
للغاية 5778
P@@ 5774
سار@@ 5774
الاحترافية 5771
12@@ 5767
المل@@ 5763
وافق 5758
شار 5753
اكتشف 5752
تزال 5749
ائع 5739
رى 5737
لز 5734
مثال 5733
يمي@@ 5731
4@@ 5729
ارها 5729
كث@@ 5726
النفس 5722
شاعر 5720
تشار@@ 5714
1974 5711
بيه 5711
الخدمات 5705
سميث 5703
نز 5701
تمل 5697
نيو 5697
رفض 5696
طلا@@ 5696
اعد 5691
1975 5687
زر 5686
يتعلق 5686
الكتب 5684
1978 5683
جعل@@ 5679
دبليو 5679
ثورة 5677
سعيد 5677
مكتب 5676
1976 5675
جدا 5674
ربي 5674
أَ@@ 5673
كه 5673
يمكن@@ 5670
فيلد 5669
يج@@ 5667
اللون 5666
فرو@@ 5663
انت 5657
سياسية 5656
تابعة 5654
أط@@ 5653
المتعلقة 5649
ويتم 5649
الطفل 5647
مم 5646
الكلية 5643
السابع 5641
ناف@@ 5641
حل@@ 5637
تبا@@ 5634
بون 5627
ساب@@ 5627
ربع 5624
الأوسط 5622
بوا@@ 5620
شهادة 5619
يدة 5617
التجارة 5615
الت 5614
اليهود 5614
أوس@@ 5613
َّ 5610
الثامنة 5609
بالإنجليزية 5609
خلايا 5607
عرا@@ 5604
الروسية 5600
ادرة 5598
الدرا@@ 5594
نان@@ 5592
1973 5591
باس@@ 5591
عمان 5589
البلدان 5587
ائها 5585
الأفراد 5584
درجات 5580
فعل 5579
والف@@ 5578
انضم 5569
ندا 5566
وذ@@ 5566
مدير 5561
الطبيعي 5555
جب 5553
الموسيقى 5552
خفض 5551
شغل 5549
فرق 5549
المنظمة 5545
بهذا 5545
الرومانية 5529
نتائج 5529
نمو 5529
اجات 5526
قطاع 5522
يكية 5518
الأمريكيين 5516
الطائرة 5514
ليست 5513
الأعلى 5512
والعشرين 5512
زب@@ 5507
نام@@ 5504
قطع 5497
حال 5496
لاحقًا 5489
ولكنها 5486
بدا@@ 5485
طب 5484
عصر 5482
لول 5482
وُ@@ 5480
ديات 5478
بد 5477
او 5472
أجهزة 5471
الأكاديمية 5471
الساعة 5470
باست@@ 5467
ورت 5467
ومح@@ 5464
نقص 5463
عليهم 5453
فائ@@ 5452
لَ@@ 5448
مملكة 5445
وق 5445
يزيد 5445
جوا@@ 5443
دواوير 5439
الأردن 5438
صلة 5436
1972 5432
هان@@ 5427
طائرة 5426
واض@@ 5425
فس@@ 5423
الولاية 5422
الزواج 5421
المشروع 5420
حملة 5420
أمراض 5419
القدرة 5414
الرحمن 5402
العمليات 5401
اهر 5399
وانتخب 5398
الشعر 5395
العثمانية 5390
رز 5388
حرارة 5383
أساس@@ 5382
الرياضية 5381
السوق 5381
المرضى 5380
موت 5380
تدري@@ 5376
خطر 5371
طالب 5371
حدوث 5368
لر 5368
الأعضاء 5365
البرازيل 5362
الضغط 5358
ميد 5356
باشا 5354
تسجيل 5354
سلو@@ 5351
المعروفة 5348
مجتمع 5347
لبنان 5345
الأي@@ 5342
عكس 5340
لائ@@ 5337
موسيقى 5337
الفن 5336
برة 5336
60 5334
الجنسي 5334
المكسيك 5332
الطرق 5331
أجزاء 5329
مِ@@ 5328
تبر@@ 5327
غر 5327
كريست@@ 5322
ثاني 5313
قرر 5313
سكو 5311
النه@@ 5310
1968 5304
الآثار 5304
ده@@ 5303
مسجد 5302
كتابه 5300
جبال 5292
الهي@@ 5291
لش@@ 5290
1960 5288
هب 5287
يَ@@ 5286
1977 5284
باح@@ 5281
عمله 5274
عداد 5269
تتضمن 5266
تقنية 5261
ران@@ 5261
والن@@ 5260
خمس 5257
H@@ 5255
الأفلام 5255
البع@@ 5255
وقعت 5253
1971 5252
C@@ 5252
تطور 5252
اقة 5246
مالية 5243
تاج 5242
يونايتد 5237
جذ@@ 5234
مفهوم 5233
كوك@@ 5231
راب 5229
لوب 5229
النوادي 5228
تقد@@ 5226
عادةً 5222
هند@@ 5221
روف 5214
إنج@@ 5213
العص@@ 5212
لون@@ 5212
ليا 5210
الزي@@ 5206
وبي 5206
سيد 5203
آثار 5202
تتكون 5202
تمث@@ 5200
العسكري 5199
صالح 5198
هات 5195
إيه 5193
متح@@ 5193
رغ@@ 5192
ودة 5191
صاحب 5185
فرض 5184
متا@@ 5184
تقريبًا 5182
التأ@@ 5181
ترض 5176
الهدف 5175
الدكتور 5174
ريق 5174
ارض 5170
يزال 5169
سه@@ 5168
1969 5164
بطريقة 5162
1964 5158
بالن@@ 5158
كاب@@ 5157
صف 5154
خل 5152
السيد 5146
ّر 5144
إم@@ 5142
النووي 5140
رَ@@ 5139
مو 5139
سلم 5138
مشاركة 5138
” 5135
المسلسل 5134
المعهد 5132
وه 5131
تدريب 5130
صد 5130
الجانب 5129
ريف 5129
نيين 5127
السورية 5126
افية 5125
the 5124
المنزل 5121
وأصبح 5120
يط 5119
عاً 5118
الوحيد 5117
بالف@@ 5115
تطبيق 5115
سد 5113
العدد 5112
D@@ 5111
نو 5109
بوس@@ 5106
وعندما 5101
يض@@ 5099
تذ@@ 5098
يران 5098
ومي@@ 5095
000 5092
جيل 5092
غي 5092
ونات 5090
موظ@@ 5089
مير@@ 5085
s 5084
اكتشاف 5084
إصدار 5083
والمع@@ 5081
الأل@@ 5078
كب 5076
إنه 5074
وممثل 5073
ائب 5071
ساعة 5067
لفة 5067
الا@@ 5066
المهنية 5066
تول@@ 5066
فع@@ 5064
انظر 5060
1963 5058
الصينية 5049
معرفة 5047
ذه@@ 5046
ريتشارد 5046
قصيرة 5046
الحالية 5043
تث@@ 5043
مبار@@ 5043
ابع 5040
جري@@ 5039
N@@ 5037
ربط 5035
نواب 5033
بموجب 5032
تعود 5031
مود 5030
حك@@ 5029
مطار 5029
تعتمد 5028
وغير 5026
سور 5025
زت 5020
حياتها 5016
1950 5010
آخرين 5005
السيطرة 5005
اون@@ 5005
طه 5004
مقارنة 5004
سلطة 4995
البرا@@ 4994
صنع 4994
ضاء 4994
رر 4993
لاب 4991
اء@@ 4990
القدس 4989
الأساسي 4988
إر@@ 4987
هير 4987
اثنين 4986
كلا 4985
توس@@ 4983
لديه 4983
إير@@ 4982
النار 4982
النقطة 4982
مجرد 4980
امرأة 4979
شرف 4979
حماية 4977
S@@ 4976
ونصف 4973
ابل 4972
عود 4972
اختبار 4968
أكد 4967
الأدب 4963
العصور 4957
برغ 4954
مصدر 4954
ساهم 4952
اكتش@@ 4951
محامي 4950
سبق 4949
القرآن 4947
واد 4947
شن 4946
الأصل 4945
كتاب@@ 4943
مني 4940
فإنه 4938
ءات 4937
قصر 4936
فو 4935
تسبب 4934
جرى 4933
ربما 4933
وحد@@ 4933
الحيوية 4932
الآخرين 4928
فًا 4927
الإغريق 4926
ترف 4926
الهند@@ 4923
بدلاً 4923
والس@@ 4923
قت@@ 4921
الشي@@ 4913
فان@@ 4913
تكنولوجيا 4912
الإصابة 4909
بذ@@ 4907
1962 4906
الثقافية 4902
خة 4902
تقد 4901
أسط@@ 4900
الحص@@ 4900
الجنس 4899
هنا 4899
المحور 4898
أنظمة 4892
ماسة 4892
داخ@@ 4891
نح@@ 4890
آنذاك 4887
المركزية 4887
كيلومتر 4887
جنب 4884
تز 4883
ظم 4883
فرنسية 4883
نس 4882
تاب@@ 4879
عاصمة 4879
مارك 4879
شت@@ 4878
مالك 4877
صدي@@ 4876
ئي 4872
احة 4870
العائلات 4868
وزي@@ 4868
وبات 4866
1965 4865
الثلاثة 4865
رياض@@ 4863
الرسمية 4860
ائدة 4858
جد@@ 4855
ونا 4854
&#124; 4846
ويبلغ 4846
G@@ 4845
إل 4845
المبكرة 4842
شية 4841
الذكور 4839
1956 4837
النقل 4837
البناء 4834
السوفي@@ 4834
الفرقة 4833
إست@@ 4832
اختيار 4831
وصلت 4829
تة 4824
هور 4824
الأسود 4823
عزلة 4822
الإل@@ 4820
لار@@ 4817
بك 4816
وقع 4815
صد@@ 4812
شح 4809
تسل@@ 4808
تاح 4807
ينو 4803
اليابانية 4801
حقق 4801
* 4796
القوى 4796
توزيع 4796
رعاية 4794
فلا@@ 4794
انها 4793
خطوط 4792
بتاريخ 4788
العالي 4787
نائ@@ 4785
تحليل 4783
مواقع 4776
طاقة 4775
وعية 4774
المشاركة 4773
الإنجليزي 4770
السبب 4768
العنف 4766
بري 4765
يسمح 4765
ادا 4764
زها 4764
يعتقد 4764
حدي@@ 4763
الاقتصادي 4762
وفقا 4762
كش@@ 4761
مادة 4761
مليار 4760
المنتخب 4759
والغ@@ 4758
أسترالي 4756
جور@@ 4755
قيام 4755
الدور 4751
انج@@ 4749
البح@@ 4748
وخاصة 4746
زال 4743
مدرب 4742
اور 4741
متحف 4741
مرت 4741
مهرجان 4741
روز 4738
بنا@@ 4737
ريح 4736
إما 4734
القائمة 4733
مربع 4732
تميز 4727
لديهم 4726
1@@ 4725
المؤتمر 4725
السلة 4722
المصطلح 4722
M@@ 4719
مصادر 4718
ءة 4717
اسة 4716
صنا@@ 4714
السلطات 4709
الصناعية 4708
الممكن 4707
تصوير 4706
تكوين 4705
قدرة 4705
الشيوخ 4704
العائلة 4704
وج 4702
المحلي 4701
امن 4701
لكنها 4701
سيس 4700
النمو 4699
1958 4698
الجغرا@@ 4698
مؤتمر 4696
مرور 4696
المعل@@ 4695
الشمالي 4693
مدار 4693
آسفي 4691
السكاني 4690
دخول 4690
طع 4690
صات 4688
روما 4687
ملعب 4686
أسس 4684
حز@@ 4684
ريس 4684
الدر@@ 4682
العرض 4678
نسي@@ 4675
تج 4673
B@@ 4669
السودان 4667
جوزيف 4667
قاء 4667
• 4667
مس 4666
خذ 4665
يتكون 4665
يغ@@ 4665
وتم@@ 4663
سليمان 4661
إص@@ 4660
تقييم 4660
الحقوق 4659
1966 4658
العلاقة 4654
نع 4654
يرو 4654
المدنية 4653
خر 4653
متز@@ 4653
ليب 4652
ومات 4652
سها 4651
كُ@@ 4649
ريب 4647
انتشار 4646
لز@@ 4643
مواد 4642
F@@ 4641
الزوج@@ 4641
بسرعة 4641
تعزيز 4641
أت@@ 4638
الفلسطينية 4638
جن 4638
النهائي 4634
لس@@ 4634
كثيرة 4632
ستخدام 4631
T@@ 4629
cricketer 4629
ثق@@ 4629
تشر 4628
كز 4628
نائب 4628
1961 4627
ليف 4626
سج@@ 4625
خز@@ 4622
إصابة 4621
رفع 4621
يبدو 4618
السوي@@ 4617
ديه 4617
الته@@ 4615
صغير 4615
المال 4614
والي 4613
أبناء 4607
كيم 4605
A@@ 4604
سري 4604
قبل@@ 4604
الإج@@ 4603
نون 4599
صوت 4596
يان@@ 4595
راتيجية 4594
نموذج 4592
طرف 4591
مستويات 4589
الديمقراطية 4587
بيتر 4587
5.@@ 4582
والاست@@ 4582
اسمها 4580
200 4578
R@@ 4576
وراء 4576
المسجد 4575
دث 4573
المعركة 4571
كوك 4569
كد 4567
إدوارد 4566
سيل 4565
كوريا 4565
الـ@@ 4563
500 4562
The 4554
وكالة 4554
الكه@@ 4553
أنَّ 4549
ذت 4547
لاع 4543
خارجية 4542
أعماله 4541
الفق@@ 4539
بينها 4535
شعار 4535
فصيلة 4535
تجاوز 4534
أطلق 4529
هدف@@ 4529
مدريد 4528
قًا 4526
المصادر 4524
الفرق 4522
قَ@@ 4521
إطار 4518
أسماء 4517
برلين 4514
سيناريو 4510
مستشفى 4509
اده 4508
هاي@@ 4507
الإص@@ 4506
مسافة 4506
ونيا 4503
كورونا 4502
أبرز 4501
ناش@@ 4501
خالد 4496
العهد 4495
اها 4492
عامل 4492
منح@@ 4491
الزراعة 4490
القيادة 4490
حس@@ 4488
ولوجية 4488
النج@@ 4483
تعريف 4483
الذاتية 4482
لفترة 4482
1944 4481
محمود 4478
وبعض 4477
برية 4476
قبيلة 4476
موق@@ 4476
املة 4475
فض 4474
للع@@ 4474
الولادة 4473
تعني 4473
إلي 4472
نار@@ 4470
وهذه 4470
سعى 4469
1949 4467
الجه@@ 4465
يتها 4465
سه 4464
ّن 4464
1947 4462
سوى 4462
هات@@ 4458
الخليج 4456
دقيقة 4454
80 4453
ائن 4453
أمير 4452
اهد 4452
زواج 4452
المزيد 4448
قف 4448
زوجته 4443
وتُ@@ 4441
ولوجيا 4441
تغي@@ 4440
معل@@ 4439
جدًا 4438
الشبكة 4437
نشا@@ 4437
ولو 4436
ليلة 4435
1946 4432
معالجة 4432
لمحافظة 4430
أرض 4428
بورغ 4427
أعم@@ 4426
تشي@@ 4425
عملت 4423
يرًا 4423
يمثل 4421
تحدي@@ 4418
الجنوبي 4417
قرى 4416
الطعام 4415
الاستقلال 4414
بوي@@ 4413
بهدف 4412
ويا 4410
الجوي 4405
حالياً 4405
خوان 4402
التعداد 4401
بالر@@ 4400
جراء 4396
ذر 4396
صار@@ 4396
L@@ 4395
جين@@ 4395
بعين 4394
لعبة 4393
A 4390
بجامعة 4390
فرع 4387
الروسي 4386
بُ@@ 4386
أنجلوس 4384
ؤون 4384
يد@@ 4381
المؤسسات 4380
أقدم 4376
المجموعات 4373
موسى 4373
بز@@ 4372
لفات 4371
الضوء 4368
ينز 4367
التط@@ 4365
ميزة 4364
الإمام 4363
هد@@ 4362
1940 4357
جماعة 4357
بمدينة 4356
علوم 4356
للحصول 4356
التصميم 4355
جاج 4354
حمل 4353
أكاديمية 4352
اليمنية 4350
تحرير 4350
ارًا 4349
مراكش 4346
الحد 4344
1941 4342
صلاح 4339
الملكي 4337
الهيئة 4337
خراج 4337
النووية 4336
الوا@@ 4336
رابطة 4336
الست@@ 4332
بصورة 4332
قيل 4331
هار 4331
الأصلية 4330
الطبقة 4330
عون 4330
1939 4329
افات 4329
اعتم@@ 4328
انس 4328
تعيين 4328
للص@@ 4328
تعليم 4327
سمح 4327
35 4325
المستخدمة 4325
الاح@@ 4323
خلف 4323
أسلوب 4319
التحكم 4317
ساع@@ 4315
الصحي 4314
لكي 4314
شارع 4313
وجدت 4313
للعمل 4311
1959 4309
1957 4305
“ 4305
أدت 4303
ترك@@ 4302
الأغ@@ 4298
الشخصيات 4291
ثات 4290
الإمبراطور 4289
كوي@@ 4288
اللح@@ 4286
الشري@@ 4284
سف@@ 4283
سور@@ 4283
1955 4281
شرة 4278
الوحدة 4277
البرامج 4276
قطر 4275
نشرت 4274
قضية 4273
ونظ@@ 4273
تأث@@ 4272
دس 4271
جغرافيا 4270
الإمارات 4267
ففي 4267
المناخ 4266
عسكرية 4262
كاف@@ 4262
القدر 4260
عان 4260
footballer 4258
الهندية 4258
راف 4257
ومي 4256
ايد 4255
كيلو@@ 4252
برج 4249
تاون 4249
يعتمد 4248
المؤقت 4246
نات@@ 4246
هجوم 4246
انتهت 4243
المدر@@ 4242
قوانين 4241
تقدي@@ 4240
دام 4239
طان 4238
واة 4236
وشارك 4236
ضات 4234
لد 4233
للج@@ 4231
الوضع 4229
بنى 4228
الاستخدام 4226
أثر 4224
النفط 4222
إح@@ 4221
بحسب 4219
القرار 4218
القسم 4217
الني@@ 4217
طلاب 4216
ومع@@ 4216
توفر 4215
اءات 4214
العثور 4214
النظرية 4214
رمز 4213
1954 4212
التركية 4212
وّ@@ 4212
سباق 4211
نط@@ 4211
الحاكم 4208
مور 4205
تختلف 4204
زه 4203
الرابعة 4201
تدخل 4200
اكت@@ 4198
الات@@ 4197
مناف@@ 4197
اكمة 4193
1952 4192
تجاه 4192
روة 4191
مدي@@ 4191
وبلغ 4191
الح 4188
الرق@@ 4188
عدام 4187
سرعة 4185
وح 4184
كيفية 4182
قري@@ 4181
الحال 4180
الرجل 4174
لاعبة 4172
المريض 4169
بيئة 4168
بلغت 4165
E@@ 4164
حاول 4164
غلا@@ 4164
وتو 4164
يعيش 4162
اليونانية 4161
زوجها 4161
استخدم 4160
النبي 4160
بينهم 4160
صن@@ 4160
إث@@ 4158
لوك@@ 4158
توم@@ 4157
هاج@@ 4156
كشف 4155
يحمل 4155
الهندسة 4154
الصوت 4153
المتع@@ 4153
تقرير 4153
غور@@ 4151
كمية 4151
النز@@ 4150
زان 4147
تجمع 4145
المطلق 4142
منز@@ 4142
آن 4140
الأهلية 4140
اليين 4139
فاء 4139
إخراج 4137
تلق@@ 4134
رحلة 4132
النشاط 4131
يتح@@ 4131
قلب 4128
محددة 4128
المسلحة 4127
ثقافة 4126
الإنسانية 4125
الحمل 4125
بنت 4124
برلمان 4123
فور 4123
معين 4122
آخرون 4120
زراعة 4119
رئي@@ 4117
ذوي 4114
فأ@@ 4114
قلعة 4114
فاف 4113
الاتصال 4111
المعرفة 4109
روي@@ 4108
يمية 4106
شرا@@ 4103
إحصائيات 4101
الجما@@ 4101
خاص@@ 4100
وص 4097
رسالة 4096
روي 4096
الكندي 4093
للق@@ 4092
الطائرات 4084
لمح@@ 4084
الطبيعة 4080
الكر@@ 4080
تعيش 4080
زون 4080
تاريخية 4079
طلاق 4077
الدقيقة 4076
قرب 4075
ماد@@ 4074
باكستان 4071
ّم 4071
عناصر 4069
القمر 4067
الأد@@ 4066
الدماغ 4065
المشتري 4063
ْ 4063
تغير 4062
خلاف 4061
ومنها 4060
واجه@@ 4055
الصي@@ 4053
زوج@@ 4053
للاست@@ 4052
البيئية 4050
يمة 4050
بالفعل 4047
كيل 4047
والخ@@ 4047
1943 4046
التصوير 4045
اهرة 4044
تؤدي 4044
الإسباني 4043
جزءًا 4043
الفصل 4040
نيات 4040
احتف@@ 4039
امها 4039
قدر@@ 4039
الطيران 4036
عبة 4036
توق@@ 4031
الدعم 4027
قدر 4022
الأصلي 4021
بور 4020
تمد 4020
وعين 4020
in 4019
تسم@@ 4019
مشار@@ 4014
ملح@@ 4012
مهاج@@ 4012
لاحظ 4011
تشغيل 4010
الإيطالي 4007
ثانية 4007
ياب@@ 4007
John 4006
حمل@@ 4006
مسر@@ 4006
أراضي 4005
الأم 4005
المرتبة 4002
أيرلندا 4001
بحر 4001
نشأ 3999
حاليًا 3997
طوله 3997
العش@@ 3996
انخفاض 3996
ويت 3995
الفنون 3994
الطر@@ 3991
عاد@@ 3991
1953 3990
متنوعة 3990
أبر@@ 3989
الفار@@ 3988
ديم 3988
الحفاظ 3987
منزل 3987
الب 3986
الملا@@ 3985
فَ@@ 3985
الأسلحة 3982
مكافحة 3981
ُّ@@ 3979
كانون 3978
فرنسي 3977
أصول 3974
طري@@ 3973
لط@@ 3973
هن@@ 3973
الضر@@ 3972
المثليين 3972
دته 3971
شن@@ 3971
شرطة 3970
أغاني 3969
الخط 3968
تؤ@@ 3968
دوية 3968
علاقات 3968
لأنها 3968
يطلق 3968
وط 3965
and 3963
رؤية 3963
ضعف 3963
إج@@ 3961
آر@@ 3960
كتي@@ 3960
تجارة 3959
خرى 3957
طبقة 3957
السكانية 3956
ولون 3956
70 3953
براون 3953
لتون 3953
ديو 3952
النهائية 3951
البلدة 3950
السفر 3950
العناصر 3950
خطة 3948
1942 3947
الأز@@ 3946
اللغات 3945
1951 3944
عج@@ 3944
راج@@ 3942
ة.@@ 3941
فيف 3940
آلاف 3936
السوفيتي 3935
شير 3934
معاهدة 3934
هج 3934
رس 3933
سك 3933
مح 3933
الرقم 3931
بلة 3930
الكيميائية 3929
قليل 3927
بعضهم 3924
يصبح 3924
ائم 3922
هيل 3922
انق@@ 3921
ماث@@ 3921
ستخد@@ 3920
O@@ 3919
هذ@@ 3919
اور@@ 3917
دارة 3917
فقة 3915
القيام 3914
الكون@@ 3914
قدمت 3914
آي 3911
يرات 3911
جاك 3908
اول@@ 3907
شو 3907
عنوان 3904
تاريخ@@ 3902
مارتن 3902
كاس@@ 3900
مى 3899
فيديو 3898
حلب 3897
المسرح 3895
تفاعل 3895
وممثلة 3894
التخ@@ 3893
زوجة 3892
ويست@@ 3892
بهذه 3891
شيو@@ 3890
يّ 3889
ساك@@ 3888
أغلب 3886
ضيف 3886
ّف 3884
دود 3882
ترج@@ 3881
الجرا@@ 3880
معروف 3879
الخلية 3878
الناحية 3878
مواجهة 3878
أساسي 3877
بدء 3877
تناول 3877
زر@@ 3877
الزراعية 3876
حضر 3873
خلق 3872
فعل@@ 3871
مناصب 3871
هُ 3870
الأولية 3869
32 3868
الاحتلال 3868
تنظ@@ 3868
كمال 3868
مقر 3866
اعتق@@ 3865
الكار@@ 3865
والج@@ 3864
وليد 3864
قوا@@ 3863
الانتق@@ 3862
يقصد 3861
السري@@ 3858
غار 3858
نجاح@@ 3856
ّي 3856
90 3855
ترجمة 3854
ابنة 3853
سوية 3853
اللعبة 3850
وسجل 3850
شهد 3849
البرلمانية 3847
راي 3847
مجموع@@ 3847
أمي@@ 3846
إد@@ 3846
ولعب 3846
الجليد 3842
المرجعية 3841
جاه@@ 3840
كير@@ 3840
أعط@@ 3839
الحض@@ 3839
الاب@@ 3838
النتائج 3837
تاي@@ 3836
الصحي@@ 3835
1936 3834
اربة 3834
ثنائي 3834
بالج@@ 3833
محرك 3832
مول 3831
باح 3829
هج@@ 3829
العوامل 3828
القبائل 3828
بمثابة 3828
نف 3827
الم 3826
تحويل 3826
التأثير 3825
طين 3825
لب@@ 3825
محكمة 3823
y 3822
ستخدم 3822
أطفال 3821
أنّ 3820
والمج@@ 3820
صار 3818
عاما 3814
بالكامل 3813
كاملة 3812
وصول 3809
ارس 3807
سرا@@ 3806
التمييز 3805
ألماني 3804
شف@@ 3804
البيض 3803
الواقعة 3800
وحصل 3800
تلقى 3798
النسخة 3797
انته@@ 3797
بالغ@@ 3797
فري 3797
التعل@@ 3796
الذاتي 3796
للسيدات 3794
بكثير 3792
كارل 3792
قط 3791
أداء 3790
موجودة 3788
حساب 3787
طرة 3787
الوث@@ 3786
رئاسة 3786
ولقد 3786
ؤ 3785
ويعتبر 3785
بقية 3784
بيان 3784
شباط 3783
حيات 3782
الجوائز 3781
سال 3777
لوي 3777
طق 3775
الفني 3773
قوى 3773
إلغاء 3772
الأحياء 3772
لقى 3769
تقلي@@ 3768
وجه@@ 3768
الإر@@ 3767
تفع 3767
تمثيل 3766
التج@@ 3765
فلكية 3765
البول@@ 3764
اليا 3764
مقاومة 3764
الفرد 3762
شارات 3762
الأدوية 3759
ًّا 3758
القانونية 3756
لإقليم 3755
ينت@@ 3755
مجالات 3754
الإسرائيلية 3753
حاكم 3753
المواقع 3751
الإسرائيلي 3750
التدريب 3750
العين 3749
تجربة 3748
لقي 3747
موس 3747
المهمة 3746
انع 3746
القرى 3744
العض@@ 3741
السعودي 3740
جونز 3740
أخر 3739
الإناث 3737
الغر@@ 3735
روح 3731
سلطان 3723
مج 3723
يرون 3722
غز@@ 3721
أكيد 3720
واصل 3720
2.@@ 3719
الخارج 3719
الوق@@ 3718
شراف 3718
والتح@@ 3718
الموارد 3717
بيروت 3717
كيمي@@ 3717
بسي@@ 3716
حلقة 3716
العقد 3714
الإسبانية 3712
مدارس 3712
المشا@@ 3710
روز@@ 3707
الأبحاث 3704
الزمن 3704
1920 3702
متلازمة 3701
تصبح 3699
الكويكبات 3697
جما@@ 3696
دليل 3696
راتي@@ 3696
البص@@ 3695
طوال 3695
مبنى 3695
ضل@@ 3692
السع@@ 3691
الإست@@ 3689
لشركة 3687
ّه 3687
شيكاغو 3686
المذ@@ 3684
ذكر@@ 3684
سائ@@ 3683
موج@@ 3683
الإض@@ 3682
عضوًا 3682
الملحق 3681
صب 3679
حام@@ 3678
المؤسسة 3677
تيني 3677
لص@@ 3677
اليهودية 3676
الصور 3675
كيا 3672
استمر 3670
يث@@ 3670
فقال 3669
الفيديو 3668
النطاق 3668
ّد 3668
البشري 3667
النش@@ 3667
ينيا 3665
أسب@@ 3664
ينغ@@ 3663
إنس@@ 3662
ممارسة 3662
أست@@ 3660
بولاية 3660
المسل@@ 3659
جدي@@ 3659
وتن@@ 3659
استخدامها 3658
تان@@ 3656
تفسير 3656
علام 3656
المنتجات 3655
المشتركة 3654
السفن 3653
جمال 3652
الكاثوليكية 3651
لذا 3651
عى 3650
ليين 3649
300 3648
فشل 3647
فوز 3647
ظروف 3646
مصطفى 3646
جداً 3645
أصغر 3644
فته 3644
وكي 3644
الأعراض 3643
الغذائية 3643
خت 3643
مرد 3642
ملايين 3642
نظم 3642
التصويت 3641
مراكز 3641
x 3640
سلالة 3640
سعود 3639
وحدات 3639
0@@ 3638
قول 3638
معروفة 3638
مشاكل 3635
201@@ 3633
دَ@@ 3633
ميز@@ 3633
ومست@@ 3631
وقام 3630
طويل 3628
فيات 3628
هندسة 3627
استمرت 3626
شاء 3626
اعتب@@ 3625
المجاورة 3625
ديان 3625
كنت 3625
مسرحية 3625
وض 3625
انتخ@@ 3624
كه@@ 3621
مايكل 3621
الف 3620
وريا 3620
ذة 3619
اليونان 3617
سفر 3617
ضر 3617
روم 3616
مشيخات 3616
ساب 3615
اتفاقية 3614
السويد 3614
قوية 3612
كبار 3612
والط@@ 3612
توس 3610
نظرًا 3610
جسم 3608
درب 3608
الورا@@ 3607
طبيعة 3607
سرية 3605
زمن 3604
صرف 3603
بلا 3602
باي 3601
ينه 3601
تحسين 3600
معها 3599
مباريات 3598
التعاون 3591
الدستور 3591
أنش@@ 3590
ابنه 3590
عاش 3590
البلد 3589
سيما 3589
جاك@@ 3588
ائح 3587
سلاح 3583
حًا 3580
خض@@ 3578
حج@@ 3576
شعبية 3576
زار 3573
فكان 3573
45 3572
أض@@ 3572
ائلة 3572
خاض 3572
سارة 3571
النس@@ 3570
كويكب 3570
الأخ@@ 3569
البرية 3568
فيل@@ 3568
ويع@@ 3568
65 3565
التك@@ 3564
طان@@ 3564
مديرية 3563
نم@@ 3562
بعينيات 3561
قواعد 3561
محل 3561
ولاعب 3557
الموت 3556
ضح 3556
لندي 3556
نزالا 3555
وائل 3555
الجان@@ 3554
الكتابة 3554
مصري 3554
وبر 3551
وسط@@ 3551
تأسس 3549
أري@@ 3547
السلا@@ 3546
منش@@ 3546
وسيلة 3546
الجزي@@ 3545
صر@@ 3545
فتح@@ 3544
زو 3543
احتي@@ 3542
كولومبيا 3542
عند@@ 3541
متع@@ 3541
قوم 3540
يح 3537
طار 3535
جونسون 3534
نوات 3533
تيك 3532
الساحل 3531
انيين 3531
تأليف 3530
قامة 3530
نشاط 3530
الأغنية 3529
المسيحيين 3529
تبدأ 3528
نع@@ 3528
خري@@ 3527
الاحتف@@ 3524
الشام 3524
مويل 3523
الأور@@ 3522
تكساس 3522
حيل 3522
طاء 3522
عبد@@ 3522
لندية 3522
فز 3521
التحرير 3518
ويلز 3517
تزوج 3515
كمة 3515
يْ@@ 3515
تسمية 3514
تقسيم 3514
كام 3514
مراقبة 3514
وعدد 3513
1930 3511
ةِ 3511
اضطراب 3510
نمية 3510
وسع 3510
رتبة 3509
وبي@@ 3509
شل 3508
بولندا 3507
كتلة 3507
ليكون 3507
موضوع 3507
ميت 3507
الإنج@@ 3506
الطيور 3506
دولية 3504
قاب@@ 3504
كالي@@ 3504
ّا 3503
أنفسهم 3501
سيطرة 3501
قبائل 3501
مبر@@ 3500
يعانون 3500
المركزي 3499
وأصبحت 3499
المنافسة 3498
تام@@ 3498
حمض 3498
ساحة 3498
بلية 3497
كا@@ 3497
البرتغال 3496
النجوم 3496
روض 3496
نوب@@ 3496
يدي 3496
ضى 3495
الحق 3492
إسباني 3491
الأك@@ 3490
وإلى 3490
تقليل 3488
شف 3485
ماريا 3485
مرو@@ 3485
الحي@@ 3483
ويل@@ 3483
فيلي@@ 3482
البحرين 3481
الإعلان 3480
حدة 3479
الأرجنتين 3478
دراسته 3478
السينما 3477
بـ@@ 3477
النخ@@ 3476
وفة 3476
الخلا@@ 3475
درو 3474
المتحف 3473
خلف@@ 3473
رئيسي 3473
محترف 3473
الحديد 3472
الوحيدة 3471
مشاركًا 3470
سس 3468
كاث@@ 3468
التطور 3467
رم 3467
1938 3466
اتل 3466
وتي 3466
اليم 3465
توى 3465
ستين 3465
وفا 3465
ّى 3465
الداخلي 3462
ماي@@ 3461
1933 3459
عرض@@ 3458
افظ 3456
مداره 3456
الجلد 3455
بيد 3455
نساء 3455
لله@@ 3453
بكر 3452
مواسم 3452
والد 3451
يرية 3451
حف@@ 3450
التنمية 3449
طاق@@ 3449
العثماني 3448
سال@@ 3447
السين@@ 3445
بقي 3445
وإن 3445
وتعتبر 3445
تضمن 3444
سبعة 3444
علامة 3444
واخت@@ 3442
العودة 3440
ومنذ 3440
الرياضي 3439
1937 3436
الحجم 3436
رؤ@@ 3436
المنظمات 3435
تشرين 3435
رُ@@ 3434
الأسماك 3433
الكل@@ 3433
القيمة 3432
جها 3432
الأخلا@@ 3430
الجزائرية 3429
مراجع 3429
القناة 3427
قليلة 3426
الفعل 3424
طالب@@ 3424
ميم 3423
وزن 3423
تخرج 3422
كباقي 3422
مشكلة 3422
انتقلت 3420
يرى 3419
العالية 3418
توني 3417
واجه 3417
المساعدة 3416
القتال 3414
تمامًا 3414
وخلال 3414
التحق 3413
الحجر 3413
الشعبي 3413
اللغ@@ 3413
عظم 3413
نيا 3413
تصر 3412
المجتمعات 3411
الحاجة 3409
الكهربائية 3408
راع 3408
الانق@@ 3407
التمثيل 3407
فرانك 3407
الدورة 3406
ينيين 3403
بال 3400
W@@ 3399
صل@@ 3399
أز@@ 3398
الته 3397
ظاه@@ 3396
الصحافة 3394
يمر 3394
الإطلاق 3392
للأطفال 3392
للسي@@ 3391
وإداريًا 3391
الرئ@@ 3389
عزل 3389
فاق 3389
نجم 3388
1.@@ 3387
ولوجي 3387
تتميز 3385
ميد@@ 3385
واجد 3385
الاتصالات 3384
يب@@ 3384
الثلا@@ 3383
بث@@ 3383
ومغ@@ 3382
جح 3379
سوم 3379
الجنرال 3378
جريدة 3378
مستقلة 3377
الترا@@ 3375
ذك@@ 3375
رصده 3374
حُ@@ 3373
للمرة 3371
موض@@ 3370
الدار 3369
للط@@ 3369
199@@ 3368
القصر 3368
ضافة 3368
عمره 3368
فرط 3364
ائط 3363
السرطان 3363
السيارات 3363
تبة 3363
يلا 3362
نيوزيلندا 3360
والدها 3360
عهم 3359
غزو 3359
هرة 3359
الار@@ 3358
دوا@@ 3356
سعد 3356
ثين 3355
لاغرانج 3355
الثقافي 3354
ــ@@ 3354
الجامعات 3353
المقاومة 3352
حال@@ 3352
العراقية 3349
المرتبطة 3347
a 3346
روج 3346
ونغ 3346
تسمح 3343
التقنية 3342
الهندي 3342
بحرية 3342
القضاء 3341
منا 3341
عوامل 3339
سيارة 3338
بوا 3336
1918 3335
الناتج 3334
يبدأ 3334
والر@@ 3333
الكريم 3332
الأساس 3330
انتقال 3330
أرا@@ 3329
ثناء 3329
مكتبة 3329
الأصليين 3328
السجن 3327
وتر 3327
الكاتب 3326
يقدم 3326
أوغ@@ 3324
إجمالي 3324
إف 3322
الروماني 3322
الإلكترونية 3321
الخص@@ 3321
درة 3321
آر 3320
تبع@@ 3319
خطط 3319
ديك@@ 3319
سلطنة 3319
مساع@@ 3319
وعمل 3319
تعديل 3318
سوا 3318
بعدما 3317
ثان@@ 3317
علن 3317
التز@@ 3316
المسي@@ 3316
الحمض 3312
الحرة 3311
جزء@@ 3307
شهدت 3304
ويكون 3304
طفل 3303
الحم@@ 3302
ورو 3302
1935 3296
أصدر 3296
الفلسفة 3296
الحملة 3294
صيف 3293
لمدارات 3293
اتية 3291
واش@@ 3291
لتحديد 3290
33 3289
احية 3289
المبنى 3289
صنف 3289
يتين 3289
لمداره 3288
أسباب 3287
التعين 3287
ّت 3286
ذن 3285
لته 3283
فيليب 3282
التواصل 3281
MPO@@ 3280
تتم 3280
نيل 3280
هى 3280
باع 3279
الجنود 3278
ميز 3278
إمكانية 3276
أحد@@ 3274
تدفق 3274
وتوفيت 3272
التشريعية 3271
القوانين 3271
يضم 3271
الحسن 3270
طًا 3270
وأخ@@ 3270
إسماعيل 3269
دعى 3267
السوري 3265
باقي 3264
يمات 3261
ينت 3261
الصورة 3260
شد 3260
الدكتوراه 3258
زيارة 3257
غرفة 3257
اللاتينية 3255
بالرغم 3255
الوزن 3253
غول@@ 3253
القومية 3252
يشمل 3252
الاشتراكية 3251
سيكون 3251
فاس 3251
الكائنات 3249
البنية 3248
لفت 3247
الظروف 3246
العراقي 3246
منت 3243
عقب 3242
الحدي@@ 3238
ديدة 3238
قبول 3238
الكربون 3237
التعبير 3236
المحيطة 3236
جع 3236
يتع@@ 3236
المستخدم 3235
وظيفة 3235
الروا@@ 3233
علية 3233
سكوت 3232
سفينة 3231
القضايا 3230
المار@@ 3230
ريم 3230
القومي 3229
المنز@@ 3229
المقدس 3227
مسرح 3226
الحين 3224
رسم 3224
كلو@@ 3223
استق@@ 3222
الجر@@ 3221
الحمراء 3220
قب 3220
رئيسية 3217
هولندا 3217
والمؤ@@ 3217
طبق 3216
يتي 3214
المستقبل 3212
اول 3212
للعلوم 3210
وبدأ 3209
وته 3207
وره 3207
يسون 3207
وهي@@ 3206
1931 3205
استعمال 3205
ونش@@ 3205
الرابطة 3204
نجاح 3204
إعلان 3203
وهكذا 3203
ويوجد 3203
K@@ 3202
وعلم 3202
تقنيات 3201
قيقة 3200
وفية 3200
العصبية 3199
تشي 3198
وأر@@ 3198
أصحاب 3196
الرك@@ 3196
تبط 3196
عمو@@ 3196
ودي 3196
الحديدية 3192
ساعد 3192
كثافة 3192
تقريبا 3190
1929 3188
الغاز 3188
مراحل 3188
1934 3186
بلغ@@ 3185
إلكترو@@ 3184
بقى 3183
نجد 3183
حظ@@ 3182
تبادل 3181
الأنظمة 3179
التركيز 3179
ضابط 3179
البكتيريا 3177
حَ@@ 3177
ضع@@ 3176
سمي 3175
صحفي 3172
ميات 3172
الرح@@ 3171
راز 3169
يتضمن 3169
الحقيقي 3168
كجزء 3167
ليصبح 3167
نوعة 3167
20@@ 3166
ذه 3166
قصير 3166
سلط@@ 3165
طها 3164
يوب 3162
الأربعة 3161
الخارجي 3161
بعي@@ 3161
وائ@@ 3161
أنا 3160
كافة 3158
الفح@@ 3157
انتهاء 3157
واريخ 3157
استح@@ 3156
الحكومي 3156
الموض@@ 3156
هول 3156
البلا@@ 3155
بعض@@ 3155
غان@@ 3155
معاد@@ 3155
ينبغي 3155
ميناء 3154
القاعدة 3153
تمتلك 3152
توم 3152
مظ@@ 3151
النمسا 3149
ثا 3149
ستان@@ 3148
المستشفى 3147
نشر@@ 3147
S 3145
استخد@@ 3145
ساو@@ 3145
الفنان 3143
ثمانية 3142
راس 3141
طبيب 3140
تجارية 3139
دُ@@ 3139
الاغ@@ 3138
وبية 3138
تعامل 3137
هلاك 3137
كوفيد 3136
الخل@@ 3135
المدى 3135
الوحدات 3135
إس@@ 3134
الكلمة 3134
يفة 3132
ءً 3131
الطبي 3131
غير@@ 3131
C 3130
الفل@@ 3130
ستيف@@ 3130
يجعل 3130
ترتيب 3129
ضت 3129
ملي@@ 3129
يول@@ 3129
آي@@ 3128
أوق@@ 3128
الثمان@@ 3128
الإيطالية 3127
أكسيد 3126
العب@@ 3126
نوا 3126
القطاع 3125
خلفية 3121
مجة 3120
النفسي 3117
بالذ@@ 3117
أبو@@ 3116
الجز@@ 3116
تاين 3116
تخصص 3116
صيب 3115
إند@@ 3114
درج 3114
شقي@@ 3114
إزالة 3113
درو@@ 3112
V@@ 3110
التسمية 3110
اولة 3110
باستثناء 3109
كيين 3109
اصل 3107
وأيضا 3107
اللاعب 3106
طرح 3106
الحي 3105
ذها 3105
أكاد@@ 3103
المدني 3103
سليم 3102
ناق@@ 3102
المتك@@ 3100
وبا 3100
الكث@@ 3099
لاك 3099
ملت 3099
نصر 3098
ريض 3097
تلعب 3096
حرية 3096
ً@@ 3095
الاحتي@@ 3093
الد 3093
يقرب 3092
الأجهزة 3091
وتقع 3090
24@@ 3089
القد@@ 3087
باط 3087
غية 3087
مائية 3087
معايير 3087
2م 3086
ندر 3086
غون 3085
كسي@@ 3083
ادها 3082
خش@@ 3081
تتراوح 3080
المطاف 3077
اظ 3076
1922 3074
I@@ 3074
سلات 3071
عاش@@ 3071
استخدامه 3070
الملكة 3070
كوس@@ 3070
ألبوم 3069
أماكن 3069
الوج@@ 3069
400 3068
تدور 3068
وتشمل 3068
المقاطعة 3067
جاب@@ 3067
تري 3066
كوين 3066
بحيرة 3065
طوي@@ 3065
الرئي@@ 3064
توب@@ 3063
حن 3063
رق 3063
اقتصاد 3062
درالي 3062
التعليمية 3058
شخصيات 3058
ابق 3055
خصائص 3055
ضرورة 3055
النهر 3054
ولذلك 3053
سائر 3051
التعامل 3048
المسرحية 3047
معظ@@ 3047
وجود@@ 3047
الأسباب 3044
الكرة 3044
المحافظة 3044
تناف@@ 3044
شعب 3044
مكة 3042
الجبل 3041
جامع 3039
لعبت 3039
ريال 3038
الأفريقية 3037
فار 3036
ويًا 3036
يستطيع 3036
الرأس 3035
أنط@@ 3033
ائفة 3033
نَ@@ 3033
وجهة 3033
الحقيقة 3031
ياس 3031
ائيات 3029
ياباني 3029
عمار 3028
وجامعة 3028
الصد@@ 3027
بطل 3027
ريه 3027
عسكري 3027
بيب 3026
ناف 3026
الثلاث 3025
ناصر 3025
نتج 3025
دونالد 3023
تبع 3022
البطولات 3021
ارين 3018
ميس 3017
الهجرة 3016
عثمان 3016
وغيرهم 3016
النصف 3015
حدد 3015
تكلفة 3014
تنق@@ 3013
خص 3013
طبق@@ 3013
تعاون 3012
ملاكم 3012
منتج 3012
اتا 3011
شعب@@ 3011
الصغير 3010
الحية 3009
الكامل 3009
المباني 3009
جم@@ 3009
كس@@ 3009
توي 3008
قوس 3008
الناش@@ 3007
1928 3005
المسيرة 3002
بيلة 3002
وتف@@ 3000
يكرو@@ 2999
الهر@@ 2997
1919 2996
de 2996
أسر@@ 2996
عمه 2995
الحادي 2994
والتعليم 2994
السر@@ 2993
جيد 2992
الأماكن 2991
السفينة 2991
القائد 2991
باد 2990
فيين 2990
موسيقي 2990
رقام 2989
مجموع 2989
تهدف 2988
العصبي 2987
الصراع 2986
انتخاب 2986
ترح 2986
صول 2986
قاط@@ 2985
القلعة 2984
شرح 2984
علاق@@ 2982
برات 2981
جلة 2981
كبيرًا 2980
أعداد 2979
مقتل 2979
الأصول 2977
المؤس@@ 2976
إنها 2975
الدموية 2975
البرتغ@@ 2974
الج 2974
عامين 2973
قاد 2973
ارك 2970
أظهرت 2969
اطي 2968
مباشر 2968
الحرية 2966
حيوانات 2966
كونه 2965
تهر 2964
الجمهور 2963
يحيى 2963
ستيفن 2962
اقتصادية 2961
أعراض 2960
نوف@@ 2960
الدائرة 2959
لبعض 2959
الشيوعي 2957
اقات 2956
المري@@ 2956
للأمم 2956
المتج@@ 2955
تال 2954
يرا@@ 2954
أنشطة 2953
الفوز 2953
سَ@@ 2952
ناية 2952
يدعى 2950
منظ@@ 2949
السريع 2948
ينتج 2948
الصحراء 2947
صفات 2947
ويد 2947
سياس@@ 2945
واستمر 2945
اتجاه 2944
التوا@@ 2944
والعلوم 2944
شاه@@ 2942
السك@@ 2940
اجة 2939
راض 2939
أت 2937
قضايا 2937
الأدبية 2936
الطف@@ 2936
قع 2936
مالي 2935
الأهداف 2934
تصاب 2934
مزي@@ 2934
1924 2933
رون@@ 2933
موسكو 2933
مؤس@@ 2932
تصنيع 2931
خوسيه 2930
الرحلة 2926
عوا 2925
وآ@@ 2925
ورها 2925
ريان 2923
جنة 2922
نهائي 2922
هُ@@ 2922
أبطال 2921
الطلب 2921
كم@@ 2921
أجريت 2920
الجبهة 2919
التجارب 2918
تصدر 2918
1932 2917
اطة 2917
بقاء 2915
إضافية 2914
تتح@@ 2914
ساعات 2914
موند 2914
وند 2914
زع@@ 2913
نظيم 2913
فازت 2912
ملية 2912
طت 2911
آب@@ 2910
رسمية 2910
فه@@ 2910
النموذج 2908
الواحد 2907
الأداء 2906
الحماية 2906
جرت 2906
فعال 2906
يكون@@ 2906
بشدة 2905
كونها 2905
يلية 2905
منتجات 2904
اعلات 2903
بينهما 2903
مؤلف 2903
اللازمة 2902
سيطر 2902
شمل 2901
34 2900
وكي@@ 2900
دخلت 2899
إض@@ 2898
أقصى 2897
الشاعر 2897
1م 2895
لد@@ 2893
مم@@ 2893
أستاذ 2890
الموسيقية 2890
خف@@ 2890
السلسلة 2889
الفئة 2889
بارك 2889
بدي@@ 2889
باي@@ 2886
زيم 2885
لتها 2885
اشترا@@ 2882
البابا 2882
فيز 2882
الغذاء 2881
فلم 2881
مجمع 2881
0.@@ 2880
الإدارية 2880
كَ@@ 2879
المائية 2877
المنتج 2877
لوك 2877
نائي 2877
مساه@@ 2876
الرياضيات 2873
J@@ 2872
صدرت 2872
التسع@@ 2870
اصر 2869
حا 2868
ديف 2868
لجميع 2867
1921 2866
الأسنان 2866
عمة 2866
ويم 2866
التشري@@ 2865
برز 2865
نائية 2862
الحب 2860
للك@@ 2860
أصدرت 2857
البري@@ 2857
دست@@ 2857
نوبل 2857
وخ 2856
ويين 2856
الجدول 2855
1923 2854
ددة 2854
التل@@ 2853
باعتبارها 2853
النفسية 2851
ضا 2851
باك 2850
والمست@@ 2850
انتهى 2849
ترا 2849
تركي@@ 2849
زب 2849
وتص@@ 2849
تنفي@@ 2848
ظات 2847
فيفة 2847
خليج 2846
دعي 2846
الدست@@ 2844
غب 2844
وبر@@ 2844
وش 2844
أمر@@ 2843
باع@@ 2843
فرانسيسكو 2843
للفنون 2843
انض@@ 2842
ثه 2842
عالم@@ 2842
الإلكتروني 2841
واضحة 2841
وبذلك 2841
نب 2840
العموم 2838
عرب 2838
الأنشطة 2837
جز 2837
وسام 2837
وسي 2836
مركب 2835
يره 2835
البقاء 2834
حها 2834
وسية 2834
يأتي 2834
بكل 2833
سيم 2833
75 2832
بح 2832
تدمير 2832
تقدير 2831
ساء 2831
التعلم 2830
يتي@@ 2830
اخ 2828
يرجع 2827
36 2826
i 2825
تنتج 2825
وحيد 2825
1917 2824
الاجتماع 2823
الدخول 2823
ونها 2823
اثر 2822
كلها 2822
كوا@@ 2822
نقاذ 2822
الأسترالي 2821
الفيروس 2821
النحو 2821
توج@@ 2821
جاز 2821
سقوط 2821
مري 2821
الأمثلة 2820
علمية 2820
يلة 2819
استطاع 2818
الغالب 2818
بيك 2818
كاست@@ 2818
للمست@@ 2818
السج@@ 2817
القديس 2817
للغ@@ 2815
جودة 2814
قطعة 2814
ثقافية 2812
قوق 2812
واقع 2812
المهاج@@ 2811
سوء 2811
التنفيذي 2810
الكي@@ 2809
1000 2808
جول@@ 2808
التنظ@@ 2807
فارس 2807
مناسبة 2807
أقيمت 2806
فلسط@@ 2805
us 2803
صبح 2803
المباشر 2802
لاز@@ 2802
لث 2802
عملها 2801
ريت 2800
سبا@@ 2800
37 2799
ساحل 2799
وعدم 2799
كتش@@ 2798
خلي@@ 2797
فاهيم 2797
وظائف 2797
15@@ 2796
القانوني 2795
معدلات 2795
أبد@@ 2794
ترتبط 2794
ساد 2794
ثًا 2793
بوط 2791
توقف 2791
أولى 2790
الهم 2790
سيين 2790
ملائ@@ 2789
يث 2789
البالغ@@ 2788
قيب 2788
أدب 2787
يعيشون 2787
التجاري 2786
ماية 2785
أجن@@ 2784
استخدمت 2783
سمة 2782
شان@@ 2782
العظ@@ 2781
عيسى 2781
ونه 2781
ارهم 2780
فما 2780
اضي 2779
نسب 2779
جوز 2778
دبي 2778
سلامة 2778
شغ@@ 2778
الكروية 2777
الميلادي 2777
عراق 2777
الدع@@ 2776
وقة 2776
الأخضر 2775
لع@@ 2775
يتم@@ 2775
افتتاح 2772
باول 2772
دوم@@ 2772
سيف 2772
1925 2771
الكت@@ 2771
قيه 2771
العلوي 2770
الاش@@ 2769
جير 2769
واقف 2769
خلص 2767
ويح@@ 2767
تن 2766
دران 2766
عاص@@ 2766
طا 2765
لقت 2765
ائز 2764
الصف@@ 2764
الفرا@@ 2764
ضوء 2764
ازة 2762
ريز 2761
ليو 2760
ستن 2758
صحة 2758
البيت 2757
الشمسية 2756
دستور 2756
ورئيس 2755
إفريقيا 2754
تاب 2754
آرثر 2753
دال@@ 2753
غذ@@ 2753
وكات@@ 2751
أطول 2750
ظاهرة 2750
نًا 2750
فيس 2749
لوحة 2749
الأثرية 2747
التقليدي 2746
عيم 2746
قاع@@ 2746
1927 2745
المنصب 2745
لوية 2744
مساعد 2744
التد@@ 2743
التغييرات 2743
الصيني 2743
القضية 2742
المحر@@ 2742
كونغ 2742
ميخائيل 2742
المصابين 2741
وربما 2741
البلدية 2740
تبقى 2739
الألبوم 2738
جيم 2738
صحيح 2738
إحصاء 2736
بناءً 2736
تركز 2735
حمد 2735
داث 2735
اذ 2734
المحرك 2734
جنوب@@ 2734
اعم 2732
جات@@ 2731
يخت@@ 2731
الأوراق 2730
قاعة 2729
العاملة 2728
بيين 2728
فاي@@ 2727
مرتين 2727
مسار 2727
وفقاً 2727
القض@@ 2726
قادة 2726
أدوات 2725
اللقب 2725
لج@@ 2725
القبض 2724
مهندس 2723
يقو@@ 2723
الاد@@ 2722
التونسية 2722
ثلاث@@ 2722
فقدان 2722
إنش@@ 2721
لاس 2721
born 2720
الأمير@@ 2720
خليفة 2720
ورك 2720
امرة 2719
بق 2719
النح@@ 2718
ذر@@ 2718
مخص@@ 2718
لفين 2717
سلسل 2716
الخمس@@ 2715
الوطن 2715
38 2714
{ 2714
الإعلا@@ 2714
بيري 2714
الموس@@ 2713
زيل 2713
غالبا 2713
اصيل 2712
تركيز 2712
تشري@@ 2712
قصص 2712
انغ 2711
جع@@ 2711
روع 2711
والأر@@ 2711
العظيم 2710
دفاع 2709
منخفضة 2709
الأطباء 2707
ريبة 2707
وإذا 2707
الانتخابية 2706
رسم@@ 2706
حر 2705
الوقود 2704
قلة 2704
المرك@@ 2703
بوم@@ 2703
يُعرف 2703
البيزنط@@ 2702
الحس@@ 2702
فى 2702
طرد 2701
وعند 2700
الإيرانية 2698
بريطانية 2698
داف 2698
جُ@@ 2697
ارتف@@ 2695
الخطوط 2694
قيدة 2694
198@@ 2693
رسول 2693
نشأت 2693
هِ 2693
ينها 2693
16@@ 2692
1914 2692
فظ 2692
يذكر 2692
اردو 2690
اعت@@ 2690
تداء 2690
فتها 2690
لتحقيق 2690
ارض@@ 2689
والتر@@ 2689
أولي@@ 2688
الأصغر 2688
الكبد 2688
بنك 2688
فإن@@ 2688
الفلسطيني 2687
ذاته 2687
شيئ@@ 2687
وهما 2686
يشكل 2686
براء 2685
وأل@@ 2685
سات@@ 2683
سميت 2683
ألمانية 2682
التركيب 2682
التوالي 2682
زوج 2682
سبي@@ 2682
سلحة 2682
فلا 2682
مكن 2682
منط@@ 2682
نمط 2681
ائف 2680
التخص@@ 2680
والدته 2679
ابت@@ 2678
الحج@@ 2678
المفتوحة 2678
توي@@ 2678
رح 2678
رسوم 2677
B 2676
قيين 2676
وأس@@ 2674
البحوث 2673
التربية 2673
المتوقع 2673
الفردية 2672
رن 2671
رين@@ 2671
عربية 2671
وأيض@@ 2671
إصدار@@ 2669
الإجمالي 2669
تتطلب 2669
سابقة 2669
فاً 2669
48 2668
التجري@@ 2668
ساف@@ 2668
قته 2668
الذهبية 2667
لأي 2667
أدي@@ 2666
عتها 2666
حف 2665
قمة 2664
تؤثر 2663
النص 2662
المواطنين 2661
لعدة 2661
المعم@@ 2660
فنان 2660
ويلسون 2660
أشار 2658
بدلا 2658
بمعنى 2658
ديث 2657
معتم@@ 2657
المرة 2656
غام@@ 2656
باش@@ 2655
ابلة 2654
وائي 2654
1926 2653
الكشف 2653
باعتباره 2653
طى 2653
الجبال 2652
P 2650
التربة 2650
الفكرة 2650
سول@@ 2650
شرات 2650
أبحاث 2648
ربات 2648
ساح@@ 2648
ابر 2647
تشكي@@ 2647
عباس 2647
اكي 2646
الأسط@@ 2645
تقول 2645
العلامة 2644
بته 2644
شفيات 2643
فلسفة 2643
اجتماع@@ 2642
اللبنانية 2642
داي 2642
7م 2640
فاد@@ 2640
كوس 2640
اتصال 2639
الحيوان 2639
الأول@@ 2638
المعارضة 2638
شب@@ 2638
الصناعة 2636
ونت 2635
باك@@ 2634
حينها 2634
رِ@@ 2634
55 2633
الملعب 2633
ساه@@ 2633
قاً 2633
ملها 2633
العلا@@ 2632
فرصة 2632
ويض 2630
لاه@@ 2629
لكن@@ 2629
موي 2628
هيو@@ 2628
يكو 2628
اسب 2627
النرويج 2627
بلي@@ 2627
مماثلة 2627
O 2626
التشغيل 2626
الأمريك@@ 2625
اليومية 2625
حقي@@ 2625
مؤسس 2624
شا 2623
المصدر 2620
الأفكار 2619
النبات 2619
ليون@@ 2619
8م 2617
الجيل 2617
الكندية 2617
ذكرت 2617
سابقًا 2617
شال 2616
وامر 2616
التطبي@@ 2614
تابع 2614
الهادئ 2613
الآسيوية 2612
عالمية 2612
الإجراءات 2611
التذ@@ 2611
طيف 2610
يسبب 2610
السلوك 2608
ومج@@ 2608
1912 2607
قدة 2606
الأمور 2605
الكون 2604
فعالية 2604
أسم@@ 2603
جورجيا 2602
ريو 2602
طئ 2602
علامات 2602
لمة 2602
تات 2601
كلات 2601
لاق 2601
وأكثر 2601
وكل 2601
الصلي@@ 2600
توأمة 2600
اعتماد 2599
همة 2599
ٌ@@ 2599
الصحف 2598
إقامة 2597
الحسين 2596
مشاريع 2596
هور@@ 2596
وزراء 2596
جنود 2595
لاي 2595
أشخاص 2594
قوي 2594
وعي 2594
المشاكل 2593
بث 2592
عمدة 2591
وتكون 2591
زمة 2590
لبن@@ 2590
للدولة 2590
خان@@ 2589
داول 2589
الخلفية 2588
الشرا@@ 2588
حكوم@@ 2588
لاد 2588
توفيت 2587
وضعت 2587
بأك@@ 2586
شديدة 2586
ولات 2584
يحصل 2584
عك@@ 2583
مساحتها 2583
زعيم 2582
إشارة 2580
25@@ 2579
العرش 2578
تزيد 2577
ثنائية 2577
وجيه 2577
الذاكرة 2576
الطوارئ 2576
سلوك 2576
طبيعية 2576
قالت 2576
وايت 2575
D 2574
التلفزيون 2571
انتص@@ 2571
الين 2570
ثت 2569
معرض 2569
الأدلة 2568
الحروب 2568
ثرة 2568
الأرضية 2566
المحتمل 2566
للتح@@ 2566
فيق 2563
ممث@@ 2563
ناه 2562
تاد 2561
فحص 2561
ويك@@ 2561
التحليل 2560
فمن 2560
مغنية 2560
المقاطعات 2559
ناس@@ 2559
الفضائية 2558
تيل 2558
فلور@@ 2558
عرفت 2557
هوكي 2557
وأك@@ 2557
واص@@ 2557
ينش@@ 2557
42 2556
ترنت 2556
افر 2555
الأف@@ 2555
رياضة 2555
0م 2554
اناً 2554
غون@@ 2554
النبات@@ 2553
شهرة 2553
جزئ@@ 2552
الكهرباء 2550
الأث@@ 2548
الاختبار 2548
نيك@@ 2548
أحيانًا 2547
العضوية 2547
دتها 2547
سياسات 2546
الأيام 2545
ضرب 2545
جيدة 2544
وصلات 2544
قِبل 2543
أوت@@ 2542
إز@@ 2542
الكتلة 2542
باري 2542
خيص 2542
الأط@@ 2540
E 2539
شاع@@ 2539
يتطلب 2539
السيدة 2538
بلد 2537
بوس 2537
بيلي 2537
قادرة 2536
5م 2534
on 2534
إتش 2534
الكلي 2534
المجالات 2534
الجائزة 2533
آت 2532
تمام 2532
كاي@@ 2532
خبر@@ 2531
اريا 2530
لنا 2530
مقدار 2530
الغابات 2529
ايدة 2528
فيتش 2527
متعدد 2527
إرسال 2526
لإنتاج 2525
موز@@ 2525
الرياض 2524
تشخيص 2524
64 2523
التركي 2523
العمل@@ 2523
مسابقة 2523
الغير 2522
رجع 2522
شبي@@ 2522
6م 2521
William 2521
الإير@@ 2521
الليبرالي 2521
الوفاة 2521
الرباط 2520
كومة 2520
وفاز 2520
يور@@ 2520
3م 2519
التكنولوجيا 2519
الصوم@@ 2519
حدثت 2519
ذاعة 2519
الإث@@ 2518
نك@@ 2518
أولئك 2517
الفيزي@@ 2517
بدء@@ 2516
بلاده 2516
تسع 2516
جهزة 2515
سبع 2515
علاوة 2515
وإي@@ 2515
وطنية 2515
المهني 2513
كريس 2513
مخرج 2513
رت@@ 2512
عادت 2512
للنساء 2512
والمح@@ 2512
ابقة 2511
اختياره 2511
الجل@@ 2511
حقيقة 2511
الأشياء 2510
المنف@@ 2510
صندوق 2510
رئ@@ 2509
الإسك@@ 2508
صية 2508
لتكون 2508
السير 2507
يوش 2507
الجهة 2506
الرئاسية 2506
سمع@@ 2506
التحالف 2505
الحاسوب 2505
النسبة 2505
مبدأ 2505
معد@@ 2505
مقاطعات 2505
عته 2504
196@@ 2503
اقترح 2503
اطير 2502
الاشتراكي 2502
سيتم 2501
ثقاف@@ 2500
غرق 2500
الرأي 2499
السيرة 2499
مغني 2499
نزوي@@ 2498
n 2497
مأ@@ 2497
غزة 2496
كيلو 2496
قان 2495
نيس 2495
وام 2495
يختلف 2495
اشية 2494
آلة 2493
زياء 2493
ليبيا 2492
المركبات 2491
بجانب 2491
معنى 2490
وعة 2489
بدور 2488
تسب@@ 2488
عار@@ 2488
الألمان 2487
طائرات 2487
وراق 2487
يقارب 2487
سكنية 2486
صُ@@ 2486
قص 2485
لحة 2485
بعاد 2484
درك 2484
اللاحقة 2483
تشيلي 2483
مائي 2483
نجة 2483
انسحاب 2482
نجوم 2482
الاهتمام 2481
العذ@@ 2481
تد 2481
اليون@@ 2480
باخت@@ 2480
دانيال 2480
لدعم 2480
رود 2477
ناج@@ 2477
التراث 2476
تقريباً 2476
الاعتراف 2475
نص 2473
السادسة 2472
فرز 2472
المناعة 2471
أساليب 2470
مقدمة 2470
الأسبوع 2469
طل 2469
قار@@ 2469
تيس 2468
حاد@@ 2468
مؤسسات 2468
قوم@@ 2466
نجح 2466
تالية 2465
الحقيقية 2463
راسة 2463
وبعدها 2463
برشلونة 2462
قضاء 2461
متص@@ 2461
القراءة 2460
السن 2459
الأسب@@ 2458
دورًا 2458
مخط@@ 2458
السرعة 2457
صيلة 2457
تمييز 2456
شرك@@ 2456
غوا@@ 2456
كاه@@ 2456
الطبيب 2455
زالت 2455
197@@ 2454
بلوماسي 2454
زرا@@ 2454
لـ@@ 2454
كلارك 2453
وزوج@@ 2453
بورن 2452
نانة 2452
القنيطرة 2451
المؤرخ 2451
دري 2451
يرتبط 2451
البق@@ 2449
اللاعبين 2449
والمعلومات 2449
والمن@@ 2448
وعادة 2448
تتعلق 2447
حديقة 2447
المعر@@ 2446
اني@@ 2446
سورية 2446
التقدم 2445
تأسي@@ 2445
تينية 2445
الفردي 2444
بأي 2444
درسة 2444
ميث@@ 2444
أمريك@@ 2443
الأدنى 2442
ادم 2441
تدريس 2440
كثيرا 2440
إندونيسيا 2439
التفاعل 2439
المضادة 2439
امز 2439
بوسطن 2439
فش@@ 2439
ولاد 2439
الأب 2438
فريدريك 2438
التغذية 2437
دراك 2435
لج 2435
مشرو@@ 2435
شعر@@ 2434
التدريس 2433
وأُ@@ 2433
تباع 2432
تقارير 2432
المساواة 2431
بشر@@ 2431
حفل 2431
لنادي 2431
وليام 2430
ياس@@ 2430
الأولي 2429
الرومان 2429
الضفة 2429
الممتاز 2428
ثابت 2428
الأوس@@ 2427
فيزي@@ 2427
والرابعة 2427
بوجود 2426
دوق 2426
مله 2426
القصيرة 2425
اهتمام 2425
لقة 2425
مثلا 2425
المقابل 2424
الموضوع 2424
جس@@ 2424
الشهير 2423
هيكل 2423
السطح 2421
سويسرا 2421
يجعل@@ 2421
الأمة 2420
الصناعي 2420
مند@@ 2420
موقف 2420
تيال 2419
واضح 2419
الاستي@@ 2418
الوظائف 2418
بالد@@ 2417
أسفل 2416
أنشأ 2416
تمع 2416
كلم 2416
اسكتلندا 2415
الأغاني 2415
يستخد@@ 2414
فذ 2412
باني 2411
وأنه 2411
4م 2410
بوت 2410
تكار 2410
خدمين 2410
سالم 2410
فضاء 2410
قديمة 2410
ابن@@ 2408
لوي@@ 2408
رسمي 2407
منهما 2407
المتب@@ 2406
انتباه 2406
ويعد 2406
الجماعة 2405
تعرض@@ 2405
حظر 2404
صال 2404
كاري 2404
الأشعة 2402
الإسكندرية 2402
نيسان 2402
ومرا@@ 2401
اكل 2399
فورت 2399
لأكثر 2399
هدفًا 2399
عازف 2398
المنق@@ 2396
شبكات 2396
الإم@@ 2395
الطرف 2395
مقاطعه 2395
ملو@@ 2395
مواط@@ 2395
الظه@@ 2394
تبه 2394
هاري 2394
اجتماع 2393
اشتهر 2393
السوداء 2393
المسر@@ 2393
سيلف@@ 2393
لوان 2393
ويه 2393
} 2392
شديد 2392
بالش@@ 2391
سند@@ 2391
احتج@@ 2390
ثم@@ 2390
فلي@@ 2390
أفكار 2389
هتلر 2389
يتميز 2389
التفكير 2388
الابن 2387
الممثل 2387
شعاع 2387
3.@@ 2386
زيز 2386
نيت 2386
بمع@@ 2385
اتفاق 2384
قابلة 2384
لغات 2384
إع@@ 2383
كلمات 2383
الوظي@@ 2381
نج 2381
البد@@ 2380
الليل 2380
المشترك 2380
نظمة 2380
اث 2379
I 2378
يكس 2378
9م 2375
المسته@@ 2375
دما@@ 2375
مري@@ 2375
1910 2374
الباب 2374
دولارًا 2374
رسميًا 2374
توقع 2373
دب@@ 2373
ملكية 2373
ابير 2372
الأموال 2372
تمتد 2372
فيت@@ 2372
كتبت 2372
محتر@@ 2372
وارع 2372
إيجابية 2371
سبورغ 2371
مانويل 2371
الدين@@ 2370
والستين 2370
دج 2369
بحوث 2368
حدو@@ 2368
قدي@@ 2367
ريًا 2366
T 2365
الأه@@ 2365
الإقليمية 2365
قتها 2364
حياء 2363
قراءة 2363
وسر@@ 2363
James 2362
الديني 2362
الليبر@@ 2362
جندي 2362
حركات 2362
الشؤون 2361
تصني@@ 2361
قاضي 2361
الأصوات 2360
ريل 2360
عمرو 2360
الوعي 2359
منظمات 2359
بوب@@ 2358
السود@@ 2357
150 2356
13.@@ 2355
باه@@ 2355
اسات 2354
لاحقا 2354
نبول 2354
يلي@@ 2354
الماجستير 2353
المشاريع 2353
الوجه 2353
صاد@@ 2353
الحلفاء 2352
الحلقة 2352
الطويل 2352
تلفزيوني 2352
ثلاثين 2352
18@@ 2351
اجتماعية 2351
البلو@@ 2351
الحدث 2351
مراجعة 2350
تارودانت 2349
1915 2348
الجامعي 2348
الضرائب 2347
صاح@@ 2347
عمرها 2347
الْ@@ 2346
الدنمارك 2345
رمضان 2345
قرة 2345
منصبه 2345
والتر 2345
غيرها 2344
L 2343
شات 2343
الموجود 2342
براطورية 2341
افي@@ 2340
الزرا@@ 2339
التشخيص 2338
الميث@@ 2338
غالباً 2338
الشتاء 2337
النيل 2337
نعة 2337
تفعة 2336
فإنها 2335
تشبه 2334
التيار 2333
ماساتشوستس 2332
وتي@@ 2332
المقام 2331
فرن@@ 2331
ناث 2331
أصد@@ 2330
البروتين 2330
الجزر 2330
جاكسون 2330
إسلا@@ 2329
التصنيف 2329
وارد 2329
الجزائري 2327
تحاد 2327
فنون 2327
مقبرة 2327
أشعة 2326
الدخل 2326
الرسوم 2326
تجارب 2326
جبهة 2326
سيرة 2326
آذار 2324
الكنائس 2324
ةٌ 2324
لتصبح 2324
النمط 2323
سلا 2323
المحد@@ 2322
المعنى 2322
طراز 2322
فترات 2322
وسلا@@ 2322
أساسية 2321
جاءت 2321
للولايات 2321
التوق@@ 2320
اعتبارًا 2318
البحري 2318
وخسر 2318
التنظيم 2317
وقية 2317
صحي@@ 2316
مرتبطة 2316
لدراسة 2315
الخصائص 2314
بتون 2314
مجيات 2314
اجي 2313
ألا@@ 2312
الكلمات 2312
بسهولة 2312
بنتيجة 2312
الذهبي 2311
تمرات 2311
المدير 2310
الموافقة 2310
خرية 2309
ادر 2308
تمام@@ 2308
جهود 2307
ريش 2307
عر 2307
تدعى 2305
تعليم@@ 2305
العمارة 2304
الكويتي 2304
بقوة 2304
رضي 2304
كسي 2304
نبات 2304
الأطراف 2303
المقدسة 2303
طبيعي 2303
تخذ 2302
غيل 2302
لمنع 2302
ورغم 2301
39 2300
الياباني 2300
الانتقال 2299
المحافظين 2299
الملح@@ 2299
ترشي@@ 2299
خام@@ 2299
لأفضل 2299
an 2298
er 2298
كهرب@@ 2298
مقد@@ 2298
أسود 2297
بلي 2297
خم 2297
وئية 2297
الك 2296
المعايير 2296
روط 2296
محافظ@@ 2296
اقتر@@ 2295
الصيف 2295
صنعاء 2295
واحدًا 2295
أكس@@ 2294
اكا 2294
سعر 2294
والمنا@@ 2294
أسابيع 2293
المغربي 2292
عائلته 2292
فلوريدا 2291
مشوار@@ 2291
المعالجة 2290
منص@@ 2290
احت@@ 2289
بني@@ 2289
العائ@@ 2288
العضلات 2288
مرتب@@ 2288
ويلي@@ 2288
النف@@ 2287
محطات 2287
ألبرت 2286
ابها 2286
صور@@ 2286
الشريف 2285
لإعادة 2285
ائهم 2284
الأجن@@ 2283
هيدرو@@ 2283
تقي@@ 2282
اتخاذ 2281
البريد 2281
مسألة 2281
عضوا 2280
مونت@@ 2280
بوي 2279
ضعي@@ 2278
الذهب 2277
النصوص 2277
الفض@@ 2276
الفيدرالية 2276
الكلاسيكية 2276
تشك@@ 2275
شراء 2275
أين 2274
البكالوريوس 2274
غادر 2274
نور 2274
وست 2274
تايلور 2273
سجلت 2273
ترجم 2272
والز@@ 2272
النمس@@ 2271
تماما 2271
رج 2271
إيجاد 2270
ثالث 2270
هونغ 2270
للحزب 2269
ومنتخب 2269
رسون 2268
ويند@@ 2268
49 2267
التخطيط 2267
نفسي 2267
آد@@ 2266
النقاد 2266
وريين 2266
عيين 2265
قام@@ 2265
والتع@@ 2265
الأردنية 2264
الغلاف 2264
سؤ@@ 2264
شام 2264
الأش@@ 2263
سرى 2263
إثر 2261
روسية 2261
شاه 2261
البنك 2259
للرجال 2259
الكات@@ 2258
سطات 2257
محلية 2257
وعش@@ 2257
غاز 2256
ويقع 2256
التحديد 2255
لاح 2253
95 2252
التض@@ 2251
تسوي@@ 2251
زاد 2251
طُ@@ 2251
الصلة 2250
ضخم 2250
عمرات 2249
فيينا 2249
بيات 2248
الغزو 2247
سكر 2247
وران 2247
الأمطار 2246
الجو 2246
ربي@@ 2246
إجراءات 2245
الكيمياء 2245
الميكان@@ 2245
تطبيقات 2245
حضور 2245
كبي@@ 2245
برتغ@@ 2244
خرة 2243
نجلي@@ 2243
R 2242
الجامعية 2242
القتل 2242
الكام@@ 2242
المسيح 2242
النصر 2242
الهوية 2242
وبدأت 2242
وها 2242
2021 2241
44 2241
أمثلة 2240
أقسام 2239
الناتجة 2239
ڤ@@ 2239
ة- 2238
قون 2238
أرسل 2237
المبكر 2237
ريون 2237
البسي@@ 2235
التاريخي 2235
رأ@@ 2235
1916 2234
تصف 2234
نماذج 2234
هيك@@ 2234
الأجنبية 2233
خوا@@ 2233
فقت 2233
1913 2231
المشكلة 2231
الواق@@ 2231
بلدان 2231
تتألف 2231
دينية 2231
رئيسًا 2231
رته 2231
كير 2231
ناً 2231
وأم@@ 2231
d 2230
آدم 2230
الافترا@@ 2229
المكتب 2229
مصنع 2229
ويت@@ 2229
سلبية 2228
مارات 2228
بند@@ 2227
ناز@@ 2227
ائزة 2226
السط@@ 2226
انح@@ 2226
بريد 2226
تعليمه 2226
كانا 2226
هاء 2226
اعتزل 2225
العاملين 2225
ترى 2225
وعن 2225
ونتيجة 2225
الكثافة 2224
بجائزة 2224
تمر 2224
عودة 2224
فيدة 2224
روك 2222
لوز@@ 2222
اهم 2221
حصول 2221
مؤشر 2221
M 2220
الأنسجة 2220
دوره 2220
تخصص@@ 2219
مشتركة 2219
اوس 2218
قبال 2218
الابتدائية 2217
رمز@@ 2216
سابقا 2216
لاحقاً 2216
مضرب 2216
موضع 2216
وزيع 2216
أخيه 2215
استُ@@ 2215
عراض 2215
ادًا 2214
السوفيتية 2214
ديين 2214
زاوية 2214
ورن 2214
ومية 2214
يعقوب 2214
ومث@@ 2213
amp 2212
دني 2211
فيلادلفيا 2211
إصلاح 2210
بلقب 2210
زايد 2210
كرية 2210
وجيزة 2210
الوا 2209
تهي 2209
ولكن@@ 2209
الهيكل 2208
تربية 2208
التحقيق 2207
طلحات 2207
الرئة 2206
حاج@@ 2206
بعده 2205
دوج@@ 2204
الجميع 2203
بقايا 2203
قررت 2203
اختص@@ 2202
الصدر 2202
رع@@ 2202
ولهم 2202
56 2201
عدا 2201
العام@@ 2200
العمو@@ 2200
انف@@ 2200
تجاه@@ 2199
للمركز 2199
يمور 2199
الخليفة 2198
العم@@ 2198
هزيمة 2198
والعديد 2198
أندية 2197
بلوماسية 2197
طرية 2197
فرج 2197
وسيا 2197
المستوط@@ 2196
الموافق 2196
بمساعدة 2196
صيل 2196
إيق@@ 2195
دمج 2195
فح@@ 2195
محدودة 2195
وعضو 2195
أون@@ 2194
روبر@@ 2194
مائ@@ 2194
تبعد 2193
تحالف 2193
طلاع 2193
للمدينة 2193
195@@ 2192
تلة 2192
ثلاثي 2192
إكس 2191
زف 2191
ممن 2191
الباحثين 2190
القيم 2190
17@@ 2189
1908 2189
41 2189
النتيجة 2189
طه@@ 2189
مترو 2189
الفنانين 2188
غلاق 2188
المستقلة 2187
النجم 2187
تعيينه 2187
دمان 2187
ولف 2187
ٍ@@ 2186
أسعار 2185
ئاب 2185
النجاح 2185
اوضات 2185
جميل 2185
دراجات 2185
قانونية 2185
الإع@@ 2184
المجر 2184
ميون@@ 2184
يوفر 2184
t 2183
بلجيكا 2183
شخاص 2183
فاس@@ 2183
واق 2183
النهضة 2182
فيصل 2182
مكناس 2182
أدلة 2181
دن@@ 2180
قن@@ 2180
وير@@ 2180
السائل 2179
تسجي@@ 2179
السفلي 2178
ماي 2178
زًا 2177
فرت 2177
للمرأة 2177
ابا 2176
الاتحادية 2176
الكمبيوتر 2176
المخاطر 2176
عال 2176
المب@@ 2175
تح 2175
سكا 2175
الكوك@@ 2174
نال 2174
الأشجار 2173
تجت 2173
المنازل 2172
المجلة 2171
اعل@@ 2170
الأجزاء 2170
53 2169
أغراض 2169
المسيحي 2169
آلية 2168
طري 2168
غيرات 2168
كلين 2168
لحقوق 2168
معرو@@ 2168
d@@ 2167
اعتبار 2167
دّ 2167
كتور 2167
وبري@@ 2167
600 2166
الفكر 2166
بيض 2166
فون@@ 2166
كها 2166
الدف@@ 2165
السلو@@ 2164
اليه 2164
مقياس 2164
ينين 2164
أحي@@ 2163
تخزين 2163
حاجة 2163
مستقل 2163
بديل 2162
روسي 2162
والسي@@ 2162
وتعد 2162
تعرضت 2161
الطويلة 2160
جرائم 2160
فريد 2160
يعاني 2160
متق@@ 2159
وبل@@ 2159
ياته 2159
الرسالة 2157
العاشر 2157
القادر 2157
تساعد 2157
رط@@ 2157
فال@@ 2157
الأحزاب 2156
ولل@@ 2156
الأخبار 2155
النازية 2154
جسر 2154
المتعددة 2153
سفي@@ 2153
نيه 2153
والتق@@ 2153
الأسواق 2152
الإنس@@ 2152
الترتيب 2152
يونغ 2152
مئات 2151
مشترك 2151
الأو@@ 2149
وول@@ 2149
ليد 2148
U@@ 2147
أسيس 2147
القاضية 2147
حكومية 2147
مبادئ 2147
ناول 2147
ومو@@ 2147
L4 2146
إِ@@ 2146
54 2145
دودة 2145
ضباط 2145
للقوات 2145
الكحول 2144
بارة 2144
بعثة 2143
ذربي@@ 2143
الشهيرة 2142
الفرعية 2142
القارة 2142
سافر 2142
عاية 2142
للحكومة 2142
معبد 2142
كثيرًا 2141
ماة 2141
ينس 2141
52 2140
الفن@@ 2140
وكتب 2140
المخرج 2139
بحوالي 2138
كدة 2138
ءه 2137
ميلي@@ 2137
X 2136
الاق@@ 2136
الدراسية 2136
المور@@ 2136
كافية 2136
أنطونيو 2135
تزوجت 2135
ديها 2135
معًا 2135
يانا 2135
سرعان 2134
كارلوس 2134
مئوية 2134
رسل 2133
زيرة 2133
أل 2132
انى 2132
مائة 2132
H 2131
الأطلسي 2131
تبين 2130
تصمي@@ 2130
ثها 2130
المخط@@ 2129
كشاف 2129
السياس@@ 2128
انيون 2128
التدري@@ 2127
وبسبب 2127
تستطيع 2126
تفاع 2126
شين@@ 2126
المجموع 2125
حجر 2125
الرياضة 2124
الكاملة 2124
الإذاعة 2123
العظام 2123
وعبد 2123
اتصالات 2122
احتم@@ 2122
مقابلة 2122
اقم 2121
جائحة 2121
متن 2121
اتفاقيات 2120
انًا 2120
تايمز 2120
دام@@ 2120
البوس@@ 2119
التغ@@ 2119
الطبقات 2119
43 2118
أته 2118
أطلقت 2118
أندرو 2118
المهام 2118
دولي 2118
كبيرا 2117
كيز 2117
أب@@ 2116
ألكسندر 2115
ازي 2114
نظرة 2114
استقلال 2113
الأقصى 2113
نيكولا@@ 2113
ئين 2112
سهل 2112
غالبية 2112
كوكب 2112
إدخال 2111
التطبيقات 2111
بحاث 2111
جاي 2111
عنصر 2111
فوا 2111
الفري@@ 2110
المتمر@@ 2110
توح 2110
والذين 2110
العدالة 2109
قيلة 2109
القصص 2108
صعوبة 2108
صفحة 2108
الدواء 2107
ق.م 2107
مبكر 2107
أقرب 2106
ألا 2106
سى 2106
مانشستر 2106
يقل 2106
الأشكال 2105
بلاغ 2105
شت 2105
19@@ 2104
التركيبة 2104
العنص@@ 2104
المكت@@ 2103
الإداري 2102
الدوائر 2102
المجمع 2102
توكول 2102
فتاة 2102
قدره 2102
قس 2102
ابت 2101
اعدة 2101
افترا@@ 2101
السكنية 2101
العقل 2101
علان 2101
ماض 2101
مقرها 2101
الإصلاح 2100
باف@@ 2100
ينا@@ 2099
التونسي 2098
الرقمية 2098
جنيه 2098
قى 2098
ماك 2098
هورة 2098
إنهاء 2096
الجماعية 2096
الجميلة 2096
بابا 2096
دائمًا 2096
ملاح@@ 2096
وزع 2095
ومحمد 2095
ورم 2094
الأبعاد 2093
الرس@@ 2093
اليب 2093
شائ@@ 2093
شيخ 2093
وهات 2093
إدو@@ 2092
الوادي 2091
ايت 2091
ديز 2091
لاحات 2091
وود 2091
ازية 2090
الصوتية 2090
ومخرج 2090
فات@@ 2089
باغ@@ 2088
تنتمي 2088
صيد 2088
وديو 2088
الحوا@@ 2087
ثرو@@ 2087
جًا 2087
قتة 2087
ليك 2087
ماج@@ 2087
إليزابيث 2086
الناج@@ 2086
محدد 2086
دامة 2085
لحماية 2085
85 2084
القائم 2084
يرها 2084
الرحم 2083
السياسات 2083
الكومي@@ 2083
بيرغ 2083
يُعتبر 2083
الصار@@ 2082
سجن 2081
وصح@@ 2081
الباب@@ 2080
سانتا 2080
عضوية 2080
اللواء 2079
بواب 2079
حققت 2079
47 2078
التعرض 2077
القاد@@ 2077
خمس@@ 2077
فاءة 2076
معة 2076
1911 2075
اكس 2075
الجماعات 2075
القضائية 2074
قاموا 2074
واج 2074
جَ@@ 2073
إخ@@ 2072
اكم 2072
قوا 2072
كانية 2072
للعديد 2072
للكريكت 2072
يؤثر 2072
إعداد 2071
المكتبة 2071
سلي@@ 2071
طبقات 2071
° 2070
إغلاق 2070
خي 2070
محركات 2070
مركبات 2070
ةُ 2069
جريمة 2069
مارة 2068
46 2067
ئلة 2067
استي@@ 2067
العثمان@@ 2067
المستقبل@@ 2067
حديث 2067
علانات 2067
ؤدي 2066
السينمائي 2066
تخطيط 2066
تقري@@ 2066
نك 2066
وعالم 2066
المتحركة 2065
لعلاج 2064
العدوى 2063
غاف@@ 2063
كاتبة 2063
1905 2062
أداة 2062
الفيزياء 2062
وضح 2061
والولايات 2060
الحيوي 2059
بيون 2059
ليف@@ 2059
نفو@@ 2059
افتتا@@ 2058
البروتينات 2058
امت 2058
أستاذ@@ 2057
الأكسجين 2057
بفضل 2057
عقود 2057
اللبن@@ 2056
اليمين 2056
حفظ 2055
وثيقة 2055
الحرارية 2054
الصخور 2053
تشاب@@ 2053
جامعي 2053
فرنان@@ 2053
استجابة 2052
القل@@ 2052
المقارنة 2052
خصوصا 2052
يهود 2052
الأمين 2051
برا 2051
عضاء 2051
موريس 2051
الأفريقي 2050
هود 2050
أخبار 2049
قائق 2049
للإحصاء 2049
موافقة 2049
y@@ 2048
اوا 2048
وبحلول 2048
بسيطة 2045
ميين 2045
تراك 2044
والاجتماعية 2044
السيارة 2043
الأفارقة 2041
للجيش 2041
الهولندية 2040
جوانب 2040
يساعد 2040
تحصل 2039
مايك 2039
e@@ 2038
اريس 2038
البالغ 2038
التفا@@ 2038
الثدي 2038
تسعة 2037
تور 2037
كال 2037
ثمار 2036
فنلندا 2036
مجد@@ 2036
الأكاد@@ 2035
عنف 2035
كيت 2035
مجتم@@ 2035
اص 2034
المساحة 2034
X@@ 2033
تيد 2033
حان 2033
ذور 2033
للطاقة 2033
ارته 2032
ارف 2032
الساح@@ 2032
حيم 2032
فيكتوريا 2032
مالا 2032
احات 2031
بارية 2031
تخرج@@ 2031
يقال 2031
12.@@ 2030
سلي 2028
سيرته 2028
لبناء 2028
ملوك 2028
القاطنين 2027
السود 2026
غيير 2026
والدتها 2026
َّا 2026
المركبة 2025
قاسم 2025
أية 2024
القطع 2024
المتص@@ 2024
المستمر 2024
ساي@@ 2024
72 2023
احتلال 2023
نخ@@ 2023
السو@@ 2021
خفاض 2021
لاعب@@ 2021
للكتلة 2021
النقد 2020
تياز 2020
جت 2020
وتست@@ 2020
التغيير 2019
بدلًا 2019
بنات 2019
تجميع 2019
وطة 2019
وظي@@ 2019
أراد 2018
افه 2018
الأند@@ 2018
مركبة 2018
معر@@ 2018
أعد@@ 2017
زيمة 2017
قِ@@ 2017
الرغ@@ 2016
السلع 2016
بروتين 2015
الفرنسيين 2014
الممثلة 2014
جيب 2014
التقارير 2013
الصيد 2013
ضبط 2013
وور@@ 2013
الرب@@ 2012
قرن 2012
وإعادة 2012
التحول 2011
الدفع 2011
تدى 2011
المول@@ 2010
طيلة 2010
غضون 2010
لواء 2010
متم@@ 2010
اطئ 2009
الدما@@ 2009
جعفر 2009
دعا 2009
دوس 2009
شاب 2009
معي@@ 2009
العدل 2008
رأى 2008
للتع@@ 2008
يشبه 2007
أفغانستان 2006
المقرر 2006
قيقات 2006
أوهايو 2005
الأزرق 2005
وُلد 2005
1909 2004
السكك 2004
تضمنت 2003
شب 2003
للمر@@ 2003
ألك@@ 2002
العادية 2002
بريدج 2002
ديش 2002
شيوعًا 2002
يط@@ 2002
الإجه@@ 2001
التنفس 2001
التقي@@ 2000
جهات 2000
57 1999
الرسم 1999
باتجاه 1999
شمس 1999
غال 1999
مشاه@@ 1999
نموذ@@ 1999
الخلي@@ 1998
أقوى 1997
يتمكن 1997
اجتماعي 1996
متط@@ 1996
منفصلة 1996
يشار 1996
تفاضة 1995
تِ@@ 1995
ساس@@ 1995
صباح 1995
الاتجاه 1994
الغذائي 1994
تأتي 1994
وبشكل 1994
اهدة 1993
جمه@@ 1993
نباتي 1992
هوب@@ 1992
ستا 1991
ؤه 1990
كميات 1990
وغرا@@ 1990
الاستعمار 1989
الرياح 1989
دعوة 1989
سار 1989
مرضى 1989
84 1988
عث@@ 1988
التزام 1987
الجس@@ 1987
تراجع 1987
وكما 1987
p 1986
F 1985
الواحدة 1985
الوفيات 1985
بْ@@ 1985
is 1984
المعاد@@ 1984
جذب 1984
زيت 1984
قبلات 1984
مكت@@ 1984
ميلر 1984
ندوق 1984
الطي@@ 1983
تاريخها 1983
تحتاج 1983
ربيع 1983
عرضة 1983
الشائعة 1982
اوف 1982
قابل 1982
أخت@@ 1981
بالب@@ 1981
بالضربة 1981
هارفارد 1981
يمتد 1981
c 1980
التحتية 1980
خري 1980
شارة 1980
التعرف 1979
بدرجة 1979
يومًا 1979
شخصًا 1978
ستيوارت 1977
لسون 1977
الخضراء 1976
رفض@@ 1976
ضائع 1976
كاز@@ 1976
كثرة 1976
مك 1976
ّع 1976
القاضي 1975
صفوف 1975
صي 1975
كيلي 1975
لولاية 1975
أخلا@@ 1974
انفص@@ 1974
سجيل 1974
مثلاً 1974
250 1973
حاول@@ 1973
درائية 1973
رادات 1973
اتب 1972
التحر@@ 1972
الأج@@ 1971
والعمل 1971
إله 1970
العاط@@ 1970
القواعد 1970
بام@@ 1970
معارضة 1970
وقت@@ 1970
المنظ@@ 1969
زع 1968
قرط@@ 1968
زن@@ 1967
أنثى 1966
الإيجاب@@ 1966
انتش@@ 1966
دورات 1966
صفة 1966
كته 1966
ونس 1966
يهدف 1966
الحاج 1965
الغز@@ 1965
بروس 1965
تمي@@ 1965
جانية 1965
سوري 1965
بران@@ 1964
بدو 1963
أطل@@ 1962
الصرف 1962
اسم@@ 1961
الشعوب 1961
المعادن 1961
روايات 1961
مكونات 1961
الأجسام 1960
ديلات 1960
غم 1960
يجري 1960
أوري@@ 1959
مثلت 1959
واحي 1959
القليل 1958
توجيه 1958
طقة 1958
ولاً 1958
الحر 1957
الوح@@ 1957
ثارة 1957
مناه@@ 1957
ومجمو@@ 1957
اتين 1956
السابعة 1956
العلامات 1956
المنط@@ 1956
ارو 1955
الكونغرس 1955
النسب@@ 1955
حافظ@@ 1955
التجربة 1954
الكوا@@ 1954
مؤخر@@ 1954
أصوات 1953
العمي@@ 1953
اليس 1953
لحن 1953
b 1952
المتوسطة 1952
تجه 1952
تشارك 1952
روية 1952
أولاً 1950
بريت 1950
عامر 1950
نشاء 1950
فردي 1949
ذب 1948
طيع 1948
ظهار 1948
وريات 1948
الأسماء 1947
الإقليم 1947
البوذية 1947
الين@@ 1947
طوي 1947
تاف@@ 1946
صحية 1946
أكدت 1945
أوروب@@ 1945
الفلسط@@ 1945
تلال 1945
توحيد 1945
يسجل 1945
الويب 1944
رجح 1944
مساح@@ 1944
اراً 1943
متلكات 1943
التصني@@ 1942
ثلاثية 1942
يّ@@ 1942
بالتعاون 1941
رومانيا 1941
غن 1941
62 1940
التي@@ 1940
الجيولوج@@ 1940
بلاء 1940
بولي@@ 1940
1906 1939
ضاف 1939
كيب 1939
جماعات 1938
هز@@ 1938
المراكز 1937
خطاب 1937
ظلت 1937
المنخفضة 1936
فيهم 1936
وقبل 1936
زاب@@ 1935
لتطوير 1935
ماذا 1935
الله@@ 1934
اليمنى 1934
جامعات 1934
ولوج@@ 1934
القن@@ 1933
بدل 1933
ضيق 1933
شيد 1932
قاط 1932
ندق 1932
المفهوم 1931
عددًا 1931
أثار 1930
اضط@@ 1930
السلاح 1930
تقي 1930
جيا 1930
George 1929
آلات 1929
800 1928
أسو@@ 1928
التلفزيونية 1928
الرومان@@ 1928
شملت 1928
طبية 1928
فروع 1928
للاتحاد 1928
وطات 1928
الألوان 1927
التدخل 1927
التعريف 1927
خمة 1927
عمق 1927
وأص@@ 1927
دائما 1926
زرع 1926
سيات 1926
شجرة 1926
مقار@@ 1926
استخدامات 1925
المهاجرين 1925
كلي 1925
لمجموعة 1925
يحاول 1925
00 1924
إيطالي 1924
المحليين 1924
بالط@@ 1924
سلطات 1924
مجرة 1924
نفسية 1924
أزمة 1923
الآداب 1923
المبي@@ 1923
دوب@@ 1923
سفن 1923
بوصف@@ 1922
ستكون 1922
ارعة 1921
الصلا@@ 1921
شائعة 1921
عالي 1921
58 1920
السماح 1920
العبيد 1920
الغرض 1920
المشاة 1920
المعيش@@ 1920
فيتنام 1920
كوف 1920
لدرجة 1920
وجنوب 1920
وده 1919
قطت 1918
السياحة 1917
حرف 1917
إعطاء 1916
الباكست@@ 1916
الصوديوم 1916
الوسط@@ 1916
بعدم 1916
واجهة 1916
30@@ 1915
استعادة 1915
التسويق 1915
الكرا@@ 1914
كلما 1914
الأوروب@@ 1913
سيًا 1913
والمرا@@ 1913
دائم 1911
ستيف 1911
o 1910
أندرسون 1910
الانتشار 1910
البور@@ 1910
الطالب 1910
العدو 1910
حافظ 1909
حديثة 1909
رال 1909
الجينات 1908
افا 1907
العد@@ 1907
بالخ@@ 1907
وزيادة 1907
أنماط 1906
اللق@@ 1906
المحي@@ 1906
الهيدرو@@ 1906
بساطة 1906
66 1905
إنتاجه 1905
الداخل 1905
الزاوية 1905
السباق 1905
بادة 1905
حوا@@ 1905
وأحي@@ 1905
الاعتبار 1904
انوية 1904
بعيد 1904
ويجب 1904
الأستر@@ 1903
الإله 1903
الثلاث@@ 1903
طاع 1903
اجد 1902
القرا@@ 1902
راضي 1902
عرضه 1902
فال 1902
الأدوات 1901
الحاضر 1901
الخيرية 1901
الموظفين 1901
ظبي 1901
والأربعين 1901
ارتبا@@ 1900
المقدمة 1900
بيل@@ 1900
تدعم 1900
ركة 1900
سير@@ 1900
محاولات 1900
سائل 1899
عدن 1899
تردد 1898
مارسة 1898
مهنة 1898
هاي 1898
قصيدة 1897
أبيض 1896
الإند@@ 1896
السريرية 1896
المائة 1896
يورو 1896
الخز@@ 1895
اعل 1894
تكري@@ 1894
لإنشاء 1894
لتلك 1894
لمدينة 1894
لُ@@ 1894
آب 1893
الاتفاق 1893
الكلام 1893
بصفة 1892
رْ@@ 1892
شون 1892
اليهودي 1891
تموز 1891
شان 1891
لوف 1891
c@@ 1890
نود 1890
نْ@@ 1890
51 1889
اشي 1889
الإمبراط@@ 1889
الحضرية 1889
جناح 1889
راق 1889
المسافة 1888
علمي 1888
لند@@ 1888
هاب@@ 1888
نفس@@ 1887
الاستجابة 1886
جاح 1886
اتٍ 1885
الشديد 1885
دعم@@ 1885
ضه 1885
إسرائ@@ 1884
تفق 1884
نست 1884
1907 1883
المغناطيسي 1883
استن@@ 1882
مخطط 1882
البة 1881
ثار 1881
ارتك@@ 1880
الجناح 1880
بشكلٍ 1880
تيم 1880
طلقت 1880
— 1880
أوكرانيا 1879
ثمان@@ 1879
رئيس@@ 1879
لاخت@@ 1879
والبي@@ 1879
يمتلك 1879
اتخ@@ 1878
جيمي 1878
حصار 1878
قيات 1878
الفم 1877
مهام 1877
1900 1876
اختي@@ 1876
استغ@@ 1876
يصف 1876
يُعد 1876
أغلبية 1875
السماء 1875
مسقط 1875
أنشأت 1874
القريبة 1874
الكوي@@ 1874
تاز 1874
رول 1874
مسيرة 1874
أسماك 1873
أونتاريو 1873
باتريك 1873
حزيران 1873
ضغ@@ 1873
المحاكم 1872
المعدنية 1872
فعلى 1872
البروتست@@ 1871
الحركات 1871
الساب@@ 1871
المخص@@ 1871
مالة 1871
فادة 1870
فيض 1870
منصور 1870
يناء 1870
الجمعة 1869
داخلية 1869
s@@ 1868
خطأ 1867
ويب 1867
7.@@ 1866
إمارة 1866
الجودة 1866
المناسبة 1866
مرمى 1866
86 1865
إذ@@ 1865
أشجار 1864
الروايات 1864
سيمة 1864
وجهات 1864
أظهر 1863
النظم 1863
بقيت 1863
جزائ@@ 1863
سعة 1863
المتط@@ 1862
ماد 1862
التقنيات 1861
الفضل 1861
ميزات 1861
الإصدار 1860
الكيميائي 1860
طوكيو 1860
فريق@@ 1860
لعب@@ 1860
العملاء 1859
بنفسه 1859
الصعب 1858
تفظ 1858
توف@@ 1858
أعقاب 1857
الاحتج@@ 1857
تملك 1857
يشارك 1857
59 1856
الممارسة 1856
تجة 1856
دورا 1856
زالة 1856
يمث@@ 1856
المبادئ 1855
فرص 1855
هري 1855
شريك 1854
طم 1854
المراجع 1853
تشجيع 1853
كريستيان 1853
أرسل@@ 1852
أسست 1852
رسائل 1852
مطلع 1852
71 1851
99 1851
القادة 1851
اليون 1851
ختلف 1851
طرا@@ 1851
متوا@@ 1851
الكهربائي 1850
النقاط 1850
الهاتف 1850
بنحو 1850
غهام 1850
كيميائي 1850
ومق@@ 1850
الأندية 1849
التقد@@ 1849
ضخمة 1849
تمعات 1848
رواد 1848
مستوط@@ 1848
الفقر 1847
ثبت 1847
كثيراً 1847
مؤلفاته 1847
يتان 1847
الحراري 1846
الموسيقي 1846
حصن 1846
قرابة 1846
وغير@@ 1846
وتعل@@ 1845
وغالبًا 1845
أيار 1844
التنفيذ 1844
السنين 1844
كتبها 1844
اختلاف 1843
ارتفاع@@ 1843
نسبيًا 1843
السيوم 1842
الهيدروجين 1842
بالعمل 1842
تطوي@@ 1842
مسا@@ 1842
ميلان 1842
ّب 1842
أعيد 1841
الربيع 1841
المؤلف 1841
بوش 1841
ضيع 1841
1904 1840
63 1840
البيئي 1840
الرئاسة 1840
لعدم 1840
بدوره 1839
تتمتع 1839
المدرب 1838
مكسيكي 1838
الاعتماد 1837
التقلي@@ 1837
المخدرات 1837
وامت@@ 1837
يرلندي 1837
بلان@@ 1836
تركيب 1836
حوض 1836
مدادات 1836
مرش@@ 1836
مناقشة 1836
وذكر 1836
ولهذا 1836
إك@@ 1835
الفيروسات 1833
شكلت 1833
قصد 1833
ميكان@@ 1833
67 1832
تحدد 1832
خطاء 1832
صرا@@ 1832
والدين 1832
استمرار 1831
واط 1831
David 1830
عربي 1830
الأوعية 1829
وأول 1829
بورت 1827
شق@@ 1827
فتاء 1827
وبيا 1827
شروط 1826
الشيء 1825
امتد@@ 1825
دقة 1825
فكانت 1825
لمجلس 1824
خار 1823
أعوام 1822
194@@ 1821
98 1821
الحربية 1821
المشاركين 1821
ديز@@ 1821
ميش@@ 1821
الده@@ 1820
Y@@ 1819
اغو 1819
الاختلافات 1819
تقدر 1819
السفل@@ 1818
الشرعية 1818
المتو@@ 1818
خروج 1818
اخر 1817
منه@@ 1817
استئ@@ 1816
المباد@@ 1816
تخفيف 1816
تيار 1816
حايا 1816
َا 1816
إسحاق 1815
الجريمة 1815
المناخية 1815
ساس 1815
فُ@@ 1815
محاض@@ 1815
مريض 1815
برئ@@ 1814
خسر 1814
الفات@@ 1813
مره 1813
يمت@@ 1813
إسك@@ 1812
الآلهة 1812
تطورت 1812
لإدارة 1812
8.@@ 1811
اضطرابات 1811
الجلي@@ 1811
الوط@@ 1811
للف@@ 1811
استط@@ 1810
الناصر 1810
الوزير 1810
وبط@@ 1810
كينغ 1809
يدخل 1809
الاختبارات 1808
المحتوى 1808
المساه@@ 1808
خوة 1808
شه 1808
المسلمون 1807
الهولندي 1807
طلبات 1807
مقاب@@ 1807
استر@@ 1806
الجراحة 1806
بمعدل 1806
ديب 1806
سيدني 1806
88 1805
أهمها 1805
المرمى 1805
73 1804
الذات 1804
ديس 1804
متف@@ 1804
البريطانيين 1803
الترجمة 1803
للمح@@ 1803
الشهر 1802
سياق 1802
شاشة 1802
مانيا 1802
الاصطنا@@ 1801
المرو@@ 1801
موجود 1801
دورها 1800
سيل@@ 1799
ماس 1799
أرض@@ 1798
انهيار 1798
درا 1798
زين@@ 1798
موية 1798
نغ 1798
واتف 1798
http 1797
انوي 1797
غياب 1797
خرا@@ 1796
للحفاظ 1796
مشابهة 1796
تُعرف 1795
الاستثمار 1794
بلوم 1794
رّ@@ 1794
غلي@@ 1794
افت 1793
الإحص@@ 1793
كًا 1793
الاث@@ 1792
ضمان 1792
وائف 1792
الألي@@ 1791
التشريعي 1791
المراحل 1791
لح 1791
83 1790
المعارك 1790
تهرت 1790
التشي@@ 1789
المباشرة 1789
سنتين 1789
صلاة 1789
مازي@@ 1789
نافس 1789
ادين 1788
الفائ@@ 1788
شيا 1788
علي@@ 1788
بقيمة 1787
مقات@@ 1787
وجين 1786
وقوع 1786
حضارة 1785
وعد@@ 1785
الخمسة 1784
تُستخدم 1784
جود 1784
عضواً 1784
مكون 1784
الشبكات 1783
ترامب 1783
ذين 1783
التقرير 1782
المعاصرة 1782
صرح 1782
مشاهدة 1782
والخدمات 1782
وَّ@@ 1782
أسي@@ 1781
أنشئت 1781
الأسلوب 1781
الريفية 1781
المالي 1781
محمية 1781
تمان 1780
جدول 1780
رياضي 1780
وقيل 1780
الحكومات 1779
كور 1779
مصرية 1779
وإن@@ 1779
وتا 1778
الفلبين 1777
دينام@@ 1777
رأس@@ 1777
سوفت 1777
es 1776
انون 1776
ثابتة 1776
حراسة 1776
نيوزلندي 1776
اقتصادي 1775
خرجت 1775
عاء 1775
N 1774
الثقافات 1774
رأسه 1774
رئيسة 1774
اؤه 1773
اريو 1773
رع 1773
قطار 1773
ويس 1773
داع 1772
يء 1772
أوف 1771
نام 1771
وفد 1771
الأستاذ 1770
رسام 1770
ثانوية 1769
ربا 1769
قطر@@ 1769
ماكس 1769
يعطي 1769
الحرس 1768
الغدة 1768
بعدة 1768
ديون 1768
الانف@@ 1767
متطلبات 1767
وإنما 1767
69 1766
الممث@@ 1766
بز 1766
لوت 1766
ذيب 1765
فإذا 1765
هاد@@ 1765
يتحدث 1765
um 1764
أبن@@ 1764
جراحة 1764
تواصل 1763
توسيع 1763
المطار 1762
تقدات 1762
ليه 1762
ميلا@@ 1762
www.@@ 1761
تاجر 1761
روبن@@ 1761
المبار@@ 1760
المكونات 1760
يعر@@ 1760
1- 1759
الفت@@ 1759
G 1758
الجامع 1758
الأرثوذكسية 1757
العسك@@ 1757
المعمارية 1757
راجع 1757
غور 1757
هامة 1757
تنا 1756
شين 1756
طون 1756
كتبه 1756
ينج 1756
سمية 1755
مرتبة 1755
بإنشاء 1754
الفور 1753
بتت 1753
ديرة 1753
رفي@@ 1753
عسك@@ 1753
موسيقية 1753
Z@@ 1752
\ 1752
بأن@@ 1752
وليامز 1752
يحتاج 1752
باعة 1751
شاركة 1751
وابن 1751
وبد@@ 1751
يده 1751
1901 1750
المحطة 1750
تخت@@ 1750
رقاء 1750
Robert 1749
الحضارة 1749
المثل 1749
تعري@@ 1749
ومد@@ 1749
الأض@@ 1748
الانتهاء 1747
القول 1747
الملوك 1747
قم 1747
ليني 1747
أعظم 1746
الشخصي 1746
نظرا 1746
واب@@ 1746
وفو 1746
الكري@@ 1745
المجتم@@ 1745
المسار 1745
درست 1745
سيارات 1745
ميدان 1745
مسلم 1744
لأسباب 1743
التنفيذية 1742
الفتا@@ 1741
غتون 1741
الشريعة 1740
هنالك 1740
وريد 1740
اقترا@@ 1739
التقسيم 1739
المخابرات 1739
توظ@@ 1739
طاقم 1739
ومحامي 1739
p@@ 1738
أنفاق 1738
الخطاب 1738
دنا 1738
لوصف 1738
ووص@@ 1738
b@@ 1737
حيثُ 1737
منصة 1737
أعمالها 1735
التكلفة 1735
لاحية 1735
120 1734
العقلية 1734
دريس 1734
فردة 1734
للد@@ 1734
ليم 1734
وابن@@ 1734
أحيانا 1733
الأهمية 1733
حذ@@ 1733
مترا 1733
يُعتقد 1733
اجية 1732
الهجمات 1732
ديفيس 1732
سيمات 1732
93 1731
ادق 1731
يعملون 1731
1903 1730
الوكالة 1730
دعاء 1730
كوت@@ 1730
التقى 1729
الوس@@ 1729
بيني 1729
العرقي 1728
ذاك 1728
اللاجئين 1727
النسائية 1727
تاجها 1727
تزل 1727
سمه 1727
لتقديم 1727
مارسات 1727
وقامت 1727
يجيد 1727
يُستخدم 1727
آل@@ 1726
اءة 1726
عبيد 1726
لدي@@ 1726
ونتو 1726
يرس 1726
الأوق@@ 1725
اهتم@@ 1725
عادل 1725
متكر@@ 1725
أحكام 1724
الجهود 1724
سعودي 1724
مبراطورية 1724
يتراوح 1724
أثينا 1723
اعتبر 1723
تطبي@@ 1723
رضا 1723
مؤرخ 1723
متابعة 1723
السكر 1722
ايات 1722
e 1721
الجري@@ 1721
القرون 1721
الورم 1721
كفاءة 1721
to 1720
جنا@@ 1720
كري 1720
11@@ 1719
تجار@@ 1719
وشي@@ 1719
ومان 1719
الصناعات 1718
الموقف 1718
حقيقية 1718
داود 1718
ذاتية 1718
ووضع 1718
الدب@@ 1717
ساو 1717
التقاليد 1716
دِ@@ 1716
قضى 1716
أسبوع 1715
تشف 1715
سحب 1715
يدع@@ 1715
اشة 1714
فنية 1714
نيك 1714
والثقافة 1714
وقتها 1714
الجهد 1713
المتاحة 1713
الاستعمارية 1712
حنا 1712
رشيد 1712
شاهد 1712
الشيوعية 1711
العامل 1711
شام@@ 1711
شح@@ 1711
الأردني 1710
الدعوة 1710
الصغرى 1710
الفتيات 1710
اللاه@@ 1710
كسية 1710
هوارد 1710
إسب@@ 1709
استبدال 1709
ذاتها 1709
الأهلي 1708
المأ@@ 1708
الياب@@ 1708
بعينات 1708
مهما 1708
جال 1707
طف 1707
كتوراه 1707
للإشارة 1707
محر@@ 1707
مخاطر 1707
نسخ 1707
ومركز 1707
الكاثوليك 1706
المقالات 1706
الأوك@@ 1705
الصيغة 1705
دمت 1705
ستار@@ 1705
شُ@@ 1705
ويقول 1705
غرين 1704
مسيرتها 1704
‌ 1704
اؤها 1703
المؤرخين 1703
الهض@@ 1703
رومان@@ 1703
شور 1703
96 1702
اءً 1702
تعالى 1702
صياغة 1702
طرت 1702
القادمة 1701
تلى 1701
شير@@ 1701
9.@@ 1700
رحلات 1700
اصط@@ 1699
الحقبة 1699
دال 1699
رأي 1699
قانوني 1699
واني 1699
الأزمة 1698
الدرافت 1698
المتقدمة 1698
المشرو@@ 1698
باستمرار 1698
جاي@@ 1698
كينيدي 1698
مستقبل 1698
يمه 1698
قريبة 1697
الماضية 1696
بضعة 1696
ذكره 1696
المظ@@ 1695
الوزارة 1695
قلبية 1695
نجليزية 1695
أمل 1694
إلينوي 1694
تلفزي@@ 1694
تلفزيونية 1694
رويجي 1694
سمع 1694
مبا@@ 1694
موجة 1694
ادو 1693
المنح@@ 1693
مكسي@@ 1693
ملاحظة 1693
وّل 1693
v 1692
درت 1692
عف 1692
مفتوحة 1692
المو@@ 1691
دث@@ 1691
سح@@ 1691
والتنمية 1691
a@@ 1690
أرجن@@ 1690
مدين@@ 1690
يمها 1690
الزمني 1689
سبت 1689
شائع 1689
القرارات 1688
بدورها 1688
وتضم 1688
2- 1687
جغرا@@ 1687
سيب 1687
لقات 1687
يسوع 1687
الألم 1686
النسيج 1686
رؤساء 1686
رايت 1686
الرصاص 1685
طيران 1685
1898 1684
81 1684
اختبارات 1684
تجري@@ 1684
فاط@@ 1684
لزيادة 1684
الرسائل 1683
أفريقي 1682
الطلبة 1682
الميدالية 1682
نسون 1682
وفيات 1682
صلات 1681
لوبي@@ 1681
واهر 1681
يي 1681
وحي@@ 1680
النفايات 1679
سترا@@ 1679
كله 1679
أمور 1678
تحقق 1678
تشرة 1678
تناسب 1678
النماذج 1677
تغطي 1677
راج 1677
وإدارة 1677
1902 1676
حلقات 1676
مترًا 1676
61 1675
آث@@ 1675
الجمع@@ 1675
تفوق 1675
رسميا 1675
فقات 1675
وث 1675
الإقلي@@ 1674
التها 1674
الحشرات 1674
تيبة 1674
جهد 1674
حارس 1674
خلية 1674
كولن 1674
المادية 1673
المباريات 1673
تيا 1673
صلا@@ 1673
ممكن 1673
منخفض 1673
78 1672
79 1672
تفاصيل 1672
فرانسيس 1672
إيط@@ 1671
الخض@@ 1671
الوظيفة 1671
صاص 1671
عرضت 1671
فوج@@ 1671
وقعة 1671
الفلك 1670
بنيت 1670
تكاليف 1670
مكانة 1670
وعات 1670
الجسيمات 1669
تأثيرات 1669
فرعية 1669
مقالات 1669
الأجانب 1668
الصادر 1668
النص@@ 1668
ذكور 1668
روح@@ 1668
يتمتع 1668
أسرع 1667
شَ@@ 1667
كيك 1667
.com 1666
76 1666
خور 1666
أحمر 1665
التحض@@ 1665
تجنب 1664
ضحايا 1664
ممة 1664
193@@ 1663
t@@ 1663
آنا 1663
إضاف@@ 1663
كرب@@ 1663
متخصصة 1663
موسمين 1663
نزي 1663
الفص@@ 1662
المطلوبة 1662
النشر 1662
الوجود 1662
حيوان 1662
خبارات 1662
تُعتبر 1661
صع@@ 1661
موز 1661
الأندلس 1660
التطوير 1660
الروح 1660
الما 1660
فعالة 1660
يتك@@ 1660
يحد@@ 1660
الضباط 1659
دلي 1659
سنت 1659
عارضة 1659
كولوم@@ 1659
ؤها 1658
الشرف 1658
اليوناني 1658
برازيلي 1658
بكلية 1658
زز 1658
فني 1658
وعاد 1658
ويعتقد 1658
العضل@@ 1657
محاك@@ 1657
وياً 1657
الواضح 1656
يأ@@ 1656
الأيمن 1655
دوغلاس 1655
الره@@ 1654
ديمقراطية 1654
77 1653
طرنج 1653
غاية 1653
لأن@@ 1653
وانات 1653
التوجه 1652
ذى 1652
رخ 1652
فندق 1652
نحن 1652
الباحثون 1651
السبا@@ 1651
وبلغت 1651
وبناء 1651
ناطيسية 1650
هجمات 1650
أبي@@ 1649
دنية 1649
صراع 1649
ندن 1649
ينما 1649
الأسد 1648
عنا@@ 1648
تاريخه 1647
عتبر 1647
الصلبة 1646
حكمه 1646
زائ@@ 1646
عمارة 1646
يرن 1646
10.@@ 1645
26@@ 1645
الأسطول 1645
حلة 1645
عرق 1645
ونشر 1645
الملابس 1644
الهامة 1644
تجار 1644
عمومًا 1644
الإضافة 1643
تصور 1643
كيبي@@ 1643
23@@ 1642
احتمال 1642
بعث 1642
تسون 1642
سًا 1642
التغيرات 1641
العاش@@ 1641
المذهب 1641
جواز 1641
درالية 1641
محور 1641
وأستاذ 1641
ألين 1640
الاحترا@@ 1640
تميز@@ 1640
وئي 1640
وتسمى 1640
أعلا@@ 1639
نهج 1639
وأه@@ 1639
السويدية 1638
بنظام 1638
قات@@ 1638
وفرنسا 1638
r 1637
حيين 1637
للتعليم 1637
مغادرة 1637
هت 1637
وتطوير 1637
إقلي@@ 1636
اؤ@@ 1636
صدار 1636
فيك 1636
مّ@@ 1636
نيفة 1636
يوود 1636
× 1635
الصباح 1635
روسات 1635
بيري@@ 1634
ستير 1634
ربين 1633
هوة 1633
العُ@@ 1632
بوز@@ 1632
ماليزيا 1632
ملي 1632
وأف@@ 1632
واستخد@@ 1632
m 1631
آخ@@ 1631
اليسار 1631
سخ@@ 1631
مولة 1631
الساحلية 1630
العادة 1630
العرقية 1630
فرجينيا 1630
ليبر@@ 1630
موئيل 1630
ألبوم@@ 1629
ازد@@ 1629
امنة 1629
جزي@@ 1629
واح 1629
al 1628
أفلا@@ 1628
البصرة 1628
الممت@@ 1628
حينما 1628
وطن 1627
ينظر 1627
جنرال 1626
سيمون 1626
لوث 1626
مسؤولية 1626
يملك 1626
إسط@@ 1625
انضمام 1625
فضلاً 1625
استث@@ 1624
الثقة 1624
الزيتون 1624
السنوي 1624
طفال 1624
عطاء 1624
كريم 1624
لط 1624
واس@@ 1624
وتار@@ 1624
68 1623
91 1623
حاً 1623
حبي@@ 1623
شرط 1623
لفزيون 1623
التأثيرات 1622
الخطة 1622
عْ@@ 1622
مستخد@@ 1622
أراض@@ 1621
إيجاب@@ 1621
الأزواج 1621
تميزة 1621
دييات 1621
اقد 1620
المرج@@ 1620
ذاكرة 1620
اعتمد 1619
خطيرة 1619
رص@@ 1619
أوبلاست 1618
ضًا 1618
عشرات 1618
ى@@ 1618
ألان 1617
الأميرة 1617
المسب@@ 1617
تُعد 1617
المناسب 1616
معا 1616
الاتفاقية 1615
الرؤية 1615
جاني 1615
ناض@@ 1615
والثاني 1615
الأدبي 1614
تنسيق 1614
داني 1614
فوكس 1614
فيزياء 1614
ورقة 1613
الدهون 1612
النوم 1612
دراست@@ 1612
للوصول 1612
ةَ 1611
تحكم 1611
حادث 1611
لضمان 1611
74 1610
اختراع 1610
البه@@ 1610
الكورية 1610
المحتر@@ 1610
مينيا 1610
وتية 1610
وضعها 1610
ومر@@ 1610
الارتبا@@ 1609
الكسندر 1609
المحتملة 1609
تفعات 1609
كبيراً 1609
متر@@ 1609
هزم 1609
هون@@ 1609
87 1608
تايوان 1608
ثان 1608
دراج 1608
قرارات 1608
لْ@@ 1608
ووك@@ 1608
28@@ 1607
حجم@@ 1607
دش@@ 1607
البيولوجية 1606
الحادث 1606
طيب 1606
الأعصاب 1605
الجدد 1605
باق 1605
زيا 1605
نيسة 1605
المرش@@ 1604
ديق 1604
منت@@ 1604
يريد 1604
القطب 1603
رفضت 1603
سريع 1603
لنظام 1603
اقتراح 1602
المخطط 1602
الى 1602
رضية 1602
ولًا 1602
الباح@@ 1601
مرية 1601
700 1600
بيكر 1600
حيز 1600
خير 1600
موقعها 1600
أحدث 1599
المغول 1599
بارزة 1599
بشر 1599
دوائر 1599
ميل@@ 1599
البريطان@@ 1598
الذكاء 1598
براطور 1598
تمويل 1598
لعدد 1598
مانة 1598
ماير 1598
92 1597
تواجد 1597
جوه@@ 1597
ولما 1597
َّى 1597
تبات 1596
جيال 1596
لنقل 1596
موسي@@ 1596
هارت 1596
واحل 1596
ببناء 1595
حديد 1595
شتو@@ 1595
يكفي 1595
1,@@ 1594
NGC 1594
أحياء 1594
المذكورة 1594
تبدو 1594
تصاص 1594
متو@@ 1594
نبذ@@ 1594
1890 1593
إلقاء 1593
ازي@@ 1593
المهندس 1593
بمنطقة 1593
مكونة 1593
الجذ@@ 1592
بتقديم 1592
جلي@@ 1592
دوج 1592
سوم@@ 1592
غيره 1592
ويستخدم 1592
1899 1591
الأوب@@ 1591
البوا@@ 1591
الدوا@@ 1591
تجديد 1591
ذان 1591
عه@@ 1591
كليات 1591
العمرية 1590
مركزية 1590
n@@ 1589
أحر@@ 1589
داد@@ 1589
عارض 1589
50@@ 1588
عودته 1588
اطع 1587
السرية 1587
انتشرت 1587
مطالب@@ 1587
يحدد 1587
نظريات 1586
يّاً 1586
كبرى 1585
00@@ 1584
الاً 1584
المناصب 1584
بصفته 1584
بى 1584
توقيع 1584
ودا 1584
نهار 1583
و0.@@ 1583
حرة 1582
كلين@@ 1582
وقتل 1582
جماع 1581
كوف@@ 1580
متهم 1580
هاجر 1579
يأخذ 1579
97 1578
ابون 1578
الدول@@ 1578
الًا 1578
جزيئات 1578
حاد 1578
وتن 1578
² 1577
الرياض@@ 1577
الوصف 1577
راحة 1577
صت 1577
قسم@@ 1577
05 1576
قيس 1576
ونسو 1576
الفرنسي@@ 1575
جوجل 1574
مستعمرة 1574
مسيحية 1574
موط@@ 1574
ومص@@ 1574
بشير 1573
زلي 1573
هوف@@ 1573
89 1572
رائد 1572
قصور 1572
82 1571
إليهم 1570
إنتر@@ 1570
تخصصة 1570
29@@ 1569
السنو@@ 1569
تماث@@ 1569
دفن 1569
كوم 1569
باها 1568
البن@@ 1567
ديوان 1567
قناع 1567
وقود 1567
ة@@ 1566
موارد 1566
وانب 1566
غاد@@ 1565
فيت 1564
كوين@@ 1564
الحصار 1563
الخصوص 1563
خون 1563
اشات 1562
حكام 1561
فاق@@ 1561
وروب@@ 1561
الاضطرابات 1560
فيكتور 1560
وروبا 1560
التاسعة 1559
الممارسات 1559
دقائق 1559
مونت 1559
ائمة 1558
مختلف@@ 1558
البارزة 1557
بتح@@ 1557
سوا@@ 1557
ليصل 1556
يقات 1555
كفر 1554
الصف 1553
المناف@@ 1553
سكان@@ 1553
مجل@@ 1553
ومنهم 1553
1896 1552
الملاح@@ 1552
رخ@@ 1552
سرائ@@ 1552
Charles 1551
إيفان@@ 1551
جوم 1551
لندا 1551
الرسول 1550
اوى 1550
رويج 1550
وضاع 1550
الإلكترو@@ 1549
بمو@@ 1547
لهما 1547
الاج@@ 1546
الاقتراع 1546
التلفزي@@ 1546
المتق@@ 1546
باحث 1546
بطولات 1546
قديم 1546
لتع@@ 1546
مينيسوتا 1546
السف@@ 1545
القذ@@ 1545
بطال 1545
بلغاريا 1545
السلط@@ 1544
عشرين 1544
يج 1544
يوت 1544
المعبد 1543
المكسي@@ 1543
مناس@@ 1543
هين@@ 1543
موث@@ 1542
امتداد 1541
ره@@ 1541
نجليزي 1540
الفلا@@ 1539
قريب 1539
جام 1538
جوا 1538
عما 1538
ادى 1537
جاع 1536
متس@@ 1536
المالك@@ 1534
صَ@@ 1533
g@@ 1532
نب@@ 1532
بعون 1531
جند@@ 1531
ضين 1531
الشعور 1530
رتها 1530
كست@@ 1530
موم 1530
واز@@ 1530
ing 1529
استف@@ 1529
الدو@@ 1529
موسم@@ 1529
الجي@@ 1527
امًا 1525
اندل@@ 1525
1897 1524
اعت 1524
بدر 1524
تلو@@ 1524
دٍ 1524
ائرات 1523
ازت 1523
بادل 1523
تدل 1523
عالمي 1523
شباب 1521
شياء 1521
كيس 1521
بخ 1518
طرابلس 1518
لمع@@ 1518
وطني 1518
داي@@ 1517
V 1516
نسان 1516
براط@@ 1515
سول 1515
عاب 1515
سلمان 1514
معام@@ 1513
تركي 1512
توب 1512
موجو@@ 1510
ّق 1509
البحيرة 1508
جزاء 1508
كاني 1508
ولايات 1508
11.@@ 1507
Q@@ 1507
الحرم 1507
حاصل 1507
الند@@ 1506
وسطة 1505
وات@@ 1504
بغض 1503
ريكي 1503
الفلس@@ 1502
تير@@ 1502
فتر@@ 1500
كوا 1500
سلف@@ 1499
Thomas 1498
ملف 1497
تصرف 1496
تينات 1496
o@@ 1495
البك@@ 1495
حساس 1494
فلو@@ 1494
نصوص 1494
اجم 1493
النض@@ 1493
غيرة 1493
لينا 1493
ماري@@ 1492
يور 1492
ناة 1491
يري@@ 1491
تات@@ 1490
سرب 1490
ريقة 1487
مفر@@ 1487
يقة 1487
افت@@ 1486
قرأ 1486
بروكلين 1485
27@@ 1484
دوى 1484
1895 1483
اغ 1483
روق 1483
وامل 1483
الاز@@ 1482
التكن@@ 1482
الكلاسي@@ 1481
عِ@@ 1480
كتب@@ 1479
الاول@@ 1478
قرون 1478
ابو 1477
اكر 1477
خُ@@ 1477
شاب@@ 1477
نصب 1477
ref 1476
أفري@@ 1476
باه 1476
i@@ 1475
الإسب@@ 1475
الاي@@ 1475
السما@@ 1474
الوار@@ 1472
g 1470
الحوز 1470
راعات 1470
موس@@ 1469
هَ@@ 1469
ائة 1468
يراً 1468
الوريوس 1467
البند@@ 1466
توث@@ 1465
رجان 1465
1892 1464
الاتح@@ 1464
سيو 1463
مريم 1463
انتظار 1462
فضل@@ 1462
فضلا 1462
Re@@ 1461
ريني 1461
طب@@ 1460
احترا@@ 1459
94 1458
بياً 1458
رل 1458
شور@@ 1458
اتذ@@ 1457
الخار@@ 1457
ياء 1457
حدى 1455
المَ@@ 1454
بيك@@ 1453
توت@@ 1453
تار 1452
تك 1452
قن 1450
باز 1449
ربت 1449
الدن@@ 1448
بروك 1448
بعد@@ 1448
4.@@ 1447
الحيو@@ 1447
اسوب 1446
بغ 1445
الفتح 1444
حاض@@ 1444
تعدد 1443
بض@@ 1442
بوج@@ 1441
تعلق 1441
01 1439
· 1439
ندرية 1438
هيم 1438
الولا@@ 1435
انج 1435
ربا@@ 1435
سجين 1435
وذك@@ 1435
لاحقة 1434
خليل 1433
تسلسل 1432
سوس@@ 1432
شرو@@ 1432
طارق 1432
ميا 1432
احمد 1429
اقتصاد@@ 1428
الجمه@@ 1427
زيف 1427
سنان 1427
et 1426
ابد 1426
قانون@@ 1425
عبين 1424
راك 1423
لمن 1423
son 1422
مسة 1422
درز 1421
لَّ@@ 1421
يشن 1421
3000 1420
تجاو@@ 1418
عال@@ 1417
بولو 1414
الاص@@ 1413
حرم 1412
فِي 1411
ia 1410
تباد@@ 1409
طنين 1408
1889 1407
انقلاب 1407
صلى 1407
اوت 1406
لفظ 1406
هرباء 1406
المدار@@ 1405
حن@@ 1405
مغربي 1404
ابهة 1403
حار@@ 1403
3- 1402
ئون 1402
ائس 1402
فتي 1402
ويورك 1402
اري@@ 1401
باس 1401
k 1400
اين 1400
نباتات 1400
بيريا 1398
35@@ 1397
ابتة 1397
عدل 1396
لحم 1395
واس 1395
American 1393
سطنط@@ 1393
5000 1392
است 1392
متعل@@ 1391
صالح@@ 1390
واري 1390
1885 1389
عاب@@ 1389
نوان 1389
العرا@@ 1388
جانات 1388
ستي 1388
1894 1387
الو 1387
عاط@@ 1387
ائرة 1386
’ 1386
المنت@@ 1385
شمال@@ 1385
ارتباط 1384
خوار@@ 1384
مقاط@@ 1384
40@@ 1383
id 1383
1891 1381
الرؤ@@ 1381
وْ@@ 1381
x@@ 1379
عمر@@ 1379
وكس 1379
ائنات 1378
داية 1376
03 1375
النمو@@ 1375
فوس 1375
اظ@@ 1374
f@@ 1373
لفت@@ 1373
روفة 1372
دّ@@ 1370
غا@@ 1370
اورة 1369
رز@@ 1368
اسبة 1367
بئر 1367
قادر 1367
مكاف@@ 1367
1893 1366
صوت@@ 1365
عاز@@ 1365
وائد 1365
اجر 1364
ناسا 1363
04 1362
الاجتماع@@ 1362
al@@ 1361
امر 1361
مناص@@ 1361
09 1359
f 1359
قيت 1359
لَ 1358
مسح 1358
هولة 1358
خصوصاً 1356
فوس@@ 1356
لات@@ 1356
قان@@ 1353
08 1352
1888 1352
طاني 1351
مقب@@ 1350
حاس@@ 1349
روابط 1349
C. 1348
شرقي 1348
يوان 1347
حمد@@ 1346
سْ@@ 1346
1880 1344
وكا 1344
نسي 1343
تى 1341
ثون 1341
سطة 1341
حسن@@ 1338
سمت 1338
اون 1337
وء 1336
Al@@ 1335
الحاد@@ 1334
تعم@@ 1333
أمم 1332
المكون@@ 1332
1884 1331
العملا@@ 1331
مؤلف@@ 1331
ابتد@@ 1330
قلت 1330
نسجة 1330
06 1328
بريل 1328
والرا@@ 1328
فلت 1327
ستار 1326
قتال 1326
كذا 1326
الاعتقاد 1325
دوس@@ 1325
بطة 1324
عرش 1324
فوف 1323
المهدي 1322
امام 1322
ثى 1321
ماب@@ 1320
اوت@@ 1319
192@@ 1318
ريتش@@ 1315
نض@@ 1315
ئت 1312
وسيع 1312
0,000 1311
حاص@@ 1311
مْ 1311
الزمان 1310
باط@@ 1310
ملحوظ 1308
انتداب 1307
انتظام 1307
عروض 1307
جوان 1306
جائ@@ 1304
دَّ@@ 1302
غازي 1302
السن@@ 1301
دوران 1300
1886 1299
l 1299
البغ@@ 1299
فقر 1299
1870 1298
المتا@@ 1297
1887 1295
ترو 1295
داس 1295
آراء 1294
جاو@@ 1294
عنص@@ 1293
نمو@@ 1293
مروان 1292
شريف 1291
1500 1290
actor 1290
en 1290
راشد 1290
انوس 1288
ق.@@ 1287
U 1286
ناد 1285
وراس 1285
1878 1282
جنوبي 1282
موسو@@ 1282
اسل 1281
نما@@ 1281
اعترا@@ 1280
وّر 1280
عمران 1278
سلسل@@ 1277
ولان 1277
وفى 1276
طبع@@ 1274
مقدم 1273
1882 1272
New 1272
كَ 1271
تملة 1269
مدع@@ 1268
نِ@@ 1268
اشم 1267
بنو 1267
Mc@@ 1266
لع 1266
الآسي@@ 1265
طار@@ 1265
ماق 1265
نار 1265
el 1264
1881 1263
جرات 1263
وسل@@ 1263
الاعتق@@ 1262
العاب@@ 1261
فران 1261
سرد 1260
ماكن 1260
m@@ 1259
اجتم@@ 1259
ڭ@@ 1258
r@@ 1257
بحق 1257
جريت 1257
يحي@@ 1256
D8 1255
لفاء 1254
واب 1254
or 1253
بالغ 1253
غال@@ 1253
لبة 1252
الهول@@ 1251
بود@@ 1251
وسلم 1251
وو 1249
الاقترا@@ 1248
اولات 1248
داع@@ 1248
الائ@@ 1247
برل@@ 1247
دوم 1247
راس@@ 1247
مَّ@@ 1247
خلل 1246
an@@ 1245
دَ 1245
on@@ 1244
التمي@@ 1244
تْ 1244
فِ@@ 1243
الاشترا@@ 1242
صفر 1242
ميع 1242
02 1239
u 1239
برد 1238
عبور 1238
كول 1238
صوب@@ 1237
مراد 1236
1.5 1235
الحاد 1235
الأمي@@ 1234
طانية 1234
سند 1233
اِ@@ 1232
رد@@ 1232
ّس 1232
E. 1231
القاسم 1231
خصوصًا 1231
فاع 1231
مراء 1230
as 1229
إلي@@ 1229
راض@@ 1229
عوام 1226
استبد@@ 1225
1861 1223
فاظ 1223
Ch@@ 1222
in@@ 1222
إحص@@ 1221
سورة 1221
استم@@ 1220
نست@@ 1219
رفت 1218
لادي 1218
الحارث 1217
الخوار@@ 1217
سوب@@ 1215
مبلغ 1214
يار@@ 1213
1883 1212
رومان 1212
الجام@@ 1211
حو 1211
داني@@ 1211
الشاف@@ 1210
1876 1209
الطبي@@ 1209
شق 1209
لبية 1209
معالج@@ 1209
ضرر 1208
اتح@@ 1207
وارث 1207
W. 1206
نسب@@ 1206
محاص@@ 1205
ناس 1205
K 1204
دف 1203
قز@@ 1203
كال@@ 1203
ربون 1202
07 1201
Henry 1201
سِ@@ 1201
نانين 1201
ويك 1200
تاً 1199
عليا 1197
خَ@@ 1196
مَّ 1195
منى 1194
L5 1193
ابين 1192
حلول 1192
محدود 1192
1860 1190
الثق@@ 1190
زام@@ 1190
لمان 1190
تخلص 1189
حبيب 1189
اقل 1187
وغالب@@ 1187
الإسرائ@@ 1186
1871 1185
ar 1185
شعراء 1185
غت 1185
القصي@@ 1184
j@@ 1183
l@@ 1181
الس 1181
تمت@@ 1180
لفية 1180
at 1179
حالت@@ 1177
حزاب 1177
عيل 1177
غضب 1177
منتظ@@ 1177
اسا 1175
man 1174
اوم 1174
خام 1174
اجل 1173
اُ@@ 1173
واقع@@ 1173
وود@@ 1173
1879 1172
دبل@@ 1172
واف 1172
80@@ 1171
مناز@@ 1171
طرس 1170
استع@@ 1169
مقدون@@ 1169
المحافظ@@ 1168
ابيع 1166
for 1165
جور 1164
عمرة 1164
فعال@@ 1164
بارات 1163
60@@ 1162
ألة 1161
جراءات 1161
والت 1160
حامل 1159
أولا@@ 1158
فاش@@ 1158
الجزائ@@ 1157
جلد 1157
ed 1156
بست@@ 1156
شعور 1156
المنصور 1155
ريفي@@ 1155
طوير 1155
نقد 1155
توت 1154
مملو@@ 1154
نْ 1154
34@@ 1153
وجي@@ 1153
الثة 1152
بحي@@ 1152
إبرا@@ 1151
ثُ@@ 1149
درات 1149
سبور@@ 1149
القدي@@ 1148
دق 1148
طبا@@ 1148
جست@@ 1147
نَ 1147
ورق 1147
# 1146
فوائد 1145
لر@@ 1145
Michael 1144
حمام 1144
البر 1143
مهورية 1143
ارن 1142
انط@@ 1142
سرا 1139
عز 1137
2,@@ 1136
6.@@ 1136
يام@@ 1136
تبت 1135
قلال 1135
قوط 1135
ی@@ 1135
برمن@@ 1133
جابر 1133
قصائد 1133
Richard 1132
الوز@@ 1132
برنار@@ 1131
en@@ 1129
حمص 1129
واحد@@ 1129
k@@ 1127
علاء 1127
ضل 1126
مئ@@ 1126
روان 1125
عموما 1125
$ 1124
h@@ 1124
أستر@@ 1124
الشمس@@ 1124
فلس@@ 1123
مام@@ 1123
مناسب 1123
ساد@@ 1122
باغ 1121
تمتع 1120
بب 1118
روت 1118
نر@@ 1118
زرق 1117
ينيسي 1117
نادر 1115
la 1114
1867 1113
الأرجن@@ 1113
قنا@@ 1113
جرز 1112
خبر 1112
دريك 1112
ايك@@ 1111
مسعود 1111
وتوفي@@ 1111
سترو@@ 1110
4,@@ 1109
القوا@@ 1108
زو@@ 1108
منظور 1108
مْ@@ 1108
اجز 1106
الأرث@@ 1106
بائ@@ 1106
2.5 1105
جس 1105
منازل 1105
هو@@ 1104
الإسلا@@ 1101
آخر@@ 1099
جابة 1097
33@@ 1095
شرع 1095
مَ 1095
واز 1095
موضوع@@ 1094
افل 1093
or@@ 1092
تنز@@ 1092
عرب@@ 1092
مقام 1092
انتخابية 1091
الديمقرا@@ 1090
بؤ@@ 1090
1877 1089
L. 1089
W 1087
خية 1087
العالم@@ 1085
دخال 1085
نفا@@ 1085
احب 1084
شج@@ 1084
Ar@@ 1083
Paul 1083
اختلا@@ 1083
جلال 1083
1873 1082
شامل 1081
تام 1080
تاس@@ 1079
قليم 1079
محسن 1079
نسا 1079
المذك@@ 1078
جال@@ 1078
قاتل 1078
تخب 1077
1848 1076
اعر 1076
لص 1076
خال@@ 1075
شاط 1075
5,@@ 1074
ie 1074
العاص@@ 1074
عار 1073
رموز 1072
14.@@ 1071
900 1071
ac@@ 1071
فرق@@ 1070
بيًا 1069
استعم@@ 1068
الكاث@@ 1068
آباد 1066
تفر@@ 1066
المؤمن@@ 1065
ation 1064
تق 1063
ضخ@@ 1063
صدام 1062
37@@ 1061
h 1060
جبر 1060
روش 1060
3,@@ 1059
سلو 1059
1875 1058
صدا@@ 1058
1866 1057
جاب 1057
1865 1056
تاج@@ 1056
قبر 1055
ميني@@ 1055
كيني@@ 1054
1864 1053
طور@@ 1053
190@@ 1052
اوي@@ 1052
روش@@ 1051
1868 1050
زيلي 1050
قمر 1050
إمكان@@ 1049
قوب 1049
130 1048
جاد 1048
صفحات 1048
ic@@ 1047
ine 1047
حمز@@ 1046
صادق 1046
حوا 1045
رَ 1045
110 1042
Smith 1042
بغي 1042
180 1041
نشطة 1041
الاقتص@@ 1040
السّ@@ 1039
نوم@@ 1038
اوم@@ 1037
فراز 1037
football 1036
شوا@@ 1036
شيك@@ 1036
اعتراف 1035
خفض@@ 1035
كِ@@ 1035
مشر@@ 1034
Y 1031
توازن 1030
حساب@@ 1030
جلا@@ 1029
4- 1027
om@@ 1026
لمد@@ 1026
1872 1025
ابتداء 1025
تتأ@@ 1023
عمار@@ 1022
تاء 1021
مماثل 1021
1869 1020
مسئ@@ 1020
خصوص@@ 1019
قبرص 1019
نفر 1019
حلق@@ 1018
والسك@@ 1018
جاس@@ 1017
ستاني 1017
نازل 1017
وِ@@ 1017
لفظ@@ 1014
v@@ 1013
رقص 1013
شخ@@ 1013
خوف 1012
طواف 1012
قس@@ 1012
يُع@@ 1012
ستو 1011
المشار@@ 1008
رجب 1008
1874 1007
el@@ 1007
استقبال 1006
تال@@ 1006
تند@@ 1006
الث 1004
روبن 1004
طَ@@ 1004
جزائر 1003
سلاسل 1003
زونا 1001
وفان 1001
S. 1000
ارضة 1000
الميد@@ 1000
لار 1000
er@@ 998
حور 998
160 994
ate 993
ol@@ 993
الشب@@ 993
الجة 992
خدمت 992
إنتا@@ 991
الطب@@ 991
توزي@@ 991
سد@@ 991
ندو 991
اصة 990
قائم 990
مشتق 989
احترام 988
ديمقرا@@ 987
شِ@@ 987
خول 985
متنا@@ 985
بيرة 984
جوع 984
حْ@@ 984
مرا 984
ابتدا@@ 983
خور@@ 983
فريقيا 983
لترا 983
مناق@@ 983
قذ@@ 982
ar@@ 981
تخص@@ 977
بابل 976
صادر 975
رفعت 974
عذ@@ 974
وجا 974
1863 973
عبر@@ 973
الق 972
بض 972
عود@@ 972
باعتب@@ 970
جول 970
R. 969
لازمة 969
6,@@ 968
اين@@ 967
صدور 967
ch@@ 966
زار@@ 966
تراوح 965
تقرر 965
حاق 965
ton 964
le 963
وسا 963
مجالس 962
سبة 961
D9 960
اتو 960
الهج@@ 959
تشار 959
بنا 958
هيار 958
ورئ@@ 958
الاف@@ 957
خسر@@ 957
شل@@ 957
تجرب@@ 956
ونز 956
الزب@@ 955
قسطنط@@ 955
برس 954
شمالي 954
غض@@ 953
مقر@@ 953
B. 952
1857 951
اقب 951
وعض@@ 951
ad@@ 950
مرتفع 948
النفا@@ 947
داعش 947
الإدار@@ 945
تنوع 945
رم@@ 944
38@@ 943
90@@ 943
os@@ 943
الوك@@ 943
جسم@@ 943
مباد@@ 943
مرق@@ 943
w@@ 942
بلو 942
رش 942
ضربة 942
الإغ@@ 941
برو 940
خيرة 939
اتباع 938
Mar@@ 935
1850 934
انخ@@ 932
غرنا@@ 932
مَا 932
مقت@@ 931
Con@@ 929
انسداد 929
مشتر@@ 929
1862 928
فوج 928
350 927
الإيط@@ 927
تكن@@ 927
as@@ 926
بنفس@@ 926
II 925
125 924
ائعة 924
^ 923
اصرة 922
بروز 922
ابعة 921
قطب 921
7,@@ 920
المعارف 920
حيدة 920
عرو@@ 920
آداب 918
الذك@@ 918
مطبو@@ 917
تعي@@ 916
ختم 915
كتورا@@ 915
1859 914
An@@ 913
22@@ 911
حدات 910
داة 910
قوت@@ 910
ميري 910
Br@@ 909
مبيوتر 908
جِ@@ 905
رن@@ 905
140 904
D. 904
series 904
י@@ 904
مصور 903
ae 902
z@@ 902
اقتص@@ 901
فف 900
مش 898
Car@@ 896
جلو@@ 896
موضوعات 896
وَ 894
معلم 893
يرلندا 893
تجات 892
ورس 892
كى 891
النسي@@ 890
ذج 890
عَلَ@@ 890
حصر 889
فوق@@ 889
CO@@ 888
خوف@@ 888
اختلافات 887
حسان 887
الشيو@@ 885
مسائل 883
ley 882
سيق 882
شنا@@ 882
طرابات 882
قبض@@ 881
لبر@@ 880
نون@@ 880
لاج@@ 879
4000 878
باتات 875
بورو 875
سطو 875
Joseph 874
Le@@ 874
دستان 873
Edward 872
مشق 872
نم 872
حفا@@ 871
ئك 870
المقد@@ 869
حِ@@ 869
AS@@ 868
مثلًا 868
هيرة 868
الابتد@@ 867
1856 866
70@@ 866
اصطنا@@ 865
خادم 865
معز@@ 865
دوان 864
? 863
يمز 861
متلك@@ 860
الذه@@ 858
36@@ 857
In@@ 855
اقتب@@ 855
العباس 854
الجنا@@ 853
سنا 853
خات@@ 852
منتظم 852
1849 850
39@@ 850
Australian 850
z 849
باز@@ 849
نجر 848
ot@@ 847
ter 847
ايل 847
دِ 847
حضرموت 845
جوب@@ 844
مساجد 844
مثال@@ 842
1840 839
ab@@ 839
ولن 839
ic 838
المسا@@ 838
رخص@@ 837
مِنْ 837
البحي@@ 836
os 835
افظ@@ 835
سرت 835
سوت@@ 835
2022 834
واضع 833
Frank 831
مساب@@ 831
ــــ@@ 830
1854 829
مجر@@ 829
8,@@ 828
ورز 828
1830 827
غَ@@ 827
1858 826
di@@ 826
name 826
ana 825
قران 825
مرغ@@ 824
Peter 822
زلز@@ 821
5- 820
الموظ@@ 819
De@@ 817
ضاب@@ 817
ضان 817
am 816
مطلو@@ 816
منفص@@ 815
100@@ 814
تداد 813
محافظ 813
ورش 813
لائل 812
تيجة 811
قرار@@ 811
مباب@@ 811
45@@ 809
خلاء 809
لوم 808
Z 807
is@@ 807
101 803
am@@ 802
الداخ@@ 802
1800 801
id@@ 801
فارقة 801
التشخ@@ 799
حاء 798
ناظ@@ 797
الأطل@@ 796
شعبان 795
عشر@@ 794
فخر 794
مخالف@@ 793
الاستعم@@ 792
حماس 792
AD@@ 791
فجر 791
Sh@@ 789
امر@@ 789
تمرار 787
رود@@ 787
فتو@@ 786
مثيل 786
it@@ 785
اعون 785
حلف 785
450 783
div 783
قرض 783
تقدمة 782
حب@@ 781
زَ@@ 781
موسوم 781
النسل 780
250@@ 779
اللَّ@@ 779
طانيا 779
ممل@@ 778
ولز 778
افس@@ 777
كنساس 777
فساد 776
ازان 775
هِ@@ 775
حاب 774
طبع 774
der 773
محم@@ 773
مُ 772
Cor@@ 771
الجنوب@@ 771
اوب@@ 771
حامد 770
قبر@@ 770
188@@ 769
حوال@@ 767
مسم@@ 766
مورا@@ 766
th@@ 765
الأولمب@@ 765
ו@@ 764
نبو@@ 764
15.@@ 763
جئين 763
le@@ 762
سعد@@ 762
ed@@ 761
co@@ 760
مصنف@@ 760
اختصار 759
فاص@@ 759
وليكية 759
عدنان 758
النات@@ 757
دوز 757
صلح 756
نبات@@ 756
اَ@@ 755
زمان 755
نَّ@@ 753
at@@ 752
سطس 752
طس 751
لونة 751
ائي@@ 750
189@@ 748
عضو@@ 748
الحكوم@@ 747
صدر@@ 747
غرس 746
AT@@ 745
القاع@@ 745
Brown 741
الاتفاق@@ 741
1851 740
360 739
صلاح@@ 739
by 738
باش 738
درس@@ 738
es@@ 737
آن@@ 737
ستور 737
وليك 737
ph@@ 736
زور 736
Co@@ 735
غط 734
ذِ@@ 733
1853 732
ئل 732
اتنا 731
ذرات 731
فتا@@ 731
− 729
1200 728
تيب 728
عنو@@ 728
كيلي@@ 728
ناطيسي 728
,000 727
3.5 726
كلة 726
نوس 726
بنظ@@ 725
وابط 724
CD@@ 723
برن@@ 723
جنون 722
خطر@@ 722
ربان 722
65@@ 721
re@@ 721
خاطر 721
مب 720
124@@ 719
5,000 719
Martin 718
التركي@@ 718
16.@@ 717
one 717
أعل@@ 717
1847 716
وفات 716
1835 715
حوص@@ 715
فط@@ 715
واد@@ 715
10000 714
المتعل@@ 714
وراث@@ 714
1839 713
بحت 713
1852 712
ul@@ 712
1837 710
جواب 710
AC@@ 708
Scott 708
قرب@@ 708
منق@@ 708
1845 706
ائر@@ 706
ينَ 706
1832 705
1855 704
ؤلاء 703
كاون@@ 703
لاسي@@ 702
oc@@ 701
ا- 701
CA@@ 700
SS 700
ur@@ 700
متض@@ 700
ترن 699
105 698
J 698
راش@@ 698
sen 697
اضر 697
اطق 697
ti@@ 696
مدد 696
ea 694
بلس 694
Lee 693
17.@@ 692
55@@ 692
ئر 692
دب 692
آ 691
120@@ 690
1820 690
codice 690
ايير 690
موال@@ 689
1844 688
راست@@ 688
زنج@@ 688
187@@ 686
46@@ 686
u@@ 686
طالبان 686
SO@@ 685
جيع 685
ونيسيا 685
1834 684
Mark 683
جرم 683
سمو@@ 683
محلات 683
1846 682
مرح@@ 682
ST@@ 681
ميلة 681
G. 680
آش@@ 680
baseball 679
اطب 678
اشا 677
سود 677
مدرس 677
براسكا 676
خا 676
Tom 675
et@@ 675
1843 674
184@@ 674
Joe 674
اتِ 674
فاض@@ 674
مسو@@ 674
Mor@@ 673
1815 671
Bill 671
الغ 671
فاروق 671
Q 670
مصالح@@ 670
نجا 670
تِ 669
فلاح 669
اتفاق@@ 668
بِ 668
عزم 668
عماد 667
23.@@ 665
فرح 664
قار 664
ونيو 663
وون 663
فز@@ 661
ap@@ 660
حتم@@ 660
ظلم 660
نقش 659
it 658
أمة 658
1.2 657
ne 657
اولا@@ 657
ensis 656
st@@ 656
9,@@ 655
Jack 655
جند 655
دلال 655
اسلا@@ 654
10,000 653
1838 653
عموماً 653
Alexander 652
La 652
بلج@@ 651
علومات 651
مِ 651
پ@@ 651
1842 650
AL@@ 650
Daniel 650
da 650
ولس 650
6- 649
اومة 649
نسل@@ 649
1812 648
اوس@@ 648
منظم 648
IC@@ 647
زد 647
170 645
آز@@ 645
صوف@@ 645
1836 644
El@@ 644
انص@@ 644
بطن 644
درج@@ 644
انتظ@@ 643
ثوم 643
صاب@@ 643
مدا@@ 642
مشغ@@ 642
2500 641
صغ@@ 641
ina 640
محفو@@ 639
داب 637
48@@ 636
1821 635
بخار 634
مداف@@ 634
‘ 634
115@@ 633
اعتقاد 633
فس 633
واجب 633
1841 632
Williams 631
ترجم@@ 631
طغ@@ 631
علما 631
ent 630
البرل@@ 630
لازم 630
47@@ 628
ice 628
li@@ 628
رسومات 628
ata 627
IS@@ 626
آرا@@ 625
شاف@@ 624
op@@ 623
ملا 623
75@@ 622
تمي 622
حضرات 622
شوق@@ 622
لِ 622
نامج 622
التنفي@@ 621
سماع 621
ماجد 621
البو@@ 619
هوم 619
186@@ 618
ler 618
مولا 618
1833 617
اصمة 617
يص 617
220 616
Jim 616
https 616
نعت 616
تصاد@@ 615
25.@@ 614
جج 614
عوض 614
19.@@ 612
اعتراض 612
لتا 612
ch 610
اونت 610
20.@@ 609
خضر 609
فنا 609
SP@@ 608
ob@@ 608
خراسان 608
1831 607
Na@@ 607
24.@@ 606
Cl@@ 606
IM@@ 606
وسف 606
شستر 605
عقاب 604
135 603
Th@@ 603
im@@ 603
سفر@@ 603
Bob 602
محرم 601
وارئ 600
José 599
Di@@ 598
Johnson 598
سانس 598
ناك 598
idae 597
اسكت@@ 597
ممن@@ 597
18.@@ 596
lo@@ 596
غالب 596
لور 596
128 595
ella 595
Bar@@ 594
ER@@ 594
التسوي@@ 594
انتقام 594
بالتر@@ 594
بندر 594
قيمت 594
49@@ 593
خواص 593
240 592
Mike 592
التون@@ 592
اللّ@@ 592
بسم@@ 592
فائز 592
Cr@@ 591
بلوماس@@ 591
مترا@@ 591
وفاق 591
32@@ 590
تائج 590
100,000 589
140@@ 589
22.@@ 589
مخلو@@ 589
Jones 588
اقب@@ 588
per 587
خو 587
لسن 587
نسن 587
0,@@ 586
68@@ 586
Arthur 586
tr@@ 585
21.@@ 584
6000 584
ey 584
برش@@ 584
تزوج@@ 584
26.@@ 583
27.@@ 583
AR@@ 583
ick 583
الترج@@ 583
نِ 583
ad 582
102 581
Canadian 580
University 580
سوز@@ 580
نَّ 579
حضرت 578
ag@@ 577
وسعت 577
Chris 576
حروف 576
Walter 575
بمب@@ 575
اغوا 573
ner 572
ترال 572
نوح 572
وجام@@ 572
117@@ 571
1810 570
ma 570
انسان 570
كتوريا 570
دريا 569
لاية 569
57@@ 568
Er@@ 568
St@@ 568
1826 567
Col@@ 567
em@@ 567
1814 566
eb@@ 566
ارون 566
شم@@ 566
MA 565
شم 565
67@@ 564
7- 564
Am@@ 564
ابرا@@ 564
2.0 563
TV 563
نسخ@@ 563
نقاد 563
شروع 562
مونرو 562
… 562
Bur@@ 561
des 560
جاد@@ 560
دماغ 560
زبر@@ 560
عصاب 560
وانين 560
1825 559
ءت 559
ثعل@@ 559
رانيا 559
نقوش 559
53@@ 558
DNA 558
محص@@ 558
مساف@@ 558
750 557
ملون 557
ers 556
ica 554
ro@@ 554
كلٍ 554
ثالث@@ 553
مقبول 553
0.5 552
Taylor 552
محق@@ 552
4.5 551
Par@@ 551
آغا 551
فيلا@@ 551
قدرت 551
104 550
خوذ 550
ملازم 550
w 548
حاتم 548
صنعت 548
معتدل 548
320 547
World 547
متوقع 547
الموسيق@@ 546
103 545
109 545
الحقي@@ 545
مبل 545
28.@@ 544
Se@@ 544
زمان@@ 544
زنط@@ 544
غارت 544
56@@ 543
Mon@@ 543
ter@@ 543
بند 543
ونَ 543
SA 542
ta 542
توسط 542
1829 541
تناز@@ 541
ک@@ 540
Andrew 538
ir@@ 538
il@@ 537
yl@@ 537
وإدار@@ 537
basketball 536
ist 536
ادئ 536
الشخص@@ 536
اندر 536
1828 535
AM@@ 535
ويلة 535
1824 534
99@@ 534
AC 534
ov@@ 534
مراج@@ 534
115 533
un@@ 533
بقا 533
مختص@@ 533
جيم@@ 532
مفصل 531
po@@ 530
to@@ 530
صنع@@ 530
مواز@@ 530
44@@ 529
66@@ 529
MS 529
الرزاق 529
غرض 529
190 528
White 528
114@@ 527
COVID 527
داغ@@ 527
1600 526
المقاط@@ 526
معمر 526
107 525
امور 525
جرو@@ 525
الَّ@@ 524
قرآن 524
For@@ 523
Wilson 523
ناص@@ 523
RA@@ 522
الحار@@ 522
سمر 522
ضلع 522
مشي 522
na 521
te 521
ec@@ 520
with 520
خلو@@ 520
210 519
جبر@@ 519
عوف 519
111 518
1819 518
الهات@@ 518
امان 517
روان@@ 517
1822 516
ارتق@@ 516
AP@@ 515
اطلاع 515
سلر 515
OS 514
US@@ 514
وئ@@ 514
تارا 513
Francis 512
Tr@@ 511
فرانس 511
1.3 510
58@@ 510
ازم 510
تعال@@ 510
نسل 509
113@@ 508
Wil@@ 508
th 507
جوش 507
Cal@@ 506
مصط@@ 506
106 505
108 505
7.5 505
Steve 505
ase 505
ell 505
المطلب 505
قح@@ 505
Mo@@ 504
حماد 504
ity 503
أنفس@@ 503
أوه@@ 503
ملحق 503
1.6 502
حقائق 502
سرو@@ 502
محمد@@ 502
→ 502
AN@@ 501
As@@ 501
se 501
آذ@@ 501
ولر 501
bi@@ 500
Samuel 499
og@@ 499
PA 498
ay 498
شفى 498
1808 497
230 497
de@@ 496
غسل 496
1806 495
~ 495
116@@ 494
WWE 494
بتا@@ 494
چ@@ 494
Allen 493
رِ 493
افراد 492
قوان@@ 492
ينوي 492
الملك@@ 491
نظر@@ 491
1827 490
section 489
us@@ 487
جامع@@ 487
تنام 486
نث@@ 486
AS 485
Davis 485
ens 485
q@@ 485
se@@ 485
تقر@@ 485
راؤ@@ 485
نعم@@ 485
sh@@ 484
ظفر 484
1.1 483
Sch@@ 483
صالات 483
1804 482
Ex@@ 482
ard 482
ماع 482
مرجع 482
30.@@ 481
5.5 481
Ad@@ 481
التجار@@ 481
مختار 481
مط 481
والا 481
118@@ 480
1789 480
29.@@ 480
Albert 480
إلغ@@ 480
ائيل 479
und 478
بولا 478
لادن 478
78@@ 477
Be@@ 477
131 476
1818 476
ri@@ 476
III 475
175 474
بخار@@ 474
0.1 473
1.4 471
Gr@@ 471
الحرام 471
مؤرخ@@ 471
ya 470
استاد 470
بالا 470
مثلة 470
ai 469
نقط@@ 469
Al 468
رونا 468
185@@ 466
Lewis 466
سفار@@ 466
330 465
SE@@ 465
اجستير 465
جاه 465
ممتاز 465
واع 465
1823 464
Don 464
طلح 464
قاف@@ 464
270 463
UN@@ 463
ve 463
א@@ 463
ثن@@ 463
فاضل 463
1813 462
59@@ 462
ناقص 462
‍ 462
Bo@@ 461
Ro@@ 461
امتحان 461
ماف@@ 461
54@@ 460
الجب@@ 460
حلال 460
لمب@@ 460
121 459
88@@ 459
En@@ 459
j 459
od@@ 459
شمول@@ 459
اتم 458
مناظ@@ 458
International 457
افرا@@ 457
القاط@@ 457
1300 456
Harry 456
Li@@ 456
Miller 456
Stephen 456
اترا 456
المشتر@@ 456
برس@@ 456
1790 455
ר@@ 455
مقص@@ 455
1809 454
hockey 454
القان@@ 454
برن 454
جلوس 454
مرو 454
٬ 454
1,000 453
43@@ 453
CS@@ 453
di 453
اجن@@ 453
تدو@@ 453
عقل 453
نيوز@@ 453
11,@@ 452
Pr@@ 452
av@@ 452
محفوظ 452
المجمو@@ 451
مطلق 451
MP@@ 450
PS 450
ملر 450
1811 449
ni@@ 449
2000@@ 448
Ray 448
Anderson 447
عزت 447
1798 445
2,000 445
ans 445
ing@@ 445
اغة 445
وارن 445
1700 444
1816 444
550 444
74@@ 444
ارد@@ 444
اوق@@ 444
قسمت 444
مبر 444
132 443
King 443
بلال 443
رابط@@ 443
قاس@@ 443
7000 442
زند@@ 442
منتق@@ 442
وجل 442
مغرب 441
69@@ 440
حج 440
عاصم 440
112 439
1807 439
280 439
Brian 439
Qu@@ 439
أيض@@ 439
صاف 439
عارف 439
نما 439
1.8 438
from 438
ology 438
منطق 438
123 437
Fred 437
عس@@ 437
كريك@@ 437
† 437
Str@@ 436
ھ@@ 436
145 435
95@@ 434
day 434
no@@ 434
1801 433
جوان@@ 433
ە@@ 433
ak 432
Howard 431
ator 430
ماذج 430
122 429
8000 429
ATP 429
اسما@@ 429
113 428
63@@ 428
98@@ 428
IP 428
RNA 428
Young 428
ايو 428
117 427
1776 427
1792 427
20,000 427
260 426
ep@@ 426
α 426
اضاف@@ 426
تدار 426
شكال 426
1400 425
Alan 425
ES@@ 425
AT 424
قومي 424
Hall 423
اليف 423
ly 422
si@@ 422
جماع@@ 422
نافع 422
36.@@ 421
مشاع@@ 421
CC@@ 420
NO@@ 420
musician 420
q 420
33.@@ 419
Ph@@ 419
ol 419
ts 419
מ@@ 419
اثنا 419
عائد 419
مسلح 419
A. 418
ah 418
trieved 418
اتر 418
واً 418
1,0@@ 417
1799 417
1817 417
2.2 417
Ap@@ 417
CT@@ 417
قلم 417
AP 416
Frederick 416
RE@@ 416
Clark 415
be 415
onlyinclude 415
العاص 415
فورا 415
Ger@@ 414
Lo@@ 414
ale 414
az@@ 414
ra 414
شاد 414
فوت 414
نزول 414
Gordon 413
do@@ 413
116 412
land 412
راجا 412
Com@@ 411
Gar@@ 411
تحصيل 411
Ac@@ 410
CD 410
Sp@@ 410
actress 410
21@@ 409
77@@ 409
ak@@ 409
text 409
خدرات 408
صوم@@ 408
گ@@ 408
0.000 407
10,@@ 407
64@@ 407
IN@@ 407
تسا 407
خدا@@ 407
مسافر 407
واخر 407
2030 406
York 406
فاتح 406
مشرف 406
ممالك 406
124 405
34.@@ 405
Her@@ 405
PC 405
Man@@ 404
CI@@ 403
Jackson 403
طاق 403
قصى 403
مانا 403
British 402
CP@@ 402
1795 401
1803 401
ik@@ 401
mo@@ 401
119@@ 400
les 400
oph@@ 400
114 399
So@@ 399
جنا 399
مخد@@ 399
1783 398
Mac@@ 398
SS@@ 398
رحم@@ 398
رقي 398
سحر 397
الصنا@@ 396
تفاض@@ 396
155 395
180@@ 395
K. 395
ada 395
end 395
127 394
Kevin 394
do 394
ism 394
اعضاء 394
انواع 394
1.7 393
برق 392
ضمان@@ 392
ماط 392
You 391
all 391
144 390
ara 390
ti 390
متصل 390
13,@@ 389
un 389
فنان@@ 389
وظ 389
126 388
1805 388
79@@ 388
Carlos 388
Har@@ 388
زبان 388
650 387
CH@@ 387
Per@@ 387
الكيمي@@ 387
1793 386
340 386
J. 386
SA@@ 386
are 386
der@@ 386
CE@@ 385
DE@@ 385
vi@@ 385
ستاذ 385
Ber@@ 384
Patrick 384
age 384
be@@ 384
مدت 384
Jean 383
Lab 383
National 383
بود 383
か@@ 383
AB@@ 382
Green 382
OH 382
Ryan 382
Thompson 382
احتجاج 382
تقاض@@ 382
مترجم 382
class 381
دأ 381
صدار@@ 381
Gu@@ 380
MI@@ 380
Mer@@ 380
Walker 380
ig@@ 380
2.4 379
mon@@ 379
مارا 379
وديوم 379
Rec@@ 378
مشيخة 378
مناظر 378
6.5 377
ous 377
نجات 377
76@@ 376
Bruce 376
English 376
Ge@@ 376
ارنة 376
1780 375
35.@@ 375
Eric 375
129 374
ah@@ 373
field 373
زائد 373
85@@ 372
In 372
Wi@@ 372
133 371
اطلاق 371
IS 370
Mal@@ 370
qu@@ 370
ty 370
خطيط 370
ذوق 370
كيرو@@ 370
.org 369
Bi@@ 369
TE@@ 369
par@@ 369
ב@@ 369
ی 369
152 368
Alfred 368
Sal@@ 368
لفزي@@ 368
معاملات 368
منفرد 368
يعيش@@ 368
1788 367
He@@ 367
Moore 367
Robinson 367
136 366
Mat@@ 366
car@@ 366
Black 365
ME@@ 365
ano 365
138 364
Dan 364
IV 364
امتح@@ 364
1775 363
1791 363
Donald 363
IC 363
Roy 363
ary 363
im 363
دارا 363
نعمان 363
225 362
html 362
معاصر 362
نقص@@ 362
يولوج@@ 362
Juan 361
Me@@ 361
NH@@ 361
حيث@@ 361
af@@ 360
ance 360
اورا@@ 360
12,@@ 359
86@@ 359
sa 359
اطر 359
منظر 359
1100 358
1802 358
CA 358
il 358
انعقاد 358
حاضر 358
صحن 358
عطا 358
حجاج 357
134 356
AI@@ 356
s.@@ 356
اعداد 356
منسوب 356
H2O 355
Love 355
eg@@ 355
جنت 355
لوع 355
Ag@@ 354
Hill 354
um@@ 354
الأحي@@ 354
تعاقب 354
لسان@@ 354
1784 353
CC 353
LE@@ 352
Ne@@ 352
net 352
بوم 352
رسن 352
لال@@ 352
-- 351
1.0 351
300@@ 351
Mar 351
ut@@ 351
صورت 351
نن 351
201 350
Zone 350
اعمال 350
118 349
119 349
Gary 349
برز@@ 349
حصاء 349
معاش@@ 349
3,000 348
Harris 348
تصادم 348
1796 347
My@@ 347
التاريخ@@ 347
اندر@@ 347
ميخ@@ 347
وذكسية 347
38.@@ 346
39.@@ 346
O2 346
اعلا@@ 346
عابد 346
متن@@ 346
89@@ 345
Billy 345
Te@@ 345
نيوزي@@ 345
130@@ 344
Wright 344
era 344
ino 344
الرحمان 344
box@@ 343
br@@ 343
ex@@ 343
ה@@ 343
14,@@ 342
1797 342
Dave 342
RO@@ 342
den 342
ite 342
اخذ 342
صفت 342
154 341
Campbell 341
Russell 341
ir 341
style 341
ל@@ 341
ابرات 341
تلامذ@@ 341
380 340
De 340
atus 340
om 340
سرب@@ 340
1794 339
Tony 339
حالي@@ 339
سوان@@ 339
e.@@ 338
فرز@@ 338
2.3 337
235 337
Louis 337
ps 337
184 336
Ross 336
ay@@ 336
لاش 336
ka 335
tis 335
Du@@ 334
kh@@ 334
تلا 334
ومت 334
146 333
Ab@@ 333
cher 333
ins 333
tri@@ 333
Or@@ 332
PE@@ 332
Pro@@ 332
per@@ 332
دلائل 332
سالم@@ 332
Lawrence 331
ida 331
حاش@@ 331
32.@@ 330
802.@@ 330
Charlie 330
خاصا 330
فلوري@@ 330
مائل 330
Fr@@ 329
Ma@@ 329
able 328
ov 328
za 328
فرعون 328
موص@@ 328
Alex 327
Dis@@ 327
Far@@ 327
Ian 327
Mel@@ 327
School 327
اضية 327
تاث@@ 327
ناز 327
142 326
143 326
1787 326
8.5 326
96@@ 326
97@@ 326
Po@@ 326
تبر 326
ناطي@@ 326
000@@ 325
At@@ 325
Sam 325
go@@ 325
model 325
ذبح 325
001 324
Benjamin 324
IP@@ 324
Luis 324
سوار 324
137 323
202 323
211 323
Baker 323
Herbert 323
ns 323
اعتد@@ 323
مرشد 323
0.2 322
165 322
وامي 322
161 321
185 321
87@@ 321
ini 321
ساؤ@@ 321
لانا 321
193 320
37.@@ 320
TS 320
اولاد 320
206 319
CN@@ 319
Sa@@ 319
مختصر 319
153 318
205 318
30,000 318
850 318
Douglas 318
HD 318
ke 318
157 317
1763 317
179@@ 317
Craig 317
Ed 317
Stewart 317
oma 317
بلح@@ 317
فرار 317
148 316
1785 316
Des@@ 316
Ros@@ 316
man@@ 316
mar@@ 316
public 316
sp@@ 316
yl 316
● 316
168 315
Group 315
MP 315
tic 315
رور@@ 315
50,000 314
Bell 314
ש@@ 314
16,@@ 313
Andy 313
Carl 313
Graham 313
Tim 313
ou@@ 313
tion 313
كترو@@ 313
171 312
no 312
ver@@ 312
β 312
اصطلاح 312
شوال 312
151 311
شراب 311
عثمان@@ 311
1.9 310
17,@@ 310
Le 310
Mas@@ 310
berg 310
format 310
pr@@ 310
May 309
ati@@ 309
رحم 309
مخلوق 309
176 308
Marshall 308
ne@@ 308
اجزاء 308
اوا@@ 308
شاف 308
1786 307
3500 307
49.@@ 307
Kelly 307
تحف@@ 307
تحفظ 307
فِ 307
139 306
CR@@ 306
Evans 306
ics 306
ys@@ 306
زوال 306
سارا 306
غزوات 306
0.3 305
181 305
منز 305
منو@@ 305
وكيو 305
84@@ 304
ence 304
ks 304
خاتون 304
AM 303
DA 303
Simon 303
als 303
لعل 303
Anthony 302
RS 302
147 301
1781 301
Un@@ 301
Zealand 301
ene 301
ical 301
st 301
تأس@@ 301
تورا@@ 301
لارا 301
موصل 301
166 300
256 300
PO@@ 300
Roger 300
align 300
الرز@@ 300
1770 299
MS@@ 299
ca 299
co 299
unc@@ 299
انِ 299
ثلا@@ 299
معجز@@ 299
1774 298
AA 298
Ly@@ 298
167 297
195 297
Christopher 297
del 297
ry 297
wood 297
شرائط 297
نَا 297
156 296
2.6 296
48.@@ 296
94@@ 296
au 296
ā@@ 296
النا 296
غص@@ 296
لَا 296
192 295
over@@ 295
بلدي@@ 295
199 294
P. 294
غزل 294
0.4 293
158 293
2.1 293
3.6 293
9000 293
Jason 293
ber@@ 293
ce 293
إ 293
معص@@ 293
173 292
Fe@@ 292
Inter@@ 292
Larry 292
te@@ 292
von 292
Adams 291
Pol@@ 291
du 291
النو@@ 291
سرور 291
212 290
310 290
ISO 290
Ken 290
Manuel 290
My 290
Nor@@ 290
bo@@ 290
اخراج 290
برى 290
خائر 290
فرانسي@@ 290
169 289
208 289
3.7 289
FI@@ 289
ant 289
film 289
hi@@ 289
مند 289
١@@ 289
163 288
Adam 288
NE@@ 288
PS@@ 288
ci@@ 288
pi@@ 288
آم@@ 288
141 287
2.7 287
20,@@ 287
4,000 287
DS 287
Mil@@ 287
Sol@@ 287
con@@ 287
مؤثر 287
ま@@ 287
1,4@@ 286
15,@@ 286
204 286
737 286
Hugh 286
Jimmy 286
ach@@ 286
ura 286
yr@@ 286
TO@@ 285
ant@@ 285
159 284
Fl@@ 284
217 283
Norman 283
ani 283
نن@@ 283
い@@ 283
186 282
365 282
420 282
Ca@@ 282
Morgan 282
3.2 281
Hor@@ 281
Ron 281
pp@@ 281
vin 281
ظالم 281
290 280
Jonathan 280
Mitchell 280
RI@@ 280
Ver@@ 280
ell@@ 280
ford 280
sson 280
اكرة 280
جلا 280
Conn@@ 279
Jeff 279
Pe@@ 279
ita 279
mer 279
اليه@@ 279
لباس 279
215 278
DO@@ 278
Dennis 278
ER 278
Kar@@ 278
ارير 278
Nelson 277
su@@ 277
بلن 277
سندر 277
2.8 276
Antonio 276
Christian 276
Ste@@ 276
ge 276
ons 276
נ@@ 276
غلام 276
1750 275
Hol@@ 275
Keith 275
M. 275
Ser@@ 275
ent@@ 275
tu@@ 275
type 275
نوج@@ 275
209 274
301 274
ang@@ 274
com@@ 274
ker 274
tic@@ 274
اعلان 274
194 273
216 273
West 273
value 273
الشعب@@ 273
لائق 273
مثبت 273
172 272
Murray 272
background 272
177 271
ABC 271
alis 271
مقدس 271
196 270
AN 270
ISBN 270
LA 270
Ward 270
دوغ@@ 270
نعر@@ 270
し@@ 270
179 269
FA 269
RA 269
Terry 269
رستم 269
ضرو@@ 269
غرى 269
191 268
200,000 268
203 268
207 268
Ben 268
Fre@@ 268
ates 268
ot 268
000,000 267
Dr@@ 267
LC 267
Matt 267
TNA 267
ald 267
gen@@ 267
lin@@ 267
آفاق 267
اصد 267
た@@ 267
1777 266
1779 266
AR 266
Bor@@ 266
Im@@ 266
Mag@@ 266
ated 266
re 266
± 266
بازار 266
تخطي@@ 266
さ@@ 266
Dick 265
Miguel 265
ho@@ 265
تمبر 265
محصول 265
164 264
480 264
El 264
Gal@@ 264
Lu@@ 264
Morris 264
PC@@ 264
Sc@@ 264
pl@@ 264
2O@@ 263
3.3 263
4.6 263
500@@ 263
8,000 263
London 263
ane 263
ge@@ 263
int 263
آغ@@ 263
بش 263
ماؤ@@ 263
مختص 263
178 262
Hir@@ 262
SH@@ 262
ari@@ 262
gr@@ 262
he@@ 262
ire 262
mann 262
ole 262
23,@@ 261
Hamilton 261
em 261
ome 261
ys 261
كش 261
Val@@ 260
ath@@ 260
انقلا@@ 260
زنا 260
1772 259
182 259
183 259
One 259
SD@@ 259
ab 259
cr@@ 259
sc@@ 259
é 259
فاسو 259
متنوع 259
149 258
19,@@ 258
221 258
370 258
DC 258
Go@@ 258
Rob@@ 258
Stanley 258
Turner 258
1778 257
222 257
228 257
232 257
787 257
AD 257
عشق 257
0.8 256
275 256
Day 256
South 256
الاختلا@@ 256
مضمون 256
0.6 255
162 255
3.1 255
4.2 255
47.@@ 255
Edwards 255
II@@ 255
Reg@@ 255
begin 255
٢@@ 255
IT@@ 254
contributor 254
timestamp 254
اواخر 254
خوا 254
علی 254
174 253
Do@@ 253
new 253
soccer 253
username 253
اديمية 253
田@@ 253
0.7 252
BM@@ 252
CM@@ 252
ations 252
ies 252
طرز 252
1782 251
18,@@ 251
243 251
Hel@@ 251
IEEE 251
IF@@ 251
Warren 251
ev@@ 251
درد 251
طروا@@ 251
منتشر 251
189 250
198 250
IBM 250
Is@@ 250
STS 250
تلر 250
188 249
281 249
400@@ 249
Tommy 249
We@@ 249
comment 249
ens@@ 249
ett 249
ה 249
اندا@@ 249
218 248
238 248
HTML 248
sw@@ 248
آند@@ 248
اصغر 248
بسا@@ 248
مطالبات 248
1,5@@ 247
110@@ 247
Bobby 247
Me 247
Ralph 247
SI@@ 247
ha 247
آس@@ 247
بخت@@ 247
حالت 247
مدراس 247
187 246
Bel@@ 246
Can@@ 246
US 246
ess 246
متعلق 246
محب 246
AB 245
AE@@ 245
Bro@@ 245
Francisco 245
Lin@@ 245
Man 245
ang 245
est 245
pe 245
اقت 245
المرتب@@ 245
سراج 245
فوراً 245
213 244
3.8 244
Hal@@ 244
Red 244
اسن 244
سی@@ 244
قلات 244
Cook 243
Raymond 243
a.@@ 243
aceae 243
and@@ 243
جيك@@ 243
متبادل 243
Bu@@ 242
Es@@ 242
SC 242
SN 242
United 242
ales 242
ger 242
ma@@ 242
me@@ 242
الشرق@@ 242
224 241
Matthew 241
Si@@ 241
tin 241
was 241
العث@@ 241
تصوف 241
توان@@ 241
رحال 241
مطاب@@ 241
1769 240
H2@@ 240
Ho@@ 240
Journal 240
NS@@ 240
Park 240
TE 240
dis@@ 240
ek@@ 240
ings 240
we 240
لنج 240
A.@@ 239
Kr@@ 239
Mr 239
ئن 239
الن 239
جانا 239
214 238
46.@@ 238
6,000 238
All 238
As 238
Jordan 238
Ram@@ 238
223 237
Johnny 237
Max 237
pe@@ 237
-1 236
AL 236
Roberts 236
غانستان 236
مرتض@@ 236
500,000 235
EC@@ 235
Les 235
NA 235
Os@@ 235
To@@ 235
ac 235
io 235
str@@ 235
توضي@@ 235
,@@ 234
242 234
27,@@ 234
40,000 234
Bennett 234
Cl 234
Oliver 234
ala 234
if 234
ion 234
رنز 234
وسر 234
Bernard 233
Carter 233
EC 233
time 233
حرام 233
داغ 233
197 232
Ba@@ 232
ain 232
ise 232
ser@@ 232
tes 232
دفتر 232
سنن 232
IL 231
ack 231
ok@@ 231
ro 231
لايات 231
مزار 231
262 230
AF 230
Em@@ 230
ko 230
1765 229
255 229
Eddie 229
や@@ 229
21,@@ 228
26,@@ 228
460 228
Maria 228
eh@@ 228
ium 228
التار@@ 228
باقر 228
بدار 228
رجوع 228
كرك@@ 228
Leonard 227
Murphy 227
kinson 227
حنبل 227
ڨ@@ 227
ひ@@ 227
100.000 226
22,@@ 226
3D 226
bl@@ 226
ist@@ 226
lis 226
اصول 226
ٱ@@ 226
0.9 225
241 225
Cooper 225
Dar@@ 225
Parker 225
Wallace 225
Wood 225
aria 225
aths 225
au@@ 225
ek 225
ele 225
mi@@ 225
زاب 225
ھا 225
5.6 224
B1 224
CO 224
Ernest 224
Franklin 224
GP@@ 224
Hy@@ 224
Min@@ 224
Price 224
Tak@@ 224
end@@ 224
ru@@ 224
ן 224
تصورات 224
سماعيل 224
き 224
--@@ 223
245 223
251 223
284 223
325 223
GA 223
Lam@@ 223
San@@ 223
£ 223
ד@@ 223
تشدد 223
سست 223
1768 222
239 222
24,@@ 222
99.@@ 222
Dean 222
MC 222
colspan 222
ja 222
ta@@ 222
اهز 222
فرائ@@ 222
لوبة 222
226 221
5.3 221
Gray 221
IG@@ 221
ach 221
cin@@ 221
row 221
sch@@ 221
that 221
án 221
احت 221
عرفان 221
् 221
し 221
1,6@@ 220
264 220
440 220
Cameron 220
Vi@@ 220
fo@@ 220
ill@@ 220
osa 220
ure 220
بتا 220
مقرر 220
1,8@@ 219
Barry 219
HA 219
Jerry 219
MO@@ 219
ass@@ 219
singer 219
way 219
ע@@ 219
آتش@@ 219
اخبار 219
فاض 219
ناظم 219
257 218
4.3 218
BO@@ 218
Mary 218
Philip 218
Tri@@ 218
width 218
دبا@@ 218
موش 218
1760 217
252 217
Con 217
Life 217
mer@@ 217
اخلا@@ 217
الأفري@@ 217
زخ@@ 217
ڤ 217
430 216
Fox 216
Grant 216
Jay 216
McDonald 216
dr@@ 216
me 216
خلفاء 216
ماسات@@ 216
متاز 216
0.0@@ 215
150@@ 215
1773 215
410 215
Award 215
Little 215
Music 215
Neil 215
System 215
Wayne 215
wiki 215
شنطن 215
مماث@@ 215
منس 215
227 214
285 214
313 214
375 214
CN 214
CS 214
Co 214
Ir@@ 214
Kenneth 214
eb 214
gi@@ 214
ington 214
ong 214
ur 214
4.7 213
A1 213
Foster 213
Men@@ 213
Micro@@ 213
NET 213
Nick 213
SI 213
SN@@ 213
TA 213
center 213
cor@@ 213
iro 213
lard 213
ock 213
out 213
php 213
si 213
تعظ@@ 213
می@@ 213
1596 212
247 212
249 212
3.4 212
30,@@ 212
Connor 212
House 212
It 212
Time 212
ht@@ 212
ian 212
ki 212
lu@@ 212
oney 212
á@@ 212
شجاع 212
1740 211
Aaron 211
News 211
Ol@@ 211
RI 211
Tel@@ 211
ber 211
hy@@ 211
lin 211
ō 211
معاذ 211
نفوس 211
286 210
390 210
AG@@ 210
Collins 210
Sar@@ 210
خوان@@ 210
نسر 210
CF@@ 209
DP 209
Gil@@ 209
don 209
parentid 209
so@@ 209
الخام@@ 209
رام@@ 209
شاد@@ 209
لاست 209
محض 209
مصنف 209
25,@@ 208
3.0 208
Gene 208
Jar@@ 208
Pedro 208
Pre@@ 208
oa 208
معلوم 208
← 208
253 207
272 207
3.9 207
300,000 207
AG 207
BA 207
Char@@ 207
González 207
Google 207
Gre@@ 207
Rogers 207
Watson 207
ors 207
تغلق 207
شنو 207
محقق 207
1756 206
4500 206
640 206
Harold 206
Long 206
On 206
TV@@ 206
VA 206
ula 206
up 206
yc@@ 206
1,7@@ 205
254 205
Blue 205
Edwin 205
FM 205
SH 205
Stone 205
TP 205
ela 205
ili@@ 205
اسد 205
244 204
263 204
4.8 204
BR@@ 204
Brooks 204
Doug 204
Pi@@ 204
Sub@@ 204
Trans@@ 204
ama 204
ei 204
iz@@ 204
sk@@ 204
ym@@ 204
ō@@ 204
ת 204
ادب 204
229 203
Ang@@ 203
Fernando 203
H. 203
Ko@@ 203
LO@@ 203
Press 203
Tom@@ 203
Windows 203
illa 203
ory 203
اوز@@ 203
تايل@@ 203
な@@ 203
269 202
DS@@ 202
Danny 202
FC 202
Lloyd 202
anus 202
tor@@ 202
فی 202
233 201
248 201
Bas@@ 201
Curtis 201
Gilbert 201
N1 201
Pierre 201
Pl@@ 201
Shar@@ 201
Sullivan 201
Vincent 201
ato 201
ette 201
immer 201
li 201
pro@@ 201
ters 201
の@@ 201
265 200
273 200
Austin 200
BS 200
Bl@@ 200
Todd 200
ao 200
aw@@ 200
inae 200
ore 200
ra@@ 200
سعو@@ 200
مباح@@ 200
٠@@ 200
あ@@ 200
1,9@@ 199
DR@@ 199
García 199
Harrison 199
ari 199
est@@ 199
ile 199
ox@@ 199
غالب@@ 199
1689 198
1755 198
302 198
333 198
5.1 198
5.2 198
5.4 198
Phillips 198
all@@ 198
cap@@ 198
ler@@ 198
tro@@ 198
́ 198
اقسام 198
ذخائر 198
274 197
305 197
9.5 197
AF@@ 197
IA 197
Op@@ 197
Ri@@ 197
Su@@ 197
Washington 197
ung 197
تحال 197
درن 197
قرآ@@ 197
مقرا@@ 197
1759 196
ly@@ 196
osis 196
tia 196
1758 195
1771 195
306 195
Bre@@ 195
March 195
aj@@ 195
back 195
ide 195
ito 195
ting 195
ա@@ 195
باعث 195
وی@@ 195
15,000 194
237 194
258 194
45.@@ 194
Arch@@ 194
EP 194
Earl 194
Fin@@ 194
Harvey 194
PR@@ 194
RT@@ 194
ff@@ 194
براير 194
1766 193
4.4 193
950 193
CO2 193
Duncan 193
Prince 193
RC 193
ax 193
elle 193
ney 193
ou 193
بدن 193
جائز 193
دی@@ 193
رقب@@ 193
وائز 193
واسط@@ 193
1660 192
1764 192
234 192
7,000 192
Art 192
Bryan 192
Cy@@ 192
Die 192
Karl 192
PP@@ 192
Research 192
Shel@@ 192
fr@@ 192
its 192
kin 192
ver 192
י 192
مومن 192
1762 191
2.9 191
283 191
31@@ 191
470 191
540 191
6.4 191
747 191
College 191
Cu@@ 191
DM 191
How@@ 191
Ke@@ 191
Richardson 191
Ronald 191
Shaw 191
Star 191
die 191
خالص@@ 191
1,3@@ 190
323 190
6.2 190
Hu@@ 190
Hunter 190
Lar@@ 190
ML@@ 190
Mes@@ 190
Mur@@ 190
Perry 190
Row@@ 190
Stuart 190
1757 189
246 189
288 189
44.@@ 189
Boy@@ 189
CT 189
City 189
Mus@@ 189
Pat 189
Power 189
of@@ 189
well 189
اندرا 189
بخش 189
مستند 189
.000 188
1517 188
2100 188
5.7 188
777 188
Allan 188
Association 188
DVD 188
Ford 188
ID 188
LS 188
Mul@@ 188
Ni@@ 188
TC 188
eri 188
ick@@ 188
ii 188
ves 188
ָ@@ 188
بلخ 188
خراب 188
مقصود 188
∈ 188
276 187
Ellis 187
ative 187
sin@@ 187
sy@@ 187
ּ@@ 187
اطراف 187
حفاظ@@ 187
ری@@ 187
سوع 187
قاز@@ 187
مجرم 187
محراب 187
1492 186
303 186
CP 186
Clarke 186
Jacob 186
Marcus 186
No@@ 186
Rodríguez 186
Society 186
du@@ 186
ech@@ 186
ima 186
تراجم 186
خلا 186
سمرقند 186
متفق 186
1350 185
60,000 185
660 185
B.@@ 185
Rose 185
Service 185
ady 185
ess@@ 185
ni 185
yn@@ 185
ئم 185
صحت 185
فورس 185
مقدمات 185
4.1 184
Center 184
Martínez 184
ann@@ 184
chi@@ 184
cu@@ 184
if@@ 184
امراض 184
بانو 184
يونين 184
′ 184
‹ 184
160@@ 183
297 183
720 183
Arnold 183
Az@@ 183
Black@@ 183
CL@@ 183
Davies 183
Dec@@ 183
Justin 183
Mason 183
RT 183
Steven 183
Ter@@ 183
Vol@@ 183
ents 183
ib@@ 183
pa 183
que 183
بمث@@ 183
داست@@ 183
لی@@ 183
نفاذ 183
25,000 182
293 182
296 182
312 182
Bailey 182
Ul@@ 182
anti@@ 182
cer@@ 182
sel@@ 182
system 182
ub@@ 182
ارِ 182
فرمان 182
231 181
28,@@ 181
321 181
Hughes 181
IE@@ 181
Live 181
North 181
T. 181
Victor 181
ade 181
amp@@ 181
for@@ 181
oth@@ 181
thi@@ 181
آخذ 181
عبدالرحمن 181
282 180
36,@@ 180
Club 180
Science 180
Spencer 180
col@@ 180
tive 180
مولانا 180
1714 179
2,0@@ 179
267 179
277 179
324 179
520 179
610 179
7.1 179
Butler 179
Hay@@ 179
List 179
Media 179
Pan@@ 179
Prot@@ 179
Robertson 179
ng 179
so 179
خوزستان 179
راغب 179
فضائل 179
ملاز@@ 179
268 178
501 178
630 178
BBC 178
Cer@@ 178
IR@@ 178
Silva 178
ids 178
sey 178
تناظر 178
پس 178
1250 177
1720 177
BC 177
Bal@@ 177
Rick 177
Rob 177
XX 177
ba@@ 177
inter@@ 177
low 177
volleyball 177
التغي@@ 177
بقول 177
نسو 177
﴾ 177
5.8 176
Bow@@ 176
Gen@@ 176
Ig@@ 176
Mah@@ 176
ce@@ 176
ez@@ 176
ον 176
الفرنس@@ 176
خوس@@ 176
رخين 176
﴿ 176
219 175
278 175
322 175
5.9 175
560 175
680 175
Hernández 175
Met@@ 175
Porter 175
VI@@ 175
data 175
ect 175
ier 175
ora 175
نگ@@ 175
1742 174
236 174
33,@@ 174
@ 174
AI 174
Cur@@ 174
EM@@ 174
IB@@ 174
Is 174
López 174
Reid 174
Rus@@ 174
bar@@ 174
ef@@ 174
ona 174
tra 174
1718 173
1754 173
287 173
8.1 173
Cox 173
Patterson 173
Vo@@ 173
br 173
cy@@ 173
ish 173
ue 173
الكهرب@@ 173
ستم 173
شعل@@ 173
كويك@@ 173
ین 173
1550 172
1610 172
1648 172
1650 172
1745 172
4.0 172
6.1 172
Eugene 172
Knight 172
Mills 172
SL@@ 172
SM@@ 172
Super 172
bit 172
cc 172
od 172
› 172
1767 171
1920@@ 171
266 171
525 171
570 171
Av@@ 171
DI 171
GE 171
Health 171
Microsoft 171
Mir@@ 171
Pérez 171
Ren@@ 171
SD 171
ai@@ 171
cal@@ 171
ody 171
onia 171
ye 171
à 171
آف 171
الر 171
اوائل 171
خسرو 171
170@@ 170
1730 170
29,@@ 170
338 170
Air 170
CE 170
Entertainment 170
History 170
Lane 170
Mario 170
Sur@@ 170
Ther@@ 170
WHO 170
ם 170
اصحاب 170
تاريو 170
ثبوت 170
1688 169
1741 169
1761 169
315 169
6.3 169
A2 169
Blo@@ 169
FDA 169
Gibson 169
Page 169
This 169
Tor@@ 169
UR@@ 169
USB 169
eng@@ 169
ensen 169
enti@@ 169
lam@@ 169
ment 169
oh@@ 169
tel@@ 169
this 169
ular 169
va 169
van 169
اشخاص 169
سورا@@ 169
عجائب 169
10.000 168
304 168
4.9 168
ES 168
Elliott 168
Pal@@ 168
Sil@@ 168
St. 168
ap 168
ash@@ 168
bu@@ 168
vir@@ 168
امِ 168
تلفظ 168
Company 167
ME 167
No 167
ba 167
can@@ 167
la@@ 167
ola 167
ח@@ 167
ק@@ 167
تسلط 167
مداخ@@ 167
1748 166
2050 166
317 166
Blu@@ 166
Brien 166
CR 166
Carroll 166
Cre@@ 166
LP 166
NXT 166
Ru@@ 166
gu@@ 166
ira 166
och@@ 166
tor 166
uc@@ 166
1707 165
307 165
America 165
Henderson 165
Network 165
SR 165
Sam@@ 165
State 165
Steph@@ 165
Super@@ 165
jo 165
kin@@ 165
line 165
34,@@ 164
490 164
Cam@@ 164
Cap@@ 164
Chapman 164
GSM 164
Royal 164
Van 164
dium 164
fil@@ 164
mat@@ 164
off 164
port 164
rom@@ 164
ts@@ 164
ty@@ 164
ə@@ 164
مصنو@@ 164
1640 163
271 163
6.7 163
Cs 163
Kent 163
Night 163
P.@@ 163
RN@@ 163
Red@@ 163
Reed 163
ena 163
محبوب 163
مطلب 163
1620 162
35,@@ 162
505 162
6.8 162
Business 162
Colin 162
Fisher 162
GS 162
Institute 162
Sean 162
athlete 162
cases 162
icus 162
min@@ 162
بابر 162
2200 161
261 161
299 161
620 161
C.@@ 161
Fi@@ 161
High 161
Isaac 161
Jamie 161
Kay 161
Kennedy 161
Medi@@ 161
Pat@@ 161
Plat@@ 161
Por@@ 161
Show 161
art 161
color 161
els 161
ement 161
tan@@ 161
val@@ 161
مرتب 161
نافذ 161
----@@ 160
EL@@ 160
EN@@ 160
FO@@ 160
FS 160
Greg 160
Hunt 160
Reynolds 160
ji 160
my@@ 160
yer 160
اشع@@ 160
AO@@ 159
Cas@@ 159
Dale 159
Foundation 159
Hart 159
Il@@ 159
Je@@ 159
Johnston 159
Neill 159
Owen 159
Res@@ 159
ax@@ 159
ere 159
oshi 159
return 159
é@@ 159
انفرا@@ 159
انو@@ 159
خوب@@ 159
زخم 159
فارغ 159
مواصلات 159
12,000 158
298 158
311 158
395 158
AK@@ 158
Brandon 158
Crawford 158
Ed@@ 158
MT@@ 158
Mu@@ 158
ail@@ 158
her@@ 158
ides 158
ve@@ 158
تاق 158
شرم 158
نواز 158
37,@@ 157
960 157
Best 157
Derek 157
Fol@@ 157
GB 157
Lucas 157
Pa@@ 157
Ted 157
ish@@ 157
ison 157
خالق 157
دست 157
ستس 157
ー@@ 157
1603 156
600@@ 156
Coleman 156
Education 156
F. 156
LED 156
S.@@ 156
Sher@@ 156
Wells 156
acteri@@ 156
aga 156
ein 156
eria 156
ich@@ 156
iv@@ 156
mag@@ 156
por@@ 156
pos@@ 156
pu@@ 156
α@@ 156
السكان@@ 156
نول 156
1538 155
425 155
André 155
Cle@@ 155
ED@@ 155
IT 155
July 155
Kim 155
Leslie 155
PT@@ 155
Poly@@ 155
Ran@@ 155
Sy@@ 155
aka 155
lig@@ 155
ness 155
out@@ 155
pal@@ 155
right 155
tom@@ 155
use 155
ó@@ 155
حالف 155
1644 154
1715 154
294 154
295 154
39,@@ 154
7.2 154
Big 154
Jo@@ 154
Law@@ 154
Lind@@ 154
RAM 154
War 154
char@@ 154
ese 154
king 154
ong@@ 154
our 154
und@@ 154
ר 154
الاول 154
خون@@ 154
غوث 154
259 153
337 153
512 153
6.6 153
Gi@@ 153
IX 153
Jan 153
Maurice 153
Ti@@ 153
UC@@ 153
Win@@ 153
ame 153
cas@@ 153
don@@ 153
eli@@ 153
yp@@ 153
سوتا 153
مظفر 153
1749 152
1752 152
399 152
Anna 152
Deb@@ 152
Fraser 152
Han@@ 152
IL@@ 152
ON@@ 152
Oscar 152
Simpson 152
TT@@ 152
WA 152
ans@@ 152
more 152
occus 152
مندر 152
1701 151
279 151
291 151
309 151
Active 151
Fletcher 151
Golden 151
LGBT 151
Mad@@ 151
ali@@ 151
ally 151
loc@@ 151
ng@@ 151
ori@@ 151
pre@@ 151
wan 151
web 151
ִ@@ 151
اسلوب 151
بحال 151
نانا 151
ونسب 151
ED 150
Ham@@ 150
SL 150
ee 150
ger@@ 150
har@@ 150
isa 150
دوست 150
صحاف@@ 150
مقبر@@ 150
289 149
316 149
336 149
5.000 149
AV@@ 149
Armstrong 149
Brad 149
Bradley 149
DE 149
Freeman 149
Nov@@ 149
San 149
Tam@@ 149
ado 149
ation@@ 149
dia 149
ding 149
hi 149
rell 149
tica 149
і@@ 149
البشر@@ 149
قبائ@@ 149
قدس 149
مردم 149
1260 148
1743 148
319 148
7.3 148
Anne 148
DR 148
Nicholas 148
Sim@@ 148
Thomson 148
ating 148
ema 148
eter 148
ik 148
ika 148
the@@ 148
up@@ 148
ְ@@ 148
ولِ 148
159@@ 147
331 147
Ben@@ 147
Fran@@ 147
Gerald 147
Law 147
Pro 147
Times 147
Wat@@ 147
Will 147
ali 147
enc@@ 147
sub@@ 147
void 147
الكويك@@ 147
عصمت 147
ゆ@@ 147
ら 147
31.@@ 146
359 146
404 146
978 146
Bir@@ 146
Chuck 146
Cohen 146
EP@@ 146
Gregory 146
Gro@@ 146
PH 146
Phil 146
Torres 146
he 146
micro@@ 146
sol@@ 146
uk@@ 146
ל 146
كيوب@@ 146
مخالف 146
お@@ 146
1735 145
292 145
346 145
354 145
760 145
An 145
Carr 145
Cross 145
IN 145
SE 145
UM@@ 145
Willis 145
edi@@ 145
ex 145
ill 145
ine@@ 145
inger 145
ome@@ 145
rey 145
ville 145
1630 144
1746 144
2400 144
Ali 144
CY@@ 144
LE 144
Malcolm 144
Project 144
Randy 144
Wrestling 144
cl@@ 144
elli 144
ines 144
ip@@ 144
ut 144
ος 144
باطل 144
مطالع@@ 144
つ@@ 144
129@@ 143
510 143
89.@@ 143
Andrews 143
Fern@@ 143
Guy 143
María 143
PI@@ 143
Rafael 143
Rice 143
Tur@@ 143
Ty@@ 143
UT@@ 143
acid 143
alism 143
atum 143
aur@@ 143
ense 143
ets 143
go 143
mu@@ 143
net@@ 143
org@@ 143
سوخ 143
مزاج 143
い 143
1744 142
1751 142
353 142
355 142
367 142
Cole 142
FL@@ 142
HC 142
HP 142
ISC 142
Mol@@ 142
Na 142
PDF 142
PI 142
Pearson 142
States 142
eo 142
ius 142
oides 142
ros@@ 142
uk 142
š@@ 142
ندو@@ 142
نسبت 142
پ 142
大@@ 142
子 142
1450 141
530 141
580 141
625 141
Barnes 141
Burns 141
Eth@@ 141
IO@@ 141
Leon 141
Powell 141
Pres@@ 141
S2 141
chi 141
folia 141
ud@@ 141
نائس 141
み@@ 141
1624 140
332 140
345 140
347 140
385 140
93.@@ 140
DI@@ 140
DL 140
Del@@ 140
Linux 140
Otto 140
Sánchez 140
V. 140
Wal@@ 140
arg@@ 140
ash 140
can 140
lar@@ 140
ord@@ 140
ow@@ 140
tical 140
tics 140
writer 140
گان 140
と@@ 140
も@@ 140
20.000 139
Ak@@ 139
Burton 139
CI 139
Dav@@ 139
Dev@@ 139
Mi@@ 139
OC 139
Ricardo 139
fe@@ 139
fer 139
fer@@ 139
fl@@ 139
sen@@ 139
ای@@ 139
1000@@ 138
401 138
98.@@ 138
April 138
August 138
CDC 138
Ferguson 138
Holmes 138
Inc. 138
Sho@@ 138
Sm@@ 138
Walsh 138
adi@@ 138
ain@@ 138
cul@@ 138
dic@@ 138
eta 138
ran@@ 138
ten@@ 138
tw@@ 138
π 138
פ@@ 138
إليزاب@@ 138
ستيو@@ 138
محدث 138
318 137
32,@@ 137
342 137
59.@@ 137
AK 137
Ash@@ 137
Carl@@ 137
Claude 137
For 137
Gl@@ 137
H2 137
Ha@@ 137
PG 137
SW@@ 137
Wh@@ 137
ard@@ 137
ati 137
ila 137
ling 137
my 137
آس 137
دفاتر 137
1430 136
362 136
366 136
670 136
Davidson 136
Great 136
HT@@ 136
Hayes 136
MacDonald 136
Morton 136
Nathan 136
Office 136
PP 136
Rock 136
Sun@@ 136
Timothy 136
U.S. 136
Women 136
enzie 136
esis 136
mayor 136
ms 136
tions 136
tz 136
ابو@@ 136
شوق 136
فرنس@@ 136
فورنيا 136
معمول 136
نواع 136
だ 136
1,500 135
1680 135
2600 135
329 135
351 135
363 135
536 135
Blair 135
DF 135
FF 135
Gun@@ 135
Hansen 135
Ltd 135
Mann 135
Marc 135
Mos@@ 135
NBC 135
PR 135
To 135
Up 135
Virginia 135
War@@ 135
ds 135
ency 135
ha@@ 135
ie@@ 135
iss@@ 135
oo 135
ster 135
ten 135
yn 135
you 135
اطلا@@ 135
لاؤ@@ 135
1649 134
1753 134
2025 134
371 134
389 134
DSM 134
Dixon 134
Li 134
NP 134
PD 134
Paris 134
Robin 134
SF@@ 134
Santos 134
Tyler 134
aki 134
asp@@ 134
eus 134
ning 134
omy@@ 134
phen@@ 134
ris 134
syndrome 134
we@@ 134
win 134
اعتدال 134
توبر 134
دولت 134
فرانس@@ 134
مخلوط 134
150,000 133
1702 133
1710 133
1721 133
327 133
C1 133
COM 133
Corporation 133
Der@@ 133
HS 133
Kyle 133
Management 133
Pas@@ 133
Percy 133
Power@@ 133
Tar@@ 133
Ur@@ 133
air 133
gar@@ 133
has 133
icks 133
los@@ 133
oth 133
oto 133
γ 133
1521 132
1580 132
1616 132
1713 132
2,5@@ 132
326 132
386 132
999 132
Boyd 132
Dick@@ 132
Leo 132
Milton 132
NT@@ 132
Nag@@ 132
PD@@ 132
Pete 132
Willie 132
XX@@ 132
hydro@@ 132
ins@@ 132
met@@ 132
not 132
سجاد 132
قون@@ 132
لائف 132
山@@ 132
112@@ 131
1325 131
1683 131
1733 131
314 131
AND 131
Gabriel 131
Jesse 131
Joel 131
Kenny 131
Net@@ 131
Nik@@ 131
Open 131
PL@@ 131
Ramírez 131
Rich 131
SR@@ 131
Woods 131
arr@@ 131
ast 131
ey@@ 131
lock 131
oke 131
ַ@@ 131
تنازع 131
لغت 131
يزاب@@ 131
1570 130
1605 130
1727 130
2023 130
349 130
Dunn 130
Dur@@ 130
God@@ 130
Greene 130
McK@@ 130
NI@@ 130
Proc@@ 130
leton 130
pedi@@ 130
revision 130
trans@@ 130
urus 130
כ@@ 130
ס@@ 130
قوت 130
2300 129
415 129
429 129
BB@@ 129
But@@ 129
CH 129
DV@@ 129
Kn@@ 129
Meth@@ 129
Morrison 129
PE 129
Systems 129
Union 129
Vir@@ 129
ath 129
eder@@ 129
his 129
inc@@ 129
ri 129
sion 129
tar@@ 129
yg@@ 129
دادا 129
عقائد 129
250,000 128
381 128
384 128
412 128
422 128
780 128
911 128
96.@@ 128
All@@ 128
Au@@ 128
Awards 128
Burke 128
Cul@@ 128
Den@@ 128
Edgar 128
France 128
Gor@@ 128
Riley 128
Stevens 128
a.org 128
artist 128
atr@@ 128
enton 128
hom@@ 128
ight 128
orum 128
tur@@ 128
حيد 128
صبر 128
نقصان 128
٩@@ 128
き@@ 128
こ 128
1066 127
1516 127
1737 127
1739 127
2,4@@ 127
3,8@@ 127
3200 127
328 127
476 127
508 127
810 127
AMD 127
Cat@@ 127
Clarence 127
Duke 127
ET 127
Gardner 127
Lynn 127
Marie 127
OR 127
ST 127
Ta@@ 127
Web 127
bre@@ 127
ga 127
hu@@ 127
iko 127
oy@@ 127
wikitext 127
צ@@ 127
اتار 127
1340 126
1420 126
1662 126
393 126
707 126
710 126
BI 126
C2 126
French 126
GP 126
Grand 126
Hard@@ 126
Warner 126
aya 126
bul@@ 126
ection 126
für 126
lia 126
mb@@ 126
scale 126
sil@@ 126
ul 126
بی@@ 126
سخت 126
عاشق 126
す@@ 126
0.0 125
1590 125
1672 125
1731 125
2,6@@ 125
2,7@@ 125
308 125
334 125
383 125
4,0@@ 125
405 125
767 125
870 125
980 125
A4 125
Dawson 125
Ful@@ 125
GR@@ 125
Hugo 125
Lynch 125
Palmer 125
Preston 125
Ps 125
Saint 125
Sand@@ 125
Street 125
dy 125
eck 125
firm@@ 125
left 125
ok 125
una 125
اعظم 125
العرق@@ 125
خفضة 125
فی@@ 125
مجاز 125
کان 125
1453 124
3,5@@ 124
369 124
509 124
790 124
Alberto 124
CF 124
Data 124
GT@@ 124
Montgomery 124
NT 124
Rap@@ 124
Rem@@ 124
WCW 124
Whit@@ 124
aa 124
ability 124
anth@@ 124
app@@ 124
bas@@ 124
cha 124
eth@@ 124
onas 124
عقاد 124
€ 124
1642 123
1696 123
730 123
Chi@@ 123
Diego 123
FF@@ 123
Global 123
Irish 123
LD 123
UI 123
USA 123
Wo@@ 123
elly 123
ith 123
ki@@ 123
quot 123
zo 123
ת@@ 123
جينيا 123
ورِ 123
1150 122
1609 122
1729 122
2,8@@ 122
431 122
451 122
Adri@@ 122
Barrett 122
Bou@@ 122
Bryant 122
CM 122
CoV 122
Hem@@ 122
Island 122
Jan@@ 122
MT 122
Sk@@ 122
UL@@ 122
VI 122
ail 122
ashi 122
lan@@ 122
lat@@ 122
mel@@ 122
う@@ 122
1632 121
1747 121
2700 121
361 121
373 121
449 121
705 121
BP 121
Fil@@ 121
Humph@@ 121
Japan 121
Ken@@ 121
Mic@@ 121
Sarah 121
Sw@@ 121
action 121
atic 121
des@@ 121
disease 121
eng 121
gs 121
inf@@ 121
lum 121
mal@@ 121
ological 121
over 121
res@@ 121
une 121
wer 121
مسند 121
335 120
356 120
403 120
454 120
94.@@ 120
Academy 120
Ari@@ 120
Ay@@ 120
CBS 120
Cunningham 120
Donn@@ 120
M.@@ 120
MB 120
MR 120
Mach@@ 120
PN@@ 120
Pablo 120
Pur@@ 120
ROM 120
Richards 120
Sun 120
TCP 120
UK 120
act 120
ake 120
ko@@ 120
language 120
m.@@ 120
mi 120
ost@@ 120
set 120
ther@@ 120
اشرف 120
التأث@@ 120
معزول 120
منافع 120
1390 119
1631 119
1670 119
1734 119
3,0@@ 119
343 119
368 119
392 119
411 119
57.@@ 119
97.@@ 119
Bul@@ 119
European 119
Ga@@ 119
Go 119
Gra@@ 119
Green@@ 119
Jeffrey 119
Khan 119
Lake 119
Lord 119
MIT 119
Maxwell 119
Rom@@ 119
SM 119
SV@@ 119
She@@ 119
Trevor 119
WWF 119
West@@ 119
ami 119
bor@@ 119
bus 119
group 119
mus@@ 119
tim@@ 119
vo@@ 119
بزر@@ 119
لطف 119
مطابق 119
128@@ 118
178@@ 118
357 118
417 118
426 118
590 118
6.0 118
970 118
Ann 118
Barbara 118
EA 118
First 118
Force 118
Human 118
India 118
La@@ 118
Miles 118
Rh@@ 118
Scottish 118
Sky 118
Tim@@ 118
VC 118
ago 118
article 118
awa 118
bur@@ 118
inus 118
ister 118
oni 118
pes 118
poly@@ 118
uli@@ 118
سز 118
お 118
は@@ 118
000.000 117
1520 117
1625 117
1699 117
465 117
5.0 117
820 117
975 117
Berry 117
Blake 117
Cecil 117
Cour@@ 117
Der 117
Ever@@ 117
Herman 117
Hum@@ 117
Jenn@@ 117
Jeremy 117
Mak@@ 117
Nath@@ 117
Series 117
Shi@@ 117
Star@@ 117
ages 117
arab@@ 117
cre@@ 117
ind@@ 117
rie 117
افز@@ 117
التحت@@ 117
شتر 117
ん@@ 117
中@@ 117
1560 116
1712 116
1722 116
421 116
639 116
Ball 116
Glenn 116
Jenkins 116
asi@@ 116
meth@@ 116
minor 116
ont 116
uki 116
اجز@@ 116
حی@@ 116
دفت@@ 116
شروعات 116
■ 116
1.0@@ 115
1385 115
1585 115
1690 115
364 115
377 115
88.@@ 115
910 115
Casey 115
Edmund 115
Hen@@ 115
Ker@@ 115
MTV 115
Server 115
Travis 115
act@@ 115
ania 115
ck 115
com 115
cur@@ 115
gen 115
hand@@ 115
op 115
oy 115
pha 115
Ángel 115
اسباب 115
راست 115
عذاب 115
منقطع 115
ندس 115
″ 115
1370 114
1526 114
1647 114
1654 114
2,9@@ 114
341 114
376 114
379 114
394 114
40,@@ 114
400,000 114
504 114
880 114
Barr@@ 114
East 114
Game 114
HD@@ 114
Hale 114
Javier 114
Jer@@ 114
Line 114
MAC 114
MD 114
Nu@@ 114
OR@@ 114
Radio 114
Roberto 114
aph@@ 114
ational 114
bert 114
ero 114
ici@@ 114
inn@@ 114
ski 114
tal@@ 114
ón 114
ھ 114
1724 113
1725 113
374 113
378 113
38,@@ 113
475 113
605 113
Clifford 113
Cos@@ 113
Dor@@ 113
Fernández 113
Fleming 113
Hans 113
Kat@@ 113
Luke 113
Newton 113
Open@@ 113
Payne 113
`@@ 113
ast@@ 113
che 113
den@@ 113
icum 113
index@@ 113
kar@@ 113
kl@@ 113
mot@@ 113
self 113
top 113
yi 113
گو@@ 113
井@@ 113
1348 112
1547 112
1623 112
1717 112
1732 112
1736 112
40.000 112
447 112
AMC 112
B2 112
Brig@@ 112
Ep@@ 112
GPS 112
Jackie 112
Jane 112
Kam@@ 112
Reichs@@ 112
Stan 112
What 112
Wisconsin 112
ace 112
ack@@ 112
ars 112
bal@@ 112
book 112
esp@@ 112
essman 112
iki 112
men@@ 112
ops 112
ung@@ 112
½ 112
عور@@ 112
يزيا 112
よ@@ 112
1431 111
1540 111
1704 111
3,7@@ 111
372 111
387 111
416 111
461 111
58.@@ 111
Anti@@ 111
Bet@@ 111
Bruno 111
Championship 111
Costa 111
Dow@@ 111
Drew 111
General 111
Jon 111
Kal@@ 111
May@@ 111
Of 111
Public 111
Ra@@ 111
Schmidt 111
Sec@@ 111
Syn@@ 111
T.@@ 111
Tucker 111
anda 111
ants 111
az 111
cat@@ 111
log@@ 111
men 111
mor@@ 111
oni@@ 111
ted 111
which 111
wiki@@ 111
§ 111
ú@@ 111
آصف 111
طوفان 111
متعارف 111
مقصد 111
نذر 111
1380 110
1402 110
1415 110
1598 110
202@@ 110
3,9@@ 110
626 110
Ban@@ 110
Cruz 110
Don@@ 110
Eur@@ 110
Floyd 110
Good 110
Holland 110
Logan 110
Michel 110
PM 110
Sherman 110
Webb 110
agan 110
ality 110
dec@@ 110
ender 110
fa@@ 110
ken 110
org 110
sal@@ 110
son@@ 110
tus 110
ug@@ 110
xx 110
ū@@ 110
اسود 110
باؤ@@ 110
تخت 110
تعارف 110
حضر@@ 110
1530 109
1618 109
1664 109
1665 109
1711 109
344 109
348 109
382 109
Bat@@ 109
DB 109
E.@@ 109
Ear@@ 109
Harper 109
Ja@@ 109
Lindsay 109
Lor@@ 109
On@@ 109
PW 109
Team 109
Vernon 109
Wilhelm 109
abe 109
acter 109
ani@@ 109
ges@@ 109
gi 109
je 109
ocar@@ 109
red 109
tig@@ 109
ture 109
ui 109
Δ@@ 109
ג@@ 109
آرام 109
آزاد 109
اتر@@ 109
خدا 109
سز@@ 109
فرش@@ 109
فرم@@ 109
1608 108
1655 108
1667 108
1685 108
358 108
396 108
616 108
632 108
661 108
830 108
African 108
Book 108
Christ@@ 108
Film 108
Josh 108
Kas@@ 108
Pen@@ 108
Romero 108
Sig@@ 108
Tre@@ 108
ats 108
director 108
ery 108
form 108
iner 108
nd@@ 108
ser 108
world 108
ze@@ 108
انور 108
متنازع 108
کو@@ 108
1433 107
1513 107
1621 107
352 107
391 107
428 107
612 107
840 107
860 107
Cel@@ 107
Cup 107
Donnell 107
Field 107
GO@@ 107
German 107
Gill 107
Hart@@ 107
ID@@ 107
Ivan 107
Jake 107
Myers 107
Ras@@ 107
Republic 107
The@@ 107
Wade 107
Wales 107
ew@@ 107
fi@@ 107
jpg 107
ough@@ 107
ova 107
pan@@ 107
tha 107
title 107
war@@ 107
ائج 107
اباد 107
خانم 107
ساز@@ 107
فتوحات 107
گ 107
ⴰ@@ 107
1080 106
1638 106
1666 106
1674 106
1681 106
1697 106
432 106
479 106
503 106
614 106
9,000 106
Bishop 106
Brenn@@ 106
Forbes 106
Griffin 106
June 106
Med@@ 106
Moreno 106
O4 106
TH@@ 106
We 106
Your 106
apo@@ 106
congr@@ 106
ech 106
ez 106
gol@@ 106
judge 106
oz@@ 106
sky 106
su 106
true 106
í@@ 106
ī@@ 106
الی@@ 106
جوزف 106
ری 106
سنس 106
.jpg 105
1604 105
1656 105
1695 105
1738 105
200.000 105
444 105
486 105
Abraham 105
Apple 105
Bot@@ 105
DH@@ 105
Gall@@ 105
H.@@ 105
Julian 105
Kan@@ 105
League 105
Men 105
PCR 105
PH@@ 105
Rad@@ 105
Sat@@ 105
Sin@@ 105
` 105
ae@@ 105
air@@ 105
ares 105
cell 105
com. 105
eri@@ 105
ial 105
ico 105
ische 105
news 105
sa@@ 105
sor@@ 105
tion@@ 105
ø@@ 105
فاتح@@ 105
معاون 105
0000@@ 104
0s 104
1572 104
2024 104
339 104
427 104
539 104
555 104
740 104
BE 104
BT@@ 104
Be 104
Chry@@ 104
Core 104
EX@@ 104
Eduardo 104
Family 104
GC 104
GmbH 104
HO@@ 104
Ing@@ 104
Jensen 104
Peg@@ 104
Potter 104
Sab@@ 104
UTC 104
Wagner 104
amb@@ 104
bri@@ 104
coach 104
function 104
gl@@ 104
hin@@ 104
less 104
ori 104
tery 104
ä@@ 104
آسام 104
اسحاق 104
بلقان 104
شاخ 104
مباش@@ 104
と 104
む@@ 104
1399 103
1659 103
1676 103
1708 103
1728 103
3,6@@ 103
418 103
585 103
770 103
CW 103
Clayton 103
DT@@ 103
Garrett 103
HBO 103
Home 103
IF 103
Ireland 103
Marsh 103
Multi@@ 103
SY@@ 103
Sem@@ 103
Sergio 103
Yam@@ 103
ands 103
del@@ 103
first 103
ich 103
key 103
ocy@@ 103
ost 103
ota 103
ow 103
pH 103
rec@@ 103
try 103
very 103
via 103
ˈ@@ 103
الغذ@@ 103
شنز 103
عروج 103
قاصر 103
村@@ 103
1050 102
1240 102
1525 102
1652 102
1716 102
522 102
618 102
715 102
BM 102
Banks 102
Barton 102
Bern@@ 102
Bon@@ 102
Che@@ 102
Cro@@ 102
Digital 102
Fac@@ 102
Fuller 102
Geoffrey 102
Gir@@ 102
Gutiérrez 102
Gómez 102
Hod@@ 102
Intel 102
Mart@@ 102
Maur@@ 102
NF 102
Nat@@ 102
PL 102
Quinn 102
Ramos 102
SP 102
Texas 102
Wang 102
Williamson 102
aud 102
ello 102
enn@@ 102
iti@@ 102
itz 102
mes 102
plex 102
vis 102
جاوا 102
قائل 102
نی@@ 102
う 102
1368 101
1515 101
1541 101
1627 101
1669 101
457 101
641 101
Barker 101
Canada 101
Di 101
François 101
Israel 101
Kir@@ 101
Meyer 101
Mit@@ 101
Morales 101
Out@@ 101
Pin@@ 101
Pot@@ 101
Pratt 101
SAT 101
Tro@@ 101
Var@@ 101
Way 101
borne 101
cel@@ 101
phy@@ 101
ster@@ 101
u.@@ 101
were 101
غائب 101
け@@ 101
ろ@@ 101
1349 100
1360 100
1613 100
1687 100
419 100
44,@@ 100
527 100
642 100
711 100
Archib@@ 100
Berg@@ 100
Brow@@ 100
Cad@@ 100
England 100
HIV 100
Hil@@ 100
Int@@ 100
João 100
Ku@@ 100
LT@@ 100
Land@@ 100
ML 100
Muñoz 100
River 100
Shane 100
Thi@@ 100
cho@@ 100
eme 100
iy@@ 100
journalist 100
mac@@ 100
ny 100
service 100
ulus 100
water 100
® 100
المباش@@ 100
شدت 100
٠ 100
《 100
本@@ 100
1290 99
1503 99
1524 99
1559 99
1606 99
1709 99
438 99
604 99
627 99
California 99
Central 99
Dudley 99
GE@@ 99
Gol@@ 99
Head 99
IW@@ 99
Pap@@ 99
amine 99
ays 99
bel@@ 99
dat@@ 99
ear@@ 99
ges 99
hr@@ 99
iah 99
mas@@ 99
nor@@ 99
tis@@ 99
ual 99
ías 99
ør@@ 99
ט@@ 99
صارف 99
1070 98
1346 98
1389 98
1612 98
1645 98
1658 98
1661 98
1684 98
408 98
467 98
518 98
638 98
AE 98
Ach@@ 98
Ann@@ 98
Dan@@ 98
EF@@ 98
Gard@@ 98
Harr@@ 98
Hopkins 98
I. 98
IV@@ 98
Mack 98
Mari@@ 98
O. 98
Randall 98
SPD 98
Simmons 98
Stu@@ 98
WO@@ 98
XML 98
aci@@ 98
ault 98
hal@@ 98
ker@@ 98
ond@@ 98
phosph@@ 98
pol@@ 98
super@@ 98
sus 98
ua 98
vin@@ 98
اوه@@ 98
دانت 98
ذائ@@ 98
مائع 98
مقامات 98
نل 98
1395 97
30.000 97
406 97
575 97
581 97
628 97
AO 97
Battle 97
Chase 97
Dem@@ 97
Dol@@ 97
FL 97
Haw@@ 97
Kerr 97
Klein 97
Kon@@ 97
L.@@ 97
Marco 97
Marvin 97
Medical 97
NA@@ 97
Nak@@ 97
Not@@ 97
Out 97
Ronnie 97
S1 97
Sel@@ 97
Sidney 97
Solomon 97
Video 97
WW@@ 97
aba 97
acet@@ 97
asc@@ 97
ca@@ 97
eda 97
ff 97
ho 97
ny@@ 97
pel@@ 97
ross 97
stein 97
sul@@ 97
theory 97
thr@@ 97
unders 97
wal@@ 97
you@@ 97
ð@@ 97
ائيو 97
احسن 97
اوقات 97
خالص 97
دی 97
فارد 97
み 97
川@@ 97
1204 96
1280 96
1607 96
1651 96
1694 96
177@@ 96
423 96
455 96
481 96
50.000 96
565 96
636 96
656 96
AX 96
Ali@@ 96
And 96
Control 96
Elizabeth 96
F2 96
FR 96
Friedrich 96
Garcia 96
Hawkins 96
Holt 96
Howe 96
Hudson 96
Jesús 96
Kh@@ 96
Kirk 96
Laur@@ 96
Laura 96
Martín 96
Meg@@ 96
NS 96
Pierce 96
Wolf 96
aff@@ 96
down 96
ev 96
state 96
uz@@ 96
wing 96
É@@ 96
ão 96
ç@@ 96
رانا 96
ٰ 96
藤@@ 96
1330 95
1637 95
1675 95
458 95
499 95
725 95
801 95
920 95
BT 95
Baldwin 95
CL 95
ECW 95
Eli@@ 95
Ernst 95
Fow@@ 95
Kor@@ 95
Mand@@ 95
Mun@@ 95
Psych@@ 95
Shannon 95
Shor@@ 95
Sou@@ 95
Technology 95
ami@@ 95
anc@@ 95
ely 95
eman 95
ental 95
have 95
lo 95
min 95
nom@@ 95
oxide 95
reg@@ 95
ynn 95
æ@@ 95
ée 95
جمش@@ 95
روشن 95
محدث@@ 95
ە 95
1230 94
1320 94
1396 94
1502 94
1555 94
1679 94
1686 94
388 94
488 94
541 94
586 94
690 94
925 94
Alejandro 94
Bank 94
Billboard 94
Bot 94
Ca 94
Calvin 94
Enter@@ 94
Girl 94
H1 94
HMS 94
Hand@@ 94
Heart 94
Jacques 94
Joan 94
Kaz@@ 94
Kur@@ 94
MR@@ 94
Matthews 94
Newman 94
Nich@@ 94
Northern 94
O.@@ 94
Pennsylvania 94
Road 94
Sul@@ 94
Three 94
VO@@ 94
Wesley 94
Who 94
aniel 94
ava 94
code 94
ks@@ 94
lan 94
nia 94
odi@@ 94
rest 94
wi@@ 94
ē@@ 94
بلت@@ 94
1220 93
1406 93
1428 93
1519 93
1578 93
1636 93
2,500 93
424 93
442 93
471 93
533 93
930 93
Ahmed 93
Ashley 93
Buchanan 93
Castillo 93
Denis 93
Hardy 93
Internet 93
Jerome 93
Joyce 93
N. 93
Parsons 93
Rhodes 93
Rod 93
T1 93
TR@@ 93
af 93
anner 93
body 93
etta 93
hol@@ 93
ones 93
tho@@ 93
vo 93
vol@@ 93
zi 93
ادوار 93
زِ 93
مفس@@ 93
125@@ 92
1404 92
1511 92
1534 92
1611 92
1617 92
1693 92
1703 92
414 92
433 92
435 92
478 92
492 92
CIA 92
Fischer 92
Fo@@ 92
Georgia 92
Glen 92
Gold 92
Horace 92
Julius 92
MBC 92
October 92
Sanders 92
Sn@@ 92
Sor@@ 92
Sph@@ 92
Tw@@ 92
Uni@@ 92
Vent@@ 92
ace@@ 92
anna 92
je@@ 92
ky 92
let 92
ock@@ 92
osaurus 92
ren@@ 92
usa 92
vi 92
yo@@ 92
zi@@ 92
معاو@@ 92
》 92
1258 91
1410 91
1719 91
397 91
456 91
485 91
506 91
532 91
624 91
907 91
Berlin 91
Bio@@ 91
Blan@@ 91
Byrne 91
Cab@@ 91
Clay 91
DF@@ 91
Dam@@ 91
Development 91
Fe 91
G.@@ 91
Gam@@ 91
IU@@ 91
Last 91
Ler@@ 91
Margaret 91
Paulo 91
Perkins 91
SB 91
Two 91
Vit@@ 91
Whitney 91
arm@@ 91
asis 91
aus@@ 91
ect@@ 91
fill 91
ille 91
ner@@ 91
nes 91
old 91
ote 91
pen@@ 91
pun@@ 91
rot@@ 91
string 91
two 91
uch@@ 91
ware 91
ā 91
اصلاح 91
التاس@@ 91
بخت 91
نجف 91
472 90
515 90
572 90
Abbott 90
BL 90
Chambers 90
Clin@@ 90
D.@@ 90
EM 90
Gom@@ 90
MHz 90
Mac 90
NO 90
Neal 90
Peters 90
Point 90
Queen 90
R.@@ 90
Singh 90
ag 90
arch@@ 90
ass 90
aus 90
illi@@ 90
into 90
isi@@ 90
lett 90
mus 90
ogen@@ 90
omys 90
opus 90
ray 90
β@@ 90
انی@@ 90
اُن@@ 90
تامل 90
پي@@ 90
1328 89
1510 89
1542 89
1622 89
1629 89
1657 89
434 89
436 89
446 89
45,@@ 89
484 89
502 89
523 89
727 89
814 89
Adrian 89
Android 89
Aqu@@ 89
Buck 89
Ci@@ 89
Jennifer 89
New@@ 89
Social 89
Summer 89
any 89
ave 89
band 89
c.@@ 89
flora 89
frey 89
not@@ 89
ography 89
other@@ 89
pon@@ 89
scope 89
sin 89
team 89
val 89
μ@@ 89
بالخصوص 89
زرو 89
مشرق 89
か 89
り@@ 89
わ@@ 89
109@@ 88
1337 88
1409 88
1425 88
1493 88
1588 88
1615 88
1626 88
1641 88
1726 88
402 88
439 88
514 88
542 88
685 88
API 88
Aer@@ 88
Augustus 88
Block 88
Brett 88
CPU 88
Card@@ 88
Chen 88
Cob@@ 88
Games 88
Gau@@ 88
Hom@@ 88
IM 88
Inc 88
LG@@ 88
Lang@@ 88
Ortiz 88
RE 88
Ricky 88
Rodney 88
Roland 88
Small 88
Son@@ 88
agn@@ 88
composer 88
eth 88
ever 88
gie 88
ham 88
original 88
ough 88
radi@@ 88
sia 88
tra@@ 88
var 88
xi@@ 88
yo 88
λ 88
جاتا 88
معاش 88
معزز 88
05@@ 87
1215 87
1535 87
43.@@ 87
448 87
534 87
562 87
Andrés 87
Ant@@ 87
Boy 87
Cerat@@ 87
Chil@@ 87
Death 87
Down 87
Enrique 87
Fer@@ 87
GT 87
J.@@ 87
Jam@@ 87
Jiménez 87
Kin@@ 87
Lang 87
Leon@@ 87
Lisa 87
Mel 87
Mill@@ 87
Ok@@ 87
Oliveira 87
Pop@@ 87
Rivera 87
Spec@@ 87
Sto@@ 87
Sus@@ 87
Tal@@ 87
Under@@ 87
Wall 87
cells 87
dir@@ 87
essor 87
eto@@ 87
hem@@ 87
her 87
kes 87
kr@@ 87
p.@@ 87
patr@@ 87
sch 87
sim@@ 87
ze 87
å@@ 87
سردار 87
فام 87
مقاصد 87
نثر 87
٫ 87
007 86
1170 86
1327 86
1386 86
1527 86
1563 86
1593 86
1671 86
1705 86
473 86
495 86
552 86
655 86
666 86
69.@@ 86
718 86
751 86
815 86
Bush 86
Can 86
Computer 86
DN@@ 86
Daily 86
EL 86
Emer@@ 86
Eng@@ 86
Ern@@ 86
Fab@@ 86
GM 86
ISA 86
Jaime 86
Mayer 86
Name 86
Pic@@ 86
Pul@@ 86
Records 86
Rel@@ 86
Review 86
Schneider 86
Schwar@@ 86
Seymour 86
Spe@@ 86
TM 86
aca 86
ache 86
aea 86
ate@@ 86
chn@@ 86
date 86
enia 86
ert 86
file 86
history 86
ide@@ 86
ites 86
mp@@ 86
ony@@ 86
static 86
uh@@ 86
vers 86
éndez 86
ö@@ 86
ֹ@@ 86
نقش@@ 86
野@@ 86
1,200 85
1512 85
1574 85
1595 85
1635 85
1691 85
1692 85
1723 85
183@@ 85
407 85
413 85
464 85
487 85
543 85
549 85
582 85
79.@@ 85
AH@@ 85
ARC 85
Africa 85
Allison 85
Angel 85
Booth 85
Bull 85
CH3 85
Deutsche 85
Gn@@ 85
Hammond 85
Hope 85
Hydro@@ 85
Kath@@ 85
Kel@@ 85
Light 85
Mam@@ 85
NC 85
Nova 85
Ober@@ 85
Software 85
Tu@@ 85
Ware 85
Winter 85
X. 85
ams 85
andi 85
annon 85
bar 85
ci 85
def 85
dwell 85
entr@@ 85
house 85
ih@@ 85
mis@@ 85
ologist 85
ther 85
ths 85
ton@@ 85
watch 85
worth 85
í 85
γ@@ 85
اجرا 85
الی 85
ٰ@@ 85
ま 85
1001 84
1279 84
1310 84
1375 84
1377 84
1424 84
1495 84
1565 84
1568 84
1614 84
2800 84
437 84
468 84
516 84
601 84
635 84
875 84
ART 84
Ale@@ 84
BL@@ 84
Back 84
CG 84
Carey 84
Díaz 84
EN 84
FIFA 84
GL@@ 84
IR 84
Jr 84
Kend@@ 84
Mem@@ 84
Norton 84
People 84
RD 84
Real 84
Search 84
Sky@@ 84
TF 84
Western 84
Wor@@ 84
amin@@ 84
baller 84
based 84
gram@@ 84
ink 84
ith@@ 84
land@@ 84
las 84
len 84
ots 84
wor@@ 84
اصلاحات 84
انصار 84
تورات 84
جوق 84
لاغر@@ 84
じ@@ 84
1,5 83
1392 83
1417 83
1440 83
1564 83
1569 83
1592 83
1599 83
1628 83
1633 83
1677 83
1706 83
634 83
722 83
990 83
Adap@@ 83
BR 83
Benson 83
Buddy 83
Cli@@ 83
Conrad 83
Earth 83
Gav@@ 83
Julie 83
Ka@@ 83
Ki@@ 83
Mickey 83
Mis@@ 83
Nam@@ 83
Nash 83
Noel 83
Ontario 83
Pand@@ 83
Pictures 83
Reyes 83
Sav@@ 83
TR 83
Te 83
Tran@@ 83
UN 83
Welsh 83
dom@@ 83
een 83
eller 83
emia 83
ern@@ 83
eti@@ 83
illon 83
inal 83
leg@@ 83
lie 83
list 83
o.@@ 83
oid 83
opo@@ 83
ston 83
til@@ 83
vie 83
á 83
ér@@ 83
č@@ 83
ای 83
راسخ 83
نصرت 83
وفاد@@ 83
پي 83
ン@@ 83
木@@ 83
1314 82
1397 82
1480 82
1514 82
1536 82
1634 82
1682 82
409 82
498 82
5,0@@ 82
524 82
Berg 82
Child 82
Da 82
Darren 82
Dwight 82
Erik 82
Food 82
Hur@@ 82
Irving 82
Jacob@@ 82
Ju@@ 82
Nature 82
Pereira 82
Rev@@ 82
Rex 82
Strong 82
Susan 82
Test 82
Theodore 82
ben@@ 82
by@@ 82
cos@@ 82
dem@@ 82
general 82
include 82
ix@@ 82
len@@ 82
mes@@ 82
national 82
off@@ 82
olen 82
olog@@ 82
page 82
side 82
source 82
ven@@ 82
ward 82
ó 82
δ@@ 82
آف@@ 82
پرو@@ 82
ず@@ 82
小@@ 82
1427 81
1504 81
1506 81
1533 81
1537 81
1601 81
176@@ 81
452 81
493 81
526 81
595 81
667 81
704 81
890 81
976 81
AW@@ 81
Bak@@ 81
Beck 81
CV 81
Chad 81
Dro@@ 81
Dy@@ 81
Fire 81
Gold@@ 81
Honor 81
I.@@ 81
LM 81
MBA 81
Magazine 81
Mohammad 81
Moses 81
Obj@@ 81
Phone 81
Song 81
Sports 81
Sutton 81
UV 81
V8 81
Weber 81
Yas@@ 81
about 81
ais 81
alb@@ 81
eon 81
eves 81
fol@@ 81
ived 81
ku@@ 81
lier 81
prot@@ 81
than 81
uchi 81
virus 81
ín 81
ո@@ 81
بم 81
بولر 81
پر@@ 81
‚ 81
た 81
002 80
1470 80
1505 80
1698 80
463 80
602 80
615 80
681 80
768 80
A3 80
AV 80
Bay 80
Bay@@ 80
Das 80
Dom@@ 80
Emma 80
Fili@@ 80
Hippo@@ 80
Impact 80
Jefferson 80
Kurt 80
Lem@@ 80
Lev@@ 80
Lun@@ 80
MB@@ 80
MD@@ 80
NY@@ 80
Now 80
Party 80
Sing@@ 80
Stor@@ 80
Story 80
Sz@@ 80
Tem@@ 80
Year 80
acc@@ 80
aton 80
computer 80
core 80
dan 80
esh 80
ester 80
lav@@ 80
light 80
max 80
pil@@ 80
proc@@ 80
ques 80
rh@@ 80
sier 80
tam@@ 80
tiv@@ 80
view 80
web.archive.org 80
wo@@ 80
یا 80
ܐ 80
1418 79
1528 79
1653 79
462 79
469 79
496 79
521 79
757 79
940 79
Aur@@ 79
Aus@@ 79
Australia 79
Cass@@ 79
Fitz@@ 79
Free 79
Hi@@ 79
Higgins 79
Il 79
Jas@@ 79
Julia 79
L2 79
Mass@@ 79
Moh@@ 79
Old 79
Online 79
PM@@ 79
Post 79
Roman 79
Standard 79
Sydney 79
Tracy 79
Walton 79
ader 79
att@@ 79
chr@@ 79
da@@ 79
eira 79
führer 79
ham@@ 79
jav@@ 79
macro@@ 79
mod@@ 79
ple 79
sing 79
sive 79
table 79
their 79
tin@@ 79
ulation 79
yon 79
ís 79
ς 79
الساد@@ 79
بالآخر 79
دوش 79
ک 79
1180 78
1241 78
1270 78
1429 78
1483 78
1523 78
1602 78
1673 78
1A 78
443 78
535 78
544 78
589 78
629 78
651 78
708 78
775 78
Act 78
Andre 78
CH3@@ 78
Castro 78
Cop@@ 78
César 78
EG 78
ET@@ 78
Flores 78
Grace 78
Griff@@ 78
Hyper@@ 78
If 78
Language 78
Log@@ 78
MA@@ 78
Moon 78
NR@@ 78
Oc@@ 78
Produc@@ 78
Short 78
Space 78
Studies 78
Troy 78
UK@@ 78
Universal 78
Weiss 78
anne 78
aves 78
eau 78
number 78
osaur@@ 78
print 78
server 78
tional 78
top@@ 78
umi 78
wh@@ 78
xy 78
Álvarez 78
Ö@@ 78
الوظ@@ 78
محترم 78
وسطن 78
▪ 78
1259 77
1347 77
545 77
587 77
609 77
645 77
717 77
914 77
Alice 77
Alonso 77
Andersen 77
App@@ 77
Arts 77
Beh@@ 77
China 77
Dana 77
FX 77
Ferr@@ 77
Fi 77
GI 77
Hello 77
Lac@@ 77
Liv@@ 77
Los 77
Lou 77
MI 77
Marion 77
Mich@@ 77
Mod@@ 77
Och@@ 77
Rich@@ 77
SF 77
Wa@@ 77
Zo@@ 77
alm@@ 77
alt@@ 77
bi 77
cus 77
ering 77
ig 77
itor 77
ix 77
line@@ 77
main 77
ust 77
δ 77
σ@@ 77
احمد@@ 77
افتخار 77
سپ@@ 77
شوستس 77
فرائض 77
قربان 77
ماح@@ 77
مشائخ 77
0,0@@ 76
1.5@@ 76
1371 76
1497 76
1539 76
1619 76
2.000 76
483 76
551 76
622 76
985 76
Age 76
Bond 76
Bus@@ 76
Byron 76
Carolina 76
County 76
Doyle 76
Eg@@ 76
Fal@@ 76
Fried@@ 76
Hoffman 76
Joshua 76
Jud@@ 76
Julio 76
KO 76
Kit@@ 76
Manning 76
Nur@@ 76
Over@@ 76
Owens 76
Pet@@ 76
Pter@@ 76
Ruiz 76
Sims 76
Stevenson 76
Thorn@@ 76
Ven@@ 76
WH@@ 76
aris 76
ary@@ 76
bol@@ 76
clus@@ 76
ders 76
dit 76
dra@@ 76
driver 76
duc@@ 76
ean 76
etes 76
ideae 76
los 76
onal 76
ony 76
pin@@ 76
unt 76
wa 76
wrest@@ 76
ν 76
اصطلاحات 76
فورم 76
Ἀ@@ 76
--- 75
1235 75
1490 75
1494 75
1529 75
3G 75
50,@@ 75
507 75
668 75
Children 75
Cliff 75
Design 75
Est@@ 75
Estr@@ 75
Europe 75
F.@@ 75
Fair@@ 75
Fun@@ 75
Gran@@ 75
Hay 75
Heath 75
Iris 75
Jacobs 75
Joy 75
Kid@@ 75
Lab@@ 75
Lim@@ 75
Net 75
Neur@@ 75
Nic@@ 75
Omar 75
Patr@@ 75
Ruth 75
Samm@@ 75
Sha@@ 75
Sinclair 75
That 75
Walt 75
Way@@ 75
Wood@@ 75
adi 75
aer@@ 75
aine 75
businessman 75
ep 75
governor 75
ichi 75
ingham 75
isha 75
ju@@ 75
ke@@ 75
long@@ 75
odon@@ 75
oidea 75
pat@@ 75
phon@@ 75
sti@@ 75
umb@@ 75
ute 75
θ 75
ր@@ 75
داؤ@@ 75
ووا 75
こ@@ 75
わ 75
1394 74
1422 74
1509 74
1552 74
1587 74
1589 74
1594 74
1597 74
1646 74
1678 74
1980s 74
1990s 74
40.@@ 74
441 74
445 74
453 74
46,@@ 74
491 74
528 74
6.000 74
701 74
Af@@ 74
Asian 74
Bundes@@ 74
CAD 74
Chandler 74
Dun@@ 74
Final 74
HR 74
Marty 74
Middle 74
Mohamed 74
N.@@ 74
Nielsen 74
OE@@ 74
Py@@ 74
Regin@@ 74
Ring 74
SU@@ 74
Sir 74
Soci@@ 74
Tab@@ 74
Tag 74
Tan@@ 74
Television 74
Up@@ 74
Zh@@ 74
anger 74
anton 74
aq 74
bins 74
cium 74
ead 74
ector 74
ein@@ 74
face 74
igh@@ 74
live 74
lon 74
mea 74
ode 74
osh 74
oun 74
pa@@ 74
protein 74
px 74
she@@ 74
sis 74
sula 74
var@@ 74
دلفيا 74
عمارات 74
فضا 74
كتيريا 74
مدفون 74
وسكون@@ 74
چ 74
کر@@ 74
ܝ@@ 74
↑ 74
1185 73
1586 73
1663 73
500.000 73
529 73
969 73
Bac@@ 73
Cin@@ 73
Gould 73
Houston 73
How 73
LAN 73
M2 73
Myr@@ 73
ND 73
Nol@@ 73
Not 73
ON 73
Ob@@ 73
Set@@ 73
Spir@@ 73
Trav@@ 73
Us@@ 73
Web@@ 73
Wild 73
Will@@ 73
With 73
aden@@ 73
enne 73
eum 73
flu@@ 73
gri@@ 73
idan 73
ista 73
mm 73
officer 73
oscop@@ 73
pres@@ 73
print@@ 73
rel@@ 73
syn@@ 73
ust@@ 73
vor@@ 73
ائش 73
اخلاق 73
اشرا@@ 73
اشعار 73
شعرا 73
مزاح@@ 73
ち 73
市 73
09@@ 72
1316 72
1382 72
1583 72
398 72
42.@@ 72
477 72
537 72
547 72
613 72
Anton 72
Baby 72
Body 72
Bour@@ 72
Brit@@ 72
C4 72
CV@@ 72
EF 72
Emerson 72
Eva 72
Good@@ 72
Goodman 72
Hancock 72
Helen 72
Jessica 72
Ka 72
Lambert 72
Lyon 72
MO 72
Ma 72
Nar@@ 72
PT 72
Pav@@ 72
Ramón 72
Rotten 72
SARS 72
SV 72
Sharp 72
acy 72
agher 72
alia 72
amm@@ 72
arius 72
astr@@ 72
author 72
bio 72
coronavirus 72
ements 72
eph@@ 72
esti@@ 72
get 72
head 72
idea 72
ier@@ 72
ini@@ 72
itas 72
lers 72
like 72
media 72
ods 72
ories 72
orus 72
player 72
sec@@ 72
ship 72
stone 72
sum@@ 72
ull 72
ush 72
ush@@ 72
uta 72
wick 72
zo@@ 72
ác@@ 72
án@@ 72
ئس 72
اسلام 72
وصال 72
1190 71
1274 71
1311 71
1365 71
1522 71
1551 71
1554 71
1558 71
1571 71
1584 71
1591 71
466 71
511 71
553 71
ACE 71
Astr@@ 71
Catherine 71
Dead 71
End 71
Express 71
Franz 71
Gil 71
Heinrich 71
Hogan 71
John@@ 71
Junior 71
Kol@@ 71
Land 71
Laugh@@ 71
M1 71
Maz@@ 71
ND@@ 71
Ohio 71
Ox@@ 71
Phot@@ 71
RP 71
Sac@@ 71
Santiago 71
Sr@@ 71
Stein 71
Suárez 71
Tas@@ 71
Today 71
Top 71
Trust 71
VII 71
Werner 71
Wong 71
also 71
amoto 71
atos 71
ble 71
cer 71
cia 71
endr@@ 71
esia 71
etus 71
ful 71
full 71
inson 71
int@@ 71
isti@@ 71
ji@@ 71
ment@@ 71
mit@@ 71
nh@@ 71
oli@@ 71
ons@@ 71
ott 71
phis 71
rid 71
sevi@@ 71
star 71
tan 71
ures 71
version 71
will 71
ä 71
ός 71
جناب 71
مجسم@@ 71
٢ 71
1248 70
1556 70
1643 70
4,5 70
474 70
50.@@ 70
Air@@ 70
CON@@ 70
Carson 70
Corn@@ 70
Dani@@ 70
Del 70
Drake 70
Elec@@ 70
Evan 70
Franco 70
GO 70
God 70
HF 70
HI 70
Hon@@ 70
Héctor 70
Johan 70
Jump 70
Kirby 70
Kramer 70
LF 70
Lester 70
Louise 70
Ms 70
Organization 70
Ot@@ 70
Seg@@ 70
Shig@@ 70
Theory 70
Us 70
Victoria 70
ais@@ 70
ando 70
ante 70
bs@@ 70
chem@@ 70
chen 70
cop@@ 70
double 70
elec@@ 70
illus 70
kg 70
obi@@ 70
olo@@ 70
play 70
point 70
private 70
say 70
ses 70
sten 70
stroke 70
sy 70
uke 70
uni@@ 70
uri 70
vul@@ 70
yan@@ 70
yle 70
yst@@ 70
ω 70
ב 70
ببر 70
نصاب 70
کان@@ 70
り 70
1,2 69
1275 69
1341 69
1478 69
1557 69
31,@@ 69
48,@@ 69
603 69
607 69
Alexandre 69
Andr@@ 69
Arab@@ 69
Army 69
BN 69
Barcelona 69
Bart@@ 69
Bird 69
By@@ 69
Clyde 69
Cornelius 69
Cru@@ 69
Cyril 69
Do 69
Empire 69
F1 69
Fu@@ 69
Hus@@ 69
Krist@@ 69
Linda 69
Memory 69
Müller 69
Patricia 69
Randolph 69
Rudolf 69
Se 69
Ses@@ 69
anti 69
anum 69
asy@@ 69
ater 69
ather 69
eh 69
erson 69
ight@@ 69
ilia 69
ime 69
interface 69
istic 69
lac@@ 69
med@@ 69
memory 69
new@@ 69
oi 69
opath@@ 69
our@@ 69
pard 69
pul@@ 69
ć 69
π@@ 69
ז@@ 69
معتبر 69
1315 68
1405 68
2D 68
47,@@ 68
546 68
ATA 68
Ai 68
Alpha 68
Andreas 68
Arab 68
Aut@@ 68
CLC 68
Comp@@ 68
Diamond 68
Eu@@ 68
FBI 68
FP@@ 68
Fle@@ 68
Hat@@ 68
Hodg@@ 68
Hot 68
Keller 68
Levi 68
Lib@@ 68
Like 68
Luc@@ 68
Museum 68
Noble 68
Pseud@@ 68
Radi@@ 68
Rojas 68
Rub@@ 68
Ry@@ 68
SG@@ 68
Shawn 68
Shepher@@ 68
Stefan 68
String 68
Sum@@ 68
Tol@@ 68
Vas@@ 68
Verlag 68
WS 68
Wid@@ 68
ale@@ 68
arium 68
ayer 68
con 68
dule 68
dy@@ 68
es.@@ 68
irus 68
law 68
method 68
olly 68
osus 68
ph 68
qui@@ 68
sn@@ 68
test 68
tors 68
uses 68
xy@@ 68
μ 68
شائر 68
شی@@ 68
مربوط 68
١ 68
じ 68
1295 67
1518 67
1532 67
1543 67
1577 67
531 67
712 67
ASA 67
Ath@@ 67
Centre 67
Charlotte 67
Chester 67
Cla@@ 67
Council 67
DA@@ 67
Egypt 67
FT 67
Fir@@ 67
Frost 67
Herrera 67
Hubert 67
Kingdom 67
Learning 67
MM@@ 67
Major 67
Model 67
Mom@@ 67
Mr. 67
Og@@ 67
Orlando 67
PV 67
Pad@@ 67
Phil@@ 67
Pyr@@ 67
Rou@@ 67
Sandy 67
Security 67
Self 67
Services 67
Urban 67
XP 67
ator@@ 67
aun 67
bal 67
gic 67
gren 67
itis 67
ization 67
kins 67
lab@@ 67
ll 67
mir@@ 67
mo 67
mond 67
mos@@ 67
non 67
process 67
quez 67
ski@@ 67
sta 67
uck 67
ump@@ 67
استدلال 67
تی@@ 67
ら@@ 67
.1 66
1.000 66
1234 66
1499 66
1501 66
1531 66
1562 66
1582 66
1639 66
1970s 66
3.000 66
300.000 66
538 66
652 66
Abr@@ 66
Bent@@ 66
Bin@@ 66
Bradford 66
Class 66
DL@@ 66
Dami@@ 66
Dark 66
EB@@ 66
Ec@@ 66
Engineering 66
February 66
Ferreira 66
Flu@@ 66
Griffith 66
Horn 66
Image 66
Information 66
Joey 66
Kem@@ 66
Kil@@ 66
Leg@@ 66
Mg@@ 66
Michigan 66
Mik@@ 66
Nord@@ 66
Oper@@ 66
Peter@@ 66
Pil@@ 66
Play 66
RFC 66
Rodriguez 66
SK 66
Shin@@ 66
Stern 66
TG@@ 66
Yu@@ 66
aller 66
any@@ 66
aster 66
avirus 66
aye 66
been 66
but@@ 66
ecus 66
etti 66
form@@ 66
gal@@ 66
gre@@ 66
iOS 66
later 66
load 66
mRNA 66
mine 66
object 66
oko 66
onist 66
producer 66
reo 66
rium 66
sur@@ 66
tric@@ 66
حارث 66
رواج 66
سادات 66
عباس@@ 66
وقار 66
の 66
三@@ 66
1160 65
1284 65
1378 65
1388 65
1435 65
494 65
845 65
ACP 65
Abi@@ 65
Andrea 65
Bos@@ 65
Division 65
IUCN 65
Labour 65
Leigh 65
Let 65
Lopez 65
MM 65
Movie 65
PN 65
Pear@@ 65
Run@@ 65
Savage 65
System@@ 65
Tap@@ 65
UR 65
Víctor 65
ades 65
aird 65
alist 65
bin 65
bridge 65
campus 65
eer 65
eland 65
fin@@ 65
ft 65
had 65
height 65
ifolia 65
ket@@ 65
medi@@ 65
mil@@ 65
nio 65
opard 65
osh@@ 65
ret@@ 65
ru 65
tero 65
trol@@ 65
under 65
wat@@ 65
your 65
zy@@ 65
ρ 65
א 65
افعال 65
تاثر 65
جی@@ 65
خانق@@ 65
سونا 65
مرث@@ 65
مشغول 65
نعمت 65
نيطرة 65
یر 65
ふ@@ 65
ろ 65
1355 64
1668 64
2,5 64
Ana 64
Anti 64
BB 64
Berger 64
Blood 64
Bol@@ 64
Books 64
Brand 64
Donovan 64
Felix 64
Gerard 64
Gle@@ 64
Guide 64
HL 64
He 64
Hotel 64
Ish@@ 64
Jun 64
KA 64
Knox 64
LV 64
Lec@@ 64
Ludwig 64
Navarro 64
Roc@@ 64
Rodrigo 64
SK@@ 64
Sea 64
Type 64
Yang 64
Yu 64
adia 64
ads 64
aft 64
ahl 64
eu@@ 64
following 64
get@@ 64
han 64
hum@@ 64
iPhone 64
ils 64
inda 64
information 64
onn@@ 64
orr@@ 64
plas@@ 64
port@@ 64
ps@@ 64
ran 64
ry@@ 64
spec@@ 64
tern@@ 64
war 64
â@@ 64
اپ@@ 64
رمض@@ 64
فائر 64
فارم 64
া@@ 64
く@@ 64
1130 63
1303 63
1553 63
1566 63
1573 63
1581 63
49,@@ 63
675 63
AST 63
Am 63
Barb@@ 63
Beach 63
Blackburn 63
Bru@@ 63
Carol 63
Class@@ 63
DD 63
DT 63
Florida 63
From 63
Gib@@ 63
Gill@@ 63
HTTP 63
Haz@@ 63
Koh@@ 63
Kom@@ 63
Kumar 63
Lady 63
Laurence 63
Levy 63
Library 63
MG@@ 63
Manitoba 63
Medina 63
Mut@@ 63
Nigel 63
RF@@ 63
Reich 63
Reich@@ 63
Rot@@ 63
Singer 63
Snow 63
VP 63
VW 63
Vicente 63
Wol@@ 63
Wu 63
Yos@@ 63
alan@@ 63
alg@@ 63
alization 63
anthus 63
atio 63
aux 63
ban@@ 63
but 63
def@@ 63
ffy 63
flo@@ 63
frame 63
ign@@ 63
ij@@ 63
ike 63
ilo 63
ision 63
iz 63
onic 63
phot@@ 63
plic@@ 63
po 63
press 63
properties 63
sac@@ 63
space 63
tem@@ 63
v. 63
yan 63
à@@ 63
ă@@ 63
ئر@@ 63
ئى 63
◊ 63
え@@ 63
1291 62
1485 62
1548 62
1575 62
250.000 62
888 62
965 62
Anders 62
Bit@@ 62
Cir@@ 62
EE 62
Edition 62
Eff@@ 62
Felipe 62
ION 62
Java 62
Kane 62
Koch 62
Ky@@ 62
Lance 62
Lat@@ 62
Lov@@ 62
Luther 62
Map@@ 62
Martha 62
Mendoza 62
Mind 62
Over 62
Pel@@ 62
Pri@@ 62
Princess 62
Ray@@ 62
René 62
Rosenberg 62
Ruther@@ 62
Saf@@ 62
Sak@@ 62
Saw@@ 62
Stop 62
Tech 62
Vargas 62
Writ@@ 62
Zero 62
aire 62
chem 62
d.@@ 62
elia 62
enberg 62
ists 62
log 62
mal 62
mark 62
mit 62
neur@@ 62
oki 62
ose 62
other 62
ple@@ 62
racing 62
ric 62
sam@@ 62
sonia 62
stell@@ 62
tre 62
tro 62
tu 62
used 62
ד 62
دروا@@ 62
مستعمل 62
ملوث 62
け 62
ん 62
上@@ 62
1296 61
1307 61
1460 61
1488 61
1498 61
150.000 61
8.000 61
Bo 61
Bridge 61
C3 61
CB@@ 61
CU@@ 61
Cell 61
Court 61
DO 61
Fame 61
Fel@@ 61
GHz 61
Gates 61
Henri 61
Inf@@ 61
Ivan@@ 61
Jonas 61
KV@@ 61
Kerry 61
LCD 61
Marcel 61
Ny@@ 61
Núñez 61
Pach@@ 61
Protocol 61
Roth 61
Som@@ 61
Soto 61
Studio 61
Sup@@ 61
TO 61
Tour 61
Tour@@ 61
UP 61
Vie@@ 61
W.@@ 61
Wit@@ 61
andes 61
aqu@@ 61
arry 61
asa 61
axis 61
bia 61
bil@@ 61
bin@@ 61
bo 61
case 61
cm 61
content 61
ernet 61
escens 61
ind 61
ital 61
ket 61
km 61
link 61
oe 61
only 61
ont@@ 61
par 61
pour 61
second 61
sit@@ 61
ticus 61
vari@@ 61
vic@@ 61
³ 61
är@@ 61
بسر 61
خود 61
زی@@ 61
محفل 61
٣@@ 61
イ@@ 61
07@@ 60
08@@ 60
1261 60
997 60
Abel 60
Action 60
Bell@@ 60
Clement 60
Det@@ 60
Din@@ 60
Fritz 60
GN@@ 60
Gas@@ 60
Guerrero 60
Has@@ 60
Hern@@ 60
Imag@@ 60
Jo 60
Jung 60
Kate 60
Lis@@ 60
Lyn@@ 60
Miy@@ 60
Mountain 60
NFL 60
Nicolás 60
Order 60
PCI 60
Pharm@@ 60
Phyl@@ 60
Plan@@ 60
Pu@@ 60
Rho@@ 60
Rhynch@@ 60
Rights 60
Rod@@ 60
Smart 60
So 60
Sony 60
Squ@@ 60
St 60
Tate 60
There 60
Thom@@ 60
UE 60
Valentine 60
Vil@@ 60
aja 60
ajas 60
aro 60
avi@@ 60
bot 60
bs 60
buch 60
cycl@@ 60
enthal 60
eva 60
gy 60
hor@@ 60
icul@@ 60
idy 60
k.@@ 60
lem@@ 60
ores 60
py@@ 60
sho@@ 60
show 60
uca 60
ules 60
who 60
ás@@ 60
ô@@ 60
Σ@@ 60
احد 60
غزو@@ 60
موصوف 60
る 60
1225 59
1308 59
1439 59
1508 59
1545 59
1546 59
559 59
576 59
Acc@@ 59
Are 59
Benny 59
Bil@@ 59
Bran@@ 59
Care 59
D1 59
DNS 59
Div@@ 59
Dragon 59
Gamb@@ 59
Get 59
Hog@@ 59
IEC 59
Ignacio 59
Limited 59
Liu 59
MAX 59
Marcos 59
Mess@@ 59
Mode 59
Mohammed 59
Mé@@ 59
NWA 59
Oxford 59
PO 59
Raj@@ 59
Sach@@ 59
Special 59
Unit 59
Vázquez 59
Whiteh@@ 59
agus 59
ains 59
ames 59
bos@@ 59
ces 59
chard 59
ches 59
control 59
dae 59
det@@ 59
domain 59
eni 59
enson 59
fon@@ 59
itz@@ 59
qi 59
sem@@ 59
sl@@ 59
tex@@ 59
thre@@ 59
tney 59
yd@@ 59
ł@@ 59
Ι 59
ν@@ 59
بین 59
عبدالح@@ 59
་ 59
„ 59
リ@@ 59
1544 58
1561 58
2A 58
Ah@@ 58
Alb@@ 58
Amy 58
Arabic 58
Asia 58
Bonn@@ 58
By 58
Campos 58
Cent@@ 58
Chan 58
Cher@@ 58
DJ 58
Direc@@ 58
Ev@@ 58
Flan@@ 58
Hoffmann 58
Hong 58
Hyde 58
Jules 58
Just 58
KG 58
Key 58
Lincoln 58
Lit@@ 58
Machine 58
Maj@@ 58
McMahon 58
Medicine 58
Michelle 58
Nolan 58
Per 58
Play@@ 58
Pod@@ 58
Polyg@@ 58
Raúl 58
Robbie 58
Rol@@ 58
Ruf@@ 58
Sen@@ 58
UC 58
UT 58
Vaughan 58
agr@@ 58
ann 58
ases 58
ban 58
blog@@ 58
chlor@@ 58
das 58
ej@@ 58
endan 58
eno 58
enter 58
family 58
four 58
game 58
ige 58
ité 58
mail 58
mic 58
pit@@ 58
rowspan 58
san@@ 58
site 58
unit 58
uv@@ 58
vit@@ 58
web@@ 58
won 58
x86 58
φ 58
آرا 58
اقد@@ 58
راحت 58
زمباب@@ 58
زيران 58
قی@@ 58
موئ@@ 58
ა@@ 58
ⵉ@@ 58
ー 58
松@@ 58
高@@ 58
이@@ 58
1484 57
1567 57
58,@@ 57
Base 57
Brun@@ 57
Capital 57
Christie 57
Conservative 57
Da@@ 57
Delgado 57
Dr. 57
Ds 57
EU 57
Echin@@ 57
FE 57
Future 57
Gabri@@ 57
Gibbs 57
Guillermo 57
Gustavo 57
Hal 57
ICA@@ 57
ICC 57
Indian 57
Ji@@ 57
Johann 57
Kaiser 57
Kaplan 57
Lima 57
Living@@ 57
Lorenzo 57
Magic 57
Main 57
Molina 57
Monte 57
Nixon 57
PF 57
Petr@@ 57
Philippe 57
Port 57
Ret@@ 57
Richmond 57
Room 57
Sad@@ 57
Sara 57
Sonny 57
Steel 57
Tsu@@ 57
Valley 57
Vel@@ 57
Vince 57
Woman 57
Word@@ 57
Works 57
aber 57
ading 57
ander 57
aro@@ 57
ects 57
edo 57
educ@@ 57
emb@@ 57
ening 57
estr@@ 57
etic 57
fre@@ 57
fur@@ 57
hydr@@ 57
illo 57
index 57
ior 57
kan 57
lor 57
ments 57
nier 57
ols 57
ović 57
owski 57
peri@@ 57
plus 57
rano 57
ström 57
tier 57
ud 57
uno 57
uti@@ 57
ás 57
ía 57
ü@@ 57
κ@@ 57
اختتام 57
اردن 57
امرا 57
مصنوعات 57
1282 56
1302 56
1323 56
1481 56
1496 56
41.@@ 56
BSD 56
Bab@@ 56
Betty 56
Blanco 56
Cabrera 56
Cav@@ 56
Command 56
Desmond 56
Diana 56
Dic@@ 56
Disney 56
Dre@@ 56
Energy 56
Giles 56
Gly@@ 56
Greg@@ 56
Hagen 56
Joh@@ 56
Kap@@ 56
Karen 56
Miss 56
Mobile 56
Monroe 56
Nas@@ 56
Neg@@ 56
Nem@@ 56
Nicolas 56
Om@@ 56
Operation 56
Peri@@ 56
Pinto 56
Plus 56
Pom@@ 56
Publ@@ 56
RN 56
Sci@@ 56
Studios 56
When 56
Xen@@ 56
acea 56
acker 56
age@@ 56
aut@@ 56
ayn@@ 56
between 56
bie 56
boy 56
bus@@ 56
chrom@@ 56
cian 56
dez 56
dt 56
ective 56
enz 56
gas 56
han@@ 56
ize 56
kov 56
lit@@ 56
mad@@ 56
ogr@@ 56
otis 56
people 56
pi 56
range 56
room 56
small 56
tidae 56
urs 56
urt 56
vis@@ 56
wer@@ 56
yal@@ 56
ye@@ 56
Álvaro 56
è@@ 56
és 56
Η@@ 56
ابد@@ 56
اصف@@ 56
ايتد 56
سخن 56
石@@ 56
1304 55
1336 55
1356 55
548 55
60.000 55
7.000 55
843 55
AU 55
AU@@ 55
Adler 55
Adobe 55
Alfredo 55
Back@@ 55
Boys 55
CH2@@ 55
Cath@@ 55
Ceph@@ 55
Chang 55
Christine 55
Comics 55
D2 55
Encyclo@@ 55
FR@@ 55
Festival 55
Flash 55
HE@@ 55
Hack@@ 55
Hood 55
Hyp@@ 55
ISS 55
Iron 55
Jac@@ 55
Kim@@ 55
Leonardo 55
Low@@ 55
MG 55
Mack@@ 55
Mont@@ 55
Nav@@ 55
Neville 55
Pi 55
Report 55
Rosa 55
Sciences 55
Shep@@ 55
Speed 55
Sylv@@ 55
V6 55
Volume 55
Zhang 55
arc@@ 55
art@@ 55
assi@@ 55
ature 55
bach 55
bishop 55
bury 55
cast 55
charge 55
che@@ 55
ching 55
cio 55
doc@@ 55
eous 55
etz 55
free 55
gil@@ 55
itch 55
itt 55
ky@@ 55
lang 55
life 55
music 55
nam@@ 55
oso 55
pri@@ 55
que@@ 55
ste@@ 55
tie 55
tle 55
tournament 55
tre@@ 55
ungs@@ 55
vel@@ 55
wan@@ 55
ww@@ 55
¤ 55
Óscar 55
ñ@@ 55
دوز@@ 55
رحمان 55
مردان 55
ἀ@@ 55
や 55
0,1 54
1472 54
1475 54
482 54
ABA 54
Anth@@ 54
Box 54
Brooke 54
Claire 54
Cleveland 54
Community 54
Coron@@ 54
Cros@@ 54
Dee 54
Dich@@ 54
Dorothy 54
Dream 54
EV@@ 54
Edison 54
Fro@@ 54
Full 54
Fur@@ 54
Gener@@ 54
Goldberg 54
Gon@@ 54
Grim@@ 54
HT 54
Hampton 54
Hin@@ 54
Kos@@ 54
Kov@@ 54
Las@@ 54
Lauren 54
Lon@@ 54
NB 54
Ne 54
News@@ 54
Pos@@ 54
Prize 54
Rossi 54
Samp@@ 54
Staf@@ 54
Swift 54
Tyr@@ 54
Wend@@ 54
Yi 54
Yo@@ 54
anga 54
aper 54
burg 54
burn 54
chart 54
cs 54
cy 54
din@@ 54
dos 54
ement@@ 54
ences 54
esh@@ 54
fe 54
gin@@ 54
ider 54
iga 54
illy 54
iri 54
ls@@ 54
m2 54
mic@@ 54
ning@@ 54
oll@@ 54
opsis 54
oride 54
pedia 54
phys@@ 54
plan@@ 54
pot@@ 54
rea 54
software 54
synth@@ 54
wil@@ 54
ws 54
ε@@ 54
ׁ@@ 54
بزنس 54
راول@@ 54
سوال@@ 54
شاخ@@ 54
1205 53
1455 53
1471 53
1576 53
Alliance 53
Ass@@ 53
Bad 53
Beta 53
Bun@@ 53
Culture 53
Cyc@@ 53
December 53
Derr@@ 53
ESA 53
Elliot 53
FE@@ 53
Flo@@ 53
Girls 53
Guerra 53
Hed@@ 53
Kab@@ 53
Les@@ 53
Massachusetts 53
Ori@@ 53
Pick@@ 53
Pug@@ 53
Rodrigu@@ 53
Sally 53
Salvador 53
Sandra 53
Second 53
See 53
Sophie 53
Sterling 53
Sv@@ 53
UB@@ 53
UE@@ 53
Vega 53
Vic 53
Viol@@ 53
Wel@@ 53
Xavier 53
ables 53
andro 53
atory 53
awn 53
berto 53
bot@@ 53
cape 53
costa 53
dom 53
eco 53
elds 53
eline 53
ien 53
iss 53
lib@@ 53
most 53
na@@ 53
network 53
nucle@@ 53
num 53
olan 53
oli 53
outs 53
part 53
phil@@ 53
phone 53
plasma 53
research 53
rou@@ 53
round 53
sk 53
uster 53
word 53
xter 53
´ 53
Á@@ 53
ż@@ 53
ו 53
بائل 53
دعو@@ 53
مشيخ@@ 53
٥ 53
ڭ 53
ス@@ 53
1549 52
1579 52
25.000 52
3,5 52
92.@@ 52
ACT 52
Andre@@ 52
BI@@ 52
Becker 52
Case 52
Chicago 52
Clinton 52
Columbia 52
Common 52
DB@@ 52
Dat@@ 52
Dictionary 52
Doc@@ 52
Florence 52
Frank@@ 52
Gaz@@ 52
Hermann 52
IB 52
ICE 52
IPv@@ 52
Islands 52
Justice 52
MV 52
Mathemati@@ 52
Mick 52
Mount 52
Phen@@ 52
Prim@@ 52
Rab@@ 52
Ris@@ 52
SAP 52
Scar@@ 52
Stein@@ 52
Swan 52
Takah@@ 52
Til@@ 52
Tit@@ 52
Vic@@ 52
Villa 52
XII 52
Xi@@ 52
ame@@ 52
aver 52
away 52
bull 52
cache 52
each 52
ebo@@ 52
ef 52
effect 52
enes 52
enz@@ 52
eral 52
gel@@ 52
gh@@ 52
gia 52
gn@@ 52
hee 52
ido 52
ili 52
inas 52
jo@@ 52
kal@@ 52
mak@@ 52
mati@@ 52
multi@@ 52
nis 52
nit@@ 52
some 52
vier 52
vil@@ 52
weight 52
win@@ 52
year 52
ylo@@ 52
yx 52
÷ 52
ε 52
ка 52
ֵ@@ 52
الاسلام 52
فلسف@@ 52
قابض 52
لاتا 52
مظالم 52
وّار 52
一 52
1210 51
1507 51
2. 51
57,@@ 51
ABS 51
Aff@@ 51
Alg@@ 51
Ander@@ 51
Anton@@ 51
Associ@@ 51
Bec@@ 51
Cambridge 51
Cus@@ 51
Daw@@ 51
Deep 51
Dum@@ 51
Et@@ 51
Faul@@ 51
Finn 51
Heter@@ 51
Human@@ 51
Islam 51
Iv@@ 51
Josi@@ 51
Max@@ 51
Midd@@ 51
Nacional 51
Paper 51
Phillip 51
Right 51
Shirley 51
Southern 51
Spring 51
Theatre 51
U.@@ 51
Un 51
WC 51
Ye@@ 51
ask@@ 51
ats@@ 51
augh@@ 51
ave@@ 51
bac@@ 51
bett 51
bit@@ 51
cola 51
comp@@ 51
dii 51
ega 51
else 51
erst@@ 51
fac@@ 51
factor 51
fast 51
hip 51
hir@@ 51
inum 51
kan@@ 51
math 51
oga 51
ophy@@ 51
press@@ 51
rate 51
rati@@ 51
rit@@ 51
see 51
sig@@ 51
soci@@ 51
tering 51
ularis 51
uma 51
uo 51
using 51
ux 51
verse 51
ère 51
ś@@ 51
Κ@@ 51
Νέα 51
ρι@@ 51
σ 51
τος 51
ն 51
ֶ@@ 51
سوات 51
正@@ 51
67,@@ 50
69,@@ 50
Alo@@ 50
Angela 50
Aub@@ 50
Broad@@ 50
Calderón 50
Camp@@ 50
Christmas 50
Cot@@ 50
Country 50
Dallas 50
Day@@ 50
Dim@@ 50
Duf@@ 50
Ele@@ 50
Elias 50
End@@ 50
Fall 50
Georg 50
Gesellschaft 50
It@@ 50
January 50
Johannes 50
Kahn 50
Kun@@ 50
Long@@ 50
MF 50
NBA 50
Nation 50
Nicol@@ 50
Noah 50
November 50
Nymph@@ 50
Olympics 50
Our 50
PAC 50
PBS 50
Pir@@ 50
RM 50
SBS 50
SQL 50
Sebastian 50
Si 50
Square 50
Sweet 50
Tiger 50
Total 50
Turn@@ 50
UEFA 50
Waters 50
Wr@@ 50
ager 50
aldo 50
analysis 50
andra 50
arte 50
ason 50
aurus 50
back@@ 50
bon 50
cat 50
ceph@@ 50
chen@@ 50
cit@@ 50
dison 50
eless 50
esc@@ 50
ext@@ 50
fish 50
hard 50
jan 50
les@@ 50
lor@@ 50
optera 50
osum 50
phora 50
phus 50
pub@@ 50
pus 50
res 50
root 50
sar@@ 50
sci@@ 50
science 50
smith 50
then 50
thor@@ 50
tos 50
trac@@ 50
utt@@ 50
vert 50
wey 50
τ@@ 50
ն@@ 50
مجدد 50
منقول 50
٨ 50
ܕ@@ 50
AH 49
ARD 49
Ambrose 49
Arabia 49
Archae@@ 49
Bau@@ 49
Bing 49
Chem@@ 49
Cog@@ 49
Communication 49
Dal@@ 49
Dark@@ 49
Doug@@ 49
Dru@@ 49
Hid@@ 49
Ho 49
Jersey 49
Lara 49
Lionel 49
Lop@@ 49
Mars 49
Master 49
Masters 49
Math@@ 49
Mayo 49
Mot@@ 49
Már@@ 49
Ner@@ 49
Nicole 49
Nucle@@ 49
PRO@@ 49
Publishing 49
Richter 49
Run 49
SO 49
Say@@ 49
Seth 49
Sid@@ 49
Sport 49
Stre@@ 49
Talbot 49
Volks@@ 49
Water@@ 49
Wolff 49
Wrest@@ 49
Y. 49
ado@@ 49
alis@@ 49
angle 49
asse 49
bis 49
box 49
cent@@ 49
client 49
coc@@ 49
dans 49
dica 49
din 49
diplomat 49
esta 49
ete 49
gro@@ 49
hat@@ 49
historian 49
hyper@@ 49
idi 49
ique 49
leen 49
let@@ 49
lists 49
lob@@ 49
long 49
make 49
pack@@ 49
pop 49
power 49
qui 49
rat 49
sel 49
through 49
where 49
ì 49
ï@@ 49
İ@@ 49
ɪ@@ 49
٣ 49
گر@@ 49
≤ 49
≥ 49
だ@@ 49
真@@ 49
1. 48
175@@ 48
2.0@@ 48
54,@@ 48
55,@@ 48
554 48
AZ 48
Abe 48
Alfonso 48
Arg@@ 48
Autom@@ 48
BE@@ 48
Bauer 48
Chi 48
Church 48
Committee 48
Dawn 48
Drive 48
Dus@@ 48
Facebook 48
Freddie 48
Gay 48
Hahn 48
Hip@@ 48
Hypo@@ 48
Illinois 48
Iso@@ 48
KO@@ 48
Knowles 48
Lag@@ 48
Leh@@ 48
Lif@@ 48
Loc@@ 48
Low 48
Nancy 48
Num@@ 48
Perez 48
Planet 48
Quercus 48
Raw 48
Rebecca 48
Rhin@@ 48
Rud@@ 48
SB@@ 48
SG 48
Sper@@ 48
THE 48
Third 48
Tun@@ 48
Vis@@ 48
Vol 48
Wi 48
Winston 48
Ze@@ 48
abol@@ 48
aj 48
allo 48
ardo 48
arum 48
bird 48
bons 48
cam@@ 48
chin@@ 48
cle@@ 48
dale 48
dem 48
dri@@ 48
dur@@ 48
eron 48
esi 48
far@@ 48
fic@@ 48
gene 48
har 48
home 48
ingen 48
ingo 48
ink@@ 48
ischer 48
kel 48
lar 48
lio 48
lis@@ 48
odon 48
ogen 48
ope 48
oxy@@ 48
phylla 48
ric@@ 48
rique 48
roy 48
sei 48
squ@@ 48
sworth 48
tal 48
troph@@ 48
tt@@ 48
under@@ 48
uss@@ 48
ysis 48
ī 48
ע 48
تبص@@ 48
تعلقات 48
گا@@ 48
原@@ 48
和@@ 48
1.6@@ 47
1.8@@ 47
1227 47
1305 47
1474 47
1487 47
68,@@ 47
996 47
Aguirre 47
And@@ 47
Annie 47
Bad@@ 47
Beautiful 47
Bravo 47
Carmen 47
Ced@@ 47
Century 47
Continu@@ 47
Cun@@ 47
DDR 47
Emily 47
Eye 47
Football 47
Fá@@ 47
GL 47
Georges 47
HK@@ 47
HM@@ 47
Hilton 47
Hit@@ 47
Kaw@@ 47
Kids 47
Late 47
León 47
Lip@@ 47
Lu 47
M3 47
Marcelo 47
Minnesota 47
NAS@@ 47
NL 47
North@@ 47
Oli@@ 47
Ortega 47
Parti@@ 47
Pay@@ 47
Rae 47
Rey 47
Rubin 47
Rudolph 47
Sag@@ 47
Samsung 47
September 47
Sex@@ 47
Sl@@ 47
TH 47
USS 47
Vivi@@ 47
Weekly 47
Wei 47
abase 47
after 47
alus 47
arian 47
artic@@ 47
asi 47
atri@@ 47
berry 47
bers 47
care 47
dh@@ 47
dis 47
dol@@ 47
dor@@ 47
eli 47
elin 47
emp@@ 47
energy 47
enta 47
eros 47
etime 47
him 47
idi@@ 47
ilus 47
lion 47
map@@ 47
mers 47
mitt 47
ml 47
og 47
ongo 47
oper@@ 47
ous@@ 47
oyle 47
phi@@ 47
play@@ 47
podium 47
pur 47
rio 47
san 47
sea 47
skat@@ 47
sph@@ 47
systems 47
tric 47
tun@@ 47
union 47
wel@@ 47
when 47
work 47
zen 47
è 47
ê@@ 47
ē 47
ž@@ 47
ία 47
ρος 47
ابوب@@ 47
مضامين 47
٤ 47
٧ 47
یل 47
۔ 47
্ 47
≈ 47
ⵎ@@ 47
1285 46
1451 46
15.000 46
4.000 46
56,@@ 46
Agustín 46
Bah@@ 46
Bass@@ 46
Bra@@ 46
CB 46
Caroline 46
Claudia 46
Clif@@ 46
Coll@@ 46
Cristi@@ 46
ESS 46
EST 46
Electric 46
Ell@@ 46
Emanuel 46
Federation 46
Figuer@@ 46
Fire@@ 46
Goldman 46
Grap@@ 46
Haas 46
Homo 46
Ibrahim 46
Iván 46
Jay@@ 46
Jenny 46
Job 46
Liam 46
Lost 46
Luna 46
Meh@@ 46
Money 46
Neu@@ 46
No. 46
Paul@@ 46
Ple@@ 46
Pon@@ 46
Post@@ 46
Queensland 46
RO 46
Sap@@ 46
Set 46
Source 46
Spar@@ 46
Spl@@ 46
Stark 46
Storm 46
Suzuki 46
Terr@@ 46
Thor@@ 46
Vera 46
aker 46
ango 46
anta 46
anz@@ 46
ark@@ 46
atis 46
aul@@ 46
board 46
brom@@ 46
bur 46
centr@@ 46
chloride 46
chol@@ 46
current 46
cut@@ 46
eg 46
ems 46
eu 46
eur@@ 46
fa 46
fu@@ 46
graph 46
health 46
ib 46
ident 46
isch 46
las@@ 46
lip@@ 46
match 46
mathemati@@ 46
may 46
mel 46
ogy 46
omi 46
onal@@ 46
pic@@ 46
place 46
pper 46
put 46
ras@@ 46
ree 46
ries 46
rights 46
set@@ 46
som@@ 46
sport@@ 46
structure 46
sur 46
tera 46
ties 46
tium 46
tom 46
while 46
wn 46
zero 46
Å 46
Ç@@ 46
Ω 46
η 46
ւ@@ 46
ئو 46
روپ@@ 46
محسوس 46
مشتاق 46
موصول 46
نشو 46
کل 46
ぐ@@ 46
人 46
1479 45
1482 45
Bertrand 45
CK 45
Code 45
Cri@@ 45
Crow@@ 45
Darwin 45
Department 45
Dominic 45
Economic 45
Emilio 45
Emp@@ 45
Erica 45
Es 45
Globe 45
Grey 45
Hub@@ 45
IGN 45
INE 45
KB 45
Kimb@@ 45
Kob@@ 45
Lange 45
Lives 45
Mann@@ 45
PHP 45
Partners 45
Path@@ 45
Rio 45
Rover 45
Scotia 45
Ski@@ 45
Spanish 45
Stur@@ 45
Tower 45
UF@@ 45
Van@@ 45
Vill@@ 45
Vin@@ 45
Wad@@ 45
XI 45
aging 45
alli@@ 45
amba 45
ancy 45
app 45
atham 45
avi 45
bone 45
clay 45
coe 45
coli 45
cript 45
ease 45
edia 45
eds 45
engine 45
ento 45
equ@@ 45
eti 45
fal@@ 45
fi 45
gener@@ 45
gly@@ 45
hip@@ 45
hist@@ 45
kor@@ 45
lic 45
methods 45
mode 45
mul@@ 45
nav@@ 45
nm 45
nu@@ 45
onom@@ 45
oon 45
ops@@ 45
orders 45
otic 45
pas@@ 45
post 45
psych@@ 45
rech@@ 45
sm@@ 45
spin@@ 45
stat@@ 45
teri@@ 45
tex 45
trop@@ 45
uni 45
vers@@ 45
éri@@ 45
ì@@ 45
ò@@ 45
ե@@ 45
ابواب 45
اعز@@ 45
خود@@ 45
معصوم 45
وزارت 45
ٳ@@ 45
پار@@ 45
ھم 45
ۡ@@ 45
美@@ 45
西@@ 45
1468 44
AFC 44
Access 44
Adolf 44
Aguilar 44
Aj@@ 44
Band 44
Bes@@ 44
Brid@@ 44
Carlo 44
Cham@@ 44
Chlor@@ 44
Clem@@ 44
Dalton 44
Fif@@ 44
Fon@@ 44
Fort 44
Fut@@ 44
GG 44
GNU 44
Get@@ 44
Gh@@ 44
Glover 44
Hab@@ 44
Hot@@ 44
ING 44
ITV 44
Kimber@@ 44
LR 44
Lars 44
Legend 44
Lou@@ 44
Louisiana 44
Magnus 44
Metal 44
Mid@@ 44
Missouri 44
Mous@@ 44
Má@@ 44
NHL 44
Nations 44
Neb@@ 44
Netflix 44
Od@@ 44
Pag@@ 44
Peña 44
Place 44
Productions 44
Program 44
RF 44
Ric@@ 44
Ritter 44
SMS 44
Santa 44
Shir@@ 44
Single 44
Ster@@ 44
Sti@@ 44
Sunday 44
Tomás 44
Um@@ 44
Vul@@ 44
Word 44
YouTube 44
abr@@ 44
ael 44
alli 44
ards 44
aru 44
cal 44
confirmed 44
cott 44
ebr@@ 44
ec 44
ells 44
entia 44
erie 44
film@@ 44
flav@@ 44
gio 44
gy@@ 44
hab@@ 44
hypo@@ 44
icon 44
ino@@ 44
isco 44
jah 44
kar 44
lawyer 44
lim@@ 44
may@@ 44
nic@@ 44
non@@ 44
onis 44
open 44
order 44
pag@@ 44
park 44
pers 44
pyr@@ 44
related 44
rol@@ 44
tari@@ 44
tel 44
they 44
ui@@ 44
ume 44
user 44
vić 44
Δ 44
ק 44
اسماء 44
اوسط 44
علی@@ 44
مستحق 44
منسو@@ 44
منور 44
٥@@ 44
ژ@@ 44
یم 44
美 44
12.000 43
1312 43
1454 43
1477 43
928 43
Abdul 43
Abu 43
Again 43
Anatom@@ 43
Arn@@ 43
BO 43
Brothers 43
Byr@@ 43
CAF 43
Cat 43
Change 43
Dance 43
Days 43
Dig@@ 43
District 43
Double 43
Drum@@ 43
Electronic 43
Ellen 43
Equ@@ 43
Esp@@ 43
Factory 43
Fall@@ 43
Films 43
Forest 43
Freedom 43
Félix 43
Generation 43
Gru@@ 43
Had@@ 43
Happy 43
IST 43
Instruc@@ 43
Lau@@ 43
Leopold 43
Maine 43
Motor 43
Natural 43
Nokia 43
Non 43
Pep@@ 43
Pilot 43
Pit@@ 43
Prac@@ 43
Quarter@@ 43
Reb@@ 43
Revolution 43
Rubén 43
Six 43
Sle@@ 43
Stand@@ 43
Ton@@ 43
True 43
Ung@@ 43
VE 43
VR 43
Wave 43
Wellington 43
Wes@@ 43
Why 43
XT 43
alum 43
architect 43
ators 43
ball 43
bes@@ 43
bius 43
bro@@ 43
chia 43
cho 43
ck@@ 43
cular 43
dam@@ 43
dig@@ 43
dress 43
editor 43
ego 43
emi 43
fel@@ 43
ference 43
fighter 43
fly 43
hir 43
icola 43
iger 43
ilis 43
illing 43
imb@@ 43
isi 43
iti 43
ledge 43
management 43
mol@@ 43
mos 43
nal 43
nig@@ 43
ophora 43
otr@@ 43
path@@ 43
plication 43
post@@ 43
quin@@ 43
sap@@ 43
stream 43
sun@@ 43
tar 43
tos@@ 43
udi@@ 43
ushi 43
valid@@ 43
zer 43
ós 43
θ@@ 43
ի@@ 43
احسان 43
ترجمان 43
سمند@@ 43
چي 43
کی@@ 43
ܪ@@ 43
べ 43
.-@@ 42
1469 42
400.000 42
66,@@ 42
AZ@@ 42
Alex@@ 42
Arturo 42
BF 42
Ball@@ 42
Baron 42
Beth 42
Brandt 42
Buc@@ 42
CBC 42
CDP 42
Canon 42
Centr@@ 42
Chinese 42
Chr@@ 42
Civil 42
Clare 42
Color 42
Conference 42
Cou@@ 42
Cryp@@ 42
Def@@ 42
Deutsch 42
Domingo 42
Dynam@@ 42
Eddy 42
Ernesto 42
Evil 42
Fem@@ 42
Ferdinand 42
Frances 42
Gab@@ 42
Garr@@ 42
Ges@@ 42
Giovanni 42
Gloria 42
ITF 42
Identi@@ 42
Index 42
KS 42
Kai 42
King@@ 42
LV@@ 42
Liber@@ 42
Living 42
Lucy 42
Madison 42
Main@@ 42
Marx 42
Mauricio 42
Modern 42
NH 42
Non@@ 42
Other 42
Pau@@ 42
Rivers 42
Russian 42
Simone 42
Sir@@ 42
Some 42
Stap@@ 42
Tat@@ 42
UA 42
Upper 42
VIII 42
Vari@@ 42
View 42
Vladimir 42
WT@@ 42
Water 42
Wyatt 42
Years 42
acteria 42
amo@@ 42
ayama 42
ayashi 42
berger 42
bits 42
book@@ 42
cht 42
cont@@ 42
culture 42
cun@@ 42
edition 42
einer 42
enda 42
force 42
fri@@ 42
has@@ 42
hel@@ 42
ices 42
ider@@ 42
igo 42
kir@@ 42
ku 42
learning 42
low@@ 42
lyc@@ 42
mid@@ 42
nar 42
news@@ 42
olata 42
olo 42
omo 42
ord 42
oud 42
ox 42
pent@@ 42
pith@@ 42
pur@@ 42
rag@@ 42
ram@@ 42
roc@@ 42
rugby 42
sha 42
tain@@ 42
these 42
tional@@ 42
tot@@ 42
ucle@@ 42
uf@@ 42
xa 42
yth@@ 42
ö 42
ör@@ 42
ü 42
ă 42
р@@ 42
اسرار 42
اوراس 42
بلند 42
چو@@ 42
گا 42
ھو 42
ܘ@@ 42
ი@@ 42
オ@@ 42
ジ@@ 42
ッ@@ 42
也 42
佐@@ 42
1,1 41
1,3 41
1463 41
1464 41
1st 41
About 41
Akira 41
Angola 41
BD 41
Bar 41
Bayer 41
Blas@@ 41
Ble@@ 41
Bloom@@ 41
Boston 41
Cancer 41
Car 41
Card 41
Chile 41
Classic 41
Domin@@ 41
Evelyn 41
Exper@@ 41
FI 41
Feld@@ 41
File 41
Forum 41
Galaxy 41
Game@@ 41
Gonzalo 41
Grove 41
Heart@@ 41
Heinz 41
Inst@@ 41
Isa@@ 41
Islamic 41
Judith 41
K.@@ 41
Kentucky 41
Khar@@ 41
Liberal 41
Lich@@ 41
Lucien 41
Lud@@ 41
Marketing 41
McC@@ 41
Miranda 41
Mn@@ 41
More 41
NE 41
NK 41
Nan@@ 41
Nil@@ 41
Off 41
Olivier 41
Peace 41
Plan 41
Rah@@ 41
Ruby 41
Rupert 41
SU 41
Sever@@ 41
Soul 41
Stephanie 41
Tanaka 41
Tobias 41
Tru@@ 41
VV@@ 41
Va@@ 41
Val 41
Was@@ 41
acon 41
ait 41
alpha 41
andez 41
ano@@ 41
antes 41
area 41
arriba 41
articles 41
aun@@ 41
cis 41
cle 41
dar@@ 41
edr@@ 41
egr@@ 41
endron 41
enter@@ 41
esa 41
eson 41
eto 41
etr@@ 41
ett@@ 41
fan 41
flow 41
fran@@ 41
high 41
hon@@ 41
iliz@@ 41
illar@@ 41
imi 41
inst@@ 41
ishi 41
ked 41
kommando 41
lus 41
maker 41
med 41
mid 41
mon 41
muscle 41
nt 41
ondr@@ 41
onen 41
onii 41
oter 41
pap@@ 41
plat@@ 41
poet 41
pos 41
pression 41
read 41
ris@@ 41
ritt 41
shire 41
size 41
sley 41
soc@@ 41
tac@@ 41
tak@@ 41
tec@@ 41
thumb 41
times 41
trum 41
urn@@ 41
utz 41
uy@@ 41
wa@@ 41
was@@ 41
within 41
ya@@ 41
zaman 41
çal@@ 41
î@@ 41
öl@@ 41
ː@@ 41
Μ@@ 41
А@@ 41
э@@ 41
سامان 41
் 41
ἐ@@ 41
™ 41
∆ 41
∞ 41
⟩ 41
が@@ 41
ク@@ 41
金@@ 41
1.7@@ 40
1458 40
1950s 40
2,3 40
AAA 40
ARA 40
Ae@@ 40
Ahmad 40
Alexis 40
Bach 40
Beauty 40
Brad@@ 40
Buil@@ 40
Cand@@ 40
Cape 40
Channel 40
Coc@@ 40
Cum@@ 40
Dynasty 40
Eagle 40
Enterprise 40
Federal 40
Flor@@ 40
Fuchs 40
GDP 40
Here 40
Holly 40
Hop@@ 40
Ind@@ 40
Janet 40
Juli@@ 40
LLC 40
Lancaster 40
Make 40
Navy 40
Off@@ 40
Only 40
PK 40
PSA 40
Pacific 40
Phoenix 40
President 40
RB 40
Rein@@ 40
Rib@@ 40
Roche 40
Rog@@ 40
SQ@@ 40
Saudi 40
Sergei 40
Seven 40
TRA@@ 40
Technologies 40
Ten@@ 40
Test@@ 40
Under 40
Universe 40
Victorian 40
Voice 40
Wendy 40
Wind 40
aeus 40
agon@@ 40
aha 40
aking 40
aks 40
alc@@ 40
aly@@ 40
ana@@ 40
ange 40
atica 40
bet@@ 40
bir@@ 40
bra 40
capit@@ 40
comedi@@ 40
dal@@ 40
dan@@ 40
education 40
emat@@ 40
fall 40
final 40
formes 40
help 40
host 40
i.@@ 40
isch@@ 40
itation 40
ken@@ 40
mg 40
mix@@ 40
n.@@ 40
nati@@ 40
nes@@ 40
oria 40
pass@@ 40
plate 40
product 40
rap@@ 40
ret 40
ror 40
sens@@ 40
sh 40
sions 40
speed 40
squad 40
teams 40
tern 40
tice 40
tii 40
tox@@ 40
ulata 40
ummer 40
ury 40
vá@@ 40
ying 40
ë@@ 40
ño 40
š 40
Ε@@ 40
Б@@ 40
احوال 40
اسلم 40
اقدام 40
تخار 40
جنتا 40
مدی@@ 40
ولی@@ 40
کن 40
ܢ@@ 40
⟨ 40
・ 40
1960s 39
3.0@@ 39
59,@@ 39
901 39
Adam@@ 39
Alek@@ 39
Alme@@ 39
Amanda 39
Amer@@ 39
Aviation 39
Away 39
BAS@@ 39
Bam@@ 39
Cant@@ 39
Ce@@ 39
Christina 39
DOS 39
Diane 39
Dominique 39
Elisabeth 39
Flav@@ 39
Flight 39
Four 39
Fri@@ 39
Fron@@ 39
Garden 39
Grande 39
Hall@@ 39
Jesus 39
Jos@@ 39
Jun@@ 39
Kl@@ 39
Let@@ 39
MGM 39
MK 39
Mi 39
Mo 39
Morning 39
Muhammad 39
NCAA 39
NSDAP 39
Nakamura 39
Oh 39
Oxy@@ 39
Penn@@ 39
Person@@ 39
Plant@@ 39
Politics 39
Rhy@@ 39
Rit@@ 39
Riv@@ 39
SW 39
Safety 39
Santana 39
Sau@@ 39
Sebastián 39
Secret 39
Spr@@ 39
Suite 39
Syl@@ 39
Talk 39
Telec@@ 39
Too 39
Tu 39
UFC 39
V.@@ 39
Visual 39
WB 39
Whe@@ 39
Wis@@ 39
Yan@@ 39
abstr@@ 39
active 39
alp@@ 39
amo 39
apping 39
aug@@ 39
ayan 39
cell@@ 39
class@@ 39
cri@@ 39
development 39
duction 39
dys@@ 39
eca 39
eger 39
err@@ 39
essing 39
glut@@ 39
iana 39
iel 39
imo 39
international 39
ion@@ 39
istr@@ 39
ited 39
iting 39
kw@@ 39
level 39
nii 39
nik 39
nov@@ 39
opter@@ 39
otro@@ 39
oughton 39
players 39
pot 39
production 39
prop@@ 39
quest 39
rin 39
sov 39
spot@@ 39
use@@ 39
vid@@ 39
vie@@ 39
xi 39
yro@@ 39
za@@ 39
ça 39
Ž@@ 39
на 39
у 39
ы@@ 39
ש 39
فروغ 39
متحد 39
ملتان 39
ざ@@ 39
マ@@ 39
ル@@ 39
ン 39
島@@ 39
1,6 38
2.500 38
76,@@ 38
After 38
Aircraft 38
Amaz@@ 38
At 38
BMW 38
Bang 38
Beer 38
Beg@@ 38
Bla@@ 38
Bureau 38
Carol@@ 38
Cler@@ 38
Come 38
Communications 38
Corps 38
Crown 38
Delta 38
Dup@@ 38
Ein@@ 38
Emil 38
En 38
Every@@ 38
Federico 38
Fos@@ 38
Geor@@ 38
Guzmán 38
Hammer 38
Hof@@ 38
JP 38
Jor@@ 38
Josef 38
Kong 38
LB 38
Lan@@ 38
Lanc@@ 38
Lea 38
Lep@@ 38
Lin 38
Lund@@ 38
Magn@@ 38
Mall@@ 38
Mariano 38
Mell@@ 38
Miss@@ 38
Neumann 38
Next 38
OT@@ 38
OVA 38
Orange 38
Ou@@ 38
Paula 38
Princip@@ 38
SEC 38
Schw@@ 38
Shim@@ 38
Sound 38
Study 38
Sym@@ 38
Tag@@ 38
Take 38
Tan 38
Teddy 38
Tos@@ 38
Trich@@ 38
Vogel 38
Wall@@ 38
aco 38
adap@@ 38
aku 38
aling 38
angu@@ 38
anism 38
arge 38
aud@@ 38
austr@@ 38
beta 38
bra@@ 38
city 38
cot@@ 38
dre@@ 38
dro@@ 38
elegans 38
ends 38
ener 38
essment 38
extr@@ 38
fus@@ 38
gas@@ 38
heart 38
heim 38
idus 38
ights 38
imi@@ 38
immun@@ 38
inj@@ 38
issa 38
lands 38
lec@@ 38
lep@@ 38
liga 38
luc@@ 38
mar 38
master 38
one@@ 38
pet@@ 38
pir@@ 38
poem 38
ports 38
purpur@@ 38
quer@@ 38
real 38
red@@ 38
sat@@ 38
school 38
show@@ 38
ska 38
species 38
sport 38
thier 38
tner 38
ution 38
ván 38
women 38
works 38
zano 38
zon 38
én 38
én@@ 38
ά 38
ρ@@ 38
н@@ 38
ائص 38
دراز 38
مخصوص 38
نامور 38
٨@@ 38
٩ 38
پان@@ 38
کت@@ 38
ۚ 38
ܬ@@ 38
ⵜ@@ 38
一@@ 38
天@@ 38
福@@ 38
谷@@ 38
雄 38
20th 37
Advanced 37
Angelo 37
Asp@@ 37
Atom@@ 37
Aud@@ 37
Bis@@ 37
Boh@@ 37
Born 37
Brain 37
CNN 37
Call@@ 37
Cash 37
Chron@@ 37
Claudio 37
Cold 37
Collection 37
Cornell 37
Cyn@@ 37
Deutscher 37
Dr 37
Dyn@@ 37
Fat@@ 37
Freder@@ 37
Fu 37
Fuentes 37
Gel@@ 37
Ghost 37
Giuseppe 37
Glu@@ 37
Grav@@ 37
Hector 37
Hend@@ 37
Herr@@ 37
Igor 37
Irene 37
Joaquín 37
Left 37
Lex@@ 37
Link 37
MK@@ 37
Mau@@ 37
Military 37
Min 37
Mix 37
Nay@@ 37
OM 37
Quin@@ 37
RAF 37
River@@ 37
Rocky 37
Rum@@ 37
Russia 37
Sand 37
Sharon 37
Silver 37
Sit@@ 37
Sol 37
Solar 37
Tad@@ 37
Top@@ 37
Tra@@ 37
Trag@@ 37
Virtual 37
Zi@@ 37
aan 37
aceu@@ 37
andi@@ 37
andia 37
archi@@ 37
architecture 37
aries 37
auer 37
bad 37
bank 37
books 37
brand 37
cic@@ 37
cles 37
cli@@ 37
conditions 37
detail@@ 37
dor 37
e.org 37
eci@@ 37
elling 37
ener@@ 37
ential 37
esi@@ 37
ester@@ 37
fied 37
fs 37
gate 37
gig@@ 37
gon 37
heter@@ 37
hio 37
hiz@@ 37
ici 37
ills 37
known 37
last 37
lyn 37
mart@@ 37
matrix 37
oil 37
ologie 37
oral 37
ords 37
otes 37
own 37
phase 37
photograp@@ 37
plant 37
put@@ 37
rock 37
tory 37
tron 37
tur 37
uel@@ 37
unga 37
uru 37
vor 37
vy@@ 37
what 37
él@@ 37
λ@@ 37
в@@ 37
جادو 37
دید 37
ذرا 37
٭ 37
ῖ@@ 37
∙ 37
崎@@ 37
郎 37
� 37
0.00 36
2000s 36
3,3 36
ACC 36
Arm@@ 36
Ba 36
Benedict 36
Bernardo 36
Bid@@ 36
Bog@@ 36
Boris 36
Brunswick 36
Christ 36
Cit@@ 36
Clair 36
Dimi@@ 36
Eas@@ 36
Educ@@ 36
Engine 36
Evolution 36
Fa@@ 36
Financial 36
Four@@ 36
Free@@ 36
Gang@@ 36
Gem@@ 36
Gy@@ 36
Hollywood 36
Hug@@ 36
Independent 36
Indonesia 36
Integr@@ 36
JT@@ 36
Jur@@ 36
Kristi@@ 36
Las 36
Lef@@ 36
Mang@@ 36
Never 36
Official 36
Oil 36
Organ@@ 36
Performance 36
Prom@@ 36
Pun@@ 36
Ríos 36
Stars 36
Syria 36
Tir@@ 36
UB 36
UM 36
VS 36
Ves@@ 36
Wehr@@ 36
Work 36
Worth 36
Xbox 36
Yak@@ 36
Zen@@ 36
acar@@ 36
access 36
amaz@@ 36
anzen 36
atur@@ 36
atz 36
av 36
bian 36
ble@@ 36
crip@@ 36
cro@@ 36
dod@@ 36
dot 36
emann 36
ept@@ 36
eter@@ 36
eur 36
eye 36
figure 36
files 36
formis 36
ful@@ 36
gran@@ 36
graphy 36
hood 36
human 36
icon@@ 36
ikawa 36
imp@@ 36
ird 36
ises 36
ities 36
ković 36
layer 36
led@@ 36
leg 36
liber@@ 36
lop 36
love 36
lu 36
mod 36
mut@@ 36
nie 36
ocer@@ 36
olina 36
ond 36
onium 36
onne 36
oris 36
orn 36
oval 36
pandemic 36
para 36
pter@@ 36
rich@@ 36
ride 36
rol 36
ron 36
sal 36
skin 36
ss@@ 36
station 36
technology 36
thera 36
thy@@ 36
toc@@ 36
tol@@ 36
ule 36
ves@@ 36
wave 36
zone 36
­ 36
ħ@@ 36
ά@@ 36
ابلا@@ 36
اک@@ 36
بنتا 36
جانتا 36
غیر 36
فرسن 36
فرنس 36
نگ 36
پر 36
گو 36
∪ 36
☆ 36
シ@@ 36
ト@@ 36
ラ@@ 36
口@@ 36
동@@ 36
1.500 35
1461 35
2nd 35
3rd 35
AJ 35
Aeg@@ 35
Agency 35
Aki@@ 35
Aleksand@@ 35
Amp@@ 35
Angel@@ 35
Anim@@ 35
Big@@ 35
Blues 35
Bob@@ 35
Bolton 35
Brazil 35
CII 35
Chir@@ 35
Cho@@ 35
Coff@@ 35
Commission 35
Coul@@ 35
Dep@@ 35
Develop@@ 35
Dog@@ 35
Dw@@ 35
Emmanuel 35
Gif@@ 35
Got@@ 35
Grou@@ 35
Ground 35
Hank 35
Hassan 35
Hep@@ 35
Hob@@ 35
IA@@ 35
Industrial 35
Inside 35
Institut 35
Io@@ 35
Isabel 35
Jose@@ 35
Journ@@ 35
Jú@@ 35
KW 35
Lombar@@ 35
MCA 35
Malik 35
Marquis 35
Marvel 35
Merr@@ 35
Mother 35
NAT@@ 35
NG 35
Nap@@ 35
Night@@ 35
Ocean 35
Panzer@@ 35
Pass@@ 35
Petit 35
Pier@@ 35
Plas@@ 35
Pop 35
Rac@@ 35
Rousseau 35
Sonder@@ 35
Steiner 35
Strateg@@ 35
Style 35
Sultan 35
Sut@@ 35
TI 35
TNT 35
Tech@@ 35
Theodor 35
They 35
Tig@@ 35
Tree 35
WI 35
Zeitung 35
Zel@@ 35
acios 35
amide 35
amura 35
ander@@ 35
anim@@ 35
aon 35
aut 35
aw 35
bad@@ 35
bon@@ 35
brow@@ 35
buil@@ 35
car 35
ces@@ 35
chor@@ 35
cid 35
col 35
control@@ 35
drome 35
etz@@ 35
ffe 35
folium 35
fred 35
gil 35
gin 35
imoto 35
isches 35
kers 35
kon@@ 35
kur@@ 35
lag@@ 35
lav 35
loch 35
lut@@ 35
maine 35
mam@@ 35
member 35
met 35
osp@@ 35
osph@@ 35
oug@@ 35
phila 35
population 35
programming 35
quar@@ 35
rac@@ 35
radio 35
raz@@ 35
reaction 35
ren 35
rix 35
stage 35
sten@@ 35
syl@@ 35
tax@@ 35
tennis 35
tes@@ 35
thia 35
three 35
tism 35
tum 35
tv 35
tz@@ 35
ulum 35
unk@@ 35
vic 35
ways 35
wei 35
yne 35
zy 35
ə 35
Φ@@ 35
ο@@ 35
а@@ 35
и 35
ская 35
сь@@ 35
ס 35
آمد 35
ائخ 35
بحران 35
حتی 35
سرح@@ 35
سی 35
فقار 35
لائنا 35
منقسم 35
٤@@ 35
ٲ@@ 35
ば@@ 35
林@@ 35
海@@ 35
대@@ 35
64,@@ 34
ARM 34
Administration 34
Airport 34
Ast@@ 34
Atlantic 34
Auth@@ 34
Avi@@ 34
Ax@@ 34
Bod@@ 34
Bulletin 34
Caballero 34
Cast@@ 34
Cay@@ 34
Cinema 34
Cloud 34
Cortés 34
Count 34
Cyclo@@ 34
Dag@@ 34
Damon 34
Desert 34
Dod@@ 34
Dou@@ 34
Early 34
Fish 34
Gaston 34
Glas@@ 34
Gomez 34
Gonzal@@ 34
Han 34
Hap@@ 34
Hav@@ 34
Heli@@ 34
Hind@@ 34
Hos@@ 34
Judy 34
Jug@@ 34
Jung@@ 34
KM 34
Ki 34
Kuh@@ 34
Lap@@ 34
Lav@@ 34
Linden 34
Lo 34
Lyc@@ 34
MVP 34
Marine 34
Marino 34
Mechan@@ 34
Nina 34
Orth@@ 34
Paramount 34
Picture 34
Policy 34
Political 34
Sue 34
TT 34
Tennessee 34
Termin@@ 34
Tex@@ 34
Tokyo 34
Tul@@ 34
Ulrich 34
Wiki@@ 34
Wolfgang 34
World@@ 34
XL@@ 34
Xanth@@ 34
achi 34
agram 34
amin 34
amus 34
apy 34
azar 34
band@@ 34
bat@@ 34
ben 34
break 34
chip 34
chron@@ 34
complex 34
conn@@ 34
dea 34
encer 34
enny 34
eps 34
equation 34
eshi 34
fan@@ 34
fier 34
gan 34
hii 34
ict 34
ieve 34
iler 34
iman 34
indic@@ 34
iner@@ 34
initi@@ 34
iso 34
jam@@ 34
kat@@ 34
lati@@ 34
lev@@ 34
list@@ 34
longi@@ 34
ló 34
mah@@ 34
mass 34
metal 34
mission 34
mun@@ 34
nec@@ 34
nell 34
oll 34
ool 34
orah 34
otrop@@ 34
otus 34
oul 34
oxid@@ 34
phon 34
physician 34
polis 34
por 34
ram 34
rop@@ 34
sche 34
sper@@ 34
start 34
thetic 34
thus 34
ticul@@ 34
u. 34
uda 34
usi@@ 34
utions 34
variable 34
vb 34
wall 34
zur 34
î 34
ş@@ 34
ɛ@@ 34
Λ@@ 34
Π@@ 34
φ@@ 34
ό@@ 34
л@@ 34
յ@@ 34
اختر 34
سک@@ 34
معطل 34
٦ 34
پا 34
کار@@ 34
ܡ@@ 34
რ@@ 34
ⵔ@@ 34
せ@@ 34
80.000 33
99,@@ 33
Alain 33
Alt@@ 33
Argentina 33
Baş@@ 33
Belgium 33
Bi 33
Bri@@ 33
Bug@@ 33
CAM 33
Cardi@@ 33
Clar@@ 33
Cod@@ 33
Direct 33
Doris 33
Dut@@ 33
Dylan 33
Dé@@ 33
Eb@@ 33
Edmond 33
Eph@@ 33
Erwin 33
Esther 33
Ezra 33
Falcon 33
GN 33
Gan@@ 33
Graf 33
Greece 33
Groß@@ 33
Guardian 33
HB 33
Heb@@ 33
Hell 33
Hydr@@ 33
Intelligence 33
Iowa 33
Iran 33
Joachim 33
Johanna 33
Jorge 33
KK 33
Laboratory 33
Laurent 33
Marin 33
Market 33
Medal 33
Memorial 33
Mora 33
Motion 33
NCA@@ 33
Nom@@ 33
OK 33
Of@@ 33
Oswald 33
Panzer 33
Pey@@ 33
Portuguese 33
SAS 33
Sas@@ 33
Saturday 33
Sco@@ 33
Scot@@ 33
Société 33
Son 33
Stand 33
Stock 33
Su 33
Suc@@ 33
Tell 33
Terra 33
Tham@@ 33
Town 33
Unix 33
Version 33
Watch 33
acer@@ 33
add 33
aia 33
alla 33
alt 33
aly 33
anos 33
ansen 33
antum 33
apr@@ 33
arti@@ 33
auto@@ 33
ayo 33
aç@@ 33
building 33
cens 33
country 33
didae 33
ected 33
election 33
elio 33
els@@ 33
eping 33
ers@@ 33
fication 33
gam@@ 33
hai 33
hil 33
icity 33
ign 33
iller 33
image 33
inen 33
inia 33
iste 33
iter 33
japon@@ 33
jun@@ 33
kil@@ 33
kler 33
lass 33
late 33
ld@@ 33
leist@@ 33
lex 33
lich@@ 33
lymph@@ 33
magazine 33
nas@@ 33
next 33
node 33
ois 33
oly@@ 33
orie 33
ort 33
oru 33
oste@@ 33
ource 33
part@@ 33
pher@@ 33
philus 33
phyl@@ 33
pin 33
program 33
project 33
rel 33
script 33
shi@@ 33
sian 33
sp 33
sum 33
tab@@ 33
tata 33
town 33
tung 33
unds 33
van@@ 33
website 33
wide 33
wind 33
working 33
would 33
wr@@ 33
xin 33
ór@@ 33
Γ@@ 33
э 33
ادی@@ 33
سالار 33
مرحوم 33
گل@@ 33
یر@@ 33
ি@@ 33
え 33
カ@@ 33
彦 33
明@@ 33
橋@@ 33
水@@ 33
1.4@@ 32
2,1 32
7,5 32
Abbey 32
Alberta 32
Alexandra 32
Animal 32
Arme@@ 32
Axel 32
Bati@@ 32
Beaumont 32
Beyond 32
Bom@@ 32
Brach@@ 32
Braun 32
Bros. 32
Catal@@ 32
Chal@@ 32
Charl@@ 32
Chrom@@ 32
Citi@@ 32
Civ@@ 32
Congress 32
Corr@@ 32
Cow@@ 32
DH 32
Deutsch@@ 32
Dietrich 32
Dipl@@ 32
Dora 32
Dra@@ 32
ERA 32
Edge 32
Electr@@ 32
Environment 32
Fashion 32
Fiat 32
Fontaine 32
Frédéric 32
Fund 32
Glo@@ 32
Gos@@ 32
Got 32
Gottlieb 32
Graph@@ 32
Hampshire 32
Hand 32
Hartmann 32
Henrik 32
High@@ 32
His 32
Historical 32
Hour 32
Hub 32
Ich@@ 32
Jacqueline 32
Jet 32
Jin 32
Johns 32
Klaus 32
Kre@@ 32
Kri@@ 32
Lak@@ 32
Len@@ 32
Marri@@ 32
Math 32
Mb@@ 32
Mih@@ 32
Movement 32
Musa 32
Natur@@ 32
Naz@@ 32
Ng 32
Oro@@ 32
Pan 32
Petro@@ 32
Phy@@ 32
Plant 32
Posi@@ 32
Rachel 32
Rak@@ 32
Rand 32
Rat@@ 32
Sed@@ 32
Shak@@ 32
Station 32
Sud@@ 32
Surrey 32
Switch 32
Tel 32
Tet@@ 32
Trac@@ 32
UD 32
Ultra 32
Valeri@@ 32
Vanessa 32
Viola 32
Virgin 32
Wik@@ 32
Wy@@ 32
Yves 32
Zieg@@ 32
aching 32
aer 32
amph@@ 32
anced 32
aps 32
aring 32
atis@@ 32
att 32
aven 32
bacteri@@ 32
base 32
bis@@ 32
cent 32
chel@@ 32
common 32
dier 32
during 32
eld 32
eling 32
ellus 32
ente 32
entry 32
eters 32
fielder 32
gan@@ 32
gar 32
[...]
