de 50587559
, 48354455
. 40009171
la 25281737
et 20370500
le 18302402
à 17115561
en 14903882
&quot; 13607370
l&apos; 13581477
des 12800443
est 12515537
@-@ 12464928
du 11791810
les 11133705
d&apos; 10331005
un 9216808
( 8317844
) 8314780
une 8210746
dans 6949164
par 6379995
au 6143699
’ 5444266
pour 5187327
il 5122344
a 4641900
qui 4605504
que 4452045
Le 4241614
sur 3962123
Il 3430050
son 3424208
avec 3360359
se 3346741
La 3261119
é 3092593
: 3033021
plus 2801061
l 2660178
aux 2640654
sont 2631001
ée 2570231
En 2544690
ou 2366961
Les 2242115
sa 2196363
été 2119345
elle 2095730
« 2095312
» 2090741
és 2024950
ant 2019518
d 2002974
ent 1914930
s&apos; 1882348
ce 1808049
qu&apos; 1794424
er 1774397
ses 1744218
comme 1712692
ne 1699279
dé@@ 1670460
ées 1663412
deux 1600754
L&apos; 1563116
ont 1442083
pas 1439304
é@@ 1391445
on 1353142
fait 1352839
y 1318246
; 1293331
entre 1269026
mais 1242408
ation 1215467
Elle 1189968
es 1164646
cette 1148551
ré@@ 1126904
sous 1120076
s 1099678
ie 1087285
ait 1049221
même 1031781
être 1021975
ement 1017986
re@@ 1013204
était 1009340
lui 1003844
leur 997803
n&apos; 994991
dont 976350
après 975276
% 948493
où 941027
également 909203
commune 900403
France 896658
&apos; 875011
in@@ 871109
ans 866052
ville 863046
alors 846616
aussi 825662
autres 825118
ale 816961
ainsi 815207
Saint 814934
te 801114
ité 799499
partie 798433
nom 793165
aire 792735
premier 779382
fut 777173
première 755582
age 739528
lors 713716
ations 713170
À 712148
ces 707499
puis 705535
ch@@ 704908
années 685538
ère 684100
contre 681121
peut 675986
in 668334
e 660628
trois 654124
p@@ 650996
S@@ 650464
is 648646
depuis 633818
né 625901
avant 607992
pré@@ 600555
groupe 600183
plusieurs 596946
ils 594770
P@@ 589717
vers 582815
L@@ 582582
Cette 581977
el 579070
très 576505
aires 574220
Dans 574055
ques 572738
an 571371
elles 566318
ons 562010
C@@ 560118
2 558863
ine 558213
c@@ 551583
ou@@ 548101
jusqu&apos; 543404
fois 537408
ants 535841
D@@ 530388
r@@ 530366
tes 528628
année 528156
/ 527765
fin 527278
G@@ 523186
avoir 522278
en@@ 522030
Paris 516916
s@@ 512345
us 510552
T@@ 508974
- 508500
1 507872
mort 507605
Jean 507359
avait 507285
tout 506878
français 505844
ens 504319
M@@ 502662
De 502060
al 501524
par@@ 498595
R@@ 497042
sans 495317
temps 495030
B@@ 493120
u 491227
notamment 490464
famille 487784
n@@ 484154
Ce 482687
eux 480204
F@@ 479523
place 477297
Au 474156
monde 472475
g@@ 467036
t@@ 465207
saison 464467
équipe 460213
Après 458199
ers 456744
d@@ 455904
iste 455391
eur 451188
con@@ 449486
sud 447747
leurs 446384
A@@ 445264
lieu 440421
suite 440085
i 439213
v@@ 438938
pays 438814
is@@ 437994
3 437821
nord 437231
V@@ 436766
N@@ 435817
at 435179
it 434756
ales 433004
enne 432519
cours 430658
ar@@ 425209
eau 423036
re 419979
Biographie 418485
autre 418251
faire 416860
partir 416296
États 416250
grand 415851
Une 415691
région 415624
titre 414414
bien 412956
devient 412713
peu 411023
ci 410919
O@@ 410764
di@@ 410370
non 410156
&amp; 405998
forme 405964
Un 404588
an@@ 403844
film 402947
ite 401438
b@@ 400048
on@@ 397875
ér@@ 397399
moins 395644
pendant 394740
guerre 392839
quatre 392829
l@@ 392514
soit 392075
aient 391099
tant 390198
ères 389769
f@@ 389751
tr@@ 388149
C&apos; 387186
encore 386555
c 384555
j@@ 383918
nouveau 383676
o@@ 383046
at@@ 382655
or@@ 382240
Son 379001
co@@ 376706
4 376266
É@@ 374286
ique 373773
général 373547
ligne 373260
ts 372973
tous 372633
vie 371231
politique 370980
able 369255
ise 368390
t 366390
H@@ 365689
série 365512
ante 362832
ag@@ 357423
ue 356140
ateur 355043
ac@@ 354625
ab@@ 353832
début 353685
située 351249
eurs 350929
po@@ 350785
ad@@ 350410
celle 349644
al@@ 349172
Unis 348641
o 347062
L 346196
ance 345919
n 344785
Ch@@ 344190
État 344067
qu@@ 342769
nombre 341296
els 339853
ap@@ 339647
E@@ 339520
h@@ 337868
tard 336456
celui 336329
fils 336079
française 335676
grande 334497
y@@ 334110
ins 332609
qu 331301
a@@ 330830
ette 330486
sou@@ 330405
isme 330277
club 329679
m@@ 328427
si 327633
donc 327153
ul@@ 327126
selon 327035
im@@ 325938
village 325407
J@@ 325269
ages 324930
Pour 323347
ouest 322287
On 321855
album 320178
Ar@@ 319677
histoire 319105
ti@@ 316416
it@@ 316092
trouve 315041
nouvelle 314588
ements 314061
ure 313742
che 311322
6 310810
Histoire 309578
ensuite 309511
quelques 309409
K@@ 308908
département 308069
centre 307605
ent@@ 306921
compte 305902
père 305731
ire 305375
inter@@ 304438
I@@ 303736
c&apos; 303593
président 303580
gr@@ 303332
époque 303305
i@@ 301851
deuxième 301646
ir 300970
ét@@ 300741
étaient 300181
part 299416
pl@@ 299229
ayant 296967
dernier 295858
population 295018
as 294201
situé 293887
ï@@ 293799
me 293170
el@@ 292254
ex@@ 291851
étant 291554
én@@ 291294
période 291047
2010 290762
or 290660
br@@ 290518
and 290221
z@@ 288975
sur@@ 286889
5 286606
am@@ 286509
èrent 286168
environ 286049
li@@ 286038
pr@@ 284829
dit 284159
as@@ 283586
per@@ 282712
com@@ 281733
roi 281572
près 279744
us@@ 279674
Z@@ 279519
église 279439
nombreux 278894
ir@@ 277224
face 277106
mois 276144
ter 275683
e@@ 275581
tour 275524
istes 274893
ren@@ 274516
os 274231
em@@ 274042
origine 273891
ill@@ 273451
Ils 271541
dis@@ 271021
au@@ 270635
gouvernement 270606
Ces 270261
ents 270011
Mar@@ 269370
ot@@ 268066
ines 267813
Europe 267751
teur 267324
f 266918
Pierre 266681
chez 266238
bi@@ 265192
nationale 264487
espèce 264215
of 263889
av@@ 263791
ente 263660
mé@@ 263086
service 262623
ro@@ 262317
es@@ 262257
prend 262123
om@@ 261974
ensemble 261961
car 261453
cinq 260612
homme 259269
lo@@ 259038
ard 257098
ur@@ 256601
nommé 256418
ités 256244
The 256071
chef 255745
tique 255535
déc@@ 254739
ellement 254311
permet 253895
communes 253763
sé@@ 253719
Con@@ 253435
th@@ 253262
afin 253077
ence 252205
ancien 251647
Louis 251408
2018 250262
site 250158
tions 249704
ais 249155
ol@@ 248443
W@@ 247729
hui 247242
mar@@ 246701
souvent 246531
vi@@ 246265
u@@ 245675
reste 245314
carrière 245100
mer 244593
cr@@ 244546
née 244171
durant 243879
cas 243667
jeu 242787
effet 242771
armée 242167
id@@ 241886
cour@@ 241445
études 241282
Nord 240365
membre 240352
ve 239891
ille 239708
niveau 239617
jour 239405
ass@@ 237254
doit 237205
société 237151
rue 235692
ic@@ 234484
gu@@ 234384
rôle 233762
mon@@ 233274
national 233264
membres 233080
ologie 232579
té 232064
porte 231838
il@@ 231539
jours 231243
ph@@ 231236
peuvent 230205
sera 230168
7 230093
américain 229969
habitants 229815
projet 228620
mise 227603
Al@@ 227379
chaque 227266
Y@@ 226536
ennes 226264
ailleurs 225043
œuvre 223872
cré@@ 223823
tion 223618
Sa 223353
Selon 222262
onn@@ 222148
mondiale 221963
point 221890
présente 221761
ver@@ 221706
ateurs 221560
territoire 221386
mo@@ 221217
car@@ 221191
ables 221142
10 221095
troisième 219970
2011 219464
système 218901
8 218605
premiers 218452
the 217914
Par 217495
dès 217464
trans@@ 217319
finale 217054
to@@ 216901
exemple 216765
toujours 216652
travail 216306
Sud 216214
Mais 216126
base 215781
cor@@ 215638
2000 215583
its 215072
er@@ 214333
x 214025
poste 213968
droit 213864
2014 213549
_ 213266
match 213171
appar@@ 213166
è@@ 212805
antes 212722
quement 212565
ches 212546
ci@@ 212387
teurs 212267
toute 211785
sein 211239
ar 210930
m 210685
Charles 210579
personnes 210187
A 209673
era 209583
enfants 209163
Guerre 209028
éri@@ 208960
si@@ 208659
connu 207419
urs 206971
met 206399
ach@@ 206379
cet 206378
nombreuses 206014
2015 205470
toutes 205434
2009 205389
Lors 204886
Car@@ 204776
use 204465
long 204347
raison 203392
certains 203306
Des 203197
min@@ 203191
pi@@ 202604
château 202128
│ 200991
ordre 200566
ites 200530
six 200504
gé@@ 200436
succès 200251
op@@ 200094
mis 199924
New 198906
prix 198732
2008 198574
tête 198160
isation 198024
rapport 197810
ane 197509
université 197499
maison 197212
ate 197203
école 196924
ég@@ 196797
construction 196478
ton 196425
art 196134
va 196060
siège 195730
aine 195722
championnat 195550
oc@@ 195461
mes 195364
man@@ 195233
os@@ 195104
2012 195092
fille 194930
ies 194650
k@@ 194445
musique 194043
ain 193923
ém@@ 193879
ets 193822
type 193675
agit 193593
all@@ 193390
jeune 193329
Grand 192910
eu 192526
col@@ 192470
grâce 192023
ia 191975
province 191963
écrit 191421
points 191406
sion 191388
2013 191276
production 191140
île 190765
C 189692
hommes 189300
ène 189255
laquelle 189010
développement 188469
loi 188279
remporte 188227
Marie 187953
2020 187454
ains 187194
état 186970
ministre 186837
ances 186771
passe 186493
principale 186212
ép@@ 185986
ès 185577
femme 185542
– 185417
ile 185210
formation 185202
ade 185106
but 185009
participe 184314
II 183886
pouvoir 183871
cu@@ 183733
âge 183082
joue 182428
aujourd&apos; 182286
ri@@ 181991
tre 181768
corps 181604
Mon@@ 181187
Ré@@ 181046
rencontre 180564
version 180564
public 180478
aise 180429
Depuis 180420
moyenne 180297
ats 180022
création 179626
der 179256
ra 178728
Paul 178715
2016 178631
Dé@@ 178623
ser@@ 178257
ore 178080
2007 177400
Allemagne 177306
2017 177249
ides 177041
U@@ 176772
9 176596
route 176409
ec@@ 176205
ob@@ 176102
demi 175992
commence 175873
euse 175691
rec@@ 175617
vol@@ 175501
év@@ 175495
st@@ 175471
formula 175383
joueur 174875
ig@@ 174812
côté 174811
2006 174453
Coupe 174282
cl@@ 174130
dernière 174129
fin@@ 173909
François 173879
femmes 173478
suivante 173353
alité 172595
um 172496
football 172402
seul 171867
bo@@ 171836
ancienne 171436
grands 170891
zone 170610
ceux 170504
cro@@ 170502
plan 170378
furent 170268
An@@ 169961
1990 169852
devant 169710
voir 169689
petit 168301
ures 168132
ge 168009
déjà 168000
eaux 167942
él@@ 167553
produit 167350
travaux 166974
men@@ 166558
retour 166555
z 166512
cou@@ 165784
obtient 165227
rem@@ 164858
militaire 164707
direction 164598
20 164021
res@@ 163821
République 163800
différentes 163793
ba@@ 163664
Italie 163630
bou@@ 163542
terme 163537
fort 163357
ier 163294
élections 163264
date 163230
so@@ 163082
Tr@@ 162806
Par@@ 162667
John 162611
cher 162454
chanson 162358
da 162338
anglais 162252
fi@@ 162007
mère 161969
et@@ 161679
ences 161378
ice 161347
ê@@ 161346
ant@@ 161155
esse 161009
éc@@ 160874
parmi 160816
Avec 160792
D&apos; 160322
Gu@@ 160286
end@@ 160077
Am@@ 159749
édition 159625
onne 159616
15 159477
genre 159309
réseau 159268
comp@@ 159182
ni 159178
one 159160
sept 158883
milieu 158822
att@@ 158810
gt 158723
tandis 158681
un@@ 158670
ni@@ 158149
parti 158117
abord 158041
espèces 157927
inc@@ 157561
nes 157137
Bar@@ 157060
Br@@ 156894
dix 156686
division 156681
action 156674
no@@ 156654
2005 156390
frère 156334
ot 156266
parfois 156240
ner 155897
2019 155706
communauté 155660
liste 155370
Cependant 155307
sols 155029
tres 154718
donne 154704
seulement 154583
utilisé 154345
In@@ 154261
Sur 154151
particulier 154032
h 153991
fer@@ 153910
ma@@ 153775
le@@ 153542
r 153349
Description 153224
ing 152926
cadre 152906
bar@@ 152824
proche 152499
beaucoup 152215
britannique 152120
huit 151662
qué 151620
directeur 151546
res 151248
um@@ 150896
zones 150720
marque 150622
12 150549
York 150480
man 150121
américaine 150113
ment 150052
ues 150009
aurait 149913
Cor@@ 149888
Ses 149812
différents 149654
Union 149468
Jacques 149441
enti@@ 149313
recherche 149251
jou@@ 149173
second 149129
pos@@ 149123
créé 148819
international 148630
Mont@@ 148532
scène 148483
réalisé 148404
font 148371
sorti 148324
livre 148266
be 148073
ign@@ 147259
Mal@@ 147226
bois 147137
gar@@ 146960
indi@@ 146718
bataille 146679
fonction 146673
ay 146492
épouse 146464
tri@@ 145895
fa@@ 145786
Ber@@ 145780
gare 145733
na 145675
ang@@ 145575
occupation 145495
ème 145418
I 145349
sens 145213
sol@@ 145184
aide 145125
principalement 144932
auteur 144911
autour 144847
2004 144770
entr@@ 144645
victoire 144573
existe 144267
... 143906
cependant 143846
objet 143751
iques 143427
surtout 143298
rap@@ 143165
pro@@ 142894
premières 142878
ter@@ 142807
Mé@@ 142750
Canada 142533
rivière 142381
petite 141921
équipes 141604
pour@@ 141463
tur@@ 141447
publié 141420
ges 141344
plupart 141018
mouvement 140985
millions 140899
ler 140817
Mor@@ 140807
lt 140650
seconde 140541
Jeux 140497
œuvres 140481
1999 140177
k 140070
tels 139790
rejoint 139663
style 139611
Ro@@ 139340
Université 139223
erie 139151
Conseil 139147
spéci@@ 139136
ne@@ 139008
allemand 138984
cause 138614
activité 138272
ois 138259
Di@@ 138255
Espagne 137735
rel@@ 137722
mettre 137681
quartier 137318
ta 137150
mesure 137132
fer 136971
x@@ 136948
domaine 136890
entes 136846
isi@@ 136841
entreprise 136836
langue 136699
comté 136611
demande 136475
lequel 136426
ac 136350
bourg 136302
ai 136211
là 136055
reçoit 136007
éch@@ 135942
juin 135693
isé 135659
avaient 135443
haut 135410
Per@@ 135350
suivant 134946
dou@@ 134826
di 134736
su@@ 134708
Ma@@ 134691
Afrique 134690
acc@@ 134467
prendre 134373
aines 134244
p 134120
â@@ 133996
dire 133826
alement 133507
construit 133416
quant 133239
position 133191
por@@ 132956
Parti 132838
Angleterre 132708
port 132703
élu 132630
amp 132456
données 132357
appelé 132325
seule 132302
se@@ 132242
anti@@ 132150
classe 132106
roman 131814
manière 131687
Gr@@ 131484
aï@@ 131373
finalement 131317
ru@@ 131035
ati@@ 130683
pris 130608
station 130350
B 130337
gauche 129918
jamais 129912
conseil 129880
En@@ 129841
Or@@ 129789
ux 129264
propre 129171
2002 129152
tis@@ 129117
mai 129050
européenne 129013
historique 128983
étude 128883
lorsque 128814
tu@@ 128681
ades 128640
important 128466
nouvelles 128380
Ver@@ 128363
ologique 128339
mars 128233
possède 128133
1998 127821
septembre 127763
moment 127726
article 127670
16 127538
ole 127210
Qu@@ 126934
donné 126920
mal@@ 126808
présence 126723
voie 126632
seur 126537
Col@@ 126524
ve@@ 126489
fon@@ 126483
terre 126216
certaines 126144
11 126113
organisation 125833
ti 125378
matchs 125287
30 125279
bl@@ 125261
2003 125204
Robert 125155
principal 125074
ta@@ 124977
ète 124923
our 124909
Ligue 124870
rég@@ 124853
occasion 124775
1980 124737
Th@@ 124702
Tour 124645
ettes 124569
cela 124537
groupes 124425
Henri 124371
rou@@ 124222
parc 123981
référence 123981
0 123881
quand 123806
2001 123783
&#91; 123773
entrée 123741
son@@ 123594
constitu@@ 123578
Bo@@ 123451
annonce 123430
rant 123428
lég@@ 123422
voit 123274
18 123230
og@@ 123108
&#93; 123062
jeunes 123006
juillet 122991
rée 122955
Historique 122919
généralement 122892
! 122873
octobre 122856
Re@@ 122804
termine 122802
lu@@ 122792
° 122780
atique 122716
canton 122522
celles 122429
Carrière 122045
Com@@ 121984
14 121971
travers 121690
théâtre 121646
ises 121571
permettant 121481
classement 121472
Géographie 121417
ev@@ 121387
sa@@ 121183
off@@ 121158
grandes 121017
am 121005
atif 120808
issent 120804
= 120704
Joseph 120543
ina 120431
af@@ 120371
Le@@ 120199
court 120090
19 119893
sort 119880
professeur 119629
capitale 119626
course 119611
g 119472
ais@@ 119471
Michel 119378
pe 119373
val@@ 119308
Ainsi 119256
Londres 119008
tionn@@ 118927
taux 118917
Est 118810
Québec 118473
1970 118206
tor@@ 118169
Japon 118140
iss@@ 118072
culture 117991
villes 117928
politiques 117877
ouv@@ 117757
13 117712
Nouvelle 117647
gi@@ 117623
compétition 117380
ain@@ 117310
vue 117228
bâtiment 117042
Char@@ 117029
dic@@ 116903
vient 116703
17 116670
vo@@ 116370
compl@@ 116311
compagnie 116147
administration 116117
rapidement 116035
hé@@ 115975
ka 115872
2021 115824
composé 115777
janvier 115491
meurt 115448
district 115446
résultats 115272
sor@@ 115245
ion 115198
mètres 115016
décide 115014
Mo@@ 114982
D 114922
sions 114919
internationale 114848
Bou@@ 114774
retrouve 114585
musée 114514
meilleur 114504
ch 114468
importante 114384
semble 114248
troupes 113897
avril 113718
ur 113656
services 113637
activités 113552
fl@@ 113440
for@@ 113386
1950 113356
Liste 113341
lier 113309
ché 113134
Sh@@ 113092
auprès 112922
ires 112807
ber@@ 112750
serait 112687
San 112597
isant 112577
campagne 112422
char@@ 112409
Empire 112340
formes 112298
décembre 112218
films 112178
climat 112123
Pays 112111
août 112071
comprend 112042
ative 111846
ves 111773
emb@@ 111717
Grande 111656
ceinture 111612
tour@@ 111608
de@@ 111522
sortie 111354
carte 111259
rés 111072
ley 111070
mor@@ 111010
iser 110970
Si 110957
habit@@ 110889
mission 110883
créée 110835
programme 110402
la@@ 110126
Pendant 109860
alisation 109846
Pr@@ 109817
Co@@ 109762
Église 109677
novembre 109610
comte 109590
ut@@ 109577
thé@@ 109498
actuelle 109486
tin 109320
unique 109151
tés 109070
ov@@ 108943
aud 108924
onyme 108921
droite 108892
ç@@ 108714
tom@@ 108542
ô@@ 108508
can@@ 108400
populaire 108396
mi@@ 108232
supérieur 108196
télé@@ 108193
bal@@ 108160
cap@@ 108157
ana 108125
imp@@ 108044
Rome 107899
rom@@ 107890
atteint 107637
connue 107551
générale 107432
fr@@ 107215
faisant 107111
25 106980
argent 106970
droits 106940
lac 106929
économique 106772
do@@ 106644
terrain 106586
voix 106484
forces 106453
end 106259
sub@@ 106156
Pologne 106084
Seconde 106046
total 106040
enc@@ 106013
départ 106005
Comme 105869
Val@@ 105845
lie 105800
Chine 105687
8@@ 105652
terres 105604
ff@@ 105590
possible 105524
Sainte 105384
cinéma 105206
des@@ 105191
particulièrement 105180
association 105115
quer 105111
éli@@ 104998
signe 104974
contrôle 104831
S 104782
ol 104756
termin@@ 104730
modèle 104727
ément 104722
découvert 104676
russe 104652
1960 104608
honneur 104594
to 104534
b 104460
prise 104396
élection 104367
conf@@ 104066
vis@@ 104018
onné 104009
Se@@ 104004
nous 103951
parties 103930
form@@ 103904
produits 103787
ano 103570
intérieur 103470
éré 103383
sépar@@ 103236
espace 103215
istique 103141
champion 102980
Ouest 102959
w@@ 102843
Li@@ 102762
ing@@ 102723
nouveaux 102689
Belgique 102636
oir 102575
cal@@ 102473
désormais 102364
cas@@ 102341
eté 102339
façon 102315
large 102274
déf@@ 102095
mag@@ 102067
contr@@ 101718
? 101652
and@@ 101526
etc. 101483
tiques 101464
maire 101460
municipalité 101440
Prix 101414
tel 101362
technique 101242
te@@ 101200
… 101166
eng@@ 101153
idée 101123
territoires 101101
critique 101067
Cet 100979
Russie 100971
— 100971
arrivée 100970
ess@@ 100866
1991 100755
Philippe 100728
our@@ 100680
ra@@ 100607
axe 100584
Deux 100558
Be@@ 100466
24 100396
bas@@ 100366
éléments 100346
personnage 100283
Royaume 100246
ori@@ 100123
loc@@ 100096
Plusieurs 99947
ager 99939
ien 99889
ini 99868
gen@@ 99839
Bel@@ 99799
combat 99680
issant 99625
pan@@ 99539
joueurs 99337
sert 99318
aucun 99220
sol 99177
tient 99062
titres 98901
For@@ 98849
alités 98742
centrale 98733
ame 98595
février 98574
ture 98554
som@@ 98476
fié 98354
ête 98342
conn@@ 98298
part@@ 98285
Amérique 98247
est@@ 98163
contrat 98147
conserv@@ 98076
altitude 98069
David 98049
importance 98034
V 97960
vingt 97763
accès 97737
hi@@ 97707
dessus 97625
olympiques 97571
montre 97554
assez 97547
Centre 97475
chemin 97406
pression 97403
source 97398
tive 97313
esc@@ 96800
cur@@ 96712
1997 96655
sal@@ 96618
buts 96440
allemande 96417
devenu 96297
publie 96291
double 95988
force 95961
fier 95958
ten@@ 95935
bre 95913
die 95884
historiques 95866
prom@@ 95807
M 95799
duc 95732
attaque 95720
tiers 95712
cul@@ 95667
température 95624
astéroïdes 95567
1995 95533
ad 95446
G 95432
outre 95425
eb@@ 95397
Durant 95377
ède 95337
évolution 95312
nommée 95284
Po@@ 95277
École 95210
émission 95183
1996 95171
travaille 95152
liv@@ 95124
évêque 95098
trop 95074
préc@@ 95028
surface 95026
bat@@ 95017
bre@@ 94998
be@@ 94958
100 94945
od@@ 94944
issement 94917
quitte 94884
jeux 94877
situation 94759
ino 94724
charge 94673
mont 94659
quatrième 94582
taille 94527
bas 94505
devenir 94452
ami 94438
ell@@ 94331
journal 94174
F 94142
libre 94118
R 93983
marché 93961
III 93869
ma 93831
ak@@ 93830
mé 93824
passage 93807
21 93804
portant 93772
situe 93719
az@@ 93679
ut 93631
artistes 93618
rouge 93575
seurs 93559
aliste 93557
nier 93540
irs 93422
Ab@@ 93407
kilomètres 93356
FC 93346
viol@@ 93340
bes 93326
pont 93149
affaires 93098
Martin 93048
passé 93036
publique 93031
tent 92800
bord 92740
main 92732
anciens 92479
9@@ 92362
personne 92328
apparaît 92296
coll@@ 92225
inscrit 92166
Bien 92131
majorité 92117
pass@@ 92092
Sch@@ 92040
assur@@ 91933
italien 91801
salle 91740
acteur 91732
inf@@ 91688
lignes 91688
principaux 91566
venir 91538
ologiques 91520
ond@@ 91510
porté 91483
10@@ 91482
cer@@ 91470
rend 91400
santé 91273
E 91269
enn@@ 91216
pu 91181
tenu 91157
intégr@@ 91089
sc@@ 91017
î@@ 90945
chaîne 90940
7@@ 90922
1992 90911
dr@@ 90821
air 90743
anc@@ 90599
Her@@ 90560
rés@@ 90547
compris 90472
compos@@ 90399
Sal@@ 90398
iles 90337
50 90330
pièces 90329
représente 90229
intérêt 90164
Bi@@ 90025
astéroïde 89958
utilisation 89947
X 89917
plutôt 89906
ouvrage 89865
ven@@ 89854
+ 89852
fit 89806
1994 89759
ices 89754
El@@ 89682
Georges 89576
ève 89518
heures 89511
bonne 89455
gén@@ 89420
saint 89410
ins@@ 89398
Première 89387
ay@@ 89383
Société 89116
jug@@ 89069
Lo@@ 89040
suit 88985
divers 88956
toutefois 88905
édi@@ 88887
uses 88645
élimin@@ 88644
derniers 88643
agn@@ 88609
vidéo 88579
recensement 88570
dem@@ 88385
dev@@ 88381
faible 88324
agricoles 88279
arrière 88234
dép@@ 88150
télévision 88101
unité 88094
reçu 88077
valeur 88074
St@@ 88071
vallée 88065
actions 88023
X@@ 87987
Du 87878
lois 87857
simple 87852
Vi@@ 87846
ge@@ 87794
coup 87784
As@@ 87681
sécurité 87671
arts 87633
telle 87575
P 87487
chant 87270
cité 87201
côtés 87090
malgré 87086
fs 87012
cour 86970
atrice 86903
1981 86873
sh@@ 86855
co 86750
ty@@ 86748
N 86735
km 86685
eff@@ 86673
Bretagne 86659
dur@@ 86637
sciences 86608
22 86545
Parmi 86500
endre 86428
ari@@ 86329
ulaire 86301
pres@@ 86159
int@@ 86143
Thomas 86136
chapelle 86130
Man@@ 86014
propos@@ 85993
peintre 85966
pas@@ 85941
aucune 85931
ov 85885
plan@@ 85808
longueur 85790
considéré 85658
armes 85590
alisme 85545
André 85455
forte 85438
pratique 85425
voy@@ 85370
tournoi 85328
mariage 85322
issue 85297
clubs 85198
secteur 85194
1993 85168
savoir 85167
ang 85062
autor@@ 85044
vice 84949
berg 84850
marqu@@ 84820
Vo@@ 84762
Suisse 84744
moitié 84711
T 84607
ules 84546
conditions 84465
bande 84291
livres 84255
Pi@@ 84238
atives 84237
William 84223
Cal@@ 84203
du@@ 84137
ètes 84125
petits 84122
lar@@ 84048
De@@ 83955
O 83903
Club 83873
ed@@ 83850
propose 83798
nom@@ 83770
Elles 83728
reprises 83658
fonctionn@@ 83657
utilisée 83623
section 83602
Bal@@ 83503
0,@@ 83438
do 83432
23 83390
identi@@ 83377
Plus 83358
grav@@ 83297
onnement 83203
anim@@ 83197
presse 83098
hér@@ 83061
réalis@@ 83056
bri@@ 83041
maître 83033
abbaye 83005
ré 82890
ey 82862
tar@@ 82855
Es@@ 82853
célèbre 82817
police 82656
-@@ 82599
influence 82580
ici 82572
défense 82553
représentant 82519
gestion 82499
régions 82456
ande 82432
porter 82431
fonctions 82420
proximité 82380
1975 82339
ong@@ 82317
lorsqu&apos; 82299
ection 82297
me@@ 82280
rac@@ 82280
longue 82275
Cr@@ 82253
catholique 82191
Q@@ 82171
1988 82140
hauteur 82120
nuit 82105
Fr@@ 82075
comptait 82029
Pl@@ 81961
presque 81960
yl@@ 81947
Ex@@ 81942
faut 81911
neuf 81883
qualité 81873
ah@@ 81871
bres 81867
éd@@ 81799
empereur 81746
tent@@ 81720
secrétaire 81715
moteur 81714
passer 81683
sujet 81656
pal@@ 81643
1971 81624
pierre 81565
texte 81482
député 81461
médaille 81459
ski 81431
tier 81426
commerce 81410
Institut 81371
Dès 81308
lé@@ 81260
ographie 81121
sélection 81111
évolue 81087
.@@ 81075
accord 81017
hum@@ 80837
enseignement 80793
vitesse 80746
tableau 80736
entreprises 80724
personnages 80711
types 80698
jusqu 80688
no 80645
Claude 80591
réc@@ 80548
administr@@ 80515
protection 80446
eg@@ 80419
réalise 80407
prof@@ 80366
Bas 80364
mot 80360
sionn@@ 80348
soutien 80339
prépar@@ 80285
arr@@ 80253
ban@@ 80213
abilité 80131
appel 80130
royaume 80115
isent 80109
oph@@ 80105
aqu@@ 80084
oppos@@ 80060
certain 80051
lance 79980
lieux 79923
reconn@@ 79908
doivent 79866
H 79831
ates 79804
commun@@ 79767
uel 79752
So@@ 79714
arrondissement 79707
construite 79706
Académie 79678
relations 79560
sign@@ 79517
vit 79515
ablement 79505
artiste 79490
prince 79479
mêmes 79429
siècle 79407
vé@@ 79284
hiver 79212
prati@@ 79205
né@@ 79173
fondé 79157
médic@@ 79056
actuel 79040
James 78958
enfant 78892
nature 78859
mer@@ 78832
occup@@ 78792
mét@@ 78789
tra@@ 78688
permis 78670
inst@@ 78639
6@@ 78629
major 78559
Entre 78552
principales 78529
chev@@ 78506
voïvodie 78457
George 78410
Uni 78405
suivi 78354
appelée 78334
orbite 78289
épisode 78233
hors 78232
mari@@ 78147
publi@@ 78109
Cas@@ 78053
probablement 78045
Ac@@ 78013
Del@@ 77903
moyen 77877
Championnat 77795
directement 77787
œ@@ 77773
quée 77765
continue 77752
structure 77741
vu 77740
débuts 77726
observ@@ 77596
militaires 77430
vari@@ 77364
v 77354
1989 77336
U 77259
hor@@ 77227
ran@@ 77221
monuments 77220
Loire 77114
ah 77080
rest@@ 77008
fondée 76957
professionnel 76931
sup@@ 76881
décor@@ 76861
mode 76841
tra 76802
out 76714
Australie 76705
Nicolas 76702
pén@@ 76639
isée 76631
mus@@ 76601
von 76557
parents 76397
localité 76359
organis@@ 76332
40 76285
composée 76267
arrive 76259
26 76235
éro@@ 76232
viennent 76091
joué 76037
amb@@ 75974
pu@@ 75974
iter 75941
èse 75930
décrit 75916
naissance 75906
Beau@@ 75902
offre 75894
pens@@ 75796
haute 75749
pièce 75730
sociale 75709
Lyon 75702
lan@@ 75670
blanc 75638
vers@@ 75629
mat@@ 75619
Ser@@ 75562
ann@@ 75537
bâtiments 75497
rendre 75463
cad@@ 75454
ya 75448
exist@@ 75425
sin@@ 75379
régime 75325
Premier 75295
circonscription 75251
acte 75229
pied 75182
ouverture 75165
bon 75117
12@@ 75083
Du@@ 75060
Pro@@ 75060
former 75049
patrimoine 75022
dispose 74999
présent 74971
traité 74957
navire 74926
not@@ 74912
jouer 74873
énergie 74869
noms 74832
obtenir 74732
dite 74701
her@@ 74693
enfin 74681
arm@@ 74627
minutes 74607
ak 74601
sig@@ 74588
chansons 74565
direc@@ 74516
oni@@ 74442
aître 74429
Ne@@ 74386
éducation 74379
phase 74228
diverses 74177
chargé 74169
disput@@ 74151
tournée 74148
concernant 74146
derrière 74138
question 74109
del 74105
figure 74089
via 74065
sac@@ 74050
locale 74008
moderne 73995
Sé@@ 73968
forêts 73963
mi 73960
îles 73959
000 73950
portent 73941
catégorie 73929
ani 73928
xe 73873
équ@@ 73813
Bor@@ 73732
rép@@ 73717
oire 73677
mis@@ 73650
enregistr@@ 73636
Au@@ 73632
til@@ 73630
élève 73569
classique 73532
feu 73345
garde 73338
amp@@ 73323
ote 73283
transport 73271
découverte 73220
classé 73199
considér@@ 73184
lig@@ 73145
serv@@ 73142
continu@@ 73140
lettres 73079
rien 73041
techniques 73016
tim@@ 72958
attribu@@ 72950
modi@@ 72903
per 72871
soci@@ 72847
patr@@ 72842
Berlin 72831
aut 72751
capitaine 72751
tir 72744
bâ@@ 72702
ministère 72670
écrivain 72665
positions 72598
déroul@@ 72594
5@@ 72497
rive 72491
choix 72398
belge 72302
camp 72291
ser 72242
bul@@ 72229
créer 72192
courant 72175
autant 72125
je 72118
atiques 72113
atoire 72051
eut 72003
aj@@ 71963
Richard 71959
pay@@ 71950
caractéristiques 71939
cel@@ 71923
fréqu@@ 71916
usage 71875
log@@ 71858
iment 71850
constitue 71801
pourrait 71789
couleur 71784
statut 71605
noir 71578
ouvert 71546
éditions 71530
donner 71495
Sar@@ 71442
aus@@ 71393
reprend 71311
1986 71134
bert 71123
ènes 70853
itaire 70834
élo@@ 70770
Terre 70763
mal 70762
appel@@ 70732
adop@@ 70712
este 70712
utilise 70695
ide 70649
bassin 70622
économie 70575
vol 70508
euses 70461
Association 70434
land 70420
Ang@@ 70404
coul@@ 70355
adi@@ 70345
Alors 70315
oug@@ 70251
cs 70233
revient 70224
illes 70220
cher@@ 70201
ège 70182
navires 70059
crée 70056
désigner 70053
puissance 70041
portée 70024
dispos@@ 69994
sau@@ 69948
actuellement 69946
Bour@@ 69935
tourn@@ 69895
frères 69890
tours 69890
Mer@@ 69884
conseiller 69762
pé@@ 69737
impos@@ 69728
dernières 69711
Révolution 69710
dre 69700
occupe 69699
social 69662
hôtel 69644
théorie 69619
Caractéristiques 69601
He@@ 69553
lique 69517
exploitation 69491
Sp@@ 69485
voyage 69468
Sou@@ 69403
fil@@ 69367
quent 69361
Synopsis 69358
Is@@ 69341
collection 69286
stade 69253
vert 69253
suivantes 69246
ome 69198
prés@@ 69185
peuple 69184
ira 69176
Cl@@ 69174
em 69163
Mc@@ 69128
ata 69104
Ri@@ 69026
13@@ 68995
génér@@ 68986
Mag@@ 68977
ara 68976
problèmes 68939
emploi 68876
industrie 68862
architecte 68860
endant 68835
latin 68803
hom@@ 68732
if@@ 68725
scientifique 68717
participation 68712
numéro 68707
essentiellement 68705
enseign@@ 68658
opération 68646
seront 68629
ex 68611
Des@@ 68598
sœur 68581
cœur 68558
soldats 68514
1984 68426
illon 68360
frontière 68341
dispar@@ 68332
èle 68315
mondial 68307
Har@@ 68269
étique 68257
fiée 68242
parti@@ 68153
entraîneur 68137
objectif 68128
êtes 68108
exposition 68023
mont@@ 68023
image 68010
28 68008
rent 67955
ature 67943
atifs 67942
record 67941
défaite 67919
auteurs 67897
Guillaume 67886
ord@@ 67830
ki 67816
trouv@@ 67784
inv@@ 67767
décision 67763
sources 67762
officiellement 67709
coupe 67683
û@@ 67624
br 67596
ange 67567
ep@@ 67546
cartes 67518
ail@@ 67510
ones 67486
1987 67436
gues 67435
supérieure 67392
saisons 67354
devait 67337
langues 67322
bor@@ 67308
Cour@@ 67291
lis 67274
aye 67272
bel@@ 67270
oth@@ 67258
Su@@ 67240
palais 67195
ea 67142
kh@@ 67023
der@@ 66997
gouverneur 66988
sch@@ 66948
ai@@ 66922
1985 66881
central 66874
arrêté 66863
Malgré 66860
commencé 66843
ly@@ 66833
tic@@ 66766
auto@@ 66763
idae 66701
conduit 66693
sites 66654
obtenu 66633
défin@@ 66614
soviétique 66603
auté 66599
command@@ 66597
ali@@ 66541
littérature 66535
1930 66523
Me@@ 66487
actrice 66405
1968 66383
déclare 66370
fond 66349
équip@@ 66349
Ros@@ 66348
Gar@@ 66339
ens@@ 66274
lev@@ 66272
explo@@ 66223
arché@@ 66218
naturel 66201
remporté 66201
27 66161
existence 66157
revue 66154
utilis@@ 66142
Antoine 66080
anie 66059
formé 66054
initi@@ 66046
ouvre 66034
Haute 66014
cit@@ 65985
Seine 65973
pri@@ 65950
2@@ 65926
ica 65902
ili@@ 65889
Montréal 65806
médi@@ 65781
loin 65759
tenue 65746
aller 65669
retraite 65590
concours 65556
single 65542
ler@@ 65533
graphique 65525
importants 65525
Sa@@ 65491
aises 65480
fix@@ 65475
ys@@ 65456
1945 65393
lin@@ 65385
propriété 65355
Alexandre 65340
oue 65330
pape 65328
épreuve 65327
igne 65321
physique 65275
opposition 65267
européen 65263
étape 65256
construire 65255
environnement 65193
mieux 65132
iv@@ 65121
taire 65116
changement 65066
Moyen 65061
ï 65051
telles 65007
cre@@ 65003
tif 64979
indépendance 64943
ume 64912
largement 64888
1940 64854
agne 64850
gl@@ 64831
ray@@ 64819
densité 64811
disposition 64776
expos@@ 64760
1982 64726
critiques 64711
éti@@ 64675
meilleure 64622
objets 64584
gal@@ 64581
Dame 64548
établissement 64541
graphie 64527
ache 64512
cat@@ 64512
alli@@ 64424
ération 64413
studio 64305
chan@@ 64272
National 64242
semaine 64236
françaises 64231
Cela 64182
remplacé 64180
viv@@ 64174
ologue 64165
architecture 64133
asse 64100
ace 64023
compar@@ 63994
rep@@ 63943
illé 63939
Gal@@ 63936
ous 63884
chi@@ 63837
Assemblée 63834
côte 63796
recherches 63782
puiss@@ 63726
pe@@ 63718
Mat@@ 63697
ond 63691
fo@@ 63689
semaines 63615
Californie 63614
permettent 63593
magazine 63576
suivants 63502
Ren@@ 63495
van 63485
aff@@ 63478
passant 63454
contrô@@ 63398
Royal 63356
Min@@ 63287
relation 63265
dés@@ 63262
Autriche 63257
yr@@ 63256
familles 63227
montagne 63213
commandant 63163
Str@@ 63097
entour@@ 63060
lutte 63016
Français 62994
Anne 62993
rejoindre 62988
sen@@ 62981
regroupe 62975
textes 62954
capacité 62936
religieux 62910
japonais 62909
1983 62865
peinture 62860
communication 62831
─ 62831
bus 62830
are 62810
personnel 62794
maisons 62791
processus 62753
matière 62738
Can@@ 62727
championnats 62678
Ad@@ 62667
forêt 62649
anti 62615
aur@@ 62607
produ@@ 62602
extérieur 62462
limite 62455
ots 62394
prison 62384
isés 62378
ix 62355
ist@@ 62332
journaliste 62327
rement 62321
superficie 62269
1972 62242
pér@@ 62238
dat@@ 62235
commun 62154
ouvrages 62150
interpr@@ 62149
longtemps 62138
couleurs 62120
opér@@ 62092
distance 62087
régulièrement 62080
utiliser 62076
projets 62069
engag@@ 62064
go@@ 62018
Mexique 62014
constitué 62009
Notre 62001
ud@@ 61998
alistes 61995
lat@@ 61978
utilisés 61911
Dieu 61907
gmina 61867
oblig@@ 61859
décl@@ 61843
tradition 61819
fond@@ 61811
Cro@@ 61808
mobil@@ 61705
fus@@ 61673
Cré@@ 61669
El 61653
animaux 61628
ref@@ 61627
royale 61604
règne 61582
ed 61567
marquée 61550
Bernard 61514
No@@ 61513
Pol@@ 61511
rev@@ 61492
radio 61490
effectu@@ 61482
Maurice 61472
sy@@ 61364
diamètre 61345
M. 61344
durée 61339
Albert 61281
péri@@ 61253
sommet 61217
locaux 61216
fabri@@ 61211
nor@@ 61150
Er@@ 61114
1973 61078
label 61067
rier 61067
devint 61054
hydro@@ 61024
ton@@ 61023
agent 61022
cinquième 61014
alis@@ 61013
ez 61006
ors 60993
Toutefois 60984
intitulé 60977
ik@@ 60955
Mas@@ 60946
ani@@ 60942
Mac@@ 60932
ard@@ 60927
igu@@ 60886
ger@@ 60847
quelque 60831
Tour@@ 60796
out@@ 60784
IV 60776
espagnol 60767
ami@@ 60706
esp@@ 60703
atteindre 60690
dollars 60659
signifie 60641
veut 60629
couple 60625
faveur 60619
information 60605
aison 60590
épo@@ 60582
chap@@ 60578
sait 60529
marine 60520
oles 60517
Rom@@ 60514
autorités 60512
souff@@ 60478
tran@@ 60475
favor@@ 60468
vot@@ 60443
régiment 60438
écoles 60434
1976 60429
fondateur 60399
fé@@ 60396
seigneur 60391
désign@@ 60388
ida 60368
za 60359
Sous 60341
crise 60300
concer@@ 60296
réalisée 60286
ha@@ 60277
bronze 60274
lettre 60250
réserve 60240
cop@@ 60228
perd 60222
prit 60218
1979 60211
édifice 60179
lour@@ 60171
représent@@ 60150
comporte 60136
caractère 60087
1920 60081
paroisse 60079
1977 60065
Kar@@ 60060
ie@@ 60044
ault 60035
fication 60027
Enfin 60021
1974 59987
importantes 59967
trouver 59962
originaire 59951
ment@@ 59942
séries 59939
plantes 59930
travers@@ 59915
tement 59894
éni@@ 59833
Certains 59824
Vienne 59811
29 59786
3@@ 59758
américains 59716
suff@@ 59687
paix 59672
4@@ 59622
contient 59614
expérience 59598
débute 59591
Pe@@ 59520
fac@@ 59494
Lu@@ 59492
don 59467
sav@@ 59454
su 59444
ars 59436
connaît 59435
alg@@ 59433
responsable 59403
chacun 59384
comité 59374
entièrement 59286
trouvent 59274
répartition 59259
train 59239
cer 59219
chambre 59186
oux 59156
affaire 59154
cimetière 59153
événements 59098
entraî@@ 59080
ong 59078
1978 59061
vent 59050
agé 59042
Inde 59002
faisait 58981
conflit 58967
Go@@ 58952
nouvel 58952
alisé 58948
rurale 58924
onnée 58881
ètre 58808
participé 58776
remarqu@@ 58768
dan@@ 58734
quit@@ 58723
diocèse 58717
Michael 58700
étudiants 58684
articles 58644
Festival 58631
dée 58615
trice 58567
prim@@ 58500
Si@@ 58475
Los 58464
missions 58453
Avant 58415
Bas@@ 58406
civile 58406
Parlement 58341
Bruxelles 58316
ger 58308
communale 58273
appartient 58246
Cat@@ 58208
irement 58186
champ 58136
ôme 58106
Trois 58076
déroule 58068
privée 58063
60 58059
apparition 58051
side 58048
contin@@ 58033
juste 58027
pol@@ 57980
Henry 57977
Leur 57958
étr@@ 57952
néanmoins 57946
syn@@ 57942
pat@@ 57928
rencontr@@ 57885
Fédération 57868
attraction 57866
Dr@@ 57853
Asie 57846
pron@@ 57835
filles 57799
dessous 57768
powiat 57755
Inter@@ 57726
tures 57700
Ko@@ 57691
ressort 57681
Rou@@ 57635
différ@@ 57600
esses 57594
traitement 57557
commandement 57554
hô@@ 57551
app@@ 57503
hab@@ 57500
reg@@ 57500
ib@@ 57498
parvient 57488
lycée 57483
tro@@ 57457
nu@@ 57418
poly@@ 57418
ber 57377
ailles 57370
nav@@ 57312
Bl@@ 57290
Brésil 57282
mil@@ 57277
lit 57259
petites 57240
justice 57230
installe 57219
provo@@ 57216
Bé@@ 57215
urbaine 57178
usine 57175
romaine 57169
Ann@@ 57140
rati@@ 57137
Lorsque 57120
maladie 57119
tifs 57118
transform@@ 57114
épisodes 57112
hockey 57111
réalité 57089
syndic@@ 57082
actu@@ 57075
enter 57044
lumière 57043
composition 56946
artistique 56888
difficile 56855
uc@@ 56836
aci@@ 56795
mains 56787
limit@@ 56780
dor@@ 56762
Chambre 56727
vic@@ 56702
ître 56695
oy@@ 56685
ly 56664
vision 56624
Fl@@ 56598
om 56587
lieutenant 56566
variables 56556
informations 56552
Pal@@ 56549
14@@ 56517
illustr@@ 56490
beau 56455
hôpital 56441
unités 56437
onc@@ 56434
totale 56402
1967 56376
heur@@ 56324
ball 56308
Ger@@ 56299
élevé 56280
principe 56257
libér@@ 56256
féminin 56244
faits 56216
explique 56137
amis 56061
apo@@ 56060
itali@@ 56048
iti@@ 55998
tel@@ 55982
Je@@ 55940
Av@@ 55901
analyse 55897
maintenant 55893
étudie 55887
ste 55853
italienne 55835
çant 55808
indique 55805
uti@@ 55795
pot@@ 55784
nég@@ 55765
ds 55748
pon@@ 55744
origin@@ 55722
ordin@@ 55704
prennent 55696
autom@@ 55689
mas@@ 55686
ands 55668
200 55662
anciennes 55630
commission 55616
ich@@ 55577
diffusée 55558
jeunesse 55551
ek 55548
positi@@ 55532
local 55524
organisé 55522
diffusion 55513
ug@@ 55494
lit@@ 55460
professionnelle 55450
str@@ 55429
ouver@@ 55426
problème 55422
Lé@@ 55416
infanterie 55389
ros@@ 55382
Âge 55377
31 55357
mandat 55332
den 55276
approche 55268
Cour 55265
vous 55249
vont 55234
couronne 55226
itement 55150
poids 55150
comm@@ 55129
fonds 55122
armées 55033
doute 55008
appelle 54992
Vil@@ 54978
condu@@ 54975
marche 54965
Tro@@ 54937
amour 54936
compositeur 54920
vente 54918
décret 54914
Tar@@ 54907
cathédrale 54901
opérations 54884
publiée 54874
permettre 54866
rugby 54866
ram@@ 54856
arc@@ 54848
ju@@ 54842
villages 54825
Tou@@ 54822
fortement 54805
Tri@@ 54803
Ph@@ 54773
dom@@ 54772
futur 54770
lendemain 54741
don@@ 54738
propriétaire 54726
iller 54717
Tch@@ 54696
envoy@@ 54692
municipal 54688
mu@@ 54654
finit 54641
ase 54640
code 54613
victoires 54596
vend@@ 54553
déclar@@ 54531
j 54527
manque 54491
score 54454
vin 54452
conc@@ 54423
développé 54397
ôt 54389
absence 54351
élèves 54347
nos 54323
ae 54316
devenue 54314
Gau@@ 54293
érieurs 54292
uni@@ 54276
chinois 54267
ja 54250
termes 54237
priv@@ 54234
ita 54221
ignent 54192
dessin@@ 54178
sil@@ 54164
by 54123
ther@@ 54105
ura 54105
1969 54080
im 54076
Ag@@ 54068
uniquement 54067
collaboration 54055
publication 54047
Al 54039
étend 54030
bu@@ 53996
oli@@ 53991
Puis 53962
meilleurs 53962
acteurs 53954
mique 53932
èmes 53891
Sol@@ 53881
pouvant 53879
Tur@@ 53874
organ@@ 53857
détermin@@ 53835
ps 53833
ca 53818
ł@@ 53798
voiture 53776
connaissance 53758
précéd@@ 53757
Alpes 53754
systèmes 53749
mémoire 53745
lam@@ 53728
basé 53652
prot@@ 53648
Laurent 53594
réun@@ 53570
Esp@@ 53565
neur 53523
tombe 53500
onner 53475
fid@@ 53468
psych@@ 53460
écriture 53460
mun@@ 53455
dirige 53430
rées 53424
èvement 53413
tiennent 53410
he 53400
agriculture 53394
fleuve 53392
écr@@ 53332
soient 53312
appartenant 53304
cla@@ 53298
morts 53285
tée 53284
q 53261
mesures 53246
sorte 53237
régionales 53236
ke 53182
vra@@ 53176
sauv@@ 53156
Ba@@ 53155
modèles 53130
ari 53099
80 53094
sp@@ 53085
Ni@@ 53077
expression 53077
grec 53062
sent 53039
outil 53038
offici@@ 53024
établir 53019
risque 53009
réalisateur 52992
candidat 52960
fonde 52922
NGC 52906
eur@@ 52877
Dou@@ 52874
super@@ 52853
liberté 52837
io 52833
dispute 52808
prolong@@ 52790
ye 52776
éré@@ 52755
tou@@ 52752
commerci@@ 52723
proch@@ 52721
toire 52706
Maison 52664
rang 52660
électrique 52652
ambi@@ 52641
publics 52632
Moscou 52631
festival 52611
bureau 52581
Bri@@ 52578
journée 52574
commande 52538
yn@@ 52521
ho@@ 52518
régional 52517
amment 52481
douze 52477
four@@ 52442
plein 52436
rock 52429
aband@@ 52410
lesquels 52409
ouverte 52400
hy@@ 52382
mann 52371
combin@@ 52370
déplac@@ 52366
pouss@@ 52330
faite 52319
mari 52298
socialiste 52256
propres 52226
parcours 52222
iz@@ 52210
accompagn@@ 52207
élec@@ 52200
1964 52175
Commission 52169
résultat 52122
tente 52119
Algérie 52110
activ@@ 52108
agricole 52107
cont@@ 52074
har@@ 52073
poursuit 52069
Gi@@ 52052
1962 52030
Daniel 52017
esprit 52013
actifs 52005
fondation 52004
protég@@ 51995
éviter 51989
pose 51979
tives 51975
dépend@@ 51973
Marseille 51972
étiques 51962
Ter@@ 51956
chute 51911
valeurs 51900
note 51884
implant@@ 51867
phot@@ 51852
ō 51834
philosophie 51820
1944 51806
tig@@ 51803
arrê@@ 51799
ri 51755
vote 51727
accor@@ 51719
participer 51695
célébr@@ 51689
nécessaire 51689
naturelle 51676
enquête 51660
parce 51651
sport 51612
visite 51608
quet 51598
effectue 51586
application 51567
vis 51564
ko 51551
peine 51545
proches 51545
avion 51517
véritable 51516
médecine 51482
ici@@ 51465
ell 51460
public@@ 51457
tis 51449
actif 51447
développ@@ 51444
Irlande 51405
Art 51404
iers 51391
basse 51371
lé 51349
tait 51340
suisse 51333
compose 51319
reprise 51306
désigne 51285
condam@@ 51283
Championnats 51282
isol@@ 51268
présenté 51249
Vie 51240
rend@@ 51227
produire 51192
1965 51185
mises 51163
dû 51131
capit@@ 51124
onde 51092
scientifiques 51079
travaill@@ 51079
multi@@ 51072
méthode 51065
érique 51052
ols 51046
rej@@ 51046
ama 51020
City 51005
travailler 50999
arriv@@ 50996
relativement 50965
isse 50962
fusion 50925
Hu@@ 50895
recu@@ 50859
1966 50808
reine 50789
témo@@ 50779
Tor@@ 50766
portes 50742
Mari@@ 50723
collabor@@ 50715
pes 50710
annuelle 50684
ient 50673
Marc 50639
isses 50635
isson 50632
gaz 50618
collège 50611
Gen@@ 50607
séqu@@ 50568
cheval 50552
Sau@@ 50531
Kr@@ 50517
ême 50490
places 50461
officier 50411
uss@@ 50410
conception 50407
nés 50405
Peter 50393
aque 50393
officiel 50360
ferme 50358
pilote 50344
neau 50316
législatives 50302
cho@@ 50286
At@@ 50277
entrer 50205
mène 50162
Bur@@ 50160
René 50145
rach@@ 50137
moyens 50134
Dev@@ 50122
bour@@ 50112
La@@ 50096
chanteur 50078
fic@@ 50070
mécan@@ 50068
caractérisée 50062
photos 50028
puisque 50023
pap@@ 49969
World 49951
ath@@ 49946
promotion 49938
thème 49908
Pré@@ 49902
domin@@ 49895
assurer 49865
érieures 49804
mir@@ 49799
centr@@ 49795
communiste 49782
once 49778
euros 49758
Distribution 49723
domicile 49713
Toulouse 49692
K 49684
march@@ 49684
mur 49681
monument 49669
voire 49633
qués 49629
domaines 49628
lo 49615
arg@@ 49610
Quelques 49604
juge 49588
bé@@ 49587
angle 49583
ciel 49550
voies 49546
ienne 49535
Jo@@ 49530
reven@@ 49489
irent 49441
onie 49431
Et 49415
cin@@ 49409
traditionn@@ 49406
masse 49374
dure 49361
lic@@ 49361
dés 49336
Chaque 49319
45 49304
1939 49272
ards 49272
á@@ 49272
ige 49263
associ@@ 49252
age@@ 49251
trente 49247
laisse 49243
complexe 49242
accept@@ 49213
canal 49201
deur 49201
Do@@ 49183
vér@@ 49124
Tout 49122
crois@@ 49100
pel@@ 49089
ao 49073
raisons 49072
Cou@@ 49071
pouvait 49063
rapide 49051
pur@@ 49041
disque 49033
fourn@@ 49030
coup@@ 49020
assi@@ 49001
Maria 48960
biens 48943
engage 48911
égi@@ 48902
footballeur 48882
accus@@ 48874
arabe 48870
polonais 48855
intègre 48852
procès 48850
ferroviaire 48848
Mus@@ 48823
idé@@ 48820
écrite 48809
autorité 48805
économiques 48789
Aux 48788
1@@ 48763
dériv@@ 48760
lot 48734
my@@ 48726
avions 48706
gros 48701
arrêt 48700
met@@ 48672
Bre@@ 48668
1958 48666
Musée 48661
uer 48647
science 48605
sauf 48599
étranger 48599
atr@@ 48586
Angeles 48582
ect@@ 48562
collec@@ 48550
phone 48550
Ap@@ 48546
š@@ 48530
élus 48518
install@@ 48433
trav@@ 48428
ule 48382
Comité 48355
ulation 48349
résistance 48348
sif 48332
aériennes 48321
gé 48316
ein@@ 48313
chi 48308
Mi@@ 48287
Land 48235
&#124; 48225
dirigé 48210
35 48194
détru@@ 48192
distribution 48166
auparavant 48150
suiv@@ 48142
class@@ 48133
députés 48130
prenant 48099
ala 48088
naît 48081
hommage 48080
1866 48026
réaliser 48009
Celui 47999
arch@@ 47989
contexte 47987
lec@@ 47975
Démographie 47947
augment@@ 47890
heure 47889
nant 47861
ick 47792
populations 47777
diction 47764
concept 47744
tera 47732
endémique 47725
dia 47719
desc@@ 47701
natur@@ 47688
mesur@@ 47681
êtres 47674
perdu 47640
officielle 47601
Étienne 47598
bles 47577
main@@ 47565
utilisant 47546
he@@ 47542
matériel 47542
semi 47541
amén@@ 47525
universitaire 47500
Fer@@ 47495
rassemb@@ 47493
Suède 47456
ella 47427
1963 47426
prises 47409
elli 47402
li 47369
profon@@ 47359
effets 47357
littéraire 47352
albums 47281
découvre 47226
décédé 47202
Kh@@ 47189
uv@@ 47176
naturels 47169
parle 47164
volon@@ 47128
Frédéric 47114
due 47095
parisi@@ 47050
Cer@@ 47049
ha 47029
ble 47016
pil@@ 46933
bat 46927
Lou@@ 46884
organise 46878
q@@ 46848
appliqu@@ 46829
vir@@ 46808
mouvements 46799
aura 46781
culturel 46759
ów 46753
pa@@ 46704
exploit@@ 46647
entier 46644
producteur 46632
montée 46614
climats 46602
ordres 46544
èche 46534
initialement 46512
Arts 46492
besoin 46485
glace 46483
échelle 46472
gens 46463
ave@@ 46396
figur@@ 46388
Nouveau 46370
Pon@@ 46351
inspir@@ 46343
ze 46343
développe 46336
façade 46335
aéroport 46294
roy@@ 46288
respectivement 46283
divis@@ 46265
grille 46265
Victor 46235
tôt 46193
plac@@ 46179
ames 46170
pen@@ 46143
eth@@ 46139
chasse 46118
correspond 46109
Mil@@ 46093
Ou@@ 46036
1956 46024
oniques 45999
uelle 45984
Patr@@ 45983
ba 45972
landais 45971
sti@@ 45952
Vol@@ 45950
eusement 45950
32 45939
érer 45927
marins 45922
w 45904
circuit 45892
concerne 45889
Bordeaux 45882
Ho@@ 45872
1914 45869
affirme 45868
consid@@ 45845
préfecture 45833
érée 45831
colonel 45814
table 45814
diplom@@ 45805
Armée 45801
entale 45793
plans 45792
lancé 45782
circul@@ 45772
zi@@ 45763
Im@@ 45762
post@@ 45759
Division 45735
historien 45723
idées 45710
airement 45693
acqu@@ 45691
cons@@ 45674
refus@@ 45666
gagne 45649
traverse 45647
time 45641
rie 45597
yer 45590
titulaire 45502
médecin 45492
Bon@@ 45439
atis@@ 45435
500 45411
Bu@@ 45398
ense 45394
Croix 45386
souha@@ 45377
tionnelle 45375
indépend@@ 45366
page 45361
accueille 45359
1948 45339
atoires 45298
tron@@ 45274
rait 45257
ographique 45255
affron@@ 45244
croix 45225
International 45221
St 45213
éen 45203
retourne 45198
entre@@ 45187
début@@ 45169
financi@@ 45166
ast@@ 45153
Compagnie 45124
div@@ 45118
monastère 45118
ada 45106
mots 45082
Ti@@ 45044
ennent 45032
rencontres 45003
1946 44998
caus@@ 44984
génération 44981
vit@@ 44973
romain 44972
Fin@@ 44950
agglomération 44930
To@@ 44917
succ@@ 44917
matéri@@ 44913
réalisation 44909
yc@@ 44904
ach 44892
tionne 44890
établissements 44890
anglaise 44888
personn@@ 44884
bass@@ 44862
lou@@ 44860
fédération 44844
britanniques 44841
croissance 44835
regroup@@ 44820
agr@@ 44819
tionnel 44807
pa 44804
Washington 44796
bras 44780
vainqueur 44756
ji 44748
diff@@ 44727
industri@@ 44713
1961 44697
inclinaison 44683
Écosse 44674
ident 44670
rav@@ 44661
prê@@ 44659
lien 44653
propos 44641
Pan@@ 44637
Por@@ 44636
ori 44628
achev@@ 44591
ks 44542
aw@@ 44523
Grèce 44503
sociétés 44502
disponible 44498
Mel@@ 44495
cam@@ 44490
conver@@ 44490
connus 44483
cô@@ 44463
érieure 44447
Sc@@ 44445
Aut@@ 44439
tu 44434
annoncé 44427
publiés 44396
Val 44394
obten@@ 44394
fusi@@ 44365
Records 44337
périhélie 44328
Ha@@ 44325
Juifs 44265
piste 44264
considérée 44259
versions 44255
Culture 44251
1820 44234
issu 44219
icien 44201
ë@@ 44195
locales 44169
Cam@@ 44161
jo@@ 44157
considère 44156
lard 44140
décès 44105
télévisée 44096
guerres 44095
abou@@ 44089
poète 44080
idé 44067
chang@@ 44050
exprim@@ 44049
franch@@ 44027
ça 44024
polici@@ 44022
1959 44010
fou@@ 44001
automobile 43996
choisi 43996
consac@@ 43985
olympique 43978
Jules 43946
nois 43944
Groupe 43920
ignant 43918
médias 43906
présent@@ 43876
bénéfici@@ 43875
victimes 43867
représentation 43866
quel@@ 43855
fér@@ 43852
orchestre 43850
échange 43839
Ta@@ 43831
Égypte 43831
mod@@ 43825
représentants 43775
Ville 43762
chevaux 43761
ic 43760
ro 43750
US 43748
envoyé 43738
entation 43726
rer 43719
combats 43718
caractér@@ 43712
Pas@@ 43701
révél@@ 43681
thèse 43649
publiques 43639
vivant 43616
présidence 43612
ox@@ 43608
contact 43590
résid@@ 43590
accessibles 43589
ière 43577
marqué 43573
final 43561
nomme 43549
majeure 43531
proj@@ 43519
estim@@ 43499
Van 43492
delà 43490
riche 43480
Île 43472
vin@@ 43461
ny 43444
itions 43427
signific@@ 43422
concert 43421
Dom@@ 43417
avanc@@ 43409
abbé 43370
érant 43368
1936 43340
investis@@ 43340
avance 43334
intéress@@ 43334
réseaux 43330
officiers 43320
ert 43310
1947 43291
sit@@ 43274
régionale 43243
changements 43235
extr@@ 43228
soir 43221
lant 43204
lesquelles 43194
atta@@ 43191
ordonn@@ 43179
emplo@@ 43178
terr@@ 43171
déclaré 43165
cant@@ 43154
tir@@ 43151
Don@@ 43137
tan@@ 43128
ingénieur 43120
japonaise 43114
hu@@ 43107
lin 43090
ato 43088
dot@@ 43055
diplôme 43050
religion 43035
impose 43023
murs 43023
bro@@ 43005
musicale 42983
exception 42982
fil 42975
chois@@ 42967
Ju@@ 42954
trains 42949
sièges 42941
Mont 42938
José 42917
illy 42908
ématique 42907
ours 42899
organisée 42888
Est@@ 42877
ition 42874
ésie 42848
exp@@ 42842
Chicago 42837
vieux 42789
sexu@@ 42786
dépos@@ 42773
fu@@ 42757
jardin 42733
transports 42731
Roger 42708
départemental 42706
Hor@@ 42700
réussit 42695
70 42693
latér@@ 42685
erg@@ 42666
fe 42652
excentricité 42645
och@@ 42643
mati@@ 42618
étés 42613
ford 42606
anes 42600
émie 42592
culte 42578
quitter 42572
mot@@ 42571
Château 42562
Air 42560
élé@@ 42553
aces 42543
bibliothèque 42541
signé 42534
milieux 42524
estimé 42509
Ben@@ 42484
feuilles 42480
révolution 42476
Tous 42455
const@@ 42445
mén@@ 42432
reconnaissance 42406
développer 42399
physiques 42395
alt@@ 42391
los 42376
morte 42369
questions 42369
restauration 42346
honor@@ 42330
Mir@@ 42325
augmentation 42323
A. 42322
gros@@ 42321
estime 42318
xi@@ 42306
Insee 42281
gouvern@@ 42279
alier 42270
front 42268
alisée 42261
appréci@@ 42254
refuse 42240
Denis 42232
Rhône 42219
pul@@ 42218
distingu@@ 42201
dimin@@ 42199
Quand 42179
aît 42179
trique 42167
human@@ 42157
ime 42157
demeure 42147
ressources 42146
art@@ 42136
espagnole 42135
orité 42130
véhicules 42117
Christian 42116
régu@@ 42115
ret@@ 42109
Ol@@ 42087
temple 42082
té@@ 42082
originale 42076
ison 42067
sociales 42063
ret 42059
printemps 42041
rich@@ 42037
lib@@ 42029
top@@ 42012
certaine 42006
précipitations 41998
héros 41990
orient@@ 41961
conten@@ 41942
chir@@ 41937
reli@@ 41915
différence 41911
tué 41905
écliptique 41898
avocat 41896
ts@@ 41896
90 41895
bout 41892
Situation 41874
phon@@ 41868
č@@ 41868
empê@@ 41847
ords 41831
1949 41810
clo@@ 41802
sen 41792
endroit 41768
rares 41767
beaux 41745
ola 41745
documents 41734
partage 41703
essais 41702
Sam@@ 41681
1942 41661
Fran@@ 41660
Orléans 41659
conserve 41652
Portugal 41644
ver 41643
liers 41635
vivre 41631
oiseaux 41620
mani@@ 41607
1918 41578
vite 41574
conférence 41572
secondes 41566
expliqu@@ 41546
mettant 41515
nations 41515
voul@@ 41500
majorit@@ 41499
fémin@@ 41496
gué 41482
protest@@ 41478
Ay@@ 41460
flotte 41451
devrait 41421
tempor@@ 41416
eter 41396
coû@@ 41394
igny 41391
ys 41385
incar@@ 41373
branche 41365
évo@@ 41349
odi@@ 41348
Orient 41341
Fon@@ 41338
neaux 41318
tab@@ 41304
embl@@ 41272
annex@@ 41261
Hongrie 41244
rière 41195
sie 41195
cé@@ 41162
associé 41149
époques 41147
ext@@ 41145
métropole 41145
umes 41142
parten@@ 41136
réserv@@ 41117
serbe 41111
tie 41104
1957 41100
1954 41072
chanteuse 41069
profit 41063
inage 41015
1943 41010
Alain 40982
sociaux 40981
Ru@@ 40974
bin@@ 40959
1938 40952
J 40951
agu@@ 40951
fête 40951
1955 40940
aill@@ 40937
expédition 40927
sus@@ 40925
ena 40918
enfance 40901
réforme 40877
restaur@@ 40865
donn@@ 40858
excep@@ 40847
ry 40847
vaste 40829
famili@@ 40826
chœur 40808
San@@ 40806
Fo@@ 40805
consiste 40801
aliers 40780
Em@@ 40776
exemplaires 40776
yeux 40771
consommation 40745
for 40732
étage 40728
Chi@@ 40699
élément 40688
édit@@ 40685
ca@@ 40675
permet@@ 40675
Santa 40673
adaptation 40666
ker 40620
traduit 40609
envis@@ 40604
nation 40578
sixième 40570
établi 40566
cir@@ 40561
forment 40554
thique 40538
Léon 40516
étrangères 40516
mou@@ 40512
volonté 40512
Simon 40500
présents 40494
candidats 40487
piano 40472
accident 40461
basée 40461
noire 40461
revanche 40456
Ur@@ 40450
allemands 40450
1941 40438
égation 40410
inférieur 40402
kin 40384
Dur@@ 40361
ous@@ 40361
Mah@@ 40346
lent 40343
cot@@ 40334
seuls 40320
tire 40313
atelier 40311
humaine 40303
commercial 40289
progressivement 40284
Bru@@ 40271
règles 40266
change 40256
bé 40254
consom@@ 40252
Auguste 40236
Corée 40235
Maz@@ 40235
possibilité 40232
spécialiste 40220
rois 40204
cycle 40203
ner@@ 40186
massif 40168
adjoint 40161
Stade 40157
scènes 40117
radi@@ 40112
Israël 40088
bon@@ 40086
ruisseau 40075
Petit 40062
appelés 40056
neurs 40052
sang 40046
prévoit 40030
anger 40023
assure 40007
aider 40000
sme 40000
tribunal 39991
versité 39984
distinc@@ 39949
ek@@ 39936
uch@@ 39934
retrouv@@ 39916
tre@@ 39899
oise 39878
voyageurs 39878
êt 39876
Genève 39873
asc@@ 39866
images 39861
Climat 39834
libération 39833
endra 39817
reconnu 39816
placé 39812
partis 39786
événement 39779
appro@@ 39775
tue 39769
1952 39767
Mad@@ 39758
XV 39758
Rég@@ 39754
résidence 39751
bibli@@ 39750
techn@@ 39739
tière 39739
identité 39717
numér@@ 39715
fos@@ 39706
inform@@ 39703
emplacement 39667
Baptiste 39665
Congrès 39662
présentant 39646
travaillé 39629
original 39626
sec@@ 39620
ports 39618
législ@@ 39616
complète 39608
connaître 39584
romans 39579
Mol@@ 39577
33 39566
chant@@ 39565
idents 39558
dro@@ 39548
Madrid 39540
plateau 39535
ey@@ 39533
Comté 39513
discours 39512
notre 39502
vie@@ 39487
utilisées 39478
up@@ 39462
chemins 39450
béné@@ 39439
communal 39434
tenant 39434
trait@@ 39432
Radio 39408
Ham@@ 39399
roul@@ 39386
ail 39382
fabrication 39373
als 39368
Thi@@ 39299
1953 39298
mut@@ 39280
simplement 39267
suites 39258
servir 39244
individ@@ 39236
constituée 39231
flor@@ 39231
médiév@@ 39223
2022 39222
omb@@ 39215
oni 39213
puisqu&apos; 39191
College 39183
imprim@@ 39183
élabor@@ 39177
Provence 39170
trou@@ 39157
League 39153
Sur@@ 39142
boul@@ 39139
all 39128
champions 39128
espaces 39100
Gir@@ 39095
Bro@@ 39088
Men@@ 39068
May@@ 39065
Os@@ 39034
volume 39006
otte 38988
écos@@ 38972
ode 38966
siècles 38954
rê@@ 38949
Comp@@ 38947
référ@@ 38937
privé 38915
Peu 38896
Nations 38880
Hal@@ 38878
repris 38849
prévu 38840
érie 38838
cule 38836
programmes 38836
Répartition 38813
Park 38802
inaugur@@ 38801
Pé@@ 38786
mention 38776
détaillée 38767
lir 38744
Occupation 38743
Édouard 38743
aud@@ 38740
démén@@ 38740
écar@@ 38738
Étymologie 38731
réper@@ 38722
régulière 38721
Maroc 38717
apprend 38716
proté@@ 38715
qualifi@@ 38714
émer@@ 38665
religieuse 38664
forc@@ 38652
chefs 38650
Wil@@ 38643
fau@@ 38637
royal 38637
envers 38634
ores 38631
concerts 38630
Bau@@ 38626
indic@@ 38605
métro 38603
professionnels 38582
Far@@ 38576
cle 38574
Strasbourg 38573
dét@@ 38572
Toponymie 38571
appr@@ 38555
çon 38530
èles 38526
écriv@@ 38526
définitivement 38524
Catherine 38523
eil@@ 38515
élev@@ 38510
semb@@ 38483
internationales 38466
denses 38465
1937 38462
Côte 38451
artillerie 38450
eries 38450
direct 38449
ub@@ 38446
convain@@ 38438
personnalités 38419
gh@@ 38416
ces@@ 38411
déta@@ 38397
ras@@ 38397
produc@@ 38395
Jeanne 38374
spectacle 38365
Ram@@ 38357
occidentale 38354
consacré 38343
ini@@ 38343
dehors 38341
Neu@@ 38330
précédente 38318
niveaux 38309
majeur 38308
issus 38306
Milan 38276
difficultés 38270
active 38268
Hol@@ 38259
sier 38257
cent 38252
emment 38248
rendu 38212
ision 38210
abrite 38201
pâ@@ 38190
routes 38180
connues 38170
Or 38150
Savoie 38146
jaune 38133
nationales 38121
uz@@ 38116
spor@@ 38106
Économie 38105
gique 38100
aissent 38089
sujets 38087
Pom@@ 38083
immédiatement 38083
habitu@@ 38082
battre 38075
concentr@@ 38072
Te@@ 38071
riv@@ 38051
logements 38032
écrits 38024
conçu 38012
san@@ 38006
Der@@ 38000
baie 37991
so 37979
tionnaire 37973
quartiers 37971
diffus@@ 37957
asi@@ 37951
mâ@@ 37945
éditeur 37931
démocratique 37916
aiss@@ 37909
symbol@@ 37905
rôles 37889
échec 37867
1933 37866
danse 37863
parler 37860
ty 37854
2,@@ 37851
liaison 37836
J. 37833
constitution 37832
vel@@ 37830
mines 37828
national@@ 37815
Marine 37807
uy@@ 37805
comparer 37804
distingue 37786
çons 37784
légèrement 37775
parallèle 37763
Allemands 37762
datant 37761
taires 37759
fiction 37734
aî@@ 37730
initiative 37729
voitures 37729
Dor@@ 37718
Marcel 37705
Sim@@ 37685
préf@@ 37675
Communauté 37670
univers 37664
flam@@ 37635
ajou@@ 37632
fédéral 37625
Un@@ 37608
ose 37592
1919 37590
id 37580
lée 37562
courses 37539
lut@@ 37539
urg@@ 37539
urban@@ 37518
succède 37504
entaires 37494
ult@@ 37473
Théâtre 37441
montr@@ 37427
européens 37420
intermédiaire 37420
décidé 37419
aménagement 37409
ez@@ 37409
journ@@ 37383
Arthur 37377
scrutin 37375
bourge@@ 37365
prop@@ 37322
ora 37304
administrative 37287
sén@@ 37277
autrich@@ 37265
tit 37261
tenir 37255
isées 37242
prisonniers 37242
allant 37238
Urbanisme 37204
Gor@@ 37191
ois@@ 37191
1951 37183
36 37171
automne 37166
blanche 37165
maje@@ 37165
Sil@@ 37155
performance 37145
marin 37138
atte@@ 37136
dynastie 37136
fais@@ 37105
sû@@ 37084
absolue 37080
franco@@ 37079
peupl@@ 37065
iger 37051
Politique 37039
Dis@@ 37030
tourne 37020
animation 37015
suivent 37003
tements 37002
dique 36999
cultiv@@ 36983
étée 36977
Atlantique 36973
ench@@ 36968
érieur 36968
normale 36964
évalu@@ 36942
phe 36923
ajout@@ 36895
mettent 36893
qualifié 36887
établit 36874
Ordre 36870
AS@@ 36862
1935 36858
ello 36857
négoci@@ 36854
cycl@@ 36832
lac@@ 36829
chr@@ 36820
établie 36820
requ@@ 36817
dessinée 36806
donnant 36804
reur 36804
Ir@@ 36788
ze@@ 36784
Nor@@ 36782
arbres 36779
Lang@@ 36776
introdu@@ 36759
écrire 36755
associations 36753
enseigne 36753
Vincent 36749
récit 36748
Christ 36743
Lam@@ 36742
étend@@ 36732
chevalier 36729
sour@@ 36729
cérémonie 36725
interprète 36725
épreuves 36714
présidentielle 36713
pourtant 36710
combatt@@ 36709
Nantes 36708
statue 36699
artis@@ 36667
belle 36667
rit@@ 36665
Administration 36661
flu@@ 36648
Op@@ 36630
étro@@ 36620
Napoléon 36586
peur 36566
alog@@ 36552
Cap@@ 36541
exécut@@ 36539
énie 36539
protéger 36537
écologique 36534
chron@@ 36528
mand@@ 36512
prêtre 36502
communautés 36501
fortes 36494
Pyrénées 36492
forts 36476
ilien 36476
cab@@ 36465
onze 36459
aéro@@ 36458
départementale 36392
enci@@ 36392
anci@@ 36380
nef 36377
rir 36376
Reg@@ 36373
intervention 36364
échelles 36351
rues 36332
mathématiques 36318
Argentine 36312
th 36301
Monde 36297
européennes 36294
lait 36292
océanique 36285
Francisco 36279
Vers 36273
tennis 36270
bil@@ 36255
consécu@@ 36233
Haut 36227
nour@@ 36226
cach@@ 36209
stations 36199
dessin 36197
aves 36187
basket 36186
ok@@ 36168
union 36155
barr@@ 36153
secondaires 36148
alisés 36144
chacune 36136
gien 36125
Cassini 36114
débar@@ 36109
demand@@ 36106
soul@@ 36093
enses 36092
ona 36091
aspect 36084
conséquence 36078
fleurs 36072
milit@@ 36056
aliser 36051
ima 36049
Pont 36032
fonctionnement 36029
cabinet 36025
canadien 36015
chose 36009
ev 36004
bleu 35996
ider 35978
étoiles 35968
étrangers 35966
dos 35963
humains 35950
IGN 35946
cos@@ 35927
gence 35912
Sor@@ 35910
baron 35909
Typologie 35897
phénomène 35885
1929 35878
constat@@ 35861
èn@@ 35842
venant 35839
impliqu@@ 35820
éran@@ 35816
suivre 35781
Organisation 35779
gagn@@ 35772
trafic 35765
inspiré 35756
vet@@ 35754
duc@@ 35736
féminine 35736
air@@ 35723
ble@@ 35702
tal@@ 35699
voû@@ 35699
accepte 35677
ul 35665
écou@@ 35656
ulin 35655
patri@@ 35653
avenue 35650
1934 35648
vécu 35634
arri@@ 35593
archives 35590
éné@@ 35578
mine 35564
oiseau 35560
Roi 35559
franco 35540
distribu@@ 35516
quinze 35499
liés 35498
enf@@ 35495
réaction 35491
auquel 35490
trône 35486
appareil 35475
promu 35469
aun@@ 35449
field 35442
solution 35433
menée 35429
gol@@ 35420
surviv@@ 35416
exig@@ 35415
moteurs 35403
fre@@ 35397
perte 35393
onique 35387
réponse 35334
érées 35334
Celle 35302
stes 35297
eint 35291
humain 35289
classes 35235
Localisation 35231
proportion 35228
1932 35222
courte 35210
classification 35187
limitée 35186
autonome 35184
Pic@@ 35181
délé@@ 35178
CD 35175
détruit 35167
Ge@@ 35165
├ 35164
retrouver 35151
impériale 35140
émissions 35117
sement 35105
tenus 35090
Néanmoins 35089
entaire 35086
1900 35075
actes 35065
Mur@@ 35061
ister 35057
Gé@@ 35051
ogie 35047
diffusé 35040
pouvoirs 35035
but@@ 35031
gran@@ 35022
Service 35005
contraire 35001
AR@@ 34997
victime 34978
érig@@ 34967
légi@@ 34957
restent 34948
phil@@ 34935
révèle 34914
iens 34907
nationaux 34898
sk@@ 34897
Disney 34894
polonaise 34876
chau@@ 34874
châ@@ 34874
temp@@ 34860
montré 34858
38 34850
tentative 34848
matin 34846
assist@@ 34845
ont@@ 34840
Barcelone 34829
Il@@ 34824
AS 34819
circulation 34811
Han@@ 34809
enceinte 34804
sements 34804
secondaire 34797
conservé 34795
fut@@ 34794
installé 34794
sugg@@ 34788
Fre@@ 34783
avi@@ 34781
Normandie 34779
classée 34777
scol@@ 34776
mos@@ 34763
vern@@ 34757
enregistré 34756
dépend 34746
cycliste 34741
évol@@ 34731
Mes@@ 34720
musical 34720
explic@@ 34719
inscr@@ 34718
Patrick 34662
captur@@ 34612
situés 34608
Arm@@ 34594
totalement 34581
extension 34577
pin@@ 34551
primaire 34547
sel@@ 34543
Sav@@ 34540
conseillers 34532
Bourgogne 34530
correspondant 34529
quart 34525
ō@@ 34524
oppose 34500
cav@@ 34492
Cin@@ 34489
1928 34483
salles 34482
lab@@ 34475
Marne 34470
pense 34463
licence 34455
300 34447
rattach@@ 34428
igner 34422
tisme 34420
ium 34418
pp@@ 34414
cherch@@ 34412
néo 34410
ym@@ 34395
CA@@ 34393
aliment@@ 34387
auraient 34385
Franc@@ 34381
sab@@ 34373
assemblée 34359
Smith 34340
religieuses 34332
Lille 34314
modernes 34302
Vierge 34289
terrains 34289
Fin 34287
èvre 34284
décro@@ 34280
oration 34274
School 34271
paru 34271
cep@@ 34264
aérienne 34259
conqu@@ 34245
pêche 34242
brés@@ 34238
lanc@@ 34223
400 34205
naturelles 34187
isions 34183
écl@@ 34183
format 34155
ériques 34130
extrême 34126
disparu 34125
fle@@ 34124
destiné 34116
occupé 34113
rang@@ 34108
quin@@ 34107
race 34100
Cover 34093
compétitions 34078
1924 34072
Corine 34068
résist@@ 34066
jum@@ 34061
soutient 34060
constituent 34051
Hér@@ 34048
attention 34045
désigné 34044
cardinal 34033
intellectu@@ 34019
ā@@ 33996
Ban@@ 33985
installer 33980
pointe 33979
aîné 33959
1910 33955
Dar@@ 33950
Thé@@ 33942
rénov@@ 33942
visant 33939
tend@@ 33929
septième 33927
tro 33924
arbre 33923
représenté 33919
ax@@ 33911
empire 33910
Guy 33905
prime 33904
olog@@ 33900
administratif 33881
institutions 33878
vendu 33876
Ly@@ 33856
appellation 33835
dits 33831
chauff@@ 33822
esti@@ 33817
voient 33801
dres@@ 33799
précédent 33793
contenant 33789
Rus@@ 33786
aques 33768
ties 33766
AC 33765
améliorer 33748
ó@@ 33748
Juan 33724
essai 33717
einte 33702
montagnes 33694
ification 33691
sportive 33687
contribu@@ 33677
ali 33671
Né@@ 33669
ouvrir 33669
Je 33666
conduite 33651
utilisent 33647
fam@@ 33644
lingu@@ 33642
á 33641
néerlandais 33634
dirigée 33633
Hom@@ 33632
numérique 33629
battu 33627
Outre 33623
line 33621
aisse 33612
cut@@ 33610
dirigeants 33608
éta@@ 33605
méthodes 33604
condamné 33586
démocrate 33584
illa 33568
doctorat 33546
architec@@ 33544
pique 33542
comédie 33535
34 33530
eh@@ 33515
ind@@ 33514
assemb@@ 33513
trac@@ 33513
chal@@ 33508
indépendant 33504
oires 33502
alise 33500
américaines 33498
quantité 33498
mentionn@@ 33495
ges@@ 33492
biophysique 33469
Port 33463
adapt@@ 33454
ball@@ 33443
édité 33440
pratiques 33438
phare 33417
Famille 33402
présentent 33400
prairies 33397
individus 33392
évolu@@ 33392
SC 33376
températures 33372
erait 33370
dos@@ 33352
Jeunesse 33351
véhicule 33349
lié 33340
langage 33315
cha 33309
qua 33307
incendie 33298
net 33293
couverture 33278
modern@@ 33274
précise 33273
recrut@@ 33266
nucléaire 33260
ron 33251
usa 33242
Tom@@ 33229
phones 33226
CLC 33218
servi 33206
analy@@ 33197
Cur@@ 33188
rig@@ 33188
col 33178
ati 33166
Antonio 33157
donnée 33151
comprenant 33141
égalité 33129
érés 33125
ingéni@@ 33100
pein@@ 33094
hydr@@ 33089
enregistrement 33084
1870 33082
atie 33077
Super 33076
Music 33057
structures 33054
ico 33052
équipage 33049
lion 33043
musiciens 33039
ajoute 33031
CE@@ 33029
installation 33023
succes@@ 33020
complet 33015
uri@@ 33011
Tokyo 33010
similaire 33010
port@@ 33007
Lorraine 32986
complètement 32973
affir@@ 32945
venu 32940
vig@@ 32929
performances 32927
liées 32920
0@@ 32909
élevée 32903
isa 32880
grade 32876
loy@@ 32866
cens@@ 32853
coopération 32840
somme 32840
toile 32792
trouvé 32784
Né 32778
adap@@ 32764
sel 32758
conç@@ 32756
contrain@@ 32754
traduction 32738
étudier 32734
centres 32732
organisations 32732
ël 32724
raconte 32714
Rec@@ 32685
Jésus 32683
1925 32679
ographiques 32668
liqué 32662
rester 32661
intitulée 32656
tien 32654
attaques 32653
trouvait 32651
lancer 32627
Ste@@ 32625
act@@ 32622
isti@@ 32615
totalité 32615
vas@@ 32599
harmon@@ 32595
sortir 32591
profes@@ 32589
profondeur 32589
présenter 32581
spécifique 32572
étoile 32569
las 32568
saires 32560
décr@@ 32555
noy@@ 32540
nou@@ 32538
istiques 32535
végét@@ 32535
veille 32530
coût 32525
géographique 32525
Hy@@ 32519
arde 32512
dig@@ 32511
az 32510
crimin@@ 32510
mondi@@ 32484
miques 32478
Lor@@ 32474
phy@@ 32466
tendance 32466
individu@@ 32457
cultures 32447
í@@ 32442
croy@@ 32417
éens 32417
1912 32415
Pou@@ 32405
TV 32402
Aur@@ 32394
ust@@ 32389
généraux 32384
canadienne 32380
étab@@ 32379
accueil 32376
desservie 32375
transition 32347
maximum 32334
civil 32328
Raymond 32323
propriétés 32323
docteur 32322
juive 32322
Turquie 32319
identique 32319
eta 32317
Zélande 32314
plu@@ 32313
deviennent 32311
1931 32303
preuve 32298
répar@@ 32294
provinces 32287
aro 32270
ési@@ 32266
quotidien 32254
Sec@@ 32252
péd@@ 32251
interprétation 32242
itation 32233
liée 32220
Let@@ 32218
eine 32218
planète 32216
construits 32214
dir@@ 32211
amiral 32190
accro@@ 32189
multiples 32181
visible 32180
consult@@ 32168
inscription 32145
observatoire 32139
ensis 32124
tem@@ 32118
Enf@@ 32113
chapitre 32094
affect@@ 32076
confir@@ 32074
influenc@@ 32072
oncle 32069
intr@@ 32057
cellules 32049
Châ@@ 32038
Certaines 32031
itaires 32017
oul 32015
éo 31998
den@@ 31997
archevêque 31995
rappel@@ 31989
Év@@ 31989
abond@@ 31985
cy@@ 31971
parlementaire 31969
transfert 31958
suc@@ 31952
comment@@ 31949
décer@@ 31941
instruments 31930
jur@@ 31921
directe 31911
interne 31909
tâ@@ 31908
Trans@@ 31905
criptions 31905
typologie 31901
conclu@@ 31898
pleine 31896
tournage 31894
introduit 31891
avis 31878
tion@@ 31878
ban 31875
quotidi@@ 31864
ativement 31860
propriétaires 31854
aile 31830
42 31815
cip@@ 31804
Bay@@ 31791
Jusqu&apos; 31773
tradu@@ 31772
oz@@ 31767
témoign@@ 31767
couv@@ 31764
liens 31764
invent@@ 31762
églises 31759
Serbie 31750
exécution 31743
affluent 31741
documentaire 31740
peintures 31740
Bol@@ 31737
Constitution 31734
quées 31733
météorologique 31727
étudi@@ 31727
sing@@ 31719
masculin 31714
antique 31689
aux@@ 31682
troit 31670
lande 31660
Pap@@ 31657
64 31655
postes 31648
thi@@ 31640
barrage 31629
Affaires 31626
terminé 31617
solo 31616
tiv@@ 31614
land@@ 31610
quanti@@ 31610
taient 31605
sem@@ 31594
scénario 31590
charg@@ 31588
capable 31578
Ker@@ 31575
besoins 31568
remonte 31560
Texas 31558
apparaissent 31558
Population 31545
Lee 31537
Luxembourg 31535
remplacer 31534
Max 31529
vrai 31522
commer@@ 31501
évolué 31488
andi@@ 31484
Palais 31477
élevage 31477
galerie 31470
invasion 31469
devenant 31463
con 31460
ouch@@ 31456
1921 31453
Colombie 31453
Rem@@ 31451
emprun@@ 31451
républic@@ 31446
Wal@@ 31442
origines 31436
icul@@ 31413
1926 31409
orientale 31402
provenant 31402
accompagné 31401
cy 31385
United 31382
geant 31381
venue 31380
èses 31376
ions 31372
industriel 31368
Ukraine 31349
lecture 31349
arc 31338
unies 31331
dan 31325
élite 31314
Alfred 31308
illage 31305
récol@@ 31286
alie 31265
onnés 31260
Finlande 31258
agence 31252
vac@@ 31249
1922 31246
tin@@ 31237
Mot@@ 31229
davantage 31203
destruction 31202
définition 31198
West 31183
Œuv@@ 31181
situées 31139
condition 31132
itch 31130
Fort 31118
ventes 31118
notion 31098
fédér@@ 31096
Président 31095
ier@@ 31089
ancer 31087
arme 31075
culturelle 31070
indé@@ 31047
Sénat 31043
laissant 31042
teau 31036
Norvège 31023
réduit 31023
American 31020
tirer 31018
essentiel 31016
Vic@@ 31015
alm@@ 31008
alco@@ 31007
facilement 31000
comportement 30998
collections 30997
Liège 30988
icité 30985
métrage 30981
maritime 30980
Venise 30957
genres 30937
prob@@ 30935
envoie 30932
observations 30922
Vill@@ 30916
poésie 30907
ling 30906
acquis 30898
récomp@@ 30890
Football 30871
ple@@ 30857
illet 30852
Quatre 30841
aim@@ 30837
internationaux 30837
Danemark 30829
rage 30829
archi@@ 30825
rejo@@ 30824
décisi@@ 30820
recueil 30810
ab 30807
Cre@@ 30805
lancement 30804
Saison 30803
gren@@ 30792
zième 30782
37 30780
Ben 30780
brû@@ 30768
Jack 30763
orn@@ 30755
plante 30752
Rhin 30751
voc@@ 30749
document@@ 30744
laisser 30734
je@@ 30730
Mary 30724
Ferr@@ 30721
My@@ 30719
mul@@ 30717
Az@@ 30714
populaires 30702
noble 30694
matern@@ 30683
programm@@ 30683
Bat@@ 30678
Force 30668
Gro@@ 30668
extrémité 30666
Lac@@ 30656
PS 30656
ligue 30655
entales 30645
mené 30645
rapports 30645
entraîne 30637
ception 30631
Blo@@ 30625
journaux 30616
eu@@ 30610
champs 30607
bie 30606
sus 30604
sélectionné 30590
gamme 30586
bateau 30585
impéri@@ 30582
Hel@@ 30573
vain@@ 30571
représentent 30569
astr@@ 30564
exc@@ 30562
plant@@ 30557
disparition 30544
Camp@@ 30542
lement 30540
Ke@@ 30527
budget 30520
cylin@@ 30520
let@@ 30516
1917 30505
tiré 30502
institu@@ 30497
amélior@@ 30493
matériaux 30486
sculp@@ 30478
fie 30473
Tom 30456
Louise 30454
donnent 30429
Mul@@ 30426
micro@@ 30419
zo@@ 30419
Nice 30400
illée 30389
* 30387
1927 30386
unes 30384
engagé 30382
tile 30381
éph@@ 30377
onale 30370
électronique 30369
nomination 30355
huitième 30352
pensée 30341
nière 30325
75 30318
ow@@ 30318
revenir 30312
reprendre 30310
Aus@@ 30305
citoyens 30304
Laur@@ 30296
Eugène 30282
aï 30280
Ét@@ 30279
CN@@ 30267
stein 30264
zi 30253
B. 30252
pierres 30249
hypothèse 30248
conservateur 30247
convo@@ 30245
Internet 30237
sis 30236
yg@@ 30233
Grâce 30229
grecque 30229
times 30229
technologie 30224
versant 30224
attach@@ 30223
proposition 30208
sam@@ 30208
océan 30204
uil 30202
installations 30187
nécessaires 30187
endr@@ 30178
matr@@ 30173
mille 30173
tac@@ 30166
tourné 30166
sive 30159
deviendra 30154
visi@@ 30150
éat 30143
Uni@@ 30142
bur@@ 30142
interdit 30137
choisit 30132
sportif 30132
amo@@ 30125
Mou@@ 30124
démocrati@@ 30116
itz 30113
spectateurs 30113
Garonne 30112
réduire 30110
Bir@@ 30090
test@@ 30080
divisions 30070
canons 30066
Caroline 30051
ef@@ 30049
opéra 30046
milliers 30043
légende 30042
mur@@ 30042
guitare 30038
seraient 30038
fonc@@ 30033
ectifs 30028
Fi@@ 30003
mage 30000
risques 29990
inhum@@ 29984
Ari@@ 29983
Cu@@ 29977
Ca@@ 29974
contenu 29969
SS 29958
chercheurs 29958
office 29958
voi 29947
We@@ 29945
congrès 29945
supprim@@ 29944
informatique 29939
formule 29936
procur@@ 29934
Rio 29931
Gabriel 29922
catholiques 29917
mon 29916
relais 29904
Pacifique 29901
Dro@@ 29878
oi 29878
tableaux 29875
récemment 29858
da@@ 29857
jus@@ 29856
montrer 29853
52 29838
explor@@ 29835
ieux 29835
parts 29832
sir 29829
fices 29828
réput@@ 29825
Na@@ 29824
succession 29824
blan@@ 29821
réunion 29813
caractérise 29807
thèmes 29804
alliance 29795
autrefois 29795
sac 29785
minaire 29781
conquête 29776
animal 29763
cherche 29763
ctu@@ 29751
duo 29749
classiques 29747
aceae 29745
astique 29743
évèn@@ 29740
ôts 29734
coups 29720
menace 29718
produite 29718
quasi 29715
èques 29715
glob@@ 29704
av. 29697
Francis 29693
concentration 29689
pre 29686
uli@@ 29685
cavalerie 29677
ela 29672
parole 29667
symbole 29667
ary 29638
na@@ 29636
giques 29626
popular@@ 29625
remplacement 29619
ares 29614
imagin@@ 29614
monstr@@ 29614
princesse 29612
réus@@ 29601
évoque 29599
éclair@@ 29598
préparation 29585
sar@@ 29574
étapes 29566
1923 29565
1,@@ 29563
Black 29563
ost@@ 29541
pom@@ 29525
J.-C. 29511
intérêts 29511
Noël 29505
Olivier 29504
suppos@@ 29504
dessins 29487
annonc@@ 29484
blessé 29476
colonie 29470
électricité 29465
ense@@ 29462
brigade 29460
changer 29443
hameau 29443
ova 29440
Parc 29436
und 29434
successeur 29433
million 29413
48 29410
tus 29408
pic@@ 29400
pré 29399
étrang@@ 29397
accord@@ 29386
off 29382
tourisme 29371
responsabilité 29366
diffic@@ 29365
hol@@ 29364
ere 29353
disponibles 29347
finales 29345
oncé 29339
spatial 29330
baptis@@ 29323
ennemi 29322
Var@@ 29319
Int@@ 29316
compter 29311
seignement 29311
maintenir 29309
dieu 29302
ef 29302
tomb@@ 29299
Gérard 29288
Mich@@ 29287
cercle 29284
exerc@@ 29283
éenne 29283
Bil@@ 29271
grave 29271
Finalement 29256
Renaissance 29255
Bass@@ 29247
souhaite 29237
Mass@@ 29232
FF 29228
bot@@ 29228
Frank 29221
lem@@ 29217
Mark 29191
expositions 29184
sais 29182
bi 29180
VI 29179
venus 29173
alb@@ 29171
Bois 29161
affront@@ 29160
ref 29159
Christophe 29156
vues 29153
iche 29150
Cy@@ 29133
antaine 29133
formée 29116
Lib@@ 29105
néces@@ 29104
variations 29102
catégories 29099
primer 29096
mour@@ 29091
tun@@ 29089
traditionnelle 29086
dér@@ 29085
améli@@ 29084
veau 29079
lia 29077
participent 29072
jusque 29068
onnais 29068
Alsace 29063
RE@@ 29062
Dem@@ 29051
Mau@@ 29049
Syst@@ 29037
jazz 29033
russes 29031
55 29026
manifestations 29025
couvre 29014
sir@@ 29012
flan@@ 29007
baisse 29002
départements 29002
Galles 28999
magnitude 28999
itant 28979
Ali@@ 28969
URSS 28957
mol@@ 28951
cantons 28944
criti@@ 28939
télévis@@ 28936
souver@@ 28929
démar@@ 28925
Fondation 28914
encour@@ 28909
ômes 28905
suffis@@ 28890
Kat@@ 28889
toral 28889
limites 28887
vaut 28885
impact 28878
ky 28878
enté 28874
étu@@ 28870
by@@ 28864
qualifie 28861
sœurs 28861
Météo 28856
formations 28855
âtre 28855
drapeau 28852
comman@@ 28841
Ancien 28835
aut@@ 28834
gratu@@ 28827
vaisseau 28824
vigueur 28823
ten 28820
revenu 28816
engagement 28808
accueillir 28783
remon@@ 28772
changé 28766
fiant 28751
qualification 28751
coloni@@ 28747
go 28734
oti@@ 28733
commencent 28732
milliards 28729
Trav@@ 28725
objectifs 28721
république 28718
Land@@ 28711
Lar@@ 28708
Journal 28707
Jou@@ 28702
Emmanuel 28700
berg@@ 28699
chem@@ 28693
1913 28686
artifici@@ 28686
tex@@ 28686
Sab@@ 28679
atures 28671
of@@ 28656
remplac@@ 28645
uni 28637
bombard@@ 28636
renommée 28619
gagner 28614
65 28599
ett@@ 28597
inférieure 28593
montrent 28586
relève 28583
scénariste 28580
44 28576
embar@@ 28576
défen@@ 28573
remplace 28565
aches 28564
noblesse 28558
Dan@@ 28551
éma 28547
calendrier 28542
pou@@ 28542
mâle 28520
boî@@ 28518
Edward 28514
Mos@@ 28514
aujourd 28512
usion 28508
huile 28500
1905 28493
inverse 28487
conservation 28482
Hall 28481
tér@@ 28480
quali@@ 28472
oï@@ 28464
Ed@@ 28463
chinoise 28463
peau 28457
Luc@@ 28450
SA 28450
pages 28450
éra 28445
poissons 28442
caractéristique 28434
39 28432
anisme 28430
fournir 28430
Pour@@ 28428
recevoir 28427
men 28425
deven@@ 28424
let 28418
récu@@ 28415
gène 28411
Origine 28408
effectué 28393
limi@@ 28385
iner 28383
mauv@@ 28376
Émile 28376
Maur@@ 28375
orientation 28365
travailleurs 28363
historiens 28356
situ@@ 28349
Marguerite 28337
démol@@ 28327
Yves 28320
1911 28312
employé 28312
campagnes 28308
industrielle 28305
asser 28302
régul@@ 28273
quels 28272
centaines 28270
nation@@ 28264
appu@@ 28261
Résultats 28260
ck 28257
fixe 28254
nique 28239
fédérale 28225
chrétienne 28224
réglem@@ 28212
agée 28210
colon@@ 28205
propag@@ 28204
ko@@ 28203
standard 28202
plaine 28198
cession 28192
assassin@@ 28191
ik 28185
Star 28179
uls 28175
renom@@ 28167
mener 28155
tho@@ 28148
pilotes 28146
seaux 28138
choses 28135
dh@@ 28130
tax@@ 28121
bloc@@ 28120
entière 28116
céré@@ 28115
procé@@ 28115
lever 28114
Red 28101
Hab@@ 28098
traces 28097
Prince 28092
ap 28092
réussi 28082
empris@@ 28075
Cap 28074
transféré 28055
effectuer 28046
laissé 28040
C. 28028
portrait 28013
frag@@ 28011
Et@@ 28010
S&apos; 28009
femelle 28009
Jérusalem 28008
proposé 28007
empar@@ 27995
Fils 27981
Lord 27976
conférences 27975
Aujourd&apos; 27972
ailes 27970
plaçant 27970
meilleures 27962
quoi 27943
séjour 27942
nul 27938
semblent 27935
Munich 27934
enta 27932
emp@@ 27928
maç@@ 27928
partisans 27924
Pu@@ 27918
abor@@ 27918
aisons 27916
hal@@ 27916
dirig@@ 27905
Florence 27893
inscrits 27887
Pat@@ 27884
entretien 27882
í 27870
usse 27865
onal 27863
bases 27859
peuples 27856
foresti@@ 27854
ignon 27852
couvent 27850
bless@@ 27849
ical 27843
égyp@@ 27843
Nov@@ 27840
Germain 27833
étudié 27827
répand@@ 27826
évacu@@ 27821
pieds 27820
climatique 27816
leader 27815
rédaction 27814
clocher 27800
Gol@@ 27794
impres@@ 27790
Vau@@ 27787
banque 27784
yd@@ 27783
illés 27777
faculté 27776
lov@@ 27776
subit 27768
favorable 27767
portait 27767
pole 27764
tot@@ 27759
paroles 27758
relie 27745
banlieue 27719
noter 27702
chrétiens 27696
vins 27693
cien 27683
employés 27676
soins 27660
frapp@@ 27657
monte 27654
Long@@ 27638
affich@@ 27633
trol@@ 27633
longues 27628
éro 27628
prosp@@ 27627
6,@@ 27625
gardien 27624
suivie 27622
7,@@ 27620
mécanique 27620
Luc 27617
mathém@@ 27591
papier 27591
puisse 27586
neur@@ 27556
zo 27555
pétr@@ 27553
chor@@ 27545
accessible 27535
fe@@ 27529
annul@@ 27528
soutenu 27521
titude 27515
discipline 27514
consacre 27506
judiciaire 27493
vec@@ 27492
règle 27489
environs 27482
Company 27476
quarante 27475
Pin@@ 27474
Prague 27468
Gre@@ 27462
mauvais 27459
ologues 27453
lim@@ 27449
mér@@ 27447
ouvriers 27447
Autres 27445
défendre 27445
relief 27428
supplémentaires 27428
compagnies 27418
indépendante 27413
bandes 27401
min 27397
serie 27393
amen@@ 27392
esta 27387
mixte 27382
description 27371
danger@@ 27363
Bosnie 27362
sons 27362
écur@@ 27362
dimanche 27360
War@@ 27355
chiffre 27348
conscience 27344
iciens 27344
reté 27329
Lev@@ 27323
laï@@ 27322
Congo 27319
Dominique 27317
onymes 27317
vall@@ 27306
hétérogènes 27302
acide 27295
embr@@ 27290
portés 27275
Hil@@ 27271
Super@@ 27267
amie 27264
és@@ 27263
oli 27260
1908 27255
Julien 27255
ern@@ 27244
présentée 27244
violence 27242
myth@@ 27238
érité 27218
progr@@ 27206
blancs 27197
ash@@ 27186
érir 27185
mac@@ 27181
Scott 27180
41 27178
hél@@ 27165
affecté 27164
côtes 27160
qui@@ 27145
allemandes 27144
volumes 27143
Légion 27137
front@@ 27118
poursuivre 27118
repose 27115
descend@@ 27108
véri@@ 27102
possession 27101
réel 27098
habitat 27089
43 27083
fro@@ 27083
sélectionn@@ 27083
cite 27081
précisément 27081
bru@@ 27080
chargée 27079
édée 27068
Gl@@ 27065
exer@@ 27058
passent 27053
lers 27050
Dj@@ 27040
duché 27027
attendre 27015
principes 27015
écran 27011
util@@ 27010
Sic@@ 26998
oh@@ 26998
Gas@@ 26990
blo@@ 26986
heim 26983
tères 26980
appui 26955
Lis@@ 26951
hos@@ 26949
aventure 26939
boud@@ 26937
dées 26930
polé@@ 26930
cri@@ 26928
cli@@ 26927
King 26924
etti 26918
mass@@ 26917
célèbres 26893
O&apos; 26882
Den@@ 26869
tél@@ 26869
Sig@@ 26856
contemporaine 26854
pluviométrie 26853
ito 26849
personnalité 26849
détach@@ 26845
ich 26840
scolaire 26838
provoque 26831
urbain 26831
contrairement 26825
machine 26824
Jan@@ 26823
Iran 26822
inal 26821
document 26820
far@@ 26803
bach 26799
# 26789
hautes 26788
reti@@ 26787
Tak@@ 26786
particulière 26786
glaci@@ 26785
aga 26780
Cos@@ 26779
responsables 26774
juifs 26773
nat@@ 26773
Fe@@ 26768
débit 26759
relev@@ 26759
RA@@ 26755
Lan@@ 26747
user 26739
dict@@ 26728
montant 26727
vul@@ 26727
maîtrise 26723
confirm@@ 26712
municipales 26711
fruits 26707
stat@@ 26705
Person@@ 26701
francs 26697
mages 26694
poèmes 26694
Lim@@ 26691
rare 26688
traite 26683
Vend@@ 26681
eront 26667
Région 26660
jan 26652
reliant 26646
comprendre 26642
st 26639
destinée 26638
interrom@@ 26637
Open 26630
Pa@@ 26626
doubl@@ 26621
élue 26621
exerce 26618
âgé 26617
menac@@ 26614
plat@@ 26611
correspondent 26609
remporter 26607
Kal@@ 26602
machines 26601
vières 26600
four 26595
invité 26593
Fri@@ 26590
adolesc@@ 26588
anges 26566
Nu@@ 26565
contest@@ 26546
radic@@ 26545
Direction 26543
décrite 26542
Anna 26539
passagers 26538
Nom@@ 26523
mit@@ 26515
mélange 26504
glo@@ 26502
néerland@@ 26492
frontières 26489
Lab@@ 26485
utes 26481
vise 26480
ero 26470
Ra@@ 26458
.. 26455
calcul@@ 26452
ministres 26449
stratégie 26448
W 26445
suffrages 26445
électr@@ 26438
juridique 26429
aéri@@ 26424
Walter 26420
puits 26419
vint 26416
DVD 26415
moines 26414
dén@@ 26413
Roumanie 26410
tesse 26406
Bataille 26383
paraît 26383
isser 26381
réalisés 26369
Méditerranée 26368
consacrée 26367
mix@@ 26364
peint 26363
Arab@@ 26362
présidente 26355
orth@@ 26352
alp@@ 26344
pertes 26335
tori@@ 26332
meur@@ 26330
boulevard 26325
arables 26324
vapeur 26319
Karl 26318
del@@ 26311
parlement 26304
spir@@ 26300
Alger 26291
découpage 26285
cinquante 26284
ave 26279
accep@@ 26278
anciennement 26278
abrit@@ 26274
Situ@@ 26272
pyr@@ 26264
EP 26263
enqu@@ 26261
dégrad@@ 26259
personnelle 26258
trait 26256
laboratoire 26255
universités 26223
renouvel@@ 26220
soutenir 26220
Bâ@@ 26212
troph@@ 26209
Mer 26207
graphe 26201
organisme 26200
orique 26199
ute 26194
transformation 26190
vil@@ 26189
ourg 26184
Boston 26178
urba@@ 26178
quitté 26174
ele 26173
pis@@ 26163
RC 26161
\ 26158
affirm@@ 26150
Lig@@ 26142
photographie 26142
révolutionnaire 26140
duquel 26138
ivre 26136
Auc@@ 26129
outils 26125
Homme 26123
èges 26118
fondateurs 26116
contempor@@ 26105
successivement 26103
51 26093
efforts 26087
agents 26085
chantier 26084
variété 26084
ine@@ 26083
Fland@@ 26074
Street 26066
Rab@@ 26063
baptisé 26058
fera 26053
traversée 26048
ron@@ 26046
ussi@@ 26041
Basse 26038
illi@@ 26037
bilité 26034
Chev@@ 26031
baseball 26030
alien 26023
abol@@ 26021
Fa@@ 26020
ans@@ 26014
transmission 26010
avent@@ 25994
autoroute 25991
expér@@ 25990
compétences 25989
financement 25982
onds 25981
organiser 25976
ian 25973
illons 25966
Kam@@ 25965
enregistre 25965
ney 25964
lies 25962
marquis 25959
secret 25959
spéciale 25958
Nancy 25957
fondament@@ 25949
déterminer 25946
una 25937
rose 25930
fran@@ 25926
recher@@ 25923
ei 25917
ieu 25913
contre@@ 25907
libéral 25905
vestiges 25898
Chili 25891
théor@@ 25890
pauv@@ 25889
ius 25888
ok 25885
ament 25882
maréchal 25882
1906 25873
austr@@ 25872
ila 25870
1880 25868
comment 25862
Nar@@ 25860
Rev@@ 25852
ff 25847
dramatique 25843
propul@@ 25843
Tra@@ 25839
Présentation 25812
attribué 25811
érien 25802
tuer 25795
revenus 25786
spécialisée 25786
Hon@@ 25781
correc@@ 25777
conseils 25767
awa 25750
Ford 25749
Lav@@ 25749
lières 25745
continent 25742
regroupant 25741
œurs 25736
Rad@@ 25723
adr@@ 25721
che@@ 25720
attent@@ 25716
correspond@@ 25710
réputation 25710
47 25703
jardins 25693
battant 25689
desserv@@ 25682
oubli@@ 25682
crits 25680
aç@@ 25675
Jones 25670
asti@@ 25656
rouges 25654
liqu@@ 25648
alliés 25641
riches 25634
frais 25631
46 25628
Bos@@ 25628
ES@@ 25628
équival@@ 25626
fir@@ 25620
mairie 25620
ographe 25618
séri@@ 25618
way 25617
oyer 25614
défenseur 25607
Front 25606
recommand@@ 25606
introduction 25594
test 25593
recens@@ 25592
athlète 25591
Ci@@ 25589
chô@@ 25580
pouvaient 25579
tchèque 25579
augmenter 25578
Eur@@ 25577
sports 25573
terror@@ 25569
US@@ 25568
représenter 25560
ationn@@ 25555
publications 25551
confiance 25546
edi 25544
graphiques 25541
Cameroun 25532
1907 25530
coalition 25530
rappelle 25522
édon@@ 25521
retrait 25520
bilan 25518
cht@@ 25513
fouilles 25506
relati@@ 25504
morceaux 25498
rendent 25498
paysage 25489
mit 25486
férence 25485
ech@@ 25484
ui 25482
Contexte 25480
tienne 25476
intégré 25469
vivent 25467
Grenoble 25465
tonnes 25464
civil@@ 25463
20@@ 25462
énor@@ 25460
Red@@ 25459
ster 25454
funér@@ 25448
communau@@ 25444
seigneurie 25441
filiale 25439
étition 25437
aka 25433
intention 25422
tués 25422
fenêtres 25409
syst@@ 25406
largeur 25405
esthé@@ 25384
citer 25381
sim@@ 25381
aille 25380
obtenus 25377
han 25376
péninsule 25370
équivalent 25367
agres@@ 25364
plais@@ 25364
économ@@ 25362
recev@@ 25351
dition 25350
avantage 25342
ral@@ 25341
récompens@@ 25336
Rouen 25330
définiti@@ 25329
collectiv@@ 25328
vier 25328
uf 25325
placée 25311
caractères 25295
Lec@@ 25291
exil 25291
8,@@ 25290
cm 25284
évoluant 25278
Boul@@ 25276
german@@ 25272
préfet 25270
abandonné 25268
traj@@ 25265
ki@@ 25254
mm 25253
générales 25252
fréquemment 25240
instrument 25240
maladies 25239
Lie@@ 25233
exécutif 25212
nées 25212
marie 25210
destination 25209
poule 25209
franchise 25207
Sel@@ 25203
fant@@ 25202
latine 25202
fal@@ 25198
empêcher 25193
neu@@ 25192
Ceci 25184
répartis 25181
méda@@ 25180
autonomie 25178
collectif 25178
ung 25177
administrativement 25175
hie 25146
conséquences 25145
inger 25145
roues 25139
facilit@@ 25136
métropolit@@ 25131
Dau@@ 25121
jouent 25119
annu@@ 25111
appe 25109
limité 25109
institution 25103
Voir 25099
rection 25096
productions 25090
cre 25085
Ven@@ 25078
climatiques 25077
amitié 25072
cler@@ 25072
pôle 25068
Naples 25066
difficulté 25065
sév@@ 25065
prononciation 25056
Z 25049
alim@@ 25046
adj@@ 25044
débat 25035
sais@@ 25035
électriques 25032
que@@ 25029
blessés 25019
effectif 25017
bientôt 25011
ga 25008
organismes 25006
entraînement 25003
onom@@ 25002
canon 24988
Tunisie 24980
transfé@@ 24978
Bab@@ 24975
istre 24974
tic 24959
Anglais 24957
seigneurs 24957
Élections 24957
veur 24950
représentations 24947
vé 24947
provient 24943
domesti@@ 24940
wood 24937
influ@@ 24934
Y 24930
défini 24927
Victoria 24925
Ali 24924
èg@@ 24924
illant 24919
adapté 24918
bos@@ 24916
marié 24915
CO@@ 24914
49 24890
calc@@ 24890
nent 24889
dimension 24881
porta 24881
bac@@ 24880
pre@@ 24869
salari@@ 24867
commerciale 24859
homonymie 24852
confi@@ 24846
quer@@ 24846
approxim@@ 24844
PC 24838
financière 24838
Awards 24836
1904 24831
foi 24826
offensive 24824
treize 24820
sym@@ 24805
exclusivement 24803
Équipe 24803
tourner 24798
soleil 24795
trés@@ 24793
fili@@ 24792
myst@@ 24791
présentation 24791
Varsovie 24790
régi@@ 24789
formant 24786
sifs 24784
adopté 24783
1901 24775
usé 24760
1915 24755
ographies 24745
particip@@ 24743
stock@@ 24740
Manuel 24734
Rich@@ 24729
potenti@@ 24725
Tu@@ 24719
sculpture 24719
catégorisée 24713
secours 24710
Q 24708
eri 24707
Montpellier 24701
amm@@ 24700
Mand@@ 24695
ick@@ 24694
cu 24691
séparation 24690
saut 24687
découvrir 24684
médailles 24683
Blan@@ 24680
remp@@ 24679
décident 24677
rattachée 24669
dédiée 24668
révolte 24664
cinémat@@ 24663
red@@ 24656
clin@@ 24654
milli@@ 24646
hon@@ 24645
restr@@ 24639
pourquoi 24636
conséquent 24632
remarquable 24627
56 24623
54 24616
amateur 24612
mê@@ 24609
figures 24602
otes 24601
sk 24599
verre 24598
rab@@ 24596
nommés 24593
53 24591
clip 24591
trom@@ 24586
échapp@@ 24576
Contrairement 24575
Dol@@ 24572
Adam 24570
Williams 24567
Don 24565
Slov@@ 24565
cell@@ 24563
assistant 24561
végétation 24561
lav@@ 24551
mobilier 24551
délég@@ 24550
connex@@ 24543
aver@@ 24540
feu@@ 24540
franc 24540
1860 24535
forteresse 24535
lancée 24535
bénéficie 24523
ih@@ 24520
maximale 24507
partiellement 24503
afric@@ 24502
Aff@@ 24501
Salon 24495
atom@@ 24491
val 24491
Rouge 24481
1890 24466
sembl@@ 24465
andi 24461
ika 24459
commémor@@ 24452
vide 24448
forcer 24446
batterie 24442
voile 24440
Géorgie 24437
quel 24433
neveu 24431
simil@@ 24431
aph@@ 24428
Cav@@ 24427
toit 24424
œil 24424
ago@@ 24418
dizaine 24418
agir 24413
acces@@ 24384
exercice 24379
norm@@ 24377
Activ@@ 24376
composés 24373
expansion 24372
faux 24372
usi@@ 24371
citoy@@ 24366
Ferdinand 24363
colonnes 24361
inauguré 24360
paramètres 24352
goût 24347
Tours 24344
Composition 24343
remise 24342
dres 24340
èrement 24330
elier 24322
ener 24318
Man 24316
AR 24313
élevait 24311
oué 24295
maîtr@@ 24289
dil@@ 24286
Carlos 24271
ings 24270
attr@@ 24269
déclaration 24263
coureur 24262
Kor@@ 24257
Les@@ 24253
IN@@ 24249
les@@ 24248
concurrence 24247
poème 24242
P. 24239
ameaux 24239
employ@@ 24239
Auvergne 24229
Mis@@ 24224
comportent 24223
iné 24219
adversaire 24214
etta 24208
simples 24207
Même 24203
suprême 24201
dez 24193
appareils 24186
répondre 24184
ût 24182
1909 24171
ax 24171
édé 24170
éventu@@ 24170
acquisition 24168
parall@@ 24168
étages 24163
César 24158
Rap@@ 24156
fich@@ 24156
Pas 24154
suédois 24154
acle 24143
Metz 24136
jouant 24128
charges 24126
atus 24122
fur@@ 24121
Ka@@ 24120
estimée 24113
championne 24108
reb@@ 24102
compr@@ 24097
aér@@ 24093
réduction 24093
otr@@ 24086
domination 24085
étaire 24076
wa 24074
divisé 24072
faç@@ 24072
équipements 24071
communi@@ 24064
relative 24063
dies 24061
Plan@@ 24048
musicien 24046
Joe 24041
troubles 24034
proclam@@ 24033
Dam@@ 24032
roch@@ 24032
haus@@ 24031
Sir 24030
négociations 24030
orbitales 24026
participants 24023
spécifiques 24021
compren@@ 24019
ham 24017
pousse 24010
éry 24007
Ga@@ 24006
contribue 24003
confirme 23995
senti@@ 23994
Alexander 23993
spatiale 23991
prêt 23990
traditionnel 23984
62 23983
disques 23982
rédig@@ 23982
échapper 23976
adver@@ 23975
Tourn@@ 23968
accords 23961
Giovanni 23957
Toutes 23952
moindre 23950
alimentation 23948
structur@@ 23948
varie 23941
destin@@ 23940
vois@@ 23938
épis@@ 23938
Ot@@ 23934
musulmans 23929
périodes 23928
57 23927
strat@@ 23927
aki 23926
uns 23926
Gilles 23925
rique 23925
Ach@@ 23918
présentes 23915
AC@@ 23908
pharm@@ 23907
verg@@ 23906
annon@@ 23905
contemporain 23905
quin 23902
humaines 23897
cér@@ 23892
reconstruction 23888
conse@@ 23885
attaquant 23878
Society 23876
références 23876
remis 23875
Formule 23873
plate@@ 23871
concurr@@ 23864
pit@@ 23862
1916 23860
détec@@ 23860
gn@@ 23855
gares 23854
cités 23851
ado 23845
accél@@ 23837
colline 23826
Ori@@ 23824
traits 23824
ibl@@ 23818
san 23818
bataillon 23816
particular@@ 23816
dis 23814
minim@@ 23808
incorpor@@ 23798
XIII 23797
propor@@ 23796
arrêter 23793
uk@@ 23787
ende 23786
gor@@ 23769
nau@@ 23757
externes 23756
cum@@ 23754
Mak@@ 23752
observation 23752
S. 23749
72 23748
réélu 23746
Anti@@ 23740
Maj@@ 23736
endommag@@ 23731
communications 23727
ett 23723
apprentissage 23710
ovie 23703
ish@@ 23702
ever 23700
applications 23697
Versailles 23692
sculpteur 23690
sph@@ 23690
ceau 23684
conserver 23680
échecs 23680
tol@@ 23666
Banque 23662
installée 23661
Lem@@ 23659
achat 23659
anda 23654
épar@@ 23648
villa 23647
150 23646
cho 23646
décennies 23645
moul@@ 23645
Hans 23639
doul@@ 23639
Love 23634
défaites 23634
hi 23626
fen@@ 23617
lave 23614
métr@@ 23611
cules 23610
ua 23606
reux 23595
efficace 23594
définit 23576
clé 23574
devaient 23571
Sac@@ 23569
bord@@ 23566
fum@@ 23566
conces@@ 23564
Direc@@ 23554
espagn@@ 23554
op 23554
astron@@ 23549
aper@@ 23546
ids 23545
puissant 23545
Samuel 23540
cham@@ 23536
intervient 23536
affiche 23533
audi@@ 23533
rencontrent 23518
associée 23510
ech 23507
noirs 23506
trophes 23506
consist@@ 23504
récup@@ 23502
ories 23501
appartenait 23497
Tre@@ 23496
Ak@@ 23493
pop 23492
Parallèlement 23488
oxy@@ 23485
virus 23481
çu 23481
échanges 23479
rot@@ 23476
dimensions 23461
démission 23461
présentées 23460
touche 23457
import@@ 23456
sonne 23455
prévue 23454
chimie 23452
logique 23446
cesse 23438
Chapelle 23434
écol@@ 23433
1848 23429
oul@@ 23424
NBA 23422
araignées 23421
nécessité 23418
municipale 23416
Afin 23413
ota 23411
plat 23409
clair 23397
crime 23396
danger 23390
Gare 23388
fique 23383
laur@@ 23376
œur 23374
Pér@@ 23368
morceau 23367
convention 23366
natale 23362
Capit@@ 23347
héritier 23345
urgie 23343
Mit@@ 23341
magné@@ 23338
métier 23338
ennemis 23337
concl@@ 23334
ecclési@@ 23333
accéder 23327
Sen@@ 23326
anne 23320
Ing@@ 23311
èlement 23308
penser 23297
accompagne 23294
Carl 23292
différent 23290
acier 23286
tige 23282
norvé@@ 23280
raf@@ 23277
bis@@ 23274
expériences 23270
souverain 23270
existent 23266
rédu@@ 23258
bol@@ 23248
ateliers 23244
lés 23243
mam@@ 23236
meurtre 23235
On@@ 23234
carbur@@ 23231
spiritu@@ 23231
civils 23229
abe 23228
biais 23227
ny@@ 23227
électorale 23224
Rennes 23223
signature 23222
Tal@@ 23220
pê@@ 23212
Floride 23209
réunit 23208
Adri@@ 23205
culaire 23203
ismes 23203
3,@@ 23201
oy 23201
Lin@@ 23192
modé@@ 23192
fournit 23178
58 23176
approuv@@ 23175
possèdent 23175
imposer 23173
fun@@ 23172
conflits 23165
estre 23165
SP@@ 23162
tées 23158
batt@@ 23155
inond@@ 23155
dues 23146
Saxe 23144
Tam@@ 23144
fermeture 23139
ives 23138
secteurs 23136
environn@@ 23131
Vel@@ 23129
alisées 23120
diplômé 23117
adresse 23115
yle 23113
queue 23111
iro 23109
issante 23107
soirée 23106
bons 23105
comédi@@ 23101
inqui@@ 23094
Johnson 23090
Cham@@ 23089
surveillance 23087
développée 23084
fréquente 23081
Ty@@ 23076
rog@@ 23076
albédo 23073
Jos@@ 23066
adis 23056
prénom 23055
Lac 23051
tend 23051
extrêmement 23045
retrouvent 23044
eurent 23041
théâ@@ 23033
terrestre 23028
pèler@@ 23027
erne 23022
Communes 23021
Syrie 23012
uctures 22997
Rob@@ 22996
journalistes 22994
Très 22980
bateaux 22969
1902 22968
signifiant 22963
post 22957
ouvr@@ 22956
IE@@ 22953
solaire 22952
faites 22948
reçut 22937
respec@@ 22934
Toronto 22930
ambassadeur 22928
familiale 22927
dent 22924
Kon@@ 22922
contraint 22922
portugais 22921
raient 22919
Jam@@ 22917
çoit 22908
ingen 22903
candid@@ 22899
isations 22897
Fou@@ 22896
FA 22895
ock 22893
seize 22893
junior 22887
RS 22876
histori@@ 22874
traités 22868
Guy@@ 22865
commerciales 22860
cousin 22853
Oise 22847
démo@@ 22842
spec@@ 22841
voisins 22840
omorphes 22838
yst@@ 22832
Fab@@ 22831
sid@@ 22824
écart 22820
ill 22814
manifest@@ 22810
évêques 22808
immédi@@ 22802
ukrain@@ 22800
facteurs 22797
enfu@@ 22793
quier 22792
1830 22782
ulu 22780
aissant 22777
Jan 22761
indig@@ 22759
tribue 22759
erreur 22758
quelles 22757
sul@@ 22756
relé@@ 22744
matur@@ 22741
mée 22739
lun@@ 22736
mo 22736
éroï@@ 22736
coéqui@@ 22735
uter 22734
couche 22723
ancé 22722
bau@@ 22716
classés 22713
Ontario 22710
Amsterdam 22708
R. 22708
camps 22707
anniversaire 22703
Aix 22701
africaine 22696
monter 22695
pili@@ 22688
urbanisées 22687
oll@@ 22673
attaché 22671
soumis 22670
annes 22668
itr@@ 22665
ilienne 22664
rapporte 22664
resté 22663
orgue 22660
L. 22659
VII 22658
63 22657
procédure 22655
inj@@ 22646
méridi@@ 22645
Pen@@ 22641
avenir 22641
paroissi@@ 22637
suffisamment 22636
démissi@@ 22633
retire 22633
Racing 22628
ū@@ 22626
Pot@@ 22624
sortant 22624
cible 22621
époux 22610
insectes 22609
champ@@ 22606
Collège 22601
carbone 22591
méditerran@@ 22589
Cot@@ 22585
monnaie 22585
tournant 22581
hongrois 22574
intégrer 22574
Brown 22573
1903 22572
républicain 22567
satis@@ 22565
abl@@ 22562
tern@@ 22556
Gil@@ 22554
renforc@@ 22547
libres 22531
cuisine 22528
gaz@@ 22528
bureaux 22527
igné 22524
Vit@@ 22523
égale 22522
non@@ 22516
Pres@@ 22513
consul@@ 22508
seau 22507
enterré 22502
Sin@@ 22501
tracé 22499
atri@@ 22498
culturelles 22496
commissaire 22490
visage 22489
Barr@@ 22487
Él@@ 22478
Rh@@ 22475
inclut 22472
onnées 22470
examen 22464
Mu@@ 22463
soulig@@ 22459
env@@ 22457
esclaves 22457
continuer 22456
pes@@ 22455
Ensuite 22452
territoriale 22451
Alliance 22432
onction 22432
ections 22428
soixante 22427
Athènes 22426
paysages 22424
niers 22423
All 22422
Ernest 22420
théologie 22419
annuel 22418
resp@@ 22410
provisoire 22408
clients 22406
marchés 22406
mes@@ 22404
abandonne 22400
Hill 22396
manif@@ 22392
Palmarès 22385
Arn@@ 22382
Eng@@ 22381
recours 22380
adultes 22372
Jac@@ 22369
considérés 22365
sénateur 22365
onaux 22364
Kong 22361
procédé 22361
nie 22359
institut 22356
dirigeant 22355
UA 22352
sainte 22350
troupe 22348
Mouvement 22345
Soleil 22345
calculer 22345
95 22343
aig@@ 22341
excell@@ 22339
Cant@@ 22334
acher 22334
anime 22333
universitaires 22333
59 22328
DC 22324
Britanniques 22323
phonie 22321
capital 22317
len@@ 22316
érienne 22315
aquie 22313
jette 22308
portail 22304
rythme 22304
salon 22304
refl@@ 22303
contribué 22290
Fac@@ 22289
augmente 22287
ponts 22287
protec@@ 22282
Dum@@ 22277
bus@@ 22271
charbon 22271
sent@@ 22271
cancer 22266
Félix 22264
Défense 22259
rarement 22255
respect 22252
répond 22249
gue 22248
Temple 22247
ouge 22239
music@@ 22238
Guinée 22237
histoires 22233
galaxies 22232
maillot 22232
occuper 22231
ist 22229
paro@@ 22225
nuclé@@ 22221
Cup 22216
gies 22209
Cass@@ 22205
67 22196
Sy@@ 22195
jury 22195
appell@@ 22188
group@@ 22185
saient 22182
omé@@ 22181
différente 22177
Éducation 22173
mobile 22171
connaissances 22169
longs 22169
Nic@@ 22164
trag@@ 22163
Bill 22160
travaillent 22160
israéli@@ 22150
demander 22149
guitariste 22149
ilique 22148
visiteurs 22146
Déc@@ 22144
Kir@@ 22143
ué 22141
sives 22137
ress@@ 22132
télescope 22132
bact@@ 22130
gri@@ 22123
servant 22120
Gren@@ 22119
Jackson 22119
dynamique 22117
logiciel 22108
minimum 22105
aly@@ 22100
pous@@ 22093
nourriture 22092
68 22090
hectares 22088
vieille 22081
Sem@@ 22071
Harry 22070
White 22069
ématiques 22067
Ard@@ 22066
Mars 22065
Chris 22064
tch@@ 22063
rétab@@ 22061
Résumé 22054
commença 22054
Hir@@ 22051
rupture 22048
colonies 22044
renouv@@ 22039
vingtaine 22039
métalli@@ 22034
kar@@ 22031
Kan@@ 22030
tint 22021
expose 22019
osa 22019
capacités 22018
étudiant 22014
Aub@@ 22011
monté 22010
cass@@ 22005
pourraient 22005
vanie 22004
web 22004
hen@@ 22000
opérationn@@ 21999
poursuite 21996
archipel 21993
tap@@ 21993
intéresse 21991
spécial 21985
atten@@ 21980
Antiquité 21972
blessure 21972
gard@@ 21972
minér@@ 21971
rétr@@ 21968
tivité 21968
constructions 21962
agré@@ 21960
Dal@@ 21959
Oc@@ 21955
ington 21946
financier 21943
molé@@ 21943
nies 21940
bin 21937
fréquence 21932
yn 21924
lanceur 21923
zaine 21922
cru@@ 21916
équilibre 21914
arrivent 21910
admir@@ 21907
Convention 21905
E. 21887
din@@ 21886
afflu@@ 21876
arabes 21876
vocation 21876
Blanc 21874
plage 21861
centaine 21859
académie 21856
AN@@ 21855
tention 21851
Navy 21848
lan 21848
mentionné 21844
dial@@ 21841
collabore 21838
fermé 21838
gothique 21835
mées 21833
ouvrent 21832
restes 21832
voisine 21827
vendus 21824
Jus@@ 21810
Bavière 21807
omb 21806
Nous 21805
Cel@@ 21802
sag@@ 21801
Hôtel 21800
motifs 21798
libéré 21792
Chan@@ 21789
Not@@ 21789
érance 21786
Bruno 21783
préci@@ 21783
Son@@ 21782
dispositif 21782
départementales 21778
ese 21778
retrouvé 21775
vention 21774
repos@@ 21771
établ@@ 21770
PS@@ 21768
ć 21765
moi 21764
Fil@@ 21763
bloc 21763
attend@@ 21760
demandé 21756
acquiert 21743
obst@@ 21738
perspective 21735
73 21732
ę@@ 21732
onnaires 21728
Pier@@ 21726
critères 21725
voisin 21725
Reims 21717
Rose 21717
maintien 21717
neuvième 21717
achet@@ 21714
Tony 21712
itude 21708
lées 21707
Nationale 21700
uri 21696
communistes 21695
Sébastien 21688
ava 21687
Virginie 21678
agissait 21677
FI@@ 21676
exemples 21676
évid@@ 21662
arron@@ 21659
peintres 21658
ètres 21655
Bibliothèque 21653
House 21653
ë 21650
appuy@@ 21646
homosexu@@ 21646
potentiel 21642
cide 21639
Américains 21632
1er 21628
color@@ 21626
découvertes 21626
gris 21618
1793 21608
vidé@@ 21608
ith 21606
génie 21602
fisc@@ 21596
pren@@ 21595
Som@@ 21593
Constantinople 21589
quatorze 21585
66 21581
oud 21580
ics 21577
ignan 21577
blé 21569
rédacteur 21569
déplacement 21566
colonne 21564
confront@@ 21564
Flor@@ 21563
ffe 21563
verse 21560
Ul@@ 21558
traduc@@ 21558
Santé 21557
Prusse 21555
Field 21553
oto 21550
Corse 21547
inventaire 21542
manches 21541
encad@@ 21538
dénomination 21533
plaque 21531
podium 21531
sections 21531
vêtements 21531
chanc@@ 21528
branches 21523
sey 21523
associés 21519
apporte 21518
autorisation 21513
hou@@ 21511
efficacité 21509
écrivains 21509
Transports 21500
attaquer 21500
Début 21497
Accueil 21493
und@@ 21493
1898 21491
étendue 21483
Bot@@ 21478
aul@@ 21473
chimi@@ 21470
lon 21470
rentre 21470
Benoît 21469
nécessit@@ 21468
littéraires 21465
ingue 21462
ord 21462
accueilli 21460
possibles 21455
arité 21454
hosp@@ 21451
eo 21450
remportant 21449
Museum 21448
Saône 21445
espoir 21441
Pre@@ 21436
aspects 21436
Clermont 21431
tribu 21431
Chem@@ 21426
ec 21424
cardi@@ 21423
Hou@@ 21417
gagné 21414
inspec@@ 21410
optim@@ 21408
message 21400
Cau@@ 21397
Rock 21397
remplacée 21397
intégration 21396
ved@@ 21395
utile 21392
ester 21391
conflu@@ 21388
dépôt 21386
marques 21382
mourut 21382
diminution 21381
occ@@ 21377
disant 21376
1871 21374
maroc@@ 21374
stati@@ 21369
quai 21363
sauver 21355
Team 21350
prestigi@@ 21349
listes 21340
abr@@ 21339
Big 21335
Mike 21330
conduc@@ 21330
mexic@@ 21328
spécialisé 21319
intérieure 21314
secr@@ 21307
Bul@@ 21304
quarts 21292
Boh@@ 21284
confé@@ 21276
ogr@@ 21274
littéralement 21272
lire 21271
tons 21270
61 21267
hiér@@ 21266
itent 21265
prol@@ 21265
Én@@ 21261
âme 21261
Laval 21255
Lit@@ 21246
œufs 21245
résolution 21243
tam@@ 21241
ene 21240
tirs 21239
Maine 21236
You 21231
ash 21230
ums 21230
figurent 21226
veuve 21226
ergie 21225
cier 21216
voyages 21214
regard 21211
has@@ 21204
ann 21203
Sans 21202
Sport 21195
Lorsqu&apos; 21192
reconnue 21191
bonnes 21190
donna 21190
portées 21188
Young 21183
touch@@ 21183
èglement 21183
Envir@@ 21172
flexion 21169
sélections 21167
Roland 21161
ension 21161
Aquitaine 21159
Steve 21159
Vir@@ 21158
promouvoir 21155
degré 21153
fol@@ 21152
chaînes 21151
85 21147
payer 21147
maîtres 21145
nien 21143
Rue 21141
D. 21140
Lau@@ 21139
Canal 21138
tiles 21137
lines 21127
Buc@@ 21125
professionn@@ 21124
od 21121
cription 21119
admis 21118
rh@@ 21108
christi@@ 21105
Production 21101
ee 21099
Chez 21095
One 21093
alent@@ 21090
couver@@ 21089
hebdomadaire 21089
africain 21083
nobles 21082
océ@@ 21082
constructeur 21078
dy 21077
tension 21076
égard 21072
québécois 21070
Bell@@ 21065
Vis@@ 21059
Tél@@ 21056
cyrillique 21056
Sports 21052
Europ@@ 21049
chaussée 21049
arrête 21042
1896 21040
précé@@ 21030
assassinat 21029
IX 21028
Cul@@ 21025
sanc@@ 21020
tut@@ 21016
més 21015
proces@@ 21014
ettement 21009
14,@@ 21008
représentée 21008
opposé 21005
faute 21003
entré 21000
wan 20995
sé 20989
amor@@ 20981
sélec@@ 20981
Fal@@ 20974
Log@@ 20974
synth@@ 20973
isit 20972
plas@@ 20970
Util@@ 20968
dédié 20968
Mans 20967
syl@@ 20960
esté 20958
doté 20955
èque 20955
naval 20950
seules 20950
génétique 20948
modifications 20946
endro@@ 20945
Diff@@ 20944
chen@@ 20944
ajouter 20936
Kur@@ 20935
sable 20935
Hong 20932
acad@@ 20929
ments 20928
infrar@@ 20925
pion@@ 20925
Calais 20924
irlandais 20917
ris@@ 20916
décou@@ 20915
réclam@@ 20907
lès 20906
Chau@@ 20901
justi@@ 20901
Top 20897
chasseurs 20896
commenc@@ 20894
fermée 20891
cen@@ 20888
fortune 20887
mensu@@ 20873
OS 20870
manche 20869
équipé 20869
autel 20864
Conn@@ 20861
retir@@ 20856
incluant 20853
marchandises 20852
réalisées 20849
guer@@ 20843
Acc@@ 20840
gués 20840
feuille 20839
manus@@ 20838
surnommé 20838
Jar@@ 20837
Pass@@ 20836
Bob 20834
forti@@ 20829
xième 20828
ordonne 20826
SA@@ 20823
rain 20818
Code 20815
correspondance 20812
impul@@ 20812
froid 20811
électeurs 20800
possédait 20795
dist@@ 20794
vus 20793
Bureau 20790
Livre 20783
magistr@@ 20782
signal@@ 20781
Étu@@ 20780
hauts 20779
alimentaire 20773
manuscrit 20769
diz@@ 20766
gau@@ 20763
gouvernement@@ 20760
Sk@@ 20757
path@@ 20754
déchets 20744
anglo 20739
australi@@ 20737
conventi@@ 20729
mets 20724
opinion 20722
supplémentaire 20721
Arg@@ 20717
ambass@@ 20716
parcour@@ 20710
1889 20709
olo 20705
house 20702
calcul 20701
iy@@ 20696
Bulgar@@ 20695
dri@@ 20690
moy@@ 20683
ip@@ 20682
atmosphère 20677
estation 20672
fiés 20670
CI@@ 20665
asin 20664
Chal@@ 20661
bats 20661
sanctuaire 20658
satellite 20658
supérieures 20652
sovi@@ 20651
Pro 20644
portraits 20643
léger 20639
privilégi@@ 20637
Lincoln 20635
ř@@ 20632
aviation 20628
Gou@@ 20627
physi@@ 20619
esque 20605
impression 20605
réduite 20604
Ier 20603
spect@@ 20602
spectacles 20602
naz@@ 20599
sexe 20598
amont 20596
destinés 20589
Cher@@ 20586
andes 20582
bain 20582
criv@@ 20576
pseudonyme 20576
sprint 20576
comptes 20572
Madeleine 20570
Charlotte 20562
basque 20553
facteur 20553
ignes 20553
Six 20552
Thierry 20550
urgence 20550
décoration 20548
super 20533
Fol@@ 20531
médecins 20531
dément 20527
culturels 20526
neutr@@ 20522
ruines 20522
verte 20522
impossible 20520
minist@@ 20519
ž@@ 20519
vill@@ 20510
philosophe 20505
Père 20504
ibles 20503
ilier 20497
notes 20489
athlétisme 20483
tissement 20482
inspiration 20480
rais@@ 20476
bourse 20473
iment@@ 20471
rez 20469
anique 20463
Ku@@ 20460
Ceux 20457
juri@@ 20456
çoivent 20455
affili@@ 20449
internet 20448
abandon 20440
Sand@@ 20439
retourner 20439
normes 20438
missionn@@ 20436
Fle@@ 20435
garanti@@ 20433
Johann 20430
Membre 20429
chien 20429
1895 20423
électoral 20423
liné@@ 20422
grotte 20416
9,@@ 20414
flot@@ 20409
doublé 20405
Eric 20404
Award 20400
liber@@ 20395
retirer 20395
âgée 20395
congr@@ 20392
Bonn@@ 20382
grandi@@ 20380
préserv@@ 20377
faus@@ 20367
carré 20366
AD@@ 20364
chiffres 20364
Nam@@ 20362
perdre 20361
cents 20360
onnage 20356
échan@@ 20349
clan 20345
ôle 20345
partenariat 20341
86 20340
Loi 20340
éton 20340
North 20339
éduc@@ 20336
partout 20334
Bag@@ 20332
Bak@@ 20330
élector@@ 20330
wall@@ 20329
inclus 20326
rières 20325
Roc@@ 20322
gouver@@ 20316
suscep@@ 20309
probable 20306
circons@@ 20302
Pascal 20300
voulait 20299
fêtes 20298
guér@@ 20291
alla 20286
ignée 20283
restaurant 20281
{ 20281
réfugiés 20277
IC@@ 20274
aval 20274
grec@@ 20272
han@@ 20271
archie 20269
└ 20266
subi 20262
gée 20259
1850 20256
orial 20251
Élisabeth 20249
ensi@@ 20240
prieur@@ 20240
fas@@ 20238
estr@@ 20236
Bern@@ 20230
encadr@@ 20229
prest@@ 20223
lon@@ 20218
tère 20217
statistiques 20211
án 20209
Deuxième 20206
tiens 20206
particuliers 20205
× 20205
réser@@ 20204
Chap@@ 20201
visibles 20200
décor 20198
Da@@ 20194
$ 20190
ters 20187
ras 20185
SNCF 20182
Ble@@ 20180
ury 20180
aya 20178
tribus 20178
héritage 20177
eville 20174
pauvres 20163
âg@@ 20161
77 20159
assé 20153
fres@@ 20151
top 20150
vidence 20149
Deb@@ 20141
fis@@ 20140
Classement 20136
bar 20132
instruction 20130
navig@@ 20130
fuite 20128
All@@ 20125
anais 20125
occidental 20124
alé@@ 20117
émig@@ 20110
mél@@ 20108
Diego 20103
bén@@ 20102
loge 20102
prison@@ 20101
Développ@@ 20093
Miss 20089
progrès 20086
diplô@@ 20082
amour@@ 20079
cous@@ 20076
détruite 20066
environnement@@ 20065
construites 20064
nières 20059
Châte@@ 20053
accusé 20053
chimique 20048
ionn@@ 20044
Cinq 20042
Post@@ 20041
quette 20038
midi 20029
Off@@ 20027
H. 20024
Herzégovine 20016
commencer 20015
vitr@@ 20015
Route 20011
crivant 20008
occupée 20007
1885 20005
1899 20004
Mario 19995
Cab@@ 19994
conform@@ 19994
support 19991
600 19988
Pétersbourg 19986
garçon 19972
arque 19968
ryth@@ 19962
tox@@ 19955
traditions 19953
stratégique 19948
erte 19939
ung@@ 19937
photograp@@ 19936
tois 19929
tari@@ 19924
galaxie 19920
74 19919
camp@@ 19919
variable 19918
illi 19916
Garde 19915
chante 19915
Sophie 19909
ON@@ 19902
chrom@@ 19902
solutions 19889
technologies 19878
Group 19877
états 19873
expérim@@ 19872
agon@@ 19868
Isabelle 19863
Island 19863
pos 19845
Sul@@ 19844
complexes 19838
riers 19836
importe 19829
islamique 19826
oa 19818
optique 19815
Kol@@ 19807
elin 19806
Benjamin 19805
Eff@@ 19797
pier 19796
Conservatoire 19784
identifi@@ 19766
immeuble 19765
reç@@ 19760
lerie 19758
Gré@@ 19754
studios 19750
ïd@@ 19742
fem@@ 19741
ennie 19740
Petite 19731
88 19728
Pri@@ 19726
Blanche 19725
foss@@ 19720
Rivière 19717
Alexand@@ 19716
lu 19716
entaux 19710
800 19709
primiti@@ 19709
gâ@@ 19705
sensibil@@ 19705
fra@@ 19702
distinction 19699
future 19691
zy@@ 19689
juif 19685
89 19684
1893 19682
illustre 19681
café 19673
sky 19672
“ 19668
Tol@@ 19666
matches 19666
dra@@ 19660
sessions 19659
1897 19649
num@@ 19643
morph@@ 19638
Parcours 19635
Hay@@ 19633
71 19625
enter@@ 19623
err@@ 19619
we@@ 19614
tibles 19612
AM@@ 19610
Té@@ 19610
dier 19608
Quant 19607
Elizabeth 19605
Libération 19600
Pérou 19600
Center 19599
continental 19597
ples 19597
MA 19584
èvres 19576
incap@@ 19574
kilom@@ 19571
G. 19567
astronom@@ 19567
privil@@ 19567
ska 19563
chance 19562
Ret@@ 19561
otique 19556
auto 19543
phénom@@ 19535
diver@@ 19531
join@@ 19529
aristoc@@ 19523
Friedrich 19522
tenues 19515
aug@@ 19511
metal 19502
urn@@ 19502
graph@@ 19493
Cri@@ 19487
13,@@ 19486
aum@@ 19478
expres@@ 19478
fins 19463
lule 19459
minute 19459
tail 19459
idi@@ 19454
Brest 19449
investi@@ 19442
Hamilton 19439
Carlo 19431
extra@@ 19430
chrétien 19428
migr@@ 19421
int 19420
bo 19419
stric@@ 19417
Pav@@ 19415
fasc@@ 19415
armé@@ 19393
navigation 19387
Alice 19379
eti@@ 19377
chers 19374
pand@@ 19374
isième 19365
PC@@ 19364
descendants 19364
DA 19359
pli@@ 19355
amoureux 19344
Anvers 19341
approv@@ 19339
fontaine 19335
incendi@@ 19331
abil@@ 19322
dém@@ 19321
emble 19321
diagnos@@ 19319
rates 19319
ignement 19315
brun 19310
Ministère 19308
soi 19308
Tem@@ 19291
69 19288
chée 19288
Centr@@ 19287
Luis 19282
set 19281
nit@@ 19274
eng 19273
indis@@ 19270
solide 19269
A.@@ 19268
DE@@ 19267
instaur@@ 19256
dé 19254
yp@@ 19250
Hitler 19245
gi 19231
ple 19230
adul@@ 19226
tia 19225
ack 19223
thiop@@ 19222
Architecture 19221
virtu@@ 19221
anthro@@ 19217
ègue 19213
Office 19189
Docteur 19183
Gran@@ 19161
paci@@ 19161
entreti@@ 19160
courts 19159
Françoise 19152
Point 19144
ism@@ 19144
1867 19138
Tab@@ 19123
simultan@@ 19122
Hugo 19121
narr@@ 19115
flux 19106
Liv@@ 19096
concep@@ 19096
répon@@ 19091
92 19079
ón 19078
UN@@ 19076
divin@@ 19064
1790 19061
76 19058
Sciences 19056
ondes 19056
fabric@@ 19051
noi 19050
durable 19042
surprise 19040
bran@@ 19038
couverte 19036
ruption 19030
Place 19023
cess@@ 19020
tramway 19017
CS@@ 18998
AP@@ 18997
net@@ 18997
seu@@ 18995
amateurs 18982
Serge 18978
manifestation 18976
imoine 18966
écu@@ 18957
87 18954
banc@@ 18954
burg 18953
Chin@@ 18951
phases 18950
Survey 18947
pro 18946
Justice 18944
posséd@@ 18942
serp@@ 18942
Pau@@ 18941
93 18936
Pel@@ 18929
mad@@ 18927
deurs 18923
Moselle 18919
Riv@@ 18916
5,@@ 18907
78 18906
mini 18904
enl@@ 18903
vet 18899
MS 18891
ectif 18891
Formation 18886
alis 18881
tum@@ 18875
Gouvernement 18874
serves 18874
finances 18865
Bertrand 18862
Kou@@ 18859
Arch@@ 18855
Fern@@ 18851
incer@@ 18850
suppl@@ 18835
quar@@ 18828
SE@@ 18826
héri@@ 18825
Covid 18824
plate 18823
Dec@@ 18819
liqui@@ 18819
Irak 18811
can 18808
Cad@@ 18806
pilot@@ 18803
vertic@@ 18801
4,@@ 18800
ouille 18796
nison 18792
Nag@@ 18786
larg@@ 18784
amide 18782
Ry@@ 18780
essenti@@ 18777
” 18776
proc@@ 18771
patients 18763
pian@@ 18762
Corps 18754
deste 18754
rass@@ 18747
surve@@ 18746
81 18740
aran@@ 18728
essay@@ 18720
Pos@@ 18709
absor@@ 18707
Bus@@ 18689
universelle 18688
entreten@@ 18684
nov@@ 18682
Alphonse 18675
substitu@@ 18674
provenance 18671
lumin@@ 18668
Hen@@ 18660
grand@@ 18658
tests 18652
AT@@ 18651
marais 18650
tunnel 18644
oc 18639
Four@@ 18633
Illinois 18627
Roy 18625
server 18622
reau 18617
1892 18612
Dun@@ 18612
Sub@@ 18601
Mod@@ 18598
put@@ 18584
tan 18584
CA 18583
Lewis 18583
eli@@ 18583
mill@@ 18567
Wilson 18565
jo 18558
Sydney 18549
British 18541
constante 18539
oslav@@ 18538
photo 18537
din 18532
univers@@ 18531
inspire 18522
ud 18522
sbourg 18516
plain@@ 18515
11@@ 18511
vid@@ 18507
eto 18506
pav@@ 18501
till@@ 18488
Hum@@ 18485
84 18483
licenci@@ 18483
enberg 18479
83 18478
Bay 18473
initial 18466
édie 18465
XIV 18461
Chamb@@ 18456
onge 18456
artisti@@ 18455
gel@@ 18453
égal 18437
concili@@ 18436
tru@@ 18436
bien@@ 18434
Math@@ 18429
ander@@ 18425
bis 18425
1789 18418
well 18418
portation 18415
drome 18414
eures 18414
oma 18413
Gh@@ 18411
espo@@ 18401
dus 18400
romanti@@ 18397
Bran@@ 18393
militants 18388
ula 18385
los@@ 18384
itin@@ 18382
mentation 18374
aime 18373
Génér@@ 18370
Ric@@ 18368
aria 18367
iteur 18365
nombres 18364
ister@@ 18359
câ@@ 18357
èves 18356
1840 18353
profession 18352
Vén@@ 18342
Monaco 18341
God@@ 18340
hyper@@ 18329
oine 18327
frac@@ 18325
indien 18322
endum 18315
redi 18314
umin@@ 18314
ath 18311
Xavier 18302
1881 18294
Hauts 18281
tification 18275
orthodoxe 18257
Tan@@ 18253
issait 18250
municipal@@ 18250
issons 18246
crist@@ 18245
98 18240
issues 18235
Lausanne 18230
ST@@ 18230
opus 18230
sage 18230
Éditions 18229
option 18225
vague 18217
Roy@@ 18216
99 18203
laine 18199
occas@@ 18190
Princip@@ 18174
Martin@@ 18172
Loc@@ 18171
æ@@ 18169
poin@@ 18168
signal 18150
êne 18148
accalaur@@ 18147
Had@@ 18143
Lag@@ 18129
91 18126
IS@@ 18124
arbi@@ 18120
Pad@@ 18118
affa@@ 18118
élém@@ 18118
1876 18114
ity 18113
notables 18113
1878 18111
anus 18099
IC 18093
motif 18090
Canton 18089
Oxford 18083
biodi@@ 18076
ort 18072
izi@@ 18071
Times 18053
ory 18041
culmin@@ 18039
inn@@ 18037
Éric 18027
Alb@@ 18024
1894 18023
compilation 18023
Dav@@ 18015
chin@@ 18015
Gilbert 18014
enten@@ 18014
émique 18014
South 18013
èdent 18004
iture 18003
dans@@ 18002
Davis 17990
Prés@@ 17983
crit 17972
Concer@@ 17965
Général 17965
possé@@ 17962
stabil@@ 17957
rag@@ 17954
Agence 17949
ø@@ 17943
F1 17935
philosophi@@ 17935
F. 17933
simul@@ 17932
Opéra 17927
susp@@ 17927
onge@@ 17919
catalogue 17916
1886 17910
trib@@ 17905
onau@@ 17903
mang@@ 17888
permanente 17884
Ath@@ 17864
holotype 17862
olet 17853
reproduction 17844
Rav@@ 17842
Windows 17841
vera 17816
oton 17813
statues 17812
compositions 17807
cap 17805
Jersey 17803
CH@@ 17802
joint 17802
vais 17799
cadet 17794
logici@@ 17787
Renault 17782
eton 17781
W. 17778
mp@@ 17775
patron 17765
Ash@@ 17762
Alli@@ 17760
Champagne 17760
ader 17759
pavillon 17758
Clément 17748
Alex 17746
accent 17746
Research 17738
ator 17736
interrog@@ 17726
Hamb@@ 17720
adoption 17712
live 17712
iff@@ 17711
Mik@@ 17706
gan@@ 17696
tric@@ 17694
scand@@ 17692
étain 17690
gen 17682
kl@@ 17679
etto 17668
Améric@@ 17664
ométrie 17664
Hé@@ 17660
construc@@ 17657
London 17652
refuge 17651
soldat 17645
ayer 17643
sculptures 17643
In 17641
vents 17641
Voy@@ 17640
oun 17633
Championship 17630
attitude 17630
quelle 17630
hong@@ 17629
Live 17623
Philadel@@ 17621
partic@@ 17621
long@@ 17619
algorith@@ 17617
infrastr@@ 17604
subsist@@ 17604
morale 17599
Avignon 17597
ons@@ 17594
brill@@ 17591
tib@@ 17590
tillon 17590
ER@@ 17588
gne 17588
chet 17578
imb@@ 17577
orph@@ 17575
Beaux 17572
vou@@ 17572
bombar@@ 17571
São 17569
eck 17565
Vladimir 17564
ald 17559
District 17549
graves 17542
Explorer 17541
ectives 17534
Taylor 17533
ess 17530
ular@@ 17524
Fig@@ 17523
120 17520
maqu@@ 17520
79 17519
Porto 17517
Jacob 17511
enger 17510
roy 17505
UCI 17504
zan@@ 17491
CC@@ 17488
Tim@@ 17483
compatri@@ 17479
arbus@@ 17477
Blue 17469
Canadi@@ 17466
agan 17466
cus 17455
Kim 17447
Venezuela 17445
essence 17443
1888 17442
eva 17442
VIII 17439
vols 17438
rebel@@ 17437
Hydro@@ 17432
Cir@@ 17430
ption 17425
But@@ 17423
éten@@ 17421
250 17420
Lat@@ 17418
cau@@ 17407
kg 17407
ental 17406
kov 17406
éter 17405
ié 17403
districts 17401
adi 17396
tières 17396
Tran@@ 17395
1882 17389
espi@@ 17382
Kn@@ 17379
kov@@ 17378
imag@@ 17375
low 17372
96 17359
Real 17359
reliefs 17352
Hélène 17340
istan 17340
Turin 17339
RT@@ 17333
pir@@ 17325
parlem@@ 17323
sson 17320
1891 17316
créd@@ 17315
lob@@ 17315
talent 17313
trace 17303
Me 17302
eil 17301
Nan@@ 17298
enant 17295
ude 17291
Dre@@ 17286
Charente 17282
report@@ 17279
Gustave 17278
dol@@ 17266
merc@@ 17266
erre 17259
we 17258
uma 17249
Sw@@ 17247
Série 17243
Mess@@ 17233
Sho@@ 17233
vo 17232
design 17230
timents 17227
1884 17226
ignor@@ 17225
Moul@@ 17224
chaî@@ 17222
anz@@ 17221
ventions 17216
sex@@ 17212
preuves 17209
agement 17207
eure 17206
Long 17195
dévelop@@ 17187
Cité 17181
hr@@ 17179
Bes@@ 17176
ticul@@ 17172
agran@@ 17156
Gon@@ 17154
acles 17143
passion 17142
1000 17140
Aires 17136
ilde 17132
sentiment 17129
Ast@@ 17127
fini 17119
Bourbon 17117
Jérôme 17109
mono@@ 17108
pic 17108
Cuba 17107
explosion 17103
pris@@ 17102
éal 17102
Pod@@ 17095
Wat@@ 17090
ution 17088
Résist@@ 17087
Castil@@ 17086
Champ@@ 17084
rus@@ 17082
Porte 17078
contribution 17077
Donald 17076
avant@@ 17076
isons 17073
centrales 17069
osp@@ 17061
Green 17054
inom@@ 17054
aid@@ 17050
enz@@ 17040
University 17039
Š@@ 17035
Sing@@ 17034
undi 17034
manipul@@ 17027
Corn@@ 17023
invit@@ 17020
signi@@ 17019
Film 17017
Amiens 17015
Pennsyl@@ 17012
anth@@ 16995
apostol@@ 16994
dir 16994
Madame 16987
Phil@@ 16985
sexuelle 16985
dissolution 16983
Cannes 16980
agi@@ 16978
participant 16975
alle 16965
argent@@ 16959
orie 16957
Kas@@ 16954
Nav@@ 16951
radio@@ 16951
pontific@@ 16950
bit@@ 16944
Occident@@ 16941
Stephen 16941
Angers 16939
ît 16921
Oscar 16916
Franz 16914
Vallée 16907
lige 16906
Wol@@ 16901
Fiat 16893
Institute 16891
ă@@ 16890
ke@@ 16879
aste 16877
causes 16876
esclav@@ 16876
Vér@@ 16873
Che@@ 16865
motiv@@ 16860
implic@@ 16851
triques 16846
urie 16844
Britanni@@ 16839
Mohamed 16837
BBC 16836
Nam 16831
bal 16827
Occ@@ 16826
Emp@@ 16820
indu@@ 16817
ulent 16816
Dist@@ 16812
titr@@ 16805
oslov@@ 16802
Sénégal 16801
maj@@ 16799
Francesco 16790
Valence 16788
rural 16786
sap@@ 16784
1887 16773
ando 16758
cie 16754
Mart@@ 16751
nik 16744
kin@@ 16743
River 16742
II@@ 16739
hir 16738
Leg@@ 16734
icon@@ 16734
geois 16728
Ob@@ 16724
partement 16723
RI@@ 16718
rand@@ 16718
rance 16716
Orchestre 16711
aint 16703
Brian 16702
Pir@@ 16699
Gaulle 16695
† 16692
Gaston 16690
Tibet 16690
princip@@ 16680
Î@@ 16678
from@@ 16676
tables 16673
constru@@ 16671
Sz@@ 16654
Face 16652
Fem@@ 16650
Jim 16637
Orange 16629
météor@@ 16624
brut@@ 16623
monarchie 16619
psychi@@ 16611
Vall@@ 16610
curité 16604
Hollande 16602
brig@@ 16598
Wilhelm 16596
Indon@@ 16592
1875 16591
ish 16591
ombe 16590
aments 16587
anal@@ 16577
Concep@@ 16576
Augustin 16575
tropic@@ 16572
qualifier 16569
essor 16568
suspen@@ 16568
nage 16564
suppression 16562
mier 16561
Caen 16556
Profes@@ 16555
tz 16554
dame 16537
insur@@ 16533
coc@@ 16531
iki 16523
Pedro 16519
mel@@ 16513
cryp@@ 16510
gend@@ 16510
Andr@@ 16508
Wall@@ 16508
cra@@ 16508
gs 16506
ône 16506
modification 16502
éger 16501
Musique 16495
Ball@@ 16488
Villa 16485
Théod@@ 16480
My 16479
Wide 16479
psy@@ 16475
Brunswick 16461
FM 16458
êts 16453
Ki@@ 16452
Mort 16449
ept@@ 16445
protoc@@ 16444
sang@@ 16444
maine 16443
Chir@@ 16442
82 16441
effort 16440
variante 16439
onnet 16436
Bén@@ 16434
omte 16432
rate 16430
Territ@@ 16425
more 16425
prud@@ 16423
hypoth@@ 16419
icop@@ 16406
Nik@@ 16401
Vieux 16397
Gros@@ 16393
fans 16393
joints 16392
Prot@@ 16389
Sain@@ 16387
Ky@@ 16384
Andrew 16382
Océ@@ 16377
exécu@@ 16376
Ran@@ 16371
externe 16365
cend@@ 16364
musicales 16359
ariat 16355
baroque 16355
conv@@ 16348
1863 16345
Jane 16342
East 16340
doctrine 16334
Fontaine 16330
Ivan 16327
Sept 16319
apie 16318
Buenos 16315
97 16304
vais@@ 16304
parent 16300
berger 16297
inclu@@ 16297
Liber@@ 16291
ille@@ 16291
controver@@ 16282
carre@@ 16280
eant 16274
iments 16273
rey 16273
Dijon 16272
absol@@ 16270
1883 16264
Philippines 16257
Juli@@ 16252
passages 16247
Div@@ 16242
Lady 16236
registre 16235
coordin@@ 16233
réd@@ 16232
Infr@@ 16231
Mam@@ 16231
dal@@ 16231
Ober@@ 16229
Mach@@ 16228
ago 16226
1868 16225
Ohio 16221
inclin@@ 16221
Sarah 16218
Central 16212
ista 16210
tensions 16210
Alan 16203
nombr@@ 16203
vacc@@ 16200
Forces 16197
duch@@ 16190
niques 16189
tribun@@ 16188
oirs 16184
particu@@ 16183
inéd@@ 16173
fruit 16170
Douglas 16168
ATP 16165
rit 16161
Stéphane 16140
singles 16137
06 16136
usement 16132
réfugi@@ 16131
Anton@@ 16130
symb@@ 16125
ce@@ 16122
compag@@ 16122
01 16119
laiss@@ 16116
merie 16116
rotation 16114
agements 16112
amin@@ 16112
SN@@ 16111
cord@@ 16103
Mic@@ 16102
lis@@ 16102
Anci@@ 16096
yen 16091
eci 16089
1872 16084
révoluti@@ 16082
Anthony 16080
bic@@ 16078
alter@@ 16077
onnes 16074
Ville@@ 16072
suicide 16071
Commune 16068
Chel@@ 16066
violon@@ 16062
conversion 16057
isc@@ 16056
Brun@@ 16054
mif@@ 16047
94 16045
1815 16035
Manchester 16033
Tel@@ 16029
ope 16020
mar 16018
enrich@@ 16014
teuse 16013
Johnny 16006
comprom@@ 16003
å@@ 16002
Arc@@ 16000
Nou@@ 15996
puis@@ 15993
Max@@ 15992
Cast@@ 15988
habilit@@ 15985
ín 15983
berge 15981
asses 15980
idence 15976
umi@@ 15976
interview 15975
tante 15974
perc@@ 15969
Cambridge 15956
ś@@ 15946
Reich 15942
Bibli@@ 15939
Trin@@ 15939
deau 15938
Pil@@ 15924
ão 15924
athl@@ 15920
réuss@@ 15911
issance 15908
Hugues 15906
1877 15905
gag@@ 15899
masculine 15896
Costa 15895
handball 15894
venti@@ 15890
Kl@@ 15888
Lublin 15887
abri@@ 15887
provinci@@ 15887
Léopol@@ 15883
oui 15881
commen@@ 15879
Monte 15874
ast 15874
progression 15873
issements 15866
inté@@ 15864
Euro 15862
App@@ 15859
Orig@@ 15854
Esc@@ 15851
Bible 15846
1865 15843
pend@@ 15836
Lucien 15829
Premi@@ 15826
Lap@@ 15825
Département 15824
ocy@@ 15823
Nouv@@ 15818
orit@@ 15818
1861 15815
canadi@@ 15811
po 15807
appropri@@ 15802
immun@@ 15801
politi@@ 15799
immense 15797
Camille 15791
Thérèse 15788
Cru@@ 15786
enfer@@ 15782
inae 15776
IM@@ 15775
neux 15774
ili 15768
ä@@ 15768
ô 15767
Manche 15764
ski@@ 15764
Sib@@ 15761
rum@@ 15761
Vé@@ 15759
rad@@ 15753
libr@@ 15741
ster@@ 15741
Cath@@ 15737
Kab@@ 15735
ensembles 15730
satellites 15729
avoc@@ 15727
up 15727
yo 15724
plaç@@ 15720
session 15720
Bog@@ 15719
1873 15715
1864 15707
Sam 15707
Olympique 15704
attein@@ 15704
suspension 15703
Actu@@ 15702
modes 15699
Prin@@ 15685
AL@@ 15680
Sak@@ 15680
consol@@ 15679
Comte 15678
Seig@@ 15677
ben 15674
euil 15671
1874 15669
saire 15669
synagog@@ 15660
Entertainment 15658
gallo 15657
Cé@@ 15653
jud@@ 15643
mini@@ 15638
Kit@@ 15629
DJ 15625
name 15623
Series 15620
Tos@@ 15601
ú@@ 15595
consci@@ 15592
observe 15590
qualifications 15584
Toulon 15578
Liban 15574
hau@@ 15570
èce 15569
Cô@@ 15565
Zurich 15562
Burkina 15553
Agriculture 15548
campus 15548
assistance 15542
incident 15539
compéten@@ 15536
dates 15531
1879 15526
statisti@@ 15526
Sun@@ 15522
condi@@ 15522
suédo@@ 15522
Didier 15518
Om@@ 15515
ague 15515
Massachusetts 15513
ng@@ 15507
ho 15502
pist@@ 15500
dynam@@ 15496
CD@@ 15488
rectang@@ 15488
cali@@ 15482
Win@@ 15477
subs@@ 15477
1792 15471
unions 15470
mic@@ 15469
astre 15457
variantes 15457
HMS 15456
agricul@@ 15445
ared 15444
tain 15443
valor@@ 15439
instrum@@ 15438
Mun@@ 15434
fall@@ 15427
Seg@@ 15423
favorables 15423
ays 15419
confes@@ 15413
gion 15413
WISE 15402
Poitiers 15398
atori@@ 15398
pair 15386
pid@@ 15383
uc 15383
humor@@ 15382
ó 15379
Lake 15378
Faso 15371
révol@@ 15361
siles 15358
Wi@@ 15357
Nat@@ 15352
cost@@ 15352
perman@@ 15351
comprise 15348
Roch@@ 15333
assimil@@ 15324
Roche 15322
clar@@ 15321
Constantin 15316
èze 15315
Arizona 15314
1862 15309
istr@@ 15307
phys@@ 15301
Corporation 15299
îmes 15298
dur 15296
ric@@ 15296
corruption 15295
placer 15295
igues 15294
dige 15293
toman 15293
Mous@@ 15290
vainqu@@ 15281
fa 15277
Syn@@ 15274
coff@@ 15266
FF@@ 15258
accomp@@ 15255
fantas@@ 15254
accue@@ 15253
sens@@ 15252
RA 15248
comb@@ 15240
massacre 15240
gre@@ 15236
Boy@@ 15233
sum@@ 15232
Chron@@ 15227
chlor@@ 15221
adh@@ 15218
Alexis 15215
Louv@@ 15212
camar@@ 15210
nomin@@ 15203
pun@@ 15202
lor@@ 15200
intern@@ 15199
judici@@ 15185
any 15183
bs 15183
visu@@ 15180
ologne 15177
uts 15175
participa 15174
raine 15169
America 15165
irland@@ 15159
Abraham 15156
robe 15156
Belle 15154
Sup@@ 15152
influences 15151
micro 15151
GT 15149
tible 15148
crimes 15147
fron@@ 15147
permanent 15145
esser 15144
‘ 15138
Mill@@ 15127
phosph@@ 15127
intens@@ 15120
gram@@ 15114
âne 15113
nez 15112
1869 15100
amme 15094
1,5 15085
islature 15083
tenait 15075
Mér@@ 15074
Bad@@ 15067
vê@@ 15066
PA 15062
hip@@ 15060
Action 15055
Meuse 15055
1800 15043
clandest@@ 15038
Kevin 15036
ondre 15035
bill@@ 15034
Ig@@ 15031
She@@ 15028
ost 15019
Van@@ 15009
AM 14994
aveur 14983
rival@@ 14983
simpli@@ 14977
Lanc@@ 14968
circuits 14959
AP 14958
apparti@@ 14957
lements 14956
anien 14955
Somme 14953
dest@@ 14953
wi@@ 14953
symp@@ 14950
ake 14940
Hav@@ 14933
Sant@@ 14933
acul@@ 14930
astronomie 14925
Bra@@ 14924
AI@@ 14922
marqués 14922
ein 14920
Res@@ 14913
ken 14908
Khan 14907
Réunion 14889
not 14885
Mathieu 14883
Là 14878
onna 14868
acité 14858
12,@@ 14846
Recher@@ 14844
manga 14841
tor 14838
experts 14837
Cop@@ 14836
destroy@@ 14836
phrase 14831
Hollywood 14825
Fé@@ 14816
Earth 14815
Paulo 14813
S.@@ 14810
franc@@ 14810
visit@@ 14806
ciné@@ 14805
drain@@ 14798
gis@@ 14785
ADN 14784
gio 14784
08 14781
Leb@@ 14775
TA 14773
rette 14773
princes 14767
surfaces 14767
onal@@ 14763
Kom@@ 14758
• 14757
âte@@ 14753
tionné 14747
I. 14742
Wa@@ 14739
² 14739
descendant 14734
put 14733
Hi@@ 14732
Plan 14732
dut 14731
erre@@ 14731
Express 14726
das 14724
ape@@ 14714
gea 14711
saints 14709
Japon@@ 14700
Wood@@ 14700
Shi@@ 14697
1851 14696
Vig@@ 14694
.com 14689
organe 14685
Française 14680
tit@@ 14679
consul 14677
audience 14676
anga 14672
obligation 14671
DF 14667
diversi@@ 14664
rel 14664
plication 14662
extraordin@@ 14656
fri@@ 14656
innov@@ 14655
iti 14655
Brig@@ 14654
Din@@ 14654
ry@@ 14654
islam 14652
Aéro@@ 14651
styl@@ 14649
alphabet 14644
addi@@ 14637
No 14633
Lév@@ 14627
trio 14626
evi@@ 14625
stellation 14623
ino@@ 14619
org@@ 14611
Maxim@@ 14608
Soci@@ 14607
mortal@@ 14605
anticip@@ 14597
orientales 14595
tome 14592
state 14585
Duch@@ 14584
hier 14584
bier 14573
profil 14570
Claire 14569
distances 14567
09 14566
kan@@ 14564
va@@ 14563
sibles 14562
Las 14547
inus 14547
current 14542
Cit@@ 14541
Flam@@ 14533
Anderson 14531
guide 14519
chanti@@ 14515
Pyr@@ 14513
aro@@ 14511
Emper@@ 14504
bag@@ 14504
West@@ 14503
ombre 14500
Stan@@ 14496
15,@@ 14495
Ass@@ 14491
sister 14490
accueil@@ 14485
star 14484
High 14483
Tunis 14482
prototype 14481
Macédoine 14479
permit 14478
Wur@@ 14468
Noire 14464
Fau@@ 14463
ize 14457
rall@@ 14448
MC 14446
Fur@@ 14439
ONU 14439
immeub@@ 14433
territoriales 14433
sl@@ 14432
1801 14428
Hur@@ 14424
Azerba@@ 14423
Life 14412
Boulogne 14410
Franco 14409
nouv@@ 14409
ado@@ 14407
Entr@@ 14405
nu 14403
oriental 14402
Otto 14401
leau 14398
Limoges 14387
pain 14385
Lot@@ 14384
Pakistan 14384
accident@@ 14383
LIN@@ 14382
Eurovision 14381
Billboard 14379
shire 14372
Budapest 14369
1855 14364
Castel@@ 14361
tice 14358
bes@@ 14357
Occitanie 14355
Rot@@ 14355
Cher 14353
ö@@ 14351
observer 14348
NH 14347
onnaire 14346
Stanley 14340
borough 14336
ampe 14335
parach@@ 14335
yl 14335
ect 14333
perd@@ 14328
Met@@ 14327
Dic@@ 14325
Grec@@ 14324
Aragon 14323
è 14318
Revue 14317
Stockholm 14316
Camb@@ 14314
arbitr@@ 14311
Ferrari 14310
cé 14309
Tin@@ 14307
ulus 14304
Anjou 14302
tube 14301
Gra@@ 14300
Itali@@ 14297
québé@@ 14297
dien 14296
ken@@ 14292
Cologne 14286
Howard 14285
plic@@ 14285
Initi@@ 14284
dou 14283
ulté 14281
Academy 14279
municip@@ 14275
passes 14269
ebo@@ 14262
registr@@ 14261
Ray 14260
Maritime 14253
volution 14252
inscriptions 14251
T. 14249
1859 14246
terrestres 14246
11,@@ 14237
Giuseppe 14236
ective 14229
Province 14227
Missouri 14226
Vie@@ 14225
Lon@@ 14224
missiles 14223
Ép@@ 14223
sibl@@ 14222
portug@@ 14221
Star@@ 14206
1814 14205
Ivoire 14204
bom@@ 14197
ě@@ 14194
rév@@ 14191
pig@@ 14185
chants 14184
Pet@@ 14183
Statisti@@ 14182
intervenir 14180
iko 14176
ott@@ 14175
Bonaparte 14170
byzant@@ 14167
Puy 14156
juridi@@ 14154
Petr@@ 14153
sch 14141
Christine 14139
abb@@ 14135
agues 14133
Mid@@ 14131
Chab@@ 14124
perturb@@ 14122
Heinrich 14112
amas 14112
MP@@ 14099
Franche 14092
autobi@@ 14090
Tib@@ 14086
Fox 14084
patern@@ 14075
athlon 14074
règ@@ 14072
Carr@@ 14071
Ev@@ 14069
State 14060
assass@@ 14057
records 14054
stable 14054
asa 14053
the@@ 14053
Madagascar 14049
ourt 14045
horiz@@ 14042
Class@@ 14041
triple 14033
Équi@@ 14032
125 14029
Hubert 14029
intelligence 14029
SI@@ 14026
ust 14026
Coul@@ 14020
biologie 14019
jet@@ 14019
ographi@@ 14017
Rub@@ 14015
exact@@ 14014
Abb@@ 14003
affec@@ 14000
lys@@ 14000
10,@@ 13997
ion@@ 13997
Miami 13992
itan 13989
Isère 13980
radical 13980
DS 13978
examin@@ 13978
Big@@ 13975
old 13969
festivals 13965
enti 13956
nul@@ 13954
manie 13945
Aqu@@ 13941
} 13937
acha 13933
restitu@@ 13933
Baz@@ 13930
ason 13926
expul@@ 13923
Rugby 13918
prostitu@@ 13918
mant@@ 13917
taine 13915
fru@@ 13911
agers 13910
firmi@@ 13905
sensible 13893
onales 13892
lap@@ 13890
sympath@@ 13890
proven@@ 13888
Jard@@ 13883
ji@@ 13881
phin 13881
volcan@@ 13879
Proj@@ 13878
pollution 13877
fortifications 13876
Bon 13872
Tré@@ 13871
Indi@@ 13867
Sun 13862
mir 13860
Cord@@ 13858
effic@@ 13847
van@@ 13846
eines 13845
tille 13840
bec 13839
Belgrade 13837
Villeneuve 13837
Clar@@ 13832
Navarre 13829
Bains 13823
dec@@ 13818
Aud@@ 13815
mond 13812
Michigan 13805
lich@@ 13801
résult@@ 13799
pent@@ 13797
Bla@@ 13795
Berg@@ 13794
Midi 13794
ker@@ 13788
cord 13786
asp@@ 13776
feld 13774
Science 13766
mb@@ 13759
ignac 13753
fug@@ 13750
Laz@@ 13748
cérémon@@ 13747
02 13745
bel 13744
islam@@ 13742
instance 13740
jal@@ 13740
acous@@ 13739
extraction 13739
onia 13736
2,5 13733
Laf@@ 13732
Sorbonne 13731
Yam@@ 13725
1856 13721
Exposition 13716
Palestine 13716
bury 13716
Łódź 13714
Monsieur 13713
VI@@ 13712
échap@@ 13706
accompag@@ 13704
massi@@ 13703
Armand 13697
Bres@@ 13696
issi@@ 13692
Thor@@ 13691
Champion 13690
Sher@@ 13688
notori@@ 13680
invention 13669
Fro@@ 13664
aba 13662
adu@@ 13662
situations 13662
Loir 13657
chon 13655
chine 13654
dominic@@ 13654
1857 13652
Road 13649
pur 13648
Second 13642
unif@@ 13641
Chevalier 13640
mart@@ 13638
nh@@ 13638
Aï@@ 13629
case 13626
dominant 13623
05 13619
Romain 13614
aspir@@ 13610
any@@ 13604
Hautes 13599
zer@@ 13597
cade 13593
Gér@@ 13592
lio 13590
Lub@@ 13588
inette 13587
Tit@@ 13586
play 13585
paras@@ 13578
Rod@@ 13575
UEFA 13569
configuration 13565
fan@@ 13563
Nintendo 13559
kr@@ 13558
16@@ 13557
Jur@@ 13554
industries 13554
Colorado 13547
suspend@@ 13547
cles 13546
auxili@@ 13534
Gour@@ 13526
alogue 13522
1852 13521
client 13520
Rol@@ 13519
Besançon 13516
crit@@ 13513
itte 13513
nd@@ 13511
ū 13509
Coc@@ 13503
alternative 13499
Edmond 13494
Notes 13494
hip 13493
len 13492
Arc 13490
Columbia 13490
Vichy 13490
Dan 13485
hym@@ 13477
ater@@ 13476
oupe 13474
umi 13474
occident@@ 13469
notable 13468
Miguel 13464
ouver 13459
diam@@ 13457
ectiv@@ 13452
Whit@@ 13448
illo 13444
CF@@ 13443
Chac@@ 13439
fice 13436
Time 13434
Duc@@ 13430
Pop@@ 13430
amér@@ 13425
institut@@ 13420
m. 13420
montag@@ 13418
roc@@ 13418
07 13414
clusi@@ 13414
logo 13408
Kin@@ 13406
ologi@@ 13400
dale 13398
ben@@ 13396
aix 13395
nar@@ 13390
atu@@ 13389
Litu@@ 13388
zac 13387
présidenti@@ 13386
1846 13384
lage 13381
aissance 13376
motor@@ 13376
Dublin 13374
ku 13370
démoc@@ 13369
Plat@@ 13365
effectiv@@ 13365
triang@@ 13362
Ris@@ 13358
Astr@@ 13356
Lot 13355
adre 13350
if 13347
aa 13346
capture 13346
General 13344
pé 13344
armo@@ 13342
Vas@@ 13341
C.@@ 13339
Pie 13333
mel 13320
1854 13318
Naz@@ 13318
folkl@@ 13318
Allem@@ 13317
IS 13317
Tir@@ 13305
Wo@@ 13304
deb@@ 13297
inten@@ 13295
yon 13293
lie@@ 13289
location 13288
Vin@@ 13286
Viv@@ 13282
vass@@ 13282
controvers@@ 13279
respect@@ 13269
Us@@ 13268
ebr@@ 13268
Bruce 13266
Guil@@ 13264
ania 13259
cine 13256
dj@@ 13253
jon 13253
Bis@@ 13248
Ny@@ 13248
adron 13247
Marco 13245
composit@@ 13244
hin@@ 13242
versi@@ 13240
ycl@@ 13239
ango 13238
sci@@ 13234
terminus 13230
ologies 13228
indem@@ 13227
Bourg 13226
Adolphe 13222
deu@@ 13221
Beach 13217
week 13212
Sm@@ 13207
accumul@@ 13206
divorce 13205
Ne 13201
Socorro 13196
00 13190
Mali 13189
Ah@@ 13187
Jimmy 13186
aume 13186
Constru@@ 13185
1858 13176
Louvre 13172
poli@@ 13172
Vosges 13170
Cent 13164
Little 13164
1849 13154
ètement 13154
eron 13152
identification 13152
issa 13152
messe 13151
alphab@@ 13148
intense 13144
chim@@ 13135
ye@@ 13135
04 13134
V. 13129
pin 13129
entin 13123
ham@@ 13123
Ave@@ 13116
ij@@ 13112
Cél@@ 13110
cio 13107
Atlanta 13098
immigration 13098
compens@@ 13096
dium 13096
nay 13096
alit@@ 13093
Ma 13092
nati@@ 13088
Arist@@ 13079
nig@@ 13075
XVI 13072
ack@@ 13071
edi@@ 13070
Barbara 13065
altern@@ 13063
talents 13058
faces 13056
tif@@ 13056
It@@ 13051
trich@@ 13050
K. 13047
isis 13043
opo@@ 13040
Spir@@ 13039
iret 13037
Sanc@@ 13030
Golden 13029
bir@@ 13021
expuls@@ 13021
torat 13017
protagon@@ 13012
vi 13010
ider@@ 13009
Syl@@ 13008
s. 13005
oshi 13002
Gab@@ 12994
lante 12990
try 12990
D2 12988
Ostr@@ 12982
secre@@ 12982
valid@@ 12980
dispers@@ 12979
Lambert 12975
rat 12973
dirige@@ 12970
atte 12965
mémo@@ 12965
curr@@ 12963
fragments 12962
dialogue 12956
riz 12955
Game 12950
eth 12949
protestante 12945
déput@@ 12944
styles 12940
700 12937
Kiev 12936
Mili@@ 12933
Alban@@ 12930
Tarn 12922
acre 12911
tise 12911
nazis 12904
disciplines 12902
eus 12898
exploration 12894
inter 12894
chat 12889
eda 12888
Xi@@ 12881
dau@@ 12881
cinqu@@ 12874
bras@@ 12870
contacts 12870
ement@@ 12867
escence 12866
xi 12866
anna 12865
Gordon 12859
fications 12852
ting 12850
yo@@ 12849
ara@@ 12844
Ng@@ 12840
Pey@@ 12840
antic@@ 12838
oo 12838
nominations 12837
Bank 12830
Township 12830
udi 12824
zon 12821
noc@@ 12819
Dani@@ 12815
03 12813
Gaz@@ 12810
voirs 12810
contradic@@ 12809
var@@ 12806
zy 12805
ü@@ 12803
Charlie 12802
dominante 12797
stimul@@ 12790
Cla@@ 12787
Miller 12787
š 12787
ichi 12786
CO 12781
anarch@@ 12776
joint@@ 12774
Fres@@ 12770
And@@ 12759
alan 12753
Ant@@ 12752
Mac 12751
worth 12749
SO@@ 12740
ag 12734
Tw@@ 12732
sin 12728
North@@ 12726
NA 12725
cars 12723
della 12723
Ale@@ 12722
Dr 12722
plasti@@ 12719
rival 12718
00@@ 12716
aco 12715
Kansas 12714
width 12706
Gun@@ 12705
Li 12705
thr@@ 12705
efs 12704
Quentin 12701
confin@@ 12699
certain@@ 12694
NE@@ 12690
anat 12689
Ges@@ 12688
certific@@ 12686
Pau 12682
lors@@ 12679
Natura 12677
juni@@ 12677
Fernando 12669
Sat@@ 12666
Se 12665
axes 12658
Fili@@ 12655
Ler@@ 12654
Jonathan 12653
ow 12646
orum 12642
opportun@@ 12639
Ō@@ 12635
tri 12633
Mem@@ 12631
Show 12631
UE 12629
Yo@@ 12629
Crim@@ 12628
Mexico 12626
10.@@ 12623
auss@@ 12623
races 12622
possibil@@ 12619
Č@@ 12618
gymnas@@ 12615
impl@@ 12613
Boris 12612
meub@@ 12612
chiff@@ 12610
core 12610
Christopher 12608
victor@@ 12605
Poly@@ 12595
évê@@ 12592
ops 12591
etti@@ 12584
orange 12584
alumin@@ 12583
tes@@ 12577
Robin 12575
Bell 12573
Minnesota 12573
solidar@@ 12573
Ensemble 12569
topo@@ 12565
Pac@@ 12559
oro 12559
lai 12556
AT 12555
tira 12554
dote 12551
Suc@@ 12546
UNESCO 12545
coupl@@ 12539
Andrea 12534
Fond@@ 12531
dive 12528
Ji@@ 12527
ire@@ 12521
moments 12518
civiles 12512
1791 12506
1831 12505
ial 12503
Clo@@ 12500
isible 12496
15@@ 12488
onien 12488
iri 12487
Afghanistan 12483
motion 12482
Day 12480
moto 12478
Kaz@@ 12476
astrophe 12475
Aisne 12471
box@@ 12468
aute 12467
Fel@@ 12466
réqu@@ 12464
ouvent 12463
Havre 12462
24@@ 12457
ater 12457
ck@@ 12457
arbor@@ 12456
Ahmed 12451
ashi 12449
confusion 12448
ME@@ 12447
onymie 12447
Jura 12446
The@@ 12445
lag@@ 12445
icus 12442
Sir@@ 12436
Kos@@ 12435
Prim@@ 12435
Imp@@ 12434
Las@@ 12434
sibil@@ 12432
musulman@@ 12431
Isaac 12428
Lyc@@ 12428
Leipzig 12427
Apol@@ 12422
Andre@@ 12417
ą@@ 12417
vies 12411
uniforme 12408
individuelle 12407
Journ@@ 12402
auc@@ 12400
Services 12398
adres@@ 12397
zz@@ 12391
Dim@@ 12389
ony@@ 12388
sible 12384
pli 12376
iler 12369
3D 12365
seigneur@@ 12363
punk 12361
abs@@ 12352
geance 12342
Barth@@ 12340
Ton@@ 12335
Égl@@ 12335
ema 12333
uit 12323
pologie 12318
char 12317
1795 12316
Act 12316
Rel@@ 12315
Ernst 12313
Microsoft 12312
normal@@ 12303
Hot 12302
adel@@ 12302
corpor@@ 12298
ados 12296
NO@@ 12290
Prom@@ 12290
Han 12289
oz 12288
sec 12286
proph@@ 12278
persu@@ 12269
complex@@ 12259
oko 12259
Sylv@@ 12256
Hô@@ 12244
Ridge 12242
tenance 12241
María 12239
tz@@ 12238
Archives 12237
ôles 12236
Ves@@ 12229
1794 12225
gon@@ 12225
découver@@ 12217
facil@@ 12215
magazines 12213
Med@@ 12208
Vatican 12208
PE@@ 12207
1853 12204
Allen 12197
export@@ 12197
Garr@@ 12193
Johannes 12193
Clark 12192
1845 12189
Kennedy 12185
sultan 12183
entraîn@@ 12181
ns 12181
oke 12180
Santiago 12179
départem@@ 12179
ses@@ 12179
Morgan 12170
ido 12170
Fré@@ 12167
ace@@ 12166
exclu@@ 12165
tine 12160
Entre@@ 12158
Magazine 12158
palest@@ 12152
eni 12150
compil@@ 12147
Die 12135
ran 12134
€ 12131
oua 12130
Hau@@ 12128
lent@@ 12125
zu@@ 12124
Sap@@ 12123
py@@ 12122
provincial 12115
Type 12112
conjug@@ 12109
PL@@ 12101
uck 12096
oria 12092
Fos@@ 12090
UMP 12090
Mut@@ 12089
assa 12088
Wit@@ 12083
Herbert 12080
gir@@ 12078
inien 12073
mobili@@ 12073
spati@@ 12073
contamin@@ 12071
30@@ 12067
devi@@ 12067
méd@@ 12063
By@@ 12060
collective 12058
stone 12054
lara 12053
XI 12046
pi 12046
bud@@ 12043
Non 12033
septentr@@ 12028
Honor@@ 12026
habitats 12026
1837 12024
Ful@@ 12018
œuv@@ 12016
ović 12015
tubes 12015
Duc 12014
olo@@ 12011
rech@@ 12008
polit@@ 11995
entra 11988
gènes 11986
isi 11985
ott 11982
Eli@@ 11980
Gis@@ 11976
gest@@ 11975
territorial 11975
Nick 11974
rin 11972
Louisi@@ 11971
1812 11970
Tul@@ 11970
abus 11967
box 11966
massive 11961
sine 11961
MI@@ 11957
Alberto 11948
wald 11948
Coll@@ 11944
endi@@ 11941
patient 11941
owski 11936
auch@@ 11932
Bac@@ 11928
Extr@@ 11927
jan@@ 11924
110 11923
Studio 11923
Gri@@ 11922
Hip@@ 11917
bu 11914
entu@@ 11911
Roh@@ 11902
1847 11900
Billy 11897
Sén@@ 11895
AF@@ 11891
vor@@ 11891
Russell 11884
aler 11884
rans 11884
Mour@@ 11883
eller 11883
Ken@@ 11882
poche 11879
duction 11877
Pay@@ 11873
March@@ 11872
lera 11868
vesti@@ 11868
Nelson 11865
noctur@@ 11864
Helsinki 11859
Restaur@@ 11859
Margaret 11850
tica 11849
1832 11848
Grand@@ 11847
Philip 11846
Kil@@ 11843
ario 11843
Ain 11833
obiles 11832
Guer@@ 11831
Fu@@ 11829
amphibi@@ 11827
vre 11827
Stal@@ 11816
temples 11807
TV@@ 11794
Pit@@ 11790
cane 11788
xes 11788
lad@@ 11787
lux@@ 11785
An 11784
Sag@@ 11784
Nigeria 11781
án@@ 11781
pt 11779
Fred 11776
Syndic@@ 11775
autés 11773
Hermann 11771
Station 11770
Liverpool 11767
hist@@ 11767
relatives 11759
Eg@@ 11756
Internationale 11756
Janeiro 11756
trail@@ 11756
prolif@@ 11754
Lad@@ 11752
USA 11751
AG@@ 11743
pus 11728
mies 11726
Match 11725
Mission 11725
TER 11720
module 11720
Houston 11719
CE 11718
Raoul 11717
tril@@ 11717
grot@@ 11715
AF 11714
Google 11712
anatom@@ 11709
Magdalena 11705
apti@@ 11705
RD 11703
cha@@ 11696
chard 11696
Meg@@ 11694
Uruguay 11694
eils 11691
exclus@@ 11691
NASA 11687
atlan@@ 11685
quad@@ 11682
cle@@ 11672
outh 11671
atur@@ 11670
syndrome 11669
obus 11666
Stadium 11659
pollu@@ 11659
ric 11656
ris 11655
Rapha@@ 11652
Sl@@ 11648
Donn@@ 11646
Luci@@ 11638
Ten@@ 11638
libre@@ 11634
mers 11634
1836 11633
Shar@@ 11632
dédi@@ 11630
Fid@@ 11629
votes 11625
Ja@@ 11622
olles 11614
Julie 11612
japon@@ 11604
alternati@@ 11603
1833 11600
Ross 11598
RO@@ 11596
Eure 11593
solid@@ 11587
Web 11585
passi@@ 11574
Observat@@ 11573
Hat@@ 11572
uer@@ 11565
yal@@ 11565
Fut@@ 11561
éder 11557
authenti@@ 11555
jam@@ 11552
concepts 11548
Hun@@ 11546
iss 11545
Nikol@@ 11541
ć@@ 11541
1841 11538
Shanghai 11538
1835 11527
Ras@@ 11525
ambe 11525
Meil@@ 11521
terie 11517
Georg 11514
Sym@@ 11514
innovation 11513
Nak@@ 11501
oche 11501
Command@@ 11498
Gabri@@ 11496
Sad@@ 11496
équi@@ 11495
Protection 11494
itz@@ 11494
iga 11488
Gall@@ 11479
Masters 11479
Sto@@ 11479
avier 11473
tromp@@ 11470
Jer@@ 11469
positive 11467
quadr@@ 11466
tron 11465
Ryan 11461
atin 11461
Conse@@ 11460
pers@@ 11458
adier 11457
dre@@ 11452
bris 11450
ovo 11450
pard 11449
interven@@ 11445
Bob@@ 11443
Bowl 11441
ame@@ 11439
Len@@ 11433
Studios 11431
extinc@@ 11421
hétéro@@ 11421
mascul@@ 11418
sho@@ 11415
leg@@ 11414
opp@@ 11409
bomb@@ 11402
sax@@ 11402
aret 11401
Num@@ 11394
Bré@@ 11393
Bach@@ 11388
Vancouver 11388
Commun@@ 11387
bra 11382
amend@@ 11381
firme 11376
ass 11374
agog@@ 11372
Has@@ 11366
Bar 11361
Kel@@ 11360
Analyse 11357
mess@@ 11357
gas@@ 11356
osc@@ 11356
Andy 11355
Dordogne 11353
Gam@@ 11353
Reb@@ 11353
Zone 11348
estu@@ 11347
chen 11346
Roman 11335
pera 11335
responsabil@@ 11334
architectural 11333
Lov@@ 11330
TE@@ 11328
dam@@ 11326
invers@@ 11325
radar 11325
otypes 11323
Apple 11322
Ep@@ 11320
Salvador 11317
Fron@@ 11314
Bud@@ 11313
eh 11308
osse 11308
ks@@ 11307
Iz@@ 11306
manager 11304
Agn@@ 11297
tabl@@ 11295
Song 11292
Meur@@ 11287
Habitat 11285
ects 11285
eno 11283
Abr@@ 11282
confron@@ 11282
Ces@@ 11281
dose 11278
vette 11274
unt 11270
Lus@@ 11268
Zo@@ 11268
exhaus@@ 11267
autonom@@ 11264
ecti@@ 11259
1806 11257
éto@@ 11256
WWE 11254
ej@@ 11252
ambul@@ 11250
restaurants 11250
1842 11242
hell@@ 11242
Ther@@ 11238
monum@@ 11237
ahi 11235
conclusion 11234
Od@@ 11230
gro 11230
Chef 11229
chré@@ 11227
pon 11226
ew@@ 11222
unanim@@ 11221
1839 11219
Lach@@ 11216
discussions 11210
tal 11210
Lucas 11208
Main 11205
achi 11203
foc@@ 11200
Lun@@ 11199
yan@@ 11198
tropicales 11197
uta 11192
Bad 11189
Matt 11189
CC 11188
Chr@@ 11188
Jun@@ 11187
LO@@ 11187
Ludwig 11181
master 11177
bits 11176
tation 11170
drag@@ 11166
Tah@@ 11160
1843 11157
elot 11157
cache 11156
1834 11149
Troph@@ 11146
ouk 11141
oblast 11138
RN 11137
locomotives 11133
osph@@ 11133
provis@@ 11131
ning 11129
Near 11127
Black@@ 11126
Our@@ 11125
toires 11123
carri@@ 11121
dramatur@@ 11121
AO@@ 11116
CS 11116
Sard@@ 11110
moral 11110
Moore 11103
Dunk@@ 11102
Wor@@ 11102
dy@@ 11096
Jason 11094
arn 11091
etz 11091
ky@@ 11090
accompl@@ 11089
ław 11088
Harvard 11086
new 11086
anos 11083
cog@@ 11079
det@@ 11077
als@@ 11076
exemp@@ 11074
Olympi@@ 11072
R.@@ 11067
arti@@ 11061
lyc@@ 11059
nag@@ 11059
Agr@@ 11057
Sus@@ 11056
Temp@@ 11054
tariat 11054
Shin@@ 11053
Indre 11051
Mec@@ 11046
Fonds 11044
odes 11040
Hus@@ 11039
Sark@@ 11039
Tim 11039
Stone 11037
Blu@@ 11035
oun@@ 11034
Aug@@ 11029
recru@@ 11029
exempl@@ 11028
Comics 11026
subir 11024
Ze@@ 11020
Antil@@ 11017
23@@ 11016
disper@@ 11016
Galerie 11009
OTAN 11008
States 11006
Tech@@ 11006
ft 11002
1838 11000
ange@@ 10999
Mohammed 10996
sten@@ 10992
Seul 10991
irie 10991
Ibn 10990
Eu@@ 10984
Gironde 10984
Indien 10983
ston 10981
1844 10979
lot@@ 10979
Aig@@ 10970
conven@@ 10970
plur@@ 10969
bonus 10967
udi@@ 10965
Rochelle 10959
Zh@@ 10957
coin 10954
Jol@@ 10945
orn 10941
EC 10936
botan@@ 10936
Ron@@ 10934
ery 10933
jour@@ 10933
omni@@ 10931
Obj@@ 10920
persist@@ 10917
aus 10916
mans 10915
messages 10913
Walt 10911
ampli@@ 10908
intim@@ 10903
sati@@ 10898
tos 10893
Dave 10886
Nobel 10886
acts 10886
Europa 10885
fur 10885
Jupiter 10884
démis@@ 10882
orien 10875
fine 10868
fib@@ 10867
religions 10867
Bet@@ 10865
orthodo@@ 10864
copies 10850
AD 10849
Bah@@ 10849
intermédi@@ 10848
exéc@@ 10847
Rig@@ 10844
uves 10840
las@@ 10839
Berry 10838
occidentales 10837
dop@@ 10831
pneum@@ 10826
Go 10824
ix@@ 10824
Emma 10823
ocol@@ 10822
polis 10819
ka@@ 10815
perception 10814
amine 10812
eder@@ 10808
contributions 10798
amba 10797
nan 10797
anche 10790
Iv@@ 10788
Autom@@ 10787
ouse 10787
trophe 10787
Domin@@ 10784
Moh@@ 10783
Ottawa 10780
carto@@ 10780
alo 10775
alom 10771
imi@@ 10767
oth 10766
Grim@@ 10762
Mr 10761
GT@@ 10758
Ec@@ 10752
secré@@ 10752
uro 10751
ku@@ 10744
Vid@@ 10743
angél@@ 10739
angles 10738
my 10737
supervis@@ 10737
imes 10733
progres@@ 10732
XII 10723
1810 10722
wan@@ 10722
combus@@ 10719
conj@@ 10718
variation 10717
comics 10715
ries 10709
with 10708
corte 10695
défense@@ 10695
doc@@ 10689
Gos@@ 10688
destruc@@ 10688
Lind@@ 10687
Abo@@ 10685
Bec@@ 10683
Dres@@ 10683
agi 10679
eb 10670
nia 10670
Rangers 10669
Sed@@ 10669
tage 10668
dot 10664
suic@@ 10663
News 10662
échal 10661
Viol@@ 10660
fi 10658
exam@@ 10657
aillons 10656
Lour@@ 10655
Asteroid 10653
rent@@ 10649
Nicol@@ 10648
occu@@ 10641
ceaux 10634
cerc@@ 10629
eri@@ 10629
Scar@@ 10622
ustr@@ 10622
card 10616
PlayStation 10614
global 10613
igo 10610
manu@@ 10606
ams 10605
marx@@ 10605
show 10605
Kelly 10602
PI@@ 10602
egr@@ 10602
féré 10600
Asp@@ 10598
ñ@@ 10596
roqu@@ 10590
paqu@@ 10589
vement 10589
chas@@ 10586
polym@@ 10584
ig 10580
ort@@ 10580
Copenhague 10574
Co 10573
Gén@@ 10570
bay@@ 10570
lucr@@ 10570
sug@@ 10569
discussion 10567
nec@@ 10567
Tig@@ 10565
Publications 10564
Vor@@ 10564
cut 10560
olle 10555
Mercedes 10552
ui@@ 10546
Night 10543
terri@@ 10542
Franklin 10541
improvis@@ 10539
arios 10538
cami@@ 10536
Dipl@@ 10530
intellig@@ 10529
atmosph@@ 10528
sy 10527
16,@@ 10526
Appar@@ 10526
17@@ 10521
eter@@ 10521
oga 10521
borg 10518
yi 10516
divor@@ 10514
Panama 10513
Avenue 10512
Tribunal 10505
Grant 10504
longu@@ 10501
Melbourne 10496
Nur@@ 10491
bine 10486
130 10482
Mississippi 10482
Stuart 10477
poli 10473
Challenge 10472
dera 10470
row 10470
nac 10469
Lom@@ 10468
nin 10468
console 10466
NFL 10461
Structure 10459
Nath@@ 10457
tribut@@ 10457
Sovi@@ 10453
nich@@ 10452
igh@@ 10449
mano 10448
AB@@ 10447
af 10445
dial 10444
140 10443
hospit@@ 10440
zer 10439
affin@@ 10438
spé@@ 10433
transpar@@ 10431
yan 10429
Dup@@ 10419
Peti@@ 10418
arin 10417
umb@@ 10417
cross 10415
PD@@ 10414
Proc@@ 10413
oku 10413
couples 10411
ibn 10410
miner@@ 10410
originales 10409
exper@@ 10408
imo 10408
Haw@@ 10407
Village 10405
convers@@ 10401
gain 10398
Hall@@ 10395
imi 10394
kel 10393
Rac@@ 10392
stig@@ 10392
omes 10389
ray 10385
Saints 10379
series 10378
Indiana 10377
gia 10376
hard 10373
Cleveland 10371
Boliv@@ 10367
Pietro 10366
Pes@@ 10364
eman 10361
normal 10356
aha 10354
3,5 10353
audio 10353
sangu@@ 10351
ady 10348
Monte@@ 10343
orbit@@ 10342
horizont@@ 10341
zar@@ 10341
AE@@ 10337
TS 10334
Rid@@ 10333
Sid@@ 10333
Commonwealth 10332
colonial 10330
ding 10326
Line 10323
Arti@@ 10319
är@@ 10318
arab@@ 10309
Comm@@ 10308
Jazz 10307
usias@@ 10304
valle 10304
perfec@@ 10303
Roberto 10301
formul@@ 10301
Aer@@ 10299
film@@ 10297
hop 10296
Ł@@ 10294
ause 10291
119@@ 10290
Jeff 10283
Jr 10283
vive 10280
nis@@ 10279
IP 10278
ingu@@ 10278
lat 10274
Games 10271
partition 10267
Franck 10263
zen 10263
XV@@ 10262
margin@@ 10259
èv@@ 10257
Transport 10256
compati@@ 10251
équili@@ 10251
Quin@@ 10250
outs 10250
probl@@ 10250
eler 10248
immer@@ 10247
codes 10246
yth@@ 10246
Édi@@ 10245
titudes 10242
acres 10239
war@@ 10238
Edgar 10235
Jum@@ 10235
attrac@@ 10234
Bit@@ 10232
Marvel 10226
lex@@ 10226
Pur@@ 10220
wo 10218
Got@@ 10217
Hesse 10217
inos 10215
115@@ 10213
Langu@@ 10211
illac 10210
interface 10209
nazi 10209
lus 10201
articul@@ 10199
lus@@ 10189
Dragon 10188
lâ@@ 10188
arium 10187
New@@ 10186
rat@@ 10183
Alber@@ 10176
CP@@ 10176
Boc@@ 10175
employe@@ 10175
Anton 10174
Salomon 10172
Raf@@ 10169
tas 10166
empr@@ 10164
Alg@@ 10162
Gold 10162
Adolf 10161
ley@@ 10159
oute 10157
retr@@ 10156
cic@@ 10155
ore@@ 10152
illustrations 10150
ape 10148
did@@ 10147
spontan@@ 10147
Jordan 10146
Cle@@ 10144
Rog@@ 10144
101 10140
uki 10136
Kent 10135
Lut@@ 10134
cél@@ 10128
itre 10128
EN@@ 10122
Lori@@ 10122
Galli@@ 10120
drap@@ 10115
icule 10107
Suzanne 10106
press@@ 10105
hall 10101
ballet 10097
zon@@ 10096
cipe 10089
Hain@@ 10086
MO@@ 10085
Til@@ 10084
alar@@ 10081
attend 10079
win 10079
magn@@ 10076
kine 10075
Christ@@ 10072
Boy 10070
Master 10068
ż@@ 10067
Rosa 10066
AL 10063
Arnold 10062
Air@@ 10060
Iowa 10055
halte 10055
CF 10054
ador 10053
ano@@ 10051
back 10050
uh@@ 10050
compéti@@ 10046
Duf@@ 10045
dération 10043
Vass@@ 10040
Ian 10039
islas 10037
Murray 10036
taines 10032
ros 10028
tha 10028
Aj@@ 10027
batteries 10027
emont 10026
gig@@ 10025
ieur 10022
insist@@ 10021
Sach@@ 10019
eli 10006
sou 10005
Abdel@@ 10004
ep 10004
AG 10003
Tennessee 10003
cathol@@ 10003
Commerce 10000
Media 9998
26@@ 9997
kab@@ 9995
Princ@@ 9994
TC 9993
draft 9991
114@@ 9990
sivement 9990
Lic@@ 9985
intensi@@ 9984
key 9984
dense 9982
Yos@@ 9979
oscop@@ 9978
wo@@ 9975
alias 9971
pois@@ 9971
esi 9969
XX@@ 9968
E.@@ 9967
lais 9967
amer 9966
tropole 9966
incur@@ 9964
Ple@@ 9959
Power 9956
ionale 9955
ga@@ 9953
escal@@ 9952
Tas@@ 9949
caf@@ 9947
demanda 9947
idi 9947
f. 9944
composer 9942
17,@@ 9939
esqu@@ 9936
gres@@ 9936
inge 9936
sacri@@ 9935
uli 9935
LE@@ 9934
pure 9934
finance 9932
Main@@ 9929
ight 9928
Inter 9927
Nas@@ 9926
oker 9924
ark@@ 9921
Estr@@ 9919
diesel 9913
taur@@ 9913
point@@ 9907
notation 9906
SK 9902
habil@@ 9902
get 9899
itat 9897
tain@@ 9890
Luigi 9889
Pul@@ 9889
det 9888
pros@@ 9888
27@@ 9886
Bach 9884
PR 9884
Robinson 9879
Forum 9878
Pen 9878
stell@@ 9878
Lionel 9877
inces 9877
Af@@ 9871
soc@@ 9871
Sierra 9868
edo 9867
Hard@@ 9866
blues 9864
portion 9861
abord@@ 9860
tw@@ 9860
uk 9860
disciplin@@ 9858
parking 9858
Lion 9855
expert 9851
Carter 9850
Fir@@ 9850
Gan@@ 9850
~ 9847
Major 9846
Source 9846
invitation 9845
innoc@@ 9843
thier 9843
Kad@@ 9842
iz 9841
stru@@ 9839
à@@ 9837
isie 9835
Tat@@ 9834
Press 9830
Out@@ 9829
Great 9828
Indo@@ 9826
marketing 9825
graphi@@ 9824
Valenci@@ 9820
1824 9811
rup@@ 9809
Vari@@ 9808
1825 9806
Bug@@ 9806
Oliver 9802
Cho@@ 9798
itable 9797
musul@@ 9791
Beaumont 9789
rot 9789
tics 9789
Sep@@ 9788
paral@@ 9788
SE 9785
· 9782
ór@@ 9782
elage 9781
bad@@ 9779
DE 9777
ī@@ 9777
1802 9769
dine 9768
fati@@ 9767
portu@@ 9767
Best 9766
PR@@ 9766
IR@@ 9763
ough 9762
nus 9761
HC 9760
Dami@@ 9759
Jon@@ 9758
Lombar@@ 9756
Gold@@ 9755
Ner@@ 9755
mac 9755
Marcus 9754
Verdun 9754
Gary 9752
gly@@ 9751
Isle 9742
inclus@@ 9742
migration 9741
Kenya 9740
borne 9740
thon 9739
pot 9732
itures 9731
1803 9730
clav@@ 9727
thor@@ 9727
kur@@ 9726
Steven 9725
élites 9720
missile 9719
Glasgow 9718
sures 9718
oll 9716
Carp@@ 9715
Cruz 9714
teure 9714
ș@@ 9713
WTA 9712
roman@@ 9710
YouTube 9708
Car 9705
Contr@@ 9703
CR@@ 9694
Fay@@ 9689
sun@@ 9687
percus@@ 9686
revi@@ 9685
Square 9682
Trump 9682
Warner 9677
hiz@@ 9677
Vent@@ 9675
ES 9673
ii 9673
ness 9670
SS@@ 9669
violent 9663
Rud@@ 9662
ends 9660
iron 9660
jus 9660
mutation 9659
comparable 9656
pag@@ 9655
Champs 9654
opath@@ 9654
Police 9653
PK 9650
1808 9649
sentir 9649
partisan 9647
entrepreneur 9645
festiv@@ 9645
ody 9645
tium 9641
Laura 9637
Prov@@ 9636
insurg@@ 9635
allo 9633
tenay 9631
Adams 9629
automati@@ 9627
dog@@ 9627
Nicole 9624
AA 9622
Troyes 9622
ennement 9622
Noir 9621
infin@@ 9621
Seattle 9620
EP@@ 9606
Pablo 9606
Rein@@ 9606
ibil@@ 9600
Marshall 9596
It 9595
ste@@ 9595
rais 9593
Marc@@ 9586
mpi@@ 9584
117@@ 9582
anta 9582
trop@@ 9580
Simone 9575
abi 9575
Kot@@ 9574
1813 9569
1828 9569
Cambr@@ 9568
rurales 9566
scén@@ 9564
25@@ 9563
SD@@ 9561
Cooper 9560
doubles 9560
Dallas 9558
indre 9557
substance 9552
Dig@@ 9548
angu@@ 9548
assign@@ 9548
kon@@ 9548
vic 9547
Ever@@ 9546
Barry 9543
auer 9539
evin 9538
za@@ 9534
nai@@ 9529
Blues 9524
Parker 9523
Gav@@ 9522
Alex@@ 9521
vietnam@@ 9518
pomp@@ 9515
Spe@@ 9511
jac@@ 9506
180 9503
édo@@ 9500
Amér@@ 9497
gab@@ 9492
Home 9487
day 9487
Art@@ 9486
Bod@@ 9485
Nad@@ 9484
progressive 9481
scénar@@ 9481
cath@@ 9479
tiges 9477
ling@@ 9476
sacrif@@ 9474
sien 9470
sale 9469
elet 9461
Stu@@ 9460
canon@@ 9453
dent@@ 9451
oste 9450
ush@@ 9449
assis 9448
fav@@ 9448
AN 9445
interaction 9439
candidate 9437
ono 9431
pension 9431
Nord@@ 9430
Ok@@ 9430
titul@@ 9430
Stein@@ 9429
Java 9426
arsen@@ 9426
stage 9426
Kosovo 9425
León 9425
costume 9425
Queen 9424
Lawrence 9418
parado@@ 9418
Rib@@ 9416
ask@@ 9416
Unter@@ 9415
Chang@@ 9414
pseud@@ 9410
aller@@ 9408
1821 9405
fat@@ 9400
gy 9398
nica 9398
promot@@ 9398
Mons 9396
Baltimore 9394
sw@@ 9392
Austin 9391
alon 9389
Peugeot 9387
lang@@ 9387
120@@ 9384
Corr@@ 9383
alo@@ 9382
Histori@@ 9381
Thur@@ 9379
1,2 9376
Ey@@ 9376
Style 9373
Afric@@ 9371
Lamb@@ 9367
Argent@@ 9366
Gru@@ 9356
hex@@ 9356
faction 9354
Copa 9353
enton 9351
p. 9351
angs 9350
dyn@@ 9350
jean 9346
kat@@ 9346
otti 9345
owo 9344
Ann 9342
country 9340
opinions 9340
oka 9337
relevant 9333
Stewart 9329
Broadway 9325
mographie 9323
1809 9321
1826 9316
ogo 9313
Medi@@ 9311
Alaska 9308
cim@@ 9308
mane 9305
Fair@@ 9304
Nation 9299
PP@@ 9296
Relations 9295
1827 9293
lum 9293
cis@@ 9292
bio 9291
Leon@@ 9290
Bow@@ 9288
Calv@@ 9288
Mey@@ 9285
venues 9283
cus@@ 9281
Justin 9279
ako 9279
Grav@@ 9276
1500 9275
ME 9275
ellip@@ 9275
ination 9274
Audi@@ 9271
porno@@ 9270
ego 9268
Theatre 9266
asy@@ 9265
v. 9265
angers 9259
1829 9258
Construction 9258
tet 9256
Sum@@ 9255
awa@@ 9253
sieur 9253
soph@@ 9253
Lens 9250
bap@@ 9242
rob@@ 9237
Sah@@ 9235
FIFA 9233
Harris 9229
rio 9229
Cent@@ 9228
nis 9225
Jay 9224
cycles 9222
Kurt 9220
abre 9217
tram@@ 9217
350 9215
M.@@ 9215
imens 9214
aris 9213
ely 9211
BA 9210
Julia 9209
Arena 9205
Valley 9205
900 9202
rain@@ 9202
continua 9201
Garcia 9199
Wer@@ 9199
supporters 9199
voyag@@ 9199
Post 9198
ongo 9197
zin@@ 9196
ABC 9195
ingi@@ 9194
ete 9193
trouble 9191
hyp@@ 9186
Rousseau 9185
niv@@ 9183
gers 9179
Gom@@ 9178
audiovis@@ 9177
sailles 9176
ency 9172
ole@@ 9172
Creek 9169
lact@@ 9169
GC 9166
1816 9157
invest@@ 9157
acht 9156
ophi@@ 9156
1807 9154
Compos@@ 9153
Brooklyn 9152
Ž@@ 9152
Camp 9150
littér@@ 9150
maintenance 9149
stoc@@ 9149
ativ@@ 9148
aup@@ 9148
J.@@ 9145
eck@@ 9144
Civ@@ 9139
raid 9138
pec@@ 9136
uf@@ 9136
Jerry 9134
118@@ 9133
water 9133
mom@@ 9131
Mon 9126
Nog@@ 9126
tail@@ 9126
Sporting 9124
Danube 9121
disci@@ 9120
sion@@ 9117
1.@@ 9113
Freder@@ 9112
wal@@ 9112
CI 9110
Py@@ 9110
Pointe 9108
Rach@@ 9108
Jé@@ 9104
tamb@@ 9102
cogni@@ 9100
Ley@@ 9099
pital 9091
erc@@ 9089
Monuments 9088
supports 9088
ive 9087
IT@@ 9084
instructions 9080
Guill@@ 9079
obs@@ 9079
ital 9076
Alberta 9075
Mang@@ 9075
seudo 9073
Junior 9070
Rafael 9067
Aim@@ 9064
ril 9064
DI 9063
Beng@@ 9060
ppe 9059
apar@@ 9058
Raj@@ 9057
jet 9055
trim@@ 9054
124@@ 9048
nel 9045
ecture 9044
0,0@@ 9041
Grou@@ 9041
Ray@@ 9041
flo@@ 9040
Vinc@@ 9037
low@@ 9037
carbon@@ 9034
Rep@@ 9030
dragon 9030
Hong@@ 9027
monast@@ 9026
eppe 9025
Joan 9021
ancement 9018
ther 9018
Bel 9017
Lisa 9017
cipi@@ 9016
Mikha@@ 9014
immig@@ 9013
audit@@ 9010
pendi@@ 9009
Patri@@ 9008
alan@@ 9008
raci@@ 9008
Avent@@ 9007
Manhattan 9007
Lef@@ 9006
istère 9006
squ@@ 9003
Wrestling 9002
PCI 8996
Space 8995
28@@ 8985
ä 8979
Graham 8977
1823 8972
Elisabeth 8971
Brabant 8966
stadt 8966
hypo@@ 8963
frage 8959
Marche 8956
Top@@ 8949
Atlas 8947
laborat@@ 8947
ultés 8946
Pla@@ 8942
Poul@@ 8940
sach@@ 8940
Condé 8939
Nem@@ 8939
Salle 8938
nil 8937
serve 8935
quet@@ 8929
mie 8928
natal 8928
ár@@ 8927
Cim@@ 8926
Cog@@ 8926
Pittsburgh 8924
usses 8923
Evans 8922
Mant@@ 8922
ascend@@ 8920
monopo@@ 8916
airs 8915
caric@@ 8914
insul@@ 8910
1822 8904
1798 8900
Crac@@ 8900
Wright 8900
angla@@ 8900
Productions 8899
Rous@@ 8897
Frederick 8895
amo 8893
Campbell 8891
esh@@ 8890
Mozart 8887
Sky@@ 8880
Wh@@ 8880
lins 8878
entrepren@@ 8877
prin@@ 8877
dad 8876
interactions 8874
Terr@@ 8873
elia 8871
pol 8871
lation 8867
commis@@ 8866
gramm@@ 8866
Testament 8863
rur@@ 8863
LA 8860
Town 8859
rap 8856
Montre@@ 8855
brun@@ 8851
System 8850
miss@@ 8847
alia 8843
diers 8842
Ve@@ 8841
ube 8840
patron@@ 8839
Anto@@ 8838
lav 8835
vamp@@ 8835
tant@@ 8832
Dub@@ 8831
Merc@@ 8831
Cic@@ 8829
plates 8828
stock 8828
â 8823
cruci@@ 8818
ms 8815
encourage 8814
arest 8813
Paolo 8811
ellan 8808
oms 8807
enade 8805
Sony 8801
29@@ 8795
hou 8795
pause 8795
mouv@@ 8793
Fen@@ 8792
Istanbul 8792
arcade 8792
1818 8791
ication 8790
Moy@@ 8789
GP@@ 8785
ferrovi@@ 8782
permanentes 8781
orch@@ 8778
ectes 8773
D.@@ 8772
tuy@@ 8772
orchestr@@ 8771
Azur 8769
ink 8769
aton 8768
Var 8766
Shel@@ 8765
emi 8763
Is 8762
Tax@@ 8761
aca 8760
archiv@@ 8760
BC 8755
Wagner 8754
dal 8751
para 8749
liban@@ 8747
intersection 8746
sto@@ 8744
avi 8741
kil@@ 8741
Auxerre 8738
dispositi@@ 8738
wa@@ 8737
extrémit@@ 8736
pét@@ 8736
exces@@ 8733
urus 8731
Dick@@ 8730
cis 8728
FK 8726
Bret@@ 8723
frau@@ 8723
sain 8723
mas 8721
landes 8717
B.@@ 8714
enko 8712
acr@@ 8711
Dakar 8710
Walker 8704
ult 8704
Publi@@ 8703
sah@@ 8702
township 8696
Nature 8695
18,@@ 8693
infiltr@@ 8691
IA 8686
King@@ 8684
ingr@@ 8683
kir@@ 8679
1804 8678
convic@@ 8678
Alabama 8677
Royale 8677
culp@@ 8674
imm@@ 8673
1811 8671
subst@@ 8671
yne 8671
infection 8669
amar@@ 8665
omo 8665
wh@@ 8664
Thompson 8660
ritu@@ 8660
canc@@ 8657
filtr@@ 8656
jav@@ 8656
Associ@@ 8654
atum 8652
Green@@ 8651
param@@ 8650
Champions 8647
Ib@@ 8645
1817 8643
Band@@ 8642
act 8640
ê 8640
infrastructure 8639
Gy@@ 8638
saga 8637
zen@@ 8636
Will 8635
centage 8628
forcement 8624
anium 8620
chol@@ 8620
insp@@ 8620
lay 8620
Origin@@ 8619
Jord@@ 8614
Map@@ 8614
dign@@ 8614
pers 8614
indo 8610
gré 8606
Conrad 8605
1,3 8604
opot@@ 8598
50@@ 8597
taxes 8595
Marianne 8593
pairs 8593
BD 8586
ilo 8584
aer@@ 8582
escor@@ 8579
cia 8577
ernes 8577
Barn@@ 8576
amph@@ 8575
ð@@ 8574
enth@@ 8573
García 8571
philosoph@@ 8568
rol 8566
Andal@@ 8565
FL@@ 8561
vent@@ 8558
ouard 8556
Radi@@ 8553
Casablanca 8552
Rotterdam 8551
Hak@@ 8546
évision 8546
Bourg@@ 8540
Brande@@ 8538
Will@@ 8538
com 8538
IF@@ 8537
én 8537
cue 8536
Capr@@ 8534
contraste 8534
Old 8532
zu 8530
Phil 8528
onville 8526
fiques 8525
porte@@ 8524
pare 8519
segment 8519
Sci@@ 8516
1780 8514
1799 8514
Hem@@ 8508
TO@@ 8507
Landes 8503
abstr@@ 8501
0,5 8498
Marin 8497
lum@@ 8497
compatible 8490
Lug@@ 8488
regard@@ 8488
tat@@ 8488
Simpson 8487
Just@@ 8484
Cler@@ 8478
Geoff@@ 8477
116@@ 8476
Boeing 8475
rell 8475
wer@@ 8475
Micha@@ 8471
Quarti@@ 8467
Stat@@ 8467
traumati@@ 8466
Di 8464
ike 8464
Chen@@ 8460
Jorge 8457
Shakespeare 8456
Joachim 8454
DO@@ 8451
eland 8448
Pis@@ 8447
etc 8445
Stars 8442
saxoph@@ 8442
Chil@@ 8439
1819 8438
40@@ 8438
Stuttgart 8436
Publ@@ 8435
Was@@ 8435
Kō@@ 8434
grou@@ 8432
ways 8431
Rat@@ 8429
latitude 8427
ingt 8425
Apo@@ 8424
Call@@ 8424
Harrison 8418
Sidi 8415
Pent@@ 8413
isy 8412
Wang 8409
centen@@ 8408
asi 8407
gir 8406
Jor@@ 8405
Card@@ 8403
Network 8402
Lep@@ 8399
AB 8394
Forest 8394
Que 8394
idon 8393
lands 8393
aphy@@ 8389
PO@@ 8387
mement 8385
Spor@@ 8384
robot@@ 8383
î 8383
Rudolf 8378
bet 8376
È@@ 8376
terminal 8371
CP 8368
town 8367
orium 8366
Eus@@ 8365
Bond 8363
Trou@@ 8360
nic@@ 8354
other@@ 8354
Matthew 8351
Ghana 8349
corr@@ 8349
lock 8341
Army 8339
ignées 8337
embre 8336
multi 8335
hind@@ 8332
colombi@@ 8329
incul@@ 8328
Magn@@ 8325
Alt@@ 8321
Poznań 8321
cyc@@ 8317
Boys 8316
eim 8313
infr@@ 8313
indon@@ 8312
BM@@ 8311
Bangladesh 8311
arn@@ 8309
édrale 8309
king 8307
got 8306
Gamb@@ 8305
Neil 8305
excellent 8304
Vice 8303
Hos@@ 8300
RT 8300
Marx 8298
Bun@@ 8296
Cook 8295
allo@@ 8295
cid@@ 8294
invasi@@ 8292
zan 8292
Silva 8291
wilaya 8291
Hell@@ 8290
hem 8287
say 8281
Linux 8280
radios 8278
Imag@@ 8277
Note 8277
than@@ 8276
wick 8276
Angel 8273
aman@@ 8273
dorf 8272
conforme 8271
sar 8268
manuel 8263
Hag@@ 8259
Mog@@ 8259
cig@@ 8257
lith@@ 8256
Moldav@@ 8255
Palatin@@ 8253
déch@@ 8253
Stefan 8252
1805 8248
August 8247
Cous@@ 8247
First 8247
Pag@@ 8247
Bobby 8240
Harold 8240
codice 8240
Cao 8237
Mai 8237
Impact 8236
tort 8232
Annie 8231
TP 8226
Matth@@ 8224
phine 8220
Jour@@ 8218
sheim 8218
1,6 8216
GP 8216
GE 8214
Tru@@ 8213
antiqu@@ 8211
War 8203
SM 8201
olig@@ 8197
Dark 8195
dem 8194
Mans@@ 8193
Cay@@ 8189
Oli@@ 8188
Mines 8183
Og@@ 8182
160 8181
1796 8180
Vietnam 8180
Kun@@ 8179
Liga 8179
105 8177
Wayne 8175
aries 8172
Lorenzo 8171
tral 8171
Maryland 8169
NS@@ 8169
satur@@ 8169
Ambro@@ 8168
ás 8167
Hydr@@ 8165
lou 8163
hique 8162
ikh 8160
file 8159
Belle@@ 8155
Hudson 8155
Bush 8151
Industrie 8151
occasions 8151
vibr@@ 8147
Party 8142
Morris 8140
Baker 8139
robus@@ 8139
Aul@@ 8137
Saf@@ 8137
Up 8131
maf@@ 8127
supporter 8120
IF 8119
dys@@ 8115
Ost@@ 8114
Eddie 8111
Identi@@ 8111
Sign@@ 8111
inflam@@ 8110
initiatives 8110
ng 8110
iges 8107
tos@@ 8103
ento 8101
arrang@@ 8100
sis@@ 8100
Hend@@ 8099
Oslo 8098
1797 8086
Vik@@ 8086
GM 8085
biot@@ 8085
Band 8084
aj 8084
ardo 8083
50,@@ 8082
Sofia 8080
plantation 8080
encer 8076
Dest@@ 8071
serg@@ 8062
Collection 8060
Oregon 8057
Sang@@ 8057
obj@@ 8053
Mét@@ 8049
ennale 8049
kal@@ 8049
polar@@ 8048
Œ@@ 8048
Lil@@ 8045
Geor@@ 8044
Castell@@ 8043
empl@@ 8043
Tel 8040
Carl@@ 8038
pan 8038
tranqu@@ 8038
esa 8036
occurr@@ 8036
Coch@@ 8033
pill@@ 8033
socio 8027
otro@@ 8026
obi@@ 8024
ficit 8023
Programme 8022
luc@@ 8021
enus 8020
Finale 8019
Gel@@ 8017
Const@@ 8015
inser@@ 8015
Clau@@ 8014
gier 8013
cape 8011
see 8010
IG@@ 8009
cons 8009
Sey@@ 8007
exten@@ 8006
Birmingham 8000
Constance 7999
24,@@ 7998
cal 7998
elt 7997
sal 7997
enburg 7990
bler 7987
Wes@@ 7986
Western 7986
Inf@@ 7985
catal@@ 7984
noise 7982
113@@ 7980
LP 7980
Liu 7980
agnes 7980
Colin 7979
imental 7979
otype 7979
Beatles 7978
pres 7978
bra@@ 7976
axi@@ 7973
Airlines 7972
ato@@ 7972
Nati@@ 7971
oses 7971
Brid@@ 7970
aki@@ 7970
aze 7969
Vegas 7968
nutri@@ 7968
alternatif 7967
Connecticut 7965
joy@@ 7965
ambre 7963
nad 7958
transit@@ 7958
Fun@@ 7957
Tommy 7955
alc@@ 7955
minor@@ 7955
Classification 7954
fines 7954
Luke 7953
els@@ 7950
Norman 7949
verses 7947
4,5 7939
resse 7938
Marina 7937
band@@ 7937
dei 7937
Exempl@@ 7930
Raw 7929
Sev@@ 7929
Dy@@ 7925
Sky 7925
USS 7925
antan@@ 7923
Railway 7922
oré 7922
Sources 7921
Fame 7920
dit@@ 7918
2.@@ 7915
iner@@ 7915
Nab@@ 7908
ender 7908
Méd@@ 7905
Omar 7905
Haz@@ 7904
Johan 7903
Mitchell 7903
Jas@@ 7901
Standard 7900
absorb@@ 7897
Doc@@ 7896
charts 7896
18@@ 7895
Turner 7891
lière 7890
oriente 7890
ats@@ 7888
hur@@ 7888
sic@@ 7888
20,@@ 7887
bit 7881
gro@@ 7881
Pérez 7879
Ralph 7879
pertur@@ 7877
Atlan@@ 7867
ectu@@ 7866
ving@@ 7866
conting@@ 7862
Portu@@ 7859
icide 7859
corn@@ 7858
360 7857
Sha@@ 7856
adia 7853
lip@@ 7852
distribut@@ 7851
golf 7850
Rico 7849
Films 7845
ornith@@ 7841
Arsenal 7837
astes 7837
Nassau 7835
Kentucky 7834
35@@ 7832
tubercul@@ 7826
Human@@ 7825
grap@@ 7824
endur@@ 7820
dar@@ 7816
yu 7816
Nob@@ 7813
Project 7813
ide@@ 7813
Angel@@ 7812
verb@@ 7808
colspan 7806
ventr@@ 7805
Gat@@ 7801
ffer 7801
öl@@ 7801
Wolfgang 7799
clus@@ 7798
Â@@ 7797
MI 7796
Jon 7793
standards 7793
ampl@@ 7791
euro 7790
substanti@@ 7790
own 7789
Kazakhstan 7786
Phase 7786
stars 7786
CB 7785
Buch@@ 7780
Facebook 7779
management 7777
huiti@@ 7775
ymologie 7773
Cincinnati 7772
inaug@@ 7771
ls 7768
Warren 7767
MS@@ 7766
Kath@@ 7765
Quali@@ 7765
19,@@ 7764
blind@@ 7762
Va@@ 7760
Fat@@ 7758
Gram@@ 7758
tarde 7757
nam@@ 7756
eti 7755
gende 7755
Rin@@ 7750
copal 7747
dimen@@ 7746
gel 7745
Ś@@ 7744
Jug@@ 7741
classi@@ 7741
cz@@ 7741
Soul@@ 7739
nas@@ 7736
Ander@@ 7735
Site 7735
chair 7733
Disco@@ 7731
oe 7730
Pokémon 7729
N. 7728
boy 7727
dio 7726
Qatar 7725
Dog@@ 7723
Manif@@ 7721
orgi@@ 7721
Mountain 7720
1,4 7719
Universal 7719
Ivan@@ 7717
fiscal 7717
fan 7716
Batt@@ 7713
ellen@@ 7712
transport@@ 7710
lama 7707
Tap@@ 7705
agnol 7705
CM 7701
Lah@@ 7701
osaurus 7698
stal@@ 7695
DP 7694
acer@@ 7693
esco 7693
P.@@ 7689
andin@@ 7689
emple 7689
emann 7687
etz@@ 7687
Kap@@ 7684
Sebastian 7683
Clara 7681
entrev@@ 7679
scop@@ 7678
Monument 7677
Double 7675
O. 7675
sat@@ 7675
RI 7672
og 7671
Roosevelt 7668
Rhodes 7667
Gul@@ 7665
Quer@@ 7663
got@@ 7662
Channel 7658
sand@@ 7656
Bom@@ 7654
Dick 7654
Yu@@ 7652
Ken 7651
brillante 7648
oso 7646
Sri 7645
applic@@ 7643
Collins 7640
Bris@@ 7638
bet@@ 7638
Danny 7637
Sas@@ 7635
Stor@@ 7632
ward 7632
argument 7631
Dru@@ 7629
Mode 7629
Tac@@ 7629
ers@@ 7628
encer@@ 7625
Baron 7624
Gustav 7622
Pacific 7622
Shim@@ 7622
him@@ 7619
Stre@@ 7617
Lloyd 7616
siv@@ 7616
dice 7614
Guatemala 7612
mation 7612
Jacqueline 7609
amental 7609
Dod@@ 7608
arguments 7608
red 7607
Um@@ 7606
emy 7605
infl@@ 7605
Dimi@@ 7604
I.@@ 7604
insec@@ 7604
quot@@ 7604
aku 7603
TG@@ 7602
Tag@@ 7602
fel@@ 7601
nova 7598
May 7595
Universit@@ 7595
tec@@ 7594
Lud@@ 7591
Marion 7589
Der 7588
Produ@@ 7588
chs 7588
Josef 7587
Pont@@ 7587
Christi@@ 7584
anor@@ 7584
transpor@@ 7584
extra 7581
CIA 7579
Rica 7579
yor@@ 7578
Wik@@ 7577
fret 7577
7,5 7575
Presse 7572
questi@@ 7571
Just 7570
xie 7567
FO@@ 7561
Islam 7561
Oklahoma 7561
iert 7559
mites 7559
ror@@ 7558
agh 7557
écla@@ 7557
SF@@ 7555
Bill@@ 7552
Gem@@ 7550
Lima 7548
Sot@@ 7548
Pep@@ 7547
Cra@@ 7543
pak@@ 7542
Salz@@ 7541
umière 7541
č 7540
Vivi@@ 7538
e.@@ 7536
Cycl@@ 7534
33,@@ 7528
Angola 7523
Italien 7523
omp@@ 7523
sz@@ 7523
Kob@@ 7522
insky 7519
22,@@ 7517
nch@@ 7517
Influ@@ 7513
Norm@@ 7513
dioc@@ 7511
Caz@@ 7510
IP@@ 7509
Innoc@@ 7509
Chat@@ 7508
Wisconsin 7508
Who 7507
onte 7506
respirat@@ 7505
conspir@@ 7504
uke 7504
evo 7503
isch 7503
unc@@ 7503
Particip@@ 7495
FN 7494
Phoenix 7490
arius 7490
vez 7487
embran@@ 7485
Wel@@ 7483
Sour@@ 7482
cann@@ 7481
amer@@ 7480
rid@@ 7480
Clem@@ 7477
tide 7475
biom@@ 7472
kol@@ 7469
Fritz 7467
To 7466
terrible 7464
enda 7463
www.@@ 7463
gives 7460
ps@@ 7456
Serie 7454
Amaz@@ 7453
Fant@@ 7453
Osaka 7453
Rick 7453
utions 7453
Fan@@ 7451
rar@@ 7447
L.@@ 7446
perform@@ 7444
Paler@@ 7440
Cloud 7438
sia 7438
Mongol@@ 7437
leton 7435
aman 7433
ester@@ 7433
restrictions 7433
efficient 7431
AO 7430
Julius 7430
Newton 7429
bridge 7426
lip 7426
Alonso 7424
uno 7423
dor 7417
Nie@@ 7416
leaders 7416
kans 7411
geur 7406
Pie@@ 7405
2,4 7404
polo 7402
Lak@@ 7401
Niger 7398
PN@@ 7398
anom@@ 7397
European 7395
ogne 7394
Wolf 7393
vot 7393
marathon 7391
Queensland 7389
Bras@@ 7387
Adap@@ 7384
azz@@ 7382
eption 7381
Wood 7379
Holstein 7378
consensus 7377
xy@@ 7376
Bristol 7375
fail@@ 7375
Diane 7374
kan 7373
Out 7372
ograph@@ 7369
ât 7368
1788 7365
Tō@@ 7365
û 7365
Bull 7363
36@@ 7360
dispon@@ 7360
Foundation 7359
Vul@@ 7359
phyl@@ 7359
Cob@@ 7358
Santos 7358
calyp@@ 7358
liquid@@ 7357
senior 7354
Gray 7353
Harvey 7353
ör@@ 7353
yin 7350
Biz@@ 7348
effective 7347
destitu@@ 7346
arith@@ 7344
Hassan 7343
Pauline 7342
López 7341
lass@@ 7338
may@@ 7337
ael 7336
endor@@ 7335
yes 7335
Mong@@ 7333
analog@@ 7333
tar 7333
lop@@ 7327
agin@@ 7325
GA 7324
Strat@@ 7324
anthropo@@ 7323
immigrants 7322
Utah 7321
bec@@ 7321
forma 7319
from 7318
SV 7317
Hey@@ 7316
Gur@@ 7313
Rho@@ 7311
apos@@ 7310
tico 7310
tou 7310
Girl 7308
Port@@ 7308
Polyn@@ 7307
Rock@@ 7307
25,@@ 7306
sberg 7306
segments 7306
1775 7303
camer@@ 7300
options 7300
Micro@@ 7299
Of 7298
arom@@ 7297
eria 7296
CM@@ 7295
bey 7295
dha 7294
33@@ 7293
Beno@@ 7291
Cross 7291
EL@@ 7289
Milit@@ 7289
Platon 7287
tex 7287
icor@@ 7286
Soc@@ 7284
ivi@@ 7283
kam@@ 7281
pora 7281
Ferry 7280
TT 7280
1784 7277
ren 7275
lar 7273
map@@ 7272
octo@@ 7272
consultant 7270
een 7270
inski 7263
Freud 7262
1,8 7261
elly 7261
osaur@@ 7258
Keith 7257
Terry 7256
1770 7253
Beg@@ 7253
lets 7253
Ce@@ 7252
Sud@@ 7251
eon 7251
Erik 7247
aja 7246
ISO 7244
inet 7242
Tang 7241
arre 7241
uan 7241
ingham 7240
Churchill 7239
Castro 7235
onnie 7235
ingo 7234
liner 7232
kins 7231
Wis@@ 7229
uld 7229
transvers@@ 7228
Business 7227
tul@@ 7227
paravant 7223
Sarr@@ 7215
Nev@@ 7214
Pra@@ 7214
tester 7212
Shō@@ 7210
ń 7209
ring 7208
Beth@@ 7206
Rey 7205
Nova 7204
dar 7203
kes 7202
ía 7201
Á@@ 7199
Dag@@ 7193
escu 7193
2,3 7190
Gallery 7190
Base 7186
ayn@@ 7186
alet 7182
Ele@@ 7176
casting 7176
ussy 7175
vial 7175
1,1 7173
otop@@ 7164
flex@@ 7161
Tad@@ 7159
Pand@@ 7157
Thess@@ 7156
rs 7156
euv@@ 7155
Good@@ 7153
reporter 7153
Eva 7151
DS@@ 7150
ju 7148
Row@@ 7147
ylo@@ 7147
0,1 7145
uchi 7145
fluor@@ 7144
synchron@@ 7144
Portland 7143
confér@@ 7143
vier@@ 7143
Libre 7142
mach@@ 7142
similit@@ 7140
Dra@@ 7139
oud@@ 7139
Gag@@ 7138
Your 7138
Box 7134
Over@@ 7131
Wehrmacht 7130
Holmes 7127
Noy@@ 7127
ainville 7127
Via 7126
Berkeley 7124
ate@@ 7120
emper@@ 7118
igan 7117
itu@@ 7116
eme 7114
ator@@ 7112
avo@@ 7111
Westminster 7110
27,@@ 7109
Andreas 7106
maxim@@ 7106
Deutsche 7105
imit@@ 7104
male 7103
Parti@@ 7102
discrimination 7102
Wak@@ 7101
Citroën 7100
amoto 7099
Meyer 7097
ible 7097
Lob@@ 7096
her 7096
odor@@ 7094
egger 7093
Zi@@ 7092
eld 7092
α 7092
extrê@@ 7089
gin@@ 7089
mark 7089
aissances 7085
Be 7084
Cyc@@ 7084
Leo 7083
igt 7081
1783 7080
Cha@@ 7077
ony 7076
Twitter 7069
apa 7069
rail 7068
saur@@ 7068
juris@@ 7067
1600 7066
bio@@ 7064
termina 7063
Global 7060
elis 7057
rak@@ 7057
Men 7056
grain 7054
Laborat@@ 7052
suj@@ 7052
Monta@@ 7050
Antarc@@ 7047
34,@@ 7046
Bin@@ 7046
grad@@ 7043
Public 7042
kay@@ 7040
kor@@ 7039
Rum@@ 7038
Satur@@ 7038
Nil 7033
Que@@ 7033
1750 7032
mau@@ 7032
Mack@@ 7031
Grandes 7028
amorph@@ 7027
anch@@ 7027
Hugh 7025
êque 7022
yro@@ 7018
igration 7017
Church 7014
agon 7012
phant 7012
sets 7012
Say@@ 7009
Heid@@ 7002
macul@@ 7001
oki 6999
Clinton 6998
trail 6998
Do 6997
Larry 6997
Armstrong 6996
Brothers 6994
D1 6994
escar@@ 6994
Paraguay 6989
Lions 6988
Sergio 6988
Dir@@ 6987
SG 6987
berto 6986
Wimbledon 6982
NR@@ 6980
archev@@ 6980
atrième 6980
accio 6979
Alexandra 6978
ynam@@ 6973
arp@@ 6972
Julian 6971
Werner 6971
itt 6969
mail 6969
AV@@ 6968
Pictures 6967
rements 6966
Ron 6965
Ts@@ 6964
incidents 6964
Anth@@ 6963
37@@ 6954
Book 6951
Lyn@@ 6947
til 6946
102 6945
39@@ 6944
SI 6939
Zhang 6939
Ish@@ 6937
Flo@@ 6936
parap@@ 6936
illance 6934
thel@@ 6933
Gin@@ 6932
Tot@@ 6932
Hug@@ 6930
aper 6927
Sax@@ 6924
rol@@ 6921
34@@ 6920
Miy@@ 6919
Müller 6916
vić 6915
Río 6914
cros@@ 6913
fo 6911
Reich@@ 6907
Joh@@ 6906
Niv@@ 6903
Gard@@ 6902
Susan 6900
ougou 6900
ā 6897
kar 6895
oque 6895
Æ@@ 6895
mos 6894
Hass@@ 6892
Westph@@ 6890
Lieutenant 6889
Allan 6888
1787 6887
Angelo 6887
ao@@ 6887
ovi@@ 6887
kel@@ 6886
26,@@ 6883
Wild 6882
Dead 6880
instruc@@ 6878
wen 6878
animales 6877
igh 6877
Roman@@ 6876
Neg@@ 6875
Wells 6874
ander 6874
Fabr@@ 6873
Kre@@ 6872
aza 6872
Kate 6871
ò 6871
450 6867
eline 6867
´ 6865
Santo 6864
Leh@@ 6861
uka 6859
améric@@ 6858
ilia 6858
star@@ 6858
convertir 6857
F.@@ 6855
combustible 6855
ń@@ 6855
Wy@@ 6853
Mob@@ 6852
aker 6851
enr@@ 6851
æ 6849
quez 6846
ympi@@ 6845
Day@@ 6844
Cli@@ 6843
Rachel 6843
einture 6842
constant 6841
Light 6839
bli@@ 6838
Information 6836
Cohen 6830
Free 6826
orig@@ 6826
alto 6825
Sea 6823
Yor@@ 6822
mig@@ 6819
contra 6815
ński 6814
Kaw@@ 6812
SM@@ 6811
Porsche 6810
jar@@ 6808
oyen 6808
Web@@ 6807
Schneider 6806
21,@@ 6805
Richmond 6804
etière 6802
Vand@@ 6801
forum 6801
Play@@ 6800
ogue 6799
odon@@ 6797
Nathan 6796
restric@@ 6794
lane 6792
eros 6786
Promotion 6784
Sv@@ 6784
ket 6782
Gabon 6779
Dom 6777
Henriette 6777
folk 6772
lance@@ 6770
Race 6769
Hin@@ 6767
Sok@@ 6764
Story 6764
Perry 6763
Valentin 6763
Strauss 6762
Io@@ 6757
Bess@@ 6756
Nich@@ 6756
Cyr@@ 6754
1785 6752
UC 6749
lice 6748
fus 6745
Tes@@ 6744
uru 6741
pati@@ 6740
Sn@@ 6735
Laurence 6734
inga 6733
wn 6731
Down 6730
Elena 6730
nio 6727
cataly@@ 6725
1778 6724
Nes@@ 6723
Bid@@ 6722
Marius 6719
uth 6718
Mickey 6717
Rwanda 6716
inales 6715
Triple 6714
aru 6714
traf@@ 6713
ovice 6712
dura 6711
isin 6709
titu@@ 6709
glu@@ 6707
Madonna 6706
Nau@@ 6706
Carthage 6704
Ed 6703
Breton 6702
intercep@@ 6701
CR 6700
Coast 6700
Dow@@ 6699
Chav@@ 6694
écolo@@ 6694
informe 6693
Hach@@ 6692
osh@@ 6691
Suz@@ 6690
enclat@@ 6690
logan 6690
BMW 6689
Sali@@ 6689
condens@@ 6689
osom@@ 6688
38@@ 6685
Install@@ 6685
Congr@@ 6684
andra 6684
isra@@ 6683
Kyoto 6682
tas@@ 6682
Beethoven 6681
Sti@@ 6680
aver 6679
Grace 6678
Yan@@ 6678
104 6677
Mom@@ 6677
book 6675
hen 6675
vio 6675
1,7 6673
ders 6673
Law@@ 6672
vr@@ 6671
Inc 6670
gan 6668
éclip@@ 6668
Giorgio 6667
polyg@@ 6667
Hid@@ 6664
Rodol@@ 6664
compensation 6664
jer@@ 6664
Fus@@ 6662
laser 6659
Four 6655
atre 6654
substr@@ 6652
euc@@ 6651
Net@@ 6650
Jo 6649
czy@@ 6649
dom 6648
hand@@ 6648
HD 6647
Spr@@ 6647
Albums 6646
T.@@ 6646
facto 6645
azi 6644
stress 6644
cev@@ 6643
Dean 6642
Japan 6642
auth@@ 6641
wen@@ 6640
ț@@ 6640
Duv@@ 6639
Sis@@ 6639
iris 6639
Kle@@ 6637
cristal 6635
Hut@@ 6634
Magnus 6634
Ox@@ 6633
Chelsea 6632
Orlando 6632
Tex@@ 6632
irrig@@ 6631
unter 6631
Leonard 6630
sain@@ 6629
23,@@ 6628
Gibraltar 6628
sburg 6628
Sept@@ 6626
ologien 6626
rine 6626
Ronald 6625
EC@@ 6622
Tang@@ 6621
MP 6619
Aaron 6617
Hardy 6616
Hob@@ 6615
Yas@@ 6615
ettel 6615
discrimin@@ 6613
Vu@@ 6611
parade 6611
sages 6610
jiang 6609
Sph@@ 6608
Genti@@ 6607
Lal@@ 6607
nitr@@ 6607
rod@@ 6607
inves@@ 6606
pastor@@ 6606
Rim@@ 6605
Jud@@ 6604
azar 6599
Hein@@ 6597
Tanz@@ 6597
Brigade 6596
51,@@ 6593
Sean 6593
elo 6591
head 6589
oon 6589
1760 6588
Bed@@ 6588
ru 6588
Section 6587
icz 6586
Secret 6585
Klein 6584
superfici@@ 6582
tidae 6582
Table 6580
Hyp@@ 6577
Dance 6575
ss@@ 6574
High@@ 6573
gage 6573
Now@@ 6572
ayo 6572
ld 6571
nac@@ 6571
Jin 6570
mite 6569
alle@@ 6568
3000 6566
Electric 6566
ae@@ 6564
Xe 6563
his@@ 6561
wag@@ 6560
Alpha 6558
Bang@@ 6555
Rolling 6555
Way 6555
Ye@@ 6555
Dus@@ 6554
lez 6552
Schw@@ 6550
cond@@ 6550
Hills 6548
variant 6546
owice 6543
dram@@ 6540
Ö@@ 6538
manufacture 6536
igr@@ 6534
tors 6533
Greg 6532
UR@@ 6531
chio 6528
Alessandro 6525
bei 6524
Fav@@ 6522
Jal@@ 6522
chel@@ 6521
1776 6520
ias 6519
pè@@ 6517
ú 6517
combe 6516
contra@@ 6515
RTL 6513
22@@ 6512
xon 6512
Garden 6511
enga 6510
alpin@@ 6507
fj@@ 6507
VA 6506
Rand@@ 6505
Ż@@ 6505
gar 6504
icks 6499
ome@@ 6498
48,@@ 6496
Diam@@ 6496
135 6495
Auschwitz 6491
Abel 6489
Cah@@ 6489
emin@@ 6489
Kings 6487
square 6486
ør@@ 6486
1763 6485
Anim@@ 6480
Girls 6480
Hosp@@ 6480
Design 6476
IV@@ 6476
irat@@ 6476
auses 6475
Bron@@ 6474
Dioc@@ 6474
kom@@ 6473
Cameron 6471
Pig@@ 6468
Trem@@ 6468
Crist@@ 6467
MTV 6466
tag@@ 6461
anni@@ 6459
ù 6459
jard@@ 6458
Tu 6456
enza 6456
effici@@ 6455
Classic 6454
comparti@@ 6453
permission 6450
Grammy 6449
Miles 6448
ocar@@ 6448
aven@@ 6447
Batman 6441
Athletic 6440
You@@ 6440
ated 6440
Put@@ 6439
Peter@@ 6435
phi@@ 6435
Abd 6433
onial 6433
Cabinet 6432
zin 6431
Machine 6429
PT@@ 6429
ict 6429
unk@@ 6428
Memorial 6425
hin 6424
Bridge 6422
Miss@@ 6422
Limous@@ 6421
isition 6421
Pok@@ 6420
garage 6420
1700 6417
Spencer 6417
game 6417
Delta 6416
Hart 6416
200@@ 6415
e. 6415
stra@@ 6414
LM 6409
xu@@ 6409
Ball 6408
Utrecht 6404
leuc@@ 6400
delta 6399
29,@@ 6398
acy 6397
cole 6397
igueur 6392
Watson 6390
vog@@ 6390
Nicholas 6388
Recon@@ 6388
aldo 6387
Vier@@ 6383
NS 6381
pler 6381
→ 6381
Avi@@ 6380
Ques@@ 6378
jk 6377
iva 6375
Hunter 6373
Lanka 6370
migrants 6369
bia 6368
Meh@@ 6367
over 6366
iec 6365
intu@@ 6365
Dah@@ 6364
eum 6364
Quel@@ 6363
Harr@@ 6360
Felix 6359
fascin@@ 6357
González 6355
Khal@@ 6355
Wu 6353
incon@@ 6353
former@@ 6352
ppo 6351
isch@@ 6349
asso 6348
109 6345
1786 6344
edr@@ 6344
aussée 6341
LG@@ 6340
iel 6340
ER 6339
Chim@@ 6338
atern@@ 6336
nombre@@ 6336
soprano 6335
Ruth 6330
lah 6330
guid@@ 6329
SD 6328
Technology 6328
Explo@@ 6327
Khar@@ 6325
orama 6325
quième 6325
Hector 6323
brev@@ 6323
Xbox 6322
Del 6321
lain 6321
LE 6319
hat@@ 6317
onius 6314
erry 6310
Hed@@ 6306
ally 6305
Sound 6303
UK 6301
V8 6301
Yuan 6301
Dakota 6297
Rob 6296
aks 6296
Religion 6295
Circuit 6294
Hop@@ 6292
fier@@ 6291
Wallace 6289
auff@@ 6288
iler@@ 6288
fratern@@ 6286
BO@@ 6285
tribu@@ 6284
28,@@ 6283
perf@@ 6283
sian 6281
2,2 6278
We 6278
commander 6275
eka 6275
born 6273
postul@@ 6272
chy 6269
103 6266
égie 6264
Encyclo@@ 6263
Magic 6263
esh 6263
Hockey 6262
yse 6261
Arkansas 6260
Ltd 6260
aldi 6258
tropical 6256
bure 6255
Rag@@ 6254
subj@@ 6251
letin 6250
Weimar 6249
akov 6249
acum 6248
Fra@@ 6247
vag@@ 6247
Mab@@ 6246
Blake 6245
Portrait 6245
Final 6241
thy@@ 6241
Butler 6240
ney@@ 6239
Abu 6238
iba 6238
Amar@@ 6237
Organ@@ 6235
Gestapo 6234
German@@ 6233
Igor 6233
Jennifer 6233
Apollo 6232
gang 6232
Edo 6230
chu 6229
estes 6229
terti@@ 6226
Schmidt 6225
Soy@@ 6219
lars 6216
var 6215
onciation 6214
uba 6213
Jab@@ 6210
sov 6210
Water@@ 6209
Eug@@ 6205
Adel@@ 6204
Fischer 6204
Plo@@ 6204
OM 6203
Good 6200
Capital 6198
iter@@ 6198
meeting 6198
Pall@@ 6197
Font@@ 6196
curios@@ 6196
1782 6194
Helen 6194
Cun@@ 6191
align 6191
1200 6188
Combat 6188
arina 6188
ouges 6188
pant@@ 6186
Conqu@@ 6185
Council 6185
Virginia 6185
Are@@ 6184
Nevada 6184
Dragons 6183
Muhammad 6182
inda 6182
poem 6182
1,9 6181
ross 6181
doctor@@ 6180
cret 6178
Sara 6176
Kis@@ 6175
jeun@@ 6174
Jack@@ 6173
Slo@@ 6173
Lomb@@ 6172
SR 6172
FBI 6171
finland@@ 6170
asse@@ 6165
gam@@ 6165
into 6165
Zel@@ 6164
cois 6164
scope 6162
County 6160
Anatol@@ 6159
sormais 6159
iya 6157
robot 6157
Spar@@ 6156
Michelle 6154
Tradi@@ 6154
Zar@@ 6154
ambigu@@ 6154
list@@ 6154
Haus@@ 6152
Wellington 6152
Management 6151
arie 6151
HF 6150
Mail@@ 6150
cium 6148
sep@@ 6147
agro@@ 6146
eke 6145
soix@@ 6144
PP 6143
3,2 6140
Dennis 6140
Bus 6135
teil@@ 6135
Cach@@ 6134
Must@@ 6132
Court 6131
gie 6131
placement 6130
chia 6129
Sahara 6128
ishi 6128
oj@@ 6128
scor@@ 6128
stand 6127
sule 6127
cave 6126
macro@@ 6126
Att@@ 6124
Carol@@ 6124
kow@@ 6124
Carmen 6121
Quint@@ 6121
Murphy 6119
satisfac@@ 6119
Barb@@ 6117
persp@@ 6114
Bam@@ 6113
Craig 6112
Motor@@ 6112
Lotus 6111
Shu@@ 6111
Rain@@ 6109
Tau@@ 6109
Moon 6107
ostr@@ 6106
Death 6103
Gw@@ 6103
vali@@ 6100
crip@@ 6099
Lane 6097
gang@@ 6096
soir@@ 6096
Olga 6095
1777 6093
Caus@@ 6093
220 6092
rail@@ 6092
1774 6091
zel@@ 6089
Atlantic 6088
Weber 6087
deg@@ 6085
108 6084
Open@@ 6083
Rodríguez 6082
Tag 6081
oral 6081
Sit@@ 6080
valenci@@ 6080
kW 6079
phé@@ 6077
Chanc@@ 6075
Memphis 6075
pper 6071
kw@@ 6070
Emily 6069
NCAA 6069
Madison 6068
gli@@ 6068
Tai@@ 6065
XVIII 6065
isha 6065
45@@ 6064
Tech 6064
bak@@ 6064
hil@@ 6064
omen@@ 6063
Raz@@ 6061
nels 6060
asis 6058
Alc@@ 6057
EA 6054
Kus@@ 6054
diger 6052
thriller 6052
Ses@@ 6050
ament@@ 6050
Law 6047
Loy@@ 6046
Buffalo 6044
Tun@@ 6043
uj@@ 6042
Ana 6040
Aviation 6039
Mann@@ 6039
Phili@@ 6039
membrane 6039
CBS 6038
Goul@@ 6036
Kru@@ 6036
Cub@@ 6035
trum 6033
bot 6030
udes 6030
Domenico 6029
transit 6029
Fried@@ 6027
zes 6027
TR@@ 6025
Grig@@ 6024
cation 6024
pulmon@@ 6021
Buck@@ 6020
Netflix 6020
Baby 6019
ondr@@ 6016
orps 6015
Kum@@ 6013
xa 6012
provoc@@ 6011
soul 6011
Hampshire 6009
Nacional 6009
106 6007
dias 6007
Indian 6006
Railroad 6006
eren 6005
mid@@ 6004
Arte 6003
carp@@ 6003
Archi@@ 6002
Bail@@ 5999
Phot@@ 5999
wich 5998
Hot@@ 5997
Peg@@ 5997
yards 5997
chenko 5995
maximal 5995
usz 5994
imir 5993
Brah@@ 5991
Da 5991
sta 5990
G.@@ 5984
LC 5984
zard 5984
Luther 5981
veaux 5978
Obama 5976
ths 5976
ț 5974
actylus 5973
mat 5973
.S. 5972
Mobile 5972
6,5 5969
Anat@@ 5968
Yous@@ 5968
bars 5968
Pach@@ 5967
eca 5966
Dream 5965
Buz@@ 5964
Ellen 5963
Mi 5962
Roberts 5957
Sánchez 5956
19@@ 5953
Album 5953
lenti@@ 5953
Mim@@ 5952
Play 5949
transfer@@ 5949
uy 5949
eira 5948
hâ@@ 5948
tial 5947
ís 5947
Grey 5946
hel@@ 5945
phus 5944
antagon@@ 5943
Bonif@@ 5942
elen 5942
vertical 5942
Lang 5940
phon 5940
Berth@@ 5939
Pist@@ 5932
podi@@ 5932
prov@@ 5931
tang@@ 5930
Administr@@ 5927
partici@@ 5926
urg 5926
burn 5925
36,@@ 5924
ST 5923
alls 5923
def@@ 5923
Pop 5922
igna 5921
Bundesliga 5920
Pam@@ 5920
bid@@ 5918
Orchestra 5916
teri@@ 5916
CT@@ 5913
Gouverneur 5912
beur@@ 5912
Bryan 5910
kinson 5909
80@@ 5906
Fitz@@ 5901
Ricardo 5899
O.@@ 5897
Eth@@ 5896
112 5895
hang@@ 5895
Berger 5892
uto 5892
ega 5891
empir@@ 5891
eliers 5889
intest@@ 5889
Jefferson 5885
NBC 5883
iton 5883
Audi 5882
icules 5878
2,6 5877
Fam@@ 5877
Jag@@ 5877
UE@@ 5876
lau@@ 5876
aster 5875
LGBT 5874
omorph@@ 5874
explore 5872
Marqu@@ 5871
dam 5871
arine 5870
urt 5870
ven 5870
gon 5866
Mall@@ 5865
ovski 5862
bab@@ 5861
Rall@@ 5858
Schleswig 5858
hit 5858
Scu@@ 5856
ós 5856
End 5855
Fire 5854
ern 5854
arien 5853
Airbus 5851
Television 5851
Tok@@ 5851
obe 5850
BS 5848
hispan@@ 5848
illar@@ 5848
Sex@@ 5847
ègre 5847
Pol 5846
Amy 5845
Honda 5845
cos 5843
wat@@ 5842
Liz@@ 5840
borde 5840
5,5 5839
Cand@@ 5839
exact 5839
ology 5837
Six@@ 5833
ith@@ 5831
al. 5830
gradu@@ 5826
uple 5826
Natur@@ 5825
ases 5824
hat 5822
Heart 5821
Prof@@ 5821
Ted 5819
stand@@ 5818
glom@@ 5817
sius 5817
uries 5815
Anast@@ 5814
DR 5813
Potter 5813
disco@@ 5813
Rah@@ 5811
Cum@@ 5810
ö 5810
Montana 5808
Buff@@ 5806
atti 5804
cht 5804
teil 5800
Patricia 5797
wel@@ 5797
Spo@@ 5796
alli 5795
CG 5792
itas 5790
sidi@@ 5790
Chas@@ 5785
Pan 5785
olin 5785
appe@@ 5784
hausen 5784
usur@@ 5782
torp@@ 5781
Saskatchewan 5780
Burg@@ 5779
internation@@ 5779
agglom@@ 5777
aurus 5777
idge 5775
vière 5774
Opera 5773
gravit@@ 5773
Bati@@ 5770
Diana 5770
Page 5770
ás@@ 5770
maus@@ 5769
Yu 5768
Edwards 5767
Globe 5767
Thom@@ 5766
Valent@@ 5766
Luca 5762
ws 5762
nan@@ 5761
Lucius 5759
conson@@ 5759
Lati@@ 5758
Morav@@ 5758
Nah@@ 5756
avar@@ 5756
coni 5751
litz 5750
Halle 5749
offic@@ 5749
Kak@@ 5748
SH@@ 5746
Viktor 5746
1772 5745
liga 5745
Düsseldorf 5744
Bien@@ 5743
dru@@ 5743
km@@ 5742
Daily 5741
Candid@@ 5737
cot 5737
Cus@@ 5736
acon@@ 5736
quart@@ 5736
zel 5736
1740 5735
Zor@@ 5735
Kay@@ 5734
ondo 5734
Lip@@ 5733
icher 5733
128 5729
N.@@ 5729
UC@@ 5729
Unicode 5728
uss 5728
Kim@@ 5727
Norfolk 5727
kers 5725
offices 5725
Plant@@ 5724
Serv@@ 5724
arro@@ 5724
For 5723
Lucy 5721
vine 5721
western 5721
édr@@ 5721
As 5719
Wiel@@ 5719
aan 5716
170 5714
Nos@@ 5714
cac@@ 5713
entis@@ 5712
Chré@@ 5709
Kri@@ 5708
Pelle@@ 5708
Jose@@ 5706
fre 5706
ques@@ 5706
sels 5706
eg 5702
esia 5702
Yang 5699
estri@@ 5699
Marin@@ 5694
erlandais 5694
oides 5691
Guang@@ 5690
timent 5689
provinciales 5688
CL@@ 5686
Picasso 5686
Artic@@ 5683
Lou 5683
sonn@@ 5683
Herman 5680
ific@@ 5677
AI 5676
Path@@ 5676
esch@@ 5675
Clin@@ 5673
Did@@ 5673
107 5670
BB 5670
Rossi 5670
für 5669
break 5667
Judith 5666
TE 5665
1779 5664
iller@@ 5663
pouv@@ 5662
Contro@@ 5660
express 5658
Rogers 5657
abdom@@ 5656
pith@@ 5655
Quar@@ 5654
Dul@@ 5648
Nina 5648
Ich@@ 5645
Cole 5642
tane 5642
Yorkshire 5638
oty@@ 5638
Henn@@ 5637
Koh@@ 5637
gin 5636
ear@@ 5632
Ming 5631
cul 5631
RN@@ 5630
44@@ 5629
Hit@@ 5629
KO 5629
omy@@ 5628
Qing 5627
Ibrahim 5622
Autor@@ 5621
McLaren 5620
Vy@@ 5618
Ent@@ 5616
Guide 5615
IBM 5615
Joy@@ 5615
Tower 5614
ough@@ 5614
Café 5613
Lum@@ 5613
Squ@@ 5610
Led@@ 5608
Kov@@ 5606
Pru@@ 5606
1781 5605
phal@@ 5604
Silver 5603
lati@@ 5602
Kingston 5601
tras 5600
Ç@@ 5600
Mati@@ 5599
cat 5599
enny 5599
This 5597
Yv@@ 5597
node 5597
Key@@ 5596
otom@@ 5596
Ramb@@ 5595
azza 5595
ý@@ 5595
person@@ 5593
Suite 5592
China 5590
ucci 5590
win@@ 5590
thes 5589
£ 5589
3,3 5586
olis 5584
Vinci 5583
auf@@ 5583
Digital 5581
cent@@ 5581
nivel@@ 5579
Constitu@@ 5578
2,7 5577
1768 5576
IT 5576
Nig@@ 5574
seig@@ 5573
orqu@@ 5571
Brit@@ 5568
Leon 5568
dérou@@ 5568
ocl@@ 5568
Zen@@ 5567
fortun@@ 5567
lov 5567
othèque 5566
Michel@@ 5565
Braz@@ 5564
Montr@@ 5564
Ward 5564
endorf 5564
Chen 5562
X. 5562
down 5562
Glo@@ 5559
Hotel 5557
Krist@@ 5557
Pete 5556
Rak@@ 5556
ications 5556
cock@@ 5555
NT@@ 5554
relativ@@ 5554
Iron 5551
Pant@@ 5550
Duke 5549
0,2 5547
Form@@ 5544
Sant 5544
otto 5544
doctr@@ 5542
fici@@ 5542
blog 5541
Bord@@ 5540
Cis@@ 5540
Intro@@ 5540
halle 5539
quator@@ 5539
Denver 5536
isl@@ 5534
hap@@ 5533
121 5532
2,8 5532
oper@@ 5532
Jessica 5527
lymph@@ 5527
0,6 5524
monumental 5523
Edmund 5522
assi 5522
115 5521
tore 5521
Run@@ 5517
Myr@@ 5516
Palace 5516
Aujour@@ 5515
Plac@@ 5514
ful@@ 5514
anza 5512
onen 5511
Kenneth 5510
aw 5510
Stéph@@ 5509
Tigers 5509
percep@@ 5509
Cann@@ 5507
zav@@ 5505
Sox 5503
gom@@ 5503
lem 5503
aur 5502
Shir@@ 5500
dinosaur@@ 5500
inas 5500
Flotte 5496
Dob@@ 5495
Scot@@ 5492
Zu@@ 5490
respectiv@@ 5490
perfor@@ 5488
ping 5488
Rut@@ 5486
locomotive 5485
arrangement 5484
nam 5484
Descartes 5483
soccer 5483
BR@@ 5482
ancestr@@ 5481
Communication 5480
Darwin 5479
eval 5479
Adrian 5478
Toyota 5478
Women 5478
script 5476
Mary@@ 5475
amaz@@ 5475
oci@@ 5475
odon 5475
Cran@@ 5473
wor@@ 5473
Observ@@ 5472
Clarke 5471
mental 5470
1720 5468
111 5467
Ind@@ 5467
Newcastle 5466
acu@@ 5464
ather 5464
Chic@@ 5463
Hussein 5463
lair 5462
Country 5460
adin 5460
PM 5458
Romeo 5458
miles 5458
35,@@ 5457
Chor@@ 5457
Steph@@ 5455
&apos;@@ 5454
Afro 5454
Lich@@ 5454
Montgomery 5452
wil@@ 5451
Kinshasa 5450
anni 5450
sini 5450
acent 5448
orb@@ 5446
ican 5444
Jacob@@ 5443
Atlético 5442
acker 5441
onym@@ 5436
Jung 5435
Luk@@ 5435
Communications 5434
Two 5434
Kid 5432
Sever@@ 5432
Tyr@@ 5430
VO@@ 5429
EM@@ 5428
Special 5428
Version 5428
750 5427
Africa 5427
Spider 5424
sans@@ 5424
Boulevard 5422
imper@@ 5422
.C. 5421
Non@@ 5421
Biał@@ 5419
Stevens 5418
final@@ 5418
Total 5416
obsol@@ 5416
loser 5415
Derby 5411
hit@@ 5411
jung@@ 5411
Honduras 5409
Inv@@ 5408
atsu 5408
Manitoba 5407
Carol 5406
Cov@@ 5405
Ami@@ 5403
yr 5403
Hist@@ 5401
SPD 5401
RAF 5400
intitul@@ 5398
Heidelberg 5395
ET 5394
inck 5391
FIA 5389
Cathol@@ 5388
Luz@@ 5386
Basket 5384
KA 5383
mollus@@ 5378
Gil 5375
Constantine 5374
Mozambique 5374
Pog@@ 5374
ī 5374
Riga 5373
him 5373
Zak@@ 5370
CV 5369
scr@@ 5369
Chrysler 5367
band 5367
icon 5365
Za@@ 5362
EN 5360
ardi 5355
Inform@@ 5354
Passion 5353
Gregory 5352
bor 5352
8,5 5351
Eduardo 5350
struc@@ 5350
Kok@@ 5347
Zhou 5347
Klaus 5346
ovol@@ 5346
Feder@@ 5345
SF 5344
Noc@@ 5341
sper@@ 5341
bourne 5340
Hughes 5339
sdorf 5339
Giacomo 5336
Aran@@ 5334
brac@@ 5334
catalog@@ 5332
Brag@@ 5331
Berg 5330
arte 5329
mak@@ 5329
Mussolini 5328
Pat 5328
fes@@ 5326
Mez@@ 5325
karat@@ 5324
Faus@@ 5323
mentions 5323
Alfa 5322
Nim@@ 5321
Hub@@ 5320
acs 5320
oney 5320
Ax@@ 5319
guit@@ 5319
Southern 5318
arrangements 5318
ophy@@ 5318
oscor@@ 5318
set@@ 5318
Owen 5316
dov@@ 5316
anner 5314
lidae 5306
60@@ 5305
1758 5304
French 5300
chu@@ 5300
João 5296
Tsu@@ 5296
Tyler 5295
IL 5293
1660 5292
1773 5291
Plateau 5291
prair@@ 5291
3,6 5290
Olympia 5290
ads 5290
Dat@@ 5289
Infrastr@@ 5289
ails 5289
Uz@@ 5288
Aviv 5285
Mount 5285
Spec@@ 5284
fordshire 5283
playoffs 5282
Bart 5281
ation@@ 5280
entic@@ 5279
Augusta 5278
Juventus 5278
fli@@ 5278
Adi@@ 5276
open 5276
ová 5275
Oakland 5273
lett 5272
3,4 5271
Austr@@ 5271
Edwin 5271
Marines 5270
gate 5270
ño 5270
Mih@@ 5269
123 5268
Ambass@@ 5266
Pearl 5266
essin 5266
Corin@@ 5264
agen@@ 5263
Dess@@ 5262
Martín 5262
0,3 5260
gem@@ 5260
1769 5257
FL 5257
127 5256
Barbar@@ 5256
Mar 5256
Taur@@ 5255
Board 5252
trans 5252
Auto 5251
Bennett 5251
nick@@ 5251
haf@@ 5248
law 5248
inen 5247
stopp@@ 5246
Clair 5245
1755 5244
alif@@ 5244
rane 5244
Sik@@ 5243
Heb@@ 5242
Willy 5241
30,@@ 5240
ID 5239
Concor@@ 5237
plain 5236
seg@@ 5236
Prosp@@ 5235
Duncan 5233
onium 5232
Trust 5231
imen 5231
Goth@@ 5230
ymn@@ 5229
ampton 5228
124 5227
Article 5227
J.-@@ 5227
piè@@ 5225
β 5224
Family 5223
Wei 5223
aser 5223
Mayer 5222
actr@@ 5222
Agu@@ 5221
Å@@ 5221
Id@@ 5220
Bard@@ 5218
andal@@ 5218
Confl@@ 5217
dance 5216
Drive 5215
pluvi@@ 5215
grades 5214
Galil@@ 5213
http 5212
Leeds 5211
Course 5210
anj@@ 5210
timer 5210
Bros 5208
gau 5207
Gob@@ 5206
History 5206
Milwaukee 5206
embarc@@ 5204
isine 5204
coins 5203
inde 5203
1765 5201
ige@@ 5201
Linda 5199
mus 5198
oba 5198
dic 5197
ib 5197
2,1 5196
Zagreb 5196
Fanny 5192
ET@@ 5191
Marl@@ 5191
ush 5191
EF 5187
Kag@@ 5184
atha 5183
1756 5182
Giants 5182
Labrador 5181
Lennon 5181
diagr@@ 5179
frig@@ 5179
mons 5179
Tav@@ 5177
Aux@@ 5175
delle 5173
Hul@@ 5171
stri@@ 5170
sumé 5169
1762 5168
Last 5168
Wein@@ 5167
Ama@@ 5165
Pun@@ 5164
chus 5164
mare 5164
Fall@@ 5163
ante@@ 5162
H.@@ 5159
illers 5156
37,@@ 5153
inver@@ 5150
nem@@ 5150
3,8 5149
Sullivan 5148
Shaw 5145
122 5143
Beh@@ 5140
õ@@ 5139
1771 5138
Coalition 5138
vik 5137
Randy 5136
shū 5136
Malcolm 5134
corro@@ 5134
Windsor 5133
Gill 5132
illus 5132
gets 5131
incor@@ 5130
Dylan 5129
Fantas@@ 5129
addition 5128
yk@@ 5127
Zimbabwe 5126
PO 5125
ship 5125
argum@@ 5122
49@@ 5120
PE 5120
afr@@ 5120
3,7 5119
Togo 5119
OR@@ 5117
Scho@@ 5115
didae 5115
ocul@@ 5115
lom@@ 5114
cargo 5113
Physi@@ 5112
Chuck 5111
Fe 5110
Clu@@ 5109
pide 5106
Sidney 5105
AE 5104
carn@@ 5103
fantasy 5103
Nicaragua 5102
än@@ 5102
SL 5101
ân@@ 5101
DV@@ 5097
amn@@ 5094
Back 5093
3.@@ 5092
Hoch@@ 5091
itiers 5091
Mercury 5090
Dante 5089
bins 5089
Fernández 5088
Hof@@ 5088
Price 5087
psychiatr@@ 5087
sket@@ 5087
comic 5085
Andor@@ 5084
Brow@@ 5083
Casa 5083
this 5083
Rost@@ 5082
light 5082
sino 5082
rats 5081
Andes 5078
benz@@ 5077
Castle 5076
att 5076
akh 5075
Vr@@ 5074
Calgary 5070
engo 5070
117 5069
Anc@@ 5069
Hoh@@ 5068
Doctor 5067
DR@@ 5066
Termin@@ 5066
center 5065
nice 5063
enzyme 5061
sha 5060
otus 5059
Thomson 5058
Plut@@ 5057
ulf 5057
Daw@@ 5055
Dot@@ 5055
enj@@ 5055
Metropolitan 5054
Po 5052
Tram@@ 5052
ovic 5052
Soccer 5051
hav@@ 5051
ă 5051
ausen 5050
oter 5050
Ili@@ 5049
tua 5049
enland 5048
aska 5046
Vol 5045
U.S. 5044
leb@@ 5044
SR@@ 5043
Ins@@ 5042
Josh 5041
popul@@ 5038
aten 5037
phili@@ 5036
Palm@@ 5034
Wolf@@ 5032
dens@@ 5032
Auckland 5031
Jeh@@ 5028
aven 5028
Indianapolis 5026
zio 5026
Orph@@ 5025
sten 5024
aduc@@ 5023
enthal 5022
1730 5021
princi@@ 5020
tortu@@ 5019
audiences 5018
kowski 5018
Akh@@ 5017
anum 5017
elt@@ 5017
tak@@ 5017
tenberg 5017
Hand@@ 5015
Shah 5014
mide 5014
asco 5012
osyn@@ 5012
plum@@ 5011
Frances@@ 5009
EM 5008
Nept@@ 5007
program@@ 5005
Angela 5004
enbach 5004
río 5004
Conference 5003
1759 5001
Fru@@ 4998
NP 4997
Android 4995
tempér@@ 4994
Up@@ 4993
boc@@ 4993
Rit@@ 4991
Summer 4991
you 4991
SMS 4988
eson 4985
Bros@@ 4984
dae 4984
designer 4984
Yuk@@ 4981
ph 4981
Yak@@ 4980
Emil 4978
Bh@@ 4977
Mend@@ 4977
ja@@ 4977
auli@@ 4976
Gug@@ 4975
Bonn 4974
Brom@@ 4974
Carre@@ 4974
eni@@ 4973
Alek@@ 4972
Laos 4972
imin@@ 4971
Federico 4970
podr@@ 4970
Colomb@@ 4969
chie 4967
itis 4967
sio 4967
tier@@ 4967
rente 4966
Von 4965
lik@@ 4964
1757 4963
aland 4963
Eust@@ 4962
Leslie 4962
Giv@@ 4961
Eugene 4960
participantes 4959
ò@@ 4958
auf 4957
1766 4955
AV 4955
onic 4955
endi 4954
Cyril 4953
Guido 4951
Chevrolet 4950
46@@ 4948
Delhi 4948
Horace 4947
urer 4947
9,5 4945
interviews 4945
Alo@@ 4943
Maurit@@ 4943
GR 4942
Paul@@ 4940
Autr@@ 4938
Lamp@@ 4938
Morph@@ 4937
Wall 4937
antal 4936
auti@@ 4933
gun 4932
wak@@ 4932
aler@@ 4931
kh 4931
Hill@@ 4930
Train 4930
beck 4930
consolid@@ 4930
gris@@ 4930
pit 4930
Yun@@ 4929
Poc@@ 4928
Stanford 4928
stages 4928
Rober@@ 4927
Felipe 4926
ink@@ 4926
sala 4926
113 4924
ede 4923
Mb@@ 4921
iman 4920
Samoa 4919
trap@@ 4918
Yosh@@ 4917
heimer 4917
Mare 4916
Bulletin 4915
Nec@@ 4915
SmackDown 4915
turbin@@ 4915
Jamie 4914
Phillips 4913
causa 4913
dra 4913
Pens@@ 4911
gil@@ 4911
igi 4910
DT 4909
Lass@@ 4909
Martha 4906
`@@ 4906
icht 4906
Torres 4905
− 4905
Glob@@ 4904
Schl@@ 4904
Ptol@@ 4903
Dil@@ 4902
Écos@@ 4902
Yale 4901
Jen@@ 4900
yang 4900
Isa@@ 4899
Lay@@ 4899
coronavirus 4899
Ail@@ 4897
abi@@ 4897
Todd 4896
idente 4896
Sent@@ 4895
Nap@@ 4894
cari@@ 4894
Head 4892
1640 4891
Edi@@ 4891
Miz@@ 4889
oris 4888
49,@@ 4887
amen 4887
curs@@ 4887
pie 4887
ANC 4886
Pend@@ 4886
sist@@ 4886
Gaza 4885
Italia 4885
Kid@@ 4885
Kro@@ 4885
kho@@ 4884
Andri@@ 4883
Benn@@ 4881
Emer@@ 4881
bank 4881
excentr@@ 4881
nace 4879
devr@@ 4878
ansen 4877
sentim@@ 4877
California 4876
How@@ 4876
Qué@@ 4876
Atelier 4875
firma 4875
web@@ 4875
kaz@@ 4874
lington 4874
sak@@ 4874
Bey 4873
lam 4872
invol@@ 4871
Kul@@ 4870
Casino 4869
CL 4868
Salv@@ 4867
UL@@ 4867
yenne 4867
1764 4866
Guar@@ 4865
Invent@@ 4865
enas 4865
niti@@ 4865
Curtis 4864
Stan 4864
ary@@ 4864
eer 4863
Kenny 4862
Charl@@ 4861
Agri@@ 4858
Rita 4858
Foster 4857
artic@@ 4857
Gerald 4856
atu 4855
Elec@@ 4854
hir@@ 4854
Ches@@ 4853
Theater 4853
Aver@@ 4850
cueil 4850
Docum@@ 4849
Priv@@ 4848
Mao 4847
Suzuki 4847
Baden 4845
Euph@@ 4845
quem@@ 4845
HS 4844
circu@@ 4844
Villar@@ 4840
Kem@@ 4837
1650 4834
Ern@@ 4834
Tut@@ 4832
configur@@ 4832
ombi@@ 4832
arry 4830
Kop@@ 4829
fes 4829
vos 4829
ý 4829
240 4828
Jonas 4828
yrus 4828
Mig@@ 4827
126 4826
apor@@ 4826
Grap@@ 4822
haus 4822
nen 4822
1648 4820
Pirates 4820
alcal@@ 4819
Einstein 4817
Jov@@ 4817
Mug@@ 4817
lius 4817
Gonz@@ 4814
Powell 4811
Tach@@ 4811
2,9 4810
Gari@@ 4810
Tay@@ 4810
quis@@ 4809
abat 4808
uca 4807
Sass@@ 4806
Traf@@ 4806
acter 4806
ador@@ 4806
uo 4805
atis 4803
Kay 4802
Metal 4802
Pseud@@ 4802
kies 4802
Herschel 4801
Knight 4800
anthrop@@ 4799
shi 4797
48@@ 4796
PF 4796
unga 4795
0.@@ 4794
ello@@ 4794
rho@@ 4794
argu@@ 4791
isp@@ 4789
Model 4788
Auch 4787
hon 4786
kham 4786
zia 4786
avia 4785
idan 4785
wer 4785
Falls 4783
spin 4782
Reynolds 4780
Social 4780
brid@@ 4780
Bath@@ 4779
Classi@@ 4776
Kho@@ 4776
kas 4775
Theodor 4774
acro@@ 4774
Glenn 4771
isseau 4771
2023 4770
38,@@ 4770
Davies 4770
Cag@@ 4769
abo 4769
juli@@ 4769
war 4769
Reyn@@ 4768
acks 4768
Fisher 4767
Oh@@ 4767
Oz@@ 4767
Deg@@ 4766
Sco@@ 4766
bera 4766
Karen 4765
usu@@ 4765
Sof@@ 4763
catch 4762
sanctu@@ 4761
ying 4760
201@@ 4758
valles 4757
ahis@@ 4756
Jul@@ 4755
Limited 4755
190 4754
Trinity 4753
ahl 4753
enc 4752
icum 4752
Canadian 4751
Bergen 4750
disc@@ 4750
CAF 4749
Sek@@ 4749
membran@@ 4749
emie 4748
omi 4748
quera 4748
1767 4747
Palmer 4746
Inspir@@ 4745
Under@@ 4745
Byzant@@ 4739
Vic 4738
foli@@ 4738
iks 4735
Wars 4732
Haf@@ 4731
54,@@ 4730
Pich@@ 4730
Tokugawa 4726
manufactur@@ 4725
Rau@@ 4723
photograph@@ 4723
osi 4722
Enrico 4720
tries 4720
Eas@@ 4719
Gö@@ 4718
Ballet 4717
Holland 4716
MR 4716
Ulrich 4716
Gibson 4714
ković 4714
PD 4713
Tend@@ 4713
Kiel 4711
orer 4709
230 4708
pei 4706
Hunt 4704
320 4703
Kane 4703
Mek@@ 4701
Tampa 4701
A1 4700
big@@ 4700
Jin@@ 4699
chin 4698
Gad@@ 4695
excit@@ 4695
Hart@@ 4694
Pf@@ 4691
music 4691
ogen@@ 4691
scores 4687
‰ 4686
Amp@@ 4685
Brass@@ 4685
diab@@ 4685
47@@ 4684
mouth 4684
Gand@@ 4683
sponsor 4683
c. 4681
compact 4681
skie 4681
Campo 4680
atic 4679
Hann@@ 4678
elas 4678
aber 4677
ana@@ 4677
TH@@ 4676
ő@@ 4676
mentor 4674
1300 4671
Gay 4671
Suez 4671
andez 4671
tali@@ 4671
Eis@@ 4670
Horn@@ 4670
had@@ 4670
scrip@@ 4668
Gó@@ 4664
sinc@@ 4664
DM 4663
Lup@@ 4662
Mell@@ 4662
SL@@ 4662
sue 4662
Euro@@ 4661
stor@@ 4661
Toy@@ 4660
ésim@@ 4657
Fantasy 4655
Hog@@ 4655
Hospital 4654
atch@@ 4654
Erich 4653
Schön@@ 4652
Winston 4652
ancia 4652
AH 4651
1630 4650
yak@@ 4647
Gim@@ 4644
Age 4643
azione 4643
ecki 4643
1761 4642
hibition 4641
mah@@ 4641
opsis 4640
Esther 4639
Benz 4638
Springs 4638
BM 4637
Instruc@@ 4636
remix 4636
1715 4634
CT 4634
exclusive 4634
UR 4633
less 4633
Lopez 4632
anon 4632
cricket 4632
yrin@@ 4630
GR@@ 4628
Bayern 4627
aron 4624
DB 4623
Minsk 4623
argue 4623
har 4623
dt 4622
surg@@ 4622
Alle@@ 4621
mol 4621
sacer@@ 4621
SP 4618
Neill 4616
itage 4616
board 4614
Bilbao 4611
Teresa 4611
possibl@@ 4611
vili 4611
Hind@@ 4609
value 4609
yph@@ 4609
Palomar 4608
actus 4607
Gill@@ 4606
3,1 4605
Burton 4605
Javier 4604
Trail 4604
muscle 4603
eco 4600
enia 4600
Égyp@@ 4600
Miner@@ 4599
Soul 4599
ted 4599
Jeremy 4596
than 4596
Koz@@ 4595
ilio 4595
IB@@ 4594
Vermont 4593
seconds 4592
fig@@ 4591
multiple 4591
rik 4590
Eddy 4588
Pengu@@ 4585
Puerto 4583
Trac@@ 4582
Atari 4579
Data 4579
Poin@@ 4578
stad 4578
Reed 4577
1670 4576
América 4575
Gig@@ 4575
Pieter 4575
AFC 4574
Flash 4573
Vincenzo 4573
Ingrid 4572
1680 4571
Gle@@ 4571
anas 4571
cyan@@ 4571
buc@@ 4569
zano 4569
AJ 4568
ratio 4567
Jesse 4566
chester 4566
Commer@@ 4565
Michele 4563
Stefano 4562
Sund@@ 4561
Symb@@ 4561
Vera 4561
Nest@@ 4559
flag@@ 4559
lord 4559
rug@@ 4558
Winter@@ 4557
mult@@ 4557
oline 4557
anova 4556
Bowie 4552
Psych@@ 4552
Silver@@ 4549
Zé@@ 4549
index 4548
obi 4548
thus 4548
trig@@ 4548
Ear@@ 4547
Nin@@ 4547
tempo 4547
Amad@@ 4546
Leone 4546
sai 4546
Hope 4545
ische 4545
islat@@ 4545
rages 4544
contempl@@ 4543
Rothschild 4542
Ek@@ 4541
Run 4541
Nashville 4539
Herr@@ 4538
gay 4537
1748 4536
ów@@ 4535
Waterloo 4533
Shak@@ 4531
eds 4531
elius 4531
Energy 4528
Ster@@ 4528
Yankees 4528
DI@@ 4525
arum 4525
0,4 4524
Philipp@@ 4524
Kyle 4523
cast 4523
Coh@@ 4522
Gian@@ 4522
Side 4521
Cen@@ 4519
RE 4518
Vander@@ 4517
onis 4517
tem 4517
Novi 4516
unda 4515
Gener@@ 4514
Dynam@@ 4513
Sier@@ 4513
upe 4513
Foot 4512
Percy 4512
Harbor 4511
Milton 4511
Northern 4511
Fior@@ 4510
Luna 4510
Meiji 4510
trefois 4510
ançon 4509
ulos 4509
Princeton 4508
pod@@ 4508
Conc@@ 4507
sea 4506
gun@@ 4505
Regiment 4504
Scor@@ 4503
adan 4503
eins 4503
lil@@ 4503
Lok@@ 4502
PI 4502
Vicente 4501
Programm@@ 4500
ods 4500
Carey 4499
Gib@@ 4498
Leonardo 4498
Zem@@ 4498
pus@@ 4497
Phyl@@ 4495
Syracuse 4495
musulmanes 4493
Vision 4491
Aval@@ 4490
Fey@@ 4490
Frances 4490
Monica 4490
ald@@ 4489
oslav 4487
Bismarck 4486
Brad@@ 4485
bro 4485
South@@ 4484
Leicester 4482
sley 4482
Jr. 4478
Consul@@ 4477
eston 4477
zig 4477
theid 4474
HP 4472
Morrison 4472
has 4472
Aph@@ 4471
fia 4470
protestanti@@ 4470
Nis@@ 4469
Hern@@ 4467
oss 4467
Zach@@ 4466
Hes@@ 4465
Martínez 4465
afa 4465
ingrad 4465
1754 4464
anov 4464
kad@@ 4464
Schul@@ 4463
Rest@@ 4462
GS 4459
umba 4459
Sul 4458
esz@@ 4458
elec@@ 4457
Banks 4456
comprises 4456
minimal 4456
Halifax 4455
Spring 4455
Zag@@ 4454
ström 4453
Colonel 4452
1685 4448
h. 4448
onga 4447
ump@@ 4446
Dalm@@ 4445
clave 4444
äl@@ 4444
slave 4442
véh@@ 4442
jin 4441
Marg@@ 4440
Bez@@ 4438
Cros@@ 4436
Bib@@ 4432
Seb@@ 4430
Infanterie 4428
hardt 4428
Jackie 4427
1753 4425
5.@@ 4425
Battista 4425
Human 4425
jun@@ 4425
Vec@@ 4424
Vog@@ 4422
hu 4422
transporte 4421
Det@@ 4420
horizontal 4420
onnat 4420
bach@@ 4419
ña 4417
descrip@@ 4416
fu 4416
Bella 4415
Silla 4415
mili@@ 4415
Schumacher 4413
longitud@@ 4413
ural 4413
Toul@@ 4412
hara 4411
rano 4410
remake 4409
Isid@@ 4408
McCartney 4407
ecin 4407
enh@@ 4406
dry 4405
1690 4402
2.0 4400
EL 4400
ambassad@@ 4400
Gap 4399
Mason 4399
Morning 4399
Roth@@ 4399
polon@@ 4399
Alejandro 4398
Reichs@@ 4398
WWF 4398
bek@@ 4396
More 4395
3,9 4394
Péro@@ 4393
Calvin 4392
32,@@ 4390
Mann 4390
Gut@@ 4389
Zeus 4389
Murat 4388
essel 4388
best 4386
Library 4384
inho 4384
uve 4383
Dion 4382
obile 4382
puls@@ 4381
Am 4380
Bradley 4380
Edmonton 4380
Monter@@ 4379
Set@@ 4379
bow@@ 4379
0,7 4378
Flu@@ 4378
Robertson 4378
territori@@ 4378
118 4377
Three 4377
Moreno 4375
atra 4374
heavy 4374
Teatro 4373
Willem 4373
carg@@ 4373
haz@@ 4373
Asi@@ 4371
Betty 4370
Industries 4370
Stol@@ 4369
pt@@ 4368
CDU 4367
Anglo 4366
Yi 4366
ril@@ 4365
Essex 4364
Inst@@ 4364
bad 4363
cose 4363
Pug@@ 4362
SB 4362
Providence 4360
Systems 4358
Diesel 4357
Isra@@ 4357
Motors 4357
Pink 4357
Fas@@ 4356
Pic 4356
Brand@@ 4355
Wid@@ 4353
auge 4353
Modern 4352
sei 4352
ina@@ 4351
Hig@@ 4350
Bent@@ 4349
Bird 4349
atio 4349
sail@@ 4349
Sang 4348
aat 4346
rov@@ 4346
Bataillon 4343
Amanda 4342
Minas 4341
Orch@@ 4341
lian 4341
Marse@@ 4339
Buffy 4338
Jav@@ 4338
Jenny 4338
Valle 4336
plane 4334
SN 4333
dex 4333
Piz@@ 4332
Ring 4331
Sega 4330
pore 4330
Haj@@ 4329
Sharon 4329
Plata 4328
monta@@ 4328
tle 4328
Blood 4326
nau 4326
Motor 4325
SAS 4325
enzie 4325
ș 4325
API 4324
FR@@ 4324
Ni 4323
imar@@ 4323
promulg@@ 4323
Elbe 4322
1620 4321
Merlin 4321
andinav@@ 4320
ł 4320
abel 4319
nar 4319
sko 4319
Multi@@ 4318
Florian 4316
114 4315
tech@@ 4315
English 4312
Wey@@ 4312
Esti@@ 4311
Harmon@@ 4311
tens 4310
thode 4310
Cardiff 4309
aly 4308
And 4307
Manufac@@ 4307
Raim@@ 4307
anton 4306
Gn@@ 4305
Ski@@ 4304
330 4302
Sta@@ 4302
Winnipeg 4301
andt 4300
aban 4299
bek 4299
ems 4299
Record 4298
mitt 4298
210 4297
Cardinal 4297
Illustr@@ 4297
baz@@ 4297
ál@@ 4297
islav 4296
Te 4295
Zer@@ 4294
Isma@@ 4292
ML@@ 4291
4,6 4288
Goya 4288
geon 4288
BF 4286
Zw@@ 4286
teo 4286
Sonic 4285
jana 4282
propri@@ 4281
river 4281
Abi@@ 4280
bares 4279
Tis@@ 4278
Jake 4276
Nation@@ 4276
distr@@ 4276
Miranda 4275
model@@ 4275
1751 4274
Bart@@ 4274
132 4273
Australi@@ 4273
Cec@@ 4272
Irish 4272
sters 4272
tius 4272
Luftwaffe 4269
foot 4268
DL 4267
Seth 4267
Kut@@ 4265
Sol 4264
endar@@ 4263
Drake 4262
Video 4261
Deep 4260
distinct 4258
esi@@ 4258
Gloria 4257
Software 4257
polog@@ 4256
NXT 4255
Nico 4255
aliforni@@ 4255
Fuji@@ 4254
Jó@@ 4254
rapid@@ 4254
Giov@@ 4253
chat@@ 4252
UP 4251
Connor 4250
hai 4250
Arrondissement 4249
Shan@@ 4249
investigation 4249
tez 4249
Heinz 4247
Vernon 4247
001 4244
Linn@@ 4243
55,@@ 4242
Schum@@ 4242
olls 4240
horn 4239
Jakob 4238
ien@@ 4238
azzo 4237
Mok@@ 4236
Neuf@@ 4236
Alfredo 4235
ional 4234
kos@@ 4233
torales 4233
vas 4233
Wings 4232
eff 4232
intend@@ 4232
39,@@ 4231
Homer 4231
Archit@@ 4230
écrit@@ 4230
DH 4229
Gang@@ 4229
Horiz@@ 4228
55@@ 4227
Yar@@ 4227
ifs 4227
Angels 4226
What 4226
Andrews 4225
Chop@@ 4225
euve 4223
Euc@@ 4222
Hyper@@ 4222
Jung@@ 4222
oya 4222
roll 4222
So 4220
yers 4220
Petro@@ 4219
ebel 4219
gol 4219
orio 4219
Ú@@ 4219
ì 4217
1745 4216
med@@ 4216
Axel 4215
India 4215
XX 4215
Compar@@ 4214
Floyd 4213
Nazar@@ 4213
ahan 4213
ei@@ 4213
parte 4213
ufs 4213
Nij@@ 4212
précipit@@ 4211
olf 4209
Serra 4206
Cres@@ 4205
Moun@@ 4202
dotes 4202
iso 4202
isto 4202
oi@@ 4201
Belfast 4199
Century 4199
vand@@ 4199
zat 4199
aps 4198
Eb@@ 4194
trin@@ 4194
Water 4193
Ê@@ 4193
Sport@@ 4192
Enrique 4191
ardt 4191
Gene 4190
Typ@@ 4190
enzy@@ 4190
ocr@@ 4190
reproduc@@ 4190
ambo 4189
atar 4189
Spi@@ 4188
Chi 4187
Oy@@ 4187
jure 4186
Dong@@ 4185
staff 4184
ík 4184
balance 4183
Tribune 4182
chil@@ 4182
ević 4182
induc@@ 4182
ogén@@ 4182
plasma 4182
Conan 4181
asia 4179
tt@@ 4179
antage 4178
rah@@ 4177
Má@@ 4176
ind 4176
abad 4175
kos 4175
Catal@@ 4174
Guardian 4174
mera 4174
Wind@@ 4172
ale@@ 4172
cir 4171
contribut@@ 4171
Resp@@ 4170
Stur@@ 4170
olan 4170
Anhalt 4169
Virgin 4169
zhou 4169
0,8 4168
Pavel 4168
Plaza 4168
abore 4167
FS 4166
Joel 4164
116 4162
Building 4162
Dorothy 4162
Warriors 4162
Zam@@ 4162
Willie 4161
Watch 4160
rop@@ 4160
Ellis 4159
Kah@@ 4159
Mathemati@@ 4159
Odessa 4158
Drum@@ 4157
Mayo 4157
Spart@@ 4157
dish 4157
Sob@@ 4156
dollar 4156
enau 4156
Edge 4154
LR 4154
Education 4152
Newport 4152
alus 4152
Christoph 4151
ograd 4151
lerin 4150
yar@@ 4150
Naval 4148
oft 4147
vik@@ 4147
Gran 4146
Aston 4145
Fed@@ 4145
mani 4144
Development 4143
Swe@@ 4143
frustr@@ 4142
wang 4141
People 4140
Janet 4136
Silv@@ 4136
MT@@ 4134
Spin@@ 4134
stan@@ 4134
berry 4131
tural 4130
yt@@ 4130
Bang 4129
Luch@@ 4129
recht 4129
ria 4128
auss 4127
IN 4126
abo@@ 4126
Battle 4123
Novgorod 4123
Rivera 4123
Grass@@ 4122
asser@@ 4121
ead 4121
aft 4120
inne 4119
postal 4117
Chan 4116
Pho@@ 4115
Schwar@@ 4115
rif@@ 4115
U.@@ 4114
Roses 4113
pH 4113
280 4112
world 4112
Stella 4111
Mohammad 4110
oly@@ 4110
tros 4110
tape 4109
21@@ 4108
Nun@@ 4108
onz@@ 4108
Sle@@ 4106
rom 4106
Sich@@ 4105
Stir@@ 4105
Well@@ 4105
eberg 4104
GNU 4103
Sussex 4103
éridi@@ 4103
57,@@ 4102
Dos@@ 4102
Philipp 4101
Stav@@ 4100
ē@@ 4099
Mills 4096
Woman 4094
Bernhard 4093
CH 4093
sat 4093
Storm 4092
1710 4091
Cey@@ 4091
nev@@ 4091
Qui@@ 4090
ayashi 4090
fragment@@ 4090
1747 4089
Carth@@ 4089
6.@@ 4088
Dut@@ 4088
away 4088
ân 4088
Oswald 4087
vigil@@ 4086
Gond@@ 4085
nov 4085
Captain 4084
NC 4084
Exper@@ 4083
coach 4083
Forbes 4082
multiplic@@ 4082
cases 4081
sik@@ 4081
Dug@@ 4080
aar 4080
vivi@@ 4080
évrier 4080
Philosophie 4079
100@@ 4078
260 4078
Ya@@ 4078
anal 4077
Agen@@ 4076
owa 4075
kai 4074
ozo@@ 4074
70@@ 4073
1752 4072
Tik@@ 4071
Wester@@ 4071
129 4070
Adol@@ 4069
Ahmad 4068
Telec@@ 4068
okie 4068
Australian 4067
supr@@ 4067
liger 4064
BE 4063
Command 4063
Quir@@ 4062
apo 4062
Regina 4061
Sug@@ 4061
Vidal 4061
erk@@ 4061
pert 4061
Wilhel@@ 4060
KS 4058
franqu@@ 4058
yx 4058
Scr@@ 4057
shan 4057
Singles 4056
aram@@ 4056
amus 4055
dev 4055
ilis 4053
7.@@ 4052
Lein@@ 4052
MR@@ 4052
Torre 4052
otr 4052
Ott@@ 4051
footbal@@ 4051
BP 4050
tad@@ 4050
Porter 4049
Songs 4044
Sultan 4044
1713 4042
Hous@@ 4042
Liberty 4041
ahl@@ 4041
bern@@ 4041
1400 4040
leen 4040
Beck 4039
wara 4039
yu@@ 4039
Saw@@ 4038
ńsk 4038
1550 4037
Fraser 4037
Jay@@ 4036
Matthias 4036
Sherman 4036
TNT 4035
aia 4035
ram 4034
Format 4033
@ 4032
ayan 4032
ht 4032
pau@@ 4032
Burn@@ 4030
cel 4030
sad@@ 4028
Eduard 4027
asit@@ 4027
Bél@@ 4026
Sarajevo 4025
Vega 4025
Fall 4024
prior@@ 4024
Queens 4023
Hod@@ 4022
krit 4022
Minh 4021
omin@@ 4021
Eich@@ 4020
Raw@@ 4019
Somerset 4019
ferr@@ 4019
1741 4018
FP 4018
ological 4018
Dmitri 4017
175 4012
[...]
