， 21332614
的 13262743
。 12382365
、 4786949
年 4388944
在 3924425
（ 3213067
） 3208600
是 2971431
. 2190708
和 2170512
月 2033848
了 1817104
於 1671309
人 1552587
為 1518669
日 1338672
有 1321443
中 1232755
》 1222109
《 1222093
· 1214147
为 1212414
- 1106965
他 1032762
被 1017955
： 936914
「 929291
」 929151
上 911550
大@@ 896170
與 864819
“ 840666
也 840420
” 838685
一@@ 785669
後 777343
而 770155
由 769839
以 722595
及 691432
等 674400
1 661170
到 657232
于 651496
" 585596
中@@ 584061
； 570130
2 539496
与 538585
) 533521
至 530185
( 528140
但 520322
地 502983
不@@ 501447
3 498514
, 493702
會 493334
斯 475191
州 460365
下 457633
一个 457395
位 456439
其 456353
名 455221
西@@ 454861
都 452416
后 438603
者 432088
長 431035
來 430710
4 429773
子 422760
站 415995
時 412827
大 410311
三@@ 406127
5 398578
或 398228
對 391797
之 391269
南@@ 382910
之@@ 381863
部 381472
出 378648
道 370129
人@@ 364745
不 364586
市 362197
6 361437
10 361276
德 360474
性 359181
新@@ 358676
省 355868
用 349325
區 347519
可以 346299
并 346165
高@@ 342825
8 337488
7 337334
德@@ 333922
多@@ 332757
山 332504
所 331770
北@@ 326485
尔 326391
阿@@ 326292
日@@ 323741
中国 323156
斯@@ 321811
特@@ 321389
家 320721
日本 319845
12 319568
使用 318488
克 317655
前 316174
第 310263
小@@ 309562
向 307228
9 306918
克@@ 306881
拉@@ 306797
区 304934
米 302638
海@@ 300439
香港 296786
里 294670
; 292152
特 291960
会 290016
曾 289841
地@@ 289805
时 289533
将 287420
包括 286563
以及 286017
新 285589
作 283154
她 282824
政府 280992
县 280895
化 280723
安@@ 280372
其中 280286
分@@ 279741
科@@ 279480
就 279419
多 278375
文@@ 277926
一個 277711
金@@ 277593
上@@ 277301
成 276732
線 274965
11 274528
並@@ 274181
公@@ 274115
公司 272417
有@@ 270292
人口 269018
对 268937
巴@@ 268340
/ 266543
法 266540
路 265777
水@@ 264859
軍 263479
: 260833
全@@ 259640
爾@@ 258180
入 257498
主要 257345
面 253097
生 252673
力 252109
以@@ 251995
天@@ 251303
自@@ 250074
馬 248533
拉 245516
個 244298
法@@ 242695
科 242029
王@@ 242028
卡@@ 238919
本@@ 238199
主@@ 237730
年@@ 237542
縣 236998
任 236790
分 235041
國@@ 233831
李@@ 233040
二@@ 232703
出@@ 232071
加@@ 231697
又 230955
尔@@ 230251
军 230076
城 229994
利 229183
稱 228550
利@@ 227114
山@@ 226789
行 226773
四@@ 226053
式 224392
國 223253
內 222028
該 220982
河 220873
可 220242
一 219269
其@@ 219036
重@@ 218705
局 218693
將 217697
外@@ 215785
爾 214266
其他 213059
五@@ 212835
度 212594
该 211221
亦 210589
事 210046
个 209881
尼@@ 209522
行@@ 208801
型 208333
平方公里 206456
它 206437
文 205448
已 205198
前@@ 204716
下@@ 204330
因 204299
美國 204240
臺 203658
西 203538
因此 203060
马@@ 202470
軍@@ 202103
美@@ 201713
长 200939
位于 200581
起 200420
定 200357
期 200067
世界 199973
同@@ 199231
林@@ 198719
布@@ 198628
最 198061
從 198033
能 197835
此 195760
可@@ 195223
格@@ 193847
外 192810
相@@ 192196
生@@ 190636
大学 189900
使 189400
亞@@ 188814
村 188760
地区 188103
哈@@ 187350
車 187099
更 186329
並 185173
東@@ 184925
正@@ 184750
台 184128
派 184119
製 182688
原@@ 181476
南 181376
普@@ 181355
从 181334
自己 181161
體 180888
所@@ 180671
号 180506
器 179922
本 179748
里@@ 178764
約 178533
东@@ 178127
夫 177930
海 177263
自 177157
比 176771
制 176408
国@@ 176169
水 175754
美国 175190
交@@ 174807
中心 174434
手 174195
名@@ 174109
士 173315
线 173142
高 173122
成立 172520
研究 172519
王 172474
可能 171911
政治 171718
十@@ 171453
古@@ 171435
天 170745
兩@@ 170529
次 170420
工作 170207
明@@ 169420
這@@ 169243
號 167838
伊@@ 167287
平@@ 167100
基@@ 166877
20 166866
神@@ 166814
開始 166654
小 166567
民@@ 166256
吉@@ 166044
波@@ 166022
要 165844
& 165842
国 165798
市镇 165769
則 165000
代表 164305
林 164120
镇 164101
成@@ 163387
即 163238
得 162645
各@@ 162523
屬 162011
後@@ 161454
開@@ 161028
場 160925
清@@ 160599
表示 160566
合@@ 160256
安 159777
由@@ 159174
首@@ 159170
隊 159147
之一 158627
来 158423
白@@ 158066
將@@ 156954
明 156590
内 156045
体 156035
不同 156026
說 155732
格 155609
属 154971
無@@ 154912
比@@ 154731
座 154390
處 153773
球 152697
家@@ 152449
物 152399
達 152171
部分 152093
流@@ 151746
會@@ 151423
量 151317
两@@ 150997
石@@ 150923
此@@ 150029
改@@ 149425
發@@ 149261
學@@ 149245
率 147719
— 147219
% 146930
東 146037
保@@ 145625
指 145294
总@@ 145229
工@@ 145173
官 144993
法国 144827
_ 144637
武@@ 144167
元 143805
去 143556
為@@ 143113
副 142528
作品 142329
年代 142030
集 141222
罗@@ 141181
著 141080
光@@ 140916
卡 140489
开始 140381
公里 139994
这 139792
雷@@ 139539
金 139218
院 139175
沙@@ 139035
把 138695
羅 138683
中國 138492
方 138413
进行 138153
台灣 138141
賽 137691
瓦@@ 137673
戰@@ 137485
正式 137322
手@@ 137163
国家 137096
一些 137070
而@@ 137011
音 136829
如 136532
間 135969
學 135598
15 135387
长@@ 135350
總@@ 135172
片 134989
发@@ 134540
時@@ 134282
开@@ 134198
级 134188
太@@ 133914
打@@ 133783
點 133400
星 133332
提供 132616
城@@ 132591
成为 132500
回@@ 132452
反@@ 132438
八@@ 132151
因@@ 132145
30 131843
氏 131629
語 131521
尼 131345
進行 131285
行政 131123
电@@ 130825
所有 130622
立@@ 130598
和@@ 130450
機 130354
口 130101
他們 130086
事@@ 129850
城市 129539
六@@ 129395
代 129383
地區 128915
光 128634
基 128183
无@@ 128036
系 127879
通@@ 127816
维@@ 127386
队 126866
成為 126228
兵 125911
语 125796
最@@ 125276
米@@ 125241
百@@ 125223
场 124800
塔@@ 124641
文化 124588
心 124449
國家 124389
第一 124112
段 124002
内@@ 123918
大學 123805
維@@ 123799
案 123671
內@@ 123487
称 123178
2010 123123
建@@ 122875
主 122023
受 121921
族 121634
子@@ 121570
直@@ 121465
周@@ 121138
當@@ 121052
原 121009
推@@ 120621
则 120567
才 120560
学 120195
江@@ 119655
还 119584
获得 119373
政@@ 119206
女 119103
教@@ 118987
理 118903
均 118713
任@@ 118684
意 118552
作@@ 118393
提@@ 118365
约 118358
亞 118332
電@@ 118144
形 117929
數 117863
以下 117779
亚@@ 117769
市@@ 117757
轉@@ 117335
生活 117318
接@@ 117139
方@@ 117080
16 116285
代@@ 116212
因為 116038
第一@@ 116015
formula 115923
像 115900
色 115653
人物 115550
世@@ 114958
洛@@ 114660
面積 114526
没有 114376
英@@ 114262
18 114179
他们 114114
北 113867
福@@ 113578
事件 113573
21 113491
我 113330
元@@ 113138
認為 113093
動 113033
府 112709
室 112521
塞@@ 112421
立 111971
台@@ 111272
電影 110795
通过 110693
目前 110438
島 110339
历史 110212
好 110181
車@@ 110170
字@@ 109989
19 109853
華@@ 109712
车 109603
战@@ 109525
指@@ 109191
當時 109139
女@@ 109094
埃@@ 109078
老@@ 108614
收@@ 108567
數@@ 108494
机 108367
管 108012
2019 107995
較 107875
重 107744
但是 107700
军@@ 107651
2011 107308
版 107194
空@@ 107120
門 106948
起@@ 106844
森 106836
加 106811
青@@ 106706
管理 106463
足球 106461
羅@@ 106432
2009 106377
14 106190
花@@ 106010
馬@@ 105937
处 105882
达 105703
陳 105356
13 105293
蘭@@ 105275
用@@ 105114
2016 105036
死 104822
同 104789
級 104675
常@@ 104349
員 104046
經@@ 103821
再 103809
田@@ 103747
认为 103564
火@@ 103441
加入 103440
曲 103353
過 103230
同年 103176
木@@ 103171
合 103160
非 103065
17 102906
共@@ 102883
商@@ 102873
師 102733
歷史 102554
書 102389
2018 102330
該@@ 102326
發 102324
民 102239
讓 102177
重要 102169
進 101907
政 101732
塔 101675
学院 101665
学@@ 101516
勒 101487
區@@ 101229
客@@ 101222
第二@@ 101126
2012 101113
永@@ 101050
頭 101011
防@@ 100972
郡 100939
门 100807
港 100422
戰 100311
点 100297
下辖 100153
入@@ 100050
2013 99839
時間 99817
心@@ 99612
流 99475
堂 99358
例 99330
需要 99258
圣@@ 99229
信@@ 99129
支持 99098
2017 99062
着 98861
便 98762
委员会 98746
2014 98741
种 98602
教育 98591
江 98551
万@@ 98363
乡 98281
花 98208
建立 98125
生平 98106
2015 98087
只 97894
九@@ 97865
说 97793
伯@@ 97766
姆 97758
理@@ 97655
影@@ 97643
士@@ 97534
字 97431
宗 97346
角 97252
張@@ 97202
艾@@ 97114
面@@ 97109
员 97073
正 97006
平 96946
地方 96892
{ 96855
通 96799
修@@ 96657
美 96647
獲得 96636
今 96612
威@@ 96561
共 96543
權 96431
博@@ 96262
取 96042
受@@ 96041
機@@ 95811
25 95676
泰@@ 95595
回 95480
托@@ 95458
铁路 95424
路@@ 95422
要求 95407
河@@ 95398
师 95300
zh 95080
黑@@ 95063
史 95038
界 95032
完成 94960
作为 94636
布 94608
希@@ 94329
千@@ 94236
2008 94021
堡 93999
列@@ 93975
同時 93943
黃 93847
仍 93834
對@@ 93579
} 93363
后@@ 93311
工 93265
华@@ 93264
由于 93198
車站 93150
黄@@ 93017
2020 93004
曼 92995
恩 92980
单位 92970
教 92916
黨 92770
七@@ 92582
石 92571
例如 92443
經 92428
制@@ 92387
品 92282
視 91914
選@@ 91830
纳 91797
对@@ 91795
類 91776
史@@ 91766
半@@ 91578
在@@ 91572
設 91543
愛@@ 91378
] 91095
奇 91081
及@@ 91058
工程 90996
[ 90956
田 90945
街 90813
成功 90811
梅@@ 90799
帶 90647
方式 90634
傳@@ 90318
得到 90226
受到 90097
甲@@ 90056
灣 89916
第二 89821
很 89771
種 89701
道@@ 89659
中央 89416
迪@@ 89326
定@@ 89317
除 89289
關 89163
张@@ 89159
目 89129
奥@@ 89116
上海 89095
發展 88876
分布 88857
集@@ 88855
業 88837
歲 88794
演@@ 88756
机@@ 88736
方面 88687
一般 88664
程 88647
动@@ 88610
纳@@ 88492
列 88480
身 88303
24 88214
参加 88199
世 88160
苏@@ 87962
人民 87760
復 87693
索@@ 87651
先@@ 87620
莱@@ 87391
往 87298
得@@ 87261
情@@ 87225
该@@ 87225
萬@@ 87190
时@@ 87136
聖@@ 86998
每@@ 86969
每 86950
通常 86942
存在 86918
系统 86845
亚 86689
單@@ 86674
前往 86653
龍 86649
奧@@ 86287
战 86249
且 86162
达@@ 86123
館 86005
件 85955
东 85946
增@@ 85889
车@@ 85842
给 85803
7@@ 85799
一種 85598
之后 85456
真@@ 85388
8@@ 85317
層 85276
为@@ 85261
信 85110
莫@@ 85085
發現 84974
商 84955
系統 84943
2001 84939
校 84930
義@@ 84890
令 84678
三 84667
專@@ 84570
化@@ 84524
兰@@ 84502
弗@@ 84430
納@@ 84388
人口密度 84282
星@@ 84263
转@@ 84210
建 84165
物@@ 83978
传@@ 83860
数 83831
2007 83776
口@@ 83770
另 83710
季 83660
動@@ 83564
籍 83498
22 83396
登@@ 83299
查@@ 83242
－ 83233
關@@ 83165
寺 83066
夫@@ 82966
书 82779
就是 82767
土@@ 82744
然而 82671
同时 82638
那@@ 82601
提出 82486
未 82262
射@@ 82255
空 82166
瓦 82165
社 82093
深@@ 82076
一名 82022
过 81880
考@@ 81861
冠 81797
灣@@ 81642
形成 81614
部@@ 81443
耶@@ 81421
另外 81384
造 81140
達@@ 81110
官@@ 80818
帕@@ 80813
湖 80760
國際 80705
牌 80687
担任 80624
節 80591
進@@ 80513
張 80482
所以 80463
萨@@ 80460
見 80454
6@@ 80366
州@@ 80276
聯@@ 80257
最大 80237
2006 80214
端 80167
精@@ 80130
动 80128
獎 79998
世纪 79867
具有 79867
票 79720
当@@ 79677
波 79626
23 79597
进@@ 79566
蘭 79450
意@@ 79413
组织 79405
風@@ 79404
摩@@ 79299
封@@ 79282
公 79141
初@@ 78973
团 78844
皮@@ 78720
主席 78677
佈 78552
宣布 78302
北京 78297
性@@ 78258
鲁@@ 78110
只有 78082
胡@@ 78078
最高 78067
宣@@ 77917
一种 77871
治 77863
歌曲 77809
川 77742
薩@@ 77740
漢@@ 77691
球@@ 77532
神 77493
英國 77463
A 77462
比賽 77384
唐@@ 77323
擔任 77319
间 77316
放@@ 77312
過@@ 77258
投@@ 77121
司@@ 77055
汉@@ 77037
学校 77014
故事 76904
会@@ 76856
校@@ 76847
萬 76839
根據 76809
帝 76765
系列 76687
9@@ 76636
马 76623
情 76500
合作 76470
权 76347
遊戲 76341
巴 76252
密@@ 76231
章 76220
富@@ 76040
源 75989
音@@ 75924
一位 75921
接受 75911
朝 75904
支@@ 75893
2021 75780
学名 75665
此外 75440
北部 75378
出現 75251
係 75158
船 75146
首次 75105
做 74912
更@@ 74902
置 74865
現@@ 74754
组 74735
gt 74689
食 74673
附近 74654
卻 74609
先 74606
= 74587
連@@ 74483
这些 74481
知 74460
发 74453
杜@@ 74375
朱@@ 74306
被@@ 74234
景@@ 74106
應 74101
小行星 74027
首 74024
給 73878
头 73874
劇 73871
消@@ 73737
28 73696
2000 73661
造成 73655
值 73625
龍@@ 73478
號@@ 73435
角色 73435
如@@ 73399
游戏 73378
體@@ 73275
實@@ 73235
印度 73234
M@@ 73142
蘇@@ 73141
发展 73063
经 72790
属于 72785
影響 72783
一直 72768
类 72765
发现 72757
2005 72620
這些 72317
專輯 72248
款 72228
樂@@ 72188
攻@@ 72172
寫 72147
赛 72034
自由 72021
德国 71996
常 71939
一座 71931
依@@ 71898
少@@ 71895
轄 71879
数@@ 71832
女性 71781
團 71748
參@@ 71719
排@@ 71614
停@@ 71496
宗@@ 71440
時期 71422
落 71421
26 71367
組 71361
取得 71318
000 71305
层 71256
增加 71254
修 71120
嘉@@ 71057
非@@ 71034
面积 70988
曼@@ 70943
劉@@ 70910
这@@ 70879
体@@ 70875
近 70834
时间 70793
設計 70683
魚 70615
開 70578
群 70534
这个 70520
論 70462
身@@ 70269
中华人民共和国 70136
广@@ 70108
lt 70093
陈@@ 70038
刘@@ 69922
二十@@ 69910
国际 69887
這個 69880
活動 69865
沒有 69827
沒 69810
社會 69806
的@@ 69721
南部 69704
命名 69675
之間 69534
配@@ 69461
運@@ 69443
任何 69439
歌 69435
岛 69395
如果 69393
微@@ 69378
0 69272
当时 69255
承@@ 69077
司 69041
期间 68951
素 68951
表@@ 68942
英 68936
屆 68912
康@@ 68857
相 68849
學校 68809
航@@ 68750
共有 68725
延@@ 68703
罗 68692
甲 68666
兰 68652
預@@ 68637
雙@@ 68580
選 68483
引@@ 68465
之前 68436
海拔高度 68317
向@@ 68273
班 68239
還@@ 68221
阳 68116
沃@@ 68078
當 68042
低@@ 67983
街道 67845
省@@ 67780
除了 67705
T@@ 67643
架 67576
报 67568
近@@ 67545
則@@ 67543
不是 67506
境 67479
底 67362
各 67340
控制 67298
瑞@@ 67294
中国@@ 67244
展 67236
超@@ 67201
至@@ 67185
根据 67168
设计 67165
廣@@ 67078
店 67059
D@@ 67045
施@@ 67028
一次 66982
岁 66908
根 66901
雅@@ 66854
27 66827
次@@ 66821
等@@ 66723
时期 66645
失@@ 66637
邊 66571
春@@ 66512
發行 66450
党 66428
奇@@ 66416
图@@ 66385
霍@@ 66270
解@@ 66245
赫@@ 66145
31 66126
当 66119
车站 66048
皆 66003
届 65959
報 65919
活@@ 65905
言 65886
打 65807
建筑 65780
故@@ 65774
斯特 65764
看@@ 65746
单@@ 65727
助 65617
居 65496
版本 65403
' 65375
治@@ 65319
短@@ 65315
电影 65290
害 65257
們 65209
雷 65172
节 65109
問題 64987
野@@ 64967
命 64922
納 64880
主义 64847
英国 64806
勒@@ 64774
無 64751
参@@ 64735
木 64584
恩@@ 64557
節目 64476
話 64460
G@@ 64453
平均 64316
因为 64270
清 64233
氣 64207
大量 64203
二 64158
反 64046
具 64001
追@@ 63957
植物 63929
力@@ 63884
領@@ 63857
登 63807
目@@ 63779
友 63741
母 63735
資@@ 63697
板 63683
鄉 63615
教授 63596
出版 63586
酸 63527
越 63489
进 63444
顿 63056
感@@ 63034
然 63031
地理 63001
圖 62940
現 62940
副@@ 62885
發生 62865
港@@ 62854
29 62727
庄 62703
舉行 62687
委 62641
一起 62594
非常 62487
獲 62392
想 62380
病 62338
佛@@ 62309
比赛 62220
宋@@ 62212
管@@ 62205
組@@ 62155
直接 62048
別 62042
射 61917
托 61916
之间 61906
诺@@ 61808
2004 61696
警@@ 61641
組織 61579
兵@@ 61507
位置 61494
全国 61448
问题 61373
影响 61317
主任 61234
推出 61174
岸 61149
作為 61120
期間 61119
已经 61031
有限公司 61027
越@@ 60991
100 60948
方法 60872
曾@@ 60870
強@@ 60853
中央@@ 60850
業@@ 60711
房 60698
党@@ 60637
質 60596
5@@ 60574
降@@ 60556
经@@ 60532
編@@ 60514
峰 60493
賽@@ 60475
門@@ 60441
B@@ 60406
C 60359
佩@@ 60283
取@@ 60273
望 60266
血@@ 60225
客 60161
重新 60153
歌@@ 60132
思@@ 60122
哥@@ 60097
電 60093
让 60092
殺 60074
甚至 60066
該國 60060
電視 60049
著名 60048
他@@ 59963
未@@ 59933
頓 59931
玉@@ 59923
奖 59900
好@@ 59713
带 59628
游@@ 59601
那 59549
左@@ 59491
升@@ 59483
萊@@ 59349
進入 59349
职 59331
擊 59306
雖然 59304
志@@ 59153
P@@ 59137
形@@ 59057
查 59054
| 59053
迪 58976
蒙@@ 58939
述 58917
包含 58913
女子 58907
经济 58835
出现 58741
干@@ 58648
交通 58633
解 58629
气@@ 58588
图 58545
发生 58486
航空 58484
假@@ 58457
最佳 58447
华 58439
利用 58381
复@@ 58351
西班牙 58282
实@@ 58254
形式 58171
播出 58156
称为 58142
廳 58053
獲@@ 57921
两个 57889
魯@@ 57878
務@@ 57872
业 57849
夏@@ 57698
低 57616
守@@ 57528
编@@ 57483
第三@@ 57476
第三 57461
蒂@@ 57438
成員 57339
松@@ 57334
接 57259
足@@ 57198
福 57195
进入 57195
傳 57194
包@@ 57185
華 57168
少 57157
表 57122
義 57107
俄@@ 57105
京@@ 57072
现@@ 57059
谷 57043
風 57034
男@@ 56934
50 56905
直到 56889
伊 56856
核@@ 56816
倫@@ 56769
专@@ 56711
丁@@ 56595
列表 56565
貝@@ 56515
選舉 56506
月@@ 56452
季@@ 56419
留@@ 56384
變 56271
學院 56208
場@@ 56152
演 56090
普 56054
乌@@ 56033
行政区划 56009
第十@@ 56008
击 55955
完全 55948
住 55939
of 55905
战争 55859
觀@@ 55845
並且 55843
職 55803
展@@ 55739
頭@@ 55723
西部 55721
S@@ 55714
最終 55671
变@@ 55661
感 55655
共同 55642
期@@ 55582
創@@ 55555
縣@@ 55529
朝@@ 55515
B 55510
10@@ 55483
活动 55477
條 55405
K@@ 55363
出生 55356
剧 55354
火 55341
不能 55324
都@@ 55200
男子 55167
密 55138
总面积 55129
書@@ 55098
技术 55060
居@@ 55009
C@@ 55003
切@@ 54987
社@@ 54980
美國@@ 54907
諾@@ 54878
分別 54865
设 54863
运@@ 54798
參加 54787
一部分 54774
音樂 54723
再次 54722
关@@ 54698
书@@ 54690
演出 54643
皇@@ 54638
位@@ 54630
整@@ 54612
计划 54571
何@@ 54537
丹 54517
家族 54497
红@@ 54427
贝@@ 54414
龙@@ 54407
2003 54381
后来 54381
總 54340
馆 54335
藏@@ 54311
但@@ 54299
末 54232
初 54207
變@@ 54147
致@@ 54051
家庭 54042
個@@ 54040
這 54009
民主 53993
橋 53946
桥 53911
跟 53880
決定 53820
政策 53794
菲@@ 53761
联@@ 53758
附@@ 53718
话 53710
送 53707
師@@ 53691
不過 53682
大陆 53653
氣@@ 53638
居民 53623
月台 53562
希望 53559
能力 53487
共和 53378
生涯 53325
逃@@ 53325
双@@ 53301
歐@@ 53283
万 53261
強 53246
裡 53234
料 53189
意大利 53159
许多 53078
存 53071
走 53028
船@@ 52979
備 52975
詞 52963
塞 52941
徐@@ 52812
巴士 52768
鐵 52689
早期 52527
草@@ 52500
而且 52494
服務 52462
条 52434
通過 52345
抗@@ 52324
右@@ 52317
果 52309
古 52222
景 52160
预@@ 52143
學生 52114
極@@ 52103
功能 52078
著@@ 52050
写 52032
諾 52016
局@@ 51998
當地 51953
论 51869
衛@@ 51835
服 51814
革命 51795
草 51792
世紀 51775
词 51772
落@@ 51657
湖@@ 51654
語@@ 51648
署 51640
即@@ 51581
人士 51502
最终 51485
寶@@ 51471
你 51434
守 51432
園 51407
紅@@ 51353
牛@@ 51336
步 51317
娜 51313
速 51309
兩個 51274
作用 51249
看 51132
L@@ 51127
親@@ 51102
爱@@ 51034
委員會 51030
告@@ 51022
離 50988
龙 50984
安全 50978
以上 50977
止 50970
平方千米 50949
歐洲 50924
死@@ 50909
秀 50882
供@@ 50869
圖@@ 50861
应 50833
鐵@@ 50822
列车 50821
2002 50765
造@@ 50720
门@@ 50711
周 50706
律 50694
大部分 50673
索 50658
戰爭 50646
經濟 50606
殿 50416
克斯 50388
白 50371
職@@ 50371
略 50325
混@@ 50299
调@@ 50288
島@@ 50266
the 50165
N@@ 50138
宁@@ 50114
升 50097
若 50089
產 50026
法律 50019
H@@ 49988
運動 49982
A@@ 49945
隆@@ 49920
民族 49878
丁 49856
察@@ 49755
擊@@ 49706
曲@@ 49651
結@@ 49627
判@@ 49566
或@@ 49566
稱@@ 49537
應@@ 49514
森@@ 49432
方向 49362
会议 49340
选@@ 49309
40 49294
隆 49292
許多 49227
今@@ 49185
使得 49180
中華民國 49172
模式 49159
学家 49144
艦 49132
已經 49119
最後@@ 49076
厅 49064
官方 49035
域 49007
聲 48944
吳@@ 48933
記 48918
F@@ 48896
保 48893
色@@ 48885
气 48879
良 48876
4@@ 48856
病@@ 48805
S 48796
… 48763
熱@@ 48731
影 48601
邦 48598
决定 48583
計劃 48542
甘@@ 48425
份 48393
毛@@ 48372
区@@ 48354
关系 48331
母@@ 48329
角@@ 48310
0.@@ 48306
+ 48298
特別 48246
三年 48214
最初 48204
探@@ 48200
实 48170
楼 48140
去世 48130
原因 48118
中共 48109
指出 48010
加拿大 48009
张 47956
运动 47900
旅@@ 47889
拍 47816
祖@@ 47757
聯 47747
梁@@ 47681
放 47662
鎮 47610
終@@ 47590
已@@ 47575
離@@ 47540
生物 47494
风@@ 47472
完@@ 47444
野 47428
照 47386
模@@ 47322
热@@ 47319
藏 47286
仍然 47247
支 47233
很多 47226
班@@ 47224
一年 47222
十 47197
男 47192
樓 47181
側 47171
旗 47154
群@@ 47148
描述 47146
委员 47083
监@@ 47062
彈 47058
球隊 47022
香@@ 47018
進士 46982
尾 46952
項 46913
言@@ 46878
統@@ 46876
学生 46858
道路 46856
E 46849
典 46847
死亡 46821
槍 46785
聯賽 46664
宮 46662
底@@ 46660
相關 46630
相同 46626
勢 46622
质 46558
连@@ 46535
总人口 46504
巡@@ 46496
費@@ 46473
環@@ 46458
2@@ 46432
亡 46416
E@@ 46407
情况 46382
年度 46363
負責管 46349
就@@ 46342
几@@ 46308
全 46259
四 46255
占 46236
裝@@ 46214
溪 46106
暴@@ 46085
奧 46069
0@@ 46057
隨@@ 46032
目的 45997
使@@ 45982
戈@@ 45981
組成 45978
余@@ 45973
兒 45957
路線 45937
舰 45928
洲 45910
片@@ 45881
樂 45873
興@@ 45866
酒 45833
园 45801
兼 45787
丹@@ 45784
尼亚 45776
过@@ 45759
唯一 45733
昌 45674
T 45672
報@@ 45653
歌手 45643
武 45635
社会 45618
始@@ 45611
卫@@ 45564
播 45555
极@@ 45548
存@@ 45537
偏@@ 45503
監@@ 45470
擁有 45387
評@@ 45362
全球 45345
巨@@ 45339
遺@@ 45318
防 45314
杨@@ 45296
洪@@ 45241
費 45217
1990 45187
X 45161
議 45152
網@@ 45055
结构 45055
茨 45022
应@@ 45008
黎@@ 44970
狀 44941
讀 44900
圍 44785
雲@@ 44726
知@@ 44692
刻 44681
互@@ 44679
認@@ 44671
若@@ 44654
資料 44617
机构 44607
錄 44573
父 44572
全部 44536
诺 44440
德國 44436
臣 44430
麥@@ 44427
觀 44390
辛@@ 44363
再@@ 44339
足 44339
充@@ 44334
第一次 44330
男性 44324
營@@ 44319
村@@ 44240
無法 44215
領 44210
川@@ 44209
分别 44195
宁 44176
封 44151
併 44140
资@@ 44115
省份 44067
結果 44056
来自 44023
农@@ 43972
这种 43969
州市 43930
從@@ 43928
成员 43910
公路 43908
四年 43873
沿@@ 43831
招@@ 43798
法院 43772
喜@@ 43738
沙 43717
運 43704
强@@ 43700
兴@@ 43689
尚@@ 43684
法國 43643
见 43592
大型 43588
总统 43587
五 43579
盃 43558
杀 43476
组成 43450
最后 43341
吉 43320
松 43320
产 43213
呼@@ 43208
獨立 43192
裔 43176
破@@ 43160
祖 43147
設有 43099
黨@@ 43043
装@@ 43003
容 42996
結束 42958
是@@ 42926
及其 42925
哥 42904
志 42896
项目 42883
優@@ 42882
檢@@ 42861
廠 42839
飾 42832
情況 42801
烏@@ 42793
人员 42792
R@@ 42781
O@@ 42778
什 42731
业@@ 42690
每年 42689
制度 42671
楊@@ 42626
總統 42617
侧 42603
一部 42496
故 42466
仁@@ 42440
洛 42423
s 42420
建築 42397
象@@ 42382
營 42377
隊@@ 42341
調 42337
不久 42333
背@@ 42330
或者 42305
卢@@ 42280
1999 42262
產@@ 42252
姆@@ 42220
D 42205
屋 42183
变 42167
! 42156
戶 42153
3@@ 42147
演唱 42145
辦 42136
卷 42119
激@@ 42059
町 42054
康 42051
超過 42050
容@@ 42023
仅 42011
培@@ 42009
离 41996
夏季 41973
快 41927
1998 41911
春 41876
圈 41821
產生 41807
象 41803
冠@@ 41781
美元 41779
瑪@@ 41761
收 41759
員@@ 41739
尾@@ 41729
欧@@ 41710
处@@ 41695
赛@@ 41691
乐@@ 41678
用于 41659
線@@ 41635
县@@ 41629
来@@ 41620
桑@@ 41616
列車 41600
库@@ 41592
裝 41579
获 41575
時代 41549
土 41548
名字 41524
采用 41479
威 41452
铁@@ 41441
朗 41439
部队 41407
陸@@ 41336
參 41330
导致 41320
穆@@ 41297
建设 41237
明朝 41230
告 41221
伦@@ 41207
根@@ 41157
为了 41144
洋@@ 41130
秀@@ 41117
散 41069
術 41063
生于 41054
繼續 40963
戴@@ 40901
拥有 40888
視@@ 40856
当地 40815
半 40801
毕业 40736
项 40697
遭到 40672
财@@ 40625
崇@@ 40592
轉 40581
教堂 40568
透過 40565
境内 40498
老 40462
建造 40453
並在 40442
独立 40436
議員 40429
背景 40427
油 40413
边 40391
〉 40389
導 40382
并且 40378
幕 40370
站@@ 40358
〈 40348
罪 40318
示 40294
费@@ 40269
麗@@ 40243
速度 40232
飛@@ 40224
集团 40218
財@@ 40206
J@@ 40107
土地 40092
玩家 40086
1980 40062
導致 40054
西北 40018
房@@ 39980
佔 39964
歷@@ 39953
皮 39948
吴@@ 39942
休@@ 39904
公園 39896
證 39893
联赛 39887
集團 39852
址 39842
之後@@ 39836
冰@@ 39822
算 39808
獨@@ 39786
欧洲 39777
产生 39771
伯 39741
劇@@ 39710
接壤 39705
佛 39703
书记 39700
俄罗斯 39655
移@@ 39524
宗教 39516
公尺 39500
六 39496
青年 39496
調@@ 39489
G 39485
條@@ 39407
太 39332
往@@ 39316
二年 39315
自然 39315
地球 39299
M 39274
易@@ 39250
智@@ 39239
益 39235
回到 39212
引起 39205
蒂 39199
较 39197
友@@ 39191
勝 39187
限 39185
举行 39170
音乐 39144
环@@ 39126
步@@ 39125
别 39123
从@@ 39073
机场 39060
据 39057
组@@ 39038
1997 39028
學家 39028
最早 39019
清朝 39017
傳統 38996
街@@ 38972
利亚 38969
葉@@ 38837
標@@ 38835
雪@@ 38835
们 38832
院@@ 38813
地位 38811
導@@ 38801
厂 38774
採用 38730
义 38712
阿 38702
苏联 38700
輪 38697
庫 38689
三十@@ 38676
單位 38654
遊@@ 38647
奥 38641
熱帶 38637
幾@@ 38604
边@@ 38602
种@@ 38594
基本 38558
200 38554
五年 38542
越南 38510
旧 38427
作家 38424
務 38415
刊 38409
差 38390
身份 38372
品@@ 38361
改 38346
标@@ 38340
需 38321
夜 38314
待 38312
材 38298
服@@ 38284
篇 38282
維 38271
溫@@ 38252
油@@ 38235
要@@ 38185
语言 38164
順@@ 38162
經過 38143
什@@ 38134
聯盟 38080
V@@ 38064
影片 38051
元年 38034
风 38029
W@@ 38028
证 38012
攻 38010
音樂@@ 37986
500 37976
60 37974
真 37913
郎 37874
舉 37871
僅@@ 37848
约@@ 37778
郭@@ 37770
主教 37741
察 37738
菌 37736
畢業 37699
营@@ 37685
乙@@ 37670
制作 37668
惠@@ 37649
取代 37637
食@@ 37615
機場 37603
F 37598
多次 37588
中部 37567
來@@ 37516
突@@ 37488
股@@ 37487
陵 37478
佐@@ 37466
派@@ 37454
头@@ 37448
劳@@ 37446
早@@ 37435
出身 37398
標 37394
– 37387
亲@@ 37359
服务 37333
不少 37329
乘 37324
阳@@ 37314
敗 37307
族@@ 37284
语@@ 37279
兴 37271
云@@ 37243
！ 37243
主持 37236
有人 37226
處@@ 37225
能@@ 37216
任命 37206
地面 37200
撤@@ 37171
P 37168
天主教 37168
复 37118
除@@ 37108
球队 37102
发行 37079
序 37074
載 37050
拿@@ 37037
a 37032
占@@ 37028
農@@ 37014
池 36969
獎@@ 36959
武器 36954
加上 36932
短 36888
只@@ 36885
军队 36874
费 36874
還 36867
结@@ 36863
症 36854
改革 36797
退@@ 36796
差@@ 36791
勞@@ 36789
强 36772
遠@@ 36768
终@@ 36763
反应 36741
請 36736
交 36688
住@@ 36669
批 36639
護@@ 36636
温@@ 36630
技術 36614
选 36602
创@@ 36594
求 36561
出任 36548
仁 36528
参与 36523
鐵路 36517
遠 36489
息 36482
观@@ 36481
西南 36458
行動 36453
部长 36431
分析 36382
救@@ 36378
亞洲 36363
立法 36356
The 36346
炮 36345
內容 36319
只是 36286
判 36281
阿尔@@ 36280
电 36267
晚@@ 36264
態 36211
击@@ 36198
犯 36197
論@@ 36176
週@@ 36173
秦@@ 36164
剧@@ 36153
曹@@ 36153
久 36126
皇帝 36124
動畫 36108
這種 36107
毫米 36096
领@@ 36081
营 36067
實 36055
基地 36035
1996 35998
帝国 35967
畫@@ 35957
晚 35946
原本 35944
盛@@ 35943
L 35927
地下 35922
还有 35899
关于 35854
屬@@ 35854
沈@@ 35842
負責 35835
魔@@ 35814
泉 35800
鄭@@ 35798
助@@ 35785
聚@@ 35784
持 35778
陸 35767
至今 35741
表演 35723
节目 35713
I 35703
考 35703
烈 35656
卫 35623
韓國 35607
线@@ 35578
點@@ 35570
产@@ 35564
骨 35564
杰@@ 35559
團@@ 35539
网@@ 35532
平台 35500
一定 35471
过程 35397
结束 35336
生产 35327
协@@ 35308
盟 35298
父親 35296
科技 35288
興 35278
晋@@ 35233
徑 35228
左右 35180
早 35173
英文 35163
繁@@ 35149
日至 35127
运动员 35074
孔@@ 35072
发布 35047
侵@@ 35042
病毒 35008
居住 34994
场@@ 34990
泰 34968
靈@@ 34942
作者 34917
唱片 34903
顺@@ 34819
節@@ 34777
新加坡 34772
單曲 34761
舊 34748
岩 34746
宫 34735
同意 34733
大多 34729
擴@@ 34727
到@@ 34718
R 34682
圣 34672
計@@ 34651
辦@@ 34647
务@@ 34629
據 34602
限制 34561
李 34554
？ 34542
概念 34537
1994 34535
日起 34521
凱@@ 34503
却 34478
盧@@ 34460
一家 34459
分子 34455
统@@ 34445
师@@ 34444
救 34434
輕@@ 34419
中学 34417
公共 34415
南京 34415
拜@@ 34372
记 34371
印@@ 34356
伦 34339
拉斯 34322
必須 34317
宣 34305
有些 34300
降 34290
00 34271
範圍 34262
骨@@ 34253
梅 34242
留 34224
柯@@ 34205
團體 34196
韦@@ 34187
科学 34178
系@@ 34178
麻@@ 34160
演員 34147
魏@@ 34134
倫 34080
太平洋 34075
远@@ 34029
艇 34020
網 34002
经过 34001
维 34001
魚@@ 33996
度@@ 33990
距 33973
随后 33965
城区 33958
人口普查 33936
控 33936
執@@ 33928
斷 33926
率@@ 33923
票@@ 33923
奉@@ 33901
聖 33866
澳門 33859
1992 33817
驻 33817
职@@ 33813
独@@ 33812
警察 33795
兄弟 33783
1995 33781
希 33724
滿@@ 33714
航 33709
協@@ 33703
酒@@ 33700
坑 33698
乡镇级 33670
br 33662
蒙古 33643
继续 33640
我们 33623
玛@@ 33623
初期 33590
孙@@ 33573
排名 33571
陆@@ 33563
中國@@ 33477
并@@ 33477
快@@ 33450
委@@ 33432
陽@@ 33432
蔡@@ 33431
技@@ 33384
私@@ 33380
学习 33377
深 33356
畫 33350
育 33312
变化 33305
镇@@ 33304
号线 33303
征 33300
轮 33295
中華 33254
负责 33248
竹@@ 33241
元素 33229
動物 33200
傑@@ 33192
烏克蘭 33191
複 33188
开发 33185
带@@ 33174
币 33155
走@@ 33154
呈 33151
舉@@ 33145
具@@ 33134
失 33132
媒體 33129
功 33108
拜 33081
會議 33079
报@@ 33059
忠@@ 33055
备 33054
优@@ 33053
硬@@ 33047
單 33044
百 33040
這是 33001
紀錄 32997
主義@@ 32985
刑@@ 32966
聲@@ 32927
曾任 32919
二世 32916
相关 32898
虽然 32874
叶 32862
叶@@ 32845
善 32813
藝術 32806
唱 32805
效@@ 32804
宝@@ 32796
赵@@ 32791
勝@@ 32789
第二次 32780
力量 32768
免@@ 32760
毛 32728
秋@@ 32724
1993 32707
朗@@ 32689
移 32686
夜@@ 32678
廟 32665
計畫 32665
帶@@ 32660
始 32630
急 32591
巴西 32577
乘@@ 32572
O 32565
補@@ 32535
荷@@ 32499
研究所 32492
临@@ 32480
动物 32468
榜 32463
审@@ 32457
观 32442
联盟 32438
公布 32431
蒙 32424
对于 32397
綫 32384
认@@ 32352
區域 32349
海拔 32349
1991 32347
超 32333
洋 32302
歸@@ 32295
孫@@ 32279
審@@ 32277
人員 32274
K 32269
随@@ 32264
幼@@ 32259
弱 32245
流域 32234
記@@ 32225
巴黎 32218
务 32211
它们 32199
1.@@ 32193
评@@ 32191
顯示 32185
姓 32162
连 32153
炮@@ 32148
洞 32146
僅 32123
坦@@ 32119
現時 32100
麦@@ 32093
有關 32080
35 32075
兹 32063
王朝 32037
超过 32014
慶@@ 32012
信息 31982
護 31971
授 31966
昆@@ 31926
或是 31890
簡@@ 31846
送@@ 31845
首都 31832
第四@@ 31821
求@@ 31814
所属 31808
翼 31796
称@@ 31792
海军 31772
达到 31746
流行 31722
琴 31698
奈@@ 31686
浙江 31679
获@@ 31676
部隊 31667
照@@ 31657
视 31622
提 31617
陽 31607
令@@ 31593
尼亞 31588
U 31582
联 31573
核 31556
亮 31540
北京@@ 31537
公园 31523
I@@ 31506
文物保护 31491
結構 31490
測 31484
努@@ 31480
權@@ 31474
1950 31438
售@@ 31437
一世 31421
六年 31421
連 31418
医院 31407
滑@@ 31394
庆@@ 31363
昂 31361
仙@@ 31347
方案 31313
萨 31311
炸@@ 31301
創作 31248
計 31245
碼 31227
餘@@ 31222
是否 31218
办 31201
雨 31191
開發 31183
新聞 31163
妻子 31150
调 31136
決賽 31131
配 31131
始建 31129
标准 31129
約@@ 31120
设@@ 31115
保持 31108
郑@@ 31097
環境 31092
散@@ 31088
父亲 31066
宮@@ 31059
醫@@ 31054
12@@ 30985
冠军 30956
命@@ 30930
返回 30911
露 30898
貨@@ 30883
昌@@ 30880
区域 30878
现 30864
市場 30850
結 30842
續 30836
紀 30832
零@@ 30812
競@@ 30811
許@@ 30801
研@@ 30765
联邦 30763
決@@ 30757
如下 30744
写@@ 30716
45 30714
别@@ 30702
U@@ 30689
2.@@ 30680
个@@ 30668
果@@ 30668
80 30666
調查 30642
亂 30635
靠 30618
领导 30599
機構 30588
1949 30572
廷 30572
第四 30550
扎@@ 30545
牧@@ 30537
默@@ 30537
级@@ 30529
夏 30490
程度 30489
开 30486
暗@@ 30481
供 30471
归@@ 30459
赤@@ 30435
必@@ 30429
洲@@ 30426
乐 30424
传 30420
源@@ 30417
n 30415
棲息 30411
穿@@ 30411
過程 30410
疑 30405
衣 30385
搭@@ 30376
隔@@ 30368
坡 30366
彈@@ 30334
幣 30323
決 30316
批准 30311
效 30292
跨@@ 30272
眾 30258
肯@@ 30258
授@@ 30257
凯@@ 30242
传统 30232
十年 30226
冷@@ 30216
换 30214
相當 30214
振@@ 30206
許 30200
博士 30190
爲 30176
1988 30151
統 30146
and 30145
范@@ 30140
十分 30139
紫@@ 30119
公分 30116
俱乐部 30107
鎮@@ 30100
給@@ 30097
银@@ 30071
1970 30068
内容 30056
库 30055
克里@@ 30050
医@@ 30031
君 30030
我們 30017
兼@@ 30015
帝@@ 30013
in 30012
企@@ 29999
i 29986
重建 29985
执@@ 29957
博 29949
細@@ 29945
协会 29939
国家@@ 29931
采@@ 29926
韓@@ 29926
名稱 29904
X@@ 29875
功@@ 29849
下午 29840
禮@@ 29806
注@@ 29797
飞@@ 29791
覺 29770
企业 29763
界@@ 29759
眾@@ 29729
舉辦 29722
罪@@ 29720
諸@@ 29720
成績 29719
當中 29710
人類 29691
竞@@ 29687
藝 29673
莱 29668
按 29657
共和国 29655
雅 29651
程序 29644
旋@@ 29643
32 29637
眼@@ 29631
沃 29629
急@@ 29625
選擇 29617
庄@@ 29616
声 29610
毒@@ 29588
器@@ 29581
水域 29566
缺@@ 29562
改為 29557
范围 29553
丽@@ 29546
蓋 29527
政治@@ 29515
录 29505
不再 29504
鄉@@ 29501
报告 29465
数据 29464
银行 29464
状 29460
協會 29451
因而 29446
决@@ 29441
』 29437
職業 29435
異@@ 29431
『 29427
知道 29411
豪@@ 29410
接近 29407
设立 29396
社区 29392
转 29385
潮 29362
距離 29360
皇家 29354
危@@ 29346
菜 29339
親 29322
1989 29315
柱 29290
小时 29279
这一 29269
更名 29265
谢@@ 29247
理论 29246
宜@@ 29228
时代 29219
套 29202
京 29201
大臣 29191
難 29178
压 29176
圓@@ 29169
磁@@ 29161
正在 29151
還有 29151
介@@ 29139
征@@ 29136
改为 29132
艘 29122
径 29110
上映 29109
无 29102
远 29101
聯合 29095
表現 29095
媒体 29088
墓 29077
莉 29062
四川 29057
柏@@ 29040
保护 29022
论@@ 29004
人民@@ 28996
某@@ 28993
確 28977
議會 28977
建筑@@ 28965
攝@@ 28961
主演 28960
户 28941
切 28936
銀@@ 28913
1945 28903
截至 28897
君@@ 28886
溪@@ 28877
韋@@ 28871
难 28862
而是 28859
支援 28850
设有 28850
提名 28848
300 28846
声@@ 28812
予 28811
现在 28808
导 28802
齐@@ 28767
資 28765
末@@ 28762
奉 28734
70 28726
专业 28715
网 28694
想@@ 28681
標準 28681
別@@ 28670
13@@ 28664
邦@@ 28657
工业 28653
著作 28646
青 28643
牙@@ 28641
豐@@ 28637
非洲 28603
血 28602
樹@@ 28594
席 28589
收入 28587
限@@ 28582
结果 28580
中文 28557
包 28554
典@@ 28537
藝@@ 28526
種@@ 28499
取消 28492
型@@ 28490
特别 28472
徵@@ 28470
尚 28430
程@@ 28426
井 28408
未能 28398
尤@@ 28386
枚 28365
画 28361
坦 28356
耳@@ 28323
投 28320
丽 28296
彭@@ 28291
保留 28267
股 28255
莉@@ 28239
交流 28226
运 28221
交通@@ 28218
势 28214
良@@ 28214
团@@ 28207
攻擊 28195
直至 28168
赫 28153
佛教 28146
換 28145
繼@@ 28105
主角 28101
诸@@ 28097
艺术 28085
1960 28062
尊@@ 28049
旗下 28047
衛 28043
导@@ 28009
善@@ 28002
試 27990
警方 27989
養 27987
岛@@ 27982
眼 27950
不會 27949
虎 27945
碑 27942
播@@ 27925
肉 27910
2022 27900
停止 27896
议 27884
薩 27882
材料 27868
其它 27867
1@@ 27848
各地 27846
澤@@ 27840
看到 27833
N 27832
韩国 27831
葬 27829
自治区 27815
逝世 27792
千 27789
节@@ 27774
思想 27759
雪 27740
新增 27736
块 27735
高中 27729
倍 27697
于@@ 27683
一樣 27678
雄@@ 27676
赛季 27673
父@@ 27657
90 27644
禮 27635
快速 27614
活 27612
赴 27605
謝@@ 27585
又名 27574
可達 27573
建成 27564
线路 27559
橫@@ 27558
便@@ 27550
電子 27537
隔 27532
忠 27499
斯特@@ 27491
诗@@ 27484
億 27470
麗 27470
星期@@ 27469
祖父 27468
特殊 27464
任务 27459
奖@@ 27452
額 27446
计 27441
H 27438
紅 27428
博物馆 27412
遗@@ 27407
牛 27393
規@@ 27393
满@@ 27392
V 27381
翻@@ 27351
雄 27343
和平 27342
宋 27332
退 27331
絲 27327
网络 27322
坐@@ 27307
秒 27298
吸@@ 27292
威廉 27291
西方 27280
思 27277
东北 27271
投票 27262
总 27253
视@@ 27250
省级 27241
发表 27240
埃 27236
鎮區 27223
海岸 27219
輸@@ 27181
賽事 27173
氏@@ 27171
漢 27164
再度 27161
葛@@ 27156
能夠 27154
藍@@ 27149
軍隊 27145
遂 27124
兩 27108
斯坦 27108
隨著 27094
主題 27089
詩@@ 27082
湾 27069
只能 27066
纪@@ 27054
試@@ 27040
测 27038
效力 27034
奏 27033
年间 27020
物种 27016
孩子 27009
载 27008
村落 26998
无法 26993
沉@@ 26988
联合 26988
行动 26981
物理 26978
示@@ 26966
芬 26951
美洲 26948
护@@ 26947
如此 26941
尚未 26911
1985 26908
帝國 26893
人民政府 26884
俄羅斯 26864
公民 26862
天津 26860
迁@@ 26842
固@@ 26823
改名 26791
梁 26791
舊@@ 26788
排 26784
乱 26783
哈 26765
協助 26756
致 26722
映 26713
朋友 26708
設立 26699
尤其 26698
之外 26684
  26675
小時 26667
国际@@ 26650
庙 26646
申@@ 26636
福建 26634
曆 26626
假 26599
中學 26594
文件 26594
盤 26577
装 26576
环 26569
公主 26551
～ 26549
婚 26545
童@@ 26541
禁@@ 26522
早年 26508
命令 26507
公開 26504
以前 26485
1984 26466
先生 26457
文章 26457
孝@@ 26455
当选 26450
壓 26448
干 26446
播放 26419
卿 26410
寧@@ 26401
名称 26397
茲 26357
項目 26332
胜 26327
灰@@ 26318
簡稱 26312
擊敗 26310
亦@@ 26305
多年 26298
現在 26297
味 26283
傷 26266
模型 26259
普通 26257
召@@ 26226
48 26216
愛 26213
隧道 26213
擔 26207
地震 26199
庫@@ 26199
持@@ 26197
美国@@ 26196
渡@@ 26189
大樓 26184
汉 26181
1986 26179
液 26178
佳@@ 26170
关 26158
爭@@ 26134
陶@@ 26121
傷@@ 26116
环境 26115
一度 26104
安排 26100
恐@@ 26093
军事 26075
乃@@ 26065
滿 26040
樣 26023
14@@ 26020
頂 26006
邊@@ 26005
集中 26001
設@@ 25989
速@@ 25988
证@@ 25986
士兵 25976
提高 25968
皇 25947
兩人 25931
驻@@ 25914
额 25913
參與 25910
广场 25907
研究@@ 25904
台北 25903
瑞 25893
选举 25890
谷@@ 25879
妮 25856
槍@@ 25840
南方 25836
發表 25833
以外 25831
铁 25829
七年 25827
宇@@ 25811
裁 25806
货@@ 25803
失去 25797
争@@ 25782
葉 25782
類@@ 25758
耶 25757
小说 25745
震@@ 25736
督 25724
堅@@ 25716
坊 25709
候@@ 25701
持續 25699
否@@ 25690
大道 25690
1987 25689
珠@@ 25689
漫畫 25680
阻@@ 25677
这是 25673
算@@ 25665
移民 25664
全國 25660
拿 25656
细@@ 25650
孟@@ 25646
满 25644
此后 25638
至少 25623
採@@ 25615
警 25614
录@@ 25609
市民 25601
易 25593
醫院 25590
生產 25584
保護 25579
選區 25546
俗 25539
引擎 25535
不明 25514
灵@@ 25513
第@@ 25513
潮@@ 25512
租@@ 25508
掉 25505
Y@@ 25500
河南 25497
有关 25489
间@@ 25483
以来 25475
粉@@ 25457
植@@ 25449
懷@@ 25441
戲@@ 25440
語言 25428
三个 25422
津@@ 25420
潘@@ 25413
題 25402
字母 25388
遷 25382
殺@@ 25375
异@@ 25374
顯@@ 25370
舞@@ 25357
股份 25349
规定 25328
銀行 25327
球員 25324
借@@ 25297
樂團 25289
群島 25285
軍事 25266
类似 25262
表面 25262
盟@@ 25255
時候 25243
实现 25242
年間 25229
酒店 25222
严@@ 25192
避免 25188
基础 25183
確@@ 25181
机车 25175
这样 25175
乡@@ 25174
輕 25169
隻 25161
以來 25154
富 25151
靈 25147
塘 25139
某些 25139
之下 25137
八年 25136
断 25135
陣@@ 25123
国王 25120
念 25118
余 25116
中国共产党 25083
浦@@ 25083
随着 25054
x 25040
投入 25037
教區 25015
啟@@ 24989
海域 24967
牠 24960
义@@ 24959
高度 24933
版@@ 24928
礼 24921
舞 24917
量@@ 24888
有效 24884
適@@ 24882
杯 24878
各種 24874
1982 24853
含@@ 24850
設施 24845
處理 24837
操@@ 24834
m 24832
八 24826
前身 24825
基金 24812
本地 24811
一同 24807
役 24805
毁 24795
将军 24794
随 24784
行为 24779
執行 24773
温 24768
駐 24759
健康 24754
環 24751
得以 24738
显@@ 24711
时候 24707
基督教 24699
消息 24699
现代 24689
柳@@ 24677
创作 24629
补@@ 24622
尼斯 24617
九 24602
直 24597
云 24596
遭 24596
嚴@@ 24594
屋@@ 24583
弟 24581
徒 24575
刑 24567
核心 24563
选择 24562
瑞典 24551
運動員 24532
适@@ 24530
盛 24528
訪 24526
三個 24522
藤@@ 24517
经济@@ 24512
编码 24505
東部 24497
禁止 24494
儿 24484
叛@@ 24474
售 24464
同一 24462
隸屬 24451
运行 24440
部份 24436
促@@ 24433
十二 24426
不过 24403
瑞士 24395
广州 24392
壁 24390
句 24388
鱼 24388
出口 24384
河流 24384
民國 24374
免 24371
迴 24360
極 24345
曾經 24334
叫 24312
右 24312
逐漸 24299
合并 24276
离@@ 24270
分为 24263
轄@@ 24255
恢复 24253
澳洲 24253
术 24252
资 24252
黑 24248
1983 24241
33 24240
反对 24219
Z@@ 24212
購@@ 24194
積 24189
特色 24166
历 24162
y 24161
羽毛球 24145
嚴重 24126
议会 24120
概@@ 24113
珠 24112
一系列 24105
渡 24087
与@@ 24080
之中 24076
委員 24070
年底 24070
态 24067
作出 24063
文字 24051
墓@@ 24039
鏡 24037
英語 24027
领 24027
莫 24024
榮 24006
井@@ 23998
J 23982
尽管 23982
茨@@ 23981
乘客 23971
鼓@@ 23950
划@@ 23948
侯@@ 23943
找到 23943
捷@@ 23943
空間 23941
36 23940
大区 23931
安德@@ 23922
香 23921
旗@@ 23905
难@@ 23882
罗马 23864
唐 23831
个人 23794
溫 23790
似 23782
一条 23774
试 23774
必须 23771
學習 23766
本身 23755
策 23727
平方米 23713
距离 23713
20@@ 23710
护 23707
演员 23678
訊@@ 23675
宜 23653
秋 23653
属下 23650
指定 23624
hans 23615
怀@@ 23611
继@@ 23602
何 23597
英尺 23588
战役 23585
知名 23575
一段 23573
七 23567
趙 23558
水平 23543
于是 23540
宇 23539
錄@@ 23532
东部 23489
數據 23476
侯 23467
一颗 23466
先后 23462
歸 23455
1979 23452
专辑 23446
讀@@ 23436
很@@ 23430
以色列 23423
彩@@ 23421
提升 23410
楚@@ 23405
精神 23397
容易 23392
劃 23382
济@@ 23380
约翰 23370
调查 23360
产品 23351
市场 23346
鲁 23334
执行 23310
能够 23304
衣@@ 23298
　 23296
勇@@ 23291
范 23289
涅@@ 23283
記者 23271
儿子 23270
跑 23270
找 23254
圆@@ 23238
訊 23233
價 23229
塊 23227
座@@ 23216
羽@@ 23213
體長 23207
夫人 23196
停 23192
桂@@ 23191
雨@@ 23181
緣 23178
九年 23175
地铁 23146
空间 23144
厄@@ 23140
刺 23125
部门 23125
38 23116
雕@@ 23116
露@@ 23116
条@@ 23115
民主@@ 23113
議@@ 23112
倒@@ 23111
國立 23099
翰@@ 23099
基礎 23092
庭 23092
报道 23084
爱 23075
城鎮 23069
决赛 23056
400 23021
3.@@ 23019
樹 23018
穿 23010
运营 23010
廣播 23003
傑 23001
齊@@ 22991
大使 22976
我@@ 22975
特定 22961
學者 22959
略@@ 22959
理論 22958
砲 22950
读 22928
点@@ 22916
雲 22916
自由@@ 22915
入侵 22872
电视 22869
生命 22863
督@@ 22858
陰@@ 22853
信仰 22852
產品 22850
認 22849
迅速 22848
人口数量 22844
34 22832
邨 22826
逐@@ 22825
议员 22813
岡@@ 22808
社会@@ 22803
us 22801
议@@ 22798
应用 22797
喀@@ 22791
挑@@ 22788
幸@@ 22787
禁 22785
跳@@ 22781
画@@ 22771
配合 22756
1978 22750
轻@@ 22749
實際 22744
印 22717
大西洋 22715
相似 22715
離開 22711
紐@@ 22703
證@@ 22701
導演 22692
邮政编码 22691
皇后 22684
藥 22680
涅 22674
雜誌 22672
琳 22652
印度@@ 22637
珍@@ 22632
祥 22628
報告 22627
顶 22600
还是 22592
素@@ 22589
慶 22585
刻@@ 22582
按@@ 22582
運動會 22567
餐@@ 22554
试@@ 22545
目標 22542
注意 22537
选区 22530
刀 22528
7.@@ 22515
剂 22510
仲@@ 22508
扎 22507
构@@ 22507
台湾 22504
埃及 22500
津 22478
森林 22477
攝 22472
众 22470
等等 22465
部落 22447
寬 22446
圍@@ 22445
商業 22435
定义 22426
世界@@ 22423
袁@@ 22406
轨道 22405
古代 22400
倒 22399
主義 22395
注 22390
同樣 22389
迎@@ 22387
微 22370
感到 22369
按照 22366
权@@ 22365
绿@@ 22344
應用 22333
读@@ 22333
減@@ 22331
价 22297
连接 22280
健@@ 22278
旅客 22275
旅 22274
父母 22270
人们 22261
肉@@ 22257
生长 22256
黃@@ 22244
礼@@ 22233
品牌 22232
韩@@ 22230
5.@@ 22212
交易 22212
紧@@ 22209
热 22207
儘 22203
风格 22201
編號 22200
岩@@ 22188
負@@ 22180
兹@@ 22158
準 22152
鐵道 22148
充 22135
電視劇 22135
孔 22124
酸@@ 22122
设置 22121
t 22106
举办 22100
第五 22099
讷 22085
途 22080
on 22064
迷 22060
廢@@ 22059
遇@@ 22059
颱 22057
哲@@ 22048
符 22048
帮助 22037
病例 22035
肯 22029
人类 22024
超級 22018
漫@@ 22013
树 22006
撒@@ 21997
才能 21990
类型 21983
表明 21982
毒 21963
虎@@ 21963
桥@@ 21941
宽 21933
很大 21926
做@@ 21925
丘@@ 21908
途@@ 21904
瑟 21901
如何 21895
破 21895
1981 21889
買 21884
英雄 21879
敦@@ 21878
電視台 21873
巨大 21852
晚上 21842
tw 21834
普遍 21831
弹 21830
經營 21828
旁 21821
母親 21821
妃 21820
一样 21815
兒子 21814
° 21812
见@@ 21809
本站 21800
亭 21795
仍@@ 21775
英國@@ 21775
amp 21767
各种 21760
創 21753
付 21751
錢 21746
裁@@ 21739
佳 21738
輪@@ 21734
記載 21728
吕@@ 21727
白色 21724
準@@ 21717
质@@ 21710
寫@@ 21707
朝鲜 21705
授予 21702
紀念 21687
养 21686
离开 21686
意思 21678
浮@@ 21656
案件 21650
玩@@ 21646
首府 21646
輔@@ 21640
改變 21633
訓練 21605
大學@@ 21604
设备 21601
举@@ 21564
疾病 21562
开放 21558
拓@@ 21555
北方 21549
賓@@ 21541
與@@ 21530
秘@@ 21527
困@@ 21525
％ 21517
工具 21509
高速公路 21506
事故 21501
严重 21496
简称 21494
董事 21490
電腦 21485
飛 21485
婚@@ 21483
浪@@ 21468
树@@ 21467
都市 21467
寄@@ 21465
晶@@ 21465
鱼@@ 21455
改造 21454
東京 21449
飞机 21435
菲 21434
结 21431
文化@@ 21429
杀@@ 21399
芬@@ 21399
章@@ 21397
64 21395
抵@@ 21379
建議 21372
处理 21369
毀 21366
新闻 21365
捐@@ 21363
旺@@ 21359
尖@@ 21357
舒@@ 21357
效果 21356
暫@@ 21339
階段 21339
出席 21317
逐渐 21312
确 21310
批@@ 21301
疫情 21291
糖 21286
尉 21277
因素 21275
太阳 21275
许@@ 21272
o 21259
准@@ 21250
HD 21230
異 21229
衰@@ 21229
全面 21226
37 21218
律@@ 21213
规划 21204
函数 21203
賣 21193
小型 21181
海外 21181
廣 21180
行為 21176
仅@@ 21168
药 21154
文物 21150
唱@@ 21146
工人 21143
废@@ 21132
監 21126
hk 21125
物種 21124
國際@@ 21117
規模 21117
久@@ 21112
斗@@ 21112
司令 21111
齒 21111
扩@@ 21110
吃 21099
京都 21089
决 21084
陷 21075
魯 21058
阿爾@@ 21052
é 21048
卓@@ 21031
妻 21031
缺乏 21030
榮@@ 21028
反應 21026
刊@@ 21023
也@@ 21013
乾@@ 21010
崔@@ 20996
建制 20971
這樣 20967
端@@ 20962
飛機 20926
本土 20924
记载 20919
台灣@@ 20912
未來 20904
细胞 20900
溶@@ 20897
旧@@ 20887
坎@@ 20882
法案 20878
識 20878
d 20870
办@@ 20869
機會 20847
企業 20845
摩 20840
42 20839
泉@@ 20836
不足 20831
大區 20826
描@@ 20824
科學 20813
弹@@ 20806
很快 20796
更加 20796
紀@@ 20790
爭 20780
管理@@ 20779
壓@@ 20776
脱@@ 20775
插@@ 20770
規定 20769
於@@ 20767
识@@ 20749
显示 20744
马来西亚 20744
積@@ 20743
澳@@ 20741
維持 20734
其後@@ 20729
整个 20718
确@@ 20710
被迫 20703
魏 20697
伐 20684
逊 20671
西亞 20668
de 20665
夺@@ 20662
记@@ 20661
提到 20649
积@@ 20647
折@@ 20642
依 20639
咸@@ 20638
家人 20627
第五@@ 20623
汗 20620
诉 20620
戈 20617
冲@@ 20614
完整 20598
默 20593
收錄 20579
乔@@ 20574
絕@@ 20573
伴 20570
它們 20568
为主 20563
冷 20562
聽 20561
講@@ 20557
難@@ 20554
W 20547
分鐘 20542
換@@ 20531
玉 20519
枪 20510
指挥 20504
6.@@ 20503
壇 20500
需求 20495
55 20492
高速 20482
8.@@ 20476
爆发 20472
御@@ 20462
西亚 20459
境@@ 20452
／ 20442
願 20436
值@@ 20431
透@@ 20426
辽@@ 20416
遗址 20416
领域 20416
涉及 20413
能量 20411
植 20410
p 20407
惡@@ 20400
46 20393
1946 20386
Windows 20371
稱為 20365
襲 20343
鄰 20330
队@@ 20329
而成 20323
鹿@@ 20318
術@@ 20302
败 20302
玄@@ 20296
戰役 20292
c 20275
人工 20272
段@@ 20270
音乐@@ 20270
梯 20262
戏@@ 20261
杰 20248
延伸 20239
遜 20238
園@@ 20218
陣 20218
自治 20215
住宅 20189
换@@ 20182
分類 20181
樓@@ 20180
宇宙 20172
改善 20170
慢 20165
候 20156
大戰 20153
寧 20144
西藏 20143
昭@@ 20128
b 20110
一切 20109
齐 20080
条件 20071
工業 20070
賞 20067
统治 20063
代表@@ 20060
逢 20058
1958 20051
抗 20048
臨@@ 20047
然后 20038
厚 20031
江西 20025
四十@@ 20021
尔德 20020
蓝@@ 20019
風格 20016
1948 20010
借 20010
累@@ 20007
帕 20006
遇 19966
仔 19963
宝 19958
墙 19957
國會 19956
计@@ 19947
券 19944
箱 19943
葡萄牙 19932
太子 19922
倫敦 19914
战斗 19914
少女 19913
享@@ 19907
规@@ 19897
鼠 19896
含 19885
准 19883
历史@@ 19883
措施 19880
勤 19874
屏@@ 19873
問@@ 19872
退出 19868
学者 19866
週 19859
is 19858
术@@ 19858
迹 19857
柏林 19848
左 19840
操作 19840
爭議 19834
阵@@ 19822
腹@@ 19807
驗 19804
晉@@ 19803
浪 19793
頂@@ 19780
整個 19770
浦 19760
天文 19759
治療 19740
獄 19738
劇情 19736
类@@ 19727
幹@@ 19725
訴 19721
阮@@ 19721
網路 19712
修改 19698
职业 19695
捕@@ 19694
留下 19693
广东 19689
驱@@ 19689
博物 19683
敵@@ 19682
惠 19671
敬@@ 19664
降低 19655
大約 19642
频道 19633
而言 19632
军区 19629
揭@@ 19629
原名 19626
燕@@ 19622
撤销 19611
e@@ 19588
鳳@@ 19588
爆@@ 19578
吸引 19574
用户 19567
照片 19562
4.@@ 19560
明治 19559
組合 19559
席@@ 19543
将@@ 19525
一帶 19524
大小 19523
围@@ 19506
螺@@ 19506
燃@@ 19494
正常 19492
样 19490
一支 19483
加盟 19483
Y 19482
敏@@ 19468
国务院 19466
1920 19465
過去 19465
國民 19462
棒 19457
大约 19449
逐 19443
坦克 19435
保存 19419
約翰 19418
65 19417
架@@ 19416
舍@@ 19413
时区 19408
协议 19402
一條 19400
盖 19376
堂@@ 19371
人次 19367
俗@@ 19367
横@@ 19367
一天 19362
凡 19362
笑 19362
行星 19361
變化 19359
投资 19358
伊斯 19356
湖南 19352
裡@@ 19351
連續 19349
艺@@ 19346
表现 19346
1940 19331
興建 19323
鳥 19318
敏 19315
險 19307
批評 19292
铜@@ 19288
西北部 19282
譯 19269
援 19261
尔斯 19253
不可 19242
評 19242
爵 19241
鬼 19240
真正 19239
维尔 19235
第一个 19234
蛇 19230
舞台 19229
患者 19220
夏令时 19219
云南 19201
案@@ 19200
即使 19191
饰 19185
少年 19180
1976 19178
朝鮮 19169
魚綱 19166
國民黨 19165
祭@@ 19161
莎 19155
冬@@ 19152
目标 19149
INSEE 19139
据@@ 19131
电视台 19129
訂 19127
蟲 19123
设施 19119
展示 19112
比例 19112
相信 19102
汽车 19098
亞州 19091
柴@@ 19091
上午 19087
嘉 19086
承 19080
車輛 19078
出演 19076
之子 19067
1975 19066
那些 19064
39 19062
泽@@ 19058
板@@ 19049
綠@@ 19047
制造 19046
刺@@ 19044
基因 19040
墨西哥 19038
西南部 19034
迈@@ 19031
宫@@ 19027
譯@@ 19026
輻鰭 19026
形象 19020
慈@@ 19016
土耳其 19012
弘@@ 19009
赞@@ 19000
掌@@ 18996
食物 18992
山东 18986
事務 18977
确诊 18964
儀 18945
填@@ 18941
呈@@ 18940
滅 18927
阿拉伯 18926
首先 18926
潛@@ 18904
後來 18892
冬季 18885
稿 18884
合成 18878
任務 18874
緊@@ 18872
奪 18870
1972 18867
狀況 18866
丘 18865
河畔 18865
蘇 18862
汇@@ 18857
戰鬥 18849
体育@@ 18838
* 18833
44 18827
压@@ 18826
連接 18820
匈牙利 18809
感染 18800
输@@ 18800
官员 18793
寺@@ 18774
臨 18771
屯@@ 18760
荣@@ 18737
銷 18733
1930 18730
两 18729
幾乎 18718
修建 18703
贵@@ 18682
瑟@@ 18670
众@@ 18668
陵@@ 18652
質@@ 18650
遷@@ 18635
設置 18634
澳大利亚 18629
一步 18624
多个 18622
公共@@ 18621
灌@@ 18620
球季 18620
負 18618
契@@ 18615
習 18604
智 18603
1956 18599
茶 18590
報導 18576
600 18568
简@@ 18567
续 18564
顶@@ 18564
私人 18560
終 18547
床 18543
今日 18536
陳@@ 18531
狀態 18520
恢 18516
残@@ 18516
g 18513
伊斯@@ 18512
中国人民解放军 18506
内部 18505
阶段 18501
乳@@ 18498
投降 18494
撞@@ 18490
國王 18488
習@@ 18487
減少 18486
一所 18483
騎@@ 18477
染@@ 18474
兼任 18470
标 18468
中山 18462
疑@@ 18455
编 18455
小說 18450
得知 18449
隨後@@ 18447
h 18441
墨@@ 18432
丰@@ 18431
固 18429
固定 18409
配音 18408
每个 18404
票房 18398
比如 18392
焦@@ 18387
Q@@ 18378
二人 18366
資訊 18364
e 18363
迷@@ 18352
阴@@ 18349
呼 18345
1937 18341
伊朗 18341
宿 18331
貌 18331
相比 18328
牌@@ 18327
球會 18325
艺 18321
亨利 18319
艺术@@ 18308
母亲 18306
大多数 18302
經歷 18301
记录 18295
词@@ 18294
冊 18290
大陸 18289
藥@@ 18289
詞@@ 18288
次年 18287
成本 18280
钢@@ 18280
锡@@ 18276
用作 18264
金牌 18255
红 18250
廊 18246
註 18234
自治@@ 18231
橋@@ 18226
大致 18220
JR 18202
童 18198
员@@ 18192
历@@ 18190
原始 18186
重点 18181
to 18178
扮演 18178
顆 18177
东南 18172
符合 18154
秘密 18152
中國大陸 18148
例子 18146
芳 18136
异 18132
中共@@ 18129
1947 18128
解放 18124
絕 18121
乾隆 18119
錦@@ 18112
路口 18104
上述 18103
题 18089
民国 18088
1000 18076
覆@@ 18060
列入 18056
了解 18052
庆 18049
用途 18049
北京市 18048
釋 18047
延 18045
豪 18032
自然@@ 18030
1941 18023
黑色 18021
测@@ 18019
52 18018
年初 18014
网站 18014
41 18013
通道 18006
43 17997
番 17993
800 17990
捕 17989
齊 17984
擔@@ 17982
方言 17982
75 17966
户@@ 17963
液@@ 17962
需@@ 17961
拒絕 17955
細胞 17953
舰队 17953
南北 17950
歐 17948
虛@@ 17948
抽@@ 17943
伯特 17938
琴@@ 17929
澳 17925
一份 17923
教育@@ 17922
違@@ 17910
突然 17900
莫斯科 17899
熱 17896
深度 17895
湯@@ 17895
幫助 17894
蒙古@@ 17893
伤 17887
廣場 17880
操 17880
尋@@ 17878
歷 17878
下降 17877
广 17868
駐@@ 17863
狄@@ 17860
避@@ 17859
舍 17858
虫 17854
重大 17850
茲@@ 17849
益@@ 17848
识 17848
續@@ 17845
国会 17842
捷 17840
殘@@ 17839
伏@@ 17835
旋 17829
苏 17829
仔@@ 17823
波兰 17817
伍@@ 17812
棋 17810
凤@@ 17808
他人 17803
总理 17801
英格蘭 17796
冰 17790
分為 17786
屠@@ 17784
爆發 17783
甚@@ 17773
斗 17765
茶@@ 17758
1952 17756
杂志 17754
控@@ 17753
曾经 17744
56 17739
戴 17737
談@@ 17734
有所 17731
法官 17731
支流 17727
r 17720
革@@ 17720
技 17718
廷@@ 17717
斯蒂@@ 17716
衝@@ 17709
进攻 17707
蘇聯 17705
搜@@ 17702
奥林匹克运动会 17696
構 17681
山西 17680
1968 17673
喜 17670
妹 17665
苦 17664
熊@@ 17662
頻道 17660
大會 17656
日期 17653
里斯 17651
新疆 17646
制定 17639
1973 17637
淡水 17634
脫@@ 17631
退休 17616
替 17614
缩@@ 17608
卒 17599
裂 17591
自行 17588
摄@@ 17586
47 17582
奴 17581
特征 17578
敌@@ 17574
辖 17572
确定 17567
壘 17564
俄 17563
烈@@ 17562
電視@@ 17551
脂 17546
蛋白 17546
歧@@ 17535
建設 17523
幅 17522
办事处 17515
鰭 17501
分钟 17498
猶@@ 17488
炎 17487
呂@@ 17480
望@@ 17478
火箭 17478
占领 17471
條件 17470
源自 17462
汽車 17459
準備 17458
大会 17453
竹 17453
娛樂 17450
教會 17449
敵 17445
代码 17438
化石 17436
化合物 17435
董@@ 17435
三世 17433
丙@@ 17431
矿@@ 17425
几乎 17417
輝 17417
網站 17405
遵@@ 17401
孤@@ 17395
桑 17395
这里 17393
赢得 17391
险 17386
響 17373
鋼@@ 17370
奴@@ 17369
旁@@ 17364
还@@ 17364
奪@@ 17360
轮@@ 17356
文学 17353
状态 17352
统一 17351
介 17350
雜@@ 17337
成員@@ 17332
藩 17332
際 17332
不斷 17327
數量 17314
药@@ 17303
印尼 17297
电子 17293
混合 17292
寻@@ 17291
膜 17291
觉 17288
香港@@ 17286
幕@@ 17285
分配 17282
孙 17270
付@@ 17264
1977 17261
公元 17257
貿易 17256
阵 17253
每個 17248
聯邦 17236
還是 17232
纪念 17213
准备 17199
围 17199
苑 17199
外交 17191
城堡 17188
最近 17187
喬@@ 17176
引 17160
課程 17160
莎@@ 17159
養@@ 17150
勃@@ 17148
似@@ 17137
醫療 17135
解散 17131
廉@@ 17127
作战 17126
中華@@ 17123
另@@ 17123
引入 17119
腳 17118
业务 17117
盘 17105
攻击 17104
程式 17104
海洋 17103
属@@ 17098
建于 17098
答@@ 17098
验 17093
驅@@ 17088
氧化@@ 17081
宏@@ 17073
维奇 17071
英语 17068
獸 17065
an 17059
基于 17058
的關 17055
62 17051
岭 17049
變成 17044
冒@@ 17041
机关 17032
精 17027
家中 17025
幻 17018
體育@@ 17018
辰 17006
58 17005
单 16987
此次 16984
隱@@ 16982
1955 16962
里克 16961
广泛 16960
佐 16950
以后 16944
30@@ 16943
1964 16940
實施 16934
拆@@ 16933
立即 16928
粉 16927
測@@ 16926
亮@@ 16922
輯 16909
起来 16901
1974 16890
上海市 16889
塑@@ 16888
资源 16885
持续 16880
1966 16875
51 16871
盖@@ 16866
高等@@ 16863
退役 16849
依然 16845
利亞 16845
人們 16842
1938 16841
嶺 16823
見@@ 16823
一致 16820
發出 16815
TV 16812
女兒 16807
去@@ 16806
據@@ 16805
已有 16797
育@@ 16796
夢 16794
趣 16786
年前 16784
导演 16777
商业 16776
葡萄@@ 16776
做出 16775
平原 16765
不到 16764
允许 16763
須 16753
奥斯@@ 16750
駕@@ 16747
怒 16744
极 16741
結婚 16740
举 16739
粗@@ 16738
返 16737
半島 16734
逮捕 16728
统计 16725
殖民地 16718
軟@@ 16718
飾演 16714
归 16700
旬 16700
日本@@ 16698
發售 16695
9.@@ 16694
一個@@ 16687
伴@@ 16679
脈 16679
54 16669
经常 16669
金融 16666
加州 16660
数量 16656
全国@@ 16644
御 16642
习@@ 16641
慕@@ 16633
同样 16627
浩@@ 16611
步兵 16606
觀眾 16605
疫 16602
努力 16600
此時 16591
食品 16573
说@@ 16565
外交@@ 16561
拍摄 16561
估 16556
讲@@ 16555
伤@@ 16547
側@@ 16544
相对 16544
劑 16539
际 16538
服務@@ 16537
反對 16528
备@@ 16519
循@@ 16511
弗 16505
农业 16500
一場 16495
风暴 16493
遊 16492
廣告 16490
業務 16486
簽@@ 16483
山大 16477
绝@@ 16477
今天 16476
選手 16475
邀 16470
劃@@ 16468
深圳 16463
然@@ 16462
評價 16459
詩 16456
1939 16454
民眾 16443
尊 16439
迁 16435
25@@ 16429
紐約 16423
邓@@ 16422
1954 16416
听@@ 16413
銅@@ 16413
缘 16410
舰@@ 16410
1944 16406
57 16403
偶@@ 16399
亚洲 16398
郵@@ 16386
不会 16384
平面 16384
管辖 16383
鳥@@ 16377
心理 16361
委会 16358
範@@ 16358
公爵 16354
坪 16353
拉克 16352
酶 16349
協 16342
崎@@ 16331
群岛 16330
派遣 16328
比较 16326
施 16321
软件 16314
將會 16310
淮@@ 16306
颁@@ 16300
1971 16297
k 16281
天皇 16281
建议 16281
陆军 16272
钱@@ 16268
下令 16265
枝 16259
工程@@ 16257
貴@@ 16253
拒绝 16246
城镇 16242
响@@ 16241
纪念@@ 16240
袭 16240
53 16238
朝廷 16234
拔 16231
犯罪 16231
資格 16231
較@@ 16224
創立 16216
房屋 16213
常見 16204
调整 16203
球場 16192
多個 16182
策@@ 16176
本人 16172
钱 16169
洗@@ 16165
現場 16164
责 16164
办公室 16159
击败 16158
鋒 16157
列出 16155
內部 16153
贏得 16149
自身 16148
山脈 16146
水库 16144
王國 16144
往往 16138
第六@@ 16138
签@@ 16137
文學 16134
揚 16131
巡 16129
从而 16127
挪威 16120
德语 16114
迫 16110
輛 16102
雙 16079
領域 16072
購 16069
1965 16067
走向 16066
刺史 16063
蓋@@ 16060
泽 16059
簡介 16056
莊@@ 16054
号@@ 16052
证明 16049
習性 16048
更新 16046
記錄 16042
軌道 16042
自動 16034
沒@@ 16033
身體 16030
瓜@@ 16010
剛@@ 16009
49 16003
設備 16001
茂@@ 16000
150 15998
访 15998
评价 15998
宪法 15997
近年 15988
經常 15987
專業 15981
邻 15977
上海@@ 15975
庭@@ 15971
召开 15969
冠軍@@ 15965
奈 15961
劍 15960
社區 15951
蕭@@ 15944
魂 15938
瓜 15928
1969 15926
管理局 15925
扶@@ 15916
某 15911
間@@ 15906
北美 15900
名為 15889
柔@@ 15875
原子 15874
級@@ 15872
事業 15871
胜@@ 15871
请 15865
国内 15862
障@@ 15858
革 15858
訓 15837
跡 15837
責 15835
解釋 15833
1959 15830
临 15829
俊@@ 15827
团体 15827
狱 15827
由此 15822
仙 15819
昂@@ 15815
生成 15812
阻止 15811
诗 15806
助理 15803
经历 15799
九龍 15795
er 15789
日军 15782
代理 15781
壽@@ 15768
類似 15762
太陽 15759
荒@@ 15759
敬 15748
侍@@ 15745
丈夫 15743
廣泛 15731
59 15730
問 15726
宾@@ 15690
標為 15689
胞@@ 15674
─ 15671
營運 15666
太空 15665
恶@@ 15655
72 15653
登上 15653
健 15647
出版社 15644
起源 15643
同盟 15641
汪@@ 15635
規劃 15635
光緒 15632
1942 15629
名为 15627
電台 15622
到达 15612
啟 15606
利益 15600
籌@@ 15599
鮮@@ 15598
練@@ 15596
小學 15593
許多@@ 15589
检@@ 15587
物理@@ 15578
01 15575
工作@@ 15573
鄧@@ 15573
译@@ 15572
省委 15564
國民@@ 15562
服役 15561
63 15552
升格 15546
1957 15544
串 15543
犯@@ 15543
委书记 15540
浙江省 15540
阿拉@@ 15527
例@@ 15526
1953 15521
兒童 15513
偉@@ 15509
現代 15501
破壞 15496
剛 15495
改制 15494
题@@ 15492
錫@@ 15491
1936 15486
參賽 15482
卜@@ 15480
第六 15478
热带 15468
斯克 15467
蒸@@ 15462
痛 15461
理事 15460
媒 15459
糖@@ 15459
图书馆 15458
高級 15458
跨 15456
军事@@ 15453
养@@ 15451
勇 15451
中期 15448
扬 15439
敌 15439
價值 15437
1967 15424
苗@@ 15415
翠@@ 15408
翁 15405
进一步 15404
域@@ 15403
大利 15403
双 15399
昭和 15388
頻@@ 15379
歇@@ 15367
生物@@ 15366
弟弟 15358
辞@@ 15356
截@@ 15352
改变 15339
託 15333
像@@ 15329
餘 15328
批评 15324
艦@@ 15321
邮@@ 15318
派出 15307
給予 15306
化学 15302
縮 15302
綜@@ 15300
德里 15297
背 15297
討論 15290
湘@@ 15288
君主 15284
y@@ 15267
样@@ 15265
唐朝 15260
賽季 15260
未知 15258
室@@ 15256
賓 15246
站台 15236
科学院 15235
上市 15230
魔 15229
彼得 15222
譜 15219
拆除 15216
頁 15213
主力 15212
賴@@ 15212
事情 15209
贸易 15208
唯@@ 15207
繪@@ 15205
星系 15203
以南 15201
絲@@ 15198
伦敦 15197
整 15182
坚@@ 15181
湖北 15179
孫 15177
怪 15174
編 15167
醇 15165
羽 15164
市政府 15163
王子 15163
敦 15158
棒球 15157
实施 15149
破坏 15147
江苏 15145
积 15139
王国 15138
改編 15129
討@@ 15125
中共中央 15111
l 15100
打算 15095
1962 15093
山峰 15092
伊利 15085
凝@@ 15077
1943 15069
濟 15059
码 15055
奏@@ 15052
駛 15052
薛@@ 15048
灵 15038
拉丁@@ 15036
偵@@ 15032
申請 15028
计算 15028
吨 15009
擬 15001
欧 15000
跟@@ 14999
校长 14997
违@@ 14996
万人 14995
藤 14995
患 14993
灭 14992
來源 14990
桃@@ 14987
姚@@ 14986
辆 14986
希臘 14978
指揮 14975
順 14972
聞 14971
争议 14966
1961 14963
1951 14962
原住民 14955
狗 14954
汝@@ 14945
从事 14940
s@@ 14935
统 14932
以北 14930
爾斯 14930
餐 14923
岳@@ 14922
规模 14920
則是 14919
綱 14916
待@@ 14913
體系 14913
熟@@ 14910
1963 14909
煤@@ 14902
化学@@ 14900
麼 14899
车辆 14898
作戰 14895
靠近 14893
76 14886
卫星 14884
謀 14882
寮 14874
议院 14872
姐@@ 14869
有限 14864
外部 14861
减少 14857
吐@@ 14857
c@@ 14852
广东省 14850
人數 14844
成都 14843
火山 14837
公开 14836
公元前 14834
鄉試 14828
殖 14827
希腊 14821
沿海 14815
原有 14814
疏@@ 14807
遇到 14803
1935 14802
談 14801
彩 14797
胜利 14796
下来 14794
貴 14794
脑 14790
广播@@ 14787
特性 14785
錦標賽 14784
此时 14783
設計@@ 14781
暂@@ 14779
遭@@ 14778
15@@ 14776
午 14776
联系 14776
涉 14772
罗马@@ 14762
羅馬 14762
式@@ 14760
艦隊 14758
開放 14755
山东省 14751
减@@ 14748
讚 14744
層@@ 14742
議院 14742
資源 14741
迫@@ 14732
正面 14721
运输 14719
含有 14717
伏 14714
实际 14709
詹姆斯 14707
试图 14706
历任 14697
飲@@ 14696
替@@ 14682
园@@ 14680
婚姻 14680
現代@@ 14675
各自 14671
粹 14669
栽培 14663
計算 14661
概要 14660
贊@@ 14652
给@@ 14645
胎 14645
靜@@ 14643
突破 14642
61 14636
创建 14633
徒@@ 14630
市长 14628
厘米 14627
協議 14625
组建 14615
杂@@ 14612
池@@ 14606
統治 14604
分裂 14600
匯@@ 14599
收到 14598
源于 14598
丝 14591
市区 14589
產業 14589
司令部 14586
负@@ 14586
險@@ 14585
’ 14583
五月 14583
穆斯林 14582
拍@@ 14576
夢@@ 14574
00@@ 14569
长期 14565
四川省 14564
飞 14559
地名 14553
南非 14545
任教 14543
飓风 14542
辅@@ 14541
學位 14540
本線 14537
首播 14529
釋@@ 14526
首席 14525
隋@@ 14515
骑@@ 14515
态@@ 14503
參考 14497
88 14493
硫@@ 14493
雙方 14486
頒@@ 14485
羊@@ 14483
暴力 14478
淡@@ 14472
爆炸 14471
轴 14463
乃 14457
月球 14453
空军 14453
成绩 14449
得名 14444
比亚 14441
主持人 14439
汽@@ 14433
大廈 14429
滅@@ 14427
嘉靖 14415
波斯 14413
置@@ 14413
全長 14404
担@@ 14392
d@@ 14390
均@@ 14390
進攻 14386
頓@@ 14386
断@@ 14377
紙 14372
領導 14371
一款 14366
虚@@ 14363
主張 14360
憑 14360
測試 14360
筹@@ 14356
接替 14355
NBA 14354
・ 14352
軌 14347
憲@@ 14338
婦 14333
犹@@ 14331
指挥@@ 14330
66 14324
解決 14318
耳 14315
奥地利 14314
裏 14310
频@@ 14310
障 14309
持有 14308
忙 14295
敘@@ 14293
电子@@ 14293
戶@@ 14290
毫@@ 14288
部門 14288
模 14283
卡尔 14275
不断 14273
滑 14272
髮 14269
革命@@ 14256
意外 14250
雷斯 14232
II 14231
欲 14229
撞 14228
萧@@ 14214
屬於@@ 14213
两人 14212
洞@@ 14211
棋@@ 14209
俱樂部 14208
恰@@ 14207
啟用 14198
風暴 14197
獻@@ 14194
隐@@ 14194
蓮@@ 14193
小组 14192
73 14191
反映 14190
康熙 14189
教育部 14177
傾@@ 14169
训 14169
沿 14160
十三 14154
肖@@ 14153
农村 14151
傅@@ 14145
兄@@ 14144
牙 14142
斯基 14138
× 14135
市中心 14135
怕 14135
又称 14133
95 14131
阿根廷 14131
质量 14129
首相 14128
商人 14124
銜 14115
电影@@ 14112
厚@@ 14109
游 14109
賀@@ 14104
抑@@ 14100
解决 14095
萊 14094
半岛 14090
济 14081
理解 14078
空中 14075
拘@@ 14073
同名 14072
解释 14070
說@@ 14069
CD 14066
投資 14059
然後@@ 14052
女儿 14049
衝突 14049
良好 14047
番@@ 14044
裕 14044
u 14042
十六 14038
圖書館 14025
控制@@ 14022
河北 14022
御史 14018
戀@@ 14018
双方 14017
發動 14012
承认 14011
申 14009
图示 14006
状@@ 14006
纵@@ 14004
凡@@ 13997
割 13996
曰 13992
锦@@ 13992
吧 13991
恆星 13987
運作 13982
移動 13978
沖 13975
豆 13975
杭州 13968
戲 13967
资格 13966
所在 13963
700 13961
廣東 13945
性能 13942
榜@@ 13942
圓 13940
t@@ 13934
喜歡 13933
构成 13932
文明 13929
撰@@ 13917
民間 13917
缺 13917
讯 13916
锦标赛 13910
出售 13908
没 13907
实验 13905
耀@@ 13905
共产党 13903
評論 13901
气候 13900
~ 13898
指示 13897
河道 13895
85 13893
衔 13893
探 13886
霸@@ 13885
保障 13884
團隊 13883
般@@ 13880
问 13880
互相 13871
視為 13871
僧@@ 13868
碳 13858
24@@ 13847
输入 13847
只要 13846
荷蘭 13844
高等 13844
序@@ 13843
职务 13841
融@@ 13840
本作 13838
训练 13838
f 13837
实行 13829
奥运会 13827
学会 13823
熙 13821
日治 13820
特徵 13818
指控 13816
叔@@ 13812
偶像 13810
繼 13810
71 13796
常委 13795
氣象 13791
袭击 13785
几个 13784
針 13778
卡拉 13776
牆 13774
载@@ 13766
斑@@ 13765
階@@ 13765
分类 13753
勢力 13752
在位 13742
荷 13742
ing 13741
消失 13740
永 13739
完工 13735
方便 13735
甫 13730
物质 13722
社会主义 13721
荣 13718
利斯 13717
明星 13715
未有 13712
泛@@ 13712
為止 13710
服务@@ 13705
獨 13693
每天 13688
兩種 13687
醒 13679
莊 13675
总部 13671
接收 13666
民族@@ 13663
詹@@ 13651
追 13649
胸@@ 13645
工业@@ 13642
维亚 13639
86 13635
静@@ 13633
執導 13624
套@@ 13623
行政@@ 13621
此站 13618
拼@@ 13616
重庆 13615
分支 13614
娘 13610
应该 13608
娃 13600
英里 13600
肥@@ 13584
警告 13578
南極洲 13574
旅游 13569
押 13568
漁@@ 13562
農 13562
幽@@ 13560
弦 13560
幸 13557
考慮 13555
税 13550
结合 13549
檔 13547
聽@@ 13543
法庭 13534
最多 13533
夷 13524
启@@ 13523
条约 13523
狀@@ 13522
郊 13522
留在 13519
珍 13508
球员 13504
殿@@ 13503
泥@@ 13501
泥 13496
強烈 13493
恩省 13492
創辦 13491
燈 13491
召 13490
楼@@ 13489
蒋@@ 13489
防止 13489
鍵 13488
紋 13487
67 13473
尽@@ 13472
穩定 13467
價@@ 13465
儒@@ 13465
潜@@ 13456
续@@ 13452
宽@@ 13447
科学@@ 13440
碟 13438
访问 13438
1933 13430
仿 13429
掘 13428
臨時 13424
al 13422
治疗 13415
120 13413
专家 13409
確定 13407
上升 13406
拿下 13400
氯@@ 13400
苦@@ 13392
堪@@ 13391
汇 13390
1928 13386
小学 13382
天文台 13380
每日 13378
願@@ 13375
刚 13371
师范@@ 13371
地點 13367
83 13366
16@@ 13364
怪@@ 13360
衡 13357
政权 13348
主题 13347
筆@@ 13345
港口 13344
以此 13340
78 13338
辭@@ 13333
司法 13331
典型 13330
官員 13329
現象 13323
98 13322
催@@ 13322
外交部 13320
巴赫 13319
熊 13319
河南省 13318
1% 13316
用来 13315
戒 13312
桃園 13312
教会 13309
石油 13308
發布 13306
开发@@ 13300
身上 13293
地利 13290
毛泽东 13290
轟@@ 13287
所屬 13284
顧 13284
敢 13277
細 13276
獵@@ 13268
腳@@ 13265
形目 13263
常用 13259
弗朗@@ 13254
寶 13252
機關 13249
74 13248
不得 13247
另一方面 13241
氧化 13241
x@@ 13240
奧林匹克 13238
教練 13238
共产@@ 13232
質量 13226
事务 13225
99 13224
接任 13222
产业 13216
辛 13216
飛行 13216
68 13214
中华民国 13214
69 13211
镜 13210
布拉@@ 13205
當選 13202
中式 13196
织@@ 13195
教徒 13191
身分 13183
宿@@ 13179
任期 13177
增长 13172
行政院 13172
予@@ 13171
cn 13170
硕@@ 13170
盡 13165
悲@@ 13163
并于 13159
驚@@ 13157
特有 13153
武汉 13152
周年 13149
實驗 13144
被捕 13141
艾 13139
份@@ 13136
蛋 13135
出来 13126
使用者 13125
一场 13123
尼亞@@ 13122
译 13121
規 13118
蛋@@ 13116
坛 13115
第七 13113
科夫 13109
支付 13102
構造 13102
摧@@ 13099
農業 13098
玛 13091
羊 13091
體育 13091
1931 13082
這次 13082
50@@ 13073
四个 13073
賢 13073
冲突 13069
俘 13066
手段 13066
二十 13060
凌晨 13059
沿革 13058
忽@@ 13056
旦 13055
西安 13051
贾@@ 13047
1932 13045
同日 13045
並非 13043
选手 13042
電影@@ 13042
權力 13039
地形 13036
第一位 13035
该省 13034
銷售 13032
77 13031
那里 13025
少數 13018
伍 13017
um 13016
龄 13008
運輸 13003
codice 13001
路段 12995
1927 12994
考虑 12990
設定 12990
獻 12981
萬人 12981
移动 12980
祝 12976
收集 12969
愿 12968
大賽 12967
愿@@ 12966
广西 12961
證明 12961
记者 12961
许 12957
郡@@ 12957
麥 12957
寿@@ 12949
生存 12948
鼻@@ 12944
欧元 12941
潭 12937
所在地 12932
純@@ 12931
物質 12929
逆@@ 12926
性质 12921
補 12921
繞 12916
领导人 12914
恒星 12910
成就 12910
搬@@ 12909
绍@@ 12907
應該 12906
海上 12905
不要 12901
承認 12901
蛛 12897
惡 12896
藝人 12896
合約 12895
返@@ 12895
政黨 12892
賴 12891
儲@@ 12888
研 12886
壁@@ 12885
澤 12885
规 12882
坐标 12880
英国@@ 12878
通知 12877
放棄 12875
首位 12874
明顯 12864
i@@ 12860
選人 12859
麻 12855
失敗 12852
一項 12851
未来 12851
旅行 12850
掌 12847
升任 12843
蔣@@ 12836
邁@@ 12834
集合 12834
次世界大战 12829
开通 12827
周邊 12824
Z 12822
偷@@ 12821
顺 12818
玻@@ 12815
責@@ 12808
新闻@@ 12806
汀 12801
广播 12800
麟 12800
鬥@@ 12797
名单 12792
研究院 12789
游泳 12788
並將 12786
振 12784
提及 12777
金属 12777
意义 12767
柱@@ 12767
商品 12766
84 12764
92 12763
早上 12763
獎項 12757
亿元 12756
硬 12752
能源 12733
貢@@ 12733
當年 12732
讲 12728
后者 12723
有时 12722
两种 12721
料@@ 12721
晉 12720
必要 12711
四個 12709
歡迎 12705
淘汰 12705
殼 12703
连续 12703
謝 12699
席位 12696
一级 12695
畢@@ 12689
针 12689
跑@@ 12684
既 12681
大幅 12675
部長 12672
落成 12663
解放@@ 12649
腐@@ 12646
演奏 12640
89 12635
紅色 12635
稳定 12634
軟體 12629
完 12628
登場 12628
81 12623
下属 12623
纽约 12623
10.@@ 12622
隶 12618
德拉 12616
院长 12615
晶 12614
盐@@ 12614
盐 12612
拟 12611
繪 12611
层@@ 12607
数学 12604
赖@@ 12600
1934 12599
定居 12591
儿童 12588
91 12587
增 12580
害@@ 12579
折 12577
食用 12574
数字 12572
键 12560
40@@ 12558
哈尔@@ 12558
商店 12557
江苏省 12557
档 12553
貝 12553
即位 12550
甸 12548
斯州 12536
顧@@ 12536
出道 12533
安徽 12519
东临 12518
窗@@ 12518
荷兰 12518
古老 12516
大夫 12513
n@@ 12512
贝 12512
06 12506
大桥 12505
05 12504
俊 12501
宣傳 12499
狂@@ 12495
縮@@ 12494
79 12489
十一 12489
工厂 12488
介紹 12484
誕@@ 12482
困 12472
公斤 12470
芒 12468
抗日 12466
东西 12465
蝶 12465
大学@@ 12456
视频 12451
中国人民@@ 12449
另有 12447
湖泊 12442
祝@@ 12439
祠 12435
說法 12434
劇集 12430
駛@@ 12429
享年 12426
礦@@ 12425
储@@ 12424
贝尔 12424
金山 12422
筆 12419
纪 12418
体育 12417
航空@@ 12412
乐队 12400
濱 12400
粒子 12392
亡@@ 12391
发动 12387
賈@@ 12382
改建 12380
最低 12376
儀@@ 12368
金屬 12366
82 12360
裝置 12357
23@@ 12356
来说 12356
罕@@ 12353
西斯 12350
观点 12345
丰 12344
祥@@ 12341
十八 12340
引发 12340
令人 12333
舞蹈 12333
第七@@ 12331
原先 12328
慢@@ 12328
火星 12327
教练 12326
本片 12324
冯@@ 12322
廣州 12318
謀@@ 12317
儀式 12314
评论 12312
爵士 12311
直播 12309
起义 12308
亨@@ 12307
邑 12303
範 12299
豆@@ 12292
欣@@ 12291
撰 12290
譽 12288
當局 12283
局长 12281
大家 12279
93 12278
发射 12272
理想 12272
吸收 12264
媒@@ 12262
宣传 12262
综合 12262
拳@@ 12258
这次 12256
规则 12252
廖@@ 12251
一人 12249
创办 12249
教宗 12245
枪@@ 12245
谢 12245
峰@@ 12242
理由 12238
87 12237
下列 12237
陕西 12237
翔 12236
堆 12233
沟 12231
蹟 12229
丸 12227
夕 12226
a@@ 12224
临时 12219
什么 12219
高雄市 12216
推動 12209
類型 12209
乔治 12207
鐘 12200
继 12199
億@@ 12183
打破 12183
選為 12183
亿@@ 12173
仪 12170
兄 12170
礙 12169
锡 12169
經濟@@ 12166
1929 12160
r@@ 12159
阳市 12159
p@@ 12158
沉 12157
‘ 12155
针对 12154
東北 12149
雀 12149
出入口 12147
08 12145
壓力 12145
抵抗 12145
炸 12139
烟@@ 12139
奧斯@@ 12136
十四 12133
悉 12133
现象 12133
锋 12132
不滿 12131
鍾 12127
憶 12124
學名 12121
國內 12120
贈 12120
袋 12118
电视剧 12116
兒@@ 12106
痛@@ 12098
灭@@ 12097
店@@ 12094
滨@@ 12091
朝鲜@@ 12089
配置 12089
奎@@ 12079
學會 12077
宅 12068
北海道 12065
千米 12065
雌@@ 12061
束 12060
缓@@ 12060
衡@@ 12060
姜@@ 12055
斯坦@@ 12051
發射 12041
明显 12040
ー 12039
汉族 12039
旨 12038
號線 12034
夠 12029
統計 12023
祿 12022
基督 12019
飞行 12015
將其 12012
失败 12011
發起 12011
一百@@ 12009
麵 12007
慧@@ 12001
已知 12000
符@@ 12000
一项 11997
蹤 11996
零 11996
英格兰 11995
通用 11990
人数 11988
援助 11985
網絡 11984
覺@@ 11981
玻璃 11979
罗斯@@ 11977
似乎 11967
祭 11967
兩年 11959
螺 11950
海軍@@ 11949
2% 11941
損@@ 11941
藝術@@ 11940
時任 11935
聘 11932
上下 11926
权力 11921
黑龙@@ 11916
表達 11915
杜 11905
市區 11904
多數 11903
26@@ 11898
公安@@ 11895
撤退 11893
形容 11891
方程 11886
斑 11885
子女 11884
97 11883
常见 11880
赞 11879
南市 11872
姐 11872
1918 11869
青岛 11868
噴@@ 11867
鲍@@ 11866
並以 11865
布朗 11864
雍@@ 11863
陷入 11862
经营 11861
斯堡 11859
处于 11858
比利 11850
戒@@ 11848
1912 11846
建築@@ 11846
徽 11846
惟@@ 11846
儿@@ 11840
波蘭 11840
冰川 11838
剑 11837
乌克兰 11831
緬@@ 11831
安全@@ 11824
彌@@ 11820
宾 11816
引种 11814
贵 11810
出來 11809
汤@@ 11808
观众 11798
在内 11792
寬@@ 11785
列为 11784
洪 11784
滩 11781
96 11779
委員@@ 11779
讨论 11778
尼克 11777
天下 11775
疫苗 11775
構@@ 11771
乎 11769
屈@@ 11769
規則 11768
办理 11765
电台 11763
b@@ 11761
for 11760
劍@@ 11755
OS 11754
泰國 11752
並沒有 11751
最好 11751
逃 11748
大街 11743
憲法 11739
当年 11738
避 11738
拖@@ 11733
擾 11723
耐@@ 11723
展開 11722
練 11722
福建省 11721
围绕 11720
大楼 11718
聯合國 11716
積為 11708
維亞 11708
暨 11706
非法 11705
加利福尼 11703
結合 11700
关注 11699
岸@@ 11699
Q 11697
邵@@ 11695
十字 11693
地圖 11692
聚落 11692
上帝 11691
成長 11685
の 11680
威脅 11676
三角@@ 11674
中有 11673
安娜 11671
魔法 11669
医生 11668
翌年 11667
过去 11665
较@@ 11664
矿 11658
扬@@ 11655
算法 11653
寒@@ 11650
影像 11650
女王 11646
剪@@ 11645
坑@@ 11645
教师 11642
平衡 11640
響@@ 11639
来到 11635
资料 11635
遭受 11633
收購 11629
展开 11627
濃@@ 11627
03 11626
課 11623
紀念@@ 11617
首歌 11617
通信 11616
透露 11614
抵达 11609
猛@@ 11607
敗@@ 11604
腔 11601
实际上 11593
测试 11590
此地 11589
聚 11589
此事 11587
萬元 11585
第八 11583
巫@@ 11578
内陆 11571
腓@@ 11571
太后 11570
國東 11566
經驗 11566
漫 11564
一首 11563
起初 11562
率领 11556
肌@@ 11552
... 11541
作曲 11540
商場 11540
构 11536
鬼@@ 11536
碧@@ 11535
并入 11532
停靠 11531
陸續 11528
一半 11526
布鲁@@ 11521
塞尔 11520
崎 11516
患@@ 11515
朴@@ 11515
鹿 11515
国民@@ 11511
重量 11510
想要 11507
三人 11505
栖@@ 11505
句@@ 11499
驾@@ 11499
南京@@ 11498
披@@ 11496
估計 11483
災 11471
辭 11464
討 11453
戀 11448
勤@@ 11443
hant 11442
刚@@ 11441
比亞 11439
补 11439
脫 11434
以便 11433
洛克 11432
河北省 11426
角度 11426
定期 11423
總理 11418
带来 11416
法兰@@ 11411
壮@@ 11409
晋 11407
80@@ 11406
新聞@@ 11405
94 11403
蟹 11403
壤 11401
女孩 11399
誤 11398
→ 11397
引發 11397
內閣 11395
演化 11394
工作室 11392
枢@@ 11392
客运 11387
豐 11385
监 11384
标志 11383
珊@@ 11378
薄@@ 11376
郊@@ 11375
融合 11371
泊@@ 11370
通往 11369
粒 11368
晨 11366
翼@@ 11359
价值 11357
擅@@ 11356
學系 11355
月底 11355
相反 11353
斷@@ 11352
菌@@ 11352
隶@@ 11352
以西 11344
滨 11344
很少 11342
一代 11340
瑪 11340
恒@@ 11338
覽 11337
更是 11335
联合@@ 11334
同性 11332
朱 11327
忍@@ 11326
斜@@ 11323
聚集 11323
特里 11322
计算机 11321
一枚 11318
联合会 11316
兆@@ 11315
09 11313
策略 11311
功率 11310
銀 11307
了@@ 11304
创 11302
常常 11299
伊州 11297
十五 11297
侍郎 11295
灾 11294
遭遇 11290
额@@ 11289
萨克@@ 11287
黄 11286
卑@@ 11284
嘉義@@ 11282
院士 11281
多名 11280
姬 11279
27@@ 11276
编辑 11276
02 11274
AT@@ 11274
绝对 11272
旺 11271
信號 11270
衍生 11269
四月 11264
奥运 11263
新建 11263
搖@@ 11260
AS@@ 11253
況 11250
燕 11250
开展 11247
胺 11246
1919 11245
聞@@ 11244
獅@@ 11241
信号 11240
斯塔 11240
鸟 11240
氨@@ 11232
港元 11232
總部 11232
呎 11225
贡献 11225
既@@ 11223
谓 11220
台北市 11219
沿岸 11219
陀 11218
损@@ 11213
权利 11213
州府 11212
市委 11211
途中 11207
項@@ 11205
達成 11204
1924 11199
覽@@ 11196
械@@ 11195
時段 11194
公眾 11189
連結 11188
谱 11187
电视@@ 11182
杭@@ 11176
说法 11174
北面 11173
佩 11169
介绍 11158
關注 11155
划 11154
密度 11151
念@@ 11147
亚历@@ 11143
情形 11142
卷@@ 11141
效率 11140
展出 11135
高级 11135
柴油机 11125
简单 11125
掩@@ 11123
青少年 11120
南省 11117
鐘@@ 11113
组合 11111
凌@@ 11108
钟@@ 11107
覆 11106
政党 11104
開設 11103
礁 11101
航班 11101
搬 11097
冬 11094
南美洲 11092
華人 11084
賣@@ 11077
主流 11076
接觸 11076
悬@@ 11075
撒 11072
有着 11064
花園 11063
天体 11059
必 11059
大规模 11058
參選 11056
先後@@ 11055
隨即 11054
对象 11053
幻@@ 11051
邀請 11051
中市 11046
頻 11042
武帝 11031
肺炎 11031
序列 11027
赖 11025
丑 11024
赛事 11024
献@@ 11023
主打 11019
末期 11019
指揮@@ 11017
伊拉克 11016
闻@@ 11016
繫 11010
at 11006
奪得 11004
衛生 11003
襄@@ 11002
坝 11001
災@@ 10998
凱 10996
销@@ 10995
新界 10992
燃料 10988
立陶宛 10987
争 10984
本科 10984
参赛 10983
古典 10982
息@@ 10981
继承 10981
安装 10974
道德 10971
輻@@ 10969
觉@@ 10968
簡單 10967
中文@@ 10965
症@@ 10964
整合 10960
代替 10959
島嶼 10958
政權 10958
巡洋@@ 10954
校区 10949
兩者 10948
氣旋 10945
芳@@ 10943
贝尔@@ 10941
平均@@ 10938
霸 10936
g@@ 10935
董事@@ 10935
自我 10933
數位 10932
克拉 10927
共產黨 10925
昇 10918
菩@@ 10918
控股 10917
米尔 10917
差異 10915
晓@@ 10913
巴基斯坦 10908
救援 10908
分成 10904
年齡 10904
恐怖 10904
时任 10904
龐@@ 10904
人生 10900
月初 10899
来源 10888
鹽 10888
防部 10886
意味@@ 10882
雖@@ 10879
最高@@ 10873
清代 10873
倾@@ 10869
ia 10868
動力 10868
盡@@ 10865
罰 10865
1925 10864
28@@ 10858
其實 10858
涵@@ 10858
z 10851
陪@@ 10847
犹太人 10843
援@@ 10835
魚類 10835
新型 10833
菲律賓 10832
伯爵 10830
谋@@ 10830
叔 10828
答 10826
時代@@ 10823
氧@@ 10821
玩 10821
動作 10820
秦 10817
檔@@ 10815
隸 10814
像是 10809
定性 10807
埔@@ 10806
稀@@ 10805
仪式 10802
備@@ 10801
受傷 10796
條例 10794
1917 10793
单曲 10793
喪@@ 10791
錯 10786
運行 10780
勝利 10779
1926 10777
镜@@ 10777
十字@@ 10774
引用 10772
毕@@ 10772
漸 10772
癌 10770
拍攝 10769
分校 10765
罩 10756
Google 10755
原理 10750
o@@ 10748
1914 10747
鎖 10746
劇場 10745
倉 10742
誤@@ 10741
DVD 10738
區的 10738
耀 10738
卢瓦尔 10735
尖 10733
km 10731
屯 10730
翻译 10727
碳@@ 10725
宪@@ 10722
新竹 10722
签署 10722
12.@@ 10720
八月 10718
结婚 10717
超级 10716
幾個 10712
公众 10711
数据@@ 10708
毗@@ 10700
体系 10695
着@@ 10694
跳 10691
挑戰 10690
AR@@ 10688
現今 10688
詳@@ 10688
主管 10682
胡 10669
興趣 10668
收藏 10666
传播 10664
安裝 10660
事實 10653
負責@@ 10651
轨 10650
優 10647
29@@ 10646
支持者 10645
el 10641
洛斯 10641
冀@@ 10640
斯科@@ 10640
格式 10638
鏡@@ 10638
偶 10636
澳大利 10631
软@@ 10628
参数 10626
稅 10625
攻打 10624
涉@@ 10624
南面 10623
創造 10621
如今 10621
万美元 10614
燒 10614
实验室 10613
政部 10612
纪录 10612
矩@@ 10611
貓 10601
北市 10600
生产@@ 10598
Ch@@ 10596
運動@@ 10595
回應 10592
主义@@ 10590
佔@@ 10587
維爾 10580
请求 10580
坐 10578
競爭 10578
机会 10576
柏 10570
耗@@ 10570
濟@@ 10565
十二@@ 10564
励 10559
斐@@ 10559
噶@@ 10556
租 10556
纽约@@ 10556
福州 10550
抓@@ 10548
安徽省 10540
天然 10538
国民党 10536
考古 10536
茅@@ 10534
匹 10531
干部 10530
菊@@ 10529
信徒 10528
十月 10525
訴@@ 10518
卡斯 10517
曾祖 10517
近代 10506
动画 10504
大聯盟 10500
鄂@@ 10500
針對 10498
绘@@ 10497
府@@ 10495
溫度 10495
览 10494
喇@@ 10492
太陽@@ 10492
際@@ 10492
疆 10491
农 10490
起來 10490
南海 10489
k@@ 10488
樣@@ 10488
党员 10485
as 10484
蒲@@ 10482
證據 10480
采取 10480
威胁 10479
依照 10478
菜@@ 10477
休 10476
哲学 10473
亨 10472
此前 10471
入境 10470
附 10470
1922 10468
統治@@ 10466
巴伐@@ 10462
載@@ 10458
相互 10457
牧 10456
愛爾蘭 10449
勒斯 10440
罗斯 10435
崖 10432
叉 10428
高原 10426
相当 10422
訂@@ 10421
想法 10420
太平 10418
瑟夫 10416
超越 10416
亞目 10411
联合国 10411
七月 10409
允許 10409
毅 10409
顏色 10406
依據 10404
众多 10403
纽@@ 10396
湖南省 10395
裂@@ 10395
专门 10393
者@@ 10391
视为 10390
04 10389
全长 10389
爵@@ 10387
成分 10382
二月 10381
俠 10376
文献 10371
特点 10368
績 10368
日报 10365
迪士尼 10364
意識 10363
縱@@ 10363
三角 10361
卖 10360
装置 10358
族群 10356
格勒 10353
隨 10353
至於 10351
放在 10350
編劇 10350
織@@ 10349
壽 10341
拳 10341
突出 10339
技术@@ 10338
死刑 10338
機器 10337
上方 10336
哥伦@@ 10331
審 10327
狼 10327
幫@@ 10322
学科 10316
馮@@ 10312
採取 10311
部署 10309
分之一 10308
征服 10303
医学 10301
女主角 10298
豹 10298
並未 10294
什麼 10294
伸@@ 10292
万元 10290
领袖 10288
et 10286
雨量 10285
轰@@ 10280
布魯@@ 10279
學術 10268
教士 10265
遗产 10265
肃@@ 10263
扩大 10262
全国政协 10261
司令@@ 10254
250 10253
瘤 10252
主場 10246
德國@@ 10244
柄 10240
函數 10237
塘@@ 10237
划归 10233
海峡 10233
话@@ 10232
华盛@@ 10231
聯合@@ 10230
多种 10228
那么 10225
谋 10224
烷 10223
逼@@ 10220
放弃 10219
銷量 10214
岡 10213
一带 10212
1.5 10207
寨 10206
尼古@@ 10206
原來 10205
创造 10204
高雄 10204
德斯 10201
氣候 10201
症状 10200
星等 10199
犬 10199
訓@@ 10198
定理 10197
物品 10197
畫家 10197
班次 10196
邱@@ 10196
匹@@ 10194
壞 10193
紹@@ 10193
邊界 10193
閣 10193
燒@@ 10192
漸@@ 10188
尔特 10187
漠 10187
大眾 10185
发起 10181
窗 10180
阿富汗 10176
六月 10173
巧@@ 10170
掌握 10170
病逝 10165
抗議 10158
岩石 10155
懸@@ 10155
穴 10152
谈 10149
辑 10149
碰@@ 10148
红色 10144
平等 10143
帅 10142
埔 10141
十九 10134
危機 10132
山地 10130
损失 10130
牵引 10126
上面 10125
成熟 10119
一共 10117
内战 10117
國家隊 10117
巷 10117
胶@@ 10117
地点 10116
肃 10116
用以 10115
屏 10113
上陣 10110
成人 10105
稍@@ 10105
半年 10103
藉 10101
迦@@ 10100
貼 10092
鷹 10092
自动 10090
叛 10089
原則 10088
阿里 10088
流量 10086
平民 10083
涉嫌 10081
自此 10079
表达 10076
山区 10074
武装 10071
性質 10070
東南@@ 10068
染 10068
笔@@ 10068
館@@ 10066
关闭 10064
堡@@ 10063
代表团 10061
磨@@ 10061
替代 10060
相對 10058
声称 10056
幼 10056
現任 10054
首度 10050
航空公司 10047
传说 10042
奠@@ 10042
阻 10042
出色 10040
地上 10036
设计@@ 10035
塑 10031
隨後 10031
夺 10029
尼亚州 10029
吻 10027
仪@@ 10025
码@@ 10023
襲擊 10023
岳 10019
泡 10019
贵族 10016
殖民 10015
购买 10014
三月 10013
生產@@ 10013
議員@@ 10009
饰@@ 10009
繼承@@ 10005
民众 10002
07 10001
妙 9999
彻@@ 9998
電車 9998
变成 9997
兵团 9996
傳說 9994
吏@@ 9990
一套 9989
改编 9989
法蘭@@ 9989
道光 9988
爆 9987
葡@@ 9985
山西省 9980
销售 9980
梵@@ 9976
清楚 9976
理念 9972
識@@ 9968
转移 9968
芭@@ 9963
1921 9962
喷@@ 9958
推行 9958
仿@@ 9957
鄰近 9957
银 9956
邀请 9954
MV 9948
哥哥 9948
芝加哥 9946
脊@@ 9944
反而 9939
$ 9937
書院 9935
中間 9933
迷你 9933
一方 9932
浙@@ 9931
珊 9928
幫 9927
.@@ 9926
试验 9925
行走 9923
验@@ 9922
四大 9921
险@@ 9920
省政府 9917
耕@@ 9916
鼓 9915
格拉 9914
路易 9913
委任 9910
居民点 9910
大阪 9908
棘 9905
该市 9905
入选 9903
具体 9901
成年 9899
排行榜 9893
映@@ 9893
知識 9890
名單 9889
選出 9889
徽@@ 9887
工廠 9886
泰勒 9884
排列 9883
聲音 9882
合同 9880
剑@@ 9877
可用 9876
威爾@@ 9876
挖@@ 9873
年轻 9870
买@@ 9869
or 9864
貨 9863
加以 9862
环形山 9862
比較 9855
化學 9854
理器 9850
现任 9847
西班牙语 9847
聲明 9842
抵達 9841
剧院 9840
悠@@ 9839
v 9838
人大代表 9833
榮譽 9832
周边 9830
阿拉 9824
史密斯 9822
陨石坑 9822
夫斯基 9819
示威 9819
装备 9819
震 9819
座位 9818
砂@@ 9817
做法 9815
觀測 9812
下方 9811
吞@@ 9811
發電@@ 9811
韓 9811
隊伍 9809
101 9808
校長 9804
妹妹 9801
典禮 9799
圭 9799
满足 9799
領袖 9798
梦@@ 9793
长江 9793
ar 9789
通车 9788
任天堂 9784
俄国 9783
調整 9782
一間 9781
路上 9781
团队 9780
周围 9779
連載 9778
矛盾 9773
盜 9772
不得不 9768
強調 9768
碼頭 9765
杨 9764
进士 9763
濱@@ 9759
西接 9759
雇@@ 9759
山市 9756
两次 9755
创立 9755
基本@@ 9754
遣@@ 9753
晚期 9751
60@@ 9749
尋找 9748
認識 9746
稻@@ 9745
神社 9743
CO@@ 9738
揚@@ 9736
f@@ 9733
測量 9733
精神@@ 9728
天使 9727
亥@@ 9726
藥物 9725
11.@@ 9722
ン 9722
纹 9721
編輯 9720
賢@@ 9720
保守 9718
es 9715
斜 9715
緊 9712
棄 9711
部位 9709
3000 9700
奔@@ 9699
全世界 9696
電話 9696
韦 9695
IN@@ 9692
世界杯 9691
5% 9688
刀@@ 9687
訪問 9681
邻@@ 9680
鯉 9680
1913 9678
1911 9677
囊 9676
手中 9676
水深 9669
蕨 9668
偉 9666
络@@ 9666
婆 9663
祈@@ 9662
種族 9662
估计 9660
織 9660
1923 9659
管制 9659
作曲家 9658
生態 9652
公交 9651
声明 9651
多利 9648
污染 9644
傳播 9643
奧運@@ 9643
激烈 9642
聘@@ 9640
淑@@ 9639
课程 9639
人大 9637
婦@@ 9637
洗 9635
租界 9633
可是 9627
队伍 9627
篇@@ 9626
知縣 9624
保护@@ 9620
湖北省 9620
西省 9619
复杂 9618
当局 9615
正是 9612
对应 9611
暴 9610
會長 9609
發表@@ 9607
政治家 9605
法國@@ 9605
顾@@ 9603
崩@@ 9598
彰 9594
逐步 9593
剩下 9592
積極 9592
嘗試 9589
尹@@ 9588
如同 9585
蘇格蘭 9585
徵 9584
℃ 9576
戰後@@ 9576
成果 9575
碎@@ 9574
入口 9573
整體 9568
斯塔@@ 9568
橡@@ 9565
踏@@ 9565
經典 9562
行人 9560
臂 9559
綱@@ 9558
领土 9558
事业 9556
十大 9556
观察 9553
荣誉 9552
3% 9546
貫 9546
試圖 9545
勞 9542
意見 9541
腦@@ 9541
路线 9539
連任 9539
全新 9537
損 9537
碎 9536
导弹 9533
藉由 9533
藍 9530
課@@ 9530
翻譯 9529
色彩 9529
重返 9527
主张 9525
天津市 9525
疏 9523
检测 9517
妇 9514
特拉 9510
廢除 9509
靜 9508
形态 9504
運用 9504
ST@@ 9499
泰国 9499
女人 9498
总督 9498
合法 9493
泳@@ 9493
西里 9493
嚴 9492
恨 9492
四世 9491
方程式 9491
施工 9491
蔡 9491
軍團 9491
常务@@ 9489
α 9488
贡 9487
卢 9486
職務 9484
劫 9481
娶 9479
中间 9475
國際賽 9475
進步 9474
鸟@@ 9472
削@@ 9469
认 9469
一生 9466
延長 9465
税@@ 9465
琉球 9464
黑人 9463
三名 9462
講 9462
販@@ 9462
马尔@@ 9462
倉@@ 9458
兵力 9458
大批 9457
警報 9455
发动机 9454
绝 9454
署@@ 9450
件@@ 9448
耗 9448
责任 9445
棕@@ 9444
资金 9441
雕 9441
彥 9439
推翻 9437
劳 9436
食性 9436
小組 9435
桃 9433
第一部 9433
沟@@ 9432
醫學 9431
鮑@@ 9424
窄 9419
座堂 9416
1900 9414
韋 9414
佔領 9413
并未 9411
芬兰 9408
琪 9405
东北部 9404
首任 9404
權利 9402
隶属于 9401
克尔 9400
東西 9399
疾@@ 9399
习 9398
惜 9394
动力 9391
拔@@ 9389
35@@ 9388
修道院 9386
勃 9386
覆盖 9385
秘书长 9382
原型 9381
绕 9381
长度 9378
醫生 9376
薦 9375
理学 9370
經理 9370
旨在 9369
示威者 9368
最小 9367
輸 9367
罕 9361
之戰 9358
當中陸 9358
斯托@@ 9357
適 9357
一篇 9356
左翼 9353
扭@@ 9353
楚 9353
努 9352
燈@@ 9351
担 9346
损 9346
路易@@ 9346
沙田 9343
修正 9340
全国人民代表大会 9340
三次 9339
並不@@ 9337
氢@@ 9335
江南 9333
氧 9331
寸 9329
彰化 9329
筒 9329
地中海 9327
人才 9326
腦 9326
销 9326
人民币 9324
顧問 9324
埋@@ 9323
mm 9322
樂隊 9321
研究生 9321
槽 9318
實現 9316
藻 9316
診@@ 9315
麦 9314
午@@ 9313
尚书 9311
衛星 9311
塞尔@@ 9310
買@@ 9306
商业@@ 9303
境外 9303
男女 9303
笔 9301
質疑 9296
中正 9290
阿拉伯@@ 9290
探索 9289
賞@@ 9289
交易所 9288
誠@@ 9285
貢獻 9285
第三次 9284
言人 9284
之上 9281
哪@@ 9281
預計 9281
遍@@ 9275
卵@@ 9274
顯 9274
赤 9270
辨@@ 9269
鬥 9269
海南 9268
其餘 9265
宏 9265
纯@@ 9264
慕尼黑 9262
督府 9259
理工@@ 9257
意见 9252
冕 9248
法令 9247
帶來 9242
廠@@ 9242
同步 9239
鐵路@@ 9238
乳 9237
史蒂@@ 9237
橄@@ 9236
错误 9235
亩 9234
腿 9234
賜 9234
后期 9230
铸@@ 9227
立方米 9226
地下@@ 9220
錦 9220
星期 9219
接触 9217
曲目 9217
吉林@@ 9214
没@@ 9214
觀點 9212
錯誤 9212
灾@@ 9209
腊@@ 9209
額@@ 9208
塔尼 9204
民進 9199
減 9199
首個 9198
新城 9197
曉@@ 9193
怎@@ 9189
北平 9188
捷克 9188
厝 9187
泽尔 9187
购@@ 9183
戰士 9182
足以 9180
视星等 9179
东方 9177
妮@@ 9177
工程师 9174
武裝 9168
事務@@ 9164
確認 9164
才@@ 9163
串@@ 9162
亿 9162
铁路局 9160
保險 9155
味@@ 9154
歉 9152
祀 9152
贡@@ 9148
剩@@ 9145
簽署 9144
饮@@ 9143
雜 9140
坡@@ 9136
解除 9133
经理 9132
哲 9130
迫使 9130
納州 9129
DNA 9128
禄 9127
伟@@ 9125
定義 9125
丝@@ 9120
印第@@ 9115
根本 9115
w 9112
# 9110
陷@@ 9109
階 9107
百姓 9106
洛夫 9105
公室 9103
柬埔寨 9103
集团@@ 9103
职业@@ 9101
上游 9100
光绪 9100
肯定 9100
湿@@ 9094
德意志 9093
機械 9093
现场 9093
戊@@ 9091
軸@@ 9091
问@@ 9088
婆@@ 9087
大部份 9084
仇@@ 9079
百年 9079
多人 9077
细 9077
比利时 9075
變得 9075
欢迎 9074
廣東@@ 9073
模特 9070
ensis 9069
箭 9067
帥 9063
藩@@ 9063
链@@ 9063
教学 9062
薇 9060
提交 9059
评 9059
放送 9058
東方 9057
出场 9055
將軍@@ 9052
塞爾@@ 9051
顿@@ 9051
蓮 9048
先前 9047
好友 9047
暖 9047
阁 9047
阶级 9047
綠色 9045
溯 9041
中原 9040
裝備 9040
閱@@ 9040
顾问 9040
冲 9036
弟@@ 9035
灰 9024
十二年 9020
軟 9018
齡 9017
盾 9016
红军 9016
爾德 9014
王位 9014
宰@@ 9011
900 9009
布尔 9009
籃球 9008
溝@@ 9007
杆 9005
侧@@ 9004
些 9001
剧情 9000
练@@ 8998
容量 8997
阪@@ 8997
马克@@ 8997
办公@@ 8992
览@@ 8990
诚 8990
菲利@@ 8988
亿美元 8987
强度 8987
風險 8987
民主党 8984
絡 8983
篮球 8981
院校 8979
本名 8977
粮@@ 8977
请@@ 8976
听 8975
新西@@ 8975
除此之外 8974
會試 8969
‧ 8959
私立 8958
保安 8957
1909 8954
纽 8953
蓬@@ 8953
訪@@ 8951
量子 8951
媽@@ 8950
陈 8950
關閉 8947
现代@@ 8945
定位 8943
UN@@ 8942
教師 8942
洛杉磯 8941
鄰@@ 8940
高地 8940
110 8939
苯@@ 8939
九月 8938
加强 8938
合物 8938
欣 8938
知府 8938
否 8937
货运 8936
压力 8933
神秘 8932
l@@ 8930
氣壓 8930
en 8928
叫做 8926
独 8923
動機 8921
尿@@ 8921
社交 8921
m@@ 8919
发出 8918
巢 8914
歌唱 8914
請@@ 8912
題@@ 8911
终 8910
舟 8910
總督 8906
on@@ 8904
校舍 8904
仇 8902
華盛頓 8902
嗣 8901
亞歷 8891
拱@@ 8889
囚@@ 8884
蒙特 8883
裁判 8881
其余 8879
梯@@ 8879
确认 8878
忆 8875
緩@@ 8875
边界 8873
吹@@ 8861
埃尔 8858
町@@ 8858
接管 8856
大公 8853
保罗 8852
喬治@@ 8850
南北@@ 8849
农民 8848
市長 8848
缩 8846
辖@@ 8846
保護@@ 8845
愈 8845
加利 8843
丹尼 8842
丧@@ 8840
加工 8840
株 8838
玲 8837
公告 8836
屍@@ 8836
勳@@ 8835
國家@@ 8832
蔣 8830
孟加@@ 8828
两年 8826
一群 8824
腾@@ 8824
脂@@ 8818
對象 8816
祭祀 8815
古巴 8814
福利 8813
繼承 8813
德尔 8812
錢@@ 8812
学术 8810
英文@@ 8809
姆斯 8806
虹 8806
印刷 8804
对此 8804
建築物 8803
奶@@ 8802
较大 8802
寓 8801
一批 8797
這裡 8796
v@@ 8794
太守 8793
生長 8791
每次 8788
子公司 8786
十一年 8781
竣工 8777
布里@@ 8776
葬@@ 8776
觸@@ 8776
论文 8775
卢瓦@@ 8772
以往 8770
永久 8770
h@@ 8766
布里 8766
領土 8758
洛特 8756
am 8755
采 8755
政治部 8754
凯 8749
战略 8748
ch@@ 8747
恭@@ 8747
厦 8745
喜欢 8744
高架 8743
拉德 8740
磷@@ 8740
享 8738
蛇@@ 8735
么 8730
遊行 8722
接著 8717
私 8717
大字 8716
庇@@ 8716
初年 8715
证据 8714
丰富 8712
三届 8711
日報 8702
讷@@ 8702
贫@@ 8702
妇女 8701
祖先 8698
扁 8696
億元 8695
士学位 8694
缅甸 8693
气旋 8692
宣言 8691
山脉 8689
標誌 8687
移居 8686
第九 8683
Re@@ 8680
贵州 8680
煙@@ 8678
亲 8676
前者 8676
廟@@ 8676
反抗 8673
恆@@ 8670
白人 8669
是因为 8667
11@@ 8666
即可 8666
烧@@ 8666
架構 8664
軌@@ 8663
带有 8662
入球 8658
琳@@ 8656
智慧 8655
小姐 8653
辯@@ 8652
己@@ 8651
启用 8650
解放军 8650
能性 8648
闻 8648
狂 8647
戲劇 8646
有意 8646
利亚@@ 8645
平方@@ 8645
年任 8644
较为 8644
1916 8633
诞@@ 8632
离子 8629
逻@@ 8629
天文@@ 8628
對方 8626
水量 8626
合唱 8624
辩@@ 8624
勝出 8623
最新 8623
癌@@ 8623
膠 8623
够 8622
山口 8621
ER@@ 8620
辟 8620
顏@@ 8620
订@@ 8619
推 8618
灘 8616
夷@@ 8615
涌 8613
繁 8613
貧@@ 8613
指令 8612
循 8610
兩名 8607
擁@@ 8607
加勒@@ 8605
履@@ 8604
她@@ 8601
棟 8600
力学 8599
定義@@ 8599
屿 8599
HR 8598
幻想 8598
斥 8598
飯 8598
吾 8591
律師 8590
温度 8590
高校 8589
出版@@ 8588
外界 8584
韓國@@ 8583
甜@@ 8580
貞@@ 8579
斯山 8578
便是 8575
强烈 8575
医 8574
樞@@ 8574
国人 8573
id 8572
册 8571
價格 8570
壳 8570
印地安 8569
期刊 8569
其父 8568
圈@@ 8567
碑@@ 8566
2.5 8564
岗@@ 8564
穆罕默德 8563
斯托 8562
彼得@@ 8561
知县 8560
實行 8559
不仅 8556
民國@@ 8555
芝 8554
說明 8554
智利 8551
講述 8551
国家队 8550
喬治 8549
AN@@ 8546
豫@@ 8545
律师 8541
嘴 8539
遮@@ 8539
奖项 8538
老師 8538
十二月 8535
任職 8533
原来 8528
国立 8527
送到 8527
元朝 8526
释放 8526
普通@@ 8525
阿爾 8524
消 8520
中华人民共和国@@ 8519
丹麦 8519
罷@@ 8519
學士 8515
演員@@ 8515
自殺 8515
球场 8514
齿 8513
芒@@ 8512
1910 8511
多種 8509
莎白 8507
AM@@ 8506
女神 8506
锁 8506
靖@@ 8504
鰭@@ 8504
找@@ 8502
拉丁 8501
潜艇 8499
實驗@@ 8496
登陸 8495
畔 8492
误@@ 8492
阿尔卑@@ 8490
回答 8489
棉@@ 8489
九龍@@ 8488
叙@@ 8488
协助 8487
取自 8487
堤 8485
年時 8484
j@@ 8483
卫生@@ 8481
得分 8481
机械 8479
眠 8479
变得 8476
奥尔@@ 8473
彼此 8473
滋@@ 8473
东南部 8470
爱尔兰 8470
称作 8470
1915 8467
扩展 8467
AC@@ 8465
威尔 8465
旅遊 8462
拉姆 8460
价格 8459
十三年 8459
页 8459
沼@@ 8457
飛彈 8457
劇本 8456
in@@ 8453
可見 8453
新疆@@ 8452
議題 8450
專門 8448
九州 8447
責任 8447
三位 8445
撫 8445
總站 8445
路易斯 8445
宗教@@ 8444
至此 8443
般 8442
官至 8440
脱 8440
al@@ 8437
批判 8426
江戶 8426
东北@@ 8425
損失 8423
受伤 8422
有名 8418
陀@@ 8418
夏威@@ 8417
誉 8417
污@@ 8416
布拉 8411
肇@@ 8411
踪 8407
荐 8406
马克 8406
赠 8405
铺 8405
13.@@ 8403
罚 8401
遣 8400
黑暗 8399
斯洛伐克 8398
斗争 8396
吃@@ 8394
中山@@ 8391
鯉@@ 8391
倡@@ 8389
書籍 8388
紙@@ 8388
之名 8385
杀死 8385
電力 8385
祐 8383
事物 8382
償 8381
刺激 8380
谈@@ 8379
贺@@ 8378
羅馬@@ 8377
90@@ 8374
弱@@ 8374
向量 8372
桌@@ 8372
立場 8372
椅 8371
頗 8371
鹽@@ 8371
難以 8369
指导 8366
澄@@ 8366
明代 8364
辽宁@@ 8364
兩次 8361
社群 8360
AP@@ 8358
莱茵 8358
分解 8357
注入 8357
克羅@@ 8354
斯科 8354
兩位 8353
卫视 8352
站房 8352
挂 8350
加強 8345
灯 8344
Ar@@ 8342
该地 8342
马斯 8342
叙利亚 8340
戌 8340
势力 8338
專 8338
克里 8334
70@@ 8333
多数 8328
通車 8323
貝爾@@ 8321
福特 8319
公式 8317
滕@@ 8316
公社 8312
更改 8312
а 8310
受害@@ 8309
朵 8303
領導@@ 8302
爾頓 8301
姑@@ 8300
维持 8300
貴族 8300
一旦 8297
汗@@ 8295
茂 8294
寿 8292
龙省 8292
新人 8291
昭 8289
頒獎 8289
十七 8287
態度 8284
人民法院 8281
金融@@ 8281
基金@@ 8280
突厥 8280
裕@@ 8280
搭 8278
地址 8277
各國 8274
萨尔 8274
常委会 8273
戰車 8273
主辦 8272
姓氏 8272
感染@@ 8272
项@@ 8272
列為 8271
浓@@ 8271
逾 8271
卸@@ 8270
垂直 8267
尺寸 8267
坂@@ 8265
盆地 8264
各类 8263
籃@@ 8263
魁@@ 8258
構成 8255
湾@@ 8254
it 8253
脚@@ 8251
距@@ 8249
框@@ 8248
教区 8245
荷蘭@@ 8245
东京 8244
累计 8244
龜 8243
编号 8242
芝@@ 8240
筑 8237
审 8236
打擊 8236
遲 8235
南極條 8234
晉級 8233
更好 8233
悉@@ 8232
收购 8232
内阁 8231
楊 8229
男孩 8222
公署 8219
閉@@ 8218
嫁@@ 8215
福音 8215
鲜@@ 8215
肝@@ 8210
金曲 8210
波特 8209
紐 8209
簽約 8202
蝶@@ 8202
姓@@ 8201
国民政府 8197
二次 8195
漂@@ 8193
憶@@ 8190
停留 8189
17@@ 8187
铜 8186
本屆 8183
轉換 8183
建有 8180
所謂 8180
幕府 8179
炭 8179
用戶 8177
這項 8177
侦@@ 8174
印象 8174
an@@ 8173
平行 8173
大獎 8172
现有 8171
仑 8168
召開 8168
讨@@ 8167
墨 8163
穿越 8163
辖区 8160
性格 8158
數字 8158
签订 8157
話@@ 8157
勋章 8156
轴@@ 8156
議席 8154
宣告 8153
搜索 8152
總會 8150
銷@@ 8150
技巧 8147
烯 8147
军委 8145
la 8143
肥 8142
扣@@ 8138
提前 8137
赤經 8137
申请 8136
緒 8136
大帝 8134
多尔 8131
文化大革命 8130
研發 8130
这颗 8130
輔 8129
巴勒@@ 8125
滨海 8125
等待 8124
旧址 8123
种子 8121
正月 8120
證實 8119
高達 8118
作業 8116
布雷 8115
公转 8112
騎 8111
它@@ 8110
排名第 8109
碍 8107
会长 8106
詢 8106
僧 8105
盘@@ 8104
简介 8104
誠 8104
綜合 8103
大埔 8101
次日 8100
追求 8099
優勢 8098
免費 8095
最高法院 8093
世界各地 8092
讲述 8089
登陆 8088
密切 8086
投手 8085
防守 8084
當天 8083
造型 8082
天府 8080
平成 8080
月份 8077
漫画 8077
抢@@ 8076
通行 8075
哲學 8072
孕 8072
整体 8070
海峽 8070
愛情 8069
不可@@ 8068
兽 8068
函@@ 8067
吸 8065
員工 8062
该国 8060
摔@@ 8059
懷 8058
騎士 8052
军官 8049
大衛 8047
鈴@@ 8047
中华 8046
启动 8046
危机 8044
菲律宾 8044
药物 8043
这座 8042
熔@@ 8041
嶼 8038
宿舍 8034
析@@ 8033
SAO 8031
参谋长 8031
首批 8031
少将 8030
航天@@ 8029
阳县 8029
意识 8027
機制 8027
你@@ 8026
丹麥 8025
姊妹 8024
基本上 8022
其子 8020
條約 8020
该党 8020
布萊@@ 8017
材@@ 8016
人大@@ 8015
出自 8015
测量 8015
澎湖 8014
馆@@ 8014
夏天 8013
身体 8013
垂@@ 8011
霞 8010
对手 8009
骑兵 8009
擬@@ 8008
估@@ 8007
掛 8007
释 8007
高山 8007
鐸 8006
理事@@ 8005
就任 8002
惊@@ 8002
靠@@ 8002
大选 8001
伯格 7999
说明 7998
1901 7997
株@@ 7997
琉@@ 7997
5000 7995
ar@@ 7994
下游 7992
病人 7992
绘 7992
颜色 7989
第八@@ 7988
乾 7986
加速 7986
幹 7986
王室 7986
三甲 7984
检察@@ 7982
鼎@@ 7981
移交 7979
赤緯 7979
赶@@ 7978
彼@@ 7976
华人 7975
弗里@@ 7973
真實 7972
割@@ 7971
佛罗@@ 7970
新北市 7969
元音 7968
因應 7967
陨@@ 7967
乙 7966
党委 7966
拟@@ 7966
PC 7964
冈@@ 7964
在此@@ 7964
男人 7964
行政区 7962
运用 7960
醫 7960
坚持 7959
貫@@ 7957
产地 7949
禦 7949
其后 7948
簽訂 7947
错 7947
两侧 7946
碩士 7945
启 7944
陕西省 7942
桂 7941
布政@@ 7939
基督徒 7931
14.@@ 7930
珀 7928
截止 7927
褐色 7925
弃 7923
科学家 7923
UTC 7921
酮 7921
孝 7916
紛 7916
互联网 7913
弟子 7913
十一月 7912
汽 7912
蕃 7912
洪水 7911
世紀@@ 7909
時會 7907
检查 7906
优势 7904
改称 7904
有時 7904
草案 7903
巴斯 7901
徙 7900
一艘 7899
觀察@@ 7897
训@@ 7893
哺@@ 7892
博士学位 7891
一詞 7889
出戰 7889
1905 7884
慎 7883
瓶 7883
豐富 7883
同志 7881
抗日战争 7881
Al@@ 7880
不但 7880
克林 7879
蘋果 7879
贤 7879
南斯拉夫 7875
璋 7875
乌 7874
le 7873
一架 7871
恋 7870
秘書@@ 7870
這場 7868
加斯 7867
躍@@ 7867
告訴 7864
扰 7864
真的 7864
称号 7864
鴻@@ 7864
誉@@ 7863
一片 7860
純 7859
猪笼草 7858
维吾@@ 7858
候选人 7855
咖啡 7855
誌 7855
村民 7848
注册 7848
原则 7847
東南 7844
渔@@ 7843
趕@@ 7843
将领 7842
政府@@ 7842
缸 7841
综合@@ 7838
el@@ 7837
厦@@ 7837
霖 7837
潔 7835
人員@@ 7834
长沙 7831
负 7830
给予 7829
銀經 7829
鼓勵 7829
评为 7827
猜@@ 7826
械 7825
添加 7825
清真寺 7825
伙@@ 7824
翁@@ 7822
外国 7821
整理 7816
娱乐 7812
勳 7811
斌 7811
涵 7811
强调 7808
脊 7806
负责@@ 7806
閃@@ 7806
丞 7800
坎 7800
銀緯 7800
考察 7799
一届 7792
青年@@ 7791
课 7790
盧 7788
名叫 7787
忌 7784
秩序 7779
攜@@ 7774
欺@@ 7774
種類 7773
B1900.0 7772
兴建 7772
积极 7772
面向 7772
佛羅@@ 7771
谈判 7771
不僅 7770
匈@@ 7768
平定 7768
猫 7767
嫩 7765
驶 7764
使馆 7762
讨 7761
乘坐 7760
弄 7760
拉特 7758
種子 7754
名人 7752
文学@@ 7752
陶 7752
朗德 7749
車隊 7749
行业 7748
多夫 7747
栗 7747
請求 7747
YouTube 7746
粵語 7745
这部 7745
庞@@ 7744
风险 7743
蝠 7742
山東 7735
伽 7728
一本 7727
中心@@ 7727
回合 7727
那州 7727
鬆 7724
周恩@@ 7720
3D 7718
嗣@@ 7718
秘书 7718
困難 7717
治所 7717
画家 7717
美軍@@ 7716
公開賽 7715
仕 7714
130 7713
状况 7713
希特勒 7712
深圳@@ 7712
知识 7712
轨道交通 7712
一面 7708
仰@@ 7708
东南@@ 7706
太平@@ 7705
希臘@@ 7704
揮 7704
頒 7704
郎中 7702
． 7702
跃 7701
析 7700
一日 7697
信息@@ 7697
身亡 7697
當日 7695
翌@@ 7695
出土 7693
匯 7693
吊@@ 7693
紛@@ 7693
抗议 7692
箭@@ 7692
酯 7692
抱@@ 7691
详@@ 7691
花园 7690
33@@ 7687
深入 7686
医疗 7685
庵 7682
符号 7680
戰鬥機 7679
敲@@ 7678
en@@ 7677
屆@@ 7677
愛的 7677
慈善 7677
伽@@ 7676
國語 7676
裸@@ 7675
格林 7674
弥@@ 7672
凭@@ 7671
霍 7671
钟 7669
尝@@ 7668
促进 7665
誓 7662
介石 7661
大同 7661
John 7654
促 7653
昔@@ 7653
升級 7651
斯克@@ 7647
潘 7646
稅@@ 7644
任意 7642
罗伯特 7642
回国 7641
劫@@ 7640
眼睛 7636
止@@ 7634
苏格兰 7633
透 7633
庚@@ 7632
生效 7632
卡特 7631
拜占@@ 7630
軸 7630
伟 7628
竟 7625
一路 7623
阅@@ 7621
參與@@ 7619
纸@@ 7615
麓 7615
會員 7612
柳 7612
機車 7610
牲 7609
开工 7608
抚@@ 7606
東京@@ 7605
吏 7604
熙@@ 7603
肢 7602
鱸 7600
感情 7596
捲 7594
天主@@ 7590
鑑 7589
com 7588
相应 7587
適合 7585
名义 7578
慈 7578
藍色 7576
募 7574
俘@@ 7569
河口 7568
這也 7565
节度使 7562
协 7557
电力机车 7555
危 7553
37@@ 7552
傅 7552
报纸 7551
札@@ 7551
á 7550
要性 7546
雖 7545
翰 7540
圆 7534
纲 7532
u@@ 7531
润 7531
政委 7528
第一名 7528
把@@ 7525
领导@@ 7522
達到 7515
回家 7514
岗 7505
都督 7504
階級 7504
闭@@ 7500
殷@@ 7499
摇@@ 7497
CA@@ 7496
い 7491
分享 7488
穆 7487
娅 7484
订 7482
氟@@ 7481
磨 7480
培 7473
刘 7472
珀@@ 7472
閉 7472
反对@@ 7471
江省 7471
疗@@ 7465
冈 7463
雞 7463
攀@@ 7462
裴@@ 7462
34@@ 7459
嘴@@ 7458
一个@@ 7456
己 7455
Sh@@ 7450
链 7450
武汉@@ 7444
縣人 7443
盤@@ 7442
TO@@ 7437
棲@@ 7437
赏 7437
廢 7436
又@@ 7434
1903 7430
共和@@ 7421
娛@@ 7415
IC@@ 7408
臟 7405
糕 7404
叉@@ 7401
纯 7400
脑@@ 7399
戰鬥@@ 7398
抵 7398
央@@ 7397
稍 7397
哀@@ 7396
RE@@ 7395
塌 7379
穌 7379
轨@@ 7374
灯@@ 7373
符號 7373
厂@@ 7371
暫 7371
忍 7368
赴@@ 7367
奶 7363
臣@@ 7361
茄 7359
抱 7357
辐@@ 7356
桓@@ 7355
计算@@ 7347
狹@@ 7346
IM@@ 7345
尤 7345
瑜 7341
1500 7339
靖 7334
須@@ 7334
廉 7332
36@@ 7330
恐怖@@ 7327
椎 7325
蜂 7324
太郎 7321
狼@@ 7320
警察@@ 7320
睡@@ 7319
薄 7312
180 7307
1908 7306
寒 7305
莲@@ 7303
崙 7299
噸 7295
泳 7292
陆 7290
PlayStation 7287
夸@@ 7278
闽@@ 7278
触@@ 7274
BS 7269
加利福@@ 7266
辱 7264
鼠@@ 7259
太原 7258
侍 7256
储 7255
謂 7248
秉@@ 7246
浩 7245
緩 7244
抚 7243
脉 7243
腺@@ 7243
奔 7241
舱 7237
刷@@ 7236
尺 7231
抄@@ 7231
帽 7228
о 7227
ate 7226
140 7224
藉@@ 7224
烧 7221
漳@@ 7208
ISTAT 7207
or@@ 7204
嫁 7200
遞 7200
忘@@ 7199
蝙@@ 7196
葵@@ 7195
佑 7190
甘 7188
style 7186
泊 7185
衝 7183
脚 7182
铁路@@ 7182
Category 7181
拥@@ 7175
滾 7173
购 7172
歡@@ 7171
詢@@ 7171
姿@@ 7170
舌@@ 7169
矩 7168
煌 7161
驗@@ 7160
160 7156
蜜@@ 7156
SO@@ 7155
憲 7154
牽@@ 7153
床@@ 7143
猎@@ 7140
遼@@ 7127
勘@@ 7126
仓@@ 7123
殊@@ 7117
诉@@ 7117
庸 7115
酷 7115
静 7115
ac@@ 7112
ic@@ 7108
黛@@ 7106
閩@@ 7103
暗 7101
颶@@ 7101
陝@@ 7100
獵 7093
俄羅@@ 7092
厢 7090
蕾@@ 7084
鼎 7081
邪 7074
盈@@ 7072
禎 7071
譚@@ 7068
泡@@ 7067
僚 7059
浸@@ 7059
粹@@ 7057
阶@@ 7056
媽 7053
运动会 7053
1906 7051
荒 7049
逆 7049
NGC 7047
顾 7047
1907 7046
BD 7041
累 7041
align 7040
中华@@ 7040
丛 7039
泛 7039
滕 7037
沪 7034
棚 7033
廂 7030
賀 7024
赐 7021
杉@@ 7018
綠 7006
孩 7005
弘 7001
硝@@ 6998
os 6997
键@@ 6994
妖@@ 6992
款@@ 6991
鉴@@ 6990
动机 6989
ation 6988
阶 6982
软 6979
as@@ 6978
扇 6977
man 6974
英格@@ 6974
鯰@@ 6973
堆@@ 6971
炎@@ 6971
罢@@ 6968
矶 6967
賊 6965
尽 6961
郎@@ 6957
劣 6955
匠 6952
梦 6946
洛杉@@ 6938
矮@@ 6928
迟 6927
樑 6917
幢 6915
貓@@ 6910
1904 6909
垃@@ 6904
坤 6902
欄 6902
蕾 6901
鸡@@ 6895
III 6892
RA@@ 6889
宴 6887
翅@@ 6887
er@@ 6885
16.@@ 6884
colspan 6883
渠 6880
霧 6878
In@@ 6874
厄 6870
廿@@ 6868
鋼 6868
逸@@ 6867
陕@@ 6864
駁 6851
冯 6847
辉 6847
专区 6842
滾@@ 6839
15.@@ 6835
幅@@ 6825
携@@ 6823
蟲@@ 6818
ed 6817
废 6816
琼@@ 6816
劾 6815
焚@@ 6815
衍@@ 6804
艙 6801
LO@@ 6798
熟 6797
榴@@ 6794
TE@@ 6793
荆@@ 6792
慣 6791
薪@@ 6781
蛙 6778
蜀 6776
採 6774
钦@@ 6770
籤 6767
錫 6766
PS@@ 6762
毀@@ 6755
臀@@ 6753
括 6750
by 6745
歧 6745
侶 6739
棠 6724
櫻@@ 6723
邪@@ 6723
100@@ 6718
拯@@ 6715
銘 6704
肺@@ 6698
淺@@ 6697
壬@@ 6691
漏@@ 6685
妻@@ 6684
酷@@ 6682
\ 6675
翡@@ 6675
融 6668
w@@ 6666
尸@@ 6655
政协 6654
涛 6649
贯@@ 6648
访@@ 6646
IC 6644
贸@@ 6643
彗@@ 6637
鞍@@ 6632
募@@ 6629
绥@@ 6628
os@@ 6626
趨@@ 6625
帆@@ 6623
疾 6623
肩@@ 6618
行政区@@ 6618
纤@@ 6617
潭@@ 6614
IS@@ 6612
SE@@ 6612
膨@@ 6611
喬 6608
牟@@ 6608
卵 6603
苯 6600
45@@ 6598
埠 6597
炳@@ 6595
MS 6594
爐 6593
概 6592
突 6591
椒 6590
轻 6581
擋 6580
輛@@ 6579
爺 6571
診 6569
貢 6569
邸 6565
嫌@@ 6558
减 6557
AL@@ 6556
究 6555
ol@@ 6553
闊 6551
? 6546
奎 6546
尼亚@@ 6542
腹 6541
吴 6538
諮 6537
疆@@ 6533
z@@ 6531
烏 6531
截 6526
躍 6519
Linux 6516
38@@ 6515
籲 6515
AD@@ 6510
劉 6510
庶 6507
17.@@ 6506
兆 6506
坏 6505
拆 6504
虹@@ 6504
伙 6503
執 6502
涂@@ 6501
询 6498
搶 6492
39@@ 6490
啤@@ 6479
暂 6476
允 6475
color 6470
签 6469
叫@@ 6462
ch 6461
徐 6457
瓷 6448
閘@@ 6446
柯 6444
嘛 6443
吹 6441
骑 6440
瞄@@ 6437
凸@@ 6433
慘@@ 6433
礦 6433
360 6427
鄭 6424
鸿@@ 6418
韩 6417
誰 6416
魁 6414
扫@@ 6413
椎@@ 6413
恒 6409
函 6400
禪@@ 6400
鹰 6398
胞 6392
姬@@ 6390
拒 6374
贴 6361
淺 6354
蓄@@ 6353
background 6351
况 6350
须 6343
档@@ 6342
SP@@ 6340
匣 6339
卜 6335
β 6332
比利@@ 6330
栋 6322
鳳 6322
货 6321
鎖@@ 6321
蜂@@ 6314
另一@@ 6313
軒 6309
擺@@ 6307
− 6306
愈@@ 6305
禧 6305
賭@@ 6303
乒@@ 6302
燃 6300
勋 6299
AC 6297
j 6287
燥 6287
擁 6286
汶@@ 6286
105 6280
徹@@ 6273
唇 6272
稳@@ 6272
贯 6272
邏@@ 6272
и 6270
仓 6268
掠 6268
煤 6266
彬 6265
盜@@ 6264
夾@@ 6259
MO@@ 6258
皆@@ 6258
彙 6256
径@@ 6256
卖@@ 6254
粵@@ 6254
钢 6253
帖 6251
豬 6249
渠@@ 6243
堅 6233
逼 6233
儒 6232
焦 6232
勾@@ 6230
昏@@ 6230
枝@@ 6226
350 6219
欲@@ 6217
殖@@ 6215
淡 6206
贞@@ 6206
糧@@ 6205
輝@@ 6200
濕@@ 6196
芙@@ 6192
撤 6190
伪@@ 6184
宅@@ 6179
掛@@ 6179
坂 6178
寓@@ 6175
潤 6175
黏@@ 6174
插 6165
am@@ 6161
ad@@ 6160
斯拉夫 6157
頃 6157
束@@ 6156
齒@@ 6152
玫@@ 6149
center 6136
纷 6135
垣 6134
戏 6130
怡 6129
煙 6129
狭@@ 6129
浮 6125
适 6124
粤@@ 6123
掠@@ 6122
纸 6118
趋@@ 6118
梨 6116
代表大会 6115
碼@@ 6113
吳 6112
趁@@ 6104
蜜 6103
惑 6098
顷 6097
斯洛@@ 6092
腺 6091
仕@@ 6089
Co@@ 6083
咖@@ 6082
1898 6081
徹 6080
縱 6079
惟 6076
磅 6074
纖@@ 6073
恶 6071
欠@@ 6070
响 6067
焰 6067
ana 6066
氢 6066
躲@@ 6065
倡 6059
懼 6059
咒 6053
帆 6052
鎊 6047
迄@@ 6045
穗 6041
匪 6040
盒 6036
胎@@ 6035
犬@@ 6032
勁 6031
壯@@ 6030
ot@@ 6026
牙语 6026
慧 6019
邀@@ 6018
阔 6015
粘@@ 6013
荃@@ 6006
Con@@ 5999
1902 5998
递@@ 5996
忘 5995
瓣 5981
啦 5979
DS 5975
墙@@ 5975
毁@@ 5975
豫 5974
握@@ 5970
An@@ 5969
跋 5968
迎 5966
鞋 5966
築 5965
BO@@ 5960
隙 5957
欽@@ 5956
挂@@ 5955
寇 5951
緣@@ 5946
豬@@ 5944
MP@@ 5937
诊@@ 5934
债@@ 5931
at@@ 5930
辅 5927
浅@@ 5926
卓 5924
妥@@ 5924
惨@@ 5922
18.@@ 5917
US@@ 5915
爪@@ 5914
洁 5905
觸 5900
紹 5898
ie 5897
舌 5894
text 5891
梨@@ 5890
標賽 5878
孕@@ 5877
昆 5877
彎@@ 5876
赵 5873
丞@@ 5853
弓@@ 5851
曝@@ 5851
扁@@ 5849
1895 5848
歡 5848
太人 5847
鶴@@ 5846
75@@ 5844
崇 5839
桐@@ 5837
墨西@@ 5836
om@@ 5831
败@@ 5828
赋@@ 5825
螢@@ 5824
22@@ 5818
汁 5818
闭 5816
契 5807
í 5806
允@@ 5805
递 5805
is@@ 5804
玄 5804
频 5803
65@@ 5800
咀 5800
AM 5799
措 5798
墟 5796
喻 5793
爬@@ 5792
De@@ 5787
驶@@ 5782
18@@ 5781
詳 5781
飯@@ 5781
艮@@ 5776
薪 5772
酋@@ 5772
殉@@ 5771
瀑@@ 5771
鳴@@ 5768
扣 5764
葛 5762
吾@@ 5761
跌 5754
纷@@ 5753
隸@@ 5752
腰 5751
偽@@ 5749
瑰 5746
兔 5743
峡@@ 5742
逸 5742
慰 5738
賦@@ 5737
鋪 5735
偏 5733
劝@@ 5727
甚 5727
仲 5724
瓊@@ 5723
伐@@ 5721
勵 5719
ü 5718
臉@@ 5718
怨 5717
厅@@ 5716
添@@ 5716
押@@ 5710
坚 5708
夕@@ 5706
盲@@ 5705
one 5703
鯨 5698
偿 5694
马来@@ 5694
鸡 5694
骸 5691
膠@@ 5690
DC 5686
鱗@@ 5681
帳@@ 5678
癸@@ 5676
One 5670
侠 5669
禾 5668
AN 5666
咨@@ 5664
し 5663
MI@@ 5661
苗 5660
Love 5658
塗@@ 5657
鏈 5657
竟@@ 5654
夥@@ 5635
捉 5632
SH@@ 5631
盗@@ 5631
凹@@ 5630
拓 5630
天津@@ 5628
雞@@ 5628
慮 5626
怀 5623
墅 5614
曹 5612
ス 5609
籍@@ 5609
イ 5605
岭@@ 5604
学位 5601
橙@@ 5600
19.@@ 5599
盗 5599
国务@@ 5593
FC 5592
恭 5591
ve 5586
桶 5586
倍@@ 5583
繩@@ 5581
苹@@ 5581
貞 5580
債@@ 5578
ata 5576
驅 5576
ā 5570
墩 5569
3.5 5568
糾@@ 5564
鴨 5564
4000 5561
乔 5555
拋@@ 5555
稣 5548
吁 5547
高雄@@ 5547
NE@@ 5545
删@@ 5545
输 5543
娘@@ 5540
窟 5539
BBC 5531
呢 5531
貪@@ 5531
勸 5527
嬰@@ 5526
黎 5524
韻@@ 5523
卯 5519
彦@@ 5517
冥@@ 5513
郭 5509
笑@@ 5508
ad 5506
龜@@ 5505
疊 5501
价@@ 5500
钠 5498
ON@@ 5496
態@@ 5496
st@@ 5495
ap@@ 5493
預 5493
47@@ 5491
雀@@ 5491
娥 5490
胶 5490
漏 5488
卸 5486
挺 5485
蓝 5484
ん 5481
Facebook 5479
un@@ 5478
針@@ 5478
砂 5477
吋 5475
World 5474
狩@@ 5469
104 5466
绪 5460
尹 5459
欖@@ 5458
齋 5457
PS 5453
200@@ 5452
寵@@ 5448
堪 5444
е 5440
鯰 5440
48@@ 5435
肅 5434
贤@@ 5430
Mar@@ 5425
恆 5425
尺@@ 5421
-- 5420
誘@@ 5420
偷 5409
摘@@ 5408
桐 5408
108 5406
es@@ 5404
淨@@ 5398
【 5396
】 5396
纵 5396
粒@@ 5394
闪@@ 5393
高速@@ 5391
55@@ 5385
帽@@ 5379
潔@@ 5376
菊 5376
氮 5373
ine 5372
慰@@ 5370
穩 5369
挥 5368
Microsoft 5366
幾 5365
掃@@ 5365
稻 5365
ó 5364
册@@ 5362
舖 5357
买 5354
颜@@ 5345
弓 5344
券@@ 5342
遍 5342
凰 5340
旱 5340
102 5336
鳴 5336
牵@@ 5333
獅 5328
襲@@ 5325
塚 5323
with 5322
棘@@ 5321
蜘@@ 5321
欢@@ 5320
н 5318
※ 5318
1896 5315
衍 5314
俞@@ 5311
ina 5310
晨@@ 5309
棄@@ 5309
妙@@ 5308
1890 5307
岐@@ 5304
糊 5303
Th@@ 5301
-@@ 5300
詔@@ 5299
梭 5297
溯@@ 5292
贾 5292
爪 5289
荔@@ 5289
AG@@ 5288
栏 5287
喊 5286
牡@@ 5285
踢 5284
课@@ 5283
蓬 5280
诏 5280
46@@ 5279
蔽 5278
伺@@ 5275
RI@@ 5272
瑚 5271
淘@@ 5268
荊@@ 5268
巧 5266
餅 5266
氯 5265
罹@@ 5265
乓@@ 5259
筑@@ 5259
札 5256
RO@@ 5255
怡@@ 5255
憤@@ 5252
绕@@ 5251
125 5249
ai 5249
仗 5249
淨 5244
墳 5241
th@@ 5239
韶@@ 5239
撥@@ 5231
103 5228
绩 5228
膚 5227
鼻 5221
section 5220
圾 5219
斬 5216
晴@@ 5214
宪 5212
摆@@ 5211
纺@@ 5211
瀨@@ 5203
Car@@ 5199
end 5199
寅 5197
董 5194
New 5193
鄂 5191
ES@@ 5186
1897 5181
钦 5180
篮@@ 5179
鴻 5179
杏@@ 5176
斋 5173
贏 5172
纠@@ 5168
訟 5168
丈 5166
埋 5166
虐@@ 5166
た 5165
杉 5165
逝 5165
LE@@ 5164
搞 5160
it@@ 5158
DE@@ 5153
飲 5153
宰 5151
AR 5144
櫃 5144
橫 5143
20.@@ 5138
萄 5138
鑑@@ 5134
錯@@ 5131
Live 5130
魅@@ 5130
绍 5129
诸 5128
穀 5127
AKB48 5123
桿 5121
蓉 5121
释@@ 5118
寡@@ 5111
騷@@ 5110
柔 5105
oc@@ 5101
彰@@ 5101
斐 5098
纂 5096
da 5093
齿@@ 5093
猎 5089
Br@@ 5083
圭@@ 5082
Par@@ 5081
CC@@ 5079
49@@ 5078
冶@@ 5077
Ex@@ 5076
猪 5076
財 5076
ル 5073
侨 5070
溝 5068
106 5066
ph@@ 5065
甸@@ 5057
猛 5056
蝦 5055
遙@@ 5050
净@@ 5045
彭 5044
辞 5044
撫@@ 5043
貿@@ 5036
刪@@ 5035
紫 5034
翅 5034
迦 5031
re@@ 5030
id@@ 5029
弦@@ 5026
AI@@ 5025
崛@@ 5019
ul@@ 5018
う 5018
噪@@ 5018
裹 5014
炉 5013
賠@@ 5013
垒 5011
畢 5011
萍 5011
ay 5009
壩 5008
帮 4995
庶@@ 4995
贈@@ 4995
Le@@ 4994
療@@ 4994
GB 4993
睡 4992
葵 4992
蜀@@ 4992
ma 4990
109 4989
祇 4985
剩 4981
猴 4981
Music 4980
滚@@ 4980
繳@@ 4980
蔬@@ 4977
彪 4975
拉夫 4973
剥@@ 4972
悟 4965
俱@@ 4964
蜥 4962
懲@@ 4960
泄@@ 4954
欽 4950
矢@@ 4950
意志 4949
son 4946
CH@@ 4945
Cor@@ 4945
綁 4935
You 4934
辨 4934
1200 4933
宦@@ 4933
慣@@ 4930
紋@@ 4930
瓶@@ 4926
峻 4925
棒@@ 4923
喝@@ 4921
础@@ 4921
铺@@ 4921
且@@ 4920
RNA 4919
恐 4919
蜥@@ 4915
荡 4913
44@@ 4910
湯 4909
170 4907
蘿@@ 4902
鮮 4900
閱 4899
1899 4897
湘 4897
嵌 4896
凉@@ 4894
谭@@ 4893
li@@ 4892
夹@@ 4891
淮 4890
NO@@ 4887
郁@@ 4881
僑 4879
奸 4876
鉴 4873
耿@@ 4871
茎 4870
浏@@ 4869
俯@@ 4868
莲 4868
+@@ 4864
107 4863
恰 4863
乞@@ 4861
彝@@ 4861
旭@@ 4861
淆 4858
Tr@@ 4854
磁 4853
0.5 4851
Android 4850
亂@@ 4850
参 4845
棉 4845
SS 4843
砖@@ 4842
q 4840
窮 4840
狙@@ 4839
渐@@ 4838
坞 4834
UA 4833
2.0 4832
矮 4832
ic 4830
廈@@ 4829
EN@@ 4828
酬 4828
ID 4826
误 4823
ers 4819
辉@@ 4819
韻 4817
虞@@ 4816
IP 4812
穩@@ 4811
塢 4809
妇@@ 4808
120@@ 4802
倪@@ 4801
纬 4801
NHK 4797
簡 4795
筋 4793
汕@@ 4791
崩 4786
ae 4785
脏 4785
鬚 4783
1.2 4781
烟 4777
ter 4774
惯@@ 4773
ME@@ 4771
豚 4770
禅@@ 4769
鱷 4769
銅 4763
显 4761
芽 4759
络 4758
р 4757
虏 4757
晰 4755
狮@@ 4754
眉 4754
烯@@ 4745
添 4744
RT 4742
疫@@ 4741
戚 4740
と 4738
详 4737
侄@@ 4736
il@@ 4734
冒 4733
鹏 4733
则@@ 4730
招 4730
築@@ 4730
ed@@ 4728
婉@@ 4728
1889 4727
阜@@ 4726
烹@@ 4725
暖@@ 4723
宴@@ 4722
lo@@ 4720
巢@@ 4719
St@@ 4716
醉 4715
些@@ 4713
掃 4711
榆@@ 4710
祯 4710
蝕 4706
禦@@ 4702
僱@@ 4694
氫 4694
鹤@@ 4694
菱 4690
驚 4689
璃@@ 4688
silver 4687
SS@@ 4686
悼@@ 4686
喉@@ 4681
School 4679
挽@@ 4679
ラ 4676
der 4673
错@@ 4672
IG@@ 4671
ö 4670
SA@@ 4669
怒@@ 4667
疊@@ 4666
骼 4666
贏@@ 4664
顛@@ 4662
騙 4662
擲 4660
24.@@ 4655
• 4653
23.@@ 4645
聰@@ 4636
銘@@ 4636
舟@@ 4632
践 4630
杖 4624
鑽@@ 4624
涌@@ 4622
肆 4622
ica 4618
严 4616
搶@@ 4614
眉@@ 4614
PE@@ 4613
殖民@@ 4611
饭@@ 4608
115 4605
ur@@ 4598
腰@@ 4598
潰 4597
囊@@ 4596
狗@@ 4596
か 4595
繩 4595
顆@@ 4591
奮@@ 4589
蔓@@ 4589
擦@@ 4588
Cl@@ 4585
頸 4583
旦@@ 4580
騰 4579
AT 4578
馮 4576
淳 4573
碗 4573
浴@@ 4571
tr@@ 4568
恋@@ 4568
描 4566
禾@@ 4566
鑼@@ 4566
ER 4564
64@@ 4562
MA 4562
擦 4562
笛 4559
21.@@ 4556
娜@@ 4555
瞬@@ 4555
68@@ 4553
孚 4551
暢@@ 4550
廚@@ 4548
穎 4548
舶 4547
拨@@ 4542
爛 4542
450 4541
em@@ 4540
戎 4536
渤@@ 4536
弧@@ 4535
猴@@ 4532
盾@@ 4531
111 4530
漆 4528
莖 4528
sh@@ 4526
蝴@@ 4526
彦 4525
搞@@ 4523
EP 4521
纹@@ 4519
嵌@@ 4516
爸 4512
痕 4512
砖 4512
硫 4511
箱@@ 4511
卧@@ 4510
ti@@ 4509
嗎 4509
崗@@ 4508
西班@@ 4504
CR@@ 4499
钻@@ 4497
説 4493
哭 4492
辣@@ 4492
瓷@@ 4489
氛 4488
杆@@ 4487
Di@@ 4485
et@@ 4485
简 4485
郝@@ 4483
op@@ 4482
遞@@ 4480
跌@@ 4478
姑 4474
啡@@ 4472
67@@ 4470
污 4470
狐@@ 4470
酰@@ 4470
43@@ 4469
Bo@@ 4469
丛@@ 4468
庙@@ 4467
墜@@ 4465
咸 4464
Qu@@ 4463
SA 4458
IS 4456
毅@@ 4455
氟 4455
檢 4453
诱@@ 4452
瑙@@ 4450
淋@@ 4447
辑@@ 4445
楠 4444
are 4442
哇 4442
疲@@ 4440
Mo@@ 4439
int 4439
慕 4438
颗 4436
蚀 4434
輯@@ 4434
le@@ 4433
抓 4432
禍 4432
99@@ 4428
姊 4426
220 4425
腐 4425
賈 4422
喙 4421
に 4420
1860 4417
ton 4412
22.@@ 4405
cm 4405
赣@@ 4397
孢@@ 4394
叠 4393
譴@@ 4393
1880 4389
ab@@ 4387
谁 4385
ang 4384
涼@@ 4382
鵬 4382
潛 4380
沪@@ 4378
湿 4378
妾 4374
愉@@ 4374
ak 4373
陇@@ 4369
祁@@ 4367
​ 4366
ag@@ 4364
GP@@ 4360
汤 4360
渐 4358
1600 4357
渦@@ 4351
謙 4346
凶@@ 4345
AV 4342
な 4342
邢@@ 4342
凤 4341
陰 4341
誓@@ 4340
骚@@ 4340
翻 4337
凌 4335
鱂 4333
西洋 4331
畜@@ 4330
敖@@ 4327
誼 4326
CS@@ 4325
樊@@ 4322
趾 4322
峽@@ 4320
240 4318
役@@ 4317
25.@@ 4313
1800 4312
挝 4312
ec@@ 4310
傍@@ 4310
雁@@ 4309
ity 4307
嫡@@ 4307
La 4306
ta 4306
135 4304
1894 4304
繞@@ 4300
赔@@ 4299
聊@@ 4298
112 4297
胃@@ 4296
奋@@ 4295
踐 4295
Me 4290
′ 4289
煽@@ 4288
ト 4286
谴@@ 4284
谱@@ 4283
针@@ 4283
CD@@ 4281
1871 4280
58@@ 4279
る 4278
蟻 4275
TVB 4274
赠@@ 4274
1870 4272
醛 4272
缀 4269
脈@@ 4261
di@@ 4257
4.5 4255
献 4255
铭 4255
辽 4253
唇@@ 4251
弼 4251
叢@@ 4249
悅 4245
渭@@ 4245
绿 4245
un 4244
甄@@ 4243
56@@ 4242
凰@@ 4242
哩 4242
輩 4239
Xbox 4238
仆@@ 4237
0.0@@ 4236
樟@@ 4236
拱 4233
罵 4233
栗@@ 4227
David 4223
预 4223
VI@@ 4222
邯@@ 4222
im@@ 4219
碱@@ 4218
衙@@ 4218
贊 4217
瘋@@ 4213
峙 4212
杯@@ 4212
赏@@ 4208
漿 4207
丟@@ 4203
织 4203
脹 4201
抽 4198
57@@ 4197
紮 4194
练 4193
虽 4192
ah 4190
Se@@ 4188
贞 4188
飼@@ 4185
疼@@ 4183
泌 4178
茵@@ 4176
削 4171
天堂 4169
憂@@ 4169
AL 4167
Be@@ 4165
诏@@ 4165
FI@@ 4164
勢@@ 4164
讼 4163
牺@@ 4162
迅 4161
PO@@ 4157
贪@@ 4156
胸 4155
畜 4151
115@@ 4149
萌@@ 4148
128 4147
兔@@ 4146
匿@@ 4145
婿 4145
è 4144
颇@@ 4144
畏 4143
婷 4142
剿 4141
挺@@ 4141
棍@@ 4140
International 4137
University 4136
巩@@ 4135
巫 4134
颇 4133
In 4131
袍 4131
蘆@@ 4130
阅 4128
98@@ 4121
BA 4120
衷 4119
輿@@ 4119
饶@@ 4115
肿@@ 4112
闆 4111
壯 4107
抛@@ 4106
26.@@ 4105
扳@@ 4105
您 4103
薯 4102
罰@@ 4101
碱 4099
遂@@ 4096
寇@@ 4095
95@@ 4093
尋 4092
赐@@ 4090
CC 4086
遥@@ 4086
朔@@ 4081
屍 4080
溃 4079
却@@ 4076
藻@@ 4075
虜 4074
剝@@ 4072
琦 4071
撐 4070
检 4069
te 4067
润@@ 4062
粮 4060
27.@@ 4058
鍵@@ 4058
En@@ 4057
究@@ 4056
缅@@ 4054
DO@@ 4051
朋@@ 4048
с 4047
駿 4043
Mon@@ 4042
狐 4041
6000 4039
懂 4039
胤 4035
人口@@ 4034
Am@@ 4029
1885 4026
AB@@ 4026
拾 4026
稚 4024
犧@@ 4023
騰@@ 4022
疇 4020
闖@@ 4020
衞 4019
矣 4018
磡 4018
幣@@ 4015
銳 4015
势@@ 4014
酉 4014
笠 4012
TC 4011
竭 4011
斥@@ 4010
捐 4008
谊 4007
鮋 4007
帜 4005
88@@ 4002
廓 3998
肖 3996
卑 3995
頸@@ 3995
貸@@ 3992
簿 3991
127 3988
201 3987
Col@@ 3987
IT@@ 3987
肌 3985
阜 3985
be 3984
El@@ 3983
轟 3981
暑@@ 3980
茵 3980
乱@@ 3976
栏@@ 3976
28.@@ 3974
隱 3974
惯 3973
潤@@ 3973
85@@ 3972
Ge@@ 3972
埼 3972
畿 3972
撲 3970
粟@@ 3970
芦@@ 3969
讯@@ 3967
聂@@ 3964
宛@@ 3961
IV@@ 3957
缘@@ 3954
喀 3953
Me@@ 3952
禄@@ 3952
Li@@ 3951
抄 3950
奥林匹@@ 3949
旱@@ 3948
挖 3946
翠 3944
喚 3943
孟 3942
愤@@ 3942
坪@@ 3940
账@@ 3940
擾@@ 3938
拒@@ 3937
IA 3935
78@@ 3934
膀 3934
腸 3932
横 3930
謠 3930
Bar@@ 3927
大战 3924
阎@@ 3921
堵 3920
di 3918
320 3916
Vi@@ 3914
臭@@ 3914
碧 3912
蕉 3910
弯@@ 3909
Mac 3908
誕 3908
氫@@ 3906
鯛 3905
汶 3904
鞭@@ 3904
暹@@ 3903
澄 3903
韵@@ 3903
Team 3902
阴 3902
age 3900
280 3898
釜@@ 3897
膽 3892
蛤@@ 3891
芙 3890
郁 3890
饼 3890
垂 3888
柴 3888
230 3887
薇@@ 3887
爽 3885
Per@@ 3884
ps 3884
122 3883
湛@@ 3881
籌 3879
atus 3874
勸@@ 3870
颠 3870
113 3869
co@@ 3869
抬@@ 3869
牆@@ 3868
ley 3866
蛾 3864
66@@ 3861
1.6 3858
簧 3858
詠 3856
醉@@ 3855
ク 3854
舆@@ 3854
ref 3853
屈 3852
to@@ 3851
ア 3851
Saint 3847
慾 3847
NH@@ 3842
_@@ 3842
幟 3842
罚@@ 3841
59@@ 3840
鸣 3839
濤 3835
淵 3833
特勒 3833
十一@@ 3831
桿@@ 3831
ent 3830
Ac@@ 3829
啊 3829
〜 3828
梓@@ 3828
190 3827
緯 3827
塾 3823
缓 3823
贺 3820
瞭@@ 3818
橘@@ 3817
爬 3814
ä 3812
绵@@ 3809
痕@@ 3807
孜@@ 3805
ra 3804
1.8 3803
乏 3803
煮 3803
慎@@ 3802
堵@@ 3801
宙@@ 3801
de@@ 3797
毓@@ 3796
芯@@ 3796
7.5 3795
り 3795
桓 3795
述@@ 3795
喝 3793
宵 3789
釣@@ 3788
晴 3787
旭 3785
脉@@ 3784
吞 3783
贼 3783
賦 3782
Twitter 3781
侨@@ 3778
贸 3776
憂 3774
謙@@ 3772
僵@@ 3770
晓 3768
т 3767
リ 3767
沛 3767
鸣@@ 3767
肤 3765
砌 3764
娃@@ 3760
匙 3758
综@@ 3757
趙@@ 3757
遜@@ 3757
榄@@ 3754
雯 3754
123 3750
1892 3749
臥@@ 3749
廁@@ 3748
互 3746
77@@ 3741
蓄 3741
IV 3739
001 3738
淳@@ 3738
贷@@ 3738
迈 3738
鵝@@ 3736
氰@@ 3735
0.00 3734
閩 3734
惩@@ 3732
濫@@ 3732
肩 3732
兇@@ 3730
胚@@ 3730
孩@@ 3729
牢@@ 3728
29.@@ 3726
CE@@ 3725
My 3724
1893 3723
ea 3723
AS 3722
沈 3721
混 3719
121 3718
Sch@@ 3718
迭@@ 3718
阀 3718
se 3717
姿 3717
AP 3715
do 3715
框 3714
舒 3714
TV@@ 3712
斩@@ 3712
諸 3712
CI@@ 3711
懿 3711
締@@ 3709
臉 3709
泗@@ 3707
铭@@ 3707
帮@@ 3706
滇@@ 3701
蒼@@ 3701
賜@@ 3699
氮@@ 3696
溉 3696
悟@@ 3695
は 3694
腾 3694
210 3693
殊 3691
na 3689
IP@@ 3688
PA 3688
Mc@@ 3686
that 3686
扮 3686
贫 3686
闢 3686
諭 3685
114 3684
淚 3684
捍@@ 3683
琛 3681
胆@@ 3680
Type 3679
TA 3677
饥@@ 3676
届@@ 3674
廈 3674
煉 3674
69@@ 3673
遲@@ 3673
擠 3672
膜@@ 3671
岑@@ 3670
匈牙@@ 3669
1884 3668
褒@@ 3668
Pro 3665
瀏@@ 3665
悔 3663
邁 3663
犁 3661
潟 3660
陞 3659
瑙 3658
1887 3657
侣 3655
1886 3654
赋 3651
MC 3649
蕊 3649
ya 3648
哉 3648
鳞@@ 3648
54@@ 3646
li 3644
Cr@@ 3643
啓 3642
愚@@ 3641
爸@@ 3640
113@@ 3638
iOS 3636
握 3635
ol 3633
Ro@@ 3632
镑 3631
渊 3630
錶 3630
刃 3629
崗 3628
堯 3626
渴@@ 3626
阔@@ 3626
William 3625
硅@@ 3624
巾 3623
吐 3622
駕 3622
118 3621
稜 3620
53@@ 3618
祠@@ 3617
堤@@ 3616
廳@@ 3616
ara 3615
毕 3615
趕 3610
Game 3609
堀@@ 3607
赦 3607
醒@@ 3607
1888 3605
was 3605
Ne@@ 3604
拖 3603
奢@@ 3598
斤 3598
页@@ 3598
橢@@ 3596
碘 3592
殼@@ 3588
禪 3588
傘 3587
TS 3586
UB 3586
淵@@ 3586
聰 3586
no@@ 3585
沧@@ 3583
纲@@ 3580
au 3579
117 3578
James 3577
吕 3576
腸@@ 3576
750 3574
睹 3572
伪 3571
譜@@ 3571
责@@ 3571
憾 3568
盈 3565
挪@@ 3564
醜@@ 3564
ong 3563
浅 3560
蛛@@ 3560
Group 3559
苍@@ 3559
CA 3558
涡@@ 3558
冊@@ 3557
滴 3554
1861 3549
谐 3548
債 3547
缴@@ 3547
ne 3546
For@@ 3545
肅@@ 3543
棍 3542
ED@@ 3541
from 3539
狄 3538
茅 3538
饭 3537
5.5 3536
緯@@ 3536
ir@@ 3535
弊 3535
塵 3533
倭@@ 3532
大革命 3532
枯@@ 3531
ro@@ 3530
勉@@ 3530
嘲@@ 3530
л 3527
癒 3527
穷 3527
1876 3525
og@@ 3525
116 3524
2500 3524
墾 3524
忧 3522
愛爾@@ 3520
淹@@ 3519
韵 3519
ka 3517
肺 3515
om 3510
朴 3510
114@@ 3509
Open@@ 3509
檐 3509
閣@@ 3509
胆 3508
129 3507
哨 3507
違 3507
坠@@ 3506
茱@@ 3505
ty 3501
ing@@ 3500
ler 3500
梧@@ 3494
瑚@@ 3494
肢@@ 3494
亭@@ 3492
禹 3490
鑽 3490
锋@@ 3490
閒 3490
盆 3489
髓 3489
po@@ 3486
辆@@ 3486
捨 3485
詮@@ 3485
擒 3482
閒@@ 3482
124 3480
Pr@@ 3480
抨@@ 3479
姊@@ 3478
if 3476
劣@@ 3476
锐 3476
奕 3475
в 3474
ISO 3473
际@@ 3473
Fr@@ 3472
116@@ 3468
畏@@ 3468
踢@@ 3466
魂@@ 3464
祂 3456
紡@@ 3454
胀 3452
79@@ 3451
铎 3451
抒@@ 3450
霹@@ 3450
诚@@ 3449
1.3 3448
淀@@ 3447
祕 3447
A1 3446
Str@@ 3443
iPhone 3439
ts 3439
陪 3439
阐@@ 3436
126 3434
1891 3434
衫 3433
馨 3430
綽@@ 3428
霞@@ 3428
犀@@ 3426
к 3424
让@@ 3422
擢 3420
301 3416
庐@@ 3415
憑@@ 3414
ATP 3412
76@@ 3411
漲 3410
獸@@ 3410
Lo@@ 3409
寂 3409
BC 3408
跃@@ 3408
歼@@ 3407
蒿 3406
博物@@ 3403
ang@@ 3401
勁@@ 3401
儲 3396
坝@@ 3394
瑾 3393
嚇 3392
崑 3392
鄒@@ 3392
叠@@ 3391
襪 3390
閘 3389
〔 3387
钾 3386
〕 3384
剌 3383
260 3382
肪 3381
丑@@ 3380
諜 3380
酿@@ 3380
si@@ 3378
稽 3378
绑@@ 3378
頌 3378
峽 3376
1850 3374
妓@@ 3372
棱@@ 3372
1.1 3371
蹄@@ 3371
駒 3370
撕@@ 3369
填 3368
re 3367
117@@ 3366
緻 3365
捉@@ 3363
猪@@ 3360
Robert 3358
IT 3357
禧@@ 3357
烤 3354
鑄@@ 3354
弄@@ 3353
DE 3352
浙 3351
浆 3350
鰍 3350
滤@@ 3348
1883 3346
q@@ 3342
ella 3341
璧 3341
醬 3341
Paul 3340
掀@@ 3339
腫@@ 3339
菇 3339
1862 3336
蜒 3336
卦 3333
縫 3333
盔 3330
贬@@ 3325
CO 3323
岱 3323
郑 3323
IBM 3322
閥 3319
荃 3317
淪@@ 3316
询@@ 3315
Com@@ 3314
漆@@ 3314
Mac@@ 3313
1868 3309
鈞 3308
ッ 3304
莞 3303
使用@@ 3302
籃 3301
鱸@@ 3300
Java 3299
雾 3299
慌 3298
鸚@@ 3296
74@@ 3293
SU@@ 3293
擇@@ 3293
檀@@ 3292
桌 3289
欠 3289
歇 3289
艰@@ 3289
共產@@ 3285
des 3284
净 3283
菱@@ 3283
ST 3281
扑 3281
崔 3280
蜿@@ 3280
DA 3279
膏 3279
窑 3278
US 3277
孚@@ 3276
狮 3276
Apple 3275
有限@@ 3275
矢 3275
驳 3275
Te@@ 3269
ま 3269
μ 3268
絡@@ 3268
炼 3267
羟@@ 3267
貿 3267
CP 3266
滲@@ 3265
SI@@ 3261
颜 3260
饱@@ 3260
舜@@ 3259
弃@@ 3258
闸 3258
Michael 3257
Super 3257
滚 3257
@ 3256
ance 3256
1867 3255
My@@ 3255
凉 3255
牲@@ 3252
寄 3251
嘎@@ 3250
砍@@ 3250
さ 3249
喉 3249
磷 3249
婴@@ 3248
帳 3248
ak@@ 3246
赦@@ 3245
耕 3243
闲 3243
优 3241
峡 3241
浴 3241
119@@ 3239
瑛 3238
侏@@ 3236
撑 3234
委员@@ 3229
悦 3229
凍 3226
凭 3226
渝 3223
茹 3218
霆 3218
550 3217
ite 3217
缪@@ 3217
罐 3217
BM@@ 3216
² 3216
惧 3214
As@@ 3213
椭@@ 3212
盆@@ 3209
普查 3208
湧@@ 3208
貼@@ 3208
1848 3207
趁 3207
RS 3206
SM@@ 3206
330 3205
1873 3204
淹 3204
奧林匹@@ 3202
猿 3202
1878 3201
专 3201
居民@@ 3200
膛 3199
襄 3199
ا 3196
篡@@ 3196
MS@@ 3194
溶 3194
禹@@ 3194
鞋@@ 3194
が 3193
DJ 3190
て 3190
僑@@ 3189
鞏@@ 3189
118@@ 3188
145 3188
朔 3188
涼 3187
汪 3186
Ph@@ 3184
浸 3184
Oricon 3183
擺 3181
諡 3181
笼 3180
National 3179
1864 3177
1879 3177
Ver@@ 3177
悼 3177
碩@@ 3177
1.4 3175
四川@@ 3175
im 3174
EX@@ 3173
ri@@ 3172
牢 3172
翔@@ 3172
锁@@ 3172
GDP 3169
钩 3169
1877 3167
笼@@ 3167
缝 3167
莽 3167
实验@@ 3165
き 3164
Un@@ 3161
苔 3161
穷@@ 3160
羞@@ 3160
袋@@ 3160
96@@ 3159
療 3158
AK@@ 3155
Sp@@ 3155
剖@@ 3154
甜 3154
ME 3152
鴉@@ 3152
彎 3150
ard 3149
窩 3148
SM 3147
狸 3147
迅@@ 3145
蕩 3144
CPU 3143
丢@@ 3142
屡@@ 3142
畅@@ 3142
F1 3141
虞 3141
岐 3139
6.5 3138
8000 3134
皖@@ 3133
禽 3133
芜@@ 3131
颗@@ 3130
择@@ 3129
激 3129
綴 3129
泵 3127
土耳@@ 3124
雇 3124
ION 3123
匡@@ 3119
掉@@ 3117
琅 3116
芯 3115
蔚@@ 3115
欢 3114
庚 3112
ob@@ 3109
溢@@ 3109
1875 3106
NT@@ 3101
650 3098
釐 3098
1865 3097
刷 3096
涨 3095
籠 3095
1882 3093
杭 3093
City 3092
肠 3090
32@@ 3087
晤@@ 3087
剪 3086
畴 3086
酵 3084
1881 3079
挡 3079
茜 3078
ep@@ 3074
鹃 3074
磚@@ 3073
ng 3072
糧 3072
隕@@ 3071
AD 3070
秘 3070
綿@@ 3070
霧@@ 3070
鬧 3068
冤@@ 3067
傲 3066
Or@@ 3065
鸿 3065
滴@@ 3064
胰@@ 3063
鰓 3062
谥@@ 3059
酵@@ 3059
堊@@ 3058
窦@@ 3058
虐 3058
海道 3057
net 3055
樸 3053
邹@@ 3052
Go 3049
od@@ 3049
蝠@@ 3049
礁@@ 3046
onlyinclude 3045
岁@@ 3045
戚@@ 3045
175 3043
梓 3043
岑 3042
墮@@ 3041
麾@@ 3041
2.2 3040
孵@@ 3040
猶 3040
糟@@ 3040
运会 3038
迟@@ 3038
喻@@ 3037
GO@@ 3035
邱 3035
汾@@ 3034
IX 3033
呂 3033
曉 3032
棵 3029
濕 3028
鹤 3028
HK@@ 3027
name 3026
姜 3026
鍊 3026
宠@@ 3025
菸 3025
俾@@ 3023
鰕 3023
逗@@ 3021
挫@@ 3019
敷 3019
钧 3019
鹅 3016
MTV 3014
扇@@ 3013
贴@@ 3013
顱 3013
155 3010
埗 3006
辈 3006
黜 3006
趨 3005
奸@@ 3001
莓 3001
87@@ 3000
蚌@@ 2999
鑒 2999
蔭@@ 2998
1874 2997
Entertainment 2996
彻 2995
63@@ 2992
裙 2990
豁@@ 2989
焊@@ 2988
頜 2988
30.@@ 2987
CS 2987
炼@@ 2986
YO@@ 2983
119 2981
企 2981
us@@ 2980
1840 2979
1863 2978
苻 2978
詐 2978
諧 2978
124@@ 2977
飾@@ 2975
岬 2974
支持@@ 2974
ら 2973
虫@@ 2973
THE 2972
ter@@ 2972
380 2971
蕨@@ 2971
攔@@ 2970
篤 2968
ell 2966
叙 2966
7000 2964
烃 2963
シ 2962
脆@@ 2962
蕭 2962
Netflix 2961
ens 2961
喪 2961
矛@@ 2961
偽 2959
谦 2959
阱 2959
壟@@ 2958
ni@@ 2957
1872 2954
袁 2954
th 2953
斬@@ 2952
AV@@ 2950
CT 2950
System 2948
86@@ 2946
箕 2946
HK 2944
陡@@ 2944
LED 2943
ner 2942
霜 2941
270 2939
艱@@ 2935
鸭@@ 2935
屢@@ 2933
昏 2933
腎@@ 2933
厭@@ 2932
HO@@ 2930
av@@ 2929
澀 2928
杂 2927
貶@@ 2927
紧 2925
羌 2924
骗 2923
ary 2922
19@@ 2920
聶@@ 2919
酚 2917
ig@@ 2916
芹 2915
EST 2914
鸦@@ 2914
哀 2913
per@@ 2912
帛 2911
巳 2909
鹰@@ 2907
祿@@ 2906
哭@@ 2904
Gr@@ 2903
厲 2902
碘@@ 2902
UR@@ 2901
鰻 2900
扶 2899
鶴 2898
all 2894
ay@@ 2891
屑 2891
不得@@ 2890
It 2889
Unicode 2887
汀@@ 2887
讽@@ 2887
89@@ 2885
稽@@ 2885
楠@@ 2884
沦@@ 2883
铝 2883
炒@@ 2882
SD@@ 2879
St 2879
咬@@ 2878
闸@@ 2878
娟 2876
孜 2875
Ma@@ 2874
虑 2874
鋒@@ 2874
152 2873
盪 2873
遺 2872
盲 2870
嵩 2869
椰@@ 2869
Metacritic 2867
篷 2867
All 2866
姦 2866
禱 2866
FO@@ 2865
George 2865
梳@@ 2865
闡@@ 2865
饒 2865
頌@@ 2864
濒 2863
萼 2862
俠@@ 2860
壹 2856
嫌 2856
begin 2855
く 2854
轩 2852
禅 2850
簽 2849
茹@@ 2849
Er@@ 2848
棣 2847
衔@@ 2847
39.@@ 2846
UT@@ 2846
ale 2846
媛 2846
槟@@ 2845
琼 2845
OVA 2844
駿@@ 2844
齋@@ 2844
ator 2843
玲@@ 2843
2.4 2842
CE 2841
亥 2840
加拿@@ 2840
稣@@ 2839
EM@@ 2838
醚 2836
鬱 2835
鹹 2835
137 2834
AI 2833
NA 2832
夥 2830
酪 2830
孤 2829
幌 2828
绥 2828
跤 2828
Ad@@ 2826
浚 2823
kg 2821
兽@@ 2820
湛 2818
ur 2817
钓@@ 2817
皋 2816
陛@@ 2816
妨@@ 2815
缮 2815
165 2814
袭@@ 2814
鱷@@ 2814
を 2813
賺 2813
傀@@ 2812
幡 2810
84@@ 2808
舅@@ 2807
um@@ 2806
淫 2806
eb@@ 2805
趣@@ 2805
LE 2803
濾@@ 2803
Go@@ 2802
ey 2802
括@@ 2802
Club 2801
ach@@ 2801
坏@@ 2801
Office 2800
qu@@ 2799
尉@@ 2799
帖@@ 2799
曙@@ 2796
He@@ 2794
忆@@ 2793
厌@@ 2792
跋@@ 2792
鵝 2791
COVID 2790
淑 2790
滙 2790
era 2789
衰 2789
锅@@ 2788
猩@@ 2787
怨@@ 2786
Inter@@ 2785
盎@@ 2785
漠@@ 2784
釀@@ 2783
ung 2782
龟 2781
131 2779
鲜 2779
侵 2778
窮@@ 2778
葫@@ 2777
1869 2776
巨 2775
粗 2775
辯 2775
徑@@ 2774
97@@ 2773
妖 2771
傘@@ 2770
傲@@ 2770
尸 2770
甫@@ 2770
驱 2770
Min@@ 2768
IN 2767
磚 2767
Pro@@ 2766
Time 2766
圳 2765
奕@@ 2765
Mor@@ 2763
ut@@ 2763
1866 2762
GO 2762
瑶@@ 2762
蘇格@@ 2762
Mark 2761
麒@@ 2759
par@@ 2757
カ 2756
羌@@ 2756
width 2755
剿@@ 2754
1300 2753
鯨@@ 2753
ti 2752
戟 2752
bi@@ 2751
侮@@ 2751
こ 2750
渗@@ 2750
龚@@ 2750
ly 2748
閻@@ 2748
塵@@ 2747
丧 2746
寻 2746
尧 2746
瘟@@ 2746
蠻 2746
溴@@ 2745
壶 2744
膽@@ 2744
炬 2743
land 2741
辣 2740
γ 2739
EL@@ 2738
闵@@ 2738
掘@@ 2737
Dis@@ 2735
NET 2735
恕 2735
剌@@ 2733
On 2732
丙 2732
参谋@@ 2732
峨@@ 2732
妈 2730
紳 2730
鈴 2730
僕 2729
贿@@ 2729
頜@@ 2728
弧 2726
737 2725
Ber@@ 2725
崁 2724
SC 2723
财 2723
沫 2722
ax 2720
se@@ 2719
晃 2719
錐@@ 2719
Center 2718
Co 2718
琵@@ 2718
鎌 2718
132 2717
疯@@ 2716
205 2714
Show 2714
赌@@ 2713
mo@@ 2712
冕@@ 2712
拦@@ 2712
奮 2710
碩 2710
汞 2709
烏克@@ 2709
諷@@ 2708
譬@@ 2708
BE 2706
卻@@ 2706
渊@@ 2706
揮@@ 2705
洽 2704
隐 2704
肾@@ 2703
ON 2702
逢@@ 2702
沁@@ 2700
み 2699
峇 2699
鷹@@ 2699
莆@@ 2696
瑜@@ 2694
me 2693
溴 2693
able 2692
阮 2692
38.@@ 2691
Park 2689
eg@@ 2689
濒@@ 2689
酋 2689
Sol@@ 2686
桨 2685
1.7 2683
袖@@ 2683
138 2682
144 2682
Bi@@ 2682
姚 2681
懋@@ 2679
萱 2679
Game@@ 2678
1400 2677
GA 2677
Games 2677
Star 2677
勿 2677
隅 2677
GT@@ 2675
BL@@ 2672
勉 2671
bo@@ 2670
タ 2670
汐 2668
33.@@ 2666
歼 2666
梭@@ 2665
苷 2665
敷@@ 2660
con@@ 2659
耆 2658
ABC 2656
敢@@ 2655
RT@@ 2654
肝 2650
蟾 2649
妥 2648
巖 2648
挥@@ 2648
API 2647
Charles 2644
〇 2642
201@@ 2641
瀕@@ 2639
贩@@ 2639
栓 2638
飽 2638
驟 2635
Thomas 2634
啶 2634
睿 2634
糙 2631
颂 2631
ロ 2628
咬 2628
嵩@@ 2628
詔 2628
舷 2627
2.3 2626
ini 2621
哪 2620
藓 2620
彤 2617
堰 2616
沂@@ 2616
驳@@ 2616
136 2612
154 2612
匿 2612
壮 2612
滥@@ 2612
聪@@ 2611
Win@@ 2609
鋸@@ 2607
瓊 2606
兀@@ 2605
熹 2605
膝@@ 2605
印地@@ 2604
腕 2603
橘 2602
sa 2601
跆@@ 2601
Lin@@ 2599
餓 2596
硅 2593
剖 2591
沸@@ 2591
鯊 2591
鴨@@ 2591
僕@@ 2590
泣 2589
LC 2588
阁@@ 2588
戮 2583
措@@ 2583
撲@@ 2579
棲 2579
垄@@ 2577
185 2575
淫@@ 2574
168 2573
饮 2572
公開@@ 2571
狸@@ 2571
婭 2570
惹 2570
1.0 2568
炭@@ 2567
烷@@ 2567
仰 2566
141 2565
砍 2565
あ 2564
埠@@ 2563
苣 2563
妍 2562
加利@@ 2561
蔚 2561
褐@@ 2561
梗 2560
眷@@ 2559
匾 2558
臟@@ 2558
ous 2556
傣@@ 2556
肋@@ 2556
壞@@ 2555
谍 2555
st 2554
151 2553
Val@@ 2553
荀@@ 2553
楷 2552
麟@@ 2552
黔@@ 2552
墳@@ 2551
TH@@ 2550
ジ 2550
ans 2549
吗 2549
樱@@ 2549
滇 2549
il 2548
烂 2548
Pe@@ 2547
1830 2545
嶽 2545
蛤 2545
霄 2545
糊@@ 2544
32.@@ 2543
ker 2543
溜@@ 2543
販 2543
ber@@ 2542
伸 2541
擇 2541
So@@ 2540
で 2540
竺 2540
156 2539
倚@@ 2538
Fe@@ 2537
硒 2537
舅 2537
ov@@ 2535
烤@@ 2535
畿@@ 2535
2.8 2534
祸 2534
Street 2533
罐@@ 2533
讓@@ 2533
琪@@ 2532
竊 2532
133 2531
惊 2531
Peter 2530
沛@@ 2530
倆 2529
潜 2529
OK 2528
IF@@ 2527
交易@@ 2527
唯 2526
埕 2524
Media 2523
矛 2523
蚤 2522
謎 2521
0.3 2520
158 2520
High 2520
扰@@ 2520
舵 2519
College 2518
棕 2518
1853 2516
吊 2516
鶯 2516
戎@@ 2514
榕 2513
Life 2511
誅 2511
魨 2511
Do@@ 2510
吡@@ 2510
颈@@ 2510
Web 2509
Wii 2508
沼 2507
Red 2506
ani 2506
駁@@ 2506
枕@@ 2505
酰 2504
ok 2503
瘦@@ 2503
虔@@ 2502
颖 2502
0.1 2501
氛@@ 2501
ce 2500
139 2497
1700 2497
1858 2497
Man@@ 2497
慨 2495
须@@ 2495
π 2494
od 2493
猩 2491
悲 2490
摺 2489
霉@@ 2489
骆@@ 2489
148 2488
謹 2488
aw@@ 2487
ys 2486
擢@@ 2486
竖@@ 2486
per 2485
ant 2484
峯 2482
文物@@ 2481
晏@@ 2481
炳 2480
翟@@ 2480
FM 2479
塗 2479
擴 2479
36.@@ 2478
no 2477
巷@@ 2477
焉 2477
睦 2477
We@@ 2476
House 2475
No@@ 2475
鑫 2475
Bur@@ 2474
ino 2473
FA 2472
To@@ 2471
咪 2471
寂@@ 2471
懿@@ 2471
肠@@ 2470
褲 2470
笛@@ 2467
1100 2466
SBS 2466
窑@@ 2465
1859 2464
雛@@ 2464
TP 2463
2.1 2462
脸 2461
鑲@@ 2461
Su@@ 2460
罷 2459
恪 2458
抹 2458
ド 2456
撥 2456
币@@ 2455
镶@@ 2455
お 2454
マ 2453
134 2452
Man 2452
勋@@ 2452
49.@@ 2451
MP 2451
煩 2451
胃 2451
SN@@ 2450
211 2449
Big 2449
谦@@ 2449
MBC 2448
RC 2448
軒@@ 2448
諷 2446
倖@@ 2444
逻 2443
厨@@ 2441
齡@@ 2441
鈉 2439
0.2 2438
殷 2436
ne@@ 2435
侖 2435
203 2433
钥 2433
妓 2430
遼 2429
鯛@@ 2429
陌@@ 2427
1854 2426
誦 2424
1857 2423
恢@@ 2422
れ 2420
br@@ 2419
mo 2418
尿 2418
詠@@ 2417
EN 2416
ick 2414
mar@@ 2414
Pi@@ 2413
Red@@ 2413
闲@@ 2412
CL@@ 2411
Cal@@ 2411
曦 2411
櫃@@ 2410
瑩 2410
202 2409
King 2409
No 2409
娄@@ 2409
拼 2408
爷 2408
PP@@ 2407
AG 2405
idae 2405
棺@@ 2405
毯 2405
VO@@ 2403
腥 2403
鵡 2402
屢 2401
皓 2400
羚 2400
衆 2399
OR@@ 2398
滯 2398
鞘 2398
est 2395
虛 2395
倖 2394
炒 2394
暨@@ 2393
泾@@ 2393
INE 2392
虽@@ 2392
璃 2391
莞@@ 2391
諡@@ 2391
吻@@ 2390
em 2389
梗@@ 2389
煮@@ 2389
Richard 2388
ber 2388
ir 2388
黔 2387
□ 2386
噬 2386
窝 2385
蛮 2385
辰@@ 2385
166 2384
NASA 2384
Intel 2383
矽@@ 2380
祷 2380
IL@@ 2379
VE 2379
les 2379
Po@@ 2378
賄@@ 2378
34.@@ 2376
伞@@ 2376
OH 2375
長@@ 2375
PL@@ 2374
毘 2374
铝@@ 2373
94@@ 2372
渣@@ 2372
铃@@ 2372
凍@@ 2371
樺 2371
AX 2370
丕 2370
誼@@ 2370
1856 2369
抹@@ 2369
曜 2369
债 2368
涂 2367
绳 2367
Limited 2366
妹@@ 2366
盒@@ 2366
レ 2365
Mel@@ 2364
SD 2363
卤@@ 2363
NBC 2362
EC@@ 2361
睿@@ 2361
饶 2361
腿@@ 2360
谣 2360
Her@@ 2359
躲 2359
co 2357
俱 2357
渲@@ 2356
San 2355
卉 2355
340 2353
den 2353
磺@@ 2353
du 2351
基督@@ 2351
沐@@ 2351
顎 2350
忽 2349
殘 2349
笨@@ 2349
央 2348
嫩@@ 2348
當中@@ 2348
訥 2347
纜 2346
块@@ 2345
匪@@ 2344
稿@@ 2344
鉤 2344
225 2343
披 2343
153 2342
祺@@ 2342
疹 2341
钙 2341
146 2340
IE@@ 2340
λ 2340
綏@@ 2340
鱗 2340
崖@@ 2339
SK@@ 2338
ure 2338
叱@@ 2338
淚@@ 2338
ab 2337
ot 2337
元前 2337
摸 2337
諒 2336
鹅@@ 2336
ver@@ 2334
毆 2334
铸 2334
235 2333
256 2333
310 2333
禺 2333
饲@@ 2333
証 2332
鏈@@ 2331
3.2 2330
end@@ 2329
143 2328
DR@@ 2328
ell@@ 2328
time 2328
氦 2328
鄧 2328
AE@@ 2326
Company 2326
VA 2326
EF@@ 2325
帐@@ 2325
晖 2323
皈@@ 2323
1851 2322
焚 2321
穹@@ 2321
鍋 2321
隼 2321
Project 2320
攬 2320
8.5 2319
娱@@ 2319
釘 2319
del 2318
禽@@ 2318
虚 2318
鄞@@ 2318
骤 2318
Studio 2317
纬@@ 2317
AK 2316
pi@@ 2316
江苏@@ 2316
KBS 2314
2.6 2313
3.0 2313
靼 2313
ha 2312
BL 2311
ge 2311
way 2311
○ 2311
147 2310
籠@@ 2309
妄@@ 2308
湄@@ 2308
肚 2308
銳@@ 2308
裸 2307
XX 2306
ww@@ 2306
162 2305
org 2305
bit 2303
执 2303
苔@@ 2302
0.8 2301
ち 2301
嬪 2301
畝 2301
虾 2299
皖 2298
萝@@ 2297
脏@@ 2296
aria 2295
214 2293
儡 2293
颈 2293
溺@@ 2291
return 2290
CBS 2289
Har@@ 2289
阪 2289
辜 2288
缆 2287
腊 2287
坤@@ 2284
祚 2283
鈾 2283
軼@@ 2282
O2 2281
000@@ 2280
崙@@ 2280
Mk 2279
憩 2279
胖 2279
乍@@ 2278
氨 2278
35.@@ 2277
China 2277
ho@@ 2277
ik@@ 2277
藔 2277
忒 2276
毙 2276
穗@@ 2276
臻 2276
篮 2275
踏 2275
劝 2274
濁 2274
蛙@@ 2274
傭@@ 2272
敕@@ 2272
0.4 2271
稠@@ 2271
辩 2270
ο 2269
American 2268
坍@@ 2268
GNU 2266
ç 2266
拷@@ 2266
Ab@@ 2265
庾@@ 2263
肛@@ 2262
Air 2261
犁@@ 2261
AA 2259
壺 2259
21@@ 2257
142 2255
諫 2255
鸦 2254
ICE 2252
緝 2252
48.@@ 2251
yl@@ 2251
195 2250
斧 2249
欄@@ 2249
豎@@ 2249
謹@@ 2248
駱@@ 2247
HC 2246
type 2246
沮@@ 2246
AB 2245
臘 2245
諧@@ 2245
趟 2245
暉 2244
滬@@ 2244
猫@@ 2241
37.@@ 2237
溃@@ 2237
io 2236
汴@@ 2236
揆 2235
磊 2235
忌@@ 2233
雍 2233
丸@@ 2231
匀 2230
洩@@ 2230
硼@@ 2229
Day 2228
勘 2228
苓 2226
們@@ 2225
啸 2225
窝@@ 2225
筹 2225
蜴 2225
ex@@ 2222
± 2222
窃 2221
鍋@@ 2221
锦 2221
501 2217
SE 2217
霜@@ 2215
0.6 2214
208 2214
夠@@ 2214
淤@@ 2214
1855 2213
蒲 2213
哨@@ 2212
閃 2212
嗜@@ 2211
繹 2211
舜 2211
敛 2210
ense 2209
mi 2209
囚 2209
筒@@ 2209
耦@@ 2209
谕 2209
濾 2208
CN@@ 2207
斃 2207
昊 2207
绪@@ 2207
菁@@ 2207
Tri@@ 2205
楓 2205
蔷@@ 2205
龄@@ 2205
姻@@ 2204
溥@@ 2204
珂 2204
寨@@ 2203
隍 2203
攤@@ 2202
湊 2202
锌 2202
204 2199
MB 2199
alis 2198
â 2198
偿@@ 2198
抑 2198
漕@@ 2198
Gam@@ 2197
ED 2196
RA 2195
my@@ 2195
si 2195
茜@@ 2195
饒@@ 2195
淄@@ 2194
伞 2193
珪 2193
逊@@ 2193
850 2192
http 2192
iTunes 2192
缔@@ 2192
鱈 2192
Al 2190
咒@@ 2190
1847 2189
冻@@ 2187
淞@@ 2186
狱@@ 2184
Inc 2183
ist 2183
206 2181
PC@@ 2181
out 2181
肆@@ 2181
剂@@ 2180
1841 2178
ati@@ 2177
401 2176
磯 2176
肽 2176
毋@@ 2175
207 2173
懂@@ 2173
Ho@@ 2171
榕@@ 2170
ke 2169
汰@@ 2169
Cy@@ 2168
car@@ 2168
osa 2168
ion 2167
RAM 2166
顏 2166
奋 2165
its 2162
弊@@ 2161
乞 2160
167 2158
157 2157
Boy 2157
DOS 2157
ect 2157
ú 2156
淀 2156
192 2155
ics 2154
pl@@ 2154
pp@@ 2154
も 2154
尧@@ 2154
槳 2153
Girls 2152
be@@ 2152
捧 2152
ca 2151
峭 2151
繡 2151
銜@@ 2151
149 2150
420 2150
Road 2149
蔗 2149
郸 2149
ff@@ 2147
洁@@ 2146
4.2 2144
and@@ 2144
1852 2143
龔@@ 2142
冀 2141
馳 2141
愚 2140
厘 2139
鋁 2139
173 2138
绳@@ 2138
嘎 2137
沫@@ 2137
铅@@ 2137
鴉 2137
侃 2136
Mal@@ 2135
樞 2135
Cre@@ 2134
sp@@ 2134
厉 2134
鳞 2133
尘 2132
纏 2132
坊@@ 2131
浑@@ 2131
163 2130
Ltd 2130
NS@@ 2130
pr@@ 2130
圃 2130
肚@@ 2130
鹼 2129
祺 2128
新加@@ 2127
莒@@ 2126
匾@@ 2125
靶@@ 2125
扮@@ 2124
濬 2124
CP@@ 2123
ING 2123
hi@@ 2122
2.7 2121
class 2121
唤 2121
壹@@ 2121
搖 2121
NT 2120
Sal@@ 2120
椅@@ 2120
潰@@ 2120
邓 2120
ao 2119
厲@@ 2119
稳 2119
膝 2119
臧@@ 2119
370 2118
Mag@@ 2117
key 2117
new 2117
克兰 2117
繆@@ 2116
扯 2115
琰 2115
747 2114
Force 2114
立方@@ 2113
谥 2113
龟@@ 2112
ala 2111
オ 2111
誇@@ 2110
諱 2110
Sc@@ 2109
謠@@ 2109
艷@@ 2108
绵 2107
1849 2106
3.6 2106
af@@ 2106
匈 2105
綿 2105
ki 2104
敕 2104
诞 2103
3.3 2102
锐@@ 2102
忧@@ 2101
oph@@ 2100
铅 2100
als 2099
拾@@ 2099
筛@@ 2099
LGBT 2098
do@@ 2098
廊@@ 2097
Ap@@ 2096
Medi@@ 2096
kh@@ 2096
腎 2095
妝@@ 2094
vi@@ 2093
闯@@ 2093
鲸 2092
溥 2091
笙 2091
SI 2090
ene 2090
柜 2090
鳩 2090
劑@@ 2089
EC 2088
妈@@ 2088
ap 2087
澳大@@ 2086
脸@@ 2086
pe@@ 2085
à 2085
安徽@@ 2085
琶 2085
铀 2085
not 2084
フ 2084
嶺@@ 2084
福建@@ 2084
锂 2084
161 2083
183 2082
von 2082
郵 2082
1.9 2081
2023 2081
ue 2081
ta@@ 2080
1815 2079
ou@@ 2079
Gen@@ 2078
廂@@ 2078
眷 2078
蠟@@ 2078
1846 2076
σ 2076
Bel@@ 2075
沁 2075
芽@@ 2075
188 2074
厭 2073
蕴@@ 2073
bu@@ 2072
瀛 2072
猜 2072
171 2071
209 2071
圻 2070
颠@@ 2070
Mer@@ 2069
檻 2069
SARS 2068
Sur@@ 2068
腔@@ 2068
ome 2067
赶 2067
221 2066
摘 2066
泌@@ 2066
鸭 2065
184 2064
TR@@ 2064
3.7 2063
A2 2063
у 2063
兜@@ 2063
蚊@@ 2063
谊@@ 2063
鼬 2063
ET 2062
USB 2062
M1 2061
勛 2061
Hall 2060
戍@@ 2060
泸@@ 2060
汲@@ 2059
匡 2057
潼@@ 2057
鞭 2057
挑 2056
ε 2054
叡 2054
嘆 2054
ee 2053
д 2053
鹼@@ 2050
绒 2049
za 2048
儂 2048
159 2046
闊@@ 2045
絮 2044
穎@@ 2043
ρ 2042
CT@@ 2041
ل 2041
← 2041
裘@@ 2041
暢 2040
1820 2039
Gu@@ 2039
垦 2038
庇 2038
悔@@ 2038
侠@@ 2037
衢@@ 2037
赣 2037
扑@@ 2036
烘@@ 2036
畸@@ 2036
輩@@ 2036
佑@@ 2033
励@@ 2033
紳@@ 2033
鉛 2033
肋 2032
萎@@ 2032
222 2031
ES 2031
帥@@ 2031
悚@@ 2031
蘿 2030
1845 2029
瞿@@ 2029
Server 2028
164 2027
沂 2027
鯊@@ 2027
178 2026
290 2026
惹@@ 2026
215 2025
厉@@ 2025
霰@@ 2025
176 2024
chem 2024
飢@@ 2024
1844 2022
AMD 2022
TE 2021
悖@@ 2021
UC@@ 2020
so@@ 2020
South 2019
昧 2019
Galaxy 2018
MHz 2018
ov 2018
LA 2017
稷 2016
ah@@ 2015
ins 2014
pa 2014
晤 2014
te@@ 2013
迹@@ 2013
夹 2012
Es@@ 2011
靴 2011
182 2010
逾@@ 2009
Instagram 2008
Association 2007
Records 2007
运动@@ 2007
XP 2006
騙@@ 2006
恤 2005
ru@@ 2004
É 2004
1A 2003
栽@@ 2003
172 2002
ν 2002
辜@@ 2002
飘@@ 2002
绎 2001
人民代表大会 2000
181 1999
SQL 1999
ons 1999
乏@@ 1998
93.@@ 1997
鈣 1997
鑿 1997
齣 1997
吟 1995
MO 1993
CEO 1992
劲 1992
邑@@ 1992
Kar@@ 1991
譚 1991
苷@@ 1990
頑@@ 1990
Ser@@ 1989
ci@@ 1989
靡 1989
196 1988
菁 1987
擱@@ 1986
燦@@ 1986
Mat@@ 1985
搏@@ 1985
芮@@ 1984
遙 1984
Store 1983
す 1983
姪 1982
岔 1982
惱 1982
簧@@ 1982
馈 1982
茉@@ 1981
ano 1980
ath@@ 1980
480 1979
Si@@ 1978
吟@@ 1978
0.7 1977
況@@ 1977
遵 1977
锥@@ 1977
212 1976
ium 1976
枫@@ 1976
驰 1976
Hy@@ 1975
189 1973
ich@@ 1973
‰ 1972
賃 1972
敘 1971
Play 1970
煉@@ 1970
磐@@ 1970
芝加@@ 1970
AF@@ 1969
Fl@@ 1969
虧@@ 1969
300@@ 1968
ile 1968
IGN 1967
棺 1967
馳@@ 1967
Bu@@ 1966
濠 1966
萧 1966
遴@@ 1966
10000 1965
ess 1965
甦 1964
tu@@ 1962
碉@@ 1962
you 1961
庸@@ 1961
45.@@ 1960
North 1960
殲@@ 1960
238 1959
ura 1959
颖@@ 1958
嘻@@ 1957
撃 1957
骂 1957
鬍 1957
鲤@@ 1957
聪 1956
︰ 1956
濮@@ 1955
Best 1954
Le 1954
楷@@ 1954
濁@@ 1954
瑤 1954
1812 1953
暱 1953
産 1953
じ 1952
咽@@ 1952
陋 1952
this 1951
薰 1951
噸@@ 1950
3.1 1948
Black 1947
Bor@@ 1947
Mr 1946
櫻 1946
ari@@ 1945
朽 1945
蒋 1945
99.@@ 1944
App 1944
1843 1942
坟@@ 1942
臘@@ 1941
Max 1940
傾 1938
毫 1938
Ag@@ 1937
Sa@@ 1936
Sony 1934
FS 1933
WWE 1932
几 1932
侬 1931
礙@@ 1931
纜@@ 1931
臭 1931
鈕 1930
KO@@ 1929
濃 1929
绣 1929
糯@@ 1928
1814 1926
223 1925
MVP 1924
佣 1924
僱 1923
浜 1923
1842 1920
ei 1920
ks 1920
und 1920
渥@@ 1919
谨@@ 1919
楔@@ 1918
潞@@ 1918
铃 1918
Lee 1917
憤 1917
脆 1917
酬@@ 1917
187 1916
CH 1916
au@@ 1915
蒸 1915
薹 1915
煥 1914
鑲 1914
601 1913
Op@@ 1913
棱 1913
Fi 1911
ek 1911
DD 1910
凸 1910
紗@@ 1909
驾 1909
47.@@ 1908
RPG 1908
萌 1908
雁 1908
177 1906
芷@@ 1906
su@@ 1905
DI@@ 1904
ROM 1904
Don 1903
SL@@ 1903
枣@@ 1903
ã 1902
绒@@ 1902
CM@@ 1899
DI 1899
ô 1898
佣@@ 1898
197 1896
430 1896
キ 1896
羧@@ 1896
410 1895
Kong 1895
覓 1895
174 1894
灌 1894
瞻@@ 1893
Envir@@ 1892
Por@@ 1892
UE 1892
az@@ 1892
弈 1892
汕 1892
To 1891
217 1890
400@@ 1889
Henry 1889
Jean 1889
berg 1889
vs 1888
嬰 1888
SP 1887
ac 1887
Tel@@ 1885
佬 1885
Hol@@ 1883
Internet 1883
隘 1883
猷 1882
228 1881
DB 1881
墊 1881
斡@@ 1881
羲 1881
遏@@ 1881
ba@@ 1880
烦 1880
裳 1880
鳍 1880
尘@@ 1879
搁@@ 1877
皂 1877
305 1876
tion 1876
ry 1875
っ 1875
夭@@ 1875
膺 1875
駝 1875
哆 1874
朋 1874
閔@@ 1874
169 1873
CG 1872
DP 1872
ated 1872
ism 1872
滋 1872
HTML 1871
凹 1871
field 1870
詛@@ 1870
ick@@ 1869
扔 1869
Del@@ 1868
橙 1868
浑 1868
跡@@ 1868
胺@@ 1867
ase 1866
岔@@ 1866
爺@@ 1866
BSD 1865
磺 1865
诊 1865
晟 1863
檀 1863
磐 1863
绰@@ 1863
ula 1862
奚@@ 1862
Steam 1861
栖 1861
袖 1861
粵 1860
苑@@ 1860
逵 1860
驕@@ 1860
畅 1858
缅 1858
貸 1858
滄@@ 1857
苟@@ 1856
ill 1855
つ 1855
詹 1855
ent@@ 1854
蜡@@ 1854
HBO 1853
United 1853
倦 1853
茄@@ 1853
193 1852
м 1852
触 1852
ical 1850
ミ 1850
燮 1850
44.@@ 1849
Na@@ 1849
ISBN 1848
Pol@@ 1848
Ti@@ 1848
卧 1848
0.9 1847
BB 1847
秘书@@ 1846
偕 1845
冻 1845
Up 1844
芸 1844
911 1842
Girl 1842
挫 1842
锅 1841
You@@ 1840
挤 1840
兑@@ 1839
We 1838
钊 1838
樵 1837
Unix 1836
46.@@ 1835
歲@@ 1835
贿 1835
3.8 1834
寅@@ 1834
冶 1833
滞@@ 1833
煞@@ 1833
Joseph 1832
滤 1832
璽 1832
瀋 1831
肪@@ 1831
213 1830
δ 1830
蹄 1830
汐@@ 1829
Martin 1828
Pan@@ 1826
up 1826
264 1825
兇 1825
渣 1825
耐 1825
ade 1824
コ 1824
Tor@@ 1823
line 1823
τ 1823
吨@@ 1823
play 1821
叢 1821
稚@@ 1821
镍 1820
ena 1819
甥 1819
萃 1819
pe 1818
侗@@ 1818
ora 1817
濂 1817
mac@@ 1816
竿 1816
躺 1816
218 1815
昨@@ 1815
179 1814
壕 1814
mon@@ 1813
蒐@@ 1813
Char@@ 1812
凶 1812
靂 1812
cr@@ 1811
ket 1811
呆 1811
sur 1810
鬱@@ 1810
ada 1809
鰻@@ 1808
勐@@ 1807
壢 1807
PR@@ 1806
50.@@ 1805
绑 1805
谟 1805
謨 1804
ant@@ 1802
寰 1802
鲨@@ 1800
洙 1799
菅@@ 1799
Astr@@ 1798
潑 1798
瞻 1798
顽@@ 1798
佚 1797
谐@@ 1797
噪 1796
帐 1796
潍@@ 1795
堇 1794
槃 1793
猿@@ 1793
饋 1793
篩@@ 1792
鋁@@ 1792
Grand 1791
IUCN 1791
ari 1791
row 1791
Hello 1789
La@@ 1789
懸 1788
Hong 1787
橇 1787
1789 1786
1832 1786
斋@@ 1786
216 1785
☆ 1785
冗@@ 1785
夔 1785
窩@@ 1784
UL@@ 1783
撈 1783
str@@ 1781
冉@@ 1781
嫻 1781
B1 1780
ach 1779
303 1778
186 1777
^ 1777
柑@@ 1777
兖@@ 1776
澜 1776
芋 1776
Ni@@ 1775
man@@ 1774
River 1773
ations 1773
芥@@ 1773
餉 1773
电力@@ 1772
砸 1772
澈 1771
蠕@@ 1771
刮@@ 1768
鲨 1768
睦@@ 1767
Video 1766
孛 1766
枫 1766
薛 1766
Hel@@ 1765
gi@@ 1765
劲@@ 1765
爐@@ 1765
yr@@ 1764
搏 1764
臂@@ 1764
Bl@@ 1763
Im@@ 1763
敞@@ 1763
琮 1763
濫 1762
贷 1762
262 1761
緬 1761
Trans@@ 1760
Gar@@ 1759
LS 1759
my 1759
ff 1758
沽 1758
eh@@ 1757
僖@@ 1757
妃@@ 1757
1835 1756
嘯 1756
汙@@ 1756
蔭 1756
鞑@@ 1756
ology 1755
咤 1754
羰@@ 1754
蒜 1754
DS@@ 1753
泄 1752
gen@@ 1751
祉 1751
飄@@ 1751
1839 1750
3.4 1750
Japan 1750
廖 1750
Des@@ 1749
魄 1749
der@@ 1748
ok@@ 1747
吵 1745
炫@@ 1745
芮 1745
IR@@ 1744
ong@@ 1744
艏 1744
苞 1744
凝 1743
Bal@@ 1742
埤 1742
缝@@ 1742
Dr@@ 1741
咎 1741
緝@@ 1741
荫 1741
娛 1740
朕 1740
骗@@ 1740
ma@@ 1739
錐 1737
191 1735
斛 1734
俸 1733
Dr 1732
Radio 1732
嚇@@ 1732
笃@@ 1732
365 1731
餅@@ 1731
1801 1729
BR 1729
醋 1729
ence 1728
U21 1727
1821 1726
ET@@ 1726
й 1726
265 1725
堰@@ 1725
198 1724
ore 1723
rpm 1722
1795 1720
4.6 1720
穴@@ 1720
1838 1719
塌@@ 1719
寵 1719
渝@@ 1719
Ri@@ 1718
226 1717
PM 1717
PT@@ 1717
so 1717
ς 1717
厝@@ 1717
綁@@ 1717
諮@@ 1717
3500 1716
褚@@ 1716
瞞 1715
穫 1715
铵 1715
誘 1714
唑 1712
孀 1712
篠 1712
罢 1712
鳚 1712
610 1711
舱@@ 1711
Is@@ 1710
Bre@@ 1709
ville 1709
テ 1709
勻 1708
嫉@@ 1708
堕@@ 1707
1806 1706
GT 1706
Lu@@ 1706
勾 1705
熵 1705
鰈 1705
1793 1704
yn@@ 1704
拨 1704
500@@ 1703
ev@@ 1703
枢 1703
255 1702
Net@@ 1702
唔 1702
tic 1701
ナ 1701
灶 1700
锥 1700
驼 1700
232 1699
Power 1699
Smith 1698
ake 1698
纏@@ 1698
腫 1698
Ki@@ 1697
Mak@@ 1696
淇 1696
薑 1696
1836 1695
233 1695
ist@@ 1695
This 1694
UI 1694
凿 1694
sch@@ 1693
婴 1693
捞 1693
虔 1691
ja 1690
撼 1690
ice 1689
1792 1688
谏 1688
ack 1687
km2 1687
沌 1687
澱 1687
酗@@ 1687
闽 1687
31.@@ 1686
Super@@ 1686
乂 1686
紗 1686
侄 1685
诬@@ 1685
嫔 1684
竭@@ 1684
PL 1683
Tw@@ 1683
ger 1683
ī 1683
叹 1683
炯@@ 1683
199 1682
戛@@ 1682
焕 1682
Blue 1681
ai@@ 1681
蘚 1681
刁@@ 1679
涯 1679
4.0 1678
AO@@ 1678
ise 1678
竇@@ 1678
Mas@@ 1676
Youtube 1676
忙@@ 1676
鈔 1676
News 1675
Switch 1675
樁 1674
ette 1673
墾@@ 1673
暮@@ 1673
194 1672
249 1672
謬@@ 1672
Can@@ 1671
ウ 1671
鈍 1671
妳 1670
MD 1669
Ros@@ 1669
ida 1669
や 1669
暑 1669
薨 1669
2D 1668
ung@@ 1668
gr@@ 1667
癮 1667
稀 1667
豔 1667
ブ 1666
檳@@ 1666
鑰@@ 1666
950 1665
Be 1665
low 1665
tra 1665
渾@@ 1665
昕 1664
iz@@ 1663
瑶 1663
蹈@@ 1663
219 1662
4.8 1662
筠 1661
貶 1661
Sy@@ 1660
ι 1660
帧 1660
宸 1659
酱 1659
镁 1659
left 1658
縛 1658
Tom 1657
煩@@ 1657
巔@@ 1656
妝 1655
幌@@ 1655
擠@@ 1655
轎@@ 1655
Network 1654
VC 1654
傭 1654
携 1654
炀@@ 1654
甬@@ 1654
粟 1654
wood 1653
1837 1651
275 1651
牽 1651
777 1650
Young 1650
斩 1650
糞 1650
躁 1650
League 1649
樸@@ 1649
汝 1649
801 1648
eri 1648
擒@@ 1648
篤@@ 1648
57.@@ 1647
尬 1647
ire 1646
va 1646
俩 1646
殭 1646
Art 1645
倭 1645
荧@@ 1645
59.@@ 1644
9000 1644
棚@@ 1644
喚@@ 1643
摸@@ 1643
ñ 1642
だ 1642
愁 1642
釀 1642
ii 1641
遮 1641
ita 1640
« 1640
瀉 1640
炔 1640
2A 1639
ane 1638
谣@@ 1638
5.1 1637
Book 1637
West 1637
朵@@ 1637
饑 1637
眶 1636
粤 1636
耍 1636
gu@@ 1635
裙@@ 1635
Hu@@ 1634
楨 1634
701 1633
well 1633
掙@@ 1633
殆@@ 1633
砌@@ 1633
脾@@ 1633
307 1631
440 1631
Power@@ 1631
倾 1631
溧@@ 1631
訝 1631
贖@@ 1631
醣 1631
231 1630
ish 1630
悄@@ 1630
螈 1630
229 1629
Fre@@ 1628
anus 1628
淋 1628
綜 1628
224 1627
MI 1627
eng@@ 1627
轍 1627
ou 1626
State 1625
サ 1625
槟 1625
1831 1624
ow@@ 1624
Ga@@ 1623
泪 1623
Cam@@ 1622
嘗 1622
秩@@ 1622
Mi@@ 1621
ain 1621
姻 1621
牒 1621
琥@@ 1621
繳 1621
雉 1621
Island 1620
Now 1620
Plus 1620
勿@@ 1620
圾@@ 1620
4.3 1619
At@@ 1619
Cos@@ 1619
誣@@ 1619
308 1618
ge@@ 1618
void 1618
洼@@ 1618
ock 1617
昱 1617
書館 1617
谨 1617
氹 1616
秃@@ 1616
葆@@ 1615
蟬 1615
褒 1615
Du@@ 1614
Vol@@ 1614
251 1612
tis 1612
CI 1611
渚 1611
绞@@ 1611
1824 1610
6.2 1610
640 1610
阡@@ 1610
Chi@@ 1609
輾@@ 1609
now 1608
Mobile 1606
ko 1606
1825 1605
Jump 1605
ting 1605
吓 1605
Sir 1604
go 1604
he@@ 1604
耆@@ 1604
Online 1603
ates 1603
邏 1603
CF@@ 1602
he 1602
oth@@ 1602
兌@@ 1602
綸 1602
靳@@ 1602
306 1601
mi@@ 1601
妊@@ 1601
Ste@@ 1600
Top 1600
tor 1600
que 1599
仆 1599
扫 1599
粥 1599
驿@@ 1599
SV@@ 1598
all@@ 1598
蜗@@ 1598
﹐ 1597
dia 1596
胖@@ 1596
淇@@ 1595
鉛@@ 1595
II@@ 1594
UR 1594
go@@ 1594
嶋 1594
蠅 1594
彼 1593
恥 1593
锯@@ 1593
駭@@ 1593
UN 1592
渥 1592
Core 1591
颂@@ 1591
LD 1590
nm 1590
诛@@ 1590
掷 1589
婺@@ 1586
盔@@ 1586
壳@@ 1585
戍 1583
榔 1583
欖 1583
鍾@@ 1583
锻@@ 1583
07@@ 1582
302 1582
6.4 1580
MT@@ 1580
挤@@ 1580
瞰 1580
09@@ 1579
M2 1579
羚@@ 1579
Cl 1578
瑋 1578
520 1577
拌 1577
謊@@ 1576
Institute 1575
com@@ 1575
ford 1575
ens@@ 1574
05@@ 1573
Em@@ 1573
Gal@@ 1573
EA 1572
毗 1572
爱尔@@ 1572
蘆 1572
蚁 1572
﹑ 1572
1833 1571
CV 1571
Pre@@ 1571
ni 1571
檸@@ 1571
HT@@ 1570
SR 1570
咪@@ 1570
敖 1570
闹@@ 1570
CN 1568
ola 1567
ω 1567
1790 1566
right 1566
洽@@ 1566
瑄 1566
2.9 1565
5.6 1565
Home 1565
Python 1565
S2 1565
SF@@ 1565
yc@@ 1565
ム 1565
檬@@ 1565
韶 1564
390 1563
560 1563
溢 1563
69.@@ 1562
eon 1562
膳 1562
242 1561
脖@@ 1561
245 1560
5.2 1560
Production 1560
FF 1559
ML@@ 1559
聊 1559
豹@@ 1559
CV@@ 1558
set 1558
譽@@ 1558
me@@ 1557
ro 1557
谭 1557
enti@@ 1556
sin@@ 1556
楓@@ 1556
鲸@@ 1556
FF@@ 1555
325 1553
唸 1553
燦 1553
鋪@@ 1553
DM 1552
Direc@@ 1552
峪@@ 1552
Asia 1550
ek@@ 1550
垮@@ 1550
1804 1549
1810 1549
Ang@@ 1549
エ 1549
泼@@ 1549
AF 1548
Bank 1548
プ 1548
肤@@ 1548
骏 1548
Society 1547
if@@ 1547
叻 1546
ML 1545
栈 1545
227 1544
Kr@@ 1544
惜@@ 1544
廬@@ 1543
讳 1543
110@@ 1542
5.8 1542
盼 1542
荡@@ 1542
驛 1542
DF@@ 1541
乎@@ 1540
杏 1540
285 1539
Vista 1539
硼 1539
雳 1539
tic@@ 1538
膳@@ 1538
饿 1538
碟@@ 1537
SL 1536
亏@@ 1536
芸@@ 1536
媚 1535
460 1534
Jack 1534
攸@@ 1534
慷@@ 1533
轿@@ 1533
畑@@ 1531
仑@@ 1529
庞 1529
汾 1529
庐 1528
摇 1528
鋰 1528
龕 1528
ys@@ 1527
萃@@ 1527
蟾@@ 1527
6.1 1526
DR 1526
Dream 1526
IEEE 1526
寡 1526
残 1526
窯 1526
隋 1526
摆 1525
垣@@ 1524
縫@@ 1524
XML 1523
which 1523
伎 1522
桩 1522
煥@@ 1522
砷 1522
诈@@ 1522
Cas@@ 1521
239 1520
悍 1520
赎@@ 1520
羈@@ 1519
瀛@@ 1517
陂 1517
謎@@ 1516
254 1515
tri@@ 1515
爽@@ 1515
58.@@ 1514
ut 1514
ə 1514
蛮@@ 1514
飽@@ 1514
PRO@@ 1512
拐@@ 1512
偕@@ 1511
1799 1510
チ 1509
昵@@ 1509
诵 1509
Research 1505
冢 1505
B2 1504
ba 1504
撾 1504
璜 1504
94.@@ 1503
GM 1503
妒 1503
Rock 1502
惕 1502
鉅 1502
311 1501
琦@@ 1501
踪@@ 1501
嬌 1500
醇@@ 1500
1644 1499
ings 1499
刹@@ 1499
簇 1499
ath 1498
our 1498
ASA 1497
lu@@ 1497
་ 1497
韌@@ 1497
暱@@ 1496
獄@@ 1496
篆@@ 1496
韃@@ 1496
ash 1495
https 1495
殴@@ 1495
318 1494
Good 1494
Junior 1494
よ 1494
1809 1493
BT 1493
聆@@ 1493
234 1492
グ 1492
弯 1491
S1 1490
ty@@ 1490
鮨 1490
澎@@ 1489
赂 1489
bl@@ 1488
垫 1488
筋@@ 1488
901 1487
TG@@ 1487
厘@@ 1487
柵@@ 1487
Open 1486
衷@@ 1486
遥 1486
1776 1485
Tour 1485
佥@@ 1485
呀 1485
舵@@ 1485
pH 1484
栅@@ 1484
Sports 1482
雌 1482
Kh@@ 1481
1834 1480
oma 1480
绅 1480
530 1479
aj@@ 1479
osaurus 1479
涪@@ 1479
600@@ 1478
can 1478
more 1478
ve@@ 1478
瀾 1478
mol 1477
sen 1477
ニ 1477
丕@@ 1477
行榜 1477
252 1476
92.@@ 1476
Web@@ 1476
1822 1475
540 1475
Award 1475
Magazine 1475
閏 1475
304 1474
Billboard 1474
CM 1474
First 1474
up@@ 1474
5.7 1472
ra@@ 1472
轶@@ 1472
3.9 1471
580 1471
Church 1471
8.1 1470
Comic 1470
ua 1470
旨@@ 1470
241 1469
Mus@@ 1469
White 1469
蟬@@ 1469
4.1 1468
H2O 1468
mann 1468
630 1467
T1 1467
sa@@ 1467
傻@@ 1467
襪@@ 1467
1.0@@ 1466
攤 1466
1813 1465
470 1465
嫡 1465
淞 1465
踩 1464
C1 1463
LG@@ 1463
MAX 1463
SW@@ 1463
DF 1462
GS 1462
GE 1461
皿 1461
Night 1460
» 1460
岱@@ 1460
386 1459
tus 1459
苛@@ 1459
EM 1458
慘 1458
歪@@ 1458
け 1457
苞@@ 1457
ain@@ 1456
ash@@ 1456
van 1456
廁 1455
槐 1455
1828 1454
286 1454
Star@@ 1454
デ 1454
ャ 1454
訟@@ 1453
辟@@ 1453
Service 1452
蕙 1452
蠢 1452
嵐 1451
葡 1451
鷲 1451
ib@@ 1450
梧 1450
鹦@@ 1450
1826 1449
ment 1449
蘊@@ 1449
詭@@ 1449
Do 1448
掣 1448
暇 1448
葱 1448
鉉 1448
GL 1447
Mary 1447
埤@@ 1447
246 1446
攏 1446
Channel 1445
CNN 1444
och@@ 1444
scope 1444
瀚 1444
褶@@ 1444
Louis 1443
絨 1443
Adobe 1442
坳 1442
窃@@ 1442
we 1441
逝@@ 1441
Green 1440
Mir@@ 1440
贛@@ 1440
720 1439
dis@@ 1439
晃@@ 1439
湳 1439
璟 1439
For 1438
Ha@@ 1438
PE 1438
ex 1438
翎 1438
跪 1438
骄@@ 1438
氓 1437
酮@@ 1437
俸@@ 1436
剃@@ 1436
荫@@ 1436
肿 1435
1819 1434
IB@@ 1434
Your 1434
芜 1434
钮 1433
麴 1433
Ca@@ 1432
懋 1432
芦 1432
Sim@@ 1431
2025 1430
Jo@@ 1430
Wil@@ 1430
岷@@ 1430
澜@@ 1430
玺 1430
璞 1430
邺 1430
隴@@ 1430
Vo@@ 1429
鉀 1429
East 1428
兜 1428
匝@@ 1428
遗 1428
263 1427
PG 1427
バ 1427
奄@@ 1427
抗日@@ 1427
榆 1427
瘦 1427
5.3 1426
Data 1426
冤 1426
擂@@ 1426
晏 1426
1807 1425
兗@@ 1425
嗜 1425
鄱@@ 1425
鷗 1425
擄 1424
枕 1424
滞 1424
1805 1423
620 1423
PP 1423
Pl@@ 1423
Sub@@ 1423
for@@ 1423
Ⅱ 1423
丫@@ 1423
艳 1423
莹 1423
诠@@ 1423
243 1422
323 1422
Pal@@ 1422
Sw@@ 1422
Wi@@ 1422
1794 1421
Visual 1421
楞 1421
ico 1420
ama 1419
吼 1419
宠 1419
Ly@@ 1418
倩 1418
Maria 1417
Ran@@ 1417
滩@@ 1417
稟 1417
MB@@ 1416
Sho@@ 1416
est@@ 1416
钉 1416
De 1415
Point 1415
Sar@@ 1415
Ta@@ 1415
僚@@ 1415
桢 1415
謊 1415
Act 1414
Arts 1414
Line 1414
UP 1414
hu@@ 1414
貧 1414
Is 1413
ema 1413
Corporation 1411
Sun 1411
哇@@ 1411
4.7 1410
Hal@@ 1410
Lam@@ 1410
public 1410
吠@@ 1410
噬@@ 1410
玟 1410
Science 1409
竊@@ 1409
贖 1409
ser@@ 1408
償@@ 1408
绸@@ 1408
1808 1407
618 1407
椒@@ 1407
Tur@@ 1406
VII 1406
曳 1406
aceae 1405
史密@@ 1405
1791 1404
DA@@ 1404
Ke@@ 1404
ato 1404
ors 1404
挾@@ 1404
闹 1404
я 1403
煞 1403
邮 1403
icus 1402
灼@@ 1402
秒@@ 1402
翊@@ 1402
靶 1402
6.7 1401
face 1401
銓 1400
1829 1399
5.4 1399
iPad 1399
star 1399
uc@@ 1399
蛺@@ 1399
蝸@@ 1399
衬@@ 1399
谓@@ 1399
253 1398
ann@@ 1397
媛@@ 1397
忻@@ 1397
撓 1397
VI 1396
ng@@ 1396
璇 1396
瘋 1396
4.4 1395
EP@@ 1395
port 1395
拇@@ 1395
昔 1394
312 1393
680 1393
ona 1393
General 1392
have 1392
š 1392
1796 1391
│ 1391
倩@@ 1391
愧 1391
擅 1391
椿 1391
266 1390
锈@@ 1390
6.8 1389
dr@@ 1389
昼@@ 1389
蔥 1389
Hi@@ 1388
訶@@ 1388
钞 1388
孢 1387
Cat@@ 1386
fo@@ 1386
AU 1385
妲 1385
飪 1385
Cube 1384
Edward 1384
Ko@@ 1384
eta 1384
斂 1384
斧@@ 1384
査 1384
螂 1384
E3 1383
毓 1383
俭 1382
315 1381
COM 1381
Ger@@ 1381
僻 1381
喊@@ 1381
悅@@ 1381
楞@@ 1381
洩 1381
矯@@ 1381
詐@@ 1381
1823 1380
236 1380
κ 1380
赢 1380
鼩 1380
7.2 1379
El 1379
ュ 1379
271 1378
Station 1378
down 1378
睞 1378
肇 1378
150@@ 1377
黛 1377
叭 1376
79.@@ 1375
Cur@@ 1375
姨@@ 1375
迭 1375
1818 1374
GPS 1374
lin 1374
湧 1374
芥 1374
007 1373
244 1373
ACE 1373
self 1373
迺@@ 1373
雏@@ 1373
DT@@ 1372
RI 1372
况@@ 1372
叮@@ 1372
妆 1372
襯@@ 1372
鳅 1372
281 1371
282 1371
敞 1371
BE@@ 1370
YG 1370
ny 1370
癱@@ 1370
Battle 1369
MG 1369
鄺@@ 1369
饷 1369
257 1368
PI 1368
г 1368
绣@@ 1368
鸞 1368
08@@ 1367
1775 1367
248 1367
War@@ 1367
1803 1366
tor@@ 1366
匆@@ 1366
焘 1366
弥 1365
Chinese 1364
Gi@@ 1364
儉 1364
喃 1364
MW 1363
ィ 1363
禍@@ 1363
诈 1363
Mozilla 1362
ame 1362
攀 1362
趋 1362
237 1361
CL 1361
彥@@ 1361
洮@@ 1361
1802 1360
338 1360
Ba@@ 1360
Fo@@ 1360
Rad@@ 1360
厢@@ 1360
昶 1359
纂@@ 1359
鏢 1359
GP 1358
龛 1358
1816 1357
9.5 1357
佟@@ 1356
涿@@ 1356
321 1355
臼@@ 1355
麒 1355
BI@@ 1354
lis 1354
灑 1354
熄@@ 1354
鵰 1353
247 1352
鑄 1352
2400 1351
2600 1351
6.3 1351
Party 1351
パ 1351
硕 1351
272 1350
Hill 1350
mg 1350
ن 1350
碁 1350
357 1349
CK 1349
table 1349
ere 1348
歙@@ 1348
ê 1347
伶 1347
煎 1347
蝽 1347
319 1346
98.@@ 1346
嘱 1346
墜 1346
樟 1346
廚 1345
颍@@ 1345
Az@@ 1344
ters 1344
彌 1344
艋 1344
268 1343
eo 1343
oh@@ 1343
旌@@ 1343
沅@@ 1343
960 1342
HE@@ 1342
瘓 1342
蕃@@ 1341
1798 1340
anti@@ 1340
虧 1340
僉 1339
檗 1339
261 1338
ius 1338
ر 1338
舺 1338
黴@@ 1338
284 1337
崧 1337
碰 1337
胥 1337
Note 1336
oides 1336
蓼 1336
As 1335
Rem@@ 1335
Sun@@ 1335
la@@ 1335
ハ 1335
杠 1335
N1 1334
卿@@ 1334
堯@@ 1334
脅@@ 1334
葺 1334
え 1333
寝 1333
秩 1333
FL@@ 1332
ota 1332
骁@@ 1332
ts@@ 1331
撿 1331
歴 1331
730 1330
纱@@ 1329
骷@@ 1329
295 1328
JT@@ 1327
ack@@ 1327
eus 1327
沾@@ 1327
VR 1326
わ 1326
誡 1326
鎂 1326
締 1325
鹏@@ 1325
let 1324
ops 1324
咐 1324
囑 1324
鏽 1324
2100 1323
Cu@@ 1323
ets 1323
2024 1322
Av@@ 1322
Firefox 1322
賂 1322
web 1321
峨 1321
蝦@@ 1321
6.6 1320
Mike 1320
桅@@ 1320
殯@@ 1320
Royal 1319
ight 1319
绩@@ 1319
缠@@ 1319
has 1318
頰 1318
1568 1317
Free@@ 1317
辱@@ 1317
FT 1316
don 1316
light 1316
С 1316
LP 1315
WTA 1315
form 1315
lan@@ 1315
ness 1315
屎 1315
黯@@ 1315
Little 1314
扼@@ 1314
潟@@ 1314
蓟@@ 1314
1817 1313
Hz 1313
eng 1313
煎@@ 1313
660 1312
IL 1312
var 1312
伶@@ 1312
僉@@ 1312
剔@@ 1312
510 1311
999 1311
ß 1311
钻 1311
1780 1310
274 1310
Cer@@ 1310
ran@@ 1310
tr 1310
螨 1310
258 1309
Digital 1309
赁 1309
aya 1308
of@@ 1308
倘@@ 1307
ym@@ 1306
以色@@ 1306
膚@@ 1306
艳@@ 1306
288 1305
η 1305
Alexander 1304
first 1304
琉 1304
薯@@ 1304
Awards 1303
Sin@@ 1303
● 1303
檎 1303
诰 1303
Scott 1302
mer@@ 1302
匠@@ 1302
Wal@@ 1301
oa 1301
沥@@ 1301
籽 1301
践@@ 1301
辗@@ 1301
269 1300
276 1300
Ter@@ 1300
cast 1300
283 1299
垦@@ 1299
壤@@ 1299
钩@@ 1299
驸@@ 1299
Mad@@ 1298
ud@@ 1298
Daniel 1297
Wo@@ 1297
bus 1297
use 1297
捆@@ 1297
滁@@ 1297
Rec@@ 1296
ima 1296
were 1296
沽@@ 1295
笈 1295
AW@@ 1294
逍@@ 1294
醮 1294
鬧@@ 1294
1750 1291
SB 1291
缚 1291
1650 1290
313 1290
瀝@@ 1290
缴 1290
Of 1289
ides 1289
凋@@ 1289
96.@@ 1288
world 1288
錘 1288
髒 1288
Far@@ 1287
Reg@@ 1287
ili@@ 1287
墘 1287
櫛@@ 1287
除此@@ 1287
AND 1286
唤@@ 1285
謬 1285
MX 1283
瑤@@ 1283
Cap@@ 1282
cor@@ 1282
op 1282
驰@@ 1282
ガ 1281
垫@@ 1281
42.@@ 1280
Great 1280
urus 1280
莘@@ 1280
199@@ 1277
宵@@ 1277
醯 1277
钴 1277
YP 1276
king 1276
long@@ 1276
潢 1276
艙@@ 1276
Bas@@ 1275
WS 1275
貌@@ 1275
Mil@@ 1274
咏@@ 1274
遁 1274
1645 1273
Hor@@ 1273
ess@@ 1273
7.1 1272
Phone 1272
San@@ 1272
锤 1272
1622 1271
HTTP 1271
ND@@ 1270
40.@@ 1269
ax@@ 1268
窒@@ 1268
窖 1268
1788 1267
ass@@ 1267
掖 1267
CW 1266
Sky@@ 1266
兀 1266
徘@@ 1266
梵 1266
榄 1266
緒@@ 1266
腕@@ 1266
333 1265
EV@@ 1265
TCP 1265
ye 1265
Tub@@ 1264
刪 1264
Dec@@ 1263
疗 1263
2030 1261
375 1261
els 1261
堺 1261
晦 1261
槐@@ 1261
皂@@ 1261
740 1260
PV 1260
lin@@ 1260
ひ 1260
洼 1260
湊@@ 1259
舷@@ 1259
4.9 1258
孺 1258
259 1257
277 1257
309 1257
綾@@ 1257
蚕@@ 1257
メ 1256
拂@@ 1256
隧@@ 1256
1640 1255
憎@@ 1254
1787 1253
Technology 1253
焕@@ 1253
苳 1253
莺 1253
Master 1252
ill@@ 1252
п 1252
287 1251
ダ 1251
佗 1251
SN 1249
opsis 1249
咳@@ 1249
騷 1249
4500 1248
APG 1248
奘 1248
滯@@ 1248
胥@@ 1248
BAS@@ 1247
Jr 1247
攜 1247
蘑@@ 1247
孺@@ 1246
oni 1245
160@@ 1244
570 1244
his 1244
ling 1244
婢 1244
Drive 1243
Tar@@ 1243
彬@@ 1243
柩 1243
賭 1243
鹃@@ 1243
ky 1242
佃@@ 1242
肘 1241
膀@@ 1241
姨 1240
阙 1240
GHz 1239
ning 1239
767 1238
砸@@ 1238
Works 1237
atum 1237
彝 1237
魮 1237
Frank 1236
RE 1236
Software 1236
ali@@ 1236
侈 1236
勵@@ 1236
拙 1236
279 1235
Hot 1235
day 1235
IU@@ 1233
function 1233
歳 1233
涧 1233
誥 1233
A3 1232
Brown 1232
ast 1232
ili 1232
釉 1232
鬣@@ 1232
鹘 1232
JavaScript 1230
ler@@ 1230
烽@@ 1230
皓@@ 1230
裴 1230
por@@ 1229
瘫@@ 1229
296 1228
Union 1228
鞍 1228
餵 1228
1783 1227
坟 1227
湍@@ 1227
180@@ 1226
2200 1226
Taiwan 1226
anensis 1226
螯 1226
The@@ 1225
″ 1225
妆@@ 1225
Lake 1224
嚮 1224
曬 1224
穆斯@@ 1224
LG 1223
ese 1223
Global 1222
War 1222
悦@@ 1222
腭 1222
97.@@ 1221
Fin@@ 1221
min@@ 1221
off 1221
thys 1221
谎@@ 1221
刹 1220
摄 1220
蝇 1220
43.@@ 1219
PR 1219
cu@@ 1219
抬 1219
歉@@ 1219
ji 1218
栃 1218
膛@@ 1218
荼 1218
710 1217
A4 1217
煜 1217
睾@@ 1217
闰 1217
1827 1216
299 1216
KB 1216
沱@@ 1216
HP 1215
ents 1215
蠻@@ 1215
5.0 1214
system 1214
南極@@ 1214
栓@@ 1214
徊 1213
灶@@ 1213
贬 1213
130@@ 1212
滦@@ 1212
堃 1211
弼@@ 1211
簷 1211
账 1211
sc@@ 1210
蔔 1210
324 1209
Ban@@ 1209
Chris 1209
inus 1209
θ 1209
筱@@ 1209
谜 1209
焰@@ 1208
He 1207
289 1206
780 1206
Model 1206
Wi 1206
art 1206
ze@@ 1206
嗓@@ 1206
骚 1206
298 1205
Bay 1205
忱 1205
桅 1205
绸 1205
謗 1205
冼@@ 1204
娩 1204
癖 1204
385 1203
MM 1203
Ty@@ 1203
喇 1203
鑰 1203
2O@@ 1202
335 1202
Cup 1202
512 1201
檯 1201
蔗@@ 1201
331 1200
Joe 1199
York 1199
ich 1199
ki@@ 1199
ي 1199
丈@@ 1199
槌 1199
Journal 1198
Series 1198
Ul@@ 1198
所在@@ 1198
璐 1198
繕 1198
Dem@@ 1197
Sor@@ 1197
ira 1197
甯 1197
痪 1197
278 1196
CR 1196
MR 1196
chi@@ 1196
ela 1196
崴 1196
挠 1196
疣 1196
Santa 1195
Sn@@ 1195
Special 1195
ATA 1194
odon 1194
瀧@@ 1194
抢 1193
273 1191
7.3 1191
Explorer 1191
ast@@ 1191
凳 1191
赢@@ 1191
馴@@ 1191
1592 1190
820 1190
ë 1189
2300 1188
267 1188
act 1188
ō 1188
婁@@ 1188
趾@@ 1188
م 1187
膏@@ 1187
鲷 1187
筲@@ 1186
Sam@@ 1185
adi@@ 1185
ian 1185
ビ 1185
钝 1185
闖 1185
Andrew 1184
ez@@ 1184
res@@ 1184
め 1184
琅@@ 1184
顛 1184
驯@@ 1184
757 1183
PD 1183
col@@ 1183
ero 1183
fr@@ 1183
over 1183
ten 1183
ь 1183
佘@@ 1183
惇 1183
郴@@ 1182
蔽@@ 1181
蟹@@ 1181
霉 1181
1811 1180
Square 1180
纶 1180
蜱 1180
Eur@@ 1179
Lady 1179
廓@@ 1179
轎 1179
鈔@@ 1179
Ben@@ 1178
H2@@ 1178
NS 1178
but 1178
攔 1178
笃 1178
臼 1178
韬 1178
ost@@ 1177
屠 1177
炉@@ 1177
EG 1176
M3 1176
arg@@ 1176
tia 1176
垮 1176
釜 1176
櫚@@ 1175
糸 1175
镶 1174
Free 1173
KK@@ 1173
住民 1173
燭 1173
衮 1173
U19 1172
lo 1172
寞 1172
揽 1172
杞 1172
inae 1171
ett 1170
Express 1169
MT 1169
SK 1169
ly@@ 1169
胄 1169
讽 1169
Mess@@ 1168
Pres@@ 1168
WO@@ 1168
ft 1168
FX 1167
ted 1167
铉 1167
PN 1166
bar@@ 1166
髻 1166
590 1165
978 1165
Air@@ 1165
Sm@@ 1165
僭 1165
忒@@ 1165
Les 1164
Sel@@ 1164
aris 1164
pot 1164
賄 1164
踝 1164
An 1163
喆 1163
嬉@@ 1163
磋@@ 1163
190@@ 1162
Gre@@ 1162
φ 1162
薰@@ 1162
鸠 1162
589 1161
670 1161
Space 1161
Town 1161
sub@@ 1161
ten@@ 1161
x86 1161
樽 1161
莪 1161
粲 1160
艇@@ 1160
880 1159
NO 1159
Press 1159
Tre@@ 1159
ray 1159
Sil@@ 1158
鞠@@ 1158
鵬@@ 1158
291 1157
292 1157
ati 1157
嘗@@ 1157
沾 1157
405 1156
AST 1156
Christian 1156
File 1156
羣 1156
鈎 1156
钛 1156
1582 1155
293 1155
Museum 1155
198@@ 1154
690 1154
AAA 1154
Lov@@ 1154
und@@ 1154
1580 1153
NP 1153
捏@@ 1153
犀 1153
膦 1153
杞@@ 1152
柠@@ 1152
綢 1152
C2 1151
Mi 1151
trans@@ 1151
賺@@ 1151
郸@@ 1151
鎚 1151
饪 1151
Res@@ 1150
苏格@@ 1150
― 1149
ょ 1149
纱 1149
铬 1149
die 1148
ns 1148
wa 1148
瘾 1148
瑰@@ 1147
榴 1146
314 1145
5.9 1145
Bill 1145
咏 1145
NCAA 1144
tes 1144
窄@@ 1144
驹 1144
Code 1143
泵@@ 1143
綺@@ 1143
250@@ 1142
322 1142
FIFA 1142
Micro@@ 1142
What 1142
Obj@@ 1141
ode 1141
ろ 1141
殲 1141
泼 1141
艉 1141
鋅 1141
钥@@ 1141
1583 1140
1797 1140
404 1140
mRNA 1140
吒 1140
嗅@@ 1140
痴@@ 1140
羁@@ 1140
謁 1140
鈦 1140
1550 1139
1777 1139
2700 1139
Council 1139
kin 1139
m3 1139
竄 1138
CoV 1137
WA 1137
illa 1137
祸@@ 1137
345 1136
DV@@ 1136
Meg@@ 1136
珉 1136
耻 1136
肄@@ 1136
＋ 1136
ace 1135
鎧@@ 1135
缔 1134
圩 1133
妤 1133
鱇 1133
1598 1132
cl@@ 1132
卅@@ 1132
糟 1132
H2 1131
么@@ 1131
驿 1131
607 1130
糕@@ 1130
pre@@ 1129
闕 1129
鴿 1129
VS 1128
ative 1127
case 1127
莽@@ 1127
1571 1126
Lis@@ 1126
mat@@ 1126
蔑 1126
釉@@ 1126
502 1125
back 1125
禱@@ 1125
跪@@ 1125
闇 1125
1570 1124
Heart 1124
Nor@@ 1124
SU 1124
cul@@ 1124
荥@@ 1124
294 1123
IEC 1123
疵 1123
鮭 1123
Mu@@ 1122
浊 1122
艷 1122
316 1121
ement 1121
ey@@ 1121
490 1120
1648 1119
830 1119
Prot@@ 1119
data 1119
two 1119
弩 1119
耿 1119
麽 1119
ali 1118
蟒 1118
787 1117
810 1117
FDA 1117
SR@@ 1117
翹 1117
NI@@ 1116
OT@@ 1116
ish@@ 1116
稠 1116
絞@@ 1116
鮟 1116
厥 1115
捧@@ 1115
氾 1115
渦 1115
翊 1115
逮@@ 1115
317 1114
峻@@ 1114
IPv@@ 1113
London 1113
can@@ 1113
cha 1113
愷 1113
1621 1112
the@@ 1112
505 1111
SF 1111
宕 1111
挡@@ 1111
HIV 1110
Mul@@ 1110
pop 1110
奬 1110
聆 1110
Net 1109
匣@@ 1109
б 1108
馏 1108
707 1107
Summer 1107
du@@ 1107
嫂 1107
尝 1107
柚@@ 1107
邵 1107
SH 1106
ha@@ 1106
倪 1106
兮 1106
334 1105
Flash 1105
ole 1105
羞 1105
逕 1105
噴 1104
诱 1104
los@@ 1103
琨 1103
蝎@@ 1103
1625 1102
DL 1102
ri 1102
FBI 1101
aur@@ 1101
pro@@ 1101
tan@@ 1101
锰 1101
Play@@ 1100
拢 1100
1778 1099
760 1099
Ol@@ 1099
廬 1099
矚@@ 1099
Run@@ 1098
⋯ 1098
履 1098
佤@@ 1097
呤 1097
夾 1097
扭 1097
畠 1097
裤 1097
誹@@ 1097
402 1096
America 1096
Ur@@ 1096
1770 1095
Centre 1095
UM@@ 1095
ito 1095
厕@@ 1095
拐 1095
檬 1095
uk@@ 1094
剎@@ 1094
＂ 1094
Out@@ 1092
fe@@ 1092
唾@@ 1092
诫 1092
谅 1092
PK 1091
rom@@ 1091
tom@@ 1091
ズ 1091
碇 1091
荆 1091
贩 1091
驟@@ 1091
Festival 1090
ik 1090
oo 1090
塚@@ 1090
腈 1090
GI 1089
Steve 1089
ard@@ 1089
摔 1089
撇@@ 1089
穹 1089
膩 1089
pu@@ 1088
楣 1088
镀@@ 1088
顱@@ 1088
297 1087
AE 1087
ы 1087
峪 1087
缉@@ 1087
蕉@@ 1087
353 1086
Conn@@ 1086
Eric 1086
XT 1086
old 1086
329 1085
Bro@@ 1085
Two 1085
tical 1085
灘@@ 1085
脇 1085
鷺 1084
檐@@ 1083
泪@@ 1083
臥 1083
麼@@ 1083
ori@@ 1082
吵@@ 1082
茛@@ 1082
蘊 1082
elle 1081
sion 1081
璘 1081
EMI 1080
Kin@@ 1080
New@@ 1080
fl@@ 1080
丐 1080
颅@@ 1080
CII 1079
ass 1079
ding 1079
ster 1079
槭 1079
425 1078
ce@@ 1078
幽 1078
曜@@ 1078
蕈 1078
鋸 1078
閑 1078
恺 1077
鐮@@ 1077
钓 1077
Chr@@ 1076
蔑@@ 1076
媳@@ 1075
352 1074
FN 1074
緋@@ 1074
婉 1073
醬@@ 1073
Studios 1072
蚜 1072
髓@@ 1072
Central 1071
Soc@@ 1071
tive 1071
汛 1071
鮭@@ 1071
355 1070
Dol@@ 1070
GN 1070
HD@@ 1070
RN@@ 1070
less 1070
佬@@ 1070
2800 1069
465 1069
IF 1069
Management 1069
ating 1069
ello 1069
³ 1069
谜@@ 1069
RFC 1068
Rob@@ 1068
ech 1068
瀕 1068
競 1068
Dev@@ 1067
hi 1067
厌 1067
暈 1067
555 1066
ч 1066
910 1065
DL@@ 1065
oto 1065
ø 1065
贻@@ 1065
Place 1064
cher 1064
ser 1064
モ 1064
揭 1064
褲@@ 1064
Dance 1063
Pas@@ 1063
SG 1063
Systems 1063
Tom@@ 1063
А 1063
瑕@@ 1063
竺@@ 1063
诽@@ 1063
ARM 1062
Bon@@ 1062
int@@ 1062
狡@@ 1062
ip@@ 1061
涨@@ 1061
玖 1061
褐 1061
迥@@ 1061
384 1060
app@@ 1060
iPod 1060
巒 1060
愤 1060
暮 1060
漱@@ 1060
猝@@ 1060
1628 1059
840 1059
Key 1059
Met@@ 1059
Pat@@ 1059
Pierre 1059
滥 1059
瞳@@ 1059
荊 1059
镰@@ 1059
407 1058
Gro@@ 1058
ē 1058
帅@@ 1058
搜 1058
赚@@ 1058
USS 1057
晷 1057
770 1056
STS 1056
iv@@ 1056
宦 1056
蔓 1056
une 1055
凑 1055
喘 1055
櫸 1055
Box 1054
Design 1054
Mic@@ 1054
Syn@@ 1054
峭@@ 1054
邂@@ 1054
鹉 1054
1785 1053
89.@@ 1053
MA@@ 1053
梢 1053
藜 1053
1630 1052
Ru@@ 1052
mer 1052
yp@@ 1052
焉@@ 1052
绛 1052
Sky 1051
Not@@ 1050
dium 1049
inter@@ 1049
蔻 1049
1784 1048
刮 1048
昊@@ 1048
］ 1048
359 1047
Cin@@ 1047
HA 1047
amp@@ 1047
扔@@ 1047
祷@@ 1047
酱@@ 1047
403 1046
Ch 1046
atr@@ 1046
tin 1046
肾 1046
逅 1046
颁 1046
con 1045
扈@@ 1045
脅 1045
鞅 1045
Luc@@ 1044
鹛 1044
327 1043
354 1043
BP 1043
ars 1043
哩@@ 1043
胱 1043
＝ 1043
ory 1042
res 1042
懲 1042
邕 1042
咕@@ 1041
咽 1041
Black@@ 1040
MK 1040
aster 1040
惰@@ 1040
［ 1040
328 1039
Blo@@ 1039
Football 1039
bar 1039
П 1039
婪 1039
碲 1039
鈕@@ 1039
麝@@ 1039
3G 1038
Kan@@ 1038
elli 1038
ver 1038
潼 1038
Ben 1037
tro@@ 1037
ū 1037
办事@@ 1037
踞 1037
銃 1037
鳃 1037
344 1036
NG 1036
inger 1036
uch@@ 1036
豌@@ 1035
頤 1035
叟 1034
碾@@ 1034
輿 1034
1631 1033
1661 1033
356 1033
get 1033
嘧@@ 1033
Mont@@ 1032
az 1032
bre@@ 1032
و 1032
AO 1031
1573 1030
1636 1030
525 1029
Kir@@ 1029
壠 1029
笋 1029
羹 1029
萍@@ 1029
1521 1028
Ku@@ 1028
Os@@ 1028
罄 1028
Men@@ 1027
Ple@@ 1027
su 1027
Δ 1027
1601 1026
Kit@@ 1026
MR@@ 1026
TER 1026
UK@@ 1026
iss@@ 1026
ul 1026
せ 1026
曇 1026
6.0 1025
Bob 1025
Je@@ 1025
懈 1025
纤 1025
蓉@@ 1025
O4 1024
Si 1024
Van 1024
NC 1023
蝗@@ 1023
1565 1022
1616 1022
416 1022
PO 1022
溜 1022
煦 1022
贮@@ 1022
Ed@@ 1021
夸 1021
柿@@ 1021
蜆 1021
谤 1021
888 1020
貪 1020
140@@ 1019
Pop 1019
巅@@ 1019
泾 1019
Mah@@ 1018
Poly@@ 1018
瘤@@ 1018
韧@@ 1018
1553 1017
Out 1017
戳 1017
炫 1017
炯 1017
疟@@ 1017
瞒 1017
诅@@ 1017
鼐 1017
1603 1016
367 1016
Edge 1016
F2 1016
Song 1016
錨 1016
Kal@@ 1015
勖 1015
卦@@ 1015
挣@@ 1015
毛泽@@ 1015
1786 1014
395 1014
870 1014
930 1014
Su 1014
斡 1014
渾 1014
脷 1013
菸@@ 1013
隍@@ 1013
88.@@ 1012
had 1012
side 1012
xi@@ 1012
睐 1012
1368 1011
Che@@ 1011
GN@@ 1011
瓚 1011
絃 1011
蚓 1011
诃 1011
1620 1010
All@@ 1010
del@@ 1010
kW 1010
嗽 1010
蚌 1010
Light 1009
Marie 1009
Ig@@ 1008
ike 1008
lar@@ 1008
弁 1008
枣 1008
諦 1008
遐@@ 1008
358 1007
860 1007
Beyond 1007
Bit@@ 1007
District 1007
ef@@ 1007
eme 1007
fac@@ 1007
衢 1007
鄴 1007
鎬 1007
BR@@ 1006
fer@@ 1006
缉 1006
襟 1006
К 1005
噁 1005
樊 1005
PDF 1004
1646 1003
晝@@ 1003
桁@@ 1003
IO@@ 1002
TL 1002
Uni@@ 1002
sky 1002
悠 1002
谿 1002
鲤 1002
1643 1001
椿@@ 1001
氙 1001
醋@@ 1001
钞@@ 1001
Sam 1000
bian 1000
拮@@ 1000
耽@@ 1000
蚜@@ 1000
1772 999
CON@@ 999
ats 999
mail 999
垒@@ 999
轩@@ 999
192@@ 998
County 998
ales 998
嘌@@ 998
弛 998
抖@@ 998
Rap@@ 997
WT@@ 997
壢@@ 997
聿@@ 997
陕 997
1st 996
WH@@ 996
will 996
賑@@ 996
軀@@ 996
HT 995
Mur@@ 995
滘 995
346 994
UT 994
code 994
Dor@@ 993
Ir@@ 993
top 993
苛 993
1586 992
Dar@@ 992
Pa@@ 992
宙 992
嵐@@ 992
掏@@ 992
矗@@ 992
蠶@@ 992
貳 992
1760 991
BW@@ 991
Ci@@ 991
nan@@ 991
瞳 991
蜓 991
1577 990
705 990
Mol@@ 990
寸@@ 990
蚂@@ 990
Han@@ 989
sy@@ 989
抉@@ 988
立陶@@ 988
TT@@ 987
菠@@ 987
锑 987
髏 987
Bul@@ 986
Ray 986
aus@@ 986
ins@@ 986
č 986
.1 985
Dream@@ 985
Johnson 985
ebook 985
eli@@ 985
螞@@ 985
1624 984
351 984
ART 984
Plat@@ 984
cc 984
1763 983
Ju 983
恥@@ 983
祗 983
1574 982
411 982
Il@@ 982
LM 982
Public 982
訥@@ 982
1781 981
Law 981
ga 981
绅@@ 981
鍛@@ 981
鏞 981
Fi@@ 980
D1 979
Disney 979
Ram@@ 979
hy@@ 979
杵 979
衙 979
鎳 979
鮑 979
鹵@@ 979
--- 978
343 978
361 978
Class 978
cin@@ 978
rowspan 978
幂 978
桔@@ 978
蒴@@ 978
625 977
Stephen 977
图书@@ 977
窘@@ 977
訣 977
閔 977
485 976
UE@@ 976
ost 976
谏@@ 976
1610 974
1619 974
195@@ 974
336 974
BMW 974
Block 974
Nav@@ 974
ally 974
舆 974
1642 973
980 973
爛@@ 973
ms 972
yl 972
媳 972
谍@@ 972
霑 972
326 971
her@@ 971
亳@@ 971
塊@@ 971
釁 971
371 970
Alpha 970
British 970
mu@@ 970
pos@@ 970
挨@@ 969
籲@@ 969
胱@@ 969
鱨 969
ila 968
ゆ 968
嚼 968
岚 968
浓 968
Children 966
Foundation 966
inc@@ 966
war@@ 966
巾@@ 966
泻 966
燧 966
sk@@ 965
棧 965
餚 965
their 964
娠 964
浆@@ 964
鑫@@ 964
Pa 963
che 963
number 963
GC 962
May@@ 962
Story 962
yi 962
璧@@ 962
627 961
倚 961
悍@@ 961
憐 961
Cle@@ 960
怜 960
悶 960
Last 959
彷 959
Arthur 958
1615 957
337 957
Player 957
Post@@ 957
ug@@ 957
澡 957
鑣 957
馥 957
while 956
慌@@ 956
昇@@ 956
Film 955
loc@@ 955
size 955
壘@@ 955
旷@@ 955
獾 955
酐 955
鱲 955
Sig@@ 954
Williams 954
弔 954
灸 954
眠@@ 954
1618 953
HS 953
薔@@ 953
Final 952
red 952
惑@@ 951
掩 951
敲 951
洵 951
狠@@ 951
邮政@@ 951
581 950
HF 950
Pen@@ 950
cal@@ 950
箔 950
雾@@ 950
＆ 950
DT 949
Tu@@ 949
try 949
Bir@@ 948
Fire 948
GE@@ 948
UM 948
aurus 948
into 948
枋@@ 948
碌 948
128@@ 947
1590 947
406 947
tro 947
俞 947
疚 947
龐 947
332 946
Academy 946
UC 946
asi@@ 946
ble 946
form@@ 946
咀@@ 946
捆 946
3200 945
535 945
icul@@ 945
幔 945
铂 945
鳄 945
1.5@@ 944
ality 944
帘 944
貂@@ 944
迂@@ 944
酿 944
隘@@ 944
folia 943
TRA@@ 942
з 942
岚@@ 942
985 941
Bus@@ 941
Jones 941
Tai@@ 941
兑 941
417 940
ds 940
we@@ 940
ze 940
篆 940
馀 940
528 939
MF 939
MG@@ 939
М 939
壩@@ 939
彧 939
Mini 938
ke@@ 938
圩@@ 938
昀 938
柑 938
瓯 938
诛 938
1589 937
605 937
cur@@ 937
炱 937
礫@@ 937
繹@@ 937
肴 937
1730 936
940 936
Nov@@ 936
anc@@ 936
tics 936
纖 936
Name 935
Pop@@ 935
body 935
stein 935
В 935
1000@@ 934
1627 934
1774 934
341 934
Band 934
Show@@ 934
侷 934
aw 933
bal@@ 933
oni@@ 933
鸽 933
1604 932
Queen 932
also 932
酥 932
Cop@@ 931
ika 931
咲@@ 931
娑 931
宛 931
巽@@ 931
1585 930
Moon 930
TO 930
Up@@ 930
WHO 930
gen 930
ith 930
ŋ 930
祚@@ 930
驼@@ 930
415 929
D2 929
Tak@@ 929
ez 929
where 929
俟 929
渔 929
cape 928
dit 928
栢 928
爷@@ 928
粱 928
菴 928
鑾 928
闍 928
犹 927
窦 927
Pur@@ 926
ington 926
剃 926
璉 926
筏 926
SO 925
group 925
1683 924
342 924
DNS 924
gl@@ 924
sel@@ 924
弋@@ 924
綾 924
虢 924
褶 924
366 923
Cro@@ 923
Earth 923
ID@@ 923
ISA 923
Pix@@ 923
ep 923
ı 923
1609 922
Hotel 922
PI@@ 922
偃@@ 922
冥 922
淦 922
狩 922
瘧@@ 922
葱@@ 922
鴞 922
383 920
ros@@ 920
惧@@ 920
袜 920
1782 919
Ham@@ 919
Ra@@ 919
叩@@ 919
恨@@ 919
戦 919
Edition 918
tica 918
｢ 918
907 917
Control 917
Fam@@ 917
Lab@@ 917
Shi@@ 917
ely 917
etta 917
fer 917
弩@@ 917
賤@@ 917
109@@ 916
1634 916
Bridge 916
棟@@ 916
１ 916
Let 915
ind@@ 915
浇@@ 915
睢@@ 915
祐@@ 915
諺@@ 915
476 914
Lord 914
main 914
咎@@ 914
熏@@ 914
腱 914
蕙@@ 914
399 913
348 912
VV@@ 912
ader 912
aka 912
box 912
ど 912
寰@@ 912
汞@@ 912
AZ@@ 911
Ash@@ 911
PT 911
粪@@ 911
1559 910
196@@ 910
EL 910
Gl@@ 910
呆@@ 910
扳 910
碍@@ 910
aph@@ 909
non 909
920 908
Jim 908
PH@@ 908
歆 908
珩 908
脩 908
铯 908
飆@@ 908
鰨 908
970 907
瀨 907
踩@@ 907
377 906
value 906
闵 906
骠@@ 906
508 905
Avenue 905
God 905
chi 905
phy@@ 905
歪 905
泮@@ 905
1723 904
On@@ 904
list 904
紓 904
綬 904
绢 904
鶯@@ 904
194@@ 903
AH 903
App@@ 903
Fil@@ 903
GR@@ 903
So 903
嘔@@ 903
林匹@@ 903
柜@@ 903
1660 902
347 902
California 902
DSM 902
栾@@ 902
箏 902
193@@ 901
sson 901
筍 901
醍@@ 901
釣 901
435 900
懶 900
ail@@ 899
睽 899
酯@@ 899
靴@@ 899
驴 899
412 898
427 898
U2 898
厥@@ 898
枋 897
砾@@ 897
秧@@ 897
蚊 897
袞 897
cap@@ 896
pm 896
抖 896
蜈@@ 896
鵑 896
Ak@@ 895
傢 895
摊@@ 895
轰 895
41.@@ 894
Dragon 894
xx 894
墅@@ 894
胁@@ 894
芋@@ 894
轭 894
1680 893
Taylor 893
霄@@ 893
Business 892
Space@@ 892
micro@@ 892
ski 892
寢 892
槿@@ 892
軀 892
1613 891
ful 891
帚 891
轅 891
1595 890
1779 890
CF 890
History 890
men 890
棵@@ 890
蜍 890
339 889
408 889
551 889
嶄@@ 889
珈 889
纥 889
185@@ 888
Don@@ 888
Fe 888
yo@@ 888
憬 888
蜻@@ 888
遶 888
1556 887
Tro@@ 887
Walter 887
air 887
ody 887
Д 887
喵 887
囉 887
骰@@ 887
SAT 886
Zo@@ 886
only 886
una 886
zi@@ 886
ب 886
俚@@ 886
嬌@@ 886
槓@@ 886
舫 886
醐 886
隈 886
1562 885
廍 885
慄 885
旻 885
螃@@ 885
387 884
612 884
GL@@ 884
May 884
ck 884
ele 884
匕@@ 884
荚 884
醴@@ 884
409 883
H1 883
She@@ 883
lam@@ 883
ub@@ 883
諏 883
鱈@@ 883
BT@@ 882
Baby 882
Mot@@ 882
Simon 882
ust 882
002 881
364 881
381 881
398 881
727 881
KO 881
ault 881
辍@@ 881
1662 880
States 880
TF 880
USA 880
char@@ 880
har@@ 880
赈@@ 880
頁@@ 880
剋 879
叹@@ 879
噩@@ 879
烴 879
耻@@ 879
Vita 878
狠 878
讞 878
谔 878
鄙@@ 878
1755 877
like 877
悌 877
蚣 877
atic 876
don@@ 876
head 876
ual 876
vol@@ 876
恂 876
晒 876
讶 876
186@@ 875
479 875
Hem@@ 875
Yahoo 875
ies 875
tions 875
劭 875
卅 875
滔 875
腻 875
菏@@ 875
378 874
418 874
475 874
Sk@@ 874
tur@@ 874
懇@@ 874
榨@@ 874
焯 874
甄 874
钚 874
372 873
NFL 873
ney 873
媲@@ 873
浚@@ 873
蝉@@ 873
賊@@ 873
鰂 873
368 872
Talk 872
onia 872
other 872
yn 872
桦@@ 872
澍 872
鸥 872
1612 871
CB 871
oi 871
ova 871
ush 871
攸 871
钡 871
1517 870
Back 870
den@@ 870
綺 870
貂 870
Ker@@ 869
chin@@ 869
ev 869
mor@@ 869
噶 869
爹 869
螳@@ 869
이 869
Apache 868
Rho@@ 868
iko 868
zi 868
ゅ 868
ェ 868
佯@@ 868
儁 868
眺@@ 868
石坑 868
辈@@ 868
Get@@ 867
ko@@ 867
寢@@ 867
煒 867
373 866
Jackson 866
PD@@ 866
奠 866
芎 866
酉@@ 866
Operation 865
£ 865
嘻 865
弋 865
彿 865
螢 865
郢 865
1547 864
1567 864
Anim@@ 864
Like 864
List 864
frame 864
house 864
sen@@ 864
晕 864
瀚@@ 864
矫@@ 864
賤 864
499 863
509 863
Can 863
Li 863
Ma 863
Times 863
ami 863
ave@@ 863
桔 863
漁 863
瀧 863
驊 863
1508 862
376 862
Alex 862
Long 862
Sem@@ 862
vir@@ 862
怠@@ 862
昴 862
靼@@ 862
Sen@@ 861
her 861
凿@@ 861
瑭 861
貯@@ 861
187@@ 860
1250 859
Voc@@ 859
嬅 859
磅@@ 859
蛹 859
392 858
506 858
552 858
Adv@@ 858
Pri@@ 858
log@@ 858
襟@@ 858
镖 858
Land 857
UK 857
then 857
圳@@ 857
釗 857
Metro 856
cer@@ 856
iy@@ 856
than 856
they 856
宥 856
洒 856
548 855
BB@@ 855
Way 855
tra@@ 855
ć 855
仄 855
侈@@ 855
墊@@ 855
栅 855
1637 854
1701 854
486 854
else 854
ho 854
ノ 854
歹@@ 854
氐 854
熬 854
瓮@@ 854
顫@@ 854
466 853
OR 853
PGA 853
Spe@@ 853
Stre@@ 853
Who 853
喧@@ 853
1773 852
Mod@@ 852
389 851
Kids 851
Link 851
PAC 851
point 851
寝@@ 851
鮃 851
432 850
English 850
Happy 850
Tim@@ 850
hr@@ 850
ョ 850
1607 849
Old 849
Sec@@ 849
With 849
嫖@@ 849
漳 849
622 848
Development 848
LT@@ 848
ł 848
颐 848
Alan 847
Albert 847
Beta 847
隕 847
442 846
After 846
dy 846
溺 846
焙 846
茫 846
1511 845
503 845
Cloud 845
dis 845
そ 845
庠 845
烦@@ 845
鸾 845
Bus 844
Rub@@ 844
Wilson 844
謚 844
453 843
C4 843
Karl 843
Phot@@ 843
ny@@ 843
絨@@ 843
覃@@ 843
詣 843
諜@@ 843
轼 843
ツ 842
卞@@ 842
诡@@ 842
黍 842
1569 841
1765 841
｣ 841
European 840
LR 840
model 840
tar@@ 840
沧 840
179@@ 839
414 839
451 839
And@@ 839
Om@@ 839
Voice 839
ther@@ 839
窟@@ 839
锤@@ 839
Hub 838
po 838
369 837
388 837
397 837
aro 837
姦@@ 837
葦 837
170@@ 836
1771 836
Kon@@ 836
MBA 836
ania 836
map 836
堇@@ 836
痴 836
胚 836
雯@@ 836
2.0@@ 835
FE 835
PM@@ 835
蛟 835
604 834
TM 834
Tony 834
ix 834
ome@@ 834
small 834
sus 834
尷@@ 834
畲@@ 834
峒 833
榷 833
涸 833
Cel@@ 832
igo 832
log 832
巍 832
戸 832
诵@@ 832
輟@@ 832
197@@ 831
495 831
Nic@@ 831
Tal@@ 831
掸@@ 831
攘@@ 831
濑@@ 831
颅 831
鮠 831
504 830
Carl 830
KS 830
妄 830
欺 830
罂@@ 830
躋@@ 830
鴿@@ 830
鹭 830
433 829
Plan@@ 829
WC 829
lat@@ 829
誦@@ 829
谅@@ 829
1535 828
1740 828
396 828
413 828
Kur@@ 828
Rock@@ 828
Tam@@ 828
lia 828
哔@@ 828
婁 828
屁@@ 828
LL 827
isa 827
mel@@ 827
ワ 827
亘 827
烛 827
184@@ 826
Francis 826
ability 826
夭 826
幺 826
蚀@@ 826
酪@@ 826
锺 826
Kim 825
any 825
ier 825
pel@@ 825
俑 825
塹 825
簾 825
KA 824
amb@@ 824
care 824
躬 824
EE 823
mag@@ 823
1762 822
455 822
Script 822
ail 822
iro 822
★ 822
ゃ 822
囪 822
柿 822
稼@@ 822
莪@@ 822
1649 821
445 821
sey 821
乖@@ 821
菈 821
錘@@ 821
Sunday 820
oz@@ 820
敍 820
飄 820
1560 819
Mos@@ 819
Samuel 819
æ 819
娶@@ 819
瓘 819
骏@@ 819
C3 818
Pin@@ 818
Pu@@ 818
漯@@ 818
秤 818
簇@@ 818
蠍@@ 818
Bat@@ 817
IM 817
Å 817
腋@@ 817
1541 816
391 816
Brian 816
SV 816
皱@@ 816
镐 816
Ju@@ 815
cre@@ 815
婷@@ 815
盂 815
518 814
BF 814
Mes@@ 814
People 814
SY@@ 814
Vir@@ 814
ection 814
min 814
υ 814
菀 814
賬@@ 814
鲍 814
1720 813
1736 813
1748 813
Next 813
ois 813
蒐 813
End 812
RD 812
oid 812
娣 812
翟 812
1.4@@ 811
1001 811
422 811
585 811
ace@@ 811
hol@@ 811
ule 811
咲 811
擎@@ 811
镍@@ 811
1629 810
ESS 810
Fal@@ 810
Touch 810
Т 810
扈 810
沔@@ 810
竇 810
蟻@@ 810
KP@@ 809
Kevin 809
蟠@@ 809
1769 808
362 808
363 808
bi 808
unc@@ 808
奥林匹克@@ 808
悬 808
赎 808
188@@ 807
尻@@ 807
EF 806
Pap@@ 806
ever 806
縻 806
赓 806
Just 805
Year 805
ison 805
Р 805
堀 805
奚 805
恪@@ 805
猖@@ 805
Patrick 804
Real 804
Tan@@ 804
ate@@ 804
ger@@ 804
pol@@ 804
val@@ 804
巽 804
掾 804
漾 804
邕@@ 804
511 803
990 803
Will 803
pan@@ 803
tel@@ 803
喃@@ 803
懶@@ 803
榻 803
189@@ 802
2nd 802
532 802
啄@@ 802
壕@@ 802
歎 802
瑁 802
1757 801
Gor@@ 801
Library 801
asa 801
orum 801
蓓@@ 801
谬 801
529 800
杓 800
毎 800
泗 800
盼@@ 800
砷@@ 800
邃 800
549 799
645 799
Ki 799
cas@@ 799
sur@@ 799
ume 799
墮 799
1651 798
431 798
666 798
NN 798
ham 798
tu 798
煌@@ 798
428 797
639 797
啉 797
蛟@@ 797
鮫 797
1450 796
443 796
515 796
553 796
Eu@@ 796
Land@@ 796
West@@ 796
Wor@@ 796
hp 796
ular 796
usa 796
1724 795
536 795
Shar@@ 795
TB 795
len 795
劈 795
甾@@ 795
531 794
DO 794
ɛ 794
夯@@ 794
甩@@ 794
遽 794
1523 793
349 793
632 793
925 793
Ubuntu 793
vi 793
≤ 793
柘@@ 793
426 792
oth 792
坛@@ 792
釧 792
537 791
Ath@@ 791
sh 791
摊 791
芭 791
NR@@ 790
include 790
mal@@ 790
恬 790
愉 790
懺@@ 790
湃 790
Pot@@ 789
bur@@ 789
ken 789
呕@@ 789
帷@@ 789
躯@@ 789
394 788
enc@@ 788
侏 788
勐 788
575 787
Ha 787
Lisa 787
渴 787
1756 786
890 786
bul@@ 786
摒@@ 786
燭@@ 786
Adam 785
ie@@ 785
sti@@ 785
yd@@ 785
癡 785
闪 785
3.0@@ 784
554 784
Bad 784
Gear 784
Oc@@ 784
That 784
eri@@ 784
佚@@ 784
憧@@ 784
焊 784
籬 784
褫@@ 784
1689 783
382 783
ca@@ 783
oy@@ 783
戌@@ 783
浣@@ 783
鳌 783
1647 782
CH3 782
En 782
Lev@@ 782
Magic 782
anthus 782
fil@@ 782
垢 782
崭@@ 782
Fle@@ 781
VB 781
嶠 781
494 780
ady 780
pedia 780
仗@@ 780
624 779
Arc@@ 779
Rose 779
Zero 779
ery 779
town 779
wan@@ 779
轿 779
陂@@ 779
ech@@ 778
紊@@ 778
鮡 778
1529 777
1688 777
423 777
468 777
538 777
636 777
Opera 777
Sav@@ 777
Valley 777
Yo@@ 777
ines 777
itch 777
栎 777
璿 777
1623 776
Ther@@ 776
ado 776
aki 776
ans@@ 776
惶@@ 776
1578 775
1588 775
534 775
790 775
ITV 775
Proc@@ 775
Ruby 775
pal@@ 775
ture 775
呋@@ 775
牟 775
禿 775
虱 775
1490 774
Over@@ 774
RP 774
灿@@ 774
缠 774
萩@@ 774
钵 774
1727 773
嫦@@ 773
寥@@ 773
琊 773
迥 773
1745 772
DB@@ 772
len@@ 772
lie 772
癲@@ 772
125@@ 771
454 771
751 771
Family 771
岌@@ 771
拥 771
涡 771
翘 771
鍛 771
1670 770
1758 770
Market 770
uli@@ 770
缕 770
472 769
675 769
Nokia 769
Pacific 769
Pseud@@ 769
U20 769
罔@@ 769
虾@@ 769
貽@@ 769
1764 768
1768 768
507 768
Miss 768
Services 768
arr@@ 768
map@@ 768
ward 768
实际@@ 768
杲 768
泓 768
瀬 768
煬@@ 768
鏗 768
Education 767
Jason 767
lig@@ 767
讼@@ 767
闰@@ 767
1635 766
602 766
Aut@@ 766
Ryan 766
WW@@ 766
apo@@ 766
ency 766
our@@ 766
丢 766
剎 766
祀@@ 766
苟 766
铲@@ 766
鳄@@ 766
651 765
Dro@@ 765
Tim 765
att@@ 765
cell 765
son@@ 765
岖 765
择 765
萝 765
鄚 765
霾 765
1502 764
1505 764
379 764
Comp@@ 764
ster@@ 764
佼@@ 764
鈺 764
603 763
626 763
FL 763
Under 763
uk 763
唆 763
恼 763
暹 763
蕪 763
.. 762
1.7@@ 762
439 762
esa 762
iki 762
ille 762
悚 762
珥 762
374 761
436 761
516 761
tho@@ 761
ㄧ 761
嵊@@ 761
洄@@ 761
狹 761
鯙 761
586 760
Fer@@ 760
Golden 760
ci 760
ye@@ 760
帑 760
漪 760
稔 760
蛭 760
1667 759
615 759
alm@@ 759
囱 759
榭 759
祈 759
鳖 759
1591 758
522 758
Div@@ 758
Fol@@ 758
UB@@ 758
not@@ 758
瑠@@ 758
鐸@@ 758
424 757
456 757
Gil@@ 757
Vis@@ 757
愍 757
馨@@ 757
Dan 756
ESPN 756
Harry 756
pei 756
兌 756
燊 756
颚 756
BM 755
拂 755
痊 755
絹 755
1538 754
DH@@ 754
MAC 754
剷 754
摹 754
秉 754
筝 754
1526 753
393 753
lum 753
ton@@ 753
摯@@ 753
og 752
搅@@ 752
涩 752
硤 752
礫 752
鉑 752
1626 751
1735 751
1759 751
492 751
ARA 751
LCD 751
ava 751
title 751
瑗 751
禿@@ 751
谒 751
444 750
Collection 750
Dom@@ 750
ren@@ 750
栩@@ 750
汁@@ 750
綵 750
肱@@ 750
軾 750
颌@@ 750
419 749
Are 749
Bab@@ 749
Holdings 749
amework 749
aux 749
px 749
浊@@ 749
漲@@ 749
穢 749
芹@@ 749
1597 748
Stadium 748
Tower 748
inn@@ 748
sil@@ 748
吩@@ 748
绶 748
蒜@@ 748
鉅@@ 748
1.8@@ 747
Amazon 747
FR 747
ば 747
孽 747
嵇@@ 747
耘 747
酥@@ 747
545 746
Deb@@ 746
MIT 746
Na 746
ご 746
乩 746
拘 746
曠@@ 746
琬 746
瑕 746
镉 746
Angel 745
Soul 745
ein 745
ʰ 745
疽 745
1487 744
541 744
565 744
CU@@ 744
bert 744
勅 744
瑋@@ 744
聾 744
1370 743
1606 743
Lon@@ 743
Stage 743
Victor 743
aga 743
anth@@ 743
砾 743
綏 743
羯 743
臚 743
533 742
Engine 742
Gh@@ 742
Lor@@ 742
das 742
ku@@ 742
ote 742
砦 742
羨@@ 742
込 742
霓@@ 742
Hom@@ 741
Social 741
print 741
懦@@ 741
栈@@ 741
渎 741
蝰 741
酌 741
釘@@ 741
1767 740
523 740
But@@ 740
Port 740
pen@@ 740
zo@@ 740
蚕 740
蛾@@ 740
邈 740
镓 740
髦 740
Au@@ 739
kar@@ 739
pes 739
闾 739
鸽@@ 739
452 738
524 738
711 738
Alice 738
bor@@ 738
ids 738
long 738
olo@@ 738
戡@@ 738
楹 738
瀆 738
灼 738
荨@@ 738
餡@@ 738
715 737
Ep@@ 737
Prince 737
sal@@ 737
桦 737
1752 736
458 736
725 736
Ka@@ 736
Nex@@ 736
ological 736
ow 736
sim@@ 736
word 736
裘 736
贛 736
韜 736
IST 735
Sound 735
action 735
ham@@ 735
嚨 735
擱 735
梟 735
矶@@ 735
粘 735
缪 735
钒 735
457 734
613 734
dor@@ 734
tig@@ 734
巍@@ 734
梳 734
鐮 734
钯 734
颐@@ 734
722 733
Die 733
Main 733
dic@@ 733
lock 733
ず 733
苇 733
Capital 732
Samsung 732
View 732
ll 732
ulu 732
yun@@ 732
傻 732
喘@@ 732
跻@@ 732
1572 731
493 731
Kn@@ 731
MK@@ 731
Not 731
struc@@ 731
tex 731
Ⅰ 731
涟@@ 731
畹@@ 731
1493 730
1544 730
628 730
634 730
BI 730
def 730
繇 730
茴@@ 730
釐@@ 730
績@@ 729
钙@@ 729
614 728
655 728
Bo 728
Jan@@ 728
V8 728
max 728
钨 728
1545 727
1633 727
546 727
547 727
Friedrich 727
H.@@ 727
NH 727
iti@@ 727
los 727
檜 727
祁 727
668 726
815 726
Dakota 726
print@@ 726
د 726
س 726
澹 726
Bol@@ 725
pin@@ 725
蕴 725
顗 725
Am 724
Dark 724
MD@@ 724
Take 724
晞 724
1.6@@ 723
527 723
Bar 723
GSM 723
LIN@@ 723
pi 723
yo 723
喂@@ 723
齦 723
Aer@@ 722
Lim@@ 722
OM 722
RB 722
icum 722
戟@@ 722
賠 722
餌 722
1575 721
Level 721
Mand@@ 721
app 721
ori 721
vo@@ 721
ζ 721
尻 721
炙@@ 721
荠 721
钉@@ 721
鹊 721
1555 720
1659 720
576 720
Interactive 720
掺@@ 720
隧 720
Cross 719
Department 719
char 719
セ 719
儸 719
捻 719
湟@@ 719
疼 719
鍍 719
Information 718
Py@@ 718
ational 718
pa@@ 718
蘋 718
颌 718
Ace 717
Kor@@ 717
via 717
啮@@ 717
嘯@@ 717
骥 717
Access 716
Count@@ 716
PN@@ 716
ado@@ 716
ae@@ 716
sis 716
暈@@ 716
様 716
燁 716
1540 715
Din@@ 715
Jane 715
Ken 715
PCI 715
ond@@ 715
vel@@ 715
µ 715
亢 715
薊@@ 715
1632 714
And 714
Fair@@ 714
ites 714
nam@@ 714
rot@@ 714
恃 714
捣@@ 714
滸@@ 714
璨 714
鈺@@ 714
1733 713
438 713
Bou@@ 713
Zone 713
itz 713
nig@@ 713
tem@@ 713
俐 713
癸 713
1639 712
521 712
717 712
air@@ 712
yg@@ 712
俭@@ 712
1.9@@ 711
498 711
544 711
Ari@@ 711
Kiss 711
Sab@@ 711
ui 711
using 711
瘡 711
祜@@ 711
鷺@@ 711
1652 710
421 710
Davis 710
Good@@ 710
Sport 710
ink 710
oro 710
壬 710
沭@@ 710
漿@@ 710
燮@@ 710
瞄 710
诲 710
鱧 710
0.0 709
1664 709
635 709
Bet@@ 709
cat@@ 709
ʁ 709
嬪@@ 709
晟@@ 709
獺 709
羲@@ 709
颊 709
1594 708
France 708
Map@@ 708
作曲@@ 708
哮@@ 708
垩@@ 708
涇@@ 708
1728 707
Pul@@ 707
sor@@ 707
琐 707
迂 707
邢 707
锚 707
驍@@ 707
By@@ 706
Oh 706
PF 706
PHP 706
Prim@@ 706
Women 706
ine@@ 706
犍 706
肽@@ 706
1684 705
Anthony 705
Base 705
Juan 705
Unit 705
ves 705
恳@@ 705
陇 705
1584 704
629 704
704 704
匐 704
妒@@ 704
痘 704
絶 704
羔@@ 704
豎 704
鄙 704
釷 704
钼 704
镛 704
Elizabeth 703
Human 703
UD 703
been 703
love 703
嚕 703
缆@@ 703
526 702
587 702
656 702
Bio@@ 702
Lewis 702
osus 702
忏@@ 702
痺 702
衅 702
1654 701
1725 701
464 701
559 701
Committee 701
Health 701
Rev@@ 701
eria 701
偃 701
娄 701
屡 701
蒯@@ 701
蜡 701
閏@@ 701
鰲 701
Ren@@ 700
esis 700
hin@@ 700
win 700
綦@@ 700
萸 700
饿@@ 700
Prix 699
Vel@@ 699
tw@@ 699
val 699
恺@@ 699
撐@@ 699
1655 698
1713 698
Computer 698
Spir@@ 698
live 698
Б 698
淅@@ 698
漬 698
471 697
Ay@@ 697
Jay 697
Tech@@ 697
UFO 697
旻@@ 697
罩@@ 697
437 696
483 696
488 696
Hyper@@ 696
Mik@@ 696
Nu@@ 696
栽 696
糙@@ 696
胭@@ 696
562 695
Spot@@ 695
Theatre 695
匍@@ 695
悄 695
柵 695
汙 695
汰 695
淖@@ 695
辻@@ 695
1350 694
447 694
448 694
712 694
Tran@@ 694
ial 694
ux 694
х 694
胪 694
茗 694
1050 693
446 693
Kat@@ 693
ify 693
space 693
婕 693
恙 693
瘟 693
1721 692
461 692
965 692
Anna 692
Christopher 692
Division 692
Rom@@ 692
U23 692
Wh@@ 692
ective 692
shell 692
嘅 692
媚@@ 692
烂@@ 692
迄 692
钰 692
鳍@@ 692
Den@@ 691
dec@@ 691
uma 691
槛 691
浒@@ 691
熾@@ 691
543 690
572 690
ARC 690
L2 690
LV@@ 690
Standard 690
des@@ 690
汛@@ 690
痰 690
竿@@ 690
茫@@ 690
鈸 690
1080 689
Board 689
Hay@@ 689
ert 689
opo@@ 689
壺@@ 689
渭 689
珅 689
璠 689
盏 689
砵 689
铋 689
麓@@ 689
681 688
685 688
HMS 688
Philip 688
Wiki 688
je 688
wh@@ 688
峠 688
漩 688
玫 688
642 687
975 687
Jo 687
NY 687
ici@@ 687
score 687
婕@@ 687
恤@@ 687
沅 687
示威@@ 687
荀 687
1707 686
1761 686
Blu@@ 686
Imag@@ 686
Pad@@ 686
act@@ 686
ais 686
侗 686
铊 686
锗 686
1638 685
434 685
482 685
Mount 685
Sea 685
ami@@ 685
parent 685
thr@@ 685
wan 685
互联@@ 685
1754 684
469 684
Raw 684
bas@@ 684
咄@@ 684
尴@@ 684
峴 684
溉@@ 684
滬 684
澗 684
582 683
Wood@@ 683
冉 683
潇@@ 683
窪@@ 683
ox@@ 682
reg@@ 682
瓣@@ 682
輻 682
铨 682
靺 682
496 681
orn 681
uri 681
苴 681
478 680
Miller 680
PH 680
Ze@@ 680
html 680
igh@@ 680
乍 680
1766 679
616 679
next 679
ron 679
Ⅲ 679
嗪 679
嵯@@ 679
掖@@ 679
eth@@ 678
熹@@ 678
瑣@@ 678
1260 677
Stone 677
aa 677
gar@@ 677
han 677
iri 677
ste@@ 677
water 677
榈 677
瀾@@ 677
盞 677
鐳 677
陲 677
Roger 676
pres@@ 676
俺 676
802.@@ 675
Band@@ 675
Gaga 675
ISS 675
Kam@@ 675
VHS 675
book 675
ネ 675
揣@@ 675
榈@@ 675
郢@@ 675
頗@@ 675
1751 674
1753 674
467 674
CB@@ 674
Loc@@ 674
Wa@@ 674
ago 674
bs 674
ogo 674
灑@@ 674
缸@@ 674
駒@@ 674
487 673
638 673
NA@@ 673
NY@@ 673
Part 673
Rot@@ 673
alan 673
娼 673
闫@@ 673
鞨 673
鱺 673
542 672
FP@@ 672
How 672
Pascal 672
Wat@@ 672
after 672
thi@@ 672
栋@@ 672
皺 672
祜 672
酌@@ 672
鈣@@ 672
Paris 671
Pic@@ 671
amm@@ 671
sw@@ 671
偈 671
眺 671
窪 671
笹@@ 671
荻@@ 671
萤@@ 671
1466 670
1561 670
429 670
AU@@ 670
Hans 670
Maj@@ 670
Pit@@ 670
oll@@ 670
彪@@ 670
1587 669
1729 669
Da 669
ibn 669
tier 669
wal@@ 669
勺 669
啡 669
臧 669
荔 669
鰺 669
1690 668
EB@@ 668
bis 668
height 668
澧@@ 668
Fri@@ 667
Lar@@ 667
Nar@@ 667
Over 667
Pon@@ 667
tional 667
颓@@ 667
駙@@ 667
1460 666
449 666
718 666
Dynam@@ 666
UMP 666
kin@@ 666
mus@@ 666
used 666
Н 666
啞@@ 666
槽@@ 666
酶@@ 666
514 665
539 665
rec@@ 665
俏@@ 665
啼@@ 665
炽@@ 665
珞@@ 665
盱@@ 665
阇 665
馭 665
1520 664
CIA 664
From 664
Matt 664
Sand@@ 664
Tech 664
偵 664
嘲 664
墻 664
慨@@ 664
栱 664
烙@@ 664
鍍@@ 664
Garden 663
Pel@@ 663
acy 663
炬@@ 663
蘚@@ 663
112@@ 662
1658 662
441 662
Allen 662
anum 662
eh 662
幀 662
皱 662
钧@@ 662
Bug@@ 661
Dur@@ 661
Log@@ 661
Pay@@ 661
SQ@@ 661
enger 661
nh@@ 661
qui@@ 661
ulus 661
zo 661
嵴 661
榘 661
炙 661
鑼 661
1492 660
768 660
Ka 660
RCA 660
TR 660
acc@@ 660
alb@@ 660
ket@@ 660
uck 660
世界大战 660
亟@@ 660
沐 660
瘠 660
绰 660
荖 660
菓 660
蝗 660
1478 659
BK 659
Enterprise 659
SB@@ 659
Virtual 659
ature 659
eter 659
ols 659
玠 659
骤@@ 659
1150 658
1530 658
484 658
Rus@@ 658
ants 658
cus 658
poly@@ 658
亢@@ 658
昱@@ 658
灿 658
Jan 657
ship 657
炜 657
hop 656
iga 656
怜@@ 656
珏 656
羥@@ 656
鸫 656
1453 655
1522 655
1525 655
463 655
Common 655
Ky@@ 655
Re 655
ots 655
壇@@ 655
専 655
揀 655
癇 655
瞩@@ 655
蟒@@ 655
Days 654
1532 653
Fox 653
Ing@@ 653
Ry@@ 653
垩 653
奭 653
焜 653
1685 652
Big@@ 652
cos@@ 652
dan 652
eck 652
view 652
醃 652
Antonio 651
CY@@ 651
Gold 651
Hit 651
TNT 651
嬴@@ 651
盪@@ 651
饼@@ 651
1576 650
595 650
Chan 650
Fantasy 650
Nam@@ 650
Tree 650
af 650
ih@@ 650
熒@@ 650
491 649
609 649
Francisco 649
Rue 649
span 649
string 649
佥 649
樱 649
魷@@ 649
Ali@@ 648
Coc@@ 648
aff@@ 648
service 648
who 648
塭 648
恿 648
苻@@ 648
鲈 648
1469 647
667 647
Howard 647
RO 647
most 647
ァ 647
冪 647
瀘@@ 647
猾 647
琶@@ 647
薈@@ 647
1524 646
mas@@ 646
洮 646
茸 646
饵 646
1732 645
Г 645
і 645
ほ 645
筷@@ 645
蟑@@ 645
474 644
661 644
ISC 644
UF@@ 644
sol@@ 644
Ω 644
襯 644
1641 643
775 643
Sym@@ 643
囤@@ 643
怯 643
柝@@ 643
檜@@ 643
禺@@ 643
窺@@ 643
笨 643
蝨 643
1593 642
477 642
Mega 642
illy 642
sp 642
tre 642
worth 642
珲@@ 642
蒼 642
豈@@ 642
鸮 642
641 641
Anne 641
UV 641
Whit@@ 641
life 641
吓@@ 641
滔@@ 641
澎 641
蹦@@ 641
1614 640
Carlos 640
Hen@@ 640
Rab@@ 640
Rel@@ 640
tz 640
Σ 640
1581 639
Hil@@ 639
Roc@@ 639
SG@@ 639
Victoria 639
thumb 639
澂 639
邾 639
1742 638
Bell 638
撑@@ 638
柬 638
矾 638
诣 638
辕 638
锚@@ 638
1731 637
Fran@@ 637
Kab@@ 637
Spec@@ 637
game 637
has@@ 637
庵@@ 637
惨 637
棻 637
瓏 637
窯@@ 637
覲 637
逞 637
陝 637
２ 637
1605 636
Court 636
Get 636
Premi@@ 636
sing 636
姥@@ 636
甬 636
矚 636
荪 636
Castle 635
RF 635
Style 635
Ven@@ 635
ays 635
И 635
弒 635
恬@@ 635
攪@@ 635
浬 635
Money 634
base 634
ふ 634
娱 634
Alfred 633
core 633
ml 633
ony 633
zer 633
า 633
禰 633
臀 633
ABA 632
Call 632
Multi@@ 632
pul@@ 632
墩@@ 632
搗@@ 632
聾@@ 632
頡@@ 632
Fire@@ 631
Med@@ 631
ag 631
ear@@ 631
tha 631
ute 631
黏 631
875 630
Gir@@ 630
out@@ 630
tel 630
å 630
慑 630
殡@@ 630
肼 630
譏@@ 630
邛@@ 630
醌 630
鏟 630
濛 629
酚@@ 629
魟 629
473 628
Ali 628
ani@@ 628
nes 628
呵@@ 628
扒 628
獗 628
蠡@@ 628
軔 628
1602 627
997 627
CH3@@ 627
MM@@ 627
Mid@@ 627
TI 627
Tu 627
version 627
ц 627
匀@@ 627
匮@@ 627
荻 627
1710 626
708 626
845 626
Cir@@ 626
Dave 626
Hand@@ 626
杠@@ 626
赔 626
鯤 626
1430 625
las 625
咆@@ 625
嶄 625
1666 624
481 624
652 624
996 624
Boys 624
Los 624
Program 624
bin 624
tle 624
吡 624
1501 623
1514 623
1718 623
Dan@@ 623
IG 623
Trav@@ 623
泓@@ 623
裨@@ 623
驥 623
1726 622
Ann@@ 622
Building 622
Var@@ 622
alism 622
ボ 622
俳@@ 622
娇 622
怕@@ 622
筵 622
葆 622
1673 621
1737 621
Action 621
Future 621
Plaza 621
fi@@ 621
gs 621
榛 621
蒨 621
邠 621
鵜@@ 621
1722 620
Ultra 620
eph@@ 620
湮@@ 620
甕 620
蠟 620
醛@@ 620
馱 620
1611 619
Gol@@ 619
Ho 619
Hon@@ 619
ide@@ 619
∞ 619
幂@@ 619
抛 619
盎 619
鸢@@ 619
1739 618
Blu 618
Cour@@ 618
adi 618
eum 618
ی 618
ケ 618
佰@@ 618
珮@@ 618
艮 618
蚵 618
訖 618
誨 618
躬@@ 618
Double 617
Gary 617
arch@@ 617
poem 617
umia 617
噻@@ 617
晰@@ 617
1496 616
1681 616
1747 616
HI 616
ones 616
î 616
О 616
丶 616
刈 616
坵 616
庑 616
柴油@@ 616
珣 616
珮 616
虏@@ 616
裤@@ 616
訶 616
1679 615
BN 615
Perf@@ 615
lon 615
卤 615
排名@@ 615
睇 615
莅@@ 615
鉞 615
驒 615
1653 614
1697 614
wiki 614
僖 614
癢 614
苍 614
蛸 614
袒 614
Fu@@ 613
IR 613
LF 613
Post 613
Security 613
age@@ 613
anga 613
free 613
part 613
very 613
won 613
敎 613
鄯@@ 613
驛@@ 613
魴 613
Card 612
Cli@@ 612
ams 612
bin@@ 612
mis@@ 612
寛 612
憐@@ 612
鵲 612
1519 611
Da@@ 611
Down 611
Mem@@ 611
ND 611
Source 611
eno 611
ί 611
ा 611
撮@@ 611
笏 611
銨 611
969 610
Autom@@ 610
Liv@@ 610
Pod@@ 610
Tor 610
槓 610
猕@@ 610
莅 610
蛺 610
閹@@ 610
1130 609
Basic 609
HL 609
Pass 609
Walker 609
itude 609
jpg 609
over@@ 609
拦 609
晦@@ 609
猥@@ 609
鄢@@ 609
1741 608
KC 608
Secret 608
estr@@ 608
uy@@ 608
uz@@ 608
缽 608
蕲@@ 608
錮 608
Engineering 607
Mill@@ 607
Son@@ 607
Wol@@ 607
hip 607
mp@@ 607
oli@@ 607
uv@@ 607
् 607
岂@@ 607
愫 607
玳@@ 607
绛@@ 607
谕@@ 607
1536 606
462 606
BO 606
Ye@@ 606
ects 606
ern@@ 606
flora 606
icken 606
yer 606
姥 606
懒@@ 606
1563 605
1665 605
Dy@@ 605
If 605
Kol@@ 605
粿 605
1454 604
Vision 604
Western 604
XL 604
under 604
楫 604
熾 604
稼 604
郝 604
鎧 604
馥@@ 604
Epic 603
Prime 603
瀰 603
1714 602
Anderson 602
CU 602
Dra@@ 602
aci@@ 602
kr@@ 602
place 602
ven@@ 602
zen 602
羡@@ 602
1380 601
843 601
Van@@ 601
nd@@ 601
see 601
start 601
儉@@ 601
卍 601
屹@@ 601
撻 601
枉@@ 601
榨 601
縊 601
1475 600
Color 600
NF 600
Sl@@ 600
een 600
sin 600
ă 600
1552 599
1657 599
1744 599
Dre@@ 599
Nintendo 599
media 599
ond 599
yu 599
憫 599
1709 598
976 598
Fan 598
Language 598
Men 598
Order 598
VIII 598
anna 598
some 598
聋@@ 598
邳@@ 598
郧@@ 598
鵑@@ 598
1280 597
1564 597
Hot@@ 597
Kelly 597
Mari@@ 597
Pictures 597
ender 597
ry@@ 597
state 597
yst@@ 597
洱@@ 597
浔@@ 597
灝 597
砚@@ 597
1579 596
Clark 596
Doc@@ 596
cli@@ 596
date 596
low@@ 596
oe 596
捏 596
楯 596
銮 596
Bom@@ 595
Johann 595
ect@@ 595
idi@@ 595
link 595
ties 595
梶@@ 595
爍 595
贱 595
闷 595
928 594
Championship 594
Nick 594
Poc@@ 594
蝕@@ 594
镕@@ 594
1672 593
1715 593
Hard@@ 593
Head 593
Lac@@ 593
Mo 593
anda 593
chen 593
double 593
ign@@ 593
壑 593
蝓 593
豈 593
驃 593
﹕ 593
Bra@@ 592
Jacques 592
Ti 592
anti 592
亏 592
晁@@ 592
闐 592
鴕@@ 592
Pass@@ 591
chrom@@ 591
fin@@ 591
hom@@ 591
music 591
xy 591
† 591
├ 591
匆 591
撮 591
櫟 591
紜 591
虢@@ 591
郃 591
Centr@@ 590
Nova 590
gi 590
japon@@ 590
桧 590
檳 590
漩@@ 590
緹 590
颤@@ 590
Airport 589
about 589
atan 589
cy@@ 589
dod@@ 589
onic 589
ush@@ 589
ع 589
怛 589
瑀 589
瓢@@ 589
絳 589
蝇@@ 589
1669 588
Field 588
Kit 588
bach 588
fa@@ 588
gre@@ 588
ji@@ 588
ш 588
噹 588
枚@@ 588
艘@@ 588
褪@@ 588
遁@@ 588
914 587
tin@@ 587
哗@@ 587
犍@@ 587
莘 587
蟎 587
錳 587
1699 586
Cit@@ 586
Eng@@ 586
Hi 586
` 586
alus 586
yan 586
ピ 586
悖 586
歿 586
綬@@ 586
蛞@@ 586
豚@@ 586
鯽 586
ARD 585
Rh@@ 585
based 585
ple 585
潁@@ 585
藐@@ 585
邇 585
锯 585
Bay@@ 584
Eg@@ 584
Mach@@ 584
Stand 584
Stor@@ 584
tan 584
umi 584
劈@@ 584
厨 584
洱 584
豊 584
贼@@ 584
1558 583
Andy 583
Jeff 583
aha 583
bo 583
endron 583
哮 583
錠 583
1481 582
ACP 582
Alph@@ 582
Lit@@ 582
Vit@@ 582
men@@ 582
県 582
賁 582
Alex@@ 581
Stars 581
True 581
ide 581
ɔ 581
ね 581
涝 581
齧 581
1675 580
Ross 580
Tru@@ 580
ś 580
愍@@ 580
秽 580
鵙 580
黒 580
1527 579
Donald 579
Johnny 579
met@@ 579
ò 579
剽@@ 579
藓@@ 579
陋@@ 579
aca 578
elia 578
high 578
ت 578
啄 578
嫣 578
蹲 578
阆@@ 578
1510 577
Arg@@ 577
Classic 577
Vil@@ 577
hal@@ 577
­ 577
燬 577
Dal@@ 576
aba 576
ave 576
む 576
燾 576
瑯@@ 576
篙 576
鹫 576
Advanced 575
Clo@@ 575
Five 575
Gun@@ 575
Ken@@ 575
Word 575
ker@@ 575
pat@@ 575
song 575
傈@@ 575
孖 575
瓯@@ 575
鯖 575
0000@@ 574
Lang@@ 574
Sak@@ 574
Sir@@ 574
VIP 574
XIII 574
ald 574
film 574
ods 574
true 574
uta 574
wo@@ 574
would 574
婢@@ 574
爨 574
龈 574
1749 573
Arch@@ 573
Long@@ 573
Matthew 573
Three 573
WB 573
bel@@ 573
gh@@ 573
hor@@ 573
jo 573
oria 573
枯 573
氚 573
814 572
AZ 572
Bruce 572
EB 572
Mis@@ 572
bili@@ 572
emb@@ 572
wer 572
ð 572
晒@@ 572
筠@@ 572
1734 571
Bot@@ 571
RN 571
Sau@@ 571
Wonder@@ 571
station 571
唁 571
槎 571
瓒 571
痒 571
繆 571
諺 571
CH2@@ 570
Ni 570
Wong 570
Zi@@ 570
edi@@ 570
lang 570
pro 570
儼@@ 570
旬@@ 570
煊 570
癫@@ 570
秃 570
覓@@ 570
1542 569
Gordon 569
Wild 569
je@@ 569
mes 569
sive 569
倻 569
Kot@@ 568
Review 568
Sup@@ 568
awa 568
district 568
ying 568
拯 568
煇 568
軫 568
麋@@ 568
Benjamin 567
Dig@@ 567
Pter@@ 567
eu@@ 567
there 567
ぶ 567
彊 567
辙 567
1738 566
Dun@@ 566
Jac@@ 566
String 566
ild 566
stone 566
凑@@ 566
睪 566
蝉 566
赚 566
魅 566
鸳@@ 566
August 565
Mountain 565
ages 565
board 565
kHz 565
sk 565
tis@@ 565
vin 565
匱@@ 565
妞 565
暐 565
矽 565
Jar@@ 564
Mail 564
Republic 564
WD 564
isi@@ 564
m2 564
ulata 564
yan@@ 564
ร 564
卞 564
坠 564
殴 564
烨 564
聶 564
2050 563
Creek 563
Score 563
bit@@ 563
沸 563
瘍 563
蹈 563
ACT 562
Delta 562
Hospital 562
ante 562
isti@@ 562
ph 562
俶 562
朽@@ 562
萎 562
萼@@ 562
1746 561
More 561
Tab@@ 561
Velvet 561
ku 561
three 561
骧 561
鲀 561
龢 561
1516 560
1537 560
Max@@ 560
Run 560
Tap@@ 560
count 560
ew@@ 560
tree 560
蝌@@ 560
1506 559
Fort 559
Transport 559
enn@@ 559
example 559
otr@@ 559
窺 559
薦@@ 559
邳 559
鴦 559
1499 558
1687 558
Jonathan 558
Produc@@ 558
Saf@@ 558
han@@ 558
kl@@ 558
tion@@ 558
愧@@ 558
緞 558
31@@ 557
Ann 557
Boy@@ 557
Car 557
Kel@@ 557
boy 557
child 557
dh@@ 557
lower 557
news 557
test 557
urs 557
乖 557
咳 557
惰 557
阯 557
Has@@ 556
Only 556
Triple 556
idea 556
istr@@ 556
tim@@ 556
癬 556
睽@@ 556
箴@@ 556
Alliance 555
Bag@@ 555
Clar@@ 555
Hap@@ 555
拙@@ 555
覬@@ 555
諒@@ 555
锭 555
1599 554
Camp@@ 554
Commission 554
ete 554
kw@@ 554
哑@@ 554
怠 554
违 554
閭 554
顒 554
驤 554
1566 553
Formation 553
ISE 553
Kw@@ 553
pp 553
墀 553
揉@@ 553
蜚@@ 553
袍@@ 553
鉢 553
＞ 553
Key@@ 552
Kingdom 552
Temple 552
eti@@ 552
ision 552
י 552
ソ 552
檄@@ 552
淄 552
谎 552
韬@@ 552
1528 551
1712 551
Lind@@ 551
Metal 551
Utr@@ 551
law 551
oon 551
傣 551
蠍 551
錡 551
1512 550
1674 550
Chart 550
Git@@ 550
Soft 550
TH 550
she 550
syn@@ 550
▲ 550
ゲ 550
疱@@ 550
蝨@@ 550
餡 550
1717 549
Arena 549
Cat 549
Our 549
Seven 549
SmackDown 549
Wit@@ 549
dow 549
ough 549
涕 549
潑@@ 549
輒 549
鉗 549
閨@@ 549
1656 548
ICA@@ 548
alia 548
archi@@ 548
second 548
vers 548
嬴 548
氪 548
籽@@ 548
胤@@ 548
蹇 548
韭@@ 548
1371 547
Carex 547
GG 547
RM 547
Stop 547
Wright 547
XX@@ 547
vo 547
ゴ 547
嗆 547
磊@@ 547
箴 547
纺 547
1702 546
Dam@@ 546
Mission 546
Solo 546
Storm 546
TT 546
ein@@ 546
ner@@ 546
orus 546
static 546
your 546
ポ 546
奢 546
渺@@ 546
蓁 546
蚯@@ 546
觐 546
阈@@ 546
隗@@ 546
韌 546
鳌@@ 546
Mam@@ 545
Wilhelm 545
by@@ 545
cho@@ 545
娇@@ 545
弭 545
怯@@ 545
晝 545
曇@@ 545
曖@@ 545
杖@@ 545
1703 544
Audio 544
Stu@@ 544
V6 544
ザ 544
儋@@ 544
晕@@ 544
疮 544
蓓 544
蕊@@ 544
觅@@ 544
軋 544
铰@@ 544
Macintosh 543
Side 543
nia 543
棗@@ 543
氈 543
Champion 542
Les@@ 542
Modern 542
Second 542
inf@@ 542
okie 542
燼 542
玮 542
锷 542
Canada 541
Elec@@ 541
Mun@@ 541
中海 541
挚@@ 541
挨 541
歩 541
澧 541
瞎@@ 541
靚@@ 541
Sul@@ 540
ust@@ 540
唆@@ 540
濠@@ 540
粽@@ 540
藕 540
蹂@@ 540
through 539
thus 539
掣@@ 539
琢@@ 539
锟 539
Creative 538
God@@ 538
Top@@ 538
ann 538
egr@@ 538
ei@@ 538
fri@@ 538
rol@@ 538
work 538
斟@@ 538
橐 538
洺 538
涓 538
箍 538
羯@@ 538
醜 538
雒@@ 538
1546 537
1668 537
Infin@@ 537
Laur@@ 537
Medical 537
Pun@@ 537
Thi@@ 537
eil@@ 537
fly 537
僞 537
嚐 537
烁 537
餾 537
1180 536
Douglas 536
Lib@@ 536
bol@@ 536
rit@@ 536
unds 536
ˋ 536
妨 536
搗 536
樽@@ 536
炽 536
糠 536
蚪 536
鄔@@ 536
Est@@ 535
Jimmy 535
Pil@@ 535
She 535
Turbo 535
WM 535
Watch 535
When 535
ks@@ 535
滎@@ 535
竖 535
郯@@ 535
1220 534
129@@ 534
絆 534
莿 534
阎 534
霏 534
鱔 534
1472 533
1504 533
Productions 533
Sac@@ 533
aker 533
people 533
曷 533
煲 533
琏 533
脲 533
鮪 533
1596 532
Lab 532
Moore 532
Singapore 532
aus 532
lan 532
ogr@@ 532
咁 532
徭@@ 532
蠔@@ 532
Kas@@ 531
PCR 531
Po 531
琢 531
膾 531
鑾@@ 531
HQ 530
Khan 530
Sher@@ 530
Sum@@ 530
acid 530
eli 530
when 530
∈ 530
ぐ 530
喷 530
1440 529
1534 529
1617 529
1711 529
VP 529
win@@ 529
劭@@ 529
蠣 529
鞘@@ 529
颢 529
駝@@ 529
1543 528
Army 528
Cul@@ 528
Kom@@ 528
any@@ 528
ements 528
enia 528
iz 528
lex 528
ses 528
玥 528
瑩@@ 528
謫 528
赭@@ 528
Bak@@ 527
FE@@ 527
Forever 527
秤@@ 527
蘋@@ 527
郓@@ 527
1557 526
1663 526
1719 526
Zen@@ 526
ef 526
index 526
啸@@ 526
汨@@ 526
溟 526
舶@@ 526
袜@@ 526
铍 526
雹 526
頹@@ 526
1507 525
Mind 525
Movie 525
Nak@@ 525
ais@@ 525
ord@@ 525
plus 525
ά 525
勗 525
殆 525
谛 525
阀@@ 525
1513 524
Florida 524
Frederick 524
Ian 524
Ng@@ 524
Sus@@ 524
each 524
flo@@ 524
former 524
oli 524
崂@@ 524
犢 524
Dat@@ 523
Der@@ 523
Que@@ 523
Rap 523
Work@@ 523
amin@@ 523
mit@@ 523
暠 523
耒@@ 523
詰 523
铮 523
頤@@ 523
1676 522
Ale@@ 522
Beat 522
CO2 522
Chen 522
Christmas 522
Energy 522
Pier@@ 522
Sa 522
Shop 522
Spring 522
Vic@@ 522
aea 522
var@@ 522
≥ 522
宕@@ 522
糜@@ 522
Bos@@ 521
Ny@@ 521
cal 521
entr@@ 521
qu 521
ws 521
０ 521
Asian 520
Gold@@ 520
latitude 520
勰 520
嘆@@ 520
爰 520
瞬 520
竞 520
褻 520
鈷 520
Beach 519
FP 519
Index 519
Pet@@ 519
otus 519
碗@@ 519
稹 519
繭 519
讫 519
跖@@ 519
躁@@ 519
逗 519
Never 518
Nik@@ 518
Russell 518
Silver 518
Som@@ 518
bes 518
level 518
へ 518
燉 518
痹 518
粪 518
蒿@@ 518
诃@@ 518
chu 517
err@@ 517
lip 517
淩 517
絢@@ 517
縉 517
録 517
陡 517
1682 516
March 516
Ware 516
ches 516
etti 516
mini 516
疃 516
铬@@ 516
鬃@@ 516
1270 515
1608 515
Factory 515
Fly 515
KG 515
amer 515
ges 515
ities 515
press 515
喱 515
朐 515
洒@@ 515
灝@@ 515
蛻@@ 515
鶘 515
麝 515
IB 514
UFC 514
duc@@ 514
edia 514
power 514
潢@@ 514
砜 514
1204 513
GR 513
Lost 513
Set 513
acker 513
burg 513
emp@@ 513
eth 513
囂 513
塱 513
隅@@ 513
靡@@ 513
骅 513
----@@ 512
1692 512
1705 512
AH@@ 512
Bri@@ 512
Lap@@ 512
Ober@@ 512
Palazzo 512
Water 512
ame@@ 512
uni@@ 512
孃 512
帘@@ 512
柬埔@@ 512
瀑 512
疹@@ 512
靛 512
鳗 512
1549 511
1743 511
Again 511
Ca 511
Fir@@ 511
Fun@@ 511
Perfect 511
fu@@ 511
ister 511
nor@@ 511
odi@@ 511
rent 511
tern@@ 511
χ 511
獼@@ 511
鈹 511
1704 510
Sing@@ 510
ains 510
home 510
ier@@ 510
imb@@ 510
厩 510
揉 510
暄 510
碓 510
芩 510
蚺 510
誇 510
赌 510
辎@@ 510
閤 510
1464 509
Deep 509
Ring 509
Sarah 509
Say 509
ZA 509
agr@@ 509
ments 509
ベ 509
娼@@ 509
枉 509
竣 509
1470 508
159@@ 508
afe 508
aqu@@ 508
fa 508
lamb@@ 508
opus 508
top@@ 508
晩 508
沢 508
眩@@ 508
虜@@ 508
輋 508
Fro@@ 507
asi 507
city 507
series 507
soft 507
tal@@ 507
甩 507
簪 507
谟@@ 507
Pink 506
Scr@@ 506
album 506
mil@@ 506
til@@ 506
® 506
徳 506
昉 506
樵@@ 506
氡 506
沮 506
溼@@ 506
痫 506
AMC 505
Eff@@ 505
andra 505
berry 505
may 505
such 505
△ 505
愁@@ 505
捞@@ 505
橈 505
潦@@ 505
濮 505
筊 505
钠@@ 505
Under@@ 504
ope 504
wer@@ 504
ギ 504
们@@ 504
儡@@ 504
柚 504
聳@@ 504
菖@@ 504
龚 504
1554 503
1694 503
Every@@ 503
aun@@ 503
咯 503
恍@@ 503
氘 503
猬 503
胀@@ 503
钛@@ 503
Meth@@ 502
della 502
him 502
plic@@ 502
school 502
朮 502
樺@@ 502
痊@@ 502
耸@@ 502
At 501
Beautiful 501
Billy 501
Lou@@ 501
Machine 501
Oliver 501
One@@ 501
Technologies 501
format 501
蝮@@ 501
覦 501
鲱 501
1451 500
Aur@@ 500
Europe 500
Vent@@ 500
ait 500
show 500
wi@@ 500
Á 500
蟆 500
軛 500
骸@@ 500
Steven 499
esti@@ 499
file 499
works 499
凪 499
莢 499
锈 499
闢@@ 499
1515 498
Giovanni 498
band 498
び 498
嶷 498
甌 498
砥@@ 498
篩 498
羽毛@@ 498
隣 498
1275 497
1678 497
Hir@@ 497
Pie 497
There 497
Universal 497
iller 497
super@@ 497
year 497
½ 497
妍@@ 497
鱉 497
Yu@@ 496
channel 496
ext@@ 496
ό 496
ヤ 496
恼@@ 496
憚 496
捩@@ 496
疤@@ 496
竑 496
鰓@@ 496
1716 495
Cru@@ 495
Hum@@ 495
Sweet 495
Wave 495
Yes 495
ango 495
away 495
order 495
result 495
ˊ 495
伉@@ 495
冑 495
擋@@ 495
汜 495
玷@@ 495
窜 495
腌@@ 495
鳐 495
Ass@@ 494
FIA 494
Lanc@@ 494
圜 494
撼@@ 494
滷 494
漂 494
阗 494
鴛@@ 494
1382 493
Studies 493
Ten@@ 493
bird 493
cel@@ 493
ple@@ 493
talk 493
ه 493
淖 493
甥@@ 493
苇@@ 493
178@@ 492
CAD 492
Michel 492
Mode 492
Scar@@ 492
Um@@ 492
ather 492
major 492
own 492
tom 492
trol@@ 492
ぎ 492
坻@@ 492
寥 492
巩 492
疤 492
萘 492
觐@@ 492
Flo@@ 491
Friends 491
Tokyo 491
ther 491
屁 491
瞎 491
紇 491
諫@@ 491
賬 491
钕 491
钝@@ 491
1420 490
Daily 490
Ec@@ 490
Thompson 490
family 490
rie 490
sec@@ 490
sole 490
旷 490
訛 490
訢 490
譙 490
醞@@ 490
1185 489
Kill 489
Maz@@ 489
Real@@ 489
pur 489
櫥 489
燙 489
窥@@ 489
1696 488
Bru@@ 488
CBC 488
Orange 488
illi@@ 488
nom@@ 488
ont 488
廨 488
皋@@ 488
簾@@ 488
荐@@ 488
銫 488
Aqu@@ 487
Bun@@ 487
Eth@@ 487
Grace 487
Justin 487
Law@@ 487
Sailor 487
icon 487
mot@@ 487
ont@@ 487
trop@@ 487
war 487
揄 487
琇 487
筵@@ 487
飙@@ 487
鳶 487
FI 486
Tol@@ 486
ands 486
car 486
length 486
sea 486
疲 486
谚@@ 486
谬@@ 486
赟 486
Conference 485
England 485
Gran@@ 485
Hyp@@ 485
Number 485
ecraft 485
咕 485
嗚 485
挽 485
畑 485
祟 485
耙 485
蚶 485
褚 485
贅 485
1415 484
Dav@@ 484
Dead 484
Ever@@ 484
Rain 484
XI 484
off@@ 484
root 484
zone 484
ペ 484
俏 484
傕 484
攣 484
朦@@ 484
珲 484
瑯 484
缙@@ 484
High@@ 483
IST@@ 483
JP 483
Single 483
anger 483
object 483
page 483
set@@ 483
umb@@ 483
棧@@ 483
韧 483
鰨@@ 483
1691 482
Area 482
Cot@@ 482
Fel@@ 482
Jam@@ 482
Lin 482
Mar 482
Mathemati@@ 482
Plan 482
eni 482
oke 482
र 482
諭@@ 482
1548 481
Alabama 481
Math@@ 481
Ob@@ 481
Seg@@ 481
oy 481
ston 481
uti@@ 481
棗 481
炅 481
璀@@ 481
鶇 481
＊ 481
1390 480
1706 480
ABS 480
Nature 480
Roman 480
aye 480
ces 480
da@@ 480
fish 480
plat@@ 480
豺@@ 480
鼱 480
1693 479
Bad@@ 479
Guy 479
Lawrence 479
control 479
culus 479
ering 479
ista 479
itor 479
san@@ 479
ull 479
ž 479
挟@@ 479
檄 479
笠@@ 479
覃 479
1498 478
Cou@@ 478
Luis 478
Television 478
Tem@@ 478
cop@@ 478
pil@@ 478
ו 478
扛 478
蜢 478
鎢 478
钋 478
鯔 478
鶲 478
｜ 478
1480 477
Low 477
Lun@@ 477
Monster 477
Riv@@ 477
Vincent 477
ards 477
iti 477
multi@@ 477
仡@@ 477
玘 477
痢@@ 477
蠢@@ 477
鈞@@ 477
1340 476
1531 476
Brothers 476
See 476
Sid@@ 476
mus 476
round 476
ş 476
悯 476
鮎@@ 476
默德 476
1330 475
1686 475
Anti@@ 475
Cent@@ 475
Washington 475
ben@@ 475
俨 475
晗 475
炊@@ 475
窿 475
鄜 475
镠 475
镭 475
1234 474
1433 474
Joy 474
azza 474
cs 474
enberg 474
勣 474
孪@@ 474
1533 473
Chin@@ 473
Jordan 473
Lan@@ 473
Lem@@ 473
Num@@ 473
́ 473
1240 472
DN@@ 472
Ford 472
cat 472
load 472
sum 472
睫@@ 472
锆 472
闾@@ 472
Death 471
Ev@@ 471
Hur@@ 471
NK 471
Version 471
amo@@ 471
ded 471
lu 471
uf@@ 471
Л 471
箐 471
蔴 471
3rd 470
Day@@ 470
Memorial 470
Nag@@ 470
Tin@@ 470
Urban 470
Work 470
ector 470
eller 470
fol@@ 470
heim 470
阙@@ 470
1435 469
1551 469
Ah@@ 469
Call@@ 469
Chrom@@ 469
Heart@@ 469
Int@@ 469
Radi@@ 469
Revolution 469
Songs 469
Spar@@ 469
eless 469
enne 469
good 469
mon 469
osis 469
wing 469
铟 469
锣@@ 469
Bil@@ 468
Face 468
Se 468
Tit@@ 468
ark@@ 468
esp@@ 468
loop 468
method 468
minor 468
↔ 468
镧 468
1279 467
1708 467
Fac@@ 467
ache 467
arius 467
nic@@ 467
sch 467
ヒ 467
啞 467
斯洛伐@@ 467
钵@@ 467
1392 466
1404 466
Gas@@ 466
Hunter 466
LAN 466
Mb@@ 466
Peace 466
between 466
lers 466
na@@ 466
ogen@@ 466
rey 466
丟 466
锶 466
Bud@@ 465
Dou@@ 465
Graham 465
Sou@@ 465
gon 465
templ@@ 465
囑@@ 465
寔 465
揖 465
芪 465
銹@@ 465
1385 464
1695 464
Album 464
Hope 464
Phil 464
Robinson 464
cho 464
illus 464
tre@@ 464
咱@@ 464
拚 464
泫 464
鉻@@ 464
＜ 464
Charlie 463
Franz 463
Green@@ 463
abr@@ 463
ades 463
ư 463
喂 463
滄 463
発 463
舂 463
钗 463
闺@@ 463
Community 462
DJ@@ 462
IATA 462
Jacob 462
Jet 462
Ric@@ 462
array 462
ign 462
ime 462
mph 462
polis 462
ports 462
verse 462
vic@@ 462
叱 462
塬 462
摻@@ 462
熏 462
聳 462
蛄 462
谘@@ 462
遏 462
騫 462
1320 461
Apo@@ 461
Lol@@ 461
Moh@@ 461
Right 461
eb 461
gic 461
mb@@ 461
rel@@ 461
ˈ 461
弈@@ 461
惩 461
橡 461
淦@@ 461
灏 461
畈 461
篷@@ 461
藨 461
钺 461
雉@@ 461
1509 460
Pav@@ 460
ump 460
ures 460
ː 460
愔 460
漓@@ 460
釵 460
锌@@ 460
1066 459
1539 459
Def@@ 459
Lat@@ 459
Pep@@ 459
Sof@@ 459
ean 459
four 459
macro@@ 459
mod@@ 459
吶@@ 459
岬@@ 459
戊 459
葦@@ 459
飆 459
Cab@@ 458
Ice 458
KM 458
Sph@@ 458
ando 458
cel 458
plication 458
tube 458
儷 458
悶@@ 458
摹@@ 458
綝 458
驢 458
鷲@@ 458
Ed 457
Fres@@ 457
Ret@@ 457
Swe@@ 457
call 457
kings 457
omo 457
onn@@ 457
them 457
喔 457
礎 457
肱 457
脛@@ 457
芷 457
荳 457
贲 457
镌@@ 457
4x@@ 456
Age 456
French 456
Full 456
Harris 456
Mut@@ 456
Norman 456
Southern 456
dei 456
edo 456
傍 456
棣@@ 456
殮 456
涤@@ 456
簋 456
袂 456
躯 456
铠@@ 456
３ 456
Bau@@ 455
Change 455
DH 455
Generation 455
Margaret 455
Ner@@ 455
Patr@@ 455
Rod@@ 455
lac@@ 455
node 455
哌@@ 455
埴 455
嬤 455
廸 455
摯 455
汎 455
煒@@ 455
铿 455
MiG 454
OC 454
Word@@ 454
慤 454
扒@@ 454
毙@@ 454
濺 454
蝟 454
銬 454
Original 453
Pack 453
Roy 453
imi 453
iner 453
ony@@ 453
urn@@ 453
vin@@ 453
峦 453
祆 453
綑 453
膊 453
菇@@ 453
菰 453
菲律@@ 453
CAR 452
Kap@@ 452
aire 452
mm@@ 452
冢@@ 452
剔 452
嘩@@ 452
笞 452
蔥@@ 452
阉@@ 452
By 451
Four 451
Search 451
tors 451
ས 451
惶 451
瑣 451
蓟 451
钳@@ 451
铀@@ 451
fre@@ 450
sum@@ 450
Đ 450
绶@@ 450
1356 449
Thor@@ 449
ball 449
lard 449
look 449
radi@@ 449
Ö 449
ù 449
扯@@ 449
曰@@ 449
榛@@ 449
皎 449
蜑 449
酝@@ 449
骡@@ 449
Campbell 448
Equ@@ 448
FK 448
Graph@@ 448
Here 448
Partners 448
Phyl@@ 448
Vas@@ 448
aj 448
astr@@ 448
break 448
din 448
team 448
榎 448
珙 448
繽@@ 448
衬 448
袱 448
Ach@@ 447
Active 447
Kil@@ 447
Lag@@ 447
Leg@@ 447
Room 447
beta 447
big 447
longi@@ 447
osp@@ 447
惋@@ 447
揶@@ 447
芾 447
钍 447
1360 446
1388 446
Cav@@ 446
GmbH 446
asp@@ 446
ceph@@ 446
戾 446
挟 446
礪 446
鞠 446
Exchange 445
FR@@ 445
Fron@@ 445
abe 445
equ@@ 445
ider 445
mode 445
拽 445
曄 445
渍 445
薙 445
譁 445
鏢@@ 445
飭 445
1170 444
1677 444
Bow@@ 444
Tik@@ 444
other@@ 444
û 444
ж 444
刃@@ 444
嘢 444
涞@@ 444
瀟@@ 444
痙@@ 444
藁@@ 444
驭 444
Bang 443
Wing 443
agu@@ 443
aud 443
dus 443
ges@@ 443
wa@@ 443
吒@@ 443
毯@@ 443
獠@@ 443
粽 443
胛@@ 443
裟 443
顔 443
鲑 443
鹟 443
鹬 443
Crystal 442
ESA 442
Leon 442
Mars 442
Trich@@ 442
Trust 442
auer 442
bot 442
river 442
徠 442
腮@@ 442
袤 442
1494 441
Dean 441
Elev@@ 441
Gate 441
Government 441
Morning 441
Off 441
Princess 441
Te 441
Test 441
Way@@ 441
Youth 441
gia 441
gun 441
oper@@ 441
phus 441
臍 441
薈 441
蚩@@ 441
诋@@ 441
郤 441
霆@@ 441
1402 440
Books 440
Cus@@ 440
Hat@@ 440
Heinrich 440
Hop@@ 440
Major 440
Sciences 440
Tac@@ 440
They 440
Vice 440
Yan@@ 440
net@@ 440
ska 440
tii 440
吼@@ 440
堑 440
曳@@ 440
缨 440
蟀 440
1406 439
1671 439
Cher@@ 439
cis 439
oft 439
park 439
rt 439
铈 439
리 439
﹔ 439
Ax@@ 438
Korea 438
being 438
ize 438
lot 438
oud@@ 438
vit@@ 438
zy@@ 438
岙 438
枇@@ 438
楸 438
涤 438
翘@@ 438
辄 438
錕 438
钏 438
鸯 438
Australia 437
Mg@@ 437
chan 437
eva 437
lib@@ 437
ross 437
yth@@ 437
У 437
夙@@ 437
挹@@ 437
淘 437
萘@@ 437
锺@@ 437
馗 437
1190 436
Concert 436
DN 436
Legacy 436
Leo 436
MLB 436
Morgan 436
Page 436
Police 436
Sing 436
Smart 436
aver 436
flow 436
lit@@ 436
open 436
ski@@ 436
坻 436
増 436
擄@@ 436
皺@@ 436
绮 436
鳟 436
Beg@@ 435
Boss 435
Jon 435
Kenneth 435
chu@@ 435
ett@@ 435
hab@@ 435
onal 435
両 435
冏 435
宸@@ 435
屑@@ 435
嵙 435
謇 435
钮@@ 435
阡 435
Dic@@ 434
Ful@@ 434
Mart 434
Phil@@ 434
Planet 434
Wonder 434
eau 434
eman 434
language 434
made 434
ocy@@ 434
oud 434
ox 434
zy 434
吲@@ 434
哦 434
庠@@ 434
惣 434
氰 434
牯@@ 434
蓀 434
覲@@ 434
Ast@@ 433
Bran@@ 433
Il 433
Report 433
bye 433
dem@@ 433
gracilis 433
phone 433
ˇ 433
佺 433
沱 433
篝@@ 433
蝸 433
1230 432
1503 432
Beauty 432
Come 432
Soci@@ 432
agn@@ 432
hr 432
uni 432
瓮 432
蹲@@ 432
錒 432
雒 432
Ball 431
Hero 431
MCA 431
Memory 431
Pent@@ 431
Sto@@ 431
Trade 431
single 431
tron 431
佃 431
佢 431
浒 431
燎@@ 431
緋 431
诀 431
钾@@ 431
Arm@@ 430
Carolina 430
Grande 430
Rio 430
aku 430
ec 430
gan@@ 430
ij@@ 430
make 430
冇 430
祯@@ 430
靳 430
骞 430
＃ 430
Enter@@ 429
Fed@@ 429
Federation 429
Fred 429
Guide 429
Jer@@ 429
Wang 429
isi 429
mont 429
ï 429
忿@@ 429
桶@@ 429
溼 429
紘 429
蔵 429
鹊@@ 429
Baker 428
Child 428
Evolution 428
Sex@@ 428
Via 428
Writ@@ 428
kel 428
pic@@ 428
theory 428
ulation 428
咩 428
坨 428
滌 428
舯 428
貘 428
鞮 428
鼬@@ 428
Abu 427
Country 427
Culture 427
Larry 427
Pyr@@ 427
Sad@@ 427
Wanna 427
ads 427
bury 427
change 427
enth@@ 427
sam@@ 427
ʔ 427
垠 427
惱@@ 427
暘 427
硝 427
诩 427
Lic@@ 426
弑 426
掷@@ 426
攪 426
杷 426
蠶 426
鄲 426
1471 425
Cyc@@ 425
Lane 425
Otto 425
SNCF 425
SW 425
arm@@ 425
gn@@ 425
known 425
¹ 425
淪 425
Command 424
Empire 424
Lion 424
Promotion 424
Vor@@ 424
edr@@ 424
fe 424
ju@@ 424
odon@@ 424
oll 424
olo 424
proc@@ 424
thor@@ 424
unt 424
凄@@ 424
咖 424
磯@@ 424
缎 424
陟 424
1424 423
Hip 423
Indi@@ 423
Marc 423
Ron 423
ban@@ 423
inga 423
night 423
nu@@ 423
ret@@ 423
挾 423
盯@@ 423
缢 423
肘@@ 423
葶 423
铲 423
颉@@ 423
1070 422
1698 422
Con 422
Shell 422
Suite 422
Wall 422
ls 422
mol@@ 422
wn 422
喹@@ 422
巴基@@ 422
拗 422
挚 422
梆@@ 422
樫 422
禛 422
筛 422
膿@@ 422
鉻 422
Dennis 421
Eye 421
Hed@@ 421
Nas@@ 421
Petr@@ 421
Rainbow 421
aud@@ 421
mic@@ 421
ree 421
ric@@ 421
ń 421
哄@@ 421
哚 421
磘 421
Ah 420
Earl 420
Henri 420
Nan@@ 420
Pedi@@ 420
Pedro 420
Tommy 420
bat@@ 420
beat 420
but@@ 420
esia 420
horn 420
ias 420
image 420
pus 420
trum 420
侮 420
坯 420
斌@@ 420
槻@@ 420
烛@@ 420
鞏 420
骇@@ 420
鳉 420
Auto 419
Cryp@@ 419
Know 419
NES 419
aer@@ 419
ater 419
ka@@ 419
nh 419
pora 419
㎡ 419
冼 419
岂 419
忻 419
羿 419
鏖@@ 419
鮈 419
1290 418
Di 418
Diamond 418
Railway 418
Vi 418
Walk 418
Wr@@ 418
hydro@@ 418
ons@@ 418
sions 418
垭 418
嶇 418
幡@@ 418
忤@@ 418
暉@@ 418
殉 418
璐@@ 418
脩@@ 418
苕 418
蛎 418
褂 418
訇 418
谯@@ 418
贪 418
蹼 418
April 417
Danny 417
Jol@@ 417
KV@@ 417
Nike 417
Oxy@@ 417
Spr@@ 417
alt@@ 417
dale 417
esta 417
obi@@ 417
pot@@ 417
嗨 417
玑 417
郗@@ 417
鉚@@ 417
５ 417
Emer@@ 416
KK 416
Mit@@ 416
Northern 416
Stewart 416
Tas@@ 416
asc@@ 416
ellia 416
lip@@ 416
ose 416
pse 416
rez 416
岘 416
淌 416
熔 416
眙 416
蜷@@ 416
逛 416
钌 416
顫 416
Bell@@ 415
June 415
Lav@@ 415
Prize 415
Rid@@ 415
Sci@@ 415
dos 415
刎 415
勲 415
繙 415
茛 415
蜗 415
袈@@ 415
铼 415
閎 415
鳕 415
1495 414
Haz@@ 414
ICAO 414
Jerry 414
Mn@@ 414
Professional 414
eder@@ 414
land@@ 414
ort 414
process 414
実 414
苋@@ 414
鉄 414
1274 413
Cass@@ 413
Coff@@ 413
imo 413
ingen 413
nik 413
site 413
儼 413
垛 413
睢 413
絆@@ 413
綻 413
羨 413
郜@@ 413
鈍@@ 413
饬 413
Bobby 412
Hab@@ 412
Hey 412
Neu@@ 412
Raj@@ 412
Ralph 412
Reb@@ 412
get@@ 412
lim 412
pers 412
嘱@@ 412
恣@@ 412
昙 412
淼 412
穰 412
贓 412
鳢 412
Ernst 411
Pi 411
Ras@@ 411
Snow 411
bank 411
ticus 411
ý 411
น 411
挛 411
罌@@ 411
锰@@ 411
饅@@ 411
Forest 410
Las@@ 410
Lif@@ 410
Ten 410
ental 410
neo 410
osaur@@ 410
ホ 410
唸@@ 410
瓌 410
餾@@ 410
1375 409
Mich@@ 409
Rou@@ 409
kal@@ 409
ram@@ 409
ì 409
曠 409
猗 409
釗@@ 409
鯡 409
1295 408
1394 408
About 408
Disc 408
Gem@@ 408
aja 408
istic 408
omys 408
亵@@ 408
凜@@ 408
勻@@ 408
曙 408
樾 408
澡@@ 408
牍 408
翹@@ 408
蒾 408
顼 408
鯓 408
1215 407
1409 407
Jam 407
SUV 407
Theory 407
aks 407
vis@@ 407
you@@ 407
墉 407
憨@@ 407
汴 407
澆@@ 407
琚 407
璩 407
蜕@@ 407
鍬 407
铢 407
髅 407
Agency 406
CDC 406
Hamilton 406
Make 406
Non 406
Ward 406
aten 406
def@@ 406
esi 406
itz@@ 406
懈@@ 406
樋@@ 406
繃 406
综 406
羈 406
躄 406
Anni@@ 405
Berry 405
Cho@@ 405
Living 405
Remix 405
cle@@ 405
final 405
fs 405
inst@@ 405
ories 405
species 405
zu 405
捻@@ 405
晔 405
烽 405
詡 405
鈽 405
1241 404
Duke 404
Hollywood 404
Intel@@ 404
LLC 404
Wool@@ 404
ayan 404
oh 404
rier 404
げ 404
姫 404
獴 404
謐 404
鯧 404
Emp@@ 403
Esp@@ 403
Freedom 403
India 403
Nicholas 403
Palm 403
aco 403
ading 403
eto 403
pas@@ 403
zz@@ 403
ξ 403
ة 403
ق 403
孰@@ 403
岀 403
憊 403
浔 403
詮 403
鶻 403
Camp 402
Front 402
Nelson 402
Sali@@ 402
Seb@@ 402
ching 402
dig@@ 402
ind 402
jo@@ 402
pon@@ 402
俳 402
恵 402
椽 402
硐 402
绯@@ 402
脛 402
鉤@@ 402
锂@@ 402
Angel@@ 401
Barry 401
Hudson 401
Imp@@ 401
Ji@@ 401
Polyg@@ 401
Rat@@ 401
Rog@@ 401
Tour@@ 401
fied 401
ini@@ 401
plex 401
喫 401
忤 401
177@@ 400
Manga 400
Middle 400
area 400
bon 400
pper 400
sem@@ 400
ware 400
巻 400
淤 400
Concep@@ 399
Ot@@ 399
Tolkien 399
Track 399
Where 399
din@@ 399
kan@@ 399
嚣 399
琐@@ 399
蟋@@ 399
诟@@ 399
颍 399
1328 398
Asp@@ 398
KW 398
Shu@@ 398
bil@@ 398
bro@@ 398
ders 398
etus 398
opteris 398
vor@@ 398
wor@@ 398
  398
卒@@ 398
歹 398
絞 398
Gabriel 397
KV 397
Rol@@ 397
Ted 397
Transit 397
eron 397
force 397
fort 397
iger 397
nt 397
潞 397
疯 397
痉@@ 397
鵡@@ 397
４ 397
Anti 396
Keith 396
Off@@ 396
Rail 396
Yam@@ 396
enz@@ 396
gy 396
mad@@ 396
ψ 396
坷 396
恽@@ 396
惺@@ 396
扉 396
揽@@ 396
瞪@@ 396
腥@@ 396
莒 396
钇 396
骯 396
Blood 395
Cad@@ 395
Circle 395
Flu@@ 395
Thunder@@ 395
Univers@@ 395
Winter 395
aine 395
aro@@ 395
bic@@ 395
ig 395
leg@@ 395
lep@@ 395
mar 395
meth@@ 395
攒 395
邬@@ 395
郅 395
鲫 395
Bernard 394
Heter@@ 394
Nation 394
Ori@@ 394
Pseudo@@ 394
Viol@@ 394
asure 394
ck@@ 394
fo 394
ink@@ 394
pha 394
ui@@ 394
啾 394
懼@@ 394
擘 394
砚 394
豉 394
鼯@@ 394
1225 393
1425 393
1488 393
Ghost 393
Heaven 393
Motion 393
NHL 393
Neo 393
SAP 393
Staff 393
ation@@ 393
irus 393
itt 393
xy@@ 393
焗 393
遹 393
Bin@@ 392
Electric 392
Fantas@@ 392
Image 392
Kath@@ 392
Knight 392
Strateg@@ 392
Us 392
esh@@ 392
mod 392
por 392
vil@@ 392
僥 392
僳@@ 392
宓 392
掳@@ 392
溅@@ 392
迺 392
鷸 392
鹭@@ 392
1439 391
Gaz@@ 391
Magn@@ 391
NATO 391
Stanley 391
Why 391
ban 391
osh@@ 391
stream 391
vis 391
珑 391
睑 391
臆@@ 391
赉@@ 391
鮄 391
1497 390
Crown 390
Eli@@ 390
Pir@@ 390
Val 390
iss 390
tek 390
ح 390
椁 390
殯 390
籬@@ 390
Ce@@ 389
Et@@ 389
Rib@@ 389
Sound@@ 389
aeus 389
ape 389
糞@@ 389
脾 389
蜃@@ 389
謔 389
鎳@@ 389
閲 389
髯 389
Craig 388
Yellow 388
arc@@ 388
aul@@ 388
lem@@ 388
under@@ 388
昼 388
泮 388
莆 388
阿根@@ 388
隷 388
鬬 388
鶚 388
1210 387
2000@@ 387
CAM 387
Cathedral 387
Chi 387
Rosa 387
SAS 387
Wind 387
ern 387
idi 387
mark 387
sia 387
stra 387
ylo@@ 387
仄@@ 387
烬 387
辊 387
飢 387
1410 386
1485 386
Doctor 386
Premier 386
Sed@@ 386
Step 386
Techn@@ 386
aut@@ 386
fire 386
ido 386
pur@@ 386
ru 386
solo 386
uh@@ 386
儕 386
拭 386
枷@@ 386
楹@@ 386
汲 386
翩@@ 386
赃@@ 386
邽 386
1227 385
1518 385
AJ 385
Communications 385
Cross@@ 385
Gray 385
Marcus 385
Mark@@ 385
Village 385
chia 385
shop 385
侃@@ 385
嵋 385
彤@@ 385
徕 385
掀 385
摧 385
涧@@ 385
纓 385
蔘 385
轧@@ 385
郫@@ 385
Nep@@ 384
Produ@@ 384
Train 384
WWF 384
cep@@ 384
ift 384
nus 384
put 384
room 384
teau 384
yon 384
嘶@@ 384
曦@@ 384
溱 384
漣@@ 384
眩 384
耸 384
鋤@@ 384
1399 383
Beau@@ 383
Food 383
Haw@@ 383
Lig@@ 383
Safari 383
Sax@@ 383
Set@@ 383
Sle@@ 383
Tiger 383
Wood 383
acs 383
erg@@ 383
pos 383
tar 383
巿 383
槿 383
疙@@ 383
穂 383
钳 383
Bern@@ 382
Chir@@ 382
Gallery 382
Grap@@ 382
Inst@@ 382
Ra 382
Terry 382
Wel@@ 382
che@@ 382
gener@@ 382
ord 382
主持@@ 382
伕 382
喋@@ 382
懇 382
浣 382
舔 382
苜@@ 382
菟 382
褻@@ 382
蹊@@ 382
IA@@ 381
Oracle 381
Ou@@ 381
Ren 381
Xi@@ 381
abase 381
agon@@ 381
before 381
dol@@ 381
囓@@ 381
洹 381
讹@@ 381
Gener@@ 380
Gregory 380
Hop 380
add 380
aman 380
atis 380
侶@@ 380
劵 380
嘿 380
懾 380
罡 380
趴 380
Af@@ 379
Ball@@ 379
Eric@@ 379
Films 379
Georges 379
Leon@@ 379
Neil 379
OE@@ 379
ric 379
sy 379
奘@@ 379
汊 379
睫 379
竈 379
아 379
Broad@@ 378
Colorado 378
Natural 378
Too 378
rue 378
tory 378
uss@@ 378
尕@@ 378
崽 378
瘩 378
荼@@ 378
螂@@ 378
訛@@ 378
讥@@ 378
閡 378
靚 378
1482 377
Anime 377
Ar 377
Brach@@ 377
Fund 377
Lau@@ 377
gal@@ 377
ils 377
rix 377
wi 377
ㄚ 377
俐@@ 377
咯@@ 377
嶂 377
幪 377
甑 377
绮@@ 377
蝮 377
詬@@ 377
酆 377
銣 377
駅 377
1428 376
175@@ 376
EU 376
Flight 376
Hav@@ 376
Justice 376
Psych@@ 376
RF@@ 376
Raymond 376
Wid@@ 376
cole 376
omy@@ 376
tam@@ 376
Γ 376
柬@@ 376
砀@@ 376
胫@@ 376
腓 376
誅@@ 376
逮 376
雋 376
馒@@ 376
鬃 376
1258 375
1461 375
Dum@@ 375
LB 375
Lo 375
Mass@@ 375
Ocean 375
Prom@@ 375
cy 375
elly 375
odes 375
oidea 375
ump@@ 375
僊 375
煜@@ 375
翎@@ 375
蠡 375
郷 375
1377 374
Bour@@ 374
Dog 374
Ele@@ 374
Her 374
Steph@@ 374
brach@@ 374
bridge 374
court 374
dow@@ 374
etes 374
ization 374
mos@@ 374
ras@@ 374
囍 374
熬@@ 374
燊@@ 374
疍 374
簿@@ 374
蹠 374
Carter 373
Gon@@ 373
Gund@@ 373
It@@ 373
Robin 373
ayer 373
wil@@ 373
催 373
僻@@ 373
弢 373
汹@@ 373
滌@@ 373
秆 373
茁@@ 373
1429 372
Australian 372
Christ@@ 372
Federal 372
Grant 372
Ok@@ 372
kan 372
lab@@ 372
sul@@ 372
凜 372
棂 372
珉@@ 372
蚁@@ 372
1477 371
Discovery 371
Lucas 371
Ng 371
Vari@@ 371
WR 371
brid 371
mit 371
otis 371
sn@@ 371
ㄨ 371
糰 371
羟 371
苫 371
赉 371
錚 371
铷 371
1282 370
Chil@@ 370
Docum@@ 370
Economic 370
Hills 370
front 370
macul@@ 370
mal 370
oko 370
say 370
卯@@ 370
昙@@ 370
昶@@ 370
桀 370
碚 370
茸@@ 370
蒞@@ 370
裹@@ 370
謂@@ 370
輓 370
1160 369
SEC 369
Universe 369
aly@@ 369
card 369
ht@@ 369
occus 369
rell 369
vari@@ 369
wel@@ 369
Š 369
壶@@ 369
慫@@ 369
欒@@ 369
珞 369
痞@@ 369
蘸 369
辕@@ 369
闯 369
1405 368
Ba 368
Bird 368
Drama 368
Helen 368
Kl@@ 368
Wolf 368
angle 368
private 368
兗 368
姒 368
帛@@ 368
挝@@ 368
棨 368
虱@@ 368
詼@@ 368
頷 368
Bishop 367
EU@@ 367
Herbert 367
Islands 367
Jas@@ 367
Ton@@ 367
What@@ 367
aq 367
oug@@ 367
ret 367
① 367
佶 367
绎@@ 367
Basil@@ 366
Corn@@ 366
How@@ 366
Table 366
Was@@ 366
ith@@ 366
傉 366
廪 366
禀 366
苾 366
蛉 366
1285 365
1397 365
Amy 365
Canon 365
Century 365
HB 365
Kak@@ 365
Lak@@ 365
Laura 365
avi@@ 365
false 365
fi 365
num 365
odus 365
opp@@ 365
oshi 365
歙 365
穢@@ 365
筐 365
鈈 365
Gly@@ 364
Radar 364
Stein@@ 364
Tir@@ 364
bes@@ 364
ester 364
fun 364
inum 364
kov 364
project 364
廩 364
懊@@ 364
楽 364
礽 364
鍺 364
Angeles 363
Cast@@ 363
Kle@@ 363
Phen@@ 363
Sat@@ 363
Thr@@ 363
alpha 363
borough 363
mid 363
pon 363
rium 363
trieved 363
versary 363
咭 363
擷@@ 363
楂 363
殓 363
涝@@ 363
牴 363
蚋 363
趴@@ 363
Austin 362
Comput@@ 362
Fut@@ 362
ITF 362
Manager 362
Mk@@ 362
Telec@@ 362
aft 362
aru 362
comp@@ 362
dez 362
哋 362
拚@@ 362
氖 362
洸 362
牵 362
狭 362
璣 362
痣 362
誰@@ 362
辇 362
Chan@@ 361
North@@ 361
Tan 361
born 361
eros 361
gii 361
sian 361
Α 361
亶 361
伝 361
岷 361
獐@@ 361
蠑@@ 361
1483 360
Der 360
Evans 360
Fernando 360
Maur@@ 360
Quest 360
Tai 360
Xen@@ 360
alization 360
asia 360
ej@@ 360
ilus 360
lier 360
ostoma 360
post 360
trac@@ 360
ways 360
埭 360
泚 360
碣 360
萁 360
蓿 360
馅@@ 360
Animal 359
Barr@@ 359
Beh@@ 359
Francesco 359
Genti@@ 359
L4 359
Mix 359
Today 359
XII 359
Yang 359
les@@ 359
medi@@ 359
starter 359
綢@@ 359
葩 359
靛@@ 359
Pan 358
Rogers 358
Together 358
acea 358
ange 358
ffer 358
pre 358
揪@@ 358
湄 358
諤 358
1284 357
1468 357
Down@@ 357
End@@ 357
Manuel 357
Performance 357
amo 357
bra 357
eu 357
idge 357
inia 357
lim@@ 357
ment@@ 357
ocar@@ 357
spec@@ 357
xi 357
َ 357
咫@@ 357
嫔@@ 357
孿@@ 357
惮 357
祎 357
蕪@@ 357
謨@@ 357
贰 357
钤 357
Buil@@ 356
Det@@ 356
Publ@@ 356
Sainte 356
Woman 356
program 356
prot@@ 356
uru 356
what 356
夏令@@ 356
娠@@ 356
睛 356
瞭 356
瞿 356
罹 356
闓 356
闔 356
鹳 356
1455 355
Captain 355
Exper@@ 355
Leonard 355
Marine 355
Mario 355
Sean 355
ank 355
both 355
gate 355
let@@ 355
ocarpus 355
run 355
吝@@ 355
昺 355
犒@@ 355
糜 355
腑 355
詆@@ 355
踵@@ 355
鱒 355
1476 354
Adams 354
Body 354
Emb@@ 354
Financial 354
Fon@@ 354
LV 354
Nich@@ 354
Pach@@ 354
Pack@@ 354
President 354
Rep@@ 354
Spirit 354
Vogue 354
ebe 354
ight@@ 354
soc@@ 354
Č 354
ش 354
倬 354
傚 354
愨 354
誣 354
1259 353
Baz@@ 353
Brow@@ 353
Chu 353
Direct 353
Rick 353
WISE 353
Will@@ 353
alist 353
mut@@ 353
oker 353
properties 353
thre@@ 353
侂 353
修道@@ 353
岫@@ 353
愕 353
燻 353
砺 353
觴 353
譙@@ 353
跗@@ 353
酈@@ 353
Dru@@ 352
Eus@@ 352
Glo@@ 352
Hit@@ 352
King@@ 352
Miss@@ 352
Neg@@ 352
Other 352
Water@@ 352
hum@@ 352
ident 352
kar 352
player 352
敝 352
桉@@ 352
缇 352
觅 352
1314 351
Bog@@ 351
Fur@@ 351
Hask@@ 351
Ludwig 351
Mang@@ 351
Parker 351
Shel@@ 351
Warren 351
aint 351
cio 351
enta 351
rich@@ 351
rot 351
¥ 351
Ü 351
丐@@ 351
滏@@ 351
犰@@ 351
缙 351
菝@@ 351
葜 351
藪 351
鄒 351
铌 351
镰 351
饥 351
Chang 350
Coll@@ 350
Columbia 350
Echo 350
Fusion 350
Japanese 350
asis 350
block 350
dat@@ 350
onne 350
sar 350
sig@@ 350
ths 350
ย 350
枸@@ 350
鉍 350
Ａ 350
Arc 349
Mall 349
Miguel 349
Muhammad 349
dii 349
real 349
username 349
垛@@ 349
峤 349
疡 349
箇 349
萜 349
蝾@@ 349
鎘 349
驷 349
1261 348
Chief 348
Hus@@ 348
Maurice 348
Self 348
Shadow 348
Ut@@ 348
Ya 348
tt@@ 348
tv 348
丫 348
洶@@ 348
硯 348
逍 348
邯 348
Acc@@ 347
Complex 347
Dim@@ 347
Scor@@ 347
Terr@@ 347
eling 347
ifolia 347
jan 347
relative 347
Φ 347
拋 347
殤 347
滲 347
焓 347
粑 347
纘 347
觎 347
Flor@@ 346
Oper@@ 346
Pand@@ 346
Pho@@ 346
Rachel 346
Ses@@ 346
agar 346
ason 346
ega 346
these 346
ɕ 346
噱@@ 346
嬤@@ 346
枱 346
贱@@ 346
1484 345
176@@ 345
Dow@@ 345
Ear@@ 345
Eyes 345
Grav@@ 345
Hugh 345
Let@@ 345
Mitchell 345
Od@@ 345
Yu 345
aves 345
bus@@ 345
dom 345
kon@@ 345
melan@@ 345
osum 345
pink 345
tran@@ 345
έ 345
嚙 345
淒@@ 345
淬@@ 345
盯 345
邰@@ 345
Crazy 344
Gri@@ 344
Palace 344
Six@@ 344
come 344
hu 344
nis 344
uld 344
柄@@ 344
熄 344
狳 344
罔 344
蕎@@ 344
讹 344
赃 344
鲵 344
鳗@@ 344
1205 343
Bac@@ 343
Chicago 343
Jessica 343
Kun@@ 343
Lyn@@ 343
Og@@ 343
acter 343
illo 343
kies 343
lands 343
sar@@ 343
video 343
坌 343
娥@@ 343
毌 343
禀@@ 343
肮@@ 343
郦@@ 343
锢 343
馴 343
黟@@ 343
Catherine 342
Had@@ 342
Harold 342
Malaysia 342
NE 342
Oxford 342
Professor 342
Ville 342
bis@@ 342
cript 342
dorf 342
formis 342
kir@@ 342
van@@ 342
virus 342
ה 342
嚥 342
憩@@ 342
晖@@ 342
栒 342
櫚 342
濡 342
璁 342
绾 342
蹴@@ 342
釧@@ 342
鉀@@ 342
1308 341
Care 341
Cha@@ 341
Gau@@ 341
Indian 341
Iv@@ 341
Jur@@ 341
Pom@@ 341
Protocol 341
tie 341
② 341
嘩 341
淝 341
舘 341
螯@@ 341
鲱@@ 341
Airlines 340
Berg@@ 340
Dawn 340
Dog@@ 340
Harmon@@ 340
Kind@@ 340
Lotus 340
Marshall 340
UCI 340
against 340
aut 340
inal 340
kes 340
tz@@ 340
岫 340
燧@@ 340
犛@@ 340
甕@@ 340
绫 340
霈 340
鸠@@ 340
Alt@@ 339
Bes@@ 339
Ernest 339
Gn@@ 339
Josh 339
Karen 339
Oscar 339
alg@@ 339
ander 339
assi@@ 339
hen@@ 339
here 339
ole@@ 339
ror 339
timestamp 339
wak@@ 339
white 339
侑 339
囧 339
泣@@ 339
濘 339
瘴@@ 339
胳@@ 339
麿 339
--@@ 338
0.000 338
Bec@@ 338
Bry@@ 338
Greatest 338
Greg 338
Raf@@ 338
Susan 338
Virgin 338
agus 338
amus 338
athus 338
etto 338
ital 338
lion 338
rop@@ 338
san 338
sl@@ 338
ě 338
ユ 338
ヴ 338
尕 338
扩 338
痲 338
磋 338
綽 338
茧 338
锄@@ 338
髹 338
Barbara 337
Carlo 337
Class@@ 337
His 337
Investment 337
Julia 337
Kaz@@ 337
Murray 337
Ram 337
Season 337
Wag@@ 337
aming 337
eger 337
ogle 337
protein 337
rid 337
sed 337
vid@@ 337
ḥ 337
戳@@ 337
扛@@ 337
睜@@ 337
翦 337
膑 337
芍@@ 337
蹶@@ 337
지 337
1389 336
1418 336
Aaron 336
Gun 336
Racing 336
Tou@@ 336
contributor 336
det@@ 336
during 336
dy@@ 336
ento 336
heter@@ 336
ledge 336
user 336
Λ 336
簫 336
觊@@ 336
锣 336
陉 336
頷@@ 336
馅 336
Batt@@ 335
Gra@@ 335
Proper@@ 335
Sign@@ 335
Sub 335
Sugar 335
Theater 335
Vie@@ 335
Villa 335
Wir@@ 335
bac@@ 335
berger 335
eca 335
emon 335
ken@@ 335
kins 335
position 335
ran 335
ring 335
เ 335
皙 335
翳 335
顷@@ 335
騏 335
鳶@@ 335
鼴@@ 335
Animation 334
Card@@ 334
Cooper 334
Cyclo@@ 334
Dot@@ 334
Pau@@ 334
Person@@ 334
Six 334
esh 334
fen@@ 334
hel@@ 334
xa 334
Π 334
ม 334
皝 334
躉 334
轸 334
Clem@@ 333
Hard 333
Lamb@@ 333
Main@@ 333
Nem@@ 333
PBS 333
Pat 333
Sap@@ 333
Stand@@ 333
effect 333
press@@ 333
rock 333
疝 333
皎@@ 333
脓@@ 333
Cyan@@ 332
ERA 332
Georg 332
Len@@ 332
Motor@@ 332
Stat@@ 332
ble@@ 332
last 332
mic 332
ography 332
py@@ 332
sit@@ 332
ざ 332
渚@@ 332
稗 332
贓@@ 332
鏘 332
鑛 332
闕@@ 332
驪@@ 332
鹑 332
1349 331
Nat@@ 331
Sha@@ 331
Shanghai 331
Silver@@ 331
comment 331
fork 331
mir@@ 331
oso 331
ury 331
ṭ 331
䲗 331
紂 331
苄 331
讣@@ 331
鄢 331
銥 331
钜 331
関@@ 331
阖 331
鲶@@ 331
Comics 330
Count 330
Cyber@@ 330
Dick 330
Flying 330
Hat 330
Hin@@ 330
Louisiana 330
Marco 330
Ox@@ 330
Plas@@ 330
Short 330
Week 330
chen@@ 330
elling 330
fun@@ 330
hynchus 330
led 330
mes@@ 330
凈 330
啲 330
嗝 330
搐 330
旃@@ 330
炘 330
祛@@ 330
胁 330
辮 330
邙@@ 330
鎔@@ 330
闷@@ 330
龔 330
1291 329
Case 329
Cinema 329
Cs 329
Rich 329
Turner 329
abl@@ 329
abri@@ 329
art@@ 329
ging 329
later 329
lio 329
qua 329
wat@@ 329
yu@@ 329
ʃ 329
対 329
尙 329
牂 329
腋 329
菅 329
讒@@ 329
閥@@ 329
鲈@@ 329
---- 328
1444 328
Lex@@ 328
RR 328
chus 328
ous@@ 328
vers@@ 328
ר 328
嗇 328
愷@@ 328
氦@@ 328
漣 328
碌@@ 328
稷@@ 328
竅 328
褓 328
銖 328
铑 328
镳 328
1235 327
1395 327
Associ@@ 327
Eddie 327
Fine 327
Forum 327
Jud@@ 327
Lucky 327
Shin@@ 327
Stuart 327
amine 327
ember 327
gel@@ 327
rin 327
tax@@ 327
tima 327
嚏 327
寐 327
慟 327
玖@@ 327
禕 327
邝@@ 327
驴@@ 327
鲑@@ 327
鶉 327
1355 326
1378 326
Coast 326
Hob@@ 326
Row@@ 326
Sr@@ 326
Wu 326
eti 326
iana 326
mu 326
ours 326
ج 326
侥@@ 326
媧 326
惫 326
摺@@ 326
燥@@ 326
璞@@ 326
顥 326
1302 325
Claude 325
Cook 325
Gur@@ 325
Integr@@ 325
Laz@@ 325
Philippe 325
Rich@@ 325
anta 325
fur@@ 325
ists 325
late 325
tri 325
ད 325
佾 325
倣 325
吶 325
獭 325
銼 325
AFC 324
Charlotte 324
Easy 324
Most 324
ells 324
esi@@ 324
omb@@ 324
ʻ 324
ก 324
อ 324
呐@@ 324
尪 324
楝 324
蜊 324
輅 324
飘 324
鵟 324
Abdul 323
ICC 323
Rin@@ 323
Son 323
appy 323
ata@@ 323
ina@@ 323
many 323
ocephalus 323
touch 323
慮@@ 323
翱@@ 323
闋 323
鱿@@ 323
1307 322
1348 322
Artist 322
Bh@@ 322
Electronic 322
Jeremy 322
Pos@@ 322
Private 322
Record 322
Ta 322
ael 322
ashi 322
best 322
gro@@ 322
kit 322
lich@@ 322
met 322
ms@@ 322
mul@@ 322
ores 322
same 322
tiv@@ 322
unit 322
咗 322
塩 322
挠@@ 322
槲@@ 322
溅 322
玮@@ 322
疋 322
繡@@ 322
轅@@ 322
鎗 322
頴 322
黻 322
1346 321
Cool 321
Cri@@ 321
Cry 321
Develop@@ 321
Genesis 321
Ivan 321
Lu 321
Speed 321
Tat@@ 321
avi 321
design 321
isia 321
đ 321
ف 321
亵 321
吠 321
泻@@ 321
糯 321
餃@@ 321
駄 321
Amazing 320
Another 320
Bis@@ 320
Cash 320
Collins 320
Gom@@ 320
Ja@@ 320
Lloyd 320
Nord@@ 320
Senior 320
Ultimate 320
aber 320
arum 320
asse 320
dam@@ 320
days 320
illon 320
meg@@ 320
olog@@ 320
orient@@ 320
owski 320
que@@ 320
sing@@ 320
々 320
仞 320
嚎@@ 320
沔 320
眨@@ 320
秧 320
銑 320
1365 319
Del 319
Fall 319
Jack@@ 319
Vin@@ 319
apa 319
error 319
kat@@ 319
operator 319
ott 319
tos 319
べ 319
哑 319
攫@@ 319
沣 319
玹 319
钨@@ 319
闿 319
骊@@ 319
黴 319
Alg@@ 318
Brit@@ 318
Liber@@ 318
Rand@@ 318
XL@@ 318
eton 318
ilis 318
years 318
僮 318
徇@@ 318
荟@@ 318
遐 318
鎓 318
镨 318
閂 318
다 318
1427 317
Text 317
Tok@@ 317
ential 317
eper 317
local 317
national 317
otic 317
rap 317
udi@@ 317
watch 317
嫂@@ 317
巳@@ 317
徳@@ 317
桀@@ 317
殃@@ 317
涛@@ 317
涩@@ 317
濡@@ 317
狨 317
笺 317
鍔 317
鍰 317
Canadian 316
Eastern 316
Fair 316
Swift 316
Tow@@ 316
chr@@ 316
ked 316
ono 316
som@@ 316
tot@@ 316
疸 316
菘 316
衹 316
讧 316
﹚ 316
Adi@@ 315
Barn@@ 315
Dame 315
Give 315
Kos@@ 315
SAR@@ 315
WI 315
flu@@ 315
hat@@ 315
ische 315
lus 315
osper@@ 315
wen 315
劏 315
稗@@ 315
虬@@ 315
驕 315
Bahn 314
Being 314
Chung 314
Fu 314
German 314
Gul@@ 314
Rud@@ 314
Sunshine 314
Training 314
Wall@@ 314
antic 314
bers 314
cro@@ 314
dem 314
ening 314
eps 314
par 314
tent 314
write 314
ya@@ 314
ṣ 314
嗅 314
拏 314
琺@@ 314
瓢 314
餵@@ 314
Africa 313
Auto@@ 313
Ble@@ 313
Born 313
Cham@@ 313
Dist@@ 313
Du 313
E9@@ 313
Kate 313
Lec@@ 313
Louise 313
Morris 313
Ms 313
Nancy 313
Roberts 313
UEFA 313
agram 313
bal 313
eld 313
phi 313
侦 313
俾 313
怖 313
沓 313
糠@@ 313
豸 313
闼 313
隽 313
1310 312
Adrian 312
Bath@@ 312
Choice 312
Dark@@ 312
Defense 312
Sant 312
Wy@@ 312
atory 312
even 312
icle 312
isch 312
ix@@ 312
pin 312
wick 312
呦 312
団 312
孽@@ 312
宥@@ 312
峙@@ 312
櫓 312
毡 312
炤 312
盂@@ 312
箋 312
聂 312
踴@@ 312
鎰 312
1337 311
1396 311
AFL 311
Dead@@ 311
Heli@@ 311
Hun@@ 311
Mind@@ 311
NXT 311
arium 311
dea 311
ente 311
eur@@ 311
just 311
math 311
oun 311
play@@ 311
put@@ 311
wang 311
◎ 311
榊@@ 311
磾 311
蠹 311
蹬 311
锴 311
魘 311
鱟 311
1336 310
Artem@@ 310
Civ@@ 310
Feel 310
Ferr@@ 310
Gab@@ 310
Ground 310
Ide@@ 310
Networks 310
Route 310
aise 310
bie 310
col 310
coordin@@ 310
dom@@ 310
itis 310
kh 310
signed 310
som 310
埸 310
璫 310
癣 310
睬 310
箬 310
諳 310
驮 310
麂 310
Alive 309
Alo@@ 309
Bureau 309
Candy 309
Devil 309
Mother 309
Saur@@ 309
Thre@@ 309
anne 309
eland 309
ilia 309
lar 309
mas 309
master 309
oga 309
range 309
read 309
vector 309
ั 309
⁵ 309
拌@@ 309
殁 309
稃 309
縷 309
葭 309
谒@@ 309
飚 309
Bonn@@ 308
Colin 308
Cros@@ 308
Gall@@ 308
Holy 308
Jazz 308
Label 308
NL 308
Nur@@ 308
Origin 308
ager 308
ebr@@ 308
[...]
