de 1
, 1
. 1
la 1
et 1
le 1
à 1
en 1
&quot; 0.9473092504056992
l&apos; 1
des 1
est 1
@-@ 1
du 1
les 1
d&apos; 1
un 1
( 1
) 1
une 1
dans 1
par 1
au 1
’ 1
pour 1
il 1
a 0.5104612899433608
qui 1
que 1
Le 1
sur 1
Il 1
son 1
avec 1
se 1
La 1
é 1
: 1
plus 1
l 1
aux 1
sont 1
ée 1
En 1
ou 1
Les 1
sa 1
été 1
elle 1
« 1
» 1
és 1
ant 1
d 1
ent 1
s&apos; 1
ce 1
qu&apos; 1
er 1
ses 1
comme 1
ne 1
dé@@ 1
ées 1
deux 1
L&apos; 1
ont 1
pas 1
é@@ 1
on 0.4421044027011199
fait 1
y 0.4042619279135929
; 0.7241277084040739
entre 1
mais 1
ation 1
Elle 1
es 0.7041196170058637
cette 1
ré@@ 1
sous 1
s 1
ie 1
ait 1
même 1
être 1
ement 1
re@@ 1
était 1
lui 1
leur 1
n&apos; 1
dont 1
après 1
% 1
où 1
également 1
commune 1
France 1
&apos; 0.7171706985395079
in@@ 1
ans 1
ville 1
alors 1
aussi 1
autres 1
ale 1
ainsi 1
Saint 1
te 1
ité 1
partie 1
nom 1
aire 1
premier 1
fut 1
première 1
age 1
lors 1
ations 1
À 1
ces 1
puis 1
ch@@ 1
années 1
ère 1
contre 1
peut 1
in 0.0544241597616377
e 1
trois 1
p@@ 1
S@@ 0.9882126404576823
is 0.18151163700964745
depuis 1
né 1
avant 1
pré@@ 1
groupe 1
plusieurs 1
ils 1
P@@ 1
vers 1
L@@ 1
Cette 1
el 0.18754863107242473
très 1
aires 1
Dans 1
ques 1
an 0.21682026549988367
elles 1
ons 1
C@@ 1
2 0.7356072645961467
ine 1
c@@ 1
ou@@ 1
jusqu&apos; 1
fois 1
ants 1
D@@ 1
r@@ 1
tes 1
année 1
/ 0.5991154702747205
fin 1
G@@ 0.958429723321587
avoir 1
en@@ 0.8736348581773576
Paris 1
s@@ 0.79267645306194
us 1
T@@ 0.9689970078622749
- 0.6943674579565041
1 0.5902229533765095
mort 1
Jean 1
avait 1
tout 1
français 1
ens 1
M@@ 1
De 1
al 0.4625172785204875
par@@ 1
R@@ 1
sans 1
temps 1
B@@ 0.9093669712596798
u 1
notamment 1
famille 1
n@@ 1
Ce 1
eux 1
F@@ 1
place 1
Au 1
monde 1
g@@ 1
t@@ 0.989965177845564
saison 1
équipe 1
Après 1
ers 0.9408639460420527
d@@ 1
iste 1
eur 1
con@@ 1
sud 1
leurs 1
A@@ 0.9416030115778067
lieu 1
suite 1
i 1
v@@ 1
pays 1
is@@ 1
3 0.6978547209144352
nord 1
V@@ 1
N@@ 0.9398162105703838
at 0.20647349796666142
it 0.3736174645139658
ales 1
enne 1
cours 1
ar@@ 1
eau 1
re 1
Biographie 1
autre 1
faire 1
partir 1
États 1
grand 1
Une 1
région 1
titre 1
bien 1
devient 1
peu 1
ci 1
O@@ 1
di@@ 1
non 1
&amp; 0.7531519395237694
forme 1
Un 1
an@@ 0.9048300587973122
film 1
ite 1
b@@ 1
on@@ 1
ér@@ 1
moins 1
pendant 1
guerre 1
quatre 1
l@@ 1
soit 1
aient 1
tant 1
ères 1
f@@ 1
tr@@ 1
C&apos; 1
encore 1
c 1
j@@ 1
nouveau 1
o@@ 1
at@@ 1
or@@ 1
Son 1
co@@ 1
4 0.7020767119056789
É@@ 1
ique 1
général 1
ligne 1
ts 1
tous 1
vie 1
politique 1
able 1
ise 1
t 0.6127584532356718
H@@ 0.7694660940522747
série 1
ante 1
ag@@ 1
ue 1
ateur 1
ac@@ 1
ab@@ 1
début 1
située 1
eurs 1
po@@ 1
ad@@ 1
celle 1
al@@ 0.8521129887838242
Unis 1
o 0.508235907077873
L 1
ance 1
n 1
Ch@@ 1
État 1
qu@@ 1
nombre 1
els 1
ap@@ 1
E@@ 0.8310872458290525
h@@ 0.9399677346259874
tard 1
celui 1
fils 1
française 1
grande 1
y@@ 1
ins 1
qu 1
a@@ 1
ette 1
sou@@ 1
isme 1
club 1
m@@ 1
si 1
donc 1
ul@@ 1
selon 1
im@@ 1
village 1
J@@ 1
ages 1
Pour 1
ouest 1
On 0.8453192641353515
album 1
Ar@@ 1
histoire 1
ti@@ 1
it@@ 1
trouve 1
nouvelle 1
ements 1
ure 1
che 1
6 0.7354352241367215
Histoire 1
ensuite 1
quelques 1
K@@ 0.6384007039092016
département 1
centre 1
ent@@ 1
compte 1
père 1
ire 1
inter@@ 1
I@@ 1
c&apos; 1
président 1
gr@@ 1
époque 1
i@@ 1
deuxième 1
ir 1
ét@@ 1
étaient 1
part 1
pl@@ 1
ayant 1
dernier 1
population 1
as 0.09016168210991847
situé 1
ï@@ 1
me 1
el@@ 0.7231827846508496
ex@@ 1
étant 1
én@@ 1
période 1
2010 0.8666096278331453
or 0.2659265656539166
br@@ 1
and 0.027226600113867034
z@@ 0.8353520077704029
sur@@ 1
5 0.6181951273433959
am@@ 1
èrent 1
environ 1
li@@ 1
pr@@ 1
dit 1
as@@ 0.9472863483348197
per@@ 1
com@@ 1
roi 1
près 1
us@@ 1
Z@@ 0.9241092594996384
église 1
nombreux 1
ir@@ 1
face 1
mois 1
ter 0.8517955906479978
e@@ 0.5865954841032878
tour 1
istes 1
ren@@ 1
os 0.6039845381669194
em@@ 1
origine 1
ill@@ 1
Ils 1
dis@@ 0.9380822002434622
au@@ 1
gouvernement 1
Ces 1
ents 1
Mar@@ 1
ot@@ 1
ines 1
Europe 1
teur 1
f 1
Pierre 1
chez 1
bi@@ 1
nationale 1
espèce 1
of 0.021271834907468177
av@@ 1
ente 1
mé@@ 1
service 1
ro@@ 1
es@@ 0.8104991572990637
prend 1
om@@ 1
ensemble 1
car 1
cinq 1
homme 1
lo@@ 1
ard 1
ur@@ 1
nommé 1
ités 1
The 0.0665460297446853
chef 1
tique 1
déc@@ 1
ellement 1
permet 1
communes 1
sé@@ 1
Con@@ 1
th@@ 1
afin 1
ence 1
ancien 1
Louis 1
2018 1
site 1
tions 1
ais 1
ol@@ 1
W@@ 0.5160834809768731
hui 1
mar@@ 1
souvent 1
vi@@ 1
u@@ 1
reste 1
carrière 1
mer 1
cr@@ 1
née 1
durant 1
cas 1
jeu 1
effet 1
armée 1
id@@ 1
cour@@ 1
études 1
Nord 1
membre 1
ve 0.4821458414739402
ille 1
niveau 1
jour 1
ass@@ 1
doit 1
société 1
rue 1
ic@@ 1
gu@@ 1
rôle 1
mon@@ 1
national 1
membres 1
ologie 1
té 1
porte 1
il@@ 1
jours 1
ph@@ 1
peuvent 1
sera 1
7 0.6384970525662759
américain 1
habitants 1
projet 1
mise 1
Al@@ 0.9412630404750023
chaque 1
Y@@ 1
ennes 1
ailleurs 1
œuvre 1
cré@@ 1
tion 1
Sa 1
Selon 1
onn@@ 1
mondiale 1
point 1
présente 1
ver@@ 0.5167207351025659
ateurs 1
territoire 1
mo@@ 1
car@@ 1
ables 1
10 0.5244216221869796
troisième 1
2011 0.7394407117257932
système 1
8 0.6217487048065276
premiers 1
the 0.00982522901250226
Par 1
dès 1
trans@@ 1
finale 1
to@@ 1
exemple 1
toujours 1
travail 1
Sud 1
Mais 1
base 1
cor@@ 1
2000 1
its 0.2879898386944249
er@@ 0.4027225728762692
x 1
poste 1
droit 1
2014 0.7849264546061742
_ 0.8464213675238358
match 1
appar@@ 1
è@@ 1
antes 1
quement 1
ches 1
ci@@ 1
teurs 1
toute 1
sein 1
ar 0.3508180271640532
m 0.5778658205817948
Charles 1
personnes 1
A 0.3290578916335808
era 0.8017683366131627
enfants 1
Guerre 1
éri@@ 1
si@@ 1
connu 1
urs 1
met 1
ach@@ 1
cet 1
nombreuses 1
2015 0.7666569027907544
toutes 1
2009 0.767159469757198
Lors 1
Car@@ 1
use 1
long 1
raison 1
certains 1
Des 1
min@@ 1
pi@@ 1
château 1
│ 1
ordre 1
ites 1
six 1
gé@@ 1
succès 1
op@@ 1
mis 1
New 0.4559247876603805
prix 1
2008 0.7426524245620149
tête 1
isation 1
rapport 1
ane 1
université 1
maison 1
ate 0.4033281800773115
école 1
ég@@ 1
construction 1
ton 1
art 1
va 1
siège 1
aine 1
championnat 1
oc@@ 1
mes 1
man@@ 1
os@@ 1
2012 0.700574097710662
fille 1
ies 1
k@@ 0.5232583452056673
musique 1
ain 1
ém@@ 1
ets 1
type 1
agit 1
all@@ 1
jeune 1
Grand 1
eu 1
col@@ 1
grâce 1
ia 0.7746282409400402
province 1
écrit 1
points 1
sion 1
2013 0.7142893076107129
production 1
île 1
C 1
hommes 1
ène 1
laquelle 1
développement 1
loi 1
remporte 1
Marie 1
2020 0.8529422639512434
ains 1
état 1
ministre 1
ances 1
passe 1
principale 1
ép@@ 1
ès 1
femme 1
– 0.1412916511080183
ile 1
formation 1
ade 1
but 0.2950159449309291
participe 1
II 0.9255351193422826
pouvoir 1
cu@@ 1
âge 1
joue 1
aujourd&apos; 1
ri@@ 1
tre 1
corps 1
Mon@@ 1
Ré@@ 1
rencontre 1
version 1
public 1
aise 1
Depuis 1
moyenne 1
ats 1
création 1
der 0.03654253129236419
ra 1
Paul 1
2016 0.6729872547871134
Dé@@ 1
ser@@ 1
ore 1
2007 0.702846863388832
Allemagne 1
2017 0.7172208566447681
ides 1
U@@ 0.7459583676836135
9 0.5729960477950611
route 1
ec@@ 1
ob@@ 1
demi 1
commence 1
euse 1
rec@@ 1
vol@@ 1
év@@ 1
st@@ 0.5088634191786217
formula 0.8551284224235599
joueur 1
ig@@ 1
côté 1
2006 0.712101163210836
Coupe 1
cl@@ 1
dernière 1
fin@@ 1
François 1
femmes 1
suivante 1
alité 1
um 0.37495417815235155
football 1
seul 1
bo@@ 1
ancienne 1
grands 1
zone 1
ceux 1
cro@@ 1
plan 1
furent 1
An@@ 0.5676562410086966
1990 1
devant 1
voir 1
petit 1
ures 1
ge 1
déjà 1
eaux 1
él@@ 1
produit 1
travaux 1
men@@ 1
retour 1
z 0.8692800015199134
cou@@ 1
obtient 1
rem@@ 1
militaire 1
direction 1
20 0.5176357970932295
res@@ 1
République 1
différentes 1
ba@@ 1
Italie 1
bou@@ 1
terme 1
fort 1
ier 1
élections 1
date 1
so@@ 1
Tr@@ 0.9355837996565792
Par@@ 1
John 0.6794844558963953
cher 1
chanson 1
da 0.4670302232895957
anglais 1
fi@@ 1
mère 1
et@@ 0.7429516498563193
ences 1
ice 1
ê@@ 1
ant@@ 1
esse 1
éc@@ 1
parmi 1
Avec 1
D&apos; 1
Gu@@ 1
end@@ 1
Am@@ 1
édition 1
onne 1
15 0.5496295382650938
genre 1
réseau 1
comp@@ 1
ni 1
one 0.20931683925922578
sept 1
milieu 1
att@@ 1
gt 0.8613869890403714
tandis 1
un@@ 0.2951963349070061
ni@@ 1
parti 1
abord 1
espèces 1
inc@@ 1
nes 1
Bar@@ 1
Br@@ 0.9710350282077246
dix 1
division 1
action 1
no@@ 1
2005 0.7582981824620221
frère 1
ot 1
parfois 1
ner 1
2019 0.6507569628966844
communauté 1
liste 1
Cependant 1
sols 1
tres 1
donne 1
seulement 1
utilisé 1
In@@ 0.8068557150265748
Sur 1
particulier 1
h 0.7000778364907904
fer@@ 1
ma@@ 1
le@@ 0.6474473236620837
r 1
Description 1
ing 0.1292848792796317
cadre 1
bar@@ 1
proche 1
beaucoup 1
britannique 1
huit 1
qué 1
directeur 1
res 1
um@@ 0.746615418145341
zones 1
marque 1
12 0.457198830723447
York 0.6913287235731538
man 0.4071085635561799
américaine 1
ment 0.9962034191639495
ues 1
aurait 1
Cor@@ 1
Ses 1
différents 1
Union 1
Jacques 1
enti@@ 1
recherche 1
jou@@ 1
second 0.587465913493425
pos@@ 1
créé 1
international 1
Mont@@ 1
scène 1
réalisé 1
font 1
sorti 1
livre 1
be 0.15656545225298302
ign@@ 1
Mal@@ 1
bois 1
gar@@ 1
indi@@ 1
bataille 1
fonction 1
ay 1
épouse 1
tri@@ 1
fa@@ 1
Ber@@ 1
gare 1
na 0.8894363358581169
ang@@ 1
occupation 1
ème 1
I 0.37272055029788775
sens 1
sol@@ 1
aide 1
principalement 1
auteur 1
autour 1
2004 0.7412940753495172
entr@@ 1
victoire 1
existe 1
... 1
cependant 1
objet 1
iques 1
surtout 1
rap@@ 1
pro@@ 1
premières 1
ter@@ 0.7664398960943167
Mé@@ 1
Canada 1
rivière 1
petite 1
équipes 1
pour@@ 1
tur@@ 1
publié 1
ges 1
plupart 1
mouvement 1
millions 1
ler 0.6947582947142449
Mor@@ 1
lt 0.8285848702476875
seconde 1
Jeux 1
œuvres 1
1999 0.9629642943516367
k 0.4964665311579065
tels 1
rejoint 1
style 1
Ro@@ 1
Université 1
erie 1
Conseil 1
spéci@@ 1
ne@@ 1
allemand 1
cause 1
activité 1
ois 1
Di@@ 1
Espagne 1
rel@@ 1
mettre 1
quartier 1
ta 0.7908047375321082
mesure 1
fer 1
x@@ 1
domaine 1
entes 1
isi@@ 1
entreprise 1
langue 1
comté 1
demande 1
lequel 1
ac 1
bourg 1
ai 1
là 0.2877383075786477
reçoit 1
éch@@ 1
juin 1
isé 1
avaient 1
haut 1
Per@@ 1
suivant 1
dou@@ 1
di 1
su@@ 1
Ma@@ 1
Afrique 1
acc@@ 1
prendre 1
aines 1
p 0.6906903810958813
â@@ 1
dire 1
alement 1
construit 1
quant 1
position 1
por@@ 1
Parti 1
Angleterre 1
port 1
élu 1
amp 0.4991425491712015
données 1
appelé 1
seule 1
se@@ 0.6460186406202715
anti@@ 1
classe 1
roman 1
manière 1
Gr@@ 1
aï@@ 1
finalement 1
ru@@ 1
ati@@ 1
pris 1
station 0.8047341996036211
B 0.767019307669551
gauche 1
jamais 1
conseil 1
En@@ 1
Or@@ 1
ux 1
propre 1
2002 0.7697493946003795
tis@@ 1
mai 1
européenne 1
historique 1
étude 1
lorsque 1
tu@@ 1
ades 1
important 1
nouvelles 1
Ver@@ 0.5075312636178083
ologique 1
mars 1
possède 1
1998 0.9685277931816507
septembre 1
moment 1
article 1
16 0.5185628571053513
ole 1
Qu@@ 1
donné 1
mal@@ 1
présence 1
voie 1
seur 1
Col@@ 1
ve@@ 1
fon@@ 1
terre 1
certaines 1
11 0.4597205306554912
organisation 1
ti 1
matchs 1
30 0.4920346635165871
bl@@ 1
2003 0.7617044844958547
Robert 1
principal 1
ta@@ 1
ète 1
our 1
Ligue 1
rég@@ 1
occasion 1
1980 1
Th@@ 0.9186332090172616
Tour 1
ettes 1
cela 1
groupes 1
Henri 1
rou@@ 1
parc 1
référence 1
0 0.6724555651972621
quand 1
2001 0.7354392270317271
&#91; 0.4373187656251353
entrée 1
son@@ 1
constitu@@ 1
Bo@@ 1
annonce 1
rant 1
lég@@ 1
voit 1
18 0.456071029123511
og@@ 1
&#93; 0.4331436770518699
jeunes 1
juillet 1
rée 1
Historique 1
généralement 1
! 0.740748350120436
octobre 1
Re@@ 0.5623691177383929
termine 1
lu@@ 1
° 1
atique 1
canton 1
celles 1
Carrière 1
Com@@ 1
14 0.5233336409230788
travers 1
théâtre 1
ises 1
permettant 1
classement 1
Géographie 1
ev@@ 1
sa@@ 1
off@@ 1
grandes 1
am 0.18321516891761574
atif 1
issent 1
= 0.6713105480348277
Joseph 1
ina 0.71926176679973
af@@ 0.9482668389542194
Le@@ 0.7381170198438148
court 1
19 0.5311357486070062
sort 1
professeur 1
capitale 1
course 1
g 0.5710285886190772
ais@@ 1
Michel 1
pe 1
val@@ 1
Ainsi 1
Londres 1
tionn@@ 1
taux 1
Est 1
Québec 1
1970 1
tor@@ 1
Japon 1
iss@@ 1
culture 1
villes 1
politiques 1
ouv@@ 1
13 0.5211848932370261
Nouvelle 1
gi@@ 1
compétition 1
ain@@ 1
vue 1
bâtiment 1
Char@@ 1
dic@@ 1
vient 1
17 0.5333816800112559
vo@@ 1
compl@@ 1
compagnie 1
administration 1
rapidement 1
hé@@ 1
ka 1
2021 0.6626327045513336
composé 1
janvier 1
meurt 1
district 1
résultats 1
sor@@ 1
ion 1
mètres 1
décide 1
Mo@@ 1
D 0.9125267109119517
sions 1
internationale 1
Bou@@ 1
retrouve 1
musée 1
meilleur 1
ch 0.58357966914621
importante 1
semble 1
troupes 1
avril 1
ur 1
services 1
activités 1
fl@@ 1
for@@ 0.7333091039583289
1950 1
Liste 1
lier 1
ché 1
Sh@@ 0.6420312433353893
auprès 1
ires 1
ber@@ 0.8497211232053157
serait 1
San 0.6064005971747374
isant 1
campagne 1
char@@ 1
Empire 1
formes 1
décembre 1
films 1
climat 1
Pays 1
août 1
comprend 1
ative 1
ves 1
emb@@ 1
Grande 1
ceinture 1
tour@@ 1
de@@ 0.39952180510325896
sortie 1
carte 1
rés 1
ley 0.6763838041793412
mor@@ 1
iser 1
Si 1
habit@@ 1
mission 1
créée 1
programme 1
la@@ 1
Pendant 1
alisation 1
Pr@@ 1
Co@@ 0.8294234620310793
Église 1
novembre 1
comte 1
ut@@ 0.8885146104793613
thé@@ 1
actuelle 1
tin 1
unique 1
tés 1
ov@@ 1
aud 1
onyme 1
droite 1
ç@@ 1
tom@@ 1
ô@@ 1
can@@ 1
populaire 1
mi@@ 1
supérieur 1
télé@@ 1
bal@@ 1
cap@@ 1
ana 0.5755659123111689
imp@@ 1
Rome 1
rom@@ 1
atteint 1
connue 1
générale 1
fr@@ 1
faisant 1
25 0.48946255641700165
argent 1
droits 1
lac 1
économique 1
do@@ 1
terrain 1
voix 1
forces 1
end 0.3740031628697777
sub@@ 0.7473024661003747
Pologne 1
Seconde 1
total 0.7859414834708527
enc@@ 1
départ 1
Comme 1
Val@@ 1
lie 1
Chine 1
8@@ 0.7154668456309843
terres 1
ff@@ 1
possible 1
Sainte 1
cinéma 1
des@@ 0.6155153059034089
particulièrement 1
association 1
quer 1
éli@@ 1
signe 1
contrôle 1
S 0.8442295183629707
ol 1
termin@@ 1
modèle 1
ément 1
découvert 1
russe 1
1960 1
honneur 1
to 0.014013159462677697
b 0.5301817730832595
prise 1
élection 1
conf@@ 1
vis@@ 1
onné 1
Se@@ 0.7417464980196169
nous 1
parties 1
form@@ 1
produits 1
ano 0.7011373578182523
intérieur 1
éré 1
sépar@@ 1
espace 1
istique 1
champion 1
Ouest 1
w@@ 0.31461530867488574
Li@@ 1
ing@@ 0.7320423190212627
nouveaux 1
Belgique 1
oir 1
cal@@ 1
désormais 1
cas@@ 1
eté 1
façon 1
large 0.784958745418203
déf@@ 1
mag@@ 1
contr@@ 1
? 1
and@@ 0.803084511052641
etc. 1
tiques 1
maire 1
municipalité 1
Prix 1
tel 1
technique 1
te@@ 0.6862254202114538
… 1
eng@@ 1
idée 1
territoires 1
critique 1
Cet 1
Russie 1
— 0.0762548585675803
arrivée 1
ess@@ 1
1991 0.870801637892665
Philippe 1
our@@ 1
ra@@ 1
axe 1
Deux 1
Be@@ 0.6226822194139529
24 0.5194050164000626
bas@@ 1
éléments 1
personnage 1
Royaume 1
ori@@ 1
loc@@ 1
Plusieurs 1
ager 1
ien 1
ini 1
gen@@ 0.7250728955286934
Bel@@ 1
combat 1
issant 1
pan@@ 1
joueurs 1
sert 1
aucun 1
sol 1
tient 1
titres 1
For@@ 1
alités 1
centrale 1
ame 1
février 1
ture 1
som@@ 1
fié 1
ête 1
conn@@ 1
part@@ 1
Amérique 1
est@@ 0.6349207799889467
contrat 1
conserv@@ 1
altitude 1
David 1
importance 1
V 0.9270743637814598
vingt 1
accès 1
hi@@ 1
dessus 1
olympiques 1
montre 1
assez 1
Centre 1
chemin 1
pression 1
source 1
tive 1
esc@@ 1
cur@@ 1
1997 0.7764249253844477
sal@@ 1
buts 1
allemande 1
devenu 1
publie 1
double 1
force 1
fier 1
ten@@ 0.7571130535273188
bre 1
die 0.0313478985350996
historiques 1
prom@@ 1
M 0.9931163908157459
duc 1
attaque 1
tiers 1
cul@@ 1
température 1
astéroïdes 1
1995 0.8049024641802599
ad 0.6629153061223931
G 0.9504518684707314
outre 1
eb@@ 0.7116048801067715
Durant 1
ède 1
évolution 1
nommée 1
Po@@ 1
École 1
émission 1
1996 0.7615747798356441
travaille 1
liv@@ 1
évêque 1
trop 1
préc@@ 1
surface 1
bat@@ 1
bre@@ 1
be@@ 0.34333324397360976
100 0.5278487121413313
od@@ 0.9162870885216243
issement 1
quitte 1
jeux 1
situation 1
ino 0.8137151447536007
charge 1
mont 1
quatrième 1
taille 1
bas 1
devenir 1
ami 1
ell@@ 0.9786897656994513
journal 1
F 0.939372572286582
libre 1
R 0.8678893607354923
marché 1
III 1
ma 0.7735581568760134
ak@@ 0.5982152552329615
mé 1
passage 1
21 0.4817875660414853
portant 1
situe 1
az@@ 0.9499625222637431
ut 1
artistes 1
rouge 1
seurs 1
aliste 1
nier 1
irs 1
Ab@@ 0.43716840576547333
kilomètres 1
FC 1
viol@@ 1
bes 1
pont 1
affaires 1
Martin 1
passé 1
publique 1
tent 1
bord 1
main 0.7766690365624962
anciens 1
9@@ 0.7179699634642214
personne 1
apparaît 1
coll@@ 1
inscrit 1
Bien 1
majorité 1
pass@@ 1
Sch@@ 0.3334759247966106
assur@@ 1
italien 1
salle 1
acteur 1
inf@@ 1
lignes 1
principaux 1
venir 1
ologiques 1
ond@@ 1
porté 1
10@@ 0.8512145893041895
cer@@ 1
rend 1
santé 1
E 0.8814902464809553
enn@@ 1
pu 1
tenu 1
intégr@@ 1
sc@@ 1
î@@ 1
chaîne 1
7@@ 0.6505850999829792
1992 0.7516699815868719
dr@@ 0.7535926298929592
air 1
anc@@ 1
Her@@ 0.8774314917172387
rés@@ 1
compris 1
compos@@ 1
Sal@@ 1
iles 1
50 0.639132665347475
pièces 1
représente 1
intérêt 1
Bi@@ 0.9982258220800219
astéroïde 1
utilisation 1
X 0.9007052585643801
plutôt 1
ouvrage 1
ven@@ 1
+ 0.9515661484284461
fit 1
1994 0.7544378474412761
ices 1
El@@ 0.6645810213644544
Georges 1
ève 1
heures 1
bonne 1
gén@@ 1
saint 1
ins@@ 1
Première 1
ay@@ 0.9361107834171267
Société 1
jug@@ 1
Lo@@ 1
suit 1
divers 1
toutefois 1
édi@@ 1
uses 1
élimin@@ 1
derniers 1
agn@@ 1
vidéo 1
recensement 1
dem@@ 1
dev@@ 1
faible 1
agricoles 1
arrière 1
dép@@ 1
télévision 1
unité 1
reçu 1
valeur 1
St@@ 0.46072002782740396
vallée 1
actions 1
X@@ 0.8139116541479545
Du 1
lois 1
simple 1
Vi@@ 1
ge@@ 0.4182154944026767
coup 1
As@@ 1
sécurité 1
arts 1
telle 1
P 0.9867422002285213
chant 1
cité 1
côtés 1
malgré 1
fs 1
cour 1
atrice 1
1981 1
sh@@ 0.3679666250558915
co 0.5890213437931983
ty@@ 1
N 0.9762284936356198
km 0.39007402248548906
eff@@ 1
Bretagne 1
dur@@ 1
sciences 1
22 0.493414152338527
Parmi 1
endre 1
ari@@ 1
ulaire 1
pres@@ 1
int@@ 1
Thomas 0.9363656670029947
chapelle 1
Man@@ 0.8354294270764878
propos@@ 1
peintre 1
pas@@ 1
aucune 1
ov 1
plan@@ 1
longueur 1
considéré 1
armes 1
alisme 1
André 1
forte 1
pratique 1
voy@@ 1
tournoi 1
mariage 1
issue 1
clubs 1
secteur 1
1993 0.7584979019349489
savoir 1
ang 0.9127572619380521
autor@@ 1
vice 1
berg 0.7773846791342651
marqu@@ 1
Vo@@ 1
Suisse 1
moitié 1
T 0.7944061729003892
ules 1
conditions 1
bande 1
livres 1
Pi@@ 1
atives 1
William 0.7141006168870782
Cal@@ 1
du@@ 1
ètes 1
petits 1
lar@@ 1
De@@ 0.6361982185388153
O 0.5660108235227459
Club 0.7891346611587411
ed@@ 0.4695113635519453
propose 1
nom@@ 1
Elles 1
reprises 1
fonctionn@@ 1
utilisée 1
section 1
Bal@@ 1
0,@@ 1
do 0.35845115162980823
23 0.5047532353161728
identi@@ 1
Plus 1
grav@@ 1
onnement 1
anim@@ 1
presse 1
hér@@ 1
réalis@@ 1
bri@@ 1
maître 1
abbaye 1
ré 1
ey 0.8998129387206402
tar@@ 1
Es@@ 1
célèbre 1
police 1
-@@ 0.6580800312410607
influence 1
ici 1
défense 1
représentant 1
gestion 1
régions 1
ande 1
porter 1
fonctions 1
proximité 1
1975 1
ong@@ 1
lorsqu&apos; 1
ection 1
me@@ 0.8603122027278364
rac@@ 1
longue 1
Cr@@ 1
catholique 1
Q@@ 0.9620678620960769
1988 0.8409519298136425
hauteur 1
nuit 1
Fr@@ 1
comptait 1
Pl@@ 1
presque 1
yl@@ 1
Ex@@ 0.7097666637216459
faut 1
neuf 1
qualité 1
ah@@ 0.8462125107207288
bres 1
éd@@ 1
empereur 1
tent@@ 1
secrétaire 1
moteur 1
passer 1
sujet 1
pal@@ 1
1971 1
pierre 1
texte 1
député 1
médaille 1
ski 1
tier 1
commerce 1
Institut 1
Dès 1
lé@@ 1
ographie 1
sélection 1
évolue 1
.@@ 0.5385717445295198
accord 1
hum@@ 1
enseignement 1
vitesse 1
tableau 1
entreprises 1
personnages 1
types 1
jusqu 1
no 0.15026587538204697
Claude 1
réc@@ 1
administr@@ 1
protection 1
eg@@ 0.5583579037276806
réalise 1
prof@@ 1
Bas 1
mot 1
sionn@@ 1
soutien 1
prépar@@ 1
arr@@ 1
ban@@ 1
abilité 1
appel 1
royaume 1
isent 1
oph@@ 1
aqu@@ 1
oppos@@ 1
certain 1
lance 1
lieux 1
reconn@@ 1
doivent 1
H 1
ates 0.4376189689401234
commun@@ 1
uel 1
So@@ 1
arrondissement 1
construite 1
Académie 1
relations 1
sign@@ 1
vit 1
ablement 1
artiste 1
prince 1
mêmes 1
siècle 1
vé@@ 1
hiver 1
prati@@ 1
né@@ 1
fondé 1
médic@@ 1
actuel 1
James 0.7238851002082195
enfant 1
nature 1
mer@@ 0.6085269692924995
occup@@ 1
mét@@ 1
tra@@ 1
permis 1
inst@@ 1
6@@ 0.6342104574648586
major 0.6999079992558546
Entre 1
principales 1
chev@@ 1
voïvodie 1
George 0.7322334954580841
Uni 1
suivi 1
appelée 1
orbite 1
épisode 1
hors 1
mari@@ 1
publi@@ 1
Cas@@ 1
probablement 1
Ac@@ 1
Del@@ 1
moyen 1
Championnat 1
directement 1
œ@@ 1
quée 1
continue 1
structure 1
vu 1
débuts 1
observ@@ 1
militaires 1
vari@@ 1
v 0.8246579684293088
1989 0.7342757811698339
U 0.6803837972763163
hor@@ 1
ran@@ 0.9922730988473588
monuments 1
Loire 1
ah 0.7973741289980557
rest@@ 1
fondée 1
professionnel 1
sup@@ 1
décor@@ 1
mode 1
tra 1
out 0.21336667948258972
Australie 1
Nicolas 1
pén@@ 1
isée 1
mus@@ 1
von 0.04234505324421388
parents 1
localité 1
organis@@ 1
40 0.6298876221807217
composée 1
arrive 1
26 0.49862052018484687
éro@@ 1
viennent 1
joué 1
amb@@ 1
pu@@ 1
iter 1
èse 1
décrit 1
naissance 1
Beau@@ 1
offre 1
pens@@ 1
haute 1
pièce 1
sociale 1
Lyon 1
lan@@ 1
blanc 1
vers@@ 1
mat@@ 1
Ser@@ 1
ann@@ 1
bâtiments 1
rendre 1
cad@@ 1
ya 0.2832282116107315
exist@@ 1
sin@@ 1
régime 1
Premier 1
circonscription 1
acte 1
pied 1
ouverture 1
bon 1
12@@ 1
Du@@ 1
Pro@@ 0.8336158438685144
former 0.4456296624759695
patrimoine 1
dispose 1
présent 1
traité 1
navire 1
not@@ 1
jouer 1
énergie 1
noms 1
obtenir 1
dite 1
her@@ 0.5887915236334534
enfin 1
arm@@ 1
minutes 1
ak 0.6346108886929723
sig@@ 1
chansons 1
direc@@ 1
oni@@ 1
aître 1
Ne@@ 0.7129468344655345
éducation 1
phase 1
diverses 1
chargé 1
disput@@ 1
tournée 1
concernant 1
derrière 1
question 1
del 0.05147233628637798
figure 1
via 1
sac@@ 1
locale 1
moderne 1
Sé@@ 1
forêts 1
mi 1
îles 1
000 1
portent 1
catégorie 1
ani 0.9998905888294033
xe 1
équ@@ 1
Bor@@ 1
rép@@ 1
oire 1
mis@@ 1
enregistr@@ 1
Au@@ 1
til@@ 1
élève 1
classique 1
feu 1
garde 1
amp@@ 1
ote 1
transport 1
découverte 1
classé 1
considér@@ 1
lig@@ 1
serv@@ 1
continu@@ 1
lettres 1
rien 1
techniques 1
tim@@ 1
attribu@@ 1
modi@@ 1
per 0.5084660457227156
soci@@ 1
patr@@ 1
Berlin 0.7778381431980417
aut 1
capitaine 1
tir 1
bâ@@ 1
ministère 1
écrivain 1
positions 1
déroul@@ 1
5@@ 0.6254196342047428
rive 1
choix 1
belge 1
camp 1
ser 0.4951965327072476
bul@@ 1
créer 1
courant 1
autant 1
je 1
atiques 1
atoire 1
eut 1
aj@@ 0.9878022113696078
Richard 1
pay@@ 1
caractéristiques 1
cel@@ 1
fréqu@@ 1
usage 1
log@@ 1
iment 1
constitue 1
pourrait 1
couleur 1
statut 1
noir 1
ouvert 1
éditions 1
donner 1
Sar@@ 1
aus@@ 0.32927945735823844
reprend 1
1986 0.7822110639539707
bert 1
ènes 1
itaire 1
élo@@ 1
Terre 1
mal 1
appel@@ 1
adop@@ 1
este 0.4871214722804215
utilise 1
ide 1
bassin 1
économie 1
vol 1
euses 1
Association 0.8126926243519867
land 0.29122163309634325
Ang@@ 1
coul@@ 1
adi@@ 1
Alors 1
oug@@ 1
cs 1
revient 1
illes 1
cher@@ 1
ège 1
navires 1
crée 1
désigner 1
puissance 1
portée 1
dispos@@ 1
sau@@ 1
actuellement 1
Bour@@ 1
tourn@@ 1
frères 1
tours 1
Mer@@ 0.9676167980920085
conseiller 1
pé@@ 1
impos@@ 1
dernières 1
Révolution 1
dre 1
occupe 1
social 0.8096175720074873
hôtel 1
théorie 1
Caractéristiques 1
He@@ 0.7377484453315745
lique 1
exploitation 1
Sp@@ 0.7347417600645857
voyage 1
Sou@@ 1
fil@@ 1
quent 1
Synopsis 1
Is@@ 1
collection 1
stade 1
vert 1
suivantes 1
ome 1
prés@@ 1
peuple 1
ira 1
Cl@@ 1
em 0.6158831286255224
Mc@@ 0.5597573919194849
ata 0.6816972619124785
Ri@@ 1
13@@ 0.9817997948951563
génér@@ 1
Mag@@ 1
ara 0.6786582902806924
problèmes 1
emploi 1
industrie 1
architecte 1
endant 1
latin 1
hom@@ 1
if@@ 1
scientifique 1
participation 1
numéro 1
essentiellement 1
enseign@@ 1
opération 1
seront 1
ex 1
Des@@ 1
sœur 1
cœur 1
soldats 1
1984 0.7695404701499604
illon 1
frontière 1
dispar@@ 1
èle 1
mondial 1
Har@@ 0.8165269791580475
étique 1
fiée 1
parti@@ 1
entraîneur 1
objectif 1
êtes 1
exposition 1
mont@@ 1
image 1
28 0.45461904653577434
rent 1
ature 1
atifs 1
record 0.6494877745739432
défaite 1
auteurs 1
Guillaume 1
ord@@ 1
ki 1
trouv@@ 1
inv@@ 1
décision 1
sources 1
officiellement 1
coupe 1
û@@ 1
br 0.9751059604590404
ange 1
ep@@ 0.6900065113569543
cartes 1
ail@@ 1
ones 0.6937305087134161
1987 0.7337032358691837
gues 1
supérieure 1
saisons 1
devait 1
langues 1
bor@@ 1
Cour@@ 1
lis 1
aye 1
bel@@ 0.9317408313444059
oth@@ 1
Su@@ 1
palais 1
ea 0.9081492880751184
kh@@ 0.8829613018841592
der@@ 0.4882516402584591
gouverneur 1
sch@@ 0.2875869187704672
ai@@ 1
1985 0.7514240126171129
central 0.9211534205473894
arrêté 1
Malgré 1
commencé 1
ly@@ 1
tic@@ 1
auto@@ 1
idae 1
conduit 1
sites 1
obtenu 1
défin@@ 1
soviétique 1
auté 1
command@@ 1
ali@@ 1
littérature 1
1930 1
Me@@ 0.7285186764595513
actrice 1
1968 0.8447112663740588
déclare 1
fond 1
équip@@ 1
Ros@@ 1
Gar@@ 1
ens@@ 0.44506638031298346
lev@@ 1
explo@@ 1
arché@@ 1
naturel 1
remporté 1
27 0.45643726845595367
existence 1
revue 1
utilis@@ 1
Antoine 1
anie 1
formé 1
initi@@ 1
ouvre 1
Haute 1
cit@@ 1
Seine 1
pri@@ 1
2@@ 0.7264983697437998
ica 0.5811593384489425
ili@@ 1
Montréal 1
médi@@ 1
loin 1
tenue 1
aller 1
retraite 1
concours 1
single 0.45694426974490504
ler@@ 0.8059255416428425
graphique 1
importants 1
Sa@@ 1
aises 1
fix@@ 1
ys@@ 1
1945 0.5952289596628133
lin@@ 0.8504865497042283
propriété 1
Alexandre 1
oue 1
pape 1
épreuve 1
igne 1
physique 1
opposition 1
européen 1
étape 1
construire 1
environnement 1
mieux 1
iv@@ 1
taire 1
changement 1
Moyen 1
ï 1
telles 1
cre@@ 0.7129462969893317
tif 1
indépendance 1
ume 1
largement 1
1940 0.9042999111214914
agne 1
gl@@ 1
ray@@ 1
densité 1
disposition 1
expos@@ 1
1982 0.7732883574044294
critiques 1
éti@@ 1
meilleure 1
objets 1
gal@@ 1
Dame 1
établissement 1
graphie 1
ache 1
cat@@ 1
alli@@ 1
ération 1
studio 1
chan@@ 1
National 0.2650835620048793
semaine 1
françaises 1
Cela 1
remplacé 1
viv@@ 1
ologue 1
architecture 1
asse 1
ace 1
compar@@ 1
rep@@ 1
illé 1
Gal@@ 1
ous 0.31010585706050425
chi@@ 1
Assemblée 1
côte 1
recherches 1
puiss@@ 1
pe@@ 0.6780827950658153
Mat@@ 1
ond 1
fo@@ 1
semaines 1
Californie 1
permettent 1
magazine 1
suivants 1
Ren@@ 1
van 1
aff@@ 1
passant 1
contrô@@ 1
Royal 0.7135440427107232
Min@@ 1
relation 1
dés@@ 1
Autriche 1
yr@@ 1
familles 1
montagne 1
commandant 1
Str@@ 0.5688888656152845
entour@@ 1
lutte 1
Français 1
Anne 1
rejoindre 1
sen@@ 0.955398457613548
regroupe 1
textes 1
capacité 1
religieux 1
japonais 1
1983 0.7497459473956465
peinture 1
communication 1
─ 1
bus 1
are 0.057935718679704346
personnel 1
maisons 1
processus 1
matière 1
Can@@ 1
championnats 1
Ad@@ 0.7571156689462357
forêt 1
anti 1
aur@@ 1
produ@@ 1
extérieur 1
limite 1
ots 1
prison 1
isés 1
ix 1
ist@@ 0.690106098775616
journaliste 1
rement 1
superficie 1
1972 0.7528412785286704
pér@@ 1
dat@@ 1
commun 1
ouvrages 1
interpr@@ 1
longtemps 1
couleurs 1
opér@@ 1
distance 1
régulièrement 1
utiliser 1
projets 1
engag@@ 1
go@@ 1
Mexique 1
constitué 1
Notre 1
ud@@ 1
alistes 1
lat@@ 1
utilisés 1
Dieu 1
gmina 1
oblig@@ 1
décl@@ 1
tradition 1
fond@@ 1
Cro@@ 1
mobil@@ 1
fus@@ 1
Cré@@ 1
El 0.11181765935358301
animaux 1
ref@@ 1
royale 1
règne 1
ed 0.05918327165692575
marquée 1
Bernard 1
No@@ 1
Pol@@ 0.9021023778998276
rev@@ 1
radio 0.9508926217029182
effectu@@ 1
Maurice 1
sy@@ 1
diamètre 1
M. 1
durée 1
Albert 1
péri@@ 1
sommet 1
locaux 1
fabri@@ 1
nor@@ 1
Er@@ 0.3643777082549796
1973 0.78822625768523
label 1
rier 1
devint 1
hydro@@ 1
ton@@ 1
agent 1
cinquième 1
alis@@ 1
ez 1
ors 0.3173878558657644
Toutefois 1
intitulé 1
ik@@ 0.4473424660763197
Mas@@ 1
ani@@ 1
Mac@@ 0.8690071985291606
ard@@ 1
igu@@ 1
ger@@ 0.6517132739880821
quelque 1
Tour@@ 1
out@@ 0.7759939371963153
IV 1
espagnol 1
ami@@ 1
esp@@ 1
atteindre 1
dollars 1
signifie 1
veut 1
couple 1
faveur 1
information 1
aison 1
épo@@ 1
chap@@ 1
sait 1
marine 1
oles 1
Rom@@ 1
autorités 1
souff@@ 1
tran@@ 1
favor@@ 1
vot@@ 1
régiment 1
écoles 1
1976 0.759072186096856
fondateur 1
fé@@ 1
seigneur 1
désign@@ 1
ida 0.6099611103269729
za 0.690606972766003
Sous 1
crise 1
concer@@ 1
réalisée 1
ha@@ 1
bronze 1
lettre 1
réserve 1
cop@@ 1
perd 1
prit 1
1979 0.727975119758271
édifice 1
lour@@ 1
représent@@ 1
comporte 1
caractère 1
1920 0.9246469567549548
paroisse 1
1977 0.802057117002497
Kar@@ 0.6315324378671208
ie@@ 1
ault 1
fication 1
Enfin 1
1974 0.7518992893692725
importantes 1
trouver 1
originaire 1
ment@@ 1
séries 1
plantes 1
travers@@ 1
tement 1
éni@@ 1
Certains 1
Vienne 1
29 0.4516538390381605
3@@ 0.6313482657729848
américains 1
suff@@ 1
paix 1
4@@ 0.6291057493606489
contient 1
expérience 1
débute 1
Pe@@ 0.9798374537755745
fac@@ 1
Lu@@ 1
don 1
sav@@ 1
su 0.07729494093655788
ars 0.7959101557127316
connaît 1
alg@@ 1
responsable 1
chacun 1
comité 1
entièrement 1
trouvent 1
répartition 1
train 1
cer 1
chambre 1
oux 1
affaire 1
cimetière 1
événements 1
entraî@@ 1
ong 0.6608044550111749
1978 0.742688660047016
vent 1
agé 1
Inde 1
faisait 1
conflit 1
Go@@ 0.9923877210050256
nouvel 1
alisé 1
rurale 1
onnée 1
ètre 1
participé 1
remarqu@@ 1
dan@@ 1
quit@@ 1
diocèse 1
Michael 0.7056778065260815
étudiants 1
articles 1
Festival 0.8791599827181388
dée 1
trice 1
prim@@ 1
Si@@ 1
Los 0.27661222631315185
missions 1
Avant 1
Bas@@ 1
civile 1
Parlement 1
Bruxelles 1
ger 0.9088766889634309
communale 1
appartient 1
Cat@@ 1
irement 1
champ 1
ôme 1
Trois 1
déroule 1
privée 1
60 0.6602552877192127
apparition 1
side 0.3834433159058429
contin@@ 1
juste 1
pol@@ 0.9459774369315408
Henry 0.8474129325926308
Leur 1
étr@@ 1
néanmoins 1
syn@@ 1
pat@@ 1
rencontr@@ 1
Fédération 1
attraction 1
Dr@@ 0.9807801885752464
Asie 1
pron@@ 1
filles 1
dessous 1
powiat 1
Inter@@ 0.7473351842183397
tures 1
Ko@@ 1
ressort 1
Rou@@ 1
différ@@ 1
esses 1
traitement 1
commandement 1
hô@@ 1
app@@ 1
hab@@ 1
reg@@ 0.7230094383269465
ib@@ 0.9921426622590385
parvient 1
lycée 1
tro@@ 1
nu@@ 1
poly@@ 1
ber 0.7238291593917149
ailles 1
nav@@ 1
Bl@@ 0.8831609755771168
Brésil 1
mil@@ 1
lit 1
petites 1
justice 1
installe 1
provo@@ 1
Bé@@ 1
urbaine 1
usine 1
romaine 1
Ann@@ 1
rati@@ 1
Lorsque 1
maladie 1
tifs 1
transform@@ 1
épisodes 1
hockey 1
réalité 1
syndic@@ 1
actu@@ 1
enter 1
lumière 1
composition 1
artistique 1
difficile 1
uc@@ 1
aci@@ 1
mains 1
limit@@ 1
dor@@ 1
Chambre 1
vic@@ 1
ître 1
oy@@ 1
ly 0.2322193212609518
vision 1
Fl@@ 0.7668263240307803
om 0.979176558708242
lieutenant 1
variables 1
informations 1
Pal@@ 1
14@@ 0.9290448028714553
illustr@@ 1
beau 1
hôpital 1
unités 1
onc@@ 1
totale 1
1967 0.7768125211653243
heur@@ 1
ball 1
Ger@@ 0.7141806180881846
élevé 1
principe 1
libér@@ 1
féminin 1
faits 1
explique 1
amis 1
apo@@ 1
itali@@ 1
iti@@ 0.8965263402543429
tel@@ 0.7738765604981341
Je@@ 1
Av@@ 1
analyse 1
maintenant 1
étudie 1
ste 1
italienne 1
çant 1
indique 1
uti@@ 1
pot@@ 1
nég@@ 1
ds 0.8673163917244762
pon@@ 1
origin@@ 1
ordin@@ 1
prennent 1
autom@@ 1
mas@@ 0.8556183474800717
ands 1
200 0.6572619391869393
anciennes 1
commission 1
ich@@ 0.8632214424624031
diffusée 1
jeunesse 1
ek 0.8669582260511243
positi@@ 1
local 0.3589254377557556
organisé 1
diffusion 1
ug@@ 1
lit@@ 1
professionnelle 1
str@@ 0.4119024158697325
ouver@@ 1
problème 1
Lé@@ 1
infanterie 1
ros@@ 1
Âge 1
31 0.4559511812032537
mandat 1
den 0.033776114359871
approche 1
Cour 1
vous 1
vont 1
couronne 1
itement 1
poids 1
comm@@ 1
fonds 1
armées 1
doute 1
appelle 1
Vil@@ 1
condu@@ 1
marche 1
Tro@@ 1
amour 1
compositeur 1
vente 1
décret 1
Tar@@ 1
cathédrale 1
opérations 1
publiée 1
permettre 1
rugby 1
ram@@ 1
arc@@ 1
ju@@ 1
villages 1
Tou@@ 1
fortement 1
Tri@@ 0.7428716398332701
Ph@@ 0.9545666970873637
dom@@ 1
futur 1
lendemain 1
don@@ 1
propriétaire 1
iller 1
Tch@@ 1
envoy@@ 1
municipal 1
mu@@ 1
finit 1
ase 0.6970702390570626
code 1
victoires 1
vend@@ 1
déclar@@ 1
j 1
manque 1
score 1
vin 1
conc@@ 1
développé 1
ôt 1
absence 1
élèves 1
nos 1
ae 0.6467554316104526
devenue 1
Gau@@ 1
érieurs 1
uni@@ 1
chinois 1
ja 0.6732291421644303
termes 1
priv@@ 1
ita 0.7078610507125865
ignent 1
dessin@@ 1
sil@@ 1
by 0.021176345432111516
ther@@ 1
ura 0.7863344111016717
1969 0.7288709566526373
im 0.04111100486561801
Ag@@ 1
uniquement 1
collaboration 1
publication 1
Al 0.6018628822535528
étend 1
bu@@ 0.7238289406962239
oli@@ 1
Puis 1
meilleurs 1
acteurs 1
mique 1
èmes 1
Sol@@ 0.8543140500365896
pouvant 1
Tur@@ 0.9422846120875479
organ@@ 1
détermin@@ 1
ps 0.6281835529669412
ca 0.6032355204128997
ł@@ 1
voiture 1
connaissance 1
précéd@@ 1
Alpes 1
systèmes 1
mémoire 1
lam@@ 1
basé 1
prot@@ 1
Laurent 1
réun@@ 1
Esp@@ 1
neur 1
tombe 1
onner 1
fid@@ 1
psych@@ 1
écriture 1
mun@@ 1
dirige 1
rées 1
èvement 1
tiennent 1
he 0.03904177286738348
agriculture 1
fleuve 1
écr@@ 1
soient 1
appartenant 1
cla@@ 1
morts 1
tée 1
q 1
mesures 1
sorte 1
régionales 1
ke 0.37315920819532017
vra@@ 1
sauv@@ 1
Ba@@ 1
modèles 1
ari 1
80 0.7505573815052202
sp@@ 0.32362591414640574
Ni@@ 1
expression 1
grec 1
sent 0.8338773034329112
outil 1
offici@@ 1
établir 1
risque 1
réalisateur 1
candidat 1
fonde 1
NGC 1
eur@@ 1
Dou@@ 1
super@@ 0.8093143701230884
liberté 1
io 0.6397308523891491
dispute 1
prolong@@ 1
ye 0.7092827399751505
éré@@ 1
tou@@ 1
commerci@@ 1
proch@@ 1
toire 1
Maison 1
rang 1
électrique 1
ambi@@ 1
publics 1
Moscou 1
festival 1
bureau 1
Bri@@ 1
journée 1
commande 1
yn@@ 1
ho@@ 0.5210104549179407
régional 1
amment 1
douze 1
four@@ 1
plein 1
rock 0.7951132098251863
aband@@ 1
lesquels 1
ouverte 1
hy@@ 1
mann 0.5818664033720474
combin@@ 1
déplac@@ 1
pouss@@ 1
faite 1
mari 1
socialiste 1
propres 1
parcours 1
iz@@ 0.4861368585451681
accompagn@@ 1
élec@@ 1
1964 0.7302616117634483
Commission 1
résultat 1
tente 1
Algérie 1
activ@@ 1
agricole 1
cont@@ 1
har@@ 0.5861960481048301
poursuit 1
Gi@@ 1
1962 0.792251700790269
Daniel 1
esprit 1
actifs 1
fondation 1
protég@@ 1
éviter 1
pose 1
tives 1
dépend@@ 1
Marseille 1
étiques 1
Ter@@ 1
chute 1
valeurs 1
note 1
implant@@ 1
phot@@ 1
ō 1
philosophie 1
1944 0.6254702190062391
tig@@ 1
arrê@@ 1
ri 1
vote 1
accor@@ 1
participer 1
célébr@@ 1
nécessaire 1
naturelle 1
enquête 1
parce 1
sport 1
visite 1
quet 1
effectue 1
application 1
vis 1
ko 1
peine 1
proches 1
avion 1
véritable 1
médecine 1
ici@@ 1
ell 0.4032406551576935
public@@ 1
tis 1
actif 1
développ@@ 1
Irlande 1
Art 0.5789530262761655
iers 1
basse 1
lé 1
tait 1
suisse 1
compose 1
reprise 1
désigne 1
condam@@ 1
Championnats 1
isol@@ 1
présenté 1
Vie 1
rend@@ 1
produire 1
1965 0.7264197624523441
mises 1
dû 1
capit@@ 1
onde 1
scientifiques 1
travaill@@ 1
multi@@ 1
méthode 1
érique 1
ols 1
rej@@ 1
ama 0.8145458135012368
City 0.2750852076364065
travailler 1
arriv@@ 1
relativement 1
isse 1
fusion 1
Hu@@ 1
recu@@ 1
1966 0.7308437897076843
reine 1
témo@@ 1
Tor@@ 0.717555871909976
portes 1
Mari@@ 1
collabor@@ 1
pes 1
annuelle 1
ient 1
Marc 1
isses 1
isson 1
gaz 1
collège 1
Gen@@ 0.8568640694587076
séqu@@ 1
cheval 1
Sau@@ 1
Kr@@ 0.6234928146873251
ême 1
places 1
officier 1
uss@@ 1
conception 1
nés 1
Peter 0.6060552678489186
aque 1
officiel 1
ferme 1
pilote 1
neau 1
législatives 1
cho@@ 1
At@@ 0.9908912743370532
entrer 1
mène 1
Bur@@ 0.5587561281479326
René 1
rach@@ 1
moyens 1
Dev@@ 1
bour@@ 1
La@@ 1
chanteur 1
fic@@ 1
mécan@@ 1
caractérisée 1
photos 1
puisque 1
pap@@ 1
World 0.19450783332377558
ath@@ 0.7160763031286578
promotion 1
thème 1
Pré@@ 1
domin@@ 1
assurer 1
érieures 1
mir@@ 1
centr@@ 1
communiste 1
once 0.7516404998261533
euros 1
Distribution 1
domicile 1
Toulouse 1
K 0.5818670363282283
march@@ 1
mur 1
monument 1
voire 1
qués 1
domaines 1
lo 0.1845951482861041
arg@@ 1
Quelques 1
juge 1
bé@@ 1
angle 1
ciel 1
voies 1
ienne 1
Jo@@ 1
reven@@ 1
irent 1
onie 1
Et 1
cin@@ 1
traditionn@@ 1
masse 1
dure 1
lic@@ 1
dés 1
Chaque 1
45 0.69779417482674
1939 0.6864653648147674
ards 1
á@@ 0.5028245440604454
ige 0.4457610803439443
associ@@ 1
age@@ 1
trente 1
laisse 1
complexe 1
accept@@ 1
canal 1
deur 1
Do@@ 0.9282141771266202
vér@@ 1
Tout 1
crois@@ 1
pel@@ 1
ao 0.9112633260023668
raisons 1
Cou@@ 1
pouvait 1
rapide 1
pur@@ 1
disque 1
fourn@@ 1
coup@@ 1
assi@@ 1
Maria 0.9514375138445293
biens 1
engage 1
égi@@ 1
footballeur 1
accus@@ 1
arabe 1
polonais 1
intègre 1
procès 1
ferroviaire 1
Mus@@ 0.9238749028802772
idé@@ 1
écrite 1
autorité 1
économiques 1
Aux 1
1@@ 0.7945944868838409
dériv@@ 1
lot 1
my@@ 1
avions 1
gros 1
arrêt 1
met@@ 0.9559661204804205
Bre@@ 0.8102907317944993
1958 0.7707335363397669
Musée 1
uer 1
science 1
sauf 1
étranger 1
atr@@ 1
Angeles 0.9217577022553783
ect@@ 1
collec@@ 1
phone 1
Ap@@ 1
š@@ 1
élus 1
install@@ 1
trav@@ 1
ule 1
Comité 1
ulation 1
résistance 1
sif 1
aériennes 1
gé 1
ein@@ 0.24456079001325434
chi 0.9854698692572088
Mi@@ 1
Land 0.9755547794247272
&#124; 0.4688414387294138
dirigé 1
35 0.6809744934180054
détru@@ 1
distribution 1
auparavant 1
suiv@@ 1
class@@ 1
députés 1
prenant 1
ala 0.7699797543071274
naît 1
hommage 1
1866 1
réaliser 1
Celui 1
arch@@ 1
contexte 1
lec@@ 1
Démographie 1
augment@@ 1
heure 1
nant 1
ick 0.6205324767473825
populations 1
diction 1
concept 1
tera 1
endémique 1
dia 1
desc@@ 1
natur@@ 1
mesur@@ 1
êtres 1
perdu 1
officielle 1
Étienne 1
bles 1
main@@ 1
utilisant 1
he@@ 0.38638742900209866
matériel 1
semi 1
amén@@ 1
universitaire 1
Fer@@ 1
rassemb@@ 1
Suède 1
ella 0.5300553413615782
1963 0.7141200079982305
prises 1
elli 1
li 0.9498152848602524
profon@@ 1
effets 1
littéraire 1
albums 1
découvre 1
décédé 1
Kh@@ 0.8908313813532912
uv@@ 1
naturels 1
parle 1
volon@@ 1
Frédéric 1
due 0.32605494684936687
parisi@@ 1
Cer@@ 1
ha 0.2746843814945472
ble 1
pil@@ 1
bat 1
Lou@@ 1
organise 1
q@@ 1
appliqu@@ 1
vir@@ 1
mouvements 1
aura 1
culturel 1
ów 1
pa@@ 1
exploit@@ 1
entier 1
producteur 1
montée 1
climats 1
ordres 1
èche 1
initialement 1
Arts 0.8608269702442598
besoin 1
glace 1
échelle 1
gens 1
ave@@ 1
figur@@ 1
Nouveau 1
Pon@@ 1
inspir@@ 1
ze 0.6927952299574972
développe 1
façade 1
aéroport 1
roy@@ 1
respectivement 1
divis@@ 1
grille 1
Victor 1
tôt 1
plac@@ 1
ames 1
pen@@ 0.9188242894457627
eth@@ 0.9549735217513595
chasse 1
correspond 1
Mil@@ 0.9804005439843866
Ou@@ 1
1956 0.7172355167540349
oniques 1
uelle 1
Patr@@ 1
ba 0.8321951932976542
landais 1
sti@@ 0.9218548143357491
Vol@@ 1
eusement 1
32 0.7001896610751391
érer 1
marins 1
w 0.3820837587457191
circuit 1
concerne 1
Bordeaux 1
Ho@@ 0.6798649277550247
1914 0.9348857874866573
affirme 1
consid@@ 1
préfecture 1
érée 1
colonel 1
table 1
diplom@@ 1
Armée 1
entale 1
plans 1
lancé 1
circul@@ 1
zi@@ 0.9332538294727267
Im@@ 0.7586618515911463
post@@ 1
Division 0.4527651934472789
historien 1
idées 1
airement 1
acqu@@ 1
cons@@ 1
refus@@ 1
gagne 1
traverse 1
time 0.09303891904078113
rie 1
yer 0.8867472573001275
titulaire 1
médecin 1
Bon@@ 1
atis@@ 1
500 0.5851440790844716
Bu@@ 0.9697304453317431
ense 1
Croix 1
souha@@ 1
tionnelle 1
indépend@@ 1
page 1
accueille 1
1948 0.6870301668962514
atoires 1
tron@@ 1
rait 1
ographique 1
affron@@ 1
croix 1
International 0.332323431347895
St 0.7289664131006535
éen 1
retourne 1
entre@@ 1
début@@ 1
financi@@ 1
ast@@ 0.9012448803060056
Compagnie 1
div@@ 1
monastère 1
ada 0.12549275066809246
mots 1
Ti@@ 1
ennent 1
rencontres 1
1946 0.6734348228115851
caus@@ 1
génération 1
vit@@ 1
romain 1
Fin@@ 1
agglomération 1
To@@ 0.9373279213485958
succ@@ 1
matéri@@ 1
réalisation 1
yc@@ 1
ach 0.4780988353934315
tionne 1
établissements 1
anglaise 1
personn@@ 1
bass@@ 1
lou@@ 1
fédération 1
britanniques 1
croissance 1
regroup@@ 1
agr@@ 1
tionnel 1
pa 1
Washington 0.5544255496508204
bras 1
vainqueur 1
ji 1
diff@@ 1
industri@@ 1
1961 0.6998102601612043
inclinaison 1
Écosse 1
ident 1
rav@@ 1
prê@@ 1
lien 1
propos 1
Pan@@ 0.9107349356343689
Por@@ 1
ori 1
achev@@ 1
ks 0.2612546211781551
aw@@ 0.48799472621649626
Grèce 1
sociétés 1
disponible 1
Mel@@ 0.8964052988486736
cam@@ 1
conver@@ 1
connus 1
cô@@ 1
érieure 1
Sc@@ 0.9183435942494144
Aut@@ 1
tu 1
annoncé 1
publiés 1
Val 1
obten@@ 1
fusi@@ 1
Records 0.6792795342441734
périhélie 1
Ha@@ 1
Juifs 1
piste 1
considérée 1
versions 1
Culture 1
1820 1
issu 1
icien 1
ë@@ 1
locales 1
Cam@@ 1
jo@@ 1
considère 1
lard 1
décès 1
télévisée 1
guerres 1
abou@@ 1
poète 1
idé 1
chang@@ 1
exprim@@ 1
franch@@ 1
ça 1
polici@@ 1
1959 0.7141171027876155
fou@@ 1
automobile 1
choisi 1
consac@@ 1
olympique 1
Jules 1
nois 1
Groupe 1
ignant 1
médias 1
présent@@ 1
bénéfici@@ 1
victimes 1
représentation 1
quel@@ 1
fér@@ 1
orchestre 1
échange 1
Ta@@ 1
Égypte 1
mod@@ 1
représentants 1
Ville 1
chevaux 1
ic 0.19019543045001938
ro 1
US 0.24405824509993956
envoyé 1
entation 1
rer 1
combats 1
caractér@@ 1
Pas@@ 1
révél@@ 1
thèse 1
publiques 1
vivant 1
présidence 1
ox@@ 1
contact 1
résid@@ 1
accessibles 1
ière 1
marqué 1
final 0.2439375697386681
nomme 1
majeure 1
proj@@ 1
estim@@ 1
Van 1
delà 1
riche 1
Île 1
vin@@ 1
ny 1
itions 1
signific@@ 1
concert 1
Dom@@ 1
avanc@@ 1
abbé 1
érant 1
1936 0.7431959615923426
investis@@ 1
avance 1
intéress@@ 1
réseaux 1
officiers 1
ert 0.4023902922043223
1947 0.7114597859657402
sit@@ 1
régionale 1
changements 1
extr@@ 1
soir 1
lant 1
lesquelles 1
atta@@ 1
ordonn@@ 1
emplo@@ 1
terr@@ 1
déclaré 1
cant@@ 1
tir@@ 1
Don@@ 1
tan@@ 0.6987641591737455
ingénieur 1
japonaise 1
hu@@ 0.785624745338119
lin 1
ato 0.6054810564712726
dot@@ 1
diplôme 1
religion 1
impose 1
murs 1
bro@@ 1
musicale 1
exception 1
fil 1
chois@@ 1
Ju@@ 1
trains 1
sièges 1
Mont 1
José 0.7361640563836952
illy 1
ématique 1
ours 1
organisée 1
Est@@ 1
ition 1
ésie 1
exp@@ 1
Chicago 0.7461211484678228
vieux 1
sexu@@ 1
dépos@@ 1
fu@@ 1
jardin 1
transports 1
Roger 1
départemental 1
Hor@@ 0.8567319025075452
réussit 1
70 0.6487321373356851
latér@@ 1
erg@@ 1
fe 0.8187893556937306
excentricité 1
och@@ 1
mati@@ 1
étés 1
ford 0.5172202917152032
anes 1
émie 1
culte 1
quitter 1
mot@@ 1
Château 1
Air 0.5530694063034286
élé@@ 1
aces 1
bibliothèque 1
signé 1
milieux 1
estimé 1
Ben@@ 0.8703065775316071
feuilles 1
révolution 1
Tous 1
const@@ 1
mén@@ 1
reconnaissance 1
développer 1
physiques 1
alt@@ 0.8685884195570446
los 0.03215369645888537
morte 1
questions 1
restauration 1
honor@@ 1
Mir@@ 1
augmentation 1
A. 0.6045324931934952
gros@@ 1
estime 1
xi@@ 1
Insee 1
gouvern@@ 1
alier 1
front 0.661142184170152
alisée 1
appréci@@ 1
refuse 1
Denis 1
Rhône 1
pul@@ 0.8672616313356513
distingu@@ 1
dimin@@ 1
Quand 1
aît 1
trique 1
human@@ 1
ime 1
demeure 1
ressources 1
art@@ 1
espagnole 1
orité 1
véhicules 1
Christian 0.6149668363248214
régu@@ 1
ret@@ 0.835741974143692
Ol@@ 0.9971531545096267
temple 1
té@@ 1
originale 1
ison 1
sociales 1
ret 1
printemps 1
rich@@ 1
lib@@ 1
top@@ 1
certaine 1
précipitations 1
héros 1
orient@@ 1
conten@@ 1
chir@@ 1
reli@@ 1
différence 1
tué 1
écliptique 1
avocat 1
ts@@ 0.4324817699093729
90 0.6383994343010246
bout 1
Situation 1
phon@@ 1
č@@ 1
empê@@ 1
ords 1
1949 0.6742988216397645
clo@@ 1
sen 0.4707178791463268
endroit 1
rares 1
beaux 1
ola 0.9270911394654024
documents 1
partage 1
essais 1
Sam@@ 0.9247857510371456
1942 0.5843068186442417
Fran@@ 1
Orléans 1
conserve 1
Portugal 1
ver 0.6136091876307095
liers 1
vivre 1
oiseaux 1
mani@@ 1
1918 0.6897949071372481
vite 1
conférence 1
secondes 1
expliqu@@ 1
mettant 1
nations 1
voul@@ 1
majorit@@ 1
fémin@@ 1
gué 1
protest@@ 1
Ay@@ 1
flotte 1
devrait 1
tempor@@ 1
eter 1
coû@@ 1
igny 1
ys 0.7744049071085862
incar@@ 1
branche 1
évo@@ 1
odi@@ 1
Orient 1
Fon@@ 1
neaux 1
tab@@ 1
embl@@ 1
annex@@ 1
Hongrie 1
rière 1
sie 0.09982813007279918
cé@@ 1
associé 1
époques 1
ext@@ 1
métropole 1
umes 1
parten@@ 1
réserv@@ 1
serbe 1
tie 1
1957 0.6831814803176958
1954 0.7015798416484254
chanteuse 1
profit 1
inage 1
1943 0.5705830943997544
Alain 1
sociaux 1
Ru@@ 0.8476125036706647
bin@@ 1
1938 0.6530304506845388
J 0.8720366102138424
agu@@ 1
fête 1
1955 0.7040028044098728
aill@@ 1
expédition 1
sus@@ 1
ena 0.6361140457153839
enfance 1
réforme 1
restaur@@ 1
donn@@ 1
excep@@ 1
ry 0.5755782967475808
vaste 1
famili@@ 1
chœur 1
San@@ 0.7979593696769619
Fo@@ 1
consiste 1
aliers 1
Em@@ 0.7244004214688741
exemplaires 1
yeux 1
consommation 1
for 0.0138034978401527
étage 1
Chi@@ 1
élément 1
édit@@ 1
ca@@ 1
permet@@ 1
Santa 0.6326479034212712
adaptation 1
ker 0.41027778992260294
traduit 1
envis@@ 1
nation 1
sixième 1
établi 1
cir@@ 1
forment 1
thique 1
Léon 1
étrangères 1
mou@@ 1
volonté 1
Simon 1
présents 1
candidats 1
piano 1
accident 1
basée 1
noire 1
revanche 1
Ur@@ 0.6555890163399358
allemands 1
1941 0.5191854152333406
égation 1
inférieur 1
kin 1
Dur@@ 1
ous@@ 1
Mah@@ 0.9635055563478493
lent 1
cot@@ 1
seuls 1
tire 1
atelier 1
humaine 1
commercial 1
progressivement 1
Bru@@ 1
règles 1
change 0.6713611742665575
bé 1
consom@@ 1
Auguste 1
Corée 1
Maz@@ 1
possibilité 1
spécialiste 1
rois 1
cycle 1
ner@@ 0.9054017549700696
massif 1
adjoint 1
Stade 1
scènes 1
radi@@ 1
Israël 1
bon@@ 1
ruisseau 1
Petit 1
appelés 1
neurs 1
sang 1
prévoit 1
anger 1
assure 1
aider 1
sme 1
tribunal 1
versité 1
distinc@@ 1
ek@@ 0.3637467711712216
uch@@ 0.9380480631486844
retrouv@@ 1
tre@@ 0.6875622043968072
oise 1
voyageurs 1
êt 1
Genève 1
asc@@ 1
images 1
Climat 1
libération 1
endra 1
reconnu 1
placé 1
partis 1
événement 1
appro@@ 1
tue 1
1952 0.6690562213622911
Mad@@ 0.8029498653269805
XV 1
Rég@@ 1
résidence 1
bibli@@ 1
techn@@ 1
tière 1
identité 1
numér@@ 1
fos@@ 1
inform@@ 1
emplacement 1
Baptiste 1
Congrès 1
présentant 1
travaillé 1
original 0.3048965212511424
sec@@ 0.7106704150589404
ports 1
législ@@ 1
complète 1
connaître 1
romans 1
Mol@@ 1
33 0.7466326078651734
chant@@ 1
idents 1
dro@@ 1
Madrid 0.9199270467708047
plateau 1
ey@@ 0.8903573790121815
Comté 1
discours 1
notre 1
vie@@ 1
utilisées 1
up@@ 0.418402719709214
chemins 1
béné@@ 1
communal 1
tenant 1
trait@@ 1
Radio 0.776913932921702
Ham@@ 1
roul@@ 1
ail 0.9317868760993913
fabrication 1
als 0.03503525191522825
Thi@@ 1
1953 0.6938488389432201
mut@@ 1
simplement 1
suites 1
servir 1
individ@@ 1
constituée 1
flor@@ 1
médiév@@ 1
2022 0.6835110102605934
omb@@ 1
oni 1
puisqu&apos; 1
College 0.27505683612692244
imprim@@ 1
élabor@@ 1
Provence 1
trou@@ 1
League 0.2049509431523506
Sur@@ 0.8922347091807431
boul@@ 1
all 0.08542283603699374
champions 1
espaces 1
Gir@@ 1
Bro@@ 0.9416667533343451
Men@@ 1
May@@ 1
Os@@ 1
volume 1
otte 1
écos@@ 1
ode 1
siècles 1
rê@@ 1
Comp@@ 1
référ@@ 1
privé 1
Peu 1
Nations 1
Hal@@ 0.755527135855607
repris 1
prévu 1
érie 1
cule 1
programmes 1
Répartition 1
Park 0.3352538956989103
inaugur@@ 1
Pé@@ 1
mention 1
détaillée 1
lir 1
Occupation 1
Édouard 1
aud@@ 1
démén@@ 1
écar@@ 1
Étymologie 1
réper@@ 1
régulière 1
Maroc 1
apprend 1
proté@@ 1
qualifi@@ 1
émer@@ 1
religieuse 1
forc@@ 1
chefs 1
Wil@@ 0.6791182918721187
fau@@ 1
royal 1
envers 1
ores 0.6135234875167486
concerts 1
Bau@@ 0.4972776986546286
indic@@ 1
métro 1
professionnels 1
Far@@ 0.8514613781013424
cle 1
Strasbourg 1
dét@@ 1
Toponymie 1
appr@@ 1
çon 1
èles 1
écriv@@ 1
définitivement 1
Catherine 1
eil@@ 1
élev@@ 1
semb@@ 1
internationales 1
denses 1
1937 0.6830660149875887
Côte 1
artillerie 1
eries 1
direct 1
ub@@ 0.9015432144484468
convain@@ 1
personnalités 1
gh@@ 1
ces@@ 1
déta@@ 1
ras@@ 1
produc@@ 1
Jeanne 1
spectacle 1
Ram@@ 0.939653233529167
occidentale 1
consacré 1
ini@@ 1
dehors 1
Neu@@ 0.9789434612579584
précédente 1
niveaux 1
majeur 1
issus 1
Milan 1
difficultés 1
active 0.6200870394679892
Hol@@ 0.6181689682260797
sier 1
cent 1
emment 1
rendu 1
ision 1
abrite 1
pâ@@ 1
routes 1
connues 1
Or 1
Savoie 1
jaune 1
nationales 1
uz@@ 1
spor@@ 1
Économie 1
gique 1
aissent 1
sujets 1
Pom@@ 1
immédiatement 1
habitu@@ 1
battre 1
concentr@@ 1
Te@@ 0.49840457548988915
riv@@ 1
logements 1
écrits 1
conçu 1
san@@ 0.9272286174819252
Der@@ 1
baie 1
so 0.12134089281910475
tionnaire 1
quartiers 1
diffus@@ 1
asi@@ 0.8135698524390944
mâ@@ 1
éditeur 1
démocratique 1
aiss@@ 1
symbol@@ 1
rôles 1
échec 1
1933 0.6529576612122382
danse 1
parler 1
ty 0.2538386507980386
2,@@ 1
liaison 1
J. 0.6487120721828157
constitution 1
vel@@ 1
mines 1
national@@ 1
Marine 1
uy@@ 1
comparer 1
distingue 1
çons 1
légèrement 1
parallèle 1
Allemands 1
datant 1
taires 1
fiction 1
aî@@ 1
initiative 1
voitures 1
Dor@@ 0.9785208771846026
Marcel 1
Sim@@ 0.8767485578866329
préf@@ 1
Communauté 1
univers 1
flam@@ 1
ajou@@ 1
fédéral 1
Un@@ 0.37673733745983157
ose 1
1919 0.6842283301846762
id 0.4201651916963602
lée 1
courses 1
lut@@ 1
urg@@ 1
urban@@ 1
succède 1
entaires 1
ult@@ 1
Théâtre 1
montr@@ 1
européens 1
intermédiaire 1
décidé 1
aménagement 1
ez@@ 0.6587450778313448
journ@@ 1
Arthur 1
scrutin 1
bourge@@ 1
prop@@ 1
ora 0.6354766827789439
administrative 1
sén@@ 1
autrich@@ 1
tit 1
tenir 1
isées 1
prisonniers 1
allant 1
Urbanisme 1
Gor@@ 1
ois@@ 1
1951 0.6903200999569586
36 0.7198352090736518
automne 1
blanche 1
maje@@ 1
Sil@@ 1
performance 0.6093714913945179
marin 1
atte@@ 1
dynastie 1
fais@@ 1
sû@@ 1
absolue 1
franco@@ 1
peupl@@ 1
iger 0.7975349952725987
Politique 1
Dis@@ 0.63753835092787
tourne 1
animation 1
suivent 1
tements 1
dique 1
cultiv@@ 1
étée 1
Atlantique 1
ench@@ 1
érieur 1
normale 1
évalu@@ 1
phe 1
ajout@@ 1
mettent 1
qualifié 1
établit 1
Ordre 1
AS@@ 0.9386279193605304
1935 0.7067085916116324
ello 0.7607669739238478
négoci@@ 1
cycl@@ 1
lac@@ 1
chr@@ 1
établie 1
requ@@ 1
dessinée 1
donnant 1
reur 1
Ir@@ 1
ze@@ 0.7508310682267731
Nor@@ 0.6181780642011518
arbres 1
Lang@@ 0.9762433327528406
introdu@@ 1
écrire 1
associations 1
enseigne 1
Vincent 1
récit 1
Christ 1
Lam@@ 1
étend@@ 1
chevalier 1
sour@@ 1
cérémonie 1
interprète 1
épreuves 1
présidentielle 1
pourtant 1
combatt@@ 1
Nantes 1
statue 1
artis@@ 1
belle 1
rit@@ 1
Administration 1
flu@@ 1
Op@@ 1
étro@@ 1
Napoléon 1
peur 1
alog@@ 1
Cap@@ 1
exécut@@ 1
énie 1
protéger 1
écologique 1
chron@@ 1
mand@@ 1
prêtre 1
communautés 1
fortes 1
Pyrénées 1
forts 1
ilien 1
cab@@ 1
onze 1
aéro@@ 1
départementale 1
enci@@ 1
anci@@ 1
nef 1
rir 1
Reg@@ 0.4921914915085889
intervention 1
échelles 1
rues 1
mathématiques 1
Argentine 1
th 0.21359619747982575
Monde 1
européennes 1
lait 1
océanique 1
Francisco 0.6098394649186631
Vers 1
tennis 1
bil@@ 0.8139075826837527
consécu@@ 1
Haut 1
nour@@ 1
cach@@ 1
stations 1
dessin 1
aves 1
basket 1
ok@@ 0.5129362864403978
union 1
barr@@ 1
secondaires 1
alisés 1
chacune 1
gien 1
Cassini 1
débar@@ 1
demand@@ 1
soul@@ 1
enses 1
ona 0.5705906563078106
aspect 1
conséquence 1
fleurs 1
milit@@ 1
aliser 1
ima 0.8817632285478861
Pont 1
fonctionnement 1
cabinet 1
canadien 1
chose 1
ev 1
bleu 1
ider 1
étoiles 1
étrangers 1
dos 0.20301086510658342
humains 1
IGN 1
cos@@ 1
gence 1
Sor@@ 1
baron 1
Typologie 1
phénomène 1
1929 0.7094415196650946
constat@@ 1
èn@@ 1
venant 1
impliqu@@ 1
éran@@ 1
suivre 1
Organisation 1
gagn@@ 1
trafic 1
inspiré 1
vet@@ 1
duc@@ 1
féminine 1
air@@ 0.5147277319559042
ble@@ 1
tal@@ 0.7025840049039637
voû@@ 1
accepte 1
ul 1
écou@@ 1
ulin 1
patri@@ 1
avenue 1
1934 0.6944459374186455
vécu 1
arri@@ 1
archives 1
éné@@ 1
mine 1
oiseau 1
Roi 1
franco 1
distribu@@ 1
quinze 1
liés 1
enf@@ 0.8129167453550153
réaction 1
auquel 1
trône 1
appareil 1
promu 1
aun@@ 1
field 0.23439518269849893
solution 1
menée 1
gol@@ 1
surviv@@ 1
exig@@ 1
moteurs 1
fre@@ 0.6012126442124665
perte 1
onique 1
réponse 1
érées 1
Celle 1
stes 1
eint 1
humain 1
classes 1
Localisation 1
proportion 1
1932 0.7320393753236792
courte 1
classification 1
limitée 1
autonome 1
Pic@@ 1
délé@@ 1
CD 0.7333224951706399
détruit 1
Ge@@ 0.34458936042463517
├ 1
retrouver 1
impériale 1
émissions 1
sement 1
tenus 1
Néanmoins 1
entaire 1
1900 0.8248754925546437
actes 1
Mur@@ 0.9244257127190111
ister 1
Gé@@ 1
ogie 1
diffusé 1
pouvoirs 1
but@@ 1
gran@@ 1
Service 0.7830038538504148
contraire 1
AR@@ 1
victime 1
érig@@ 1
légi@@ 1
restent 1
phil@@ 1
révèle 1
iens 1
nationaux 1
sk@@ 0.3994249023681765
Disney 1
polonaise 1
chau@@ 1
châ@@ 1
temp@@ 1
montré 1
38 0.7158433840873117
tentative 1
matin 1
assist@@ 1
ont@@ 1
Barcelone 1
Il@@ 1
AS 1
circulation 1
Han@@ 0.9990748870559834
enceinte 1
sements 1
secondaire 1
conservé 1
fut@@ 1
installé 1
sugg@@ 1
Fre@@ 0.4737306002956722
avi@@ 1
Normandie 1
classée 1
scol@@ 1
mos@@ 1
vern@@ 1
enregistré 1
dépend 1
cycliste 1
évol@@ 1
Mes@@ 1
musical 0.6383911686277759
explic@@ 1
inscr@@ 1
Patrick 1
captur@@ 1
situés 1
Arm@@ 1
totalement 1
extension 1
pin@@ 1
primaire 1
sel@@ 0.45237310935763736
Sav@@ 1
conseillers 1
Bourgogne 1
correspondant 1
quart 1
ō@@ 1
oppose 1
cav@@ 1
Cin@@ 1
1928 0.6788425930113009
salles 1
lab@@ 1
Marne 1
pense 1
licence 1
300 0.6123408667750961
rattach@@ 1
igner 1
tisme 1
ium 1
pp@@ 0.6598714585655048
cherch@@ 1
néo 1
ym@@ 0.9232773780043412
CA@@ 1
aliment@@ 1
auraient 1
Franc@@ 1
sab@@ 1
assemblée 1
Smith 0.5816894143973735
religieuses 1
Lille 1
modernes 1
Vierge 1
terrains 1
Fin 1
èvre 1
décro@@ 1
oration 1
School 0.16790081216084832
paru 1
cep@@ 1
aérienne 1
conqu@@ 1
pêche 1
brés@@ 1
lanc@@ 1
400 0.6477904776236904
naturelles 1
isions 1
écl@@ 1
format 1
ériques 1
extrême 1
disparu 1
fle@@ 1
destiné 1
occupé 1
rang@@ 1
quin@@ 1
race 0.49528626881204335
Cover 1
compétitions 1
1924 0.718932316897378
Corine 1
résist@@ 1
jum@@ 1
soutient 1
constituent 1
Hér@@ 1
attention 1
désigné 1
cardinal 1
intellectu@@ 1
ā@@ 0.6345625877204925
Ban@@ 0.8119553920352495
installer 1
pointe 1
aîné 1
1910 0.7988253011587996
Dar@@ 0.5886688725353829
Thé@@ 1
rénov@@ 1
visant 1
tend@@ 1
septième 1
tro 1
arbre 1
représenté 1
ax@@ 0.9611091510147344
empire 1
Guy 1
prime 1
olog@@ 1
administratif 1
institutions 1
vendu 1
Ly@@ 0.9827016913008133
appellation 1
dits 1
chauff@@ 1
esti@@ 1
voient 1
dres@@ 1
précédent 1
contenant 1
Rus@@ 1
aques 1
ties 0.4187344987285173
AC 1
améliorer 1
ó@@ 0.43773973045201797
Juan 0.54590429585176
essai 1
einte 1
montagnes 1
ification 1
sportive 1
contribu@@ 1
ali 0.8872715054549405
Né@@ 1
ouvrir 1
Je 1
conduite 1
utilisent 1
fam@@ 1
lingu@@ 1
á 0.4870998936805083
néerlandais 1
dirigée 1
Hom@@ 1
numérique 1
battu 1
Outre 1
line 0.1941064474117321
aisse 1
cut@@ 1
dirigeants 1
éta@@ 1
méthodes 1
condamné 1
démocrate 1
illa 0.5738700605481994
doctorat 1
architec@@ 1
pique 1
comédie 1
34 0.6821257046642244
eh@@ 0.28653241422382386
ind@@ 0.6356467621414489
assemb@@ 1
trac@@ 1
chal@@ 1
indépendant 1
oires 1
alise 1
américaines 1
quantité 1
mentionn@@ 1
ges@@ 0.41900574299284726
biophysique 1
Port 1
adapt@@ 1
ball@@ 1
édité 1
pratiques 1
phare 1
Famille 1
présentent 1
prairies 1
individus 1
évolu@@ 1
SC 1
températures 1
erait 1
dos@@ 1
Jeunesse 1
véhicule 1
lié 1
langage 1
cha 0.672569418174459
qua 0.98342159704598
incendie 1
net 0.8236319604043714
couverture 1
modern@@ 1
précise 1
recrut@@ 1
nucléaire 1
ron 1
usa 1
Tom@@ 1
phones 1
CLC 1
servi 1
analy@@ 1
Cur@@ 0.8208326655431102
rig@@ 1
col 1
ati 1
Antonio 0.8279369116748385
donnée 1
comprenant 1
égalité 1
érés 1
ingéni@@ 1
pein@@ 1
hydr@@ 1
enregistrement 1
1870 1
atie 1
Super 0.8196736046282278
Music 0.37581635845740446
structures 1
ico 0.49875401190386065
équipage 1
lion 1
musiciens 1
ajoute 1
CE@@ 1
installation 1
succes@@ 1
complet 1
uri@@ 1
Tokyo 1
similaire 1
port@@ 1
Lorraine 1
complètement 1
affir@@ 1
venu 1
vig@@ 1
performances 1
liées 1
0@@ 0.5022467838931641
élevée 1
isa 1
grade 1
loy@@ 1
cens@@ 1
coopération 1
somme 1
toile 1
trouvé 1
Né 1
adap@@ 1
sel 1
conç@@ 1
contrain@@ 1
traduction 1
étudier 1
centres 1
organisations 1
ël 1
raconte 1
Rec@@ 0.6932227126191114
Jésus 1
1925 0.7197708945529285
ographiques 1
liqué 1
rester 1
intitulée 1
tien 1
attaques 1
trouvait 1
lancer 1
Ste@@ 0.5068819348516376
act@@ 1
isti@@ 1
totalité 1
vas@@ 1
harmon@@ 1
sortir 1
profes@@ 1
profondeur 1
présenter 1
spécifique 1
étoile 1
las 0.03944697670462669
saires 1
décr@@ 1
noy@@ 1
nou@@ 1
istiques 1
végét@@ 1
veille 1
coût 1
géographique 1
Hy@@ 0.9631601309652675
arde 1
dig@@ 1
az 0.851303918831731
crimin@@ 1
mondi@@ 1
miques 1
Lor@@ 1
phy@@ 1
tendance 1
individu@@ 1
cultures 1
í@@ 0.3002846115621849
croy@@ 1
éens 1
1912 0.7241091601691241
Pou@@ 1
TV 0.30973603759747903
Aur@@ 1
ust@@ 1
généraux 1
canadienne 1
étab@@ 1
accueil 1
desservie 1
transition 1
maximum 1
civil 0.7370462747908165
Raymond 1
propriétés 1
docteur 1
juive 1
Turquie 1
identique 1
eta 0.554541393265432
Zélande 1
plu@@ 1
deviennent 1
1931 0.6963555630055757
preuve 1
répar@@ 1
provinces 1
aro 1
ési@@ 1
quotidien 1
Sec@@ 1
péd@@ 1
interprétation 1
itation 1
liée 1
Let@@ 1
eine 0.042138220730489895
planète 1
construits 1
dir@@ 1
amiral 1
accro@@ 1
multiples 1
visible 1
consult@@ 1
inscription 1
observatoire 1
ensis 0.7840592535874371
tem@@ 1
Enf@@ 1
chapitre 1
affect@@ 1
confir@@ 1
influenc@@ 1
oncle 1
intr@@ 1
cellules 1
Châ@@ 1
Certaines 1
itaires 1
oul 1
éo 1
den@@ 0.37396914541839266
archevêque 1
rappel@@ 1
Év@@ 1
abond@@ 1
cy@@ 1
parlementaire 1
transfert 1
suc@@ 1
comment@@ 1
décer@@ 1
instruments 1
jur@@ 1
directe 1
interne 1
tâ@@ 1
Trans@@ 0.7827958210531172
criptions 1
typologie 1
conclu@@ 1
pleine 1
tournage 1
introduit 1
avis 1
tion@@ 0.8073476570959103
ban 0.7598115082469753
quotidi@@ 1
ativement 1
propriétaires 1
aile 1
42 0.7212926458765159
cip@@ 1
Bay@@ 1
Jusqu&apos; 1
tradu@@ 1
oz@@ 1
témoign@@ 1
couv@@ 1
liens 1
invent@@ 1
églises 1
Serbie 1
exécution 1
affluent 1
documentaire 1
peintures 1
Bol@@ 0.9594220602725207
Constitution 1
quées 1
météorologique 1
étudi@@ 1
sing@@ 1
masculin 1
antique 1
aux@@ 1
troit 1
lande 1
Pap@@ 0.9550459795202737
64 0.5818922519436662
postes 1
thi@@ 1
barrage 1
Affaires 1
terminé 1
solo 0.4132170620877737
tiv@@ 1
land@@ 0.5033084938371203
quanti@@ 1
taient 1
sem@@ 1
scénario 1
charg@@ 1
capable 1
Ker@@ 1
besoins 1
remonte 1
Texas 0.5122198411339681
apparaissent 1
Population 1
Lee 0.6954248423234761
Luxembourg 1
remplacer 1
Max 1
vrai 1
commer@@ 1
évolué 1
andi@@ 1
Palais 1
élevage 1
galerie 1
invasion 1
devenant 1
con 0.03396969922766898
ouch@@ 1
1921 0.692504150725717
Colombie 1
Rem@@ 1
emprun@@ 1
républic@@ 1
Wal@@ 0.5950254598844678
origines 1
icul@@ 1
1926 0.6778767073658214
orientale 1
provenant 1
accompagné 1
cy 1
United 0.09759278561860853
geant 1
venue 1
èses 1
ions 1
industriel 1
Ukraine 1
lecture 1
arc 1
unies 1
dan 0.7713635124122328
élite 1
Alfred 1
illage 1
récol@@ 1
alie 1
onnés 1
Finlande 1
agence 1
vac@@ 1
1922 0.6819269870336998
tin@@ 1
Mot@@ 0.805354703233556
davantage 1
destruction 1
définition 1
West 0.22127457294411101
Œuv@@ 1
situées 1
condition 1
itch 1
Fort 0.8709617039067069
ventes 1
notion 1
fédér@@ 1
Président 1
ier@@ 0.4856627625828064
ancer 1
arme 1
culturelle 1
indé@@ 1
Sénat 1
laissant 1
teau 1
Norvège 1
réduit 1
American 0.09910680067617511
tirer 1
essentiel 1
Vic@@ 1
alm@@ 0.8609792603897101
alco@@ 1
facilement 1
comportement 1
collections 1
Liège 1
icité 1
métrage 1
maritime 1
Venise 1
genres 1
prob@@ 1
envoie 1
observations 1
Vill@@ 1
poésie 1
ling 0.3170493244961472
acquis 1
récomp@@ 1
Football 0.49191841967510563
ple@@ 0.8043224788972769
illet 1
Quatre 1
aim@@ 1
internationaux 1
Danemark 1
rage 1
archi@@ 1
rejo@@ 1
décisi@@ 1
recueil 1
ab 0.16707588722473188
Cre@@ 0.635437631433029
lancement 1
Saison 0.448225546519909
gren@@ 1
zième 1
37 0.6862567977624139
Ben 1
brû@@ 1
Jack 0.8301806737855256
orn@@ 1
plante 1
Rhin 1
voc@@ 1
document@@ 1
laisser 1
je@@ 0.7584137747353272
Mary 0.5336861664229237
Ferr@@ 1
My@@ 1
mul@@ 1
Az@@ 0.9441305921094593
populaires 1
noble 1
matern@@ 1
programm@@ 1
Bat@@ 0.8386022669534516
Force 0.6146545603943733
Gro@@ 0.9900977698444109
extrémité 1
Lac@@ 1
PS 1
ligue 1
entales 1
mené 1
rapports 1
entraîne 1
ception 1
Blo@@ 1
journaux 1
eu@@ 1
champs 1
bie 1
sus 0.12231010655859549
sélectionné 1
gamme 1
bateau 1
impéri@@ 1
Hel@@ 0.594546234298197
vain@@ 1
représentent 1
astr@@ 1
exc@@ 1
plant@@ 1
disparition 1
Camp@@ 1
lement 1
Ke@@ 0.7147287247957749
budget 1
cylin@@ 1
let@@ 1
1917 0.6082986577176146
tiré 1
institu@@ 1
amélior@@ 1
matériaux 1
sculp@@ 1
fie 1
Tom 0.8820858267584217
Louise 1
donnent 1
Mul@@ 1
micro@@ 1
zo@@ 1
Nice 1
illée 1
* 0.1727893121498559
1927 0.6605037449298884
unes 1
engagé 1
tile 1
éph@@ 1
onale 1
électronique 1
nomination 1
huitième 1
pensée 1
nière 1
75 0.6607915371765861
ow@@ 0.38832404798479336
revenir 1
reprendre 1
Aus@@ 0.2257472172656804
citoyens 1
Laur@@ 1
Eugène 1
aï 1
Ét@@ 1
CN@@ 1
stein 0.5154056151591523
zi 1
B. 0.43017441424665637
pierres 1
hypothèse 1
conservateur 1
convo@@ 1
Internet 1
sis 1
yg@@ 1
Grâce 1
grecque 1
times 0.3406521124944722
technologie 1
versant 1
attach@@ 1
proposition 1
sam@@ 1
océan 1
uil 1
installations 1
nécessaires 1
endr@@ 1
matr@@ 1
mille 1
tac@@ 1
tourné 1
sive 0.6091050522386459
deviendra 1
visi@@ 1
éat 1
Uni@@ 1
bur@@ 0.41750801529286713
interdit 1
choisit 1
sportif 1
amo@@ 1
Mou@@ 1
démocrati@@ 1
itz 0.6155532689557072
spectateurs 1
Garonne 1
réduire 1
Bir@@ 0.8598375429246188
test@@ 1
divisions 1
canons 1
Caroline 1
ef@@ 0.46634435371878624
opéra 1
milliers 1
légende 1
mur@@ 1
guitare 1
seraient 1
fonc@@ 1
ectifs 1
Fi@@ 1
mage 1
risques 1
inhum@@ 1
Ari@@ 1
Cu@@ 0.8184190321283954
Ca@@ 1
contenu 1
SS 0.9214216717500868
chercheurs 1
office 0.4097005391232711
voi 1
We@@ 0.43735479802328603
congrès 1
supprim@@ 1
informatique 1
formule 1
procur@@ 1
Rio 1
Gabriel 1
catholiques 1
mon 1
relais 1
Pacifique 1
Dro@@ 1
oi 1
tableaux 1
récemment 1
da@@ 1
jus@@ 1
montrer 1
52 0.7493356718637648
explor@@ 1
ieux 1
parts 0.5424227902193554
sir 1
fices 1
réput@@ 1
Na@@ 1
succession 1
blan@@ 1
réunion 1
caractérise 1
thèmes 1
alliance 1
autrefois 1
sac 1
minaire 1
conquête 1
animal 1
cherche 1
ctu@@ 1
duo 1
classiques 1
aceae 0.8118042881113148
astique 1
évèn@@ 1
ôts 1
coups 1
menace 1
produite 1
quasi 1
èques 1
glob@@ 1
av. 1
Francis 1
concentration 1
pre 0.8657805979827956
uli@@ 1
cavalerie 1
ela 0.6180070443815832
parole 1
symbole 1
ary 0.14708132889781944
na@@ 1
giques 1
popular@@ 1
remplacement 1
ares 0.7828444091129712
imagin@@ 1
monstr@@ 1
princesse 1
réus@@ 1
évoque 1
éclair@@ 1
préparation 1
sar@@ 1
étapes 1
1923 0.664166721723646
1,@@ 0.5772644983100386
Black 0.4744575400533709
ost@@ 0.7616876751559757
pom@@ 1
J.-C. 1
intérêts 1
Noël 1
Olivier 1
suppos@@ 1
dessins 1
annonc@@ 1
blessé 1
colonie 1
électricité 1
ense@@ 1
brigade 1
changer 1
hameau 1
ova 1
Parc 1
und 0.007870205411228777
successeur 1
million 0.2537291142789677
48 0.6718064866403366
tus 1
pic@@ 0.9942479663640802
pré 1
étrang@@ 1
accord@@ 1
off 0.1813380163841833
tourisme 1
responsabilité 1
diffic@@ 1
hol@@ 0.421382468188016
ere 0.28358496624217333
disponibles 1
finales 1
oncé 1
spatial 1
baptis@@ 1
ennemi 1
Var@@ 1
Int@@ 1
compter 1
seignement 1
maintenir 1
dieu 1
ef 1
tomb@@ 1
Gérard 1
Mich@@ 1
cercle 1
exerc@@ 1
éenne 1
Bil@@ 0.9883649105845327
grave 1
Finalement 1
Renaissance 1
Bass@@ 1
souhaite 1
Mass@@ 1
FF 1
bot@@ 1
Frank 0.7361454661926992
lem@@ 1
Mark 0.6057131222711148
expositions 1
sais 1
bi 1
VI 1
venus 1
alb@@ 0.8457963303072069
Bois 1
affront@@ 1
ref 1
Christophe 1
vues 1
iche 1
Cy@@ 1
antaine 1
formée 1
Lib@@ 1
néces@@ 1
variations 1
catégories 1
primer 0.3695898443343195
mour@@ 1
tun@@ 1
traditionnelle 1
dér@@ 1
améli@@ 1
veau 1
lia 1
participent 1
jusque 1
onnais 1
Alsace 1
RE@@ 1
Dem@@ 0.8190754340298166
Mau@@ 1
Syst@@ 1
jazz 1
russes 1
55 0.6888757369934018
manifestations 1
couvre 1
sir@@ 1
flan@@ 1
baisse 1
départements 1
Galles 1
magnitude 1
itant 1
Ali@@ 1
URSS 1
mol@@ 1
cantons 1
criti@@ 1
télévis@@ 1
souver@@ 1
démar@@ 1
Fondation 1
encour@@ 1
ômes 1
suffis@@ 1
Kat@@ 0.6976909030470111
toral 1
limites 1
vaut 1
impact 1
ky 0.6395909243560209
enté 1
étu@@ 1
by@@ 1
qualifie 1
sœurs 1
Météo 1
formations 1
âtre 1
drapeau 1
comman@@ 1
Ancien 1
aut@@ 0.7374525622711373
gratu@@ 1
vaisseau 1
vigueur 1
ten 0.06542987738954012
revenu 1
engagement 1
accueillir 1
remon@@ 1
changé 1
fiant 1
qualification 1
coloni@@ 1
go 0.3308814029830318
oti@@ 1
commencent 1
milliards 1
Trav@@ 1
objectifs 1
république 1
Land@@ 0.3200687967954262
Lar@@ 1
Journal 1
Jou@@ 1
Emmanuel 1
berg@@ 1
chem@@ 1
1913 0.7068504534213909
artifici@@ 1
tex@@ 1
Sab@@ 1
atures 1
of@@ 0.510435370001865
remplac@@ 1
uni 1
bombard@@ 1
renommée 1
gagner 1
65 0.43972473299189746
ett@@ 0.9563047760293187
inférieure 1
montrent 1
relève 1
scénariste 1
44 0.5897648804147438
embar@@ 1
défen@@ 1
remplace 1
aches 0.8553930247660051
noblesse 1
Dan@@ 1
éma 1
calendrier 1
pou@@ 1
mâle 1
boî@@ 1
Edward 0.6392601435068903
Mos@@ 0.9258975796628065
aujourd 1
usion 1
huile 1
1905 0.7484201739187019
inverse 1
conservation 1
Hall 0.3868894527534219
tér@@ 1
quali@@ 1
oï@@ 1
Ed@@ 1
chinoise 1
peau 1
Luc@@ 1
SA 1
pages 1
éra 1
poissons 1
caractéristique 1
39 0.7109391965420951
anisme 1
fournir 1
Pour@@ 1
recevoir 1
men 0.13647611239610752
deven@@ 1
let 0.5605047335632556
récu@@ 1
gène 1
Origine 1
effectué 1
limi@@ 1
iner 1
mauv@@ 1
Émile 1
Maur@@ 1
orientation 1
travailleurs 1
historiens 1
situ@@ 1
Marguerite 1
démol@@ 1
Yves 1
1911 0.7397274118587833
employé 1
campagnes 1
industrielle 1
asser 1
régul@@ 1
quels 1
centaines 1
nation@@ 1
appu@@ 1
Résultats 1
ck 0.8925027517123708
fixe 1
nique 1
fédérale 1
chrétienne 1
réglem@@ 1
agée 1
colon@@ 1
propag@@ 1
ko@@ 0.7921666845512164
standard 0.711062440746211
plaine 1
cession 1
assassin@@ 1
ik 0.4679475035907321
Star 0.6046566966063173
uls 1
renom@@ 1
mener 1
tho@@ 1
pilotes 1
seaux 1
choses 1
dh@@ 1
tax@@ 1
bloc@@ 1
entière 1
céré@@ 1
procé@@ 1
lever 1
Red 0.47516847282447205
Hab@@ 1
traces 1
Prince 0.7654483250658244
ap 0.590767255839322
réussi 1
empris@@ 1
Cap 1
transféré 1
effectuer 1
laissé 1
C. 0.4330358314281652
portrait 1
frag@@ 1
Et@@ 1
S&apos; 1
femelle 1
Jérusalem 1
proposé 1
empar@@ 1
Fils 1
Lord 0.6644054933892672
conférences 1
Aujourd&apos; 1
ailes 1
plaçant 1
meilleures 1
quoi 1
séjour 1
nul 1
semblent 1
Munich 1
enta 0.7627881991154242
emp@@ 0.6280319158009708
maç@@ 1
partisans 1
Pu@@ 1
abor@@ 1
aisons 1
hal@@ 0.4272288436806471
dirig@@ 1
Florence 1
inscrits 1
Pat@@ 0.7667222530963558
entretien 1
í 0.5424751820159517
usse 1
onal 0.7633015720391708
bases 1
peuples 1
foresti@@ 1
ignon 1
couvent 1
bless@@ 1
ical 0.19210097627743522
égyp@@ 1
Nov@@ 0.9407591413832184
Germain 1
étudié 1
répand@@ 1
évacu@@ 1
pieds 1
climatique 1
leader 0.6094599841312668
rédaction 1
clocher 1
Gol@@ 1
impres@@ 1
Vau@@ 1
banque 1
yd@@ 1
illés 1
faculté 1
lov@@ 1
subit 1
favorable 1
portait 1
pole 1
tot@@ 1
paroles 1
relie 1
banlieue 1
noter 1
chrétiens 1
vins 1
cien 1
employés 1
soins 1
frapp@@ 1
monte 1
Long@@ 1
affich@@ 1
trol@@ 1
longues 1
éro 1
prosp@@ 1
6,@@ 1
gardien 1
suivie 1
7,@@ 1
mécanique 1
Luc 1
mathém@@ 1
papier 1
puisse 1
neur@@ 1
zo 0.9437725792254019
pétr@@ 1
chor@@ 1
accessible 1
fe@@ 0.2577419910384475
annul@@ 1
soutenu 1
titude 1
discipline 1
consacre 1
judiciaire 1
vec@@ 1
règle 1
environs 1
Company 0.33262253444152984
quarante 1
Pin@@ 1
Prague 1
Gre@@ 0.6292351792837809
mauvais 1
ologues 1
lim@@ 0.9873404525637324
mér@@ 1
ouvriers 1
Autres 1
défendre 1
relief 1
supplémentaires 1
compagnies 1
indépendante 1
bandes 1
min 1
serie 0.45656161412205604
amen@@ 1
esta 0.23650279709666525
mixte 1
description 1
danger@@ 1
Bosnie 1
sons 0.7329358907270153
écur@@ 1
dimanche 1
War@@ 0.5222150764651909
chiffre 1
conscience 1
iciens 1
reté 1
Lev@@ 1
laï@@ 1
Congo 1
Dominique 1
onymes 1
vall@@ 1
hétérogènes 1
acide 1
embr@@ 1
portés 1
Hil@@ 0.936650206285079
Super@@ 0.6215115906204285
amie 1
és@@ 1
oli 1
1908 0.7368953518615374
Julien 1
ern@@ 0.4207030431410357
présentée 1
violence 1
myth@@ 1
érité 1
progr@@ 1
blancs 1
ash@@ 0.5350961415905143
érir 1
mac@@ 1
Scott 0.7752539963903273
41 0.709311544539278
hél@@ 1
affecté 1
côtes 1
qui@@ 0.7198557899414737
allemandes 1
volumes 1
Légion 1
front@@ 1
poursuivre 1
repose 1
descend@@ 1
véri@@ 1
possession 1
réel 1
habitat 1
43 0.7177868721541854
fro@@ 1
sélectionn@@ 1
cite 1
précisément 1
bru@@ 1
chargée 1
édée 1
Gl@@ 0.6802690694260946
exer@@ 1
passent 1
lers 0.5276276022339367
Dj@@ 1
duché 1
attendre 1
principes 1
écran 1
util@@ 1
Sic@@ 1
oh@@ 0.5788877587681021
Gas@@ 1
blo@@ 1
heim 0.6175855827500765
tères 1
appui 1
Lis@@ 1
hos@@ 1
aventure 1
boud@@ 1
dées 1
polé@@ 1
cri@@ 1
cli@@ 1
King 0.28179017949221935
etti 0.9482072148630171
mass@@ 1
célèbres 1
O&apos; 1
Den@@ 1
tél@@ 1
Sig@@ 1
contemporaine 1
pluviométrie 1
ito 0.483919164435904
personnalité 1
détach@@ 1
ich 0.38939122579334756
scolaire 1
provoque 1
urbain 1
contrairement 1
machine 1
Jan@@ 1
Iran 0.8852868426859674
inal 0.902973844567736
document 1
far@@ 0.8763317951653471
bach 0.4658104586272678
# 0.4495418440054696
hautes 1
reti@@ 1
Tak@@ 0.810012235706887
particulière 1
glaci@@ 1
aga 0.908724092204171
Cos@@ 1
responsables 1
juifs 1
nat@@ 1
Fe@@ 0.5415494196012675
débit 1
relev@@ 1
RA@@ 1
Lan@@ 1
user 1
dict@@ 1
montant 1
vul@@ 1
maîtrise 1
confirm@@ 1
municipales 1
fruits 1
stat@@ 0.871990755972034
Person@@ 1
francs 1
mages 1
poèmes 1
Lim@@ 1
rare 1
traite 1
Vend@@ 1
eront 1
Région 1
jan 1
reliant 1
comprendre 1
st 0.26596308570638577
destinée 1
interrom@@ 1
Open 0.5765767513054102
Pa@@ 0.9463629902392989
doubl@@ 1
élue 1
exerce 1
âgé 1
menac@@ 1
plat@@ 1
correspondent 1
remporter 1
Kal@@ 0.5624160786608485
machines 1
vières 1
four 0.12960924761500667
invité 1
Fri@@ 1
adolesc@@ 1
anges 1
Nu@@ 1
contest@@ 1
radic@@ 1
Direction 1
décrite 1
Anna 0.8994521849780168
passagers 1
Nom@@ 1
mit@@ 0.4586738718360497
mélange 1
glo@@ 1
néerland@@ 1
frontières 1
Lab@@ 1
utes 1
vise 1
ero 0.34511858143650187
Ra@@ 1
.. 1
calcul@@ 1
ministres 1
stratégie 1
W 0.3946309209751635
suffrages 1
électr@@ 1
juridique 1
aéri@@ 1
Walter 0.7904753974749308
puits 1
vint 1
DVD 0.9215023306899397
moines 1
dén@@ 1
Roumanie 1
tesse 1
Bataille 1
paraît 1
isser 1
réalisés 1
Méditerranée 1
consacrée 1
mix@@ 1
peint 1
Arab@@ 1
présidente 1
orth@@ 1
alp@@ 1
pertes 1
tori@@ 1
meur@@ 1
boulevard 1
arables 1
vapeur 1
Karl 0.560439084190406
del@@ 0.40677035992469995
parlement 1
spir@@ 1
Alger 1
découpage 1
cinquante 1
ave 1
accep@@ 1
anciennement 1
abrit@@ 1
Situ@@ 1
pyr@@ 1
EP 0.8483463328480224
enqu@@ 1
dégrad@@ 1
personnelle 1
trait 1
laboratoire 1
universités 1
renouvel@@ 1
soutenir 1
Bâ@@ 1
troph@@ 1
Mer 1
graphe 1
organisme 1
orique 1
ute 0.6850846984532852
transformation 1
vil@@ 1
ourg 1
Boston 0.6715061360130162
urba@@ 1
quitté 1
ele 0.5826342453442614
pis@@ 1
RC 1
\ 1
affirm@@ 1
Lig@@ 1
photographie 1
révolutionnaire 1
duquel 1
ivre 1
Auc@@ 1
outils 1
Homme 1
èges 1
fondateurs 1
contempor@@ 1
successivement 1
51 0.7372354301941101
efforts 0.9480202877853393
agents 1
chantier 1
variété 1
ine@@ 0.8483508983007757
Fland@@ 1
Street 0.27053813625887024
Rab@@ 1
baptisé 1
fera 1
traversée 1
ron@@ 1
ussi@@ 1
Basse 1
illi@@ 1
bilité 1
Chev@@ 1
baseball 1
alien 1
abol@@ 1
Fa@@ 1
ans@@ 0.45437730205906807
transmission 1
avent@@ 1
autoroute 1
expér@@ 1
compétences 1
financement 1
onds 1
organiser 1
ian 0.30529549619418556
illons 1
Kam@@ 0.8670823861666835
enregistre 1
ney 0.6245787822943903
lies 0.4594031917576481
marquis 1
secret 1
spéciale 1
Nancy 1
fondament@@ 1
déterminer 1
una 0.028835350751372793
rose 1
fran@@ 1
recher@@ 1
ei 0.46975750435752406
ieu 1
contre@@ 1
libéral 1
vestiges 1
Chili 1
théor@@ 1
pauv@@ 1
ius 0.9432064063247282
ok 0.6527785310417618
ament 1
maréchal 1
1906 0.7458763064356957
austr@@ 1
ila 0.7534919163020869
1880 1
comment 1
Nar@@ 0.9922368218123861
Rev@@ 0.9841776526209001
ff 0.6579182151245772
dramatique 1
propul@@ 1
Tra@@ 1
Présentation 1
attribué 1
érien 1
tuer 1
revenus 1
spécialisée 1
Hon@@ 0.9289828918866625
correc@@ 1
conseils 1
awa 1
Ford 1
Lav@@ 1
lières 1
continent 1
regroupant 1
œurs 1
Rad@@ 0.6886873503011202
adr@@ 1
che@@ 1
attent@@ 1
correspond@@ 1
réputation 1
47 0.6949608686180324
jardins 1
battant 1
desserv@@ 1
oubli@@ 1
crits 1
aç@@ 1
Jones 0.6367209025762091
asti@@ 1
rouges 1
liqu@@ 1
alliés 1
riches 1
frais 1
46 0.6879735414371655
Bos@@ 1
ES@@ 1
équival@@ 1
fir@@ 0.6264611713713415
mairie 1
ographe 1
séri@@ 1
way 0.13406324830570507
oyer 1
défenseur 1
Front 1
recommand@@ 1
introduction 1
test 0.7175396765851036
recens@@ 1
athlète 1
Ci@@ 1
chô@@ 1
pouvaient 1
tchèque 1
augmenter 1
Eur@@ 1
sports 0.6834438300464172
terror@@ 1
US@@ 0.5971985143619862
représenter 1
ationn@@ 1
publications 1
confiance 1
edi 1
graphiques 1
Cameroun 1
1907 0.7295181442292421
coalition 1
rappelle 1
édon@@ 1
retrait 1
bilan 1
cht@@ 1
fouilles 1
relati@@ 1
morceaux 1
rendent 1
paysage 1
mit 0.021701489819128762
férence 1
ech@@ 0.4570091828896567
ui 1
Contexte 1
tienne 1
intégré 1
vivent 1
Grenoble 1
tonnes 1
civil@@ 1
20@@ 0.6835331864104
énor@@ 1
Red@@ 0.5469252973172113
ster 0.39149001440571735
funér@@ 1
communau@@ 1
seigneurie 1
filiale 1
étition 1
aka 0.8386126871483293
intention 1
tués 1
fenêtres 1
syst@@ 1
largeur 1
esthé@@ 1
citer 1
sim@@ 0.9652892786162417
aille 1
obtenus 1
han 0.33007612621348514
péninsule 1
équivalent 1
agres@@ 1
plais@@ 1
économ@@ 1
recev@@ 1
dition 1
avantage 1
ral@@ 1
récompens@@ 1
Rouen 1
définiti@@ 1
collectiv@@ 1
vier 0.3514687949668159
uf 1
placée 1
caractères 1
Lec@@ 1
exil 1
8,@@ 1
cm 0.5336220841377387
évoluant 1
Boul@@ 1
german@@ 1
préfet 1
abandonné 1
traj@@ 1
ki@@ 0.527483773436432
mm 0.3838733881427045
générales 1
fréquemment 1
instrument 1
maladies 1
Lie@@ 1
exécutif 1
nées 1
marie 1
destination 1
poule 1
franchise 1
Sel@@ 0.6720351772614549
fant@@ 1
latine 1
fal@@ 0.7590565206538881
empêcher 1
neu@@ 1
Ceci 1
répartis 1
méda@@ 1
autonomie 1
collectif 1
ung 0.07419477432003428
administrativement 1
hie 1
conséquences 1
inger 0.45361161248883547
roues 1
facilit@@ 1
métropolit@@ 1
Dau@@ 1
jouent 1
annu@@ 1
appe 1
limité 1
institution 1
Voir 1
rection 1
productions 1
cre 1
Ven@@ 0.9627795940117236
climatiques 1
amitié 1
cler@@ 1
pôle 1
Naples 1
difficulté 1
sév@@ 1
prononciation 1
Z 0.6434960708293281
alim@@ 1
adj@@ 1
débat 1
sais@@ 1
électriques 1
que@@ 1
blessés 1
effectif 1
bientôt 1
ga 0.6018338461767347
organismes 1
entraînement 1
onom@@ 1
canon 1
Tunisie 1
transfé@@ 1
Bab@@ 1
istre 1
tic 0.3288555070432863
Anglais 1
seigneurs 1
Élections 1
veur 1
représentations 1
vé 1
provient 1
domesti@@ 1
wood 0.35272871421289353
influ@@ 1
Y 0.517651499785392
défini 1
Victoria 0.6796367311649135
Ali 0.9768762910911105
èg@@ 1
illant 1
adapté 1
bos@@ 1
marié 1
CO@@ 0.910068090455208
49 0.6900096851392973
calc@@ 1
nent 1
dimension 1
porta 1
bac@@ 1
pre@@ 0.1516771042915811
salari@@ 1
commerciale 1
homonymie 1
confi@@ 1
quer@@ 1
approxim@@ 1
PC 1
financière 1
Awards 0.4050701248524227
1904 0.747835731621985
foi 1
offensive 1
treize 1
sym@@ 1
exclusivement 1
Équipe 1
tourner 1
soleil 1
trés@@ 1
fili@@ 1
myst@@ 1
présentation 1
Varsovie 1
régi@@ 1
formant 1
sifs 1
adopté 1
1901 0.8135409766673105
usé 1
1915 0.6264057852536333
ographies 1
particip@@ 1
stock@@ 1
Manuel 0.8911632290114582
Rich@@ 1
potenti@@ 1
Tu@@ 0.7828224314553435
sculpture 1
catégorisée 1
secours 1
Q 0.8076032898539443
eri 0.8068909713386968
Montpellier 1
amm@@ 0.7007419270464251
Mand@@ 0.9246395338477412
ick@@ 0.3432414726186667
cu 1
séparation 1
saut 1
découvrir 1
médailles 1
Blan@@ 1
remp@@ 1
décident 1
rattachée 1
dédiée 1
révolte 1
cinémat@@ 1
red@@ 0.9461914403123614
clin@@ 1
milli@@ 1
hon@@ 0.7325124016074651
restr@@ 1
pourquoi 1
conséquent 1
remarquable 1
56 0.7123211461045669
54 0.6879515905316903
amateur 1
mê@@ 1
figures 1
otes 1
sk 1
verre 1
rab@@ 1
nommés 1
53 0.7259035087957106
clip 1
trom@@ 1
échapp@@ 1
Contrairement 1
Dol@@ 0.8872085526088579
Adam 1
Williams 0.6417005671893271
Don 0.6159570076991188
Slov@@ 1
cell@@ 1
assistant 0.8815372969990711
végétation 1
lav@@ 1
mobilier 1
délég@@ 1
connex@@ 1
aver@@ 1
feu@@ 1
franc 1
1860 1
forteresse 1
lancée 1
bénéficie 1
ih@@ 0.8322917948401701
maximale 1
partiellement 1
afric@@ 1
Aff@@ 1
Salon 1
atom@@ 1
val 1
Rouge 1
1890 0.8571089581017375
sembl@@ 1
andi 1
ika 0.7618312541807688
commémor@@ 1
vide 1
forcer 1
batterie 1
voile 1
Géorgie 1
quel 1
neveu 1
simil@@ 1
aph@@ 1
Cav@@ 1
toit 1
œil 1
ago@@ 1
dizaine 1
agir 1
acces@@ 1
exercice 1
norm@@ 1
Activ@@ 1
composés 1
expansion 1
faux 1
usi@@ 1
citoy@@ 1
Ferdinand 1
colonnes 1
inauguré 1
paramètres 1
goût 1
Tours 1
Composition 1
remise 1
dres 1
èrement 1
elier 1
ener 0.5449852798678514
Man 0.44750312582089324
AR 1
élevait 1
oué 1
maîtr@@ 1
dil@@ 1
Carlos 0.5823643289424325
ings 0.12573271045412718
attr@@ 1
déclaration 1
coureur 1
Kor@@ 0.5178202636910483
Les@@ 1
IN@@ 0.9848627260932628
les@@ 0.6162073817725013
concurrence 1
poème 1
P. 0.7357709152950731
ameaux 1
employ@@ 1
Auvergne 1
Mis@@ 0.9578608430173082
comportent 1
iné 1
adversaire 1
etta 1
simples 1
Même 1
suprême 1
dez 1
appareils 1
répondre 1
ût 1
1909 0.712403512648441
ax 1
édé 1
éventu@@ 1
acquisition 1
parall@@ 1
étages 1
César 1
Rap@@ 1
fich@@ 1
Pas 1
suédois 1
acle 1
Metz 1
jouant 1
charges 1
atus 0.7355946154489038
fur@@ 1
Ka@@ 1
estimée 1
championne 1
reb@@ 1
compr@@ 1
aér@@ 1
réduction 1
otr@@ 1
domination 1
étaire 1
wa 0.3412792508256588
divisé 1
faç@@ 1
équipements 1
communi@@ 1
relative 1
dies 0.5934375770298568
Plan@@ 0.7553156947112898
musicien 1
Joe 0.7464353092251992
troubles 1
proclam@@ 1
Dam@@ 0.8978648298816758
roch@@ 1
haus@@ 1
Sir 0.5213833294164587
négociations 1
orbitales 1
participants 1
spécifiques 1
compren@@ 1
ham 0.6493872322065634
pousse 1
éry 1
Ga@@ 1
contribue 1
confirme 1
senti@@ 1
Alexander 0.5001164798429931
spatiale 1
prêt 1
traditionnel 1
62 0.7117488254153417
disques 1
rédig@@ 1
échapper 1
adver@@ 1
Tourn@@ 1
accords 1
Giovanni 1
Toutes 1
moindre 1
alimentation 1
structur@@ 1
varie 1
destin@@ 1
vois@@ 1
épis@@ 1
Ot@@ 1
musulmans 1
périodes 1
57 0.7104420278800322
strat@@ 1
aki 0.9440084854298879
uns 1
Gilles 1
rique 1
Ach@@ 1
présentes 1
AC@@ 0.8910753184298433
pharm@@ 1
verg@@ 1
annon@@ 1
contemporain 1
quin 1
humaines 1
cér@@ 1
reconstruction 1
conse@@ 1
attaquant 1
Society 0.3420379518581581
références 1
remis 1
Formule 1
plate@@ 1
concurr@@ 1
pit@@ 1
1916 0.6218397832890679
détec@@ 1
gn@@ 1
gares 1
cités 1
ado 0.057250249912468756
accél@@ 1
colline 1
Ori@@ 1
traits 1
ibl@@ 1
san 1
bataillon 1
particular@@ 1
dis 1
minim@@ 1
incorpor@@ 0.9825450160055422
XIII 1
propor@@ 1
arrêter 1
uk@@ 0.4352479586738171
ende 0.22601322018522893
gor@@ 1
nau@@ 1
externes 1
cum@@ 1
Mak@@ 0.7541446774611151
observation 1
S. 0.5660636071307941
72 0.7175429462589424
réélu 1
Anti@@ 0.9936035491140434
Maj@@ 1
endommag@@ 1
communications 1
ett 0.44488054514268566
apprentissage 1
ovie 1
ish@@ 0.4411661444776272
ever 0.3254602293940695
applications 1
Versailles 1
sculpteur 1
sph@@ 1
ceau 1
conserver 1
échecs 1
tol@@ 1
Banque 1
installée 1
Lem@@ 1
achat 1
anda 0.8562034859943963
épar@@ 1
villa 1
150 0.6565423302308796
cho 0.1513423401116194
décennies 1
moul@@ 1
Hans 0.624228088554138
doul@@ 1
Love 0.510326867681954
défaites 1
hi 0.8578856293350594
fen@@ 1
lave 1
métr@@ 1
cules 1
ua 0.665610974098415
reux 1
efficace 1
définit 1
clé 1
devaient 1
Sac@@ 1
bord@@ 1
fum@@ 1
conces@@ 1
Direc@@ 1
espagn@@ 1
op 0.7261668829718121
astron@@ 1
aper@@ 1
ids 0.44507150163943576
puissant 1
Samuel 1
cham@@ 1
intervient 1
affiche 1
audi@@ 1
rencontrent 1
associée 1
ech 1
noirs 1
trophes 1
consist@@ 1
récup@@ 1
ories 1
appartenait 1
Tre@@ 0.5578949727299203
Ak@@ 0.43518867812962175
pop 0.7023837752266381
Parallèlement 1
oxy@@ 1
virus 1
çu 1
échanges 1
rot@@ 0.6105788757044441
dimensions 1
démission 1
présentées 1
touche 1
import@@ 1
sonne 1
prévue 1
chimie 1
logique 1
cesse 1
Chapelle 1
écol@@ 1
1848 1
oul@@ 1
NBA 0.9827099320762668
araignées 1
nécessité 1
municipale 1
Afin 1
ota 0.6262687086601098
plat 1
clair 1
crime 1
danger 1
Gare 1
fique 1
laur@@ 1
œur 1
Pér@@ 1
morceau 1
convention 1
natale 1
Capit@@ 1
héritier 1
urgie 1
Mit@@ 0.5772927468266664
magné@@ 1
métier 1
ennemis 1
concl@@ 1
ecclési@@ 1
accéder 1
Sen@@ 0.637598142178986
anne 1
Ing@@ 0.9597913165907374
èlement 1
penser 1
accompagne 1
Carl 0.7050223033986142
différent 1
acier 1
tige 0.6264632360516812
norvé@@ 1
raf@@ 1
bis@@ 1
expériences 1
souverain 1
existent 1
rédu@@ 1
bol@@ 0.808490115642779
ateliers 1
lés 1
mam@@ 1
meurtre 1
On@@ 1
carbur@@ 1
spiritu@@ 1
civils 1
abe 1
biais 1
ny@@ 1
électorale 1
Rennes 1
signature 1
Tal@@ 0.682567028139612
pê@@ 1
Floride 1
réunit 1
Adri@@ 1
culaire 1
ismes 1
3,@@ 0.8225454964876943
oy 1
Lin@@ 0.5322378679158889
modé@@ 1
fournit 1
58 0.7082576907974614
approuv@@ 1
possèdent 1
imposer 1
fun@@ 1
conflits 1
estre 1
SP@@ 1
tées 1
batt@@ 0.7951483291157977
inond@@ 1
dues 1
Saxe 1
Tam@@ 0.9955931770767797
fermeture 1
ives 0.9910328256274953
secteurs 1
environn@@ 1
Vel@@ 1
alisées 1
diplômé 1
adresse 1
yle 1
queue 1
iro 0.8688056992433235
issante 1
soirée 1
bons 1
comédi@@ 1
inqui@@ 1
Johnson 0.6098629577592112
Cham@@ 1
surveillance 1
développée 1
fréquente 1
Ty@@ 0.9903925310935761
rog@@ 1
albédo 1
Jos@@ 1
adis 1
prénom 1
Lac 1
tend 1
extrêmement 1
retrouvent 1
eurent 1
théâ@@ 1
terrestre 1
pèler@@ 1
erne 1
Communes 1
Syrie 1
uctures 1
Rob@@ 0.9096089969854767
journalistes 1
Très 1
bateaux 1
1902 0.7431589462024332
signifiant 1
post 0.35709569598657187
ouvr@@ 1
IE@@ 1
solaire 1
faites 1
reçut 1
respec@@ 1
Toronto 0.7673983007428942
ambassadeur 1
familiale 1
dent 1
Kon@@ 0.333002161743846
contraint 1
portugais 1
raient 1
Jam@@ 1
çoit 1
ingen 0.35299583246172483
candid@@ 1
isations 1
Fou@@ 1
FA 0.7960345784521393
ock 0.48863503871973796
seize 1
junior 1
RS 1
histori@@ 1
traités 1
Guy@@ 1
commerciales 1
cousin 1
Oise 1
démo@@ 1
spec@@ 0.5959242778745713
voisins 1
omorphes 1
yst@@ 1
Fab@@ 1
sid@@ 1
écart 1
ill 0.40016341846318476
manifest@@ 1
évêques 1
immédi@@ 1
ukrain@@ 1
facteurs 1
enfu@@ 1
quier 1
1830 1
ulu 1
aissant 1
Jan 1
indig@@ 1
tribue 1
erreur 1
quelles 1
sul@@ 1
relé@@ 1
matur@@ 1
mée 1
lun@@ 1
mo 0.8000045840976165
éroï@@ 1
coéqui@@ 1
uter 1
couche 1
ancé 1
bau@@ 0.5751603957052567
classés 1
Ontario 0.8300134743054614
Amsterdam 1
R. 0.6613758114511525
camps 1
anniversaire 1
Aix 1
africaine 1
monter 1
pili@@ 1
urbanisées 1
oll@@ 0.6397527304451018
attaché 1
soumis 1
annes 1
itr@@ 1
ilienne 1
rapporte 1
resté 1
orgue 1
L. 0.774668834317286
VII 1
63 0.7096528288603778
procédure 1
inj@@ 1
méridi@@ 1
Pen@@ 0.6317592270774642
avenir 1
paroissi@@ 1
suffisamment 1
démissi@@ 1
retire 1
Racing 1
ū@@ 1
Pot@@ 0.9644562167388971
sortant 1
cible 1
époux 1
insectes 1
champ@@ 1
Collège 1
carbone 1
méditerran@@ 1
Cot@@ 1
monnaie 1
tournant 1
hongrois 1
intégrer 1
Brown 0.5325819730267484
1903 0.7192859540179227
républicain 1
satis@@ 1
abl@@ 0.94419196205907
tern@@ 1
Gil@@ 0.9678813125304581
renforc@@ 1
libres 1
cuisine 1
gaz@@ 1
bureaux 1
igné 1
Vit@@ 1
égale 1
non@@ 1
Pres@@ 0.42209125605977865
consul@@ 1
seau 1
enterré 1
Sin@@ 0.796099047538031
tracé 1
atri@@ 1
culturelles 1
commissaire 1
visage 1
Barr@@ 1
Él@@ 1
Rh@@ 1
inclut 1
onnées 1
examen 1
Mu@@ 0.6193264441593983
soulig@@ 1
env@@ 1
esclaves 1
continuer 1
pes@@ 1
Ensuite 1
territoriale 1
Alliance 1
onction 1
ections 1
soixante 1
Athènes 1
paysages 1
niers 1
All 0.18765826064097466
Ernest 1
théologie 1
annuel 1
resp@@ 0.8225024193648174
provisoire 1
clients 1
marchés 1
mes@@ 0.894376738631147
abandonne 1
Hill 0.4383809406421239
manif@@ 1
Palmarès 1
Arn@@ 1
Eng@@ 0.9632839805067466
recours 1
adultes 1
Jac@@ 1
considérés 1
sénateur 1
onaux 1
Kong 0.7299380560413367
procédé 1
nie 1
institut 1
dirigeant 1
UA 1
sainte 1
troupe 1
Mouvement 1
Soleil 1
calculer 1
95 0.6541158141882272
aig@@ 1
excell@@ 1
Cant@@ 1
acher 1
anime 1
universitaires 1
59 0.7061171076727235
DC 0.8069471776047914
Britanniques 1
phonie 1
capital 0.323286656425161
len@@ 0.4569552835395124
érienne 1
aquie 1
jette 1
portail 1
rythme 1
salon 1
refl@@ 0.7404214011633612
contribué 1
Fac@@ 1
augmente 1
ponts 1
protec@@ 1
Dum@@ 1
bus@@ 0.6281366817199986
charbon 1
sent@@ 1
cancer 1
Félix 1
Défense 1
rarement 1
respect 1
répond 1
gue 1
Temple 1
ouge 1
music@@ 1
Guinée 1
histoires 1
galaxies 1
maillot 1
occuper 1
ist 0.019535823285165177
paro@@ 1
nuclé@@ 1
Cup 0.18011891706592745
gies 1
Cass@@ 1
67 0.735786096263099
Sy@@ 0.5934240606590989
jury 1
appell@@ 1
group@@ 1
saient 1
omé@@ 1
différente 1
Éducation 1
mobile 1
connaissances 1
longs 1
Nic@@ 1
trag@@ 0.7060647736448157
Bill 0.6202362413578194
travaillent 1
israéli@@ 1
demander 1
guitariste 1
ilique 1
visiteurs 1
Déc@@ 1
Kir@@ 0.8077647642258049
ué 1
sives 1
ress@@ 1
télescope 1
bact@@ 1
gri@@ 1
servant 1
Gren@@ 1
Jackson 0.6922462139054396
dynamique 1
logiciel 1
minimum 1
aly@@ 1
pous@@ 1
nourriture 1
68 0.777999121213002
hectares 1
vieille 1
Sem@@ 0.7891941316304113
Harry 0.8509100633694205
White 0.36737118165800703
ématiques 1
Ard@@ 1
Mars 1
Chris 0.7879257878148409
tch@@ 1
rétab@@ 1
Résumé 1
commença 1
Hir@@ 0.9588959652079083
rupture 1
colonies 1
renouv@@ 1
vingtaine 1
métalli@@ 1
kar@@ 0.48396215307387136
Kan@@ 0.5164359769555497
tint 1
expose 1
osa 0.39410456835589935
capacités 1
étudiant 1
Aub@@ 1
monté 1
cass@@ 1
pourraient 1
vanie 1
web 0.9460144335527938
hen@@ 1
opérationn@@ 1
poursuite 1
archipel 1
tap@@ 1
intéresse 1
spécial 1
atten@@ 1
Antiquité 1
blessure 1
gard@@ 1
minér@@ 1
rétr@@ 1
tivité 1
constructions 1
agré@@ 1
Dal@@ 1
Oc@@ 1
ington 0.49441901356229667
financier 1
molé@@ 1
nies 1
bin 0.9317102001976919
fréquence 1
yn 0.8800907374703815
lanceur 1
zaine 1
cru@@ 0.6674499889584723
équilibre 1
arrivent 1
admir@@ 1
Convention 1
E. 0.5801557971760807
din@@ 0.6912012104359113
afflu@@ 1
arabes 1
vocation 1
Blanc 1
plage 1
centaine 1
académie 1
AN@@ 0.9915069087951666
tention 1
Navy 0.46500142981208226
lan 1
mentionné 1
dial@@ 1
collabore 1
fermé 1
gothique 1
mées 1
ouvrent 1
restes 1
voisine 1
vendus 1
Jus@@ 1
Bavière 1
omb 1
Nous 1
Cel@@ 1
sag@@ 1
Hôtel 1
motifs 1
libéré 1
Chan@@ 1
Not@@ 0.6363145786248235
érance 1
Bruno 1
préci@@ 1
Son@@ 1
dispositif 1
départementales 1
ese 0.1761561544156255
retrouvé 1
vention 1
repos@@ 1
établ@@ 1
PS@@ 1
ć 1
moi 1
Fil@@ 0.7218526393767949
bloc 1
attend@@ 1
demandé 1
acquiert 1
obst@@ 1
perspective 1
73 0.732930073629931
ę@@ 1
onnaires 1
Pier@@ 1
critères 1
voisin 1
Reims 1
Rose 1
maintien 1
neuvième 1
achet@@ 1
Tony 0.9270115093114697
itude 1
lées 1
Nationale 1
uri 1
communistes 1
Sébastien 1
ava 0.9746613035211392
Virginie 1
agissait 1
FI@@ 1
exemples 1
évid@@ 1
arron@@ 1
peintres 1
ètres 1
Bibliothèque 1
House 0.18466353737548652
ë 1
appuy@@ 1
homosexu@@ 1
potentiel 1
cide 1
Américains 1
1er 1
color@@ 1
découvertes 1
gris 1
1793 1
vidé@@ 1
ith 0.9764287083743473
génie 1
fisc@@ 1
pren@@ 1
Som@@ 1
Constantinople 1
quatorze 1
66 0.6822232091828743
oud 1
ics 0.2241311459085265
ignan 1
blé 1
rédacteur 1
déplacement 1
colonne 1
confront@@ 1
Flor@@ 1
ffe 1
verse 0.7249399492659693
Ul@@ 0.6596155108666445
traduc@@ 1
Santé 1
Prusse 1
Field 0.8877611756787341
oto 0.7850975583669386
Corse 1
inventaire 1
manches 1
encad@@ 1
dénomination 1
plaque 1
podium 1
sections 1
vêtements 1
chanc@@ 1
branches 1
sey 0.6536270871052449
associés 1
apporte 1
autorisation 1
hou@@ 1
efficacité 1
écrivains 1
Transports 1
attaquer 1
Début 1
Accueil 1
und@@ 0.2542697758476406
1898 0.7587762092823609
étendue 1
Bot@@ 0.7852668400240674
aul@@ 1
chimi@@ 1
lon 1
rentre 1
Benoît 1
nécessit@@ 1
littéraires 1
ingue 1
ord 1
accueilli 1
possibles 1
arité 1
hosp@@ 1
eo 0.4148661561673371
remportant 1
Museum 0.30017096950250305
Saône 1
espoir 1
Pre@@ 0.40535726960195206
aspects 1
Clermont 1
tribu 1
Chem@@ 1
ec 1
cardi@@ 1
Hou@@ 1
gagné 1
inspec@@ 1
optim@@ 1
message 1
Cau@@ 1
Rock 0.507053972958024
remplacée 1
intégration 1
ved@@ 1
utile 1
ester 0.9465080832883797
conflu@@ 1
dépôt 1
marques 1
mourut 1
diminution 1
occ@@ 1
disant 1
1871 0.9711312543661277
maroc@@ 1
stati@@ 1
quai 1
sauver 1
Team 0.34297728093058544
prestigi@@ 1
listes 1
abr@@ 1
Big 0.4770703684306459
Mike 0.739245675737111
conduc@@ 0.9455737847316851
mexic@@ 1
spécialisé 1
intérieure 1
secr@@ 1
Bul@@ 0.7199145204275512
quarts 1
Boh@@ 1
confé@@ 1
ogr@@ 1
littéralement 1
lire 1
tons 1
61 0.7368196172372298
hiér@@ 1
itent 1
prol@@ 1
Én@@ 1
âme 1
Laval 1
Lit@@ 1
œufs 1
résolution 1
tam@@ 1
ene 0.1833954536951945
tirs 1
Maine 1
You 0.3636301304031533
ash 0.6144334071390412
ums 0.4572959258238148
figurent 1
veuve 1
ergie 1
cier 1
voyages 1
regard 1
has@@ 1
ann 0.9929588792093865
Sans 1
Sport 1
Lorsqu&apos; 1
reconnue 1
bonnes 1
donna 1
portées 1
Young 0.5484235564857141
touch@@ 1
èglement 1
Envir@@ 1
flexion 1
sélections 1
Roland 1
ension 1
Aquitaine 1
Steve 0.8015978513536123
Vir@@ 1
promouvoir 1
degré 1
fol@@ 0.7332375993207764
chaînes 1
85 0.6590408646171614
payer 1
maîtres 1
nien 1
Rue 1
D. 0.49938614099007533
Lau@@ 1
Canal 1
tiles 1
lines 0.43296600142148434
Buc@@ 1
professionn@@ 1
od 0.4595408577761189
cription 1
admis 1
rh@@ 1
christi@@ 1
Production 1
ee 0.29155822191265035
Chez 1
One 0.18504719379206347
alent@@ 1
couver@@ 1
hebdomadaire 1
africain 1
nobles 1
océ@@ 1
constructeur 1
dy 0.5928264191770276
tension 1
égard 1
québécois 1
Bell@@ 1
Vis@@ 0.7929957663736849
Tél@@ 1
cyrillique 1
Sports 0.7040316927103517
Europ@@ 1
chaussée 1
arrête 1
1896 0.7731269011561271
précé@@ 1
assassinat 1
IX 1
Cul@@ 1
sanc@@ 1
tut@@ 1
més 1
proces@@ 1
ettement 1
14,@@ 1
représentée 1
opposé 1
faute 1
entré 1
wan 1
sé 1
amor@@ 1
sélec@@ 1
Fal@@ 0.8179608046353405
Log@@ 1
synth@@ 1
isit 1
plas@@ 1
Util@@ 1
dédié 1
Mans 1
syl@@ 1
esté 1
doté 1
èque 1
naval 1
seules 1
génétique 1
modifications 1
endro@@ 1
Diff@@ 1
chen@@ 0.8312061417802517
ajouter 1
Kur@@ 0.3778513408331153
sable 1
Hong 0.6988746000074484
acad@@ 1
ments 0.2731618696105272
infrar@@ 1
pion@@ 0.9540695212092182
Calais 1
irlandais 1
ris@@ 1
décou@@ 1
réclam@@ 1
lès 1
Chau@@ 1
justi@@ 1
Top 0.5543857589377903
chasseurs 1
commenc@@ 1
fermée 1
cen@@ 1
fortune 1
mensu@@ 1
OS 0.8183708758680328
manche 1
équipé 1
autel 1
Conn@@ 0.9421841081180627
retir@@ 1
incluant 1
marchandises 1
réalisées 1
guer@@ 1
Acc@@ 1
gués 1
feuille 1
manus@@ 1
surnommé 1
Jar@@ 1
Pass@@ 0.9610956484645252
Bob 0.7727477361236409
forti@@ 1
xième 1
ordonne 1
SA@@ 0.9851053181441944
rain 1
Code 1
correspondance 1
impul@@ 1
froid 1
électeurs 1
possédait 1
dist@@ 0.6959060839187463
vus 1
Bureau 1
Livre 1
magistr@@ 1
signal@@ 1
Étu@@ 1
hauts 1
alimentaire 1
manuscrit 1
diz@@ 1
gau@@ 1
gouvernement@@ 1
Sk@@ 0.5766805615469991
path@@ 0.9577902726647676
déchets 1
anglo 1
australi@@ 1
conventi@@ 1
mets 1
opinion 1
supplémentaire 1
Arg@@ 1
ambass@@ 1
parcour@@ 1
1889 0.8464868836411801
olo 1
house 0.1698761158691434
calcul 1
iy@@ 0.6278122010797155
Bulgar@@ 1
dri@@ 1
moy@@ 1
ip@@ 0.7916308541429149
atmosphère 1
estation 1
fiés 1
CI@@ 1
asin 1
Chal@@ 1
bats 1
sanctuaire 1
satellite 1
supérieures 1
sovi@@ 1
Pro 0.8317071754756522
portraits 1
léger 1
privilégi@@ 1
Lincoln 1
ř@@ 1
aviation 1
Gou@@ 1
physi@@ 1
esque 1
impression 1
réduite 1
Ier 1
spect@@ 1
spectacles 1
naz@@ 1
sexe 1
amont 1
destinés 1
Cher@@ 1
andes 1
bain 1
criv@@ 1
pseudonyme 1
sprint 1
comptes 1
Madeleine 1
Charlotte 1
basque 1
facteur 1
ignes 1
Six 1
Thierry 1
urgence 1
décoration 1
super 1
Fol@@ 0.7747093310418478
médecins 1
dément 1
culturels 1
neutr@@ 1
ruines 1
verte 1
impossible 1
minist@@ 1
ž@@ 1
vill@@ 1
philosophe 1
Père 1
ibles 1
ilier 1
notes 0.9368652415929604
athlétisme 1
tissement 1
inspiration 1
rais@@ 1
bourse 1
iment@@ 1
rez 1
anique 1
Ku@@ 0.8124850122930907
Ceux 1
juri@@ 1
çoivent 1
affili@@ 1
internet 1
abandon 1
Sand@@ 0.6013317583484793
retourner 1
normes 1
missionn@@ 1
Fle@@ 1
garanti@@ 1
Johann 0.46813917530431437
Membre 1
chien 1
1895 0.7549477143626537
électoral 1
liné@@ 1
grotte 1
9,@@ 1
flot@@ 1
doublé 1
Eric 1
Award 0.24134207730901416
liber@@ 0.6431826951659988
retirer 1
âgée 1
congr@@ 1
Bonn@@ 1
grandi@@ 1
préserv@@ 1
faus@@ 1
carré 1
AD@@ 0.9086361435588339
chiffres 1
Nam@@ 1
perdre 1
cents 1
onnage 1
échan@@ 1
clan 1
ôle 1
partenariat 1
86 0.6994833684809925
Loi 1
éton 1
North 0.1299301702066489
éduc@@ 1
partout 1
Bag@@ 1
Bak@@ 0.8551336608237462
élector@@ 1
wall@@ 1
inclus 1
rières 1
Roc@@ 1
gouver@@ 1
suscep@@ 1
probable 1
circons@@ 1
Pascal 1
voulait 1
fêtes 1
guér@@ 1
alla 1
ignée 1
restaurant 1
{ 0.783923530952985
réfugiés 1
IC@@ 0.8238196028814985
aval 1
grec@@ 1
han@@ 1
archie 1
└ 1
subi 1
gée 1
1850 1
orial 1
Élisabeth 1
ensi@@ 1
prieur@@ 1
fas@@ 0.7866915644499688
estr@@ 0.4137760877457086
Bern@@ 1
encadr@@ 1
prest@@ 1
lon@@ 1
tère 1
statistiques 1
án 0.23728048028352208
Deuxième 1
tiens 1
particuliers 1
× 0.6821096246645554
réser@@ 1
Chap@@ 1
visibles 1
décor 1
Da@@ 1
$ 0.10236329064546268
ters 0.198591641217962
ras 1
SNCF 1
Ble@@ 1
ury 1
aya 0.44619595798656486
tribus 1
héritage 1
eville 1
pauvres 1
âg@@ 1
77 0.7216364367198228
assé 1
fres@@ 1
top 0.18080516291593732
vidence 1
Deb@@ 0.8738640251036914
fis@@ 1
Classement 1
bar 0.27222137277337677
instruction 1
navig@@ 1
fuite 1
All@@ 0.6981869869323896
anais 1
occidental 1
alé@@ 1
émig@@ 1
mél@@ 1
Diego 0.7491626508890334
bén@@ 1
loge 1
prison@@ 1
Développ@@ 1
Miss 0.8499115173385849
progrès 1
diplô@@ 1
amour@@ 1
cous@@ 1
détruite 1
environnement@@ 1
construites 1
nières 1
Châte@@ 1
accusé 1
chimique 1
ionn@@ 1
Cinq 1
Post@@ 0.8899991651519996
quette 1
midi 1
Off@@ 0.7254878753550807
H. 0.5468606481866648
Herzégovine 1
commencer 1
vitr@@ 1
Route 0.45098211715751674
crivant 1
occupée 1
1885 0.8242439276733942
1899 0.7175299807094935
Mario 1
Cab@@ 1
conform@@ 1
support 0.20261097115842366
600 0.5738445848090298
Pétersbourg 1
garçon 1
arque 1
ryth@@ 1
tox@@ 1
traditions 1
stratégique 1
erte 0.318037515797087
ung@@ 0.2638978605778769
photograp@@ 1
tois 1
tari@@ 1
galaxie 1
74 0.6958571989966007
camp@@ 1
variable 1
illi 1
Garde 1
chante 1
Sophie 1
ON@@ 1
chrom@@ 1
solutions 1
technologies 1
Group 0.2556388194328999
états 1
expérim@@ 1
agon@@ 1
Isabelle 1
Island 0.27500529428862847
pos 1
Sul@@ 1
complexes 1
riers 1
importe 1
islamique 1
oa 0.6935216767897208
optique 1
Kol@@ 0.4848095720026284
elin 1
Benjamin 1
Eff@@ 1
pier 1
Conservatoire 1
identifi@@ 1
immeuble 1
reç@@ 1
lerie 1
Gré@@ 1
studios 1
ïd@@ 1
fem@@ 1
ennie 1
Petite 1
88 0.6892714012824076
Pri@@ 0.7698478639141633
Blanche 1
foss@@ 1
Rivière 1
Alexand@@ 1
lu 1
entaux 1
800 0.5930184157735245
primiti@@ 1
gâ@@ 1
sensibil@@ 1
fra@@ 1
distinction 1
future 0.45882476175914827
zy@@ 0.9059084081259812
juif 1
89 0.7429547685140026
1893 0.8036519757403072
illustre 1
café 1
sky 0.5062923946090537
“ 0.023870864930356242
Tol@@ 1
matches 0.4695191705500887
dra@@ 0.6770235695873172
sessions 1
1897 0.7160178882797763
num@@ 1
morph@@ 1
Parcours 1
Hay@@ 0.779858097379919
71 0.6647778216496115
enter@@ 0.9435914176002649
err@@ 0.4517597611273571
we@@ 0.2619938523483158
tibles 1
AM@@ 0.8409503629485503
Té@@ 1
dier 1
Quant 1
Elizabeth 0.6309502459737215
Libération 1
Pérou 1
Center 0.2695066205943979
continental 1
ples 0.8031224019301137
MA 0.7938130473037491
èvres 1
incap@@ 1
kilom@@ 1
G. 0.728851683311038
astronom@@ 1
privil@@ 1
ska 1
chance 1
Ret@@ 1
otique 1
auto 1
phénom@@ 1
diver@@ 1
join@@ 1
aristoc@@ 1
Friedrich 0.40428193721173195
tenues 1
aug@@ 1
metal 0.5874924141058778
urn@@ 1
graph@@ 1
Cri@@ 1
13,@@ 1
aum@@ 1
expres@@ 0.6935805555081833
fins 1
lule 1
minute 0.7870103871061255
tail 1
idi@@ 0.7408879427224245
Brest 1
investi@@ 1
Hamilton 0.8995358122336008
Carlo 1
extra@@ 1
chrétien 1
migr@@ 1
int 1
bo 0.9238182268390817
stric@@ 1
Pav@@ 1
fasc@@ 1
armé@@ 1
navigation 1
Alice 1
eti@@ 0.6027650874251148
chers 1
pand@@ 1
isième 1
PC@@ 1
descendants 1
DA 1
pli@@ 1
amoureux 1
Anvers 1
approv@@ 1
fontaine 1
incendi@@ 1
abil@@ 1
dém@@ 1
emble 1
diagnos@@ 1
rates 0.9274132065194713
ignement 1
brun 1
Ministère 1
soi 1
Tem@@ 1
69 0.6855463065099039
chée 1
Centr@@ 1
Luis 0.5501604003173426
set 0.12650148600532815
nit@@ 1
eng 0.6694012485801648
indis@@ 1
solide 1
A.@@ 0.7279889788925022
DE@@ 1
instaur@@ 1
dé 1
yp@@ 0.5881240326077547
Hitler 1
gi 1
ple 1
adul@@ 1
tia 0.6504098968291191
ack 0.46100410776798434
thiop@@ 1
Architecture 1
virtu@@ 1
anthro@@ 1
ègue 1
Office 0.5868514487856581
Docteur 1
Gran@@ 0.9054980072291008
paci@@ 1
entreti@@ 1
courts 1
Françoise 1
Point 0.7888813969080715
ism@@ 1
1867 0.9591728641585932
Tab@@ 0.9036653410201738
simultan@@ 1
Hugo 1
narr@@ 1
flux 1
Liv@@ 1
concep@@ 1
répon@@ 1
92 0.6896176397888995
ón 0.17310607620602667
UN@@ 0.7171500256080843
divin@@ 1
1790 1
76 0.6555030632958269
Sciences 0.8360685688807159
ondes 1
fabric@@ 1
noi 1
durable 1
surprise 1
bran@@ 1
couverte 1
ruption 1
Place 1
cess@@ 1
tramway 1
CS@@ 0.9930618118179189
AP@@ 0.8019340614084655
net@@ 0.9522572739586821
seu@@ 1
amateurs 1
Serge 1
manifestation 1
imoine 1
écu@@ 1
87 0.7428240348409274
banc@@ 1
burg 0.3217014280027546
Chin@@ 1
phases 1
Survey 1
pro 0.5401320317296682
Justice 0.6781987182753101
posséd@@ 1
serp@@ 1
Pau@@ 1
93 0.6888974673538608
Pel@@ 0.9570464862755867
mad@@ 0.738063964006242
deurs 1
Moselle 1
Riv@@ 1
5,@@ 0.8117703142752865
78 0.6780929386723906
mini 1
enl@@ 1
vet 1
MS 0.7916955328544514
ectif 1
Formation 1
alis 0.7260317518142888
tum@@ 1
Gouvernement 1
serves 0.7436494569140718
finances 1
Bertrand 1
Kou@@ 1
Arch@@ 0.895080647283957
Fern@@ 0.901973401069627
incer@@ 1
suppl@@ 1
quar@@ 1
SE@@ 0.8652267268497894
héri@@ 1
Covid 1
plate 1
Dec@@ 0.4952383080423761
liqui@@ 1
Irak 1
can 0.060752986535449235
Cad@@ 1
pilot@@ 1
vertic@@ 1
4,@@ 0.7482288659559432
ouille 1
nison 1
Nag@@ 0.7496991303129118
larg@@ 1
amide 1
Ry@@ 1
essenti@@ 1
” 0.07377189615061847
proc@@ 0.9490856698805366
patients 1
pian@@ 1
Corps 0.5711765796350724
deste 1
rass@@ 1
surve@@ 1
81 0.6951948755648991
aran@@ 1
essay@@ 1
Pos@@ 1
absor@@ 1
Bus@@ 0.6338413792415591
universelle 1
entreten@@ 1
nov@@ 1
Alphonse 1
substitu@@ 1
provenance 1
lumin@@ 1
Hen@@ 0.8486917523225079
grand@@ 1
tests 1
AT@@ 0.6836744704016529
marais 1
tunnel 1
oc 1
Four@@ 1
Illinois 0.5424065673949588
Roy 1
server 1
reau 1
1892 0.7659002160844411
Dun@@ 0.7574906833178248
Sub@@ 0.3282172825379889
Mod@@ 0.9095723752897384
put@@ 1
tan 0.38124810083397753
CA 0.9760919458901944
Lewis 0.7296880724030749
eli@@ 0.5140445910177839
mill@@ 1
Wilson 0.6301158313069366
jo 0.5047658305435659
Sydney 0.5741670484568294
British 0.11083532502596372
constante 1
oslav@@ 1
photo 1
din 1
univers@@ 1
inspire 1
ud 1
sbourg 1
plain@@ 1
11@@ 1
vid@@ 1
eto 0.5357657252058392
pav@@ 1
till@@ 1
Hum@@ 0.8111495543238247
84 0.6671446303137419
licenci@@ 1
enberg 0.6142520404294722
83 0.6679325001850068
Bay 0.3449941262451431
initial 0.6714576073774141
édie 1
XIV 1
Chamb@@ 1
onge 1
artisti@@ 1
gel@@ 0.22847635044556514
égal 1
concili@@ 1
tru@@ 1
bien@@ 1
Math@@ 1
ander@@ 0.9607098213382831
bis 0.03690718091740871
1789 1
well 0.06254935551232296
portation 1
drome 1
eures 1
oma 0.4636177696680921
Gh@@ 0.990301407439877
espo@@ 1
dus 1
romanti@@ 1
Bran@@ 1
militants 1
ula 0.6731850168801246
los@@ 0.6089639759622826
itin@@ 1
mentation 1
aime 1
Génér@@ 1
Ric@@ 1
aria 0.33603180724736703
iteur 1
nombres 1
ister@@ 0.8715108142361556
câ@@ 1
èves 1
1840 1
profession 1
Vén@@ 1
Monaco 1
God@@ 0.9753498912505723
hyper@@ 1
oine 1
frac@@ 1
indien 1
endum 1
redi 1
umin@@ 1
ath 0.3927882919208101
Xavier 1
1881 0.8657156000468296
Hauts 1
tification 1
orthodoxe 1
Tan@@ 0.7278055052673813
issait 1
municipal@@ 1
issons 1
crist@@ 1
98 0.627237373846141
issues 0.4293455838465627
Lausanne 1
ST@@ 0.9031411857888109
opus 1
sage 1
Éditions 1
option 1
vague 1
Roy@@ 1
99 0.6113972736985468
laine 1
occas@@ 1
Princip@@ 1
Martin@@ 1
Loc@@ 0.8418744849211529
æ@@ 1
poin@@ 1
signal 1
êne 1
accalaur@@ 1
Had@@ 1
Lag@@ 1
91 0.6731040041172436
IS@@ 0.6336758865180588
arbi@@ 1
Pad@@ 1
affa@@ 1
élém@@ 1
1876 0.884319921128276
ity 0.07570412446604348
notables 1
1878 0.8258743971773669
anus 0.9610688865657241
IC 1
motif 1
Canton 1
Oxford 0.6555646710783865
biodi@@ 1
ort 0.6050371598182872
izi@@ 1
Times 0.39352708698456706
ory 0.26011914188874563
culmin@@ 1
inn@@ 0.39817263527135555
Éric 1
Alb@@ 1
1894 0.7418337407978864
compilation 1
Dav@@ 0.8751750191225104
chin@@ 1
Gilbert 1
enten@@ 1
émique 1
South 0.09256073752179929
èdent 1
iture 1
dans@@ 1
Davis 0.657356444907555
Prés@@ 1
crit 1
Concer@@ 1
Général 1
possé@@ 1
stabil@@ 1
rag@@ 1
Agence 1
ø@@ 0.6991627219940673
F1 1
philosophi@@ 1
F. 0.5827778275517748
simul@@ 1
Opéra 1
susp@@ 0.8465834540131282
onge@@ 1
catalogue 1
1886 0.8032049372493676
trib@@ 1
onau@@ 1
mang@@ 1
permanente 1
Ath@@ 0.9946924871859547
holotype 1
olet 1
reproduction 1
Rav@@ 1
Windows 0.6768088632835554
vera 1
oton 1
statues 1
compositions 1
cap 1
Jersey 0.5374969903718224
CH@@ 0.9819521106538677
joint 0.8772948000535793
vais 1
cadet 1
logici@@ 1
Renault 1
eton 1
W. 0.5062994539211481
mp@@ 0.7903386837945375
patron 1
Ash@@ 0.5956605393920009
Alli@@ 1
Champagne 1
ader 0.6659083396234187
pavillon 1
Clément 1
Alex 1
accent 1
Research 0.3971085430260669
ator 0.13967339350838104
interrog@@ 1
Hamb@@ 1
adoption 1
live 0.24311083142042053
iff@@ 1
Mik@@ 1
gan@@ 0.6253817119026241
tric@@ 1
scand@@ 1
étain 1
gen 0.23983522261834098
kl@@ 0.283428302973647
etto 1
Améric@@ 1
ométrie 1
Hé@@ 1
construc@@ 1
London 0.1310495664410881
refuge 1
soldat 1
ayer 1
sculptures 1
In 0.010036600408515175
vents 1
Voy@@ 1
oun 1
Championship 0.2254817929785123
attitude 1
quelle 1
hong@@ 1
Live 0.5635911776913523
Philadel@@ 1
partic@@ 1
long@@ 1
algorith@@ 1
infrastr@@ 1
subsist@@ 1
morale 1
Avignon 1
ons@@ 0.4089523959223985
brill@@ 1
tib@@ 1
tillon 1
ER@@ 0.8432380449132958
gne 1
chet 1
imb@@ 1
orph@@ 1
Beaux 1
vou@@ 1
bombar@@ 1
São 1
eck 0.5241940693174895
Vladimir 1
ald 0.9867664830849388
District 0.14740815444482253
graves 1
Explorer 1
ectives 1
Taylor 0.6110226912732806
ess 0.17592531071797635
ular@@ 1
Fig@@ 1
120 0.661751185757994
maqu@@ 1
79 0.6750076574429573
Porto 1
Jacob 1
enger 1
roy 1
UCI 1
zan@@ 1
CC@@ 0.9360518886057303
Tim@@ 0.8519339900351545
compatri@@ 1
arbus@@ 1
Blue 0.4981652736018307
Canadi@@ 1
agan 1
cus 1
Kim 0.6801676461120989
Venezuela 0.820713705141777
essence 1
1888 0.749932158321332
eva 1
VIII 1
vols 1
rebel@@ 0.9653450445433742
Hydro@@ 1
Cir@@ 1
ption 1
But@@ 0.9501888964701956
éten@@ 1
250 0.6212793790185359
Lat@@ 0.7506239845225284
cau@@ 1
kg 0.6918765344085733
ental 0.5117668302165469
kov 1
éter 1
ié 1
districts 0.8602368563502805
adi 0.9424492023090403
tières 1
Tran@@ 0.8715706098157985
1882 0.8355195147073473
espi@@ 1
Kn@@ 0.5331139496555853
kov@@ 1
imag@@ 1
low 0.1834375866391824
96 0.6365162184194151
Real 0.48394034435476724
reliefs 1
Hélène 1
istan 1
Turin 1
RT@@ 1
pir@@ 1
parlem@@ 1
sson 0.9165016630465411
1891 0.7200765355190742
créd@@ 1
lob@@ 0.7970798121846746
talent 1
trace 1
Me 0.4752163105230749
eil 1
Nan@@ 1
enant 1
ude 1
Dre@@ 0.6174450183246969
Charente 1
report@@ 1
Gustave 1
dol@@ 0.9937853839986853
merc@@ 1
erre 1
we 0.20472715480747336
uma 0.8482012020195584
Sw@@ 0.44483682613262493
Série 1
Mess@@ 0.8850899527288555
Sho@@ 0.6193802399619155
vo 0.5024042380617343
design 0.24053741241308088
timents 1
1884 0.7953652656918107
ignor@@ 1
Moul@@ 1
chaî@@ 1
anz@@ 0.3923087938642624
ventions 1
sex@@ 1
preuves 1
agement 1
eure 1
Long 0.4911460218569088
dévelop@@ 1
Cité 1
hr@@ 0.499220446023655
Bes@@ 0.6349306644921118
ticul@@ 1
agran@@ 1
Gon@@ 1
acles 1
passion 1
1000 0.48363672333389635
Aires 0.6499897272594971
ilde 1
sentiment 1
Ast@@ 1
fini 1
Bourbon 1
Jérôme 1
mono@@ 1
pic 1
Cuba 1
explosion 1
pris@@ 1
éal 1
Pod@@ 1
Wat@@ 0.7813112972336773
ution 1
Résist@@ 1
Castil@@ 1
Champ@@ 1
rus@@ 1
Porte 1
contribution 1
Donald 1
avant@@ 1
isons 1
centrales 1
osp@@ 1
Green 0.39766084814405434
inom@@ 1
aid@@ 1
enz@@ 0.296411519882013
University 0.05311197469553679
Š@@ 0.9452970286292204
Sing@@ 1
undi 1
manipul@@ 1
Corn@@ 1
invit@@ 1
signi@@ 1
Film 0.16688129358074716
Amiens 1
Pennsyl@@ 1
anth@@ 0.9874907070661181
apostol@@ 1
dir 0.5663614904825891
Madame 1
Phil@@ 0.8799322500260156
sexuelle 1
dissolution 1
Cannes 1
agi@@ 1
participant 1
alle 0.22335888883109187
argent@@ 1
orie 1
Kas@@ 0.48382656490473563
Nav@@ 1
radio@@ 1
pontific@@ 1
bit@@ 0.6519488250710105
Occident@@ 1
Stephen 0.6890990121592734
Angers 1
ît 1
Oscar 1
Franz 0.5993464670483524
Vallée 1
lige 1
Wol@@ 0.5999845961079099
Fiat 1
Institute 0.24306695946957216
ă@@ 0.8584915813806586
ke@@ 0.38798380874685645
aste 1
causes 1
esclav@@ 1
Vér@@ 1
Che@@ 1
motiv@@ 1
implic@@ 1
triques 1
urie 1
Britanni@@ 1
Mohamed 1
BBC 0.459849777651375
Nam 0.3326410339504548
bal 0.8609212698310761
Occ@@ 1
Emp@@ 0.7874063888623896
indu@@ 1
ulent 1
Dist@@ 1
titr@@ 1
oslov@@ 1
Sénégal 1
maj@@ 1
Francesco 1
Valence 1
rural 0.4807089390294445
sap@@ 1
1887 0.7572892014437534
ando 0.0872236668909555
cie 1
Mart@@ 1
nik 1
kin@@ 0.7490552856050505
River 0.134078798070283
II@@ 1
hir 1
Leg@@ 0.5530581613940283
icon@@ 1
geois 1
Ob@@ 0.5973645892127836
partement 1
RI@@ 1
rand@@ 1
rance 1
Orchestre 1
aint 1
Brian 0.7725780301395406
Pir@@ 0.8931459050920051
Gaulle 1
† 0.1914843698363436
Gaston 1
Tibet 1
princip@@ 1
Î@@ 1
from@@ 1
tables 1
constru@@ 1
Sz@@ 1
Face 1
Fem@@ 1
Jim 0.6804550275308899
Orange 1
météor@@ 1
brut@@ 1
monarchie 1
psychi@@ 1
Vall@@ 1
curité 1
Hollande 1
brig@@ 1
Wilhelm 0.43539381262621235
Indon@@ 1
1875 0.8378558171569166
ish 0.2048166449742602
ombe 1
aments 1
anal@@ 1
Concep@@ 1
Augustin 1
tropic@@ 1
qualifier 1
essor 0.9703176428314261
suspen@@ 1
nage 1
suppression 1
mier 1
Caen 1
Profes@@ 1
tz 0.9288980323514153
dame 1
insur@@ 1
coc@@ 1
iki 0.45752711987994216
Pedro 0.5383703150644744
mel@@ 0.2812058229951571
cryp@@ 1
gend@@ 1
Andr@@ 1
Wall@@ 0.976751812717268
cra@@ 1
gs 0.5830331111552479
ône 1
modification 1
éger 1
Musique 1
Ball@@ 0.7194640324425081
Villa 0.7142050303768729
Théod@@ 1
My 0.42305706782681834
Wide 1
psy@@ 1
Brunswick 1
FM 0.5355555737916483
êts 1
Ki@@ 0.5357819973990398
Mort 1
ept@@ 1
protoc@@ 1
sang@@ 1
maine 1
Chir@@ 1
82 0.6447447555133529
effort 0.7334823689001393
variante 1
onnet 1
Bén@@ 1
omte 1
rate 0.3900794114296744
Territ@@ 1
more 0.04274529813856543
prud@@ 1
hypoth@@ 1
icop@@ 1
Nik@@ 0.9494818722491201
Vieux 1
Gros@@ 1
fans 0.7693613167427606
joints 1
Prot@@ 0.45540508983448785
Sain@@ 1
Ky@@ 0.7676940755416899
Andrew 0.5917732794406403
Océ@@ 1
exécu@@ 1
Ran@@ 0.49218788287341575
externe 1
cend@@ 1
musicales 1
ariat 1
baroque 1
conv@@ 1
1863 0.8007266756853711
Jane 0.964834162844869
East 0.16453387428937527
doctrine 1
Fontaine 1
Ivan 1
Sept 1
apie 1
Buenos 0.6160694094990602
97 0.6218572304744803
vais@@ 1
parent 1
berger 0.6111471810689617
inclu@@ 1
Liber@@ 0.885949555966137
ille@@ 1
controver@@ 1
carre@@ 1
eant 1
iments 1
rey 0.387613170393798
Dijon 1
absol@@ 1
1883 0.8031135515678718
Philippines 0.7783877681669571
Juli@@ 1
passages 1
Div@@ 0.7114110536785624
Lady 0.5933056780628883
registre 1
coordin@@ 0.6825797888660299
réd@@ 1
Infr@@ 1
Mam@@ 1
dal@@ 1
Ober@@ 0.1644656521797203
Mach@@ 0.9215634468180465
ago 0.49621524353272295
1868 0.8197420870426368
Ohio 0.42865276736027863
inclin@@ 1
Sarah 0.968169683058333
Central 0.19731981982417407
ista 0.21066989034415046
tensions 1
Alan 0.8779333970394421
nombr@@ 1
vacc@@ 1
Forces 0.9147624957537844
duch@@ 1
niques 1
tribun@@ 1
oirs 1
particu@@ 1
inéd@@ 1
fruit 1
Douglas 0.7670521507306234
ATP 1
rit 1
Stéphane 1
singles 0.5582162049656773
06 0.6443037566858523
usement 1
réfugi@@ 1
Anton@@ 1
symb@@ 1
ce@@ 0.48430562150022577
compag@@ 1
01 0.6590941391768302
laiss@@ 1
merie 1
rotation 1
agements 1
amin@@ 1
SN@@ 1
cord@@ 1
Mic@@ 1
lis@@ 1
Anci@@ 1
yen 1
eci 1
1872 0.8270861447584937
révoluti@@ 1
Anthony 0.7861477985524175
bic@@ 1
alter@@ 0.6567273340979388
onnes 1
Ville@@ 1
suicide 1
Commune 1
Chel@@ 1
violon@@ 1
conversion 1
isc@@ 1
Brun@@ 1
mif@@ 1
94 0.6214061593073802
1815 1
Manchester 0.6680113771943889
Tel@@ 0.43617162694823747
ope 1
mar 0.5069689398875634
enrich@@ 1
teuse 1
Johnny 1
comprom@@ 1
å@@ 0.8383351171534799
Arc@@ 1
Nou@@ 1
puis@@ 1
Max@@ 1
Cast@@ 1
habilit@@ 1
ín 0.3768008840870433
berge 1
asses 1
idence 1
umi@@ 1
interview 0.7061504277123486
tante 1
perc@@ 1
Cambridge 0.6632000749258649
ś@@ 1
Reich 0.9746697171284633
Bibli@@ 1
Trin@@ 1
deau 1
Pil@@ 0.6242165256831643
ão 0.9380027899378732
athl@@ 1
réuss@@ 1
issance 1
Hugues 1
1877 0.8006918374133207
gag@@ 1
masculine 1
Costa 0.7557520655026713
handball 1
venti@@ 1
Kl@@ 0.4511903887073241
Lublin 1
abri@@ 1
provinci@@ 1
Léopol@@ 1
oui 1
commen@@ 1
Monte 1
ast 0.2940701653995408
progression 1
issements 1
inté@@ 1
Euro 0.6869182223206273
App@@ 0.863301052845463
Orig@@ 1
Esc@@ 1
Bible 1
1865 0.7552285228165497
pend@@ 1
Lucien 1
Premi@@ 1
Lap@@ 1
Département 1
ocy@@ 1
Nouv@@ 1
orit@@ 1
1861 0.741598101764593
canadi@@ 1
po 0.7004224384996113
appropri@@ 1
immun@@ 1
politi@@ 1
immense 1
Camille 1
Thérèse 1
Cru@@ 0.9771991677949544
enfer@@ 1
inae 1
IM@@ 0.7521831466597195
neux 1
ili 0.8978409783849883
ä@@ 0.13777770366143902
ô 1
Manche 1
ski@@ 0.8796371562437294
Sib@@ 1
rum@@ 1
Vé@@ 1
rad@@ 0.9218792396216733
libr@@ 1
ster@@ 0.3126527745220958
Cath@@ 1
Kab@@ 1
ensembles 1
satellites 1
avoc@@ 1
up 0.04168609299593269
yo 0.7032992427244491
plaç@@ 1
session 0.9224114828684634
Bog@@ 1
1873 0.7900732611733389
1864 0.7309480506142985
Sam 0.7544771263803851
Olympique 1
attein@@ 1
suspension 1
Actu@@ 1
modes 1
Prin@@ 1
AL@@ 0.8060904932100096
Sak@@ 0.7654981681147796
consol@@ 1
Comte 1
Seig@@ 1
ben 0.2468865244101607
euil 1
1874 0.796715773327985
saire 1
synagog@@ 1
Entertainment 0.5682529664178134
gallo 1
Cé@@ 1
jud@@ 1
mini@@ 1
Kit@@ 0.7644374624360837
DJ 1
name 0.06598000800112143
Series 0.3692934254680978
Tos@@ 1
ú@@ 0.4521510499453246
consci@@ 1
observe 1
qualifications 1
Toulon 1
Liban 1
hau@@ 1
èce 1
Cô@@ 1
Zurich 1
Burkina 1
Agriculture 1
campus 0.5666054342477401
assistance 1
incident 0.9102376532646259
compéten@@ 1
dates 0.7503348251272601
1879 0.7525480221798846
statisti@@ 1
Sun@@ 0.5769325918821132
condi@@ 1
suédo@@ 1
Didier 1
Om@@ 1
ague 1
Massachusetts 0.4820529103344535
ng@@ 0.3512247943054586
ho 1
pist@@ 1
dynam@@ 1
CD@@ 0.8464218545712882
rectang@@ 1
cali@@ 1
Win@@ 0.49391968508610234
subs@@ 1
1792 1
unions 1
mic@@ 1
astre 1
variantes 1
HMS 1
agricul@@ 1
ared 1
tain 0.6307290027617022
valor@@ 1
instrum@@ 1
Mun@@ 0.643112037403916
fall@@ 0.702476777079431
Seg@@ 0.6815375981945451
favorables 1
ays 0.2549673496404307
confes@@ 1
gion 1
WISE 1
Poitiers 1
atori@@ 1
pair 0.7431383369260413
pid@@ 1
uc 1
humor@@ 1
ó 0.04486511861289914
Lake 0.24288117625177255
Faso 1
révol@@ 1
siles 1
Wi@@ 0.5949994880256099
Nat@@ 1
cost@@ 0.7756464462341015
perman@@ 1
comprise 1
Roch@@ 1
assimil@@ 1
Roche 1
clar@@ 1
Constantin 1
èze 1
Arizona 0.6733284291493343
1862 0.7387258275604476
istr@@ 1
phys@@ 0.8602838583591661
Corporation 0.46210466980310505
îmes 1
dur 1
ric@@ 0.8984657130893797
corruption 1
placer 1
igues 1
dige 1
toman 1
Mous@@ 1
vainqu@@ 1
fa 1
Syn@@ 0.8427561240229821
coff@@ 1
FF@@ 1
accomp@@ 1
fantas@@ 1
accue@@ 1
sens@@ 0.781018213468299
RA 0.8918152957650669
comb@@ 1
massacre 1
gre@@ 0.5531026501542309
Boy@@ 0.9987931090541512
sum@@ 0.3132371802496592
Chron@@ 1
chlor@@ 1
adh@@ 1
Alexis 1
Louv@@ 1
camar@@ 1
nomin@@ 0.7898103453413728
pun@@ 0.5148626036948714
lor@@ 1
intern@@ 1
judici@@ 1
any 0.09553583099130884
bs 0.3207237180260904
visu@@ 1
ologne 1
uts 1
participa 1
raine 1
America 0.17628281294635037
irland@@ 1
Abraham 1
robe 1
Belle 1
Sup@@ 0.8745439484620069
influences 1
micro 1
GT 1
tible 1
crimes 1
fron@@ 1
permanent 0.7499206287474525
esser 1
‘ 0.29067208089629054
Mill@@ 0.8363925456501493
phosph@@ 1
intens@@ 1
gram@@ 1
âne 1
nez 1
1869 0.8142819110923153
amme 1
1,5 1
islature 1
tenait 1
Mér@@ 1
Bad@@ 0.6012112297679341
vê@@ 1
PA 0.6179913747292392
hip@@ 1
Action 1
Meuse 1
1800 0.9507259811263548
clandest@@ 1
Kevin 0.8758540339069518
ondre 1
bill@@ 1
Ig@@ 1
She@@ 0.6420312635866982
ost 0.5129312730466219
Van@@ 1
AM 0.6479431435567822
aveur 1
rival@@ 1
simpli@@ 1
Lanc@@ 1
circuits 1
AP 0.856676825904259
apparti@@ 1
lements 1
anien 1
Somme 1
dest@@ 1
wi@@ 0.5689785592951483
symp@@ 1
ake 0.2278068627203705
Hav@@ 0.9258398735763202
Sant@@ 1
acul@@ 1
astronomie 1
Bra@@ 1
AI@@ 0.8102688967305315
marqués 1
ein 0.018497421815344108
Res@@ 0.3701610907016553
ken 0.12996956454684877
Khan 0.6692301567578486
Réunion 1
not 0.023547022815129243
Mathieu 1
Là 1
onna 1
acité 1
12,@@ 1
Recher@@ 1
manga 1
tor 0.17092817605099705
experts 1
Cop@@ 0.658089220055995
destroy@@ 1
phrase 1
Hollywood 0.6539597781922998
Fé@@ 1
Earth 0.5114663312123922
Paulo 1
S.@@ 0.6731854337932268
franc@@ 1
visit@@ 1
ciné@@ 1
drain@@ 1
gis@@ 1
ADN 1
gio 0.9251817364165259
08 0.5623197927059809
Leb@@ 0.9317790094073422
TA 0.7559547843038519
rette 1
princes 1
surfaces 1
onal@@ 0.8070100025950533
Kom@@ 0.2875816160204635
• 0.792065162919457
âte@@ 1
tionné 1
I. 0.28407893689112956
Wa@@ 0.7084942051465936
² 0.1400924496745601
descendant 1
put 0.28094695594645264
Hi@@ 0.7589332342415877
Plan 0.8545271092294804
dut 1
erre@@ 1
Express 0.8725996074118025
das 0.01565440873656176
ape@@ 1
gea 1
saints 1
Japon@@ 1
Wood@@ 0.5477045899221203
Shi@@ 0.6673677787560957
1851 1
Vig@@ 1
.com 0.6095933714528728
organe 1
Française 1
tit@@ 1
consul 1
audience 0.7191211049272416
anga 0.8704542109643914
obligation 1
DF 1
diversi@@ 1
rel 1
plication 1
extraordin@@ 1
fri@@ 0.7299846544291024
innov@@ 1
iti 1
Brig@@ 0.8542829217308783
Din@@ 0.8554459733084667
ry@@ 1
islam 1
Aéro@@ 1
styl@@ 1
alphabet 1
addi@@ 1
No 0.23389707769507478
Lév@@ 1
trio 1
evi@@ 1
stellation 1
ino@@ 1
org@@ 0.6992011017492141
Maxim@@ 1
Soci@@ 0.9630565665714318
mortal@@ 1
anticip@@ 1
orientales 1
tome 1
state 0.07697931062887789
Duch@@ 1
hier 0.3169485134296227
bier 1
profil 1
Claire 1
distances 1
09 0.5538765463050586
kan@@ 0.4254571807485531
va@@ 1
sibles 1
Las 0.1429798014262241
inus 0.9972265795789353
current 0.2303298770107965
Cit@@ 1
Flam@@ 1
Anderson 0.7143795596497394
guide 1
chanti@@ 1
Pyr@@ 1
aro@@ 0.8765568766871592
Emper@@ 1
bag@@ 1
West@@ 0.24840425892376633
ombre 1
Stan@@ 1
15,@@ 1
Ass@@ 1
sister 0.3985856037277679
accueil@@ 1
star 0.3613916620866457
High 0.1503091366331008
Tunis 1
prototype 1
Macédoine 1
permit 1
Wur@@ 1
Noire 1
Fau@@ 1
ize 0.6359415635226285
rall@@ 1
MC 1
Fur@@ 1
ONU 1
immeub@@ 1
territoriales 1
sl@@ 0.47414816453722336
1801 1
Hur@@ 0.6702763290841209
Azerba@@ 1
Life 0.26047307131030084
Boulogne 1
Franco 1
nouv@@ 1
ado@@ 1
Entr@@ 1
nu 1
oriental 1
Otto 0.5733089424134666
leau 1
Limoges 1
pain 1
Lot@@ 1
Pakistan 0.5084019332842238
accident@@ 1
LIN@@ 1
Eurovision 1
Billboard 0.42404748196176983
shire 0.49769860523058573
Budapest 1
1855 0.9357466832887336
Castel@@ 1
tice 1
bes@@ 0.2915764161010687
Occitanie 1
Rot@@ 0.5222174069643153
Cher 1
ö@@ 0.19716318564578877
observer 1
NH 1
onnaire 1
Stanley 0.9345337740164569
borough 0.5700091049651426
ampe 1
parach@@ 1
yl 0.4746248980194762
ect 0.20862058418483828
perd@@ 1
Met@@ 0.5340534047824953
Dic@@ 1
Grec@@ 1
Aragon 1
è 1
Revue 1
Stockholm 1
Camb@@ 1
arbitr@@ 1
Ferrari 1
cé 1
Tin@@ 1
ulus 1
Anjou 1
tube 1
Gra@@ 1
Itali@@ 1
québé@@ 1
dien 1
ken@@ 0.3125003164240559
Cologne 1
Howard 0.6622354733307287
plic@@ 0.8482261427124431
Initi@@ 1
dou 1
ulté 1
Academy 0.22045773718072798
municip@@ 1
passes 0.8103876924842728
ebo@@ 1
registr@@ 0.7382499210940558
Ray 0.7520014356256752
Maritime 1
volution 1
inscriptions 1
T. 0.5826037688824014
1859 0.7989885813145962
terrestres 1
11,@@ 1
Giuseppe 1
ective 0.4358866678910103
Province 0.37953036572686816
Missouri 0.617748923582362
Vie@@ 1
Lon@@ 1
missiles 1
Ép@@ 1
sibl@@ 1
portug@@ 1
Star@@ 0.5580271005912167
1814 1
Ivoire 1
bom@@ 1
ě@@ 1
rév@@ 1
pig@@ 1
chants 1
Pet@@ 0.8769138322830726
Statisti@@ 1
intervenir 1
iko 0.7730300829709789
ott@@ 1
Bonaparte 1
byzant@@ 1
Puy 1
juridi@@ 1
Petr@@ 0.9523503431975437
sch 0.30845780224042846
Christine 1
abb@@ 1
agues 1
Mid@@ 0.5843278096705532
Chab@@ 1
perturb@@ 1
Heinrich 0.41576041334503494
amas 1
MP@@ 0.6946901302783502
Franche 1
autobi@@ 1
Tib@@ 1
Fox 0.5414316736077235
patern@@ 1
athlon 1
règ@@ 1
Carr@@ 1
Ev@@ 0.776818376736418
State 0.08258731768068153
assass@@ 1
records 0.4329429558770177
stable 1
asa 0.6357227188493915
the@@ 0.24767273884522248
Madagascar 1
ourt 1
horiz@@ 1
Class@@ 1
triple 1
Équi@@ 1
125 1
Hubert 1
intelligence 0.9516115764261198
SI@@ 1
ust 0.41264392527947336
Coul@@ 1
biologie 1
jet@@ 1
ographi@@ 1
Rub@@ 1
exact@@ 1
Abb@@ 1
affec@@ 1
lys@@ 1
10,@@ 1
ion@@ 0.6771424700546029
Miami 0.7048470543078216
itan 1
Isère 1
radical 1
DS 0.8066489018943519
examin@@ 0.7153367739263651
Big@@ 1
old 0.10590267131221645
festivals 1
enti 1
nul@@ 1
manie 1
Aqu@@ 0.790499075131373
} 0.6255296574226752
acha 1
restitu@@ 1
Baz@@ 1
ason 1
expul@@ 1
Rugby 0.7036605897638094
prostitu@@ 1
mant@@ 0.8572930789966091
taine 1
fru@@ 1
agers 1
firmi@@ 1
sensible 1
onales 1
lap@@ 1
sympath@@ 1
proven@@ 1
Jard@@ 1
ji@@ 1
phin 1
volcan@@ 1
Proj@@ 1
pollution 1
fortifications 1
Bon 1
Tré@@ 1
Indi@@ 0.6184914778909426
Sun 0.49023373710918283
mir 1
Cord@@ 1
effic@@ 1
van@@ 1
eines 0.09890957847932492
tille 1
bec 1
Belgrade 1
Villeneuve 1
Clar@@ 0.8736019239971726
Navarre 1
Bains 1
dec@@ 0.1690706481171715
Aud@@ 1
mond 1
Michigan 0.3978963246613325
lich@@ 0.463038127464606
résult@@ 1
pent@@ 1
Bla@@ 1
Berg@@ 0.33543520108679187
Midi 1
ker@@ 0.40400446612096186
cord 1
asp@@ 1
feld 0.35695995114457724
Science 0.312078065921005
mb@@ 0.6581480114202259
ignac 1
fug@@ 1
Laz@@ 1
cérémon@@ 1
02 0.6292187996093163
bel 0.8801276365905141
islam@@ 1
instance 1
jal@@ 1
acous@@ 1
extraction 1
onia 0.4521286363505463
2,5 1
Laf@@ 1
Sorbonne 1
Yam@@ 1
1856 0.8417706179947457
Exposition 1
Palestine 1
bury 0.5513888863077981
Łódź 1
Monsieur 1
VI@@ 0.9918443336293096
échap@@ 1
accompag@@ 1
massi@@ 1
Armand 1
Bres@@ 1
issi@@ 1
Thor@@ 0.8770732603408332
Champion 1
Sher@@ 0.8477423969927357
notori@@ 1
invention 1
Fro@@ 1
aba 0.10085303556618314
adu@@ 1
situations 1
Loir 1
chon 1
chine 1
dominic@@ 1
1857 0.8318219062545508
Road 0.1843136137733151
pur 0.7748654604938616
Second 0.29539416359969617
unif@@ 1
Chevalier 1
mart@@ 1
nh@@ 0.26239644647484
Aï@@ 1
case 0.1695991824508692
dominant 1
05 0.5566252228193296
Romain 1
aspir@@ 1
any@@ 0.4735321469788578
Hautes 1
zer@@ 0.5926991324265939
cade 1
Gér@@ 1
lio 1
Lub@@ 1
inette 1
Tit@@ 0.5643516031785111
play 0.09517873375071734
paras@@ 1
Rod@@ 0.9124492832475314
UEFA 0.6700777812609066
configuration 1
fan@@ 1
Nintendo 1
kr@@ 0.3090399530666211
16@@ 0.5497310345777049
Jur@@ 0.6359529215054344
industries 1
Colorado 0.5894284464478142
suspend@@ 1
cles 1
auxili@@ 1
Gour@@ 1
alogue 1
1852 0.9349751424649508
client 1
Rol@@ 0.9417273247153102
Besançon 1
crit@@ 0.8932254297028155
itte 1
nd@@ 0.5825637015641097
ū 1
Coc@@ 1
alternative 0.686283148642025
Edmond 1
Notes 1
hip 0.4133876773272199
len 0.25699489955442717
Arc 1
Columbia 0.3626775439093257
Vichy 1
Dan 0.8094064601891009
hym@@ 1
ater@@ 0.8826907753439204
oupe 1
umi 1
occident@@ 1
notable 0.4072049914433707
Miguel 0.5866991092976239
ouver 1
diam@@ 1
ectiv@@ 1
Whit@@ 0.5259351820142534
illo 0.4699267435567784
CF@@ 1
Chac@@ 1
fice 1
Time 0.40177701288628576
Duc@@ 1
Pop@@ 0.7318214847839019
amér@@ 1
institut@@ 1
m. 0.794398451353057
montag@@ 1
roc@@ 0.6626068179888771
07 0.6026401071833742
clusi@@ 1
logo 1
Kin@@ 0.512900596673182
ologi@@ 1
dale 0.680456104376668
ben@@ 0.2500242338459887
aix 1
nar@@ 0.7672979596550015
atu@@ 1
Litu@@ 1
zac 1
présidenti@@ 1
1846 0.9854300592640589
lage 0.5375359977162482
aissance 1
motor@@ 0.6871055132625381
Dublin 0.7920399550767001
ku 1
démoc@@ 1
Plat@@ 0.46893039908948736
effectiv@@ 1
triang@@ 1
Ris@@ 1
Astr@@ 0.7988471863179599
Lot 1
adre 1
if 0.10944462221854329
aa 1
capture 0.9151032883528174
General 0.10497488200270004
pé 1
armo@@ 1
Vas@@ 0.7990026312450487
C.@@ 0.8045292531811865
Pie 1
mel 1
1854 0.8570193806928039
Naz@@ 0.9307592793142849
folkl@@ 1
Allem@@ 1
IS 0.8416724511064058
Tir@@ 0.9159538063887082
Wo@@ 0.7420642120221609
deb@@ 0.6857096105281766
inten@@ 1
yon 1
lie@@ 1
location 0.29851866335867333
Vin@@ 1
Viv@@ 1
vass@@ 1
controvers@@ 1
respect@@ 1
Us@@ 1
ebr@@ 0.8258612825355913
Bruce 0.80232774874887
Guil@@ 1
ania 0.4658418420851227
cine 0.8628859530952648
dj@@ 1
jon 1
Bis@@ 1
Ny@@ 1
adron 1
Marco 1
composit@@ 1
hin@@ 0.3392693206583371
versi@@ 0.7297574715429122
ycl@@ 1
ango 0.8482330846991751
sci@@ 1
terminus 1
ologies 1
indem@@ 1
Bourg 1
Adolphe 1
deu@@ 1
Beach 0.5081493725457389
week 0.2693431792599903
Sm@@ 0.784712183279104
accumul@@ 1
divorce 1
Ne 1
Socorro 1
00 0.2838847918138527
Mali 1
Ah@@ 0.6224500240162041
Jimmy 0.8288903741492228
aume 1
Constru@@ 1
1858 0.8422404113804004
Louvre 1
poli@@ 0.7838864634237293
Vosges 1
Cent 1
Little 0.3922916634997013
1849 0.8553326175566885
ètement 1
eron 0.3438746634309991
identification 1
issa 1
messe 1
alphab@@ 1
intense 1
chim@@ 1
ye@@ 0.538618280906526
04 0.5827451727000815
V. 0.49361643502059827
pin 1
entin 1
ham@@ 0.6160050452224584
Ave@@ 1
ij@@ 1
Cél@@ 1
cio 0.5386912505115382
Atlanta 0.7273268381762161
immigration 1
compens@@ 1
dium 0.8584317994646536
nay 0.7829927115541165
alit@@ 1
Ma 1
nati@@ 0.995742762927287
Arist@@ 1
nig@@ 1
XVI 0.7942528671164747
ack@@ 0.28764705770411547
edi@@ 0.3204024328326226
Barbara 0.8686793775423066
altern@@ 0.9913651042271056
talents 1
faces 1
tif@@ 0.6629509266855791
It@@ 1
trich@@ 1
K. 0.6152230468355419
isis 1
opo@@ 0.8401105821710202
Spir@@ 1
iret 1
Sanc@@ 1
Golden 0.4940658335128094
bir@@ 0.5443553225187673
expuls@@ 1
torat 1
protagon@@ 1
vi 0.7158648423098757
ider@@ 0.8669309468797027
Syl@@ 1
s. 1
oshi 1
Gab@@ 1
lante 1
try 0.2911751788768854
D2 1
Ostr@@ 1
secre@@ 0.9937516185869614
valid@@ 1
dispers@@ 1
Lambert 1
rat 0.37217395649749463
dirige@@ 1
atte 1
mémo@@ 1
curr@@ 1
fragments 1
dialogue 1
riz 1
Game 0.4304691842135848
eth 0.5786394632633206
protestante 1
déput@@ 1
styles 1
700 0.5216153431049908
Kiev 1
Mili@@ 1
Alban@@ 1
Tarn 1
acre 1
tise 1
nazis 1
disciplines 1
eus 0.7424425048817298
exploration 1
inter 1
chat 1
eda 0.7779152581093983
Xi@@ 1
dau@@ 1
cinqu@@ 1
bras@@ 1
contacts 1
ement@@ 1
escence 1
xi 1
anna 0.7384806224470175
Gordon 0.6691031996668424
fications 1
ting 0.06334033294617278
yo@@ 0.8656108781143702
ara@@ 1
Ng@@ 0.7084805850508845
Pey@@ 1
antic@@ 1
oo 0.7485916444099981
nominations 1
Bank 0.28123777648231335
Township 0.45548293623068126
udi 1
zon 1
noc@@ 1
Dani@@ 1
03 0.5810548097346516
Gaz@@ 1
voirs 1
contradic@@ 1
var@@ 0.39544097048614724
zy 1
ü@@ 0.178448600301288
Charlie 0.8726684566614786
dominante 1
stimul@@ 1
Cla@@ 1
Miller 0.5672150045352305
š 1
ichi 1
CO 1
anarch@@ 1
joint@@ 1
Fres@@ 0.9204754602107689
And@@ 1
alan 0.5569923535562037
Ant@@ 0.8754283836274278
Mac 1
worth 0.37822886580187937
SO@@ 0.7985633316356867
ag 0.5390498801796783
Tw@@ 0.5294153314711709
sin 0.15099771337438955
North@@ 0.5451025874738222
NA 0.950490292034142
cars 0.4536317712895123
della 1
Ale@@ 0.8977594988357948
Dr 1
plasti@@ 1
rival 0.8416681373045543
00@@ 0.5028394373690814
aco 0.6820204639165335
Kansas 0.5121098135596727
width 1
Gun@@ 0.6765678922226195
Li 0.7708818689002116
thr@@ 0.49279602535822414
efs 1
Quentin 1
confin@@ 1
certain@@ 1
NE@@ 0.8907235466464721
anat 1
Ges@@ 0.45077809973917565
certific@@ 1
Pau 1
lors@@ 1
Natura 1
juni@@ 1
Fernando 0.6138459842221179
Sat@@ 0.5551087599352021
Se 0.11488198608474778
axes 1
Fili@@ 0.6760561536876386
Ler@@ 1
Jonathan 0.9755117857829495
ow 0.22413855260395324
orum 1
opportun@@ 1
Ō@@ 1
tri 1
Mem@@ 0.7746675088707189
Show 0.37210902189550626
UE 1
Yo@@ 0.8554775896886948
Crim@@ 1
Mexico 0.27607777191605865
10.@@ 0.5326728119459083
auss@@ 1
races 0.4434614775472071
possibil@@ 1
Č@@ 1
gymnas@@ 1
impl@@ 0.8647408009836742
Boris 1
meub@@ 1
chiff@@ 1
core 0.559513577239245
Christopher 0.7759906161020004
victor@@ 1
Poly@@ 0.7077578178315578
évê@@ 1
ops 0.3657022719332718
etti@@ 1
orange 1
alumin@@ 1
tes@@ 0.6629866612492427
Robin 1
Bell 0.6608200182551518
Minnesota 0.4838235467595264
solidar@@ 1
Ensemble 1
topo@@ 1
Pac@@ 1
oro 0.4333808966416096
lai 1
AT 0.79158881105927
tira 1
dote 1
Suc@@ 1
UNESCO 1
coupl@@ 1
Andrea 1
Fond@@ 1
dive 1
Ji@@ 0.9746354298342996
ire@@ 1
moments 1
civiles 1
1791 1
1831 1
ial 0.3796127996599041
Clo@@ 1
isible 1
15@@ 0.5805443660507095
onien 1
iri 0.7509638140102668
Afghanistan 0.9221805012282194
motion 0.8073885523471134
Day 0.2636555633801137
moto 1
Kaz@@ 0.944227715967799
astrophe 1
Aisne 1
box@@ 0.665851152226579
aute 1
Fel@@ 0.457966167403856
réqu@@ 1
ouvent 1
Havre 1
24@@ 0.4037881440090885
ater 0.5355717422512882
ck@@ 0.4560028252225025
arbor@@ 1
Ahmed 1
ashi 1
confusion 1
ME@@ 0.8128452260850967
onymie 1
Jura 1
The@@ 0.3092544650833681
lag@@ 0.3659992564931757
icus 0.9033855215173519
Sir@@ 0.8773721952287502
Kos@@ 0.7633678761305231
Prim@@ 0.5911237393432776
Imp@@ 1
Las@@ 0.9471063773687072
sibil@@ 1
musulman@@ 1
Isaac 1
Lyc@@ 1
Leipzig 0.595355570014314
Apol@@ 1
Andre@@ 1
ą@@ 1
vies 1
uniforme 1
individuelle 1
Journ@@ 1
auc@@ 1
Services 0.605751889038513
adres@@ 1
zz@@ 0.7779088765533733
Dim@@ 1
ony@@ 0.9122711523455078
sible 1
pli 1
iler 0.4282989398343682
3D 0.851874750414899
seigneur@@ 1
punk 1
abs@@ 1
geance 1
Barth@@ 1
Ton@@ 0.6507285853049729
Égl@@ 1
ema 0.4196408569479299
uit 1
pologie 1
char 1
1795 1
Act 0.20590774161419528
Rel@@ 0.4845933374700316
Ernst 0.565378641209301
Microsoft 0.6984716901208451
normal@@ 1
Hot 0.4620357180487406
adel@@ 0.9933682001896513
corpor@@ 1
ados 0.05051909652714719
NO@@ 0.7748384462659704
Prom@@ 0.9142720249819769
Han 0.9693094272779154
oz 1
sec 1
proph@@ 1
persu@@ 1
complex@@ 1
oko 1
Sylv@@ 1
Hô@@ 1
Ridge 1
tenance 1
María 0.3272862970468761
tz@@ 1
Archives 1
ôles 1
Ves@@ 1
1794 1
gon@@ 1
découver@@ 1
facil@@ 1
magazines 1
Med@@ 0.5690128423603487
Vatican 1
PE@@ 0.9652419160559829
1853 0.8499886464963232
Allen 0.6020161687965797
export@@ 1
Garr@@ 1
Johannes 0.5645633495262465
Clark 0.625938004059437
1845 0.9013719674569768
Kennedy 0.7359108618788451
sultan 1
entraîn@@ 1
ns 0.21512837717155897
oke 0.5804676081700068
Santiago 0.5060451492656534
départem@@ 1
ses@@ 1
Morgan 0.7234005915494376
ido 0.11482564668904313
Fré@@ 1
ace@@ 0.464232080247893
exclu@@ 1
tine 1
Entre@@ 1
Magazine 0.6178043541506872
palest@@ 1
eni 0.8024727772388386
compil@@ 1
Die 0.013472207269615412
ran 0.22608925372503316
€ 0.9044488132952753
oua 1
Hau@@ 1
lent@@ 1
zu@@ 0.24923885937681528
Sap@@ 1
py@@ 1
provincial 0.637360614351623
Type 0.9716555082277598
conjug@@ 1
PL@@ 1
uck 0.47479496731497556
oria 0.6883238350683544
Fos@@ 1
UMP 1
Mut@@ 0.7895404390418729
assa 1
Wit@@ 0.5873373138100969
Herbert 0.7833623535507778
gir@@ 0.568715861506011
inien 1
mobili@@ 1
spati@@ 1
contamin@@ 1
30@@ 0.4043215967876639
devi@@ 1
méd@@ 1
By@@ 0.9562524858694654
collective 1
stone 0.22958506509201485
lara 0.812687460365829
XI 0.9022952325321517
pi 1
bud@@ 1
Non 1
septentr@@ 1
Honor@@ 1
habitats 1
1837 0.9477185052005795
Ful@@ 0.7391732986516126
œuv@@ 1
ović 1
tubes 1
Duc 1
olo@@ 0.8266090360226029
rech@@ 0.468019048730032
polit@@ 1
entra 1
gènes 1
isi 0.5346026082475245
ott 0.7882664233461353
Eli@@ 0.8526223524531303
Gis@@ 1
gest@@ 0.26383300930149084
territorial 1
Nick 0.7841013260326624
rin 1
Louisi@@ 1
1812 0.8501945962230916
Tul@@ 0.8418959834898636
abus 1
box 0.4336144080613756
massive 0.9744419019880494
sine 1
MI@@ 0.8485944367461709
Alberto 0.9474583867101768
wald 0.5419023486206782
Coll@@ 1
endi@@ 0.7365634935034002
patient 1
owski 0.9196206280111456
auch@@ 0.9448736458473995
Bac@@ 1
Extr@@ 1
jan@@ 1
110 0.6696652884558009
Studio 0.6680717475983802
Gri@@ 0.8064849611894237
Hip@@ 1
bu 0.21071505476627453
entu@@ 1
Roh@@ 0.858497040965212
1847 0.8632921788697917
Billy 0.7751714253848718
Sén@@ 1
AF@@ 0.9058251554914631
vor@@ 0.08752565428532856
Russell 0.7299749611658217
aler 0.6519812063310386
rans 1
Mour@@ 1
eller 0.29884904272713514
Ken@@ 0.5861685996216617
poche 1
duction 1
Pay@@ 1
March@@ 1
lera 1
vesti@@ 1
Nelson 0.7346022832569405
noctur@@ 1
Helsinki 1
Restaur@@ 1
Margaret 0.6789212807212112
tica 0.3188160533891862
1832 0.9827790272161002
Grand@@ 1
Philip 0.6109650040618662
Kil@@ 0.4461983833885015
ario 0.17606238576127262
Ain 1
obiles 1
Guer@@ 1
Fu@@ 0.5330904817624923
amphibi@@ 1
vre 1
Stal@@ 1
temples 1
TV@@ 0.7999295079356491
Pit@@ 0.7552286546946576
cane 1
xes 1
lad@@ 0.5041386901198405
lux@@ 1
An 0.11473232375663671
Sag@@ 1
Nigeria 0.802188704734368
án@@ 0.45679816980804594
pt 1
Fred 0.8765510820252441
Syndic@@ 1
autés 1
Hermann 0.6480389261127162
Station 0.2687809860391824
Liverpool 0.6678587610144779
hist@@ 1
relatives 1
Eg@@ 0.7060481309184036
Internationale 1
Janeiro 1
trail@@ 1
prolif@@ 1
Lad@@ 0.7751100052578933
USA 0.20852025837956847
AG@@ 1
pus 1
mies 1
Match 1
Mission 0.6893688701409305
TER 1
module 1
Houston 0.5881735486202339
CE 0.8598683842783142
Raoul 1
tril@@ 1
grot@@ 1
AF 0.7865394168543184
Google 0.7595905207307153
anatom@@ 1
Magdalena 1
apti@@ 1
RD 1
cha@@ 1
chard 1
Meg@@ 0.6640899095121635
Uruguay 0.8596510768288196
eils 1
exclus@@ 1
NASA 1
atlan@@ 1
quad@@ 1
cle@@ 0.41437655297138554
outh 1
atur@@ 0.7190554757208332
syndrome 1
obus 1
Stadium 0.40226810595986895
pollu@@ 1
ric 1
ris 1
Rapha@@ 1
Sl@@ 0.7898727904533538
Donn@@ 1
Luci@@ 1
Ten@@ 0.6367902276448175
libre@@ 1
mers 1
1836 0.9281480397826974
Shar@@ 0.5157764677352031
dédi@@ 1
Fid@@ 1
votes 0.44845640527412217
Ja@@ 1
olles 1
Julie 1
japon@@ 1
alternati@@ 1
1833 1
Ross 0.6755209480746343
RO@@ 0.7863081918026019
Eure 1
solid@@ 1
Web 1
passi@@ 1
Observat@@ 1
Hat@@ 0.7681832925020411
uer@@ 0.3952612171497524
yal@@ 0.7739910162360021
Fut@@ 0.9875343128016024
éder 1
authenti@@ 1
jam@@ 1
concepts 1
Hun@@ 0.6836182719612871
iss 0.7291130953401491
Nikol@@ 1
ć@@ 1
1841 0.9312866045342383
Shanghai 1
1835 0.9154427523360995
Ras@@ 0.7683750026947074
ambe 1
Meil@@ 1
terie 1
Georg 0.44223169801980355
Sym@@ 1
innovation 1
Nak@@ 0.8499698025865656
oche 1
Command@@ 1
Gabri@@ 1
Sad@@ 0.7942272056486499
équi@@ 1
Protection 1
itz@@ 0.3183626181073403
iga 0.6750802379254714
Gall@@ 1
Masters 0.9280017328787327
Sto@@ 0.5028390261528718
avier 1
tromp@@ 1
Jer@@ 0.6584939313775976
positive 0.3467711674955022
quadr@@ 1
tron 1
Ryan 0.6629112138283813
atin 1
Conse@@ 1
pers@@ 1
adier 1
dre@@ 0.2690470542266336
bris 1
ovo 1
pard 1
interven@@ 1
Bob@@ 1
Bowl 0.6299110935108904
ame@@ 0.6439910888092643
Len@@ 0.721560948116259
Studios 0.5584071986022773
extinc@@ 1
hétéro@@ 1
mascul@@ 1
sho@@ 0.3355527820293695
leg@@ 0.23962855994055285
opp@@ 1
bomb@@ 0.5753688742893662
sax@@ 1
aret 1
Num@@ 0.7596703608115061
Bré@@ 1
Bach@@ 0.8894450980012315
Vancouver 0.8384429677778363
Commun@@ 1
bra 0.6904453831169705
amend@@ 1
firme 1
ass 0.28860387256012676
agog@@ 1
Has@@ 0.6555658321237615
Bar 0.8783490635189259
Kel@@ 0.5179118284083284
Analyse 1
mess@@ 1
gas@@ 0.46904331008288236
osc@@ 1
Andy 0.8208145196346671
Dordogne 1
Gam@@ 0.8061895096064534
Reb@@ 0.668538396840509
Zone 0.7829510253332597
estu@@ 1
chen 0.13577159917285292
Roman 0.17989454476906597
pera 1
responsabil@@ 1
architectural 1
Lov@@ 0.6895612373186855
TE@@ 0.7697811611980231
dam@@ 0.4992125907938824
invers@@ 1
radar 1
otypes 1
Apple 0.7415457934753186
Ep@@ 0.6356790699812565
Salvador 0.8199106225456918
Fron@@ 0.9886350131875389
Bud@@ 0.7066299079057901
eh 0.5892771321043907
osse 1
ks@@ 0.31466109887537164
Iz@@ 1
manager 0.2712946734730493
Agn@@ 1
tabl@@ 1
Song 0.3472878220720792
Meur@@ 1
Habitat 1
ects 0.2099119766796877
eno 0.452269948164316
Abr@@ 0.8242610706816959
confron@@ 1
Ces@@ 1
dose 1
vette 1
unt 0.5310584147719747
Lus@@ 1
Zo@@ 0.8229439441989959
exhaus@@ 1
autonom@@ 0.9708199793606288
ecti@@ 1
1806 0.9983862829422943
éto@@ 1
WWE 0.925889461645815
ej@@ 0.4719514553236362
ambul@@ 1
restaurants 1
1842 0.8901627501059586
hell@@ 1
Ther@@ 0.4814401530470106
monum@@ 1
ahi 1
conclusion 1
Od@@ 0.9064159339930147
gro 1
Chef 1
chré@@ 1
pon 1
ew@@ 0.2983994733229129
unanim@@ 1
1839 0.9097883710218025
Lach@@ 1
discussions 1
tal 0.29479426182184226
Lucas 0.9976836403485397
Main 0.37818821581728745
achi 0.9934574800135609
foc@@ 0.7739082275837997
Lun@@ 1
yan@@ 0.6743604440053944
tropicales 1
uta 0.6777065066820814
Bad 0.43084488474696836
Matt 0.7513535278745721
CC 0.5840183112188634
Chr@@ 1
Jun@@ 1
LO@@ 1
Ludwig 0.4285768265293439
master 0.318300517239499
bits 1
tation 1
drag@@ 1
Tah@@ 1
1843 0.9241260277214355
elot 1
cache 1
1834 0.9351834345568406
Troph@@ 1
ouk 1
oblast 1
RN 1
locomotives 1
osph@@ 1
provis@@ 1
ning 0.2208784922521349
Near 1
Black@@ 0.5212461502519834
Our@@ 1
toires 1
carri@@ 0.5388000188425747
dramatur@@ 1
AO@@ 1
CS 0.8288359115011567
Sard@@ 1
moral 0.9475885230120579
Moore 0.5861354920954353
Dunk@@ 1
Wor@@ 0.35756547588207427
dy@@ 0.8505435461339121
Jason 0.8041821567051531
arn 1
etz 0.8553326738662302
ky@@ 1
accompl@@ 0.9188113650834825
ław 1
Harvard 0.5762471886130359
new 0.03354648415952911
anos 0.23069164420318183
cog@@ 1
det@@ 0.15671315034173175
als@@ 1
exemp@@ 1
Olympi@@ 0.8956300622998202
R.@@ 0.9300010060322779
arti@@ 0.7814439830294633
lyc@@ 1
nag@@ 1
Agr@@ 0.8120332197758824
Sus@@ 0.5508934540535758
Temp@@ 1
tariat 1
Shin@@ 1
Indre 1
Mec@@ 1
Fonds 1
odes 1
Hus@@ 0.6274420181378789
Sark@@ 1
Tim 0.718855502752867
Stone 0.4994392616434508
Blu@@ 0.6045438367628397
oun@@ 1
Aug@@ 1
recru@@ 0.5786056023012269
exempl@@ 1
Comics 0.8711627381301755
subir 1
Ze@@ 0.3870886889164285
Antil@@ 1
23@@ 0.49712880524826103
disper@@ 1
Galerie 1
OTAN 1
States 0.04800099469421479
Tech@@ 1
ft 0.17642959744611922
1838 0.8777444560409327
ange@@ 0.6910497836219253
Mohammed 1
sten@@ 1
Seul 1
irie 1
Ibn 1
Eu@@ 1
Gironde 1
Indien 1
ston 0.5165048110550267
1844 0.8693874656756754
lot@@ 1
Aig@@ 1
conven@@ 0.5573590974576798
plur@@ 1
bonus 1
udi@@ 0.83160049717265
Rochelle 1
Zh@@ 0.8309846934279719
coin 1
Jol@@ 1
orn 0.6053765550314085
EC 1
botan@@ 1
Ron@@ 1
ery 0.27684156127964626
jour@@ 1
omni@@ 1
Obj@@ 1
persist@@ 1
aus 0.019692589065341957
mans 1
messages 1
Walt 1
ampli@@ 0.7233653456808905
intim@@ 1
sati@@ 1
tos 0.2498378966374282
Dave 0.7028304772122101
Nobel 1
acts 0.3164919850800325
Europa 0.22935164067578429
fur 1
Jupiter 1
démis@@ 1
orien 1
fine 0.6606559737341532
fib@@ 1
religions 1
Bet@@ 0.5502734794902214
orthodo@@ 1
copies 0.5596787800715438
AD 0.5054937019778178
Bah@@ 0.5742716308406668
intermédi@@ 1
exéc@@ 1
Rig@@ 1
uves 1
las@@ 0.7014454891752794
Berry 1
occidentales 1
dop@@ 1
pneum@@ 1
Go 0.6500229953062114
ix@@ 1
Emma 1
ocol@@ 1
polis 0.8601200388090602
ka@@ 1
perception 1
amine 1
eder@@ 0.33712199078796
contributions 0.7384904128325488
amba 0.9673211335834841
nan 1
anche 1
Iv@@ 1
Autom@@ 0.6887250916841418
ouse 1
trophe 1
Domin@@ 0.5340496443875964
Moh@@ 0.6344567548695578
Ottawa 1
carto@@ 1
alo 1
alom 1
imi@@ 1
oth 0.3668776526525192
Grim@@ 1
Mr 1
GT@@ 1
Ec@@ 0.5938452189630429
secré@@ 1
uro 0.7982617253162246
ku@@ 0.3627185488482045
Vid@@ 1
angél@@ 1
angles 1
my 0.25823187746006465
supervis@@ 0.9317575219940766
imes 1
progres@@ 1
XII 0.8805343654469504
1810 0.9595127117337803
wan@@ 0.45210997175759715
combus@@ 1
conj@@ 1
variation 1
comics 1
ries 0.8129395570409276
with 0.004203338460769624
corte 1
défense@@ 1
doc@@ 0.558100316195446
Gos@@ 1
destruc@@ 1
Lind@@ 0.56721794176362
Abo@@ 1
Bec@@ 0.6963322364488238
Dres@@ 1
agi 1
eb 0.9385835611794421
nia 0.6637572703192375
Rangers 0.8692562694631738
Sed@@ 1
tage 0.8488634827724503
dot 1
suic@@ 1
News 0.32377627990965996
échal 1
Viol@@ 0.7650421532953635
fi 1
exam@@ 1
aillons 1
Lour@@ 1
Asteroid 1
rent@@ 1
Nicol@@ 1
occu@@ 1
ceaux 1
cerc@@ 1
eri@@ 0.5186894380108296
Scar@@ 0.8539780693746191
ustr@@ 1
card 0.4851736440562654
PlayStation 0.9275145894286756
global 0.44801422296826043
igo 0.9010483589694182
manu@@ 1
ams 0.23516332780011223
marx@@ 1
show 0.08284491764314687
Kelly 0.6385957614115393
PI@@ 1
egr@@ 0.5428628851044003
féré 1
Asp@@ 1
ñ@@ 0.34086714213029146
roqu@@ 1
paqu@@ 1
vement 1
chas@@ 1
polym@@ 1
ig 0.2929799124252556
ort@@ 1
Copenhague 1
Co 0.3813376117752471
Gén@@ 1
bay@@ 1
lucr@@ 1
sug@@ 1
discussion 1
nec@@ 0.8476725118028305
Tig@@ 1
Publications 1
Vor@@ 0.07498083525544093
cut 0.32563863806455795
olle 1
Mercedes 1
ui@@ 1
Night 0.40741308607882765
terri@@ 1
Franklin 0.6606907654510745
improvis@@ 1
arios 0.29190762327681175
cami@@ 1
Dipl@@ 1
intellig@@ 1
atmosph@@ 1
sy 0.8822214335427265
16,@@ 1
Appar@@ 1
17@@ 0.5866422203168417
eter@@ 0.5925353733675849
oga 0.6618858658733975
borg 1
yi 0.535773773875863
divor@@ 1
Panama 1
Avenue 0.3289260569659285
Tribunal 1
Grant 0.6568957686750515
longu@@ 1
Melbourne 0.4553136873596811
Nur@@ 0.8347411665313682
bine 1
130 0.6286964484905677
Mississippi 0.596906254162846
Stuart 0.9996358699347841
poli 1
Challenge 0.7954178597137926
dera 1
row 0.2645765707302558
nac 1
Lom@@ 1
nin 0.272351259798436
console 1
NFL 0.4638796100678518
Structure 1
Nath@@ 1
tribut@@ 0.5125030094909225
Sovi@@ 1
nich@@ 1
igh@@ 0.2597009247713682
mano 0.753439369300193
AB@@ 0.7279887336637729
af 0.6579985336936967
dial 1
140 0.7132564004765352
hospit@@ 0.7106129891384728
zer 0.3797302572163734
affin@@ 1
spé@@ 1
transpar@@ 1
yan 0.41428234146063314
Dup@@ 1
Peti@@ 1
arin 1
umb@@ 0.4557058659878685
cross 0.34306628896376734
PD@@ 1
Proc@@ 0.925292002208065
oku 1
couples 0.9280347223845499
ibn 0.9723545049081344
miner@@ 1
originales 1
exper@@ 0.6673607750771493
imo 0.8765315023633663
Haw@@ 0.5628153011148641
Village 0.5853426623284271
convers@@ 0.917675227691939
gain 0.6292052734169694
Hall@@ 1
imi 0.7987338234812421
kel 0.34917510360625825
Rac@@ 1
stig@@ 1
omes 1
ray 0.7175212082678323
Saints 1
series 0.04807083683943288
Indiana 0.4556145026505702
gia 0.1518715847032652
hard 0.32136009024869133
Cleveland 0.6351797470849182
Boliv@@ 1
Pietro 1
Pes@@ 1
eman 0.42100695689812806
normal 0.4105911879761078
aha 0.6247630200447506
3,5 1
audio 0.8558983587172135
sangu@@ 1
ady 0.502052874804051
Monte@@ 1
orbit@@ 1
horizont@@ 1
zar@@ 0.7102775785515362
AE@@ 0.918209806060526
TS 0.8780708236453072
Rid@@ 0.6482737524164082
Sid@@ 0.8948314665360831
Commonwealth 0.5869785087287628
colonial 0.5950063241209217
ding 0.18355122595123524
Line 0.2525623984947722
Arti@@ 1
är@@ 0.192783341922572
arab@@ 0.947905356449101
Comm@@ 1
Jazz 0.5361481651742732
usias@@ 1
valle 1
perfec@@ 1
Roberto 0.9921098633260637
formul@@ 1
Aer@@ 0.5878393348610951
film@@ 0.4871656945023181
hop 0.8846679133937342
Ł@@ 1
ause 0.6960717116596747
119@@ 1
Jeff 0.7778638754618136
Jr 0.43641760661346213
vive 1
nis@@ 0.8480748865912573
IP 0.6775183584673543
ingu@@ 1
lat 1
Games 0.2079729906008695
partition 1
Franck 1
zen 0.1638462154738713
XV@@ 1
margin@@ 1
èv@@ 1
Transport 0.5992207563384757
compati@@ 1
équili@@ 1
Quin@@ 1
outs 0.5590690348231712
probl@@ 1
eler 0.49780965636442276
immer@@ 1
codes 1
yth@@ 1
Édi@@ 1
titudes 1
acres 0.9308475460426775
war@@ 0.09125854263714853
Edgar 1
Jum@@ 1
attrac@@ 0.8144696145861327
Bit@@ 0.8707033564080953
Marvel 0.8968129487668255
lex@@ 1
Pur@@ 0.39670575662643576
wo 0.11278659849603376
Got@@ 0.6691348503220568
Hesse 1
inos 0.2951309229096841
115@@ 1
Langu@@ 1
illac 1
interface 1
nazi 1
lus 1
articul@@ 1
lus@@ 0.592178190303741
Dragon 1
lâ@@ 1
arium 1
New@@ 0.38573990753060833
rat@@ 0.6671597208955724
Alber@@ 1
CP@@ 0.7902076076361046
Boc@@ 1
employe@@ 1
Anton 0.7541619086554591
Salomon 1
Raf@@ 1
tas 0.38289298706222896
empr@@ 1
Alg@@ 1
Gold 0.3420113307578391
Adolf 0.7141703558407035
ley@@ 0.8909146001371872
oute 1
retr@@ 0.698461676559713
cic@@ 1
ore@@ 1
illustrations 1
ape 1
did@@ 1
spontan@@ 1
Jordan 0.6067048450226286
Cle@@ 0.5174927770182663
Rog@@ 1
101 0.702144083706299
uki 1
Kent 0.6490053211045987
Lut@@ 1
cél@@ 1
itre 1
EN@@ 1
Lori@@ 1
Galli@@ 1
drap@@ 1
icule 1
Suzanne 1
press@@ 1
hall 0.4493328829137085
ballet 1
zon@@ 1
cipe 1
Hain@@ 1
MO@@ 0.8037533755370821
Til@@ 1
alar@@ 0.5415004211704494
attend 0.7087081309961712
win 0.1049657777244122
magn@@ 1
kine 1
Christ@@ 0.5044794978123166
Boy 0.6172509093795921
Master 0.36752229206345344
ż@@ 1
Rosa 0.7978998175825277
AL 0.7751501811358379
Arnold 0.8079550969777156
Air@@ 0.48850992299161
Iowa 0.4909751817402522
halte 1
CF 1
ador 0.1206031166337679
ano@@ 1
back 0.05773764706539572
uh@@ 0.5653351893252522
compéti@@ 1
Duf@@ 1
dération 1
Vass@@ 1
Ian 0.790464712175852
islas 1
Murray 0.6573861108701494
taines 1
ros 0.9802093469696923
tha 0.5641570318214187
Aj@@ 1
batteries 1
emont 1
gig@@ 1
ieur 1
insist@@ 1
Sach@@ 0.6392669977379496
eli 0.47815944119235587
sou 1
Abdel@@ 1
ep 0.2978963853021762
AG 0.3660054533310194
Tennessee 0.4546723592295222
cathol@@ 1
Commerce 1
Media 0.28368036162816007
26@@ 0.5336950215343447
kab@@ 0.6766304008604741
Princ@@ 1
TC 0.6549462299553896
draft 0.5831785785498939
114@@ 1
sivement 1
Lic@@ 0.820456199078987
intensi@@ 0.7958499849843372
key 0.19459951622693875
dense 1
Yos@@ 1
oscop@@ 1
wo@@ 0.23766131224532666
alias 1
pois@@ 1
esi 0.385891059526534
XX@@ 1
E.@@ 0.6668452281373742
lais 1
amer 1
tropole 1
incur@@ 1
Ple@@ 0.7073735289850807
Power 0.4073789346880887
ionale 1
ga@@ 1
escal@@ 0.9283637391273433
Tas@@ 0.7356073417238566
caf@@ 1
demanda 1
idi 0.7416167130366913
f. 1
composer 0.5574317085319754
17,@@ 1
esqu@@ 1
gres@@ 1
inge 0.5718662400349257
sacri@@ 1
uli 1
LE@@ 0.7593859720008449
pure 1
finance 1
Main@@ 0.7633806209276214
ight 0.23116801205914886
Inter 1
Nas@@ 0.6598439456180138
oker 0.8458823337553556
ark@@ 0.25044278758326516
Estr@@ 0.9605393656747665
diesel 1
taur@@ 1
point@@ 1
notation 1
SK 1
habil@@ 1
get 0.15498313623949397
itat 1
tain@@ 0.4849569832570639
Luigi 1
Pul@@ 0.5867304993180538
det 0.5038779399479526
pros@@ 0.8431138588874532
27@@ 0.5414985452112481
Bach 0.7618434130934801
PR 1
Robinson 0.6590468752430602
Forum 1
Pen 1
stell@@ 0.6494803499178697
Lionel 1
inces 1
Af@@ 0.6823472325527355
soc@@ 1
Sierra 0.5917469152984032
edo 0.4333127303138038
Hard@@ 0.5497580985516546
blues 1
portion 0.4656847049913296
abord@@ 1
tw@@ 0.1895409352349231
uk 0.49535400566400606
disciplin@@ 1
parking 1
Lion 1
expert 1
Carter 0.668861174512805
Fir@@ 0.5042535363981148
Gan@@ 0.8441636708136431
~ 0.968939057933248
Major 0.2811591482462707
Source 1
invitation 1
innoc@@ 1
thier 1
Kad@@ 0.8057608298152622
iz 0.623459898001446
stru@@ 1
à@@ 1
isie 1
Tat@@ 0.7654125998501231
Press 0.39371408598280155
Out@@ 0.48504402026163534
Great 0.16599234336722682
Indo@@ 1
marketing 0.8329874662326497
graphi@@ 1
Valenci@@ 1
1824 0.9479135928147205
rup@@ 0.4426278137365133
Vari@@ 0.5571636080218901
1825 0.8985030497986849
Bug@@ 1
Oliver 0.6987083466576787
Cho@@ 1
itable 0.8401812318195688
musul@@ 1
Beaumont 1
rot 1
tics 0.2265176555023878
Sep@@ 0.997293474508318
paral@@ 1
SE 0.9984230165033557
· 0.05288021682001291
ór@@ 0.6835414484331418
elage 1
bad@@ 0.548558231723231
DE 0.8218261963529768
ī@@ 0.5989317872003078
1802 1
dine 1
fati@@ 1
portu@@ 1
Best 0.16008585986301146
PR@@ 0.9254544733271948
IR@@ 1
ough 0.3014361855815768
nus 1
HC 0.885481243712695
Dami@@ 1
Jon@@ 1
Lombar@@ 1
Gold@@ 0.4124239463995298
Ner@@ 0.7747065109520477
mac 1
Marcus 1
Verdun 1
Gary 0.7071319832074108
gly@@ 1
Isle 1
inclus@@ 0.8872900777922963
migration 1
Kenya 0.8769433933832956
borne 0.7755635258713678
thon 1
pot 0.5391083317726623
itures 1
1803 0.9439740309580101
clav@@ 1
thor@@ 0.5210750355712817
kur@@ 0.3115997500296184
Steven 0.9187116155635324
élites 1
missile 1
Glasgow 0.6772230674987468
sures 1
oll 0.6039296683913459
Carp@@ 1
Cruz 0.46971838863093196
teure 1
ș@@ 0.9407874026990359
WTA 1
roman@@ 1
YouTube 0.5769820562292023
Car 0.8910351699976526
Contr@@ 1
CR@@ 1
Fay@@ 1
sun@@ 0.39563556315954257
percus@@ 1
revi@@ 1
Square 0.49129008613203484
Trump 0.6216474600540974
Warner 0.6439445736604809
hiz@@ 1
Vent@@ 0.910668982772246
ES 1
ii 0.6729798779126599
ness 0.12860827900294888
SS@@ 0.6303862416505384
violent 0.9804156094562569
Rud@@ 0.7836812690203117
ends 0.17097934004861243
iron 0.5497362379474041
jus 1
mutation 1
comparable 1
pag@@ 0.5894412321139222
Champs 1
opath@@ 1
Police 0.37363191522356626
PK 1
1808 0.9822231825333513
sentir 1
partisan 1
entrepreneur 1
festiv@@ 1
ody 0.3505428951338921
tium 1
Laura 0.8903938417345687
Prov@@ 1
insurg@@ 1
allo 1
tenay 1
Adams 0.5923205338995651
automati@@ 0.8261938066337567
dog@@ 0.8423985829325709
Nicole 1
AA 0.5123327622033332
Troyes 1
ennement 1
Noir 1
infin@@ 1
Seattle 0.5948909234364218
EP@@ 1
Pablo 0.6628874845837167
Rein@@ 0.5262115389629505
ibil@@ 1
Marshall 0.644412992303069
It 0.013385430148840636
ste@@ 0.11581226863610476
rais 1
Marc@@ 1
mpi@@ 1
117@@ 1
anta 0.5399185797622587
trop@@ 0.5737336954769202
Simone 1
abi 1
Kot@@ 0.8122622568191793
1813 0.8514492958124442
1828 0.8800376105771783
Cambr@@ 1
rurales 1
scén@@ 1
25@@ 0.35189682082260443
SD@@ 1
Cooper 0.7455063534125624
doubles 0.8297521483478785
Dallas 0.6196077694185604
indre 1
substance 1
Dig@@ 1
angu@@ 1
assign@@ 0.9881165092319085
kon@@ 0.14301164868220106
vic 0.9600223212328052
Ever@@ 0.7675596202811034
Barry 0.7619471104952804
auer 0.30381646266919493
evin 1
za@@ 1
nai@@ 1
Blues 0.7184147249373958
Parker 0.7406587072876518
Gav@@ 1
Alex@@ 1
vietnam@@ 1
pomp@@ 1
Spe@@ 0.30175966028972845
jac@@ 1
180 0.6371512819568026
édo@@ 1
Amér@@ 1
gab@@ 1
Home 0.31987012573540097
day 0.052782885200213465
Art@@ 1
Bod@@ 0.5717363255517877
Nad@@ 1
progressive 1
scénar@@ 1
cath@@ 0.9778580652517362
tiges 1
ling@@ 0.6962106287336193
sacrif@@ 1
sien 1
sale 0.47107708967795103
elet 1
Stu@@ 0.38523419296304146
canon@@ 1
dent@@ 1
oste 1
ush@@ 0.39141784111272465
assis 1
fav@@ 1
AN 0.7059318931172247
interaction 1
candidate 0.3104112047232299
ono 0.759675884989108
pension 1
Nord@@ 0.178206941331064
Ok@@ 0.5013831547234552
titul@@ 1
Stein@@ 0.27321279667775694
Java 0.9190763519863518
arsen@@ 1
stage 0.1422387674591368
Kosovo 1
León 0.5692904590553516
costume 1
Queen 0.22896745996617457
Lawrence 0.5465815683146298
parado@@ 1
Rib@@ 1
ask@@ 0.5618483785445579
Unter@@ 0.11404848837790516
Chang@@ 1
pseud@@ 1
aller@@ 1
1821 0.7840201361037882
fat@@ 0.75203356557379
gy 0.5794037606361401
nica 1
promot@@ 0.6606762646581713
Mons 1
Baltimore 0.6065817326423466
sw@@ 0.15347638997521093
Austin 0.5995165615034369
alon 1
Peugeot 1
lang@@ 0.3867507268841476
120@@ 0.9037040533811315
Corr@@ 1
alo@@ 1
Histori@@ 1
Thur@@ 1
1,2 1
Ey@@ 1
Style 1
Afric@@ 1
Lamb@@ 1
Argent@@ 1
Gru@@ 0.49015519035670274
hex@@ 1
faction 1
Copa 0.3182188718838267
enton 0.9474727979931616
p. 1
angs 1
dyn@@ 1
jean 1
kat@@ 0.4307053246801774
otti 1
owo 1
Ann 0.6320301184235614
country 0.08733580179499033
opinions 1
oka 1
relevant 0.9657080313201671
Stewart 0.598445996808805
Broadway 0.532797646522314
mographie 1
1809 0.988814060052276
1826 0.9036323612750052
ogo 1
Medi@@ 0.3379705842524699
Alaska 0.7286853804542465
cim@@ 1
mane 1
Fair@@ 0.47072360860887763
Nation 0.7413064442231988
PP@@ 1
Relations 1
1827 0.9803489833426052
lum 0.4893829586230786
cis@@ 1
bio 0.731609115753812
Leon@@ 0.6458482563234641
Bow@@ 0.48187535557332356
Calv@@ 1
Mey@@ 1
venues 1
cus@@ 0.6287666624737126
Justin 1
ako 1
Grav@@ 1
1500 0.5061516056230239
ME 1
ellip@@ 1
ination 1
Audi@@ 0.9370297021025599
porno@@ 1
ego 0.5185659049860006
Theatre 0.2574765734581954
asy@@ 1
v. 0.319539849539447
angers 1
1829 0.860907619994176
Construction 0.6629514072197533
tet 0.20366448738125106
Sum@@ 0.3811765854713372
awa@@ 1
sieur 1
soph@@ 1
Lens 1
bap@@ 1
rob@@ 0.6081922481488332
Sah@@ 0.7919944340547822
FIFA 0.5167116269079194
Harris 0.5433897735569132
rio 1
Cent@@ 0.6204619934458938
nis 0.28044986881111617
Jay 0.7673660582385944
cycles 1
Kurt 0.7712266961045131
abre 1
tram@@ 1
350 0.665456356943872
M.@@ 0.5299344060670347
imens 1
aris 1
ely 0.0808007295960627
BA 0.4674864115765804
Julia 0.9099758042906497
Arena 0.5625767341569721
Valley 0.21472635276641988
900 0.5642102633393064
rain@@ 0.6866024850044402
continua 1
Garcia 1
Wer@@ 0.24488608618987082
supporters 0.8553410169714313
voyag@@ 1
Post 0.26803438184623485
ongo 1
zin@@ 0.8243739863946484
ABC 0.495495258283117
ingi@@ 1
ete 0.19136293341181698
trouble 1
hyp@@ 1
Rousseau 1
niv@@ 1
gers 0.43368076542237916
Gom@@ 1
audiovis@@ 1
sailles 1
ency 0.16028427220469688
ole@@ 1
Creek 0.24856465852623594
lact@@ 1
GC 1
1816 0.8838283819529382
invest@@ 0.6297072694299537
acht 0.15632475686829933
ophi@@ 1
1807 1
Compos@@ 1
Brooklyn 0.613144193765738
Ž@@ 1
Camp 0.5951025422707471
littér@@ 1
maintenance 0.8396880559173865
stoc@@ 1
ativ@@ 0.9846570729382844
aup@@ 0.9225040169863709
J.@@ 0.6985035161800971
eck@@ 0.3282179141381626
Civ@@ 1
raid 0.9264450281211432
pec@@ 1
uf@@ 0.4175619878909187
Jerry 0.8220943256054744
118@@ 1
water 0.07246103380590611
mom@@ 1
Mon 1
Nog@@ 1
tail@@ 1
Sporting 1
Danube 1
disci@@ 1
sion@@ 0.3421940389313217
1.@@ 0.16996899654121156
Freder@@ 1
wal@@ 0.20412533956231899
CI 1
Py@@ 0.7494804687827548
Pointe 1
Rach@@ 1
Jé@@ 1
tamb@@ 1
cogni@@ 1
Ley@@ 1
pital 1
erc@@ 1
Monuments 1
supports 0.8738537063434861
ive 0.6178894953788772
IT@@ 0.6825784297501077
instructions 1
Guill@@ 1
obs@@ 1
ital 0.5193909301176228
Alberta 0.7945569352194071
Mang@@ 0.681356747546446
seudo 1
Junior 0.3496167276301902
Rafael 0.7460312129303678
Aim@@ 1
ril 1
DI 1
Beng@@ 0.7557409145588538
ppe 1
apar@@ 0.46782515427382315
Raj@@ 0.3287508948098614
jet 1
trim@@ 1
124@@ 1
nel 0.7656796405967301
ecture 1
0,0@@ 1
Grou@@ 1
Ray@@ 0.9396512161039136
flo@@ 0.1645743051338718
Vinc@@ 1
low@@ 0.3442622079715933
carbon@@ 1
Rep@@ 0.8873902471234035
dragon 1
Hong@@ 1
monast@@ 1
eppe 1
Joan 0.8228305801011216
ancement 1
ther 0.48076551772499004
Bel 1
Lisa 0.9395466524782133
cipi@@ 1
Mikha@@ 1
immig@@ 1
audit@@ 1
pendi@@ 1
Patri@@ 0.5017228143939642
alan@@ 0.638532571352769
raci@@ 1
Avent@@ 1
Manhattan 0.6753461117755233
Lef@@ 1
istère 1
squ@@ 0.5174043522434987
Wrestling 0.5410211451641906
PCI 1
Space 0.4399277520396369
28@@ 0.5159558191735913
ä 1
Graham 0.6266533865222075
1823 0.9626402686995226
Elisabeth 0.7617361268087154
Brabant 1
stadt 0.24461950721386536
hypo@@ 1
frage 1
Marche 1
Top@@ 0.6682633868165901
Atlas 1
laborat@@ 0.801948925571256
ultés 1
Pla@@ 1
Poul@@ 1
sach@@ 1
Condé 1
Nem@@ 1
Salle 1
nil 1
serve 0.27571089762593015
quet@@ 1
mie 1
natal 1
ár@@ 0.41723664166526364
Cim@@ 1
Cog@@ 1
Pittsburgh 0.6150604827522534
usses 1
Evans 0.6846550832315008
Mant@@ 1
ascend@@ 1
monopo@@ 1
airs 0.5121266454173752
caric@@ 1
insul@@ 1
1822 0.9236987492866041
1798 1
Crac@@ 1
Wright 0.5884350127861729
angla@@ 1
Productions 0.8762025401253837
Rous@@ 1
Frederick 0.47111671099087965
amo 0.6405518067887601
Campbell 0.5838002299201621
esh@@ 0.35022286366568833
Mozart 1
Sky@@ 0.92294574705066
Wh@@ 0.40031432315923315
lins 1
entrepren@@ 1
prin@@ 0.6755227723461743
dad 0.6065285616016834
interactions 1
Terr@@ 0.7326812123153315
elia 0.6379154251407383
pol 1
lation 1
commis@@ 1
gramm@@ 1
Testament 1
rur@@ 1
LA 0.46195070752874884
Town 0.21927196235051316
rap 0.9718249869161422
Montre@@ 1
brun@@ 1
System 0.2282171133072746
miss@@ 1
alia 0.5171950326799651
diers 1
Ve@@ 1
ube 1
patron@@ 1
Anto@@ 1
lav 1
vamp@@ 1
tant@@ 1
Dub@@ 1
Merc@@ 1
Cic@@ 1
plates 1
stock 0.36443936308899116
â 1
cruci@@ 1
ms 0.15760777273086024
encourage 1
arest 1
Paolo 1
ellan 1
oms 0.6823735385721084
enade 1
Sony 0.6868810559178389
29@@ 0.5493758925905919
hou 1
pause 1
mouv@@ 1
Fen@@ 1
Istanbul 0.9897568687530558
arcade 1
1818 0.8312915069768215
ication 1
Moy@@ 1
GP@@ 0.9325794094795157
ferrovi@@ 1
permanentes 1
orch@@ 1
ectes 1
D.@@ 0.8169280799704298
tuy@@ 1
orchestr@@ 1
Azur 1
ink 0.3949976505828376
aton 0.8714942390277537
Var 1
Shel@@ 0.6464960017264267
emi 1
Is 0.35896697490140106
Tax@@ 1
aca 0.36633259630000264
archiv@@ 1
BC 0.24633801729708804
Wagner 0.857416780149474
dal 0.9289133256635198
para 0.015460182565866877
liban@@ 1
intersection 0.810140386290426
sto@@ 1
avi 0.899121812790508
kil@@ 0.6241154535878031
Auxerre 1
dispositi@@ 1
wa@@ 0.3732122545743147
extrémit@@ 1
pét@@ 1
exces@@ 1
urus 1
Dick@@ 0.8052008525514623
cis 1
FK 0.9335638696877248
Bret@@ 1
frau@@ 1
sain 1
mas 0.704011363623081
landes 1
B.@@ 0.5426230661024323
enko 0.8889644219863682
acr@@ 1
Dakar 1
Walker 0.513566832981732
ult 1
Publi@@ 1
sah@@ 1
township 0.6195332567477123
Nature 0.873007715022599
18,@@ 1
infiltr@@ 1
IA 0.7145894896108989
King@@ 0.7809753666636831
ingr@@ 1
kir@@ 0.5174985175202811
1804 0.9986262857300826
convic@@ 1
Alabama 0.46811901717581916
Royale 1
culp@@ 1
imm@@ 0.500967477717482
1811 0.9430172428062583
subst@@ 1
yne 1
infection 1
amar@@ 0.7543334727174064
omo 0.7472442420770871
wh@@ 0.15722153176684886
Thompson 0.5526822817009174
ritu@@ 1
canc@@ 0.6342334040836336
filtr@@ 1
jav@@ 1
Associ@@ 1
atum 0.8063147261002683
Green@@ 0.49362583367895047
param@@ 0.8924838364407817
Champions 0.4663737596138982
Ib@@ 1
1817 0.9011446142367161
Band@@ 0.43683605970206324
act 0.12112062736588407
ê 1
infrastructure 0.7534202864336264
Gy@@ 0.9394283177673232
saga 1
zen@@ 0.4143556101816356
Will 0.5809729197525361
centage 1
forcement 1
anium 1
chol@@ 1
insp@@ 1
lay 0.6033209651117726
Origin@@ 1
Jord@@ 1
Map@@ 0.8084460114205847
dign@@ 1
pers 0.32806177192554314
indo 1
gré 1
Conrad 1
1,3 1
opot@@ 1
50@@ 0.4272305181979512
taxes 1
Marianne 1
pairs 1
BD 1
ilo 0.5712067032821353
aer@@ 0.48734279507651973
escor@@ 0.8587047723571213
cia 0.7825787284019531
ernes 1
Barn@@ 0.7176431136240679
amph@@ 1
ð@@ 0.8895842007746597
enth@@ 0.407017400942029
García 0.5069681898529241
philosoph@@ 0.5568173978037557
rol 0.6237966574227286
Andal@@ 1
FL@@ 1
vent@@ 0.652570050071355
ouard 1
Radi@@ 0.4540970667720726
Casablanca 1
Rotterdam 1
Hak@@ 0.7875605704850042
évision 1
Bourg@@ 1
Brande@@ 1
Will@@ 0.5412511529144058
com 0.9253654191789178
IF@@ 0.8740478255248771
én 0.4820642265966541
cue 1
Capr@@ 1
contraste 1
Old 0.20691094996503456
zu 0.010412164331255136
Phil 0.7691665625356283
onville 1
fiques 1
porte@@ 1
pare 1
segment 0.8054172363611593
Sci@@ 1
1780 1
1799 1
Hem@@ 0.49542049089654555
TO@@ 0.8875643526315691
Landes 0.5279317318653526
abstr@@ 0.7872781058754416
0,5 1
Marin 1
lum@@ 1
compatible 1
Lug@@ 1
regard@@ 1
tat@@ 1
Simpson 1
Just@@ 1
Cler@@ 1
Geoff@@ 1
116@@ 1
Boeing 0.8596792819459688
rell 0.6541544719467741
wer@@ 0.1373108739626529
Micha@@ 1
Quarti@@ 1
Stat@@ 0.7131612352139728
traumati@@ 1
Di 1
ike 0.35085974898842703
Chen@@ 1
Jorge 0.5375487858838454
Shakespeare 0.9209758483757575
Joachim 1
DO@@ 0.7100314006015339
eland 0.43242960544587783
Pis@@ 1
etc 0.4545225414709348
Stars 0.5774284803034431
saxoph@@ 1
Chil@@ 0.4660881799086471
1819 0.907588363095575
40@@ 0.5116757084362017
Stuttgart 0.5569724499287608
Publ@@ 0.6287248384729346
Was@@ 0.6452664025083942
Kō@@ 1
grou@@ 1
ways 0.1887899445432882
Rat@@ 0.5365054317828565
latitude 1
ingt 1
Apo@@ 0.8449556804265872
Call@@ 0.8043729052274655
Harrison 0.660775856580421
Sidi 1
Pent@@ 0.9037518569536701
isy 1
Wang 0.7416865098857766
centen@@ 1
asi 0.5978585604330957
gir 1
Jor@@ 1
Card@@ 1
Network 0.3339851151425083
Lep@@ 1
AB 0.7007165691498267
Forest 0.36838088473291786
Que 1
idon 1
lands 0.16845244391838932
aphy@@ 1
PO@@ 0.7553019105347878
mement 1
Spor@@ 0.7510783390961215
robot@@ 1
î 1
Rudolf 0.5788822014379792
bet 1
È@@ 1
terminal 0.6035849289962992
CP 0.8696918184004258
town 0.054151903629901854
orium 0.5095247801858824
Eus@@ 1
Bond 1
Trou@@ 1
nic@@ 0.7397378328291814
other@@ 0.4670192268650594
Matthew 0.614973815599058
Ghana 0.8002365394075218
corr@@ 1
lock 0.39439622618313935
Army 0.0924997395226124
ignées 1
embre 1
multi 0.45192168024922363
hind@@ 1
colombi@@ 1
incul@@ 1
Magn@@ 1
Alt@@ 0.3600722994876538
Poznań 1
cyc@@ 1
Boys 0.48545304558066527
eim 1
infr@@ 1
indon@@ 1
BM@@ 0.7089011469308063
Bangladesh 0.6437563583331928
arn@@ 1
édrale 1
king 0.07913821650990238
got 0.22042173786901403
Gamb@@ 1
Neil 0.7761005333152993
excellent 1
Vice 0.4730927662173423
Hos@@ 0.9833763716286614
RT 0.5981861062461538
Marx 1
Bun@@ 0.5723907948396949
Cook 0.7014979880450067
allo@@ 0.8522985243996858
cid@@ 1
invasi@@ 1
zan 1
Silva 0.8653142692153964
wilaya 1
Hell@@ 1
hem 0.6087764127643549
say 0.3306568795931794
Linux 0.8670060461803589
radios 1
Imag@@ 0.9702093851064298
Note 0.651563424727814
than@@ 0.7116747363313256
wick 0.6083672347888441
Angel 0.770436022540102
aman@@ 1
dorf 0.3115656757087294
conforme 1
sar 0.7146228099977624
manuel 1
Hag@@ 0.707846888026519
Mog@@ 1
cig@@ 1
lith@@ 1
Moldav@@ 1
Palatin@@ 1
déch@@ 1
Stefan 0.8623452394356466
1805 0.9232047756229722
August 0.03095126939396063
Cous@@ 1
First 0.10978157000565487
Pag@@ 1
Bobby 0.7802395710152044
Harold 0.7702853659830754
codice 0.5644287895442606
Cao 0.8419305133977657
Mai 0.0988544462143939
Impact 1
tort 1
Annie 1
TP 1
Matth@@ 1
phine 1
Jour@@ 1
sheim 0.7879413630373486
1,6 1
GP 0.9803972247862884
GE 1
Tru@@ 1
antiqu@@ 1
War 0.04851706953997102
SM 1
olig@@ 1
Dark 0.6424582217540779
dem 0.008501317648747852
Mans@@ 1
Cay@@ 1
Oli@@ 0.7904548262539071
Mines 1
Og@@ 0.9095154140418695
160 0.5907804513730721
1796 1
Vietnam 0.3387696440524899
Kun@@ 0.5197594849229403
Liga 0.15938089404868
105 0.6726029883228299
Wayne 0.6221632542051883
aries 0.17119468008827446
Lorenzo 0.9049185181862043
tral 1
Maryland 0.38228454662043787
NS@@ 0.46111545419355515
satur@@ 1
Ambro@@ 1
ás 0.5457165921883709
Hydr@@ 1
lou 1
hique 1
ikh 1
file 0.7017699799065457
Belle@@ 1
Hudson 0.6792795358976389
Bush 0.6055288875018284
Industrie 1
occasions 0.7560136342596135
vibr@@ 1
Party 0.08568948004177762
Morris 0.5969989408584309
Baker 0.5947841454404226
robus@@ 1
Aul@@ 1
Saf@@ 0.7165765455067075
Up 0.41000055820224623
maf@@ 1
supporter 1
IF 1
dys@@ 1
Ost@@ 0.22976441420137508
Eddie 0.8047639008079231
Identi@@ 1
Sign@@ 0.7204061054567653
inflam@@ 1
initiatives 1
ng 0.5286752227474942
iges 0.47176971403672596
tos@@ 1
ento 0.24321136873337898
arrang@@ 1
sis@@ 1
Hend@@ 1
Oslo 0.921275159112729
1797 1
Vik@@ 0.6719688820592021
GM 1
biot@@ 1
Band 0.1408709305218306
aj 0.5473149867407295
ardo 1
50,@@ 1
Sofia 1
plantation 1
encer 1
Dest@@ 1
serg@@ 1
Collection 0.8298711759248076
Oregon 0.40604514124818825
Sang@@ 0.9322609223870459
obj@@ 0.4935558657601219
Mét@@ 1
ennale 1
kal@@ 0.22594898129869137
polar@@ 1
Œ@@ 1
Lil@@ 1
Geor@@ 0.7190060597738325
Castell@@ 1
empl@@ 1
Tel 1
Carl@@ 0.7007686136727822
pan 0.7704064914727019
tranqu@@ 1
esa 0.15041307261340064
occurr@@ 0.8241749832851833
Coch@@ 1
pill@@ 1
socio 1
otro@@ 1
obi@@ 0.6555234422301116
ficit 1
Programme 1
luc@@ 1
enus 1
Finale 0.4210537229658687
Gel@@ 0.3016764495211366
Const@@ 1
inser@@ 0.99773615046653
Clau@@ 1
gier 1
cape 0.9327961930408007
see 0.09145064369222786
IG@@ 1
cons 1
Sey@@ 1
exten@@ 0.745011898050344
Birmingham 0.5412269810728487
Constance 1
24,@@ 1
cal 0.37876306534394377
elt 0.21220782118481535
sal 0.38804113997198203
enburg 0.35061762646516104
bler 1
Wes@@ 0.43355398156437547
Western 0.11938405107618408
Inf@@ 0.7837431381657265
catal@@ 1
noise 1
113@@ 1
LP 0.4675124957277371
Liu 0.9329084466146723
agnes 1
Colin 1
imental 1
otype 1
Beatles 1
pres 1
bra@@ 1
axi@@ 1
Airlines 0.6434354321911733
ato@@ 1
Nati@@ 1
oses 1
Brid@@ 0.6318358724574992
aki@@ 1
aze 1
Vegas 0.6825779515893808
nutri@@ 0.9451052432513382
alternatif 1
Connecticut 0.461684602800635
joy@@ 1
ambre 1
nad 1
transit@@ 1
Fun@@ 0.6048035732277853
Tommy 0.8146407443509668
alc@@ 1
minor@@ 1
Classification 1
fines 0.6689867902509441
Luke 0.7695008317082686
els@@ 0.39493073574979903
Norman 0.5314157151780412
verses 1
4,5 1
resse 1
Marina 0.9014382163378084
band@@ 0.500148437849253
dei 1
Exempl@@ 1
Raw 1
Sev@@ 0.8918532979654616
Dy@@ 0.7491359619647029
Sky 0.6140491581596679
USS 0.6014236226567127
antan@@ 1
Railway 0.2008448172494529
oré 1
Sources 1
Fame 0.41422733827891994
dit@@ 1
2.@@ 0.15619818780888653
iner@@ 0.7785997667411867
Nab@@ 1
ender 0.15424931345923354
Méd@@ 1
Omar 1
Haz@@ 0.6597884312528527
Johan 1
Mitchell 0.6140019708330314
Jas@@ 0.9023658865880085
Standard 0.5152565142263437
absorb@@ 1
Doc@@ 0.6172204858939404
charts 0.5428029218177189
18@@ 0.4520816246905235
Turner 0.6262806207332693
lière 1
oriente 1
ats@@ 0.3920891163026339
hur@@ 0.28194140968257475
sic@@ 1
20,@@ 1
bit 0.2519044238333569
gro@@ 0.27353607776522293
Pérez 0.7088916102246579
Ralph 0.7353017085043356
pertur@@ 1
Atlan@@ 1
ectu@@ 1
ving@@ 1
conting@@ 1
Portu@@ 1
icide 1
corn@@ 1
360 0.6856943732771335
Sha@@ 0.7231865625458527
adia 1
lip@@ 0.7213461672280078
distribut@@ 1
golf 0.8540634303852036
Rico 0.49437441030737467
Films 0.49210112452204485
ornith@@ 1
Arsenal 0.940243734600781
astes 1
Nassau 1
Kentucky 0.39838495417702263
35@@ 0.510643991362224
tubercul@@ 1
Human@@ 0.6537595442194504
grap@@ 0.9858140706595018
endur@@ 1
dar@@ 0.21900469629566438
yu 0.7521905157341704
Nob@@ 1
Project 0.3453617084016638
ide@@ 0.18423480472089246
Angel@@ 0.9344039328277001
verb@@ 0.5285103462697572
colspan 0.4036934724184177
ventr@@ 1
Gat@@ 0.836508198407641
ffer 0.8460555299876433
öl@@ 0.26453510534725905
Wolfgang 0.5848269187501016
clus@@ 0.6291795480943985
Â@@ 1
MI 1
Jon 0.7643255690778115
standards 0.45330726868341126
ampl@@ 1
euro 1
substanti@@ 1
own 0.05535879631843119
Kazakhstan 1
Phase 0.7898352673840157
stars 0.25484980107398714
CB 1
Buch@@ 0.26224065564132804
Facebook 0.7175627558147513
management 0.19153826813148353
huiti@@ 1
ymologie 1
Cincinnati 0.7223463511684495
inaug@@ 1
ls 0.23386586840445703
Warren 0.6149075683092265
MS@@ 0.5803974795138667
Kath@@ 0.518909975692733
Quali@@ 1
19,@@ 1
blind@@ 1
Va@@ 1
Fat@@ 1
Gram@@ 1
tarde 0.23559322698220225
nam@@ 0.20156227555488146
eti 0.5538507775187541
gende 1
Rin@@ 1
copal 1
dimen@@ 1
gel 0.8242557257955722
Ś@@ 1
Jug@@ 1
classi@@ 1
cz@@ 1
Soul@@ 1
nas@@ 0.6957281963846828
Ander@@ 0.9835742054721095
Site 1
chair 0.46750463887635674
Disco@@ 1
oe 0.4509340883657266
Pokémon 1
N. 0.5438482356906215
boy 0.29210256075908847
dio 0.2126671421857797
Qatar 1
Dog@@ 0.782473051369639
Manif@@ 1
orgi@@ 1
Mountain 0.31272532611645126
1,4 1
Universal 0.517648672650019
Ivan@@ 1
fiscal 1
fan 0.5135111686865245
Batt@@ 0.763769306345874
ellen@@ 0.5948184340781822
transport@@ 1
lama 1
Tap@@ 0.8195341819601072
agnol 1
CM 1
Lah@@ 1
osaurus 0.932229683595228
stal@@ 1
DP 0.5854474187567116
acer@@ 0.7046052016830769
esco 1
P.@@ 0.8349645576735725
andin@@ 1
emple 1
emann 0.6716260422956996
etz@@ 0.2726943733243195
Kap@@ 0.28584290853386907
Sebastian 0.77556966808833
Clara 0.91856085702718
entrev@@ 1
scop@@ 1
Monument 1
Double 0.9796209165450097
O. 0.7247937560527016
sat@@ 0.6124051406606458
RI 1
og 0.5003675795371642
Roosevelt 0.7820220720583468
Rhodes 1
Gul@@ 0.5476089070119043
Quer@@ 0.9300341370477344
got@@ 0.376216723851011
Channel 0.33909711261164516
sand@@ 0.3774428993281919
Bom@@ 0.5014293650863726
Dick 0.7200988312742699
Yu@@ 0.8388807864240831
Ken 0.7287891240108545
brillante 1
oso 0.1810571537193625
Sri 0.3670457089677035
applic@@ 1
Collins 0.6521154651451847
Bris@@ 1
bet@@ 0.3715218164999605
Danny 0.8300314454073515
Sas@@ 0.8235899855393157
Stor@@ 0.5650151147706295
ward 0.15493628331316375
argument 0.9373194914178706
Dru@@ 0.5059518737692668
Mode 1
Tac@@ 0.7687444586725611
ers@@ 0.4079112908578165
encer@@ 1
Baron 0.4541909752008316
Gustav 0.6586645653050005
Pacific 0.1805928775201812
Shim@@ 1
him@@ 0.7252437328122473
Stre@@ 0.25435319798368655
Lloyd 0.6239897292837548
siv@@ 1
dice 0.3598443617960844
Guatemala 0.6748087190259136
mation 1
Jacqueline 1
amental 1
Dod@@ 0.7399852520807882
arguments 1
red 0.07165640620466393
Um@@ 0.12891062793623778
emy 1
infl@@ 0.7040366742776346
Dimi@@ 1
I.@@ 0.7354768579544234
insec@@ 0.6725459529611881
quot@@ 0.5077698346299648
aku 1
TG@@ 1
Tag@@ 0.5418540941125292
fel@@ 0.23286818671127366
nova 1
May 0.03720367170573702
Universit@@ 1
tec@@ 0.4697306156542869
Lud@@ 0.8998197863012823
Marion 1
Der 0.017133230100139746
Produ@@ 0.6917139179415948
chs 0.5879506575400402
Josef 0.4962117188640621
Pont@@ 1
Christi@@ 1
anor@@ 1
transpor@@ 1
extra 0.45389879394315547
CIA 0.9699698532838209
Rica 0.7055886207072851
yor@@ 1
Wik@@ 1
fret 1
7,5 1
Presse 1
questi@@ 0.7500394095091205
Just 0.5299907975176966
xie 1
FO@@ 0.7720618309818004
Islam 0.5319664760072819
Oklahoma 0.4277028141842614
iert 0.10215857432556033
mites 1
ror@@ 1
agh 0.9496574451128539
écla@@ 1
SF@@ 1
Bill@@ 0.874192330787263
Gem@@ 0.4050342191641438
Lima 0.6181049000382111
Sot@@ 1
Pep@@ 0.6694650776521389
Cra@@ 1
pak@@ 1
Salz@@ 0.7030874458141927
umière 1
č 1
Vivi@@ 1
e.@@ 1
Cycl@@ 0.9289200860032013
33,@@ 1
Angola 1
Italien 0.46594880514713133
omp@@ 1
sz@@ 0.5219497837060005
Kob@@ 1
insky 0.8434148040357886
22,@@ 1
nch@@ 0.9481816000771728
Influ@@ 1
Norm@@ 1
dioc@@ 1
Caz@@ 1
IP@@ 0.6887242461030472
Innoc@@ 1
Chat@@ 1
Wisconsin 0.3171256315972939
Who 0.4980558499536554
onte 0.8440692740001385
respirat@@ 1
conspir@@ 0.7739207522299583
uke 1
evo 0.9056468373211396
isch 0.06069786862170332
unc@@ 0.18629065580823018
Particip@@ 1
FN 1
Phoenix 0.6305184711292265
arius 0.8733316910682386
vez 0.10410586784262445
embran@@ 1
Wel@@ 0.32923048367728097
Sour@@ 1
cann@@ 1
amer@@ 0.646514104835905
rid@@ 0.46832573854925574
Clem@@ 1
tide 1
biom@@ 1
kol@@ 0.3256607411382618
Fritz 0.6335653808358617
To 0.1278378982467771
terrible 1
enda 0.4500417726603756
www.@@ 0.809789771353682
gives 0.3354184867995951
ps@@ 0.79655010185331
Serie 0.20640198279683727
Amaz@@ 1
Fant@@ 1
Osaka 1
Rick 0.7310821121868076
utions 1
Fan@@ 1
rar@@ 1
L.@@ 0.6022475550423855
perform@@ 1
Paler@@ 1
Cloud 1
sia 0.7831484704631969
Mongol@@ 1
leton 0.6445172918316616
aman 0.8036972509330582
ester@@ 0.43427948702334457
restrictions 0.9622767722471385
efficient 0.7815111488685982
AO 1
Julius 0.627452234655484
Newton 0.7576476230205347
bridge 0.16243894229801456
lip 0.6180305080207755
Alonso 1
uno 0.09184767727188428
dor 1
Nie@@ 1
leaders 0.2678784793845855
kans 1
geur 1
Pie@@ 1
2,4 1
polo 1
Lak@@ 0.5627765798638844
Niger 1
PN@@ 0.9967762901844675
anom@@ 1
European 0.07494978983513106
ogne 1
Wolf 0.5521408690587383
vot 1
marathon 1
Queensland 0.3528210185335067
Bras@@ 1
Adap@@ 1
azz@@ 1
eption 0.8910602264526964
Wood 0.47986539109480214
Holstein 0.8174736484098079
consensus 1
xy@@ 1
Bristol 0.5750579391553063
fail@@ 0.7108726359488026
Diane 1
kan 0.4103350122950338
Out 0.3661285075469373
ograph@@ 0.43912015861505066
ât 1
1788 1
Tō@@ 1
û 1
Bull 0.9364939537339871
36@@ 0.659139562151056
dispon@@ 1
Foundation 0.20807206114235594
Vul@@ 0.6891712017727091
phyl@@ 1
Cob@@ 0.6048919385420842
Santos 0.6514600443439883
calyp@@ 1
liquid@@ 1
senior 0.1729346423335628
Gray 0.6480355467586424
Harvey 0.8162269510495384
ör@@ 0.22401555106238039
yin 1
Biz@@ 1
effective 0.32917651804836695
destitu@@ 1
arith@@ 1
Hassan 1
Pauline 1
López 0.5412278247922714
lass@@ 0.8443410200325963
may@@ 0.3464584456354568
ael 1
endor@@ 0.5143674699992145
yes 1
Mong@@ 1
analog@@ 1
tar 0.35541199344240315
lop@@ 1
agin@@ 1
GA 0.915227925555524
Strat@@ 1
anthropo@@ 1
immigrants 0.7614588447732505
Utah 0.5104638062269686
bec@@ 0.7667270115452355
forma 0.10144412725536178
from 0.003973830510908541
SV 0.4495860322120854
Hey@@ 0.7548228651274881
Gur@@ 0.540442637694615
Rho@@ 1
apos@@ 0.8993221344862388
tico 0.22155983610127328
tou 1
Girl 0.46877922722798815
Port@@ 0.8911998338739068
Polyn@@ 1
Rock@@ 0.5066548954607346
25,@@ 1
sberg 0.5268977877159118
segments 1
1775 1
camer@@ 1
options 0.9519065751268997
Micro@@ 0.6817506884182218
Of 0.23079837483297988
arom@@ 1
eria 0.3679496287625629
CM@@ 0.9126547864278572
bey 0.765677939390972
dha 1
33@@ 0.6163698635693332
Beno@@ 1
Cross 0.2673843993574454
EL@@ 0.9779925797574448
Milit@@ 1
Platon 1
tex 1
icor@@ 1
Soc@@ 1
ivi@@ 1
kam@@ 0.6133184987975338
pora 1
Ferry 1
TT 1
1784 1
ren 0.5763241356020458
lar 0.13348194335809727
map@@ 0.9057317705621947
octo@@ 1
consultant 1
een 0.3804204536144225
inski 1
Freud 1
1,8 1
elly 0.6095272050760971
osaur@@ 1
Keith 0.7016797083210988
Terry 0.6639411125149624
1770 1
Beg@@ 0.33599820392244695
lets 0.36262964202682735
Ce@@ 1
Sud@@ 0.4629128362892194
eon 0.6714170663354282
Erik 1
aja 0.356039602141267
ISO 0.923082438638068
inet 1
Tang 0.9823105805197396
arre 1
uan 0.8874070389014246
ingham 0.5999556773623327
Churchill 1
Castro 0.7366727709168952
onnie 1
ingo 0.8901140204185126
liner 0.9502641478221108
kins 0.5346329735452973
Wis@@ 0.8756626601187596
uld 0.7217165908922527
transvers@@ 1
Business 0.27821272673305875
tul@@ 1
paravant 1
Sarr@@ 1
Nev@@ 1
Pra@@ 0.8294273138569611
tester 1
Shō@@ 1
ń 1
ring 0.1674100666502973
Beth@@ 0.7275980829086489
Rey 0.5811040081237407
Nova 0.5416595496415012
dar 0.19355168229594238
kes 0.32732255639016267
ía 0.043697369235192164
Á@@ 0.43002275336624635
Dag@@ 0.7534920010743741
escu 0.8989224777943403
2,3 1
Gallery 0.42809361041894983
Base 0.49897222968268423
ayn@@ 0.9286386350832783
alet 1
Ele@@ 0.6066218107683282
casting 1
ussy 1
vial 1
1,1 1
otop@@ 1
flex@@ 0.7493714301528525
Tad@@ 1
Pand@@ 0.9069550473770933
Thess@@ 1
rs 1
euv@@ 1
Good@@ 0.5176910925611551
reporter 0.8934574495043253
Eva 0.8625442890441599
DS@@ 0.8869266179458003
ju 0.8551734233247534
Row@@ 0.4971338515929153
ylo@@ 1
0,1 1
uchi 1
fluor@@ 1
synchron@@ 1
Portland 0.5171775042629428
confér@@ 1
vier@@ 0.3355049569709882
Libre 1
mach@@ 0.4505012238265146
similit@@ 1
Dra@@ 0.7185664426670962
oud@@ 1
Gag@@ 1
Your 0.4017824031967914
Box 0.6754856164112976
Over@@ 0.26400043096248443
Wehrmacht 1
Holmes 0.9029062852620675
Noy@@ 1
ainville 1
Via 1
Berkeley 0.7032988358888824
ate@@ 0.4618634839393061
emper@@ 1
igan 0.6689791271947807
itu@@ 0.6446430815948758
eme 0.37664671943949296
ator@@ 0.3784127043867229
avo@@ 1
Westminster 0.9024478657759543
27,@@ 1
Andreas 0.5639972932755153
maxim@@ 1
Deutsche 0.28458470214530146
imit@@ 0.7503586535203061
male 0.19418251156120178
Parti@@ 0.6385282665032228
discrimination 1
Wak@@ 0.7631193830159783
Citroën 1
amoto 1
Meyer 0.8185902781306637
ible 0.536938803000261
Lob@@ 0.8273914125260643
her 0.010634954774827492
odor@@ 1
egger 1
Zi@@ 0.3733901600764537
eld 0.377053957962595
α 0.2512199676163049
extrê@@ 1
gin@@ 0.9098405794239182
mark 0.20587575240747247
aissances 1
Be 0.51733278968655
Cyc@@ 1
Leo 0.5419476122638108
igt 0.7751327117892658
1783 1
Cha@@ 1
ony 0.24135689254120382
Twitter 0.7404132396278166
apa 0.5109143330892755
rail 0.35985281876968495
saur@@ 1
juris@@ 1
1600 0.7900242516863821
bio@@ 1
termina 1
Global 0.3956893676560886
elis 1
rak@@ 0.9711375461785503
Men 0.20424789705511745
grain 1
Laborat@@ 1
suj@@ 1
Monta@@ 1
Antarc@@ 1
34,@@ 1
Bin@@ 0.8000212577735037
grad@@ 0.5424842994573456
Public 0.17268178735606265
kay@@ 0.8362464969365603
kor@@ 0.23175658054859777
Rum@@ 0.4977714992545437
Satur@@ 1
Nil 1
Que@@ 1
1750 1
mau@@ 1
Mack@@ 0.6732768935420362
Grandes 1
amorph@@ 1
anch@@ 0.3788817956656277
Hugh 0.6219532239427991
êque 1
yro@@ 1
igration 1
Church 0.07543194615093193
agon 0.8204616441544045
phant 1
sets 0.2938826700386778
Say@@ 0.6694996911038731
Heid@@ 1
macul@@ 1
oki 1
Clinton 0.5784871787025763
trail 0.8271555544918575
Do 0.3514442306092893
Larry 0.6883934524438031
Armstrong 0.8591550131058655
Brothers 0.4514346334835869
D1 1
escar@@ 1
Paraguay 0.7646882170532647
Lions 0.7001112677372306
Sergio 1
Dir@@ 0.9183845481482432
SG 0.6047683324526517
berto 0.9314367244276281
Wimbledon 1
NR@@ 0.6525341378644706
archev@@ 1
atrième 1
accio 1
Alexandra 1
ynam@@ 1
arp@@ 1
Julian 0.8552381224576008
Werner 0.5938597144363666
itt 0.41917128884945043
mail 0.555440193626873
AV@@ 0.6696072204820054
Pictures 0.5422584738454634
rements 1
Ron 0.7186727479978559
Ts@@ 1
incidents 1
Anth@@ 0.8624209970070296
37@@ 0.6385448390549436
Book 0.2653364311801968
Lyn@@ 1
til 0.6733900364900243
102 0.682378646823932
39@@ 0.7064009619447932
SI 0.8630802967804946
Zhang 0.9142378008099138
Ish@@ 0.9884015571510885
Flo@@ 0.5829353466932202
parap@@ 1
illance 1
thel@@ 1
Gin@@ 1
Tot@@ 0.6093470320170816
Hug@@ 1
aper 1
Sax@@ 0.6618901903773781
rol@@ 0.3909460019652161
34@@ 0.6080305788761302
Miy@@ 1
Müller 0.5943201440437758
vić 1
Río 0.3286039901981479
cros@@ 0.3953812310491791
fo 0.5841561043236126
Reich@@ 0.27035434461735147
Joh@@ 0.9391389409384975
Niv@@ 1
Gard@@ 1
Susan 0.7122726552277008
ougou 1
ā 0.6435794832527988
kar 0.5345521963966962
oque 1
Æ@@ 1
mos 0.5872640707190715
Hass@@ 1
Westph@@ 1
Lieutenant 0.40599260041012275
Allan 0.9287635593311735
1787 1
Angelo 1
ao@@ 1
ovi@@ 0.6746948341085892
kel@@ 0.2881602179769767
26,@@ 1
Wild 0.5572984723801104
Dead 0.5521224270688219
instruc@@ 0.4082991814838623
wen 0.5759978832270714
animales 0.8029343145883191
igh 0.5501338674480607
Roman@@ 0.36082819220429285
Neg@@ 0.47843434978056887
Wells 0.7544467559173934
ander 0.5455213150157301
Fabr@@ 1
Kre@@ 0.23067539027497108
aza 0.49866850417280145
Kate 0.7935373300287003
ò 0.9381812798912236
450 0.6512521300279257
eline 0.5553457326180875
´ 1
Santo 0.4922158431835379
Leh@@ 0.4159419894532566
uka 0.9050880593355699
améric@@ 1
ilia 0.8606492063639054
star@@ 0.33168869825965747
convertir 1
F.@@ 0.7587754807002295
combustible 1
ń@@ 1
Wy@@ 0.6250073876276521
Mob@@ 1
aker 0.2758328747700507
enr@@ 0.6455657453667686
æ 1
quez 0.8411801691229202
ympi@@ 1
Day@@ 0.542526885024828
Cli@@ 0.7738855714714665
Rachel 0.9126159080526145
einture 1
constant 0.5653608117694999
Light 0.34875611592540906
bli@@ 1
Information 0.4365792196152655
Cohen 0.9947226656979292
Free 0.3265306266808202
orig@@ 1
alto 0.3623593893764318
Sea 0.20777477738514677
Yor@@ 0.8321812141785101
mig@@ 0.7181153446039336
contra 0.11076713165237703
ński 0.9875267385749933
Kaw@@ 0.9894043692593624
SM@@ 0.8445282599345567
Porsche 1
jar@@ 0.9733355024016833
oyen 1
Web@@ 0.43401287263897353
Schneider 0.97769798572263
21,@@ 1
Richmond 0.5253920593121976
etière 1
Vand@@ 1
forum 1
Play@@ 0.4398896268302604
ogue 1
odon@@ 1
Nathan 0.948791538524082
restric@@ 0.8706756153569967
lane 0.562905215824622
eros 0.17437145070974122
Promotion 0.8546203713972291
Sv@@ 0.8521322811313217
ket 0.3010080996937696
Gabon 1
Dom 1
Henriette 1
folk 0.44915461094060727
lance@@ 1
Race 0.6073781567715802
Hin@@ 0.19889175675619114
Sok@@ 1
Story 0.5059423371108811
Perry 0.6172773768885602
Valentin 1
Strauss 1
Io@@ 1
Bess@@ 1
Nich@@ 0.5790663055150652
Cyr@@ 1
1785 1
UC 1
lice 1
fus 1
Tes@@ 0.89140324772011
uru 0.597449134894154
pati@@ 1
Sn@@ 0.5644034031501759
Laurence 1
inga 0.7524899114611953
wn 0.24802985998990631
Down 0.5304753028271117
Elena 1
nio 1
cataly@@ 1
1778 1
Nes@@ 1
Bid@@ 1
Marius 1
uth 0.9052261026269046
Mickey 1
Rwanda 1
inales 1
Triple 0.7788627995854763
aru 1
traf@@ 0.8103465046980316
ovice 1
dura 1
isin 1
titu@@ 1
glu@@ 1
Madonna 0.800006098478319
Nau@@ 1
Carthage 1
Ed 0.6097818951241073
Breton 1
intercep@@ 0.8303552374533252
CR 0.717915023614942
Coast 0.22228935289005888
Dow@@ 0.4278376202222301
Chav@@ 1
écolo@@ 1
informe 1
Hach@@ 1
osh@@ 0.6517340276182654
Suz@@ 1
enclat@@ 1
logan 1
BMW 0.9166640590573424
Sali@@ 1
condens@@ 1
osom@@ 0.9958397786856309
38@@ 0.597294744100609
Install@@ 1
Congr@@ 1
andra 0.6141988844909255
isra@@ 1
Kyoto 1
tas@@ 0.2932087836163519
Beethoven 1
Sti@@ 0.3756434004062474
aver 0.5679463902304683
Grace 0.6464970790376755
Yan@@ 0.6461458736486647
104 0.6936855880868681
Mom@@ 0.8136646451892229
book 0.05743468540542984
hen 0.42936825837135306
vio 0.4389946930979518
1,7 1
ders 0.12964129612675085
Law@@ 0.3533718676271229
vr@@ 1
Inc 1
gan 0.4186142771971804
éclip@@ 1
Giorgio 1
polyg@@ 1
Hid@@ 0.8605887834802357
Rodol@@ 1
compensation 1
jer@@ 0.3540576867006654
Fus@@ 1
laser 1
Four 0.27853712979948625
atre 1
substr@@ 1
euc@@ 1
Net@@ 0.6490966308455772
Jo 1
czy@@ 1
dom 0.47055717124076635
hand@@ 0.14051994374845597
HD 0.4545618784545398
Spr@@ 0.3094107112970922
Albums 0.510676731128149
T.@@ 0.832419922717407
facto 1
azi 0.8076737171893082
stress 0.7588924240127973
cev@@ 1
Dean 0.4290493355947314
Japan 0.08604335094551183
auth@@ 0.8849456135629342
wen@@ 0.2300722220027207
ț@@ 0.9053942373588801
Duv@@ 1
Sis@@ 1
iris 1
Kle@@ 0.3081048946667367
cristal 1
Hut@@ 0.5711112033209671
Magnus 1
Ox@@ 0.5472530312915205
Chelsea 0.7528915498707553
Orlando 0.8523521342786371
Tex@@ 0.3687764919708598
irrig@@ 1
unter 0.028996416660344103
Leonard 0.6940029465554757
sain@@ 1
23,@@ 1
Gibraltar 1
sburg 0.4334617795353853
Sept@@ 1
ologien 1
rine 1
Ronald 0.8127172927247339
EC@@ 0.809290704337586
Tang@@ 0.9822000799381634
MP 0.3233989317228254
Aaron 0.7791651862650858
Hardy 1
Hob@@ 0.616933726492572
Yas@@ 0.9892110155409627
ettel 1
discrimin@@ 1
Vu@@ 1
parade 1
sages 1
jiang 1
Sph@@ 1
Genti@@ 1
Lal@@ 1
nitr@@ 0.8222863921059897
rod@@ 0.4951639467293694
inves@@ 1
pastor@@ 1
Rim@@ 1
Jud@@ 0.34417549966242256
azar 0.7055364002205625
Hein@@ 0.600736845377742
Tanz@@ 0.9696730141406649
Brigade 0.33105390890335495
51,@@ 1
Sean 0.7633345900079791
elo 0.437149740211096
head 0.06118841026728147
oon 0.34307458133992375
1760 1
Bed@@ 0.30674860416223265
ru 0.8327835801339862
Section 0.6456600372803244
icz 1
Secret 0.7925538271794894
Klein 0.7680146647601446
superfici@@ 1
tidae 0.9040160682497566
Table 1
Hyp@@ 0.8787943351521611
Dance 0.3940399499726935
ss@@ 1
High@@ 0.3823897075544344
gage 1
Now@@ 0.6988954140660354
ayo 0.4299451826762295
ld 1
nac@@ 0.8710892047814682
Jin 1
mite 1
alle@@ 0.31185440789106095
3000 0.4387677773828332
Electric 0.566429523865428
ae@@ 0.5852114418787329
Xe 1
his@@ 1
wag@@ 0.837196969096564
Alpha 0.8378499395049931
Bang@@ 0.9079736436304708
Rolling 0.6009933909795131
Way 0.4327250653917438
Ye@@ 0.5746149377314881
Dus@@ 1
lez 1
Schw@@ 0.16576070828179923
cond@@ 1
Hills 0.42014075476200263
variant 0.6531716654523305
owice 1
dram@@ 0.3855720292496541
Ö@@ 0.21753800874742457
manufacture 1
igr@@ 1
tors 0.10270811059283469
Greg 0.7741562386959749
UR@@ 0.9690144785000296
chio 1
Alessandro 1
bei 0.0144282615395872
Fav@@ 1
Jal@@ 1
chel@@ 1
1776 0.9716369482010773
ias 0.42985832244374056
pè@@ 1
ú 0.41062272664921756
combe 1
contra@@ 1
RTL 1
22@@ 0.5392298085432421
xon 1
Garden 0.4115774665043658
enga 1
alpin@@ 1
fj@@ 1
VA 0.6111497841569735
Rand@@ 0.6661420388462748
Ż@@ 1
gar 0.3406918117849113
icks 0.4302959463828399
ome@@ 0.35728121746763813
48,@@ 1
Diam@@ 1
135 0.6933712989283279
Auschwitz 1
Abel 1
Cah@@ 1
emin@@ 0.7568822027178681
Kings 0.5569927465808008
square 0.1950185344677871
ør@@ 0.8016399218595704
1763 1
Anim@@ 0.6874698591544915
Girls 0.4164277231974941
Hosp@@ 1
Design 0.28393624851196747
IV@@ 1
irat@@ 1
auses 0.6824056664840586
Bron@@ 0.6173607782206815
Dioc@@ 1
kom@@ 0.20716767427924884
Cameron 0.7368661536339319
Pig@@ 1
Trem@@ 1
Crist@@ 1
MTV 0.47937286608300805
tag@@ 0.39485588092301216
anni@@ 1
ù 1
jard@@ 1
Tu 1
enza 0.7073514974573001
effici@@ 0.5808162188274482
Classic 0.5351351815224523
comparti@@ 1
permission 0.743753315522645
Grammy 0.5912279879244668
Miles 0.863185012372829
ocar@@ 1
aven@@ 0.8678344436753389
Batman 0.9237938333491755
Athletic 0.41565684497488514
You@@ 1
ated 0.017603871551025364
Put@@ 0.7460392360131579
Peter@@ 0.48458425112535397
phi@@ 0.7185491428201523
Abd 1
onial 1
Cabinet 0.8437578589373472
zin 1
Machine 0.7864647379734214
PT@@ 1
ict 0.4067197378537777
unk@@ 0.25901385772971197
Memorial 0.2809978276754202
hin 0.2587611158439235
Bridge 0.23682571973316596
Miss@@ 0.5335135628734223
Limous@@ 1
isition 1
Pok@@ 0.7945287632915466
garage 1
1700 0.8343060904771428
Spencer 0.7294375776645007
game 0.034725137633086545
Delta 0.6097372550844418
Hart 0.7099000507468478
200@@ 0.4538384176547766
e. 0.9454822591948205
stra@@ 1
LM 1
xu@@ 1
Ball 0.5412709118342994
Utrecht 1
leuc@@ 1
delta 1
29,@@ 1
acy 0.11199151484771805
cole 1
igueur 1
Watson 0.6606867976269551
vog@@ 1
Nicholas 0.4941702416101624
Recon@@ 1
aldo 0.8148489759741786
Vier@@ 0.374339746671214
NS 0.6187793770194168
pler 0.7779213790349759
→ 0.684293147476686
Avi@@ 0.9856428179752162
Ques@@ 1
jk 1
iva 0.4595598384628693
Hunter 0.5344347525065276
Lanka 0.4869266102239148
migrants 1
bia 0.8495122393738654
Meh@@ 0.761041332452799
over 0.01768043178277512
iec 1
intu@@ 1
Dah@@ 1
eum 0.3395810158632064
Quel@@ 1
Harr@@ 0.7739621209144114
Felix 0.7215457139057191
fascin@@ 1
González 0.4924729773836639
Khal@@ 1
Wu 0.7786073547702648
incon@@ 1
former@@ 1
ppo 1
isch@@ 0.1873250439131985
asso 1
109 0.7103493726168878
1786 1
edr@@ 0.4396012815066459
aussée 1
LG@@ 1
iel 1
ER 0.774200603308592
Chim@@ 1
atern@@ 1
nombre@@ 1
soprano 1
Ruth 0.7281633273637378
lah 0.9643209536342152
guid@@ 0.977220507975996
SD 0.7337659611516384
Technology 0.24839231874905432
Explo@@ 1
Khar@@ 1
orama 1
quième 1
Hector 1
brev@@ 1
Xbox 0.8484268168967862
Del 0.38443295684016365
lain 0.6363147360628153
LE 1
hat@@ 0.35861262252698284
onius 1
erry 0.7326326963102809
Hed@@ 0.6229422626393952
ally 0.029893150555476478
Sound 0.3902643991898235
UK 0.09329918343594697
V8 1
Yuan 1
Dakota 0.46158707384497466
Rob 0.7815219439181965
aks 0.27123690907077247
Religion 0.592442847274375
Circuit 0.6436332439470588
Hop@@ 0.5723626293726045
fier@@ 1
Wallace 0.656162695997354
auff@@ 0.5640798819803007
iler@@ 0.7864596762825565
fratern@@ 1
BO@@ 0.7129627097899044
tribu@@ 1
28,@@ 1
perf@@ 0.39464030482774
sian 0.39153017329660766
2,2 1
We 0.1714733637715961
commander 0.28619140318654096
eka 0.7332014915460804
born 0.02186220904459898
postul@@ 1
chy 0.8955929829650926
103 0.67963054011533
égie 1
Encyclo@@ 1
Magic 0.655774554958479
esh 0.40031598283430064
Hockey 0.25862448460045095
yse 1
Arkansas 0.4193685040881369
Ltd 0.41220874794193607
aldi 1
tropical 0.24324585689558975
bure 1
Rag@@ 0.7391778761665377
subj@@ 0.7896519973462932
letin 1
Weimar 1
akov 1
acum 1
Fra@@ 1
vag@@ 1
Mab@@ 1
Blake 0.8448013821080592
Portrait 1
Final 0.20257339013731346
thy@@ 1
Butler 0.6435015086506533
ney@@ 1
Abu 0.5326958926966092
iba 0.6602630319780012
Amar@@ 0.7359289228738759
Organ@@ 0.5568372320229711
Gestapo 1
German@@ 0.5738568345011696
Igor 1
Jennifer 0.8771545877115934
Apollo 0.9414833436148116
gang 0.16684101570311619
Edo 1
chu 1
estes 1
terti@@ 1
Schmidt 0.6032474884090764
Soy@@ 1
lars 0.9109146047308229
var 0.5280895029823918
onciation 1
uba 0.8041706122708575
Jab@@ 1
sov 1
Water@@ 0.4547525253431949
Eug@@ 1
Adel@@ 0.6768266656995736
Fischer 0.6794731877274099
Plo@@ 1
OM 1
Good 0.3522008686480408
Capital 0.420556691265307
iter@@ 0.4378487485707371
meeting 0.17148991690318421
Pall@@ 1
Font@@ 1
curios@@ 1
1782 1
Helen 0.5898744770780255
Cun@@ 1
align 0.25021443657141434
1200 0.6130816348056645
Combat 1
arina 0.9182799568001866
ouges 1
pant@@ 1
Conqu@@ 1
Council 0.068192308837658
Virginia 0.11582926476009209
Are@@ 1
Nevada 0.5293404960901924
Dragons 1
Muhammad 0.4482706679643896
inda 0.6677046419487304
poem 0.34623456886176046
1,9 1
ross 0.6622625337818867
doctor@@ 0.7446347964887821
cret 1
Sara 0.9245379677047856
Kis@@ 0.9911834654512364
jeun@@ 1
Jack@@ 0.9486211195816963
Slo@@ 0.383885011032613
Lomb@@ 1
SR 0.23946638927408553
FBI 0.770660516113434
finland@@ 1
asse@@ 1
gam@@ 0.5960195040647207
into 0.014025040108472725
Zel@@ 0.9522095596009201
cois 1
scope 0.5130858688484539
County 0.031569500801516125
Anatol@@ 1
sormais 1
iya 1
robot 1
Spar@@ 0.38590959575417905
Michelle 1
Tradi@@ 0.48083407710271764
Zar@@ 0.7192568431117883
ambigu@@ 1
list@@ 0.2501717179230359
Haus@@ 0.24736305525444693
Wellington 0.653270646435718
Management 0.26312007283035554
arie 1
HF 0.7009682120721004
Mail@@ 1
cium 1
sep@@ 0.8653675932555724
agro@@ 1
eke 0.8044225763026223
soix@@ 1
PP 0.8788939990170261
3,2 1
Dennis 0.5979551027825369
Bus 0.6338590561933898
teil@@ 0.2255725223425222
Cach@@ 1
Must@@ 1
Court 0.08932816261922352
gie 1
placement 0.7523655473146148
chia 0.4598361959905248
Sahara 1
ishi 0.9108745163003409
oj@@ 0.6988620383809869
scor@@ 0.4536607470504906
stand 0.0731737386065236
sule 1
cave 0.9052116674610632
macro@@ 1
Att@@ 1
Carol@@ 1
kow@@ 1
Carmen 0.6800435635766211
Quint@@ 1
Murphy 0.5982500718588935
satisfac@@ 1
Barb@@ 1
persp@@ 1
Bam@@ 1
Craig 0.6235620676083808
Motor@@ 0.3355901616079568
Lotus 1
Shu@@ 0.5874792491301624
Rain@@ 0.9511163709225077
Tau@@ 0.6885223261467841
Moon 0.4270510432879467
ostr@@ 0.8448532771940517
Death 0.2341241613549713
Gw@@ 0.8877998396864434
vali@@ 0.5205465751199231
crip@@ 0.32844817620943606
Lane 0.41115314769536165
gang@@ 0.5920349249849128
soir@@ 1
Olga 1
1777 1
Caus@@ 1
220 0.6558729190093008
rail@@ 0.557380971463496
1774 1
zel@@ 0.9295229282547186
Atlantic 0.22578289105359986
Weber 0.8013909740964738
deg@@ 0.7830507524080409
108 0.6548593825706737
Open@@ 0.5639635356382897
Rodríguez 0.5122704663957999
Tag 0.24297800525809088
oral 0.33540985829496345
Sit@@ 0.7114699047195566
valenci@@ 1
kW 0.7304379640896452
phé@@ 1
Chanc@@ 0.6259932869098748
Memphis 0.8430324729079745
pper 0.507662885357242
kw@@ 0.2646387738029683
Emily 0.8213126225656125
NCAA 0.26462507205286784
Madison 0.5309393018294342
gli@@ 0.5319041100100338
Tai@@ 0.477467789012631
XVIII 0.33708350293265826
isha 0.5893208701254686
45@@ 0.5486405133569643
Tech 0.5599822397135679
bak@@ 0.4064850911305492
hil@@ 0.4479155267754946
omen@@ 0.6791066457601117
Raz@@ 0.9469329327587924
nels 1
asis 0.36569057801448707
Alc@@ 1
EA 0.8855678596909096
Kus@@ 0.6070000137578265
diger 1
thriller 1
Ses@@ 0.564604083041143
ament@@ 1
Law 0.15193420041269667
Loy@@ 0.9514803342364024
Buffalo 0.5414151688433684
Tun@@ 0.449023913640355
uj@@ 0.9251334751293864
Ana 0.49884327649215665
Aviation 0.6704293799362974
Mann@@ 0.4895009895633934
Phili@@ 1
membrane 1
CBS 0.3956476868970164
Goul@@ 1
Kru@@ 0.8414362594575147
Cub@@ 0.7401041817462888
trum 0.45927589639439403
bot 0.28961369522013203
udes 1
Domenico 1
transit 0.9423785599068869
Fried@@ 0.4496580267675382
zes 0.39410899746010125
TR@@ 1
Grig@@ 1
cation 1
pulmon@@ 1
Buck@@ 0.6516461705746395
Netflix 0.8529686162558937
Baby 0.5867306600136121
ondr@@ 1
orps 1
Kum@@ 0.5845134518416236
xa 0.45137501006986097
provoc@@ 0.655010033910023
soul 0.6366921259778642
Hampshire 0.45607929416037934
Nacional 0.1073494819072696
106 0.6732792961918111
dias 1
Indian 0.07991896539319589
Railroad 0.3608176265639117
eren 0.08538493863437024
mid@@ 0.24004630742133
Arte 0.6958365173938971
carp@@ 0.7728135207914947
Archi@@ 0.6352157849789967
Bail@@ 1
Phot@@ 0.5303397294423836
wich 0.6180313820745044
Hot@@ 0.6260071724142738
Peg@@ 0.7741357953045926
yards 0.23114923276458618
chenko 1
maximal 1
usz 1
imir 1
Brah@@ 0.6014734050343868
Da 0.1436944284414357
sta 0.4670430368607683
G.@@ 0.7745591959503911
LC 0.6621856759491134
zard 1
Luther 0.8412481334907084
veaux 1
Obama 0.6120151085909165
ths 0.18113060053930172
ț 1
actylus 1
mat 1
.S. 0.5676121111358884
Mobile 0.6365212595939247
6,5 1
Anat@@ 1
Yous@@ 1
bars 0.7630048275438863
Pach@@ 0.6851353286952945
eca 0.42118958523095396
Dream 0.5680271349648203
Buz@@ 1
Ellen 0.8565104784933499
Mi 0.8511221264725881
Roberts 0.5271903284460079
Sánchez 0.6415989108709576
19@@ 0.6561212179421543
Album 0.14832608277855974
lenti@@ 1
Mim@@ 1
Play 0.38666440601322616
transfer@@ 0.4743677568152343
uy 1
eira 0.6580866172277575
hâ@@ 1
tial 1
ís 0.6613573977678443
Grey 0.665647463606825
hel@@ 0.26666373818653294
phus 0.9382767151294051
antagon@@ 1
Bonif@@ 1
elen 0.3398180025785765
vertical 0.566489263518193
Lang 0.9297224337343092
phon 1
Berth@@ 1
Pist@@ 0.9767348028740368
podi@@ 1
prov@@ 0.20022630646778664
tang@@ 1
Administr@@ 0.4948232585203773
partici@@ 1
urg 0.6471181598880028
burn 0.410751474152442
36,@@ 1
ST 0.6649372822388707
alls 0.31915813498095685
def@@ 0.12214656621687936
Pop 0.4397978064500066
igna 1
Bundesliga 0.340612568611153
Pam@@ 1
bid@@ 0.6365873201863554
Orchestra 0.34715706293851417
teri@@ 0.3745522090514025
CT@@ 0.7910317240231504
Gouverneur 0.9746199195021561
beur@@ 1
Bryan 0.7769980563655235
kinson 0.6401694714044206
80@@ 0.4006729863065886
Fitz@@ 0.7648419666328732
Ricardo 0.6528628337531892
O.@@ 0.8519986330050074
Eth@@ 0.3039252270237063
112 0.7069227044893281
hang@@ 0.47007263901854335
Berger 1
uto 0.650988686614263
ega 0.41000252908045115
empir@@ 1
eliers 1
intest@@ 1
Jefferson 0.5444222642693445
NBC 0.39718855759891386
iton 1
Audi 1
icules 1
2,6 1
Fam@@ 0.7049467117408152
Jag@@ 0.48590106737895894
UE@@ 1
lau@@ 0.28547012006487205
aster 0.28390452093193597
LGBT 0.7443561213296299
omorph@@ 1
explore 1
Marqu@@ 0.7033646576757795
dam 0.4174996797401682
arine 1
urt 0.6257936968654813
ven 0.1753937606749263
gon 1
Mall@@ 1
ovski 1
bab@@ 0.6845974056457533
Rall@@ 1
Schleswig 0.6271130455444339
hit 0.1263545878681715
Scu@@ 1
ós 0.9655255534339252
End 0.3771492646877794
Fire 0.326996895549844
ern 0.043301173419055525
arien 1
Airbus 1
Television 0.26923646636102727
Tok@@ 0.8654782797273262
obe 1
BS 0.5070717015876673
hispan@@ 1
illar@@ 1
Sex@@ 0.5014454389828438
ègre 1
Pol 1
Amy 0.8024583397063799
Honda 0.8533424863024441
cos 0.2908628255187621
wat@@ 0.20454729915005404
Liz@@ 0.5554461018923784
borde 1
5,5 1
Cand@@ 0.8174682420100926
exact 0.7381837163631405
ology 0.05188476838141971
Six@@ 0.5808008147037286
ith@@ 0.37702979470432657
al. 1
gradu@@ 0.4972379498834602
uple 1
Natur@@ 0.1890794966031134
ases 0.3690403441343938
hat 0.03676539249133556
Heart 0.37650586359516386
Prof@@ 0.37036721852216675
Ted 0.6884199624434746
stand@@ 0.22561944465441855
glom@@ 1
sius 0.7605105395117389
uries 1
Anast@@ 1
DR 0.532436248775777
Potter 1
disco@@ 0.42899685770533946
Rah@@ 0.5408828806156799
Cum@@ 0.5077635351972994
ö 0.6553122674723436
Montana 0.5860655832374284
Buff@@ 1
atti 1
cht 0.14902795428342439
teil 0.1191054165559028
Patricia 1
wel@@ 0.15219559857015885
Spo@@ 0.6357405448382077
alli 0.6687688633520568
CG 1
itas 0.34671369301857413
sidi@@ 1
Chas@@ 1
Pan 0.45233350090807517
olin 1
appe@@ 0.5309842894250572
hausen 0.333306708397375
usur@@ 1
torp@@ 0.9730455866032799
Saskatchewan 0.8733695591458864
Burg@@ 0.3321231245373869
internation@@ 1
agglom@@ 1
aurus 0.9886627675821018
idge 0.3880451208036557
vière 1
Opera 0.3555624818964826
gravit@@ 1
Bati@@ 1
Diana 0.7661322546715756
Page 0.7386559205164571
ás@@ 0.448244261688551
maus@@ 1
Yu 0.9477319586307377
Edwards 0.5600594177448776
Globe 0.8253367528491226
Thom@@ 0.9226968223139203
Valent@@ 1
Luca 1
ws 0.14630064706541399
nan@@ 1
Lucius 1
conson@@ 1
Lati@@ 1
Morav@@ 1
Nah@@ 0.43015094579564056
avar@@ 1
coni 1
litz 0.6880022513942078
Halle 0.4691478764629661
offic@@ 1
Kak@@ 0.8960768006276971
SH@@ 0.7088298045125738
Viktor 1
1772 1
liga 0.20234740820951086
Düsseldorf 0.5190665145733998
Bien@@ 1
dru@@ 1
km@@ 0.9794875425986025
Daily 0.3840479006926413
Candid@@ 1
cot 0.7345261302757705
Cus@@ 0.4662465843868431
acon@@ 1
quart@@ 0.9928740184885733
zel 0.8081298548179955
1740 1
Zor@@ 0.9703818978372164
Kay@@ 0.6971721437026489
ondo 1
Lip@@ 0.9351241119579399
icher 0.9926515636831554
128 0.6519883053180857
N.@@ 0.6295745956604968
UC@@ 0.7782268889177879
Unicode 1
uss 0.25917446509682646
Kim@@ 0.6858291107944071
Norfolk 0.5491878124664133
kers 0.2704526285291801
offices 0.3039989676379557
Plant@@ 0.8033921044538193
Serv@@ 1
arro@@ 0.5201962299699606
For 0.04512090965597686
Lucy 0.7748218860071038
vine 1
western 0.0918578987049194
édr@@ 1
As 0.027097709789149667
Wiel@@ 1
aan 0.9004855229002859
170 0.5955439185735576
Nos@@ 1
cac@@ 1
entis@@ 1
Chré@@ 1
Kri@@ 0.5455207297674893
Pelle@@ 1
Jose@@ 0.49336725370489615
fre 1
ques@@ 1
sels 1
eg 0.5247603251377807
esia 0.3789790628899018
Yang 0.712560675546184
estri@@ 1
Marin@@ 0.6605369050997472
erlandais 1
oides 0.511409596635948
Guang@@ 0.7243032509360064
timent 1
provinciales 1
CL@@ 0.8393378001187094
Picasso 1
Artic@@ 1
Lou 1
sonn@@ 1
Herman 0.9749688889980939
ific@@ 0.3505979184177142
AI 0.6758996753095852
Path@@ 0.7024149892186856
esch@@ 0.23063737472018228
Clin@@ 0.560371104771315
Did@@ 1
107 0.6645448208889061
BB 0.796601632207896
Rossi 1
für 0.007214948175265131
break 0.22992750778024693
Judith 1
TE 0.723082015204549
1779 1
iller@@ 0.7928120146195125
pouv@@ 1
Contro@@ 0.9719682274232566
express 0.6392892120628569
Rogers 0.531225424411798
abdom@@ 1
pith@@ 0.7244547093263748
Quar@@ 0.6827843211880789
Dul@@ 0.736309124464618
Nina 1
Ich@@ 1
Cole 0.6778352972886817
tane 1
Yorkshire 0.45257697527557
oty@@ 0.872156065795835
Henn@@ 0.8911727813842453
Koh@@ 0.3576085635733227
gin 0.7325587245691734
ear@@ 0.16462278920690165
Ming 1
cul 1
RN@@ 0.9486640184895819
44@@ 0.7314298924048658
Hit@@ 0.5131201174270927
KO 0.8496844536524689
omy@@ 1
Qing 1
Ibrahim 1
Autor@@ 0.5893705370329765
McLaren 1
Vy@@ 1
Ent@@ 0.20830806981103325
Guide 0.7142588101834274
IBM 0.590193548522931
Joy@@ 1
Tower 0.3839833842498987
ough@@ 0.20732828544508355
Café 1
Lum@@ 0.9610223614802694
Squ@@ 0.6574571348614926
Led@@ 1
Kov@@ 1
Pru@@ 1
1781 1
phal@@ 1
Silver 0.3979486628828034
lati@@ 1
Kingston 0.762703779717973
tras 0.11517163886164161
Ç@@ 0.3378174035133463
Mati@@ 1
cat 0.619305571451005
enny 0.5857816954412012
This 0.015932667643530768
Yv@@ 1
node 1
Key@@ 0.5118247061374048
otom@@ 0.5695799161418617
Ramb@@ 1
azza 1
ý@@ 1
person@@ 0.20575745970676454
Suite 1
China 0.058733916333476396
ucci 1
win@@ 0.4233107642818111
thes 1
£ 0.15452157163406002
3,3 1
olis 1
Vinci 1
auf@@ 0.03485328383801546
Digital 0.3823738613466296
cent@@ 0.3160451013051049
nivel@@ 1
Constitu@@ 0.3908657054008248
2,7 1
1768 1
IT 0.45892823000916316
Nig@@ 0.599416851971436
seig@@ 1
orqu@@ 1
Brit@@ 0.363014850916351
Leon 0.6680897926489272
dérou@@ 1
ocl@@ 1
Zen@@ 0.8415509557136186
fortun@@ 0.5367642653137222
lov 1
othèque 1
Michel@@ 1
Braz@@ 1
Montr@@ 1
Ward 0.4182051899097663
endorf 0.31238800727349114
Chen 0.6877559173992533
X. 0.8661863603224028
down 0.04587195208968002
Glo@@ 0.9804625605757373
Hotel 0.21668834374081153
Krist@@ 0.5666316055611823
Pete 0.7215393837049285
Rak@@ 0.5076314803373698
ications 0.6930966103767616
cock@@ 1
NT@@ 0.7522776291930973
relativ@@ 1
Iron 0.3947316551884974
Pant@@ 1
Duke 0.19939823382165556
0,2 1
Form@@ 0.47357127897768947
Sant 0.8552342453793496
otto 1
doctr@@ 1
fici@@ 1
blog 1
Bord@@ 1
Cis@@ 1
Intro@@ 1
halle 1
quator@@ 1
Denver 0.5520193556731802
isl@@ 0.39633450252945807
hap@@ 0.6439570642852265
121 0.8047536568537016
2,8 1
oper@@ 0.12339557794557149
Jessica 0.9596384523855379
lymph@@ 1
0,6 1
monumental 1
Edmund 0.6886325921332146
assi 1
115 0.6092712320974975
tore 1
Run@@ 0.3342240015370057
Myr@@ 0.7439536755956146
Palace 0.3420049999036082
Aujour@@ 1
Plac@@ 1
ful@@ 0.3209938866281482
anza 0.32017444423681996
onen 0.12801250193626618
Kenneth 0.7319736138382776
aw 0.4018454139175367
Stéph@@ 1
Tigers 0.5144619332905972
percep@@ 1
Cann@@ 0.8373096651903008
zav@@ 1
Sox 0.8293314267930064
gom@@ 1
lem 0.46135470549445723
aur 0.7805129643774874
Shir@@ 0.6920515386946406
dinosaur@@ 1
inas 0.16265142470054808
Flotte 1
Dob@@ 0.6797616049911241
Scot@@ 0.4611058901220294
Zu@@ 0.37274936557537597
respectiv@@ 1
perfor@@ 1
ping 0.31282136065266036
Rut@@ 0.6569571570724535
locomotive 0.7858367820953207
arrangement 0.5780159661488578
nam 0.20277634532670247
Descartes 1
soccer 0.43546474952595543
BR@@ 0.9543777346617521
ancestr@@ 0.6457491698123901
Communication 1
Darwin 0.8850068059459189
eval 0.7907835913168694
Adrian 0.8657600649086067
Toyota 0.8087370379559007
Women 0.09044919615416981
script 0.39459318401618987
Mary@@ 1
amaz@@ 0.8953748662214823
oci@@ 0.5049598014042018
odon 1
Cran@@ 0.6356639661358544
wor@@ 0.08839574781072093
Observ@@ 1
Clarke 0.6106511264359776
mental 0.20740120682405994
1720 1
111 0.6424434870409197
Ind@@ 0.5211686789788901
Newcastle 0.5403542346574531
acu@@ 0.31198328099206113
ather 0.25104930437328143
Chic@@ 0.79911747893813
Hussein 1
lair 1
Country 0.23207781519265563
adin 1
PM 0.6093763689751663
Romeo 1
miles 0.17887352997423472
35,@@ 1
Chor@@ 0.3284835295728983
Steph@@ 0.5852607383240659
&apos;@@ 0.035790567745292615
Afro 1
Lich@@ 0.5699761529159614
Montgomery 0.6361500085995382
wil@@ 0.33125124447245136
Kinshasa 1
anni 1
sini 1
acent 1
orb@@ 0.9016279631941383
ican 0.25037548552441835
Jacob@@ 1
Atlético 0.6043746176730401
acker 0.38706408829495037
onym@@ 0.7964426262129969
Jung 0.9389940566420233
Luk@@ 0.6815025189333211
Communications 0.486257809642568
Two 0.10315155557432837
Kid 0.9436391764928616
Sever@@ 0.6705113571319538
Tyr@@ 0.9436693392837916
VO@@ 1
EM@@ 0.6745969167519992
Special 0.21656847140208352
Version 0.32091181417545656
750 0.5362088154453165
Africa 0.09523546256800172
Spider 0.6966861248328756
sans@@ 1
Boulevard 0.648599796977535
imper@@ 1
.C. 0.5286529088987266
Non@@ 0.6387127128851396
Biał@@ 1
Stevens 0.6911357801217665
final@@ 0.7859149199313106
Total 0.7125230142174291
obsol@@ 1
loser 1
Derby 0.5463231093548485
hit@@ 0.5912241419527515
jung@@ 0.988415694125338
Honduras 0.7235795358863346
Inv@@ 1
atsu 1
Manitoba 0.8318280111703446
Carol 0.8297812849481425
Cov@@ 0.7192353736574584
Ami@@ 1
yr 0.8523554033480779
Hist@@ 0.9411017308454072
SPD 0.4097847203275934
RAF 0.45721132348602467
intitul@@ 1
Heidelberg 0.556030485176725
ET 0.7355397787574737
inck 1
FIA 1
Cathol@@ 0.6150551095248141
Luz@@ 0.6523027783039674
Basket 1
KA 0.8879808810353709
mollus@@ 0.8816079522665408
Gil 1
Constantine 1
Mozambique 1
Pog@@ 1
ī 0.5207503784554652
Riga 1
him 0.017234638828588524
Zak@@ 1
CV 0.9689461828793331
scr@@ 0.30981872282702144
Chrysler 1
band 0.03642002231159819
icon 0.5490203647502867
Za@@ 1
EN 1
ardi 1
Inform@@ 0.7862361830048927
Passion 1
Gregory 0.5392922610599254
bor 0.4433656284173954
8,5 1
Eduardo 0.5357720786061244
struc@@ 0.41522171471108266
Kok@@ 0.7349596279533597
Zhou 1
Klaus 0.6136085105209237
ovol@@ 1
Feder@@ 0.43532023048904983
SF 0.9873415652351348
Noc@@ 1
sper@@ 0.49490084570185744
bourne 0.8635183813205265
Hughes 0.5440354013990132
sdorf 0.29333736150700657
Giacomo 1
Aran@@ 0.8712082985208516
brac@@ 1
catalog@@ 1
Brag@@ 1
Berg 0.34448785752642447
arte 0.22725640127216126
mak@@ 0.37792385937045436
Mussolini 1
Pat 0.6953357356852301
fes@@ 0.3734145571285556
Mez@@ 0.9555191273146247
karat@@ 1
Faus@@ 1
mentions 0.904857898769205
Alfa 1
Nim@@ 1
Hub@@ 0.46317439853732406
acs 1
oney 0.6290854976303628
Ax@@ 0.6536705956383276
guit@@ 1
Southern 0.12891909250795697
arrangements 0.8346809943563728
ophy@@ 1
oscor@@ 1
set@@ 0.4352851796056088
Owen 0.6421791267635835
dov@@ 1
anner 0.4406380671961557
lidae 1
60@@ 0.3530454189270948
1758 1
French 0.042850957732222
chu@@ 0.638879708227267
João 1
Tsu@@ 1
Tyler 0.7469378099268963
IL 0.5905272805825448
1660 1
1773 1
Plateau 1
prair@@ 1
3,6 1
Olympia 1
ads 0.13542411766139972
Dat@@ 0.5544593920437209
Infrastr@@ 1
ails 0.34551573648521117
Uz@@ 1
Aviv 0.9308125896569006
Mount 0.17056435570619957
Spec@@ 0.4408025055067788
fordshire 0.5505319078879917
playoffs 0.5036155819304711
Bart 1
ation@@ 0.2752500374181386
entic@@ 0.7008442084755346
Augusta 0.9336038799547164
Juventus 1
fli@@ 0.6165619690533897
Adi@@ 0.9390609512837599
open 0.08190520958793727
ová 1
Oakland 0.6754299879334983
lett 0.6593023045388509
3,4 1
Austr@@ 0.5641254806417981
Edwin 0.7939371640734494
Marines 0.9355718126543666
gate 0.32038100389056684
ño 0.3148127301348451
Mih@@ 0.9517150993448488
123 0.7501826865140664
Ambass@@ 1
Pearl 0.614395563185905
essin 1
Corin@@ 1
agen@@ 1
Dess@@ 1
Martín 0.4159580690912841
0,3 1
gem@@ 0.1428963279604369
1769 1
FL 0.3214955614794546
127 0.7152894781757604
Barbar@@ 1
Mar 0.46268240055059834
Taur@@ 1
Board 0.12423978962446222
trans 1
Auto 0.5609910025511178
Bennett 0.6274849729888891
nick@@ 0.308363407291405
haf@@ 0.4271046380256527
law 0.05023278719586928
inen 0.21754380300065834
stopp@@ 0.8314587456292947
Clair 1
1755 1
alif@@ 1
rane 1
Sik@@ 0.6976782727263745
Heb@@ 0.8238135114152549
Willy 1
30,@@ 1
ID 0.5770875545019687
Concor@@ 1
plain 0.5933549658929969
seg@@ 0.32582218927458184
Prosp@@ 1
Duncan 0.7341069636932993
onium 1
Trust 0.31556861169974376
imen 0.45654735948644903
Goth@@ 1
ymn@@ 1
ampton 0.5452176027153508
124 0.7622522737183499
Article 0.7799695506869061
J.-@@ 1
piè@@ 1
β 0.4946297673748421
Family 0.16637200754754383
Wei 1
aser 1
Mayer 0.8991753056158779
actr@@ 1
Agu@@ 0.5777157622947452
Å@@ 0.9323774248352039
Id@@ 0.5701844288487682
Bard@@ 1
andal@@ 1
Confl@@ 1
dance 0.1933979905608874
Drive 0.4802275772354763
pluvi@@ 1
grades 0.5228685760173308
Galil@@ 1
http 0.7185505190730984
Leeds 0.4974058922863582
Course 0.8709634983497221
anj@@ 0.4971942914922261
timer 1
Bros 1
gau 0.7004965014006668
Gob@@ 1
History 0.036914248718437806
Milwaukee 0.6303489697098924
embarc@@ 1
isine 1
coins 0.6605075315834132
inde 0.25444162058799946
1765 1
ige@@ 1
Linda 0.7321763415992291
mus 0.37678882542686026
oba 0.9882289066700924
dic 0.4674285358595636
ib 0.693030778517373
2,1 1
Zagreb 0.7797996530827429
Fanny 1
ET@@ 0.7460234078031762
Marl@@ 1
ush 0.23745527182708753
EF 1
Kag@@ 1
atha 0.6073846463513634
1756 1
Giants 0.5550278872921001
Labrador 1
Lennon 1
diagr@@ 1
frig@@ 1
mons 1
Tav@@ 1
Aux@@ 1
delle 1
Hul@@ 0.9216948292847138
stri@@ 0.27225356219500996
sumé 1
1762 1
Last 0.34775962202066263
Wein@@ 0.25912255943105117
Ama@@ 1
Pun@@ 0.4709053616956984
chus 1
mare 0.9961052184556978
Fall@@ 0.5127941707193933
ante@@ 0.4117029003345548
H.@@ 0.4625434130780125
illers 1
37,@@ 1
inver@@ 0.8825117594561683
nem@@ 1
3,8 1
Sullivan 0.534571173217999
Shaw 0.5945758489908033
122 0.701354074858527
Beh@@ 0.2391749302047372
õ@@ 0.8340635825820221
1771 1
Coalition 0.9523974211691507
vik 0.9667884432213701
Randy 1
shū 1
Malcolm 0.8218837021675446
corro@@ 1
Windsor 0.7702615988489246
Gill 0.8480056877273304
illus 1
gets 0.20365300918597293
incor@@ 1
Dylan 0.8005847865393891
Fantas@@ 0.8697088775924788
addition 0.07045897921586837
yk@@ 0.9558936991841931
Zimbabwe 0.9370453233103575
PO 1
ship 0.04396827715261516
argum@@ 0.6973949859915214
49@@ 0.4915091057126139
PE 1
afr@@ 0.6132020790058282
3,7 1
Togo 1
OR@@ 0.728023031156492
Scho@@ 0.7340228453689288
didae 1
ocul@@ 1
lom@@ 1
cargo 0.15155251400682132
Physi@@ 1
Chuck 0.7964865300386362
Fe 0.5025504987881662
Clu@@ 0.6747927055421311
pide 1
Sidney 0.9654744950783014
AE 0.691879211203398
carn@@ 1
fantasy 0.7728892595264268
Nicaragua 0.8425274296221308
än@@ 0.12010693629541808
SL 0.7243668225036819
ân@@ 1
DV@@ 0.657847310469143
amn@@ 1
Back 0.3699575116527769
3.@@ 0.1442932758098692
Hoch@@ 0.12601616513404948
itiers 1
Mercury 0.7652141127411066
Dante 1
bins 1
Fernández 0.45440061532203313
Hof@@ 0.2123865767218668
Price 0.5714543405692117
psychiatr@@ 1
sket@@ 0.6427159306116372
comic 0.33444100297331625
Andor@@ 1
Brow@@ 0.6468697929567151
Casa 0.37567397175064776
this 0.009014670606925198
Rost@@ 1
light 0.0686595058211277
sino 0.27039706172145545
rats 0.6573701115456504
Andes 1
benz@@ 0.9983980989368156
Castle 0.19361420301083912
att 0.5327089053877522
akh 1
Vr@@ 1
Calgary 0.7396986385183821
engo 1
117 0.7150716997718057
Anc@@ 1
Hoh@@ 0.35002982140939287
Doctor 0.25159730187422674
DR@@ 0.8121957818071379
Termin@@ 0.7313728907483708
center 0.07529911636815595
nice 0.8019786037044727
enzyme 0.6941646609308473
sha 0.6707696331707371
otus 1
Thomson 0.890539025120427
[...]
