de 1
, 1
. 0.9064475515436733
la 1
en 1
el 1
y 1
&quot; 1
a 1
que 1
del 1
los 1
se 1
un 1
por 1
con 1
una 1
) 0.9097075243337782
( 0.9095338510311376
las 1
su 1
es 1
al 1
como 1
para 1
El 1
o 1
En 1
fue 1
@-@ 0.3892668168112462
La 1
ado 1
ó 1
as 0.9149065015352058
más 1
ada 1
: 1
os 1
ar 1
no 1
ación 1
lo 1
sus 1
ados 1
; 1
era 1
entre 1
ando 1
dos 1
ía 1
años 1
adas 1
an 0.5206502595239052
también 1
Los 1
aron 1
son 1
año 1
re@@ 1
le 0.4062211677547192
este 1
hasta 1
parte 1
ales 1
pero 1
in@@ 1
sobre 1
aba 1
donde 1
« 0.7600235410594075
» 0.7601438551106251
ha 1
ser 1
desde 1
aciones 1
des@@ 1
esta 1
Se 1
A 1
durante 1
antes 1
% 1
ante 1
e 1
ido 1
ón 1
ciudad 1
ano 1
&apos; 0.6340578980677543
ya 1
Las 1
í@@ 1
primera 1
al@@ 1
después 1
había 1
está 1
A@@ 1
P@@ 1
fueron 1
an@@ 1
San 1
/ 0.7836558015793422
es@@ 1
cuando 1
1 0.8032329482216932
ente 1
primer 1
Su 1
ana 1
c@@ 1
tiene 1
ar@@ 1
otros 1
nombre 1
ia 1
uno 1
con@@ 1
eran 1
2 0.8386864892329925
C@@ 1
sin 1
ac@@ 1
mismo 1
población 1
tres 1
p@@ 1
ador 1
ida 1
vez 1
da 1
gran 1
forma 1
ción 1
cual 1
arse 1
S@@ 0.8686386973117883
ina 1
puede 1
&#93; 1
&#91; 1
ista 1
Fue 1
en@@ 0.9596708407640904
ad@@ 1
to 0.07797401168980356
aban 1
ta 1
L@@ 1
familia 1
do 1
encuentra 1
T@@ 1
as@@ 1
muy 1
así 1
lugar 1
3 0.8489983001888486
contra 1
M@@ 1
ario 1
sido 1
km 1
idad 1
Es 1
o@@ 1
á@@ 1
or@@ 1
amente 1
s@@ 0.761496743618111
equipo 1
on@@ 1
Estados 1
t@@ 1
encia 1
ese 1
ó@@ 1
siglo 1
ica 1
f@@ 1
junto 1
ch@@ 1
v@@ 1
án 1
idos 1
ían 1
D@@ 0.883259835516675
E@@ 1
ero 1
tiempo 1
Unidos 1
u@@ 1
embargo 1
tr@@ 1
ino 1
l@@ 1
F@@ 0.9759353921172617
di@@ 1
The 0.12238295037429167
grupo 1
est@@ 1
estado 1
han 1
or 0.4298597489767561
- 0.6164868039666098
adores 1
mayor 1
bajo 1
ones 1
er@@ 0.8957924247176068
G@@ 0.8012850149599297
n@@ 1
r@@ 1
cada 1
R@@ 0.8807362284309624
4 0.8410058379894461
entes 1
todo 1
serie 1
qu@@ 1
su@@ 1
car@@ 1
at@@ 1
io 1
solo 1
ico 1
B@@ 0.7806548969862804
España 1
ex@@ 1
j@@ 1
Universidad 1
estaba 1
O@@ 1
g@@ 1
quien 1
De 1
otras 1
b@@ 1
N@@ 0.8844500402186825
Nacional 1
el@@ 1
ab@@ 1
siendo 1
También 1
V@@ 1
personas 1
municipio 1
Con@@ 1
aunque 1
s 0.3849299518809975
mientras 1
d@@ 0.9300631056639739
tras 1
e@@ 0.8616224806239257
todos 1
tanto 1
Por 1
ciones 1
vida 1
cu@@ 1
nuevo 1
5 0.8498782974175731
Al 1
er 0.20676022934300356
i@@ 1
ic@@ 1
esa 1
de@@ 1
temporada 1
istas 1
país 1
Al@@ 1
hacia 1
ti@@ 1
día 1
final 1
im@@ 1
ella 1
tuvo 1
ec@@ 1
Ar@@ 1
6 0.8772518641593949
H@@ 0.7675078856546342
gobierno 1
almente 1
ent@@ 1
si 1
amiento 1
par@@ 1
álbum 1
general 1
mayo 1
i 1
per@@ 1
it@@ 1
Juan 1
va 1
tenía 1
2010 1
icas 1
enero 1
marzo 1
anos 1
octubre 1
ores 1
septiembre 1
co@@ 1
am@@ 1
Sin 1
historia 1
² 1
10 0.8542648094403651
película 1
— 0.27168651010261596
julio 1
total 1
inter@@ 1
varios 1
m@@ 1
” 1
cuatro 1
“ 0.44381644925895836
is@@ 1
endo 1
junio 1
á 1
ag@@ 1
pre@@ 1
cor@@ 1
sur 0.5861764568734142
Historia 1
él 1
región 1
z@@ 0.9851703536627169
&amp; 0.6136358503871026
oc@@ 1
diciembre 1
partido 1
habitantes 1
abril 1
Este 1
agosto 1
a@@ 1
les 0.19481725982050707
icos 1
José 1
J@@ 1
ato 1
obra 1
especie 1
número 1
entonces 1
debido 1
noviembre 1
ol@@ 1
Durante 1
algunos 1
I@@ 1
ara 1
mundo 1
pueden 1
idas 1
il@@ 1
río 1
ir 1
ur@@ 1
ismo 1
luego 1
oso 1
ita 1
ir@@ 1
vi@@ 1
través 1
estos 1
tos 1
aje 1
principal 1
ul@@ 1
com@@ 1
además 1
aria 1
Según 1
sistema 1
in 0.024820471606759313
norte 1
mar@@ 1
eta 1
ap@@ 1
és 1
aría 1
febrero 1
7 0.8469728122001948
arios 1
ot@@ 1
banda 1
ito 1
Esta 1
is 0.08296767752594272
eron 1
agua 1
Mar@@ 1
co 1
guerra 1
m 0.8284390530068658
of 0.02400221195840664
México 1
20 0.9679906842559908
otro 1
segundo 1
ca 1
sub@@ 1
ología 1
hizo 1
uso 1
partir 1
av@@ 1
I 0.7696975942517214
et@@ 1
provincia 1
siguiente 1
trabajo 1
h@@ 0.7680837192526198
8 0.8216150576931914
osa 1
tarde 1
un@@ 0.5428497565637991
unos 1
zona 1
id@@ 1
das 0.3119933953894404
Z@@ 0.9153967276976819
te 0.5294470220355252
ías 1
ci@@ 1
ellos 1
An@@ 0.9671406179903698
conocido 1
ura 1
canción 1
on 0.08726038339475177
están 1
cuenta 1
br@@ 1
Car@@ 1
eros 1
Para 1
segunda 1
us 0.7193157853954693
K@@ 0.5530949623709233
estadounidense 1
presidente 1
largo 1
dio 1
ión 1
nacional 1
ín 1
Con 1
15 0.9626820885562853
mon@@ 1
dentro 1
bi@@ 1
Santa 1
Ch@@ 0.9688918863048752
2011 0.9045631088646061
ja 1
za 1
Nueva 1
af@@ 1
12 0.8310563751681882
rec@@ 1
edad 1
col@@ 1
carrera 1
em@@ 1
esto 1
Después 1
pas@@ 1
muerte 1
María 1
os@@ 1
y@@ 0.7792483847313546
Un 1
Además 1
enta 1
In@@ 1
illa 1
centro 1
ora 1
varias 1
menos 1
Una 1
estas 1
aj@@ 1
momento 1
om@@ 1
obras 1
– 0.19578456806515848
rey 1
Guerra 1
género 1
az@@ 1
tipo 1
ro@@ 1
Mundial 1
medio 1
Desde 1
u 0.9455157880944763
casa 1
Tras 1
español 1
tienen 1
poco 1
época 1
U@@ 1
muchos 1
ven@@ 1
grandes 1
le@@ 1
nueva 1
hay 1
producción 1
hijo 1
dis@@ 0.8191834745756009
bien 1
puesto 1
0 1
op@@ 1
comenzó 1
tico 1
lado 1
2012 0.8719354627686512
último 1
título 1
able 0.8090393469609317
30 0.9887566257854887
No 1
9 0.790928689566898
ento 1
d 0.39717265198712237
mayoría 1
misma 1
í 1
otra 1
hace 1
cre@@ 1
man@@ 1
cas@@ 1
pi@@ 1
según 1
ed@@ 1
res@@ 1
gu@@ 1
li@@ 1
2014 0.8578285180915108
días 1
importante 1
tor@@ 1
po@@ 1
cerca 1
2015 0.8722838029151337
versión 1
música 1
padre 1
Entre 1
ata 1
2008 0.868194736199084
ri@@ 1
poder 1
ra 1
diferentes 1
manera 1
2016 0.8761661259487254
ena 1
localidad 1
16 0.9709483553559385
Madrid 1
frente 1
2013 0.8582647252016861
ándose 1
inos 1
18 0.8791041854015166
encias 1
ares 1
pr@@ 1
caso 1
línea 1
Estado 1
ona 1
Carlos 1
mejor 1
hecho 1
nivel 1
11 0.8522294841472086
Francia 1
2009 0.8358630430530636
primeros 1
us@@ 1
ant@@ 1
Re@@ 1
adora 1
the 0.01018215335814473
millones 1
política 1
2007 0.886855221338995
programa 1
anas 1
República 1
Argentina 1
pueblo 1
ú@@ 1
Com@@ 1
posición 1
inas 1
Y@@ 1
eo 1
convirtió 1
2000 1
llamado 1
ob@@ 1
II 1
ter@@ 1
ejemplo 1
ñ@@ 1
W@@ 0.4415129515285873
na 1
13 0.9928936515622111
Cor@@ 1
ver@@ 0.4950799542197042
metros 1
haber 1
14 0.954487679249786
cargo 1
algunas 1
tan 1
ello 1
z 1
cinco 1
ley 1
17 1
distrito 1
25 1
veces 1
Como 1
2006 0.8570857638769777
todas 1
2018 0.8111814993411511
gr@@ 1
capital 1
club 1
miembros 1
19 0.9494770976942577
En@@ 1
cuales 1
década 1
finales 1
desarrollo 1
hu@@ 1
te@@ 1
pl@@ 1
habían 1
punto 1
mujeres 1
partidos 1
construcción 1
enc@@ 1
to@@ 1
hacer 1
tica 1
tur@@ 1
vo 1
Biografía 1
Luis 1
orden 1
des 0.06268831040601229
2017 0.8038426803074773
pesar 1
base 1
director 1
actual 1
eg@@ 1
ma 1
ig@@ 1
fr@@ 1
ubicado 1
can@@ 1
estudio 1
r 1
siguientes 1
toda 1
Francisco 1
especies 1
é@@ 0.8783866653149043
principales 1
esp@@ 1
estudios 1
casi 1
contr@@ 1
and@@ 1
Es@@ 1
Europa 1
miembro 1
Par@@ 1
arias 1
Mon@@ 1
Chile 1
juego 1
et 0.05922954071079469
Copa 1
acción 1
inglés 1
condado 1
2019 0.792145068352352
llegó 1
éxito 1
entos 1
fútbol 1
proyecto 1
é 0.3788475334650209
hombres 1
super@@ 1
idades 1
área 1
acuerdo 1
Cuando 1
Campeonato 1
tas 1
24 1
cal@@ 1
puntos 1
mediante 1
Bar@@ 1
tener 1
jo 1
21 0.9950340620126831
Gu@@ 1
países 1
cualquier 1
televisión 1
estilo 1
tu@@ 1
Club 1
C. 1
arr@@ 1
2005 0.8840444597701491
dec@@ 1
_ 0.6997554032549214
C 0.9654727232586809
fuera 1
estación 1
lo@@ 0.8293108587301989
pres@@ 1
si@@ 1
conocida 1
iz@@ 1
Partido 1
tierra 1
oro 1
ela 1
mar 1
isla 1
origen 1
sal@@ 1
22 1
ea 1
libro 1
eto 1
bar@@ 1
ería 1
York 0.8064992989164335
mo@@ 1
equipos 1
sión 1
B 1
sa 0.4736156988913145
vol@@ 1
Tr@@ 0.9887827502380874
gen@@ 1
militar 1
papel 1
and 0.01635554061661004
ativo 1
porque 1
$ 0.9633700447708485
recibió 1
eras 1
reg@@ 1
ancia 1
atr@@ 1
ío 1
medi@@ 1
cer@@ 1
edificio 1
tores 1
23 1
ev@@ 1
ni 1
Antonio 1
Per@@ 1
x@@ 1
Alemania 1
color 1
ay@@ 1
Est@@ 1
Pedro 1
grupos 1
oeste 1
trans@@ 1
pos@@ 1
l 0.2814344710066266
relación 1
º 1
ce 0.5132637431854461
Sus 1
ni@@ 1
Real 1
fin 1
t 0.26506104807970604
alrededor 1
2020 0.7350078072815756
última 1
k@@ 0.43915377190624294
estuvo 1
Gran 1
edición 1
encuentran 1
cha 1
2004 0.8442035241928906
illo 1
oficial 1
so 0.5540242852998862
ro 1
ambos 1
proceso 1
arte 1
atos 1
sol@@ 1
principalmente 1
pe@@ 1
itos 1
elecciones 1
público 1
superficie 1
án@@ 1
iglesia 1
canciones 1
man 0.438617873983807
División 1
General 1
ganó 1
principios 1
mucho 1
fi@@ 1
empresa 1
ver 1
servicio 1
incluso 1
nos 1
estaban 1
Qu@@ 1
estar 1
territorio 1
um 0.3453967905275206
cambio 1
Am@@ 1
ru@@ 1
n 0.5121739478192037
én@@ 1
du@@ 1
disco 1
ez 1
meses 1
se@@ 0.7766658743449153
sería 1
.@@ 1
importantes 1
sino 1
llamada 1
re 0.7952056316786306
Reino 1
Mor@@ 1
bas@@ 1
Col@@ 1
cabo 1
Or@@ 1
ov@@ 1
propio 1
pasó 1
político 1
América 1
seis 1
anti@@ 1
um@@ 0.7518737919924554
ativa 1
ática 1
no@@ 1
Unión 1
internacional 1
ati@@ 1
campo 1
ejército 1
amp 0.5763938244481411
Co@@ 1
ota 1
finalmente 1
El@@ 1
ten@@ 1
alidad 1
término 1
muchas 1
28 1
original 1
cur@@ 1
Primera 1
Liga 1
medios 1
densidad 1
Norte 1
26 1
musical 1
Segunda 1
ve 0.2926813940457499
Her@@ 1
eso 1
Buenos 1
conjunto 1
etas 1
Cu@@ 1
cuerpo 1
Val@@ 1
tras@@ 1
ge@@ 0.7262181524695424
unas 1
debe 1
Aires 1
tal 1
der@@ 1
John 0.6048422247251432
sede 1
27 1
cio 1
siempre 1
100 0.8365414297539583
departamento 1
ense 1
x 0.919021616290695
Internacional 1
francés 1
madre 1
movimiento 1
2003 0.879442721288908
obtuvo 1
Aunque 1
sólo 1
ios 1
Cal@@ 1
alización 1
° 1
ist@@ 1
ático 1
tura 1
mes 1
Manuel 1
resto 1
compañía 1
ama 1
posteriormente 1
mujer 1
Le@@ 0.8810053377584314
min@@ 1
Sur 1
media 1
8@@ 0.9801238070228535
end@@ 1
lista 1
hijos 1
oper@@ 1
ña 1
mor@@ 1
Iglesia 1
alto 1
ará 1
ber@@ 1
Di@@ 1
lu@@ 1
realizó 1
Italia 1
primero 1
categoría 1
osos 1
der 0.02886430951677833
gan@@ 1
ellas 1
nombrado 1
igual 1
Esto 1
central 1
form@@ 1
aún 1
ye 1
especialmente 1
Man@@ 1
bre 1
ticas 1
2001 0.8180087963452407
cant@@ 1
anterior 1
dice 1
fuerzas 1
social 1
plan@@ 1
publicado 1
sí 1
her@@ 1
hija 1
alta 1
mer@@ 1
tes 0.7985544535969311
local 0.9407035352602502
Ciudad 1
mat@@ 1
cel@@ 1
ga 1
hoy 1
mo 1
ase 1
española 1
único 1
organización 1
ser@@ 1
formación 1
inc@@ 1
imiento 1
estr@@ 1
at 0.06333378756318414
ubicada 1
O 0.9427470709210165
dic@@ 1
2002 0.7979402825217405
batalla 1
ala 1
ajes 1
Barcelona 1
amos 1
resultado 1
of@@ 1
censo 1
As@@ 1
Instituto 1
período 1
hermano 1
dirección 1
ár@@ 1
control 1
ari@@ 1
ens@@ 0.9447089324005233
rom@@ 1
Santiago 1
París 1
od@@ 1
jugador 1
29 1
por@@ 1
incluyendo 1
Cas@@ 1
cr@@ 1
tamente 1
profesional 1
agu@@ 1
-@@ 1
Sh@@ 0.7480009691747072
mal@@ 1
escuela 1
sencillo 1
Geografía 1
tema 1
investigación 1
qui@@ 1
Te@@ 1
revista 1
Br@@ 0.7750775458952271
for@@ 0.8405685659447505
eno 1
9@@ 1
hombre 1
ables 1
sin@@ 1
ónica 1
apo@@ 1
modo 1
k 0.45169423071058346
1990 0.907968834114396
fecha 1
Mal@@ 1
torneo 1
llegar 1
paso 1
iones 1
ticos 1
2021 0.7296312854063896
má@@ 1
sea 1
Sal@@ 1
! 0.7562106321417428
antiguo 1
actividad 1
apoyo 1
Juegos 1
ol 1
50 0.9109437966548495
c 0.4958982364622258
1999 0.8412641365390416
cion@@ 1
bal@@ 1
formula 0.5888176640039274
datos 1
fer@@ 1
extr@@ 1
francesa 1
pol@@ 1
h 0.5559284115143921
mas@@ 1
actualmente 1
ut@@ 1
llevó 1
nació 1
loc@@ 1
so@@ 1
decir 1
ate 0.25053169839107203
amientos 1
Ex@@ 1
pel@@ 1
... 1
De@@ 0.9679856534538697
ér@@ 1
Perú 1
7@@ 0.9050811762007153
popular 1
inf@@ 1
ing 0.10521774338599185
Pr@@ 1
osas 1
ahora 1
modelo 1
ne@@ 0.9938873824950223
espacio 1
comunidad 1
det@@ 1
superior 1
tir@@ 1
pues 1
og@@ 1
Pro@@ 1
Luego 1
ad 0.865303954778553
servicios 1
derecho 1
il 0.14895046846772242
cat@@ 1
Miguel 1
ativas 1
ición 1
aparece 1
ali@@ 1
dar 1
pu@@ 1
del@@ 1
personal 1
entr@@ 1
ciudades 1
elegido 1
joven 1
problemas 1
gener@@ 1
ran@@ 1
Ac@@ 1
participó 1
observ@@ 1
real 1
situada 1
interior 1
autor 1
posible 1
ell@@ 1
creación 1
cine 1
N 1
tiva 1
personaje 1
información 1
Si 1
Centro 1
Gobierno 1
primeras 1
pat@@ 1
Des@@ 1
pro@@ 1
propia 1
Ber@@ 1
única 1
Museo 1
Unido 1
mu@@ 1
capacidad 1
campeón 1
diseño 1
menor 1
cantante 1
0.@@ 1
anunció 1
logró 1
edi@@ 1
Río 1
Ver@@ 0.4601170135363457
V 1
termin@@ 1
aproximadamente 1
Gal@@ 1
ño 1
aca 1
expres@@ 1
dijo 1
000 1
E 1
X 1
Consejo 1
Bal@@ 1
ieron 1
victoria 1
actor 1
Premio 1
Escuela 1
present@@ 1
ang@@ 0.823579566506337
X@@ 1
g 0.5466254701396867
situación 1
casos 1
au@@ 0.7645431772903629
esc@@ 1
nunca 1
1998 0.8478833614830735
Inglaterra 1
Demografía 1
objetivo 1
calle 1
publicó 1
Más 1
nuevos 1
natural 1
do@@ 1
cos 1
alismo 1
ep@@ 1
Japón 1
temas 1
31 0.9907276838075315
dado 1
adi@@ 1
Brasil 1
común 1
0,@@ 1
alemán 1
ular 1
Pero 1
apar@@ 1
allí 1
volvió 1
all@@ 1
st@@ 0.3196839232177803
cantidad 1
Colombia 1
partes 1
tenían 1
principio 1
China 1
am 0.1708769055394953
vas 1
cab@@ 1
especial 1
tercer 1
one 0.14692197874493856
eb@@ 0.8381532532489996
división 1
pequeño 1
cultura 1
ques 1
tor 1
acciones 1
trata 1
elementos 1
III 1
cru@@ 1
Ejército 1
diversos 1
Gr@@ 0.8666235795094225
últimos 1
1980 1
decidió 1
estructura 1
có 0.43660435725221475
Londres 1
mano 1
ín@@ 1
aci@@ 1
Está 1
ie 0.3317358010919889
tom@@ 1
escribió 1
costa 1
periodo 1
pal@@ 1
celebr@@ 1
go 1
fuerza 1
selección 1
campaña 1
altura 1
Distribución 1
muestra 1
mi@@ 1
zo 1
ola 1
ins@@ 1
ima 1
cho 0.7515730599894002
dr@@ 0.9132024685991812
conserv@@ 1
derechos 1
grande 1
tri@@ 1
Fernando 1
situado 1
esposa 1
tropas 1
antigua 1
actividades 1
mando 1
leg@@ 1
planta 1
ba@@ 1
1996 0.8706341750829872
signific@@ 1
ativos 1
cl@@ 1
ing@@ 0.7687697359362574
tar@@ 1
Tor@@ 1
tivo 1
participación 1
ocho 1
Y 1
centr@@ 1
6@@ 0.8861200306262481
chas 1
presencia 1
icio 1
Hu@@ 1
Así 1
zonas 1
incluye 1
nuevas 1
40 0.8965415320733648
ju@@ 1
libre 1
cri@@ 1
anc@@ 1
tuvieron 1
Censo 1
D 0.8208369884944647
rel@@ 1
longitud 1
1997 0.8469059975800365
Su@@ 1
clase 1
sitio 1
grado 1
ác@@ 1
vía 1
ua 1
ética 1
bu@@ 1
ay 0.7550962976301833
sum@@ 1
dicho 1
llam@@ 1
profesor 1
1995 0.8816167276288114
Carrera 1
películas 1
algo 1
habit@@ 1
ae 1
arlo 1
compuesto 1
comuna 1
consider@@ 1
icamente 1
vio 1
siete 1
1992 0.8610310843401797
Vi@@ 1
S 0.8251815115238534
Pi@@ 1
novela 1
1.@@ 1
p 0.5192831338165323
prim@@ 1
fil@@ 1
causa 1
anza 1
tercera 1
Esp@@ 1
L 0.6517996955114161
bo@@ 0.697711509101331
enfrent@@ 1
jefe 1
cul@@ 1
esper@@ 1
teatro 1
ton 0.5249675288122393
ific@@ 1
persona 1
imagen 1
escu@@ 1
referencia 1
sociedad 1
ayuda 1
fal@@ 1
Ab@@ 0.47964913663506464
cuyo 1
XIX 1
financi@@ 1
1994 0.856680663842723
oma 1
cont@@ 1
California 1
sab@@ 1
uc@@ 1
b 0.5126837224033988
tamaño 1
quienes 1
ila 1
pa 1
enci@@ 1
iles 1
mitad 1
personajes 1
fuerte 1
noche 1
lucha 1
menudo 1
= 0.5496800398247312
ección 1
similar 1
clasific@@ 1
presión 1
perteneciente 1
Estos 1
matrimonio 1
ici@@ 1
León 1
ª 1
podría 1
san@@ 1
niños 1
gracias 1
pudo 1
luz 1
Mientras 1
orio 1
XX 1
llev@@ 1
prueba 1
mercado 1
Bor@@ 1
Central 1
separ@@ 1
realizar 1
Po@@ 1
tales 1
Cr@@ 1
pequeña 1
ocasiones 1
quedó 1
1970 0.9916373552126442
aut@@ 1
5@@ 0.8679459486401373
mediados 1
Imperio 1
Posteriormente 1
Inter@@ 1
diversas 1
eles 1
presenta 1
ema 1
prom@@ 1
ización 1
dem@@ 1
Em@@ 1
García 1
tan@@ 1
libros 1
medida 1
constitu@@ 1
neg@@ 1
acto 1
sobre@@ 1
Pas@@ 1
actualidad 1
den 0.0603604373219849
Mo@@ 0.9809064499191719
ba 1
ib@@ 1
apareció 1
1991 0.8264229231886869
arm@@ 1
premio 1
aire 0.7718551852101186
interés 1
función 1
incorpor@@ 1
educación 1
ológico 1
trat@@ 1
aña 1
idea 1
Actualmente 1
me 0.6768576106098254
lleva 1
Tiene 1
bor@@ 1
usa 1
fic@@ 1
sem@@ 1
ah@@ 0.9977877564028445
razas 1
plantas 1
artistas 1
ma@@ 1
jos 1
diferencia 1
Fútbol 1
For@@ 0.9708731933004561
ministro 1
emos 1
identific@@ 1
iendo 1
Bel@@ 1
ira 1
acu@@ 1
trabajos 1
be@@ 0.3455113125167205
Venezuela 1
var@@ 1
gt 0.4911527552628532
episodio 1
manos 1
ónico 1
Ha 1
mundial 1
David 0.9548457424547915
én 1
Ro@@ 0.9762616371402452
Sol@@ 1
Congreso 1
emente 1
cm 1
Mat@@ 1
etapa 1
alista 1
prec@@ 1
liga 1
murió 1
ografía 1
isión 1
horas 1
fac@@ 1
tro 1
alt@@ 1
Cruz 1
lanzado 1
ne 0.2562789629501994
pen@@ 1
Roma 1
port@@ 1
ete 1
lam@@ 1
zar 1
1993 0.8364974082068485
liber@@ 1
qued@@ 1
conoce 1
medalla 1
ill@@ 0.850102641318115
dirig@@ 1
inici@@ 1
Á@@ 1
jugó 1
cá@@ 1
gobernador 1
ece 1
Festival 1
mad@@ 1
compr@@ 1
tic@@ 1
aga 1
val@@ 1
int@@ 1
Ma@@ 1
itas 1
mejores 1
canal 1
gar@@ 1
red 0.9722776314818087
Lu@@ 1
energía 1
honor 1
hi@@ 1
ataque 1
geográfica 1
emp@@ 1
viol@@ 1
dia 1
idae 1
diseñ@@ 1
cuya 1
illas 1
Oficina 1
tel@@ 1
Ser@@ 1
Pal@@ 1
eng@@ 0.9689990143159559
Rusia 1
cam@@ 1
gira 1
cional 1
valor 1
pens@@ 1
defensa 1
if@@ 1
sur@@ 0.8390316433395725
permite 1
Se@@ 0.6376298909743597
10@@ 0.8374736707204483
son@@ 1
presentó 1
ística 1
’ 0.08419342718917769
cabeza 1
características 1
registr@@ 1
lugares 1
ach@@ 0.6411033687473773
ao 1
contribu@@ 1
asi@@ 1
Del 1
Be@@ 0.5548948302618477
plaza 1
dirigida 1
relaciones 1
influencia 1
kilómetros 1
actriz 1
baja 1
lt 0.5103653084346346
direc@@ 1
vari@@ 1
tem@@ 1
ás 1
barrio 1
formar 1
ampli@@ 1
fase 1
espec@@ 1
Fr@@ 1
significa 1
Academia 1
aco 1
azo 1
til@@ 1
sec@@ 1
di 0.8878878810867846
aliz@@ 1
conven@@ 1
armas 1
mil@@ 1
fir@@ 1
propiedad 1
ta@@ 1
frontera 1
asc@@ 1
coloc@@ 1
vir@@ 1
bol@@ 1
distancia 1
importancia 1
incluyen 1
w@@ 0.27176060297482757
dejó 1
añ@@ 1
ud@@ 1
cin@@ 1
jas 1
lar@@ 1
err@@ 1
formó 1
1989 0.8434035064073925
2@@ 0.995332109392264
ez@@ 1
Casa 1
ai 0.7647354720808871
Cer@@ 1
gal@@ 1
etc. 1
fin@@ 0.9403526718132943
activ@@ 1
verano 1
R 0.8000440029341638
Tierra 1
tierras 1
jugadores 1
destac@@ 1
material 1
elo 1
Jorge 1
diez 1
ka 0.7328742521393519
cap@@ 1
vista 1
inició 1
Can@@ 1
hab@@ 1
trabajó 1
ini 1
camino 1
men@@ 1
respecto 1
M 0.8838160423534344
dió 1
Pres@@ 1
terminó 1
auto@@ 1
distribu@@ 1
sociales 1
dicha 1
represent@@ 1
sector 1
New 0.19340887654880937
Cam@@ 1
sil@@ 1
amb@@ 1
+ 0.9027574404380759
lig@@ 1
condiciones 1
generalmente 1
comercial 1
ió 1
mil 1
enas 1
per 0.6092422066383544
visit@@ 1
miento 1
&#124; 0.8761767200445588
debut 1
tera 1
ú 1
esas 1
Saint 0.4525935235722039
minutos 1
carácter 1
1960 0.959097059459896
ania 1
entrada 1
calidad 1
T 0.7999500565905036
aguas 1
campeonato 1
sigue 1
Lo@@ 1
isi@@ 1
hor@@ 1
blanco 1
sistemas 1
escritor 1
aves 1
Bo@@ 0.7656186510538028
ret@@ 1
soci@@ 1
considerado 1
don@@ 1
culo 1
pot@@ 1
locales 1
60 0.9952350815132467
irse 1
mm 1
oblig@@ 1
conduc@@ 1
prot@@ 1
Dis@@ 1
goles 1
resp@@ 1
acceso 1
pasado 1
combate 1
ocup@@ 1
nu@@ 1
ej@@ 1
unidades 1
dieron 1
gobern@@ 1
caus@@ 1
parque 1
lanzó 1
ed 0.08170387996477692
rock 1
trabajar 1
artista 1
jug@@ 1
cost@@ 1
domin@@ 1
prepar@@ 1
eña 1
productos 1
marca 1
yo 1
bur@@ 1
todavía 1
semana 1
ayo 1
Ger@@ 1
tar 1
juegos 1
seguridad 1
Algunos 1
prop@@ 1
sentido 1
realidad 1
entemente 1
militares 1
influ@@ 1
Ri@@ 1
van 1
consiguió 1
determin@@ 1
municipal 1
Australia 0.9200464991590305
San@@ 1
act@@ 1
sac@@ 1
ístico 1
nuevamente 1
rev@@ 1
desarroll@@ 1
fines 1
crear 1
yó 1
pan@@ 1
Bu@@ 1
aro 1
acompañ@@ 1
Ros@@ 1
nacionales 1
cit@@ 1
descrita 1
eses 1
disput@@ 1
anta 1
radio 1
1988 0.8275906079792518
Ley 1
Enrique 1
coordenadas 1
ál@@ 1
pública 1
edit@@ 1
humanos 1
taron 1
lanz@@ 1
civil 1
Rec@@ 1
Martín 1
creó 1
ra@@ 1
ende 0.8304963976297633
voz 1
ori@@ 1
India 0.9155007491279348
líder 1
esos 1
imientos 1
refle@@ 1
administr@@ 1
americano 1
ion@@ 1
etes 1
nor@@ 1
Grupo 1
contrato 1
orden@@ 1
iva 1
cambi@@ 1
not@@ 1
segu@@ 1
radi@@ 1
? 0.995212671058148
eza 1
restos 1
entales 1
versiones 1
formas 1
áreas 1
lanzamiento 1
produjo 1
curso 1
pon@@ 1
empezó 1
cambios 1
eño 1
cad@@ 1
ambas 1
Ur@@ 1
empresas 1
ide@@ 1
Pablo 1
isa 1
idente 1
pul@@ 1
vac@@ 1
éndose 1
educ@@ 1
tra@@ 1
atac@@ 1
ve@@ 1
Asociación 1
realizado 1
cantón 1
escrito 1
italiano 1
Jesús 1
Puerto 1
Er@@ 0.4814446067197721
programas 1
teoría 1
aya 1
jóvenes 1
1985 0.8990388243740514
islas 1
Costa 1
encontrar 1
f 0.5681635462947137
gas 1
1987 0.8652343449726236
cuarto 1
utiliza 1
velocidad 1
utiliz@@ 1
po 1
1986 0.8685433244818165
IV 1
mayores 1
atura 1
Ministerio 1
guar@@ 1
numerosos 1
jer@@ 1
modific@@ 1
ego 1
cultural 1
dido 1
enti@@ 0.9328614269819361
iv@@ 1
oni@@ 1
colabor@@ 1
me@@ 0.8067665683530364
80 1
estudi@@ 1
vuelta 1
tivos 1
pes@@ 1
Mag@@ 1
esti@@ 1
Debido 1
gi@@ 0.862123527762337
sel@@ 1
obtener 1
P 0.8560199466786618
defin@@ 1
formado 1
Pacífico 1
creado 1
comienza 1
Descripción 1
envi@@ 1
lengua 1
iro 1
mol@@ 1
dan 1
Finalmente 1
v 0.816059515254347
onal 1
produc@@ 1
Castilla 1
amor 1
plata 1
ti 1
4@@ 0.8251682789043234
be 0.08130245249563244
figura 1
denomin@@ 1
dor@@ 1
hermanos 1
favor 1
existe 1
industria 1
fica 1
comunicación 1
3@@ 0.8213906925090829
padres 1
Un@@ 0.8040117727235244
So@@ 1
particular 1
comp@@ 1
líneas 1
señ@@ 1
posee 1
Ter@@ 1
resultados 1
che 0.7524744211057296
ningún 1
Estas 1
anía 1
utilizado 1
ef@@ 1
mis@@ 1
Presidente 1
pueblos 1
soldados 1
declar@@ 1
dist@@ 1
administración 1
lin@@ 0.9892396898309093
ers 0.14113298783515774
ler@@ 0.9332245947305016
2.@@ 1
elev@@ 1
1984 0.8495914794030766
St@@ 0.39194972958085755
endió 1
Teatro 1
1982 0.9067088072295011
cons@@ 1
gente 1
blancos 1
anteriores 1
tí@@ 1
adop@@ 1
Ne@@ 0.7168060260827097
pin@@ 1
eti@@ 1
vas@@ 1
África 1
fund@@ 1
López 1
dólares 1
texto 1
ias 1
construido 1
estim@@ 1
misión 1
ingresos 1
1983 0.9013448059760658
internacionales 1
americana 1
bl@@ 0.575401746497268
histórico 1
oto 1
Cat@@ 1
unidad 1
200 0.8997178739726092
pequeños 1
considera 1
inform@@ 1
oficiales 1
mi 1
abr@@ 1
falta 1
inicio 1
jugar 1
parece 1
Ben@@ 1
Hay 1
patr@@ 1
posterior 1
ológica 1
bul@@ 1
evento 1
sección 1
contiene 1
Vill@@ 1
ind@@ 1
oras 1
actu@@ 1
evitar 1
vin@@ 1
imp@@ 1
gol@@ 1
animales 1
Bi@@ 0.7897178475407998
Cl@@ 1
elos 1
ór@@ 1
motor 1
podía 1
ánica 1
Mi@@ 1
Le 0.1151082341784351
viaje 1
az 1
public@@ 1
raza 1
Pan@@ 1
ue 0.7744399382909604
reconoc@@ 1
avanz@@ 1
bronce 1
sh@@ 0.30864152793580774
enda 1
traslad@@ 1
elección 1
mag@@ 1
Dios 1
Mc@@ 0.5914466385746084
argentino 1
británico 1
palabra 1
ch 0.3617316552743081
poblacional 1
Ti@@ 1
especi@@ 1
Sociedad 1
abilidad 1
encontr@@ 1
ental 1
suelo 1
fo 1
F 0.6968305274828431
igu@@ 1
culos 1
aran 1
tipos 1
ey 0.7663444649505848
inst@@ 1
madera 1
ecer 1
demás 1
óp@@ 1
James 0.652151965154574
fabric@@ 1
mencion@@ 1
bás@@ 1
presente 1
existen 1
proces@@ 1
conten@@ 1
Gar@@ 1
ros@@ 1
sustitu@@ 1
buena 1
efecto 1
fot@@ 1
conform@@ 1
gol 1
baj@@ 1
Mer@@ 0.9820688724174056
puso 1
ólogo 1
Du@@ 1
crítica 1
estados 1
salud 1
cómo 1
economía 1
Men@@ 1
Valencia 1
vec@@ 1
reci@@ 1
pocos 1
piedra 1
tradicional 1
funciones 1
uel@@ 1
Ad@@ 0.8633298254611349
eci@@ 1
unió 1
indic@@ 1
cuanto 1
encontraba 1
met@@ 1
amento 1
políticas 1
existencia 1
izquierda 1
edificios 1
tero 1
políticos 1
Otros 1
amp@@ 1
arro@@ 1
Trayectoria 1
ine 0.2553729278775307
palabras 1
cara 1
ón@@ 1
def@@ 1
pos 1
puerto 1
funcion@@ 1
puestos 1
90 1
nacido 1
llegada 1
familias 1
representa 1
1979 0.8553726138797865
temporadas 1
alcanzó 1
ninguna 1
castillo 1
templo 1
occidental 1
conc@@ 1
ás@@ 1
obispo 1
mantuvo 1
visto 1
ines 0.7555611944602435
ard@@ 1
seg@@ 1
aqu@@ 1
numerosas 1
Canadá 1
completo 1
tadas 1
70 1
regiones 1
tomó 1
limit@@ 1
alm@@ 1
González 1
haciendo 1
rit@@ 1
Comisión 1
1976 0.8805502410570222
par 0.07608458529921085
atención 1
tradición 1
restaur@@ 1
torno 1
será 1
integr@@ 1
oficialmente 1
aquel 1
ecto 1
colección 1
Felipe 1
th@@ 0.2622433494478238
actos 1
vig@@ 1
ganar 1
comerci@@ 1
crecimiento 1
hall@@ 1
Santo 1
hum@@ 1
Selección 1
Córdoba 1
Olímpicos 1
aza 1
policía 1
go@@ 1
ivo 1
bio 1
ug@@ 1
den@@ 0.8505936573404357
españoles 1
Artes 1
ces 0.5993180115453859
ender 1
mostr@@ 1
hom@@ 1
ónimo 1
500 0.9149205618178944
Pol@@ 1
ani 0.9094179009425454
referirse 1
pruebas 1
independiente 1
áticos 1
adoras 1
dir 1
1950 0.8246346299615608
alcanzar 1
dur@@ 1
William 0.5663335899711749
deriv@@ 1
Bur@@ 0.7753888775409106
casas 1
hicieron 1
ronda 1
FC 0.825743162055102
económica 1
clasificación 1
elas 1
Ren@@ 1
explic@@ 1
uras 1
destru@@ 1
emple@@ 1
directamente 1
1978 0.8582867201988916
có@@ 1
probablemente 1
asa 1
distintos 1
ras@@ 1
mur@@ 1
G 0.6444590233942034
bat@@ 1
ext@@ 1
1973 0.8729607025070549
arían 1
bot@@ 1
arc@@ 1
votos 1
artículo 1
Ob@@ 1
emperador 1
Paul 0.5921400482552005
ilo 1
Th@@ 0.4685193867721696
dad 1
Departamento 1
Robert 0.6586279559789024
compar@@ 1
continuó 1
1981 0.8120962048733034
práctica 1
ice 0.6571358452802172
ajo 1
Mac@@ 0.9607016970534077
gio 1
vieron 1
eca 1
comun@@ 1
grab@@ 1
entrenador 1
ment@@ 1
pasar 1
tra 1
toma 1
proyectos 1
levant@@ 1
derecha 1
negro 1
transporte 1
estudiantes 1
captur@@ 1
abandon@@ 1
obstante 1
casó 1
Cre@@ 1
Por@@ 1
fuente 1
ur 0.674701368384096
Vida 1
eció 1
parti@@ 1
sim@@ 1
ov 1
futbolista 1
Don 1
atorio 1
Provincia 1
eda 1
ede 1
tiempos 1
positi@@ 1
red@@ 1
Mu@@ 1
dinero 1
inv@@ 1
organiz@@ 1
pe 0.9063889853657539
carretera 1
1975 0.791638479502024
tal@@ 1
asign@@ 1
fuentes 1
arque@@ 1
carga 1
ell 0.5275997215144924
Cap@@ 1
ped@@ 1
amigo 1
tido 1
Av@@ 1
Ciencias 1
hubo 1
Hor@@ 1
tió 1
A. 0.9778955604961538
fondo 1
adquir@@ 1
Virgen 1
algún 1
web 1
qué 1
Rey 1
perman@@ 1
U 0.5703166591989337
declaró 1
tir 1
ensa 1
emiti@@ 1
Diego 1
investig@@ 1
Bas@@ 1
escena 1
realiza 1
estableció 1
uta 1
autor@@ 1
gran@@ 1
autoridades 1
ficación 1
din@@ 1
encarg@@ 1
doble 1
onia 1
Sar@@ 1
isiones 1
ak@@ 0.40591131405783604
iti@@ 1
pequeñas 1
plan 0.9349954833535814
Sch@@ 0.23438720439149605
regresó 1
fundó 1
suces@@ 1
Fernández 1
autores 1
Rodríguez 1
alguna 1
títulos 1
aplic@@ 1
ánico 1
produce 1
ner 0.43666050728481065
1@@ 1
mand@@ 1
agr@@ 1
Li@@ 0.7721627482986128
acus@@ 1
icios 1
tenido 1
cas 1
edo 1
ler 0.30438214926916646
ex 1
atoria 1
endi@@ 1
lago 1
distribución 1
Mas@@ 1
1977 0.8612206031875943
sir@@ 1
refer@@ 1
Orden 1
Mel@@ 1
Mad@@ 1
mantener 1
análisis 1
Tri@@ 0.8796087273058282
decisión 1
Distrito 1
que@@ 1
35 0.9272676937174502
escrita 1
hermana 1
conf@@ 1
objeto 1
atribu@@ 1
it 0.05335703887809997
oa 1
aliza 1
George 0.5857799670465961
efectos 1
valle 1
12@@ 0.8389458821215133
asoci@@ 1
distintas 1
publicación 1
dirigido 1
dispar@@ 1
Tur@@ 1
nada 1
particip@@ 1
naturaleza 1
ger@@ 0.6831730608534938
reun@@ 1
gir@@ 1
ote 1
futuro 1
cadena 1
originalmente 1
Ju@@ 1
anunci@@ 1
provoc@@ 1
ayud@@ 1
ard 0.4530858434683031
llega 1
Cur@@ 1
1974 0.7934091061896785
siglos 1
ost@@ 1
consecuencia 1
hab 1
Mont@@ 1
larga 1
tro@@ 1
cos@@ 1
construir 1
ub@@ 1
fundada 1
ces@@ 1
und@@ 0.7960949913251607
Camp@@ 1
derrot@@ 1
enfermedad 1
problema 1
Ni@@ 1
literatura 1
ubic@@ 1
tam@@ 1
continu@@ 1
Reg@@ 0.8875980448149925
astr@@ 1
Nuevo 1
alar@@ 1
cali@@ 1
desp@@ 1
Era 1
har@@ 0.7144384396247915
1,@@ 1
Alfonso 1
conde 1
au 0.06405972648364804
libertad 1
capit@@ 1
ruso 1
pobl@@ 1
siguió 1
cic@@ 1
imágenes 1
Federación 1
recursos 1
ega 1
mul@@ 1
artículos 1
pintura 1
Q@@ 0.703406579657157
nomin@@ 1
1972 0.7496132846394021
ale 0.2791677551774589
tomar 1
experiencia 1
sola 1
clima 1
Villa 1
aparición 1
técnica 1
tó 1
aus@@ 0.28700241719226843
variedad 1
TV 0.6179470955650567
ave 1
bastante 1
verde 1
cum@@ 1
exterior 1
inspir@@ 1
ais@@ 1
ter 0.17661959855269274
ak 0.519322156574268
elimin@@ 1
concepto 1
rápidamente 1
manten@@ 1
pur@@ 1
pic@@ 1
Pre@@ 1
nombres 1
acia 1
recuper@@ 1
anim@@ 1
perdió 1
arquitectura 1
psic@@ 1
escal@@ 1
permitió 1
1968 0.7736917245225241
serv@@ 1
sonido 1
mal 1
Educación 1
fundado 1
interes@@ 1
Jean 0.542103557489633
mit@@ 1
visión 1
mir@@ 1
he@@ 0.507655868519363
capitán 1
peso 1
actuación 1
Portugal 1
corte 1
Alberto 1
activo 1
encuentro 1
H 0.8501126051920974
design@@ 1
salida 1
corresponden 1
reino 1
inferior 1
rot@@ 1
Az@@ 1
Is@@ 1
eventos 1
generación 1
ficas 1
ect@@ 1
suc@@ 1
ases@@ 1
oria 1
fundación 1
gencia 1
operaciones 1
crisis 1
universidad 1
renov@@ 1
tesis 1
titular 1
XVIII 1
Ese 1
Lo 1
uela 1
Pérez 1
independencia 1
semanas 1
oca 1
Ángeles 1
ecta 1
tab@@ 1
World 0.2383481733734498
Popular 1
gas@@ 1
conocidos 1
productor 1
clases 1
vos 1
contaba 1
griego 1
eos 1
flu@@ 1
mes@@ 1
acer@@ 1
debajo 1
estadio 1
bo 1
razón 1
emb@@ 0.9413038917125277
derrota 1
anes 1
Salvador 1
venta 1
berg 0.530904073423714
Os@@ 1
máxima 1
acept@@ 1
electr@@ 1
Son 0.9456131405844567
favor@@ 1
rod@@ 1
fuego 1
respuesta 1
Dos 1
13@@ 0.8259201919750467
Uruguay 1
reconocimiento 1
gestión 1
efectiv@@ 1
indi@@ 1
representación 1
puesta 1
Lima 1
Valle 1
salv@@ 1
altitud 1
dej@@ 1
istán 1
deben 1
Pe@@ 0.9633799883444524
Fil@@ 1
cosas 1
exten@@ 1
Radio 1
ik@@ 0.4344003064208689
máximo 1
gl@@ 1
firme 1
vivo 1
bus@@ 1
comercio 1
1969 0.7971643405804214
participar 1
llevar 1
Si@@ 1
Ci@@ 1
regul@@ 1
1930 0.9023218803636317
ech@@ 1
siones 1
antiguos 1
med@@ 1
into 0.1373656553985943
ualmente 1
Sevilla 1
pag@@ 1
dirigió 1
piezas 1
afect@@ 1
ca@@ 1
Palacio 1
agreg@@ 1
adelante 1
lider@@ 1
nueve 1
completamente 1
pareja 1
entreg@@ 1
Sa@@ 1
acerca 1
sor@@ 1
Rafael 1
cias 1
trasladó 1
uales 1
ciencia 1
producto 1
arla 1
Sab@@ 1
eco 1
puente 1
Ru@@ 1
Civil 1
É@@ 0.8983061171192889
45 0.8289687686985933
urban@@ 1
neces@@ 1
colaboración 1
Super@@ 1
Mil@@ 1
fundador 1
aquellos 1
promedio 1
Michael 0.6918840534366584
regreso 1
fall@@ 1
Asia 1
comenzaron 1
turas 1
dar@@ 1
composición 1
anteriormente 1
apoy@@ 1
términos 1
tivas 1
Pl@@ 0.882880920059738
1940 0.7868931513901852
ejecut@@ 1
rode@@ 1
municipios 1
establec@@ 1
elec@@ 1
ulares 1
materiales 1
rea 1
origin@@ 1
museo 1
Parque 1
firma 1
crit@@ 1
Chi@@ 1
Har@@ 0.672272420742581
metro 1
endido 1
áticas 1
ang 0.5901731902502775
diario 1
flores 1
XVI 1
respectivamente 1
1971 0.724396213674752
llegaron 1
erse 1
vel@@ 1
aer@@ 1
amigos 1
sta 1
0@@ 0.9115904680575602
candidato 1
alcalde 1
ciendo 1
video 0.7159660313524303
oriental 1
temperatura 1
proteg@@ 1
conocer 1
Go@@ 0.9458188847743869
prensa 1
32 0.8828887741165653
pasa 1
bra 1
villa 1
Comité 1
entró 1
mas 1
je 0.991846857955083
sen@@ 0.8457013655008725
Records 0.8883187307033563
conflicto 1
tado 1
cerr@@ 1
periodista 1
musicales 1
objetos 1
comenz@@ 1
ah 0.5682750741334555
titulado 1
orr@@ 1
juega 1
iba 1
ológicos 1
1945 0.509667932185961
Plaza 1
conocimiento 1
Federal 1
Martínez 1
illos 1
impres@@ 1
torre 1
Características 1
extremo 1
hora 1
lleg@@ 1
gar 1
mismos 1
combin@@ 1
motivo 1
listas 1
zación 1
generales 1
pronto 1
hacen 1
1967 0.7705545987269363
creada 1
Min@@ 0.8755831304423206
ge 0.4887383980924849
reo 1
mos 1
enso 1
Eduardo 1
Constitución 1
lag@@ 1
Estadio 1
City 0.3061570072173121
K 0.6628171956216431
modelos 1
continuación 1
posteriores 1
rojo 1
unión 1
Vol@@ 1
Municipio 1
volver 1
extensión 1
menores 1
conquist@@ 1
ier@@ 0.91504549679231
Sol 1
inal 1
vino 1
rango 1
paz 1
niveles 1
uro 1
noroeste 1
vivir 1
forman 1
anda 1
alizada 1
trabaj@@ 1
Washington 0.6995056945665221
construyó 1
Me@@ 0.5985339033574514
1936 0.9722595549848059
une 0.046434265975491607
igo 1
calles 1
Colegio 1
atas 1
régimen 1
oposición 1
Asamblea 1
acc@@ 0.9258064682523491
Bol@@ 1
adamente 1
Española 1
dientes 1
incluido 1
Austria 1
cuer@@ 1
ban@@ 1
alizado 1
Fu@@ 1
Tour 0.8788868911883808
decide 1
protección 1
League 0.2946997965798518
ono 1
Tar@@ 1
hojas 1
encial 1
Plata 1
sala 1
premios 1
llama 1
institución 1
Mar 1
inicialmente 1
estrella 1
intent@@ 1
coc@@ 1
som@@ 1
fun@@ 1
frecuencia 1
basada 1
cierto 1
D. 1
Arte 1
asesin@@ 1
ruta 1
ecimiento 1
llegando 1
von 0.030645753916897625
tig@@ 1
amar@@ 1
ganado 1
alemana 1
Ecuador 1
rum@@ 1
acion 1
control@@ 1
Alejandro 1
Charles 0.5136390979469946
compositor 1
contenido 1
ong 0.6040913521584922
Pin@@ 1
hogar 1
producido 1
Ol@@ 1
firmó 1
til 1
clubes 1
mont@@ 1
1964 0.7600225690895337
ificación 1
ven 1
aviones 1
adecu@@ 1
operación 1
estadounidenses 1
estrenó 1
figuras 1
Derecho 1
acional 1
económico 1
contempor@@ 1
acab@@ 1
Ganó 1
feder@@ 1
cuadr@@ 1
Polonia 1
latinos 1
ríos 1
realiz@@ 1
idioma 1
perf@@ 1
íes 1
iso 1
disputó 1
secretario 1
encontró 1
transmi@@ 1
lido 1
terreno 1
impuls@@ 1
desarrolló 1
formato 1
Cab@@ 1
médico 1
usar 1
onía 1
sp@@ 0.3293541308253811
Sierra 1
vis@@ 1
divi@@ 1
maestro 1
ascenso 1
1966 0.7697615394861349
autom@@ 1
ún 1
ari 1
nav@@ 1
comandante 1
eños 1
ram@@ 1
Antes 1
Cultura 1
diócesis 1
elabor@@ 1
necesidad 1
ocupación 1
Junta 1
Categoría 1
apa 1
Mir@@ 1
buen 1
competición 1
rep@@ 1
via 0.7778713020975079
tratamiento 1
británica 1
tora 1
bil@@ 1
Ella 1
habría 1
resistencia 1
Fundación 1
Nor@@ 0.918310523202335
yac@@ 1
ancho 1
fon@@ 1
ates 0.286557459826391
seguir 1
Hum@@ 1
esqu@@ 1
siguiendo 1
ades 0.979568042277085
ensis 1
luch@@ 1
alter@@ 1
quer@@ 1
instalaciones 1
Hab@@ 1
suele 1
basado 1
Torneo 1
och@@ 1
provincias 1
posibilidad 1
ast@@ 1
voc@@ 1
tis 1
vivió 1
ectos 1
etos 1
Fl@@ 0.7059824910303465
iría 1
lados 1
similares 1
proporcion@@ 1
eli@@ 1
Rom@@ 1
reina 1
Daniel 1
Cataluña 1
don 1
ce@@ 1
sent@@ 1
especí@@ 1
queda 1
hechos 1
Media 1
mun@@ 1
mezcla 1
Ana 1
aplicación 1
Thomas 0.5416607023815491
narr@@ 1
relev@@ 1
críticas 1
lan@@ 1
He@@ 0.5413126912764752
intento 1
Isabel 1
detrás 1
adura 1
mexicano 1
alistas 1
14@@ 0.844240217498355
ilio 1
convertirse 1
Sec@@ 1
utilizar 1
1965 0.7388217917288898
vuelve 1
frag@@ 1
ográfico 1
entas 1
recibe 1
contacto 1
olí@@ 1
nov@@ 1
retr@@ 1
tecnología 1
explor@@ 1
compuesta 1
interpretó 1
mut@@ 1
situ@@ 1
tida 1
Mundo 1
recur@@ 1
ecu@@ 1
2,@@ 1
1920 0.7792038053324648
Uno 1
marcha 1
ula 1
distin@@ 1
3.@@ 1
Deportivo 1
instituciones 1
ren@@ 0.5661560626110734
Sil@@ 1
colores 1
Sin@@ 1
prob@@ 1
vent@@ 1
uy@@ 1
carta 1
método 1
Lor@@ 1
Sp@@ 0.5312085371723526
territorios 1
grafía 1
idor 1
F. 1
ord@@ 0.7904521379069588
CD 1
dé@@ 0.21441977120661312
barr@@ 1
ám@@ 1
Israel 1
Mayor 1
cree 1
ou@@ 0.33367732815306456
traduc@@ 1
Hasta 1
llen@@ 1
duc@@ 1
by 0.020335936351367177
Cuba 1
humano 1
sexual 1
Ge@@ 0.5134402325347178
diplom@@ 1
metal 1
secre@@ 1
estaciones 1
aumento 1
arán 1
diferente 1
pista 1
desarrollado 1
necesario 1
escuelas 1
Guillermo 1
pintor 1
poeta 1
Del@@ 1
solamente 1
Cámara 1
vuelo 1
1962 0.7683126287769731
Hol@@ 0.8399529120738728
ot 0.6075793965339401
debía 1
deleg@@ 1
ili@@ 0.9171539687406167
anz@@ 1
Str@@ 0.45196677754374537
Paz 1
posiciones 1
publicada 1
arquitecto 1
cola 1
propios 1
dando 1
memoria 1
fe@@ 0.4907618068667109
añadi@@ 1
sig@@ 1
onales 1
pidió 1
les@@ 1
document@@ 1
capaz 1
carreras 1
Peter 0.606667272730634
No@@ 1
naturales 1
dific@@ 1
Andrés 1
periódico 1
décadas 1
amor@@ 1
eva 1
niño 1
Estr@@ 1
denominado 1
lit@@ 1
1963 0.757790015397988
parroquia 1
Guatemala 1
enz@@ 0.9429279268788698
legisl@@ 1
aja 1
Berlín 1
Tom@@ 1
1939 0.6973348082158781
Edad 1
Europeo 1
órdenes 1
Facultad 1
300 0.9176887908481758
comienzo 1
Revolución 1
convierte 1
ideas 1
Gi@@ 1
bres 1
To@@ 1
ph@@ 0.3120322357131699
abor@@ 1
japonés 1
hispanos 1
Ho@@ 0.7421186115167908
avión 1
ben 0.844019610697643
je@@ 1
Cada 1
mac@@ 1
ac 0.8578413018271702
Ag@@ 1
fan@@ 1
ofrec@@ 1
debutó 1
convoc@@ 1
Ángel 1
edió 1
gen 0.7152953774523273
técnicas 1
33 0.9523132599306615
ont@@ 1
príncipe 1
escol@@ 1
alidades 1
ki 0.7555087652164469
Pen@@ 1
tec@@ 1
difícil 1
dedic@@ 1
ango 1
complejo 1
tratado 1
Julio 1
coron@@ 1
ho@@ 0.48959424400877455
construida 1
centros 1
Desarrollo 1
realizada 1
# 0.8686445518598159
land 0.20358285155439168
fera 1
eve 1
nombr@@ 1
diputado 1
tim@@ 1
nave 1
¿ 1
ens 0.19288174845839995
comerciales 1
residiendo 1
Music 0.5747519364288358
avi@@ 1
palacio 1
pertenece 1
estudió 1
puerta 1
const@@ 1
Nu@@ 1
gráfico 1
Vicente 1
logr@@ 1
fol@@ 1
alb@@ 1
inicial 1
vincul@@ 1
Sánchez 1
ambiente 1
Castillo 1
aquí 1
poder@@ 1
ton@@ 1
azul 1
gado 1
exposición 1
Asimismo 1
tima 1
designado 1
ger 0.7416735745721033
Domingo 1
ond@@ 1
div@@ 1
iciones 1
simplemente 1
fus@@ 1
alemanes 1
ilustr@@ 1
res 1
can 0.1610818043191978
vid@@ 1
Mur@@ 1
anot@@ 1
puestas 1
Ramón 1
escri@@ 1
caracteriz@@ 1
cir@@ 1
conciertos 1
cambió 1
prov@@ 1
conseguir 1
católica 1
ava 1
directo 1
Kar@@ 0.5013500454230779
ros 1
resid@@ 1
ite 0.28820308198761885
populares 1
ofrece 1
habla 1
Corea 1
pie 1
ore 0.5233419773187392
diendo 1
Bolivia 1
dominio 1
Bat@@ 1
comple@@ 1
medallas 1
1958 0.758552094734037
amo 1
ust@@ 1
sello 1
destaca 1
bandas 1
acep@@ 1
endas 1
Cristo 1
ras 1
oz 1
Allí 1
ten 0.11111770050531913
estatal 1
trabajadores 1
cero 1
mente 1
Otras 1
deportiva 1
científicamente 1
ónicas 1
olo 1
proclam@@ 1
J. 0.8348211453439771
demostr@@ 1
destacan 1
teniendo 1
Grande 1
pérdida 1
altos 1
presidencia 1
pasando 1
Sub@@ 0.9004208526856461
considerada 1
alej@@ 1
Naciones 1
poli@@ 1
azado 1
pop 1
ticamente 1
capilla 1
cámara 1
deportista 1
duque 1
células 1
Aragón 1
Ya 1
organizaciones 1
comunidades 1
sufr@@ 1
ieren 1
Do@@ 0.8839907910793071
bar 0.6756699949985838
Ang@@ 0.7745330808880347
icia 1
poca 1
1944 0.5683315963236282
árabe 1
uto 1
producir 1
Tel@@ 1
leyes 1
bosques 1
apertura 1
oy@@ 1
campos 1
ablemente 1
decor@@ 1
actores 1
ución 1
ville 0.2569705311128109
caída 1
completa 1
person@@ 1
ble 1
colectiv@@ 1
complet@@ 1
micro@@ 1
At@@ 0.9119843273012543
azar 1
Dem@@ 1
pil@@ 1
plat@@ 1
Pu@@ 1
experiment@@ 1
vió 1
ejo 1
Soviética 1
cán@@ 1
ánea 1
cuenca 1
península 1
amplia 1
nacimiento 1
defens@@ 1
enseñ@@ 1
salió 1
falleció 1
italiana 1
oportunidad 1
Martin 0.6814961970374093
famoso 1
mus@@ 0.98665811486229
transform@@ 1
hon@@ 1
stas 1
estructuras 1
valores 1
1941 0.6081328202993059
estrellas 1
responsable 1
múltiples 1
papa 1
series 0.2243125053979681
flor@@ 1
biendo 1
movimientos 1
mentos 1
XVII 1
física 1
Ay@@ 1
destin@@ 1
americanos 1
golpe 1
hacía 1
sa@@ 0.9532837168853269
cop@@ 1
1956 0.7249249132521203
eder@@ 1
hábitat 1
Banco 1
Res@@ 1
Medi@@ 1
Vil@@ 1
Richard 0.6535718442267336
milit@@ 1
lá@@ 1
áneo 1
1948 0.7028188416310772
naveg@@ 1
números 1
clave 1
1961 0.7263003811286531
argum@@ 1
histórica 1
Luc@@ 1
indica 1
Pat@@ 1
competencia 1
ñas 1
vecinos 1
edor 1
teri@@ 1
fe 0.8886462156238525
Poco 1
ético 1
libr@@ 1
cau@@ 1
él@@ 1
consist@@ 1
Algunas 1
Todos 1
hem@@ 1
udi@@ 1
vot@@ 1
36 0.9072942216284259
Lin@@ 1
ern@@ 0.7394054455595535
montaña 1
ocupó 1
rem@@ 1
ai@@ 1
refiere 1
iente 1
elli 1
vers@@ 1
ible 1
lar 0.9292082321189138
Patr@@ 1
ancias 1
grabación 1
conv@@ 1
Bot@@ 1
quiere 1
indígenas 1
br 0.631452037037447
concierto 1
Seg@@ 1
mel@@ 0.8341633288051359
usado 1
dico 1
comunic@@ 1
orado 1
sabe 1
cursos 1
viaj@@ 1
técnico 1
lenguas 1
dir@@ 1
vías 1
tismo 1
vic@@ 1
abierto 1
peces 1
dejar 1
pun@@ 1
humana 1
ich@@ 0.6909529653174338
Mis@@ 1
poner 1
concentr@@ 1
dica 1
escala 1
guerr@@ 1
formada 1
record@@ 1
Maria 0.8696205408781327
escenario 1
señor 1
anzas 1
ere 0.45130999644627273
mot@@ 1
concurso 1
suj@@ 1
obten@@ 1
core@@ 1
lab@@ 1
escribir 1
tropical 1
contrario 1
Hom@@ 1
sufrió 1
progres@@ 1
compitió 1
result@@ 1
em 0.39385573791393597
uz@@ 1
pier@@ 1
vil@@ 1
cargos 1
sangre 1
guitarra 1
Justicia 1
Ram@@ 1
ber 0.5592600844030567
Vic@@ 1
republic@@ 1
aspecto 1
for 0.01558111355434769
ámbito 1
Im@@ 0.7452952793874307
calific@@ 1
aliment@@ 1
estre 1
aparecen 1
franceses 1
vive 1
cuarta 1
Isla 1
Victoria 1
Trans@@ 1
Batalla 1
totalmente 1
dida 1
prisión 1
embar@@ 1
oz@@ 1
asegur@@ 1
Cant@@ 1
Irlanda 1
permaneció 1
recibido 1
interpretación 1
aud@@ 1
400 0.8719371496958613
consiste 1
cula 1
busca 1
tes@@ 1
senti@@ 1
transfer@@ 1
tiles 1
34 0.9373227869184757
comput@@ 1
expresión 1
arg@@ 1
medidas 1
Red 0.7874926467583553
código 1
utilizando 1
recién 1
alizar 1
consecu@@ 1
Nuestra 1
Rica 1
anual 1
didas 1
judíos 1
núcleo 1
ou 0.12154915507130315
Me 1
ariamente 1
intención 1
puertas 1
enes 1
tre 1
revel@@ 1
Far@@ 0.9956779945607233
iden 1
ke 0.3134563892275712
apr@@ 1
invit@@ 1
noreste 1
Él 1
pir@@ 1
plano 1
ambi@@ 1
liter@@ 1
fut@@ 1
proy@@ 1
entren@@ 1
denominada 1
límite 1
industrial 1
Gómez 1
alg@@ 1
presa 1
cens@@ 1
episodios 1
resultó 1
gradu@@ 1
Gener@@ 1
descubierto 1
estra 1
adapt@@ 1
1959 0.7187551721548228
llamó 1
iga 1
Premios 1
Kr@@ 0.5426936704425658
ual 1
desempeñó 1
electoral 1
ocasión 1
ataques 1
You 0.7997084545696619
im 0.03415108586812572
condición 1
AR@@ 1
quit@@ 1
cent@@ 1
Dr. 0.9857164404806668
Avenida 1
dev@@ 1
1957 0.7374720761413189
tej@@ 1
enden 0.4211063251320037
podían 1
menes 1
óm@@ 1
Islas 1
altas 1
conden@@ 1
expedición 1
j 0.7902863913936
fiesta 1
ológicas 1
ult@@ 1
Nació 1
asociación 1
eciendo 1
rech@@ 1
vención 1
1955 0.7597269356681537
uni@@ 1
Leg@@ 1
propuesta 1
romano 1
plant@@ 1
burgo 1
uer@@ 1
Granada 1
asiáticos 1
letras 1
Fre@@ 0.60826870847929
culturales 1
pies 1
Park 0.3834182613663167
cruz@@ 1
ónicos 1
encima 1
1943 0.6130517375920905
lic@@ 1
00 1
identidad 1
participantes 1
piloto 1
Oro 1
seguido 1
ich 0.6569666766299118
dejando 1
Países 1
ísticas 1
period@@ 1
estudiar 1
alcanz@@ 1
ben@@ 0.8803387330549524
Ricardo 1
comienzos 1
masa 1
ezas 1
Municipal 1
Egipto 1
‘ 0.9016491781922232
Suecia 1
afir@@ 1
ade 0.46679602466804143
asesinato 1
38 0.9102204749675118
arqu@@ 1
la@@ 0.7722609837294468
mam@@ 1
Bl@@ 0.6498977209549036
corto 1
marco 1
hidro@@ 1
Ir@@ 1
mos@@ 1
textos 1
viv@@ 1
lat@@ 0.9739413307806976
adr@@ 1
únicamente 1
1942 0.6112968035853016
Cel@@ 1
ices 1
Región 1
reco@@ 1
abund@@ 1
ox@@ 1
dios 1
accidente 1
discos 1
encu@@ 1
Estación 1
dedi@@ 1
didos 1
estu@@ 1
urbano 1
invierno 1
Estudios 1
abajo 1
abogado 1
doc@@ 1
Alto 1
ordenó 1
licenci@@ 1
eri@@ 1
obr@@ 1
w 0.36013240227948545
tin@@ 1
conoc@@ 1
VI 1
escudo 1
recibir 1
enfer@@ 1
poblaciones 1
ick 0.5550994986159683
caracter@@ 1
regional 1
demasiado 1
aument@@ 1
utilizan 1
reconocido 1
apenas 1
encontrado 1
amenaz@@ 1
Grecia 1
ís 1
denominación 1
últimas 1
íos 1
fa 1
ganador 1
ferrocarril 1
cot@@ 1
conoció 1
visita 1
Díaz 1
dot@@ 1
Pel@@ 1
públicas 1
Man 0.8208271516336292
cionales 1
nación 1
ü@@ 0.6321145564910915
árboles 1
emas 1
car 0.4609077837303108
Atlético 1
descri@@ 1
ans@@ 0.7718549911817025
ax@@ 1
asent@@ 1
alla 1
argentina 1
mant@@ 1
Edi@@ 1
salir 1
ciudadanos 1
onda 1
ster 0.6767731543935144
Mario 1
65 0.6715361223869076
Mes@@ 1
vali@@ 1
afroamericanos 1
Texas 0.7035374962569497
encabez@@ 1
Agu@@ 1
otom@@ 1
Pir@@ 1
especiales 1
ejer@@ 1
Canal 1
vídeo 1
anci@@ 1
1946 0.6283715951624373
autoridad 1
hospital 1
plataforma 1
Nicolás 1
labor 1
contin@@ 1
uo 1
comunes 1
Fer@@ 1
entrar 1
oría 1
natal 1
Economía 1
Social 1
arle 1
bandera 1
gió 1
lev@@ 1
femenino 1
ican 1
cierta 1
permiti@@ 1
fér@@ 1
exp@@ 1
Char@@ 0.5939681125609819
ayudar 1
1952 0.708049213659627
Señora 1
fuertes 1
istir 1
aprob@@ 1
1949 0.6755483438665462
claro 1
respon@@ 1
estimada 1
Hospital 1
quinto 1
involucr@@ 1
ago 1
ahí 1
doce 1
coronel 1
sen 0.4730091298362549
sovi@@ 1
mix@@ 1
Sistema 1
lenguaje 1
arco 1
sureste 1
describe 1
procesos 1
convertido 1
coleóptero 1
reemplaz@@ 1
bre@@ 0.45899438560509276
Parlamento 1
torio 1
propias 1
só@@ 1
propiedades 1
destino 1
acion@@ 1
religión 1
Lim@@ 1
Prim@@ 1
estándar 1
récord 1
Mol@@ 1
lograr 1
uma 1
desplaz@@ 1
Sur@@ 0.9471205393753134
lav@@ 1
letra 1
reduc@@ 1
vehículos 1
ko 0.8140766269875933
ides 0.5698177238355481
franqu@@ 1
64 0.7791727439691026
usando 1
directa 1
regular 0.9225273970593969
juicio 1
activa 1
pasajeros 1
tador 1
tia 1
Federico 1
1954 0.7050742247533723
reclam@@ 1
jur@@ 1
bajas 1
moderna 1
públicos 1
romana 1
Brit@@ 1
reinado 1
pint@@ 1
Ten@@ 1
nia 1
Europea 1
ine@@ 1
ene 0.3670017795637443
búsqueda 1
1938 0.6555465358242107
conquista 1
ision@@ 1
reunión 1
4.@@ 1
fusión 1
Dar@@ 0.722741822315518
teniente 1
quím@@ 1
aur@@ 1
imos 1
regres@@ 1
du 0.023835730208221276
Mus@@ 0.7566067713617255
Suiza 1
1937 0.7300075536346933
violencia 1
protagonista 1
Superior 1
retiró 1
1947 0.6682144959960015
Taxonomía 1
géneros 1
1953 0.723466376332402
catedral 1
filosofía 1
tran@@ 1
Soci@@ 1
mem@@ 1
oh@@ 0.9081083722435049
tradicionales 1
aspectos 1
Sim@@ 0.9516942167496432
field 0.27410834924634425
equip@@ 1
Bajo 1
Sud@@ 1
copias 1
bel@@ 0.537390577213334
corazón 1
profesionales 1
Gol@@ 1
suficiente 1
trabajando 1
viene 1
raíz 1
potencia 1
eria 1
Serie 1
convirtiéndose 1
Dur@@ 1
suelen 1
entado 1
ventas 1
42 0.9385474991776942
march@@ 1
ojos 1
mina 1
baloncesto 1
char@@ 0.8801813964384264
forz@@ 1
entorno 1
éticos 1
contó 1
may@@ 1
inicios 1
conclu@@ 1
Ministro 1
Love 0.9154880621122926
mantiene 1
75 0.9046977973395339
categorías 1
Roberto 1
Javier 1
compañeros 1
reforma 1
Rock 1
B. 0.5872280795901207
clásico 1
lec@@ 1
Chicago 0.6977127801622491
presentan 1
Fon@@ 1
Compañía 1
oscur@@ 1
org@@ 1
Otro 1
relacionados 1
Cine 1
ty 0.27341807059672035
IN@@ 1
abrió 1
Fuerza 1
Organización 1
álbumes 1
Nov@@ 1
American 0.13086694533397317
amerindios 1
UN@@ 1
CO@@ 1
poesía 1
planeta 1
prohib@@ 1
J 0.8482617694336541
ísticos 1
Florida 0.9125010378750518
bios 1
Zaragoza 1
ól@@ 1
corriente 1
ly 0.164917343585812
fundament@@ 1
documentos 1
fachada 1
cuerpos 1
dul@@ 1
adel@@ 1
Paraguay 1
ejas 1
materia 1
segundos 1
enf@@ 0.9228444281630476
arlos 1
sosten@@ 1
establecer 1
distingu@@ 1
Bretaña 1
artes 1
invasión 1
Occidental 1
tiz@@ 1
equ@@ 0.902707689162969
concre@@ 1
elemento 1
Lee 0.8969833540436389
Dor@@ 1
correc@@ 1
desc@@ 1
Existen 1
parlament@@ 1
aquella 1
retir@@ 1
simple 1
envió 1
Sebastián 1
Dr@@ 0.6461434634042554
Henry 0.5612657740038414
bano 1
nas@@ 1
ette 0.3633141392903591
Jer@@ 1
volumen 1
allá 1
impacto 1
civiles 1
aceae 1
agricultura 1
músico 1
q@@ 0.8750420659221382
Lic@@ 1
bosque 1
ans 0.12401333207101341
barco 1
empl@@ 1
secundaria 1
Música 1
montañas 1
cuadro 1
coordin@@ 1
combati@@ 1
rio 1
vesti@@ 1
suroeste 1
protagoniz@@ 1
Rosario 1
familiar 1
promoción 1
recorrido 1
conect@@ 1
patri@@ 1
escenas 1
egr@@ 1
cer 1
Corte 1
latín 1
toc@@ 1
2022 0.6865757536415856
nati@@ 1
descrito 1
Frente 1
grabado 1
cambiar 1
llevado 1
deten@@ 1
Comunidad 1
localidades 1
iy@@ 1
W 0.6041561153461464
nac@@ 1
pieza 1
página 1
Comun@@ 1
Vel@@ 1
neas 1
sirvió 1
deb@@ 1
ficción 1
corta 1
izo 1
iste 0.5115395900069236
37 0.891779470685721
quería 1
duración 1
ey@@ 0.8747712840956681
iza 1
1931 0.8567782750039806
disponible 1
evolución 1
Joseph 0.5225446329198353
historiador 1
dig@@ 1
Santos 1
cumpli@@ 1
Ali@@ 1
Smith 0.6689249093737868
armente 1
Trabaj@@ 1
Fi@@ 1
europeos 1
eter@@ 1
monasterio 1
expansión 1
Uni@@ 1
desempeñ@@ 1
riesgo 1
formes 1
muerto 1
rí@@ 1
isl@@ 1
Pon@@ 1
mientos 1
multi@@ 1
suministr@@ 1
urgo 1
College 0.2761588143611397
itud 1
dedicó 1
dedicado 1
M. 0.8238467147575643
Ayuntamiento 1
Unidas 1
Sant@@ 1
formando 1
EE 1
fondos 1
seleccion@@ 1
verso 1
prove@@ 1
incluida 1
aeropuerto 1
ford 0.46971172881421214
1933 0.6694020382822751
Moscú 1
Tres 1
consum@@ 1
residencia 1
uch@@ 0.8986298553601634
lad@@ 1
Bajos 1
privada 1
chino 1
editorial 1
encar@@ 1
hid@@ 1
diseñado 1
id 0.43513973291500924
úr@@ 1
constru@@ 1
mexicana 1
conocidas 1
48 0.9023964571199617
ciudad@@ 1
reales 1
Fe 1
egas 1
pico 1
bombar@@ 1
ng@@ 0.9359017026917162
adero 1
acán 1
prefer@@ 1
federal 1
sub 1
Participó 1
Muchos 1
oles 1
contexto 1
ecas 1
decreto 1
aleg@@ 1
oci@@ 1
redes 1
Escu@@ 1
piano 1
introduc@@ 1
árbol 1
mó@@ 1
habl@@ 1
Tab@@ 1
Hi@@ 1
corpor@@ 1
Carmen 1
implic@@ 1
XIII 1
Torre 1
sufici@@ 1
S. 0.9507355605091501
normalmente 1
frut@@ 1
tempor@@ 1
usuarios 1
celebró 1
5.@@ 1
terminar 1
52 0.9777382363874888
crip@@ 1
Ing@@ 1
osis 1
44 0.8055636838913519
ender@@ 1
llevaron 1
ámica 1
Cuenta 1
crítico 1
haya 1
cóm@@ 1
cubierta 1
cultiv@@ 1
entrevista 1
efici@@ 1
ebr@@ 1
zos 1
aw@@ 0.4144743266204856
ulación 1
incluyó 1
55 0.9221712386115607
chi@@ 0.9110192789090589
juntos 1
presentación 1
Panamá 1
revolucion@@ 1
Bon@@ 1
nombró 1
Rosa 1
fl@@ 0.3662780955499093
desarrollar 1
junta 1
hel@@ 1
Mé@@ 1
arra 1
utilizó 1
Lar@@ 1
pion@@ 1
Junto 1
siguieron 1
diferencias 1
fran@@ 1
ís@@ 1
previ@@ 1
particularmente 1
deja 1
Loc@@ 1
uros 1
Inf@@ 1
británicos 1
eléctrica 1
comarca 1
mandato 1
presentado 1
planes 1
udo 1
itación 1
marcó 1
all 0.08342417045535733
antiguas 1
viera 1
Otra 1
deci@@ 1
once 0.5545528310719655
mann 0.41067113771037145
virtu@@ 1
ski 0.8478486920230051
cial 1
idi@@ 1
ubicación 1
1934 0.7329751812935587
dedicada 1
ándole 1
oni 1
pertenecían 1
logra 1
dura 1
pocas 1
enses 1
1951 0.6958080973810365
3,@@ 1
age 0.09031574897674945
reacción 1
llamados 1
erías 1
incluía 1
compon@@ 1
Castro 1
objetivos 1
artístico 1
trono 1
Monte 1
publicaciones 1
ric@@ 1
actuales 1
practic@@ 1
¡ 1
festival 1
relativamente 1
historias 1
representante 1
producida 1
tramo 1
ches 0.4044563179165611
crec@@ 1
Prot@@ 1
carse 1
tabla 1
pobreza 1
entidad 1
str@@ 0.2741589934318098
ocupa 1
corresponde 1
sol 1
Tam@@ 1
chil@@ 1
ani@@ 1
consumo 1
Il@@ 1
flota 1
ip@@ 1
activos 1
cú@@ 1
breve 1
religiosa 1
cercano 1
merc@@ 1
preten@@ 1
bir@@ 1
blanca 1
ts 0.10555965372724603
bles 1
originales 1
transmisión 1
Oriental 1
revolución 1
homenaje 1
sus@@ 1
externos 1
músicos 1
alfab@@ 1
eh@@ 0.3203862528010439
rol 1
Administración 1
popularidad 1
espacios 1
destacar 1
comparti@@ 1
Ba@@ 1
Mejor 1
condu@@ 1
itar 1
provincial 1
crito 1
propósito 1
razones 1
poderes 1
ém@@ 1
difun@@ 1
investigaciones 1
adía 1
dó@@ 1
icidad 1
Gor@@ 1
figur@@ 1
científico 1
fas@@ 1
constante 1
protagonizada 1
dil@@ 1
comedia 1
gos 1
ándolo 1
ciclo 1
históricos 1
mañana 1
sup@@ 1
aproxim@@ 1
límites 1
precio 1
1935 0.702084156266331
bienes 1
motivos 1
trac@@ 1
teros 1
Aut@@ 1
estad@@ 1
templ@@ 1
film@@ 1
característica 1
isti@@ 1
ún@@ 1
Liber@@ 1
St 0.5800480661304095
óg@@ 1
cabecera 1
reempl@@ 1
sali@@ 1
odi@@ 1
expuls@@ 1
muestran 1
cir 1
arreg@@ 1
cia 1
compañero 1
líderes 1
ons 0.15802215011363432
plic@@ 1
School 0.1811731348195571
registro 1
depend@@ 1
sindic@@ 1
lí@@ 1
tería 1
hí@@ 1
marido 1
EP 1
enos 1
1929 0.7190634336114137
conservación 1
All 0.3124995386505377
críticos 1
adaptación 1
ent 0.07565188994034028
muertos 1
quin@@ 1
enviado 1
imo 1
ediciones 1
opinión 1
Ul@@ 1
cientos 1
afirmó 1
podrían 1
formaron 1
revistas 1
implement@@ 1
abandonó 1
far@@ 1
1932 0.7540667449248926
39 0.9261601454452368
diámetro 1
Ó@@ 1
experim@@ 1
Tro@@ 1
úa 1
Centr@@ 1
mejorar 1
asum@@ 1
deber@@ 1
chileno 1
arquía 1
Nav@@ 1
jar 1
comand@@ 1
motores 1
entrega 1
usión 1
tren 1
moderno 1
aí@@ 1
haci@@ 1
fábrica 1
sober@@ 1
misiones 1
zar@@ 1
identes 1
li 0.6992544787175692
porte 1
quedando 1
már@@ 1
Plan@@ 1
femenina 1
ek 0.5402991655406334
onen 0.9245385572574832
1918 0.5905330570228063
tron@@ 1
quién 1
nacion@@ 1
paral@@ 1
cuyos 1
europeo 1
guard@@ 1
ial 1
machos 1
VII 1
verse 1
regresar 1
utilizada 1
bases 1
up@@ 0.3812124102524425
Tribunal 1
ā@@ 0.6726641793972906
orient@@ 1
barcos 1
desaparec@@ 1
priv@@ 1
Defensa 1
dinastía 1
instrumentos 1
éste 1
Agr@@ 1
acio 1
Bre@@ 0.5786652123753644
Toledo 1
Billboard 1
consul@@ 1
naval 1
ri 1
obteniendo 1
notable 1
digital 1
consegu@@ 1
iller@@ 1
tros 1
ajas 1
víctimas 1
sectores 1
Dec@@ 0.99290690044185
venc@@ 1
Hal@@ 0.685638630815575
Armada 1
conse@@ 1
alo 1
elenco 1
Dom@@ 0.9615104355769234
simb@@ 1
consagr@@ 1
dismo 1
allas 1
dram@@ 1
Marina 1
inmediatamente 1
rá@@ 1
comportamiento 1
ingeniero 1
métodos 1
conserva 1
ingres@@ 1
tienda 1
ume 0.9893919402236138
áng@@ 1
Estudió 1
pregun@@ 1
Ban@@ 0.8472666356165407
.. 1
rápido 1
tex@@ 1
Vir@@ 1
llan@@ 1
corona 1
Mot@@ 0.9193851579800371
establecido 1
César 1
Arm@@ 1
audiencia 1
venezol@@ 1
ple@@ 0.9296397846681229
afirma 1
Biblioteca 1
Oriente 1
sín@@ 1
chó 1
Catedral 1
prácticamente 1
universit@@ 1
oral 1
óst@@ 1
aport@@ 1
Wil@@ 0.6150130249350758
contrat@@ 1
ilidad 1
victorias 1
Navarra 1
artística 1
mismas 1
típ@@ 1
fu@@ 1
recib@@ 1
provocó 1
blo@@ 1
elle 0.09417561639356362
apreci@@ 1
inferiores 1
Constitu@@ 1
Bélgica 1
1928 0.6917346104764529
Aeropuerto 1
documental 1
atrás 1
neur@@ 1
realizaron 1
allo 1
siguen 1
alia 1
veinte 1
pinturas 1
lea 1
asist@@ 1
om 0.5761630487673416
hierro 1
radic@@ 1
abl@@ 1
superiores 1
profundidad 1
ingreso 1
Royal 0.3792795788965579
Louis 0.4119367635959181
chi 0.6854079921254562
informe 1
gig@@ 1
caballer@@ 1
exit@@ 1
nea 1
Sam@@ 0.7548812885423775
volun@@ 1
msnm 1
43 0.9440382175438655
onal@@ 1
genes 1
increm@@ 1
Primer 1
Campo 1
empez@@ 1
Tu@@ 1
explo@@ 1
are 0.03250948724438775
bail@@ 1
señal 1
May@@ 1
aldo 1
Apo@@ 1
omo 1
ismos 1
dan@@ 1
pantalla 1
ker 0.3504397313657206
Tal@@ 1
científicos 1
fres@@ 1
tasa 1
espectadores 1
Franco 1
camp@@ 1
ong@@ 0.6180506570787538
Gabriel 1
National 0.14246612345543735
onado 1
ō 0.9851997208004838
bir 0.17524376557656798
usos 1
edia 1
Bus@@ 1
Ven@@ 1
australi@@ 1
Lorenzo 1
mec@@ 1
acta 1
igi@@ 1
ría 1
excepción 1
evalu@@ 1
CA@@ 1
intentó 1
cron@@ 1
habitual 1
destacado 1
grav@@ 1
química 1
Barr@@ 1
alimentos 1
cultivo 1
diferenci@@ 1
descar@@ 1
caron 1
41 0.9174775142700086
someti@@ 1
Cru@@ 1
ane 0.4232385680207018
Tratado 1
compañías 1
permi@@ 1
cal 1
apun@@ 1
dat@@ 1
enseñanza 1
demanda 1
proc@@ 1
excepto 1
dol@@ 1
mejor@@ 1
pap@@ 1
Pap@@ 1
Oc@@ 1
tráfico 1
ire 0.39150344878847876
empate 1
éc@@ 1
ele 0.7806498843799844
ciertos 1
Movimiento 1
instruc@@ 1
noticias 1
monumento 1
histori@@ 1
Internet 1
ógrafo 1
escritos 1
abier@@ 1
rosa 1
1000 1
lus@@ 1
viviendas 1
ingresó 1
actuaciones 1
grados 1
matr@@ 1
* 0.19708387022062301
presentes 1
norte@@ 1
Jac@@ 1
Hel@@ 0.6687312472304864
distritos 1
confirm@@ 1
invent@@ 1
justo 1
úan 1
Cultural 1
amplio 1
los@@ 1
ficos 1
Joaquín 1
serían 1
software 1
Gen@@ 0.5541415956508692
program@@ 1
trayectoria 1
galard@@ 1
XV 1
desarrol@@ 1
ír@@ 1
orqu@@ 1
King 0.3614311830394734
transport@@ 1
marc@@ 1
Carolina 0.8775738012915291
otorg@@ 1
legal 0.9158089803947501
caza 1
pone 1
factores 1
miles 1
propor@@ 1
entó 1
quez 1
alizó 1
à 0.013864367099307726
consolid@@ 1
negocios 1
labor@@ 1
Doctor 1
forme 0.5798238088130829
permanente 1
empleo 1
1914 0.6649727076782989
eado 1
deportivo 1
graduó 1
jardín 1
Condado 1
proviene 1
almacen@@ 1
piel 1
cita 1
símbolo 1
finalizó 1
mascul@@ 1
Ha@@ 0.7895931476452256
acces@@ 1
titulada 1
treinta 1
emer@@ 1
termina 1
Black 0.5467839499402358
West 0.2418428175345181
ceremonia 1
repar@@ 1
finaliz@@ 1
festiv@@ 1
Ca@@ 1
justicia 1
sens@@ 1
batería 1
Mos@@ 1
conver@@ 1
ejos 1
bón 1
mp@@ 1
NBA 1
confi@@ 1
Ari@@ 1
éxitos 1
otipo 1
guion 1
desaf@@ 1
inclin@@ 1
47 0.925983685965426
estreno 1
bió 1
posiblemente 1
Bellas 1
bautiz@@ 1
46 0.9184254984816725
XII 1
altar 1
1919 0.6024638738504191
ópera 1
Militar 1
interna 1
itaria 1
ét@@ 0.7596217752383316
consta 1
escap@@ 1
describió 1
encontraban 1
familiares 1
AC@@ 1
solar 1
Tre@@ 0.8161369981508662
vo@@ 0.7360041737124909
clar@@ 1
mento 1
íp@@ 1
cumplir 1
global 1
culto 1
Hungría 1
realmente 1
atus 1
asumió 1
fich@@ 1
Viena 1
monte 1
accion@@ 1
irá 1
intervención 1
lov@@ 1
Mah@@ 0.7726778891615259
Ignacio 1
sitios 1
sufri@@ 1
ubica 1
Fin@@ 1
Street 0.3512746541985256
Salud 1
enemigo 1
informó 1
funcionamiento 1
Ah@@ 1
escritura 1
yen 1
viven 1
ampliamente 1
eje 1
tilla 1
desempe@@ 1
orquesta 1
1910 0.7743952943530298
aces 1
ks 0.19476248832438472
onte 1
disputa 1
exper@@ 1
rein@@ 1
tax@@ 1
neo 1
abandonar 1
alim@@ 1
pronunci@@ 1
Sen@@ 0.9312470006608278
ectiv@@ 1
geno 1
uf@@ 1
Televisión 1
municipales 1
ace 0.7244684538018165
Deb@@ 1
pant@@ 1
Luna 1
intereses 1
Concepción 1
peligro 1
edido 1
recep@@ 1
existi@@ 1
1924 0.6914397344409973
recientemente 1
portes 1
fiestas 1
E. 0.9041414595910306
ardo 1
denunci@@ 1
absol@@ 1
colonia 1
efic@@ 1
participaron 1
Nar@@ 1
llegado 1
1917 0.6596913084499134
consejo 1
rest@@ 1
extranjero 1
ener@@ 1
primavera 1
ets 0.2392219237837658
representantes 1
bes@@ 0.7036200370955393
Esc@@ 1
japonesa 1
documento 1
entar 1
modern@@ 1
isp@@ 1
ester@@ 1
nes 0.7415823489466093
Dentro 1
umb@@ 1
Cos@@ 1
pá@@ 1
Habita 1
endr@@ 1
uncia 1
sean 1
sion@@ 1
arriba 1
deste 1
deriva 1
ácido 1
buscar 1
basa 1
continuar 1
oridad 1
poblado 1
sá@@ 1
Tercera 1
ólogos 1
leta 1
Mari@@ 0.9433831868744985
Dan@@ 1
evidencia 1
ron@@ 1
posibles 1
bin@@ 1
Noruega 1
Rico 1
ganando 1
ys 0.5946567156066298
Católica 1
biblioteca 1
ivos 1
54 0.9292049404258859
Sobre 1
agente 1
Tomás 1
Comenzó 1
excav@@ 1
export@@ 1
Atlántico 1
retirada 1
amin@@ 1
fama 1
International 0.23741443467570622
Reyes 1
cristianos 1
pueda 1
lismo 1
Senado 1
Agustín 1
banc@@ 1
51 0.9289493993835533
56 0.9563959858637548
95 0.9772682067004235
bó@@ 1
Aer@@ 1
E.@@ 1
viendo 1
capac@@ 1
órica 1
debió 1
idencia 1
otr@@ 1
canales 1
etapas 1
vein@@ 1
solic@@ 1
facilit@@ 1
organizado 1
instal@@ 1
Jack 0.8682560221057107
ach 0.33911110261269817
actuó 1
ash@@ 0.6423712520518463
dulce 1
dictadura 1
iniciativa 1
permanec@@ 1
incluidos 1
acos 1
vehículo 1
7,@@ 1
momentos 1
medicina 1
Ap@@ 0.7114214891101116
alternati@@ 1
exig@@ 1
mod@@ 0.8871546889280096
R. 0.963587276016015
clásica 1
orios 1
componentes 1
lun@@ 1
omas 1
descubri@@ 1
terrenos 1
empleados 1
asia 1
edades 1
ños 1
Company 0.3931163560468576
bas 1
angu@@ 1
dom@@ 1
enciales 1
dea 1
cápita 1
esfuerzos 1
individual 0.7952482329998678
ástico 1
1925 0.7010490162842046
programación 1
ángulo 1
ativamente 1
CE@@ 1
49 0.9036824456040615
solución 1
triunfo 1
enfrentó 1
papeles 1
AS@@ 0.7940829377814089
deo 1
tit@@ 1
reciente 1
acabó 1
vit@@ 1
cercana 1
Ruta 1
asesinado 1
sorpr@@ 1
ff@@ 0.38500372953151
600 0.9517653419632045
Neg@@ 1
Má@@ 1
establece 1
Tol@@ 1
Torres 1
enfermedades 1
jugando 1
eja 1
1927 0.6920137814335146
Rob@@ 1
sospe@@ 1
Montevideo 1
quil@@ 1
parroqui@@ 1
negra 1
añas 1
th 0.18784181231803304
Seguridad 1
ic 0.1384199498689062
57 0.9627630930858311
dismin@@ 1
finalizar 1
terror@@ 1
Bogotá 1
convento 1
62 0.9611705850065833
Ucrania 1
alianza 1
ógica 1
emis@@ 1
lia 1
requ@@ 1
log@@ 0.7708075616858534
Sig@@ 1
abierta 1
Ko@@ 0.5235555429659939
muer@@ 1
mej@@ 1
correspon@@ 1
DVD 1
apos@@ 1
trabaja 1
científica 1
jurí@@ 1
ale@@ 1
pide 1
normal 1
izado 1
sirve 1
cosa 1
Rus@@ 0.9930548589818714
austr@@ 1
reserva 1
Escocia 1
ép@@ 1
itario 1
lob@@ 1
deporte 1
Cop@@ 1
continente 1
53 0.9483676539524505
cancel@@ 1
margen 1
istió 1
ástica 1
recopil@@ 1
saber 1
plante@@ 1
atraves@@ 1
órgano 1
europea 1
ultad 1
iano 1
guitarrista 1
fel@@ 1
Dest@@ 1
Álvarez 1
daños 1
Mendoza 1
ige 0.2800605418518325
bic@@ 1
Sel@@ 0.8512940311937465
tendencia 1
1912 0.6965142515793289
Super 0.768909285354243
bal 1
golpe@@ 1
suspen@@ 1
Sub 1
novelas 1
isleños 1
ído 1
extranjeros 1
idores 1
ocurr@@ 1
1922 0.6815983154711902
85 1
garanti@@ 1
rural 0.9434012141335775
celebra 1
kh@@ 0.38800440606133096
afirm@@ 1
individuos 1
ciertas 1
ile 0.20299382042682917
import@@ 1
juez 1
recomend@@ 1
fundamental 1
infantil 1
ear@@ 1
cristi@@ 1
carne 1
lor@@ 1
correspondiente 1
delante 1
san 1
coment@@ 1
inglesa 1
ejecución 1
Ste@@ 0.4835607767644593
televisi@@ 1
Medio 1
cé@@ 1
amarillo 1
firm@@ 1
bro 1
ejemplos 1
eri 1
colegio 1
berto 1
pasaron 1
perder 1
art 0.224963187022489
undo 1
religioso 1
Andalucía 1
estros 1
mostró 1
hacerse 1
estructur@@ 1
inicia 1
P. 0.960685637564882
Argumento 1
š@@ 0.6835344882854971
roc@@ 1
pref@@ 1
sustan@@ 1
comisión 1
rama 1
crea 1
definición 1
ocu@@ 1
divide 1
Independencia 1
jero 1
declarado 1
editor 1
alcal@@ 1
vivi@@ 1
éndol@@ 1
artes@@ 1
Direc@@ 1
ji 0.8538878797897437
piso 1
Cristi@@ 1
tu 1
Rum@@ 1
repeti@@ 1
1926 0.6634625109518067
tiv@@ 1
dep@@ 1
anfi@@ 1
Mary 0.5360819350293456
cartas 1
alar 1
patrocin@@ 1
nacional@@ 1
significado 1
diciendo 1
matem@@ 1
imit@@ 1
insecto 1
Lam@@ 1
leyenda 1
confirmó 1
Servicio 1
secu@@ 1
Tecn@@ 1
descubrió 1
Star 0.6632657437609476
convertir@@ 1
romanos 1
aplicaciones 1
perdido 1
alumnos 1
critic@@ 1
58 0.9604507072363022
Jug@@ 1
n.º 1
72 0.9462655479916716
requer@@ 1
actuar 1
pelig@@ 1
alas 1
vern@@ 1
1923 0.689041906716852
Galicia 1
hablar 1
yendo 1
conexión 1
ladr@@ 1
Lí@@ 1
Cir@@ 1
País 1
innov@@ 1
Lista 1
ocur@@ 1
Alb@@ 1
extiende 1
empres@@ 1
Ori@@ 1
Zelanda 1
Don@@ 0.889347872069929
desarrolla 1
ui 1
acord@@ 1
totalidad 1
uri 1
fechas 1
Alonso 1
Cul@@ 1
popul@@ 1
enorme 1
mucha 1
créd@@ 1
estat@@ 1
grabó 1
Director 1
char 1
porta 1
mens@@ 1
icaciones 1
espectáculo 1
áb@@ 1
establecimiento 1
logrando 1
ok@@ 0.4286785278999998
encuentros 1
agrup@@ 1
concentración 1
iglesias 1
Jaime 1
encargado 1
ear 1
posesión 1
efectu@@ 1
presentar 1
tap@@ 1
infancia 1
Gir@@ 1
ener 0.692033537315464
rendimiento 1
800 0.9480888314568395
Rem@@ 1
arquitect@@ 1
concep@@ 1
150 0.8591111051463333
estro 1
yente 1
recuer@@ 1
portada 1
Sudáfrica 1
tratar 1
Brown 0.7312877446710162
asuntos 1
6,@@ 1
sacerdote 1
probable 1
negocio 1
resolución 1
ándol@@ 1
ficado 1
enemigos 1
pacientes 1
absoluta 1
show 0.24385570115160243
adultos 1
económicos 1
expan@@ 1
hielo 1
caz@@ 1
sitúa 1
organizó 1
osamente 1
ví@@ 1
Ta@@ 0.8458272796991445
Alianza 1
configur@@ 1
Van 0.8939195313235443
Oeste 1
ausencia 1
grave 1
mán 1
gráfica 1
depor@@ 1
oj@@ 1
columnas 1
tend@@ 1
63 0.9652499780802121
cáncer 1
Investigación 1
Not@@ 0.9020549631465744
irland@@ 1
económicas 1
encio 1
• 1
arri@@ 1
representan 1
eñas 1
animal 1
len@@ 0.6288550503434974
certific@@ 1
acho 1
Jur@@ 1
cuestión 1
Jo@@ 0.8542250902096181
Negro 1
Í@@ 1
Bos@@ 1
6.@@ 1
regionales 1
bier@@ 1
necesit@@ 1
1900 0.6912054165091529
59 0.9716334157696124
sar@@ 1
Todo 1
predomin@@ 1
anex@@ 1
arma 1
resulta 1
divisiones 1
intenta 1
fen@@ 1
otas 1
agü@@ 1
ō@@ 1
participado 1
continúa 1
ográfica 1
Hoy 1
menciona 1
itu@@ 1
Regional 1
adquirió 1
natur@@ 1
veget@@ 1
pez 1
llevan 1
cionalmente 1
graf@@ 1
universidades 1
ús 1
edores 1
físico 1
lingü@@ 1
jó 1
bizant@@ 1
conces@@ 1
religiosas 1
institu@@ 1
comparación 1
Miss 1
constituye 1
estuvieron 1
jun@@ 1
utilizados 1
ciencias 1
unirse 1
temprana 1
puntu@@ 1
dispon@@ 1
oscuro 1
foc@@ 1
úl@@ 1
Pierre 0.5159675479895668
aeron@@ 1
pensamiento 1
celebración 1
real@@ 1
elo@@ 1
presidencial 1
hered@@ 1
aun 1
logo 1
incur@@ 1
óx@@ 1
Reina 1
culp@@ 1
encontraron 1
Especi@@ 1
rar 1
dada 1
complic@@ 1
bol 1
ecido 1
oficinas 1
expl@@ 1
Alrededor 1
Hugo 1
off 0.1849958908811187
oides 1
azón 1
ons@@ 0.7144687245187997
organismos 1
sexo 1
secreto 1
Enlaces 1
tocar 1
ejemplares 1
cen@@ 1
Honduras 1
fusion@@ 1
66 0.9585582163981765
cayó 1
playa 1
coalición 1
deos 1
consideran 1
dibu@@ 1
esfuerzo 1
Caracas 1
aldea 1
diec@@ 1
reper@@ 1
1921 0.6432988883942086
borde 1
lan 1
ador@@ 1
ólico 1
entrev@@ 1
bado 1
onio 1
olos 1
lejos 1
My 0.7883616483912536
Plat@@ 1
ócrata 1
renom@@ 1
acha 1
aband@@ 1
alizados 1
20@@ 0.7958877967563647
und 0.007977044040296997
individuales 1
espera 1
plazo 1
rusa 1
verdadero 1
famosa 1
asco 1
riqu@@ 1
Socialista 1
98 1
ão 1
XIV 1
denomina 1
capítulo 1
inn@@ 0.668678775871586
ori 1
Asturias 1
Relaciones 1
Línea 1
destacados 1
Red@@ 0.634926151966189
fabricación 1
rebotes 1
ciales 1
7.@@ 1
rac@@ 0.8651447842164051
judicial 1
laron 1
renta 1
ance 0.15063563394281637
DC 1
comida 1
Fuerzas 1
Ambos 1
SS 0.8875720350838472
Dinamarca 1
respectiv@@ 1
culas 1
debut@@ 1
Jun@@ 1
Aérea 1
eleg@@ 1
combinación 1
top@@ 1
enterr@@ 1
quiz@@ 1
difusión 1
realización 1
quinta 1
completar 1
ascend@@ 1
griega 1
ocurrió 1
icias 1
afric@@ 1
viajó 1
allón 1
tercero 1
aturas 1
ion 0.3708950880381623
pri@@ 0.8387195152630144
minuto 1
contar 1
derrotó 1
negoci@@ 1
pec@@ 1
Riv@@ 1
viento 1
duró 1
oll@@ 0.8351160492763015
laterales 1
opción 1
ame 0.578269173419107
continental 1
Gran@@ 1
existentes 1
Política 1
sonora 1
bon@@ 1
atl@@ 1
amenaza 1
Turquía 1
cripción 1
húmed@@ 1
Guardia 1
Málaga 1
Patrimonio 1
S.@@ 1
ray@@ 1
realizan 1
avance 1
Caribe 1
cubri@@ 1
United 0.09104769811164717
remon@@ 1
viajes 1
Publ@@ 1
destrucción 1
odos 1
ova 1
húng@@ 1
barrios 1
dañ@@ 1
Latina 1
disposición 1
eliminar 1
empr@@ 1
previamente 1
ventaja 1
acumul@@ 1
discurso 1
caracteriza 1
trop@@ 1
bahía 1
ocupado 1
integrantes 1
afili@@ 1
oga 1
4,@@ 1
Frank 0.7216665229187517
determinar 1
diputados 1
quem@@ 1
sencillos 1
AM 1
audi@@ 1
gó@@ 1
territorial 1
seres 1
ei 0.5257369629913251
ántica 1
gia 0.43924721887038276
otes 1
presidi@@ 1
Sem@@ 1
Víctor 1
Mark 0.5945206965579051
estudiante 1
Tom 0.8196735199629652
Jones 0.7167337369988
São 1
atorias 1
voto 1
onde 1
ligeramente 1
potencial 1
incorporó 1
aprobación 1
data 0.5878046941057634
icha 1
sal 1
Obras 1
Blanca 1
fotografía 1
ts@@ 0.29208530149369716
imperio 1
sburgo 1
Cuerpo 1
ati 0.8511694789124804
usan 1
map@@ 1
exclusivamente 1
Var@@ 1
fortaleza 1
nó 0.8525804434388063
exhib@@ 1
68 1
74 1
intern@@ 1
recuperar 1
ejecutivo 1
liger@@ 1
fom@@ 1
Med@@ 1
epí@@ 1
religiosos 1
telé@@ 1
manifest@@ 1
Ke@@ 0.6621018597055128
lidos 1
directora 1
lograron 1
ui@@ 1
Antecedentes 1
pedi@@ 1
entrenamiento 1
chos 1
cuid@@ 1
esia 1
ater@@ 1
compra 1
Monum@@ 1
Marcos 1
ins 0.15689343731841107
Iz@@ 1
Femen@@ 1
restauración 1
acor@@ 1
llamadas 1
rez 1
gru@@ 1
Cic@@ 1
Fund@@ 1
mic@@ 1
aumentar 1
AN@@ 1
exces@@ 1
empieza 1
reducir 1
Marco 1
ográficos 1
Pueblo 1
escultura 1
espacial 1
secund@@ 1
oficina 1
One 0.25302508834323223
ant 0.06650193236567464
We@@ 0.41406264710829516
ence 0.19544063601738262
pendiente 1
pago 1
superfici@@ 1
disponibles 1
dese@@ 1
hal@@ 0.4347083181814019
ibilidad 1
maron 1
Fun@@ 1
quedaron 1
lanzada 1
conoci@@ 1
ésta 1
5,@@ 1
roco 1
Adri@@ 1
busc@@ 1
ós 1
aver@@ 1
gubernam@@ 1
wood 0.40380346583167304
esposo 1
Autónoma 1
precipit@@ 1
Ed@@ 1
descubrimiento 1
fenómeno 1
habilidades 1
uca 1
Ej@@ 1
conmemor@@ 1
partida 1
comúnmente 1
Nación 1
Provincial 1
organismo 1
disco@@ 1
rig@@ 1
fur@@ 1
88 1
viejo 1
culmin@@ 1
ami 0.7920454878823099
uli@@ 1
Públ@@ 1
estratég@@ 1
pas 0.1351372226575884
érica 1
RE@@ 1
escritores 1
permiten 1
plac@@ 1
unda 1
aprovech@@ 1
tarea 1
bras 1
filas 1
juventud 1
administrativa 1
ocul@@ 1
quel@@ 1
Georgia 0.87569531182312
zó 1
agrad@@ 1
inclu@@ 1
clín@@ 1
consigue 1
convers@@ 1
ain 0.32819365191010685
UU. 1
orilla 1
personales 1
éticas 1
derrotado 1
peru@@ 1
integrado 1
moda 1
1913 0.6845971550555001
etti 0.9782927666938431
Alta 1
Ruiz 1
minas 1
ath@@ 0.38494865526628746
redon@@ 1
privado 1
océano 1
relacionadas 1
instalación 1
Valladolid 1
participa 1
izar 1
independientes 1
gel@@ 0.3534825769727109
diá@@ 1
tropicales 1
consideró 1
traducción 1
formar@@ 1
Grand 0.31449514235656945
copa 1
definitivamente 1
masculino 1
q 0.7751726290316922
tendría 1
abil@@ 1
tarse 1
orial 1
trenes 1
exclus@@ 1
verdad 1
99 0.9695238345163181
competi@@ 1
67 0.9381258127954836
Hernández 1
US 0.15497583040453483
86 0.9819661594547267
lim@@ 0.9904748841093346
ek@@ 0.2514717631967782
opu@@ 1
73 0.9556724223779993
reyes 1
cuartos 1
columna 1
ics 0.2934400010711313
A.@@ 1
solitario 1
ure 0.26114188745453704
urbana 1
fácil 1
Dirección 1
Sor@@ 1
gobiernos 1
Scott 0.788884880473528
moder@@ 1
inaugur@@ 1
Jackson 0.8833657952916585
invitado 1
descenso 1
inund@@ 1
caballo 1
Chil@@ 1
prácticas 1
publica 1
sobr@@ 1
92 1
interpretado 1
83 1
semifinales 1
licencia 1
roca 1
usuario 1
aliados 1
sul@@ 1
baile 1
declaración 1
ace@@ 1
Castell@@ 1
Frances@@ 1
Sc@@ 0.54428284803024
podemos 1
Paulo 1
descripción 1
octav@@ 1
uco 1
imagin@@ 1
vuel@@ 1
Teresa 1
capa 1
elegida 1
Flor@@ 1
L. 0.9566360385452957
anch@@ 1
emitió 1
rup@@ 1
Ale@@ 1
precis@@ 1
84 1
patrimonio 1
mide 1
enario 1
La@@ 0.7585259459311088
Pública 1
corr@@ 1
Día 1
pudieron 1
color@@ 1
prolong@@ 1
vicepresidente 1
obtiene 1
evo 1
buque 1
ejerc@@ 1
Sau@@ 1
rival 1
egip@@ 1
Disney 1
redu@@ 1
líqu@@ 1
medieval 1
coche 1
constitución 1
propuso 1
sucesor 1
explotación 1
Fran@@ 1
poemas 1
critos 1
recor@@ 1
motiv@@ 1
rico 1
Virginia 0.5453994665775184
xi@@ 1
realizadas 1
Primeros 1
Vit@@ 1
interpret@@ 1
ical 0.1909864193046778
videojuego 1
Hur@@ 1
ramas 1
castellano 1
Williams 0.7200054228607362
ái 1
aprove@@ 1
jam@@ 1
ole 0.5091096370329049
sexto 1
cruz 1
agentes 1
Solo 1
odo 1
cinta 1
mantenimiento 1
aso 1
dest@@ 1
Estad@@ 1
ider@@ 1
excep@@ 1
post@@ 0.7642346898828664
antec@@ 1
XI 1
Filipinas 1
sos@@ 1
quilla 1
pros@@ 1
pan 1
IX 1
Baja 1
Big 0.6198180765656984
fantas@@ 1
dimensiones 1
ivamente 1
ante@@ 1
Son@@ 1
Flores 1
78 1
Mun@@ 1
Times 0.6095743164280509
separación 1
seguidores 1
oniendo 1
pelea 1
bis@@ 1
nd@@ 1
a.@@ 1
inco 1
suma 1
anotó 1
mudó 1
land@@ 0.4293738457851859
edra 1
introducción 1
circuito 1
SE@@ 1
compet@@ 1
requiere 1
negó 1
Entertainment 1
tuario 1
isc@@ 1
relacionado 1
pistas 1
Cerro 1
RA@@ 1
otorgó 1
deseo 1
usi@@ 1
reos 1
supl@@ 1
recientes 1
conferencia 1
pasos 1
triun@@ 1
Hacia 1
portugués 1
responsabilidad 1
asociado 1
asistencia 1
rechaz@@ 1
Lev@@ 1
acon@@ 1
gan 1
rob@@ 1
proteger 1
amistad 1
Elecciones 1
bil 1
Tuvo 1
icul@@ 1
Plan 1
Tokio 1
Blanco 1
investigadores 1
Corona 1
bit@@ 1
hacerlo 1
doctor 1
oamérica 1
Falleció 1
adap@@ 1
als 0.024310101208107785
cierre 1
destacó 1
disputar 1
report@@ 1
71 0.9362694746074952
perten@@ 1
incap@@ 1
93 1
hac@@ 1
circun@@ 1
Cin@@ 1
ocurre 1
Guadalajara 1
actitud 1
ide 0.5582902688674901
oferta 1
fico 1
egu@@ 1
Leon@@ 1
diver@@ 1
anal@@ 1
omb@@ 1
cli@@ 1
orígenes 1
debil@@ 1
76 0.9496930839701824
Bro@@ 0.6191393182917097
Brig@@ 1
8,@@ 1
buques 1
empresario 1
inauguró 1
1911 0.6942083558372497
reas 1
amist@@ 1
otor@@ 1
Moreno 1
detalles 1
estrenada 1
ayudó 1
pre 0.7677760427816187
imperial 1
zi 1
onóm@@ 1
descubre 1
pará@@ 1
ab 0.1464483154733725
china 1
curs@@ 1
Técn@@ 1
alda 1
euros 1
alum@@ 1
ivas 1
órbita 1
combustible 1
Pach@@ 1
escapar 1
aloj@@ 1
delantero 1
pesc@@ 1
bibli@@ 1
urugu@@ 1
instrumento 1
Estatal 1
funcionarios 1
mín@@ 1
deportes 1
1916 0.7004673956699372
8.@@ 1
esor 1
ES@@ 1
hubiera 1
did@@ 1
91 1
frecuentemente 1
hol@@ 0.3820334780192295
uciones 1
Z 0.6855811932630044
Actu@@ 1
relati@@ 1
Bolívar 1
canadiense 1
espíritu 1
organ@@ 1
preser@@ 1
vá@@ 1
dificultades 1
rar@@ 1
Met@@ 1
necesidades 1
alcance 1
bieron 1
estima 1
lida 1
torneos 1
primiti@@ 1
Vega 1
explica 1
testimon@@ 1
teatral 1
modernos 1
zo@@ 1
bordo 1
libres 1
eclesi@@ 1
250 0.9808440870270161
decidieron 1
Fal@@ 1
Secretario 1
cil@@ 1
juvenil 1
migración 1
candidatos 1
belleza 1
ys@@ 0.490356091931688
69 0.9665155686636835
oya 1
Final 0.9396227748511693
ques@@ 1
Bern@@ 1
colombiano 1
primaria 1
pedido 1
ilumin@@ 1
61 0.9318521809393002
profes@@ 1
VIII 1
debían 1
roja 1
gadas 1
Equi@@ 1
entación 1
Igu@@ 1
refugi@@ 1
entra 1
1915 0.6713029059526242
ali 0.6761128794612622
alis 1
ul 0.9282082100767289
ung 0.07898919715775612
femin@@ 1
rap@@ 0.640442634699191
exter@@ 1
manus@@ 1
est 0.01376626280099423
inaugurado 1
registros 1
Vis@@ 1
ritmo 1
mero 1
ander@@ 1
hectáreas 1
turismo 1
Gre@@ 0.600976144507428
personalidad 1
alcanza 1
colonial 1
09 1
intr@@ 1
fueran 1
aprobó 1
tono 1
quier@@ 1
fácilmente 1
profesora 1
beb@@ 1
zada 1
avenida 1
edr@@ 1
Puente 1
sale 1
77 0.9593133487847701
estilos 1
Atenas 1
ánicos 1
Burgos 1
páginas 1
tareas 1
banco 1
Lleg@@ 1
ampa 1
evit@@ 1
ung@@ 0.3531335469284432
Señor 1
azgo 1
ofreció 1
Hall 0.3561419515174386
tari@@ 1
hisp@@ 1
Tem@@ 1
imas 1
esía 1
I. 0.5210761038139818
SA 0.9144750988307675
duda 1
Hen@@ 1
cuart@@ 1
ingeniería 1
cristiana 1
House 0.22612906147931489
bera 1
autónoma 1
ocasion@@ 1
Jefe 1
explot@@ 1
decoración 1
let@@ 0.9872961009574116
cip@@ 1
ásico 1
izquierdo 1
pertenecientes 1
AC 0.8152356111519786
nuestra 1
Max 0.8115214598731689
Cá@@ 1
desemboc@@ 1
áceas 1
brasil@@ 1
podr@@ 1
confianza 1
ferrovi@@ 1
96 0.9878546942347083
bí@@ 1
mensaje 1
Mariano 1
tel 0.697162799451741
cementerio 1
sti@@ 0.4938820499942745
taria 1
Año 1
conflictos 1
06 1
transición 1
ish@@ 0.48739991725113385
cuyas 1
acompañado 1
artís@@ 1
m. 1
botánico 1
debate 1
Años 1
parec@@ 1
Decreto 1
Roc@@ 1
prisioneros 1
sucedió 1
Murcia 1
patrón 1
aki 1
etta 1
line@@ 1
reconocida 1
literaria 1
Aqu@@ 1
cifr@@ 1
máquina 1
him@@ 1
inde@@ 1
ográficas 1
producen 1
enter@@ 1
ation 0.03380969820160478
artillería 1
probar 1
raíces 1
exposiciones 1
resc@@ 1
Pos@@ 1
Recepción 1
sat@@ 1
constitucional 1
obligado 1
ebra 1
IC@@ 1
Hollywood 1
Sir@@ 1
aceptó 1
representar 1
define 1
reglas 1
pese 1
aquia 1
Comunista 1
Ph@@ 0.42041604074429395
Bru@@ 0.8956212214009194
Form@@ 1
sc@@ 0.32616800101276017
sesión 1
Bir@@ 0.71998216589977
proxim@@ 1
ilar 1
esco 1
Ant@@ 1
campañas 1
Bad@@ 1
consideraba 1
č@@ 0.6704189192900221
Nat@@ 1
Ham@@ 0.6876158934651165
Cádiz 1
Alem@@ 1
surgió 1
temperaturas 1
submar@@ 1
guerras 1
ann@@ 0.3776866197458538
tác@@ 1
var 1
rati@@ 0.8597502280907565
Mod@@ 1
arca 1
rica 1
pais@@ 1
Young 0.6740356185114865
Et@@ 0.9155832473851649
españolas 1
Clasificación 1
compens@@ 1
creciente 1
Policía 1
tío 1
destinado 1
princesa 1
Deportes 1
flujo 1
cay@@ 1
abog@@ 1
peruano 1
brasileño 1
enfoque 1
Zona 1
Hy@@ 0.7334837522684525
reducción 1
nuestro 1
89 0.9870920840953882
Center 0.3584348486981432
dial@@ 1
vul@@ 1
condi@@ 1
señal@@ 1
Hist@@ 1
permitir 1
pedir 1
emo@@ 1
cular 1
Vasco 1
Derechos 1
casado 1
human@@ 1
Nic@@ 1
abarca 1
yl@@ 0.3388268730438228
fortal@@ 1
teles 1
Príncipe 1
aniversario 1
aten@@ 1
ítica 1
dirige 1
factor 1
cinemat@@ 1
izada 1
reclut@@ 1
Sac@@ 1
inmedi@@ 1
liz@@ 1
doctr@@ 1
ky 0.5578816826585422
08 1
Salamanca 1
cocina 1
videojuegos 1
apl@@ 1
emigr@@ 1
emisión 1
ett 0.48029670642365585
agres@@ 1
acog@@ 1
lateral 1
97 1
ariz@@ 1
colon@@ 1
Pic@@ 1
residentes 1
órico 1
vendió 1
Sí@@ 1
asentamiento 1
debería 1
recol@@ 1
Sand@@ 0.7586668768955079
otoño 1
senador 1
ahu@@ 1
Alexander 0.5311312188708238
adul@@ 1
cios 1
esclavos 1
aceler@@ 1
idiomas 1
democrá@@ 1
ie@@ 0.4527316132204936
ple 1
refu@@ 1
itado 1
rápida 1
pagar 1
ADN 1
ort@@ 1
adicionales 1
chilena 1
rat@@ 1
ut 0.44662308501801595
1908 0.6754847566088369
casco 1
coro 1
montañ@@ 1
recog@@ 1
uelta 1
compone 1
Milán 1
ats 0.2585780635300191
ha@@ 0.5086395659561455
Joe 0.7826417399756181
Libro 1
testig@@ 1
AS 1
kin 0.6930942942754618
acontecimientos 1
cometi@@ 1
enciado 1
académ@@ 1
virus 1
discu@@ 1
titul@@ 1
In 0.01453936803695258
magnitud 1
Sinopsis 1
recinto 1
Calle 1
anto 1
jar@@ 1
agrícola 1
secciones 1
crom@@ 1
producciones 1
lin 0.60685546885404
ámico 1
81 0.9534758508536502
On@@ 1
inteligencia 1
fos@@ 1
Wal@@ 0.4680308188911179
79 0.996783579532693
trabajado 1
Ran@@ 0.7789004025561569
iller 1
stein 0.42338306990255087
veng@@ 1
gica 1
agn@@ 0.980114444317609
neerland@@ 1
introdujo 1
1905 0.648063780566249
caja 1
petición 1
usó 1
Salón 1
extra@@ 1
mari@@ 1
N.@@ 1
hin@@ 0.6684084793666304
ogr@@ 1
suger@@ 1
igualmente 1
asistió 1
nar@@ 1
Chris 0.8984031659633176
caballos 1
sierra 1
candidatura 1
eas 1
industri@@ 1
94 1
existente 1
eléctr@@ 1
Guinea 1
Live 0.8214369278711307
olas 1
ómica 1
Carr@@ 1
divor@@ 1
prol@@ 1
Walter 0.7386618375301921
It 0.03544280590341079
niña 1
tempr@@ 1
cañones 1
ister@@ 1
naves 1
fono 1
pes 0.8933552984914095
Rel@@ 1
prést@@ 1
fruto 1
s. 1
inversión 1
pera 1
cañón 1
recuperación 1
87 0.9980769053369857
82 1
integración 1
H. 0.6907898814449526
tecn@@ 1
White 0.4187754179527431
propietario 1
Ford 0.9534418123630792
influencias 1
endía 1
pudiera 1
ayuntamiento 1
orias 1
Producción 1
Boston 0.6329105301584212
ER@@ 1
techo 1
estancia 1
sch@@ 0.10525336544562658
ry 0.3408587673690994
surg@@ 1
Vo@@ 0.7740565586707482
ocupar 1
mati@@ 1
estrech@@ 1
cielo 1
elia 1
jado 1
solicit@@ 1
Gl@@ 0.616906597092646
triz 1
Top 0.6651877524412294
confun@@ 1
ps 0.2776658203994127
mov@@ 1
Hábitat 1
gico 1
quisición 1
umen 1
habiendo 1
trató 1
Puebla 1
paredes 1
rocas 1
cincuenta 1
rebeldes 1
huy@@ 1
Augusto 1
rutas 1
calor 1
médicos 1
hecha 1
Pri@@ 0.9791646553722828
lesión 1
volúmenes 1
ogen@@ 1
reemplazado 1
Gracias 1
jurisdicción 1
UU 1
02 1
atacar 1
yn@@ 0.5340020647688098
Contr@@ 1
moral 1
eador 1
Hot 0.9789165757995607
punta 1
abri@@ 1
eves 1
Entonces 1
liberación 1
tampoco 1
fortific@@ 1
domés@@ 1
lanza 1
temporal 1
indios 1
vegetación 1
Alfredo 1
Oli@@ 1
disminu@@ 1
sust@@ 1
Fe@@ 0.4945239770290728
quince 1
onom@@ 1
Tak@@ 0.7317512387192437
gn@@ 1
iner@@ 1
llevaba 1
Colonia 1
yeron 1
Cortes 1
canto 1
igos 1
promover 1
mueb@@ 1
concej@@ 1
acceder 1
ini@@ 1
buenas 1
modalidad 1
polí@@ 1
sever@@ 1
composit@@ 1
notables 1
ocol@@ 1
estrategia 1
intentos 1
promo@@ 1
aparecer 1
universo 1
asi 1
reformas 1
hotel 1
asta 1
controlar 1
alguien 1
Din@@ 1
regresa 1
legi@@ 1
sacer@@ 1
Todas 1
Johnson 0.6471794526340783
ejerció 1
matar 1
acero 1
US@@ 0.5681023413286626
Debutó 1
yr@@ 0.5785333252993186
poseen 1
pisos 1
Esteban 1
ropa 1
causas 1
nadie 1
específicamente 1
Venecia 1
íferos 1
Hijo 1
manifi@@ 1
Comercio 1
Jar@@ 1
Jose 1
trataba 1
ernos 1
Sudamérica 1
ances 0.3801264143237497
naciones 1
celebrado 1
mercados 1
Naci@@ 1
Servicios 1
Pa@@ 0.8468551365007265
productores 1
proven@@ 1
Football 0.38320932562290444
carriles 1
rano 1
creció 1
nombrada 1
Jerusalén 1
estando 1
opa 1
llegan 1
mesa 1
erio 1
cuentan 1
jazz 1
equivalente 1
nace 1
perí@@ 1
daba 1
abrevi@@ 1
ud 1
Econ@@ 1
musulmanes 1
pró@@ 1
Edward 0.5355712168966894
impresion@@ 1
esclav@@ 1
carbono 1
filó@@ 1
Peri@@ 1
descubr@@ 1
disol@@ 1
dirigir 1
ecciones 1
grabaciones 1
Team 0.3927899459114571
ok 0.6052391785547989
Clar@@ 1
ciento 1
estren@@ 1
hur@@ 0.9329057446705202
aparec@@ 1
Buc@@ 1
01 1
ain@@ 0.4221509184158291
numer@@ 1
retras@@ 1
desaparición 1
mala 1
poema 1
OS 0.9531387561918164
reparto 1
catalán 1
Paral@@ 1
Natur@@ 0.848767268410978
AD@@ 1
paisaje 1
xa 1
considerar 1
Ríos 1
diales 1
Trabajo 1
apellido 1
grabar 1
Cristóbal 1
ímetros 1
tant@@ 1
umbral 1
áneos 1
libre@@ 1
tela 1
cárcel 1
uk@@ 0.44192784309015004
alternativa 1
Lucas 1
lem@@ 1
tiro 1
C.@@ 1
toneladas 1
fiscal 1
historiadores 1
rebelión 1
error 1
étr@@ 1
ecía 1
Vietnam 1
normas 1
presidenta 1
áneamente 1
ee 0.3357416369579923
mite 1
Arturo 1
gratu@@ 1
Som@@ 1
Gales 1
comprende 1
comenzar 1
interpretar 1
profun@@ 1
ington 0.5434612877830325
AM@@ 1
bes 0.8781817156338002
ánicas 1
fórmula 1
Bul@@ 0.8137822794812629
mencionado 1
ometr@@ 1
Lig@@ 1
Rojo 1
03 1
obtenido 1
ílica 1
Lug@@ 1
Hil@@ 0.8023267436117059
PC 0.978320906970079
luchar 1
calcul@@ 1
amba 1
contamin@@ 1
Familia 1
Les 0.07188357640769845
revela 1
proteínas 1
corred@@ 1
estric@@ 1
manga 1
cuadrados 1
cubr@@ 1
Show 0.734476619257313
negros 1
Murió 1
Medicina 1
voluntad 1
Pod@@ 1
democracia 1
dici@@ 1
emia 1
ofici@@ 1
.com 1
dúo 1
millas 1
graves 1
nota 1
preparación 1
anal 1
Marie 0.46780049928163836
05 1
entidades 1
escritora 1
Ferrocarril 1
eces 1
igualdad 1
he 0.01761908820510336
bilidad 1
próximo 1
asistente 1
list@@ 1
Conde 1
Fox 0.9557694948282847
mez@@ 1
incluir 1
variedades 1
Blo@@ 1
morir 1
Perten@@ 1
cí@@ 1
secuencia 1
berg@@ 1
9,@@ 1
hipótesis 1
simult@@ 1
uerta 1
dividido 1
etr@@ 1
tomando 1
Orquesta 1
Cuatro 1
admir@@ 1
útil 1
rebel@@ 1
hos@@ 1
juz@@ 1
sueño 1
1906 0.6749969708816037
Columbia 0.6615117212490071
teatr@@ 1
atriz 1
oy 1
1909 0.6941673089352267
Gab@@ 1
lio 1
Gustavo 1
realizados 1
.C. 1
salas 1
visi@@ 1
… 0.34833919291762017
nuclear 1
drama 0.7882084906080326
boca 1
árabes 1
ector 1
Emilio 1
alle 0.31693745222648445
Bahía 1
TV@@ 1
nacida 1
compromiso 1
marcas 1
arena 1
ise 0.14157308455062048
Rev@@ 0.8789475353190219
uj@@ 1
endémica 1
Gro@@ 0.7333064976478477
tarj@@ 1
voces 1
compuestos 1
volver@@ 1
Kat@@ 0.5588114760328275
tensión 1
apariencia 1
archivos 1
expedi@@ 1
destruy@@ 1
pesca 1
ejercicio 1
claramente 1
meridi@@ 1
fundadores 1
way 0.12428513109103322
Gas@@ 1
Universal 1
conocen 1
reveló 1
acas 1
Hill 0.4624453267475154
inclus@@ 1
rescat@@ 1
encarcel@@ 1
telenovela 1
hun@@ 1
ecos 1
Fron@@ 1
retirarse 1
CI@@ 1
renac@@ 1
1907 0.6625720930292196
dolor 1
Raúl 1
Profesional 1
renuncia 1
ev 0.7716299914466339
unto 1
definitiva 1
TA 1
ley@@ 1
Campeones 1
comprometi@@ 1
Pun@@ 1
periódicos 1
frecuente 1
mostrar 1
representado 1
ika 0.7221854872832404
DE@@ 1
zu@@ 0.4984163421374625
derrotar 1
plas@@ 1
embajador 1
liberal 1
sustituy@@ 1
Gutiérrez 1
descubier@@ 1
opon@@ 1
Mediterráneo 1
polic@@ 1
ró@@ 1
Gim@@ 1
well 0.08052629323368178
minister@@ 1
colombi@@ 1
convirtieron 1
endiendo 1
honor@@ 1
materi@@ 1
set@@ 1
álogo 1
versi@@ 1
glob@@ 1
doctorado 1
supone 1
Interior 1
arzobispo 1
mb@@ 1
ítimo 1
Irán 1
pilotos 1
recibieron 1
Nom@@ 1
mica 1
teras 1
publicados 1
amentos 1
salvo 1
Dic@@ 1
depende 1
Polí@@ 1
construc@@ 1
sky 0.606276621553158
Div@@ 1
gus@@ 1
exilio 1
encargó 1
rus@@ 1
tripulación 1
udos 1
Sergio 1
tarios 1
º@@ 1
cav@@ 1
erra 1
mínimo 1
Argentino 1
sugiere 1
Finlandia 1
fron@@ 1
Pro 0.9393785999196317
obo 1
ibles 1
usu@@ 1
tidos 1
ling 0.23740252799270994
clientes 1
gios 1
relato 1
equilibrio 1
eren 0.34374184037424194
descendientes 1
Tanto 1
costas 1
itan 1
admi@@ 1
Ben 0.9203881205796528
pula 1
logrado 1
limpi@@ 1
herramientas 1
dibujos 1
prest@@ 1
agrupación 1
tiendas 1
arro 1
aprendizaje 1
esis 1
café 1
enlace 1
impuestos 1
domingo 1
defensi@@ 1
Windows 0.8932098373597248
Tran@@ 1
nat@@ 1
tormenta 1
astronomía 1
cinturón 1
eltas 1
hijas 1
els 0.13754869926227578
Campe@@ 1
cuarenta 1
trama 1
Mul@@ 0.752487943050714
Silva 1
vendido 1
noticia 1
renunci@@ 1
tif@@ 1
extraordin@@ 1
taría 1
Metro 1
introdu@@ 1
pad@@ 1
Anna 0.7624391099381038
alizadas 1
atur@@ 1
impul@@ 1
editado 1
inmigrantes 1
alrededores 1
lada 1
hospit@@ 1
Township 0.8535753985741115
greso 1
Grandes 1
adicional 1
empleado 1
estrecho 1
comunas 1
Merc@@ 1
perdiendo 1
Bernardo 1
Prom@@ 1
Emp@@ 1
estatus 1
Haw@@ 1
letas 1
entista 1
onas 1
Democrática 1
My@@ 0.7349596213173403
holand@@ 1
Den@@ 0.8627433061736627
apia 1
abuelo 1
adolesc@@ 1
asalto 1
respet@@ 1
evas 1
Human@@ 1
1904 0.6812838502383652
claus@@ 1
cion 1
gana 1
jornada 1
vapor 1
plane@@ 1
ólica 1
moneda 1
disfrut@@ 1
empezaron 1
escar@@ 1
mayorit@@ 1
climá@@ 1
suerte 1
ónomo 1
9.@@ 1
cog@@ 1
Secretaría 1
AP@@ 0.975391784812503
yentes 1
reunió 1
Exteriores 1
Illinois 0.6743480613579422
integró 1
ojo 1
Diput@@ 1
reproduc@@ 1
onios 1
ash 0.6623562110130251
afluente 1
ille 0.3941709518977503
académico 1
millón 1
visitantes 1
cac@@ 1
ientes 1
queo 1
continua 1
Peña 1
avia 1
University 0.0721315991405389
04 1
aquellas 1
Profes@@ 1
caballería 1
ves 0.24162057876798995
terrestre 1
tomado 1
salto 1
abiliz@@ 1
trá@@ 1
Sus@@ 1
coinci@@ 1
establecieron 1
italianos 1
ósitos 1
fuese 1
pudiendo 1
Mike 0.7880620905755084
interpretada 1
intérpre@@ 1
adrón 1
instituto 1
trof@@ 1
gri@@ 1
Dol@@ 0.8059115573570748
electrónica 1
Bob 0.8431094146794307
prof@@ 0.7446807977524709
Albert 0.6081407708838046
ré@@ 0.1396900274362889
ardia 1
erios 1
1890 0.7821964057385402
River 0.18462622577457535
Hon@@ 0.7980513607893803
inda 1
Janeiro 1
fuertemente 1
revis@@ 1
arcos 1
nico 1
costo 1
estabilidad 1
Sala 1
itz 0.45371347971176645
Ly@@ 0.6258640158660711
Rodrigo 1
venir 1
hogares 1
ectura 1
colecciones 1
discográfica 1
Wilson 0.777640650851873
heridos 1
dobl@@ 1
Maz@@ 1
recuerda 1
apariciones 1
estatua 1
IS@@ 0.8022765669446482
integrada 1
abol@@ 1
causó 1
elegir 1
décimo 1
Referencias 1
Band@@ 1
ándola 1
ary 0.11275002612196272
Bilbao 1
rab@@ 1
ús@@ 1
danza 1
creando 1
rompi@@ 1
compil@@ 1
Eur@@ 1
Jiménez 1
incendio 1
anillo 1
intercambio 1
isbol 1
taller 1
Cabo 1
ij@@ 1
vor@@ 0.16927100208974097
dispositivos 1
ministr@@ 1
monedas 1
decisiones 1
crist@@ 1
cál@@ 1
Time 0.6969967066327447
próxim@@ 1
verdadera 1
Ramírez 1
organizar 1
negociaciones 1
brillante 1
ill 0.3950585352824041
Rivera 1
calendario 1
soporte 1
teza 1
Santander 1
ital 1
terminal 1
semillas 1
Confederación 1
Arquitectura 1
murieron 1
Op@@ 0.5816573218633327
brado 1
anti 0.42421373855491185
enterrado 1
tradiciones 1
restantes 1
reloj 1
Design@@ 1
demand@@ 1
requis@@ 1
contienen 1
colonias 1
Origin@@ 1
Mich@@ 1
enio 1
inmediato 1
fallecido 1
proporciona 1
capaces 1
paron 1
sexuales 1
die 0.0073809608119164
700 0.9412586269669857
Ante 1
tieron 1
Oscar 1
auxili@@ 1
sic@@ 1
éndole 1
alma 1
existía 1
realizando 1
cambia 1
instaló 1
esen 0.8816582847667038
Nacido 1
Represent@@ 1
Gobernador 1
reú@@ 1
Jugó 1
alberga 1
satisfac@@ 1
120 0.8560437210383258
tili@@ 1
evolucion@@ 1
tumba 1
Pensilvania 1
darse 1
Audi@@ 1
perspectiva 1
cho@@ 0.7869849635994487
uga 1
Christian 0.31385896737700525
comité 1
rol@@ 1
Operación 1
gem@@ 0.6452343194932383
tribu 1
apoyar 1
las@@ 1
mani@@ 1
conferencias 1
igan 1
st 0.22236428565872937
colaboró 1
Miami 1
vigil@@ 1
acred@@ 1
servir 1
fre@@ 0.3671229945167112
Conferencia 1
tol@@ 1
Cad@@ 1
Morfología 1
infantería 1
ésim@@ 1
inver@@ 1
derri@@ 1
Español 1
observar 1
presupuesto 1
procedentes 1
terr@@ 1
cro@@ 0.4608420172112538
gris 1
Wrestling 1
sk@@ 0.2504170908596621
Kim 0.8787879381009907
eléctrico 1
Verde 1
embaj@@ 1
1903 0.7010108703162793
lis 0.7188054793091347
físicas 1
construyeron 1
Unidad 1
escultor 1
G. 0.8285851947753844
racia 1
cional@@ 1
Art 0.23968275261196406
inger 0.3972620944423365
centrales 1
Joan 1
PS@@ 1
torres 1
tada 1
Capitán 1
aéreo 1
habilidad 1
norm@@ 1
rió 1
dispositivo 1
Croacia 1
Siria 1
cami@@ 1
occidentales 1
Libertad 1
Tony 0.9340036491878897
brig@@ 1
vivientes 1
aum@@ 1
solista 1
Kur@@ 0.400685528152186
Padre 1
cuello 1
mecanismo 1
rostr@@ 1
Marruecos 1
autonomía 1
clara 1
adir 1
ional 1
Gil@@ 0.9319468825253422
ney 0.5229600465799631
ortodo@@ 1
desa 1
Kal@@ 0.45984878835286924
escribe 1
Arthur 0.6181076166811318
puedan 1
Cent@@ 1
Catalina 1
héroe 1
Card@@ 1
Tai@@ 1
ow@@ 0.27930291234746385
demu@@ 1
Arg@@ 1
ity 0.09317970455107963
óstico 1
FA 0.7552426682112566
Recon@@ 1
argent@@ 1
metál@@ 1
ecen 1
Astr@@ 1
petróleo 1
sobres@@ 1
óric@@ 1
acionales 1
frase 1
Pese 1
ció 1
Life 0.40574516805668304
ueras 1
empu@@ 1
Herrera 1
huevos 1
Población 1
Transporte 1
pared 1
tún@@ 1
mejora 1
república 1
tradu@@ 1
Nicaragua 1
olvid@@ 1
habr@@ 1
ucran@@ 1
Bay@@ 0.7482402670401864
puest@@ 1
señaló 1
Cro@@ 0.6237145617411096
BBC 0.6081698300166127
ist 0.019493484210703536
socialista 1
gul@@ 1
regimiento 1
teo 1
firmado 1
moviliz@@ 1
alan@@ 1
ofensiva 1
ick@@ 0.3036646564783523
soviético 1
abe 0.9769717035480481
largas 1
variante 1
cubier@@ 1
pesos 1
europeas 1
occ@@ 1
Hern@@ 1
aspir@@ 1
oportunidades 1
AT@@ 0.805855101962232
arina 1
nde 1
ísmo 1
Formación 1
departamentos 1
Siglo 1
parcialmente 1
War@@ 0.4107429825653851
aka 0.7022719431615629
Brian 1
franc@@ 1
UEFA 1
brazo 1
limitada 1
Parti@@ 1
absor@@ 1
bien@@ 1
ho 1
Person@@ 1
fracaso 1
defender 1
predic@@ 1
XXI 1
individuo 1
Gregorio 1
carr@@ 1
lectura 1
habitación 1
japoneses 1
chica 1
sia 1
ator 0.17352916066745963
agón 1
máquinas 1
vocalista 1
ass@@ 0.1529358232640798
Lav@@ 1
noctur@@ 1
uv@@ 0.9172638966376391
Zamora 1
tribut@@ 1
supuso 1
Filosofía 1
usada 1
huel@@ 1
riqueza 1
Hitler 1
Peñ@@ 1
elaboración 1
nam@@ 0.5930670020560146
Steve 0.816624686629619
recorr@@ 1
Valenci@@ 1
ingleses 1
tiendo 1
tomaron 1
descend@@ 1
tram@@ 1
señala 1
conservan 1
compró 1
iana 1
agencia 1
trato 1
diseños 1
dependiendo 1
tric@@ 1
caminos 1
competiciones 1
esca 1
oti@@ 1
regulares 1
partió 1
cordillera 1
localizado 1
put@@ 1
volvieron 1
paqu@@ 1
tidae 1
anga 1
Na@@ 0.8320245264590067
tamen 1
aparte 1
Ev@@ 1
vuelos 1
igió 1
ax 0.9910965503352889
mandad 1
comi@@ 1
Asunción 1
1902 0.6881539909999973
clas@@ 1
propi@@ 1
maestros 1
clásicos 1
07 1
Bill 0.5983100699426523
Kir@@ 0.775385995349669
trib@@ 1
Jor@@ 1
siglas 1
versos 1
votación 1
cantidades 1
molé@@ 1
IM@@ 1
convirti@@ 1
noble 1
Regimiento 1
orn@@ 1
descendi@@ 1
Harry 0.8169743026342511
produ@@ 1
ulos 1
latino 1
veda 1
otorgado 1
aventura 1
quita 1
concedió 1
parecer 1
monum@@ 1
benef@@ 1
dividida 1
sost@@ 1
Mujeres 1
disciplina 1
Bri@@ 0.8029656411489174
organizada 1
postul@@ 1
duras 1
informes 1
tribus 1
Ohio 0.5754110539099223
cerámica 1
restric@@ 1
asisti@@ 1
Bautista 1
polis 1
Territ@@ 1
completó 1
mpicos 1
encontrarse 1
Programa 1
1880 0.8318146365113938
situaciones 1
Ár@@ 1
aérea 1
Fueron 1
struc@@ 1
Ken@@ 1
estable 1
piedras 1
Latinoamérica 1
Investig@@ 1
polici@@ 1
correspond@@ 1
Mi 1
Guerrero 1
frío 1
nativos 1
resul@@ 1
Pad@@ 1
aceite 1
dispone 1
marcado 1
vidas 1
ilia 1
fallecimiento 1
Dev@@ 0.6007186623262462
círculo 1
umbr@@ 1
Us@@ 1
exili@@ 1
complement@@ 1
Dich@@ 1
placa 1
herencia 1
Kong 0.6869098353300671
Independiente 1
esperanza 1
egos 1
campeonatos 1
art@@ 0.6417434244915415
indígena 1
iniciar 1
afec@@ 1
halla 1
muros 1
seguro 1
gada 1
universal 1
uvo 1
kar@@ 0.4656063743865186
Libre 1
Imperial 1
determinado 1
fotografías 1
ísima 1
Cañ@@ 1
benefici@@ 1
bos@@ 1
fauna 1
Sá@@ 1
ejecu@@ 1
necesaria 1
Carl 0.6329888434089035
itarios 1
competir 1
apel@@ 1
serán 1
Colón 1
jardines 1
torales 1
hermanas 1
Ga@@ 0.9426189682862156
perci@@ 1
High 0.22352080326292728
Princip@@ 1
circunstancias 1
ze@@ 0.4138577824844092
ais 0.437325568637423
propu@@ 1
cilindr@@ 1
Checa 1
Q 0.6759592588501934
daño 1
polaco 1
andia 1
Vas@@ 1
ómico 1
orillas 1
genérico 1
Supremo 1
seleccionado 1
tot@@ 0.9365033191703392
sagr@@ 1
parecen 1
formal 1
retrato 1
manej@@ 1
perfec@@ 1
ruedas 1
variable 1
estatales 1
protestas 1
vender 1
elevado 1
laz@@ 1
Mak@@ 0.6575629962250648
Mercedes 1
fos 1
sepul@@ 1
vienen 1
sufrag@@ 1
considerable 1
alimentación 1
ocampista 1
corri@@ 1
ier 0.2978357171297784
selec@@ 1
culturas 1
capítulos 1
precios 1
griegos 1
portuguesa 1
filme 1
flora 1
interrump@@ 1
hier@@ 1
Sav@@ 0.6818544099000922
bajos 1
ik 0.3439948107462419
referencias 1
nucle@@ 1
auto 1
Produc@@ 1
superar 1
Félix 1
conciencia 1
animación 1
asis 1
católico 1
Tes@@ 1
patio 1
tard@@ 1
nú@@ 1
tas@@ 0.9941999365247335
sson 1
emblem@@ 1
Mach@@ 1
Morales 1
Turismo 1
icación 1
cuentos 1
recre@@ 1
Top@@ 1
Antár@@ 1
ster@@ 0.4218347500772999
Pil@@ 0.8340477493623167
ím@@ 1
ocic@@ 1
atrap@@ 1
Quin@@ 1
Mill@@ 1
profund@@ 1
éndez 1
pena 1
Laur@@ 1
timos 1
bloque 1
Inicialmente 1
productora 1
cerro 1
suprim@@ 1
― 1
administrativo 1
mer 0.22373659141932467
ótica 1
nervi@@ 1
largos 1
eliminado 1
interpre@@ 1
jurado 1
hubi@@ 1
Papa 1
landia 1
veter@@ 1
zado 1
Activ@@ 1
oner 1
quiera 1
separado 1
candid@@ 1
fijo 1
ign@@ 0.40264782979094454
intentar 1
inscripción 1
depresión 1
saga 1
notas 1
Óscar 1
lej@@ 1
asen 1
Observatorio 1
telef@@ 1
infraestructura 1
Taylor 0.7296217394810047
flam@@ 1
implica 1
exfutbolista 1
rusos 1
Ferr@@ 1
consecuencias 1
exitosa 1
justific@@ 1
rurales 1
apropi@@ 1
embarc@@ 1
pist@@ 1
Vall@@ 1
ope 1
teorías 1
dicas 1
empe@@ 1
alos 1
adu@@ 1
Green 0.4883596058969355
Álvaro 1
cuidado 1
pudi@@ 1
Racing 1
Kor@@ 0.43710727017753537
cultivos 1
Air 0.2596339996497383
gui@@ 1
Fab@@ 1
guionista 1
plum@@ 1
especialista 1
1898 0.7214848752834392
Hotel 0.8705388010847701
secuestr@@ 1
abast@@ 1
tividad 1
rasgos 1
Fórmula 1
Karl 0.432674009067707
dotes 1
melod@@ 1
contempl@@ 1
igen 0.2225069677316381
lares 1
compañ@@ 1
desembar@@ 1
adra 1
tribu@@ 1
Situ@@ 1
Andes 1
Apertura 1
Dominicana 1
particulares 1
trav@@ 0.5678814728087446
resolver 1
transformación 1
víctima 1
ki@@ 0.42484694806522233
suel@@ 1
comentó 1
haberse 1
vial 1
Palma 1
pleno 1
box@@ 1
frac@@ 1
parejas 1
quedan 1
Af@@ 1
partículas 1
emin@@ 1
profesores 1
marcador 1
Nú@@ 1
judía 1
índice 1
North 0.1324480690525885
Je@@ 0.5334584976961453
construcciones 1
vivían 1
Romero 1
acios 1
incendi@@ 1
gestion@@ 1
dejado 1
arbus@@ 1
dirse 1
edific@@ 1
edentes 1
sublev@@ 1
marqués 1
considerados 1
mezcl@@ 1
ígeno 1
subterrá@@ 1
arquit@@ 1
seno 1
pér@@ 1
Han@@ 0.5538590748299203
desambiguación 1
valor@@ 1
Adi@@ 1
automóvil 1
filial 1
eccion@@ 1
Society 0.29256690495864546
femen@@ 1
cámaras 1
concluyó 1
detall@@ 1
catedr@@ 1
ref@@ 0.6427953841767403
bloque@@ 1
Llan@@ 1
1870 0.7567380532820286
dades 1
Segundo 1
camis@@ 1
ventanas 1
Hay@@ 0.8075374161419878
sey 0.6149407484425545
Ernesto 1
atorios 1
Temporada 1
adver@@ 1
jus@@ 1
Ib@@ 1
Kaz@@ 1
Rein@@ 1
intelig@@ 1
Viz@@ 1
pendi@@ 1
duro 1
ebre 1
miner@@ 1
incidente 1
ensayos 1
orientación 1
manif@@ 1
gama 1
inca 1
ordin@@ 1
Nápoles 1
diente 1
jo@@ 0.882779583750978
tér@@ 1
hi 0.72226233926134
ífer@@ 1
Habana 1
Pur@@ 0.829713194412805
permitía 1
vie@@ 1
Der@@ 0.6820354982720312
ísimo 1
Alc@@ 1
confes@@ 1
cima 1
conspir@@ 1
riv@@ 1
heb@@ 1
caer 1
crí@@ 1
gieron 1
bert 0.5861377739387645
circul@@ 1
alu@@ 1
Aur@@ 1
Muerte 1
representada 1
pología 1
gim@@ 1
ruinas 1
qui 0.03081654995758822
profunda 1
sucesión 1
fichó 1
acusado 1
aden@@ 1
vivienda 1
catalog@@ 1
ril@@ 1
ularidad 1
vencer 1
Gin@@ 1
Medina 1
gest@@ 0.45864961083857236
beneficios 1
ísica 1
ignor@@ 1
lis@@ 1
Fo@@ 0.6267602425659177
rechazó 1
FI@@ 1
ges@@ 0.24863979482974347
prestigi@@ 1
anismo 1
alber@@ 1
desper@@ 1
tión 1
proyect@@ 1
Existe 1
tando 1
Muchas 1
ileg@@ 1
exist@@ 1
comunista 1
Canarias 1
ami@@ 0.8799277307683805
our 0.21972918986261986
privadas 1
exc@@ 1
burg 0.3444190256769874
dicos 1
cribió 1
atar 1
laboratorio 1
iéndose 1
publicar 1
retiro 1
ceros 1
Conserv@@ 1
céle@@ 1
predec@@ 1
Oper@@ 0.9542898302547456
demol@@ 1
ométr@@ 1
Asuntos 1
semej@@ 1
Aran@@ 1
presidenciales 1
lanzar 1
AL@@ 1
Trinidad 1
ih@@ 0.6645155854635275
matemáticas 1
legado 1
bacteri@@ 1
Kan@@ 0.4681644702628787
crearon 1
prometi@@ 1
tut@@ 1
abell@@ 1
parcial 1
vuelto 1
Avi@@ 1
ablo 1
Blue 0.576943360692558
acabar 1
Bé@@ 1
enfrentamiento 1
tad@@ 1
vín@@ 1
Island 0.27950453151544224
ninguno 1
ejércitos 1
vivía 1
decim@@ 1
sueco 1
sesiones 1
COVID 0.8109911984819038
eliminación 1
imia 1
cinematográfica 1
interno 1
long@@ 1
acuerdos 1
mol 1
Magdalena 1
Pak@@ 1
reuniones 1
intend@@ 1
atravi@@ 1
persecución 1
blancas 1
Tenía 1
quir@@ 1
estal 1
America 0.23578934698070397
jeros 1
1901 0.638802043610678
docente 1
pertenecía 1
Hacienda 1
Lib@@ 1
pár@@ 1
séptimo 1
muestras 1
iban 1
específico 1
Ep@@ 1
secundarios 1
dioses 1
proporcionar 1
plazas 1
liderazgo 1
argumento 1
reconstrucción 1
universitario 1
Sinf@@ 1
larg@@ 1
fasc@@ 1
Au@@ 0.5839628123146127
supervis@@ 1
Roger 0.889052821966394
promov@@ 1
archivo 1
homónimo 1
Guzmán 1
cuestiones 1
esperaba 1
imb@@ 1
aparentemente 1
Davis 0.7299454688621163
ornam@@ 1
pobres 1
porcentaje 1
cercanos 1
Reb@@ 1
literario 1
pis@@ 1
utilización 1
civiliz@@ 1
lluvias 1
diversidad 1
Regres@@ 1
circular 1
corrientes 1
Gonzalo 1
invitados 1
Có@@ 1
elio 1
encialmente 1
venció 1
Juana 1
vistas 1
escoc@@ 1
T. 0.8314031348698024
awa 0.818222968215973
visible 1
Cristina 1
ernes 1
promin@@ 1
PR@@ 1
Puede 1
decía 1
DA 1
South 0.1031500179354913
Inici@@ 1
continuaron 1
Amar@@ 1
ferroviaria 1
ei@@ 1
Rojas 1
soport@@ 1
pertenecen 1
americ@@ 1
Templ@@ 1
iz 1
Rab@@ 0.9907151169167988
detenido 1
escaños 1
tis@@ 0.44080716226450195
intelectual 1
renunció 1
cráter 1
Múnich 1
primo 1
vivencia 1
gráficos 1
energ@@ 1
dimen@@ 1
émica 1
Viejo 1
1895 0.7232606899719791
decisi@@ 1
Ál@@ 1
imen 1
Sk@@ 0.5459305805954833
kl@@ 0.3197176633950237
DE 1
MA 0.7944866149330199
circulación 1
áticamente 1
Carre@@ 1
anime 1
senc@@ 1
tin 0.29893674779364965
ermita 1
extinción 1
unci@@ 1
inae 1
cristianismo 1
elegidos 1
interpretando 1
arran@@ 1
dibujo 1
Ubic@@ 1
bia 1
Doc@@ 1
Acción 1
imposible 1
óricos 1
Cuenca 1
órganos 1
15@@ 0.9479825603033298
ish 0.24574870355849457
00@@ 0.802492113060838
Pes@@ 1
oración 1
kg 0.7846889007199098
Kh@@ 0.3464633658406456
Tig@@ 1
fronteras 1
perdieron 1
antigüedad 1
agrícolas 1
famosos 1
supuesto 1
dueño 1
muro 1
udes 1
Lan@@ 0.8989495969803846
automóviles 1
presentaron 1
conocimientos 1
Cartagena 1
industriales 1
retor@@ 1
Fuente 1
hormig@@ 1
solicitó 1
aterriz@@ 1
Indonesia 1
alcanzando 1
nom@@ 0.6417184411985728
ensayo 1
jesu@@ 1
entro 1
sk 0.815289341789588
tus 1
itor 1
filos@@ 1
fort 0.35933877506893397
intensidad 1
zas 1
premi@@ 1
aparecido 1
Dam@@ 0.7087568018817378
Jose@@ 1
16@@ 0.8138196719816043
alguno 1
eira 1
vocal 1
insectos 1
Úl@@ 1
ocional 1
Posee 1
asegurar 1
talleres 1
combates 1
osidad 1
sam@@ 0.6570202817531606
barra 1
V. 0.7543773734875578
abrir 1
retirado 1
representaciones 1
Hong 0.6440185843240367
Serbia 1
Suprema 1
multitud 1
set 0.12925425180884634
santo 1
crimen 1
hidró@@ 1
abre 1
caí@@ 1
lara 1
retablo 1
frecuentes 1
herido 1
zi@@ 0.36994470446972755
ócr@@ 1
olog@@ 0.8429969891821485
cán 1
conjun@@ 1
coches 1
erc@@ 1
Night 0.7847014768886815
W. 0.5569826719504654
reducido 1
ambiental 1
lán 1
ves@@ 1
sant@@ 1
almac@@ 1
mexic@@ 1
hiper@@ 1
Series 0.4656452118957005
comentarios 1
rir 1
estrecha 1
liberales 1
buenos 1
Jersey 0.5886220813411839
naci@@ 1
electo 1
ū@@ 0.8613235554516462
médica 1
composiciones 1
salvar 1
Juventud 1
dero 1
Pá@@ 1
musul@@ 1
Entr@@ 1
flan@@ 1
monarca 1
buscando 1
cón 1
Simón 1
ricos 1
Apar@@ 1
captura 1
dichos 1
limita 1
Már@@ 1
académica 1
Fel@@ 0.7332390491664956
ciclista 1
cón@@ 1
enfoc@@ 1
Mec@@ 1
extendió 1
éis 1
secuencias 1
proteína 1
campamento 1
remodel@@ 1
trabajaba 1
Varios 1
deuda 1
osaurus 1
BA 1
conceptos 1
ny@@ 0.812818593840162
1899 0.6863479878011415
refuer@@ 1
Reser@@ 1
éu@@ 1
icidio 1
Stone 0.9118627281929252
Lisboa 1
fracas@@ 1
asimismo 1
Héctor 1
Miranda 1
Especies 1
reglam@@ 1
católicos 1
marina 1
ules 0.7515214065054404
jugado 1
tigo 1
trece 1
produjeron 1
pio 1
tern@@ 1
Jardín 1
eres 1
creía 1
azúcar 1
Cons@@ 1
Ra@@ 0.7139309206469964
atmós@@ 1
helic@@ 1
Ce@@ 1
vientos 1
humanidad 1
nica 1
autora 1
ispos 1
comprar 1
Proyecto 1
Mem@@ 1
experiencias 1
nacionalidad 1
Elena 1
resol@@ 1
protagonistas 1
Obra 1
pregunta 1
cano 1
adoptó 1
maíz 1
drogas 1
nobleza 1
interpreta 1
mision@@ 1
Samuel 0.8184029408815521
originaria 1
permiso 1
yn 0.7503682608354493
ásticos 1
ógico 1
clasificado 1
Arizona 0.8530974955582397
exclu@@ 1
cionario 1
relieve 1
Alcal@@ 1
terremoto 1
Gan@@ 1
variantes 1
ná@@ 1
pac@@ 1
comienzan 1
lluvia 1
kr@@ 0.44389412686927093
Suárez 1
nobles 1
condenado 1
seguía 1
Artí@@ 1
West@@ 0.33218131304827836
aé@@ 1
compite 1
Emper@@ 1
Incluso 1
Irak 1
peregr@@ 1
concejo 1
nieto 1
Diputados 1
Cum@@ 1
sesenta 1
Ingeniería 1
pp@@ 0.3519294835623749
amas 1
Rio 0.8270249688777099
band@@ 1
Rugby 0.9866913789907011
Maj@@ 0.8995768575347896
inspiración 1
Meg@@ 1
madur@@ 1
Cav@@ 1
Universit@@ 1
marrón 1
especializado 1
síntomas 1
ós@@ 1
ótico 1
Marvel 1
tara 1
aumentó 1
jes 1
Fern@@ 0.9000358551832887
much@@ 1
maestr@@ 1
provenientes 1
jan 1
fle@@ 0.5547154404872013
zan 1
usiones 1
posicion@@ 1
tendrá 1
iss@@ 0.3932577783920497
Group 0.24533408150104224
mecan@@ 1
relatos 1
enl@@ 1
tribunal 1
Sajonia 1
darle 1
Capital 1
ack 0.454464175927989
ze 0.2691399588064548
poseía 1
Alicante 1
membran@@ 1
plena 1
eus 1
farm@@ 1
entregó 1
Margarita 1
econom@@ 1
apu@@ 1
perro 1
curre 1
ess@@ 0.20873549329258248
eñ@@ 1
íaco 1
Guar@@ 1
Miembr@@ 1
cualquiera 1
colonos 1
autop@@ 1
Laguna 1
comunicaciones 1
Cár@@ 1
aline@@ 1
visitó 1
roso 1
Claudio 1
leche 1
hoja 1
WWE 1
irante 1
aceptar 1
carreteras 1
Sagr@@ 1
generar 1
pron@@ 1
orce 1
test@@ 1
1897 0.6804549233400934
Bou@@ 0.6112264106341276
Jacques 0.569297580485407
Chrysomelidae 1
ofrecer 1
cus@@ 1
Quito 1
disolución 1
LP 1
cuadros 1
ganadería 1
establecida 1
gusto 1
Obr@@ 1
incremento 1
presentaciones 1
cien 1
Petr@@ 1
ponen 1
sas 1
reput@@ 1
viajar 1
costumbres 1
señales 1
heredero 1
restr@@ 1
hembras 1
pus@@ 1
manifestaciones 1
Lake 0.30061992060157905
ON@@ 1
dez 1
SA@@ 0.866762241170121
convocado 1
archipiélago 1
excelente 1
Sun@@ 0.7052491635200892
bana 1
Ciencia 1
cuestion@@ 1
confir@@ 1
delan@@ 1
inauguración 1
drome 1
ocupada 1
manipul@@ 1
zap@@ 1
inser@@ 1
inten@@ 1
anuales 1
talento 1
congreg@@ 1
conjuntos 1
citado 1
homosexu@@ 1
1896 0.6753311100250985
Ejecutivo 1
buses 1
contratado 1
Semana 1
cari@@ 1
usieron 1
cabe 1
oli 1
propuestas 1
israelí 1
aventuras 1
nez 1
rug@@ 1
mpico 1
Ces@@ 1
olímpico 1
NA 1
Pot@@ 0.7700158780166163
fís@@ 1
Benito 1
obst@@ 1
Juli@@ 1
relacionada 1
obligó 1
íl@@ 1
satélite 1
sof@@ 1
tometr@@ 1
profesión 1
uelo 1
demostrado 1
Florencia 1
Hidalgo 1
brazos 1
Barrio 1
dobles 1
Universitario 1
corrupción 1
negativa 1
Libertadores 1
Land@@ 0.20536061256817326
Poder 1
condujo 1
ideal 1
Estuvo 1
1860 0.7898018483864928
cánd@@ 1
oli@@ 1
belga 1
recu@@ 1
homónima 1
acom@@ 1
cardenal 1
bos 1
definir 1
visual 1
deteri@@ 1
eligió 1
erte 0.29602097150105355
esi@@ 1
idamente 1
Histórico 1
discípul@@ 1
enza 1
ny 0.5633902406990634
escritas 1
hábit@@ 1
Lab@@ 1
presas 1
magn@@ 1
espiritual 1
Republic@@ 1
elles 0.19885824753709744
abord@@ 1
ff 0.4584478832808986
sociedades 1
Norteamérica 1
Ku@@ 0.7206734833646237
jada 1
andal@@ 1
cooperación 1
partidarios 1
sobrino 1
bus 0.4442233766325075
Duque 1
cifra 1
ean 0.9509309388108215
radical 1
seco 1
paciente 1
Simon 0.6465821916222327
Ak@@ 0.33839043015247366
erg@@ 0.6937213387249997
IC 1
Premier 0.49098214902522
ecuatori@@ 1
campeones 1
metropolitana 1
Ambi@@ 1
típico 1
seca 1
Hier@@ 1
batallas 1
Molina 1
necesita 1
Muñoz 1
cep@@ 1
Mic@@ 1
Alpes 1
indican 1
Medalla 1
asteroide 1
publicidad 1
retorno 1
FIFA 1
depos@@ 1
humor 1
gabinete 1
1889 0.7357203632742051
Realizó 1
chinos 1
Mayo 1
Tit@@ 0.7788693506182419
escenarios 1
iko 1
profundo 1
penetr@@ 1
Lewis 0.7151868355770511
mitología 1
móvil 1
Clu@@ 1
Cabe 1
únicos 1
asociados 1
llevando 1
Ped@@ 1
migr@@ 1
desaparecido 1
Gil 1
demostró 1
Baviera 1
paro 1
Juega 1
Cup 0.14921789073257072
cobertura 1
Só@@ 1
bord@@ 1
esculturas 1
Massachusetts 0.574665610859861
cortos 1
jugaba 1
cobre 1
embal@@ 1
Ot@@ 0.8066153532275971
Comand@@ 1
aparecieron 1
quet@@ 1
misteri@@ 1
parecía 1
sexta 1
Hizo 1
terror 1
afr@@ 1
desierto 1
rumbo 1
mono@@ 1
agon@@ 1
neutr@@ 1
mecánica 1
jefes 1
ambre 1
Vargas 1
tradicionalmente 1
muere 1
discre@@ 1
reconoció 1
repres@@ 1
edas 1
sugir@@ 1
Origen 1
alc@@ 1
30@@ 0.626713087370703
Peter@@ 1
flot@@ 1
opl@@ 1
Bell@@ 1
bomba 1
unieron 1
Alej@@ 1
cercanías 1
entender 1
Aquí 1
Cy@@ 0.7627768595688817
parlamento 1
Institu@@ 1
ecida 1
semi@@ 1
especializada 1
penal 1
señor@@ 1
tistas 1
enor@@ 1
valenci@@ 1
pretend@@ 1
puertos 1
posibilidades 1
revisión 1
sit@@ 0.6391489496832485
Colorado 0.8073289291646626
pura 1
teto 1
uz 1
Lord 0.41830789978748534
Kam@@ 0.5830494929074186
históricas 1
llamar 1
Mí@@ 1
enco 1
salón 1
esquina 1
judío 1
próxima 1
actúa 1
cond@@ 1
conclus@@ 1
1891 0.7512142617034991
soldado 1
cerrado 1
reconoce 1
intelectu@@ 1
alem@@ 1
castell@@ 1
Lago 1
ancha 1
propietarios 1
consciente 1
constituyen 1
promulg@@ 1
novia 1
ofreci@@ 1
Cau@@ 1
ópo@@ 1
Tir@@ 1
Giovanni 1
cooper@@ 1
SC 0.5432047848653208
basados 1
preci@@ 1
ectar 1
pares 1
creador 1
alcanzado 1
Código 1
esco@@ 1
Microsoft 1
procedimiento 1
ian 0.2110047558744074
épo@@ 1
ald@@ 1
sex@@ 1
reforz@@ 1
Alex 1
construidos 1
Recibió 1
verti@@ 1
endida 1
Literatura 1
igas 1
trag@@ 0.5624531735808053
Day 0.38829677835494464
coster@@ 1
cubre 1
bati@@ 1
low 0.1919195064901856
acre 1
fósiles 1
asteroides 1
deg@@ 1
hay@@ 1
platafor@@ 1
vér@@ 1
hacían 1
opla 1
construy@@ 1
Vie@@ 1
Sum@@ 0.7742810435080819
UCI 1
procedente 1
frances@@ 1
incluidas 1
viuda 1
tecnologías 1
ters 0.17747028223399214
andra 1
dal@@ 1
aní 1
intensi@@ 1
Kon@@ 0.2592772830228741
contraste 1
irat@@ 1
Azul 1
Comp@@ 1
ham 0.4733051540742663
latino@@ 1
olla 1
Esper@@ 1
aficionados 1
Guay@@ 1
amiga 1
Bulgaria 1
entradas 1
siente 1
campesinos 1
ífico 1
Capit@@ 1
diz@@ 1
armada 1
extensa 1
Tan@@ 0.7074757738298463
10.@@ 0.7734803193031696
cerebro 1
iniciales 1
top 0.16143538589334727
ígenes 1
side 0.11493839188394717
Honor 1
Información 1
ántico 1
representó 1
cleos 1
Estudi@@ 1
Diario 1
´ 1
Elizabeth 0.5687659236564093
Antiguo 1
AP 1
compuso 1
incluy@@ 1
bula 1
legales 1
ánsito 1
ko@@ 0.4809283410399914
armen@@ 1
guía 1
icismo 1
11@@ 0.9633451214761
blan@@ 1
funciona 1
icon@@ 1
Tim@@ 0.8616203640263423
quis@@ 1
cubierto 1
Championship 0.22963935443939035
bando 1
fort@@ 1
ograf@@ 1
privileg@@ 1
pose@@ 1
Navidad 1
reser@@ 0.7876540776733459
cedido 1
espectáculos 1
Sy@@ 0.468096289530275
grá@@ 1
astre 1
continuidad 1
odoro 1
1888 0.7600993569313526
ilus 1
sentencia 1
arto 1
nido 1
Ash@@ 0.5942084948137629
edio 1
Mand@@ 0.6385440620707218
centra 1
dy 0.4929007384339441
parecido 1
play 0.1262227282506495
dejaron 1
evacu@@ 1
Lac@@ 1
Hans 0.4586816642058095
Oficial 1
imperi@@ 1
acús@@ 1
expul@@ 1
Esa 1
Integr@@ 1
Result@@ 1
ñado 1
ous 0.08428418009993696
aer 1
ock 0.3734883207321578
paralelo 1
quera 1
raz@@ 1
relacion@@ 1
simples 1
inspec@@ 1
cercanas 1
usados 1
CA 0.9121715087958379
Veracruz 1
Antioqu@@ 1
Camino 1
instancia 1
Hir@@ 0.7429645314525569
antil 1
asión 1
oph@@ 0.34009852166858145
entreten@@ 1
Laura 1
deportivos 1
bara 1
nombramiento 1
Medellín 1
Mit@@ 0.4286481719286747
miedo 1
ogía 1
ake 0.2722757151832123
Rol@@ 1
extremadamente 1
× 0.5863597570359935
ingo 1
presti@@ 1
Bak@@ 0.7242806301912389
Yo 1
Dado 1
glaci@@ 1
dos@@ 1
Union 0.16059566757122934
teriores 1
concreto 1
sí@@ 1
Revolucion@@ 1
yar@@ 1
Dal@@ 0.8307247250398865
eter 0.4171673081164284
técnicos 1
pale@@ 1
caci@@ 1
ck 0.5283860581217842
Hub@@ 1
sé@@ 0.4731224802247048
Association 0.18775893648522776
men 0.08459875705309605
Prado 1
timo 1
gram@@ 1
blind@@ 1
erras 1
Carl@@ 1
ner@@ 0.36903078667925215
umin@@ 1
leer 1
Fol@@ 0.6471163825169615
aler@@ 1
espir@@ 1
suspendi@@ 1
Oviedo 1
sistem@@ 1
ess 0.17702733815237726
inar 1
Adam 0.7080271063313572
Adolfo 1
dición 1
protesta 1
abildo 1
oxid@@ 1
tenga 1
Mauricio 1
CN@@ 1
Paso 1
fam@@ 1
Archivo 1
Little 0.5291272771423197
Perman@@ 1
punk 1
Congo 1
Coruña 1
banqu@@ 1
nazi 1
heter@@ 1
clan 1
tenis 1
Napoleón 1
MS 0.718553852352146
tre@@ 0.28574221941532557
Blan@@ 1
Lag@@ 1
ren 1
responsables 1
tea 1
à@@ 1
VI@@ 1
peri@@ 1
discrimin@@ 1
ícula 1
inga 1
Pop@@ 0.9638096766582069
héro@@ 1
xim@@ 1
François 0.4877989875614151
Ortiz 1
Log@@ 1
pendientes 1
valid@@ 1
socio 1
Villar@@ 1
fili@@ 1
latina 1
Administr@@ 1
Liberal 0.9966556865449384
frecu@@ 1
anun@@ 1
onista 1
ted@@ 1
play@@ 1
agos 1
Pek@@ 1
mana 1
amante 1
Sir 0.36881132579386183
extrem@@ 1
PC@@ 1
ius 0.6009767984178483
Ú@@ 1
Boys 1
Jan@@ 0.6714068352963196
tent@@ 0.6703294209825614
Mexicana 1
1893 0.6908552786909551
Sam 0.8299832996526925
Coc@@ 1
iliz@@ 1
vena 1
AT 1
1500 0.9893071089496484
uas 1
Lanz@@ 1
Vivi@@ 1
Tiempo 1
pian@@ 1
Madre 1
mental 0.6927869758725583
Tú@@ 1
Mart@@ 1
copia 1
Vent@@ 1
Mancha 1
nos@@ 1
Letras 1
ongo 1
enfr@@ 1
fiere 1
cuar@@ 1
Legisl@@ 1
Lem@@ 1
East 0.17438469725360478
anus 0.8933971709815794
oter@@ 1
novi@@ 1
Bibli@@ 1
arcas 1
She@@ 0.7357848223205273
teriormente 1
academ@@ 1
Cot@@ 0.989389227095757
hes@@ 1
Cand@@ 1
Sex@@ 1
tillo 1
uda 1
Eric 0.8854469436385236
Forma 1
descrip@@ 1
dias 1
Ciudad@@ 1
Revista 1
artificial 1
iscal 1
Romano 1
ap 0.34888881330889804
asio 1
futbol@@ 1
ulo 1
fina 1
Mateo 1
osp@@ 1
habilit@@ 1
Awards 0.2748786288740993
bolivi@@ 1
cher 0.21960599562433802
Tail@@ 1
iento 1
ologías 1
fre 1
mis 0.5403220716111351
Canción 1
propul@@ 1
reserv@@ 1
mé@@ 0.43586226945198625
coinc@@ 1
Indias 1
brind@@ 1
Quer@@ 1
lave 1
ush@@ 0.7330961360925611
icion@@ 1
entan 1
Duc@@ 1
ges 0.2739505378703655
Rod@@ 1
Nintendo 1
enne 0.23498589631859537
fo@@ 0.29677686767387684
iores 1
osaur@@ 1
Valparaíso 1
astron@@ 1
LA 0.9295637708929286
Infan@@ 1
Sho@@ 0.6062391758533582
c. 1
ingen@@ 1
pandemia 1
brev@@ 1
with 0.006737700007442183
Campos 1
diagn@@ 1
Olí@@ 1
difí@@ 1
mera 1
Natural 1
fá@@ 1
Let@@ 1
nio 1
Bes@@ 0.6215768743604111
nar 1
nic@@ 1
vé@@ 1
ath 0.36198936688296723
supre@@ 1
digitales 1
reform@@ 1
sis 1
1892 0.6833778212479803
Paraná 1
mapa 1
hero@@ 1
1800 1
perio@@ 1
Call@@ 1
S.A. 1
dam@@ 0.763999217658124
1868 0.8467914780902043
isco 1
Ret@@ 1
electric@@ 1
1885 0.677570982470755
ors 0.08577148718021765
aux 0.043445853317614164
isto 1
pa@@ 0.8058308862620065
cae 1
pec 1
Etim@@ 1
rugby 0.650610520937146
LE@@ 1
Sw@@ 0.4331985382643208
iger@@ 1
MTV 1
Pau@@ 1
Nag@@ 0.6591496545130767
semin@@ 1
Luisa 1
Rad@@ 0.43484623245694937
mic 1
foro 1
od 0.36120344429081397
lumin@@ 1
iten 0.5759553081221106
ano@@ 1
sul 1
lieg@@ 1
magné@@ 1
excel@@ 1
meteor@@ 1
Alan 0.9001260793139699
Ferro@@ 1
ñez 1
Anti@@ 0.6684960120644261
orías 1
uniforme 1
símb@@ 1
congres@@ 1
Roja 1
Praga 1
Cantabria 1
Ray 0.887589650137098
magistr@@ 1
acont@@ 1
Banda 1
Marqu@@ 1
Mam@@ 1
Pamplona 1
clav@@ 1
eer 0.8085995130877126
Friedrich 0.3434551297101254
vag@@ 1
1894 0.6762921427964432
1886 0.7355759511801357
lima 1
estrat@@ 1
Lov@@ 1
Pav@@ 1
Hip@@ 1
ticul@@ 1
It@@ 1
Lit@@ 0.786356590383079
Guadalupe 1
Sony 1
gre@@ 0.6059630070473205
24@@ 0.5484989601942495
imi@@ 1
comprom@@ 1
identi@@ 0.5313889398257026
talla 1
viles 1
Vuelta 1
cobr@@ 1
oth@@ 0.31319070942527943
boda 1
RA 0.9683775716774001
pi 1
Sport 0.7913782128944724
Metropolitana 1
But@@ 0.8883647510483113
cerebr@@ 1
Fac@@ 0.9079673091521651
rehabilit@@ 1
Game 0.5592533603985053
Quir@@ 1
yan 0.6781650841404244
gor@@ 1
ci 0.225302195910889
bi 0.7432892576030875
ham@@ 0.7886780880208071
TE@@ 1
Punta 1
Eli@@ 1
Kit@@ 0.8071696259488644
rios 1
flex@@ 1
Sigu@@ 1
bau@@ 0.4100670973636669
Moder@@ 1
Atlanta 0.9311767748076294
ball@@ 0.5215962025158055
escul@@ 1
Han 1
PSOE 1
Antigua 1
conductor 1
Toronto 0.5338132821421393
Mallorca 1
ses@@ 1
cerem@@ 1
Tucumán 1
valles 1
lip 1
esté 1
moderni@@ 1
isten 0.351351409709752
Catal@@ 1
bomb@@ 0.8516942137159202
Registr@@ 1
nit@@ 0.9774486335831176
Sede 1
acr@@ 1
Star@@ 0.6491475623114098
Wood@@ 0.6142855629348374
iki 0.45410418935266766
palest@@ 1
Corporation 0.49728680671564035
armon@@ 1
aud 0.49277709767490663
Tarr@@ 1
compi@@ 1
Jim 0.6658865824958651
hot@@ 1
rector 1
ódromo 1
orum 1
Ball@@ 0.709902227955625
tendr@@ 1
Kansas 0.6706665364152787
uti@@ 0.825388496039636
Arn@@ 1
Bec@@ 1
erie 0.5395359348799612
ø@@ 0.6297401287190293
Sep@@ 1
Ki@@ 0.5318234372764937
YouTube 1
iliano 1
jin@@ 1
Ka@@ 0.7347802112885327
lé@@ 1
Sofía 1
egan 1
Lara 1
videoc@@ 1
wa 0.22922419080606382
ósito 1
anja 1
procedi@@ 1
And@@ 1
impl@@ 1
hici@@ 1
ítul@@ 1
Rot@@ 0.5966908499936465
Douglas 0.7669142564745247
air@@ 0.22697541217919756
Argel@@ 1
agot@@ 1
dosis 1
definiti@@ 1
var. 1
1884 0.7404494813018138
Coronel 1
film 0.047506716080999996
Jan 0.7627049961851803
veloc@@ 1
van@@ 1
Anderson 0.8006330306389181
Yugoslavia 1
jeron 1
g. 1
ueva 1
dro@@ 0.4528544640990146
Dolores 1
oriente 1
alde@@ 1
Tenerife 1
Caballero 1
aff@@ 0.3156240577166103
alit@@ 1
misa 1
asim@@ 1
lano 1
plen@@ 1
divid@@ 1
ceb@@ 1
remot@@ 1
{ 0.6094932349841712
vertical 1
campus 0.5895885120027756
Brus@@ 1
ABC 0.9102917137403223
evid@@ 1
1879 0.7802308628119056
Fili@@ 0.8772977852964388
lac@@ 1
orbital 1
tista 1
expon@@ 1
Gri@@ 1
latitu@@ 1
suic@@ 1
ogén@@ 1
Sr. 1
Oxford 0.5770164604456687
Stephen 0.6494930926961703
mm. 1
elar 1
Spider 1
Suc@@ 1
af 1
consig@@ 1
circ@@ 1
Studios 0.8049357533298643
out 0.04420742939585014
Beach 0.6257006233450142
custo@@ 1
Aten@@ 1
mang@@ 1
propag@@ 1
Constantin@@ 1
percep@@ 1
Belgrano 1
Cí@@ 1
gust@@ 1
ll@@ 1
ein@@ 0.08032003616966811
Yam@@ 1
algorit@@ 1
érico 1
Esti@@ 1
nec@@ 1
ly@@ 0.3798176254579579
kov 1
Agricul@@ 1
Ric@@ 1
Jr 0.7004901062258516
Ry@@ 0.8591127227548044
infr@@ 1
discus@@ 1
carp@@ 1
austri@@ 1
progr@@ 1
vulner@@ 1
aflu@@ 1
Pit@@ 1
heim 0.3545125349411088
Tex@@ 0.9487218440047758
ónom@@ 1
Conc@@ 1
Kn@@ 0.4872573355875224
resist@@ 1
env@@ 1
900 1
Sant 1
Caballer@@ 1
terci@@ 1
portugu@@ 1
sio 1
Ner@@ 1
Broadway 0.952009595557544
tripul@@ 1
Clara 1
ingen 0.24375965093961796
neos 1
concili@@ 1
Afgan@@ 1
paragu@@ 1
Minnesota 0.6223707090005338
mir 1
1887 0.710904259770602
infin@@ 1
Mexic@@ 1
opera 0.9344160925488121
jud@@ 1
URSS 1
Barran@@ 1
Boca 1
nova 1
Armenia 1
Boy@@ 1
Juárez 1
cina 1
zana 1
Lincoln 0.763650056976388
Sun 0.5658182429916624
Mik@@ 0.9053933829111732
uel 1
ars 0.1976096253139606
AL 1
ero@@ 1
Justo 1
Salv@@ 1
Marcelo 1
dula 1
Bár@@ 1
Andrea 1
tural 1
ings 0.08251841562953577
Francis 0.5409702883215691
God@@ 0.8191711958110253
Ast@@ 1
acial 1
jer 1
integran@@ 1
zano 1
dor 1
Biblia 1
Pet@@ 0.979107989645756
arial 1
fra@@ 1
mita 1
live 0.21786587068387586
omor@@ 1
amina 1
canc@@ 1
controvers@@ 1
Asi@@ 1
surge 1
verdad@@ 1
constant@@ 1
sud@@ 1
Bet@@ 0.8206075135010563
divis@@ 1
Johann 0.357003841347065
Yucatán 1
ager 0.4007551498684758
FM 0.510665565222385
mús@@ 1
stru@@ 1
entí@@ 1
Andrew 0.565697864040641
evi@@ 1
Particip@@ 1
flor 1
Bartolomé 1
Maestro 1
pertenec@@ 1
anj@@ 1
compl@@ 0.37176312476979045
britán@@ 1
Radi@@ 0.8728722549153026
Ávila 1
Nac@@ 1
tía 1
aren@@ 1
ficti@@ 1
variables 1
On 0.03740986804518303
Occ@@ 1
op 0.46764165695657595
use 0.06878763609149346
1850 0.7614208948218939
ken 0.13822731270550181
Bag@@ 1
abar@@ 1
legislat@@ 1
sombr@@ 1
interven@@ 1
ole@@ 1
ajus@@ 1
hir@@ 1
Flora 1
lula 1
Plant@@ 1
1881 0.7227534650050812
favorable 1
dominante 1
roqu@@ 1
Quint@@ 1
Rub@@ 1
pati@@ 1
Deportiva 1
1876 0.7443044997694519
ism@@ 1
costum@@ 1
Bau@@ 0.19441394083390326
12.@@ 0.9125956137627276
yc@@ 0.47781189470094637
alp@@ 1
ime 0.7926893838118981
ji@@ 1
Feder@@ 1
Indiana 0.7037929544078128
MP@@ 0.7704380800710926
procur@@ 1
ecos@@ 1
bill@@ 1
Corn@@ 1
Domin@@ 0.7912603026218705
Patri@@ 0.9040847305238462
eng 0.5299226176446504
Iván 1
Señ@@ 1
Ty@@ 0.6351165767338123
Bab@@ 0.6536863609683057
Hispan@@ 1
Eus@@ 1
ix@@ 1
Viol@@ 1
ail@@ 0.3413697540533657
ix 0.7497607656859507
clor@@ 1
Alg@@ 1
Fort 0.4096057276089974
catal@@ 1
curr@@ 1
Garr@@ 1
vertebr@@ 1
Electoral 1
dem 0.016317897432981596
integ@@ 1
ulg@@ 1
espe@@ 1
Leonardo 1
azos 1
1871 0.6741532554730653
cable 1
Palestina 1
MI@@ 1
sm@@ 0.7070199369851654
Itali@@ 1
Ramos 1
inéd@@ 1
iny@@ 1
similit@@ 1
úl 1
Road 0.2111365925531428
Mérida 1
Alfred 0.6290578744831052
incu@@ 1
camar@@ 1
atis@@ 1
Clausura 1
cura 1
Azerba@@ 1
rad@@ 0.8900014038343116
0.000 1
Alber@@ 1
Nelson 0.9722487947742139
Kevin 0.8901870318245102
Miller 0.691143931507151
Zo@@ 1
protest@@ 1
Estudiantes 1
ome 0.32967688704673515
degrad@@ 1
gi 1
Monte@@ 1
destruc@@ 1
lie 0.4014047785623345
echos 1
ð@@ 1
cord@@ 1
Johnny 0.9911798384115552
Sicilia 1
Eva 1
alcohol 1
ubio 1
embr@@ 0.9500724502878157
unc@@ 0.3934009845902384
Da@@ 0.8786834313139837
Hamb@@ 1
Whit@@ 0.6047500212288632
ate@@ 1
Tal 1
Num@@ 1
Michel 0.580600081066716
PA 0.6273903197242447
Fut@@ 1
11.@@ 0.9010587886418233
CS@@ 0.7725258748117249
tum@@ 1
Bruce 0.9309450042766712
Naval 0.8597251686172575
Villan@@ 1
www.@@ 1
sinte@@ 1
Nick 1
fia 1
arti@@ 1
conex@@ 1
implant@@ 1
videos 1
Video 0.8569809949668609
Manz@@ 1
Niño 1
Rose 0.7025217623047957
eau 0.2039680369028263
icus 1
tava 1
ieran 1
sacrif@@ 1
gü@@ 1
1878 0.6786489390656099
refr@@ 1
Editorial 1
inoc@@ 1
Junior 0.6060540999750225
ome@@ 0.8894920814884524
Ky@@ 0.7035972467921907
Rally 1
Victor 0.6990093476432728
ester 0.6449755148108156
Warner 1
ć 0.7219889647104548
Ges@@ 0.5465060127433897
Howard 0.7048942997349407
Franc@@ 1
Fuentes 1
Jimmy 0.9595462690841684
1882 0.713831008155569
ł@@ 0.41641085459162164
Evangel@@ 1
evol@@ 1
presid@@ 1
Lat@@ 0.6414422226818457
osc@@ 1
sos 1
polin@@ 1
escop@@ 1
onga 1
Win@@ 0.4826413829954878
ifer@@ 1
torn@@ 1
seri@@ 1
lana 1
Alvar@@ 1
juven@@ 1
istr@@ 1
State 0.08991621181712749
Ecu@@ 1
Ef@@ 1
repos@@ 1
23@@ 0.696608774798873
Julián 1
Long 0.42865986928553773
tall@@ 1
Monaster@@ 1
Fri@@ 0.5872666712574528
comedi@@ 1
cito 1
ril 1
audio 1
igna 1
examin@@ 0.7720182649249993
epis@@ 1
Termin@@ 1
Extrem@@ 1
Ingenier@@ 1
depen@@ 1
1864 0.6939328291829819
Allen 0.7531516871979437
rente 1
Semin@@ 1
enem@@ 1
Marta 1
quel 1
event@@ 1
déc@@ 0.4144513332612101
Gobern@@ 1
egal 1
mater@@ 1
its 0.019641979757858065
Litu@@ 1
Tradi@@ 1
roy@@ 1
Hem@@ 0.914804689516542
sedi@@ 1
integral 1
telev@@ 1
orientales 1
1883 0.7301677872147533
Arti@@ 1
Estonia 1
herrami@@ 1
Prus@@ 1
km. 1
alle@@ 0.7496633944097592
sel 0.593439786732088
ym@@ 0.37543937769537833
amarca 1
roj@@ 1
álisis 1
ingu@@ 1
laya 1
Arri@@ 1
Boy 0.9463199011400056
dama 1
Andr@@ 1
CF 1
let 0.2857270622582947
che@@ 0.5475654812858246
urg@@ 0.5265929300335019
Chu@@ 1
denas 1
Madonna 1
any@@ 0.5223753732743928
Dist@@ 1
Valent@@ 1
onto 0.7435680735825935
aman@@ 1
K. 0.7076451148584609
Arts 0.25621258792784474
Anthony 0.7179550601550666
Carab@@ 1
Base 1
ites 0.23616941897497964
vil 1
Ali 0.5515542825622908
jón 1
ME@@ 0.9812680566566641
1865 0.7004335207502035
enam@@ 1
ígen@@ 1
beca 1
nitr@@ 1
Herr@@ 0.8470739187972324
aprendi@@ 1
Alcalá 1
AI@@ 0.798062698877044
bater@@ 1
apart@@ 1
Cle@@ 0.7770078588954221
ache 0.41520282055824165
bé@@ 1
mata 1
dispers@@ 1
jubil@@ 1
pers@@ 1
adolescente 1
3000 1
experimental 1
alias 1
ód@@ 1
1830 0.878851704689144
Def@@ 1
Fall@@ 1
ium 0.4170160489762654
1848 0.658580432147453
Long@@ 0.7729196674726074
internet 1
simul@@ 1
usual 1
comend@@ 1
post 0.22677972865493048
pino 1
Monterrey 1
Lau@@ 0.7250777141931923
poses@@ 1
Corri@@ 1
iter@@ 1
Bell 0.7802533839243851
genera 1
INE 1
Vera 1
nad@@ 1
André 0.6963041299829161
Kepler 1
establ@@ 1
Les@@ 0.6379401157697561
boc@@ 1
rival@@ 1
model@@ 1
ste@@ 0.1806360753365191
Paris 0.0967100538502369
uri@@ 1
CV 1
funer@@ 1
emper@@ 1
Sat@@ 0.6489907702021209
bits 1
bio@@ 1
abstr@@ 1
eli 0.7201525693526503
ises 0.28119814038047053
públ@@ 1
pent@@ 1
caudal 1
Guayaquil 1
orit@@ 1
Fis@@ 1
Arena 0.9293205822602886
1840 0.8572623654033692
ases 0.9950635526818192
luc@@ 1
Navarro 1
petrol@@ 1
compren@@ 1
ino@@ 1
Lady 0.5296528364284899
Pilar 1
Lang@@ 0.3593357337441379
vamente 1
1867 0.7049608082500239
mobili@@ 1
tual 1
donado 1
Tap@@ 1
alli@@ 0.4997494016824319
Comics 1
ii 1
Arch@@ 0.6698884821208092
aragon@@ 1
Iber@@ 1
extra 0.9187975264365327
UC@@ 1
ispo 1
dum 1
ametr@@ 1
tible 1
hil@@ 1
legend@@ 1
London 0.1089359197727037
taro 1
dramatur@@ 1
Democrá@@ 1
Mass@@ 0.7190670798135506
Rodolfo 1
amblea 1
aun@@ 0.46761925327748793
ólicos 1
Len@@ 0.9332260779925649
Josep 1
aug@@ 1
vice@@ 1
neum@@ 1
regi@@ 1
Bay 0.27026866843814695
part@@ 0.679523665845149
1873 0.7197558591317668
Cambridge 0.59712313316951
enia 1
AR 0.9634318998325789
Conservat@@ 1
illy 0.5996896665164654
Secre@@ 1
gam@@ 1
eral 1
meta 1
acete 1
clandest@@ 1
tira 1
Cus@@ 1
olina 1
RI@@ 0.9714724772580564
cup@@ 1
ficio 1
ATP 1
Esqu@@ 1
azar@@ 1
Pep@@ 1
fri@@ 0.7133166645504054
tag@@ 0.9367492302022487
oe 0.8819828775752981
invas@@ 1
1861 0.6666586127871543
rop@@ 1
Arist@@ 1
ies 0.11605370786144462
arre@@ 1
sinc@@ 1
Cub@@ 1
suy@@ 1
Morgan 0.8622427426622812
empar@@ 1
yp@@ 0.4305452370023563
herb@@ 1
Go 0.8802009564733815
promovi@@ 1
Qui@@ 1
cientí@@ 1
destitu@@ 1
yer@@ 1
Perón 1
Zar@@ 1
Film 0.14134817922161413
toler@@ 1
CC@@ 0.743354531894939
1,5 0.9547301901351573
Queen 0.3554736215511546
tru@@ 1
adi 0.7521552076568845
promot@@ 1
1875 0.7069786451652564
Trujillo 1
Moore 0.7682241651334352
cc 1
Ker@@ 0.4789733030334037
Wat@@ 0.6393027242271515
afa 1
Cis@@ 1
Mej@@ 1
faro 1
eu 0.41627674220749095
tario 1
Is 0.6028767212839556
Rioja 1
Pale@@ 1
lava 1
Cáceres 1
sép@@ 1
1872 0.7196674250363329
Google 0.9364423394486173
Tos@@ 1
polit@@ 1
ison 0.34241009612634965
1869 0.7577333200904083
25@@ 0.537033782973332
fru@@ 1
Uri@@ 1
more 0.03751417727104706
vertic@@ 1
Americana 1
cend@@ 1
house 0.11716621645324252
Gru@@ 0.7682782481197243
polo 1
nas 1
card@@ 1
Orleans 1
septentr@@ 1
tamb@@ 1
PlayStation 1
Ortega 1
gin@@ 1
50@@ 0.7288805628622264
Núñez 1
king 0.13748639012135092
110 0.8038050102681302
tranqu@@ 1
bet@@ 0.7176873723644224
tox@@ 1
Eurov@@ 1
26@@ 0.775085904780981
dera 1
arch@@ 0.3071749399649813
ps@@ 1
Julia 1
eur@@ 0.8389154357560662
Jane 0.812986680543338
crimin@@ 1
CD@@ 0.7595633357206008
Bank 0.31298076789803864
Eg@@ 0.858694187222128
Up 0.7407413030616439
dney 1
Industrial 1
provisional 1
net 0.3287053275746519
seud@@ 1
Sag@@ 1
Houston 0.7162346663654257
Elec@@ 0.9222781989209986
conflu@@ 1
Conn@@ 0.6080187221292099
bom@@ 1
Pul@@ 0.8585514363375013
Pop 1
logos 1
lucr@@ 1
fer 0.20212129850648244
induc@@ 1
Telec@@ 1
a. 0.4168067807734601
att@@ 0.17342833769140215
prima 1
mér@@ 1
Que 1
erlo 1
jorn@@ 1
bach 0.2385542796598521
1863 0.6744119452557986
Digital 1
1874 0.7021642893646001
Ryan 0.8231401475395337
Isidro 1
Your 0.8297127300494368
élite 1
tribun@@ 1
Henri 0.5172619417961081
ert 0.12681055186434417
Fus@@ 1
creen 1
3D 0.9697297654539011
mosa 1
consult@@ 1
Vig@@ 1
olor 1
impos@@ 0.6757530579481109
bec@@ 1
ory 0.20169370981236476
Men 0.41793165761087053
rectangular 1
News 0.4316908169115333
religi@@ 1
terrestres 1
PS 0.5329776724676897
Cabrera 1
Soto 1
alab@@ 1
carn@@ 1
prosper@@ 1
cañ@@ 1
convertir 1
Maur@@ 0.9040080010218711
Clark 0.7212406104930581
ator@@ 0.7770935618745038
Segovia 1
ampl@@ 1
any 0.08856799829059245
onial 1
difer@@ 1
vera 1
cler@@ 0.6965592972772907
frontal 1
frustr@@ 1
Rib@@ 1
auge 1
sing@@ 0.557634250422709
Kas@@ 0.3927305393209079
ame@@ 0.791477299064148
AN 1
Corpor@@ 1
ingenier@@ 1
10,@@ 1
ban 0.31329126354700315
psi@@ 1
iler 0.48419259058159575
ferencia 1
pro 0.38847538718193997
SP@@ 0.5857373968058278
Iglesias 1
SO@@ 0.8683528714298752
oncesto 1
abad 0.7041642423503491
oslov@@ 1
11,@@ 1
12,@@ 1
Colo 1
Matt 0.9416890786230585
Vin@@ 1
Conse@@ 1
edes 1
umi 1
ativ@@ 1
Sak@@ 0.6628430066853005
ept@@ 1
tiliz@@ 1
Energ@@ 1
proced@@ 1
grup@@ 1
Indi@@ 0.6135477347021381
sexu@@ 0.7565791271125852
13,@@ 1
Vázquez 1
fest@@ 0.570415034994306
alba 1
Harvard 0.7265031665106808
O. 1
bri@@ 0.4684947987051977
ž@@ 0.6868611599174064
afu@@ 1
ondo 1
olo@@ 0.9527373670383015
élites 1
ína 1
ST@@ 0.6580776628615747
hembr@@ 1
ekwondo 1
ONU 1
aco@@ 1
oi 0.8684083526546009
Varso@@ 1
Ministr@@ 1
Velasco 1
mensu@@ 1
utili@@ 1
achi 1
rendi@@ 1
Got@@ 0.9197631902533508
Kom@@ 0.2686698999884298
Pac@@ 1
1857 0.8291898138585435
fren@@ 1
Billy 0.8991804219099507
1866 0.5596289322841679
estruc@@ 1
té 0.3911202632203751
Arc@@ 1
cuad@@ 1
inus 0.9207292160049242
caud@@ 1
eden 0.9498072725711255
Tul@@ 0.9677559585049768
mineral 1
Journal 0.47644049293318597
PE@@ 1
Maxim@@ 1
contra@@ 1
fiel 0.8711160509647898
Continu@@ 1
Dir@@ 1
Ful@@ 0.8464922897050374
Open 0.28661027169263564
Cob@@ 1
130 0.8357445911097512
Jaén 1
áñez 1
Rin 1
comb@@ 1
Cri@@ 1
facto 1
franco 1
hipot@@ 1
Kol@@ 0.3284890197802557
Charlie 0.9266658715072522
itz@@ 0.3822882902790005
guitarr@@ 1
umer@@ 1
vs 1
arbitr@@ 1
Dob@@ 1
ustr@@ 1
Construc@@ 1
Jú@@ 1
comer 1
disper@@ 1
meg@@ 1
peg@@ 1
trin@@ 1
enberg 0.44253162290263554
Bach@@ 1
27@@ 0.7612412534880751
5.000 1
Detroit 0.7727578927795633
Bien@@ 1
Franklin 0.8662051656281761
sterdam 1
semif@@ 1
1877 0.6685342643893277
Luz 1
joy@@ 1
\ 0.9644147817475844
Rolling 1
Shi@@ 0.6090230111260866
isario 1
mara 1
erna 1
RO@@ 0.9245178153613196
Ann@@ 0.4570844789791427
caf@@ 1
ith 0.5791309437736405
1862 0.6416565524948814
Anne 0.44934886223349224
cier@@ 1
git@@ 1
lot 0.325144053847875
Roca 1
dola 1
ológ@@ 1
articul@@ 1
quint@@ 1
Dan 0.8032465096409838
tific@@ 1
ópolis 1
ranking 1
undos 1
Juven@@ 1
Chávez 1
memor@@ 1
end 0.04585666341049602
combus@@ 1
perpet@@ 1
Calderón 1
rer 1
ech 0.6424176948147313
Iowa 0.6689933711275949
munici@@ 1
ultades 1
Tac@@ 1
Girl 0.9017104355174821
alco@@ 1
Mov@@ 1
carg@@ 1
filtr@@ 1
prision@@ 1
peculi@@ 1
delic@@ 1
Kennedy 0.8105826710869778
Gordon 0.6959696300875867
conforme 1
Fir@@ 0.6998396541200675
ke@@ 0.30588557949463197
Apple 0.8846455393225703
Oliver 0.9772424954517914
erup@@ 1
Eugenio 1
Pom@@ 0.7993817110958263
17@@ 0.7577784707976131
mito 1
I.@@ 1
posit@@ 1
IA 1
oco 1
ran 0.25165450367979425
Rap@@ 0.651186199276744
gh@@ 0.4145365755454657
marin@@ 1
Cali 1
Compos@@ 1
faz 1
ū 1
Dakota 1
Amor 1
Chap@@ 1
opini@@ 1
bella 1
Corr@@ 1
Dep@@ 1
provinciales 1
Grab@@ 0.6992711530540084
ange 0.45347121233372034
å@@ 0.680775927372191
Patrick 0.5386957013595144
Nigeria 0.9103712277013393
Piz@@ 1
accident@@ 1
unen 1
ofensi@@ 1
quet 0.9514303348651149
Eti@@ 1
hip 0.407312215305727
derr@@ 1
maqu@@ 1
dens@@ 1
Cast@@ 1
receptor 1
Creek 0.36671996051154854
Cerv@@ 1
Oaxaca 1
medir 1
p. 1
Almería 1
Democ@@ 1
riz@@ 1
ibn 1
Zap@@ 1
amo@@ 0.8319697447519618
equival@@ 1
Jud@@ 0.720210495422547
ichi 1
Alt@@ 0.5881424899065368
we 0.1571189434425737
compati@@ 1
locomot@@ 1
} 0.5884939411145357
fil 1
marx@@ 1
Declar@@ 1
Huel@@ 1
ops 0.3855608269157716
ocia 1
ingre@@ 1
Salta 1
agan 1
ficamente 1
és@@ 1
AE@@ 1
ting 0.06573900294053711
campe@@ 1
pav@@ 1
N. 0.9680299118116931
Montes 1
domic@@ 1
nik 0.8134419584070028
Clas@@ 1
angular 1
istos 1
precurs@@ 1
tumb@@ 1
alan 0.5743067268480444
mont 0.4477936989573471
200@@ 0.9845315910598704
28@@ 0.7751131400360751
hispan@@ 1
bé 1
Reci@@ 1
teor@@ 1
ku@@ 0.4489526167113194
Autom@@ 0.8478809784611462
Cher@@ 0.7437367361596362
1810 1
Black@@ 0.6202885274466264
Industr@@ 1
Cortés 1
feo 1
caya 1
lera 1
Leopoldo 1
iros 1
enn@@ 0.20552091420216462
http 1
tina 1
Bil@@ 0.41069568827395914
raci@@ 1
1820 0.7851807436941768
eck 0.38419920474856717
macul@@ 1
brill@@ 1
tul@@ 1
Gam@@ 0.9330828094459785
DJ 0.8433024073437353
lap@@ 1
refin@@ 1
Sie@@ 1
protec@@ 1
Fá@@ 1
Nik@@ 0.7303222288384573
Mut@@ 0.851648130355279
Home 0.44816843957000885
Sang@@ 1
fenó@@ 1
multiplic@@ 1
subur@@ 1
bru@@ 1
Sarah 0.7521214643962393
écn@@ 1
ocl@@ 1
Montreal 0.7966743120828471
verg@@ 0.8289600487148039
están@@ 1
entino 1
Arz@@ 1
Ind@@ 1
idel@@ 0.9499506369380563
Otto 0.5137084371643348
transit@@ 1
Manhattan 1
Kelly 0.7931592689739481
dinosaur@@ 1
Legislat@@ 1
Sporting 1
marqu@@ 1
Autor@@ 1
Vegas 1
Dun@@ 0.5113669158409114
macho 1
Ras@@ 0.8678415436807179
acan@@ 1
Russell 0.7974442298807116
opo@@ 0.8270512338435794
Las@@ 0.9798965061466172
TC 0.8649425121611621
ular@@ 0.8564356259130849
diput@@ 1
Abu 1
Intel@@ 1
Jord@@ 1
Yo@@ 0.8699321399451552
aca@@ 1
ciona 1
ashi 1
irregular 1
Chin@@ 0.9510809887528054
intest@@ 1
extran@@ 1
bab@@ 1
novel@@ 1
orbitales 1
Figuer@@ 1
anca 1
odio 1
Bravo 1
beta 1
gases 1
Ví@@ 1
autobi@@ 1
Americ@@ 1
Wisconsin 0.5613302199682404
up 0.03453233578891258
omun@@ 1
Minas 1
Lis@@ 0.9044332111850862
indis@@ 1
All@@ 0.4312723157966839
anna 0.7330738757269908
andro 1
evangel@@ 1
ormente 1
finland@@ 1
ec 1
favorables 1
Bohemia 1
Rubén 1
Aguirre 1
PP 1
29@@ 0.8234229858102682
UE 1
Network 0.5221996734881634
improvis@@ 1
ráp@@ 1
Pis@@ 1
Ross 0.7483598414674721
Christopher 0.7831439044238951
mini@@ 1
yer 0.22973901772445116
port 0.16405820489092723
· 0.07011802624602416
inales 1
Vélez 1
GT 1
campan@@ 1
1833 1
Arabia 1
1812 0.9036913474770932
gén@@ 0.9955376154124643
mig@@ 1
Constant@@ 1
Mesa 1
ien 0.18177385907935112
Old 0.31550047200560444
etto 1
maya 1
mio 1
portal 1
Coch@@ 1
Pictures 1
Singapur 1
toral 1
Océ@@ 1
DS 0.722432381493514
Casas 1
NO@@ 0.7978109658475475
enen 0.17631509691356656
USA 0.22769777125909235
Tin@@ 1
fit@@ 1
Eng@@ 0.5153640594601466
examen 1
subordin@@ 1
1821 1
Poc@@ 1
14,@@ 1
Die 0.014257099376001635
orro 1
peti@@ 1
D.@@ 1
tano 1
vener@@ 1
R.@@ 1
disc@@ 1
nig@@ 1
ots 0.18973356650836531
France 0.05783750717978287
avera 1
zor@@ 1
Shar@@ 0.5632068154217013
brut@@ 1
ectiva 1
nen 0.2369165857659574
Gloria 1
ado@@ 1
min 0.6115306086028236
Mr 1
metod@@ 1
ds 0.18058036438557737
Alba 1
ă@@ 0.6195337628317005
urn@@ 0.6358739955449004
expect@@ 1
125 0.879552017720305
Esco@@ 1
Alicia 1
vir 1
iment@@ 1
vamp@@ 1
defici@@ 1
RC 0.674527942256728
eal 1
Hamilton 0.5561847924801823
Tw@@ 0.5226238673419317
maf@@ 1
Glob@@ 1
tibles 1
ferro@@ 1
ä@@ 0.11059382874756586
Wilhelm 0.32640825473391305
margin@@ 1
centen@@ 1
We 0.3533351107553587
Camb@@ 1
emig@@ 1
180 0.8587694519310911
Amp@@ 1
ement@@ 1
virtual 1
ody 0.46345101476877815
Bosnia 1
ementerio 1
AD 0.5890944000983094
send@@ 1
Institute 0.1801314834855685
instrum@@ 1
vu@@ 1
hr@@ 0.35793021874898895
1859 0.6881087727728459
agricul@@ 1
vierten 1
Oro@@ 1
Grammy 1
engo 1
yo@@ 0.8311001786374707
Angel 1
alumin@@ 1
afro@@ 1
Nevada 1
René 0.9821482927980754
sequ@@ 0.6185678395958912
Franz 0.4330102846225544
alis@@ 0.5320850804014868
Jam@@ 0.8142211552394223
transpar@@ 1
Will 0.8618715455468765
reduce 0.7900125018872516
ingos 1
taña 1
Crist@@ 1
Power 0.5160656967486593
Adel@@ 1
Song 0.38532916452664817
involuc@@ 1
fino 1
rut@@ 1
Can 1
Juniors 1
Acu@@ 1
Toro 1
perfor@@ 1
nazis 1
Carter 0.8555785730820235
Sou@@ 0.5187447709437577
chu@@ 1
Fur@@ 0.950209928893152
Arroyo 1
Cass@@ 0.9036856962991835
filo 1
back 0.07211315932680179
Lagos 1
galax@@ 1
Abr@@ 0.9037546019270413
16,@@ 1
concer@@ 1
tena 1
2,5 0.9848151236486996
rich 0.595460204867931
Jason 0.8970253950166566
ée 0.03271761582122727
arta 1
Aguilar 1
Wi@@ 0.4703093429630095
Neu@@ 0.28913810382220473
ique 0.2108659634163559
Kil@@ 0.4661476379473011
ria 1
Sul@@ 0.6249897984794494
140 0.8491898817024377
alog@@ 0.7375256144761297
euc@@ 1
escrit@@ 1
Simpson 1
net@@ 0.5875858578805059
Gau@@ 0.5554832301118812
Gén@@ 1
quot 1
Andy 0.8887123992255812
taba 1
tril@@ 1
Euroc@@ 1
judici@@ 1
crita 1
intens@@ 1
propaganda 1
AB@@ 0.8631154562027523
Austin 0.7986217722284662
carbon@@ 1
Gun@@ 0.6489577376167553
oide 1
Diana 1
enga 1
Ele@@ 1
ska 0.7413915605003817
rog@@ 1
ses 0.03822870487799987
ógraf@@ 1
Control 1
Jes@@ 1
Magn@@ 1
Donald 0.7059376824053344
lent@@ 1
auta 1
erle 1
350 0.9013793623177266
ócesis 1
Dav@@ 0.569506428295824
Valley 0.28970214389488913
criminal 0.8141900874095571
³ 1
Play@@ 0.8248336008351881
arist@@ 1
Athletic 0.8256600061609349
Macedonia 1
robo 1
cual@@ 1
incre@@ 1
13.@@ 0.9480943920980098
lina 1
aven@@ 1
Who 0.838769136178335
ámb@@ 1
cristal 1
rever@@ 1
amateur 0.8092742263286895
áz@@ 1
instaur@@ 1
bro@@ 0.35746244104943325
fis@@ 1
simpli@@ 1
tral 1
Lyon 0.6425171491735127
partí@@ 1
pios 1
Jalisco 1
iri 0.7241624651876959
Do 0.6316155681811849
altern@@ 0.90279815824368
ow 0.2167907534431117
triang@@ 1
ays 0.2009117768973382
Det@@ 0.760922419820157
noc@@ 1
tha 0.6907632661794694
IT@@ 0.9313830042658447
Tito 1
bola 1
ural 1
a- 1
ning 0.24313636417573287
emat@@ 1
1858 0.7614271380213861
humor@@ 1
allos 1
xi 1
Adams 0.7558965728877116
Argent@@ 1
da@@ 0.6717743748569017
equi@@ 1
oshi 1
Twitter 1
brica 1
Gur@@ 0.9297250660397468
Chec@@ 1
1856 0.7260874478242834
mult@@ 1
edic@@ 1
optera 1
repe@@ 0.6535540284976002
partid@@ 1
Matr@@ 1
Imp@@ 1
Parroquia 1
uk 0.6131386561880341
vet@@ 0.5825766377864214
agas 1
antigu@@ 1
Anton@@ 1
Wol@@ 0.418213231190718
lando 1
worth 0.3572802819333918
Abraham 1
infl@@ 1
ès 0.3699082229113061
iev@@ 1
Bruno 1
campes@@ 1
British 0.07225652021996284
Paula 1
anticip@@ 1
uano 1
suya 1
Out 0.6143195120646396
enzo 1
manual 1
Dá@@ 1
Soria 1
ight 0.2824869310534879
sar 1
Test@@ 1
ont 0.054706373960704865
baron 1
pau@@ 1
ump@@ 0.4221284647034239
Pseud@@ 1
fat@@ 0.9721265640981419
Od@@ 0.9599722942293482
soc@@ 1
Pontific@@ 1
ass 0.3053761442716066
Gabri@@ 1
orama 1
tori@@ 1
Isaac 1
Nec@@ 1
arga 1
Theatre 0.3362415301369119
Olimp@@ 1
Batman 1
eu@@ 0.4277641252936325
Draft 0.8542203692793342
disciplin@@ 1
Viv@@ 1
perió@@ 1
coloni@@ 1
Tras@@ 1
court 0.1554911590295198
M.@@ 0.6950066994088919
Rick 1
Fru@@ 1
sugi@@ 1
Raw 1
SI@@ 1
atil@@ 1
vin 0.5856950888794821
1854 0.7482993544546394
old 0.0907749906415559
Tec@@ 1
music@@ 1
Atle@@ 1
victori@@ 1
ault 0.3851784853340187
Roque 1
fa@@ 0.24356290676460648
Š@@ 0.6285588532562341
HD 0.8448870537360573
igh@@ 0.29734231544798057
Flam@@ 1
eus@@ 1
yi 0.6065562859809867
Inclu@@ 1
1814 0.9258829695726137
bury 0.47054844308390187
Sonora 1
Bad 0.45717595015178863
aj 0.8228163750804108
embri@@ 1
also 0.013200802863644308
Walker 0.7116506385961937
paci@@ 1
Alice 0.7221453144980112
Clemente 1
Sancho 1
prud@@ 1
1855 0.7449297015428963
ig 0.3296657318810244
Post 0.3488095988243453
inflam@@ 1
Lon@@ 1
tortu@@ 1
Conv@@ 1
singular 1
descu@@ 1
Biz@@ 1
Alaska 0.9358899220894631
Salazar 1
es.@@ 1
40@@ 0.7297356971400224
Ray@@ 1
rat 0.33700411587470175
aster@@ 0.950675416978023
Mid@@ 0.47899982829361276
160 0.8712884236125213
atem@@ 1
Brooklyn 0.7998615961328545
Il 0.023773874068131615
amm@@ 0.31766198135482293
mill@@ 0.6727721698822464
ál 1
Band 0.207891810163083
dij@@ 1
eas@@ 1
Airlines 0.9757218289284122
Fres@@ 0.8278029101158527
Bernard 0.5733140835993824
Caj@@ 1
Fiesta 1
ngu@@ 1
Kiev 1
Comer@@ 1
from 0.0064440852502819475
Kin@@ 0.44418519519480976
Camer@@ 1
Terr@@ 0.9855409661339822
discipl@@ 1
IS 0.7235840533536072
eman 0.4789410264234524
Channel 0.5303967562136741
Bran@@ 0.6742930615777722
Lisa 1
Bac@@ 1
lers 0.21971469995703424
Dro@@ 0.5561186966275993
raf@@ 1
aber@@ 1
Vid@@ 1
Raf@@ 1
chin@@ 0.7365766230201355
uza 1
requi@@ 1
Sara 1
ejempl@@ 1
timas 1
aristoc@@ 1
Jonathan 0.8766408847327708
protoc@@ 1
.000 1
excentr@@ 1
amen@@ 1
controver@@ 1
Marc 0.7048931087250133
corresp@@ 1
Benjamin 0.6813414788963845
poli 1
Francesco 1
Micro@@ 1
Nam@@ 0.6046089149400377
Che@@ 0.670494584727421
Sports 0.37196426362296714
gesti@@ 1
Dance 0.7207931525505801
artic@@ 1
arum 1
Roy 0.7172171138298883
ister 0.3448773001446574
Liverpool 0.6524120210331994
orte 1
sult@@ 1
Ñ@@ 1
subir 1
ctu@@ 1
Harris 0.6900658862576012
Cour@@ 0.38829876991651424
Judi@@ 1
Tim 0.7501758264700216
icana 1
Dave 0.7448182591921969
Monta@@ 1
15,@@ 1
toman 1
Quebec 0.7289473522611053
Laborat@@ 1
Polit@@ 1
ng 0.7707458979410846
Raj@@ 0.42482093989155784
africana 1
o.@@ 1
IP 0.7619932882550662
Biel@@ 1
but@@ 0.38445228488070043
bac@@ 0.624461147131219
ty@@ 0.21217133067924893
Imag@@ 1
Radical 1
ries@@ 1
ectar@@ 1
Him@@ 1
aduc@@ 1
tech@@ 1
tz 0.6164456355468529
fug@@ 1
stone 0.2195992412726194
opo 1
tez 1
cercan@@ 1
14.@@ 0.9520851491706772
israel@@ 1
Carlo 1
CBS 0.783929656342275
Vari@@ 0.6556713670754122
ticia 1
atori@@ 1
vital 1
nan 1
Palmar@@ 1
Chihuahua 1
molecular 1
Congreg@@ 1
sangu@@ 1
óleo 1
Fair@@ 0.5851827622777086
Municipal@@ 1
sensibil@@ 1
5000 1
Gé@@ 1
Fig@@ 1
consol@@ 1
Amér@@ 1
sula 1
aa 0.9802999813902331
ston 0.5370283729874427
1851 0.7548120849267559
New@@ 0.4351508684518228
Hid@@ 1
boy 0.4395931512617254
Jon 1
Normand@@ 1
ocar@@ 1
mira 1
Naz@@ 0.7728283382235003
artifici@@ 1
dri@@ 0.530660241913439
Asoci@@ 1
Parker 0.8913423555390885
Van@@ 0.9508535324350192
CC 0.5915326068569844
Press 0.4588108399510449
subsidi@@ 1
Amazonas 1
Cham@@ 1
coral 1
1842 0.8879868730262713
Ler@@ 1
ken@@ 0.24695330689228867
1835 0.8870973857140542
atu@@ 1
PI@@ 1
stan@@ 1
Coordin@@ 1
folia 1
Berg@@ 0.2743468293100331
UTC 1
Of 0.36549180331959513
õ@@ 1
na@@ 0.8950390241142534
onne 0.348543375321011
Wa@@ 0.5298139273121587
reside 1
conting@@ 1
ocasi@@ 1
imprim@@ 1
Nan@@ 0.9717485675279914
Dead 0.941184628123454
proce@@ 0.5481951856314191
históric@@ 1
Claude 0.5689162736153764
enaje 1
Wayne 0.8776364335098142
Co 0.4085808348516759
Mora 1
Fle@@ 0.6402792302237388
dedor 1
depre@@ 1
Marshall 0.7618313433190621
EN@@ 1
Né@@ 1
bili@@ 1
front@@ 1
Leng@@ 1
Lec@@ 0.9665776812448252
Award 0.13219360615646988
bin 0.44843655134142607
Jacob 0.7149922144655346
Tá@@ 1
lug@@ 1
eonatos 1
Robin 0.9422797020889613
amar 1
Chac@@ 1
risto 1
Rich@@ 0.5862362766995117
Hard@@ 0.6296862277285018
sun@@ 0.4627136037427501
emite 1
Dallas 0.7333450148638797
insur@@ 1
rell 0.8821822253833309
Wo@@ 0.612462851663672
Jeff 0.847364052132742
fant@@ 1
anco 1
Beau@@ 0.5617902269840904
Gav@@ 1
Angeles 0.19423089432327545
atado 1
Rá@@ 1
Gall@@ 1
To 0.19486441903566737
1825 1
uki 1
Cré@@ 1
Exper@@ 0.7373045053666892
ximo 1
Lind@@ 0.5932871299043704
imper@@ 1
Ober@@ 0.1134507821384493
Li 0.6646547500727642
eti 0.8181186125209614
Pob@@ 1
Jus@@ 1
radios 1
Hus@@ 0.6316256311706187
írculo 1
60@@ 0.7790725949357852
fisc@@ 1
Angel@@ 1
bis 0.02255204697471666
Jos@@ 1
mortal 1
Armando 1
ast 0.20524211114405527
ective 0.33780776161382986
uba 1
Sad@@ 0.7600570550675495
Organiz@@ 1
Rog@@ 1
Luxemb@@ 1
AF@@ 0.8318362161753992
ack@@ 0.2447787533839744
nado 1
inflor@@ 1
blast 1
Di 1
Georges 0.5562948136954757
doctor@@ 1
80@@ 0.7859267670445395
101 0.7689309908549156
FO@@ 1
Um@@ 0.19106084157408382
len 0.2113896228033941
NASA 1
Polo 1
Salom@@ 1
Wright 0.7427133822954501
1853 0.7570306350743179
PN@@ 1
Canaria 1
Aus@@ 0.08171593518002697
icor@@ 1
horizontal 1
Zagreb 1
Bis@@ 0.8822639778583267
itali@@ 1
Metropolit@@ 1
cim@@ 1
ogo 1
Be 0.8339982793450724
ovia 1
ç@@ 0.24485612442323787
omer@@ 1
fes@@ 0.8143930953230146
Sher@@ 0.6648877103526756
win 0.11635558631674933
ror@@ 1
Proc@@ 0.975433888796217
Gibraltar 1
Linux 1
Women 0.18608251455715494
sep@@ 1
Golden 0.41448145023634403
inosa 1
PO@@ 1
usias@@ 1
individu@@ 1
colum@@ 1
Omar 1
hop 0.9425526438969442
Bom@@ 0.7396125996343076
jab@@ 1
ns 0.19540350142728632
ilit@@ 1
asci@@ 1
ë@@ 0.6657539958600454
Bog@@ 0.6806711569971403
bina 1
Nobel 1
Pru@@ 1
tín 1
Orlando 1
Restaur@@ 1
geometr@@ 1
Magazine 0.5522510109283063
agona 1
eba 1
iterr@@ 1
Bien 0.7993686877933417
dorsal 1
Ji@@ 0.8312542918382005
Nas@@ 0.7319576234567022
18@@ 0.6419692723421293
dés 1
Global 0.6321522561116847
Leo 0.8667507112654766
Nova 0.8503142128842716
row 0.27907455211431825
Shin@@ 1
35@@ 0.7310347652174625
espect@@ 1
Dre@@ 0.3800701910294572
Barry 0.8786490394322342
deser@@ 1
Lou@@ 0.5752115237322442
Vigo 1
eiro 1
Mac 0.9659193326385107
NE@@ 0.7477771148434557
contradic@@ 1
dis 0.7415690124041282
Evol@@ 1
etc 0.597271631922851
instrumental 1
Idi@@ 1
BC 0.31136551838369353
atum 1
etz@@ 0.39459874421197577
AF 0.7221896530494831
Khan 0.4775604545621904
Mozart 1
apo 1
Potosí 1
acar@@ 1
we@@ 0.14456084379076692
cig@@ 1
ensi@@ 0.6587965436860718
plut@@ 1
Libr@@ 1
Shel@@ 0.8137358371650841
regu@@ 1
transvers@@ 1
ady 0.5289401728999789
fab@@ 1
aper@@ 1
deliber@@ 1
inete 1
viz@@ 1
Inc 1
Lugo 1
plica 1
cide 1
Post@@ 0.455057049749795
interrup@@ 1
Metal 0.897164650993974
Interpre@@ 1
1845 0.7827466092484389
kiló@@ 1
Square 0.5526351707065249
Xavier 1
RS 0.6714411253333452
ambul@@ 1
Best 0.17912646315196704
roman@@ 1
ö@@ 0.14879112507021175
1847 0.7686307254918625
1834 0.8917179230585043
món 1
alif@@ 1
metr@@ 1
UK 0.16275942068831326
triple 1
eth 0.47549717500911537
ventr@@ 1
nh@@ 0.20742020412710477
1852 0.7207553024102906
Baden 0.611111992410529
adic@@ 1
haber@@ 1
partici@@ 1
Ponce 1
https 1
ted 0.0443923264821218
Nog@@ 1
Sali@@ 1
egi@@ 1
iler@@ 1
agin@@ 1
gir 1
dif@@ 1
persist@@ 1
romance 1
empre 1
Delgado 1
Good 0.6316002409914059
tiende 1
amer@@ 0.9549736377639623
Brun@@ 0.8343423358956553
egro 1
Heinrich 0.31322834314332043
ère 0.10238937761900718
aris 1
lax@@ 1
Nak@@ 0.7795837211799933
circu@@ 1
orgi@@ 1
atl 1
Voc@@ 1
entina 1
distingue 1
ucion@@ 1
17,@@ 1
Grant 0.6673765011933773
Lob@@ 1
eni 0.6931616895528108
monit@@ 1
Dark 0.8541649122873807
asar 1
omin@@ 1
frau@@ 1
Beatles 1
Sm@@ 0.6190106195077782
ely 0.09491123827005014
Air@@ 0.5203266582220267
last@@ 1
vierte 1
desemb@@ 1
Circu@@ 1
Emma 1
Lom@@ 1
Museum 0.1475076076597925
ube 1
yan@@ 0.6368058940677503
clás@@ 1
arru@@ 1
ally 0.0513151372933598
éro@@ 0.9304550038811289
1849 0.6733210976304528
Games 0.2175412633864648
Jordan 0.6366388056860514
Venus 1
Lawrence 0.6213160466639117
diam@@ 1
ref 0.5235869188549607
antas 1
erno 1
Alf@@ 1
monot@@ 1
Cordillera 1
agi@@ 1
atle@@ 1
ein 0.01332775873200952
Hun@@ 0.621321576054451
Gold@@ 0.45161404766021085
porno@@ 1
Vati@@ 1
Wor@@ 0.3421296484384098
Sz@@ 0.6587561012206444
ili 0.5775420458759634
Docum@@ 1
diagnos@@ 0.8439524234966478
rique 1
MO@@ 0.8407109624730577
This 0.030598320032533842
Meridi@@ 1
Expedi@@ 1
Prec@@ 1
ganad@@ 1
ep 0.3173101402494566
vi 0.569814958372126
extranj@@ 1
Fro@@ 0.825289191093505
North@@ 0.44756697281007085
plasma 1
engu@@ 1
porte@@ 1
japon@@ 1
Canc@@ 1
ī@@ 0.6482761892400227
kil@@ 0.761843721177126
preval@@ 1
tz@@ 0.8983936974121104
Aé@@ 1
onn@@ 0.1907672083805783
Te 1
hong@@ 1
iras 1
unca 1
Girls 0.699139742162281
amaz@@ 1
mería 1
Port 0.3512511824464806
hy@@ 0.2660290964009629
mortal@@ 1
gres@@ 1
2.000 1
Say@@ 1
Pand@@ 1
males 0.4394768828912202
NBC 0.7378910687102885
201@@ 1
robus@@ 1
MC 0.7034712906174131
minis@@ 1
Jazz 0.5460158922188043
oven 1
Boeing 1
æ@@ 0.7165171906602723
umi@@ 1
Academy 0.16206610855992473
Bra@@ 0.6867669268819737
Charlotte 0.6237883261291994
dale 0.5207302733024523
dimi@@ 1
intermedi@@ 1
1824 1
tier 0.2795340408078668
aut 0.30713449621412897
ilde 1
reh@@ 1
1836 0.8171064049404739
Gh@@ 0.53012736241859
avent@@ 1
arte@@ 1
ask@@ 0.6279116552477246
Pier@@ 1
dad@@ 1
Norm@@ 1
titudes 1
Zh@@ 0.7826397719364022
Arau@@ 1
Ton@@ 0.5432373787461198
bit 0.33975987167678584
Cé@@ 1
territoriales 1
acat@@ 1
Robinson 0.696825127987321
ann 0.45654388015767405
Port@@ 1
aus 0.01908546533336277
air 0.12491250762611894
Cooper 0.8148881049353845
Manchester 0.42160253368239003
Renault 1
agonal 1
Pér@@ 1
ovich 1
losa 1
plaz@@ 1
Palmas 1
kin@@ 0.4481126074572543
deu@@ 1
Hér@@ 1
Dul@@ 1
vierno 1
Rég@@ 1
Zel@@ 1
actr@@ 1
hipo@@ 1
óptero 1
Inform@@ 1
Crimea 1
360 0.9247124633106928
Sid@@ 0.889894939775185
wal@@ 0.235123090391315
ag 0.4337676364999043
interrog@@ 1
Ig@@ 0.8104955981131131
riz 1
Albania 1
Thor@@ 0.6419533693529752
atorial 1
Sea 0.3221683138331592
maz@@ 1
puer@@ 1
tic 0.1341641081351459
mezc@@ 1
Faus@@ 1
Chic@@ 1
tier@@ 0.7787239079179983
Jamaica 1
Francis@@ 1
Mez@@ 1
Mau@@ 0.6640095572975788
1823 1
ensor 1
haz@@ 0.9573971727060248
ingi@@ 1
lés 1
Ecol@@ 1
ble@@ 0.5712026711223094
indu@@ 1
Point 0.40545354312304316
Chiapas 1
tino 1
consci@@ 0.697272574380667
Mér@@ 1
pit@@ 0.48554582568749083
ords 0.5287669305452758
criti@@ 1
visibles 1
vill@@ 0.7243169057400333
Caz@@ 1
Telev@@ 1
chor@@ 0.4428652647469522
L.@@ 0.8529568425543491
Harrison 0.8181428039556667
venti@@ 0.6847296381021339
Chal@@ 0.9421621499868679
gon@@ 1
yes 1
16.@@ 1
1846 0.7282786225520858
Vé@@ 1
absorb@@ 1
Anim@@ 1
ker@@ 0.29829203860612
1837 0.7871842061467801
1839 0.8160847496128698
HMS 0.7741703176247585
anger 0.4028728972979535
aficion@@ 1
distr@@ 0.8788691336597431
conson@@ 1
gs 0.35233043300807515
tren@@ 1
CO 0.8082402676155457
minim@@ 0.8784270685354173
Scar@@ 0.8129224098650566
teres 1
Lun@@ 1
even 0.11083694146731773
Ze@@ 0.35944781825150585
è@@ 0.2936329340050942
Labor@@ 1
J.@@ 0.7844322447982491
Educ@@ 1
Kel@@ 0.4633125766199188
sella 1
departam@@ 1
Java 0.9938573961870875
hex@@ 1
Alabama 0.5567323697155536
Colombi@@ 1
Octav@@ 1
ents 0.07330818970320103
town 0.0669770522264606
Cali@@ 1
Maurice 0.5680332525805002
Way 0.6940306430308244
Ec@@ 0.5599700968830972
ness 0.13715427060069887
Inst@@ 1
ark@@ 0.25938317414643386
petr@@ 1
Basil@@ 1
Philip 0.5191145198988516
UFC 1
aurus 1
opsis 1
Escal@@ 1
Gary 0.7372013444229994
Ach@@ 0.40511344305377134
cach@@ 1
CE 0.7297962283350684
pedia 1
Steven 0.9544026338992377
aha 0.6106576586463731
landes 1
univers@@ 1
Play 0.6842347691586792
obi@@ 0.8430873221986829
formul@@ 1
garr@@ 1
insig@@ 1
Prin@@ 0.9068873671027079
kan@@ 0.2927327812300214
inqui@@ 1
Malta 1
System 0.264417552501069
Provin@@ 1
ding 0.1816564089580187
file 0.8839763016370051
nes@@ 1
feud@@ 1
problem@@ 1
fragment@@ 1
aye 0.5249578814642478
cher@@ 0.4045476055922833
Fot@@ 0.7482692011371563
Cecilia 1
Honor@@ 0.984194198950813
Homer 1
Montenegro 1
gast@@ 1
della 1
blues 1
Down 0.8204564887554259
oo 0.574343808528402
mom@@ 1
Tot@@ 0.9132076381539991
Sto@@ 0.4386675761901596
Stanley 0.6296295063203926
visu@@ 1
antic@@ 1
Thi@@ 0.5281547701829964
plana 1
1844 0.7832112523329892
princip@@ 1
urus 1
Gra@@ 0.7332420542516626
aller@@ 1
Gig@@ 1
gall@@ 1
1815 0.7045572917152774
Princ@@ 1
Jard@@ 1
angél@@ 1
ritual 1
teria 1
independ@@ 1
mania 1
metropolit@@ 1
Ning@@ 1
Observ@@ 1
ulla 1
Ed 0.9434433788213467
15.@@ 0.9499445385347298
AA 0.5354345768770549
bran@@ 0.6884202137539399
Yan@@ 1
pét@@ 1
Superman 1
Crisis 1
Hin@@ 0.3002481631197269
atra 1
mud@@ 1
key 0.19685392567017873
bul 1
Gü@@ 1
Patricia 1
CH@@ 0.5194416035837871
ft 0.16155068338511597
tion 0.05919001789969725
yu 0.9794738718127021
wan@@ 0.42083159059767805
Giuseppe 1
Garden 0.6499869673007244
Rep@@ 0.9824878801462557
Kl@@ 0.2787805396043021
prác@@ 1
Mant@@ 1
OTAN 1
Iv@@ 1
750 1
Iron 0.7383979114186542
numér@@ 1
Cov@@ 1
Murray 0.6502437299767824
Perry 0.9388798174802752
Krasno@@ 1
Vlad@@ 1
Memorial 0.446692865723314
Baz@@ 1
oros 1
Resist@@ 1
105 0.8294441226128765
rie 0.5429457569126779
cardi@@ 1
Triple 1
kur@@ 0.32098069526250506
ibo 1
oth 0.3393968871144679
Lad@@ 0.642803073242734
titu@@ 1
té@@ 1
duplic@@ 1
uria 1
Dig@@ 1
Tier@@ 0.8069054402819361
audiovis@@ 1
yl 0.3238043154621385
DO@@ 0.8416211567165736
roles 0.3834135965230335
emo 1
vend@@ 0.8459709143717122
lum 0.5248117560823529
alina 1
Seattle 0.613058501372892
Bow@@ 0.516721493557824
odon@@ 1
jef@@ 1
Fom@@ 1
War 0.05936710879451554
EA 1
Moon 0.7149710564326942
Silv@@ 1
chen 0.11933750883251999
Great 0.16858939843099197
aque 1
1811 1
1838 0.7724688839315496
Madison 0.898035326420184
Fantas@@ 1
Jay 0.8208314500966895
Graham 0.6919174047453929
ament@@ 1
lard 0.5209867055042146
posa 1
Town 0.24643845739727518
laur@@ 1
cump@@ 1
emerg@@ 1
fum@@ 1
hockey 0.3551767761318242
ris 1
aseg@@ 1
ř@@ 0.5483711606906219
Trump 0.6297727794418969
itis 1
Ple@@ 0.6929166858454033
ga@@ 1
Hat@@ 0.6387172099682021
What 0.49973907559587566
satis@@ 0.6725194705062548
aine 0.2445399976063926
kov@@ 0.7097380737170652
metal@@ 1
Dani@@ 1
Kent 0.6230202735787268
Tag@@ 0.7098364454140826
umo 1
trom@@ 1
1200 1
deter@@ 1
Munici@@ 1
Cost@@ 1
Thompson 0.6284641556888058
vers 0.07588954795201097
Higgins 1
Tennessee 0.44391277365831977
Pens@@ 1
radial 1
borough 0.379528726211113
cus 0.6522140543455044
Heart 0.6522611552192935
allar 1
Nicolas 0.5716408500558643
lut@@ 0.9284499352010853
ust 0.2835552860670471
1841 0.7652529154251979
sed@@ 1
uh@@ 0.5462762410504629
embre 1
Vila 1
Ibn 1
bala 1
CIA 1
analiz@@ 1
Moh@@ 0.5665535940107209
nutri@@ 1
Atlas 1
Fiat 1
ku 0.7309757491009994
tos@@ 1
pet@@ 0.7702587615976838
pig@@ 0.9782394164902263
sentir 1
AG@@ 0.8505985182621845
Oce@@ 1
Hidro@@ 1
Clinton 0.8220297510197057
The@@ 0.24068876509895362
dispos@@ 0.6108923496944029
declin@@ 1
the@@ 0.17078070286931474
Facebook 0.9084329181523005
avo 1
Guadal@@ 1
Campbell 0.6392781199031774
Caus@@ 1
lante 1
monumental 1
1822 1
hosp@@ 1
atmos@@ 1
€ 0.70051001813549
tang@@ 1
compatible 1
dose 1
Science 0.21847465909981786
Brasil@@ 1
Gom@@ 1
municipal@@ 1
Comple@@ 1
evos 1
F.@@ 1
rent@@ 1
Television 0.45740650850665726
desambigu@@ 1
grad@@ 0.7617437836936127
Studio 0.5314388776096779
Orange 0.6766208177995309
Xi@@ 0.7953458380109417
Division 0.09198499781841475
esi 0.3744214273069041
ois 0.33729070354966156
aina 1
compatri@@ 1
infra@@ 1
Margaret 0.5415422710136972
Castel@@ 1
prac@@ 1
Ian 0.7494887773256715
Oklahoma 0.5531608419123347
Edgar 1
Spin@@ 1
gil 1
írit@@ 1
exclusiv@@ 1
kins 0.7244170704887292
Austr@@ 1
Mix@@ 1
piz@@ 1
Hudson 0.8068944245504825
anth@@ 0.5250160646569338
CON@@ 1
shows 0.18631751808410416
Fen@@ 1
Mom@@ 1
Turner 0.7707801631282353
íritu 1
1843 0.7739238600183674
permanentes 1
dra@@ 0.31615794576518397
Och@@ 1
Bun@@ 0.6666098064075422
Japon@@ 1
thr@@ 0.3666745070167877
enz 0.23267167862521904
Sever@@ 1
hep@@ 1
Jerry 0.857492707317873
Liv@@ 0.6752798405000512
zu 0.011827665509981277
Stalin 1
apor@@ 1
Emer@@ 0.6007696451516049
intim@@ 1
Ever@@ 0.7624409371932037
Ech@@ 1
Goya 1
Stewart 0.6115596912085414
comport@@ 1
Chir@@ 0.9789588320940042
encer 1
rana 1
ough 0.2954617922195413
Sot@@ 1
Civ@@ 1
As 0.04579436920854341
Vincent 0.5768152134278225
cipi@@ 1
är@@ 0.1790204217953798
Perci@@ 1
equili@@ 1
time 0.019441061576907004
ulas 1
Madagascar 1
feld 0.24408206692848153
soy 1
LO@@ 1
Terry 0.8851678767711733
tour 0.11649751451561291
cules 1
Gros@@ 0.7898135839205298
Porto 1
Bour@@ 0.4849759327887009
sid@@ 0.6259630148500116
onc@@ 0.8486229584876614
Opera 0.6020678608945467
Univers@@ 1
escape 0.5821077234516913
1808 0.9492683671485654
Influ@@ 1
ols 0.22117823757560945
reson@@ 1
cut@@ 0.4145394913230413
has@@ 0.4680825405950625
1813 0.8321650150158632
Cret@@ 1
Space 0.4640613172037878
VA 0.913432644677266
Ludwig 0.35999699973171
Melbourne 0.40803459369197237
isi 0.41545891891824105
ów 0.42248109431279396
sil 0.9822843047802996
Maryland 0.44606130413368794
Stadium 0.3235618861757135
urs 0.172720321363859
Shakespeare 1
curios@@ 1
H.@@ 0.883787103392364
Vidal 1
rif@@ 0.7740628624513292
Sup@@ 0.5182896566823951
sten@@ 1
Arkansas 0.6473043016201614
mandos 1
solid@@ 1
Jefferson 0.9022405698968267
permit@@ 1
electro@@ 1
maj@@ 0.9224788427601404
Eddie 0.9376093095053507
17.@@ 0.9458245438705799
Deleg@@ 1
Phoenix 0.8019642092485925
segreg@@ 1
orn 0.5127665653500544
imento 1
estes 1
Continental 1
Vista 1
Brothers 0.6167429067371589
bó 1
gay 0.8325978687616876
war@@ 0.08442261265562577
Cron@@ 1
Cleveland 0.567572343280399
Sas@@ 1
tago 1
Lot@@ 0.6676961374292236
Baby 0.9458933024024919
eller 0.23506989400408232
ape@@ 1
divin@@ 1
dita 1
ux 0.3723860001745059
Ses@@ 0.903400933802127
ald 0.49313476706949766
invers@@ 1
Dami@@ 1
xo 1
ović 0.756556262624194
ulia 1
ég@@ 0.31036630649039093
Dylan 1
oko 0.9673476534447142
Death 0.36606516719689625
Dy@@ 0.8894697227421945
aç@@ 0.5521109240774812
herman@@ 1
Mog@@ 1
Consul@@ 1
Copenhague 1
Honda 1
dign@@ 1
AG 0.34114257060511743
yg@@ 0.5622276746727612
cun@@ 1
radar 0.9623582139772916
Pent@@ 1
topo@@ 1
B.@@ 0.5806019750171254
Guy 0.6411467305200375
Sky 0.7262196486315182
450 0.9007292904998625
Eu@@ 0.9008905581220099
respirat@@ 1
Beng@@ 0.7698475919131208
Boc@@ 1
sentim@@ 1
Cli@@ 1
ien@@ 0.7800889627811589
ry@@ 0.7057562227736656
Challenger 1
panel 0.8792406615530884
Local 0.6009598032732868
umba 1
orno 1
een 0.49183647090181387
1600 1
bs 0.19365735089604022
piter 1
Rat@@ 0.5914711607826423
Dim@@ 0.8797554345413504
diagr@@ 1
económ@@ 1
iti 0.6574402044433887
Onthophagus 1
TO@@ 0.9616770605063688
andi@@ 0.5254324731897878
tof@@ 1
Milit@@ 1
Tib@@ 0.8686752084949699
semi 0.28521404174534276
thi@@ 0.38856153448837627
concurr@@ 1
lex@@ 1
Bob@@ 1
1826 0.8832319051687831
Utah 0.6523323351373709
mona 1
Bush 0.6885495376594053
incen@@ 1
Sn@@ 0.7890909653457361
Cook 0.7811805856699338
Ferrari 1
telec@@ 1
Cach@@ 1
copal 1
oid@@ 1
files 1
Alar@@ 1
zz@@ 0.5604828587009605
Quil@@ 1
Conqu@@ 1
ça 0.7325292783172898
Rid@@ 0.5696137008308131
anor@@ 1
BM@@ 0.785714680741759
claves 1
opin@@ 1
polar@@ 1
Green@@ 0.5257681382103502
sax@@ 1
Cou@@ 0.5438297882932174
Ferrer 1
métr@@ 1
uni 0.7456094191500215
Sl@@ 0.6051636486921806
ae@@ 0.8374643947062779
Ann 0.6157848693426644
diab@@ 1
homo@@ 1
ail 0.1978452489264176
Claudia 1
Bach 0.6952268582776874
Lap@@ 0.9234765273190383
Sap@@ 0.9544188865032927
wi@@ 0.3386620134160358
Pan 0.7377781345312198
Amad@@ 1
oux 0.5730927608156209
pastor 1
Budapest 0.8813460222907955
otti 1
reli@@ 0.5089125517134927
USS 0.6982298656163526
Baj@@ 1
Apr@@ 1
BO@@ 1
egio 1
Norman 0.6147709801901737
Pepe 1
IP@@ 0.8464152034632617
tio 1
oke 0.4264500929789209
Om@@ 0.598237541830591
tw@@ 0.17643782038824332
yd@@ 0.4665915361714367
Nancy 0.7855404228316126
oda 1
ayos 1
Sah@@ 0.7738907713146694
chan 1
shire 0.3088351967587859
Epis@@ 1
tac@@ 0.4527987358027323
val 0.49153988050826286
Rock@@ 0.6398913296725423
cogni@@ 1
XX@@ 1
bias 1
Evans 0.6942477093179047
acomp@@ 1
vik@@ 1
Ontario 0.3111618720241882
Gaz@@ 0.7988696812129196
adia 1
Gilbert 0.7618324614106428
Sound 0.574538693900371
â@@ 0.28083050316141533
Pereira 1
din 0.5090762788860157
uss@@ 0.3092038666071881
Angola 1
aul@@ 0.41055016284632984
Urban@@ 1
ofer@@ 1
P.@@ 0.9906180399911608
ballet 1
Cór@@ 1
Sucre 1
inge 0.5164943537088634
Disco@@ 1
Songs 0.5117634270718715
Delta 0.8814212703303564
skaya 1
Kate 1
Spe@@ 0.2875065536886627
atis 1
Express 0.5095173034768401
Dum@@ 0.6984305924359173
wan 0.5290028597309872
lip@@ 0.8335232745214168
lex 1
lee 1
Last 0.6276508301916667
judi@@ 1
1829 0.8270425483409151
Wit@@ 0.4292579452528861
ázquez 1
TS 0.7474574388529288
uck 0.3487001946923567
Cen@@ 1
macro@@ 1
Art@@ 1
Latino@@ 1
igr@@ 1
Pay@@ 1
siti@@ 1
bern@@ 1
alien@@ 1
ostr@@ 1
Chart 0.6225248873345743
Pag@@ 1
anne 0.6152764181699885
Map@@ 0.8388431556454236
Instruc@@ 1
Fred 0.6459463660754106
polar 1
Catalunya 1
oba 1
ms 0.16186342574580698
Toc@@ 1
nov 1
trig@@ 0.8920074531824927
Cairo 1
RT 0.6467652510335741
EM@@ 1
Ok@@ 0.4742572869226668
Shang@@ 1
Has@@ 0.5056911462189173
funeral 1
Vul@@ 0.847079874352611
1831 0.7479934179649486
ues 0.23930761975561263
Andre@@ 0.9639014389026561
Dub@@ 1
18,@@ 1
Blu@@ 0.48163988807692865
Yu@@ 0.9859537073535423
ples 0.34579243288833683
codice 0.6138576495692345
Rud@@ 0.7135919579875185
ron 0.6812876034762856
GP@@ 0.9374881599578231
hardware 1
inaugural 0.8330828510676271
County 0.04636281728618211
Sha@@ 0.8244825203738247
Negr@@ 1
cana 1
Marx 1
cua 1
Intro@@ 1
USD 0.913087044768379
Mord@@ 1
Ernst 0.4003101756269869
ike 0.37081525835489987
n. 1
Wh@@ 0.4017401368748097
Phil@@ 0.43489861539758246
1828 0.8027780682658114
Adolf 0.6144214904384284
Reich 0.5111753872982089
Just@@ 1
Ron@@ 1
Kos@@ 0.5277642017557677
Pant@@ 1
iformes 1
Latin 0.2647259408202476
ort 0.2859886694301907
Ja@@ 0.9916156382511612
Rav@@ 0.6481661271389676
eman@@ 1
Tales 1
ward 0.1821049559758688
Danny 0.9687082148026268
3.000 1
ocer@@ 1
zur@@ 0.7792122767347385
LGBT 1
ks@@ 0.24567612006261955
Defin@@ 1
Wur@@ 0.6759440814713296
miz@@ 1
120@@ 0.8378809231673384
colas 1
Ley@@ 1
Morris 0.6506035459227438
hard 0.2737947173900214
inia 1
20.@@ 0.9675887597238487
ew@@ 0.23438280619869195
1832 0.7025203952660269
Bond 1
Georg 0.3354150788167004
Cuer@@ 1
Herbert 0.5540551747930677
Acc@@ 0.7500927866811986
Musical 0.8862834459839612
Da 0.215111162080528
protestante 1
PP@@ 0.9540752218283779
dal 0.9239240117041939
gala 1
3,5 1
Gel@@ 0.33384769890274296
ndi@@ 1
imonio 1
alen 0.20287381389732295
He 0.009098815557676282
Bobby 0.8301168328425695
ave@@ 0.5075804643789161
rap 0.9502788586936985
past@@ 1
Bundesliga 0.5165705306163056
jed@@ 1
ures 0.1684183759489285
Research 0.19243773492493174
enko 0.8859047621456666
alpa 1
osh@@ 0.8702867736284216
cela 0.4853231930854763
ulan 1
Baker 0.6418587176652181
Kentucky 0.4491726044605401
pand@@ 1
tiller@@ 1
Wagner 0.8484336228150501
elem@@ 1
islam 1
alus 1
coin@@ 1
cár@@ 1
travi@@ 1
Japan 0.11484456946933433
tona 1
Ye@@ 0.7806573638468861
infer@@ 1
Nikol@@ 1
Xbox 1
grec@@ 1
nch@@ 1
daf@@ 1
metabol@@ 1
Compl@@ 1
For 0.0697372592153088
X. 1
our@@ 0.23183887512371987
releg@@ 1
iria 1
That 0.22086592288305282
Light 0.4504722079259836
Yar@@ 1
Nebraska 0.8613081953576187
ina@@ 1
persu@@ 0.8167753569301042
Day@@ 0.7003868633870387
lep@@ 1
teg@@ 1
trán 1
18.@@ 0.9377761421034798
Ma 0.7308482236492637
éri@@ 0.2680410486829057
Michelle 1
Zen@@ 1
sy@@ 0.30978875442934345
Netflix 1
Palermo 1
Warren 0.6907042472196478
pé@@ 0.82994890428849
Muhammad 0.6431590805877896
dedores 1
Good@@ 0.6353413264180731
zam@@ 1
lock 0.4118752388746633
ónima 1
Get@@ 1
Gold 0.2913393564844762
confront@@ 1
ecti@@ 1
oker 0.7230309888667944
An 0.08498078903452337
CP@@ 0.6588598000618969
DI 1
ense@@ 0.6172313311800637
s.@@ 1
inhib@@ 1
Clo@@ 0.921255718597493
dium 0.5440903314805571
Vancouver 0.6174497265093963
incer@@ 1
Stu@@ 0.3521362084973516
enten 0.25540943940717376
Nem@@ 1
Py@@ 0.703761473269257
reti@@ 1
esh@@ 0.3417554348388898
aniz@@ 1
Anth@@ 1
percus@@ 1
introduce 1
36@@ 0.780611461845894
Masters 0.6727919479783405
kel 0.28935931578910407
First 0.11624754983839179
EL@@ 1
Rou@@ 0.4949941011092653
ennes 0.23432759548213158
Guido 1
Helena 1
sang@@ 1
reto 1
Kurt 0.7115546330657714
Back 0.6471872048518361
Neil 0.8017993550735447
ager@@ 1
sist@@ 1
46@@ 1
Force 0.1637651767165123
fé@@ 0.967450448411201
Aurora 1
acan 1
trol@@ 0.5757760218087014
chim@@ 1
oku 1
Benedic@@ 1
Dion@@ 1
SE 0.8532197376773087
sacri@@ 1
abi 0.8851933286577907
utor 1
SN@@ 0.8550605718255159
ther@@ 0.16818355197377577
Tommy 0.8776874661234965
enclat@@ 1
olar 1
ocolate 1
34@@ 0.763956343590571
ader 0.3080112215601402
Tun@@ 0.6520727972134022
ínsula 1
Connecticut 0.49932348237647545
Grace 0.8440304594786961
opti@@ 1
Phil 0.7674285675192756
Solar 1
F.C. 0.6838425814975981
hind@@ 1
electrom@@ 1
bon 0.36045469581547734
cabec@@ 1
GP 1
IE@@ 1
ovi@@ 0.8486531622229233
33@@ 0.7284135922126354
37@@ 0.7946128939007663
Arnold 0.6706494165474391
abul@@ 1
off@@ 0.13004335082450805
caric@@ 1
AV@@ 0.8302089182181033
Pref@@ 1
Roland 0.8973205832113493
Aj@@ 1
Ox@@ 0.714732710319631
Dean 0.5588590194617248
May 0.042256739061753104
aller 0.2391828310200529
rin@@ 1
Aleg@@ 1
RT@@ 0.6854951419390827
Vor@@ 0.060940670307822506
19,@@ 1
SS@@ 0.5473446664107223
Tu 1
resur@@ 1
Zu@@ 0.592787737070918
Arsenal 1
tens@@ 1
Out@@ 0.41580184348740107
IF@@ 0.8592332485577753
Gamb@@ 1
Web 0.9200313477669809
mach@@ 0.5408694887512734
bay@@ 0.814806171812067
izquier@@ 1
Dragon 0.8525858378186217
audit@@ 1
Hills 0.552403563875689
Master 0.3081669926028849
SmackDown 1
oscop@@ 1
IBM 0.9184303524670204
Bic@@ 1
over 0.02382176549775864
Atl@@ 1
Cyprin@@ 1
Gul@@ 0.6070111111969242
Like 0.3494522792748774
Contin@@ 1
edras 1
20,@@ 1
Sob@@ 1
bad 0.413041381386822
Line 0.2069443992980414
Story 0.6404280212130351
Avenue 0.26334999015861454
superi@@ 1
Pico 1
Sist@@ 1
acres 0.7438654856516655
ck@@ 0.30394127148552
etim@@ 1
eh 0.43060623965871375
espos@@ 1
kan 0.4732540871316112
alli 1
Larry 0.8376793243431585
Prepar@@ 1
diese 0.09546345303867762
Bug@@ 0.9248355209482582
odon 1
agog@@ 1
− 0.29376366238268753
Bella 1
pora 1
temp@@ 0.7909608161353315
isio 1
Champ@@ 1
lende 1
Liz@@ 0.82063226418614
odo@@ 1
Dra@@ 0.8524269632596245
Sky@@ 0.8578425736264215
avi 0.8505414035953096
app@@ 0.2174286064448799
sch 0.18137979869286752
afor@@ 1
ants 0.0507022717091417
eler@@ 0.9417947172093333
ime@@ 1
Maine 0.532133897421405
facil@@ 1
sales 0.3739365247269994
múlti@@ 1
ARC 1
Shu@@ 0.8228393523598043
dial 1
Hog@@ 1
hereder@@ 1
illi@@ 0.4118508494276465
ionales 1
ME 0.8957553373309793
Newton 0.8549806012431859
Farm@@ 1
line 0.04776057868600902
Matthew 0.6121704912367957
UNESCO 0.8455876996752981
portu@@ 1
ê@@ 0.2858261552666412
Sri 0.4032402379658272
finanz@@ 1
dh@@ 0.33536694425892855
Harold 0.7739514173116575
ires 0.2813829036803922
racial 0.5501294128199942
nier 0.3204082571472915
atri@@ 0.6635007694796831
Leon 1
bud@@ 0.8960082670869876
rej@@ 0.5021382945330157
DT 1
owski 0.6142527041360986
ES 1
Financi@@ 1
Normal 1
Tah@@ 1
obia 1
Had@@ 0.564125318961339
imbo 1
ever@@ 1
Déc@@ 1
omar 1
š 0.6923799630881993
Stars 0.5661735538789956
rist@@ 1
Beg@@ 0.3884842713841765
orig@@ 1
Walt 1
own 0.05973903105447609
Capr@@ 1
vibr@@ 1
gy 0.5064560593485606
uva 1
Dream 0.808845202167478
fó@@ 1
iss 0.5085650919358655
adém@@ 1
aden 0.3334259595786359
longitud@@ 1
ios@@ 1
ités 0.2260437578730058
ulosa 1
Gem@@ 0.4470440778943736
Pompe@@ 1
Ny@@ 0.6474718198306673
Sonic 1
Resol@@ 1
my 0.19870006003436982
og 0.5413772593833183
Cay@@ 1
presu@@ 1
Antigu@@ 1
Dres@@ 1
coma 1
Contro@@ 1
Building 0.4165970812093682
Program@@ 1
didae 1
Siberia 1
berger 0.29805421171057744
Mariana 1
mites 1
O.@@ 1
áce@@ 1
Antoine 0.5565096452041512
mia 1
agar 1
ilan 1
GT@@ 0.880371177048048
hél@@ 1
Desarr@@ 1
low@@ 0.3138904038018802
oleta 1
EF 1
Ball 0.706211832154032
Plate 1
Rh@@ 0.5276708088702404
Ná@@ 1
Ide@@ 0.9715278855094311
Max@@ 0.8438496210912698
1816 0.7765990980580586
partam@@ 1
Santi@@ 1
leo 1
Sebastian 0.8276498535586266
Raim@@ 1
indo 1
imi 0.6138432215557936
erer 0.5619144028389031
hibe 1
bek@@ 0.3678608415123456
Gon@@ 0.9974974407585301
zen 0.1316286467062446
crá@@ 1
Cerr@@ 1
45@@ 0.7570071057875863
Films 0.5153732770306324
ive 0.5513432373604852
Liter@@ 0.9131780701733044
Wood 0.5361345771785214
borg 0.8087034942389955
1817 0.8392600932734495
clim@@ 1
pers 0.3123207077438112
Dante 1
sand@@ 0.4055867416010295
grano 1
Equ@@ 0.8922140044579985
Jon@@ 1
extin@@ 1
trim@@ 1
oc 1
Baltimore 0.5206367502825759
Elo@@ 1
Serena 1
ï@@ 0.17511518700335804
ations 0.02299616003605529
Miles 1
ye@@ 0.3263851093582883
sw@@ 0.13417173042626496
Raymond 0.590294768526701
Tod@@ 1
Kot@@ 0.6755345315884481
Palm@@ 1
Sean 0.9551576620918704
gua 1
Satur@@ 1
aph@@ 0.4287069643849586
playoffs 0.8005253243811788
Run@@ 0.5041403577976661
Hermann 0.43583479898278377
util@@ 0.806429255274506
Land 0.14859379987119478
Tan 1
Bail@@ 1
dominic@@ 1
ett@@ 0.24891776728120624
bach@@ 1
lance@@ 1
anaj@@ 1
anova 1
ana@@ 1
bet 1
cy 0.36828785006774606
salm@@ 1
cruci@@ 1
Histori@@ 1
ord 0.4080362490452142
Mongolia 1
Rita 1
distor@@ 1
Conference 0.21712908145587037
Rig@@ 1
Peg@@ 1
Gand@@ 1
unter@@ 0.0895805850311861
za@@ 1
Clem@@ 1
igual@@ 1
udan 1
1819 0.8558122502319804
han@@ 0.5196749605206079
tades 1
oka 0.8662513216491016
Nazar@@ 1
delta 1
dent@@ 1
arom@@ 1
carbur@@ 1
Hav@@ 0.4711932678818234
T.@@ 1
alles 1
Mitchell 0.6247799574012123
lez 1
destro@@ 1
Jal@@ 1
Lane 0.5524293445110335
Roman@@ 0.426932291670992
idal 1
o- 1
notori@@ 1
actus 1
Chan@@ 0.8655233817646938
115@@ 0.8319377532010577
iterráneo 1
Pietro 1
lati@@ 1
osoma 1
spe@@ 0.29949091657082155
elly 0.6773793036140284
Expl@@ 1
Guil@@ 1
placer 1
Matil@@ 1
Soccer 0.710657608898374
ici 0.4308348519590663
cem@@ 1
Martha 1
Nos@@ 1
gresa 1
itt 0.4866772385044243
Fire 0.45588860506413276
Trav@@ 0.522344686629167
Family 0.2600998263753905
River@@ 1
kat@@ 0.36707467347883405
Pich@@ 1
Mack@@ 0.7708609070673506
Susan 0.8319442756855168
Luigi 1
Nicol@@ 0.9371950204794735
hus@@ 1
alo@@ 1
Amy 1
Café 1
jon@@ 1
MS@@ 0.5970827245202107
Multi@@ 0.7575396661150297
Pass@@ 0.34115548897072867
Leipzig 0.37275105102835804
ago@@ 0.7634640584987165
asp@@ 0.9751772646060325
Bá@@ 1
Herzegovina 1
Hesse 1
Const@@ 1
dum@@ 1
revi@@ 0.9839873922596036
Bart 1
creci@@ 1
iche 0.4850705242220613
170 0.8519892087454211
Sainte 0.41241427095479954
iral 1
UE@@ 1
Row@@ 0.5581133042703871
estri@@ 1
alist@@ 1
pol 1
dre@@ 0.18645252752753988
aleta 1
fología 1
bares 1
ling@@ 0.5738712739875618
Selec@@ 1
Tat@@ 0.6042685071253526
abdom@@ 1
Ken 0.7546584700733663
remoto 1
João 1
mac 1
ment 0.04702249192416397
19.@@ 0.9087218376496558
Lloyd 0.6505709908139431
Lus@@ 0.9651602928207751
Teh@@ 1
bero 1
sech@@ 0.973372371502699
End 0.5212750812150806
Haz@@ 0.659846533813556
day 0.0446638547669461
adier 0.7591358384135007
tula 1
éli@@ 0.47503839700058315
responsabil@@ 1
privil@@ 1
Bit@@ 0.6526818680751543
Dou@@ 0.39282230683330605
buc@@ 1
insul@@ 1
21.@@ 0.9590601222929271
uchi 1
Barbara 0.5011579649266994
Blues 0.5849728495505959
Kap@@ 0.29621821699432876
decre@@ 0.4323123272610064
pseud@@ 0.9692347892559788
Law@@ 0.423462912848837
Roosevelt 0.8016084842446567
1809 0.8126582167385535
Dé@@ 0.2561341442163358
Amaz@@ 1
acias 1
horizont@@ 1
sensible 1
Int@@ 0.6353698740277164
ful@@ 0.46841395884901915
38@@ 0.7107223291923129
album 0.028216305947413475
xico 1
hormon@@ 1
Ceb@@ 1
Joaqu@@ 1
Two 0.1518290293812226
Pinto 1
hist@@ 0.9529927081234325
nev@@ 1
Islam 0.5532032543382762
verd@@ 1
ery 0.19819066737560528
ior 1
ò@@ 1
country 0.07410356127606656
hibi@@ 1
1827 0.8031049708553281
Edwards 0.7784496079967056
II@@ 0.7144878504414549
Campus 0.8312447191487319
verb@@ 0.5302287740704219
zh@@ 1
Spor@@ 0.6932309357941461
acular 1
Cross 0.2897648966799784
gris@@ 1
Mang@@ 0.5789211056804829
obe@@ 1
Marino 1
DI@@ 1
com 0.8309113093077376
1.5 0.6095980828363724
Lamb@@ 1
enarios 1
Summer 0.16856564071178864
oval 1
Frederick 0.41177425011127405
ost 0.2595958920542487
you 0.13397123780277495
UC 1
apata 1
hip@@ 1
istic@@ 1
lau@@ 0.38568581071428193
Helsinki 0.9601785057890042
Europ@@ 0.38154954650114015
Zor@@ 1
horiz@@ 1
monstr@@ 1
2.0 0.9131291228787171
Daily 0.5313681710252798
afe 0.9064062079007144
lemente 1
ony@@ 0.546249456744181
kal@@ 0.2200634889980688
star 0.19135945549790198
Euc@@ 1
Ey@@ 0.9506643115119432
digit@@ 1
Europe 0.07369885659705429
hái 1
Samp@@ 1
Tay@@ 1
confin@@ 1
eton 0.450816785155042
condens@@ 1
médic@@ 0.6880718063138135
incorrec@@ 1
aret 1
istan 0.6229270749534351
idan 1
Linda 1
Prince 0.19740205432607985
Ariel 1
Plas@@ 1
ring 0.1820053954618719
Ballet 1
Dick 0.7253317133885476
tú 1
102 0.7642621790230635
final@@ 1
trap@@ 1
confer@@ 0.8159493387798684
135 0.8349529958279164
transmit@@ 1
Brid@@ 0.6100961521837239
ael 1
dop@@ 1
paro@@ 1
Bros 1
Venez@@ 1
Vide@@ 0.8700474837649482
Carac@@ 1
Nob@@ 1
Olga 1
icks 0.5174340293464906
eb 0.6524154035324764
Rachel 1
Rogers 0.740866373031743
4000 1
ibe 1
eum 0.41673660015316694
andi 0.8284128589271117
azz@@ 1
preced@@ 1
vis 0.5476755260883356
Jas@@ 0.8678481519882305
Č@@ 0.6053921595214902
Denis 0.6327628125557776
inde 0.384398058549614
Collins 0.6545478870674358
Portugu@@ 1
Will@@ 0.48414064632849396
Project 0.3411695350477659
Woman 0.6917332146365661
ô@@ 0.359868382906065
fach@@ 0.7598480052907399
Uz@@ 1
Jov@@ 1
vector 1
plur@@ 1
bie 0.5657602592922157
residi@@ 1
ris@@ 0.38296458678453543
sho@@ 0.22388952615297658
zer 0.2770169235738142
Val 0.6119734580393518
128 0.8923831909564908
endi 1
inski 1
Aren@@ 1
blas@@ 1
Chelsea 0.8766540062579646
Cit@@ 0.7787156748880415
100.000 1
terior 1
Compar@@ 1
ated 0.0212157050262106
lon 0.58840762557503
puls@@ 1
uer 0.48532930404283053
Christ@@ 0.3780887746847682
1.000 1
Martin@@ 0.9955594072414595
Ron 0.7907709751931414
mini 0.7365880345205906
Kath@@ 0.5098421606502243
Dj@@ 0.7155056743820475
Jennifer 1
diversi@@ 1
kon@@ 0.11517627250814771
usti@@ 1
Bass@@ 0.5329553462164119
atina 1
entu@@ 1
aro@@ 0.435918358246781
tics 0.17694991488623077
Motor@@ 0.4250226429278742
Ralph 0.7058075899581826
jal@@ 1
olig@@ 1
1818 0.705886418734649
Romeo 1
Narc@@ 1
insurg@@ 1
ams 0.16896532875727321
Eul@@ 1
gros@@ 0.3909493368757095
hú@@ 1
EC 0.7018937226795678
22.@@ 0.9047190993860985
Afr@@ 1
orada 1
Centre 0.15886255041885022
cel 1
Wang 0.6606259742236372
Ord@@ 1
dimensional 1
People 0.20330814155645244
obo@@ 1
tum 0.5881965630145741
UR@@ 1
ague 0.6047456677609656
uses 0.09787885915405574
ciano 1
Nah@@ 0.5769489168650446
ló 1
Rangers 0.5946066019782736
Lep@@ 1
Pueb@@ 1
Bryan 1
ju 0.9028618540681241
Fam@@ 0.9249536410675777
IB@@ 0.9572325880636025
SI 0.9411186956517846
uru 0.6751340549918047
α 0.2706585949474962
Afric@@ 1
Emilia 1
uke 1
Anton 0.5453598716098598
Inv@@ 1
Slam 1
Sv@@ 0.9515198523297428
MP 0.3732116827008827
Establ@@ 1
Gad@@ 1
Arquit@@ 1
Garcia 1
Boh@@ 0.5575123253303833
EL 1
Luke 0.7219369620993322
factor@@ 1
ovski 1
ateral 1
Oreg@@ 1
pris@@ 0.7650227137928574
trau@@ 1
Kun@@ 0.4768484694907286
clo@@ 0.5277155412948367
20.000 1
RF@@ 1
ordenadas 1
egem@@ 1
iris 1
Sier@@ 1
iTunes 1
wick 0.5490404237582592
AB 0.6205017791612053
Oh 1
ats@@ 0.37490831728475976
infiltr@@ 1
Dow@@ 0.48499783017762393
Personal 0.20196038489775628
ose 0.26153040387987037
Ich@@ 1
ste 0.13219484379847304
ond 0.23867304071488674
Bah@@ 0.3892851045680868
Singles 0.3755306645352585
propiet@@ 1
oug@@ 0.36994033159250705
ères 0.1253231161359086
Yos@@ 1
NFL 0.32816042682184476
Foundation 0.21392100232430938
laborat@@ 0.6571934179745907
tomas 1
Guardi@@ 1
aid@@ 1
pren@@ 1
e.@@ 1
Kus@@ 0.7618904932403038
Portland 0.5439324164957525
Wild 0.6093728528057832
SU@@ 1
70@@ 0.6832340675255376
Bonn@@ 0.6645382011360513
Yak@@ 0.9709479754661502
pulmon@@ 1
47@@ 0.893457091598644
Party 0.07963778901688719
say@@ 0.8370580058367064
Ronald 0.9208203528522794
Tang@@ 1
onz@@ 1
yen@@ 1
Aquit@@ 1
Que@@ 1
reality 0.5128067253179206
Philippe 0.3644331383171367
CM@@ 0.923897346309469
intervenir 1
guil@@ 1
Vec@@ 1
119@@ 0.8656615730500429
liquid@@ 1
100@@ 0.7599635132267455
ISO 0.9395890224059713
Manila 0.9963031475603255
1806 0.6267078666087129
oqu@@ 1
Prix 0.20504111979968756
TE 0.9680612518615704
cili@@ 1
humo 1
ollo 1
Hunter 0.6281594315323182
Lomb@@ 1
ever 0.09981641958978359
Roberts 0.6659001148879514
advoc@@ 0.3552971605562879
10.000 1
ders 0.1457783859362862
PM 0.8460151940248829
Johannes 0.334031265744519
ako 1
Ghana 0.6971552155245847
Proy@@ 1
heavy 0.23575107729884262
Saf@@ 0.6432927455386078
UA 1
Ivan 0.664477167875087
protagon@@ 0.8842825042432051
Ambro@@ 1
Darwin 1
Software 0.6371930706246377
ege 0.5848040879738333
nis 0.2247794230570677
oidea 1
Jr. 0.7520856467829293
ayan 0.47969014617627864
clusi@@ 1
Birmingham 0.4971369263650688
FBI 0.9323821618812921
devast@@ 1
Montana 0.7577591243307253
Shir@@ 0.950735373032347
alición 1
perd@@ 1
déj@@ 1
igny 0.7647913031044096
Tanzania 1
Wolf 0.5506234771576136
didad 1
acet@@ 1
Ernest 0.6516494648588753
kes 0.33697832869319866
1700 0.9632271066361621
Basket 1
Keith 0.7095783820025947
104 0.7676633210175184
perturb@@ 1
Hag@@ 0.622232373167673
cis@@ 1
wh@@ 0.13451235473834858
glomer@@ 1
oyen 1
Shak@@ 0.9238471369587363
Verg@@ 1
Motor 0.4156722228033707
greg@@ 1
22@@ 0.613301988775963
Cole@@ 1
Gos@@ 0.6736854804209272
scrip@@ 0.7888335622749338
Cres@@ 1
valu@@ 0.4336023318125186
Dennis 0.7235112708304534
Pist@@ 1
Up@@ 0.5661797598635047
elig@@ 1
ET 1
PL@@ 0.8349860543481876
va@@ 1
Silver 0.5307084004186775
tice 0.6780774455294654
Pastor 1
biodi@@ 1
fluor@@ 1
Audit@@ 1
Lie@@ 0.8903435383342735
Resp@@ 1
anatom@@ 1
Stein@@ 0.2124369440332358
Gray 0.643639175625619
aia 1
D.C. 0.44517428751363025
Diam@@ 1
anar@@ 1
recipi@@ 0.7062754673049627
Ultimate 1
int 0.4403893136475059
124@@ 0.8751253302064975
zin@@ 0.6387387849483074
ells 0.26263927001484194
Marcel 0.7088298481172811
astía 1
kir@@ 0.43236099466862743
By@@ 0.5499010904612446
Lour@@ 1
got@@ 0.3599867765423225
Ath@@ 0.37694197788800987
eland 0.37275137073575265
n.@@ 1
convic@@ 0.8504512411739416
Flash 1
gers 0.34238860478913136
ovo 0.7395405363317682
Progres@@ 1
Tet@@ 1
abra 1
Sacramento 1
adounid@@ 1
folk 0.48677144148109547
less 0.0673519787466454
aku 1
star@@ 0.3553050615205715
Serra 1
isha 0.7161773637522326
Atlantic 0.2737104516618441
her 0.01107067298327874
Rut@@ 0.8906270666596038
Wikipedia 1
vot 1
Mans 0.9859650702534744
Natalia 1
Place 0.4467008949654533
atan 1
tuber@@ 1
115 0.8193925322372503
Stre@@ 0.24450954726457216
108 0.7919985428209231
Cun@@ 1
abrup@@ 1
Dick@@ 0.6558817369170524
Ther@@ 0.3060770997795968
terrible 1
CP 0.739213656883887
head 0.06844334931345053
estig@@ 1
lom@@ 1
down 0.06081367767923436
103 0.7940342514056997
Stor@@ 0.5352060939186213
NCAA 0.32069782961816135
Euphorbia 1
particular@@ 1
NT@@ 1
CR@@ 0.7543090772437779
GB 0.4904768462870617
Paolo 1
Dram@@ 1
ezo 1
lier 0.25228381970126945
arz@@ 1
Fat@@ 0.948912606377563
yev 1
AI 0.8769198674483035
ret 0.4067228405434742
igh 0.5802995578229895
rid 0.5733168580153657
Aud@@ 0.9287192544763442
uti 1
zy@@ 0.3091023326492332
taur@@ 1
1,2 1
ander 0.5746026362653458
core 0.31160500266225405
.S. 0.6948964713580493
Pati@@ 1
acul@@ 1
Moldav@@ 1
escu 0.8926976742358594
39@@ 0.7321441383572077
Abel 1
Spencer 0.8230625338254332
patron@@ 1
ejec@@ 1
£ 0.20201880400975047
Country 0.31091774389846777
tun@@ 0.3591992224278775
Eugenia 1
Kirch@@ 0.35581507992353106
109 0.8096892473534708
pastor@@ 1
Justin 0.815635455882249
1789 0.7203721475723819
Ix@@ 1
Vladimir 0.6748755781346307
nau@@ 1
21,@@ 1
Hall@@ 0.6599171531964547
Tou@@ 0.5219673807925264
Ves@@ 1
aru 1
lidae 1
GI 1
Moc@@ 1
out@@ 0.08441438378629115
Magic 0.7567775446059313
Archi@@ 0.7674698269700432
Jung 1
Four 0.3026505367090072
pus 1
Mata 1
Murphy 0.7070760704873668
abo 1
porta@@ 1
49@@ 0.7037359835900464
Von 0.07502524294397785
Forest 0.3133873589736313
lluvi@@ 1
corro@@ 1
ondr@@ 1
melan@@ 1
Led@@ 1
Luciano 1
atamente 1
úcar 1
Helen 0.686189571154592
circunst@@ 1
Come 1
Leb@@ 0.42243906681316484
Bowl 0.3817258260598418
Bar 0.5271986054956621
Urugu@@ 1
Ax@@ 0.8965781804330428
ursos 1
lengu@@ 1
non 0.046366560122294356
Jesus 0.37044150448535873
ancestr@@ 0.856231349369195
Over@@ 0.2658136940666037
lang@@ 0.29165247180186904
ë 0.8271105920059411
Oslo 0.791642229442099
Rin@@ 0.966706620459671
EC@@ 0.8694407537401961
aura 0.8423843634972928
ils 0.05070584451669083
sets 0.3001981949623906
Earth 0.23838276415072943
cera 1
istes 0.17311781928961695
tubercul@@ 1
Rural 0.4313599541842945
Sent@@ 1
Fuj@@ 1
jard@@ 1
menta 1
ologia 1
Berkeley 0.6970909834432998
220 0.7706487101627308
versario 1
Benjam@@ 1
opar@@ 1
So 0.1272177164937756
Coron@@ 1
Camp 0.45315125807457984
leuc@@ 1
Nepal 0.7140969583972536
Yel@@ 1
ingia 1
has 0.008777029869231383
naz@@ 1
face 0.08954380040960218
Zam@@ 1
ustre 1
CI 0.9750590472662718
ísim@@ 1
Lanka 0.5439688725422004
ör@@ 0.2168272171796197
fascin@@ 1
Armstrong 0.8599861137227939
sigui@@ 1
Nev@@ 1
Tari@@ 1
sign@@ 0.23465694015364355
one@@ 1
Kub@@ 1
Tuc@@ 1
Cari@@ 1
Glasgow 0.47887799515037927
Industri@@ 0.4934321256325902
Sed@@ 0.8127055617255087
Irene 1
rid@@ 0.44044440628664644
uten 0.4432725408921992
Garc@@ 1
Knight 0.5287464987903663
Ted 0.8426423946365929
Book 0.2705479039446904
1.0@@ 1
doctoral 1
persp@@ 1
Cho@@ 1
Once 0.43238800059006477
Six@@ 0.7077142048543456
dance 0.26480115269221877
U. 1
asso 1
LC 0.7841291702066966
Productions 0.6703739661772933
dible 1
UD 1
Palatin@@ 1
Lenin 1
Jessica 1
August 0.0266213061708388
Tour@@ 0.20935967414020534
opus 0.9174989758328903
Tob@@ 1
1790 0.6819684906387816
Alco@@ 1
IG@@ 0.871413556841114
Miy@@ 1
Alex@@ 0.7293189833549515
uli 0.8068500007956602
agio 1
1793 0.6275576671261716
Catherine 0.42408575361768336
fes 1
Og@@ 0.757233716530972
eclip@@ 1
but 0.010851914315782887
aram@@ 1
SD 0.811748539024485
neamente 1
Gram@@ 1
Bud@@ 0.4206117532833863
Cabr@@ 1
uche 1
Bed@@ 0.32728170486048286
Dame 0.3585762581064843
Grim@@ 0.7330344144333847
22,@@ 1
Buda 1
Lost 0.8181827716473137
Constru@@ 1
Til@@ 0.723882368048108
Ou@@ 0.4973091661400641
Cannes 0.9996282707637142
arab@@ 0.6114604924047895
Disco 1
jan@@ 0.8482279269720521
Android 0.9349187208948719
Leonard 0.7277895985546062
Luz@@ 0.8581924359320443
lor 1
240 0.8878370376158773
quen 1
Nur@@ 0.5314632788124553
usta 1
Ni 1
aup@@ 0.6762179720284703
geb@@ 0.1117871448130947
neu@@ 0.4897555209140604
eme 0.3688358591614949
U.@@ 0.6967755274376751
~ 0.6536966465673519
Kim@@ 0.8412525468817267
inata 1
Vier@@ 0.41009989009038156
oja 1
Anast@@ 1
arme 1
fabr@@ 1
Isid@@ 1
eville 0.6862980272054114
hilo 1
Rit@@ 0.7546292174962101
corn@@ 1
Botan@@ 1
Finanz@@ 0.4923795889623923
chen@@ 0.2561336959852847
23.@@ 0.8038919637091023
enburg 0.3033922677171991
manch@@ 1
Tad@@ 1
Stuart 0.6270251673032843
al. 1
aver 0.5884973794803633
edonia 1
Concep@@ 0.9729455135486643
Just 0.4808495116887378
Tru@@ 0.9217731865388342
Bin@@ 0.7766582280780584
Cole 0.8405736489449566
chap@@ 0.330452728807991
Pete 0.9096306486993168
Under@@ 0.5530033312629203
Terminal 1
indem@@ 1
Champions 0.3684556729134413
Edit@@ 1
1753 1
idi 0.497904984325414
investi@@ 1
ric 0.7379202707644804
Rob 0.856058921528143
Sic@@ 0.5715272494663219
balance 0.6827754836996295
ebe 0.5696354157230075
odor@@ 1
2.5 0.6173940141839956
Andorra 1
Fauna 1
Wall 0.5494064617475021
etano 1
paramilit@@ 1
MI 1
Car 0.606323226617914
Asp@@ 0.6265925448183768
Mountain 0.2785946226254701
Santana 1
ore@@ 1
26,@@ 1
Myr@@ 0.9394156121739226
Brah@@ 0.694306186227795
Cla@@ 0.7628058058628895
singles 0.22872699939286759
G.@@ 0.8934014399482435
Gy@@ 0.7218551306680092
unt 0.3156784647619247
24,@@ 1
evich 1
Sanc@@ 0.8852308328545092
Louise 0.5071912653034911
amoto 1
MX 1
bron@@ 1
Gó@@ 1
Western 0.1033282844968882
Village 0.37596843490005294
Watson 0.7091785268996311
Electric 0.5915604610690727
Fem@@ 0.7482428243871365
Bonaparte 1
Tower 0.4743094856669767
ology 0.06167336235759213
Wes@@ 0.36962798810530995
ER 0.8353618762555617
118@@ 0.8808287284336221
dog@@ 0.5770422999001397
Horiz@@ 1
Let 0.6333868246989522
mel 0.5185540448354767
25,@@ 1
antagon@@ 1
ML@@ 0.9170039205845482
Hart 0.7550985188407774
Hend@@ 0.8755028159115783
bel 0.4119057486346035
cle 0.6094283531772895
Der 0.015613551335253058
zy 0.746857405523449
Sib@@ 0.9396173761658853
marketing 0.5568369300919799
Mind@@ 0.7008515552634937
Ques@@ 1
stor@@ 0.17362644034500377
agi 0.9664374203188105
eon@@ 1
ā 0.632588516121142
Lola 1
Metr@@ 1
rapid@@ 1
sag@@ 0.7929956895804896
Free 0.326908720560716
obsol@@ 1
Antonia 1
lete 1
far 0.15426896540181165
Jab@@ 1
Put@@ 0.7853389774042349
amen 0.3956180331832005
wald 0.2996956855666654
mate 0.6531914820521272
master@@ 1
isés 0.7441814804461869
zan@@ 1
ě@@ 0.5571277294118555
Infer@@ 1
Priv@@ 0.6512888397694748
alent@@ 1
atro 1
4.000 1
icum 1
Toulouse 0.6294739147871953
Vu@@ 1
Cameron 0.7692050057562356
Latino 0.7414763191660179
Beethoven 1
Distr@@ 1
Zero 1
Pacific 0.16141942761831266
107 0.8010282865104408
prostitu@@ 1
anum 1
intu@@ 1
emann 0.5816882159742566
isible 1
chal@@ 0.8195854407298938
Laz@@ 1
prior@@ 1
Rotten 1
by@@ 0.37401102253829366
Betty 1
telenov@@ 1
idge 0.4577963747610499
ográ@@ 1
Freder@@ 0.72197148228096
0,5 0.9584593349563729
Hot@@ 0.7067157653884036
onder@@ 0.8168578714302153
Craig 0.6894130101265454
Mega 1
Hig@@ 1
conce@@ 0.6343402578108749
imin@@ 1
suscep@@ 1
Tyler 0.9642375166989035
use@@ 1
onces@@ 1
Áng@@ 1
altitu@@ 1
illon 0.3810428524242185
anthus 1
zon@@ 1
robot 1
ficit 1
odes 0.6441921572026139
Nord@@ 0.12716592028653778
Carbon@@ 1
ambo 1
born 0.023676083225676006
106 0.7542795297302402
ś@@ 0.5868108508703578
NS@@ 0.3750651293397151
canadi@@ 1
kW 0.8069037017263901
Yor@@ 0.8084407406428679
Niv@@ 1
aras 1
asse 0.22506473489417136
Bras@@ 1
fi 0.7693338581687789
mon 0.4530014161817412
muda 1
lav 0.8584537615104659
ardi 1
Erik 1
111 0.7952539614982385
ider 0.2463775022502535
trio 0.7745355115095196
arius 0.7627368460431806
ball 0.15135586522706262
hen@@ 0.6635819003394701
Fra@@ 1
Wallace 0.6968764139425724
abras 1
cand@@ 1
Alo@@ 1
Big@@ 0.7092508319416722
19@@ 0.7390466480408314
tev@@ 1
Josh 0.9556203708568635
jurisdic@@ 1
Aux@@ 1
Zi@@ 0.35133847159660714
Model 0.4957759942877083
vietnam@@ 1
FF 0.5105806881336241
IT 0.5546180943500257
epit@@ 1
Ré@@ 0.22859866359438086
hat@@ 0.3803866041151131
Ble@@ 0.47172973565900433
DP 0.5008477484275342
Jules 0.6217014992514104
Wer@@ 0.1770885954300743
Individ@@ 0.5856617999919331
stre@@ 0.17051986430890612
Holstein 0.7243550412559306
neutral 1
1792 0.6798508876135292
Amen@@ 1
Are 0.8040764041993266
Uganda 0.7688710108948136
Morrison 1
gro@@ 0.2310181632366786
quier 1
iya 1
† 0.07586793792082495
AE 0.917267675503658
4,5 1
Barn@@ 0.5422036144481103
inho 1
adio 1
Blake 0.8944499032967603
alls 0.36089123557996317
Total 0.8828346511215778
cast 0.13294910343500704
McCartney 1
olan 0.12121782549425253
óvenes 1
Hugh 0.5819811292790826
Obama 0.6812774144420022
lech@@ 1
Cord@@ 1
vila 1
Alternati@@ 1
auer 0.20966161448049708
tropo@@ 0.9532589554328695
obj@@ 0.40112484384978286
iel 1
esh 0.4244858862641107
Jin 1
ozo@@ 1
atha 0.7865536661526232
nominal 1
Brag@@ 1
ombo 1
otran@@ 1
112 0.794480929442312
114@@ 0.8233186871823881
Marc@@ 1
rag@@ 0.3756566883526398
Aaron 0.7704451211573704
Jin@@ 1
Nicholas 0.5109054301687092
Emir@@ 1
Dog@@ 0.6537561719694238
Augusta 1
Sullivan 0.6951640881831931
Now 0.42124046588918973
draft 0.3749869447084396
Get 0.8760749984692152
Jag@@ 0.5481207215426459
90@@ 0.7271794920291066
Antil@@ 1
vé 1
Senegal 1
Bod@@ 0.3878673477661877
Kosovo 0.8490619173486758
Yas@@ 0.9695667062630604
Candid@@ 1
demo 1
depres@@ 1
rim@@ 1
aux@@ 1
uerto 1
CS 0.4665983188626859
anat@@ 1
né@@ 0.5449151858839859
Hell@@ 0.7630009247423689
futbol 1
burn 0.4575047491339176
enton 0.6352591244359728
interfer@@ 1
117@@ 0.8338444094091787
Harvey 0.7130710408656519
haz 1
ayn@@ 0.8279128820097487
Aguilera 1
CN 1
lanes 1
Parma 1
aton 0.6273880091707896
Mozambique 1
Wolfgang 0.48371072239644747
Match 0.8818868135592194
Dod@@ 0.6238514410850782
Stan 1
anol 1
institut@@ 0.7826874200975031
Luch@@ 1
Thor 1
Lucy 0.8881696619458957
Principal 1
1807 0.6840014314358848
1801 0.6301687127597656
Water@@ 0.47904556059231185
scar@@ 0.7782246191738319
ectu@@ 1
Shaw 0.7645482332541635
andez 1
arest 1
Blood 0.7591330251780359
Business 0.2513304809620441
Heli@@ 1
ute 0.15997543238659645
Mug@@ 0.8268148373255955
revol@@ 0.3179999685599976
23,@@ 1
Artem@@ 1
glu@@ 0.9741140120156392
perc@@ 1
tromp@@ 1
Palmer 0.8189338137260396
foli@@ 1
éni@@ 0.6836102777162675
Flu@@ 0.48064800633029864
énez 1
Joel 1
Open@@ 0.602101951616883
name 0.027562273022107
Aman@@ 1
Wel@@ 0.28459458947239613
single 0.04313233269924731
Claire 0.8683900598709158
ony 0.2216460590179476
pter@@ 1
Greg 0.7593073654697295
Lynch 1
Spir@@ 0.575610416596057
Reed 0.8183939231364851
ush 0.2995357224554218
Ez@@ 1
48@@ 0.7917216824400564
Extr@@ 1
27,@@ 1
tle 0.26883541458770294
Artiller@@ 1
motor@@ 0.31603620526354986
drag@@ 1
Aleksandr 1
Nich@@ 0.5483057234622671
Bristol 0.4961758008227768
Field 0.24478918015295906
lación 1
Alma 1
Emily 0.8670109584510259
Mans@@ 0.7667328974242993
Owen 0.7854771787198807
epa 1
Rac@@ 0.6510960295068977
oslav@@ 1
dov@@ 1
solidar@@ 1
RCA 1
Kre@@ 0.21673945924519572
arit@@ 1
Box@@ 0.5384915707654125
Johan 1
dioc@@ 1
Aub@@ 0.5851221392137494
Cha@@ 1
pseudo@@ 1
Hulk 1
édi@@ 0.4962987580743303
aker 0.258851242701539
hir 0.6361045045670818
King@@ 0.5579385481226383
Ruth 0.7320382887220865
gel 0.6640731681881743
insist@@ 0.7476208070044092
archi@@ 0.43583821844216863
ucci 1
Hut@@ 0.54798654997042
Bernardino 1
till@@ 1
320 0.945605736099014
Guill@@ 1
Carol 0.988819954614506
Dil@@ 0.9422692636814576
Hop@@ 0.5805201517672091
Madame 1
Lennon 1
PE 1
fric@@ 1
Marcel@@ 1
yin 1
EP@@ 0.7985369387969535
aerod@@ 1
BMW 0.8589048550959385
Major 0.1809504187309925
aman 0.674046386523094
herr@@ 0.683080071970168
ect 0.09216867051859659
Chevrolet 1
eka 0.7397926635325661
Hispania 1
év@@ 0.23822790298309107
Chad 1
dict@@ 0.6115362836574976
Monroe 1
NXT 1
Not 0.3663671232463682
eder 0.49976948281143546
famili@@ 0.4869606499067841
coronavirus 1
fotograf@@ 1
toria 1
pilot@@ 1
dell 1
Ramon 1
gli@@ 0.5569751845128006
ox 1
bu 0.11177437006857263
obje@@ 1
ray 0.421990613580748
ater 0.2642920118800892
titud 1
molec@@ 0.7990114078012622
Milan 0.37003581079786674
Boliv@@ 1
conqu@@ 0.33097457032624894
gravit@@ 1
Feli@@ 1
Sandra 1
Spar@@ 0.39821936364577354
wo@@ 0.15027903689843253
Neb@@ 0.5178632841470878
Sis@@ 1
Hob@@ 0.5857946701751235
hib@@ 1
Identi@@ 0.8492072214699519
RAM 1
1794 0.686521985810278
ulu 0.4745973858253197
History 0.045359594232460006
ispa 1
fem@@ 1
ther 0.33095724814090016
Mess@@ 0.3013331184312048
Tel 0.8638173882715996
ī 0.6169764148008743
Luci@@ 1
see 0.0725798402370525
esin@@ 1
Mount 0.2058332121538647
rier 0.2961593443679592
ET@@ 0.9147162154751186
Queensland 0.2998796619233161
ef 0.27629901968794013
folkl@@ 1
rang@@ 0.3202955579274771
2500 1
Music@@ 1
Kab@@ 0.3982627669367163
vale 1
Stuttgart 0.40752476752321287
Ve@@ 0.7728549840652261
sha 0.8441783768434961
Nab@@ 0.9394722068491355
Ward 0.4759340033233873
dru@@ 1
25.@@ 0.8021927833848879
1803 0.5791172205667429
Coy@@ 1
imal 1
Concor@@ 1
Gibson 0.867702016598434
crucial 1
try 0.13883804210949927
Giro 1
manda 1
ingles@@ 1
ata@@ 1
atio 1
lot@@ 0.974276383498872
GC 0.9254845140349022
Hit@@ 0.573996861520924
Mina 1
TR@@ 1
1300 1
Bull 0.7740043297195749
Celebr@@ 1
Springs 0.5865248835298128
Hey@@ 0.6328847465483154
Guardian 0.6500186117212571
cis 1
Mercur@@ 1
lama 1
opp@@ 0.6241237581658954
ages 0.051081154646264164
fati@@ 1
Picasso 1
1805 0.6733368952866141
aster 0.3039835243820934
Edge 1
Stan@@ 0.5894714921800263
Law 0.15833371227311097
Gustav 0.5293867104906995
ott 0.39031333128634965
European 0.06385790946280888
alin@@ 1
eir@@ 1
Ofici@@ 1
dae 1
Jol@@ 0.9517078171216082
Mohamed 0.9295304944674238
chan@@ 0.4668539240918472
Chen 0.772404246028079
bor 0.520086828677239
App@@ 0.3159956090945035
ury 0.3071400033498739
Ani@@ 1
Fidel 1
Mall@@ 1
Elimin@@ 1
Guerr@@ 1
ingham 0.5079739020221036
Soul 0.7293335251590727
Cec@@ 1
Marin@@ 0.721458890266528
réc@@ 0.5379618104163603
Zhang 0.7989711393237529
jana 1
tex 1
Balt@@ 1
Probl@@ 0.8895224325447159
elen 0.35656749948702043
ST 0.6946943439824385
gina 1
Ō@@ 0.7604762002970722
Sti@@ 0.3483006409972722
fan 0.40703969034520837
yst@@ 0.25573249271690013
ull@@ 1
usur@@ 1
Mason 0.6978655662198282
exhaus@@ 0.7550081847171627
Eth@@ 0.3209466171497348
pay@@ 0.1706026273684711
Ž@@ 0.6532864780530521
IR@@ 0.7238088661221529
wich 0.6360472129894825
igen@@ 1
sei 0.1348288593947791
subsist@@ 1
pt@@ 1
ws 0.15851063630946102
Olimpi@@ 1
ficios 1
pp 1
Ins@@ 0.7410234547246833
oud 0.3075763295626471
eux 0.08486272189690307
Salm@@ 1
190 0.8538449285988252
Brande@@ 1
Tomatoes 1
Ced@@ 0.961169828323288
paradig@@ 1
Tas@@ 0.43844283418482516
Emmy 0.8518336970428132
Ard@@ 0.6585050051932401
Bello 1
fusi@@ 0.8415068620544123
Autonom@@ 0.8478997254141936
uan 0.7349375079255829
Maya 1
Clarke 0.6901638632990329
Kids 0.9740814236003512
Stark 1
aida 1
idir 1
Holmes 0.7592629801332668
Karen 0.9784217659166359
Race 0.5462653152112443
pia 1
PR 0.5900715044195998
iner 0.3149342767574754
Hope 0.5950949396305095
Pomerania 1
Zeus 1
Salz@@ 0.5605785878324591
amn@@ 1
cialmente 1
kinson 0.6638121970336914
Sud 0.18644474825678498
Relig@@ 1
anom@@ 1
Pittsburgh 0.41210597184281816
Plus 0.3400037347210626
Alexandre 0.4810060032069553
Price 0.6964498182283863
Ore@@ 1
aks 0.2654293837503602
AFC 0.7476649288561409
Ciud@@ 1
Kaw@@ 0.8682312958371078
More 0.293676982877092
Seb@@ 1
Drag@@ 1
max@@ 1
Net@@ 0.5917051397177311
ket 0.27231918240596137
1795 0.6642649696840882
Pra@@ 0.6875319905537948
Was@@ 0.45708851412754814
tho@@ 0.255465948424864
Españ@@ 1
Maurit@@ 1
disi@@ 1
Inter 0.7617262313831985
Denver 0.6126800021920659
Hughes 0.6276418279636187
Shim@@ 0.8481964256746685
Ris@@ 0.4427044623014689
28,@@ 1
Kane 1
Telef@@ 1
Jen@@ 1
Sci@@ 0.8171729685706206
Infin@@ 1
Desp@@ 1
Gaza 1
Toyota 0.9018306431914221
ls 0.18383093619379043
neb@@ 1
́ 0.0505859387795827
Beh@@ 0.2870880994053386
automati@@ 0.501107881681839
excit@@ 0.996665352135018
Geor@@ 0.5308082093588298
Isa@@ 1
Dí@@ 1
lov 1
ulus 0.6443223710798078
xia 1
Wu 0.7373933625295807
Battle 0.13978753537396843
axi@@ 1
ié 1
sibles 1
Machine 0.7344546082853776
44@@ 0.7901924747111335
24.@@ 0.7692928411871855
hara 1
Mexico 0.13144393094446416
soprano 1
Rudolf 0.4108748438391699
fugi@@ 1
anglo 1
sible 0.8090422043594981
Wells 0.6542019238983021
auc@@ 0.5311821447966104
ovol@@ 1
Boul@@ 0.5810088958169957
ka@@ 0.8158867226935862
Kō@@ 1
Alfa 1
comparable 1
satur@@ 1
Font@@ 1
Volun@@ 1
ulio 1
116@@ 0.8243007940514319
icho 1
Panzer 1
1804 0.6634564947421875
Agost@@ 1
Hardy 1
Roman 0.0958522564813099
bell@@ 1
ID 0.6710593025972004
Schleswig 0.6461512992748456
Derr@@ 1
Hak@@ 0.5383244006773348
Julian 0.724727406818068
Manif@@ 1
26.@@ 0.8006663660893146
Gis@@ 1
Lil@@ 0.8394161854839499
unga 1
Campo@@ 1
nu 0.6372078561381437
230 0.8683840199390599
Leh@@ 0.36451244070407385
Wak@@ 0.6352942515062475
Dioc@@ 1
Neur@@ 0.5950176962281046
aume 1
golf 0.6355532934768674
nal 0.8445244005641144
dei 1
6.000 1
Coll@@ 0.5902452605388048
Poli@@ 1
Pum@@ 1
BS 0.523202681859569
Osaka 1
ande 0.27030823657461905
glo@@ 0.485750734968439
Drive 0.5594983331524673
Sev@@ 0.6541116329573493
Gonz@@ 1
temper@@ 0.6543064358490728
MHz 1
Gast@@ 0.4041850131685064
Organ@@ 0.5352389262088059
osus 1
kw@@ 0.26380677486414694
osta 1
Lak@@ 0.4508453427576082
Head 0.3035158710572825
Phillips 0.6633529104705682
Repar@@ 1
yu@@ 1
Padua 1
Pokémon 1
biom@@ 1
kel@@ 0.2512593868662335
,@@ 1
Zul@@ 0.6103013968317577
Pall@@ 0.9608839038888
kor@@ 0.19776671679702484
tat@@ 0.9377347216593077
Fan@@ 1
Adap@@ 0.9267952825134614
Pink 0.9680926754306991
uka 0.7704620365302938
water 0.04788065882650038
Casino 1
ombre 1
Ferdinand 0.3432013019828701
acy 0.10568603533674638
bot 0.2886788713126821
MB 1
conjug@@ 1
emi 0.7741252516759747
Drake 1
utar@@ 1
Jesse 0.9308741535500481
Am 0.04278254753937916
alam@@ 1
sah@@ 0.7348627176533685
subs@@ 0.46313039939378764
Butler 0.6108965156773096
Grey 0.664920536703423
Syn@@ 0.30810809861985194
categ@@ 1
ident@@ 1
AV 0.9744656294181037
Potter 1
postal 1
113@@ 0.8198582461207462
Wars 0.5209500285852955
undan 1
enca 1
Yale 0.58982739066142
fici@@ 1
Kiss 1
ink 0.26459852888623586
tie 0.242791482607093
Ost@@ 0.16820446702639993
Wall@@ 0.3237535011087446
Brand@@ 0.4868506774176978
eber 0.8458000727083552
pod@@ 0.863755644047452
Impact 0.8057158450134861
Hockey 0.24601722282189759
océ@@ 1
Futbol 1
Tang 0.776220281696007
Antoni 1
Bati@@ 1
Ling@@ 1
come 0.10521779154362272
Metacritic 1
SM 0.7303432271277918
114 0.8281467312791814
ames 0.3277128865997732
islam@@ 0.9281991823873056
Randy 1
Lopez 1
otte 0.464225900074545
ved@@ 1
Electr@@ 1
Seven 0.48190552449230706
123 0.8421945249140831
Barb@@ 1
1802 0.6153472454312029
Foster 0.7111000888759906
gene@@ 0.7449674688808019
parta 1
qua 0.1572971714731658
Abd 1
lett 0.7398194845893835
Ltd 0.38757653454765556
sy 0.46773207409539547
not 0.009420834040503494
Hed@@ 0.576605648637974
Kid 1
CL@@ 0.8632789495720948
175 0.9031368792531591
aval 1
vania 1
127 0.8026400160352034
Nach@@ 0.1373249819211475
invasi@@ 1
sé 1
From 0.06425259204524496
Diplom@@ 0.6662023487137743
ierto 1
1780 0.7753960707083746
Chuck 0.9194427992133829
29,@@ 1
Zur@@ 1
Brunswick 0.6087889295854968
Raz@@ 0.9020048613580952
Germain 0.8075081461817707
blog 1
jac@@ 1
Office 0.1708615868677055
ovic 1
oki 1
Century 0.5068542273201329
Grove 0.7135550453867818
Canada 0.0567661980835777
1799 0.7121740729568462
Ring 0.5262305472794783
robot@@ 1
ladi@@ 1
ross 0.6213340164777686
Elem@@ 1
roy 0.7455403582212079
Felix 0.6546889669490639
Milton 0.8696852389348518
elim@@ 1
93.@@ 1
Side 0.5724162081908205
ement 0.025146840982506597
itch 0.37589935292960047
Corpus 1
Eugene 0.7833247956575179
Soc@@ 0.8049737468551558
turn@@ 0.6985413440567881
ains 0.06746579463406296
sion 0.05950524243639662
1791 0.7132348760170724
Volkswagen 1
azi 0.6954375486017227
Todd 0.7508803498025675
Sing@@ 0.3792211628187514
Hell 0.8446430911412577
Nati@@ 1
Secret 0.6878584126507041
Boris 0.7322840840658825
è 0.8170108063014412
Sweet 0.9002416212413165
vall@@ 1
acon 0.7183163414558903
bridge 0.12787121790303427
penal@@ 1
öl@@ 0.19690412208500513
Ear@@ 0.3656673970132911
With 0.07556512327629913
eber@@ 0.7739232165568111
Þ@@ 1
chur@@ 1
endan 1
FK 0.5929301668610494
Yuri 1
tadores 1
Yer@@ 1
box 0.20548436751493468
etz 0.4237707761684472
6000 1
Angelo 1
Swift 1
inti@@ 1
210 0.83952556467585
TP 0.8240804078335928
Jo 0.9155271001510289
anche 1
carto@@ 0.7557422693935857
insky 0.6305883905083843
Marcus 0.5700423680782354
arium 0.5479590796902803
Church 0.06295134281182506
Cohen 0.8185593929288165
MW 0.801973929244562
wen 0.4791247155519004
Kyle 0.9618508864153381
eon 0.5256600993724279
65@@ 0.7542201527401443
Richards 0.9364924766071681
Banglad@@ 1
Ramb@@ 1
Schw@@ 0.14746833670547171
Gregory 0.5852448160759387
Mih@@ 1
EMI 1
EN 1
Slo@@ 0.3596078276889863
ean@@ 0.5905568693898994
radio@@ 0.9649986651010761
β 0.5502045682583602
tabl@@ 1
test 0.15122051049458127
55@@ 0.7444868874588095
Zimbab@@ 1
emit@@ 1
Mussolini 1
Alman@@ 1
scop@@ 1
Moy@@ 1
Puc@@ 1
bita 1
1798 0.6276701092465723
Chim@@ 1
Review 0.3919256650363678
ē@@ 1
IV@@ 1
Mars 0.4593515758999307
Southern 0.1410749376264554
Surin@@ 1
roll 0.5848564663448672
113 0.7899724726051025
Web@@ 0.36442275615811354
away 0.07757674485659292
Challenge 0.4161300927244432
Edwin 0.8659222822273571
ards 0.10908020730761006
haw@@ 0.8296506846932317
Neill 0.9547029852642791
Rossi 1
WWF 1
ceden 1
otto 1
Isma@@ 1
Stanford 0.6128088483862475
Bang 0.9601444915644455
Duke 0.20793888147057726
Banks 0.9127613714935655
HBO 1
ieve 1
124 0.8367126451403475
Teb@@ 1
oleo 1
ayet@@ 1
inaug@@ 1
March@@ 1
Annie 0.8408448118347996
ocr@@ 1
Alexis 1
Laf@@ 1
yon 0.4285110921211285
God 0.1774623984928702
ids 0.10427534255844467
ishi 0.8347289304655446
Ish@@ 0.7883102968684341
tail@@ 0.679850834103748
Castil@@ 1
nific@@ 0.9775254439491943
Confl@@ 1
Los@@ 0.8277241859549775
Pearl 0.6680126676524005
ather 0.26448721804219083
mg 1
prote@@ 1
Tall@@ 1
incon@@ 1
ý@@ 1
Cran@@ 0.662296528339935
Luk@@ 0.714517650641087
kar 0.43723413677700806
nan@@ 1
ør@@ 0.6916877243294587
Tsu@@ 1
Hard 0.9111826732523589
LG@@ 0.8900600041281629
arbor@@ 1
osi@@ 1
Morning 0.6894759404477336
Zab@@ 1
match 0.05024390679753259
1776 0.8266996880199784
ISBN 1
oh 0.9719117729282011
ru 0.704650969481319
י@@ 1
0s 0.12508298291644132
Gali@@ 1
cham@@ 0.6370984125668024
oney 0.6736365571169632
DF 0.5929396788100543
endra 0.5175731343893439
bah@@ 0.6489571010623701
Temple 0.27117984666012973
Buck@@ 0.6098582654679563
Tud@@ 1
Glenn 0.8808364075449907
Never 0.8852637679624158
122 0.7764086299655288
Chase 0.8131489020942485
Fisher 0.7154362595643328
GE 0.8943440119018603
Tut@@ 0.9400740465203574
Andal@@ 1
GA 0.684842539234575
Yun@@ 1
eventual 0.8698379971985065
contest@@ 0.4429749327426376
Wy@@ 0.5089546398090338
imar@@ 1
jin 1
Dark@@ 1
Viva 1
F1 0.7918089330738542
hou 0.7246469013844534
stadt 0.15387957597785734
Inspec@@ 1
Shō@@ 1
num@@ 0.6326943709378097
Batt@@ 0.5432408600991471
Are@@ 1
Sit@@ 0.6537542293937495
inal@@ 1
HP 0.7253535631498157
1797 0.686104194097293
obvi@@ 0.8309098158817502
121 0.8147384452402041
uña 1
horror 0.697698700415425
Deutsche 0.2255297290813253
Gat@@ 0.5833621001035916
Ptol@@ 1
eson 0.795670616798513
jet@@ 1
aw 0.4123324549241204
Berlin 0.05517618923473573
Key@@ 0.514735624555705
demasi@@ 1
Gang@@ 0.5741843640932343
Liberty 0.6765425908087538
Fa@@ 0.6267379651037688
Nau@@ 0.9038177507582232
Poly@@ 0.3006891476614227
ói 1
Gle@@ 0.38881471513106347
osper@@ 1
Esther 1
Kings 0.47720416526345155
new 0.01717623559076454
Set@@ 0.9537491932927511
leton 0.4755100254078356
tradi@@ 1
Shah 0.5581158012341936
Calais 1
ads 0.1450557347384526
mond 0.5054003384859611
Andreas 0.4378500467309944
Ere@@ 1
CT@@ 0.7397658989618936
altar@@ 1
tri 0.671187551295023
CEO 0.34760816000970934
asti@@ 0.3808810700748255
260 0.9247655657115131
optim@@ 0.48887681122792853
wer@@ 0.0909983808723616
Luca 1
atti 1
Jake 0.9355514125758629
idental 1
auli@@ 1
ode 0.25034022892802393
ives 0.21747638084715076
loa 1
Pont 0.6245383864647727
aches 0.1534196081814601
fác@@ 1
obe 1
prime 0.3056097299793051
Kenneth 0.7363830452712166
relativ@@ 1
Oliv@@ 1
Hampshire 0.4215217293718219
win@@ 0.4224753059822354
Alz@@ 1
Tax@@ 0.6686629504929226
1787 0.8222011778165014
Gw@@ 0.7933067268642707
Innov@@ 1
aira 1
Fabio 1
Game@@ 0.6686608038107915
rax 1
icial 1
Mim@@ 1
Kum@@ 0.5358479036558732
Tok@@ 0.8092430850878934
trem@@ 1
Ng@@ 0.29100511310476607
Off@@ 0.18846282051704524
abaj@@ 1
cuesti@@ 1
Thom@@ 0.8735880018237691
orca 1
Ahmed 0.5763256373977457
1,3 1
116 0.8222146973016329
Crac@@ 1
Steph@@ 0.5934360501434801
ellen@@ 0.4180643669186811
juana 1
Noc@@ 1
Three 0.18027743306226132
sburg 0.3598479153683594
Holocaus@@ 1
Spr@@ 0.2575201134642111
dote 1
Over 0.22804167674144846
pata 1
Philadelphia 0.20529708771603364
Cath@@ 0.5583129291106863
Montgomery 0.6437992056347966
Colin 0.7122262105153115
Richmond 0.4220531176297709
Oh@@ 0.6481584033359877
Tolkien 1
leva 1
Hospit@@ 1
Weekly 0.6618427527537236
elop@@ 1
Oz@@ 1
saur@@ 1
Marines 0.973222374639939
aea 0.856139929525251
ful 0.08833986429928024
English 0.04658772523389516
Vac@@ 1
orb@@ 0.904236338359819
epidem@@ 1
Amanda 1
Mobile 0.5819516133990471
Chor@@ 0.33328783621222735
Navy 0.11280861996968744
erry 0.6284239367932488
liban@@ 1
ę@@ 0.38059661796740846
Hill@@ 0.5736537689383344
gens 0.38779258885454554
uega 1
Mont 0.5188807597930857
Pam@@ 0.9158898688524082
edil@@ 0.7030484050832917
And 0.23677814319499277
Rag@@ 0.6390297890568718
rach@@ 0.6877458788371932
Mab@@ 0.9779546904366577
Somalia 1
phy@@ 0.30355951523150015
Einstein 1
Hos@@ 0.6191121368608462
Cag@@ 1
vier@@ 0.2568684218068479
CO2 1
corrup@@ 1
oll 0.33037726869044254
43@@ 0.8109872536136434
ecio 1
ky@@ 0.6309399300252769
roqui@@ 1
She 0.019559864906104046
Alpha 0.6833715969890843
Service 0.1131994595283332
Liu 0.6127195188027033
grandi@@ 1
Bron@@ 0.5149678411451866
deres 1
650 0.8734512289315131
carden@@ 1
dorf 0.20476913360900456
lu 0.34099995794375637
atsu 1
constat@@ 1
ull 0.7874077392399625
155 0.923359135938682
sito 1
Kay@@ 0.658311998951786
Mercury 0.8207524397347452
diploma 1
gil@@ 1
CM 0.883847068658238
chel@@ 1
126 0.7923611148390562
Gallery 0.32172393243526126
tigüedad 1
Jim@@ 1
unanim@@ 0.6304468103526545
Basketball 0.3256896611809485
Cog@@ 0.9700110151533274
Pau 1
Money 0.8590650653793134
democ@@ 0.35094557308168395
ape 0.6788617139692347
cultur@@ 1
ision 0.19903898583903398
atic 0.1244354432978695
Mann@@ 0.43899559167098007
traf@@ 0.6404949128918005
Ligue 0.2530773086125221
boro 0.7195250288841514
Brow@@ 0.6928390656581257
Galaxy 0.9377347073902371
mph 0.9049650636449884
otor 1
A1 0.8299291678700781
éx@@ 1
Miner@@ 0.5758340231364962
Page 0.6876172208353923
Bio@@ 1
Human 0.2775094690892453
isch 0.04437322871497822
Paramount 1
Raw@@ 0.9208285632817652
Yu 0.8755114912939366
traj@@ 0.9419972967927147
aran@@ 1
eil@@ 0.30572365665157747
eten 0.10983838734044332
Gonzal@@ 1
fice 1
97.@@ 1
Kenny 0.9042550677766145
eana 1
Chr@@ 0.6237917515368414
Grec@@ 1
Intel 0.9618420716324588
Weber 0.7004732868080876
ede@@ 0.9185260721132673
Weimar 0.8526189768522515
für 0.006985400614510163
550 0.8402271276194584
Dus@@ 0.8380477896615058
Castle 0.2084923840993044
coll@@ 0.17868737257614759
Beth@@ 0.5319617677528953
Vali@@ 1
Famili@@ 0.7696281917382919
Loy@@ 0.8312501766258573
aíso 1
50.000 1
ree 0.22239369291699887
Vol 1
quer 0.312192535230074
27.@@ 0.7161619427458111
0,0@@ 1
Josef 0.3474937775392959
Werner 0.45179048677339695
light 0.07384546599554605
CAF 1
acea 1
Chan 0.93640169941629
flav@@ 0.5692439257483319
Cuc@@ 1
Kul@@ 0.40988962262148115
Roy@@ 0.5166101738822905
Guang@@ 0.6794203889506618
280 0.8766367996385713
Abu@@ 1
Days 0.5892028582900302
Off 0.6918740674052611
mentor 1
Colum@@ 1
Sten@@ 1
Za@@ 1
ID@@ 1
untam@@ 1
Fas@@ 0.5603812752788416
isia 1
Flo@@ 0.44414858211846303
Wellington 0.5629092683702065
Carol@@ 0.8647083330434011
gun@@ 0.3245493218509353
canon@@ 1
Chry@@ 1
Stefan 0.5372755559890119
Hand@@ 0.14290009478735363
ová 1
lao 1
Giorgio 1
atica 1
mend@@ 1
1400 0.9485681663652018
atern@@ 1
Ivan@@ 0.9291896931474231
Sega 1
Zav@@ 1
estan 0.9004694862220017
omi 1
ò 0.705587988333535
vente 0.6680981427755089
Motors 0.8205545614447741
Heb@@ 0.8347614949105046
Lud@@ 0.6088101021981344
Springfield 0.848142636914158
ife 0.42527772576613937
Spears 1
± 1
Meyer 0.5974567206308239
Dag@@ 0.5439267787363089
Namibia 1
Bill@@ 0.5943047441066828
aber 0.03356250887933266
117 0.7513972138184628
pra 1
Episcopal 0.9459363516951281
Qing 1
tices 1
Tub@@ 1
Churchill 0.7727936820373595
oon 0.2763809155980603
volcan@@ 0.6279580871507018
Nassau 0.7677041027551716
UL@@ 1
ands 0.11090656663010227
AO@@ 0.711097050362404
Yemen 1
vid 1
itia 1
lies 0.09041802851234536
Cola 1
Malcolm 0.8460078019827155
bed@@ 0.22195895672426263
get 0.08330432834329064
Nad@@ 0.690457442658339
Solidar@@ 1
Soy@@ 1
Baptiste 0.574185626680839
Cod@@ 1
Fant@@ 1
Marne 0.6906411091701078
eni@@ 0.8737982983490816
CH 0.9251845363796849
alpin@@ 1
330 0.9346225479781284
FE 1
elet 1
Bonif@@ 1
ä 0.596970105762053
enig@@ 1
Powell 0.7089124905015853
Kad@@ 0.4124883040475968
Plin@@ 1
mus 0.38546826527942046
wa@@ 0.22322193578826927
Allan 0.6887897471707083
Classic 0.4333472333383241
SO 1
Julie 0.7186762711853756
hoc@@ 1
UT@@ 1
domes@@ 1
Cincinnati 0.47575006871819203
gau@@ 1
uniones 1
Bridge 0.1953441921478227
salles 1
Meli@@ 1
Storm 0.5326547602925086
Tokyo 0.22837885914806347
o. 1
Deep 0.6689836651188669
Roll 0.8253204631971315
escor@@ 0.5042536631804397
Logan 0.9136896663909598
Aviv 0.9176277086988347
Cox 0.8001741082425698
Ellen 0.7413511718808401
Mann 0.20462974400161682
Angela 0.9615727629774451
Bennett 0.6274810289692666
Whe@@ 0.43175554708057756
ead 0.44573048270596655
otea 1
1783 0.7520682006860674
bun@@ 0.7019380720142993
digo 1
ferr@@ 1
Fantasy 0.7349668978588811
echa 1
Notre 0.33783712539150007
rov 1
zen@@ 0.24820742226695922
Bres@@ 0.9073872553528012
coni 1
bei 0.011771295276495994
iger 0.10407149563747335
stock 0.21404749651466476
Sul 1
itable 0.4273412609201661
Connor 0.7498514777866595
1.500 1
Works 0.284993068844835
elin 0.4973019777799224
Run 0.537975973099431
usiana 1
Fritz 0.4341392529587681
Evil 1
chez 0.12798008651888673
Fior@@ 1
Verona 1
KO 0.7781897520635238
Via 0.8961302836964639
1775 0.7441012970845413
kadi 1
132 0.8999155707148576
Nathan 0.7043557711664186
sera 0.15449594207775108
sitos 1
metab@@ 1
offs 0.6547079581081782
oza 1
1796 0.6287309464352633
Müller 0.4405106813216415
How@@ 0.5018286797051057
Mayer 0.8892292394268059
SM@@ 0.6272780993145355
bli@@ 0.931179962978392
Nina 1
Roh@@ 0.35351278643903444
my@@ 0.14251597034329758
GNU 1
dom 0.3654396901223746
Protagon@@ 1
Prof@@ 0.33127021237535026
Clube 1
Suzuki 1
Curtis 0.7420833717900357
ind 0.34277977521479885
RI 0.7241484929134621
Box 0.47985787792001766
SR 0.20227758911912355
issa 0.7625916507020666
éctr@@ 1
500@@ 1
AO 1
Laurent 0.45630649957895364
Adrian 0.8087547132013236
war 0.006571676996724311
manufac@@ 1
Leslie 0.7256065161202945
270 0.891833839394401
agro@@ 1
refl@@ 0.16062260953657678
DM 0.6115929003021466
Rah@@ 0.4787665897708762
Sao 1
ouv@@ 0.2546913615484876
modi@@ 0.27435714330104516
lote 1
TNA 1
mex@@ 1
Nadal 1
Ster@@ 0.3787162613759546
inger@@ 0.3463705933387537
Nicole 0.9869786023101013
Hunt 0.6072081927419514
Thr@@ 0.5963568492107475
Parlament@@ 1
anni 1
pard 0.7316630089078985
RAF 0.43729202774227566
Aug@@ 0.6793201698394405
Orchestra 0.30299536899324986
1770 0.813302746860527
Laos 1
if 0.04247402682787364
HC 0.4424556382284946
Jamie 0.8422073984832169
Sco@@ 0.9416599035091786
Hou@@ 0.6540703674608201
eck@@ 0.18295627911848103
68@@ 0.7878098371993968
arda 1
97,@@ 1
Religi@@ 0.6171550756036647
Yang 0.6352567254654082
ayer 0.35458875403250967
supr@@ 1
Alessandro 1
Freud 1
1,6 1
Hoy@@ 1
olana 1
Hein@@ 0.4601899781033807
unge 0.6457900108029724
Children 0.3065532245854302
Delhi 0.4130878642404699
Trin@@ 0.553836617592579
oste@@ 1
spir@@ 0.3063043631456585
Gill@@ 0.7047169118940692
Joh@@ 0.6726093601690292
SG 0.4357059888705709
bank 0.11995014888914693
30,@@ 1
Fos@@ 0.5612178875394526
Stones 1
Teg@@ 1
nus 0.7270564757472383
Tra@@ 0.7653839684438185
Wii 1
compos@@ 0.19822843456359265
Fried@@ 0.38019314627112505
ו@@ 1
uya 1
Agro@@ 1
Petit 0.6024606012661523
ture 0.0963912504592415
Bowie 1
Confeder@@ 0.6225908381779999
Homo 1
75@@ 0.6752325317482464
orbit@@ 1
28.@@ 0.7204117482401645
Associ@@ 0.6915388033516615
Gay 0.9019107457949431
Kingston 0.6860941181742134
Prel@@ 1
Wonder 1
SL@@ 0.6853434844018136
Sach@@ 0.31364026614619134
alde 1
had@@ 0.8049314625937576
ahl 0.2831284372549475
his@@ 1
mark 0.1485720142870848
4x@@ 1
xe 0.1912192060784282
juli@@ 1
lon@@ 0.6635971109555392
Salt 0.6584503124258272
lact@@ 1
uld 0.49420231722384733
Burns 0.8090353321093801
Porter 0.7602301780895736
IL@@ 0.8249685250511074
pH 1
ude 0.6673144008678189
Theater 0.1889440487114881
ə@@ 0.8519907655025726
CR 0.5322146054451499
Westminster 0.6215485541843191
Greg@@ 0.8166979776936809
Mesopotamia 1
Festiv@@ 1
produz@@ 0.5956272414124747
Discovery 0.7749118856200261
Flav@@ 1
Fou@@ 0.8003565469684281
Samoa 1
ionista 1
lands 0.10233166357757707
Ji 1
Maggie 1
chir@@ 0.49777041179977916
eit@@ 0.36166876965261513
uss 0.2310526893424773
Grav@@ 0.6846704224645126
Albums 0.38548985852524814
Guyana 1
Reyn@@ 1
clus@@ 0.3989378977211167
adil@@ 0.7320421174609982
cible 0.8133986050876061
1750 0.8467413824445456
[...]
