. 1
, 1
на 1
и 1
в 1
е 1
от 1
се 1
( 1
) 1
за 1
@-@ 1
с 1
„ 1
“ 1
да 1
&quot; 0.4875138748155816
са 1
по 1
– 1
г. 1
като 1
през 1
г 1
си 1
до 1
година 1
ни 1
През 1
но 1
а 1
В 1
му 1
ните 1
не 1
че 1
: 0.9085365014081452
ната 1
това 1
към 1
ва 1
ния 1
ски 1
ска 1
които 1
ка 1
най 1
при 1
или 1
който 1
след 1
не@@ 1
т 1
на@@ 1
из@@ 1
ли 1
На 1
ската 1
фон 1
във 1
; 0.7645265880787943
за@@ 1
има 1
пре@@ 1
ския 1
ното 1
ти 1
А@@ 1
н 1
част 1
време 1
л 1
ко@@ 1
та 1
ват 1
която 1
години 1
ци 1
След 1
което 1
те 1
ли@@ 1
ла 1
у@@ 1
раз@@ 1
ване 1
със 1
ско 1
Е@@ 1
о@@ 1
к 1
ри@@ 1
той 1
по@@ 1
с@@ 1
я 1
к@@ 1
д 1
от@@ 1
град 1
ре@@ 1
ни@@ 1
ра 1
1 1
ите 1
О@@ 1
но@@ 1
е@@ 1
р 1
ят 1
ди 1
съ@@ 1
ът 1
ка@@ 1
де@@ 1
ви 1
По 1
ката 1
ските 1
/ 1
става 1
ле@@ 1
те@@ 1
ването 1
ди@@ 1
ското 1
България 1
до@@ 1
2 1
то 1
около 1
го 1
век 1
ти@@ 1
между 1
много 1
ният 1
ра@@ 1
ри 1
про@@ 1
ви@@ 1
От 1
лен 1
о 1
Той 1
ки 1
село 1
ден 1
мо@@ 1
при@@ 1
л@@ 1
С@@ 1
м 1
си@@ 1
м@@ 1
в@@ 1
† 1
а@@ 1
ма@@ 1
ма 1
може 1
Ко@@ 1
ѝ 1
ми@@ 1
я@@ 1
един 1
ро@@ 1
ците 1
където 1
ва@@ 1
то@@ 1
И@@ 1
ята 1
п@@ 1
война 1
т@@ 1
както 1
й@@ 1
други 1
ла@@ 1
3 1
ло@@ 1
също 1
цията 1
под 1
Ка@@ 1
ник 1
се@@ 1
им 1
г@@ 1
ст 1
ници 1
д@@ 1
та@@ 1
този 1
ция 1
лите 1
па@@ 1
Ма@@ 1
У@@ 1
х@@ 1
започва 1
лни 1
ени 1
По@@ 1
рите 1
късно 1
Б@@ 1
ку@@ 1
само 1
4 1
ми 1
б@@ 1
з@@ 1
ще 1
още 1
ата 1
пе@@ 1
ност 1
ло 1
бо@@ 1
ве@@ 1
би@@ 1
ме@@ 1
За 1
Д@@ 1
и@@ 1
ш@@ 1
души 1
над 1
него 1
път 1
да@@ 1
П@@ 1
една 1
На@@ 1
края 1
К@@ 1
че@@ 1
ките 1
пи@@ 1
срещу 1
га@@ 1
5 1
ща 1
под@@ 1
нов 1
ба@@ 1
I 1
зи@@ 1
така 1
ко 1
га 1
когато 1
вид 1
вата 1
лно 1
Биография 1
го@@ 1
български 1
началото 1
ство 1
са@@ 1
няколко 1
всички 1
6 1
m 1
селото 1
чни 1
чен 1
II 1
ството 1
рат 1
Ми@@ 1
во@@ 1
ен 1
10 1
Т@@ 1
km 1
семейство 1
щи 1
граф 1
тях 1
су@@ 1
лна 1
н@@ 1
20 1
ш 1
со@@ 1
чи@@ 1
За@@ 1
й 1
река 1
об@@ 1
во 1
Не@@ 1
бе@@ 1
София 1
Са@@ 1
сти@@ 1
Де@@ 1
две 1
ският 1
би 1
май 1
септември 1
Г@@ 1
ността 1
града 1
рия 1
заедно 1
Това 1
тя 1
ран 1
% 0.560637544719637
ж@@ 1
рен 1
Ли@@ 1
получава 1
тези 1
ци@@ 1
място 1
Из@@ 1
тази 1
въз@@ 1
Ба@@ 1
Според 1
дъщеря 1
вен 1
В@@ 1
имат 1
януари 1
С 1
ги 1
ру@@ 1
ков 1
сти 1
нията 1
- 0.560041842663488
ф@@ 1
ст@@ 1
намира 1
октомври 1
7 1
САЩ 1
преди 1
Се@@ 1
върху 1
юни 1
Ро@@ 1
Па@@ 1
юли 1
ки@@ 1
името 1
август 1
два 1
хо@@ 1
различни 1
Македония 1
бъде 1
ван 1
М@@ 1
тен 1
Ви@@ 1
нието 1
ду@@ 1
чрез 1
март 1
ране 1
Х@@ 1
рани 1
област 1
сто@@ 1
април 1
ин@@ 1
хи@@ 1
лата 1
син 1
тите 1
ц 1
ца 1
ста@@ 1
ноември 1
п 1
8 1
работи 1
ч@@ 1
три 1
Бо@@ 1
у 1
декември 1
жени 1
община 1
ча@@ 1
ч 1
15 1
де 1
лия 1
зи 1
ница 1
зо@@ 1
ля@@ 1
Бе@@ 1
История 1
&amp; 0.6687829561900899
При@@ 1
дни 1
12 1
ниците 1
р@@ 1
някои 1
ър 1
кра@@ 1
група 1
рана 1
щ 1
ха@@ 1
ан@@ 1
често 1
х 1
Ха@@ 1
Ре@@ 1
Съ@@ 1
ства 1
Ф@@ 1
ба 1
Ра@@ 1
йски 1
щата 1
При 1
страната 1
бу@@ 1
Си@@ 1
чна 1
Тя 1
9 1
30 1
чно 1
Ме@@ 1
з 1
Ал@@ 1
ето 1
февруари 1
Мо@@ 1
ен@@ 1
Ку@@ 1
вайки 1
кон@@ 1
Ди@@ 1
З@@ 1
он 1
език 1
ар@@ 1
вече 1
пред@@ 1
Ле@@ 1
Те 1
ено 1
чи 1
могат 1
сред 1
Пе@@ 1
Ру@@ 1
прави 1
център 1
пр.н.е. 1
роден 1
ява 1
гу@@ 1
империя 1
Пре@@ 1
лната 1
ж 1
вите 1
Ш@@ 1
Ар@@ 1
ши@@ 1
Н@@ 1
Ри@@ 1
Разпространение 1
Видът 1
повече 1
университет 1
Италия 1
фи@@ 1
завършва 1
отново 1
16 1
Северна 1
вър@@ 1
без 1
лу@@ 1
ги@@ 1
бил 1
използва 1
ф 1
000 1
ника 1
стра@@ 1
участва 1
страна 1
Да@@ 1
До@@ 1
ге@@ 1
ту@@ 1
18 1
Я@@ 1
Про@@ 1
19 1
три@@ 1
жители 1
14 1
води 1
11 1
Р@@ 1
училище 1
Л@@ 1
ше@@ 1
части 1
нен 1
населението 1
То@@ 1
сезон 1
височина 1
ве 1
Най 1
поради 1
рата 1
вани 1
ман 1
световна 1
трябва 1
Пи@@ 1
нея 1
ю@@ 1
първата 1
вия 1
дени 1
периода 1
Мар@@ 1
зе@@ 1
13 1
сен 1
мата 1
ск@@ 1
малко 1
обаче 1
гра@@ 1
според 1
це@@ 1
тата 1
тът 1
&apos; 0.2228626428012397
име 1
Ла@@ 1
ръ@@ 1
сън 1
голяма 1
Раз@@ 1
III 1
б 1
ран@@ 1
бург 1
17 1
Германия 1
ц@@ 1
ат@@ 1
Та@@ 1
пра@@ 1
Франция 1
ста 1
своя 1
чески 1
член 1
Русия 1
25 1
ня@@ 1
край 1
Га@@ 1
берг 1
ля 1
пла@@ 1
армия 1
Ве@@ 1
Би@@ 1
Лу@@ 1
Бу@@ 1
система 1
умира 1
ев 1
Свети 1
мен 1
2010 0.7487490026488779
му@@ 1
Ва@@ 1
ров 1
рането 1
били 1
* 1
лов 1
смъртта 1
ман@@ 1
йки 1
дава 1
мен@@ 1
Ю@@ 1
же@@ 1
км 1
ции 1
лните 1
ъ@@ 1
жи@@ 1
пи 1
фе@@ 1
чев 1
Ти@@ 1
жи 1
Гърция 1
2011 0.8283919256768478
Ки@@ 1
лят 1
жда 1
Те@@ 1
Ан@@ 1
църква 1
население 1
ал@@ 1
Иван 1
Европа 1
йн 1
ши 1
вете 1
Георги 1
кри@@ 1
тъ@@ 1
стите 1
Въпреки 1
нови 1
ани 1
кръ@@ 1
без@@ 1
вана 1
ну@@ 1
ке@@ 1
ша 1
докато 1
Го@@ 1
днес 1
чу@@ 1
полу@@ 1
тни 1
От@@ 1
ние 1
ха 1
тан@@ 1
първи 1
ващи 1
играе 1
едно 1
Ни@@ 1
Мария 1
кия 1
времето 1
пише 1
деца 1
отбор 1
12@@ 1
Хо@@ 1
А 1
циите 1
21 1
ьо@@ 1
Роден 1
дена 1
страни 1
групата 1
баща 1
живот 1
ан 1
тъй 1
над@@ 1
нова 1
13@@ 1
ча 1
щите 1
печели 1
кар@@ 1
Населението 1
ит@@ 1
големи 1
ек@@ 1
първия 1
ор@@ 1
света 1
нат 1
па 1
крал 1
период 1
пу@@ 1
окръг 1
сили 1
Ло@@ 1
рано 1
вал 1
Ц@@ 1
фа@@ 1
24 1
остава 1
Южна 1
вания 1
брат 1
хе@@ 1
Ду@@ 1
лото 1
Су@@ 1
Има 1
кът 1
чер@@ 1
щ@@ 1
провинция 1
мъ@@ 1
22 1
Гра@@ 1
фо@@ 1
2000 0.9799649037737747
сте@@ 1
ска@@ 1
първите 1
Кар@@ 1
др 1
войната 1
Но@@ 1
ер@@ 1
сни 1
бъдат 1
ро 1
пред 1
.@@ 1
известен 1
ден@@ 1
нал 1
us 0.5475989948833065
места 1
почти 1
начин 1
лъ@@ 1
Ч@@ 1
няма 1
2012 0.7356264164658403
там 1
2009 0.7586735584072336
голям 1
2007 0.8100303903173218
мите 1
къ@@ 1
вали 1
чната 1
тна 1
2008 0.7552706591215889
дата 1
ител 1
зна@@ 1
жен 1
продължава 1
чните 1
ак@@ 1
филм 1
тия 1
йската 1
тре@@ 1
включва 1
стро@@ 1
ме 1
бра@@ 1
Александър 1
цел 1
23 1
Първата 1
2006 0.8074326683990488
Кон@@ 1
жа@@ 1
рът 1
ър@@ 1
хора 1
дите 1
ждат 1
използват 1
Об@@ 1
двете 1
дъ@@ 1
данни 1
ген 1
бър@@ 1
все 1
тогава 1
работа 1
ле 1
всеки 1
лния 1
тра@@ 1
била 1
сия 1
Со@@ 1
Димитър 1
̀ 1
американски 1
нява 1
26 1
оби@@ 1
жена 1
50 1
семейството 1
успява 1
кс 1
йския 1
10@@ 1
спа@@ 1
спо@@ 1
кан@@ 1
ху@@ 1
гла@@ 1
резултат 1
ари 1
север 1
областта 1
сът 1
района 1
същата 1
награда 1
idae 1
море 1
само@@ 1
мия 1
род@@ 1
Фридрих 1
въ@@ 1
лю@@ 1
дейност 1
тно 1
територията 1
император 1
щайн 1
ново 1
запа@@ 1
род 1
100 1
мо 1
юг 1
четири 1
председател 1
вода 1
Втората 1
ур@@ 1
Като 1
степен 1
съюз 1
2013 0.659625338090249
ско@@ 1
малки 1
дия 1
ате@@ 1
ер 1
първият 1
28 1
отбора 1
партия 1
стта 1
заради 1
пъти 1
генерал 1
кла@@ 1
своите 1
що 1
ваща 1
лин@@ 1
2014 0.632236940068958
Ин@@ 1
дори 1
регион 1
управление 1
27 1
република 1
изток 1
сло@@ 1
Му@@ 1
албум 1
2005 0.8326473091305485
пол@@ 1
жда@@ 1
тър@@ 1
Хи@@ 1
ща@@ 1
лното 1
своята 1
ша@@ 1
ем@@ 1
тро@@ 1
пар@@ 1
стре@@ 1
ел 1
площ 1
жението 1
множество 1
мача 1
преминава 1
ващ 1
голямата 1
например 1
възраст 1
° 1
обикновено 1
участие 1
тън 1
Ке@@ 1
близо 1
IV 1
църквата 1
живота 1
рията 1
Ге@@ 1
вен@@ 1
филма 1
съпруга 1
рин@@ 1
2001 0.9858580806167261
ждане 1
ет@@ 1
Към 1
тур@@ 1
бро@@ 1
жа 1
40 1
лин 1
8@@ 1
дължина 1
ък 1
острови 1
лан@@ 1
разпространен 1
организация 1
остров 1
2015 0.6028116894157514
гле@@ 1
Карл 1
Кри@@ 1
чка 1
войски 1
йска 1
вла@@ 1
14@@ 1
излиза 1
вида 1
история 1
кли@@ 1
дж@@ 1
среща 1
2004 0.8242937586557432
1944 1
Кра@@ 1
дър@@ 1
надморска 1
Република 1
гъ@@ 1
ън 1
Османската 1
он@@ 1
включително 1
вер@@ 1
ет 1
До 1
2002 0.937361267334333
вена 1
гат 1
29 1
стен 1
лски 1
Когато 1
общината 1
достига 1
пло@@ 1
Йо@@ 1
анти@@ 1
e 0.30827356755885704
линия 1
_ 0.6092859032849591
Ста@@ 1
ря@@ 1
групи 1
хра@@ 1
кариера 1
съвет 1
ано 1
Фи@@ 1
съпругата 1
състои 1
И 1
бата 1
застрашен 1
чо 1
лд 1
чени 1
The 0.04363512012024745
особено 1
избран 1
Хе@@ 1
казва 1
Бер@@ 1
лен@@ 1
запад 1
Освен 1
министър 1
шка 1
брой 1
чния 1
gt 0.8183399920201321
Ж@@ 1
вя@@ 1
създава 1
ати@@ 1
мина@@ 1
средата 1
форма 1
власт 1
предимно 1
живее 1
География 1
вото 1
историята 1
бен 1
добре 1
² 1
9@@ 1
пъ@@ 1
ос@@ 1
започват 1
пер@@ 1
втората 1
херцог 1
шен 1
тор 1
Фа@@ 1
българи 1
Ню 1
вероятно 1
сла@@ 1
нов@@ 1
право 1
яване 1
дя@@ 1
общо 1
чат 1
lt 0.8473202578694373
връзка 1
въпреки 1
жен@@ 1
ческа 1
край@@ 1
жение 1
лка 1
ита 1
силно 1
Рай@@ 1
V 1
сите 1
нарича 1
мир 1
Ай@@ 1
пис@@ 1
ални 1
бор@@ 1
Хайнрих 1
ген@@ 1
отнася 1
сен@@ 1
ори 1
Вер@@ 1
ня 1
ян 1
вени 1
сл 1
служба 1
договор 1
Гу@@ 1
състава 1
Сто@@ 1
майка 1
нски 1
тип 1
чета 1
шки 1
1990 0.992250059109158
Така 1
60 1
31 1
Мал@@ 1
защото 1
вар@@ 1
Кара@@ 1
Ша@@ 1
Ор@@ 1
влиза 1
дел@@ 1
лени 1
работ@@ 1
Йохан 1
годишна 1
видове 1
Никола 1
яват 1
2016 0.5276034968237568
рен@@ 1
ус 1
мар@@ 1
Завършва 1
след@@ 1
№ 1
Петър 1
пъл@@ 1
Во@@ 1
шо@@ 1
ъл 1
ителите 1
преда@@ 1
ално 1
лет@@ 1
носи 1
&#93; 0.49834553615434996
било 1
българска 1
Хар@@ 1
роля 1
гръцки 1
Разпространен 1
никът 1
големите 1
дро@@ 1
гре@@ 1
Пловдив 1
щат 1
&#91; 0.49393061018799717
изчезване 1
ствена 1
прове@@ 1
ера 1
ако 1
ление 1
неговата 1
ствата 1
представлява 1
Ту@@ 1
назначен 1
пле@@ 1
вни 1
мач 1
район 1
рена 1
0 0.7281441017702655
2003 0.8057220839005333
кото 1
дено 1
Чер@@ 1
ред 1
хората 1
гор@@ 1
ствени 1
цар 1
Рим 1
2017 0.5327801499324925
повечето 1
Че@@ 1
песни 1
Джон 1
стри@@ 1
състав 1
Васил 1
цен@@ 1
йн@@ 1
свят 1
приема 1
графиня 1
поли@@ 1
Бра@@ 1
всяка 1
кова 1
втори 1
рин 1
комитет 1
лич@@ 1
провежда 1
метра 1
Англия 1
Ман@@ 1
тя@@ 1
академия 1
мът 1
хар@@ 1
Ча@@ 1
редица 1
s 0.1266269737366107
бан@@ 1
мета@@ 1
рени 1
нена 1
човек 1
класи@@ 1
пр 1
държава 1
Щ@@ 1
вли@@ 1
им@@ 1
ити 1
електро@@ 1
це 1
милиона 1
Въз@@ 1
ъ 1
джи@@ 1
ъл@@ 1
българската 1
плани@@ 1
Испания 1
свързани 1
учи 1
бите 1
ене@@ 1
7@@ 0.8953102677618253
ална 1
стър 1
сту@@ 1
вна 1
Тре@@ 1
ре 1
ред@@ 1
тър 1
руски 1
Нова 1
Париж 1
син@@ 1
80 1
Стефан 1
Лю@@ 1
фор@@ 1
послед@@ 1
манастир 1
полк 1
вра@@ 1
1912 1
же 1
дат 1
започ@@ 1
командир 1
Филип 1
Вал@@ 1
Бар@@ 1
ане 1
живеят 1
гата 1
щия 1
сила 1
тин@@ 1
доб@@ 1
сел@@ 1
пет 1
бързо 1
вица 1
известни 1
вой@@ 1
лена 1
водо@@ 1
Америка 1
ю 1
Три@@ 1
образование 1
Великобритания 1
музика 1
голямо 1
неговите 1
Мон@@ 1
све@@ 1
друг 1
йските 1
връх 1
дивизия 1
Мак@@ 1
гимназия 1
Китай 1
1991 1
връща 1
ос 1
зия 1
разположен 1
Африка 1
пан@@ 1
развитие 1
известна 1
политически 1
Пър@@ 1
коле@@ 1
ато@@ 1
ед@@ 1
цата 1
началник 1
C 0.6156088675260744
собстве@@ 1
Христо 1
тер@@ 1
нин 1
главен 1
1945 1
Умира 1
гри@@ 1
движение 1
друга 1
месеца 1
вски 1
тове 1
разположени 1
дра@@ 1
лица 1
зъм 1
отношение 1
Бре@@ 1
нение 1
зу@@ 1
ск 1
К 1
стил 1
Пет@@ 1
заема 1
театър 1
ний 1
продължение 1
Кор@@ 1
вала 1
основно 1
мин@@ 1
1999 0.7622174007488316
ще@@ 1
2018 0.4454255194736938
реката 1
чното 1
оръ@@ 1
1913 1
образу@@ 1
рий 1
чове@@ 1
еди@@ 1
Дж@@ 1
СССР 1
70 1
нос 1
правителство 1
следва 1
гър@@ 1
спор@@ 1
+ 1
То 1
произход 1
свет@@ 1
тната 1
ези@@ 1
дву@@ 1
образ@@ 1
йско 1
ствено 1
ета 1
жава 1
държави 1
Този 1
вено 1
нения 1
обя@@ 1
литература 1
директор 1
създаването 1
П 1
първенство 1
покри@@ 1
опа@@ 1
Сла@@ 1
— 0.09147599321215029
лятото 1
вано 1
вод@@ 1
ати 1
мили@@ 1
ности 1
президент 1
Япония 1
мястото 1
ствен 1
Йорк 1
гите 1
цар@@ 1
щето 1
новата 1
останалите 1
ителни 1
ход@@ 1
сина 1
ители 1
английски 1
управлението 1
птица 1
бива 1
of 0.0097192023706751
тел 1
рай@@ 1
= 0.6157205225367366
цялата 1
дар@@ 1
Първият 1
истори@@ 1
1992 0.904237827871952
Ши@@ 1
пости@@ 1
Българската 1
първото 1
точка 1
ил 1
сле@@ 1
хайм 1
1941 1
политик 1
ров@@ 1
произ@@ 1
1989 1
ок 1
вно 1
нала 1
Николай 1
действия 1
книги 1
френски 1
зен 1
наслед@@ 1
значение 1
Вилхелм 1
кре@@ 1
лек@@ 1
хода 1
решава 1
Ху@@ 1
ся@@ 1
лер 1
ницата 1
центъра 1
ьор@@ 1
бри@@ 1
дът 1
бъде@@ 1
XIX 1
зем@@ 1
намират 1
Анна 1
кан 1
1998 0.7867796784789347
служи 1
Полша 1
Западна 1
топ@@ 1
рал 1
дер 1
чки 1
Св 1
напуска 1
гро@@ 1
другите 1
бар@@ 1
сме@@ 1
чава 1
Михаил 1
малка 1
двата 1
Някои 1
морски 1
ител@@ 1
епископ 1
стават 1
formula 0.5051032045198935
роман 1
Москва 1
правителството 1
същото 1
бя@@ 1
футболист 1
200 1
ав@@ 1
разположено 1
дове 1
дьо 1
албума 1
Вели@@ 1
1997 0.8382919017978504
децата 1
Цент@@ 1
лът 1
зира 1
ролята 1
бряг 1
едва 1
дер@@ 1
щати 1
тер 1
ън@@ 1
Във 1
пове@@ 1
Тази 1
Поли@@ 1
неговото 1
превръща 1
сна 1
Там 1
! 0.6228612704373175
дей@@ 1
сър@@ 1
мост 1
означава 1
Т 1
есте@@ 1
къс@@ 1
1996 0.8237942952282807
Намира 1
ент@@ 1
последните 1
битката 1
Азия 1
ком@@ 1
вър 1
Тези 1
призна@@ 1
ита@@ 1
ок@@ 1
военни 1
учител 1
90 1
разлика 1
няват 1
стъ@@ 1
кен@@ 1
нали 1
песента 1
лига 1
йна 1
лов@@ 1
подоб@@ 1
Кръ@@ 1
мм 1
Турция 1
1995 0.8486600407528206
нос@@ 1
унищо@@ 1
ца@@ 1
мати@@ 1
нето 1
Къ@@ 1
Селото 1
княз 1
дне@@ 1
съще@@ 1
скоро 1
тира 1
1994 0.8473738088335196
откри@@ 1
поставя 1
книга 1
лий 1
ново@@ 1
плат@@ 1
Поради 1
мини@@ 1
йни 1
едно@@ 1
консул 1
завър@@ 1
спи@@ 1
успех 1
четвър@@ 1
Индия 1
йт 1
нението 1
6@@ 0.8190287294358286
напълно 1
ун@@ 1
мер@@ 1
ческо 1
ше 1
ителен 1
главно 1
изкуство 1
Май@@ 1
информация 1
Дра@@ 1
Фе@@ 1
течение 1
малък 1
Света 1
издава 1
двамата 1
прав@@ 1
много@@ 1
щият 1
1980 0.8920175832152047
зона 1
Елизабет 1
Описание 1
компания 1
Сан@@ 1
Сърбия 1
ена 1
кораба 1
насо@@ 1
вели@@ 1
територия 1
стена 1
ително 1
кораби 1
ващите 1
сата 1
въстание 1
влияние 1
изследвания 1
Сан 1
граф@@ 1
коло@@ 1
али@@ 1
кове 1
рав@@ 1
Константин 1
лено 1
Варна 1
поле 1
М 1
Д 1
зва 1
лището 1
развитието 1
Лудвиг 1
Ше@@ 1
бъ@@ 1
кови 1
събрание 1
Дже@@ 1
теле@@ 1
кръг 1
праз@@ 1
тук 1
градове 1
планина 1
жат 1
сан@@ 1
тив@@ 1
Це@@ 1
Дей@@ 1
Чи@@ 1
исторически 1
изпъл@@ 1
тар@@ 1
защита 1
ван@@ 1
анд@@ 1
тон 1
политика 1
­ 1
тните 1
Участва 1
фи 1
ора 1
писател 1
Австралия 1
опит 1
чо@@ 1
известно 1
mm 1
официално 1
почи@@ 1
раст@@ 1
фер@@ 1
производство 1
българските 1
цо@@ 1
половина 1
тото 1
гия 1
кул@@ 1
целия 1
случай 1
професор 1
a 0.010705355300410517
завръща 1
водата 1
пара@@ 1
ческите 1
идва 1
изцяло 1
дъл@@ 1
1993 0.8451184149134459
бер@@ 1
членове 1
лява 1
ционни 1
Пра@@ 1
произведения 1
въве@@ 1
продъл@@ 1
зата 1
организи@@ 1
ин 1
преброяването 1
неговия 1
бия 1
Лондон 1
развива 1
обявява 1
Пла@@ 1
култура 1
слу@@ 1
ций 1
гар@@ 1
Украйна 1
гер 1
бре@@ 1
позиция 1
шката 1
пор@@ 1
участват 1
тор@@ 1
народ@@ 1
вин@@ 1
форми@@ 1
правят 1
следващите 1
ери 1
появява 1
Пу@@ 1
2019 0.3935751283586537
сестра 1
стка 1
ционен 1
чена 1
пови@@ 1
физи@@ 1
съд 1
шно 1
Под@@ 1
лей@@ 1
лина 1
тен@@ 1
ждането 1
музей 1
положение 1
планината 1
джа@@ 1
ните@@ 1
твър@@ 1
точ@@ 1
Но 1
кораб 1
села 1
1943 1
чин 1
първо 1
они 1
десет 1
игра@@ 1
Ак@@ 1
Бразилия 1
жените 1
управля@@ 1
1878 1
юр@@ 1
мени 1
състояние 1
Джо@@ 1
ум 1
логи@@ 1
Източна 1
клуб 1
лова 1
мов 1
всичко 1
изпра@@ 1
автор 1
ене 1
фа 1
посо@@ 1
Мла@@ 1
против 1
земи 1
първоначално 1
менти 1
игри 1
вестник 1
ланд@@ 1
вият 1
годината 1
хи 1
500 1
условия 1
пен 1
Б 1
разде@@ 1
пада 1
гола 1
висо@@ 1
Сред 1
ителна 1
1970 0.8921750044759054
br 1
диа@@ 1
помощта 1
слав 1
прода@@ 1
тан 1
P@@ 0.15199224363536748
значително 1
1900 1
дру@@ 1
изобраз@@ 1
нар@@ 1
шу@@ 1
наме@@ 1
Разположено 1
гли@@ 1
себе 1
Бал@@ 1
демокра@@ 1
райони 1
техните 1
стика 1
довете 1
живо@@ 1
системи 1
издаден 1
кита@@ 1
държав@@ 1
километра 1
проект 1
шни 1
временно 1
езици 1
настоя@@ 1
открива 1
право@@ 1
годините 1
стъп@@ 1
1918 1
флот 1
Фамилия 1
столицата 1
нина 1
формата 1
институт 1
рал@@ 1
Пред@@ 1
дан@@ 1
записва 1
цели 1
Вол@@ 1
рон 1
ити@@ 1
ули@@ 1
представител 1
ков@@ 1
сви@@ 1
ата@@ 1
елементи 1
Бур@@ 1
включ@@ 1
рис 1
мон@@ 1
включват 1
Ер@@ 1
Източ@@ 1
разположена 1
пръв 1
българско 1
компанията 1
шампион 1
отво@@ 1
Стара 1
зов 1
тура 1
the 0.004356815350844883
Марк 1
S@@ 0.1287925299590977
Зе@@ 1
алната 1
сп@@ 1
сто 1
иг@@ 1
присъ@@ 1
осман@@ 1
ланд 1
град@@ 1
зма 1
книгата 1
военен 1
основава 1
селище 1
is 0.026188408959198915
точки 1
позволява 1
смята 1
рии 1
участието 1
близост 1
Ев@@ 1
Австрия 1
действие 1
пътя 1
секретар 1
следващата 1
версия 1
i 0.2369825226359957
Вла@@ 1
използва@@ 1
решение 1
наре@@ 1
ческия 1
вяр@@ 1
макар 1
1960 0.9559571033108629
освен 1
ьо 1
модер@@ 1
Други 1
обща 1
часа 1
предлага 1
око@@ 1
състав@@ 1
средства 1
брак 1
титлата 1
толкова 1
цент@@ 1
дре@@ 1
лат@@ 1
пли@@ 1
пти@@ 1
тика 1
Между 1
проте@@ 1
оти@@ 1
1940 1
лет 1
изключително 1
ФК 1
разши@@ 1
създа@@ 1
35 1
лска 1
кият 1
задъл@@ 1
рио@@ 1
оказва 1
армията 1
мет@@ 1
рей@@ 1
песен 1
чет@@ 1
вет@@ 1
владе@@ 1
сезона 1
cm 1
пен@@ 1
военна 1
разпростра@@ 1
сметка 1
Ек@@ 1
пър@@ 1
со 1
работата 1
пръ@@ 1
противо@@ 1
реали@@ 1
дело 1
1942 1
Джа@@ 1
Хай@@ 1
езерото 1
май@@ 1
Мексико 1
вате@@ 1
оста@@ 1
ниво 1
израз@@ 1
такива 1
шко 1
процес 1
съществу@@ 1
шест 1
нер 1
Ги@@ 1
Първоначално 1
пуска 1
Не 1
къщи 1
заместник 1
алните 1
филми 1
представ@@ 1
сигурност 1
Вар@@ 1
чва 1
втория 1
помощ 1
Унгария 1
графи@@ 1
прото@@ 1
взема 1
чават 1
крити@@ 1
Фу@@ 1
добър 1
понякога 1
ито 1
Ен@@ 1
мени@@ 1
зва@@ 1
Гор@@ 1
губи 1
лев 1
Пан@@ 1
големият 1
ностите 1
ян@@ 1
позна@@ 1
Й@@ 1
показва 1
своето 1
смя@@ 1
отношения 1
мат@@ 1
пое@@ 1
соци@@ 1
ански 1
2020 0.3709064297673839
температура 1
мни 1
омъжва 1
M@@ 0.162782308924406
награди 1
следните 1
рак@@ 1
стве@@ 1
българския 1
Син@@ 1
ун 1
сграда 1
Стра@@ 1
Гла@@ 1
изди@@ 1
Църквата 1
гр 1
новия 1
дали 1
нени 1
ул 1
гори@@ 1
Много 1
бал@@ 1
представя 1
ващо 1
изя@@ 1
намира@@ 1
мрежа 1
Канада 1
възможност 1
нася 1
част@@ 1
кто@@ 1
Же@@ 1
бол@@ 1
ней@@ 1
права 1
Въ@@ 1
рок 1
дин@@ 1
новен 1
ели@@ 1
събития 1
учеб@@ 1
тена 1
Лан@@ 1
ват@@ 1
мат 1
Пар@@ 1
коре@@ 1
1986 0.8923541028129602
отказва 1
основа 1
сва@@ 1
зите 1
острова 1
Р 1
дружество 1
О 1
45 1
бах 1
инди@@ 1
професиона@@ 1
Мари@@ 1
висока 1
крат@@ 1
мла@@ 1
обеди@@ 1
съюз@@ 1
Централна 1
определя 1
тръ@@ 1
пет@@ 1
ал 1
Още 1
испан@@ 1
1988 0.8151167650373772
съгла@@ 1
ев@@ 1
говори 1
проблеми 1
нито 1
тин 1
вол@@ 1
ква@@ 1
Кру@@ 1
5@@ 0.7034188758174413
од@@ 1
отде@@ 1
потреб@@ 1
списание 1
лният 1
Пер@@ 1
забра@@ 1
южната 1
Глав@@ 1
Йоан 1
годишен 1
Кирил 1
два@@ 1
коми@@ 1
вът 1
животни 1
1950 0.9635393423951671
мест@@ 1
минава 1
съдържа 1
опера@@ 1
създадена 1
Ел@@ 1
пат@@ 1
чение 1
достигат 1
цвет@@ 1
съществува 1
форми 1
так@@ 1
мя@@ 1
Преди 1
зат@@ 1
ите@@ 1
ток 1
дения 1
... 0.6901123632404127
новите 1
1934 1
властта 1
рода 1
Дру@@ 1
рамките 1
твор@@ 1
лс 1
области 0.9490974150794104
пол 1
византи@@ 1
извършва 1
вил 1
1905 1
опитва 1
ясно 1
Север@@ 1
сон 1
авто@@ 1
месец 1
оръдия 1
треньор 1
двама 1
Ако 1
D@@ 0.1438181395036937
Тра@@ 1
родена 1
воде@@ 1
лите@@ 1
Египет 1
уни@@ 1
ква 1
културата 1
приток 1
програма 1
тски 1
ган 1
същия 1
северната 1
300 1
шите 1
публикува 1
впоследствие 1
хиляди 1
вре@@ 1
националния 1
смърт 1
дна 1
.. 1
извън 1
съвет@@ 1
ева 1
басейн 1
поло@@ 1
границата 1
основните 1
бе 1
цът 1
Румъния 1
сове 1
лис 1
кор@@ 1
чите 1
Гре@@ 1
избори 1
C@@ 0.15974929663038578
съответ@@ 1
ган@@ 1
лизи@@ 1
вис@@ 1
Сре@@ 1
разработ@@ 1
автомоби@@ 1
защит@@ 1
яването 1
футбол 1
Кан@@ 1
попада 1
Кла@@ 1
гори 1
преми@@ 1
Уе@@ 1
de 0.00528222512194745
Бър@@ 1
ково 1
наградата 1
нати 1
доста 1
стен@@ 1
Джи@@ 1
кате@@ 1
32 1
2@@ 0.8402435399733268
вка 1
построена 1
гене@@ 1
кара 1
тялото 1
нската 1
модел 1
1985 0.8504781604518901
рий@@ 1
Бан@@ 1
1920 1
установява 1
ем 1
плъ@@ 1
принцеса 1
начело 1
поема 1
бли@@ 1
рец 1
Основ@@ 1
бой@@ 1
ръко@@ 1
1987 0.8189785187645202
хими@@ 1
причина 1
Името 1
Население 1
иска 1
оп@@ 1
срещат 1
възможно 1
зе 1
изпълнява 1
немски 1
деец 1
жу@@ 1
щото 1
създаден 1
сно 1
лението 1
пите 1
B@@ 0.1338264424474559
случаи 1
капитан 1
езеро 1
ут@@ 1
представители 1
премина@@ 1
освобо@@ 1
Г 1
Шу@@ 1
Само@@ 1
кти@@ 1
рова 1
сега 1
1984 0.8334969231853311
сов 1
фамилията 1
кариерата 1
новете 1
ъра 1
чен@@ 1
мир@@ 1
A@@ 0.15163454151382563
получават 1
Йе@@ 1
Бро@@ 1
погре@@ 1
1939 1
Първите 1
пя@@ 1
пе 1
нен@@ 1
кър@@ 1
ум@@ 1
1981 0.8893357617069094
XX 1
Произход 1
връ@@ 1
дви@@ 1
1968 0.9262727141093842
прекра@@ 1
сли@@ 1
ву@@ 1
Борис 1
национален 1
тов 0.8838916504817872
Берлин 1
япон@@ 1
офицер 1
прием@@ 1
четата 1
-@@ 0.5878072949446822
Виена 1
лон 1
скорост 1
пока@@ 1
високо 1
клас 1
основни 1
1974 0.9147452644898164
бур@@ 1
енергия 1
Балканската 1
дем 1
ческата 1
региона 1
роман@@ 1
точно 1
обе@@ 1
бо 1
йс 1
чението 1
статут 1
ото 1
из 0.19457686128644291
кси@@ 1
Джеймс 1
пак 1
митрополит 1
нор@@ 1
път@@ 1
дри@@ 1
помага 1
Също 1
войници 1
въл@@ 1
Баща 1
епархия 1
промени 1
ционна 1
негов 1
1979 0.8745252106906133
гора 1
производ@@ 1
гне 1
планински 1
план 1
как 0.3313431688211095
среда 1
вижда 1
занимава 1
обра@@ 1
ета@@ 1
храм 1
лист 1
производството 1
долината 1
зация 1
мна 1
ход 1
трите 1
1978 0.8992348229993594
кат@@ 1
1948 1
зае@@ 1
VI 1
Дъ@@ 1
теж@@ 1
1971 0.9092795508982888
големия 1
изда@@ 1
E@@ 0.17116015758240236
дом 1
она 1
църков@@ 1
обви@@ 1
ствие 1
западната 1
чието 1
типа 1
Мор@@ 1
Административен 1
турнира 1
лог 1
нер@@ 1
бази@@ 1
посока 1
широко 1
дове@@ 1
лан 1
убит 1
1928 1
земя 1
Кал@@ 1
контрол 1
ралния 1
беле@@ 1
влизат 1
e@@ 0.1522125882962304
християн@@ 1
ляне 1
уч@@ 1
1982 0.8397248636755621
чност 1
вид@@ 1
фу@@ 1
военно@@ 1
сед@@ 1
Ран@@ 1
1976 0.8808897286341317
отбелязва 1
ьор 1
Разположен 1
уме@@ 1
дълго 1
местообитание 1
ке 0.6875747921719347
победа 1
1946 1
Тър@@ 1
дават 1
открити 1
1@@ 1
кин 1
чето 1
рение 1
винаги 1
Вър@@ 1
Левски 1
школа 1
европейски 1
кратко 1
мон 1
ология 1
Бен@@ 1
йо@@ 1
резер@@ 1
зани 1
тичен 1
Владимир 1
практика 1
гът 1
проекта 1
италиански 1
войни 1
оригина@@ 1
ръководството 1
1972 0.8376721695874447
Вай@@ 1
причи@@ 1
сградата 1
твърди 1
Фран@@ 1
столица 1
тични 1
използвани 1
Британ@@ 1
Гри@@ 1
момент 1
шава 1
V@@ 0.1846768649116217
гнат 1
фон@@ 1
местните 1
ад@@ 1
вич 1
1930 1
т.нар. 1
ането 1
мент 1
ждава 1
чест 1
тел@@ 1
университета 1
шата 1
дел 1
лство 1
спече@@ 1
пит@@ 1
правител@@ 1
един@@ 1
жни 1
Доб@@ 1
тори 1
бле@@ 1
лската 1
т.е. 1
електри@@ 1
ради@@ 1
прави@@ 1
дял 1
творчество 1
маси@@ 1
T@@ 0.12536239719396547
къща 1
бург@@ 1
остават 1
тар 1
лагат 1
източната 1
офици@@ 1
турската 1
йското 1
ограни@@ 1
Димитров 1
нд 1
цялото 1
Нико@@ 1
дар 1
Градът 1
традицион@@ 1
грани@@ 1
дале@@ 1
рено 1
еле@@ 1
четири@@ 1
зву@@ 1
Всички 1
1975 0.8103811320671981
благород@@ 1
ец 1
унгар@@ 1
редактор 1
сий 1
общество 1
присъединява 1
1947 1
океан 1
Калифорния 1
постепенно 1
предизви@@ 1
цо 1
хвър@@ 1
ей 1
побе@@ 1
жителите 1
стру@@ 1
гол 1
запис@@ 1
обла@@ 1
стар@@ 1
дж 1
жеството 1
ръководител 1
свързва 1
Вис@@ 1
жо@@ 1
ара 1
радио@@ 1
низи@@ 1
Днес 1
наричат 1
мит@@ 1
каза 1
1969 0.9045821713136477
дан 1
извърш@@ 1
Солун 1
Ото 1
лати@@ 1
битка 1
Ръ@@ 1
австри@@ 1
1973 0.8555860076239393
мал@@ 1
Лай@@ 1
лър 1
Площта 1
организацията 1
нични 1
стран@@ 1
1983 0.7923221779665641
Започва 1
гръцката 1
ана 1
отива 1
земята 1
джа 1
дете 1
православна 1
жения 1
зад 1
Ци@@ 1
заминава 1
1927 1
изче@@ 1
революция 1
древ@@ 1
йл 1
кол@@ 1
Югославия 1
полуостров 1
Луи 1
Тодор 1
американ@@ 1
сгради 1
стрел@@ 1
Саксония 1
чват 1
нически 1
гане 1
парк 1
уче@@ 1
организации 1
1919 1
реките 1
кло@@ 1
турски 1
съответно 1
семейства 1
вец 1
специално 1
тов@@ 1
държавата 1
1923 1
1967 0.897525621164737
L@@ 0.11862005765846798
y@@ 0.19534872317204385
Един 1
гел 1
бивш 1
уби@@ 1
различните 1
Стру@@ 1
вин 1
народен 1
мин 1
тична 1
Земята 1
Фо@@ 1
трети 1
описва 1
изпраща 1
дън 1
актьор 1
Фри@@ 1
българското 1
пълно@@ 1
обществе@@ 1
рове 1
лож@@ 1
завърш@@ 1
сор@@ 1
тият 1
колек@@ 1
стът 1
G@@ 0.11403962679931424
Кур@@ 1
мар 1
нама@@ 1
европей@@ 1
науки 1
поч@@ 1
станция 1
издание 1
Запад@@ 1
Голе@@ 1
У 1
нато@@ 1
дворец 1
румъ@@ 1
1962 0.9755025365741997
манастира 1
Бургас 1
лага 1
Павел 1
Кул@@ 1
тивно 1
майор 1
отделни 1
организира 1
щи@@ 1
зависимост 1
щен 1
Воен@@ 1
рас@@ 1
актриса 1
основата 1
съхра@@ 1
постав@@ 1
кур@@ 1
успешно 1
сре@@ 1
фикация 1
Сер@@ 1
граница 1
Създа@@ 1
разли@@ 1
стандар@@ 1
кот@@ 1
лация 1
хро@@ 1
изо@@ 1
местността 1
Американ@@ 1
Фор@@ 1
1966 0.9182977333337572
мно 1
Анти@@ 1
подписва 1
военно 1
спе@@ 1
статистиката 1
материали 1
ления 1
Тро@@ 1
стои 1
кралство 1
транс@@ 1
зването 1
превър@@ 1
крайна 1
открит 1
Бру@@ 1
има@@ 1
консу@@ 1
пад@@ 1
Жи@@ 1
титла 1
дол@@ 1
начало 1
дълго@@ 1
ален 1
сравнително 1
съвремен@@ 1
необходи@@ 1
господар 1
компози@@ 1
1965 0.8954843074547031
вторият 1
Ос@@ 1
нския 1
стига 1
БКП 1
системата 1
живе@@ 1
глед 1
Георг 1
стан@@ 1
Община 1
общ@@ 1
Пара@@ 1
изи@@ 1
Бри@@ 1
науч@@ 1
1977 0.8307380978685306
дин 1
когото 1
финала 1
1959 1
1964 0.8781305232159712
Бай@@ 1
Тук 1
1915 1
пило@@ 1
гара 1
убе@@ 1
лност 1
мс 1
Бор@@ 1
Жан 1
щава 1
F@@ 0.12758176082817838
Уилям 1
епоха 1
управлява 1
Тогава 1
38 1
Сте@@ 1
южно 1
зване 1
преимену@@ 1
следващия 1
Кай@@ 1
паметник 1
папа 1
стане 1
1949 1
лския 1
дра 1
Работи 1
1938 1
3@@ 0.6620449835176442
Формула 1
2021 0.3553633490511717
кръсто@@ 1
Ау@@ 1
план@@ 1
Иванов 1
приемат 1
подкрепа 1
факултет 1
A 0.10148407427810976
атор 1
смър@@ 1
фото@@ 1
имало 1
футбо@@ 1
наречен 1
ства@@ 1
стън 1
Пен@@ 1
кон 1
зо 1
лянето 1
R@@ 0.11881545605216143
преве@@ 1
първа 1
градът 1
италиан@@ 1
Тур@@ 1
обо@@ 1
симво@@ 1
женията 1
романа 1
гло@@ 1
албан@@ 1
звез@@ 1
родния 1
градски 1
политическа 1
електрон@@ 1
стин@@ 1
дже@@ 1
лище 1
нейната 1
борба 1
ъм 1
дълбо@@ 1
1961 0.9614467657198226
b@@ 0.14711525564609088
територии 1
логия 1
et 0.020512806445524133
отгле@@ 1
арти@@ 1
Заедно 1
мира 1
Н 1
тния 1
юго@@ 1
1956 0.9522479999579514
художник 1
Голяма 1
посещава 1
северно 1
рам@@ 1
зват 1
um 0.13736111865201464
рабо@@ 1
име@@ 1
поддържа 1
Гвинея 1
изку@@ 1
кин@@ 1
контра@@ 1
орден 1
обучение 1
рина 1
1963 0.9156716402989552
вместо 1
рява 1
Швеция 1
1000 1
стени 1
миналото 1
нин@@ 1
теория 1
Дъл@@ 1
Търново 1
маса 1
Кре@@ 1
глава 1
дома 1
стоя@@ 1
1958 0.9507577827160969
33 1
X 0.5882482092743643
Све@@ 1
интер@@ 1
българите 1
Вен@@ 1
Скопие 1
долара 1
ходи 1
източници 1
бив@@ 1
действа 1
ски@@ 1
отколкото 1
магни@@ 1
стойност 1
премества 1
състоя@@ 1
Докато 1
известните 1
N@@ 0.12472075991186363
ванията 1
Кле@@ 1
шев 1
Нор@@ 1
негово 1
средно 1
изиск@@ 1
клуба 1
кт 1
активно 1
математи@@ 1
Софи@@ 1
тация 1
Злат@@ 1
1936 1
обект 1
1924 1
жител@@ 1
селата 1
свой 1
водят 1
рения 1
училището 1
мери@@ 1
дат@@ 1
разполага 1
in 0.005255405465946611
Тан@@ 1
400 1
Член 1
мно@@ 1
Тео@@ 1
рядко 1
йд 1
разби@@ 1
тво@@ 1
Ней@@ 1
музиката 1
Константинопол 1
наследство 1
жите 1
фил@@ 1
Тракия 1
режисьор 1
подобни 1
съеди@@ 1
яр@@ 1
лично 1
революционер 1
шена 1
? 0.7110523764372904
херцо@@ 1
центра@@ 1
рото 1
яне 1
мента 1
1926 1
успеш@@ 1
нео@@ 1
Сред@@ 1
младеж@@ 1
лу 1
цяло 1
езика 1
ствената 1
никога 1
Кариера 1
Етнография 1
превод 1
Уи@@ 1
мей@@ 1
поя@@ 1
дно 1
Мъ@@ 1
Хер@@ 1
зан 1
успяват 1
горе@@ 1
сък 1
1903 1
аре@@ 1
гръ@@ 1
нове@@ 1
работят 1
Гер@@ 1
римски 1
Пале@@ 1
сията 1
икономиче@@ 1
сред@@ 1
Е 1
36 1
годишно 1
обита@@ 1
нем@@ 1
техника 1
добра 1
люби@@ 1
създават 1
комуни@@ 1
копи@@ 1
Тъй 1
образува 1
статистика 1
броя 1
чено 1
4@@ 0.6221708516523619
носител 1
сан 1
раните 1
хор@@ 1
стина 1
закри@@ 1
използването 1
скъ@@ 1
Ван@@ 1
тически 1
операция 1
пря@@ 1
34 1
режисьора 1
Лин@@ 1
млн. 1
поръ@@ 1
продължават 1
връзки 1
мена 1
крайцери 1
достатъчно 1
огром@@ 1
гон@@ 1
линии 1
дет@@ 1
нали@@ 1
бен@@ 1
германски 1
150 1
северо@@ 1
духов@@ 1
Анто@@ 1
бели 1
бун@@ 1
майстор 1
бира 1
герой 1
между@@ 1
сна@@ 1
взе@@ 1
отбеля@@ 1
нар 1
нася@@ 1
микро@@ 1
определени 1
разпреде@@ 1
партията 1
пода@@ 1
хран@@ 1
мъже 1
Швейцария 1
число 1
Крал@@ 1
залив 1
кали@@ 1
литератур@@ 1
кция 1
издадена 1
зен@@ 1
последния 1
революционна 1
научни 1
храма 1
високи 1
1935 1
база 1
изработ@@ 1
реки 1
търговски 1
1952 0.968973943725687
дълбочина 1
чиято 1
джи 1
дума 1
надесе@@ 1
меди@@ 1
Българ@@ 1
броне@@ 1
възраст@@ 1
дости@@ 1
еми 1
британ@@ 1
1929 1
Тай@@ 1
Дар@@ 1
Спа@@ 1
бю@@ 1
свои 1
1914 1
сингъл 1
Първа 1
лист@@ 1
фронт 1
размери 1
Джордж 1
Ян@@ 1
цки 1
сбург 1
Елена 1
Дю@@ 1
няване 1
ѐ@@ 1
ООН 1
0@@ 0.8890135384760646
имена 1
Софийския 1
1925 1
значи@@ 1
собственост 1
минути 1
Колумбия 1
счита 1
срещ@@ 1
Пол@@ 1
обез@@ 1
административен 1
1921 1
генера@@ 1
номер 1
използван 1
O@@ 0.14392968097233197
християни 1
централната 1
последовате@@ 1
ам@@ 1
ката@@ 1
хан 1
ент 1
македон@@ 1
Послед@@ 1
гли 1
Кат@@ 1
ВМОРО 1
вяват 1
цвят 1
дението 1
янето 1
сръб@@ 1
жъл@@ 1
вземат 1
т.н. 1
храна 1
войска 1
вало 1
фен@@ 1
Около 1
птици 1
творби 1
Тех@@ 1
37 1
дати@@ 1
тяхната 1
кър 1
оце@@ 1
разкри@@ 1
западна 1
седем 1
сел 1
достав@@ 1
тното 1
предло@@ 1
художе@@ 1
човека 1
стан 1
риа@@ 1
наследник 1
пру@@ 1
тина 1
къде 1
близ@@ 1
главния 1
икономически 1
полски 1
недо@@ 1
дво@@ 1
присъеди@@ 1
мото 1
стър@@ 1
ващата 1
мани@@ 1
1908 1
рит 1
Националната 1
дор 1
нико@@ 1
ителя 1
племен@@ 1
1922 1
нове 1
тирани 1
построен 1
Министерството 1
есента 1
стаби@@ 1
кула 1
американската 1
войвода 1
участ@@ 1
думи 1
42 1
дията 1
компютър@@ 1
Пор@@ 1
постро@@ 1
доби@@ 1
споменава 1
ов@@ 1
Мин@@ 1
иде@@ 1
епи@@ 1
серия 1
държавен 1
линията 1
Русе 1
брега 1
уз@@ 1
Сти@@ 1
тона 1
ническа 1
тран@@ 1
предназна@@ 1
1951 1
ничен 1
ражда 1
такъв 1
Ф 1
моно@@ 1
щение 1
поле@@ 1
стопан@@ 1
втора 1
вън@@ 1
Чу@@ 1
продукти 1
Брат 1
комплекс 1
поп 1
краси@@ 1
числе@@ 1
формира 1
чината 1
Сле@@ 1
жна 1
1953 0.9702366940618127
равни@@ 1
Римската 1
мощ@@ 1
създаване 1
1877 1
Велики 1
Ол@@ 1
възник@@ 1
зар@@ 1
стер@@ 1
Белгия 1
1933 0.9493305161346977
жки 1
игра 1
бър 1
окръ@@ 1
осигур@@ 1
променя 1
върха 1
код 1
65 0.8681177664796978
писате@@ 1
после 0.5525717250507064
рон@@ 1
въоръ@@ 1
рих 1
хия 1
ль@@ 0.39590261319046915
1957 0.9069198887760974
обратно 1
прие@@ 1
крайцера 1
меня 1
утвър@@ 1
Горна 1
власти 1
55 1
Ам@@ 1
Джу@@ 1
Руската 1
a@@ 0.2238218128749428
пристига 1
провеждат 1
Загора 1
дате@@ 1
поредица 1
укра@@ 1
нев 1
дал 1
престъп@@ 1
защитава 1
Съединените 1
вз@@ 1
Луций 1
H@@ 0.11156282987882701
католи@@ 1
расте@@ 1
мията 1
инте@@ 1
1937 0.9599579103782058
зави@@ 1
структура 1
транспор@@ 1
характер 1
Филмът 1
изкуството 1
съл 1
братя 1
Але@@ 1
1904 1
Мер@@ 1
премах@@ 1
кани 1
дела 1
дълги 1
стату@@ 1
бъл 1
пролетта 1
допъл@@ 1
хай@@ 1
жела@@ 1
боле@@ 1
x 0.33208329849354673
дорф 1
нейните 1
постоян@@ 1
Университета 1
Димит@@ 1
склонове 1
моби@@ 1
тех@@ 1
1917 1
чване 1
Под 1
благо@@ 1
роли 1
селища 1
възра@@ 1
Гар@@ 1
опис@@ 1
Хон@@ 1
налага 1
образуват 1
единствено 1
употреба 1
френския 1
дената 1
направи 1
принц 1
проф 1
проце@@ 1
тира@@ 1
Мит@@ 1
подходя@@ 1
фина@@ 1
беше 1
Йор@@ 1
държа@@ 1
Бел@@ 1
загу@@ 1
затова 1
комуника@@ 1
последната 1
пехотен 1
уста@@ 1
пари 1
фран@@ 1
VII 1
именно 1
полож@@ 1
военните 1
граждан@@ 1
осъществява 1
украин@@ 1
зъ@@ 1
Франц 1
герман@@ 1
футболен 1
мор 1
изключение 1
Една 1
ктор 1
Алек@@ 1
отряд 1
камък 1
архи@@ 1
каз@@ 1
75 1
гот@@ 1
I@@ 0.18146991505306928
осем 1
наричан 1
Гро@@ 1
Купата 1
тиран 1
взима 1
засе@@ 1
ensis 1
къл@@ 1
нари@@ 1
Сюжет 1
нав@@ 1
комисия 1
подчи@@ 1
дейността 1
Спи@@ 1
евре@@ 1
регистри@@ 1
зин@@ 1
вери@@ 1
1954 0.8921323995091263
Ед@@ 1
американска 1
интерес 1
тру@@ 1
гна@@ 1
международни 1
ѝ@@ 1
види@@ 1
гон 1
използване 1
растения 1
гру@@ 1
Гай 1
заявява 1
намалява 1
офи@@ 1
ь@@ 0.841505993862629
Юж@@ 1
оне@@ 1
поста 1
старите 1
Мартин 1
отдел 1
турата 1
она@@ 1
благодарение 1
преподава 1
сена 1
разви@@ 1
труд 1
заповед 1
хо 1
варя@@ 1
пуснат 1
Дунав 1
телевизион@@ 1
Кли@@ 1
лед@@ 1
Кам@@ 1
събра@@ 1
дка 1
and 0.00525618319870905
появяват 1
’ 0.05097539870746414
жът 1
текст 1
1932 1
ърс 1
местни 1
пост 1
произве@@ 1
основан 1
нещо 1
сведения 1
кмет 1
вся@@ 1
теро@@ 1
измер@@ 1
изпратен 1
алното 1
Съюза 1
1910 1
корпус 1
чения 1
носят 1
онът 1
пъту@@ 1
товете 1
Повечето 1
Сту@@ 1
памет@@ 1
дените 1
побеждава 1
оръжие 1
нено 1
следва@@ 1
сериал 1
Балкан@@ 1
пози@@ 1
западните 1
обекти 1
определя@@ 1
щане 1
кле@@ 1
бое@@ 1
ъри 1
изпълните@@ 1
железопъ@@ 1
вале@@ 1
линко@@ 1
рез@@ 1
кам@@ 1
наречена 1
постъпва 1
веднага 1
родо@@ 1
мона@@ 1
Индонезия 1
Робърт 1
телевизия 1
комплек@@ 1
идеята 1
ковски 1
сови 1
източ@@ 1
ландски 1
1955 0.8726893979612099
журнали@@ 1
коро@@ 1
траки@@ 1
замък 1
кори@@ 1
напа@@ 1
ево 1
насят 1
крепост 1
алния 1
проек@@ 1
командването 1
стки 1
биват 1
хард 1
шат 1
сната 1
добри 1
Фердинанд 1
скулп@@ 1
лейтенант 1
реги@@ 1
техниче@@ 1
федерация 1
рак 1
ЦСКА 1
жаване 1
сра@@ 1
старо@@ 1
Конрад 1
отли@@ 1
св 1
все@@ 1
уд@@ 1
клон 1
нови@@ 1
прекъс@@ 1
цяла 1
дебю@@ 1
срещи 1
в. 1
изка@@ 1
вока@@ 1
скан@@ 1
спек@@ 1
установ@@ 1
обработ@@ 1
ралната 1
относно 1
дипло@@ 1
мър@@ 1
тек@@ 1
просто 1
пери@@ 1
изви@@ 1
лети@@ 1
едновременно 1
разв@@ 1
режим 1
материал 1
разгле@@ 1
циона@@ 1
Спо@@ 1
богат@@ 1
Или@@ 1
чина 1
Свет@@ 1
федера@@ 1
лки 1
открито 1
Атина 1
самия 1
стадион 1
чийто 1
пия 1
Въл@@ 1
склю@@ 1
Сал@@ 1
тяхното 1
северозапад 1
количество 1
раната 1
ску@@ 1
64 0.9301806435165709
училища 1
полета 1
ема 1
пространство 1
рес 1
тяло 1
Междусъюзническата 1
мисле@@ 1
52 1
контроли@@ 1
стра 1
бни 1
00 1
рите@@ 1
Аржентина 1
гне@@ 1
произлиза 1
сова 1
държа 1
постоянно 1
широ@@ 1
графия 1
Автор 1
Бя@@ 1
дръ@@ 1
стват 1
типи@@ 1
клет@@ 1
Ернст 1
изве@@ 1
негови 1
Ню@@ 1
щаб 1
Албания 1
нача@@ 1
Южен 1
бин@@ 1
Томас 1
изпълнение 1
прекарва 1
спрямо 1
гео@@ 1
ляз@@ 1
годиш@@ 1
изключ@@ 1
свидетел@@ 1
Вел@@ 1
бва 1
кос@@ 1
Бъ@@ 1
пото@@ 1
Край@@ 1
информа@@ 1
орган 1
запла@@ 1
лос 1
лиза@@ 1
финансо@@ 1
ческото 1
o 0.07320119756064802
оцен@@ 1
тил 1
Ска@@ 1
ращи 1
паша 1
действието 1
квартал 1
обще@@ 1
специфи@@ 1
какви 1
свър@@ 1
нан@@ 1
циви@@ 1
ствените 1
чният 1
избя@@ 1
източно 1
йският 1
промен@@ 1
Хитлер 1
побед@@ 1
канал 1
Един@@ 1
жата 1
леги@@ 1
фак@@ 1
Рей@@ 1
добрите 1
Богородица 1
какво 1
лово 1
La 0.05514373554740515
Сара@@ 1
зала 1
остав@@ 1
шкото 1
основен 1
Лъ@@ 1
лян 1
ис@@ 1
K@@ 0.10049768484569097
Тер@@ 1
Впоследствие 1
Село 1
играят 1
мъж@@ 1
пита@@ 1
победата 1
чита@@ 1
amp 0.18634809665254484
западно 1
цу@@ 1
театра@@ 1
важна 1
голямото 1
президента 1
вина 1
Х 1
изуча@@ 1
хърват@@ 1
1931 1
Пол 1
Тор@@ 1
поредицата 1
Фло@@ 1
тема 1
Откри@@ 1
Учи 1
печат@@ 1
гърци 1
Например 1
документи 1
мента@@ 1
нейния 1
опит@@ 1
гроб@@ 1
програмата 1
сравнение 1
разпо@@ 1
тай@@ 1
жка 1
исля@@ 1
клю@@ 1
берт 1
Обикновено 1
Кате@@ 1
бло@@ 1
ляват 1
религиоз@@ 1
Ара@@ 1
вали@@ 1
нг 1
географ@@ 1
зало@@ 1
Едуард 1
рие 1
тието 1
сериала 1
щат@@ 1
високата 1
тима 1
чката 1
тическа 1
Национа@@ 1
W@@ 0.10142188801675346
Кир@@ 1
музика@@ 1
полковник 1
ствието 1
39 1
слън@@ 1
atus 1
библиотека 1
нати@@ 1
нените 1
североизток 1
истин@@ 1
негова 1
руския 1
600 1
райки 1
фал@@ 1
чиито 1
енерги@@ 1
Става 1
бой 1
тивни 1
стъпва 1
тогаваш@@ 1
общини 1
чева 1
Черно@@ 1
даден 1
43 1
Кали@@ 1
ждават 1
лката 1
Живо@@ 1
изра@@ 1
Вин@@ 1
62 1
екра@@ 1
еска@@ 1
югоизток 1
икономика 1
въпроси 1
Корея 1
кал@@ 1
обича@@ 1
ологи@@ 1
коп@@ 1
високо@@ 1
пома@@ 1
градовете 1
общност 1
Съвет@@ 1
54 1
Албрехт 1
турнир 1
разру@@ 1
Зо@@ 1
Илия 1
класа 1
Следва@@ 1
изло@@ 1
външ@@ 1
ръководи 1
сблъ@@ 1
лове 1
1916 1
изградена 1
руската 1
мор@@ 1
н.в. 1
приет 1
устието 1
причини 1
сътрудничество 1
тиче@@ 1
конгрес 1
тки 1
търгов@@ 1
Авто@@ 1
Тю@@ 1
лес 1
Гру@@ 1
университе@@ 1
швед@@ 1
вната 1
британски 1
ас 1
Дейвид 1
всяко 1
мом@@ 1
кана 1
Хоен@@ 1
висок 1
сар 1
нейното 1
разбира 1
Макар 1
1906 1
лев@@ 1
Бю@@ 1
всичките 1
обикнове@@ 1
важни 1
получи 1
определен 1
преси@@ 1
44 0.980703329605935
фици@@ 1
Първото 1
хидро@@ 1
показват 1
аб@@ 1
автор@@ 1
лища 1
енен 1
изли@@ 1
крепостта 1
ори@@ 1
ерата 1
съществуват 1
падането 1
извън@@ 1
правото 1
фолкло@@ 1
първонача@@ 1
тност 1
лови 1
лива 1
48 1
Родена 1
погребан 1
манд@@ 1
основната 1
разказва 1
Първи 1
популяр@@ 1
зер@@ 1
учени 1
архитек@@ 1
промиш@@ 1
повре@@ 1
върне 1
дис 1
сво@@ 1
Стро@@ 1
краля 1
страните 1
Стан@@ 1
заве@@ 1
n@@ 0.10985985189896223
ционно 1
царство 1
км2 1
тери@@ 1
обхваща 1
подпис@@ 1
полет 1
поме@@ 1
Еле@@ 1
Ботев 1
континента@@ 1
приятел 1
изследване 1
йка 1
посе@@ 1
философия 1
сцена 1
Бело@@ 1
партн@@ 1
d@@ 0.10538909352551767
Иран 1
лд@@ 1
ia 0.182381413971078
km2 1
s@@ 0.06965795318667792
поет 1
търговия 1
оча@@ 1
затвор 1
тели 1
Кър@@ 1
големина 1
сам 1
фаза 1
десе@@ 1
лекар 1
лството 1
ниче@@ 1
сътруд@@ 1
Август 1
Пав@@ 1
въоръжение 1
вдъх@@ 1
живя@@ 1
племена 1
победи 1
Обитава 1
o@@ 0.13392946630631117
представляват 1
жено 1
извър@@ 1
труд@@ 1
фанта@@ 1
зано 1
рекла@@ 1
ционните 1
свещеник 1
днеш@@ 1
загла@@ 1
технологи@@ 1
засел@@ 1
приятел@@ 1
що@@ 1
подвод@@ 1
седмици 1
бригада 1
основана 1
рев@@ 1
санд@@ 1
чество 1
индустри@@ 1
Хал@@ 1
произвежда 1
стове 1
вените 1
зането 1
оценка 1
уре@@ 1
Хр 1
вън 1
дент 1
политиче@@ 1
Израел 1
изграждането 1
джиев 1
дски 1
Двамата 1
проекти 1
кат 1
лесно 1
източник 1
ул@@ 1
крайбрежие 1
оло@@ 1
поход 1
предиш@@ 1
Национален 1
държи 1
рес@@ 1
селището 1
времен@@ 1
лицата 1
данъ@@ 1
добав@@ 1
дов 1
нес 1
тари@@ 1
затво@@ 1
нямат 1
предизвиква 1
къл 1
продължител@@ 1
1911 1
бого@@ 1
постига 1
гол@@ 1
слав@@ 1
Хесен 1
кар 1
0,@@ 0.9466968946345602
t 0.07562596727466844
осигурява 1
фек@@ 1
глав@@ 1
лон@@ 1
писана 1
зло@@ 1
лар@@ 1
стата 1
гове 1
образованието 1
специалност 1
рису@@ 1
спомена@@ 1
рали 1
ана@@ 1
култур@@ 1
служ@@ 1
независимост 1
комунистиче@@ 1
Кьо@@ 1
дъж@@ 1
затвора 1
сигур@@ 1
геро@@ 1
обявен 1
56 1
тежки 1
форд 1
събира 1
став@@ 1
Долна 1
хове 1
Ала@@ 1
анима@@ 1
въгле@@ 1
пом@@ 1
притежава 1
чаване 1
Чо@@ 1
общ 1
1902 1
гради@@ 1
кро@@ 1
югозапад 1
друго 1
лай@@ 1
гер@@ 1
дина@@ 1
c@@ 0.13099366610096852
науките 1
ae 0.5334064928419556
Георгиев 1
флота 1
Малко 1
Мюнхен 1
граждани 1
правата 1
жан@@ 1
Дър@@ 1
g 0.21492040457476688
хва@@ 1
Климент 1
графство 1
лира 1
йе@@ 1
руските 1
1907 1
главната 1
парти@@ 1
сберг 1
листи 1
Фили@@ 1
Хенри 1
ителните 1
мини 1
фика@@ 1
машини 1
Нидерландия 1
Христос 1
Л 1
защите@@ 1
лице 1
свеще@@ 1
Юго@@ 1
изъм 1
преподавател 1
Петров 1
бойни 1
медал 1
убийството 1
членовете 1
Адолф 1
западния 1
вице@@ 1
рово 1
говор 1
мер 1
сии 1
вариант 1
улица 1
Дан@@ 1
Сръб@@ 1
41 1
месе@@ 1
хил. 1
Ата@@ 1
Голямата 1
далеч 1
претен@@ 1
нас 1
увеличава 1
нало@@ 1
тивна 1
международ@@ 1
Кънчов 1
владетел 1
архитектура 1
открита 1
размер 1
Хен@@ 1
снати 1
вието 1
Коста 1
пие@@ 1
ранните 1
B 0.25423999259270863
емо@@ 1
яна 1
главата 1
графски 1
сми@@ 1
възста@@ 1
1909 1
поне 1
силата 1
тка 1
зимата 1
меха@@ 1
гство 1
лични 1
ляр@@ 1
ментите 1
Стоян 1
дон 1
планини 1
еро@@ 1
народна 1
олимпийски 1
Вътрешната 1
публику@@ 1
бизнес 1
ряване 1
династията 1
120 1
чани 1
ширина 1
автори 1
шения 1
бед@@ 1
изгра@@ 1
национално 1
ръковод@@ 1
Мате@@ 1
бан 1
мили 1
поставят 1
функции 1
инструменти 1
няването 1
войските 1
73 1
72 1
Част 1
залива 1
Кро@@ 1
къщата 1
Милано 1
Ну@@ 1
най@@ 1
загуби 1
зада@@ 1
ника@@ 1
произведен 1
цве@@ 1
Него@@ 1
арестуван 1
Португалия 1
действа@@ 1
преминават 1
колкото 1
българ@@ 1
космиче@@ 1
сне@@ 1
Европейския 1
команд@@ 1
прияте@@ 1
лив 1
публиката 1
Словения 1
действ@@ 1
Ис@@ 1
Ели@@ 1
ела 1
стъл@@ 1
избухването 1
отборът 1
пан 1
фор 1
on 0.014397230596514841
общи@@ 1
ол@@ 1
въздуш@@ 1
документа@@ 1
Атанас 1
гласу@@ 1
запазени 1
Насау 1
дърво 1
отне@@ 1
рания 1
култури 1
Скоро 1
синте@@ 1
технически 1
Зи@@ 1
гате@@ 1
1885 1
каза@@ 1
единственият 1
съдържание 1
ващия 1
тора 1
лева 1
67 1
визи@@ 1
Рабо@@ 1
Антон 1
рим@@ 1
рова@@ 1
цер@@ 1
шаване 1
руп@@ 1
Солу@@ 1
писва 1
сер@@ 1
Сим@@ 1
радио 1
Конго 1
1873 1
нини 1
проекти@@ 1
Втора 1
чил 1
рел 1
фт 1
Али@@ 1
взри@@ 1
Ла 1
паз@@ 1
бон 1
57 1
63 1
ic@@ 0.20093696223971863
n 0.1400085223542396
устройство 1
гат@@ 1
дам 1
наблюдава 1
лег@@ 1
логията 1
53 1
Виктор 1
анали@@ 1
камен@@ 1
Светов@@ 1
езера 1
стой@@ 1
зад@@ 1
подобно 1
минера@@ 1
въпрос 1
новена 1
старата 1
Филипи@@ 1
чужбина 1
лей 0.8232202923432523
ителната 1
йците 1
Цариград 1
ар 1
зина 1
надесет 1
участник 1
бежанци 1
реле@@ 1
Александ@@ 1
лизация 1
ност@@ 1
подгот@@ 1
76 1
подготовка 1
целта 1
g@@ 0.10326516323753729
ефектив@@ 1
търси 1
вну@@ 1
пояснение 1
Шо@@ 1
административ@@ 1
осъ@@ 1
престо@@ 1
поставени 1
сва 1
наи@@ 1
Съвета 1
древно@@ 1
жката 1
изследовате@@ 1
придобива 1
армен@@ 1
Велико 1
продуци@@ 1
Численост 1
нис 1
региона@@ 1
кралица 1
реш@@ 1
фелд 1
&#124; 0.4184588925158929
накрая 1
отстъп@@ 1
ракет@@ 1
Олимпи@@ 1
съветник 1
съветски 1
ядре@@ 1
доли@@ 1
кръст 1
стопанство 1
получа@@ 1
Род@@ 1
Херман 1
скри@@ 1
тури@@ 1
слабо 1
Фла@@ 1
кват 1
гането 1
твърде 1
Среща 1
Бавария 1
дебютира 1
изво@@ 1
закон 1
дс 1
Майкъл 1
нска 1
обслуж@@ 1
носе@@ 1
повърхността 1
национални 1
низация 1
Вит@@ 1
водите 1
ристи@@ 1
47 1
турци 1
дейности 1
осъщест@@ 1
програми 1
форма@@ 1
ге 1
вода@@ 1
категория 1
статии 1
ученици 1
македоно 1
крайцер 1
ничка 1
местен 1
процеса 1
Ирландия 1
Оскар 1
убива 1
Кей@@ 1
Роб@@ 1
карти@@ 1
лият 1
Руско 1
единици 1
източните 1
обществото 1
партии 1
експедиция 1
звезда 1
пясъ@@ 1
Кралство 1
броят 1
ствия 1
офор@@ 1
светов@@ 1
Тру@@ 1
вари@@ 1
звание 1
Истори@@ 1
фестивал 1
журналист 1
медицина 1
онова 1
финанси@@ 1
миш@@ 1
жават 1
смятат 1
Методий 1
назна@@ 1
вай@@ 1
зел 1
рос 1
Сю@@ 1
джу@@ 1
опас@@ 1
Виетнам 1
кович 1
лие 1
национална 1
музикални 1
250 1
Оли@@ 1
Хел@@ 1
архиепископ 1
динами@@ 1
против@@ 1
Ей@@ 1
американския 1
такава 1
Лос 1
етап 1
любов 1
мате@@ 1
всъщност 1
ръка 1
илю@@ 1
използвана 1
метод 1
играч 1
аку@@ 1
дина 1
компании 1
разруш@@ 1
ралните 1
46 1
единстве@@ 1
изиграва 1
чар@@ 1
изборите 1
Бори@@ 1
сява 1
пристани@@ 1
двой@@ 1
фло@@ 1
малките 1
Белград 1
вди@@ 1
органи@@ 1
подава 1
Националния 1
отстра@@ 1
промяна 1
сис 1
характеристики 1
скали 1
границите 1
Стоянов 1
олог 1
Норвегия 1
Съветския 1
включени 1
запад@@ 1
вци 1
градче 1
дефини@@ 1
добро 1
лип@@ 1
чването 1
ционната 1
Николов 1
отделя 1
тично 1
социалистиче@@ 1
продук@@ 1
цио@@ 1
L 0.25869738633192557
Ком@@ 1
водни 1
дължи 1
френ@@ 1
1901 1
трени@@ 1
предава 1
чита 1
парламентар@@ 1
времена 1
хаузен 1
800 1
Хю@@ 1
бор 1
мисия 1
I. 0.8258336009897591
дието 1
социали@@ 1
зър@@ 1
прив@@ 1
забеля@@ 1
i@@ 0.1424283989411903
помощник 1
последният 1
сексу@@ 1
ляв 1
нало 1
отбори 1
свети@@ 1
турците 1
леген@@ 1
напред@@ 1
уе@@ 1
отговор@@ 1
Епи@@ 1
глас 1
куп@@ 1
мунд 1
ура 1
хвърля 1
знак 1
атака 1
взаимо@@ 1
разделя 1
рият 1
второ 1
династия 1
лови@@ 1
специални 1
неговият 1
VIII 1
Ган@@ 1
Бил 1
тява 1
шките 1
приблизително 1
цбург 1
изне@@ 1
Босна 1
годишната 1
функция 1
десен 1
културно 1
публи@@ 1
оба@@ 1
основател 1
тропи@@ 1
напра@@ 1
черно@@ 1
имо@@ 1
премест@@ 1
ъгъл@@ 1
конкре@@ 1
ЦК 1
борбата 1
сръбски 1
новото 1
оните 1
издате@@ 1
Института 1
бав@@ 1
едноименния 1
елемент 1
забав@@ 1
запознава 1
вътреш@@ 1
нет 1
предполага 1
НС 1
базата 1
въстанието 1
самолети 1
чът 1
пазар 1
Теле@@ 1
араб@@ 1
здра@@ 1
принуден 1
газо@@ 1
източна 1
ваните 1
движението 1
пари@@ 1
писи 1
убити 1
братята 1
занима@@ 1
стено@@ 1
островите 1
морската 1
Народ@@ 1
силите 1
Баден 1
нахлу@@ 1
свързан 1
окупи@@ 1
индивиду@@ 1
населе@@ 1
пример 1
думата 1
налите 1
операции 1
догово@@ 1
мис@@ 1
кни@@ 1
хан@@ 1
свързана 1
отговаря 1
управител 1
59 1
Окръг 1
вий 1
кино@@ 1
конфликт 1
играта 1
изкуства 1
каква 1
равнина 1
Кюстендил 1
изглежда 1
независи@@ 1
стични 1
Кол@@ 1
ид@@ 1
мостта 1
стро 1
51 1
Ана@@ 1
двора 1
сценарий 1
вероя@@ 1
бомбарди@@ 1
ничи 1
изма 1
световно 1
освободен 1
певица 1
тат 1
повод 1
съсед@@ 1
единица 1
летие 1
чените 1
избира 1
Ори@@ 1
Както 1
преслед@@ 1
съобще@@ 1
Пле@@ 1
моду@@ 1
списък 1
X@@ 0.3561432325904272
Пъ@@ 1
Родо@@ 1
избра@@ 1
Никола@@ 1
местното 1
вод 1
отбраната 1
тон@@ 1
маните 1
хов@@ 1
Юли@@ 1
ляни 1
сцената 1
кува 1
Асен 1
иска@@ 1
създадени 1
фен 1
l 0.06878663119562119
Лей@@ 1
ней 0.9151725575425823
писмо 1
замъка 1
мова 1
поля@@ 1
Сър@@ 1
сферата 1
сар@@ 1
рието 1
Македо@@ 1
ническите 1
sa 0.10898804546529182
академи@@ 1
Герман@@ 1
Пот@@ 1
Сви@@ 1
епизод 1
спечели 1
стически 1
Съединени 1
теоре@@ 1
Ричард 1
това@@ 1
уси@@ 1
Перу 1
Мен@@ 1
Рек@@ 1
православ@@ 1
66 1
днев@@ 1
Сар@@ 1
шкия 1
смисъл 1
Зал@@ 1
новски 1
оставя 1
стратеги@@ 1
Списък 1
S 0.30474343006817656
кампания 1
светлина 1
частично 1
шо 1
завръщането 1
трибу@@ 1
отговор 1
мпи@@ 1
инвести@@ 1
стов 1
т. 1
1895 1
член@@ 1
Остро@@ 1
учител@@ 1
съдеб@@ 1
драма 1
on@@ 0.10877484768429378
морето 1
трудно 1
тик 1
филмо@@ 1
Ной@@ 1
публикуван 1
строй@@ 1
ърк@@ 1
Гон@@ 1
нощта 1
църкви 1
бек 1
долина 1
реди@@ 1
експери@@ 1
лети 1
труда 1
Андрей 1
основна 1
стените 1
знае 1
шия 1
изби@@ 1
дълга 1
мачове 1
спът@@ 1
f@@ 0.09530732209348666
болница 1
дър 1
космически 1
главните 1
стия 1
прехвър@@ 1
86 1
нару@@ 1
ходите 1
памет 1
повлия@@ 1
притоци 1
рица 1
роди@@ 1
средновеков@@ 1
дови@@ 1
медицин@@ 1
рация 1
Плевен 1
Прав@@ 1
запазва 1
фамилия 1
Вой@@ 1
Рудолф 1
Хор@@ 1
98 1
d 0.06553605469320901
лъчеперка 1
офицери 1
тера@@ 1
изпълняват 1
сие 1
p@@ 0.09035094278035752
разкази 1
общин@@ 1
Европей@@ 1
опреде@@ 1
строителството 1
Тран@@ 1
империята 1
био@@ 1
граници 1
второто 1
проя@@ 1
физика 1
циф@@ 1
Гали@@ 1
вещества 1
испански 1
нителни 1
издига 1
рийски 1
лекар@@ 1
пътища 1
фин@@ 1
френската 1
вява 1
възможността 1
народ 1
наде@@ 1
позиции 1
южните 1
Дон@@ 1
бла@@ 1
ливи 1
революцион@@ 1
хът 1
жба 1
специализи@@ 1
дадена 1
корабо@@ 1
вест@@ 1
прину@@ 1
Зиг@@ 1
нична 1
Същата 1
пехотна 1
І@@ 1
политиката 1
см 1
Област 1
Получава 1
борда 1
ata 0.3716441949681495
Вашингтон 1
Сен 1
дома@@ 1
екзархия 1
Сейнт 1
удар 1
удар@@ 1
традиция 1
1896 1
58 1
родителите 1
мове 1
съдове 1
лас 1
приклю@@ 1
Битоля 1
режи@@ 1
северните 1
Вра@@ 1
Международ@@ 1
Петербург 1
приятели 1
слож@@ 1
Христов 1
способ@@ 1
Габрово 1
соли@@ 1
доктор 1
веднъж 1
световен 1
69 1
er@@ 0.07282571402756166
достъп 1
художествена 1
символ 1
тела 1
Зем@@ 1
завладя@@ 1
ръцете 1
семей@@ 1
връщат 1
мало@@ 1
Ари@@ 1
Инди@@ 1
подо@@ 1
y 0.011843008213581035
ай@@ 1
водосборния 1
полза 1
увели@@ 1
състезания 1
Пон@@ 1
дните 1
определят 1
морска 1
Бол@@ 1
ползва@@ 1
пис 1
отго@@ 1
Българска 1
Кипър 1
ске@@ 1
диалект 1
мина 1
Анге@@ 1
тежко 1
зор@@ 1
методи 1
ителното 1
95 1
тъл@@ 1
сус 1
механиз@@ 1
нец 1
сение 1
колони@@ 1
купата 1
изисква 1
дския 1
лезе 1
подви@@ 1
ителят 1
сро@@ 1
сул@@ 1
технологии 1
in@@ 0.06331278461564677
ителност 1
N 0.40148603908891534
пка 1
градите 1
кара@@ 1
придру@@ 1
случа@@ 1
чан@@ 1
ено@@ 1
F 0.3568689892817786
листа 1
съдържа@@ 1
надпис 1
нителна 1
национа@@ 1
дипломати@@ 1
хре@@ 1
Дания 1
СС 1
вкарва 1
позицията 1
Луис 1
банка 1
текстове 1
дебют 1
чия 1
рик 1
американските 1
мнение 1
природата 1
десет@@ 1
домини@@ 1
стари 1
Северен 1
уника@@ 1
Групата 1
актьор@@ 1
автоно@@ 1
популярност 1
важен 1
жно 1
конструкция 1
чов 1
дов@@ 1
домакинства 1
излъ@@ 1
ниска 1
стати@@ 1
гар 1
двор 1
джър 1
партизан@@ 1
раждането 1
ВМРО 1
европейските 1
метро@@ 1
събират 1
кило@@ 1
нес@@ 1
император@@ 1
линг 1
неза@@ 1
брего@@ 1
жанра 1
останали 1
стката 1
Черна 1
бори 1
съпротив@@ 1
една@@ 1
избе@@ 1
конкурс 1
преме@@ 1
оли@@ 1
опълчение 1
горната 1
дол 1
принци@@ 1
окупа@@ 1
Бат@@ 1
лагер 1
гау 1
цов 1
Мел@@ 1
вят 1
85 1
93 1
музикален 1
бавно 1
навлиза 1
хъл@@ 1
директно 1
конститу@@ 1
процеси 1
свири 1
важ@@ 1
Венеция 1
желез@@ 1
концер@@ 1
отхвър@@ 1
49 1
Ама@@ 1
Черно 1
тече 1
1899 1
хите 1
лийски 1
съм 1
актив@@ 1
двигател 1
трима 1
уда@@ 1
лечение 1
романи 1
Йосиф 1
Кристиан 1
Малайзия 1
корабите 1
независимо 1
свобода 1
транспорт 1
Ада@@ 1
каче@@ 1
укреп@@ 1
признава 1
чево 1
институции 1
пътува 1
източния 1
португа@@ 1
изме@@ 1
курс 1
мести 1
звезди 1
научна 1
тат@@ 1
влади@@ 1
нс 1
отношенията 1
Анджелис 1
Често 1
интернет 1
Ур@@ 1
природни 1
зан@@ 1
карта 1
нските 1
оке@@ 1
внимание 1
значителни 1
боли@@ 1
жително 1
гии 1
обшир@@ 1
поро@@ 1
ръководство 1
заре@@ 1
споразумение 1
наука 1
промишленост 1
Оби@@ 1
трябвало 1
ут 1
щен@@ 1
поред@@ 1
поте@@ 1
смес@@ 1
Гьо@@ 1
Хам@@ 1
Санкт 1
студент@@ 1
археологически 1
въста@@ 1
бер 1
кано@@ 1
криза 1
Гю@@ 1
ърът 1
самата 1
or@@ 0.10352670037278272
застра@@ 1
слава 1
Йордан 1
изва@@ 1
копия 1
опити 1
загуба 1
Хаджи@@ 1
to 0.005239004363205658
военната 1
кой 0.5028191274859336
аристокра@@ 1
кули 1
риал@@ 1
Няколко 1
83 1
Йозеф 1
мино@@ 1
широка 1
разстояние 1
останки 1
съчета@@ 1
ненията 1
задача 1
прести@@ 1
трона 1
японски 1
следи 1
услуги 1
млади 1
Римска 1
излъчва 1
инженер 1
чин@@ 1
el@@ 0.08743746030531586
Каролина 1
преврат 1
Фон@@ 1
нищо 1
окончателно 1
врата 1
определена 1
третата 1
едни 1
метър 1
Ген@@ 1
стване 1
латински 1
огън 1
зали@@ 1
чата 1
чко 1
вие 1
ползва 1
пресел@@ 1
яв@@ 1
Сити 1
профе@@ 1
Радо@@ 1
Швар@@ 1
пътеше@@ 1
препоръ@@ 1
старши 1
Пау@@ 1
видео 1
кс@@ 1
ох@@ 1
купа 1
работе@@ 1
ходът 1
кг 1
славян@@ 1
мра@@ 1
насочва 1
събор 1
варят 1
ЕС 1
потвър@@ 1
$ 0.19351599864243896
Агнес 1
състезате@@ 1
минист@@ 1
наличието 1
ока@@ 1
68 1
откло@@ 1
разтво@@ 1
сериозно 1
реша@@ 1
тови 1
Смо@@ 1
устойчи@@ 1
идеи 1
носа 1
чак 1
воден 1
жп 1
отве@@ 1
злат@@ 1
освобод@@ 1
тово 1
1876 1
Шан@@ 1
зони 1
неу@@ 1
Тайланд 1
Световната 1
Стар@@ 1
сце@@ 1
финал 1
ку 0.38012007145687327
малкото 1
силен 1
кови@@ 1
мощност 1
прило@@ 1
поддържа@@ 1
модели 1
недостатъ@@ 1
меж@@ 1
автомати@@ 1
парламент 1
сада 1
съпротива 1
Z@@ 0.11168836162533789
Уол@@ 1
течението 1
граничи 1
климат 1
предаване 1
атаку@@ 1
драта 1
любо@@ 1
Само 1
Със 1
J@@ 0.10384578791420364
високите 1
лагане 1
попа@@ 1
разглежда 1
лил 1
ря 1
Прин@@ 1
капита@@ 1
нарежда 1
наци@@ 1
преоблада@@ 1
Обще@@ 1
влиянието 1
фли@@ 1
лии 1
напре@@ 1
торпе@@ 1
стоят 1
клетки 1
метъл 1
Вил@@ 1
Симеон 1
кер 1
1894 1
бин 1
издания 1
вул@@ 1
ровка 1
Ловеч 1
Шумен 1
совете 1
направени 1
трета 1
Син 1
Сирия 1
бани 1
дире@@ 1
дружина 1
иск@@ 1
Йоа@@ 1
бом@@ 1
герои 1
икономиката 1
Вън@@ 1
Шарл 1
газ 1
съста@@ 1
инженер@@ 1
мият 1
омъжена 1
ду 0.8043890314558594
участък 1
они@@ 1
фре@@ 1
гал 1
бившия 1
Анхалт 1
Сли@@ 1
лез@@ 1
положението 1
кет 1
адмирал 1
Ля@@ 1
ническата 1
кандидат 1
редов@@ 1
88 1
Попов 1
органи 1
Продъл@@ 1
Югоизточна 1
картини 1
специали@@ 1
IX 1
вле@@ 1
гъл 1
земите 1
изграден 1
место@@ 1
основано 1
възрожден@@ 1
забележител@@ 1
художници 1
имената 1
самият 1
домакин@@ 1
чността 1
Лау@@ 1
фурт 1
Ханс 1
изслед@@ 1
хал@@ 1
институ@@ 1
киселина 1
Пло@@ 1
важните 1
пустин@@ 1
700 1
анализ 1
третия 1
мето@@ 1
поста@@ 1
XVIII 1
младе@@ 1
проблем 1
степен@@ 1
връзката 1
Бой@@ 1
шър 1
Охридски 1
декора@@ 1
тради@@ 1
Кос@@ 1
държат 1
продуцент 1
произведе@@ 1
Хърватия 1
изстре@@ 1
факта 1
Христо@@ 1
функ@@ 1
ционния 1
81 1
денията 1
нараст@@ 1
различен 1
Хъ@@ 1
арабски 1
гъл@@ 1
построени 1
шест@@ 1
89 1
Армения 1
льо 1
женен 1
наследява 1
ч. 1
чини 1
стар 1
Маргарета 1
Дължината 1
Меди@@ 1
ато 1
гимназията 1
сня@@ 1
кер@@ 1
познат 1
Стой@@ 1
махала 1
обявена 1
писатели 1
лек 1
даде 1
ствения 1
Тръ@@ 1
качеството 1
маги@@ 1
науката 1
Ал 1
рибо@@ 1
шампи@@ 1
гани 1
въздуха 1
бял 1
Бранденбург 1
Обе@@ 1
известния 1
създаде 1
копа@@ 1
пале@@ 1
Ангел 1
Танзания 1
Тек@@ 1
възстанов@@ 1
населени 1
основ@@ 1
61 1
съби@@ 1
бреговете 1
предостав@@ 1
дев 1
настъп@@ 1
Вюртемберг 1
Санд@@ 1
научен 1
изградени 1
олимпи@@ 1
ІІ 1
бит@@ 1
няко@@ 1
песните 1
1880 1
1898 1
XIV 1
Мадрид 1
итите 1
al@@ 0.08034864210917857
Прага 1
чеството 1
астроно@@ 1
мъж 1
нира 1
Луиза 1
дие 1
уча@@ 1
Оу@@ 1
шко@@ 1
посредством 1
приета 1
озву@@ 1
помо@@ 1
Вто@@ 1
1897 1
Аб@@ 1
асоциация 1
la 0.004892644437280377
Съществуват 1
изпит@@ 1
обика@@ 1
градина 1
Битката 1
гово@@ 1
разрабо@@ 1
Заради 1
Пала@@ 1
международен 1
остро@@ 1
съдържат 1
кру@@ 1
лато@@ 1
ресурси 1
фов 1
сет 1
левия 1
плоча 1
съвместно 1
държавна 1
направ@@ 1
нович 1
лича 1
вътрешните 1
решения 1
зако@@ 1
Ща@@ 1
деня 1
стин 1
чик 1
Мю@@ 1
продаж@@ 1
осъден 1
поставен 1
пора@@ 1
рев 1
биологи@@ 1
изго@@ 1
кари@@ 1
образовате@@ 1
78 1
графска 1
мюсюлман@@ 1
устройства 1
зон@@ 1
разпространение 1
рю@@ 1
Цве@@ 1
англи@@ 1
външните 1
градската 1
спу@@ 1
87 1
опита 1
бере 1
кня@@ 1
маркграф 1
мски 1
някой 1
решават 1
Хър@@ 1
африкан@@ 1
тем@@ 1
английския 1
бележи 1
вор@@ 1
рил 1
стер 1
t@@ 0.06776366863345792
ано@@ 1
маща@@ 1
отраз@@ 1
привле@@ 1
ственото 1
лате@@ 1
откриват 1
тс 1
Москов@@ 1
Локомотив 1
Основните 1
държавни 1
императора 1
парак@@ 1
тим 1
Евро@@ 1
ждани 1
закона 1
наше@@ 1
придоби@@ 1
Македоно 1
подкре@@ 1
сражение 1
Всяка 1
После@@ 1
Торино 1
награден 1
обозна@@ 1
наб@@ 1
синът 1
лидер 1
пропаганда 1
рио 1
Популацията 1
композитор 1
кореспон@@ 1
народи 1
отда@@ 1
лиза 1
Преми@@ 1
Тар@@ 1
зана@@ 1
калибър 1
наси@@ 1
пер 1
турне 1
71 1
ac@@ 0.1299675633080544
Виктория 1
природ@@ 1
тират 1
гнати 1
пригот@@ 1
тегло 1
84 1
вните 1
парале@@ 1
Фро@@ 1
лацията 1
турни 1
77 1
Играе 1
Оре@@ 1
ети@@ 1
Мати@@ 1
метри@@ 1
подкреп@@ 1
продава 1
равно@@ 1
земедел@@ 1
пилот 1
Св. 1
посеща@@ 1
Майка 1
бана 1
буди@@ 1
седмица 1
заво@@ 1
обуча@@ 1
приложение 1
възниква 1
одринска 1
последователно 1
Андре@@ 1
79 1
зана 1
Бей@@ 1
лагането 1
пов@@ 1
” 0.1396081433492683
уд 1
йните 1
леп@@ 1
напрежение 1
длъжността 1
ктори 1
тински 1
Гръц@@ 1
кафя@@ 1
мора@@ 1
перси@@ 1
цял 1
вътре 1
новени 1
1,@@ 0.6494851403557373
доку@@ 1
класа@@ 1
рика 1
ch@@ 0.06722759308619011
варя 1
налягане 1
учен 1
r@@ 0.08030912571846352
десетилетия 1
пър 1
гард 1
първенството 1
ъгъл 1
гната 1
нау 1
предмети 1
чичо 1
атмо@@ 1
отсъ@@ 1
енти 1
XVI 1
вис 1
съю@@ 1
аси@@ 1
предотвра@@ 1
тска 1
Чехия 1
сегаш@@ 1
екзеку@@ 1
З 1
Френ@@ 1
музе@@ 1
сфе@@ 1
тис 1
Зим@@ 1
бол 1
сира 1
средната 1
Всеки 1
въоръжени 1
кос 1
продължи 1
дядо 1
йно 1
привърже@@ 1
суб@@ 1
латин@@ 1
ot@@ 0.14494940797734016
теми 1
тол@@ 1
Стре@@ 1
ография 1
председате@@ 1
президент@@ 1
техния 1
Ян 1
включен 1
летище 1
професионален 1
психо@@ 1
сим@@ 1
вицата 1
кино 1
мяната 1
Ден@@ 1
артилерийски 1
водещ 1
приме@@ 1
славя@@ 1
бежан@@ 1
бозайник 1
нива 1
падат 1
принадлежи 1
Цар@@ 1
отделение 1
сон@@ 1
Иса@@ 1
законодате@@ 1
вследствие 1
договора 1
Връ@@ 1
Георги@@ 1
изоста@@ 1
самолет 1
Кари@@ 1
вътре@@ 1
версии 1
вета 1
диаметър 1
другата 1
хов 1
повърхност 1
покрай 1
Свобо@@ 1
допълнително 1
контрола 1
довежда 1
обу@@ 1
самолета 1
нан 1
Брай@@ 1
Гене@@ 1
Средна 1
ключ@@ 1
оттегля 1
поколение 1
Мат@@ 1
имал 1
индиан@@ 1
съобщава 1
Кю@@ 1
впечат@@ 1
горски 1
малката 1
мето 1
разузна@@ 1
социални 1
стота 1
бей 1
патриаршия 1
свобод@@ 1
срав@@ 1
ел@@ 1
Класи@@ 1
подкрепя 1
ефект 1
силни 1
управ@@ 1
91 1
плу@@ 1
различна 1
бета 1
пее 1
Сил@@ 1
ниски 1
поведение 1
фла@@ 1
Пал@@ 1
спорт 1
квадра@@ 1
ът@@ 1
хт 1
1890 1
оказват 1
брони@@ 1
съз@@ 1
явява 1
ждението 1
съществуването 1
Санта 1
знание 1
изпис@@ 1
лит@@ 1
дение 1
нка 1
шението 1
1500 1
изучава 1
излъчване 1
започне 1
гов 1
тическата 1
Офици@@ 1
маршал 1
части@@ 1
шампион@@ 1
грама 1
портре@@ 1
самото 1
дотогава 1
принцип 1
софи@@ 1
Международната 1
Свето@@ 1
възмож@@ 1
нараства 1
нау@@ 1
поезия 1
фонд 1
госпо@@ 1
каз 1
митология 1
продукт 1
чуж@@ 1
световното 1
хер 1
92 1
баро@@ 1
бъл@@ 1
деление 1
опера 1
Проек@@ 1
Смър@@ 1
многобройни 1
учи@@ 1
контак@@ 1
манасти@@ 1
Ново@@ 1
дълъг 1
оръжия 1
тий 1
Втори 1
Опера@@ 1
интерв@@ 1
теорията 1
лицето 1
провинции 1
окръга 1
излизат 1
линей@@ 1
облек@@ 1
титли 1
мп@@ 1
зна 1
Слу@@ 1
Судан 1
вдо@@ 1
пазара 1
завод 1
казате@@ 1
1879 1
Дет@@ 1
гаран@@ 1
двореца 1
единствен 1
заемат 1
зар 1
лик 1
ранен 1
реду@@ 1
щица 1
състезание 1
четирите 1
боя 1
каме@@ 1
неф@@ 1
1891 1
аресту@@ 1
вземе 1
Трен@@ 1
постанов@@ 1
успе@@ 1
идея 1
катедра@@ 1
свързано 1
Все 1
74 1
разделят 1
Затова 1
особ@@ 1
нят 1
средна 1
търговията 1
Парти@@ 1
Поп@@ 1
конкурен@@ 1
фоку@@ 1
командване 1
Изпъл@@ 1
духо@@ 1
характер@@ 1
D 0.24215894858067577
извест@@ 1
камъни 1
ство@@ 1
пев@@ 1
рист 1
огра@@ 1
приключва 1
Щи@@ 1
археологи@@ 1
прека@@ 1
Вест@@ 1
изтреб@@ 1
́ 0.2802547104437238
пто@@ 1
нично 1
сте 1
паци@@ 1
спира 1
уст@@ 1
химия 1
душ@@ 1
карти 1
Христи@@ 1
Чрез 1
дисципли@@ 1
мерки 1
монар@@ 1
Световното 1
врий@@ 1
липсата 1
предшестве@@ 1
собствена 1
зират 1
ял 1
TV 0.31409857262189045
муску@@ 1
философ@@ 1
k@@ 0.0856349226950957
инци@@ 1
думите 1
мената 1
ранг 1
иденти@@ 1
увол@@ 1
нации 1
стие 1
щни 1
Константи@@ 1
Херцеговина 1
знаме 1
скоростта 1
фир@@ 1
kg 1
Хан@@ 1
бар 1
десния 1
отдале@@ 1
x@@ 0.24598519947017783
чле@@ 1
Брауншвайг 1
Народно 1
длъжност 1
индустрия 1
Неговият 1
Сливен 1
единствената 1
Ката@@ 1
мре@@ 1
Бог 1
вя 1
зане 1
Кло@@ 1
етаж 1
наричана 1
съзна@@ 1
широк 1
събитие 1
съпруг 1
алкохо@@ 1
благоприя@@ 1
вит@@ 1
землището 1
Катарина 1
планините 1
er 0.01753489473007526
Неапол 1
свързва@@ 1
въвежда 1
лизира 1
момента 1
пътна 1
Българското 1
публикувани 1
лика 1
хен@@ 1
ph@@ 0.2015622204383774
отбрана 1
торът 1
Древ@@ 1
одринското 1
теат@@ 1
добива 1
народни 1
пола 1
възпита@@ 1
резултати 1
Науч@@ 1
имену@@ 1
om@@ 0.15342346962476122
гва 1
дели 1
икони 1
рекор@@ 1
Прусия 1
господ@@ 1
обръща 1
проти@@ 1
стария 1
Цезар 1
библиоте@@ 1
забележителности 1
фай@@ 1
Албумът 1
стартира 1
Мала 1
бру@@ 1
депутат 1
пристанище 1
тиране 1
фигури 1
1870 1
Венецуела 1
откриването 1
зам@@ 1
лта 1
сор 1
историк 1
Основната 1
датира 1
интере@@ 1
двойки 1
колеж 1
музикална 1
реше@@ 1
цион@@ 1
Цари@@ 1
католиче@@ 1
сно@@ 1
правила 1
психи@@ 1
ковете 1
т.@@ 1
ума 1
дания 1
лар 1
лат 1
частни 1
кол 1
предвид 1
варира 1
купува 1
Държав@@ 1
ефек@@ 1
откъдето 1
републикан@@ 1
свойства 1
карто@@ 1
командващ 1
македонски 1
нато 1
отка@@ 1
монети 1
спома@@ 1
сват@@ 1
дес 1
дъщери 1
изсел@@ 1
Народна 1
Теодор 1
Васи@@ 1
тег@@ 1
Висо@@ 1
местния 1
писателка 1
Интер@@ 1
днешна 1
Най@@ 1
етите 1
средното 1
ol@@ 0.13216179490694033
научно 1
раб@@ 1
световната 1
провод@@ 1
устрой@@ 1
принос 1
архитект 1
споме@@ 1
стръ@@ 1
бук@@ 1
жената 1
молеку@@ 1
серио@@ 1
тежка 1
Освобождението 1
възви@@ 1
нуж@@ 1
обър@@ 1
студиен 1
Междувременно 1
ангажи@@ 1
фри@@ 1
дват 1
Оста@@ 1
ател 1
северозападно 1
успехи 1
Корне@@ 1
ителството 1
вара 1
денбург 1
златен 1
протежение 1
Гео@@ 1
еволю@@ 1
певец 1
тръгва 1
Дя@@ 1
телевизионен 1
насле@@ 1
седалище 1
яни 1
Музи@@ 1
Произве@@ 1
въпро@@ 1
конференция 1
низ@@ 1
разделени 1
сбир@@ 1
сай@@ 1
програми@@ 1
Песента 1
тиката 1
момиче@@ 1
Бон@@ 1
Шар@@ 1
гря@@ 1
попу@@ 1
самостоятелно 1
цялост@@ 1
девет 1
дървета 1
интерпре@@ 1
потом@@ 1
религиозни 1
тивен 1
търсене 1
нощ 1
обособ@@ 1
първо@@ 1
систе@@ 1
новено 1
парламента 1
Спартак 1
визия 1
евреи 1
беля@@ 1
1893 1
раща 1
Следва 1
Василий 1
важно 1
ник@@ 1
патриар@@ 1
сени 1
дото 1
мана 1
отличава 1
полез@@ 1
Орга@@ 1
Вален@@ 1
ХХ 1
д. 1
рира 1
агре@@ 1
близки 1
брази@@ 1
последното 1
Тем@@ 1
грамо@@ 1
класира 1
тичната 1
извършват 1
средство 1
центрове 1
Марко 1
достъп@@ 1
Близ@@ 1
демо@@ 1
кола 1
любовта 1
християнски 1
германските 1
изчис@@ 1
цеп@@ 1
чув@@ 1
124@@ 1
изтъ@@ 1
лда 1
решението 1
зацията 1
случая 1
условията 1
99 1
наречени 1
Мишев 1
Уо@@ 1
протича 1
третият 1
Пари@@ 1
координа@@ 1
мет 1
en@@ 0.04849719583367046
Вселе@@ 1
Полу@@ 1
оглавява 1
успешен 1
италианския 1
ращ 1
фигу@@ 1
82 1
ползват 1
сица 1
хла@@ 1
Али 1
Коле@@ 1
флан@@ 1
1889 1
издадени 1
Мала@@ 1
проду@@ 1
пълна 1
сните 1
Книгата 1
пълно 1
сфера 1
Рейн@@ 1
отделните 1
G 0.28541813342283906
лското 1
ina 0.1759598729564991
ним 1
Мет@@ 1
Нача@@ 1
галерия 1
оркестър 1
Хаб@@ 1
Чети@@ 1
растение 1
Коло@@ 1
гнез@@ 1
Изда@@ 1
мюсюлмани 1
1892 1
гов@@ 1
секретаря 1
XVII 1
Бран@@ 1
Еквадор 1
лиан@@ 1
пал@@ 1
119@@ 1
съвсем 1
кораб@@ 1
риба 1
Петко 1
периоди@@ 1
съвременните 1
1886 1
връщане 1
подчер@@ 1
поту@@ 1
C. 0.4719840912613181
атри@@ 1
ес 1
зни 1
морските 1
торите 1
югозападно 1
бел 1
опитват 1
вое@@ 1
гор 1
палу@@ 1
появата 1
ляво 1
последва@@ 1
допълнителни 1
студенти 1
лиде@@ 1
революционен 1
живопис 1
оттег@@ 1
хберг 1
пов 1
фер 1
басейни 1
нич@@ 1
вато@@ 1
задачи 1
издигнат 1
лам@@ 1
лета 1
текста 1
уско@@ 1
концерти 1
пове 1
етата 1
Богородично 1
архиеписко@@ 1
зас 1
масо@@ 1
обхва@@ 1
Скоп@@ 1
гин@@ 1
силна 1
канад@@ 1
предаването 1
трен@@ 1
заме@@ 1
жие 1
малкия 1
чис@@ 1
щението 1
Пат@@ 1
пряко 1
етно@@ 1
шил 1
списъка 1
Австри@@ 1
Вале@@ 1
прин@@ 1
Пфалц 1
дии 1
жде@@ 1
ринг 1
стоки 1
автомобили 1
зах@@ 1
обнов@@ 1
Представ@@ 1
евро 1
ещи 1
настоящем 1
практи@@ 1
риите 1
снаб@@ 1
вяването 1
гроби@@ 1
южно@@ 1
Български 1
Внук 1
лец 1
патриарх 1
96 1
j@@ 0.09193995064499996
Постро@@ 1
живо 1
поре@@ 1
провинцията 1
94 1
сели@@ 1
вов 1
кап@@ 1
лиш@@ 1
изследва 1
пояс 1
Последният 1
здраве@@ 1
консул@@ 1
сектор 1
служители 1
храни 1
общи 1
Блан@@ 1
Демократична 1
Между@@ 1
Сицилия 1
дясно 1
позво@@ 1
худож@@ 1
97 1
Може 1
бестсел@@ 1
изри@@ 1
обръ@@ 1
семина@@ 1
яйки 1
купу@@ 1
личе@@ 1
напред 1
лес@@ 1
меда@@ 1
подкрепата 1
политическата 1
тара 1
акть@@ 1
курор@@ 1
Чили 1
вед@@ 1
заслу@@ 1
капацитет 1
моти@@ 1
навли@@ 1
предви@@ 1
първен@@ 1
1881 1
води@@ 1
наричани 1
официален 1
тие 1
Иск@@ 1
вертика@@ 1
културни 1
катедралата 1
нация 1
случва 1
опи@@ 1
бира@@ 1
чеш@@ 1
балкан@@ 1
ждите 1
изпълнението 1
национали@@ 1
седми@@ 1
обек@@ 1
плавате@@ 1
пус@@ 1
тания 1
Семейство 1
британската 1
тният 1
es 0.01731659855048514
Кала@@ 1
изгар@@ 1
комедия 1
невро@@ 1
проучвания 1
Гос@@ 1
изпълня@@ 1
малната 1
екипа 1
Благо@@ 1
Косово 1
11@@ 1
бяга 1
реак@@ 1
слой 1
ужа@@ 1
Кения 1
пъте@@ 1
шево 1
Мир@@ 1
екипа@@ 1
зато@@ 1
Академията 1
Профе@@ 1
администрация 1
криста@@ 1
ландия 1
нър 1
ценни 1
Ar@@ 0.11472205113217147
ta 0.16275480519282934
Фол@@ 1
простира 1
ar@@ 0.0733561425718826
id@@ 0.1401941504469193
комунистическа 1
вки 1
Състе@@ 1
нк@@ 1
юж@@ 1
гни@@ 1
екземпля@@ 1
лична 1
отбра@@ 1
развиват 1
сов@@ 1
психологи@@ 1
Илинден@@ 1
дация 1
учред@@ 1
Лим@@ 1
УЕФА 1
зависи 1
ту 0.6456120564146022
Сей@@ 1
Бого@@ 1
Особ@@ 1
приеме 1
делят 1
концерт 1
отрицате@@ 1
сцени 1
шето 1
кримина@@ 1
убийство 1
уми@@ 1
Видин 1
Холандия 1
непре@@ 1
Зна@@ 1
провер@@ 1
видни 1
съпер@@ 1
БАН 1
сума 1
малкият 1
вети 1
дебе@@ 1
мация 1
функциона@@ 1
вет 1
дек@@ 1
интензи@@ 1
настан@@ 1
състезава 1
Улрих 1
котловина 1
лем 1
форму@@ 1
1,5 1
шаването 1
намаля@@ 1
An@@ 0.09601437739126988
Пиер 1
Ун@@ 1
среща@@ 1
помежду 1
проявява 1
явление 1
германската 1
мъжка 1
напусне 1
стотата 1
Шампион@@ 1
диалек@@ 1
дната 1
съда 1
O 0.19389012925041862
идват 1
осве@@ 1
тю@@ 1
1884 1
U@@ 0.11829667836658406
Тексас 1
мърт@@ 1
парка 1
сбор@@ 1
шан@@ 1
op@@ 0.15669065964222204
грижи 1
дебелина 1
паметници 1
Изгра@@ 1
религи@@ 1
паси@@ 1
рисува 1
Наполеон 1
печелят 1
прочу@@ 1
уро@@ 1
фрайхер 1
ани@@ 1
значителна 1
обществени 1
подре@@ 1
поставена 1
ученик 1
поз@@ 1
произведение 1
1883 1
обучението 1
разкрива 1
термин 1
Две 1
ели 1
популярни 1
север@@ 1
телефон@@ 1
Con@@ 0.14581259681873998
Окръ@@ 1
бронзо@@ 1
насър@@ 1
сета 1
Съвремен@@ 1
зеф 1
лива@@ 1
зале@@ 1
клуб@@ 1
наши 1
относително 1
подло@@ 1
югоизточно 1
юн@@ 1
Средната 1
виде@@ 1
дадено 1
шампионат 1
Жу@@ 1
вълна 1
ия 1
чай@@ 1
статистиче@@ 1
цето 1
лун@@ 1
разслед@@ 1
риту@@ 1
шение 1
желание 1
жерт@@ 1
преговори 1
пуск@@ 1
специален 1
Гло@@ 1
Конститу@@ 1
крило 1
супер@@ 1
жния 1
начина 1
Миха@@ 1
вяване 1
ниско 1
висше 1
стичен 1
състезанието 1
топо@@ 1
чете 1
лва 1
пена 1
плочи 1
3000 1
Джор@@ 1
дска 1
сухо@@ 1
шна 1
вел 1
неутра@@ 1
чели 1
машина 1
разгро@@ 1
поли 1
представяне 1
ФИ@@ 1
армии 0.9844408939498309
зася@@ 1
мю@@ 1
нта 1
изтег@@ 1
казват 1
струк@@ 1
юри@@ 1
написана 1
отря@@ 1
притежа@@ 1
изклю@@ 1
обем 1
следовате@@ 1
кад@@ 1
h 0.12609359425788716
БН@@ 1
План@@ 1
ваку@@ 1
ленд 1
вта 1
званието 1
Гал@@ 1
блу@@ 1
ента@@ 1
ителния 1
мото@@ 1
подобен 1
религия 1
родното 1
североизточно 1
Четвър@@ 1
концентра@@ 1
народа 1
съвременни 1
Дне@@ 1
градския 1
засне@@ 1
мнозин@@ 1
музея 1
протестан@@ 1
цветове 1
компю@@ 1
общата 1
тава 1
шоу 1
Джовани 1
зин 1
родни 1
шън 1
възможности 1
глу@@ 1
южния 1
Диа@@ 1
долната 1
закони 1
османски 1
придвиж@@ 1
Казахстан 1
жната 1
просвет@@ 1
рене 1
it@@ 0.10242657895090965
Финландия 1
апара@@ 1
квалифика@@ 1
Ети@@ 1
влива 1
ничеството 1
пон@@ 1
асистент 1
половината 1
th@@ 0.10968074245681896
Егейска 1
борд 1
присъства 1
Тя@@ 1
отра@@ 1
предоставя 1
Ива@@ 1
Сел@@ 1
бит 1
дълбоко 1
документ 1
енберг 1
нелега@@ 1
необходимо 1
Военно@@ 1
епизода 1
импера@@ 1
националната 1
фраг@@ 1
рито@@ 1
Фал@@ 1
седем@@ 1
E 0.25891842051345604
Windows 1
Дани@@ 1
ковите 1
студи@@ 1
съгласно 1
простран@@ 1
сутри@@ 1
1860 1
НАСА 1
зовава 1
меч@@ 1
Френска 1
бел@@ 1
опти@@ 1
чисто 1
нивото 1
съвременната 1
базиран 1
Административно 1
детай@@ 1
дивизи@@ 1
длъж@@ 1
зон 1
народно 1
човешки 1
групи@@ 1
творчеството 1
характерни 1
абат@@ 1
сиг@@ 1
an@@ 0.05950361714528421
злато 1
Атлан@@ 1
египет@@ 1
деле@@ 1
доба@@ 1
интереси 1
Републикански 1
мос 1
източно@@ 1
писите 1
преобразу@@ 1
емата 1
лята 1
кандидат@@ 1
Река 1
пота@@ 1
допълнение 1
миче@@ 1
млад 1
горното 1
еписко@@ 1
многократно 1
обса@@ 1
римската 1
Грузия 1
лян@@ 1
одобре@@ 1
противника 1
оз@@ 1
бат 1
експер@@ 1
жд@@ 1
намаляване 1
нинген 1
съсе@@ 1
урав@@ 1
щането 1
дора 1
линген 1
пристигат 1
удостоен 1
Пей@@ 1
Шотландия 1
p 0.13958436738840752
Граждан@@ 1
Ся@@ 1
електрически 1
пати@@ 1
кост@@ 1
чаването 1
вземането 1
Дире@@ 1
верига 1
ез@@ 1
лък 1
свободен 1
фигура 1
Нобе@@ 1
Божи@@ 1
мените 1
Фар@@ 1
фирма 1
XV 1
играчи 1
създадено 1
гръцките 1
мерите 1
рум 1
обсъ@@ 1
тра 1
Византия 1
Ир@@ 1
площад 1
сето 1
упраж@@ 1
R 0.24351136238945836
активи@@ 1
десан@@ 1
направен 1
северния 1
бог 1
женски 1
обре@@ 1
представен 1
тици 1
реакция 1
липса 1
наем 1
ного 0.13941808371983758
талан@@ 1
градска 1
зат 1
рка 1
дизайн 1
педагоги@@ 1
Молдова 1
Фил@@ 1
местност 1
акт 1
сътрудник 1
успо@@ 1
am@@ 0.10278219517070368
комен@@ 1
Уелс 1
околната 1
собствени 1
Музе@@ 1
XII 1
Рели@@ 1
дият 1
лер@@ 1
продукция 1
валу@@ 1
затвор@@ 1
кис 1
носен 1
оръдие 1
привлича 1
централна 1
Population 1
влияте@@ 1
тана 1
Добруджа 1
оборудване 1
македонска 1
общински 1
положен 1
световни 1
M 0.2666749074162446
ов 1
стична 1
десетки 1
назначава 1
Без@@ 1
Макси@@ 1
Тодоров 1
медицински 1
предлагат 1
работи@@ 1
вътрешността 1
книжо@@ 1
марка 1
политическите 1
сите@@ 1
хар 1
активна 1
Лига 1
Од@@ 1
изразява 1
Мето@@ 1
черен 1
m@@ 0.08193311680495106
Macédoine 1
дей 1
Констан@@ 1
плато 1
реч@@ 1
съвмест@@ 1
училищ@@ 1
щин@@ 1
no@@ 0.24610717106363555
гун@@ 1
лищ@@ 1
рингия 1
агенция 1
преподавате@@ 1
пълен 1
стък@@ 1
събитията 1
Зам@@ 1
алпи@@ 1
двигатели 1
небе@@ 1
Иде@@ 1
кел 1
фили@@ 1
Chrétienne 1
дък 1
почетен 1
Благоевград 1
Носител 1
загина@@ 1
змът 1
какъв 1
площта 1
тал 1
1888 1
Вторият 1
корпуса 1
мската 1
мъжете 1
рението 1
резо@@ 1
французите 1
гледна 1
скло@@ 1
хор 1
полага 1
alis 1
възлиза 1
усп@@ 1
епохата 1
разкло@@ 1
Фер@@ 1
Дел@@ 1
дейци 1
коли@@ 1
съоръжения 1
Европейската 1
минават 1
предложение 1
селскостопан@@ 1
секре@@ 1
Смит 1
брон@@ 1
ралното 1
сей 1
фестивала 1
oc@@ 0.17187548313548104
отбор@@ 1
7,@@ 0.9949880095472269
Нар@@ 1
гориво 1
Слънцето 1
собствен 1
нами@@ 1
пиано 1
тската 1
издаването 1
рази@@ 1
Мей@@ 1
Хари 1
сура 1
Над 1
публикувана 1
сак@@ 1
армей@@ 1
подар@@ 1
читалище 1
атак@@ 1
стри 1
Нови 1
фрон@@ 1
спан@@ 1
сино@@ 1
близък 1
услу@@ 1
четвърти 1
Ана 1
избирате@@ 1
известната 1
полицията 1
фабрика 1
мална 1
Дом 1
Кня@@ 1
ключо@@ 1
свобо@@ 1
екип 1
изпълнители 1
класацията 1
стила 1
Златен 1
въздух 1
плодове 1
учители 1
Климатът 1
Мил@@ 1
доказателства 1
Предполага 1
депутат@@ 1
леко 1
макси@@ 1
посланик 1
Балканите 1
бита 1
неин 1
пля@@ 1
успешни 1
c 0.10560944370917445
Джей@@ 1
Сай@@ 1
ing 0.02373316825612596
Григорий 1
лства 1
начи@@ 1
слънче@@ 1
Ас@@ 1
Голям 1
новият 1
каменни 1
собственик 1
T 0.2411407163399482
Ъ@@ 1
идентифици@@ 1
мозъ@@ 1
Апосто@@ 1
Федера@@ 1
леп 1
морския 1
обиколка 1
бие 1
вече@@ 1
писа@@ 1
представена 1
рота 1
Сергей 1
ам 1
дява 1
руска 1
цио 1
ентите 1
разстоя@@ 1
тила 1
апарат 1
биха 1
номина@@ 1
уве@@ 1
усилия 1
Северо@@ 1
режиси@@ 1
свободно 1
нападение 1
техни@@ 1
червен 1
Золмс 1
снаря@@ 1
ънс 1
Гъ@@ 1
Дитрих 1
германския 1
произвеждат 1
цу 1
Беларус 1
Рейн 1
дене 1
защитник 1
непосредствено 1
нско 1
поручик 1
изграждане 1
Чар@@ 1
ьорите 1
b 0.13403458662621165
Над@@ 1
ети 1
хен 1
понеже 1
частици 1
Бла@@ 1
Благодарение 1
жните 1
леви 1
достигне 1
мъжки 1
подпома@@ 1
позволяват 1
шах@@ 1
os@@ 0.1414828416776104
ари@@ 1
инду@@ 1
часов@@ 1
Квинт 1
гост 1
шел 1
l@@ 0.0670620444916967
Адри@@ 1
Касте@@ 1
дани 1
личности 1
предпочита@@ 1
Мър@@ 1
бас 1
инициатива 1
чужди 1
детска 1
лищата 1
специална 1
местната 1
съв@@ 1
Председате@@ 1
бена 1
мел@@ 1
отлич@@ 1
P 0.2798566599199789
Сградата 1
басейна 1
войската 1
личните 1
низъм 1
претърпява 1
1848 1
h@@ 0.06923860731676246
Херцо@@ 1
поддръ@@ 1
популярен 1
сценарист 1
филмът 1
югослав@@ 1
Каме@@ 1
действията 1
зията 1
ува@@ 1
черве@@ 1
z@@ 0.07278722778672318
Червената 1
възгле@@ 1
едноименната 1
блок 1
строител@@ 1
Обединеното 1
гражданска 1
контин@@ 1
предприятия 1
сек@@ 1
дател 1
находи@@ 1
прогре@@ 1
строителство 1
южна 1
Хил@@ 1
мония 1
входа 1
напускат 1
телевизионни 1
Смята 1
автономен 1
одоб@@ 1
XI 1
Зон@@ 1
ремон@@ 1
Балти@@ 1
Пиемонт 1
Юлий 1
заря@@ 1
дек 1
представени 1
гнали 1
пейза@@ 1
1882 1
детски 1
фред 1
посред@@ 1
Питър 1
маг@@ 1
петро@@ 1
превъз@@ 1
тността 1
Теат@@ 1
бяха 1
контро@@ 1
напад@@ 1
Мери 1
изображения 1
литературата 1
настъпва 1
считат 1
Върховния 1
Учи@@ 1
Целта 1
Враца 1
отваря 1
бра 1
кост 1
рестав@@ 1
сключва 1
наред 1
v@@ 0.08879835363110922
Провин@@ 1
Спор@@ 1
Фут@@ 1
кора 1
орбита 1
прости@@ 1
брат@@ 1
табли@@ 1
взи@@ 1
кисло@@ 1
прене@@ 1
характеризира 1
вска 1
структури 1
укре@@ 1
зда@@ 1
китара 1
Оде@@ 1
служе@@ 1
жина 1
сни@@ 1
Горно 1
вниманието 1
енер@@ 1
златни 1
1871 1
водно 1
ляните 1
роб@@ 1
шан 1
Сало@@ 1
жаването 1
бове 1
джан@@ 1
рус@@ 1
финансови 1
брака 1
говорят 1
гръцкия 1
лизъм 1
ряват 1
съсредо@@ 1
XIII 1
гър 1
древните 1
начал@@ 1
Вероятно 1
календар 1
АД 1
Гвиана 1
Коли@@ 1
Ско@@ 1
вения 1
еца 1
упо@@ 1
Зеландия 1
Флорида 1
сериозни 1
съкра@@ 1
артилерия 1
гиган@@ 1
нителен 1
Аделхайд 1
1887 1
Стефа@@ 1
Уч@@ 1
20@@ 0.6816534592140555
Източен 1
ракети 1
структурата 1
географски 1
издават 1
рар@@ 1
сват 1
Адам 1
дово 1
освобожда@@ 1
полице@@ 1
построява 1
ti@@ 0.10884618651350549
Киев 1
Личен 1
правосла@@ 1
фър 1
бело@@ 1
кмет@@ 1
строе@@ 1
филология 1
наблюда@@ 1
театъра 1
тенден@@ 1
икономи@@ 1
мън 1
тене 1
хово 1
ьори 1
Ирак 1
зирани 1
оставка 1
поко@@ 1
сформи@@ 1
тския 1
екипажа 1
имперски 1
теч@@ 1
Неговата 1
Уил@@ 1
математика 1
нагоре 1
нист 1
основите 1
въд@@ 1
Пакистан 1
бна 1
год@@ 1
опе@@ 1
Демокра@@ 1
благотворите@@ 1
загива 1
историческа 1
меня@@ 1
ничество 1
растителност 1
въз 1
червено 1
доброволци 1
тета 1
Охрид 1
прибли@@ 1
прими@@ 1
цена 1
аз 1
интелекту@@ 1
Преди@@ 1
активни 1
Публи@@ 1
Понякога 1
секунди 1
6,@@ 0.9513459634726057
Букурещ 1
работен 1
тино 1
хер@@ 1
мисии 1
работници 1
бащата 1
въпроса 1
Маса@@ 1
активност 1
магази@@ 1
джамия 1
маши@@ 1
очер@@ 1
такова 1
Al@@ 0.0996921577194654
бат@@ 1
низина 1
популярна 1
мотиви 1
нува 1
традиции 1
Три 1
бърг 1
екзархи@@ 1
изти@@ 1
провъзгла@@ 1
римляните 1
проуч@@ 1
Ан 1
Петро@@ 1
дели@@ 1
стор 1
територи@@ 1
сър 1
властите 1
издателство 1
Да 1
Пазарджик 1
взаим@@ 1
ническия 1
северна 1
дължината 1
Дон 1
Управ@@ 1
бул 1
иконоста@@ 1
минута 1
духовник 1
ждение 1
жиз@@ 1
разширява 1
киното 1
лето@@ 1
пси@@ 1
Гър@@ 1
вам 1
стабилна 1
футболна 1
Антонио 1
въздушни 1
икономическа 1
творче@@ 1
мексикан@@ 1
пределите 1
Си 1
гват 1
180 1
Вито@@ 1
говора 1
изоли@@ 1
природа 1
цикъл 1
числа 1
юно@@ 1
Съюз@@ 1
наименование 1
опазване 1
практически 1
профи@@ 1
Цър@@ 1
върхо@@ 1
местно 1
съхранява 1
1875 1
Дисни 1
повърх@@ 1
психоанали@@ 1
десети@@ 1
ждата 1
пътуване 1
бюро 1
мал 1
основателите 1
представля@@ 1
разполо@@ 1
снимки 1
тинг 1
Кьолн 1
доброто 1
рови 1
Ната@@ 1
рид 1
Джон@@ 1
Емил 1
годишния 1
час 1
Дер@@ 1
Пловдив@@ 1
Франк 1
успеха 1
намери 1
пур@@ 1
смен@@ 1
трето 1
тури 1
Основни 1
Холщайн 1
вне@@ 1
последен 1
празник 1
съседните 1
шен@@ 1
вар 1
дската 1
конвен@@ 1
менена 1
възстановяване 1
температурата 1
чките 1
Икономика 1
жилищ@@ 1
знач@@ 1
изследовател 1
сход@@ 1
Бир@@ 1
Петков 1
британските 1
лските 1
обеща@@ 1
разнообразие 1
• 1
Вирджиния 1
администра@@ 1
братовчед 1
докла@@ 1
младите 1
формират 1
хоризонта@@ 1
чан 1
архитектур@@ 1
Асе@@ 1
Библи@@ 1
Друг 1
Мест@@ 1
вло@@ 1
гласа 1
дово@@ 1
Международния 1
is@@ 0.0888557021119905
жесто@@ 1
усе@@ 1
Главен 1
Дор@@ 1
Жо@@ 1
Историята 1
Специ@@ 1
турска 1
вал@@ 1
изложби 1
шени 1
1872 1
Свеще@@ 1
гент@@ 1
инструмент 1
строежа 1
Вси@@ 1
Невро@@ 1
гръцка 1
команди@@ 1
спира@@ 1
Охри@@ 1
музикант 1
обяснява 1
Цвет@@ 1
века 0.6132710042457858
крайбре@@ 1
оцеле@@ 1
планинска 1
самостоятелна 1
софтуер 1
Куба 1
влю@@ 1
норма@@ 1
ЕЦ 1
избор 1
леку@@ 1
ляна 1
мати 1
полската 1
Ах@@ 1
Клуб@@ 1
Хоенлое 1
музиканти 1
приложения 1
студио 1
хим 1
114@@ 1
Избра@@ 1
агент 1
заболявания 1
слага 1
температури 1
вила@@ 1
сев 1
НАТО 1
действат 1
препра@@ 1
селе@@ 1
фра@@ 1
вената 1
качества 1
насий 1
поддръжка 1
фро@@ 1
Шьон@@ 1
озна@@ 1
съответствие 1
експло@@ 1
зрите@@ 1
римския 1
сним@@ 1
търговец 1
Максимилиан 1
Теодо@@ 1
ливо 1
независимостта 1
снабдя@@ 1
нататък 1
изнася 1
ителство 1
летите 1
слуш@@ 1
06 0.9828705304858194
Манасти@@ 1
личен 1
название 0.8594954790426912
обстоятел@@ 1
ремонт 1
съставена 1
циони@@ 1
Казан@@ 1
Кот@@ 1
дисертация 1
чувства 1
Музика@@ 1
насам 1
аген@@ 1
бет 1
следванията 1
мемо@@ 1
посочва 1
построяването 1
хребет 1
Боливия 1
ментът 1
Вир@@ 1
видна 1
помогне 1
адап@@ 1
скла@@ 1
френските 1
Граф@@ 1
Ради@@ 1
може@@ 1
lo@@ 0.11011246093852939
експлоатация 1
покрива 1
лах 1
събо@@ 1
120@@ 1
u@@ 0.10405010414889469
Дви@@ 1
Супер@@ 1
Ця@@ 1
инста@@ 1
люб@@ 1
ляване 1
унс 1
Лен@@ 1
Леополд 1
белите 1
пече@@ 1
адвокат 1
мара 1
покрити 1
предварително 1
западно@@ 1
шампионата 1
орът 1
Рио 1
местности 1
том@@ 1
долното 1
псевдонима 1
стично 1
мато@@ 1
участници 1
функциони@@ 1
популяри@@ 1
тла@@ 1
чане 1
Лон@@ 1
Няма 1
мито@@ 1
ждан 1
коман@@ 1
основаването 1
тации 1
Ник@@ 1
лит 1
свободна 1
шоуто 1
Серия 1
печ@@ 1
фирмата 1
административно 1
ваме 1
епизо@@ 1
обработка 1
поражение 1
Истанбул 1
Организацията 1
изгот@@ 1
окол@@ 1
тък 1
дребни 1
нята 1
разпространени 1
юноше@@ 1
140 1
World 0.09954174087008268
губят 1
звук 1
сбо@@ 1
славянски 1
съединения 1
Независи@@ 1
мед 1
покан@@ 1
Награди 1
Папуа 1
автобу@@ 1
аро@@ 1
жил 1
Мианмар 1
белги@@ 1
организират 1
основават 1
почви 1
Анри 1
Тей@@ 1
ников 0.4866808102935497
остатъ@@ 1
Самият 1
Сен@@ 1
бълга@@ 1
летни 1
телевизията 1
актри@@ 1
дио 1
дока@@ 1
китайски 1
личност 1
мул@@ 1
ру 1
етнически 1
ръце 1
гент 1
общественик 1
станции 1
чие 1
долу 1
сиона@@ 1
ica 0.21293494610952626
Анаста@@ 1
доброволец 1
международно 1
никата 1
полис 1
класифици@@ 1
Обеди@@ 1
искат 1
мах@@ 1
немския 1
познати 1
сребър@@ 1
тяване 1
09 0.927926300709117
Car@@ 0.1467160434517252
Хуан 1
гиня 1
жани 1
земетре@@ 1
подножието 1
подобна 1
стотици 1
тексто@@ 1
вици 1
функционира 1
цъф@@ 1
Неговите 1
засил@@ 1
мий 1
поддържат 1
представят 1
замен@@ 1
дент@@ 1
цин@@ 1
загубата 1
оператив@@ 1
Бит@@ 1
Варшава 1
единени 1
миси@@ 1
ровете 1
включена 1
онлайн 1
повядва 1
You 0.4247215970369556
ul@@ 0.10486587192293452
загиват 1
критика 1
иконо@@ 1
магистра@@ 1
повторно 1
приз@@ 1
Аре@@ 1
итер 1
хин@@ 1
Марица 1
Чарлз 1
ковен 1
певицата 1
сят 1
брига@@ 1
предприе@@ 1
рън 1
Юнайтед 1
вечер 1
животните 1
квар@@ 1
лага@@ 1
разделена 1
потъ@@ 1
същност 1
Би 1
Търгови@@ 1
жертви 1
проби@@ 1
Барселона 1
Известен 1
130 1
Карлос 1
Североизточна 1
гледа 1
иници@@ 1
социална 1
съпрово@@ 1
леки 1
Михайлов 1
ващото 1
направление 1
срещата 1
доро@@ 1
поня@@ 1
рала 1
британския 1
официални 1
пехот@@ 1
проучване 1
труп@@ 1
фанзи@@ 1
Сиг@@ 1
Хей@@ 1
буква@@ 1
бек@@ 1
културен 1
намерени 1
оне 1
черни 1
люция 1
нки 1
2,5 1
преде@@ 1
регули@@ 1
сестри 1
Заема 1
активен 1
достига@@ 1
пони@@ 1
преди@@ 1
ряз@@ 1
списания 1
дец 1
знаци 1
ном 0.14612775297694386
пал 1
албуми 1
Франческо 1
заглавие 1
носи@@ 1
пресича 1
точен 1
Бракът 1
Мило@@ 1
кръст@@ 1
спортни 1
Место@@ 1
Уот@@ 1
особености 1
Гран@@ 1
Нов 1
Сло@@ 1
вулка@@ 1
ителността 1
вач 1
лността 1
службата 1
имали 1
мит 1
общото 1
отблъ@@ 1
пускането 1
Кало@@ 1
максимална 1
118@@ 1
навод@@ 1
ниите 1
ничните 1
нт 1
Войната 1
вила 1
установяват 1
ждания 1
стъплението 1
фю@@ 1
Мори@@ 1
кавале@@ 1
марк@@ 1
останалата 1
разпространява 1
Уай@@ 1
атаки 1
гла 1
деви@@ 1
Сили@@ 1
майката 1
султан 1
вей@@ 1
изследователи 1
5000 1
мната 1
предход@@ 1
реч 1
свободата 1
Ломбардия 1
Стивън 1
данните 1
лита 1
полити@@ 1
раждане 1
вариан@@ 1
клубове 1
пата 1
посветен 1
постъп@@ 1
редно 1
Публий 1
написва 1
номиниран 1
Либе@@ 1
главна 1
зова@@ 1
книгите 1
лации 1
Пис@@ 1
балан@@ 1
говоре@@ 1
заселват 1
коли 1
момиче 1
тичните 1
удоб@@ 1
di 0.2258138795945805
племе 1
теленове@@ 1
Тере@@ 1
върховенството 1
излъчен 1
масово 1
ау@@ 1
Хр. 1
планове 1
присти@@ 1
Даниел 1
зор 1
интегра@@ 1
палуба 1
дик@@ 1
лока@@ 1
реда 1
андар@@ 1
силвания 1
австрали@@ 1
непосред@@ 1
обх@@ 1
рун@@ 1
избрана 1
търже@@ 1
2,@@ 0.6295755785769941
тях@@ 1
централен 1
Монтана 1
връщането 1
външната 1
забеле@@ 1
обекта 1
Кита@@ 1
гнал 1
европейската 1
лежи 1
несени 1
строй 1
тант 1
Лазар 1
Цан@@ 1
литературен 1
поди@@ 1
резиденция 1
сърде@@ 1
шпи@@ 1
Рим@@ 1
дого@@ 1
нологи@@ 1
Уилямс 1
дит 1
сей@@ 1
съветските 1
формация 1
шават 1
Обла@@ 1
контакт 1
къси 1
преодо@@ 1
надолу 1
прили@@ 1
ana 0.12397340920502047
Кова@@ 1
християнството 1
читате@@ 1
брюкен 1
вежда 1
Вод@@ 1
женитба 1
каф@@ 1
околните 1
Използва 1
Македонската 1
Нами@@ 1
виден 1
престола 1
скоро@@ 1
Нан@@ 1
Представлява 1
ленбург 1
мяна 1
низма 1
посет@@ 1
преброяванията 1
сара@@ 1
светлината 1
старото 1
1869 1
WWE 1
Средновековието 1
войните 1
нарича@@ 1
Народното 1
ликата 1
марки@@ 1
115@@ 1
Союз 1
гово 1
доведе 1
турен 1
Жене@@ 1
Лий 1
Маро@@ 1
Приме@@ 1
богат 1
игрален 1
разделен 1
‰ 1
1867 1
научава 1
чувств@@ 1
швейцар@@ 1
1864 1
защитата 1
изобре@@ 1
него@@ 1
способността 1
центри@@ 1
декла@@ 1
поток 1
Основан 1
мии 1
способност 1
титуля@@ 1
писа 1
учре@@ 1
физически 1
Йерусалим 1
звайки 1
мирен 1
Тихия 1
Фера@@ 1
кв. 1
влечу@@ 1
обединение 1
проник@@ 1
Дой@@ 1
Нем@@ 1
зим@@ 1
ровки 1
Джак 1
зени@@ 1
дирек@@ 1
вдовица 1
региони 1
чене 1
Атанасов 1
записи 1
младия 1
щения 1
избо@@ 1
лината 1
финалите 1
Водо@@ 1
Произлиза 1
бал 1
отразява 1
сово 1
Уа@@ 1
осигури 1
осъще@@ 1
отри@@ 1
Том 1
външен 1
количества 1
нарко@@ 1
споделя 1
Каро@@ 1
генщайн 1
пел 1
превръщат 1
Австро 1
вино 1
дете@@ 1
крайцерите 1
приемането 1
чената 1
Анд@@ 1
клетъ@@ 1
писта 1
увеличаване 1
Панама 1
Съгласно 1
съдбата 1
съди@@ 1
Бургун@@ 1
Изенбург 1
Любо@@ 1
видеокли@@ 1
глежда 1
зер 1
изстрел@@ 1
рели@@ 1
съдия 1
110 1
900 1
дий 1
дини 1
малцин@@ 1
мей 1
прия@@ 1
среднове@@ 1
вяра 1
съставлява 1
потенци@@ 1
пул@@ 1
МС 1
Реги@@ 1
Уин@@ 1
цент 1
драв@@ 1
италианската 1
кух@@ 1
мил@@ 1
08 0.8788881180721148
Куку@@ 1
подно@@ 1
Кер@@ 1
модела 1
колони 1
фийлд 1
френска 1
зима 1
ид 1
порно@@ 1
Добрич 1
категори@@ 1
количе@@ 1
мрежи 1
Деца 1
Друга 1
Кин@@ 1
Скот 1
Успе@@ 1
зиран 1
международна 1
псевдоним 1
Пише 1
описание 1
Ману@@ 1
докторска 1
рек 1
ur@@ 0.09942324523198907
водство 1
къв 1
мандат 1
мащаб 1
морета 1
фактори 1
фар@@ 1
язовир 1
иза 1
карва 1
присъединяват 1
сяват 1
Италиан@@ 1
архипе@@ 1
стихове 1
хилядо@@ 1
бити@@ 1
Бавар@@ 1
Мюн@@ 1
Слън@@ 1
скала 1
хълми@@ 1
Афганистан 1
Кристоф 1
Льо@@ 1
представителите 1
H 0.30776936680859474
Йотинген 1
Франк@@ 1
граду@@ 1
независима 1
реб@@ 1
самолетоноса@@ 1
ада 1
бърн 1
племето 1
живява 1
удъл@@ 1
Терминът 1
неща 1
претър@@ 1
редки 1
Алън 1
изпълнител 1
моне@@ 1
Мака@@ 1
писателя 1
попадат 1
фелс 1
награ@@ 1
Пирин 1
класиране 1
морско 1
Хасково 1
кса 1
отношението 1
сков 1
Ени@@ 1
Закона 1
Словакия 1
дух 1
освет@@ 1
уа 1
драмати@@ 1
либера@@ 1
характеристика 1
as@@ 0.07170853132132131
Лихтен@@ 1
Мадагаскар 1
апосто@@ 1
конституция 1
основате@@ 1
стви@@ 1
щаст@@ 1
Успение 1
Флоренция 1
закон@@ 1
концентри@@ 1
наречено 1
съставен 1
говорите 1
очите 1
Мора@@ 1
Хау@@ 1
настъпление 1
съпру@@ 1
Долно 1
Конгре@@ 1
Кърджали 1
Тайван 1
безопас@@ 1
компи@@ 1
лагер@@ 1
сау 1
сърби 1
Еберхард 1
Луната 1
зал@@ 1
краи@@ 1
месеци 1
батальон 1
Вед@@ 1
Груп@@ 1
Ст@@ 1
il@@ 0.10881874832759864
Тон@@ 1
качество 1
отмъ@@ 1
хек@@ 1
Погребан 1
азиат@@ 1
дова 1
осем@@ 1
Резултат@@ 1
хло@@ 1
бяло 1
месо 1
богата 1
бърт 1
енбург 1
персо@@ 1
дърве@@ 1
картина 1
ковци 1
критие 1
бай@@ 1
запи@@ 1
Физи@@ 1
ат 1
докто@@ 1
раз 0.8305015547142791
сма@@ 1
сърцето 1
тютю@@ 1
написан 1
тос 1
Азербайджан 1
Мозамбик 1
Сталин 1
говор@@ 1
защо 1
печат 1
приказ@@ 1
1200 1
бойна 1
гръцкото 1
дубла@@ 1
Манчестър 1
Ранни 1
лом 0.5327828361275359
ню@@ 1
тясно 1
Адрианопол 1
Ери@@ 1
Шек@@ 1
лагера 1
превоз@@ 1
факти 1
еки@@ 1
кване 1
населя@@ 1
бяла 1
врати 1
късната 1
мене@@ 1
рато@@ 1
царе@@ 1
Еману@@ 1
кай@@ 1
противоре@@ 1
хоро@@ 1
щур@@ 1
160 1
Василев 1
гражданин 1
движения 1
енето 1
посвет@@ 1
рят 1
шков 1
изпада 1
морското 1
су 1
учениците 1
вою@@ 1
инстру@@ 1
кас 1
носо@@ 1
бездетен 1
мол@@ 1
Магдалена 1
Ю 1
госту@@ 1
периоди 1
предприема 1
вой 0.33046228784346077
линг@@ 1
майстори 1
миграция 1
усъвършен@@ 1
Дебютира 1
Маври@@ 1
Милан 1
мани 1
матери@@ 1
хит 1
Разполо@@ 1
вяне 1
кратно 1
нон 1
служат 1
Де 1
бана@@ 1
бище 1
диви 1
ждения 1
защита@@ 1
съоръ@@ 1
топ 1
бойните 1
желанието 1
уеб 1
Апри@@ 1
католическата 1
язови@@ 1
бран@@ 1
експедицията 1
интерес@@ 1
колежа 1
as 0.007233857424371232
Берлин@@ 1
Франсоа 1
море@@ 1
посветена 1
сам@@ 1
ap@@ 0.10279004866892966
вер 1
данов 1
планетата 1
промо@@ 1
шин@@ 1
обявено 1
отпечат@@ 1
реда@@ 1
счита@@ 1
състеза@@ 1
люс 1
нова@@ 1
област@@ 1
софту@@ 1
деж@@ 1
ико@@ 1
осъзна@@ 1
Републикан@@ 1
ента 1
клу@@ 1
любов@@ 1
свръх@@ 1
турнири 1
u 0.0809750135928906
внук 1
глави 1
охла@@ 1
статия 1
01 0.898621022285383
военното 1
какв@@ 1
резултатите 1
схема 1
фан@@ 1
ЮНЕСКО 1
авио@@ 1
лили 1
римска 1
Бли@@ 1
Жак 1
гръцко 1
полиция 1
бремен@@ 1
мело@@ 1
ълъ@@ 1
ор 1
отсе@@ 1
05 0.9082516027849284
Кен@@ 1
Любомир 1
Центра@@ 1
алу@@ 1
възела 1
командва 1
ефици@@ 1
избяга 1
вътрешни 1
дже 1
публикации 1
1874 1
Дал@@ 1
Едва 1
артилерий@@ 1
различно 1
школата 1
Кому@@ 1
Пин@@ 1
Тъ@@ 1
дървени 1
импер@@ 1
милиарда 1
остане 1
отделен 1
рените 1
ресторан@@ 1
славата 1
стрелба 1
Оба@@ 1
кили@@ 1
локо@@ 1
плаване 1
селски 1
изкуствата 1
мък 1
орбит@@ 1
публично 1
установка 1
иму@@ 1
леност 1
спорта 1
трилър 1
финан@@ 1
Бил@@ 1
зиране 1
ова 1
срок 1
ѫ@@ 1
1868 1
Кристина 1
шната 1
Вене@@ 1
кал 1
нберг 1
ху 1
Жив@@ 1
губернатор 1
конфликти 1
крайбрежието 1
мони@@ 1
обкръ@@ 1
популярните 1
K 0.25581927046447905
Преображен@@ 1
запис 1
мални 1
търсят 1
Максим 1
аеро@@ 1
здраве 1
небург 1
покров@@ 1
Нау@@ 1
Ул@@ 1
дъното 1
изостав@@ 1
никой 1
Игра@@ 1
Мари 1
Северозападна 1
изпратени 1
прилага 1
рополия 1
фът 1
Тради@@ 1
Именно 1
някога 1
оксид 1
сини 1
върнат 1
тенис 1
Англи@@ 1
Бот@@ 1
варови@@ 1
вард 1
папата 1
синовете 1
бров@@ 1
вари 1
нави@@ 1
огъня 1
посла@@ 1
трай@@ 1
r 0.14731970749522746
бро 1
водач 1
евреите 1
психология 1
1866 0.8968411710372911
желя@@ 1
фос@@ 1
Общата 1
арте@@ 1
гръбна@@ 1
рея 1
англича@@ 1
еви 1
корабна 1
наблюдават 1
наименова@@ 1
Двете 1
Еди@@ 1
зая@@ 1
мъжкото 1
разве@@ 1
спокой@@ 1
сръбската 1
указ 1
видно 1
8,@@ 0.9418674848183219
Народен 1
мисията 1
юриди@@ 1
затворен 1
маха@@ 1
Им@@ 1
посрещ@@ 1
Запа@@ 1
Съществу@@ 1
конкурса 1
сенатор 1
Нигерия 1
Роу@@ 1
експеримента@@ 1
приблизителна 1
ag@@ 0.0896114288252089
Варнен@@ 1
едната 1
използвайки 1
колекция 1
лекции 1
ситуация 1
употребата 1
Алберт 1
орке@@ 1
посочено 1
югоизточната 1
Макс 1
Френската 1
Ър@@ 1
аз@@ 1
архив 1
нил 1
принуждава 1
слад@@ 1
стихо@@ 1
участия 1
Папа@@ 1
лън 1
моли 1
редовно 1
колко@@ 1
отборите 1
редо@@ 1
яд@@ 1
темати@@ 1
щайки 1
Гале@@ 1
Филосо@@ 1
лост 1
патри@@ 1
музикално 1
1861 0.9959630549897278
Известни 1
вку@@ 1
еванге@@ 1
приви@@ 1
състоянието 1
универса@@ 1
художника 1
Реал 1
екзархисти 1
лежа@@ 1
нацията 1
разпръ@@ 1
Ерик 1
Доротея 1
симфо@@ 1
спечелва 1
членки 1
Монте@@ 1
задвиж@@ 1
хожда@@ 1
персона@@ 1
пусти@@ 1
разработва 1
същите 1
Records 0.32447688687795384
Ново 1
АТ@@ 1
Рика 1
литературни 1
полети 1
списанието 1
Андер@@ 1
евро@@ 1
определено 1
процеду@@ 1
сайт 1
Илиев 1
Завръ@@ 1
Саму@@ 1
велик 1
разузнавате@@ 1
серията 1
чуждестранни 1
вка@@ 1
зрители 1
филмите 1
ърд 1
възстановява 1
диагно@@ 1
кторите 1
разположение 1
Уни@@ 1
размно@@ 1
стото 1
СП 1
вател 1
гале@@ 1
демонстри@@ 1
земеделието 1
отличие 1
съветската 1
Изабе@@ 1
дипломат 1
летът 1
македонския 1
мил 1
рус 1
ряването 1
Окта@@ 1
види 1
класически 1
факт 1
сладковод@@ 1
филмов 1
Перник 1
ази@@ 1
подзем@@ 1
Люксембург 1
корпора@@ 1
очаква 1
ври 1
непрекъснато 1
председателя 1
сму@@ 1
МВ@@ 1
националните 1
quot 1
Ези@@ 1
Сингапур 1
полови@@ 1
тали@@ 1
департамент 1
емигран@@ 1
ранени 1
Защ@@ 1
Комисията 1
личния 1
синове 1
страте@@ 1
Дим@@ 1
концеп@@ 1
плато@@ 1
пенсиони@@ 1
плодо@@ 1
Аз 1
Тол@@ 1
другия 1
емост 1
рас 1
тани 1
турските 1
близките 1
изигра@@ 1
основния 1
подготовката 1
сяване 1
днешния 1
историческата 1
лицен@@ 1
мур 1
немските 1
03 0.9673310580570612
ella 0.2379907656740525
стиче@@ 1
фия 1
Имат 1
възстановяването 1
двадесет 1
ковод@@ 1
инфек@@ 1
кор 1
отхвърля 1
верен 1
присъстват 1
пускат 1
жар@@ 1
кир@@ 1
щаба 1
Ел 1
социално 1
Кинг 1
избухва 1
огла@@ 1
стара 1
Жен@@ 1
Ред@@ 1
говорен 1
монах 1
притежават 1
фите 1
U 0.18292679268006218
диску@@ 1
дуин 1
замъ@@ 1
спон@@ 1
цир@@ 1
чети 1
завършват 1
холм 1
Джо 1
въглища 1
джаз 1
магистър@@ 1
мисли 1
разнообразни 1
ранната 1
350 1
жо 1
назва@@ 1
пул 1
спря@@ 1
bi@@ 0.12392312866529902
нит 1
повя@@ 1
уна 1
Григо@@ 1
жертва 1
кау@@ 1
черно 1
Семей@@ 1
зии 1
княжество 1
крака 1
майки 1
дрехи 1
запазена 1
лом@@ 1
погребе@@ 1
различават 1
русна@@ 1
дарска 1
лско 1
написани 1
сли 1
фин 1
Държавния 1
Едно 1
дълбока 1
Компа@@ 1
Сед@@ 1
лието 1
президентът 1
рене@@ 1
тията 1
Памет@@ 1
вили 1
зет@@ 1
истории 0.7844071044378857
кота 1
писане 1
преводач 1
снима 1
стиму@@ 1
Миси@@ 1
Одрин 1
апси@@ 1
досто@@ 1
заклю@@ 1
обли@@ 1
прието 1
Уязвим 1
многобро@@ 1
моде@@ 1
секс 1
бозайници 1
Ву@@ 1
Естония 1
птем@@ 1
състезател 1
Романът 1
блоки@@ 1
дост 1
преброяване 1
следствие 1
търговска 1
щера 1
k 0.07457656887786522
Лет@@ 1
екологи@@ 1
реформи 1
Роман@@ 1
баба 1
лека 1
натиск 1
проблемите 1
став 1
съзнание 1
Браун 1
Камерун 1
водена 1
земеделски 1
напит@@ 1
бени 1
влия@@ 1
евенту@@ 1
пеще@@ 1
плен 1
хау@@ 1
камера 1
Проду@@ 1
Сток@@ 1
епо@@ 1
компонен@@ 1
мб@@ 1
обявяват 1
средно@@ 1
тей@@ 1
цев 0.5089121223376871
Фин@@ 1
атели 1
гено@@ 1
матика 1
говете 1
заслуги 1
крепост@@ 1
нското 1
признание 1
Храмът 1
болести 1
миро@@ 1
служби 1
Кана@@ 1
Литва 1
двигателя 1
заболяване 1
нии 0.26788872781647577
околностите 1
отправя 1
диско@@ 1
домакин 1
116@@ 1
Иконо@@ 1
довни 1
кана@@ 1
холанд@@ 1
германците 1
жество 1
нада 1
разпада 1
твърдят 1
1863 0.9922390315921702
ea 0.2679348261438575
въоръжена 1
двор@@ 1
гражданите 1
живи 1
замест@@ 1
кампа@@ 1
сното 1
хожда 1
Панай@@ 1
виждат 1
образ 1
предпа@@ 1
произхожда 1
Средиземно 1
нататъ@@ 1
титу@@ 1
триум@@ 1
флу@@ 1
Пос@@ 1
базилика 1
основното 1
пиеси 1
терен 1
цин 1
деноно@@ 1
медии 1
насти@@ 1
предим@@ 1
Радио 1
менти@@ 1
Щол@@ 1
бакалавърска 1
мала@@ 1
водеща 1
едноимен@@ 1
възвишение 1
метра@@ 1
подготвя 1
Андро@@ 1
Западен 1
излъч@@ 1
тет 1
тъм 1
хранене 1
замяна 1
Ch@@ 0.07189488587683851
Густав 1
Македонски 1
конгре@@ 1
родината 1
em@@ 0.09195250169108282
og@@ 0.2000987489096406
Мав@@ 1
добавя 1
магистрала 1
рам 1
НО@@ 1
гур@@ 1
двойка 1
рекорд 1
стади@@ 1
участниците 1
Давид 1
Стамбо@@ 1
Шуленбург 1
континента 1
ордена 1
помещения 1
туристически 1
Бий@@ 1
Костур@@ 1
административни 1
астронав@@ 1
вост 1
нападател 1
югозападната 1
Сома@@ 1
графовете 1
основа@@ 1
правило 1
принудени 1
Годи@@ 1
Държавната 1
атакува 1
емигрира 1
кина 1
кисели@@ 1
кръв 1
разбира@@ 1
специал@@ 1
стая 1
Алжир 1
Веро@@ 1
зелен@@ 1
листни 1
1850 0.9839845103245681
нел 1
обединява 1
пистата 1
показа@@ 1
свързват 1
сква 1
тън@@ 1
държавната 1
натруп@@ 1
разпозна@@ 1
сос 1
станцията 1
яните 1
Владислав 1
Джак@@ 1
Ог@@ 1
гам 1
съвременния 1
Дек@@ 1
вътрешната 1
йци 1
район@@ 1
самостоятелен 1
годишнината 1
грузин@@ 1
деля 1
мология 1
номини@@ 1
открития 1
Антио@@ 1
Чехословакия 1
дъщерята 1
насе@@ 1
посто@@ 1
широко@@ 1
лято 1
пад 1
117@@ 1
li@@ 0.08915913447682336
os 0.04459740524290334
Помпе@@ 1
графството 1
доцент 1
насекоми 1
нах 0.939867938750702
плен@@ 1
1865 0.9558954270568509
комбинация 1
Лар@@ 1
абсолю@@ 1
албумът 1
движи 1
моста 1
насил@@ 1
огромен 1
пребива@@ 1
стойности 1
Хан 1
съгласява 1
хана 1
lidae 1
напис@@ 1
необходими 1
слото 1
бити 1
заплаха 1
отказват 1
продадени 1
фелд@@ 1
Цар 1
английската 1
кучета 1
нително 1
подход 1
тенбург 1
Етиопия 1
красо@@ 1
ктор@@ 1
напом@@ 1
онен 1
ориента@@ 1
сингъла 1
следват 1
Влиза 1
дил 1
препят@@ 1
променят 1
сложни 1
тирана 1
цити@@ 1
Диони@@ 1
Служи 1
дипломирането 1
Почти 1
триъгъл@@ 1
естествено 1
линейни 1
нужда@@ 1
рецеп@@ 1
свое 1
сдру@@ 1
1830 1
Ад@@ 1
вечер@@ 1
заселе@@ 1
манастир@@ 1
мбо@@ 1
повди@@ 1
постижения 1
ром 0.23996361068548958
самостоятелни 1
Драго@@ 1
владения 1
кира 1
коалиция 1
повто@@ 1
Етнически 1
дере 1
изгражда 1
постоянен 1
търговци 1
мява 1
отнасят 1
традиционно 1
ad@@ 0.059355460700507026
at@@ 0.06880202936751574
Атлантическия 1
Два@@ 1
кел@@ 1
Шарлота 1
дови 1
дят 1
евич 1
for 0.007366085254888203
Авра@@ 1
Амалия 1
Беле@@ 1
Стран@@ 1
дес@@ 1
катастро@@ 1
принадлежа@@ 1
БЗ@@ 1
Пери@@ 1
остан@@ 1
седа@@ 1
Такива 1
вълни 1
говото 1
диск 1
истински 1
пети 1
присъствие 1
фолк 1
Раковски 1
Так@@ 1
биз@@ 1
немската 1
разкопки 1
Кири@@ 1
Княжество 1
Старо@@ 1
граждански 1
кит@@ 1
нините 1
обсадата 1
ранна 1
строеж 1
ть@@ 1
херцогиня 1
Ангола 1
Ат@@ 1
Отборът 1
избират 1
млад@@ 1
пазар@@ 1
СД@@ 1
Сиби@@ 1
Чикаго 1
главни 1
пато@@ 1
пки 1
пос@@ 1
1800 1
Сестра 1
еврейски 1
обществено 1
специалисти 1
споразуме@@ 1
бина 1
масата 1
отец 1
рацията 1
стипен@@ 1
aceae 0.5327830936579868
Ямбол 1
североизточната 1
хол@@ 1
.с. 1
джо 1
нената 1
пр. 1
Апо@@ 1
Вре@@ 1
алният 1
възможни 1
османските 1
потвърждава 1
произведени 1
Сак@@ 1
вещество 1
воар 1
причината 1
al 0.018685770640642387
at 0.009956369295643822
Негов 1
алтерна@@ 1
гията 1
молба 1
туризъм 1
Арабия 1
древни 1
организа@@ 1
северозападната 1
тух@@ 1
умения 1
Резо@@ 1
Твор@@ 1
полузащитник 1
измъ@@ 1
ническо 1
увре@@ 1
фентъзи 1
химиче@@ 1
Лука 1
Мета@@ 1
Феде@@ 1
букви 1
завърши 1
международната 1
писан 1
заку@@ 1
климати@@ 1
конту@@ 1
операцията 1
нейният 1
ств@@ 1
забран@@ 1
значителен 1
Вътреш@@ 1
ефекти 1
компютри 1
тоест 1
ВИ@@ 1
Дъщер@@ 1
заменен 1
пфалц@@ 1
териториите 1
тини 1
дем@@ 1
дис@@ 1
замър@@ 1
известният 1
маз@@ 1
моря@@ 1
социацията 1
Купа 1
тане 1
философ 1
Love 0.43385197194231817
І 1
ида 1
идеите 1
комеди@@ 1
комер@@ 1
логични 1
наблюдение 1
присъствието 1
тео@@ 1
Он@@ 1
Стари 1
ливо@@ 1
организми 1
Барбара 1
Симон 1
Хосе 1
канали 1
сион 1
съществуване 1
хон@@ 1
Делчев 1
адапти@@ 1
визу@@ 1
воя 1
глъ@@ 1
трудо@@ 1
употре@@ 1
ec@@ 0.11447013525747822
Терито@@ 1
Шри 1
евски 1
корона 1
пивовар@@ 1
радика@@ 1
смесено 1
Характер@@ 1
богати 1
еве 1
Голя@@ 1
Държавна 1
Камбоджа 1
вни@@ 1
вро@@ 1
завършен 1
ференци@@ 1
Министерство 1
екс@@ 1
лето 1
моги@@ 1
Желе@@ 1
волей@@ 1
мба@@ 1
национал@@ 1
позната 1
рер 1
Трои@@ 1
Франциско 1
деното 1
напада 1
отделно 1
сил@@ 1
сили@@ 1
Парла@@ 1
Родопи 1
лента 1
туристи@@ 1
et@@ 0.08846137354125554
Готфрид 1
бота@@ 1
ваната 1
водени 1
Дол@@ 1
маршру@@ 1
стот@@ 1
es@@ 0.05888746672306044
нология 1
посвещава 1
публици@@ 1
гос 1
дика 1
изпре@@ 1
бившата 1
военния 1
самите 1
сения 1
Ербах 1
спози@@ 1
участъци 1
Мини@@ 1
арх@@ 1
държане 1
въдство 1
извори 1
представи 1
прослед@@ 1
хълма 1
векове 1
мните 1
Побед@@ 1
вилаетите 1
сем@@ 1
достъ@@ 1
категории 1
клин 1
курфюрст 1
манов 1
РБ 1
войниците 1
главно@@ 1
годишни 1
ментар@@ 1
мляко 1
охра@@ 1
трудове 1
Лам@@ 1
Творчество 1
битки 1
вестници 1
мска 1
детето 1
лиев 1
пехо@@ 1
пристигането 1
технология 1
Bar@@ 0.12838795175339018
отделят 1
тит@@ 1
Древен 1
Национална 1
исти@@ 1
масло 1
сериа@@ 1
Общината 1
зависи@@ 1
кьой 1
скал@@ 1
христи@@ 1
иран@@ 1
особе@@ 1
помощ@@ 1
разновид@@ 1
средновековна 1
типове 1
чинов@@ 1
дю@@ 1
изложба 1
отразяваща 1
сани@@ 1
st@@ 0.05686288322386232
КС 1
запозна@@ 1
хим@@ 1
Езе@@ 1
Съще@@ 1
драматичен 1
зали 1
цигу@@ 1
Кума@@ 1
яй@@ 1
Брюксел 1
Марс 1
Подобно 1
акту@@ 1
домо@@ 1
комби@@ 1
убие 1
кратък 1
нак 1
номе@@ 1
склон 1
партиза@@ 1
публика 1
темпера@@ 1
явления 1
английска 1
домаш@@ 1
лерн 1
върш@@ 1
допри@@ 1
геоло@@ 1
наброява 1
Гоце 1
съдържанието 1
Архи@@ 1
Мом@@ 1
Тибе@@ 1
нината 1
предмет 1
125 1
деми@@ 1
къла 1
цла@@ 1
груп@@ 1
динген 1
допринася 1
конструкцията 1
майсторство 1
сри@@ 1
DVD 0.646185248164586
Касти@@ 1
Монастир 1
здрав@@ 1
товар@@ 1
шли 1
an 0.007653954455620644
el 0.006559334693514161
Марков 1
целе@@ 1
лм 1
разрешение 1
Соци@@ 1
министер@@ 1
пин 1
фе 1
характери@@ 1
2022 0.330663322953033
Крис 1
словен@@ 1
ала 1
зря@@ 1
легенда 1
фона 1
Маг@@ 1
Осман@@ 1
азбука 1
гс 1
лизат 1
Сава 1
Фрай@@ 1
минът 1
разнообраз@@ 1
рю 1
фганг 1
113@@ 1
na 0.1122524910834714
набро@@ 1
Бернхард 1
Министер@@ 1
ара@@ 1
лаго@@ 1
en 0.003488710233321856
Испан@@ 1
колония 1
ниси@@ 1
хата 1
ориен@@ 1
резерват 1
спор 1
1856 1
шев@@ 1
… 0.28888492348221323
04 0.8533071926254417
Сул@@ 1
катастрофа 1
рич 1
червени 1
довате@@ 1
студент 1
л. 1
лай 1
порт 1
Латин@@ 1
Хол@@ 1
парт@@ 1
характе@@ 1
цента 1
Антаркти@@ 1
Нюр@@ 1
диригент 1
океан@@ 1
тайно 1
дн 1
плате@@ 1
9,@@ 0.995660101026682
сайта 1
W 0.29085884538956774
второ@@ 1
1862 0.9043311125074531
Екатерина 1
Холи@@ 1
Влади@@ 1
незия 1
ниан 1
режись@@ 1
родители 1
Арсе@@ 1
бора 1
еже@@ 1
Мери@@ 1
гина@@ 1
скон@@ 1
ro@@ 0.09338880086140183
Сене@@ 1
практику@@ 1
храбро@@ 1
ас@@ 1
вход 1
набор 1
прова@@ 1
дурас 1
критично 1
общности 1
07 0.8530455202483631
онора 1
зай@@ 1
1859 1
проход 1
ѣ@@ 1
морфо@@ 1
падан@@ 1
сх@@ 1
Гватемала 1
Комнин 1
коне 1
яйца 1
зова 1
ПФК 1
термо@@ 1
Хра@@ 1
хара 1
душно 1
лини 1
фрид 1
Par@@ 0.12099318196296761
Аполо@@ 1
полага@@ 1
Герхард 1
Трай@@ 1
ваше 1
тман 1
космо@@ 1
Форд 1
вършва 1
зеле@@ 1
лани 1
як 1
Шва@@ 1
формат 1
Лота@@ 1
вестника 1
мерно 1
пропа@@ 1
авторите@@ 1
застава 1
земедели@@ 1
изображение 1
интересу@@ 1
чайно 1
лъж@@ 1
морф@@ 1
рол 1
# 0.31933012321628046
веро@@ 1
зас@@ 1
лингви@@ 1
милия 1
тур 1
ави@@ 1
формации 1
Византи@@ 1
зараз@@ 1
кви 1
марке@@ 1
неделя 1
дири@@ 1
ключва 1
сит@@ 1
коди@@ 1
рида 1
владение 1
доне@@ 1
наем@@ 1
оси@@ 1
Коман@@ 1
Фьо@@ 1
гас 1
отличия 1
предста@@ 1
юрист 1
просве@@ 1
Кристи@@ 1
Генерал 1
акти@@ 1
рит@@ 1
сати@@ 1
сер 1
Себа@@ 1
Тря@@ 1
вивален@@ 1
вита@@ 1
галакти@@ 1
Уганда 1
сол 1
Участ@@ 1
марки 1
oph@@ 0.3669397231754648
незакон@@ 1
Стани@@ 1
опер@@ 1
церемо@@ 1
шва 1
tr@@ 0.05567546398727523
Марти@@ 1
същ@@ 1
Парк 1
молит@@ 1
оправ@@ 1
рей 1
Импера@@ 1
амби@@ 1
рини 1
крови@@ 1
разка@@ 1
Рафа@@ 1
констру@@ 1
свиде@@ 1
хиля@@ 1
готов@@ 1
добро@@ 1
предпоч@@ 1
di@@ 0.0682505264661717
Вместо 1
аргу@@ 1
справ@@ 1
техники 1
Ван 1
Мур@@ 1
отре@@ 1
Майнц 1
Никарагуа 1
получил 0.4775897531432593
le 0.006560029115939555
Тене@@ 1
гражданство 1
изгнание 1
ят@@ 1
Тома 1
безу@@ 1
лега@@ 1
графа 1
делега@@ 1
фан 1
гари 1
In@@ 0.09279763681661654
али 1
развита 1
пани 1
Tr@@ 0.10017455173230912
цер 1
Будапе@@ 1
Тони 1
виан 1
хит@@ 1
почит@@ 1
Антоний 1
Игна@@ 1
Лорен@@ 1
дона 1
печа@@ 1
случайно 1
номинации 1
почет@@ 1
богато 1
вкус 1
двигате@@ 1
министерство 1
пап@@ 1
бно 1
ктора 1
максима@@ 1
f 0.13103731381476008
намест@@ 1
циан@@ 1
Клавдий 1
Мохамед 1
могила 1
сипи 1
специ@@ 1
сть@@ 1
Съеди@@ 1
термина 1
трон 1
фини@@ 1
щина 1
Произ@@ 1
Фланд@@ 1
водоизме@@ 1
насилие 1
Ил@@ 1
Ца@@ 1
Лаза@@ 1
аспек@@ 1
почита@@ 1
Араб@@ 1
Коро@@ 1
Рот@@ 1
пожар 1
02 0.8285448548851593
фрай@@ 1
Висконти 1
Иван@@ 1
хот@@ 1
хотел 1
ноафрикан@@ 1
Холмс 1
мине 1
нади@@ 1
нам 1
северно@@ 1
тец 1
Ланд@@ 1
консервато@@ 1
можно 0.7234369064051974
тома 1
удо@@ 1
St@@ 0.09552745229599942
Мехмед 1
Стати@@ 1
Тат@@ 1
еро 1
Коб@@ 1
банд@@ 1
лея 1
фронта 1
цилин@@ 1
шеви@@ 1
ьон 1
or 0.017110132781124377
доброво@@ 1
експеди@@ 1
ис 1
лак 1
кред@@ 1
пова 1
сдел@@ 1
фами@@ 1
дивизии 1
жник 1
мети@@ 1
аза 1
кожи 1
престол 1
Чле@@ 1
але@@ 1
ракета 1
рд 1
Y@@ 0.08035991449359928
тей 1
Европе@@ 1
кции 1
монт 1
после@@ 1
фабри@@ 1
Райн@@ 1
голе@@ 1
дад 1
хищ@@ 1
метрия 1
слов@@ 1
списъ@@ 1
ed@@ 0.10130045872539722
вмести@@ 1
гел@@ 1
динг 1
дли@@ 1
жанр 1
колко 1
степ@@ 1
Коста@@ 1
дим 1
рели 1
Геро@@ 1
Краси@@ 1
Ники@@ 1
бий 1
вати@@ 1
ук 1
ВМС 1
Ц 1
Якоб 1
парта@@ 1
Два 1
бари@@ 1
близко 1
перу@@ 1
разре@@ 1
смар@@ 1
астро@@ 1
ванов 1
мл@@ 1
неправи@@ 1
anus 0.9054009552631832
Домини@@ 1
лектро@@ 1
усили@@ 1
Габри@@ 1
ежегодно 1
медали 1
тения 1
Систе@@ 1
конфликта 1
селек@@ 1
фактор 1
ТВ 1
аван@@ 1
поляр@@ 1
кус 1
пещер@@ 1
церемония 1
демон@@ 1
изделия 1
намере@@ 1
епархи@@ 1
оборуд@@ 1
бунт 1
лед 1
инструк@@ 1
фо 1
Брон@@ 1
Остров 1
колонии 1
Боя@@ 1
Есте@@ 1
бараба@@ 1
инспектор 1
чков 1
4000 1
Андже@@ 1
ЗИ@@ 1
емо 1
кли 1
консер@@ 1
хри@@ 1
Вран@@ 1
Маргарита 1
цело@@ 1
dae 1
Фредерик 1
Зеле@@ 1
виру@@ 1
императрица 1
тиви@@ 1
105 1
Весе@@ 1
интерфе@@ 1
огне@@ 1
тера 1
уи@@ 1
Re@@ 0.08034816349094315
деспо@@ 1
доклад 1
лок 1
сфер@@ 1
принадлеж@@ 1
Обя@@ 1
хам@@ 1
Управление 1
достатъ@@ 1
лого@@ 1
Джей 1
Дмитрий 1
ним@@ 1
берто 1
вто@@ 1
гно@@ 1
секция 1
тени 1
23@@ 0.8018558535693693
инициати@@ 1
лизма 1
разгра@@ 1
Интер 1
1858 1
обле@@ 1
орга@@ 1
свой@@ 1
среди 0.5413650484560587
Велико@@ 1
Художе@@ 1
дос 1
лата@@ 1
устро@@ 1
Монго@@ 1
Карло 1
крайбрежи@@ 1
слабо@@ 1
цени 1
оформ@@ 1
прокуро@@ 1
скро@@ 1
увелич@@ 1
Бала@@ 1
шири@@ 1
мур@@ 1
Господ@@ 1
Пана@@ 1
вадор 1
мус 1
Интере@@ 1
пирами@@ 1
пролет@@ 1
депре@@ 1
4,@@ 0.677340652366813
Туни@@ 1
сет@@ 1
дея@@ 1
жив 1
завла@@ 1
метал 1
чник 1
Фре@@ 1
пера@@ 1
5,@@ 0.7236856589567439
диана 1
дира 1
композиция 1
некро@@ 1
1840 0.991042593645896
наля@@ 1
станов@@ 1
Заха@@ 1
бавар@@ 1
влаж@@ 1
откро@@ 1
сборник 1
Петер 1
Сек@@ 1
канала 1
нистиче@@ 1
Добро@@ 1
дио@@ 1
констан@@ 1
сигнал 1
шено 1
le@@ 0.07177758300827054
Мол@@ 1
Шен@@ 1
принадлежат 1
Ани@@ 1
Джорджия 1
Кюстен@@ 1
Нос@@ 1
Проце@@ 1
доказате@@ 1
кен 1
убий@@ 1
чит@@ 1
Бул@@ 1
Маха@@ 1
Социалистиче@@ 1
драматург 1
стандарт 1
фено@@ 1
яко@@ 1
1300 1
сражения 1
рико 1
po@@ 0.09580857685203742
кожа 1
24@@ 0.5707492934446515
баня 1
организато@@ 1
циан 1
Кавказ 1
ФА 1
кван@@ 1
консервати@@ 1
турни@@ 1
z 0.08584398778556421
мя 1
зре@@ 1
реца 1
ti 0.2265787625479042
серти@@ 1
тари 1
фей 1
Динамо 1
Подоб@@ 1
фат 1
чест@@ 1
видят 1
Сала@@ 1
вере@@ 1
ик 1
порта 1
равенство 1
Дона@@ 1
Уор@@ 1
мел 1
Шиш@@ 1
втори@@ 1
гт 1
легендар@@ 1
пас@@ 1
Родж@@ 1
Уругвай 1
позволя@@ 1
референ@@ 1
Алексей 1
артиле@@ 1
остана@@ 1
режима 1
26@@ 0.9182171313122816
квартала 1
1600 1
концерта 1
предупре@@ 1
Окс@@ 1
гали 1
парата 1
450 1
Роман 1
Сце@@ 1
Токио 1
мила 1
похода 1
сок 1
уха@@ 1
Доми@@ 1
ниг@@ 1
нор 1
отро@@ 1
m3 1
гин 1
кора@@ 1
мах 1
обстанов@@ 1
Авре@@ 1
Япон@@ 1
Много@@ 1
трапе@@ 1
чере@@ 1
ys 0.30794269166586036
гравита@@ 1
усло@@ 1
icus 1
венту@@ 1
пункт 1
отряда 1
Бела@@ 1
Нед@@ 1
Сам 1
Сезон 1
приспособ@@ 1
Док@@ 1
Спе@@ 1
назад 1
пресе@@ 1
скоп 1
Ирина 1
противник 1
биографи@@ 1
княже@@ 1
означа@@ 1
Манд@@ 1
метео@@ 1
поне@@ 1
сил 0.8928631063745561
1849 1
Гил@@ 1
Латвия 1
архитектурно 1
вселе@@ 1
горе 1
ограниче@@ 1
бакте@@ 1
фера 1
гимнази@@ 1
избух@@ 1
матри@@ 1
пс 1
ВВС 1
ьора 1
Кава@@ 1
Сарди@@ 1
Спорт 1
колеба@@ 1
пожар@@ 1
ситуа@@ 1
3,@@ 0.5742083102140583
Юта 1
ир@@ 1
бов 1
вонача@@ 1
ежедне@@ 1
ръб@@ 1
Режи@@ 1
блю@@ 1
инг 1
хаме@@ 1
сп 1
101 1
гвардей@@ 1
даже 0.8365527062092953
смо@@ 1
Александра 1
Виде@@ 1
кардинал 1
пуск 1
реаги@@ 1
Академи@@ 1
измен@@ 1
критик 1
мян 1
нападения 1
рион 1
акции 1
клави@@ 1
Сара 1
ост@@ 1
тока 1
Региона@@ 1
анар@@ 1
кварта@@ 1
³ 1
керамика 1
лур@@ 1
предстоя@@ 1
Пру@@ 1
Шлезвиг 1
дизай@@ 1
пин@@ 1
предполага@@ 1
серии 1
Известно 1
Муста@@ 1
Стюарт 1
анек@@ 1
вание 0.7278550019483108
гроз@@ 1
индо@@ 1
писал 1
Пит@@ 1
интегри@@ 1
питания 1
услож@@ 1
Образование 1
ПС 1
подроб@@ 1
1806 1
ледо@@ 1
относ@@ 1
сама 1
Google 1
ну 0.752329146639834
пциг 1
Президент@@ 1
полка 1
рат@@ 1
шар@@ 1
Андреа 1
космоса 1
Me 0.45870731101303197
Станислав 1
to@@ 0.10010860243200033
Сатур@@ 1
мле@@ 1
производители 1
ферен@@ 1
гвай 1
космонав@@ 1
лекате@@ 1
цик@@ 1
des 0.005481357798906241
ir@@ 0.08335326357956592
Аристо@@ 1
Обер@@ 1
Рак@@ 1
духа 1
окончате@@ 1
гаш@@ 1
риан@@ 1
чело 1
Мано@@ 1
дека@@ 1
посещение 1
зно 1
Инте@@ 1
нета 1
рисунки 1
Лиг@@ 1
римско 1
Постепенно 1
предоста@@ 1
либе@@ 1
решено 1
скор@@ 1
Наслед@@ 1
личане 1
непо@@ 1
тев 1
циклопе@@ 1
1854 1
Гюн@@ 1
Мике@@ 1
говори@@ 1
като@@ 1
парамет@@ 1
теории 1
New 0.03782314889697798
дор@@ 1
платформа 1
30@@ 0.5597969677700246
ограничена 1
онер 1
Пир@@ 1
кири@@ 1
оза@@ 1
лум@@ 1
препода@@ 1
противополож@@ 1
редакти@@ 1
затру@@ 1
предварите@@ 1
Мех@@ 1
заболя@@ 1
подполковник 1
пше@@ 1
Аба@@ 1
Бундесли@@ 1
Юрий 1
Ав@@ 1
Специали@@ 1
пети@@ 1
codice 1
опере@@ 1
отчасти 1
Интернет 1
изре@@ 1
склон@@ 1
Бек@@ 1
Ордена 1
гости 1
критику@@ 1
тист 1
вор 1
деб@@ 1
резерва 1
Гун@@ 1
компа@@ 1
образец 1
отправ@@ 1
регент@@ 1
специалист 1
средиземно@@ 1
ru@@ 0.1438599709664759
ставля@@ 1
ансам@@ 1
ауди@@ 1
конструи@@ 1
рован 0.9370803906052981
трав@@ 1
формат@@ 1
ter@@ 0.0838559575716936
Арно@@ 1
Боб@@ 1
Изра@@ 1
Рам@@ 1
Хим@@ 1
глобус 1
джин@@ 1
рови@@ 1
ака@@ 1
жд 1
тическия 1
записан 1
революцио@@ 1
дри 1
буква 1
мед@@ 1
реван@@ 1
Microsoft 0.8996481061674058
ri@@ 0.09505574074620232
Трини@@ 1
Горно@@ 1
Каза@@ 1
били@@ 1
Вернер 1
Средиземно@@ 1
карбо@@ 1
юри 1
1853 1
urus 1
бюдже@@ 1
водоро@@ 1
животно@@ 1
керами@@ 1
наги 1
Ac@@ 0.19557628119814685
Климат 1
шер 1
Юлия 1
мосексу@@ 1
102 1
1857 0.9461481276472012
Микро@@ 1
Птоле@@ 1
рет 1
Без 1
Симе@@ 1
нага 1
пей@@ 1
рад 1
кабинета 1
съд@@ 1
Рос@@ 1
мигран@@ 1
рита 1
убежище 1
философи@@ 1
ограничен 1
равна 1
ур 1
Гол@@ 1
Карта@@ 1
кава 1
санти@@ 1
стана 1
w@@ 0.050106669458440924
Коми@@ 1
Мекленбург 1
зки 1
плана 1
хе 1
ценности 1
опро@@ 1
Ким 1
градата 1
терми@@ 1
Ня@@ 1
комплекса 1
Кампа@@ 1
лак@@ 1
опусто@@ 1
проф@@ 1
Co@@ 0.11524984799842539
Вул@@ 1
литов@@ 1
организма 1
Бълга@@ 1
низацията 1
бод@@ 1
гото@@ 1
офицер@@ 1
терапия 1
un@@ 0.030372096294976593
КНР 1
СП@@ 1
вее 1
наблюдения 1
оре@@ 1
противопостав@@ 1
тес 1
две@@ 1
фата 1
Дрезден 1
бридж 1
гу 0.5920465786024618
хирур@@ 1
принципа 1
co@@ 0.06637490463416504
Тун@@ 1
дон@@ 1
мас@@ 1
мери 1
ници@@ 1
поде@@ 1
дир 1
ким 0.8024990110777788
Александров 1
плати@@ 1
разработка 1
разрушен 1
Евгений 1
ант 1
др. 1
инструмента@@ 1
мигри@@ 1
страх 1
Фун@@ 1
Шампи@@ 1
с.@@ 1
вирту@@ 1
гана 1
мео 1
реформа 1
траге@@ 1
27@@ 0.8670012683643576
префек@@ 1
Капита@@ 1
Юри@@ 1
земно@@ 1
окс 1
Сидни 1
нара@@ 1
Еги@@ 1
Рене@@ 1
Тен@@ 1
Гай@@ 1
Прото@@ 1
Страс@@ 1
запове@@ 1
капиту@@ 1
ърт 1
Дебю@@ 1
1700 1
ob@@ 0.11926875142073301
Джен@@ 1
симпто@@ 1
сал 1
× 0.5186013674904068
Север 1
Фила@@ 1
Ш 1
находки 1
токси@@ 1
Кем@@ 1
сюже@@ 1
Music 0.18083317122185863
подписан 1
постра@@ 1
ar 0.026478273472230397
Хаджи 1
re@@ 0.018873046361424308
Ску@@ 1
декс 1
здраво@@ 1
Кит@@ 1
носители 1
танка 1
корей@@ 1
охрана 1
Гам@@ 1
Месо@@ 1
подчинение 1
inus 1
{ 0.582106864602592
Тим@@ 1
комбини@@ 1
уто 1
генери@@ 1
пиани@@ 1
предприятие 1
Мед@@ 1
затор 1
йор@@ 1
Рей 1
автора 1
мило@@ 1
пост@@ 1
розо@@ 1
bus 0.3763408586931922
Медичи 1
Хро@@ 1
бата@@ 1
прито@@ 1
радо@@ 1
револю@@ 1
реакции 1
Рождество 1
мически 1
установки 1
фара@@ 1
і@@ 1
Отече@@ 1
оценки 1
спуска@@ 1
Бен 1
Украин@@ 1
Бона@@ 1
Кот 1
Сол@@ 1
СУ 1
авиация 1
равно 1
Cr@@ 0.19881154527603095
мас 1
акция 1
игу@@ 1
ликвиди@@ 1
Cor@@ 0.12463438051485103
Th@@ 0.1070784751221798
земе@@ 1
реми@@ 1
Абду@@ 1
Кни@@ 1
Ере@@ 1
дала 1
манитар@@ 1
том 0.10948384664539844
UTC 1
химик 1
Хари@@ 1
Хри@@ 1
дует 1
мп 1
живопис@@ 1
Кораб@@ 1
водосбор@@ 1
оки@@ 1
порта@@ 1
тери 1
цка 1
Киев@@ 1
образно 1
обща@@ 1
Размно@@ 1
Соломо@@ 1
лик@@ 1
Запад 1
диктат@@ 1
Отно@@ 1
шин 1
Архитектура 1
играл 1
иту@@ 1
Дво@@ 1
Леон 1
знал 1
Монако 1
прово@@ 1
Бангладеш 1
накло@@ 1
сег@@ 1
Лек@@ 1
вене@@ 1
пораз@@ 1
3,5 1
наро@@ 1
виз@@ 1
лиса 1
сами 1
Аш@@ 1
КП 1
Кан 1
Мани@@ 1
траги@@ 1
стихотворения 1
Археологи@@ 1
доктри@@ 1
тори@@ 1
фаши@@ 1
Мичи@@ 1
ора@@ 1
чности 1
ed 0.01541328288536028
Богдан 1
Роберт 1
героин@@ 1
сбли@@ 1
стория 1
наказа@@ 1
дал@@ 1
див@@ 1
ограничения 1
течения 1
Основа@@ 1
трево@@ 1
Бати@@ 1
Зак@@ 1
вес 1
ере@@ 1
запаз@@ 1
канц@@ 1
Аги@@ 1
Завър@@ 1
Литера@@ 1
пере@@ 0.10576062169556509
компак@@ 1
концепция 1
кули@@ 1
осново@@ 1
Боло@@ 1
Брат@@ 1
капе@@ 1
писец 1
сериал@@ 1
храни@@ 1
Le@@ 0.08902358797764452
образа 1
чове 1
изоби@@ 1
кура@@ 1
печата@@ 1
Дре@@ 1
Bo@@ 0.13001914018101632
Брю@@ 1
Диего 1
магазин 1
шел@@ 1
зя@@ 1
иро@@ 1
разоча@@ 1
братовче@@ 1
дом@@ 1
условие 1
Яко@@ 1
мун@@ 1
синг 1
Все@@ 1
биография 1
дружества 1
своеобраз@@ 1
1821 1
170 1
метода 1
наказание 1
норве@@ 1
редак@@ 1
тюр@@ 1
Col@@ 0.11985367811862277
Отли@@ 1
кул 1
Плат@@ 1
Пример 1
рево 1
снаряда 1
Кама@@ 1
фести@@ 1
Лип@@ 1
портрет 1
практики 1
Жер@@ 1
виг 1
завое@@ 1
неиз@@ 1
Йохан@@ 1
лял 1
наблюдате@@ 1
толо@@ 1
Леген@@ 1
Франци@@ 1
държан@@ 1
способен 1
Дат@@ 1
заведения 1
осе@@ 1
Жор@@ 1
сю@@ 1
im@@ 0.0617161930072912
Джули@@ 1
връз@@ 1
чувство 1
шотланд@@ 1
Лондон@@ 1
После 0.19622229562132856
почва 1
br@@ 0.06913919684149306
Ов@@ 1
Мно@@ 1
негати@@ 1
тюрк@@ 1
АС@@ 1
академик 1
звукозапис@@ 1
Скан@@ 1
мая 0.332819580967078
пенси@@ 1
хори@@ 1
Вилхе@@ 1
1815 1
ura 0.2046947199444361
In 0.008879908927747789
страции 1
Опреде@@ 1
бу 1
джо@@ 1
метеоро@@ 1
царя 1
Мя@@ 1
фикси@@ 1
цвета 1
Бак@@ 1
Рав@@ 1
моз@@ 1
ниц 1
Sh@@ 0.08104165642458255
1831 1
one 0.019879243656224056
мнения 1
оранже@@ 1
1812 0.9958920864538193
подразделения 1
упа@@ 1
Cal@@ 0.18100727441859482
изобра@@ 1
Mon@@ 0.10264215389580562
Августа 1
диапа@@ 1
мега@@ 1
чук 1
Марина 1
Форт 1
жем 1
28@@ 0.8370269605593105
Кази@@ 1
мож@@ 1
1835 1
нойс 1
сезо@@ 1
цит@@ 1
коали@@ 1
бей@@ 1
боже@@ 1
взаимодействие 1
индиви@@ 1
лога 1
ряд 0.8866067305282606
удовлетво@@ 1
Валерий 1
окси@@ 1
осигу@@ 1
сек 1
1829 1
My 0.3754009021886515
борн 1
венството 1
обикол@@ 1
пите@@ 1
Бене@@ 1
вклю@@ 1
законо@@ 1
тест 1
гвар@@ 1
археоло@@ 1
мач@@ 1
таря 1
ale 0.06592667515401733
da 0.04152296284189579
глаго@@ 1
кю@@ 1
мигра@@ 1
Извест@@ 1
политан@@ 1
Киргиз@@ 1
Фау@@ 1
лодки 1
чила 1
240 1
СО@@ 1
ей@@ 1
знания 1
нинг 1
регу@@ 1
Обо@@ 1
бак@@ 1
насла@@ 1
фект 1
целу@@ 1
оло 1
Куин@@ 1
гарнизон 1
сал@@ 1
строго 1
am 0.0225557619248988
ДНК 1
Образу@@ 1
Пси@@ 1
атия 1
Стри@@ 1
мем@@ 1
прозра@@ 1
равен 1
разрушена 1
eus 0.8011302871344514
езе@@ 1
литера@@ 1
ig@@ 0.09025302801563193
Педро 1
Фернандо 1
крепости 1
тта 1
фонсо 1
хет@@ 1
щер@@ 1
Кара 1
понятие 1
инфра@@ 1
лоя@@ 1
огро@@ 1
перка 1
1855 0.8824220807674426
29@@ 0.8898005521518836
идеологи@@ 1
ними 1
Лите@@ 1
враже@@ 1
инфраструктура 1
мину@@ 1
My@@ 0.44484874312244166
АС 1
Стен@@ 1
лана 1
ядро 1
Сам@@ 1
тили 1
Колорадо 1
Фра@@ 1
горо@@ 1
Карл@@ 1
Мах@@ 1
Сон@@ 1
бара@@ 1
кости 1
менно 1
употреб@@ 1
фрак@@ 1
храните@@ 1
бло 1
знамени@@ 1
субтропи@@ 1
127 1
Рен@@ 1
знаме@@ 1
фаса@@ 1
ирланд@@ 1
адре@@ 1
вай 1
антрополо@@ 1
стадиона 1
статус 1
Mar@@ 0.06370915647413823
Попо@@ 1
фур@@ 1
теку@@ 1
Зай@@ 1
Канди@@ 1
Хру@@ 1
необ@@ 1
фило@@ 1
Атлети@@ 1
Разпростра@@ 1
монаше@@ 1
способности 1
унд 1
ma 0.11163002929814952
Рю@@ 1
разно@@ 1
събити@@ 1
пожа@@ 1
− 0.5031074059012127
1852 0.9243866890813177
лево 1
предше@@ 1
1845 0.992760531720018
it 0.012227816939614205
ографи@@ 1
посве@@ 1
шов 1
баб@@ 1
вуд 1
обвинения 1
1828 1
Съю@@ 1
риана 1
хали@@ 1
Амстер@@ 1
Ебер@@ 1
Сури@@ 1
коне@@ 1
пит 1
Ой@@ 1
Стеф@@ 1
ориенти@@ 1
кве@@ 1
мрамор@@ 1
мюзи@@ 1
Гръ@@ 1
кабинет 1
кум 1
терито@@ 1
ута 1
ССР 1
ит 1
композиции 1
минг 1
матизи@@ 1
репу@@ 1
ког@@ 1
обстре@@ 1
писание 1
стрем@@ 1
отте@@ 1
тив 1
кинс 1
показате@@ 1
ректор 1
Проти@@ 1
Университе@@ 1
еги@@ 1
Африкан@@ 1
Пере@@ 0.9939547193241804
вика@@ 1
лаборатория 1
pi@@ 0.1139717219435779
анге@@ 1
ники 0.3159335945460456
противоречи@@ 1
Гей@@ 1
Пай@@ 1
около@@ 1
мало 1
tu@@ 0.14880634198058326
Звез@@ 1
Скор@@ 1
борът 1
пласти@@ 1
1820 0.8086917442101963
Майк 1
Фести@@ 1
атов 1
бир@@ 1
площа@@ 1
прак@@ 1
различия 1
der 0.0029881557281688483
Цю@@ 1
заседание 1
надписи 1
Загре@@ 1
1837 1
Гур@@ 1
Джузе@@ 1
Фан@@ 1
писанието 1
Закон 1
гей@@ 1
Адми@@ 1
Архан@@ 1
старта 1
дание 1
конкур@@ 1
крите@@ 1
рая 1
Q@@ 0.15091446068267106
геометри@@ 1
историко 1
моди@@ 1
НИ@@ 1
гал@@ 1
машин@@ 1
сана 1
1814 1
Кристо@@ 1
Желез@@ 1
Клуб 1
Поме@@ 1
служил 1
Операция 1
общества 1
ог@@ 1
свето@@ 1
сио 1
счит@@ 1
трудности 1
Импе@@ 1
лете 1
форт 1
1847 0.9502054721511891
STS 1
Ака@@ 1
Бог@@ 1
дзи@@ 1
настав@@ 1
нима@@ 1
проблема 1
Чет@@ 1
дама 1
номера 1
спеди@@ 1
OS 0.5126584293066574
нея@@ 1
1841 1
od@@ 0.12382593779881684
Варшав@@ 1
РП 1
вход@@ 1
предназначен 1
трафи@@ 1
шах 1
152 1
220 1
ску 1
изменения 1
местообита@@ 1
старт 1
опъл@@ 1
секун@@ 1
исто@@ 1
митрополи@@ 1
появи@@ 1
Коре@@ 1
Револю@@ 1
камъ@@ 1
мут 1
Архите@@ 1
Вави@@ 1
Калифорни@@ 1
венециан@@ 1
основание 1
Еге@@ 1
ходи@@ 1
юби@@ 1
te 0.025312416331492907
епископ@@ 1
осно@@ 1
програ@@ 1
враг 1
комите@@ 1
​ 1
Колум@@ 1
похо@@ 1
риск 1
учения 1
J 0.2722261464031507
par@@ 0.0675384368102397
Гот@@ 1
Отде@@ 1
Стади@@ 1
цизма 1
феода@@ 1
ОО@@ 1
Фило@@ 1
мюсюл@@ 1
рациона@@ 1
ing@@ 0.09233038313911884
Челси 1
физик 1
ab@@ 0.035444028592959996
Клу@@ 1
Осе@@ 1
авиа@@ 1
рог 1
CD 0.270163187108687
Библиоте@@ 1
Монте 1
Ще@@ 1
гю@@ 1
шанс 1
International 0.10019321358471572
Марио 1
бог@@ 1
икона 1
дум 1
носец 1
0,5 1
tidae 1
поря@@ 1
осу@@ 1
пил 1
соции@@ 1
увеличе@@ 1
ченко 1
ci@@ 0.11812390825468011
Каспи@@ 1
Кларк 1
Ок@@ 1
как@@ 1
произво@@ 1
Берн@@ 1
Перси@@ 1
Том@@ 1
движ@@ 1
обмен 1
потенциал 1
1851 0.862240046608331
Фак@@ 1
Шей@@ 1
хай 1
Sc@@ 0.25963595753887825
ир 1
робо@@ 1
Праз@@ 1
Авгу@@ 1
Гран 1
принуд@@ 1
Y 0.2742557694687709
Широ@@ 1
бюджет 1
отмен@@ 1
пиро@@ 1
социа@@ 1
дана 1
сче@@ 1
ув@@ 1
шили 1
1844 1
Джейн 1
Транспорт 1
мити@@ 1
оператор 1
птември 1
Z 0.33304607190894503
Участи@@ 1
1846 0.9188447230018126
360 1
губ@@ 1
нидерланд@@ 1
6000 1
адво@@ 1
сборника 1
сбур@@ 1
гит@@ 1
мета 1
провинци@@ 1
Артур 1
убийства 1
лаг 1
приори@@ 1
Занима@@ 1
чести 1
Попу@@ 1
пай@@ 1
равнове@@ 1
цари 1
яние 1
1836 0.9977565600283225
Доктор 1
Ж 1
Пь@@ 1
гова 1
гран@@ 1
ждали 1
опла@@ 1
пласт@@ 1
Дву@@ 1
Лит@@ 1
числения 1
кали 1
обит@@ 1
рой 0.7700756830802143
астеро@@ 1
креп@@ 1
спас@@ 1
Команд@@ 1
анализа 1
катего@@ 1
пространства 1
цен 1
Комитета 1
МО@@ 1
Нил 1
гну@@ 1
факул@@ 1
НР 1
Патрик 1
Юр@@ 1
фактически 1
Live 0.4135849998306255
US@@ 0.30032224177169814
цър@@ 1
Нер@@ 1
Бата@@ 1
Грей@@ 1
гло 1
каса@@ 1
онер@@ 1
ця@@ 1
De@@ 0.09644622327148403
Str@@ 0.11580549704327665
Вор@@ 1
Узбекистан 1
жието 1
начина@@ 1
оте@@ 1
Вати@@ 1
Вет@@ 1
монархи@@ 1
схе@@ 1
туро@@ 1
Тома@@ 1
героя 1
ларов 1
Валентин 1
максимум 1
рополи@@ 1
смет@@ 1
цита@@ 1
ДС 1
постановки 1
ber@@ 0.09271029528863668
механика 1
серий@@ 1
1400 1
конструк@@ 1
ьон@@ 1
Ая@@ 1
Чарли 1
ганд@@ 1
кно@@ 1
ops 0.3808847298320056
ап@@ 1
бизнеса 1
дас 1
прозви@@ 1
1792 1
2500 1
арт 1
наблю@@ 1
чудови@@ 1
готов 1
размера 1
Позна@@ 1
публика@@ 1
стихотво@@ 1
Върхов@@ 1
Сената 1
Тур 1
бои 1
сив@@ 1
Производ@@ 1
Фир@@ 1
компро@@ 1
лим@@ 1
деш 1
пау@@ 1
ями 0.4071852288008613
de@@ 0.04628927042828557
дистан@@ 1
залож@@ 1
патрио@@ 1
писто@@ 1
слов 1
бий@@ 1
океана 1
Надежда 1
площадка 1
постройки 1
снение 1
туберку@@ 1
Клю@@ 1
Лор@@ 1
лице@@ 1
машино@@ 1
рока 1
скорост@@ 1
ГДР 1
лее 1
орна@@ 1
пож@@ 1
репер@@ 1
цет@@ 1
11,@@ 0.87862329303446
Ахмед 1
СВ 1
дили 1
спонсо@@ 1
mo@@ 0.09144916674962336
предска@@ 1
сюжета 1
мане 1
омъ@@ 1
4,5 1
Tour 0.1929331559048348
Плу@@ 1
берг@@ 1
демонстра@@ 1
програм@@ 1
Br@@ 0.07342254223887171
Шпи@@ 1
вели 1
верси@@ 1
страда@@ 1
чай 1
гарни@@ 1
кона 1
предате@@ 1
Анастасия 1
гей 1
нера@@ 1
Волга 1
Жана 1
архе@@ 1
завеща@@ 1
чино 1
шу 1
odon 1
Бруно 1
Мало@@ 1
Рок@@ 1
ад 1
кафе 1
ряд@@ 1
Яков 1
набе@@ 1
Поч@@ 1
национал 1
представления 1
тун@@ 1
eri 0.39424481268105055
ra 0.06644263364739666
Аля@@ 1
Бога 1
Хайн@@ 1
лорд 1
снато 1
могли 1
монумента@@ 1
музикан@@ 1
сь@@ 1
En@@ 0.09381495491330305
Алекс 1
Рене 1
Турк@@ 1
етна@@ 1
конфи@@ 1
1839 0.9699635803355908
1843 0.9891402089094261
костю@@ 1
лона 1
Ави@@ 1
поколения 1
Мара@@ 1
боя@@ 1
календар@@ 1
ходя@@ 1
мак 1
нус 1
ово@@ 1
пробле@@ 1
шести 1
ситуации 1
тизма 1
трам@@ 1
Гранд 1
коно@@ 1
спла@@ 1
учение 1
Hy@@ 0.34741118302476426
per@@ 0.07081102155907004
носите@@ 1
Обу@@ 1
дисцип@@ 1
Андре 1
облада@@ 1
фундамента@@ 1
Иванова 1
обсервато@@ 1
25@@ 0.4662668844065007
Ex@@ 0.10418140712856952
Сва@@ 1
психиат@@ 1
106 1
вера 1
медици@@ 1
СК 1
жили 1
ся 1
Боле@@ 1
видео@@ 1
рона 1
Камен@@ 1
снима@@ 1
Зан@@ 1
КП@@ 1
пун@@ 1
зал 1
миниат@@ 1
атмосфер@@ 1
бараб@@ 1
оказа@@ 1
фарма@@ 1
акт@@ 1
артист 1
мово 1
сценари@@ 1
280 1
Шве@@ 1
проро@@ 1
цилиндри@@ 1
onidae 1
Спар@@ 1
ату 1
опо@@ 1
серви@@ 1
Поло@@ 1
Самар@@ 1
Сор@@ 1
минимум 1
нака@@ 1
неа@@ 1
тексти@@ 1
хин 1
шила 1
Чин@@ 1
вос@@ 0.6263339788919704
заим@@ 1
построе@@ 1
псевдо@@ 1
opus 1
корен@@ 1
боеприпа@@ 1
поклон@@ 1
равнин@@ 1
сков@@ 1
Награ@@ 1
дола@@ 1
шал 1
One 0.11140477638813565
Сме@@ 1
Фели@@ 1
резиден@@ 1
Освобо@@ 1
м. 1
партий@@ 1
сман 1
00@@ 0.4819153967930673
Джан@@ 1
Музей 1
майсто@@ 1
шина 1
гломе@@ 1
завода 1
прите@@ 1
адрес 1
баскетбо@@ 1
вражде@@ 1
завод@@ 1
Феликс 1
дето 1
жити@@ 1
Цер@@ 1
кология 1
Вли@@ 1
автоном@@ 1
поправ@@ 1
1818 1
Am@@ 0.09480282798977187
Кау@@ 1
етро 1
za 0.13456375426860392
Копен@@ 1
Миро@@ 1
атив@@ 1
величина 1
помещение 1
чили 1
жества 1
1832 0.9467593931321034
Per@@ 0.09887808536640157
Бос@@ 1
Стандар@@ 1
Стив 1
Ленинград 1
Орден 1
наличие 1
освобождение 1
покой@@ 1
1838 0.9200694602778641
qu@@ 0.06176970177720125
зве@@ 1
сезон@@ 1
скре@@ 1
12,@@ 0.9631587070426207
1834 0.9596549170134493
Евре@@ 1
13,@@ 0.9225665598575704
зий 1
талант 1
vi@@ 0.09409833826702446
Дай@@ 1
департамента 1
резул@@ 1
Рад@@ 1
шахмат@@ 1
шести@@ 1
анто@@ 1
мари@@ 1
чате@@ 1
Di@@ 0.08889529247432526
Ски@@ 1
кий 0.6073812947902848
прекрат@@ 1
формули@@ 1
радиа@@ 1
car@@ 0.0725600702658216
Как@@ 1
лю 0.8114862333103909
тии 0.9468351483657533
трофе@@ 1
1.@@ 0.23254360768235355
дента 1
стал 0.16350306813427498
тинген 1
богосло@@ 1
ила 1
каните 1
.com 0.48783426021830484
Qu@@ 0.10173523631749884
ch 0.059835705363610305
ov@@ 0.12553980447785362
Браун@@ 1
Тал@@ 1
вед 1
пира@@ 1
схо@@ 1
135 1
750 1
ep@@ 0.11819022639769955
безо@@ 1
мбу@@ 1
полуострова 1
1810 1
Вюр@@ 1
бивши@@ 1
института 1
манипу@@ 1
справедливо@@ 1
анато@@ 1
мона 1
сив 1
стор@@ 1
Дж 1
патру@@ 1
34,@@ 1
Еванге@@ 1
Юн@@ 1
пано@@ 1
столи@@ 1
определение 1
оче@@ 1
ресур@@ 1
шек 1
1793 1
Настоя@@ 1
дубли@@ 1
рим 1
футбола 1
дки 1
члена 1
янов 1
108 1
вести@@ 1
публики 1
Леонар@@ 1
отло@@ 1
Таджи@@ 1
гени@@ 1
мид 1
ова@@ 1
пара 1
1842 0.8903909889897246
w 0.09916520221308048
жила 1
кала 1
квали@@ 1
модифици@@ 1
положения 1
камер@@ 1
оре 1
ula 0.4199175302169868
ВП 1
Пуш@@ 1
Тимо@@ 1
маршрут 1
фюр@@ 1
Смир@@ 1
вей 1
дея 1
подробно 1
прони@@ 1
Характеристи@@ 1
Sp@@ 0.11940158699196464
архиманд@@ 1
благодар@@ 1
зате@@ 1
индуст@@ 1
нила 1
поези@@ 1
si@@ 0.08448177794671152
Боб 1
Клин@@ 1
Норман@@ 1
Сера@@ 1
дник 1
гимнасти@@ 1
статисти@@ 1
ционе@@ 1
1825 1
кампании 1
предлага@@ 1
сали@@ 1
1100 1
вземан@@ 1
едино@@ 1
мба 1
спект 1
яния 1
All 0.10103201741475346
didae 1
ax 0.5067633610605412
per 0.08050726022151085
Порт 1
впечатление 1
кош@@ 1
лайн 1
1822 1
pr@@ 0.06617109482710896
Хара@@ 1
кономиче@@ 1
н. 0.8986127770884299
резултат@@ 1
св@@ 1
характерно 1
Ph@@ 0.1895928657613428
con@@ 0.05032771551971552
Ди 1
среди@@ 1
190 1
кой@@ 1
конден@@ 1
случи@@ 1
францу@@ 1
Шер@@ 1
дун 1
изобретате@@ 1
педагог 1
финансов 1
флаг 1
Life 0.21497573487005484
автобиографи@@ 1
навига@@ 1
регистра@@ 1
1813 0.9860312482425074
други@@ 1
описан 1
Ли 1
отделения 1
провин@@ 1
eg@@ 0.07894476224607833
неприя@@ 1
показатели 1
прокура@@ 1
пропове@@ 1
шахмати@@ 1
It 0.017074525176524507
апо@@ 1
103 1
Дипло@@ 1
Католиче@@ 1
Сино@@ 1
Яро@@ 1
одрин@@ 1
материал@@ 1
320 1
Клау@@ 1
Погре@@ 1
Соб@@ 1
ation 0.015652505353193662
Богда@@ 1
Неа@@ 1
ad 0.07741845563624963
Реда@@ 1
se 0.006944073797171654
бр 1
пера 1
80@@ 0.7881499651252186
АК 1
Крон@@ 1
гради 1
жин@@ 1
отдела 1
алгори@@ 1
10,@@ 0.8548470739295674
Пя@@ 1
Стат@@ 1
вои@@ 1
дало 1
аналоги@@ 1
вез@@ 1
ношение 1
Кун@@ 1
мотор@@ 1
наби@@ 1
Group 0.15037654116625213
Граф 1
Доро@@ 1
Маргарет 1
Медицин@@ 1
Хиро@@ 1
голове 1
104 1
que 0.005204122005161137
затруд@@ 1
Mus@@ 0.20218167591170816
работник 1
Прак@@ 1
Принци@@ 1
жия 1
фикации 1
Дома@@ 1
Рон@@ 1
Сухо@@ 1
сат@@ 1
Секре@@ 1
вас 1
ная 0.0712492153848805
us@@ 0.06286420129063715
Вита@@ 1
зрение 1
примити@@ 1
стон 1
V. 0.423883944869538
Франси@@ 1
ниста 1
комик@@ 1
звука 1
зя 1
Billboard 0.3342483168599137
заги@@ 1
очевидно 1
Академия 1
Робер@@ 1
Хали@@ 1
гава 1
припис@@ 1
скоп@@ 1
направления 1
степени 0.7381866623018171
тетра@@ 1
Les 0.035118494821340794
Аг@@ 1
пусне 1
ate 0.023066731803429295
Институт 1
Сем@@ 1
внезапно 1
рот 1
сток 1
j 0.19298713624583824
Урал 1
вик 1
гда@@ 1
дворцо@@ 1
нио 1
сюл@@ 1
1789 1
ni@@ 0.097390075239069
ve 0.022380856811763435
саунд@@ 1
стието 1
ститу@@ 1
толе@@ 1
Бернар@@ 1
блестя@@ 1
мали 1
махта 1
стери@@ 1
учението 1
Мали@@ 1
зян 1
1795 1
кнове@@ 1
норвеж@@ 1
чно@@ 1
orum 0.8303805490509983
v 0.11313545575427607
предложения 1
109 1
Black 0.17830601733923118
ens 0.044672182585663384
дли 1
направил 1
рила 1
35,@@ 1
Can@@ 0.2140474832244732
семит@@ 1
трак@@ 1
ждал 1
строена 1
търсен@@ 1
язвим 1
1803 1
лоша@@ 1
нили 1
обяс@@ 1
флаг@@ 1
имение 1
лера 1
обвиня@@ 1
Гера@@ 1
Комплек@@ 1
Осно@@ 1
веща@@ 1
нарушения 1
los@@ 0.35998859385530324
комитета 1
tus 0.5765363546613776
заведение 1
ствола 1
128 1
Румъ@@ 1
нем 0.5663218087764597
скрип@@ 1
чуждестран@@ 1
1797 1
º 0.5700080963879114
лоу 1
чев@@ 1
шир 1
ьой 1
Ии@@ 1
Люд@@ 1
Торонто 1
филосо@@ 1
НК 1
конферен@@ 1
привър@@ 1
спекти@@ 1
Se@@ 0.07544100706408896
джия 1
кала@@ 1
пропорциона@@ 1
църк@@ 1
ca 0.120679299838599
Участник 1
греб@@ 1
дене@@ 1
мец 1
увеличение 1
Рона@@ 1
даря 1
риз@@ 1
хина 1
230 1
Орле@@ 1
Структура 1
предприя@@ 1
SS 0.3174859187162511
Ибра@@ 1
кандид@@ 1
транспорта 1
1790 1
era 0.039926063865625826
oth@@ 0.20960637357308856
tic@@ 0.19893164293616403
вален@@ 1
инжен@@ 1
рами@@ 1
si 0.09574084394538583
ha 0.06515159945574119
Нат@@ 1
авиацион@@ 1
кода 1
лири@@ 1
плаз@@ 1
зака@@ 1
юрис@@ 1
lu@@ 0.12732328903227308
литур@@ 1
онов 1
преду@@ 1
пур 1
регла@@ 1
чал 1
впа@@ 1
москов@@ 1
1819 1
лекси@@ 1
родом 1
руд@@ 1
спери@@ 1
Люб@@ 1
ПК 1
107 1
yc@@ 0.3301529300461095
Корпу@@ 1
англо@@ 1
дуар@@ 1
Rock 0.2542228619311277
глю@@ 1
друго@@ 1
обору@@ 1
ον 1
имен@@ 1
обще 1
14,@@ 0.8876005875317615
Вид 1
Константино@@ 1
кине@@ 1
участъ@@ 1
Моно@@ 1
жден 1
параз@@ 1
1833 0.8864833765729019
ach@@ 0.07437334066186382
Император@@ 1
вариа@@ 1
Хин@@ 1
поче@@ 1
1,2 1
1805 1
Бара@@ 1
Боро@@ 1
каби@@ 1
Соло@@ 1
руб@@ 1
int 0.6470401106107626
Бенеди@@ 1
Мемо@@ 1
кистан 1
построено 1
анг@@ 1
дано 1
дино 1
позити@@ 1
пъти@@ 1
Un@@ 0.10802584666489828
Бун@@ 1
Жа@@ 1
диск@@ 1
мезо@@ 1
ске 0.49788001243627167
ie 0.032454149588179756
ter 0.031227480047634867
Анато@@ 1
Бет@@ 1
имуще@@ 1
продукции 1
укрепления 1
хоре@@ 1
абстрак@@ 1
лодка 1
орто@@ 1
Wrestling 0.6357458857764066
age 0.026526460685941868
Дур@@ 1
Яку@@ 1
док 1
305 1
Сели@@ 1
канди@@ 1
проведена 1
термина@@ 1
паро@@ 1
строен@@ 1
II@@ 0.9463223492274696
Чай@@ 1
веще@@ 1
пр@@ 1
ii 0.7199991366453449
дай@@ 1
звуко@@ 1
Java 0.9793721011207016
Mo@@ 0.10083301900532134
Играл 1
Саксо@@ 1
верто@@ 1
лод@@ 1
прогно@@ 1
цова 1
oma 0.2659356289438834
Хат@@ 1
гражда@@ 1
сети 1
уру 1
36@@ 0.9277058410673961
або@@ 1
гала 1
монта@@ 1
нар. 1
науча@@ 1
работка 1
религии 1
ринга 1
ская 0.08304845057887995
1808 1
компонент 1
стали 0.4384754637091776
210 1
Роди@@ 1
варианта 1
венство 1
доста@@ 1
методи@@ 1
пнев@@ 1
gr@@ 0.05726108264082658
Te@@ 0.13651634203285817
122 1
Бло@@ 1
зархи@@ 1
служеб@@ 1
ine 0.03861080804710259
1816 0.9630519738165774
ожесто@@ 1
сест@@ 1
1799 1
Патриар@@ 1
Лука@@ 1
гун 1
нера 1
Комите@@ 1
композитора 1
лане 1
понятия 1
правед@@ 1
рез 1
pe@@ 0.10748859326637106
вокали@@ 1
стат@@ 1
1750 1
гра 1
перифе@@ 1
Филип@@ 1
диска 1
ком 0.18214031455624902
пород@@ 1
40@@ 0.6271858707724695
Ква@@ 1
1796 1
Лод@@ 1
получили 1
стя@@ 1
Po@@ 0.1268038031265376
Закон@@ 1
СС@@ 1
ак 1
1817 1
Ne@@ 0.09560702261371708
отказа@@ 1
патро@@ 1
покло@@ 1
34@@ 0.8960058012845306
ore 0.11057499909095213
аранжи@@ 1
губерния 1
зап@@ 1
запас 1
Ага@@ 1
Ази@@ 1
уи 1
tis 0.2578040864800891
конструкции 1
синг@@ 1
спешно 1
приве@@ 1
Куз@@ 1
Моги@@ 1
Постоян@@ 1
115 1
нарушение 1
1826 0.9428356189940338
Скоро@@ 1
заяв@@ 1
сприн@@ 1
кономи@@ 1
сол@@ 1
флек@@ 1
EP 0.3131851523527244
bo@@ 0.06731254811903944
алге@@ 1
върх@@ 1
Аз@@ 1
лато 1
бара 1
нъж 1
свин@@ 1
фина 1
щу@@ 1
1801 0.9713422543680698
Q 0.3175090688584186
Люби@@ 1
непри@@ 1
отча@@ 1
Apple 0.6434098895289377
so@@ 0.09390918697070466
библиотеки 1
венти@@ 1
колеп@@ 1
пуска@@ 1
1807 1
och@@ 0.24237668381167923
рах 0.5680773064597764
ers 0.019536710310056837
Брен@@ 1
РК 1
назначение 1
сур@@ 1
щие 0.6951257989758528
2.@@ 0.20806494141859658
Бое@@ 1
Пие@@ 1
Шах@@ 1
рецен@@ 1
Or@@ 0.09501885092921943
Вя@@ 1
вит 1
лаборато@@ 1
убед@@ 1
eb@@ 0.07266057012333287
англ 1
заключ@@ 1
Православ@@ 1
работо@@ 1
ne@@ 0.07653577786866185
Пото@@ 1
Пробле@@ 1
полуфинал 1
сирий@@ 1
35@@ 0.6544196453103829
Кап@@ 1
звания 1
насеком@@ 1
слова@@ 1
султана 1
твер@@ 1
Кве@@ 1
Чан@@ 1
Турни@@ 1
нане@@ 1
проб@@ 1
AS@@ 0.23971086810361994
um@@ 0.047634359543689254
Църк@@ 1
Шам@@ 1
характера 1
260 1
tra 0.1781939797017342
ентъ@@ 1
климата 1
рован@@ 1
Гуан@@ 1
Мун@@ 1
хам 1
стройка 1
550 1
Entertainment 0.35733047381069627
Книга 1
системати@@ 1
1635 1
Gr@@ 0.07441555447798008
Я 0.6862934349469247
баси@@ 1
фун@@ 1
чек 1
яро@@ 1
Алта@@ 1
р. 1
1648 1
650 1
ni 0.11033432670417491
Воро@@ 1
Петер@@ 1
сценария 1
цев@@ 1
цк 1
драматур@@ 1
новременно 1
разреша@@ 1
Соко@@ 1
Тури@@ 1
направи@@ 1
1804 1
Родри@@ 1
ору@@ 1
учителя 1
ut@@ 0.07561697221870368
назем@@ 1
подразделение 1
рое 1
ура@@ 1
ях 0.4436179773235057
126 1
блока@@ 1
гуа 1
кля@@ 1
минима@@ 1
ans 0.03177273357582379
omys 1
паке@@ 1
und 0.002797058338245216
Зу@@ 1
гъла 1
куку@@ 1
Денис 1
бс 1
рент@@ 1
1794 1
кури@@ 1
270 1
новение 1
Cyprin@@ 1
yr@@ 0.22872922120396294
физ@@ 1
ent@@ 0.03838621009548337
io 0.11558878201429196
МиГ 1
Плани@@ 1
командира 1
ското@@ 1
Яр@@ 1
фабрики 1
ei 0.17670242547675685
Бед@@ 1
Вера 1
удостоена 1
кардина@@ 1
курса 1
330 1
380 1
Благове@@ 1
ведом@@ 1
дизе@@ 1
ator 0.07997475432842269
Лев 1
бес@@ 1
графо@@ 1
ото@@ 1
пада@@ 1
Pr@@ 0.08949541035365394
ka 0.07867066286183609
излож@@ 1
раста@@ 1
1791 1
sp@@ 0.06018743984440725
Пове@@ 1
иначе 1
цвет 1
123 1
cus 0.6373755400745892
Виз@@ 1
квалифици@@ 1
стеро@@ 1
yl@@ 0.12973664430281312
абсолютно 1
gi@@ 0.10228969630539542
Дуна@@ 1
клон@@ 1
блей@@ 1
риф@@ 1
слави@@ 1
ver@@ 0.022271588461360806
ксе@@ 1
Мона@@ 1
бок@@ 1
бус 1
плоско@@ 1
разу@@ 1
раке@@ 1
111 1
ati@@ 0.082483121837339
Арханге@@ 1
Литератур@@ 1
риса 1
тение 1
Le 0.0156248612954195
Татар@@ 1
кви@@ 1
натура@@ 1
танк 1
mar@@ 0.0602671184783299
Мир 1
брата 1
фу 1
1772 1
детекти@@ 1
макро@@ 1
пару@@ 1
поражения 1
хова 1
Администра@@ 1
азбу@@ 1
имущество 1
предо@@ 1
щу 1
Име@@ 1
1824 0.8720869550733074
33@@ 0.7955848203743077
à 0.004081929410817232
емигри@@ 1
стой 1
16@@ 0.38279382564323156
uli@@ 0.36386064756597486
Вся@@ 1
СА@@ 1
Университет 1
чества 1
1680 1
Цу@@ 1
раса 1
WWF 1
Оцен@@ 1
ате 1
бка 1
1576 1
1798 1
Дро@@ 1
Tro@@ 0.258825952275315
гай@@ 1
кевич 1
унд@@ 1
15@@ 0.43468267484626605
аудито@@ 1
блъ@@ 1
корпу@@ 1
кун@@ 1
мура 1
юни@@ 1
.-@@ 1
1634 1
1660 1
De 0.06442153605822991
Micro@@ 0.8650547065955342
Нов@@ 1
зания 1
отказ 1
1827 0.9398952105621723
буд@@ 1
10.@@ 0.3954700147250853
av@@ 0.057368396922387085
Фай@@ 1
Ход@@ 1
материа@@ 1
множе@@ 1
станови@@ 1
уточ@@ 1
цина 1
1823 0.9559219024451042
As@@ 0.10268387740711118
XXI 1
Щер@@ 1
дет 1
целя@@ 1
112 1
Жанейро 1
зага@@ 1
зун@@ 1
уса 1
Ино@@ 1
Усп@@ 1
кипа@@ 1
ют 0.12047894642399105
15,@@ 0.9128718443202585
1640 1
авари@@ 1
Pro@@ 0.09910039996138528
1688 1
Кън@@ 1
ист 1
строен 1
No 0.1542630858457986
Проте@@ 1
дела@@ 0.8207127092898182
мотив 1
1570 1
203 1
37@@ 0.8446681415917852
Джер@@ 1
Худо@@ 1
ini 0.10699649355532014
ест 1
175 1
боро@@ 1
ционер@@ 1
1780 1
Сици@@ 1
герб 1
закреп@@ 1
шот@@ 1
3D 0.6117035948260853
Доне@@ 1
монго@@ 1
8000 1
Оси@@ 1
Патри@@ 1
1530 1
Ser@@ 0.13825951888983753
спир@@ 1
CO@@ 0.3196412181058137
Арка@@ 1
Сво@@ 1
добровол@@ 1
недвижи@@ 1
сочи@@ 1
челю@@ 1
oides 0.8323164881352999
Монре@@ 1
Company 0.11377758035499821
Сбор@@ 1
дискри@@ 1
логии 0.6522103115294815
Tri@@ 0.12046155004503838
1606 1
жете 1
ons 0.04099121732867173
подоби@@ 1
теля 1
50@@ 0.4606396713528794
дизайна 1
пала 1
Каби@@ 1
влияния 1
дере@@ 1
несота 1
чет 1
124 1
1763 1
наход@@ 1
нидер@@ 1
Go@@ 0.14385024190303955
Тихоокеан@@ 1
бери 1
цито@@ 1
1676 1
1802 0.9472060655676505
ani 0.1152841203173603
no 0.017763238695239617
Коз@@ 1
лакти@@ 1
7,5 1
ides 0.1233999722074191
окла@@ 1
AC 0.27460419151547355
mon@@ 0.052917305693622185
РО 1
матът 1
нести 1
сюжет 1
1809 0.9104934099493464
do 0.03965054193289987
Абу 1
скопи@@ 1
aria 0.1694110668888642
aur@@ 0.28989074284377553
Франко 1
албу@@ 1
структур@@ 1
хромо@@ 1
22@@ 0.7500768358290478
няк 1
разуме@@ 1
риат 1
12.@@ 0.5075154014239323
СО 1
конфлик@@ 1
лектри@@ 1
словно 1
ne 0.025236836825833837
шер@@ 1
114 1
Знач@@ 1
арми@@ 1
Чудо@@ 1
вян@@ 1
лабора@@ 1
соб@@ 0.6088857494682912
Sol@@ 0.1359709126263295
военноплен@@ 1
лков 1
117 1
17,@@ 0.880151371976709
em 0.07861839922661404
1650 1
tor@@ 0.08436821590094848
реконструи@@ 1
яваща 1
1623 1
osa 0.1625396150207429
грав@@ 1
кисе@@ 1
указа@@ 1
Развитие 1
зв@@ 1
интен@@ 1
модели@@ 1
флоти@@ 1
Cl@@ 0.17802143267657786
com@@ 0.05910976585405311
oni 0.28198977655470503
Аф@@ 1
антро@@ 1
кта 1
1618 1
КО@@ 1
мад 1
ству@@ 0.7464131952892796
фору@@ 1
Война 1
измене@@ 1
македо@@ 1
мероприятия 1
модификации 1
Михай@@ 1
соз@@ 1
лович 1
пави@@ 1
понен@@ 1
хле@@ 1
чат@@ 0.7878111153190612
vir@@ 0.28651884982333675
Ита@@ 1
Цин@@ 1
баскет@@ 1
1740 1
Li@@ 0.10230211226343833
КА 1
рино 1
→ 0.9344330342578128
School 0.045256173435530934
Vi@@ 0.1759977525831268
ich@@ 0.13083292718232606
РС@@ 1
зов@@ 1
мага@@ 1
пох@@ 1
mag@@ 0.16244426186231573
Категория 1
хирурги@@ 1
цифро@@ 1
ps 0.10104640828913442
Албу@@ 1
Герман 1
Партия 1
1787 1
1770 1
38@@ 0.7810313415189654
RA@@ 0.33290975958638724
Ro@@ 0.08611357741081246
ho@@ 0.08689770867731224
ава@@ 1
коме@@ 1
зена 1
WTA 1
лям 1
неж@@ 1
Time 0.2657366886331509
Тара@@ 1
бря@@ 1
мора 1
Com@@ 0.08783802087977284
ai 0.07360851036821046
phus 1
Порт@@ 1
жило 1
наимено@@ 1
Конструкция 1
Средновекови@@ 1
дзе 1
персонаж 1
татар@@ 1
Lo@@ 0.10943585206262768
Леонид 1
подразде@@ 1
конференции 1
туризма 1
1610 1
ius 0.29926425207291935
Виш@@ 1
док@@ 1
Ge@@ 0.0867665461913457
Ту 1
барон 1
сьор 1
1625 1
Pi@@ 0.12834452325296206
Люксем@@ 1
придвор@@ 1
филд 1
Сент 1
проло@@ 1
1632 1
1774 1
cin@@ 0.22126247662572926
Квин@@ 1
МИ@@ 1
порти@@ 1
ј@@ 1
1768 1
yn@@ 0.18614541330405204
символизи@@ 1
щал 1
щате@@ 1
MS 0.3483968676408473
Австра@@ 1
герои@@ 1
дта 1
капа@@ 1
соли 1
шед@@ 1
16,@@ 0.869844933640719
El@@ 0.062257984197776485
No@@ 0.19011140807850876
Млад@@ 1
експлоата@@ 1
потока 1
рили 1
Ч 1
ада@@ 1
воз@@ 0.19650782252906598
нена@@ 1
явно 1
7000 1
Фернан@@ 1
дера 1
каде@@ 1
пр.н@@ 1
Калу@@ 1
разработки 1
ский 0.045405567316005764
слово 1
1560 1
Be@@ 0.05200484318995725
all@@ 0.07984091082137924
Глу@@ 1
вме@@ 1
г.@@ 1
нужно 1
СТ@@ 1
вице 1
забо@@ 1
заседа@@ 1
пише@@ 1
inc@@ 0.10977335997396147
man 0.02335080766663756
1776 1
Архе@@ 1
Лове@@ 1
секции 1
винов@@ 1
гля@@ 1
лесо@@ 1
пие 1
Око@@ 1
дара 1
1775 1
1811 0.8768503333981353
Fr@@ 0.09990068204323702
критики 1
надеж@@ 1
рь@@ 1
спер@@ 1
25,@@ 1
480 1
alus 1
cor@@ 0.07400773227748944
del 0.006241263613282528
Леон@@ 1
ждан@@ 1
кварти@@ 1
1616 1
€ 0.6005054134612985
For@@ 0.08135848305676893
Азиат@@ 1
бай 1
дя 1
ина 1
кологи@@ 1
Илин@@ 1
преимуще@@ 1
стояние 1
Отец 1
стере@@ 1
форм@@ 1
Empire 0.164629201684737
пор 0.8884622676873286
язви@@ 1
ярко 1
1630 1
Каре@@ 1
глад@@ 1
площад@@ 1
Соф@@ 1
Сур@@ 1
жу 1
лито@@ 1
мара@@ 1
à@@ 1
казах@@ 1
Пазар@@ 1
казал 1
кав@@ 1
Ag@@ 0.16338036762258776
ell@@ 0.08116468908458581
un 0.003747734369734897
Й 1
велосипе@@ 1
врага 1
1701 1
ИК 1
Петрович 1
низа@@ 1
шеб@@ 1
Ря@@ 1
нете 1
ваго@@ 1
покуп@@ 1
удосто@@ 1
фик@@ 1
SO@@ 0.501472046443149
UN@@ 0.30325774079048157
город 0.2638597342690509
дз@@ 1
зора 1
American 0.027903968530181584
кет@@ 1
майстор@@ 1
с. 1
121 1
1598 1
1788 1
osus 1
алгорит@@ 1
лечеб@@ 1
банк 1
шал@@ 1
1627 1
1683 1
IBM 0.8618088539422527
писания 1
удара 1
щината 1
NO@@ 0.5010452067646499
Tur@@ 0.1354701600891906
ref 0.40443100432789847
Препода@@ 1
Уру@@ 1
водохрани@@ 1
кур 1
повтор@@ 1
1651 1
rom@@ 0.16904671555649864
Гаври@@ 1
Законодате@@ 1
ПО 1
фамилии 1
1540 1
Бах@@ 1
РНК 1
порт@@ 1
разо@@ 1
цикло@@ 1
ari@@ 0.10835908784886145
Елиза@@ 1
мпе@@ 1
sus 0.034311874150354596
Зар@@ 1
изменение 1
Дит@@ 1
вмест@@ 1
por@@ 0.10331358168814547
Леона@@ 1
комендан@@ 1
никова 1
характеристи@@ 1
шенко 1
lar@@ 0.16079807262822754
Времен@@ 1
Институ@@ 1
Рат@@ 1
заба@@ 1
облож@@ 1
тони 1
СК@@ 1
оно@@ 1
1667 1
XX@@ 1
Мекси@@ 1
балти@@ 1
метро 1
118 1
1450 1
1567 1
Hot 0.30561226842219835
неш@@ 1
ISO 0.9824865826677099
sch@@ 0.035633662861685365
ath@@ 0.11221991780251077
город@@ 0.5063034251963899
избира@@ 1
кла 1
ответ@@ 0.7617635707891911
сад@@ 1
сина@@ 1
1638 1
Eth@@ 0.42738465184725943
ent 0.017453235517935047
Комп@@ 1
допу@@ 1
достиг 1
1704 1
Mark 0.1644222499204606
Брази@@ 1
Яна 1
зоо@@ 1
нормати@@ 1
чии 1
Of 0.26361568110090955
Как 0.5007763871349156
агро@@ 1
фора 1
хват@@ 1
5,5 1
Дем@@ 1
ist@@ 0.08631038118725777
вое 0.35821124213674066
женит@@ 1
привет@@ 1
тряб@@ 1
me 0.055070105021356244
аре 1
ибн 1
присво@@ 1
1550 1
du@@ 0.10532651290987208
Иг@@ 1
ежегод@@ 1
1622 1
SI 0.9537133741452563
АН@@ 1
атом 0.8877837423828572
сцена@@ 1
1605 1
вията 1
топли@@ 1
шева 1
1526 1
1631 1
1665 1
ce 0.02443364317823805
ou@@ 0.05245554499270446
tes 0.04503776211161511
гона 1
рации 1
129 1
155 1
Disney 0.3348372503980386
MHz 1
втор@@ 1
въгли@@ 1
ландшаф@@ 1
маро@@ 1
офице@@ 1
финиши@@ 1
шат@@ 1
IM@@ 0.3662269377731616
ренно 1
цате@@ 1
1585 1
1619 1
tri@@ 0.07406690885904993
неното 1
вес@@ 1
достовер@@ 1
н.@@ 1
1783 1
19,@@ 1
Network 0.3208105786648906
are 0.007709288733320919
Герой 1
Неф@@ 1
але 1
енко 1
надле@@ 1
русали@@ 1
1636 1
col@@ 0.06249652840578449
é 0.01609935293714964
Ет@@ 1
Шарло@@ 1
вещи 1
дром 1
FI@@ 0.37110731604636576
Севасто@@ 1
рун 1
ic 0.035457206059868275
Павлович 1
пина 1
ропо@@ 1
1568 1
Анг@@ 1
лицензи@@ 1
лси 1
луч@@ 0.7067367554024955
свръ@@ 1
стани@@ 1
nig@@ 0.8493732809572763
Афа@@ 1
Кав@@ 1
1620 1
1668 1
IN@@ 0.2977412673189513
do@@ 0.09364486162172697
Су 1
заменя@@ 1
мь@@ 1
1711 1
АП 1
1666 1
du 0.004741931822200764
ion 0.10018850529128388
атлети@@ 1
плението 1
1785 1
Михайлов@@ 1
бере@@ 0.49886375298484986
войско@@ 1
градо@@ 1
графии 1
джик 1
кантон 1
мам 1
рово@@ 0.822292105389006
1559 1
ran@@ 0.09333573091589849
Саха@@ 1
зачислен 1
старин@@ 1
1569 1
1621 1
1661 1
Cich@@ 1
odon@@ 1
грар@@ 1
них 0.14207624336959213
IP 0.4994770508749861
ara 0.07416988593824708
sh@@ 0.033277149498232704
жим 1
пу 0.8922037632450135
сну@@ 1
спорт@@ 1
1612 1
1670 1
yg@@ 0.4641721475598545
0.@@ 0.1371159532535649
1595 1
Linux 0.7743486473842577
ola 0.16181774969854157
дюй@@ 1
зара@@ 1
преки 1
Олег 1
образо@@ 0.5737321523683772
фео@@ 1
1250 1
Acro@@ 1
Mal@@ 0.07572365727756764
бомбардиров@@ 1
герба 1
mac@@ 0.35174607601036534
базо@@ 1
убил 1
1547 1
18,@@ 0.9092764709316074
AR@@ 0.20879696749635646
se@@ 0.036639035707263554
Ленинград@@ 1
лауреат 1
39@@ 0.7622662317964795
Sch@@ 0.02829569936004809
cop@@ 0.22509597712560928
ity 0.03384129062053118
ys@@ 0.14142512529459822
Южно 1
лам 1
лън@@ 1
1536 1
1715 1
20,@@ 0.9776172723547869
Ap@@ 0.16471058880828324
Иванов@@ 1
Обра@@ 1
листо@@ 1
1,6 1
1572 1
6,5 1
Ca@@ 0.36614830361851963
Man 0.1412734406938748
α 0.2797900814468928
Минск 1
ПВО 1
дъщер@@ 1
яйце@@ 1
′ 1
Bi@@ 0.07904098741420536
Fe@@ 0.15314310317235824
man@@ 0.05422675208595664
re 0.03743394727351463
вир@@ 1
яну@@ 1
1626 1
1686 1
Сталин@@ 1
пра 1
1675 1
1784 1
Право@@ 1
1769 1
On 0.018989670482358872
ya 0.02925605833794438
è@@ 0.22257169203513613
Генера@@ 1
организ@@ 1
пява 1
щена 1
1590 1
340 1
pra@@ 1
Хит@@ 1
гита@@ 1
дзу@@ 1
Bur@@ 0.08330114239343539
бита@@ 1
165 1
сигна@@ 1
116 1
Cer@@ 0.183668720011501
Баку 1
1521 1
1699 1
проводи@@ 0.9921224645576858
Times 0.16582731251147606
Лав@@ 1
батальона 1
сена@@ 1
1492 1
Die 0.008876804890946286
co 0.05016759014623192
cu@@ 0.07033236923528115
епископа 1
au@@ 0.04832856468014698
} 0.33060160496023827
£ 0.21686769450456334
разкоп@@ 1
типо@@ 1
Ad@@ 0.08708866589850164
ulus 0.7834658940554913
ЮАР 1
голо@@ 0.6108097421513907
оба 1
пович 1
1538 1
1637 1
1722 1
Ver@@ 0.029390303994295694
ite 0.04528214032949161
te@@ 0.04923568584405633
газ@@ 1
Mor@@ 0.05991730903767902
PC 0.2894638502859389
Чере@@ 1
инвали@@ 1
кио 1
музи@@ 1
предвод@@ 1
sit@@ 0.25768870262655635
Военно 1
ловина 1
1,3 1
DJ 0.46332692079511917
Като@@ 1
Таш@@ 1
арки 1
бул@@ 1
ние@@ 1
цей 0.7670361509404143
1480 1
1577 1
1664 1
ef@@ 0.11522680948767633
ino 0.06088674206793089
КБ 1
зу 0.6441794617682252
At@@ 0.13648199945947267
перспек@@ 1
танков 1
1580 1
m2 1
дт 1
спектак@@ 1
1757 1
жур@@ 1
социация 1
1690 1
Гин@@ 1
кома 0.9362351393660455
риал 1
133 1
145 1
1603 1
1744 1
1762 1
евна 0.8053176447881161
обмен@@ 1
1607 1
1689 1
кая 0.3663113950078524
1649 1
To 0.13158901897573225
Your 0.4178480870978652
Me@@ 0.07744620323404111
гам@@ 1
лондон@@ 1
and@@ 0.05526951354424299
Ка 1
Президент 1
импе@@ 1
1453 1
1643 1
1767 1
Bel@@ 0.07391921502684191
MP@@ 0.3498151396513464
Лат@@ 1
написал 0.8922862819256333
1778 1
1633 1
1743 1
27,@@ 1
aris 0.7828019113113148
ena 0.11056318069641341
Ab@@ 0.03409806413869067
tica 0.19960913407198025
Побе@@ 1
разногла@@ 1
сило@@ 1
1673 1
1786 1
Португа@@ 1
лейбу@@ 1
ma@@ 0.09594485940285542
uridae 1
Дис@@ 1
1586 1
1659 1
MTV 0.537672974448971
ala 0.11119422227940638
chem 1
for@@ 0.04509194926648448
ita 0.0913754319731571
Воло@@ 1
406 1
азербайджан@@ 1
извле@@ 1
1702 1
To@@ 0.1414403617337221
ous 0.035700617830751354
Нови@@ 1
питан@@ 1
1737 1
1766 1
225 1
can@@ 0.09940468669154705
Камчат@@ 1
Развити@@ 1
1,8 1
1663 1
1707 1
be@@ 0.026340701683504202
Крас@@ 1
стара@@ 1
1535 1
28,@@ 1
45@@ 0.6446985804356363
60@@ 0.48601855114319376
Лоу@@ 1
капаците@@ 1
огъ@@ 1
1503 1
1672 1
Тбилиси 1
бик 1
об 0.28408596985652756
сад 1
144 1
1735 1
Hel@@ 0.1364724138726033
Ι@@ 0.7205398023368011
окра@@ 0.9732536718910719
1712 1
династи@@ 1
имено@@ 1
увен@@ 1
113 0.9527617950688279
1563 1
1604 1
1748 1
NXT 1
atidae 1
il 0.008950009140236814
годи@@ 1
лост@@ 1
1328 1
lan@@ 0.14420906955788543
yi 0.35954936769759904
КПСС 1
получила 0.5204579062158404
1760 1
24,@@ 1
pl@@ 0.04462385507641094
public 0.04567198970101267
кого 0.40575613435747593
11.@@ 0.3988009202060251
1656 1
1728 1
ВМ@@ 1
долф 1
1. 0.08151941180989856
1644 1
199 1
АН 1
ВМФ 1
компен@@ 1
литет 1
оборо@@ 1
1541 1
зем 1
1589 1
1596 1
аф@@ 1
фотографи@@ 1
юк 1
1771 1
близо@@ 1
обращение 1
1724 1
Do@@ 0.12477190190267759
ex 0.1658844856572302
ida 0.06956876561900897
АР 1
гиз@@ 1
1575 1
1652 1
Warner 0.45744650718755736
ек 1
1781 1
лизации 1
проходи@@ 1
1519 1
млн 0.53813158555589
проли@@ 1
1370 1
1756 1
дъх@@ 1
нрав@@ 1
отлича@@ 1
1444 1
1777 1
3.@@ 0.20655251996268248
`@@ 1
yp@@ 0.20958441423143817
опор@@ 1
1573 1
1653 1
1720 1
1773 1
la@@ 0.1190086337360311
name 0.031012158916383446
ser@@ 0.06357489705138844
Населе@@ 1
1721 1
ant@@ 0.05977795000259273
нев@@ 1
строения 1
Mac@@ 0.09372535481695748
Демо@@ 1
Моло@@ 1
адми@@ 1
курфюр@@ 1
отрасли 1
1746 1
материала 1
1260 1
1584 1
1641 1
1658 1
Air 0.08869721292622254
ok@@ 0.09732967694468346
sc@@ 0.08854944977399098
лидер@@ 1
търго@@ 1
швили 1
168 1
ang@@ 0.0473477299595244
by 0.002861967825972209
ili@@ 0.11820059413572173
соно@@ 1
1270 1
1290 1
1739 1
System 0.18326418445260317
Ο@@ 0.6656309777604872
Наполе@@ 1
1520 1
1592 1
IS@@ 0.2349345695220538
1741 1
индекс 1
политики 1
самостоя@@ 1
теран@@ 1
1190 1
1525 1
1726 1
ay 0.04767633929003043
est 0.003736915941417779
Жур@@ 1
Начало 1
1601 1
1692 1
á@@ 0.06929162571145324
гастро@@ 1
квартира 1
получи@@ 0.8287202533927229
1642 1
26,@@ 1
hi@@ 0.07802778636217966
Кавказ@@ 1
НБА 1
купи@@ 1
основания 1
пострада@@ 1
1558 1
420 1
Er@@ 0.04109742267334193
š@@ 0.14606950325074627
Абра@@ 1
Гоме@@ 1
Президиума 1
Ричар@@ 1
кове@@ 1
сла 1
стойчи@@ 1
55@@ 0.8578599918118417
atr@@ 0.13757587228120957
hin@@ 0.17719368211119946
Бере@@ 1
Еже@@ 1
възгла@@ 1
разме@@ 0.38268861781114133
1782 1
Club 0.06109951070413506
illa 0.11426811309275806
ā@@ 0.1237773303937552
болез@@ 1
глоба@@ 1
зви@@ 1
описания 1
ское 0.09305764113053229
скорости 1
1678 1
1729 1
1738 1
фта 1
хотели 1
ядра 1
1420 1
1566 1
MA 0.26279430735090725
годно 1
1,4 1
Bl@@ 0.09844626675591037
ДР 1
лидера 1
сч@@ 1
1578 1
1709 1
end@@ 0.045842036366510505
Швей@@ 1
метрополи@@ 1
слан 1
with 0.002811056818252114
оттен@@ 1
тно@@ 1
хър@@ 1
ь 0.10706468189546317
1308 1
1554 1
1745 1
li 0.12636260955727976
взо@@ 1
даго@@ 1
кратер 1
рович 1
1347 1
1350 1
1655 1
208 1
BBC 0.18269302573216412
Dis@@ 0.112367984477345
ba@@ 0.07828585101908668
ceph@@ 1
eph@@ 0.44803995369693234
Иванович 0.6024594765561102
фигур@@ 1
1340 1
1611 1
1629 1
1708 1
AT@@ 0.23773531579980633
Corporation 0.20166870801074738
богослу@@ 1
1614 1
1706 1
850 1
ГБ 1
Среднове@@ 1
ците@@ 1
1608 1
1639 1
Em@@ 0.11404555740557121
Her@@ 0.060944065096038495
High 0.07197815972840133
Фрей@@ 1
директора 1
помест@@ 1
1548 1
1571 1
1593 1
Night 0.2587547983258487
Pe@@ 0.10208356886217711
Δ@@ 0.5767190367704784
гау@@ 1
1371 1
1730 1
CA@@ 0.19063296390549583
\ 0.4480584895736103
ведение 1
гена 1
про 1
1562 1
1685 1
Баш@@ 1
1669 1
1733 1
1764 1
вше@@ 1
справед@@ 1
чеб@@ 1
палат@@ 1
1557 1
El 0.012507106031306895
Grec@@ 1
Pol@@ 0.09103575334310067
Star 0.13852034308014574
Up 0.3348982568585802
Жан@@ 1
Шот@@ 1
молекуляр@@ 1
ряда 0.7757527830787363
Hydro@@ 0.6830176240077382
Open 0.14004968387933256
Добру@@ 1
Кост@@ 1
СМ 1
значения 0.4992805342418285
134 1
1415 1
1508 1
1582 1
1682 1
1714 1
1723 1
new 0.021029944390379595
деяте@@ 1
1522 1
HTML 1
Is 0.27236115469392846
тура@@ 1
1662 1
IC@@ 0.2534749145841359
fr@@ 0.0660337629711236
iidae 1
ts 0.01924480802093152
Геор@@ 1
Ура@@ 1
ню 1
пес@@ 1
тики 0.8539627653332614
1380 1
Best 0.11142139367037886
Mag@@ 0.1025408964112169
SP@@ 0.27201597078770884
cap@@ 0.08107866796755928
graphique 0.7304876260898291
lin@@ 0.0805559221960638
мала 1
1597 1
Ottoman 0.441782260933031
Statisti@@ 0.897019443195052
АЗ 1
запада 1
именова@@ 1
132 1
года 0.010350906698694519
1617 1
1657 1
крепо@@ 1
ровна 1
установи@@ 1
фестива@@ 1
фонда 1
1671 1
1679 1
1681 1
cr@@ 0.04801525063065319
su@@ 0.05116558422433866
Пес@@ 1
кинемато@@ 1
лор@@ 1
пропаган@@ 1
столетия 1
формирования 1
138 1
1615 1
1705 1
1765 1
185 1
Ниж@@ 0.6222786551755097
гови@@ 1
дав@@ 0.7727470560148519
дила 1
непрекъ@@ 1
ревизи@@ 1
1204 1
1440 1
1574 1
1628 1
Awards 0.10602632551078797
alb@@ 0.17797552812310932
ex@@ 0.0306295748673994
Луч@@ 1
Флорен@@ 1
желе@@ 1
205 1
48@@ 0.7682216782216205
DC 0.22271146197532352
kW 0.7523426626554172
.е. 1
1579 1
1599 1
University 0.02118538669430292
end 0.022873821769190898
Демография 1
чер 1
1710 1
Fox 0.24444280048388564
Red 0.10830597042389103
ak@@ 0.040137764103465354
iz@@ 0.05951702756977048
Олимпиа@@ 1
шей@@ 1
1304 1
ev@@ 0.05681441192388571
АП@@ 1
вени@@ 1
доров@@ 1
йнт 1
кавказ@@ 1
отбо@@ 1
1360 1
1410 1
1495 1
1581 1
Il 0.013570018594452614
Смолен@@ 1
числен 1
1488 1
1684 1
bar@@ 0.052248810484560045
dia 0.18787855747595678
Викто@@ 1
ФРГ 1
1693 1
Sal@@ 0.07898316461024492
власт@@ 1
писали 1
1758 1
all 0.014610126212609856
МТ@@ 1
инжене@@ 1
1588 1
1645 1
1742 1
23,@@ 0.9403801224700763
3500 1
1731 1
1754 1
1761 1
MI 0.9361833954176237
mi@@ 0.07834291775312216
строя 1
1531 1
RO@@ 0.4123354684690135
YouTube 0.3712861153402241
ates 0.034765971986711885
ik@@ 0.04647312719264608
зур@@ 1
принце@@ 1
1718 1
City 0.03489909087797698
atum 0.565220082815758
thr@@ 0.24424144499540593
è 0.8599532812396241
бакала@@ 1
жан 1
охраня@@ 1
роз@@ 1
310 1
USS 0.47138422057596757
gen@@ 0.04416151893126529
влюб@@ 1
итава 1
конку@@ 1
Pictures 0.4864693292575844
This 0.019032629439861497
Герма@@ 1
горно@@ 1
1677 1
1716 1
36,@@ 1
Cas@@ 0.10003053581458637
ist 0.005861257289192274
ora 0.10450298583250425
Лом@@ 1
Тихо@@ 1
самбле@@ 1
1594 1
Inc. 0.29841489613061345
кафе@@ 1
1515 1
1613 1
7.@@ 0.22880839456548874
Bal@@ 0.07421179669681531
Blue 0.17766687396403272
So@@ 0.09229573610044049
Рах@@ 1
клад@@ 1
хтен@@ 1
Chaet@@ 1
He@@ 0.06382010957277094
Man@@ 0.0577016855330097
Лео@@ 1
Нидерланд@@ 1
комбинат 1
описа@@ 1
рейтинг 1
1390 1
1482 1
1553 1
1736 1
ER@@ 0.2847752644214791
Media 0.18135634251554486
ano 0.04084046079172496
пушки 1
1460 1
1485 1
1609 1
chi@@ 0.14179873389783604
Серги@@ 1
1587 1
5.@@ 0.2633544321804707
A. 0.08700134727453904
рака 1
1654 1
1779 1
вот 1
могло 1
неизвестно 1
скул@@ 1
We 0.17601135267119358
hy@@ 0.15971045688556929
ja 0.07461527335908559
· 0.03536802734993864
Система 1
тормо@@ 1
1330 1
1527 1
1602 1
Mel@@ 0.11752515302378344
ST@@ 0.2893401463756999
Георгий 1
жертво@@ 1
моло@@ 0.3972649996387601
пропор@@ 1
бокс@@ 1
1759 1
Char@@ 0.08546410096851252
Tor@@ 0.08403257822395988
ler 0.029400769355603235
ордина@@ 1
уте@@ 1
филологи@@ 1
1305 1
1493 1
22,@@ 0.9434353086958438
370 1
пореди@@ 1
тли@@ 1
1240 1
1259 1
1565 1
loc@@ 0.08741146869525009
планет@@ 1
1348 1
1583 1
1753 1
thi@@ 0.259938626300844
Краснояр@@ 1
представление 1
1552 1
1703 1
National 0.025858381183394997
az@@ 0.05805814647910564
км@@ 1
нок 0.35867330783496576
1220 1
1647 1
ak 0.05062970880101947
Фердина@@ 1
пограни@@ 1
поколе@@ 1
44@@ 0.7685988491162699
Thr@@ 0.6951197165402874
olo@@ 0.40037015884490973
ornis 1
боло@@ 1
отече@@ 1
0,1 1
1545 1
17@@ 0.3338227751778813
Вите@@ 1
Уро@@ 1
доход 1
1475 1
1561 1
1694 1
4.@@ 0.24684652861867332
ES@@ 0.26522247246370695
gu@@ 0.05331641273914311
out 0.0174216139396474
уез@@ 1
ука@@ 1
чим 1
1646 1
1687 1
325 1
Pan@@ 0.11637170862057133
1356 1
cul@@ 0.11771897850278924
решил 0.9228588087663137
1624 1
omy@@ 1
otus 1
Конструк@@ 1
дворя@@ 1
запу@@ 1
Mer@@ 0.07792255241964662
ot 0.07052222798276335
pora 0.8676271906830766
СМ@@ 1
батареи 1
1505 1
1539 1
154 1
1691 1
1695 1
be 0.006611810604329623
Перио@@ 1
Pic@@ 0.29344141692746656
mat@@ 0.09184347417027774
min@@ 0.056594721890168564
ona 0.09333211282240245
onia 0.1976685158000534
ur 0.058937362302299255
вси@@ 1
гръц@@ 1
1524 1
AF 0.3858999568129994
AG 0.22195631524471413
Channel 0.26975115205647904
ium 0.16983645281436305
1230 1
147 1
1751 1
e.@@ 1
eti@@ 0.18234558101222367
ke 0.04235100154312287
блока 1
геологи@@ 1
недостат@@ 1
1385 1
176 1
ill@@ 0.0518341482126411
Майн@@ 1
Моро@@ 1
схват@@ 1
чел 0.5760708635765064
1752 1
Acanth@@ 1
Studios 0.2872878636025994
bl@@ 0.045087639874284144
ister 0.17955418180561436
les 0.0035815117686098514
Τ@@ 0.35455372955614123
Гроз@@ 1
146 1
1529 1
1713 1
1749 1
Sor@@ 0.20541722657008013
Sph@@ 0.8678771225725205
дзи 1
ете 1
ной 0.02257530537043314
оси 1
1280 1
1532 1
1564 1
1725 1
Si@@ 0.12261435138034181
зиди@@ 1
предполо@@ 1
1282 1
136 1
166 1
1674 1
1698 1
Pter@@ 1
съвършен@@ 1
‘ 0.11618857159756116
Intel 1
` 1
phy@@ 0.33212840787695236
внезап@@ 1
гани@@ 1
1346 1
1365 1
46@@ 0.6958220248207586
OH 1
ectus 1
uc@@ 0.10572655088340503
горя@@ 1
зян@@ 1
крае@@ 1
механизи@@ 1
неве@@ 1
1732 1
1734 1
ann@@ 0.0868576481455528
чив 1
1504 1
162 1
Bre@@ 0.09323996162226332
War@@ 0.11105671695998497
www.@@ 0.6114003232373212
бера 1
заинтересо@@ 1
1511 1
1542 1
бозай@@ 1
кации 1
съвърш@@ 1
шай@@ 1
Rhin@@ 1
agri@@ 1
anth@@ 0.31771911521613255
прида@@ 1
фру@@ 1
148 1
1516 1
Hol@@ 0.09223662084518523
SE@@ 0.25454879787302936
sol@@ 0.06608365166169314
едо@@ 1
1727 1
Inter@@ 0.07250409878690488
Not@@ 0.1661280639058914
Phyl@@ 1
ere 0.05756695799986161
str@@ 0.04349985120049441
РО@@ 1
воло@@ 0.48969730002048056
лано 1
поиска@@ 1
хта 1
шка@@ 1
pal@@ 0.11250298681573645
Анатолий 1
1506 1
1697 1
Val@@ 0.08133001095317599
1510 1
1546 1
192 1
US 0.0332163527605536
cer@@ 0.09058134143030087
thys 1
газе@@ 1
York 0.025698742653729578
чали 1
щта 1
AN@@ 0.24431898468690338
Харак@@ 1
концепции 1
прав 1
1180 1
1533 1
1537 1
Ur@@ 0.09079345674857853
Литов@@ 1
оставил 1
119 0.9817592008292294
1315 1
1396 1
1494 1
1549 1
2. 0.12370755231987876
ant 0.01402016175558474
arius 0.6378005690777314
ton 0.029155403583415933
шие 0.29661360329664854
131 1
Cre@@ 0.1154332326116287
бека 1
реши@@ 1
чужде@@ 1
1430 1
AC@@ 0.20156462732588332
HMS 0.41808417815832616
Plat@@ 0.20055032739184284
ly 0.024147132514705044
tac@@ 0.28487815146958273
ty 0.03939964050610874
дино@@ 1
круп@@ 0.4408824291412064
помощи 0.6077094864824177
разнообрази@@ 1
сково 1
феро@@ 1
TV@@ 0.3711093122868103
ass@@ 0.04146881652393654
шав@@ 1
1,7 1
NGC 0.26832279541532034
chil@@ 0.5150595310725233
chrom@@ 0.44813067469548534
Поз@@ 1
зации 0.692758585317504
1528 1
1534 1
Дени@@ 1
Род 1
жината 1
8,5 1
Big 0.12653501215879032
O2 1
Вей@@ 1
Николаевич 0.8032615491876542
Ом@@ 1
коат@@ 1
чети@@ 1
1717 1
1755 1
Na@@ 0.2097354535437281
eo 0.11012620433410124
pin@@ 0.22918198406014786
Досто@@ 1
Христа 1
препара@@ 1
теше@@ 1
1291 1
1479 1
Gal@@ 0.09107360193977378
MW 0.7586407059612248
Pro 0.21693289404709398
Критика 1
РСФСР 0.5528439907594304
церемонии 1
1463 1
Cu@@ 0.14683733894141857
Cy@@ 0.22876135822482327
Eur@@ 0.24570334832026
ema 0.19301484748388495
sin@@ 0.09052773393951957
вопро@@ 0.6488027565191079
его 0.024621108231428244
кохо@@ 1
примерно 0.3930299223441794
1395 1
1551 1
Don 0.13817373970292043
ost@@ 0.13939920380636528
the@@ 0.10204682712498375
тело 1
1279 1
142 1
151 1
oni@@ 0.1310327802676424
см@@ 1
стр 0.7828809597836427
1498 1
2,3 1
70@@ 0.5006854965899663
Сат@@ 1
дарение 1
служи@@ 0.8786442791166245
тре 1
der@@ 0.04055145995074844
ge 0.0483029912485554
ge@@ 0.026754301623563174
гини 1
зав@@ 1
метров 0.2785260898404226
очи@@ 1
сона 0.6147201028683509
9.@@ 0.2502520902939934
Fl@@ 0.07254493557318488
den 0.0036124576682068934
Голо@@ 1
Окон@@ 1
Поб@@ 1
нино 1
петер@@ 1
семи@@ 1
1378 1
кавалерий@@ 1
лая 0.759787937151067
1310 1
1517 1
AS 0.2088550710357418
DE@@ 0.27198836476235866
Дости@@ 1
Евгения 1
глав 1
1483 1
illi@@ 0.27477704642054246
Департа@@ 1
Запоро@@ 1
шир@@ 1
1719 1
Ma@@ 0.05915383209354527
Производство 1
могла 1
различ@@ 1
тая 0.6068350924571368
1470 1
Sci@@ 0.716404954201585
ol 0.05142216969148378
om 0.08925762160057296
названия 0.7527448143745294
органа 1
1591 1
q@@ 0.11568192075675808
Етно@@ 1
1543 1
Be 0.39979260855388365
сас 1
1312 1
1501 1
235 1
430 1
ai@@ 0.11241758519712199
1150 1
1435 1
1499 1
AM@@ 0.22360691172857522
che 0.05234792268581581
ell 0.04320076613647646
if 0.04709175268818771
th 0.033294673382991705
надий 1
неже@@ 1
1497 1
1512 1
275 1
356 1
Im@@ 0.08704426958487936
melan@@ 1
гда 1
дено@@ 1
161 1
ki 0.08025748252999211
zi 0.21502514574213458
č@@ 0.13856053100344298
Боли@@ 1
опу@@ 1
ѐ 1
Lib@@ 0.27841611533052474
cel@@ 0.12035067844028698
class 0.07335118468022521
ularis 1
княжества 1
команда 0.49653415948845175
принца 1
секретар@@ 1
1555 1
1747 1
Ho@@ 0.07811582955934547
SA 0.18057962806387595
SS@@ 0.34696451566304937
Studio 0.29654204301664433
Su@@ 0.08503695140914404
anti@@ 0.0684480980808651
Об 1
балета 1
реабили@@ 1
ям 0.3010436595351959
é@@ 0.0235791414082746
Слова@@ 1
0,3 1
1355 1
mg 1
q 0.1451686242753193
общава 1
уго@@ 0.5565309094476272
0,2 1
440 1
90@@ 0.5818173359982483
mor@@ 0.07902479176687896
цете 1
1302 1
182 1
8.@@ 0.21239617112111772
For 0.044925553539084576
cal@@ 0.09213540616177807
Лебе@@ 1
речи 1
1307 1
гера 1
летий 1
ману@@ 1
социации 1
хии 1
1402 1
21,@@ 0.8526351978963167
ense 0.12775968956229913
Звезда 1
09.@@ 1
47@@ 0.6124124417782338
ales 0.024501200615164708
go@@ 0.12089256982003428
Α@@ 0.3547152515516993
отъ@@ 1
псе@@ 1
Grand 0.06099539043268606
Mur@@ 0.13245130245880798
im 0.004295431709297522
ta@@ 0.07737127077325974
бух@@ 1
вил@@ 1
пропу@@ 1
1316 1
asi@@ 0.1089641815288662
Щ 1
вобо@@ 1
воро@@ 0.7354797432709035
дисерта@@ 1
1389 1
ure 0.050892019315642925
носа@@ 1
церите 1
1225 1
1275 1
1284 1
137 1
1490 1
217 1
Ставро@@ 1
овладе@@ 1
1556 1
est@@ 0.033403394188020866
Рома@@ 1
рисун@@ 1
1422 1
1696 1
CE@@ 0.23915569655484634
Estr@@ 0.4809889377657304
dr@@ 0.04210396279743509
gar@@ 0.08587456316384483
land 0.022319991841833507
Адриа@@ 1
ВС 1
Суво@@ 1
163 1
SA@@ 0.2330625455024036
Tel@@ 0.1438726210213089
мами 0.7297854161489722
неде@@ 1
формирова@@ 0.8185290151509133
193 1
43@@ 0.7529689713856332
af@@ 0.03881721989051352
баш@@ 0.69640728873068
парламен@@ 1
1368 1
1478 1
195 1
290 1
FO@@ 0.5163809188301693
Pseud@@ 0.5091434539835733
вши@@ 1
1474 1
AT 0.31660274341374345
actylus 1
ellus 1
opo@@ 0.3215146560137972
Михайлович 0.8828198550213282
Преобра@@ 1
мович 1
156 1
Day 0.1133322284444913
Уд@@ 1
201 1
Dark 0.4000279151500218
Like 0.21811575160982413
San 0.027491520357104293
Норве@@ 1
ваш@@ 1
тога@@ 1
учреждения 1
200@@ 0.3692441501127817
256 1
Do 0.26550775671319654
Dr@@ 0.08232291532983854
друже@@ 1
йти 0.55577664234032
1404 1
141 1
ABC 0.27876415523097364
able 0.016869817805783137
гоно@@ 1
треш@@ 1
2.0 0.5804992553654064
Ber@@ 0.041736841237696574
Death 0.20504082414443708
ima 0.11980026499565063
волю@@ 1
спектра@@ 1
1320 1
1481 1
Tyran@@ 1
etta 0.2292588165175748
nus 0.7150161404815351
tion 0.03189024692273277
фотографии 1
1386 1
Android 0.6615653351843084
Nov@@ 0.16361995572811885
Sub@@ 0.09255521049644001
return 0.08909916171485324
ПУ 1
1,1 1
1285 1
1418 1
iv@@ 0.0992310805432931
куб@@ 1
Centr@@ 0.40400240282052524
va 0.05170223629017107
гизи@@ 1
жоу 1
иск 1
пизо@@ 1
1258 1
1341 1
1377 1
950 1
AN 0.37141051554920435
Σ@@ 0.207937505541882
европе@@ 1
мера 1
1327 1
1425 1
164 1
cas@@ 0.05569116770433453
yth@@ 0.7051664099905124
АМ@@ 1
кут@@ 1
1314 1
1484 1
196 1
204 1
Go 0.29901612890486007
hynchus 1
me@@ 0.05051151737158421
мирането 1
повсе@@ 1
560 1
Del@@ 0.10587163142304522
гами 0.6392249444410277
телевизи@@ 1
172 1
2,4 1
460 1
RE@@ 0.2190186497770303
гет@@ 1
1349 1
1514 1
bu@@ 0.06547691217039288
бн 1
заста@@ 1
мов@@ 1
предме@@ 0.8455973973874448
54@@ 0.8901420836243215
H2O 1
Line 0.1271280963266855
eri@@ 0.24486581240167127
ster@@ 0.10232275002774201
Казах@@ 0.9018776700844287
Фреде@@ 1
Чика@@ 1
вив 0.8660953467565572
ключе@@ 1
1185 1
167 1
206 1
410 1
49@@ 0.48370713357839956
Meg@@ 0.2789860397832923
Проект 1
изгна@@ 1
хослова@@ 1
1455 1
1502 1
aster 0.24922712342742717
АО 1
Свя@@ 0.6290640350424749
рк 1
фракции 1
1518 1
215 1
520 1
Образо@@ 1
диза@@ 1
фашист@@ 1
1397 1
188 1
29,@@ 0.963301395768463
1235 1
Open@@ 0.4582795610758108
dus 0.9437689220335157
inidae 1
Депу@@ 1
Петербург@@ 1
Печ@@ 1
жок 1
1274 1
1303 1
Zo@@ 0.34772316579859797
eil@@ 0.28578870280435553
fer@@ 0.048002968953936104
flav@@ 0.5212206921858837
lia 0.20778273279017628
Счита@@ 1
дивизион 1
чу 0.35276427267215277
139 1
Sy@@ 0.13053706048612124
iss@@ 0.10362483957257222
ner 0.033465263014316904
omus 1
sk@@ 0.05730839738744497
ος 0.19741751427577486
ере 1
листиче@@ 1
сибир@@ 1
0,6 1
1476 1
TE@@ 0.32417225748309
from 0.002865078859186045
pp@@ 0.09254164007654786
tar@@ 0.07909092705972774
лем@@ 1
линий 1
1439 1
Av@@ 0.12149399704143864
CBS 0.32777233435268355
Out 0.24920396217531385
ali@@ 0.08052171119107535
ance 0.026280688491989373
bre@@ 0.054121527032346205
mi 0.12043135450361817
железо@@ 1
неуда@@ 0.812811305734484
подписа@@ 1
Hap@@ 0.9339702231383338
son 0.005976006993199562
инспе@@ 1
United 0.0160797715501993
What 0.2496792880755805
ary 0.025483486945172825
he@@ 0.04037958998782777
ve@@ 0.07906994206603848
view 0.1046008243214652
гости@@ 1
скет@@ 1
212 1
див 1
императри@@ 1
свое@@ 1
1451 1
178 1
184 1
197 1
ene 0.043916373341254
Спу@@ 1
ом 1
служили 1
чика 0.7708931994992545
1311 1
1469 1
1523 1
186 1
720 1
AV@@ 0.45871635501533614
COVID 0.19063784956791305
Op@@ 0.12506522869779957
TS 0.39449306258775807
ное 0.03562475590396669
1417 1
1468 1
Labr@@ 1
RI@@ 0.31049959602629396
ence 0.03453146056518138
174 1
act@@ 0.1931086137302624
k.@@ 0.8978413585237954
μ@@ 0.2748579317921429
Сав@@ 1
губернатора 1
построй@@ 1
щем 0.7900657054589878
1472 1
365 1
Home 0.1669293184750437
PS 0.18371039646437629
ine@@ 0.15008210737078184
ng@@ 0.11158174385111481
1160 1
1170 1
SQL 1
ile 0.03221884285087109
ith@@ 0.31743379428514723
Ле 1
Ск@@ 1
офицера 1
припа@@ 1
рейтин@@ 1
1296 1
1382 1
Por@@ 0.10625202598324972
amp@@ 0.08009537648967184
149 1
177 1
2,6 1
Bor@@ 0.06700842627426792
bur@@ 0.0671083311589641
otis 1
~ 0.44549244337880856
Оле@@ 1
бя 1
нах@@ 1
1513 1
Bol@@ 0.13620812974726956
als 0.004533696993759364
tel@@ 0.06372755208374864
ò@@ 1
Абха@@ 1
Букуре@@ 1
Площа@@ 1
парла@@ 1
1466 1
AD@@ 0.20201332219154192
und@@ 0.05833030223447732
Леопол@@ 1
зови@@ 1
страхо@@ 1
узна@@ 0.6458050077341235
183 1
74@@ 1
Cro@@ 0.13383059822292742
ks 0.028812198064854397
денти@@ 1
жер 1
игро@@ 0.6030483235764683
пии 1
стокра@@ 1
169 1
Radio 0.09022535265900264
Super@@ 0.10647865539658644
mer@@ 0.03609231765531934
pes 0.162918867352778
вило 1
ходят 0.7357915395453657
1323 1
1544 1
213 1
254 1
opsis 0.5631230704604383
ty@@ 0.09017684978686905
ym@@ 0.12031763314910664
Красно@@ 0.7695560083306113
новения 1
1507 1
153 1
Scar@@ 0.3637162946147602
aup@@ 0.4527077160766494
don@@ 0.1049163449643863
друж@@ 1
так 0.07364830155464971
64@@ 0.8578221607707297
Sun 0.1670265167086347
бизне@@ 1
211 1
65@@ 0.5994977867734965
John 0.019165247914679218
убит@@ 1
шле@@ 1
1509 1
67@@ 0.8246773175216492
ari 0.08372261095367392
Кузне@@ 1
рук 1
увле@@ 1
юго 0.21811706426547095
1248 1
3,2 1
3,6 1
56@@ 0.7578609918761475
ostris 1
доктор@@ 1
рем 0.9486381686654269
рождение 1
AP@@ 0.1895427801251619
Space 0.23047415431479035
ah@@ 0.046067731297888236
ard@@ 0.08073435160181351
pa@@ 0.21690660071560242
низации 0.8338425354821559
Cat@@ 0.11278710503668862
Heart 0.30696213212945095
ard 0.033358782746788516
enti@@ 0.052897857982785484
ë@@ 0.27738842633283217
демоби@@ 1
216 1
58@@ 0.7856149480405753
Award 0.05689347662163538
Bros. 0.781226335498373
Du@@ 0.08327034383186217
Facebook 0.4178030607109119
Uni@@ 0.1450600043270862
bi 0.2035275963374738
ice 0.04452963122244001
Рус@@ 0.5277240230138728
капитана 1
Royal 0.050693998245644536
pa 0.10700227962106597
Гле@@ 1
включа@@ 0.5581356900972353
кото@@ 1
уна@@ 1
1388 1
143 0.988313135762097
202 1
6.@@ 0.2232650177888848
A.@@ 0.16956092321076374
ah 0.04594295388356985
char@@ 0.09604273557277687
oh@@ 0.09805206201803422
tan@@ 0.07290767594790991
здание 0.4067227053125625
191 1
авгу@@ 1
агент@@ 0.9423256746497808
брю@@ 1
копий 1
лке 1
мону@@ 1
холо@@ 1
1496 1
2,2 1
Reg@@ 0.06226494153864505
ud@@ 0.08618465779751512
ВМО@@ 1
Чем@@ 1
обусло@@ 1
cre@@ 0.048883346819939506
0,8 1
1241 1
1375 1
218 1
Χ@@ 0.4006335830435547
Француз@@ 1
басе@@ 1
заду@@ 1
,@@ 0.8878783228109731
390 1
9000 1
HD 0.3148413584704075
Show 0.13687259009093922
ace@@ 0.17515951330114363
ay@@ 0.045128010563575696
etus 0.7423060394112383
летия 0.8776406358416429
лой 0.25193430450146753
пав@@ 1
Es@@ 0.06207481382994754
King 0.049059805922012846
eum 0.24872054973367883
ota 0.11979021799889522
ë 0.5125799891540024
гато 1
ожи@@ 1
старто@@ 1
строение 1
шла 0.4311935317707874
1295 1
1464 1
59@@ 0.8010857293574769
Dance 0.2766677207898485
ib@@ 0.07348204813663196
ick 0.05799777928759832
isti@@ 0.17541197297764133
Николаев@@ 1
псевдони@@ 1
1429 1
Top 0.11933305520663613
WCW 1
bor@@ 0.07877552494596761
km@@ 0.7313673159043482
sub@@ 0.030839294261839702
von 0.0026666330665372244
Луган@@ 1
68@@ 0.6741453048264341
Mac 0.38167445674555167
Pal@@ 0.07952243590017834
eu@@ 0.1636857753327971
icidae 1
определения 1
1261 1
189 1
левич 1
слова 0.5420720737393196
1458 1
157 1
640 1
ess@@ 0.051195272674510774
ФР@@ 1
верса@@ 1
оконча@@ 1
187 1
API 1
fer 0.0664648090712972
id 0.050649876211041965
inae 0.31981182277713416
je 0.07398046195856721
Пед@@ 1
СР 1
кое 0.3031851199803047
остат@@ 1
285 1
News 0.13918220433719528
oa 0.15265182076067982
─ 0.3738774670695842
House 0.039701942819420515
Sony 0.34062265009739207
cic@@ 0.43943073548652295
eh@@ 0.03923924849824312
ff@@ 0.05444476231327432
ip@@ 0.16445167684287726
Journal 0.15529217534346038
aci@@ 0.10991552599482676
od 0.09734445012154493
style 0.046242143254360386
ten@@ 0.03391977063772573
дисло@@ 1
новка 0.9902559477507121
1130 1
1205 1
98@@ 1
Hem@@ 0.2590926508296871
We@@ 0.06534811492370983
otr@@ 0.31975565178722437
Александрович 0.628941523326943
рост 1
услови@@ 1
1471 1
ca@@ 0.2425661604378796
sen@@ 0.06325837350408779
вити@@ 1
хок@@ 1
1394 1
1487 1
General 0.03665521430212889
HBO 0.8303269779817751
Min@@ 0.06592320048725173
Pom@@ 0.25601500361040214
TA 0.21874666218043448
tera 0.22723311122659706
tur@@ 0.04647808941375752
Ломбар@@ 1
доров 1
ленко 1
сервато@@ 1
1392 1
Lov@@ 0.2618846806174717
vit@@ 0.20428968312703627
сун@@ 1
1337 1
Can 0.36494863308917447
Center 0.06230594365241079
cur@@ 0.05474929748182043
lam@@ 0.08487212790311574
και 0.012049856114513183
Амери@@ 1
Калинин@@ 1
закре@@ 1
мъжва 1
1050 1
2,7 1
Camb@@ 0.3861111556436523
HD@@ 1
Rem@@ 0.14106184732968274
XML 1
Xen@@ 1
ae@@ 0.3874931740736085
aw@@ 0.04806895872320915
dic@@ 0.06669924814204109
238 1
99@@ 0.8611528690199781
ect 0.06616768005261324
eps 0.48869664581133737
ker 0.04464606187067097
ori@@ 0.07867683331965517
Марга@@ 1
династии 1
ляли 1
пут@@ 0.7685759318391703
шинг@@ 1
ѣ 1
1409 1
540 1
DOS 0.9155681366705253
Hz 1
Way 0.29098987305714596
reg@@ 0.05317970614194069
БА 1
381 1
ua 0.11993044435360788
Зав@@ 1
взаимодействия 1
йто 1
4500 1
VA 0.4026966153444796
ani@@ 0.13557199882737656
tal@@ 0.08304945482923914
± 0.8826411402593233
нами 0.14791052019932321
флага 1
CH@@ 0.22434130812480074
Ri@@ 0.06846814918488871
Unix 1
ada 0.012654379796962524
aen@@ 1
ley 0.025700478701689056
1336 1
2,8 1
33,@@ 0.9659509629394619
AL@@ 0.21323588089087878
if@@ 0.05898050434026767
ilia 0.5187502858611684
Количе@@ 1
ждено 1
лики 1
соф@@ 1
тря@@ 1
222 1
Street 0.04603197189543069
USB 1
atis 0.8042610399362612
bius 1
sim@@ 0.15405943262189908
дера@@ 1
1454 1
1461 1
306 1
680 1
ther@@ 0.08717650655121993
ulata 0.8994476368302232
198 1
209 1
PO@@ 0.3737125175907105
VI@@ 0.2909428267861884
ry@@ 0.31948238458999223
играли 1
окон@@ 1
1325 1
1424 1
173 1
179 1
Camp@@ 0.17560728143559834
pu@@ 0.06721803408853999
мощности 1
фигури@@ 1
шру@@ 1
ъф@@ 1
1406 1
88@@ 0.8441791561147057
студии 0.6565701674318545
75@@ 0.5522681195029219
ek@@ 0.039347653492797355
ra@@ 0.05451215949452718
Плов@@ 1
лаборатории 1
терна@@ 1
207 1
RT@@ 0.3355447714095149
ba 0.07332326448790195
ning 0.08726210344927639
tra@@ 0.14381497557837672
Антар@@ 1
1431 1
171 1
343 1
Gu@@ 0.03920914509505247
ax@@ 0.11267531589729539
ones 0.042262363170726125
Черни@@ 1
старей@@ 1
470 1
GB 0.2855156184351666
Ran@@ 0.12673454544483229
dium 0.26377343294889066
til@@ 0.09401532823945316
Κ@@ 0.23840253038201467
Яков@@ 0.993956911669853
бест@@ 1
кам 0.20946687841684028
AB 0.3422319884997186
Ger@@ 0.05173818234752527
Good 0.24372672692652053
SMS 1
VHS 1
anthus 0.874123405468417
ess 0.044020106674285166
ire 0.048262020722027454
tro 0.1438588443526253
Бота@@ 1
венства 1
позволи@@ 0.7237625090801846
229 1
gens 0.29946128399167454
Моха@@ 1
Снеж@@ 1
Хаба@@ 1
1234 1
395 1
Universal 0.2799333038717378
ny@@ 0.17007722802459738
ony@@ 0.29200463629193724
ž@@ 0.20427032918718666
Гви@@ 1
мок 1
ремо@@ 1
355 1
TNA 1
ets 0.031077407738261866
Постанов@@ 1
аль@@ 0.1781924918965701
гимназии 1
тата@@ 0.9637855324478944
0,4 1
aj@@ 0.053465316304483944
ake 0.0656931181936982
las 0.0053551718453880666
sec@@ 0.0724106771468416
Ε@@ 0.40057379978320556
Игра 1
лиц 0.7556701728232235
AI@@ 0.21615872247004647
low 0.04563899960794156
void 1
Вз@@ 1
Ль@@ 1
мля@@ 1
CC@@ 0.20907727453870278
Leg@@ 0.13557366777853383
Mir@@ 0.11490704600370025
NE@@ 0.27597741851668633
Vol@@ 0.08599890481893645
arch@@ 0.09147710654300299
ast@@ 0.07819127169719241
text 0.11479409646341748
географи@@ 0.6708767389270686
живу@@ 0.9711040489932673
премия 1
245 1
3. 0.10969210825133678
375 1
Ach@@ 0.16568484937870753
Kr@@ 0.04996859251457426
заи@@ 1
ATP 0.31620271812324496
Buf@@ 1
Cl 1
Cur@@ 0.09737192566965047
DO@@ 0.33650164439217095
Festival 0.058567107224714234
PE@@ 0.3063736171305779
Ros@@ 0.0645182720442592
ens@@ 0.027760207438520455
fasci@@ 1
ken 0.03764732867650126
mel@@ 0.07202802875052579
nis 0.12868453481002282
Новосибир@@ 1
водил 1
удив@@ 1
001 0.8447413042951417
1428 1
America 0.04973894582227515
lis 0.12980097507423538
pay 0.16068262234433567
Вну@@ 1
Сибир@@ 0.7361118760928494
здания 0.4588832892757913
рование 0.3462411868701822
Plan@@ 0.12405046623690781
S.@@ 0.1815841159442275
стров 1
тник 1
elli 0.11748312190325483
ics 0.043900513099337526
ву 0.3357574116754665
дуб@@ 1
зиден@@ 1
ноги 1
подве@@ 1
Cam@@ 0.09433582540698811
MO@@ 0.31173721778115754
cl@@ 0.04195637272879933
mal@@ 0.06063091920462665
opterus 1
st 0.0418314966918006
β 0.3860772517177215
Вашинг@@ 1
бок 0.9199438217708574
гом 0.22764756179579573
комедии 1
лого 0.6416058535609303
0,7 1
DA 0.24225825267460624
pel@@ 0.0796668086355401
sil@@ 0.08135367907340221
Рас@@ 0.5823941797450981
орде@@ 1
пци@@ 1
ранга 1
9,5 1
Lab@@ 0.21719918463547325
SM 0.48956647357906175
bit 0.13357216632860733
go 0.047551051694819386
ir 0.03134886414295734
ocephalus 1
статъ@@ 1
3,3 1
College 0.029122384825374385
Des@@ 0.07315128102088078
dor@@ 0.11021445675010177
zi@@ 0.07758037951400579
ó@@ 0.05263987932376739
гина 1
зра@@ 1
негатив@@ 1
Eu@@ 0.37447519471489354
Ferrari 0.44643345870163714
Pl@@ 0.05895517716779381
Rom@@ 0.0921697433447487
milit@@ 0.2522683360471757
меда 1
радо 1
194 1
255 1
960 1
Bath@@ 0.6880517757357048
EN@@ 0.4503114082093148
Клав@@ 1
Мос@@ 1
аспиран@@ 1
итуа@@ 1
219 1
53@@ 0.6843150019866452
BMW 0.5206760232026815
First 0.056054565355911114
Ple@@ 0.27645673659946857
Project 0.1803868114016483
ast 0.07604084174253954
nem@@ 0.8442258686228399
net 0.0946457364515315
Из 0.21054913067144962
пластин@@ 1
стройки 1
тности 0.8235733136740035
Dead 0.31805813406745603
FM 0.12896888467968845
Homo 1
Шев@@ 1
веду@@ 0.3510681160147916
решили 1
тоне 1
18@@ 0.22911584365086946
Girl 0.256164435136455
bul@@ 0.06605499815296387
tia 0.13168190379741404
« 0.002786097174628405
баталь@@ 1
зани@@ 1
уг@@ 0.682264539412933
1477 1
2200 1
Mic@@ 0.3064210533841302
PP@@ 0.41031822310734545
cha 0.07808888717571374
ight 0.09560668060581277
Ν@@ 0.26633135137303915
тика@@ 1
159 1
M. 0.08041485752102052
NET 1
Ter@@ 0.08728805307486535
White 0.06686162905402714
ber 0.04830486614611589
Иркут@@ 1
Петра 0.8367385988526325
ato 0.05449555454429679
ry 0.0548638222792056
vus 0.8142812090500876
‎ 1
Apo@@ 0.3773583281095541
IC 0.20822276648774718
Ni@@ 0.07909814807212043
her@@ 0.03054026592756838
ler@@ 0.046320015723298955
оса@@ 0.6694645441954591
530 1
86@@ 1
880 1
CN@@ 0.255937623319212
ila 0.11021005456107785
ovo 0.3873166200138596
Локо@@ 1
лъче@@ 1
цера 1
1399 1
251 1
Dol@@ 0.13393563624078741
Vo@@ 0.11799393952480333
eli@@ 0.10771089396632016
ici@@ 0.09974650468022007
НКВД 1
занятия 1
1227 1
335 1
Kiss 0.7342721924417485
Lady 0.14043511774426715
Круп@@ 1
Степа@@ 0.9419533472300593
деления 1
181 1
610 1
phidae 1
ł@@ 0.10748578924397799
дистанции 1
нат@@ 1
подро@@ 1
158 0.9307750579916182
970 1
Lin@@ 0.08833808301296642
занти@@ 1
рождения 0.5371868976464804
сержант 1
232 1
66@@ 0.7374333386704558
Hal@@ 0.07240715087906358
Sil@@ 0.1015169600330197
cat@@ 0.0680534552068651
chi 0.07380578623110522
fus@@ 0.17888116018146305
ow@@ 0.05009923981507476
rich@@ 0.11147714885905238
soni 1
ός 0.21359028032722227
НЕ@@ 1
221 1
2400 1
323 1
Cartoon 1
Mas@@ 0.06126793077873972
Web 0.40026694329295637
eng@@ 0.03865389126038001
ga 0.09124152630599194
вру@@ 0.7563115797127612
множества 1
шля@@ 1
Black@@ 0.17919014547416007
Hello 1
ade 0.041068727749316504
long@@ 0.20461158479748384
Зако@@ 1
восток 0.5925445321120122
жени@@ 1
одо@@ 1
ради 1
ье 0.11100719174911747
BC 0.11130919669348585
icum 0.5921545351696609
барди@@ 1
бре 1
воен@@ 0.5601707896520107
поставил 1
265 1
Championship 0.050554986719497326
Chi@@ 0.0938528312625882
Co 0.13967985366059837
Press 0.15487964356136738
Sar@@ 0.06804073881145022
au 0.004079363999603437
una 0.004515957124821726
департа@@ 1
цери 1
1080 1
283 1
Book 0.1497777883702338
Down 0.2988314384339508
Mk 0.9144300060385486
arg@@ 0.12523828116257035
ariidae 1
optera 0.8269679095509198
ˈ@@ 1
η 0.028388458069212277
Президента 1
ранже@@ 1
And 0.16799793794505624
Ang@@ 0.059900460363311696
Are 0.44488495182805515
MS@@ 0.2805505313375944
UT@@ 0.7201366116623465
ama 0.05797216910502044
Μ@@ 0.24685889144168763
пл@@ 1
1,9 1
253 1
Brach@@ 0.9145764287046705
D. 0.08917135429540235
ITF 1
Song 0.11855663282157197
tor 0.045467706847876266
Риг@@ 1
окли@@ 1
плав@@ 0.7484493851412758
президен@@ 1
формирование 1
301 0.9122507246102735
334 1
MC 0.24718740051167107
bal@@ 0.05709405273408863
dom@@ 0.1382200797670365
ico 0.056772250291434796
illus 0.9133818845507287
Π@@ 0.22297411308173393
Жена 1
вок@@ 0.9648249425734743
08.@@ 1
303 1
PA 0.1516381338296859
Twitter 0.3819657908989678
pul@@ 0.0734313789899814
Медве@@ 1
Юго 0.989659574547081
приблиз@@ 1
15.@@ 0.3385868165879534
214 1
B. 0.053665224087263604
Der 0.00902219025404432
Har@@ 0.042886779626547744
Last 0.257440525333033
Little 0.1131261492291184
ame 0.07371414525972397
eni 0.23779939426655453
ō@@ 0.12753892056576302
Наи@@ 1
234 1
Cham@@ 0.34243564059597886
GP@@ 0.37535198502385175
IT@@ 0.2740682949087222
Ly@@ 0.10165610965002897
estes 0.93454158096137
дами 0.21979063649105743
дой 0.2722310406963979
тем 0.14349483204780616
06.@@ 1
224 1
GNU 1
Model 0.27721591873849033
Pap@@ 0.10570749910349128
RC 0.19571067926397134
Ste@@ 0.05767956359498252
aga 0.11961818564681677
arus 1
ly@@ 0.08925291885105713
usa 0.15127706885406056
Владими@@ 1
Изна@@ 1
рос@@ 0.6693093948754497
262 1
38,@@ 1
Visual 0.7272225631727539
ain@@ 0.06522683192101257
die 0.0012916192539525141
ello 0.07389146704737125
ko@@ 0.10017333304126115
oi 0.22537894268356154
pe 0.0484085410575987
tin@@ 0.14931667784105523
Храм 1
епархии 0.6858773974179894
туда 0.774850980425748
57@@ 0.5748685869124627
CI@@ 0.1910460421200832
CO 0.28265382287234114
Columb@@ 1
E. 0.09689345263137555
Gro@@ 0.1119366934635277
Super 0.08778335413509884
War 0.023243220918092986
esti@@ 0.12225359086051849
leuc@@ 1
vic@@ 0.10252810437766614
ρι@@ 0.3104112449736631
Сверд@@ 0.8928205954763927
год 0.05084332017665617
14.@@ 0.292707274725149
32,@@ 1
Dec@@ 0.0969918761785918
Internet 0.13367197389545848
NBC 0.2526205185749751
cho@@ 0.12624448694235818
sy@@ 0.13420762832641941
Ρ@@ 0.2845680714839239
Рожде@@ 1
свя@@ 0.21661490893629726
284 1
580 1
Sep@@ 0.3517536491465609
ated 0.010721584698269008
ech@@ 0.06620701424954553
ticus 0.8999821006734752
time 0.007909566982036572
зей 0.9520290315138313
писала 0.7759647922217661
сравни@@ 1
ято 1
425 1
Ba@@ 0.0949410711773551
CD@@ 0.19136291690042548
Productions 0.34407259473478713
RAM 0.6867392174593071
asy@@ 0.48201717819829387
ub@@ 0.0814292140134238
ut 0.06496883798265694
лав@@ 1
яви@@ 1
3,7 1
aca 0.1554930833437099
eta 0.062134154423250466
самостояте@@ 1
04.@@ 1
1427 1
Back 0.26947555476985435
Mat@@ 0.05618746973037303
rot@@ 0.09321968465019087
Азербайджан@@ 1
ГУ@@ 1
лабо@@ 1
.н@@ 1
241 1
AE@@ 0.3057190503693618
Mc@@ 0.029105259911817342
ati 0.1037332244492675
entr@@ 0.05063662441133528
philus 1
ue 0.03725953038116021
ГИ@@ 1
аран@@ 1
кандидата 1
2,1 1
227 1
244 1
Mes@@ 0.11957062073703384
hr@@ 0.10506357664498629
Няко@@ 1
губернато@@ 1
начала 0.16698417495448653
509 1
ECW 1
Game 0.12093813072805099
Light 0.18775789042839738
Star@@ 0.14051693531518356
ero 0.047949856459916826
etti 0.11975305085349228
non 0.024601605068832137
pos@@ 0.03929788780002201
up@@ 0.03860090037053325
жден@@ 1
империи 0.2828684735010714
Fire 0.20566837038374047
Mot@@ 0.0889709027575048
Park 0.03171150382100256
Pas@@ 0.07771766809114806
ania 0.12682072484261378
ek 0.053398546813903595
Абсолю@@ 1
Амур@@ 1
фектив@@ 1
0,9 1
23.@@ 0.40398386535191555
451 1
agus 0.7980763731758848
this 0.006790810884726948
Семе@@ 1
вино@@ 1
зеро 1
DE 0.2882113706314656
Dream 0.33773291774943226
ors 0.01902105086342737
ostoma 1
ros@@ 0.10293877943510905
реж@@ 1
760 1
London 0.02776532711123301
USA 0.0656749698888711
del@@ 0.05566950831339565
ela 0.0729188175335708
tho@@ 0.15266676658881503
Адел@@ 1
генерала 0.6548383032248579
квалификации 1
оборот 1
певи@@ 1
шим 0.22317292341123987
3,4 1
Lim@@ 0.12464070719227907
Sim@@ 0.07850955441512561
olep@@ 1
pre@@ 0.02266909510677374
Стю@@ 1
видов 0.2892246114521426
дович 1
ликви@@ 1
правил 1
чит 0.731500187695357
щено 0.576388705337612
07.@@ 1
1.0@@ 0.8125448992947225
242 1
630 1
78@@ 0.7229647513112074
But@@ 0.18195710401622842
CV 0.6036714171453672
Hell 0.49641031375907746
Who 0.23494723019098585
arum 0.7341289049923416
Астра@@ 1
Двор@@ 1
Трудо@@ 1
депо 1
мян@@ 0.7703094206299845
пиво@@ 1
фунда@@ 1
12,5 1
1215 1
252 1
333 1
840 1
Animation 0.7675691173350234
ette 0.03253667422713843
icul@@ 0.2609365071377701
leg@@ 0.07662830008748556
my 0.0875685788952267
» 0.0024754846516302936
243 1
249 1
295 1
69@@ 0.7518848877329415
747 1
BSD 1
alia 0.20517602836481694
way 0.019310456598673725
пок@@ 1
ѧ 1
315 1
Bad 0.13610895431827816
Call@@ 0.3219520010399012
a.@@ 0.26999894803309943
ong 0.038297849884070194
tro@@ 0.06550388113304653
их 0.04109658983532983
моми@@ 1
написа@@ 1
22.@@ 0.39872724778704327
3,8 1
570 1
Bu@@ 0.0700799870727374
Bul@@ 0.11453880486247861
LA 0.18302441786142504
not@@ 0.05517651039064039
арен@@ 0.5413264912954203
шаф@@ 1
Art 0.03872810499150334
GT@@ 0.35810989909817265
Syn@@ 0.18361318337095014
athus 1
olis 1
ric@@ 0.19410497157497575
Атана@@ 1
кера 1
основе 0.2812335536530698
313 1
JavaScript 1
Kar@@ 0.03578659000854078
^ 1
ack@@ 0.07849619662715117
op 0.10371419167653333
Ефи@@ 1
захва@@ 1
ловка 1
Chir@@ 0.3380387628027816
Get 0.4434796914052855
Trans@@ 0.08164211998843232
don 0.07142908156010941
phis 1
του 0.009105260693208432
Всеволо@@ 1
жал 0.9206796030041361
зрения 0.4358590415877497
264 1
279 1
AB@@ 0.23317380482182656
Prot@@ 0.09625003123154204
alm@@ 0.09117601587091996
Характе@@ 1
красно@@ 1
-- 0.42829373704024404
282 1
870 1
Tre@@ 0.08083842004070825
ez@@ 0.05914148834952974
phil@@ 0.19834607964341877
sel@@ 0.045202715366615916
Во 0.12643486723985686
Уст@@ 1
Чело@@ 1
восто@@ 0.24436028892337555
лами 0.3414649728947992
Association 0.03784710752007769
Fre@@ 0.046719481490688455
Gi@@ 0.06709698740580711
amb@@ 0.06961544486266683
formes 0.1627611835675048
ko 0.0646324777387227
len@@ 0.07041980658230278
pan@@ 0.06371638353445867
Β@@ 0.23770846687520134
Есто@@ 1
СН@@ 1
312 1
324 1
Furn@@ 0.9927952132973317
MI@@ 0.23146943129764236
Os@@ 0.08247779520496563
ce@@ 0.10262327685770303
ha@@ 0.06852452076137303
ias 0.2272576897520482
ori 0.11263190136686105
our 0.038276030243383906
sec 1
so 0.011462877065563296
tig@@ 0.06759715832083518
вере 1
видение 1
газа 1
федерации 1
246 1
AP 0.18587334480587442
Deep 0.42449516364547535
Video 0.18371252967243112
aja 0.1703699052463235
cola 0.39028981228104864
Вяче@@ 1
DS 0.18786762542212415
Dic@@ 0.32901992442660455
GT 0.33425147397883265
Gar@@ 0.056824930233021494
Plus 0.1913229739076287
Works 0.1884468086072267
ami@@ 0.14196078385265595
sal@@ 0.05095489026635177
монографи@@ 1
тате@@ 1
2300 1
272 1
2O@@ 1
Global 0.19202897029600027
Tham@@ 1
Type 0.25505576448959016
alidae 1
ellas 0.20176827262245867
ins 0.019259199794198874
rop@@ 0.472340600797902
Жиз@@ 1
Мои@@ 1
вая 0.07863316448174155
нице 0.4971922605455146
281 1
337 1
I.@@ 0.3161206914673257
IS 0.20348237955335707
ap 0.06984974310397472
ars 0.04328600196192063
ito 0.06071974704331581
Грин@@ 1
286 1
BO@@ 0.37081785920435595
Days 0.3638627578472367
Dragon 0.32573207462168313
Fi 0.7134688438143112
Machine 0.39620148767259544
Obj@@ 0.34504687257425265
dis@@ 0.010945195172986828
ə@@ 0.5426220892638827
Воз@@ 0.26717326405736064
лечения 0.9495886562117946
меро@@ 1
писе@@ 1
появ@@ 1
см. 1
302 1
378 1
Canal 0.17654702529160235
Force 0.06590492585953148
Res@@ 0.08436603984748683
ey@@ 0.07145801099908818
olog@@ 0.13955230982518546
Кърджа@@ 1
тр@@ 1
ME@@ 0.2088896788932701
Queen 0.08391724445706576
That 0.08710859460338093
della 0.37400021603265826
son@@ 0.06277670092509158
world 0.02715735839786275
Семи@@ 1
отказ@@ 1
273 1
37,@@ 0.8743527322117333
79@@ 0.8582933784493304
NH@@ 0.3652498778760495
escens 1
ock 0.07089149575996971
vul@@ 0.27034854270840847
ĸ@@ 1
производства 0.3061704710472272
скар 1
1405 1
336 1
ki@@ 0.06877282458043922
oz@@ 0.10215661176698791
Λ@@ 0.24591476091311726
ι@@ 0.19077540772015467
еви@@ 1
435 1
Band 0.06029093010254717
Cin@@ 0.16862358253258009
Europe 0.03267982044256946
Hor@@ 0.0630518209267583
M.@@ 0.1888988147071819
Team 0.05403571768491985
eth@@ 0.06423563969967024
ish 0.042321102085133434
tatus 1
езда 0.5571441257061576
прояв@@ 0.8695244374931445
317 1
Fe 0.32361595273535887
Rec@@ 0.06784469008450333
ab 0.018620666642030714
ach 0.03504111132465289
ci 0.04603917232024346
ecus 1
orus 0.5841096090731452
Росто@@ 0.7016902237907344
Чехослова@@ 1
вах 0.5865087334012387
посетил 1
267 1
274 1
510 1
Cap@@ 0.09526602072973636
Lu@@ 0.05813095761205648
Stars 0.22179214068626413
онат 1
стала 0.10883223477111731
1433 1
226 1
237 1
248 1
30,@@ 0.7122325450423757
385 1
Baby 0.3149371630663525
Play 0.21546844561711523
Ti@@ 0.07370065286337538
ey 0.03357284952414981
ira 0.08165779972105257
vo 0.09501587778936312
Герб 1
персонажа 1
повести 1
GPS 0.8110252893332203
Ram@@ 0.07512771573360394
Road 0.045783747653018375
Sel@@ 0.08465637473190538
acea 0.9841510445220198
ro 0.07171567776041217
ă@@ 0.15765114991455903
педаго@@ 1
селение 1
276 1
32@@ 0.8206474401582
Mil@@ 0.06465799261048745
adi@@ 0.057915653557259694
els 0.02005047711200198
lat@@ 0.06879566814549441
ν 0.30134536356543207
звуча@@ 0.9147403652549801
способ 1
976 1
UR@@ 0.4521297128741293
mus 0.23815527816424345
my@@ 0.09161441281532007
tic 0.04347467256056328
Осве@@ 1
Руси 1
мой 0.14819557466926012
самолето@@ 1
236 1
660 1
@ 0.6589029542640144
CA 0.15880512260301102
CS@@ 0.15769687538349988
prim@@ 0.10047631068161492
trum 0.2464755437484845
Чемпи@@ 0.5049770782467788
кантона 0.9523436421492789
4,2 1
European 0.03440179390257113
iti@@ 0.04865797284606868
гария 1
рее 0.9737800131479911
620 1
Ceph@@ 1
Dom@@ 0.08176989586762962
cip@@ 0.16997224367755837
fl@@ 0.031185426803389257
res@@ 0.02247300745341553
Аржен@@ 1
нег@@ 1
подписал 0.5223570999007418
Brothers 0.20687103696123957
Games 0.06699540608116916
T. 0.1286434958116304
agr@@ 0.1385108697481077
anum 0.4645831576658554
dec@@ 0.040691869227889886
key 0.06460831420754616
olus 1
out@@ 0.039119823788278746
ω 0.599189166031473
Иль@@ 0.46160017837483147
Резул@@ 1
гория 1
пору@@ 0.42421251775461594
физико 1
268 1
541 1
565 1
76@@ 0.5971397012456817
Met@@ 0.11760253390284993
Pot@@ 0.12719012471700517
Power 0.13133738994467997
Young 0.08148886303352704
ick@@ 0.044962144290307565
ri 0.09906144691207165
А.@@ 1
Максимили@@ 1
бурга 0.7805296611599432
двиг 1
диф@@ 0.9455670273256026
ксел 1
превра@@ 0.3907436513755234
Ak@@ 0.05897050508961579
Name 0.06840866516209179
RS 0.1927569673887548
Via 0.5204510746736469
With 0.04300294662720882
down 0.027706667655658535
eria 0.1622182833175617
ista 0.04266254380888757
ансамб@@ 0.8964736977246803
изнача@@ 1
1070 1
233 1
257 1
266 1
457 1
Oc@@ 0.14380813098789302
ac 0.05211794230985713
ang 0.03195764616575913
asc@@ 0.09896058219312028
Нидер@@ 1
Телефон@@ 1
стили 1
293 1
316 1
Cten@@ 1
Express 0.17703846456108221
Sw@@ 0.0814276016670888
Writ@@ 0.49079077320520825
bat@@ 0.0631096427528471
wer@@ 0.05335351387039335
место 0.07793316908916952
отрас@@ 1
пунк@@ 0.6719144238787776
страк@@ 1
287 1
308 1
404 1
Blood 0.3552451001882927
Chlor@@ 0.7576159692612416
Dream@@ 0.6556296154235793
Pin@@ 0.11165319277025758
ali 0.07820456488860766
enia 0.450633265149703
ong@@ 0.054750292610489804
ou 0.008796806222723675
yo@@ 0.20077615602243265
δ@@ 0.20854948538807208
Динами@@ 1
Карла 0.7396659571241049
Хот@@ 1
брежи@@ 1
дая 1
ино@@ 0.9811595651421934
предложил 0.6520039969012784
223 1
331 1
77@@ 0.7018868046085378
isi@@ 0.05531154953906408
академии 0.2623204470046259
рян@@ 1
цева 1
← 1
13.@@ 0.23005756504445188
228 1
4. 0.0957163702644188
Anth@@ 0.3672931785565122
Iron 0.22393097863219236
Ob@@ 0.10931344599896198
Saint 0.016373949259261007
color 0.06635517067044934
gn@@ 0.15385887401913195
igh@@ 0.07959935677873463
Богороди@@ 1
вс@@ 1
нефте@@ 0.9489188115847005
03.@@ 1
Amph@@ 0.937469341047258
Dem@@ 0.08348718252398486
ISBN 1
Sun@@ 0.11364389047592244
Sur@@ 0.06685530067467785
apo@@ 0.0626687965697707
bis 0.00658984986011534
ray 0.20760355649262563
ς 0.2705869385250425
Джек@@ 1
волж@@ 1
говорил 0.92211579692606
пребро@@ 1
2100 1
780 1
860 1
Aer@@ 0.17373922555347274
CL@@ 0.4361525361542662
Fal@@ 0.1151119257128722
SC 0.09204407893117995
Sky 0.23520305204364547
Society 0.045008639577889586
acus 1
ini@@ 0.17861510748247122
Мада@@ 1
форси@@ 1
Action 0.23231604633053746
Boeing 0.29733703193928385
Fo@@ 0.09373224712058932
Girls 0.19948371986121027
Ty@@ 0.12348143375409366
anc@@ 0.053601985089567664
fic@@ 0.1039857879170357
macro@@ 0.5596442979480136
Υ 1
берга 0.9108611685094044
304 1
490 1
Digital 0.21290072240330718
Sa@@ 0.05142343268070663
fi@@ 0.03875670640254973
iceps 1
istr@@ 0.1948944480896453
urn@@ 0.15187775090380404
Γ@@ 0.34862121637839927
Алекса 1
латен 1
несли 1
02.@@ 1
322 1
384 1
84@@ 1
Electric 0.2606676556313545
Gen@@ 0.04913519801467631
Japan 0.041710226248638155
Let 0.27841384882662457
ik 0.050708658757771814
obi@@ 0.2439125562275134
pro 0.08626984225991328
АССР 0.5444958745445537
пункта 0.7812291252569931
ренко 1
часов 0.46472055955091135
Ltd 0.2022365876907816
Pa@@ 0.10165352837159726
S. 0.07159524815888396
esper@@ 0.2235033355344309
icola 0.9444286842335186
ton@@ 0.07747831966346207
Благоев@@ 1
лауре@@ 1
05.@@ 1
408 1
L. 0.09957382246111583
Research 0.06853149320015421
Science 0.07021142083481159
Код 0.37148777645574554
бии 0.9108749514515488
образован 0.4855859872847575
Century 0.26075214856527723
X. 0.44839358108692257
amm@@ 0.08309542331666202
ations 0.00893602975230066
ee 0.042742203904340276
eni@@ 0.4781236084824936
ι 0.18492103465158755
π 0.4500982595844369
τ@@ 0.16641517832054661
НК@@ 1
вела 1
дорович 1
лиги 0.37023370854397397
нач@@ 0.8735919761451041
свет 0.6434560712287763
сомо@@ 1
увеличи@@ 0.5193015590285386
239 1
63@@ 0.6341527787578634
978 1
IB@@ 0.3619861046787537
San@@ 0.05632423445820654
Sho@@ 0.10602795082771742
Stone 0.13568970249645515
UK 0.04691273973688424
ites 0.04889590300734971
nm 0.7559894297672676
pH 0.6069900971059158
ting 0.01567806510760124
Прод@@ 1
несла 1
307 1
Ox@@ 0.24519432203670966
har@@ 0.033199460842371666
ise 0.018598399275742465
pic@@ 0.09467824003911714
tom@@ 0.05399063389024545
Улица 0.9903676645818665
16.@@ 0.2768301449716119
263 1
405 1
Al 0.03265267014886675
FA 0.09945572891103122
NT@@ 0.39098135714220306
Philips 1
SI@@ 0.2727108823816996
auda 1
string 0.2939113417356447
י@@ 0.8054816744125393
258 1
2700 1
rh@@ 0.26988527322476114
tis@@ 0.06639647910115468
ug@@ 0.05609530526903187
yx 0.7675861318631921
получило 1
512 1
Now 0.19061778910925592
Office 0.08920797569185727
Server 0.5965372753937951
iscus 1
orn@@ 0.23054153929742977
ven@@ 0.045007949663970676
Грод@@ 1
жир@@ 1
лла 0.21188422674825264
нца 1
скостопан@@ 1
участи@@ 1
хождение 1
271 1
476 1
Arg@@ 0.17667968852206653
Blo@@ 0.12312670168313238
P. 0.08648757242059509
ilus 0.5631571218946205
ode 0.13545005000187346
ρ 0.3377463943744583
Бунде@@ 1
Даге@@ 1
дворян@@ 0.5808703230827095
17.@@ 0.28197898838636215
359 1
AM 0.12411883282011481
Ci@@ 0.12931403189975413
Poly@@ 0.16020699080520023
arc@@ 0.12019944935508811
ger 0.04324254448899489
iPhone 0.7800523250819922
king 0.029545344327658277
unc@@ 0.07588669937438597
var 0.24832823337330703
ä@@ 0.026873597777302683
í@@ 0.027829395872652058
Покров@@ 0.7175062926913752
бки 0.8717130001176413
заключения 1
311 1
Aus@@ 0.022539790877171687
Cir@@ 0.1990964528776392
Ju 0.9429973690649082
Wild 0.23478497575997598
XXII 1
get@@ 0.17869795871868102
gia 0.04476085254988424
ole 0.05411060903178552
tius 0.6359903986772298
Укра@@ 1
Форму@@ 1
изменя@@ 1
1210 1
261 1
4,6 1
730 1
Ele@@ 0.2425606940973286
Paris 0.019972163333157704
SE 0.278456601371164
Sym@@ 0.2866641010162802
Ta@@ 0.07835299036366941
замени@@ 0.5964303237163165
2600 1
Div@@ 0.12329949574602901
H2 1
H2@@ 1
Lep@@ 0.4187246750121628
Maria 0.05299768160674383
Nokia 0.7955861682565883
So 0.05403906150264919
elus 1
ilis 0.735181507850345
ness 0.04048353579762962
надо 1
окончания 0.24501866056948335
100@@ 0.2870840595247541
415 1
5. 0.0971829080922101
590 1
BM@@ 0.2395671182788863
DB 0.365800498489852
Fi@@ 0.0929378565529691
Hill 0.056868254793516496
Ko@@ 0.0474852415035762
Lar@@ 0.10144355774957042
abr@@ 0.1327761775205584
ger@@ 0.03023443888326935
iTunes 0.4924841809460712
lum 0.15211711447992285
ok 0.07121153855794396
uta 0.17062829825703082
лейб@@ 0.5805816246713209
набра@@ 0.5320965607159183
построил 1
201@@ 0.2674215871897436
338 1
Lon@@ 0.28281311437722373
May@@ 0.09614703645321761
Pri@@ 0.10814849574411362
astr@@ 0.1005315726951609
bic@@ 0.17888888367628744
ici 0.15546105153802706
include 0.02293576790445604
nam@@ 0.0777132708623671
pon@@ 0.09001752812254636
зела 1
недел@@ 1
рована 0.3822784001328995
сум@@ 0.42368942853846325
318 1
Bulgaria 0.28050506034395106
String 1
dei 0.45557064224466404
iOS 0.6004612177331429
ical 0.020563036576988224
oria 0.1588865146467552
жер@@ 1
299 1
387 1
By@@ 0.2130950467218363
Cos@@ 0.11368057462543774
Free 0.13957095907355752
G. 0.10293952490463154
macul@@ 0.5578538330761027
nov@@ 0.21809013027618232
of@@ 0.050636527433278934
vol@@ 0.03967008874933867
шло 0.28411910794616807
830 1
Boy 0.17134114477153162
LC 0.3079928857072901
Spar@@ 0.18078204698654868
ord@@ 0.04215046857795954
Восто@@ 0.22407213446504076
364 1
5,6 1
F.@@ 0.30296982632198705
Mol@@ 0.0771169036508126
Sin@@ 0.09614061378032338
Win@@ 0.09023412495511667
align 0.11818404557080103
cyan@@ 0.8557947574186344
mu@@ 0.05389056702227689
ome 0.061610458330050716
ylo@@ 0.4651783261725692
ò 0.36549552260417045
Ленин@@ 0.5665614165634635
гръб@@ 1
купа@@ 1
маке@@ 1
установил 1
25.@@ 0.3495001337949227
4,4 1
475 1
85@@ 0.6692829212173491
Boys 0.16471998545846503
IA 0.22535710222784572
Lam@@ 0.09924564824295691
Pop@@ 0.14879826752862554
Review 0.19410911673831616
TP 0.3875676446180572
Wi@@ 0.10766587538997172
Zeppelin 0.9512687715802628
acer@@ 0.251294490350458
ents 0.02116664914964431
fo@@ 0.050283530286445534
α@@ 0.17940405709015664
Брян@@ 1
Работа 1
19@@ 0.30327554794631173
309 1
820 1
Bank 0.06326670681585163
CC 0.14474203690948664
Heter@@ 0.7156253419886671
Magazine 0.14026279816869364
den@@ 0.03329393747375887
hom@@ 0.04693808678746627
int@@ 0.04765502072761625
mus@@ 0.05586453772531262
nic@@ 0.24082646827388246
sem@@ 0.08655229312076325
you 0.0499960064122484
Подо@@ 1
Уз@@ 1
воин@@ 0.5942734337280733
носил 1
сда@@ 0.6613177335484104
288 1
39,@@ 0.8450907555702362
533 1
Factor 0.6840985438141056
Metal 0.22202838941799843
When 0.02705648253431037
ack 0.06726454396596167
ail@@ 0.062412338398907016
ain 0.03326595808769292
log@@ 0.06591098823863875
ted 0.012090091556935526
β@@ 0.1550686048865564
назначения 0.7367588604387568
2.5 0.2466397120157448
247 1
278 1
2800 1
294 1
4,7 1
431 1
CO2 0.6267301400424339
Over 0.1180304850894299
Software 0.23631055172330018
aea 0.41667487322584157
cipi@@ 0.9369425296709784
orb@@ 0.4383921513935498
á 0.04029055371123074
Инфраструктура 1
йлд 1
цах 0.3303122471237048
Atel@@ 1
Proc@@ 0.23306309847816764
less 0.026784613765024293
vo@@ 0.05930717294229222
Моск@@ 1
простра@@ 1
степенно 1
18.@@ 0.2846253853136274
326 1
Arc@@ 0.2573571066483466
Bell 0.14190396039997039
British 0.01737208657231309
CP 0.27352711014758907
Heaven 0.44976667086344774
Is@@ 0.043372725818550055
Je@@ 0.07139817245387528
LO@@ 0.2764925734974004
ader 0.10112252800241517
pus 0.37456455295739505
ren@@ 0.029912226884274397
rol@@ 0.15814960631531885
í 0.05332747141220733
Один 0.46876872403451497
лизо@@ 0.47247367984685285
332 1
363 1
383 1
99,@@ 1
Abr@@ 0.19241919172938565
Explorer 0.5037208527303618
IT 0.2275540175087556
LE@@ 0.2030501497283362
La@@ 0.07334293146820209
Mobile 0.28798561727308297
Ori@@ 0.15072287495298559
XP 0.9275611977437392
elas 0.27702255063262343
ή 0.059053813049325936
ВО 1
Дина@@ 1
Мек@@ 1
РК@@ 1
980 1
AR 0.1729338316120189
Business 0.1084904238739343
Come 0.41183294493706596
Not 0.15992962095456079
Red@@ 0.05833687639146569
Service 0.05888728803348787
bas@@ 0.03530938595051057
enta 0.07209321464348312
ep 0.083667308501453
esta 0.02445402048785688
leu@@ 1
ris 0.2787002872256086
yd@@ 0.14054444683006614
раза 0.4293821748900401
седате@@ 1
Chil@@ 0.15114592789039857
Film 0.027926077825792872
Max 0.08190650184410263
Pach@@ 0.30575863113285695
Sac@@ 0.17523708692465437
Word@@ 1
XXIII 1
ane 0.0335945873261174
idel@@ 0.18971444329793025
½ 0.44194794852251484
Владимир@@ 0.8770810891585995
ный 0.012938461586150734
основал 0.6581243859010851
345 1
670 1
AL 0.2016348564997204
Foundation 0.07976427852711887
France 0.013002346237526819
IP@@ 0.2429232893350064
Ke@@ 0.061668411609847644
One@@ 0.7880907744290448
RA 0.1507291279856892
Roc@@ 0.1289494957827587
Tw@@ 0.11230473497082419
VC 0.38722736455632556
Ven@@ 0.09799096369598612
ago 0.08293542777337862
dii 1
etes 0.12094874249946941
pro@@ 0.030401258252043366
we@@ 0.037381890061959674
ze 0.03947829242965742
стоян@@ 1
20.@@ 0.2820204503515386
As 0.013645183280345887
MG 0.4614803494295219
Pre@@ 0.05167903370802093
Python 0.9037678356069
RT 0.1922429772674731
Ul@@ 0.0808509498992474
Vir@@ 0.12084869096405958
bia 0.344988316615898
bil@@ 0.058126233951327
dis 0.1788329860139876
gi 0.17412767104619203
å@@ 0.1353434306915696
ū@@ 0.11534821599948583
напротив 1
трудов 1
327 1
Data 0.30199573230244164
Deutsche 0.11089687038773248
Great 0.04750652689047954
Ha@@ 0.06082340176872014
North 0.0180537799865598
Out@@ 0.13297814806834127
Pun@@ 0.24652515261846608
Tal@@ 0.07711059648814818
hip@@ 0.39463000992431563
Ап@@ 1
пуа 1
292 1
3.0 0.5932491701764775
AD 0.12466561197981446
Pyr@@ 0.23421073010625862
Sem@@ 0.09212751862301613
Systems 0.19074163506890865
Union 0.025365016042870003
mul@@ 0.11423025757487597
nom@@ 0.08634322833033684
π@@ 0.16933036982625757
адрес@@ 1
земле@@ 0.5956987792690945
кров@@ 0.7229066413199857
подозре@@ 1
386 1
455 1
535 1
965 1
End 0.17472186738019338
K. 0.12380260517529766
Mi@@ 0.05384142978882898
Nu@@ 0.12769590929702893
Woman 0.23524669330100828
comes 0.08937757937893652
fe@@ 0.025771259654051328
sti@@ 0.05057419204102661
uch@@ 0.05910221174094588
куро@@ 1
лета@@ 0.9090552735859754
млрд 0.548163044770749
обозначения 0.99496930089788
скам 1
шая 0.1575215208115295
1066 1
259 1
296 1
BA 0.13535595221923305
H. 0.07200221711616808
Led 0.8725053176071396
Old 0.0669716481421302
West@@ 0.0470160179507045
aeus 0.4633603558822113
anensis 1
pol@@ 0.04082500915257928
ung@@ 0.03625196570752291
vari@@ 0.04485555686905197
Собо@@ 1
ЦИК 1
секу@@ 1
1.5 0.20374877928015006
2,9 1
269 1
3,9 1
328 1
361 1
Earth 0.0910778920582758
Opera 0.16609992266457588
Pel@@ 0.12591524703921733
St. 0.02280257436087736
The@@ 0.06736524197117116
V8 0.5075566150860822
ans@@ 0.0464105320749216
ind@@ 0.04919280352361891
lig@@ 0.047613596939148815
Голу@@ 1
всем 0.4202721591258933
заболе@@ 0.3936705241840252
19.@@ 0.28888124564136214
DV@@ 0.333438865481286
Edition 0.2757334427496545
Fac@@ 0.13816653744616417
Gall@@ 0.230312795839466
Never 0.39510028061904845
Power@@ 0.391934920255172
elle 0.00733041169841241
kh@@ 0.03293993219367551
mas@@ 0.03855555846424275
stri@@ 0.14299461225958895
ters 0.026951851717156732
yst@@ 0.11167465643904073
ī@@ 0.15917265227877428
стреми@@ 0.8816637395134144
чело@@ 1
│ 0.08695267986607404
4,8 1
Arts 0.046232517322588436
Net@@ 0.25112064222459185
People 0.07245448650322858
chus 0.6732824019502794
esi 0.10298403262154346
pha 0.4070669650384887
Челябин@@ 0.8278146731660939
губерна@@ 1
миграции 0.9881546963349995
Ben@@ 0.05086895053436341
Hall 0.0359489955611743
Pascal 0.4253281353441094
SK 0.288425799880667
SW@@ 0.3065432846632345
Trich@@ 0.4921694219509347
body 0.03609441456397277
ds 0.03864185464015056
ser 0.01787241850483162
ste@@ 0.03316719658310475
Волго@@ 0.9538459751573064
дь@@ 0.3826032148631021
образова@@ 0.3551643340432484
отно@@ 1
AMD 1
AX 0.6414029771814651
Dev@@ 0.07240165039404052
Dro@@ 0.12314946977523847
Hits 0.3871018408945542
Island 0.037044616776978116
Magic 0.26684285126367624
Tar@@ 0.0572802161683387
Xbox 0.33382222877730705
eli 0.12449100185583865
ke@@ 0.060572265211562594
sur@@ 0.023044294608851865
tu 0.11423788341502583
vil@@ 0.14898317606423545
ω@@ 0.23305520750465908
провел 1
шиф@@ 1
362 1
5,8 1
DI 0.31670654546881316
Hu@@ 0.04975033116956033
On@@ 0.11146849833939937
System@@ 0.9685289122574953
ath 0.05623794849798207
ies 0.021705447181920655
ru 0.3136073017964877
Золо@@ 0.7922622371260013
бива@@ 1
ствен@@ 0.2745552802217216
чания 1
Buc@@ 0.12258424815215517
Cel@@ 0.11385906110857676
F. 0.08270704253569781
ME 0.26520266467430015
Nor@@ 0.042552852163383864
R. 0.07335064217006222
Ring 0.2312362470005195
alensis 1
fu@@ 0.08702329763650295
gon 0.5644941007367601
ings 0.014025489360746475
ische 0.012711195476897492
lep@@ 0.5950058727561933
line@@ 0.15451835065409367
une 0.002255282726032225
Χ 1
Исла@@ 1
РФ 0.2531355646909051
вести 0.4128876702654
прочем 0.9992235068475315
учен@@ 0.7356797949419702
этно@@ 0.6667754769831071
1.0 0.49456451001224766
298 1
4,3 1
5,2 1
Blu 0.4933099524583119
CG 0.47263456075495286
Greatest 0.4871189907300369
P.@@ 0.26679980111605395
Post@@ 0.10814055967249205
Stu@@ 0.10598812874109192
Te 0.367610736132592
kHz 0.8395983696780458
s.@@ 0.4294576783766808
ust@@ 0.09689233167078627
Алексе@@ 0.5141373527927583
Ие@@ 1
пяти@@ 0.39818735935234556
ו@@ 0.7744968258350049
0,0@@ 0.7596173616710942
GP 0.28657900222730787
Soul 0.2932043895355966
Theatre 0.07324761255654443
kr@@ 0.059648586805349985
our@@ 0.06991006644457229
sa@@ 0.04952767541456027
tem@@ 0.08906072665611554
αν@@ 0.12339817398219831
Витеб@@ 1
Франсо@@ 1
допуска@@ 1
регуляр@@ 0.4908154708831467
10,5 1
231 0.8202493721108209
3,1 1
402 1
From 0.029139422532892936
Just 0.1772444943094842
Lac@@ 0.15537014396666754
Mad@@ 0.04925363456849572
ham@@ 0.1174028150719841
nor@@ 0.05334474991413011
ody 0.09418182416887749
стир 1
27.@@ 0.3283643907081979
737 0.6859582554716294
AG@@ 0.2135007975647825
Ari@@ 0.12074595587478218
Myr@@ 0.3310468984952433
house 0.021687324310674026
osp@@ 0.17101229414036226
tili@@ 0.2412873810198369
ù 0.5755372433649474
ν@@ 0.15554931949646617
Арме@@ 1
Людови@@ 0.8614074464326933
Сева@@ 1
коми 1
рее@@ 1
3200 1
321 0.9700814298973717
344 1
Augus@@ 1
CW 0.5493094993358705
Dendro@@ 1
Family 0.08390887780568511
PS@@ 0.1255498248653112
Public 0.06452295183585247
Run@@ 0.15603432164214262
Sk@@ 0.06918089454494639
ami 0.06859549453723475
aph@@ 0.13370373865929813
aud@@ 0.11844859761725932
red 0.025131103378839486
tion@@ 0.061182619634002934
ă 0.4261776227201681
Куй@@ 1
20. 0.06988384587603748
342 1
357 1
407 1
Che@@ 0.14239803620208594
Cot@@ 0.13766164002487416
MB 0.4164649226420818
Mak@@ 0.07689619716563043
Medi@@ 0.09294895585179533
SL@@ 0.33023129998416856
Test@@ 0.25031087131581636
West 0.018450552139937695
ace 0.05351854109832959
ava 0.10584983519196689
background 0.10141040432692051
sis 0.17584930480951644
val@@ 0.04619174328419822
vin@@ 0.06750516502187083
Днепро@@ 0.9090423300486286
Числе@@ 1
куда 0.48994584904040867
пособи@@ 1
493 1
555 1
Il@@ 0.06844421187707093
inum 0.25172102232731697
lio 0.22778424690078963
sor@@ 0.04559593513006678
της 0.00920749985635587
новил 0.824519230413145
409 1
412 1
5,4 1
527 1
An 0.025465032402564716
DS@@ 0.29337654792202017
FC 0.02906644007116173
Fil@@ 0.07993488103286871
Kids 0.37526127639343587
Lic@@ 0.19577413220169293
Los 0.012095439948428101
PlayStation 0.20539654830265391
bel@@ 0.0324721219375139
brach@@ 0.8722706008353327
kii 1
line 0.014930419950444014
Истан@@ 1
жит 1
моро@@ 1
367 1
379 1
382 1
5,3 1
920 1
Blues 0.18124561355508267
God 0.07940322059080213
Melan@@ 0.9667227241671545
State 0.015360426831574415
kar@@ 0.05436682085525258
kin 0.06637123669648959
micro@@ 0.0824764338318715
plat@@ 0.10209382509606738
poem 0.14137330748367288
punc@@ 0.5204145494978508
ts@@ 0.025717295000675357
Уча@@ 1
лли@@ 0.13337735592711547
-1 1
352 1
534 1
997 1
Meli@@ 1
NS@@ 0.1396221629575276
Television 0.11681515298070504
ator@@ 0.1330853736362447
Ν 1
входя@@ 0.8710627826454554
ничества 0.5816317467584917
преодоле@@ 1
1001 1
21.@@ 0.2832885420281545
297 1
454 1
97@@ 0.8748432579613453
Box 0.226791035159706
Brother 0.4516132028150491
He 0.0026746884065725223
ML 0.44122713885112125
Summer 0.05470135883253473
aer@@ 0.13931516236536196
ill 0.04349336962238282
inn@@ 0.054760751201374844
mail 0.19388171404968127
аспи@@ 1
жав@@ 0.3721915387618618
ы 0.01508646650908807
376 1
525 1
Gor@@ 0.070558158128907
PHP 1
Party 0.0271310088087858
Play@@ 0.15901371754583363
ROM 0.6481226470379627
Sab@@ 0.08203114881462115
Story 0.18228429075337693
ando 0.01341272246136232
ante 0.01494254757738442
anz@@ 0.056292753741775226
rec@@ 0.02117710262757449
static 0.5336638592917273
Š@@ 0.12762082629456672
Екатерин@@ 0.8874709761914042
Леони@@ 1
предвари@@ 1
тах 0.09113160378477234
314 1
IEC 1
SD 0.273202114220709
act 0.035792466851807134
ky 0.052694229814942664
tw@@ 0.04861771972615871
Аль@@ 0.10255389661622723
Меж@@ 1
Рес@@ 0.7089488555524498
Саратов@@ 0.792420559835051
приш@@ 1
стики 0.5399837374776346
24.@@ 0.2976570813301452
890 1
Na 0.30338154617988583
Nec@@ 0.29725785256494874
Pat@@ 0.06404679438485306
culus 0.7307064568586122
Со 0.6226197840010538
безработ@@ 1
брен@@ 0.9012951216036943
печати 0.8944246042599963
89@@ 0.6959418720538831
940 1
96@@ 0.7864651677629783
Dip@@ 0.9332418741833032
Ep@@ 0.13253601923653893
IF@@ 0.23455706984416183
Leuc@@ 1
Real 0.06708965987983861
acty@@ 1
berg 0.021199070356091178
gl@@ 0.044292025021107025
left 0.018119850676837312
leri 0.08608197112715707
m. 0.13685250529458118
oth 0.08333643826226984
ova 0.08644305811233896
tii 0.8885918178365415
var@@ 0.0752145507869606
деле 0.4491093100379393
ы@@ 0.04977175607696131
289 1
Airlines 0.18951927110157415
Amaz@@ 0.46915295051385936
Audi 0.5677469709570976
EC 0.21599556793654778
HT@@ 0.5743672318348879
Kon@@ 0.03550274754596372
ML@@ 0.30784126742683543
Squ@@ 0.27494990382967077
Take 0.39006372716731297
des@@ 0.013761965119090083
let 0.04674608070195035
lo 0.009278687848404755
mot@@ 0.05561794331926752
ocer@@ 0.5237653941200676
ster 0.03728770456921481
yla 0.6275794144976458
yrus 0.7010382468116024
ē@@ 0.45745761957182207
ś@@ 0.20765409111519403
Η@@ 0.5948693674018566
излу@@ 0.8006229234748445
351 1
Hir@@ 0.09745874910240691
ON@@ 0.21258128916973887
ash 0.06779534531978168
att@@ 0.030361200841885642
eti 0.16884766174196159
ian 0.02869486507618222
ilius 1
mo 0.08046137182023021
nia 0.14490689522631117
opter@@ 0.7014171454424595
tre@@ 0.03996710483354883
we 0.029366991388273374
Лауреат 0.9735795004408457
товче@@ 1
28.@@ 0.3264806842030663
368 1
377 1
413 1
503 1
Opel 0.8720809125352913
bra 0.1401255044647349
olor 0.6988759535178654
po 0.10217781094927686
ου 0.10141468403000234
σ@@ 0.11615590207590114
сси@@ 0.14197238233494724
354 1
810 1
How 0.2307405866108529
Long 0.06736359766847887
hp 0.5655746709408875
use 0.010830042480671237
xi@@ 0.09898339307256708
сит 0.6470481588137174
ѫ 1
21@@ 0.5553030318355923
448 1
985 1
990 1
Angel 0.21100816529463715
Central 0.02972699711264791
Crazy 0.572115493240311
E.@@ 0.153554720490594
J. 0.03939465988219696
L.@@ 0.1872954364327193
Pon@@ 0.08989080516891264
Sound 0.14745329439002508
ase 0.029121461234456046
chr@@ 0.18531931793663264
con 0.00269810025155191
elia 0.16569462134771115
ie@@ 0.04207833739104156
летов 0.7743867569561834
плацдар@@ 1
полков@@ 0.9857303564442251
стом 0.12323457706738536
465 1
Ford 0.08511351148759115
GA 0.2767862021155704
Mu@@ 0.06329797877499461
Paul 0.02027454808141983
Phil@@ 0.11504764174158723
SH@@ 0.2806168433179912
Santa 0.03563597915618394
Var@@ 0.08988918143666365
Web@@ 0.15020971696663787
gin@@ 0.2844990308663116
Ъ 1
вами 0.3550679672693645
зависимости 0.37744503253438316
тни@@ 0.9511937510857167
358 1
87@@ 0.6508649316098142
Bon@@ 0.07320292545159335
Books 0.19660942814923876
CR@@ 0.2353462033493402
Calli@@ 0.7458371907068285
Institute 0.034584550957054094
Mess@@ 0.11342062048239741
Rev@@ 0.08299065803604803
Voice 0.2859069315035513
Wor@@ 0.07622830432970257
inter@@ 0.010994285472063544
odi@@ 0.0668189098777392
издал 1
пар 1
революции 0.29582844021715277
стадии 0.7421834826693322
401 0.8420102530172449
456 1
EA 0.32220835175640683
Films 0.145178841648378
Italia 0.10647191898160645
Jean 0.02020970355532179
Post 0.069476253185868
Tom@@ 0.06815459369754441
ado 0.005892138228332347
ful@@ 0.1378928172209651
su 0.0031818585593689753
tos 0.054811550474355084
деся@@ 0.39166525237773436
длин@@ 0.24685470295363446
княз@@ 1
управления 0.1396451745279959
школ@@ 1
Pres@@ 0.043535971251640604
Sweet 0.34199645475305857
ater 0.09838335034386866
back 0.014029490004866451
center 0.0362230479540104
ese 0.019425621773665167
esh@@ 0.0924323735276545
rit@@ 0.06188572103957856
sum@@ 0.04847083937562551
Маль@@ 0.4987369338117746
ѭ 1
319 1
366 1
710 1
910 1
Chel@@ 0.27084503505887525
Fu@@ 0.10265262766709839
Jonas 0.4586181756895371
Rolling 0.20721535074659508
Sen@@ 0.06137438700891574
Three 0.07713698422731553
gig@@ 0.23428487088818525
ich 0.033666201403558305
iger 0.047325472243770476
ology 0.021618959629381183
pen@@ 0.0431023298122743
port 0.030436348399864234
vis 0.16190399783643097
ě@@ 0.1868998525175618
командо@@ 1
ль 0.020424511863339215
стера 0.5349632222273923
29.@@ 0.33741937944409606
394 1
Academy 0.036489995757990674
Astr@@ 0.13095086061693867
Aut@@ 0.08078899094696237
Computer 0.19670089598310603
Cop@@ 0.09887598692875786
Eyes 0.48582581411035447
Head 0.11758884343331494
Hom@@ 0.06918446415639662
More 0.11163365303855742
TO@@ 0.2260907195169438
WG 0.7916135039155532
enn@@ 0.036891838360702776
sia 0.23126030735051428
æ@@ 0.15203323894387638
Ω@@ 1
Мадри@@ 1
ганда 1
заня@@ 0.17996608830606037
изпол@@ 1
поселения 0.10392745544678017
рами 0.08308647545219187
тр 0.7734242209924558
277 1
432 1
508 1
AU 0.34348644219237434
Cinema 0.34081104353482383
N.@@ 0.2450640675998721
Sea 0.07176704001977927
Sper@@ 0.3045402608808086
acc@@ 0.036056096381500605
anidae 1
atio 0.42458788867029956
ful 0.03791220947624191
up 0.006390292715773672
x86 1
Зол@@ 1
праж@@ 1
291 1
770 1
Away 0.4674364425361788
Ray 0.11497056275050596
Right 0.28363543093123994
TC 0.1447635494599266
app@@ 0.06020145797796713
aus 0.004340845556009872
ement 0.01021701405560289
eros 0.06052646819643274
mol@@ 0.08710021472530433
sii 0.9496242787546607
uma 0.1058723818789464
Твер@@ 0.6402898926546113
26.@@ 0.28844356752212685
458 1
DP 0.16880549028876995
Dor@@ 0.05462564112619063
EV@@ 0.627357434602036
Gate 0.28861829708810827
Pop 0.16800108774084946
Rain 0.4971021275012436
Spe@@ 0.07305867185898357
Un 0.026255584214891554
dy@@ 0.16426111080729627
fin@@ 0.022803280193133928
ign@@ 0.043907570621777435
land@@ 0.03565693971889914
print@@ 1
ά 0.11713897940528324
одеж@@ 0.5543259638053625
341 1
353 1
930 1
Phal@@ 1
Point 0.08847575109613355
Sm@@ 0.12769842764675204
chin@@ 0.1376319635841989
chlor@@ 0.2800781183451562
cula 0.33585787720745114
hu@@ 0.039124044150730036
sac@@ 0.06934117167913698
trix 0.9431897338427331
uk@@ 0.04114564893592235
γ@@ 0.14706900529473424
Башкортостан 1
контракт 0.22637377257560717
пой 0.7335503125212749
417 1
479 1
775 1
95@@ 0.7675250810244422
CV@@ 0.4516644830185702
If 0.05509681003899067
Ru@@ 0.0438317299064993
adr@@ 0.10358031557649859
ats 0.023286358235736507
ellidae 0.8873515868733202
emis 1
ins@@ 0.030238725473634646
los 0.0017947018312038168
quit@@ 0.10058334826800058
Ивана 0.533316968801274
масте@@ 0.5666000778356606
ѧ@@ 1
486 1
740 1
911 0.7368099397185491
Asp@@ 0.19889709436478095
Benz 0.3708343793262779
Comedy 0.2936487833574918
ES 0.2902335987515701
PC@@ 0.14551029984197844
Samsung 0.4653294694107794
cid@@ 0.6448280509156719
gran@@ 0.10269388182821289
non@@ 0.10153500934664571
ocy@@ 0.23716774967600068
κα@@ 0.22702576168020552
евка 0.5881495152608469
жали 0.6618519273102613
лн 1
телеви@@ 1
585 1
777 1
ARC 0.4990823917907959
Bab@@ 0.0908722360313554
Bas@@ 0.03975639592616142
Chrom@@ 0.40657737482464384
Cul@@ 0.1060544817255487
Dog@@ 0.21468328403759365
FF 0.1682386249390253
Green 0.05189816293590209
History 0.016590141020510395
League 0.011958998507788346
Lost 0.24964034729666454
Som@@ 0.12788458825784854
Van@@ 0.17559352645065612
Vista 0.4088465965637477
Ze@@ 0.0783167567944719
grandi@@ 0.42193061694659934
inf@@ 0.035415260031229016
its 0.003023735091283199
ng 0.1426977337232655
rostr@@ 0.5712899827133153
spin@@ 0.41588293402847676
ush 0.10414572823875079
войн 0.8860153910996659
нике 0.2017845193713117
стоял 0.773386315959878
тече@@ 0.6758011652202771
् 0.0018791032838570065
007 1
5,7 1
999 0.9632712041992587
[...]
