de 55127968
, 39494483
. 29830283
la 25857041
en 21921009
el 19119895
y 18462977
&quot; 12766760
a 12344060
que 11422243
del 9651761
los 8936215
se 7628445
un 6606592
por 6580588
con 6088900
una 6050210
) 5707209
( 5697634
las 5609147
su 5154643
es 4516021
al 4197978
como 3908915
para 3890829
El 3560055
o 3102085
En 3068680
fue 3002609
@-@ 2987256
La 2851089
ado 2746465
ó 2301280
as 2176971
más 2159799
ada 2157545
: 2103453
os 2099137
ar 2087112
no 2010582
ación 1782081
lo 1734260
sus 1677206
ados 1663204
; 1414736
era 1294408
entre 1271983
ando 1263553
dos 1183956
ía 1108753
años 1074122
adas 1072942
an 1061899
también 1054160
Los 1048792
aron 956905
son 943753
año 938980
re@@ 938422
le 933225
este 916626
hasta 909792
parte 903625
ales 901691
pero 882449
in@@ 881440
sobre 878146
aba 863387
donde 856284
« 848264
» 847520
ha 825912
ser 797352
desde 793310
aciones 776288
des@@ 775657
esta 757069
Se 752386
A 725812
durante 715148
antes 708511
% 703290
ante 696632
e 686336
ido 671156
ón 670278
ciudad 664329
ano 639259
&apos; 632809
ya 625486
Las 611469
í@@ 609925
primera 606170
al@@ 600875
después 600830
había 597590
está 590002
A@@ 571197
P@@ 571178
fueron 570584
an@@ 566362
San 552068
/ 547250
es@@ 547075
cuando 546439
1 546142
ente 544673
primer 542698
Su 541293
ana 541191
c@@ 537620
tiene 535238
ar@@ 533553
otros 530954
nombre 527259
ia 519599
uno 516841
con@@ 516831
eran 515244
2 511295
C@@ 510309
sin 507827
ac@@ 506718
mismo 504087
población 502448
tres 502028
p@@ 501893
ador 497110
ida 494067
vez 490338
da 488499
gran 479695
forma 478657
ción 477055
cual 475046
arse 473622
S@@ 472410
ina 471510
puede 469502
&#93; 469092
&#91; 467656
ista 467522
Fue 467173
en@@ 462573
ad@@ 461282
to 459412
aban 457567
ta 456882
L@@ 453718
familia 445769
do 444930
encuentra 444433
T@@ 443757
as@@ 441125
muy 433295
así 433017
lugar 430737
3 424858
contra 423734
M@@ 421389
ario 420805
sido 417987
km 414857
idad 413852
Es 413496
o@@ 413319
á@@ 410162
or@@ 402861
amente 401721
s@@ 401123
equipo 395888
on@@ 395389
Estados 394881
t@@ 394755
encia 392417
ese 392222
ó@@ 391607
siglo 391356
ica 391058
f@@ 387145
junto 386563
ch@@ 386351
v@@ 384960
án 384611
idos 383910
ían 382351
D@@ 382251
E@@ 381543
ero 380870
tiempo 380509
Unidos 378465
u@@ 377893
embargo 377752
tr@@ 377233
ino 374481
l@@ 374406
F@@ 373542
di@@ 373515
The 372883
grupo 371511
est@@ 371215
estado 371178
han 370310
or 369758
- 368892
adores 368665
mayor 368584
bajo 364672
ones 364421
er@@ 363815
G@@ 362588
n@@ 362527
r@@ 361742
cada 361423
R@@ 361253
4 360012
entes 359697
todo 358188
serie 356918
qu@@ 356687
su@@ 353951
car@@ 352678
at@@ 352150
io 351244
solo 350391
ico 349985
B@@ 349494
España 345355
ex@@ 345233
j@@ 344508
Universidad 344414
estaba 343724
O@@ 343036
g@@ 341989
quien 341115
De 340069
otras 339342
b@@ 337397
N@@ 336256
Nacional 334742
el@@ 332816
ab@@ 328943
siendo 328829
También 328402
V@@ 326251
personas 326010
municipio 324785
Con@@ 322415
aunque 322096
s 322061
mientras 321999
d@@ 318534
tras 317795
e@@ 317756
todos 317170
tanto 316380
Por 315432
ciones 314160
vida 314095
cu@@ 313349
nuevo 312585
5 310980
Al 310723
er 310635
i@@ 310585
ic@@ 310519
esa 310341
de@@ 309743
temporada 309448
istas 309111
país 308991
Al@@ 308732
hacia 304812
ti@@ 302763
día 302399
final 301897
im@@ 301013
ella 300652
tuvo 299924
ec@@ 299067
Ar@@ 298647
6 296300
H@@ 296189
gobierno 295733
almente 294929
ent@@ 294420
si 294216
amiento 293841
par@@ 291629
álbum 291588
general 290575
mayo 290297
i 290224
per@@ 289749
it@@ 288166
Juan 287958
va 287370
tenía 287293
2010 287173
icas 286948
enero 286581
marzo 286041
anos 284843
octubre 284740
ores 284642
septiembre 283882
co@@ 283167
am@@ 282650
Sin 282088
historia 281335
² 280859
10 280602
película 280517
— 280512
julio 280373
total 280087
inter@@ 280038
varios 279642
m@@ 279053
” 278023
cuatro 277816
“ 277700
is@@ 277083
endo 276678
junio 276091
á 275868
ag@@ 274935
pre@@ 274833
cor@@ 274483
sur 273988
Historia 273965
él 273620
región 273338
z@@ 272849
&amp; 272450
oc@@ 272448
diciembre 272001
partido 272001
habitantes 270993
abril 270191
Este 269419
agosto 269195
a@@ 268612
les 267967
icos 267943
José 267759
J@@ 267324
ato 266359
obra 264885
especie 264550
número 264043
entonces 263777
debido 263045
noviembre 261163
ol@@ 261071
Durante 259168
algunos 258315
I@@ 257216
ara 257209
mundo 256952
pueden 256915
idas 256853
il@@ 255732
río 255639
ir 254037
ur@@ 253750
ismo 253670
luego 253288
oso 252658
ita 252508
ir@@ 251279
vi@@ 249801
través 249635
estos 249141
tos 247485
aje 247202
principal 246287
ul@@ 245289
com@@ 245276
además 245080
aria 244888
Según 244874
sistema 244594
in 243604
norte 243494
mar@@ 243461
eta 242949
ap@@ 242777
és 242592
aría 242156
febrero 241866
7 241616
arios 241538
ot@@ 241326
banda 240879
ito 240004
Esta 239989
is 239676
eron 239533
agua 239085
Mar@@ 238988
co 238460
guerra 238151
m 237648
of 236875
México 236102
20 235956
otro 235360
segundo 234285
ca 233211
sub@@ 233033
ología 232545
hizo 231969
uso 231560
partir 231305
av@@ 231226
I 231146
et@@ 230798
provincia 230672
siguiente 230503
trabajo 229593
h@@ 229125
8 228779
osa 228253
tarde 228123
un@@ 227755
unos 227179
zona 226793
id@@ 226046
das 225832
Z@@ 225825
te 225590
ías 225240
ci@@ 224727
ellos 224341
An@@ 224273
conocido 224019
ura 223914
canción 223742
on 223682
están 223657
cuenta 223119
br@@ 222526
Car@@ 222340
eros 222286
Para 222102
segunda 220018
us 219395
K@@ 218560
estadounidense 218215
presidente 217771
largo 217735
dio 217727
ión 217365
nacional 217106
ín 216949
Con 216564
15 215919
mon@@ 215906
dentro 215263
bi@@ 214700
Santa 214289
Ch@@ 214175
2011 214067
ja 213919
za 213362
Nueva 213079
af@@ 212152
12 211802
rec@@ 211684
edad 211543
col@@ 211065
carrera 211022
em@@ 210727
esto 210442
Después 209900
pas@@ 209664
muerte 209619
María 209424
os@@ 209293
y@@ 209025
Un 208840
Además 208539
enta 207225
In@@ 206990
illa 206909
centro 206049
ora 205686
varias 205588
menos 205414
Una 205290
estas 205251
aj@@ 204989
momento 204740
om@@ 204374
obras 203914
– 203913
rey 203327
Guerra 202849
género 202605
az@@ 202472
tipo 201991
ro@@ 200450
Mundial 200212
medio 200083
Desde 200005
u 199804
casa 199016
Tras 198865
español 198429
tienen 198302
poco 198221
época 198128
U@@ 197919
muchos 197911
ven@@ 197704
grandes 197042
le@@ 196510
nueva 196504
hay 195895
producción 195455
hijo 195341
dis@@ 195317
bien 195115
puesto 194845
0 194551
op@@ 194483
comenzó 194340
tico 194049
lado 193786
2012 193282
último 193174
título 193040
able 192860
30 192591
No 192544
9 192424
ento 192367
d 192298
mayoría 192119
misma 191742
í 191489
otra 191114
hace 190864
cre@@ 190763
man@@ 190464
cas@@ 190437
pi@@ 190182
según 189935
ed@@ 189427
res@@ 189370
gu@@ 188902
li@@ 188716
2014 188102
días 188100
importante 188095
tor@@ 188028
po@@ 188023
cerca 187746
2015 187693
versión 187078
música 186993
padre 186984
Entre 186226
ata 186218
2008 185878
ri@@ 185670
poder 185320
ra 185177
diferentes 185055
manera 184661
2016 184373
ena 184059
localidad 183797
16 183671
Madrid 183572
frente 183556
2013 183538
ándose 183217
inos 183092
18 182898
encias 182551
ares 182504
pr@@ 182455
caso 182393
línea 181869
Estado 181549
ona 181473
Carlos 181274
mejor 181175
hecho 180944
nivel 180915
11 180608
Francia 180380
2009 180363
primeros 180191
us@@ 180061
ant@@ 180029
Re@@ 180000
adora 179765
the 179641
millones 179479
política 179477
2007 177960
programa 177589
anas 177367
República 176764
Argentina 176761
pueblo 176755
ú@@ 176650
Com@@ 176345
posición 176093
inas 176034
Y@@ 175900
eo 175507
convirtió 175480
2000 175393
llamado 174717
ob@@ 174557
II 174321
ter@@ 173594
ejemplo 173466
ñ@@ 172692
W@@ 172355
na 172172
13 172151
Cor@@ 171781
ver@@ 171763
metros 171529
haber 171505
14 171502
cargo 170993
algunas 170442
tan 170036
ello 169742
z 169524
cinco 169424
ley 169296
17 169231
distrito 169223
25 169142
veces 168981
Como 168945
2006 167652
todas 166859
2018 166545
gr@@ 166524
capital 166231
club 165975
miembros 165701
19 165490
En@@ 165402
cuales 165339
década 165320
finales 165082
desarrollo 164687
hu@@ 164431
te@@ 164309
pl@@ 164239
habían 164034
punto 163915
mujeres 163611
partidos 161506
construcción 161272
enc@@ 161176
to@@ 161147
hacer 161130
tica 160838
tur@@ 160836
vo 160519
Biografía 160477
Luis 160466
orden 159957
des 159838
2017 159609
pesar 159390
base 159213
director 158914
actual 158726
eg@@ 158566
ma 158169
ig@@ 157355
fr@@ 157258
ubicado 157119
can@@ 157066
estudio 156563
r 156246
siguientes 155918
toda 155906
Francisco 155553
especies 155414
é@@ 155337
principales 155334
esp@@ 155066
estudios 154752
casi 154506
contr@@ 154353
and@@ 154182
Es@@ 154133
Europa 153785
miembro 153415
Par@@ 153412
arias 153024
Mon@@ 152882
Chile 152686
juego 152408
et 152234
Copa 152016
acción 151938
inglés 151589
condado 151431
2019 151146
llegó 151049
éxito 151009
entos 151000
fútbol 150976
proyecto 150819
é 150735
hombres 150586
super@@ 150555
idades 150468
área 150363
acuerdo 150269
Cuando 150093
Campeonato 150044
tas 149809
24 149757
cal@@ 148677
puntos 148570
mediante 148440
Bar@@ 148267
tener 148047
jo 148025
21 147907
Gu@@ 147615
países 147460
cualquier 147383
televisión 146890
estilo 146676
tu@@ 146472
Club 146385
C. 146348
arr@@ 146297
2005 146044
dec@@ 145969
_ 145634
C 145276
fuera 145137
estación 145096
lo@@ 144976
pres@@ 144869
si@@ 144804
conocida 144494
iz@@ 144274
Partido 143881
tierra 143735
oro 143350
ela 143339
mar 142739
isla 142659
origen 141778
sal@@ 141774
22 141754
ea 141682
libro 141592
eto 141399
bar@@ 141080
ería 140741
York 140528
mo@@ 140309
equipos 140119
sión 139731
B 139666
sa 139586
vol@@ 139516
Tr@@ 139478
gen@@ 139285
militar 139199
papel 138981
and 138932
ativo 138796
porque 138388
$ 138107
recibió 138071
eras 137530
reg@@ 137336
ancia 137275
atr@@ 137177
ío 137132
medi@@ 137090
cer@@ 136600
edificio 136465
tores 136160
23 136133
ev@@ 135976
ni 135918
Antonio 135833
Per@@ 135734
x@@ 135685
Alemania 135413
color 135199
ay@@ 135047
Est@@ 134953
Pedro 134901
grupos 134825
oeste 134804
trans@@ 134790
pos@@ 134629
l 134585
relación 134247
º 134234
ce 134162
Sus 133916
ni@@ 133751
Real 133543
fin 133499
t 133121
alrededor 133047
2020 133043
última 133028
k@@ 132877
estuvo 132762
Gran 132498
edición 132377
encuentran 132370
cha 132320
2004 132318
illo 132059
oficial 132039
so 131945
ro 131921
ambos 131856
proceso 131492
arte 131403
atos 131166
sol@@ 130907
principalmente 130846
pe@@ 130801
itos 130788
elecciones 130701
público 130379
superficie 130301
án@@ 130161
iglesia 130078
canciones 130014
man 129655
División 129619
General 129290
ganó 129080
principios 128985
mucho 128901
fi@@ 128875
empresa 128869
ver 128705
servicio 128641
incluso 128582
nos 128493
estaban 128476
Qu@@ 128420
estar 128367
territorio 128165
um 128122
cambio 127928
Am@@ 127916
ru@@ 127799
n 127341
én@@ 127168
du@@ 127167
disco 127069
ez 127013
meses 127002
se@@ 126911
sería 126826
.@@ 126769
importantes 126761
sino 126669
llamada 126488
re 126176
Reino 126120
Mor@@ 125991
bas@@ 125486
Col@@ 124821
cabo 124611
Or@@ 124558
ov@@ 124280
propio 124085
pasó 123904
político 123886
América 123785
seis 123709
anti@@ 123466
um@@ 123230
ativa 123139
ática 122969
no@@ 122947
Unión 122853
internacional 122840
ati@@ 122780
campo 122673
ejército 122539
amp 122311
Co@@ 122262
ota 122226
finalmente 122217
El@@ 122024
ten@@ 121897
alidad 121860
término 121800
muchas 121716
28 121579
original 121257
cur@@ 121097
Primera 120881
Liga 120756
medios 120751
densidad 120616
Norte 120610
26 120165
musical 120161
Segunda 119993
ve 119833
Her@@ 119752
eso 119681
Buenos 119507
conjunto 119328
etas 119185
Cu@@ 119027
cuerpo 118895
Val@@ 118814
tras@@ 118774
ge@@ 118673
unas 118639
debe 118581
Aires 118435
tal 118430
der@@ 118238
John 118190
sede 118164
27 117823
cio 117822
siempre 117700
100 117504
departamento 117174
ense 116513
x 116479
Internacional 116445
francés 116344
madre 116073
movimiento 115924
2003 115899
obtuvo 115834
Aunque 115780
sólo 115773
ios 115767
Cal@@ 115600
alización 115553
° 115553
ist@@ 115425
ático 115367
tura 115353
mes 115237
Manuel 115165
resto 115123
compañía 115104
ama 114993
posteriormente 114850
mujer 114803
Le@@ 114655
min@@ 114536
Sur 114400
media 114269
8@@ 114149
end@@ 114065
lista 113837
hijos 113768
oper@@ 113700
ña 113608
mor@@ 113544
Iglesia 113456
alto 113381
ará 113379
ber@@ 113367
Di@@ 113353
lu@@ 113319
realizó 113282
Italia 113127
primero 113106
categoría 112981
osos 112834
der 112823
gan@@ 112822
ellas 112493
nombrado 112471
igual 112231
Esto 112093
central 111977
form@@ 111967
aún 111862
ye 111490
especialmente 111335
Man@@ 111301
bre 111270
ticas 110974
2001 110717
cant@@ 110604
anterior 110509
dice 110342
fuerzas 110273
social 110242
plan@@ 110217
publicado 110111
sí 110085
her@@ 110024
hija 110022
alta 109914
mer@@ 109883
tes 109879
local 109876
Ciudad 109851
mat@@ 109844
cel@@ 109822
ga 109702
hoy 109645
mo 109455
ase 109343
española 109330
único 109329
organización 109311
ser@@ 109283
formación 109247
inc@@ 109122
imiento 108970
estr@@ 108912
at 108527
ubicada 108487
O 108485
dic@@ 108388
2002 108371
batalla 108328
ala 108312
ajes 108247
Barcelona 107942
amos 107921
resultado 107888
of@@ 107884
censo 107838
As@@ 107834
Instituto 107693
período 107632
hermano 107624
dirección 107576
ár@@ 107565
control 107539
ari@@ 107504
ens@@ 107424
rom@@ 107408
Santiago 106994
París 106845
od@@ 106750
jugador 106676
29 106652
por@@ 106642
incluyendo 106508
Cas@@ 106410
cr@@ 106369
tamente 106196
profesional 106183
agu@@ 106100
-@@ 105656
Sh@@ 105439
mal@@ 105424
escuela 105327
sencillo 105309
Geografía 105249
tema 105240
investigación 104706
qui@@ 104692
Te@@ 104520
revista 104348
Br@@ 104264
for@@ 104242
eno 104157
9@@ 103961
hombre 103809
ables 103771
sin@@ 103733
ónica 103696
apo@@ 103443
modo 103272
k 103252
1990 103140
fecha 102985
Mal@@ 102905
torneo 102896
llegar 102786
paso 102727
iones 102646
ticos 102620
2021 102535
má@@ 102461
sea 102066
Sal@@ 102043
! 101599
antiguo 101525
actividad 101400
apoyo 101391
Juegos 101374
ol 101255
50 101249
c 101187
1999 101149
cion@@ 101147
bal@@ 101058
formula 101051
datos 101031
fer@@ 100963
extr@@ 100914
francesa 100717
pol@@ 100695
h 100644
mas@@ 100632
actualmente 100486
ut@@ 100421
llevó 100413
nació 100406
loc@@ 100357
so@@ 100321
decir 100276
ate 100199
amientos 100155
Ex@@ 100074
pel@@ 99940
... 99929
De@@ 99828
ér@@ 99804
Perú 99735
7@@ 99685
popular 99685
inf@@ 99635
ing 99620
Pr@@ 99558
osas 99554
ahora 99426
modelo 99376
ne@@ 99349
espacio 99337
comunidad 99331
det@@ 99260
superior 99256
tir@@ 99095
pues 98985
og@@ 98873
Pro@@ 98823
Luego 98801
ad 98752
servicios 98752
derecho 98721
il 98674
cat@@ 98526
Miguel 98453
ativas 98423
ición 98376
aparece 98318
ali@@ 98296
dar 98261
pu@@ 98201
del@@ 98137
personal 98041
entr@@ 98008
ciudades 97991
elegido 97950
joven 97938
problemas 97887
gener@@ 97882
ran@@ 97670
Ac@@ 97530
participó 97394
observ@@ 97219
real 97136
situada 97024
interior 96977
autor 96853
posible 96686
ell@@ 96554
creación 96524
cine 96388
N 96270
tiva 96034
personaje 96010
información 95930
Si 95740
Centro 95587
Gobierno 95548
primeras 95438
pat@@ 95435
Des@@ 95362
pro@@ 95233
propia 95028
Ber@@ 95002
única 94985
Museo 94888
Unido 94885
mu@@ 94824
capacidad 94804
campeón 94790
diseño 94755
menor 94696
cantante 94630
0.@@ 94462
anunció 94412
logró 94377
edi@@ 94341
Río 94340
Ver@@ 94339
V 94272
termin@@ 94241
aproximadamente 94207
Gal@@ 94179
ño 93988
aca 93983
expres@@ 93915
dijo 93612
000 93522
E 93373
X 93335
Consejo 93319
Bal@@ 93300
ieron 93158
victoria 93130
actor 92985
Premio 92961
Escuela 92931
present@@ 92911
ang@@ 92797
X@@ 92753
g 92632
situación 92616
casos 92610
au@@ 92578
esc@@ 92490
nunca 92471
1998 92426
Inglaterra 92424
Demografía 92328
objetivo 92315
calle 92214
publicó 92149
Más 92146
nuevos 92139
natural 92102
do@@ 92038
cos 92017
alismo 91902
ep@@ 91831
Japón 91791
temas 91573
31 91553
dado 91520
adi@@ 91518
Brasil 91488
común 91390
0,@@ 91386
alemán 91385
ular 91277
Pero 91267
apar@@ 91227
allí 91182
volvió 90861
all@@ 90796
st@@ 90768
cantidad 90739
Colombia 90598
partes 90549
tenían 90512
principio 90455
China 90444
am 90351
vas 90285
cab@@ 90198
especial 90185
tercer 90081
one 90008
eb@@ 89887
división 89879
pequeño 89835
cultura 89813
ques 89792
tor 89647
acciones 89631
trata 89579
elementos 89538
III 89531
cru@@ 89463
Ejército 89382
diversos 89350
Gr@@ 89345
últimos 89294
1980 89285
decidió 89280
estructura 89136
có 89116
Londres 89079
mano 88984
ín@@ 88977
aci@@ 88920
Está 88917
ie 88859
tom@@ 88799
escribió 88712
costa 88656
periodo 88610
pal@@ 88501
celebr@@ 88484
go 88400
fuerza 88366
selección 88288
campaña 88278
altura 88229
Distribución 88114
muestra 88114
mi@@ 88089
zo 88044
ola 88036
ins@@ 87981
ima 87866
cho 87861
dr@@ 87837
conserv@@ 87744
derechos 87715
grande 87691
tri@@ 87680
Fernando 87679
situado 87653
esposa 87638
tropas 87504
antigua 87475
actividades 87434
mando 87433
leg@@ 87413
planta 87353
ba@@ 87328
1996 87309
signific@@ 87255
ativos 87203
cl@@ 87169
ing@@ 87161
tar@@ 87147
Tor@@ 87122
tivo 87110
participación 86909
ocho 86895
Y 86870
centr@@ 86684
6@@ 86564
chas 86508
presencia 86422
icio 86334
Hu@@ 86308
Así 86294
zonas 86294
incluye 86223
nuevas 86080
40 85413
ju@@ 85412
libre 85361
cri@@ 85238
anc@@ 85168
tuvieron 85139
Censo 85115
D 85021
rel@@ 85003
longitud 84990
1997 84977
Su@@ 84894
clase 84789
sitio 84784
grado 84755
ác@@ 84749
vía 84735
ua 84635
ética 84567
bu@@ 84545
ay 84536
sum@@ 84490
dicho 84442
llam@@ 84373
profesor 84371
1995 84345
Carrera 84315
películas 84214
algo 84161
habit@@ 84055
ae 83977
arlo 83964
compuesto 83932
comuna 83673
consider@@ 83664
icamente 83616
vio 83588
siete 83579
1992 83544
Vi@@ 83531
S 83464
Pi@@ 83333
novela 83263
1.@@ 83261
p 83218
prim@@ 83215
fil@@ 83135
causa 83132
anza 83127
tercera 83034
Esp@@ 82952
L 82879
bo@@ 82810
enfrent@@ 82810
jefe 82789
cul@@ 82777
esper@@ 82765
teatro 82650
ton 82586
ific@@ 82490
persona 82409
imagen 82378
escu@@ 82340
referencia 82280
sociedad 82269
ayuda 82248
fal@@ 82247
Ab@@ 82122
cuyo 82089
XIX 81964
financi@@ 81949
1994 81834
oma 81807
cont@@ 81752
California 81748
sab@@ 81709
uc@@ 81685
b 81670
tamaño 81656
quienes 81519
ila 81511
pa 81498
enci@@ 81473
iles 81388
mitad 81377
personajes 81313
fuerte 81275
noche 81269
lucha 81218
menudo 81200
= 81093
ección 81073
similar 80845
clasific@@ 80789
presión 80587
perteneciente 80537
Estos 80491
matrimonio 80464
ici@@ 80453
León 80432
ª 80408
podría 80400
san@@ 80368
niños 80319
gracias 80231
pudo 80195
luz 80153
Mientras 80152
orio 80102
XX 80085
llev@@ 80048
prueba 80035
mercado 80010
Bor@@ 79980
Central 79980
separ@@ 79904
realizar 79883
Po@@ 79842
tales 79819
Cr@@ 79780
pequeña 79730
ocasiones 79699
quedó 79454
1970 79394
aut@@ 79352
5@@ 79333
mediados 79267
Imperio 79260
Posteriormente 79223
Inter@@ 79135
diversas 79068
eles 79001
presenta 78974
ema 78864
prom@@ 78856
ización 78852
dem@@ 78829
Em@@ 78655
García 78653
tan@@ 78632
libros 78602
medida 78595
constitu@@ 78589
neg@@ 78514
acto 78510
sobre@@ 78504
Pas@@ 78486
actualidad 78467
den 78399
Mo@@ 78298
ba 78279
ib@@ 78257
apareció 78233
1991 78180
arm@@ 78108
premio 78096
aire 77987
interés 77926
función 77907
incorpor@@ 77847
educación 77841
ológico 77801
trat@@ 77744
aña 77732
idea 77686
Actualmente 77651
me 77606
lleva 77572
Tiene 77561
bor@@ 77425
usa 77367
fic@@ 77330
sem@@ 77329
ah@@ 77295
razas 77285
plantas 77281
artistas 77275
ma@@ 77247
jos 77234
diferencia 77220
Fútbol 77199
For@@ 77172
ministro 77108
emos 77102
identific@@ 77102
iendo 77077
Bel@@ 76958
ira 76911
acu@@ 76874
trabajos 76741
be@@ 76718
Venezuela 76675
var@@ 76652
gt 76592
episodio 76514
manos 76499
ónico 76436
Ha 76405
mundial 76384
David 76367
én 76364
Ro@@ 76361
Sol@@ 76278
Congreso 76189
emente 76101
cm 76095
Mat@@ 76076
etapa 76068
alista 76052
prec@@ 76039
liga 76038
murió 76007
ografía 75993
isión 75893
horas 75889
fac@@ 75883
tro 75869
alt@@ 75840
Cruz 75798
lanzado 75752
ne 75747
pen@@ 75746
Roma 75730
port@@ 75647
ete 75632
lam@@ 75619
zar 75613
1993 75612
liber@@ 75577
qued@@ 75577
conoce 75505
medalla 75461
ill@@ 75458
dirig@@ 75437
inici@@ 75377
Á@@ 75377
jugó 75285
cá@@ 75273
gobernador 75256
ece 75242
Festival 75217
mad@@ 75178
compr@@ 75171
tic@@ 75125
aga 75016
val@@ 74951
int@@ 74915
Ma@@ 74910
itas 74798
mejores 74795
canal 74750
gar@@ 74711
red 74625
Lu@@ 74609
energía 74559
honor 74472
hi@@ 74373
ataque 74366
geográfica 74306
emp@@ 74265
viol@@ 74195
dia 74127
idae 74123
diseñ@@ 74108
cuya 74082
illas 73998
Oficina 73989
tel@@ 73962
Ser@@ 73915
Pal@@ 73893
eng@@ 73887
Rusia 73871
cam@@ 73870
gira 73836
cional 73766
valor 73754
pens@@ 73750
defensa 73504
if@@ 73489
sur@@ 73471
permite 73470
Se@@ 73340
10@@ 73320
son@@ 73314
presentó 73299
ística 73218
’ 73168
cabeza 73167
características 73144
registr@@ 73103
lugares 73073
ach@@ 73047
ao 72975
contribu@@ 72968
asi@@ 72961
Del 72959
Be@@ 72948
plaza 72923
dirigida 72912
relaciones 72896
influencia 72890
kilómetros 72890
actriz 72871
baja 72866
lt 72858
direc@@ 72850
vari@@ 72850
tem@@ 72809
ás 72745
barrio 72710
formar 72685
ampli@@ 72634
fase 72623
espec@@ 72596
Fr@@ 72528
significa 72519
Academia 72490
aco 72460
azo 72431
til@@ 72369
sec@@ 72359
di 72296
aliz@@ 72255
conven@@ 72231
armas 72177
mil@@ 72149
fir@@ 72147
propiedad 72104
ta@@ 72085
frontera 72082
asc@@ 71962
coloc@@ 71873
vir@@ 71870
bol@@ 71868
distancia 71724
importancia 71642
incluyen 71620
w@@ 71619
dejó 71546
añ@@ 71419
ud@@ 71384
cin@@ 71383
jas 71382
lar@@ 71368
err@@ 71341
formó 71334
1989 71233
2@@ 71226
ez@@ 71193
Casa 71184
ai 71153
Cer@@ 71135
gal@@ 71131
etc. 71119
fin@@ 71097
activ@@ 71088
verano 71037
R 71004
Tierra 71002
tierras 70994
jugadores 70960
destac@@ 70875
material 70869
elo 70803
Jorge 70744
diez 70736
ka 70723
cap@@ 70651
vista 70643
inició 70601
Can@@ 70592
hab@@ 70575
trabajó 70551
ini 70478
camino 70424
men@@ 70418
respecto 70407
M 70374
dió 70374
Pres@@ 70332
terminó 70314
auto@@ 70219
distribu@@ 70202
sociales 70179
dicha 70059
represent@@ 70022
sector 69972
New 69959
Cam@@ 69952
sil@@ 69938
amb@@ 69929
+ 69858
lig@@ 69799
condiciones 69790
generalmente 69737
comercial 69736
ió 69736
mil 69710
enas 69675
per 69662
visit@@ 69612
miento 69562
&#124; 69535
debut 69533
tera 69473
ú 69471
esas 69414
Saint 69384
minutos 69374
carácter 69285
1960 69270
ania 69262
entrada 69232
calidad 69222
T 69169
aguas 69129
campeonato 69125
sigue 69125
Lo@@ 69084
isi@@ 69056
hor@@ 68922
blanco 68920
sistemas 68915
escritor 68819
aves 68793
Bo@@ 68767
ret@@ 68682
soci@@ 68661
considerado 68637
don@@ 68607
culo 68597
pot@@ 68594
locales 68487
60 68418
irse 68415
mm 68358
oblig@@ 68356
conduc@@ 68345
prot@@ 68296
Dis@@ 68206
goles 68202
resp@@ 68120
acceso 68111
pasado 68101
combate 68096
ocup@@ 67899
nu@@ 67839
ej@@ 67816
unidades 67727
dieron 67664
gobern@@ 67640
caus@@ 67614
parque 67599
lanzó 67568
ed 67538
rock 67531
trabajar 67515
artista 67473
jug@@ 67473
cost@@ 67466
domin@@ 67400
prepar@@ 67391
eña 67384
productos 67352
marca 67344
yo 67334
bur@@ 67326
todavía 67320
semana 67262
ayo 67259
Ger@@ 67164
tar 67124
juegos 67084
seguridad 67021
Algunos 67010
prop@@ 66859
sentido 66857
realidad 66848
entemente 66769
militares 66762
influ@@ 66737
Ri@@ 66689
van 66687
consiguió 66662
determin@@ 66616
municipal 66575
Australia 66566
San@@ 66528
act@@ 66502
sac@@ 66447
ístico 66447
nuevamente 66440
rev@@ 66435
desarroll@@ 66415
fines 66400
crear 66398
yó 66396
pan@@ 66323
Bu@@ 66249
aro 66221
acompañ@@ 66207
Ros@@ 66123
nacionales 66049
cit@@ 66033
descrita 66030
eses 66000
disput@@ 65952
anta 65913
radio 65848
1988 65831
Ley 65812
Enrique 65796
coordenadas 65757
ál@@ 65756
pública 65741
edit@@ 65724
humanos 65713
taron 65713
lanz@@ 65674
civil 65645
Rec@@ 65637
Martín 65635
creó 65605
ra@@ 65553
ende 65539
voz 65467
ori@@ 65460
India 65440
líder 65366
esos 65359
imientos 65355
refle@@ 65355
administr@@ 65336
americano 65295
ion@@ 65284
etes 65275
nor@@ 65214
Grupo 65211
contrato 65176
orden@@ 65170
iva 65165
cambi@@ 65137
not@@ 65124
segu@@ 65118
radi@@ 65109
? 65100
eza 65080
restos 65070
entales 65060
versiones 65049
formas 65018
áreas 64985
lanzamiento 64958
produjo 64904
curso 64842
pon@@ 64807
empezó 64800
cambios 64732
eño 64705
cad@@ 64668
ambas 64657
Ur@@ 64553
empresas 64528
ide@@ 64509
Pablo 64461
isa 64431
idente 64420
pul@@ 64396
vac@@ 64365
éndose 64261
educ@@ 64233
tra@@ 64218
atac@@ 64188
ve@@ 64158
Asociación 64116
realizado 64115
cantón 64111
escrito 64108
italiano 64096
Jesús 64080
Puerto 64074
Er@@ 64055
programas 64005
teoría 63990
aya 63981
jóvenes 63973
1985 63940
islas 63932
Costa 63892
encontrar 63879
f 63705
gas 63650
1987 63622
cuarto 63615
utiliza 63615
velocidad 63609
utiliz@@ 63579
po 63574
1986 63567
IV 63542
mayores 63540
atura 63505
Ministerio 63492
guar@@ 63486
numerosos 63473
jer@@ 63378
modific@@ 63341
ego 63313
cultural 63235
dido 63227
enti@@ 63207
iv@@ 63201
oni@@ 63196
colabor@@ 63136
me@@ 63131
80 63111
estudi@@ 63080
vuelta 63046
tivos 63043
pes@@ 63035
Mag@@ 63000
esti@@ 62873
Debido 62846
gi@@ 62842
sel@@ 62807
obtener 62791
P 62780
defin@@ 62703
formado 62693
Pacífico 62683
creado 62622
comienza 62619
Descripción 62552
envi@@ 62528
lengua 62514
iro 62483
mol@@ 62440
dan 62353
Finalmente 62337
v 62284
onal 62255
produc@@ 62148
Castilla 62096
amor 62082
plata 62070
ti 61983
4@@ 61971
be 61952
figura 61911
denomin@@ 61869
dor@@ 61868
hermanos 61809
favor 61806
existe 61782
industria 61776
fica 61749
comunicación 61712
3@@ 61651
padres 61641
Un@@ 61619
So@@ 61587
particular 61522
comp@@ 61495
líneas 61491
señ@@ 61467
posee 61442
Ter@@ 61437
resultados 61405
che 61400
ningún 61328
Estas 61311
anía 61234
utilizado 61229
ef@@ 61202
mis@@ 61129
Presidente 61099
pueblos 61085
soldados 61082
declar@@ 61065
dist@@ 61029
administración 61023
lin@@ 60981
ers 60883
ler@@ 60849
2.@@ 60830
elev@@ 60823
1984 60818
St@@ 60809
endió 60801
Teatro 60784
1982 60767
cons@@ 60765
gente 60753
blancos 60748
anteriores 60714
tí@@ 60643
adop@@ 60612
Ne@@ 60608
pin@@ 60555
eti@@ 60534
vas@@ 60516
África 60499
fund@@ 60495
López 60473
dólares 60468
texto 60468
ias 60460
construido 60399
estim@@ 60379
misión 60373
ingresos 60366
1983 60362
internacionales 60357
americana 60344
bl@@ 60328
histórico 60304
oto 60207
Cat@@ 60153
unidad 60141
200 60135
pequeños 60132
considera 60073
inform@@ 60025
oficiales 60014
mi 59978
abr@@ 59951
falta 59916
inicio 59901
jugar 59869
parece 59867
Ben@@ 59826
Hay 59777
patr@@ 59758
posterior 59744
ológica 59703
bul@@ 59701
evento 59633
sección 59611
contiene 59578
Vill@@ 59572
ind@@ 59572
oras 59535
actu@@ 59526
evitar 59522
vin@@ 59495
imp@@ 59456
gol@@ 59449
animales 59425
Bi@@ 59408
Cl@@ 59377
elos 59359
ór@@ 59308
motor 59282
podía 59279
ánica 59276
Mi@@ 59223
Le 59151
viaje 59128
az 59110
public@@ 59095
raza 59058
Pan@@ 59017
ue 58979
reconoc@@ 58971
avanz@@ 58956
bronce 58934
sh@@ 58924
enda 58901
traslad@@ 58886
elección 58876
mag@@ 58871
Dios 58796
Mc@@ 58788
argentino 58777
británico 58771
palabra 58759
ch 58735
poblacional 58679
Ti@@ 58661
especi@@ 58641
Sociedad 58638
abilidad 58609
encontr@@ 58561
ental 58530
suelo 58442
fo 58423
F 58390
igu@@ 58344
culos 58316
aran 58302
tipos 58288
ey 58280
inst@@ 58207
madera 58199
ecer 58154
demás 58147
óp@@ 58141
James 58126
fabric@@ 58126
mencion@@ 58114
bás@@ 58025
presente 58013
existen 58005
proces@@ 58002
conten@@ 57991
Gar@@ 57986
ros@@ 57984
sustitu@@ 57868
buena 57846
efecto 57830
fot@@ 57824
conform@@ 57805
gol 57792
baj@@ 57772
Mer@@ 57769
puso 57748
ólogo 57734
Du@@ 57733
crítica 57719
estados 57680
salud 57649
cómo 57496
economía 57476
Men@@ 57474
Valencia 57454
vec@@ 57445
reci@@ 57444
pocos 57439
piedra 57434
tradicional 57434
funciones 57414
uel@@ 57400
Ad@@ 57354
eci@@ 57349
unió 57320
indic@@ 57301
cuanto 57289
encontraba 57287
met@@ 57287
amento 57241
políticas 57194
existencia 57178
izquierda 57165
edificios 57157
tero 57109
políticos 57057
Otros 57053
amp@@ 57034
arro@@ 57029
Trayectoria 56981
ine 56925
palabras 56920
cara 56890
ón@@ 56881
def@@ 56874
pos 56871
puerto 56818
funcion@@ 56793
puestos 56793
90 56785
nacido 56768
llegada 56701
familias 56684
representa 56634
1979 56616
temporadas 56591
alcanzó 56587
ninguna 56580
castillo 56561
templo 56556
occidental 56545
conc@@ 56539
ás@@ 56528
obispo 56525
mantuvo 56462
visto 56459
ines 56445
ard@@ 56441
seg@@ 56428
aqu@@ 56407
numerosas 56406
Canadá 56398
completo 56374
tadas 56331
70 56311
regiones 56309
tomó 56296
limit@@ 56294
alm@@ 56269
González 56251
haciendo 56237
rit@@ 56221
Comisión 56187
1976 56177
par 56152
atención 56121
tradición 56103
restaur@@ 56047
torno 56044
será 55991
integr@@ 55978
oficialmente 55966
aquel 55959
ecto 55959
colección 55952
Felipe 55938
th@@ 55921
actos 55903
vig@@ 55886
ganar 55804
comerci@@ 55803
crecimiento 55802
hall@@ 55799
Santo 55792
hum@@ 55770
Selección 55756
Córdoba 55734
Olímpicos 55723
aza 55719
policía 55717
go@@ 55666
ivo 55643
bio 55635
ug@@ 55629
den@@ 55581
españoles 55558
Artes 55557
ces 55530
ender 55505
mostr@@ 55485
hom@@ 55475
ónimo 55436
500 55419
Pol@@ 55402
ani 55402
referirse 55384
pruebas 55309
independiente 55259
áticos 55243
adoras 55221
dir 55212
1950 55127
alcanzar 55043
dur@@ 55025
William 55014
deriv@@ 54996
Bur@@ 54933
casas 54926
hicieron 54920
ronda 54911
FC 54881
económica 54871
clasificación 54856
elas 54849
Ren@@ 54818
explic@@ 54797
uras 54768
destru@@ 54730
emple@@ 54724
directamente 54712
1978 54708
có@@ 54691
probablemente 54623
asa 54608
distintos 54589
ras@@ 54558
mur@@ 54501
G 54482
bat@@ 54472
ext@@ 54466
1973 54457
arían 54453
bot@@ 54443
arc@@ 54442
votos 54398
artículo 54396
Ob@@ 54380
emperador 54365
Paul 54364
ilo 54364
Th@@ 54353
dad 54353
Departamento 54330
Robert 54330
compar@@ 54317
continuó 54315
1981 54314
práctica 54307
ice 54306
ajo 54305
Mac@@ 54300
gio 54284
vieron 54277
eca 54275
comun@@ 54268
grab@@ 54260
entrenador 54250
ment@@ 54246
pasar 54242
tra 54215
toma 54186
proyectos 54176
levant@@ 54157
derecha 54141
negro 54120
transporte 54120
estudiantes 54107
captur@@ 54046
abandon@@ 54044
obstante 54042
casó 54026
Cre@@ 54021
Por@@ 54011
fuente 53973
ur 53968
Vida 53936
eció 53926
parti@@ 53909
sim@@ 53895
ov 53869
futbolista 53832
Don 53816
atorio 53815
Provincia 53740
eda 53706
ede 53689
tiempos 53682
positi@@ 53671
red@@ 53620
Mu@@ 53612
dinero 53610
inv@@ 53601
organiz@@ 53594
pe 53567
carretera 53566
1975 53525
tal@@ 53468
asign@@ 53458
fuentes 53444
arque@@ 53436
carga 53427
ell 53427
Cap@@ 53405
ped@@ 53391
amigo 53375
tido 53357
Av@@ 53331
Ciencias 53318
hubo 53302
Hor@@ 53262
tió 53233
A. 53224
fondo 53191
adquir@@ 53186
Virgen 53181
algún 53176
web 53173
qué 53152
Rey 53124
perman@@ 53096
U 53081
declaró 53047
tir 53038
ensa 53005
emiti@@ 52958
Diego 52954
investig@@ 52902
Bas@@ 52865
escena 52862
realiza 52851
estableció 52830
uta 52816
autor@@ 52813
gran@@ 52761
autoridades 52750
ficación 52687
din@@ 52674
encarg@@ 52631
doble 52620
onia 52599
Sar@@ 52593
isiones 52572
ak@@ 52551
iti@@ 52544
pequeñas 52517
plan 52512
Sch@@ 52508
regresó 52482
fundó 52470
suces@@ 52465
Fernández 52449
autores 52412
Rodríguez 52410
alguna 52394
títulos 52394
aplic@@ 52386
ánico 52377
produce 52353
ner 52313
1@@ 52307
mand@@ 52306
agr@@ 52297
Li@@ 52279
acus@@ 52273
icios 52237
tenido 52226
cas 52194
edo 52180
ler 52153
ex 52138
atoria 52132
endi@@ 52121
lago 52116
distribución 52087
Mas@@ 52082
1977 52079
sir@@ 52012
refer@@ 51992
Orden 51982
Mel@@ 51975
Mad@@ 51942
mantener 51918
análisis 51908
Tri@@ 51898
decisión 51894
Distrito 51817
que@@ 51810
35 51806
escrita 51789
hermana 51767
conf@@ 51765
objeto 51735
atribu@@ 51726
it 51717
oa 51689
aliza 51679
George 51678
efectos 51656
valle 51654
12@@ 51620
asoci@@ 51616
distintas 51597
publicación 51568
dirigido 51542
dispar@@ 51540
Tur@@ 51533
nada 51527
particip@@ 51496
naturaleza 51489
ger@@ 51460
reun@@ 51456
gir@@ 51446
ote 51442
futuro 51341
cadena 51266
originalmente 51265
Ju@@ 51257
anunci@@ 51237
provoc@@ 51231
ayud@@ 51222
ard 51211
llega 51194
Cur@@ 51144
1974 51143
siglos 51135
ost@@ 51105
consecuencia 51088
hab 51078
Mont@@ 51067
larga 51060
tro@@ 50956
cos@@ 50953
construir 50918
ub@@ 50914
fundada 50913
ces@@ 50905
und@@ 50841
Camp@@ 50840
derrot@@ 50828
enfermedad 50819
problema 50813
Ni@@ 50811
literatura 50783
ubic@@ 50733
tam@@ 50732
continu@@ 50719
Reg@@ 50708
astr@@ 50699
Nuevo 50675
alar@@ 50671
cali@@ 50667
desp@@ 50639
Era 50595
har@@ 50593
1,@@ 50583
Alfonso 50575
conde 50572
au 50568
libertad 50565
capit@@ 50553
ruso 50545
pobl@@ 50523
siguió 50522
cic@@ 50490
imágenes 50477
Federación 50447
recursos 50441
ega 50431
mul@@ 50408
artículos 50394
pintura 50358
Q@@ 50342
nomin@@ 50337
1972 50311
ale 50281
tomar 50263
experiencia 50262
sola 50259
clima 50255
Villa 50253
aparición 50240
técnica 50212
tó 50208
aus@@ 50184
variedad 50167
TV 50154
ave 50148
bastante 50113
verde 50111
cum@@ 50090
exterior 50088
inspir@@ 50076
ais@@ 50039
ter 50023
ak 50012
elimin@@ 50009
concepto 50004
rápidamente 50001
manten@@ 49990
pur@@ 49952
pic@@ 49936
Pre@@ 49915
nombres 49900
acia 49897
recuper@@ 49869
anim@@ 49862
perdió 49852
arquitectura 49848
psic@@ 49841
escal@@ 49833
permitió 49827
1968 49821
serv@@ 49819
sonido 49768
mal 49748
Educación 49740
fundado 49730
interes@@ 49723
Jean 49707
mit@@ 49706
visión 49662
mir@@ 49618
he@@ 49558
capitán 49537
peso 49465
actuación 49449
Portugal 49391
corte 49364
Alberto 49335
activo 49316
encuentro 49310
H 49265
design@@ 49225
salida 49224
corresponden 49178
reino 49148
inferior 49140
rot@@ 49118
Az@@ 49112
Is@@ 49092
eventos 49064
generación 49056
ficas 49042
ect@@ 49033
suc@@ 49032
ases@@ 48986
oria 48982
fundación 48976
gencia 48973
operaciones 48968
crisis 48966
universidad 48944
renov@@ 48942
tesis 48926
titular 48917
XVIII 48915
Ese 48906
Lo 48882
uela 48844
Pérez 48827
independencia 48813
semanas 48801
oca 48780
Ángeles 48754
ecta 48734
tab@@ 48719
World 48712
Popular 48642
gas@@ 48618
conocidos 48611
productor 48611
clases 48599
vos 48593
contaba 48576
griego 48569
eos 48556
flu@@ 48547
mes@@ 48536
acer@@ 48512
debajo 48509
estadio 48412
bo 48405
razón 48379
emb@@ 48366
derrota 48346
anes 48321
Salvador 48314
venta 48313
berg 48305
Os@@ 48295
máxima 48276
acept@@ 48256
electr@@ 48237
Son 48236
favor@@ 48227
rod@@ 48220
fuego 48188
respuesta 48169
Dos 48143
13@@ 48131
Uruguay 48101
reconocimiento 48074
gestión 48070
efectiv@@ 48065
indi@@ 48063
representación 48047
puesta 48030
Lima 47946
Valle 47930
salv@@ 47898
altitud 47883
dej@@ 47876
istán 47842
deben 47831
Pe@@ 47829
Fil@@ 47778
cosas 47778
exten@@ 47757
Radio 47740
ik@@ 47731
máximo 47712
gl@@ 47710
firme 47697
vivo 47688
bus@@ 47683
comercio 47653
1969 47627
participar 47613
llevar 47611
Si@@ 47589
Ci@@ 47581
regul@@ 47519
1930 47481
ech@@ 47457
siones 47447
antiguos 47442
med@@ 47384
into 47372
ualmente 47331
Sevilla 47324
pag@@ 47271
dirigió 47241
piezas 47232
afect@@ 47231
ca@@ 47224
Palacio 47202
agreg@@ 47197
adelante 47153
lider@@ 47142
nueve 47113
completamente 47104
pareja 47074
entreg@@ 47068
Sa@@ 47056
acerca 47044
sor@@ 47017
Rafael 47010
cias 47008
trasladó 46996
uales 46982
ciencia 46934
producto 46912
arla 46904
Sab@@ 46885
eco 46871
puente 46852
Ru@@ 46840
Civil 46826
É@@ 46822
45 46817
urban@@ 46806
neces@@ 46797
colaboración 46769
Super@@ 46758
Mil@@ 46754
fundador 46754
aquellos 46745
promedio 46743
Michael 46719
regreso 46686
fall@@ 46680
Asia 46673
comenzaron 46664
turas 46652
dar@@ 46646
composición 46645
anteriormente 46637
apoy@@ 46607
términos 46577
tivas 46558
Pl@@ 46533
1940 46531
ejecut@@ 46517
rode@@ 46500
municipios 46494
establec@@ 46476
elec@@ 46474
ulares 46469
materiales 46458
rea 46457
origin@@ 46437
museo 46431
Parque 46414
firma 46413
crit@@ 46400
Chi@@ 46389
Har@@ 46385
metro 46380
endido 46369
áticas 46366
ang 46355
diario 46347
flores 46318
XVI 46307
respectivamente 46285
1971 46214
llegaron 46197
erse 46194
vel@@ 46193
aer@@ 46175
amigos 46150
sta 46146
0@@ 46123
candidato 46117
alcalde 46115
ciendo 46114
video 46108
oriental 46105
temperatura 46104
proteg@@ 46095
conocer 46092
Go@@ 46077
prensa 46077
32 46055
pasa 46045
bra 46033
villa 46022
Comité 46021
entró 46020
mas 46017
je 46012
sen@@ 45982
Records 45947
conflicto 45871
tado 45858
cerr@@ 45836
periodista 45813
musicales 45810
objetos 45808
comenz@@ 45791
ah 45727
titulado 45718
orr@@ 45711
juega 45691
iba 45684
ológicos 45682
1945 45680
Plaza 45675
conocimiento 45662
Federal 45661
Martínez 45657
illos 45646
impres@@ 45641
torre 45636
Características 45621
extremo 45621
hora 45602
lleg@@ 45569
gar 45556
mismos 45542
combin@@ 45537
motivo 45532
listas 45490
zación 45469
generales 45466
pronto 45456
hacen 45445
1967 45438
creada 45431
Min@@ 45424
ge 45387
reo 45383
mos 45375
enso 45370
Eduardo 45367
Constitución 45363
lag@@ 45350
Estadio 45344
City 45343
K 45339
modelos 45331
continuación 45300
posteriores 45287
rojo 45284
unión 45228
Vol@@ 45178
Municipio 45163
volver 45148
extensión 45126
menores 45122
conquist@@ 45118
ier@@ 45114
Sol 45113
inal 45101
vino 45077
rango 45051
paz 45042
niveles 45025
uro 45008
noroeste 45004
vivir 44982
forman 44964
anda 44962
alizada 44954
trabaj@@ 44948
Washington 44936
construyó 44935
Me@@ 44919
1936 44915
une 44887
igo 44876
calles 44870
Colegio 44855
atas 44853
régimen 44850
oposición 44840
Asamblea 44822
acc@@ 44795
Bol@@ 44740
adamente 44738
Española 44727
dientes 44724
incluido 44696
Austria 44675
cuer@@ 44656
ban@@ 44655
alizado 44641
Fu@@ 44612
Tour 44610
decide 44608
protección 44599
League 44589
ono 44585
Tar@@ 44565
hojas 44563
encial 44546
Plata 44496
sala 44478
premios 44476
llama 44457
institución 44432
Mar 44369
inicialmente 44367
estrella 44346
intent@@ 44343
coc@@ 44335
som@@ 44330
fun@@ 44315
frecuencia 44294
basada 44288
cierto 44288
D. 44280
Arte 44255
asesin@@ 44253
ruta 44212
ecimiento 44186
llegando 44181
von 44176
tig@@ 44161
amar@@ 44157
ganado 44122
alemana 44120
Ecuador 44078
rum@@ 44077
acion 44075
control@@ 44057
Alejandro 44049
Charles 44038
compositor 44036
contenido 44005
ong 43994
Pin@@ 43976
hogar 43965
producido 43957
Ol@@ 43944
firmó 43927
til 43920
clubes 43911
mont@@ 43907
1964 43904
ificación 43873
ven 43865
aviones 43855
adecu@@ 43747
operación 43740
estadounidenses 43716
estrenó 43697
figuras 43685
Derecho 43672
acional 43644
económico 43621
contempor@@ 43616
acab@@ 43600
Ganó 43585
feder@@ 43582
cuadr@@ 43567
Polonia 43553
latinos 43551
ríos 43546
realiz@@ 43528
idioma 43521
perf@@ 43508
íes 43499
iso 43491
disputó 43482
secretario 43477
encontró 43469
transmi@@ 43466
lido 43452
terreno 43445
impuls@@ 43442
desarrolló 43439
formato 43439
Cab@@ 43431
médico 43366
usar 43360
onía 43340
sp@@ 43332
Sierra 43287
vis@@ 43287
divi@@ 43257
maestro 43250
ascenso 43238
1966 43226
autom@@ 43207
ún 43199
ari 43169
nav@@ 43158
comandante 43153
eños 43145
ram@@ 43143
Antes 43131
Cultura 43121
diócesis 43108
elabor@@ 43074
necesidad 43072
ocupación 43071
Junta 43066
Categoría 43035
apa 43026
Mir@@ 43017
buen 43013
competición 42997
rep@@ 42964
via 42962
tratamiento 42947
británica 42944
tora 42910
bil@@ 42905
Ella 42894
habría 42867
resistencia 42867
Fundación 42832
Nor@@ 42819
yac@@ 42816
ancho 42799
fon@@ 42781
ates 42773
seguir 42771
Hum@@ 42759
esqu@@ 42742
siguiendo 42734
ades 42712
ensis 42710
luch@@ 42703
alter@@ 42701
quer@@ 42687
instalaciones 42671
Hab@@ 42670
suele 42665
basado 42662
Torneo 42661
och@@ 42655
provincias 42652
posibilidad 42622
ast@@ 42614
voc@@ 42613
tis 42612
vivió 42604
ectos 42588
etos 42577
Fl@@ 42573
iría 42558
lados 42548
similares 42523
proporcion@@ 42522
eli@@ 42521
Rom@@ 42518
reina 42496
Daniel 42489
Cataluña 42445
don 42431
ce@@ 42418
sent@@ 42418
especí@@ 42401
queda 42388
hechos 42384
Media 42366
mun@@ 42362
mezcla 42357
Ana 42356
aplicación 42350
Thomas 42342
narr@@ 42310
relev@@ 42293
críticas 42287
lan@@ 42278
He@@ 42276
intento 42275
Isabel 42269
detrás 42269
adura 42252
mexicano 42238
alistas 42226
14@@ 42225
ilio 42220
convertirse 42180
Sec@@ 42179
utilizar 42171
1965 42164
vuelve 42126
frag@@ 42121
ográfico 42101
entas 42100
recibe 42052
contacto 42038
olí@@ 42036
nov@@ 42034
retr@@ 42027
tecnología 42013
explor@@ 41996
compuesta 41989
interpretó 41970
mut@@ 41955
situ@@ 41946
tida 41941
Mundo 41940
recur@@ 41923
ecu@@ 41920
2,@@ 41898
1920 41888
Uno 41814
marcha 41804
ula 41797
distin@@ 41791
3.@@ 41779
Deportivo 41775
instituciones 41772
ren@@ 41742
Sil@@ 41734
colores 41724
Sin@@ 41717
prob@@ 41703
vent@@ 41702
uy@@ 41682
carta 41675
método 41672
Lor@@ 41659
Sp@@ 41645
territorios 41634
grafía 41615
idor 41611
F. 41583
ord@@ 41563
CD 41523
dé@@ 41520
barr@@ 41504
ám@@ 41487
Israel 41486
Mayor 41468
cree 41464
ou@@ 41445
traduc@@ 41441
Hasta 41439
llen@@ 41426
duc@@ 41395
by 41364
Cuba 41349
humano 41336
sexual 41319
Ge@@ 41308
diplom@@ 41304
metal 41298
secre@@ 41288
estaciones 41274
aumento 41273
arán 41251
diferente 41239
pista 41182
desarrollado 41155
necesario 41154
escuelas 41151
Guillermo 41132
pintor 41129
poeta 41128
Del@@ 41118
solamente 41107
Cámara 41101
vuelo 41100
1962 41090
Hol@@ 41072
ot 41070
debía 41069
deleg@@ 41060
ili@@ 41028
anz@@ 41012
Str@@ 41009
Paz 41000
posiciones 41000
publicada 40991
arquitecto 40989
cola 40982
propios 40977
dando 40975
memoria 40955
fe@@ 40933
añadi@@ 40904
sig@@ 40890
onales 40882
pidió 40849
les@@ 40808
document@@ 40798
capaz 40794
carreras 40786
Peter 40784
No@@ 40778
naturales 40767
dific@@ 40744
Andrés 40725
periódico 40714
décadas 40706
amor@@ 40692
eva 40670
niño 40662
Estr@@ 40657
denominado 40648
lit@@ 40636
1963 40614
parroquia 40601
Guatemala 40593
enz@@ 40569
legisl@@ 40535
aja 40527
Berlín 40522
Tom@@ 40506
1939 40505
Edad 40490
Europeo 40477
órdenes 40466
Facultad 40451
300 40427
comienzo 40413
Revolución 40407
convierte 40407
ideas 40396
Gi@@ 40381
bres 40368
To@@ 40350
ph@@ 40337
abor@@ 40329
japonés 40313
hispanos 40311
Ho@@ 40295
avión 40292
ben 40240
je@@ 40198
Cada 40186
mac@@ 40173
ac 40172
Ag@@ 40168
fan@@ 40166
ofrec@@ 40164
debutó 40149
convoc@@ 40125
Ángel 40122
edió 40119
gen 40103
técnicas 40083
33 40078
ont@@ 40061
príncipe 40056
escol@@ 40053
alidades 40049
ki 40041
Pen@@ 40029
tec@@ 40028
difícil 40023
dedic@@ 40018
ango 40008
complejo 39974
tratado 39972
Julio 39960
coron@@ 39953
ho@@ 39952
construida 39913
centros 39909
Desarrollo 39900
realizada 39873
# 39866
land 39862
fera 39832
eve 39824
nombr@@ 39822
diputado 39817
tim@@ 39816
nave 39814
¿ 39814
ens 39812
comerciales 39806
residiendo 39779
Music 39764
avi@@ 39759
palacio 39755
pertenece 39737
estudió 39736
puerta 39722
const@@ 39718
Nu@@ 39708
gráfico 39708
Vicente 39704
logr@@ 39700
fol@@ 39689
alb@@ 39688
inicial 39672
vincul@@ 39656
Sánchez 39614
ambiente 39613
Castillo 39579
aquí 39570
poder@@ 39568
ton@@ 39561
azul 39509
gado 39506
exposición 39469
Asimismo 39459
tima 39446
designado 39445
ger 39442
Domingo 39425
ond@@ 39392
div@@ 39385
iciones 39384
simplemente 39375
fus@@ 39345
alemanes 39338
ilustr@@ 39287
res 39285
can 39281
vid@@ 39263
Mur@@ 39239
anot@@ 39228
puestas 39228
Ramón 39223
escri@@ 39209
caracteriz@@ 39204
cir@@ 39202
conciertos 39200
cambió 39171
prov@@ 39167
conseguir 39157
católica 39150
ava 39148
directo 39140
Kar@@ 39120
ros 39120
resid@@ 39102
ite 39091
populares 39084
ofrece 39073
habla 39071
Corea 39065
pie 39040
ore 39023
diendo 39005
Bolivia 38997
dominio 38996
Bat@@ 38991
comple@@ 38970
medallas 38949
1958 38936
amo 38922
ust@@ 38916
sello 38898
destaca 38891
bandas 38863
acep@@ 38861
endas 38842
Cristo 38840
ras 38831
oz 38815
Allí 38812
ten 38797
estatal 38795
trabajadores 38737
cero 38729
mente 38708
Otras 38705
deportiva 38697
científicamente 38686
ónicas 38685
olo 38664
proclam@@ 38656
J. 38642
demostr@@ 38633
destacan 38631
teniendo 38597
Grande 38570
pérdida 38562
altos 38556
presidencia 38553
pasando 38540
Sub@@ 38528
considerada 38520
alej@@ 38516
Naciones 38504
poli@@ 38495
azado 38491
pop 38470
ticamente 38469
capilla 38468
cámara 38425
deportista 38425
duque 38416
células 38413
Aragón 38405
Ya 38383
organizaciones 38378
comunidades 38363
sufr@@ 38350
ieren 38348
Do@@ 38347
bar 38331
Ang@@ 38321
icia 38318
poca 38318
1944 38314
árabe 38298
uto 38295
producir 38294
Tel@@ 38261
leyes 38257
bosques 38250
apertura 38235
oy@@ 38225
campos 38212
ablemente 38205
decor@@ 38203
actores 38186
ución 38151
ville 38146
caída 38131
completa 38105
person@@ 38090
ble 38089
colectiv@@ 38089
complet@@ 38089
micro@@ 38083
At@@ 38074
azar 38044
Dem@@ 38042
pil@@ 38038
plat@@ 38037
Pu@@ 38036
experiment@@ 38018
vió 38011
ejo 37996
Soviética 37995
cán@@ 37990
ánea 37987
cuenca 37982
península 37970
amplia 37966
nacimiento 37966
defens@@ 37950
enseñ@@ 37945
salió 37945
falleció 37927
italiana 37924
oportunidad 37911
Martin 37899
famoso 37899
mus@@ 37896
transform@@ 37893
hon@@ 37881
stas 37876
estructuras 37872
valores 37868
1941 37849
estrellas 37847
responsable 37844
múltiples 37835
papa 37811
series 37808
flor@@ 37800
biendo 37787
movimientos 37776
mentos 37765
XVII 37761
física 37755
Ay@@ 37743
destin@@ 37743
americanos 37742
golpe 37732
hacía 37719
sa@@ 37717
cop@@ 37708
1956 37686
eder@@ 37679
hábitat 37664
Banco 37619
Res@@ 37612
Medi@@ 37608
Vil@@ 37596
Richard 37579
milit@@ 37561
lá@@ 37547
áneo 37542
1948 37515
naveg@@ 37510
números 37506
clave 37499
1961 37491
argum@@ 37466
histórica 37462
Luc@@ 37456
indica 37451
Pat@@ 37447
competencia 37435
ñas 37409
vecinos 37395
edor 37368
teri@@ 37358
fe 37353
Poco 37347
ético 37329
libr@@ 37327
cau@@ 37323
él@@ 37317
consist@@ 37287
Algunas 37285
Todos 37271
hem@@ 37271
udi@@ 37260
vot@@ 37258
36 37251
Lin@@ 37237
ern@@ 37234
montaña 37203
ocupó 37199
rem@@ 37193
ai@@ 37171
refiere 37166
iente 37157
elli 37156
vers@@ 37129
ible 37104
lar 37092
Patr@@ 37059
ancias 37058
grabación 37057
conv@@ 37049
Bot@@ 37048
quiere 37042
indígenas 37026
br 37022
concierto 37017
Seg@@ 37016
mel@@ 36999
usado 36993
dico 36990
comunic@@ 36988
orado 36974
sabe 36972
cursos 36969
viaj@@ 36969
técnico 36968
lenguas 36954
dir@@ 36948
vías 36937
tismo 36919
vic@@ 36890
abierto 36878
peces 36875
dejar 36871
pun@@ 36867
humana 36866
ich@@ 36859
Mis@@ 36857
poner 36855
concentr@@ 36841
dica 36833
escala 36825
guerr@@ 36824
formada 36813
record@@ 36802
Maria 36799
escenario 36779
señor 36778
anzas 36773
ere 36767
mot@@ 36757
concurso 36753
suj@@ 36745
obten@@ 36733
core@@ 36732
lab@@ 36723
escribir 36705
tropical 36699
contrario 36695
Hom@@ 36679
sufrió 36678
progres@@ 36670
compitió 36659
result@@ 36645
em 36641
uz@@ 36638
pier@@ 36635
vil@@ 36629
cargos 36626
sangre 36620
guitarra 36611
Justicia 36607
Ram@@ 36602
ber 36587
Vic@@ 36586
republic@@ 36585
aspecto 36577
for 36572
ámbito 36556
Im@@ 36539
calific@@ 36539
aliment@@ 36536
estre 36519
aparecen 36510
franceses 36506
vive 36503
cuarta 36486
Isla 36478
Victoria 36473
Trans@@ 36459
Batalla 36456
totalmente 36455
dida 36447
prisión 36447
embar@@ 36440
oz@@ 36432
asegur@@ 36423
Cant@@ 36417
Irlanda 36411
permaneció 36405
recibido 36403
interpretación 36401
aud@@ 36398
400 36396
consiste 36394
cula 36394
busca 36389
tes@@ 36383
senti@@ 36357
transfer@@ 36357
tiles 36342
34 36340
comput@@ 36338
expresión 36322
arg@@ 36314
medidas 36305
Red 36298
código 36298
utilizando 36298
recién 36296
alizar 36292
consecu@@ 36289
Nuestra 36279
Rica 36278
anual 36268
didas 36259
judíos 36257
núcleo 36244
ou 36243
Me 36232
ariamente 36232
intención 36229
puertas 36217
enes 36200
tre 36171
revel@@ 36159
Far@@ 36151
iden 36145
ke 36139
apr@@ 36138
invit@@ 36132
noreste 36125
Él 36114
pir@@ 36104
plano 36083
ambi@@ 36048
liter@@ 36030
fut@@ 36027
proy@@ 36012
entren@@ 36011
denominada 36007
límite 35982
industrial 35979
Gómez 35972
alg@@ 35970
presa 35961
cens@@ 35955
episodios 35952
resultó 35952
gradu@@ 35948
Gener@@ 35940
descubierto 35938
estra 35925
adapt@@ 35896
1959 35895
llamó 35894
iga 35893
Premios 35885
Kr@@ 35878
ual 35876
desempeñó 35836
electoral 35831
ocasión 35830
ataques 35818
You 35799
im 35796
condición 35783
AR@@ 35782
quit@@ 35782
cent@@ 35778
Dr. 35776
Avenida 35759
dev@@ 35741
1957 35736
tej@@ 35708
enden 35704
podían 35700
menes 35699
óm@@ 35695
Islas 35683
altas 35680
conden@@ 35680
expedición 35677
j 35672
fiesta 35668
ológicas 35639
ult@@ 35630
Nació 35623
asociación 35618
eciendo 35615
rech@@ 35615
vención 35603
1955 35600
uni@@ 35579
Leg@@ 35571
propuesta 35568
romano 35564
plant@@ 35523
burgo 35506
uer@@ 35487
Granada 35479
asiáticos 35476
letras 35476
Fre@@ 35470
culturales 35464
pies 35455
Park 35439
cruz@@ 35439
ónicos 35437
encima 35436
1943 35433
lic@@ 35422
00 35420
identidad 35417
participantes 35406
piloto 35406
Oro 35383
seguido 35377
ich 35371
dejando 35365
Países 35354
ísticas 35354
period@@ 35347
estudiar 35336
alcanz@@ 35331
ben@@ 35303
Ricardo 35301
comienzos 35300
masa 35296
ezas 35278
Municipal 35277
Egipto 35276
‘ 35266
Suecia 35240
afir@@ 35240
ade 35225
asesinato 35222
38 35204
arqu@@ 35194
la@@ 35184
mam@@ 35174
Bl@@ 35173
corto 35165
marco 35161
hidro@@ 35160
Ir@@ 35159
mos@@ 35155
textos 35155
viv@@ 35147
lat@@ 35139
adr@@ 35132
únicamente 35126
1942 35120
Cel@@ 35106
ices 35105
Región 35085
reco@@ 35056
abund@@ 35053
ox@@ 35052
dios 35034
accidente 35025
discos 35015
encu@@ 35012
Estación 35009
dedi@@ 34999
didos 34999
estu@@ 34981
urbano 34979
invierno 34968
Estudios 34946
abajo 34931
abogado 34931
doc@@ 34909
Alto 34903
ordenó 34898
licenci@@ 34892
eri@@ 34888
obr@@ 34887
w 34864
tin@@ 34862
conoc@@ 34860
VI 34859
escudo 34854
recibir 34851
enfer@@ 34847
poblaciones 34845
ick 34824
caracter@@ 34823
regional 34809
demasiado 34798
aument@@ 34797
utilizan 34792
reconocido 34790
apenas 34787
encontrado 34766
amenaz@@ 34761
Grecia 34733
ís 34700
denominación 34691
últimas 34658
íos 34621
fa 34615
ganador 34609
ferrocarril 34600
cot@@ 34596
conoció 34588
visita 34579
Díaz 34571
dot@@ 34535
Pel@@ 34534
públicas 34530
Man 34512
cionales 34505
nación 34502
ü@@ 34497
árboles 34483
emas 34445
car 34443
Atlético 34408
descri@@ 34408
ans@@ 34402
ax@@ 34375
asent@@ 34373
alla 34369
argentina 34364
mant@@ 34358
Edi@@ 34345
salir 34340
ciudadanos 34329
onda 34317
ster 34308
Mario 34302
65 34296
Mes@@ 34280
vali@@ 34279
afroamericanos 34278
Texas 34254
encabez@@ 34247
Agu@@ 34235
otom@@ 34234
Pir@@ 34225
especiales 34219
ejer@@ 34212
Canal 34195
vídeo 34181
anci@@ 34174
1946 34170
autoridad 34163
hospital 34157
plataforma 34157
Nicolás 34156
labor 34142
contin@@ 34124
uo 34124
comunes 34122
Fer@@ 34117
entrar 34090
oría 34085
natal 34082
Economía 34060
Social 34056
arle 34023
bandera 34023
gió 34010
lev@@ 34007
femenino 33994
ican 33984
cierta 33980
permiti@@ 33962
fér@@ 33960
exp@@ 33952
Char@@ 33946
ayudar 33944
1952 33941
Señora 33938
fuertes 33936
istir 33928
aprob@@ 33924
1949 33922
claro 33908
respon@@ 33908
estimada 33906
Hospital 33904
quinto 33888
involucr@@ 33883
ago 33873
ahí 33847
doce 33840
coronel 33834
sen 33829
sovi@@ 33823
mix@@ 33821
Sistema 33811
lenguaje 33810
arco 33803
sureste 33787
describe 33780
procesos 33779
convertido 33778
coleóptero 33774
reemplaz@@ 33773
bre@@ 33770
Parlamento 33759
torio 33758
propias 33751
só@@ 33749
propiedades 33748
destino 33744
acion@@ 33740
religión 33723
Lim@@ 33716
Prim@@ 33711
estándar 33694
récord 33691
Mol@@ 33682
lograr 33669
uma 33658
desplaz@@ 33643
Sur@@ 33640
lav@@ 33631
letra 33601
reduc@@ 33594
vehículos 33590
ko 33582
ides 33575
franqu@@ 33567
64 33541
usando 33532
directa 33526
regular 33526
juicio 33525
activa 33511
pasajeros 33483
tador 33483
tia 33472
Federico 33469
1954 33442
reclam@@ 33441
jur@@ 33436
bajas 33435
moderna 33432
públicos 33432
romana 33429
Brit@@ 33420
reinado 33377
pint@@ 33376
Ten@@ 33372
nia 33363
Europea 33351
ine@@ 33350
ene 33296
búsqueda 33288
1938 33270
conquista 33263
ision@@ 33258
reunión 33235
4.@@ 33234
fusión 33221
Dar@@ 33210
teniente 33209
quím@@ 33207
aur@@ 33204
imos 33200
regres@@ 33200
du 33157
Mus@@ 33155
Suiza 33137
1937 33135
violencia 33134
protagonista 33125
Superior 33124
retiró 33115
1947 33114
Taxonomía 33103
géneros 33102
1953 33100
catedral 33086
filosofía 33080
tran@@ 33078
Soci@@ 33075
mem@@ 33061
oh@@ 33052
tradicionales 33049
aspectos 33045
Sim@@ 33038
field 33037
equip@@ 33029
Bajo 33011
Sud@@ 33010
copias 32979
bel@@ 32966
corazón 32960
profesionales 32948
Gol@@ 32939
suficiente 32922
trabajando 32919
viene 32918
raíz 32878
potencia 32874
eria 32865
Serie 32858
convirtiéndose 32856
Dur@@ 32846
suelen 32823
entado 32820
ventas 32818
42 32815
march@@ 32814
ojos 32814
mina 32808
baloncesto 32800
char@@ 32800
forz@@ 32798
entorno 32795
éticos 32780
contó 32778
may@@ 32778
inicios 32769
conclu@@ 32768
Ministro 32763
Love 32761
mantiene 32761
75 32758
categorías 32736
Roberto 32716
Javier 32709
compañeros 32707
reforma 32691
Rock 32683
B. 32679
clásico 32675
lec@@ 32673
Chicago 32669
presentan 32651
Fon@@ 32637
Compañía 32632
oscur@@ 32631
org@@ 32626
Otro 32605
relacionados 32602
Cine 32596
ty 32591
IN@@ 32588
abrió 32588
Fuerza 32565
Organización 32563
álbumes 32556
Nov@@ 32554
American 32552
amerindios 32535
UN@@ 32530
CO@@ 32524
poesía 32524
planeta 32517
prohib@@ 32507
J 32500
ísticos 32490
Florida 32488
bios 32488
Zaragoza 32477
ól@@ 32473
corriente 32471
ly 32460
fundament@@ 32452
documentos 32445
fachada 32445
cuerpos 32439
dul@@ 32439
adel@@ 32433
Paraguay 32420
ejas 32396
materia 32390
segundos 32378
enf@@ 32375
arlos 32372
sosten@@ 32372
establecer 32366
distingu@@ 32360
Bretaña 32353
artes 32351
invasión 32331
Occidental 32314
tiz@@ 32310
equ@@ 32299
concre@@ 32293
elemento 32288
Lee 32274
Dor@@ 32271
correc@@ 32267
desc@@ 32262
Existen 32250
parlament@@ 32250
aquella 32230
retir@@ 32229
simple 32226
envió 32214
Sebastián 32209
Dr@@ 32208
Henry 32195
bano 32181
nas@@ 32176
ette 32175
Jer@@ 32161
volumen 32159
allá 32148
impacto 32142
civiles 32136
aceae 32135
agricultura 32132
músico 32130
q@@ 32123
Lic@@ 32103
bosque 32103
ans 32101
barco 32099
empl@@ 32078
secundaria 32071
Música 32069
montañas 32066
cuadro 32057
coordin@@ 32051
combati@@ 32050
rio 32044
vesti@@ 32042
suroeste 32033
protagoniz@@ 32029
Rosario 32011
familiar 32009
promoción 32004
recorrido 31996
conect@@ 31982
patri@@ 31979
escenas 31975
egr@@ 31965
cer 31944
Corte 31940
latín 31933
toc@@ 31908
2022 31907
nati@@ 31907
descrito 31902
Frente 31895
grabado 31888
cambiar 31885
llevado 31885
deten@@ 31871
Comunidad 31847
localidades 31837
iy@@ 31826
W 31825
nac@@ 31807
pieza 31806
página 31795
Comun@@ 31791
Vel@@ 31780
neas 31768
sirvió 31766
deb@@ 31754
ficción 31734
corta 31731
izo 31723
iste 31715
37 31714
quería 31700
duración 31676
ey@@ 31676
iza 31672
1931 31670
disponible 31652
evolución 31646
Joseph 31645
historiador 31631
dig@@ 31630
Santos 31629
cumpli@@ 31627
Ali@@ 31621
Smith 31614
armente 31612
Trabaj@@ 31603
Fi@@ 31602
europeos 31600
eter@@ 31597
monasterio 31591
expansión 31590
Uni@@ 31588
desempeñ@@ 31573
riesgo 31562
formes 31560
muerto 31559
rí@@ 31551
isl@@ 31548
Pon@@ 31545
mientos 31542
multi@@ 31538
suministr@@ 31532
urgo 31532
College 31528
itud 31515
dedicó 31504
dedicado 31503
M. 31491
Ayuntamiento 31485
Unidas 31459
Sant@@ 31456
formando 31450
EE 31449
fondos 31442
seleccion@@ 31436
verso 31423
prove@@ 31410
incluida 31391
aeropuerto 31378
ford 31375
1933 31370
Moscú 31370
Tres 31359
consum@@ 31358
residencia 31354
uch@@ 31311
lad@@ 31303
Bajos 31301
privada 31300
chino 31298
editorial 31294
encar@@ 31283
hid@@ 31280
diseñado 31268
id 31266
úr@@ 31263
constru@@ 31260
mexicana 31244
conocidas 31241
48 31229
ciudad@@ 31229
reales 31209
Fe 31207
egas 31197
pico 31186
bombar@@ 31184
ng@@ 31182
adero 31180
acán 31176
prefer@@ 31175
federal 31158
sub 31145
Participó 31143
Muchos 31111
oles 31101
contexto 31076
ecas 31073
decreto 31069
aleg@@ 31067
oci@@ 31066
redes 31065
Escu@@ 31056
piano 31056
introduc@@ 31054
árbol 31050
mó@@ 31034
habl@@ 31024
Tab@@ 31018
Hi@@ 31003
corpor@@ 30991
Carmen 30987
implic@@ 30984
XIII 30981
Torre 30978
sufici@@ 30976
S. 30939
normalmente 30933
frut@@ 30902
tempor@@ 30902
usuarios 30900
celebró 30882
5.@@ 30869
terminar 30862
52 30849
crip@@ 30845
Ing@@ 30844
osis 30835
44 30833
ender@@ 30821
llevaron 30819
ámica 30813
Cuenta 30804
crítico 30795
haya 30792
cóm@@ 30790
cubierta 30788
cultiv@@ 30782
entrevista 30779
efici@@ 30763
ebr@@ 30761
zos 30747
aw@@ 30728
ulación 30726
incluyó 30723
55 30722
chi@@ 30710
juntos 30708
presentación 30689
Panamá 30687
revolucion@@ 30682
Bon@@ 30667
nombró 30660
Rosa 30654
fl@@ 30646
desarrollar 30628
junta 30623
hel@@ 30622
Mé@@ 30621
arra 30615
utilizó 30595
Lar@@ 30594
pion@@ 30594
Junto 30593
siguieron 30591
diferencias 30580
fran@@ 30578
ís@@ 30578
previ@@ 30557
particularmente 30545
deja 30540
Loc@@ 30534
uros 30533
Inf@@ 30530
británicos 30525
eléctrica 30525
comarca 30519
mandato 30510
presentado 30507
planes 30494
udo 30489
itación 30473
marcó 30473
all 30472
antiguas 30465
viera 30451
Otra 30445
deci@@ 30436
once 30435
mann 30427
virtu@@ 30399
ski 30397
cial 30393
idi@@ 30379
ubicación 30373
1934 30366
dedicada 30366
ándole 30366
oni 30364
pertenecían 30364
logra 30360
dura 30358
pocas 30354
enses 30352
1951 30350
3,@@ 30340
age 30340
reacción 30339
llamados 30332
erías 30322
incluía 30312
compon@@ 30299
Castro 30293
objetivos 30293
artístico 30274
trono 30268
Monte 30243
publicaciones 30240
ric@@ 30240
actuales 30239
practic@@ 30238
¡ 30218
festival 30216
relativamente 30214
historias 30208
representante 30203
producida 30197
tramo 30197
ches 30192
crec@@ 30189
Prot@@ 30176
carse 30165
tabla 30163
pobreza 30158
entidad 30154
str@@ 30134
ocupa 30127
corresponde 30125
sol 30121
Tam@@ 30114
chil@@ 30103
ani@@ 30096
consumo 30086
Il@@ 30072
flota 30057
ip@@ 30044
activos 30037
cú@@ 30031
breve 30027
religiosa 30026
cercano 30024
merc@@ 30024
preten@@ 30016
bir@@ 30010
blanca 30008
ts 29992
bles 29982
originales 29980
transmisión 29979
Oriental 29975
revolución 29975
homenaje 29969
sus@@ 29958
externos 29956
músicos 29955
alfab@@ 29940
eh@@ 29934
rol 29929
Administración 29923
popularidad 29923
espacios 29899
destacar 29897
comparti@@ 29894
Ba@@ 29878
Mejor 29876
condu@@ 29875
itar 29871
provincial 29869
crito 29858
propósito 29858
razones 29858
poderes 29848
ém@@ 29840
difun@@ 29832
investigaciones 29830
adía 29813
dó@@ 29811
icidad 29810
Gor@@ 29807
figur@@ 29797
científico 29789
fas@@ 29789
constante 29784
protagonizada 29775
dil@@ 29770
comedia 29760
gos 29726
ándolo 29724
ciclo 29720
históricos 29720
mañana 29714
sup@@ 29710
aproxim@@ 29707
límites 29706
precio 29702
1935 29696
bienes 29695
motivos 29695
trac@@ 29687
teros 29684
Aut@@ 29681
estad@@ 29676
templ@@ 29672
film@@ 29664
característica 29662
isti@@ 29657
ún@@ 29654
Liber@@ 29647
St 29645
óg@@ 29637
cabecera 29627
reempl@@ 29626
sali@@ 29623
odi@@ 29603
expuls@@ 29586
muestran 29586
cir 29581
arreg@@ 29559
cia 29542
compañero 29540
líderes 29539
ons 29521
plic@@ 29518
School 29508
registro 29505
depend@@ 29502
sindic@@ 29496
lí@@ 29494
tería 29471
hí@@ 29463
marido 29463
EP 29462
enos 29455
1929 29449
conservación 29447
All 29443
críticos 29442
adaptación 29433
ent 29433
muertos 29429
quin@@ 29422
enviado 29419
imo 29418
ediciones 29411
opinión 29408
Ul@@ 29395
cientos 29387
afirmó 29383
podrían 29380
formaron 29374
revistas 29371
implement@@ 29368
abandonó 29365
far@@ 29361
1932 29360
39 29358
diámetro 29354
Ó@@ 29349
experim@@ 29345
Tro@@ 29342
úa 29340
Centr@@ 29336
mejorar 29318
asum@@ 29313
deber@@ 29306
chileno 29303
arquía 29302
Nav@@ 29294
jar 29290
comand@@ 29282
motores 29277
entrega 29250
usión 29237
tren 29232
moderno 29229
aí@@ 29213
haci@@ 29212
fábrica 29208
sober@@ 29203
misiones 29193
zar@@ 29191
identes 29190
li 29189
porte 29188
quedando 29180
már@@ 29179
Plan@@ 29177
femenina 29164
ek 29163
onen 29151
1918 29148
tron@@ 29136
quién 29134
nacion@@ 29113
paral@@ 29110
cuyos 29105
europeo 29105
guard@@ 29100
ial 29098
machos 29085
VII 29082
verse 29076
regresar 29075
utilizada 29072
bases 29054
up@@ 29048
Tribunal 29046
ā@@ 29041
orient@@ 29039
barcos 29020
desaparec@@ 29014
priv@@ 29010
Defensa 29001
dinastía 28993
instrumentos 28989
éste 28984
Agr@@ 28972
acio 28966
Bre@@ 28947
Toledo 28941
Billboard 28931
consul@@ 28926
naval 28926
ri 28926
obteniendo 28920
notable 28915
digital 28907
consegu@@ 28906
iller@@ 28904
tros 28897
ajas 28889
víctimas 28874
sectores 28872
Dec@@ 28864
venc@@ 28856
Hal@@ 28846
Armada 28832
conse@@ 28831
alo 28830
elenco 28826
Dom@@ 28815
simb@@ 28812
consagr@@ 28808
dismo 28805
allas 28803
dram@@ 28794
Marina 28790
inmediatamente 28790
rá@@ 28786
comportamiento 28784
ingeniero 28781
métodos 28778
conserva 28766
ingres@@ 28757
tienda 28748
ume 28748
áng@@ 28737
Estudió 28725
pregun@@ 28718
Ban@@ 28714
.. 28700
rápido 28697
tex@@ 28696
Vir@@ 28691
llan@@ 28670
corona 28648
Mot@@ 28626
establecido 28626
César 28621
Arm@@ 28619
audiencia 28610
venezol@@ 28606
ple@@ 28603
afirma 28595
Biblioteca 28582
Oriente 28582
sín@@ 28573
chó 28566
Catedral 28563
prácticamente 28563
universit@@ 28560
oral 28557
óst@@ 28551
aport@@ 28547
Wil@@ 28542
contrat@@ 28531
ilidad 28530
victorias 28518
Navarra 28508
artística 28502
mismas 28502
típ@@ 28500
fu@@ 28495
recib@@ 28491
provocó 28490
blo@@ 28481
elle 28478
apreci@@ 28476
inferiores 28469
Constitu@@ 28468
Bélgica 28430
1928 28424
Aeropuerto 28419
documental 28419
atrás 28404
neur@@ 28392
realizaron 28389
allo 28381
siguen 28378
alia 28376
veinte 28369
pinturas 28365
lea 28352
asist@@ 28351
om 28343
hierro 28337
radic@@ 28329
abl@@ 28319
superiores 28318
profundidad 28307
ingreso 28305
Royal 28304
Louis 28296
chi 28291
informe 28279
gig@@ 28257
caballer@@ 28251
exit@@ 28227
nea 28225
Sam@@ 28221
volun@@ 28212
msnm 28211
43 28206
onal@@ 28204
genes 28195
increm@@ 28188
Primer 28180
Campo 28177
empez@@ 28168
Tu@@ 28160
explo@@ 28160
are 28158
bail@@ 28156
señal 28153
May@@ 28152
aldo 28144
Apo@@ 28128
omo 28115
ismos 28112
dan@@ 28101
pantalla 28098
ker 28095
Tal@@ 28086
científicos 28067
fres@@ 28065
tasa 28061
espectadores 28059
Franco 28053
camp@@ 28053
ong@@ 28053
Gabriel 28049
National 28048
onado 28047
ō 28040
bir 28038
usos 28030
edia 28026
Bus@@ 28025
Ven@@ 28023
australi@@ 28021
Lorenzo 28013
mec@@ 28007
acta 28002
igi@@ 28001
ría 28001
excepción 27998
evalu@@ 27967
CA@@ 27961
intentó 27961
cron@@ 27959
habitual 27952
destacado 27932
grav@@ 27931
química 27912
Barr@@ 27909
alimentos 27904
cultivo 27896
diferenci@@ 27894
descar@@ 27887
caron 27885
41 27883
someti@@ 27882
Cru@@ 27870
ane 27868
Tratado 27861
compañías 27860
permi@@ 27856
cal 27854
apun@@ 27847
dat@@ 27847
enseñanza 27828
demanda 27812
proc@@ 27811
excepto 27810
dol@@ 27804
mejor@@ 27797
pap@@ 27796
Pap@@ 27779
Oc@@ 27778
tráfico 27773
ire 27771
empate 27759
éc@@ 27751
ele 27748
ciertos 27742
Movimiento 27741
instruc@@ 27734
noticias 27726
monumento 27720
histori@@ 27717
Internet 27711
ógrafo 27698
escritos 27685
abier@@ 27671
rosa 27667
1000 27661
lus@@ 27661
viviendas 27658
ingresó 27657
actuaciones 27653
grados 27651
matr@@ 27628
* 27626
presentes 27622
norte@@ 27601
Jac@@ 27581
Hel@@ 27577
distritos 27576
confirm@@ 27575
invent@@ 27573
justo 27570
úan 27567
Cultural 27546
amplio 27529
los@@ 27520
ficos 27518
Joaquín 27511
serían 27506
software 27500
Gen@@ 27494
program@@ 27484
trayectoria 27472
galard@@ 27463
XV 27458
desarrol@@ 27455
ír@@ 27448
orqu@@ 27447
King 27442
transport@@ 27441
marc@@ 27440
Carolina 27439
otorg@@ 27437
legal 27426
caza 27421
pone 27418
factores 27414
miles 27412
propor@@ 27412
entó 27402
quez 27402
alizó 27385
à 27385
consolid@@ 27379
negocios 27379
labor@@ 27375
Doctor 27374
forme 27372
permanente 27365
empleo 27357
1914 27356
eado 27346
deportivo 27333
graduó 27332
jardín 27316
Condado 27307
proviene 27306
almacen@@ 27303
piel 27288
cita 27286
símbolo 27286
finalizó 27281
mascul@@ 27280
Ha@@ 27272
acces@@ 27270
titulada 27268
treinta 27251
emer@@ 27247
termina 27241
Black 27240
West 27214
ceremonia 27214
repar@@ 27211
finaliz@@ 27192
festiv@@ 27187
Ca@@ 27184
justicia 27182
sens@@ 27180
batería 27174
Mos@@ 27163
conver@@ 27160
ejos 27154
bón 27150
mp@@ 27137
NBA 27132
confi@@ 27129
Ari@@ 27127
éxitos 27125
otipo 27115
guion 27105
desaf@@ 27104
inclin@@ 27099
47 27089
estreno 27086
bió 27082
posiblemente 27079
Bellas 27073
bautiz@@ 27068
46 27058
XII 27053
altar 27051
1919 27049
ópera 27044
Militar 27039
interna 27031
itaria 27031
ét@@ 27031
consta 27028
escap@@ 27024
describió 27022
encontraban 27020
familiares 27017
AC@@ 27015
solar 27008
Tre@@ 27007
vo@@ 26999
clar@@ 26996
mento 26995
íp@@ 26992
cumplir 26990
global 26989
culto 26987
Hungría 26984
realmente 26981
atus 26976
asumió 26974
fich@@ 26970
Viena 26967
monte 26965
accion@@ 26939
irá 26930
intervención 26924
lov@@ 26921
Mah@@ 26919
Ignacio 26916
sitios 26897
sufri@@ 26896
ubica 26892
Fin@@ 26883
Street 26883
Salud 26870
enemigo 26864
informó 26864
funcionamiento 26860
Ah@@ 26854
escritura 26849
yen 26844
viven 26843
ampliamente 26834
eje 26834
tilla 26831
desempe@@ 26824
orquesta 26817
1910 26811
aces 26811
ks 26803
onte 26791
disputa 26787
exper@@ 26776
rein@@ 26771
tax@@ 26754
neo 26748
abandonar 26747
alim@@ 26746
pronunci@@ 26736
Sen@@ 26731
ectiv@@ 26719
geno 26711
uf@@ 26706
Televisión 26691
municipales 26691
ace 26682
Deb@@ 26681
pant@@ 26675
Luna 26672
intereses 26669
Concepción 26663
peligro 26659
edido 26656
recep@@ 26656
existi@@ 26649
1924 26648
recientemente 26648
portes 26641
fiestas 26638
E. 26635
ardo 26630
denunci@@ 26621
absol@@ 26619
colonia 26614
efic@@ 26613
participaron 26613
Nar@@ 26608
llegado 26606
1917 26604
consejo 26602
rest@@ 26597
extranjero 26593
ener@@ 26579
primavera 26576
ets 26575
representantes 26571
bes@@ 26569
Esc@@ 26562
japonesa 26562
documento 26561
entar 26556
modern@@ 26541
isp@@ 26537
ester@@ 26525
nes 26507
Dentro 26505
umb@@ 26475
Cos@@ 26462
pá@@ 26462
Habita 26446
endr@@ 26431
uncia 26418
sean 26416
sion@@ 26416
arriba 26414
deste 26408
deriva 26407
ácido 26400
buscar 26388
basa 26386
continuar 26379
oridad 26376
poblado 26373
sá@@ 26365
Tercera 26361
ólogos 26359
leta 26349
Mari@@ 26346
Dan@@ 26342
evidencia 26336
ron@@ 26328
posibles 26320
bin@@ 26311
Noruega 26308
Rico 26304
ganando 26301
ys 26300
Católica 26286
biblioteca 26286
ivos 26273
54 26266
Sobre 26258
agente 26256
Tomás 26251
Comenzó 26247
excav@@ 26239
export@@ 26237
Atlántico 26227
retirada 26219
amin@@ 26216
fama 26213
International 26209
Reyes 26201
cristianos 26199
pueda 26187
lismo 26176
Senado 26159
Agustín 26150
banc@@ 26143
51 26142
56 26127
95 26124
bó@@ 26124
Aer@@ 26123
E.@@ 26116
viendo 26112
capac@@ 26111
órica 26111
debió 26110
idencia 26104
otr@@ 26097
canales 26096
etapas 26094
vein@@ 26088
solic@@ 26085
facilit@@ 26072
organizado 26067
instal@@ 26060
Jack 26055
ach 26054
actuó 26040
ash@@ 26039
dulce 26038
dictadura 26034
iniciativa 26034
permanec@@ 26033
incluidos 26014
acos 26011
vehículo 26010
7,@@ 26007
momentos 26005
medicina 26001
Ap@@ 25999
alternati@@ 25996
exig@@ 25977
mod@@ 25967
R. 25953
clásica 25951
orios 25949
componentes 25948
lun@@ 25932
omas 25932
descubri@@ 25915
terrenos 25913
empleados 25912
asia 25908
edades 25906
ños 25900
Company 25896
bas 25893
angu@@ 25887
dom@@ 25887
enciales 25887
dea 25876
cápita 25875
esfuerzos 25872
individual 25870
ástico 25869
1925 25860
programación 25860
ángulo 25849
ativamente 25848
CE@@ 25837
49 25827
solución 25825
triunfo 25822
enfrentó 25816
papeles 25813
AS@@ 25806
deo 25801
tit@@ 25796
reciente 25795
acabó 25786
vit@@ 25765
cercana 25757
Ruta 25755
asesinado 25753
sorpr@@ 25749
ff@@ 25746
600 25738
Neg@@ 25737
Má@@ 25731
establece 25723
Tol@@ 25721
Torres 25711
enfermedades 25705
jugando 25703
eja 25699
1927 25690
Rob@@ 25682
sospe@@ 25676
Montevideo 25668
quil@@ 25661
parroqui@@ 25654
negra 25653
añas 25630
th 25618
Seguridad 25615
ic 25615
57 25602
dismin@@ 25602
finalizar 25597
terror@@ 25592
Bogotá 25583
convento 25583
62 25581
Ucrania 25581
alianza 25575
ógica 25570
emis@@ 25568
lia 25568
requ@@ 25568
log@@ 25561
Sig@@ 25554
abierta 25554
Ko@@ 25548
muer@@ 25534
mej@@ 25533
correspon@@ 25531
DVD 25529
apos@@ 25522
trabaja 25518
científica 25517
jurí@@ 25517
ale@@ 25510
pide 25509
normal 25508
izado 25506
sirve 25504
cosa 25501
Rus@@ 25494
austr@@ 25494
reserva 25493
Escocia 25491
ép@@ 25489
itario 25488
lob@@ 25483
deporte 25479
Cop@@ 25476
continente 25458
53 25456
cancel@@ 25454
margen 25441
istió 25440
ástica 25439
recopil@@ 25436
saber 25429
plante@@ 25424
atraves@@ 25421
órgano 25417
europea 25414
ultad 25414
iano 25404
guitarrista 25401
fel@@ 25391
Dest@@ 25385
Álvarez 25384
daños 25382
Mendoza 25381
ige 25380
bic@@ 25378
Sel@@ 25373
tendencia 25369
1912 25359
Super 25355
bal 25351
golpe@@ 25351
suspen@@ 25344
Sub 25333
novelas 25332
isleños 25329
ído 25324
extranjeros 25320
idores 25318
ocurr@@ 25304
1922 25301
85 25288
garanti@@ 25287
rural 25281
celebra 25279
kh@@ 25277
afirm@@ 25276
individuos 25273
ciertas 25268
ile 25260
import@@ 25247
juez 25246
recomend@@ 25238
fundamental 25234
infantil 25224
ear@@ 25223
cristi@@ 25208
carne 25204
lor@@ 25204
correspondiente 25190
delante 25190
san 25177
coment@@ 25174
inglesa 25173
ejecución 25167
Ste@@ 25165
televisi@@ 25159
Medio 25158
cé@@ 25155
amarillo 25152
firm@@ 25147
bro 25144
ejemplos 25137
eri 25131
colegio 25130
berto 25129
pasaron 25128
perder 25128
art 25122
undo 25118
religioso 25117
Andalucía 25116
estros 25115
mostró 25104
hacerse 25099
estructur@@ 25096
inicia 25084
P. 25077
Argumento 25073
š@@ 25069
roc@@ 25068
pref@@ 25059
sustan@@ 25057
comisión 25054
rama 25052
crea 25042
definición 25039
ocu@@ 25039
divide 25037
Independencia 25018
jero 25018
declarado 25017
editor 25009
alcal@@ 25007
vivi@@ 24996
éndol@@ 24984
artes@@ 24979
Direc@@ 24975
ji 24975
piso 24974
Cristi@@ 24971
tu 24970
Rum@@ 24953
repeti@@ 24952
1926 24939
tiv@@ 24924
dep@@ 24919
anfi@@ 24908
Mary 24901
cartas 24897
alar 24896
patrocin@@ 24887
nacional@@ 24884
significado 24884
diciendo 24878
matem@@ 24876
imit@@ 24874
insecto 24871
Lam@@ 24864
leyenda 24862
confirmó 24860
Servicio 24851
secu@@ 24847
Tecn@@ 24843
descubrió 24840
Star 24836
convertir@@ 24835
romanos 24829
aplicaciones 24828
perdido 24824
alumnos 24815
critic@@ 24815
58 24814
Jug@@ 24812
n.º 24803
72 24793
requer@@ 24787
actuar 24786
pelig@@ 24779
alas 24778
vern@@ 24777
1923 24771
Galicia 24769
hablar 24766
yendo 24764
conexión 24760
ladr@@ 24756
Lí@@ 24745
Cir@@ 24739
País 24738
innov@@ 24729
Lista 24723
ocur@@ 24722
Alb@@ 24715
extiende 24714
empres@@ 24709
Ori@@ 24704
Zelanda 24702
Don@@ 24700
desarrolla 24696
ui 24694
acord@@ 24693
totalidad 24687
uri 24676
fechas 24675
Alonso 24673
Cul@@ 24672
popul@@ 24671
enorme 24668
mucha 24659
créd@@ 24653
estat@@ 24648
grabó 24644
Director 24632
char 24628
porta 24626
mens@@ 24624
icaciones 24623
espectáculo 24621
áb@@ 24616
establecimiento 24615
logrando 24606
ok@@ 24606
encuentros 24602
agrup@@ 24600
concentración 24598
iglesias 24588
Jaime 24585
encargado 24585
ear 24579
posesión 24571
efectu@@ 24568
presentar 24561
tap@@ 24552
infancia 24541
Gir@@ 24540
ener 24540
rendimiento 24539
800 24535
Rem@@ 24527
arquitect@@ 24524
concep@@ 24522
150 24521
estro 24513
yente 24510
recuer@@ 24508
portada 24500
Sudáfrica 24495
tratar 24491
Brown 24489
asuntos 24471
6,@@ 24470
sacerdote 24463
probable 24457
negocio 24454
resolución 24450
ándol@@ 24450
ficado 24449
enemigos 24446
pacientes 24446
absoluta 24444
show 24439
adultos 24437
económicos 24437
expan@@ 24436
hielo 24420
caz@@ 24399
sitúa 24392
organizó 24384
osamente 24382
ví@@ 24381
Ta@@ 24373
Alianza 24371
configur@@ 24371
Van 24361
Oeste 24359
ausencia 24357
grave 24357
mán 24353
gráfica 24352
depor@@ 24349
oj@@ 24340
columnas 24335
tend@@ 24331
63 24324
cáncer 24324
Investigación 24314
Not@@ 24305
irland@@ 24304
económicas 24300
encio 24298
• 24298
arri@@ 24296
representan 24296
eñas 24292
animal 24289
len@@ 24282
certific@@ 24274
acho 24271
Jur@@ 24265
cuestión 24264
Jo@@ 24259
Negro 24258
Í@@ 24256
Bos@@ 24255
6.@@ 24254
regionales 24246
bier@@ 24245
necesit@@ 24235
1900 24232
59 24223
sar@@ 24220
Todo 24219
predomin@@ 24215
anex@@ 24210
arma 24206
resulta 24200
divisiones 24199
intenta 24197
fen@@ 24191
otas 24186
agü@@ 24184
ō@@ 24182
participado 24178
continúa 24177
ográfica 24168
Hoy 24162
menciona 24159
itu@@ 24157
Regional 24153
adquirió 24153
natur@@ 24150
veget@@ 24143
pez 24141
llevan 24127
cionalmente 24117
graf@@ 24117
universidades 24117
ús 24114
edores 24109
físico 24109
lingü@@ 24106
jó 24101
bizant@@ 24098
conces@@ 24096
religiosas 24096
institu@@ 24086
comparación 24082
Miss 24081
constituye 24080
estuvieron 24080
jun@@ 24080
utilizados 24080
ciencias 24078
unirse 24071
temprana 24068
puntu@@ 24065
dispon@@ 24064
oscuro 24063
foc@@ 24061
úl@@ 24059
Pierre 24055
aeron@@ 24054
pensamiento 24045
celebración 24040
real@@ 24035
elo@@ 24031
presidencial 24017
hered@@ 24013
aun 24006
logo 24003
incur@@ 24000
óx@@ 23998
Reina 23995
culp@@ 23995
encontraron 23992
Especi@@ 23989
rar 23984
dada 23983
complic@@ 23981
bol 23978
ecido 23972
oficinas 23971
expl@@ 23960
Alrededor 23958
Hugo 23954
off 23953
oides 23939
azón 23937
ons@@ 23927
organismos 23917
sexo 23917
secreto 23912
Enlaces 23902
tocar 23895
ejemplares 23894
cen@@ 23883
Honduras 23874
fusion@@ 23867
66 23864
cayó 23857
playa 23856
coalición 23855
deos 23854
consideran 23848
dibu@@ 23847
esfuerzo 23846
Caracas 23838
aldea 23832
diec@@ 23824
reper@@ 23809
1921 23800
borde 23794
lan 23792
ador@@ 23791
ólico 23791
entrev@@ 23788
bado 23777
onio 23772
olos 23769
lejos 23765
My 23764
Plat@@ 23762
ócrata 23756
renom@@ 23753
acha 23744
aband@@ 23737
alizados 23737
20@@ 23735
und 23731
individuales 23721
espera 23719
plazo 23714
rusa 23707
verdadero 23706
famosa 23705
asco 23695
riqu@@ 23694
Socialista 23690
98 23686
ão 23686
XIV 23683
denomina 23683
capítulo 23669
inn@@ 23659
ori 23655
Asturias 23651
Relaciones 23648
Línea 23646
destacados 23646
Red@@ 23637
fabricación 23636
rebotes 23631
ciales 23630
7.@@ 23627
rac@@ 23622
judicial 23618
laron 23617
renta 23614
ance 23608
DC 23603
comida 23603
Fuerzas 23598
Ambos 23597
SS 23596
Dinamarca 23595
respectiv@@ 23594
culas 23593
debut@@ 23592
Jun@@ 23588
Aérea 23587
eleg@@ 23587
combinación 23586
top@@ 23584
enterr@@ 23575
quiz@@ 23573
difusión 23570
realización 23570
quinta 23568
completar 23567
ascend@@ 23559
griega 23555
ocurrió 23550
icias 23541
afric@@ 23533
viajó 23527
allón 23526
tercero 23518
aturas 23517
ion 23515
pri@@ 23511
minuto 23504
contar 23503
derrotó 23499
negoci@@ 23498
pec@@ 23495
Riv@@ 23479
viento 23477
duró 23466
oll@@ 23462
laterales 23459
opción 23459
ame 23456
continental 23456
Gran@@ 23453
existentes 23450
Política 23442
sonora 23440
bon@@ 23432
atl@@ 23428
amenaza 23425
Turquía 23424
cripción 23423
húmed@@ 23415
Guardia 23413
Málaga 23401
Patrimonio 23398
S.@@ 23396
ray@@ 23379
realizan 23379
avance 23377
Caribe 23372
cubri@@ 23371
United 23367
remon@@ 23366
viajes 23361
Publ@@ 23354
destrucción 23352
odos 23348
ova 23341
húng@@ 23340
barrios 23333
dañ@@ 23331
Latina 23324
disposición 23324
eliminar 23320
empr@@ 23317
previamente 23314
ventaja 23309
acumul@@ 23305
discurso 23305
caracteriza 23301
trop@@ 23299
bahía 23292
ocupado 23287
integrantes 23285
afili@@ 23280
oga 23277
4,@@ 23275
Frank 23273
determinar 23269
diputados 23264
quem@@ 23264
sencillos 23262
AM 23259
audi@@ 23251
gó@@ 23251
territorial 23240
seres 23231
ei 23229
ántica 23226
gia 23220
otes 23218
presidi@@ 23218
Sem@@ 23205
Víctor 23203
Mark 23194
estudiante 23194
Tom 23189
Jones 23184
São 23184
atorias 23181
voto 23181
onde 23178
ligeramente 23175
potencial 23167
incorporó 23166
aprobación 23161
data 23161
icha 23159
sal 23154
Obras 23153
Blanca 23151
fotografía 23133
ts@@ 23130
imperio 23125
sburgo 23124
Cuerpo 23121
ati 23115
usan 23115
map@@ 23112
exclusivamente 23111
Var@@ 23108
fortaleza 23105
nó 23105
exhib@@ 23092
68 23091
74 23083
intern@@ 23080
recuperar 23080
ejecutivo 23078
liger@@ 23078
fom@@ 23077
Med@@ 23076
epí@@ 23071
religiosos 23070
telé@@ 23070
manifest@@ 23068
Ke@@ 23056
lidos 23052
directora 23051
lograron 23042
ui@@ 23042
Antecedentes 23041
pedi@@ 23038
entrenamiento 23035
chos 23024
cuid@@ 23019
esia 23015
ater@@ 23008
compra 23007
Monum@@ 23005
Marcos 23002
ins 23001
Iz@@ 22999
Femen@@ 22992
restauración 22983
acor@@ 22976
llamadas 22974
rez 22965
gru@@ 22962
Cic@@ 22958
Fund@@ 22955
mic@@ 22954
aumentar 22951
AN@@ 22948
exces@@ 22943
empieza 22937
reducir 22937
Marco 22936
ográficos 22936
Pueblo 22931
escultura 22923
espacial 22916
secund@@ 22903
oficina 22886
One 22885
ant 22885
We@@ 22881
ence 22873
pendiente 22870
pago 22866
superfici@@ 22866
disponibles 22859
dese@@ 22852
hal@@ 22842
ibilidad 22842
maron 22842
Fun@@ 22837
quedaron 22837
lanzada 22829
conoci@@ 22827
ésta 22825
5,@@ 22819
roco 22816
Adri@@ 22815
busc@@ 22812
ós 22812
aver@@ 22806
gubernam@@ 22803
wood 22802
esposo 22781
Autónoma 22779
precipit@@ 22774
Ed@@ 22772
descubrimiento 22766
fenómeno 22764
habilidades 22764
uca 22764
Ej@@ 22755
conmemor@@ 22753
partida 22745
comúnmente 22743
Nación 22738
Provincial 22735
organismo 22734
disco@@ 22717
rig@@ 22717
fur@@ 22714
88 22710
viejo 22708
culmin@@ 22706
ami 22705
uli@@ 22698
Públ@@ 22697
estratég@@ 22695
pas 22691
érica 22689
RE@@ 22682
escritores 22681
permiten 22679
plac@@ 22679
unda 22678
aprovech@@ 22676
tarea 22664
bras 22657
filas 22655
juventud 22651
administrativa 22647
ocul@@ 22640
quel@@ 22635
Georgia 22633
zó 22632
agrad@@ 22620
inclu@@ 22620
clín@@ 22618
consigue 22618
convers@@ 22612
ain 22608
UU. 22604
orilla 22604
personales 22604
éticas 22600
derrotado 22595
peru@@ 22593
integrado 22578
moda 22577
1913 22574
etti 22573
Alta 22567
Ruiz 22563
minas 22563
ath@@ 22560
redon@@ 22558
privado 22555
océano 22552
relacionadas 22552
instalación 22549
Valladolid 22547
participa 22545
izar 22542
independientes 22540
gel@@ 22539
diá@@ 22536
tropicales 22526
consideró 22522
traducción 22519
formar@@ 22515
Grand 22510
copa 22508
definitivamente 22502
masculino 22495
q 22492
tendría 22492
abil@@ 22486
tarse 22486
orial 22485
trenes 22485
exclus@@ 22484
verdad 22482
99 22481
competi@@ 22481
67 22476
Hernández 22476
US 22470
86 22469
lim@@ 22464
ek@@ 22460
opu@@ 22460
73 22456
reyes 22453
cuartos 22441
columna 22440
ics 22437
A.@@ 22435
solitario 22435
ure 22435
urbana 22432
fácil 22429
Dirección 22428
Sor@@ 22428
gobiernos 22426
Scott 22425
moder@@ 22422
inaugur@@ 22418
Jackson 22417
invitado 22417
descenso 22412
inund@@ 22411
caballo 22410
Chil@@ 22409
prácticas 22407
publica 22396
sobr@@ 22393
92 22387
interpretado 22387
83 22384
semifinales 22371
licencia 22366
roca 22359
usuario 22359
aliados 22342
sul@@ 22342
baile 22335
declaración 22335
ace@@ 22333
Castell@@ 22331
Frances@@ 22330
Sc@@ 22327
podemos 22326
Paulo 22322
descripción 22319
octav@@ 22319
uco 22314
imagin@@ 22311
vuel@@ 22305
Teresa 22300
capa 22297
elegida 22296
Flor@@ 22295
L. 22293
anch@@ 22287
emitió 22284
rup@@ 22283
Ale@@ 22280
precis@@ 22273
84 22271
patrimonio 22271
mide 22268
enario 22267
La@@ 22265
Pública 22265
corr@@ 22257
Día 22255
pudieron 22255
color@@ 22248
prolong@@ 22242
vicepresidente 22239
obtiene 22234
evo 22231
buque 22230
ejerc@@ 22229
Sau@@ 22225
rival 22214
egip@@ 22212
Disney 22207
redu@@ 22206
líqu@@ 22199
medieval 22199
coche 22192
constitución 22192
propuso 22192
sucesor 22191
explotación 22186
Fran@@ 22183
poemas 22180
critos 22178
recor@@ 22178
motiv@@ 22170
rico 22168
Virginia 22163
xi@@ 22162
realizadas 22158
Primeros 22153
Vit@@ 22152
interpret@@ 22150
ical 22139
videojuego 22135
Hur@@ 22132
ramas 22128
castellano 22127
Williams 22123
ái 22116
aprove@@ 22115
jam@@ 22110
ole 22097
sexto 22092
cruz 22088
agentes 22086
Solo 22084
odo 22084
cinta 22078
mantenimiento 22073
aso 22068
dest@@ 22063
Estad@@ 22051
ider@@ 22045
excep@@ 22037
post@@ 22023
antec@@ 22022
XI 22020
Filipinas 22019
sos@@ 22019
quilla 22013
pros@@ 22012
pan 22011
IX 22001
Baja 21997
Big 21997
fantas@@ 21997
dimensiones 21995
ivamente 21993
ante@@ 21985
Son@@ 21982
Flores 21974
78 21972
Mun@@ 21972
Times 21966
separación 21961
seguidores 21958
oniendo 21954
pelea 21950
bis@@ 21946
nd@@ 21941
a.@@ 21932
inco 21931
suma 21930
anotó 21925
mudó 21924
land@@ 21922
edra 21918
introducción 21911
circuito 21909
SE@@ 21907
compet@@ 21904
requiere 21903
negó 21899
Entertainment 21891
tuario 21885
isc@@ 21884
relacionado 21881
pistas 21879
Cerro 21875
RA@@ 21875
otorgó 21874
deseo 21871
usi@@ 21867
reos 21864
supl@@ 21860
recientes 21858
conferencia 21854
pasos 21854
triun@@ 21853
Hacia 21846
portugués 21846
responsabilidad 21846
asociado 21843
asistencia 21838
rechaz@@ 21838
Lev@@ 21832
acon@@ 21831
gan 21829
rob@@ 21829
proteger 21821
amistad 21818
Elecciones 21812
bil 21811
Tuvo 21807
icul@@ 21807
Plan 21806
Tokio 21806
Blanco 21805
investigadores 21802
Corona 21800
bit@@ 21796
hacerlo 21796
doctor 21784
oamérica 21781
Falleció 21775
adap@@ 21773
als 21773
cierre 21771
destacó 21757
disputar 21755
report@@ 21755
71 21753
perten@@ 21750
incap@@ 21748
93 21744
hac@@ 21739
circun@@ 21736
Cin@@ 21735
ocurre 21734
Guadalajara 21726
actitud 21725
ide 21725
oferta 21725
fico 21718
egu@@ 21716
Leon@@ 21714
diver@@ 21710
anal@@ 21707
omb@@ 21698
cli@@ 21694
orígenes 21687
debil@@ 21676
76 21674
Bro@@ 21673
Brig@@ 21672
8,@@ 21671
buques 21671
empresario 21662
inauguró 21661
1911 21659
reas 21659
amist@@ 21657
otor@@ 21657
Moreno 21653
detalles 21653
estrenada 21653
ayudó 21643
pre 21643
imperial 21640
zi 21638
onóm@@ 21637
descubre 21634
pará@@ 21633
ab 21629
china 21629
curs@@ 21626
Técn@@ 21624
alda 21618
euros 21618
alum@@ 21613
ivas 21613
órbita 21612
combustible 21611
Pach@@ 21610
escapar 21595
aloj@@ 21592
delantero 21592
pesc@@ 21592
bibli@@ 21584
urugu@@ 21584
instrumento 21583
Estatal 21569
funcionarios 21568
mín@@ 21566
deportes 21563
1916 21559
8.@@ 21552
esor 21551
ES@@ 21543
hubiera 21528
did@@ 21525
91 21523
frecuentemente 21522
hol@@ 21515
uciones 21509
Z 21502
Actu@@ 21501
relati@@ 21494
Bolívar 21489
canadiense 21489
espíritu 21489
organ@@ 21489
preser@@ 21485
vá@@ 21484
dificultades 21482
rar@@ 21479
Met@@ 21478
necesidades 21477
alcance 21466
bieron 21466
estima 21463
lida 21463
torneos 21463
primiti@@ 21462
Vega 21461
explica 21457
testimon@@ 21456
teatral 21455
modernos 21448
zo@@ 21447
bordo 21435
libres 21428
eclesi@@ 21427
250 21422
decidieron 21417
Fal@@ 21416
Secretario 21413
cil@@ 21408
juvenil 21407
migración 21403
candidatos 21402
belleza 21397
ys@@ 21397
69 21393
oya 21393
Final 21392
ques@@ 21392
Bern@@ 21390
colombiano 21388
primaria 21387
pedido 21385
ilumin@@ 21381
61 21378
profes@@ 21376
VIII 21371
debían 21371
roja 21370
gadas 21369
Equi@@ 21368
entación 21368
Igu@@ 21366
refugi@@ 21361
entra 21360
1915 21359
ali 21358
alis 21352
ul 21352
ung 21351
femin@@ 21342
rap@@ 21332
exter@@ 21324
manus@@ 21322
est 21318
inaugurado 21317
registros 21314
Vis@@ 21309
ritmo 21308
mero 21305
ander@@ 21300
hectáreas 21290
turismo 21289
Gre@@ 21284
personalidad 21281
alcanza 21269
colonial 21262
09 21258
intr@@ 21256
fueran 21250
aprobó 21246
tono 21243
quier@@ 21240
fácilmente 21229
profesora 21227
beb@@ 21224
zada 21218
avenida 21217
edr@@ 21211
Puente 21210
sale 21208
77 21198
estilos 21197
Atenas 21194
ánicos 21193
Burgos 21192
páginas 21191
tareas 21191
banco 21179
Lleg@@ 21177
ampa 21172
evit@@ 21168
ung@@ 21167
Señor 21164
azgo 21162
ofreció 21160
Hall 21149
tari@@ 21144
hisp@@ 21137
Tem@@ 21136
imas 21136
esía 21134
I. 21124
SA 21121
duda 21117
Hen@@ 21115
cuart@@ 21114
ingeniería 21112
cristiana 21110
House 21101
bera 21095
autónoma 21089
ocasion@@ 21079
Jefe 21076
explot@@ 21075
decoración 21065
let@@ 21065
cip@@ 21060
ásico 21059
izquierdo 21056
pertenecientes 21053
AC 21042
nuestra 21038
Max 21037
Cá@@ 21035
desemboc@@ 21022
áceas 21022
brasil@@ 21021
podr@@ 21019
confianza 21018
ferrovi@@ 21015
96 21012
bí@@ 21006
mensaje 21003
Mariano 20992
tel 20991
cementerio 20990
sti@@ 20990
taria 20989
Año 20988
conflictos 20985
06 20983
transición 20983
ish@@ 20977
cuyas 20974
acompañado 20973
artís@@ 20973
m. 20970
botánico 20966
debate 20966
Años 20964
parec@@ 20963
Decreto 20962
Roc@@ 20962
prisioneros 20951
sucedió 20948
Murcia 20946
patrón 20943
aki 20938
etta 20935
line@@ 20934
reconocida 20932
literaria 20931
Aqu@@ 20930
cifr@@ 20926
máquina 20920
him@@ 20912
inde@@ 20912
ográficas 20910
producen 20907
enter@@ 20905
ation 20900
artillería 20895
probar 20895
raíces 20892
exposiciones 20888
resc@@ 20882
Pos@@ 20867
Recepción 20863
sat@@ 20860
constitucional 20850
obligado 20850
ebra 20846
IC@@ 20843
Hollywood 20838
Sir@@ 20838
aceptó 20832
representar 20832
define 20828
reglas 20826
pese 20825
aquia 20823
Comunista 20822
Ph@@ 20819
Bru@@ 20813
Form@@ 20810
sc@@ 20809
sesión 20807
Bir@@ 20803
proxim@@ 20794
ilar 20788
esco 20787
Ant@@ 20782
campañas 20782
Bad@@ 20781
consideraba 20781
č@@ 20781
Nat@@ 20780
Ham@@ 20777
Cádiz 20776
Alem@@ 20774
surgió 20774
temperaturas 20774
submar@@ 20771
guerras 20769
ann@@ 20768
tác@@ 20767
var 20761
rati@@ 20758
Mod@@ 20753
arca 20753
rica 20744
pais@@ 20741
Young 20739
Et@@ 20736
españolas 20729
Clasificación 20725
compens@@ 20724
creciente 20722
Policía 20719
tío 20719
destinado 20715
princesa 20715
Deportes 20708
flujo 20706
cay@@ 20704
abog@@ 20702
peruano 20700
brasileño 20691
enfoque 20691
Zona 20689
Hy@@ 20688
reducción 20688
nuestro 20686
89 20685
Center 20685
dial@@ 20682
vul@@ 20682
condi@@ 20679
señal@@ 20676
Hist@@ 20673
permitir 20671
pedir 20668
emo@@ 20660
cular 20658
Vasco 20657
Derechos 20656
casado 20641
human@@ 20635
Nic@@ 20633
abarca 20632
yl@@ 20627
fortal@@ 20622
teles 20618
Príncipe 20615
aniversario 20610
aten@@ 20609
ítica 20607
dirige 20597
factor 20597
cinemat@@ 20594
izada 20587
reclut@@ 20585
Sac@@ 20581
inmedi@@ 20576
liz@@ 20573
doctr@@ 20564
ky 20563
08 20561
Salamanca 20561
cocina 20557
videojuegos 20555
apl@@ 20552
emigr@@ 20549
emisión 20546
ett 20543
agres@@ 20542
acog@@ 20541
lateral 20540
97 20538
ariz@@ 20536
colon@@ 20534
Pic@@ 20533
residentes 20531
órico 20529
vendió 20525
Sí@@ 20520
asentamiento 20508
debería 20504
recol@@ 20503
Sand@@ 20502
otoño 20501
senador 20486
ahu@@ 20483
Alexander 20478
adul@@ 20473
cios 20453
esclavos 20449
aceler@@ 20440
idiomas 20440
democrá@@ 20438
ie@@ 20436
ple 20433
refu@@ 20433
itado 20425
rápida 20425
pagar 20423
ADN 20420
ort@@ 20419
adicionales 20418
chilena 20418
rat@@ 20418
ut 20401
1908 20399
casco 20399
coro 20398
montañ@@ 20397
recog@@ 20395
uelta 20393
compone 20389
Milán 20386
ats 20386
ha@@ 20377
Joe 20375
Libro 20375
testig@@ 20375
AS 20373
kin 20372
acontecimientos 20369
cometi@@ 20369
enciado 20356
académ@@ 20354
virus 20350
discu@@ 20339
titul@@ 20332
In 20319
magnitud 20319
Sinopsis 20312
recinto 20307
Calle 20306
anto 20302
jar@@ 20302
agrícola 20298
secciones 20296
crom@@ 20286
producciones 20286
lin 20284
ámico 20280
81 20273
On@@ 20273
inteligencia 20273
fos@@ 20270
Wal@@ 20267
79 20261
trabajado 20260
Ran@@ 20257
iller 20256
stein 20256
veng@@ 20250
gica 20249
agn@@ 20244
neerland@@ 20242
introdujo 20235
1905 20234
caja 20232
petición 20231
usó 20231
Salón 20227
extra@@ 20227
mari@@ 20227
N.@@ 20216
hin@@ 20214
ogr@@ 20212
suger@@ 20212
igualmente 20210
asistió 20205
nar@@ 20201
Chris 20199
caballos 20199
sierra 20198
candidatura 20197
eas 20193
industri@@ 20193
94 20190
existente 20190
eléctr@@ 20187
Guinea 20186
Live 20186
olas 20186
ómica 20173
Carr@@ 20165
divor@@ 20164
prol@@ 20164
Walter 20163
It 20162
niña 20160
tempr@@ 20159
cañones 20151
ister@@ 20151
naves 20149
fono 20148
pes 20148
Rel@@ 20146
prést@@ 20144
fruto 20141
s. 20139
inversión 20136
pera 20136
cañón 20131
recuperación 20126
87 20120
82 20115
integración 20113
H. 20109
tecn@@ 20104
White 20101
propietario 20098
Ford 20089
influencias 20089
endía 20088
pudiera 20079
ayuntamiento 20078
orias 20078
Producción 20072
Boston 20065
ER@@ 20063
techo 20063
estancia 20057
sch@@ 20051
ry 20049
surg@@ 20048
Vo@@ 20044
ocupar 20043
mati@@ 20042
estrech@@ 20041
cielo 20031
elia 20028
jado 20025
solicit@@ 20019
Gl@@ 20017
triz 20013
Top 20008
confun@@ 20006
ps 19999
mov@@ 19998
Hábitat 19992
gico 19992
quisición 19992
umen 19990
habiendo 19983
trató 19973
Puebla 19971
paredes 19965
rocas 19963
cincuenta 19955
rebeldes 19955
huy@@ 19952
Augusto 19948
rutas 19947
calor 19946
médicos 19941
hecha 19933
Pri@@ 19930
lesión 19924
volúmenes 19922
ogen@@ 19915
reemplazado 19912
Gracias 19909
jurisdicción 19902
UU 19901
02 19899
atacar 19899
yn@@ 19899
Contr@@ 19890
moral 19890
eador 19887
Hot 19879
punta 19879
abri@@ 19876
eves 19875
Entonces 19868
liberación 19868
tampoco 19864
fortific@@ 19862
domés@@ 19856
lanza 19855
temporal 19848
indios 19839
vegetación 19838
Alfredo 19837
Oli@@ 19836
disminu@@ 19836
sust@@ 19835
Fe@@ 19832
quince 19831
onom@@ 19829
Tak@@ 19827
gn@@ 19825
iner@@ 19825
llevaba 19817
Colonia 19816
yeron 19816
Cortes 19815
canto 19814
igos 19813
promover 19807
mueb@@ 19806
concej@@ 19805
acceder 19802
ini@@ 19802
buenas 19801
modalidad 19800
polí@@ 19799
sever@@ 19794
composit@@ 19790
notables 19790
ocol@@ 19789
estrategia 19788
intentos 19786
promo@@ 19784
aparecer 19782
universo 19781
asi 19778
reformas 19776
hotel 19774
asta 19771
controlar 19766
alguien 19762
Din@@ 19759
regresa 19756
legi@@ 19748
sacer@@ 19747
Todas 19738
Johnson 19735
ejerció 19733
matar 19726
acero 19724
US@@ 19723
Debutó 19717
yr@@ 19717
poseen 19716
pisos 19715
Esteban 19711
ropa 19710
causas 19705
nadie 19698
específicamente 19687
Venecia 19682
íferos 19682
Hijo 19675
manifi@@ 19672
Comercio 19669
Jar@@ 19666
Jose 19659
trataba 19658
ernos 19652
Sudamérica 19651
ances 19651
naciones 19650
celebrado 19647
mercados 19644
Naci@@ 19632
Servicios 19631
Pa@@ 19627
productores 19624
proven@@ 19624
Football 19619
carriles 19614
rano 19614
creció 19608
nombrada 19604
Jerusalén 19600
estando 19598
opa 19594
llegan 19592
mesa 19592
erio 19587
cuentan 19586
jazz 19575
equivalente 19573
nace 19566
perí@@ 19564
daba 19561
abrevi@@ 19557
ud 19556
Econ@@ 19553
musulmanes 19551
pró@@ 19550
Edward 19548
impresion@@ 19548
esclav@@ 19547
carbono 19544
filó@@ 19542
Peri@@ 19540
descubr@@ 19536
disol@@ 19536
dirigir 19535
ecciones 19529
grabaciones 19528
Team 19527
ok 19527
Clar@@ 19522
ciento 19517
estren@@ 19516
hur@@ 19515
aparec@@ 19512
Buc@@ 19509
01 19508
ain@@ 19499
numer@@ 19496
retras@@ 19495
desaparición 19493
mala 19493
poema 19490
OS 19482
reparto 19478
catalán 19473
Paral@@ 19470
Natur@@ 19469
AD@@ 19468
paisaje 19466
xa 19466
considerar 19464
Ríos 19462
diales 19460
Trabajo 19457
apellido 19454
grabar 19454
Cristóbal 19448
ímetros 19442
tant@@ 19440
umbral 19438
áneos 19438
libre@@ 19437
tela 19435
cárcel 19431
uk@@ 19428
alternativa 19424
Lucas 19423
lem@@ 19422
tiro 19416
C.@@ 19412
toneladas 19409
fiscal 19408
historiadores 19408
rebelión 19403
error 19402
étr@@ 19402
ecía 19396
Vietnam 19394
normas 19394
presidenta 19393
áneamente 19389
ee 19388
mite 19386
Arturo 19379
gratu@@ 19367
Som@@ 19366
Gales 19365
comprende 19359
comenzar 19352
interpretar 19350
profun@@ 19349
ington 19346
AM@@ 19344
bes 19344
ánicas 19343
fórmula 19336
Bul@@ 19335
mencionado 19334
ometr@@ 19331
Lig@@ 19329
Rojo 19329
03 19326
obtenido 19315
ílica 19314
Lug@@ 19310
Hil@@ 19309
PC 19309
luchar 19307
calcul@@ 19305
amba 19304
contamin@@ 19297
Familia 19293
Les 19289
revela 19286
proteínas 19283
corred@@ 19282
estric@@ 19281
manga 19281
cuadrados 19272
cubr@@ 19272
Show 19269
negros 19269
Murió 19267
Medicina 19266
voluntad 19266
Pod@@ 19264
democracia 19264
dici@@ 19263
emia 19263
ofici@@ 19259
.com 19256
dúo 19255
millas 19254
graves 19249
nota 19248
preparación 19248
anal 19247
Marie 19245
05 19244
entidades 19244
escritora 19243
Ferrocarril 19241
eces 19237
igualdad 19237
he 19234
bilidad 19232
próximo 19228
asistente 19224
list@@ 19220
Conde 19212
Fox 19211
mez@@ 19210
incluir 19205
variedades 19203
Blo@@ 19202
morir 19201
Perten@@ 19196
cí@@ 19192
secuencia 19183
berg@@ 19182
9,@@ 19176
hipótesis 19169
simult@@ 19169
uerta 19169
dividido 19168
etr@@ 19168
tomando 19168
Orquesta 19166
Cuatro 19165
admir@@ 19158
útil 19158
rebel@@ 19149
hos@@ 19145
juz@@ 19145
sueño 19143
1906 19141
Columbia 19140
teatr@@ 19139
atriz 19134
oy 19133
1909 19131
Gab@@ 19130
lio 19123
Gustavo 19122
realizados 19120
.C. 19117
salas 19117
visi@@ 19116
… 19108
nuclear 19099
drama 19098
boca 19094
árabes 19088
ector 19078
Emilio 19069
alle 19068
Bahía 19062
TV@@ 19058
nacida 19058
compromiso 19056
marcas 19054
arena 19052
ise 19048
Rev@@ 19046
uj@@ 19046
endémica 19042
Gro@@ 19040
tarj@@ 19039
voces 19036
compuestos 19035
volver@@ 19035
Kat@@ 19032
tensión 19024
apariencia 19021
archivos 19014
expedi@@ 19008
destruy@@ 19005
pesca 19000
ejercicio 18992
claramente 18987
meridi@@ 18983
fundadores 18981
way 18981
Gas@@ 18980
Universal 18979
conocen 18975
reveló 18972
acas 18971
Hill 18970
inclus@@ 18970
rescat@@ 18968
encarcel@@ 18967
telenovela 18964
hun@@ 18961
ecos 18953
Fron@@ 18947
retirarse 18946
CI@@ 18944
renac@@ 18942
1907 18940
dolor 18940
Raúl 18935
Profesional 18932
renuncia 18928
ev 18926
unto 18925
definitiva 18921
TA 18920
ley@@ 18920
Campeones 18919
comprometi@@ 18918
Pun@@ 18917
periódicos 18915
frecuente 18910
mostrar 18908
representado 18901
ika 18899
DE@@ 18898
zu@@ 18895
derrotar 18893
plas@@ 18885
embajador 18883
liberal 18882
sustituy@@ 18875
Gutiérrez 18871
descubier@@ 18870
opon@@ 18870
Mediterráneo 18869
polic@@ 18864
ró@@ 18857
Gim@@ 18854
well 18853
minister@@ 18852
colombi@@ 18851
convirtieron 18849
endiendo 18848
honor@@ 18848
materi@@ 18848
set@@ 18845
álogo 18845
versi@@ 18842
glob@@ 18840
doctorado 18832
supone 18823
Interior 18822
arzobispo 18822
mb@@ 18822
ítimo 18822
Irán 18819
pilotos 18819
recibieron 18819
Nom@@ 18818
mica 18817
teras 18812
publicados 18811
amentos 18809
salvo 18801
Dic@@ 18800
depende 18798
Polí@@ 18795
construc@@ 18795
sky 18795
Div@@ 18794
gus@@ 18790
exilio 18787
encargó 18780
rus@@ 18780
tripulación 18780
udos 18774
Sergio 18773
tarios 18770
º@@ 18766
cav@@ 18765
erra 18761
mínimo 18759
Argentino 18758
sugiere 18756
Finlandia 18753
fron@@ 18751
Pro 18747
obo 18747
ibles 18745
usu@@ 18739
tidos 18738
ling 18735
clientes 18730
gios 18728
relato 18728
equilibrio 18727
eren 18725
descendientes 18724
Tanto 18722
costas 18714
itan 18712
admi@@ 18710
Ben 18709
pula 18707
logrado 18706
limpi@@ 18704
herramientas 18697
dibujos 18693
prest@@ 18690
agrupación 18686
tiendas 18683
arro 18678
aprendizaje 18675
esis 18665
café 18664
enlace 18664
impuestos 18661
domingo 18651
defensi@@ 18648
Windows 18643
Tran@@ 18639
nat@@ 18637
tormenta 18629
astronomía 18628
cinturón 18628
eltas 18627
hijas 18625
els 18622
Campe@@ 18619
cuarenta 18617
trama 18614
Mul@@ 18612
Silva 18611
vendido 18607
noticia 18602
renunci@@ 18602
tif@@ 18600
extraordin@@ 18599
taría 18595
Metro 18588
introdu@@ 18587
pad@@ 18587
Anna 18585
alizadas 18584
atur@@ 18583
impul@@ 18583
editado 18579
inmigrantes 18578
alrededores 18572
lada 18568
hospit@@ 18563
Township 18561
greso 18561
Grandes 18551
adicional 18543
empleado 18538
estrecho 18538
comunas 18536
Merc@@ 18534
perdiendo 18532
Bernardo 18531
Prom@@ 18528
Emp@@ 18522
estatus 18521
Haw@@ 18515
letas 18513
entista 18512
onas 18511
Democrática 18505
My@@ 18503
holand@@ 18501
Den@@ 18499
apia 18499
abuelo 18498
adolesc@@ 18498
asalto 18498
respet@@ 18496
evas 18494
Human@@ 18488
1904 18485
claus@@ 18485
cion 18483
gana 18481
jornada 18481
vapor 18479
plane@@ 18477
ólica 18472
moneda 18467
disfrut@@ 18466
empezaron 18465
escar@@ 18465
mayorit@@ 18462
climá@@ 18454
suerte 18450
ónomo 18447
9.@@ 18446
cog@@ 18444
Secretaría 18443
AP@@ 18438
yentes 18436
reunió 18435
Exteriores 18433
Illinois 18432
integró 18432
ojo 18427
Diput@@ 18422
reproduc@@ 18422
onios 18415
ash 18414
afluente 18412
ille 18411
académico 18409
millón 18409
visitantes 18409
cac@@ 18408
ientes 18396
queo 18396
continua 18395
Peña 18394
avia 18393
University 18392
04 18391
aquellas 18391
Profes@@ 18390
caballería 18386
ves 18383
terrestre 18380
tomado 18377
salto 18369
abiliz@@ 18367
trá@@ 18364
Sus@@ 18362
coinci@@ 18361
establecieron 18361
italianos 18361
ósitos 18361
fuese 18357
pudiendo 18354
Mike 18352
interpretada 18348
intérpre@@ 18348
adrón 18344
instituto 18341
trof@@ 18333
gri@@ 18331
Dol@@ 18327
electrónica 18325
Bob 18320
prof@@ 18320
Albert 18318
ré@@ 18317
ardia 18316
erios 18315
1890 18308
River 18301
Hon@@ 18297
inda 18296
Janeiro 18294
fuertemente 18294
revis@@ 18294
arcos 18286
nico 18284
costo 18274
estabilidad 18271
Sala 18270
itz 18267
Ly@@ 18265
Rodrigo 18265
venir 18263
hogares 18262
ectura 18257
colecciones 18251
discográfica 18250
Wilson 18249
heridos 18249
dobl@@ 18248
Maz@@ 18245
recuerda 18243
apariciones 18240
estatua 18239
IS@@ 18238
integrada 18233
abol@@ 18230
causó 18227
elegir 18227
décimo 18226
Referencias 18224
Band@@ 18220
ándola 18217
ary 18216
Bilbao 18212
rab@@ 18212
ús@@ 18212
danza 18207
creando 18201
rompi@@ 18194
compil@@ 18193
Eur@@ 18192
Jiménez 18192
incendio 18192
anillo 18186
intercambio 18186
isbol 18185
taller 18182
Cabo 18172
ij@@ 18169
vor@@ 18167
dispositivos 18165
ministr@@ 18165
monedas 18165
decisiones 18164
crist@@ 18160
cál@@ 18158
Time 18157
próxim@@ 18154
verdadera 18151
Ramírez 18142
organizar 18142
negociaciones 18138
brillante 18135
ill 18124
Rivera 18120
calendario 18108
soporte 18108
teza 18106
Santander 18100
ital 18099
terminal 18094
semillas 18091
Confederación 18089
Arquitectura 18083
murieron 18083
Op@@ 18078
brado 18074
anti 18073
enterrado 18073
tradiciones 18069
restantes 18060
reloj 18058
Design@@ 18051
demand@@ 18050
requis@@ 18047
contienen 18045
colonias 18043
Origin@@ 18039
Mich@@ 18036
enio 18036
inmediato 18036
fallecido 18031
proporciona 18029
capaces 18027
paron 18022
sexuales 18021
die 18020
700 18018
Ante 18014
tieron 18011
Oscar 18010
auxili@@ 18010
sic@@ 18008
éndole 18007
alma 18006
existía 18004
realizando 18002
cambia 18000
instaló 17997
esen 17994
Nacido 17991
Represent@@ 17991
Gobernador 17989
reú@@ 17985
Jugó 17983
alberga 17980
satisfac@@ 17980
120 17979
tili@@ 17977
evolucion@@ 17974
tumba 17969
Pensilvania 17968
darse 17968
Audi@@ 17965
perspectiva 17965
cho@@ 17963
uga 17963
Christian 17962
comité 17962
rol@@ 17962
Operación 17951
gem@@ 17951
tribu 17951
apoyar 17948
las@@ 17947
mani@@ 17945
conferencias 17944
igan 17940
st 17934
colaboró 17932
Miami 17931
vigil@@ 17931
acred@@ 17929
servir 17926
fre@@ 17924
Conferencia 17923
tol@@ 17922
Cad@@ 17920
Morfología 17920
infantería 17920
ésim@@ 17920
inver@@ 17918
derri@@ 17910
Español 17907
observar 17906
presupuesto 17905
procedentes 17903
terr@@ 17898
cro@@ 17888
gris 17888
Wrestling 17887
sk@@ 17887
Kim 17883
eléctrico 17879
Verde 17875
embaj@@ 17873
1903 17872
lis 17870
físicas 17864
construyeron 17863
Unidad 17861
escultor 17859
G. 17853
racia 17851
cional@@ 17846
Art 17845
inger 17845
centrales 17841
Joan 17839
PS@@ 17838
torres 17838
tada 17836
Capitán 17834
aéreo 17831
habilidad 17831
norm@@ 17827
rió 17826
dispositivo 17825
Croacia 17824
Siria 17824
cami@@ 17819
occidentales 17816
Libertad 17815
Tony 17814
brig@@ 17814
vivientes 17809
aum@@ 17808
solista 17801
Kur@@ 17799
Padre 17798
cuello 17790
mecanismo 17790
rostr@@ 17788
Marruecos 17786
autonomía 17784
clara 17783
adir 17782
ional 17781
Gil@@ 17780
ney 17779
ortodo@@ 17773
desa 17772
Kal@@ 17763
escribe 17762
Arthur 17756
puedan 17756
Cent@@ 17755
Catalina 17753
héroe 17751
Card@@ 17747
Tai@@ 17744
ow@@ 17744
demu@@ 17736
Arg@@ 17735
ity 17734
óstico 17731
FA 17722
Recon@@ 17720
argent@@ 17718
metál@@ 17718
ecen 17715
Astr@@ 17714
petróleo 17710
sobres@@ 17710
óric@@ 17710
acionales 17705
frase 17705
Pese 17703
ció 17702
Life 17701
ueras 17700
empu@@ 17696
Herrera 17694
huevos 17694
Población 17685
Transporte 17685
pared 17685
tún@@ 17683
mejora 17680
república 17676
tradu@@ 17668
Nicaragua 17665
olvid@@ 17664
habr@@ 17662
ucran@@ 17661
Bay@@ 17658
puest@@ 17657
señaló 17656
Cro@@ 17654
BBC 17651
ist 17650
socialista 17649
gul@@ 17648
regimiento 17644
teo 17642
firmado 17639
moviliz@@ 17639
alan@@ 17630
ofensiva 17628
ick@@ 17620
soviético 17601
abe 17599
largas 17595
variante 17594
cubier@@ 17590
pesos 17588
europeas 17585
occ@@ 17585
Hern@@ 17583
aspir@@ 17583
oportunidades 17583
AT@@ 17582
arina 17581
nde 17579
ísmo 17579
Formación 17578
departamentos 17576
Siglo 17572
parcialmente 17572
War@@ 17571
aka 17570
Brian 17569
franc@@ 17569
UEFA 17567
brazo 17561
limitada 17559
Parti@@ 17558
absor@@ 17558
bien@@ 17555
ho 17554
Person@@ 17553
fracaso 17553
defender 17548
predic@@ 17543
XXI 17540
individuo 17539
Gregorio 17538
carr@@ 17535
lectura 17535
habitación 17534
japoneses 17534
chica 17533
sia 17530
ator 17528
agón 17525
máquinas 17524
vocalista 17521
ass@@ 17520
Lav@@ 17519
noctur@@ 17513
uv@@ 17513
Zamora 17511
tribut@@ 17509
supuso 17504
Filosofía 17498
usada 17497
huel@@ 17496
riqueza 17494
Hitler 17489
Peñ@@ 17488
elaboración 17488
nam@@ 17488
Steve 17486
recorr@@ 17485
Valenci@@ 17475
ingleses 17475
tiendo 17473
tomaron 17465
descend@@ 17459
tram@@ 17455
señala 17453
conservan 17449
compró 17434
iana 17432
agencia 17430
trato 17429
diseños 17428
dependiendo 17427
tric@@ 17427
caminos 17425
competiciones 17425
esca 17423
oti@@ 17423
regulares 17422
partió 17417
cordillera 17413
localizado 17411
put@@ 17411
volvieron 17410
paqu@@ 17407
tidae 17405
anga 17404
Na@@ 17401
tamen 17401
aparte 17399
Ev@@ 17398
vuelos 17397
igió 17384
ax 17383
mandad 17377
comi@@ 17366
Asunción 17360
1902 17356
clas@@ 17351
propi@@ 17350
maestros 17349
clásicos 17339
07 17338
Bill 17331
Kir@@ 17331
trib@@ 17330
Jor@@ 17329
siglas 17326
versos 17321
votación 17315
cantidades 17311
molé@@ 17310
IM@@ 17308
convirti@@ 17308
noble 17307
Regimiento 17306
orn@@ 17304
descendi@@ 17303
Harry 17298
produ@@ 17298
ulos 17297
latino 17296
veda 17288
otorgado 17280
aventura 17279
quita 17279
concedió 17278
parecer 17278
monum@@ 17276
benef@@ 17275
dividida 17273
sost@@ 17273
Mujeres 17272
disciplina 17272
Bri@@ 17269
organizada 17261
postul@@ 17256
duras 17255
informes 17255
tribus 17253
Ohio 17249
cerámica 17249
restric@@ 17249
asisti@@ 17245
Bautista 17244
polis 17244
Territ@@ 17241
completó 17237
mpicos 17235
encontrarse 17233
Programa 17232
1880 17231
situaciones 17231
Ár@@ 17231
aérea 17230
Fueron 17229
struc@@ 17224
Ken@@ 17223
estable 17220
piedras 17219
Latinoamérica 17211
Investig@@ 17207
polici@@ 17204
correspond@@ 17203
Mi 17201
Guerrero 17198
frío 17198
nativos 17197
resul@@ 17196
Pad@@ 17194
aceite 17191
dispone 17191
marcado 17188
vidas 17188
ilia 17186
fallecimiento 17183
Dev@@ 17180
círculo 17175
umbr@@ 17170
Us@@ 17167
exili@@ 17166
complement@@ 17164
Dich@@ 17160
placa 17149
herencia 17147
Kong 17145
Independiente 17144
esperanza 17141
egos 17139
campeonatos 17135
art@@ 17134
indígena 17133
iniciar 17132
afec@@ 17128
halla 17126
muros 17125
seguro 17124
gada 17121
universal 17120
uvo 17120
kar@@ 17118
Libre 17110
Imperial 17108
determinado 17103
fotografías 17100
ísima 17098
Cañ@@ 17094
benefici@@ 17090
bos@@ 17090
fauna 17090
Sá@@ 17087
ejecu@@ 17087
necesaria 17086
Carl 17081
itarios 17080
competir 17079
apel@@ 17077
serán 17075
Colón 17074
jardines 17074
torales 17073
hermanas 17071
Ga@@ 17065
perci@@ 17065
High 17062
Princip@@ 17062
circunstancias 17059
ze@@ 17059
ais 17057
propu@@ 17056
cilindr@@ 17046
Checa 17043
Q 17040
daño 17038
polaco 17038
andia 17037
Vas@@ 17033
ómico 17030
orillas 17024
genérico 17014
Supremo 17013
seleccionado 17012
tot@@ 17008
sagr@@ 17007
parecen 17005
formal 17002
retrato 17002
manej@@ 17001
perfec@@ 17001
ruedas 17000
variable 16997
estatales 16992
protestas 16990
vender 16990
elevado 16989
laz@@ 16988
Mak@@ 16980
Mercedes 16979
fos 16978
sepul@@ 16976
vienen 16973
sufrag@@ 16972
considerable 16971
alimentación 16970
ocampista 16963
corri@@ 16962
ier 16959
selec@@ 16959
culturas 16955
capítulos 16952
precios 16945
griegos 16942
portuguesa 16942
filme 16936
flora 16936
interrump@@ 16936
hier@@ 16931
Sav@@ 16926
bajos 16926
ik 16921
referencias 16916
nucle@@ 16912
auto 16908
Produc@@ 16901
superar 16899
Félix 16895
conciencia 16892
animación 16888
asis 16885
católico 16881
Tes@@ 16880
patio 16880
tard@@ 16865
nú@@ 16860
tas@@ 16860
sson 16858
emblem@@ 16851
Mach@@ 16848
Morales 16848
Turismo 16847
icación 16845
cuentos 16841
recre@@ 16841
Top@@ 16840
Antár@@ 16839
ster@@ 16837
Pil@@ 16834
ím@@ 16831
ocic@@ 16829
atrap@@ 16825
Quin@@ 16820
Mill@@ 16818
profund@@ 16818
éndez 16817
pena 16814
Laur@@ 16813
timos 16811
bloque 16810
Inicialmente 16808
productora 16808
cerro 16803
suprim@@ 16800
― 16798
administrativo 16793
mer 16783
ótica 16783
nervi@@ 16782
largos 16781
eliminado 16780
interpre@@ 16776
jurado 16776
hubi@@ 16774
Papa 16773
landia 16772
veter@@ 16772
zado 16771
Activ@@ 16768
oner 16764
quiera 16759
separado 16751
candid@@ 16750
fijo 16746
ign@@ 16745
intentar 16744
inscripción 16738
depresión 16735
saga 16735
notas 16734
Óscar 16732
lej@@ 16729
asen 16724
Observatorio 16723
telef@@ 16720
infraestructura 16719
Taylor 16718
flam@@ 16718
implica 16716
exfutbolista 16712
rusos 16709
Ferr@@ 16706
consecuencias 16704
exitosa 16702
justific@@ 16701
rurales 16701
apropi@@ 16700
embarc@@ 16700
pist@@ 16698
Vall@@ 16696
ope 16696
teorías 16696
dicas 16694
empe@@ 16682
alos 16681
adu@@ 16680
Green 16677
Álvaro 16674
cuidado 16671
pudi@@ 16669
Racing 16668
Kor@@ 16664
cultivos 16662
Air 16659
gui@@ 16659
Fab@@ 16656
guionista 16656
plum@@ 16656
especialista 16655
1898 16651
Hotel 16649
secuestr@@ 16643
abast@@ 16642
tividad 16642
rasgos 16641
Fórmula 16638
Karl 16638
dotes 16637
melod@@ 16633
contempl@@ 16632
igen 16631
lares 16631
compañ@@ 16624
desembar@@ 16619
adra 16610
tribu@@ 16607
Situ@@ 16606
Andes 16605
Apertura 16604
Dominicana 16604
particulares 16604
trav@@ 16604
resolver 16603
transformación 16600
víctima 16600
ki@@ 16597
suel@@ 16597
comentó 16592
haberse 16592
vial 16592
Palma 16591
pleno 16586
box@@ 16582
frac@@ 16580
parejas 16574
quedan 16574
Af@@ 16570
partículas 16565
emin@@ 16560
profesores 16560
marcador 16554
Nú@@ 16552
judía 16548
índice 16548
North 16546
Je@@ 16544
construcciones 16543
vivían 16543
Romero 16541
acios 16541
incendi@@ 16541
gestion@@ 16539
dejado 16538
arbus@@ 16537
dirse 16527
edific@@ 16527
edentes 16525
sublev@@ 16522
marqués 16521
considerados 16520
mezcl@@ 16520
ígeno 16519
subterrá@@ 16518
arquit@@ 16517
seno 16515
pér@@ 16509
Han@@ 16507
desambiguación 16503
valor@@ 16502
Adi@@ 16501
automóvil 16501
filial 16498
eccion@@ 16490
Society 16489
femen@@ 16483
cámaras 16482
concluyó 16481
detall@@ 16480
catedr@@ 16479
ref@@ 16479
bloque@@ 16478
Llan@@ 16475
1870 16470
dades 16468
Segundo 16467
camis@@ 16464
ventanas 16463
Hay@@ 16461
sey 16460
Ernesto 16456
atorios 16456
Temporada 16455
adver@@ 16455
jus@@ 16454
Ib@@ 16452
Kaz@@ 16449
Rein@@ 16447
intelig@@ 16447
Viz@@ 16445
pendi@@ 16445
duro 16444
ebre 16444
miner@@ 16443
incidente 16440
ensayos 16439
orientación 16437
manif@@ 16433
gama 16432
inca 16432
ordin@@ 16429
Nápoles 16422
diente 16420
jo@@ 16419
tér@@ 16417
hi 16415
ífer@@ 16415
Habana 16411
Pur@@ 16411
permitía 16411
vie@@ 16402
Der@@ 16401
ísimo 16401
Alc@@ 16399
confes@@ 16394
cima 16392
conspir@@ 16391
riv@@ 16391
heb@@ 16388
caer 16385
crí@@ 16384
gieron 16377
bert 16376
circul@@ 16374
alu@@ 16373
Aur@@ 16366
Muerte 16366
representada 16366
pología 16361
gim@@ 16359
ruinas 16354
qui 16353
profunda 16352
sucesión 16350
fichó 16349
acusado 16346
aden@@ 16344
vivienda 16344
catalog@@ 16343
ril@@ 16343
ularidad 16342
vencer 16342
Gin@@ 16340
Medina 16330
gest@@ 16327
beneficios 16318
ísica 16317
ignor@@ 16316
lis@@ 16316
Fo@@ 16305
rechazó 16305
FI@@ 16301
ges@@ 16295
prestigi@@ 16295
anismo 16286
alber@@ 16284
desper@@ 16282
tión 16282
proyect@@ 16280
Existe 16279
tando 16276
Muchas 16275
ileg@@ 16269
exist@@ 16268
comunista 16266
Canarias 16265
ami@@ 16263
our 16262
privadas 16260
exc@@ 16253
burg 16244
dicos 16241
cribió 16240
atar 16238
laboratorio 16236
iéndose 16235
publicar 16227
retiro 16227
ceros 16223
Conserv@@ 16221
céle@@ 16217
predec@@ 16216
Oper@@ 16214
demol@@ 16214
ométr@@ 16214
Asuntos 16213
semej@@ 16211
Aran@@ 16207
presidenciales 16206
lanzar 16205
AL@@ 16204
Trinidad 16202
ih@@ 16202
matemáticas 16201
legado 16198
bacteri@@ 16196
Kan@@ 16195
crearon 16193
prometi@@ 16193
tut@@ 16190
abell@@ 16187
parcial 16187
vuelto 16187
Avi@@ 16180
ablo 16179
Blue 16175
acabar 16175
Bé@@ 16174
enfrentamiento 16174
tad@@ 16174
vín@@ 16174
Island 16173
ninguno 16173
ejércitos 16170
vivía 16165
decim@@ 16161
sueco 16161
sesiones 16158
COVID 16151
eliminación 16149
imia 16148
cinematográfica 16146
interno 16141
long@@ 16140
acuerdos 16138
mol 16133
Magdalena 16130
Pak@@ 16121
reuniones 16121
intend@@ 16118
atravi@@ 16117
persecución 16116
blancas 16113
Tenía 16112
quir@@ 16111
estal 16109
America 16106
jeros 16106
1901 16105
docente 16105
pertenecía 16105
Hacienda 16102
Lib@@ 16102
pár@@ 16101
séptimo 16100
muestras 16094
iban 16089
específico 16088
Ep@@ 16087
secundarios 16086
dioses 16084
proporcionar 16084
plazas 16080
liderazgo 16079
argumento 16076
reconstrucción 16076
universitario 16074
Sinf@@ 16073
larg@@ 16073
fasc@@ 16071
Au@@ 16069
supervis@@ 16068
Roger 16064
promov@@ 16064
archivo 16063
homónimo 16059
Guzmán 16058
cuestiones 16057
esperaba 16055
imb@@ 16055
aparentemente 16051
Davis 16049
ornam@@ 16049
pobres 16049
porcentaje 16048
cercanos 16047
Reb@@ 16040
literario 16040
pis@@ 16040
utilización 16035
civiliz@@ 16029
lluvias 16026
diversidad 16021
Regres@@ 16019
circular 16019
corrientes 16018
Gonzalo 16014
invitados 16014
Có@@ 16013
elio 16013
encialmente 16012
venció 16011
Juana 16007
vistas 16007
escoc@@ 16005
T. 16004
awa 16002
visible 16002
Cristina 15997
ernes 15997
promin@@ 15997
PR@@ 15994
Puede 15994
decía 15994
DA 15988
South 15988
Inici@@ 15987
continuaron 15987
Amar@@ 15985
ferroviaria 15985
ei@@ 15980
Rojas 15974
soport@@ 15974
pertenecen 15972
americ@@ 15970
Templ@@ 15969
iz 15969
Rab@@ 15967
detenido 15964
escaños 15957
tis@@ 15957
intelectual 15955
renunció 15954
cráter 15948
Múnich 15945
primo 15945
vivencia 15945
gráficos 15944
energ@@ 15942
dimen@@ 15939
émica 15937
Viejo 15933
1895 15932
decisi@@ 15932
Ál@@ 15931
imen 15930
Sk@@ 15929
kl@@ 15924
DE 15921
MA 15921
circulación 15918
áticamente 15912
Carre@@ 15911
anime 15909
senc@@ 15908
tin 15906
ermita 15903
extinción 15903
unci@@ 15903
inae 15902
cristianismo 15899
elegidos 15898
interpretando 15898
arran@@ 15895
dibujo 15890
Ubic@@ 15883
bia 15882
Doc@@ 15878
Acción 15874
imposible 15873
óricos 15872
Cuenca 15867
órganos 15867
15@@ 15852
ish 15852
00@@ 15851
Pes@@ 15843
oración 15843
kg 15841
Kh@@ 15839
Tig@@ 15839
fronteras 15838
perdieron 15837
antigüedad 15834
agrícolas 15833
famosos 15832
supuesto 15832
dueño 15829
muro 15823
udes 15822
Lan@@ 15819
automóviles 15819
presentaron 15817
conocimientos 15815
Cartagena 15812
industriales 15808
retor@@ 15808
Fuente 15807
hormig@@ 15806
solicitó 15802
aterriz@@ 15800
Indonesia 15798
alcanzando 15798
nom@@ 15797
ensayo 15791
jesu@@ 15785
entro 15783
sk 15781
tus 15773
itor 15767
filos@@ 15766
fort 15766
intensidad 15765
zas 15765
premi@@ 15762
aparecido 15760
Dam@@ 15758
Jose@@ 15758
16@@ 15756
alguno 15755
eira 15752
vocal 15752
insectos 15751
Úl@@ 15749
ocional 15743
Posee 15741
asegurar 15741
talleres 15741
combates 15740
osidad 15740
sam@@ 15738
barra 15734
V. 15732
abrir 15732
retirado 15727
representaciones 15725
Hong 15724
Serbia 15724
Suprema 15724
multitud 15721
set 15720
santo 15719
crimen 15717
hidró@@ 15716
abre 15714
caí@@ 15714
lara 15713
retablo 15712
frecuentes 15711
herido 15701
zi@@ 15700
ócr@@ 15696
olog@@ 15695
cán 15691
conjun@@ 15690
coches 15689
erc@@ 15689
Night 15687
W. 15687
reducido 15682
ambiental 15680
lán 15674
ves@@ 15668
sant@@ 15667
almac@@ 15665
mexic@@ 15664
hiper@@ 15663
Series 15661
comentarios 15657
rir 15656
estrecha 15654
liberales 15654
buenos 15651
Jersey 15650
naci@@ 15649
electo 15648
ū@@ 15646
médica 15644
composiciones 15643
salvar 15642
Juventud 15639
dero 15638
Pá@@ 15637
musul@@ 15634
Entr@@ 15632
flan@@ 15632
monarca 15631
buscando 15628
cón 15628
Simón 15623
ricos 15620
Apar@@ 15619
captura 15619
dichos 15619
limita 15615
Már@@ 15613
académica 15613
Fel@@ 15609
ciclista 15606
cón@@ 15604
enfoc@@ 15603
Mec@@ 15599
extendió 15596
éis 15596
secuencias 15594
proteína 15591
campamento 15584
remodel@@ 15583
trabajaba 15583
Varios 15582
deuda 15582
osaurus 15582
BA 15580
conceptos 15577
ny@@ 15576
1899 15566
refuer@@ 15564
Reser@@ 15562
éu@@ 15560
icidio 15559
Stone 15554
Lisboa 15552
fracas@@ 15544
asimismo 15539
Héctor 15535
Miranda 15535
Especies 15529
reglam@@ 15529
católicos 15528
marina 15527
ules 15526
jugado 15524
tigo 15515
trece 15514
produjeron 15511
pio 15509
tern@@ 15509
Jardín 15506
eres 15501
creía 15497
azúcar 15495
Cons@@ 15494
Ra@@ 15491
atmós@@ 15491
helic@@ 15489
Ce@@ 15487
vientos 15487
humanidad 15482
nica 15481
autora 15477
ispos 15477
comprar 15474
Proyecto 15470
Mem@@ 15467
experiencias 15467
nacionalidad 15466
Elena 15465
resol@@ 15465
protagonistas 15463
Obra 15459
pregunta 15456
cano 15452
adoptó 15449
maíz 15445
drogas 15433
nobleza 15433
interpreta 15428
mision@@ 15427
Samuel 15426
originaria 15425
permiso 15425
yn 15424
ásticos 15424
ógico 15424
clasificado 15423
Arizona 15420
exclu@@ 15418
cionario 15409
relieve 15409
Alcal@@ 15406
terremoto 15406
Gan@@ 15405
variantes 15404
ná@@ 15400
pac@@ 15397
comienzan 15396
lluvia 15396
kr@@ 15394
Suárez 15393
nobles 15392
condenado 15391
seguía 15391
Artí@@ 15390
West@@ 15390
aé@@ 15389
compite 15389
Emper@@ 15388
Incluso 15387
Irak 15386
peregr@@ 15386
concejo 15381
nieto 15381
Diputados 15378
Cum@@ 15375
sesenta 15375
Ingeniería 15364
pp@@ 15364
amas 15362
Rio 15359
band@@ 15359
Rugby 15358
Maj@@ 15357
inspiración 15355
Meg@@ 15352
madur@@ 15349
Cav@@ 15346
Universit@@ 15346
marrón 15345
especializado 15343
síntomas 15342
ós@@ 15334
ótico 15332
Marvel 15331
tara 15330
aumentó 15329
jes 15324
Fern@@ 15323
much@@ 15322
maestr@@ 15316
provenientes 15315
jan 15312
fle@@ 15307
zan 15307
usiones 15302
posicion@@ 15301
tendrá 15301
iss@@ 15300
Group 15299
mecan@@ 15298
relatos 15296
enl@@ 15295
tribunal 15291
Sajonia 15288
darle 15283
Capital 15276
ack 15276
ze 15275
poseía 15268
Alicante 15267
membran@@ 15267
plena 15266
eus 15264
farm@@ 15261
entregó 15259
Margarita 15258
econom@@ 15258
apu@@ 15255
perro 15254
curre 15253
ess@@ 15253
eñ@@ 15246
íaco 15246
Guar@@ 15244
Miembr@@ 15242
cualquiera 15241
colonos 15240
autop@@ 15239
Laguna 15237
comunicaciones 15230
Cár@@ 15228
aline@@ 15227
visitó 15224
roso 15221
Claudio 15217
leche 15215
hoja 15213
WWE 15212
irante 15209
aceptar 15202
carreteras 15202
Sagr@@ 15201
generar 15201
pron@@ 15201
orce 15199
test@@ 15198
1897 15197
Bou@@ 15196
Jacques 15195
Chrysomelidae 15194
ofrecer 15191
cus@@ 15187
Quito 15185
disolución 15183
LP 15175
cuadros 15175
ganadería 15175
establecida 15169
gusto 15168
Obr@@ 15164
incremento 15163
presentaciones 15160
cien 15155
Petr@@ 15153
ponen 15153
sas 15153
reput@@ 15152
viajar 15152
costumbres 15151
señales 15151
heredero 15149
restr@@ 15149
hembras 15148
pus@@ 15147
manifestaciones 15146
Lake 15145
ON@@ 15143
dez 15140
SA@@ 15135
convocado 15133
archipiélago 15132
excelente 15125
Sun@@ 15122
bana 15121
Ciencia 15120
cuestion@@ 15115
confir@@ 15112
delan@@ 15105
inauguración 15105
drome 15100
ocupada 15099
manipul@@ 15098
zap@@ 15097
inser@@ 15096
inten@@ 15095
anuales 15094
talento 15091
congreg@@ 15081
conjuntos 15081
citado 15080
homosexu@@ 15080
1896 15077
Ejecutivo 15077
buses 15076
contratado 15075
Semana 15064
cari@@ 15064
usieron 15064
cabe 15055
oli 15053
propuestas 15048
israelí 15047
aventuras 15045
nez 15045
rug@@ 15045
mpico 15044
Ces@@ 15042
olímpico 15040
NA 15036
Pot@@ 15034
fís@@ 15034
Benito 15031
obst@@ 15027
Juli@@ 15026
relacionada 15026
obligó 15024
íl@@ 15023
satélite 15017
sof@@ 15017
tometr@@ 15015
profesión 15013
uelo 15009
demostrado 15003
Florencia 14998
Hidalgo 14997
brazos 14996
Barrio 14991
dobles 14989
Universitario 14978
corrupción 14978
negativa 14976
Libertadores 14974
Land@@ 14973
Poder 14964
condujo 14962
ideal 14959
Estuvo 14955
1860 14953
cánd@@ 14951
oli@@ 14951
belga 14949
recu@@ 14948
homónima 14946
acom@@ 14943
cardenal 14943
bos 14940
definir 14936
visual 14932
deteri@@ 14931
eligió 14930
erte 14929
esi@@ 14927
idamente 14927
Histórico 14922
discípul@@ 14921
enza 14921
ny 14920
escritas 14918
hábit@@ 14918
Lab@@ 14915
presas 14914
magn@@ 14909
espiritual 14908
Republic@@ 14904
elles 14904
abord@@ 14902
ff 14898
sociedades 14896
Norteamérica 14895
Ku@@ 14892
jada 14889
andal@@ 14887
cooperación 14887
partidarios 14887
sobrino 14884
bus 14880
Duque 14876
cifra 14874
ean 14874
radical 14872
seco 14872
paciente 14871
Simon 14870
Ak@@ 14862
erg@@ 14861
IC 14858
Premier 14858
ecuatori@@ 14857
campeones 14856
metropolitana 14855
Ambi@@ 14854
típico 14851
seca 14850
Hier@@ 14848
batallas 14848
Molina 14847
necesita 14846
Muñoz 14842
cep@@ 14838
Mic@@ 14834
Alpes 14833
indican 14832
Medalla 14826
asteroide 14823
publicidad 14823
retorno 14821
FIFA 14820
depos@@ 14820
humor 14820
gabinete 14819
1889 14811
Realizó 14808
chinos 14807
Mayo 14804
Tit@@ 14803
escenarios 14801
iko 14800
profundo 14799
penetr@@ 14796
Lewis 14795
mitología 14794
móvil 14793
Clu@@ 14790
Cabe 14789
únicos 14788
asociados 14782
llevando 14782
Ped@@ 14778
migr@@ 14776
desaparecido 14775
Gil 14771
demostró 14771
Baviera 14769
paro 14767
Juega 14765
Cup 14764
cobertura 14761
Só@@ 14760
bord@@ 14759
esculturas 14759
Massachusetts 14757
cortos 14755
jugaba 14755
cobre 14753
embal@@ 14745
Ot@@ 14743
Comand@@ 14742
aparecieron 14742
quet@@ 14742
misteri@@ 14739
parecía 14739
sexta 14734
Hizo 14733
terror 14733
afr@@ 14730
desierto 14726
rumbo 14723
mono@@ 14719
agon@@ 14718
neutr@@ 14718
mecánica 14716
jefes 14709
ambre 14708
Vargas 14706
tradicionalmente 14704
muere 14699
discre@@ 14698
reconoció 14698
repres@@ 14698
edas 14695
sugir@@ 14692
Origen 14690
alc@@ 14690
30@@ 14687
Peter@@ 14687
flot@@ 14686
opl@@ 14686
Bell@@ 14685
bomba 14685
unieron 14682
Alej@@ 14680
cercanías 14680
entender 14679
Aquí 14678
Cy@@ 14676
parlamento 14675
Institu@@ 14673
ecida 14673
semi@@ 14673
especializada 14672
penal 14671
señor@@ 14671
tistas 14671
enor@@ 14668
valenci@@ 14666
pretend@@ 14664
puertos 14664
posibilidades 14663
revisión 14663
sit@@ 14655
Colorado 14654
pura 14652
teto 14652
uz 14652
Lord 14646
Kam@@ 14641
históricas 14640
llamar 14634
Mí@@ 14627
enco 14624
salón 14620
esquina 14616
judío 14610
próxima 14609
actúa 14605
cond@@ 14602
conclus@@ 14601
1891 14600
soldado 14600
cerrado 14599
reconoce 14598
intelectu@@ 14595
alem@@ 14594
castell@@ 14593
Lago 14592
ancha 14591
propietarios 14589
consciente 14587
constituyen 14587
promulg@@ 14586
novia 14585
ofreci@@ 14583
Cau@@ 14582
ópo@@ 14582
Tir@@ 14579
Giovanni 14575
cooper@@ 14575
SC 14574
basados 14570
preci@@ 14569
ectar 14565
pares 14565
creador 14564
alcanzado 14561
Código 14560
esco@@ 14557
Microsoft 14555
procedimiento 14553
ian 14552
épo@@ 14552
ald@@ 14550
sex@@ 14547
reforz@@ 14546
Alex 14540
construidos 14540
Recibió 14538
verti@@ 14538
endida 14537
Literatura 14534
igas 14534
trag@@ 14532
Day 14526
coster@@ 14525
cubre 14524
bati@@ 14523
low 14517
acre 14509
fósiles 14506
asteroides 14505
deg@@ 14502
hay@@ 14502
platafor@@ 14502
vér@@ 14501
hacían 14495
opla 14492
construy@@ 14490
Vie@@ 14489
Sum@@ 14487
UCI 14486
procedente 14483
frances@@ 14469
incluidas 14468
viuda 14465
tecnologías 14463
ters 14463
andra 14461
dal@@ 14461
aní 14454
intensi@@ 14447
Kon@@ 14445
contraste 14445
irat@@ 14444
Azul 14441
Comp@@ 14441
ham 14440
latino@@ 14439
olla 14438
Esper@@ 14437
aficionados 14437
Guay@@ 14435
amiga 14434
Bulgaria 14432
entradas 14431
siente 14431
campesinos 14430
ífico 14430
Capit@@ 14429
diz@@ 14429
armada 14426
extensa 14422
Tan@@ 14421
10.@@ 14418
cerebro 14417
iniciales 14416
top 14414
ígenes 14413
side 14412
Honor 14411
Información 14411
ántico 14409
representó 14407
cleos 14403
Estudi@@ 14401
Diario 14396
´ 14395
Elizabeth 14394
Antiguo 14393
AP 14389
compuso 14389
incluy@@ 14388
bula 14382
legales 14381
ánsito 14380
ko@@ 14378
armen@@ 14377
guía 14377
icismo 14375
11@@ 14374
blan@@ 14373
funciona 14373
icon@@ 14373
Tim@@ 14369
quis@@ 14368
cubierto 14367
Championship 14365
bando 14363
fort@@ 14363
ograf@@ 14361
privileg@@ 14354
pose@@ 14352
Navidad 14349
reser@@ 14349
cedido 14346
espectáculos 14345
Sy@@ 14344
grá@@ 14342
astre 14339
continuidad 14337
odoro 14334
1888 14330
ilus 14329
sentencia 14329
arto 14327
nido 14327
Ash@@ 14325
edio 14322
Mand@@ 14321
centra 14318
dy 14318
parecido 14317
play 14317
dejaron 14315
evacu@@ 14310
Lac@@ 14305
Hans 14304
Oficial 14302
imperi@@ 14301
acús@@ 14299
expul@@ 14298
Esa 14294
Integr@@ 14293
Result@@ 14291
ñado 14288
ous 14287
aer 14285
ock 14284
paralelo 14283
quera 14280
raz@@ 14280
relacion@@ 14280
simples 14280
inspec@@ 14276
cercanas 14274
usados 14270
CA 14262
Veracruz 14257
Antioqu@@ 14254
Camino 14253
instancia 14252
Hir@@ 14251
antil 14251
asión 14249
oph@@ 14243
entreten@@ 14242
Laura 14239
deportivos 14233
bara 14232
nombramiento 14231
Medellín 14230
Mit@@ 14230
miedo 14229
ogía 14228
ake 14223
Rol@@ 14222
extremadamente 14219
× 14215
ingo 14208
presti@@ 14206
Bak@@ 14202
Yo 14197
Dado 14187
glaci@@ 14187
dos@@ 14179
Union 14175
teriores 14175
concreto 14174
sí@@ 14174
Revolucion@@ 14173
yar@@ 14172
Dal@@ 14168
eter 14167
técnicos 14160
pale@@ 14158
caci@@ 14157
ck 14157
Hub@@ 14154
sé@@ 14152
Association 14151
men 14151
Prado 14148
timo 14135
gram@@ 14134
blind@@ 14133
erras 14132
Carl@@ 14127
ner@@ 14127
umin@@ 14123
leer 14119
Fol@@ 14114
aler@@ 14112
espir@@ 14108
suspendi@@ 14105
Oviedo 14101
sistem@@ 14101
ess 14098
inar 14097
Adam 14087
Adolfo 14087
dición 14082
protesta 14082
abildo 14081
oxid@@ 14079
tenga 14079
Mauricio 14077
CN@@ 14071
Paso 14067
fam@@ 14067
Archivo 14066
Little 14066
Perman@@ 14064
punk 14064
Congo 14061
Coruña 14061
banqu@@ 14056
nazi 14051
heter@@ 14049
clan 14048
tenis 14047
Napoleón 14038
MS 14035
tre@@ 14033
Blan@@ 14028
Lag@@ 14027
ren 14023
responsables 14023
tea 14019
à@@ 14018
VI@@ 14017
peri@@ 14017
discrimin@@ 14015
ícula 14010
inga 14009
Pop@@ 14003
héro@@ 13997
xim@@ 13997
François 13995
Ortiz 13993
Log@@ 13991
pendientes 13991
valid@@ 13990
socio 13986
Villar@@ 13984
fili@@ 13980
latina 13979
Administr@@ 13978
Liberal 13964
frecu@@ 13964
anun@@ 13963
onista 13963
ted@@ 13963
play@@ 13961
agos 13959
Pek@@ 13958
mana 13955
amante 13952
Sir 13944
extrem@@ 13944
PC@@ 13943
ius 13940
Ú@@ 13934
Boys 13919
Jan@@ 13917
tent@@ 13917
Mexicana 13913
1893 13912
Sam 13912
Coc@@ 13907
iliz@@ 13901
vena 13899
AT 13895
1500 13894
uas 13893
Lanz@@ 13889
Vivi@@ 13887
Tiempo 13879
pian@@ 13873
Madre 13866
mental 13865
Tú@@ 13861
Mart@@ 13857
copia 13856
Vent@@ 13855
Mancha 13853
nos@@ 13853
Letras 13851
ongo 13847
enfr@@ 13846
fiere 13843
cuar@@ 13833
Legisl@@ 13825
Lem@@ 13824
East 13823
anus 13818
oter@@ 13818
novi@@ 13815
Bibli@@ 13812
arcas 13810
She@@ 13800
teriormente 13799
academ@@ 13796
Cot@@ 13794
hes@@ 13794
Cand@@ 13793
Sex@@ 13788
tillo 13786
uda 13784
Eric 13781
Forma 13781
descrip@@ 13781
dias 13781
Ciudad@@ 13779
Revista 13779
artificial 13773
iscal 13772
Romano 13771
ap 13766
asio 13765
futbol@@ 13765
ulo 13765
fina 13758
Mateo 13756
osp@@ 13756
habilit@@ 13755
Awards 13752
bolivi@@ 13752
cher 13752
Tail@@ 13749
iento 13749
ologías 13748
fre 13745
mis 13744
Canción 13742
propul@@ 13741
reserv@@ 13741
mé@@ 13732
coinc@@ 13731
Indias 13728
brind@@ 13723
Quer@@ 13722
lave 13719
ush@@ 13716
icion@@ 13713
entan 13707
Duc@@ 13706
ges 13704
Rod@@ 13703
Nintendo 13702
enne 13688
fo@@ 13686
iores 13673
osaur@@ 13672
Valparaíso 13669
astron@@ 13668
LA 13667
Infan@@ 13663
Sho@@ 13662
c. 13662
ingen@@ 13662
pandemia 13662
brev@@ 13661
with 13648
Campos 13647
diagn@@ 13647
Olí@@ 13636
difí@@ 13636
mera 13636
Natural 13634
fá@@ 13633
Let@@ 13629
nio 13629
Bes@@ 13625
nar 13622
nic@@ 13620
vé@@ 13619
ath 13615
supre@@ 13607
digitales 13606
reform@@ 13602
sis 13601
1892 13599
Paraná 13599
mapa 13597
hero@@ 13596
1800 13593
perio@@ 13590
Call@@ 13588
S.A. 13587
dam@@ 13587
1868 13585
isco 13585
Ret@@ 13581
electric@@ 13579
1885 13577
ors 13574
aux 13567
isto 13555
pa@@ 13552
cae 13549
pec 13549
Etim@@ 13545
rugby 13545
LE@@ 13541
Sw@@ 13541
iger@@ 13540
MTV 13539
Pau@@ 13537
Nag@@ 13532
semin@@ 13531
Luisa 13524
Rad@@ 13524
mic 13519
foro 13518
od 13517
lumin@@ 13515
iten 13512
ano@@ 13511
sul 13507
lieg@@ 13506
magné@@ 13500
excel@@ 13499
meteor@@ 13492
Alan 13491
Ferro@@ 13491
ñez 13488
Anti@@ 13487
orías 13485
uniforme 13483
símb@@ 13476
congres@@ 13474
Roja 13471
Praga 13468
Cantabria 13466
Ray 13466
magistr@@ 13466
acont@@ 13447
Banda 13442
Marqu@@ 13438
Mam@@ 13436
Pamplona 13436
clav@@ 13435
eer 13431
Friedrich 13429
vag@@ 13429
1894 13423
1886 13422
lima 13421
estrat@@ 13419
Lov@@ 13417
Pav@@ 13417
Hip@@ 13414
ticul@@ 13410
It@@ 13409
Lit@@ 13405
Guadalupe 13403
Sony 13403
gre@@ 13402
24@@ 13398
imi@@ 13396
comprom@@ 13395
identi@@ 13394
talla 13392
viles 13388
Vuelta 13384
cobr@@ 13384
oth@@ 13381
boda 13376
RA 13375
pi 13375
Sport 13373
Metropolitana 13372
But@@ 13367
cerebr@@ 13367
Fac@@ 13358
rehabilit@@ 13355
Game 13354
Quir@@ 13352
yan 13350
gor@@ 13345
ci 13344
bi 13342
ham@@ 13342
TE@@ 13341
Punta 13338
Eli@@ 13337
Kit@@ 13336
rios 13330
flex@@ 13329
Sigu@@ 13325
bau@@ 13321
Moder@@ 13317
Atlanta 13313
ball@@ 13309
escul@@ 13303
Han 13295
PSOE 13291
Antigua 13276
conductor 13276
Toronto 13275
Mallorca 13274
ses@@ 13274
cerem@@ 13272
Tucumán 13267
valles 13267
lip 13264
esté 13259
moderni@@ 13257
isten 13256
Catal@@ 13253
bomb@@ 13243
Registr@@ 13241
nit@@ 13241
Sede 13232
acr@@ 13219
Star@@ 13216
Wood@@ 13216
iki 13214
palest@@ 13213
Corporation 13212
armon@@ 13212
aud 13211
Tarr@@ 13210
compi@@ 13210
Jim 13209
hot@@ 13209
rector 13209
ódromo 13207
orum 13206
Ball@@ 13205
tendr@@ 13205
Kansas 13204
uti@@ 13201
Arn@@ 13195
Bec@@ 13195
erie 13195
ø@@ 13195
Sep@@ 13193
Ki@@ 13186
YouTube 13182
iliano 13181
jin@@ 13181
Ka@@ 13179
lé@@ 13172
Sofía 13168
egan 13160
Lara 13159
videoc@@ 13153
wa 13146
ósito 13144
anja 13143
procedi@@ 13142
And@@ 13140
impl@@ 13140
hici@@ 13139
ítul@@ 13136
Rot@@ 13128
Douglas 13123
air@@ 13115
Argel@@ 13113
agot@@ 13112
dosis 13110
definiti@@ 13107
var. 13105
1884 13103
Coronel 13103
film 13100
Jan 13099
veloc@@ 13089
van@@ 13086
Anderson 13084
Yugoslavia 13083
jeron 13080
g. 13079
ueva 13079
dro@@ 13077
Dolores 13076
oriente 13076
alde@@ 13074
Tenerife 13070
Caballero 13065
aff@@ 13065
alit@@ 13064
misa 13062
asim@@ 13057
lano 13057
plen@@ 13054
divid@@ 13051
ceb@@ 13046
remot@@ 13045
{ 13045
vertical 13041
campus 13036
Brus@@ 13035
ABC 13034
evid@@ 13026
1879 13025
Fili@@ 13023
lac@@ 13022
orbital 13016
tista 13008
expon@@ 13007
Gri@@ 13005
latitu@@ 13004
suic@@ 13002
ogén@@ 12999
Sr. 12995
Oxford 12994
Stephen 12992
mm. 12989
elar 12985
Spider 12984
Suc@@ 12984
af 12977
consig@@ 12977
circ@@ 12974
Studios 12963
out 12963
Beach 12961
custo@@ 12961
Aten@@ 12960
mang@@ 12958
propag@@ 12958
Constantin@@ 12954
percep@@ 12952
Belgrano 12949
Cí@@ 12948
gust@@ 12948
ll@@ 12948
ein@@ 12944
Yam@@ 12943
algorit@@ 12938
érico 12938
Esti@@ 12933
nec@@ 12933
ly@@ 12924
kov 12918
Agricul@@ 12916
Ric@@ 12916
Jr 12915
Ry@@ 12912
infr@@ 12912
discus@@ 12910
carp@@ 12909
austri@@ 12906
progr@@ 12902
vulner@@ 12898
aflu@@ 12893
Pit@@ 12891
heim 12890
Tex@@ 12889
ónom@@ 12889
Conc@@ 12887
Kn@@ 12883
resist@@ 12883
env@@ 12882
900 12879
Sant 12876
Caballer@@ 12872
terci@@ 12871
portugu@@ 12869
sio 12869
Ner@@ 12866
Broadway 12865
tripul@@ 12863
Clara 12859
ingen 12858
neos 12853
concili@@ 12851
Afgan@@ 12848
paragu@@ 12848
Minnesota 12843
mir 12843
1887 12842
infin@@ 12840
Mexic@@ 12839
opera 12838
jud@@ 12827
URSS 12823
Barran@@ 12821
Boca 12820
nova 12819
Armenia 12817
Boy@@ 12816
Juárez 12814
cina 12809
zana 12807
Lincoln 12799
Sun 12793
Mik@@ 12792
uel 12792
ars 12791
AL 12790
ero@@ 12790
Justo 12789
Salv@@ 12787
Marcelo 12786
dula 12783
Bár@@ 12781
Andrea 12779
tural 12777
ings 12776
Francis 12773
God@@ 12772
Ast@@ 12771
acial 12771
jer 12769
integran@@ 12765
zano 12761
dor 12757
Biblia 12754
Pet@@ 12754
arial 12752
fra@@ 12748
mita 12748
live 12747
omor@@ 12747
amina 12746
canc@@ 12744
controvers@@ 12738
Asi@@ 12730
surge 12730
verdad@@ 12725
constant@@ 12724
sud@@ 12713
Bet@@ 12712
divis@@ 12710
Johann 12706
Yucatán 12706
ager 12701
FM 12700
mús@@ 12695
stru@@ 12695
entí@@ 12694
Andrew 12693
evi@@ 12688
Particip@@ 12681
flor 12679
Bartolomé 12678
Maestro 12678
pertenec@@ 12677
anj@@ 12675
compl@@ 12675
britán@@ 12666
Radi@@ 12664
Ávila 12664
Nac@@ 12663
tía 12660
aren@@ 12658
ficti@@ 12654
variables 12654
On 12652
Occ@@ 12651
op 12647
use 12647
1850 12645
ken 12645
Bag@@ 12644
abar@@ 12638
legislat@@ 12635
sombr@@ 12633
interven@@ 12631
ole@@ 12631
ajus@@ 12627
hir@@ 12625
Flora 12622
lula 12620
Plant@@ 12619
1881 12616
favorable 12608
dominante 12606
roqu@@ 12605
Quint@@ 12603
Rub@@ 12601
pati@@ 12599
Deportiva 12597
1876 12595
ism@@ 12592
costum@@ 12591
Bau@@ 12589
12.@@ 12587
yc@@ 12586
alp@@ 12585
ime 12584
ji@@ 12580
Feder@@ 12573
Indiana 12571
MP@@ 12570
procur@@ 12569
ecos@@ 12567
bill@@ 12561
Corn@@ 12558
Domin@@ 12547
Patri@@ 12543
eng 12542
Iván 12537
Señ@@ 12536
Ty@@ 12535
Bab@@ 12530
Hispan@@ 12528
Eus@@ 12526
ix@@ 12525
Viol@@ 12520
ail@@ 12520
ix 12519
clor@@ 12517
Alg@@ 12516
Fort 12511
catal@@ 12511
curr@@ 12511
Garr@@ 12507
vertebr@@ 12506
Electoral 12503
dem 12500
integ@@ 12499
ulg@@ 12496
espe@@ 12491
Leonardo 12488
azos 12487
1871 12486
cable 12486
Palestina 12485
MI@@ 12480
sm@@ 12478
Itali@@ 12474
Ramos 12474
inéd@@ 12473
iny@@ 12470
similit@@ 12465
úl 12465
Road 12463
Mérida 12460
Alfred 12451
incu@@ 12450
camar@@ 12440
atis@@ 12439
Clausura 12435
cura 12435
Azerba@@ 12433
rad@@ 12433
0.000 12432
Alber@@ 12429
Nelson 12426
Kevin 12420
Miller 12420
Zo@@ 12420
protest@@ 12420
Estudiantes 12415
ome 12415
degrad@@ 12406
gi 12406
Monte@@ 12400
destruc@@ 12399
lie 12397
echos 12391
ð@@ 12391
cord@@ 12389
Johnny 12388
Sicilia 12388
Eva 12386
alcohol 12385
ubio 12384
embr@@ 12381
unc@@ 12381
Da@@ 12377
Hamb@@ 12374
Whit@@ 12372
ate@@ 12370
Tal 12369
Num@@ 12360
Michel 12358
PA 12355
Fut@@ 12349
11.@@ 12347
CS@@ 12342
tum@@ 12342
Bruce 12340
Naval 12339
Villan@@ 12334
www.@@ 12334
sinte@@ 12333
Nick 12331
fia 12324
arti@@ 12323
conex@@ 12323
implant@@ 12322
videos 12321
Video 12316
Manz@@ 12315
Niño 12314
Rose 12314
eau 12307
icus 12305
tava 12297
ieran 12296
sacrif@@ 12291
gü@@ 12290
1878 12288
refr@@ 12288
Editorial 12282
inoc@@ 12282
Junior 12281
ome@@ 12277
Ky@@ 12273
Rally 12271
Victor 12271
ester 12266
Warner 12265
ć 12264
Ges@@ 12260
Howard 12256
Franc@@ 12249
Fuentes 12246
Jimmy 12243
1882 12236
ł@@ 12226
Evangel@@ 12223
evol@@ 12222
presid@@ 12221
Lat@@ 12219
osc@@ 12216
sos 12216
polin@@ 12213
escop@@ 12212
onga 12210
Win@@ 12208
ifer@@ 12207
torn@@ 12203
seri@@ 12202
lana 12197
Alvar@@ 12196
juven@@ 12196
istr@@ 12194
State 12193
Ecu@@ 12190
Ef@@ 12186
repos@@ 12184
23@@ 12183
Julián 12183
Long 12181
tall@@ 12177
Monaster@@ 12175
Fri@@ 12173
comedi@@ 12166
cito 12164
ril 12162
audio 12161
igna 12159
examin@@ 12158
epis@@ 12157
Termin@@ 12156
Extrem@@ 12154
Ingenier@@ 12152
depen@@ 12148
1864 12142
Allen 12140
rente 12139
Semin@@ 12138
enem@@ 12138
Marta 12136
quel 12132
event@@ 12131
déc@@ 12126
Gobern@@ 12123
egal 12123
mater@@ 12123
its 12122
Litu@@ 12120
Tradi@@ 12119
roy@@ 12119
Hem@@ 12116
sedi@@ 12116
integral 12112
telev@@ 12110
orientales 12108
1883 12107
Arti@@ 12106
Estonia 12106
herrami@@ 12098
Prus@@ 12092
km. 12086
alle@@ 12083
sel 12083
ym@@ 12082
amarca 12081
roj@@ 12080
álisis 12079
ingu@@ 12065
laya 12065
Arri@@ 12064
Boy 12062
dama 12062
Andr@@ 12060
CF 12060
let 12056
che@@ 12051
urg@@ 12051
Chu@@ 12048
denas 12042
Madonna 12029
any@@ 12029
Dist@@ 12027
Valent@@ 12027
onto 12020
aman@@ 12019
K. 12018
Arts 12016
Anthony 12013
Carab@@ 12013
Base 12010
ites 12009
vil 12009
Ali 12007
jón 12001
ME@@ 12000
1865 11994
enam@@ 11991
ígen@@ 11985
beca 11978
nitr@@ 11977
Herr@@ 11972
aprendi@@ 11965
Alcalá 11964
AI@@ 11959
bater@@ 11954
apart@@ 11953
Cle@@ 11952
ache 11950
bé@@ 11940
mata 11933
dispers@@ 11932
jubil@@ 11929
pers@@ 11929
adolescente 11926
3000 11925
experimental 11923
alias 11903
ód@@ 11903
1830 11896
Def@@ 11896
Fall@@ 11895
ium 11894
1848 11891
Long@@ 11890
internet 11889
simul@@ 11886
usual 11886
comend@@ 11885
post 11882
pino 11879
Monterrey 11878
Lau@@ 11876
poses@@ 11874
Corri@@ 11870
iter@@ 11870
Bell 11869
genera 11864
INE 11860
Vera 11860
nad@@ 11860
André 11858
Kepler 11858
establ@@ 11858
Les@@ 11857
boc@@ 11856
rival@@ 11856
model@@ 11855
ste@@ 11855
Paris 11852
uri@@ 11852
CV 11851
funer@@ 11851
emper@@ 11847
Sat@@ 11838
bits 11838
bio@@ 11837
abstr@@ 11836
eli 11834
ises 11834
públ@@ 11834
pent@@ 11829
caudal 11823
Guayaquil 11822
orit@@ 11821
Fis@@ 11820
Arena 11815
1840 11814
ases 11807
luc@@ 11802
Navarro 11801
petrol@@ 11799
compren@@ 11798
ino@@ 11798
Lady 11796
Pilar 11795
Lang@@ 11793
vamente 11782
1867 11780
mobili@@ 11777
tual 11775
donado 11774
Tap@@ 11771
alli@@ 11771
Comics 11769
ii 11767
Arch@@ 11766
aragon@@ 11766
Iber@@ 11764
extra 11764
UC@@ 11762
ispo 11760
dum 11753
ametr@@ 11750
tible 11749
hil@@ 11748
legend@@ 11747
London 11743
taro 11743
dramatur@@ 11742
Democrá@@ 11741
Mass@@ 11741
Rodolfo 11738
amblea 11735
aun@@ 11733
ólicos 11730
Len@@ 11728
Josep 11727
aug@@ 11725
vice@@ 11722
neum@@ 11721
regi@@ 11720
Bay 11718
part@@ 11716
1873 11715
Cambridge 11715
enia 11710
AR 11705
Conservat@@ 11702
illy 11698
Secre@@ 11697
gam@@ 11697
eral 11696
meta 11694
acete 11688
clandest@@ 11679
tira 11675
Cus@@ 11674
olina 11672
RI@@ 11671
cup@@ 11667
ficio 11667
ATP 11663
Esqu@@ 11648
azar@@ 11638
Pep@@ 11637
fri@@ 11636
tag@@ 11635
oe 11630
invas@@ 11628
1861 11626
rop@@ 11626
Arist@@ 11622
ies 11619
arre@@ 11606
sinc@@ 11606
Cub@@ 11603
suy@@ 11602
Morgan 11593
empar@@ 11591
yp@@ 11585
herb@@ 11582
Go 11580
promovi@@ 11575
Qui@@ 11574
cientí@@ 11569
destitu@@ 11560
yer@@ 11559
Perón 11553
Zar@@ 11552
Film 11551
toler@@ 11551
CC@@ 11550
1,5 11549
Queen 11549
tru@@ 11548
adi 11545
promot@@ 11545
1875 11542
Trujillo 11541
Moore 11535
cc 11534
Ker@@ 11530
Wat@@ 11528
afa 11528
Cis@@ 11526
Mej@@ 11526
faro 11524
eu 11520
tario 11519
Is 11513
Rioja 11513
Pale@@ 11509
lava 11509
Cáceres 11508
sép@@ 11508
1872 11507
Google 11505
Tos@@ 11499
polit@@ 11493
ison 11489
1869 11488
25@@ 11488
fru@@ 11487
Uri@@ 11486
more 11485
vertic@@ 11484
Americana 11481
cend@@ 11479
house 11479
Gru@@ 11476
polo 11469
nas 11467
card@@ 11463
Orleans 11460
septentr@@ 11450
tamb@@ 11446
PlayStation 11445
Ortega 11441
gin@@ 11439
50@@ 11428
Núñez 11428
king 11428
110 11427
tranqu@@ 11426
bet@@ 11423
tox@@ 11423
Eurov@@ 11421
26@@ 11420
dera 11420
arch@@ 11419
ps@@ 11419
Julia 11416
eur@@ 11412
Jane 11410
crimin@@ 11409
CD@@ 11408
Bank 11406
Eg@@ 11405
Up 11405
dney 11403
Industrial 11394
provisional 11394
net 11391
seud@@ 11380
Sag@@ 11379
Houston 11377
Elec@@ 11371
conflu@@ 11370
Conn@@ 11367
bom@@ 11367
Pul@@ 11363
Pop 11362
logos 11359
lucr@@ 11359
fer 11358
induc@@ 11358
Telec@@ 11353
a. 11353
att@@ 11352
prima 11352
mér@@ 11349
Que 11342
erlo 11341
jorn@@ 11338
bach 11337
1863 11335
Digital 11333
1874 11331
Ryan 11330
Isidro 11325
Your 11325
élite 11324
tribun@@ 11323
Henri 11321
ert 11319
Fus@@ 11316
creen 11316
3D 11311
mosa 11310
consult@@ 11300
Vig@@ 11297
olor 11291
impos@@ 11290
bec@@ 11282
ory 11281
Men 11280
rectangular 11277
News 11275
religi@@ 11269
terrestres 11269
PS 11264
Cabrera 11262
Soto 11261
alab@@ 11261
carn@@ 11257
prosper@@ 11256
cañ@@ 11255
convertir 11253
Maur@@ 11251
Clark 11250
ator@@ 11247
Segovia 11245
ampl@@ 11235
any 11234
onial 11233
difer@@ 11228
vera 11227
cler@@ 11225
frontal 11225
frustr@@ 11219
Rib@@ 11215
auge 11213
sing@@ 11210
Kas@@ 11203
ame@@ 11202
AN 11200
Corpor@@ 11200
ingenier@@ 11200
10,@@ 11196
ban 11194
psi@@ 11188
iler 11186
ferencia 11183
pro 11182
SP@@ 11181
Iglesias 11179
SO@@ 11173
oncesto 11167
abad 11166
oslov@@ 11165
11,@@ 11164
12,@@ 11163
Colo 11160
Matt 11156
Vin@@ 11154
Conse@@ 11153
edes 11152
umi 11151
ativ@@ 11144
Sak@@ 11142
ept@@ 11142
tiliz@@ 11137
Energ@@ 11134
proced@@ 11134
grup@@ 11133
Indi@@ 11132
sexu@@ 11130
13,@@ 11121
Vázquez 11120
fest@@ 11118
alba 11117
Harvard 11113
O. 11113
bri@@ 11111
ž@@ 11110
afu@@ 11109
ondo 11109
olo@@ 11108
élites 11108
ína 11102
ST@@ 11101
hembr@@ 11100
ekwondo 11098
ONU 11097
aco@@ 11093
oi 11090
Varso@@ 11089
Ministr@@ 11088
Velasco 11087
mensu@@ 11083
utili@@ 11083
achi 11082
rendi@@ 11080
Got@@ 11078
Kom@@ 11078
Pac@@ 11069
1857 11068
fren@@ 11063
Billy 11061
1866 11060
estruc@@ 11060
té 11059
Arc@@ 11051
cuad@@ 11050
inus 11050
caud@@ 11048
eden 11046
Tul@@ 11045
mineral 11045
Journal 11044
PE@@ 11044
Maxim@@ 11043
contra@@ 11043
fiel 11042
Continu@@ 11040
Dir@@ 11040
Ful@@ 11040
Open 11039
Cob@@ 11038
130 11029
Jaén 11023
áñez 11022
Rin 11019
comb@@ 11016
Cri@@ 11010
facto 11009
franco 11009
hipot@@ 11007
Kol@@ 11004
Charlie 11002
itz@@ 10998
guitarr@@ 10997
umer@@ 10997
vs 10994
arbitr@@ 10991
Dob@@ 10989
ustr@@ 10987
Construc@@ 10986
Jú@@ 10984
comer 10984
disper@@ 10982
meg@@ 10982
peg@@ 10981
trin@@ 10974
enberg 10968
Bach@@ 10967
27@@ 10959
5.000 10959
Detroit 10959
Bien@@ 10951
Franklin 10950
sterdam 10949
semif@@ 10947
1877 10941
Luz 10935
joy@@ 10934
\ 10933
Rolling 10930
Shi@@ 10929
isario 10923
mara 10923
erna 10919
RO@@ 10915
Ann@@ 10908
caf@@ 10901
ith 10901
1862 10899
Anne 10898
cier@@ 10895
git@@ 10895
lot 10895
Roca 10894
dola 10894
ológ@@ 10889
articul@@ 10884
quint@@ 10883
Dan 10882
tific@@ 10880
ópolis 10879
ranking 10877
undos 10873
Juven@@ 10869
Chávez 10867
memor@@ 10863
end 10862
combus@@ 10860
perpet@@ 10854
Calderón 10851
rer 10851
ech 10850
Iowa 10836
munici@@ 10836
ultades 10830
Tac@@ 10820
Girl 10817
alco@@ 10817
Mov@@ 10816
carg@@ 10816
filtr@@ 10814
prision@@ 10813
peculi@@ 10804
delic@@ 10803
Kennedy 10802
Gordon 10801
conforme 10797
Fir@@ 10796
ke@@ 10796
Apple 10795
Oliver 10792
erup@@ 10789
Eugenio 10788
Pom@@ 10788
17@@ 10785
mito 10785
I.@@ 10783
posit@@ 10783
IA 10781
oco 10781
ran 10780
Rap@@ 10776
gh@@ 10773
marin@@ 10770
Cali 10765
Compos@@ 10762
faz 10762
ū 10761
Dakota 10760
Amor 10759
Chap@@ 10758
opini@@ 10757
bella 10756
Corr@@ 10754
Dep@@ 10752
provinciales 10749
Grab@@ 10746
ange 10744
å@@ 10744
Patrick 10743
Nigeria 10741
Piz@@ 10741
accident@@ 10741
unen 10741
ofensi@@ 10736
quet 10715
Eti@@ 10714
hip 10703
derr@@ 10702
maqu@@ 10700
dens@@ 10697
Cast@@ 10696
receptor 10695
Creek 10694
Cerv@@ 10691
Oaxaca 10691
medir 10687
p. 10682
Almería 10681
Democ@@ 10679
riz@@ 10675
ibn 10669
Zap@@ 10668
amo@@ 10666
equival@@ 10658
Jud@@ 10656
ichi 10653
Alt@@ 10652
we 10652
compati@@ 10651
locomot@@ 10651
} 10649
fil 10645
marx@@ 10645
Declar@@ 10644
Huel@@ 10644
ops 10643
ocia 10642
ingre@@ 10637
Salta 10635
agan 10630
ficamente 10628
és@@ 10628
AE@@ 10623
ting 10623
campe@@ 10622
pav@@ 10621
N. 10619
Montes 10617
domic@@ 10617
nik 10607
Clas@@ 10606
angular 10605
istos 10603
precurs@@ 10602
tumb@@ 10600
alan 10599
mont 10598
200@@ 10596
28@@ 10592
hispan@@ 10590
bé 10589
Reci@@ 10587
teor@@ 10586
ku@@ 10584
Autom@@ 10581
Cher@@ 10578
1810 10572
Black@@ 10569
Industr@@ 10566
Cortés 10565
feo 10560
caya 10559
lera 10559
Leopoldo 10558
iros 10557
enn@@ 10555
http 10555
tina 10554
Bil@@ 10553
raci@@ 10552
1820 10547
eck 10547
macul@@ 10547
brill@@ 10541
tul@@ 10541
Gam@@ 10537
DJ 10534
lap@@ 10530
refin@@ 10528
Sie@@ 10527
protec@@ 10526
Fá@@ 10524
Nik@@ 10524
Mut@@ 10523
Home 10518
Sang@@ 10518
fenó@@ 10516
multiplic@@ 10515
subur@@ 10515
bru@@ 10512
Sarah 10511
écn@@ 10509
ocl@@ 10504
Montreal 10501
verg@@ 10501
están@@ 10498
entino 10495
Arz@@ 10494
Ind@@ 10493
idel@@ 10493
Otto 10492
transit@@ 10491
Manhattan 10487
Kelly 10483
dinosaur@@ 10483
Legislat@@ 10482
Sporting 10480
marqu@@ 10477
Autor@@ 10473
Vegas 10473
Dun@@ 10469
macho 10462
Ras@@ 10458
acan@@ 10458
Russell 10455
opo@@ 10454
Las@@ 10453
TC 10450
ular@@ 10449
diput@@ 10442
Abu 10438
Intel@@ 10437
Jord@@ 10433
Yo@@ 10432
aca@@ 10431
ciona 10429
ashi 10416
irregular 10416
Chin@@ 10415
intest@@ 10413
extran@@ 10410
bab@@ 10409
novel@@ 10407
orbitales 10407
Figuer@@ 10406
anca 10406
odio 10397
Bravo 10395
beta 10393
gases 10393
Ví@@ 10392
autobi@@ 10392
Americ@@ 10391
Wisconsin 10384
up 10382
omun@@ 10375
Minas 10374
Lis@@ 10372
indis@@ 10372
All@@ 10368
anna 10366
andro 10364
evangel@@ 10362
ormente 10355
finland@@ 10354
ec 10353
favorables 10351
Bohemia 10345
Rubén 10344
Aguirre 10342
PP 10340
29@@ 10338
UE 10334
Network 10332
improvis@@ 10330
ráp@@ 10329
Pis@@ 10327
Ross 10327
Christopher 10324
mini@@ 10321
yer 10321
port 10311
· 10311
inales 10305
Vélez 10303
GT 10296
campan@@ 10295
1833 10293
Arabia 10293
1812 10292
gén@@ 10290
mig@@ 10290
Constant@@ 10287
Mesa 10286
ien 10285
Old 10283
etto 10283
maya 10283
mio 10277
portal 10276
Coch@@ 10274
Pictures 10274
Singapur 10272
toral 10270
Océ@@ 10264
DS 10263
Casas 10255
NO@@ 10250
enen 10250
USA 10244
Tin@@ 10242
fit@@ 10240
Eng@@ 10239
examen 10238
subordin@@ 10235
1821 10234
Poc@@ 10228
14,@@ 10220
Die 10216
orro 10215
peti@@ 10213
D.@@ 10210
tano 10210
vener@@ 10210
R.@@ 10208
disc@@ 10207
nig@@ 10206
ots 10204
France 10203
avera 10201
zor@@ 10198
Shar@@ 10194
brut@@ 10193
ectiva 10193
nen 10193
Gloria 10188
ado@@ 10187
min 10179
Mr 10176
metod@@ 10176
ds 10173
Alba 10170
ă@@ 10170
urn@@ 10168
expect@@ 10167
125 10164
Esco@@ 10164
Alicia 10162
vir 10162
iment@@ 10160
vamp@@ 10160
defici@@ 10153
RC 10152
eal 10151
Hamilton 10150
Tw@@ 10150
maf@@ 10147
Glob@@ 10144
tibles 10143
ferro@@ 10140
ä@@ 10137
Wilhelm 10136
margin@@ 10136
centen@@ 10135
We 10132
Camb@@ 10129
emig@@ 10126
180 10125
Amp@@ 10124
ement@@ 10121
virtual 10118
ody 10116
Bosnia 10113
ementerio 10107
AD 10105
send@@ 10096
Institute 10095
instrum@@ 10095
vu@@ 10092
hr@@ 10086
1859 10085
agricul@@ 10084
vierten 10081
Oro@@ 10080
Grammy 10079
engo 10077
yo@@ 10075
Angel 10073
alumin@@ 10072
afro@@ 10071
Nevada 10069
René 10063
sequ@@ 10063
Franz 10058
alis@@ 10057
Jam@@ 10053
transpar@@ 10051
Will 10048
reduce 10041
ingos 10033
taña 10033
Crist@@ 10026
Power 10026
Adel@@ 10022
Song 10020
involuc@@ 10018
fino 10017
rut@@ 10014
Can 10012
Juniors 10011
Acu@@ 10007
Toro 10007
perfor@@ 10007
nazis 10006
Carter 10005
Sou@@ 9999
chu@@ 9992
Fur@@ 9990
Arroyo 9987
Cass@@ 9986
filo 9986
back 9983
Lagos 9979
galax@@ 9974
Abr@@ 9973
16,@@ 9969
concer@@ 9965
tena 9965
2,5 9961
rich 9961
Jason 9958
ée 9955
arta 9947
Aguilar 9945
Wi@@ 9945
Neu@@ 9943
ique 9943
Kil@@ 9941
ria 9939
Sul@@ 9938
140 9937
alog@@ 9936
euc@@ 9936
escrit@@ 9933
Simpson 9932
net@@ 9932
Gau@@ 9930
Gén@@ 9924
quot 9924
Andy 9923
taba 9921
tril@@ 9918
Euroc@@ 9916
judici@@ 9916
crita 9909
intens@@ 9909
propaganda 9908
AB@@ 9904
Austin 9902
carbon@@ 9902
Gun@@ 9900
oide 9896
Diana 9892
enga 9886
Ele@@ 9884
ska 9883
rog@@ 9880
ses 9880
ógraf@@ 9880
Control 9877
Jes@@ 9873
Magn@@ 9870
Donald 9868
lent@@ 9868
auta 9866
erle 9862
350 9860
ócesis 9859
Dav@@ 9855
Valley 9855
criminal 9855
³ 9853
Play@@ 9852
arist@@ 9852
Athletic 9851
Macedonia 9849
robo 9849
cual@@ 9843
incre@@ 9842
13.@@ 9840
lina 9837
aven@@ 9834
Who 9831
ámb@@ 9830
cristal 9829
rever@@ 9829
amateur 9827
áz@@ 9824
instaur@@ 9820
bro@@ 9819
fis@@ 9815
simpli@@ 9810
tral 9809
Lyon 9808
partí@@ 9806
pios 9804
Jalisco 9799
iri 9799
Do 9798
altern@@ 9798
ow 9798
triang@@ 9798
ays 9792
Det@@ 9786
noc@@ 9785
tha 9784
IT@@ 9783
Tito 9783
bola 9783
ural 9783
a- 9781
ning 9780
emat@@ 9772
1858 9770
humor@@ 9769
allos 9767
xi 9765
Adams 9761
Argent@@ 9760
da@@ 9760
equi@@ 9756
oshi 9756
Twitter 9754
brica 9749
Gur@@ 9746
Chec@@ 9745
1856 9743
mult@@ 9733
edic@@ 9730
optera 9724
repe@@ 9722
partid@@ 9721
Matr@@ 9720
Imp@@ 9719
Parroquia 9716
uk 9716
vet@@ 9716
agas 9714
antigu@@ 9714
Anton@@ 9713
Wol@@ 9713
lando 9710
worth 9702
Abraham 9701
infl@@ 9696
ès 9694
iev@@ 9693
Bruno 9691
campes@@ 9688
British 9686
Paula 9682
anticip@@ 9681
uano 9680
suya 9678
Out 9675
enzo 9671
manual 9664
Dá@@ 9662
Soria 9659
ight 9657
sar 9655
Test@@ 9652
ont 9651
baron 9647
pau@@ 9647
ump@@ 9640
Pseud@@ 9639
fat@@ 9637
Od@@ 9634
soc@@ 9634
Pontific@@ 9633
ass 9632
Gabri@@ 9630
orama 9625
tori@@ 9619
Isaac 9617
Nec@@ 9617
arga 9614
Theatre 9610
Olimp@@ 9609
Batman 9604
eu@@ 9604
Draft 9599
disciplin@@ 9598
Viv@@ 9596
perió@@ 9596
coloni@@ 9590
Tras@@ 9589
court 9586
M.@@ 9582
Rick 9580
Fru@@ 9579
sugi@@ 9573
Raw 9572
SI@@ 9572
atil@@ 9572
vin 9571
1854 9569
old 9568
Tec@@ 9566
music@@ 9565
Atle@@ 9564
victori@@ 9564
ault 9562
Roque 9552
fa@@ 9547
Š@@ 9547
HD 9545
igh@@ 9545
Flam@@ 9542
eus@@ 9542
yi 9536
Inclu@@ 9535
1814 9534
bury 9534
Sonora 9533
Bad 9529
aj 9529
embri@@ 9527
also 9526
Walker 9525
paci@@ 9524
Alice 9514
Clemente 9514
Sancho 9513
prud@@ 9512
1855 9508
ig 9508
Post 9507
inflam@@ 9502
Lon@@ 9497
tortu@@ 9496
Conv@@ 9493
singular 9493
descu@@ 9492
Biz@@ 9491
Alaska 9488
Salazar 9487
es.@@ 9487
40@@ 9483
Ray@@ 9477
rat 9477
aster@@ 9473
Mid@@ 9468
160 9467
atem@@ 9467
Brooklyn 9466
Il 9464
amm@@ 9459
mill@@ 9456
ál 9456
Band 9455
dij@@ 9455
eas@@ 9453
Airlines 9449
Fres@@ 9448
Bernard 9446
Caj@@ 9446
Fiesta 9442
ngu@@ 9439
Kiev 9438
Comer@@ 9436
from 9436
Kin@@ 9435
Camer@@ 9432
Terr@@ 9429
discipl@@ 9429
IS 9427
eman 9425
Channel 9419
Bran@@ 9415
Lisa 9414
Bac@@ 9413
lers 9402
Dro@@ 9401
raf@@ 9398
aber@@ 9397
Vid@@ 9394
Raf@@ 9390
chin@@ 9390
uza 9386
requi@@ 9385
Sara 9384
ejempl@@ 9383
timas 9381
aristoc@@ 9374
Jonathan 9372
protoc@@ 9370
.000 9368
excentr@@ 9362
amen@@ 9361
controver@@ 9358
Marc 9357
corresp@@ 9357
Benjamin 9356
poli 9356
Francesco 9350
Micro@@ 9349
Nam@@ 9345
Che@@ 9344
Sports 9344
gesti@@ 9342
Dance 9337
artic@@ 9333
arum 9331
Roy 9325
ister 9325
Liverpool 9324
orte 9323
sult@@ 9321
Ñ@@ 9320
subir 9316
ctu@@ 9315
Harris 9314
Cour@@ 9312
Judi@@ 9310
Tim 9310
icana 9310
Dave 9309
Monta@@ 9308
15,@@ 9302
toman 9302
Quebec 9299
Laborat@@ 9298
Polit@@ 9298
ng 9298
Raj@@ 9296
africana 9293
o.@@ 9283
IP 9280
Biel@@ 9279
but@@ 9279
bac@@ 9276
ty@@ 9273
Imag@@ 9269
Radical 9269
ries@@ 9265
ectar@@ 9259
Him@@ 9257
aduc@@ 9253
tech@@ 9252
tz 9252
fug@@ 9241
stone 9240
opo 9236
tez 9234
cercan@@ 9233
14.@@ 9231
israel@@ 9231
Carlo 9229
CBS 9228
Vari@@ 9223
ticia 9223
atori@@ 9221
vital 9219
nan 9215
Palmar@@ 9214
Chihuahua 9213
molecular 9213
Congreg@@ 9209
sangu@@ 9206
óleo 9206
Fair@@ 9205
Municipal@@ 9204
sensibil@@ 9200
5000 9199
Gé@@ 9199
Fig@@ 9197
consol@@ 9196
Amér@@ 9195
sula 9194
aa 9193
ston 9190
1851 9189
New@@ 9188
Hid@@ 9185
boy 9175
Jon 9174
Normand@@ 9173
ocar@@ 9166
mira 9164
Naz@@ 9162
artifici@@ 9159
dri@@ 9158
Asoci@@ 9156
Parker 9152
Van@@ 9152
CC 9150
Press 9146
subsidi@@ 9141
Amazonas 9137
Cham@@ 9134
coral 9134
1842 9133
Ler@@ 9132
ken@@ 9128
1835 9127
atu@@ 9124
PI@@ 9123
stan@@ 9122
Coordin@@ 9121
folia 9121
Berg@@ 9119
UTC 9118
Of 9115
õ@@ 9114
na@@ 9113
onne 9110
Wa@@ 9107
reside 9107
conting@@ 9106
ocasi@@ 9103
imprim@@ 9097
Nan@@ 9090
Dead 9089
proce@@ 9089
históric@@ 9083
Claude 9082
enaje 9082
Wayne 9080
Co 9079
Mora 9076
Fle@@ 9074
dedor 9074
depre@@ 9074
Marshall 9068
EN@@ 9066
Né@@ 9065
bili@@ 9065
front@@ 9065
Leng@@ 9063
Lec@@ 9060
Award 9058
bin 9058
Jacob 9055
Tá@@ 9054
lug@@ 9054
eonatos 9053
Robin 9052
amar 9052
Chac@@ 9049
risto 9049
Rich@@ 9047
Hard@@ 9046
sun@@ 9044
emite 9042
Dallas 9040
insur@@ 9036
rell 9033
Wo@@ 9032
Jeff 9030
fant@@ 9029
anco 9027
Beau@@ 9026
Gav@@ 9022
Angeles 9021
atado 9019
Rá@@ 9018
Gall@@ 9016
To 9016
1825 9014
uki 9012
Cré@@ 9008
Exper@@ 9006
ximo 9005
Lind@@ 9004
imper@@ 9001
Ober@@ 8997
Li 8994
eti 8994
Pob@@ 8989
Jus@@ 8987
radios 8987
Hus@@ 8986
írculo 8985
60@@ 8982
fisc@@ 8982
Angel@@ 8981
bis 8978
Jos@@ 8976
mortal 8976
Armando 8973
ast 8973
ective 8973
uba 8971
Sad@@ 8969
Organiz@@ 8968
Rog@@ 8967
Luxemb@@ 8966
AF@@ 8963
ack@@ 8961
nado 8961
inflor@@ 8960
blast 8954
Di 8950
Georges 8950
doctor@@ 8949
80@@ 8940
101 8937
FO@@ 8936
Um@@ 8936
len 8936
NASA 8935
Polo 8935
Salom@@ 8934
Wright 8931
1853 8928
PN@@ 8928
Canaria 8926
Aus@@ 8924
icor@@ 8924
horizontal 8923
Zagreb 8922
Bis@@ 8920
itali@@ 8920
Metropolit@@ 8919
cim@@ 8919
ogo 8918
Be 8908
ovia 8907
ç@@ 8906
omer@@ 8905
fes@@ 8904
Sher@@ 8902
win 8901
ror@@ 8900
Proc@@ 8899
Gibraltar 8894
Linux 8892
Women 8890
sep@@ 8890
Golden 8889
inosa 8888
PO@@ 8887
usias@@ 8886
individu@@ 8885
colum@@ 8879
Omar 8878
hop 8877
Bom@@ 8875
jab@@ 8875
ns 8873
ilit@@ 8871
asci@@ 8870
ë@@ 8870
Bog@@ 8868
bina 8866
Nobel 8865
Pru@@ 8865
tín 8864
Orlando 8861
Restaur@@ 8861
geometr@@ 8855
Magazine 8852
agona 8851
eba 8851
iterr@@ 8849
Bien 8848
dorsal 8848
Ji@@ 8847
Nas@@ 8847
18@@ 8846
dés 8842
Global 8841
Leo 8835
Nova 8835
row 8835
Shin@@ 8834
35@@ 8833
espect@@ 8832
Dre@@ 8830
Barry 8824
deser@@ 8821
Lou@@ 8817
Vigo 8812
eiro 8809
Mac 8807
NE@@ 8805
contradic@@ 8805
dis 8805
Evol@@ 8803
etc 8801
instrumental 8801
Idi@@ 8800
BC 8799
atum 8798
etz@@ 8796
AF 8795
Khan 8794
Mozart 8794
apo 8790
Potosí 8788
acar@@ 8786
we@@ 8786
cig@@ 8784
ensi@@ 8781
plut@@ 8781
Libr@@ 8777
Shel@@ 8773
regu@@ 8772
transvers@@ 8772
ady 8766
fab@@ 8766
aper@@ 8760
deliber@@ 8759
inete 8751
viz@@ 8748
Inc 8745
Lugo 8743
plica 8742
cide 8739
Post@@ 8738
interrup@@ 8733
Metal 8732
Interpre@@ 8729
1845 8728
kiló@@ 8724
Square 8722
Xavier 8720
RS 8716
ambul@@ 8716
Best 8712
roman@@ 8709
ö@@ 8709
1847 8707
1834 8704
món 8704
alif@@ 8701
metr@@ 8701
UK 8697
triple 8696
eth 8694
ventr@@ 8692
nh@@ 8691
1852 8688
Baden 8688
adic@@ 8688
haber@@ 8688
partici@@ 8688
Ponce 8686
https 8684
ted 8684
Nog@@ 8683
Sali@@ 8681
egi@@ 8681
iler@@ 8681
agin@@ 8679
gir 8678
dif@@ 8672
persist@@ 8669
romance 8669
empre 8665
Delgado 8664
Good 8664
tiende 8659
amer@@ 8658
Brun@@ 8653
egro 8653
Heinrich 8651
ère 8650
aris 8648
lax@@ 8645
Nak@@ 8644
circu@@ 8644
orgi@@ 8644
atl 8642
Voc@@ 8639
entina 8636
distingue 8635
ucion@@ 8635
17,@@ 8631
Grant 8630
Lob@@ 8626
eni 8626
monit@@ 8626
Dark 8623
asar 8619
omin@@ 8618
frau@@ 8616
Beatles 8611
Sm@@ 8611
ely 8611
Air@@ 8608
last@@ 8605
vierte 8605
desemb@@ 8601
Circu@@ 8600
Emma 8600
Lom@@ 8599
Museum 8599
ube 8599
yan@@ 8599
clás@@ 8598
arru@@ 8597
ally 8594
éro@@ 8589
1849 8587
Games 8586
Jordan 8581
Venus 8577
Lawrence 8574
diam@@ 8573
ref 8571
antas 8569
erno 8567
Alf@@ 8566
monot@@ 8565
Cordillera 8564
agi@@ 8563
atle@@ 8559
ein 8559
Hun@@ 8558
Gold@@ 8557
porno@@ 8556
Vati@@ 8553
Wor@@ 8548
Sz@@ 8545
ili 8544
Docum@@ 8541
diagnos@@ 8540
rique 8539
MO@@ 8538
This 8538
Meridi@@ 8536
Expedi@@ 8533
Prec@@ 8529
ganad@@ 8529
ep 8528
vi 8528
extranj@@ 8527
Fro@@ 8525
North@@ 8525
plasma 8524
engu@@ 8521
porte@@ 8515
japon@@ 8514
Canc@@ 8513
ī@@ 8510
kil@@ 8506
preval@@ 8504
tz@@ 8504
Aé@@ 8502
onn@@ 8500
Te 8494
hong@@ 8494
iras 8493
unca 8492
Girls 8491
amaz@@ 8491
mería 8490
Port 8487
hy@@ 8487
mortal@@ 8487
gres@@ 8483
2.000 8481
Say@@ 8478
Pand@@ 8476
males 8474
NBC 8473
201@@ 8469
robus@@ 8466
MC 8465
minis@@ 8465
Jazz 8463
oven 8461
Boeing 8458
æ@@ 8458
umi@@ 8457
Academy 8456
Bra@@ 8456
Charlotte 8454
dale 8449
dimi@@ 8449
intermedi@@ 8449
1824 8448
tier 8448
aut 8445
ilde 8445
reh@@ 8444
1836 8443
Gh@@ 8443
avent@@ 8443
arte@@ 8440
ask@@ 8439
Pier@@ 8436
dad@@ 8436
Norm@@ 8435
titudes 8435
Zh@@ 8433
Arau@@ 8432
Ton@@ 8432
bit 8432
Cé@@ 8430
territoriales 8429
acat@@ 8425
Robinson 8423
ann 8421
Port@@ 8420
aus 8419
air 8418
Cooper 8417
Manchester 8415
Renault 8414
agonal 8411
Pér@@ 8407
ovich 8407
losa 8404
plaz@@ 8395
Palmas 8394
kin@@ 8394
deu@@ 8392
Hér@@ 8389
Dul@@ 8387
vierno 8383
Rég@@ 8380
Zel@@ 8378
actr@@ 8378
hipo@@ 8378
óptero 8378
Inform@@ 8376
Crimea 8373
360 8372
Sid@@ 8372
wal@@ 8367
ag 8366
interrog@@ 8364
Ig@@ 8363
riz 8362
Albania 8361
Thor@@ 8361
atorial 8361
Sea 8357
maz@@ 8356
puer@@ 8353
tic 8353
mezc@@ 8352
Faus@@ 8350
Chic@@ 8346
tier@@ 8344
Jamaica 8343
Francis@@ 8341
Mez@@ 8341
Mau@@ 8340
1823 8338
ensor 8338
haz@@ 8337
ingi@@ 8335
lés 8335
Ecol@@ 8333
ble@@ 8331
indu@@ 8330
Point 8327
Chiapas 8323
tino 8322
consci@@ 8320
Mér@@ 8319
pit@@ 8317
ords 8314
criti@@ 8311
visibles 8311
vill@@ 8310
Caz@@ 8306
Telev@@ 8306
chor@@ 8306
L.@@ 8303
Harrison 8300
venti@@ 8296
Chal@@ 8293
gon@@ 8293
yes 8293
16.@@ 8291
1846 8291
Vé@@ 8290
absorb@@ 8290
Anim@@ 8285
ker@@ 8284
1837 8280
1839 8278
HMS 8275
anger 8274
aficion@@ 8273
distr@@ 8273
conson@@ 8267
gs 8265
tren@@ 8265
CO 8262
minim@@ 8262
Scar@@ 8261
teres 8261
Lun@@ 8256
even 8254
Ze@@ 8252
è@@ 8252
Labor@@ 8249
J.@@ 8248
Educ@@ 8247
Kel@@ 8247
sella 8245
departam@@ 8243
Java 8241
hex@@ 8236
Alabama 8235
Colombi@@ 8233
Octav@@ 8232
ents 8232
town 8231
Cali@@ 8230
Maurice 8228
Way 8228
Ec@@ 8225
ness 8224
Inst@@ 8222
ark@@ 8222
petr@@ 8222
Basil@@ 8221
Philip 8220
UFC 8220
aurus 8219
opsis 8219
Escal@@ 8218
Gary 8215
Ach@@ 8210
cach@@ 8204
CE 8203
pedia 8202
Steven 8201
aha 8199
landes 8199
univers@@ 8197
Play 8196
obi@@ 8191
formul@@ 8187
garr@@ 8187
insig@@ 8185
Prin@@ 8183
kan@@ 8183
inqui@@ 8180
Malta 8175
System 8175
Provin@@ 8174
ding 8172
file 8172
nes@@ 8171
feud@@ 8170
problem@@ 8170
fragment@@ 8168
aye 8166
cher@@ 8165
Fot@@ 8164
Cecilia 8156
Honor@@ 8154
Homer 8153
Montenegro 8153
gast@@ 8153
della 8149
blues 8148
Down 8145
oo 8142
mom@@ 8139
Tot@@ 8136
Sto@@ 8132
Stanley 8131
visu@@ 8130
antic@@ 8129
Thi@@ 8124
plana 8124
1844 8122
princip@@ 8121
urus 8121
Gra@@ 8119
aller@@ 8118
Gig@@ 8113
gall@@ 8113
1815 8110
Princ@@ 8110
Jard@@ 8109
angél@@ 8107
ritual 8106
teria 8104
independ@@ 8103
mania 8103
metropolit@@ 8102
Ning@@ 8101
Observ@@ 8100
ulla 8098
Ed 8097
15.@@ 8092
AA 8091
bran@@ 8090
Yan@@ 8088
pét@@ 8084
Superman 8083
Crisis 8082
Hin@@ 8079
atra 8077
mud@@ 8077
key 8075
bul 8074
Gü@@ 8071
Patricia 8069
CH@@ 8068
ft 8066
tion 8066
yu 8066
wan@@ 8065
Giuseppe 8064
Garden 8062
Rep@@ 8060
Kl@@ 8057
prác@@ 8056
Mant@@ 8055
OTAN 8055
Iv@@ 8052
750 8049
Iron 8047
numér@@ 8045
Cov@@ 8043
Murray 8043
Perry 8043
Krasno@@ 8042
Vlad@@ 8042
Memorial 8040
Baz@@ 8039
oros 8038
Resist@@ 8036
105 8033
rie 8033
cardi@@ 8032
Triple 8030
kur@@ 8030
ibo 8028
oth 8027
Lad@@ 8025
titu@@ 8025
té@@ 8025
duplic@@ 8020
uria 8020
Dig@@ 8019
Tier@@ 8015
audiovis@@ 8015
yl 8012
DO@@ 8009
roles 8006
emo 8005
vend@@ 8004
lum 8003
alina 8000
Seattle 7998
Bow@@ 7997
odon@@ 7995
jef@@ 7992
Fom@@ 7989
War 7984
EA 7981
Moon 7978
Silv@@ 7977
chen 7977
Great 7974
aque 7972
1811 7971
1838 7967
Madison 7967
Fantas@@ 7965
Jay 7965
Graham 7963
ament@@ 7962
lard 7960
posa 7957
Town 7944
laur@@ 7941
cump@@ 7940
emerg@@ 7939
fum@@ 7939
hockey 7939
ris 7935
aseg@@ 7930
ř@@ 7928
Trump 7927
itis 7923
Ple@@ 7920
ga@@ 7920
Hat@@ 7919
What 7916
satis@@ 7916
aine 7908
kov@@ 7901
metal@@ 7901
Dani@@ 7900
Kent 7897
Tag@@ 7896
umo 7896
trom@@ 7891
1200 7890
deter@@ 7890
Munici@@ 7889
Cost@@ 7888
Thompson 7887
vers 7879
Higgins 7877
Tennessee 7875
Pens@@ 7874
radial 7873
borough 7872
cus 7868
Heart 7867
allar 7866
Nicolas 7865
lut@@ 7865
ust 7865
1841 7862
sed@@ 7860
uh@@ 7860
embre 7859
Vila 7858
Ibn 7856
bala 7856
CIA 7855
analiz@@ 7852
Moh@@ 7848
nutri@@ 7845
Atlas 7843
Fiat 7841
ku 7841
tos@@ 7840
pet@@ 7839
pig@@ 7838
sentir 7837
AG@@ 7835
Oce@@ 7832
Hidro@@ 7831
Clinton 7830
The@@ 7830
dispos@@ 7830
declin@@ 7829
the@@ 7828
Facebook 7827
avo 7824
Guadal@@ 7822
Campbell 7821
Caus@@ 7820
lante 7820
monumental 7820
1822 7819
hosp@@ 7819
atmos@@ 7818
€ 7818
tang@@ 7817
compatible 7815
dose 7814
Science 7813
Brasil@@ 7811
Gom@@ 7811
municipal@@ 7811
Comple@@ 7810
evos 7809
F.@@ 7807
rent@@ 7807
Television 7803
desambigu@@ 7802
grad@@ 7799
Studio 7794
Orange 7793
Xi@@ 7791
Division 7789
esi 7786
ois 7786
aina 7785
compatri@@ 7782
infra@@ 7780
Margaret 7770
Castel@@ 7769
prac@@ 7768
Ian 7765
Oklahoma 7764
Edgar 7760
Spin@@ 7756
gil 7756
írit@@ 7756
exclusiv@@ 7751
kins 7749
Austr@@ 7748
Mix@@ 7747
piz@@ 7747
Hudson 7742
anth@@ 7742
CON@@ 7741
shows 7740
Fen@@ 7737
Mom@@ 7737
Turner 7737
íritu 7736
1843 7734
permanentes 7734
dra@@ 7733
Och@@ 7730
Bun@@ 7727
Japon@@ 7727
thr@@ 7727
enz 7723
Sever@@ 7722
hep@@ 7719
Jerry 7716
Liv@@ 7713
zu 7707
Stalin 7706
apor@@ 7706
Emer@@ 7705
intim@@ 7705
Ever@@ 7702
Ech@@ 7700
Goya 7697
Stewart 7696
comport@@ 7692
Chir@@ 7691
encer 7690
rana 7689
ough 7680
Sot@@ 7678
Civ@@ 7677
As 7676
Vincent 7676
cipi@@ 7676
är@@ 7674
Perci@@ 7671
equili@@ 7671
time 7669
ulas 7667
Madagascar 7663
feld 7661
soy 7657
LO@@ 7654
Terry 7653
tour 7652
cules 7651
Gros@@ 7650
Porto 7650
Bour@@ 7649
sid@@ 7649
onc@@ 7646
Opera 7645
Univers@@ 7644
escape 7637
1808 7635
Influ@@ 7635
ols 7634
reson@@ 7631
cut@@ 7628
has@@ 7625
1813 7623
Cret@@ 7623
Space 7619
VA 7617
Ludwig 7616
Melbourne 7615
isi 7615
ów 7615
sil 7614
Maryland 7609
Stadium 7608
urs 7607
Shakespeare 7605
curios@@ 7596
H.@@ 7593
Vidal 7593
rif@@ 7592
Sup@@ 7590
sten@@ 7588
Arkansas 7586
mandos 7585
solid@@ 7583
Jefferson 7581
permit@@ 7579
electro@@ 7578
maj@@ 7577
Eddie 7573
17.@@ 7572
Deleg@@ 7569
Phoenix 7569
segreg@@ 7569
orn 7568
imento 7566
estes 7565
Continental 7563
Vista 7562
Brothers 7559
bó 7559
gay 7559
war@@ 7558
Cron@@ 7555
Cleveland 7553
Sas@@ 7553
tago 7553
Lot@@ 7552
Baby 7551
eller 7550
ape@@ 7547
divin@@ 7547
dita 7545
ux 7545
Ses@@ 7544
ald 7544
invers@@ 7543
Dami@@ 7542
xo 7542
ović 7540
ulia 7539
ég@@ 7539
Dylan 7535
oko 7532
Death 7529
Dy@@ 7524
aç@@ 7520
herman@@ 7518
Mog@@ 7517
Consul@@ 7515
Copenhague 7515
Honda 7514
dign@@ 7514
AG 7512
yg@@ 7512
cun@@ 7511
radar 7511
Pent@@ 7508
topo@@ 7508
B.@@ 7496
Guy 7496
Sky 7490
450 7489
Eu@@ 7489
respirat@@ 7480
Beng@@ 7479
Boc@@ 7478
sentim@@ 7478
Cli@@ 7476
ien@@ 7474
ry@@ 7474
Challenger 7473
panel 7472
Local 7470
umba 7469
orno 7466
een 7464
1600 7462
bs 7462
piter 7459
Rat@@ 7456
Dim@@ 7452
diagr@@ 7451
económ@@ 7450
iti 7450
Onthophagus 7449
TO@@ 7447
andi@@ 7447
tof@@ 7444
Milit@@ 7442
Tib@@ 7439
semi 7439
thi@@ 7439
concurr@@ 7437
lex@@ 7435
Bob@@ 7434
1826 7432
Utah 7432
mona 7432
Bush 7428
incen@@ 7427
Sn@@ 7426
Cook 7424
Ferrari 7424
telec@@ 7424
Cach@@ 7423
copal 7423
oid@@ 7423
files 7421
Alar@@ 7420
zz@@ 7419
Quil@@ 7418
Conqu@@ 7413
ça 7412
Rid@@ 7411
anor@@ 7410
BM@@ 7407
claves 7407
opin@@ 7406
polar@@ 7404
Green@@ 7403
sax@@ 7397
Cou@@ 7396
Ferrer 7395
métr@@ 7393
uni 7393
Sl@@ 7392
ae@@ 7391
Ann 7377
diab@@ 7377
homo@@ 7376
ail 7375
Claudia 7374
Bach 7373
Lap@@ 7373
Sap@@ 7372
wi@@ 7372
Pan 7370
Amad@@ 7369
oux 7369
pastor 7369
Budapest 7368
otti 7366
reli@@ 7364
USS 7362
Baj@@ 7359
Apr@@ 7356
BO@@ 7356
egio 7356
Norman 7355
Pepe 7355
IP@@ 7354
tio 7353
oke 7352
Om@@ 7350
tw@@ 7350
yd@@ 7349
Nancy 7346
oda 7346
ayos 7345
Sah@@ 7344
chan 7343
shire 7341
Epis@@ 7340
tac@@ 7340
val 7338
Rock@@ 7337
cogni@@ 7336
XX@@ 7333
bias 7326
Evans 7322
acomp@@ 7322
vik@@ 7321
Ontario 7319
Gaz@@ 7318
adia 7318
Gilbert 7314
Sound 7313
â@@ 7312
Pereira 7311
din 7311
uss@@ 7311
Angola 7310
aul@@ 7309
Urban@@ 7306
ofer@@ 7303
P.@@ 7299
ballet 7299
Cór@@ 7297
Sucre 7296
inge 7293
Disco@@ 7291
Songs 7291
Delta 7288
skaya 7286
Kate 7283
Spe@@ 7280
atis 7274
Express 7273
Dum@@ 7272
wan 7272
lip@@ 7271
lex 7270
lee 7269
Last 7267
judi@@ 7267
1829 7262
Wit@@ 7260
ázquez 7260
TS 7259
uck 7258
Cen@@ 7256
macro@@ 7254
Art@@ 7253
Latino@@ 7253
igr@@ 7253
Pay@@ 7249
siti@@ 7249
bern@@ 7248
alien@@ 7246
ostr@@ 7246
Chart 7244
Pag@@ 7243
anne 7242
Map@@ 7240
Instruc@@ 7238
Fred 7237
polar 7237
Catalunya 7233
oba 7230
ms 7229
Toc@@ 7227
nov 7227
trig@@ 7225
Cairo 7220
RT 7217
EM@@ 7214
Ok@@ 7214
Shang@@ 7214
Has@@ 7213
funeral 7211
Vul@@ 7208
1831 7207
ues 7207
Andre@@ 7205
Dub@@ 7205
18,@@ 7204
Blu@@ 7203
Yu@@ 7203
ples 7201
codice 7200
Rud@@ 7198
ron 7196
GP@@ 7194
hardware 7192
inaugural 7192
County 7189
Sha@@ 7186
Negr@@ 7184
cana 7182
Marx 7179
cua 7179
Intro@@ 7177
USD 7176
Mord@@ 7175
Ernst 7169
ike 7169
n. 7168
Wh@@ 7166
Phil@@ 7165
1828 7163
Adolf 7163
Reich 7163
Just@@ 7162
Ron@@ 7161
Kos@@ 7156
Pant@@ 7154
iformes 7152
Latin 7151
ort 7151
Ja@@ 7149
Rav@@ 7149
eman@@ 7148
Tales 7144
ward 7144
Danny 7143
3.000 7141
ocer@@ 7139
zur@@ 7139
LGBT 7138
ks@@ 7138
Defin@@ 7137
Wur@@ 7136
miz@@ 7136
120@@ 7135
colas 7134
Ley@@ 7132
Morris 7130
hard 7130
inia 7129
20.@@ 7124
ew@@ 7120
1832 7116
Bond 7115
Georg 7114
Cuer@@ 7110
Herbert 7110
Acc@@ 7107
Musical 7107
Da 7105
protestante 7102
PP@@ 7099
dal 7097
gala 7093
3,5 7092
Gel@@ 7091
ndi@@ 7089
imonio 7086
alen 7085
He 7084
Bobby 7082
ave@@ 7082
rap 7080
past@@ 7074
Bundesliga 7072
jed@@ 7072
ures 7072
Research 7071
enko 7071
alpa 7070
osh@@ 7068
cela 7065
ulan 7065
Baker 7064
Kentucky 7064
pand@@ 7060
tiller@@ 7056
Wagner 7054
elem@@ 7054
islam 7052
alus 7051
coin@@ 7051
cár@@ 7051
travi@@ 7047
Japan 7045
tona 7043
Ye@@ 7039
infer@@ 7039
Nikol@@ 7037
Xbox 7032
grec@@ 7032
nch@@ 7031
daf@@ 7030
metabol@@ 7027
Compl@@ 7025
For 7024
X. 7023
our@@ 7023
releg@@ 7023
iria 7020
That 7017
Light 7016
Yar@@ 7016
Nebraska 7015
ina@@ 7015
persu@@ 7014
Day@@ 7013
lep@@ 7012
teg@@ 7011
trán 7009
18.@@ 7008
Ma 7008
éri@@ 7008
Michelle 7005
Zen@@ 7004
sy@@ 7003
Netflix 7002
Palermo 6999
Warren 6999
pé@@ 6996
Muhammad 6994
dedores 6994
Good@@ 6993
zam@@ 6992
lock 6991
ónima 6991
Get@@ 6990
Gold 6990
confront@@ 6989
ecti@@ 6989
oker 6989
An 6988
CP@@ 6988
DI 6988
ense@@ 6988
s.@@ 6985
inhib@@ 6983
Clo@@ 6982
dium 6982
Vancouver 6981
incer@@ 6979
Stu@@ 6977
enten 6977
Nem@@ 6975
Py@@ 6975
reti@@ 6975
esh@@ 6974
aniz@@ 6972
Anth@@ 6971
percus@@ 6970
introduce 6968
36@@ 6967
Masters 6966
kel 6963
First 6962
EL@@ 6961
Rou@@ 6960
ennes 6958
Guido 6957
Helena 6957
sang@@ 6952
reto 6951
Kurt 6950
Back 6948
Neil 6948
ager@@ 6948
sist@@ 6946
46@@ 6944
Force 6943
fé@@ 6941
Aurora 6939
acan 6936
trol@@ 6936
chim@@ 6935
oku 6934
Benedic@@ 6933
Dion@@ 6931
SE 6929
sacri@@ 6929
abi 6928
utor 6924
SN@@ 6923
ther@@ 6921
Tommy 6920
enclat@@ 6920
olar 6920
ocolate 6916
34@@ 6915
ader 6915
Tun@@ 6914
ínsula 6912
Connecticut 6911
Grace 6911
opti@@ 6910
Phil 6909
Solar 6908
F.C. 6907
hind@@ 6906
electrom@@ 6904
bon 6903
cabec@@ 6903
GP 6898
IE@@ 6891
ovi@@ 6889
33@@ 6888
37@@ 6888
Arnold 6886
abul@@ 6886
off@@ 6885
caric@@ 6883
AV@@ 6879
Pref@@ 6877
Roland 6872
Aj@@ 6871
Ox@@ 6870
Dean 6866
May 6864
aller 6863
rin@@ 6862
Aleg@@ 6858
RT@@ 6854
Vor@@ 6854
19,@@ 6853
SS@@ 6853
Tu 6853
resur@@ 6853
Zu@@ 6851
Arsenal 6848
tens@@ 6848
Out@@ 6843
IF@@ 6841
Gamb@@ 6840
Web 6838
mach@@ 6838
bay@@ 6833
izquier@@ 6833
Dragon 6832
audit@@ 6831
Hills 6829
Master 6828
SmackDown 6827
oscop@@ 6825
IBM 6822
Bic@@ 6820
over 6820
Atl@@ 6819
Cyprin@@ 6816
Gul@@ 6816
Like 6815
Contin@@ 6814
edras 6814
20,@@ 6813
Sob@@ 6813
bad 6811
Line 6810
Story 6806
Avenue 6805
superi@@ 6802
Pico 6800
Sist@@ 6800
acres 6800
ck@@ 6800
etim@@ 6800
eh 6794
espos@@ 6794
kan 6794
alli 6793
Larry 6791
Prepar@@ 6790
diese 6790
Bug@@ 6789
odon 6788
agog@@ 6786
− 6786
Bella 6785
pora 6784
temp@@ 6781
isio 6780
Champ@@ 6778
lende 6775
Liz@@ 6774
odo@@ 6772
Dra@@ 6771
Sky@@ 6771
avi 6768
app@@ 6767
sch 6766
afor@@ 6765
ants 6762
eler@@ 6762
ime@@ 6756
Maine 6754
facil@@ 6753
sales 6749
múlti@@ 6748
ARC 6747
Shu@@ 6747
dial 6746
Hog@@ 6745
hereder@@ 6745
illi@@ 6742
ionales 6742
ME 6735
Newton 6735
Farm@@ 6734
line 6726
Matthew 6725
UNESCO 6725
portu@@ 6724
ê@@ 6723
Sri 6722
finanz@@ 6721
dh@@ 6720
Harold 6719
ires 6719
racial 6718
nier 6716
atri@@ 6714
Leon 6713
bud@@ 6713
rej@@ 6710
DT 6709
owski 6708
ES 6705
Financi@@ 6705
Normal 6705
Tah@@ 6704
obia 6703
Had@@ 6700
imbo 6700
ever@@ 6699
Déc@@ 6697
omar 6697
š 6697
Stars 6696
rist@@ 6696
Beg@@ 6694
orig@@ 6694
Walt 6693
own 6692
Capr@@ 6691
vibr@@ 6691
gy 6690
uva 6690
Dream 6688
fó@@ 6688
iss 6687
adém@@ 6685
aden 6680
longitud@@ 6679
ios@@ 6678
ités 6676
ulosa 6674
Gem@@ 6672
Pompe@@ 6672
Ny@@ 6671
Sonic 6670
Resol@@ 6665
my 6663
og 6663
Cay@@ 6662
presu@@ 6661
Antigu@@ 6658
Dres@@ 6658
coma 6658
Contro@@ 6656
Building 6653
Program@@ 6653
didae 6652
Siberia 6651
berger 6650
Mariana 6646
mites 6646
O.@@ 6645
áce@@ 6645
Antoine 6643
mia 6643
agar 6642
ilan 6642
GT@@ 6641
hél@@ 6641
Desarr@@ 6640
low@@ 6639
oleta 6639
EF 6636
Ball 6631
Plate 6628
Rh@@ 6628
Ná@@ 6627
Ide@@ 6625
Max@@ 6625
1816 6624
partam@@ 6623
Santi@@ 6622
leo 6622
Sebastian 6621
Raim@@ 6619
indo 6619
imi 6618
erer 6617
hibe 6617
bek@@ 6615
Gon@@ 6614
zen 6612
crá@@ 6611
Cerr@@ 6609
45@@ 6607
Films 6607
ive 6605
Liter@@ 6604
Wood 6604
borg 6601
1817 6598
clim@@ 6594
pers 6594
Dante 6593
sand@@ 6592
grano 6587
Equ@@ 6586
Jon@@ 6586
extin@@ 6586
trim@@ 6584
oc 6583
Baltimore 6580
Elo@@ 6578
Serena 6578
ï@@ 6577
ations 6576
Miles 6575
ye@@ 6575
sw@@ 6573
Raymond 6572
Tod@@ 6568
Kot@@ 6565
Palm@@ 6565
Sean 6564
gua 6563
Satur@@ 6561
aph@@ 6560
playoffs 6560
Run@@ 6558
Hermann 6556
util@@ 6554
Land 6552
Tan 6552
Bail@@ 6551
dominic@@ 6550
ett@@ 6548
bach@@ 6547
lance@@ 6546
anaj@@ 6545
anova 6544
ana@@ 6538
bet 6538
cy 6537
salm@@ 6536
cruci@@ 6534
Histori@@ 6533
ord 6531
Mongolia 6528
Rita 6526
distor@@ 6526
Conference 6525
Rig@@ 6525
Peg@@ 6524
Gand@@ 6521
unter@@ 6521
za@@ 6520
Clem@@ 6519
igual@@ 6519
udan 6518
1819 6516
han@@ 6514
tades 6513
oka 6509
Nazar@@ 6508
delta 6508
dent@@ 6508
arom@@ 6505
carbur@@ 6505
Hav@@ 6499
T.@@ 6497
alles 6497
Mitchell 6496
lez 6494
destro@@ 6492
Jal@@ 6490
Lane 6490
Roman@@ 6489
idal 6489
o- 6489
notori@@ 6488
actus 6486
Chan@@ 6485
115@@ 6483
iterráneo 6483
Pietro 6481
lati@@ 6481
osoma 6480
spe@@ 6479
elly 6478
Expl@@ 6477
Guil@@ 6476
placer 6474
Matil@@ 6473
Soccer 6473
ici 6469
cem@@ 6468
Martha 6467
Nos@@ 6467
gresa 6463
itt 6463
Fire 6459
Trav@@ 6458
Family 6457
River@@ 6457
kat@@ 6456
Pich@@ 6455
Mack@@ 6453
Susan 6452
Luigi 6451
Nicol@@ 6450
hus@@ 6450
alo@@ 6449
Amy 6448
Café 6448
jon@@ 6447
MS@@ 6444
Multi@@ 6444
Pass@@ 6444
Leipzig 6443
ago@@ 6443
asp@@ 6442
Bá@@ 6441
Herzegovina 6441
Hesse 6439
Const@@ 6437
dum@@ 6437
revi@@ 6437
Bart 6433
creci@@ 6432
iche 6432
170 6431
Sainte 6431
iral 6431
UE@@ 6429
Row@@ 6427
estri@@ 6426
alist@@ 6424
pol 6423
dre@@ 6419
aleta 6418
fología 6417
bares 6413
ling@@ 6413
Selec@@ 6411
Tat@@ 6411
abdom@@ 6411
Ken 6408
remoto 6408
João 6407
mac 6407
ment 6406
19.@@ 6405
Lloyd 6405
Lus@@ 6405
Teh@@ 6404
bero 6404
sech@@ 6404
End 6403
Haz@@ 6400
day 6400
adier 6397
tula 6397
éli@@ 6396
responsabil@@ 6391
privil@@ 6389
Bit@@ 6387
Dou@@ 6384
buc@@ 6384
insul@@ 6384
21.@@ 6380
uchi 6380
Barbara 6378
Blues 6378
Kap@@ 6377
decre@@ 6377
pseud@@ 6377
Law@@ 6373
Roosevelt 6370
1809 6367
Dé@@ 6366
Amaz@@ 6363
acias 6363
horizont@@ 6362
sensible 6360
Int@@ 6359
ful@@ 6354
38@@ 6353
album 6353
xico 6352
hormon@@ 6351
Ceb@@ 6347
Joaqu@@ 6347
Two 6345
Pinto 6338
hist@@ 6332
nev@@ 6332
Islam 6331
verd@@ 6331
ery 6329
ior 6329
ò@@ 6329
country 6328
hibi@@ 6328
1827 6327
Edwards 6325
II@@ 6324
Campus 6322
verb@@ 6320
zh@@ 6319
Spor@@ 6318
acular 6317
Cross 6316
gris@@ 6316
Mang@@ 6315
obe@@ 6315
Marino 6313
DI@@ 6309
com 6309
1.5 6308
Lamb@@ 6307
enarios 6307
Summer 6306
oval 6306
Frederick 6305
ost 6304
you 6302
UC 6301
apata 6301
hip@@ 6299
istic@@ 6296
lau@@ 6295
Helsinki 6294
Europ@@ 6290
Zor@@ 6290
horiz@@ 6290
monstr@@ 6289
2.0 6285
Daily 6284
afe 6282
lemente 6282
ony@@ 6281
kal@@ 6279
star 6279
Euc@@ 6278
Ey@@ 6278
digit@@ 6277
Europe 6276
hái 6273
Samp@@ 6272
Tay@@ 6269
confin@@ 6269
eton 6269
condens@@ 6266
médic@@ 6262
incorrec@@ 6261
aret 6260
istan 6260
idan 6259
Linda 6258
Prince 6255
Ariel 6253
Plas@@ 6252
ring 6252
Ballet 6249
Dick 6248
tú 6248
102 6247
final@@ 6247
trap@@ 6247
confer@@ 6245
135 6244
transmit@@ 6242
Brid@@ 6241
ael 6238
dop@@ 6238
paro@@ 6238
Bros 6237
Venez@@ 6237
Vide@@ 6237
Carac@@ 6235
Nob@@ 6232
Olga 6232
icks 6231
eb 6230
Rachel 6228
Rogers 6226
4000 6224
ibe 6223
eum 6218
andi 6217
azz@@ 6215
preced@@ 6213
vis 6213
Jas@@ 6211
Č@@ 6210
Denis 6207
inde 6207
Collins 6206
Portugu@@ 6204
Will@@ 6203
Project 6201
Woman 6201
ô@@ 6201
fach@@ 6197
Uz@@ 6196
Jov@@ 6195
vector 6195
plur@@ 6192
bie 6191
residi@@ 6191
ris@@ 6191
sho@@ 6191
zer 6191
Val 6190
128 6189
endi 6189
inski 6189
Aren@@ 6188
blas@@ 6187
Chelsea 6186
Cit@@ 6183
100.000 6182
terior 6182
Compar@@ 6179
ated 6173
lon 6173
puls@@ 6173
uer 6173
Christ@@ 6172
1.000 6170
Martin@@ 6167
Ron 6167
mini 6165
Kath@@ 6161
Dj@@ 6160
Jennifer 6160
diversi@@ 6160
kon@@ 6160
usti@@ 6160
Bass@@ 6157
atina 6157
entu@@ 6157
aro@@ 6156
tics 6155
Motor@@ 6154
Ralph 6154
jal@@ 6153
olig@@ 6152
1818 6150
Romeo 6150
Narc@@ 6148
insurg@@ 6147
ams 6146
Eul@@ 6141
gros@@ 6141
hú@@ 6140
EC 6139
22.@@ 6137
Afr@@ 6137
orada 6134
Centre 6131
cel 6130
Wang 6129
Ord@@ 6126
dimensional 6123
People 6122
obo@@ 6119
tum 6119
UR@@ 6118
ague 6118
uses 6118
ciano 6117
Nah@@ 6116
ló 6116
Rangers 6114
Lep@@ 6113
Pueb@@ 6113
Bryan 6109
ju 6109
Fam@@ 6108
IB@@ 6108
SI 6107
uru 6107
α 6107
Afric@@ 6106
Emilia 6106
uke 6106
Anton 6105
Inv@@ 6103
Slam 6100
Sv@@ 6099
MP 6097
Establ@@ 6095
Gad@@ 6094
Arquit@@ 6093
Garcia 6093
Boh@@ 6092
EL 6090
Luke 6088
factor@@ 6086
ovski 6086
ateral 6085
Oreg@@ 6084
pris@@ 6084
trau@@ 6083
Kun@@ 6082
clo@@ 6081
20.000 6080
RF@@ 6080
ordenadas 6080
egem@@ 6079
iris 6079
Sier@@ 6078
iTunes 6078
wick 6078
AB 6076
Oh 6076
ats@@ 6076
infiltr@@ 6075
Dow@@ 6074
Personal 6073
ose 6070
Ich@@ 6067
ste 6067
ond 6064
Bah@@ 6062
Singles 6059
propiet@@ 6059
oug@@ 6058
ères 6058
Yos@@ 6055
NFL 6051
Foundation 6049
laborat@@ 6049
tomas 6049
Guardi@@ 6048
aid@@ 6048
pren@@ 6048
e.@@ 6046
Kus@@ 6044
Portland 6043
Wild 6043
SU@@ 6040
70@@ 6039
Bonn@@ 6039
Yak@@ 6039
pulmon@@ 6039
47@@ 6038
Party 6037
say@@ 6033
Ronald 6032
Tang@@ 6032
onz@@ 6028
yen@@ 6016
Aquit@@ 6014
Que@@ 6014
reality 6014
Philippe 6011
CM@@ 6009
intervenir 6009
guil@@ 6007
Vec@@ 6002
119@@ 6001
liquid@@ 5999
100@@ 5998
ISO 5998
Manila 5998
1806 5997
oqu@@ 5997
Prix 5995
TE 5995
cili@@ 5993
humo 5991
ollo 5990
Hunter 5985
Lomb@@ 5985
ever 5983
Roberts 5982
advoc@@ 5981
10.000 5980
ders 5979
PM 5976
Johannes 5975
ako 5975
Ghana 5974
Proy@@ 5973
heavy 5973
Saf@@ 5969
UA 5969
Ivan 5968
protagon@@ 5968
Ambro@@ 5967
Darwin 5966
Software 5965
ege 5965
nis 5964
oidea 5963
Jr. 5962
ayan 5962
clusi@@ 5962
Birmingham 5960
FBI 5960
devast@@ 5960
Montana 5959
Shir@@ 5959
alición 5959
perd@@ 5959
déj@@ 5958
igny 5958
Tanzania 5954
Wolf 5954
didad 5953
acet@@ 5951
Ernest 5950
kes 5945
1700 5944
Basket 5944
Keith 5943
104 5941
perturb@@ 5941
Hag@@ 5939
cis@@ 5939
wh@@ 5937
glomer@@ 5935
oyen 5935
Shak@@ 5934
Verg@@ 5933
Motor 5932
greg@@ 5932
22@@ 5931
Cole@@ 5931
Gos@@ 5931
scrip@@ 5929
Cres@@ 5928
valu@@ 5928
Dennis 5926
Pist@@ 5926
Up@@ 5926
elig@@ 5926
ET 5924
PL@@ 5924
va@@ 5924
Silver 5923
tice 5922
Pastor 5921
biodi@@ 5921
fluor@@ 5921
Audit@@ 5919
Lie@@ 5919
Resp@@ 5918
anatom@@ 5917
Stein@@ 5916
Gray 5914
aia 5913
D.C. 5912
Diam@@ 5912
anar@@ 5911
recipi@@ 5910
Ultimate 5908
int 5908
124@@ 5907
zin@@ 5907
ells 5906
Marcel 5905
astía 5904
kir@@ 5904
By@@ 5903
Lour@@ 5903
got@@ 5903
Ath@@ 5900
eland 5900
n.@@ 5897
convic@@ 5894
Flash 5893
gers 5892
ovo 5891
Progres@@ 5890
Tet@@ 5890
abra 5890
Sacramento 5889
adounid@@ 5887
folk 5886
less 5884
aku 5883
star@@ 5882
Serra 5880
isha 5877
Atlantic 5876
her 5876
Rut@@ 5875
Wikipedia 5874
vot 5874
Mans 5873
Natalia 5873
Place 5873
atan 5873
tuber@@ 5873
115 5872
Stre@@ 5872
108 5871
Cun@@ 5871
abrup@@ 5871
Dick@@ 5870
Ther@@ 5870
terrible 5870
CP 5868
head 5867
estig@@ 5864
lom@@ 5863
down 5862
103 5859
Stor@@ 5858
NCAA 5857
Euphorbia 5855
particular@@ 5855
NT@@ 5853
CR@@ 5850
GB 5850
Paolo 5847
Dram@@ 5844
ezo 5844
lier 5843
arz@@ 5842
Fat@@ 5841
yev 5841
AI 5840
ret 5840
igh 5838
rid 5837
Aud@@ 5836
uti 5835
zy@@ 5833
taur@@ 5832
1,2 5830
ander 5827
core 5827
.S. 5826
Pati@@ 5826
acul@@ 5826
Moldav@@ 5822
escu 5821
39@@ 5818
Abel 5816
Spencer 5815
patron@@ 5810
ejec@@ 5806
£ 5806
Country 5805
tun@@ 5805
Eugenia 5804
Kirch@@ 5804
109 5802
pastor@@ 5802
Justin 5801
1789 5800
Ix@@ 5799
Vladimir 5799
nau@@ 5799
21,@@ 5798
Hall@@ 5798
Tou@@ 5797
Ves@@ 5796
aru 5796
lidae 5794
GI 5793
Moc@@ 5792
out@@ 5790
Magic 5789
Archi@@ 5786
Jung 5783
Four 5781
pus 5780
Mata 5779
Murphy 5779
abo 5778
porta@@ 5778
49@@ 5777
Von 5777
Forest 5773
lluvi@@ 5772
corro@@ 5770
ondr@@ 5770
melan@@ 5767
Led@@ 5765
Luciano 5765
atamente 5765
úcar 5765
Helen 5764
circunst@@ 5764
Come 5763
Leb@@ 5763
Bowl 5762
Bar 5761
Urugu@@ 5759
Ax@@ 5757
ursos 5756
lengu@@ 5754
non 5754
Jesus 5753
ancestr@@ 5753
Over@@ 5752
lang@@ 5751
ë 5749
Oslo 5747
Rin@@ 5746
EC@@ 5745
aura 5743
ils 5741
sets 5740
Earth 5739
cera 5737
istes 5736
tubercul@@ 5734
Rural 5732
Sent@@ 5732
Fuj@@ 5731
jard@@ 5731
menta 5731
ologia 5730
Berkeley 5727
220 5725
versario 5725
Benjam@@ 5724
opar@@ 5723
So 5722
Coron@@ 5721
Camp 5719
leuc@@ 5719
Nepal 5718
Yel@@ 5717
ingia 5714
has 5712
naz@@ 5712
face 5709
Zam@@ 5707
ustre 5707
CI 5705
ísim@@ 5702
Lanka 5701
ör@@ 5701
fascin@@ 5699
Armstrong 5697
sigui@@ 5697
Nev@@ 5696
Tari@@ 5695
sign@@ 5695
one@@ 5693
Kub@@ 5691
Tuc@@ 5689
Cari@@ 5686
Glasgow 5686
Industri@@ 5686
Sed@@ 5686
Irene 5685
rid@@ 5685
uten 5684
Garc@@ 5679
Knight 5679
Ted 5678
Book 5676
1.0@@ 5675
doctoral 5671
persp@@ 5669
Cho@@ 5667
Once 5667
Six@@ 5666
dance 5666
U. 5665
asso 5665
LC 5664
Productions 5663
dible 5661
UD 5659
Palatin@@ 5658
Lenin 5652
Jessica 5651
August 5649
Tour@@ 5649
opus 5649
Tob@@ 5646
1790 5645
Alco@@ 5645
IG@@ 5645
Miy@@ 5645
Alex@@ 5644
uli 5643
agio 5642
1793 5640
Catherine 5640
fes 5640
Og@@ 5638
eclip@@ 5637
but 5635
aram@@ 5634
SD 5632
neamente 5632
Gram@@ 5631
Bud@@ 5629
Cabr@@ 5629
uche 5629
Bed@@ 5626
Dame 5626
Grim@@ 5625
22,@@ 5623
Buda 5623
Lost 5621
Constru@@ 5619
Til@@ 5619
Ou@@ 5618
Cannes 5617
arab@@ 5617
Disco 5616
jan@@ 5616
Android 5614
Leonard 5614
Luz@@ 5613
lor 5611
240 5610
quen 5610
Nur@@ 5609
usta 5609
Ni 5607
aup@@ 5607
geb@@ 5606
neu@@ 5605
eme 5604
U.@@ 5601
~ 5601
Kim@@ 5599
inata 5599
Vier@@ 5598
oja 5598
Anast@@ 5593
arme 5591
fabr@@ 5591
Isid@@ 5589
eville 5586
hilo 5586
Rit@@ 5585
corn@@ 5585
Botan@@ 5584
Finanz@@ 5583
chen@@ 5583
23.@@ 5582
enburg 5582
manch@@ 5580
Tad@@ 5579
Stuart 5578
al. 5578
aver 5578
edonia 5578
Concep@@ 5573
Just 5572
Tru@@ 5572
Bin@@ 5571
Cole 5571
chap@@ 5570
Pete 5569
Under@@ 5567
Terminal 5565
indem@@ 5565
Champions 5563
Edit@@ 5563
1753 5562
idi 5561
investi@@ 5561
ric 5559
Rob 5557
Sic@@ 5556
balance 5556
ebe 5553
odor@@ 5552
2.5 5550
Andorra 5548
Fauna 5547
Wall 5544
etano 5544
paramilit@@ 5544
MI 5542
Car 5541
Asp@@ 5539
Mountain 5539
Santana 5539
ore@@ 5538
26,@@ 5537
Myr@@ 5537
Brah@@ 5536
Cla@@ 5536
singles 5536
G.@@ 5535
Gy@@ 5535
unt 5535
24,@@ 5533
evich 5532
Sanc@@ 5531
Louise 5530
amoto 5530
MX 5529
bron@@ 5528
Gó@@ 5526
Western 5526
Village 5525
Watson 5525
Electric 5524
Fem@@ 5523
Bonaparte 5522
Tower 5520
ology 5520
Wes@@ 5519
ER 5518
118@@ 5516
dog@@ 5516
Horiz@@ 5515
Let 5514
mel 5512
25,@@ 5510
antagon@@ 5510
ML@@ 5508
Hart 5506
Hend@@ 5505
bel 5504
cle 5504
Der 5503
zy 5502
Sib@@ 5500
marketing 5499
Mind@@ 5498
Ques@@ 5497
stor@@ 5497
agi 5496
eon@@ 5493
ā 5493
Lola 5491
Metr@@ 5490
rapid@@ 5490
sag@@ 5488
Free 5485
obsol@@ 5483
Antonia 5482
lete 5482
far 5479
Jab@@ 5477
Put@@ 5477
amen 5477
wald 5477
mate 5475
master@@ 5474
isés 5473
zan@@ 5472
ě@@ 5471
Infer@@ 5468
Priv@@ 5468
alent@@ 5467
atro 5466
4.000 5465
icum 5465
Toulouse 5463
Vu@@ 5463
Cameron 5461
Latino 5461
Beethoven 5460
Distr@@ 5460
Zero 5460
Pacific 5458
107 5455
prostitu@@ 5450
anum 5449
intu@@ 5448
emann 5444
isible 5444
chal@@ 5441
Laz@@ 5440
prior@@ 5440
Rotten 5439
by@@ 5438
Betty 5437
telenov@@ 5437
idge 5436
ográ@@ 5434
Freder@@ 5431
0,5 5430
Hot@@ 5430
onder@@ 5430
Craig 5428
Mega 5428
Hig@@ 5426
conce@@ 5426
imin@@ 5426
suscep@@ 5424
Tyler 5422
use@@ 5422
onces@@ 5420
Áng@@ 5418
altitu@@ 5417
illon 5417
anthus 5415
zon@@ 5415
robot 5412
ficit 5411
odes 5411
Nord@@ 5410
Carbon@@ 5407
ambo 5405
born 5405
106 5404
ś@@ 5404
NS@@ 5403
canadi@@ 5403
kW 5403
Yor@@ 5402
Niv@@ 5400
aras 5400
asse 5400
Bras@@ 5397
fi 5397
mon 5394
muda 5393
lav 5392
ardi 5391
Erik 5390
111 5389
ider 5388
trio 5388
arius 5386
ball 5385
hen@@ 5385
Fra@@ 5384
Wallace 5384
abras 5383
cand@@ 5383
Alo@@ 5382
Big@@ 5382
19@@ 5381
tev@@ 5381
Josh 5380
jurisdic@@ 5378
Aux@@ 5377
Zi@@ 5376
Model 5375
vietnam@@ 5374
FF 5373
IT 5372
epit@@ 5372
Ré@@ 5370
hat@@ 5370
Ble@@ 5369
DP 5368
Jules 5368
Wer@@ 5368
Individ@@ 5367
stre@@ 5367
Holstein 5366
neutral 5365
1792 5364
Amen@@ 5364
Are 5364
Uganda 5364
Morrison 5361
gro@@ 5360
quier 5360
iya 5359
† 5358
AE 5355
4,5 5354
Barn@@ 5353
inho 5352
adio 5351
Blake 5350
alls 5350
Total 5344
cast 5344
McCartney 5343
olan 5343
óvenes 5343
Hugh 5340
Obama 5340
lech@@ 5340
Cord@@ 5337
vila 5337
Alternati@@ 5336
auer 5336
tropo@@ 5332
obj@@ 5330
iel 5328
esh 5327
Jin 5326
ozo@@ 5326
atha 5325
nominal 5324
Brag@@ 5323
ombo 5323
otran@@ 5322
112 5321
114@@ 5321
Marc@@ 5321
rag@@ 5320
Aaron 5318
Jin@@ 5317
Nicholas 5315
Emir@@ 5314
Dog@@ 5312
Augusta 5311
Sullivan 5311
Now 5310
draft 5310
Get 5309
Jag@@ 5308
90@@ 5307
Antil@@ 5306
vé 5306
Senegal 5305
Bod@@ 5303
Kosovo 5302
Yas@@ 5302
Candid@@ 5301
demo 5297
depres@@ 5292
rim@@ 5292
aux@@ 5291
uerto 5289
CS 5288
anat@@ 5288
né@@ 5288
Hell@@ 5284
futbol 5283
burn 5282
enton 5282
interfer@@ 5280
117@@ 5278
Harvey 5278
haz 5277
ayn@@ 5276
Aguilera 5274
CN 5274
lanes 5274
Parma 5271
aton 5271
Mozambique 5270
Wolfgang 5270
Match 5269
Dod@@ 5268
Stan 5268
anol 5268
institut@@ 5268
Luch@@ 5267
Thor 5264
Lucy 5262
Principal 5260
1807 5259
1801 5258
Water@@ 5254
scar@@ 5254
ectu@@ 5253
Shaw 5252
andez 5252
arest 5252
Blood 5250
Business 5249
Heli@@ 5249
ute 5248
Mug@@ 5246
revol@@ 5246
23,@@ 5244
Artem@@ 5243
glu@@ 5243
perc@@ 5241
tromp@@ 5240
Palmer 5238
foli@@ 5237
éni@@ 5234
Flu@@ 5233
énez 5232
Joel 5228
Open@@ 5224
name 5223
Aman@@ 5218
Wel@@ 5218
single 5218
Claire 5216
ony 5215
pter@@ 5215
Greg 5210
Lynch 5210
Spir@@ 5208
Reed 5207
ush 5207
Ez@@ 5204
48@@ 5201
Extr@@ 5197
27,@@ 5196
tle 5196
Artiller@@ 5189
motor@@ 5189
drag@@ 5187
Aleksandr 5186
Nich@@ 5186
Bristol 5185
Field 5185
lación 5185
Alma 5183
Emily 5183
Mans@@ 5183
Owen 5183
epa 5183
Rac@@ 5182
oslav@@ 5182
dov@@ 5180
solidar@@ 5179
RCA 5178
Kre@@ 5177
arit@@ 5175
Box@@ 5174
Johan 5174
dioc@@ 5173
Aub@@ 5171
Cha@@ 5171
pseudo@@ 5169
Hulk 5168
édi@@ 5166
aker 5163
hir 5161
King@@ 5159
Ruth 5159
gel 5159
insist@@ 5159
archi@@ 5157
ucci 5156
Hut@@ 5155
Bernardino 5154
till@@ 5154
320 5153
Guill@@ 5153
Carol 5152
Dil@@ 5151
Hop@@ 5151
Madame 5150
Lennon 5149
PE 5146
fric@@ 5145
Marcel@@ 5143
yin 5143
EP@@ 5141
aerod@@ 5139
BMW 5137
Major 5137
aman 5135
herr@@ 5135
ect 5133
Chevrolet 5132
eka 5132
Hispania 5131
év@@ 5130
Chad 5129
dict@@ 5129
Monroe 5128
NXT 5128
Not 5128
eder 5127
famili@@ 5126
coronavirus 5125
fotograf@@ 5125
toria 5123
pilot@@ 5120
dell 5119
Ramon 5116
gli@@ 5114
ox 5114
bu 5113
obje@@ 5113
ray 5112
ater 5111
titud 5109
molec@@ 5106
Milan 5105
Boliv@@ 5104
conqu@@ 5104
gravit@@ 5104
Feli@@ 5101
Sandra 5100
Spar@@ 5100
wo@@ 5100
Neb@@ 5099
Sis@@ 5098
Hob@@ 5097
hib@@ 5096
Identi@@ 5093
RAM 5093
1794 5091
ulu 5091
History 5088
ispa 5088
fem@@ 5087
ther 5086
Mess@@ 5085
Tel 5084
ī 5084
Luci@@ 5083
see 5080
esin@@ 5078
Mount 5077
rier 5075
ET@@ 5074
Queensland 5074
ef 5074
folkl@@ 5072
rang@@ 5071
2500 5069
Music@@ 5069
Kab@@ 5068
vale 5067
Stuttgart 5066
Ve@@ 5066
sha 5064
Nab@@ 5063
Ward 5063
dru@@ 5063
25.@@ 5058
1803 5057
Coy@@ 5057
imal 5057
Concor@@ 5056
Gibson 5056
crucial 5055
try 5052
Giro 5050
manda 5050
ingles@@ 5049
ata@@ 5048
atio 5048
lot@@ 5047
GC 5046
Hit@@ 5046
Mina 5046
TR@@ 5046
1300 5045
Bull 5045
Celebr@@ 5045
Springs 5045
Hey@@ 5043
Guardian 5042
cis 5042
Mercur@@ 5041
lama 5041
opp@@ 5039
ages 5036
fati@@ 5035
Picasso 5034
1805 5032
aster 5032
Edge 5031
Stan@@ 5031
Law 5030
Gustav 5029
ott 5029
European 5028
alin@@ 5024
eir@@ 5023
Ofici@@ 5022
dae 5022
Jol@@ 5019
Mohamed 5019
chan@@ 5019
Chen 5016
bor 5013
App@@ 5009
ury 5009
Ani@@ 5006
Fidel 5006
Mall@@ 5006
Elimin@@ 5005
Guerr@@ 5005
ingham 5005
Soul 5004
Cec@@ 5003
Marin@@ 5003
réc@@ 5002
Zhang 5000
jana 5000
tex 4999
Balt@@ 4998
Probl@@ 4998
elen 4997
ST 4995
gina 4995
Ō@@ 4994
Sti@@ 4993
fan 4991
yst@@ 4991
ull@@ 4990
usur@@ 4990
Mason 4988
exhaus@@ 4988
Eth@@ 4985
pay@@ 4985
Ž@@ 4985
IR@@ 4983
wich 4983
igen@@ 4982
sei 4982
subsist@@ 4982
pt@@ 4981
ws 4979
Olimpi@@ 4977
ficios 4977
pp 4976
Ins@@ 4974
oud 4974
eux 4973
Salm@@ 4970
190 4969
Brande@@ 4968
Tomatoes 4968
Ced@@ 4967
paradig@@ 4967
Tas@@ 4966
Emmy 4965
Ard@@ 4963
Bello 4963
fusi@@ 4963
Autonom@@ 4961
uan 4961
Maya 4959
Clarke 4958
Kids 4958
Stark 4958
aida 4956
idir 4956
Holmes 4955
Karen 4955
Race 4955
pia 4952
PR 4951
iner 4951
Hope 4949
Pomerania 4949
Zeus 4949
Salz@@ 4948
amn@@ 4947
cialmente 4947
kinson 4946
Sud 4945
Relig@@ 4944
anom@@ 4944
Pittsburgh 4943
Plus 4943
Alexandre 4942
Price 4942
Ore@@ 4941
aks 4941
AFC 4940
Ciud@@ 4940
Kaw@@ 4940
More 4940
Seb@@ 4940
Drag@@ 4938
max@@ 4938
Net@@ 4937
ket 4937
1795 4935
Pra@@ 4935
Was@@ 4935
tho@@ 4934
Españ@@ 4932
Maurit@@ 4932
disi@@ 4932
Inter 4930
Denver 4929
Hughes 4928
Shim@@ 4927
Ris@@ 4924
28,@@ 4923
Kane 4923
Telef@@ 4922
Jen@@ 4921
Sci@@ 4918
Infin@@ 4917
Desp@@ 4916
Gaza 4916
Toyota 4916
ls 4916
neb@@ 4916
́ 4916
Beh@@ 4914
automati@@ 4914
excit@@ 4914
Geor@@ 4913
Isa@@ 4912
Dí@@ 4910
lov 4910
ulus 4909
xia 4909
Wu 4907
Battle 4905
axi@@ 4905
ié 4905
sibles 4904
Machine 4903
44@@ 4902
24.@@ 4899
hara 4898
Mexico 4897
soprano 4894
Rudolf 4893
fugi@@ 4893
anglo 4892
sible 4890
Wells 4889
auc@@ 4888
ovol@@ 4888
Boul@@ 4887
ka@@ 4887
Kō@@ 4883
Alfa 4882
comparable 4881
satur@@ 4881
Font@@ 4880
Volun@@ 4879
ulio 4879
116@@ 4877
icho 4877
Panzer 4875
1804 4874
Agost@@ 4874
Hardy 4874
Roman 4874
bell@@ 4874
ID 4873
Schleswig 4873
Derr@@ 4872
Hak@@ 4872
Julian 4872
Manif@@ 4872
26.@@ 4871
Gis@@ 4871
Lil@@ 4871
unga 4870
Campo@@ 4869
nu 4868
230 4867
Leh@@ 4865
Wak@@ 4864
Dioc@@ 4863
Neur@@ 4863
aume 4863
golf 4863
nal 4861
dei 4860
6.000 4859
Coll@@ 4859
Poli@@ 4859
Pum@@ 4859
BS 4858
Osaka 4858
ande 4857
glo@@ 4857
Drive 4855
Sev@@ 4855
Gonz@@ 4854
temper@@ 4853
MHz 4852
Gast@@ 4851
Organ@@ 4851
osus 4850
kw@@ 4849
osta 4848
Lak@@ 4847
Head 4842
Phillips 4838
Repar@@ 4837
yu@@ 4836
Padua 4835
Pokémon 4835
biom@@ 4834
kel@@ 4834
,@@ 4833
Zul@@ 4830
Pall@@ 4829
kor@@ 4827
tat@@ 4827
Fan@@ 4825
Adap@@ 4823
Pink 4823
uka 4823
water 4823
Casino 4822
ombre 4822
Ferdinand 4821
acy 4820
bot 4820
MB 4819
conjug@@ 4816
emi 4815
Drake 4814
utar@@ 4814
Jesse 4813
Am 4812
alam@@ 4812
sah@@ 4812
subs@@ 4812
Butler 4811
Grey 4810
Syn@@ 4810
categ@@ 4810
ident@@ 4808
AV 4807
Potter 4807
postal 4806
113@@ 4802
Wars 4801
undan 4799
enca 4798
Yale 4796
fici@@ 4794
Kiss 4793
ink 4792
tie 4790
Ost@@ 4788
Wall@@ 4786
Brand@@ 4784
eber 4784
pod@@ 4784
Impact 4783
Hockey 4779
océ@@ 4776
Futbol 4775
Tang 4770
Antoni 4768
Bati@@ 4765
Ling@@ 4764
come 4764
Metacritic 4763
SM 4761
114 4760
ames 4760
islam@@ 4759
Randy 4758
Lopez 4757
otte 4757
ved@@ 4757
Electr@@ 4755
Seven 4754
123 4753
Barb@@ 4753
1802 4752
Foster 4751
gene@@ 4751
parta 4751
qua 4751
Abd 4750
lett 4749
Ltd 4748
sy 4748
not 4747
Hed@@ 4745
Kid 4745
CL@@ 4744
175 4743
aval 4739
vania 4739
127 4738
Nach@@ 4738
invasi@@ 4737
sé 4736
From 4735
Diplom@@ 4734
ierto 4733
1780 4732
Chuck 4732
29,@@ 4731
Zur@@ 4731
Brunswick 4730
Raz@@ 4729
Germain 4728
blog 4727
jac@@ 4727
Office 4726
ovic 4726
oki 4725
Century 4721
Grove 4721
Canada 4719
1799 4717
Ring 4717
robot@@ 4717
ladi@@ 4716
ross 4716
Elem@@ 4713
roy 4713
Felix 4712
Milton 4711
elim@@ 4711
93.@@ 4710
Side 4710
ement 4710
itch 4710
Corpus 4709
Eugene 4709
Soc@@ 4708
turn@@ 4707
ains 4706
sion 4706
1791 4705
Volkswagen 4705
azi 4704
Todd 4703
Sing@@ 4700
Hell 4697
Nati@@ 4694
Secret 4694
Boris 4693
è 4693
Sweet 4691
vall@@ 4691
acon 4690
bridge 4689
penal@@ 4688
öl@@ 4688
Ear@@ 4687
With 4686
eber@@ 4685
Þ@@ 4685
chur@@ 4684
endan 4683
FK 4682
Yuri 4682
tadores 4682
Yer@@ 4681
box 4681
etz 4681
6000 4680
Angelo 4680
Swift 4680
inti@@ 4678
210 4677
TP 4677
Jo 4676
anche 4676
carto@@ 4676
insky 4676
Marcus 4675
arium 4673
Church 4672
Cohen 4672
MW 4672
wen 4671
Kyle 4670
eon 4670
65@@ 4669
Richards 4669
Banglad@@ 4668
Ramb@@ 4667
Schw@@ 4666
Gregory 4665
Mih@@ 4664
EMI 4663
EN 4663
Slo@@ 4661
ean@@ 4659
radio@@ 4657
β 4657
tabl@@ 4653
test 4652
55@@ 4650
Zimbab@@ 4648
emit@@ 4648
Mussolini 4647
Alman@@ 4646
scop@@ 4645
Moy@@ 4644
Puc@@ 4644
bita 4644
1798 4642
Chim@@ 4641
Review 4641
ē@@ 4641
IV@@ 4640
Mars 4639
Southern 4639
Surin@@ 4639
roll 4638
113 4636
Web@@ 4636
away 4636
Challenge 4635
Edwin 4635
ards 4635
haw@@ 4635
Neill 4633
Rossi 4633
WWF 4631
ceden 4630
otto 4630
Isma@@ 4629
Stanford 4628
Bang 4625
Duke 4624
Banks 4623
HBO 4623
ieve 4623
124 4621
Teb@@ 4620
oleo 4619
ayet@@ 4618
inaug@@ 4618
March@@ 4617
Annie 4616
ocr@@ 4615
Alexis 4614
Laf@@ 4614
yon 4614
God 4613
ids 4613
ishi 4611
Ish@@ 4610
tail@@ 4609
Castil@@ 4608
nific@@ 4608
Confl@@ 4607
Los@@ 4605
Pearl 4604
ather 4604
mg 4604
prote@@ 4604
Tall@@ 4603
incon@@ 4603
ý@@ 4602
Cran@@ 4601
Luk@@ 4600
kar 4600
nan@@ 4600
ør@@ 4600
Tsu@@ 4599
Hard 4598
LG@@ 4598
arbor@@ 4598
osi@@ 4596
Morning 4595
Zab@@ 4595
match 4595
1776 4594
ISBN 4594
oh 4594
ru 4594
י@@ 4594
0s 4593
Gali@@ 4590
cham@@ 4587
oney 4587
DF 4585
endra 4585
bah@@ 4583
Temple 4582
Buck@@ 4581
Tud@@ 4581
Glenn 4580
Never 4579
122 4578
Chase 4578
Fisher 4577
GE 4576
Tut@@ 4576
Andal@@ 4574
GA 4574
Yun@@ 4574
eventual 4574
contest@@ 4572
Wy@@ 4571
imar@@ 4571
jin 4571
Dark@@ 4570
Viva 4570
F1 4568
hou 4563
stadt 4563
Inspec@@ 4562
Shō@@ 4561
num@@ 4560
Batt@@ 4559
Are@@ 4557
Sit@@ 4557
inal@@ 4554
HP 4553
1797 4547
obvi@@ 4547
121 4546
uña 4546
horror 4545
Deutsche 4544
Gat@@ 4544
Ptol@@ 4544
eson 4543
jet@@ 4543
aw 4542
Berlin 4540
Key@@ 4538
demasi@@ 4538
Gang@@ 4537
Liberty 4537
Fa@@ 4533
Nau@@ 4533
Poly@@ 4533
ói 4531
Gle@@ 4530
osper@@ 4530
Esther 4529
Kings 4527
new 4527
Set@@ 4523
leton 4521
tradi@@ 4521
Shah 4520
Calais 4519
ads 4519
mond 4519
Andreas 4517
Ere@@ 4517
CT@@ 4516
altar@@ 4516
tri 4512
CEO 4511
asti@@ 4511
260 4509
optim@@ 4509
wer@@ 4508
Luca 4507
atti 4507
Jake 4506
idental 4506
auli@@ 4505
ode 4505
ives 4502
loa 4501
Pont 4498
aches 4497
fác@@ 4497
obe 4497
prime 4497
Kenneth 4494
relativ@@ 4493
Oliv@@ 4492
Hampshire 4490
win@@ 4490
Alz@@ 4489
Tax@@ 4485
1787 4484
Gw@@ 4484
Innov@@ 4484
aira 4484
Fabio 4483
Game@@ 4482
rax 4482
icial 4480
Mim@@ 4479
Kum@@ 4478
Tok@@ 4478
trem@@ 4477
Ng@@ 4473
Off@@ 4473
abaj@@ 4473
cuesti@@ 4473
Thom@@ 4471
orca 4471
Ahmed 4469
1,3 4466
116 4466
Crac@@ 4466
Steph@@ 4466
ellen@@ 4466
juana 4466
Noc@@ 4465
Three 4465
sburg 4465
Holocaus@@ 4464
Spr@@ 4464
dote 4464
Over 4463
pata 4463
Philadelphia 4462
Cath@@ 4461
Montgomery 4461
Colin 4460
Richmond 4460
Oh@@ 4459
Tolkien 4457
leva 4457
Hospit@@ 4456
Weekly 4456
elop@@ 4455
Oz@@ 4454
saur@@ 4453
Marines 4451
aea 4451
ful 4451
English 4447
Vac@@ 4447
orb@@ 4447
epidem@@ 4446
Amanda 4445
Mobile 4444
Chor@@ 4442
Navy 4440
erry 4439
liban@@ 4438
ę@@ 4438
Hill@@ 4436
gens 4436
uega 4436
Mont 4435
Pam@@ 4435
edil@@ 4434
And 4433
Rag@@ 4433
rach@@ 4433
Mab@@ 4432
Somalia 4431
phy@@ 4431
Einstein 4430
Hos@@ 4430
Cag@@ 4429
vier@@ 4429
CO2 4427
corrup@@ 4427
oll 4427
43@@ 4426
ecio 4426
ky@@ 4426
roqui@@ 4424
She 4423
Alpha 4421
Service 4421
Liu 4418
grandi@@ 4418
Bron@@ 4416
deres 4416
650 4415
carden@@ 4414
dorf 4414
lu 4414
atsu 4411
constat@@ 4411
ull 4410
155 4407
sito 4407
Kay@@ 4406
Mercury 4406
diploma 4406
gil@@ 4405
CM 4404
chel@@ 4403
126 4402
Gallery 4400
tigüedad 4400
Jim@@ 4398
unanim@@ 4398
Basketball 4397
Cog@@ 4396
Pau 4396
Money 4395
democ@@ 4395
ape 4394
cultur@@ 4394
ision 4392
atic 4391
Mann@@ 4390
traf@@ 4390
Ligue 4388
boro 4387
Brow@@ 4385
Galaxy 4385
mph 4385
otor 4385
A1 4384
éx@@ 4382
Miner@@ 4381
Page 4381
Bio@@ 4378
Human 4378
isch 4378
Paramount 4377
Raw@@ 4377
Yu 4377
traj@@ 4377
aran@@ 4375
eil@@ 4374
eten 4374
Gonzal@@ 4373
fice 4372
97.@@ 4371
Kenny 4371
eana 4370
Chr@@ 4369
Grec@@ 4369
Intel 4369
Weber 4369
ede@@ 4369
Weimar 4367
für 4366
550 4365
Dus@@ 4365
Castle 4364
coll@@ 4364
Beth@@ 4363
Vali@@ 4363
Famili@@ 4361
Loy@@ 4361
aíso 4361
50.000 4360
ree 4360
Vol 4357
quer 4357
27.@@ 4356
0,0@@ 4354
Josef 4354
Werner 4353
light 4353
CAF 4352
acea 4352
Chan 4351
flav@@ 4351
Cuc@@ 4350
Kul@@ 4350
Roy@@ 4350
Guang@@ 4349
280 4348
Abu@@ 4348
Days 4348
Off 4348
mentor 4348
Colum@@ 4347
Sten@@ 4344
Za@@ 4344
ID@@ 4343
untam@@ 4343
Fas@@ 4341
isia 4336
Flo@@ 4335
Wellington 4333
Carol@@ 4332
gun@@ 4332
canon@@ 4331
Chry@@ 4330
Stefan 4330
Hand@@ 4326
ová 4324
lao 4323
Giorgio 4321
atica 4321
mend@@ 4321
1400 4320
atern@@ 4318
Ivan@@ 4316
Sega 4316
Zav@@ 4316
estan 4316
omi 4316
ò 4316
vente 4315
Motors 4314
Heb@@ 4313
Lud@@ 4313
Springfield 4313
ife 4313
Spears 4311
± 4311
Meyer 4310
Dag@@ 4309
Namibia 4307
Bill@@ 4304
aber 4303
117 4302
pra 4302
Episcopal 4300
Qing 4300
tices 4300
Tub@@ 4296
Churchill 4294
oon 4294
volcan@@ 4293
Nassau 4292
UL@@ 4292
ands 4292
AO@@ 4291
Yemen 4291
vid 4291
itia 4289
lies 4288
Cola 4285
Malcolm 4285
bed@@ 4285
get 4285
Nad@@ 4284
Solidar@@ 4284
Soy@@ 4284
Baptiste 4283
Cod@@ 4283
Fant@@ 4282
Marne 4280
eni@@ 4280
CH 4276
alpin@@ 4276
330 4275
FE 4275
elet 4275
Bonif@@ 4274
ä 4273
enig@@ 4272
Powell 4271
Kad@@ 4270
Plin@@ 4270
mus 4270
wa@@ 4270
Allan 4269
Classic 4265
SO 4265
Julie 4264
hoc@@ 4264
UT@@ 4263
domes@@ 4263
Cincinnati 4262
gau@@ 4262
uniones 4262
Bridge 4261
salles 4261
Meli@@ 4259
Storm 4258
Tokyo 4257
o. 4257
Deep 4256
Roll 4256
escor@@ 4256
Logan 4253
Aviv 4252
Cox 4250
Ellen 4250
Mann 4250
Angela 4248
Bennett 4248
Whe@@ 4248
ead 4247
otea 4247
1783 4246
bun@@ 4242
digo 4242
ferr@@ 4242
Fantasy 4241
echa 4240
Notre 4239
rov 4239
zen@@ 4239
Bres@@ 4238
coni 4238
bei 4236
iger 4236
stock 4236
Sul 4235
itable 4235
Connor 4234
1.500 4232
Works 4232
elin 4232
Run 4231
usiana 4231
Fritz 4230
Evil 4229
chez 4229
Fior@@ 4228
Verona 4228
KO 4225
Via 4224
1775 4223
kadi 4222
132 4220
Nathan 4220
sera 4220
sitos 4220
metab@@ 4218
offs 4216
oza 4216
1796 4215
Müller 4213
How@@ 4211
Mayer 4210
SM@@ 4210
bli@@ 4210
Nina 4209
Roh@@ 4209
my@@ 4209
GNU 4208
dom 4208
Protagon@@ 4205
Prof@@ 4202
Clube 4200
Suzuki 4197
Curtis 4196
ind 4196
RI 4193
Box 4192
SR 4192
issa 4192
éctr@@ 4191
500@@ 4190
AO 4190
Laurent 4190
Adrian 4189
war 4186
manufac@@ 4185
Leslie 4183
270 4182
agro@@ 4181
refl@@ 4181
DM 4180
Rah@@ 4180
Sao 4180
ouv@@ 4180
modi@@ 4178
lote 4177
TNA 4176
mex@@ 4176
Nadal 4175
Ster@@ 4175
inger@@ 4175
Nicole 4173
Hunt 4172
Thr@@ 4172
Parlament@@ 4170
anni 4170
pard 4170
RAF 4169
Aug@@ 4168
Orchestra 4167
1770 4166
Laos 4166
if 4164
HC 4162
Jamie 4162
Sco@@ 4161
Hou@@ 4160
eck@@ 4158
68@@ 4157
arda 4157
97,@@ 4156
Religi@@ 4154
Yang 4153
ayer 4153
supr@@ 4152
Alessandro 4150
Freud 4150
1,6 4149
Hoy@@ 4149
olana 4149
Hein@@ 4148
unge 4148
Children 4147
Delhi 4147
Trin@@ 4147
oste@@ 4147
spir@@ 4147
Gill@@ 4146
Joh@@ 4146
SG 4145
bank 4145
30,@@ 4142
Fos@@ 4142
Stones 4142
Teg@@ 4140
nus 4140
Tra@@ 4139
Wii 4137
compos@@ 4136
Fried@@ 4135
ו@@ 4135
uya 4133
Agro@@ 4132
Petit 4132
ture 4132
Bowie 4131
Confeder@@ 4130
Homo 4129
75@@ 4128
orbit@@ 4127
28.@@ 4126
Associ@@ 4125
Gay 4123
Kingston 4123
Prel@@ 4123
Wonder 4122
SL@@ 4121
Sach@@ 4121
alde 4121
had@@ 4121
ahl 4120
his@@ 4120
mark 4119
4x@@ 4118
xe 4115
juli@@ 4114
lon@@ 4114
Salt 4113
lact@@ 4113
uld 4113
Burns 4112
Porter 4112
IL@@ 4111
pH 4110
ude 4110
Theater 4109
ə@@ 4109
CR 4108
Westminster 4108
Greg@@ 4107
Mesopotamia 4107
Festiv@@ 4106
produz@@ 4106
Discovery 4105
Flav@@ 4105
Fou@@ 4105
Samoa 4105
ionista 4105
lands 4105
Ji 4104
Maggie 4104
chir@@ 4104
eit@@ 4104
uss 4104
Grav@@ 4103
Albums 4102
Guyana 4101
Reyn@@ 4101
clus@@ 4101
adil@@ 4100
cible 4100
1750 4099
Krist@@ 4094
Nin@@ 4094
fet@@ 4093
145 4090
When 4088
sibl@@ 4088
DB 4087
Autob@@ 4086
1788 4085
Collection 4084
Special 4084
Action 4083
octo@@ 4083
oliv@@ 4082
respond@@ 4082
carre@@ 4081
Instrum@@ 4080
Nim@@ 4079
arsen@@ 4078
reb@@ 4078
CF@@ 4077
Silver@@ 4077
Tep@@ 4076
Va@@ 4075
ovis@@ 4075
kilogr@@ 4074
ppo 4073
esan 4072
Sund@@ 4071
aldi 4071
How 4070
Standard 4070
oscor@@ 4070
Fin 4069
ral@@ 4069
IF 4067
SH@@ 4066
controversi@@ 4066
quar@@ 4066
fib@@ 4065
inen 4061
Spring 4060
Kle@@ 4059
edi 4059
Emmanuel 4058
justi@@ 4057
Coca 4056
LE 4056
Floyd 4055
Kay 4055
aim@@ 4054
ö 4054
Marion 4053
Magnus 4052
Math@@ 4050
Sle@@ 4050
Nashville 4048
nam 4048
Shan@@ 4047
98,@@ 4044
assa 4044
Id@@ 4042
igg@@ 4041
AH 4040
Deme@@ 4040
Porsche 4040
enna 4040
oun 4040
élago 4040
EM 4039
1100 4038
Gaga 4038
Previ@@ 4038
NO 4036
bat 4035
Frag@@ 4034
acker 4034
Rai@@ 4033
umes 4033
118 4029
Lut@@ 4027
Tis@@ 4027
Anatolia 4025
Benz 4025
Juventus 4025
Christmas 4024
Koh@@ 4022
lem 4022
omi@@ 4022
Elvis 4021
Rox@@ 4021
FL 4019
Memphis 4017
dit 4017
watch 4017
Barbar@@ 4016
Ellis 4016
vie 4016
Bremen 4014
Data 4013
SL 4013
diana 4013
ers@@ 4013
1785 4012
shi 4009
Zan@@ 4004
vic 4004
Modern 4003
Autor 4002
1782 4001
Chang@@ 4001
Next 4001
ocin@@ 4001
xima 4001
CB 4000
Chi 4000
artiller@@ 3999
imental 3996
Coast 3995
Public 3995
canon 3995
Caroline 3994
Regina 3994
enny 3994
Klein 3993
raya 3991
max 3990
muestr@@ 3990
Sey@@ 3988
irus 3987
over@@ 3986
ib 3985
matern@@ 3985
Cyrus 3983
hit 3983
57@@ 3979
ebo 3979
Herman 3978
Sph@@ 3977
Year 3975
Dalm@@ 3974
Sof@@ 3972
Sophie 3972
Wanderers 3972
inher@@ 3972
kers 3972
won 3970
Jeremy 3969
École 3969
Lub@@ 3967
380 3965
Schmidt 3965
hat 3965
1,4 3964
Burton 3964
aste 3963
Gug@@ 3961
Terra 3960
Bla@@ 3959
Tamb@@ 3959
Gian@@ 3958
Ming 3958
pesa 3958
chor 3956
Gradu@@ 3955
SF@@ 3955
Sug@@ 3953
Dirig@@ 3951
Harper 3951
Inde@@ 3950
MT 3950
Sr@@ 3950
Tiber@@ 3949
Empire 3948
Limited 3948
GM 3947
Saw@@ 3947
iliana 3947
tamin@@ 3947
Yol@@ 3946
angi@@ 3946
cover 3944
Ferreira 3943
ellidae 3943
web@@ 3943
Comenz@@ 3941
Swe@@ 3941
ern 3941
pin 3940
Liberia 3939
Warriors 3939
@ 3938
Auguste 3938
gano 3938
hardcore 3938
Brach@@ 3937
Socorro 3936
dy@@ 3936
susp@@ 3936
ucle@@ 3936
UR 3935
Lyn@@ 3934
Sé@@ 3934
hos 3934
ith@@ 3932
aires 3931
thor@@ 3929
Paragu@@ 3928
violon@@ 3928
Olivia 3927
paraíso 3927
Ex 3926
jiang 3926
Voiv@@ 3925
berry 3924
Send@@ 3922
world 3922
Heidelberg 3920
Vy@@ 3919
hiz@@ 3919
tali@@ 3918
trit@@ 3918
sir 3917
trunc@@ 3917
Tav@@ 3916
wn 3916
Brom@@ 3914
Planet 3912
pole 3912
Falls 3911
Nun@@ 3911
ș@@ 3911
Spo@@ 3910
unción 3910
hap@@ 3909
say 3907
iyi 3906
voy 3906
205 3903
ofa 3903
1778 3902
Mend@@ 3901
U.S. 3901
ulata 3901
Kut@@ 3900
Trust 3900
Yorkshire 3900
yun@@ 3900
RN 3899
enger 3899
Punk 3898
strat@@ 3898
table 3897
éter 3897
Bradley 3896
Or 3896
Kid@@ 3894
raga 3894
Hart@@ 3893
troc@@ 3893
1,8 3892
76@@ 3891
Dru@@ 3890
elis 3889
efe 3888
WrestleMania 3886
cy@@ 3886
Beck 3885
Davies 3885
inidae 3885
Bayern 3884
Shane 3884
vain@@ 3884
Dau@@ 3882
atia 3882
Five 3881
ARA 3880
kol@@ 3880
gad@@ 3879
indon@@ 3879
tigü@@ 3878
hang@@ 3877
Auto 3876
MVP 3876
Tobago 3876
Space@@ 3875
NGC 3874
bid@@ 3873
kab@@ 3873
alt 3872
tors 3872
Bolivi@@ 3870
Inc@@ 3869
7,5 3868
WA 3868
lich@@ 3868
iff 3867
prin@@ 3866
lamada 3865
maus@@ 3865
BB 3864
Horn@@ 3864
Brad@@ 3863
Duncan 3862
Factor 3862
ilis 3861
kam@@ 3861
30.@@ 3860
SV 3860
archiv@@ 3860
54@@ 3858
Tov@@ 3858
ough@@ 3858
129 3856
asser 3856
Chel@@ 3855
Main@@ 3855
Non@@ 3853
Rodriguez 3853
Station 3851
Bier@@ 3850
Julius 3850
Scot@@ 3850
Sailor 3849
30.000 3848
Sok@@ 3848
convo@@ 3848
itar@@ 3848
view 3848
Holland 3847
Michel@@ 3847
remix 3846
Ghost 3844
PF 3844
migran@@ 3844
soul 3844
mada 3843
Judas 3841
Queens 3841
World@@ 3841
3.5 3840
vina 3840
Bird 3839
Lé@@ 3839
ait@@ 3839
Recre@@ 3838
Fort@@ 3837
Rand@@ 3836
intel@@ 3836
cht 3835
maxim@@ 3835
ware 3834
chac@@ 3832
Belle@@ 3831
agre@@ 3831
itr@@ 3830
Inc. 3829
Micha@@ 3828
OR@@ 3828
Gond@@ 3827
iber@@ 3827
Cena 3826
Golf 3824
aos 3823
BL 3822
Comput@@ 3822
High@@ 3822
Lup@@ 3822
Pat 3821
chip 3821
SP 3820
Pec@@ 3819
Quercus 3819
sima 3817
Reich@@ 3816
aft 3816
brid@@ 3816
manufactur@@ 3816
1777 3815
Glo@@ 3815
boa 3815
eth@@ 3815
→ 3815
Wein@@ 3813
Edmund 3812
Take 3812
Ejecu@@ 3810
kham 3809
DR@@ 3808
Thunder@@ 3808
met 3808
Nord 3806
Lancaster 3805
marg@@ 3804
pur 3804
Muñ@@ 3803
Grig@@ 3802
Sain@@ 3802
Iris 3801
NES 3801
Kag@@ 3800
sl@@ 3799
Clan 3797
General@@ 3797
att 3797
arde 3794
wen@@ 3794
Diamond 3793
Princeton 3792
emon 3792
filipino 3792
odios 3792
spi@@ 3792
Buch@@ 3789
Kak@@ 3788
enea 3787
End@@ 3786
Again 3782
Ashley 3781
Simone 3781
Fischer 3780
PI 3779
Rau@@ 3779
mak@@ 3779
sable 3779
Ida 3778
Cage 3775
Wimbledon 3775
gate 3775
Fall 3774
RE 3774
atro@@ 3774
Forbes 3773
Happy 3773
onna 3772
Percy 3771
Reynolds 3770
Phyl@@ 3769
Fog@@ 3768
Peugeot 3767
Cann@@ 3766
Aleks@@ 3765
torp@@ 3765
ustos 3765
Age 3764
chec@@ 3764
inson 3764
Pyr@@ 3763
Hannah 3761
Avent@@ 3760
UP 3760
Color 3759
Systems 3759
pen 3758
Protoc@@ 3757
Regi@@ 3757
illera 3757
ław 3756
leb@@ 3755
restitu@@ 3755
sz@@ 3753
azza 3750
IN 3748
Management 3748
BT@@ 3746
Drew 3746
Reh@@ 3746
botes 3746
Dorothy 3744
western 3744
29.@@ 3743
Milwaukee 3743
freguesia 3743
Call 3742
area 3742
tak@@ 3741
Alexand@@ 3740
Premi@@ 3740
Gomez 3738
340 3735
Canadian 3735
Veter@@ 3735
ː 3735
1786 3734
dova 3734
pha 3734
1784 3733
Humboldt 3733
normal@@ 3733
big@@ 3732
mid@@ 3732
Daw@@ 3731
Enter@@ 3731
SD@@ 3730
deh@@ 3730
oteca 3730
Carey 3729
119 3728
Kai 3728
Prime 3728
fonso 3728
Cac@@ 3727
Mickey 3727
leen 3727
FIBA 3726
Whitney 3726
Hannover 3725
Petro@@ 3725
dav@@ 3724
pot 3723
eg 3722
98.@@ 3721
ous@@ 3721
Obj@@ 3720
adem@@ 3720
enfo@@ 3720
Future 3719
Nash 3719
eki 3718
Willie 3717
0.1 3716
migrantes 3716
Donn@@ 3715
Tours 3715
96.@@ 3714
Rov@@ 3714
Donnell 3712
enti 3711
Brooks 3709
bag@@ 3709
Aar@@ 3708
Australi@@ 3707
Caf@@ 3707
fix@@ 3707
Epi@@ 3706
Tag 3706
Wolver@@ 3706
lès 3705
Friends 3704
alon 3703
isis 3703
AAA 3702
Virgin 3702
anner 3702
5,5 3700
Jam 3700
Alum@@ 3699
Lakers 3699
Berry 3698
lín 3698
Gerald 3697
ieu 3697
Kis@@ 3696
Manga 3694
Nept@@ 3694
Boulevard 3693
Ricky 3693
arcade 3693
DOS 3692
yor@@ 3692
Hopkins 3691
Animal 3689
Ostr@@ 3687
Siena 3687
35,@@ 3686
36,@@ 3686
Joey 3686
Noel 3685
p.@@ 3685
Taur@@ 3684
ods 3684
Stur@@ 3683
1640 3682
Jay@@ 3680
Nickelodeon 3680
Petrol@@ 3680
Hap@@ 3679
Ts@@ 3679
trans 3679
tua 3679
Chang 3678
sley 3678
850 3677
epi@@ 3677
iman 3677
nis@@ 3677
56@@ 3675
ESS 3675
IL 3675
Rang@@ 3674
Ö@@ 3674
Wehrmacht 3673
flag@@ 3673
If 3671
Buz@@ 3670
Gene 3667
Gib@@ 3667
agh 3665
Luftwaffe 3664
tituy@@ 3664
Arte@@ 3663
​ 3663
1774 3661
Consum@@ 3661
Salle 3661
Sex 3661
Michigan 3659
Pradesh 3659
atz@@ 3659
Ist@@ 3658
Olivier 3658
Otom@@ 3658
Crystal 3657
HF 3656
ED@@ 3655
wer 3655
8.000 3654
FE@@ 3653
Chav@@ 3652
Here 3652
hiv@@ 3652
Concer@@ 3651
Andrews 3650
arre 3647
Mey@@ 3645
Abdul 3644
Harr@@ 3644
minor@@ 3644
Tiger 3643
spin 3643
Atari 3641
Christina 3641
GO@@ 3641
Louvre 3641
aze 3640
1781 3639
Cassini 3639
Donna 3639
Airways 3638
Anjou 3638
Aul@@ 3638
Idaho 3636
Mons 3636
vić 3635
165 3634
Council 3634
Jenn@@ 3634
ason 3634
destr@@ 3633
sap@@ 3633
än@@ 3633
MIT 3632
Pter@@ 3632
Rex 3632
KA 3630
NH@@ 3630
Atal@@ 3629
Lok@@ 3629
casting 3629
Cyn@@ 3628
clu@@ 3628
trad@@ 3628
Jonas 3626
igne 3626
iser 3625
Lop@@ 3624
transpor@@ 3624
Na 3623
yak@@ 3623
Kri@@ 3622
1520 3620
sberg 3619
53@@ 3618
Stevens 3618
Fed@@ 3617
Us 3615
Winter 3615
Perez 3614
Lum@@ 3613
Oliveira 3613
ule 3613
Airbus 3612
Lip@@ 3612
asha 3612
Mús@@ 3611
States 3611
lington 3611
ASA 3610
Away 3610
mort@@ 3610
urb@@ 3610
EV@@ 3608
`@@ 3607
dual 3607
Forever 3606
cona 3606
sko@@ 3606
Sahara 3605
Till@@ 3605
Greenwich 3604
oder@@ 3604
uren 3604
58@@ 3603
1.2 3602
Bid@@ 3602
elt 3602
133 3600
lit 3600
Hac@@ 3599
Étienne 3599
sini 3598
Species 3597
Veget@@ 3596
ality 3596
CPU 3595
els@@ 3594
tem 3594
Leeds 3593
tical 3593
yna 3593
Development 3591
Ho 3591
Mao 3591
turbo@@ 3591
Under 3590
illi 3590
tez@@ 3587
Albu@@ 3585
Christine 3585
0,1 3580
Edition 3580
Ten 3579
unk@@ 3579
mund@@ 3578
otis 3577
outs 3577
DR 3576
Chrysler 3575
Steel 3575
chat@@ 3575
phus 3573
parado@@ 3571
Chev@@ 3570
Meteor@@ 3570
Rhodes 3570
Aff@@ 3569
Orch@@ 3567
Spec@@ 3567
Janet 3566
indie 3566
juris@@ 3566
PRO@@ 3565
was 3565
Dimi@@ 3564
bay 3564
coli 3564
Cat 3563
mune 3563
nik@@ 3562
aen@@ 3561
spec@@ 3560
FS 3559
rix 3558
Got 3556
Iberia 3555
Eas@@ 3554
Rug@@ 3554
Toy@@ 3553
than 3553
Alme@@ 3552
Elsa 3549
Gard@@ 3548
ecimientos 3548
MiG 3547
emot@@ 3547
Bang@@ 3546
Ek@@ 3546
Mek@@ 3546
Power@@ 3546
técn@@ 3545
WTA 3544
Tamp@@ 3543
fratern@@ 3542
Act 3541
gun 3541
Amazon 3540
0.5 3539
IGN 3539
Dream@@ 3538
Brad 3537
Martinez 3537
Frank@@ 3535
oyo 3534
sten 3533
ã@@ 3533
ll 3532
mani 3532
MG 3531
shu@@ 3531
000.000 3530
Born 3530
Portu@@ 3530
got 3530
Aless@@ 3529
Squ@@ 3529
Vend@@ 3529
funk 3528
oby 3528
[...]
