. 5588743
, 4136577
&apos; 3258545
ve 2247818
&quot; 1949936
bir 1380549
) 821379
( 819642
da 790718
de 748700
@-@ 608661
olarak 580375
ile 515257
in 398646
için 398144
olan 346874
bu 345510
ın 336547
’ 324206
en 298072
yılında 283605
tarafından 282312
ya 262129
Bu 258258
sonra 257762
; 254264
lar 243434
: 242391
nin 236260
nın 232854
ler 226711
ları 219282
i 217182
an 211985
un 206810
a 203341
daha 203117
ı 199727
ilk 199028
te 198817
leri 193684
ise 172607
yer 169071
ç@@ 165895
e 165562
gibi 156186
k@@ 151445
den 148976
al@@ 147617
çok 147569
inin 145753
arasında 143980
ye 141024
y@@ 137754
kadar 137424
ası 136733
bağlı 135507
veya 134110
= 133270
iki 132706
lerin 128475
an@@ 128348
büyük 126823
u 125755
ş@@ 125473
ların 125422
dan 125361
esi 124813
1 123713
göre 121592
dir 121339
ma 121101
at@@ 118375
oldu 117996
ini 117867
S@@ 115360
il@@ 114804
ta 113739
bulunan 112355
ının 112258
ak@@ 111961
ak 111667
&#124; 111493
2 111125
li 111102
ını 110183
ine 108745
K@@ 106989
ar 106388
lı 105518
ar@@ 105238
la 104966
me 103929
Türkiye 103564
olduğu 103110
d 101515
- 99553
adı 98765
at 96547
t@@ 94901
tarihinde 94785
ıl@@ 93842
Y@@ 93784
ol@@ 93689
T@@ 93659
alan 93118
k 92684
ad@@ 91597
lik 90737
l@@ 90569
birlikte 90539
nde 90089
ne 89932
! 89884
lerini 89883
s@@ 89774
ına 89013
el@@ 88386
4 88320
ik@@ 88093
isi 87937
G@@ 87871
in@@ 87541
et@@ 87409
3 87280
ır 86966
ik 86555
km 86448
c@@ 86201
Ç@@ 86016
d@@ 85617
diğer 85047
ek@@ 84404
z@@ 83423
mak 83255
/ 82949
ü 82314
le 82191
İ@@ 81951
etti 81947
A@@ 81858
er 81826
nda 81496
inde 81422
aynı 80345
ında 80098
Türk 79929
o 79543
D@@ 79371
deki 79208
daki 79175
H@@ 78843
el 78827
on 78817
g@@ 78763
Ş@@ 78366
al 77497
m@@ 77068
yap@@ 76839
ay@@ 76463
et 76313
am@@ 76308
M@@ 76004
E@@ 75920
B@@ 73804
lara 73672
adlı 73670
yıl 73579
yeni 73572
larının 73525
align 73485
center 73235
ver@@ 73047
lerinin 72990
son 72728
her 72678
aldı 72336
larını 71676
im 71502
mek 70742
em@@ 70715
ancak 70533
lık 70447
en@@ 70387
iş@@ 69596
P@@ 69348
larda 69249
nun 69145
aş@@ 68891
İstanbul 68631
kal@@ 68463
iler 68431
ev@@ 68363
karşı 68290
im@@ 68130
Avrupa 67833
maya 67569
ması 66859
önemli 66818
Dünya 66609
&amp; 66450
% 66375
ım 66276
iz@@ 65997
di 65818
ama 65013
h@@ 64905
ün 64506
eski 64354
ından 64157
başladı 63970
z 63360
önce 63050
ilçesine 62982
lere 62982
eden 62670
as@@ 62064
eli 62050
unun 61632
b@@ 61612
lerde 61595
f@@ 61044
mesi 60949
ir@@ 60405
ı@@ 60357
ılar 60304
O@@ 60296
ü@@ 60162
er@@ 60148
unu 60065
na 60044
N@@ 59873
alı 59858
miştir 59755
ek 59681
eler 59631
5 59439
v@@ 59358
az 59299
aya 59028
ıdır 58893
Ar@@ 58826
il 58792
şekilde 58779
olduğunu 58528
olmuştur 58279
yapılan 58260
The 58115
larına 58013
inden 57857
m 57804
üzere 57704
ana 57294
ada 57070
6 56906
tan 56876
içinde 56729
Üniversitesi 56703
ay 56408
üzerine 56391
kur@@ 56252
p 56008
vardır 55979
di@@ 55902
larında 55882
ır@@ 55792
p@@ 55786
lerinde 55569
ç 55432
ten 55388
ti@@ 55370
Bir 55311
birçok 55212
ileri 55166
kez 55097
n@@ 55024
kon@@ 55019
enin 54867
t 54831
Z@@ 54748
lerine 54550
r@@ 54440
eleri 54298
arak 54289
L@@ 54240
or@@ 54223
una 54205
Mart 54079
aları 53962
kabul 53945
ki 53833
10 53766
liği 53733
az@@ 53675
Ayrıca 53633
es@@ 53590
F@@ 53497
C@@ 53397
yaz@@ 53237
iyi 53062
sahip 53061
Mayıs 53004
it 52962
ul@@ 52825
gel@@ 52699
kar@@ 52629
Al@@ 52571
anın 52330
is@@ 52004
on@@ 51929
ayı 51635
devam 51624
Ocak 51593
ık 51294
üç 51289
aç@@ 51238
ikinci 51159
baş@@ 50581
ir 50515
unda 50382
us 50345
Kasım 50126
gelen 50040
R@@ 49973
2010 49941
fazla 49819
tüm 49767
ış@@ 49734
“ 49558
it@@ 49524
lu 49519
yaptı 49477
V@@ 49278
Eylül 49119
Ekim 48872
edil@@ 48841
lerinden 48775
” 48582
ardından 48289
Kar@@ 48252
ısı 48184
ilinin 47977
av@@ 47897
yüksek 47783
Haziran 47778
kendi 47763
Nisan 47560
ABD 47528
Osmanlı 47505
iy@@ 47302
Temmuz 47242
sür@@ 47235
kap@@ 47192
ık@@ 47172
ül@@ 47061
Daha 46970
bazı 46964
olmak 46940
Ağustos 46862
Amerika 46846
tek 46817
ın@@ 46783
biri 46594
Aralık 46444
meye 46407
hem 46344
eri 46335
göster@@ 46193
s 46068
sırasında 46000
am 45778
üzerinde 45675
mıştır 45665
farklı 45601
oğlu 45300
olup 45268
su 45221
l 45195
ab@@ 45082
Ancak 44987
görev 44758
yi 44756
ter@@ 44707
geç@@ 44572
lan@@ 44558
ur 44506
çek@@ 44473
of 44414
zaman 44257
asında 43959
dır 43905
ılan 43761
ıp 43576
lardan 43546
ortaya 43538
re@@ 43513
um 43405
bulun@@ 43378
miş 43275
anı 43162
say@@ 43076
ım@@ 42977
alar 42971
man 42942
eye 42841
i@@ 42824
7 42808
&#93; 42771
yılları 42744
İlk 42676
Şubat 42669
Birleşik 42654
&#91; 42508
iş 42501
eş@@ 42455
yılı 42450
colspan 42379
çeşitli 42308
onu 42283
man@@ 42261
12 42209
Savaşı 42167
â@@ 42156
y 42109
arı 41999
bulunmaktadır 41883
geri 41835
ıyla 41720
15 41682
ili 41653
küçük 41647
ede 41571
nedeniyle 41430
edildi 41395
ur@@ 41377
larından 41297
ğ@@ 41187
boyunca 41178
ara 41134
bul@@ 41012
ö@@ 41011
8 40951
esine 40787
– 40488
yeniden 40446
20 40431
lerden 40244
zamanda 40019
te@@ 39899
maktadır 39761
mektedir 39741
idi 39676
ör@@ 39617
2012 39580
2020 39389
An@@ 39266
ken 39232
sadece 39210
U@@ 39137
ot@@ 39124
En 38994
dı 38866
ti 38658
gün 38572
edilen 38540
yaklaşık 38516
ed@@ 38434
lığı 38411
kan@@ 38374
2011 38316
par@@ 38267
2009 38231
sa 38141
yar@@ 38094
le@@ 38043
çık@@ 37991
î 37745
tı 37633
Ak@@ 37538
esinde 37479
katıl@@ 37403
j@@ 37393
ındaki 37380
ağ@@ 37224
erek 37220
a@@ 37090
tak@@ 37080
II 37062
uy@@ 37053
ah@@ 36986
de@@ 36973
ok@@ 36953
kullan@@ 36935
bil@@ 36733
as 36633
süre 36593
ıldı 36579
genel 36552
ür 36518
ist@@ 36484
nüfusu 36483
diği 36438
masına 36379
film 36258
imi 36249
ac@@ 36079
ser@@ 36069
si 36009
üne 35967
ünün 35885
uzun 35863
yerine 35811
ımı 35803
gör@@ 35739
11 35703
ele 35638
2008 35610
asyon 35609
bas@@ 35419
un@@ 35308
f 35207
indeki 35096
köy 35053
2014 34998
um@@ 34948
eti 34922
9 34910
Tarihçe 34886
onun 34841
merkezine 34838
kay@@ 34803
kat@@ 34783
çalış@@ 34702
os 34699
mış 34654
tut@@ 34541
larla 34540
li@@ 34529
Almanya 34479
iyle 34472
var@@ 34445
.@@ 34436
uz@@ 34312
rağmen 34281
yer@@ 34224
Fransa 34223
elde 34213
der@@ 34187
16 34149
ş 34074
os@@ 34046
30 33998
Er@@ 33892
2015 33817
e@@ 33798
yol@@ 33778
2013 33754
dön@@ 33661
se@@ 33546
J@@ 33468
Genel 33334
ıları 33287
ış 33282
belir@@ 33227
Coğrafya 33174
ait 33156
tan@@ 33150
yı 33131
se 33114
yaptığı 33080
len@@ 33017
ere 33008
bulunur 33000
kişi 32969
ağı 32960
altında 32917
bak@@ 32875
2007 32868
2016 32809
acak 32768
o@@ 32760
ilgili 32733
kısa 32689
dahil 32650
İngiltere 32610
çıkar@@ 32586
lam@@ 32533
Alman 32495
beri 32283
masını 32263
Güney 32126
2006 32095
Ankara 32026
edilmiştir 31942
New 31898
genellikle 31860
Yeni 31841
almıştır 31840
ildi 31808
lama 31799
ayrıca 31775
19 31697
is 31692
the 31612
lerle 31486
çi 31414
bir@@ 31361
özel 31348
tir 31344
0 31262
ıt@@ 31174
13 31145
ünü 31090
den@@ 31056
14 31032
esini 31000
İngiliz 30994
doğru 30927
Kuzey 30875
Amerikan 30870
dil@@ 30869
yarış@@ 30816
18 30814
uzaklıktadır 30814
ca 30723
takım 30672
kazandı 30608
ıcı 30543
Rusya 30438
tür@@ 30423
h 30413
başka 30404
şu 30375
tanım@@ 30359
O 30319
eder 30289
ona 30279
du 30144
kö@@ 30102
id@@ 30029
dört 30012
tür 30001
esinin 29980
ey@@ 29970
om@@ 29953
ni 29916
asına 29897
yan@@ 29879
geçir@@ 29870
siz 29827
17 29794
I@@ 29776
merkezi 29595
abilir 29574
alan@@ 29484
mesine 29464
2018 29444
ince 29426
adıyla 29422
ri@@ 29408
2017 29396
ür@@ 29310
ap@@ 29213
Roma 29197
kes@@ 29174
tarihi 29153
Cumhuriyeti 29120
özellikle 29061
yapıl@@ 29036
ka 29021
müzik 29006
adan 28994
ist 28983
arasındaki 28944
eb@@ 28935
af@@ 28909
geliş@@ 28845
ılmıştır 28801
yayın@@ 28774
alt@@ 28765
ilir 28764
kab@@ 28681
yen@@ 28659
25 28653
ük@@ 28651
ünde 28596
Mar@@ 28529
eme 28452
and@@ 28417
mayı 28277
yaş@@ 28275
yas@@ 28249
bilinen 28242
_ 28123
undan 28016
n 27998
ev 27988
düş@@ 27986
tekrar 27982
öl@@ 27963
Birliği 27909
millî 27830
asını 27826
Doğu 27820
ce 27792
sahiptir 27787
yle 27764
birkaç 27725
anlar 27710
A 27680
oluşan 27664
Or@@ 27642
seç@@ 27639
duy@@ 27602
2005 27529
bağ@@ 27525
sonunda 27524
kullanılan 27504
idir 27486
tar@@ 27466
2019 27433
gün@@ 27424
Büyük 27391
Kur@@ 27381
us@@ 27351
ün@@ 27278
ci 27267
v 27223
Kupası 27184
bi@@ 27165
kır@@ 27134
r 27093
2000 27072
kullanıl@@ 27015
sırada 26990
göz@@ 26986
iç@@ 26974
saldır@@ 26956
hakkında 26935
İtalya 26934
ıkları 26932
devlet 26918
lanan 26887
ilen 26877
od@@ 26866
altı 26838
üm@@ 26782
ilerin 26779
luk 26777
yapan 26775
re 26711
verdi 26603
art@@ 26602
kazan@@ 26585
yon 26577
21 26572
üy@@ 26543
ılmış 26488
olması 26472
olmayan 26470
ut@@ 26433
hav@@ 26411
lt 26398
gir@@ 26393
or 26308
es 26189
şehir 26181
ığını 26126
Aynı 26032
ler@@ 26024
Fransız 26022
Rus 25989
lem@@ 25973
çıkan 25958
dur@@ 25944
ne@@ 25915
ız 25906
itibaren 25884
Paşa 25845
son@@ 25834
spor 25803
oyuncu 25788
sağ@@ 25787
yet@@ 25775
eyi 25770
sel 25730
ulaş@@ 25712
bırak@@ 25703
yay@@ 25690
ant@@ 25668
Çin 25665
doğ@@ 25660
sıra 25645
almaktadır 25583
etmiştir 25573
mesini 25553
gt 25551
kor@@ 25535
24 25501
kol@@ 25499
ecek 25471
uk 25426
ği 25416
Baş@@ 25378
tamam@@ 25294
2004 25289
rol 25270
Öz@@ 25270
geldi 25262
inşa 25234
yol 25228
har@@ 25138
yüz@@ 25134
be@@ 25060
değiş@@ 25050
milyon 25032
savaş 25025
W@@ 24986
met@@ 24969
22 24965
Devletleri 24953
asının 24946
sezonunda 24921
grup 24873
ılır 24844
çıktı 24824
yakın 24814
düşün@@ 24728
yapmıştır 24727
adını 24711
26 24710
I. 24689
Film 24663
tur@@ 24663
çe 24615
eni 24458
Köy 24392
Ü@@ 24337
din@@ 24328
sun@@ 24308
döneminde 24262
etmek 24226
ali 24181
tem@@ 24142
üs@@ 24130
mad@@ 24116
ip 24082
savaş@@ 24048
şark@@ 23980
Kon@@ 23979
pl@@ 23972
udur 23961
neden 23957
pek 23921
kim@@ 23920
ayrıl@@ 23908
mahalledir 23905
takımı 23823
oloji 23812
mi 23777
ez@@ 23748
yanı 23735
bin 23683
Partisi 23665
san@@ 23654
aj@@ 23626
usu 23589
görün@@ 23545
üz@@ 23542
men@@ 23497
ic@@ 23488
verilen 23470
manın 23455
gi@@ 23435
ıyor 23423
Amerikalı 23403
dışında 23401
alın@@ 23395
atı 23395
kadın 23380
tam 23375
Ö@@ 23346
mer@@ 23344
alır 23333
teki 23318
23 23311
tasar@@ 23306
itibarıyla 23304
res@@ 23285
iz 23271
ıyordu 23225
Ad@@ 23186
ni@@ 23123
plan@@ 23112
oy@@ 23101
and 23064
ör 23055
ko@@ 23033
toplam 23018
ilmiş 23014
ia 22968
sonucu 22966
ans 22958
muştur 22926
ıs@@ 22837
dolayı 22821
futbol 22757
nüfus 22755
tik 22693
lü 22680
men 22646
ıktan 22636
El@@ 22605
eğitim 22598
eğ@@ 22590
anda 22576
Batı 22558
görüş@@ 22490
ku@@ 22460
aldığı 22458
ov 22430
ılması 22397
iler@@ 22381
Ligi 22365
uk@@ 22304
tek@@ 22248
oyun@@ 22220
sayımına 22209
ilmiştir 22206
şarkı 22195
görev@@ 22163
ığı 22084
hazır@@ 22065
sen@@ 22057
kariyeri 22051
tab@@ 22025
u@@ 21994
dönemde 21939
lanmıştır 21930
Anadolu 21919
sayısı 21910
leme 21880
diz@@ 21877
mas@@ 21876
masıyla 21869
kem@@ 21851
kad@@ 21837
sin@@ 21812
ke@@ 21802
yılından 21789
maları 21782
üst 21782
abil@@ 21770
York 21748
Ulusal 21720
olur 21720
sat@@ 21708
git@@ 21678
ıc@@ 21662
İmparatorluğu 21660
yon@@ 21639
uş@@ 21595
çoğu 21575
Ser@@ 21549
ut 21536
geliştir@@ 21470
Şarkı 21470
Ödülü 21461
27 21460
leriyle 21455
si@@ 21445
per@@ 21394
gelir 21381
nden 21375
ci@@ 21359
28 21357
ırlar 21356
bin@@ 21348
2002 21346
ze 21338
Bar@@ 21336
temsil 21336
ol 21330
Bil@@ 21293
ıya 21278
yıl@@ 21277
to@@ 21255
yerleş@@ 21254
kan 21238
ra 21201
lenen 21193
yaşında 21190
uç@@ 21182
düz@@ 21155
oluş@@ 21146
yarat@@ 21130
mi@@ 21085
2021 21084
yıllarında 21068
zor@@ 21036
başar@@ 21026
form@@ 21018
dur 20999
içer@@ 20999
ünden 20994
elerin 20966
irler 20965
1990 20963
üçüncü 20946
b 20938
ıların 20913
dev@@ 20861
mem@@ 20861
tah@@ 20841
sah@@ 20833
ça 20828
edi 20822
Uluslararası 20781
karar 20781
yan 20766
değiştir@@ 20738
der 20729
destek@@ 20725
kaç@@ 20722
anlat@@ 20719
Bunun 20706
muş 20699
ki@@ 20675
edilir 20672
Orta 20667
lik@@ 20656
pat@@ 20637
isinin 20624
sezon 20622
yön@@ 20613
oluştur@@ 20599
ız@@ 20540
savun@@ 20538
Ali 20506
tal@@ 20473
Her 20443
ina 20440
insan 20439
getir@@ 20438
sır@@ 20427
fakat 20421
taş@@ 20406
2003 20405
anlaş@@ 20384
Ay@@ 20363
mak@@ 20356
düzen@@ 20340
ılı 20336
ö 20335
kurulan 20329
müştür 20321
ayında 20317
attı 20291
İn@@ 20288
doğdu 20282
ıy@@ 20274
ıydı 20272
vi@@ 20266
2001 20264
açık@@ 20254
Lig 20245
John 20243
karşılaş@@ 20228
ışı 20219
tü@@ 20218
kalan 20216
anl@@ 20215
yüksel@@ 20206
katıldı 20173
ag@@ 20162
dünya 20158
yapımı 20153
yak@@ 20121
isini 20118
leş@@ 20114
ilik 20109
do@@ 20100
em 20090
alt 20081
ad 20079
ön@@ 20063
isimli 20015
üm 19997
hemen 19990
sınır@@ 19973
aların 19967
kız@@ 19959
askeri 19943
ettiği 19943
As@@ 19935
açık 19909
kl@@ 19878
ro@@ 19873
temel 19857
sonraki 19844
beraber 19813
aki 19782
uluslararası 19741
arası 19697
NGC 19696
konuş@@ 19696
öz@@ 19686
Azerbaycan 19667
ani 19651
100 19643
sar@@ 19611
kaldı 19588
hi@@ 19550
ük 19549
durum@@ 19537
ıda 19533
Hay@@ 19507
orta 19499
29 19491
köydür 19488
üş@@ 19477
beş 19466
sistem@@ 19465
bar@@ 19461
lar@@ 19457
futbolcudur 19442
takım@@ 19429
ayan 19416
duğu 19412
Parti 19406
karakter@@ 19396
öğren@@ 19381
ec@@ 19375
lanmış 19366
ifade 19361
albümü 19360
B 19352
Sovyet 19326
yaşam@@ 19303
ici 19289
yine 19274
maç@@ 19256
gen@@ 19243
filmi 19241
bulunduğu 19223
31 19222
boy@@ 19216
Gö@@ 19184
oranı 19172
koy@@ 19169
andı 19156
ye@@ 19155
yat@@ 19139
iç 19138
İyi 19128
tin 19120
kaz@@ 19091
tiği 19082
erin 19076
geniş 19072
Şampiyonası 19054
Afrika 19038
bel@@ 19035
ans@@ 19013
mes@@ 19013
taraf@@ 18998
kurul@@ 18996
program@@ 18995
geçen 18973
veril@@ 18954
tarih@@ 18940
ri 18880
ilçe 18871
karar@@ 18850
yerel 18850
bat@@ 18845
düzenlenen 18837
imleri 18818
sel@@ 18816
biridir 18809
üst@@ 18776
ton 18769
bek@@ 18745
Bur@@ 18743
Paris 18737
ber@@ 18699
bur@@ 18667
g 18653
mesiyle 18646
dem@@ 18645
meyi 18635
Kal@@ 18628
Har@@ 18625
County 18599
tu@@ 18577
siyasi 18568
kullanılır 18554
ks@@ 18549
8@@ 18500
üyesi 18494
söy@@ 18470
landı 18417
tel@@ 18405
Devlet 18364
lo@@ 18346
bi 18333
tr@@ 18331
mişti 18300
laş@@ 18281
kaynak@@ 18280
burada 18278
resmi 18272
gü@@ 18268
yıllarda 18261
formula 18243
uyar@@ 18243
Ab@@ 18225
yen 18216
İran 18212
transfer 18188
izin 18152
gol 18147
bo@@ 18134
C 18130
masının 18121
van 18103
üsü 18095
var 18060
herhangi 18038
if@@ 18016
aş 18004
uc@@ 18001
Kol@@ 17987
sayıda 17980
vardı 17979
içerisinde 17974
mu@@ 17967
diğini 17964
1999 17943
ail@@ 17897
gerçekleştir@@ 17885
ular 17878
maz 17855
erkek 17829
Kor@@ 17815
gönder@@ 17801
üler 17797
mıştı 17796
sak@@ 17779
hal@@ 17753
ah 17735
gö@@ 17714
yıllık 17695
eser@@ 17671
oynadı 17671
grubu 17648
sezonu 17640
Nüfus 17636
1980 17627
liğini 17608
hareket@@ 17579
okul@@ 17571
televizyon 17571
Kat@@ 17567
isinde 17558
Bey 17508
sistemi 17502
yal@@ 17486
İngilizce 17483
bütün 17479
anlamına 17467
haline 17467
En@@ 17464
op@@ 17457
bal@@ 17455
merkez@@ 17453
gem@@ 17434
me@@ 17430
Be@@ 17423
MÖ 17422
birleş@@ 17395
larıyla 17371
suç@@ 17357
dağ@@ 17300
ünlü 17285
Fakat 17269
dü 17263
kom@@ 17251
del@@ 17242
yaşayan 17232
bu@@ 17222
Diğer 17219
may@@ 17219
of@@ 17206
öldü 17181
amp 17168
başarılı 17163
Par@@ 17130
mücadele 17120
kaldır@@ 17095
dir@@ 17094
yanında 17087
üdür 17082
ili@@ 17081
kas@@ 17032
7@@ 17015
nı 17014
uygulam@@ 17005
D 16998
genç 16986
girdi 16984
kin 16980
Mısır 16974
acı 16972
Bel@@ 16967
esinden 16951
maçta 16941
örü 16934
ül 16933
ederek 16927
ıt 16926
işlem@@ 16922
ib@@ 16914
olabilir 16902
isti@@ 16855
asyonu 16853
list@@ 16833
başlayan 16830
madan 16822
forma 16819
bit@@ 16816
makta 16815
ilan 16809
ıl 16800
dizi 16796
oldukça 16765
müş 16751
çalıştı 16750
yılına 16745
sahibi 16740
Ev@@ 16718
ırken 16718
başına 16711
konusunda 16707
yüzyılda 16702
dönüş@@ 16699
mez 16699
ley@@ 16683
ark@@ 16665
eyaletinde 16665
bölüm@@ 16658
ilmesi 16651
teknik 16636
iken 16615
kul@@ 16613
öldür@@ 16612
İs@@ 16610
ing 16605
elik 16603
edilmiş 16598
ılık 16584
st@@ 16577
masında 16574
değil 16573
1998 16572
mez@@ 16570
î@@ 16568
1992 16541
bunun 16531
alm@@ 16512
taki 16506
başkanı 16494
çal@@ 16471
çocuk 16470
sosyal 16465
I 16459
yarı 16450
mekte 16440
ke 16405
parti@@ 16388
ard@@ 16387
diye 16387
meden 16382
Ch@@ 16376
metre 16368
osu 16360
dönem@@ 16354
ülke 16336
İkinci 16334
günü 16321
evi 16315
ığında 16308
tespit 16302
Av@@ 16301
tığı 16286
İspanya 16273
ısına 16264
sal 16254
bes@@ 16235
Sar@@ 16223
geçti 16222
üre@@ 16208
j 16198
yağ@@ 16192
Tak@@ 16188
çı 16178
deniz 16151
isim@@ 16149
x 16138
Am@@ 16125
giy@@ 16124
üc@@ 16116
Di@@ 16101
dönem 16092
malar 16086
iri 16063
belediye 16056
Per@@ 16047
Yap@@ 16024
eleştir@@ 16010
uğr@@ 15993
ayr@@ 15992
veren 15988
bilin@@ 15983
6@@ 15964
dol@@ 15938
50 15906
amacıyla 15903
isine 15893
ülk@@ 15891
hiçbir 15879
sal@@ 15866
ebil@@ 15846
adet 15828
başlamıştır 15825
Kö@@ 15804
lanır 15797
sız 15790
ladı 15772
söz 15761
ru@@ 15754
sonucunda 15745
tu 15735
Türk@@ 15716
Bakanlığı 15712
Man@@ 15706
alarda 15704
güçlü 15704
Re@@ 15696
umu 15696
yü@@ 15683
Japonya 15675
yazar 15665
dar 15655
Ber@@ 15654
ih@@ 15646
De@@ 15631
1996 15627
leyen 15598
ön 15598
araştır@@ 15585
Tr@@ 15583
Ne@@ 15576
uz 15563
albüm 15559
mar@@ 15534
ndan 15527
benzer 15526
giriş@@ 15520
1991 15506
1994 15493
K 15492
pr@@ 15485
1995 15484
hareket 15472
Fakültesi 15458
asyon@@ 15442
Bay@@ 15440
Mer@@ 15436
1993 15434
1997 15430
Ol@@ 15417
hava 15417
erken 15411
Hal@@ 15402
Der@@ 15378
ismi 15377
hizmet 15372
ice 15364
söz@@ 15357
yana 15357
inan@@ 15351
değildir 15346
kent@@ 15339
ucu 15325
yaygın 15325
yayınlanan 15324
mek@@ 15317
ülkenin 15292
alanı 15285
şehrin 15277
olojik 15275
familyasına 15267
Oy 15263
Yunan 15263
başında 15258
dığı 15235
sona 15216
yık@@ 15213
ebilir 15212
ap 15196
önceki 15195
end@@ 15190
ob@@ 15182
yani 15182
Ter@@ 15181
etkil@@ 15155
han 15141
Kan@@ 15119
9@@ 15114
Brezilya 15114
to 15111
ıma 15110
Bir@@ 15109
su@@ 15100
mezun 15080
ortak 15069
parç@@ 15068
ınca 15067
batı 15048
etmektedir 15038
1970 15031
kil@@ 15011
parçası 15009
aca 15007
bilim 15005
za 14993
lat@@ 14986
olay@@ 14985
İsrail 14973
anlam@@ 14961
film@@ 14958
iddia 14956
du@@ 14948
acağı 14936
şeklinde 14936
leştir@@ 14933
masından 14928
oyun 14918
eti@@ 14906
uygun 14854
seçildi 14841
Sultan 14840
ses@@ 14839
bilgi 14835
değer@@ 14831
layan 14827
tamamen 14812
bulundu 14808
meydana 14797
Asya 14785
üç@@ 14783
Sh@@ 14777
Son 14771
kuş@@ 14764
nedenle 14762
şirket@@ 14757
yu 14752
adır 14741
İzmir 14739
TV 14737
rol@@ 14734
ova 14732
ğin 14718
güç@@ 14709
ilere 14692
Bazı 14655
iller 14644
içeren 14626
yalnızca 14617
Kay@@ 14613
gerek@@ 14611
Suriye 14606
üs 14601
İl@@ 14597
kuzey@@ 14595
br 14593
kıy@@ 14581
ge 14563
amı 14552
1960 14537
ayrı 14508
diler 14506
Mal@@ 14494
elerde 14473
sonrasında 14473
güney@@ 14470
ken@@ 14448
lük 14448
siz@@ 14433
eg@@ 14422
cm 14420
luğu 14412
babası 14408
Eski 14402
hak@@ 14397
gerçekleş@@ 14394
ra@@ 14391
At@@ 14376
ulusal 14374
sürdür@@ 14371
ene 14363
turnuv@@ 14360
ov@@ 14331
Kaliforniya 14320
halk 14318
alarını 14301
Se@@ 14300
undaki 14296
ıştı 14291
Bizans 14281
Londra 14277
model@@ 14253
elerinde 14233
ladığı 14233
İslam 14201
Bo@@ 14196
düğü 14189
listesi 14188
por 14171
c 14167
ul 14167
ger@@ 14165
ane 14161
kav@@ 14158
elem@@ 14144
yazar@@ 14137
Nehri 14136
aday 14122
Bak@@ 14110
Mehmet 14110
cin@@ 14106
Pr@@ 14105
² 14095
alarak 14075
yüzyılın 14075
çocuk@@ 14075
etin 14070
Le@@ 14066
dil 14055
manı 14055
endi 14053
üzerinden 14029
konum@@ 14009
din 13990
piyasaya 13989
lider@@ 13982
ekonomik 13973
lık@@ 13969
sık@@ 13964
ite 13955
yaklaş@@ 13946
sonuç@@ 13929
bile 13918
Japon 13913
yet 13905
lardı 13896
oz@@ 13896
meyen 13875
düşük 13842
Başkanı 13839
İki 13838
ısını 13836
Tur@@ 13832
sık 13825
sim@@ 13824
ey 13813
ent@@ 13811
so@@ 13806
tir@@ 13801
Ko@@ 13795
kardeşi 13784
ğini 13778
ilç@@ 13775
İtalyan 13774
gerçek 13766
ter 13730
boş@@ 13695
elerinin 13686
tur 13682
ord@@ 13679
hay@@ 13676
topl@@ 13670
Ger@@ 13653
adi@@ 13651
Sal@@ 13627
iye 13596
şek@@ 13594
Mustafa 13579
Futbol 13578
hastal@@ 13563
Sa@@ 13545
Her@@ 13540
Krallık 13538
+ 13532
bağımsız 13526
kontrol 13510
yayınlandı 13508
başı 13496
T 13490
esidir 13490
müz@@ 13484
istan 13474
karşıl@@ 13473
büyü@@ 13464
yöntem@@ 13464
bölgesinde 13449
pi@@ 13448
po@@ 13432
sev@@ 13432
40 13430
yardım 13427
verildi 13421
albüm@@ 13413
tartış@@ 13411
profesyonel 13395
Polonya 13374
dik@@ 13373
inç 13372
sor@@ 13365
lanması 13361
ılmaktadır 13351
-@@ 13340
sil@@ 13326
Millî 13313
û@@ 13313
öner@@ 13304
5@@ 13302
İş@@ 13271
ığ@@ 13271
mal@@ 13265
lidir 13264
1989 13258
til@@ 13258
Te@@ 13251
X 13250
Avusturya 13249
sonrası 13248
kendisine 13242
olmasına 13239
soy@@ 13237
ef@@ 13221
ilg@@ 13221
ai 13205
St@@ 13188
ata 13188
serbest 13181
alarının 13179
Tar@@ 13178
çiz@@ 13177
kü@@ 13176
kariyerine 13174
Ağ@@ 13171
başkan@@ 13171
he@@ 13167
sit@@ 13159
S 13148
mut@@ 13142
şehir@@ 13140
bölge 13128
10@@ 13127
bilinir 13127
liğinde 13125
Rom@@ 13122
Mes@@ 13120
iti@@ 13115
tip 13115
acağını 13110
eng@@ 13108
kı@@ 13101
meleri 13088
kr@@ 13085
uma 13081
doğal 13078
kurulmuştur 13073
Yahudi 13066
amaç@@ 13064
El 13062
yönünde 13055
hale 13049
Arap 13042
iden 13042
birinci 13034
dek 13027
eceği 13024
aç 13010
up 13010
ledi 13008
tanıt@@ 13006
Bal@@ 12997
kısmı 12988
arlar 12985
Örneğin 12985
yolu 12981
kiş@@ 12977
Kom@@ 12975
sol@@ 12973
yardımcı 12971
modern 12970
Sel@@ 12967
komut@@ 12960
şey@@ 12959
Hak@@ 12955
yürüt@@ 12946
Aş@@ 12935
mo@@ 12922
Eurovision 12921
ati@@ 12918
altına 12909
başlam@@ 12893
han@@ 12881
bölümü 12872
kam@@ 12869
lu@@ 12855
anc@@ 12853
Su@@ 12851
Türkçe 12850
Sovyetler 12823
hat@@ 12819
ip@@ 12810
dünyanın 12803
köy@@ 12802
yapıldı 12801
fer@@ 12792
kuruldu 12778
oyn@@ 12776
yorum@@ 12761
tır 12758
dav@@ 12750
durum 12744
verdiği 12739
adlandır@@ 12738
maçında 12732
açıklam@@ 12727
Kap@@ 12725
başlar 12714
video 12697
ade 12695
asıyla 12683
doğu 12674
Buna 12669
türü 12666
andır@@ 12664
Kaz@@ 12659
Merkezi 12658
Yüksek 12658
fin@@ 12655
günümüzde 12654
X@@ 12648
lerdir 12640
maç 12629
ale 12628
oluşur 12628
val@@ 12628
land@@ 12627
bey@@ 12619
atik 12609
biy@@ 12605
yum 12596
Yunanistan 12593
ısında 12592
çalışan 12589
kıs@@ 12588
olsa 12565
yn@@ 12563
tas@@ 12561
görül@@ 12549
vur@@ 12546
Br@@ 12540
Müzik 12537
kuruluş@@ 12537
sa@@ 12533
lak 12527
altın 12512
tarihli 12511
değ@@ 12502
hızlı 12499
dal@@ 12480
yazıl@@ 12460
etkin@@ 12450
yok 12450
bunu 12444
sanat 12443
saat 12428
U 12423
paylaş@@ 12419
ılarak 12414
iyor 12410
çatış@@ 12404
gar@@ 12397
satın 12396
ete 12389
devlet@@ 12380
çalışmalar@@ 12380
başlat@@ 12378
defa 12378
dikten 12376
istem@@ 12376
has@@ 12361
öğrenc@@ 12342
adına 12326
elerini 12323
olmuş 12316
uyla 12307
Halk 12305
Toplam 12301
yönetim 12293
ilerinin 12287
ağır@@ 12267
eceğini 12266
ime 12266
üt@@ 12262
enc@@ 12261
ular@@ 12250
arın 12246
Hav@@ 12238
can@@ 12228
Avustralya 12224
siyon 12223
ıç@@ 12205
kitap@@ 12204
birlik@@ 12203
kızı 12191
ch@@ 12183
mesinden 12177
ağır 12166
Mad@@ 12157
1988 12148
beyaz 12145
baş 12138
yapı 12128
Yen@@ 12117
yapılmıştır 12109
iline 12105
alanında 12090
ses 12081
kent 12077
E 12069
fik@@ 12041
tav@@ 12022
tor@@ 12020
Ma@@ 12014
lis@@ 12002
inc@@ 11995
Ödülleri 11976
hafta 11975
Fenerbahçe 11974
çalışmaları 11972
ölç@@ 11971
id 11965
yönelik 11963
seçim@@ 11960
Ham@@ 11959
Gün@@ 11953
irken 11941
öne 11939
lad@@ 11938
verir 11936
dar@@ 11931
zorunda 11931
On@@ 11923
toprak@@ 11920
landır@@ 11911
kız 11908
Car@@ 11903
fil@@ 11903
kurum@@ 11902
miş@@ 11895
? 11894
zi 11894
içerir 11891
yenil@@ 11886
ordusu 11883
laştır@@ 11867
alarına 11864
be 11850
şehri 11844
Merkez 11832
1987 11823
bileş@@ 11820
tepe 11818
Kır@@ 11816
çevir@@ 11815
yıldız@@ 11814
lığına 11805
ette 11799
imler 11799
Bununla 11794
kuvvet@@ 11791
ordu 11783
asker@@ 11775
çöz@@ 11774
deney@@ 11772
ıklar 11764
yeri 11759
kir@@ 11752
dair 11750
Galatasaray 11748
alarında 11745
güç 11728
min@@ 11728
ilerek 11718
yük@@ 11698
ari@@ 11694
dağıt@@ 11694
oyuncul@@ 11690
Kanada 11688
yapmış 11685
üd@@ 11683
Es@@ 11678
Yarışması 11674
lardır 11668
FC 11663
aj 11660
idae 11655
kurtar@@ 11649
mesinin 11648
aşam@@ 11645
taşın@@ 11643
ılığı 11643
ılara 11642
değerlendir@@ 11639
adaki 11634
bildir@@ 11630
Mah@@ 11623
1928 11617
Bey@@ 11610
Seç@@ 11603
Doğ@@ 11596
bölüm 11596
üret@@ 11596
Ver@@ 11595
kâ@@ 11588
Hayatı 11579
yılının 11578
seslendir@@ 11576
lay@@ 11561
para 11554
ham@@ 11549
uları 11549
ren@@ 11548
onları 11533
San 11527
gözlem@@ 11519
üzerindeki 11519
sinema 11516
Ukrayna 11515
lenmiş 11515
Grup 11502
öldürül@@ 11493
Kıbrıs 11490
Kad@@ 11486
oy 11478
başkenti 11462
edi@@ 11461
oc@@ 11458
şarkıcı 11458
döndü 11457
Kore 11449
yüzyıl 11439
ley 11435
1986 11426
ödül@@ 11426
dünyaya 11424
hız@@ 11413
3@@ 11403
kasab@@ 11378
tanr@@ 11375
güven@@ 11374
karşısında 11369
lenir 11361
boş 11355
kendini 11349
III 11347
eği 11346
erini 11345
iştir 11342
kişinin 11328
Köyün 11326
geleneksel 11318
Dev@@ 11316
yesi 11305
belirli 11301
örgüt@@ 11301
aka 11298
söyledi 11295
Em@@ 11294
kültür@@ 11292
şe 11284
çünkü 11281
eyen 11273
1950 11270
tipi 11268
sayesinde 11259
andır 11256
kıl@@ 11247
ji 11246
tim@@ 11240
sezon@@ 11234
Az@@ 11231
ığına 11231
acaktır 11230
isidir 11227
menin 11217
çift@@ 11213
aktif 11210
edilmektedir 11210
sahi@@ 11205
yazarı 11205
Ordu 11202
artık 11194
indir@@ 11189
Do@@ 11184
Muhammed 11178
alara 11178
hâ@@ 11174
Şehir 11172
Val@@ 11167
mey@@ 11165
sayı 11164
sağlam@@ 11164
th@@ 11163
çarp@@ 11161
yayın 11159
taş 11157
elli 11154
Hindistan 11139
iliği 11136
liğe 11136
Hollanda 11120
İsveç 11119
dış 11117
ig@@ 11117
kurdu 11115
dikleri 11109
1.@@ 11098
üniversit@@ 11095
kayıt@@ 11092
emi 11091
ge@@ 11088
enerji 11087
ide 11081
konu 11081
Han 11077
ks 11076
all@@ 11070
kel@@ 11065
galaksidir 11061
Sam@@ 11057
Mor@@ 11035
tır@@ 11031
mam@@ 11029
William 11027
uygulan@@ 11018
1984 11016
med@@ 11015
mü@@ 11004
senar@@ 11004
ila 10985
Süper 10982
İz@@ 10980
kardeş@@ 10979
bitir@@ 10975
Devleti 10974
eri@@ 10968
fe@@ 10964
kaybet@@ 10963
ığın 10963
Burada 10962
araç@@ 10960
Ön@@ 10959
yüksek@@ 10957
tic@@ 10956
şehirdir 10956
kut@@ 10941
ie 10939
Gü@@ 10930
üyle 10923
maçı 10917
met 10917
ing@@ 10916
destek 10900
Windows 10890
Yak@@ 10888
adığı 10888
va 10880
proj@@ 10878
teor@@ 10873
Gürcistan 10867
F 10866
iğ@@ 10858
şarkısı 10852
single 10846
indedir 10845
ilinde 10842
yerleşim 10842
bah@@ 10834
ısının 10834
hiç 10827
yazdığı 10826
şey 10824
ve@@ 10822
2. 10817
ret@@ 10815
UEFA 10814
mec@@ 10812
1985 10801
idari 10799
ayak@@ 10793
mel@@ 10792
fa@@ 10790
ika 10790
takip 10789
korun@@ 10785
br@@ 10774
do 10774
ize 10761
fi 10760
ce@@ 10757
elerine 10751
L 10745
cinstir 10745
suz 10741
Böylece 10730
tar 10730
ölçüde 10730
ündeki 10726
1982 10718
kuzey 10718
sürekli 10718
iyordu 10716
siy@@ 10708
yoktur 10705
kelim@@ 10697
kazanmıştır 10689
ari 10686
mağ@@ 10683
cu 10680
deniz@@ 10674
kazanan 10668
tarihleri 10667
ışık 10655
2.@@ 10650
Tarihi 10645
M 10644
etmeye 10644
Mon@@ 10642
sahn@@ 10640
final 10639
Tek@@ 10638
cı 10633
dışı 10628
oynanan 10627
çalışma 10622
kara 10620
tes@@ 10620
To@@ 10616
Deniz 10614
bölgede 10597
ati 10596
Sen@@ 10594
adında 10592
esiyle 10588
Pol@@ 10583
ölüm@@ 10577
Ahmet 10575
bor@@ 10565
uldu 10562
kum@@ 10561
silah@@ 10561
tiyatro 10555
mada 10554
kı 10549
Irak 10541
ep@@ 10540
halk@@ 10534
kleri 10526
yakın@@ 10525
göç@@ 10518
aşağıdaki 10514
güney 10514
Yaz@@ 10513
bilim@@ 10511
tü 10511
yerini 10507
derec@@ 10496
doğrudan 10489
lamak 10488
ıyı 10476
ot 10469
kendisi 10459
Eğitim 10458
kitap 10451
kötü 10445
gösteren 10435
ran@@ 10435
yerleştir@@ 10434
ancı 10430
ali@@ 10429
James 10427
... 10426
geçmektedir 10408
ten@@ 10408
resmî 10405
best@@ 10402
takımına 10395
yazdı 10394
koşul@@ 10389
Mel@@ 10387
uğu 10385
popüler 10384
hayvan 10382
Bah@@ 10380
luk@@ 10379
taşıyan 10377
iv@@ 10369
Sonuçlar 10368
kurulmuş 10366
pleri 10363
ydi 10363
eh@@ 10358
Bölgesi 10356
çağ@@ 10353
eler@@ 10349
R 10347
sü@@ 10345
enler 10342
ha 10339
ins@@ 10337
lem 10327
zu 10327
1983 10324
çevr@@ 10306
P 10295
Kurulu 10293
küt@@ 10292
Özel 10289
dam@@ 10284
anları 10268
görevi 10257
öğ@@ 10257
des@@ 10256
derg@@ 10247
Kuvvetleri 10246
any@@ 10242
sul@@ 10235
ayır@@ 10230
Bab@@ 10227
iliş@@ 10226
asından 10222
yoğun 10222
60 10221
mevcut 10219
Enstitüsü 10199
elektrik 10196
Tan@@ 10192
Fil@@ 10190
asa 10190
David 10183
seviy@@ 10183
ok 10178
futbol@@ 10173
sınıf@@ 10167
ımlar 10166
elerinden 10165
dedir 10158
Birinci 10157
dır@@ 10154
anti@@ 10152
oran@@ 10147
çekil@@ 10138
kullanarak 10134
ındadır 10134
uş 10128
yl@@ 10126
dönemi 10123
Yaz 10120
zaman@@ 10119
yard@@ 10118
no@@ 10115
Berlin 10114
Th@@ 10105
Ermeni 10104
medi 10102
otur@@ 10099
yok@@ 10098
batısında 10097
V 10092
gelmiştir 10090
4@@ 10088
Şehrin 10077
sab@@ 10070
yedi 10069
işi 10063
her@@ 10058
yetiş@@ 10050
halinde 10046
ortam@@ 10040
x@@ 10039
hap@@ 10038
ald@@ 10037
‘ 10037
kin@@ 10034
yılındaki 10034
yası 10030
Bas@@ 10025
hizmet@@ 10021
og@@ 10020
are 10018
eşi 10017
insan@@ 10016
Bakanı 10010
etti@@ 10007
Gal@@ 10002
etmiş 9997
ann@@ 9989
Cumhuriyet 9984
hedef@@ 9983
yaşam 9981
Altın 9980
19. 9977
ilçesinde 9972
çıkmıştır 9972
bölgesi 9962
ent 9957
Moskova 9955
ino 9949
süren 9949
kendisini 9944
bü@@ 9940
aktar@@ 9939
hüküm@@ 9936
oluşturul@@ 9936
top@@ 9934
Bul@@ 9933
Bor@@ 9931
gelen@@ 9921
Var@@ 9915
hak 9907
gen 9905
lek@@ 9903
Kas@@ 9901
Profesyonel 9901
ano 9900
tanın@@ 9900
dis@@ 9896
gi 9895
liğine 9893
nu 9893
ens@@ 9884
van@@ 9881
etkisi 9870
çesi 9868
ilik@@ 9867
keşf@@ 9865
araştırma 9858
ces@@ 9857
lig@@ 9850
ha@@ 9849
Beyaz 9842
çift 9833
Başkanlığı 9827
alık 9827
donan@@ 9827
dayan@@ 9821
lak@@ 9820
madalya 9814
hesap@@ 9810
Mak@@ 9800
çı@@ 9800
grubun 9795
bitki 9793
1979 9787
şah@@ 9786
kayb@@ 9784
sırasıyla 9778
Festivali 9769
Dar@@ 9767
adam@@ 9763
ed 9762
rom@@ 9758
mon@@ 9756
dür 9752
sefer@@ 9750
alar@@ 9743
Kariyeri 9741
Okulu 9736
Mat@@ 9733
sk@@ 9725
2@@ 9711
açısından 9709
kilis@@ 9698
Belediye 9683
kullanılmaktadır 9683
kişilik 9682
yum@@ 9673
canlandır@@ 9672
çisi 9670
bazen 9668
elere 9666
zar@@ 9657
ğ 9655
Michael 9651
200 9649
şirketi 9638
fi@@ 9636
nasıl 9632
Olimpiyatları 9625
karış@@ 9625
birleştir@@ 9624
Sez@@ 9621
dağ 9621
gösterir 9621
Fer@@ 9619
land 9613
kesin 9611
pu@@ 9596
1981 9593
era 9591
şi 9585
antik 9583
meler 9582
doğusunda 9576
aktadır 9574
kaf@@ 9573
La 9572
yla 9570
Müslüman 9563
dördüncü 9560
ifad@@ 9556
bilimsel 9554
hayvan@@ 9554
cihaz@@ 9548
eğitimi 9548
fir@@ 9548
urlar 9548
mis@@ 9546
mahalle 9544
sh@@ 9544
kend@@ 9542
Geç@@ 9533
alındı 9533
def@@ 9526
Kr@@ 9524
kayıtlarında 9522
ba@@ 9521
ımını 9512
uv@@ 9511
dış@@ 9509
att@@ 9501
açıkladı 9500
göç 9496
olabil@@ 9491
annesi 9490
rast@@ 9490
Ku@@ 9488
şehrinde 9479
oyunu 9474
Kral 9471
kullanılmıştır 9471
Yar@@ 9466
meni 9465
ıştır 9463
Ordusu 9462
ez 9460
ümü 9460
arab@@ 9459
yapmaktadır 9459
yapmak 9456
böylece 9455
üye 9438
la@@ 9434
verilmiştir 9424
ho@@ 9414
vak@@ 9410
bulunmuştur 9407
Krallığı 9404
3. 9400
1974 9392
isim 9391
üretilen 9390
pol@@ 9389
aklı 9385
ecektir 9382
lenmiştir 9381
Yaşamı 9379
öncesi 9378
etkili 9375
bölümünde 9369
oper@@ 9366
buna 9344
yabancı 9344
gelmektedir 9333
hayatını 9332
iddi@@ 9330
yoluyla 9329
ala 9327
takımyıldızı 9327
aba 9324
1978 9313
ze@@ 9312
eli@@ 9311
yonu 9311
Grubu 9307
ağa 9304
yıldız 9298
alam@@ 9296
yo@@ 9292
gazet@@ 9290
stüdyo 9290
yayım@@ 9284
Günümüzde 9283
ilgi 9280
pe@@ 9280
ta@@ 9280
içi 9272
yapt@@ 9272
Spor 9270
90 9265
muh@@ 9263
tarz@@ 9262
şampiyon@@ 9260
1945 9252
Hava 9250
dür@@ 9248
neredeyse 9246
fark@@ 9244
min 9242
Lisesi 9234
Akdeniz 9227
malzem@@ 9224
if 9222
sahne 9221
çaplı 9219
uyor 9217
iydi 9216
konusu 9205
Oy@@ 9193
Rus@@ 9192
dini 9191
olu 9186
Gir@@ 9181
ılığ@@ 9180
aile 9179
tarih 9176
üretil@@ 9174
kapat@@ 9173
fır@@ 9171
sen 9171
kitabı 9161
dağıl@@ 9160
maktaydı 9151
Savaş 9142
one 9142
Si@@ 9139
parti 9136
lanmaktadır 9134
mil@@ 9132
göl@@ 9124
çocuğu 9122
geçirdi 9119
Robert 9118
mal 9117
Can@@ 9111
izm 9108
arkadaş@@ 9107
kalm@@ 9105
kullanıc@@ 9101
mücadel@@ 9094
yasa 9091
tane 9090
enen 9089
1973 9088
San@@ 9088
let@@ 9084
sem@@ 9084
Ah@@ 9083
görevini 9080
terk 9080
1968 9078
Beşiktaş 9073
nün 9071
Mo@@ 9062
siyasetçi 9057
imini 9056
karş@@ 9054
çoğunlukla 9053
dizisi 9052
vir@@ 9051
ang@@ 9050
diğinde 9046
ığından 9041
arkadaşı 9038
futbolcu 9034
oğ@@ 9033
madı 9032
tekn@@ 9022
Kemal 9021
acak@@ 9021
ğe 9021
doğrul@@ 9018
kentinde 9018
G 9009
Müz@@ 9008
finalde 9007
Dur@@ 9004
dikkat 9003
yüzden 9003
H 9002
sız@@ 8999
işgal 8998
tör@@ 8994
ıdan 8992
sınırları 8986
yetiştir@@ 8985
malı 8984
1972 8980
FIFA 8979
almış 8979
ettir@@ 8978
ekonom@@ 8966
fe 8963
birliği 8962
tec@@ 8959
N 8958
1975 8955
dili 8947
Mil@@ 8942
faaliyet@@ 8942
göz 8939
vermiştir 8938
motor@@ 8932
hayatı 8931
tamamladı 8930
ılarını 8929
ımları 8923
bölgesine 8920
metr@@ 8920
Kara 8915
Britanya 8911
om 8908
Mu@@ 8906
Bat@@ 8904
filmin 8904
keşfedilmiştir 8904
İk@@ 8904
lığa 8903
gitti 8902
üyeleri 8901
ilçesi 8900
seçim 8900
Hristiyan 8893
Bursa 8889
cinsel 8877
aşı 8876
lanma 8876
araya 8873
birbir@@ 8872
ıldığı 8872
Has@@ 8870
Me@@ 8870
nü 8868
değer 8865
elerden 8865
giren 8864
görülür 8862
ortalama 8861
ndeki 8858
canlı 8856
milletvekili 8854
nes@@ 8852
nam@@ 8851
Küçük 8847
sürül@@ 8846
1977 8843
Tarih 8826
1920 8820
Ni@@ 8812
kavram@@ 8811
lig 8807
yapılmış 8805
Ge@@ 8791
başlarında 8791
° 8790
Macaristan 8786
eki 8782
sağlar 8780
35 8777
Demir@@ 8777
hala 8775
sağlayan 8774
George 8764
kırmızı 8761
Yay@@ 8759
seçimleri 8756
durumu 8753
alınan 8746
çiler 8745
takımında 8738
içindeki 8731
yayımlanan 8730
minin 8727
ort@@ 8724
Sanat 8723
tep@@ 8723
Muharebesi 8719
yönetimi 8714
aklar 8705
bab@@ 8693
teş@@ 8685
toplant@@ 8684
kökenli 8683
sevi@@ 8677
başta 8671
can 8669
1976 8668
olmam@@ 8668
Meclisi 8663
Mas@@ 8655
sanatçı 8655
ask@@ 8650
mevcuttur 8650
İsviçre 8650
Kulüp 8649
mm 8649
baz@@ 8641
mac@@ 8637
saat@@ 8635
Tab@@ 8628
ilerini 8627
etik 8625
idar@@ 8625
bölün@@ 8616
Po@@ 8610
fl@@ 8607
yaşadığı 8603
Kültür 8601
hu@@ 8594
ro 8594
dük@@ 8593
düğ@@ 8593
lenmesi 8593
Tay@@ 8590
sol 8588
mayan 8584
Güneş 8570
ımc@@ 8568
özellik@@ 8566
Özellikle 8564
onların 8556
vatandaş@@ 8550
cu@@ 8543
Dr. 8540
çağr@@ 8540
olmadığı 8536
Tüm 8531
düzenlem@@ 8526
Gr@@ 8525
1969 8520
pler@@ 8520
Kadın 8517
merkez 8515
Derneği 8513
puan 8510
ko 8509
nak@@ 8509
önem@@ 8502
pler 8501
lendir@@ 8500
üğ@@ 8499
lıdır 8498
düşünül@@ 8497
duvar@@ 8495
tercih 8494
Haz@@ 8493
Müzesi 8493
akt@@ 8492
laması 8492
1971 8491
anan 8488
çıkar 8477
Mek@@ 8474
kaya 8471
Gül@@ 8470
içine 8470
lemek 8468
spor@@ 8466
okulu 8461
çab@@ 8461
Şampiyon@@ 8456
oynadığı 8453
diş@@ 8448
Akademisi 8441
kurtul@@ 8438
çapında 8434
Portekiz 8432
onay@@ 8431
rah@@ 8427
lığını 8423
2022 8417
Med@@ 8414
kit@@ 8414
Sey@@ 8413
atandı 8412
ese 8410
götür@@ 8396
mektu@@ 8396
kanıt@@ 8394
45 8393
diren@@ 8392
Pro@@ 8391
80 8390
City 8380
eylem@@ 8377
ansı 8374
yetkil@@ 8369
Bi@@ 8363
müş@@ 8363
kuşat@@ 8361
lamıştır 8351
mişlerdir 8350
üretim 8349
asker 8347
ndaki 8346
normal 8345
eriş@@ 8340
denir 8339
yayınladı 8328
gerçek@@ 8324
gücü 8324
orijinal 8317
500 8313
ire 8312
don@@ 8311
cez@@ 8309
derece 8305
lı@@ 8303
edilmesi 8298
rim 8298
mekteydi 8295
tahmin 8295
fark 8287
taşımaktadır 8286
makin@@ 8285
arş@@ 8274
performans@@ 8273
Gu@@ 8270
Kadınlar 8260
Los 8259
ayrıldı 8259
ateş@@ 8257
göstermektedir 8257
istik 8249
Mus@@ 8247
ticari 8247
edir 8246
ba 8245
Gaz@@ 8244
Sah@@ 8240
1967 8232
söyler 8230
aşırı 8228
Taş@@ 8226
Mez@@ 8225
ücü 8223
seri 8222
ts@@ 8217
genç@@ 8215
oyuncusu 8211
rak@@ 8211
azalt@@ 8210
ülkede 8208
Bunlar 8206
yor 8204
ell@@ 8200
devr@@ 8197
ence 8188
Mc@@ 8185
hatta 8183
Savaş@@ 8180
Et@@ 8177
likleri 8174
geçmiş@@ 8166
İsk@@ 8166
ğine 8162
takımın 8159
mant@@ 8153
ölmüştür 8151
sağ 8149
Teknik 8148
gördü 8147
eller 8146
lendi 8145
Charles 8140
Kilisesi 8140
amadı 8140
ılarının 8139
fonksiyon@@ 8135
anların 8129
bilinmektedir 8123
teri 8117
ori 8115
uzak@@ 8110
açtı 8106
ıştır@@ 8106
artır@@ 8096
ikler 8096
arka 8094
3.@@ 8090
durumda 8080
sebe@@ 8076
Sır@@ 8073
Tanrı 8072
Gen@@ 8067
32 8062
Gök@@ 8062
ato 8053
adi 8051
Mem@@ 8048
day@@ 8047
pan@@ 8040
cul@@ 8031
fotoğraf@@ 8030
özellikleri 8030
Paul 8028
kültürel 8024
imparator@@ 8023
çoğ@@ 8022
aday@@ 8020
yaptır@@ 8019
sanat@@ 8016
belli 8015
neden@@ 8012
İlçenin 8012
sebebiyle 8010
ticaret 8010
politik@@ 8009
roman@@ 8009
Cam@@ 8008
almak 8007
uğ@@ 8003
koş@@ 8002
polis 7998
özg@@ 7991
1930 7990
öz 7989
est@@ 7983
insanların 7979
Sin@@ 7974
arada 7973
ğinde 7972
meş@@ 7969
dönemin 7968
Van 7967
şiir@@ 7967
Ama 7966
takımının 7966
ımının 7965
lan 7964
olma 7964
metal 7960
haf@@ 7957
adamı 7956
biçim@@ 7956
sınıflandır@@ 7956
yaş 7955
kuzeyinde 7950
Ana 7949
yerde 7948
Cor@@ 7946
12@@ 7942
Mac@@ 7942
lü@@ 7942
sistem 7942
aracılığıyla 7921
sok@@ 7915
tutuk@@ 7914
ziyaret 7914
yükseldi 7913
kulübünde 7912
1961 7909
Tor@@ 7909
70 7906
Geçersiz 7904
bağlant@@ 7899
çekir@@ 7899
örnek 7899
pozisyonunda 7898
mahall@@ 7895
yapısı 7891
küm@@ 7888
gece 7887
kale 7887
culuk 7884
ast@@ 7882
astronom 7877
doğum 7876
ae 7875
korum@@ 7875
sergil@@ 7875
dr@@ 7872
etler 7871
ulu 7871
liğin 7869
yeter@@ 7869
ımında 7867
çalışmalar 7866
akları 7862
ard 7862
bağl@@ 7862
yıllar 7859
kendine 7856
müziği 7856
yem@@ 7854
kapasit@@ 7853
ita 7850
nüfusunun 7848
yurt 7848
etme 7847
â 7845
amacı 7844
ant 7843
üz 7842
kamp@@ 7838
olduğuna 7838
olmadığını 7837
sekiz 7835
endi@@ 7827
mışlardır 7826
iyet@@ 7822
biçimde 7821
Tür@@ 7820
oluşturan 7813
bek 7808
kadın@@ 7803
kontluğunda 7803
pas@@ 7803
Dav@@ 7800
Yaş@@ 7797
ch 7797
ph@@ 7795
Dağ@@ 7792
çu 7789
ilerde 7788
gez@@ 7785
Atatürk 7784
teslim 7783
Naz@@ 7781
parish 7781
erine 7774
günlük 7772
yo 7771
ban@@ 7770
civil 7770
elen@@ 7769
ker@@ 7769
gul@@ 7767
kararı 7766
Sak@@ 7765
Bu@@ 7764
ges@@ 7758
Rum@@ 7754
sı 7754
pazar@@ 7753
1965 7750
Ro@@ 7749
Yüz@@ 7748
klasik 7748
fer 7746
okul 7745
alanda 7743
attığı 7743
Çok 7742
lılar 7739
elektr@@ 7735
w@@ 7735
doğan 7731
illi 7730
bilg@@ 7727
sahipliği 7718
vek@@ 7716
1966 7713
Sab@@ 7711
örneğin 7711
dılar 7709
organ@@ 7709
İrlanda 7707
İç 7707
1940 7701
teknoloj@@ 7699
atif 7689
ört@@ 7682
siyah 7676
ulan 7674
çalışmaya 7670
lev@@ 7663
tutul@@ 7662
durdur@@ 7659
Aday 7656
Ac@@ 7655
araz@@ 7649
öy 7649
no 7647
yere 7642
sağlay@@ 7640
sı@@ 7638
açıl@@ 7632
üstü 7632
sey@@ 7629
let 7627
mimar@@ 7625
ket@@ 7618
Yine 7614
önceleri 7614
Str@@ 7610
hücrel@@ 7609
öğretim 7608
Say@@ 7606
1964 7605
Sosyal 7603
Osman@@ 7602
kis@@ 7599
dö@@ 7593
lenme 7593
trik 7582
veri 7579
Sch@@ 7577
ma@@ 7577
yılda 7577
oluşmaktadır 7573
alarından 7569
red@@ 7568
aat 7566
hükümdar@@ 7565
Res@@ 7563
ettiler 7562
yılın 7556
4. 7553
Türkç@@ 7551
ailesi 7551
ber 7551
lek 7551
enf@@ 7545
ölümünden 7543
20. 7541
giriş 7533
özel@@ 7533
seçil@@ 7529
karşılık 7527
anlam 7526
kitab@@ 7524
bilgisayar 7523
yapmaya 7523
toprak 7520
ruh@@ 7519
ner 7516
enerj@@ 7515
ker 7515
elinde 7512
Harek@@ 7511
Konseyi 7511
ıklı 7510
Muh@@ 7509
Co@@ 7508
Ül@@ 7507
listesinde 7506
üme 7505
etmesi 7503
abilen 7498
işlet@@ 7497
yor@@ 7495
iyet 7494
boğ@@ 7488
dalg@@ 7488
Far@@ 7487
pro@@ 7484
fiziksel 7483
Kir@@ 7481
harek@@ 7478
İspanyol 7477
General 7465
Trabzon 7465
League 7461
gelebilir 7461
bö@@ 7458
kop@@ 7458
ımına 7456
elek@@ 7454
sağlık 7454
organiz@@ 7452
kaybetti 7450
Oyuncu 7449
kullanımı 7448
kiler 7436
ga 7435
zaf@@ 7434
kalmıştır 7433
sivil 7433
fre@@ 7428
duyur@@ 7420
insanlar 7420
fa 7416
ras@@ 7415
ıç 7413
yüzey@@ 7410
ımcı 7408
Arapça 7406
türüdür 7403
rad@@ 7399
ura 7393
0@@ 7391
Ba@@ 7391
In@@ 7391
Hasan 7387
ton@@ 7386
siyon@@ 7374
gerekli 7368
Ek@@ 7363
1. 7362
aştır@@ 7357
kanal@@ 7356
lüğ@@ 7356
bazıları 7355
lardaki 7355
filminde 7354
Meksika 7352
sur@@ 7352
tre 7352
Belçika 7351
güvenlik 7351
psik@@ 7351
yaparak 7349
anlığı 7348
TBMM 7344
aral@@ 7344
cam@@ 7344
onlar 7339
yazı 7339
atan@@ 7338
şart@@ 7337
1944 7336
ığa 7336
ecek@@ 7335
ilerden 7333
dığını 7328
sıcak@@ 7326
1963 7323
yayımlandı 7321
filmde 7320
Bulgaristan 7317
ımın 7317
inti@@ 7316
teleskopla 7316
çeşit@@ 7314
gan@@ 7312
Birçok 7311
oluşturur 7311
ilebilir 7307
landığı 7302
Dönem 7299
Peter 7296
vel@@ 7296
aman@@ 7295
sonradan 7295
ısal 7295
sözleşme 7294
Hor@@ 7291
sebep 7288
şirket 7283
merkezli 7282
kontrol@@ 7280
tüke@@ 7280
ajı 7273
sorun@@ 7273
Kam@@ 7272
ıklarını 7269
henüz 7267
ers 7263
olduğundan 7263
mod@@ 7259
Karadeniz 7258
oluştuğu 7256
hüc@@ 7255
str@@ 7251
vil@@ 7249
işlev@@ 7248
ceph@@ 7244
uru 7244
birey@@ 7243
Katalog 7242
önc@@ 7238
Kızıl@@ 7237
uzay 7229
eline 7223
maz@@ 7218
aynalı 7214
belirtil@@ 7213
görülen 7212
dolayısıyla 7211
ret 7207
zam@@ 7207
Microsoft 7206
Fransızca 7205
adlandırılan 7204
Ef@@ 7203
und@@ 7203
yandan 7202
Gökyüzünde 7200
tro@@ 7200
inş@@ 7197
geçer 7196
yüzünden 7195
boyut@@ 7186
Albüm 7182
tiler 7181
kaynağı 7179
zem@@ 7178
klu 7171
İbrahim 7171
güneyinde 7165
Min@@ 7164
yapılır 7163
imin 7161
larındaki 7160
Arjantin 7159
teh@@ 7157
ağ 7151
edebiyat@@ 7150
yalı 7150
ürün@@ 7148
sonlarında 7146
ödül 7146
belirtti 7145
sağladı 7145
üş 7143
tuğ@@ 7142
Dış 7141
akta 7141
zengin 7137
andığı 7136
getirildi 7134
tri@@ 7134
kov@@ 7132
je@@ 7129
sayılı 7128
anya 7126
Adana 7125
parçac@@ 7123
He@@ 7120
başl@@ 7116
ıyor@@ 7115
ys@@ 7112
hastan@@ 7111
Efendi 7107
Grand 7100
1941 7099
ayet 7098
Kab@@ 7096
ate 7094
rock 7094
kül@@ 7093
Is@@ 7090
fik 7090
karşın 7089
mümkün 7089
kar 7088
oloj@@ 7086
orman@@ 7084
ebe 7080
versiyon@@ 7080
Jean 7078
maçına 7068
sağlamak 7067
ılar@@ 7066
süre@@ 7062
Federasyonu 7058
Sü@@ 7057
ikleri 7056
vol@@ 7051
Hukuk 7049
ciddi 7042
Ardından 7037
Ör@@ 7033
Angeles 7029
aslında 7029
1962 7028
eğiti@@ 7028
Con@@ 7027
lisans 7027
13@@ 7026
For@@ 7025
önünde 7025
Babası 7024
amay@@ 7022
Yıl@@ 7020
lim@@ 7014
şöyle 7014
acılık 7009
Pe@@ 7007
metin 7004
pak@@ 7002
Kralı 7000
iği 7000
ilerine 6998
Bölümü 6994
1959 6993
1956 6989
ku 6989
fiy@@ 6988
inli 6988
programı 6986
Göz@@ 6985
gec@@ 6984
evlendi 6976
haber@@ 6975
World 6964
Kul@@ 6962
bugün 6961
sap@@ 6959
uygul@@ 6958
ilişkin 6956
kaynak 6950
Q@@ 6948
üp 6948
yavaş 6947
rec@@ 6943
hükûmet 6939
tari@@ 6936
kus@@ 6932
orada 6932
leyici 6931
soğ@@ 6930
Hitler 6929
kültür 6928
ikisi 6927
NBA 6925
lediği 6924
pa 6921
Cem@@ 6919
ece 6917
olacak 6917
olar@@ 6915
Müdürlüğü 6907
olan@@ 6902
Hol@@ 6901
mev@@ 6899
Eğer 6898
eseri 6893
Alman@@ 6888
Dışişleri 6886
alg@@ 6885
üretimi 6885
ğinden 6883
oynam@@ 6881
ortadan 6878
aksine 6875
yasal 6874
Süleyman 6872
yapar 6871
Söz@@ 6870
yayınlan@@ 6870
babasının 6868
toplan@@ 6864
kralı 6863
lıklar 6863
kış@@ 6862
1@@ 6859
irdi 6858
çevres@@ 6858
Yer@@ 6857
por@@ 6857
mesinde 6854
geniş@@ 6852
benzer@@ 6851
asıdır 6850
kh@@ 6849
anlamlara 6846
kg 6846
gösterdi 6842
atan 6840
çiç@@ 6835
Ti@@ 6833
renk@@ 6825
azi 6824
dakika 6824
larca 6823
toplum@@ 6820
tüm@@ 6818
kü 6817
Ermenistan 6816
.. 6814
ris@@ 6814
von 6814
lideri 6810
Hüseyin 6801
eşit@@ 6800
Antalya 6797
mül@@ 6797
örnek@@ 6795
art 6794
demir 6794
Dan@@ 6790
lo 6790
vad@@ 6788
Cen@@ 6785
ill@@ 6785
Sür@@ 6784
Ok@@ 6782
laşma 6782
mah@@ 6781
arac@@ 6779
ora 6779
Hristiyan@@ 6778
Ke@@ 6778
ayarak 6778
Den@@ 6777
kapsamında 6776
mit@@ 6774
1946 6773
num@@ 6771
ıld@@ 6766
Li@@ 6762
kişisel 6760
tad@@ 6760
hakkı 6755
işle@@ 6755
14@@ 6752
yordu 6752
1958 6745
Ur@@ 6744
atör@@ 6744
inci 6744
IV 6739
barındır@@ 6736
üzer@@ 6736
lüğü 6735
yasak@@ 6735
Gölü 6734
Çağ@@ 6729
for 6727
çizgi 6727
final@@ 6725
yönetmen@@ 6724
Sivas 6721
odak@@ 6720
şehr@@ 6720
duğunu 6719
eğini 6717
gizli 6717
Yard@@ 6716
aci@@ 6716
karakter 6715
ağın 6713
Ben@@ 6712
giderek 6710
Park 6709
Siy@@ 6702
etkileş@@ 6702
gerçekleştirilen 6698
Norveç 6697
yaşındayken 6697
masıdır 6695
ayla 6693
ira 6693
Üç 6691
Gürcü 6690
Belediyesi 6685
girişim@@ 6685
konular@@ 6685
yönet@@ 6685
Cel@@ 6682
mik@@ 6678
hızla 6677
konser@@ 6674
Üniversit@@ 6673
ırdı 6673
etkilen@@ 6672
biraz 6670
Antik 6669
hane 6668
sik@@ 6664
mühendis@@ 6662
tarım 6662
değişik 6658
üğü 6655
köyü 6654
ıcısı 6654
Sem@@ 6653
aza 6651
giden 6644
lisi 6643
gaz@@ 6642
politik 6641
Kim@@ 6639
tam@@ 6638
bunların 6636
üretic@@ 6634
fes@@ 6629
getirdi 6628
değişik@@ 6626
St 6625
Erzurum 6622
radyo 6622
sürüm@@ 6622
tiy@@ 6620
amaz 6616
eyalet@@ 6615
giydi 6612
yakal@@ 6611
1918 6610
başarı 6608
sp@@ 6608
sene 6604
ölüm 6602
Mir@@ 6601
by 6599
elt@@ 6599
kullanan 6596
net 6593
Hint 6589
silah 6581
model 6578
makal@@ 6571
Kem@@ 6567
sanatç@@ 6565
geçmiştir 6562
arg@@ 6557
1957 6555
toplamda 6552
Basketbol 6551
pen@@ 6550
yönetim@@ 6544
Yun@@ 6543
dos@@ 6543
On 6542
Camii 6541
ikli 6538
Filmin 6537
Cumhurbaşkanı 6536
Sur@@ 6534
memiş 6534
gol@@ 6533
doğumlu 6532
4.@@ 6525
müzik@@ 6525
abilecek 6524
kre@@ 6520
rir 6520
faaliyet 6518
Denizi 6517
hat 6515
şer@@ 6515
ind@@ 6514
nedeni 6514
leyerek 6513
liğinin 6513
savunma 6512
Konya 6511
layarak 6508
web 6507
cel@@ 6506
enti@@ 6504
olay 6502
ilerinden 6501
ımda 6501
nokt@@ 6499
sözleş@@ 6498
hidro@@ 6495
almaya 6492
ulaştı 6491
Sosyalist 6490
vaz@@ 6489
Kuş@@ 6488
nik 6486
Yunanca 6484
desi 6480
Başkan 6479
Don@@ 6479
ong 6475
eser 6472
alardan 6471
Sil@@ 6470
kel 6470
Han@@ 6466
Ermen@@ 6465
Venedik 6463
1954 6462
Sp@@ 6459
1955 6457
gök@@ 6457
ısıdır 6457
ilidir 6456
lıkları 6455
ayet@@ 6454
ılarına 6453
ide@@ 6452
ılabilir 6447
Alt@@ 6445
Lis@@ 6445
kişidir 6445
düşür@@ 6444
katılan 6441
askerî 6436
1943 6433
Pl@@ 6433
sınır 6431
Stadyumu 6428
uzak 6428
5. 6425
mini 6424
etnik 6420
rekor@@ 6420
aller 6419
des 6418
üyor 6416
edebil@@ 6415
ica 6415
ğinin 6415
haz@@ 6412
roman 6412
kayn@@ 6410
Uz@@ 6405
muhtemelen 6402
rolü 6402
eş 6401
1948 6400
Ker@@ 6398
Şir@@ 6397
aceae 6395
fu@@ 6395
kulü@@ 6391
ilmektedir 6390
mesaf@@ 6389
kullanıldı 6386
alma 6385
böl@@ 6376
şampiyon 6373
finale 6372
Men@@ 6370
ren 6368
Bek@@ 6367
halkı 6367
ilişkil@@ 6367
jen 6367
madde 6364
Danimarka 6361
Tep@@ 6360
Henry 6358
Ölümü 6358
Karş@@ 6357
Adası 6356
Adaylık 6356
Uzun 6355
anlı 6355
Osman 6354
dey@@ 6353
graf@@ 6352
kural@@ 6350
çıkış 6349
yüz 6346
söylem@@ 6345
sinin 6339
önde 6339
başardı 6338
lilik 6337
yük 6337
oynayan 6335
özelliği 6334
oynan@@ 6331
Thomas 6328
acaktı 6327
gereken 6324
Mü@@ 6321
1939 6320
Milletler 6320
urdu 6320
Kızıl 6319
Lo@@ 6316
başvur@@ 6316
Düz@@ 6314
Kategori 6314
güc@@ 6313
lenmektedir 6313
nö@@ 6310
sub@@ 6307
yeten@@ 6307
malar@@ 6304
é 6304
belirt@@ 6303
Şark@@ 6301
şekil@@ 6301
ödülü 6299
Genç@@ 6297
Nazi 6296
kuvvetleri 6294
incel@@ 6290
şampiyonu 6288
Samsun 6287
seçimlerinde 6286
birim@@ 6285
genelde 6284
Mehmed 6283
tedavi 6283
his@@ 6281
Sırbistan 6279
benim@@ 6276
keş@@ 6274
ski 6274
sürec@@ 6274
gerektiğini 6273
Genç 6267
Tiyatrosu 6266
koruy@@ 6266
ismini 6265
hayat@@ 6261
İç@@ 6261
birbirine 6259
girmiştir 6257
sert 6257
seçilmiştir 6256
Oyun@@ 6255
çap@@ 6252
Tarih@@ 6251
gu@@ 6250
Hel@@ 6249
hir 6246
birisi 6244
kın@@ 6243
ayn@@ 6242
dek@@ 6236
alılar 6235
işe 6234
Komünist 6233
grub@@ 6233
Ben 6232
Tü@@ 6231
Mi@@ 6230
Yarış@@ 6227
bun@@ 6227
düz 6227
Ir@@ 6225
makam@@ 6221
çalıştır@@ 6221
lığın 6219
ırı 6219
hikây@@ 6214
Final 6213
af 6213
pop 6212
300 6208
aliz@@ 6206
st 6204
zor 6204
oyunc@@ 6200
ben@@ 6199
bol@@ 6196
verilir 6196
yönel@@ 6196
civarında 6194
Kav@@ 6193
ang 6192
güzel 6192
milyar 6192
tük@@ 6189
oz 6184
yaygın@@ 6184
ister 6182
grupl@@ 6179
lin 6179
göv@@ 6176
ışlardır 6173
kod@@ 6172
Pan@@ 6171
ağaç@@ 6169
Pal@@ 6166
çö@@ 6165
itibarı 6163
davran@@ 6159
gaz 6159
muhar@@ 6159
bozul@@ 6158
Richard 6157
yazılan 6155
Gör@@ 6152
bölgeye 6151
ınd@@ 6151
Sim@@ 6150
düzenli 6150
ardır 6146
saha 6146
sürdü 6139
Oyunları 6136
egemen@@ 6136
ket 6136
yaşadı 6134
hafif 6133
incelem@@ 6131
arlı 6128
olog 6127
profes@@ 6127
Şeh@@ 6126
sad@@ 6124
kullanılarak 6118
bölgeler@@ 6117
Kısa 6111
diy@@ 6104
endüstr@@ 6104
Sol@@ 6102
köş@@ 6102
liye 6101
ğr@@ 6097
hangi 6096
çıkış@@ 6096
dizisinde 6095
giz@@ 6094
arda 6092
basit 6092
Gel@@ 6089
ass@@ 6088
uydu 6087
fakt@@ 6086
ildiği 6086
kişiler 6083
test@@ 6081
Antlaşması 6080
eci 6079
off 6078
hek@@ 6077
Washington 6076
çev@@ 6076
çok@@ 6076
birden 6075
Gar@@ 6073
aman 6071
erkek@@ 6071
uzman@@ 6071
Kit@@ 6070
Yönetim 6069
ışt@@ 6066
gümüş 6065
Havalimanı 6061
noktası 6055
tif 6051
Topl@@ 6050
istasyon@@ 6049
sin 6049
vermektedir 6047
taşındı 6046
Göl@@ 6045
yüzyıl@@ 6042
gerçekleşen 6040
gr@@ 6040
kın 6040
etki 6039
Qu@@ 6037
büyük@@ 6037
So@@ 6035
saldırı 6035
1942 6033
Genellikle 6030
mamış 6029
çekildi 6027
asıllı 6023
car@@ 6022
hab@@ 6022
günümüze 6021
rej@@ 6021
Romanya 6019
cumhur@@ 6019
davranış@@ 6014
berg 6010
krall@@ 6010
belediy@@ 6008
sahipti 6008
kulüp 6004
Baz@@ 6002
arttır@@ 6002
beşinci 5998
düğünü 5995
yönetmen 5995
dalında 5994
gören 5993
Kırım 5992
başkan 5990
Del@@ 5989
5.@@ 5988
boz@@ 5988
tanınan 5986
undadır 5985
çıkt@@ 5984
33 5983
mir@@ 5982
sonuna 5981
fr@@ 5980
United 5979
haber 5977
niş@@ 5976
1953 5973
Hu@@ 5971
isti 5971
sinem@@ 5971
Rusça 5968
medi@@ 5967
eceğ@@ 5966
öm@@ 5966
hukuk 5965
erinin 5963
1919 5962
edilebilir 5962
Pat@@ 5961
bitirdi 5960
düny@@ 5960
You 5956
ağaç 5956
nok@@ 5956
Sor@@ 5955
kullanılabilir 5952
yerli 5949
etleri 5948
kabil@@ 5948
isi@@ 5946
sektör@@ 5946
Nas@@ 5941
hac@@ 5938
lerdi 5937
top 5936
Yahud@@ 5934
çıkart@@ 5934
araç 5933
elerle 5928
fabrik@@ 5928
geçiş 5928
toplam@@ 5922
onya 5920
mat@@ 5918
taşı@@ 5918
Mur@@ 5917
Olimpiyat 5910
Vol@@ 5909
lıkla 5908
lığında 5907
mer 5907
istifa 5904
zarar 5903
geçici 5902
Dr@@ 5897
Saint 5897
Katolik 5896
albümün 5895
Finlandiya 5891
del 5891
Fr@@ 5890
ima 5890
karşılaştır@@ 5887
Ahmed 5886
etkis@@ 5886
tedav@@ 5885
Kel@@ 5883
hükûmeti 5883
emekli 5882
çıkardı 5881
görülmektedir 5879
kes 5878
yayınlanmıştır 5877
1952 5875
cil@@ 5873
haft@@ 5871
çalışır 5871
temsilc@@ 5869
Yüzölçümü 5868
memiştir 5865
gösterildi 5864
vide@@ 5864
Kutsal 5862
numaralı 5862
Erkekler 5860
MS 5858
Dağı 5857
hatt@@ 5857
64 5856
şehridir 5853
Böl@@ 5848
areti 5848
benzeri 5847
ud@@ 5847
Milli 5845
başlamış 5845
andan 5843
internet 5842
Geliş@@ 5840
ius 5840
Komitesi 5839
mezar@@ 5839
sav@@ 5838
muhaf@@ 5836
öy@@ 5836
olumlu 5833
tif@@ 5832
varsay@@ 5829
Bin@@ 5827
ya@@ 5825
Sev@@ 5824
tahta 5824
ıtı 5823
Viyana 5821
önceden 5821
Yas@@ 5820
abilmektedir 5820
öğrenci 5818
imzaladı 5815
faz@@ 5811
üreti@@ 5808
for@@ 5803
yaz 5802
babasıdır 5799
DNA 5797
Şu 5797
bayr@@ 5796
dü@@ 5796
Almanca 5791
temel@@ 5791
kısm@@ 5790
yayıl@@ 5790
içeri@@ 5789
dıktan 5787
kür@@ 5787
Os@@ 5786
erler 5786
alb@@ 5784
arken 5784
cinsidir 5784
rip 5784
sorumlu 5779
katıldığı 5777
Meclis 5776
zamanlar 5772
evlen@@ 5769
ailesinin 5766
leşme 5765
Af@@ 5764
ilip 5764
resim 5763
ja 5760
rapor@@ 5754
tören@@ 5754
çizg@@ 5751
onlara 5749
ân 5749
dere 5748
oldukları 5748
Diyarbakır 5746
Ta@@ 5746
başlay@@ 5744
geldiği 5744
efsan@@ 5743
tiş@@ 5743
yö@@ 5743
konus@@ 5741
gan 5740
benz@@ 5739
yaşamı 5736
minde 5734
Billboard 5733
Çev@@ 5731
İsa 5731
ell 5729
ektedir 5728
lerindeki 5724
stad@@ 5724
Boy@@ 5723
imz@@ 5722
İngiliz@@ 5722
Diz@@ 5720
çocuğ@@ 5719
kuyru@@ 5717
tilen 5717
Eş@@ 5716
Gre@@ 5716
sabit 5716
sınıf 5714
Arnavutluk 5713
zamanlarda 5713
sefer 5710
çeş@@ 5708
platform@@ 5707
not@@ 5705
bölgenin 5704
tis@@ 5704
ederken 5702
Tah@@ 5700
olmadan 5700
hakları 5699
yav@@ 5699
diğ@@ 5695
koruma 5695
isinden 5694
ıldığında 5694
Akademi 5692
Kür@@ 5692
Dol@@ 5691
görevlendir@@ 5690
1949 5684
Ali@@ 5682
Eyaleti 5682
yarar@@ 5681
Louis 5680
oda 5678
gerekir 5677
1947 5676
altındaki 5676
aralarında 5673
ea 5672
kıt@@ 5671
Bö@@ 5668
edildiği 5668
leh@@ 5663
sunul@@ 5663
güneş 5662
ida 5662
serv@@ 5662
salg@@ 5661
mağlup 5660
sıcak 5659
komündür 5656
Ho@@ 5655
renk 5653
aktır 5652
bunlar 5647
asındaki 5645
yiy@@ 5642
ayrımı 5641
400 5640
kenar@@ 5639
ısından 5637
Şampiyonlar 5635
Bağ@@ 5634
kul 5633
1938 5632
asıl 5630
Erkek 5627
parça 5627
barış 5626
unsur@@ 5626
hakk@@ 5625
sembol@@ 5623
Adaları 5621
başladığı 5621
kimyasal 5621
aray@@ 5620
yönetmenliğini 5619
çalışması 5618
Bayr@@ 5616
öğretmen@@ 5616
mahkem@@ 5615
şar@@ 5614
Na@@ 5613
eşit 5611
Cr@@ 5609
ettiğini 5607
incisi 5607
na@@ 5605
İnsan 5604
ole 5602
Hat@@ 5601
liğ@@ 5600
oni 5600
serisi 5600
nek 5597
başrol@@ 5596
duyurdu 5595
Çağ 5594
amaçlı 5593
yenin 5592
yönettiği 5592
vas@@ 5589
6. 5588
Love 5587
makla 5585
isindeki 5584
uğraş@@ 5584
plan 5583
toplumsal 5583
performans 5582
ülü 5582
gruplar@@ 5581
kalp 5580
böyle 5579
pek@@ 5579
aspor 5578
maktan 5578
Üçüncü 5574
amam@@ 5573
Atina 5572
direktör@@ 5570
Gür@@ 5568
lanarak 5568
aret@@ 5566
ilerle 5566
Fır@@ 5563
Latin 5562
yeşil 5559
endir@@ 5558
plak 5558
kamu 5557
Un@@ 5554
yazılmış 5553
Saf@@ 5552
familyasıdır 5551
hükûmet@@ 5548
yetenek@@ 5548
kurulu 5542
Modern 5541
Martin 5540
Oyun 5540
Tem@@ 5538
kadınlar 5538
48 5537
kri@@ 5536
Nik@@ 5535
numar@@ 5531
Mev@@ 5530
Records 5528
zamanında 5527
sezonunun 5523
isiyle 5521
Aydın 5520
adam 5520
antren@@ 5520
ven 5519
imli 5518
ılarında 5518
akla 5517
bay 5515
det@@ 5515
kazandır@@ 5512
34 5508
Kudüs 5508
bed@@ 5508
Din@@ 5507
durumunda 5507
kilise 5507
sunuc@@ 5505
istedi 5504
Nor@@ 5502
und 5502
anma 5498
ilerinde 5498
lin@@ 5498
bol 5497
ınt@@ 5497
halka 5496
ella 5495
iletişim 5493
sarı 5493
katı 5492
uşu 5492
tapın@@ 5490
orta@@ 5489
Fatih 5488
Su 5486
cular 5486
çak 5486
bay@@ 5483
gin@@ 5483
olmay@@ 5482
yönetic@@ 5480
nit@@ 5479
Gazet@@ 5478
ağı@@ 5478
bakımından 5478
ateş 5475
ayar@@ 5473
Erken 5472
Tun@@ 5472
doktor@@ 5471
1925 5469
Sağlık 5469
amb@@ 5469
katkıda 5469
Tat@@ 5468
eserleri 5465
taarru@@ 5464
kendisinin 5463
ej@@ 5462
len 5462
başlandı 5461
kilometre 5461
Col@@ 5458
OS 5457
ilk@@ 5457
co@@ 5453
anus 5452
yarg@@ 5452
dik 5449
olojisi 5449
türleri 5449
ab 5448
ekran@@ 5446
kuş 5446
çevrel@@ 5446
ölümü 5445
dünyada 5444
yel@@ 5444
gider@@ 5439
lul@@ 5439
maddel@@ 5439
kiye 5437
ani@@ 5434
yörüng@@ 5433
Ul@@ 5431
başlıca 5431
Birleşmiş 5429
taht@@ 5428
ıza 5426
Yayın@@ 5424
Pap@@ 5421
sonuçları 5421
Güvenlik 5418
36 5415
00 5413
sanatçı@@ 5413
mediği 5412
bağlıdır 5411
prot@@ 5410
1936 5408
Cih@@ 5408
işaret 5407
yang@@ 5406
Kut@@ 5401
uçak 5401
orum 5400
başarısız 5396
mensu@@ 5396
anlamda 5394
standart 5394
kalit@@ 5391
Savunma 5390
alist 5389
lerdeki 5389
Ve 5388
sand@@ 5388
aması 5387
önder@@ 5385
Farsça 5384
abı 5383
evinde 5383
topluluk@@ 5383
Mut@@ 5382
ödem@@ 5382
ster@@ 5381
sarmal 5379
amik 5378
yakınlarında 5378
indi@@ 5375
maruz 5375
urken 5374
leridir 5372
leyic@@ 5371
numaraya 5370
sezonda 5370
Başkan@@ 5369
İl 5369
Dem@@ 5368
araştırmac@@ 5368
engel@@ 5367
75 5366
kullandığı 5366
ograf@@ 5366
yaşan@@ 5364
izi 5361
imzal@@ 5360
Albüm@@ 5359
1951 5358
allar 5356
$ 5353
Lee 5350
sıralam@@ 5350
Piy@@ 5349
Yol@@ 5348
ekte 5347
Sırp 5346
ekiplerinden 5346
1933 5343
kayıt 5343
ena 5342
ede@@ 5341
ülkeler 5340
1921 5338
filmidir 5338
beledi@@ 5336
dijital 5336
olar 5336
dalga 5334
Kullan@@ 5331
ortak@@ 5331
çekti 5331
modeli 5330
bastır@@ 5329
Hey@@ 5327
kulübü 5327
suyu 5327
ardı 5323
gun@@ 5323
otom@@ 5323
dile 5319
1922 5317
Makedonya 5317
birlikleri 5317
sur 5317
Müslüman@@ 5316
klü 5316
Tek 5314
kat 5314
komedi 5313
elektronik 5311
ai@@ 5310
adayı 5309
renkli 5309
Adalet 5307
bugünkü 5305
üniversite 5305
les@@ 5304
motor 5304
döv@@ 5303
düzey@@ 5302
gid@@ 5302
milyon@@ 5301
mekle 5299
Bölge 5298
1935 5295
edin@@ 5295
yerek 5294
yola 5291
ebe@@ 5290
ilişkileri 5289
Kurul@@ 5288
sürdürdü 5287
7.@@ 5286
kapsam@@ 5284
ışma 5283
çat@@ 5281
şair 5279
sti@@ 5278
Rad@@ 5276
Vakfı 5275
süt@@ 5273
zy@@ 5272
katılmıştır 5269
san 5268
paşa 5267
öv@@ 5267
kten 5265
maça 5263
Joseph 5260
telef@@ 5260
bahse@@ 5259
Hi@@ 5258
hatır@@ 5257
yöneti@@ 5256
sezonun 5255
Al 5254
Bundan 5254
gal@@ 5251
Tiyatro 5250
unc@@ 5244
dedi 5243
kullanır 5242
38 5241
sanatçısı 5241
emek 5240
Düş@@ 5237
SS 5236
dolar 5235
ven@@ 5232
Adam 5231
dönüştür@@ 5231
geçmiş 5231
kurucusu 5231
Fiz@@ 5229
Google 5229
Yerli 5229
lanabilir 5227
Ag@@ 5226
halde 5225
kup@@ 5225
uva 5221
saf@@ 5219
likler 5216
likte 5215
iksel 5214
ığının 5214
cü 5211
uyordu 5210
blo@@ 5209
yans@@ 5205
yanlış 5204
Apple 5202
tik@@ 5202
üyordu 5202
bask@@ 5198
işleri 5198
65 5196
milliyet@@ 5196
pınar 5193
rel@@ 5191
yoğun@@ 5191
Fe@@ 5188
Dağları 5187
oynamıştır 5185
Ken@@ 5183
çak@@ 5183
1923 5182
ediyor 5182
petrol 5182
yaşanan 5182
esindeki 5179
istih@@ 5179
gu 5178
Div@@ 5176
set@@ 5176
bulundur@@ 5175
Demokratik 5173
Son@@ 5173
mit 5173
lası 5172
tehlik@@ 5170
ori@@ 5169
yönetilen 5169
37 5168
Oğ@@ 5168
İsti@@ 5168
ödülünü 5165
Da@@ 5164
uygulama 5164
belgel@@ 5163
Araştırma 5162
uzun@@ 5162
ders@@ 5161
lıca 5159
ülen 5159
Zey@@ 5157
değeri 5157
Hiz@@ 5156
Lev@@ 5155
derin@@ 5155
geçerek 5153
iliyor 5153
lığının 5153
insel 5152
bıraktı 5150
nesn@@ 5148
yanına 5148
Ram@@ 5146
farklıl@@ 5146
hayatta 5144
liler 5144
anlaşma 5142
köyün 5141
Go@@ 5139
buldu 5139
Top@@ 5138
karmaşık 5138
person@@ 5138
sürede 5138
Kazakistan 5133
ılardan 5132
bisik@@ 5131
oca 5129
cil 5127
besi 5125
teşvik 5124
test 5123
takımları 5122
Madrid 5121
mış@@ 5121
ver 5119
tim 5118
çuk 5116
Kraliyet 5115
Parkı 5115
ilişkiler 5115
ilerlem@@ 5114
idam 5113
mor@@ 5113
Müd@@ 5112
ediği 5112
şiir 5111
ekli 5110
ıf 5110
Vil@@ 5109
yal 5109
gerekti@@ 5108
başlad@@ 5107
erk@@ 5107
grup@@ 5107
İr@@ 5107
16. 5106
çubu@@ 5105
alınmıştır 5104
iti 5102
Yarı 5101
Tom@@ 5099
liliği 5097
vermek 5096
Evli 5094
kt@@ 5091
oyu 5091
Şah 5090
Sad@@ 5088
Çanakkale 5088
anlık 5087
basketbol 5086
erdi 5086
Katılım 5084
göre@@ 5084
Ey@@ 5082
Çocuk@@ 5082
55 5081
statüsü 5081
Fu@@ 5080
grubunun 5080
isteyen 5077
kısıt@@ 5076
demiryolu 5075
hey@@ 5075
eğer 5073
okum@@ 5072
bahar@@ 5071
uların 5070
ders 5069
aittir 5068
dular 5066
tez@@ 5066
Kend@@ 5064
w 5064
hi 5062
halkın 5061
koleksiyon@@ 5061
ülük 5061
1924 5060
poli@@ 5060
malarına 5059
lük@@ 5058
açıdan 5057
menler 5053
amak 5050
ürün 5050
eğitimini 5048
Yılın 5046
Bosna 5043
mot@@ 5043
savaşı 5043
malarını 5042
sey 5042
Lim@@ 5041
güreş@@ 5040
asal 5039
miktarda 5039
merc@@ 5038
gesi 5037
ören 5036
ela 5035
aban 5034
kenti 5034
ami 5033
edebiyat 5030
görevine 5030
hareketi 5026
yerleşimi 5026
Ru@@ 5025
Çünkü 5025
İnsan@@ 5024
adlandırılır 5022
tarihsel 5021
Sav@@ 5019
au 5019
başkanlığı 5016
Büyükşehir 5015
ilgilen@@ 5013
bet@@ 5011
değildi 5011
yeterli 5011
üyesidir 5011
1937 5007
ou@@ 5007
Ros@@ 5004
çevresinde 5004
Moğol@@ 5003
etrafında 5003
gömül@@ 5003
Doktor 5001
cudur 5001
emez 5001
incil 5000
yansıt@@ 5000
talep 4999
küresel 4998
parçal@@ 4997
ısındaki 4997
Kayseri 4996
6.@@ 4995
bağış@@ 4995
ailenin 4994
derin 4993
festiv@@ 4992
kulübü@@ 4990
raf@@ 4990
7. 4988
Kalesi 4986
tabak@@ 4986
cem@@ 4985
Mahkemesi 4984
şunlardır 4983
tehdit 4982
Bunların 4979
yüzde 4974
kulüplerinde 4973
Boz@@ 4972
dadır 4972
kaçır@@ 4971
açılan 4970
geçirdiği 4969
yönetmeni 4969
zir@@ 4969
esas 4968
Aziz 4964
Me 4963
amp@@ 4963
hayatına 4961
Ban@@ 4960
pap@@ 4959
Kulübü 4958
oları 4957
oll@@ 4957
yemek 4957
ılarından 4955
anak@@ 4954
eten 4952
eşlik 4950
dolaş@@ 4949
aylık 4947
Tel@@ 4944
artan 4944
gemi 4944
istler 4944
İsmail 4944
kategor@@ 4943
lamaya 4943
edip 4942
unca 4942
ordusunun 4941
ahr@@ 4940
davet 4940
gelişmiş 4940
1914 4939
Karak@@ 4939
sınırlı 4936
açıldı 4934
siyaset@@ 4934
general 4932
iliyordu 4932
Kürt 4930
birer 4930
aşağ@@ 4929
yür@@ 4928
š@@ 4928
avuk@@ 4922
dokuz 4921
ekler 4921
ilişki 4921
Kum@@ 4920
dayanan 4920
versiyonu 4920
yardımcısı 4919
1934 4917
olmakla 4917
biriydi 4916
kans@@ 4916
mikro@@ 4916
bünyesinde 4915
ford 4915
karakteri 4915
Cumhuriy@@ 4913
alanları 4913
traf@@ 4913
Kü@@ 4912
engell@@ 4912
1912 4908
Tıp 4908
silahlı 4906
Mersin 4905
Barış 4901
kuruc@@ 4900
önem 4896
dah@@ 4894
müd@@ 4894
42 4891
arm@@ 4890
doldur@@ 4890
ahl@@ 4889
dem 4889
alfab@@ 4887
ötürü 4887
Pi@@ 4886
ami@@ 4886
lise 4884
unvanını 4884
şarkının 4882
kadro@@ 4881
Tam@@ 4880
toplul@@ 4880
köprü 4879
mavi 4879
he 4878
ore 4878
18. 4877
eğitim@@ 4872
tat@@ 4871
afa 4869
bozuk@@ 4867
Takımı 4866
dost@@ 4865
mann 4865
ekibi 4863
ahi 4862
tiyle 4862
Sonraki 4857
á@@ 4857
karıştır@@ 4855
ligi 4855
Litvanya 4854
Jackson 4853
dans 4853
ith@@ 4853
yargıl@@ 4853
Kürt@@ 4849
Dün@@ 4848
edit@@ 4848
eleme 4848
line 4848
ciler 4847
vok@@ 4845
ii 4844
olmaya 4844
Lig@@ 4843
kaydet@@ 4840
şüph@@ 4840
Eser@@ 4839
isten@@ 4839
İmparator 4839
altyap@@ 4838
kapalı 4838
emek@@ 4837
Kari@@ 4836
istatisti@@ 4835
larıdır 4835
yab@@ 4835
Mag@@ 4832
komutanı 4831
Star 4829
fen@@ 4829
imiz 4829
mamıştır 4829
çileri 4829
Arap@@ 4828
hikâ@@ 4828
dukları 4827
fel@@ 4827
lenebilir 4827
per 4827
SC 4826
Bulgar 4825
ihtiyaç 4824
Cal@@ 4823
Ticaret 4823
gruba 4822
karşılığında 4822
lerce 4821
oluşturulan 4818
bey 4817
kullandı 4817
tarafında 4816
ğlu 4816
1917 4815
yanın 4815
tarihlerinde 4814
One 4813
önüne 4812
birinin 4809
uncu 4808
ub@@ 4807
Çalış@@ 4807
lir 4806
müsabak@@ 4806
seçilen 4806
sta 4806
ülkelerde 4806
rit@@ 4804
kesi 4800
kıyısında 4800
cal@@ 4799
esnasında 4798
bilgisayar@@ 4797
prodük@@ 4796
lüğünü 4794
lığ@@ 4794
uya 4794
abl@@ 4793
Açık 4792
Ömer 4792
bilgiler 4789
tiğini 4789
düşünülmektedir 4787
ıdaki 4787
ehri 4786
şeklin@@ 4786
ilde 4784
koc@@ 4784
takımlarından 4783
ac 4782
ürü 4781
giye 4780
Şi@@ 4780
Fel@@ 4779
Hanedanı 4779
baskı 4776
Sonr@@ 4775
medya 4775
tarzı 4774
ılarda 4774
özgü 4773
dükten 4772
Hab@@ 4771
milletvek@@ 4771
adr@@ 4770
çıktığı 4770
ölümüne 4770
Sarayı 4769
ayrılır 4769
Devrimi 4768
field 4768
söyl@@ 4767
üstlendi 4766
Video 4765
atlar 4765
emen 4765
oluşturduğu 4764
dak@@ 4763
Ra@@ 4760
bundan 4760
uzan@@ 4758
ayda 4757
8.@@ 4756
oynamaktadır 4756
öyk@@ 4755
Abdül@@ 4753
operasyon@@ 4750
şi@@ 4748
ımlı 4747
süs@@ 4746
imza 4743
alama 4742
harf@@ 4742
Çek@@ 4742
oğulları 4741
za@@ 4741
led@@ 4740
Yal@@ 4739
ast 4737
sistemleri 4737
Herschel 4735
seyir@@ 4735
Yönet@@ 4733
irleri 4733
kaydedil@@ 4729
süresi 4728
yaşamaktadır 4728
Cas@@ 4727
tipik 4726
yatır@@ 4726
Filistin 4724
dört@@ 4722
plar@@ 4722
rek 4722
semt@@ 4721
Ren@@ 4720
bağlantılar 4720
İd@@ 4720
reak@@ 4719
ikti@@ 4717
Murat 4715
toplum 4715
zan 4714
ı.@@ 4714
liğindeki 4712
ensel 4707
okun@@ 4707
Cer@@ 4706
uzanan 4705
Bilim 4703
inde@@ 4702
sisteminin 4702
enz@@ 4701
kurucu 4700
durumlarda 4698
şehirde 4697
abilirler 4696
Kitap 4695
noktas@@ 4689
oto 4689
hip 4688
konfer@@ 4688
konul@@ 4688
WWE 4685
anti 4685
ikili 4685
gönderildi 4684
tesis@@ 4684
Yugoslavya 4683
kalma 4681
Maria 4680
giyen 4680
geliştirilen 4679
madığı 4679
olduktan 4678
go 4676
nükleer 4676
çoğunluğu 4672
yazılmıştır 4670
Yıldız 4669
Cup 4668
bakanı 4668
malıdır 4668
ızı 4668
şah 4668
1926 4667
aracı 4667
haned@@ 4667
les 4667
problem@@ 4666
ıf@@ 4666
mekaniz@@ 4665
May@@ 4663
sınıfı 4661
takımlar 4660
tarihinin 4660
yaşad@@ 4660
tarihte 4659
temiz@@ 4658
pir@@ 4657
Sultan@@ 4655
Edward 4650
Haf@@ 4650
çalışmalarına 4650
açıklandı 4649
viz@@ 4649
bütün@@ 4648
ick 4648
çilik 4647
forması 4646
maların 4646
görüldü 4645
temsilcisi 4645
çoğun@@ 4644
kolon@@ 4643
atlı 4641
dayalı 4641
refer@@ 4639
hücre 4638
Por@@ 4637
mesidir 4635
Eskişehir 4633
Ord@@ 4633
72 4632
A. 4630
konser 4630
Şah@@ 4629
Ka@@ 4628
oh@@ 4628
dakik@@ 4625
ıkların 4625
iyeti 4624
hayat 4623
sıklıkla 4623
Hali@@ 4622
Sun@@ 4622
irse 4622
ters 4622
sam@@ 4621
CD 4620
Selçuklu 4620
türlü 4620
alması 4619
ağının 4617
edeki 4616
tül@@ 4615
olacaktır 4612
Soy@@ 4611
kral@@ 4610
köpr@@ 4609
birisidir 4606
çer@@ 4606
kısmen 4604
likle 4603
Balıkesir 4601
Kıl@@ 4601
1927 4600
vat@@ 4599
ly@@ 4598
Met@@ 4597
Tri@@ 4597
müh@@ 4597
th 4597
De 4595
öncesinde 4595
Latince 4592
ted@@ 4592
Bakü 4589
rı 4589
ıcılar 4588
ağan 4587
enmiş 4586
sanayi 4586
My 4585
felse@@ 4585
arasına 4584
ess@@ 4583
Il@@ 4581
aly@@ 4580
ens 4580
nüfusun 4580
direktör 4579
sonuç 4579
yönlendir@@ 4579
dest@@ 4575
göreve 4573
— 4573
yazılım 4572
geç 4571
ond@@ 4570
şık 4569
Macar 4568
depre@@ 4568
hakkındaki 4566
luğunu 4566
eyal@@ 4565
algıl@@ 4564
adının 4562
Yerel 4561
kahr@@ 4561
kaydetti 4559
ortasında 4559
Sek@@ 4558
malara 4557
ath@@ 4556
Bankası 4555
dan@@ 4555
Gi@@ 4554
rev@@ 4554
etraf@@ 4553
pik 4552
Kurtuluş 4550
belediyeye 4550
civar@@ 4550
gali@@ 4550
Sat@@ 4549
TRT 4549
Karab@@ 4548
atör 4548
lili@@ 4546
cer@@ 4544
kendilerini 4543
Le 4542
West 4542
Ri@@ 4541
bakış 4541
nitelendir@@ 4541
uzaklıkta 4541
urt@@ 4540
Edirne 4539
emiştir 4537
çocukları 4537
Bol@@ 4536
olaylar 4536
çalışt@@ 4536
Mik@@ 4535
hem@@ 4535
fos@@ 4534
göstermiştir 4533
aret 4532
Kı@@ 4530
akış@@ 4530
kullanım 4530
‎ 4530
ayrılmıştır 4529
yazmıştır 4529
çıkmış 4528
derecede 4527
Güzel 4526
Tal@@ 4526
gil@@ 4524
bölümde 4523
çevre 4523
ins 4522
je 4522
soğuk 4522
Hil@@ 4521
boyu 4521
aylar 4520
koz@@ 4520
9.@@ 4519
işletim 4519
SSCB 4518
akar@@ 4518
Abdullah 4516
ğı 4516
io 4515
buluş@@ 4514
far@@ 4514
yapılmaktadır 4514
avi 4513
tuz@@ 4513
0.@@ 4511
Bölüm@@ 4511
Bugün 4509
abileceği 4509
düştü 4509
Kayn@@ 4508
alif@@ 4508
uf@@ 4506
kesim@@ 4505
asi@@ 4502
Bunlardan 4500
Maç@@ 4499
Kül@@ 4498
ederler 4498
Eyal@@ 4497
Takım 4496
bölgesinin 4491
bl@@ 4487
ektir 4486
gerçekleşti 4484
bronz 4481
lenerek 4481
örler 4480
Gazi 4478
cad@@ 4478
fü@@ 4477
Bağım@@ 4476
kolay 4475
Sın@@ 4473
layıcı 4472
Komünün 4468
rel 4468
Askeri 4466
abilmek 4465
ağında 4465
oluşum@@ 4465
ondan 4465
tom@@ 4464
hüküm 4463
lıların 4462
Music 4460
ban 4459
gelmiş 4459
incelen@@ 4459
Y 4458
kazand@@ 4458
grafik 4456
hast@@ 4455
him@@ 4454
dam 4453
eksik@@ 4453
Papa 4450
yirmi 4450
İ 4450
Sonra 4449
Santa 4448
aydın@@ 4448
başlangıçta 4445
taşıy@@ 4445
1929 4443
Rock 4443
muşlardır 4442
işaret@@ 4439
Prix 4438
aat@@ 4434
zm 4434
Onun 4433
tıp 4433
Komut@@ 4431
şö@@ 4430
Lu@@ 4429
dair@@ 4429
döng@@ 4429
ola 4429
pe 4429
yenerek 4429
Ari@@ 4427
vücu@@ 4426
1,@@ 4425
gruplar 4425
asit 4424
devrim@@ 4424
17. 4422
Black 4422
Ay 4419
Deniz@@ 4419
Gor@@ 4418
düğünde 4417
kral 4416
44 4414
q@@ 4414
birimi 4413
57 4411
düşman@@ 4411
dışındaki 4411
inler 4411
desteklem@@ 4409
desteği 4409
saç@@ 4409
Fin@@ 4408
olmasını 4408
aha 4407
Sok@@ 4405
V. 4405
gazeteci 4405
ürünleri 4404
Sanat@@ 4403
devletin 4403
atıl@@ 4402
Derg@@ 4401
zer@@ 4401
ham 4400
yolcul@@ 4400
evi@@ 4396
sonuc@@ 4396
sun 4395
Um@@ 4394
manyetik 4392
öldürüldü 4391
taşım@@ 4389
emey@@ 4388
ittif@@ 4387
93 4385
Ekonomi 4385
Ang@@ 4384
lamaktadır 4384
sonu 4384
Başbakan 4383
end 4383
Tokyo 4380
bahç@@ 4380
Ödül@@ 4378
Selim 4377
kısmını 4377
teklif 4377
Ege 4375
Konusu 4375
olog@@ 4374
kah@@ 4372
zz@@ 4372
Kosova 4371
Show 4370
ა@@ 4370
ser 4369
elle 4368
Od@@ 4367
itler 4366
Dil@@ 4365
bölgel@@ 4365
cüm@@ 4365
pozisyon@@ 4365
düzey 4362
hattı 4360
organizasyon@@ 4359
Gençlik 4358
onur@@ 4358
urg@@ 4357
Cephesi 4356
Harry 4353
senesinde 4353
erde 4352
ici@@ 4352
sar 4351
dün@@ 4349
ayrınt@@ 4348
Dal@@ 4347
gerek 4347
usal 4347
abilir@@ 4346
ehr@@ 4346
süreç@@ 4346
1932 4345
kısmında 4345
şim@@ 4345
Kastamonu 4344
Demokrat 4343
benze@@ 4341
tanı@@ 4341
kuv@@ 4340
Kuzey@@ 4338
insanları 4337
0,@@ 4336
bölgelerde 4336
okudu 4335
seyahat 4335
Büyükel@@ 4333
hali@@ 4333
öğret@@ 4333
hedef 4332
mektedirler 4332
turda 4332
erkekler 4330
yerlerde 4330
zi@@ 4329
bac@@ 4328
müziğ@@ 4325
8. 4324
yerinde 4323
ty 4321
Buc@@ 4320
süreci 4319
Manisa 4318
alternatif 4318
mine 4318
ıkla 4313
Afganistan 4311
dergisi 4309
Manchester 4308
denilen 4308
sahip@@ 4308
Sezon 4307
otomobil 4304
eserler 4303
zinc@@ 4303
Edebiyat 4302
figür@@ 4299
W 4298
kontrolü 4298
luğa 4298
masa 4295
büyükl@@ 4294
uri 4294
kayı@@ 4292
olumsuz 4292
sini 4292
zamanla 4292
dom@@ 4291
karısı 4290
sk 4290
95 4289
miktar@@ 4289
yapılması 4288
plar 4287
buz 4286
dığında 4286
oku@@ 4286
bölgesel 4285
mede 4284
bom@@ 4282
sizlik 4282
time 4282
Komutanlığı 4281
anne 4280
ende 4280
oj@@ 4277
satış 4277
ziyaret@@ 4277
harit@@ 4276
ng@@ 4276
umlu 4276
Beş@@ 4274
feth@@ 4274
balık 4273
all 4272
Kil@@ 4271
savaşın 4271
geçer@@ 4270
ish@@ 4267
toplay@@ 4267
layık 4266
A.@@ 4265
ats@@ 4265
genelinde 4265
oyunculuk 4265
kazandığı 4263
çalışmalarını 4263
Smith 4261
olmad@@ 4261
dim 4260
COVID 4259
Bit@@ 4257
içermektedir 4257
büt@@ 4256
mamaktadır 4255
play 4255
fon@@ 4254
mütte@@ 4253
tabanlı 4253
92 4252
taşı 4252
yat 4252
İm@@ 4252
Fl@@ 4249
anında 4249
Ün@@ 4249
Ed@@ 4248
beraber@@ 4248
merkezinde 4247
All 4246
terimi 4245
hoş@@ 4244
işbirliği 4244
sak 4244
ilişkili 4243
ou 4243
üretim@@ 4243
bayrağ@@ 4241
emektedir 4240
alandır@@ 4238
Jack 4237
Çoğu 4237
yarısında 4235
cas@@ 4234
yaşlı 4233
karakterini 4231
kişiden 4231
Don 4230
alarla 4229
hük@@ 4229
neg@@ 4229
proje 4228
ka@@ 4227
krist@@ 4227
bar 4226
1931 4224
iminin 4224
Komisyonu 4222
tasarım 4221
İdari 4221
birini 4220
fas@@ 4220
Kim 4219
sığın@@ 4218
başkanlık 4217
görevinden 4217
Entertainment 4216
Aşağıdaki 4214
korumak 4214
aylarında 4213
işgal@@ 4213
ello 4208
52 4207
zul@@ 4205
ayak 4204
Bilimler 4203
sürüldü 4203
kalır 4202
yönetil@@ 4202
atr@@ 4201
günümüz 4201
Pas@@ 4200
sosy@@ 4199
esir 4197
ölü 4196
yaşamış 4193
lendiği 4191
mindeki 4191
Mağ@@ 4190
köken@@ 4190
kte 4187
şimdi 4187
adım 4185
eta 4184
işçi 4184
Çay@@ 4184
Çek 4182
Milli@@ 4179
işlem 4179
yapıldığı 4178
yazılı 4178
luğun 4177
km. 4176
muhalef@@ 4176
tanış@@ 4175
varlığı 4174
yaprak@@ 4174
M. 4173
fal@@ 4173
atom@@ 4172
Oper@@ 4170
paz@@ 4170
Ste@@ 4169
dans@@ 4169
parlak 4169
tılar 4168
Ertesi 4167
Bre@@ 4166
malarda 4166
zih@@ 4165
AB 4162
Şirket 4161
ru 4160
imine 4158
Plat@@ 4157
ation 4157
politi@@ 4157
ludur 4156
ong@@ 4156
Android 4154
aktör 4154
oma 4154
romanı 4154
satışa 4154
vurgul@@ 4153
39 4151
AR@@ 4151
illa 4151
tal 4151
anmış 4150
av 4149
uç 4149
lamış 4146
­ 4145
üldü 4145
41 4144
Rio 4144
q 4144
şampiyonluğu 4144
alanlarda 4143
komutasındaki 4143
suik@@ 4143
Film@@ 4142
cılık 4142
akademik 4141
inen 4140
1915 4139
Kurumu 4139
hastalığı 4139
solo 4139
Nev@@ 4138
ava 4137
güçlendir@@ 4137
çekilen 4137
Federal 4136
imsel 4136
mik 4135
semb@@ 4135
iptal 4134
cinsine 4133
kişilerin 4132
gösterilmiştir 4131
sıcaklık 4131
Futbol@@ 4130
zayıf 4129
Bl@@ 4128
Je@@ 4128
alim@@ 4128
iliy@@ 4128
kısaca 4126
tekrar@@ 4126
Dam@@ 4124
fırlat@@ 4124
yayı 4124
yılların 4124
atları 4123
lim 4123
İlçe 4123
Ortodoks 4122
başarısı 4122
eder@@ 4122
Frank 4121
gördüğü 4121
47 4120
Balkan 4120
J. 4120
Arka 4118
Haçlı 4117
listesine 4117
yr@@ 4117
gelenek@@ 4116
sim 4116
ansal 4115
bölümünü 4115
hariç 4114
ılmasına 4114
ville 4113
orik 4112
bağlantı 4111
bina 4111
ef 4111
sın@@ 4111
sent@@ 4109
Eri@@ 4108
Tu@@ 4108
9. 4107
tikten 4106
gider 4105
Hot 4104
* 4102
iro 4102
aileden 4101
ürler 4101
coğrafi 4100
etkileri 4100
ony@@ 4099
sayım 4099
Yan@@ 4098
Du@@ 4097
Silahlı 4096
cen@@ 4096
oğl@@ 4096
Sayımı 4095
aire 4095
köyl@@ 4095
Çocuk 4095
amayan 4093
eğilim@@ 4092
85 4091
amamıştır 4091
Sekre@@ 4090
teorisi 4090
beden 4088
ust@@ 4088
Biy@@ 4087
çilerin 4087
ō 4087
ork@@ 4086
ff@@ 4085
serg@@ 4084
ımdan 4083
ındaydı 4083
10.@@ 4082
Asker@@ 4082
ınız 4082
Karl 4080
Sadece 4079
idare 4079
aze 4075
bola 4074
det 4073
İşçi 4073
Ebu 4070
anması 4070
kendilerine 4069
Bunu 4068
gür@@ 4068
ülkes@@ 4067
Araştır@@ 4066
Nec@@ 4066
enleri 4065
insanın 4065
43 4063
büyükel@@ 4063
İh@@ 4063
Aj@@ 4062
komş@@ 4061
enn@@ 4059
dünyas@@ 4057
hazırlanan 4055
biç@@ 4054
cev@@ 4054
Pakistan 4053
kutsal 4052
özellikler 4052
EP 4049
amış 4049
ırt@@ 4049
evren@@ 4047
tık@@ 4047
Orta@@ 4046
aşa 4046
edilerek 4046
ic 4045
iklim 4045
muştu 4044
ılmasını 4044
kanalı 4043
itik 4042
sayılabilir 4042
Gru@@ 4041
mark@@ 4040
tamamı 4040
yapım 4040
İmparator@@ 4040
usudur 4039
56 4038
anlay@@ 4038
ender@@ 4038
ner@@ 4038
ome@@ 4038
birik@@ 4037
famil@@ 4037
kütüphan@@ 4037
liste 4037
oyuna 4036
zamanlı 4036
kapsayan 4035
kurduğu 4035
redde@@ 4035
rolünü 4034
görüntü@@ 4031
sıvı 4031
ıklık 4031
yayımladı 4030
yukar@@ 4030
AS@@ 4029
ekleri 4029
Şam 4029
heyk@@ 4028
bölgedeki 4027
iktidar@@ 4027
Pek@@ 4026
etinin 4025
soy 4025
kalınt@@ 4024
kaleme 4023
tizm 4023
topr@@ 4023
600 4022
kal 4018
Dört 4017
ung 4014
eddin 4013
Nar@@ 4010
hizmete 4010
röportaj@@ 4008
aram@@ 4007
başk@@ 4007
dül@@ 4005
kaldığı 4005
sömür@@ 4005
özgün 4005
sekre@@ 4004
çalışmıştır 4004
pal@@ 4003
1000 4002
köyünde 4002
stüd@@ 4002
tanınmış 4002
gazete 4001
kazanarak 4001
ao 4000
reform@@ 4000
disipl@@ 3999
isimler 3999
müzisyen 3999
çiliği 3998
dizinin 3996
karşıtı 3996
62 3994
danış@@ 3994
golünü 3994
Bütün 3992
başlayarak 3992
hiss@@ 3992
mimari 3992
onik 3992
olas@@ 3990
altıncı 3989
kitabında 3989
üstün@@ 3988
düzenlen@@ 3983
süz 3982
timi 3981
ā@@ 3981
esin@@ 3980
atmos@@ 3978
dönen 3975
fot@@ 3975
zengin@@ 3975
Yusuf 3974
alana 3973
bölgelerinde 3973
Belediyespor 3971
eksiyon@@ 3971
ressam 3971
ğu 3971
Hırvatistan 3970
Mec@@ 3970
doktora 3968
pları 3968
tiyatr@@ 3967
88 3966
Can 3966
54 3965
anlamı 3965
manast@@ 3965
hid@@ 3964
esel 3963
Hir@@ 3962
sek@@ 3962
age 3961
tici 3960
yardımıyla 3960
kalın@@ 3959
Altı 3958
Prot@@ 3955
Muhaf@@ 3953
SK 3953
tesi 3952
Karay@@ 3951
balık@@ 3950
Pers 3948
hep@@ 3947
yn 3946
cilik 3945
dilleri 3945
reli 3945
ts 3945
Kafkasya 3944
Play 3944
Yaklaşık 3943
yapımc@@ 3943
devam@@ 3942
burg 3941
Özellik@@ 3940
çözün@@ 3940
Münih 3939
oyuncular 3937
150 3933
cinsi@@ 3933
denin 3933
getiren 3933
gönderdi 3933
yaspor 3932
aras@@ 3931
ates 3928
şef@@ 3927
olası 3925
Hac@@ 3924
46 3923
ekib@@ 3923
laşması 3923
uçuş@@ 3921
Mim@@ 3920
Kaynakça 3919
acağ@@ 3918
eleriyle 3916
kadınların 3916
Altın@@ 3913
ayeti 3913
görülmüştür 3913
standart@@ 3913
varlığını 3912
tay@@ 3911
kaçın@@ 3910
çözüm@@ 3908
mil 3907
koordin@@ 3905
dilinde 3904
Türkmen@@ 3902
akya 3902
alandı 3902
tekni@@ 3902
oyunun 3901
dağılımı 3899
resim@@ 3898
savaşa 3898
sine 3898
mel 3897
Kes@@ 3895
stein 3895
qu@@ 3894
Plan@@ 3893
Zaman 3893
Ür@@ 3893
Prens 3892
ilham 3892
kullanıcı 3892
buc@@ 3891
King 3890
eyalet 3889
eve 3888
illeri 3887
Albümün 3886
ikiye 3886
ulaşan 3885
Club 3883
Eng@@ 3883
luğuna 3883
beklen@@ 3882
sil 3881
göl 3880
türe@@ 3878
Ne 3876
ağına 3876
Kâ@@ 3875
üf@@ 3875
Sand@@ 3874
eci@@ 3873
est 3873
fayd@@ 3873
Uzay 3872
Daniel 3871
alıdır 3871
co 3871
gelecek@@ 3871
gerektir@@ 3871
ikna 3871
trans@@ 3870
Mol@@ 3869
ılarla 3867
Man 3866
çök@@ 3866
binlerce 3862
doğmuştur 3861
emedi 3858
Ph@@ 3856
ınar 3856
gösterime 3855
č@@ 3855
71 3854
ayaklan@@ 3854
birlik 3851
etkin 3851
kapı 3851
yüzey 3851
​ 3851
Buffy 3850
değişikliğinden 3850
rebil@@ 3849
Şim@@ 3849
başladılar 3848
muş@@ 3848
Dor@@ 3845
Kış 3845
otomatik 3845
sül@@ 3845
Alexander 3844
yd@@ 3844
değişiklik 3843
Ec@@ 3842
oyunları 3842
vergi 3842
değerli 3841
kısalt@@ 3841
başlattı 3840
otik 3840
bank@@ 3839
düzenlendi 3839
ilet@@ 3839
program 3839
suz@@ 3839
Tes@@ 3835
atin 3834
67 3832
Şey@@ 3832
alizm 3831
Nur@@ 3830
belirgin 3827
Rek@@ 3826
kli 3826
pozis@@ 3826
tepki 3826
çılık 3826
anlayış@@ 3825
elik@@ 3825
Eleştir@@ 3824
fak@@ 3824
sebebi 3824
veçli 3824
99 3822
Uyg@@ 3822
gerçekleştirildi 3822
yada 3822
Kent 3821
gin 3820
unvanı 3820
organize 3819
ō@@ 3819
1916 3818
indi 3818
ordus@@ 3818
yüzyıldan 3818
mümkündür 3816
sorumlul@@ 3815
türk 3815
yaşamını 3815
Ü 3815
ımcılığı 3815
.com 3813
Live 3813
güncell@@ 3813
güçleri 3813
onunla 3813
Chicago 3812
padi@@ 3812
tanınır 3812
da@@ 3811
pos@@ 3811
ebilecek 3810
eliğine 3809
ulaşım 3809
yöntemi 3809
dakikada 3808
ly 3807
rem@@ 3807
sakat@@ 3807
İbran@@ 3806
İskoçya 3806
üstünde 3805
bağım@@ 3803
tablo@@ 3803
tı@@ 3803
Zelanda 3801
bulunmaktaydı 3801
olacağını 3799
ray@@ 3796
alli 3795
şarkıyı 3794
değiştirildi 3793
denem@@ 3792
yumur@@ 3792
bağlam@@ 3790
aktiv@@ 3789
58 3788
telefon 3788
51 3786
arlık 3786
ug@@ 3786
77 3785
akademis@@ 3785
hakim@@ 3785
çıkardığı 3785
şarkıları 3785
18,7 3784
ebilen 3784
filmleri 3784
halkının 3784
Hen@@ 3783
Mary 3783
Nobel 3780
karşıya 3780
oluşturmak 3780
Görev@@ 3779
Siyasi 3779
amıştır 3779
yerleşim@@ 3778
Pir@@ 3777
47,5 3776
lıklı 3776
yaşındaki 3776
53 3775
1908 3774
org@@ 3772
takıma 3772
yaptıkları 3771
aşağı 3770
eyle 3770
hakim 3770
sıradan 3770
takımda 3770
tirir 3770
Konstantinopolis 3769
komple@@ 3768
sürümü 3768
arkadaşları 3767
fakül@@ 3767
Sakarya 3765
Çam@@ 3765
matemati@@ 3763
asi 3762
tasvir 3761
Hanım 3759
Vadisi 3759
şiddetli 3759
araştırmalar 3758
vererek 3758
dönemlerde 3757
Ex@@ 3756
dişi 3756
halen 3756
kim 3756
Kongresi 3754
Ven@@ 3753
neye 3753
suç 3753
günde 3752
sayf@@ 3752
boyutlu 3750
kli@@ 3750
köl@@ 3750
etmeyi 3748
hızı 3748
Ori@@ 3747
Yılmaz 3747
Kur 3746
ə@@ 3746
Red 3745
buz@@ 3745
kaynakları 3745
klip 3745
diğer@@ 3744
kisi 3744
gösterdiği 3743
hiz@@ 3743
alıp 3742
açıkça 3742
barat 3742
yakalan@@ 3742
yarışması 3741
Ly@@ 3740
enek@@ 3739
protein@@ 3739
dokun@@ 3738
olmaktadır 3738
utul@@ 3738
86 3737
gitar@@ 3737
uçak@@ 3737
800 3735
Uygul@@ 3735
63 3734
Baba 3733
ansa 3733
ion 3733
Bis@@ 3732
Flor@@ 3732
Z 3730
azar 3730
dirler 3730
düler 3730
Kütahya 3727
resmen 3727
anılan 3726
Öğ@@ 3726
ıman 3726
Voleybol 3725
melerini 3725
görür 3724
taraftar@@ 3724
toprakları 3724
arist@@ 3722
olduğ@@ 3721
Körfezi 3718
formasını 3717
ota 3717
iten 3716
nas@@ 3714
Değ@@ 3713
Mark 3713
bit 3711
usunda 3711
Yardımcısı 3710
68 3709
73 3709
yapma 3709
Mey@@ 3708
geliştirme 3708
Fre@@ 3707
sorum@@ 3706
ülkelerin 3706
Tro@@ 3704
ağırlıklı 3703
Öl@@ 3703
Mit@@ 3702
mekten 3702
tra 3702
çalıştığı 3701
kıyı 3700
Çağı 3699
Lübnan 3696
felsefe 3696
ülkesi 3693
key 3692
ligde 3692
Gaziantep 3691
neh@@ 3691
Koz@@ 3690
São 3689
bölge@@ 3689
fo@@ 3688
arasındadır 3687
unla 3686
Wil@@ 3684
anlatır 3684
yükselen 3684
savaşta 3683
rik 3681
soruştur@@ 3681
Uç@@ 3680
denklem@@ 3680
soyl@@ 3680
Marmara 3678
hapis 3678
Real 3677
taraf 3677
yolları 3677
zade 3677
ağını 3676
hal 3675
rot@@ 3674
ei 3673
işti 3673
yarım 3673
1913 3672
Albert 3672
Nokia 3672
Tour 3672
ach@@ 3670
koyu 3670
• 3670
oksi@@ 3669
evlilik 3668
şub@@ 3668
evr@@ 3667
hr@@ 3667
görüntü 3666
rü@@ 3664
ung@@ 3664
Williams 3663
maması 3663
ölçek@@ 3663
Tom 3662
uzunluğu 3661
Yük@@ 3660
öğrencisi 3659
98 3658
arc@@ 3657
Rum 3656
ekonomi 3656
düşen 3655
kalıcı 3655
Çat@@ 3655
Roman 3653
albümüdür 3653
zamana 3653
Pasifik 3652
Fat@@ 3651
International 3651
alarıyla 3651
edr@@ 3651
rat 3651
yarış 3651
otob@@ 3650
sorunları 3650
yitir@@ 3648
metre@@ 3647
Soğ@@ 3646
darbe 3646
mezunudur 3645
sızlık 3645
kırı 3644
süreli 3644
evli 3643
girer 3642
94 3641
gelecek 3641
kavuş@@ 3641
au@@ 3640
Hem 3639
işler 3639
santr@@ 3639
beğen@@ 3638
aw@@ 3637
ır.@@ 3637
Manast@@ 3636
Orhan 3636
oranda 3636
şı 3636
ener 3635
genişlem@@ 3635
hayran@@ 3635
kuvvet 3635
şehrinin 3635
nesil 3634
kampany@@ 3633
yosu 3633
üste 3633
Koleji 3632
getiril@@ 3632
rütbes@@ 3632
başlanmıştır 3631
İst@@ 3631
Pre@@ 3630
gıda 3627
Q 3626
ezi 3626
eç@@ 3626
gitar 3625
ressam@@ 3624
Üç@@ 3624
devleti 3623
orlar 3623
Bölgesel 3622
Turnuv@@ 3622
Amatör 3621
J 3621
sağlamıştır 3621
bakan 3619
duruma 3619
Tev@@ 3618
Nüfusu 3616
Yeşil@@ 3616
day 3616
iyileştir@@ 3616
çeken 3615
Trabzonspor 3614
zun@@ 3614
Vak@@ 3613
statüs@@ 3613
ırsa 3612
ertesi 3611
teknoloji 3611
opera 3610
sanay@@ 3610
eyaletinin 3609
kutu@@ 3609
kuram@@ 3608
ger 3607
reddet@@ 3607
yakınlarındaki 3607
akş@@ 3606
ağz@@ 3606
baba 3606
diğine 3606
Â@@ 3606
Sanatlar 3605
Tı@@ 3604
ekip@@ 3604
giymektedir 3604
ürlüğ@@ 3604
Anne 3602
Miss 3602
dir.@@ 3602
harekete 3602
öğre@@ 3602
rüt@@ 3600
Allah 3599
görüş 3599
molekül@@ 3599
Akadem@@ 3598
kuruluş 3598
kuruluşu 3598
satan 3598
We@@ 3597
azın@@ 3597
bitkil@@ 3597
Bağdat 3596
Big 3596
Dil 3596
satış@@ 3596
şirketin 3596
Tanr@@ 3595
Ap@@ 3593
ladılar 3593
çağdaş 3593
İlç@@ 3593
neş@@ 3592
ortalarında 3592
Örgütü 3592
çidir 3591
olayları 3589
tün@@ 3589
oldular 3588
dolu 3586
kapsamlı 3586
meli 3586
Niş@@ 3585
filmler 3585
işli 3585
Belarus 3584
gâ@@ 3584
ost 3584
bireysel 3583
topluluğ@@ 3583
öngör@@ 3583
özerk 3583
ulus@@ 3582
çekimi 3582
konsol@@ 3581
parçasıdır 3581
No 3580
Okul@@ 3578
gemisi 3578
ilçedir 3578
Teksas 3577
alınarak 3577
unvan@@ 3577
Sonuç 3576
Yam@@ 3576
hazır 3576
mitoloj@@ 3576
rek@@ 3576
96 3575
geçerli 3575
anay@@ 3574
genişlet@@ 3574
konuda 3574
Üniversite 3574
lular 3573
udi@@ 3573
yönetiminde 3573
Bro@@ 3572
Lor@@ 3572
gücünü 3571
Dik@@ 3570
Max 3570
isyan 3569
düşünce 3568
konuşma 3568
önü 3568
Kırg@@ 3566
aff@@ 3566
Demografi 3565
duktan 3565
yev 3565
siyaset 3564
66 3563
mız@@ 3563
13. 3562
Kardeş@@ 3562
Avrupal@@ 3561
enlerin 3560
ürlük@@ 3560
Yağ@@ 3559
kelime 3558
afe 3557
isimleri 3555
akrab@@ 3554
desteğ@@ 3554
lider 3552
AK 3551
partinin 3551
tarihindeki 3551
filoz@@ 3550
hükû@@ 3550
kesin@@ 3550
sözleri 3549
deş@@ 3548
lisans@@ 3548
olsun 3548
49 3547
kulland@@ 3547
pilot@@ 3547
hil 3546
Erdoğan 3545
bet 3545
Boğaz@@ 3544
Cemiyeti 3542
yüzyıla 3542
DVD 3540
hum@@ 3540
kelimesi 3540
düşman 3537
sky 3537
ât 3537
0.000 3536
Mahallenin 3536
Asyalı 3534
hayata 3533
ud 3532
kub@@ 3530
etli 3529
fikir 3528
güne 3528
Çelebi 3528
albümünü 3527
Yarg@@ 3526
ayrılarak 3526
beyin 3526
kültürü 3526
reye 3526
görsel 3525
1910 3524
dersleri 3524
geti@@ 3524
Kulü@@ 3523
oluşturmaktadır 3522
albümleri 3521
olmuştu 3520
prak 3520
seçimi 3520
ülebil@@ 3520
madal@@ 3519
97 3518
bölgeleri 3518
eden@@ 3518
ism@@ 3517
Laz@@ 3516
ayın 3515
parçaları 3515
İtalyan@@ 3515
Sinema 3514
irli 3514
konuk 3513
Bud@@ 3512
Nak@@ 3512
şeyi 3512
Hacı 3511
gru@@ 3511
Sir@@ 3510
cel 3510
dok@@ 3510
kasaba 3510
mahkû@@ 3510
Arabistan 3509
boy 3508
doğrultusunda 3507
yolcu 3507
ımız 3507
Com@@ 3506
Let@@ 3506
It 3505
uçuş 3505
ıra 3505
My@@ 3503
bağımsız@@ 3503
zorunlu 3503
sergilen@@ 3502
feder@@ 3501
paralel 3501
ışın@@ 3500
Köyü 3499
melerine 3498
yemek@@ 3498
ımıyla 3498
Demir 3495
bilgileri 3495
Çan@@ 3495
alış@@ 3493
sayede 3492
Devletler 3490
demir@@ 3489
kısım@@ 3488
toplama 3488
Suudi 3486
luğunun 3486
pozitif 3486
FA 3484
mater@@ 3484
piy@@ 3484
ân@@ 3484
asist 3483
kıyaf@@ 3483
zehir@@ 3483
Anna 3482
Gali@@ 3482
familyasından 3481
erden 3480
İş 3480
ain 3479
yaşay@@ 3479
gerekçesiyle 3477
Company 3476
NATO 3476
mutfa@@ 3474
Yab@@ 3472
memesi 3472
larken 3471
genetik 3470
intihar 3470
yürü@@ 3470
Mis@@ 3469
arasından 3469
Hik@@ 3468
bre@@ 3468
ilerleyen 3468
84 3467
Tav@@ 3467
lağ@@ 3467
nehir 3467
dıkları 3466
esiydi 3466
sendrom@@ 3466
Sinan 3465
Solanum 3465
kayded@@ 3465
ğer 3465
reddetti 3464
larlar 3463
projesi 3460
geliştiril@@ 3459
melidir 3459
Hâ@@ 3458
maktadırlar 3458
çif@@ 3458
Kars 3457
toplu 3457
Vik@@ 3456
ayları 3456
yakıt 3456
lamalar 3451
mali 3451
mevsim@@ 3451
grupları 3450
uh@@ 3450
belediyesi 3449
genin 3449
rede 3448
tanın 3448
Proj@@ 3447
ecekti 3447
katkı@@ 3447
valisi 3447
Çeşitli 3447
Klasik 3446
gın 3446
59 3445
91 3445
ayrılan 3445
kalk@@ 3445
Grubun 3444
ödüllendir@@ 3444
In 3443
bölges@@ 3443
dergi 3443
açılmıştır 3440
ediler 3440
görüntül@@ 3439
protest@@ 3438
ıs 3438
alyası 3437
duğunda 3437
klar 3437
Tut@@ 3436
yüzü 3436
anlaşmaz@@ 3434
Şarkının 3434
bakanlık 3433
imidir 3433
Hersek 3431
tarihine 3430
kuru 3429
Artvin 3428
güzel@@ 3428
programında 3428
Gümüş@@ 3427
dışına 3427
87 3426
ple 3426
ılım 3426
dikkate 3424
komünist 3424
Pop@@ 3423
doğr@@ 3422
kullanılması 3421
Özerk 3421
Arizona 3420
kart@@ 3420
anlatan 3419
shire 3419
yede 3419
15. 3418
National 3418
atmıştır 3416
alin 3415
sonraları 3415
Ork@@ 3414
BBC 3413
Emir@@ 3413
74 3412
Diy@@ 3412
albümde 3412
asyonlar 3412
inşaat 3412
hastalık 3411
78 3410
Est@@ 3410
alle 3410
gerçekleştirdi 3409
ıkta 3409
analiz 3407
gül@@ 3407
tasarımı 3407
âr 3407
atma 3406
dönüş 3406
şekli 3406
abe 3405
düzeyde 3404
kalmış 3404
Massachusetts 3403
felsef@@ 3403
verg@@ 3403
04 3402
Dön@@ 3402
Royal 3401
ziy@@ 3401
Bolş@@ 3400
ksel 3399
sundu 3399
10. 3398
20@@ 3398
ordu@@ 3398
nitelik@@ 3395
vermeye 3395
11.@@ 3394
döner 3394
ina@@ 3394
maçın 3394
yürüyü@@ 3394
The@@ 3392
Gem@@ 3391
gun 3391
malzeme 3389
Tapın@@ 3388
Temsilc@@ 3387
oluşuyordu 3387
Tasar@@ 3386
eliği 3386
ener@@ 3386
Kütüphan@@ 3384
kariyerini 3384
las@@ 3384
liğinden 3384
tarihçi 3383
Chris 3382
Sig@@ 3382
Topluluğu 3382
fotoğraf 3382
İmparatoru 3381
taya 3380
yarışı 3380
azı 3379
CHP 3378
laborat@@ 3378
Başar@@ 3377
kuz@@ 3377
nek@@ 3376
Arthur 3375
ach 3375
diğerleri 3375
Moğol 3373
düşüncel@@ 3373
fizik 3373
hepsi 3373
oynad@@ 3371
69 3370
söylemiştir 3370
doğa 3369
kişiye 3368
76 3365
bat 3365
belirti@@ 3365
Mezarlığı 3364
doğuda 3364
port 3364
sos@@ 3364
alk@@ 3363
farkl@@ 3363
gösteril@@ 3363
Vir@@ 3362
kamera 3362
Birkaç 3361
lendirme 3361
tabl@@ 3360
Vel@@ 3359
81 3358
bildirdi 3358
kati@@ 3358
pul@@ 3358
sözü 3358
uzunluğunda 3358
Sanayi 3356
basın 3356
deye 3354
No@@ 3353
Bun@@ 3352
bulunuyordu 3352
Pierre 3351
binası 3351
imparator 3350
olanak 3350
ales 3349
zon@@ 3349
Malatya 3348
ney 3348
posta 3347
Esk@@ 3345
Jones 3345
uda 3345
önlem@@ 3345
Karadağ 3344
bölgesindeki 3344
hizmeti 3344
İmparatorluk 3344
Üsk@@ 3343
mekte@@ 3342
servis 3340
üt 3340
çoğunu 3339
öt@@ 3338
çağ 3336
Bes@@ 3334
diğinden 3334
Ekonomik 3333
Liga 3332
09 3331
Türkler 3331
adamları 3331
atür@@ 3331
ısıyla 3331
İçişleri 3330
yapımcı 3329
Ağa 3326
Siv@@ 3326
Çak@@ 3326
fol@@ 3324
maktır 3321
Çerk@@ 3320
matematik 3319
birbirinden 3318
karbon@@ 3318
tüc@@ 3318
nü@@ 3317
1900 3316
kardeş 3316
nokta 3315
Şer@@ 3315
vin@@ 3314
Şili 3314
Premier 3313
hit@@ 3313
vey@@ 3313
ât@@ 3313
kimi 3312
anıl@@ 3311
ırk@@ 3310
Nam@@ 3309
akım 3307
çeyrek 3307
şair@@ 3307
ıncı 3306
Virginia 3305
şov@@ 3305
83 3304
Oc@@ 3304
ihtim@@ 3304
yürütül@@ 3303
Eur@@ 3302
danışman@@ 3302
minden 3302
terfi 3302
yerleşti 3302
İstatisti@@ 3301
katkı 3299
American 3298
ator 3298
ilçesinin 3298
lerken 3297
puanla 3297
undur 3297
duğ@@ 3296
köyde 3296
lamaları 3296
yapımcısı 3295
ihl@@ 3294
Ailesi 3293
hazırlık 3293
Mekte@@ 3292
cevap 3291
ikal 3291
anali@@ 3289
kış 3289
resi 3289
1911 3288
bağımsızlığını 3287
dışar@@ 3287
hız 3287
sonlarına 3287
Anayasa 3286
ben 3286
tul@@ 3285
Fransız@@ 3284
heykel@@ 3284
Florida 3282
Tokat 3282
Yerleş@@ 3281
ölen 3281
gay@@ 3280
rolüyle 3280
çeşit 3280
emin 3279
Kah@@ 3277
onar@@ 3277
analiz@@ 3275
şaş@@ 3275
Vietnam 3274
otorit@@ 3273
vi 3273
üstlenmiştir 3273
şarkılar 3273
Francisco 3272
erinde 3272
ürken 3272
ezya 3270
pol 3269
61 3268
ost@@ 3268
ılıp 3268
Başlangıçta 3267
vari 3267
Stalin 3266
usa 3266
yurt@@ 3266
lıktan 3265
Life 3264
Zir@@ 3264
orman 3264
Kalkınma 3262
Prof. 3262
arazi 3262
ih 3262
lesi 3262
büyüm@@ 3261
enden 3261
aydı 3260
yerleri 3259
evine 3255
aylı 3254
açan 3254
canlandırdığı 3254
karşılıklı 3254
Serbest 3253
aliy@@ 3253
dayanmaktadır 3253
duyar@@ 3253
anının 3252
ian 3252
inleri 3252
nispeten 3252
yalnız 3252
çısı 3252
08 3251
Estonya 3251
Keş@@ 3251
dev 3251
los@@ 3250
rasi 3250
ürlüğü 3250
Birlik 3249
Kıs@@ 3249
Yazar@@ 3249
gazetec@@ 3249
kler 3248
Altay 3247
Ki@@ 3247
Kız 3247
Radyo 3247
ülke@@ 3246
cusu 3244
kullanıldığı 3243
bon@@ 3242
insanı 3242
kök@@ 3242
uyu 3242
14. 3241
abilmesi 3241
á 3241
Cum@@ 3240
molek@@ 3240
tris 3240
Elizabeth 3239
füz@@ 3239
örd@@ 3239
şirke@@ 3239
89 3238
Bü@@ 3238
agr@@ 3238
astronom@@ 3238
fiz@@ 3238
İliş@@ 3237
bis@@ 3235
ilişkisi 3235
tidir 3235
fikir@@ 3234
sınırı 3234
Büyük@@ 3233
Alan 3232
yaparken 3232
İskender 3232
Friedrich 3231
alanlar 3231
ets 3231
rey 3229
basketbol@@ 3228
elendi 3227
kanalında 3226
Kişisel 3225
çılar 3225
Uy@@ 3224
aşk 3224
birim 3224
geriye 3224
üyeliği 3223
ula 3222
Profes@@ 3221
teşkil@@ 3221
albümünde 3220
Pav@@ 3219
forvet 3219
hep 3219
süper 3219
Alek@@ 3218
Köy@@ 3218
hikâye 3216
maçları 3216
La@@ 3215
indendir 3215
sağlan@@ 3215
İktis@@ 3215
ısız 3215
değişen 3213
emesi 3213
küç@@ 3212
amatör 3211
filminin 3211
görülebilir 3211
hasar 3211
kavramı 3211
tin@@ 3211
Köpr@@ 3210
gösterilen 3210
devre 3209
enteg@@ 3209
tıbbi 3205
askerleri 3203
ran 3203
sistemin 3203
dolay@@ 3202
Vi@@ 3201
batıda 3201
süreçte 3200
üb@@ 3200
Koc@@ 3199
Mimar@@ 3199
ceza 3199
defn@@ 3199
rev 3199
ulur 3199
belirlen@@ 3198
uştur@@ 3198
galibiyet 3197
kolu 3197
organik 3197
tikleri 3197
yapıt@@ 3197
ito 3196
uygulamaları 3196
komşu 3195
lılık 3195
Kongre 3193
edecek 3193
trop@@ 3193
Vas@@ 3192
mî 3192
yağ 3192
Saldır@@ 3191
vet 3191
wood 3190
Time 3189
Yarımadası 3189
serisinin 3189
televizyon@@ 3189
âtı 3189
Yıldırım 3188
coğraf@@ 3188
mediğini 3188
yaralan@@ 3188
12. 3187
Dizi 3187
Hükûmeti 3186
saray 3185
sözcüğü 3185
ć 3185
asla 3184
vez@@ 3184
yorum 3183
sırt@@ 3182
Güreş 3181
Hy@@ 3180
Hem@@ 3179
yapılacak 3178
şarkıc@@ 3178
Meg@@ 3177
profesör 3177
so 3177
Üyeliği 3177
başkent 3175
cumhurbaşkanı 3175
seçilmiş 3175
Okyanusu 3174
üstlendiği 3174
katli@@ 3173
karbon 3171
anz@@ 3170
değişiklikler 3170
yoğ@@ 3170
Oscar 3169
Scott 3169
bulur 3169
ediyordu 3169
elenmiştir 3168
işk@@ 3168
elin 3167
anlara 3166
peş@@ 3166
atarak 3165
ografi 3165
Formula 3164
Millet 3164
luy@@ 3164
Haç@@ 3163
Nes@@ 3163
üle 3163
Maz@@ 3162
bırakıldı 3162
gelindiğinde 3162
imparatorluk 3162
İnternet 3162
yedinci 3161
üçlü 3161
azak@@ 3160
üstün 3160
üyelerinin 3160
Dönem@@ 3159
Koruma 3159
belirtir 3159
cami 3159
gereği 3159
kamer@@ 3159
takvi@@ 3159
yayımlan@@ 3159
Dönemi 3158
sy@@ 3158
şekill@@ 3158
lukları 3157
anlaşıl@@ 3156
awa 3156
kurmay 3156
sahneye 3156
sinir 3156
Şeyh 3156
Kl@@ 3155
Cur@@ 3154
bilimi 3154
mükem@@ 3154
park 3154
vazgeç@@ 3154
ideki 3151
Rize 3150
albümünün 3150
ym@@ 3149
Grammy 3147
hass@@ 3147
yoğunluğu 3147
Art@@ 3146
basın@@ 3146
bölgeyi 3145
fiye 3145
geldiğinde 3145
okyan@@ 3145
ecik 3144
çıkarak 3144
Bilg@@ 3143
Jersey 3143
fan@@ 3141
ilaç@@ 3141
Çer@@ 3141
82 3140
Temel 3140
besteci 3140
göğ@@ 3139
sorgul@@ 3139
Hür@@ 3138
UNESCO 3138
Sas@@ 3136
oluşturdu 3136
abileceğini 3135
fırsat@@ 3135
ity 3135
kalar 3135
biyolojik 3134
sonuçlar 3134
müdahal@@ 3133
topraklarına 3133
İspanyolca 3133
kentin 3132
Cezayir 3131
kanun 3131
taşır 3131
Dir@@ 3130
tank@@ 3130
arkad@@ 3129
ash@@ 3129
başlangıç 3129
işgali 3128
olduğunda 3128
piyas@@ 3128
ington 3127
lis 3127
veti 3127
olmasından 3126
yarışma 3126
önemlidir 3126
Had@@ 3123
belirtmiştir 3123
İli 3123
sporcu 3122
Günü 3121
Nov@@ 3121
olayı 3121
sis 3121
Nih@@ 3120
ettikleri 3120
Ayak@@ 3119
Reş@@ 3119
tayin 3119
idi@@ 3118
kullanılmaya 3118
odi@@ 3118
Ner@@ 3117
bon 3117
geçiren 3117
120 3116
Çorum 3116
zin@@ 3115
diplomatik 3114
stil 3113
utu 3113
ücretsiz 3113
his 3112
vücut 3112
şeh@@ 3112
kalın 3111
bez@@ 3110
ow@@ 3110
mesle@@ 3109
ars 3108
alleri 3107
urt 3107
Bug@@ 3105
Hükû@@ 3105
potansiyel 3105
yuvar@@ 3105
Bölüm 3104
sosyalist 3104
etiyle 3103
Mardin 3102
bölümleri 3102
performansı 3102
ülkeye 3102
hipot@@ 3100
kaybol@@ 3100
Musa 3099
eksiyon 3099
nüfus@@ 3099
denet@@ 3097
ilim@@ 3097
ahı 3096
hukuk@@ 3096
AN@@ 3095
Caddesi 3095
sistemine 3093
başlıklı 3092
eleştirmen@@ 3092
istedi@@ 3092
vit@@ 3092
Çiç@@ 3092
Erzincan 3091
Hastanesi 3091
Pey@@ 3091
yapılar 3091
finalinde 3090
istediği 3090
Sistemi 3089
evlili@@ 3089
katılımc@@ 3089
ulaşmıştır 3089
Tarım 3088
semp@@ 3088
İnş@@ 3087
prensi@@ 3086
Ha@@ 3085
enko 3085
ismiyle 3085
tarihinden 3085
uki 3083
üretilmiştir 3083
Kızılder@@ 3082
böcek 3082
kurulması 3082
ımsal 3081
Cumhurbaşkanlığı 3080
Parlamentosu 3080
iko 3080
izlen@@ 3080
prak@@ 3079
tanesi 3079
ardaki 3078
hoc@@ 3078
ilgil@@ 3078
voleybol 3078
yoktu 3078
çalın@@ 3077
kadının 3075
tikçe 3075
vermiş 3075
yöntem 3075
Ayr@@ 3074
baskın 3074
meyve 3074
pay@@ 3072
uygulanan 3072
ışın 3071
Güney@@ 3070
etini 3070
fazl@@ 3070
Times 3067
Elazığ 3066
Tim@@ 3066
mahalle@@ 3066
sus 3066
sığ@@ 3066
Alb@@ 3065
adal@@ 3065
âr@@ 3065
11. 3064
cılar 3064
dizide 3064
raf 3064
Kanal 3063
alanına 3063
açar 3063
uğunu 3063
ille 3062
İttif@@ 3062
Türkmen 3061
asıydı 3061
arkasında 3060
Kuvvet@@ 3059
astı 3059
bas 3059
memektedir 3059
kok@@ 3058
önlemek 3057
dip 3056
akıllı 3055
amad@@ 3055
yetik 3055
H. 3054
ishan@@ 3054
ılma 3054
05 3053
Dom@@ 3053
Mod@@ 3053
Yor@@ 3053
2,@@ 3052
arama 3051
müştü 3051
şiddet 3051
ruh 3050
Çift@@ 3050
Bölge@@ 3049
Geleneksel 3049
adıdır 3049
Cl@@ 3048
Libya 3048
doğum@@ 3048
örgü@@ 3048
ümcek 3047
Kart@@ 3045
döneminin 3045
rini 3045
oya 3044
saldırıya 3044
işlemi 3043
yakınında 3043
Lin@@ 3042
TC 3042
sistemini 3041
tüy@@ 3041
uğa 3041
gelerek 3040
maliyet@@ 3040
rar 3040
çay 3040
Fo@@ 3039
Mih@@ 3039
tahmin@@ 3038
geril@@ 3037
inger 3037
eo 3036
Ukr@@ 3035
beş@@ 3035
saldırısı 3035
uvar@@ 3034
edeb@@ 3033
erle 3033
uluk 3033
bağlantılı 3032
ucu@@ 3032
Gön@@ 3031
ern@@ 3031
örneği 3031
alanlarında 3029
terek 3029
İlçesi 3029
alet 3028
dayanır 3028
eyaletine 3028
fizik@@ 3028
nekler 3028
aga 3027
olduklarını 3027
turn@@ 3027
çalışmaktadır 3027
79 3026
Aşk 3026
Şanlıurfa 3026
şehirler 3026
Afrikan 3024
North 3024
tığını 3024
veda 3024
landırma 3023
Hollywood 3021
atıldı 3021
optik 3020
yıldır 3020
Op@@ 3019
yanl@@ 3019
çelik 3019
emir 3018
kere 3018
korku 3018
Brezilyalı 3016
Denizli 3016
Beş 3015
dökül@@ 3015
estr@@ 3015
okuy@@ 3015
hom@@ 3014
andaki 3013
artış 3013
şansı 3013
Blo@@ 3012
süz@@ 3011
Aşağı 3010
Arnavut 3009
Brown 3009
Jo@@ 3009
ain@@ 3009
bil 3009
birinc@@ 3009
doğus@@ 3008
tuğu 3008
Kanunu 3007
olmasıdır 3007
reti@@ 3006
Ann@@ 3003
Konu 3003
cü@@ 3003
şarap 3002
Annesi 3001
süreç 3000
ılığını 3000
Sof@@ 2999
kolayca 2999
toplanan 2999
tutuklandı 2999
with 2999
yerler 2999
bölgesinden 2998
İslam@@ 2998
nak 2997
ny@@ 2997
Halil 2996
Tol@@ 2996
dis 2996
ziyade 2996
mesaj@@ 2995
vb. 2995
Hüs@@ 2994
Kendisi 2994
Carl 2993
Ep@@ 2993
girdiği 2993
tel 2993
tör 2993
Cev@@ 2992
temsil@@ 2992
başlangıc@@ 2991
fat@@ 2991
Chi@@ 2990
dava 2990
eus 2990
Kırmızı 2989
apr@@ 2989
verilerine 2989
sözcük@@ 2988
Bot@@ 2987
reklam@@ 2986
türler 2986
mur 2985
sorun 2985
Alaska 2984
Halep 2984
ihr@@ 2984
Mahmud 2983
aktaydı 2983
Değiş@@ 2982
galak@@ 2982
tasarlanmış 2982
verimli 2982
çerçev@@ 2982
ülkeleri 2982
hâlâ 2981
ovi@@ 2981
sunuldu 2981
AT@@ 2980
becer@@ 2980
iner 2980
yosunu 2980
yüzölçüm@@ 2980
Eğ@@ 2979
komis@@ 2979
Benz@@ 2978
adres@@ 2977
kütle 2977
şarkısıyla 2977
öğrenimini 2976
maddi 2975
Üst@@ 2975
Başka 2974
dönüştürül@@ 2974
ıştır.@@ 2973
lukla 2972
rakibi 2972
yg@@ 2972
Bon@@ 2971
bulmak 2971
etkinlik@@ 2970
Red@@ 2969
Young 2969
güvenli 2969
çıkarılan 2969
birbirlerine 2968
mur@@ 2968
Donanması 2967
ortalam@@ 2967
Ülkenin 2967
Dör@@ 2966
başkanlığını 2966
dâ@@ 2965
ilişkilendir@@ 2965
name 2965
Öğret@@ 2965
1909 2963
uygulaması 2963
karanlık 2962
rakam@@ 2962
yıldan 2961
Inter@@ 2960
Parti@@ 2960
ahşap 2960
yse 2960
Marie 2959
ons 2959
çağır@@ 2959
Doğan 2958
Johnson 2958
alıyor 2958
Ten@@ 2957
sitesi 2957
tanındı 2957
vatand@@ 2957
İsy@@ 2957
ich 2956
vefat 2956
subay 2955
Ulu@@ 2954
klas@@ 2954
kum 2954
vb 2954
Prusya 2953
getirmiştir 2953
öğretmen 2953
ışını 2953
derecesi 2952
sıraya 2952
yapımcılığını 2952
M.Ö. 2951
bakter@@ 2951
getirilmiştir 2951
tis 2951
engel 2950
olasıl@@ 2950
Osmanlılar 2949
onal 2949
etinde 2948
od 2948
ary 2947
ps 2947
üce 2947
Balkan@@ 2946
Bay 2946
demok@@ 2946
inanç@@ 2946
İsko@@ 2946
Dis@@ 2945
Dum@@ 2945
Feder@@ 2945
ileti@@ 2945
kökeni 2945
niteli@@ 2945
Ant@@ 2944
getirir 2944
sözc@@ 2944
Anayas@@ 2943
Ford 2943
Lit@@ 2942
küçük@@ 2942
gündem@@ 2941
sayıl@@ 2941
Ty@@ 2940
dizisinin 2940
iklerin 2940
ülebilir 2940
12.@@ 2939
las 2939
eskiden 2938
zo 2938
Sicilya 2937
depo@@ 2937
ros@@ 2937
Dünyanın 2936
faaliyetleri 2935
tren 2935
apo@@ 2933
belirlenmiştir 2933
kazanmış 2933
tamamlamıştır 2933
çili@@ 2933
Ceza 2932
dahi 2932
konuşan 2932
eleştiriler 2931
reklam 2931
gerçekten 2930
Şek@@ 2930
eklem@@ 2929
amac@@ 2928
beyi 2927
hisar 2927
jen@@ 2927
mekanik 2927
plaz@@ 2927
sayg@@ 2927
Giresun 2926
ebilmektedir 2926
nur 2926
sıf@@ 2926
uzaklaştır@@ 2926
imzalam@@ 2925
oyunda 2925
anahtar@@ 2924
aktivit@@ 2923
diğeri 2923
kapan@@ 2922
ayırt 2921
canlandırdı 2921
kırsal 2921
# 2920
annis 2920
siyas@@ 2920
bunlardan 2919
pah@@ 2918
siyasal 2918
Yukar@@ 2917
malarının 2917
Hakk@@ 2916
Televizyon 2916
yoğunlaş@@ 2916
Kız@@ 2915
bölümler 2915
evrim@@ 2915
eleş@@ 2914
ram 2914
Mütte@@ 2913
jüri 2912
Hüküm@@ 2911
alınması 2911
DP 2910
Yaşam 2910
Tos@@ 2909
inus 2909
sö@@ 2909
İdar@@ 2909
yedir 2908
ınlar 2908
Iş@@ 2907
Milletvekilliği 2907
gelişen 2907
geliştirilmiş 2907
attan 2906
up@@ 2906
üstriyel 2906
Berg@@ 2905
Def@@ 2905
Char@@ 2904
ayının 2904
azar@@ 2904
gelişme 2904
içe 2904
Kraliçe 2903
Ry@@ 2903
yayımlanmıştır 2903
eva 2902
rapor 2902
700 2901
Pen@@ 2901
gar 2899
oloji@@ 2899
diş 2898
yapay 2898
üstüne 2898
ike 2897
kaynaklar 2897
ure 2897
kadrosuna 2896
section 2896
talar 2896
Kendi 2894
Resmi 2894
açıklama 2894
mahallesi 2894
yeğ@@ 2894
çarpış@@ 2893
olmayı 2891
250 2890
Pin@@ 2889
cezası 2889
saltan@@ 2889
ünc@@ 2889
6,@@ 2888
federal 2888
hiy@@ 2888
istikr@@ 2888
kuantum 2888
yem 2888
06 2887
Otom@@ 2885
1907 2884
had@@ 2884
Andr@@ 2883
ülkeden 2883
Brit@@ 2881
Cav@@ 2881
ekran 2881
riv@@ 2881
eğine 2880
hizmetleri 2880
sanc@@ 2880
takımıyla 2880
Fakül@@ 2879
VI 2879
daş 2879
gener@@ 2879
şeker 2879
kadrosunda 2878
asyona 2877
edici 2877
görünür 2877
mektir 2877
şiş@@ 2877
elenen 2876
Sul@@ 2875
eserinde 2875
sıkınt@@ 2875
kariyerinin 2874
Aks@@ 2873
turizm 2873
ihtiyaç@@ 2872
Müc@@ 2871
deng@@ 2871
süper@@ 2871
sınav@@ 2871
ult@@ 2871
ero 2870
lileri 2870
Ener@@ 2869
noktada 2869
oni@@ 2869
vard@@ 2869
liman@@ 2868
Öğrenc@@ 2868
popül@@ 2867
İbn 2867
Mari@@ 2866
Yayın 2866
buraya 2866
FK 2865
budur 2865
zaten 2865
görevinde 2864
sıv@@ 2864
tüf@@ 2864
Leh@@ 2863
ensi 2863
terim 2863
é@@ 2863
ıköy 2863
girerek 2862
tın@@ 2862
Tok@@ 2861
düzenledi 2861
lilik@@ 2861
İşlet@@ 2861
atıfta 2859
biyograf@@ 2859
çekilmiştir 2859
gönderil@@ 2858
Fran@@ 2857
Yozgat 2856
tamamlayan 2856
çocuklar 2856
gazetesi 2855
vr@@ 2855
Tam 2854
afi 2854
pres@@ 2854
tarihten 2854
uyuştur@@ 2854
hır@@ 2853
bulunması 2852
retim 2852
Hall 2851
Pa@@ 2851
asist@@ 2851
nik@@ 2851
sular@@ 2851
pp@@ 2850
Bulgar@@ 2849
1905 2848
Hareketi 2848
sözcüğ@@ 2848
tirler 2848
özgür 2847
Raw 2846
Yel@@ 2846
bilgisi 2846
kopya 2846
kamu@@ 2845
ling 2844
ölçü@@ 2844
Tunus 2843
biçiminde 2841
Sc@@ 2840
müzikal 2840
arla 2839
nüfuslu 2839
Yahudiler 2838
Şehir@@ 2838
ylelikle 2836
ımından 2836
Yani 2835
zey@@ 2835
ი@@ 2835
inos 2834
Ölüm@@ 2834
klibi 2833
görevden 2832
» 2832
öncel@@ 2832
Des@@ 2831
mür 2831
Malta 2830
bunları 2830
sig@@ 2830
birine 2829
tüğü 2829
yonun 2829
Cat@@ 2828
Teşkil@@ 2828
lığından 2828
Ülke 2828
kahram@@ 2827
yüksekliği 2827
gerç@@ 2825
ift 2825
kuvvetlerinin 2825
çalışırken 2825
bağlan@@ 2824
spek@@ 2824
Öte 2824
mag@@ 2823
değişiklik@@ 2822
tedir 2822
işini 2821
Küba 2820
bot@@ 2820
lip@@ 2820
Samsung 2818
cısı 2818
erleri 2818
01 2817
Akh@@ 2817
Joe 2817
aldılar 2817
yıldızı 2817
çevrimiçi 2817
yürürlüğe 2816
ital 2815
milli 2815
şampiyonluk 2815
Sağ@@ 2814
bağımsızlık 2814
op 2814
çam@@ 2814
atının 2813
hur 2813
kanın 2813
ulmuş 2813
tir.@@ 2812
Turu 2811
küme 2811
yukarı 2811
bulunmuş 2810
eceğine 2810
sının 2810
siyonu 2809
gerilim 2808
annesinin 2806
teklif@@ 2806
tip@@ 2804
kart 2803
üreten 2803
College 2802
aro 2801
atom 2800
jinal 2800
kaynaklarda 2800
planı 2800
Selanik 2799
ayg@@ 2799
yaşar 2799
dönemine 2798
sesi 2798
şans@@ 2798
gezeg@@ 2797
özellik 2797
formasıyla 2796
örleri 2796
ıktır 2796
AC 2794
port@@ 2794
Şehirdeki 2794
Kh@@ 2793
ellen@@ 2793
inanc@@ 2793
stil@@ 2793
avy@@ 2792
kahverengi 2792
köyü@@ 2792
Gil@@ 2791
iklet 2791
kron@@ 2791
oymağına 2791
steri 2791
Atle@@ 2789
destekleyen 2789
yos@@ 2789
şehre 2789
1878 2788
Hikâ@@ 2788
MTV 2788
kanat 2788
gerektiği 2787
ladıktan 2785
siye 2785
rahatsız@@ 2784
çerçevesinde 2784
iyileş@@ 2783
geçtiği 2782
lit 2782
yararlan@@ 2782
eksen@@ 2781
luklar 2781
Gürcüce 2780
oynay@@ 2780
phe 2780
rüzgâ@@ 2780
drama 2779
dönüştü 2779
endisi 2779
neticesinde 2779
tanı 2779
değişir 2777
lia 2777
tt@@ 2777
haz 2776
Şub@@ 2776
4,@@ 2775
Milletvek@@ 2775
izlem@@ 2775
bağlandı 2774
cam 2774
esiz 2774
terim@@ 2774
ayolu 2773
buradan 2773
ilaç 2773
Anti@@ 2772
ekip 2772
not 2772
zur@@ 2771
Spor@@ 2770
mevkiinde 2770
şunları 2770
başarısız@@ 2769
ave 2767
komün@@ 2767
uyum@@ 2767
atın 2765
şid@@ 2765
Ky@@ 2764
Sk@@ 2764
har 2764
köğretim 2764
teker@@ 2764
yönetti 2764
ünce 2764
şimdiki 2764
Halk@@ 2763
kuku 2763
saf 2763
diplom@@ 2762
üph@@ 2762
asit@@ 2761
olmasının 2761
depol@@ 2760
gusal 2760
krizi 2760
HP 2759
Top 2759
değişim 2759
kolay@@ 2759
Angel 2758
Bizans@@ 2758
pil@@ 2758
mağaz@@ 2757
sayıları 2757
1902 2755
D. 2755
Yer 2755
vil 2755
Obl@@ 2753
büyüklüğ@@ 2753
şiddet@@ 2753
Hong 2752
Merkez@@ 2752
İlk@@ 2752
ft 2750
pel@@ 2750
rekabet 2750
sonuçlandı 2750
Kiev 2749
Savaşları 2749
Yukarı 2749
kun@@ 2749
çar@@ 2749
Sanc@@ 2748
ett 2747
gerekmektedir 2747
sik 2747
Cey@@ 2746
Muğla 2746
360 2745
kalı@@ 2745
kategorisinde 2744
Ölüm 2744
dram@@ 2742
zamanı 2742
mimar 2741
müdahale 2741
suyun 2741
Endonezya 2739
Mıs@@ 2739
Ort@@ 2739
elektron 2739
pi 2739
Sanatçı 2738
dy@@ 2738
Dok@@ 2737
uzunluğ@@ 2737
yanıt 2737
tanıştı 2735
Önc@@ 2735
Şirketi 2735
algorit@@ 2734
kayd@@ 2734
ıldığını 2734
Cre@@ 2733
aklık 2733
estra 2733
kıyasla 2733
müze 2733
yakından 2733
Kamp@@ 2732
Vladimir 2732
olursa 2732
Aydın@@ 2731
acağına 2731
olacağı 2731
Kitap@@ 2730
elidir 2730
enti 2730
kanun@@ 2730
olanlar 2730
gereksin@@ 2729
kariyerinde 2729
sisteminde 2729
ürlük 2729
saygı 2728
000 2727
Super@@ 2726
alınmış 2726
7,@@ 2725
Hö@@ 2725
deplas@@ 2725
kişiyi 2725
abi 2724
arkeolojik 2724
kalabalık 2724
yazan 2724
yaşta 2724
5.000 2723
Turizm 2723
ige 2723
gelişimi 2722
som@@ 2722
Listesi 2721
Siyasal 2721
tren@@ 2721
« 2721
José 2720
Taylor 2720
Madonna 2719
galibi@@ 2719
indeydi 2719
Yeşil 2718
Yönetimi 2718
ecekleri 2718
ema 2718
layıp 2718
politika 2718
üsünü 2718
Lewis 2717
potansiy@@ 2717
şarkısını 2717
kiralık 2715
Çık@@ 2715
anos 2714
Belgrad 2712
bilinmemektedir 2712
mobil 2712
tamamlan@@ 2712
yarışmada 2712
chi 2711
Aile 2708
katılmış 2708
saniy@@ 2708
Bilgi 2707
dayanarak 2707
girmiş 2707
End@@ 2706
uçağı 2706
kilometr@@ 2705
merkezidir 2705
rö@@ 2705
sayısının 2705
Güneydoğu 2704
Polonyalı 2704
taz@@ 2704
Koreli 2703
değişken@@ 2703
görmüştür 2703
ihtiy@@ 2703
kurgusal 2703
zamandan 2703
Zi@@ 2702
gönderilen 2702
birinde 2701
müdürü 2701
yönde 2701
etkisiyle 2700
gruptan 2700
krom@@ 2700
listelerinde 2700
oynamaya 2700
püskür@@ 2700
sürmüştür 2700
isteği 2699
Antonio 2698
Fa@@ 2698
amba 2698
getirilen 2698
saniye 2698
sinden 2697
verim@@ 2697
yona 2697
şifrel@@ 2697
Bob 2696
Doğal 2696
Karolina 2696
anılır 2696
manda 2696
riye 2696
yönetici 2696
şir@@ 2696
biye 2695
etkiler 2695
kle@@ 2695
Konferansı 2694
getirdiği 2694
üleri 2694
Aslında 2693
Trans@@ 2693
eşleş@@ 2693
niyet 2692
Sonunda 2691
alışver@@ 2691
kraliyet 2691
piskopos@@ 2691
askerler 2690
lıkta 2690
yapım@@ 2690
ıd@@ 2690
Carlos 2689
Eb@@ 2689
PC 2689
görevlisi 2689
rezer@@ 2689
yalar 2689
trol 2688
Aç@@ 2687
beli 2687
AP 2686
Mirası 2686
kari@@ 2686
şampiyonluğunu 2686
1886 2685
dünyadaki 2685
ektör@@ 2685
kuzuncu 2685
içinden 2684
kanser@@ 2684
psikolojik 2684
RA@@ 2683
SA@@ 2683
yöne@@ 2683
ümlü 2681
Sed@@ 2680
aktan 2680
içeriyordu 2680
gil 2679
kullanmıştır 2679
pazar 2679
dikkat@@ 2678
Kamu 2677
asyonun 2677
özelliklerini 2677
epe 2676
liydi 2676
maddeler 2675
peyg@@ 2675
taç 2675
Görün@@ 2674
direktörü 2674
Kanadalı 2673
ys 2673
akı 2672
anına 2672
gri 2671
RNA 2670
programları 2670
tatlı 2670
thi@@ 2670
hazırlan@@ 2669
kod 2669
mand@@ 2669
mill@@ 2669
türdür 2669
bürokr@@ 2668
günümüzdeki 2668
olo@@ 2668
usul@@ 2668
başbakan 2667
emli 2667
Paulo 2666
Wilhelm 2666
baz 2666
macer@@ 2666
olmalıdır 2666
sürdürmektedir 2666
Devrim@@ 2665
Sony 2665
km2 2665
Ray@@ 2664
basınç 2664
oğludur 2664
sir@@ 2664
Group 2663
gelip 2663
ondur 2663
süt 2663
Kn@@ 2662
aal@@ 2662
gis@@ 2662
sü 2662
transfer@@ 2662
yatırım 2662
Reg@@ 2661
anik 2661
bağır@@ 2661
elektron@@ 2661
hor@@ 2661
jer@@ 2661
Başbakanı 2660
Etim@@ 2660
Hiti@@ 2660
vanya 2660
5,@@ 2659
Dest@@ 2659
Kocaeli 2659
bestec@@ 2659
protein 2659
açıklamıştır 2658
R. 2657
Biyografi 2656
mus@@ 2656
Yasası 2655
oradan 2655
DC 2654
doğur@@ 2654
etmişti 2654
tank 2654
Rem@@ 2653
Trakya 2653
ase 2653
geliştirdi 2653
hit 2653
kadem@@ 2652
Liverpool 2651
Stand@@ 2651
rul 2650
yken 2649
va@@ 2647
ekim 2646
maksızın 2646
Final@@ 2645
giyi 2645
nem 2645
yazında 2645
beyaz@@ 2644
erişim 2644
nadir 2644
Boston 2643
oluşmuştur 2643
Yahudilerin 2642
anayas@@ 2642
Karabağ 2641
anna 2641
eğlence 2641
hayal 2641
ick@@ 2641
tanımlan@@ 2641
ıştığı 2641
els 2639
etine 2639
gayet 2639
Napolyon 2637
School 2636
int@@ 2636
yöneticisi 2636
örlük 2636
akan 2635
çekim 2635
demokrati@@ 2634
üfetti@@ 2634
Pis@@ 2633
bağ 2633
Hollandalı 2632
astr@@ 2632
delik 2632
ehir 2632
ped@@ 2632
pişir@@ 2632
aşık 2631
bulut@@ 2631
manlar 2631
olağanüstü 2631
prens@@ 2631
çıkması 2631
Köprüsü 2630
açılış 2630
hayvanc@@ 2630
kitapları 2630
miktarı 2630
protesto 2629
sever@@ 2629
verilmektedir 2629
ındır@@ 2629
belirlem@@ 2628
Pot@@ 2627
anlaşması 2627
değiştirdi 2627
Pro 2626
dün 2626
meclis 2626
İstasyonu 2625
dikkatini 2623
Hur@@ 2622
iktir 2622
Psik@@ 2621
stratejik 2621
Ces@@ 2620
Mid@@ 2620
Sir 2620
doktor 2620
tiz@@ 2620
07 2619
etta 2619
politikası 2619
tartışma 2619
tro 2619
Ağrı 2618
halklardan 2618
tit@@ 2618
Ada 2617
büyüme 2616
eklen@@ 2616
enstr@@ 2616
konuşulan 2616
önemi 2616
Oto@@ 2615
eto 2615
saptan@@ 2615
Emir 2614
Fir@@ 2614
rengi 2614
İslami 2614
Portekizce 2613
bellek 2613
birimleri 2613
gezegen@@ 2613
macı 2613
Haned@@ 2612
imha 2612
ardan 2611
büyüdü 2610
ildir 2610
izler 2610
Lar@@ 2609
Lenin 2609
ertel@@ 2609
Amasya 2608
Timur 2608
biçimi 2608
kateg@@ 2608
TE@@ 2607
faz 2607
Metin 2606
dia 2606
İo@@ 2606
Kilise 2605
ky 2605
maksimum 2605
Mavi 2604
madığını 2604
piyano 2604
izi@@ 2602
geldiğini 2601
turu 2601
ack 2600
lıklarını 2600
raki@@ 2600
uyum 2600
antlaş@@ 2599
örnekleri 2599
Lam@@ 2598
bidir 2598
bölümünün 2598
cası 2598
isiydi 2598
kurmuştur 2598
bahar 2597
yanlısı 2597
Tiflis 2596
fikri 2596
huku@@ 2596
eğe 2595
kalıntıları 2594
komuta 2594
Ale@@ 2593
Mihail 2593
ayrılmış 2593
etmişlerdir 2593
Num@@ 2592
anah@@ 2592
nd@@ 2592
Harp 2591
don 2591
genişletil@@ 2591
Özbekistan 2591
Özgür 2591
çevresindeki 2591
War@@ 2590
kanal 2589
ment@@ 2589
liy@@ 2588
İzlanda 2588
Vek@@ 2587
grubuna 2587
kendisinden 2587
sever 2587
özü 2587
olurken 2586
zu@@ 2586
GB 2585
denize 2585
kolaylaştır@@ 2585
sorunlar 2585
deneysel 2584
Çalışma 2584
Disney 2583
Eli@@ 2583
osen 2583
uzat@@ 2583
Fik@@ 2582
konumu 2582
kurt 2582
zırhlı 2582
Hükümeti 2581
radyas@@ 2581
çözül@@ 2581
0,1 2580
AL 2580
Mam@@ 2580
Mars 2580
kuzeyde 2580
motoru 2580
stat@@ 2580
tepel@@ 2580
Sibirya 2579
avantaj@@ 2579
belirlemek 2579
araba 2578
cumhurbaşkanlığı 2578
ime@@ 2578
naz@@ 2578
nem@@ 2578
haklarını 2577
hali 2577
mürette@@ 2577
reç@@ 2577
sorunu 2577
.000 2576
aşkın 2576
dergisinde 2576
gibidir 2576
inae 2576
zirve@@ 2576
Sus@@ 2575
Süre@@ 2575
estrası 2575
Gur@@ 2573
Hum@@ 2573
Meydanı 2573
Seferi 2573
matematiksel 2573
Simon 2572
Cem 2571
acı@@ 2571
ematik 2571
golle 2571
güneyde 2571
yoluna 2571
cezasına 2570
ülkeyi 2570
Day 2569
Saray 2568
lah 2567
görünüş@@ 2566
oph@@ 2566
geride 2565
İran@@ 2565
Balt@@ 2564
Super 2564
etmesini 2564
illiği 2564
koalis@@ 2563
kullanmak 2563
makale 2563
oran 2563
gönüllü 2562
Dairesi 2561
Kong 2561
denk 2561
duk@@ 2561
kısım 2561
onda 2561
Mali@@ 2560
Niz@@ 2560
ente 2560
etkiley@@ 2559
ojen 2559
İler@@ 2559
Yaş 2558
dun 2558
yuv@@ 2558
Yaln@@ 2557
arma 2557
müzisyen@@ 2557
set 2557
İşleri 2557
Uğ@@ 2556
düzenlenmiştir 2556
hayv@@ 2556
sekizinci 2556
abad 2555
bahsedil@@ 2555
hayatının 2555
Yavuz 2554
tanımlanan 2554
tanımlanır 2554
hasta 2553
olun@@ 2553
anlamında 2552
like 2552
yarısı 2552
Pri@@ 2551
encer@@ 2551
malarında 2551
muhab@@ 2551
ry 2551
Rıza 2550
asyonları 2550
iss@@ 2550
rekab@@ 2550
ölçümü 2550
SA 2549
po 2549
kaldırıldı 2548
karışık 2548
oranında 2548
sipar@@ 2548
sonlandır@@ 2548
Çekoslov@@ 2548
popüler@@ 2547
Hamilton 2546
entr@@ 2546
hükümeti 2546
BM 2545
Hatta 2545
bombard@@ 2544
ketin 2544
kör@@ 2544
Okyan@@ 2543
Team 2543
oku 2543
Air 2542
Hız@@ 2542
kurum 2542
mezar 2542
oyunlar 2541
tiğinde 2541
Fox 2540
Meş@@ 2540
Sınıf@@ 2540
akıl 2540
yazmaya 2540
Fot@@ 2539
bugüne 2539
süredir 2539
Demok@@ 2538
etçi 2538
keşif 2538
kitabın 2537
topraklarında 2537
nüfusa 2536
yeti 2536
Meh@@ 2535
ikat@@ 2535
imzalanan 2535
kork@@ 2535
Bolu 2534
Genel@@ 2534
endiş@@ 2534
sinde 2534
uzaklaş@@ 2534
memur@@ 2533
olabileceği 2533
Victoria 2532
laz@@ 2532
tanrı 2532
teklifi 2532
şan 2532
Dolayısıyla 2531
karak@@ 2531
IS@@ 2530
Konservatuvarı 2530
köle 2530
Not@@ 2529
Teknoloji 2529
başlang@@ 2529
olabileceğini 2529
DE@@ 2528
Yüksek@@ 2528
mı 2528
yükselmiştir 2528
Mül@@ 2527
Vit@@ 2527
nadi@@ 2527
Hill 2526
PKK 2526
ó@@ 2526
şova 2526
alanan 2525
işleme 2525
madır 2525
ი 2525
Kre@@ 2524
bölgeler 2524
kaynaklanan 2524
lit@@ 2524
seslendirilen 2524
animasyon 2523
belki 2523
Hır@@ 2522
ão 2522
deri 2521
ich@@ 2521
söylenir 2521
1906 2520
Linux 2520
Tuna 2520
aker@@ 2520
dönemlerinde 2520
kas 2520
Gez@@ 2519
Steve 2519
net@@ 2519
liman 2518
şehristanı 2518
Day@@ 2517
esc@@ 2517
luğ@@ 2517
Wal@@ 2516
gecik@@ 2516
rakip 2516
Yah@@ 2515
sunulan 2515
biti@@ 2514
E. 2513
Juan 2513
Pel@@ 2513
entin 2513
restor@@ 2513
seçimlerde 2513
Got@@ 2512
bilimkurgu 2512
istediğini 2512
ES@@ 2511
Fili@@ 2511
Rob@@ 2511
düzenlediği 2511
şif@@ 2511
Sol 2510
devir@@ 2510
ister@@ 2510
kurban@@ 2510
ufak 2510
vokal 2510
yazarlar 2510
ısıt@@ 2510
atöl@@ 2509
devamı 2509
imde 2509
isy@@ 2509
3,@@ 2508
ST@@ 2508
hâlen 2508
öncelikle 2508
belgesel 2507
düşer 2507
hakimiyet@@ 2507
Bill 2506
ebilir@@ 2506
eğit@@ 2506
oğun@@ 2506
atta 2505
açmıştır 2505
haftalık 2505
suzluk 2505
söylen@@ 2505
İle@@ 2505
Dük@@ 2504
isa 2504
oksit 2504
Rod@@ 2503
duvar 2503
ürünü 2503
recek 2502
Ön 2502
ürünler 2502
Beledi@@ 2501
Eğitimi 2501
Kafkas 2501
cık 2501
ihtiyacı 2500
limi 2500
Bundesliga 2499
amaz@@ 2499
imkân@@ 2499
farklıdır 2498
ile@@ 2497
çel@@ 2497
Mahmut 2496
ept@@ 2496
Not 2495
Tony 2495
diya 2495
gular 2495
Sos@@ 2494
Sub@@ 2494
kesiminde 2494
Mühendis@@ 2493
sevgil@@ 2493
France 2492
Galler 2492
Seri 2492
erinden 2492
yaşına 2492
kaleci 2491
pot@@ 2491
ense 2490
indir 2490
meyd@@ 2490
pand@@ 2489
yumuşak 2489
Sam 2488
ance 2488
bölümden 2488
ji@@ 2488
teşkil 2488
opo@@ 2486
toplumun 2486
yapması 2486
ee 2485
sürecinde 2485
Cin@@ 2484
Nag@@ 2484
başarıyla 2484
ordusunu 2484
ıntı 2483
Şen@@ 2483
Konfeder@@ 2482
Lef@@ 2482
Pop 2482
anır 2482
gelmesi 2482
zayıf@@ 2482
C. 2481
Sün@@ 2481
meydan 2481
ameliy@@ 2480
geler 2480
gide 2480
parçalar 2480
gazetesinde 2479
Christian 2478
aye 2477
oto@@ 2477
pos 2476
temas 2475
Kahire 2474
Rey 2474
Mühendisliği 2473
Protest@@ 2473
Müs@@ 2472
ame 2472
1890 2471
verme 2471
sıralan@@ 2470
tuz 2470
element@@ 2469
etten 2469
Kaf@@ 2468
Sy@@ 2466
cut 2466
03 2465
Ek 2465
biliş@@ 2465
low 2465
egen 2463
plastik 2463
çuk@@ 2463
Avustur@@ 2462
amo@@ 2462
arke@@ 2462
güreş 2462
CD@@ 2461
Kahramanmaraş 2460
sağlam 2460
ıyan 2460
aley@@ 2459
avi@@ 2459
filmlerinde 2459
Kupa 2458
stan@@ 2458
well 2458
Edebiyat@@ 2456
YouTube 2456
Zaf@@ 2456
Boğazı 2454
Gerçek 2454
François 2453
ağr@@ 2453
une 2453
evde 2452
inter@@ 2451
tika 2451
çıkarıldı 2451
avir@@ 2449
Pam@@ 2448
haric@@ 2448
Cengiz 2447
Tuğ@@ 2447
diklerini 2447
ensis 2447
log@@ 2447
usunun 2447
Beh@@ 2445
evre 2445
ıca 2445
kare 2444
Pazar 2442
Polis 2442
reh@@ 2441
Kup@@ 2439
Murad 2439
alis@@ 2439
aray 2439
ous 2439
Arab@@ 2438
White 2438
ort 2437
ortal@@ 2437
Çayı 2437
Kale 2436
plak@@ 2436
ayd@@ 2435
ess 2435
umun 2435
ER@@ 2434
gey@@ 2433
mim@@ 2433
în 2433
boya 2432
Fas 2431
suy@@ 2431
Ö 2431
ıdır@@ 2431
bine 2430
icra 2430
kombin@@ 2430
rat@@ 2430
1876 2429
Walter 2429
eksi 2429
Ash@@ 2428
Ses@@ 2428
düncü 2428
etr@@ 2428
emb@@ 2427
urlu 2427
hesab@@ 2426
Mahallesi 2425
aber 2424
ū@@ 2423
Mac 2422
dor@@ 2420
isin 2420
salon@@ 2420
Finali 2419
Fut@@ 2419
Maked@@ 2419
eka 2419
nu@@ 2419
sekt@@ 2419
kut 2418
İt@@ 2418
has 2417
1877 2416
Cy@@ 2416
US@@ 2416
elec@@ 2415
helik@@ 2415
ispor 2415
Ere@@ 2414
Antakya 2412
enses 2412
urg 2411
rem 2410
ini@@ 2409
Ot@@ 2407
ilin 2407
nat@@ 2407
yendi 2406
air 2405
üler@@ 2405
ayar 2404
Cez@@ 2403
Zam@@ 2403
1896 2402
Fri@@ 2402
Oğuz 2402
Bahç@@ 2401
University 2400
hiper@@ 2400
ordur 2400
Zü@@ 2399
1904 2398
Lord 2398
Recep 2398
ng 2398
bank 2397
AM@@ 2395
Night 2395
uke 2395
kov 2394
1,5 2392
B. 2391
Ov@@ 2391
azam 2391
lon 2391
Hatay 2390
pilot 2390
Wilson 2388
Cad@@ 2386
alp@@ 2386
Slov@@ 2383
komit@@ 2383
mahk@@ 2383
ücret@@ 2383
10.000 2382
AD@@ 2382
ezid 2381
Arj@@ 2380
kimya 2378
Şahin 2378
ampiyon 2377
pey@@ 2377
Barcelona 2376
aliye@@ 2376
zen 2376
alya 2375
Sinop 2374
Sto@@ 2373
Arena 2372
elen 2370
form 2369
sch@@ 2367
Çarş@@ 2367
Mike 2365
Milano 2365
TÜ@@ 2365
Andrew 2364
Sist@@ 2364
ekt@@ 2364
direkt 2363
ej 2362
alay@@ 2361
evik 2361
bün@@ 2360
tadan 2360
House 2359
lah@@ 2359
Brian 2357
erg@@ 2357
í@@ 2357
retti 2355
Stephen 2354
luğunda 2354
lice 2353
Ail@@ 2352
ish 2352
dal 2351
Abdülham@@ 2350
kaza 2350
bır@@ 2347
Rön@@ 2346
Yo@@ 2346
uta 2345
Kurt 2344
hur@@ 2344
loj@@ 2344
Aslan 2343
Fi@@ 2343
ando 2343
asan 2343
AS 2342
Fark@@ 2342
Kri@@ 2342
Buenos 2341
Komis@@ 2341
1901 2339
Corporation 2339
anj@@ 2339
marka 2339
Kilis@@ 2338
SE@@ 2338
ado 2338
aport@@ 2338
afya 2337
distan 2337
isar 2337
parlament@@ 2337
S. 2336
Bülent 2334
Oxford 2334
büy@@ 2333
gut 2332
og 2332
Aires 2331
Kuy@@ 2331
fig@@ 2330
AL@@ 2327
sat 2327
uli@@ 2327
Bed@@ 2326
olim@@ 2326
-- 2325
ff 2323
ž@@ 2323
Holding 2322
sus@@ 2322
Len@@ 2321
kam 2320
Kaya 2319
Ceph@@ 2318
Kitab@@ 2318
riz@@ 2317
Tac@@ 2316
Yıldız@@ 2316
Elektrik 2314
ock 2314
zay@@ 2314
MS@@ 2313
Tiyatr@@ 2313
Saray@@ 2312
protokol@@ 2312
ster 2312
Mot@@ 2310
stand@@ 2310
Napoli 2309
ake 2308
umi 2308
Hans 2307
Rab@@ 2307
ë@@ 2307
Ş 2307
Yat@@ 2306
oa 2304
Kahr@@ 2303
ე@@ 2303
matik 2302
Championship 2300
rap@@ 2300
enci 2298
kol 2298
Hom@@ 2297
stratej@@ 2297
zek@@ 2297
Batman 2295
Bos@@ 2294
Jacques 2294
halef@@ 2291
Bank 2290
unları 2290
ettin 2288
kant@@ 2288
oman@@ 2287
ua 2287
ullah 2284
yesinde 2284
Pensil@@ 2282
Pil@@ 2282
mam 2282
yeye 2282
She@@ 2281
sed@@ 2281
Who 2280
mağlu@@ 2280
East 2278
Mont@@ 2278
Patr@@ 2278
Sloven@@ 2278
sson 2278
Bod@@ 2277
kontr@@ 2277
vey 2277
Grande 2276
oter@@ 2276
Emre 2275
vet@@ 2274
02 2273
Pu@@ 2273
Giz@@ 2272
part@@ 2271
Küçük@@ 2270
vesi 2270
öh@@ 2270
ert 2268
vah@@ 2268
Alt 2267
suya 2266
tran@@ 2266
hel@@ 2264
ido 2264
ihan@@ 2264
Boğ@@ 2263
ont@@ 2263
sans@@ 2262
Çav@@ 2262
Japon@@ 2261
cins@@ 2261
rul@@ 2260
Tre@@ 2258
dör@@ 2258
Gro@@ 2255
vin 2255
ashi 2254
hik@@ 2254
ombi@@ 2254
Nah@@ 2253
lil@@ 2253
Stone 2252
amm@@ 2251
elip@@ 2251
ımad@@ 2251
IM@@ 2250
Charlie 2249
ill 2249
Vah@@ 2248
ago 2247
plana 2247
8,@@ 2246
Tas@@ 2246
Art 2245
arya 2245
14.@@ 2244
Pet@@ 2243
lige 2243
130 2242
emp@@ 2242
tropo@@ 2241
Mark@@ 2240
sef@@ 2238
Arnavut@@ 2237
Gl@@ 2237
Rah@@ 2237
ksi 2236
lenti@@ 2236
hata 2235
uni 2235
Yöne@@ 2233
hü@@ 2233
Senat@@ 2232
Of 2231
vis@@ 2231
keleri 2230
ash 2229
önces@@ 2228
Newton 2227
Amerik@@ 2225
beden@@ 2222
odo@@ 2222
Key@@ 2221
1903 2220
Rak@@ 2220
Web 2220
che 2220
Tatar 2219
Tic@@ 2219
icat 2219
parlamento 2219
Lat@@ 2217
gre@@ 2217
Stad@@ 2215
Buz@@ 2212
yam@@ 2211
Swift 2210
alis 2210
urs 2210
normal@@ 2207
Hek@@ 2206
17.@@ 2203
denen 2203
Biz@@ 2202
Galaxy 2202
Ulus@@ 2202
iOS 2202
Alfred 2198
Filipin@@ 2198
mun@@ 2198
ie@@ 2197
Pale@@ 2195
HD 2194
Program@@ 2194
con@@ 2194
Kub@@ 2193
Ardahan 2190
Avustr@@ 2190
osa 2190
× 2189
üzel@@ 2189
Nit@@ 2187
beğ@@ 2187
ho 2187
16@@ 2186
als 2184
zırh@@ 2184
anim@@ 2183
Alice 2182
Green 2182
itz 2177
gl@@ 2176
Bitlis 2174
Muk@@ 2174
klem@@ 2174
Tur 2173
1880 2171
ont 2171
а@@ 2171
etle 2169
unum 2169
oru 2168
Cap@@ 2163
Tran@@ 2162
ebi 2162
jin@@ 2162
mür@@ 2162
Football 2161
Gec@@ 2160
bâ@@ 2160
omi 2158
ty@@ 2157
vili 2157
Gol@@ 2156
imi@@ 2156
ović 2155
yle@@ 2155
Im@@ 2154
Sudan 2154
rüz@@ 2154
Dü@@ 2153
Little 2153
Muhar@@ 2153
cr@@ 2153
hol@@ 2153
miz@@ 2153
ölçüm@@ 2152
Liz@@ 2150
ikam@@ 2150
Faz@@ 2149
Ohio 2149
gam@@ 2149
Petr@@ 2146
ikan@@ 2145
13.@@ 2144
50@@ 2143
00@@ 2142
mang@@ 2142
Eric 2141
Island 2140
ram@@ 2140
Parlamento 2139
Sap@@ 2139
Vali 2139
aller@@ 2139
dara 2139
Columbia 2137
II@@ 2137
anca 2137
Pak@@ 2136
Maine 2134
Kör@@ 2133
dat@@ 2133
mom@@ 2133
oshi 2133
რ@@ 2133
öf@@ 2132
seyah@@ 2131
PS 2130
Sit@@ 2130
ier 2130
müs@@ 2130
110 2129
Ras@@ 2129
eren 2129
spektr@@ 2129
stan 2129
Atlas 2128
Heinrich 2128
alak@@ 2128
landalı 2128
och@@ 2128
ded@@ 2127
mo 2127
şun@@ 2127
Cu@@ 2126
Kevin 2126
iben 2126
pta 2126
Euro 2123
ark 2123
ikil@@ 2121
uca 2121
cir 2119
ico 2119
Konstantin 2118
hil@@ 2118
Uşak 2117
dire@@ 2117
plat@@ 2117
çey@@ 2117
Illinois 2116
format@@ 2116
hes@@ 2116
portr@@ 2116
ney@@ 2115
ting 2115
uvarı 2113
Alex 2112
Center 2112
Yeş@@ 2112
ck 2112
Hon@@ 2110
ł@@ 2109
SB@@ 2108
ein 2108
ukur@@ 2108
bakır 2106
kong@@ 2106
rahats@@ 2106
Prag 2105
die 2104
Bask@@ 2103
Sistem@@ 2103
SS@@ 2102
W. 2102
esti@@ 2102
iran 2102
Ensti@@ 2100
Zonguldak 2100
tura 2100
miner@@ 2099
Ez@@ 2098
Hun@@ 2098
Mand@@ 2098
aziz 2098
cami@@ 2098
Dili 2097
Kara@@ 2097
cher 2097
öl 2096
Opera 2095
kritik 2095
sep@@ 2095
Yav@@ 2093
way 2092
Adnan 2091
Devlet@@ 2091
go@@ 2091
Ankar@@ 2090
kot@@ 2090
raz 2090
Adri@@ 2089
ikle 2089
Coğr@@ 2088
Fen@@ 2088
Adolf 2087
bran@@ 2087
seb@@ 2087
yar 2086
emir@@ 2085
buy@@ 2084
biz@@ 2083
tiz 2083
Euro@@ 2081
bert 2081
kapit@@ 2081
oth@@ 2081
sponsor@@ 2081
ehir@@ 2080
oğul@@ 2080
ulus 2080
Cambridge 2079
eştir@@ 2079
Blue 2078
Einstein 2078
Emin 2078
milit@@ 2077
ons@@ 2077
filme 2076
FI@@ 2075
bik 2075
iller@@ 2074
Hırv@@ 2073
ides 2073
inal 2073
ue 2073
UN@@ 2072
rest@@ 2072
í 2071
hai 2070
ümüş 2070
Nu@@ 2069
ine@@ 2069
mr@@ 2069
Jan@@ 2068
Porto 2068
eke 2068
Philadelphia 2067
tre@@ 2067
Hap@@ 2066
Michigan 2066
oid 2066
thi 2065
Salih 2064
Nat@@ 2063
moda 2063
1870 2062
Francis 2062
Seb@@ 2062
inn@@ 2062
eter@@ 2061
klar@@ 2059
Otto 2058
arr@@ 2058
lamada 2058
Sw@@ 2057
Anthony 2056
F. 2056
idin 2056
Politi@@ 2055
Chelsea 2053
Off 2053
our 2053
pref@@ 2053
rom 2053
lam 2052
lat 2052
Peru 2047
hus@@ 2047
ref 2047
sist@@ 2047
1897 2046
Kost@@ 2046
agon@@ 2045
raz@@ 2045
ümüz 2045
arca 2044
lif@@ 2044
Nem@@ 2043
atar 2043
rar@@ 2043
1500 2042
ımcısı 2040
Jon 2039
tron 2039
P. 2038
PlayStation 2038
Yu@@ 2038
Yorkshire 2036
aset 2036
ME@@ 2035
ator@@ 2034
hiç@@ 2033
nir 2033
Dost@@ 2032
1899 2031
Yemen 2029
PS@@ 2028
bo 2028
Š@@ 2027
DJ 2026
Harvard 2026
Luc@@ 2026
IP 2025
KP 2024
Panzer 2024
eki@@ 2024
etk@@ 2024
bal 2021
slo@@ 2020
Hid@@ 2018
Kiş@@ 2018
Vez@@ 2018
mana 2018
All@@ 2017
Liv@@ 2017
Kin@@ 2016
AC@@ 2015
Portekiz@@ 2015
Tug@@ 2014
hin@@ 2014
AT 2013
mut 2013
Street 2012
elleri 2012
reti 2012
Giovanni 2011
Afyonkarahisar 2010
Fey@@ 2010
Ren 2010
adele 2010
trav@@ 2008
24@@ 2007
NASA 2006
abat 2006
udu 2005
apa 2004
Burs@@ 2003
Noel 2003
9,@@ 2002
lebilir 2002
lie 2002
pop@@ 2001
Gürc@@ 2000
Frankfurt 1999
edem@@ 1999
VII 1998
Adıyaman 1997
fut@@ 1997
Azer@@ 1996
God@@ 1996
depres@@ 1996
siv@@ 1996
Ate@@ 1993
eh 1993
krip@@ 1992
iPhone 1991
üng@@ 1990
fan 1989
tüsü 1989
Ga@@ 1987
akl@@ 1987
acil 1986
ø@@ 1986
Go 1985
Is 1984
Tekir@@ 1984
com@@ 1984
tifik@@ 1984
1864 1983
I.@@ 1983
avant@@ 1983
Fin 1982
Wood@@ 1980
yüzünde 1980
CA@@ 1979
California 1979
Rick 1979
Teh@@ 1979
Hep@@ 1978
11,@@ 1977
Ca@@ 1976
matr@@ 1975
reb@@ 1975
Miy@@ 1974
bomb@@ 1974
deş 1974
Arslan 1972
SY@@ 1972
flor@@ 1972
ace 1971
öng@@ 1970
isler 1969
Universe 1968
Dah@@ 1967
Sho@@ 1966
MA 1965
ste@@ 1965
öre 1964
Hic@@ 1962
Just@@ 1962
Kons@@ 1961
aur@@ 1961
kast@@ 1961
lini 1961
Muş 1960
Villa 1960
dy 1960
karma@@ 1959
radik@@ 1959
Gaga 1958
Milan 1958
celi 1958
DS@@ 1956
kün@@ 1956
1895 1954
Arg@@ 1954
Atlantik 1954
opotam@@ 1954
Samuel 1953
Kuz@@ 1952
olik 1951
1885 1950
Serie 1950
imkâ@@ 1950
80@@ 1949
Lah@@ 1949
Mul@@ 1948
key@@ 1948
tili@@ 1948
û 1948
ikal@@ 1947
rekt@@ 1947
Küt@@ 1946
the@@ 1945
Kant@@ 1944
Radi@@ 1944
Sami 1944
okula 1944
usta 1944
1,2 1943
Game 1943
ush@@ 1943
amber 1942
chi@@ 1941
CO@@ 1940
anta 1940
him 1940
gus@@ 1939
imal@@ 1939
tap@@ 1939
Astr@@ 1937
tz 1937
Aleksandr 1936
cuya 1936
€ 1936
900 1935
Asteraceae 1935
Ci@@ 1935
South 1935
Ted@@ 1935
Teb@@ 1934
vo 1934
Ceb@@ 1933
park@@ 1933
Win@@ 1932
avar 1932
Hamburg 1930
Karaman 1930
Pon@@ 1930
Arsenal 1929
que 1929
L. 1928
yör@@ 1928
üstr@@ 1928
Kuv@@ 1927
tuk@@ 1927
heb@@ 1926
lez@@ 1926
oth 1926
Ray 1924
Ju@@ 1922
Hugo 1921
km@@ 1920
yp@@ 1919
Kos@@ 1918
Sen 1917
klor@@ 1917
Doctor 1915
Progr@@ 1915
G. 1914
Som@@ 1913
kariyer@@ 1913
risk 1913
Amsterdam 1912
Bad 1912
Model 1912
ves@@ 1912
1898 1911
Lak@@ 1911
30@@ 1910
Budap@@ 1910
hop 1910
Slo@@ 1908
reg@@ 1908
teles@@ 1908
ızca 1908
His@@ 1907
1889 1906
freguesia 1906
Cro@@ 1904
khan 1904
sens@@ 1904
Mobile 1903
lav 1903
Kov@@ 1901
Radio 1901
Yön@@ 1901
yeş@@ 1900
eter 1899
Yum@@ 1898
Mos@@ 1897
West@@ 1897
mat 1897
adel@@ 1896
uli 1896
çıkard@@ 1896
ana@@ 1894
Tir@@ 1893
sert@@ 1893
liberal 1892
yc@@ 1892
ichi 1891
off@@ 1891
ple@@ 1891
Jan 1888
Mill@@ 1887
Normal 1887
oe 1887
yun@@ 1887
Ast@@ 1886
Sinc@@ 1886
post@@ 1883
ref@@ 1883
Lad@@ 1882
Zor@@ 1882
Afrik@@ 1881
muz@@ 1881
Cos@@ 1880
Kent@@ 1880
Sun 1880
nük@@ 1880
este 1879
omen 1878
Bell@@ 1877
Lady 1876
pomp@@ 1876
Georgia 1875
Up 1875
bür@@ 1874
fonk@@ 1874
tram@@ 1874
11@@ 1873
lete 1873
ikos 1872
otor@@ 1872
Tel 1871
ath 1871
geometr@@ 1871
But@@ 1870
Mario 1869
çya 1869
trol@@ 1868
Society 1867
Tanz@@ 1867
ango 1867
vali 1867
Patrick 1866
lib@@ 1866
Fon@@ 1865
Bec@@ 1863
Said 1863
MP@@ 1862
rap 1862
Henri 1861
Leon 1860
Leon@@ 1860
Tw@@ 1860
akadem@@ 1860
Abbas 1859
Motor@@ 1859
Prim@@ 1859
Köln 1858
Association 1856
Bingöl 1856
Metal 1856
onom@@ 1856
yıla 1856
Arkad@@ 1855
Moldova 1855
iga 1855
etim@@ 1854
kayde@@ 1853
Black@@ 1852
Dep@@ 1852
engi 1852
Sali@@ 1851
atus 1851
Luis 1850
Rose 1849
Aleksand@@ 1848
hö@@ 1848
Franz 1847
tac@@ 1847
− 1845
Hati@@ 1844
å@@ 1844
Bus@@ 1843
SP@@ 1841
Din 1840
³ 1840
anse 1839
eno 1839
Pep@@ 1837
terci@@ 1837
Victor 1836
kili@@ 1836
16.@@ 1834
AP@@ 1834
Nur 1834
Allen 1833
Die 1833
alc@@ 1833
asti@@ 1833
ekar@@ 1833
sul 1833
imo 1832
Anderson 1831
Fabrik@@ 1831
obi 1831
Olu@@ 1830
Twitter 1830
Jr 1828
fret 1828
ment 1828
100.000 1827
gir 1827
Ses 1826
Bad@@ 1825
Miller 1825
liber@@ 1825
opter@@ 1824
60@@ 1823
Media 1822
Beni 1821
Konstant@@ 1820
Lincoln 1820
duran 1820
geome@@ 1820
tesp@@ 1820
tor 1820
Laborat@@ 1819
ings 1819
dez@@ 1817
lip 1817
ater@@ 1816
Cab@@ 1815
Del 1815
Roger 1815
vo@@ 1815
pay 1814
Jim 1813
Studios 1813
Town 1813
Tatar@@ 1812
ester@@ 1811
termin@@ 1810
tia 1810
Diego 1809
oi 1807
DT@@ 1806
Venezuela 1806
fat 1806
Üy@@ 1806
Olimpiyat@@ 1805
iter 1804
1860 1802
Adams 1801
disk 1801
rin 1801
strat@@ 1801
Jane 1800
ire@@ 1800
oti@@ 1800
Marcus 1799
Stockholm 1799
öd@@ 1799
sid@@ 1798
türk@@ 1798
jo 1797
15.@@ 1795
Benjamin 1794
acet@@ 1793
lus 1793
3000 1792
ania 1791
lâ@@ 1791
mas 1791
nova 1790
ax 1789
bury 1787
hara 1787
iat 1787
wa 1787
CE@@ 1785
1894 1783
metal@@ 1783
Halen 1781
Paz@@ 1781
Xbox 1781
Girl 1778
Christopher 1777
Dan 1777
21. 1776
Dead 1776
Dun@@ 1776
SO@@ 1775
oka 1774
Günümüz@@ 1772
Norman 1772
enj@@ 1772
kur 1772
tezi 1772
nic@@ 1771
ider@@ 1770
Franklin 1769
Nus@@ 1769
iste 1769
kule 1769
Nic@@ 1768
eles 1768
ep 1768
parta 1768
án 1768
aver@@ 1767
titr@@ 1767
Douglas 1765
Pay@@ 1765
akter@@ 1765
gur@@ 1765
kop 1764
ome 1764
int 1763
Güm@@ 1762
worth 1761
Johann 1760
Your 1760
âz@@ 1760
Davis 1759
Les@@ 1759
belge 1759
obj@@ 1759
ogen@@ 1759
otel 1759
rağ@@ 1759
oks 1758
ors 1758
28@@ 1757
Antark@@ 1756
Direkt@@ 1756
sis@@ 1756
tes 1756
fen 1755
Lov@@ 1754
col@@ 1754
iliyor@@ 1753
ned@@ 1753
teri@@ 1753
Organiz@@ 1752
kali@@ 1752
eman 1751
Wh@@ 1750
ingen 1749
19.@@ 1748
MP 1748
irt 1748
nel 1747
pre@@ 1747
Aster 1745
ight 1745
out 1745
veç@@ 1745
Deb@@ 1743
Krist@@ 1743
eba 1743
pist@@ 1743
tus 1743
… 1743
20.@@ 1742
Connecticut 1741
IC@@ 1741
Karag@@ 1741
oker 1741
Mich@@ 1740
Uruguay 1740
180 1739
Wat@@ 1739
ä@@ 1739
SmackDown 1738
Tuz@@ 1737
enk@@ 1736
1893 1735
Network 1735
Pul@@ 1735
Star@@ 1735
Whit@@ 1735
ember@@ 1735
okras@@ 1735
Facebook 1734
unlu 1733
talık 1732
lus@@ 1730
car 1728
vs 1728
yl 1728
plerinden 1727
Slav 1725
Lake 1724
Boy 1723
ogr@@ 1722
Ryan 1721
emis@@ 1721
kuy@@ 1721
agan 1720
tig@@ 1720
Festival 1719
emati@@ 1719
bel 1718
pin@@ 1718
40@@ 1716
amin@@ 1716
fabr@@ 1716
tev@@ 1716
1800 1715
Kazak@@ 1715
Song 1715
kamp 1715
evin 1714
Bâ@@ 1713
Cannes 1713
iliz@@ 1713
Kazan 1711
TO@@ 1711
dad@@ 1711
18.@@ 1710
d.@@ 1709
IX 1708
Lise 1706
patr@@ 1706
Bart@@ 1705
CEO 1705
Lav@@ 1705
Zer@@ 1705
Sm@@ 1704
.S. 1703
1882 1702
linde 1702
tion 1702
Jar@@ 1701
Pur@@ 1701
S.@@ 1701
inf@@ 1701
porno@@ 1701
Barbar@@ 1700
Emmy 1700
Post@@ 1700
Lawrence 1698
Minnesota 1698
amer@@ 1698
dekor@@ 1698
27@@ 1697
ny 1697
Shin@@ 1696
ლ@@ 1696
1892 1695
Mun@@ 1695
atle@@ 1695
ometr@@ 1695
Michel 1693
TA 1693
ender 1693
restore 1693
Nintendo 1692
VIII 1691
otu 1691
from 1690
sten 1690
1881 1689
26@@ 1689
Bru@@ 1689
Nil@@ 1689
fordshire 1689
ibi 1689
High 1688
row 1688
adap@@ 1687
aa 1686
azz@@ 1686
dikt@@ 1686
Güven@@ 1685
We 1685
18@@ 1684
Erk@@ 1684
Pictures 1683
aton 1683
jener@@ 1683
Dek@@ 1682
Queen 1682
Yeh@@ 1682
Yos@@ 1682
dre@@ 1680
zat 1680
Fal@@ 1679
ate@@ 1679
eth 1679
los 1678
agog@@ 1677
arz@@ 1677
mezun@@ 1676
Best 1675
icus 1675
nh@@ 1675
nar 1674
Motor 1673
bire@@ 1673
lum 1673
Dec@@ 1672
Ze@@ 1672
amin 1672
ա@@ 1672
zar 1670
Apol@@ 1669
Bou@@ 1668
Metro 1668
das 1668
Augustus 1667
liter@@ 1667
fin 1666
like@@ 1666
Antal@@ 1665
AE@@ 1664
Ark@@ 1664
Tekn@@ 1664
Toronto 1664
Vo@@ 1664
azan 1664
m. 1664
ska 1664
23@@ 1662
Domin@@ 1662
Singapur 1662
kuz 1662
leti 1662
arif 1661
topo@@ 1660
Kongo 1657
dit@@ 1657
Ruh@@ 1656
Sum@@ 1656
Bush 1654
Land@@ 1654
PE@@ 1654
Rec@@ 1654
sius 1654
madeni 1653
ehrin 1652
Nav@@ 1651
kans 1651
Dic@@ 1650
Zeus 1650
maktad@@ 1649
IS 1648
embe 1648
enberg 1648
́ 1648
kompl@@ 1647
Fol@@ 1646
River 1646
North@@ 1645
bana 1645
nis@@ 1645
fet@@ 1644
Games 1643
Sarah 1643
Vincent 1643
otiv 1642
Aer@@ 1640
1891 1639
Blu@@ 1639
Sz@@ 1639
ebr@@ 1639
Lombar@@ 1638
Peter@@ 1638
Elek@@ 1637
Tibet 1637
bach 1637
riz 1637
33,@@ 1636
Warner 1636
tere 1636
AK@@ 1635
Alg@@ 1635
Liber@@ 1634
Krall@@ 1633
ett@@ 1633
udan 1632
Matt 1631
RAM 1631
aria 1631
klinik 1631
101 1630
M.@@ 1630
Schleswig 1628
25@@ 1626
Herak@@ 1626
Mahkem@@ 1626
UCI 1625
heim 1624
sek 1624
29@@ 1623
nez@@ 1623
onia 1623
türel 1623
use 1623
Flam@@ 1622
1835 1621
Maur@@ 1621
plas@@ 1621
ison 1620
akıl@@ 1619
metro 1619
ă@@ 1618
London 1617
ansiy@@ 1617
Ful@@ 1616
Slav@@ 1616
aus@@ 1616
2.000 1615
Abr@@ 1615
K. 1615
Sabah 1615
ory 1615
ife 1614
tay 1613
ics 1612
agn@@ 1611
Sonuç@@ 1610
jan 1610
mon 1610
Be 1609
cor@@ 1609
15@@ 1608
Ferdinand 1608
maye 1608
filtr@@ 1607
ibe 1607
Kus@@ 1606
old 1604
Elektronik 1603
ack@@ 1601
star 1601
125 1600
Eg@@ 1600
Ther@@ 1600
aten 1600
Minas 1599
aja 1599
ök@@ 1599
Jay 1598
cl@@ 1598
ium 1598
140 1597
ax@@ 1597
British 1596
Play@@ 1596
AM 1595
pam@@ 1595
FM 1594
Leo 1594
Pres@@ 1594
eria 1594
tra@@ 1594
arius 1593
ca@@ 1593
elia 1593
leer 1593
Rev@@ 1591
Belç@@ 1590
Charlotte 1588
FF 1587
Ferrari 1586
air@@ 1586
bad@@ 1586
ith 1586
Jason 1585
parlam@@ 1585
ei@@ 1584
enter 1584
more 1583
Marx 1582
Silah@@ 1582
Bernard 1581
ow 1581
0,6 1580
anime 1580
doğru@@ 1580
onlyinclude 1580
Selçuk@@ 1579
oria 1579
Lang@@ 1577
Spar@@ 1577
kun 1577
Wrestling 1575
ier@@ 1575
1.000 1574
Bruce 1574
Miami 1574
ag 1574
Gam@@ 1572
IN@@ 1572
azam@@ 1572
may 1572
Cop@@ 1570
KA 1570
addin 1570
oli 1570
Andrea 1569
Basil@@ 1569
Howard 1569
Karat@@ 1569
fah 1569
fes 1569
tesis 1569
1848 1568
Holstein 1567
Kelly 1567
Pers@@ 1567
Philip 1567
2,5 1566
Bell 1566
vamp@@ 1566
Gun@@ 1565
Jür@@ 1565
Kle@@ 1565
ayn 1565
müc@@ 1565
res 1565
Lind@@ 1564
illi@@ 1563
America 1562
Batt@@ 1562
Strat@@ 1562
laf 1562
ait@@ 1561
tica 1561
Petersburg 1560
Til@@ 1560
tadır 1560
Anton@@ 1559
Long 1559
Maj@@ 1559
iletiş@@ 1559
Dance 1558
Mali 1558
Part@@ 1558
Post 1558
Ran@@ 1558
asu 1558
ein@@ 1558
Gordon 1557
Performan@@ 1557
Py@@ 1557
kana 1557
oldu@@ 1557
eda 1556
lav@@ 1556
Laur@@ 1554
Muz@@ 1553
olata 1553
1867 1552
1888 1552
Bau@@ 1552
Janeiro 1551
oton@@ 1551
Voy@@ 1550
eng 1550
hipo@@ 1550
mevcut@@ 1550
pa@@ 1550
1884 1549
23.@@ 1549
filos@@ 1549
mar 1549
CS@@ 1548
Helsinki 1548
Nil 1547
PA 1547
Lap@@ 1546
Manuel 1546
Nikolay 1546
gönül@@ 1546
mâ@@ 1546
AN 1545
Indiana 1545
Marvel 1545
eğl@@ 1545
Kati@@ 1544
List@@ 1544
Mr 1544
Pic@@ 1544
able 1544
begin 1544
işletil@@ 1544
Lid@@ 1543
Nez@@ 1543
TP 1543
This 1543
alay 1543
Bryan 1542
adem@@ 1541
köğ@@ 1541
oride 1541
rah 1541
tol@@ 1540
ning 1539
Las 1538
ough 1538
Bran@@ 1536
Russell 1536
bot 1536
filmi@@ 1536
20.000 1535
traj@@ 1534
Net@@ 1533
Phone 1533
RT@@ 1533
iner@@ 1533
{ 1533
ager 1532
eck 1532
ester 1532
nor@@ 1532
ú@@ 1532
TV@@ 1531
aun@@ 1531
İsviç@@ 1531
Organ@@ 1530
eff@@ 1530
âm 1530
ametr@@ 1529
api 1529
nes 1529
olduk@@ 1529
Abdul@@ 1528
Sankt 1528
Mess@@ 1527
asen 1527
lâm 1527
Hus@@ 1526
kru@@ 1526
Steven 1524
mav@@ 1523
RE@@ 1522
alle@@ 1522
ნ@@ 1522
rün@@ 1520
tenis 1520
tras@@ 1520
1865 1518
Dre@@ 1518
Konfer@@ 1518
Rihanna 1518
17@@ 1517
Out 1517
Sn@@ 1517
deleg@@ 1517
Houston 1516
Doktor@@ 1515
´ 1515
Ej@@ 1514
bilgis@@ 1514
Andre@@ 1513
Bog@@ 1513
uzaklık@@ 1512
Dro@@ 1511
dale 1511
niz@@ 1511
Fernando 1510
KK@@ 1510
Fair@@ 1509
Ludwig 1509
Tim 1509
obil@@ 1509
Mercedes 1508
mete 1508
Margaret 1507
tom 1507
Marshall 1506
Shi@@ 1506
ame@@ 1505
ander 1505
ble 1505
Guy 1504
Pedro 1504
house 1504
zon 1504
Danim@@ 1502
Elem@@ 1502
Hidro@@ 1502
SV 1501
ais@@ 1501
diplomat 1501
ju 1500
Duy@@ 1499
Kennedy 1499
News 1499
Tul@@ 1499
mün@@ 1499
www.@@ 1499
Reis 1498
tr 1498
Boliv@@ 1497
LE@@ 1497
Potter 1497
ahş@@ 1496
1887 1495
ail 1495
ros 1495
1871 1494
Drama 1494
NO@@ 1494
Wol@@ 1494
Theod@@ 1493
aus 1493
bos@@ 1493
à 1493
Bag@@ 1491
Tit@@ 1491
kil 1491
ris 1491
gag@@ 1490
Boeing 1489
Om@@ 1489
ahan 1489
ako 1489
istil@@ 1489
versi@@ 1489
Ing@@ 1488
zad@@ 1488
DS 1486
ju@@ 1486
skaya 1486
we 1486
Van@@ 1485
160 1484
Hop@@ 1484
dig@@ 1484
edan 1484
kilit@@ 1484
plant@@ 1484
sn@@ 1483
uman 1483
zan@@ 1483
aks 1482
belle@@ 1482
arru@@ 1480
komp@@ 1480
105 1479
First 1479
Roman@@ 1479
Harris 1478
zır@@ 1478
Gabriel 1476
Hampshire 1475
Hin@@ 1475
Ernst 1474
Les 1474
Lisa 1474
Turn@@ 1474
Yang@@ 1474
bro@@ 1474
ideal 1474
nada 1474
Sky@@ 1473
pembe 1473
Sidney 1472
T. 1472
Will 1472
Wo@@ 1472
Rez@@ 1471
ceb@@ 1471
dit 1471
Anim@@ 1470
Yahya 1470
Aviv 1469
LGBT 1469
site 1469
1850 1468
64,@@ 1468
Balık@@ 1468
ador 1468
letin 1468
ovo 1468
stati@@ 1467
Kun@@ 1466
Dür@@ 1465
Rag@@ 1465
Telek@@ 1465
arki 1465
cir@@ 1465
monte 1464
BA 1463
DA 1463
Poly@@ 1463
BB 1461
Vis@@ 1461
bra 1461
oga 1461
Kru@@ 1460
Moore 1460
MI@@ 1458
Intel 1457
yu@@ 1456
Dig@@ 1455
ault 1455
jin 1455
lej@@ 1455
metabol@@ 1455
X. 1454
keli 1454
DE 1453
Dark 1453
To 1453
MC 1452
Nick 1452
ahi@@ 1452
polar@@ 1452
reden 1452
š 1451
Fur@@ 1450
arom@@ 1450
hy@@ 1450
hâl@@ 1450
3D 1449
umb@@ 1449
ass 1448
esk@@ 1448
1.5 1446
Program 1446
Shakespeare 1446
Shar@@ 1446
endem@@ 1446
Ya@@ 1445
Claude 1444
aster@@ 1444
vay 1444
Ball@@ 1443
Reh@@ 1443
Sau@@ 1443
Tig@@ 1443
Jimmy 1442
Morgan 1442
isse 1442
1883 1441
back 1441
Bet@@ 1440
kurgu 1440
Büro@@ 1439
Death 1439
ader 1439
dua 1439
İspanyol@@ 1439
elendir@@ 1438
Gior@@ 1437
Robin 1437
tâ@@ 1437
Aur@@ 1436
Lü@@ 1436
Pad@@ 1435
presti@@ 1435
State 1434
TL 1434
ais 1434
div@@ 1434
etkisi@@ 1434
US 1433
AB@@ 1432
Donald 1432
firma 1432
ī@@ 1432
bomba 1431
yumuş@@ 1431
Eğiti@@ 1430
Girls 1429
tha 1429
Broadway 1428
Edi@@ 1428
Jeff 1428
Kot@@ 1428
keti 1428
prati@@ 1428
350 1427
Arts 1427
Enter@@ 1427
Do 1426
dos 1426
ios 1426
jür@@ 1426
vac@@ 1426
2.0 1425
Kand@@ 1425
Great 1424
Netflix 1424
200@@ 1423
alini 1421
gran@@ 1420
rum 1420
Universal 1418
cha 1418
amo 1417
stone 1416
Nan@@ 1415
eira 1415
gh@@ 1415
antal 1414
iTunes 1414
1863 1413
Manhattan 1413
Dimi@@ 1412
Norman@@ 1412
ex@@ 1412
ther@@ 1412
ო@@ 1412
RO@@ 1411
depart@@ 1411
oba 1411
oidea 1411
oğu 1411
yir@@ 1411
Wi@@ 1410
yin 1410
ón 1410
Oliver 1408
kala 1408
Boris 1407
Gul@@ 1407
tem 1406
35@@ 1405
Pod@@ 1405
ij@@ 1405
vir 1405
Moh@@ 1404
yes@@ 1404
Way 1403
jet 1403
ray 1403
AV@@ 1402
Alem@@ 1402
Good 1402
ote 1402
Ross 1401
Venedi@@ 1401
thr@@ 1401
£ 1401
Gogh 1400
Rap@@ 1400
Under@@ 1400
ody 1400
platform 1400
Geor@@ 1399
kuts@@ 1399
Banglad@@ 1398
aham@@ 1398
dae 1398
kost@@ 1398
0,3 1397
3.000 1397
Lag@@ 1397
Sib@@ 1397
caya 1397
ech 1397
uch@@ 1397
Riz@@ 1395
Wayne 1395
jan@@ 1395
Studio 1394
soh@@ 1394
Lost 1393
vel 1393
Cena 1392
heter@@ 1392
Kok@@ 1391
Liberal 1391
ady 1391
ante 1390
AG@@ 1389
Kate 1389
dec@@ 1389
rine 1389
Cle@@ 1388
Bayern 1387
Mora 1387
1875 1386
ET@@ 1385
Ostr@@ 1385
bahçe 1385
ston 1385
Mass@@ 1384
Out@@ 1384
zo@@ 1384
Office 1382
Serv@@ 1382
eer 1382
pik@@ 1382
vim@@ 1382
yk@@ 1382
An 1381
Dublin 1381
Jer@@ 1381
Johnny 1380
Thor@@ 1380
olo 1380
1873 1379
Vor@@ 1379
lob@@ 1379
Haw@@ 1378
Must@@ 1378
isten 1378
apar@@ 1377
asim@@ 1377
war@@ 1377
Bri@@ 1376
Fah@@ 1376
Miguel 1376
tum 1375
1830 1373
Jordan 1373
Ligue 1373
Rot@@ 1373
SD@@ 1373
asy@@ 1373
ness 1373
AD 1372
Division 1372
ABC 1371
TS 1371
A2 1370
abak@@ 1370
aksi 1370
iral 1367
sigara 1367
Barbara 1366
ae@@ 1366
cin 1366
gön@@ 1366
maf@@ 1366
Hot@@ 1365
Sag@@ 1365
ole@@ 1365
о@@ 1365
Bern@@ 1364
mus 1364
ë 1364
Amazon 1363
AG 1362
CIA 1362
Conn@@ 1362
Kan 1362
Last 1362
agon 1362
elt 1362
liv@@ 1362
deb@@ 1361
esi@@ 1361
Missouri 1360
aud 1360
Store 1359
itz@@ 1359
oki 1359
Lan@@ 1358
128 1357
Kopen@@ 1356
Helen 1354
trin@@ 1354
Channel 1353
Jerry 1353
Kob@@ 1353
Jonathan 1352
Yus@@ 1352
oke 1352
Hü@@ 1351
Kron@@ 1351
Mach@@ 1351
iki@@ 1351
oid@@ 1351
Pit@@ 1350
Zel@@ 1350
piter 1349
22.@@ 1348
Carlo 1347
Ob@@ 1347
Pom@@ 1347
ümer 1347
inay@@ 1346
Seattle 1345
Torino 1345
ric@@ 1345
Clar@@ 1344
Julia 1344
1868 1343
kulu 1343
Gag@@ 1342
ave@@ 1342
1834 1341
ones 1341
Karad@@ 1340
Para 1340
anatom@@ 1340
Lyon 1339
New@@ 1339
alimanı 1339
bira 1339
enza 1339
geb@@ 1339
Frederick 1338
Che@@ 1337
Riv@@ 1337
tidae 1337
FIBA 1336
GP@@ 1336
Slam 1336
eon 1336
alde 1335
BC 1334
mol@@ 1334
Open@@ 1333
Hul@@ 1332
Süley@@ 1332
Yugoslav 1332
ME 1331
RT 1331
idea 1331
lor@@ 1331
Olimpi@@ 1330
Tart@@ 1330
Junior 1329
Nüf@@ 1329
enburg 1329
hin 1329
prom@@ 1329
ó 1329
1861 1328
Lüt@@ 1328
Raf@@ 1328
hen@@ 1328
meme 1328
Arti@@ 1327
Telef@@ 1327
gio 1327
Atlanta 1326
Santos 1326
1879 1325
Ris@@ 1325
ps@@ 1325
sc@@ 1325
Cul@@ 1324
band@@ 1324
Li 1323
amet@@ 1323
yid 1323
36@@ 1322
André 1322
duk 1322
Gold@@ 1320
Sparta 1320
Tennessee 1320
70@@ 1319
AR 1319
sir 1319
arp@@ 1318
vod@@ 1318
eau 1317
AF 1316
Ivan 1316
Raymond 1316
Ye@@ 1316
didae 1316
1872 1315
Bin 1315
Leningrad 1315
That 1315
Müh@@ 1314
Ober@@ 1314
meg@@ 1314
tral 1314
ikon 1313
Mant@@ 1312
Ya 1312
Kamb@@ 1311
dokum@@ 1311
omer@@ 1311
pin 1311
ron@@ 1311
} 1311
Sv@@ 1310
obil 1308
ose@@ 1308
Heart 1307
Wright 1307
moderni@@ 1307
TH@@ 1306
Hoc@@ 1305
Mart@@ 1305
iman 1305
ves 1305
000.000 1304
Aristot@@ 1304
E.@@ 1304
Viz@@ 1304
keh@@ 1304
lebil@@ 1303
ui 1303
Geb@@ 1302
mir 1301
http 1300
1.0@@ 1299
Juli@@ 1299
What 1299
RC 1298
fres@@ 1298
hir@@ 1298
lov@@ 1298
pag@@ 1298
21.@@ 1297
Wor@@ 1297
tok@@ 1297
probl@@ 1296
Gas@@ 1295
Maya 1295
1874 1294
Kıbr@@ 1294
Marino 1294
we@@ 1294
Hard@@ 1293
Home 1293
eth@@ 1293
assa 1292
tron@@ 1292
1840 1291
Krali@@ 1291
Santiago 1290
fantas@@ 1290
tiv@@ 1290
für 1289
Lab@@ 1288
ambi@@ 1288
tali@@ 1288
ech@@ 1287
Boys 1286
Golden 1286
alit@@ 1286
graf 1286
Austin 1285
Dave 1285
Perry 1285
SD 1285
anor@@ 1285
unt 1285
asıl@@ 1284
kini 1284
seg@@ 1284
Caf@@ 1283
FO@@ 1283
Justin 1283
Poe 1283
Rolling 1283
bec@@ 1283
imb@@ 1283
mu 1283
prim@@ 1283
problem 1283
Zo@@ 1282
par 1281
side 1281
tw@@ 1281
Family 1279
Josef 1279
had 1279
Medi@@ 1278
owski 1277
33@@ 1276
beta 1276
UK 1275
Gari@@ 1274
ew@@ 1273
kont@@ 1273
obu 1273
Gran@@ 1272
akus@@ 1272
Road 1271
Zen@@ 1271
kulüb@@ 1271
Inc 1270
pes 1270
cid@@ 1269
til 1269
yumu 1269
É@@ 1269
Billy 1268
Reich 1268
Stefan 1268
NE@@ 1267
MK@@ 1266
Sep@@ 1266
anik@@ 1266
fil 1266
Airlines 1265
Cola 1265
IC 1265
ely 1265
Amy 1263
aer@@ 1263
eji 1263
Bron@@ 1262
Cerr@@ 1262
Ox@@ 1262
Roc@@ 1261
ago@@ 1261
undu 1261
120@@ 1260
Adap@@ 1260
Sl@@ 1260
Yok@@ 1260
esen 1260
imal 1260
uh 1260
Old 1259
Single 1259
Julius 1258
manga 1258
nen 1258
trat 1258
Wit@@ 1257
abr@@ 1257
ary@@ 1257
Matthew 1256
urn@@ 1256
War 1255
Eu@@ 1254
ades 1254
Kang@@ 1253
Koy@@ 1253
Lib@@ 1253
1866 1252
And 1252
isp@@ 1252
Koca@@ 1251
Başlang@@ 1250
Brooklyn 1250
Kansas 1250
Luk@@ 1250
alik 1250
rod@@ 1250
Catherine 1249
Marc 1248
Spe@@ 1248
ecz@@ 1248
Grig@@ 1247
Union 1247
Utah 1247
win 1247
Jov@@ 1246
hay 1246
Azerbay@@ 1245
Copa 1245
Renault 1245
Sonic 1245
onn@@ 1245
riter@@ 1245
usi 1245
B.@@ 1244
Jac@@ 1244
alla 1244
amoto 1244
Clark 1243
Fort 1243
Wa@@ 1243
ding 1243
fu 1243
Dream 1242
Port 1242
Vok@@ 1242
edon 1242
güt@@ 1242
king 1242
that 1242
10,@@ 1241
Cass@@ 1241
Cruz 1241
Teş@@ 1241
ehr 1241
folkl@@ 1241
geni 1241
Hes@@ 1240
VI@@ 1240
ibn 1240
ვ@@ 1240
Oklahoma 1239
hibe 1239
propaganda 1239
Leg@@ 1237
Nis@@ 1237
ande 1237
Gh@@ 1236
ex 1236
tema 1236
stra 1235
alize 1234
aran@@ 1234
Dallas 1233
MO@@ 1233
coğr@@ 1233
esp@@ 1233
inda 1233
reform 1233
Neb@@ 1232
450 1231
Cah@@ 1231
ust 1230
Koh@@ 1229
Power 1229
ikan 1229
iss 1229
mun 1229
non 1229
onte 1229
Dim@@ 1228
anga 1228
icum 1228
uf 1228
‭ 1228
Cru@@ 1226
Ian 1226
Phoenix 1226
Series 1226
Apollo 1225
Digital 1225
Fab@@ 1225
Git@@ 1225
Him@@ 1225
arl@@ 1225
Eskiş@@ 1224
Kane 1224
NXT 1224
Salon 1224
Gav@@ 1223
Shel@@ 1223
ubu@@ 1223
1869 1222
Big@@ 1222
Gary 1222
Darwin 1221
Kli@@ 1221
Mirza 1221
imm@@ 1221
pes@@ 1221
ს@@ 1220
Andy 1219
Ed 1219
Nova 1219
Vest@@ 1219
pan 1219
prov@@ 1219
Beach 1218
Co 1218
aco 1218
hang@@ 1218
ē@@ 1218
Jap@@ 1217
Zar@@ 1217
Dog@@ 1216
Sean 1216
Seg@@ 1216
dic@@ 1216
kuk@@ 1216
lac@@ 1215
æ@@ 1215
Ath@@ 1214
Philippe 1214
Pont@@ 1214
Ric@@ 1214
pis@@ 1214
Č@@ 1214
1200 1213
Afr@@ 1213
Like 1213
Platon 1213
app@@ 1213
daima 1213
tun@@ 1213
zin 1213
Luke 1212
cada 1212
gram 1212
Alternati@@ 1211
organ 1211
otr@@ 1211
Cher@@ 1210
ISO 1210
Space 1210
Bac@@ 1209
Dinamo 1209
fün@@ 1209
uba 1209
Astronom@@ 1208
Colorado 1207
gor@@ 1207
Dul@@ 1206
Seul 1206
basi 1206
Air@@ 1205
Dean 1205
Valley 1205
lum@@ 1205
armon@@ 1204
Hind@@ 1203
borg 1203
erc@@ 1203
Journal 1202
Toyota 1201
Simp@@ 1200
ason 1200
bus 1200
gene 1200
Hag@@ 1199
Rid@@ 1199
escu 1199
ê@@ 1199
Toplul@@ 1198
Vati@@ 1198
Madison 1197
Rol@@ 1197
aph@@ 1197
modern@@ 1197
Gri@@ 1196
igo 1196
13,@@ 1195
Ele@@ 1195
Cour@@ 1194
amiral 1194
anger 1194
ect 1194
Homer 1193
pon 1193
feminist 1192
rop@@ 1192
Cleveland 1191
Jacob 1191
Kenya 1191
aide 1191
opl@@ 1191
sidir 1191
Tang 1190
Vic@@ 1190
ss@@ 1190
Internet 1189
PO@@ 1189
RS 1189
hormon@@ 1189
170 1188
Lem@@ 1188
cell@@ 1188
paral@@ 1188
puan@@ 1188
Gerais 1187
Leipzig 1187
Trump 1187
muz 1187
punk 1187
ée 1187
oli@@ 1186
say 1186
zil@@ 1186
ember 1185
uck 1185
Carter 1184
Detroit 1184
etab@@ 1184
gri@@ 1184
hid 1184
modi@@ 1184
Ajax 1183
Hawaii 1183
Pan 1183
Pos@@ 1183
nar@@ 1183
Galer@@ 1182
Mi 1182
tri 1182
Story 1181
`@@ 1181
Row@@ 1180
kit 1180
Erd@@ 1179
Guang@@ 1179
Sul 1179
orn 1178
Roberto 1177
T.@@ 1177
itum 1177
oko 1177
sburg 1177
Rachel 1175
Zh@@ 1175
Burg@@ 1174
Rest@@ 1174
Styles 1174
aren@@ 1174
inist 1174
Sovyet@@ 1173
cay@@ 1173
ino@@ 1173
omb@@ 1173
Gan@@ 1172
gas@@ 1172
uhan 1172
ysel 1172
illo 1171
At 1170
Phil@@ 1170
igh@@ 1170
shi 1170
propag@@ 1169
tic 1169
Bra@@ 1168
Tiber@@ 1168
Miz@@ 1167
17,@@ 1166
Festiv@@ 1166
Pac@@ 1166
Franco 1165
RI@@ 1165
alia 1165
Oslo 1164
Rock@@ 1164
spir@@ 1164
Gab@@ 1163
Mic@@ 1163
5000 1162
Taliban 1162
tiva 1162
Sis@@ 1161
Cooper 1160
Emma 1160
Light 1160
biyle 1160
ds 1160
eviz@@ 1160
ther 1160
‬ 1160
Silva 1159
Spike 1159
UR@@ 1159
gs 1159
fed@@ 1158
ron 1158
ümüz@@ 1158
medir 1156
100@@ 1155
Down 1155
Georges 1155
Juventus 1155
direk@@ 1155
kura 1155
sum@@ 1155
Best@@ 1154
Jennifer 1154
Ny@@ 1154
Run@@ 1154
ank@@ 1154
Ah 1153
ider 1153
zer 1153
12,@@ 1152
Greg@@ 1152
borough 1152
its 1152
Harr@@ 1151
án@@ 1151
135 1150
aliyet 1150
Acon@@ 1149
Green@@ 1149
Jos@@ 1149
Va@@ 1149
Hermann 1148
apart@@ 1148
Moon 1147
Sher@@ 1147
amino 1147
Anti 1146
LA 1146
\ 1146
მ@@ 1146
4.000 1145
asta 1145
ista 1145
Aki@@ 1144
CP 1144
For 1144
Sec@@ 1144
Var 1144
Vide@@ 1144
caz@@ 1144
ín 1144
ATP 1143
Alberto 1143
Mang@@ 1143
Ofisi 1143
Vermont 1143
ague 1143
Stein@@ 1142
Tank 1142
gesel 1142
oskop@@ 1142
trom@@ 1142
Lau@@ 1141
Museum 1141
Tommy 1141
1862 1140
Gib@@ 1140
eran 1140
ê 1140
Dos@@ 1139
Magic 1139
ındayken 1139
Bart 1138
Jefferson 1138
Sou@@ 1138
Wisconsin 1138
aeus 1138
ever 1138
robot@@ 1138
she 1138
3,5 1137
Frank@@ 1137
Lucas 1137
Us@@ 1137
ated 1137
atur@@ 1137
ges 1137
ikon@@ 1137
nan 1137
uchi 1137
Central 1136
Suffolk 1136
metod@@ 1136
Stanley 1135
Willow 1135
fah@@ 1135
Dubai 1134
Duv@@ 1134
Server 1134
Point 1133
icks 1133
koloni 1133
Dans 1132
May 1132
Rub@@ 1132
WrestleMania 1132
mor 1132
antum 1131
familyas@@ 1131
isto 1131
tics 1131
Gy@@ 1130
Zagreb 1130
103 1129
AI@@ 1128
Bonn 1128
Norfolk 1128
esta 1128
Ontario 1127
vik 1127
Pes@@ 1126
ange 1126
err@@ 1126
Thompson 1125
Mississippi 1124
ht@@ 1124
Angel@@ 1123
Marco 1123
Mikro@@ 1123
Nelson 1123
feld 1123
ilir@@ 1123
ink@@ 1123
red 1123
Ma 1122
kalab@@ 1122
kaç 1122
omen@@ 1122
zona 1122
Komit@@ 1121
Prince 1121
Roy 1121
Sierra 1121
Somali 1121
pus@@ 1121
rag@@ 1121
2.5 1120
Jam@@ 1120
iks 1120
maktay@@ 1120
mid@@ 1120
Boh@@ 1119
Comics 1119
Dış@@ 1119
Loc@@ 1119
lag@@ 1119
ege 1118
egr@@ 1118
ovski 1118
arlığı 1117
aca@@ 1116
ondo 1116
uri@@ 1116
თ@@ 1116
PG 1115
Yem@@ 1115
tos 1115
By@@ 1114
Palm 1114
esh@@ 1114
nal 1114
porta@@ 1114
Ann 1113
Birmingham 1113
Neg@@ 1113
depos@@ 1113
Duk@@ 1112
Robinson 1112
nov@@ 1112
1828 1111
26.@@ 1111
Lloyd 1111
acat@@ 1110
festival 1110
lab@@ 1110
mes 1110
sic@@ 1110
Danny 1109
Open 1109
Sergey 1109
nav@@ 1109
ers@@ 1107
gay 1107
kapsay@@ 1107
45@@ 1106
alli@@ 1106
omu 1106
vis 1106
Ard@@ 1105
ensi@@ 1105
lov 1105
Esp@@ 1104
Gold 1104
Sever@@ 1104
gres@@ 1104
kenin 1104
dul 1103
emann 1103
val 1103
Fire 1102
Shim@@ 1102
104 1101
Atlético 1101
Bon 1101
Bruno 1101
Men 1101
Stuttgart 1101
Za@@ 1101
oro 1101
Global 1100
It@@ 1100
Sports 1100
emy 1100
ines 1100
30.000 1099
ky@@ 1099
Kentucky 1098
edo 1098
mab@@ 1098
obi@@ 1097
ás 1097
XX@@ 1096
akat@@ 1096
Osaka 1095
Vegas 1095
kahver@@ 1095
pas 1095
ube 1095
Fay@@ 1094
Parker 1094
lio 1094
mevki@@ 1094
Orton 1093
cio 1093
Fas@@ 1092
Hand@@ 1092
Il 1092
Kanuni 1092
Lac@@ 1092
Muhareb@@ 1092
Angola 1091
Kong@@ 1091
Plan 1091
Wer@@ 1091
ampiy@@ 1091
any 1091
olana 1091
uil 1091
zik@@ 1091
Tet@@ 1090
hip@@ 1090
Aqu@@ 1089
seti 1089
Coca 1088
Kak@@ 1088
Long@@ 1088
sif 1088
Der 1087
Eth@@ 1087
liz@@ 1087
Bom@@ 1086
Triple 1086
Vat@@ 1086
ald 1086
dedi@@ 1086
opti@@ 1086
Dakota 1085
ymus 1085
deh@@ 1084
ismi@@ 1084
osaurus 1084
Polit@@ 1083
acc@@ 1083
ains 1083
α 1083
′ 1083
Book 1082
ante@@ 1082
dul@@ 1082
eros 1082
mobil@@ 1082
nia 1082
Adam@@ 1081
Ron 1081
Texas 1081
Yur@@ 1081
uti 1081
çek 1081
Java 1080
Nin@@ 1080
cara 1080
dum@@ 1080
~ 1080
Institute 1079
Katal@@ 1079
entum 1079
lamb@@ 1079
yas 1079
NBC 1078
System 1078
USB 1078
face 1078
Francesco 1077
minimum 1077
37@@ 1076
Alabama 1076
Lou@@ 1076
Hat 1075
Type 1075
osman@@ 1075
vic@@ 1075
ʿ@@ 1075
Grant 1074
Maryland 1074
Mini 1074
Nicolas 1073
bian 1073
etto 1073
Elektr@@ 1072
Kaw@@ 1072
Web@@ 1072
agu@@ 1072
Graham 1071
Grön@@ 1071
Press 1071
Solo 1071
Anah@@ 1070
Anton 1070
Beng@@ 1070
Just 1070
Sebastian 1070
Shak@@ 1070
Edge 1069
Nürnberg 1069
Rok@@ 1069
pli 1069
rim@@ 1069
ry@@ 1069
burg@@ 1068
Herbert 1067
Kop@@ 1067
NA 1067
afir@@ 1067
binden 1067
laka 1067
Academy 1066
Diplom@@ 1066
kopos@@ 1066
mide 1065
seyi 1065
Gra@@ 1064
mineral 1064
pon@@ 1064
AFC 1063
Clara 1063
Rey@@ 1063
Tap@@ 1063
enes 1063
igu@@ 1063
salon 1063
öp@@ 1063
Fi 1062
Georg 1062
Hass@@ 1062
Baron 1061
osaur@@ 1061
Band@@ 1059
Fred 1059
wi@@ 1059
Shane 1058
Stewart 1058
aris 1058
eum 1058
ward 1058
Stre@@ 1057
leg@@ 1057
Fiat 1056
HC 1056
Televiz@@ 1056
anto 1056
ats 1056
tabaka 1056
Gaziante@@ 1055
Harold 1055
Jose@@ 1055
nun@@ 1055
115@@ 1054
Iowa 1054
Monte 1053
UTC 1053
vik@@ 1053
Cand@@ 1052
End 1052
Magazine 1052
Stu@@ 1052
750 1051
Dragon 1051
Laura 1051
elma 1051
ilişk@@ 1051
mati@@ 1051
sept 1051
Mexico 1050
Neil 1050
Sevilla 1050
ento 1050
nom@@ 1050
osh@@ 1050
J.@@ 1049
Kud@@ 1049
Master 1049
Sic@@ 1049
enter@@ 1049
https 1049
cho 1048
femin@@ 1048
Andreas 1047
Hok@@ 1047
Lok@@ 1047
Lon@@ 1047
Oregon 1047
ord 1047
Iron 1046
oo 1046
6.000 1045
arin 1045
itt 1045
zen@@ 1045
üzel 1045
ław 1045
Amar@@ 1044
Diyar@@ 1044
Scar@@ 1044
Stal@@ 1044
Da 1043
Ji@@ 1043
Bohem@@ 1042
Fame 1042
brah@@ 1042
Koordin@@ 1041
Leonardo 1041
Maurice 1041
Morris 1041
eron 1041
1856 1040
Abraham 1040
Fos@@ 1040
Fres@@ 1040
Pink 1040
Raz@@ 1040
kos 1040
sw@@ 1040
CI@@ 1039
MB 1039
ays 1039
uss@@ 1039
ū 1039
1,1 1038
Paraguay 1038
Salvador 1038
aver 1038
sem 1038
Esper@@ 1037
Sik@@ 1037
Aston 1036
Kod@@ 1036
Rich@@ 1036
Ural 1036
tora 1036
uka 1036
Hotel 1035
Rocky 1035
illus 1035
Panama 1034
Warren 1034
ann 1034
filo 1034
BM@@ 1033
LED 1033
Punk 1033
atas@@ 1033
bre 1033
eral 1033
iber 1033
kınma 1033
tez 1033
vec@@ 1033
1784 1032
Parlament@@ 1032
rell 1032
İb@@ 1032
Au@@ 1031
Pent@@ 1031
Rav@@ 1031
hül@@ 1031
tot@@ 1031
AA 1030
Log@@ 1030
Stat@@ 1030
BMW 1029
CBS 1029
emper@@ 1029
pros@@ 1029
Arm@@ 1028
Cook 1028
Hit@@ 1028
anov 1028
elly 1028
inski 1028
omor@@ 1028
109 1027
CN@@ 1027
Michel@@ 1027
Pau@@ 1027
avar@@ 1027
eb 1027
ign@@ 1027
card 1026
ck@@ 1026
inge 1026
kins 1026
kulüpler@@ 1026
Glenn 1025
Metro@@ 1025
kati 1025
umia 1025
BK 1024
prof@@ 1024
ა 1024
Pompe@@ 1023
enos 1023
lard 1022
GP 1021
otop@@ 1021
Fak@@ 1020
30.@@ 1019
Baden 1019
Carey 1019
Good@@ 1019
Nest@@ 1019
Ved@@ 1019
aux 1019
gia 1019
pale@@ 1019
urs@@ 1019
Arc@@ 1018
Baby 1018
Person@@ 1018
CC@@ 1017
Dawn 1017
Fro@@ 1017
Science 1017
fid@@ 1017
uno 1017
Brothers 1016
eland 1016
kot 1016
115 1015
Hart 1015
kilogr@@ 1015
sit 1015
1859 1014
CG 1014
SM 1014
Tot@@ 1014
iser 1014
rece@@ 1014
უ@@ 1014
14,@@ 1013
esti 1013
hard 1013
lana 1013
Comp@@ 1012
Pokémon 1012
ec 1012
pep@@ 1012
sing@@ 1012
ð@@ 1012
Ng@@ 1011
kak@@ 1011
Gros@@ 1010
polisi 1010
.C. 1009
AIDS 1009
Liste 1009
andi 1009
hisi 1009
sup@@ 1009
tarafa 1009
bad 1008
jet@@ 1008
wal@@ 1008
Ž@@ 1008
illy 1007
seven 1007
âme 1007
Elena 1006
Kath@@ 1006
Ton@@ 1006
Two 1006
rie 1006
102 1005
FL 1005
Güre@@ 1005
Holmes 1005
Habsburg 1004
N. 1004
annes 1004
aster 1004
istin 1004
tz@@ 1004
Gay@@ 1003
Og@@ 1003
eze 1003
Slayer 1002
Çeşit@@ 1002
Johannes 1001
Lug@@ 1001
ego 1001
ifa 1001
org 1001
uti@@ 1001
vid@@ 1001
1.2 1000
90@@ 1000
Sung@@ 1000
abol@@ 1000
erina 1000
kadros@@ 1000
H.@@ 999
Nicholas 999
nev@@ 999
י@@ 999
PT@@ 998
Sky 998
baa 998
tilla 998
mene 997
August 996
Dortmund 996
Ever@@ 996
L.@@ 996
ajan 996
enne 996
ies 996
light 996
pot 996
Homo 995
Women 995
enci@@ 995
iPad 995
vers 995
34@@ 994
Awards 994
Bar 994
difer@@ 994
Forest 993
Let 993
Micro@@ 993
Theatre 993
Volga 993
Wehrmacht 993
sola 993
Back 992
Songs 992
won 992
Vampire 991
Vin@@ 991
IBM 990
Max@@ 990
SE 990
Sri 990
amen 990
dat 990
fahr@@ 990
xi 990
Civ@@ 989
anom@@ 988
ents 988
Minsk 987
Sid@@ 987
Thi@@ 987
hist@@ 987
50.000 986
Eddie 986
less 986
sv@@ 986
İng@@ 986
106 985
Dou@@ 985
Ple@@ 985
did@@ 985
itch 985
onne 985
Berkeley 984
Jin 984
Montreal 984
Nevada 984
enta 984
ig 984
Mans@@ 983
cover 983
Fahr@@ 982
Graf@@ 982
Hills 982
Rudolf 982
Sardin@@ 982
Tuf@@ 982
by@@ 982
rates 982
Ped@@ 981
^ 981
andi@@ 981
jo@@ 981
low@@ 981
umu@@ 981
über@@ 981
Edinburgh 980
Gon@@ 980
Ts@@ 980
Turner 980
ikistan 980
opi 980
107 979
Bologna 979
Yuri 979
izo@@ 979
1857 978
Ferr@@ 978
asto@@ 978
dine 978
enger 978
post 978
Hül@@ 977
edin 977
ule 977
1849 976
Hut@@ 976
Italia 976
Meli@@ 976
Solomon 976
loc@@ 976
utt@@ 976
yiti@@ 976
38@@ 975
atri 975
240 974
Dak@@ 974
Nog@@ 974
Gedi@@ 973
Maxwell 973
Plus 973
edral 973
1831 972
Dini 972
Law@@ 972
mani 972
ski@@ 972
taker 972
Borussia 971
Cent@@ 971
Nancy 971
own 971
tine 971
ende@@ 970
sl@@ 970
yı@@ 970
Arnold 969
Trav@@ 969
codice 969
Rost@@ 968
1785 967
Ken 967
aine 966
mos 966
otro@@ 966
Hob@@ 965
Ment@@ 965
15,@@ 964
1826 964
CA 964
Mün@@ 964
town 964
ting@@ 963
GM 962
GPS 962
Gustav 962
Kaplan 962
LC 962
Ted 962
iliz 962
ī 962
Baker 961
Get 961
Jericho 961
Nice 961
Cape 960
Earth 960
Fed@@ 960
Hip@@ 960
Melbourne 960
Touch 960
1600 959
Churchill 959
Eva 959
Now 959
Lynch 958
Stan@@ 958
asp@@ 958
kor 958
nos 958
ater 957
emat@@ 957
1855 956
CF 956
Gos@@ 956
är@@ 956
108 955
Alfa 955
Oda 955
1854 954
Volkswagen 954
üh@@ 954
Barry 953
Beg@@ 953
Shield 953
Ve@@ 953
dizi@@ 953
pus 953
Bour@@ 952
Carol 952
Fem@@ 952
ery 952
lers 952
lot 952
25.@@ 951
Benz 951
Hell 951
Newcastle 951
Sur 951
ovich 951
plasti@@ 951
sam 951
е@@ 951
Wimbledon 950
kine 950
PP@@ 949
anal@@ 949
atsu 949
Orange 948
alo@@ 948
Nex@@ 947
anam@@ 947
ical 947
mm@@ 947
pedi@@ 947
ünkü 947
119@@ 946
Collins 946
Isaac 946
So 946
Walker 946
def 946
esa 946
ted 946
eton 945
Masters 944
Sac@@ 944
ations 944
atri@@ 944
old@@ 944
II. 943
SI 943
Wood 943
glu@@ 943
Artem@@ 942
Neo 942
Nero 942
Bez@@ 941
CH@@ 941
mama 941
mont 941
GNU 940
Nord@@ 940
Orlando 940
aran 940
nan@@ 940
Madag@@ 939
Yuk@@ 939
evo 939
ñ@@ 939
Fern@@ 938
Ptolem@@ 938
16,@@ 937
24.@@ 937
BP 937
Cant@@ 937
Claudius 937
Hall@@ 937
ander@@ 937
klin@@ 937
sm@@ 937
Murphy 936
kaz 936
limit@@ 936
onius 936
airi 935
aki@@ 935
etz 935
lö@@ 935
unk@@ 935
As 934
Buda 934
Viktor 934
bus@@ 934
nam 934
pant@@ 934
Cil@@ 933
IP@@ 933
uro 933
Ash 932
Cot@@ 932
Rud@@ 932
aios 932
sept@@ 932
tart@@ 932
Las@@ 931
Planck 931
amor@@ 931
ns 931
osp@@ 931
Ich@@ 930
adis 930
direkt@@ 930
fare 930
Sym@@ 929
agi 929
1839 928
aline 928
etes 928
kos@@ 928
leyen@@ 928
F1 927
Jorge 927
Nept@@ 927
bri@@ 927
ms 927
uto 927
Band 926
Iv@@ 926
Kard@@ 926
Shu@@ 926
asaki 926
orf 926
torp@@ 926
Ach@@ 925
Barr@@ 925
HIV 925
Mozart 925
Power@@ 925
1789 924
Bobby 924
Lec@@ 924
Part 924
ingham 924
kore@@ 924
ods 924
plo@@ 924
God 923
R.@@ 923
istr@@ 923
sha 923
̣ 923
Gray 922
Rafael 922
Tag 922
isel 922
Kid@@ 921
ear@@ 921
Hük@@ 920
Money 920
ado@@ 920
alog 920
sof@@ 920
ume 920
Baf@@ 919
Corn@@ 919
Gener@@ 919
KO@@ 919
Spears 919
Toy@@ 919
head 919
müzis@@ 919
nai@@ 919
Reb@@ 918
Yosh@@ 918
aku 918
eman@@ 918
erer 918
201@@ 917
AO@@ 917
Camp@@ 917
Vent@@ 917
achi 917
ellik@@ 917
Aus@@ 916
Hunter 916
Uni@@ 916
cal 916
omo 916
osis 916
pig@@ 916
vana 916
Clinton 915
Louisiana 915
Wolf 915
gy 915
our@@ 915
Klar@@ 914
Lincoln@@ 914
Rik@@ 914
Rou@@ 914
SH@@ 914
Sport 914
aul@@ 914
yonel 914
down 913
norm@@ 913
Coc@@ 912
Dani@@ 912
Fig@@ 912
Sco@@ 912
dak 912
gat 912
Kib@@ 911
els@@ 911
igns 911
iya 911
1858 910
vill@@ 910
Anast@@ 909
People 909
ulos 909
üncü 909
AF@@ 908
DO@@ 908
Mayer 908
lon@@ 908
Cic@@ 907
SI@@ 907
ekten 907
ril 907
wan 907
BO@@ 906
Departamento 906
Montgomery 906
omb 906
sper@@ 906
Ğ@@ 906
Sara 905
Sci@@ 905
atil@@ 905
illon 905
27,@@ 904
Arist@@ 904
Vila 904
een 904
heavy 904
itte 904
Örgüt@@ 904
118@@ 903
Somerset 903
Valencia 903
aker 903
cap@@ 903
XI 902
isha 902
put@@ 902
500.000 901
Petrus 901
Yan 901
ilo 901
kek 901
ops 901
arit@@ 900
dh@@ 900
lock 900
tıb@@ 900
Gau@@ 899
Simpson 899
zap@@ 899
Challenge 898
EN@@ 898
oney 898
AZ 897
Gin@@ 897
Gren@@ 897
Rut@@ 897
trib@@ 897
1836 896
550 896
Barn@@ 896
Drive 896
Giuseppe 896
IA 896
akter 896
opa 896
style 896
Iz@@ 895
Lazio 895
1853 894
4000 894
Edgar 894
Putin 894
Tali@@ 894
radar 894
0.1 893
124@@ 893
46@@ 893
Freder@@ 893
Ves@@ 893
gn@@ 893
Silver 892
39@@ 891
Honda 891
Nepal 891
SR 891
Sark@@ 891
nm 891
Bros 890
Cir@@ 890
ix 890
online 890
s. 890
Castro 889
Denis 889
Larry 889
Pablo 889
Roberts 889
ayi 889
onal@@ 889
Bül@@ 888
Büt@@ 888
lidae 888
Business 887
Carolina 887
Diana 887
Ernest 887
IT@@ 887
stab@@ 887
sultan 887
→ 887
Aran@@ 886
Chr@@ 886
Orleans 886
Project 886
220 885
Brid@@ 885
Dö@@ 885
EA 885
Rosa 885
Yes@@ 885
auer 885
ursa 885
Are 884
Eve 884
SM@@ 884
Tyler 884
Calabria 883
master 883
mg 883
temelen 883
200.000 882
Chart 882
Hell@@ 882
Lil@@ 882
Molek@@ 882
Sha@@ 882
aliyet@@ 882
dou@@ 882
zur 882
ხ@@ 882
1851 881
Jun@@ 881
Lorenzo 881
ბ@@ 881
1845 880
CONCACAF 880
NS@@ 880
Roosevelt 880
bli@@ 880
Aut@@ 879
Blood 879
aro@@ 879
isl@@ 879
kett 879
Brah@@ 878
Monica 878
aut@@ 877
okol@@ 877
Flash 876
Syn@@ 876
qui@@ 876
ו@@ 876
Alex@@ 875
Apo@@ 875
Eminem 875
Guatemala 875
Jung 875
Online 875
Rotterdam 875
Sans@@ 875
Sti@@ 875
alog@@ 875
anüstü 875
öne@@ 875
Jessica 874
Lik@@ 874
RA 874
Total 874
Walt 874
Daily 873
Rap 873
aru 873
kn@@ 873
Arn@@ 872
Express 872
Veh@@ 872
İsp@@ 872
amel@@ 871
ias 871
5,2 870
Aram@@ 870
Born 870
günümüz@@ 870
1847 869
Cameron 869
Hardy 869
Tad@@ 869
alus 869
eto@@ 869
111 868
Hudson 868
Jas@@ 868
Joan 868
Owens 868
Sov@@ 868
fri@@ 868
nete 868
ond 868
Di 867
aut 867
ofisi 867
Free 866
Mussolini 866
Savun@@ 866
ˈ@@ 866
Hannover 865
inho 865
1829 864
8.000 864
Kamerun 864
ano@@ 864
65@@ 863
Terry 863
Wallace 863
hou 863
polin@@ 863
25. 862
Det@@ 862
Parlam@@ 862
Susan 862
Wagner 862
bud@@ 862
eper 862
frag@@ 862
scope 862
Force 861
Mab@@ 861
Phil 861
Rollins 861
kem 861
ković 861
rep@@ 861
112 860
Atl@@ 860
Lakers 860
Stanford 860
direc@@ 860
trig@@ 860
Özg@@ 860
Cole 859
Pier@@ 859
1.4 858
Ig@@ 858
Pand@@ 858
Slovak 858
122 857
Bang 857
integr@@ 857
დ@@ 857
1815 856
75@@ 856
Ltd 856
Traf@@ 856
itar 856
kip@@ 856
ú 856
3.5 855
Khan 855
Pag@@ 855
Peugeot 855
Pyr@@ 855
Racing 855
Sug@@ 855
bul 855
oman 855
Chir@@ 854
Note 854
Sant@@ 854
Von 854
my 854
Feh@@ 853
Pok@@ 853
Tai@@ 853
Tsu@@ 853
XIV 853
atak@@ 853
ević 853
got@@ 853
reper@@ 853
tivi@@ 853
ā 853
Avru@@ 852
Felipe 852
Louise 852
ayna 852
1837 851
76@@ 851
Pist@@ 851
pid@@ 851
ér@@ 851
D.@@ 850
Senegal 850
ä 850
ınday@@ 850
1846 849
Abd@@ 849
Western 849
Å@@ 849
Basel 848
XII 848
afor@@ 848
atum 848
kle 848
leb@@ 848
ology 848
Bow@@ 847
Gall@@ 847
Helena 847
Mahall@@ 847
Watson 847
haci@@ 847
over 847
sion 847
22@@ 846
Dennis 846
Oh 846
Termin@@ 846
XIII 846
bur 846
esis 846
sch 846
1700 845
40.000 845
Cib@@ 845
Days 845
Mom@@ 845
Summer 845
pet@@ 845
Pra@@ 844
Tag@@ 844
Vancouver 844
ams 844
1530 843
Bob@@ 843
Hog@@ 843
Peg@@ 843
diz 843
viral 843
„ 843
Asp@@ 842
Germain 842
Micha@@ 842
More 842
bor 842
soundtrack 842
urus 842
44@@ 841
Forbes 841
Sup@@ 841
Wild 841
pod@@ 841
Myanmar 840
cre@@ 840
dop@@ 840
islav 840
1812 839
1820 839
Ayn@@ 839
HMS 839
Leeds 839
Mum@@ 839
ogo 839
Bella 838
Gom@@ 838
Inter 838
Josh 838
María 838
cili@@ 838
ár@@ 838
Mason 837
Tib@@ 837
Woman 837
İnter@@ 837
Lep@@ 836
SF@@ 836
anes 836
API 835
BAFTA 835
Never 835
One@@ 835
Plas@@ 835
vić 835
ř@@ 835
79,@@ 834
Arch@@ 834
Vista 834
taz 834
ы@@ 834
EL@@ 833
Ekonom@@ 833
Hr@@ 833
fab@@ 833
polar 833
uza 833
1844 832
ID 832
Na 832
33.@@ 831
Beyoncé 831
HF 831
burn 831
duda 831
kinson 831
Patri@@ 830
afak@@ 830
enges@@ 830
size 830
68@@ 829
Adrian 829
FBI 829
Michelle 829
ved@@ 829
yot@@ 829
27.@@ 828
And@@ 828
Bremen 828
CS 828
Princeton 828
Ptol@@ 828
bater@@ 828
1.1 827
Emilia 827
Obama 827
them 827
Dick 826
Did@@ 826
Gregory 826
Nab@@ 826
dea 826
ots 826
prop@@ 826
Hub@@ 825
Jur@@ 825
board 825
ferin 825
ring 825
wick 825
127 824
Abu 824
BS 824
ET 824
Lanka 824
Lud@@ 824
Maxim@@ 824
Rangers 824
fran@@ 824
igg@@ 824
ograd 824
LG@@ 823
Pass@@ 823
amar@@ 823
astron@@ 823
feri 823
1814 822
CC 822
cia 822
imon 822
ub 822
114@@ 821
49@@ 821
Tec@@ 821
akos 821
fte 821
Jamaika 820
adil@@ 820
bag@@ 820
ism 820
Monroe 819
Saw@@ 819
arch@@ 819
elop@@ 819
tho@@ 819
unv@@ 819
venc@@ 819
Krasno@@ 818
Mitchell 818
Suzuki 818
angelo 818
auf 818
grav@@ 818
mix@@ 818
my@@ 818
uga 818
Çel@@ 818
oral 817
Athletic 816
Line 816
ares 816
cat@@ 816
voy@@ 816
· 816
Felix 815
Meksiko 815
Tottenham 815
Up@@ 815
Athena 814
C.@@ 814
Rh@@ 814
Wall 814
fit 814
yac@@ 814
Ar 813
Evans 813
Murray 813
Stark 813
iPod 813
és 813
Hugh 812
Nikola 812
act@@ 812
aq 812
ous@@ 812
LO@@ 811
Leb@@ 811
Leonard 811
Maver@@ 811
Sullivan 811
mail 811
ory@@ 811
Jose 810
uni@@ 810
Bordeaux 809
Medici 809
Vul@@ 809
beste 809
dum 809
nini 809
190 808
England 808
Kiss 808
Patent 808
Pun@@ 808
cus 808
mb@@ 808
rif@@ 808
Claire 807
Pietro 807
m2 807
õ@@ 807
320 806
Cumhur@@ 806
Nac@@ 806
Randy 806
Survivor 806
Veter@@ 806
alem@@ 806
maj@@ 806
15.000 805
Adi@@ 805
ER 805
Erik 805
Tolkien 805
bie 805
ega 805
29.@@ 804
Cou@@ 804
European 804
Ish@@ 804
Kafkas@@ 804
Nacional 804
Valent@@ 804
Vid@@ 804
erse 804
wen 804
Brun@@ 803
Palm@@ 803
ST 803
bik@@ 803
kand@@ 803
tila 803
tle 803
7.000 802
Politik 802
Stor@@ 802
Yale 802
element 802
etz@@ 802
gerekç@@ 802
yoya 802
ě@@ 802
Magn@@ 801
Pant@@ 801
anot@@ 801
atlan@@ 801
1821 800
BT 800
Country 800
Grim@@ 800
YP 800
dist@@ 800
fur 800
hen 800
was 800
Beatles 799
Delhi 799
Harrison 799
Xi@@ 799
mark 799
tern@@ 799
ș@@ 799
Hindu 798
IF@@ 798
Vize 798
chen 798
its@@ 798
pora 798
Andorra 797
Uran@@ 797
Vill@@ 797
get 797
neo 797
App@@ 796
Vali@@ 796
XVI 796
play@@ 796
wald 796
én 796
GT 795
Monte@@ 795
gard 795
zhou 795
57@@ 794
Pennsylvania 794
Rumble 794
Zak@@ 794
iret 794
55@@ 793
Stuart 793
Whitney 793
imar 793
izer 793
pH 793
48@@ 792
Bach 792
Carr@@ 792
Garden 792
Mog@@ 792
atis 792
gel 792
hamshire 792
ib 792
École 792
Mug@@ 791
Takah@@ 791
Yev@@ 791
aland 791
itus 791
onis 791
uan 791
č 791
Alain 790
Land 790
anth@@ 790
bria 790
ï@@ 790
210 789
Armstrong 789
Vad@@ 789
auss 789
gal 789
inz@@ 789
vy@@ 789
Campbell 788
Ero@@ 788
Galileo 788
Oh@@ 788
Tan 788
isch 788
ór@@ 788
Aff@@ 787
GS 787
atini 787
imento 787
sala 787
Electric 786
Falcon 786
Productions 786
Yıld@@ 786
ony 786
try 786
Knight 785
Spir@@ 785
alist@@ 785
box 785
ind 785
zy 785
ceden 784
zif@@ 784
1,4 783
47@@ 783
650 783
Afro@@ 783
Burton 783
CO 783
Jazz 783
Jules 783
Reform@@ 783
Suz@@ 783
aven@@ 783
ishi 783
lime 783
odi 783
Asper@@ 782
Pus@@ 782
Romeo 782
eber 782
kau@@ 782
230 781
Bristol 781
Cast@@ 781
berger 781
olin 781
ush 781
Bond 780
Montana 780
Over 780
Porsche 780
Eugene 779
Ralph 779
Ronald 779
akis 779
issa 779
parad@@ 779
rass@@ 779
xi@@ 779
zek 779
à@@ 779
Fland@@ 778
Mud@@ 778
Test 778
della 778
meti 778
1832 777
Grace 777
LP 777
MVP 777
Nich@@ 777
René 777
Sud@@ 777
heimer 777
mul@@ 777
Goethe 776
Nad@@ 776
Zimbab@@ 776
igan 776
Ç 776
Carl@@ 775
Japan 775
acan 775
band 775
daf@@ 775
eu@@ 775
iva 775
sera 775
Emily 774
Fun@@ 774
Nikol@@ 774
Timber@@ 774
Tin@@ 774
cur@@ 774
iger 774
revi@@ 774
tham 774
Paolo 773
Viking 773
4.0 772
Dick@@ 772
Sound 772
pers 772
rit 772
wo@@ 772
Haiti 771
Hard 771
Uganda 771
tors 771
28.@@ 770
Campania 770
Of@@ 770
Secret 770
amer 770
ISBN 769
ubi 769
Portland 768
ean 768
lararası 768
olum@@ 768
Blu 767
Lucius 767
Rüst@@ 767
SG 767
bius 767
ingo 767
loy@@ 767
Bayer 766
Hop 766
XV@@ 766
amus 766
inat@@ 766
kus 766
ør@@ 766
Delta 765
Get@@ 765
Odys@@ 765
gang@@ 765
phi 765
ığ 765
Bank@@ 764
Bomb@@ 764
Caroline 764
Mountain 764
Mé@@ 764
pit@@ 764
see 764
Party 763
SL@@ 763
AE 762
Battle 762
Foster 762
Leopold 762
Ricardo 762
but@@ 762
eg 762
ien 762
Dow@@ 761
EM@@ 761
GT@@ 761
Gilbert 761
Soh@@ 761
121 760
330 760
Lus@@ 760
gari 760
rimi 760
uzam@@ 760
Joh@@ 759
KO 759
Roh@@ 759
bun 759
jili 759
ose 759
prol@@ 759
KK 758
Soul 758
Tari@@ 758
Zem@@ 758
kün 758
ling@@ 758
yoy@@ 758
A1 757
EB@@ 757
ES 757
Freud 757
Gn@@ 757
Malat@@ 757
Nicol@@ 757
esia 757
iter@@ 757
stad 757
Colin 756
Mann 756
Wall@@ 756
Wii 756
epit@@ 756
pard 756
117 755
Jet 755
Ley@@ 755
abri@@ 755
andra 755
oso 755
Harvey 754
IG@@ 754
SB 754
dio 754
fit@@ 754
lokom@@ 754
piz@@ 754
thor@@ 754
öte 754
Lamb@@ 753
Mav@@ 753
Sult@@ 753
neğin 753
oros 753
vic 753
56@@ 752
kW 752
oper 752
Ō@@ 752
β 752
Buk@@ 751
Burn@@ 751
Bé@@ 751
Cross 751
Ham 751
Nathan 751
Rib@@ 751
Rig@@ 751
Tür 751
Wyatt 751
ardo 751
ekt 751
seri@@ 751
Ax@@ 750
DI 750
Dion@@ 750
Head 750
Map@@ 750
Stars 750
itibar@@ 750
Heat 749
sz@@ 749
Aster@@ 748
Behr@@ 748
CE 748
Ce@@ 748
Over@@ 748
Was@@ 748
Wes@@ 748
lake 748
123 747
Christ@@ 747
agres@@ 747
ernet 747
Four 746
Si 746
engeb@@ 746
BT@@ 745
Kō@@ 745
Opel 745
akab@@ 745
arina 745
etsk 745
ites 745
mük@@ 745
Arkansas 744
Bull 744
O. 744
bridge 744
fib@@ 744
onidae 744
Baj@@ 743
EM 743
Julie 743
Lopez 743
Yon@@ 743
dut 743
Beta 742
Deep 742
Jamie 742
Keith 742
Metr@@ 742
laya 742
Costa 741
Maggie 741
erz@@ 741
Instagram 740
Morrison 740
onga 740
raya 740
1852 739
Clo@@ 739
Leicester 739
PR@@ 739
Raj@@ 739
Rit@@ 739
Roland 739
Tik@@ 739
Akr@@ 738
GC 737
Gond@@ 737
Mazda 737
Min 737
afr@@ 737
cus@@ 737
servat@@ 737
Hang@@ 736
formes 736
yaln@@ 736
Beau@@ 735
Gang@@ 735
Gazi@@ 735
HA 735
Hask@@ 735
Page 735
Santo 735
ahu 735
aqu@@ 735
cid 735
EP@@ 734
GA 734
Rö@@ 734
Sweet 734
USA 734
magne@@ 734
District 733
Olga 733
Research 733
Sheffield 733
ants 733
embri@@ 733
eph@@ 733
garanti@@ 733
ilif@@ 733
manuel 733
onyalı 733
ovna 733
wich 733
Buh@@ 732
Edition 732
Got 732
Rein@@ 732
Ut@@ 732
Vakf@@ 732
tv 732
4,5 731
Deutsche 731
Komün@@ 731
Nietzsche 731
Pseud@@ 731
UI 731
put 731
კ@@ 731
João 730
Square 730
Sydney 730
ammer 730
aves 730
ged@@ 730
lev 730
EL 728
Sent@@ 728
Zah@@ 728
aden 728
etus 728
itis 728
oslav 728
ía 728
Christina 727
Pach@@ 727
odon@@ 727
0.3 726
1.0 726
Barrett 726
CM 726
Christmas 726
Dj@@ 726
Floyd 726
PM 726
gut@@ 726
habit@@ 726
ix@@ 726
Lancashire 725
Nicole 725
inga 725
ink 725
istanı 725
rov 725
sekiz@@ 725
ump@@ 725
1841 724
Capr@@ 724
Hannibal 724
Hip 724
Ki 724
Nielsen 724
She 724
Singles 724
Wel@@ 724
away 724
odon 724
ès 724
ć@@ 724
Dub@@ 723
aron 723
ayo 723
insky 723
Cec@@ 722
Euler 722
Pho@@ 722
ibl@@ 722
trat@@ 722
zus@@ 722
Glasgow 721
Summer@@ 721
orius 721
rama 721
Empire 720
Monaco 720
Nazar@@ 720
Stalingrad 720
Stephan 720
aben 720
ott 720
rio 720
HBO 719
IN 719
Kay 719
Klein 719
ariz@@ 719
idal 719
skop@@ 719
zh@@ 719
256 718
Brooks 718
Cloud 718
Elaz@@ 718
Palermo 718
Pascal 718
Reform 718
Sea 718
acab@@ 718
arat 718
bs 718
kanad@@ 718
kisi@@ 718
oner 718
67@@ 717
Ambrose 717
Dut@@ 717
Hüsey@@ 717
Ice 717
Julian 717
Rob 717
Sporting 717
leton 717
Atal@@ 716
Hein@@ 716
Salzburg 716
idon 716
117@@ 715
DR 715
Er 715
Ho 715
OH 715
ael 715
dorf 715
entz 715
fav@@ 715
ر@@ 715
Dresden 714
seus 714
you 714
Aaron 713
Child 713
Europe 713
Luka 713
Television 713
acy 713
pio 713
ə 713
1843 712
Baltimore 712
Sno@@ 712
imar@@ 712
opatra 712
show 712
Bahia 711
Call@@ 711
Joel 711
Ket@@ 711
Sophie 711
gli@@ 711
igi 711
uktur 711
1.5@@ 710
97,@@ 710
aliye 710
char@@ 710
rail@@ 710
ric 710
rov@@ 710
sier 710
Turk@@ 709
WWF 709
ace@@ 709
ement 709
melod@@ 709
out@@ 709
ovu 709
sei 709
1842 708
54@@ 708
Bulls 708
Cohen 708
Craig 708
Erz@@ 708
Fle@@ 708
Marcel 708
Parma 708
Sant 708
adin 708
mali@@ 708
Allan 707
Pik@@ 707
Wolfgang 707
rest 707
59@@ 706
Giles 706
andal 706
nio 706
1642 705
1787 705
Brandenburg 705
Harper 705
Mercury 705
Oz@@ 705
Petro@@ 705
Tour@@ 705
cell 705
cy 705
jer 705
pto 705
2.0@@ 704
Antoine 704
Lom@@ 704
Weekly 704
Yokohama 704
itten 704
kw@@ 704
rati@@ 704
0,000 703
1833 703
Alpes 703
Core 703
Rel@@ 703
Space@@ 703
Tiger 703
aug@@ 703
doğrult@@ 703
eca 703
eu 703
radi@@ 703
23,@@ 702
25.000 702
Drake 702
Fars@@ 702
Jol@@ 702
Rü@@ 702
Saur@@ 702
amii 702
aur 702
mend@@ 702
nel@@ 702
ère 702
і@@ 702
Form@@ 701
Himmler 701
Kyoto 701
esto 701
oval 701
Lane 700
Law 700
MHz 700
Ud@@ 700
ario 700
asia 700
esten 700
hut 700
Box 699
Shō@@ 699
Tao 699
Wolf@@ 699
fort 699
onist 699
Humboldt 698
Kepler 698
O.@@ 698
tier 698
ów 698
1838 697
Award 697
ROM 697
Smart 697
With 697
demo 697
fren@@ 697
12.000 696
124 696
Guardian 696
Locke 696
Pearl 696
ern 696
terminal 696
vit 696
Anglo 695
Antonius 695
BL 695
Cat 695
Cord@@ 695
Et 695
Riga 695
Say 695
Spencer 695
Toulouse 695
ono 695
tas 695
via 695
vul@@ 695
116 694
126 694
Bard@@ 694
Birleş@@ 694
Kenneth 694
PR 694
Stav@@ 694
alen 694
ebel 694
lett 694
ois 694
rand@@ 694
wat@@ 694
İli@@ 694
Buy@@ 693
McMahon 693
Riley 693
SL 693
ands 693
cast 693
hl 693
tril@@ 693
Classic 692
History 692
Seine 692
When 692
XX 692
adili 692
ifer@@ 692
ś@@ 692
22,@@ 691
Dob@@ 691
Three 691
amini 691
esh 691
kund@@ 691
opsis 691
sos 691
Ander@@ 690
Dale 690
Dmitri 690
Johan 690
Prom@@ 690
anten 690
40,@@ 689
Creek 689
Springs 689
Uş@@ 689
1790 688
270 688
Kings 688
Wu 688
andinav@@ 688
büro 688
islam 688
lang@@ 688
papa 688
ring@@ 688
145 687
27. 687
Fisher 687
Fritz 687
Ster@@ 687
Theodore 687
con 687
elius 687
finden 687
motiv@@ 687
netic@@ 687
ope 687
plen@@ 687
Liège 686
OR@@ 686
Yamag@@ 686
ô@@ 686
ă 686
Eric@@ 685
Hed@@ 685
Nissan 685
analog 685
euro 685
pur@@ 685
yek@@ 685
yst@@ 685
Everton 684
Granada 684
Spr@@ 684
Württemberg 684
atha 684
elos 684
а 684
113 683
Blan@@ 683
Mu 683
Off@@ 683
encer 683
ful 683
mod 683
otti 683
zim@@ 683
113@@ 682
Banks 682
Ellen 682
Limited 682
Petro 682
ga@@ 682
oon 682
sisi 682
Jim@@ 681
Kis@@ 681
Lazar@@ 681
Luftwaffe 681
Sej@@ 681
ukta 681
26. 680
fo 680
hos 680
intern@@ 680
itar@@ 680
kii 680
129 679
Benfica 679
Bismarck 679
Foundation 679
Haft@@ 679
Ja@@ 679
Nim@@ 679
Ring 679
cek 679
usu@@ 679
vor@@ 679
280 678
Gamb@@ 678
IT 678
Müller 678
Send@@ 678
Take 678
Vall@@ 678
isme 678
Emmanuel 677
English 677
G.@@ 677
Gabri@@ 677
Marion 677
P.@@ 677
Rhône 677
Ronaldo 677
SMS 677
elo 677
eson 677
2500 676
58@@ 676
Janet 676
Nebraska 676
Olivier 676
Paraná 676
Vl@@ 676
agi@@ 676
azaki 676
dırım 676
edia 676
114 675
Ble@@ 675
Fior@@ 675
Hend@@ 675
Martin@@ 675
USS 675
XP 675
bistan 675
Dad@@ 674
Standard 674
Unix 674
Village 674
aniz@@ 674
hiro 674
kez@@ 674
1595 673
3.0 673
Bonn@@ 673
Haj@@ 673
Kids 673
Reichs@@ 673
Side 673
TT@@ 673
XV 673
hici@@ 673
uo 673
CO2 672
Ede@@ 672
Hos@@ 672
dom 672
idas 672
sportif 672
tö@@ 672
wan@@ 672
1827 671
480 671
Heinz 671
Manz@@ 671
olig@@ 671
oris 671
ė 671
ON@@ 670
country 670
elim@@ 670
ikawa 670
Erich 669
Konservat@@ 669
Mikhail 669
Park@@ 669
eks 669
uel@@ 669
Vy@@ 668
Works 668
kiz 668
yang 668
Ret@@ 667
afaa 667
Am 666
Düsseldorf 666
Lip@@ 666
PC@@ 666
Schumacher 666
116@@ 665
Agr@@ 665
Blake 665
Chuck 665
Forum 665
Fuj@@ 665
Heavy 665
Jeremy 665
Kro@@ 665
Nina 665
Wi 665
endir 665
ft@@ 665
melan@@ 665
meteor@@ 665
ofi 665
sta@@ 665
è 665
Atlantic 664
Chaplin 664
Crown 664
Steph@@ 664
auri 664
131 663
18,@@ 663
Planet 663
Woods 663
alab@@ 663
edeyse 663
fur@@ 663
hp 663
market@@ 663
mont@@ 663
mos@@ 663
sana 663
43@@ 662
Bub@@ 662
Century 662
Edmund 662
ICAO 662
RI 662
Robbie 662
Salticidae 662
aler@@ 662
atos 662
cuy@@ 662
folk 662
lop 662
tat 662
64@@ 661
CNN 661
Come 661
Fuku@@ 661
Ler@@ 661
Mount 661
Vilnius 661
Werner 661
abor@@ 661
aden@@ 661
aldo 661
eza 661
gate 661
odor 661
260 660
Cheshire 660
Essex 660
Pete 660
SN@@ 660
Todd 660
iv 660
Ferguson 659
Torres 659
anka 659
into 659
ofil@@ 659
past@@ 659
rab@@ 659
than 659
CI 658
Metropolitan 658
core 658
formu@@ 658
jede 658
1808 657
78@@ 657
MW 657
Marina 657
McLaren 657
Neu@@ 657
agna 657
cop@@ 657
luc@@ 657
Fe 656
Inc. 656
Rhode 656
Service 656
ampton 656
idge 656
kilome@@ 656
How 655
Hz 655
Milton 655
aea 655
chin@@ 655
coin 655
romanti@@ 655
э@@ 655
Thr@@ 654
Tou@@ 654
Merk@@ 653
O2 653
lion 653
tun 653
web@@ 653
1.8@@ 652
Ball 652
Berry 652
Bridge 652
Dre 652
alternati@@ 652
bizi 652
Basketball 651
Bennett 651
Eh@@ 651
Magnus 651
born 651
cari@@ 651
deren 651
elli@@ 651
patent 651
veter@@ 651
22. 650
Kid 650
Technology 650
Virgin 650
akov 650
petrol@@ 650
trans 650
1300 649
Blues 649
Spiel@@ 649
Talk 649
kupan@@ 649
ols 649
oug@@ 649
unt@@ 649
ál@@ 649
1400 648
300.000 648
Ear@@ 648
Fried@@ 648
Golf 648
Lomb@@ 648
Math@@ 648
Oli@@ 648
Sa 648
Site 648
Sund@@ 648
Vod@@ 648
Zab@@ 648
sea 648
ux 648
118 647
1786 647
Io@@ 647
Nun@@ 647
ovsk 647
sec@@ 647
vu@@ 647
Caesar 646
Friends 646
Habitat 646
Hart@@ 646
LG 646
Odessa 646
VA 646
hu 646
programa 646
ruz 646
uj@@ 646
Franken@@ 645
Ivan@@ 645
Jake 645
Kingston 645
Kne@@ 645
Us 645
Wesley 645
eten@@ 645
ograf 645
trum 645
Are@@ 644
Augusta 644
Cun@@ 644
Córdoba 644
Dame 644
He 644
Luigi 644
aft 644
ecus 644
jana 644
vari@@ 644
App 643
Rog@@ 643
TE 643
adia 643
berto 643
führer 643
karahisar 643
wer@@ 643
German@@ 642
Glory 642
Monster 642
ball 642
edel@@ 642
gios 642
harmon@@ 642
hib@@ 642
Again 641
Levi 641
Miss@@ 641
Reed 641
att 641
Fok@@ 640
Jong 640
King@@ 640
Sophia 640
aku@@ 640
enton 640
kham 640
sponsor 640
31.@@ 639
Major 639
Palace 639
ahl 639
eal 639
haus 639
insk 639
1.6 638
1.7@@ 638
High@@ 638
Hill@@ 638
Mau@@ 638
Naf@@ 638
court 638
ionale 638
lier 638
polit@@ 638
ril@@ 638
გ@@ 638
1806 637
Bora 637
García 637
Pilot 637
Stevens 637
ems 637
mond 637
pri@@ 637
ticus 637
Bern 636
China 636
Cran@@ 636
Sing@@ 636
trick 636
ufi 636
ört 636
Gene 635
IF 635
Karen 635
Leone 635
Mozambi@@ 635
ally 635
ape 635
lies 635
log 635
oti 635
ping 635
zah@@ 635
ös@@ 635
1810 634
Alexandre 634
Dark@@ 634
Wanderers 634
ste 634
AI 633
Airways 633
Ced@@ 633
Malmö 633
Motors 633
Oran@@ 633
angi 633
aos 633
asse 633
egel 633
tit 633
165 632
Ba 632
Connor 632
Kiy@@ 632
Lyn@@ 632
NT@@ 632
Swe@@ 632
bei 632
etime 632
DR@@ 631
Kamer@@ 631
Laurent 631
Lille 631
Metallica 631
bugün@@ 631
ican 631
AV 630
CPU 630
Tang@@ 630
Tesla 630
UV 630
agram 630
allo 630
andal@@ 630
bezi 630
diki 630
kari 630
ński 630
Chan 629
Emin@@ 629
Jesse 629
eko 629
otr 629
sia 629
1.500 628
Deportivo 628
N.@@ 628
cer 628
emo 628
ental 628
facto 628
Dram@@ 627
rid 627
ısız@@ 627
DH@@ 626
Dante 626
Nir@@ 626
Put@@ 626
Taz@@ 626
Test@@ 626
Voice 626
Wak@@ 626
idan 626
pent@@ 626
yed@@ 626
Alf@@ 625
Cus@@ 625
Jag@@ 625
Strasbourg 625
Wy@@ 625
Zap@@ 625
anni 625
com 625
endr@@ 625
ić 625
robot 625
tie 625
Call 624
From 624
Wells 624
dor 624
giz 624
jiang 624
roy@@ 624
132 623
155 623
19@@ 623
Age 623
Beautiful 623
Disk@@ 623
Klinik 623
Köl@@ 623
Oro@@ 623
Pall@@ 623
Rogers 623
Spo@@ 623
Theodor 623
Zeh@@ 623
egem@@ 623
ingi 623
oft 623
orus 623
sedi@@ 623
1813 622
Children 622
EX@@ 622
Fati@@ 622
Owen 622
Roth@@ 622
Set@@ 622
Siena 622
ank 622
apur 622
cun@@ 622
enton@@ 622
ive 622
tius 622
vern@@ 622
ستان 622
Bass@@ 621
DA@@ 621
Dar 621
Hubble 621
Jon@@ 621
Lil 621
Norte 621
water 621
Eduard 620
Proc@@ 620
imoto 620
tekli@@ 620
175 619
66@@ 619
Cartoon 619
Chil@@ 619
Thor 619
batt@@ 619
mart 619
1.6@@ 618
Agri@@ 618
EC 618
Fall 618
Samp@@ 618
last@@ 618
libre@@ 618
liga 618
naf@@ 618
1819 617
Alber@@ 617
Camp 617
Kahraman@@ 617
Machine 617
Mine 617
dri@@ 617
nis 617
ossa 617
147 616
Bib@@ 616
Cob@@ 616
Fener@@ 616
Piz@@ 616
Powell 616
Software 616
bars 616
Canada 615
Gig@@ 615
Melodi@@ 615
Place 615
Soc@@ 615
debil@@ 615
rus@@ 615
DB 614
Deh@@ 614
Duke 614
Gug@@ 614
Martha 614
Poc@@ 614
Vig@@ 614
Whe@@ 614
atu 614
frey 614
inhibit@@ 614
23. 613
Aragon 613
Here 613
Nakamura 613
dete 613
sag@@ 613
vert 613
Butler 612
Gibson 612
III. 612
Lun@@ 612
Neville 612
Phillips 612
vers@@ 612
19,@@ 611
Amp@@ 611
Dy@@ 611
Lal@@ 611
Seth 611
c. 611
yalist 611
yr 611
ր@@ 611
Greg 610
Heaven 610
Lynn 610
Seven 610
Stan 610
acker 610
iris 610
yes 610
24. 609
Angela 609
DF 609
Nickelodeon 609
Un 609
bes 609
phus 609
wil@@ 609
ę@@ 609
1793 608
Anth@@ 608
Cay@@ 608
Clarke 608
Heli@@ 608
Hughes 608
Reich@@ 608
ansen 608
bara 608
gani 608
quot 608
Alpha 607
Basket 607
Bolton 607
Mills 607
egan 607
falt 607
stadt 607
Ain 606
Hert@@ 606
KV@@ 606
Neill 606
Rat@@ 606
Thom@@ 606
bia 606
cc 606
izu 606
minim@@ 606
nin@@ 606
pac@@ 606
trof@@ 606
CL 605
CM@@ 605
Hig@@ 605
NT 605
Pug@@ 605
Water@@ 605
kula 605
s.@@ 605
tani 605
ural 605
wa@@ 605
Cam 604
Curtis 604
Dat@@ 604
Koch 604
Québec 604
Rotten 604
Shir@@ 604
TR@@ 604
iker 604
nas 604
ucci 604
zum 604
119 603
133 603
Brow@@ 603
Fabr@@ 603
Gaius 603
Guar@@ 603
Kag@@ 603
Keh@@ 603
MR 603
gens 603
1792 602
20,@@ 602
737 602
Cim@@ 602
Jor@@ 602
NET 602
atra 602
evich 602
hasara 602
irini 602
zav@@ 602
Edwards 601
Flo@@ 601
Giro 601
Gle@@ 601
If 601
Jo 601
vie 601
53@@ 600
After 600
DL 600
Explorer 600
Mao 600
Westminster 600
Zin@@ 600
a.@@ 600
aia 600
ulia 600
1453 599
26,@@ 599
GE 599
Lima 599
Now@@ 599
Systems 599
Will@@ 599
nikov 599
peri@@ 599
Bradley 598
Dami@@ 598
Fall@@ 598
K.@@ 598
Mask@@ 598
Meng@@ 598
Tru@@ 598
Yang 598
978 597
BE 597
Mind@@ 597
afen 597
ion@@ 597
Duf@@ 596
ML@@ 596
Mail 596
Queens 596
Rep@@ 596
Rovers 596
Viol@@ 596
Wade 596
ws 596
شه@@ 596
850 595
Angelo 595
Kobe 595
Nek@@ 595
Ra 595
Ron@@ 595
Schmidt 595
Vu@@ 595
king@@ 595
mp@@ 595
opp@@ 595
1825 594
Cromwell 594
César 594
Hud@@ 594
Sergio 594
anthus 594
bis 594
market 594
ode 594
ouard 594
ozo@@ 594
uku 594
Buck@@ 593
Emil 593
IATA 593
KB 593
Kalk@@ 593
McDonald 593
WTA 593
Wellington 593
ennes 593
ostr@@ 593
ph 593
sons 593
Brad 592
Giorgio 592
Hey 592
Nij@@ 592
Novgorod 592
Review 592
berg@@ 592
nano 592
star@@ 592
Airbus 591
Gut@@ 591
Honduras 591
Jin@@ 591
Wang 591
brand 591
lane 591
sley 591
3.0@@ 590
Diamond 590
EC@@ 590
Ent@@ 590
Linda 590
López 590
Prof@@ 590
Titus 590
erb@@ 590
terti@@ 590
tet@@ 590
Memphis 589
SK@@ 589
Stur@@ 589
Yarımad@@ 589
Yu 589
cape 589
denk@@ 589
islam@@ 589
performan@@ 589
ventr@@ 589
ziti@@ 589
ò 589
ո@@ 589
365 588
Atmos@@ 588
Mir 588
Net 588
Sally 588
aragua 588
dad 588
neri 588
nier 588
orit@@ 588
pu 588
А@@ 588
Dair@@ 587
Dud@@ 587
Edwin 587
Grey 587
Wars 587
Weimar 587
artisti@@ 587
ather 587
pov 587
Brest 586
Dru@@ 586
Fit@@ 586
Gregor 586
Jak@@ 586
MD 586
Rac@@ 586
Them@@ 586
blog@@ 586
enten 586
grad 586
poly@@ 586
çevrim@@ 586
152 585
2023 585
González 585
Waters 585
iscus 585
lop@@ 585
pool 585
380 584
Brig@@ 584
Devon 584
Ellis 584
Ji 584
Provence 584
ache 584
oides 584
wh@@ 584
0,5 583
Crystal 583
Grav@@ 583
Lois 583
Rhodes 583
Shaw 583
aud@@ 583
zit@@ 583
2.2 582
Aud@@ 582
Chase 582
Roll 582
omy@@ 582
sonr@@ 582
tive 582
zani 582
ს 582
1804 581
inas 581
ores 581
Ök@@ 581
América 580
Glass 580
Hotspur 580
Kurtul@@ 580
Sod@@ 580
Under 580
azu 580
body 580
deg@@ 580
э 580
Lic@@ 579
Lucy 579
Pavel 579
Plin@@ 579
Song@@ 579
ards 579
bell 579
gram@@ 579
icz 579
ingen@@ 579
life 579
poziti@@ 579
yeon 579
yeong@@ 579
1.4@@ 578
Fac@@ 578
Jump 578
Warriors 578
blues 578
dus 578
tos@@ 578
146 577
1809 577
Bill@@ 577
Britney 577
Fou@@ 577
Miles 577
Tara 577
Tob@@ 577
sut@@ 577
х@@ 577
1801 576
1822 576
Fid@@ 576
Hopkins 576
Weber 576
dong 576
heri 576
otte 576
Á@@ 576
Celtic 575
Cornwall 575
Covid 575
Faith 575
Ist@@ 575
Klaus 575
anova 575
golf 575
ovsky 575
Ars@@ 574
Jam 574
Kamera 574
MV 574
Schalke 574
kali 574
wn 574
Kateg@@ 573
ead 573
hij@@ 573
lands 573
sah 573
yün 573
1818 572
Denver 572
Format 572
Future 572
Garr@@ 572
Rita 572
Sound@@ 572
Verg@@ 572
mert 572
1.3 571
74@@ 571
Key 571
Lot@@ 571
SQL 571
Tu 571
Youtube 571
Bid@@ 570
Eas@@ 570
FT 570
Jr. 570
Nig@@ 570
Sut@@ 570
ual 570
Fourier 569
Trinidad 569
black 569
čić 569
60.000 568
Alliance 568
Lju@@ 568
Spart@@ 568
act 568
1816 567
Alonso 567
Dmi@@ 567
Fam@@ 567
Karate 567
MT@@ 567
Nob@@ 567
Refer@@ 567
Val 567
kata 567
lec@@ 567
nota 567
ruf 567
1807 566
Ass@@ 566
Blair 566
Gires@@ 566
Lati@@ 566
Sussex 566
Trinity 566
Year 566
aan 566
auch@@ 566
emon 566
Chester 565
Field 565
Hier@@ 565
Kardinal 565
Tower 565
Trans 565
ilia 565
oud 565
ás@@ 565
CW 564
Hez@@ 564
Interactive 564
Jeffrey 564
Scot@@ 564
cestershire 564
elis 564
itas 564
navig@@ 564
uel 564
Bang@@ 563
Champions 563
Coupe 563
DM 563
Hope 563
Tram@@ 563
bah 563
erh@@ 563
mara 563
qua 563
ras 563
sten@@ 563
144 562
Burkina 562
Eli 562
Krem@@ 562
Lub@@ 562
Starg@@ 562
altar@@ 562
law 562
Đ@@ 562
Anatom@@ 561
Clin@@ 561
Joey 561
Myr@@ 561
blog 561
dog@@ 561
icius 561
yel 561
Alp@@ 560
Beethoven 560
Bengal 560
Lancaster 560
Lucia 560
Ward 560
alta 560
nati@@ 560
sander 560
ț@@ 560
Capital 559
ushi 559
Castle 558
Guy@@ 558
alom 558
asis 558
flü@@ 558
kiewicz 558
sman 558
Atlantis 557
Chal@@ 557
Joyce 557
Marilyn 557
Maximilian 557
Rain 557
Sach@@ 557
Stef@@ 557
Xia@@ 557
bron@@ 557
chus 557
ovic 557
vs. 557
win@@ 557
Adobe 556
Björ@@ 556
Carmen 556
Eden 556
Game@@ 556
Holland 556
Marc@@ 556
Metacritic 556
Thunder 556
Tog@@ 556
amon 556
cim@@ 556
ial 556
iton 556
mRNA 556
nim@@ 556
nov 556
spin 556
ture 556
1824 555
Alc@@ 555
Alexand@@ 555
Po 555
Titan 555
Waffen 555
Zag@@ 555
asc@@ 555
ense@@ 555
olağ@@ 555
Bati@@ 554
Desp@@ 554
Haus@@ 554
Ou@@ 554
Vladi@@ 554
anton 554
dej@@ 554
endis@@ 554
138 553
Cry 553
Gill@@ 553
Hitchcock 553
Rho@@ 553
ign 553
neği 553
oll 553
176 552
199@@ 552
77@@ 552
Atom@@ 552
Bergen 552
Hanna 552
Heter@@ 552
Patricia 552
VB 552
Verona 552
imen 552
mare 552
141 551
24,@@ 551
Gw@@ 551
HT 551
dra@@ 551
oux 551
Abdul 550
Fantas@@ 550
Hast@@ 550
sing 550
Beth@@ 549
Jonas 549
Lö@@ 549
Movie 549
Run 549
Schw@@ 549
aft@@ 549
avan 549
ayama 549
egger 549
remix 549
sy 549
205 548
Elisabeth 548
Watch 548
alo 548
integral 548
odor@@ 548
sov 548
Laos 547
Plaza 547
Set 547
Stephanie 547
ello@@ 547
otto 547
134 546
AH 546
Das 546
Gaulle 546
Happy 546
Hero 546
Only 546
Quebec 546
Saturn 546
Sergei 546
anu 546
ches 546
mail@@ 546
rant 546
216 545
225 545
Alfonso 545
Auto 545
Borough 545
TNA 545
Tallinn 545
Tomatoes 545
Turkey 545
lada 545
meta 545
vius 545
Fernández 544
Macar@@ 544
Togo 544
Wembley 544
arti@@ 544
ensk 544
pp 544
AO 543
Alz@@ 543
Hamil@@ 543
IL@@ 543
Sin 543
Sle@@ 543
sdorf 543
69@@ 542
Know 542
MX 542
Pratt 542
Salt 542
Samoa 542
Sang@@ 542
Stade 542
estes 542
lau@@ 542
lens 542
ofu 542
1788 541
1798 541
Anat@@ 541
Cham@@ 541
Const@@ 541
Gand@@ 541
eck@@ 541
nus 541
real 541
sho@@ 541
1100 540
Ai@@ 540
Betty 540
Blackburn 540
HT@@ 540
atidae 540
bourne 540
hut@@ 540
ils 540
nde@@ 540
tetr@@ 540
Away 539
Electronic 539
Garcia 539
Hammer 539
color 539
kran@@ 539
nez 539
self 539
spons@@ 539
1774 538
Alto 538
Card@@ 538
Hood 538
Lay@@ 538
Sex 538
Winter@@ 538
ansk 538
eia 538
phone 538
reci@@ 538
Car 537
Cli@@ 537
Coast 537
Igor 537
Klin@@ 537
ML 537
Reis@@ 537
coli 537
enge 537
iku@@ 537
monit@@ 537
osi 537
pei 537
tum@@ 537
İtal@@ 537
About 536
CF@@ 536
FIA 536
Fischer 536
HD@@ 536
Leverkusen 536
Luna 536
imer 536
mol 536
ree 536
toler@@ 536
ustos 536
7.5 535
Ashley 535
Kabar@@ 535
Kant 535
Lokom@@ 535
Malik 535
PN 535
Smol@@ 535
Vamp@@ 535
Winston 535
one@@ 535
quin@@ 535
ʻ@@ 535
Descartes 534
Gog@@ 534
Mys@@ 534
Vera 534
ata@@ 534
kowski 534
veh@@ 534
Idaho 533
KS 533
Lily 533
Lionel 533
Sunderland 533
dium 533
eas 533
eos 533
onds 533
rehabilit@@ 533
א@@ 533
1791 532
66,@@ 532
Centre 532
Enf@@ 532
Ferg@@ 532
Grand@@ 532
Human 532
Jun 532
Kang 532
Ruth 532
SP 532
Tetr@@ 532
Wis@@ 532
eville 532
firm@@ 532
ria 532
Emer@@ 531
Javier 531
Mack@@ 531
Nation 531
Sot@@ 531
ball@@ 531
dell 531
ilis 531
mud 531
optim@@ 531
4.5 530
Cezay@@ 530
Discovery 530
Forever 530
Normal@@ 530
Percy 530
SU 530
TCP 530
Volvo 530
monta@@ 530
tera 530
136 529
Braun 529
Dag@@ 529
Full 529
Hale 529
Metal@@ 529
Ming 529
Nau@@ 529
Rossi 529
SO 529
Sorbonne 529
Swan@@ 529
Terr@@ 529
anol 529
indis@@ 529
micro@@ 529
ová 529
unge 529
Eduardo 528
Gim@@ 528
Leslie 528
MO 528
Nash 528
Our 528
kette 528
tens@@ 528
Alma 527
Dana 527
Direc@@ 527
Petrol@@ 527
Rodrigo 527
Targ@@ 527
Tō@@ 527
akça 527
aldi 527
death 527
dei 527
Alessandro 526
Duncan 526
Evil 526
Leibniz 526
MIT 526
Or 526
ayashi 526
büro@@ 526
odes 526
ques 526
tara 526
è@@ 526
Freiburg 525
Led@@ 525
Petra 525
Port@@ 525
Tito 525
celer@@ 525
phy@@ 525
Andre 524
Bret@@ 524
HTML 524
Hyp@@ 524
Joy 524
Lew@@ 524
Lif@@ 524
Liu 524
Next 524
ality 524
ces 524
ique 524
isco 524
jit@@ 524
Daw@@ 523
Destiny 523
Kras@@ 523
Logan 523
MT 523
Mainz 523
Rodríguez 523
Smo@@ 523
aerod@@ 523
arron@@ 523
elles 523
emer 523
flora 523
hide 523
osi@@ 523
Étienne 523
ר@@ 523
Coul@@ 522
Dus@@ 522
Dylan 522
Infin@@ 522
Kenny 522
Luci@@ 522
Silver@@ 522
Southampton 522
agawa 522
cum@@ 522
enst@@ 522
ström 522
tag 522
ury 522
166 521
Chen 521
Dream@@ 521
EF 521
Gay 521
Generation 521
Jud@@ 521
Meyer 521
Ost@@ 521
Price 521
Rin@@ 521
Thomson 521
ahisar 521
ampa 521
inson 521
kid@@ 521
oras 521
Abel 520
DT 520
Design 520
Europa 520
Hunt 520
Vinci 520
ós 520
1817 519
Alejandro 519
Davies 519
Malcolm 519
Mord@@ 519
Obr@@ 519
eves 519
lug@@ 519
Aeg@@ 518
Asi@@ 518
Beth 518
Five 518
Kolum@@ 518
Luther 518
Orion 518
Paramount 518
Pat 518
atl@@ 518
ilius 518
iliv@@ 518
ogue 518
salt 518
± 518
ís 518
1805 517
Alexandra 517
Huy@@ 517
IE@@ 517
Jenn@@ 517
LCD 517
NFL 517
Olympique 517
drum 517
entius 517
lee 517
orian 517
uld 517
usi@@ 517
wen@@ 517
BSD 516
Bing 516
Bloom@@ 516
Brom@@ 516
F.C. 516
GSM 516
Hulk 516
Hull 516
Octav@@ 516
Oth@@ 516
Snow 516
Sob@@ 516
UL@@ 516
augh@@ 516
hausen 516
left 516
paras@@ 516
Annie 515
Cath@@ 515
Dz@@ 515
Ortodo@@ 515
South@@ 515
States 515
ayana 515
lap@@ 515
pic@@ 515
1.8 514
154 514
99@@ 514
Chang@@ 514
EN 514
Horiz@@ 514
Nom@@ 514
Paula 514
Rush 514
Special 514
efe 514
eine 514
mis 514
ovol@@ 514
world 514
Çoc@@ 514
ტ@@ 514
1783 513
1797 513
1811 513
Belle 513
Christine 513
Dra@@ 513
Zu@@ 513
beck 513
limi@@ 513
otta 513
1780 512
207 512
CR@@ 512
Computer 512
Cornell 512
Derby 512
Falls 512
Guinness 512
Hann@@ 512
Poli@@ 512
text 512
tortu@@ 512
unga 512
ān 512
137 511
Eff@@ 511
Gabon 511
Harmon@@ 511
LD 511
Schrö@@ 511
Shannon 511
Winter 511
diploma 511
ox@@ 511
panel 511
sberg 511
timi@@ 511
verse 511
zab@@ 511
к@@ 511
Anvers 510
Dog 510
Films 510
Küç@@ 510
Pius 510
Zero 510
ayer 510
inv@@ 510
mart@@ 510
uss 510
én@@ 510
ه 510
1795 509
845 509
Bing@@ 509
Chan@@ 509
Hasta 509
Lut@@ 509
Multi@@ 509
Truth 509
Zhang 509
eni@@ 509
omer 509
poli 509
som 509
tern 509
Ambl@@ 508
Choi 508
Deme@@ 508
Katr@@ 508
Main 508
Sunday 508
allah 508
aurus 508
gren 508
ids 508
oir 508
tag@@ 508
wei 508
156 507
Andrews 507
Brescia 507
Ha 507
Imag@@ 507
Sofia 507
Witt@@ 507
aham 507
anner 507
atıf@@ 507
sions 507
у@@ 507
0.6 506
685 506
AU 506
CP@@ 506
Dong 506
Hod@@ 506
IR@@ 506
Jackie 506
esan 506
eur@@ 506
geneti@@ 506
mum 506
1823 505
Beverly 505
Bien@@ 505
Brad@@ 505
Columbus 505
Ind@@ 505
Mar 505
Richmond 505
TG@@ 505
There 505
Xavier 505
role 505
upp@@ 505
7,5 504
8.1 504
Emp@@ 504
F.@@ 504
Fad@@ 504
Fiji 504
Gen 504
Obj@@ 504
but 504
lington 504
ll 504
ride 504
tico 504
usan 504
verm@@ 504
Flora 503
Hal 503
Hoy@@ 503
Loire 503
Well@@ 503
litz 503
zel@@ 503
Afro 502
Bas 502
Kw@@ 502
Nine 502
Pog@@ 502
eon@@ 502
Ghost 501
Kyle 501
Mend@@ 501
Mitsubishi 501
Omega 501
Wid@@ 501
atomu 501
haba 501
tend@@ 501
1.9@@ 500
6000 500
Anadol@@ 500
Beşik@@ 500
Gad@@ 500
Malay 500
Preston 500
Scr@@ 500
dot 500
ision 500
lea 500
petr@@ 500
rez 500
yth@@ 500
,000 499
Alam@@ 499
Auguste 499
Castel@@ 499
Donna 499
Hadi 499
Ling@@ 499
Public 499
Quinn 499
Rhy@@ 499
atic 499
double 499
duc@@ 499
eir@@ 499
rail 499
tex 499
zip 499
233 498
25,@@ 498
537 498
63@@ 498
Bih@@ 498
Calvin 498
Council 498
Delaware 498
Göte@@ 498
Hew@@ 498
Hof@@ 498
Papua 498
Picasso 498
Sega 498
Sherlock 498
idel@@ 498
ische 498
under@@ 498
1802 497
217 497
30. 497
Animation 497
Diam@@ 497
Digit@@ 497
Drag@@ 497
Jab@@ 497
Jesus 497
Manc@@ 497
Sex@@ 497
Trin@@ 497
Windsor 497
arios 497
ero@@ 497
ls 497
pra@@ 497
Andri@@ 496
Chem@@ 496
Church 496
DNS 496
Jenny 496
Pittsburgh 496
Richards 496
Squ@@ 496
agus 496
azza 496
kik@@ 496
ool 496
sio 496
vio 496
Alberta 495
Bowl 495
Dod@@ 495
España 495
Gerald 495
Harbor 495
LS 495
Mind 495
anza 495
avia 495
delta 495
güre@@ 495
jk 495
oby 495
pound 495
ross 495
Dais@@ 494
Extreme 494
Quint@@ 494
SARS 494
Uru@@ 494
brid@@ 494
osom@@ 494
ürlüğe 494
šić 494
Capitol 493
Fair 493
Jura 493
Olympi@@ 493
Re 493
rier 493
ufu@@ 493
ե@@ 493
1776 492
Devil 492
Gran 492
Hadi@@ 492
IPv@@ 492
Marin@@ 492
Nantes 492
Pengu@@ 492
SF 492
SN 492
Shin 492
aber@@ 492
anum 492
ating 492
oster@@ 492
uku@@ 492
21,@@ 491
250.000 491
GmbH 491
Nolan 491
Siemens 491
Vec@@ 491
aji 491
hot@@ 491
itali@@ 491
xx 491
Aph@@ 490
Emb@@ 490
Epi@@ 490
Gis@@ 490
Kingdom 490
Luz@@ 490
Ole@@ 490
Ubuntu 490
leist@@ 490
other@@ 490
retr@@ 490
zeme 490
ą@@ 490
Bo 489
Carroll 489
Eis@@ 489
Hyundai 489
IUCN 489
Rast@@ 489
Tech@@ 489
Tof@@ 489
apel 489
culus 489
gon@@ 489
kai 489
live 489
olm 489
wer 489
1- 488
2.1 488
5.5 488
Faso 488
Second 488
Tub@@ 488
gama 488
Alba 487
Morav@@ 487
Reynolds 487
Spot@@ 487
akin 487
bels 487
enia 487
inj@@ 487
nos@@ 487
Dau@@ 486
Paral@@ 486
Río 486
Sper@@ 486
UR 486
Ug@@ 486
fun 486
lair 486
Albion 485
Boul@@ 485
Dong@@ 485
Firefox 485
Lars 485
Parsons 485
Saturday 485
Strauss 485
engo 485
global 485
lide 485
nad@@ 485
western 485
Edo 484
Gloria 484
Greatest 484
Kik@@ 484
Kill 484
Shawn 484
abu 484
ellidae 484
fem@@ 484
flam@@ 484
format 484
magaz@@ 484
2.500 483
496 483
Amanda 483
Benn@@ 483
Fan@@ 483
Guil@@ 483
IV@@ 483
Sr@@ 483
Week@@ 483
amis 483
berry 483
ppi 483
ქ@@ 483
ED@@ 482
Elec@@ 482
Goya 482
Heavyweight 482
Simone 482
Springfield 482
True 482
Want 482
logan 482
lé 482
oder@@ 482
zel 482
143 481
Apache 481
Eras@@ 481
Fru@@ 481
Grove 481
Henderson 481
Lie 481
M2 481
Make 481
ND@@ 481
Night@@ 481
Pitt 481
Wr@@ 481
asili 481
bio 481
enny 481
icul@@ 481
nec@@ 481
zef 481
163 480
185 480
32.@@ 480
Beat 480
Break 480
GHz 480
Gate 480
Memorial 480
Nord 480
Rodriguez 480
Today 480
Vince 480
asso 480
azo 480
tice 480
än@@ 480
148 479
1803 479
235 479
Mans 479
Mariah 479
Mia 479
Mok@@ 479
ampli@@ 479
chu@@ 479
fle@@ 479
ille@@ 479
imp@@ 479
mund 479
very 479
5,000 478
Amas@@ 478
Have 478
Storm 478
idor 478
pres 478
tain 478
war 478
ő@@ 478
Bari 477
Edit@@ 477
Eti@@ 477
Fav@@ 477
Göttingen 477
Heights 477
Kraków 477
Lara 477
atu@@ 477
beg@@ 477
cy@@ 477
entina 477
Cardiff 476
Control 476
Faus@@ 476
Fly 476
Konrad 476
Nut@@ 476
Soccer 476
Turkish 476
Ultra 476
Yo 476
dius 476
dov@@ 476
ikov 476
139 475
DO 475
HK 475
Hannah 475
OK 475
Rif@@ 475
Tum@@ 475
abon 475
anst@@ 475
assi@@ 475
ellan 475
emin@@ 475
ridir 475
televiz@@ 475
267 474
Feri@@ 474
Heart@@ 474
Jeanne 474
Jen@@ 474
Tanaka 474
Tell 474
Vicente 474
ean@@ 474
rut@@ 474
tn@@ 474
р@@ 474
₺ 474
142 473
Audi 473
Cit@@ 473
HTTP 473
How@@ 473
Jung@@ 473
MAC 473
Maiden 473
Nixon 473
Rau@@ 473
horn 473
kard 473
rette@@ 473
teleskop@@ 473
Chang 472
Face 472
GO 472
Joachim 472
Lena 472
Manif@@ 472
nominal 472
paradig@@ 472
rön@@ 472
05.@@ 471
1794 471
37.@@ 471
420 471
Bry@@ 471
Cri@@ 471
Gram@@ 471
Zaragoza 471
amura 471
dro@@ 471
enna 471
ushima 471
● 471
950 470
Boc@@ 470
FF@@ 470
Heidelberg 470
Mann@@ 470
Split 470
brook 470
ectus 470
opus 470
ík 470
ն 470
195 469
340 469
640 469
Camille 469
Edir@@ 469
Utrecht 469
allas 469
anis 469
bani 469
cat 469
Elvis 468
Nottingham 468
Raven@@ 468
Teg@@ 468
Wein@@ 468
ening 468
pha 468
shan 468
tisini 468
tona 468
38.@@ 467
Cov@@ 467
DD 467
Dop@@ 467
Dorothy 467
Gang 467
Kapit@@ 467
Many@@ 467
Pix@@ 467
bro 467
draft 467
ilit@@ 467
inum 467
ute 467
Benin 466
Lang 466
Meiji 466
Theo 466
alu 466
hain 466
Agu@@ 465
Hamm@@ 465
Nath@@ 465
Noy@@ 465
Oliveira 465
Toledo 465
akula 465
eno@@ 465
i.@@ 465
new 465
orno 465
pro 465
station 465
ylo@@ 465
Baptiste 464
Het@@ 464
Kaj@@ 464
Linn@@ 464
Martín 464
Rand@@ 464
Sarg@@ 464
Vau@@ 464
Wyoming 464
ados 464
endorf 464
twe@@ 464
Books 463
Erzur@@ 463
Hoffman 463
Ka 463
Seh@@ 463
agh 463
okrati@@ 463
recht 463
Alexis 462
Amaz@@ 462
Bird 462
Fog@@ 462
Jó@@ 462
Kuk@@ 462
Lek@@ 462
Show@@ 462
V.@@ 462
dle 462
panz@@ 462
yt@@ 462
âne 462
.org 461
97.@@ 461
Acc@@ 461
Brighton 461
Bör@@ 461
Florence 461
Malt@@ 461
Royce 461
Sims 461
Vietnam@@ 461
anal 461
aw 461
tromp@@ 461
wing 461
Alvar@@ 460
Andrei 460
Broad@@ 460
Ruby 460
Stil@@ 460
Vie@@ 460
él@@ 460
Drew 459
Enrique 459
Isabella 459
M1 459
Mell@@ 459
PL@@ 459
Stop 459
Work 459
andro@@ 459
coni 459
kon 459
Barton 458
Beck 458
Bochum 458
Chevrolet 458
Marcos 458
Rockefeller 458
obr@@ 458
tina 458
708 457
Abd 457
Avi@@ 457
Bilbao 457
Fron@@ 457
Isa@@ 457
Kass@@ 457
Montpellier 457
Nassau 457
TM 457
forme 457
qui 457
rh@@ 457
wak@@ 457
Cristi@@ 456
Irving 456
Naomi 456
Natalia 456
Python 456
Raw@@ 456
Right 456
Sylv@@ 456
UFO 456
Walk 456
arro 456
ecraft 456
ubil@@ 456
07.@@ 455
CR 455
Du 455
Earl 455
Nish@@ 455
Production 455
Rug@@ 455
View 455
XVIII 455
absor@@ 455
ilus 455
pez 455
rich@@ 455
seli 455
send@@ 455
tions 455
158 454
1770 454
Jaime 454
Laurence 454
Township 454
amos 454
background 454
chen@@ 454
mari@@ 454
vas 454
zina 454
1660 453
370 453
Als@@ 453
Anj@@ 453
Bath@@ 453
Bund@@ 453
Carnegie 453
Cha@@ 453
Chi 453
Elf@@ 453
Heath 453
Kau@@ 453
Lauren 453
Milwaukee 453
Notre 453
PD@@ 453
asiy@@ 453
larv@@ 453
mid 453
owitz 453
utz 453
vá@@ 453
Action 452
Bla@@ 452
Kit 452
NK 452
Order 452
See 452
Teresa 452
avius 452
esn@@ 452
fru@@ 452
onic 452
oun 452
ui@@ 452
28,@@ 451
415 451
Autom@@ 451
Bates 451
Broadcasting 451
Fren@@ 451
GO@@ 451
Herman 451
Heroes 451
León 451
Stoke 451
WCW 451
atis@@ 451
demi 451
leg 451
ough@@ 451
pati@@ 451
rac@@ 451
vist 451
222 450
400.000 450
Clem@@ 450
Damon 450
Player 450
Vega 450
anski 450
roc@@ 450
AJ 449
Ayd@@ 449
Brandon 449
Doyle 449
Expo 449
Fün@@ 449
Ip@@ 449
Legend 449
Lion 449
Mix 449
Sherman 449
Sten@@ 449
Wind@@ 449
Wonder 449
boro 449
hire 449
lep@@ 449
oste@@ 449
refle@@ 449
ša 449
4x@@ 448
Circle 448
Guillaume 448
Lens 448
Norton 448
Pisa 448
Tech 448
WB 448
Wolver@@ 448
antisemiti@@ 448
atti 448
ilini 448
infr@@ 448
patron@@ 448
wie 448
מ@@ 448
1461 447
Brien 447
Buch@@ 447
Dominique 447
Lol@@ 447
Mob@@ 447
Sciences 447
Walking 447
Wh 447
Yi 447
ladi@@ 447
mitt 447
pper 447
1,0@@ 446
1520 446
1522 446
168 446
Aver@@ 446
Exchange 446
Eyes 446
Olivia 446
Word 446
ires 446
look 446
multi@@ 446
äl@@ 446
üstri@@ 446
192 445
32@@ 445
Antil@@ 445
French 445
Lotus 445
RIAA 445
Sanders 445
Ski@@ 445
hua 445
μ@@ 445
Jel@@ 444
Lockheed 444
Name 444
Rain@@ 444
Staf@@ 444
book 444
manif@@ 444
med 444
sorg@@ 444
tape 444
tig 444
yna 444
HM 443
KGB 443
Pru@@ 443
Rij@@ 443
Rous@@ 443
Scorpi@@ 443
Snow@@ 443
Vand@@ 443
aste 443
cher@@ 443
ful@@ 443
Anay@@ 442
Angels 442
DOS 442
Gil 442
Mall@@ 442
ambo 442
eiro 442
host@@ 442
simum 442
wild 442
ying 442
153 441
Diane 441
IR 441
Indian 441
Management 441
MiG 441
Rice 441
Theater 441
ads 441
aside 441
dot@@ 441
suka 441
AH@@ 440
Far 440
Joshua 440
Kirch@@ 440
Miner@@ 440
Valentine 440
bain 440
hard@@ 440
ingi@@ 440
m3 440
right 440
rin@@ 440
talk 440
tian 440
405 439
5.0 439
Julio 439
Neal 439
Pacific 439
Porter 439
Trou@@ 439
ambul@@ 439
dt 439
lman 439
395 438
Dé@@ 438
Guido 438
Kuba 438
Louvre 438
Medical 438
Nature 438
Ruf@@ 438
Sasha 438
apart 438
eben 438
ering 438
sac@@ 438
soprano 438
wski 438
Bowie 437
Clu@@ 437
Ehr@@ 437
Famil@@ 437
Manga 437
OE@@ 437
Sport@@ 437
Te 437
aup@@ 437
favor@@ 437
gers 437
hee 437
ms@@ 437
unds 437
yah 437
й 437
,@@ 436
1204 436
331 436
Aguilera 436
Chap@@ 436
Data 436
Jus@@ 436
Liberty 436
Omar 436
Pf@@ 436
Southern 436
Stadium 436
Steel 436
Zan@@ 436
bid@@ 436
illing 436
imet@@ 436
omin@@ 436
onen 436
pra 436
178 435
34.@@ 435
35.@@ 435
57.@@ 435
Christie 435
Desmond 435
Epic 435
India 435
Luc 435
Luca 435
Molly 435
Ocean 435
Social 435
Wir@@ 435
abo 435
eld 435
eston 435
nica 435
roll 435
spr@@ 435
Anatol@@ 434
Barack 434
Beb@@ 434
Bras@@ 434
Cox 434
Main@@ 434
Trig@@ 434
kho@@ 434
leen 434
nut 434
obs 434
Chamberlain 433
Cla@@ 433
Kabul 433
Krup@@ 433
ensen 433
fis@@ 433
lb 433
nig@@ 433
sie 433
table 433
1402 432
167 432
1799 432
BW@@ 432
Community 432
Cornelius 432
Lup@@ 432
MG 432
Reagan 432
Stol@@ 432
Trail 432
UM@@ 432
ble@@ 432
this 432
wel@@ 432
zis@@ 432
ác@@ 432
1,6 431
164 431
1796 431
2.4 431
540 431
911 431
Auvergne 431
Claudia 431
Double 431
Genn@@ 431
Jack@@ 431
Judith 431
Schul@@ 431
Station 431
Wester@@ 431
Wien 431
Zav@@ 431
dez 431
ifer 431
rd 431
ulf 431
ure@@ 431
vap@@ 431
π 431
ב@@ 431
0.5 430
09.@@ 430
2- 430
29,@@ 430
Auschwitz 430
Frances 430
Hawkins 430
M3 430
Nap@@ 430
Rahman 430
Zach@@ 430
isson 430
mümkün@@ 430
open@@ 430
stream 430
ulin 430
1,3 429
1750 429
Akira 429
Anto@@ 429
Every@@ 429
ages 429
ezer 429
lava 429
stead 429
tical 429
turbo@@ 429
unter 429
ël 429
001 428
150.000 428
ATA 428
Cage 428
Elite 428
Greenwich 428
Harald 428
Hogan 428
Pang@@ 428
Yuan 428
engu@@ 428
link 428
oh 428
Adventure 427
Brand@@ 427
Burke 427
Glad@@ 427
Paulus 427
Rich 427
Spec@@ 427
Water 427
World@@ 427
Zul@@ 427
brom@@ 427
stand 427
stop 427
ე 427
შ@@ 427
430 426
Ad 426
Benito 426
Campo 426
Chiba 426
Development 426
Frag@@ 426
Kirk@@ 426
Prus@@ 426
Syl@@ 426
Venezia 426
annon 426
asisi 426
ayette 426
cit@@ 426
later 426
nitr@@ 426
sh 426
ühr@@ 426
г@@ 426
39.@@ 425
Aub@@ 425
Chor@@ 425
Electronics 425
Khal@@ 425
Mauritius 425
NC 425
Nay@@ 425
Tod@@ 425
Trich@@ 425
defin@@ 425
ehouse 425
onna 425
ysis 425
üssel@@ 425
151 424
Cell 424
Gerard 424
Hou@@ 424
Living 424
Lou 424
PGC 424
Spring 424
Stella 424
Ta 424
Tina 424
Tis@@ 424
aven 424
kshire 424
pid 424
thal 424
1516 423
478 423
Adr@@ 423
Butter@@ 423
Candy 423
Independent 423
Mig@@ 423
Rim@@ 423
Spider 423
Toc@@ 423
Tra@@ 423
Without 423
aar 423
fati@@ 423
otis 423
zia 423
Charl@@ 422
Glen 422
IEEE 422
MG@@ 422
Prime 422
Tracy 422
Where 422
alto 422
baum 422
moral 422
onc@@ 422
woo 422
xy 422
171 421
264 421
Adelaide 421
Adler 421
Clay 421
Dead@@ 421
Durham 421
Guns 421
Hyper@@ 421
Lanc@@ 421
Lob@@ 421
Nikolai 421
PT 421
cip@@ 421
dra 421
stedt 421
ures 421
л@@ 421
310 420
ARM 420
Axel 420
Bratislava 420
Cann@@ 420
Chandler 420
Olympia 420
Plata 420
Sacramento 420
ily 420
ship 420
wall 420
198@@ 419
6.5 419
Enrico 419
Istanbul 419
Kemp@@ 419
PI 419
Paradise 419
Rothschild 419
SR@@ 419
Urban 419
Vittorio 419
W.@@ 419
Wik@@ 419
imus 419
lows 419
pert 419
sian 419
BR@@ 418
DV@@ 418
Eintracht 418
Federico 418
Lüb@@ 418
Norwich 418
Plymouth 418
Primera 418
Sharon 418
Ston@@ 418
aise 418
aktive 418
engen 418
ets@@ 418
fish 418
them@@ 418
-1 417
04.@@ 417
149 417
Abbey 417
Bulg@@ 417
Conan 417
Crazy 417
Fu 417
PD 417
SBS 417
Tonight 417
You@@ 417
acia 417
arra 417
aí@@ 417
itter 417
ști 417
000@@ 416
Doc@@ 416
Feld@@ 416
Hesse 416
MI 416
Rupert 416
Sung 416
Universit@@ 416
cab@@ 416
hana 416
lid 416
suki 416
under 416
wang 416
wyn 416
159 415
520 415
CK 415
Free@@ 415
Greene 415
Heb@@ 415
Horn@@ 415
Pereira 415
Sens@@ 415
Shadow 415
Six@@ 415
Terminal 415
Years 415
eim 415
ţ@@ 415
2.3 414
512 414
Burundi 414
Choice 414
Coleman 414
Factor 414
Geoffrey 414
Melissa 414
Palazzo 414
Palmer 414
bass 414
chio 414
enh@@ 414
enus 414
fire 414
olla 414
olus 414
pit 414
venti@@ 414
172 413
Aman@@ 413
Gomez 413
Made 413
Mohamed 413
Pierce 413
Pulitzer 413
Sandra 413
Santana 413
Step 413
Zhu@@ 413
arme 413
embr@@ 413
erno 413
ild 413
mane 413
tada 413
twood 413
ì 413
Adal@@ 412
Code 412
Mozilla 412
NY@@ 412
Novi 412
Polo 412
Republic 412
Tamb@@ 412
Torre 412
dier 412
eless 412
pen 412
quez 412
seller 412
بن 412
162 411
Court 411
Lorraine 411
Makao 411
München 411
Tup@@ 411
Willem 411
age@@ 411
aun 411
cen 411
Dynam@@ 410
Jú@@ 410
Newman 410
Rebecca 410
Richardson 410
Singer 410
Spek@@ 410
TR 410
VO@@ 410
Walsh 410
Xen@@ 410
antes 410
chester 410
enda 410
intern 410
omat@@ 410
đ@@ 410
1521 409
Alicia 409
DI@@ 409
EV@@ 409
Finale 409
Freeman 409
Gates 409
Kond@@ 409
Lop@@ 409
Nike 409
Param@@ 409
Wan 409
cott 409
egen@@ 409
ensburg 409
feet 409
iidae 409
inidae 409
lich 409
lie@@ 409
ob 409
outh 409
ove 409
serve 409
zeng@@ 409
Humph@@ 408
Kader 408
Legends 408
Phyl@@ 408
amar 408
chia 408
four 408
gro@@ 408
ignon 408
imir 408
membran@@ 408
mente 408
synth@@ 408
Ł@@ 408
5,5 407
Chel@@ 407
Deleg@@ 407
Gat@@ 407
Herz@@ 407
Pérez 407
SPD 407
WA 407
arta 407
aum 407
cht 407
ebo@@ 407
ernes 407
oc 407
rig@@ 407
Albums 406
Baldwin 406
Bam@@ 406
Cag@@ 406
Cl 406
Conrad 406
Cuc@@ 406
Evolution 406
Hoff@@ 406
Mumbai 406
Sánchez 406
Verdi 406
Yoh@@ 406
igen 406
lius 406
ongo 406
roy 406
10,000 405
201 405
Fort@@ 405
Peri@@ 405
Sard@@ 405
UC@@ 405
Ub@@ 405
Wed@@ 405
Yahoo 405
holding 405
livan 405
stal@@ 405
ː@@ 405
ה@@ 405
AX 404
Amad@@ 404
Anders 404
Asia 404
Mist@@ 404
Pros@@ 404
Tales 404
Yves 404
bers 404
natür@@ 404
uria 404
747 403
960 403
Bach@@ 403
Engine 403
Hug@@ 403
Ib@@ 403
Mina 403
Moreno 403
Oskar 403
aly 403
ear 403
ells 403
fine 403
ouv@@ 403
ә@@ 403
1,8 402
182 402
Carson 402
Case 402
Chin@@ 402
Christi@@ 402
Elias 402
HO@@ 402
MD@@ 402
Matil@@ 402
Nos@@ 402
Pig@@ 402
Ufa 402
Wave 402
andro 402
bonus 402
buri 402
unker 402
uth 402
----@@ 401
08.@@ 401
36.@@ 401
Alfredo 401
Casa 401
EMI 401
Galli@@ 401
Gerhard 401
H2O 401
Marko 401
Mickey 401
Remix 401
Volta 401
deo 401
efer@@ 401
ele@@ 401
fly 401
lian 401
sko@@ 401
soul 401
169 400
BF 400
Coll@@ 400
Eugène 400
Isabel 400
Itali@@ 400
MK 400
Rex 400
Robertson 400
Stall@@ 400
Vlad@@ 400
fast 400
huy@@ 400
py@@ 400
quer@@ 400
1730 399
Adel@@ 399
Board 399
Gear 399
Hack@@ 399
Hyde 399
Mel 399
Metz 399
Mother 399
Surrey 399
andar@@ 399
anie 399
dragon 399
emer@@ 399
ettel 399
tru@@ 399
630 398
Ariel 398
Bundes@@ 398
Cold 398
H1 398
Moz@@ 398
NH@@ 398
Payne 398
Rosen@@ 398
Ruther@@ 398
Samantha 398
asus 398
erst@@ 398
etos 398
hol 398
iba 398
igne 398
jar@@ 398
204 397
305 397
Captain 397
Irene 397
Rules 397
Stir@@ 397
Visual 397
Vol 397
baya 397
che@@ 397
gig@@ 397
quet 397
Édouard 397
О@@ 397
186 396
Becker 396
Berger 396
Body 396
Brag@@ 396
Chamber 396
Wilde 396
ara@@ 396
rana 396
sung 396
thus 396
ways 396
ø 396
θ 396
1550 395
1648 395
1775 395
Alab@@ 395
Cool 395
East@@ 395
Ein@@ 395
Finn 395
Fuk@@ 395
Gone 395
Juniors 395
Körf@@ 395
NR@@ 395
Oak 395
Premi@@ 395
Surin@@ 395
Temp@@ 395
Ultimate 395
06.@@ 394
80.000 394
ED 394
Eye 394
Faust 394
Guild 394
Henrik 394
Hessen 394
Justice 394
Jürgen 394
Market 394
Miranda 394
Oz 394
Rivera 394
Shah@@ 394
Spirit 394
accio 394
amid 394
eme@@ 394
erry 394
g. 394
jav@@ 394
ł 394
174 393
202 393
410 393
Collection 393
Dalton 393
Erwin 393
JavaScript 393
Rhe@@ 393
Tus@@ 393
Wiz@@ 393
umba 393
zum@@ 393
ã@@ 393
ל@@ 393
1603 392
193 392
Alar@@ 392
Benny 392
Biss@@ 392
Burma 392
Derr@@ 392
Gob@@ 392
IB@@ 392
Montevideo 392
NF 392
Ten 392
Venez@@ 392
Vogue 392
enc 392
uer@@ 392
Britann@@ 391
Es 391
Lennon 391
Liam 391
Marsh@@ 391
Martínez 391
Noah 391
Portr@@ 391
Portsmouth 391
Teen 391
Wool@@ 391
andez 391
engine 391
partner@@ 391
plasma 391
power 391
vot 391
177 390
Down@@ 390
E3 390
Endon@@ 390
His 390
Hubert 390
KM 390
Nothing 390
Por 390
Screen 390
Tate 390
amia 390
anter 390
cliffe 390
sas 390
stere@@ 390
211 389
Beat@@ 389
Boom 389
Burns 389
División 389
Donn@@ 389
Estr@@ 389
Hau@@ 389
Kai 389
Kou@@ 389
Lucky 389
Maf@@ 389
Queensland 389
Scu@@ 389
Soci@@ 389
Starr 389
Stern 389
Superman 389
anyon 389
edra 389
einer 389
igh 389
neb@@ 389
ox 389
tuy@@ 389
utar@@ 389
vus 389
6,5 388
777 388
Amer@@ 388
CT 388
Crow@@ 388
Marseille 388
Natur@@ 388
Novo 388
TB 388
Topo@@ 388
Tor 388
Wind 388
cium 388
determin@@ 388
ffer 388
ocer@@ 388
otus 388
325 387
Brenn@@ 387
CV@@ 387
Coff@@ 387
Genesis 387
Glo@@ 387
Griffin 387
Krak@@ 387
Melan@@ 387
RAF 387
SU@@ 387
Savage 387
Sumatra 387
gy@@ 387
orio 387
ė@@ 387
Ś@@ 387
212 386
30,@@ 386
Chic@@ 386
Encyclo@@ 386
Goldberg 386
Haci@@ 386
Macintosh 386
Marius 386
Phot@@ 386
Shop 386
XML 386
Zur@@ 386
bili@@ 386
cos@@ 386
esse 386
hardt 386
hon 386
ndi@@ 386
zio 386
3G 385
Abe 385
Christoph 385
Fantasy 385
GL 385
Guyana 385
Lach@@ 385
Mad 385
Matthias 385
Vichy 385
Wikipedia 385
aen@@ 385
alba 385
eban 385
erie 385
monot@@ 385
ש@@ 385
1570 384
208 384
Bacon 384
Barbados 384
Boca 384
DFB 384
Gallery 384
Roth 384
Wheeler 384
dington 384
enga 384
enthal 384
glut@@ 384
istre 384
koda 384
ος 384
161 383
353 383
Aless@@ 383
Area 383
Better 383
Bj@@ 383
Dr 383
Estadio 383
Hash@@ 383
Holden 383
Idol 383
McCarthy 383
PCR 383
Qing 383
VfL 383
aleg@@ 383
dice 383
ehem@@ 383
iny@@ 383
tava 383
ω 383
н 383
بخش 383
1768 382
184 382
Buffalo 382
Common 382
Coruña 382
Cube 382
Graz 382
Hearts 382
Hospital 382
Motion 382
Philipp 382
Sonny 382
Stra@@ 382
Tuc@@ 382
ale@@ 382
teg@@ 382
ã 382
μ 382
183 381
218 381
Bok@@ 381
Elliott 381
Ezra 381
Federation 381
Gli@@ 381
Impact 381
Kiel 381
Lambert 381
Lum@@ 381
Master@@ 381
Purple 381
Timothy 381
alde@@ 381
same 381
BL@@ 380
Bertrand 380
Castell@@ 380
Chu@@ 380
Danger@@ 380
Globe 380
Hawks 380
akini 380
alls 380
mera 380
sum 380
1650 379
203 379
215 379
Clemens 379
Dex@@ 379
FL@@ 379
Gun 379
Haute 379
Kuh@@ 379
Raphael 379
Smith@@ 379
Tiy@@ 379
amu 379
anas 379
icon 379
idos 379
iji 379
m.@@ 379
onio 379
yra 379
0,2 378
1.200 378
Ace 378
Gram 378
IL 378
Merc@@ 378
Ulrich 378
gr 378
limit 378
ops@@ 378
z. 378
1778 377
209 377
680 377
Aurora 377
Gent@@ 377
Oricon 377
Pla@@ 377
acer@@ 377
ellus 377
gon 377
onian 377
pur 377
Bishop 376
Bradford 376
Como 376
Corr@@ 376
GE@@ 376
Gusta@@ 376
Jakob 376
Katherine 376
List 376
Marin 376
Pokal 376
Room 376
Schneider 376
Stein 376
Thur@@ 376
UT@@ 376
gos 376
i. 376
kie 376
olls 376
shaw 376
ь@@ 376
1763 375
460 375
Brunei 375
Donovan 375
Hit 375
Mr@@ 375
NP 375
Oly@@ 375
Reading 375
XIX 375
cum 375
ecki 375
ection 375
xa 375
ն@@ 375
189 374
CAF 374
Glu@@ 374
Gum@@ 374
John@@ 374
Mari 374
Midd@@ 374
Nick@@ 374
Roses 374
Shan@@ 374
Urugu@@ 374
Webster 374
agen 374
andere 374
funk 374
hind@@ 374
mouth 374
ocul@@ 374
opar@@ 374
qi 374
ynn 374
157 373
206 373
Bath 373
Corin@@ 373
Duc@@ 373
Frances@@ 373
Kongr@@ 373
Madame 373
Marcelo 373
Marl@@ 373
Moss 373
Too 373
Verde 373
erson 373
hop@@ 373
rich 373
196 372
Bear 372
Cherry 372
Coch@@ 372
Dist@@ 372
Jerome 372
Kanton 372
Kog@@ 372
Mani@@ 372
Paul@@ 372
Singh 372
Tenerife 372
Thames 372
Things 372
Turbo 372
ardi 372
ause 372
beth 372
chan 372
[...]
