. 53906788
, 39980294
der 33126897
und 25699435
die 21054122
in 19599555
&quot; 17849450
@-@ 13896996
von 12315806
den 10637753
) 9862494
( 9853715
des 9084499
er 8694483
im 8656289
mit 8037641
wurde 6895326
dem 6646202
ist 6514674
das 6250917
Die 6186032
als 6158622
zu 5638869
auf 5598577
ein 5487061
für 5429680
eine 5289609
an 5166769
sich 4950735
war 4763190
aus 3771164
auch 3510865
bis 3428960
am 3345469
nach 3317793
: 3217303
“ 3201910
„ 3181527
bei 3108369
es 3076753
en 3061032
Der 3041904
einer 2843056
sie 2833220
zum 2810263
ten 2440537
– 2271555
durch 2263932
einem 2240234
Im 2181156
ver@@ 2174774
er@@ 2164815
werden 2134984
um 2122078
ung 2117381
nicht 2116366
Das 2109941
sind 2106098
te 2091021
; 1982774
en@@ 1974964
einen 1970052
In 1966053
wird 1965763
zur 1940249
über 1919716
t 1899182
oder 1793239
wurden 1772057
ischen 1673334
dass 1584626
/ 1579432
Er 1563168
unter 1539591
- 1509182
Jahr 1508959
ungen 1489281
s 1484062
ische 1477417
Sch@@ 1458383
sch@@ 1418790
Ver@@ 1408957
s@@ 1355617
wie 1334867
aus@@ 1326369
ein@@ 1308109
vor 1301107
de 1292783
sowie 1251507
vom 1245994
z@@ 1220014
seiner 1219334
ungs@@ 1215665
ab@@ 1210229
Nach 1208716
nur 1172185
hatte 1166721
t@@ 1162356
be@@ 1145728
An@@ 1143949
seine 1139634
S@@ 1138597
noch 1124223
ter 1115916
Jahre 1107549
auf@@ 1101994
aber 1089493
G@@ 1084141
ab 1076864
el@@ 1075840
Sie 1071112
zwei 1070728
W@@ 1062361
K@@ 1060032
waren 1050474
k@@ 1046719
B@@ 1037534
H@@ 1030442
hat 1020345
el 1008187
L@@ 1007874
Ab@@ 1001688
an@@ 998676
* 990943
lich 988125
st@@ 977600
R@@ 968939
eines 968597
zwischen 956251
sein 945833
Jahren 945211
Vor@@ 933910
Am 933188
un@@ 929647
F@@ 918787
ent@@ 916526
ern 909610
n@@ 904414
P@@ 901710
liche 900616
ge@@ 896816
dieser 893309
lichen 891938
vor@@ 881474
gegen 880110
Aus@@ 875599
m 874421
über@@ 870857
D@@ 867822
Es 866103
e@@ 852173
f@@ 851036
e 840689
Er@@ 840209
isch 828472
ersten 820758
al@@ 820472
T@@ 816824
n 813676
of 806941
E@@ 804886
Zeit 800951
ch@@ 797953
Z@@ 794490
seit 781783
jedoch 780636
Stadt 775376
m@@ 775259
l@@ 769495
so 752836
man 750858
M@@ 747154
etwa 739016
ä@@ 734064
drei 732275
N@@ 731852
um@@ 730740
enden 726782
w@@ 714429
ige 707845
A@@ 706516
wieder 704787
Geschichte 700741
ens 696368
St@@ 686721
ischer 684046
Als 679400
in@@ 677834
Leben 675963
b@@ 674337
seinem 671910
Ein@@ 671546
mehr 662783
h@@ 662724
liegt 658225
es@@ 656784
seinen 646695
ende 645193
igen 643980
später 643788
Von 643585
re@@ 643296
beim 642835
Bei 641614
d@@ 638795
on@@ 633745
1 633105
g@@ 632908
ter@@ 628289
Ende 623513
Ober@@ 622250
diese 621065
1. 619814
ihre 618624
ken 607232
et 604778
ie 603827
kann 603500
d 602783
ert 602267
da 597758
wo 591814
unter@@ 590893
i@@ 590548
Be@@ 589260
r@@ 589109
kam 588248
ens@@ 586010
ler 584964
ke 584508
V@@ 584397
konnte 583547
z 580444
ar@@ 579970
erste 579884
Mit 579783
ers 577502
Gemeinde 576331
or@@ 575776
O@@ 569956
at 568844
2 567354
ihm 565301
Auf@@ 558726
Unter@@ 558713
August 554700
Mai 552350
März 548458
haben 547901
Januar 546720
Teil 542454
heute 541359
Oktober 541013
end 535505
tes 535167
us 534499
j@@ 533748
l 533623
le@@ 533213
dann 530675
is@@ 529977
ihrer 527743
&amp; 521488
bereits 521227
dort 519698
’ 519538
September 515383
ene 513832
† 513786
iert 513305
April 509910
Über@@ 507171
Juni 507018
Universität 505348
on 504472
gab 504314
Juli 502827
et@@ 500993
le 498798
ten@@ 497409
ihn 497287
Kirche 495652
anderen 495522
während 493342
Re@@ 493026
Dezember 492753
p@@ 492698
US 490662
erhielt 490256
enen 489799
tr@@ 488598
alle 486839
au@@ 484201
Bau@@ 483383
vier 481089
Ein 478915
chen 478870
November 477250
ik@@ 476850
Saison 476826
km 475133
gen@@ 474925
ihr 472868
Land@@ 472604
beiden 472437
Diese 471110
and 470533
dessen 469387
J@@ 468763
it@@ 464751
se 463659
% 463008
al 461181
k 460919
sten 457881
Seit 456607
eren 454992
berg 453452
Platz 452989
th@@ 452724
zeit 452399
Deutschland 452107
können 451910
au 451776
gibt 451454
ts@@ 451199
eg@@ 450368
3 450004
diesem 449637
gel@@ 448010
licher 445884
schaft 445236
Berlin 443607
ges@@ 443026
em 442908
Jahrhundert 442300
ger@@ 440585
C@@ 438645
I@@ 437219
g 436730
ber@@ 436489
ur@@ 435934
Tr@@ 435089
mann 434697
ere 434425
ner 431928
Mitglied 428457
Februar 428124
as@@ 427818
Haupt@@ 427794
ts 427197
elle 425013
Eine 424215
geb@@ 423330
eb@@ 423164
stand 422528
ig@@ 421221
us@@ 419834
eh@@ 418847
ang@@ 416231
erte 415417
ak@@ 415125
deutschen 414442
Ge@@ 410214
ö@@ 409342
Al@@ 409329
deren 408121
ins 407842
ation 405912
Auch 404365
is 403390
zurück 403289
gew@@ 402043
damit 400831
ek@@ 399143
Für 397861
ti@@ 397441
ar 392437
men 391913
In@@ 391698
zunächst 391572
der@@ 391442
nahm 391404
ot@@ 390818
gesch@@ 390290
Auf 387431
ag@@ 386868
mer@@ 386498
ihren 386444
steht 384862
Familie 384587
ch 383995
zusammen 383156
Le@@ 383095
keine 382691
_ 381714
ellen 380900
i 380760
Se@@ 380499
ale 379495
befindet 379359
ü@@ 379150
ierte 377064
sehr 376945
Ort 376614
4 375201
at@@ 373271
os 372850
weitere 372664
Stadt@@ 372114
sen 371398
de@@ 371371
her@@ 371289
ne 371197
Namen 370541
ingen 369281
ien 368542
sp@@ 368415
o@@ 367905
ben 367601
begann 366412
statt 366114
Ar@@ 364791
em@@ 364581
trat 364373
Br@@ 363979
y 363781
end@@ 363415
kon@@ 363104
Film 362997
Sohn 362870
Gr@@ 361892
id@@ 361691
ell 361068
denen 359076
a 358790
worden 358583
ach@@ 357831
bekannt 357706
spielte 357125
acht 355127
Kon@@ 354846
gewann 354740
Mar@@ 353774
U@@ 353353
nen 353115
se@@ 352055
bzw. 351669
land 351394
Um@@ 351207
allem 350799
ebenfalls 350578
ol@@ 350435
Bundes@@ 350431
ed@@ 349882
Personen 349828
ing 349776
as 349344
y@@ 348501
ing@@ 347936
2010 346758
il@@ 346699
str@@ 345390
anderem 345367
2011 345033
ung@@ 343973
ging 341209
di@@ 339163
was 338916
ste 337101
st 336922
ker 336386
eten 336036
führte 335938
teil 335912
Str@@ 334057
ier@@ 332923
br@@ 332870
är@@ 332588
am@@ 332472
-@@ 329145
u@@ 328692
erung 326163
iz@@ 325976
wegen 325759
selbst 325015
Nord@@ 324969
ohne 324764
schen 324576
straße 324471
erten 324353
and@@ 324190
2015 322222
neuen 321813
Ber@@ 321624
b 321143
2009 321140
2012 320754
dabei 320295
2. 319868
2008 319677
tigen 319144
ad@@ 318975
o 318715
2014 318138
im@@ 317310
immer 317041
gehörte 316906
Ch@@ 316689
2013 316452
gt 316091
Di@@ 315795
li@@ 314934
bach 314405
ler@@ 313382
formula 313314
Während 312321
tung 312260
19. 312076
hier 311664
&apos; 311387
isten 311214
est@@ 311164
deutscher 310978
Süd@@ 310934
be 310669
os@@ 309537
Meter 309022
Kr@@ 308627
2016 307951
ach 307586
pf@@ 307454
neue 306819
arbeitete 306409
Jahrhunderts 305790
ir@@ 305766
erstmals 305691
2007 305507
gen 305406
ul@@ 305090
Landes@@ 302742
tet 302355
bau 301702
Ger@@ 301090
Ab 299963
bl@@ 299861
bezeichnet 298434
sche 297700
werk 296929
sei 296105
5 295432
Ne@@ 295415
New 295260
Schul@@ 295256
fünf 295214
2017 294062
Mittel@@ 293464
Un@@ 292950
wer@@ 292630
durch@@ 292054
Seine 291866
om@@ 291806
ationen 291339
The 291161
zu@@ 291081
che 290606
iger 290538
aten 290415
St. 289948
2006 289842
enz@@ 289828
gehört 289318
Name 289261
a@@ 289176
Nach@@ 288275
bar 288185
alen 286690
eln 285940
erst 285685
sk@@ 285094
Titel 284856
eng@@ 284156
Deutschen 282882
fer@@ 282678
the 282026
schon 281984
ieren 281812
Her@@ 281287
zweiten 280753
els 279921
ich 279606
Kar@@ 279168
2018 278257
Wasser@@ 278005
nach@@ 277578
2019 277566
Band 277390
än@@ 277324
ich@@ 277236
Grund@@ 277197
fand 277175
len 277069
sondern 276863
einige 276795
Gruppe 276724
Zu 275824
Sp@@ 275576
h 275413
seines 275292
Fl@@ 274891
Sein 274847
it 273994
gr@@ 273604
tig 273600
So 272981
führt 272853
enz 272676
zurück@@ 272654
ri@@ 271323
Liste 271192
te@@ 271127
ne@@ 270926
Groß@@ 270677
sch 270220
äch@@ 270114
sh@@ 269046
Kom@@ 268830
Fre@@ 268568
10 268552
fl@@ 268368
A 268134
rund 268032
ierten 267514
ihrem 267355
zen 267194
Hoch@@ 267052
neben 266687
studierte 266482
kommen 266045
hatten 266034
stein 264650
Karriere 264567
Menschen 264552
20 264457
En@@ 263927
Friedrich 263799
2005 263589
or 263550
mehrere 262506
ologie 262402
ut@@ 261560
ern@@ 261402
3. 260677
andere 259527
6 259131
burg 259108
r 258682
besteht 258509
20. 257787
ierung 257608
He@@ 257490
gest@@ 257059
El@@ 256090
deutsche 255980
letzten 255742
v@@ 255674
me 255631
dieses 254773
großen 254635
Anfang 254476
2000 253833
ft 253794
Durch 253776
kl@@ 253612
B. 253476
genannt 253131
onen 252610
Tod 252558
f 252187
Musik@@ 252055
op@@ 251513
Art 250806
kt 250673
all@@ 250661
18. 250545
erin 250525
1945 250309
amp 248893
bel@@ 248713
wenn 248567
sollte 248540
blieb 248366
cht 247509
Kilometer 247198
Schw@@ 246759
Bar@@ 246428
große 246353
Staats@@ 246334
tätig 246197
ender 246176
ün@@ 245426
Reg@@ 244578
2004 244550
erfolgte 244490
diesen 244468
Da 244329
folgenden 243696
ka 243656
lang 243586
beg@@ 243296
Bi@@ 243140
ations@@ 243074
wechselte 242836
Unternehmen 242826
ß@@ 242188
weiter 241950
ati@@ 241583
Mon@@ 241507
dr@@ 241468
isches 241402
2020 241369
allerdings 241327
bau@@ 241203
ent 241009
ah@@ 240952
West@@ 240903
Gebiet 240528
Johann 239651
enf@@ 239297
lt 238898
schw@@ 238354
tige 238338
ser@@ 237743
pr@@ 237688
wobei 237666
re 236976
fer 236508
Einwohner 236303
soll 235984
si@@ 235774
enn@@ 235645
la 235386
ff@@ 235103
Straße 234830
enten 234363
ken@@ 234123
alten 233617
Mitte 233426
gegründet 232874
p 232235
fe 232228
ia 232109
15 232018
B 231603
Frau 231220
Neu@@ 230545
bahn 230297
Berg@@ 229680
je 229341
u 229341
ums 229282
hal@@ 228889
lagen 228780
Nachdem 228712
geh@@ 228542
ste@@ 228309
platz 228169
ließ 228037
15. 227797
erreichte 227429
Mannschaft 227096
Verein 226897
fen 226675
Zweiten 226088
lo@@ 225854
stadt 225741
Karl 225736
Region 225450
übernahm 225331
nun 224741
ei 224602
sechs 224570
musste 224539
4. 224500
jeweils 224355
z. 223785
Nieder@@ 223339
zi@@ 223313
weiteren 222451
Gebäude 222292
tern 221974
weise 221360
Ost@@ 221351
schließlich 221316
Wer@@ 221048
viele 220986
ell@@ 220457
Pf@@ 219755
gewählt 219658
den@@ 219396
itz 219368
Ur@@ 219306
tete 218841
zog 218093
Vater 217696
Bis 217625
feld 217478
schule 217448
16. 216874
ord@@ 216841
17. 216788
mit@@ 216664
8 216475
schaften 216080
Spiel@@ 216021
finden 215802
Th@@ 215757
ine 215707
if@@ 215244
Lebens@@ 215232
2003 215187
sen@@ 215132
2001 215021
USA 214999
ge 214955
U 214691
Qu@@ 214470
Norden 213995
bes@@ 213588
a. 212937
Pro@@ 212897
Par@@ 212388
we@@ 212071
heim 211782
ener 211368
anz@@ 211197
haus 210895
Bereich 210510
sel@@ 210473
ks 210458
neu 210299
allen 210027
2002 209880
An 209582
insgesamt 208492
Form 208485
verw@@ 208481
welche 208070
aufgrund 207995
u. 207948
stellte 207935
kr@@ 207855
erhalten 207848
tion 207595
5. 207247
ro@@ 206962
Film@@ 206313
University 206253
erst@@ 206101
Dort 206084
inger 206023
For@@ 205546
isch@@ 205478
Hand@@ 205025
7 204878
Bel@@ 204732
spielen 204628
darauf 204552
setzte 204488
ate 204399
verwendet 204094
100 203999
Tochter 203969
Dabei 203804
lag 203713
entstand 203678
verschiedenen 203512
tischen 203379
Kunst@@ 203366
Album 203292
2021 202853
dazu 202147
Li@@ 202000
ap@@ 201954
Haus 201890
agen 201796
af@@ 201504
Land 201449
König 200944
Süden 200887
Wilhelm 200689
Fahr@@ 200656
Bau 200537
FC 200440
II. 200424
sehen 200161
Amt 200118
me@@ 199839
München 199649
Am@@ 199613
13. 199539
14. 199520
nung 199499
National@@ 199263
ess@@ 199009
tiert 198793
30 198567
ok@@ 198504
6. 198263
bi@@ 198169
Prozent 198121
folgender 197972
gang 197921
Fr@@ 197826
We@@ 197772
erschien 197707
Kinder 197623
Wien 197408
erneut 197379
recht 197308
ie@@ 197236
ist@@ 196861
Werk 196772
ig 196704
Ex@@ 196630
elt 196328
0 196293
Mit@@ 196014
age 195539
Rahmen 195483
ze@@ 195390
Millionen 195294
dre@@ 195013
18 194900
iten 194631
ismus 194612
ität 194559
1999 194290
spiel 194240
Fach@@ 194149
gem@@ 193964
Weltkrieg 193889
Mal 193734
16 193102
Dies 192971
ann@@ 192856
Arbeit 192796
Entwicklung 192664
Stand 192523
Stein@@ 192473
John 192315
Ang@@ 192140
Einsatz 192094
qu@@ 192071
nis 192048
gilt 192024
meist 191955
ersch@@ 191927
insbesondere 191868
Kultur@@ 191714
eben 191526
errichtet 191300
ber 191231
Lage 191210
Neben 191162
I. 191136
Dieser 190993
len@@ 190858
war@@ 190749
Rolle 190567
Ak@@ 190531
ür@@ 190477
Heinrich 190274
12. 190272
konnten 190215
ier 190207
seite 190187
Pr@@ 190103
ete 190007
kommt 189716
gek@@ 189559
ze 189416
dern 189317
Gen@@ 189261
sti@@ 189261
Rück@@ 189175
Bevölkerung 189102
ik 188827
itz@@ 188660
Richtung 188648
Provinz 188617
8. 188379
teil@@ 188320
ru@@ 188275
Dorf 188128
gut 188103
äl@@ 187773
Osten 187644
geschichte 187502
G 187444
lassen 187203
gruppe 187191
Kur@@ 187178
1990 187163
O 187110
men@@ 187091
7. 186972
ob@@ 186899
De@@ 186841
ick@@ 186747
Me@@ 186329
tel@@ 186272
ep@@ 186049
zug@@ 186026
Westen 185683
schafts@@ 185551
Staaten 185395
starb 185287
davon 185085
land@@ 184957
lin@@ 184841
kirche 184790
9. 184740
Lehr@@ 184574
Volks@@ 184532
ow 184404
Frankreich 184297
mel@@ 184002
to@@ 183767
folgte 183755
liegen 183715
stellen 183634
eigenen 183404
Sport@@ 183304
il 183216
tische 183172
innen 182856
ente 182620
eingesetzt 182610
bestand 182550
Frauen 182500
mer 182107
ina 181843
Tor@@ 181565
Hans 181349
dies 181238
mi@@ 180892
12 180875
fast 180819
Gesellschaft 180596
leben 180520
gi@@ 180472
rat 180343
weit 180289
innerhalb 180230
Beginn 179943
auer 179905
ster 179862
mar@@ 179726
Schule 179712
ger 179513
Bl@@ 179458
oft 179257
1998 179148
York 179121
Bedeutung 178992
C 178845
I 178757
geg@@ 178738
habe 178738
Aus 178505
istischen 178411
Seite 178291
lich@@ 177956
besch@@ 177952
schloss 177930
Partei 177731
Peter 177593
damals 177535
Paris 177522
Y@@ 177514
w 177012
Arbeits@@ 176847
Beispiel 176803
Ste@@ 176595
ß 176590
Außerdem 176447
zweite 176212
50 175740
Paul 175660
zehn 175599
Kl@@ 175588
ho@@ 175511
kom@@ 175497
also 175270
Jahres 175090
Folge 175054
c@@ 174996
ur 174955
Um 174873
Kor@@ 174707
he@@ 174497
10. 174494
Ent@@ 174295
darunter 174131
V 173899
geht 173654
pl@@ 173588
ech@@ 173570
Landkreis 173524
stark 173261
Natur@@ 173202
Zur 172873
Hin@@ 172679
mal 172593
ass@@ 172475
anischen 172445
ehemaligen 172410
14 172072
iker 171971
Musik 171874
Regierung 171832
weg 171656
Höhe 171644
findet 171623
lange 171211
heit 171194
11. 171150
Unter 170836
ben@@ 170833
ph@@ 170817
iti@@ 170711
art 169780
Orts@@ 169574
heutigen 169552
kurz 169534
fr@@ 169401
alt@@ 169375
Ges@@ 168621
ons@@ 168620
und@@ 168497
1994 168089
liches 168089
ef@@ 167984
Or@@ 167734
Kre@@ 167635
gebiet 167523
weil 167389
ans 167279
9 167158
amerikanischen 167147
los 167121
Ma@@ 166854
stehen 166045
fall 166032
Lang@@ 166022
Dar@@ 165944
gegenüber 165932
eller 165724
1996 165638
Wahl@@ 165351
Bur@@ 165249
nh@@ 165191
Jugend@@ 165160
Mor@@ 165094
Gesch@@ 164719
stieg 164469
1997 164443
mon@@ 164418
Team 164403
Österreich 164345
1992 164269
= 164119
Serie 163751
veröffentlicht 163672
stellung 163657
pp@@ 163486
fahr@@ 163477
Schl@@ 163461
Spiel 163433
Per@@ 163283
Inter@@ 163167
see 163149
Einzel@@ 163127
zahlreiche 162848
Pl@@ 162618
13 162307
ang 162210
all 162144
esen 162142
ise 162004
französischen 161933
ca. 161879
sowohl 161841
Mo@@ 161816
hin@@ 161730
v 161729
Hel@@ 161517
Ko@@ 161437
uch@@ 161226
Burg 161203
voll@@ 161169
lage 161040
Tri@@ 160786
Welt 160568
geboren 160524
one 160494
Kreis 160304
S 159860
Flug@@ 159758
muss 159691
Zum 159681
Wal@@ 159661
zudem 159555
arbeiten 159551
8@@ 159522
Kreuz@@ 159383
Car@@ 159344
na 159263
wen@@ 159251
ör@@ 159098
to 159008
ni@@ 158990
per@@ 158893
1995 158764
Krieg 158753
nieder@@ 158666
1991 158651
etz@@ 158506
ette 158392
&#91; 158336
danach 158198
dung 158181
&#93; 158082
verschiedene 157912
tre@@ 157650
genommen 157411
ände 157124
30. 157013
Ö@@ 156935
7@@ 156844
Buch@@ 156818
tor 156761
x@@ 156744
Liga 156494
zug 156398
ons 156304
Sitz 156285
Bo@@ 156226
Reich@@ 156205
1993 156079
besuchte 156040
uk@@ 155984
Ad@@ 155741
Insel 155611
rich@@ 155457
gemeinsam 155180
nungen 155015
21. 154847
ster@@ 154726
bereich 154476
besonders 154157
Pol@@ 154121
lichkeit 153995
Alter 153895
dorf 153885
egen 153569
äng@@ 153442
Gemeinden 153433
Professor 153148
schrieb 152901
inn@@ 152666
gleichen 152569
D 152418
machte 152337
17 152284
doch 152159
zeigt 152092
ant 151952
Vertrag 151882
Maria 151830
hin 151806
meister 151744
kel 151728
tan@@ 151614
beispielsweise 151610
zuvor 151375
Spieler 151295
lag@@ 151255
halten 151245
sieben 151133
Kirchen@@ 151105
Hamburg 151015
Man@@ 150803
Haus@@ 150455
1989 150369
iden 150141
ib@@ 150041
Kol@@ 150036
meisten 149938
tionen 149786
öl@@ 149786
London 149769
Mal@@ 149635
kamen 149621
Mutter 149503
aden 149270
Sommer 149017
möglich 148876
tions@@ 148773
so@@ 148488
Ru@@ 148308
oh@@ 148204
lang@@ 148020
cht@@ 147995
teilweise 147965
Kriegs@@ 147899
hinaus 147825
19 147643
tor@@ 147639
Mann 147508
Reichs@@ 147227
kor@@ 146937
Har@@ 146881
Schweiz 146880
dete 146753
25 146675
Werke 146604
wahl 146505
gelang 146262
spr@@ 146201
are 146197
befinden 146190
scher 146058
Europa 145799
tw@@ 145706
Gesamt@@ 145553
enti@@ 145545
Verwaltungs@@ 145449
ort 145410
esch@@ 145109
ran@@ 144746
Militär@@ 144743
aller 144461
essen 144335
25. 144252
kan@@ 144240
stein@@ 144163
uer@@ 144138
gehören 144137
DDR 144053
ac@@ 144041
auen 144038
lig@@ 143985
ache 143955
ihnen 143916
her 143762
Vereinigten 143689
Georg 143642
versch@@ 143484
zeit@@ 143474
genutzt 143382
26. 143216
bo@@ 143212
Schloss 142953
Bal@@ 142941
War@@ 142921
amt 142871
istische 142730
League 142396
Arten 142375
Kan@@ 142334
Strecke 142214
40 142133
22. 141945
gebaut 141924
Hof@@ 141908
veröffentlichte 141895
best@@ 141666
absolvierte 141628
inen 141625
Sol@@ 141607
Tre@@ 141584
daher 141494
Welt@@ 141476
Spielen 141167
vier@@ 141109
trag@@ 141033
Te@@ 140925
Armee 140892
eigene 140864
zw@@ 140682
Im@@ 140487
nt 140482
Mitglieder 140455
ator 140448
berger 140116
Franz 140070
unde 140064
nahmen 139930
Studium 139908
folgende 139871
Betrieb 139731
Danach 139724
Kas@@ 139713
mern 139614
inter@@ 139558
nachdem 139453
alt 139421
lu@@ 139281
ad 139250
spieler 139237
kung 139191
Ausbildung 139185
Zeit@@ 139111
süd@@ 139098
assen 139086
üh@@ 139038
K 138994
kehrte 138900
etwas 138873
eck@@ 138859
fahren 138788
gründete 138630
Reihe 138625
bre@@ 138492
6@@ 138484
kleinen 138481
28. 138430
24. 138423
Teil@@ 138191
chen@@ 138189
ilen 138122
ät 137868
ow@@ 137828
dar@@ 137812
Rechts@@ 137793
gleich@@ 137596
Saint 137552
ki@@ 137547
stellt 137536
Deutsche 137362
handelt 137236
Bruder 137174
zwe@@ 137022
ton 136972
selben 136958
23. 136901
Tag 136817
icht@@ 136748
Dr@@ 136675
aufgenommen 136431
lungen 136409
L 136240
Ludwig 135926
Weitere 135895
mal@@ 135890
Gemeinde@@ 135829
Luft@@ 135822
weisen 135805
Rad@@ 135764
del 135737
entstanden 135706
the@@ 135700
Politiker 135687
verl@@ 135471
1972 135435
9@@ 135374
Ri@@ 135326
kein 135266
1933 135177
ks@@ 135141
beide 135106
Ersten 135055
1988 134959
eck 134862
äre 134740
häufig 134584
einigen 134491
geführt 134465
deutlich 134428
Hier 134421
La 134417
alte 134252
Zwischen 134213
ta 134010
treten 133935
cher 133892
Zw@@ 133857
27. 133856
di 133836
ja 133832
Hal@@ 133824
Mus@@ 133697
kleine 133679
fe@@ 133662
Kat@@ 133587
tisch 133487
letzte 133404
Best@@ 133241
Olympischen 133190
erreicht 133105
Michael 132886
erk@@ 132633
11 132518
E 132513
wal@@ 132428
Bahnhof 132263
Bereits 132171
hinter 132107
legte 132060
Museum 132047
err@@ 131890
achen 131886
gehen 131806
wieder@@ 131744
zer 131531
führen 131464
somit 131461
Bürger@@ 131412
az@@ 131407
chten 131391
lässt 131247
spiele 131172
1980 131155
zwar 131075
Gel@@ 130947
Buch 130843
Tur@@ 130767
Stelle 130424
reg@@ 130402
for@@ 130241
fin@@ 130208
Sal@@ 130174
ug@@ 130151
Klasse 130122
Wirtschafts@@ 130068
tritt 130059
Lin@@ 130053
vielen 129959
Nähe 129915
außerdem 129846
est 129833
1987 129714
Sh@@ 129623
Den 129551
29. 129433
² 129394
werke 129377
atur 129290
c 129213
reich@@ 129189
Con@@ 129172
og@@ 129090
ursprünglich 129090
Linie 129054
1970 129039
Zug@@ 129037
stammt 128986
ernannt 128982
County 128877
kur@@ 128812
ären 128783
lers 128724
Über 128638
gegeben 128609
ill@@ 128544
Fest@@ 128511
Berliner 128372
ele 128356
form 128283
enberg 128278
diente 128243
ile 128137
ausge@@ 128127
kte 128091
eter 128069
son 127888
mittel@@ 127782
mehreren 127693
Ziel 127679
ker@@ 127657
Fernseh@@ 127653
zer@@ 127563
kar@@ 127478
ut 127412
direkt 127406
od@@ 127368
1939 127361
ser 127290
Gew@@ 127174
Thomas 127118
Besch@@ 127029
5@@ 126986
ner@@ 126934
ez@@ 126930
fre@@ 126903
entr@@ 126845
stelle 126829
verkehr 126762
Kirch@@ 126713
Finale 126683
Fußball@@ 126596
dafür 126549
Zudem 126354
tigkeit 126235
leit@@ 126220
yl@@ 126173
X@@ 126094
einander 126076
Zwe@@ 126055
ett 125929
The@@ 125865
gestellt 125830
ßen 125828
Siehe 125729
Straßen@@ 125725
tri@@ 125720
1938 125591
eder@@ 125432
gewesen 125403
film 125379
enst@@ 125370
ana 125365
Wieder@@ 125344
x 125328
bar@@ 125325
südlich 125293
Wasser 125265
1986 125257
stre@@ 125186
As@@ 125108
üt@@ 125101
Robert 125050
ant@@ 125032
nten 125017
Ro@@ 125016
anschließend 125007
erwähnt 124924
1974 124821
Präsident 124774
Bre@@ 124704
Bezeichnung 124655
unden 124596
ard 124555
pro 124547
einz@@ 124455
tur@@ 124402
Bor@@ 124344
3@@ 124271
gesetzt 124117
AG 123968
31. 123946
aut 123909
hr@@ 123825
ober@@ 123726
ordnung 123702
weniger 123633
1984 123571
Mot@@ 123438
Erfolg 123432
San 123389
dritten 123380
Dre@@ 123254
1975 123212
Em@@ 123193
fest@@ 123121
kh@@ 123102
rech@@ 123073
ori@@ 123062
ba@@ 123000
ling 122892
Martin 122891
Gründung 122880
1985 122795
Einwohnern 122680
Preis 122601
Ihre 122553
entwickelte 122504
enh@@ 122486
Wohn@@ 122400
Spiele 122369
Holz@@ 122272
National 122226
Chr. 122064
verheiratet 122060
ichten 122033
ichte 121903
General@@ 121894
dienst 121884
Gl@@ 121644
heiratete 121631
1944 121570
é 121452
größte 121207
Fe@@ 121186
politischen 121092
Co@@ 121041
Kreis@@ 121036
Mag@@ 121029
erster 120911
mm 120899
vi@@ 120841
ück@@ 120717
Nachfolger 120509
tragen 120493
kal@@ 120463
nehmen 120451
tigung 120410
21 120227
par@@ 120106
tlich 120029
Grab@@ 119997
1978 119926
ic@@ 119918
Kle@@ 119842
Produktion 119839
sw@@ 119804
ihres 119799
1968 119692
13@@ 119502
Eis@@ 119427
größten 119363
Schweizer 119330
ec@@ 119282
cm 119255
arbeitet 119225
aff@@ 119102
det 119001
Ze@@ 118842
nord@@ 118830
ast@@ 118810
fanden 118779
Hol@@ 118770
Sprache 118673
tion@@ 118595
asse 118529
amerikanischer 118507
Dieses 118457
Mer@@ 118393
1969 118305
Nor@@ 118301
nördlich 118215
12@@ 118188
führ@@ 118126
mus@@ 118102
Gegen@@ 118048
bek@@ 117841
1979 117748
alb@@ 117734
Prot@@ 117704
vers@@ 117647
Vol@@ 117606
1973 117595
elten 117532
sor@@ 117507
1983 117468
fahrt 117438
1971 117325
Winter@@ 117301
wach@@ 117273
Euro 117134
1982 117028
jahr 116973
Weg 116967
24 116961
gleich 116870
betrieb 116859
International 116837
Stre@@ 116699
ak 116695
ett@@ 116594
R 116517
bildet 116501
satz 116456
West 116439
nte 116379
brachte 116374
icht 116323
Beim 116219
ven 115995
ehen 115991
1976 115944
ged@@ 115920
Familienname 115915
Köln 115842
Kal@@ 115762
igkeit 115753
š@@ 115752
Verbindung 115647
befand 115557
4@@ 115539
Institut 115522
Grund 115513
ichen 115406
welches 115235
Ph@@ 115137
Damit 115126
neten 114985
ats 114901
Besitz 114846
ganz 114750
1960 114679
City 114670
Kloster 114592
Johannes 114510
Kinder@@ 114495
verband 114424
wald 114401
zen@@ 114387
Teile 114381
ade 114261
umfasst 114218
woh@@ 114126
av@@ 113994
Raum 113854
ren@@ 113822
Ros@@ 113771
Meister 113661
Sozial@@ 113573
erh@@ 113515
Frankfurt 113501
Erst@@ 113459
! 113449
hielt 113431
Carl 113425
per 113417
Truppen 113403
unk@@ 113267
iges 113248
ehemalige 113075
pen@@ 113037
Anschließend 112913
id 112886
1950 112852
1946 112659
F 112648
mt 112627
nimmt 112616
ologischen 112529
Staffel 112521
po@@ 112423
th 112407
tsch@@ 112388
1981 112345
Rot@@ 112303
nahme 112276
ans@@ 112260
England 112256
san@@ 112247
Kaiser 112244
form@@ 112206
Erd@@ 112172
leich@@ 112156
Tage 112150
entwickelt 112099
Joseph 112092
ot 112077
Min@@ 112049
he 112042
Wahl 111960
Gi@@ 111898
Rang 111890
endet 111885
schle@@ 111798
punkt 111770
Pre@@ 111708
feh@@ 111697
Bischof 111642
einmal 111593
wor@@ 111581
teilung 111565
Nr. 111534
Italien 111408
spiel@@ 111211
raum 111194
tin 111116
Leitung 111089
Pi@@ 111057
spielt 111055
Lo@@ 111020
dar 110984
v. 110896
ute 110872
wagen 110768
Amts@@ 110765
oc@@ 110764
König@@ 110718
Hälfte 110687
Rennen 110569
Alt@@ 110564
Red@@ 110495
Forschungs@@ 110488
hohen 110481
Not@@ 110464
System 110381
kre@@ 110364
Bas@@ 110350
sdorf 110184
sin@@ 110101
Otto 110099
Wald@@ 110087
oll@@ 110071
Po@@ 110069
Politik 110067
fiel 110044
les 109941
damaligen 109937
gl@@ 109900
geben 109839
langen 109770
kel@@ 109748
Zuge 109668
schaft@@ 109611
Ha@@ 109599
Sieg 109588
baren 109573
benannt 109500
ex@@ 109486
pi@@ 109486
60 109413
nahe 109409
1964 109407
10@@ 109305
lern 109300
att@@ 109298
tig@@ 109255
einge@@ 109221
führung 109154
net 109152
1977 109085
wenig 109047
teile 109036
hol@@ 109018
Grenze 108910
Feld@@ 108901
1967 108849
ebenso 108714
britischen 108673
Landes 108611
verz@@ 108606
Ihr 108568
französische 108558
Ernst 108557
GmbH 108483
Bil@@ 108418
Außen@@ 108368
belegte 108349
ra 108284
Länge 108270
ve 107992
Ortsteil 107960
burger 107932
Arbeiten 107850
wuchs 107844
200 107837
Ä@@ 107830
prä@@ 107766
weiter@@ 107740
Runde 107690
Kunst 107665
Bad 107572
Kap@@ 107550
Ser@@ 107541
oben 107486
enburg 107358
eig@@ 107210
ob 107172
Vier@@ 107107
fläche 107062
äm@@ 107028
Wein@@ 106935
ates 106916
beträgt 106868
sogar 106627
Leipzig 106557
kol@@ 106511
bevor 106505
entfernt 106494
Ehe 106393
Tour 106326
Begriff 106284
min@@ 106166
leitete 106159
1965 106154
Nationalmannschaft 106097
bil@@ 105994
iken 105993
besitzt 105975
Sa@@ 105951
äu@@ 105947
Prä@@ 105916
linie 105896
isen 105801
Kanton 105756
End@@ 105744
els@@ 105729
Division 105719
sich@@ 105699
Op@@ 105695
lauf 105666
ite 105566
At@@ 105529
alter 105518
Stil 105509
machen 105378
1966 105353
nah@@ 105318
Leiter 105308
Herrschaft 105293
Dom@@ 105289
sicht 105223
pol@@ 105133
wir@@ 105124
ed 105043
tel 105024
See 105023
anten 104999
Aufgrund 104954
einzige 104924
Zentrum 104798
verein 104777
ai 104769
Es@@ 104767
weist 104750
bild 104598
ide 104556
östlich 104510
weiterhin 104495
deutsch 104349
Mas@@ 104296
aktiv 104268
Kn@@ 103998
späteren 103961
1963 103951
1961 103943
wes@@ 103889
ausgezeichnet 103874
ub@@ 103811
Fall 103718
Christian 103692
ese 103562
lebt 103550
T 103544
Ach@@ 103509
anz 103449
tierte 103396
14@@ 103390
achten 103337
22 103318
1952 103301
Republik 103297
Lu@@ 103250
platz@@ 103232
1962 103203
üsse 103198
endorf 103142
Haup@@ 103140
aum 103118
un 103118
ähr@@ 103104
westlich 103072
1956 103047
1940 102881
Theater 102854
por@@ 102751
Bayern 102733
Cor@@ 102593
ister 102565
frühen 102561
ins@@ 102534
ast 102520
Sachsen 102365
Ben@@ 102299
1948 102281
oren 102247
Col@@ 102227
ko@@ 102197
wohl 102170
buch 102118
ahl@@ 102104
° 102083
lebte 102065
Sk@@ 101952
gebracht 101944
Park 101905
Männer 101859
verbunden 101828
Fel@@ 101798
Später 101774
Rund@@ 101730
mo@@ 101695
Polen 101681
.@@ 101679
Wie 101645
schul@@ 101563
gesetz@@ 101555
gefunden 101540
bringen 101519
eher 101488
zentrum 101462
lau@@ 101441
1949 101432
Fläche 101363
Firma 101347
ße 101337
bt 101335
des@@ 101298
emp@@ 101279
ma 101252
politische 101119
Zahl 101003
würde 100971
uten 100915
gelegt 100899
Staat@@ 100891
bisher 100875
Eing@@ 100806
tem 100596
wär@@ 100592
internationalen 100558
gemein@@ 100525
1941 100510
ley 100472
erzielte 100455
ko 100380
bezirk 100366
ote 100364
So@@ 100269
Neben@@ 100241
enthält 100198
müssen 100127
fest 100116
1942 100023
1943 99987
dem@@ 99955
Dienst@@ 99884
grün@@ 99873
aut@@ 99862
Gar@@ 99847
Erst 99840
Geographie 99818
Wol@@ 99800
verein@@ 99787
anti@@ 99786
ark@@ 99680
Wil@@ 99657
Hilfe 99645
hausen 99609
W 99540
schied 99513
tu@@ 99496
elen 99481
folgt 99480
500 99473
ino 99446
Spr@@ 99436
verlor 99431
Klein@@ 99418
1958 99362
ane 99289
Doppel@@ 99261
lediglich 99102
Wiener 99101
iter 99007
Literatur 98990
tigte 98929
sitz 98866
ehr@@ 98865
schl@@ 98850
tag 98834
zusammen@@ 98821
ng@@ 98796
Gemein@@ 98794
ki 98782
0er 98774
ee 98763
pe 98761
Durch@@ 98726
Akademie 98683
man@@ 98637
Sub@@ 98592
Por@@ 98577
üb@@ 98569
Geschäfts@@ 98492
San@@ 98463
Kultur 98378
Finanz@@ 98337
fel@@ 98298
Off@@ 98254
II 98235
chte 97962
Gast@@ 97905
zeichen 97895
bald 97829
tar@@ 97779
ov@@ 97768
Konz@@ 97763
lebten 97699
amm@@ 97688
ters 97679
Bahn 97666
Sommer@@ 97649
öh@@ 97596
sion 97579
David 97477
ms 97419
1959 97398
zeugen 97395
Stu@@ 97321
Tal@@ 97298
bare 97279
Au@@ 97265
General 97261
Heil@@ 97254
erg@@ 97221
Vor 97184
uss@@ 97184
Wirtschaft 97178
Funktion 97176
ack@@ 97147
Beschreibung 97078
folgten 97072
reichen 96971
ücken 96959
William 96956
tal 96926
du 96917
Meisterschaft 96831
Halb@@ 96824
ahl 96818
Weltmeisterschaft 96783
met@@ 96782
Regierungs@@ 96759
Bahn@@ 96738
College 96695
Gattung 96677
ekt 96662
of@@ 96655
wür@@ 96506
no@@ 96495
ange@@ 96484
beteiligt 96468
ck@@ 96420
leicht 96401
sollten 96361
ek 96323
Alexander 96322
uren 96289
bilden 96250
Version 96196
ologische 96196
Beg@@ 96124
Schlacht 96105
do 96091
ül@@ 95871
Abschluss 95844
Lö@@ 95779
öffentlichen 95745
1947 95738
Hinter@@ 95683
H 95682
Ni@@ 95681
1957 95666
Pap@@ 95662
är 95636
Regel 95446
Pil@@ 95384
Char@@ 95371
Verwendung 95276
westlichen 95251
Vorsitzender 95205
M 95175
macht 95110
Schiff 95108
liga 94965
Ban@@ 94948
Richard 94944
Bürgermeister 94935
Uhr 94928
tä@@ 94896
hand@@ 94746
amerikanische 94725
nete 94649
system 94621
do@@ 94591
wirkte 94532
gericht 94446
Geb@@ 94369
kreis 94329
har@@ 94237
kri@@ 94207
ersetzt 94203
ano 94196
Herr@@ 94195
enk@@ 94195
hohe 94174
Innen@@ 94157
1918 94019
leitung 94018
wollte 93986
1953 93904
arten 93888
ebt 93873
isi@@ 93857
1934 93821
bez@@ 93793
gebäude 93782
viel 93765
hoch@@ 93726
1955 93673
Mari@@ 93669
1936 93650
neun 93647
1954 93643
Sand@@ 93618
III. 93606
Pal@@ 93599
häng@@ 93542
erreichen 93528
Zeitpunkt 93412
Mitarbeiter 93373
gabe 93357
führten 93309
1920 93302
trägt 93287
aw@@ 93276
isierung 93261
Bed@@ 93213
grund@@ 93155
gemeinde 93096
berg@@ 93042
1919 92999
ind@@ 92992
ogen 92923
Rhein@@ 92814
no 92814
schutz@@ 92738
Sen@@ 92736
estr@@ 92725
zus@@ 92594
ät@@ 92511
get@@ 92468
mor@@ 92460
Politi@@ 92448
fall@@ 92297
zahlreichen 92234
Feuer@@ 92172
Privat@@ 92110
lat@@ 92084
trug 92082
Industri@@ 92053
Ag@@ 91968
fallen 91965
ew@@ 91964
á@@ 91956
eit@@ 91949
Man 91921
angeb@@ 91896
Hochschule 91877
Com@@ 91697
heraus 91677
Wi@@ 91652
gesellschaft 91644
Gruppen 91611
alität 91588
stoff@@ 91552
Kin@@ 91529
erer 91474
Künstler 91408
Mün@@ 91394
Cup 91380
Dollar 91311
nie 91297
Arbeit@@ 91277
Gu@@ 91267
nächsten 91231
hervor@@ 91223
Spielzeit 91152
Trans@@ 91120
Position 91118
Plan@@ 91096
verläuft 91090
ats@@ 91043
wenige 90894
Heim@@ 90869
… 90802
besten 90801
ften 90790
hauptsächlich 90785
ost@@ 90773
Union 90752
Sam@@ 90720
Steuer@@ 90624
Dem@@ 90605
eröffnet 90579
siehe 90509
Heute 90482
School 90445
knapp 90437
emen 90361
Mehr@@ 90286
Dor@@ 90283
trag 90268
heit@@ 90247
ev@@ 90170
betr@@ 90158
betrug 90136
weit@@ 90135
wo@@ 90114
anische 90105
beendete 90072
Hermann 90041
aben 90014
sollen 90000
amp@@ 89977
Erz@@ 89911
Et@@ 89864
keinen 89841
Sonder@@ 89825
Mat@@ 89780
č@@ 89770
N 89728
lerin 89591
‘ 89541
lan@@ 89527
Roman 89503
Rom 89489
Jean 89469
kul@@ 89436
Vertreter 89435
Stadtteil 89401
Do@@ 89392
Gener@@ 89360
Anzahl 89342
Baden 89321
Europ@@ 89320
1937 89277
gesamte 89263
Projekt 89189
utz@@ 89179
Spe@@ 89177
mu@@ 89169
richtung 89152
onn@@ 89117
Geh@@ 89010
gehalten 88971
Verfügung 88915
ret@@ 88817
änden 88788
Metern 88772
Tour@@ 88772
früher 88753
erfolgreich 88749
jüng@@ 88648
Mi@@ 88638
Trainer 88630
trä@@ 88628
Oper@@ 88565
ehemaliger 88545
China 88427
Max 88387
Bus@@ 88374
wasser@@ 88333
Fern@@ 88296
gehörten 88277
ors 88225
bietet 88205
1951 88203
statt@@ 88141
Tätigkeit 88115
hof 88090
1935 88034
Mel@@ 88000
23 87998
Organisation 87983
Gegensatz 87977
P 87977
Selbst@@ 87932
ante 87904
j 87897
Handlung 87889
Is@@ 87875
mussten 87807
äd@@ 87755
Verkehr 87739
Sy@@ 87697
Unterstützung 87696
Eltern 87676
bildung 87650
steig@@ 87650
ath@@ 87645
+ 87610
führer 87592
Anlage 87591
Schutz@@ 87534
bot 87485
digen 87448
zeigen 87380
Bes@@ 87346
werk@@ 87337
vermutlich 87315
dienst@@ 87299
asi@@ 87213
ps 87184
Höh@@ 87158
Ho@@ 87136
darüber 87107
leg@@ 87105
legen 87074
ativen 87042
1930 87019
Burg@@ 87017
James 86962
digung 86941
Prof@@ 86910
formen 86894
liegenden 86848
ifen 86800
dient 86765
ffen 86747
west@@ 86745
ud@@ 86706
bas@@ 86673
ah 86664
rit@@ 86644
for 86592
Verein@@ 86559
bet@@ 86394
pre@@ 86345
Gleich@@ 86328
Sti@@ 86321
lauf@@ 86225
Stamm@@ 86211
World 86209
Dresden 86196
Hor@@ 86181
ini 86176
amm 86118
issen 86116
daraufhin 86111
Berg 86081
gaben 86061
folge 86045
George 86018
fal@@ 85999
Betriebs@@ 85996
gebildet 85994
läng@@ 85864
Minister@@ 85861
dadurch 85847
ener@@ 85817
Gem@@ 85807
35 85754
Gymnasium 85705
vollständig 85698
ühr@@ 85667
pel@@ 85606
Ker@@ 85559
Mark@@ 85538
verb@@ 85516
gezogen 85515
aub@@ 85430
Gold@@ 85350
res@@ 85350
Soldaten 85335
leiter 85327
ay 85291
Zusammen@@ 85276
Verw@@ 85251
Schüler 85155
schaf@@ 85026
ecken 84972
einzelnen 84881
zeug@@ 84880
Hoh@@ 84879
ica 84847
regelmäßig 84845
Verlag 84837
Stand@@ 84794
fen@@ 84705
anderer 84596
gleichzeitig 84593
fte 84573
Du@@ 84534
Wir@@ 84526
Stiftung 84514
Hauptstadt 84492
endete 84486
2@@ 84458
Su@@ 84411
schwer@@ 84408
endes 84373
sprech@@ 84356
ih@@ 84332
80 84304
iss@@ 84294
ck 84263
Jugend 84257
Wahr@@ 84257
Renn@@ 84179
Nachbar@@ 84154
Je@@ 84149
Dienst 84146
tak@@ 84139
Rö@@ 84138
fern 84126
Fot@@ 84067
minister 83985
stätte 83977
Reich 83972
kt@@ 83928
Anschluss 83900
ag 83899
jährigen 83852
Hof 83831
Anti@@ 83824
verließ 83809
erwarb 83789
anlage 83785
Mannschaften 83766
Alle 83754
wertung 83732
nisse 83710
angs@@ 83688
indem 83670
ver 83666
Fluss 83612
Verlauf 83536
Weltmeisterschaften 83468
ili@@ 83351
Bundesliga 83338
ol 83301
überwiegend 83288
ice 83262
wiederum 83239
denn 83218
gespielt 83161
ann 83146
Einfluss 83143
1914 83141
ologe 83126
Dr. 83121
zuletzt 83092
äh@@ 83048
träge 83046
kw@@ 83018
Artikel 83011
sol@@ 83009
ön@@ 82992
van 82962
übernommen 82937
dau@@ 82928
ma@@ 82913
Gas@@ 82896
Kurz@@ 82838
Fil@@ 82794
1928 82793
ou@@ 82776
elte 82768
Main 82726
will 82700
32 82565
Schwer@@ 82560
sogenannten 82534
ari@@ 82528
ha 82473
keits@@ 82384
fort 82348
up@@ 82327
setzt 82269
Dis@@ 82196
Sprach@@ 82175
ti 82036
Sä@@ 82019
frei 82016
änge 82004
Lig@@ 81973
ager 81966
Gre@@ 81961
Bu@@ 81820
gemacht 81810
neh@@ 81807
Pa@@ 81782
Zusammenhang 81782
Pan@@ 81700
Friedhof 81672
Werk@@ 81659
Pe@@ 81650
1929 81641
ard@@ 81629
sche@@ 81616
River 81606
Zwei 81586
Hannover 81580
mindestens 81548
Hil@@ 81542
östlichen 81523
Bru@@ 81508
Direktor 81500
amen 81471
Verwaltung 81461
igung 81438
dec@@ 81431
bedeut@@ 81378
zig 81367
Rom@@ 81280
hinter@@ 81274
schi@@ 81261
verloren 81237
ae 81219
Grenz@@ 81218
teten 81216
ausschließlich 81212
90 81186
Dazu 81096
lief 81052
Zusammenarbeit 81025
Auftrag 81014
ossen 81014
verkehr@@ 80965
Go@@ 80946
got@@ 80883
üm@@ 80878
abe 80851
ebene 80841
Zeitschrift 80805
1932 80743
eth@@ 80715
Japan 80703
gesamten 80629
tier@@ 80628
Club 80627
Fol@@ 80573
0@@ 80497
gingen 80491
45 80466
Basis 80457
namen 80454
Jahres@@ 80440
Walter 80439
Mc@@ 80404
galt 80397
Lied 80352
ister@@ 80342
Schauspieler 80313
verwaltung 80311
Kommun@@ 80297
Grün@@ 80228
Minuten 80220
mittel 80211
bestehen 80189
aler 80185
Nord 80178
Wappen 80177
tik 80177
ys 80171
verkauft 80115
« 80115
verk@@ 80097
schn@@ 80080
standen 80013
historischen 80007
Darüber 79985
Vertr@@ 79967
hält 79884
jeder 79818
sah 79789
Ton@@ 79779
tungs@@ 79775
alle@@ 79774
chi@@ 79772
Monate 79760
zerstört 79759
Titel@@ 79742
ick 79722
seien 79722
1900 79711
» 79704
zogen 79702
kten 79675
Ki@@ 79653
kle@@ 79622
kaum 79605
bere@@ 79596
zahl 79515
Charles 79485
26 79457
ku@@ 79430
ück 79415
bekannten 79401
American 79380
Graf 79364
Papst 79359
fuhr 79337
ys@@ 79296
ass 79219
politik 79196
mehr@@ 79175
Seiten 79139
Anna 79117
ven@@ 79078
Orte 79057
ton@@ 79045
Bildung 78995
identi@@ 78992
Spi@@ 78991
heutige 78991
angen 78963
za 78961
Zeitung 78948
Schle@@ 78832
bu@@ 78804
Ung@@ 78803
startete 78741
ative 78711
ausgetragen 78693
Auff@@ 78685
betrieben 78684
su@@ 78663
Ther@@ 78628
Abteilung 78604
Handels@@ 78598
Umgebung 78534
bruch 78521
Gru@@ 78512
All@@ 78504
Josef 78471
entlang 78422
enzen 78414
Ländern 78356
Hu@@ 78348
Ap@@ 78345
Mess@@ 78314
tigten 78314
europäischen 78269
Russland 78260
Si@@ 78239
je@@ 78230
erfolgt 78202
großer 78103
Post@@ 78070
letz@@ 78040
Kapelle 78020
flo@@ 77981
Ehren@@ 77963
iv@@ 77942
schen@@ 77918
heißt 77912
sches 77900
halt 77897
fasst 77864
berufen 77859
Aut@@ 77839
ata 77839
SV 77783
tiger 77781
Kritik 77762
acht@@ 77761
400 77739
Hör@@ 77737
Einige 77687
ließen 77562
wand@@ 77511
durchgeführt 77496
1970er 77490
entwicklung 77473
SC 77432
entdeckt 77431
Gerichts@@ 77412
res 77381
chter 77256
etten 77228
Geg@@ 77226
Autor 77185
Insgesamt 77161
gruppen 77109
Brücke 77090
Recht 77064
katholischen 77021
Thema 76966
Emp@@ 76885
sport@@ 76814
groß@@ 76795
Stuttgart 76750
mis@@ 76738
setzen 76732
1925 76700
preis 76679
ara 76673
Wor@@ 76662
Le 76650
Met@@ 76636
stel@@ 76633
Bezirk 76523
welcher 76522
plan@@ 76503
ester 76489
unternehmen 76453
Zentr@@ 76420
Sach@@ 76376
erstes 76338
Fußball 76335
ure 76332
Dam@@ 76327
Turm 76287
jährlich 76254
Zeich@@ 76230
rä@@ 76228
Mark 76200
ers@@ 76134
lands 76122
ekte 76100
Darstellung 76089
kö@@ 76087
Zürich 76069
betre@@ 76055
Eisen@@ 76043
Gesetz@@ 76003
Seg@@ 75995
Dek@@ 75977
heraus@@ 75974
tungen 75965
zwölf 75930
ff 75900
70 75844
bs 75826
auten 75815
erbaut 75765
zusätzlich 75761
südlichen 75728
Zentral@@ 75679
isiert 75661
bauten 75594
1980er 75589
wirk@@ 75519
bildete 75517
aner 75507
Bild 75479
Ir@@ 75476
Tier@@ 75473
österreichischen 75446
mannschaft 75428
Verfahren 75413
Jung@@ 75395
beginnt 75394
sions@@ 75390
ball@@ 75363
SPD 75349
V. 75343
aren 75291
oni@@ 75288
geschrieben 75279
Wel@@ 75275
Hintergrund 75266
1924 75257
welt@@ 75248
Verkehrs@@ 75226
wahrscheinlich 75208
Bahnstrecke 75150
Obwohl 75109
Vom 75065
ns 75064
weiterer 75062
1927 74962
stoff 74950
trieb@@ 74943
nischen 74929
lungs@@ 74926
Daneben 74915
Beh@@ 74854
by 74740
Punkte 74670
teils 74644
Kenn@@ 74636
off@@ 74620
park 74614
stammen 74610
bürger@@ 74595
Win@@ 74590
Zus@@ 74576
ellen@@ 74512
Nordosten 74488
TV 74461
tigt 74447
Bezirks@@ 74404
äus@@ 74403
Laufbahn 74365
Eisenbahn@@ 74359
auch@@ 74305
ika 74299
‚ 74294
lung 74278
bert 74264
haltung 74227
om 74220
wi@@ 74213
kes 74209
geber 74190
ator@@ 74166
Département 74155
Pfarr@@ 74151
wiesen 74149
Zu@@ 74142
Han@@ 74112
Bet@@ 74088
taus@@ 74077
ahr@@ 74022
tnisse 74006
en- 73932
sodass 73908
iß@@ 73857
ligen 73847
1910 73801
ets 73792
Pas@@ 73733
alismus 73701
tro@@ 73681
Schutz 73679
Wochen 73526
deshalb 73522
Zi@@ 73441
Doch 73348
schiff 73329
Stück 73314
lit@@ 73258
wand 73241
Eigen@@ 73223
eff@@ 73211
Lau@@ 73185
rechts 73143
Cal@@ 73125
Award 73120
Dach@@ 73093
Siedlung 73083
oten 73061
á 73040
Funk@@ 73028
turm 73024
hen 73019
schrift 73014
städ@@ 72982
verliehen 72982
altet 72973
umen 72955
Markt 72951
kommen@@ 72920
schriften 72911
rechte 72910
chs 72909
Bü@@ 72894
russischen 72861
Gal@@ 72822
aj@@ 72791
kungen 72737
1960er 72696
Ul@@ 72694
ea 72633
flug@@ 72601
ey 72595
uz@@ 72578
ehe 72572
selten 72542
300 72518
d. 72442
United 72419
Cas@@ 72417
wehr@@ 72400
hi@@ 72376
weite 72303
gewinnen 72293
heits@@ 72287
anischer 72286
äger 72264
iste 72261
Lehrer 72215
weitgehend 72208
ales 72207
sa 72186
arbeit@@ 72179
rot@@ 72164
änd@@ 72151
Projek@@ 72150
Gol@@ 72149
aktion 72122
1931 72084
verfahren 72075
Pfer@@ 72068
ore 72029
Mol@@ 72015
uf@@ 72006
Nutz@@ 72004
reich 72004
Herbst 71998
zy@@ 71996
1921 71979
Südwesten 71929
1990er 71925
ski 71910
Königreich 71884
X 71845
A. 71843
bekam 71809
nam@@ 71779
Ol@@ 71738
relativ 71696
freien 71689
dritte 71682
Halle 71681
Fußballspieler 71678
schein@@ 71634
größere 71605
Pass@@ 71552
Krieg@@ 71546
erschienen 71522
siert 71518
Single 71500
forschung 71475
Bro@@ 71450
deut@@ 71450
Q@@ 71448
ministerium 71447
Song 71388
Sieg@@ 71385
Seiten@@ 71346
28 71345
Rein@@ 71276
Ortschaft 71257
trieb 71243
Bild@@ 71221
toren 71209
Fisch@@ 71199
Angaben 71182
schwer 71104
zul@@ 71083
tiv@@ 71052
enes 71048
Grand 71033
italienischen 71027
Weltkriegs 70967
Wes@@ 70965
Ren@@ 70950
Allerdings 70928
vertreten 70924
1923 70915
ges 70885
Sat@@ 70873
laut 70849
gelegenen 70818
Heimat@@ 70743
Daten 70734
Gut@@ 70727
1926 70705
Wach@@ 70689
uh@@ 70638
fach@@ 70577
Bri@@ 70556
Fahrzeuge 70541
weltweit 70517
Parte@@ 70507
Mil@@ 70506
betrieb@@ 70489
Sel@@ 70482
Sammlung 70476
pos@@ 70424
idi@@ 70349
Les@@ 70345
Sitz@@ 70321
bed@@ 70296
gebr@@ 70291
ō 70278
schutz 70277
uss 70273
Führung 70237
tief@@ 70220
under@@ 70200
Radi@@ 70137
atoren 70097
? 70046
dig 70046
barkeit 70043
Tor 70042
Laufe 70027
Großen 70011
hoch 69967
Indi@@ 69935
sieht 69928
tal@@ 69919
1912 69891
Stunden 69889
Herkunft 69887
Wand@@ 69887
Proz@@ 69860
bew@@ 69859
Chor@@ 69855
Il@@ 69845
Open 69811
ecke 69807
Schreib@@ 69803
Super@@ 69800
Stimmen 69770
isti@@ 69736
Leit@@ 69644
Nordwesten 69636
vorhanden 69632
nd@@ 69615
Kategorie 69614
ennen 69596
geprägt 69584
abl@@ 69580
vierten 69577
Teilnehmer 69563
dert 69559
Wind@@ 69541
dor@@ 69522
Chem@@ 69505
Os@@ 69493
ani 69486
Auswahl 69485
Körper@@ 69475
Kampf 69461
ł@@ 69457
Anteil 69431
wechsel@@ 69427
Beide 69425
Forschung 69420
Spanien 69419
Cr@@ 69401
Rek@@ 69399
Anf@@ 69398
1,@@ 69364
Netz@@ 69347
größeren 69343
gegen@@ 69325
ule 69320
Sau@@ 69314
eit 69254
nördlichen 69230
spek@@ 69227
entsprechend 69222
liz@@ 69213
flü@@ 69202
gehend 69202
Bevölkerungs@@ 69182
bal@@ 69178
annten 69166
typ@@ 69161
Louis 69097
Schriftsteller 69083
Rudolf 69076
1922 69071
stände 69025
haf@@ 69013
Staat 68982
eben@@ 68940
schnell 68909
inzwischen 68905
Südosten 68902
Festival 68895
Leh@@ 68877
Hochschul@@ 68858
gar@@ 68845
englischen 68819
Programm 68818
Sor@@ 68815
alg@@ 68793
wert 68775
anlagen 68762
ase 68755
Kind 68715
Koh@@ 68685
rechten 68680
ther@@ 68658
tlichen 68635
kat@@ 68622
To@@ 68604
uch 68585
Möglichkeit 68582
gemeinschaft 68581
grenze 68556
ierungen 68555
ha@@ 68551
del@@ 68531
arbeit 68517
ien@@ 68509
Bad@@ 68433
hergestellt 68418
eil@@ 68394
regierung 68372
Philosophie 68337
äs@@ 68306
auff@@ 68297
gangs@@ 68274
istisch 68230
höchsten 68209
Württemberg 68181
Voll@@ 68152
Maler 68148
Weise 68128
Produktions@@ 68108
Größe 68100
cher@@ 68096
Produ@@ 68095
geschlossen 68070
hren 68061
wahlen 68042
liter@@ 68036
Dec@@ 68032
tere 68026
viel@@ 67990
genannten 67969
verfügt 67916
geworden 67912
beruf@@ 67895
sogenannte 67875
eu@@ 67860
Veröffentlichung 67818
schlag 67781
eng 67762
bereit@@ 67703
Früh@@ 67689
27 67668
eti@@ 67659
erei 67651
verg@@ 67629
Wolfgang 67612
steller 67597
Z 67594
Sozi@@ 67588
Sto@@ 67566
weis 67561
traf 67555
sberg 67523
Kö@@ 67507
Albert 67504
dagegen 67494
aft 67492
deten 67482
kommun@@ 67475
Familien 67472
stellungen 67453
Ster@@ 67405
Inn@@ 67364
spezi@@ 67336
eingestellt 67334
Typ 67329
son@@ 67329
beschrieben 67325
Punkten 67306
Schiff@@ 67301
hl 67301
Den@@ 67298
Regie 67292
Ac@@ 67269
Juden 67261
brücke 67227
ř@@ 67198
Großbritannien 67195
Inh@@ 67155
Tro@@ 67131
Gelände 67099
Tä@@ 67099
Städte 67080
ander@@ 67067
mung 67060
Folgen 67054
Val@@ 67045
inden 66981
Syn@@ 66978
änder@@ 66925
Theater@@ 66915
regi@@ 66915
vol@@ 66881
ume 66816
ā@@ 66813
Ergebnis 66802
acher 66792
assung 66774
Schön@@ 66755
zur@@ 66749
lernte 66696
lö@@ 66695
neu@@ 66694
Abschnitt 66656
Tore 66645
name 66642
Meister@@ 66636
bank 66632
Stif@@ 66582
öch@@ 66576
atz@@ 66565
gesehen 66548
Ehefrau 66546
Modell 66541
produziert 66522
Krieges 66467
außerhalb 66462
Stell@@ 66410
oph@@ 66396
zentr@@ 66356
Aufgaben 66344
Namens@@ 66327
Tex@@ 66287
nungs@@ 66213
leb@@ 66197
fiz@@ 66185
veranst@@ 66151
bekannte 66146
Sche@@ 66127
jeweiligen 66115
Eng@@ 66111
Gle@@ 66107
Bewegung 66085
ess 66084
keit 66081
wichtige 66080
Des@@ 66053
früheren 66000
sion@@ 65995
ucht 65993
nitz 65977
Verbreitung 65961
wirtschaft 65952
riff 65891
jungen 65888
Hom@@ 65842
orium 65829
Fer@@ 65821
Nutzung 65749
enthalten 65744
inger@@ 65698
arbeitung 65674
mb@@ 65660
Ter@@ 65634
Bod@@ 65603
kran@@ 65577
Mont@@ 65510
familie 65509
Fri@@ 65505
istik 65502
Wirken 65475
Mand@@ 65439
Reis@@ 65436
ock 65436
onlyinclude 65435
ya 65413
runde 65394
Boden 65373
1913 65329
iner 65321
off 65312
licht 65309
lte 65298
ziehen 65269
Kern@@ 65265
digt 65252
darin 65245
ap 65237
Bek@@ 65176
ils 65172
ständigen 65122
Christ@@ 65113
Frage 65108
Qualifikation 65088
Erfolge 65075
Wur@@ 65046
ali@@ 65044
blieben 65021
eli@@ 65012
Royal 64994
eingeführt 64938
annte 64936
Bir@@ 64923
vertrag 64913
Turnier 64912
ses 64878
Herzog 64768
annt 64704
atischen 64691
Web@@ 64679
für@@ 64674
mehrfach 64665
bild@@ 64661
Straf@@ 64658
inge 64654
liste 64590
fließt 64571
Pres@@ 64549
Fund@@ 64540
nichts 64497
arr@@ 64486
legung 64459
hervor 64447
versammlung 64426
Tür@@ 64389
bestritt 64363
ähn@@ 64344
theit 64301
zählen 64295
Merkmale 64293
enth@@ 64245
Salz@@ 64231
könnte 64216
wissenschaftlichen 64192
äf@@ 64180
wies 64168
h. 64167
Los 64140
erungs@@ 64132
Del@@ 64126
folgen 64117
Hessen 64101
internationale 64087
ville 64066
Regel@@ 64062
Dorf@@ 64026
Grafen 64010
Inseln 64006
folg@@ 64006
üc@@ 63984
Motor 63949
wäre 63882
elt@@ 63880
pe@@ 63873
Wert 63871
Tal 63848
ebenen 63828
gewicht 63823
klasse 63811
Mos@@ 63808
Hier@@ 63767
Ungarn 63761
jährige 63760
Kopf 63756
Vergleich 63733
zeug 63724
bü@@ 63709
Bä@@ 63706
lin 63687
Schwester 63684
mitglied 63682
eigen@@ 63676
Frauen@@ 63660
Bö@@ 63654
trotz 63645
aufgeführt 63615
65 63590
ai@@ 63573
Fir@@ 63566
eckt 63565
app@@ 63557
nor@@ 63542
hingegen 63540
unterstützt 63529
gerade 63500
Ke@@ 63492
Island 63489
neuer 63488
1911 63478
fäl@@ 63452
sm@@ 63442
lar@@ 63438
ähnlich 63427
dienen 63391
Gest@@ 63382
dis@@ 63368
ense@@ 63368
Jo@@ 63350
Schne@@ 63332
Orgel 63288
bedeutet 63285
heim@@ 63273
gegründeten 63245
SS 63237
ages 63237
tim@@ 63230
alm@@ 63227
beweg@@ 63180
äten 63177
ke@@ 63175
Hand 63157
sprechen 63157
aufge@@ 63156
pro@@ 63127
Landschafts@@ 63109
sä@@ 63096
gleichnamigen 63086
rechts@@ 63086
Bremen 63079
fällt 63078
offiziell 63072
yr@@ 63063
mann@@ 63061
Bundesstaat 62985
ischem 62975
Nur 62972
entscheid@@ 62970
Süd 62968
Schweden 62965
ums@@ 62965
Washington 62946
strecke 62906
stell@@ 62820
Frühjahr 62813
stand@@ 62771
este 62770
theater 62759
Hir@@ 62751
altung 62751
Motor@@ 62737
1000 62709
Markt@@ 62644
aufgelöst 62638
Kapit@@ 62623
hätte 62611
pal@@ 62600
zugleich 62589
links 62550
Herren 62545
bei@@ 62511
uli@@ 62508
sz@@ 62506
präsident 62500
Familien@@ 62494
zeigte 62494
wahr@@ 62457
Bat@@ 62437
sitz@@ 62424
S. 62423
titel 62414
Architektur 62407
Ball@@ 62395
leh@@ 62391
band 62388
iche 62383
ation@@ 62369
lim@@ 62368
Kindern 62365
Weiß@@ 62329
rad@@ 62314
Vaters 62276
ings 62255
elf 62252
Wald 62198
mäch@@ 62190
1907 62153
orte 62138
Kam@@ 62130
erhielten 62112
bahn@@ 62104
io 62092
esischen 62080
Bot@@ 62063
Tan@@ 62040
Westfalen 62033
och@@ 62025
Grundlage 62021
Sar@@ 62014
mas@@ 62003
setzung 61991
verantwortlich 61939
Schn@@ 61931
konz@@ 61911
1905 61899
Flu@@ 61892
36 61794
era 61790
Verb@@ 61776
Regional@@ 61775
Wagen 61749
Tar@@ 61732
tum 61709
fi@@ 61684
lingen 61671
katholische 61643
fes@@ 61631
aun@@ 61619
Jur@@ 61600
Fried@@ 61599
tliche 61563
Wall@@ 61562
Quellen 61555
wärts 61555
Themen 61552
Ob@@ 61543
2022 61518
Herz@@ 61517
Bank 61511
ci@@ 61511
Letz@@ 61510
Klass@@ 61507
we 61503
fort@@ 61501
schrif@@ 61496
Rückkehr 61468
orien 61457
Vorder@@ 61451
vern@@ 61377
umbenannt 61375
Berufs@@ 61369
Hö@@ 61368
fünf@@ 61362
Schulen 61360
Russ@@ 61357
ativ 61347
heiten 61343
dige 61320
nis@@ 61306
angehör@@ 61305
obwohl 61300
flächen 61281
punkte 61278
fs 61276
sprache 61270
zählt 61267
Zy@@ 61248
Rä@@ 61226
öff@@ 61221
atz 61220
iben 61220
Ok@@ 61219
namens 61194
Jazz 61172
höchste 61138
Dro@@ 61137
1917 61117
entspricht 61116
× 61111
werde 61076
Tak@@ 61063
verlassen 61012
Gebir@@ 61000
Pen@@ 60989
bewegung 60962
Ec@@ 60959
wissenschaft 60951
far@@ 60938
Landwirtschaft 60917
Deutsch 60893
Zuf@@ 60891
Plat@@ 60877
plätze 60824
haus@@ 60783
0,@@ 60762
steh@@ 60724
Leg@@ 60722
ong 60721
Neb@@ 60694
33 60665
worfen 60664
Schon 60654
Teams 60649
Sowjetunion 60627
erb@@ 60607
ograf@@ 60595
ater 60591
fri@@ 60573
niedr@@ 60561
wenigen 60561
Aufbau 60554
Slo@@ 60539
yp@@ 60531
1908 60518
teilen 60504
Anh@@ 60447
Adolf 60422
Aufgabe 60401
Teilen 60350
ös@@ 60348
Medi@@ 60331
vergleich@@ 60318
Sonn@@ 60291
Star@@ 60283
kop@@ 60275
neues 60273
tene 60242
Tiere 60236
Rech@@ 60213
produz@@ 60194
oper@@ 60145
Kaiser@@ 60101
Söhne 60084
Ost 60065
Stil@@ 60053
Ebene 60039
musik 60014
Noch 60009
Stad@@ 59993
aum@@ 59984
esp@@ 59977
Heiligen 59954
mün@@ 59914
Opfer 59892
Moskau 59891
ide@@ 59889
Tsch@@ 59852
Marie 59849
solche 59849
Grä@@ 59848
erweitert 59847
erwar@@ 59837
Winter 59826
sar@@ 59816
Viele 59790
Wettbewerb 59751
weiß 59734
älteste 59734
treffen 59730
Wit@@ 59713
dahin 59655
zeich@@ 59651
Tit@@ 59649
wirtschaftlichen 59646
Sinne 59640
sur 59617
Wort 59615
riffen 59610
ausen 59602
WM 59596
Düsseldorf 59571
appen 59569
ir 59561
igt 59524
erenden 59516
Präsidenten 59449
Technik 59416
Rat 59400
weiteres 59389
kas@@ 59376
zeichnete 59371
linken 59358
Werdegang 59349
ünde 59336
Band@@ 59323
wichtigsten 59315
berech@@ 59292
ennung 59290
lehrer 59252
mes 59236
sionen 59227
tt@@ 59213
Leistung 59210
Ann@@ 59196
stammte 59192
Eich@@ 59189
ls 59184
Dreh@@ 59141
nes 59130
bur@@ 59080
Güter@@ 59074
Roh@@ 59074
Lag@@ 59062
Länder@@ 59031
Frank 58994
spi@@ 58989
Erb@@ 58987
Don@@ 58982
Dol@@ 58938
zeiten 58938
Mod@@ 58907
versuchte 58901
asti@@ 58888
Sil@@ 58882
Objekte 58875
Patr@@ 58872
sheim 58870
Schiffe 58860
gäng@@ 58856
bleiben 58838
britische 58830
legt 58827
Wegen 58811
Distrikt 58751
präs@@ 58745
EU 58743
gegangen 58740
groß 58726
dan@@ 58718
tive 58717
reform 58716
entlich 58710
iler 58703
wehr 58672
bestimmt 58625
Andreas 58573
Person 58554
gebiete 58540
Abl@@ 58539
kauf@@ 58537
orf 58489
persön@@ 58482
ütz@@ 58464
Vi@@ 58452
Aufstieg 58449
inne 58449
lek@@ 58432
ämp@@ 58412
yn@@ 58399
Hektar 58396
Fuß@@ 58392
chem@@ 58392
Müller 58377
kirchen 58377
kün@@ 58364
atur@@ 58355
Gründen 58351
Res@@ 58333
füh@@ 58330
Station 58329
29 58303
sozial@@ 58239
herr@@ 58186
ras@@ 58184
grund 58180
istin 58179
junge 58169
Tel@@ 58141
Kauf@@ 58140
eingerichtet 58140
lossen 58126
kehr@@ 58119
1906 58105
Medien 58080
oth@@ 58073
Feh@@ 58069
versucht 58058
jüdischen 58055
Air 58054
CDU 58049
wid@@ 58012
31 57981
let@@ 57979
iden@@ 57974
ue 57957
Laut 57927
Musiker 57902
Ehr@@ 57882
seh@@ 57855
Brandenburg 57847
ack 57837
kg 57798
Halbfinale 57784
baute 57784
erungen 57772
preußischen 57763
PS 57732
Einführung 57710
Exper@@ 57676
Brand@@ 57675
wirtschaftliche 57654
Mis@@ 57632
nier 57629
ust 57624
Gesetz 57613
Wenn 57593
Fürst@@ 57590
Interesse 57563
Schwar@@ 57560
kraft 57553
1950er 57552
wissenschaftliche 57533
Fal@@ 57532
une 57521
oberen 57501
Licht@@ 57500
Far@@ 57474
Lit@@ 57454
las 57429
mittels 57415
Dem 57409
li 57385
entierte 57376
ennt 57360
Frei@@ 57356
La@@ 57346
Ergebnisse 57335
ra@@ 57288
Mär@@ 57269
erhöh@@ 57266
Literatur@@ 57203
du@@ 57196
issen@@ 57182
IV. 57173
min 57171
drit@@ 57129
34 57105
unten 57102
römisch 57066
Ritter@@ 57040
blätter 57026
stitu@@ 57007
Niederlage 56985
organ@@ 56974
64 56960
zte 56946
dargestellt 56944
erklärt 56944
meisterschaft 56942
Rich@@ 56923
ständig 56882
Werner 56878
gesetz 56873
Polizei 56858
besaß 56857
Weltkrieges 56854
ce 56854
De 56853
zeuge 56836
port 56822
Weiteren 56796
Schlag@@ 56766
Jahr@@ 56754
&#124; 56747
Beruf@@ 56711
its 56706
Spitz@@ 56701
beschäftigt 56694
Kel@@ 56683
los@@ 56675
gelegene 56674
verlegt 56654
früh@@ 56651
ahn@@ 56638
jähr@@ 56637
Weiter@@ 56623
38 56620
ügen 56589
Bonn 56585
sech@@ 56582
etz 56581
funk@@ 56577
Architekten 56555
Abitur 56551
ebenda 56551
programm 56540
Pfe@@ 56517
Zentimeter 56508
Gut 56503
Gloc@@ 56498
Hy@@ 56493
erscheint 56481
lam@@ 56481
Philipp 56476
teilte 56433
schluss 56412
serie 56395
sig@@ 56389
Kloster@@ 56388
SG 56386
1909 56383
angeboten 56362
Ham@@ 56348
wodurch 56327
Studi@@ 56311
Der@@ 56306
alisiert 56281
Kraft 56234
fü@@ 56232
ikan@@ 56231
traten 56212
Europäischen 56201
Gold 56186
net@@ 56178
kampf 56169
Ortes 56151
linge 56121
ografie 56111
Kop@@ 56099
losen 56088
Graf@@ 56084
Kant@@ 56080
Weg@@ 56078
techn@@ 56014
Nah@@ 55994
Pat@@ 55957
verbreitet 55951
ty@@ 55936
Zul@@ 55920
tis@@ 55887
studi@@ 55866
album 55863
not@@ 55860
ständige 55842
gemäß 55820
GB 55809
Pri@@ 55795
Records 55773
Australien 55762
aufen 55747
gezeigt 55722
phase 55713
lige 55675
1904 55673
gefähr@@ 55623
tischer 55614
Wirkung 55583
Wander@@ 55576
ege 55527
Fritz 55524
Bildungs@@ 55511
ands 55504
ologen 55487
tur 55487
ängen 55486
nominiert 55467
Punkt 55466
1@@ 55463
Auszeichnungen 55446
J. 55426
wasser 55421
Rock 55415
Anton 55397
Hamburger 55389
kleiner 55388
Mes@@ 55372
zuerst 55366
allein 55353
etzt 55308
Bücher 55302
schlag@@ 55272
ehr 55270
stur@@ 55236
Kons@@ 55235
oz@@ 55205
anges@@ 55189
dt 55182
etern 55168
krieg 55160
ou 55160
stim@@ 55151
ay@@ 55146
häuf@@ 55137
zweit@@ 55127
turen 55112
Histor@@ 55108
Chor 55102
tieren 55075
shof 55062
Zer@@ 55041
mat@@ 55038
Kathol@@ 55030
Dokum@@ 55026
ford 55025
loc@@ 54992
sab@@ 54977
uer 54962
Raum@@ 54956
unmittelbar 54942
Train@@ 54939
stür@@ 54927
Company 54924
Ged@@ 54903
nationalen 54895
Verband 54891
römischen 54884
fluss 54874
forsch@@ 54874
mühle 54870
Nacht 54849
trainer 54845
selbst@@ 54840
jah@@ 54797
1915 54795
Sprachen 54791
chin@@ 54747
liert 54744
Gesell@@ 54727
Rhein 54708
halb 54696
medi@@ 54681
Elisabeth 54679
entum 54678
Heimat 54669
rag@@ 54667
adi@@ 54655
í 54650
Nummer 54647
Lok@@ 54615
sichtlich 54591
dh@@ 54584
wa 54568
Temper@@ 54537
üch@@ 54524
agt 54511
fu@@ 54487
Alfred 54470
75 54438
Ing@@ 54436
südöstlich 54436
Mac@@ 54429
kus 54412
Tu@@ 54401
voll 54377
Kurz 54346
Eff@@ 54311
breit 54285
Liebe 54268
ath 54267
Asi@@ 54260
nit@@ 54257
Erste 54234
äß@@ 54228
station 54205
wissenschaften 54192
Sum@@ 54190
reiche 54175
historische 54174
französischer 54164
zahlen 54162
ion 54143
größ@@ 54141
südwestlich 54123
Flughafen 54118
Häuser 54110
bleibt 54096
eres 54086
finanz@@ 54024
Kanada 54016
esh@@ 54014
kräf@@ 54004
Lind@@ 54000
Kü@@ 53999
sam@@ 53996
Studien 53993
positi@@ 53985
Des 53973
gez@@ 53972
bung 53963
ches 53952
setz@@ 53945
enges@@ 53938
brau@@ 53931
egel@@ 53931
Preußen 53920
linien 53900
erfolgreich@@ 53869
bestimmten 53863
Lauf 53846
gelten 53840
í@@ 53835
Debüt 53799
old 53784
würden 53781
mus 53777
unterschiedlichen 53773
é@@ 53773
ium 53736
Rem@@ 53727
beste 53701
Förder@@ 53672
Tages@@ 53670
Nov@@ 53648
Internationalen 53639
Instrum@@ 53627
geschaffen 53619
Regisseur 53610
zeichnet 53610
Standort 53552
sierte 53550
ada 53548
ßer@@ 53545
Leistungen 53542
geschlagen 53523
Zwischen@@ 53517
Start 53512
Henry 53508
rom@@ 53492
Ausgabe 53469
lik@@ 53444
echt 53430
Typ@@ 53419
zweimal 53387
Kranken@@ 53288
schließen 53288
ust@@ 53275
Angeles 53271
CD 53257
Sport 53247
ca 53244
geord@@ 53237
pflich@@ 53230
Leb@@ 53225
Spor@@ 53223
ov 53215
sied@@ 53188
Parlament 53180
Eth@@ 53158
Rau@@ 53155
esische 53123
mechan@@ 53119
1903 53091
Text 53086
ala 53073
latein@@ 53071
recht@@ 53069
Daten@@ 53049
Got@@ 53044
Refer@@ 53033
Sim@@ 53023
Fernsehen 53018
arf 53011
ose 52979
atr@@ 52966
Kron@@ 52957
ande 52948
belegt 52919
entiert 52910
Aufnahme 52894
Quelle 52890
theorie 52884
digkeit 52870
prak@@ 52852
iss 52822
produktion 52801
Ba@@ 52788
äuß@@ 52788
Autor@@ 52785
Sek@@ 52766
konzentr@@ 52766
Richter 52759
bus@@ 52747
Schauspielerin 52732
ille 52727
Nürnberg 52725
bewer@@ 52720
State 52717
andt 52716
Kais@@ 52691
Ot@@ 52686
star@@ 52683
ius 52679
Trotz 52678
medizin@@ 52663
ø@@ 52655
Schwarz@@ 52652
bieten 52646
kurze 52639
blick 52620
national@@ 52603
spielten 52599
ular@@ 52568
polnischen 52558
ammlung 52529
verkaufte 52502
Pop@@ 52499
wirtschafts@@ 52485
zipi@@ 52482
Villa 52464
Erzbischof 52458
1916 52457
wan@@ 52455
Durchmesser 52442
zugeordnet 52438
Sig@@ 52430
Bay@@ 52429
alien 52397
Evangel@@ 52396
ella 52387
ost 52384
Stol@@ 52374
vertr@@ 52358
klass@@ 52353
Ly@@ 52343
Situation 52338
Daniel 52318
proz@@ 52290
art@@ 52273
eins 52272
la@@ 52240
gewonnen 52226
Tab@@ 52225
verli@@ 52215
entschied 52207
etes 52189
zunehmend 52187
umfass@@ 52180
nordwestlich 52159
verfasste 52157
Ferdinand 52155
Kanz@@ 52155
lose 52142
Mitglied@@ 52127
nig 52127
vertrat 52127
elektr@@ 52108
erklärte 52084
Pfarrer 52073
tag@@ 52073
publi@@ 52064
ym@@ 52058
zählte 52037
jetzt 52028
ausger@@ 52010
inner@@ 51981
Autoren 51966
Wettbewer@@ 51957
schließt 51954
Auflösung 51953
Sänger 51937
co 51910
Fakultät 51901
ena 51892
nordöstlich 51892
schwe@@ 51867
Frü@@ 51866
ars 51859
Autom@@ 51836
Münster 51822
Zivil@@ 51816
gh@@ 51816
Probleme 51806
Christoph 51794
wesen 51790
bezeichnete 51781
ona 51755
oss 51753
lig 51735
Künstler@@ 51730
Kirchen 51711
Pfarrkirche 51710
Films 51709
errichtete 51707
1902 51676
Top 51649
erstreckt 51645
pass@@ 51627
Informationen 51623
genau 51621
Trieb@@ 51608
Erde 51603
Radio 51598
bestimmte 51568
ehrt 51564
Glas@@ 51560
angelegt 51544
vari@@ 51515
Wilhel@@ 51513
Bach 51505
freig@@ 51490
42 51473
Besonder@@ 51452
ky 51447
etab@@ 51425
ato 51410
§ 51409
Bewohner 51396
eler 51379
Gründungs@@ 51356
übertragen 51345
Beziehungen 51335
Fenster 51335
ont 51331
Ausstellung 51307
Fi@@ 51303
garten 51289
getrennt 51280
Techn@@ 51277
Bol@@ 51276
Kommission 51267
weg@@ 51250
Sicherheits@@ 51225
Regiment 51212
Freund 51211
Mittelalter 51203
selb@@ 51177
Rel@@ 51169
Betre@@ 51150
erzi@@ 51097
promoviert 51084
Mur@@ 51083
plan 51065
55 51051
ichtet 51051
hö@@ 51018
Kir@@ 51017
Ern@@ 51015
versi@@ 51009
Kosten 50952
isse 50948
Men@@ 50947
ei@@ 50924
endung 50896
Gustav 50882
sk 50877
Öffentlichkeit 50860
tenen 50831
ole 50830
Olympi@@ 50826
Straßen 50799
ode 50789
handelte 50776
tert 50776
37 50773
grenzt 50763
stets 50754
ganze 50732
Filme 50712
sprach@@ 50701
lichkeiten 50698
keiten 50694
1901 50682
tau@@ 50643
South 50631
Lauf@@ 50624
Freiburg 50604
etzen 50602
reicht 50590
Schauspiel@@ 50583
ders 50583
Kämp@@ 50575
äuser 50561
aur@@ 50530
sal@@ 50511
bewoh@@ 50505
organisation 50495
außer 50491
kirch@@ 50480
sl@@ 50479
Kli@@ 50467
Sü@@ 50466
mäßig 50461
mach@@ 50455
Einheit 50448
Formen 50442
gestaltet 50429
m. 50398
House 50387
esti@@ 50385
wil@@ 50374
Geld 50328
geschoss 50316
Bew@@ 50299
onal@@ 50288
timmung 50287
Fort@@ 50272
Sak@@ 50266
jede 50261
wel@@ 50261
starken 50237
mäß@@ 50236
port@@ 50227
daran 50218
angeg@@ 50215
stär@@ 50147
dig@@ 50142
pres@@ 50131
Ich 50123
igte 50123
bin@@ 50122
trifft 50083
werken 50074
eigentlich 50025
absol@@ 50016
zustellen 50009
kraft@@ 49995
Wehr@@ 49979
Brüder 49957
iten@@ 49950
44 49948
Bon@@ 49942
ain 49931
zes 49923
Wett@@ 49921
enheit 49913
esse 49913
Stern@@ 49909
griech@@ 49905
Haushal@@ 49898
modernen 49886
Eigenschaften 49881
Wen@@ 49872
Lad@@ 49869
Besitz@@ 49868
Music 49831
spät@@ 49829
Wür@@ 49825
Ü@@ 49823
erfül@@ 49821
Bach@@ 49814
eden@@ 49805
Königs 49779
Herstellung 49767
zung 49745
Länder 49720
ebe 49717
Fle@@ 49708
Revolution 49703
Besetzung 49698
1848 49677
Mädchen 49673
änder 49665
Pfalz 49661
museum 49643
Territ@@ 49639
ange 49627
ernen 49620
ätz@@ 49611
utsch@@ 49574
öffentliche 49547
Teilnahme 49520
mod@@ 49513
Schi@@ 49507
ta@@ 49506
Stein 49503
Society 49484
holte 49446
Woh@@ 49417
Farb@@ 49416
besitzen 49407
uc@@ 49405
Cl@@ 49399
graf@@ 49368
Dadurch 49365
Spitze 49359
brach 49338
kapit@@ 49315
heb@@ 49301
leistung 49293
umfasste 49291
aufgestellt 49283
Spar@@ 49252
koh@@ 49241
Anwendung 49237
ht 49229
terer 49219
schnitt 49202
seitdem 49187
1899 49184
gegründete 49173
pas@@ 49163
zuständig 49158
Infrastruktur 49147
japanischen 49144
verbesser@@ 49141
Alben 49132
kompon@@ 49130
seit@@ 49092
onien 49083
Chi@@ 49064
bel 49058
tz 49049
Schwe@@ 49042
abge@@ 49034
sex@@ 49034
liefer@@ 49022
kenn@@ 49014
Bürger 49009
Wirk@@ 48984
ätzen 48984
kn@@ 48913
sit@@ 48904
bahnen 48876
uppen 48876
enbach 48868
Geografie 48836
Theologie 48833
North 48831
hier@@ 48824
wechsel 48823
gre@@ 48822
Deutschlands 48821
kontrol@@ 48821
Platz@@ 48810
Kamp@@ 48805
anspr@@ 48804
mündet 48788
Medizin@@ 48785
ungs- 48773
slo@@ 48757
hab@@ 48755
länder 48740
Kos@@ 48736
Zweit@@ 48736
bahnhof 48727
unterhalb 48715
falls 48711
Forsch@@ 48684
arischen 48664
Fein@@ 48658
150 48612
elles 48611
geborene 48607
gol@@ 48597
sa@@ 48594
wirkt 48575
erseits 48574
bauen 48571
Tradition 48539
wak@@ 48528
Gran@@ 48525
spann@@ 48519
Orgel@@ 48510
Angehör@@ 48501
zt 48490
arische 48486
zäh@@ 48477
weiten 48441
Poliz@@ 48413
oll 48412
600 48400
entweder 48396
zuf@@ 48390
nahezu 48383
Küste 48368
Gebiete 48346
800 48333
fle@@ 48322
Lim@@ 48320
idung 48300
Ris@@ 48291
Zeh@@ 48266
förder@@ 48236
erkennen 48228
kern 48218
verstarb 48200
Bilder 48178
spricht 48175
Wild@@ 48164
leitet 48156
geleg@@ 48143
mittlerweile 48136
Mitgliedern 48129
ensch@@ 48128
Fili@@ 48123
begonnen 48108
abgesch@@ 48102
1898 48087
ail@@ 48081
ufen 48068
pu@@ 48064
tis 48043
emein@@ 48030
sburg 48024
Bom@@ 48004
besetzt 47993
eg 47988
Gefang@@ 47985
entschieden 47985
wesentlich 47943
schied@@ 47928
48 47911
edi@@ 47903
Indien 47885
Ti@@ 47870
Rez@@ 47837
onie 47823
Szene 47804
kennen 47800
Blu@@ 47797
wäl@@ 47793
kap@@ 47788
fälle 47768
Drei 47754
empf@@ 47754
russ@@ 47700
ment@@ 47696
markt 47656
Lieb@@ 47645
Kalifornien 47637
C. 47635
kreuz@@ 47611
alisierung 47609
älteren 47607
aufgebaut 47594
klein@@ 47580
proj@@ 47561
1890 47558
freie 47550
ofs 47547
Kampf@@ 47541
gener@@ 47530
Entstehung 47516
Für@@ 47501
Vide@@ 47494
Hockey 47487
Lehre 47473
ac 47465
angegeben 47460
ausgestattet 47452
Vereins 47451
ong@@ 47448
My@@ 47431
Vereine 47431
derung 47419
Friedens@@ 47401
ursprünglichen 47395
begannen 47384
sozi@@ 47366
hätten 47359
frag@@ 47351
Zusammen 47336
abteilung 47336
Stahl@@ 47331
Jan 47323
angel@@ 47302
Materi@@ 47296
unteren 47282
Geheim@@ 47256
Geld@@ 47253
Universitäts@@ 47239
Lat@@ 47228
verbrachte 47220
gel 47211
Dan@@ 47205
Kri@@ 47203
Spann@@ 47197
Figuren 47190
Einheiten 47161
Körper 47136
echnik 47128
kür@@ 47103
erne@@ 47099
stellten 47098
fahrer 47096
sport 47084
gemeinsamen 47064
Formel 47051
ierungs@@ 47043
Konzept 47001
kreuz 47000
bit@@ 46994
gar 46974
samm@@ 46973
jedes 46959
sel 46956
zweiter 46945
bezeich@@ 46941
lager 46940
abgeschlossen 46934
regel@@ 46926
Hall 46925
domin@@ 46922
Kro@@ 46919
urg@@ 46911
jur@@ 46908
tif@@ 46903
Vereins@@ 46881
hinzu 46879
Bezug 46871
III 46871
präg@@ 46856
Besuch 46852
Tagen 46851
ari 46846
Mah@@ 46834
Stellung 46831
lichem 46828
Santa 46818
Rüc@@ 46804
karriere 46786
licherweise 46785
Status 46751
trieben 46744
tradition@@ 46743
Parteien 46734
Kontakt 46726
partei 46709
stätten 46709
Gro@@ 46705
Wahlkreis 46696
ō@@ 46681
Mann@@ 46676
krieg@@ 46674
Spre@@ 46663
Zeiten 46662
üst@@ 46636
No@@ 46632
ft@@ 46619
Kraft@@ 46618
späten 46613
jedem 46602
Lib@@ 46592
Druck 46588
Ram@@ 46588
2,@@ 46580
dortigen 46574
fas@@ 46574
ita 46551
Aufnahmen 46533
Mad@@ 46521
stück 46520
Stadion 46519
Rechte 46511
Städten 46496
kleinere 46469
Chicago 46464
Samm@@ 46464
spätere 46464
39 46463
eröffnete 46449
Bos@@ 46433
ehren@@ 46433
Pierre 46418
Mass@@ 46401
fäh@@ 46387
aup@@ 46385
Kammer@@ 46381
onym 46374
läs@@ 46372
Daraufhin 46365
erne 46365
Schriften 46362
schuf 46360
luss 46351
Schil@@ 46331
Landtag 46329
denkmale 46317
stän@@ 46313
hü@@ 46312
Schwan@@ 46304
Kup@@ 46289
Untersuchungen 46281
Große 46276
Kun@@ 46267
1895 46254
52 46238
üssel@@ 46227
alles 46223
befördert 46218
löste 46198
herrsch@@ 46193
Geist@@ 46184
Meer 46162
tnis 46144
stehenden 46137
Basel 46133
stern 46126
Zunächst 46117
akt 46115
Heidelberg 46107
M. 46070
Strom@@ 46061
sächsischen 46061
1896 46059
Est@@ 46052
Weltr@@ 46039
bor@@ 46037
Anw@@ 46027
Theorie 46025
Rat@@ 46016
vertret@@ 46002
Gau@@ 45999
Poly@@ 45994
wur@@ 45993
äte 45986
mes@@ 45983
politisch 45983
ž@@ 45968
walt 45966
bus 45950
tschech@@ 45949
Neubau 45948
og 45931
Umwelt@@ 45925
rec@@ 45918
Gewer@@ 45903
mark@@ 45897
Daher 45895
üge 45891
stab@@ 45884
Ath@@ 45868
pen 45867
Prim@@ 45864
ents 45840
Fäh@@ 45838
rück@@ 45835
Züge 45834
Mach@@ 45832
Meisterschaften 45826
gehör@@ 45826
direktor 45824
psych@@ 45821
Sem@@ 45819
affen 45803
Amtszeit 45801
Entscheidung 45800
Todes@@ 45799
spanischen 45796
Association 45792
Det@@ 45792
Sankt 45788
Einwohnerzahl 45783
Prag 45777
Tode 45770
ierter 45756
verschiedener 45755
kosten 45753
Mio. 45748
befes@@ 45738
1870 45719
erhoben 45718
lieg@@ 45712
druc@@ 45708
Hotel 45704
Medizin 45703
Š@@ 45692
Rand 45683
völlig 45674
q@@ 45664
Original@@ 45661
werte 45661
dokum@@ 45659
lei 45657
geplant 45648
Restaur@@ 45645
fil@@ 45638
angek@@ 45636
spe@@ 45631
schlug 45611
itt 45607
Miner@@ 45606
AS@@ 45604
Heinz 45602
läufer 45602
istr@@ 45600
wieg@@ 45596
kämp@@ 45593
Vog@@ 45592
griechischen 45592
emann 45589
Mannschafts@@ 45583
ain@@ 45580
einzigen 45579
Hab@@ 45573
stimm@@ 45546
ip@@ 45536
egr@@ 45533
kurzen 45513
besondere 45507
mess@@ 45501
besser@@ 45480
Lieder 45474
edern 45469
Werken 45466
wider@@ 45436
ungs 45435
Sieger 45413
Ausland 45412
vorwiegend 45393
Kreuz 45391
bekann@@ 45378
ader 45371
Gericht 45367
High 45366
belieb@@ 45355
ds 45353
Macht 45346
Förderung 45322
Prozess 45320
üssen 45316
fül@@ 45305
1871 45290
Alten@@ 45286
Boden@@ 45277
ly 45277
ism@@ 45272
tiven 45271
Nachbargemeinden 45268
Angriff 45267
beziehungsweise 45248
1897 45239
üs@@ 45238
Verhältnis 45231
Uni@@ 45220
pfen 45214
fassung 45197
zusammeng@@ 45186
Will@@ 45175
gef@@ 45158
Millimeter 45157
ständen 45154
schätz@@ 45146
Mexiko 45144
achsen 45128
Organ@@ 45117
wirken 45110
isl@@ 45085
unterschiedliche 45040
schlä@@ 45036
benutzt 45022
Lich@@ 44992
lus@@ 44989
sing@@ 44983
nische 44971
Jakob 44937
itzer 44929
Deutsch@@ 44928
ländische 44927
Entw@@ 44923
gute 44900
Institute 44884
erter 44880
Abgeordneter 44863
bislang 44859
freund@@ 44830
Rus@@ 44818
its@@ 44815
film@@ 44809
Unternehmens@@ 44788
Sul@@ 44781
Nordrhein 44780
kriti@@ 44766
sek@@ 44703
Herren@@ 44663
lehr@@ 44658
Gott 44644
Ebenfalls 44616
küste 44597
volle 44593
verbreit@@ 44592
geleitet 44589
Fin@@ 44581
Beruf 44563
Beziehung 44549
werks 44542
liegende 44534
Holz 44516
Gleichzeitig 44480
esten 44467
Einrichtungen 44458
0.000 44456
ign@@ 44445
äger@@ 44443
ensi@@ 44435
ic 44427
forder@@ 44418
verändert 44415
gern 44406
Elemente 44385
Ble@@ 44379
ama 44376
ish@@ 44370
Tag@@ 44355
Stur@@ 44351
Archä@@ 44350
auses 44340
verschw@@ 44335
born 44321
Fran@@ 44315
Hein@@ 44311
Figur 44309
existi@@ 44305
gekommen 44299
ältesten 44297
Herzog@@ 44280
Mainz 44275
Einrichtung 44266
Reise 44261
höh@@ 44260
akademie 44252
übrigen 44240
Boot 44238
Abs 44234
co@@ 44233
Schleswig 44226
Pot@@ 44216
ock@@ 44191
Charts 44168
Fak@@ 44155
versehen 44147
beschreibt 44137
Flor@@ 44134
ilfe 44131
Städ@@ 44128
Lor@@ 44126
besser 44125
stärk@@ 44112
Marine 44109
Zustand 44109
Tief@@ 44093
British 44053
schweren 44038
43 44020
All 44010
züge 43998
erische 43992
Gruppen@@ 43983
efe 43975
Eg@@ 43965
Dav@@ 43961
uter 43957
Komponist 43943
leger 43941
Natur 43939
Fragen 43938
Universitäten 43938
Sehenswürdigkeiten 43933
gesprochen 43889
getr@@ 43886
Schwerpunkt 43878
Bistum 43863
hil@@ 43859
ichts 43856
aktiv@@ 43832
Öl@@ 43817
staat@@ 43811
graben 43795
Ju@@ 43790
Has@@ 43787
alisi@@ 43779
Einsatz@@ 43774
österreichischer 43768
Ähn@@ 43760
Breite 43751
ó@@ 43740
aturen 43738
Tonnen 43731
Arrondissement 43724
zuführen 43707
stellungs@@ 43705
Zeitraum 43701
Är@@ 43695
ill 43694
Songs 43691
erinnert 43691
ife 43687
lar 43670
ve@@ 43669
fassen 43640
Wissenschaften 43639
apo@@ 43631
det@@ 43603
suchen 43599
wäh@@ 43563
erie 43524
Menschen@@ 43523
Studien@@ 43523
wollen 43493
Kommand@@ 43488
Quadrat@@ 43480
Trag@@ 43474
Beam@@ 43461
venti@@ 43455
Start@@ 43453
zentrale 43452
NS 43427
dro@@ 43411
digte 43402
hoher 43384
eign@@ 43378
ißen 43378
Ausstattung 43372
starke 43353
entw@@ 43349
altungs@@ 43343
etzung 43338
Kurfür@@ 43329
ändern 43317
gering@@ 43313
mark 43312
vorgesehen 43311
ura 43298
Erzäh@@ 43296
ausgel@@ 43290
nieder 43286
Fluss@@ 43275
zufolge 43270
Ras@@ 43263
elli 43261
Misch@@ 43259
Elektr@@ 43257
ändler 43256
moder@@ 43247
Grafschaft 43242
Drit@@ 43234
trop@@ 43233
hu@@ 43231
isen@@ 43231
ela 43225
Handel 43222
Zahl@@ 43209
Kul@@ 43202
Ufer 43192
Bundesrepublik 43181
mögen 43180
aktiven 43179
steine 43178
Gottes@@ 43175
Kie@@ 43168
Klaus 43168
itigen 43165
nannte 43150
erhält 43146
Lake 43140
inde 43138
tens 43130
Vereinigung 43121
astr@@ 43114
gericht@@ 43112
fak@@ 43111
ungefähr 43104
einschließlich 43097
usses 43084
aute 43083
könne 43072
1.@@ 43062
stoffe 43059
ländischen 43057
verurteilt 43055
car@@ 43050
leich 43024
egel 43021
Can@@ 43020
Arts 43019
erweit@@ 43006
iern 43004
geb 42972
Kost@@ 42959
achte 42957
Mau@@ 42956
Ring@@ 42955
Ant@@ 42945
großes 42937
parallel 42913
Boh@@ 42911
Nicht 42901
Ran@@ 42894
atische 42887
Schä@@ 42884
Academy 42879
Tom@@ 42876
kunft 42874
ty 42870
shaus 42863
Zugang 42859
Test@@ 42858
Entwicklungs@@ 42853
eler@@ 42838
anzu@@ 42828
Mehrheit 42827
Veranstaltungen 42789
stammen@@ 42785
Maß@@ 42783
Idee 42774
schaffte 42767
Wahlen 42731
Aktivitäten 42695
ora 42695
promovierte 42694
ě@@ 42692
wir 42672
Jap@@ 42670
pa@@ 42670
Kamer@@ 42651
Lebens 42645
entlassen 42641
abil@@ 42636
isation 42623
Monaten 42613
entlichen 42609
international 42564
schie@@ 42564
1893 42549
fielen 42536
Lar@@ 42535
Ausnahme 42534
Minister 42534
Raj@@ 42529
weder 42524
Jahrhunder@@ 42516
int@@ 42513
1,5 42504
ücke 42496
Bischof@@ 42492
Hersteller 42490
sth@@ 42475
Hen@@ 42465
rek@@ 42461
äb@@ 42459
inf@@ 42453
vater 42447
El 42413
Theodor 42399
41 42380
Oper 42379
Braunschweig 42375
Freund@@ 42363
gewer@@ 42362
amt@@ 42357
Liz@@ 42348
Gemeindegebiet 42347
Dänemark 42338
Klosters 42326
Pos@@ 42323
verfüg@@ 42323
Bak@@ 42321
einzelne 42300
grenz@@ 42288
besieg@@ 42285
isierten 42278
berichtet 42275
Bernhard 42264
zone 42258
Rheinland 42256
unterscheiden 42247
erreichten 42245
verkauf@@ 42210
Final@@ 42207
entin 42205
Flügel@@ 42199
gang@@ 42195
ith@@ 42192
reichs 42185
gs 42174
Inhalt 42151
nationale 42143
Gegner 42139
Sin@@ 42135
verpflichtet 42128
ebr@@ 42126
indi@@ 42112
schwier@@ 42102
Regionen 42096
Kurt 42087
wechselt 42087
öffentlich 42078
Großteil 42069
möglicherweise 42056
ahn 42050
1850 42045
Europameisterschaft 42043
nehmer 42021
direk@@ 42020
ätze 42012
öfe 42007
Reb@@ 42005
org@@ 42003
chern 42001
urkundlich 41970
Bisch@@ 41960
Mak@@ 41959
Struktur 41959
Bekann@@ 41945
brü@@ 41933
Fas@@ 41928
Heraus@@ 41914
lierte 41914
Bezir@@ 41913
kräfte 41911
Deb@@ 41906
beig@@ 41890
Weibchen 41876
denden 41873
izi@@ 41866
Türkei 41864
rau@@ 41849
Umb@@ 41845
Priv@@ 41844
Rap@@ 41842
ahlen 41829
bes 41807
heil@@ 41807
betrachtet 41788
kam@@ 41787
Bayerischen 41784
ello 41784
führenden 41769
siedlung 41769
schluss@@ 41765
schaffen 41747
nationaler 41734
Halbinsel 41733
ängt 41733
warf 41732
Infanterie 41724
Schach@@ 41724
³ 41721
periode 41716
versetzt 41715
ros@@ 41707
stif@@ 41707
1892 41694
bestätigt 41694
ießen 41689
kir@@ 41686
Fuß 41684
Viel@@ 41683
Silber@@ 41680
ganzen 41680
Fällen 41679
Roten 41671
produ@@ 41670
ok 41667
deutschsprachigen 41664
Initiative 41660
Hard@@ 41656
nennt 41642
Tats@@ 41641
Kongress 41635
dierte 41623
1880 41611
aktionen 41609
tab@@ 41602
nutz@@ 41599
teilt 41586
mut@@ 41583
va 41583
eigenes 41582
zeitweise 41554
Landschaft 41538
Zug 41535
Kä@@ 41506
Kommunal@@ 41485
Errichtung 41483
Besitzer 41468
47 41464
Bern 41463
tik@@ 41458
Tau@@ 41455
Europameisterschaften 41444
ffe 41444
gelegentlich 41432
ater@@ 41413
technischen 41401
Maßnahmen 41399
breite 41397
zieht 41396
Vo@@ 41384
Bem@@ 41372
mir 41372
kultur@@ 41368
vorher 41363
ida 41356
regelmäß@@ 41342
ni 41339
til@@ 41338
ückt 41336
arab@@ 41326
prin@@ 41319
derzeit 41318
Ziel@@ 41316
Aff@@ 41309
Label 41305
läuf@@ 41304
iefert 41300
damalige 41280
bedingt 41279
urg 41275
gesellschaft@@ 41264
Belgien 41261
49 41259
Kandid@@ 41259
Schmidt 41259
europ@@ 41258
Kiel 41257
Ordnung 41242
disch 41241
länge 41239
51 41236
Königin 41223
Ulrich 41220
Bibliothek 41216
Rezeption 41197
jahren 41188
holz 41179
fach 41172
Gegen 41170
Energie 41163
außen 41163
breiten 41159
ga 41144
Engl@@ 41141
Star 41128
Erzieh@@ 41126
itäts@@ 41123
les@@ 41120
54 41117
Mein@@ 41109
uti@@ 41108
trags@@ 41102
46 41099
Vis@@ 41097
Essen 41092
beruh@@ 41078
Wag@@ 41072
Bestandteil 41046
iko 41046
enstein 41044
angew@@ 41041
lad@@ 41036
tors 41023
igkeiten 41019
Len@@ 41005
Gouverneur 41001
tern@@ 41001
Versuch 40985
train@@ 40985
sprach 40979
Sign@@ 40960
Linien 40958
einfach 40953
Ludwig@@ 40921
Gor@@ 40920
blatt 40919
ppen 40915
Waff@@ 40914
weich@@ 40912
Volk@@ 40910
Kontr@@ 40896
zieh@@ 40886
kopf 40882
Wissenschaft 40877
Hafen 40864
Neue 40863
kunde 40861
öder@@ 40859
gestellten 40847
Mul@@ 40834
ax@@ 40823
J 40793
1885 40787
Konzer@@ 40781
Hilfs@@ 40780
zweif@@ 40773
manns 40766
hauses 40733
weig@@ 40708
schwedischen 40707
änger 40702
anzen 40689
ichtete 40688
Diplom@@ 40687
weiß@@ 40674
Vari@@ 40672
Baus@@ 40652
Klub 40643
Center 40629
miteinander 40621
Untersuchung 40615
Spezial@@ 40612
Lam@@ 40602
wort 40602
stes 40601
histor@@ 40575
üssig@@ 40571
wert@@ 40566
Leistungs@@ 40561
ekten 40557
Silber 40556
ause 40546
Mittel 40541
Studenten 40538
1894 40527
Ritter 40522
ime 40491
fol@@ 40489
Kno@@ 40486
Bog@@ 40466
aja 40461
Mich@@ 40437
gemeinsame 40434
erlangte 40430
witz 40428
Aussch@@ 40424
Bronzemedaille 40419
anfangs 40405
Salzburg 40400
Göttingen 40378
Group 40375
Imp@@ 40365
Metal 40364
ernannte 40364
Fo@@ 40362
Av@@ 40354
up 40350
1888 40347
Sab@@ 40342
unabhäng@@ 40338
wahl@@ 40338
tz@@ 40333
lehre 40330
Cam@@ 40327
Woche 40314
mot@@ 40300
Sw@@ 40291
ance 40290
eleg@@ 40285
Sendung 40283
Las@@ 40280
schlossen 40275
enhaus 40273
schnit@@ 40273
befanden 40266
zunehmen 40265
kurz@@ 40264
veränder@@ 40259
Brun@@ 40250
sozialen 40245
à 40238
verbindet 40233
spezif@@ 40222
Wa@@ 40218
Pom@@ 40189
seln 40180
offiziellen 40177
aussch@@ 40167
field 40152
barer 40141
erheb@@ 40139
intensi@@ 40139
1889 40101
Lot@@ 40095
ola 40088
ao 40087
heiligen 40087
Entscheid@@ 40079
1874 40068
anst@@ 40050
56 40040
Pflanzen 40037
ermöglicht 40031
änz@@ 40017
fläch@@ 40011
Kriegsende 39996
Science 39988
arch@@ 39969
Verfassung 39958
erende 39955
tierten 39951
regul@@ 39943
ame 39929
schulen 39926
dorfer 39925
Aber 39921
yer 39909
andten 39906
Ku@@ 39889
kin@@ 39885
stücke 39884
Zeichen 39870
enstraße 39857
62 39853
braun 39851
sekretär 39849
spre@@ 39849
zuz@@ 39843
Football 39841
Vize@@ 39837
normal@@ 39836
Schriftstel@@ 39826
ban@@ 39823
Lü@@ 39817
verhäl@@ 39816
Sing@@ 39813
H. 39806
benannte 39797
Generation 39792
natur@@ 39792
geteilt 39790
7,@@ 39787
angesehen 39785
57 39781
1930er 39776
ögel 39776
fünften 39773
Funktionen 39745
ital 39742
tenden 39740
ift 39737
1891 39728
Hauses 39727
Pflanzen@@ 39724
Tas@@ 39717
ren 39717
Alle@@ 39705
genden 39705
ologisch 39700
Material 39695
druck 39684
weih@@ 39680
öhe 39670
Satz 39666
zweig@@ 39663
Variante 39662
Jazz@@ 39659
zahl@@ 39659
Holstein 39651
behaup@@ 39648
ump@@ 39646
orn 39642
lass@@ 39636
Gerhard 39634
ütze 39628
Voraus@@ 39608
männ@@ 39608
mittleren 39602
preuß@@ 39602
endungen 39589
si 39586
Arthur 39584
Druck@@ 39579
Chemie 39563
erischen 39563
Sicherheit 39554
Gegend 39550
denkmal 39548
Kontrolle 39541
popul@@ 39540
mauer 39538
früh 39531
fik@@ 39530
sagte 39526
Julius 39512
deutsch@@ 39509
Brasilien 39503
klassischen 39498
bringt 39491
litz 39488
asen 39476
Küh@@ 39470
riffe 39465
welt 39462
benachbarten 39454
Ortschaften 39440
Preis@@ 39437
usch@@ 39432
organis@@ 39429
ash@@ 39425
ppe 39418
iter@@ 39411
yst@@ 39410
Log@@ 39404
bewahr@@ 39399
rot 39394
Person@@ 39393
Mutter@@ 39390
Saison@@ 39382
Chef@@ 39363
versorgung 39346
ossen@@ 39333
gewöhn@@ 39324
vierte 39320
endgültig 39310
kammer 39306
Diskus@@ 39304
Wör@@ 39292
ū@@ 39290
Show 39288
Dann 39287
Tran@@ 39286
Arbeiter@@ 39259
gend 39254
å@@ 39253
dic@@ 39249
6,@@ 39241
Konflik@@ 39230
charakter@@ 39224
mehrerer 39221
Ukraine 39220
darf 39218
Israel 39213
Gewerk@@ 39183
Na@@ 39180
noten 39163
fiziert 39152
weis@@ 39121
Filmen 39118
On@@ 39118
Geor@@ 39117
Verkehr@@ 39107
Phase 39099
zin@@ 39096
miss@@ 39094
Gri@@ 39087
Internationale 39080
Aufenth@@ 39079
Sender 39067
lossenen 39067
000 39066
Medien@@ 39062
cke 39061
Bran@@ 39057
Geleg@@ 39057
bö@@ 39048
Simon 39046
verbandes 39045
Verhäl@@ 39032
fran@@ 39032
Kil@@ 39030
angenommen 39022
Arzt 39011
entsteht 39009
Mir@@ 39008
chinesischen 39008
sprung 39007
belg@@ 39005
Grab 38998
Smith 38991
Höhen@@ 38978
widmete 38973
sicher 38971
tiz@@ 38958
entation 38954
artige 38948
Bundessta@@ 38946
nö@@ 38939
vergeben 38931
53 38926
räum@@ 38924
sowjetischen 38918
sert 38914
äuf@@ 38913
Produkte 38912
ider 38912
forderte 38898
landes@@ 38897
Wechsel 38895
Gitarr@@ 38887
kapelle 38881
zentralen 38880
72 38872
Erkenn@@ 38869
mag@@ 38868
portugi@@ 38852
95 38850
Weltcup 38849
Texte 38846
Verletz@@ 38845
bestehenden 38845
tenberg 38840
Arn@@ 38838
1860 38837
unabhängig 38835
setzungen 38830
scheiterte 38817
Nationalsozialismus 38815
Straß@@ 38813
Joachim 38809
bestimm@@ 38805
bisherigen 38795
fertiggestellt 38768
sum@@ 38759
mitglieder 38757
industrie 38737
Volkszählung 38731
getragen 38722
Phil@@ 38721
Siedlungs@@ 38721
erwäh@@ 38721
Dru@@ 38719
klär@@ 38714
geschicht@@ 38696
versu@@ 38689
Back@@ 38681
Recht@@ 38672
zeitung 38666
NSDAP 38665
Eduard 38663
akteur 38663
schwed@@ 38663
00 38660
hieß 38650
steigen 38643
Unternehmens 38639
ausbildung 38613
person@@ 38612
Black 38598
stellvertretender 38585
buch@@ 38580
aspi@@ 38577
ogen@@ 38568
cha 38562
scheint 38553
1879 38551
Son@@ 38541
85 38530
bro@@ 38525
verhindern 38515
Eishockey@@ 38506
Brenn@@ 38500
Brü@@ 38484
Lan@@ 38479
ebel 38478
sicher@@ 38474
Frankfurter 38472
Kader 38468
begrün@@ 38461
Kab@@ 38443
gu@@ 38426
Gun@@ 38422
mitteln 38419
russische 38415
ausgeführt 38411
Patienten 38410
Bec@@ 38409
Bit@@ 38402
gelangte 38402
1866 38400
offizielle 38399
rati@@ 38398
Orden 38393
errichten 38377
Pfarrei 38376
istischer 38361
Spieltag 38343
handlung 38343
lege 38336
1500 38325
shausen 38319
urs 38317
fordert 38314
befind@@ 38313
existiert 38296
umfang@@ 38296
eter@@ 38295
kow 38290
sper@@ 38284
Bern@@ 38281
Hü@@ 38274
ny 38271
Schließlich 38257
rän@@ 38257
Gebieten 38252
geriet 38250
kleineren 38249
osen 38232
Praxis 38219
unterlag 38207
Groß 38191
Bür@@ 38188
entstehen 38187
sofort 38180
tn@@ 38179
ommen@@ 38178
Sur@@ 38166
wurf 38166
Industrie 38158
Historiker 38147
äub@@ 38132
raten 38118
abel 38117
station@@ 38116
diger 38112
Bass@@ 38110
Einen 38109
Tot@@ 38098
tiges 38079
wen 38076
Portugal 38068
eil 38066
maßnahmen 38054
Rak@@ 38051
entfer@@ 38050
italienische 38049
hel@@ 38044
Lager 38043
op 38039
Feld 38037
Beispiele 38036
verurs@@ 38035
Widerstand 38034
eht 38027
mig 38025
guten 38023
Live 38010
satz@@ 38004
bog@@ 38002
nissen 38002
ingen@@ 38001
Auflage 37998
Naturschutzgebiet 37998
eingesch@@ 37960
Bay 37959
ond@@ 37948
feierte 37946
Nag@@ 37938
Pod@@ 37930
tour@@ 37930
Tenn@@ 37925
ergibt 37917
xen 37917
fähigkeit 37914
punk@@ 37909
aten@@ 37908
Bez@@ 37885
bilder 37880
Paar 37876
kreis@@ 37816
Gemälde 37808
Konrad 37805
manchmal 37803
Denkmal@@ 37798
Personen@@ 37798
lie@@ 37797
wirtschaftlich 37797
ütte 37790
Krankenhaus 37784
maß@@ 37775
reihe 37770
Charakter 37751
kiert 37745
isierte 37732
bah@@ 37725
prüfung 37725
österreichische 37724
britischer 37709
oni 37707
rö@@ 37707
Zusätzlich 37703
Fischer 37699
250 37698
frage 37695
untergebracht 37692
Vir@@ 37691
körper@@ 37689
klassi@@ 37688
Besonders 37687
Engagement 37685
1875 37677
Repräsentantenhaus 37672
Amateur@@ 37670
ichert 37657
Zust@@ 37644
imm@@ 37636
rates 37623
Publikum 37605
ask@@ 37604
Super 37596
Anlagen 37594
Verhalten 37585
Jan@@ 37584
fabrik 37582
gänge 37580
law@@ 37570
tend@@ 37561
übersch@@ 37550
ement 37496
ua 37489
englische 37474
halb@@ 37468
existieren 37448
ider@@ 37447
amb@@ 37433
Mühle 37432
Main@@ 37431
Geschäf@@ 37428
59 37425
weißen 37419
Oberliga 37412
räume 37410
dennoch 37394
wirkung 37391
Verantwor@@ 37381
zumeist 37381
Saar@@ 37358
pa 37351
63 37348
SA 37348
schiff@@ 37342
Kölner 37341
jeden 37341
eger 37336
ede 37321
spitze 37314
gül@@ 37309
grä@@ 37306
Plan 37302
organisiert 37296
unterricht 37292
olog@@ 37286
Behandlung 37282
könig@@ 37276
Vorbild 37268
Diszipl@@ 37265
wer 37262
komple@@ 37255
eien 37252
gerech@@ 37251
nummer 37247
daraus 37241
erinn@@ 37241
Ausdruck 37233
bezogen 37229
Mühl@@ 37222
liederung 37222
Junioren 37220
amer@@ 37215
eingel@@ 37210
mar 37210
debütierte 37200
Verfassungs@@ 37199
Bauern 37191
Roman@@ 37191
Entdec@@ 37189
stil@@ 37175
Weiterhin 37173
gau 37169
Statisti@@ 37166
Eisenbahn 37162
Vorstand 37162
Ner@@ 37159
Arab@@ 37158
Neuen 37141
beck 37141
Tun@@ 37127
zent 37109
richter 37099
German@@ 37093
Domin@@ 37071
ustr@@ 37067
ary 37064
klar 37062
Rest 37049
ima 37044
71 37042
Ski@@ 37035
sicht@@ 37017
1887 37015
auft 37011
Eröffnung 37008
ey@@ 37007
Party 37003
Mitarbeit@@ 37002
Sicht 37002
einheit 36987
zylin@@ 36984
1867 36982
schreibt 36981
bestanden 36979
höheren 36968
besuch@@ 36965
67 36964
Architekt 36963
lten 36962
Angebot 36959
Jag@@ 36959
Hum@@ 36949
Jud@@ 36941
Gemeinschaft 36938
icher 36935
Erfahrungen 36934
Č@@ 36931
Teilneh@@ 36929
bri@@ 36913
Journal@@ 36912
Spielklasse 36908
zumindest 36908
entliche 36899
alog@@ 36893
Altar@@ 36889
Operation 36887
Studio 36880
such@@ 36879
umgebaut 36873
spä@@ 36864
Bib@@ 36862
1886 36859
Dörfer 36855
Entwurf 36855
igten 36854
ursprüngliche 36853
kommission 36844
entsprechenden 36822
Oster@@ 36821
genannte 36821
ungst@@ 36819
schä@@ 36815
Lab@@ 36796
träger 36795
Klima 36787
produzierte 36787
Nomin@@ 36784
bevorzug@@ 36783
Fahrzeug 36755
jüdische 36754
Krist@@ 36749
nutzen 36746
Sc@@ 36744
Internet 36735
Benedi@@ 36733
bacher 36727
Abr@@ 36720
Gesam@@ 36720
ünsch@@ 36707
ogr@@ 36706
Dorfes 36705
anstalt 36694
Ah@@ 36692
atik 36689
Alb@@ 36685
zerstör@@ 36680
Palä@@ 36679
erzählt 36676
anger@@ 36655
suchte 36647
Monat 36646
Mik@@ 36642
Schrift 36642
Bedingungen 36629
Prin@@ 36624
King 36622
Verbindungen 36622
vorher@@ 36621
Deutscher 36607
material 36603
Strecken@@ 36602
müs@@ 36600
christ@@ 36592
oberhalb 36578
präsidenten 36576
ba 36566
richt 36556
unterstützte 36554
tragung 36553
umgeben 36552
tatsächlich 36537
Rio 36534
120 36528
getötet 36521
bibliothek 36519
gerichtet 36519
Hoff@@ 36516
sand@@ 36509
VI@@ 36499
Pir@@ 36498
mak@@ 36497
Chef 36489
Bereichen 36481
Fahrer 36475
dach 36466
Dennoch 36462
Cur@@ 36458
Brand 36449
enge 36443
Gedenk@@ 36439
än 36433
Rab@@ 36411
Rh@@ 36407
66 36406
W. 36404
pflanz@@ 36399
enschaft 36395
fun@@ 36391
desselben 36385
Männchen 36381
bücher 36380
fes 36370
mals 36369
förderung 36367
Rec@@ 36366
klärung 36360
Francisco 36356
gleiche 36351
Reser@@ 36348
ises 36345
Psych@@ 36339
bran@@ 36336
körper 36332
73 36331
drück@@ 36317
Blüten@@ 36316
Send@@ 36304
zeitgenöss@@ 36301
Gestaltung 36297
Mang@@ 36292
tra 36292
Bah@@ 36285
Thi@@ 36283
Garten@@ 36269
iger@@ 36267
Ebenso 36257
emer@@ 36249
utnant 36245
Pul@@ 36244
Beschäf@@ 36243
Fu@@ 36243
konstru@@ 36239
Bund 36237
Aktiv@@ 36231
rats@@ 36227
1872 36226
Friedrich@@ 36225
Sech@@ 36225
dün@@ 36220
sieg 36214
Freien 36205
Maschinen@@ 36204
Cre@@ 36200
kaufte 36199
ziert 36196
Ursprünglich 36192
ment 36191
Ausbau 36189
bedingungen 36188
Meeres@@ 36186
weshalb 36183
zeitlich 36180
setzten 36177
Wolf 36175
Ans@@ 36172
Sz@@ 36168
az 36148
Wolf@@ 36144
nächste 36144
ässig 36141
bestä@@ 36137
owski 36137
motor 36128
Hit@@ 36125
nden 36124
1884 36123
ehemals 36123
geln 36122
Neub@@ 36115
wachsen@@ 36115
bien 36114
zusch@@ 36113
komplett 36109
Einfl@@ 36103
Pokal 36100
felder 36096
Mathemati@@ 36094
Demokrati@@ 36077
platte 36073
fungierte 36061
geschwindigkeit 36061
Gedi@@ 36055
Instituts 36041
Erich 36033
Río 36030
Box@@ 36022
bildeten 36017
Religion 36015
funktion@@ 36010
Systematik 36001
Flucht 35995
Viz@@ 35992
1873 35991
Ra@@ 35980
Mun@@ 35974
trägen 35972
mö@@ 35956
Tanz@@ 35952
niederländischen 35938
Ed@@ 35937
technik 35937
langer 35935
ehmen 35933
Ruf 35932
1868 35929
Vil@@ 35925
prof@@ 35920
geweiht 35913
iz 35899
Sav@@ 35898
studium 35898
ech 35896
unterschrieb 35896
ört 35891
Edward 35883
künst@@ 35882
überhaupt 35874
Andere 35870
quert 35870
Sper@@ 35863
reit@@ 35851
Blat@@ 35843
Stellen 35834
Weit@@ 35829
Blut@@ 35822
basiert 35811
zehn@@ 35810
Augen 35803
Kontin@@ 35802
gewannen 35799
aktions@@ 35798
Post 35797
José 35794
usi@@ 35793
Veröffentlichungen 35787
figur@@ 35787
58 35785
ye 35783
uppe 35765
Beweg@@ 35763
präsentiert 35754
.000 35747
erober@@ 35736
Software 35734
Künste 35729
adt 35729
Minder@@ 35726
Reste 35725
Pel@@ 35723
sätze 35712
Niederlande 35706
... 35700
elektron@@ 35686
ender@@ 35683
Franzis@@ 35681
sucht 35681
ting 35680
Bab@@ 35672
Semin@@ 35668
bayerischen 35658
leistungen 35655
Viertelfinale 35650
Wochen@@ 35641
Glet@@ 35639
reise 35639
eber@@ 35633
Grenzen 35631
Gebi@@ 35625
Direk@@ 35623
Priester@@ 35620
läu@@ 35593
onalen 35582
feld@@ 35572
lebens@@ 35565
Differ@@ 35562
Bürgermeister@@ 35561
teren 35556
gewöl@@ 35552
ball 35542
gründen 35542
Panzer@@ 35532
hte 35522
Assist@@ 35513
fass@@ 35508
ring@@ 35502
womit 35494
Begeg@@ 35490
Zukunft 35482
ographie 35479
Sängerin 35477
2.@@ 35469
vertei@@ 35469
Führ@@ 35467
.-@@ 35466
Orten 35452
Vielzahl 35437
ies 35432
Adam 35429
Kassel 35422
ähnliche 35412
altungen 35401
Denkmal 35391
1881 35385
Flücht@@ 35384
DE@@ 35382
1882 35380
lebenden 35375
low 35372
emeinde 35360
denkmäler 35352
hören 35338
aden@@ 35329
lehrte 35328
uerung 35327
Loh@@ 35325
Don 35318
Behörden 35305
greif@@ 35303
Vel@@ 35298
2,5 35291
rein 35275
Münchner 35273
Gä@@ 35268
anc@@ 35259
angenen 35253
gä@@ 35253
dium 35247
Reaktion 35246
zusetzen 35235
Mu@@ 35232
enfeld 35231
Mathematik 35230
Augen@@ 35222
States 35216
grad 35205
Herbert 35202
ket@@ 35198
Norwegen 35196
Würzburg 35185
Geburts@@ 35176
automati@@ 35171
unmittel@@ 35170
lokalen 35168
Ep@@ 35165
Verlag@@ 35131
Gemeinderat 35130
schne@@ 35125
10.000 35122
beigesetzt 35120
Wissenschaft@@ 35113
ausreich@@ 35106
hy@@ 35091
rein@@ 35090
1920er 35087
struktur 35078
use 35078
Brut@@ 35076
ausstellung 35074
Haf@@ 35062
seg@@ 35062
straßen 35061
anne 35058
istet 35045
ikanischen 35043
einiger 35038
Schall@@ 35032
ly@@ 35022
staatlichen 35018
Dat@@ 35012
aktive 35012
ilig 35007
Bei@@ 34990
Woiwodschaft 34990
Bul@@ 34982
20@@ 34980
stigen 34980
Ordens@@ 34974
allgemein 34966
denkmalgeschütz@@ 34965
Begriff@@ 34963
eme 34961
äne 34954
verwendete 34950
bauer 34949
Maxim@@ 34944
aue 34934
äusern 34931
bay@@ 34924
bestehende 34923
äufer 34879
Maschinen 34873
beschäftigte 34872
Alten 34866
ike 34866
Magdeburg 34865
zel 34862
1883 34859
leih@@ 34853
Ide@@ 34848
abges@@ 34842
Asp@@ 34838
bach@@ 34837
zunehmen@@ 34835
atten 34832
neg@@ 34831
1878 34829
interes@@ 34825
Blüten 34819
Pin@@ 34818
bisch@@ 34803
Forst@@ 34802
dunk@@ 34802
verst@@ 34800
Ka@@ 34792
steiger 34790
afr@@ 34785
08 34776
lautet 34768
Rollen 34767
Route 34767
erscheinen 34761
baus 34756
litt 34754
Zuschauer 34737
Tat@@ 34735
Rob@@ 34733
Dör@@ 34732
ester@@ 34732
Bronze 34726
konserv@@ 34723
Bud@@ 34720
Vergangenheit 34706
aug@@ 34705
Farbe 34700
zeitig 34693
laufen 34682
nern 34681
lassung 34677
Moder@@ 34676
schließ@@ 34674
folgen@@ 34661
inischen 34651
Soh@@ 34635
98 34629
ommen 34628
Street 34617
lug@@ 34610
Begrün@@ 34609
Waffen 34608
ihe 34608
Nachwuch@@ 34606
Posten 34603
Modelle 34600
vereins 34600
notwendig 34596
heimer 34585
Probl@@ 34560
tho@@ 34560
bein@@ 34559
Bühne 34554
D. 34554
Organisationen 34553
schütz@@ 34549
nd 34546
neug@@ 34537
schläge 34531
behandelt 34528
Kircheng@@ 34527
Auszeichnung 34521
moderne 34519
Luft 34515
keit@@ 34514
ausgebaut 34506
Dau@@ 34502
Vogel@@ 34499
Trau@@ 34490
sson 34482
ausschuss 34474
Mikro@@ 34472
fragen 34470
Senat 34466
kun@@ 34465
Individ@@ 34462
1876 34461
Wär@@ 34452
Schrift@@ 34450
Denkmalschutz 34447
gebieten 34440
offen@@ 34440
jo@@ 34437
veröffentlichten 34436
wichtigen 34431
zi 34427
sy@@ 34425
ther 34425
Ta@@ 34408
üblich 34407
Gründer 34403
1861 34391
sowje@@ 34388
ystem 34372
lehnte 34371
ards 34366
Fahrzeug@@ 34359
verfügte 34352
3,@@ 34351
einheit@@ 34351
bem@@ 34349
dürfen 34347
Brief@@ 34344
AC 34343
verständ@@ 34339
Neur@@ 34338
Etwa 34333
siegte 34332
Festung 34320
Wunsch 34320
alit@@ 34295
liber@@ 34292
Anerkennung 34285
ome 34284
Ermitt@@ 34281
Video 34280
Mensch 34273
Besatzungs@@ 34272
09 34262
verhaftet 34247
Methode 34246
pil@@ 34236
gig 34231
go 34224
privaten 34223
ord 34221
aktu@@ 34216
ellschaft 34215
prochen 34214
nachgewiesen 34211
anders 34210
Gesundheits@@ 34206
Problem 34206
enc@@ 34202
bezieht 34196
Zweck 34192
otzdem 34192
Flugzeug@@ 34185
militärischen 34170
aufnahmen 34168
firma 34161
Metall@@ 34160
Ruhestand 34158
uen 34158
nisch 34156
adel@@ 34148
eckte 34145
viert 34130
Maur@@ 34128
famili@@ 34124
log@@ 34123
gesetzten 34096
Standard@@ 34084
Übersetzung 34055
erworben 34052
ef 34045
bern 34042
grün 34037
zierte 34036
essischen 34035
zuk@@ 34035
Ori@@ 34024
machten 34014
Platten@@ 33996
Büh@@ 33992
berühm@@ 33992
gebung 33991
christlichen 33987
Lösung 33984
kaiser@@ 33983
beschlossen 33971
fortan 33957
8,@@ 33951
bischof 33948
Synchron@@ 33946
Schaff@@ 33931
mel 33925
ej@@ 33919
bs@@ 33917
Studie 33915
Anhalt 33911
isieren 33907
kab@@ 33903
Nar@@ 33896
Viol@@ 33888
beauftrag@@ 33875
ero 33862
let 33860
ema 33859
Gebiets@@ 33855
erreich@@ 33851
verstär@@ 33849
eau 33843
Verkauf 33841
schwarz 33830
behörde 33822
flügel 33819
itige 33818
eingegliedert 33814
1869 33801
positionen 33796
netz 33790
atte 33779
anhand 33772
Ries@@ 33770
Hem@@ 33764
Fün@@ 33758
SP@@ 33757
bedeutende 33756
Kirchengemeinde 33749
Kohlen@@ 33747
technische 33737
arm@@ 33730
DR 33723
Erwähnung 33717
France 33709
hr 33708
76 33695
Fort 33693
Massen@@ 33693
Aachen 33689
eigener 33685
Geschlech@@ 33676
stärker 33675
mensch@@ 33674
Niedersachsen 33673
anlässlich 33663
burg@@ 33663
radi@@ 33661
E. 33657
ul 33656
eri@@ 33651
Baureihe 33645
stä@@ 33640
1864 33636
erhöht 33631
riff@@ 33629
ährung 33629
tom@@ 33623
Datum 33617
Red 33614
Dist@@ 33613
Jagd@@ 33612
strahlung 33608
dungen 33600
ont@@ 33587
pet@@ 33578
baroc@@ 33576
Volk 33569
Arz@@ 33566
Sonnen@@ 33565
Stefan 33562
rig 33553
täg@@ 33552
abgerissen 33548
mil@@ 33548
benutz@@ 33544
beschloss 33538
61 33527
Deleg@@ 33525
Ziele 33519
86 33511
nämlich 33508
bad 33507
ling@@ 33505
Verz@@ 33496
Jürgen 33492
Afrika 33488
Gär@@ 33488
Gemeinsam 33478
Quer@@ 33477
ischsprach@@ 33465
Töchter 33462
Mary 33461
Leon@@ 33456
rolle 33454
unterscheidet 33453
bec@@ 33444
ungsp@@ 33443
Farben 33440
Frieden 33437
höch@@ 33435
Silbermedaille 33433
Hon@@ 33430
bä@@ 33429
verab@@ 33424
schwere 33418
erw@@ 33411
Wies@@ 33410
Adel@@ 33402
Inschrift 33401
Marke 33401
1865 33395
wah@@ 33395
deh@@ 33386
Präsident@@ 33382
way 33381
kost@@ 33377
jener 33376
näch@@ 33370
Erkran@@ 33369
vollen 33350
Ty@@ 33349
fund@@ 33346
Einer 33344
Erster 33341
pers 33339
attet 33337
Miss@@ 33334
Partner@@ 33332
700 33323
Ö 33322
Hub@@ 33320
Peter@@ 33317
religiö@@ 33315
Artiller@@ 33311
eim 33310
haft 33307
Programm@@ 33297
scheid 33297
äufig 33292
Tübingen 33290
Parlaments@@ 33288
Blatt@@ 33286
wang 33282
Regis@@ 33277
04 33276
schiffe 33274
bedro@@ 33257
Team@@ 33256
Licht 33255
Kombination 33252
Konzentr@@ 33248
gänz@@ 33248
beendet 33240
ermöglichen 33239
Insbesondere 33229
ees 33228
tivi@@ 33218
ausgestrahlt 33212
Himmel@@ 33206
ingt 33206
struktur@@ 33199
estens 33195
Garten 33193
ogenen 33192
Reiches 33184
pan@@ 33184
Verteidigungs@@ 33180
Chin@@ 33179
Priester 33178
1815 33175
wohl@@ 33173
Albrecht 33172
Entfernung 33172
Kopf@@ 33163
05 33154
ließ@@ 33154
tener 33154
1862 33153
luther@@ 33150
wissenschaft@@ 33128
Einzel 33127
Wohl@@ 33121
Glaub@@ 33117
1877 33116
angeleg@@ 33114
Kanal 33107
tner 33105
ierenden 33102
ez 33101
Zo@@ 33094
Fernsehserie 33091
Pokal@@ 33085
Online 33080
wissenschaftlicher 33057
ines 33051
eld 33048
Allgemeinen 33046
gehenden 33045
Prix 33037
Wich@@ 33036
1849 33031
hierbei 33027
Hause 33026
Design 33020
99 33019
gewähr@@ 33017
dichte 33008
gem 33008
Macht@@ 33007
rennen 32999
Stat@@ 32998
Famili@@ 32994
n. 32994
Texas 32986
eber 32983
ags 32975
eden 32965
flan@@ 32959
angebracht 32954
93 32953
Selb@@ 32953
Sekunden 32942
Wäl@@ 32937
Kabinett 32933
bindung 32933
frem@@ 32927
Stör@@ 32926
Plätze 32923
leistungs@@ 32921
Neustadt 32920
Antonio 32911
gab@@ 32902
enför@@ 32898
Bör@@ 32896
Hauptrolle 32888
text 32888
Kommandeur 32885
Herausgeber 32881
96 32878
besitz 32878
Seinen 32872
Thüringen 32872
Graz 32868
Spieler@@ 32863
Dach 32862
eingeb@@ 32861
Kran@@ 32855
Magazin 32850
benö@@ 32847
trafen 32847
Amsterdam 32841
Lokomotiven 32832
VP 32832
öst@@ 32824
Vul@@ 32820
Mecklenburg 32817
Regionalliga 32815
schreiben 32813
Profess@@ 32800
Maschine 32797
insel 32796
Biografie 32792
74 32790
sho@@ 32779
Chron@@ 32776
trit@@ 32775
viertel 32769
Drittel 32761
appe 32761
ells 32759
enten@@ 32755
Pon@@ 32753
tigkeiten 32752
Bericht 32750
Ins@@ 32750
88 32747
begrenzt 32747
beam@@ 32740
iber 32735
our 32735
verbund@@ 32724
entsprechende 32723
dies@@ 32708
kunst 32706
Theat@@ 32705
verstärkt 32703
lass 32701
agne 32694
vereinigung 32692
Skulp@@ 32689
jen@@ 32679
engagierte 32676
gegliedert 32675
Und 32670
utz 32668
Niederlanden 32667
achtet 32661
befeh@@ 32658
jahre 32655
68 32651
od 32649
ppen@@ 32642
hard 32636
Staates 32633
dien@@ 32624
stanz 32620
Dür@@ 32616
Hä@@ 32603
teilungen 32598
teln 32597
hafte 32578
Journalist 32576
erfolg@@ 32576
legi@@ 32566
seither 32562
5.000 32561
Suche 32561
halle 32561
solchen 32557
Hau@@ 32555
reiste 32553
standes 32549
erklär@@ 32548
G. 32545
tem@@ 32545
hör@@ 32542
Partner 32532
wegs 32532
angeh@@ 32524
Feder@@ 32514
kin 32512
nee 32502
Dich@@ 32493
Auto 32490
kW 32488
que 32485
maßen 32472
ungsin@@ 32468
soziale 32459
beher@@ 32452
strateg@@ 32445
Stimme 32444
Stär@@ 32443
Menge 32440
prot@@ 32437
rol@@ 32436
archä@@ 32434
Landgemeinde 32430
phys@@ 32427
altar 32423
Fraktion 32421
samt 32420
US@@ 32417
Dampf@@ 32402
una 32399
fung 32397
zweier 32389
sequ@@ 32381
struk@@ 32381
erlau@@ 32375
brachten 32371
Technischen 32368
Ky@@ 32367
Wehrmacht 32357
höhere 32354
Lee 32351
entwickelten 32334
Übernahme 32317
gün@@ 32316
kan 32315
mut 32287
zugesch@@ 32284
Pläne 32282
Justiz@@ 32278
Unabhängigkeit 32269
Hun@@ 32262
isses 32251
projekt 32248
91 32246
Komit@@ 32246
musik@@ 32245
Oh@@ 32242
las@@ 32240
Müh@@ 32235
verm@@ 32234
autor 32233
erweise 32232
Veränderungen 32231
offenen 32227
wander@@ 32217
Fres@@ 32216
Projekte 32216
orten 32209
leisten 32208
fahrts@@ 32206
uns 32206
rund@@ 32202
übte 32202
stehende 32193
verpflich@@ 32193
Karlsruhe 32191
durfte 32190
Num@@ 32188
igsten 32188
ungsh@@ 32182
andte 32181
änderte 32178
infolge 32175
gende 32168
Rah@@ 32166
Erweiterung 32163
stedt 32156
breit@@ 32155
Ausstellungen 32145
Österreich@@ 32143
Altstadt 32140
ots 32136
e- 32130
Jungen 32121
Standard 32117
Darmstadt 32116
vers 32104
− 32103
Rum@@ 32102
Nationen 32092
position 32091
Zuschau@@ 32088
einander@@ 32088
mittlere 32078
Siegen 32071
Management 32066
Rev@@ 32063
Margar@@ 32062
Elek@@ 32041
fang 32040
vertreter 32040
Partien 32032
Göt@@ 32024
Arbeiter 32013
restaur@@ 32013
Assistent 32009
Frank@@ 32007
Turni@@ 31997
ensis 31993
Kunsth@@ 31991
eberg 31984
Gipfel 31982
ürzt 31982
agert 31974
massi@@ 31960
trans@@ 31959
Eur@@ 31958
App@@ 31953
Staff@@ 31953
metr@@ 31952
archit@@ 31946
Königs@@ 31930
aux 31930
Auß@@ 31923
Güter 31909
nä@@ 31903
sto@@ 31903
Hugo 31902
Spek@@ 31899
größer 31899
Ander@@ 31897
türk@@ 31895
Energi@@ 31894
KZ 31876
prozess 31864
prüf@@ 31859
Charakter@@ 31858
Abstand 31857
chung 31856
platten 31844
Wohnung 31829
Co. 31827
Leichtathletik 31824
92 31815
priv@@ 31806
sil@@ 31802
verbindung 31801
wol@@ 31785
Kompon@@ 31781
dende 31771
Medaille 31763
version 31762
Flügel 31756
definiert 31756
bot@@ 31754
Botschafter 31753
Physik 31745
Wesentlichen 31739
entwickeln 31726
Jak@@ 31721
83 31716
Tauf@@ 31709
herrschaft 31691
staaten 31689
gezählt 31683
ograph@@ 31667
ink@@ 31666
theoreti@@ 31664
ugen 31657
Gul@@ 31644
Tom 31638
Mechan@@ 31635
Besucher 31630
Hav@@ 31630
Mül@@ 31620
außer@@ 31620
ings@@ 31618
Bahnh@@ 31617
vorgestellt 31617
Beiträge 31616
möglichst 31615
Pro 31604
Tempel 31598
rhein@@ 31595
Offizi@@ 31594
Hill 31590
einst 31586
akadem@@ 31584
Id@@ 31579
handel 31579
Zahlen 31568
erfolgten 31560
ug 31552
verhin@@ 31550
ear@@ 31546
Gesprä@@ 31542
Ereign@@ 31540
Kandidaten 31539
mol@@ 31522
Mission 31503
troffen 31503
Tochter@@ 31495
val@@ 31493
Saisonende 31486
Offizier 31474
begleitet 31472
zugänglich 31471
bün@@ 31456
schwan@@ 31447
Donau 31444
owitsch 31443
bür@@ 31441
Minute 31432
Hus@@ 31431
esses 31428
vorbei 31425
Mö@@ 31419
AS 31415
Klin@@ 31407
69 31392
Gefängnis 31392
Besatzung 31387
bereit 31386
höher 31385
77 31377
Stern 31377
wissenschaftler 31373
itig@@ 31355
orr@@ 31352
Kug@@ 31350
itäten 31350
brechen 31347
Kommando 31339
illa 31339
Stipendi@@ 31333
kompl@@ 31323
rel@@ 31323
Orchester 31319
Oscar 31315
transpor@@ 31315
Itali@@ 31311
schwar@@ 31309
Milch@@ 31307
Anspruch 31305
Geschichts@@ 31299
Bildhauer 31298
Stadtr@@ 31298
mp@@ 31297
89 31292
bund 31287
schnitte 31287
e. 31286
üstet 31277
Malerei 31268
Gewinn 31267
eta 31267
länd@@ 31266
oto 31259
entlicher 31255
ott 31253
Promotion 31246
lem 31246
78 31244
fügt 31244
Flotte 31241
traditionellen 31240
Ingen@@ 31234
terin 31232
Nik@@ 31231
kultur 31224
Baron 31218
lob@@ 31214
ji 31213
Stich@@ 31212
tür@@ 31203
Stücke 31196
Al 31192
Zäh@@ 31191
erhal@@ 31181
Pseud@@ 31177
fang@@ 31175
baum 31169
Obj@@ 31145
dienten 31144
ulation 31137
Frag@@ 31136
other@@ 31136
offen 31135
erforder@@ 31133
stat@@ 31132
1863 31124
sexu@@ 31121
sten@@ 31120
Klein 31114
Griechenland 31104
landes 31104
Augsburg 31102
unterschied@@ 31100
Krone 31097
gestr@@ 31093
möglichen 31090
mw@@ 31086
Peri@@ 31081
städtischen 31080
verlängert 31060
da@@ 31057
Schnell@@ 31056
Anhänger 31055
Best 31052
Eingang 31050
Trin@@ 31048
errichteten 31039
uppen@@ 31039
eigenständige 31031
eum 31030
Venedig 31027
81 31022
Vorkommen 31020
Funde 31014
Petr@@ 31011
agn@@ 31011
orienti@@ 31007
Master 31006
gebietes 31005
schles@@ 31005
Front 31002
ati 31000
urt 30996
stimmung 30986
verlauf 30982
funden 30980
usst@@ 30976
innung 30974
afft 30970
verboten 30969
einheiten 30964
analy@@ 30958
1800 30955
evangelischen 30955
F. 30951
Erwer@@ 30950
Dur@@ 30948
stil 30948
estellt 30945
Folge@@ 30943
solcher 30939
Komponisten 30936
ieß@@ 30925
derte 30919
übernehmen 30910
ürf@@ 30910
führende 30904
öd@@ 30893
Planung 30891
fließ@@ 30890
R. 30884
reifen 30877
Major 30868
Brig@@ 30866
Rol@@ 30859
kal 30857
Liber@@ 30854
dam@@ 30854
Awards 30851
vergröß@@ 30851
ais 30844
Van 30843
Alters@@ 30840
gestellte 30839
arbeiter 30834
angrenz@@ 30823
konstruk@@ 30815
Ensemble 30814
gas@@ 30806
dän@@ 30804
Prinz 30797
94 30795
Berat@@ 30794
bergs 30792
Anwesen 30791
Bauwerk 30791
Netz 30791
sta@@ 30780
Religions@@ 30779
dänischen 30778
afen 30774
bestell@@ 30770
Ägypten 30768
84 30767
kombin@@ 30765
tens@@ 30764
Gö@@ 30758
reste 30755
drei@@ 30748
Junioren@@ 30744
eingeweiht 30726
Hart@@ 30724
Gör@@ 30718
arbeiteten 30718
Brief 30717
Eh@@ 30716
fli@@ 30713
06 30712
front 30711
wege 30702
marsch@@ 30700
militärische 30699
Auswär@@ 30692
keln 30691
ungen@@ 30685
aill@@ 30671
Wirt@@ 30665
könnten 30648
gewal@@ 30647
Freiheit 30646
ron@@ 30646
arg@@ 30645
zel@@ 30643
innen@@ 30636
ältere 30636
egelt 30635
Organis@@ 30631
mund 30630
tes@@ 30613
Expedition 30606
bezeichnung 30602
Zur@@ 30600
freiwil@@ 30599
Krankheit 30593
Bünd@@ 30577
anerk@@ 30554
betreibt 30553
kämpfen 30549
gedreht 30548
Ferner 30543
seitig 30542
größe 30536
unterrich@@ 30532
sub@@ 30530
spiegel 30525
tret@@ 30524
Milliarden 30522
Rathaus 30518
zeichnen 30518
Polizei@@ 30517
iller 30517
beschädigt 30516
verteilt 30504
verletz@@ 30502
Astr@@ 30499
ire 30497
probl@@ 30491
Drei@@ 30488
Rock@@ 30487
Fäl@@ 30486
Läng@@ 30482
edr@@ 30477
ry 30469
Ehren 30464
umb@@ 30460
vog@@ 30457
ald 30442
Dial@@ 30434
schau@@ 30431
Gewalt 30428
1856 30424
haber 30421
wettbewerb 30419
lings@@ 30418
länger 30411
zub@@ 30410
ska 30409
diert 30408
maler 30407
Co 30404
Force 30393
Dissertation 30386
frühere 30379
Drehbuch 30376
Gros@@ 30361
ro 30357
haften 30353
Altar 30348
tende 30348
mehrmals 30347
Bou@@ 30342
Ereignisse 30336
arzt 30332
wandte 30327
fügen 30324
paar 30323
alter@@ 30321
inneren 30317
Publik@@ 30312
erlaubt 30308
bewaff@@ 30306
bekanntesten 30303
erkran@@ 30301
geblieben 30298
Eck@@ 30285
Blick 30280
teri@@ 30280
zusätzliche 30275
xe 30272
q 30268
Cot@@ 30265
spur@@ 30259
meister@@ 30257
Vit@@ 30256
äuch@@ 30253
doppel@@ 30240
ental 30237
staatliche 30234
Meinung 30228
Grad 30225
Austrag@@ 30222
Cat@@ 30222
Tradi@@ 30220
Auftritt 30218
Frau@@ 30218
Methoden 30214
tam@@ 30212
ebte 30211
Beoba@@ 30207
weib@@ 30207
besonder@@ 30201
übersetzt 30200
deutschland 30197
zeh@@ 30187
ücken@@ 30187
erho@@ 30184
Geburt 30183
sonst 30181
Spät@@ 30180
Dichter 30177
Was@@ 30176
ukrain@@ 30159
Freunde 30156
Pyr@@ 30156
nde 30150
Gesang 30146
anerkannt 30142
07 30139
Geschäftsführer 30132
Informations@@ 30131
Boston 30129
häuser 30122
ausgebildet 30117
horn 30104
tend 30098
Vier 30094
Ev@@ 30090
Modus 30084
ams 30071
lis 30071
bin 30064
Johann@@ 30049
beeinflusst 30043
Wissenschaftler 30040
med@@ 30032
Weltmeister 30025
Je 30022
big 30021
ografien 30021
höl@@ 30017
Nachfolge 30007
Konfer@@ 30006
adr@@ 29999
kum@@ 29994
gesti@@ 29992
Freil@@ 29987
apie 29984
gut@@ 29984
systeme 29984
Fassung 29983
Irland 29981
schir@@ 29979
hor@@ 29977
Vorstands@@ 29961
Acker@@ 29955
tags@@ 29935
Cap@@ 29931
Laur@@ 29928
leute 29926
gepräg@@ 29925
westliche 29925
Mannheim 29903
Geschw@@ 29889
herr 29888
Wege 29886
notwen@@ 29874
Gefahr 29868
artigen 29864
Viertel 29857
boden 29856
behalten 29855
arien 29853
lands@@ 29852
Tol@@ 29843
Mündung 29842
lo 29835
Gebäudes 29829
beteiligte 29828
Dortmund 29824
gedr@@ 29823
Helmut 29820
öß@@ 29817
Rod@@ 29810
Unterschied 29810
Kalk@@ 29809
Völ@@ 29807
hofen 29806
Amt@@ 29799
Sich@@ 29793
Vorgänger 29780
wachsen 29773
Mind@@ 29769
angeschlossen 29769
Vermut@@ 29767
Kindheit 29763
Astronom@@ 29762
Punk@@ 29759
ity 29751
fällen 29743
Systems 29742
Koordin@@ 29738
ibe 29733
erfolgreichen 29732
lech@@ 29727
lär@@ 29727
demokrati@@ 29720
Marien@@ 29716
chi 29716
Sied@@ 29714
Kupfer@@ 29710
Register 29709
läuft 29708
Vorgänger@@ 29700
Play 29697
Verhandlungen 29694
Sow@@ 29693
überliefert 29693
Run@@ 29692
kosten@@ 29692
Ari@@ 29689
Tourismus 29689
ilien 29687
1840 29683
italienischer 29676
anze 29663
rom 29663
Pariser 29659
senen 29655
NGC 29653
Rumänien 29652
region 29651
unterschieden 29640
Oberfläche 29628
Normal@@ 29627
ham 29617
ants 29613
Lem@@ 29610
wiederholt 29610
Gatt@@ 29608
tausch 29607
stattdessen 29601
ney 29597
Exemplare 29591
Revol@@ 29590
yl 29586
ame@@ 29584
Landtags@@ 29583
leid@@ 29582
Morgen 29567
gelangen 29560
Böh@@ 29559
Orch@@ 29559
gestaltung 29555
engeb@@ 29552
Rostock 29551
ünden 29550
ogene 29548
richtete 29542
ergänzt 29541
Agr@@ 29539
Bra@@ 29539
fein@@ 29533
krise 29530
Blü@@ 29528
beding@@ 29526
Qualität 29524
Ven@@ 29523
Öff@@ 29518
Parti@@ 29515
laub@@ 29510
seits 29508
Les 29507
ahlung 29503
Wechsel@@ 29489
Rede 29488
Bestand 29487
Schau@@ 29484
via 29480
Künst@@ 29478
echn@@ 29476
Service 29473
stag 29473
strafe 29472
Zerstör@@ 29470
auto@@ 29466
Hitler 29465
digit@@ 29463
Kilometern 29462
alis 29460
besonderen 29460
amerika 29446
festgelegt 29441
anus 29430
Breslau 29421
Sebastian 29418
evangelische 29408
parte@@ 29403
Kreises 29400
Unabhäng@@ 29400
raben 29397
bezir@@ 29396
Form@@ 29385
Flächen 29382
Milli@@ 29382
Phys@@ 29379
Barbara 29378
Hierbei 29377
Nationalsozialisten 29374
jug@@ 29372
erheblich 29371
enthal 29364
Nachkriegs@@ 29360
liger 29351
hielten 29349
Liv@@ 29348
awa 29346
Widerst@@ 29345
Gott@@ 29343
Nachfol@@ 29342
jähriger 29340
pel 29333
Computer@@ 29331
islam@@ 29331
profession@@ 29327
beit 29324
orden 29323
4,@@ 29319
Jena 29315
Mailand 29305
Terr@@ 29298
Tabelle 29297
Singles 29294
eo 29293
sicherte 29293
Führungs@@ 29285
letztlich 29284
ässer@@ 29280
tö@@ 29279
Barcelona 29278
1859 29277
enne 29277
Freiz@@ 29269
Südafrika 29268
ällig 29264
kanad@@ 29262
87 29258
uni@@ 29251
cu@@ 29249
chn@@ 29243
Schiffs@@ 29240
schicht 29219
jahr@@ 29218
Objekt 29216
Big 29214
Klassi@@ 29209
Klavier@@ 29209
Protest@@ 29205
aktuellen 29204
Englisch 29199
Sus@@ 29198
Mön@@ 29194
benötigt 29194
Lebensweise 29188
NHL 29185
tei 29182
Übergang 29182
Abgeordneten 29177
Richt@@ 29170
schützen 29166
öp@@ 29164
ding 29163
verletzt 29158
Ursprung 29156
habili@@ 29155
Amerika 29152
Unterricht 29148
Vers@@ 29147
Herzogtum 29141
Az@@ 29140
sbach 29138
Ele@@ 29125
Williams 29125
Jones 29121
Rand@@ 29118
brasili@@ 29104
engl 29101
sal 29090
Konzerte 29087
Bord 29086
gliederung 29083
Tim@@ 29082
blich 29080
eis@@ 29080
üg@@ 29076
Werte 29073
UN@@ 29069
wa@@ 29067
wechseln 29066
dur@@ 29065
Baum@@ 29062
tent@@ 29060
Jähr@@ 29048
enter 29048
verzeichnet 29041
kommerzi@@ 29036
reag@@ 29030
Prinzip 29029
Aussage 29025
Med@@ 29022
Verd@@ 29021
Konstruktion 29018
beschrieb 29018
igem 29018
Ausbildungs@@ 29016
lieren 29016
private 29016
ju@@ 29015
kus@@ 29013
Tokio 29012
schau 29012
stiegs@@ 29009
Freiwil@@ 29004
Schlus@@ 28998
You 28988
1806 28986
unterschiedlich 28985
kandid@@ 28984
gelang@@ 28973
Möglichkeiten 28972
enzi@@ 28971
OS 28966
5,@@ 28962
bereiche 28956
Heimatstadt 28947
79 28944
Gottes 28938
Einnah@@ 28932
maximal 28931
mittelalterlichen 28925
yn 28924
rt 28920
Matthias 28911
ali 28909
zeugung 28904
glau@@ 28902
Leopold 28899
allgemeinen 28895
Nörd@@ 28886
öger@@ 28877
Verteidigung 28873
Wetter@@ 28873
weiler 28872
ilde 28868
eus 28859
isten@@ 28857
dich@@ 28851
nutzte 28849
zählung 28849
skir@@ 28846
then 28842
diesmal 28841
unterstützen 28839
versor@@ 28839
Dev@@ 28837
Lübeck 28831
burgischen 28823
Jack 28822
beobachtet 28814
kanadischen 28813
odi@@ 28813
Int@@ 28804
bogen 28800
Franzosen 28795
But@@ 28790
low@@ 28790
angep@@ 28782
enhof 28777
Wo@@ 28776
flug 28772
Brem@@ 28766
partner 28760
übergeben 28754
ermittelt 28750
figur 28740
Qualifikations@@ 28734
ib 28731
Nikolaus 28728
bege@@ 28726
otive 28725
wood 28725
bene 28716
Columbia 28715
anden 28710
überw@@ 28706
schil@@ 28700
afrikanischen 28692
Diesel@@ 28688
list@@ 28677
ith 28673
sagt 28672
wig 28669
errang 28661
bekommen 28646
eif@@ 28642
Umbau 28635
inn 28634
örtlichen 28634
türkischen 28633
nicht@@ 28627
ES@@ 28625
Kunden 28604
zenten 28598
East 28595
speziell 28594
tels 28594
Persönlichkeiten 28590
tus 28586
französ@@ 28577
Reformation 28576
Vill@@ 28573
gerichts@@ 28570
üne 28569
ental@@ 28568
ER@@ 28566
Somit 28563
Premierminister 28560
Hag@@ 28555
Weiler 28554
tier 28553
aven 28552
zusätz@@ 28551
sozialistischen 28547
ente@@ 28545
Tir@@ 28543
Rit@@ 28542
verd@@ 28532
Schwarz 28531
Bun@@ 28530
tags 28523
Mount 28519
Höchst@@ 28512
Madrid 28509
politischer 28508
Bewer@@ 28506
europäische 28499
ärz@@ 28498
Rücktritt 28497
aufführung 28494
Corps 28487
sam 28484
Bands 28480
ion@@ 28479
ides 28477
terung 28475
eburg 28472
Strecken 28470
Ansicht 28468
saß 28466
istor@@ 28450
Verlängerung 28443
Republik@@ 28440
installi@@ 28438
geist@@ 28429
Unternehmer 28427
bevöl@@ 28427
ökonom@@ 28422
kreise 28415
Völker@@ 28413
ligisten 28411
Kamera 28404
Luf@@ 28403
nischer 28401
97 28392
stor@@ 28391
äft 28388
organisierte 28349
Interessen 28345
Gir@@ 28344
Erfin@@ 28343
darstellt 28333
Reih@@ 28329
ira 28325
FA 28323
unbekannt 28321
Höhepunkt 28316
stattung 28316
Umsetzung 28315
IC 28304
engen 28298
förmig 28297
Kern 28292
pfe@@ 28292
Muse@@ 28291
Var@@ 28285
ine@@ 28282
verlang@@ 28280
prim@@ 28275
Fünf@@ 28274
ruck 28266
geringen 28265
Fassade 28261
ausgest@@ 28259
untersucht 28257
entur 28255
serien 28250
Alte 28246
Cer@@ 28245
ais@@ 28241
tmals 28241
regionalen 28229
Konstruk@@ 28224
unternahm 28219
Hohen@@ 28210
Fall@@ 28205
Eins@@ 28203
Rü@@ 28203
Meg@@ 28202
ems 28199
eingemeindet 28197
gelegen 28197
erinnen 28195
Nachkommen 28187
parks 28187
einfachen 28182
gens 28182
leist@@ 28178
Spezi@@ 28177
Verbands@@ 28174
ends 28170
Emil 28169
Bachelor 28167
trum 28162
Europas 28161
Beteiligung 28160
Wat@@ 28156
Camp@@ 28152
beschreibung 28152
3.@@ 28148
Weiß 28148
reichte 28141
Streit 28139
ierende 28139
Initi@@ 28138
Veranst@@ 28137
Besuch@@ 28135
Gewicht 28131
Ring 28119
ehörigkeit 28108
ín 28104
thal 28101
edelt 28093
Ret@@ 28091
beginn 28091
Flam@@ 28090
Berech@@ 28089
gestorben 28085
Presse 28082
Bauten 28067
pon@@ 28065
Jar@@ 28064
Diplom 28058
Schick@@ 28058
Joe 28049
diverse 28046
roten 28046
handeln 28045
team 28044
ri 28039
jüngeren 28038
Nahr@@ 28036
lehnung 28033
professor 28030
Modell@@ 28029
Taus@@ 28026
kunden 28018
Bauern@@ 28013
größtenteils 28013
undet 28010
mannschaften 28002
Zahn@@ 27998
Verlus@@ 27997
knü@@ 27991
unterrichtete 27984
ähnlichen 27983
Brown 27982
Luc@@ 27982
Kath@@ 27980
Synagoge 27978
qualifizierte 27973
druck@@ 27972
Wagner 27971
vorsitzender 27959
edlung 27948
ständiger 27946
gearbeitet 27942
gal@@ 27939
triebe 27936
Juan 27932
arti@@ 27932
asser 27930
ée 27929
ungewöhn@@ 27926
Tem@@ 27922
igen@@ 27918
gro@@ 27914
Jer@@ 27911
malen 27908
rats 27905
Edel@@ 27901
Pau@@ 27899
schwarzen 27895
1855 27888
Stock@@ 27883
letzter 27883
asien 27881
Stadtgebiet 27879
Positionen 27874
gefangen 27870
stufe 27870
1857 27866
aufgegeben 27864
Umfang 27858
ausgewiesen 27856
Militär 27851
kommenden 27845
Stationen 27843
Szenen 27840
Erhebung 27837
Bruch@@ 27834
täglich 27834
1854 27827
Grünen 27824
Gemarkung 27823
sechsten 27823
wichtiger 27818
Alpen 27813
Varianten 27811
stum 27809
Feuer 27803
hundert 27801
saal 27798
unterteilt 27798
Albums 27797
dreimal 27791
1830 27789
still@@ 27789
Medaill@@ 27788
andererseits 27786
82 27785
modell 27783
Premiere 27777
Präs@@ 27775
fränk@@ 27767
Besi@@ 27766
Lein@@ 27762
e.V. 27761
Abt 27755
Gegenwart 27754
Bundestag@@ 27751
Autob@@ 27750
Glocken 27749
mittelalter@@ 27749
Männern 27744
extr@@ 27741
Eb@@ 27734
beteil@@ 27733
unterstellt 27730
abhängig 27725
datiert 27724
ansässig@@ 27717
Bundesstraße 27716
Fur@@ 27713
emb@@ 27709
Küsten@@ 27707
Goldmedaille 27704
üf@@ 27699
Gefe@@ 27696
Seitdem 27689
P. 27686
ris@@ 27679
Gat@@ 27678
Geden@@ 27678
Evangelischen 27664
essel 27662
vertrieben 27659
Regeln 27657
tiere 27654
derselben 27651
Inform@@ 27649
ganz@@ 27646
Lös@@ 27645
Series 27634
Schweiz@@ 27632
anger 27632
troph@@ 27632
statisti@@ 27631
Nationalpark 27626
Pian@@ 27619
beider 27618
Sl@@ 27616
gelöst 27613
izier 27613
lieferung 27611
fenster 27598
andt@@ 27592
ble@@ 27591
Virginia 27588
initi@@ 27587
sieger 27575
bemüh@@ 27571
Arnold 27557
Kör@@ 27547
sive 27544
öne 27543
Plänen 27541
HC 27539
po 27538
äher@@ 27536
ī@@ 27535
einerseits 27534
Schmi@@ 27533
Kollegen 27530
anen 27530
01 27529
genehmig@@ 27529
witsch 27529
beein@@ 27523
Herr 27522
ów 27522
öm@@ 27511
Definition 27510
Potsdam 27508
krimin@@ 27508
Kapitän 27505
onne 27505
Kriegsgefang@@ 27497
Eber@@ 27495
Zwar 27495
Gottfried 27490
sky 27488
Blo@@ 27487
inus 27481
Laub@@ 27479
Meyer 27479
Gewich@@ 27478
itzen 27478
tums 27472
hef@@ 27471
ird@@ 27465
Research 27461
Sir 27460
eri 27460
Fass@@ 27456
hängt 27454
Jurist 27447
thaus 27445
Strateg@@ 27442
lem@@ 27440
Bucht 27429
win@@ 27426
ög@@ 27426
leiten 27422
tief 27422
ão 27420
stellvertret@@ 27419
Vik@@ 27418
abgelöst 27415
3000 27413
osa 27400
positiv 27397
mögliche 27391
Einsätzen 27380
European 27377
Innerhalb 27377
Quell@@ 27376
Navy 27375
Kad@@ 27370
1858 27368
geschäf@@ 27367
fuß@@ 27362
Distrik@@ 27347
ani@@ 27344
biet 27342
leutnant 27338
Sho@@ 27331
ahlt 27326
asst 27324
zo 27324
üche 27324
erlebte 27316
Zweiter 27304
Taf@@ 27302
spar@@ 27299
Now@@ 27298
EM 27293
NS@@ 27289
geschäft 27284
1852 27278
Botschaft 27278
Harry 27278
theim 27277
Kammer 27274
Nahrungs@@ 27271
Tschechien 27271
Witwe 27269
ington 27264
Rechn@@ 27257
Handel@@ 27250
Hex@@ 27249
ünd@@ 27247
heimat@@ 27246
Regensburg 27241
maschinen 27240
angez@@ 27235
sene 27235
1803 27232
Eind@@ 27231
umgewandelt 27227
Benutz@@ 27209
aufgel@@ 27199
Art. 27187
etc. 27183
Sold@@ 27182
elek@@ 27180
Telef@@ 27173
Petersburg 27167
fern@@ 27167
Lord 27162
ebäude 27160
walde 27158
derungen 27156
Kön@@ 27154
Schottland 27151
Athen 27145
Typs 27144
Wohng@@ 27141
sang 27138
ffer 27135
Love 27130
Jahrzehnten 27127
François 27126
umpf 27125
ächer 27124
Bundeswehr 27118
aber@@ 27118
fertigte 27118
offenbar 27117
Frucht@@ 27113
Studio@@ 27113
hell@@ 27113
wählte 27100
Dieter 27099
AR@@ 27098
Bahnhof@@ 27098
sichtbar 27094
angs 27093
Bibliothek@@ 27092
bemerk@@ 27092
Luz@@ 27080
fahrten 27077
SSR 27076
Hall@@ 27075
fün@@ 27071
Speich@@ 27064
olz 27064
Publikationen 27063
verlauf@@ 27060
erforderlich 27057
aufgeteilt 27053
gli@@ 27050
Sinn 27047
beschrän@@ 27043
sat@@ 27041
olen 27037
Museums 27032
Trennung 27028
parti@@ 27028
IV 27025
israel@@ 27020
zin 27017
Monuments 27014
loster 27012
ovi@@ 27012
reisen 27009
May@@ 27007
eten@@ 27007
symbol@@ 26999
Rot 26997
Verkauf@@ 26990
Rechtsanwalt 26987
eilt 26985
ix 26981
Bereiche 26980
geändert 26979
g. 26973
Jedoch 26972
Bauer@@ 26965
inst@@ 26962
schön@@ 26960
gründeten 26956
atus 26955
menge 26950
Tunnel 26949
verteidi@@ 26949
benen 26941
maschine 26941
vermutet 26934
Zuvor 26933
dauer 26932
reibung 26929
eich@@ 26928
Florida 26926
alisch 26921
ć 26917
Weih@@ 26904
umgeb@@ 26898
scher@@ 26890
urm 26889
Streitkräfte 26885
öf@@ 26883
Wei@@ 26880
andelt 26878
sorgte 26877
eint 26876
nec@@ 26875
Wäh@@ 26872
spräs@@ 26872
eb 26864
Carolina 26863
verkehrs@@ 26860
stab 26855
bedeutendsten 26847
Mauer@@ 26845
Auftritte 26839
Nas@@ 26839
Earl 26836
Spitzen@@ 26834
Myth@@ 26833
Studenten@@ 26832
Blan@@ 26830
One 26828
Bank@@ 26821
Cu@@ 26814
pul@@ 26814
älter 26814
ffs 26813
vention 26810
ny@@ 26806
ori 26805
Sym@@ 26804
Sex@@ 26794
9,@@ 26786
Dokumentar@@ 26785
Deshalb 26783
amerikan@@ 26783
maßgeblich 26781
É@@ 26780
ikal@@ 26779
redu@@ 26778
tin@@ 26769
kilometer 26761
Championship 26759
Dynastie 26757
Innsbruck 26755
enkt 26752
ics 26749
polnische 26749
zeitschrift 26745
ail 26741
ungstr@@ 26740
Mund@@ 26739
Dim@@ 26736
Fels@@ 26735
Uhr@@ 26722
oma 26717
Konflikt 26714
integriert 26714
sinn@@ 26714
Träger 26711
DVD 26703
wichtigste 26695
Kinos 26689
materi@@ 26689
Tempel@@ 26683
fin 26681
pot@@ 26680
konkre@@ 26677
Neu 26671
gerufen 26671
athlon 26670
ä 26669
White 26658
syn@@ 26652
gehende 26651
plätzen 26650
Inneren 26647
bir@@ 26647
akon@@ 26644
Ausgaben 26637
frau 26634
schlus@@ 26634
Systeme 26625
Aufsichts@@ 26623
Gil@@ 26622
gekehrt 26621
Neuseeland 26620
Schwierigkeiten 26617
Tageb@@ 26617
sieb@@ 26617
öffnet 26617
wollten 26613
ico 26611
kum 26611
onischen 26610
spunkt 26610
aku@@ 26607
par 26604
Sprecher 26597
wich@@ 26595
Karte 26590
kurrenten 26590
con@@ 26587
vorhandenen 26585
aceae 26570
Schneider 26565
Wider@@ 26564
Leipziger 26558
stalt 26553
reib@@ 26550
Ernennung 26548
Erscheinung 26547
anien 26531
azität 26529
Mittler@@ 26518
Persön@@ 26518
owa 26518
Resid@@ 26517
entspringt 26517
Armen@@ 26515
Samuel 26513
Demonstr@@ 26512
niem@@ 26509
betriebe 26507
bundes@@ 26498
ergeben 26496
Dirig@@ 26494
Schloss@@ 26487
beiten 26481
Adels@@ 26477
enstr@@ 26475
Arme@@ 26471
alteten 26471
ikon 26471
Versionen 26470
ake 26460
Western 26459
eingebaut 26454
Eigentümer 26453
Marin@@ 26452
Schauspi@@ 26452
Park@@ 26450
deutet 26448
stör@@ 26445
alitäts@@ 26442
Abend@@ 26441
Beitrag 26440
Transport 26440
Wissen 26440
rön@@ 26439
zusamm@@ 26435
Pet@@ 26432
Lokom@@ 26431
1845 26427
zeugt 26419
gegebenen 26413
Insel@@ 26412
Landkreises 26412
direkte 26412
licht@@ 26408
Lev@@ 26405
iehen 26402
sig 26398
indischen 26397
inszen@@ 26395
einger@@ 26392
verme@@ 26389
ava 26388
Argentinien 26380
put@@ 26373
sofern 26373
Zwer@@ 26368
Jacques 26360
Män@@ 26359
ameister@@ 26359
geld 26359
Akti@@ 26358
Jus@@ 26353
Sou@@ 26346
Ten@@ 26342
Exempl@@ 26337
Wales 26328
1818 26325
Original 26319
rand 26315
Analyse 26306
nien 26305
Din@@ 26300
ässig@@ 26296
haupt@@ 26295
uv@@ 26295
gefördert 26294
estell@@ 26293
glieder@@ 26290
mischen 26289
Rechtswissenschaften 26286
tun 26283
Disk@@ 26275
sichten 26274
su 26270
lein 26265
reduziert 26259
Felix 26248
erfolgen 26247
ania 26242
direkten 26237
Mittelpunkt 26235
St.-@@ 26225
menschlichen 26225
scheiden 26225
schiede 26221
Ehemann 26220
ührung 26219
gers 26217
west 26211
bistum 26206
außerord@@ 26205
Urkunde 26199
Änderungen 26197
differ@@ 26192
sterben 26189
rekt 26188
Abend 26186
Regen@@ 26181
iv 26177
sul@@ 26169
ihen 26166
gri@@ 26153
alisierte 26151
Scott 26150
brenn@@ 26149
Studiums 26148
rumän@@ 26144
kanz@@ 26141
ereien 26140
Geschwindigkeit 26137
Mauer 26133
atin 26133
Anne 26126
eigentlichen 26125
geschütz@@ 26121
besitzer 26117
Pu@@ 26111
einde@@ 26109
engesch@@ 26098
wei@@ 26098
zten 26095
Oze@@ 26091
klar@@ 26088
Mem@@ 26085
verbli@@ 26084
fangen 26082
03 26079
änen 26078
Hot@@ 26076
leun@@ 26072
1851 26069
kündigte 26069
ank@@ 26063
unbe@@ 26062
kritisiert 26049
ammer 26048
ßer 26047
Vorsitzende 26045
ägyp@@ 26042
tnissen 26040
erstr@@ 26038
Komposition 26036
Kh@@ 26035
Herz 26031
endi@@ 26024
stag@@ 26024
Befrei@@ 26023
ʿ@@ 26010
engagiert 26008
bedient 26007
uld 26006
werks@@ 26001
ikations@@ 25993
Kathedrale 25990
cker 25988
owo 25984
Tabellen@@ 25972
bezüglich 25968
Nachrich@@ 25961
ähren 25953
ă@@ 25953
ucht@@ 25951
Versicher@@ 25946
abr@@ 25944
kürz@@ 25938
sohn 25935
gs@@ 25932
Horst 25928
Sonne 25927
Kolonial@@ 25925
Heer 25922
verbindungen 25922
Hügel 25920
izen 25917
Jacob 25913
äum@@ 25907
dist@@ 25906
ian 25905
eingetragen 25902
män@@ 25892
grafen 25890
Bis@@ 25888
Massachusetts 25880
besucht 25878
Einsätze 25877
kurzer 25877
sender 25877
philosoph@@ 25876
Ersatz@@ 25872
auspi@@ 25869
stattfand 25867
sburger 25866
silber@@ 25862
äß 25859
fried@@ 25856
euch@@ 25852
Autobahn 25851
Siedlungen 25839
elegt 25835
frei@@ 25832
Angeb@@ 25831
rang@@ 25831
gefertigt 25827
Verk@@ 25826
tic@@ 25823
AD@@ 25818
ms@@ 25817
enswert 25815
Schritt 25805
aar 25801
zugunsten 25796
Reh@@ 25791
kerung 25791
Kaufmann 25783
verpasste 25781
Gitarre 25779
hardt 25778
1813 25773
ehren 25770
verbände 25770
gle@@ 25766
beobach@@ 25763
out 25763
dat@@ 25761
syst@@ 25756
Veranstaltung 25755
Bergen 25753
Einsch@@ 25752
mati@@ 25747
Giovanni 25742
voneinander 25741
Lehrstuhl 25738
änom@@ 25737
Onkel 25733
ito 25733
starben 25730
bedeutenden 25728
digten 25728
mont 25725
europa 25724
bte 25719
kämpfte 25718
Katharina 25716
1847 25709
Provinzen 25705
lanze 25705
australischen 25704
Marburg 25700
Erstmals 25697
völ@@ 25676
Existenz 25675
enfalls 25673
Begriffsklärung 25665
brand@@ 25665
autor@@ 25662
sonsten 25661
Ken@@ 25660
berichtete 25651
möchte 25651
khe@@ 25647
Österreichischen 25645
kunst@@ 25644
Central 25641
artig 25641
sü@@ 25640
historiques 25637
Pennsylvania 25632
Castle 25631
pak@@ 25631
Spir@@ 25626
persönlichen 25621
ades 25618
geordnet 25618
Erfahr@@ 25614
alli@@ 25607
finanziellen 25606
Dun@@ 25605
nennen 25604
geschaff@@ 25603
höhe 25601
Vizeme@@ 25598
gerät 25597
IS@@ 25596
Jose@@ 25591
Klu@@ 25590
heimischen 25590
L. 25589
iments 25585
Versorgung 25580
Nordamerika 25578
zugelassen 25574
Army 25570
Rang@@ 25568
trenn@@ 25566
genutz@@ 25562
versich@@ 25560
verlief 25558
Mör@@ 25556
verwendeten 25552
Angestell@@ 25550
Wiederauf@@ 25547
pädagog@@ 25547
test@@ 25544
Frequ@@ 25543
regionale 25542
gesund@@ 25539
nom@@ 25539
freier 25535
fru@@ 25532
Französischen 25526
nehm@@ 25525
schreib@@ 25521
1816 25519
hierfür 25516
Dietrich 25513
modern@@ 25511
verstanden 25504
Trier 25503
Pok@@ 25493
Budapest 25491
Symp@@ 25491
weiße 25491
steigt 25487
Auswirkungen 25482
japanische 25482
Schö@@ 25480
verantwor@@ 25476
Instrument 25474
Hauptort 25473
Rosen@@ 25473
einfache 25466
bergischen 25465
1846 25464
Bist@@ 25457
rechteck@@ 25453
Fürsten 25450
nochmals 25448
Einwohner@@ 25447
Doktor@@ 25446
englisch 25443
Ortsteile 25442
dienste 25438
imb@@ 25433
fähig 25431
Verdienste 25428
Gymnasi@@ 25422
nik 25422
anschließenden 25421
griff 25418
Transport@@ 25409
bürgermeister 25405
umfangreiche 25405
Anders 25403
Aug@@ 25402
1853 25400
therap@@ 25394
Bill 25389
Innenstadt 25382
Reihen@@ 25381
äche 25378
gehe@@ 25377
sprachen 25377
char@@ 25375
Zwisch@@ 25372
zar@@ 25372
Korps 25370
enzug 25365
Tisch@@ 25357
gesellschaften 25355
stuf@@ 25349
ring 25345
daz@@ 25343
Spielern 25342
aka 25333
idae 25330
begren@@ 25326
zwan@@ 25323
Verlust 25322
Flugzeug 25320
Vorsitzenden 25319
Treffer 25311
fo@@ 25311
peri@@ 25310
äußeren 25309
Philosoph@@ 25308
kos@@ 25306
küh@@ 25300
Produzent 25298
110 25297
Ausbruch 25297
ausgewählt 25297
englischer 25294
Cos@@ 25292
als@@ 25291
Damen 25290
cker@@ 25286
Zell@@ 25279
rad 25278
acker 25271
sis 25271
etti 25265
Flusses 25259
Aufmerksamkeit 25258
leistete 25257
kanal 25254
zell@@ 25253
ichts@@ 25248
T. 25240
EP 25239
geograph@@ 25237
othek@@ 25236
Erschein@@ 25225
RA@@ 25221
Kardinal 25217
Dag@@ 25216
nunmehr 25215
filme 25210
Verbre@@ 25203
gebildeten 25202
vermittel@@ 25191
werten 25190
büh@@ 25182
ermordet 25182
ild 25180
Blas@@ 25179
Toren 25175
vorüber@@ 25174
Kub@@ 25173
etr@@ 25171
ikation 25171
Fär@@ 25170
sur@@ 25165
einrichtungen 25164
Berge 25154
trom@@ 25150
ieur@@ 25146
Gang@@ 25144
kleines 25139
entdeckte 25138
IN@@ 25135
gebirge 25134
lieferte 25132
uchs@@ 25129
Zerstörung 25126
Automobil@@ 25121
don 25119
unser@@ 25116
Ry@@ 25114
evangelisch 25112
rah@@ 25110
wirtschaft@@ 25105
NR@@ 25093
Span@@ 25092
zwischen@@ 25088
sun@@ 25085
Ämter 25085
Cro@@ 25082
Leo 25081
bul@@ 25075
Ausgrab@@ 25070
Führer 25070
Mut@@ 25070
tierung 25070
wesenheit 25066
æ@@ 25063
Ministerium 25062
ößen 25058
ę@@ 25057
Doppel 25055
Jugoslaw@@ 25055
natürlichen 25054
bat@@ 25051
alar@@ 25041
angesi@@ 25039
registri@@ 25035
steinen 25029
Stür@@ 25028
eder 25028
Wid@@ 25027
fs@@ 25025
mär@@ 25024
iga 25023
afel 25022
Kritiken 25018
ota 25017
FDP 25016
St 25008
komman@@ 25007
mutter 25001
antwor@@ 24997
lenden 24990
ays 24989
netz@@ 24987
Gebrauch 24986
Stadtrat 24980
Vas@@ 24976
anken 24966
elem@@ 24958
Hallen@@ 24952
üblichen 24950
Greif@@ 24947
Kapitel 24946
verfolgt 24946
mäh@@ 24939
Produk@@ 24932
Cou@@ 24931
Kleinst@@ 24930
ec 24924
usw. 24924
ächlich 24924
zeln 24923
Sekretär 24921
Strukturen 24921
Aur@@ 24919
themati@@ 24917
Dsch@@ 24915
ergab 24915
tha 24915
Aktion 24913
abschnitt 24912
becken 24912
jap@@ 24912
Bind@@ 24910
beeinflus@@ 24901
troffenen 24899
Verte@@ 24898
š 24898
erstellt 24897
gebiets 24892
ennamen 24891
ämme 24890
äuse 24884
Kär@@ 24883
angesch@@ 24882
Getre@@ 24877
Zeitschriften 24877
grundsätzlich 24873
Jac@@ 24872
Geist 24867
Nat@@ 24867
Linz 24864
km@@ 24863
Pflanz@@ 24862
ollen 24860
lossene 24859
São 24857
Roth@@ 24853
Europäische 24849
einfluss@@ 24836
under 24833
möglichkeiten 24830
Spielzeiten 24829
Prüf@@ 24828
ungarischen 24828
unds 24827
Bronz@@ 24825
besiedelt 24817
sau@@ 24814
Weil 24813
Johnson 24812
rüstung 24804
Haltung 24795
Hur@@ 24795
hart 24787
Kommunikation 24775
Entwickl@@ 24768
Victoria 24766
bronn 24766
Fro@@ 24764
geplanten 24764
Karten 24757
trugen 24756
achse 24746
chester 24741
omen 24741
graph@@ 24738
Flach@@ 24733
grenzen 24732
zweites 24730
zustän@@ 24728
graf 24726
Umwelt 24725
östliche 24725
skri@@ 24717
sämtliche 24716
anisch 24712
beginnen 24712
Bruno 24710
mt@@ 24709
gan@@ 24700
wör@@ 24695
vo@@ 24694
kup@@ 24692
tain@@ 24691
Wiederaufbau 24689
ý 24683
restlichen 24677
bestim@@ 24673
oy@@ 24671
iki 24666
André 24660
förmigen 24660
Deck@@ 24657
ausgeb@@ 24655
zeichnungen 24654
Teuf@@ 24652
reformi@@ 24651
Ideen 24634
alog 24633
voraus@@ 24633
ares 24630
endor@@ 24630
verbr@@ 24627
wächst 24626
Blätter 24625
klein 24624
bezieh@@ 24618
ikum 24618
lösen 24617
Äl@@ 24615
itung 24613
aupt@@ 24610
Vieh@@ 24609
Endr@@ 24608
geschickt 24607
politi@@ 24605
Himm@@ 24601
eröff@@ 24596
Buchstaben 24590
Gestalt 24586
angen@@ 24585
nütz@@ 24585
Front@@ 24584
SE@@ 24582
ättern 24581
Schluss 24580
oppelt 24574
yd@@ 24574
etta 24571
Staatsan@@ 24566
natür@@ 24565
Chir@@ 24564
güter 24564
Jüd@@ 24560
entieren 24559
Finnland 24555
fassten 24552
Moritz 24549
Ortste@@ 24549
igungen 24549
Bekannt 24548
Flieg@@ 24545
durchsetzen 24542
Drehbuch@@ 24541
Charlotte 24530
Umfeld 24528
Stor@@ 24522
Häusern 24516
Schüler@@ 24514
ütz 24511
Lebensraum 24510
aly@@ 24507
Pazif@@ 24503
Istanbul 24501
Weimar 24493
dicht 24490
häl@@ 24488
Maj@@ 24487
gn@@ 24484
müh@@ 24480
angeordnet 24479
Song@@ 24474
ehör@@ 24473
herren 24471
Abstieg 24470
Warschau 24470
dy 24468
Reisen 24462
nen@@ 24462
zeichnis 24457
systemati@@ 24456
Personal@@ 24455
Hay@@ 24452
unterbrochen 24450
dens@@ 24449
Röm@@ 24447
Kompan@@ 24444
dunkel@@ 24444
Wester@@ 24437
wag@@ 24436
stammten 24428
Patri@@ 24427
bewusst 24424
ützen 24422
Fut@@ 24419
Flagge 24414
hinein 24412
ungsver@@ 24402
Ford 24401
ferner 24395
Damp@@ 24389
Fenster@@ 24386
02 24383
handlungen 24383
Erfurt 24382
Weber 24370
Räume 24365
kein@@ 24363
ektive 24362
Ox@@ 24346
rang 24341
1814 24338
otte 24334
Cob@@ 24327
Oberst 24327
Kateg@@ 24323
Königsberg 24313
anf@@ 24313
Young 24310
ufer 24308
Verleihung 24306
enger 24306
Archi@@ 24304
bestehend 24302
ländern 24302
nationalmannschaft 24300
Schen@@ 24298
Vorrunde 24296
Moh@@ 24294
Dienste 24291
Highway 24290
pflege 24284
gewäh@@ 24283
Apostol@@ 24279
izier@@ 24271
basis 24270
Bühnen@@ 24259
defin@@ 24256
Kooperation 24255
karten 24253
fehlen 24250
Line 24249
macher 24245
meer 24235
Tiefe 24233
langsam 24231
kamp@@ 24225
gewiesen 24224
durchschnittlich 24222
mex@@ 24221
sierung 24221
keiner 24219
mang@@ 24217
Rücken 24207
Philipp@@ 24201
Gefähr@@ 24200
Tam@@ 24197
Kit@@ 24196
ockey 24195
Hafen@@ 24191
Phot@@ 24191
Sprint 24190
Ž@@ 24187
Höl@@ 24186
elbe 24186
Befeh@@ 24182
Seni@@ 24181
agogik 24180
30@@ 24176
arisch 24176
Umw@@ 24174
Konzert 24173
Sturm 24164
renovi@@ 24162
klin@@ 24157
Berater 24155
Weltmeister@@ 24153
Zweite 24150
holen 24149
interpre@@ 24146
Ausführung 24145
AT@@ 24144
erzeugt 24143
Chrom@@ 24141
Geschichten 24140
beauftragt 24138
herausgegeben 24135
tan 24132
Verordnung 24127
Betrieb@@ 24116
Aussagen 24108
ermöglichte 24108
Darstellungen 24106
Roc@@ 24098
Jerusalem 24097
herausrag@@ 24097
Schar@@ 24091
klassigen 24087
Quart@@ 24086
Meer@@ 24085
mun@@ 24081
folg 24080
Cy@@ 24076
Rettungs@@ 24076
Mike 24075
dauerte 24075
seiten 24074
treib@@ 24069
aud 24064
Bundes 24060
Einzugsgebiet 24060
gien 24060
Architektur@@ 24059
prü@@ 24059
CA@@ 24058
ruh@@ 24050
Schwein@@ 24049
Tschechoslowakei 24048
angem@@ 24048
eschossig@@ 24046
Bere@@ 24039
kers 24039
verwenden 24035
quelle 24034
Wohnh@@ 24029
ritt 24028
Liter 24026
iro 24016
ardt 24008
Falle 24004
ikanische 24002
dürfte 23994
Urteil 23993
chron@@ 23990
zukünf@@ 23990
Schmal@@ 23983
Treffen 23983
abgelehnt 23981
Gebäu@@ 23978
able 23975
vielfäl@@ 23973
ministeriums 23972
Preise 23970
Schlagzeug@@ 23968
Schwestern 23963
äus 23958
Ohio 23955
Rud@@ 23955
Fahrt 23949
finanzi@@ 23949
aster 23946
mente 23946
utig 23945
Sicher@@ 23944
jem@@ 23944
Christen 23942
kerin 23937
omb@@ 23936
zeichnung 23935
Beste 23934
frü@@ 23934
Aktu@@ 23927
betä@@ 23925
Rohr@@ 23914
Davis 23913
orin 23912
bekleidete 23911
Befehl 23909
Schäden 23909
dik@@ 23907
Motoren 23901
post@@ 23899
sorg@@ 23898
Christus 23896
Dal@@ 23894
umgesetzt 23892
Einstellung 23891
füllt 23891
Fortsch@@ 23890
gestaltete 23890
Namens 23887
gezwungen 23880
Symb@@ 23878
meisterschaften 23861
lia 23860
RE@@ 23858
ausgestellt 23851
Fertigstellung 23850
Debüt@@ 23845
meisters 23842
meter 23841
Sonstiges 23834
Da@@ 23832
Erklärung 23832
Ball 23826
überrasch@@ 23823
angeblich 23820
engel@@ 23820
sar 23818
Gab@@ 23816
umstritten 23816
Luxemburg 23814
gie@@ 23812
egen@@ 23811
kandi@@ 23808
teur 23808
windig@@ 23807
s. 23806
tex@@ 23805
Großherzog@@ 23803
funktion 23803
Anlass 23800
Anforderungen 23798
Ruh@@ 23797
ova 23795
DM 23794
Rou@@ 23793
schnell@@ 23787
weisung 23787
besi@@ 23785
Latein@@ 23784
Kür@@ 23780
Kot@@ 23777
spezielle 23777
Michel 23772
richten 23769
gefe@@ 23760
ruc@@ 23760
römische 23758
vermehr@@ 23757
Ingenieur 23756
pri@@ 23754
esien 23749
marsch 23748
Künstlern 23745
laufenden 23743
Nam@@ 23742
Pav@@ 23741
Lob@@ 23738
durchschnittliche 23736
Basketball 23734
geringe 23732
Hi@@ 23727
beschränkt 23724
feind@@ 23717
hebung 23715
Schlos@@ 23703
ort@@ 23703
stan@@ 23702
testen 23700
Auseinandersetzungen 23695
äußerte 23687
eckten 23686
wies@@ 23686
verteidiger 23685
bester 23681
Wohnhaus 23680
abschloss 23679
Green 23673
aufnahme 23672
komit@@ 23670
lichsten 23668
helfen 23651
meistens 23644
inas 23634
urger 23634
Landgericht 23628
Hans@@ 23624
Bag@@ 23623
stige 23622
braun@@ 23610
Dom 23605
spielerin 23603
inc@@ 23602
Sammel@@ 23601
Maximilian 23598
kommis@@ 23597
diplom@@ 23594
Kräfte 23591
Heid@@ 23590
Blum@@ 23589
1843 23588
Manager 23584
lieder@@ 23584
woraufhin 23584
getroffen 23583
olle 23580
formation 23579
Games 23571
emati@@ 23570
Marx 23569
3,5 23567
Bein@@ 23567
gl. 23567
uern 23566
berücksichtigt 23556
religiösen 23556
Sitze 23552
bildungs@@ 23551
vieler 23550
voller 23545
Energie@@ 23544
First 23544
geführten 23542
ungser@@ 23540
Engel@@ 23539
1844 23536
entstandenen 23536
systems 23529
ativ@@ 23528
Weißen 23527
darstellen 23520
Dreißigjährigen 23518
etti@@ 23518
Zimmer@@ 23517
forscher 23516
Real@@ 23510
ula 23509
Pop 23505
feuch@@ 23504
Legende 23501
Österreichs 23501
mitten 23497
Fürst 23493
Stam@@ 23493
schottischen 23489
begründete 23487
aro 23486
gefärbt 23486
Gewässer@@ 23482
Code 23481
utes 23480
befür@@ 23469
Jesu 23468
kampf@@ 23467
einzel@@ 23460
erfolgreiche 23455
eton 23450
engl@@ 23449
Arm@@ 23448
quadrati@@ 23448
ado 23445
Chile 23442
Fusion 23435
ländischer 23430
maß 23428
ram@@ 23427
Auseinandersetzung 23418
red@@ 23418
zusammengefasst 23414
westlicher 23405
Horn@@ 23404
itag 23404
ax 23403
veranl@@ 23402
Gü@@ 23394
erhältlich 23391
ij@@ 23390
Sektion 23388
eim@@ 23382
Studios 23381
SK 23379
decken 23378
$ 23377
militär@@ 23377
Af@@ 23374
rien 23365
klus 23364
phil@@ 23364
Kolum@@ 23363
iff 23360
blau 23359
Spuren 23356
glich 23356
ila 23355
demokratischen 23353
sin 23351
Bezeich@@ 23348
leten 23342
1832 23337
Dé@@ 23334
utzt 23331
afe 23327
antiken 23324
Kriminal@@ 23322
att 23322
borg 23322
Stockholm 23321
zeigten 23320
1835 23309
Abtei 23304
afrika 23302
freiheit 23296
Thor@@ 23295
erkennbar 23291
Hüt@@ 23288
aufmerksam 23285
verkör@@ 23285
Jüng@@ 23283
Galerie 23282
fragt 23282
Henn@@ 23275
rechtlichen 23272
verstorbenen 23268
eigentliche 23265
Hey@@ 23263
derer 23263
kov@@ 23263
1842 23253
Alli@@ 23251
öfen 23245
betreff@@ 23241
trollen 23241
Tax@@ 23236
Gesundheit 23234
Champions 23233
Denkm@@ 23224
klassen 23224
elektrische 23219
historisch 23213
Jahrzehnte 23210
SS@@ 23204
Luk@@ 23198
Franken@@ 23197
enr@@ 23197
Blue 23195
Council 23195
Zir@@ 23195
Mitbegrün@@ 23192
Verbreitungsgebiet 23191
Dresdner 23188
kad@@ 23188
teilten 23180
lende 23179
Herrscher 23178
Jesus 23177
Brüssel 23175
Äu@@ 23172
Renaissance 23170
befre@@ 23169
misch 23167
welchem 23160
mitgli@@ 23159
eral 23158
Leich@@ 23152
Beb@@ 23149
Gebr@@ 23147
Hat@@ 23144
niers 23143
Cel@@ 23141
Heeres@@ 23140
sah@@ 23140
strecken 23137
ösen 23137
Betriebe 23136
Francis 23135
plat@@ 23134
alom 23131
Roll@@ 23128
Stoff@@ 23123
thin 23123
Eish@@ 23122
aya 23122
ecken@@ 23118
Mart@@ 23114
ere@@ 23110
zwei@@ 23103
anda 23101
Nich@@ 23100
Y 23093
Meistertitel 23091
Top@@ 23088
Dafür 23087
eingeschrän@@ 23086
gemeinden 23086
provin@@ 23085
Gedichte 23078
allgemeine 23076
Lün@@ 23065
erhaltenen 23057
án 23057
vermut@@ 23055
Reserve 23045
spanische 23042
4.@@ 23039
Life 23039
ologischer 23038
Boote 23037
Parlam@@ 23033
yc@@ 23032
aria 23031
Seit@@ 23030
Victor 23030
farb@@ 23028
IC@@ 23027
VI. 23026
Hül@@ 23024
Stau@@ 23021
Insek@@ 23009
Them@@ 23006
Professur 23005
Turm@@ 23005
aktuelle 23005
farben 23005
oper 23004
zuges@@ 23003
polizei 23002
ieden 23001
Halt@@ 22999
versuchen 22995
entgegen 22993
Klavier 22990
beginn@@ 22990
wald@@ 22983
öck@@ 22981
Prüfung 22973
Seen 22960
ence 22959
näher 22951
besetzten 22950
geeignet 22948
Klassen 22946
ausgeschlossen 22941
well 22938
qualifiziert 22936
Ursache 22933
eke 22929
Ziegel@@ 22927
hochschule 22917
Produktionen 22912
Kass@@ 22908
# 22907
gekennzeichnet 22906
enau 22901
neter 22899
kurzzeitig 22898
ests 22895
tenburg 22895
Serien@@ 22892
provis@@ 22889
zentrums 22887
äure 22887
hom@@ 22885
Oblast 22876
Scher@@ 22876
Folgende 22874
Aqu@@ 22872
weibliche 22870
alts@@ 22867
ifer 22867
Kopenhagen 22866
Rath@@ 22865
Schien@@ 22865
Portu@@ 22862
1837 22861
Liefer@@ 22860
cho@@ 22860
dis 22860
Skl@@ 22859
beut@@ 22859
aufgehoben 22857
scheinen 22857
festgestellt 22855
Tages 22854
südliche 22852
Krankhe@@ 22849
Kino 22848
Generalmajor 22843
komplex 22841
kriegs@@ 22840
agi@@ 22839
Lex@@ 22837
ruf 22834
Amerikaner 22831
Demokratischen 22828
ession 22826
ertes 22824
ref 22821
gleicher 22814
qualifiz@@ 22808
bleib@@ 22807
ners 22804
Stimm@@ 22802
Committee 22801
Keller 22798
teste 22797
Koll@@ 22796
Multi@@ 22796
sey 22794
Carlos 22791
Stunde 22791
Pic@@ 22780
mi 22779
Befes@@ 22778
gebor@@ 22776
stieß 22772
üste 22772
kund@@ 22769
Koch 22760
Sowohl 22757
verläng@@ 22756
ony@@ 22751
Grundschule 22750
Geographische 22748
lierten 22745
Durchbruch 22744
Hauptr@@ 22743
Briten 22741
riterien 22741
ox@@ 22739
diversen 22733
Henri 22727
sichts@@ 22724
Folgezeit 22720
” 22718
Bass 22716
Ostr@@ 22714
Roger 22712
Bob 22697
tro 22687
ektiv 22686
Wort@@ 22683
Sicht@@ 22681
bers 22678
ständ@@ 22677
ZDF 22673
Erfolg@@ 22670
erschienenen 22670
ult@@ 22670
sons 22666
Ket@@ 22663
stoffen 22655
geschützt 22653
sammelte 22653
qualifizierten 22652
wan 22651
attung 22648
Träger@@ 22647
ichs 22647
Gang 22644
ws 22638
5000 22637
Grundstück 22632
er- 22630
Punkt@@ 22629
Ostpreußen 22624
Erbe 22623
festen 22619
erbaute 22618
Runden 22617
schwarze 22617
kä@@ 22616
tragenen 22616
Formation 22615
lü@@ 22613
endgül@@ 22606
Blues 22604
bergen 22602
mau@@ 22593
isol@@ 22591
berechtigt 22588
Infan@@ 22584
kulturellen 22580
natürliche 22575
pore 22575
sieg@@ 22569
lokale 22566
Genf 22564
sicherheit 22563
siedelte 22562
Kus@@ 22561
gelö@@ 22558
musikalische 22553
darauffolgenden 22548
Sit@@ 22547
ves 22545
behielt 22543
Kantons 22541
musikalischen 22539
California 22537
Rektor 22537
rich 22536
Bier@@ 22534
Institutionen 22527
wirks@@ 22526
Oxford 22525
Schnitt@@ 22521
ämpfung 22521
Thür@@ 22509
Ind@@ 22504
lebende 22503
Dram@@ 22502
Guts@@ 22502
durchaus 22496
Kredit@@ 22494
Atom@@ 22490
aki 22486
Bev@@ 22485
Prak@@ 22483
any 22481
Pak@@ 22480
schmi@@ 22476
KG 22473
räumen 22471
Brunnen 22470
Patrick 22470
fehlt 22466
Illinois 22464
cken 22464
diges 22464
Christi 22460
ew 22457
inspir@@ 22457
eu 22455
Trom@@ 22453
Bester 22449
Veget@@ 22443
weltmeisterschaften 22443
auftreten 22438
Fabrik 22437
vil@@ 22437
Schülern 22436
1810 22432
Bulg@@ 22431
Ben 22426
Lands@@ 22426
Merk@@ 22425
berge 22425
enthielt 22423
trock@@ 22423
Fortsetzung 22421
asch@@ 22421
ecker 22421
Toronto 22417
ühle 22417
Nu@@ 22415
entstand@@ 22413
ausgesch@@ 22396
äpst@@ 22393
By@@ 22391
unkte 22391
fördern 22390
kontinuier@@ 22389
Brigade 22387
Präfektur 22384
längere 22379
schar@@ 22379
fertig@@ 22377
ate@@ 22363
Hed@@ 22358
Größ@@ 22352
Zweitligisten 22351
abgeleitet 22349
vis@@ 22344
Turnier@@ 22339
brand 22339
rief 22339
Serien 22338
Öffent@@ 22338
bedeckt 22337
1838 22334
Fos@@ 22331
Alber@@ 22330
Nacht@@ 22330
1841 22326
gerichts 22326
Wende 22321
900 22317
ören 22313
Freiherr 22312
Glauben 22310
Heilig@@ 22309
Cour@@ 22305
Diözese 22304
Maz@@ 22303
Schütz@@ 22299
hinten 22299
Rose 22287
königlichen 22287
Spiegel 22286
alp@@ 22286
gegenüber@@ 22285
gesamm@@ 22285
Archiv@@ 22279
Hinzu 22278
temper@@ 22278
Kritiker 22276
innere 22276
Arti@@ 22274
opp@@ 22274
Belagerung 22272
Lager@@ 22271
ört@@ 22269
beinhaltet 22268
ebel@@ 22268
disku@@ 22267
tos 22267
Iran 22262
rückte 22262
gewidmet 22253
endem 22250
abgebrochen 22247
auptstadt 22247
Om@@ 22246
Centre 22245
Sydney 22245
sweise 22245
Zusammensetzung 22243
rik 22238
ë@@ 22237
entscheiden 22230
motoren 22223
Oberst@@ 22222
Fach 22217
imen 22217
daneben 22209
Braun@@ 22204
1839 22203
grub@@ 22202
ätte 22198
Volksschule 22197
Volksrepublik 22196
verlieh 22196
Versuche 22195
ret 22192
agr@@ 22189
Baum 22187
ährig 22185
Kali@@ 22184
akzep@@ 22184
filmen 22184
Wupper@@ 22183
sätzen 22183
Zellen 22181
äußerst 22180
ymnasium 22172
informi@@ 22166
Akadem@@ 22165
albahn 22160
Günther 22159
stiegen 22158
bundes 22156
ordnen 22154
ziti@@ 22150
beziehen 22148
Eroberung 22147
älz@@ 22145
aga 22141
Alter@@ 22134
Riv@@ 22133
Repar@@ 22132
Kolonie 22128
instrum@@ 22124
geringer 22123
lecht 22123
Naturschutz@@ 22115
Was 22112
bürger 22111
erfährt 22110
lierung 22110
rasch 22110
ations 22108
Alt 22107
norwegischen 22106
Reform@@ 22105
these 22105
Infek@@ 22103
Provinz@@ 22103
illy 22103
lied 22103
Franken 22098
Town 22098
künstler@@ 22096
Road 22084
tigungs@@ 22083
Wind 22079
Arena 22073
telfinale 22073
endeten 22070
Fron@@ 22066
gleichnam@@ 22065
Lis@@ 22063
Unterstütz@@ 22062
Galax@@ 22059
Ihm 22059
Erinnerung 22057
künstlerische 22054
Zeitungen 22053
oty@@ 22049
zugehör@@ 22048
Point 22046
Rep@@ 22044
Prom@@ 22042
einf@@ 22040
geisti@@ 22035
Pandemie 22033
manchen 22033
vorbereit@@ 22021
Wir 22020
oli 22018
erzielt 22017
seiner@@ 22017
dah@@ 22014
Manfred 22011
fikation 22008
Haft 22007
Geburtstag 22005
Kau@@ 22001
förmige 21993
laden 21992
staat 21992
Spä@@ 21989
Unterscheid@@ 21988
enden@@ 21983
Corporation 21979
Ortsname 21979
apel 21970
bisher@@ 21970
Gelehr@@ 21969
behin@@ 21969
1808 21968
Stütz@@ 21964
UEFA 21964
ief 21963
16@@ 21961
Jura 21960
zahlreich@@ 21959
produktionen 21958
High@@ 21952
fristig 21950
Computer 21949
Rin@@ 21949
katholischer 21949
nördliche 21948
Hell@@ 21941
legten 21941
Erne@@ 21940
Ehrungen 21934
lös@@ 21934
phäre 21933
Streit@@ 21923
gefährdet 21923
immer@@ 21910
1836 21908
begeg@@ 21905
offizi@@ 21905
Abstammung 21904
zeitlichen 21903
Gebäuden 21894
abschluss 21893
Allgemein@@ 21892
Betrach@@ 21891
Neum@@ 21881
fährt 21876
Partie 21872
gebir@@ 21871
stoß 21871
Französisch 21865
esischer 21864
Brau@@ 21855
last@@ 21852
olymp@@ 21851
Flugzeuge 21849
ausgedeh@@ 21849
Plattform 21843
Peking 21840
flu@@ 21836
vorgenommen 21836
ieur 21833
kulturelle 21833
eto 21832
beherrsch@@ 21830
1834 21827
beteiligten 21823
geplante 21821
Einzug 21819
Verbindungs@@ 21819
Git@@ 21814
uck 21813
vä@@ 21813
individu@@ 21812
irat@@ 21809
sinn 21809
Portr@@ 21805
Preußischen 21805
Spreng@@ 21803
Zusammenschluss 21799
D.C. 21794
Konkurrenz 21790
aker 21789
ebung 21789
Rest@@ 21788
Philadelphia 21785
London@@ 21783
Alex@@ 21780
Komödie 21772
Geschlecht 21765
Chris 21764
Stab@@ 21764
ährt 21763
itsch 21760
Vorbereitung 21756
ässt 21752
runden 21750
gelb 21748
Kavaller@@ 21747
mittlung 21747
USD 21744
Kontakte 21742
diszipl@@ 21741
Schlosses 21740
mauern 21735
Vorles@@ 21727
1821 21725
ehmig@@ 21725
Säulen 21723
Rub@@ 21722
tritten 21719
Verbesserung 21714
zustand 21713
Interess@@ 21708
Sieb@@ 21704
Ausschuss 21703
befasste 21701
igungs@@ 21700
plötz@@ 21699
behör@@ 21695
Nachrichten 21694
Parks 21694
Stephan 21692
stadt@@ 21689
gelingt 21687
gelände 21685
Gh@@ 21684
ision 21684
praktisch 21680
vielleicht 21678
Italien@@ 21677
wakei 21677
sicherung 21676
1820 21675
Bestand@@ 21674
Intel@@ 21665
fahren@@ 21663
Taylor 21654
onia 21651
Sächs@@ 21648
äufe 21648
Chefred@@ 21647
schrau@@ 21647
Eigentum 21645
ön 21644
genaue 21643
ladung 21638
typischen 21635
Me 21632
eingestuft 21631
frühe 21631
hang 21631
Psychologie 21627
Dritt@@ 21626
Wilson 21625
Schnit@@ 21624
kasse 21624
Weihnachts@@ 21618
ächen 21616
Rote 21615
tiv 21615
ores 21614
Durchführung 21611
losigkeit 21607
Mensch@@ 21602
Investi@@ 21587
Port 21585
olt 21585
formi@@ 21582
mah@@ 21580
kore@@ 21576
ands@@ 21575
Trocken@@ 21572
entsprach 21571
Interview 21567
Oldenburg 21558
Church 21557
s- 21555
Leucht@@ 21546
männlichen 21541
Zar@@ 21538
alan@@ 21536
Freundin 21529
Untersuch@@ 21522
verhältnis 21518
bo 21515
tot@@ 21514
Test 21512
lach 21511
Komment@@ 21508
verhalten 21507
uung 21506
Verwaltungssitz 21505
send@@ 21504
Jubil@@ 21503
Finanzierung 21501
finanzielle 21497
Fremd@@ 21496
haltungs@@ 21495
Gewässer 21485
üssel 21485
Powiat 21484
archie 21484
deutschsprach@@ 21482
edt 21479
wohnern 21479
Südwest@@ 21478
Ud@@ 21476
zuh@@ 21471
Durchschnitts@@ 21463
Verfolgung 21459
obj@@ 21458
Steve 21450
Such@@ 21445
Kongress@@ 21444
Änderung 21439
PC 21436
Eberhard 21435
weihe 21435
wirtschaf@@ 21434
herstellung 21433
Autonom@@ 21431
wohner 21428
Jänner 21427
My 21427
punkten 21424
Strom 21423
Büro 21421
Hollywood 21420
ök@@ 21416
blo@@ 21410
ijähr@@ 21408
Ordens 21405
Prinzessin 21405
Jugendliche 21403
klassische 21401
Emer@@ 21400
eth 21400
respon@@ 21400
kurs 21393
beit@@ 21389
Episoden 21388
tell 21383
zählten 21383
anna 21379
archi@@ 21378
Gra@@ 21375
Grundriss 21370
Drama 21367
Schied@@ 21365
Lehen 21360
nachweis@@ 21360
Heirat 21358
Zeug@@ 21351
Südost@@ 21347
Häft@@ 21346
ander 21343
Dän@@ 21341
künstlerischen 21338
Tieren 21336
Seel@@ 21329
Toten 21329
terte 21326
AM@@ 21325
Jackson 21324
Orchestra 21324
böh@@ 21317
Museen 21316
Aufstand 21315
iens 21312
konfer@@ 21309
Bestimm@@ 21306
Hyp@@ 21305
bekannter 21303
Wiesbaden 21300
eignet 21300
gasse 21299
IS 21296
zum@@ 21295
lernen 21294
mig@@ 21288
Saale 21286
zweigt 21284
nü@@ 21277
Sieben@@ 21275
Beteil@@ 21274
Böhmen 21271
äts@@ 21271
és 21271
rhein 21269
erneuert 21267
king 21262
bandes 21258
Werkstatt 21250
ive 21247
gewählten 21243
Sof@@ 21239
Kund@@ 21236
ofen 21236
Saal@@ 21233
bol@@ 21233
offene 21233
Bildh@@ 21229
Ton 21224
entit@@ 21220
Times 21216
geschw@@ 21215
Tirol 21212
saison 21212
Dritter 21210
Ca@@ 21205
schieden 21204
Lac@@ 21200
Markus 21198
Nation@@ 21198
Wah@@ 21198
CD@@ 21196
kro@@ 21189
Invest@@ 21184
Verständ@@ 21184
preis@@ 21180
Erstligisten 21169
Kok@@ 21169
Adelsgesch@@ 21166
feste 21165
hinzu@@ 21159
Kaf@@ 21154
fälischen 21154
mobili@@ 21149
Samen 21145
Abgeordnete 21144
verfassungs@@ 21144
onz@@ 21139
echte 21136
leuch@@ 21135
magaz@@ 21135
geschätzt 21132
Ay@@ 21130
Kru@@ 21130
Dauer 21126
hn@@ 21122
schri@@ 21112
130 21110
landschaft 21108
ATP 21107
Stattdessen 21107
filmung 21098
agon@@ 21097
100.000 21093
ulen 21093
Sophie 21091
ames 21090
COVID 21087
Zone 21085
feier@@ 21085
Hütte 21083
Vorschlag 21072
wanderung 21071
gangs 21068
uk 21067
Wissenschafts@@ 21065
icke 21062
Ped@@ 21061
Pra@@ 21061
istern 21061
xi@@ 21061
Angelegenheiten 21060
ziv@@ 21058
Elbe 21053
Had@@ 21052
urgie 21047
ritten 21046
pern 21043
unger 21041
füg@@ 21036
esi@@ 21028
hem 21018
eles 21015
ami 21013
hung 21003
Windows 21002
Q 21001
X. 20999
ologi@@ 20997
FK 20993
IT@@ 20993
Archiv 20989
mathemati@@ 20988
bat 20986
sagen 20980
Sciences 20977
Text@@ 20972
büro 20972
inhal@@ 20972
bezirke 20969
integri@@ 20968
gegense@@ 20967
ensburg 20951
1831 20944
Werft 20940
oxid 20928
mers 20927
gö@@ 20924
Technische 20923
sächs@@ 20919
tien 20916
nörd@@ 20913
unterstütz@@ 20909
enl@@ 20907
hep@@ 20904
Ga@@ 20902
Marsch@@ 20902
serv@@ 20900
thi@@ 20900
Auge 20895
siebten 20885
1828 20880
Goethe 20878
karte 20878
Versch@@ 20875
beschreib@@ 20873
def@@ 20867
tnis@@ 20865
nahen 20859
Wet@@ 20858
NO@@ 20851
11,@@ 20844
Eig@@ 20843
Ersatz 20843
kreises 20842
resul@@ 20842
mich 20837
lossen@@ 20828
Griech@@ 20826
Lewis 20826
grau 20823
Som@@ 20821
alters 20816
Weimarer 20814
Thr@@ 20813
Ple@@ 20805
atien 20803
Cambridge 20799
Hef@@ 20798
Luftwaffe 20796
spruch 20793
Identi@@ 20791
wende 20790
ous 20789
Schönh@@ 20788
üstung 20784
IM@@ 20779
Wert@@ 20778
AL@@ 20774
tra@@ 20773
Unterneh@@ 20770
Neug@@ 20767
ón 20758
mand@@ 20757
vit@@ 20756
Media 20754
protestanti@@ 20745
beleg@@ 20742
deg@@ 20740
Training 20734
eland 20726
Festivals 20723
our@@ 20723
Heb@@ 20720
rechtliche 20718
ßen@@ 20718
Schlesien 20715
äle 20702
UN 20700
k. 20697
1812 20694
Pur@@ 20688
FI@@ 20672
Rav@@ 20669
Jersey 20666
Zit@@ 20666
ödie 20666
urs@@ 20662
Areal 20647
mord@@ 20642
Liebes@@ 20640
lanz@@ 20638
Ob 20637
Osman@@ 20626
MS 20624
180 20622
has@@ 20621
1200 20614
air@@ 20613
dav@@ 20610
tili@@ 20605
Symbol 20598
Oliver 20591
ungsweise 20589
ermittel@@ 20588
Klinik 20584
friedhof 20577
if 20571
Fehler 20569
pers@@ 20560
Art@@ 20558
Illustr@@ 20540
sym@@ 20532
ädagog@@ 20523
Douglas 20521
Interpre@@ 20520
fahrt@@ 20520
küm@@ 20519
esch 20517
real@@ 20513
Fah@@ 20494
winkel 20493
serb@@ 20490
siv 20486
Human@@ 20484
DC 20481
Bremer 20480
Women 20475
mo 20473
1817 20469
Benjamin 20469
140 20468
Challenger 20465
Passag@@ 20465
Perspek@@ 20456
Nun 20450
dungs@@ 20448
rieben 20444
Tony 20442
10,@@ 20441
Alumin@@ 20435
Stim@@ 20434
abger@@ 20430
Kult@@ 20429
orie 20420
üng@@ 20419
Spani@@ 20418
ators 20418
sein@@ 20417
August@@ 20410
AN@@ 20408
prinzip 20407
Basket@@ 20394
iment 20391
Ses@@ 20381
Straßburg 20378
Freist@@ 20370
Sekund@@ 20370
Schir@@ 20368
Ström@@ 20368
stadi@@ 20363
abhäng@@ 20361
lshaber 20361
ami@@ 20359
Bochum 20355
ident 20353
New@@ 20351
ls@@ 20348
produk@@ 20344
ahrt 20342
swe@@ 20342
Gos@@ 20340
CO@@ 20336
DJ 20332
Eigent@@ 20331
1833 20324
Regierungsbezirk 20318
traße 20316
lie 20309
Parallel 20307
opo@@ 20307
bart 20305
Rass@@ 20302
tori@@ 20300
frequ@@ 20296
Leib@@ 20292
illi 20288
Antark@@ 20282
Naz@@ 20280
brunn 20276
industri@@ 20272
kathol@@ 20271
öll@@ 20259
portal 20256
falt 20248
fur@@ 20245
Seh@@ 20242
iner@@ 20240
streng@@ 20235
Münch@@ 20232
Program@@ 20220
Zoll@@ 20213
Wladi@@ 20206
Rundfunk 20203
Ruhr@@ 20201
beschäf@@ 20198
Stars 20194
itu@@ 20191
Austr@@ 20189
lä@@ 20182
SA@@ 20174
num@@ 20173
ickt 20169
Ord@@ 20164
sour@@ 20161
dia 20159
ère 20153
Brauerei 20143
mitt@@ 20143
Duo 20142
K. 20121
wart 20120
go@@ 20118
wester@@ 20114
Format 20110
universit@@ 20110
ttem@@ 20108
altete 20106
mm@@ 20100
Put@@ 20097
ritte 20095
anten@@ 20092
bulgar@@ 20092
DS 20090
Satell@@ 20076
oden 20076
alia 20068
entz@@ 20064
Abgeord@@ 20063
misch@@ 20058
ð@@ 20056
mune 20053
imp@@ 20046
sach@@ 20018
zugs@@ 20017
thr@@ 20016
besetz@@ 20010
gend@@ 20007
Schließ@@ 20006
richtungen 20004
1825 19997
opa 19993
Haut 19988
Rekord 19987
Sax@@ 19980
entdec@@ 19979
egrün@@ 19973
Siege 19966
Journal 19962
Cast@@ 19960
Hür@@ 19945
Wart@@ 19942
Soc@@ 19939
DP 19937
Juli@@ 19933
Liss@@ 19932
HL 19926
Univers@@ 19920
git@@ 19920
sem@@ 19913
Bauer 19908
strom 19899
äußer@@ 19895
Lern@@ 19893
Lie@@ 19892
pend@@ 19892
bad@@ 19887
kow@@ 19884
Religi@@ 19883
Dunk@@ 19879
fusion@@ 19875
ement@@ 19871
norweg@@ 19864
ifel 19862
Mengen 19857
Meth@@ 19857
publik@@ 19853
Real 19852
Stahl 19849
Hauptmann 19847
13,@@ 19846
Bonn@@ 19845
Mobil@@ 19845
Sun@@ 19842
Key@@ 19838
partner@@ 19837
Oder 19828
ī 19828
Weich@@ 19827
DV@@ 19818
fan@@ 19814
Dep@@ 19811
hof@@ 19810
Mä@@ 19807
gebil@@ 19805
ässer 19805
Protagon@@ 19803
SO@@ 19802
Gall@@ 19784
Hirsch@@ 19778
Junge 19778
5.@@ 19775
assist@@ 19770
Eva 19764
Mög@@ 19762
Mission@@ 19759
Rats@@ 19755
olo 19755
peln 19754
20.000 19753
annen 19752
orum 19751
Dame 19750
formu@@ 19750
spor@@ 19749
Ci@@ 19748
lesen 19735
Cop@@ 19728
Parall@@ 19726
eur@@ 19721
Freih@@ 19720
Alternative 19715
AC@@ 19696
Gn@@ 19684
Ali@@ 19681
Breit@@ 19681
Plas@@ 19680
BB 19678
fertigt 19677
Val 19670
abrik 19669
ș@@ 19668
atten@@ 19667
trol@@ 19661
Klar@@ 19651
1809 19645
Dik@@ 19640
qui@@ 19634
oms 19630
Duisburg 19626
menden 19625
hau@@ 19613
neur@@ 19612
aun 19611
Qualif@@ 19610
oe 19608
pap@@ 19607
hunder@@ 19603
endar@@ 19597
kommando 19592
DB 19591
armee 19589
lokal@@ 19576
scheid@@ 19574
half 19558
aul@@ 19554
enhausen 19550
Grupp@@ 19543
0,5 19541
Niv@@ 19538
Masse 19534
vorsitz@@ 19530
ical 19527
Fun@@ 19521
Insol@@ 19511
Vorpommern 19508
ning 19493
Syst@@ 19490
Zah@@ 19487
Zauber@@ 19487
Hung@@ 19484
Günter 19479
Aer@@ 19476
dür@@ 19474
gering 19473
Result@@ 19471
Fans 19468
chr@@ 19463
Million 19456
enser@@ 19450
Hydro@@ 19445
án@@ 19442
Alpen@@ 19437
Information 19436
unge 19435
1807 19424
Molek@@ 19423
Tie@@ 19421
austral@@ 19419
Hoffmann 19413
Preuß@@ 19399
Sinf@@ 19398
CH@@ 19394
krist@@ 19392
Neg@@ 19388
äfte 19388
Nassau 19384
aire 19384
Bour@@ 19378
350 19374
stock 19368
ouver@@ 19363
ą@@ 19360
Lange 19351
Dah@@ 19349
wichtig@@ 19346
Beispi@@ 19345
Niederösterreich 19342
1824 19337
ory 19337
Bedeut@@ 19333
my@@ 19332
mine 19327
160 19326
DFB 19322
Mario 19314
met 19313
usive 19305
treff@@ 19303
partements 19302
Ulm 19297
pert 19293
Andrew 19288
Valley 19287
Fellow 19283
Lav@@ 19281
chil@@ 19281
andlung 19279
Kuh@@ 19273
Stadi@@ 19269
jan 19264
argent@@ 19260
ci 19258
urn@@ 19258
Hop@@ 19254
alis@@ 19239
iser 19238
quartier 19237
1826 19232
Sec@@ 19227
onte 19221
1798 19219
Flora 19216
inform@@ 19216
Pader@@ 19190
bring@@ 19190
Gur@@ 19183
Konservat@@ 19176
Andr@@ 19170
circa 19148
sag@@ 19147
Nikol@@ 19145
aches 19145
Hammer@@ 19142
heu@@ 19142
ele@@ 19141
fungi@@ 19141
Bundestag 19124
Marc 19123
band@@ 19122
1829 19111
rat@@ 19110
uth 19110
Draft 19106
geleit@@ 19103
24@@ 19101
Eugen 19096
nch@@ 19093
brunnen 19088
urin 19087
Marathon 19086
anci@@ 19086
Versorg@@ 19084
khaus 19084
aud@@ 19082
Edition 19078
Buc@@ 19076
alition 19075
Py@@ 19071
Ful@@ 19067
Hann@@ 19061
Basil@@ 19052
Platte 19049
1822 19045
Programme 19032
Koblenz 19020
aster@@ 19018
entspr@@ 19018
Boot@@ 19012
din 19011
brücken 19010
bein 19002
gold@@ 19002
jene 18998
Gabriel 18993
Norweg@@ 18992
Sep@@ 18990
walt@@ 18990
phy@@ 18986
alist 18981
furt 18973
irat 18954
Bell@@ 18950
00@@ 18949
kis@@ 18935
perf@@ 18927
dien 18920
wech@@ 18915
Legislat@@ 18912
SED 18909
ibt 18908
Apos@@ 18900
Eu@@ 18894
Hamilton 18891
Osnabrück 18891
MA 18886
Zimmer 18882
ST@@ 18881
ahe 18880
Portal 18873
hi 18870
AB 18868
Musical 18866
ex 18866
Hak@@ 18847
Fon@@ 18843
ament@@ 18843
Alexand@@ 18838
America 18835
Doktor 18835
physi@@ 18832
ó 18827
Gemeinder@@ 18825
Manuel 18816
Zun@@ 18813
ikas 18811
Digit@@ 18808
uma 18807
ped@@ 18805
festival 18797
hn 18797
gi 18795
ú@@ 18792
Div@@ 18784
jo 18781
Express 18779
50@@ 18778
Jury 18778
Amer@@ 18777
Adler 18772
mens@@ 18771
iven 18766
Great 18762
fel 18762
col@@ 18760
aison 18756
Nation 18749
Wood@@ 18735
Moderne 18726
pat@@ 18723
Ruhr 18713
Tw@@ 18703
Element 18701
troc@@ 18701
Sm@@ 18700
IT 18693
1802 18692
Pfar@@ 18691
ekt@@ 18689
Hagen 18675
ites 18675
kette 18675
Meh@@ 18672
otiven 18672
aller@@ 18666
1819 18665
Parlament@@ 18661
präsent@@ 18658
prom@@ 18654
Golden 18652
Jäger 18652
AP@@ 18647
1811 18644
han 18639
lösung 18636
→ 18634
Saarbrücken 18633
bis@@ 18628
Tat 18622
strom@@ 18619
Krak@@ 18616
endel@@ 18613
Mosch@@ 18606
ege@@ 18602
orn@@ 18599
wettbewer@@ 18595
Fabrik@@ 18594
Amerikan@@ 18590
RT 18583
tsch 18583
Engel 18573
don@@ 18568
gas 18565
Flot@@ 18564
Jesu@@ 18564
Mig@@ 18557
otyp@@ 18551
beur@@ 18548
Act 18542
aph@@ 18541
A.@@ 18531
iy@@ 18519
€ 18519
Ek@@ 18518
Stir@@ 18510
Sound 18499
oi 18491
Hit 18487
pot 18486
sius 18479
uchs 18476
Kleine 18469
Nec@@ 18468
icken 18465
lub 18461
Railway 18458
Behör@@ 18454
rate 18452
tell@@ 18450
Mond@@ 18444
management 18442
Trio 18437
Elektro@@ 18433
sim@@ 18433
Alternati@@ 18432
Beach@@ 18432
ank 18432
chens 18432
Ig@@ 18431
tol@@ 18426
Ex 18422
Carlo 18418
ede@@ 18408
schafter 18408
rig@@ 18403
Claude 18398
ids 18395
iefer@@ 18394
Ali 18383
ink 18381
125 18366
sak@@ 18366
Shi@@ 18360
alls 18357
Schwerin 18353
Wend@@ 18352
ematik 18352
regis@@ 18351
Integration 18349
bi 18348
Islam@@ 18346
abon 18346
debü@@ 18342
ücks@@ 18340
18@@ 18339
Benz@@ 18335
Els@@ 18330
ograf 18325
ph 18324
besitz@@ 18312
vent 18311
Beach 18303
oler 18301
ätten 18299
cin@@ 18298
Fest 18297
essor 18296
Johanna 18283
Dialog@@ 18282
gros@@ 18282
falz 18281
ferin 18270
RS 18266
bru@@ 18263
Premier 18255
öt@@ 18249
ept 18246
sters 18245
Block@@ 18243
Angel@@ 18242
Gam@@ 18233
semin@@ 18228
1827 18223
Ferr@@ 18223
illon 18223
sfeld 18218
Internet@@ 18217
Olymp@@ 18215
may@@ 18211
Waf@@ 18204
UNESCO 18200
Chr@@ 18196
Time 18196
Restaurant 18180
Yorker 18180
Analy@@ 18179
assi@@ 18175
Corn@@ 18173
ones 18172
1801 18169
minister@@ 18162
Gallen 18158
ér@@ 18152
kend@@ 18143
Coun@@ 18142
vorhand@@ 18138
Argum@@ 18132
Nicol@@ 18127
Ass@@ 18122
Monte 18119
Micha@@ 18116
DNA 18114
dynam@@ 18105
1805 18100
Andre@@ 18096
division 18096
urkund@@ 18093
vin@@ 18081
Alban@@ 18077
Prince 18076
fir@@ 18061
Elizabeth 18053
lau 18050
oren@@ 18044
Metro@@ 18038
200@@ 18035
etto 18035
Schu@@ 18031
Lüt@@ 18026
Bras@@ 18024
sank 18021
sul 18018
1804 18015
club 18015
Eric 18013
NBA 18010
hringen 18007
ARD 17998
Stic@@ 17996
fah@@ 17995
use@@ 17994
Historic 17990
Interpretation 17988
Day 17983
NATO 17977
12,@@ 17974
efer@@ 17972
Zentim@@ 17969
Mosk@@ 17967
Sens@@ 17967
uri 17967
Pass 17964
ński 17958
german@@ 17957
Tennis 17950
Schrö@@ 17945
verstor@@ 17944
Creek 17925
Roland 17924
Little 17922
1793 17918
Harvard 17916
EG 17914
Hildes@@ 17910
Messe 17904
Nürn@@ 17901
tek@@ 17901
Bin@@ 17900
Veränder@@ 17898
Statue 17897
winner 17897
ś@@ 17897
Golf 17894
osse 17881
pfel 17881
inter 17878
Tap@@ 17874
AB@@ 17868
Haft@@ 17868
Wik@@ 17866
veröffentlich@@ 17862
VA 17861
rol 17858
som@@ 17858
Flo@@ 17851
ū 17849
ements 17847
gan 17843
dost@@ 17839
Wiss@@ 17837
öte 17828
ky@@ 17823
mens 17823
Play@@ 17821
Lyon 17815
ull 17815
uy@@ 17814
Chance 17810
Rosa 17809
pack@@ 17809
FF@@ 17808
lip@@ 17799
avi@@ 17795
della 17782
Danzig 17778
It 17775
Hob@@ 17770
linger 17770
Pub@@ 17765
PD 17757
reak@@ 17757
dan 17754
tia 17751
1,2 17749
rak@@ 17746
grab@@ 17739
LP 17737
court 17732
Sta@@ 17731
Quar@@ 17726
com@@ 17724
Allgemeine 17720
Sud@@ 17720
renom@@ 17717
pper 17714
Manchester 17710
diglich 17710
Donn@@ 17707
Lud@@ 17705
Gum@@ 17693
inghausen 17693
teure 17692
It@@ 17691
cor@@ 17682
Details 17680
imit@@ 17677
itig 17669
scheit@@ 17669
Barr@@ 17665
kil@@ 17663
Hong@@ 17661
Reit@@ 17659
win 17658
ho 17649
nommen 17648
tit@@ 17645
grup@@ 17640
utt@@ 17640
Mill@@ 17631
Bielefeld 17628
Atelier 17625
194@@ 17620
entes 17615
law 17614
kub@@ 17612
Eröff@@ 17611
Georges 17611
Fru@@ 17608
Ny@@ 17608
Grim@@ 17606
dot@@ 17606
besa@@ 17601
eur 17592
ör 17590
40@@ 17588
Michigan 17585
Kraftwerk 17584
eser@@ 17584
Janeiro 17583
Mam@@ 17582
verbind@@ 17582
Witt@@ 17580
Opposition 17578
Adj@@ 17573
gif@@ 17572
Foundation 17571
jüd@@ 17564
Technologie 17563
arius 17563
Siegfried 17559
Nob@@ 17549
Jes@@ 17548
Andrea 17546
icus 17537
Vic@@ 17534
not 17531
seig@@ 17531
Personal 17529
Arch@@ 17528
duk@@ 17527
ilit@@ 17525
Rolf 17516
adem@@ 17516
Mom@@ 17515
Blau 17513
ickl@@ 17513
Testament 17507
attr@@ 17507
KPD 17504
Falls 17499
Juni@@ 17490
iment@@ 17490
resse 17487
messer 17480
Gef@@ 17479
Eid@@ 17477
hoff 17473
Skel@@ 17466
Kardin@@ 17457
Maschin@@ 17457
1823 17454
feder@@ 17453
6.@@ 17450
Whit@@ 17450
inski 17447
Vin@@ 17445
1600 17444
hydr@@ 17440
Grun@@ 17428
Neuh@@ 17420
jan@@ 17415
BBC 17402
onom@@ 17401
Miller 17399
Flan@@ 17398
berüh@@ 17398
schot@@ 17387
tron@@ 17387
Alg@@ 17385
beschri@@ 17379
holt 17372
Dies@@ 17366
Bamberg 17361
esk@@ 17357
Wis@@ 17342
igh@@ 17339
eimer 17336
14,@@ 17335
ologien 17334
stuhl 17333
oa 17331
positive 17323
event@@ 17321
Gan@@ 17320
Dop@@ 17316
energ@@ 17315
Law@@ 17300
ols 17299
sende 17292
obach@@ 17289
ovice 17286
Palais 17285
Wap@@ 17282
Zür@@ 17281
Absol@@ 17270
Model 17268
ahr 17268
worth 17263
Karl@@ 17262
trich@@ 17262
lanzen 17261
Township 17258
fried 17256
Alex 17250
unkt 17250
Sand 17243
Fab@@ 17237
Hospital 17235
60@@ 17230
Klam@@ 17229
Bernd 17227
Conn@@ 17226
erz@@ 17224
ops 17221
Isra@@ 17219
Rhyth@@ 17216
ias 17214
ried 17213
Fiction 17207
gio 17204
tats@@ 17200
obi@@ 17198
semester 17198
Europe 17195
Anthony 17192
deck 17192
Van@@ 17189
ariat 17185
Auto@@ 17184
tüm@@ 17183
oti@@ 17182
schi 17182
dit 17181
Country 17180
Costa 17178
ensen 17177
stig@@ 17176
Business 17172
Nacional 17163
TA 17163
ps@@ 17161
ains 17160
ero@@ 17158
Direkt@@ 17152
Atmos@@ 17145
TSV 17144
arte 17139
Bernard 17135
hain 17129
Anim@@ 17125
Termin@@ 17116
10.@@ 17112
anner 17112
plex 17108
ries@@ 17105
aters 17101
Deut@@ 17098
Holland 17098
adier 17097
ux 17097
Lou@@ 17096
Allen 17095
stabil@@ 17094
such 17094
Loc@@ 17092
Racing 17087
Napoleon 17086
Vok@@ 17083
reis 17078
OR@@ 17074
Lady 17071
Elem@@ 17066
ron 17060
ministers 17056
asser@@ 17050
Air@@ 17045
human@@ 17042
engel 17041
Over@@ 17036
ès 17028
Kim 17027
osom@@ 17026
Fen@@ 17021
loch 17015
Forum 17003
Urs@@ 17001
Honor@@ 16996
fotograf@@ 16995
District 16992
XV@@ 16992
PS@@ 16983
will@@ 16981
Vet@@ 16980
War 16967
Ash@@ 16957
1700 16955
Hut@@ 16948
Max@@ 16947
Boc@@ 16946
Luther 16943
pt 16940
Minnesota 16936
Stephen 16934
ieder 16929
Jim 16927
halte 16923
samen 16923
ense 16922
ini@@ 16910
Clubs 16903
Verfass@@ 16900
11@@ 16898
stir@@ 16893
rist@@ 16882
Luis 16881
seur 16876
kmale 16870
Rainer 16868
Oskar 16866
ogo 16860
uelle 16848
lard 16847
Beau@@ 16845
ever@@ 16844
röm@@ 16842
Marcus 16841
na@@ 16826
Erlangen 16821
HK 16819
Terror@@ 16816
Bridge 16813
Clemens 16808
stands 16806
Tari@@ 16799
plante 16799
Let@@ 16797
abgel@@ 16795
Website 16792
ík 16791
Rog@@ 16789
ige@@ 16783
Afrik@@ 16778
olo@@ 16776
Falken@@ 16775
abilitation 16771
br 16769
Episode 16764
ehir@@ 16760
koordin@@ 16758
Louise 16756
Siz@@ 16748
Port@@ 16746
mos@@ 16746
ku 16743
Philos@@ 16739
nes@@ 16739
edel@@ 16733
Bron@@ 16727
23@@ 16722
Anton@@ 16722
Kne@@ 16722
stati@@ 16718
charts 16716
Aires 16715
erschien@@ 16715
Mant@@ 16710
bek 16709
inos 16709
teres 16706
Oc@@ 16705
Kes@@ 16704
Mid@@ 16704
kop 16692
ainer 16687
änglich 16686
österreich 16675
God@@ 16660
Power 16658
hofer 16651
semb@@ 16647
Grande 16642
Thailand 16642
maximale 16642
meng@@ 16626
arium 16625
anat 16622
more 16612
panz@@ 16611
Lorenz 16610
äischen 16607
Vogel 16606
Long 16603
Bataillon 16602
prop@@ 16588
tas@@ 16588
can@@ 16585
Free 16577
Til@@ 16575
Bac@@ 16569
Denk@@ 16566
unker 16565
Oslo 16563
Buenos 16562
Steiermark 16561
anschließ@@ 16561
Philharmon@@ 16557
orb@@ 16557
BA 16556
vir@@ 16556
Tum@@ 16547
Turin 16547
Dog@@ 16544
Horn 16542
bedeutend@@ 16541
Becker 16538
pok@@ 16533
andinav@@ 16514
ison 16509
vel@@ 16509
Pit@@ 16505
Quarti@@ 16491
Lus@@ 16489
Reinhard 16488
Islam 16484
Konstantin@@ 16479
ensus 16474
Airport 16469
ffer@@ 16463
neb@@ 16460
amkeit 16456
ual@@ 16455
Net@@ 16452
Pedro 16451
ish 16445
ør@@ 16442
ope 16436
Conrad 16432
Struk@@ 16429
ofil@@ 16429
â@@ 16429
Well@@ 16428
male 16423
kurrenz 16422
Elf@@ 16421
dekor@@ 16419
Euro@@ 16418
ME@@ 16415
Badminton 16413
orthodo@@ 16412
Bret@@ 16404
Hang@@ 16403
System@@ 16399
tica 16399
skop@@ 16391
Julia 16386
Wed@@ 16384
1794 16383
regional 16383
Och@@ 16374
row 16372
itter 16370
ár@@ 16368
arm 16367
Long@@ 16361
haven 16357
rest@@ 16355
modi@@ 16354
kinder@@ 16352
oth 16352
ý@@ 16349
Sam 16347
adi 16341
line 16340
Harmon@@ 16337
pol 16335
Vorarl@@ 16334
ères 16327
See@@ 16326
Wy@@ 16316
ness 16312
Queen 16308
swald 16301
Bus 16298
4,5 16297
Ji@@ 16294
een 16294
unge@@ 16294
verheirat@@ 16294
rain 16293
ology 16291
investi@@ 16288
Büro@@ 16285
Düssel@@ 16285
ziger 16284
promin@@ 16269
ebo@@ 16262
Ök@@ 16261
chef 16251
Senator 16247
same 16247
č 16244
beli@@ 16238
with 16237
nich@@ 16235
Boy@@ 16233
etts 16232
fasste 16229
Alice 16223
Fertig@@ 16220
Schles@@ 16213
Vorgäng@@ 16201
Explo@@ 16199
Jörg 16196
benachbar@@ 16191
codice 16190
Mord@@ 16189
Psychi@@ 16186
prob@@ 16180
journ@@ 16176
Schaf@@ 16173
Turn@@ 16171
udi@@ 16171
Tul@@ 16166
Stutt@@ 16161
Theatre 16160
FF 16158
lug 16150
vik@@ 16147
Humboldt 16142
René 16142
axis 16142
mem@@ 16142
Mans@@ 16139
geneti@@ 16135
signi@@ 16129
Kong@@ 16127
firmi@@ 16125
sign@@ 16119
Tür 16116
Entsteh@@ 16112
detail@@ 16112
NFL 16108
experiment@@ 16101
Howard 16092
isa 16084
Fig@@ 16077
Paulo 16072
cen 16071
CE@@ 16070
Phosph@@ 16068
show 16068
BMW 16067
byzant@@ 16066
ley@@ 16065
poly@@ 16064
Fulda 16058
Helsinki 16057
Hotels 16055
video 16047
ummer 16043
Elektron@@ 16037
SW@@ 16034
eid@@ 16030
Cle@@ 16028
metall@@ 16023
ista 16020
lins 16020
annes 16016
eds 16015
sow 16014
1790 16007
Solo@@ 16007
kent@@ 16007
26@@ 16006
Filmf@@ 16001
Out@@ 16000
eser 15998
arz@@ 15996
zif@@ 15995
Kari@@ 15992
separ@@ 15987
7.@@ 15979
osman@@ 15960
analyse 15959
heir@@ 15958
k.@@ 15953
osp@@ 15953
wind@@ 15952
KW 15950
horst 15949
onyme 15946
sher@@ 15937
Mé@@ 15936
Game 15935
fa@@ 15928
stad@@ 15922
Francesco 15919
Immun@@ 15918
harmon@@ 15917
Oste@@ 15916
Brian 15913
Ray 15912
Schrif@@ 15912
did@@ 15910
bares 15905
Phar@@ 15904
Lap@@ 15898
emper@@ 15896
1792 15894
ü 15887
zig@@ 15886
Morgen@@ 15883
biet@@ 15883
yg@@ 15883
Handball 15881
reine 15881
shafen 15881
ault 15876
Glasgow 15865
edo 15861
ský 15859
Modern@@ 15856
amente 15856
cup 15855
stütz@@ 15853
Anth@@ 15849
Manus@@ 15846
liefert 15843
Telek@@ 15841
Hain@@ 15839
Gefäng@@ 15838
Sedi@@ 15838
itten 15835
by@@ 15827
eli 15827
ET@@ 15824
boot 15824
Mercedes 15817
Bow@@ 15816
ns@@ 15806
dol@@ 15799
ław 15794
Harald 15792
ici@@ 15792
Reform 15787
thiop@@ 15778
Rüst@@ 15776
27@@ 15774
1.000 15771
get 15768
olith@@ 15768
wirkungen 15764
AN 15762
ual 15760
zwöl@@ 15756
Dou@@ 15751
Keh@@ 15749
Asteroid 15748
Nic@@ 15747
revolution 15747
durchschnit@@ 15736
Dres@@ 15730
Ort@@ 15727
Sag@@ 15719
Stadium 15718
öl 15718
Gregor 15717
lere 15714
Säng@@ 15710
Zucker@@ 15708
Peru 15704
lum 15704
aat 15702
Montreal 15698
thal@@ 15696
Provin@@ 15690
Geburt@@ 15689
Lamp@@ 15685
vul@@ 15681
mith@@ 15671
dei 15669
Christi@@ 15665
aer 15665
Spons@@ 15664
Kum@@ 15661
shire 15660
Schal@@ 15653
Georgia 15648
illi@@ 15644
Loire 15639
1789 15632
Path@@ 15628
ude 15626
siv@@ 15615
ric@@ 15606
1797 15604
Ross 15604
Kond@@ 15603
Block 15600
bind@@ 15600
ept@@ 15594
bra@@ 15573
zit@@ 15566
för@@ 15565
Steph@@ 15556
DE 15555
Ih@@ 15554
TE@@ 15553
Jas@@ 15551
gru@@ 15549
Cent@@ 15547
poche 15545
Lippe 15539
ostr@@ 15535
stra@@ 15535
oux 15526
Stap@@ 15525
Sports 15524
Tend@@ 15523
2.000 15517
Cover@@ 15517
Bord@@ 15513
aha 15513
ple@@ 15512
Cav@@ 15508
Arg@@ 15505
jag@@ 15501
9.@@ 15493
Black@@ 15493
Sog@@ 15492
ili 15485
unc@@ 15485
chel@@ 15481
Lek@@ 15479
Kontak@@ 15477
Indon@@ 15472
MP@@ 15472
mög@@ 15469
ago 15468
tional@@ 15466
mag 15464
Math@@ 15463
Dick@@ 15461
iff@@ 15458
Los@@ 15456
emig@@ 15456
Gordon 15454
loser 15443
stall 15442
österreich@@ 15442
Konstanz 15441
Moor@@ 15440
mobil@@ 15440
15@@ 15435
VfL 15433
\ 15429
Nationale 15423
Fabr@@ 15422
Junior 15421
lieder 15420
Stanley 15416
Leopol@@ 15409
Alan 15405
Kob@@ 15401
agements 15401
iler@@ 15394
Ric@@ 15392
Raf@@ 15383
arren 15372
age@@ 15365
krip@@ 15360
nheim 15359
atori@@ 15358
hammer 15357
mf@@ 15355
refer@@ 15355
amik 15354
origin@@ 15354
omin@@ 15350
Admiral 15349
Australian 15344
Mr@@ 15336
Griff@@ 15333
poem 15330
Fleisch@@ 15329
aver 15327
müc@@ 15327
Kabin@@ 15325
Cous@@ 15324
optim@@ 15321
wall 15321
zun@@ 15318
Kast@@ 15315
Cru@@ 15311
Las 15310
esa 15306
No 15302
gier 15301
ival@@ 15298
Fame 15297
Ler@@ 15293
gehoben 15291
Nau@@ 15290
ellip@@ 15286
atu@@ 15281
illeg@@ 15280
Santiago 15270
Bar 15267
enor@@ 15265
dir@@ 15263
hagen 15254
AI@@ 15251
Neckar 15251
Ruf@@ 15251
nam 15250
Index 15246
Romans 15242
Isol@@ 15241
tional 15233
Finn@@ 15232
Neus@@ 15232
Flag@@ 15224
Audi@@ 15221
She@@ 15216
Ontario 15213
BM@@ 15209
Popul@@ 15209
Suc@@ 15209
Dorothe@@ 15204
esters 15204
hol 15200
Abraham 15191
Mäd@@ 15191
Oli@@ 15189
programme 15189
tir@@ 15189
Panzer 15188
ash 15188
17@@ 15186
Jah@@ 15181
RA 15174
bom@@ 15170
IP 15169
Haar@@ 15165
Kni@@ 15158
80@@ 15156
Tim 15151
ario 15144
lio 15143
LE@@ 15133
omp@@ 15132
Edinburgh 15131
funk 15128
ome@@ 15128
elen@@ 15122
stin@@ 15121
was@@ 15119
onnen 15117
dos 15116
Hamb@@ 15114
Hyper@@ 15111
Austria 15110
hül@@ 15110
vo 15095
aro@@ 15091
PA 15090
Sarah 15089
Diego 15088
quote 15060
Tier 15056
Philip 15051
estad@@ 15043
Gy@@ 15042
leg 15041
Manche 15037
Marco 15035
CSU 15034
Maurice 15032
nomin@@ 15031
itas 15030
Beth@@ 15026
Param@@ 15016
Blin@@ 15013
enko 15013
Christopher 15011
old@@ 15005
Entertainment 15004
Lip@@ 15003
ube 15002
Erk@@ 14997
Administr@@ 14993
Feri@@ 14991
ither 14989
Bug@@ 14988
Colorado 14987
dom@@ 14973
Kombin@@ 14971
itr@@ 14961
Nad@@ 14960
Dynam@@ 14956
Eil@@ 14954
tü@@ 14948
anl@@ 14943
beschä@@ 14941
Hits 14938
Hass@@ 14935
union 14928
Fast 14926
Old 14924
chir@@ 14921
16,@@ 14913
tau 14913
Missouri 14912
Cab@@ 14908
Install@@ 14902
Hind@@ 14891
Pastor 14890
Continental 14886
rü@@ 14879
120@@ 14877
nchen 14872
Clar@@ 14868
geometr@@ 14868
ois 14865
chor 14864
ün 14862
Dob@@ 14860
enta 14854
DA 14852
VfB 14850
boten 14847
revolution@@ 14847
Sun 14846
baut 14845
ace 14843
ets@@ 14843
back 14842
Adol@@ 14830
Technology 14827
rif@@ 14823
Donald 14821
pin@@ 14821
programm@@ 14821
evangel@@ 14817
motor@@ 14816
CS@@ 14815
Zieg@@ 14815
euti@@ 14807
büttel 14806
Pius 14802
kes@@ 14797
Erwin 14793
app 14791
tot 14789
ues 14789
esia 14786
orps 14778
quar@@ 14776
Hos@@ 14773
Pati@@ 14773
por 14773
marine 14768
Ferrari 14761
asa 14761
toire 14761
fristi@@ 14759
Lov@@ 14757
Verst@@ 14757
Franch@@ 14754
Bob@@ 14749
Anten@@ 14745
Duke 14745
kontin@@ 14743
Gren@@ 14736
pur@@ 14734
Mountains 14733
105 14732
mül@@ 14730
weile 14725
lan 14723
Krem@@ 14722
Beck@@ 14721
Fred 14720
Nikolai 14720
BC 14718
EC 14715
Public 14711
tester 14711
Heer@@ 14709
Night 14706
lit 14706
tiz 14696
Moment 14692
Mr. 14690
Willy 14689
Adams 14688
Fauna 14687
perte 14687
Tos@@ 14683
Tou@@ 14683
Kemp@@ 14673
ological 14668
ettin 14664
ED@@ 14662
geblich 14661
Vincent 14658
Ehem@@ 14657
cl@@ 14654
try 14654
Borussia 14648
dirig@@ 14647
aft@@ 14646
UK 14644
ads 14643
armen@@ 14642
8.@@ 14639
Johnny 14639
Space 14633
Campus 14630
rup@@ 14630
ović 14629
til 14629
post 14627
passi@@ 14626
strö@@ 14626
Death 14620
hafen 14609
ward 14607
15,@@ 14606
Deg@@ 14606
ind 14599
Dum@@ 14596
Sed@@ 14582
Sup@@ 14578
Sir@@ 14576
Nek@@ 14575
Stan@@ 14575
Shar@@ 14572
erlang@@ 14570
asi 14569
ension 14567
polis 14567
kov 14562
U.S. 14561
Freder@@ 14560
till@@ 14560
Kün@@ 14559
fres@@ 14545
sc@@ 14545
Airlines 14538
Prop@@ 14537
egg 14523
Order 14520
Psy@@ 14515
astronom@@ 14515
legium 14514
alie 14511
stuh@@ 14511
atorium 14508
1799 14506
box@@ 14501
live 14501
Spring@@ 14500
Matth@@ 14499
jewe@@ 14498
fug@@ 14495
mid 14489
manche 14482
Court 14480
einte 14479
Clark 14478
nar@@ 14478
Franz@@ 14475
Lausanne 14467
offs 14465
äss@@ 14459
Sno@@ 14456
Ale@@ 14451
Auftrit@@ 14450
Lec@@ 14449
ustri@@ 14448
sens 14445
DO@@ 14443
tre 14438
Cul@@ 14435
Gesund@@ 14434
program@@ 14434
Reper@@ 14432
Expedi@@ 14429
Giuseppe 14429
oko 14425
olf 14424
ight 14421
Bres@@ 14420
gesam@@ 14417
Jimmy 14410
Biographie 14409
Board 14406
Law 14403
Chief 14399
nel@@ 14398
Anti 14396
Lach@@ 14396
CA 14393
Moore 14392
Repräsent@@ 14390
olstadt 14387
Anderson 14384
Hydr@@ 14367
Solo 14366
Allianz 14360
bury 14356
arri@@ 14352
Vize 14349
aine 14349
Divisi@@ 14345
SR 14343
lokom@@ 14342
ution@@ 14332
ț@@ 14331
Kansas 14328
Mob@@ 14328
Woll@@ 14326
Rost@@ 14318
stands@@ 14318
Us@@ 14316
Proph@@ 14315
Mayer 14314
schild 14313
herzog@@ 14310
Wittenberg 14301
Pion@@ 14300
101 14297
eld@@ 14294
RI@@ 14280
abri@@ 14280
Hammer 14272
ante@@ 14269
Antarctic 14268
ond 14264
Dess@@ 14261
Talent 14261
angeord@@ 14261
anon 14259
mert 14256
Stock 14254
USS 14254
verschi@@ 14252
Scor@@ 14250
heirat@@ 14248
Belgrad 14247
Grav@@ 14246
abor@@ 14243
lat 14239
Playoffs 14238
Zusch@@ 14229
7,5 14227
sle@@ 14225
phon@@ 14218
nat@@ 14216
Dö@@ 14214
Pier@@ 14214
450 14197
Thom@@ 14193
poli@@ 14187
zah@@ 14187
ix@@ 14186
Maus@@ 14183
Nes@@ 14183
Panz@@ 14168
Alf@@ 14167
ref@@ 14166
Pacific 14164
11.@@ 14162
arker 14160
För@@ 14156
Pist@@ 14148
Ever@@ 14147
Loch 14146
ular 14145
750 14136
Sv@@ 14136
mst@@ 14135
Arm 14133
Big@@ 14130
Roth 14128
Wisconsin 14128
May 14121
onale 14120
verschieden@@ 14120
B.@@ 14119
lock 14119
air 14112
Just@@ 14109
folgung 14109
Christine 14107
sonn@@ 14105
Billy 14102
ths 14091
ynam@@ 14091
Detroit 14090
eal 14083
Petrus 14076
Vati@@ 14075
Cass@@ 14068
Memorial 14067
Fuchs 14065
finale 14065
Paw@@ 14063
anch@@ 14061
ston 14061
Chal@@ 14060
1795 14059
auso 14058
Garde 14055
Nick@@ 14054
omer@@ 14049
ór@@ 14045
Nak@@ 14038
hold 14037
line@@ 14033
Krimin@@ 14032
Benz 14028
Work@@ 14028
oph 14028
28@@ 14023
Matr@@ 14023
eno 14023
gebrochen 14021
70@@ 14019
Gül@@ 14014
ui 14010
Conference 14004
esz@@ 14003
aqu@@ 14002
ware 14002
Vie@@ 14001
blu@@ 13995
entwick@@ 13994
kmäler 13991
Strand 13989
Antwer@@ 13976
124@@ 13975
Leiden 13972
North@@ 13970
o- 13970
Cher@@ 13969
herz@@ 13968
Gür@@ 13965
cup@@ 13964
Rön@@ 13963
Eintracht 13962
zy 13958
aks 13956
wann 13955
Dan 13953
Lux@@ 13947
lier 13945
Melbourne 13939
17,@@ 13938
chow 13938
Ou@@ 13927
Charlot@@ 13909
dati@@ 13906
École 13905
Atlan@@ 13903
vat@@ 13903
División 13898
Charlie 13896
erd@@ 13896
neutr@@ 13892
uck@@ 13888
ür 13882
ror@@ 13881
time 13878
Is 13877
Kaisers@@ 13877
enzel 13874
Reichstag 13864
zir@@ 13864
sogen@@ 13862
Home 13858
lav 13855
otr@@ 13855
status 13851
bereitung 13849
proch@@ 13839
bun@@ 13838
Fac@@ 13832
pos 13827
Adap@@ 13822
Mitgli@@ 13821
Florian 13815
UCI 13814
pati@@ 13813
enheiten 13811
­ 13810
gespi@@ 13806
Cin@@ 13805
CS 13794
forderungen 13789
amba 13781
pause 13781
U20 13775
Aster@@ 13770
kör@@ 13767
verse 13765
enheim 13759
Ägyp@@ 13755
nhof 13749
Wass@@ 13744
Hubert 13741
Cross 13740
amo@@ 13737
Mili@@ 13736
Söh@@ 13734
polize@@ 13730
Wild 13729
aci@@ 13728
him@@ 13726
3.000 13719
Irak 13718
bos@@ 13716
af 13714
kind 13708
Anthro@@ 13702
Lug@@ 13700
aye 13699
trau@@ 13699
Liter@@ 13698
Demok@@ 13697
itor 13689
mack 13689
relev@@ 13684
ush@@ 13683
1,3 13682
amin@@ 13677
Dance 13675
1796 13674
msh@@ 13674
gelen@@ 13673
Du 13669
Joh@@ 13663
Gis@@ 13662
ümer 13662
Rugby 13661
aal 13660
Down@@ 13655
50.000 13651
Vancouver 13651
ban 13651
30.000 13638
Are@@ 13634
PC@@ 13634
Afr@@ 13627
uft 13625
Kem@@ 13623
Laus@@ 13621
öz@@ 13621
1300 13615
Nicolas 13612
virtu@@ 13612
Dün@@ 13611
cal@@ 13607
ö 13606
Expan@@ 13605
Pad@@ 13604
cas@@ 13603
identen 13596
4000 13595
rede 13592
DF@@ 13589
Adri@@ 13586
gene 13583
Französ@@ 13579
Tep@@ 13569
Ō@@ 13569
plant 13568
digungs@@ 13562
Sultan 13561
haupt 13558
gü@@ 13555
IF 13552
Fox 13549
inae 13549
usa 13548
nig@@ 13537
konom@@ 13534
Walther 13532
Master@@ 13529
ption 13529
Bruce 13527
Gemäl@@ 13527
hur@@ 13523
Mountain 13519
fron@@ 13511
Peg@@ 13510
AF 13506
romanti@@ 13505
1791 13504
Topo@@ 13503
ido 13503
kong 13503
Marcel 13499
vin 13497
Institution 13495
Siemens 13493
elia 13493
sö@@ 13489
Sok@@ 13484
ango 13484
Amp@@ 13482
masse 13480
öhn@@ 13473
Dic@@ 13472
Grön@@ 13471
Pep@@ 13469
pendi@@ 13467
Fair@@ 13466
üd@@ 13466
mond 13459
mium 13454
Comp@@ 13451
Jen@@ 13450
gür@@ 13449
Indiana 13445
Auguste 13443
Yam@@ 13440
eppe 13434
stone 13433
PE@@ 13431
S.@@ 13430
upp@@ 13428
And@@ 13426
non 13411
bra 13409
Bell 13408
1784 13403
Lah@@ 13395
Scho@@ 13393
Bayreuth 13388
HMS 13387
Chan@@ 13383
Ja@@ 13383
Sequ@@ 13382
iller@@ 13380
uf 13377
out@@ 13376
Nom@@ 13374
Mont 13373
U23 13362
imer 13361
tius 13360
graphie 13356
sec@@ 13355
imi 13354
Fj@@ 13353
Communauté 13352
AE@@ 13347
Weis@@ 13346
Mississippi 13341
Korn@@ 13337
Nan@@ 13335
ebe@@ 13333
Verbreit@@ 13329
Cruz 13323
RC 13323
star 13322
thoden 13322
Atlanta 13315
aße 13315
GT@@ 13311
Haw@@ 13311
NE@@ 13310
AP 13308
Standards 13308
Male 13300
demok@@ 13297
Tschech@@ 13296
Philippe 13295
Range 13293
Cli@@ 13291
register 13290
Beck 13283
Fra@@ 13281
Bish@@ 13280
utige 13279
oli@@ 13272
Jane 13271
ammen 13269
1780 13266
Che@@ 13265
Schwarzen@@ 13265
Türk@@ 13261
Metz@@ 13260
Roy 13259
Holding 13253
Hang 13248
Sac@@ 13234
garanti@@ 13234
multi@@ 13234
Barn@@ 13230
These 13229
Cricket 13228
akt@@ 13228
jung@@ 13228
rey 13228
oy 13225
ce@@ 13221
Area 13217
key 13217
AG@@ 13216
Arizona 13209
Last 13209
ng 13206
Kra@@ 13202
Eli@@ 13199
anti 13196
drama 13196
Pakistan 13195
EB 13179
ambi@@ 13179
alternati@@ 13177
üler 13177
Erik 13174
Aller@@ 13172
Braun 13166
illo 13166
Up@@ 13158
Bett@@ 13156
Magazine 13150
dun@@ 13150
Ergeb@@ 13149
hes 13145
Porsche 13140
andes 13140
Normandie 13139
pler 13136
yk@@ 13135
Farm@@ 13130
ims 13129
Katal@@ 13126
Sad@@ 13125
Horiz@@ 13122
Württem@@ 13120
ibn 13120
Special 13116
dal@@ 13111
TC 13106
Cad@@ 13104
sidi@@ 13104
yr 13102
cel@@ 13101
sens@@ 13099
fing 13092
Québec 13091
ż@@ 13090
aver@@ 13089
SD 13088
komp@@ 13088
Copa 13087
laf 13087
Mog@@ 13084
HP 13083
Railroad 13083
Physi@@ 13082
HF 13081
Not 13080
Server 13072
Kevin 13070
Sap@@ 13070
Motors 13067
Sher@@ 13067
top@@ 13067
umstr@@ 13065
CI@@ 13061
Invasion 13061
eman 13061
ändert 13061
Boul@@ 13060
after 13057
Vä@@ 13056
Berger 13052
TU 13051
Hahn 13044
Rall@@ 13041
oria 13040
Gas 13036
Loth@@ 13035
oslaw@@ 13033
Labor 13028
endem@@ 13028
1,6 13027
ampe 13027
Municipio 13021
Mey@@ 13020
Alger@@ 13016
Gabri@@ 13015
Glad@@ 13012
ansen 13009
rap@@ 13007
glo@@ 13003
icks 12998
1785 12992
Dublin 12992
RTL 12991
Southern 12990
115@@ 12989
ry@@ 12985
Afro@@ 12983
eda 12980
lock@@ 12978
Ast@@ 12973
Sie@@ 12968
Apol@@ 12965
bud@@ 12965
last 12965
exp@@ 12959
ihr@@ 12959
situation 12959
tum@@ 12959
1750 12958
Kuba 12954
illing 12954
Leichtath@@ 12948
helm 12947
Extr@@ 12937
minim@@ 12935
icz 12928
itus 12926
Commonwealth 12924
Gertru@@ 12923
Music@@ 12923
Amin@@ 12922
Heck@@ 12922
tradi@@ 12921
imi@@ 12917
anga 12914
Tower 12913
iber@@ 12911
lave 12908
hut 12907
tions 12907
1787 12905
AT 12902
Vent@@ 12893
elder 12890
Department 12888
jew@@ 12888
brief 12887
Green@@ 12886
Opera 12886
Stone 12883
aba 12882
smann 12871
wski 12870
plant@@ 12860
views 12859
Stal@@ 12858
ionale 12854
Lazar@@ 12853
′ 12853
170 12849
Lom@@ 12848
Posi@@ 12848
Office 12847
Chlor@@ 12846
Bé@@ 12842
Kō@@ 12841
Liverpool 12841
Box 12840
Premier@@ 12836
xes 12836
quer@@ 12830
morph@@ 12829
Masters 12827
ücksich@@ 12826
Saf@@ 12822
gik 12820
imo 12814
antes 12812
patr@@ 12811
Stewart 12808
nad 12808
pologie 12807
itation 12806
beispi@@ 12805
Paulus 12802
Tennessee 12802
oker 12800
elin 12796
bett 12793
lor@@ 12790
dimen@@ 12788
denk@@ 12786
35@@ 12785
ott@@ 12783
Challenge 12780
Cover 12774
bie 12774
Tang@@ 12771
25@@ 12769
Glo@@ 12766
Kaz@@ 12764
ehnt 12762
Magnus 12761
abstr@@ 12761
tat 12761
Alphab@@ 12759
kamer@@ 12755
Afghanistan 12754
Gött@@ 12753
üst 12753
Maine 12750
fers 12750
mul@@ 12745
verur@@ 12745
MW 12742
rh@@ 12742
Robin 12741
Schum@@ 12740
meist@@ 12739
Arte@@ 12736
29@@ 12729
119@@ 12714
änk@@ 12712
set 12711
entsprech@@ 12710
agno@@ 12708
Riga 12706
uster 12704
embr@@ 12703
MI@@ 12698
Lincoln 12696
Observat@@ 12695
Viktor 12687
ado@@ 12687
esi 12687
Café 12686
heren 12681
Inner@@ 12680
Edmund 12679
Neuf@@ 12676
spir@@ 12675
AM 12673
meyer 12673
Hop 12672
tow 12672
orts 12671
Ursula 12669
History 12665
Margaret 12659
Vek@@ 12658
Ve@@ 12653
Mönchenglad@@ 12647
Sid@@ 12647
1400 12645
lion 12641
erkenn@@ 12637
tage 12636
Sierra 12635
Agnes 12634
Jam@@ 12634
sage 12631
Fan@@ 12628
zial@@ 12626
orith@@ 12625
Magaz@@ 12624
listen 12622
any@@ 12621
uno 12621
Khan 12617
cr@@ 12612
ektur 12611
Franc@@ 12608
Wolff 12608
mission 12607
AZ 12606
final@@ 12605
amo 12603
studio 12602
Microsoft 12599
è@@ 12599
Car 12598
iri 12598
sv@@ 12597
roch@@ 12593
Connecticut 12592
Nick 12590
zz@@ 12588
Singapur 12587
iti 12585
ensive 12574
Stach@@ 12567
elsweise 12566
µ@@ 12566
Spit@@ 12555
Soundtrack 12554
fonds 12554
core 12552
parlament@@ 12548
Köl@@ 12538
sko@@ 12537
Lloyd 12533
ress@@ 12529
Lüb@@ 12528
shut 12528
eni 12524
astrophe 12522
Wall 12521
cio 12521
Global 12519
Pach@@ 12514
Emma 12511
park@@ 12504
ová 12502
Antoine 12498
Fund 12498
Brom@@ 12493
enname 12491
Suff@@ 12486
oro 12479
Manga 12470
Performance 12470
Zuh@@ 12467
quer 12467
Miami 12465
Jordan 12458
Australia 12452
ave 12448
kas 12448
Sainte 12446
Aar@@ 12444
Bologna 12440
aa 12438
istan 12438
DIN 12435
Hartmann 12426
Esp@@ 12425
inz@@ 12422
Up 12417
mans 12416
Ment@@ 12415
anter 12411
igny 12407
esland 12404
ses@@ 12403
Social 12402
Magdalena 12399
haup@@ 12396
binden 12383
eption 12377
Clo@@ 12375
Boris 12369
Fem@@ 12364
Konstantin 12363
maxim@@ 12363
Jahrzeh@@ 12362
AD 12357
resp@@ 12356
Napole@@ 12352
lon 12352
rab@@ 12351
ross 12351
reden 12348
Küst@@ 12347
Via 12346
ean@@ 12345
ilo 12343
3D 12342
Clu@@ 12342
efs 12341
DS@@ 12340
Gotha 12339
On 12338
Place 12338
Sofia 12338
Neumann 12333
Ordin@@ 12326
Sas@@ 12326
bibl@@ 12326
Tod@@ 12325
Gottlieb 12324
deb@@ 12322
versorg@@ 12319
zim@@ 12316
Navig@@ 12310
Nelson 12309
Patent 12309
ů@@ 12308
terie 12306
Edgar 12302
elis 12302
Clara 12300
AL 12298
mid@@ 12293
dek@@ 12289
Mü@@ 12285
ando 12285
gast@@ 12281
Roma 12280
Barthol@@ 12278
dev@@ 12276
eran 12273
ometr@@ 12272
1786 12264
Shanghai 12264
phe 12263
bloc@@ 12249
1,4 12246
Magistr@@ 12240
than 12238
Axel 12232
M.@@ 12229
Reli@@ 12225
Norbert 12222
Nä@@ 12220
gesell@@ 12220
GT 12217
Harris 12216
Forest 12212
Dave 12211
Dill@@ 12209
Bayer 12208
Puerto 12208
molek@@ 12205
o. 12205
Studies 12204
italien@@ 12202
Pilot 12198
stud@@ 12198
tec@@ 12194
och 12193
rekor@@ 12190
now 12189
fa 12186
eure 12185
Denis 12184
fj@@ 12180
oba@@ 12179
sober@@ 12177
Dy@@ 12172
stieg@@ 12170
hing@@ 12168
Ruth 12167
lings 12165
CC 12164
Taiwan 12161
timi@@ 12158
ichi 12155
national 12155
Maul@@ 12146
mor 12142
tras@@ 12133
aik@@ 12132
piel 12130
cap@@ 12129
tu 12120
otes 12115
1788 12109
TS 12106
ungsgebiet 12104
E.@@ 12099
LA 12095
Institut@@ 12094
stan 12094
ques 12092
elerin 12091
1,8 12090
20,@@ 12088
igration 12083
ament 12078
Konf@@ 12076
nun@@ 12075
thes@@ 12074
wet@@ 12074
repar@@ 12071
Weihnach@@ 12064
igu@@ 12063
genöss@@ 12057
enza 12053
Lawrence 12051
cer@@ 12049
opti@@ 12048
Canada 12029
rie 12028
Sage 12027
220 12026
tie 12024
Palm@@ 12022
Dir@@ 12011
Carl@@ 12009
Hip 12007
depor@@ 12006
CC@@ 12003
Gestapo 12002
KA 12000
Wh@@ 11999
chl@@ 11999
akter 11993
onder@@ 11989
IUCN 11988
abs@@ 11988
ossig@@ 11988
rass@@ 11987
pp 11986
Porto 11983
sum 11982
Ralph 11981
Franklin 11979
SF@@ 11974
Map@@ 11972
Captain 11967
Klo@@ 11966
nia 11966
pent@@ 11964
Lil@@ 11961
tari@@ 11958
trin@@ 11958
institut 11956
esta 11955
ep 11952
uls 11951
Cath@@ 11946
Ech@@ 11946
ogie 11945
tome 11944
Martin@@ 11937
owitz 11936
EN 11927
1783 11925
Hot 11922
Stade 11918
ographi@@ 11915
Hep@@ 11900
Mans 11900
osph@@ 11900
Å@@ 11897
Departamento 11894
Melo@@ 11890
amin 11884
IF@@ 11880
Pac@@ 11880
Frit@@ 11879
f. 11878
Laura 11876
Bolivi@@ 11875
rung 11875
garde 11870
mund@@ 11866
Russell 11865
lab@@ 11861
ev 11855
Sever@@ 11849
dom 11849
Disney 11848
Liechtenstein 11848
parlam@@ 11847
Comics 11841
Chil@@ 11837
Oran@@ 11831
114@@ 11830
Grap@@ 11830
agu@@ 11828
Baur@@ 11823
ächs@@ 11823
1770 11822
Heidel@@ 11821
Cham@@ 11817
Trophy 11807
ely 11805
diagnos@@ 11801
Il 11800
Gon@@ 11798
house 11798
Iowa 11786
tun@@ 11784
Mixed 11783
Wey@@ 11780
Argent@@ 11777
Lucas 11776
kuli@@ 11775
sus 11775
Cla@@ 11773
dere 11769
Sob@@ 11768
Rotterdam 11767
derin 11767
Gly@@ 11762
Nun@@ 11757
ç@@ 11757
Uh@@ 11755
lime 11754
tom 11753
int 11752
Vietnam 11751
press@@ 11750
eh 11749
appar@@ 11748
engag@@ 11747
Zap@@ 11746
node 11745
Gli@@ 11742
Plateau 11740
wuch@@ 11734
lot 11732
Will 11730
Morgan 11729
kant@@ 11727
Frederick 11724
vek@@ 11719
Orleans 11717
Sn@@ 11714
zeu@@ 11714
1772 11712
ough 11712
hem@@ 11710
Platt@@ 11704
ald@@ 11699
Wikipedia 11697
Miss 11694
Soci@@ 11694
cho 11689
Rid@@ 11679
Ott@@ 11678
Lak@@ 11675
ID 11674
jed@@ 11666
Auschwitz 11663
15.000 11659
Eul@@ 11659
SB 11659
Leist@@ 11658
Ann 11657
ikos 11656
kilom@@ 11651
Kabar@@ 11648
adas 11645
ymnas@@ 11644
ull@@ 11643
klinik 11641
flotte 11637
Dub@@ 11636
Hend@@ 11635
aven@@ 11635
38@@ 11632
Gus@@ 11630
Mode 11630
MC 11629
Propaganda 11629
IB@@ 11628
ashi 11621
rock 11614
Kongo 11610
ka@@ 11609
org 11608
Caroline 11607
Fit@@ 11607
N. 11606
kü@@ 11600
sions 11600
oter 11598
118@@ 11597
Nova 11596
orit@@ 11594
Od@@ 11592
aco 11591
Dani@@ 11584
thode 11582
ady 11576
lies 11576
Renault 11575
cre@@ 11575
Chanc@@ 11571
Monument 11569
yen 11569
Jonathan 11568
18,@@ 11567
Jung 11563
kern@@ 11558
· 11553
erre@@ 11551
aman@@ 11544
dorff 11544
BK 11543
Uruguay 11543
transport 11543
Farm 11542
jana 11542
kritik 11541
Signal 11532
Bowl 11521
Herb@@ 11520
from 11519
fot@@ 11518
osaur@@ 11517
Johan 11515
102 11511
Freib@@ 11510
myth@@ 11509
Haute 11507
adap@@ 11503
Nem@@ 11502
Olympia 11498
Jens 11497
Melodi@@ 11495
én@@ 11495
igner 11490
kehr 11488
SE 11487
pass 11487
troff@@ 11484
Polit@@ 11476
BS 11474
Metz 11473
Sey@@ 11473
Trich@@ 11473
agen@@ 11472
Worms 11469
yi 11467
baden 11465
360 11464
Lang 11460
bit 11458
block 11457
1775 11455
Centr@@ 11454
Marseille 11454
tic 11450
gia 11449
Zel@@ 11446
Harr@@ 11442
Lisa 11442
Origin@@ 11438
negative 11433
Rok@@ 11432
Broadway 11427
absolute 11424
seurs 11423
enst 11419
riss 11418
FIFA 11416
ubil@@ 11416
Fland@@ 11409
Quint@@ 11408
egger 11401
web@@ 11399
Rib@@ 11396
geti@@ 11395
Partn@@ 11394
meth@@ 11394
Rup@@ 11392
HD 11389
kno@@ 11389
Klem@@ 11385
kon 11375
Avenue 11365
O. 11356
eira 11356
tle 11356
zep@@ 11349
bak@@ 11346
Pent@@ 11336
CT@@ 11328
Virus 11328
ymologie 11326
fon@@ 11322
town 11317
ble 11314
Aub@@ 11313
RO@@ 11312
online 11309
News 11308
idel@@ 11308
19,@@ 11305
Ral@@ 11305
Gramm@@ 11302
.com 11301
Dynamo 11295
Cock@@ 11291
nau 11288
ize 11286
Match 11282
matr@@ 11280
AA 11276
Wais@@ 11273
Houston 11270
mom@@ 11268
KO 11265
Kelly 11265
amide 11263
Marqu@@ 11261
tad@@ 11261
aris 11255
Rechtsan@@ 11254
Michel@@ 11252
austr@@ 11252
Lyr@@ 11251
elli@@ 11248
scheinlich 11245
Engineering 11242
tran@@ 11242
izer 11240
Miguel 11236
potenti@@ 11234
Plant@@ 11232
baller 11228
ugu@@ 11226
ösung 11226
Deh@@ 11225
ated 11222
iums 11221
104 11217
End 11216
amer 11212
var 11206
Kennedy 11203
oga 11201
Ey@@ 11200
atum 11197
dale 11194
Kind@@ 11188
jus@@ 11187
uta 11186
Contest 11184
Amph@@ 11183
grav@@ 11182
sexuelle 11170
Hack@@ 11168
atio 11167
nel 11157
Tad@@ 11154
DI 11150
Story 11147
atlan@@ 11146
raf@@ 11145
Nations 11144
tium 11140
rei 11139
isser 11138
ody 11137
German 11136
abel@@ 11134
bor 11134
itte 11134
Pietro 11133
Spo@@ 11130
indon@@ 11129
VI 11128
Fernando 11126
communes 11126
row@@ 11121
Jel@@ 11120
Marketing 11119
Andy 11118
play 11115
Hebr@@ 11114
Nest@@ 11114
Maryland 11111
akus@@ 11105
Mars 11104
argum@@ 11101
Raymond 11100
ás@@ 11099
Walker 11098
Peak 11097
sau 11097
verti@@ 11093
1782 11090
117@@ 11088
Bit 11088
Imag@@ 11087
II@@ 11082
Rig@@ 11082
Alpes 11081
ential 11080
Situ@@ 11075
Student 11075
135 11072
Heli@@ 11067
1776 11065
Höch@@ 11061
iers 11061
ub 11060
aken 11057
Zin@@ 11056
Rho@@ 11052
ji@@ 11047
Antonius 11042
Go 11037
Kak@@ 11036
Graham 11035
schel 11033
Canadian 11032
Senior 11029
con 11029
dri@@ 11027
ISO 11026
entale 11025
AK 11024
mad@@ 11024
wat@@ 11023
Dü@@ 11021
Hanno@@ 11020
ever 11019
teams 11018
umi 11018
sämt@@ 11017
Wick@@ 11015
Veter@@ 11010
rem@@ 11005
6.000 10998
Roch@@ 10997
Komman@@ 10991
GG 10986
ows 10986
kins 10969
sees 10969
Korea 10967
Stud@@ 10965
Ahr@@ 10964
Boys 10963
cy 10963
eme@@ 10962
Baby 10959
kowski 10958
Hills 10956
antik 10956
Recher@@ 10955
Ś@@ 10953
Nav@@ 10952
Mail@@ 10950
hum@@ 10942
suchung 10942
Campbell 10941
Ukrain@@ 10937
gänger 10937
Sph@@ 10936
0.@@ 10935
Busch 10933
ting@@ 10929
lov@@ 10927
onym@@ 10925
Magn@@ 10923
wider 10922
rode 10915
Ax@@ 10914
Schü@@ 10912
Amateur 10911
Evans 10910
mir@@ 10909
4.000 10903
feu@@ 10896
oka 10895
dest@@ 10894
dner 10893
tons 10893
fft 10888
Empire 10883
ye@@ 10883
leihung 10882
Diöz@@ 10880
opath@@ 10879
Favor@@ 10876
reuth 10876
subj@@ 10874
115 10873
Ltd. 10872
uktur 10870
Duc@@ 10864
Nab@@ 10862
Rhône 10862
berücksich@@ 10862
leer 10861
legend@@ 10859
Peters 10858
eux 10857
MO@@ 10855
Base 10854
Tes@@ 10850
üt 10845
Lieutenant 10841
mas 10841
Zü@@ 10839
Niz@@ 10838
pith@@ 10838
tus@@ 10838
ehemal@@ 10836
Iz@@ 10829
Tig@@ 10829
ouverneur 10828
reh@@ 10828
Pag@@ 10827
128 10825
partement 10825
che@@ 10819
DR@@ 10817
onal 10814
endr@@ 10812
Dallas 10810
din@@ 10800
Inst@@ 10799
Sant 10799
oppel 10799
1777 10798
cz@@ 10797
Tamb@@ 10794
gres@@ 10789
inea 10789
messe 10789
Dit@@ 10785
Row@@ 10784
Weiss 10784
Malta 10783
Cant@@ 10782
5,5 10781
Ernest 10779
Kentucky 10779
anos 10779
Gaz@@ 10778
ups 10778
oug@@ 10776
oshi 10774
Stuart 10769
Häf@@ 10768
Comic 10767
Development 10766
empir@@ 10763
kot@@ 10763
uts 10759
isi 10758
anim@@ 10756
Planck 10754
paz@@ 10750
omo 10744
gy 10742
Tin@@ 10740
gefasst 10740
arch 10737
Northern 10729
Meteor@@ 10727
fördert 10727
Gün@@ 10726
side 10726
ifer@@ 10724
Cann@@ 10722
staff@@ 10722
Squ@@ 10721
Holocaust 10718
Wr@@ 10715
now@@ 10715
mos 10713
Community 10711
ising 10711
liedert 10709
elde 10708
Boeing 10703
Quadr@@ 10699
Cir@@ 10696
Hubble 10694
propag@@ 10691
33@@ 10688
fix@@ 10681
spur 10679
intern 10678
Apple 10677
rod@@ 10673
nice 10671
uche 10668
Carr@@ 10666
Madonna 10663
emin@@ 10661
Greg@@ 10659
Hohenzol@@ 10658
nic@@ 10658
Lub@@ 10655
mass@@ 10655
Mex@@ 10654
Alo@@ 10653
red 10653
Alois 10651
Islands 10651
Parker 10646
Dez@@ 10643
imes 10642
parte 10639
parall@@ 10638
lac@@ 10630
Google 10627
Murray 10626
Lamb@@ 10625
Li 10625
icum 10625
ER 10624
YouTube 10623
ries 10617
dram@@ 10613
kamp 10611
öffentlich@@ 10611
Tai@@ 10605
Brooklyn 10602
itis 10593
aliz@@ 10592
iles 10592
Turner 10590
Wul@@ 10589
nik@@ 10588
part@@ 10587
Ear@@ 10583
normale 10578
Geometr@@ 10577
überras@@ 10576
EL@@ 10571
Thompson 10571
ė 10569
Kalin@@ 10568
Beng@@ 10563
Glau@@ 10563
iks 10560
lev@@ 10560
odo@@ 10557
Taun@@ 10554
Cus@@ 10552
distr@@ 10552
Austin 10548
part 10548
Kairo 10547
regu@@ 10545
Places 10537
bevor@@ 10535
Architek@@ 10534
ń@@ 10534
Luftw@@ 10532
legend 10532
Jos@@ 10530
25.000 10528
Sex 10528
respond@@ 10525
kurren@@ 10522
Bill@@ 10518
ennes 10514
1778 10510
aç@@ 10508
Franco 10506
Network 10503
Tobias 10500
ham@@ 10499
kar 10498
sing 10497
Bart@@ 10496
Year 10494
Administration 10493
Def@@ 10493
rell 10492
Anime 10489
Pharm@@ 10489
dens 10486
Berth@@ 10484
Slam 10482
Lei@@ 10479
Gron@@ 10473
Design@@ 10471
Gom@@ 10471
Julian 10471
Kongr@@ 10465
Limous@@ 10464
cul@@ 10464
Hawaii 10463
zust@@ 10460
atives 10459
Zen@@ 10458
ettel 10457
gestell@@ 10456
103 10455
Gary 10454
öffent@@ 10453
internationales 10446
108 10445
Light 10444
Zagreb 10440
Ursprüng@@ 10433
öster@@ 10432
Germania 10429
Pes@@ 10421
• 10421
AK@@ 10420
üglich 10420
Ame@@ 10418
Magde@@ 10418
board 10417
down 10417
idi 10417
Scha@@ 10415
Urban 10408
style 10405
wich 10405
Dj@@ 10403
aggres@@ 10402
ingu@@ 10401
ê@@ 10400
1773 10399
Agent 10397
öre 10395
theaters 10393
vent@@ 10385
eti 10379
lux@@ 10379
niveau 10378
explo@@ 10376
ünst@@ 10376
nica 10373
Zol@@ 10372
eer 10369
Billboard 10368
onial@@ 10360
pin 10359
anes 10358
Punk 10353
hir@@ 10353
Ves@@ 10351
Lun@@ 10349
Italia 10348
polar@@ 10348
Trav@@ 10343
1763 10334
verte@@ 10334
Level 10332
uro 10332
Sah@@ 10329
Guy 10327
thel@@ 10327
vi 10327
SP 10326
GP@@ 10325
Out 10324
alla 10324
Monte@@ 10323
Camp 10320
6,5 10319
Cooper 10317
oks 10314
suche 10313
aca 10311
Ryan 10308
CO 10305
Say@@ 10302
IN 10301
Emanuel 10297
acc@@ 10290
240 10289
Syr@@ 10288
Relief 10287
Sib@@ 10285
Vall@@ 10279
María 10278
ony 10278
zerst@@ 10275
Hr@@ 10274
Independent 10273
mandos 10272
Elite 10271
eria 10271
ə@@ 10269
Seoul 10260
Silva 10260
BR@@ 10258
chin 10256
Tann@@ 10255
val 10254
We 10250
admir@@ 10249
Bordeaux 10248
Gene 10246
MTV 10244
Comedy 10243
antisemiti@@ 10242
muth 10236
ā 10236
presse 10235
yan@@ 10233
eon 10231
moor 10230
Braunschwe@@ 10228
Journ@@ 10222
gebi@@ 10222
Alp@@ 10220
bon 10220
1774 10217
AF@@ 10212
mikro@@ 10212
branche 10211
ii 10211
viol@@ 10209
Est 10207
lender 10203
Services 10202
uri@@ 10201
bon@@ 10200
Ere@@ 10195
plus 10193
tille 10193
vet@@ 10193
Luigi 10189
apar@@ 10189
Berkeley 10188
Ski 10187
Sri 10187
say 10183
Histori@@ 10180
1100 10179
Botan@@ 10177
Allgem@@ 10172
Hansen 10171
dör@@ 10171
Sais@@ 10169
but 10166
Baron@@ 10165
intel@@ 10164
ommun@@ 10162
Ces@@ 10161
jar@@ 10161
Cleveland 10160
Katalog 10159
Kah@@ 10158
Birmingham 10155
Innov@@ 10155
NA 10153
mitt 10150
Grant 10147
aj 10145
Fell@@ 10143
Pis@@ 10142
ering 10142
neurs 10142
arina 10141
tika 10139
Kut@@ 10138
andal 10137
are@@ 10133
1760 10132
Dokument@@ 10132
Oregon 10132
Bois 10131
FP@@ 10131
erland 10131
Matt 10130
Aber@@ 10129
Thai 10129
Jonas 10128
Coast 10124
40.000 10123
Rag@@ 10122
Fa@@ 10119
Mail 10119
Matrix 10119
Edi@@ 10117
Rue 10113
Alabama 10108
Bismarck 10101
Wrestling 10100
Australi@@ 10094
yo 10094
Nancy 10093
C.@@ 10092
bli@@ 10091
1,1 10088
Carter 10082
kler 10082
Ard@@ 10080
ras 10080
nad@@ 10078
a- 10077
Vision 10075
Robinson 10069
Dennis 10067
EN@@ 10067
Lon@@ 10066
loss 10063
aillons 10062
Classic 10055
gefang@@ 10052
Be 10048
Zuc@@ 10048
ecklen@@ 10046
Dus@@ 10044
Louisiana 10042
106 10041
AV@@ 10041
analog 10041
XX@@ 10038
Book 10033
fabr@@ 10033
Bam@@ 10029
ký 10025
Seattle 10024
ios 10022
SD@@ 10020
itze 10020
1781 10019
Warner 10019
Primera 10016
but@@ 10013
Vegas 10012
Action 10010
IG@@ 10010
lop@@ 10006
Anatom@@ 10005
Saw@@ 10004
Gmina 10003
alam@@ 10001
chrom@@ 10000
etik 9997
urer 9997
Buddh@@ 9991
Claus 9990
Extrem@@ 9990
Catherine 9989
Salvador 9989
Eddie 9988
Eurovision 9987
Championships 9985
Venezuela 9984
Shō@@ 9982
hig 9981
ulus 9981
Brah@@ 9974
oo 9972
Darm@@ 9970
Ré@@ 9969
worben 9969
1740 9968
Java 9966
Rast@@ 9965
Shin@@ 9965
äude 9964
MS@@ 9962
uba 9960
i. 9959
Commission 9958
jet 9957
zo@@ 9957
K.@@ 9956
oke 9956
sers 9953
volumen 9953
Martha 9950
own 9948
quit@@ 9948
reser@@ 9947
lieben 9943
Marianne 9940
Down 9938
Salon 9938
radik@@ 9937
Zoo 9936
beinhal@@ 9936
nu@@ 9933
var@@ 9932
Epis@@ 9926
Sergei 9921
uge 9921
Knight 9919
gradu@@ 9911
fä@@ 9909
yer@@ 9908
Das@@ 9907
MG 9906
personal 9903
eph@@ 9901
czy@@ 9899
Boy 9898
formal 9897
£ 9896
Town@@ 9894
I.@@ 9893
Morris 9893
Head 9891
Tech@@ 9889
34@@ 9888
Invent@@ 9888
uli 9888
Funk 9887
anno@@ 9886
dir 9886
erium 9883
okol@@ 9877
u.@@ 9875
strik@@ 9873
Universit@@ 9869
Orth@@ 9867
mant@@ 9867
Mine 9865
autom@@ 9860
Spl@@ 9858
FM 9856
Tō@@ 9856
my 9856
wit@@ 9856
EP@@ 9854
rou@@ 9854
12.@@ 9853
Bundest@@ 9852
Admir@@ 9851
Wright 9848
unt 9848
90@@ 9846
Your 9845
over 9844
Abu 9843
profess@@ 9839
Nos@@ 9838
oner 9837
t. 9836
acks 9834
sist@@ 9833
Alberto 9830
AR 9828
Brothers 9826
format 9825
Hard 9824
Lars 9817
116@@ 9816
Modern 9816
pier@@ 9813
Sibir@@ 9812
elius 9812
anj@@ 9811
24,@@ 9810
Sund@@ 9810
Apo@@ 9808
Ut@@ 9805
mac@@ 9797
107 9796
CO2 9796
Kai 9796
seri@@ 9795
auftrag@@ 9792
dul 9792
Bub@@ 9791
Diam@@ 9784
üfung 9781
NN 9779
kne@@ 9775
stad 9775
ae@@ 9774
biot@@ 9774
oslo@@ 9770
Medical 9767
Mack@@ 9762
effer 9759
escu 9758
label 9758
200.000 9754
kut@@ 9752
lleg@@ 9752
Sea 9747
icker 9747
bekleid@@ 9745
brun@@ 9744
Rosenberg 9742
1,7 9739
Pall@@ 9739
ograph 9738
Barbar@@ 9735
Dow@@ 9732
Manhattan 9730
1779 9727
öße 9726
Good@@ 9725
Event 9724
Graph@@ 9720
biologie 9716
lot@@ 9714
Og@@ 9711
vie@@ 9711
fos@@ 9709
Claudia 9704
Malaysia 9703
Alaska 9701
Mongol@@ 9700
ago@@ 9699
PO 9695
borough 9694
Gard@@ 9692
Snow@@ 9692
tas 9692
Elis@@ 9691
Thriller 9690
Parroquia 9689
Linux 9688
uni 9687
Radio@@ 9686
plex@@ 9686
eni@@ 9685
tifik@@ 9681
zh@@ 9679
AU 9676
Field 9676
Ł@@ 9673
Alar@@ 9672
polog@@ 9670
Trump 9668
Lords 9666
Jules 9660
head 9656
anik 9653
Oswald 9652
Gilbert 9651
Scar@@ 9651
van@@ 9650
Phoenix 9648
hard@@ 9648
25,@@ 9647
Orange 9647
2,4 9643
.. 9632
Faus@@ 9631
111 9630
Château 9624
beb@@ 9624
Carol@@ 9620
Digital 9620
eros 9613
Brow@@ 9609
arme 9609
musikal@@ 9606
õ@@ 9606
Präf@@ 9603
39@@ 9599
BE 9599
dick 9599
Fantasy 9598
Gig@@ 9598
isp@@ 9592
Jason 9591
azer 9591
lex@@ 9590
Académie 9587
1730 9586
bist@@ 9586
sort 9585
jer@@ 9583
Harold 9582
0,2 9581
Kent 9581
Universal 9580
Serge@@ 9576
administr@@ 9572
institu@@ 9572
Faust 9570
ruption 9570
Regional 9569
Moor 9568
WG 9568
ebil@@ 9568
kontr@@ 9568
rev@@ 9567
Buk@@ 9565
gor@@ 9565
amme 9562
plasti@@ 9560
Atlantik 9559
tru@@ 9558
Zh@@ 9557
Indian 9556
agan 9551
mü@@ 9551
½ 9548
0,1 9547
Gug@@ 9544
ager@@ 9542
2500 9539
otz@@ 9539
anum 9538
Labor@@ 9537
Teh@@ 9537
Ian 9536
ud 9530
brut@@ 9529
Type 9528
quarti@@ 9528
Pun@@ 9524
rhyth@@ 9523
Inn 9521
anta 9520
Jon@@ 9518
Baker 9517
Sky 9515
cat@@ 9515
Dil@@ 9510
inette 9510
soh@@ 9506
Stall@@ 9505
rosa 9505
109 9502
Names 9501
Fantas@@ 9499
Lima 9498
Solidar@@ 9498
RAF 9495
Santos 9495
Mitt@@ 9493
Phil 9493
Norman 9489
Bristol 9486
Utrecht 9486
transfer@@ 9486
ery 9485
IP@@ 9483
ophi@@ 9480
Bretagne 9470
Rai@@ 9469
inde@@ 9469
Cic@@ 9466
Mini@@ 9466
Tril@@ 9466
com 9466
Nigeria 9464
magne@@ 9460
Glu@@ 9458
trophe 9457
ods 9456
Joint 9454
Wan@@ 9454
wick 9454
Cran@@ 9452
hil 9449
Mozart 9447
én 9447
Bien@@ 9445
Tel 9445
TV@@ 9442
Bobby 9439
ran 9439
Rend@@ 9438
113@@ 9435
Milit@@ 9432
yo@@ 9432
intensive 9430
landen 9428
1715 9423
Tib@@ 9423
Labour 9422
Ell@@ 9421
design 9418
ces 9417
lik 9414
Survey 9413
card 9411
Element@@ 9410
Joan 9410
Henriette 9406
Roberto 9406
Göte@@ 9404
forte 9404
Strauss 9403
atis 9403
Roll 9402
230 9401
Äm@@ 9399
Santo 9396
philosophie 9396
RT@@ 9395
ás 9395
ale@@ 9393
individuelle 9393
Rach@@ 9392
Dark 9391
ros 9391
1648 9384
Chol@@ 9384
owice 9384
Call@@ 9382
eville 9377
Sky@@ 9376
agne@@ 9374
ape@@ 9373
Grammy 9370
Wayne 9370
Rangers 9366
Dirk 9365
Saudi 9365
nati@@ 9364
Lep@@ 9363
PR 9362
Project 9360
Hul@@ 9359
atra 9355
galerie 9355
Lith@@ 9350
Muhammad 9350
Piano 9347
sta 9347
Ign@@ 9342
Hip@@ 9341
ná 9341
0,3 9339
itat 9339
Mac 9338
Brit@@ 9337
Guido 9337
Helena 9334
ember@@ 9332
Tet@@ 9331
hydro@@ 9330
leyball 9330
PG 9325
Reu@@ 9325
Champ@@ 9324
Schumacher 9323
Cros@@ 9322
Inspir@@ 9316
over@@ 9315
manager 9312
Mohammed 9311
Moun@@ 9309
PL@@ 9307
AV 9306
Kaw@@ 9305
bibli@@ 9301
inner 9301
cus 9298
Dok@@ 9295
Old@@ 9293
ating 9292
2,3 9290
obile 9290
Schult@@ 9287
hip 9287
Tommy 9286
Linden 9282
CN@@ 9281
Sot@@ 9280
FO@@ 9278
Tok@@ 9276
oskop@@ 9276
allo 9274
dow 9273
Lingu@@ 9265
Hid@@ 9263
brig@@ 9260
Jord@@ 9259
Pont 9255
Second 9255
Ener@@ 9254
1768 9249
Baltimore 9242
azi@@ 9242
112 9233
Garden 9233
Peti@@ 9229
otti 9228
Entfer@@ 9225
Valentin 9225
Vietnam@@ 9222
greg@@ 9219
manu@@ 9219
ient 9216
ifu@@ 9215
alier 9212
6000 9208
Gez@@ 9205
Hugh 9205
arran@@ 9204
Barry 9203
Yo@@ 9200
Nil@@ 9197
Propag@@ 9193
sad@@ 9188
1765 9184
Dick 9182
alif@@ 9173
vik 9167
Brid@@ 9165
Zim@@ 9163
ray 9161
Lut@@ 9157
hir 9156
Fonds 9152
Tob@@ 9148
{ 9147
1720 9145
italien 9144
650 9143
ego 9143
uerst 9143
imal@@ 9138
fee 9133
rin 9133
nison 9132
ossa 9131
she@@ 9128
Web 9124
PN@@ 9123
Pauli 9122
Krup@@ 9121
Marshall 9119
ô@@ 9119
aves 9118
thor@@ 9117
Mic@@ 9115
22,@@ 9114
Jeff 9112
spor 9112
vid@@ 9112
ě 9111
aer@@ 9108
Bulgar@@ 9106
Christ 9103
Delta 9100
Ten 9099
interne 9098
essin 9094
Dra@@ 9093
aff 9093
yan 9093
Toulouse 9092
Meil@@ 9091
Matthew 9087
D.@@ 9082
hoven 9078
Cannes 9066
plas@@ 9066
Steven 9064
Water@@ 9064
Pittsburgh 9062
IL@@ 9061
Brandt 9054
1753 9053
Lili@@ 9053
innov@@ 9047
Eastern 9046
Dul@@ 9045
regiment 9045
Alexandria 9044
Did@@ 9042
bine 9041
1756 9040
ő@@ 9040
Ehe@@ 9039
Jun@@ 9039
arie 9039
bik 9038
As 9037
strum@@ 9037
Atlas 9034
Spin@@ 9032
Aden@@ 9026
Portland 9025
eback 9020
1771 9018
36@@ 9016
2,2 9014
Rhe@@ 9012
emit@@ 9008
haut 9005
PO@@ 9004
tracht 9003
Rut@@ 9002
organ 9001
Bio@@ 9000
walis@@ 8997
Four 8996
21,@@ 8993
Metropolitan 8989
VW 8989
Lig 8988
Lorenzo 8988
ø 8988
ordin@@ 8987
Pam@@ 8986
Uran@@ 8981
SI@@ 8977
aton 8976
western 8975
onner 8974
320 8971
Library 8971
nem 8968
alin 8967
Herzeg@@ 8966
Sound@@ 8964
atir@@ 8961
atura 8961
Metro 8960
tenstein 8960
emiti@@ 8959
Lok 8958
ophy@@ 8958
Baptist 8957
Notre 8956
ram 8954
23,@@ 8953
relati@@ 8953
Per 8947
App 8944
SV@@ 8944
tempor@@ 8942
Sevilla 8941
Medal 8939
Bangkok 8937
Europameister@@ 8937
loge 8937
190 8934
Cit@@ 8933
kateg@@ 8930
Christina 8927
SI 8925
CV 8924
ruf@@ 8921
ñ@@ 8921
1769 8918
Leonard 8915
A1 8912
Ark@@ 8912
Aristot@@ 8911
Stockh@@ 8910
mon 8910
frau@@ 8905
Capit@@ 8902
Do 8900
Oklahoma 8899
Mez@@ 8897
Arc@@ 8893
act@@ 8891
lis@@ 8888
ulu 8884
Girl 8882
Village 8882
37@@ 8881
1742 8880
onstr@@ 8879
obus 8878
eka 8877
dru@@ 8874
arde 8873
chan@@ 8873
Hill@@ 8871
emat@@ 8869
Shel@@ 8867
12.000 8865
GS 8864
Sven 8864
Set@@ 8863
Integr@@ 8860
stal@@ 8853
ufe 8853
andi@@ 8851
nels 8849
Hist@@ 8845
rose 8840
Double 8837
synchron@@ 8837
Valencia 8836
Sant@@ 8832
Kings 8828
Obr@@ 8827
Kosovo 8824
Mitchell 8823
flor@@ 8823
Elec@@ 8821
Nig@@ 8820
ė@@ 8819
fro@@ 8817
Press 8812
äische 8811
dell 8810
1766 8809
Han 8809
Nass@@ 8806
Kiss@@ 8802
Augusta 8801
hus@@ 8799
Châ@@ 8797
mug@@ 8797
bler 8786
aiss@@ 8784
Heg@@ 8783
ju 8783
Dig@@ 8782
sych@@ 8782
Hund@@ 8779
Cz@@ 8778
ici 8776
Jack@@ 8775
Pus@@ 8775
Besatz@@ 8773
Namibia 8773
ento 8773
pens@@ 8773
ström 8772
reserv@@ 8771
enland 8770
Leon 8768
Duf@@ 8766
Illus@@ 8766
Monum@@ 8763
Track 8763
114 8762
iefs 8761
writer 8760
iw@@ 8759
Hudson 8758
Va@@ 8758
26,@@ 8756
hist@@ 8755
Atlantic 8751
Provence 8751
besteh@@ 8751
550 8748
SM 8747
Steg@@ 8744
201@@ 8743
Mech@@ 8743
museums 8740
Scottish 8738
Tut@@ 8737
Teatro 8735
210 8733
spon@@ 8733
Kim@@ 8732
Electric 8731
variante 8729
Ken 8728
sn@@ 8726
zek 8725
ötet 8725
Olga 8720
Yale 8720
Pog@@ 8719
Aud@@ 8718
WTA 8716
xi 8716
phen@@ 8714
Nie@@ 8711
Madison 8709
rier 8705
Amphi@@ 8703
etal 8702
Buck@@ 8700
insky 8700
1764 8697
medaille 8697
Auvergne 8696
ï@@ 8694
Yor@@ 8692
— 8689
dex 8687
nationales 8686
wind 8685
Ronald 8683
Behr@@ 8682
anas 8680
alre@@ 8679
ensemble 8677
ury 8677
eva 8676
inga 8674
quet 8673
8.000 8671
Fat@@ 8667
Verbesser@@ 8666
Verfüg@@ 8663
Corona 8661
hen@@ 8659
Vig@@ 8657
hand 8656
ABC 8648
Steiner 8648
Ice 8646
Job 8646
Jerry 8645
Roberts 8644
jk 8643
Channel 8642
45@@ 8640
sachsen 8640
entius 8639
Benn@@ 8638
English 8637
Balkan 8634
load 8634
Bibli@@ 8632
ching 8632
ique 8628
1650 8621
Iron@@ 8619
arin 8618
tar 8617
alphab@@ 8615
People 8609
Stoc@@ 8608
porter 8608
Crew 8606
Ley@@ 8606
Ray@@ 8606
stu@@ 8604
Romeo 8603
residi@@ 8603
Diagn@@ 8602
ía 8602
Wood 8600
asar 8599
Leverkusen 8598
sem 8595
Linn@@ 8592
md@@ 8592
Federation 8588
Soul 8588
pes 8588
Baj@@ 8586
Prize 8581
Puc@@ 8577
Sony 8577
Tyr@@ 8576
uki 8576
Lic@@ 8575
uz 8575
Cell@@ 8572
27,@@ 8570
rid 8570
Cum@@ 8568
Seb@@ 8561
can 8559
films 8559
Mask@@ 8558
Bull 8552
Pum@@ 8552
obi 8550
CH 8549
inck 8547
1767 8544
Tru@@ 8542
ana@@ 8539
Shakespeare 8538
Evolution 8535
1758 8532
Jew@@ 8532
Population 8531
Durchschnit@@ 8529
1755 8528
laut@@ 8528
TH@@ 8527
ulf 8527
Xi@@ 8526
bourg 8524
reform@@ 8524
Karlsru@@ 8522
equ@@ 8522
Beatles 8520
sow@@ 8520
0,6 8518
yth@@ 8513
esis 8510
esel 8506
urugu@@ 8504
Pig@@ 8503
Player 8503
Off 8502
Hunter 8499
Laurent 8499
Moses 8499
xy@@ 8499
roman@@ 8498
Société 8496
flag@@ 8494
mani@@ 8493
kale 8486
vr@@ 8486
sty@@ 8482
R.@@ 8479
Stri@@ 8479
vern 8477
Angela 8476
Cun@@ 8476
Doc@@ 8476
Lew@@ 8476
Sci@@ 8476
ppo 8474
sien 8474
Find@@ 8473
Amat@@ 8472
Nur@@ 8470
Jor@@ 8469
glob@@ 8467
Vl@@ 8466
ords 8466
milit@@ 8465
tender 8465
kos 8462
AE 8459
Sang@@ 8459
Vau@@ 8457
tein 8454
festivals 8450
Karls@@ 8448
ris 8448
Coh@@ 8445
Tsche@@ 8444
Silv@@ 8438
ettbewer@@ 8437
García 8436
Julie 8435
venez@@ 8435
Grimm 8432
Pack@@ 8432
tres 8427
massive 8425
urt@@ 8421
113 8420
Monaco 8418
Hampshire 8416
´ 8415
Palazzo 8412
Schubert 8412
Doh@@ 8408
Nicholas 8406
Get@@ 8404
monum@@ 8403
Plus 8402
phosph@@ 8400
Schwier@@ 8399
rum@@ 8398
1680 8397
ments 8397
175 8390
cia 8390
Kay@@ 8389
pus 8388
san 8385
EM@@ 8384
lav@@ 8383
geschätz@@ 8381
dik 8378
Show@@ 8377
BR 8372
bataillon 8371
Metal@@ 8370
spot@@ 8368
Coc@@ 8366
idem@@ 8365
Fakult@@ 8362
Wang 8360
thers 8360
torat 8360
Pant@@ 8359
fis@@ 8359
ingrad 8358
code 8353
Ambi@@ 8350
otor 8348
ouv@@ 8348
Mani@@ 8347
Pole 8347
Kow@@ 8343
cur@@ 8342
Nouvelle 8341
Töch@@ 8340
Viktoria 8339
Resp@@ 8338
ikan 8338
Guer@@ 8336
FIS 8335
Jr 8335
emer 8335
CP@@ 8331
ality 8329
veget@@ 8329
African 8325
evol@@ 8320
Kaplan 8318
Na 8317
errich@@ 8317
pi 8313
maz@@ 8311
lien 8310
zia 8308
oyen 8307
1762 8301
lyr@@ 8300
lib@@ 8298
ous@@ 8298
achi 8297
MP 8293
122 8292
ʻ@@ 8291
Inc 8290
olls 8288
arn 8287
TO@@ 8286
förm@@ 8286
Collins 8284
How@@ 8284
Open@@ 8283
Singer 8283
Alem@@ 8282
esetzt 8282
NASA 8281
Mek@@ 8279
tariat 8277
ál@@ 8276
Assistant 8274
Erwäh@@ 8272
øn@@ 8271
irken 8269
enj@@ 8267
Adv@@ 8266
Honda 8266
burn 8266
117 8264
Final 8264
Lombar@@ 8263
Mum@@ 8261
Bonif@@ 8260
roman 8259
Ecuador 8257
Epidem@@ 8257
Tac@@ 8255
Kaj@@ 8252
Pay@@ 8251
Duk@@ 8249
Helen 8249
Sophia 8248
Wallace 8247
dal 8246
imal 8246
Ethn@@ 8243
Galer@@ 8243
Castel@@ 8242
1525 8241
istes 8241
Nina 8239
Aviv 8238
Cross@@ 8238
inum 8238
naz@@ 8238
tore 8238
Montevideo 8236
[...]
