۔ 1
کے 1
میں 1
، 1
کی 1
ہے 1
اور 1
سے 1
کا 1
اس 1
نے 1
پر 1
کو 1
ایک 1
ہیں 1
) 0.9147219498008601
( 0.8960297686312227
. 0.1622678231967297
جو 1
ان 1
کیا 1
یہ 1
کہ 1
&quot; 0.33546691435606196
تھا 1
واقع 1
بھی 1
کر 1
وہ 1
و 1
تھے 1
@-@ 0.3988307933173343
لیے 1
گیا 1
یا 1
بعد 1
: 1
جس 1
ہو 1
آبادی 1
بن 1
ساتھ 1
تھی 1
نہیں 1
مجموعی 1
افراد 1
کرنے 1
; 1
تک 1
دیا 1
اپنے 1
تفصیلات 1
مشتمل 1
&amp; 1
طور 1
کاؤنٹی 1
جاتا 1
ہوئے 1
تو 1
آپ 1
ہی 1
پاکستان 1
ہوا 1
نام 1
متحدہ 1
ک@@ 1
پ@@ 1
ی@@ 1
دی 1
شہر 1
اللہ 1
زیادہ 1
ضلع 1
امریکا 1
انہوں 1
گئے 1
اپنی 1
علاقہ 1
سطح 1
وں 1
نہ 1
ریاستہائے 1
شپ 1
گ@@ 1
جب 1
ہ@@ 1
میٹر 1
گئی 1
حاصل 1
دو 1
محمد 1
لیکن 1
کرتے 1
مربع 1
ڈ@@ 1
ہ 1
رقبہ 1
ہوئی 1
ٹاؤن 1
س@@ 1
سی@@ 1
بہت 1
بلندی 1
بی@@ 1
کیلومیٹر 1
سب 1
اسے 1
می@@ 1
ن@@ 1
چ@@ 1
سال 1
وقت 1
و@@ 1
ب@@ 1
کہا 1
ای@@ 1
ان@@ 1
پہلے 1
ہونے 1
شامل 1
ہوتا 1
ری@@ 1
والے 1
کچھ 1
/ 1
ل@@ 1
کسی 1
سی 1
ٹ@@ 1
د@@ 1
ار@@ 1
ز@@ 1
ر@@ 1
رہے 1
gt 1
خان 1
lt 1
ک 1
ج@@ 1
کی@@ 1
ش@@ 1
آ@@ 1
م@@ 1
وجہ 1
ٹ 1
اسی 1
جن 1
آباد 1
طرح 1
جنگ 1
‘ 1
حکومت 1
رہائشی 1
ے 1
پی@@ 1
علی 1
لی@@ 1
کام 1
لے 1
طرف 1
سو 1
کر@@ 1
دور 1
سمندر 1
کوئی 1
لی 1
لا 1
س 1
خلاف 1
نی@@ 1
را@@ 1
لیا 1
کو@@ 1
شاہ 1
دے 1
وی@@ 1
کم 1
حضرت 1
ڈ 1
استعمال 1
رو@@ 1
ف@@ 1
ا 1
فلم 1
’ 0.7423970084024764
لا@@ 1
انہیں 1
ا@@ 1
زبان 1
تعلیم 1
بھارت 1
تی 1
بر@@ 1
ی 1
مطابق 1
ح@@ 1
شروع 1
صوبہ 1
پیدا 1
ری 1
ِ 1
اب 1
پر@@ 1
ہر 1
ت@@ 1
ائی 1
رہا 1
زندگی 1
م 1
نا 1
یں 1
والی 1
پھر 1
من@@ 1
اس@@ 1
ن 1
تھیں 1
تمام 1
دوران 1
بی 1
ل 1
لو@@ 1
تا 1
عام 1
ال@@ 1
مقام 1
صرف 1
ٹی 1
گا 1
ملک 1
کرکٹ 1
مشہور 1
لئے 1
کتاب 1
یہاں 1
ہم 1
کیے 1
شی@@ 1
کئی 1
انی 1
تین 1
ہوتی 1
پیش 1
خود 1
جہاں 1
غیر 1
بے 1
اے 1
کرنا 1
ہی@@ 1
کرتا 1
لوگوں 1
خ@@ 1
ور@@ 1
ڈی@@ 1
مختلف 1
اور@@ 1
اسلام 1
ش 1
عبد 1
موجود 1
تاریخ 1
ہو@@ 1
دار 1
نی 1
ڈی 1
ٹی@@ 1
حصہ 1
جاتی 1
&#124; 1
امام 1
مو@@ 1
دی@@ 1
ق@@ 1
دنیا 1
عمر 1
بھ@@ 1
ت 1
فرانسیسی 1
او@@ 1
جائے 1
ع@@ 1
ام@@ 1
ز 1
ر 1
قائم 1
دوسرے 1
اہم 1
ین 1
ور 1
پہلی 1
ون 1
وا@@ 1
ابن 1
آف 1
پور 1
سینٹ 1
ہوائی 1
احمد 1
دونوں 1
بات 1
ریاست 1
سو@@ 1
جا 1
وفات 1
&#93; 1
الدین 1
دریا 1
- 0.6994108476459948
کھ@@ 1
جانے 1
اردو 1
جنوبی 1
&#91; 1
با@@ 1
جی@@ 1
نا@@ 1
علاوہ 1
وی 1
پی 1
تے 1
یعنی 1
ھ 1
بین 1
ہزار 1
سر@@ 1
بڑے 1
of 0.04321242492341527
؛ 1
گی@@ 1
اب@@ 1
&apos; 0.3926136712661433
بار 1
رہ 1
پاس 1
گی 1
فوج 1
دیگر 1
فہرست 1
دن 1
رہی 1
تھ@@ 1
علیہ 1
ہوں 1
سلطنت 1
یونیورسٹی 1
سید 1
جیسے 1
اسٹیشن 1
بڑا 1
لوگ 1
سر 1
بڑی 1
ہندوستان 1
ون@@ 1
ایران 1
نگ 1
ط@@ 1
سن 1
ہوتے 1
جبکہ 1
, 0.010168954603235842
اگر 1
لینڈ 1
ابو 1
فی@@ 1
خاندان 1
علم 1
صدی 1
د 1
خواتین 1
یوں 1
اڈا 1
زی@@ 1
ریلوے 1
دوسری 1
قومی 1
شمالی 1
اں 1
نو@@ 1
انہ 1
بو@@ 1
مگر 1
جاری 1
صدر 1
اپنا 1
چی@@ 1
تر 1
مغربی 1
اک@@ 1
بیان 1
بارے 1
فی 1
مر@@ 1
دہ 1
عدد 1
پنجاب 1
عمل 1
ابتدائی 1
اری 1
درمیان 1
آئی 1
خاص 1
بنا 1
تعلق 1
کل 1
ٹیسٹ 1
ب 1
جسے 1
جی 1
پ 1
آغاز 1
ق 1
کار@@ 1
فرانس 1
اد@@ 1
والا 1
ار 1
گ 1
کرتی 1
غ@@ 1
تاہم 1
والد 1
گن 1
نیو 1
تی@@ 1
علاقے 1
جاتے 1
حسین 1
نظر 1
چھ@@ 1
کار 1
سن@@ 1
دھ@@ 1
کردار 1
کالج 1
ٹن 1
چار 1
ص@@ 1
مع@@ 1
الاقوامی 1
ائے 1
2 0.48938409153119
گھر 1
تعمیر 1
امریکی 1
گاؤں 1
سیاسی 1
ٹیم 1
ما@@ 1
ج 1
گے 1
ھ@@ 1
ف 1
عرب 1
تعداد 1
ك@@ 1
– 0.293847341011174
انگریزی 1
چین 1
صاحب 1
جگہ 1
نگ@@ 1
می 1
ممالک 1
سکتا 1
شادی 1
مسجد 1
پیدائش 1
سٹ@@ 1
کیونکہ 1
شیخ 1
مسلم 1
ٹر 1
کس 1
لہ 1
تر@@ 1
ئ@@ 1
مکمل 1
1 0.4036200748004809
دو@@ 1
کہتے 1
اسلامی 1
فر@@ 1
“ 0.45198106359461565
قریب 1
ات 1
لاہور 1
گو@@ 1
ذریعہ 1
وزیر 1
حیثیت 1
کن@@ 1
گھ@@ 1
ۃ 1
یونین 1
مان@@ 1
در@@ 1
قبل 1
3 0.5230559173657656
عربی 1
مشرقی 1
مین 1
گر@@ 1
8@@ 1
سلطان 1
مولانا 1
ام 1
مدد 1
قدیم 1
آئے 1
جو@@ 1
اتی 1
الینوائے 1
رکھا 1
ایس 1
مل 1
قتل 1
نظام 1
را 1
عظیم 1
انے 1
ؓ 1
شائع 1
فرمایا 1
حملہ 1
نو 1
مش@@ 1
توں 1
تو@@ 1
ول@@ 1
وہاں 1
” 1
ال 1
مار@@ 1
بلکہ 1
علاقوں 1
واپس 1
بہ@@ 1
آیا 1
ذکر 1
اختیار 1
بعض 1
ختم 1
7@@ 1
ما 1
وری 1
ي 1
اش@@ 1
تحریک 1
فتح 1
انا 1
بنایا 1
ي@@ 1
میچ 1
شخص 1
فوجی 1
قرآن 1
ول 1
زمین 1
ائ@@ 1
ست@@ 1
ویں 1
9@@ 1
دین 1
دینے 1
پہلا 1
اعظم 1
کوشش 1
ادا 1
بار@@ 1
تقسیم 1
مزید 1
4 0.5270729029356974
برطانوی 1
جان 1
پاکستانی 1
ایم 1
رسول 1
انھوں 1
ٹھ@@ 1
رنز 1
بد@@ 1
وا 1
جانب 1
وغیرہ 1
لکھا 1
آخری 1
خدمات 1
20 0.8980671311748731
حسن 1
مل@@ 1
اسکول 1
تیار 1
کاونٹی 1
بھائی 1
5 0.5964115789491059
مارچ 1
ولی 1
ترکی 1
هٔ 1
پانی 1
پانچ 1
مح@@ 1
كاونٹي 1
كاؤنٹي 1
جمہوریہ 1
من 1
بولا 1
یت 1
ات@@ 1
ترین 1
قرار 1
آج 1
چند 1
پو@@ 1
این 1
بنیاد 1
انجام 1
جھ@@ 1
ۂ 1
بہ 1
ایسے 1
ذ@@ 1
روس 1
بن@@ 1
ٹا 1
اپ@@ 1
کبھی 1
خیال 1
کراچی 1
مسلمانوں 1
اف@@ 1
رین 1
خدا 1
مس@@ 1
اج@@ 1
6@@ 1
ٹس 1
ترقی 1
10 0.6279922227469286
ہر@@ 1
اگ@@ 1
موجودہ 1
ث@@ 1
مرکزی 1
شمار 1
چو@@ 1
متعلق 1
ء 1
عالم 1
شن 1
اہل 1
وس@@ 1
مہ@@ 1
دیتے 1
تم 1
کونسل 1
آزاد 1
6 0.5942522480359753
تحت 1
مینیسوٹا 1
سندھ 1
حدیث 1
دل 1
بادشاہ 1
عالمی 1
ایسا 1
آزادی 1
کرکے 1
بنیادی 1
ذیل 1
اگست 1
مقامی 1
قیام 1
آر@@ 1
سلسلہ 1
ٹو@@ 1
متعدد 1
گروپ 1
پارٹی 1
سرکاری 1
ادب 1
انڈیانا 1
رکھنے 1
چ 1
قانون 1
جن@@ 1
رکھتے 1
بل@@ 1
جنوری 1
سفر 1
آخر 1
سنگھ 1
حکم 1
موت 1
مشی 1
اصل 1
ٹر@@ 1
دان 1
زیر 1
مہ 1
رے 1
پوری 1
ہند 1
ڑ 1
کل@@ 1
اکتوبر 1
قسم 1
مسلمان 1
دسمبر 1
قبضہ 1
وس 1
دوبارہ 1
رات 1
جون 1
انتخابات 1
ابی 1
مئی 1
تا@@ 1
ذریعے 1
بیٹے 1
الی 1
کافی 1
ہاتھ 1
فن 1
قابل 1
اعلان 1
کیں 1
شی 1
سا 1
یو@@ 1
جدید 1
ستمبر 1
شمال 1
رکن 1
گئیں 1
قوم 1
بھارتی 1
کن 1
جولائی 1
چھ 1
درجہ 1
صورت 1
جانا 1
حق 1
نومبر 1
از 1
دہلی 1
لاطینی 1
منتخب 1
آسٹریلیا 1
ملا 1
بہترین 1
نس 1
سامنے 1
انگ@@ 1
لوں 1
اسٹ@@ 1
مذہبی 1
عوامی 1
میر 1
کیریئر 1
سکتے 1
لفظ 1
ِ@@ 1
ں 1
اکثر 1
جرمنی 1
لندن 1
آنے 1
بنانے 1
نڈ@@ 1
وال@@ 1
اسمبلی 1
یر 1
7 0.6103819759917236
شکست 1
لو 1
ایسی 1
ڈاکٹر 1
جنوب 1
ند@@ 1
دیں 1
سین 1
5@@ 1
روسی 1
است@@ 1
اپریل 1
12 0.6741911323221281
ع 1
داری 1
8 0.6164503617131859
فارسی 1
انتقال 1
قی@@ 1
پھ@@ 1
کلی@@ 1
15 0.7483373700280063
برطانیہ 1
بطور 1
؟ 1
کریں 1
بنائے 1
ڑ@@ 1
ٹری@@ 1
آ 1
سوویت 1
کا@@ 1
فروری 1
مقرر 1
تقریباً 1
جامعہ 1
ائی@@ 1
کرے 1
تحصیل 1
ئی 1
وار 1
جنرل 1
الم@@ 1
قبول 1
جات 1
کامیاب 1
از@@ 1
رائے 1
نئی 1
بند 1
دا@@ 1
تاریخی 1
کاری 1
دہائی 1
دیکھا 1
پسند 1
مد@@ 1
9 0.6733192202185229
نٹ 1
عہد 1
نس@@ 1
000 1
ٹاون 1
ظاہر 1
بچوں 1
سل@@ 1
امیر 1
زی 1
شاعری 1
روایت 1
شام 1
ہوئیں 1
چنانچہ 1
السلام 1
ئے 1
خانہ 1
حالات 1
مرکز 1
سک@@ 1
شریف 1
وم@@ 1
اول 1
شاعر 1
فری@@ 1
مذہب 1
سٹ 1
پار@@ 1
19 0.8922213643637183
آئیووا 1
ترک 1
صلی 1
اندر 1
اثر 1
جماعت 1
شکل 1
بھر 1
11 0.7334967619464215
روں 1
گر 1
سیاست 1
غلام 1
چھوٹا 1
ح 1
نتیجے 1
بنی 1
عبد@@ 1
ملی 1
موقع 1
مشرق 1
فیصد 1
اسرائیل 1
یل 1
انداز 1
فٹ 1
_ 0.7471290009476127
دا 1
میری 1
افغانستان 1
معلوم 1
قصبہ 1
حال 1
سکے 1
مت 1
کری@@ 1
دس 1
نئے 1
او 1
چکے 1
کردہ 1
الگ 1
شدہ 1
حصے 1
اِس 1
مک@@ 1
الی@@ 1
تاکہ 1
اگرچہ 1
یہی 1
ڈا 1
ٹو 1
رام 1
رو 1
ستان 1
یو 1
کلومیٹر 1
اد 1
درج 1
بر 1
تیں 1
ڑا 1
دریائے 1
انسان 1
وب@@ 1
گو 1
14 0.8094849006163063
جر@@ 1
لیگ 1
ض@@ 1
اُس 1
فیصلہ 1
پڑا 1
داخل 1
نمبر 1
انسانی 1
ہندو 1
گری@@ 1
الح@@ 1
نوں 1
اوہائیو 1
پائی 1
ڈھ@@ 1
ترجمہ 1
حد 1
بری@@ 1
در 1
علامت 1
حقوق 1
کردیا 1
آر 1
کان@@ 1
سات 1
مصر 1
کنساس 1
خواجہ 1
جواب 1
نز 1
فراہم 1
ئر 1
وار@@ 1
16 0.7376339301651271
دیے 1
ایل 1
پرو@@ 1
والوں 1
جمع 1
کتب 1
رکھی 1
مج@@ 1
ہندوستانی 1
13@@ 1
باہر 1
13 0.7952814604463355
مقصد 1
اُن 1
معروف 1
کمپنی 1
اداکارہ 1
برا@@ 1
زمانے 1
چی 1
30 0.7012477825423978
18 0.6625887810107356
وسلم 1
مراد 1
ہار@@ 1
انگ 1
شاہی 1
مال@@ 1
ویل 1
کرو@@ 1
ادارہ 1
ري@@ 1
سابق 1
لگا 1
اجازت 1
محل 1
الہ 1
دوسرا 1
باوجود 1
رنگ 1
سیریز 1
قہ 1
پس 1
17 0.7921022067796526
فل@@ 1
وسطی 1
25 0.7964352642472403
شر@@ 1
اي@@ 1
ثابت 1
قلعہ 1
مرتبہ 1
دار@@ 1
تشکیل 1
حمایت 1
عوام 1
4@@ 1
اتحاد 1
باقی 1
تنظیم 1
واشنگٹن 1
ڈے 1
حملے 1
وج@@ 1
چھوڑ 1
ضرورت 1
برائے 1
سپ@@ 1
ریہ 1
نک@@ 1
ہونا 1
بغیر 1
تعلیمی 1
3@@ 1
مغرب 1
فیلڈ 1
اق@@ 1
زمانہ 1
ڑی 1
یہودی 1
اح@@ 1
اروں 1
مدینہ 1
ﷺ 1
َ@@ 1
منتقل 1
مقابلہ 1
کیلیفورنیا 1
ے@@ 1
فہ 1
جے 1
ﺎ@@ 1
سکتی 1
خ 1
سمجھا 1
علامہ 1
کشمیر 1
دیتا 1
انگلینڈ 1
10@@ 1
کمیون 1
اع@@ 1
با 1
خدمت 1
مت@@ 1
مي@@ 1
ه@@ 1
الفاظ 1
تع@@ 1
کھیل 1
کھلاڑی 1
سری 1
حالت 1
Saint 0.8554044943776513
روز 1
مب@@ 1
خلافت 1
باز 1
عل@@ 1
شو@@ 1
یم 1
پاک 1
جڑواں 1
کرا@@ 1
بغاوت 1
اعلیٰ 1
ماں 1
نماز 1
فلموں 1
! 0.930538796532473
میرے 1
جان@@ 1
نیا 1
میل 1
ط 1
آگے 1
یورپ 1
ایا 1
چھوٹے 1
مص@@ 1
ناول 1
سينٹ 1
ٹیلی 1
پری@@ 1
ایف 1
افواج 1
اولاد 1
1,@@ 1
حلقہ 1
جلد 1
سم@@ 1
معنی 1
تعلقات 1
حوالے 1
میدان 1
چکی 1
ند 1
ایوارڈ 1
طاقت 1
تربیت 1
کش@@ 1
ؤ 1
سنہ 1
ہوگا 1
وت@@ 1
.@@ 1
کامیابی 1
سماجی 1
مار 1
رہتے 1
راج 1
سخت 1
تبدیل 1
نسل 1
گاہ 1
رہنے 1
نش@@ 1
سب@@ 1
متاثر 1
خاتون 1
مست@@ 1
مر 1
= 0.8283979878128954
دیکھ 1
کیوں 1
نار@@ 1
وي@@ 1
لائ@@ 1
امن 1
انتہائی 1
نہایت 1
مور@@ 1
سا@@ 1
پنسلوانیا 1
ولادت 1
پولینڈ 1
پا 1
جرمن 1
سائنس 1
اضافہ 1
نور 1
ادبی 1
رہ@@ 1
مصنف 1
باعث 1
نامی 1
گڑھ 1
یات 1
سہ 1
رب@@ 1
مون@@ 1
نقل 1
جنہوں 1
مملکت 1
21 0.7669409259014734
کہانی 1
رن 1
عثمانی 1
24 0.7655139197912274
ہدایت 1
بل 1
نیشنل 1
اُ@@ 1
جل@@ 1
بتایا 1
لینے 1
واقعہ 1
انھیں 1
the 0.007055744412154965
ذیلی 1
کپ 1
بلند 1
علمی 1
قیادت 1
بال@@ 1
موں 1
گور@@ 1
موسیقی 1
الب@@ 1
کلاس 1
جیسا 1
چونکہ 1
بندی 1
لگے 1
برو@@ 1
گنتی 1
ہائی 1
مثال 1
خط 1
23 0.8716816992718545
ولی@@ 1
یاد 1
ہلاک 1
محبت 1
چینی 1
بانی 1
وسیع 1
مالک 1
سعودی 1
حی@@ 1
منٹ 1
مابین 1
بیٹی 1
انڈیا 1
کور@@ 1
Canton 1
نڈ 1
بری 1
22 0.8133697899074475
عراق 1
چلے 1
منظر 1
واقعات 1
لاکھ 1
روزہ 1
1ء 1
محمود 1
حوالہ 1
مہم 1
اہ@@ 1
اٹھ@@ 1
فو@@ 1
اقبال 1
پہنچ 1
ندی 1
قدر 1
بنگلہ 1
نج@@ 1
اعزاز 1
ای 1
دیش 1
اون@@ 1
مختار 1
ژ@@ 1
بنے 1
نگر 1
مسائل 1
19@@ 1
ویسٹ 1
شریک 1
مجھے 1
9ء 1
اضلاع 1
رس@@ 1
آئ@@ 1
پورے 1
ين@@ 1
جارجیا 1
تسلیم 1
تن@@ 1
ك 1
ماہ 1
مکہ 1
الع@@ 1
ڈن 1
پردیش 1
عددی 1
طویل 1
کون@@ 1
شہروں 1
نبی 1
بجائے 1
ورلڈ 1
پور@@ 1
ظ@@ 1
جزیرہ 1
لین 1
ایرانی 1
ہسپانوی 1
واضح 1
ایڈ@@ 1
تقریبا 1
ميں 1
سردار 1
پیر 1
چاہیے 1
ذمہ 1
علوم 1
ؒ 1
اتا 1
کول@@ 1
14@@ 1
گرد 1
افریقہ 1
ُ@@ 1
تھ 1
کلام 1
قبیلہ 1
2@@ 1
ٹیکساس 1
لکھی 1
انوں 1
عباس 1
ہندی 1
لحاظ 1
وق@@ 1
چل 1
نظاموں 1
لان@@ 1
آل 1
4ء 1
امی@@ 1
وف@@ 1
12@@ 1
گرا@@ 1
نگار 1
شہری 1
پولیس 1
شہ@@ 1
اص@@ 1
انتخاب 1
پایا 1
شکار 1
چلا 1
ڈو@@ 1
بلحاظ 1
خلیفہ 1
مقابلے 1
والدہ 1
ونی 1
عی@@ 1
مقبول 1
بند@@ 1
آٹھ 1
26 0.8545579918357519
ٹے 1
ائیں 1
تحریر 1
اینڈ 1
نمایاں 1
کینیڈا 1
اہمیت 1
وے 1
ادی 1
فرسٹ 1
کتابیں 1
نوا@@ 1
چکا 1
جاپان 1
وطن 1
ملکی 1
گل 1
محفوظ 1
8ء 1
علما 1
لیں 1
توجہ 1
اقوام 1
یورپی 1
6ء 1
رکھتا 1
مضامین 1
صوبے 1
الق@@ 1
ریکارڈ 1
مسیح 1
ارہ 1
اِ@@ 1
وادی 1
انی@@ 1
مطلب 1
فلمی 1
گروہ 1
حکمران 1
2ء 1
192@@ 1
ڈگری 1
نیز 1
شا@@ 1
رہیں 1
مان 1
ایشیا 1
وسکونسن 1
بہتر 1
مقامات 1
كي 1
نور@@ 1
ابھی 1
لڑائی 1
صحیح 1
وز@@ 1
County 0.6900290382701283
مخصوص 1
حیات 1
بچے 1
مز@@ 1
16@@ 1
آتا 1
گورنر 1
پیمانے 1
حقیقت 1
تحقیق 1
شیعہ 1
e 0.24055398315679996
ہمیشہ 1
کردی 1
زبانوں 1
معاہدے 1
ہجرت 1
بنائی 1
تم@@ 1
موسم 1
بیٹا 1
2018 0.4718272889113472
ڑے 1
ريلوے 1
ولا 1
جسم 1
3ء 1
28 0.8339760162440754
ابراہیم 1
اظہار 1
مق@@ 1
یوسف 1
برگ 1
قر@@ 1
مجموعہ 1
ماہر 1
چھوٹی 1
زر@@ 1
آتے 1
انڈ@@ 1
اسٹيشن 1
کام@@ 1
پورا 1
اوسط 1
ضروری 1
27 0.8503957668080155
شہرت 1
صحت 1
ائن 1
عمارت 1
انکار 1
نما 1
ممتاز 1
بلے 1
ذاتی 1
معاہدہ 1
تق@@ 1
تھی@@ 1
دل@@ 1
ﺍ@@ 1
لائن 1
پہاڑ 1
یارک 1
نواب 1
کنٹرول 1
سمیت 1
ٹوں 1
چر 1
سٹی@@ 1
پیچھے 1
معلومات 1
چیز 1
تش@@ 1
مختصر 1
نتیجہ 1
بال 1
عیسوی 1
قانونی 1
طریقہ 1
كے 1
مرا@@ 1
پروگرام 1
یاں 1
سائ@@ 1
سان 1
مال 1
نامہ 1
باب 1
ء@@ 1
خی@@ 1
ورجینیا 1
مبنی 1
تباہ 1
دولت 1
اک 1
شخصیت 1
نام@@ 1
ئی@@ 1
روڈ 1
ڈز 1
زندہ 1
پنجابی 1
رس 1
جنگی 1
اقتدار 1
یونانی 1
سان@@ 1
بیوی 1
جہاز 1
کہیں 1
آیت 1
انقلاب 1
ڈر 1
وان 1
کتابوں 1
0ء 1
ؤ@@ 1
ثقافت 1
باپ 1
سارے 1
واحد 1
ڈو 1
نر 1
جائیں 1
برس 1
نصف 1
انعام 1
شاہ@@ 1
کھیلے 1
District 1
وم 1
ص 1
طالب 1
کہ@@ 1
سعید 1
دورہ 1
اء 1
عبداللہ 1
عرصہ 1
فار@@ 1
بینک 1
شہید 1
اؤ 1
نسب 1
ریاستوں 1
0 0.6034796866099631
رت 1
سلسلے 1
حافظ 1
آواز 1
لیک 1
پورٹ 1
عرصے 1
ہاں 1
روانہ 1
لان 1
0@@ 1
29 0.859540223549722
ایچ 1
وَ@@ 1
کشی 1
ہا 1
in 0.0097442453880661
ملین 1
ونگ 1
تصور 1
سٹی 1
روم 1
طرز 1
لز 1
َ 1
ملتا 1
محکمہ 1
وو@@ 1
وال 1
مے 1
بیت 1
پرا@@ 1
15@@ 1
پارک 1
اوپر 1
شرح 1
لکھتے 1
پروفیسر 1
بڑھ 1
پہنچا 1
پل 1
مندرجہ 1
کھیلا 1
5ء 1
کس@@ 1
بننے 1
وجود 1
اسٹی@@ 1
الحکومت 1
دوم 1
عورت 1
مطالعہ 1
زور 1
شرکت 1
ملے 1
ّ@@ 1
منصوبہ 1
ویب 1
قی 1
مرزا 1
نز@@ 1
نیوزی 1
فرماتے 1
چک 1
لنکا 1
لگ@@ 1
بھیجا 1
نمائندگی 1
ہمارے 1
وکٹیں 1
کمی 1
50 0.7541723445199793
اخبار 1
یون@@ 1
طی@@ 1
اداکار 1
تلاش 1
ئ 1
الت@@ 1
سیزن 1
بخش 1
لوک 1
معاشی 1
ْ@@ 1
اصطلاح 1
پائے 1
نجی 1
بیعت 1
-@@ 0.8379164986593169
حصوں 1
سربراہ 1
جاسکتا 1
جنسی 1
الج@@ 1
تج@@ 1
دہ@@ 1
مدرسہ 1
ابتدا 1
بوں 1
تک@@ 1
دریافت 1
ائر 1
انتظام 1
ثقافتی 1
سامنا 1
قبائل 1
روایات 1
کہنا 1
مف@@ 1
نقصان 1
استاد 1
بان@@ 1
فضل 1
حل 1
صف@@ 1
خبر 1
ہیپلو 1
تخت 1
علی@@ 1
اؤ@@ 1
مشترکہ 1
شدید 1
تجارت 1
خصوصی 1
رہتا 1
زائد 1
سبب 1
امریکہ 1
مرد 1
گل@@ 1
2019 0.4299768872664571
آدمی 1
سنت 1
روایتی 1
ممکن 1
مالی 1
رز 1
بیس 1
رون 1
رائ@@ 1
عہدے 1
سالوں 1
ترتیب 1
اخ@@ 1
لگایا 1
کان 1
7ء 1
عملی 1
عثمان 1
100 0.574001401071571
درس 1
نظ@@ 1
فقہ 1
ازاں 1
اٹ@@ 1
ود 1
ادارے 1
مجبور 1
آن 1
جا@@ 1
ارا 1
وو 1
دیر 1
ملا@@ 1
گار@@ 1
اکبر 1
کوٹ 1
اری@@ 1
ﻮ@@ 1
برقرار 1
بیشتر 1
کیرولائنا 1
2,@@ 1
واں 1
سہ@@ 1
ویژن 1
راستہ 1
سون@@ 1
% 0.12906284827760361
شہنشاہ 1
قاضی 1
ناکام 1
تشدد 1
جہ@@ 1
عدالت 1
چے 1
بدھ 1
قید 1
اگلے 1
صوبائی 1
اننگز 1
شیر 1
لڑ@@ 1
2013 0.36671819317912346
مضبوط 1
گرفتار 1
پیشہ 1
بچ@@ 1
خون 1
عہ 1
کمیونٹی 1
دوں 1
طے 1
خان@@ 1
تب@@ 1
جر 1
لس 1
بلوچستان 1
بي@@ 1
تیز 1
ئن 1
عت 1
دینا 1
ذات 1
سي@@ 1
کرکٹر 1
لي@@ 1
رضا 1
اتے 1
نظم 1
الا 1
پہ@@ 1
ns 1
انس@@ 1
رہنما 1
تجارتی 1
سام@@ 1
model 1
پن 1
اعلی 1
دہشت 1
کرو 1
زم 1
پہنچے 1
تعریف 1
رکھ 1
کمیٹی 1
الف@@ 1
كي@@ 1
کنارے 1
حالانکہ 1
مخالف 1
انٹرنیشنل 1
format 1
ران 1
بہار 1
contributor 1
timestamp 1
مغل 1
وابستہ 1
کوڈ 1
آب@@ 1
زہ 1
فوجیوں 1
ہاتھوں 1
حر@@ 1
1@@ 1
مند 1
جیت 1
نٹ@@ 1
مشکل 1
اف 1
راستے 1
ٰ@@ 1
زمرہ 1
موضوع 1
‌ 1
کانگریس 1
لکھے 1
روشنی 1
تفسیر 1
پتہ 1
کلب 1
ہجری 1
31 0.8012739221669636
شا 1
اہ 1
گان 1
حکمرانی 1
ملاقات 1
راہ 1
سنی 1
وہی 1
مسوری 1
نظریہ 1
مستقل 1
ني@@ 1
نیو@@ 1
username 1
طلبہ 1
بول@@ 1
ه 1
190@@ 1
بہن 1
سرحد 1
ارے 1
بنگال 1
br 1
نامزد 1
فیض 1
موسیٰ 1
الن@@ 1
رکھتی 1
لگ 1
راجا 1
شعبہ 1
ٹنگ 1
ى 1
ست 1
خوش 1
کش 1
سابقہ 1
حیدرآباد 1
عطا 1
تبدیلی 1
نیٹ 1
ہار 1
40 0.7642006871131435
مانی 1
کٹ@@ 1
دیتی 1
یک 1
بلا@@ 1
رضی 1
کٹر 1
باغ 1
راست 1
نیچے 1
ابھ@@ 1
ادی@@ 1
میچوں 1
نوازا 1
برابر 1
ہوگئے 1
پک@@ 1
محدود 1
سکا 1
بحیرہ 1
جنہیں 1
اختتام 1
193@@ 1
بارہ 1
پناہ 1
دنوں 1
چار@@ 1
دست@@ 1
اعداد 1
اباد 1
ُ 1
بت@@ 1
خیبر 1
ادہ 1
دینی 1
میڈیا 1
ورا 1
وڈ 1
T@@ 0.16496351768662648
یافتہ 1
مبارک 1
نسبت 1
انتظامی 1
سزا 1
مط@@ 1
منعقد 1
مپ@@ 1
کال@@ 1
چا 1
ہوکر 1
یمن 1
تعالیٰ 1
دوست 1
لار@@ 1
مزار 1
میاں 1
گیند 1
میرا 1
ساری 1
بلدیہ 1
کریم 1
اوی@@ 1
بور@@ 1
ڑوں 1
2018ء 1
mtDNA 1
امور 1
دم 1
نزدیک 1
انگلستان 1
آئین 1
بالکل 1
دور@@ 1
بنت 1
لال 1
ائي 1
خطے 1
ٹری 1
جھیل 1
ٹل 1
فلسطین 1
معمولی 1
لہذا 1
وائ@@ 1
سلیمان 1
مخالفت 1
خو@@ 1
آب 1
دفاع 1
قط@@ 1
خد@@ 1
آتی 1
2015 0.32199804463880427
and 0.008943747923205425
مز 1
خر@@ 1
مندر 1
ؤں 1
2013ء 1
كا 1
چلی 1
comment 1
لایا 1
بورڈ 1
بیرونی 1
وسط 1
لائے 1
2014 0.31404948765772284
فرق 1
کون 1
h 0.39270398758516895
الو@@ 1
ارکان 1
تنقید 1
ملتان 1
دعوت 1
ﮐ@@ 1
جامع 1
مخ@@ 1
کمال 1
سکی 1
ونا 1
پڑ@@ 1
بازی 1
تصنیف 1
مدت 1
حاضر 1
گا@@ 1
بیگم 1
وکٹ 1
شن@@ 1
بت 1
آبشار 1
الزام 1
بازار 1
اداکاری 1
ين 1
چر@@ 1
اختلاف 1
دفتر 1
روک 1
اشاعت 1
شے 1
وان@@ 1
اداروں 1
مجلس 1
ٰ 1
کارکردگی 1
وش@@ 1
سعد 1
پھی@@ 1
انت@@ 1
ثانی 1
حامل 1
پال 1
اوقات 1
تح@@ 1
اصول 1
مثلاً 1
تہ 1
اورا@@ 1
تیسری 1
مقدس 1
جاپانی 1
سورج 1
ملتی 1
ود@@ 1
وف 1
الس@@ 1
العلوم 1
بحری 1
شماری 1
زا 1
ائل 1
وزارت 1
سنگ 1
مول@@ 1
نہ@@ 1
عبادت 1
منی 1
تعاون 1
نق@@ 1
Gmina 1
پابندی 1
تب 1
ساز 1
اکی@@ 1
لقب 1
صی@@ 1
روز@@ 1
شخصیات 1
لائی 1
حضور 1
میر@@ 1
۱@@ 1
جنھوں 1
سٹن 1
اندازہ 1
ذرائع 1
کھا 1
اکثریت 1
پہ 1
تخ@@ 1
دگی 1
پیداوار 1
ہند@@ 1
مضمون 1
محسوس 1
formula 0.39195217935793075
کثیر 1
کاروں 1
اعتبار 1
فروغ 1
لشکر 1
منسلک 1
چہ 1
ث 1
انیہ 1
رج@@ 1
ین@@ 1
کوریا 1
رک@@ 1
ٹک 1
قوت 1
خطاب 1
اقسام 1
عی 1
مفتی 1
آمد 1
اڑ@@ 1
جیسی 1
تخلیق 1
سائٹ 1
فورڈ 1
بزرگ 1
گن@@ 1
فیصل 1
كو@@ 1
لیتے 1
نان@@ 1
وت 1
ریل 1
میہ 1
حقیقی 1
لاس 1
چیف 1
شوہر 1
2008 0.29798276740894697
ـ 1
نائب 1
مطالبہ 1
رہتی 1
زر 1
parentid 1
داد 1
دشمن 1
کٹ 1
جزائر 1
جنس 1
فکر 1
سکھ 1
اوائل 1
ریاستی 1
17@@ 1
تذکرہ 1
شہ 1
ملازمت 1
ووڈ 1
ہوگی 1
ریوں 1
انگریزوں 1
درخواست 1
الش@@ 1
اپ 1
کے@@ 1
ریا 1
نيو 1
ﻣ@@ 1
ڈراما 1
لر 1
مردم 1
سال@@ 1
نشان 1
3,@@ 1
الحق 1
وک 1
پہاڑی 1
مسلسل 1
تہذیب 1
رقم 1
رک 1
تس@@ 1
دفعہ 1
ایئر 1
2012 0.2804643004995141
علاقائی 1
ریڈیو 1
ایمان 1
آذربائیجان 1
شہادت 1
منظور 1
بس 1
اج 1
لکھ@@ 1
آگ 1
سنگ@@ 1
محض 1
آرمی 1
آثار 1
18@@ 1
مُ@@ 1
تشریف 1
والدین 1
اتر 1
مقیم 1
ندر 1
بابا 1
2010 0.22526411473916627
سلی@@ 1
ساحل 1
کین@@ 1
x 0.4826633044390585
خوبصورت 1
غازی 1
مین@@ 1
کوں 1
باقاعدہ 1
تجویز 1
کھی@@ 1
معاشرے 1
پہنچ@@ 1
4,@@ 1
شار@@ 1
شت 1
پشاور 1
غی@@ 1
شان 1
فر 1
یقین 1
سور@@ 1
امہ 1
ٹنے 1
کلا@@ 1
بغداد 1
عنوان 1
آسٹریا 1
خانے 1
لوٹ 1
خط@@ 1
بورو 1
عدم 1
ڈالر 1
سار@@ 1
عثمانیہ 1
مسیحی 1
رپورٹ 1
اچھی 1
معاملات 1
منہ 1
پن@@ 1
گرو@@ 1
قدم 1
ولا@@ 1
زار 1
پے 1
تیزی 1
لم 1
زخمی 1
اکیڈمی 1
رد 1
قبیلے 1
ڈویژن 1
2017 0.302936977307136
انڈین 1
طریقے 1
1.@@ 1
روحانی 1
مَ@@ 1
يا 1
پزیر 1
رہائش 1
صاف 1
ماؤنٹ 1
ویل@@ 1
امی 1
صحابہ 1
2016 0.2819686069329291
شناخت 1
تحفظ 1
راج@@ 1
جارج 1
اؤں 1
سامان 1
شو 1
چاہتے 1
فا@@ 1
آپ@@ 1
ایئرپورٹ 1
لف@@ 1
٪ 1
باری 1
صنعت 1
سونے 1
فرا@@ 1
میونسپل 1
باد 1
نک 1
کھانے 1
بالا 1
شہرستان 1
غور 1
شاید 1
جلال 1
راہ@@ 1
شمولیت 1
60 0.841268201188496
ہائے 1
زن 1
فروخت 1
اول@@ 1
لت 1
پتھر 1
بخاری 1
غ 1
ﺮ@@ 1
ریس 1
خالد 1
نکل 1
اسک@@ 1
شک@@ 1
آئیں 1
دائیں 1
صبح 1
نسلی 1
عمرو 1
واپسی 1
اط@@ 1
بدر 1
پالیسی 1
صلاحیت 1
ورک 1
ہمیں 1
دربار 1
گجرات 1
دیکھنے 1
رار 1
سالہ 1
تِ 1
کوئ@@ 1
اطلاع 1
تاج 1
2011 0.24194730027149053
غالب 1
نشانہ 1
ہٹ 1
حرکت 1
ہری 1
ہزاروں 1
فائدہ 1
ائیوں 1
خود@@ 1
دارالحکومت 1
علا@@ 1
بنو 1
رخ 1
پلا@@ 1
براہ 1
بش@@ 1
بولی 1
سلا@@ 1
ٹورنامنٹ 1
ڈیبیو 1
2008ء 1
شاخ 1
قیمت 1
نوجوان 1
جگ@@ 1
بالآخر 1
دھا 1
باب@@ 1
زے 1
اتفاق 1
قت 1
بھی@@ 1
کت@@ 1
روح 1
سازی 1
فارس 1
نڈر 1
طر@@ 1
موجودگی 1
اسکور 1
خصوصیات 1
سوی@@ 1
انت 1
جانی 1
حروف 1
سفید 1
آہستہ 1
خوا@@ 1
بدل 1
یار 1
الرحمن 1
داخلہ 1
جہ 1
پڑھ@@ 1
یکم 1
ٹاؤنشپ 1
آؤٹ 1
تصانیف 1
تل@@ 1
جعفر 1
ساتھی 1
ﯿ@@ 1
غلط 1
لیہ 1
پختونخوا 1
بحر 1
حفاظت 1
تف@@ 1
لانے 1
بچپن 1
خوش@@ 1
ملکہ 1
سوال 1
فلپائن 1
مردوں 1
de 0.004822670539482273
ٹھ 1
ڈائریکٹر 1
ہل 1
یاد@@ 1
فائز 1
بحث 1
جیل 1
ہوگئی 1
مغ@@ 1
ہل@@ 1
افغان 1
اما 1
مقدار 1
کین 1
ہوگیا 1
قدرتی 1
مائ@@ 1
سرزمین 1
وفاقی 1
انڈیز 1
بح@@ 1
متعارف 1
نیویارک 1
لن 1
ممبئی 1
نوبل 1
0.@@ 1
تار@@ 1
دستخط 1
کوہ 1
حج 1
رفتار 1
مجھ 1
میکسیکو 1
جدوجہد 1
وز 1
ڈکوٹا 1
بیر 1
مسیسپی 1
سمجھتے 1
کم@@ 1
سلیم 1
2.@@ 1
آئرلینڈ 1
وہیں 1
ریڈ 1
شوں 1
مسلح 1
پاشا 1
اسماعیل 1
قص@@ 1
اثرات 1
یہودیوں 1
بلوچ 1
خواہش 1
شعر 1
بکر 1
ترا@@ 1
دراصل 1
ماؤنٹین 1
چرچ 1
کہہ 1
علاج 1
کپتان 1
20@@ 1
35 0.9613216093474983
ٹرو@@ 1
ٰی 1
لیس 1
وین 1
سربراہی 1
قوانین 1
دورے 1
تیسرے 1
یے 1
رسم 1
تیس 1
حملوں 1
خاتمہ 1
مسئلہ 1
ثبوت 1
فائ@@ 1
کشن 1
بہادر 1
نگٹن 1
تھائی 1
ٹیوٹ 1
کمیشن 1
البتہ 1
اتنا 1
منصوبے 1
پان@@ 1
5,@@ 1
سکیں 1
ڈال 1
برصغیر 1
ٹرز 1
خیر 1
شمس 1
سٹر 1
2020 0.29657988381568967
رانی 1
نر@@ 1
قول 1
لن@@ 1
متعلقہ 1
کینٹکی 1
بلی@@ 1
جانوروں 1
کور 1
امت 1
عم@@ 1
کولمبیا 1
ستی 1
کربلا 1
تصویر 1
خاتمے 1
قبرص 1
احادیث 1
بو 1
لي 1
زید 1
فا 1
قب@@ 1
آز@@ 1
لَ@@ 1
قاسم 1
اسرائیلی 1
کنگ 1
الجزائر 1
فورس 1
آپریشن 1
ٹائ@@ 1
اك@@ 1
صوفی 1
ماہرین 1
کوفہ 1
سندھی 1
2009 0.24163095864196252
دری@@ 1
تکمیل 1
يل 1
تص@@ 1
ابی@@ 1
في@@ 1
کرلی 1
یس 1
پوچھا 1
پیرس 1
قو@@ 1
نگرانی 1
80 0.912460689685591
الخ@@ 1
کرایا 1
فری 1
کارروائی 1
189@@ 1
انگریز 1
ونیا 1
پول@@ 1
حصول 1
ڑہ 1
داد@@ 1
مارشل 1
2007 0.25504340653915986
قل@@ 1
طلب 1
194@@ 1
عر@@ 1
کرام 1
ناک 1
نیپال 1
7.@@ 1
انس 1
عرض 1
عورتوں 1
وسی 1
خوف 1
اَ@@ 1
داروں 1
دلچسپی 1
کمپیوٹر 1
2019ء 1
ڈر@@ 1
ہتھیار 1
عمران 1
سالانہ 1
وب 1
فاطمہ 1
قطب 1
کانفرنس 1
ﺎ 1
فت 1
ڈنگ 1
اذ@@ 1
تیاری 1
دری 1
رومی 1
زوں 1
صفحات 1
َّ@@ 1
گلی@@ 1
an 0.02568477290933073
تیل 1
ضد 1
مائی 1
وبی 1
جوا@@ 1
8.@@ 1
دفن 1
گرم 1
200 0.7529504732976664
نواز 1
پي@@ 1
اسلامیہ 1
ایل@@ 1
خوب 1
دعا 1
اتنی 1
اشارہ 1
پیک 1
نم@@ 1
انسٹی 1
جام@@ 1
ماضی 1
پرست 1
eh 1
مواد 1
اٹلی 1
زئی 1
معیشت 1
آرکنساس 1
سرخ 1
مولوی 1
فاصلے 1
اق 1
دادا 1
مری 1
الغ@@ 1
رق@@ 1
عنہ 1
دیوی 1
بیماری 1
کاروبار 1
خارجہ 1
منی@@ 1
درست 1
سوانح 1
گردی 1
بع@@ 1
منظم 1
دیو 1
سینٹر 1
ٹیکنالوجی 1
30@@ 1
70 0.9511122427577309
24@@ 1
عزیز 1
سائنسی 1
مرتب 1
ٹیوں 1
ستہ 1
بائیں 1
رش@@ 1
سوں 1
عائد 1
6,@@ 1
ماحول 1
ہا@@ 1
ﺭ@@ 1
نیبراسکا 1
بس@@ 1
فرار 1
ير@@ 1
اجلاس 1
ویوں 1
چاہتا 1
یزید 1
خی 1
رب 1
نظریات 1
رکھے 1
خاں 1
La 0.069926036039144
پرستی 1
الص@@ 1
لکھنے 1
چلتا 1
K@@ 0.12718449603733092
مہاراشٹر 1
abad 1
تصدیق 1
دستیاب 1
عروج 1
غز@@ 1
قریبی 1
مات 1
سوار 1
ﯽ 1
گیت 1
لکھنؤ 1
اوی 1
بیل 1
سرمایہ 1
حی 1
45 0.8612241769086111
غزل 1
قبضے 1
ہنگری 1
188@@ 1
اسٹیٹ 1
انتظامیہ 1
حاجی 1
نف@@ 1
تفصیل 1
کوس@@ 1
جزیرے 1
معاویہ 1
بلا 1
وٹ 1
ہمراہ 1
ورا@@ 1
مث@@ 1
مارے 1
انوے 1
خفیہ 1
فارم 1
ووٹ 1
آس 1
ابہام 1
عب@@ 1
چھو@@ 1
یوم 1
انہی 1
کورٹ 1
500 0.7851695587745496
بلی 1
لگی 1
عہدہ 1
حرارت 1
a 0.006728580143073007
بجلی 1
حج@@ 1
ڈبلیو 1
ساؤتھ 1
معاشرتی 1
آلہ 1
نقطہ 1
اساتذہ 1
شہریوں 1
یونان 1
ﺑ@@ 1
ایسوسی 1
باشندوں 1
رنگ@@ 1
مارٹن 1
الر@@ 1
سپر 1
منسوب 1
توانائی 1
مض@@ 1
نت 1
یک@@ 1
مسعود 1
احتجاج 1
ایسٹ 1
لڑکی 1
23@@ 1
روپے 1
انصاف 1
متحرک 1
کرم 1
انیس 1
تری@@ 1
سلام 1
دکھ@@ 1
نامور 1
L@@ 0.10681214275986563
ایشن 1
دھی@@ 1
سربیا 1
2015ء 1
سي 1
برادری 1
فلوریڈا 1
وضاحت 1
2006 0.23831864723461857
نگاری 1
پڑے 1
احساس 1
جیتا 1
موضوعات 1
گلو@@ 1
2021 0.3353172054613928
امداد 1
لباس 1
بیچ 1
کھانا 1
گاندھی 1
انتخابی 1
حہ 1
کہلاتا 1
2016ء 1
بوس@@ 1
روشن 1
s 0.05807645350403138
طالبان 1
دروازہ 1
پلی@@ 1
بخ@@ 1
سند 1
گانے 1
ید 1
سنچری 1
نتائج 1
شیا 1
يو@@ 1
33 1
سرا@@ 1
بیک 1
خت@@ 1
سک 1
عمر@@ 1
چاند 1
شر 1
26@@ 1
وقوع 1
کائنات 1
پارلیمنٹ 1
بون@@ 1
سیوں 1
شور 1
ملنے 1
زن@@ 1
اہتمام 1
ایشیائی 1
کھیلی 1
9.@@ 1
سلوک 1
مند@@ 1
زب@@ 1
آنحضرتﷺ 1
مصروف 1
گرو 1
زي@@ 1
فرد 1
مظاہرہ 1
گول@@ 1
2014ء 1
حمل 1
سلو@@ 1
مستقبل 1
خطرہ 1
ماس@@ 1
ریت 1
قلعے 1
کھیلنے 1
سل 1
فرائض 1
وائٹ 1
5.@@ 1
سروس 1
چا@@ 1
تدریس 1
نل 1
حیدر 1
روکنے 1
قائد 1
ریلویز 1
کروڑ 1
کھلاڑیوں 1
ناگ@@ 1
27@@ 1
ائیر 1
جرسی 1
صد@@ 1
نیل 1
زبردست 1
صحافی 1
اسم 1
ہسپتال 1
بغ@@ 1
ير 1
6.@@ 1
4.@@ 1
سڑک 1
معیار 1
پھیل 1
گھروں 1
زون 1
کمزور 1
ریلیز 1
محافظہ 1
الله 1
​ 1
آنحضرت 1
برج 1
جنم 1
دھی 1
لات 1
ملتے 1
مٹی 1
ارات 1
دکھائی 1
32 0.852628429931506
چٹ@@ 1
توسیع 1
ہال 1
ادیب 1
دي@@ 1
مرہ 1
کھیلوں 1
لم@@ 1
فرو@@ 1
گفتگو 1
گنج 1
3.@@ 1
مہدی 1
اسد 1
درد 1
کاش@@ 1
دباؤ 1
ماد@@ 1
کلو 1
چڑھ@@ 1
کھو@@ 1
امر 1
عات 1
2000 0.2557955702294844
اڈ@@ 1
بک 1
طب 1
قبرستان 1
ﯾ@@ 1
کوم@@ 1
ئیر 1
بھیج 1
تہ@@ 1
سمجھ@@ 1
راولپنڈی 1
سیاہ 1
ویلز 1
کمیونسٹ 1
خلیج 1
صح@@ 1
مرو@@ 1
جیکسن 1
دان@@ 1
انات 1
ایوان 1
بالی 1
Z 1
ناتھ 1
نکال 1
گرام 1
یار@@ 1
خواب 1
بان 1
طبی 1
ہن@@ 1
ارت 1
اشعار 1
تجربہ 1
آبائی 1
کمانڈر 1
دع@@ 1
ٹہ 1
28@@ 1
بلو@@ 1
شوق 1
نگی 1
ڈالا 1
کاپ@@ 1
الط@@ 1
کھڑے 1
7,@@ 1
تھیٹر 1
کروں 1
درجے 1
ریں 1
لڈ 1
ہان 1
36 1
جناب 1
حکمت 1
زائ@@ 1
مناسب 1
2017ء 1
شعبے 1
غریب 1
تاب@@ 1
نیم 1
زبانیں 1
عقائد 1
رشتہ 1
لینا 1
چن 1
اند@@ 1
ناموں 1
29@@ 1
خاطر 1
اث@@ 1
اندرونی 1
سم 1
ماڈل 1
وہ@@ 1
رجوع 1
صادق 1
مور 1
یز 1
تز@@ 1
گون@@ 1
برٹش 1
بھاری 1
درخت 1
عامر 1
الْ@@ 1
تیہ 1
رل 1
پہلو 1
عین 1
فون 1
کرلیا 1
گزر@@ 1
خراسان 1
نافذ 1
بھو@@ 1
خیل 1
34 1
چلنے 1
گرین 1
جمال 1
الے 1
ظلم 1
ابوال@@ 1
الز@@ 1
حزب 1
نائ@@ 1
دیکھتے 1
لنگ 1
ایہ 1
مہارت 1
گورنمنٹ 1
ﻧ@@ 1
ڑھ@@ 1
سپر@@ 1
آسان 1
عموماً 1
جموں 1
پندرہ 1
ہماری 1
رَ@@ 1
کوششوں 1
سط@@ 1
سند@@ 1
فور@@ 1
ڈیم 1
ﺗ@@ 1
برعکس 1
اختر 1
الاباما 1
زوال 1
سرگرمیوں 1
انج@@ 1
جون@@ 1
دروازے 1
اغ@@ 1
عباسی 1
یادگار 1
أَ@@ 1
حکام 1
شمالي 1
ؔ 1
نگز 1
گھریلو 1
ڈاک@@ 1
2011ء 1
پال@@ 1
آیات 1
سیر 1
ہاؤس 1
رض@@ 1
سری@@ 1
مارا 1
ٹوئنٹی 1
دھو@@ 1
ض 1
چچا 1
باس@@ 1
بولنے 1
پہنچنے 1
شریعت 1
شہزادہ 1
پٹ@@ 1
کابل 1
انجمن 1
حدود 1
صدیوں 1
لیوں 1
چوں 1
کرنسی 1
پائ@@ 1
الملک 1
فلمیں 1
پا@@ 1
آسانی 1
اصلاح 1
جین 1
ڈین 1
دعویٰ 1
اردن 1
90 0.7968665074358261
تبہ 1
کہنے 1
مزاحمت 1
بِ@@ 1
پڑی 1
ڈری@@ 1
انقلابی 1
تمہارے 1
حبیب 1
حکیم 1
ّ 1
امین 1
وش 1
S@@ 0.07533354294424127
فت@@ 1
فلسفہ 1
سکول 1
مراکش 1
جائزہ 1
صحابی 1
پرانے 1
اقدامات 1
ڈیل 1
مصری 1
جانور 1
سیرت 1
+ 0.5252748611013613
اسحاق 1
بلغاریہ 1
تینوں 1
فار 1
جہاد 1
تمل 1
صوبوں 1
دہی 1
اوا 1
بشمول 1
نادر 1
ارشاد 1
مجید 1
مس 1
چل@@ 1
ایک@@ 1
ریاضی 1
معاون 1
کاموں 1
کوچ 1
وری@@ 1
بیگ 1
مہینے 1
میک 1
چھی@@ 1
نت@@ 1
نشر 1
آن@@ 1
راؤ 1
300 0.9138805573530725
اعتماد 1
حاکم 1
دانوں 1
ناصر 1
تَ@@ 1
ران@@ 1
سیل 1
كر@@ 1
سوسائٹی 1
کیوبک 1
کولوراڈو 1
wiki 1
استنبول 1
فرم@@ 1
تون@@ 1
سنسکرت 1
نم 1
38 1
8,@@ 1
فرمائی 1
يہ 1
25@@ 1
الک@@ 1
لينڈ 1
یر@@ 1
امید 1
انڈونیشیا 1
جسمانی 1
text 1
تحقیقی 1
گیارہ 1
رسائی 1
عشق 1
کیو 1
افسر 1
فائنل 1
فرزند 1
شک 1
فیصلے 1
187@@ 1
سکندر 1
مو 1
نیوز 1
سين 1
آسٹریلوی 1
سُ@@ 1
افریقی 1
وکٹوریہ 1
کلو@@ 1
55 1
راس 1
وبا 1
قبر 1
تیسرا 1
خیالات 1
ندہ 1
اصلاحات 1
حکمرانوں 1
محنت 1
مشن 1
مقاصد 1
شاندار 1
عائشہ 1
لک 1
1,0@@ 1
انٹر@@ 1
حص@@ 1
رہنماؤں 1
قلم 1
Rural 1
اسکواڈ 1
مری@@ 1
منگ 1
کری 1
A@@ 0.10109486702240152
شاگرد 1
پیغام 1
اکرم 1
تور@@ 1
سمجھ 1
ولیم 1
پڑھنے 1
کمار 1
2005 0.23676869279142304
58 1
رومانیہ 1
غرض 1
نوٹ 1
بمطابق 1
عَ@@ 1
ومی 1
کامل 1
مسل@@ 1
ممکنہ 1
مِ@@ 1
حساب 1
فق@@ 1
اوریگون 1
رواج 1
دعوی 1
42 1
44 1
قین 1
G@@ 0.08671032957426067
ارادہ 1
37 1
اني 1
انڈيانا 1
امیدوار 1
عزت 1
درا@@ 1
فرقہ 1
65 0.7776081001270911
نے@@ 1
شائر 1
محلہ 1
مہر 1
پش@@ 1
یور@@ 1
جانشین 1
ھی 1
تعارف 1
پانے 1
کُ@@ 1
ہیمپشائر 1
2009ء 1
ٹینیسی 1
معاملہ 1
توڑ 1
ذی@@ 1
دائ@@ 1
الف 1
اصحاب 1
بڑھ@@ 1
جناح 1
مد 1
امتحان 1
راز 1
اِن 1
باضابطہ 1
صوف@@ 1
يں 1
نازل 1
M@@ 0.09467165591815159
حوصلہ 1
محدث 1
2004 0.24531178188005093
وزن 1
زیارت 1
يم 1
تری 1
علماء 1
سول 1
ٹران@@ 1
گروہوں 1
آندھرا 1
فوری 1
میت 1
ونڈ@@ 1
2012ء 1
revision 1
186@@ 1
اعتراف 1
برا 1
جار@@ 1
جری@@ 1
لکھ 1
wikitext 1
ارب 1
داس 1
معاملے 1
الد@@ 1
مون 1
نارتھ 1
ؑ 1
بم 1
رح@@ 1
تن 1
نامے 1
شین 1
یہود 1
57 1
داؤد 1
سرو@@ 1
سکور 1
صدیق 1
1990 0.3320031874158262
P@@ 0.08032150082471065
اطالوی 1
تبلیغ 1
سوا 1
مقدمہ 1
ناقابل 1
پہاڑوں 1
تقریب 1
جوش 1
خطوط 1
شدت 1
عمان 1
گوئی 1
دیہ 1
ڈرامے 1
اوہائيو 1
قادری 1
دیوار 1
ye 0.6340094588287937
كنساس 1
پیپلز 1
رقص 1
مڈ@@ 1
اچھا 1
دُ@@ 1
روا@@ 1
پرورش 1
ونی@@ 1
عراقی 1
2020ء 1
راک 1
قریش 1
مینار 1
B@@ 0.08410770350589222
وح@@ 1
پاس@@ 1
بلدیات 1
پیری 1
تحری@@ 1
ذ 1
2007ء 1
انِ 1
زراعت 1
تصوف 1
شرف 1
75 1
الت 1
48 1
52 1
بھگ 1
پڑتا 1
2010ء 1
لون@@ 1
پیش@@ 1
کارکن 1
ہن 1
39 1
ساز@@ 1
ٹي 1
پانچویں 1
‎ 1
خیز 1
عبرانی 1
خاندانی 1
صنعتی 1
مساوات 1
ورڈ 1
منافع 1
43 1
بنگالی 1
جرم 1
پشتو 1
مداخلت 1
مشورہ 1
منصور 1
مک 1
ہوگئیں 1
ﮧ 1
رف@@ 1
سون 1
معین 1
41 1
گراؤنڈ 1
9,@@ 1
لیتا 1
عبور 1
لگتا 1
انصاری 1
مکان 1
نان 1
ڈیزائن 1
گھنٹے 1
مذاہب 1
آئی@@ 1
مذ@@ 1
47 1
جنت 1
روی 1
لہ@@ 1
بوسنیا 1
township 1
جد 1
پار 1
پریس 1
کیفیت 1
ئین 1
ربی 1
ھے 1
عظ@@ 1
اچھے 1
غزوہ 1
نبوی 1
امیہ 1
محمد@@ 1
چارلس 1
گری 1
ہارون 1
انور 1
ملکیت 1
46 1
54 1
نکاح 1
ar 0.07919037677152461
بڑھا 1
تہران 1
نیک 1
ڑھی 1
فال@@ 1
امارات 1
حامی 1
گار 1
ریٹ 1
وصول 1
ﮨ@@ 1
ئر@@ 1
ممبر 1
بچ 1
حس@@ 1
عش@@ 1
وسائل 1
روزنامہ 1
پون@@ 1
کھ 1
ہرا 1
دائرہ 1
64 0.8450082902272126
عص@@ 1
مونٹانا 1
گنی 1
اٹھایا 1
* 0.275183403535744
الل@@ 1
شمار@@ 1
اسٹیڈیم 1
ریاستیں 1
مرحوم 1
D@@ 0.08258473111264004
دنی@@ 1
سلم 1
کاس@@ 1
ظفر 1
فرما 1
نج 1
پو 1
کھو 1
گھرانے 1
اقتصادی 1
انو@@ 1
کاروباری 1
سلط@@ 1
1947ء 1
53 1
الينوائے 1
56 1
عز@@ 1
آکر 1
لبنان 1
95 1
جنگل 1
ساتھیوں 1
مرض 1
چندر 1
ڈائ@@ 1
گوشت 1
ہائ@@ 1
ﺳ@@ 1
خواہ 1
سادہ 1
شراکت 1
دیہی 1
ماسٹر 1
ہویں 1
عد@@ 1
منا 1
86 1
پرچم 1
سول@@ 1
عمومی 1
مبر@@ 1
نوعیت 1
چالیس 1
آور 1
رومن 1
وول@@ 1
پرانی 1
2006ء 1
اتحادی 1
سسٹم 1
مقبرہ 1
ٹھی 1
اخلاق 1
لائنز 1
ڑنے 1
ﮯ 1
الحسن 1
پہچان 1
خراب 1
سبھا 1
ماسکو 1
وفد 1
ٹک@@ 1
یقینی 1
سین@@ 1
قائ@@ 1
ماہ@@ 1
پُ@@ 1
ہیڈ 1
ﻨ@@ 1
خالی 1
مقبولیت 1
الہ@@ 1
بحریہ 1
فَ@@ 1
ہوا@@ 1
اٹ 1
نشین 1
ویہ 1
دمشق 1
سنا 1
ﻭ@@ 1
بھائیوں 1
وع@@ 1
فضائی 1
پنج@@ 1
امتیاز 1
برازیل 1
برقی 1
رحمہ 1
نین 1
پریفیکچر 1
چاندی 1
کنیت 1
کیسے 1
72 1
The 0.012401558967442041
آرٹ 1
اعزازات 1
فیس 1
ہول@@ 1
تد@@ 1
ستر 1
شعرا 1
ڈي@@ 1
طبیعیات 1
پڑ 1
قابو 1
بد 1
49 1
d 0.07541330874085
چینل 1
61 1
تباہی 1
دکھایا 1
چوتھی 1
مِ 1
کثرت 1
گیس 1
ائمہ 1
بڑھتی 1
ادھ@@ 1
بائی 1
آدم 1
ترمیم 1
زند@@ 1
سٹھ 1
ماتحت 1
میڈیکل 1
کئے 1
63 1
آغا 1
جم@@ 1
محاصرہ 1
73 1
صاح@@ 1
وآلہ 1
یحییٰ 1
62 1
پیغمبر 1
رائج 1
لیٹ 1
انسانوں 1
98 1
بلیک 1
دکن 1
59 1
آپس 1
ازبکستان 1
جیمز 1
ضرور 1
منگ@@ 1
جمہوری 1
بَ@@ 1
بچہ 1
پیٹ 1
رمضان 1
مانا 1
پڑھا 1
آمدنی 1
است 1
خوشی 1
کریک 1
اہی 1
بستی 1
تي 1
ورو 1
بیٹھ@@ 1
تنگ 1
ں@@ 1
92 1
ارد 1
دست 1
پچاس 1
گناہ 1
ذہ@@ 1
گنا 1
منڈی 1
ہوجاتا 1
دون@@ 1
لِ@@ 1
مظ@@ 1
دیو@@ 1
سفیر 1
وعدہ 1
یہیں 1
احترام 1
عناصر 1
85 1
88 1
97 1
علمائے 1
93 1
عقیدہ 1
نبوت 1
کوک 1
برف 1
تات@@ 1
نمائش 1
وائی 1
74 1
اش 1
زیر@@ 1
لل@@ 0.9415968974074159
سیف 1
لیتی 1
زرعی 1
وك@@ 1
گول 1
افریقا 1
فارغ 1
فوجوں 1
مواقع 1
2003 0.2543584381359178
شری@@ 1
قد@@ 1
ویٰ 1
بازو 1
جہلم 1
مسترد 1
ٹیکس 1
2004ء 1
دادی 1
وجوہات 1
99 1
جنوبي 1
خطہ 1
رسالہ 1
مْ 1
الاسلام 1
جوہر 1
فات 1
مستحکم 1
ئل 1
بھٹو 1
انٹرنیٹ 1
روابط 1
اون 1
سپرد 1
ئم 1
سج@@ 1
ویلی 1
83 1
انانکارپوریٹڈ 1
دودھ 1
سافٹ 1
ٹور@@ 1
کھی 1
دہلوی 1
گز@@ 1
سمت 1
ابو@@ 1
دِ@@ 1
ائیاں 1
ارک 1
مجمع 1
اوکلاہوما 1
سوئ@@ 1
تقریر 1
رکھنا 1
سوم 1
شب 1
نع@@ 1
يم@@ 1
خار@@ 1
مؤ@@ 1
منفرد 1
کوہ@@ 1
کھڑا 1
بندرگاہ 1
تنظیموں 1
ٔ 1
ڈرا@@ 1
سنی@@ 1
سکھوں 1
ویڈیو 1
بھاگ 1
تنازع 1
ریو 1
جنگوں 1
رحمت 1
منزل 1
پارلیمان 1
آسمان 1
اشیاء 1
راء 1
سمی@@ 1
سے@@ 1
بحال 1
دوسروں 1
خصوصیت 1
دیکھیے 1
سبز 1
اٹھا 1
تحقیقات 1
متی 1
پت 1
گائے 1
66 1
آگ@@ 1
خری@@ 1
ري 1
حکومتی 1
کلاسیکی 1
اسپین 1
ڈیرہ 1
کنگ@@ 1
بادشاہت 1
رسوخ 1
فوراً 1
معیاری 1
انیوں 1
بارش 1
دیوان 1
رُ@@ 1
طاقتور 1
84 1
ادات 1
94 1
افت 1
سرگرم 1
ظ 1
ایوب 1
باہمی 1
دیئے 1
سز 1
ایڈیشن 1
بیرون 1
رابطہ 1
68 1
جانتے 1
فاتح 1
پوسٹ 1
ہور@@ 1
87 1
برہ@@ 1
جي@@ 1
زین 1
شع@@ 1
فلا@@ 1
ﺟ@@ 1
بحالی 1
خلی@@ 1
زو@@ 1
یروشلم 1
لام 1
نیوں 1
ورہ 1
کہتا 1
Ch@@ 0.14463499164074914
متن 1
غم 1
عالیہ 1
غی 1
پڑھ 1
ادائیگی 1
فل 1
اض@@ 1
مساجد 1
ﻠ@@ 1
y 0.012870417144998137
ﺩ@@ 1
H@@ 0.08407947978697798
دھے 1
ملکوں 1
موا@@ 1
400 0.7702177571471258
بصرہ 1
بنانا 1
دیوبند 1
سماج 1
فض@@ 1
مورخین 1
پہن@@ 1
96 1
تعلیمات 1
وط@@ 1
یوکرین 1
1990ء 1
91 1
اشی 1
افسانہ 1
کرا 1
J@@ 0.12018518890687006
محبوب 1
سما@@ 1
ملی@@ 1
نسی 1
ہسپانیہ 1
مشاہ@@ 1
2002 0.23685384324429026
انو 1
پہنچی 1
کابینہ 1
بط@@ 1
تصاویر 1
حرف 1
فعال 1
یری 1
سور 1
وصال 1
فعل 1
لکڑی 1
اولین 1
راضی 1
سکی@@ 1
اوری@@ 1
77 1
لائبریری 1
والہ 1
2005ء 1
سع@@ 1
لڑکے 1
چودہ 1
ﺮ 1
دي 1
شامی 1
شنل 1
عصر 1
لڑکیوں 1
منڈ 1
ٹرک 1
پاكستان 1
جغرافیائی 1
لڑنے 1
اخذ 1
جاوید 1
داستان 1
ٹھا 1
1980 0.35343624225213566
مرکوز 1
نِ 1
ڈون@@ 1
پھول 1
فراہمی 1
مینی@@ 1
حیرت 1
عن@@ 1
لف 1
چکوال 1
تمغ@@ 1
جم 1
محاذ 1
پٹ 1
کیر@@ 1
یاتی 1
89 1
اشرف 1
صدارتی 1
قرض 1
متبادل 1
پل@@ 1
مات@@ 1
نشست 1
چیئرمین 1
ہائی@@ 1
بڑ@@ 1
سك@@ 1
گاڑی 1
بیٹنگ 1
مرک@@ 1
کاؤنٹیاں 1
51 1
on 0.013256242065962697
سفیان 1
مع 1
چیت 1
گز 1
71 1
صدیقی 1
طلاق 1
ویک 1
پچ@@ 1
78 1
Q@@ 0.4429561065929497
جذبات 1
رز@@ 1
سنیما 1
عارضی 1
کاٹ 1
رضوی 1
سیٹ 1
بحرین 1
مانہ 1
مشرف 1
پسندوں 1
گوا@@ 1
زیریں 1
قطر 1
وي 1
ربیع 1
قبائلی 1
ھا 1
185@@ 1
67 1
راجہ 1
سز@@ 1
سعود 1
منایا 1
چھاپ@@ 1
باتیں 1
عربوں 1
مہیا 1
کالم 1
نص@@ 1
ئیس 1
ایکٹ 1
تنازعات 1
منصب 1
منفی 1
قاف@@ 1
شراب 1
فخر 1
في 0.12522665188594567
وروں 1
ہرات 1
خشک 1
سپی@@ 1
موسی 1
اہے 1
جمعہ 1
طریقوں 1
ٹوٹ 1
دش@@ 1
صد 1
١@@ 1
کمیون@@ 1
حالیہ 1
ہوجاتی 1
اٹک 1
جوہری 1
فرض 1
ﭘ@@ 1
ملائیشیا 1
وتی 1
پورہ 1
این@@ 1
لگانے 1
وند 1
عمدہ 1
ٹون@@ 1
ڈچ 1
ندے 1
کپور 1
پیار 1
ہیرو 1
آتش 1
اتحادیوں 1
بوس 1
پبلک 1
69 1
محروم 1
کروایا 1
گیم 1
اڈے 1
واس 1
ﻤ@@ 1
مہاجرین 1
نکلا 1
ویتنام 1
ہے@@ 1
اخبارات 1
اسلحہ 1
خاک 1
خوراک 1
عقیدت 1
لٹ 1
چش@@ 1
راوی 1
مشي 1
ہری@@ 1
پھانسی 1
حسب 1
خور@@ 1
ولہ 1
پردہ 1
بائبل 1
المعروف 1
سام 1
بنا@@ 1
سرور 1
گس 1
آرٹس 1
بہاؤ 1
تہوار 1
فوت 1
79 1
بمبئی 1
تقی 1
جنازہ 1
مائی@@ 1
ائز 1
برز@@ 1
واٹر 1
چک@@ 1
2021ء 1
بیہ 1
واقعے 1
ﮭ@@ 1
جایا 1
سمندری 1
ویر 1
العزیز 1
بُ@@ 1
خارج 1
عبید 1
وائرس 1
گیری 1
تیرہ 1
فنون 1
چاروں 1
کلی 1
ناٹ 1
ٹاونشپ 1
آئینی 1
بھرپور 1
علیحدگی 1
فائر 1
ڈالی 1
ہہ 1
ا- 1
اسلا@@ 1
برداشت 1
برسوں 1
بٹ 1
ساتویں 1
ظاہری 1
فران@@ 1
ہیلی 1
03 1
اُسے 1
جماعتوں 1
درو@@ 1
شمسی 1
قیس 1
ارد@@ 1
سورت 1
عسکری 1
لازمی 1
نچ 1
وک@@ 1
پوزیشن 1
دفاعی 1
مانے 1
نائی 1
وید 1
گلی 1
حرام 1
رحمۃ 1
سائی@@ 1
34@@ 1
سہولت 1
76 1
تعینات 1
نعت 1
راش@@ 1
شاہراہ 1
صالح 1
آلات 1
اختیارات 1
امان 1
مارکیٹ 1
میوزک 1
کمان 1
82 1
منورہ 1
یل@@ 1
بحران 1
دھ 1
ڈالنے 1
احکام 1
سرے 1
گلوکار 1
آنکھوں 1
بردار 1
ریجنل 1
گزر 1
جگہوں 1
منظوری 1
گویا 1
ترا 1
شاہد 1
عبدالرحمن 1
عیسائی 1
وقف 1
چاہ@@ 1
سوچ 1
N@@ 0.07700279995571774
ابشار 1
بادشاہوں 1
ناروے 1
کیمپ 1
ایجاد 1
گرامی 1
ماخذ 1
نمونہ 1
پنسلوانيا 1
1945 0.33925771593070303
حارث 1
حضرات 1
سولہ 1
کالونی 1
آل@@ 1
صوبهٔ 1
میڈی@@ 1
2001 0.21689178330380543
محقق 1
کوری@@ 1
دلیل 1
پھیلا 1
طبقے 1
چنگ 1
القرآن 1
قم 1
مقابلوں 1
دراز 1
ونس 1
چیک 1
184@@ 1
33@@ 1
اخلاقی 1
پولی@@ 1
کنی@@ 1
ایوارڈز 1
کات@@ 1
ایڈیٹر 1
باشندے 1
بگ@@ 1
خانقاہ 1
شاع@@ 1
بنگ@@ 1
شل 1
لنے 1
میوزیم 1
ٹین 1
آصف 1
ئي 1
چند@@ 1
یعقوب 1
كول@@ 1
محرم 1
ظہور 1
عجائب 1
مونٹ 1
جرائم 1
جہازوں 1
شي@@ 1
کچ@@ 1
کیلئے 1
بجے 1
نسخہ 1
گاوں 1
نژاد 1
یاس@@ 1
عمری 1
کپڑے 1
شاپ@@ 1
ضی 1
مي 1
گانا 1
مایا 1
مفہوم 1
وارڈ 1
روپ 1
سادات 1
ہفتہ 1
وتوں 1
06 1
خرچ 1
مصنفین 1
مپ 1
چیزوں 1
ہیر 1
جنگ@@ 1
صلح 1
فانی 1
چاہے 1
دانی 1
2000ء 1
الان@@ 1
جوان 1
درہ 1
شور@@ 1
گھوڑے 1
81 1
ref 1
باد@@ 1
عبدالعزیز 1
عصمت 1
فن@@ 1
مبتلا 1
مثبت 1
وما 1
پیروی 1
آفس 1
صحافت 1
منز@@ 1
to 0.005238759312728637
جیتنے 1
رجحان 1
مادہ 1
ہنگ@@ 1
2002ء 1
تنازعہ 1
مراکز 1
مڈل 1
فیروز 1
مریم 1
میم 1
ولید 1
آی@@ 1
ڈیا 1
ریز 1
شرائط 1
فطرت 1
ءمیں 1
عمرؓ 1
آرمینیائی 1
ورانہ 1
الیک@@ 1
بول 1
سارا 1
09 1
مرے 1
انعقاد 1
فے 1
لڑی 1
1980ء 1
تجزیہ 1
ریاض 1
فرمان 1
مشکلات 1
مظفر 1
ٹرافی 1
تالیف 1
تیوں 1
جد@@ 1
سپریم 1
خل@@ 1
محیط 1
وین@@ 1
کاشت 1
طاقتوں 1
میساچوسٹس 1
گریجویشن 1
ھو 1
انگلش 1
سویڈن 1
ابوبکر 1
دلی 1
لیم 1
مذکورہ 1
کوئٹہ 1
ہٹ@@ 1
مشیر 1
کیپ 1
گذ@@ 1
فلسطینی 1
تازہ 1
تھو@@ 1
خاندانوں 1
فیڈریشن 1
قاری 1
اء@@ 1
اگو 1
سنچریاں 1
شری 1
ٹي@@ 1
کرناٹک 1
کرنل 1
۲@@ 1
اکا 1
تي@@ 1
فاؤنڈیشن 1
نجات 1
امکان 1
ْ 1
کث@@ 1
کیتھولک 1
ہوم 1
R@@ 0.06737612109580086
دِ 1
نویں 1
پروڈیوسر 1
بون 1
رکھ@@ 1
چان@@ 1
انڈر 1
شنز 1
لسٹ 1
چون@@ 1
عط@@ 1
ناد@@ 1
ٹیوب 1
انیسویں 1
راب 1
... 0.30019218423547395
زو 1
پسندی 1
کرداروں 1
an@@ 0.07530612174560969
ایجنسی 1
سرائے 1
کلکتہ 1
11@@ 1
استفادہ 1
تال 1
ترجیح 1
سینئر 1
قز@@ 1
قصبے 1
مشاہدہ 1
مينيسوٹا 1
سکو 1
وانی 1
ہیم 1
اندا@@ 1
کویت 1
اتھ 1
ادي 1
اطراف 1
تیمور 1
جہانگیر 1
راجپوت 1
شعبوں 1
2001ء 1
جوں 1
طل@@ 1
عوض 1
عید 1
افسران 1
انگیز 1
رہنمائی 1
صلاحیتوں 1
اقدام 1
مخدوم 1
چھوڑ@@ 1
کات 1
شعری 1
کیاں 1
جہان 1
دات 1
صفحہ 1
ننگ 1
وقار 1
علاحدہ 1
فیئر 1
قرا@@ 1
يس 1
پتی 1
پاک@@ 1
تبادلہ 1
رشید 1
مجموعے 1
نن 1
پین 1
حالی 1
سف@@ 1
كو 1
نما@@ 1
وکیل 1
چنے 1
افزائی 1
تیلگو 1
سفارتی 1
طاہر 1
کیچ 1
باز@@ 1
فنی 1
مذاکرات 1
اجتماعی 1
تیر@@ 1
خرا@@ 1
دیکھی 1
مسیحیت 1
واقف 1
چوتھے 1
وارث 1
کوی@@ 1
2003ء 1
ائف 1
مرحلے 1
کٹی@@ 1
اسپی@@ 1
اٹھارہ 1
بروز 1
زمینی 1
لاتے 1
نگا 1
دخل 1
رسمی 1
ریسرچ 1
اين 1
بدولت 1
فاصلہ 1
بیٹھے 1
حکومتوں 1
کیمی@@ 1
انفرادی 1
اہل@@ 1
سرحدی 1
لہٰذا 1
نفس 1
ٹیک 1
بچانے 1
ثہ 1
وکٹوں 1
گولی 1
اً 1
رائل 1
سانتا 1
طبقہ 1
اجی 1
اسم@@ 1
اکی 1
شبہ 1
شرط 1
نٹس 1
ولے 1
ٹیموں 1
پیرو 1
ادیوں 1
برلن 1
لائٹ 1
ڈل 1
ہے- 1
خرید 1
زد 1
ڈار@@ 1
1970ء 1
ایت 1
بائ@@ 1
بیٹوں 1
زمبابوے 1
مالا 1
فین 1
نڈے 1
کیل 1
ینی 1
سہولیات 1
فتوحات 1
اضافی 1
آرام 1
سورہ 1
شیں 1
انٹرویو 1
دیوتا 1
عالم@@ 1
کوششیں 1
کھنڈ 1
— 0.027349568613911874
02 1
A 0.05480796050136519
افی 1
ایئر@@ 1
جب@@ 1
مینی 1
ہتھیاروں 1
اراکین 1
شعور 1
فورسز 1
عارف 1
دماغ 1
قدیمہ 1
آرڈر 1
قسطنطنیہ 1
لاحی 1
کمی@@ 1
گیر 1
ہيں 1
الرحمٰن 1
اچانک 1
ّہ 1
احاطہ 1
سعادت 1
فاضل 1
ِّ@@ 1
اترپردیش 1
انڈی@@ 1
اگر@@ 1
ترکوں 1
شہزادی 1
قرون 1
مرشد 1
1970 0.3238950770654731
یرہ 1
ادے 1
لمبائی 1
مہمان 1
00@@ 1
قَ@@ 1
ماری 1
يو 1
جیو 1
حمید 1
منہ@@ 1
سیل@@ 1
فاروق 1
نسن 1
نڈا 1
بیر@@ 1
درمیانی 1
كھ@@ 1
يون@@ 1
گھو@@ 1
05 1
سٹر@@ 1
شکر 1
عجیب 1
08 1
سفارت 1
نیں 1
پچھلے 1
1992 0.2685729123250792
سلمان 1
سود 1
سینی@@ 1
شتہ 1
لون 1
پاؤں 1
انکا 1
ایڈی@@ 1
بالخصوص 1
بیٹھ 1
تلوار 1
چشتی 1
1991 0.2758839360098529
تناسب 1
جاسکے 1
جغرافیہ 1
جمہوریت 1
سالار 1
1948ء 1
1999 0.21645047208801926
باؤلنگ 1
باغی 1
بنتا 1
متوفی 1
يري 1
ازی 1
علي 1
مظہر 1
ٹاور 1
الاس@@ 1
ورثہ 1
پرویز 1
اتنے 1
اینڈ@@ 1
جرا@@ 1
جوزف 1
سنائی 1
فقیہ 1
سَ@@ 1
شات 1
چوٹی 1
کرنی 1
انحصار 1
زدہ 1
وق 1
موبائل 1
کنڈ@@ 1
اطلاعات 1
زیاد 1
لک@@ 1
چترال 1
الحدیث 1
سترہ 1
مذکور 1
پکڑ 1
ہاشم 1
یونس 1
al 0.030669623337322215
ایام 1
سکونت 1
طبع 1
لغت 1
میگزین 1
الي@@ 1
جاسکتی 1
جسٹس 1
عاش@@ 1
ہندوؤں 1
تعالی 1
داخلی 1
بائی@@ 1
توا@@ 1
حرم 1
زیوں 1
سلامتی 1
کہلاتے 1
پائی@@ 1
چلانے 1
بز@@ 1
قریشی 1
قیامت 1
آگیا 1
انیا 1
ریٹائرمنٹ 1
عظمت 1
مورخ 1
کہانیاں 1
1960 0.3489489274664865
بہاولپور 1
شافعی 1
شیو 1
کوش@@ 1
ماہی 1
ٹریٹ 1
10.@@ 1
تاہے 1
سیالکوٹ 1
عقل 1
عیسیٰ 1
محسن 1
ناز 1
نوجوانوں 1
1950 0.3806921964810308
صدارت 1
مدیر 1
تیر 1
جملہ 1
ضبط 1
قد 1
قدر@@ 1
Municipality 1
قدرت 1
ویٹ 1
زمان 1
صنف 1
طوفان 1
غزنوی 1
مراٹھی 1
نوی 1
گاہوں 1
بناتے 1
بھال 1
وسكونسن 1
استع@@ 1
بِ 1
بیسویں 1
ذہن 1
فرید 1
فضائیہ 1
مزاحیہ 1
الخط 1
ساح@@ 1
ٹيكساس 1
حفظ 1
خراج 1
ہوسکتا 1
جل 1
ناظم 1
1947 0.5166753494123898
باللہ 1
خلا@@ 1
لسانی 1
نہر 1
آنکھ 1
حق@@ 1
فورٹ 1
لز@@ 1
مزاج 1
پوجا 1
کرد 1
کہاں 1
گرما 1
رع@@ 1
زیب 1
پٹی 1
ادوں 1
جائز 1
دیت 1
منص@@ 1
نوی@@ 1
ني 1
پرانا 1
اوس@@ 1
قدمی 1
ناب@@ 1
150 0.8755651013188637
بدلے 1
تکلیف 1
جام 1
ساخت 1
ویت 1
لاکھوں 1
متوا@@ 1
اسکولوں 1
مدار 1
آرمینیا 1
بي 1
ستر@@ 1
مسند 1
میڈ@@ 1
1999ء 1
ذخیرہ 1
شہاب 1
مبینہ 1
کوٹ@@ 1
گلگت 1
ایڈاہو 1
فضا 1
گنگا 1
امری@@ 1
ہون 1
بھر@@ 1
جنگجو 1
حمد 1
دامن 1
زبیر 1
اعمال 1
جائ@@ 1
سرہ@@ 1
شائ@@ 1
عباس@@ 1
قیاس 1
ندا 1
دام@@ 1
رابرٹ 1
سیریل 1
نیت 1
ہڑ@@ 1
آپری@@ 1
تمہیں 1
کیٹ 1
بیش 1
روک@@ 1
سیکرٹری 1
فرینکلن 1
ڈیوڈ 1
گیٹ 1
جارجيا 1
فیل@@ 1
نگاہ 1
پھل 1
ڈراموں 1
کاو@@ 1
کینی@@ 1
نازی 1
ويل 1
پلیٹ 1
ہانی 1
ہندو@@ 1
اظ@@ 1
کنیکٹیکٹ 1
04 1
اجداد 1
گزار 1
C@@ 0.06402080823267438
اوراس 1
لب 1
مرنے 1
يَ@@ 1
کلے 1
کھیل@@ 1
اتار 1
راجستھان 1
ﻋ@@ 1
امراض 1
سیاحت 1
عثمانیوں 1
ٹار@@ 1
گرے 1
جع@@ 1
ریاض@@ 1
لیاں 1
المطلب 1
ضہ 1
مای@@ 1
ایکشن 1
سرپرستی 1
صفر 1
نصب 1
چیزیں 1
یونٹ 1
قاہرہ 1
لنکن 1
مغربي 1
نکلے 1
يارك 1
جنگلات 1
طی 1
لغ@@ 1
مصنوعات 1
ڈبلن 1
کال 1
ہوسکتی 1
بھیجے 1
جمع@@ 1
ضیاء 1
کہانیوں 1
O@@ 0.07814396455233515
i 0.08270458560721612
جنکشن 1
منظ@@ 1
نظامی 1
کارکنوں 1
1998ء 1
آش@@ 1
فص@@ 1
لح@@ 1
مبار@@ 1
وج 1
چیمپئن 1
کشتی 1
1998 0.2221199705655159
ائیڈ 1
كس 1
یسوع 1
تاً 1
دہائیوں 1
مغلیہ 1
خیر@@ 1
ہمد@@ 1
عد 1
ورجينيا 1
کشمیری 1
ہوچکی 1
خز@@ 1
دائی 1
شیوں 1
فورا 1
ویئر 1
یکساں 1
1960ء 1
دیہات 1
سرد 1
سیا 1
ٹائم 1
کبیر 1
ہز@@ 1
پڑھی 1
گنے 1
ﮐﮯ 1
اصولوں 1
اطالیہ 1
تلامذہ 1
خالص 1
خلیل 1
ڈینی@@ 1
اچ@@ 1
متحد 1
ونٹ 1
اختلافات 1
اخراجات 1
امات 1
خاص@@ 1
روزانہ 1
نغ@@ 1
تعین 1
سمجھنے 1
قفقاز 1
کاک@@ 1
کینیا 1
گنبد 1
القادر 1
ترو@@ 1
ستانی 1
سلمہ 1
ضروریات 1
ضی@@ 1
ماخوذ 1
ناس@@ 1
ٹیل 1
ah 0.30580629792943953
اوب@@ 1
خانوں 1
لمبی 1
مفید 1
z@@ 0.08486828259923145
» 0.02157601111555314
اننگ 1
سازش 1
ژاں 1
گلیشیر 1
گہری 1
روی@@ 1
ڈیو 1
کمپنیوں 1
باغیوں 1
سرکار 1
فیل 1
منصوبوں 1
ڈھانچے 1
بقول 1
خام 1
حَ@@ 1
عرف 1
موری@@ 1
نوری 1
کیمیائی 1
ﺘ@@ 1
0,@@ 0.6232510146702351
تابعین 1
جزوی 1
ٹروں 1
چھٹی 1
گزشتہ 1
ماہنامہ 1
نوب@@ 1
ٹھے 1
07 1
آنا 1
بھاگ@@ 1
خاموش 1
سبھی 1
سين@@ 1
عمارتوں 1
ڈیٹا 1
600 0.8656444891536372
district 0.2554158875782074
بیل@@ 1
دوستی 1
عنصر 1
مہار@@ 1
ولس 1
خطرے 1
سڈنی 1
نوآبادیاتی 1
کھیلتے 1
آٹھویں 1
إِ@@ 1
انتہا 1
بچنے 1
خوار@@ 1
ذوق 1
فحش 1
موہن 1
يك@@ 1
پری 1
کوا@@ 1
ائیت 1
اصلی 1
بالائی 1
رفتہ 1
عہدوں 1
غالباً 1
كل@@ 1
دت 1
سوائے 1
سورۃ 1
معمول 1
نفرت 1
نون 1
وئی 1
ڈا@@ 1
ڈس 1
اڑ 1
بگ 1
صلاح 1
لس@@ 1
مربوط 1
تان@@ 1
لاک 1
کونسلیں 1
گہرا 1
الحال 1
الوں 1
سس 1
عق@@ 1
پرواز 1
is 0.008790086130250943
مذمت 1
مہینوں 1
نصر 1
ورژن 1
گوئ@@ 1
یٰ 1
1,4@@ 1
لارڈ 1
پشتون 1
انصار 1
فسادات 1
مکر@@ 1
نکل@@ 1
ٹیاں 1
انڈسٹری 1
ساحلی 1
سوشل 1
قرارداد 1
ليك 1
پریشان 1
چودھری 1
الا@@ 1
انتداب 1
اہلیہ 1
ریٹائر 1
لگائے 1
1ھ 1
سدھ@@ 1
مول 1
Z@@ 0.09341549950932593
ذہنی 1
زان 1
شروعات 1
صارفین 1
معی@@ 1
نظر@@ 1
کیہ 1
ایلن 1
سینکڑوں 1
نڈی 1
کیس 1
تاجر 1
تال@@ 1
تجربات 1
سپاہی 1
غلطی 1
کول 1
اکائی 1
جلا 1
خش@@ 1
رن@@ 1
وسی@@ 1
چھوڑنے 1
گوار 1
پوتے 1
بلایا 1
تاب 1
دستاویزات 1
دوس@@ 1
ساک@@ 1
علوی 1
قلب 1
کیم@@ 1
زل 1
میڈیسن 1
United 0.09736550151317125
بلغ@@ 1
خلائی 1
ونگ@@ 1
پھیلی 1
ہنری 1
1989 0.2724777035019294
وري 1
آفتاب 1
امامت 1
تلفظ 1
وص@@ 1
گرانٹ 1
انتظار 1
تحریری 1
تدفین 1
پہنچایا 1
چوک 1
1997 0.2284086709889161
بات@@ 1
بع 1
لِ 1
نمائندہ 1
يْ@@ 1
کیر 1
گورن@@ 1
یان 1
بسر 1
ـ@@ 1
میزبانی 1
یوگنڈا 1
حتمی 1
رم 1
شوکت 1
مدھ@@ 1
تھامس 1
کلارک 1
گلوکارہ 1
ہوچکا 1
ارجنٹائن 1
الزامات 1
بابر 1
سرگودھا 1
قض@@ 1
لانگ 1
میجر 1
جج 1
دشمنی 1
800 0.8721356624897361
اُردو 1
حلقوں 1
مدی@@ 1
کف@@ 1
گھاٹ 1
1,6@@ 1
امارت 1
حک@@ 1
رِ@@ 1
مدارس 1
پڑھتے 1
کوب@@ 1
زاد 1
سونا 1
فاس@@ 1
قل 1
لطف 1
لمح@@ 1
نظیر 1
ٹیک@@ 1
پلے 1
ہرزیگووینا 1
ادھر 1
برآمد 1
توپ 1
W@@ 0.06052483553259008
باتوں 1
پین@@ 1
الیس 1
دوا@@ 1
خزانہ 1
رومان@@ 1
كار@@ 1
لیل 1
q@@ 0.6136122117901891
اموات 1
ایلی@@ 1
سیکس 1
وچ 1
ٹز 1
پوپ 1
کھر 1
minor 1
رتی 1
رضاک@@ 1
مسو@@ 1
پنے 1
کشش 1
ہٹلر 1
الام@@ 1
بای@@ 1
درآمد 1
سمجھے 1
وامی 1
چاہئے 1
آغ@@ 1
آمد@@ 1
حلقے 1
زادہ 1
متع@@ 1
1992ء 1
جور@@ 1
جیفرسن 1
شرا@@ 1
ہفتے 1
01 1
1940 0.3813068201652697
ایشیاء 1
حیاتیات 1
نصیر 1
یہودیت 1
بھرتی 1
تار 1
تمہاری 1
نَ@@ 1
کالا 1
کالی 1
تھوڑی 1
ستارے 1
معاشیات 1
ڈیز 1
افرا@@ 1
رہنا 1
پچیس 1
1950ء 1
تض@@ 1
دلی@@ 1
مساوی 1
ٹائمز 1
کھڑی 1
municipality 0.7938799477194277
آگاہ 1
ئس 1
احد 1
اریوں 1
اسلوب 1
الیہ 1
سمجھی 1
ہاکی 1
b@@ 0.06732634178732397
اسلم 1
اکر 1
راں 1
غلامی 1
فیئر@@ 1
کرسکتے 1
کسی@@ 1
ہؓ 1
1996 0.22082426029406696
e@@ 0.060067149668459774
انسانیت 1
توب@@ 1
جمعیت 1
زنی 1
ماؤ@@ 1
وایا 1
ویلا 1
پوچھ@@ 1
الدين 1
انجن 1
پیٹر 1
اولمپکس 1
جاؤ 1
جات@@ 1
دستور 1
دول@@ 1
قات 1
وَ 1
پرتگالی 1
گان@@ 1
ہمارا 1
ایش@@ 1
بولتے 1
عن 0.9929779032332415
قائل 1
پھر@@ 1
ادوار 1
اپنایا 1
بزرگوں 1
رانا 1
مرکب 1
ناکامی 1
وسعت 1
جوڑے 1
ہتر 1
ئیں 1
تل 1
جاکر 1
مام 1
وتھ 1
ویسٹ@@ 1
کمرے 1
b 0.14309539038440924
آہ@@ 1
دوستوں 1
1918 0.45793587309797373
المن@@ 1
الیکشن 1
سالم@@ 1
ورزی 1
کینٹ 1
بلتستان 1
تاج@@ 1
لٹن 1
میزائل 1
میک@@ 1
یاب 1
دف@@ 1
مثالیں 1
پیٹر@@ 1
استحکام 1
اصفہان 1
فطری 1
قار@@ 1
مالیاتی 1
مباح@@ 1
مگ@@ 1
ٹرین 1
اثنا 1
تُ@@ 1
رنجیت 1
ساس@@ 1
موسیقار 1
کیم 1
ھم 1
الرشید 1
عنایت 1
لیبیا 1
مائل 1
ہاشمی 1
E@@ 0.06565793355185348
النہار 1
جینی@@ 1
ریاں 1
نثر 1
ویر@@ 1
البر@@ 1
وْ@@ 1
گور 1
رول 1
لاش 1
ڈھاکہ 1
کارپوریشن 1
دوا 1
مسٹر 1
کشی@@ 1
بلقان 1
حجر 1
لائی@@ 1
کہلاتی 1
الاسکا 1
الحاق 1
توقع 1
قیمتی 1
ملوث 1
منتقلی 1
يت 1
چو 1
ڈاک 1
ہوچکے 1
افضل 1
اگلی 1
بٹلر 1
موقف 1
نیہ 1
گراف 1
تراجم 1
فور 1
محققین 1
کانگ 1
رپور@@ 1
مید 1
پیرش 1
کرہ 1
گایا 1
تغ@@ 1
سلسل@@ 1
مراحل 1
مسافر 1
گرینڈ 1
1997ء 1
رام@@ 1
میز 1
دیکھے 1
لوب 1
پریمیئر 1
تحریروں 1
ثر 1
غلبہ 1
لوئس 1
پلان@@ 1
گرجا 1
ہوٹل 1
1993 0.23731376961597206
تسلط 1
خطیب 1
نذر 1
ولد 1
ٹھیک 1
چارج 1
یہو@@ 1
مالیہ 1
نظریاتی 1
یب 1
sur 0.04697019067741084
آسام 1
اوران 1
بازنطینی 1
جیک 1
ذی 1
مارکس 1
مثلا 1
ملت 1
کرمان 1
کلیسیا 1
I@@ 0.09317793270860938
Sh@@ 0.15295494419137187
ترقیاتی 1
دسویں 1
شجرہ 1
Y@@ 0.12193125385890542
آباد@@ 1
ستانہ 1
علامات 1
لکھیں 1
پرائمری 1
چکر 1
تیرے 1
جوڑ 1
روزگار 1
نبھ@@ 1
وزیر@@ 1
1920 0.3985765172332993
اوت@@ 1
بادشاہی 1
ومن 1
گریٹ 1
گیلانی 1
93.@@ 1
قدامت 1
مستعمل 1
موثر 1
کارروائیوں 1
گوری@@ 1
اضافے 1
تیری 1
عزم 1
لارنس 1
موضع 1
وائیومنگ 1
۰@@ 1
بج@@ 1
داں 1
مرو 1
وض@@ 1
ولایت 1
خطرناک 1
ساوتھ 1
طارق 1
نصاب 1
کپتانی 1
States 0.12615364831532697
d@@ 0.061107010645986434
امجد 1
اونٹ 1
مچھلی 1
تخمینہ 1
جلدوں 1
حجاز 1
طالب@@ 1
نمودار 1
12.@@ 1
انوی 1
تحصی@@ 1
روان@@ 1
لیکر 1
کیرئیر 1
گزرنے 1
ہرے 1
1993ء 1
Ohio 0.7237122613938274
اسی@@ 1
ریکار@@ 1
سروے 1
سوڈان 1
کنی 1
قیدیوں 1
چائ@@ 1
ہرا@@ 1
1971ء 1
ایکسپریس 1
جمی@@ 1
ذوال@@ 1
شرعی 1
طیارے 1
پوں 1
گرفتاری 1
1996ء 1
ادر 1
ارض 1
ارڈ 1
جنگجوؤں 1
جنی@@ 1
قربانی 1
نفاذ 1
ووڈ@@ 1
250 0.9476763115596295
الٰہی 1
ستارہ 1
مانتے 1
میری@@ 1
نکالا 1
ونڈ 1
ڈور 1
المومنین 1
ایتھ@@ 1
بحیثیت 1
جدا 1
خام@@ 1
دیکھیں 1
مریض 1
مشغول 1
وینی@@ 1
پاب@@ 1
کارڈ 1
F@@ 0.053778401999907514
اولی@@ 1
مسلک 1
نقشہ 1
پالی 1
یوٹاہ 1
تشریح 1
برٹ 1
دوب@@ 1
ستاروں 1
ستوں 1
سیلاب 1
فوجیں 1
at 0.013203630048005639
اعی 1
ضرب 1
واسطہ 1
کمان@@ 1
کیپ@@ 1
ہوجائے 1
ہیرو@@ 1
یلی 1
y@@ 0.07791600318011878
ضم 1
طبقات 1
میٹرک 1
ناڈو 1
هُ 1
اوبلاست 1
برو 1
سختی 1
ماجد 1
نٹل 1
هِ 1
چوری 1
ڈان 1
V@@ 0.06960107802630203
en 0.004815805146755613
بخارا 1
بقیہ 1
خر 1
قری@@ 1
متوں 1
کرائی 1
کعب 1
700 1
آلو@@ 1
ازیں 1
منع 1
مکتب 1
ندیوں 1
ہمہ 1
فلی@@ 1
فیت 1
متعین 1
ﻟ@@ 1
تکنیکی 1
خصوصاً 1
خلفاء 1
1941 0.33956734846204123
احمد@@ 1
بالترتیب 1
بوجھ 1
بڑھانے 1
ثق@@ 1
قلمی 1
1,3@@ 1
10,@@ 1
11.@@ 1
تعالٰی 1
زیں 1
کھول 1
تاجکستان 1
ثی 1
جبل 1
جز@@ 1
رحیم 1
شد 1
ناد 1
کلنٹن 1
1988ء 1
} 1
تحلیل 1
حامد 1
مدنی 1
مقالہ 1
مکی 1
ٹون 1
ہمت 1
ہٹا 1
1,8@@ 1
195@@ 1
I 0.06873689759434015
مقابل 1
آم@@ 1
جذ@@ 1
رسالت 1
لوی 1
لکھنا 1
مجاہدین 1
افسانے 1
بہتری 1
طریقت 1
فقیر 1
قس@@ 1
نقش 1
یقی@@ 1
تائید 1
سوی 1
طلباء 1
مسئلے 1
نْ@@ 1
ٹین@@ 1
گرا 1
بٹ@@ 1
تھر@@ 1
فلو@@ 1
لمبے 1
مزدور 1
پایہ 1
ڑیاں 1
انچ 1
فرنٹ 1
کرشن 1
1,7@@ 1
آسٹ@@ 1
باکو 1
جذبہ 1
شہز@@ 1
صنع@@ 1
فيلڈ 1
وابستگی 1
کیمبرج 1
1988 0.25567853601593316
جلاوطنی 1
خلیات 1
صاحبزادے 1
معاش@@ 1
پسندیدہ 1
کرن 1
کیلی 1
ورنہ 1
کرانے 1
1977ء 1
c 0.10291418243875132
u 0.09475518658399727
اصرار 1
بلاک 1
ساٹھ 1
قات@@ 1
ماری@@ 1
البم 1
حت 1
خوف@@ 1
فرن@@ 1
مریخ 1
چوہدری 1
ڈنمارک 1
اورنگ 1
دید 1
رئیس 1
روت 1
لیڈر 1
ملازم 1
واہ 1
ڈینس 1
فلکیات 1
مبی@@ 1
مسوري 1
واک 1
ورمونٹ 1
پڑھائی 1
گولڈ 1
14.@@ 1
دشمنوں 1
رون@@ 1
ستم 1
شکایت 1
قبر@@ 1
نقاد 1
چراغ 1
1,5@@ 1
آئندہ 1
اتِ 1
ساہ@@ 1
نکلنے 1
13.@@ 1
1985ء 1
آسٹریلیائی 1
جنگلی 1
حمزہ 1
زینب 1
شب@@ 1
معرکہ 1
موی@@ 1
نصیب 1
پیرا 1
پیچیدہ 1
اتر@@ 1
الاول 1
اوور 1
بتاتے 1
حقائق 1
شیعوں 1
مرہ@@ 1
وجے 1
پلی 1
پینے 1
کلمہ 1
ائش 1
بوت@@ 1
183@@ 1
2ھ 1
امتیازی 1
اُنہوں 1
سرگرمیاں 1
سزائے 1
مفت 1
اسود 1
منسوخ 1
پوس@@ 1
ہول 1
ائم 1
جانتا 1
زِ 1
سرائیکی 1
سکریٹری 1
شیطان 1
ندھ@@ 1
وائس 1
et 0.008432522114831935
اسٹو@@ 1
دب@@ 1
دَ@@ 1
سکون 1
پیرا@@ 1
کیا@@ 1
ﺪ@@ 1
مائیکل 1
مستند 1
ہمدر@@ 1
1995ء 1
بک@@ 1
سیکیورٹی 1
لیو 1
پچھ@@ 1
ڈپٹی 1
حنفی 1
سنبھال 1
عورتیں 1
اشتہ@@ 1
قواعد 1
نظمیں 1
پابند 1
ہوجاتے 1
ابہ 1
پارلیمانی 1
پوائنٹ 1
چوبیس 1
کھلے 1
سیک@@ 1
منقسم 1
میلبورن 1
نفسیات 1
وزہ 1
ۃ@@ 1
اسپ@@ 1
باکس 1
عالمگیر 1
اسباب 1
انسی 1
بیوں 1
صحبت 1
چہرے 1
گروپوں 1
اسٹریٹ 1
افغ@@ 1
جاس@@ 1
رسائل 1
پول 1
1939 0.3434985611279495
بیڑے 1
فیہ 1
مرید 1
ٹکڑے 1
ڑو 1
1971 0.3113770445171207
Bot 1
انکشاف 1
دستے 1
رحم 1
کعبہ 1
1944 0.2991723384572115
1982ء 1
j@@ 0.07789244522909622
تھک 1
خطبہ 1
نتی@@ 1
واج 1
پیر@@ 1
کانوں 1
کسانوں 1
کیل@@ 1
ہزارہ 1
ﮐﯽ 1
40@@ 1
ریشن 1
فوائد 1
مجدد 1
ڈرامہ 1
۹@@ 1
1989ء 1
name 0.1126024426358413
بزنس 1
تقری@@ 1
جاوا 1
رخصت 1
ضے 1
وصیت 1
وِ@@ 1
پلو@@ 1
پہچ@@ 1
Kh@@ 0.44965526540702794
بیریا 1
سنگاپور 1
يات 1
پروڈکشن 1
چم@@ 1
کاس 1
گرہن 1
براعظم 1
سرگرمی 1
قمر 1
ٹرا@@ 1
چوتھا 1
00 0.5543292852784366
روپیہ 1
مہاراجا 1
نٹن 1
یْ@@ 1
« 0.017512313728732107
تہذی@@ 1
فرقے 1
ہلا@@ 1
نفسیاتی 1
کھل 1
ؐ 1
تھر 1
جھڑ@@ 1
دوس 1
فون@@ 1
مخلوق 1
کرائے 1
1995 0.20099388718774738
بیمار 1
جز 1
خت 1
غار 1
لانگ@@ 1
نیدرلینڈز 1
ٹا@@ 1
پھو@@ 1
چنگ@@ 1
ڈي 1
# 0.4192997112970904
اوهایو 1
تنقیدی 1
سار 1
فرعون 1
لاتی 1
نمونے 1
کھلی 1
کیپر 1
گلا@@ 1
گھوم@@ 1
ہانگ 1
الو 1
اُنہیں 1
شہر@@ 1
مدر@@ 1
ویکیپیڈیا 1
پتا 1
s@@ 0.03678530948707584
الدولہ 1
دیستریک 1
سوت@@ 1
سٹو@@ 1
قابض 1
منط@@ 1
منگول 1
میا 1
یز@@ 1
180@@ 1
1979ء 1
جھنگ 1
دلچسپ 1
دیسی 1
مبر 1
میٹروپولیٹن 1
نظریے 1
گریڈ 1
1948 0.36467234424842565
اموی 1
بینک@@ 1
رگ@@ 1
شیر@@ 1
قادر 1
موسوم 1
ڈیلاویئر 1
کانتی 1
المع@@ 1
تنہا 1
راشد 1
رِ 1
ستا 1
سینا 1
سیکنڈ 1
مکالم@@ 1
مکھ@@ 1
نغمہ 1
ڑھ 1
گردش 1
گوا 1
ینگ 1
آگرہ 1
اٹھ 1
اہلِ 1
ماحولیاتی 1
کورس 1
h@@ 0.06445151298736201
ئے@@ 1
سوا@@ 1
عب 1
نائی@@ 1
ڈن@@ 1
رين 1
لہجہ 1
چنا 1
أ@@ 0.8638207841221421
ابرا@@ 1
امرتسر 1
قیدی 1
ویو 1
پارہ 1
کب 1
آس@@ 1
ایریزونا 1
جائداد 1
دھرم 1
کھلا 1
ﮩ@@ 1
اشترا@@ 1
اغوا 1
تارکین 1
تسم@@ 1
لطیف 1
تلا@@ 1
سارہ 1
صورتحال 1
مطالعے 1
کھوار 1
گھی@@ 1
120 0.9020114007628734
اصطلاحات 1
العلماء 1
امِ 1
بینڈ 1
جیب 1
عکس 1
پیمائش 1
1974ء 1
استحصال 1
بائیس 1
قصہ 1
ﻮ 1
اسپتال 1
الوی 1
ایتھوپیا 1
بعہ 1
رجب 1
عبدالح@@ 1
قیہ 1
یحی@@ 1
دانہ 1
سیدہ 1
صف 1
غربت 1
مناظر 1
نَ 1
ھو@@ 1
1994 0.19662465401883977
ترجمان 1
تنظی@@ 1
جابر 1
جھگ@@ 1
دفاتر 1
رویہ 1
سراج 1
قابلِ 1
مجاہد 1
ندوی 1
چاہتی 1
کاش 1
as 0.007828887724115028
دستاویز 1
راد 1
مخالفین 1
ولو 1
ٹاپ 1
پورٹو 1
اجن@@ 1
اشع@@ 1
سفار@@ 1
عذاب 1
میزبان 1
پونچھ 1
or 0.022736777572010588
ارتقا 1
ایکس 1
باقر 1
فس@@ 1
فوں 1
گوجرانوالہ 1
احسان 1
بظاہر 1
بلین 1
تاری@@ 1
قندھار 1
مطلق 1
نتالیس 1
وراثت 1
وکالت 1
انڈے 1
اپیل 1
تبدیلیاں 1
توحید 1
شکل@@ 1
مرحلہ 1
ٹیلی@@ 1
پاد@@ 1
پروگراموں 1
ہد@@ 1
ہمایوں 1
ہي@@ 1
رئ@@ 1
سرب@@ 1
ملٹری 1
ڈسن 1
اعوان 1
انیاں 1
ایڈورڈ 1
بق@@ 1
دیواروں 1
رکاوٹ 1
لتا 1
واق@@ 1
ٹیز 1
1000 0.6773367020859943
اري 1
بنائیں 1
بين@@ 1
ریکو 1
زلزلے 1
لك@@ 1
نمبر@@ 1
ۓ 1
ابت 1
اتھ@@ 1
اریہ 1
برتن 1
داعش 1
سکاٹ 1
كري@@ 1
چھت 1
ڈک@@ 1
ڈیجیٹل 1
گرمی 1
بڑھنے 1
حان 1
خالق 1
ریٰ 1
سپاہیوں 1
فنڈ 1
میٹ@@ 1
وضع 1
ومت 1
2022 0.40513215547000697
by 0.009945795860569397
افسوس 1
انٹر 1
بناتا 1
تعل@@ 1
حجاج 1
لیت 1
1984ء 1
village 0.14665097804269212
درحقیقت 1
متنازع 1
نذیر 1
واری 1
پاور 1
گھر@@ 1
11,@@ 1
1930 0.34866757031655915
22@@ 1
اط 1
افتتاح 1
الرحمان 1
بہرائچ 1
بیٹھا 1
زیدی 1
سٹوں 1
سچ 1
لیز 1
يور@@ 1
گہرائی 1
2,0@@ 1
ar@@ 0.05931997882871464
آدمیوں 1
اوت 1
غائب 1
ّی 1
گنگ@@ 1
امر@@ 1
امرا 1
بڑھتے 1
جھو@@ 1
داغ 1
ملازمین 1
میں@@ 1
ہروں 1
1965ء 1
ارہویں 1
بہادری 1
تدریسی 1
ثے 1
جڑ@@ 1
دگار 1
زبانی 1
طہ 1
نعیم 1
چہرہ 1
اوس 1
سائز 1
لال@@ 1
چنا@@ 1
ڈیموکریٹک 1
1972ء 1
مصطفی 1
وث@@ 1
پیروکار 1
چیچن 1
کھاتے 1
گہ 1
ﺣ@@ 1
ایس@@ 1
خوبصورتی 1
عکاسی 1
وارانہ 1
ہالی 1
بنتی 1
مين 1
1975ء 1
خور 1
سوشلسٹ 1
لڑکا 1
مشین 1
ً 1
ہمس@@ 1
الکاہل 1
الیون 1
بري@@ 1
محترم 1
پرتگال 1
ڈس@@ 1
کائ@@ 1
ﮞ 1
انکی 1
سویں 1
شہریت 1
فلسفی 1
ٍ 1
کمانڈ 1
الذکر 1
اواخر 1
ایجن@@ 1
جنھیں 1
حي@@ 1
ریزی 1
سنبھ@@ 1
فاروقی 1
نگے 1
پاپ@@ 1
گاڑیوں 1
بھٹی 1
سڑکوں 1
عادل 1
معزول 1
نایا 1
دک 1
سرداروں 1
متفق 1
مسی@@ 1
میئن 1
ٹڈ 1
چھتیس 1
یخ 1
la 0.003309230515778165
تاث@@ 1
خوان 1
دینار 1
صحرا 1
لگائی 1
مارک 1
کوالی@@ 1
گریجویٹ 1
تفصیلی 1
مہی@@ 1
وزی@@ 1
کیوبا 1
بیری 1
تامل 1
تشیع 1
روسیوں 1
شق@@ 1
لفظی 1
مولا 1
نزول 1
ٹکٹ 1
کارنامہ 1
آبی 1
اِسی 1
درانی 1
مؤرخ 1
کاف@@ 1
19ء 1
آرتھر 1
اص 1
بچا 1
زکریا 1
لوزیانا 1
واس@@ 1
اخلا@@ 1
بزر@@ 1
جال 1
جلو@@ 1
سواری 1
قصور 1
مم@@ 1
میرا@@ 1
چاول 1
1984 0.2499005846418157
آمادہ 1
خاصی 1
سیارے 1
عقبہ 1
مرضی 1
1986 0.24356224212873934
اسٹالن 1
ذر 1
سنجی@@ 1
مرا 1
مقد@@ 1
واڈور 1
يني 1
اوٹ@@ 1
ایگزیکٹو 1
بازوں 1
رهٔ 1
روٹی 1
معجز@@ 1
وجی 1
1956ء 1
بصری 1
سائنس@@ 1
نجف 1
الاح@@ 1
الہی 1
موڑ 1
ناف 1
200@@ 1
تبریز 1
تہجی 1
خمینی 1
درہم 1
صر 1
صفائی 1
ہوش 1
35@@ 1
استدلال 1
اندازے 1
جادو 1
حف@@ 1
دوچار 1
ماننے 1
گاری 1
گرافی 1
ﮔ@@ 1
بچھ@@ 1
داست@@ 1
دبئی 1
رچرڈ 1
سیال 1
ممالك 1
کسان 1
1979 0.26679410300276835
جماع@@ 1
دھماکے 1
فائرنگ 1
قاع@@ 1
لیون 1
چیسٹر 1
۳@@ 1
جنوں 1
خلاصہ 1
شل@@ 1
عج@@ 1
كور@@ 1
لاً 1
معصوم 1
پڑتی 1
ڈین@@ 1
احکامات 1
اض 1
رسومات 1
سائی 1
صحی@@ 1
محافظ@@ 1
ڈٹ 1
گنی@@ 1
یوری@@ 1
1,9@@ 1
اطاعت 1
بے@@ 1
نوح 1
1991ء 1
k 0.08008550429748164
t 0.037200692553674294
تعبیر 1
تمغا 1
شاخیں 1
پرنسپل 1
گزی@@ 1
1987ء 1
اؤن@@ 1
بین@@ 1
جدہ 1
دوڑ 1
سات@@ 1
صور@@ 1
لگیں 1
مدھیہ 1
ندیم 1
ونسب 1
کاغذ 1
کلیدی 1
ہدف 1
ہشام 1
1994ء 1
بندر 1
بیتی 1
تلاوت 1
داء 1
روش 1
ستون 1
سٹي 1
سپورٹ 1
شعب@@ 1
كيرولائنا 1
یا@@ 1
le 0.007968330102354605
آرتھوڈوکس 1
مود 1
نقوی 1
کورونا 1
ﺴ@@ 1
تصوی@@ 1
رہائی 1
پودوں 1
پینٹ@@ 1
چلتے 1
ڈال@@ 1
گندم 1
re@@ 0.027122536967189803
افسانوں 1
افسانوی 1
تیاں 1
لاد 1
نوم@@ 1
انجیل 1
اٹھانے 1
اینٹی 1
جشن 1
دلائل 1
جلیل 1
دون 1
قحط 1
قوں 1
كان@@ 1
واسط@@ 1
ھر 1
ہدایات 1
اکیس 1
بابل 1
لازم 1
ماڈ@@ 1
ویس 1
ڈومیسٹک 1
اعتراض 1
ایجوکیشن 1
بشیر 1
تذ@@ 1
سہارا 1
سیدنا 1
فِ 1
مردہ 1
نپولین 1
وارن 1
چلائی 1
بیٹیاں 1
حدیث@@ 1
شاگردوں 1
ظر 1
مجسمہ 1
وریا 1
وع 1
چشمہ 1
ڈرو@@ 1
کہلا@@ 1
1985 0.24135214008315672
ئرو@@ 1
اتھارٹی 1
اینج@@ 1
جئے 1
شان@@ 1
فتنہ 1
مصنوعی 1
{ 0.8273492342962437
اسٹار 1
زیادتی 1
عدی 1
متصل 1
پیشکش 1
ڈیو@@ 1
گیندوں 1
36@@ 1
اندلس 1
ایسٹ@@ 1
سجاد 1
شنوں 1
فیکٹ@@ 1
كيليفورنيا 1
لوئر 1
لینڈ@@ 1
میٰ 1
ٹرا 1
پیری@@ 1
چڑھ 1
کمشنر 1
بنتے 1
بولنگ 1
تائی 1
تاجروں 1
رچ@@ 1
سپہ 1
سہر@@ 1
فیشن 1
پہنچانے 1
کیرولینا 1
ہیملٹن 1
آسم@@ 1
اقدار 1
اقوال 1
اکٹھا 1
ساڑھے 1
مروان 1
میانمار 1
ناظ@@ 1
پیدا@@ 1
ابلاغ 1
اصغر 1
النجوم 1
الیکٹ@@ 1
بڑھایا 1
رای@@ 1
ساخت@@ 1
17.@@ 1
ارس 1
جاتاہے 1
رکھیں 1
عے 1
نیازی 1
1986ء 1
New 0.0505952132785509
اکاؤن@@ 1
بنیں 1
ظہ 1
عرفان 1
مفادات 1
ملہ 1
نامعلوم 1
ﻣﯿﮟ 1
سرپرست 1
سفر@@ 1
فصل 1
محک@@ 1
نہرو 1
ورم 1
کیپٹن 1
آنکھیں 1
أت 1
اخت@@ 1
بارگاہ 1
عابد 1
كُ@@ 1
مسیحیوں 1
چلتی 1
گم 1
گون 1
1930ء 1
آرٹ@@ 1
رشتے 1
سوات 1
سینٹرل 1
فاط@@ 1
فراغت 1
قاد@@ 1
وژن 1
ہالینڈ 1
یف 1
12,@@ 1
روح@@ 1
زمان@@ 1
سکھ@@ 1
مترجم 1
ٌ 1
گام@@ 1
ﺷ@@ 1
n 0.07050091792210449
آئس 1
باؤلر 1
دوری 1
رانہ 1
لش@@ 1
ماریون 1
ولف 1
وٹ@@ 1
.com 0.8915191520987639
16.@@ 1
g@@ 0.0523207612218875
اع 1
ایٹمی 1
بانو 1
برن 1
تبصرہ 1
حتی 1
روا 1
سڑ@@ 1
نمائندے 1
کروائی 1
گہرے 1
اونچی 1
مجتہ@@ 1
محم@@ 1
مقدونیہ 1
ورٹ 1
ڈفورڈ 1
ہجوم 1
براؤن 1
تعمیرات 1
راف 1
روکا 1
محی 1
نسواں 1
وحید 1
َا 1
1987 0.22825178266030366
m 0.05869532954565184
دود 1
راغب 1
فقہی 1
چائے 1
ڑھے 1
ہموار 1
ﺋ@@ 1
آخ@@ 1
بمباری 1
تصادم 1
تنے 1
سیاحوں 1
قوتوں 1
لنک@@ 1
وحی 1
گھنٹہ 1
1978ء 1
1981ء 1
اسٹاک 1
رومیوں 1
سد@@ 1
سننے 1
منشی 1
ﻥ 1
اجزاء 1
تقویت 1
جلدی 1
سولہویں 1
مقبرے 1
وزیرا@@ 1
C 0.10961396215903502
q 0.5808557014900918
آزادانہ 1
ائب 1
اخراج 1
دانش@@ 1
ربانی 1
فال 1
مزاح 1
میوں 1
پرہ@@ 1
چھوڑا 1
ہِ 1
1975 0.24811472317662864
p@@ 0.0498384431367464
الشان 1
امریکیوں 1
باء 1
تردید 1
جاگیر@@ 1
جٹ 1
ضل@@ 1
فوق@@ 1
معافی 1
ٹیج 1
ینگ@@ 1
یوکر@@ 1
1919 0.3807775964858313
48@@ 1
اطلاق 1
خسرو 1
دیوبندی 1
سخن 1
سنبھالا 1
معنوں 1
پاتے 1
کاؤن@@ 1
کمپ@@ 1
کوت@@ 1
کِ@@ 1
a@@ 0.08659802239673302
ak 0.1786842375520761
انجینئری 1
اه@@ 1
تحسین 1
عار@@ 1
قیصر 1
پسند@@ 1
کرسٹ@@ 1
کہے 1
الزبتھ 1
تقویم 1
جوانی 1
رد@@ 1
سلی 1
شاهٔ 1
مرتض@@ 1
پتے 1
پشت 1
باقیات 1
جَ@@ 1
حجم 1
غلاموں 1
مبل 1
مکانی 1
مینے 1
نیات 1
چہارم 1
گيا 1
ہلال 1
ہیڈ@@ 1
اسکو@@ 1
اچھ@@ 1
تھوڑا 1
جک@@ 1
حلقهٔ 1
سینٹی 1
غزنی 1
نانا 1
نْ 1
نڈز 1
خدا@@ 1
درکار 1
طبع@@ 1
غزوات 1
قازقستان 1
پھینک@@ 1
179@@ 1
T20 1
بجٹ 1
تبت 1
غہ 1
نویس 1
پذیر 1
گنجائش 1
گیوں 1
18ء 1
1958ء 1
اکھ@@ 1
بنی@@ 1
تسمیہ 1
حد@@ 1
عامہ 1
موزوں 1
نمک 1
پھیلاؤ 1
گارڈ 1
1974 0.2563339325807747
آکسفورڈ 1
ائد 1
افسر@@ 1
رحم@@ 1
سرحدوں 1
عام@@ 1
لہر 1
پختہ 1
ﺭ 1
1942 0.29275427917989477
ation 0.028971296768978264
زمرے 1
شرما 1
عوامل 1
لیفٹیننٹ 1
مائے 1
مقدمے 1
مگر@@ 1
نوا 1
ڑیا 1
انٹ@@ 1
ایبٹ 1
دما@@ 1
دہند@@ 1
صل 1
عدالت@@ 1
عطیہ 1
قسمتی 1
ٹرانس@@ 1
التے 1
اینٹ@@ 1
تمہارا 1
دیل 1
سہیل 1
مومن 1
ڈكوٹا 1
یونی@@ 1
تختہ 1
رابطے 1
سائنسز 1
شاپیل 1
پرستوں 1
کیمپس 1
station 0.12427756349619996
ایکڑ 1
بست@@ 1
تبلی@@ 1
ترغیب 1
جائی@@ 1
رسالے 1
ممن@@ 1
ورد 1
پنڈ@@ 1
کوس 1
ہونی 1
1982 0.24117635637300386
حم@@ 1
دستاویزی 1
عقیل 1
فتو@@ 1
لیاقت 1
مواصلات 1
میتھ@@ 1
واب 1
ينا 1
٭ 1
1976ء 1
اتوں 1
اینگلو 1
بدلہ 1
تسلسل 1
جبو@@ 1
سیر@@ 1
كى 1
گوج@@ 1
1949ء 1
1978 0.25400765892838445
بیانات 1
جاننے 1
دھمکی 1
غل@@ 1
فري@@ 1
لمبا 1
مختاری 1
بیٹ 1
روان 1
شاد 1
غوث 1
ماب@@ 1
17ء 1
1983 0.23985132349451133
اگ 1
تول@@ 1
عبی@@ 1
معاشرہ 1
منعقدہ 1
مکانات 1
کیشن 1
آخرت 1
ابہ@@ 1
ذر@@ 1
سوالات 1
لمیٹڈ 1
نرم 1
پسپ@@ 1
گران@@ 1
1973ء 1
سوٹا 1
قسمت 1
الب 1
بعید 1
تقریبات 1
دھن 1
شاعروں 1
شم 1
مجد@@ 1
محدثین 1
مسر@@ 1
مشق 1
lu 1
انیت 1
بنیادوں 1
تخلص 1
لبرل 1
مارنے 1
متح@@ 1
ً@@ 1
کلاں 1
آبنائے 1
اعلٰی 1
بدن 1
بولے 1
دستہ 1
سمتیہ 1
سپین 1
مجرم 1
نظموں 1
گروو 1
اسکاٹ 1
جانسن 1
درس@@ 1
شار 1
نکالنے 1
نیر 1
ائیووا 1
اقلی@@ 1
ریڈ@@ 1
سنگین 1
قدس 1
لور@@ 1
مظاہرے 1
آئيووا 1
آفیسر 1
ائيووا 1
افعال 1
الي 1
اين@@ 1
حب 1
فام 1
فو 1
لارا 1
متیں 1
ہیز 1
n@@ 0.047758591315918336
حض@@ 1
دیوں 1
فنکار 1
ناقدین 1
چال 1
ڑک@@ 1
گولڈن 1
ہلاکتوں 1
12ء 1
انقرہ 1
ستائیس 1
عنہا 1
غزہ 1
محافظ 1
معتبر 1
ڈھانچہ 1
جنگیں 1
رومانوی 1
صفات 1
قوموں 1
لونگ 1
معانی 1
نائٹ 1
وغ@@ 1
om@@ 0.0989628984924966
عمارتیں 1
لیف 1
ّت 1
for 0.007362081010797396
اتب 1
اللهٔ 1
ایٹ 1
دستوں 1
صلیبی 1
عقیدے 1
فکری 1
قرب@@ 1
نری 1
يك 1
پولس 1
1946ء 1
1969ء 1
38@@ 1
افتخار 1
باطنی 1
توازن 1
راس@@ 1
رجی 1
رقبے 1
سراہا 1
فتا@@ 1
لانا 1
مقت@@ 1
مناسبت 1
نقشبندیہ 1
ڈرائی@@ 1
کلینڈ 1
ارو 1
اسماء 1
بھیجی 1
جنتا 1
زہر 1
صہی@@ 1
فک 1
كون@@ 1
نگل 1
پریم 1
ہاتھی 1
المر@@ 1
اوز@@ 1
اٹھائیس 1
بنوں 1
تھن 1
جي 1
دیشی 1
شف@@ 1
فضیلت 1
لڑے 1
مقصود 1
کفر 1
گي@@ 1
1962ء 1
باغات 1
جمیل 1
صاحبز@@ 1
مانند 1
وردی 1
1973 0.25031178793495246
50@@ 1
آئرش 1
ابواب 1
جبر@@ 1
علي@@ 1
عمل@@ 1
لاگو 1
محور 1
نوع 1
پنڈت 1
پڑھے 1
غذ@@ 1
پمنٹ 1
1983ء 1
اونچائی 1
جرمنوں 1
خاکہ 1
عموما 1
لوس 1
مثل 1
موسم@@ 1
ڈوب@@ 1
کوئی@@ 1
کیرلا 1
کیری 1
اسٹیج 1
الین 1
بریلوی 1
جارحیت 1
رياست@@ 1
سنہری 1
طبیعت 1
عملے 1
غر 1
معل@@ 1
1917 0.3934082844733102
ازم 1
اسکالر@@ 1
جڑے 1
زاہد 1
ظہیر 1
نال 1
ٹینی@@ 1
چیلنج 1
ﻗ@@ 1
15.@@ 1
اناطولیہ 1
ایمی@@ 1
باؤ@@ 1
بران@@ 1
رغ@@ 1
شید 1
al@@ 0.046413623052379754
www.@@ 1
الیا 1
اویہ 1
حاج@@ 1
ریور 1
سرفراز 1
صحر@@ 1
غر@@ 1
قُ@@ 1
نری@@ 1
هُ@@ 1
ٹرسٹ 1
ڈومینی@@ 1
کرسکتا 1
1920ء 1
برپا 1
جبر 1
خلق 1
سلے 1
شہرہ 1
صفوی 1
مورگن 1
موہ@@ 1
نشریات 1
همپشائر 1
ڑیوں 1
1967ء 1
آد@@ 1
ئو 1
برما 1
تان 1
جاں 1
حیران 1
زبردستی 1
سماعت 1
سوری 1
شرو@@ 1
عاشق 1
مظاہرین 1
ممبروں 1
وحد@@ 1
گزارا 1
گیمز 1
اوم@@ 1
محاصرے 1
مدراس 1
مقر@@ 1
٫ 1
ڈیوں 1
کالے 1
کبھار 1
گین 1
ہیری@@ 1
ئرز 1
بنگلور 1
جانچ 1
حکوم@@ 1
دکان 1
ذا 1
سینے 1
مجر@@ 1
پرائی@@ 1
چي 1
گزار@@ 1
60@@ 1
النا 1
برکت 1
تنا@@ 1
ثانوی 1
جواہر 1
جول@@ 1
زیہ 1
سوس@@ 1
عبارت 1
مجاز 1
چلایا 1
چي@@ 1
گرد@@ 1
es 0.011594021061309592
تخلیقی 1
تقاض@@ 1
حامیوں 1
لُ@@ 1
مضامين 1
ملٹن 1
وفاق 1
1940ء 1
t@@ 0.0392723252479484
احسن 1
الکریم 1
بھوپال 1
سد 1
شجاع 1
كيرولينا 1
پادری 1
کاغذی 1
کافر 1
کمل 1
کوف 1
13,@@ 1
1954ء 1
اتي 1
جگر 1
خوان@@ 1
ربط 1
غذا 1
قرآنی 1
مثنوی 1
ًا 1
پالیسیوں 1
کشائر 1
am 0.030991519536214224
استقبال 1
انیان 1
دیکھ@@ 1
فِ@@ 1
لینگ@@ 1
پیڈیا 1
1956 0.29651150053969644
جلاوطن 1
جُ@@ 1
راکٹ 1
سوم@@ 1
ووو 1
پیشے 1
چون 1
ڈسٹرکٹ 1
کراس 1
ing 0.017372009144878055
افکار 1
جتنی 1
دعوے 1
ساد@@ 1
سلا 1
سورۂ 1
صفت 1
صفی 1
نُ@@ 1
وات 1
يونين 1
کفار 1
1967 0.2591685795924754
1969 0.25507737438596345
اسکالر 1
خطوں 1
درختوں 1
رف 1
موم 1
ولر 1
چھبیس 1
کاہ@@ 1
گجراتی 1
1952ء 1
اشرافیہ 1
برہمن 1
جھوٹ 1
سانس 1
صب 1
فرڈ 1
لاہ@@ 1
مزدوروں 1
ٹزرلینڈ 1
پوش 1
گذر@@ 1
37@@ 1
ببر 1
تصنیفات 1
سید@@ 1
لکشمی 1
پیشر@@ 1
چن@@ 1
ڈرا 1
اموں 1
انجی@@ 1
بریگیڈ 1
تصورات 1
عیسائیوں 1
لاز@@ 1
لینن 1
پیروکاروں 1
1972 0.22651705540726128
U@@ 0.07905483332218607
جیتے 1
راستوں 1
ویانا 1
ڈیڑھ 1
کاربن 1
ایندھن 1
داشت 1
سلاطین 1
عسکریت 1
ملیالم 1
گوری 1
ارف 1
اعجاز 1
تبدیلیوں 1
ثار 1
جهٔ 1
حات 1
ضا 1
كر 1
پرنس 1
کامیاب@@ 1
ہفتوں 1
,@@ 1
آگئے 1
انتظ@@ 1
بتیس 1
بڑھے 1
بھیجنے 1
جتنا 1
دائرے 1
روئے 1
رواں 1
سالگرہ 1
سرطان 1
لق@@ 1
متعلقهٔ 1
میل@@ 1
پڑنے 1
ہوسکتے 1
18.@@ 1
اللَّ@@ 1
سکھر 1
مؤثر 1
میسر 1
پڑھیں 1
چونتیس 1
امک@@ 1
بیچلر 1
حریف 1
دف 1
فیلو 1
مچھ@@ 1
نعمت 1
ولوں 1
ٹوم@@ 1
۵@@ 1
۸@@ 1
اشوک 1
ایڈمز 1
تفری@@ 1
سرما 1
سنٹر 1
عدالتی 1
غصہ 1
لَّ@@ 1
گولی@@ 1
ہستی 1
ہوجائیں 1
ﺍﻭﺭ 1
الثانی 1
المص@@ 1
سِ@@ 1
عرو@@ 1
عَلَ@@ 1
فارمی@@ 1
ملاحظہ 1
گزاری 1
14ء 1
بتائی 1
جزیروں 1
جھا 1
دیوتاؤں 1
سمجھتا 1
عالی 1
علاء 1
مہمات 1
وفادار 1
پند@@ 1
ہد 1
یئ@@ 1
… 0.28520878112421616
ﺖ 1
1914 0.3669186179495888
تجربے 1
فوج@@ 1
ڈون 1
Airport 0.6883567587410094
II 0.09045351290611123
تاریخ@@ 1
تناؤ 1
تہائی 1
جامعات 1
حسینی 1
فق 1
متوجہ 1
منحصر 1
ٹائی@@ 1
پتھروں 1
کتاب@@ 1
کھول@@ 1
گائ@@ 1
اسرار 1
اوسی@@ 1
اکتیس 1
بخت@@ 1
برس@@ 1
بھری 1
جزي@@ 1
خادم 1
سانی 1
صبر 1
طبا@@ 1
لاتا 1
لطی@@ 1
مسي@@ 1
ٹینک 1
پھینک 1
پیدائشی 1
چیر@@ 1
کوارٹر 1
ہاٹ 1
10ء 1
p 0.09503985219112025
انتیس 1
انقلا@@ 1
دانش 1
دیپ 1
ضمانت 1
غوری 1
قطع 1
معر@@ 1
نکس 1
پکارا 1
چھپ 1
ڈبل 1
گانہ 1
1981 0.22043248685061034
اسٹوڈیو 1
اطمینان 1
انص@@ 1
بیات 1
حادثے 1
زي 1
فرانس@@ 1
لری 1
مصالح@@ 1
میڈیم 1
1955ء 1
بالش@@ 1
تحریکوں 1
ریب 1
لٹی 1
نسلوں 1
واد 1
واٹ@@ 1
کنندہ 1
0,000 1
آگئی 1
ادت 1
اسا 1
التحصیل 1
الیاس 1
اوکا@@ 1
حنی@@ 1
عمومًا 1
قون@@ 1
لنگ@@ 1
لوہے 1
مہاجر 1
نط@@ 1
چرز 1
اسسٹنٹ 1
اولیاء 1
ة 1
حلف 1
دوز 1
فرش@@ 1
قي@@ 1
لیڈ 1
موری 1
پام@@ 1
پرساد 1
کھولا 1
ارِ 1
بہرحال 1
روٹ 1
سایہ 1
سفارش 1
سلطنتوں 1
متوقع 1
معاش 1
واجب 1
گوتم 1
یورو@@ 1
ﻌ@@ 1
اسیر 1
اقب 1
اہلکار 1
برے 1
بیلجی@@ 1
زاب@@ 1
واقعی 1
ٹنڈ@@ 1
گال 1
یونیورسٹیوں 1
ﺍﻟ@@ 1
15ء 1
o@@ 0.053650153569291065
آرٹیکل 1
اراضی 1
خبروں 1
دھر@@ 1
سواں 1
عمارات 1
لوان 1
ٹائی 1
پروجیکٹ 1
چاہا 1
کھڑ@@ 1
3ھ 1
International 0.1401896320737737
اپن@@ 1
تقلید 1
ثقاف@@ 1
جاندار 1
خلجی 1
دکھائے 1
ذرا 1
سیہ 1
متاثرہ 1
مك@@ 1
ندیاں 1
ڈویژ@@ 1
کروز 1
ہلاکت 1
تخلیقات 1
تفریح 1
سیاح 1
ناف@@ 1
l 0.03206852914784952
ایشین 1
بیماریوں 1
ستانیوں 1
عطاء 1
فاسو 1
لائیں 1
لالہ 1
لغوی 1
مرثیہ 1
مینا 1
گردن 1
الڈ 1
باغ@@ 1
فہم 1
میٹرکس 1
ناراض 1
نعم@@ 1
ورس 1
پہاڑیوں 1
r 0.12423794713180664
سویڈش 1
شواہد 1
عہدِ 1
قے 1
مصنفہ 1
130 1
g 0.08742385107359486
اداکاروں 1
توق@@ 1
رجمنٹ 1
سفی@@ 1
عہدیداروں 1
لتھ 1
مشاور@@ 1
مه@@ 1
نول 1
ٸ@@ 1
ہج@@ 1
۰ 1
1968ء 1
45@@ 1
اؤن 1
جور 1
خلف@@ 1
سائیڈ 1
ضائع 1
لڑکوں 1
مخط@@ 1
پیغ@@ 1
39@@ 1
us 0.0474950474352617
اترا 1
رفیع 1
سنن 1
سیکول@@ 1
فش@@ 1
نتیس 1
پڑھنا 1
گواہی 1
الاق@@ 1
جالندھ@@ 1
رحمان 1
ویمن 1
پروڈی@@ 1
چیچ@@ 1
کروا 1
گوان 1
1949 0.2889762546185247
1951ء 1
ادیاں 1
ارجن 1
اسپورٹس 1
الٹ 1
ایڈمن@@ 1
تعاقب 1
جوابی 1
خیص 1
روب 1
قصی@@ 1
كن 1
نگاروں 1
کاسٹ 1
کولمب@@ 1
کھین@@ 1
ہت 1
19.@@ 1
v@@ 0.06229342329964121
آرا@@ 1
بھوک 1
تجدید 1
ضلعی 1
قاز@@ 1
لسانیات 1
مشورے 1
ندو@@ 1
نیواڈا 1
گاہ@@ 1
اجتماع 1
انجینئر 1
اوورز 1
جمش@@ 1
جھی@@ 1
حال@@ 1
خالص@@ 1
خلا 1
سیت 1
سینہ 1
میئر 1
کمپلیکس 1
ہور 1
1976 0.22124811328086155
1977 0.23390014156123037
ate 0.037741037154435365
° 0.18070544281551731
ابر 1
اہو 1
خوب@@ 1
دریاؤں 1
ذيلي 1
رونما 1
سکر@@ 1
عمروبن 1
كلا@@ 1
نیاز 1
وشنو 1
ٹھوس 1
پولش 1
پیشوا 1
کھائی 1
1946 0.2660873435093342
k@@ 0.048767369198885836
آرا 1
الیوں 1
بکھ@@ 1
دلائی 1
ذخائر 1
رکنیت 1
طول 1
مشائخ 1
کالی@@ 1
کمر@@ 1
کونے 1
گذشتہ 1
1964ء 1
Ar@@ 0.07101420227918337
آئوٹ 1
انبیا 1
بیورو 1
دۂ 1
روش@@ 1
ریزرو 1
سائڈ 1
شہزادے 1
مپٹن 1
نن@@ 1
پٹنہ 1
گھنٹوں 1
ہنر 1
ad 0.12310838546254506
kh@@ 0.22703607284196958
؁ 1
اشتراکی 1
بیوہ 1
ترویج 1
تینتیس 1
رورل 1
زلزلہ 1
سٹری 1
عیسی 1
قیات 1
كين@@ 1
لکھتا 1
مقدمات 1
نقصانات 1
کتیں 1
ﯿﮟ 1
urban 0.7699383871588973
آف@@ 1
اہوں 1
بسا@@ 1
بلوچی 1
رند 1
زمینوں 1
عم 1
عون 1
كينٹكي 1
مدرس 1
مصوری 1
پالی@@ 1
چائی 1
کاب@@ 1
ﮑ@@ 1
تالی@@ 1
ثم 1
جاب@@ 1
جاد@@ 1
حویلی 1
داخلے 1
داغ@@ 1
وکمال 1
گوں 1
ہیئت 1
110 0.9920576670453453
1965 0.24812232318357788
900 1
List 0.3444415204242299
بااثر 1
دارالعلوم 1
درگاہ 1
قدی@@ 1
لاگت 1
معاف 1
موصول 1
کینسر 1
1958 0.2747797752728214
اجتہ@@ 1
اعزازی 1
عظم 1
عہ@@ 1
لہجے 1
موازنہ 1
ولسن 1
ٹیلر 1
پروٹ@@ 1
کمزوری 1
o 0.02622568998527869
اعت 1
اودھ 1
حُ@@ 1
صغیر 1
لائف 1
لين@@ 1
مودی 1
چشم 1
کالج@@ 1
کتابت 1
یوس@@ 1
B 0.10168330235554901
اسکند@@ 1
النساء 1
بٹالین 1
بہرائچی 1
بیو@@ 1
حاضری 1
طر 1
علیا 1
عْ@@ 1
قابلیت 1
معد@@ 1
مغلوں 1
ناممکن 1
ّے 1
پائلٹ 1
پڑوسی 1
پکڑنے 1
کلیئر 1
ہیکل 1
14,@@ 1
ad@@ 0.05208545187270535
انڈر@@ 1
اولمپک 1
اونٹاریو 1
بھیج@@ 1
توثیق 1
جیک@@ 1
شیرازی 1
وام 1
کاظم 1
X 0.16950163011595445
اجات 1
بارہویں 1
ثانیہ 1
كيوبك 1
نیٰ 1
چور@@ 1
کلر 1
کپ@@ 1
201@@ 1
49@@ 1
حسن@@ 1
دھما@@ 1
زہرہ 1
عظمی 1
میچز 1
ورتھ 1
ہین@@ 1
یام@@ 1
Qeshlaq 1
اؤنڈ 1
بوٹ 1
توبہ 1
دستی 1
صنفی 1
٢@@ 1
پہلوی 1
کہتی 1
گلے 1
گنا@@ 1
13ء 1
1936 0.2944797706511084
بھا 1
جلوس 1
جواز 1
خبریں 1
راحت 1
زمیندار 1
سرا 1
غنیمت 1
فیظ 1
متن@@ 1
مخلوط 1
نیس 1
کامیڈی 1
کک 1
کیتھرین 1
r@@ 0.04257866175155578
آرکی@@ 1
بسم@@ 1
مظالم 1
مٹھ@@ 1
نقشبندی 1
نٹی 1
يل@@ 1
چین@@ 1
کاٹ@@ 1
کستان 1
گرہ 1
1962 0.2587532311242174
ed 0.01802825272089649
آوا@@ 1
البرٹا 1
جدول 1
حنیف 1
شخص@@ 1
طرفہ 1
مدفون 1
ورے 1
پیس 1
چانسلر 1
گرفت 1
۷@@ 1
80@@ 1
اث 1
جاگیر 1
خبر@@ 1
خزر@@ 1
سخ@@ 1
سوس 1
صدر@@ 1
نشینی 1
وخ@@ 1
ویک@@ 1
گاؤ 1
یونانیوں 1
65@@ 1
ra@@ 0.2260178663261274
ایرانیوں 1
باندھ 1
بود 1
بورن 1
تعمیراتی 1
حلال 1
ذب 1
شکوہ 1
لند@@ 1
مضافات 1
گھوڑوں 1
ہفت 1
ﺳﮯ 1
O 0.11731354031718448
ايڈ@@ 1
شاہکار 1
موصوف 1
میموریل 1
ch@@ 0.035265430033012156
انتقام 1
بیا 1
جڑی 1
ريك@@ 1
سرفہرست 1
كہ 1
مصط@@ 1
مونٹگمری 1
میٹرو 1
نچلے 1
ولِ 1
کرسکے 1
کنو@@ 1
کولی@@ 1
یال 1
یش 1
Province 0.4744331226123437
تھے@@ 1
جوڑی 1
دال 1
زخم 1
شای@@ 1
شورش 1
پروگرا@@ 1
گوہر 1
یی@@ 1
ائیو 1
اسٹاف 1
اشا 1
اضی 1
جوڑا 1
خرید@@ 1
ذو 1
زاب 1
سحر 1
سٹک 1
فائل 1
فقہا 1
لیبر 1
مدرسے 1
مپیئن 1
چمک@@ 1
کیرول 1
اثاث@@ 1
سيد 1
فلسفے 1
مالٹا 1
مظاہروں 1
کارہ 1
کمپنیاں 1
کیت 1
ہریانہ 1
العاص 1
بریلی 1
تیرا 1
سورا@@ 1
سیکھ@@ 1
قاسمی 1
مخت@@ 1
چھپا 1
یکا 1
● 1
اسب 1
امپھؤ 1
دلوں 1
ریشم 1
صلی@@ 1
صومالیہ 1
لعل 1
یوگوسلا@@ 1
L 0.10790367791252381
اسلامک 1
تالیس 1
سکو@@ 1
مانوں 1
موئ@@ 1
ڈیل@@ 1
اعظمی 1
بھتیجے 1
جری 1
جمہوريہ 1
حنبل 1
سالم 1
صدا@@ 1
ضمن 1
طور@@ 1
غزوۂ 1
فرانسی@@ 1
ودھ@@ 1
وینا 1
پروان 1
چادر 1
کتے 1
کنز 1
یوروپی 1
T 0.1555993762436554
ساسانی 1
شفیع 1
عادت 1
پیسے 1
ڈروں 1
کارا 1
کمائی 1
کیمپ@@ 1
گزارے 1
گست@@ 1
اجرا 1
ارتی 1
بہبود 1
حار@@ 1
خانم 1
ربیعہ 1
رت@@ 1
ساہیوال 1
شماریات 1
لْ@@ 1
نمون@@ 1
نکتہ 1
وفا 1
ٹیڈ 1
پھولوں 1
کیف 1
ہاک@@ 1
ﮨﮯ 1
20.@@ 1
اتھا 1
بالغ 1
جعفری 1
دعو@@ 1
سردیوں 1
سنبھالنے 1
فریڈرک 1
لٹل 1
مایوس 1
معزز 1
منیر 1
واج@@ 1
وسطیٰ 1
ٹان 1
گت 1
11ء 1
16,@@ 1
ایٹم 1
جاسوسی 1
جونز 1
سٹون 1
غیر@@ 1
مادی 1
مونٹ@@ 1
نڈن 1
گاہیں 1
ﺒ@@ 1
ﺧ@@ 1
Regional 0.8254743723846687
اجاگر 1
جعفرآباد 1
حادثہ 1
رفت 1
لت@@ 1
میز@@ 1
نار 1
پرندوں 1
گزرے 1
1945ء 1
ادری 1
امرو@@ 1
اہت 1
اینٹی@@ 1
جاسک@@ 1
زیرِ 1
سیکریٹری 1
لگاتے 1
نڈل 1
هم 1
ولک 1
گھڑ@@ 1
آقا 1
برکینا 1
دارا 1
دهٔ 1
غسل 1
فلاح 1
میدانوں 1
نمائندوں 1
ورن 1
کاری@@ 1
گوگل 1
یع@@ 1
du 0.010371255766324085
اکادمی 1
باطل 1
برداری 1
بکثرت 1
تنخواہ 1
جارجیائی 1
حافظ@@ 1
حوں 1
خطرات 1
راگوئے 1
زہد 1
سعد@@ 1
سہارن@@ 1
عملہ 1
عیت 1
فنکشن 1
مؤرخ@@ 1
مرمت 1
مسافروں 1
مظاہر 1
واد@@ 1
پذی@@ 1
کڑی 1
گلاب 1
ہسپان@@ 1
یلے 1
ﻓ@@ 1
برآں 1
برن@@ 1
بلدي@@ 1
توہین 1
جذب 1
ذہبی 1
رضام@@ 1
سیّد 1
عمار 1
مامور 1
مہینہ 1
نسخے 1
گوی@@ 1
آریائی 1
ائس 1
العاب@@ 1
باقاعدگی 1
جوق 1
دیس 1
رین@@ 1
لڑ 1
ماریہ 1
مزدوری 1
منسٹر 1
منگولوں 1
میانوالی 1
نصرت 1
نيبراسكا 1
پوشیدہ 1
کہی 1
گپتا 1
ہالٹ 1
ائزیشن 1
بڑھتا 1
شعبان 1
قلی 1
مختص 1
مدعو 1
معاہدوں 1
ڈگلس 1
el@@ 0.04043161690177286
المجید 1
انک 1
بص@@ 1
جبری 1
جمادی 1
حیاتیاتی 1
سیمی 1
مکرمہ 1
نکات 1
نیکوسیا 1
وای@@ 1
کاظمی 1
کرس@@ 1
ہدایتکار 1
1963ء 1
town 0.1156441675768083
آفاق 1
اخ 1
اشیا 1
الرحیم 1
تلے 1
حب@@ 1
قاتل 1
قرط@@ 1
مادے 1
مسلمہ 1
مطاب@@ 1
کزن 1
کڑ@@ 1
گري@@ 1
اسکرین 1
القاعدہ 1
انسداد 1
بیلار@@ 1
تائیوان 1
حراست 1
حسینؑ 1
درا 1
دیکھنا 1
رخ@@ 1
نایاب 1
ومن@@ 1
پہل 1
یونیسکو 1
140 1
بینٹن 1
ریح 1
شیلڈ 1
لاحق 1
مناظ@@ 1
میلہ 1
ہوتاہے 1
احوال 1
تاؤ 1
جاہلیت 1
راسخ 1
زینت 1
سیکھنے 1
مصطفٰی 1
مطالبات 1
نشستیں 1
نِ@@ 1
پاکی@@ 1
چتر@@ 1
چھین 1
ہلز 1
1957 0.27037770738426536
1968 0.20263666782520126
Olya 1
افتتاحی 1
تناظر 1
جوئی 1
خوبی 1
دوز@@ 1
روای@@ 1
عشر@@ 1
فاتح@@ 1
قلیل 1
موومنٹ 1
ٹیکنی@@ 1
پنگ 1
کمیت 1
् 0.014261367981666743
-دے 1
آنند 1
ائي@@ 1
اسن 1
اوٹ 1
تقرری 1
درویش 1
ساب@@ 1
سیاست@@ 1
فرانسس 1
متھ 1
مَا 1
پاگئے 1
کاشت@@ 1
کیری@@ 1
16ء 1
46@@ 1
انعام@@ 1
اﷲ 1
توج@@ 1
خواہ@@ 1
رفیق 1
زدگی 1
فائیٹ 1
فیسٹیول 1
قادریہ 1
مناف@@ 1
نسی@@ 1
وسا 1
پانچواں 1
پاگ@@ 1
چغ@@ 1
کارل 1
ھن 1
178@@ 1
ادارت 1
اقلیت 1
اورنج 1
خات@@ 1
فع 1
قبیلوں 1
مسٹر@@ 1
مطلع 1
منوں 1
پسمان@@ 1
ابد@@ 1
بخشی 1
راتی 1
عری@@ 1
فورنیا 1
كرك@@ 1
وقفے 1
ٹکنالوجی 1
پکوان 1
پیدل 1
گنج@@ 1
المقدس 1
خداوند 1
سست 1
شیل@@ 1
معرفت 1
منگولیا 1
میرزا 1
ڈور@@ 1
کنارہ 1
1964 0.22333245762455137
47@@ 1
ODI 1
اسماعیلی 1
تورات 1
دیوار@@ 1
دیکھتا 1
سبزی 1
عیسائیت 1
مشاع@@ 1
ویات 1
چور 1
ڈیوز 1
کرشنا 1
گیند@@ 1
آہنگی 1
به@@ 1
جونیئر 1
دانت 1
سرت 1
سیلی@@ 1
مطالع@@ 1
ڈالے 1
گذر 1
۴@@ 1
in@@ 0.027403446536671847
آذ@@ 1
برباد 1
تھام@@ 1
رود 1
شام@@ 1
طبیب 1
لائق 1
لول 1
پبلکن 1
پتن 1
پہلوؤں 1
چسٹر 1
ڈیپارٹمنٹ 1
1963 0.2392255832966092
آسٹری@@ 1
ئیے 1
اوڈیشا 1
تدوین 1
خطاطی 1
سنگھ@@ 1
طلحہ 1
لاح@@ 1
متغیر 1
مردان 1
مصی@@ 1
مہاراج@@ 1
گرنے 1
امیر@@ 1
اکابر 1
دیہ@@ 1
راجپ@@ 1
روف 1
زاں 1
سجدہ 1
سوریہ 1
فرمائے 1
فریدی 1
كَ@@ 1
للہ 1
مہا 1
ولز 1
ویز 1
ay 0.11400409843631223
sh@@ 0.07014202508886455
تھم 1
جيكسن 1
خاموشی 1
روضہ 1
زوجہ 1
ساو@@ 1
سوچا 1
لگنے 1
نشو 1
وسیم 1
ّل 1
پیرو@@ 1
کندہ 1
Sofla 1
انح@@ 1
اکہ 1
تانی 1
قاصر 1
قبی@@ 1
لڑتے 1
مشرو@@ 1
مقناطیسی 1
موٹر 1
نوے 1
وظی@@ 1
وفاد@@ 1
ٗ 1
چارٹر 1
گروں 1
ہیں- 1
city 0.09161724052934828
الوہ@@ 1
سیٹ@@ 1
طلا@@ 1
ملیشیا 1
گندھ@@ 1
گولہ 1
15,@@ 1
1935 0.3016740576791745
D 0.12157677406718266
am@@ 0.06043051597289604
انگا 1
بلیو 1
تھام 1
سبی 1
شنکر 1
شیوخ 1
عرب@@ 1
كلي@@ 1
ملاز@@ 1
مونرو 1
نعمان 1
پونے 1
چرا@@ 1
180 1
ارٹ 1
ایان 1
جیلانی 1
حر 1
خوشبو 1
داریاں 1
سامی 1
سلج@@ 1
عبوری 1
لانی 1
ماس 1
نجر 1
پیٹ@@ 1
ہیر@@ 1
1961ء 1
https 1
آئینہ 1
انگو@@ 1
بجا 1
جاہ 1
حاض@@ 1
زخ@@ 1
لیول 1
مشرکین 1
موسی@@ 1
میسور 1
نسیم 1
پٹھان 1
پٹی@@ 1
چھی 1
کمر 1
codice 1
اسٹر@@ 1
الك@@ 1
انتشار 1
بالوں 1
جارحانہ 1
راہی 1
سبق 1
لتے 1
ماء 1
مادری 1
نجم 1
نڈر@@ 1
وگ@@ 1
ٹوی@@ 1
ڈائری@@ 1
کھیلتا 1
گبول 1
گرمیوں 1
گریز 1
1953ء 1
as@@ 0.050458738251911266
اللّٰ@@ 1
اورنگزیب 1
اکثریتی 1
دھات 1
صحن 1
فاق@@ 1
مائع 1
مشہد 1
مہات@@ 1
ناولوں 1
نوکری 1
کرز 1
گوس@@ 1
1943 0.22035379121996226
اوسط@@ 1
ایتھنز 1
بْ@@ 1
تالاب 1
تحصيل 1
حام@@ 1
سرم@@ 1
سمرقند 1
فیٰ 1
لاگ 1
لد 1
ماح@@ 1
معاوضہ 1
مٹ@@ 1
وکا 1
کونسل@@ 1
امل 1
اندرون 1
بدعنوانی 1
بلال 1
حز@@ 1
خوزستان 1
ظالم 1
عا 1
فورم 1
میات 1
نٹو 1
وارد 1
ڈویل@@ 1
کانگو 1
Al@@ 0.06216597819853518
آئل 1
آوروں 1
انجینئرنگ 1
تفریحی 1
تقریبا@@ 1
راؤ@@ 1
سمتھ 1
شجاعت 1
شنگ@@ 1
صاحبزادہ 1
ضمیر 1
لیری 1
لیک@@ 1
محلے 1
پنچ@@ 1
1937ء 1
تباد@@ 1
تکنیک 1
رگ 1
سلووینیا 1
فقار 1
ملحقہ 1
منانے 1
پھوٹ 1
پہنچتا 1
• 0.8220997904568086
آندرے 1
اٹھائے 1
بولر 1
بھیڑ 1
تفویض 1
سنس 1
شعیب 1
صوب@@ 1
متاثرین 1
مریضوں 1
170 1
بینکوں 1
سنٹرل 1
قوی 1
منتشر 1
مندروں 1
ٹیکل 1
پودے 1
چپ@@ 1
گزارنے 1
گزرا 1
گود 1
ہمی 1
ایکسچینج 1
برادری@@ 1
بش 1
بصی@@ 1
بیدار 1
تاخیر 1
خاک@@ 1
دال@@ 1
سٹنٹ 1
سکوں 1
شنگ 1
مرگ 1
وقی 1
ٹم 1
کیوب@@ 1
ﺪ 1
1935ء 1
آکسی@@ 1
النبی 1
اندراج 1
اوپن 1
جامع@@ 1
درمی@@ 1
عامل 1
فنکاروں 1
مذی 1
معص@@ 1
وران 1
پرنس@@ 1
پریشانی 1
1953 0.2702797485882944
1966ء 1
ازبک 1
بھول 1
بینی 1
شق 1
فضائل 1
قرہ 1
پرفارمنس 1
ہینری 1
ینہ 1
ﻦ 1
E 0.14390796068292752
آری@@ 1
ارانہ 1
ارکنساس 1
باش@@ 1
بیج 1
جذباتی 1
ضعی@@ 1
طیارہ 1
عر 1
عمو@@ 1
لینڈز 1
منور 1
نکلتا 1
ٹیمیں 1
کوو 1
الناس 1
انفنٹری 1
جارہی 1
خون@@ 1
ستے 1
سینیٹ 1
شوال 1
طیاروں 1
لٹ@@ 1
مجموع@@ 1
مرجع 1
ولوج@@ 1
کروانے 1
کشف 1
ابوح@@ 1
الفق@@ 1
بيا 1
شَ@@ 1
طبی@@ 1
عاصم 1
ــــ@@ 1
فان 1
فلپ 1
قبلہ 1
معطل 1
میراث 1
ودی@@ 1
وہب 1
پروپی@@ 1
ﯼ 1
101 1
Maz@@ 0.7564134880775247
ئى 1
انخ@@ 1
اپور 1
اگوا 1
ایڈز 1
تس 1
جہتی 1
شیخوپورہ 1
نسبتا 1
ٹریفک 1
پھیلانے 1
کب@@ 1
کت 1
ہما@@ 1
آخر@@ 1
ارباب 1
استعفیٰ 1
اسپیکر 1
الیگزینڈر 1
اوقیانوس 1
اہداف 1
باریک 1
تفتیش 1
سامعین 1
شاخوں 1
شرم 1
صر@@ 1
علاقهٔ 1
عوں 1
مامون 1
معاصر 1
ملائ@@ 1
ناجائز 1
پاپوا 1
ژو 1
گُ@@ 1
124@@ 1
3,0@@ 1
حدہ 1
رحمتہ 1
روانی 1
شنا@@ 1
فلٹن 1
مقبوضہ 1
ودی 1
کارٹون 1
کیمیا 1
Central 0.1960567499353246
اینی@@ 1
تلنگانہ 1
دانشور 1
ریج 1
عوف 1
مام@@ 1
منطق 1
نسل@@ 1
وڑ 1
ڈھان@@ 1
ڈھوک 1
کرپ@@ 1
کوسٹ 1
گردوں 1
ﺕ 1
اھ@@ 1
خیالی 1
سنبھالی 1
صارف 1
فیات 1
قال 1
مش 1
گواہ 1
یانہ 1
1957ء 1
ترکیب 1
خرابی 1
خریدا 1
دھر 1
رنگین 1
لنا 1
مخاطب 1
۶@@ 1
f 0.10952442647550795
ابات 1
اٹھاتے 1
ایجنٹ 1
جانشی@@ 1
رح 1
شم@@ 1
شناس 1
ضر@@ 1
مرتفع 1
ممل@@ 1
نتھ 1
پروفی@@ 1
پھیلے 1
کریمیا 1
ﻡ 1
ایات 1
برانچ 1
بناتی 1
جتوئی 1
حن@@ 1
ختی 1
رائٹ 1
رْ@@ 1
زبرگ 1
سدھنوتی 1
سٹار 1
ضوں 1
فلسفی@@ 1
قلندر 1
مجسمے 1
محتر@@ 1
مفس@@ 1
ملیں 1
ویکی 1
کتنی 1
اشخاص 1
البی@@ 1
المبار@@ 1
بخت 1
بھارتیہ 1
تھوڑے 1
حتیٰ 1
داعی 1
روایتوں 1
رچلینڈ 1
سرحدیں 1
صحافیوں 1
قلات 1
لفظ@@ 1
ورکس 1
ٹلینڈ 1
پگھ@@ 1
ہادی 1
160 1
N 0.16120190609089952
احتمال 1
اقدس 1
برتری 1
تھری 1
جارہا 1
جزو 1
حفاظتی 1
خیمہ 1
دوپہر 1
دھماکا 1
فلور@@ 1
فیکلٹی 1
موس 1
میڈل 1
نسبتاً 1
نقاب 1
وقتی 1
ویلی@@ 1
پتلی 1
پي 1
پٹھ@@ 1
کنونشن 1
ہنگامی 1
199@@ 1
Mar@@ 0.06878608139233579
آمیز 1
ابویوسف 1
القاسم 1
اونت 1
ایر@@ 1
ترجمے 1
تعزی@@ 1
خا 1
سردی 1
عیہ 1
لبرٹی 1
لگانا 1
مفصل 1
موز@@ 1
مين@@ 1
نائجیریا 1
ورات 1
گھاس 1
ﺁ@@ 1
2022ء 1
بعد@@ 1
بين 0.8292404015093234
بہر 1
جدی@@ 1
جوانوں 1
دیہاتوں 1
ذائ@@ 1
صی 1
قربان 1
مروی 1
مشتاق 1
وئ@@ 1
واپ@@ 1
ویچ 1
ٹینس 1
یتیم 1
یکجا 1
1937 0.2623841772509664
i@@ 0.05224279656408318
ia 0.05886270856559041
اذ 1
اشاع@@ 1
اینڈرسن 1
بھرا 1
تنوع 1
جوی@@ 1
خَ@@ 1
ذِ@@ 1
راگ 1
ریٹجک 1
زیل 1
غان 1
قوت@@ 1
ليے 1
متف@@ 1
مصدر 1
منقطع 1
نشانات 1
وطہ 1
پخت@@ 1
کانسی 1
ہیٹ 1
68@@ 1
ic 0.06843746171503122
برک 1
بندہ 1
جاپ@@ 1
ربی@@ 1
طب@@ 1
فرقوں 1
لیون@@ 1
نگہ@@ 1
کردستان 1
کرکٹرز 1
کہکش@@ 1
گاڑیاں 1
1951 0.27275546706038095
انضمام 1
بستیوں 1
خدیجہ 1
فارمیشن 1
نوآبادیات 1
کِ 1
Jar@@ 0.774581142861652
اعلا@@ 1
بوی@@ 1
تشویش 1
ثناء 1
حلب 1
دیکھو 1
فریم 1
قلعوں 1
ماموں 1
وثی 1
1952 0.24667316253306748
6ھ 1
70@@ 1
j 0.259714117441203
آرگن@@ 1
بنادیا 1
ترکمانستان 1
جوڑ@@ 1
خزانے 1
خوانی 1
دربار@@ 1
لج 1
مقالے 1
واح@@ 1
کیریبین 1
احتیاط 1
ادیا 1
دکھ 1
رائی@@ 1
شفقت 1
کنبہ 1
گانوں 1
1932ء 1
ثعل@@ 1
خودمختاری 1
سْ@@ 1
سیم 1
قا 1
نازک 1
یہ@@ 1
حل@@ 1
ریم 1
مطبوعہ 1
نصیحت 1
٣@@ 1
حماد 1
سمس 1
صاب@@ 1
350 1
دوش 1
عُ@@ 1
مرح@@ 1
نشی@@ 1
ﮦ 1
ﻧﮯ 1
1912 0.3206373418412142
1959 0.23312918217978087
Republic 0.2916541699063478
el 0.004992467423403546
الج 1
املاک 1
تاثر 1
تغلق 1
ریات 1
عاب@@ 1
غری@@ 1
معذ@@ 1
ورِ 1
1857ء 1
1938 0.23039032829888514
l@@ 0.03739118825010785
بہرام 1
جرات 1
حنفیہ 1
سمو@@ 1
لاء 1
محفل 1
ومہ 1
63@@ 1
آخذ 1
اعترا@@ 1
سہرا 1
شوق@@ 1
مستحق 1
1961 0.2237348641256985
الذ@@ 1
حاش@@ 1
حصار 1
خص@@ 1
طری@@ 1
فیڈرل 1
مصور 1
معاذ 1
20ء 1
c@@ 0.04211407453576836
اصط@@ 1
مقالات 1
ولیت 1
کمال@@ 1
20,@@ 1
m@@ 0.04383206970788812
بندر@@ 1
جاپانیوں 1
رسل 1
طبق@@ 1
متص@@ 1
يني@@ 1
سیارہ 1
عدل 1
ناء 1
نب@@ 1
نسو 1
ولن 1
یان@@ 1
1933 0.24555330263259387
44@@ 1
ol 0.13611899238442182
حسين 1
ملحق 1
ہیل 1
17,@@ 1
T20I 1
جِ@@ 1
متوسط 1
منقول 1
198@@ 1
amp 0.054462943638989535
http 1
اجد 1
ایٹ@@ 1
بوب@@ 1
ریٹ@@ 1
شاه 1
لسن 1
ناقص 1
ولي@@ 1
1954 0.23991921633043406
V 0.12906180694697808
امتح@@ 1
باع@@ 1
يس@@ 1
ﺍ 1
125 0.9671332554781634
1921 0.3089242594934548
بدار 1
67@@ 1
السّ@@ 1
المح@@ 1
حدی@@ 1
سوان@@ 1
شاء 1
طن 1
ندوں 1
III 0.16882198297742682
ارتق@@ 1
اصف@@ 1
خضر 1
منت@@ 1
اولا@@ 1
حت@@ 1
خواص 1
صَ@@ 1
صیل 1
فنا 1
لاؤ@@ 1
موصل 1
ۡ@@ 1
اعتدال 1
رال 1
شاد@@ 1
فساد 1
ممبر@@ 1
نوف@@ 1
55@@ 1
75@@ 1
؍ 1
ثیت 1
عاد 1
نقط@@ 1
120@@ 1
تنز@@ 1
توم@@ 1
صدی@@ 1
مقدم 1
115@@ 1
177@@ 1
\ 0.9603160167381891
تابع 1
ضات 1
نست@@ 1
اندر@@ 1
انواع 1
بادل 1
تجرب@@ 1
تعظ@@ 1
فتہ 1
قران 1
مدا@@ 1
مماث@@ 1
‏ 1
en@@ 0.022403618444747184
الفر@@ 1
اندرا 1
ایشی@@ 1
تسا 1
دروا@@ 1
طاہ@@ 1
باً 1
بلخ 1
خلاء 1
قاب@@ 1
وائے 1
پبل@@ 1
پت@@ 1
23.@@ 1
Dar@@ 0.23988041207030866
Sainte 0.7322053646842969
ذبح 1
ماج@@ 1
کتوں 1
باط 1
تون 1
سیاح@@ 1
قبہ 1
ڈرل 1
59@@ 1
كرا@@ 1
۲ 1
176@@ 1
58@@ 1
اقی 1
خصوصا 1
زنج@@ 1
عائ@@ 1
علیٰ 1
فس 1
قان 1
ورز 1
1966 0.1932990273304181
عثمان@@ 1
ميري 1
نات@@ 1
$ 0.07398216663309784
ابا 1
تور 1
جزی@@ 1
جنا 1
راً 1
نث@@ 1
ﻞ 1
آتش@@ 1
ثن@@ 1
خاصا 1
رر 1
F 0.12950729316008192
وسط@@ 1
يز 1
105 1
بتا 1
برطان@@ 1
ناً 1
چوہ@@ 1
175@@ 1
21.@@ 1
تارا 1
تقرر 1
ریف 1
مائش 1
محب 1
يان 1
ہوما 1
21@@ 1
24.@@ 1
تند@@ 1
جال@@ 1
ضاب@@ 1
قلت 1
کچر 1
ابوب@@ 1
رود@@ 1
كل 1
مطلو@@ 1
ناز@@ 1
نح@@ 1
1955 0.2271638164536123
er@@ 0.025819505013661315
on@@ 0.03754023376518361
z 0.06746553181361635
تبص@@ 1
تحف@@ 1
زنا 1
صدام 1
لث 1
محصول 1
مشر@@ 1
منتظم 1
وست@@ 1
102 1
الرا@@ 1
ثالث 1
حاتم 1
وعد@@ 1
ژ 1
ów 0.6083835492489293
اعضاء 1
انفرا@@ 1
تاس@@ 1
فیص@@ 1
نصی@@ 1
زیشن 1
مترا@@ 1
57@@ 1
اتو 1
باس 1
درن 1
محص@@ 1
نفوس 1
197@@ 1
الاز@@ 1
الرح@@ 1
تام@@ 1
تلق@@ 1
توت@@ 1
شعل@@ 1
لوم 1
1934 0.2529699927624521
22.@@ 1
er 0.007379315057888086
استح@@ 1
شت@@ 1
لاؤ 1
ولي 1
ہدایت@@ 1
اینگ@@ 1
نقوش 1
والم@@ 1
2,8@@ 1
66@@ 1
ur@@ 0.05732513714933795
الاع@@ 1
وامي 1
وجا 1
2,5@@ 1
An@@ 0.0437156590542558
اجر 1
جوب@@ 1
متض@@ 1
مزاح@@ 1
18,@@ 1
with 0.005538695635379412
زمیند@@ 1
موج@@ 1
ووا 1
ى@@ 1
پتھ@@ 1
1932 0.26499935942481545
w@@ 0.04121335297880168
اح 1
المق@@ 1
بحق 1
جاو@@ 1
رسوم 1
سماع 1
واز 1
ﺱ 1
.. 0.4707177238732602
99@@ 1
G 0.12307531680851058
تدری@@ 1
قر 1
محراب 1
موش 1
يش@@ 1
R 0.11500657668406625
ous 0.0650887335430797
ur 0.12931161429593163
اوق@@ 1
فاق 1
نحو 1
نخ@@ 1
ناس 1
الائ@@ 1
الرزاق 1
جمہو@@ 1
حاد@@ 1
ضل 1
قامت 1
ينيسي 1
25.@@ 1
andi 1
الٰ@@ 1
بشر 1
عقی@@ 1
ّا 1
افت@@ 1
غیب 1
نعر@@ 1
وري@@ 1
Re@@ 0.05853337435540409
جار 1
جلا@@ 1
خض@@ 1
غص@@ 1
معلم 1
يُ@@ 1
ڈیشن 1
ﭼ@@ 1
x@@ 0.09919610672090742
اطلا@@ 1
بطن 1
صہ 1
ليا 1
نافع 1
Region 0.25683043077392037
آکس@@ 1
المؤمن@@ 1
بقا 1
مثلًا 1
منو@@ 1
موق@@ 1
گیر@@ 1
ﺯ@@ 1
S 0.09845231038823181
معمر 1
نوج@@ 1
پائن 1
1913 0.3058925012133811
دخ@@ 1
رموز 1
صرا@@ 1
کیلی@@ 1
آند@@ 1
حسی@@ 1
عالمي 1
لوع 1
یاء 1
114@@ 1
ؤنڈ 1
احتج@@ 1
بخار@@ 1
ٹيك@@ 1
90@@ 1
ul@@ 0.05465478858519097
الخلا@@ 1
تلا 1
ذرات 1
صن@@ 1
ژن 1
۱ 1
117@@ 1
1922 0.2687474286369917
Bar@@ 0.08203899789046117
باح 1
حوال@@ 1
داع 1
رور@@ 1
عِ@@ 1
لع@@ 1
مشتق 1
کٹرز 1
الوج@@ 1
بھار@@ 1
تلو@@ 1
شفی@@ 1
فلسط@@ 1
قي 1
منز 1
مِنْ 1
ﻲ 1
۳ 1
ash@@ 0.24502121377191605
es@@ 0.03707672111838306
برق 1
رقي 1
متنوع 1
نَّ@@ 1
گند@@ 1
ﻴ@@ 1
اوا@@ 1
نقد 1
نوس 1
19,@@ 1
220 1
ادم 1
امي 1
زاہ@@ 1
میان@@ 1
ندق 1
27.@@ 1
ابل 1
بام@@ 1
سٹس 1
منت 1
ناش@@ 1
108 1
2,6@@ 1
240 1
5000 1
f@@ 0.030031144106001516
الم 1
براؤ@@ 1
جیکٹ 1
رستم 1
1931 0.25822533942425924
اقب@@ 1
دري@@ 1
طاق@@ 1
لار 1
ناص@@ 1
نَّ 1
يد 1
کرین 1
2,4@@ 1
43@@ 1
اله@@ 1
جاگ@@ 1
معز@@ 1
کھلا@@ 1
ہم@@ 1
یوال 1
ﻢ 1
2,7@@ 1
روپ@@ 1
كن@@ 1
القدر 1
تِ@@ 1
ذور 1
والح@@ 1
وور@@ 1
ani 0.15396370820031535
خانق@@ 1
عک@@ 1
قف 1
لَا 1
مير 1
وين 1
um 0.02676497328849076
انیں 1
حساس 1
ریٹائر@@ 1
ضابطہ 1
غت 1
فنان@@ 1
كام@@ 1
مبلغ 1
ها 0.5779027482075568
ﷲ 1
104 1
اجل 1
جند@@ 1
صلا@@ 1
مجاہ@@ 1
نباتات 1
پود@@ 1
ائع 1
اك 1
ذخی@@ 1
مئ@@ 1
کمپیو@@ 1
فز@@ 1
ونَ 1
ag@@ 0.049183463240253855
الث@@ 1
جک 1
سوز@@ 1
قصر 1
كت 1
ليس 1
نَا 1
ٓ@@ 1
1929 0.22960019855825595
2,9@@ 1
at@@ 0.04032373872801953
حا 1
فاؤن@@ 1
فول@@ 1
كَ 1
Iowa 0.5826657054316412
are 0.011662068064631806
انط@@ 1
برت 1
سیکر@@ 1
قت@@ 1
وزراء 1
ویژ@@ 1
پیچھ@@ 1
ڈکو@@ 1
ﻝ 1
California 0.12840326876642372
بلدی@@ 1
عان 1
قومي 1
نہر@@ 1
٠@@ 1
115 1
بلو 1
تط@@ 1
ثوم 1
فقط 1
والی@@ 1
78@@ 1
it 0.010303509875086426
اصد 1
قان@@ 1
معالج@@ 1
نسر 1
ﺤ@@ 1
190 1
تحقی@@ 1
عدنان 1
عنو@@ 1
فلوري@@ 1
56@@ 1
جس@@ 1
ونت 1
ab@@ 0.03103582563269996
ge@@ 0.056264467670355645
un@@ 0.02234473484357549
· 0.06718609714735384
ترجم@@ 1
تونس 1
حْ@@ 1
دوم@@ 1
رج 1
طف@@ 1
لبن@@ 1
لوا 1
100@@ 1
NA 0.8226544512435265
South 0.06330980671602014
ايل 1
بخار 1
فجر 1
متناز@@ 1
1924 0.23815446055994718
ir 0.09022110728532166
العل@@ 1
شيخ 1
صالح@@ 1
صور 1
130@@ 1
54@@ 1
احاط@@ 1
بور 1
تخت@@ 1
رم@@ 1
فرنس@@ 1
پیچی@@ 1
ہاؤ@@ 1
‍ 1
1500 0.6305804129106206
or@@ 0.03261106119991449
آداب 1
آراء 1
انگو 1
رونا 1
شتر 1
كتاب 1
ينَ 1
اتباع 1
المعارف 1
بحي@@ 1
بز 1
حوا@@ 1
عہدی@@ 1
مداف@@ 1
وين@@ 1
64@@ 1
Haj@@ 1
ak@@ 0.0721705980270428
di 0.10901780110897213
باش 1
قرار@@ 1
لب@@ 1
پرت@@ 1
106 1
اداک@@ 1
خُ@@ 1
ستھ@@ 1
سنچ@@ 1
ضخ@@ 1
ظات 1
ماع 1
٩@@ 1
گنڈا 1
ﻼ@@ 1
👈 1
155 1
360 0.9708064540878759
be@@ 0.0419616262272293
des 0.003771148046055853
ł@@ 0.31520686087880134
ارون 1
اُن@@ 1
دران 1
ربا 1
طرس 1
لیف@@ 1
پہا@@ 1
94.@@ 1
مرغ@@ 1
٢ 1
107 1
114 1
Minnesota 0.43606357049669375
افری@@ 1
الحرام 1
خروج 1
فرح 1
قرب 1
109 1
235 1
is@@ 0.03988791160532996
os@@ 0.06015749037654738
خم 1
دب 1
فاف 1
معام@@ 1
يون 1
۵ 1
112 1
122 1
126 1
M 0.10911180327314736
حالت@@ 1
طان@@ 1
مجالس 1
25,@@ 1
450 1
ah@@ 0.1104889127257223
ارض@@ 1
فان@@ 1
پنڈی 1
یع 1
28.@@ 1
بلوم 1
جست@@ 1
صحاف@@ 1
كرو@@ 1
میون@@ 1
نجد 1
ولیات 1
de@@ 0.0403557075606783
اولمپ@@ 1
ہرہ 1
116@@ 1
De@@ 0.0824476720777129
اقتب@@ 1
المسل@@ 1
اہلیت 1
به 1
تصاد@@ 1
حذ@@ 1
طریق@@ 1
فہر@@ 1
واضع 1
commune 0.08249498837837001
ایکسپ@@ 1
جید 1
شعر@@ 1
چز 1
128 1
u@@ 0.04636839116472025
ارٹر 1
ملر 1
نفی 1
پیا 1
ab 0.06228796981106913
الحارث 1
سمند@@ 1
عماد 1
قح@@ 1
135 1
32@@ 1
H 0.14665937472162174
الرحم@@ 1
تسل@@ 1
توسط 1
خال@@ 1
رسن 1
یق 1
23,@@ 1
Qar@@ 1
بًا 1
سرب 1
ماف@@ 1
پس@@ 1
فضاء 1
قع 1
الض@@ 1
دبا@@ 1
وُ@@ 1
53@@ 1
il@@ 0.05182603033510037
اسلح@@ 1
لادن 1
موس@@ 1
میونسپ@@ 1
نون@@ 1
103 1
3000 0.7267233592074993
ثالث@@ 1
دريا 1
طواف 1
يت@@ 1
اسکوا@@ 1
شخ@@ 1
شي 1
۴ 1
196@@ 1
X@@ 0.09487730755069686
ايك@@ 1
تمد 1
رؤ@@ 1
سمر 1
سنان 1
ay@@ 0.10540530688144331
الاش@@ 1
1915 0.26436372170462313
le@@ 0.04389541978384922
ology 0.10042820349175631
se@@ 0.05086402961281788
استعم@@ 1
اقتصاد@@ 1
شغ@@ 1
مديرية 1
وراڈو 1
گزین 1
116 1
2.5 0.9403361313356868
21,@@ 1
76@@ 1
79@@ 1
98@@ 1
W 0.16022512264634492
Y 0.21931969351688077
زع@@ 1
ستگی 1
مُ 1
29.@@ 1
ICC 1
ity 0.04673648615834999
آرمینی@@ 1
طغ@@ 1
على 0.12732424844370252
وتو 1
26.@@ 1
260 1
that 0.0055501108319082155
ريا 1
طار 1
124 1
22,@@ 1
Ab@@ 0.04943868863110345
بیمار@@ 1
تعامل 1
رمز 1
ريس 1
سیکی@@ 1
شاب@@ 1
نيك@@ 1
ٹوئ@@ 1
129 1
ari 0.18647062382152418
les 0.006327619653391561
داود 1
ریک 1
کیرو@@ 1
مختص@@ 1
یدہ 1
118@@ 1
166 1
280 1
74@@ 1
P 0.10978384169815722
railway 0.2140237275481136
بھتی@@ 1
سوب@@ 1
شباب 1
ظاہ@@ 1
غارت 1
مْ@@ 1
نات 1
ورت 1
کامی@@ 1
88@@ 1
النسل 1
الوجی 1
ستیں 1
نمائی 1
نيا 1
واست@@ 1
وك 1
U 0.08854568338099471
un 0.004638194883791856
توس@@ 1
رش 1
لاف 1
نوائے 1
K 0.11889562965975421
ans 0.03331933509771228
ot@@ 0.0448410103452695
י@@ 1
خلو@@ 1
خي@@ 1
سقوط 1
قطار 1
مراہ 1
مساب@@ 1
نف 1
وفی 1
يوسف 1
ﷺ@@ 1
121 1
آث@@ 1
الار@@ 1
جنا@@ 1
ساؤ@@ 1
متا@@ 1
نمو 1
ہید 1
1857 0.5956258430812864
320 1
ical 0.07334487166570346
ir@@ 0.05139500387332337
ادو 1
الَّ@@ 1
بہاول@@ 1
ونز 1
175 1
1916 0.260595967579982
برمن@@ 1
بمب@@ 1
جرو@@ 1
صغ@@ 1
لط@@ 1
مطالب@@ 1
وابط 1
132 1
210 1
gh@@ 0.3172278925481441
عس@@ 1
فف 1
لح 1
واش@@ 1
وني 1
پارٹ@@ 1
1.5 0.7786909842815202
230 1
270 1
29,@@ 1
87@@ 1
حقی@@ 1
دق 1
عض@@ 1
قنا@@ 1
ہران 1
170@@ 1
1923 0.22099992110038089
العظ@@ 1
مسم@@ 1
Am@@ 0.07866627711057003
id 0.11318632710597441
é 0.020559384151299546
تعدد 1
تنا 1
ديش 1
لکش@@ 1
ﺠ@@ 1
Ali 0.3679491132249638
برنار@@ 1
مولی 1
پرائ@@ 1
ہاتھ@@ 1
me@@ 0.0991687736164731
ابت@@ 1
ایری@@ 1
بیب 1
جند 1
خو 1
عي@@ 1
ورق 1
ﺅ@@ 1
1926 0.20893239781701128
3,5@@ 1
الحک@@ 1
بالع@@ 1
قِ@@ 1
مورا@@ 1
ّد 1
کتہ 1
117 1
160@@ 1
الاعتقاد 1
فعال@@ 1
ندي 1
ٹائن 1
Township 0.35165843989629775
ol@@ 0.041711668822738183
was 0.002285464062538891
خلل 1
مثال@@ 1
نبات@@ 1
يز@@ 1
یونیور@@ 1
ﺩ 1
1900 0.2209687167186613
ang 0.09964989543215778
الوا 1
تجاوز 1
حنا 1
رہائ@@ 1
ستار 1
معتدل 1
24,@@ 1
69@@ 1
Par@@ 0.06231338737625184
ine 0.036279838167793926
ka 0.07958981455264325
دنا 1
ستور 1
فقدان 1
ہتھ@@ 1
ﮏ 1
140@@ 1
3,6@@ 1
3,8@@ 1
Martin 0.13838916592592476
na 0.05644794561547861
المج@@ 1
صوم@@ 1
مؤلف 1
ﮕ@@ 1
111 1
144 1
77@@ 1
da 0.028007535581920665
انھ@@ 1
رچر@@ 1
مبا@@ 1
ٹاریو 1
۷ 1
123 1
th@@ 0.037482580882148675
آٹھ@@ 1
انڈونی@@ 1
رجال 1
طرابلس 1
لائبری@@ 1
يكا 1
113 1
118 1
137 1
Kar@@ 0.09943808920617914
الفضل 1
دوروں 1
ربان 1
طرنج 1
ﺻ@@ 1
113@@ 1
26,@@ 1
اختصار 1
الغ 1
لر@@ 1
المال 1
حِ@@ 1
وبر@@ 1
وینیا 1
پریش@@ 1
ڈیموکری@@ 1
138 1
4,0@@ 1
انتق@@ 1
نجوم 1
يران 1
131 1
150@@ 1
ایکس@@ 1
لل 1
ُّ@@ 1
145 1
بریگی@@ 1
حسین@@ 1
سلاسل 1
ضر 1
قصد 1
مرث@@ 1
ana 0.04958216442023702
استغ@@ 1
اعتقاد 1
عمال 1
غضب 1
مباد@@ 1
متنا@@ 1
ٹرول 1
چودھ@@ 1
ہمی@@ 1
85@@ 1
community 0.10741422760800035
poem 0.537035593407028
باق 1
تاريخ 1
درجات 1
رازی 1
وصف 1
چوب@@ 1
ﻘ@@ 1
750 0.9211880230175116
North 0.06277577660949162
الأ@@ 0.5076135790667413
تبع 1
نسا 1
کارکن@@ 1
330 1
Khan 0.40889564625110425
az@@ 0.08897027077101227
territorial 0.9034279379132036
اعون 1
باتی 1
ربت 1
ناسا 1
کٹو 1
142 1
City 0.05153638082424314
entity 1
ism 0.09810066199596885
اختلا@@ 1
الاب@@ 1
ایاں 1
جوا 1
حمد@@ 1
غرنا@@ 1
لغات 1
نیدر@@ 1
ٖ@@ 1
ڪ@@ 1
ہین 1
۶ 1
119 1
27,@@ 1
no@@ 0.08324597553669816
region 0.11271264478790485
تبر@@ 1
حمام 1
فاش@@ 1
لص 1
نسخ@@ 1
ai 0.07748385651794122
اتفاق@@ 1
ایجو@@ 1
تاح 1
داً 1
رض 1
عضو 1
فریڈ@@ 1
لاب 1
واقع@@ 1
وتر 1
وود@@ 1
133 1
3,7@@ 1
As@@ 0.10041631045809538
Qal@@ 1
ابتد@@ 1
درج@@ 1
مشغ@@ 1
واع@@ 1
134 1
86@@ 1
In@@ 0.045837874429340536
ard 0.06543517055098903
ﻻ@@ 1
1,000 0.6501154754191565
119@@ 1
28,@@ 1
3,9@@ 1
ac@@ 0.035027933741797294
ئرنگ 1
حیدر@@ 1
طس 1
فید 1
میٹر@@ 1
1878 0.39607212323240765
1905 0.23029667666236392
الات 1
المد@@ 1
بط 1
ته@@ 1
مہاراش@@ 1
1910 0.20410016617028717
ابع 1
الدو@@ 1
المش@@ 1
توس 1
شرق 1
فوس@@ 1
کارپو@@ 1
1925 0.19228429806359
205 1
بروس 1
حسان 1
حوص@@ 1
سلو 1
طل 1
كسي@@ 1
ملو@@ 1
موجو@@ 1
from 0.005204498153884743
اختراع 1
سرائی@@ 1
سعيد 1
سوشل@@ 1
قطر@@ 1
مذہ@@ 1
ڈش 1
203 1
Th@@ 0.062159045842414475
آذرب@@ 1
افل 1
دوار 1
طا 1
وکٹو@@ 1
۸ 1
ang@@ 0.06137572526429668
ترن 1
ده 1
سرچ 1
محلات 1
وانات 1
پرتگ@@ 1
یتی@@ 1
192 1
1927 0.18821871997964978
ec@@ 0.050660758809104534
us@@ 0.0494967729258683
ו@@ 1
ارك 1
عقد 1
ــ@@ 1
قوس 1
مپی@@ 1
چیمپ@@ 1
1928 0.16935604916782182
206 1
232 1
level 0.10785846122935148
الرسول 1
بوز@@ 1
ترکی@@ 1
توف@@ 1
نجا 1
وون 1
کز 1
136 1
146 1
ازان 1
مانیہ 1
معظ@@ 1
مینہ 1
نشا@@ 1
هَ@@ 1
والد@@ 1
وفر 1
201 1
225 1
India 0.09430460647497052
im@@ 0.03668609979567503
top 0.08189304272939182
؎ 1
منتظ@@ 1
منق@@ 1
ناٹک 1
نیوی@@ 1
ولات 1
185 1
94@@ 1
ou@@ 0.05751086507276927
برد 1
ثات 1
صادر 1
نظری@@ 1
نمائ@@ 1
159 1
1908 0.22716187701058074
97@@ 1
no 0.016935853659287337
برل@@ 1
قاط 1
مرتب@@ 1
یاف@@ 1
158 1
167 1
1870 0.31131595243101984
1911 0.21853409887809605
256 1
Sar@@ 0.15422766521997164
Se@@ 0.05960030095360829
اقت 1
حوض 1
زیانا 1
يلي 1
153 1
193 1
650 1
ali 0.21535976932116394
ary 0.04476092008462674
ers 0.016708241581920965
ā@@ 0.1576002998818478
ائنٹ 1
الحاج 1
حمص 1
دیث 1
يرا 1
کیات 1
30.@@ 1
جنون 1
دفت@@ 1
مرات 1
184 1
1848 0.3745962839643359
1890 0.2851168855961747
Es@@ 0.11626336974784397
Pakistan 0.30113257447963454
ed@@ 0.047910323568345334
te 0.016073077925268898
v 0.08706138968219282
اعل@@ 1
جہانگ@@ 1
حاک@@ 1
رك@@ 1
عرا@@ 1
لين 1
مَ 1
,000 0.6790142779500516
262 1
Jean 0.07429343740856903
Tr@@ 0.046069199460634445
ing@@ 0.05864757744702392
ازد@@ 1
سیکری@@ 1
لوت 1
ﺸ@@ 1
159@@ 1
1907 0.23441064451233304
se 0.005160197442233553
المدارس 1
رَ 1
مصطف@@ 1
١ 1
165 1
255 1
Air 0.10860124428811976
Sal@@ 0.10492224151930829
eh@@ 0.07407146447153685
ابتداء 1
البا@@ 1
القر@@ 1
درات 1
له 0.8178631128024673
ﻔ@@ 1
152 1
186 1
1880 0.3151778969785223
Qu@@ 0.07179762468589718
ap@@ 0.03858956720941228
درخوا@@ 1
كان 0.3451847078913642
كوم@@ 1
واب@@ 1
وبر 1
129@@ 1
رسم@@ 1
سسٹ@@ 1
شعراء 1
عود@@ 1
غالبا 1
لائل 1
معبد 1
181 1
550 1
ابي 1
سح@@ 1
صدور 1
كال@@ 1
يار@@ 1
٣ 1
کیتھ@@ 1
149 1
163 1
187 1
Bo@@ 0.07219925827220079
Ho@@ 0.1197501854152983
ic@@ 0.03842664818845984
um@@ 0.039619052646549316
انق@@ 1
بلان@@ 1
ذری@@ 1
طان 1
علاق@@ 1
وراث@@ 1
کلاسی@@ 1
156 1
194 1
92.@@ 1
96@@ 1
الر 1
الن 1
ثت 1
ريفي@@ 1
طَ@@ 1
كاس@@ 1
نمائند@@ 1
هن@@ 1
يان@@ 1
پہلو@@ 1
127 1
141 1
84@@ 1
China 0.09161870381436109
bot 0.40592103815121283
it@@ 0.029680845823260103
اوہ@@ 1
فلت 1
لبر@@ 1
162 1
183 1
247 1
265 1
D8 1
Tol@@ 0.4255119581283259
ville 0.045557622662814476
الشام 1
الیگزی@@ 1
برٹ@@ 1
بلد 1
حرب 1
شِ@@ 1
هر 1
واح 1
ہارا 1
171 1
one 0.011125811242884108
اجتماع@@ 1
حك@@ 1
رمز@@ 1
مجل@@ 1
221 1
West 0.0596800325987569
ac 0.13423600858887294
il 0.010241507842280643
unincorporated 1
العباس 1
العرب 1
اند 1
عداد 1
فرینک@@ 1
منازل 1
میوزی@@ 1
پہر 1
176 1
217 1
3.5 0.9854029575088
Mal@@ 0.07954342876328233
Mor@@ 0.06498167350001068
اسرائی@@ 1
العلم 1
تعی@@ 1
سطو 1
عدن 1
متم@@ 1
ورٹی 1
148 1
154 1
1860 0.3317145871766193
195 1
man 0.022033298220212008
ائیہ 1
المت@@ 1
اوڈی@@ 1
كا@@ 1
معظم 1
وطات 1
۹ 1
ﻭ 1
147 1
189 1
1909 0.22908133790294036
197 1
268 1
World 0.032436660489918556
ائر@@ 1
متر 1
٤@@ 1
204 1
Bol@@ 0.22660906574174297
Department 0.13385675952542123
Jersey 0.23908718178834065
ong 0.08709108132334648
آبادیاتی 1
استقلال 1
اعل 1
سري@@ 1
سوي@@ 1
مورخ@@ 1
139 1
168 1
89@@ 1
Pierre 0.13675324056002092
Sa@@ 0.13342477914611253
ow@@ 0.10297805387502244
الموت 1
بلن 1
درو 1
مخلو@@ 1
227 1
275 1
Mon@@ 0.05577666807204748
ثبت 1
فُ@@ 1
کرش@@ 1
5,0@@ 1
be 0.008696565985036672
آبادیات 1
العاص@@ 1
زَ@@ 1
سڈ@@ 1
٠ 1
191 1
209 1
259 1
اي 1
توب 1
زرا@@ 1
غرق 1
ﺐ 1
207 1
af@@ 0.05777956213562314
المست@@ 1
زت 1
ساس 1
صع@@ 1
مرق@@ 1
واء 1
161 1
164 1
241 1
domain 0.7049203448959327
دام 1
غض@@ 1
فعل@@ 1
متو@@ 1
ملك 1
182 1
1897 0.27307768994306447
253 1
32.@@ 1
اضاف@@ 1
تد 1
مطبو@@ 1
موز 1
2.2 1
London 0.05990705182021022
area 0.039487019013048984
ki 0.11356986089714474
الخوار@@ 1
باط@@ 1
حانہ 1
دين 1
لَ 1
ندو 1
ہف@@ 1
1895 0.2730724777817517
Bal@@ 0.09107696485809472
Be@@ 0.04654570297397859
تث@@ 1
ترج@@ 1
تمث@@ 1
دوان 1
هِ@@ 1
وطنی 1
178 1
245 1
305 1
Br@@ 0.0442273373659572
ian 0.09172419998803123
ra 0.040317981954781555
حضرموت 1
خلف 1
صنعاء 1
ضان 1
مدن 1
ميون@@ 1
وظائف 1
ّر 1
212 1
30,@@ 1
5,000 0.47827056982256133
aj@@ 0.09744452456078467
county 0.1837951749088307
li 0.14305427927471445
ton 0.03865786879184142
بري 1
جونی@@ 1
زبر@@ 1
سمع@@ 1
ينس 1
گوئے 1
218 1
272 1
tube 0.8376298296407297
ؒ@@ 1
آبادی@@ 1
ایو 1
قسم@@ 1
واز@@ 1
وانوں 1
٦@@ 1
1200 0.7330298527235151
202 1
222 1
254 1
Sea 0.2376246194753995
غلا@@ 1
ﻬ@@ 1
1876 0.3465309103960293
242 1
370 1
4000 1
Gu@@ 0.06931371105168399
حماس 1
ويا 1
38.@@ 1
University 0.02460527662370969
os 0.016116603336396116
ph@@ 0.04724897868885081
قذ@@ 1
مہاج@@ 1
نیاں 1
وکٹ@@ 1
া@@ 1
169 1
1901 0.23286999067463618
? 0.08641616918703354
av@@ 0.04518858860330411
ti@@ 0.03115666922702721
ze@@ 0.1458855112813127
الوا@@ 1
زوج@@ 1
طق 1
عل 1
ﺰ@@ 1
172 1
borough 0.289767802701013
li@@ 0.031897193020085146
tr@@ 0.02196798262056668
الست@@ 1
بالغ@@ 1
بدلا 1
ةِ 1
حديث 1
شعار 1
غَ@@ 1
فقت 1
مة 0.9035094156245387
وائی@@ 1
کاون@@ 1
143 1
284 1
القدس 1
عیات 1
مقدون@@ 1
196 1
198 1
Japan 0.09985987760471451
Man@@ 0.06765257178333095
البلا@@ 1
الما 1
ترجی@@ 1
عار 1
فرائ@@ 1
لوي 1
پختون@@ 1
1906 0.20224972126877966
95@@ 1
انجین@@ 1
ایگزی@@ 1
باخت@@ 1
تعال@@ 1
توت 1
ريكي 1
رہن 1
غون 1
ویکی@@ 1
173 1
213 1
244 1
اقل 1
الين@@ 1
فِي 1
كس@@ 1
وتن 1
ﭖ 1
177 1
1812 0.48733874173239206
380 1
ala 0.11084672992072224
di@@ 0.02638922985593067
w 0.06066045235009914
اسماعی@@ 1
عیب 1
لاج@@ 1
لور 1
مائي 1
معاو@@ 1
پروڈ@@ 1
151 1
1896 0.25315504389739696
271 1
310 1
34.@@ 1
agh 0.8483111053144397
ji 0.18958850848202646
ère 0.07118805866400214
العالم 1
المنا@@ 1
تورا@@ 1
دين@@ 1
مري 1
302 1
36.@@ 1
ie 0.02177130498286726
اوم 1
سباق 1
شارع 1
عاط@@ 1
نفر 1
وائف 1
ونيا 1
کاغ@@ 1
ہیں@@ 1
269 1
299 1
340 1
Con@@ 0.035718044743583255
الحر@@ 1
المس@@ 1
روما 1
لوف 1
وراء 1
ٴ 1
1- 1
174 1
1877 0.340547565943315
1904 0.20502597124794686
199 1
252 1
39.@@ 1
420 1
أُ@@ 1
اضطراب 1
داخ@@ 1
نٹین 1
پارٹمنٹ 1
1898 0.2388324837809575
215 1
228 1
249 1
290 1
326 1
au 0.007497751273224162
اطی 1
الدار 1
المغ@@ 1
بوج@@ 1
دن@@ 1
شال 1
ولم 1
يلا 1
َّا 1
2- 1
224 1
ne 0.019498135608139944
أ 1
اسي 1
الاف@@ 1
بولو 1
كش@@ 1
ويك 1
یونیورسٹی@@ 1
157 1
188 1
216 1
37.@@ 1
Bel@@ 0.07048260418676654
em@@ 0.030748650832119057
id@@ 0.033114589626128545
الزمان 1
الوط@@ 1
سائل 1
مب 1
پاك@@ 1
ہرزی@@ 1
ہسپ@@ 1
﴾ 1
273 1
روض 1
والت 1
1800 0.40892230395623336
211 1
223 1
239 1
251 1
National 0.02919477900752905
ai@@ 0.14120716797939528
ent 0.014884641819203851
صباح 1
فيصل 1
كوس@@ 1
ويل@@ 1
277 1
4.5 1
جیریا 1
شُ@@ 1
وراس 1
وه 1
َّ 1
243 1
291 1
35,@@ 1
Park 0.059921439097810336
اسات 1
استث@@ 1
الور@@ 1
بوا@@ 1
ترف 1
داؤ@@ 1
ستاني 1
1.6 1
1899 0.235273019316456
Kal@@ 0.14148765507265104
اوي@@ 1
راض 1
زيد 1
ساو 1
سپی 1
عذ@@ 1
فتاری 1
فتح@@ 1
فرت 1
کاررو@@ 1
2.3 1
208 1
279 1
301 1
دد 1
ستان@@ 1
وض 1
1.2 0.9523592989074433
233 1
Ag@@ 0.13089807262085387
Chapelle 1
aq 1
ins 0.038129709584083446
je@@ 0.15928006133465375
ons 0.02991739124295896
الات@@ 1
بلج@@ 1
درز 1
دوق 1
لگو 1
231 1
248 1
292 1
430 1
Col@@ 0.05374780238288796
San 0.035252088420391584
age 0.016675007471323326
انک@@ 1
طي@@ 1
واجد 1
واصل 1
واڈا 1
پیپ@@ 1
کردگی 1
ov@@ 0.06980659401878787
ve 0.013303199311845
القض@@ 1
جماع 1
قانون@@ 1
مصادر 1
مَّ@@ 1
وست 1
10,000 0.5255459891509667
214 1
263 1
285 1
286 1
37,@@ 1
Ur@@ 0.10430124151760985
ya 0.025394931348542708
اتم 1
تائی@@ 1
جما@@ 1
رفع 1
قسطنط@@ 1
مير@@ 1
﴿ 1
234 1
ابراہ@@ 1
الق 1
الواحد 1
ساب 1
فاء 1
پیدائ@@ 1
ﺌ@@ 1
ﻳ@@ 1
1830 0.3722690387503877
283 1
288 1
303 1
33.@@ 1
34,@@ 1
Pennsylvania 0.18583419168857523
اسما@@ 1
انف@@ 1
تقسيم 1
33,@@ 1
Car@@ 0.03892405977215147
Mont@@ 0.13098239558692928
que 0.002981296164122244
اجز 1
بوا 1
نقش@@ 1
ٹاہ 1
ﮢ@@ 1
219 1
35.@@ 1
آزاد@@ 1
اكي 1
الجن@@ 1
الناصر 1
بادشاہ@@ 1
تاء 1
رفی@@ 1
زلز@@ 1
شهد 1
عث@@ 1
عليا 1
غازي 1
نقاط 1
يوم 1
ٖ 1
پیو@@ 1
ﮬ@@ 1
2.6 1
238 1
aw@@ 0.07016709479489196
البر 1
التر@@ 1
تصرف 1
سكي 1
فراز 1
نبو@@ 1
٥ 1
ﻃ@@ 1
1882 0.2924751308516223
2,000 0.5780046874447387
2.7 1
St@@ 0.03342130236653758
human 0.11981414016012111
شاف@@ 1
غاف@@ 1
فقر 1
وتع@@ 1
کینٹ@@ 1
125@@ 1
1892 0.251297600824186
257 1
293 1
Ne@@ 0.0588913388317239
ari@@ 0.0838488641881505
language 0.08565679593361877
og@@ 0.06100857757314795
ؓ@@ 1
افات 1
بناء 1
عاد@@ 1
كِ@@ 1
نشاط 1
نٹری 1
وائل 1
يار 1
٧ 1
297 1
Mo@@ 0.06034526143995726
ash 0.17921869763895756
land 0.026736816912355105
الظ@@ 1
رابط@@ 1
صل@@ 1
مملو@@ 1
يع@@ 1
1.1 0.9918566343272976
246 1
258 1
281 1
295 1
89.@@ 1
Morocco 1
Ro@@ 0.06126457991743504
ice 0.059955919336870354
آذربائی@@ 1
احب 1
اخر 1
السل@@ 1
بلاد 1
جول 1
راست@@ 1
سکری@@ 1
2.9 1
226 1
278 1
306 1
307 1
Autonom@@ 0.8276591938688628
qi 0.5657103374610145
جرز 1
صلى 1
ahr@@ 0.419832818298988
du@@ 0.08161613460491589
باف@@ 1
بوم@@ 1
تت@@ 1
صار@@ 1
فتار 1
مماثل 1
يرس 1
٦ 1
ﮍ@@ 1
ﺏ 1
179 1
1881 0.2773063110784804
1894 0.24505406483682746
264 1
Ta@@ 0.1657545730085543
et@@ 0.027331827870754572
ri@@ 0.036199698360312275
tion 0.03816652977524081
البحر 1
بك@@ 1
مخالف@@ 1
وادي 1
چیئر@@ 1
کوز 1
2.0 0.6864611323640047
266 1
312 1
Airlines 0.48438355602029304
br@@ 0.02877701223580825
المط@@ 1
جمہوري@@ 1
حلق@@ 1
ربا@@ 1
ريك 1
ساد 1
عاص@@ 1
يب 1
٨@@ 1
1871 0.25964809715909565
1902 0.190338338506291
325 1
Kingdom 0.12563924910605767
Q 0.19067958477872332
section 0.09680293974441254
ָ@@ 1
استن@@ 1
بذ@@ 1
زار@@ 1
سورة 1
هو@@ 1
وشی 1
٤ 1
236 1
294 1
31.@@ 1
Voivodeship 0.5049557585124302
ha 0.0363525793609306
hi 0.20924687953555757
أبو 1
بجانب 1
سپاہ@@ 1
قب 1
مَّ 1
کوان 1
46.@@ 1
all 0.013870395343944901
ch 0.03024957098771463
ina 0.034809949602199984
ter 0.017701393215524344
to@@ 0.036288044456833805
الرو@@ 1
المنصور 1
غرب 1
كم 1
نسخ 1
٧@@ 1
ٹیکس@@ 1
1903 0.18473691174790496
229 1
267 1
311 1
AD 0.2779621942636866
In 0.0036320585682258267
Per@@ 0.04901113469715781
administrative 0.1674725155537004
ez@@ 0.10286616479660798
ديا 1
صلاحی@@ 1
فاض@@ 1
كار 1
پریفی@@ 1
ہیپ@@ 1
1815 0.40691730186706193
1887 0.25897298205860886
289 1
Mah@@ 0.133345466170507
Or@@ 0.05616415716358179
az 0.14832740808753123
تعلی@@ 1
مسقط 1
مم 1
پرچ@@ 1
ہاش@@ 1
1.7 1
276 1
36,@@ 1
ated 0.017225057988629753
ek 0.0876808002972318
han 0.078463479968509
he@@ 0.048643537332245156
ts 0.017471447889932688
بحی@@ 1
رع 1
زیاد@@ 1
ستو 1
سك 1
شه@@ 1
ظم 1
غا 1
٥@@ 1
als 0.005559954383437851
iy@@ 0.17479839417818266
ro@@ 0.028621866708765237
اجز@@ 1
افظ 1
العمل 1
جاز 1
جسم@@ 1
زام@@ 1
ساچوسٹس 1
صول 1
فع@@ 1
وآ@@ 1
ودا 1
ّم 1
ﻄ@@ 1
1.8 1
1884 0.2588042762302886
261 1
296 1
365 1
410 1
Bag@@ 0.35615355151129224
Gen@@ 0.09409874665985343
ance 0.031135384622534092
lu@@ 0.06863855051735715
ابتدا@@ 1
ارن 1
الواق@@ 1
الوقت 1
شريف 1
عاز@@ 1
عود 1
فوق 1
مجسم@@ 1
نسب@@ 1
چیس 1
298 1
DNA 0.30433171016229366
Lower 0.45303845037492074
Wisconsin 0.2507955463408452
man@@ 0.04127582199863317
od@@ 0.05289661695959979
yn@@ 0.12481004716253849
احترا@@ 1
التف@@ 1
الح 1
بشر@@ 1
شير 1
وظ@@ 1
ووك@@ 1
کمز@@ 1
1.3 1
237 1
282 1
309 1
England 0.05471699294386119
العزيز 1
حفا@@ 1
محر@@ 1
معاہ@@ 1
ومح@@ 1
1.4 1
2.4 1
ola 0.12009753868688698
province 0.1041103092734018
ר@@ 1
الینڈ 1
تها 0.8221227061036712
جاج 1
میٹڈ 1
وير 1
يوان 1
ﮮ 1
2.1 1
2.8 1
287 1
Ah@@ 0.26402355077792705
Co@@ 0.04110795084149333
En@@ 0.04262735551453312
Ma@@ 0.06110565575687775
She@@ 0.2383278968531802
ics 0.06128318166092918
local 0.03743054274054304
ong@@ 0.09966741583692008
ver@@ 0.013208705863846065
اعتق@@ 1
سيل@@ 1
لاك 1
ويك@@ 1
کانگری@@ 1
0.7 1
1879 0.26487183571111356
850 1
East 0.059529525366620276
Mi@@ 0.1141288896138295
é@@ 0.024725755166410606
ازات 1
تين 1
حف 1
حید 1
دائم 1
سوال@@ 1
سيل 1
سیال@@ 1
والي 1
يش 1
---- 1
274 1
321 1
Le 0.009184324155174249
River 0.04724825184102548
آں 1
بتا@@ 1
توان@@ 1
خلي@@ 1
شخصی@@ 1
عاً 1
عرق 1
يشن 1
ٌ@@ 1
8.5 1
Har@@ 0.06395678484321361
Sey@@ 0.729528051923524
co@@ 0.02336030831161901
has 0.007293761172637673
ik@@ 0.04119973939324525
البلد 1
رفعت 1
صال 1
فرسن 1
قبائ@@ 1
كاري 1
لط 1
ماد 1
2500 0.9999351793490683
Az@@ 0.16074535286504696
Ber@@ 0.04493839693944462
aire 0.04293876293398278
ce 0.017060107425852348
ּ@@ 1
حور 1
غير 0.5451151646618666
وسف 1
وه@@ 1
1886 0.23731930512079089
1891 0.22242967737906724
aux 0.014947984284612623
ni@@ 0.048204497886468974
tic 0.07422394984208286
type 0.0715649221986829
מ@@ 1
الصباح 1
ثلاث@@ 1
جيم@@ 1
حضر 1
ره 1
ريل 1
فرز@@ 1
قضاء 1
لق 1
میکسی@@ 1
نای@@ 1
ويت 1
يرو 1
پارلی@@ 1
ﺼ@@ 1
128@@ 1
313 1
460 1
Mohammad 0.9488964103492229
Ru@@ 0.10809025831629084
bi@@ 0.031955318071440586
ographic 0.3709193425299929
بازن@@ 1
سوخ 1
كيا 1
ويلز 1
் 1
333 1
375 1
Islands 0.21122095206338395
Mos@@ 0.1669280195450899
ek@@ 0.050401497184632514
qu@@ 0.02797353147585916
st@@ 0.01573297244947963
were 0.004863883838172529
اريو 1
بيت 1
جلي@@ 1
راك 1
رومان 1
رين@@ 1
عیل 1
مفر@@ 1
يد@@ 1
1864 0.24377345815634593
329 1
6000 1
People 0.14937369702467104
ci@@ 0.04798997792355939
ig@@ 0.03420242006262409
اختی@@ 1
بود@@ 1
حساب@@ 1
رة 0.647108796050686
طرا@@ 1
غن 1
نقص 1
وجد 1
وح 1
0.8 1
109@@ 1
1856 0.3147942341886953
1885 0.2118094823885347
Go@@ 0.08466520671343776
Pr@@ 0.049703321202440934
har@@ 0.05966520481001561
ru@@ 0.04749018981749736
امتی@@ 1
خول 1
ساع@@ 1
ضعف 1
غا@@ 1
كوي@@ 1
مقناطی@@ 1
نصوص 1
وص 1
1813 0.45322414459155885
3- 1
308 1
316 1
317 1
334 1
390 1
Shu@@ 0.5069270655943404
عنا@@ 1
فوف 1
متق@@ 1
مدين@@ 1
مرك@@ 1
ملاح@@ 1
نه@@ 1
هن 1
کابی@@ 1
کعب@@ 1
ﻀ@@ 1
1814 0.3965324171012146
324 1
ara 0.05083235852021983
au@@ 0.034246146033549904
ę@@ 0.37107923440955015
تفاعل 1
طاق 1
طاقم 1
عشر 0.9905681160180891
قاس@@ 1
نى 1
304 1
315 1
Char@@ 0.07340088376129572
Mississippi 0.2956705092574384
ne@@ 0.040236061631402927
بني 1
خص 1
زات 1
سترو@@ 1
صاد@@ 1
ماً 1
ٔ@@ 1
٨ 1
32,@@ 1
Al 0.057347611709110694
Her@@ 0.04812980340945207
country 0.05166810450790989
eb@@ 0.03785546317098067
ly 0.02218527414859721
ma@@ 0.0694941526863348
re 0.025700263636965356
this 0.00990834983023844
ریجن@@ 1
عند@@ 1
فران 1
لوے 1
میٹرو@@ 1
وجل 1
وّ@@ 1
٬ 1
ڈگ@@ 1
ۡ 1
1850 0.24495076339035118
480 1
787 1
Germain 0.6925860519929543
ica 0.04521995732052656
iz@@ 0.04835715199090243
yr@@ 0.12164768882529785
افس@@ 1
الدر@@ 1
الرجال 1
النے 1
بئر 1
حو 1
ذت 1
رقام 1
شوا@@ 1
مقاب@@ 1
نفس@@ 1
680 1
Gol@@ 0.17390883253524855
Mas@@ 0.08211250036763652
Shah@@ 0.7899554234667376
uy@@ 0.16381159563469574
اده 1
اطب 1
الخطاب 1
بوت 1
تداد 1
تقد 1
تك@@ 1
خار 1
ده@@ 1
سوق 1
فاس 1
ماني 1
مقبر@@ 1
هر@@ 1
ڙ@@ 1
0.5 0.8476062554112592
1.9 1
520 1
Le@@ 0.03042150661190095
Me@@ 0.05435536583340068
and@@ 0.03885956266800965
ha@@ 0.10283396789438105
oc@@ 0.03254878064294006
ta 0.028369970670292503
te@@ 0.033821346195136555
É@@ 0.0758339128506799
́ 0.04459256388575569
ؔ@@ 1
اعز@@ 1
رق 1
سكو 1
طون 1
1889 0.19841981202284215
314 1
322 1
323 1
CO@@ 0.17586860225936243
Cor@@ 0.04117701698325961
Mac@@ 0.06899793423909
Su@@ 0.07998790930762054
ant 0.012481378225856862
ey@@ 0.10867836720501284
its 0.0069968037330779085
state 0.02840959936372327
أبي 1
اري@@ 1
البي@@ 1
العالم@@ 1
الوجود 1
تركي 1
تصنی@@ 1
سليمان 1
صار 1
فرآباد 1
لص@@ 1
نض@@ 1
چوس@@ 1
← 1
1893 0.1979101068270287
39,@@ 1
York 0.022580186353828465
ho@@ 0.049876862442382805
بير 1
بيل 1
ثُ@@ 1
سؤ@@ 1
سبت 1
ٍ@@ 1
4.2 1
BC 0.14588162132458013
adi@@ 0.08962009669164249
اغ 1
حوا 1
داع@@ 1
دَ 1
شج@@ 1
طرت 1
عجائ@@ 1
عي 1
موضوع@@ 1
ولت 1
يوس 1
1867 0.23482318603775304
332 1
Com@@ 0.04996619140691792
Gar@@ 0.08347327892114091
State 0.030929654124086235
bar@@ 0.040929567935413885
احتی@@ 1
ارجن@@ 1
الاص@@ 1
الشر@@ 1
الفتح 1
انٹرو@@ 1
بؤ@@ 1
تفر@@ 1
تنی 1
ذن 1
شون 1
ندن 1
ڈومی@@ 1
1888 0.2054255795004076
440 1
Tar@@ 0.10894450742757043
Ver@@ 0.019491488109143692
א@@ 1
أن 0.12564716860967834
اتل 1
الثق@@ 1
المنت@@ 1
ةً 1
شعاع 1
عرش 1
وكا 1
ہتھی@@ 1
110@@ 1
AC@@ 0.1735879336757595
Bas@@ 0.08876727221640257
J 0.09939236252237693
Parish 0.4955615968811999
chi 0.09385172673259526
government 0.032257293290225905
not 0.008279638181550277
op@@ 0.0265076490263542
style 0.0509495371258045
zy@@ 0.2139213072003913
ائخ 1
اتح@@ 1
بير@@ 1
ةَ 1
زونا 1
شرات 1
فاص@@ 1
كلارك 1
ملحوظ 1
منح@@ 1
وث 1
٩ 1
328 1
352 1
40,@@ 1
7.5 0.9265198208521681
الوار@@ 1
شرع 1
قوم@@ 1
مندر@@ 1
نب 1
يلي@@ 1
1700 0.6020904784824572
327 1
40.@@ 1
48.@@ 1
Bi@@ 0.05018499304693925
D9 1
Far@@ 0.10179788668523464
Has@@ 0.27304267933459325
Nebraska 0.4607862068911092
U.S. 0.04589461398227844
mar@@ 0.030515534048083957
جوان@@ 1
شيا 1
عقب 1
فرج 1
كام 1
وتق@@ 1
وني@@ 1
چہار@@ 1
335 1
38,@@ 1
381 1
45.@@ 1
For@@ 0.04626527138659008
Hu@@ 0.09230902094140557
Un@@ 0.048824289854907804
^ 1
اعتم@@ 1
الآثار 1
بدو 1
رونی 1
غار@@ 1
غل 1
مالك 1
گھن@@ 1
ﭽ@@ 1
ﻑ 1
ﻫ@@ 1
0.6 1
59.@@ 1
ator 0.039371569454210366
po@@ 0.026353420594428575
ə@@ 0.7683502696754011
الجام@@ 1
تبا@@ 1
ريو 1
سري 1
سہار@@ 1
ضاء 1
فروع 1
لات@@ 1
لیکس 1
مونٹگ@@ 1
ينز 1
پنس@@ 1
র@@ 1
345 1
372 1
395 1
41.@@ 1
560 1
Indian 0.06659761014184368
UN@@ 0.17257912849665316
end 0.01690498062348591
ok@@ 0.06685914676662028
world 0.03855635737098246
الآ@@ 1
تناز@@ 1
جاب 1
معرو@@ 1
مینیا 1
ﭩ@@ 1
Moh@@ 0.27109640873015994
lo@@ 0.020871482511234468
par@@ 0.023636727122910022
rural 0.13460799406992455
إ@@ 0.3164803636687325
اوقیان@@ 1
اوي 1
اکیڈ@@ 1
صوت@@ 1
قهٔ 1
كيرو@@ 1
وتا 1
يف@@ 1
گہر@@ 1
318 1
336 1
354 1
44,@@ 1
47.@@ 1
Lan@@ 0.20442609788149393
Santa 0.07108693968489171
able 0.015221909399964456
del 0.0034371481772149425
ש@@ 1
المذ@@ 1
تحمل 1
رضي 1
سوسائ@@ 1
عليه 1
كوك 1
ومنٹ 1
چینج 1
338 1
348 1
Di@@ 0.0343926675217027
Ham@@ 0.12075667313602978
Sau@@ 0.16377581709002842
hi@@ 0.05310704787269069
ille 0.08061767330663608
si@@ 0.03355535781398149
states 0.09263551028466217
ايا 1
تز 1
رط@@ 1
مناس@@ 1
منسو@@ 1
ولان 1
-- 0.5705463020622021
1849 0.2845138571146638
20,000 0.6332269320157766
339 1
45,@@ 1
College 0.03315163091922357
John 0.018686169904785936
Shar@@ 0.20277993023893798
Sub@@ 0.08273730534855855
ach@@ 0.03192444911737736
eg@@ 0.03155145846642712
mad@@ 0.17315426948179338
الدع@@ 1
الغرض 1
قن 1
كاون@@ 1
موا 1
ينو 1
ٗ@@ 1
31@@ 1
Ali@@ 0.20576229717431166
era 0.016706737003038322
im 0.0036813576560311974
ley 0.027033215612942325
ś@@ 0.39474682790769533
ة@@ 1
تعليم 1
طین 1
فنک@@ 1
وسي@@ 1
ويس 1
1858 0.275808633402524
357 1
363 1
49.@@ 1
570 1
8000 1
Ger@@ 0.05560338522313836
Korea 0.1759981935570975
Pal@@ 0.07938639088492846
ati@@ 0.03889830589936098
ite 0.027433975707721832
pi@@ 0.03718250828683849
ל@@ 1
البغ@@ 1
الجامع 1
الرؤ@@ 1
انگری@@ 1
حول 0.9902539580500577
حیات@@ 1
دير 1
سيا 1
كتب 1
كوك@@ 1
كير@@ 1
لاق 1
مصنف@@ 1
ملائی@@ 1
نص 1
1840 0.25220745275413053
344 1
362 1
540 1
CC 0.23108167515373215
Is@@ 0.07043518644527332
Tal@@ 0.12839830686149362
aj 0.3012587534326883
ama 0.06853366366641231
ber@@ 0.03220068566174729
cities 0.1420340050033379
ni 0.04999364164941643
si 0.039538429946755105
za 0.049908987927080234
ְ@@ 1
ئت 1
ابلا@@ 1
ادائی@@ 1
العصر 1
بكر 1
تمر 1
غرا@@ 1
فضلا 1
كول 1
متز@@ 1
ٽ@@ 1
0.9 1
1873 0.21489846623650743
319 1
331 1
337 1
355 1
5.5 0.9521620821468629
Ab 0.1058506918805355
Laurent 0.3921006369443145
Li@@ 0.05134553274043961
Po@@ 0.05476892571098553
der 0.0009646261404282439
field 0.03043538162180575
ill@@ 0.038843701521282185
ؑ@@ 1
اه 1
جود 1
سرگر@@ 1
فیڈری@@ 1
مقتل 1
ਰ@@ 1
ﮫ 1
1300 0.6823973756805354
3.3 1
364 1
530 1
ba@@ 0.05187280125159548
dan 0.10462380907805278
he 0.0034306995578241607
ish@@ 0.08261023440563936
jan 0.2988556684269551
pa@@ 0.20445105505278915
th 0.026939461603568925
ב@@ 1
المخت@@ 1
تري@@ 1
غور@@ 1
معرض 1
0.2 1
1861 0.19846213493258621
351 1
356 1
AR@@ 0.1190307805874643
Ac@@ 0.05304580263500097
Kur@@ 0.08014607189860325
Time 0.1323986045480365
do 0.01912419701858636
ob@@ 0.03320210172188992
ou 0.01231311399584171
ה@@ 1
ضرر 1
عين 1
مجھ@@ 1
مراجع 1
وأ@@ 0.3251911115747422
والق@@ 1
گفت@@ 1
3.4 1
3.6 1
6.5 1
640 1
Lab@@ 0.2328324365473845
Ph@@ 0.07115354740169139
Pi@@ 0.0641825797460247
ane 0.05349259834900333
division 0.05940855159665788
ot 0.05107793452757048
ה 1
ازت 1
انوس 1
اویر 1
خصائص 1
خصوص@@ 1
عمار@@ 1
فرنس 1
قن@@ 1
1875 0.20766650127757813
347 1
366 1
396 1
57.@@ 1
Ba@@ 0.1114585343815646
Prefecture 0.609172209509024
ca 0.04749603047784921
اشم 1
براون 1
خدی@@ 1
زين@@ 1
غال 1
گوجران@@ 1
0.3 0.9254362070158134
000@@ 0.8192425277428141
1804 0.46024073115123143
490 1
Ex@@ 0.03589205700101613
Gr@@ 0.032049916876667424
Ku@@ 0.16244969032210066
Loire 0.27658346643595577
Mir@@ 0.11856442285028565
ex@@ 0.020349865713554186
object 0.3231155284880719
pr@@ 0.024433516967120556
استم@@ 1
اناط@@ 1
ةٍ 1
تْ 1
روج 1
طراز 1
قتال 1
كاؤن@@ 1
كات@@ 1
متعل@@ 1
پسم@@ 1
3,000 0.4902424412922626
346 1
367 1
385 1
48,@@ 1
639 1
Gal@@ 0.06852215169863056
IS@@ 0.14517288709601178
Shah 0.41863634068961175
include 0.03377925302622016
ta@@ 0.06160844376976043
ةُ 1
ترو 1
سلک 1
قصائد 1
قفق@@ 1
مقص@@ 1
پولین 1
﻿ 1
3.1 1
342 1
343 1
AS@@ 0.10076720232369688
Sol@@ 0.06341530871358116
esh@@ 0.16851569225958127
× 0.13810995357225478
المتو@@ 1
بعنوان 1
جين@@ 1
زين 1
فري 1
كين 1
لما 1
مارس 0.7662461142918774
ٴ@@ 1
AM@@ 0.17042339712178767
Bor@@ 0.05810050073807579
Em@@ 0.07164690231218446
Ser@@ 0.06226845095370457
Str@@ 0.03710910201398365
om 0.06754148317510848
ul 0.13921220902993878
ut@@ 0.032011771968399584
السع@@ 1
بقاء 1
حضر@@ 1
صت 1
ماتح@@ 1
مقبوض@@ 1
ویش 1
ﺨ@@ 1
1400 0.6971536665821997
1839 0.316893270194447
1872 0.20299840925047924
349 1
em 0.036111822634623175
est 0.00226341441955535
gu@@ 0.03644359233317275
mo@@ 0.02977076908025683
mon@@ 0.024036822954386805
المثل 1
المز@@ 1
النج@@ 1
روق 1
سكا 1
ضي 1
عبر@@ 1
عیس@@ 1
نك@@ 1
يول@@ 1
ّن 1
یوگ@@ 1
ﺲ 1
￼ 1
1600 0.44005521632750333
369 1
96.@@ 1
99.@@ 1
Bu@@ 0.08205297061525772
Ra@@ 0.1483588220961918
So@@ 0.06056675265029349
den 0.0026611532358372606
elle 0.011386880009127763
ette 0.03773473507321081
ja 0.04951867591387843
la@@ 0.07020277611582061
ma 0.032467084723506956
ment 0.02541225738196966
ost 0.13925328469327386
ִ@@ 1
ئون 1
ائیس 1
اكا 1
اندل@@ 1
اني@@ 1
انيا 1
بالم@@ 1
بلي@@ 1
جزئ@@ 1
راض@@ 1
ساء 1
عة 0.5300720912444655
فائی@@ 1
قرآ@@ 1
مسئ@@ 1
موسو@@ 1
ﺿ@@ 1
1865 0.18665096818206792
353 1
359 1
368 1
42.@@ 1
44.@@ 1
Av@@ 0.09996794993378535
It 0.006040421807904787
Kor@@ 0.08621137801530106
Poland 0.12759067851117295
our 0.045479945697505554
system 0.028179510738680285
ure 0.03899797060498571
ائق 1
الاد@@ 1
المقد@@ 1
بلي 1
ثاني 1
حبيب 1
ليل 1
نزدی@@ 1
نفا@@ 1
نفو@@ 1
کاروب@@ 1
ݨ 1
ਾ@@ 1
་ 1
ﻏ@@ 1
ﻱ 1
378 1
5.2 1
Lin@@ 0.09169269320604073
Russia 0.10304692645762725
ale 0.018400230284827512
ations 0.011927965331515461
est@@ 0.025486352710668837
اکث@@ 1
جغرا@@ 1
خطر 1
راع 1
ساتھ@@ 1
قار 1
ومي 1
يام@@ 1
ﺅ 1
1.0 0.7660508707764058
386 1
Hil@@ 0.12905427979850287
Lo@@ 0.04998525712729282
Now@@ 0.4124544505063564
Si@@ 0.08275375047978575
Val@@ 0.05611004598432957
go@@ 0.09036943158213144
ti 0.052189093478287873
á@@ 0.04056490809240449
افر 1
بم@@ 1
ریلو@@ 1
ساف@@ 1
ستار@@ 1
صدي@@ 1
عز 1
غي@@ 1
قصص 1
مونت@@ 1
্ 1
0.1 0.7832892649109284
379 1
403 1
470 1
630 1
999 1
El@@ 0.028571460291134717
Ha@@ 0.08922511388130722
department 0.12695182425784965
ency 0.07217092173768293
hir 0.3864909384498659
استف@@ 1
تعالى 1
تعم@@ 1
خمس@@ 1
دائرة 1
عقاب 1
فين@@ 1
كيلي 1
يه@@ 1
− 0.14076314297508427
1828 0.34212541794468915
1859 0.21071894966773574
1862 0.18270005935056133
1883 0.18540983354504184
341 1
393 1
5.4 1
6,000 0.7435025351769763
At@@ 0.07221974518140363
Aub@@ 0.35350991034505164
Hasan 0.8832325004009959
Pro@@ 0.04151434617307845
cr@@ 0.029133415972688204
ence 0.027825074853133562
sa 0.01071466368494834
ءت 1
المقابل 1
زیز 1
عروض 1
قرن 1
كت@@ 1
مناصب 1
مه 1
1838 0.2941768346599951
371 1
376 1
391 1
4- 1
4.0 1
46,@@ 1
88.@@ 1
IM@@ 0.1785762381286422
Kam@@ 0.12320168352298934
Lake 0.06331401424186814
Peru 0.32270688720379803
ano 0.02550800028073472
ao 0.06810932860503861
people 0.01834261526592766
ès 0.12081447848973903
ادق 1
المخ@@ 1
المهدي 1
اہب 1
بوي@@ 1
رك 1
صوت 1
عيل 1
كريم 1
384 1
Bur@@ 0.04237980946235403
IV 0.0754242415852667
No@@ 0.08477874872603217
Nord 0.08196659198344665
UTC 0.4508421447286349
do@@ 0.04609816740488593
ion 0.049461479654573905
lam@@ 0.07410908155752084
ome 0.08366221892585284
osis 0.14891826090486698
ter@@ 0.019866946715352374
ą@@ 0.40989298025078424
اشرا@@ 1
الثاني 0.9525601030532739
بوب 1
توح 1
سمرق@@ 1
صندوق 1
قيس 1
لد@@ 1
منس 1
وكي 1
ﺍﻭ@@ 1
1832 0.2962191265451372
1853 0.25291637256135896
50,@@ 1
79.@@ 1
Fer@@ 0.11040631922831344
Georges 0.18935582925445932
Lam@@ 0.13402909026247387
Lar@@ 0.13373187733116468
RE@@ 0.16478036691743086
ast@@ 0.07195801888233463
languages 0.15430129817793128
ng@@ 0.08781417146838545
their 0.005840470307918393
uk@@ 0.07012992797027906
ˈ@@ 1
ַ@@ 1
تات 1
جروں 1
صحيح 1
فح@@ 1
نساء 1
وَّ@@ 1
ﻒ 1
1863 0.17730304894775775
404 1
5.6 1
54,@@ 1
660 1
960 1
Ko@@ 0.06203669440423692
Taz@@ 1
ais 0.07834942224440837
estan 0.608129255155986
ford 0.04558233978629003
geograph@@ 0.38610383672746384
have 0.006952817469593857
lès 0.7629559001037999
son 0.004587349035235402
آئر@@ 1
استر@@ 1
الحاد 1
الشاف@@ 1
براء 1
حاص@@ 1
فلوری@@ 1
قديم 1
مقب@@ 1
ناہ 1
وير@@ 1
ٹورنام@@ 1
1866 0.15119198589529553
398 1
405 1
412 1
5.8 1
610 1
720 1
AL@@ 0.1841826482986368
Ban@@ 0.08549985676527777
bar 0.05200158130527481
ó@@ 0.04876386214934356
اسل 1
الس 1
اللح@@ 1
بعث 1
بیو 1
تام 1
تروی@@ 1
تکلی@@ 1
خوا 1
سندر 1
فلسف@@ 1
لکھن@@ 1
مصنع 1
والع@@ 1
وصی@@ 1
ٰن 1
05@@ 1
1,200 1
1806 0.30724997847550667
373 1
399 1
435 1
481 1
49,@@ 1
510 1
58,@@ 1
Ad@@ 0.04312200920155085
Empire 0.0723516682566085
IN@@ 0.1408524891718585
Maryland 0.17566060430745997
Paul 0.03210914254659412
ie@@ 0.06630668586769356
me 0.0254788456147651
more 0.010236936902473874
per@@ 0.021052454514773375
pur 0.20229950677094669
ty 0.025605619618468505
بغض 1
بيل@@ 1
رخص@@ 1
سوف 1
شري@@ 1
شك@@ 1
كون 1
يف 1
گجرا@@ 1
100,000 0.4094648932296663
1826 0.3368538483349442
1846 0.2529760663927545
1851 0.23589312977516877
1869 0.1893243757033301
3.2 1
361 1
401 1
408 1
55,@@ 1
760 1
Carni@@ 0.7900913855345386
IC@@ 0.14245936617963875
Julien 0.578132015660598
San@@ 0.06876728339985352
St. 0.03158418797644191
Tom@@ 0.10792836558983689
ji@@ 0.2633052149891222
التح@@ 1
تخصص 1
تکنی@@ 1
ربع 1
صاص 1
ومو@@ 1
425 1
CA@@ 0.10468892437437552
ada 0.010607844800191883
ؤٹ 1
ادل 1
بنات 1
خمس 1
ميد 1
وسي 1
وقعت 1
ومع@@ 1
یکس@@ 1
ﭨ@@ 1
358 1
387 1
394 1
406 1
47,@@ 1
Bon@@ 0.11310743216541956
Nas@@ 0.23354045984294367
Sad@@ 0.23850381268660284
ey 0.03695550769182143
oli 0.21173836169947924
ran@@ 0.043221571525770906
trans@@ 0.028794988506247104
الاست@@ 0.7984531593242705
العلا@@ 1
انگل@@ 1
اکین 1
بوط 1
جارج@@ 1
جت 1
داول 1
زال 1
كلين@@ 1
لاح 1
وقت@@ 1
″ 1
 1
1834 0.2816243472765936
1854 0.21816514001575027
382 1
388 1
50,000 0.5861095977766818
525 1
620 1
661 1
830 1
Arabic 0.34625617767291955
Bois 0.46424318761707006
IA@@ 1
Stadium 0.12416817934438007
Trans@@ 0.08393705996020702
ets 0.026518774200007172
hu@@ 0.06232136079474041
اظ 1
البق@@ 1
باح@@ 1
جاء 1
سوتا 1
سپ 1
محاص@@ 1
نع 1
نوتی 1
0.4 0.9667950137110635
377 1
392 1
69.@@ 1
730 1
English 0.031224631373688028
Union 0.03333533847938238
air@@ 0.05054800454140555
bi 0.15391206944268304
car@@ 0.02142260159559507
rah@@ 0.4660838055663004
ze 0.05122157954192989
الروا@@ 1
المو@@ 1
ته 0.3477312068130681
رہنما@@ 1
شغل 1
گلگ@@ 1
0,0@@ 1
1831 0.28383612918726137
397 1
424 1
452 1
590 1
ita 0.044191259286579784
you 0.062110824198366686
بح 1
تناول 1
جديد 1
خل 1
ريز 1
ریاست@@ 1
شنو 1
قندھ@@ 1
لوث 1
ماي@@ 1
مشار@@ 1
کھوں 1
1821 0.2767910247091974
1835 0.2592676809369085
383 1
4,000 0.5641482194485479
428 1
441 1
445 1
Mat@@ 0.053224292050641935
com@@ 0.022824292741186927
gr@@ 0.018910386684192457
lar 0.06648516710125682
oma 0.08715490261199714
way 0.018953244399290452
الشمس 1
ةٌ 1
تصر 1
توم 1
دري 1
دز 1
ربي 1
ساك@@ 1
فتوں 1
لك 1
وزير 1
يق@@ 0.9124746111721175
1790 0.3259669507037883
1818 0.3088895249758282
1820 0.1985960114052436
1845 0.23933941811762413
3.9 1
374 1
4.7 1
56,@@ 1
AN@@ 0.14511383331335223
Archiv@@ 0.910259026664008
COVID 0.13355614168827612
Internet@@ 1
a.org 1
ali@@ 0.05581124517591359
ant@@ 0.029501481857987132
ative 0.03282450894315803
dis@@ 0.011140755474446058
ens 0.013772147628990324
ev@@ 0.03040602693258056
line 0.020519468633859617
owo 0.4086278988315682
population 0.01821262812495189
wa 0.04937253858237813
ys@@ 0.06305633215966529
اة 1
دث 1
زه 1
مظاہ@@ 1
معي@@ 1
مك 1
ولاد 1
ية 0.18101291921919693
ّس 1
ٕ@@ 1
ۖ 1
07@@ 1
09@@ 1
1874 0.16500664128172535
423 1
438 1
Ash@@ 0.1117080846300114
Now 0.2177600023997948
Ow@@ 0.41156872435863207
Sur@@ 0.07304653779533345
Sy@@ 0.08907981013590467
also 0.003978146330530398
bo@@ 0.022433386650796753
cas@@ 0.03700229381962012
che 0.03244347453582139
end@@ 0.023079104362685336
eng@@ 0.03394385246502723
ish 0.04335791834734508
str@@ 0.025363292030641686
uv@@ 0.13634193012787246
which 0.003358167894681709
بني@@ 1
جزء 1
ربيع 1
طيف 1
كوا@@ 1
مساف@@ 1
وسل@@ 1
يمي 1
کریا 1
1809 0.3326042123543578
1868 0.16174882037355423
415 1
433 1
493 1
495 1
6.4 1
950 1
97.@@ 1
Bah@@ 0.17500355879326857
Cal@@ 0.041575039593318305
Council 0.03906125805181225
Inter@@ 0.041818046134256256
Sab@@ 0.11241344339700887
Tri@@ 0.04381113722473318
adi 0.17075110664686158
alism 0.08235676548741043
appe@@ 0.30541730527735694
ata 0.0321375887921722
ath@@ 0.04650012966712077
ess@@ 0.03802694792796758
ge 0.029012948286600115
single 0.023401438402087645
ura 0.04670913256776251
افع 1
الصح@@ 1
العب@@ 1
النص@@ 1
جه@@ 1
شمل 1
قاء 1
قوط 1
لج@@ 1
ميا 1
هـ 1
وجود@@ 1
وزي@@ 1
ٹاؤن@@ 1
1799 0.3934822149232884
389 1
426 1
473 1
5.9 1
656 1
670 1
7000 0.9618214663933397
He@@ 0.033938750945063594
Island 0.04714066122493676
Mol@@ 0.0901602901021685
Sav@@ 0.10521195810706158
tan@@ 0.05210909450392011
tu@@ 0.035623946468930724
use 0.015189400967563516
ابن@@ 1
الجرا@@ 1
الجز@@ 1
الفار@@ 1
المُ@@ 1
انکارپو@@ 1
تقد@@ 1
دلچ@@ 1
سعودي 1
وتي 1
وذ@@ 1
ٹرل 1
₹ 1
ﮪ 1
432 1
442 1
455 1
57,@@ 1
58.@@ 1
8.1 1
978 1
AT@@ 0.11688500048520165
Cy@@ 0.1331533384670774
Haute 0.2531684964391314
LC 0.35417190130126536
Ni@@ 0.0658703156098574
Tang 0.41675422739105245
Western 0.05146238632236197
ku@@ 0.11237556747679181
sp@@ 0.020394712750605986
tes 0.018540902394915407
yn 0.12479401571775361
ë@@ 0.19431769421454323
ئری 1
المغرب 1
جہاز@@ 1
حدث 1
قبل@@ 1
مرش@@ 1
مسا@@ 1
ولون 1
ونسو 1
يزيد 1
ہدای@@ 1
ি@@ 1
001 0.6622212312067173
3.0 0.713741736465278
30,000 0.6567788123509297
4.6 1
418 1
456 1
Bad@@ 0.12723356854696866
Games 0.06809837161512207
Ge@@ 0.03233404396919205
Lag@@ 0.1798495977685857
Mad@@ 0.06270518465837394
Mag@@ 0.05107887601390613
Pan@@ 0.062479445407268075
Pl@@ 0.047463356502840955
ell@@ 0.03149487273797109
ological 0.04687848770251459
sub@@ 0.022011745932804784
uz@@ 0.08931577306680825
افز@@ 1
برکی@@ 1
تخلی@@ 1
حضرت@@ 1
حيات 1
دوغ@@ 1
ديل 1
شخصيات 1
ضي@@ 1
لى 1
موسي@@ 1
نکھ 1
ڊ@@ 1
409 1
43.@@ 1
465 1
Borough 0.34651793130515646
Dow@@ 0.2062023920133438
Dynasty 0.5537753392401191
Tur@@ 0.05275793541307986
ain 0.03811278117566427
od 0.06991130701004586
ular 0.06341953213805439
yan 0.12845466095989544
ye@@ 0.130399354167953
التص@@ 1
المسلمون 1
تدار 1
راعات 1
روبن 1
صُ@@ 1
عال@@ 1
قوا@@ 1
كيم 1
ليون 1
وتم 1
وّر 1
پنسلو@@ 1
ਸ@@ 1
3.7 1
4.9 1
439 1
444 1
545 1
586 1
860 1
940 1
980 1
Ang@@ 0.050014250398416255
Cas@@ 0.05060901387563484
Do@@ 0.05639581630171502
Great 0.05587916084576541
History 0.023890129845035333
Il@@ 0.08677380298969903
Islamic 0.19095195040021942
Lac@@ 0.19331021483285318
Nor@@ 0.052279325127073006
OS 0.11886246378758739
SA 0.10560744250790392
Tak@@ 0.09175378173788908
US 0.018254061833563314
anti@@ 0.0400729260694667
bu@@ 0.04112293107182877
ent@@ 0.012482339997144543
ib@@ 0.05114638345712715
mer@@ 0.024040143944564298
over 0.009382722276769395
Étienne 0.33720119747102156
ō@@ 0.10772995972652114
آسٹریلی@@ 1
المث@@ 1
تنظيم 1
عنص@@ 1
لاه@@ 1
مترا 1
وسلا@@ 1
️ 1
1100 0.5884522569329863
1855 0.192396593301801
3.8 1
411 1
485 1
543 1
6.1 1
6.3 1
DB 0.39576557976999027
System 0.08363481266650709
ability 0.039117998346188426
html 1
ik 0.05209968109854831
mi@@ 0.0388436465167587
most 0.010974541628853966
ran 0.06044338990084644
space 0.06291930224331073
ud@@ 0.05856904884773279
va 0.031678924834276576
vi@@ 0.024570745309639798
تیب 1
خصوصًا 1
دلال 1
ظروف 1
مجتمع 1
ياس@@ 1
یروش@@ 1
1,500 0.7384856712361089
1789 0.30244328214792165
413 1
421 1
422 1
446 1
454 1
737 0.8348949823185212
Ak@@ 0.057725010261159025
Lou@@ 0.16125360086921897
Ray@@ 0.3034369405581768
US@@ 0.07122627112029009
aye 0.1597592361736703
bot@@ 0.10610590799935252
can 0.01060183493592649
her@@ 0.024060613273422387
number 0.015686749271816233
time 0.006659821352428995
war 0.004130409463166632
š@@ 0.06659576424517097
ادیث 1
الشع@@ 1
رًا 1
غام@@ 1
فرق@@ 1
قري@@ 1
كيمي@@ 1
ماري 1
ماق 1
مالي 1
ناک@@ 1
نه 1
ਦ@@ 1
1801 0.2912563177840948
1847 0.2113405555651595
4.8 1
402 1
416 1
417 1
448 1
484 1
580 1
7,000 0.7372177603893625
André 0.14162002778075244
Bak@@ 0.1226243991421487
Bay@@ 0.1016215701287271
Bey@@ 0.7857608399075864
Lahore 0.9226741967435013
Ou@@ 0.21815714233010616
Sam@@ 0.06409540888304231
Spain 0.0871858819489391
ates 0.0168836185235824
ba 0.052914708957518465
con@@ 0.013333227873083556
ham@@ 0.1411828990688336
istan 0.2419675024945863
ke 0.021794130088207124
ting 0.015986778177557164
yk@@ 0.5374449586119056
נ@@ 1
ازي 1
اعتب@@ 1
الاث@@ 1
البشر 1
الحديث 1
بعض@@ 1
جعل 1
جمي@@ 1
جين 1
زز 1
صنا@@ 1
صي@@ 1
مري@@ 1
وفى 1
़ 0.034532550196363344
ক@@ 1
ﭙ@@ 1
ﯽ@@ 1
1837 0.22453018847764142
300@@ 0.9198981138492978
407 1
414 1
437 1
5- 1
515 1
64,@@ 1
930 1
975 1
Deh@@ 0.7081826655772402
Gor@@ 0.08743700161408852
Romania 0.2642981159220945
TV 0.029603483917627953
VI 0.11551577550702342
aki 0.11240100567679744
bas@@ 0.03900498823136004
bl@@ 0.023020709181915712
fac@@ 0.08291086005243287
gen@@ 0.0212724266949899
non 0.020620785909360822
ny 0.09128086643659723
pedi@@ 0.33796891488950376
آندھ@@ 1
تؤ@@ 1
ثا 1
خليج 1
دفع 1
سلر 1
وتن@@ 1
1810 0.2515797369352906
1817 0.2953389907447503
419 1
427 1
494 1
499 1
5.3 1
548 1
642 1
652 1
740 1
790 1
Jon@@ 0.3651762384410864
Muhammad 0.21791659880631462
NS@@ 0.16931141342472256
Valley 0.07235010867474907
ault 0.09811355171499316
ju@@ 0.08130121929688336
nor@@ 0.0626864741316502
parish 0.10818850495123572
wiki@@ 1
ères 0.05185565354367156
البل@@ 1
بالت@@ 0.9878620813352234
بض 1
سير 1
سيف 1
فة 0.5551044000542953
فرانسي@@ 1
مًا 1
نين 1
هو 0.08336465553659402
وبي 1
ੀ 1
ﻊ 1
08@@ 1
112@@ 1
1829 0.2615809496813617
1842 0.2218722816764376
468 1
486 1
544 1
632 1
8,000 0.5978646912165716
Beau@@ 0.14697500317247603
Est 0.1516879421284485
House 0.02624163117152216
Hungary 0.19513007794208787
Jan@@ 0.11257897299713948
Las 0.030421593905618237
PO@@ 0.2567955402644584
Ri@@ 0.046679617993643806
fi@@ 0.03741988619355557
settlements 0.3541883083684381
yg@@ 0.1767460491539211
Ś@@ 0.4299484719193896
إلى 0.046776253893233664
المرا@@ 1
ديه 1
شح@@ 1
شیدہ 1
مى 1
ميل 1
وظ 1
وعمل 1
1520 0.8721835323103673
1844 0.21979258497411472
436 1
457 1
483 1
507 1
549 1
6.6 1
840 1
Land@@ 0.03325836141748244
Lu@@ 0.05175696200274418
SA@@ 0.12935117141377236
Tw@@ 0.12061849354199566
apo@@ 0.05910222645912225
ep@@ 0.028999232250645525
ino 0.02399705194089528
mont 0.0997781461950646
s.@@ 0.48688212100400385
ush@@ 0.12242313161508493
will 0.01644041627224031
ע@@ 1
تى 1
حدگی 1
طع 1
كوب@@ 1
متر@@ 1
محق@@ 1
مخد@@ 1
منتج 1
مني 1
1807 0.29600422645477875
429 1
5.1 0.9286593388436835
527 1
565 1
59,@@ 1
6.2 1
810 1
910 1
Kah@@ 0.4310250571993954
Kr@@ 0.03491460122949424
La@@ 0.07686155522665908
Mur@@ 0.0717448346084741
ST@@ 0.1352048150515592
Var@@ 0.11081812388789382
core 0.1266326181911626
countries 0.054746863200100145
gi@@ 0.030611962341737173
ip 0.5098625926651418
kar@@ 0.06331649633275263
rate 0.06930863386381797
ts@@ 0.029957088173934648
ut 0.051064325888461104
width 0.23092288304982705
á 0.041712860762206753
ائص 1
الاغ@@ 1
السن@@ 1
المل@@ 1
بارات 1
تش 1
ريت 1
ريم 1
زيل 1
سى 1
طلق 1
كاب@@ 1
مجرد 1
يحي@@ 1
يكي 1
کمش@@ 1
ﮈ@@ 1
ﺀ 1
ﺯ 1
ﻈ@@ 1
4.3 1
447 1
512 1
555 1
7.3 1
870 1
Ay@@ 0.09423722944644689
El 0.005434016611251789
Road 0.040053477574806436
ae 0.03316614615643697
class 0.03851678925481656
had 0.003463989394474885
ham 0.07529851263275417
his 0.0018832527573329327
ile 0.019015586381707306
ko 0.053697381480600485
mu@@ 0.05420569536653324
net 0.06734703497405295
oph@@ 0.05565600829512544
two 0.0052387997482479425
آرتھو@@ 1
اتذ@@ 1
استط@@ 1
بغ 1
تبات 1
دوج@@ 1
دّ@@ 1
سرائ@@ 1
فورنيا 1
كث@@ 1
يي 1
ﷲ@@ 1
434 1
466 1
516 1
518 1
Chesh@@ 1
Cr@@ 0.03620072853774774
DA 0.1675976441158067
VII 0.14706192241570581
arr@@ 0.04256938889085234
ist 0.002634660905488863
life 0.01403762605576156
ć 0.1300660769913075
č@@ 0.07165134830872752
احت 1
البرو@@ 1
تاد 1
تکمی@@ 1
شاخ@@ 1
طلاح 1
عرص@@ 1
مباش@@ 1
مدي@@ 1
موريس 1
وفو 1
ਿ@@ 1
ﭦ 1
1000@@ 1
1707 0.7732004586585207
449 1
458 1
463 1
478 1
5.0 1
551 1
602 1
625 1
780 1
AB@@ 0.18734928425279063
CEO 0.17505211643945318
Nar@@ 0.09969182440002183
Netherlands 0.13064271187350296
Qur@@ 0.6636890307921236
form 0.020606685506760848
nes 0.06088627671937288
pl@@ 0.017518731869503656
poly@@ 0.09595645474281246
ren@@ 0.03007101801444779
sk 0.11158765948437857
they 0.006586590854680894
ue 0.028474390004886257
ابق 1
ابوی@@ 1
اشي 1
اكت@@ 1
المف@@ 1
امز 1
بالن@@ 1
بدا@@ 1
بولي@@ 1
بوم 1
تست@@ 1
تعلم 1
توقف 1
ثم@@ 1
راجستھ@@ 1
فلا 1
قاط@@ 1
لاند 1
لقت 1
لًا 1
وسر 1
ব@@ 1
․ 1
🔹 1
--- 1
1526 1
467 1
5.7 1
572 1
820 1
970 1
Chi@@ 0.06736755911174568
Dis@@ 0.0462152156879455
Ram@@ 0.0632438391640048
Vil@@ 0.10242311157737569
ann@@ 0.040628106172096695
arg@@ 0.09014135581641562
cell 0.10830191129954256
dar@@ 0.07961785921825207
ory 0.04072907949979855
settlement 0.10610180731152007
up@@ 0.029305817445403278
urdu 1
ym@@ 0.0694456583369983
zi@@ 0.05268849225868376
ת 1
ارتباط 1
الجما@@ 1
الملك 1
النس@@ 1
ترکمان@@ 1
سترا@@ 1
عند 0.557348996467341
فط@@ 1
كلو@@ 1
مؤلف@@ 1
مارك 1
ميت 1
ميم 1
وئي 1
ينا@@ 1
ন 1
ﮌ@@ 1
ﺫ@@ 1
431 1
453 1
475 1
536 1
6.7 1
651 1
7.2 1
76,@@ 1
A. 0.038009264303297645
Hill 0.05326051271734509
Kas@@ 0.07718208198409274
Mer@@ 0.03515283307388326
Punjab 0.38836035054599055
Quebec 0.1665146466418025
Reg@@ 0.03655093894691619
SE@@ 0.11824930439748749
achi 0.224566478201115
ids 0.05138766197726901
iec 0.682202274293451
ography 0.0824410918012071
onne 0.08464757058030155
ors 0.014392795377419968
oux 0.16796672831505258
quot 0.25399515226684133
so@@ 0.02514392422012259
الإمام 1
باست@@ 1
جارجی@@ 1
حمل@@ 1
دًا 1
كور 1
لسان@@ 1
هي@@ 0.52002206909799
ويد 1
1770 0.4059869991971712
1819 0.27178598849523283
4.4 1
482 1
511 1
552 1
589 1
6.8 1
98.@@ 0.8578976651865621
American 0.008990552464410512
Bab@@ 0.11021323740713955
Burkina 0.5749755552435111
Can@@ 0.05151251268586909
ES@@ 0.11695705892817014
Khar@@ 0.4264300003182608
Les 0.00838981108148622
ME@@ 0.16696275176685416
MO@@ 0.20402969233488663
Ol@@ 0.059144969345685104
Pol@@ 0.037050897427849463
RA@@ 0.10065166496484843
RC 0.14007148107051395
Sweden 0.12983246109835272
Tor@@ 0.03656887463716634
act 0.03933001068259349
begin 0.13139249855715454
der@@ 0.019434866162520527
esh 0.17259678528343314
function 0.0906301184230085
hol@@ 0.03861978397402952
hou 0.3332631311322664
illy 0.10892644237683725
ire 0.030628788430205948
ke@@ 0.06214802286150196
oh@@ 0.05650076277504543
ps 0.030545778467894854
أن@@ 0.3795741364119522
الواقع 1
برش@@ 1
ترقی@@ 1
حلول 1
دَّ@@ 1
روي@@ 1
شرقي 1
ظل 1
كيني@@ 1
مسح 1
ومات 1
ਤ@@ 1
1795 0.2804338472903856
1824 0.23962198299930149
25,000 0.6012978917401549
462 1
469 1
479 1
505 1
508 1
539 1
717 1
777 1
880 1
Air@@ 0.1278209387269346
British 0.016570297309302595
Cl@@ 0.052373641090158615
Er@@ 0.015953874129709483
Faso 0.5728415883151954
Sc@@ 0.05140131471523916
Sor@@ 0.09133699280540798
WT@@ 0.5437337516664066
ach 0.028062092254124826
ist@@ 0.02836278731876923
ole 0.04876441672429313
public 0.017010475191663287
row 0.06856709799564982
sc@@ 0.033843247493782654
sion 0.028128675687116113
tical 0.04859614157925603
une 0.0023044513882144726
£ 0.07618299397571664
ī@@ 0.15890833678215183
الجزائ@@ 1
الشيخ 1
باع 1
بة 0.3204433221859833
بيان 1
تاريخ@@ 1
تقر@@ 1
خير 1
دة 0.32543875347218215
دورا 1
شير@@ 1
طري@@ 1
فات@@ 1
قاً 1
مشک@@ 1
ۂ@@ 1
1453 1
15,000 0.6223067043215201
1783 0.36077639546052603
1836 0.19566107245443914
4.1 1
451 1
477 1
506 1
521 1
522 1
6- 1
612 1
711 1
911 0.8612195968759125
ER@@ 0.11882146003116828
Hal@@ 0.04869788008954394
Ju@@ 0.08034946425713886
Mu@@ 0.07033964666154525
Shir@@ 0.31825581025863725
XI 0.18428679757806585
agne 0.1580008539134988
ase 0.03221154366060161
ast 0.04938130663596201
gar@@ 0.04239662849748363
ֹ@@ 1
ارتفاع 1
ازب@@ 1
التن@@ 1
الصدر 1
بب 1
جمہ@@ 1
ناج@@ 1
نساس 1
ڈیز@@ 1
۞ 1
ﮯ@@ 1
1803 0.23422167762782792
1833 0.21051866976754213
501 0.7011033249467478
509 1
532 1
542 1
559 1
603 1
685 1
705 1
718 1
722 1
914 1
Fo@@ 0.07817394657418462
Mak@@ 0.0784973391419656
Seine 0.05027273338388499
`@@ 0.7096517714681536
ain@@ 0.045006989978041555
ami 0.06970998670057547
ania 0.09024424768134252
ati 0.07313194870584687
list 0.038039880114975014
national 0.017462018538112915
ubi 1
van 0.04596149827453618
wi@@ 0.09639802291918986
ם 1
اختبار 1
افي 1
التار@@ 1
السلا@@ 1
جاد 1
خوس@@ 1
زرلینڈ 1
سبع 1
سیع 1
غوا@@ 1
قام@@ 1
لحم 1
متہ 1
ّق 1
٘ 1
کنون@@ 1
1793 0.2232456515012505
491 1
500@@ 0.72147831585773
502 1
524 1
534 1
576 1
585 1
66,@@ 1
67,@@ 1
69,@@ 1
690 1
7.1 1
CA 0.12449050744182445
Colombia 0.1170493849383946
George 0.02282708800995305
Jam@@ 0.1592855118218301
Maurice 0.139354273041478
Min@@ 0.03764955842460712
Portugal 0.08367059031148132
This 0.007673797995097164
Vi@@ 0.050194745735242394
all@@ 0.023588562841121433
aza 0.18305420508365808
ebo@@ 0.1899288107109966
ess 0.026447660695508066
lah 0.3619217724160585
oth@@ 0.04855964043159494
out 0.007290952351326948
pe@@ 0.026198238400181928
per 0.01756771230005357
qa 0.6715502712422489
su@@ 0.020036635364888707
tics 0.060560094191772704
uch@@ 0.05592700164316127
ä@@ 0.023151021477825263
ā 0.2309401778139605
البح@@ 1
الحوز 1
النفس 1
اله 1
ترك@@ 1
تصف 1
تیش 1
جورج 1
ستي@@ 1
غزو@@ 1
فلي@@ 1
لمع@@ 1
مراء 1
مرت 1
موض@@ 1
نشر@@ 1
نيل 1
ولاية 0.6725610259955968
يرا@@ 1
ڏ@@ 1
ڙ 1
10000 1
1788 0.3518173175991529
474 1
528 1
537 1
604 1
609 1
775 1
920 1
Asian 0.07930142159340098
Azerbaijan 0.2938412920520532
European 0.02671249765668603
IW@@ 0.6731230674746206
Kan@@ 0.05813695118611588
Khal@@ 0.465215467436261
Kol@@ 0.060960959383948354
Lang@@ 0.062013137615824936
My@@ 0.07763839063567525
Na@@ 0.09251508713187093
Sud 0.07822657766780608
book 0.022734396695666837
ri 0.0777088189297092
tig@@ 0.049302776694590364
und 0.000711451703006931
ابد 1
البد@@ 1
ایتھو@@ 1
تك 1
خسر@@ 1
خليل 1
دستان 1
سليم 1
غالبًا 1
فيض 1
قط 1
مشتر@@ 1
وتر@@ 1
وفي 0.22584498964738003
ٶ 1
1792 0.24577745011740415
1843 0.19209007354543461
1852 0.16012593453502974
461 1
464 1
533 1
601 1
626 1
636 1
815 1
Bou@@ 0.07852223425698536
Company 0.030337848029548458
Division 0.024405711221951936
Egypt 0.14944238802120938
Hey@@ 0.24458107590163414
Islam 0.171707787211807
Koh@@ 0.15851441882457926
Meh@@ 0.28316376720506364
Michel 0.09202300972347688
RNA 0.27746051742139105
Sel@@ 0.06385405503893937
ag 0.10318709519915682
don 0.050671187392763356
historic 0.08747833118246401
ira 0.0613777823988685
lin@@ 0.030431795665622575
ly@@ 0.058823995682208335
other 0.0059569383863035475
pol@@ 0.03771082991124423
tri@@ 0.022993716235172913
ud 0.14998556463671664
uri 0.12104877069481909
wo 0.02852290786733186
wood 0.035350330791529015
yl@@ 0.03302427972951514
zi 0.09703943781104386
السلط@@ 1
تجاو@@ 1
تقدم 1
جوز 1
حي 1
خرج 1
دخول 1
شمال@@ 1
شين@@ 1
عاب 1
كمال 1
ليو 1
ملي 1
نيس 1
ويلي@@ 1
ویم 1
ﮎ 1
ﻖ 1
0.0 0.8671752771427672
1791 0.2887241252990118
1825 0.21011372731817549
20I 1
3D 0.15889614971858312
504 1
538 1
575 1
622 1
655 1
710 1
770 1
AK@@ 0.36423856906148616
Airways 0.4318687476181562
Nag@@ 0.09324049374991715
berg 0.021323493156972566
fl@@ 0.023608104127115104
ht 0.14112167718409432
ki@@ 0.050244050718700986
ser@@ 0.022185863529404486
sous 0.01586679443620446
table 0.058712233978054224
ve@@ 0.038999792023379026
اقتص@@ 1
الآخر 1
الصلا@@ 1
الغز@@ 1
القص@@ 1
اللغ@@ 1
النوع 1
جغرافی@@ 1
حصن 1
خف@@ 1
ريد 1
طبي@@ 1
قبال 1
مقاط@@ 1
وصل 1
ومي@@ 1
وى 1
يب@@ 1
ې 1
ー@@ 1
1762 0.5052628584964622
1776 0.33375056470400444
1805 0.25214227955606483
200,000 0.5803858337217105
3500 0.8322982149545559
471 1
526 1
582 1
628 1
AI@@ 0.12404116653021799
AM 0.10081614902868427
CC@@ 0.12031817031609336
Denis 0.19288252794617725
Der@@ 0.07823545864815745
Diz@@ 0.7560178312993253
Dr@@ 0.03788125947223897
Gur@@ 0.1749355365074871
Human 0.12462773625520203
IX 0.13880769430220233
Kus@@ 0.23530197451762386
Metropolitan 0.1570481215562334
PA 0.09609902501447684
Pe@@ 0.036789135376695294
Rah@@ 0.22035626481881743
School 0.012196901144396838
Tu@@ 0.07258569356630899
astr@@ 0.08330146098678781
ating 0.014117105645111351
ine@@ 0.0739217715541021
lan@@ 0.0485007180872387
mad 0.7400022444331256
place 0.010524720675096121
tier 0.06502764322778891
tions 0.016446510077065296
tive 0.027619146240353432
var 0.20148892712027572
who 0.0039088823755874195
الد 1
المؤ@@ 1
ایوار@@ 1
حاس@@ 1
ربي@@ 1
روع 1
زمی@@ 1
فيت 1
قائق 1
كوت@@ 1
مبي@@ 1
وخ 1
يكو 1
يمي@@ 1
پرفار@@ 1
਼ 1
ﺝ 1
1808 0.22418291062079274
1827 0.23238898521999538
514 1
535 1
613 1
Ahmad 0.346917582123739
Ben@@ 0.04573013585098037
Châ@@ 0.336187965611067
Im@@ 0.03754336365604972
Mus@@ 0.04195386767399249
Ouest 0.15741634142473662
War 0.01475259477990997
William 0.01931112997598106
any 0.015590035438249088
ap 0.04868667109665735
ars 0.030178513482870917
atic 0.05581996169301732
dec@@ 0.03000360860343254
ect 0.03549541466075701
eng 0.07958968384004048
enne 0.03339549068245384
gene 0.1400272755449488
group 0.014501807339639105
res@@ 0.016513473800634667
up 0.00661763536436182
ן 1
اتذہ 1
افسان@@ 1
الإ@@ 0.22982661424609027
البط@@ 1
البند@@ 1
القاد@@ 1
النا@@ 1
الیٰ 1
ثان@@ 1
دراج 1
سعو@@ 1
شہن@@ 1
فتاء 1
فظ 1
كوريا 1
كير 1
مركز 0.44860216732889463
ميدان 1
ورك 1
وط 1
يعقوب 1
يكس 1
ۓ@@ 1
ﻐ@@ 1
476 1
487 1
496 1
547 1
553 1
624 1
629 1
681 1
997 1
@ 0.47073432489927197
Cau@@ 0.17282038683185907
Dom@@ 0.059143584932785195
Eastern 0.06631801074109134
Mil@@ 0.04611264706277003
SO@@ 0.13913066917278108
Sha@@ 0.20639050149339247
Vis@@ 0.08362520981409423
a.@@ 0.17774401401551143
arrondissement 0.18671813582724872
constituency 0.12807235447142845
ee 0.03280766919825062
onlyinclude 0.11186142395994393
ore 0.024892252858503446
than 0.008771591835425563
try 0.053224756080316425
أس@@ 0.5829280019957058
البص@@ 1
برز 1
تأ@@ 1
دول 1
ديو 1
ذان 1
طم 1
غالب@@ 1
فير@@ 1
نك 1
ولیہ 1
يث 1
ٱ@@ 1
ﺬ@@ 1
472 1
541 1
587 1
634 1
635 1
68,@@ 1
707 1
712 1
Aer@@ 0.12822577352655584
Bank 0.05131870419143087
Cer@@ 0.05547911164457275
Chen@@ 0.4506037563985229
Chinese 0.04001813724639238
Cricket 0.18148284054824332
Dam@@ 0.08060120457869152
Development 0.07055529923856493
Ir@@ 0.05904586662510783
Louis 0.026929765873710647
Mand@@ 0.08050148431473628
Sch@@ 0.00842012323999607
Te@@ 0.029752530627932428
Upper 0.16607407138942096
aine 0.05827520704307618
alu 0.5883722543813218
aq@@ 1
arab@@ 0.197196263320039
ban 0.052340896147870145
dar 0.06368449408129702
ens@@ 0.015371522653880114
hal@@ 0.03511756894873592
ise 0.014166692428080834
we 0.028067091436142194
ד@@ 1
أح@@ 1
ئين 1
الموس@@ 1
النبي 1
ایران@@ 1
تاف@@ 1
جرت 1
جزر 1
جع 1
حيم 1
طفل 1
طُ@@ 1
عبيد 1
غان@@ 1
فضل@@ 1
فلسطين 1
قوق 1
كيل 1
موال@@ 1
نائس 1
ناك 1
نسي 1
هاي 1
يمز 1
ম@@ 1
ਹ@@ 1
ி@@ 1
ﭔ@@ 1
.org 0.7460412150178685
1740 0.44746035418300406
1763 0.3964087598578639
1774 0.3700120426073469
1798 0.2407356887017009
1841 0.170740062558352
443 1
488 1
492 1
627 1
675 1
747 0.7564104288530551
9,000 0.9421323829842081
990 1
CH@@ 0.11591238255466597
Du@@ 0.04011169427782147
Grand 0.025714357187283994
L4 1
Mir 0.6576546876877364
Res@@ 0.05650837796020679
Sp@@ 0.022927492536720263
Ukraine 0.08669577848385815
Washington 0.027481549571564606
aya 0.04982342787022873
bad 0.1104472904159655
bat 0.1271367321822856
co 0.01500651241398007
ere 0.022255184885930368
for@@ 0.014025131004304326
inter@@ 0.010599805612339584
jiang 0.3194232665508557
men 0.011289286957413743
my 0.05560422579961155
ner 0.015157592936915187
trieved 1
uk 0.1124732850315667
well 0.008069417861812065
would 0.0065636383708009925
â@@ 0.07096404313132851
ż@@ 0.3203387835499723
ائح 1
اتصال 1
الاول@@ 1
الحفاظ 1
بلوچ@@ 1
تري 1
تفاض@@ 1
حدو@@ 1
ريش 1
مجال 1
مکن 1
। 0.01076262059728669
স@@ 1
498 1
581 1
595 1
638 1
641 1
645 1
704 1
814 1
890 1
AS 0.08311633882427429
Carolina 0.05454241765797022
Cro@@ 0.06188678521190541
Gh@@ 0.11111801866588635
IC 0.11670272140987509
James 0.019590536768760398
Missouri 0.09411870838878979
NH 0.45683056649565373
NO@@ 0.13388883366037269
Socialist 0.23724029144094003
Women 0.03846097080138361
ard@@ 0.03808602303695377
ath 0.04791037142189825
ding 0.040865638608101364
ena 0.033605842746390696
gan 0.13977413240739242
ider 0.08347151152608524
ings 0.012006057367404697
och@@ 0.052914708957518465
privileg@@ 0.3170715944325874
ry 0.03070540798292732
sar@@ 0.08836121619103156
ə 1
أهل 1
إل@@ 0.9682616432134927
بالس@@ 1
بموجب 1
تير@@ 1
تين@@ 1
ذي 1
سيات 1
شعب 1
عسک@@ 1
لمب@@ 1
مراج@@ 1
هد 1
وعات 1
ونات 1
يه 0.6075775403363083
چوسٹس 1
◼ 1
ﺛ@@ 1
ﺦ 1
1519 1
1524 0.9316189706745028
1540 0.6289772641767162
400@@ 0.640774962026478
6.0 1
616 1
9.5 1
AC 0.06543301320242625
App@@ 0.11244158870061502
Baba 0.5503416889461856
Bay 0.041306854591001835
Bengal 0.23819631199861574
Bl@@ 0.03175162828664318
Chal@@ 0.18944546307815746
Don@@ 0.06034061740125997
Hy@@ 0.0603946331982482
Index 0.29923839926573803
MI@@ 0.14689047429612556
Northern 0.05221533561232192
Sil@@ 0.057034735383354476
To@@ 0.042688360962166376
Wiel@@ 0.5906612383030255
awa 0.08633694833228543
but 0.0035507948308464376
cel@@ 0.04816233607661515
ell 0.01719282317663009
elles 0.024085196697767052
ix 0.1018595027475145
ok 0.053521628919023775
ov 0.030878119070837814
pref@@ 0.21911212317481035
pro@@ 0.02430428801420819
set 0.014958352832658717
ski 0.04694371266411719
st 0.02232303113898236
tor@@ 0.020402110432481364
ub@@ 0.04818910828322782
uc@@ 0.03909254063804624
xi@@ 0.0909901820114682
å@@ 0.10855956766220044
اختص@@ 1
الخط@@ 1
المدر@@ 1
بہرائ@@ 1
تنظ@@ 1
جة 0.8714040826002104
داب 1
عربي 1
قاضي 1
كاي@@ 1
كش 1
كيلي@@ 1
وريا 1
ু@@ 1
ਮ@@ 1
1750 0.34238862129953396
1765 0.44788697624571494
50.@@ 1
529 1
725 1
757 1
Arab 0.1295328012335493
Bri@@ 0.07734458404859607
Chile 0.06183188455477112
Cre@@ 0.04315786159616701
L2 1
Marie 0.04190069591547278
Naz@@ 0.1407899238873779
Party 0.023739042806029925
Sultan 0.16881453662412996
We@@ 0.031375869883829115
anner 0.17815361657778164
aska 0.9622694888870896
court 0.028941465557624283
first 0.0028852361337554687
following 0.012094834430073201
ila 0.06000781577003875
ind@@ 0.03968076928001494
inf@@ 0.03437488640953692
io 0.025317747529842317
lat@@ 0.04528708447669564
mal@@ 0.03181888999064502
ng 0.1383858519111843
nucle@@ 0.19179062477582695
pp@@ 0.03998801305988324
so 0.007169798892730085
tic@@ 0.038949897753244804
­ 0.20384717644127565
Ł@@ 0.3460567239605728
إن 0.5752466619214758
المحد@@ 1
امين 1
باي@@ 1
بوش 1
رص@@ 1
سرگو@@ 1
سير@@ 1
عنه 1
موص@@ 1
مونت 1
نمو@@ 1
ومان 1
ينيا 1
ّف 1
ڈیمو@@ 1
া 1
ਾ 1
1780 0.268999608245334
503 1
607 1
715 1
AD@@ 0.08862100479728001
Ap@@ 0.04518632885763545
Bonn@@ 0.18271677449756576
CD 0.04234453943921709
Ground 0.26861043191195
IT@@ 0.15370004915037822
Is 0.08749146047650685
Kon@@ 0.031128824863554526
PS 0.07965122898881888
acid 0.13504602578031544
ages 0.018006978764780072
ality 0.04650282010549366
arch@@ 0.04640789351643529
cells 0.09522053342312363
ement 0.009506011302553009
ene 0.018888648354959882
eth@@ 0.040860155801061414
ign@@ 0.041049115066564175
inn@@ 0.0468846095419091
ko@@ 0.05661952044567135
million 0.018686768697491855
only 0.006696731493885748
osh@@ 0.20008454939624518
tra 0.037514860345084895
í 0.04054203286673077
ת@@ 1
ادئ 1
البرا@@ 1
الحسين 1
الموا@@ 1
الموض@@ 1
جيك@@ 1
ریتی 1
سمع 1
سه@@ 1
صورتی 1
طاء 1
فتي 1
كيس 1
لوك 1
هي 0.10787633956491777
وائد 1
واسع 1
وقد 0.16702676670172026
ومحمد 1
وکال@@ 1
يوم@@ 1
ہمای@@ 1
আ@@ 1
ল@@ 1
1325 1
1699 0.6671361062896499
1718 0.6207066744389653
1761 0.48888567789038406
1811 0.21151502205510794
2000@@ 1
562 1
618 1
925 1
Af@@ 0.13899777750355796
CI@@ 0.10638716854238044
Cou@@ 0.12155665650732159
General 0.01710576772130224
Gulf 0.15859578833808258
IE@@ 0.24051604635169496
IS 0.12448000112567344
KV@@ 0.5527836617502233
L5 1
Pon@@ 0.0789560805792779
Power 0.08533593932228901
Sak@@ 0.09709228818817806
Saône 0.45124366784325537
St 0.032209683120077236
Sz@@ 0.12588848355839297
Ter@@ 0.0455531368919915
ame@@ 0.1137635223917193
azi 0.2405802071122514
din 0.11554166685740244
eri 0.06459565130355577
ili@@ 0.035514141437670704
jpg 1
kan 0.11603486663419142
ks 0.01247698313418641
land@@ 0.032772754079409085
oa 0.07024496285865948
pa 0.047557975701025657
ros@@ 0.05939500656127582
team 0.007589043934881214
zad@@ 1
جري@@ 1
حمز@@ 1
خسر 1
دراجات 1
دى 1
روي 1
كتاب@@ 1
لة 0.2382473443869162
لمان 1
محدث@@ 1
ميني@@ 1
هار 1
هذ@@ 1
يح@@ 0.8147228642067406
ো@@ 1
ਕ@@ 1
ਲ@@ 1
000,000 0.5704433207149949
1648 0.4324412901109339
1772 0.3429957983528765
1802 0.2088391676721854
523 1
546 1
605 1
667 1
7- 1
768 1
875 1
969 1
Arrondissement 0.29056812261436266
Bre@@ 0.03234515992135459
Cape 0.09961468410782631
Croix 0.22910892631295482
Dor@@ 0.0493335890418717
Garonne 0.3754296820582852
Green 0.04784807453292418
Hor@@ 0.03874779653400701
Ji@@ 0.14807834252287605
King 0.02181866544743355
M. 0.041245313998015794
Mel@@ 0.03870976877614478
Mexico 0.04562365080195841
Nigeria 0.13247216787744784
Sham@@ 0.3492124282678617
Soviet 0.04549869224394969
Ti@@ 0.04576416600364835
ass@@ 0.014799689048930979
bal 0.0987761700693936
dia 0.059830755909943495
dr@@ 0.016237607356325914
eter 0.048488802094541185
ga 0.04804704034887851
ines 0.021253954217036544
iti@@ 0.030760837112063042
king 0.020432984667646464
let 0.0395936328783141
mer 0.02242391145109873
port 0.02694333919877893
sa@@ 0.03931469098027669
und@@ 0.02475717788162453
wor@@ 0.03459768637997029
ys 0.03652227734615088
~ 0.18744161613830237
ée 0.005648296669883784
ū@@ 0.08646741173728371
כ@@ 1
أحمد 0.8925489858447462
أو 0.07100868304865596
اعت@@ 1
البلاد 1
العق@@ 1
ستي 1
فضی@@ 1
لوي@@ 1
هما 0.5162624440652788
وجہد 1
يتي@@ 1
يوب 1
ّب 1
پولیٹن 1
୍ 1
్ 1
1796 0.2360325919070059
531 1
668 1
888 1
AP@@ 0.08067263968700475
Ari@@ 0.09495842502227816
Asia 0.05440599824113451
Bil@@ 0.06300826615750754
Coast 0.06852760032520358
France 0.009544118093629452
French 0.017125022705415785
Hel@@ 0.0381797463625101
LO@@ 0.1991120198193247
Life 0.03712799727473533
Mot@@ 0.04925592291383124
Por@@ 0.04396744645132969
Saf@@ 0.17022716454246112
Sir 0.04301609313396957
Street 0.02129045360481401
aff@@ 0.03951972277709429
alm@@ 0.052656085263507936
ana@@ 0.28339907723944396
aran 0.14406322019472007
aro@@ 0.11435313022563405
been 0.0039144514733545745
dynasty 0.15220119683160127
fer@@ 0.01927880108598405
hr@@ 0.057787934748798106
ini 0.022927338654337603
ire@@ 0.38659660489547865
istic 0.05842035803937058
mis@@ 0.02637293221016677
veur 0.5224757871469672
web 0.08066164988228816
xi 0.17808503165765835
zar 0.15050974572142506
ֶ@@ 1
اقتصادي 1
الشرق 1
الفض@@ 1
المرتب@@ 1
اليس 1
انیف 1
بالق@@ 1
دٍ 1
راول@@ 1
ره@@ 1
ريق 1
زيز 1
سجن 1
سيدي 1
موسى 1
وات@@ 1
ياس 1
್ 1
ﮟ 1
1660 0.39132344349834713
1720 0.44058574982879545
1775 0.27053813008895944
1816 0.17933204111077578
1822 0.19177987247850614
250@@ 0.8733374525650623
701 1
708 1
727 1
9000 0.904469862688229
A.@@ 0.07159540131609046
Au@@ 0.0567104011610513
Do 0.10010085909232153
IA 0.1562182192322634
ISBN 0.6684651511724949
Lap@@ 0.18867870029914854
Lithuania 0.33087047275490655
Mam@@ 0.14159815116631858
Mes@@ 0.06458346581397885
Rem@@ 0.06284668170789424
Sind@@ 0.38709325770410014
anj@@ 0.18652428118714198
bol@@ 0.06521443022276016
cri@@ 0.06952469763978439
ecture 0.3074252727337251
ef@@ 0.03044184876042094
electric 0.09553267167062414
ez 0.04248250718203562
fra@@ 0.3615630085265007
ho 0.1304598759229235
ization 0.10282951799956566
lier 0.06986850714787173
ona 0.030581249995478777
ori 0.06451554295068336
sac 0.28558839791876545
su 0.0026915685989743164
tro@@ 0.036556044517769774
ung@@ 0.026692557733590486
éger 0.6700054644384807
ér@@ 0.026617006627226197
ח@@ 1
פ@@ 1
اليا 1
اُر@@ 1
بالف@@ 1
بيك@@ 1
بيون 1
حاق 1
راق 1
سفي@@ 1
سنة 0.17991793397582595
ضًا 1
عنوانی 1
فرنان@@ 1
فى 1
قه 1
نقشبند@@ 1
وقال 1
يين 0.38354962598207604
ਨ@@ 1
ﺡ 1
.jpg 1
1739 0.5666129384031958
500,000 0.4291417576890538
554 1
614 1
845 1
965 1
996 1
Act 0.03337076970108993
As 0.009699123759167726
BE 0.22560634019682804
Bat@@ 0.05013104470194604
Beh@@ 0.09246928173466508
Cat@@ 0.046439210937409096
DC 0.06656522232185205
Dur@@ 0.06605052609679982
EC@@ 0.2251224354832872
Je@@ 0.049671376528088465
Lim@@ 0.06737394339884695
Maj@@ 0.08681864052266737
Mé@@ 0.06388314205653085
Pot@@ 0.07694317518396522
TR@@ 0.3070890483252293
The@@ 0.048896675656175274
White 0.03249293338763191
about 0.0069423209970002975
ais@@ 0.04272305106209163
eli@@ 0.05293727662698433
hem@@ 0.11543778624084777
ida 0.01908834695243237
ide 0.03947912840227046
ites 0.03129622239184496
money 0.04806568029960268
ota 0.050434641632994284
out@@ 0.02359989475570865
schools 0.03572565284835191
shan 0.3322806728491389
sil 0.18965392676782142
skie 0.4537514509585259
zyn 0.6851026227143417
اره 1
اللغات 1
النظ@@ 1
انتخ@@ 1
بمع@@ 1
توئی 1
سینک@@ 1
طلاب 1
عال 1
فين 1
لوز@@ 1
مجموعات 1
محی@@ 1
مساعد 1
منگول@@ 1
نسان 1
نيوز@@ 1
هنري 1
وائي 1
يمور 1
1570 0.5490370229907915
1580 0.5484566910294405
1687 0.68983099688099
1784 0.26296602064073926
1823 0.19019519027499357
751 1
79,@@ 1
Abbas 0.5380098969145939
Assembly 0.05142184092251008
Baz@@ 0.20700026175614697
Charente 0.518439022893684
Church 0.0214590842074197
Fir@@ 0.09629705959828179
Guinea 0.1383353843598162
MS 0.07589796527196405
Oxford 0.06682906426213069
Pre@@ 0.03604116556986599
RI@@ 0.12020195033681125
agn@@ 0.06983937046687949
bal@@ 0.028559559583924903
bers 0.07673563150787648
computer 0.07578423985013863
data 0.03814571763459043
date 0.028117234704676097
energy 0.055996105853328745
fort 0.03511750567918992
ich@@ 0.027866290831737493
khan 0.6421495950706342
known 0.00672185506743122
locality 0.15061847783320997
mag@@ 0.03463214862558376
ow 0.0346342034023046
oy@@ 0.051322754971741
pe 0.024590723332694464
second 0.007325734031192134
ska 0.11095623230418826
ted 0.008158163572118802
tem@@ 0.0657106701359075
tery 0.10874876940125926
ties 0.023591402078393445
work 0.008222342304684594
years 0.005536774374902098
án 0.02290047487880377
آت 1
السج@@ 1
انون 1
انکارپوریٹڈ 1
بيكر 1
خطر@@ 1
شيد 1
صدار@@ 1
غال@@ 1
غو 1
قون 1
محافظة 0.9808021363522841
نيك 1
هل 1
ويب 1
ੰ@@ 1
ﺶ 1
1515 0.8214080487067493
1556 0.7841991263725892
1605 0.636215796670157
1683 0.5613363126172558
1760 0.3393182326657963
1769 0.38578283152003207
Capital 0.1266650904647961
Day 0.040282281310615606
Henry 0.025780744657975346
May@@ 0.06183034554183026
Mer 0.33789189496211264
R. 0.052633474069165104
Rec@@ 0.03816619959921572
SS 0.05374561989074777
Zar@@ 0.20974200483800629
abi 0.1826952468474121
acy 0.03409755950957341
amb@@ 0.03758974563693697
anga 0.10436617177199434
ann 0.08110458163926139
arak 0.17678798069553758
ational 0.03901286655746654
ber 0.022609494674000728
cin@@ 0.047232275278706964
cl@@ 0.01908601452831324
ea 0.023672508890138194
enc@@ 0.02465289285449386
eville 0.17938118792408345
ier 0.026728741246222692
ier@@ 0.028895494564918158
ih@@ 0.059994423195025764
iss@@ 0.03871181337551854
lands 0.03878127805396968
lines 0.03817892071166536
min@@ 0.01753907379196577
ome@@ 0.10351964729184705
ster@@ 0.03761628596504423
tan 0.038488516222503065
theory 0.05629709446327493
ula 0.06607115115871343
we@@ 0.025473722392727004
ń 0.38297741180403844
ارع 1
الورم 1
بك 1
بيري 1
تردد 1
ذكر 0.9918062116356695
رقب@@ 1
شياء 1
عرض@@ 1
فیکل@@ 1
لأ@@ 0.681006851320786
لفاء 1
معتم@@ 1
منش@@ 1
مينيا 1
هذا 0.12192160978409386
واخت@@ 1
واط 1
ﻩ 1
007 0.9987484707705926
1550 0.47385261365418135
1757 0.4331418473994814
97,@@ 0.9433284485663326
99,@@ 0.9021083283231704
America 0.02200346813180343
Bos@@ 0.06989302712778517
Ci@@ 0.07994157188790989
DE@@ 0.08897304535049373
De 0.012409268685058239
Federal 0.054433489426966825
Florida 0.039256136495487835
For 0.015203324223133837
Local 0.11622645795725028
Pas@@ 0.03918801101843098
Pont 0.20015302518724143
Qesh@@ 1
Rad@@ 0.047281889361261
TE@@ 0.11877836489155279
aa 0.14805942602536418
alan 0.07849444446136421
arm@@ 0.03619895670300083
atr@@ 0.03683060639417932
awn 0.267556600215565
background 0.07330552986335981
bridge 0.04148926494463872
burg 0.03148739290017928
civil 0.040008864317757846
cur@@ 0.02257877109628931
ff@@ 0.022107786054972135
ington 0.0408241280417579
nin 0.048597552508305455
of@@ 0.0322073016139633
oni 0.057180514660683815
ora 0.030293396802964057
pu@@ 0.028534885390325306
site 0.015579781298241014
sive 0.03604140373073149
ten@@ 0.013811732101507341
title 0.01885952188946466
التزام 1
الخز@@ 1
القمر 1
باري 1
بروك 1
ترال 1
ترك 1
خلال 0.14559688589145348
ديات 1
رى 1
عه 0.9018065996696407
قاہ@@ 1
كم@@ 1
ماري@@ 1
مّ@@ 1
هار@@ 0.8337625615969732
وليد 1
پورٹس 1
ন@@ 1
র 1
ﺜ@@ 1
--@@ 0.591433813481191
002 1
1250 0.5748421811875511
1492 0.6719936663546968
1560 0.545268840705647
1618 0.5302829172630467
1686 0.6362169745770759
600@@ 1
843 1
Agu@@ 0.194515893709276
Ard@@ 0.186827974921394
Armenia 0.21221193349278553
CE@@ 0.08073776072000108
DF 0.1833727097766826
Dec@@ 0.04674730281353164
Fre@@ 0.02426181892418656
Government 0.03810745765165017
Gow@@ 0.39760450738137165
Language 0.18269592676366997
Mau@@ 0.11201033450171341
Neu@@ 0.04259915564049448
Op@@ 0.04565410272217485
PS@@ 0.08855102260454638
Pod@@ 0.10116321283038528
RO@@ 0.11595083106578155
Sem@@ 0.061108127839952724
Town 0.04566120036712065
ago 0.05431914510644211
agu@@ 0.05706403107711646
ahi 0.23402456671620114
animation 0.15700794057739073
col@@ 0.014142663311544363
current 0.029172811515401523
during 0.005513774633388002
ents 0.013363678345920883
has@@ 0.08819471256223634
if@@ 0.02428852597662839
ium 0.05064537443379498
iv@@ 0.03444971622833119
je 0.02929521681952703
killed 0.03523326125864166
lan 0.08348875866905976
ler@@ 0.020968518010620364
ness 0.024847758887526418
nica 0.21053189699997094
org@@ 0.08275170571429398
oz@@ 0.054857081196957536
php 1
power 0.019533435058908987
them 0.008160268940902736
thi 0.08502702892309784
tis 0.04476922779575969
university 0.04925052142982201
ush 0.08418647483256797
vi 0.09494738852353198
water 0.014941008651243646
ː 1
ֵ@@ 1
ائنات 1
البلدان 1
النظر 1
بالج@@ 1
بلغ 0.6756004411319416
تفسير 1
جانات 1
سلي@@ 1
سيم 1
طبق 1
فرط 1
فيد 1
مح 1
معا 1
وابن 1
ورجی@@ 1
وكس 1
ويت@@ 1
يج@@ 1
يع 1
க@@ 1
ﭧ 1
1721 0.5246237596203529
1758 0.3692151307336419
1st 0.03961692288316243
31,@@ 0.9937422127717425
615 1
801 1
AF 0.11251540607613898
An 0.017860969883748874
Arch@@ 0.07843733763658485
Cam@@ 0.040416117229214246
Centre 0.0377430574614245
Cos@@ 0.06942921161081334
D. 0.04110031668665837
Elec@@ 0.10883302525179724
FI@@ 0.08214381025663935
Fi@@ 0.05609592114815586
First 0.024437728532364734
Ga@@ 0.0739530671976596
Greater 0.16711095630472844
IP 0.1120404480884641
Ireland 0.03455217598092889
Juan 0.027987536547153677
Key@@ 0.15893729601279716
Kuh@@ 0.34481899745139877
Maritime 0.23133480981008916
My 0.045129810041904965
Nations 0.059331833907912745
Port 0.059013390564494256
Pu@@ 0.08165289861352909
Raj@@ 0.06464033297866967
Red 0.029514494704949053
Rev@@ 0.06219179319364127
Roche 0.3583862096031347
SH@@ 0.20889004291950605
Sen@@ 0.046691934453489486
UR@@ 0.24301461568259988
against 0.007482234336053134
ato 0.024103788703063473
aum 0.11051283671294158
capital 0.025812823474025408
ean 0.08552511126914472
ese 0.014710419379651526
ever 0.02446251329371005
fe@@ 0.016834375700239265
go 0.020497344552160904
independent 0.042362416726138066
kin@@ 0.07532281532962445
law 0.017721093714322508
link 0.11825468822484153
micro@@ 0.058086058834223034
qui@@ 0.04481284555196583
sch@@ 0.007691716956046626
school 0.009089416015743762
ther@@ 0.03535922033596378
tim@@ 0.033679869989642834
total 0.012416133529589791
ui 0.09558570101151899
vol@@ 0.02424501011971767
الدعوة 1
السي@@ 0.6750983009103978
بلاء 1
ذيب 1
رواد 1
رياضي 1
سجل 1
علام 1
نفیہ 1
هان 1
يانا 1
ত@@ 1
ਸ 1
ା@@ 1
市 0.035430408074061316
12,000 0.5671166393719933
1350 0.6190223238849397
1606 0.6496390647007121
1650 0.37231434527625834
1735 0.47402027020845106
1785 0.2581820888138859
1794 0.18173888953190015
767 1
96,@@ 0.9879389996628208
Bro@@ 0.03875684783191735
DE 0.13736616510950458
Gi@@ 0.03344342384530327
Group 0.02265999309323886
Institute 0.025399060299608867
Kho@@ 0.3091416458999003
Latvia 0.43821581034294427
Self 0.3227128359912915
Sw@@ 0.044283781726347414
Zone 0.11330785747925601
ade 0.01827482388249014
body 0.023600762950127058
des@@ 0.00981852781494575
divisions 0.08700849349683602
ella 0.018968492597846043
ely 0.015839969354832985
engineering 0.09071222669776373
ern@@ 0.026598285993601218
han@@ 0.10942640057153115
ichi 0.14873632068869258
into 0.004147098107662758
mat@@ 0.026263432419328988
ney 0.04032102941323836
rec@@ 0.014824140646739613
science 0.04125259069505775
tar 0.08424809814260982
tur@@ 0.017948145678531015
ty@@ 0.03245295809301916
ug@@ 0.03228195749203543
½ 0.27578031152559573
الذي 0.10033926369428406
برات 1
تعمی@@ 1
دستاوی@@ 1
روك 1
متاث@@ 1
موند 1
هور 1
وائز 1
واع 1
وله 0.9660499903052846
ومنین 1
ياء 1
ّع 1
ݙ@@ 1
ে@@ 1
ਪ@@ 1
﷤ 1
ﻪ 1
1571 0.6406644566868979
1598 0.550235402102499
1603 0.4851517160290661
1746 0.4736652233814604
1747 0.4551329869242893
1773 0.3171917163008662
40,000 0.45210207947861447
Cap@@ 0.04859468258386036
Center 0.023677844757141842
Fr@@ 0.01969166233814749
Hes@@ 0.34567110386667943
How@@ 0.1603935699872489
Jal@@ 0.2800857845226757
Long@@ 0.08497322406484135
Main 0.05726187360148377
Muslim 0.08965502041575432
One 0.01528446715459493
Royal 0.018268201118804846
Singh 0.11900956140806687
Switzerland 0.10168411478206191
Ul@@ 0.04998799019885459
ans@@ 0.029325055750459274
ban@@ 0.037216624211250646
canton 0.08238898858092712
els 0.010343698994727582
gu 0.4202044626960808
hai 0.03495221590680074
ick 0.02131978766310585
igny 0.1679886032786025
ingen 0.026235659006160608
mi 0.040845747655278014
ocy@@ 0.17906323173261546
old 0.013356460110014767
pak@@ 0.24411060525940828
phot@@ 0.07849083694441175
tum@@ 0.11701986609969411
value 0.05569047427481924
¿ 0.293110110509893
ская 0.013241324225742335
і@@ 0.22573478103952477
افترا@@ 1
انه 1
بعيد 1
بق 1
بلس 1
تيس 1
جاني 1
جري 1
جعل@@ 1
حة 0.27706880339144346
رقاء 1
زرو 1
سلي 1
سيو 1
ضمان@@ 1
قازق@@ 1
كه 1
مخص@@ 1
مطار 1
وتص@@ 1
يق 1
ٶ@@ 1
′ 0.2697534554471149
ﺹ 1
0000@@ 1
1620 0.41054189058933893
1659 0.5764948660854846
1690 0.44187185534831896
1696 0.6153557548317329
1737 0.48858559551071007
901 1
928 1
98,@@ 0.8837437106966379
985 1
All 0.01426588792947797
Asi@@ 0.11713384050819824
Bus@@ 0.054415076347910526
Dag@@ 0.1655290059009916
Fl@@ 0.021360588770891746
Ful@@ 0.0973455265028824
GDP 0.3672988888528936
God 0.05249868192542351
Jab@@ 0.27614983910508356
LE@@ 0.1206807439232514
Press 0.06636699896555982
Rab@@ 0.07760083294281164
Sultan@@ 0.41904503275579974
Tah@@ 0.19109586225797645
Vo@@ 0.04939323782771286
War@@ 0.03108437327404625
XVI 0.0954804060893211
af 0.10077098153115296
air 0.020367519845821098
amm@@ 0.04511847760844171
anc@@ 0.028569484469254742
article 0.03866715972408619
ax@@ 0.043589528398959826
bor@@ 0.02840689580645736
cad@@ 0.060855265355789986
century 0.011133275694695003
cor@@ 0.014300837056282833
cy@@ 0.07792108655974471
day 0.009666106002627335
down 0.014343009478478629
enty@@ 0.421222493347942
eu@@ 0.05912336608354991
ew@@ 0.044636830472948814
hat@@ 0.0945295435429643
ick@@ 0.023187760474980532
ies 0.013723186857936958
ight 0.039452280992177444
lig@@ 0.029444712816981487
munici@@ 0.991230921616943
red 0.016321886065576576
sey 0.048597091693244616
sk@@ 0.01894768373254938
territories 0.16588128175868383
uan 0.1903628918273979
uni@@ 0.043477154528039935
wan 0.09552090965525266
í@@ 0.01553210124374413
Ż@@ 0.3840022016571938
י 1
؂ 1
أخ@@ 0.653030596964288
أم@@ 0.515885859799535
ازي@@ 1
الشرق@@ 1
المرو@@ 1
الوث@@ 1
بالح@@ 1
بيد 1
تجار@@ 1
ديس 1
شاف 1
شديد 1
فريد 1
فقد 0.4010630554612785
فيق 1
ليم 1
ماك@@ 1
ٲ@@ 1
پوت 1
ې@@ 1
ۚ 1
ਵ@@ 1
1320 0.9579684534813367
1517 0.7503844490838859
1532 0.7814922992495734
1709 0.5065622300859279
1777 0.26144788198953245
1778 0.25542945493520924
666 1
AN 0.11623340584023294
Africa 0.029647459203918463
Association 0.01769029263018548
B. 0.0229322473364059
B.@@ 0.09894438767990149
Châte@@ 0.39948597148299836
Div@@ 0.06805518912772052
E. 0.041899035526288424
Gav@@ 0.19522237099141254
Gold 0.054940414887500094
Gon@@ 0.18446582542766823
IR@@ 0.18280458409217396
Ke@@ 0.03635775591401897
Ker@@ 0.05364312289737202
Lot 0.36284337268943534
NE@@ 0.10657922628196687
Naj@@ 0.4639996211139709
Shi@@ 0.0709621078286051
Sim@@ 0.035379848627432646
Vel@@ 0.0717999292984714
Verde 0.28241635097883994
Xi@@ 0.12748340732075578
ail 0.03572926558657034
ches 0.017437294091857323
ds 0.023686583457711487
esis 0.07211289587136639
eux 0.023017936794306533
gold 0.04038765830470883
har 0.18547251515386157
hid 0.3378424348001295
history 0.014746344171462557
new 0.005157057845679576
ols 0.03848772830978172
onal 0.042273978295896866
osta 0.7608477860354201
point 0.013697019366680819
some 0.006657477212174976
una 0.001895934092287149
under 0.005890182654566061
ung 0.004993178472656849
ves 0.017419062097296673
yc@@ 0.049028482403789354
à 0.0006883809614651362
ē@@ 0.30472894291988617
اطر 1
المَ@@ 1
النحو 1
ايت 1
بيريا 1
بيك 1
جه 1
دیوب@@ 1
ضع@@ 1
عيد 1
فض 1
كثير 1
ليون@@ 1
منتق@@ 1
موث@@ 1
ميز@@ 1
ناق@@ 1
واري 1
واض@@ 1
والمع@@ 1
وتم@@ 1
وسر@@ 1
ﻪ@@ 1
.1 0.43881376563970853
1565 0.6040070034420687
1610 0.43869790503471917
1622 0.5089824890937147
1689 0.4188849261067663
1759 0.3652647088210688
60,000 0.6241351681395478
AT 0.09480334568180167
Anti@@ 0.061323288455209894
Bridge 0.059724243268138064
C.@@ 0.09053710656900356
Carroll 0.26559701441575834
Chad 0.3263308789955522
Congo 0.1225244807353146
Fort 0.04164939036962935
II@@ 0.13914055339490938
IP@@ 0.13979445496076243
Kat@@ 0.03675176908338434
LA 0.08188195728251638
Las@@ 0.11228335320397431
Lub@@ 0.19058694422509215
M.@@ 0.08949491272915108
Mey@@ 0.20214047861031795
Mount 0.05275318679342544
North@@ 0.06651811461347361
PI@@ 0.2726385105082155
Pain 0.5094506727236301
Plan@@ 0.04744092239971152
SI 0.18537437216347064
Sard@@ 0.3844624771347506
Som@@ 0.09094772495605763
Sul@@ 0.07817315843502894
Vol@@ 0.03253704969557736
You 0.027253884791966543
ains 0.018944825546774985
amp@@ 0.026047740306148422
asi@@ 0.03213493820238572
ave@@ 0.0902266679462591
colspan 0.08186121001893647
das 0.0017761924885674385
del@@ 0.024456306094501737
edi@@ 0.039242327860506424
ein 0.0020703545038541103
ert 0.014705540274216377
fo@@ 0.027929148776721802
gues 0.1349275969638106
hab@@ 0.04318516746910021
ide@@ 0.03846824628086429
ler 0.007510086853220942
military 0.019934149371730447
now 0.010216113227449138
oll@@ 0.04326790444585159
orr@@ 0.10887776958623974
ping 0.09135993196195398
programming 0.09769395864262534
ray 0.10489690342791604
sky 0.040171586270988456
tar@@ 0.025064832128907314
tel@@ 0.02082752932905076
tors 0.025942637407334115
view 0.033372620909123574
year 0.004896596711907963
ž@@ 0.07634386537496947
ׁ@@ 1
ק@@ 1
إن@@ 0.5564690138405088
اخرا@@ 1
ارة 0.3971304284590595
اعتد@@ 1
التون@@ 1
الفت@@ 1
الفور 1
خي 1
رجان 1
شاه@@ 1
شهر 0.9401631928122605
فيل@@ 1
يري@@ 1
پانچ@@ 1
ੇ 1
ﮉ@@ 1
ﹰ 1
ﺰ 1
ﻇ@@ 1
ﻉ 1
� 1
1290 0.915097289242669
1530 0.46261389620200205
1722 0.4447479527989666
976 1
AU 0.23102956217978396
CG 0.2806247143413784
Cant@@ 0.09479682267902548
Germany 0.022963445781908304
Gironde 0.6669262119159298
Gl@@ 0.03746522064196499
I.@@ 0.14319362329213625
Just 0.10648401702859382
Kuch@@ 0.5862607504478642
Log@@ 0.09258382351964413
Man 0.028294744855639424
Mc@@ 0.012262453143318626
Men@@ 0.03925398596386665
Of 0.05009397638488507
Paris 0.010502682796499106
Pir@@ 0.07757062328317198
Rivière 0.3468016301962835
Ros@@ 0.02399341278000213
Theory 0.2772839439325525
Turkish 0.0847058465401506
VIII 0.10072687453194845
bert 0.043655727266273085
between 0.005016348392270005
ec 0.11568996559438967
ff 0.038053356510722204
her 0.0024486760019266376
ides 0.020734459639327955
illa 0.025842001417967754
ima 0.035521072247916945
kr@@ 0.035714381776110624
log@@ 0.03606487828535816
mes@@ 0.05788416178892975
mor@@ 0.022491468420279936
mus@@ 0.030445885779100616
ust 0.04544896849832538
war@@ 0.014397372735288958
± 0.30829215410461885
ç@@ 0.0348067523370525
él@@ 0.04931224616889093
ôme 0.14995083745179075
الباب 1
الحرب 0.3407405548798846
الداخل 1
العام@@ 1
القصص 1
انع 1
بالر@@ 1
تداء 1
ثي 1
علان 1
غي 1
فاد@@ 1
قة 0.24431836789723774
لمن 1
مخطط 1
مما 0.3953676103406446
مینان 1
وء 1
وبل@@ 1
َّى 1
ٸ 1
کاغذ@@ 1
کورہ 1
है 0.010465308077656572
ੁ@@ 1
県 1
ﮓ 1
1541 0.6409611454930956
1697 0.49070002214744346
1753 0.3149796578740292
1756 0.33496524261060545
2400 0.7976210935473746
907 1
Abu 0.12682447824496404
Akh@@ 0.3040501725663008
All@@ 0.05039348548888786
BR 0.2538954879384798
C. 0.023246454014359645
CD@@ 0.07788151609659635
Christophe 0.2604473221452579
Computer 0.128746729764889
Cruz 0.07240885701018038
Cup 0.012631267088637646
Greece 0.09437260819855244
H. 0.04046982831292934
Highway 0.04797977449894727
I. 0.029591995141124358
Joseph 0.01980535179300326
Mans@@ 0.172970133225612
Middle 0.05341959697964618
Nam@@ 0.07693434785168952
Oblast 0.12132236174677799
Oc@@ 0.0681402320081379
Rus@@ 0.044464020958583775
Sah@@ 0.12309666261321552
Screen 0.34921011578654715
Sho@@ 0.052752036040853316
Sin@@ 0.050743123548086785
Southern 0.03804482276875123
Standard 0.09708016790036644
Teh@@ 0.2895617746299238
Victoria 0.03970249471121298
Wal@@ 0.027862980078167083
Wood 0.0972570607706033
after 0.003261289430264687
aga 0.04796858001290115
age@@ 0.09678142844390704
ait 0.009573183572303958
ally 0.007545439470508935
ami@@ 0.06249275558718581
aur@@ 0.047668700439611286
avan 0.3397523640813388
da@@ 0.08126313324710258
development 0.016829836873886228
iri 0.08677031294811884
isi@@ 0.02652055553957008
ize 0.06442454172060041
kh 0.3727909741474735
low 0.016443566962475592
m.@@ 0.9225600798642104
mass 0.062370229721330016
mir@@ 0.052690947409544796
ms 0.027945247686986276
mud@@ 0.3281922667933637
na@@ 0.11328314440461933
news 0.048693581994157464
organization 0.03243076312201578
ote 0.031252270996551375
owice 0.34026259657612806
ro 0.03292746642945329
see 0.018011671316512472
small 0.012760580670880208
special 0.028948174264139977
subs@@ 0.11622423919983571
tin 0.023099753443163253
uf 0.2247204275177295
uil 0.2308414355446814
wan@@ 0.06329041416689513
yp@@ 0.04502629284738109
ó 0.004632792164077621
û@@ 0.11578424380082501
ר 1
الحص@@ 1
السلطان 1
المثال 0.8923073461731159
الند@@ 1
انى 1
تفصی@@ 1
تقلی@@ 1
جسر 1
حيث@@ 1
ختلف 1
ساعد 1
سبور@@ 1
ستن 1
سلات 1
شين 1
عبر 0.4645225105056865
عیسی@@ 1
قبض@@ 1
كوس 1
كولوم@@ 1
ليبيا 1
مريم 1
ملح@@ 1
نائي 1
واحد@@ 1
وتف@@ 1
ਗ@@ 1
් 1
 1
-1 0.9954764923751837
1409 1
1666 0.4864123052146952
1729 0.47357450611704716
1768 0.2813027895369124
300,000 0.4789955172142059
Blue 0.04152204715679211
Cher@@ 0.08041904169069812
Din 0.3051426801950791
Fal@@ 0.05444766149284158
Fron@@ 0.11940190347250237
GC 0.20593130220583383
Hat@@ 0.09329137712930614
Lal@@ 0.36873137494857866
Land 0.027672388444863652
Liv@@ 0.10087542068829754
Mari@@ 0.04010491821003431
Marne 0.18567969730826178
Mirza 0.551848493940049
Mont 0.1370999692914437
No 0.024128666687049577
PE@@ 0.10836343847788411
Pap@@ 0.04138663504421584
Pur@@ 0.05730288832866439
Pyrénées 0.225176658476805
Robert 0.013987878838415046
SP@@ 0.06093040783763865
SR 0.058530243688000555
Ste@@ 0.022593854974261064
Tam@@ 0.058715746952479275
acc@@ 0.023188707437520058
atom@@ 0.10783404215243796
aw 0.10760812761245717
back 0.00888991816338253
bat@@ 0.02932109899137398
bur@@ 0.020387427476981555
cell@@ 0.09966299356735658
death 0.012860946677103864
direct 0.03923281967437473
e.@@ 0.2438354123447842
eo 0.02847865778973616
font 0.06317989350749469
ft 0.024402372682788085
him 0.004992319985853062
hy@@ 0.03774918259028637
ju 0.1663048209625679
neur@@ 0.05787635480910527
ois 0.05176314202705531
organ@@ 0.05402883750343296
ous@@ 0.08992716855288983
pos@@ 0.015885216609193384
tel 0.03816929894269059
æ@@ 0.0971804000330753
ô@@ 0.06917699689461485
ț 0.8925838060030163
ؐ@@ 1
إلا 0.35719826546549627
اضر 1
الداخ@@ 1
العد@@ 1
الكبير 1
المار@@ 1
انض@@ 1
تقي 1
جنوب@@ 1
حفاظ@@ 1
خصوصی@@ 1
روسي 1
ريني 1
ریلوی 1
ساي@@ 1
غنی@@ 1
فقال 1
قام 0.4373765112590752
قلال 1
مخرج 1
مكت@@ 1
نژ@@ 1
واني 1
وسيا 1
ڈیجی@@ 1
یووا 1
ਰ 1
ு@@ 1
ﻼ 1
1323 1
1521 0.5178985670009473
1525 0.46965829271493537
1535 0.5645177332563449
1595 0.5263286945040241
1658 0.5024671930756708
1672 0.4341196068275308
1710 0.36042463675659053
1714 0.4044609113262696
Category 0.13411574550205915
Cher 0.359346694667324
Cur@@ 0.0336730885277525
Del@@ 0.029733851732811796
Desert 0.22469382119326223
Dá@@ 0.32203627886246583
EB 0.4207990267000175
ET 0.18782493949428608
FA 0.04749109389099596
High 0.01546379634735254
J. 0.02387298605764996
Jah@@ 0.24326838634022044
KO@@ 0.28295378783695513
MP@@ 0.06819931464032031
Mul@@ 0.04506786614392053
No. 0.03289933053885608
Nu@@ 0.06802468648561354
Nur@@ 0.10816573721142628
On 0.003564129259524759
Pen@@ 0.03893827918190246
Prot@@ 0.03970028702588636
Rock 0.03362169263707093
S. 0.03355159832293477
Sat@@ 0.0617891266641227
aba 0.011076280268061326
ail@@ 0.03176869869718723
ake 0.022475017948465178
akh 0.3125640636127273
align 0.059393879092984804
amu 0.36353505737979513
app@@ 0.03795605106038461
cul@@ 0.027830274774998595
cultural 0.03553492570623876
device 0.10724852054906622
enti@@ 0.016143040573406243
etic 0.11521648843730348
ger@@ 0.014905846001874033
gl@@ 0.02620042458200992
ich 0.02091277847113375
ists 0.018925611024304193
pel@@ 0.027944649797529773
sh 0.1266489847865671
ten 0.0034235551062452856
the@@ 0.025905840880982734
tor 0.017114738755011915
ua 0.03917270113105217
ão 0.07901931980069458
èze 0.42934247548996385
ؕ 1
آي@@ 1
اختيار 1
اعي 1
السر@@ 1
بخ 1
بلت@@ 1
تعرض 1
حاء 1
حکمر@@ 1
رفي@@ 1
ريف 1
سرح@@ 1
طرق 1
طف 1
غري@@ 0.7971514734538103
فرز 1
لوك@@ 1
ماريا 1
مسار 1
معين 1
نتوں 1
نسي@@ 1
هب 1
ورش 1
وفي@@ 0.7634787453167261
وقتل 1
وقع 1
ٹاون@@ 1
ம@@ 1
ர@@ 1
⇽ 1
ﭜ@@ 1
1258 1
1562 0.5707292097267374
1642 0.39720589178138466
1708 0.4200929794333356
1713 0.3962745229788221
1744 0.3924428686015477
1749 0.40155344974463664
1764 0.29271364079883183
2030 0.45795751922589206
AA 0.0736152650335194
Aj@@ 0.1588015914737678
Ann@@ 0.04700646437629522
Archi@@ 0.14398762120331937
Aur@@ 0.08477235825715249
Award 0.01696929077402999
BL 0.17531557429542807
Bagh@@ 0.3130224605360435
Champ@@ 0.18801556993843002
Dakota 0.1020499080904183
Dav@@ 0.06404668005674667
Dev@@ 0.03861947147409177
Fe@@ 0.02785673637855585
Free 0.06782424465807915
German 0.012747326613241901
Jan 0.06321875093698447
Lincoln 0.06477466158535533
Nan@@ 0.1135911864261763
Old 0.034954926558596444
Pat@@ 0.03675684381868119
Public 0.03551487973574733
Rom@@ 0.03178724917223705
Tre@@ 0.032623263361520924
West@@ 0.024544147009666298
Wil@@ 0.023761254676714562
Zey@@ 0.8281052064659055
Zi@@ 0.07417245888345797
asa 0.06152251480189333
atory 0.04719972948297297
center 0.021828788013835428
chen@@ 0.05261561008561162
cu@@ 0.013020561582630534
esia 0.09357006322027735
illon 0.07957608425545393
index@@ 0.4101811051324576
institution 0.08524551999680864
int@@ 0.02355742311231118
lar@@ 0.027431486262530353
mac@@ 0.06336602341428879
mail 0.1095731656317127
nam@@ 0.037486615669034086
ning 0.0285506069698878
ny@@ 0.05635964986821304
ony 0.04893102396596858
otic 0.08689381081670648
pap@@ 0.05898926377183859
penetr@@ 0.19428003911000238
rights 0.027907185360535717
san 0.09720505129691251
sub 0.07384887723442521
there 0.005600308623121642
uni 0.10971777049057106
when 0.004070888624740041
za@@ 0.19071467422614108
ém@@ 0.043002167883129036
Š@@ 0.07251031633979531
ג@@ 1
ז@@ 1
ל 1
الأح@@ 0.8097621330055814
الاخت@@ 1
الاعتق@@ 1
الحج@@ 1
الحمراء 1
الرق@@ 1
القائم 1
بھار 1
تبدی@@ 1
تزل 1
تيل 1
رجل 1
ريات 1
رّ@@ 1
زوج 1
سهل 1
عقدہ 1
فاظ 1
لع 1
موط@@ 1
وبات 1
وة 0.882853619533618
وتح@@ 0.6221533925946926
وتش@@ 1
ودي@@ 1
يخ@@ 0.958716796735242
ٰذا 1
܂ 1
த@@ 1
1522 0.6546794164568059
1542 0.5577625790825017
1627 0.46291286633931394
1656 0.4580158810221501
1684 0.4874197538187487
1695 0.4880117712042352
1703 0.4432027129675597
2,500 0.45803676637924184
Amir 0.5203722885922797
CS@@ 0.06615000715647736
Cour@@ 0.045920729477769484
Des@@ 0.024516303416008547
Education 0.02774531200576955
FL 0.08454960132906386
FO@@ 0.1329549475406588
Fair@@ 0.06853581615082201
Gul@@ 0.09579562720966633
H.@@ 0.12161151478500155
Jav@@ 0.23840001629792504
Kel@@ 0.06136669611383381
Lach@@ 0.2020100210501322
Lav@@ 0.09078683568204167
Municipal 0.08981916148808287
Nicolas 0.07847335421865886
Norway 0.07584317761642372
Os@@ 0.03264842908724054
PC@@ 0.08888920016899352
Sain@@ 0.25847219100140945
Social 0.04656511068682039
Tir@@ 0.08798215162477027
XV 0.08300139884395652
Zh@@ 0.09798796494680298
akan 0.4610642746119881
ales 0.006219110323858072
asti@@ 0.09307499269555297
bit 0.044610998639637835
bs 0.029201371835435495
bury 0.053867894496148296
code 0.04173884942759518
college 0.026581489836052696
control 0.0164129841285895
cs 0.06200728603517913
eli 0.06466838532062534
enton 0.12899544474305272
ery 0.03521778529649872
force 0.02044669635878146
gas 0.03812004526209103
ial 0.04163625403812134
ignan 0.2819261356394166
ities 0.039278563360315225
las 0.001741610330064174
light 0.019346881860076378
ling 0.014187594950101022
mail@@ 0.8492345524769
nay 0.07772225324164357
ode 0.06213924173175692
played 0.0064818238400964154
sal@@ 0.02031309916904641
sin 0.01679125376194896
stan 0.18432079944760668
tal 0.0364844262109604
ven@@ 0.02058649165492679
èvre 0.23352272020032486
ա@@ 0.60921556809175
اقتصاد 1
اكر 1
البع@@ 1
التعداد 1
النق@@ 1
باشا 1
بشير 1
بیچل@@ 1
تمان 1
ضع 0.7730295741647509
كلي 1
نة 0.28649343392078874
نًا 1
وافق 1
وفق 1
ومد@@ 1
ياب@@ 1
يتي 1
يث@@ 1
ਂ 1
☆ 1
1296 1
1380 0.7475663730107384
1568 0.5008916756170997
1574 0.5885077837474872
1576 0.587376785664494
1604 0.4604062918655317
1723 0.38576937080816825
1797 0.15674740140553065
250,000 0.48704799851100494
2600 0.6474092048784993
400,000 0.6350916141623045
Black 0.02115396946451017
Book 0.05177943764016121
CO 0.10030059027288706
Camp@@ 0.05401989957636199
Canada 0.013383413007500814
Château 0.13531282316131005
Commission 0.030692404288281485
Côte 0.1583154336187557
David 0.012621480984820648
Finland 0.11248445477348204
Franklin 0.0806106607496929
G. 0.04747472663423905
Hur@@ 0.059684690470985735
ISO 0.15846677454429736
Isère 0.46184118893608583
Kav@@ 0.20037719438843452
Ki@@ 0.04257683907719009
L. 0.04331429381667703
Law 0.03462411003525808
MA 0.05122833288689117
Mach@@ 0.07061158658652436
Neg@@ 0.09170138163329886
Peace 0.09993165348366206
Pos@@ 0.07144618281637707
Romain 0.462715184657212
SC 0.039297539217937445
Sang@@ 0.14371755628847355
Sir@@ 0.08822546937134769
Society 0.01922526395905759
Super@@ 0.029460932342405665
TO@@ 0.13032207198192478
V. 0.04943421359990038
W. 0.037379604351213985
Wyoming 0.20703225710927986
action 0.015488567538877347
alia 0.07666460923150085
aman 0.13652355362441534
ani@@ 0.0410613831735148
areas 0.018909502801697318
aug@@ 0.08611260077391981
bon 0.05616439084926117
cal@@ 0.022608648388102268
dish 0.10477814169201545
ech@@ 0.02369337233151762
fan 0.08728301406553526
fr@@ 0.01335455798420117
lin 0.03132779042043937
min 0.06288480513665934
nom@@ 0.042380720867076116
ond@@ 0.030973014890805676
our@@ 0.03601339899218082
partic@@ 0.10075107760081886
right 0.015971564066632738
ruled 0.0811389745899625
stone 0.025961878674724305
sz@@ 0.09089178809627331
tab@@ 0.044735808449587376
tial 0.2988575095673009
tu 0.057786087361446185
ual 0.03359534376451096
uss@@ 0.04574603531417267
vel@@ 0.047257950202937264
wh@@ 0.024987189769732764
zor@@ 0.2137794723081856
ław@@ 0.46715756869026986
ń@@ 0.23710086928726037
ɛ@@ 1
افا 1
الاج@@ 1
الجمع@@ 1
الطب 1
امرت@@ 1
انفص@@ 1
اوف 1
ايات 1
بما 0.3897354396532971
بيروت 1
تماث@@ 1
جماعة 1
جير@@ 1
حتى 0.14403291202432097
درك 1
ستس 1
سوء 1
ضرو@@ 1
عيسى 1
غير@@ 1
فورد 1
فوس 1
قرأ 1
قوب 1
لائنا 1
مقار@@ 1
موسيقي 1
ميد@@ 1
نبات 1
وقامت 1
وكي@@ 1
يح 1
ينت@@ 1
ੋ@@ 1
ா@@ 1
ﭺ 1
ﻻ 1
1340 0.715279271610208
1528 0.5858570109894851
1572 0.44927413387008197
1701 0.35842092013190985
1715 0.2943146453933197
1716 0.41200482441452163
1730 0.28369780369979447
1736 0.3827558293581452
1754 0.3179868819589055
1787 0.18270981758927493
1920@@ 1
AG@@ 0.10782599575659127
AP 0.06986429159448936
African 0.02260823029398593
Alpes 0.10178273931484594
Arab@@ 0.07256535427947816
Charles 0.012001986983449101
Cir@@ 0.08715232696976992
Corporation 0.038803745899876875
Din@@ 0.07122277845597041
Dou@@ 0.06416860260760231
ER 0.1506232459005066
Hab@@ 0.05624856175708691
Hed@@ 0.12425183685876462
Indonesia 0.07498345609454181
Internet 0.04636672804103689
Iran 0.04011125951350185
Moldova 0.42488169975899476
PL@@ 0.14023719630255105
Pak@@ 0.1259156523916931
Ran@@ 0.03846728499562297
SI@@ 0.11699277627586037
Science 0.029725009697417686
Soci@@ 0.07934823752169808
Sum@@ 0.05349836644348988
Sun@@ 0.04702268806703599
TH@@ 0.18205267604412018
Trade 0.0990556213255424
Virginia 0.025237228142368572
Wayne 0.09572457202424486
aan 0.19118950896072584
aka 0.04031193390480514
ame 0.02519393144928082
amo@@ 0.07761382152471459
ark@@ 0.033383295958682384
art 0.009511481383993737
ask@@ 0.07564868815834114
att@@ 0.016321311576620378
ax 0.05579868672125039
bei 0.003023483418473415
bin@@ 0.03918466979684008
ble 0.02893127638788218
dan@@ 0.053727926497336244
ection 0.024625676203137464
eed 0.3380368523143834
effect 0.04020871278844202
engine 0.036420289834863104
house 0.010973587293874636
iki 0.035594871886042725
inal 0.04082207802078068
lab@@ 0.03858973961257363
lymph@@ 0.36351422681267503
mathematics 0.13926847209094537
may 0.006607963539483732
mutation 0.2809588257898496
nan 0.12370267174726957
onia 0.04234372827210038
ord@@ 0.019001786004968473
oth 0.044349721672292855
pas 0.006389741195711606
plat@@ 0.052812805891179655
por@@ 0.016233606898549642
sea 0.022353159812320937
sin@@ 0.020643589451595997
tional 0.026213928392969474
ulation 0.04120797577384382
ver 0.018549023005795466
vet@@ 0.061255321365824525
vor@@ 0.009958616426251992
ws 0.03407067363697694
ór@@ 0.08718107087759572
أم 1
اريا 1
الحجر 1
الغرب 1
النصر 1
تنام 1
شیخو@@ 1
عور@@ 1
فيل 1
كاز@@ 1
كاست@@ 1
كز 1
لفات 1
مصنو@@ 1
مناق@@ 1
میوز@@ 1
ومج@@ 1
يحيى 1
ڄ@@ 1
ۤ 1
শ@@ 1
ﻢ@@ 1
1390 0.7985275333078649
1405 1
1545 0.5557268140860718
1593 0.5386748181021789
1616 0.4495500486348359
1645 0.3945977992367535
1702 0.3924219545684138
1743 0.35595937058616145
1748 0.32194522743866527
1752 0.33098669150346743
1766 0.27988927547738385
1786 0.20042764300053992
ACC 0.31353327914141665
Allah 0.41157257889162874
And 0.0550938205345473
Army 0.014580576022859497
Assam 0.3570032799886137
Authority 0.09805142228268392
Battle 0.029714441717348116
Belgium 0.0898192303299379
Bis@@ 0.09518838612367969
Bot@@ 0.043757313195692836
Earth 0.04283510429383949
Ed@@ 0.04243022115014686
Gaz@@ 0.10598247323334582
Haz@@ 0.10157482736520451
IN 0.18462861706056521
Kab@@ 0.0796314403341733
Kashmir 0.3074791452326406
Kaz@@ 0.08876954962392702
Khali@@ 0.3343357907236529
Lah@@ 0.20471168741215479
Mali 0.21893463961628384
Money 0.18863393550758314
Nak@@ 0.08772997525915703
Nic@@ 0.07314784946952027
Non 0.11216405607032785
P. 0.03656221719367582
PK 0.397496885108697
Peter 0.014733524648778898
Puy 0.39280516286268935
Regi@@ 0.3641557112849297
Richard 0.017140469840123247
Station 0.029285442968716123
Tan@@ 0.04807896980119797
USA 0.022947491135017296
VI@@ 0.08433058665644186
Vas@@ 0.07155860128011604
WA 0.15944952865079232
alp@@ 0.07872481280552181
ande 0.05719176346785761
ands 0.027030057616966786
ange 0.04250663898161726
ants 0.007896529680592037
any@@ 0.04340931271773264
ass 0.032451314648065645
ava 0.05250316378987318
con 0.0014311525434462483
cricket 0.07378842258781103
czy@@ 0.2487829407579037
dium 0.07772481350313296
eal 0.14558435224637561
educational 0.06924436794330456
enberg 0.040682188953696644
ennes 0.03474427390953512
even 0.014045964937093387
fa@@ 0.02629224084535659
fourth 0.024141355630283804
ful 0.02081362597615527
hal 0.23609207137328508
hu 0.1685505556732542
ill 0.0220910697251789
ingham 0.10163396683406484
kam@@ 0.1031305666199035
men@@ 0.01657189326645803
mic 0.09184600570732866
ner@@ 0.02655028827015053
nia 0.07564915207856975
ombe 0.2370417627697905
osa 0.022560762388174345
page 0.05486186306033031
path@@ 0.05402917611311245
political 0.014501159876026525
press 0.038599578617372475
rel 0.0968677297522215
res 0.02710473350336745
rom@@ 0.025625178306355575
rule 0.04478027909035649
sar 0.10442144470547317
self 0.02645864077040199
standard 0.030466427374798048
technology 0.04184698193412001
these 0.00734474929416732
three 0.004168862606119246
tom@@ 0.022481872086180316
tron 0.19258008786047173
tw@@ 0.024925547251040406
ë 0.13928099361542978
استق@@ 1
الجل@@ 1
الدم 0.8106317358192344
العمال 1
العمر 1
القلب 1
بروكلين 1
جبال 1
حاً 1
دث@@ 1
ريح 1
سبا@@ 1
سه 1
سيس 1
محفو@@ 1
والن@@ 1
وروب@@ 1
وغير@@ 1
وهو 0.12994381865930116
يغ@@ 1
ښ@@ 1
ڪ 1
হ@@ 1
ମ@@ 1
ର@@ 1
ང 1
ﻕ 1
ﻦ@@ 1
0.0@@ 0.5226754621871263
1150 0.5547095773551192
1336 1
1360 0.7189923657846112
1389 1
1420 0.6057427089241518
1516 0.5846987555987014
1611 0.4419455434848367
1629 0.3930466444637295
1694 0.4603495657587276
1712 0.3923774098366138
1751 0.3298614318544975
1755 0.2696167448343325
2200 0.6313152972961252
Anj@@ 0.8096760875952828
Bres@@ 0.199724539929946
Butler 0.1221712328354581
CP 0.11956105590405268
Cel@@ 0.05339443427919059
Chak@@ 0.31252928234195637
Cyprus 0.20665926032577522
Global 0.06862500055211845
Gran@@ 0.054103184354954606
Hay@@ 0.04621415092227527
He 0.0013202371137698247
Hom@@ 0.0367000611394092
IB@@ 0.14540843535315234
Maine 0.07643585759865659
Met@@ 0.0447934598228061
Montana 0.12045360154809
Nov@@ 0.0385115613997902
ON@@ 0.10773551710369858
PKK 0.8976632613171833
PT@@ 0.18396455914168008
Pres@@ 0.02287028516541248
Pri@@ 0.04546464000884079
Red@@ 0.025768784022489367
Rich@@ 0.06249629414637423
Rud@@ 0.09433713560872518
S.@@ 0.05362605208007231
Sag@@ 0.10609489407878125
Territory 0.13628223531483827
They 0.007106920511804643
Thomas 0.012394864330556633
UK 0.01890536922879503
Vir@@ 0.054026429332425456
XIII 0.08190620964847294
abl@@ 0.0476749979964758
aches 0.03450231517237958
amba 0.10178722221060568
archae@@ 0.08925550507292106
around 0.008726067574518387
asse 0.041814717877616564
ats 0.01267668857020617
based 0.007122713731079644
cap@@ 0.015091717598107934
cha 0.02382088248144705
doc@@ 0.06254544081386584
duc@@ 0.03819827430076818
ei 0.02196775642310443
ental 0.03543551976843017
fication 0.05299708445013733
gi 0.07780359586117389
head 0.011910788502316104
if 0.010445247809011354
inh 0.4959936298183024
inum 0.12167009046404537
jar 0.16135376251898814
jer@@ 0.06542384599705646
ker 0.012340030415916836
kings 0.09261450904573984
long 0.007472336118025204
mas@@ 0.017700905335454455
mine 0.047882515822350064
nik 0.07220654764523925
original 0.00953700298004147
scope 0.10036073938099674
sen@@ 0.01725506583836538
ser 0.008278942358888146
star 0.03068976145327642
sy@@ 0.0439656028662093
teachers 0.09898785778978157
ton@@ 0.03085984271118877
té 0.03483557655112556
uz 0.15026843070955273
val 0.0652689550487853
val@@ 0.022270250525466134
van@@ 0.08216679989310331
vo@@ 0.025872341338057256
wave 0.07915977075181785
zan 0.14741424987792803
Év@@ 0.20773401840577937
ī 0.11668317111949053
ō 0.03249230686912787
р@@ 0.015535999080894605
آيت 0.540011090086381
أب@@ 1
إذا 0.36182634455121543
اختبارات 1
البن@@ 1
الصحي@@ 1
القرا@@ 1
الكر@@ 1
النجم 1
الين 1
بها 0.19457468223225027
تمتع 1
جح 1
جوؤں 1
حیت 1
درت 1
روبر@@ 1
ریلو 1
زلي 1
طات 1
غون@@ 1
فرع 1
قس 1
كري 1
لكي 1
للو@@ 1
معاد@@ 1
مواز@@ 1
هد@@ 1
ومر@@ 1
ٓ 1
ړ@@ 1
گریجوی@@ 1
ݨ@@ 1
জ@@ 1
ਬ@@ 1
ப@@ 1
1433 1
1512 0.5779163338883236
1555 0.4550137782958821
1566 0.4911914603136638
1589 0.48098087470833456
1590 0.3660233779670341
1612 0.41451573577791084
1621 0.3770181589536395
1628 0.382977088453719
1632 0.3734989999447808
1640 0.268931716108964
1663 0.4371589227077456
1711 0.36668498649419295
1741 0.31724865957631493
1779 0.20959343433793115
2nd 0.030723037494665355
Afghanistan 0.08192367572372092
Ahmed 0.12087505395491445
BA 0.059736001860685735
CT@@ 0.15090770783527707
Catedral 0.2888911787948454
Community 0.04986833642257896
Croatia 0.13809535269540038
DL@@ 0.32004216112820505
Dam 0.14432131868089002
Dem@@ 0.03167533005450581
Ecuador 0.09572220855831137
Grande 0.04002270738971409
Had@@ 0.07900972912196329
IT 0.0969865705708226
Jas@@ 0.1269936837588312
Kom@@ 0.023500090636704773
Ly@@ 0.03193660743037507
MS@@ 0.08664325020074252
Madagascar 0.16165207263834466
Mary 0.020258599080579386
Miy@@ 0.173828646600581
Mug@@ 0.14386906491143878
Museum 0.01684813073510876
N. 0.08198296203710827
NET 0.31918727885068443
PN@@ 0.14804937446894698
PP@@ 0.12105790060244467
Ple@@ 0.08097760108158367
Pul@@ 0.06872238004372701
Raz@@ 0.172771675884061
Rock@@ 0.08117956654671167
Sand@@ 0.03400700618971087
Sid@@ 0.09637472538127935
Tul@@ 0.07879989108944396
UC@@ 0.15348868848026387
Val 0.09230272624422364
Yu@@ 0.12289301564799533
Zav@@ 0.5310525474071811
aceae 0.030690285451907988
alb@@ 0.032462521747113476
amarca 0.44082621506520897
anne 0.07928837492124267
aria 0.021916763549845245
aud@@ 0.05513566783416043
audi@@ 0.09181114969540743
aus@@ 0.0055299247153346625
blog@@ 0.2946883261954108
by@@ 0.06588321281937098
c.@@ 0.32000693876188985
cz@@ 0.20944749192543113
den@@ 0.013928073945639517
dou@@ 0.03856676353765504
economic 0.0303911100478713
ential 0.08308951024642189
esti@@ 0.03875593305273464
ett 0.02213426392346664
flu@@ 0.03544162171136762
ican 0.05575734366085867
ii 0.07967582930262834
inc@@ 0.01510872749203755
ind 0.07852748974829953
iz 0.07302572701763349
ja@@ 0.3355671915256917
los@@ 0.03825018370164109
mes 0.0200049287086921
metropolitan 0.1700105077805133
obi@@ 0.09377829176837124
och 0.15491979938036754
oid 0.0767213947801224
olog@@ 0.04892849050218393
pil@@ 0.03101767294166091
popul@@ 0.049915706148632125
sen 0.013247340672051348
sexual 0.040540359453968285
son@@ 0.022103472581092357
spec@@ 0.030178304671875742
story 0.016127192015615605
tal@@ 0.02244655801682991
til@@ 0.026166957072822804
towns 0.063448808889239
uli 0.13078456840850333
unit 0.03095603144093757
ute 0.02989902054735153
vers 0.009536744155016352
women 0.010912348061125622
yd@@ 0.06020560117960325
yl 0.038924895777377753
yo 0.051014188555732434
ă@@ 0.05682077882027864
الة 0.3117720127134764
الحس@@ 1
الحم@@ 1
السن 1
الصف@@ 1
الطالب 1
العاش@@ 1
الفي@@ 0.6444347771653631
اللّ@@ 1
النو@@ 1
الوق@@ 1
اليم 1
جزائ@@ 1
دج 1
روبن@@ 1
سمبر 1
فز 1
كارل 1
لقد 1
مؤس@@ 1
مرور 1
نيت 1
واف 1
ويم 1
يخ 1
ڳ@@ 1
প@@ 1
ੂ@@ 1
ﺚ 1
1.5@@ 0.5844088513965091
1260 0.5741351873422298
1270 0.6536888496996193
1529 0.5054214695932763
1534 0.48641366964422494
1547 0.4400548181829712
1569 0.45565253798282007
1601 0.43447191510160116
1653 0.4143391484258179
1745 0.27628474376512513
1767 0.25200303030188503
1781 0.1917123819208801
51,@@ 0.6287618906647642
AR 0.07181137536070728
Anti 0.10587445509191018
Area 0.05437427258774835
Australia 0.012110167069606766
B1 0.393063834345403
Bes@@ 0.041251249500683096
Biał@@ 0.3216126274709354
Bir@@ 0.030968037793665876
Bosnia 0.14649948414612432
Che@@ 0.064552746688796
DO@@ 0.09285516065593519
Dan@@ 0.04297241791655739
Edward 0.025002168701563823
Eff@@ 0.0650416660780238
Fam@@ 0.13267561313015563
Hak@@ 0.10083125181920458
Hamilton 0.04989902909509413
Hindu 0.11601928067033894
Hol@@ 0.018068812139772444
Hus@@ 0.06349542640719026
ION 0.35671293025399875
Kad@@ 0.08936288999232032
Library 0.04454168754601262
Philosophy 0.19612635848531318
Point 0.04506997930047459
SE 0.10868217544793873
SF@@ 0.1442165569555363
See 0.03988369623081817
Sok@@ 0.1635802304218347
Sri 0.055542133735492355
To 0.020475593155173215
Tour@@ 0.035055715082484736
Tran@@ 0.05422299960328638
Uni@@ 0.03546624003720351
Ven@@ 0.04106580112201705
Villeneuve 0.3172223407130348
Za@@ 0.2325169387589838
alist 0.022742994499224505
cher 0.015086400793158867
civili@@ 0.1872105374834135
common 0.017065321374615815
comput@@ 0.0774084751643856
cos@@ 0.045592269256255445
din@@ 0.03498235614190683
disease 0.050737384025007035
eb 0.0944002423426491
eland 0.05869229610819506
emia 0.13122453793225367
equ@@ 0.024533073024699377
es.@@ 0.44083456926793163
eu 0.03340652952581326
hk 0.3623515128132742
hor@@ 0.02472945179260716
igu@@ 0.047896614545044694
ived 0.06820624362073806
ière 0.15676224012885842
jan@@ 0.13338905785966937
jure 0.5732014444069304
kin 0.03052900948169816
ky 0.024698691343106465
mal 0.02123250745536508
medi@@ 0.021646323195519287
mill@@ 0.06398921034203096
mit@@ 0.01976178049718615
oblast 0.4158873944202307
oscop@@ 0.15670996378296445
ost@@ 0.028298407943184188
part 0.003563875479568088
post 0.018016855982263887
profile 0.11243681082416919
regional 0.02899040608105873
soci@@ 0.02382741891581147
trib@@ 0.1904348173063414
vais 0.28845770410288746
wala 0.5903638829643406
yed@@ 1
yi 0.057611383119333844
án@@ 0.044310459122527186
är@@ 0.022139746572178452
è@@ 0.03334318950168149
ادمی 1
اطع 1
التق@@ 0.839576547405764
التي 0.03581765708611105
السما@@ 1
العام 0.23003191871840184
الفل@@ 1
القضاء 1
الورا@@ 1
باك 1
بيري@@ 1
توي@@ 1
حدي@@ 1
حصل 0.5194825102937465
حقي@@ 1
خوز@@ 1
داي@@ 1
دراسات 1
زمن 1
كالي@@ 1
كبير 0.35469363112684804
وراق 1
کھیں 1
ۀ 1
গ@@ 1
ੱ@@ 1
☃ 1
ﮅ@@ 1
🐢 1
1001 0.6486502245322401
1316 0.9528370100599755
1341 1
1404 0.9306528434430197
1450 0.3711231108023455
1498 0.6753253903507326
1502 0.6483422965832573
1527 0.48962704866848644
1578 0.4539832845715119
1594 0.4676367223943268
1599 0.46023017615926926
1624 0.3813831465380149
1635 0.3381922528483611
1639 0.42821897400270637
1670 0.30471509320674506
1704 0.3446210062459327
1706 0.3966502873573643
1717 0.32481363114459283
2050 0.75406260113332
4500 0.6356681627892163
AE@@ 0.09258579403109156
AL 0.08177307713394794
Aegean 0.8844466580157354
Bud@@ 0.06689796218918768
Delhi 0.08926165319400219
Domin@@ 0.05426071081463782
Est@@ 0.02405511296463474
Europe 0.010925092342162206
Gan@@ 0.09017616496479393
Gir@@ 0.04956329256596296
Gre@@ 0.024787043505335244
K. 0.051110850931949836
Ka@@ 0.04825627634718679
Kin@@ 0.0420365675046338
Kit@@ 0.05198963484998851
Lak@@ 0.08300646562515994
Lat@@ 0.04588796961772592
Laur@@ 0.05080757604035012
May 0.005747917786826579
Med@@ 0.050831213627833535
Name 0.023854974066227635
Ori@@ 0.060392808980475284
Ostr@@ 0.12246164160737348
PC 0.042752638840276455
Peri@@ 0.09195513882952867
Phot@@ 0.09692695094173061
RA 0.061159985121364564
RS 0.06712978246973644
Sang 0.35132902960537593
Tarn 0.3864006359464228
That 0.028804324609437364
Tib@@ 0.09968005506241304
Tro@@ 0.030164613652986824
U.@@ 0.10813119588445527
ayi 0.4525541661520842
ays 0.01881771150299174
bin 0.044185134406629
brothers 0.05443300022263562
cancer 0.051785274627559684
ected 0.02218005269067121
ector 0.08903373954513716
ela 0.022564775675384247
enn@@ 0.017848636557031155
enz@@ 0.01968217566224345
ev 0.035149630833211605
genes 0.10589814275673028
graphy 0.06861600923194491
hom@@ 0.018443224203508836
ieu 0.17329804983643413
international 0.01105524017268189
mani 0.2507542546135374
modern 0.018116173739049994
negative 0.05972985317197038
ones 0.011025965446992482
onn@@ 0.020606958563054605
oug@@ 0.05497382454391379
ox@@ 0.040410487705905385
period 0.011711603680694642
reaction 0.08216171140036888
sel@@ 0.014505182574298343
side 0.00738505530547786
social 0.012279692268119742
support 0.011617805380049634
third 0.009302408117376504
tica 0.03035164672650691
tissue 0.17766018312626375
tric 0.10054476425172747
tv 0.48137216040156194
uy 0.3290394429214499
verse 0.035922224695946296
ward 0.023428029032063414
western 0.01869531199511716
ève 0.08238805447879861
ê@@ 0.03862749558787299
ï@@ 0.024490278742000215
Республика 0.3985020807526036
أي@@ 0.36277661973241493
اجم 1
الحار@@ 1
الخص@@ 1
الصرف 1
الوطن 1
حاد 1
حكم 0.8018002237295293
داف@@ 1
صلاح@@ 1
طي 0.8678667958606003
عسكري 1
قطاع 1
قيام 1
قيل 1
كات 1
للا@@ 0.616676571832916
مراكش 1
وحيد 1
ولين 1
ونظ@@ 1
يج 1
ٻ@@ 1
ڈیلا@@ 1
ফ@@ 1
ਜ@@ 1
ੇ@@ 1
ರ@@ 1
ﻆ 1
0.00 0.5541236012800298
1291 0.8499531466150595
1370 0.605163527008433
1499 0.6167895199438831
1561 0.48002801803380785
1564 0.46820941476758016
1585 0.38675686977753143
1630 0.27100207975936386
1644 0.30476798070401634
1680 0.2632910408021018
1688 0.2936842773838422
2700 0.84759115625465
Academy 0.017084761413991956
Age 0.06915370538765452
Austria 0.04222003683133152
Bains 0.34324818672546875
Bau@@ 0.013716272347865615
CP@@ 0.0796207038084952
Chap@@ 0.10073758711786719
Civ@@ 0.13778473881777992
Cop@@ 0.04626533136868746
Cze@@ 0.15823415392127274
Dal@@ 0.048619373151764234
Day@@ 0.08396754471441208
Didier 0.31309471169924613
EL@@ 0.13433953681041005
Economic 0.08910283101965759
Four 0.04594714010532708
Francisco 0.01764270983182494
Golden 0.0404223817816215
HV@@ 0.5589274639074221
Indies 0.14920155894484488
Jac@@ 0.05816003680201912
King@@ 0.092324902587155
Lau@@ 0.05119208083455022
Macedonia 0.16248131086174866
Mash@@ 0.486029839293853
Middlesex 0.27386596414969283
Mog@@ 0.1321434879925098
Olympi@@ 0.08182577190001966
PG 0.19867873071900852
Pacific 0.026366396436802626
Paraguay 0.11256938446353952
Pin@@ 0.038075693965643344
Plat@@ 0.037527745030658484
Quentin 0.2529202927192226
Rio 0.04466609322871058
Service 0.022951295762346006
Syria 0.10153079646525197
TS 0.08614483578207056
Tag@@ 0.07550571151827648
Tel@@ 0.029232991576388576
Test 0.06944134624002614
Thailand 0.08109194974914363
Tour 0.0162527598892413
Ty@@ 0.04288977932176547
Up@@ 0.08148692271564582
Vill@@ 0.0467739934995783
Wood@@ 0.03943264608321319
Wor@@ 0.034973176526783174
Yam@@ 0.07729482779783133
aci@@ 0.026304999097472036
ads 0.02866978618191795
agne@@ 0.21730962561434028
agon 0.119522259268079
alization 0.059031554147201834
ams 0.024488502717240342
andi@@ 0.060437024494089754
arc@@ 0.04370866371558456
avi 0.10401310132236599
band 0.0077067744808838575
being 0.004301419651375415
cal 0.051278478456863084
cer@@ 0.016768048468195948
charge 0.027976838529123218
chia 0.08035814172427654
dir 0.03518342646552897
dom@@ 0.03910036761903086
eau 0.014704390065471112
eem 0.2714380577757489
een 0.056648566352007726
emy 0.18251007728235916
former 0.006370270318967675
gen 0.014968793913465778
home 0.0076371550502752975
ins@@ 0.014523711846563613
ip@@ 0.03923248828931136
km 0.004864135204662236
kow@@ 0.16521308481256913
kö@@ 0.06404508849877649
las@@ 0.0671208746628621
like 0.00811631607930643
may@@ 0.051357184495295034
ock 0.022767647968207388
pre@@ 0.006814191328532078
press@@ 0.10248869606356711
published 0.008359965735922589
references 0.12043530804037521
ret 0.06043057669911835
ship 0.009732932962247448
such 0.0037999192381814127
sur@@ 0.00945979720397631
test 0.029013628094037455
tion@@ 0.02590490999640178
tr 0.6031383372314044
wa@@ 0.046287475385055656
zhou 0.16842015202120644
ú@@ 0.03108024698574359
ابون 1
احتم@@ 1
ارٹی 1
استبد@@ 1
اعد 1
اكس 1
الغر@@ 1
القول 1
الكتاب 0.6850434396957935
اللا@@ 0.6225516453068383
المي@@ 0.6378237640085663
النار 1
امة 0.8298517013309445
بلدية 1
تمہ@@ 1
جاك@@ 1
جزء@@ 1
ختوں 1
رأ@@ 1
رائد 1
رشيد 1
سواء 1
سياسي 0.270429097596457
شيك@@ 1
طار@@ 1
فمن 1
فير 1
فيه 0.2761644735475712
ماث@@ 1
مشروع 0.8002081592248743
مقر 1
ميل@@ 1
نزي 1
نود 1
يض@@ 1
ۤ@@ 1
ம 1
് 1
ﮠ 1
ﮧ@@ 1
ﺢ 1
----@@ 0.6258247554348292
1160 0.7293052449168701
1285 0.8203903498845485
1392 0.8110164440669935
1431 0.8760831347795682
1494 0.6203550561884941
1511 0.5950727704798341
1533 0.5192175175644285
1538 0.4669099420953357
1539 0.4543191743804434
1552 0.4298378058383549
1563 0.4379915112170736
1586 0.4337536031981679
1588 0.3939627623250705
1592 0.3891824861309449
1596 0.40849021791118095
1607 0.3865722354675351
1678 0.34154907455539213
1727 0.28925090292510836
1731 0.3413817603794799
1734 0.3081080156479591
BT@@ 0.1783764381459272
Band 0.018849763150725327
Caribbean 0.10180789722324189
Cham@@ 0.09429634941473199
Club 0.0093242164926529
DP 0.07746758523476789
Dol@@ 0.03533782069231226
EN@@ 0.11536257023162458
Encyclo@@ 0.20587424276409888
Eure 0.3564957182403024
Ey@@ 0.1199081406119384
Fay@@ 0.21250595817706378
Gang@@ 0.10426014864768747
Gel@@ 0.03980438470971894
Gro@@ 0.03118697565621187
Guang@@ 0.12727423923827366
Hill@@ 0.10654242431301211
Hydro@@ 0.10696015612498042
IL 0.1135242862542943
Ind@@ 0.09789700946722034
Industrial 0.09370159429557783
January 0.005705058548009649
Kang@@ 0.22592771674981496
Kos@@ 0.061052791351645215
Kul@@ 0.07901426996630717
Landes 0.06369369628776368
Lor@@ 0.033978083353964496
Lord 0.02392295271201315
Los 0.005021477588793586
March 0.005560681428448998
Mehr@@ 0.07880632271361243
Mem@@ 0.06090581294847707
Military 0.04485215948254485
Mobile 0.10779339702342997
Mong@@ 0.1466563502835512
Nav@@ 0.061814400455772196
Or 0.09760533027733355
Prince 0.02708804609768165
Puerto 0.04092535064503348
Ras@@ 0.06626379763427603
Right 0.12935535055637304
Rost@@ 0.20171374442336715
Ry@@ 0.05317587251017094
ST 0.11311554588855113
Savoie 0.16720237811244404
Second 0.022923140544006522
Sic@@ 0.0847622396483914
TA 0.05093845059021345
Technology 0.04182933411902753
There 0.00681368921976771
W.@@ 0.16221358590941493
ack 0.02482087096094839
active 0.016417540856460747
ara@@ 0.24402264688741393
aud 0.030991669345704118
ayan 0.066953677773499
bank 0.02505581844286646
curr@@ 0.08703932497639684
dat@@ 0.033618515089931286
dol@@ 0.055580164363344654
emp@@ 0.022760811262997435
ense 0.024667201139510826
ero 0.013708112732620105
etary 0.09950062860934583
family 0.004732009378749659
fre@@ 0.017251979748168004
gener@@ 0.017324382527020808
here 0.03584745551325609
ht@@ 0.2583227440377834
ider@@ 0.06539886046428547
ignac 0.3421283330054995
ili 0.05565724077601427
institutions 0.045539065004017165
ized 0.020763131615527727
kar 0.07946723574930775
ks@@ 0.029383437322513365
lard 0.05421958389142416
ments 0.013859994665034401
mil@@ 0.02415513095571892
nation 0.03203249089812513
off 0.006637821017790289
ogen@@ 0.0481824248533685
ont 0.0049439815424927435
operation 0.029267996981162673
ori@@ 0.018541105659328865
ough@@ 0.03958016186477014
ouv@@ 0.05197032873670338
own 0.007781611183059342
pedia 0.18485440761342742
qu 0.022410213963823207
ras@@ 0.033217753580682324
reg@@ 0.01256878552508636
sol@@ 0.01173522012253258
sul@@ 0.04580464174979966
tak@@ 0.03987063391319909
ters 0.010555131288858504
ult 0.1752807296227471
urs 0.019542166359871164
using 0.00974087466319496
var@@ 0.03224592675346604
very 0.008849385888180723
vo 0.030008132271128855
won 0.005255566621317834
ín 0.024680384511658795
ס@@ 1
أر@@ 0.284421468882503
الرياض 1
بيلي 1
تبر 1
تعريف 1
تق 1
شراف 1
شمول@@ 1
شيو@@ 1
صات 1
صغير 1
ضت 1
علن 1
فه 0.7246858980262074
فیسر 1
كيت 1
مداخ@@ 1
مذاک@@ 1
ڈوکس 1
ە@@ 1
ह@@ 0.20423422575055208
ன 1
ར@@ 1
： 0.00817304465728843
0s 0.022753001142735745
1050 0.5527139123832379
1314 0.8281741077233903
1346 0.70928528995917
1371 0.7948230241327253
1397 0.8646485982154134
1399 0.8200988366453117
1402 0.7204002336698402
1410 0.6176576817761779
1415 0.590222647585641
1475 0.582740886601365
1510 0.4539895725157295
1548 0.4968377526162273
1553 0.40842026270411314
1582 0.4163230960020215
1609 0.32411070243142137
1719 0.31044805170605
1725 0.2936710709329817
1732 0.301028673718792
1738 0.30589320551843024
1771 0.2117951124799387
AB 0.08082151632750513
AH 0.2502753187273506
Ach@@ 0.039965398637781466
Argentina 0.0251782283328478
Astronom@@ 0.12468442244443217
August 0.003981231486438085
Aut@@ 0.035288077737048076
Band@@ 0.0506826629464641
Bin@@ 0.1085311748595803
Bul@@ 0.03262911204106941
By@@ 0.07428356936403083
CE 0.06959335039043872
Chang@@ 0.10413935165358985
Columbia 0.027227616857066952
DI 0.12151158248467335
Davis 0.03557284092185511
Dong@@ 0.22506893722742705
Dé@@ 0.033126667773921405
ES 0.13043939235000418
Express 0.05610345350901987
Field 0.038920485682184286
Forest 0.044413859322899665
GNU 0.29131310271672917
Gem@@ 0.05402318181019487
HTML 0.3496830766665378
Haut 0.11685547381862291
Hautes 0.35129298973486817
Hen@@ 0.04319231555228461
ID 0.10841035857634079
Information 0.06404028588371033
Islam@@ 0.13223146875679234
Langu@@ 0.20001059318264933
Lee 0.021359267459284886
Loir 0.3615549802512793
MC 0.06518695449858586
Maria 0.018212893289377825
Mask@@ 0.4881540694317332
Maur@@ 0.06171426666158541
Mid@@ 0.04064733535830993
NH@@ 0.10914253694995042
Oregon 0.0507424277791607
Pay@@ 0.111559152923716
Pom@@ 0.05753748562396171
President 0.01306399270093838
Sep@@ 0.09496878168632757
Shel@@ 0.07191892181477498
Space 0.04901746415923665
Tav@@ 0.19638069465159433
Ther@@ 0.04269524787846798
Venezuela 0.04483871398113456
Wah@@ 0.15824746104902476
Yan@@ 0.09435616578987951
angi 0.2372697313818022
anti 0.01896985385893168
aqu@@ 0.030054949609456344
aun@@ 0.032059810625932106
avi@@ 0.0443019387474722
before 0.004462863896628119
blo@@ 0.04453492024768756
bu 0.018291481728575653
cat@@ 0.017554359660847
char@@ 0.020659044728814333
color 0.021285555292416977
dom 0.0706529587590704
dy 0.027615691720297965
dz@@ 0.45662237033277425
ef 0.04473545767083276
eign 0.2149380572302581
ele 0.02188556593331462
elec@@ 0.02750005387779617
ema 0.03419399130861637
emb@@ 0.014888122720883985
ems 0.0567095637305112
enty 0.12319022653957055
eph@@ 0.0667501668505613
estim@@ 0.036654889787213506
eto 0.028641827781697205
face 0.013156556689160038
free 0.016163703152036763
freguesia 0.9692760608596044
genetic 0.10111329390734762
get 0.016319088421191286
heim 0.022398121334809933
hin@@ 0.02603053440738544
ign 0.08625727805426123
ils 0.007441209914978991
indi@@ 0.026700644665831906
induc@@ 0.07715811311674681
iran 0.42790032957876734
ison 0.024304072139058622
itor 0.04994933121464683
ius 0.03418435759684795
jin 0.19617249332672318
just 0.010652642366980629
ld@@ 0.1397543806783221
les@@ 0.02487361204706257
many 0.004505826338373799
movement 0.022276105546983022
o.@@ 0.32632564704924555
odi@@ 0.028614919490146867
oto 0.03488096517613431
pal@@ 0.01935591447530215
pep@@ 0.18079073745631152
phen@@ 0.058799539231173294
ports 0.03648540119355779
position 0.00932908981684887
positive 0.03069346725632908
process 0.017455289846525963
rat 0.029016532395271737
ron 0.07444196128462599
sec@@ 0.01733956190868909
shi@@ 0.03812988512041594
sil@@ 0.019974448311596598
tag@@ 0.06162947667033547
tia 0.0329656954040386
used 0.0033625541886019667
your 0.06241002420652095
² 0.009927744975660055
â 0.29187601548718106
èche 0.13352200896096006
ö 0.10986509916761576
ş@@ 0.050494907118606186
о 0.0049715178888751895
צ@@ 1
الترج@@ 1
التع@@ 0.5279543477226577
الدي@@ 0.559693889951901
السماء 1
العراق 0.7284117705662767
المسجد 1
النف@@ 1
انتش@@ 1
انج 1
بعين 1
بلاغ 1
تتبع 0.584489615472158
تحقيق 0.9257525954626564
تياز 1
حادث 1
دوري 0.8925943078538275
ديوان 1
رأس 0.9100445101099149
سبي@@ 1
طینی 1
فيس 1
قلي@@ 1
قى 1
كاف@@ 1
كينٹ@@ 1
كيوب@@ 1
ليف@@ 1
مأ@@ 1
مصطفى 1
موریل 1
ميلي@@ 1
وإن 1
وامر 1
وجه 0.682030224910057
وعبد 1
وعن 1
ومست@@ 1
څ@@ 1
۽ 1
۾ 1
ल@@ 0.14045719709125987
ਨ 1
ਲ 1
క@@ 1
ོ@@ 1
ﭤ@@ 1
ﮂ@@ 1
1215 0.7358548893830967
1234 0.7629135833379642
1280 0.5421647350445651
1328 0.711570944379527
1330 0.5362982095075635
1347 0.7519022937343716
1348 0.642341514906548
1365 0.8536127941785259
1394 0.8826436522541002
1480 0.4109314009745886
150,000 0.4198268571839209
1537 0.45427131131860826
1602 0.37722286322022486
1608 0.37321845798915726
1613 0.3584119204603352
1623 0.3298237706052338
1631 0.35050862253838794
1649 0.3109015757155713
1675 0.313937563654731
1724 0.28636426482071403
1742 0.2546311524537677
AK 0.16162178881149153
Alli@@ 0.13277997752835585
Bar 0.07053751763796222
Bash@@ 0.25095135626324383
Big 0.021500202053081778
Bourg 0.35047419819910897
Boy@@ 0.058912367389424874
Chiba 0.5112504707827117
Clark 0.04839830856221242
Commonwealth 0.0538345118358551
Cu@@ 0.025096988779504305
Cumberland 0.19671609305495036
Dh@@ 0.14682884652992623
Dr. 0.020231874012089292
Fa@@ 0.10545296353615033
Fres@@ 0.06541097205714048
Fu@@ 0.04301064001474448
Hem@@ 0.055857751088866536
Heritage 0.062314412196717586
IO@@ 0.26176624141304433
IR 0.2328566581444259
Kir@@ 0.03358093365325222
Kot@@ 0.07806716733528751
Ky@@ 0.04335894979542815
LG 0.3150879242473469
Lane 0.06543136107636491
Les@@ 0.04097682518029003
Lon@@ 0.09423847376510755
ML 0.1721764105984429
Marcel 0.09075375209336811
Medi@@ 0.03556914958723096
Mis@@ 0.035709029365161106
Modern 0.05349355468206669
Mountain 0.039833770934619185
PR@@ 0.08594617805814785
Pa@@ 0.03214398052607553
Pad@@ 0.05092041703559945
Priv@@ 0.0906028280264387
RT 0.06819604005663041
Railway 0.025319395674510362
Rights 0.06447904535384734
Salvador 0.0665968999339976
Shak@@ 0.11509525192915103
Smith 0.016060416960238924
Sus@@ 0.04744247767905724
São 0.05484769700001271
Taj@@ 0.2389772835133653
Three 0.03232816460701754
Tit@@ 0.039478800832641825
Ud@@ 0.14168416755259075
Vie@@ 0.09526491059727508
Ville@@ 0.2717843325257675
WW@@ 0.15351480011457388
Wa@@ 0.04482568913142142
Wi@@ 0.03667269517830925
XII 0.07490063253252442
Xin@@ 0.22912634666045956
Yang@@ 0.21643841007207446
Yar@@ 0.11860304061630308
agr@@ 0.04173400017616588
aks 0.04260725799440418
arian 0.04974702595110134
ator@@ 0.05185457708831014
ave 0.04175573103909723
census 0.019856872983589496
chain 0.06250870641308368
cre@@ 0.010220514146538205
dic@@ 0.014598043734726899
direc@@ 0.024237203395038
eira 0.10388123795014344
els@@ 0.04830397062751115
fruits 0.12764117986455611
ger 0.014163243275889645
ges 0.015838690687772893
gir 0.21795201160833858
haz@@ 0.08459235003113257
hey@@ 0.4706579116411669
hua 0.18262215839222778
illac 0.4219614858771819
interface 0.13384323329320108
ix@@ 0.09006658807358037
lb 0.39765191509508885
lists 0.07828295022624387
make 0.010665264824520881
medicine 0.07571027890828971
mel@@ 0.016817291186665632
minute 0.0373314114484528
mod@@ 0.025344751125276205
natural 0.018144843803870093
network 0.023717612678957903
num 0.31553369168073986
oll 0.05876974474952162
oning 0.06476575411646904
org 0.1623238849191834
ovi@@ 0.09177723361572243
philosophy 0.06772814602788679
pot@@ 0.023745625949057783
pur@@ 0.021340064621062582
ram@@ 0.038820208824234315
riz 0.26216046768023266
sciences 0.051644077455564555
shire 0.03320595986715234
since 0.005788808369921677
tide 0.14336332828729997
tiv@@ 0.0326700047703535
tre 0.0232124311621301
ture 0.01885481503862777
ules 0.036423031360847236
ult@@ 0.05484137522765218
unc@@ 0.024846668936954835
where 0.0028998126420292166
yang 0.2081199245363968
êt 0.1504977874054078
ón 0.009096392152625792
Ş@@ 0.07139769684606806
и 0.00038708487331960993
أي 0.14224611496246373
ابة 0.3468126037283957
اعات 0.9129005592385079
الشري@@ 1
العقل 1
العين 1
الكريم 1
المجمو@@ 1
بنفس 1
بيب 1
تاز 1
تخار 1
جامعة 0.20152637504240165
جميل 1
حاب 1
داني 1
ديان 1
ديم 1
دیق 1
ساه@@ 1
صلات 1
عوا 1
قق 1
كتي@@ 1
كوا 1
كيميائي 1
لاسي@@ 1
مؤسس 1
ملف 1
ناه 1
يست@@ 0.3569956268570756
يكن 0.5961955201843334
يور 1
ۙ 1
দ@@ 1
ল 1
ী 1
ਜ 1
੍ 1
ა@@ 0.4689878152271425
1180 0.5031642977911539
1284 0.8623238574064456
1490 0.4215358895687789
1513 0.48283835489176413
1531 0.504864551790889
1551 0.44400291643706774
1597 0.38173301174902086
1614 0.3550326037570705
1636 0.31697819128905874
1647 0.35527118860322415
1654 0.2914763621667319
1661 0.2761348846289273
1664 0.3187866386905409
1681 0.34531081462741153
1691 0.36305975401634294
1782 0.14238669809251203
2300 0.5678526930124242
AF@@ 0.06669242553230315
Amer@@ 0.08371260482502066
BO@@ 0.10182865102350423
Barr@@ 0.04668619290358309
Beng@@ 0.07445423087413193
Black@@ 0.04312457970828311
Boh@@ 0.06770553491344976
Brown 0.021683244395284487
Bru@@ 0.03071401310986692
Business 0.03662677408858023
By 0.011211616873620508
Bé@@ 0.06293239637690802
Ca@@ 0.04422714319242047
Calv@@ 0.2748538749661816
Chel@@ 0.1090908118020535
Clinton 0.0755227483300298
Comp@@ 0.053433065186859044
Constitu@@ 0.06565332285903376
Cot@@ 0.05070472424843129
Democratic 0.026571818515309945
F. 0.02966778820116626
Fin@@ 0.02990297842586115
Freedom 0.08353962177161958
Gand@@ 0.18863482306442805
Hum@@ 0.038882533795341435
Ivory 0.3848539110499144
Iz@@ 0.08708796765626381
Ja@@ 0.09805006339386212
Jiang@@ 0.23590036189776106
Kak@@ 0.13668896466844413
Kash@@ 0.23177152880077467
Lawrence 0.053243063661311194
Lyon 0.04802270318438008
Lé@@ 0.08923062428305382
Manche 0.20151652671248704
Market 0.08644062413253221
Maul@@ 0.31526243777657664
Maurit@@ 0.33812462577631464
Micro@@ 0.08418119526137736
Monroe 0.13835929264448232
NT@@ 0.12097305399439152
Nepal 0.09087054611182264
New@@ 0.03550197659723727
News 0.028710626845000486
Nova 0.06902886758664736
Ny@@ 0.07111820550434997
OR@@ 0.12747563051395502
Our 0.07153049139298479
Palace 0.05847979666558351
Post 0.027763522363729306
Priest 0.27995931172468824
Rhône 0.1018920571011456
Rob@@ 0.03460915769146782
Russian 0.01609890969798825
SQL 0.3171244529129463
Shan@@ 0.11536443991555664
Sig@@ 0.03408935684185414
Sk@@ 0.025383449096342724
Sow@@ 0.17056861349438787
Spanish 0.0179100244530859
Sud@@ 0.05923176688582682
Swedish 0.039703761661059336
T.@@ 0.11070927597946764
Tanzania 0.13241982126605212
Thi@@ 0.04824621198538004
Tum@@ 0.15493757932119057
UR 0.20352160690365043
Urban 0.08428443186982623
Wh@@ 0.04217920071393554
Zak@@ 0.18811849629193003
acu@@ 0.05407588984160835
ader 0.033858604629596424
ado 0.0023561003443718937
ados 0.004035764409096999
ae@@ 0.0813811694773226
agent 0.033461809939770056
aling 0.031788131318242825
[...]
