. 1
, 0.9701084907573713
là 1
và 1
&quot; 1
của 1
một 1
được 1
trong 1
năm 1
có 1
các 1
) 0.9978216139506406
( 0.9986406559767631
này 1
đã 1
người 1
họ 1
với 1
ở 1
loài 1
cho 1
đầu 1
học 1
vào 1
@-@ 0.44185059860810955
thành 1
tháng 1
số 1
từ 1
không 1
đến 1
những 1
tại 1
khi 1
tả 1
tiên 1
ngày 1
ra 1
khoa 1
thể 1
Loài 1
đó 1
vật 1
: 1
công 1
thực 1
về 1
để 1
thuộc 1
sự 1
như 1
bị 1
trên 1
chính 1
ông 1
sau 1
dân 1
gia 1
quân 1
nhà 1
động 1
; 1
lại 1
cũng 1
làm 1
thời 1
nước 1
hiện 1
nhất 1
mô 1
Nam 1
sử 1
phát 1
hành 1
bộ 1
nhiều 1
theo 1
hoa 1
hai 1
khác 1
việc 1
quốc 1
quan 1
con 1
sinh 1
thế 1
chỉ 1
cùng 1
xã 1
nhân 1
hình 1
hơn 1
dụng 1
chiến 1
định 1
thứ 1
do 1
Quốc 1
đồng 1
xuất 1
viên 1
còn 1
1 1
độ 1
miêu 1
Trung 1
thị 1
2 1
cách 1
tỉnh 1
nó 1
vị 1
tên 1
cuộc 1
bản 1
Việt 1
/ 1
giới 1
trở 1
bởi 1
hợp 1
Các 1
lập 1
nhưng 1
rằng 1
khu 1
phía 1
lớn 1
cao 1
điểm 1
bằng 1
tự 1
phần 1
đội 1
đại 1
nhận 1
kết 1
chức 1
3 1
trước 1
hội 1
trường 1
giải 1
hoặc 1
Năm 1
tiếng 1
Anh 1
vùng 1
cả 1
Trong 1
phải 1
trình 1
gồm 1
thường 1
Hoa 1
tiếp 1
điều 1
lượng 1
chủ 1
qua 1
T@@ 1
- 1
phân 1
lý 1
sản 1
Kỳ 1
mà 1
thống 1
loại 1
sẽ 1
tế 1
huyện 1
cơ 1
us 1
trung 1
tính 1
diễn 1
anh 1
lên 1
đối 1
phố 1
bao 1
tích 1
vụ 1
gọi 1
thông 1
sống 1
tác 1
đi 1
hàng 1
bắt 1
4 1
phim 1
ch@@ 1
tạo 1
vì 1
C@@ 1
lực 1
l@@ 1
mình 1
nhiên 1
B@@ 1
quyền 1
vực 1
hệ 1
cánh 1
địa 1
Đại 1
trị 1
5 1
&amp; 1
đường 1
lần 1
b@@ 1
nghiệp 1
giáo 1
đánh 1
diện 1
chi 1
cấp 1
S@@ 1
đấu 1
chúng 1
L@@ 1
thủ 1
Pháp 1
cầu 1
khoảng 1
10 1
D@@ 1
sĩ 1
c@@ 1
H@@ 1
mới 1
Sau 1
thức 1
đoàn 1
hóa 1
trận 1
6 1
M@@ 1
Đức 1
tranh 1
cô 1
hay 1
r@@ 1
đêm 1
pháp 1
đề 1
Tây 1
% 1
– 0.6355058321223992
liên 1
tập 1
tham 1
nhạc 1
tàu 1
chuyển 1
N@@ 1
ta 1
biển 1
bay 1
thấy 1
máy 1
bố 1
truyền 1
Mỹ 1
thì 1
năng 1
km 1
n@@ 1
mặt 1
toàn 1
nên 1
gian 1
rất 1
âm 1
ban 1
hiệu 1
văn 1
phương 1
tới 1
hoạt 1
đô 1
t@@ 1
đây 1
7 1
bang 1
h@@ 1
trí 1
12 1
nam 1
giữa 1
đạo 1
triển 1
đặc 1
8 1
Ch@@ 1
tổ 1
nhau 1
i 1
bướm 1
Bắc 1
nghĩa 1
đá 1
danh 1
s@@ 1
an 0.2713500447316954
ba 1
cứng 1
Một 1
m@@ 1
Ông 1
th@@ 1
v@@ 1
biệt 1
tử 1
bóng 1
thiết 1
chế 1
9 1
đất 1
đang 1
nằm 1
kinh 1
ia 1
bình 1
đổi 1
thuật 1
ảnh 1
kỳ 1
tâm 1
nơi 1
dài 1
đơn 1
dưới 1
chất 1
ý 1
um 1
Nó 1
cuối 1
phủ 1
Công 1
G@@ 1
bọ 1
kế 1
Liên 1
dịch 1
Đông 1
Lan 1
y@@ 1
nữ 1
&apos; 0.4910246963890643
nhiệm 1
g@@ 1
Th@@ 1
tiểu 1
điện 1
sách 1
Nhật 1
đ@@ 1
nói 1
Vào 1
V@@ 1
d@@ 1
án 1
biết 1
phẩm 1
sáng 1
thay 1
tăng 1
K@@ 1
châu 1
bảo 1
biến 1
11 1
trưởng 1
nguyên 1
Thái 1
tin 1
báo 1
đều 1
is 0.1711307185037689
mục 1
ăn 1
vẫn 1
Đ@@ 1
cứu 1
thi 1
gần 1
trọng 1
đảo 1
tình 1
ata 1
chơi 1
P@@ 0.9454836558363736
thu 1
aceae 1
tiến 1
amp 1
cá 1
giá 1
bài 1
Bộ 1
đặt 1
tiêu 1
thân 1
tương 1
nay 1
tư 1
nhóm 1
Ngày 1
dự 1
nhỏ 1
tìm 1
tổng 1
phòng 1
ph@@ 1
nh@@ 1
m 1
dùng 1
ca 1
bắc 1
ngoài 1
ng@@ 1
lịch 1
đông 1
ứng 1
tr@@ 1
hòa 1
bà 1
bên 1
idae 1
tài 1
hậu 1
R@@ 1
nổi 1
x@@ 1
màu 1
y 0.1622550716576599
dẫn 1
in 0.04506057195676685
quả 1
phong 1
tuổi 1
a 0.05641137745809892
tinh 1
Dân 1
phục 1
kỷ 1
ensis 1
biểu 1
đưa 1
sát 1
Tr@@ 1
đời 1
on 0.1667691766753833
Tuy 1
đình 1
viết 1
tục 1
Thành 1
giao 1
&#93; 1
Hà 1
miền 1
mang 1
Bản 1
quận 1
yếu 1
mùa 1
hát 1
giữ 1
Hoàng 1
rộng 1
tướng 1
trang 1
A@@ 0.9847348702813681
vô 1
thương 1
liệu 1
sông 1
&#91; 1
² 1
bán 1
nhập 1
quyết 1
từng 1
dựng 1
bất 1
đóng 1
tấn 1
sở 1
bỏ 1
thần 1
Dương 1
quá 1
phụ 1
Xã 1
chiếc 1
di 1
chương 1
viện 1
dù 1
thắng 1
câu 1
nghệ 1
vận 1
Hải 1
Văn 1
hoàn 1
nhiệt 1
Cộng 1
2010 1
Theo 1
Độ 1
vai 1
binh 1
lạc 1
xây 1
khí 1
cung 1
cử 1
cổ 1
tra 1
vệ 1
nào 1
Ấn 1
giống 1
hạng 1
xác 1
Tổng 1
tiền 1
Nguyễn 1
hoàng 1
trò 1
vua 1
Bình 1
mở 1
de 0.028255563281866704
Minh 1
Những 1
tây 1
sân 1
ngữ 1
chống 1
hướng 1
chung 1
cái 1
trợ 1
làng 1
chiếm 1
k@@ 1
chưa 1
Từ 1
hộ 1
ghi 1
tượng 1
Ban 1
cộng 1
ty 1
giả 1
minh 1
o 0.5880838923734711
đạt 1
mất 1
triệu 1
dạng 1
kiến 1
phản 1
quản 1
bệnh 1
mạnh 1
sang 1
chết 1
O@@ 0.9886274412886246
ký 1
hạn 1
lúc 1
Quân 1
giờ 1
tộc 1
cảnh 1
lãnh 1
u 1
gây 1
xe 1
nguồn 1
chứng 1
kể 1
Kh@@ 1
kích 1
nghiên 1
20 1
chia 1
trấn 1
kiện 1
lệ 1
tất 1
Chúng 1
on@@ 1
đoạn 1
ngôi 1
hữu 1
thư 1
lưu 1
yêu 1
Khi 1
vương 1
X@@ 1
tay 1
cây 1
chân 1
Vương 1
E@@ 0.8660373291346776
vòng 1
thuyết 1
ít 1
giúp 1
phép 1
thêm 1
Nga 1
Chính 1
Ba 1
Châu 1
độc 1
thích 1
phá 1
trực 1
an@@ 0.7616388858244667
mỗi 1
Sơn 1
Âu 1
kh@@ 1
ana 1
hưởng 1
vậy 1
chọn 1
The 0.0957343678759368
khỏi 1
Sự 1
sắc 1
sư 1
Hội 1
cảm 1
o@@ 1
ai 1
Ng@@ 1
al@@ 0.8144304034516301
vấn 1
Chiến 1
áp 1
ma 1
gi@@ 1
em 1
vi 1
cần 1
hết 1
Giải 1
Nhà 1
tốt 1
địch 1
so 1
e@@ 0.7150994998193657
luật 1
ea 1
cư 1
La 0.3719855525096811
xem 1
nội 1
ấy 1
xếp 1
tỷ 1
Ph@@ 1
sao 1
ic@@ 1
lấy 1
An 1
gốc 1
khả 1
quy 1
i@@ 1
2011 1
s 0.31642464265994613
dương 1
chí 1
mạng 1
giành 1
Thanh 1
ước 1
núi 1
trai 1
mật 1
15 1
Người 1
mắt 1
bàn 1
triều 1
in@@ 0.5272861910648651
Đây 1
la 0.044232885001400574
cố 1
niên 1
giảm 1
huy 1
khai 1
Nhĩ 1
Quận 1
lời 1
tuyến 1
lệnh 1
ac@@ 1
F@@ 0.6105511361061939
Đảng 1
khiến 1
ốc 1
khách 1
Nha 1
ol@@ 1
cáo 1
Thổ 1
trẻ 1
bầu 1
duy 1
Mã 1
thảo 1
vũ 1
sức 1
Thế 1
Tân 1
bại 1
or@@ 0.8404134505338964
tuần 1
chuyên 1
ngoại 1
đa 1
Tháng 1
I@@ 1
... 1
el@@ 0.7007828825250921
ar@@ 0.7310683259259496
en@@ 0.46124747593608467
đồ 1
dục 1
môi 1
album 1
Nhân 1
Nội 1
Lý 1
quay 1
riêng 1
chuẩn 1
ae 1
qu@@ 1
phổ 1
os@@ 1
Tại 1
thiên 1
đới 1
thúc 1
gặp 1
đế 1
J@@ 0.8281243061276186
da 0.8183910475921914
hầu 1
Xô 1
nghiệm 1
Do 1
18 1
19 1
lớp 1
nghị 1
thanh 1
lợi 1
hạt 1
Long 1
the 0.013271042549660633
Phi 1
30 1
chữ 1
of 0.023554065277085194
doanh 1
lễ 1
om@@ 1
nền 1
xuống 1
chạy 1
phiên 1
a@@ 1
ti@@ 1
Danh 1
biên 1
ot@@ 1
thái 1
Lịch 1
ô 1
gái 1
16 1
bổ 1
ina 1
kiểm 1
vây 1
Hòa 1
p 1
dòng 1
Y@@ 1
tồn 1
luận 1
Hán 1
op@@ 1
tưởng 1
Hồ 1
rồi 1
muốn 1
tuyên 1
thấp 1
er@@ 0.4944096843764382
vàng 1
Đế 1
cha 1
Nh@@ 1
New 0.5942034692291176
tiết 1
mọi 1
oc@@ 1
khẩu 1
cực 1
14 1
Á 1
du 0.15458381309155866
Giáo 1
tức 1
đứng 1
cửa 1
tịch 1
nhanh 1
2007 0.9834249750277381
giám 1
Ngoài 1
p@@ 0.5851209491357573
Trường 1
atus 1
mức 1
13 1
mẹ 1
thờ 1
coi 1
am@@ 0.938369604464422
di@@ 0.9212759620741215
trúc 1
Trần 1
thất 1
Ar@@ 0.9774404937218961
đáng 1
17 1
dụ 1
Có 1
nữa 1
U@@ 1
kỹ 1
t 0.40376914266184355
dựa 1
cận 1
Gi@@ 1
phi 1
giáp 1
ệt 1
giai 1
ngay 1
mét 1
Hồng 1
ánh 1
mặc 1
hạ 1
đôi 1
Nguyên 1
bảng 1
tối 1
quần 1
u@@ 1
quanh 1
phái 1
n 0.7829481359582261
Z@@ 0.755131390735285
lâu 1
thủy 1
dung 1
tuyển 1
nhện 1
A 0.38238127663636184
at@@ 0.8124972925083399
phóng 1
I 0.623618103836605
Thiên 1
Hàn 1
z@@ 0.6583652459065806
lục 1
đốc 1
vài 1
nhằm 1
nếu 1
pháo 1
ngôn 1
Đô 1
Tư 1
2006 0.9399559144738637
ương 1
tố 1
cải 1
li@@ 1
2008 0.8538240281654517
thập 1
Đồng 1
đủ 1
Không 1
thưởng 1
Kinh 1
Lê 1
Ý 1
bạn 1
is@@ 0.8210298769883587
cấu 1
ang 1
ur@@ 1
Chủ 1
ap@@ 1
mẫu 1
ella 1
W@@ 0.4721241632165016
giết 1
Vũ 1
hỗ 1
chiều 1
II 1
Di@@ 1
as@@ 0.7114878773812092
luyện 1
ác 1
25 1
Ở 1
xa 1
lá 1
Tông 1
Cô 1
bắn 1
phạm 1
alis 1
kéo 1
kim 1
al 0.20181381438976884
hoạch 1
chấp 1
bốn 1
rừng 1
2016 0.8025453150414186
đài 1
Geometridae 1
id@@ 1
Họ 1
Tiên 1
lộ 1
Kim 1
môn 1
An@@ 0.7133507498855152
chứa 1
rõ 1
trùng 1
tỏ 1
sóng 1
e 0.40704971226203357
buộc 1
Ủy 1
cứ 1
chịu 1
Cao 1
êm 1
phận 1
dành 1
cạnh 1
ủng 1
lửa 1
ngành 1
2009 0.7583903657125544
21 1
tôi 1
tôn 1
toán 1
đổ 1
mềm 1
đàn 1
cụ 1
trao 1
j@@ 0.6411423627664323
tốc 1
2004 1
h 0.9199171796090515
hải 1
khởi 1
hi@@ 1
đĩa 1
Điều 1
2015 0.7405796679385207
Đài 1
bờ 1
nông 1
khúc 1
to@@ 1
d 0.3392020925226162
hồ 1
nặng 1
trắng 1
Quảng 1
Al@@ 0.7933937498058986
ul@@ 0.8780352075597265
thổ 1
Địa 1
Bảo 1
ê 1
ấn 1
2000 0.9075085809615829
ngắn 1
lĩnh 1
2014 0.70746595088883
nối 1
Bà 1
24 1
2005 0.9369052625196618
hại 1
Lưu 1
Đến 1
ruồi 1
hôn 1
Tiểu 1
2012 0.6887044694368396
hồi 1
er 0.10749791316866002
to 0.027720093268502877
khảo 1
à 0.08334328021304739
il@@ 0.9477120732478092
chú 1
ích 1
chuyện 1
Giang 1
sâu 1
xảy 1
tòa 1
trạng 1
áo 1
ủy 1
ad@@ 0.5620073304455977
2017 0.7611760523250145
en 0.034378266549193404
trả 1
k 0.6831140955719862
2013 0.6988033805768286
gì 1
trụ 1
1999 1
thiếu 1
ag@@ 0.786429995889107
Thượng 1
2018 0.7210291622658643
Noctuidae 1
đen 1
niệm 1
thuốc 1
sa 0.5160920714791944
nhìn 1
100 1
loạt 1
khó 1
chiếu 1
Gia 1
mối 1
x 1
ho@@ 1
Đường 1
rút 1
es 0.10775792052508089
xử 1
osa 1
2019 0.760554400108329
nuôi 1
chim 1
tái 1
bức 1
et 0.059823462890006424
vượt 1
bi@@ 1
Thị 1
cũ 1
at 0.08921833310674777
c 0.7250589054902887
thuận 1
23 1
ar 0.3075614643415125
8@@ 1
it@@ 0.6571702733995045
ong 1
xung 1
Triều 1
tước 1
and 0.01778837226465953
es@@ 0.53234878156232
mua 1
am 0.28159270907594663
ái 1
ung 0.5585234601695941
vốn 1
đầy 1
22 1
sai 1
thơ 1
mại 1
gt 0.9238756558570929
tội 1
ôn 1
Hiệp 1
Cerambycidae 1
băng 1
trục 1
êu 1
ica 1
mm 1
phối 1
súng 1
B 0.99057904502696
lt 0.9832191742414539
tạp 1
Phó 1
7@@ 1
_ 0.6535955136732208
ẩn 1
Mặc 1
el 0.0572207871771157
suất 1
31 1
ig@@ 1
ống 1
Ninh 1
soát 1
song 1
đai 1
Cổ 1
Cúc 1
l 0.2909074483055831
linh 1
chủng 1
buổi 1
tia 1
kịch 1
xét 1
trái 1
thử 1
im@@ 0.7056614867616913
càng 1
os 0.35947316809567215
Sh@@ 0.9321988676608168
góp 1
era 0.6100256356373189
aria 1
rời 1
truyện 1
đỏ 1
dễ 1
Trước 1
lo@@ 0.7345249214266678
ên 1
kiếm 1
sứ 1
et@@ 0.7319353856764221
ngựa 1
tầng 1
2001 0.9514719149736706
đảm 1
tải 1
Chi 1
trách 1
luôn 1
chuyến 1
Par@@ 1
trì 1
cập 1
dấu 1
phí 1
đích 1
Thủ 1
ro@@ 0.7933716842416649
Mặt 1
as 0.05158062479311862
hiệp 1
suốt 1
50 1
kho@@ 1
Tập 1
em@@ 0.7149062368011827
suy 1
C 0.8211166022387292
bào 1
9@@ 1
Hai 1
Hy 1
Thánh 1
đăng 1
kiểu 1
xỉ 1
26 1
Khu 1
Yên 1
xanh 1
Cơ 1
ôi 1
2020 0.6865303432707858
ri@@ 0.9341572489117559
đào 1
28 1
khá 1
ec@@ 0.9008881729708391
lược 1
khối 1
le@@ 0.6454604261976945
ab@@ 0.4117377507348319
Tổ 1
căn 1
Với 1
vợ 1
Mar@@ 0.7053733059380506
dần 1
lòng 1
đảng 1
tín 1
hãng 1
Việc 1
hàm 1
ya 0.5973141571723442
trưng 1
ir@@ 0.7799933944190467
xứ 1
Úc 1
cuốn 1
Mi@@ 1
át 1
ền 1
kê 1
Viện 1
.@@ 1
27 1
0 0.8118537623610937
ach@@ 1
ưu 1
Lạp 1
Giám 1
bụng 1
Phương 1
đương 1
mực 1
lượt 1
ức 1
Br@@ 0.8822751858447049
nghi 1
ni@@ 1
xuyên 1
Quang 1
ay 1
= 0.8172076882353861
đột 1
thịt 1
họa 1
Phần 1
phê 1
Cuộc 1
2002 0.8567804815032045
na 0.8643287120289169
dữ 1
mã 1
un@@ 0.2802461835464465
hủy 1
mạch 1
po@@ 0.8193053585875365
ao 1
un 0.06523071987079918
kính 1
áng 1
ết 1
Đào 1
thừa 1
Đậu 1
Sân 1
tuy 1
đạn 1
Thời 1
kẻ 1
Chu 1
nạn 1
huấn 1
no@@ 1
thoại 1
hỏi 1
vừa 1
Lâm 1
khóa 1
trời 1
Thụy 1
Phong 1
Phú 1
2003 0.849860623274523
ura 1
Con 1
League 0.7835931522300834
6@@ 1
Qu@@ 1
Vì 1
chúa 1
Định 1
co@@ 0.5955244567914527
á 1
ens 0.5734257905978595
ám 1
ví 1
Xuân 1
ngăn 1
đẩy 1
giác 1
ẩm 1
trừ 1
loạn 1
nổ 1
ang@@ 0.9701460658241396
29 1
ru@@ 1
ắc 1
TCN 1
thật 1
od@@ 1
trải 1
ồng 1
San 0.7285487048489586
ắn 1
chóng 1
lao 1
lính 1
Chí 1
mi@@ 1
man 0.370081807036927
sơ 1
ạn 1
mộ 1
Erebidae 1
Q@@ 1
Li@@ 1
Phật 1
1990 0.9209896767842561
hạm 1
g 0.6350403168756575
vọng 1
diệt 1
điển 1
yl@@ 1
40 1
Số 1
thiện 1
Bar@@ 0.8691397099547576
ốt 1
ly 0.5631849700442157
cm 1
ed@@ 0.7447078469357234
og@@ 1
thao 1
ối 1
Tham 1
sửa 1
Đội 1
bước 1
or 0.12164624614046209
Trương 1
ấm 1
nhờ 1
xin 1
lai 1
thú 1
khắp 1
ành 1
Sư 1
thí 1
ò 1
Ho@@ 1
phù 1
phút 1
đem 1
5@@ 1
àn 1
st@@ 0.3711045750790855
tách 1
trào 1
ak@@ 0.812308061506203
Cal@@ 1
thi@@ 1
T 1
Tòa 1
thụ 1
cắt 1
ến 1
ạc 1
! 0.7454109837357732
per@@ 0.7274383693142844
chẳng 1
Nhưng 1
si@@ 0.9307240328072712
nhiễm 1
Trái 1
hương 1
U 1
tu 1
ắm 1
nguy 1
bày 1
ẻ 1
quý 1
đỉnh 1
gửi 1
lông 1
Đất 1
it 0.10852960221229492
chỗ 1
ha 0.7582117765040665
&#124; 1
oph@@ 1
nghe 1
Sch@@ 0.46218288978040545
kháng 1
John 0.5089901496404141
Ne@@ 1
Car@@ 0.7549702672008961
óc 1
us@@ 0.6990849691499502
b 0.6299554957093361
xâm 1
ận 1
anus 1
hiểu 1
och@@ 1
cai 1
Huyện 1
oides 1
cầm 1
w@@ 0.38620689780119893
sắt 1
hiểm 1
v 1
ena 1
ngầm 1
tiện 1
tàng 1
Tên 1
đẹp 1
Thông 1
vành 1
ob@@ 0.9396259009022183
nâng 1
khắc 1
liền 1
hơi 1
tầm 1
Nhiều 1
As@@ 1
El@@ 0.8918847179974195
liệt 1
sớm 1
chỉnh 1
Ngô 1
thăm 1
kênh 1
ăng 1
cường 1
àng 1
thăng 1
chảy 1
ân 1
tuyệt 1
ắt 1
Hưng 1
tù 1
1998 0.8610454132941651
ur 1
par@@ 0.6049092466458807
Tỉnh 1
ex 1
xúc 1
ạ 1
sáu 1
Đạo 1
ine 0.44118051219150317
bão 1
nửa 1
dọc 1
ì 1
ki@@ 1
? 1
1945 1
màn 1
tò 1
đọc 1
ga 1
thôn 1
formula 0.5468276409387643
máu 1
Về 1
mưu 1
Để 1
quảng 1
í 1
vi@@ 0.9309973965666359
quán 1
Hiện 1
giản 1
yr@@ 1
ov 1
one 0.1582213264639986
tán 1
Nếu 1
ục 1
tan 1
ếp 1
rêu 1
ut@@ 0.903644129635072
ng 1
ơ 1
vò 1
Am@@ 0.9170285594248543
Vĩnh 1
Cor@@ 0.9426834531268359
ka 0.9474068227673121
Hồi 1
ula 1
ùng 1
ne@@ 0.8837299915304468
ưa 1
chồng 1
ing 0.10049309223278237
đe 1
sh@@ 0.4900665638169598
Le@@ 0.6790654047462554
eg@@ 0.7880378584538265
2@@ 1
ảo 1
Cách 1
thẳng 1
Ai 1
ồn 1
le 0.039687875656445715
car@@ 0.6926595655759976
Ngọc 1
1997 0.8819136893374006
dầu 1
Ichneumonidae 1
Đặc 1
ngược 1
z 0.5605511135085257
phó 1
ii 1
dạy 1
Phúc 1
săn 1
r 0.7559098651168595
oth@@ 1
Lương 1
D 0.8451080502207818
onia 1
bí 1
truy 1
ấp 1
re@@ 0.13345945120001704
ổn 1
ả 1
Cục 1
Hạ 1
St@@ 0.5830942631099665
2021 0.6213054451734195
dọa 1
+ 1
atum 1
Canada 1
York 0.4926688061143618
ài 1
Phân 1
Tam 1
av@@ 0.6741329446255706
bậc 1
Áo 1
Con@@ 0.5537224344276792
ep@@ 1
Per@@ 0.9045810657266764
Thủy 1
thoát 1
f@@ 0.26394900432294266
video 1
Quan 1
1980 0.9540627937996826
um@@ 0.5206719811414113
F 1
ber@@ 0.7845017036834813
thiệu 1
tặng 1
Karnataka 1
1991 0.8981575020475085
tháp 1
cậu 1
pha 1
bò 1
eri 1
Y 1
chi@@ 1
ell@@ 1
Lai 1
Paris 0.7435805664364176
thước 1
° 1
Thống 1
Phạm 1
Hành 1
br@@ 0.5033864212341443
đúng 1
ara 1
In@@ 0.536149358641579
lan 1
10@@ 0.9574620126806059
bom 1
gắn 1
xạ 1
Mùa 1
ua 1
phiếu 1
Chỉ 1
âu 1
ệ 1
ov@@ 1
Hymenoptera 1
ium 1
é 0.21505016794018134
​ 1
ki 1
Loan 1
nghiêm 1
V 0.9480254568522691
khoản 1
trích 1
va 1
Hậu 1
bu@@ 1
Cá 1
sẵn 1
Bi@@ 1
chó 1
ã 1
tehsil 1
Bo@@ 0.9153790877334185
hút 1
bãi 1
tá 1
X 0.9962744536574055
lo 0.4013066664857634
sung 1
ất 1
1996 0.8043283216654384
Rêu 1
lẫn 1
Chi@@ 1
ồi 1
ton 0.5274606106613
son 0.12440147834813514
trại 1
ak 0.8647864454725674
ấu 1
ép 1
so@@ 0.9657455066310643
chặn 1
man@@ 0.7344683979120025
rơi 1
ala 1
Tử 1
ạt 1
ense 1
ột 1
Tự 1
thù 1
siêu 1
đoán 1
cờ 1
Saint 0.5356290680637666
gắng 1
Cập 1
cựu 1
mo@@ 0.7324122874283371
tắc 1
60 1
tránh 1
lâm 1
ci@@ 0.9010789105724095
dây 1
Nghệ 1
khiển 1
lương 1
1995 0.8165266034216133
bác 1
cỏ 1
nắm 1
Mal@@ 0.9980919337663714
thác 1
Mông 1
1975 1
thượng 1
Tri@@ 1
Khánh 1
Cr@@ 1
ath@@ 1
hấp 1
Hệ 1
Bài 1
ing@@ 0.6870524533951108
and@@ 0.7566706385183818
Bồ 1
ys@@ 1
lưng 1
tho@@ 1
World 0.39944928623647247
1992 0.7941768350901217
1.@@ 1
Chương 1
no 0.190778714651504
phán 1
hè 1
Cuối 1
nhớ 1
Ki@@ 1
lu@@ 1
thánh 1
ế 1
ải 1
tắt 1
ơi 1
họp 1
Phổ 1
M 0.9560822667681009
Tống 1
quang 1
USD 1
ita 1
nghỉ 1
ida 0.974196531330731
vĩ 1
đáp 1
thua 1
Tôn 1
eb@@ 0.7031341462252226
ộc 1
tu@@ 1
đo 1
Nghị 1
trồng 1
nhánh 1
Đình 1
C.@@ 1
Trịnh 1
Co@@ 0.6969733824689055
tai 1
ei 1
lẽ 1
ani 1
sắp 1
ràng 1
Linh 1
oma 1
Mon@@ 0.6771225489682451
Đầu 1
quê 1
món 1
ụ 1
ách 1
1993 0.8247991943017297
Phòng 1
Pr@@ 0.8895011333285394
bánh 1
au 0.10083716126985641
nhật 1
tống 1
dia 1
đuổi 1
khăn 1
Khoa 1
tạm 1
Trận 1
nhẹ 1
đuôi 1
khô 1
cấm 1
Trên 1
vuông 1
Đối 1
su@@ 0.7503504647175213
bật 1
icus 1
xương 1
ad 0.6379061939288715
O 0.6273096114580664
ụng 1
lựa 1
ngờ 1
III 1
Học 1
phạt 1
hài 1
1994 0.7605692207011437
quỹ 1
Mor@@ 0.7538280731557806
S 0.7193921607331529
nghề 1
Sinh 1
au@@ 0.6018495342270668
C. 1
trữ 1
se@@ 0.4422231198263857
opsis 1
côn 1
ley 0.5495271729816237
nỗ 1
Er@@ 0.5594939404150029
bề 1
dậy 1
Hy@@ 1
Hóa 1
eo 1
Tính 1
thuyền 1
Bí 1
ngân 1
Or@@ 0.8731419506246587
tis 1
phức 1
Phát 1
cặp 1
Thể 1
1970 0.8769867114226109
Chúa 1
Tiến 1
chữa 1
ội 1
Brasil 1
dưỡng 1
sợ 1
mời 1
ona 1
A.@@ 1
ate 0.18596842836048255
chối 1
thậm 1
chùa 1
giấy 1
ại 1
che 0.8746698505669445
ào 1
hôm 1
L 0.561826264942218
la@@ 1
3@@ 0.9421557965733761
Sc@@ 1
En@@ 0.675981015677602
Hợp 1
úc 1
đền 1
cảng 1
Cup 0.7626469427695514
Câu 1
des 0.02933420396580136
ch 0.449769618599422
Nữ 1
đỡ 1
khủng 1
hu@@ 1
trú 1
ie 0.2693250315642588
hoá 1
4@@ 0.9245798347840625
Ả 1
Triệu 1
tàn 1
A. 1
ik@@ 0.6493430477555139
Na 1
ngang 1
Chrysomelidae 1
nghĩ 1
vong 1
bạc 1
1960 0.9382979520785208
mưa 1
rắn 1
khỏe 1
Cảnh 1
Cùng 1
Lực 1
bé 1
sub@@ 0.5923145020187093
Điện 1
Điển 1
tỉ 1
hoang 1
Su@@ 1
gỗ 1
1989 0.7984459067908494
game 0.4964487661501854
hùng 1
thiệt 1
ides 1
ter@@ 0.44417320995931237
de@@ 0.3101686471779532
ost@@ 1
vườn 1
ầu 1
mười 1
ốn 1
Vân 1
lui 0.6232610760593483
phường 1
N 0.9122278725775588
2.@@ 1
tờ 1
ỷ 1
ima 1
Thu@@ 1
eus 1
Vua 1
Sở 1
odes 1
bo@@ 0.5647354575300185
P 0.9056123604054759
đẳng 1
Thần 1
gió 1
Lễ 1
uống 1
giảng 1
ys 1
ne 0.2349543856418327
folia 1
“ 0.10827604369414216
gà 1
ô@@ 1
tri@@ 0.7961080919105706
ans 0.27162478858304395
miễn 1
tus 1
Kiến 1
khán 1
ah 0.8426597114173248
Thân 1
ari@@ 1
ờ 1
ou@@ 0.5557544794663825
đua 1
ặc 1
200 0.980454983011813
yc@@ 1
California 0.9146762573868028
rãi 1
trứng 1
đau 1
Di 1
Cũng 1
Thuận 1
Thạch 1
” 0.344580592075514
Thiếu 1
dãy 1
Hiến 1
hiến 1
Lục 1
ăm 1
Sĩ 1
sch@@ 0.3641230594481166
trăm 1
Col@@ 0.6714539767415949
Kết 1
mẽ 1
cân 1
sáp 1
thẩm 1
bá 1
Ti@@ 1
Tấn 1
ổ 1
nóng 1
ầm 1
ano 0.5418913954781326
chấm 1
kì 1
Rập 1
Se@@ 0.5664674502284655
khi@@ 1
tic@@ 1
ãn 1
H 1
mũi 1
dị 1
80 1
ti 1
ist@@ 0.8849204710459733
mon@@ 0.47360213135296664
trốn 1
ập 1
tận 1
tùy 1
cơn 1
1988 0.7972000733668602
Nghĩa 1
mar@@ 0.5105968300962559
ãi 1
ati@@ 0.6996483863788625
aur@@ 1
đực 1
êng 1
Cầu 1
Arctiinae 1
tròn 1
ich@@ 1
xu 1
ữ 1
hồng 1
chép 1
pi@@ 0.6619505850195812
az@@ 0.7681833189477842
võ 1
ora 1
chị 1
Đoàn 1
Thiến 1
Ví 1
ell 0.6309550694967522
Gr@@ 0.5969554726528984
ay@@ 0.788019682256483
te@@ 0.5235118469275538
gh@@ 1
J.@@ 1
hỏa 1
K 0.9230915245299867
ụt 1
Đan 1
lia 1
góc 1
ev@@ 0.705517565146037
pl@@ 0.4976540482659025
Thiết 1
.. 1
lan@@ 1
Cy@@ 1
Re@@ 0.35473951905670303
ino 0.6470996701364705
chinh 1
quyển 1
ày 1
ừng 1
Ber@@ 0.634872004321949
ây 1
rượu 1
cu@@ 0.7350686950616355
Tất 1
Philippines 1
70 1
hi 1
ổng 1
dium 1
ol 0.7270139090136475
ĩ 1
Như 1
nâu 1
Tương 1
Được 1
ắng 1
90 1
lối 1
soạn 1
vỏ 1
ngũ 1
chắc 1
lis 1
ện 1
te 0.1430024589697584
Lu@@ 1
ạo 1
Lo@@ 0.9708602152058593
Là 1
can 0.2604581357305804
Thường 1
pa 1
dày 1
kia 1
Tiếng 1
dặm 1
ola 1
ôm 1
lưới 1
ộ 1
thỏa 1
bảy 1
kém 1
hổ 1
R 0.6682219570037948
0,@@ 1
To@@ 1
Hầu 1
35 1
ượng 1
ếu 1
vịnh 1
ant@@ 0.6530786367857676
cal@@ 1
tường 1
Ni@@ 1
su 0.10216484488276147
1986 0.7979163252320032
èo 1
inh 1
Tần 1
ngọt 1
hô 1
mệnh 1
G 0.6998875878593459
vỡ 1
eli@@ 1
Mac@@ 1
tụ 1
bạo 1
lỗi 1
Her@@ 0.6852335446005725
45 1
ật 1
nhu 1
web 1
Sal@@ 0.930296841499584
Trang 1
oa 1
ra@@ 0.9569761795591213
tảng 1
iss@@ 1
Sông 1
san 1
úy 1
f 0.5244089462460582
ược 1
Sao 1
nig@@ 1
tấm 1
hiếm 1
E 0.673185288204512
Tuyên 1
ném 1
cục 1
Kar@@ 0.7574539143237662
Tiền 1
chuồn 1
đức 1
Hữu 1
ạng 1
ama 1
Kông 1
Ac@@ 0.8911457401974954
Lào 1
Man@@ 0.6763061869551433
inus 1
trống 1
Sài 1
biện 1
yn@@ 1
1950 0.8488739441674563
Cả 1
ser@@ 0.6652641228810104
đám 1
ạch 1
1987 0.7638384734437492
đồn 1
vẽ 1
ính 1
eta 1
phe 1
thuế 1
ét 1
Luật 1
ưng 1
Be@@ 0.4355333815507029
Har@@ 0.8271507692090277
hư 1
Phim 1
ada 0.20797290926641043
Huy 1
1985 0.7813696656875215
đoạt 1
1942 0.9994291154991595
phỏng 1
Đà 1
ằng 1
United 0.23191816592307984
giọng 1
ion 0.9224050288683431
Toàn 1
Hoàn 1
Hungary 1
cháu 1
kg 1
đốt 1
mong 1
lạnh 1
ema 1
chu@@ 1
Gu@@ 0.6556640583232464
ard 0.5039048504729965
Po@@ 0.8748565790831803
hòn 1
nguyện 1
ba@@ 0.8335353683852756
gai 1
rối 1
đợt 1
xưa 1
đứa 1
vẻ 1
Vòng 1
nh 1
ặng 1
Lộc 1
Phan 1
ếm 1
Ngụy 1
Elateridae 1
co 0.4660689445337393
mỏ 1
sóc 1
Cung 1
Viên 1
sót 1
Tor@@ 0.9625675691602362
500 0.8912752271615209
1981 0.8142014475965401
ah@@ 0.6873353785016321
én 1
za 0.7774816825521179
Cu@@ 1
Mel@@ 1
Môi 1
tọa 1
Nhóm 1
Tác 1
Sử 1
anth@@ 1
Bur@@ 0.7646088687311058
mạc 1
1944 0.8213174974057608
áy 1
giàu 1
Tào 1
3.@@ 1
ắp 1
1979 0.8101563535594745
điệu 1
con@@ 0.29778373177117035
Sa 1
mái 1
1940 0.9124534619933413
der@@ 0.49837034260361524
1984 0.7448328847236543
Ngoại 1
Bạch 1
ói 1
cừu 1
ngừng 1
Te@@ 0.8987479908661983
tám 1
-@@ 0.5306002501421391
ic 0.30667444584520737
Giao 1
nhảy 1
mắc 1
vợt 1
Bel@@ 0.6938925143389953
ú 1
Mer@@ 0.891920373741502
ộn 1
chu 1
cháy 1
ẫn 1
Mas@@ 1
L.@@ 1
H.@@ 1
S.@@ 1
do@@ 0.8186279629510597
vú 1
hà 1
Lạc 1
Quý 1
1@@ 1
nhắc 1
đòi 1
bar@@ 0.5555383016373544
yp@@ 1
aw@@ 0.7435110181400163
12@@ 0.8584212133069997
ê@@ 1
khổ 1
Gòn 1
ới 1
khơi 1
Cát 1
he@@ 0.5538385419924977
cự 1
li 1
Eu@@ 1
ứa 1
Indonesia 1
khám 1
dàng 1
1982 0.77399880139077
ư 1
Grand 0.7716693724733812
George 0.605378035904397
chuỗi 1
dõi 1
ề 1
Séc 1
khái 1
khấu 1
chạm 1
Sar@@ 1
iz@@ 0.6203703131956861
Mỗi 1
’ 0.06372467324911628
ass@@ 0.4834771408056342
ãy 1
Lúc 1
De@@ 0.4914097058359012
chặt 1
Bá 1
Dự 1
ố 1
Ag@@ 1
vinh 1
buôn 1
Me@@ 0.701995538271308
Sp@@ 0.6760738313550781
1941 0.847628445625964
sp@@ 0.4088395010337317
tổn 1
Mc@@ 0.5271830299335165
thiểu 1
lỵ 1
32 0.9808641303876182
1983 0.7574054407834884
chăm 1
Thu 1
ỗ 1
olo@@ 1
Album 1
cãi 1
ồ 1
ius 1
voi 1
cr@@ 0.48407841319783257
Ro@@ 0.6383500266376001
bèn 1
pr@@ 0.3705041305500344
Và 1
thai 1
Uy 1
1972 0.76160637227081
1943 0.8998927362715075
anum 1
Tôi 1
ị 1
Str@@ 0.5754749706280664
Hương 1
xo@@ 1
ệm 1
ù 1
thạch 1
Mo@@ 0.6150380531633808
land 0.270067205164388
ỉ 1
tim 1
Thương 1
William 0.5248850385905227
Bor@@ 0.8986256044256029
1978 0.7799213980355251
Israel 1
Pal@@ 1
lôi 1
óng 1
thảm 1
von 0.037001412081185424
James 0.5659494115692185
Cho 1
tựa 1
Ngay 1
cất 1
ninh 1
ō 1
cột 1
ong@@ 1
1930 0.9370795251501918
hứng 1
uy@@ 1
1976 0.7706377445447256
ini 0.7309677256977763
Truyền 1
Cẩm 1
FC 0.742423923958386
gen 0.8921623747576956
— 0.04981081721819339
bia 1
ulata 1
0@@ 0.9689569468164693
viễn 1
cướp 1
tệ 1
dứt 1
tri 1
Bên 1
oni@@ 1
xưng 1
w 0.5282306574751213
bối 1
L. 1
cốt 1
der 0.013380517407458803
anthus 1
àm 1
So@@ 0.9328367801114124
aj@@ 0.8075546042980377
chắn 1
giam 1
ường 1
Thư 1
Cúp 1
đón 1
chậm 1
Phiên 1
Võ 1
R.@@ 1
300 1
Crambidae 1
Bu@@ 1
all@@ 0.5786001142507757
ũng 1
sàng 1
Mô 1
nghèo 1
48 1
ìa 1
ter 0.1795414282156664
ủ 1
Á@@ 1
Kr@@ 0.74839723025782
Du 1
13@@ 0.825003525245357
Biển 1
Mu@@ 1
è 1
inc@@ 0.7930761152472677
ổi 1
dừng 1
mồi 1
ota 1
pes 1
se 0.036788609314306296
yi 1
mu@@ 1
Syria 1
sẻ 1
ania 1
Poly@@ 1
ụy 1
ọ 1
Bal@@ 0.7259759110814218
ox@@ 1
ể 1
ngồi 1
Bọ 1
gu@@ 0.5341737474785819
65 0.9446208430448904
ãng 1
ặt 1
kiêm 1
Ko@@ 1
Ver@@ 0.2362491580307098
Pter@@ 1
1968 0.7353233131459918
thả 1
trúng 1
dàn 1
kèm 1
ke 0.4263309647267638
pal@@ 1
ạp 1
Biên 1
ần 1
Hàng 1
kêu 1
non 0.4065614629336184
khẳng 1
1946 0.8796607397944326
Pl@@ 0.8833923219772497
Dưới 1
Pol@@ 0.8351524973485172
alb@@ 1
Sel@@ 1
chở 1
hung 1
ực 1
lái 1
Trị 1
răng 1
Nhạc 1
Ma@@ 0.6404108555275818
Âm 1
Vùng 1
Xuyên 1
14@@ 0.9310859258843124
TV 0.5815002407233144
cỡ 1
ềm 1
Mục 1
si 0.5214291516245853
oni 1
Tài 1
ym@@ 1
Ser@@ 0.8911328252350462
chín 1
1973 0.735793821627833
gr@@ 0.3218073734094797
triết 1
ex@@ 0.27910810860087665
dư 1
khuôn 1
thuê 1
tan@@ 0.9354803622879349
cụm 1
huyết 1
1954 0.9825974133773683
khuyến 1
sánh 1
cin@@ 1
Vinh 1
Charles 0.5474093519488993
đậu 1
aph@@ 1
ill@@ 0.5086845875823348
tần 1
Luân 1
ok@@ 0.8277760149654991
ngọn 1
thải 1
Tiêu 1
Mai 0.7388029764631532
ly@@ 1
tông 1
Bằng 1
đồi 1
pe@@ 0.6010897286654521
Ngân 1
Trichoptera 1
tha 1
Can@@ 1
ma@@ 0.7717997691130039
1974 0.7008309749674841
ậm 1
cer@@ 0.9139240860735918
Pi@@ 0.8580807843088172
by 0.02372824468424219
cam 1
ale 0.26129625297263925
ten@@ 0.4362543654788206
1965 0.7942949180864717
Duy 1
ari 1
Limoniidae 1
M.@@ 1
Trời 1
ầy 1
atr@@ 1
mảnh 1
lin@@ 0.7117185027433127
Quyết 1
Phước 1
Henry 0.7980371291049594
City 0.31397592341827824
Tu@@ 1
Windows 1
hỗn 1
ek@@ 0.5255600880581963
ọc 1
km2 1
Ireland 1
Dr@@ 0.9087685586975107
ek 0.8469897455224853
M. 1
Ca 1
Al 0.6205443893161949
Kể 1
chứ 1
lỗ 1
Campuchia 1
aya 1
fer@@ 0.5446268273214799
col@@ 0.44606770921943756
ậu 1
… 0.8436480969311373
Cer@@ 1
tiêm 1
Chân 1
Thọ 1
quen 1
Sy@@ 1
opo@@ 1
ệp 1
gấp 1
ộng 1
Tứ 1
ớt 1
ếch 1
4.@@ 1
đệ 1
ed 0.056193275745368546
ops 1
1977 0.7165739719688305
cor@@ 0.485863237106775
òi 1
ran@@ 0.6714336117367437
á@@ 0.5666223646823719
Malaysia 1
ni 0.6211496465978185
Ma 1
Mạc 1
1967 0.7394986564128098
ł@@ 1
tô 1
West 0.406915518100915
ann@@ 0.8277141464179196
Mạch 1
vở 1
ler 0.2640239575814448
tân 1
ênh 1
cel@@ 1
chìm 1
mac@@ 1
ila 1
tidae 1
miệng 1
ó 0.169877580388874
Hi@@ 1
sc@@ 0.7125214251047418
ẩu 1
Hal@@ 1
sữa 1
út 1
Phụ 1
Dù 1
ey 0.5662646653251745
min@@ 0.5210938169380172
David 0.5268270270065444
vui 1
1964 0.747939112114912
sky 1
vết 1
Đảo 1
ers 0.10527752465605784
Huế 1
Quyền 1
eri@@ 1
ene 0.49199545974959813
Ri@@ 0.8718361907158211
Pro@@ 0.5808198872886697
dã 1
cản 1
lang 1
than 0.20513953625639464
phu 1
Robert 0.5218428502775702
ranh 1
1963 0.7991013697692189
38 1
Đinh 1
ướng 1
Cas@@ 0.8733140110061046
Hình 1
Washington 0.6664829440657685
ỏ 1
lọt 1
òm 1
Is@@ 0.8517254215802871
dinh 1
ent@@ 0.21009331209282384
33 0.9890641956072388
ō@@ 1
Tachinidae 1
vạn 1
Động 1
Ukraina 1
1939 0.7303100777685235
Do@@ 0.9639752460051944
re 0.261552235658349
Hol@@ 0.8568355162894811
IV 1
khích 1
Singapore 1
ib@@ 0.8704963358888425
phúc 1
chấn 1
ce 0.16256997545009066
ơn 1
F.@@ 1
Tàu 1
gen@@ 0.37361801835305997
tam 1
ọng 1
awa 1
uyên 1
Mexico 1
be@@ 0.19424609921302866
may 0.2722534391691554
im 0.04241733173660508
Paul 0.4594801042969769
ển 1
mer@@ 0.400630508256079
Tình 1
trạm 1
Hel@@ 1
Tak@@ 1
Hạm 1
vững 1
ta@@ 0.7728570219255718
ễu 1
Vị 1
ax 1
Pennsylvania 1
64 0.9664825552284309
Tar@@ 1
j 0.9191063732827986
Ab@@ 0.2461762888695843
B.@@ 1
flav@@ 1
Kế 1
Ge@@ 0.524597486375779
Thứ 1
úng 1
Dung 1
Trọng 1
Cha 1
str@@ 0.39179671581427344
Đôn 1
Đó 1
1971 0.6460048141766987
ngư 1
52 1
ngại 1
cương 1
ngợi 1
end@@ 0.3553260677674017
hẹp 1
J. 0.8828137777206959
osus 1
kỵ 1
đẻ 1
dr@@ 0.4158919803530467
rom@@ 1
ệu 1
36 0.9866337493330162
uc@@ 0.9455483683678335
Đa 1
òng 1
Cái 1
1920 0.7579802274264049
34 1
ver@@ 0.11920025253538699
if@@ 0.7106040150804552
lũng 1
hy@@ 1
van 0.937694226197785
Ly@@ 1
1969 0.6772864987596309
thu@@ 1
Pseud@@ 1
hoảng 1
1962 0.7571642363496914
Q 1
Ak@@ 0.9702909763687942
ven 1
Tur@@ 0.8526260575056637
Thực 1
ử 1
thang 1
ip@@ 1
đầm 1
men 0.2563547767482644
lợn 1
cú 1
Nghiên 1
trầm 1
1956 0.773802676682924
ax@@ 1
màng 1
ùm 1
ice 0.4866510762688645
canh 1
áu 1
Liêu 1
thách 1
ae@@ 1
Fr@@ 0.5989141987538831
Sa@@ 0.8598959416561136
Illinois 1
Trưởng 1
af@@ 0.37473206894732763
cát 1
tor@@ 0.47558700599888154
kỉ 1
Chiêu 1
Du@@ 0.9145446655992713
top 0.4729112426030727
Louis 0.5992297759708252
zi@@ 0.9832429103471325
khuẩn 1
Lăng 1
los@@ 1
cán 1
Lee 1
alli 1
H. 1
ji 1
55 1
ẫm 1
Quy 1
oh@@ 1
uk@@ 0.9341782449482363
1955 0.8443327961716005
ghế 1
uy 1
Diễn 1
ểu 1
aea 1
fr@@ 0.5079119779737374
1966 0.7001411690402791
lẻ 1
Bỉ 1
ow@@ 0.6510467741854703
thuần 1
kho 1
ngàn 1
ựa 1
ự 1
mạn 1
thép 1
Vụ 1
ez@@ 0.8617868371178791
ưỡng 1
Mes@@ 1
adi@@ 0.8930820218347705
id 0.5594265630889994
eh@@ 0.4339221160723459
não 1
Song 1
ọn 1
khổng 1
ùn 1
mel@@ 0.8716140883872739
Khoảng 1
sụp 1
Nông 1
Hùng 1
chụp 1
lỏng 1
Tề 1
Bảng 1
Pe@@ 0.7638291232419316
01 1
He@@ 0.5038686618723036
Ger@@ 0.6052428550942802
Lãnh 1
xuân 1
thầy 1
47 1
br 0.6653345316626781
dải 1
lồ 1
dis@@ 0.15829768469191852
ri 1
Đệ 1
37 1
trương 1
duyệt 1
E.@@ 1
il 0.06088258694827017
ản 1
long 0.2995435326254658
om 0.796070913730948
1,@@ 0.9492324919272511
isti@@ 1
nhấn 1
S. 1
xấu 1
Tuấn 1
75 1
Mat@@ 0.7539513796624114
London 0.3776082680323833
Min@@ 0.7265181295463747
can@@ 0.6754138568529607
già 1
hiển 1
ze@@ 0.9646790732117693
chợ 1
Texas 0.7876585342360632
ile 0.3216717476032175
hy 1
bụi 1
Điền 1
muối 1
ve 0.09590898304909509
At@@ 0.8960672310194139
1958 0.7376233581336736
por@@ 0.6109663564471518
dường 1
Ex@@ 0.4027245495665205
Mic@@ 1
mọc 1
1947 0.7682456471484316
1936 0.7985984907131929
Cần 1
Thi@@ 1
Phil@@ 1
illa 0.812941126102142
Com@@ 0.478657858939335
berg 0.4200101698204715
khung 1
q@@ 1
Si@@ 1
cà 1
xám 1
ảng 1
ok 1
5.@@ 1
Vi@@ 0.9558977473904936
Khang 1
flora 1
400 0.8883868808926805
Maria 0.8761763804531821
Zealand 1
esia 1
ili@@ 0.8230124811777426
Kur@@ 0.8763650649489794
go@@ 1
dao 1
ai@@ 0.9856671898583437
vir@@ 1
ón 0.4477628400784391
gián 1
yg@@ 1
sạch 1
ja 0.5722203203327199
hoan 1
44 0.9709462978831254
Hiếu 1
phú 1
Iran 1
pop 1
ash@@ 0.9295128437848262
pan@@ 0.8826361494496923
anime 1
nhạt 1
42 1
Ad@@ 0.5464388439397649
ão 1
Entertainment 1
thoái 1
ửa 1
ùa 1
ira 1
hộp 1
nòng 1
nương 1
Tokyo 1
49 1
phi@@ 1
Vườn 1
Tĩnh 1
niềm 1
ều 1
ere 0.46007131543004914
Ste@@ 0.7217846928734002
lạ 1
đập 1
× 1
ey@@ 1
chuột 1
sợi 1
Kun@@ 1
thám 1
com@@ 0.3043059066135312
Gar@@ 0.7796777516551223
khu@@ 1
Nhất 1
1961 0.7059222885474813
ud@@ 0.8707174645034825
Michael 0.5390581943010725
du@@ 0.6093244519986754
1949 0.7285704269423664
1959 0.7292238223436022
chăn 1
oxy 1
Hyp@@ 1
lọc 1
nét 1
thọ 1
tiềm 1
Thomas 0.46929653228712026
CP 1
èn 1
tứ 1
mê 1
Iowa 1
act@@ 1
ọt 1
Val@@ 0.6450152822761739
tháo 1
tung 1
Argentina 1
46 1
Dakota 1
Bệnh 1
ko 0.866773939908489
viêm 1
ngực 1
Xương 1
Nghi 1
ane 0.5615344752791254
ngủ 1
sưu 1
Vệ 1
nghìn 1
Ohio 1
hào 1
hang 1
usa 1
ner 0.3051455832667349
xoay 1
Andr@@ 1
Thiệu 1
$ 0.2402429967671848
Huệ 1
đi@@ 1
Giống 1
Ur@@ 0.7196547613350249
sơn 1
ato 0.6260704734211521
elia 1
Dịch 1
bột 1
uli@@ 1
Giai 1
ứ 1
del 0.03282691833619801
Hoài 1
Billboard 1
ev 1
Trich@@ 1
son@@ 0.8526536821157881
Ư@@ 1
tel@@ 0.5988541863817337
dae 1
51 1
ỏi 1
chờ 1
P. 1
1957 0.7285609011439002
Ngôi 1
ty@@ 0.8567595748943913
ễn 1
Quần 1
Sem@@ 1
đàm 1
Quản 1
ơm 1
1953 0.7698770950095076
For@@ 0.4275492478020557
México 1
sus 0.18520980727113173
mi 1
andra 1
ựu 1
UEFA 1
You 0.7762662378765095
bọc 1
lắp 1
Plat@@ 1
ìn 1
ori@@ 0.7979549224366227
Tiếp 1
me@@ 0.43737163677379315
Đỗ 1
Tro@@ 1
Scotland 1
cưới 1
dược 1
khôi 1
ite 0.2649117971610043
í@@ 0.4156131130447942
tig@@ 0.8762360424692082
trần 1
amb@@ 0.8996312862832768
Mag@@ 0.6946601352835551
hâm 1
Sách 1
č@@ 1
yên 1
bấy 1
Cl@@ 0.8782866310032392
mat@@ 0.6754298862520437
xi@@ 1
ou 0.12177102230718995
virus 1
protein 1
cul@@ 0.860917511777257
amp@@ 0.7300541080249733
lăng 1
1938 0.6827987542347743
hạnh 1
yl 1
trông 1
lar@@ 0.8686042984396207
mèo 1
unc@@ 1
E. 1
dâng 1
ưởng 1
den 0.027952188084687496
thợ 1
điệp 1
sin@@ 0.7034679186876983
mát 1
2,@@ 1
har@@ 0.48178170391325265
Huyền 1
sil@@ 0.8774316781197502
ami 1
orum 1
Viễn 1
1948 0.6407476613009798
Cre@@ 0.8831646256982915
Đơn 1
bi 1
Môn 1
1937 0.7508971942738186
Thuật 1
bè 1
Tô 1
ặn 1
53 1
ir 0.3325698556563609
thiệp 1
54 1
ủi 1
War@@ 0.8226457878867939
hoà 1
mai 1
mãn 1
escens 1
Chiếc 1
hắn 1
Hem@@ 1
Cuba 1
My@@ 1
bạch 1
chút 1
trộn 1
giận 1
Mẹ 1
Park 0.37549471640043497
ỵ 1
sen 0.4816001259270783
1951 0.7760568597972131
43 1
Mur@@ 1
Huấn 1
xưởng 1
bọn 1
đáy 1
les 0.025430583280873616
39 1
ruột 1
Tướng 1
Pot@@ 1
oi 1
dáng 1
Music 0.48901133204720953
P.@@ 1
Video 1
Cửu 1
khen 1
thận 1
nô 1
00 0.9459800397279966
ville 0.2340525007669396
20@@ 1
est@@ 0.26638381346089923
hồn 1
ớ 1
hầm 1
France 0.2003172461773811
Đặng 1
Nguồn 1
mươi 1
South 0.2265715331614722
Còn 1
ry@@ 1
Lợi 1
cap@@ 0.5236951781188603
lân 1
Myr@@ 1
nhượng 1
icum 1
Des@@ 0.7640264574230262
Sil@@ 1
Khắc 1
ons 0.18554440932371366
for 0.014943945201649758
06 1
Phục 1
72 1
1952 0.6882683759165018
tóc 1
Kỹ 1
41 1
Os@@ 1
ye 0.5442896783430892
Chung 1
Sen@@ 1
ung@@ 0.5690665986211367
Báo 1
khoáng 1
Ros@@ 0.6551935128058133
me 0.28503749837505377
Phủ 1
Cảng 1
pp@@ 0.783777271649719
7,@@ 1
pu@@ 0.6549339707816714
Cat@@ 1
idaceae 1
bùng 1
phus 1
l. 1
Gal@@ 0.6717403661302028
mơ 1
ore 0.4440284498185436
ub@@ 0.9264049487966888
Latinh 1
ngo@@ 1
ros@@ 1
ỗi 1
eria 1
nhuận 1
ro 0.9176134681192988
đốm 1
khuyên 1
Anth@@ 1
Thừa 1
lô 1
úp 1
ref 1
1934 0.7848132940178778
Go@@ 0.6504562141705165
1929 0.7945974457769533
tica 1
Hor@@ 0.7907545264167759
hưu 1
Sam@@ 0.8675196074879256
dịp 1
Cop@@ 1
are 0.03964765275820834
Nước 1
ngập 1
phẳng 1
ngự 1
1935 0.7659421019162236
Chánh 1
đợi 1
7.@@ 1
Kan@@ 0.9631489829102668
ot 0.4797562205895274
6.@@ 1
nhị 1
éo 1
Tâm 1
Phù 1
Cây 1
ese 0.34117387354790973
Richard 0.5593981125820957
chư 1
asi@@ 0.8385147660768941
phy@@ 1
abr@@ 1
Sol@@ 0.6132038159332935
kín 1
lồng 1
Internet 1
uta 1
0.000 1
Eri@@ 1
hề 1
aga 1
iv@@ 0.7851236198908242
bre@@ 0.4415993802573929
lãm 1
Máy 1
lưỡng 1
ole@@ 1
tĩnh 1
Ngũ 1
lật 1
chàng 1
6,@@ 1
rot@@ 1
thẻ 1
căng 1
of@@ 0.7149320547740144
05 1
58 1
ler@@ 0.47162397854391924
Berlin 0.4101119541553687
ali@@ 0.6558862936348717
ă@@ 1
Martin 0.5680342909628795
ford 0.48267308132519465
phẫu 1
uyển 1
02 1
Ta@@ 1
56 1
Quá 1
57 1
Hir@@ 1
Lao 1
ase 0.492369613435598
und@@ 0.48443531478492197
Hơn 1
AS@@ 0.9627428187392881
Ô 1
B. 0.5689040964916571
Bol@@ 1
Mad@@ 0.772569669820024
ót 1
pul@@ 0.7782538238556289
den@@ 0.46879800534472993
tuyết 1
Bang 1
Giới 1
rã 1
ếng 1
men@@ 0.5260353826611291
Huân 1
chôn 1
King 0.42391633716617977
Mus@@ 0.7076276402349904
long@@ 1
opus 1
th 0.2385691993738034
Thắng 1
Tường 1
loc@@ 0.5627471520802286
bl@@ 0.2973659246975605
zy@@ 1
Nhi@@ 1
xong 1
Asilidae 1
giây 1
đèn 1
thus 0.9217682117810349
sk 1
Bl@@ 0.5736753273931205
1931 0.8264639108570097
Pan@@ 0.7588961604859279
agn@@ 1
ge@@ 0.18639042390043706
Mộc 1
mượn 1
ff@@ 0.47493652711765805
thr@@ 1
Tipula 1
Wales 0.9420904633893277
Manchester 1
1914 0.7527431837443009
D. 0.9259708550837815
Cos@@ 1
aki 1
ā@@ 0.7146937353421445
Kho@@ 1
óm 1
ghép 1
ó@@ 0.5068291045297183
1918 0.628149559068238
Ang@@ 0.6141488398830544
ũ 1
ớn 1
é@@ 0.16797708158407926
Hu@@ 0.747932435827348
phila 1
1900 0.8760911333026742
yo@@ 1
vit@@ 1
CD 0.783596759548168
lúa 1
Lập 1
62 1
nề 1
Ly 1
rau 1
Por@@ 0.8564635681721117
thịnh 1
Hàm 1
age 0.09527978989820207
sạn 1
mag@@ 0.7084523044211414
Sph@@ 1
Ba@@ 1
Minnesota 1
ens@@ 0.25734514066362346
Mol@@ 1
tươi 1
Phái 1
Edward 0.845830791398983
lằn 1
tar@@ 0.6129040059289017
Tạng 1
nạp 1
eti@@ 1
gon 1
Mil@@ 0.7644291232328259
rock 0.5549609190684521
El 0.07191674489537474
ạm 1
1912 0.8297365801747727
Kansas 1
nỗi 1
arg@@ 1
Cải 1
cổng 1
dâm 1
vé 1
W 0.5741001101134796
Los 0.18320464682259444
anti@@ 0.4791810822931297
Hi 1
bút 1
gỡ 1
No@@ 0.8415655012807983
nia 1
Sm. 1
ator 0.3108738981081855
One 0.3443382780382493
nấm 1
iy@@ 1
dò 1
huyền 1
Siêu 1
Ấu 1
for@@ 0.23398159236718669
ine@@ 1
Love 0.8154111170067387
Dol@@ 1
Trà 1
Trăng 1
ảy 1
1891 1
ngã 1
lặp 1
ẩy 1
Kitô 1
Wil@@ 0.6430219196049765
03 1
63 1
09 1
Cam@@ 0.8731782199568281
sườn 1
bor@@ 0.6502034840855191
cus 1
nấu 1
Ram@@ 0.8688181719673054
mỹ 1
Thập 1
tuân 1
m. 1
ug@@ 0.7083450708974007
punc@@ 1
kịp 1
io 0.44099719754457206
ela 0.7665931383391077
tes 0.2094211581719972
Sản 1
Kam@@ 1
ide 0.769268198748021
Mak@@ 1
Ter@@ 0.8252552720014246
Bre@@ 0.592343497128629
ỡ 1
ảm 1
Jean 0.32183771692353863
95 1
điền 1
08 1
lam 1
Bùi 1
K. 1
lò 1
Diên 1
sur 0.06218717081488132
axit 1
600 1
nhãn 1
nhịp 1
fl@@ 0.357433580818828
lum 1
ngưỡng 1
Ru@@ 0.7280764377974789
Dòng 1
khứ 1
yth@@ 1
Lượng 1
1933 0.6200897096137785
mấy 1
Bị 1
1922 0.7844298481449742
Thạnh 1
1917 0.7225360045309823
gợi 1
Hạt 1
Neuroptera 1
ny@@ 1
š@@ 0.7924737508728555
Lữ 1
eng@@ 0.3659038720664597
vang 1
ess@@ 0.4143768197699162
ộm 1
W.@@ 1
aka 1
1913 0.8802081887550285
04 1
tur@@ 0.38180046718158334
poly@@ 1
Del@@ 0.7656572938751873
lệch 1
hal@@ 0.5623356606236477
aci@@ 0.9059130909169947
Moskva 1
sàn 1
ster@@ 0.7437750892088891
thung 1
don@@ 0.8116806549297828
Friedrich 0.7655063284575147
treo 1
Tháp 1
ft 0.6083106822496044
urus 1
uch@@ 0.8068265308485708
1932 0.7305550437765004
1924 0.7429492914947191
ac 0.5981947982946244
Joseph 0.47771590128977415
oz@@ 1
bê 1
rô 1
Dor@@ 0.8829290760191089
8,@@ 1
nàng 1
gan 1
Hydro@@ 1
1925 0.7712762429105632
Iraq 1
ova 1
Vô 1
mor@@ 0.5273086153707552
Scarabaeidae 1
củng 1
ent 0.07680120246083547
ãnh 1
lành 1
1908 0.944884820106397
Đăng 1
sk@@ 0.4126281904345349
thuẫn 1
đáo 1
Kỷ 1
cas@@ 0.3892007829106444
Lepto@@ 1
Khu@@ 1
inch 1
lầm 1
mây 1
07 1
Tuần 1
ito 0.6426009524088186
Rob@@ 1
mer 0.3917289525972744
bồi 1
bền 1
Smith 0.5944623541084402
nêu 1
tin@@ 1
Bất 1
bơi 1
dời 1
thằn 1
dỡ 1
85 1
Jackson 1
1919 0.6283380201259299
ahalli 1
đậm 1
J 0.7178250125808033
đựng 1
Nag@@ 1
Trinh 1
astr@@ 1
ve@@ 0.5691617429218817
I. 0.7010039022583787
Tùng 1
nhầm 1
Ol@@ 0.7849734540062208
tro@@ 0.6593545480917126
Cực 1
1910 0.7982663411921979
1916 0.9073557075424211
59 1
ts 0.10281170995911575
Kal@@ 0.7377086727551732
Le 0.05663887120852426
Pakistan 1
sa@@ 0.6822026421942184
Phường 1
1905 0.8963417127083984
điêu 1
1911 0.8917932916854927
T.@@ 1
cong 1
uyết 1
ợ 1
Mao 1
ịch 1
Thơ 1
ali 0.8778147256087483
St. 0.2984530576435425
bur@@ 0.48603367983577295
lắng 1
G.@@ 1
San@@ 0.6547931786587368
ọi 1
pin@@ 1
Cà 1
Colombia 1
tang 1
Tom@@ 1
antha 1
Quả 1
manga 1
ậy 1
ech@@ 0.6251730729932972
field 0.23540309398226886
Brazil 1
Top 0.9176144034093895
Phía 1
Bayern 1
yd@@ 1
Hoạt 1
3,@@ 1
xứng 1
sy@@ 1
Micro@@ 1
Loire 1
Lind@@ 1
Peter 0.40632041651216677
ươ@@ 1
F. 1
suối 1
Vịnh 1
Aran@@ 1
Brach@@ 1
150 0.9415616011099998
quát 1
sis 1
ori 1
K.@@ 1
Gor@@ 1
ation 0.0465069976048496
Kính 1
ỗng 1
Alpes 1
Hiệu 1
Met@@ 1
Lit@@ 1
USS 1
lãng 1
ời 1
ẫy 1
mãi 1
D.@@ 1
b. 1
Tu 1
800 1
8.@@ 1
gl@@ 0.6279438756983661
ins@@ 0.46198695109753235
mì 1
xóa 1
Đôi 1
Vạn 1
don 0.7032539882643473
nở 1
hỏng 1
lidae 1
ko@@ 0.9230521159030148
quy@@ 1
1927 0.7228837772830856
isa 1
Heter@@ 1
ami@@ 1
Tế 1
66 1
La@@ 0.908259485589285
Dar@@ 0.5776132767792678
eli 1
sổ 1
Afghanistan 1
Thiện 1
1923 0.7435089561182974
ND 1
ast@@ 0.6384025488845196
soái 1
Es@@ 0.45756615282723956
Mah@@ 0.7595058027507019
Sten@@ 1
đúc 1
the@@ 0.6137308619239288
phế 1
her@@ 0.2597219180830297
61 1
Müll 1
chẽ 1
aris 1
q 0.9129067393918538
ùi 1
Missouri 1
Ry@@ 1
tật 1
2022 0.5695864366009231
bic@@ 1
cạn 1
Lam 1
Men@@ 0.865927704342472
tii 1
ach 0.3550461664973904
Giá 1
philus 1
Xi@@ 1
Cương 1
R. 0.9606305929969681
73 1
Bối 1
Me 0.9264738634364281
xóm 1
Ke@@ 0.7618130761089501
1906 0.9379987444458256
gói 1
Man 0.6175950301526253
bium 1
leo 1
sia 1
1928 0.6404078409700288
76 1
77 1
uma 1
orus 1
buồn 1
Lep@@ 1
9.@@ 1
5,@@ 1
da@@ 1
88 1
ằm 1
Schl@@ 1
táng 1
ham 0.8821431494317813
TV@@ 1
ha@@ 0.6656567948252564
ướt 1
phun 1
Chu@@ 1
ind@@ 0.6148137137310632
mảng 1
alia 1
àu 1
Ky@@ 1
aus@@ 0.15379201564207662
71 1
9,@@ 1
ớp 1
sti@@ 0.6244495687063074
Baker 1
fus@@ 1
Venezuela 1
Phyl@@ 1
Australia 0.34769993956503736
Bulbophyllum 1
67 1
ỳ 1
Hướng 1
nhắm 1
sim@@ 1
ard@@ 0.5655620466248918
69 1
ette 0.2999149636402578
sừng 1
Đo@@ 1
pic@@ 1
hr@@ 0.9569648648867373
ỉnh 1
68 1
Kat@@ 0.77055472552789
dẹp 1
hoãn 1
Mord@@ 1
cho@@ 1
ick@@ 0.4606560185572232
ngh@@ 1
Tinh 1
quái 1
Tin 1
ie@@ 0.5833623700081738
ski 0.706275136931989
ts@@ 0.3364384712063941
Nẵng 1
ifolia 1
DNA 1
v.@@ 1
formis 1
lam@@ 0.626764065064198
Bas@@ 0.5867307876315512
Cói 1
Mật 1
enia 1
Chấp 1
mừng 1
hứa 1
ophyllum 1
Olympic 1
chuông 1
Ân 1
Tú 1
Bố 1
ky 0.7041094293678352
trinh 1
Hook@@ 1
De 0.21905900183084523
giỏi 1
sul@@ 1
ularis 1
nhựa 1
ul 1
Nho 1
Far@@ 0.6801176865336411
Super 0.7683434457669994
chào 1
cống 1
Cle@@ 1
ẹt 1
Pas@@ 0.697050860332137
osum 1
Meg@@ 1
ấc 1
ýt 1
79 1
nợ 1
ony@@ 1
Mở 1
Simon 1
tata 1
Han@@ 0.8674615517762736
khía 1
Microsoft 1
túi 1
Thiền 1
cl@@ 0.32861143471151394
Mary 0.5517156703353837
Ap@@ 0.6904036534010448
nhì 1
Ath@@ 1
ello 0.6373697693333054
ũi 1
ber 0.3887463913353913
86 1
Kol@@ 0.7852793316624213
đỗ 1
ace@@ 1
đói 1
My 0.8304209255310805
74 1
Đỏ 1
hạc 1
kov 1
Lệ 1
Mãn 1
bữa 1
Guinea 1
folium 1
mann 0.3470123681993001
Nar@@ 1
Angeles 0.5696375189072949
quét 1
ren@@ 0.34260909269941703
Char@@ 0.4415679775202668
odon 1
98 1
eci@@ 1
Thục 1
Apidae 1
mal@@ 0.4721687837010669
ophyl@@ 1
ưỡi 1
yph@@ 1
bon 1
acid 1
Điểm 1
Sáng 1
uyện 1
Mit@@ 0.7774126409015627
Der@@ 1
Sak@@ 1
Gen@@ 0.5096695109886558
eni@@ 1
Lim@@ 1
Vol@@ 0.6589072175557056
đâu 1
Ham@@ 0.8303713142051684
lep@@ 1
Oc@@ 1
.f. 1
Av@@ 0.7810967213169568
1926 0.6647914012866287
ab 0.17695474604841996
eum 1
Lỗ 1
84 1
bốc 1
thô 1
ut 0.5571500835747651
Salticidae 1
phấn 1
mùi 1
lừa 1
Est 1
longi@@ 1
wa 0.45257409771016033
gạo 1
Thất 1
ạnh 1
gar@@ 0.5107077017729509
1909 0.9029547132166589
enn@@ 0.5061092208467765
Trân 1
yan@@ 1
ulus 1
Đi@@ 1
1921 0.6714636481035758
Chiều 1
otus 1
Hot 1
ich 0.4578000013736402
Tín 1
otis 1
4,@@ 1
ắk 1
trâu 1
mỏng 1
Cap@@ 0.9122065289963786
yst@@ 1
Fre@@ 0.4228528402179892
ary 0.15997616604328316
thỉnh 1
Santa 0.4727724411862206
Thịnh 1
optera 1
1895 1
Il@@ 0.8552016118264859
bây 1
õ 1
anensis 1
ten 0.07365692533225787
Khai 1
Quỳnh 1
ani@@ 0.9753234326935084
Kor@@ 0.6585487023735612
sọc 1
tal@@ 0.5914125131094683
Cấp 1
súc 1
v. 1
Cụm 1
ian 0.3694455195631575
hằng 1
Ha@@ 0.6977207492802675
T. 1
od 0.6735432795690377
sốt 1
Chile 0.897897108365402
Lyc@@ 1
cúp 1
Seoul 1
Francisco 0.5074389234616604
Qua 1
1915 0.7662407544937798
Hitler 1
ịt 1
Florida 0.665915794461252
Đ 1
dom@@ 1
huy@@ 1
thôi 1
nhọn 1
Cam 1
ush@@ 1
kar@@ 0.674236105138703
ish@@ 0.5729895299146364
ứt 1
hẹn 1
tốn 1
kiên 1
up@@ 0.3245574238241673
Nak@@ 1
Khí 1
cat@@ 0.5370066993060587
đòn 1
Division 0.3011859709741545
Nguyệt 1
rạp 1
iro 1
Thay 1
tỏa 1
Serbia 1
trich@@ 1
Lư 1
chục 1
Nov@@ 0.9786310276258681
Trạch 1
phiến 1
rạn 1
osp@@ 1
Tối 1
tràn 1
uyền 1
dội 1
Ay@@ 1
burg 0.5262413786406311
ỉ@@ 1
lõi 1
nồng 1
Quỹ 1
ẳng 1
Loại 1
Lin@@ 0.6920534376018423
Ottoman 1
xu@@ 1
bông 1
99 1
Mười 1
Virginia 0.5962274337842973
ellus 1
sel@@ 0.39591076999649394
off 0.1926909831695055
82 1
ểm 1
ễ 1
81 1
Dicran@@ 1
Football 0.4781613906763152
st 0.3074253655631541
Pa@@ 1
FA 1
tum 1
Not@@ 0.8645700978453401
vịt 1
òn 1
ous 0.14751786400794303
78 1
Camp@@ 1
Champions 1
hẳn 1
Bạc 1
Mark 0.6118154018570346
didae 1
phổi 1
sen@@ 0.4252512578980435
len@@ 0.6153612911255277
lão 1
ruộng 1
Xuất 1
dốc 1
oto 1
inae 1
Thi 1
eph@@ 1
Lasi@@ 1
mìn 1
ìm 1
xích 1
Ben@@ 0.5802925106064184
Sải 1
ửu 1
Mẫu 1
ger@@ 0.30992837314827915
túc 1
ằn 1
83 1
Nhờ 1
ain@@ 0.5222043429794374
ps 0.3386911456349338
trượt 1
duệ 1
luân 1
Eur@@ 1
inia 1
bul@@ 0.4918376648782464
Roma 1
mòn 1
osper@@ 1
Euc@@ 1
Jo@@ 0.8125869351637224
Google 1
gọn 1
khẩn 1
mạo 1
Em@@ 0.5082659853391018
nút 1
ř@@ 1
Dũng 1
be 0.03226447694161491
Khmer 1
Az@@ 0.8605763147153708
liều 1
oshi 1
Cro@@ 0.832126805136308
Đời 1
Uy@@ 1
pil@@ 0.7816777763283554
93 1
Lang 1
Lâu 1
sii 1
Arg@@ 1
onidae 1
Bulgaria 1
Thăng 1
cá@@ 1
xướng 1
FIFA 1
acea 1
asc@@ 0.927266886516843
Armenia 1
Vi 1
pol@@ 0.4475286033502548
char@@ 0.6061651696683293
ick 0.37048930271971103
iana 1
ilis 1
Kiều 1
apo@@ 0.5912806610455943
Astragalus 1
ect@@ 1
Diego 1
Disney 1
România 1
Sang 1
Hawaii 1
Kiểm 1
ười 1
Căn 1
huống 1
oy@@ 0.7952456343969433
ant 0.07043466341182704
5.000 1
ticus 1
Đĩa 1
CH@@ 1
cy@@ 1
he 0.022266733877774374
đứt 1
Khải 1
We@@ 0.42461137852522157
Karl 0.6108510772980773
cối 1
000 0.44369626746224655
rồng 1
# 0.4867493820941046
vời 1
ừa 1
91 1
ric@@ 1
vil@@ 1
inn@@ 0.6455106924928318
Oscar 1
mờ 1
Don 0.7124084159525987
hưng 1
lạm 1
ans@@ 0.5040699972283488
Mạng 1
Trò 1
béo 1
iti@@ 0.4349200390204808
1903 0.8949791115492585
ín 0.6896914450166812
Binh 1
eng 0.9835598502858198
COVID 1
Tăng 1
bội 1
pos@@ 0.31059932284416936
Hổ 1
Cử 1
Tùy 1
ci 0.39958351700527617
dắt 1
tre 0.6943569744024163
92 1
ẻo 1
Ec@@ 1
lat@@ 0.6074534308366987
Viết 1
North 0.18986362613289298
duyên 1
Mont@@ 0.5775813326939017
Tran@@ 1
sal@@ 0.42713218936284836
Alexander 0.5934224844130067
Ruồi 1
1904 0.8341100760903677
estr@@ 0.588540235899812
móng 1
tric@@ 1
ge 0.24500179528293825
Khởi 1
cậy 1
radar 1
dic@@ 0.4305342219570055
per 0.19583651444737415
ist 0.02628358650704141
ik 0.47146925391101635
97 1
Núi 1
Dryopteridaceae 1
quỳ 1
ther@@ 0.5757947492777312
und 0.008000212150223446
96 1
Black 0.4546230929085084
24@@ 0.9376418111815465
Lam@@ 1
sol@@ 0.32049504629705555
làn 1
lũy 1
ashi 1
Wisconsin 1
G. 1
bas@@ 0.36232925695798085
Kiên 1
lũ 1
elli 0.8166277508131905
Ty@@ 1
otrich@@ 1
nộp 1
Rom@@ 0.6468435585257973
Gre@@ 0.6342610860194474
alus 1
cac@@ 1
tic 0.3772926059209175
Bến 1
Gmina 1
Van 0.8014354278390577
1907 0.7821824927632652
khuyết 1
Phố 1
aha 1
Khê 1
hoại 1
Nintendo 1
vải 1
Wal@@ 0.523267083201894
chuyền 1
Kir@@ 0.9914427714161134
VI 1
16@@ 1
Lần 1
dê 1
gương 1
tom@@ 0.5050260232958864
Victoria 0.7473561167647194
Dendro@@ 1
tản 1
Ứng 1
eth@@ 0.544322416456005
nus 1
1898 0.961123082079931
nghi@@ 1
anthes 1
Sin@@ 0.9574484689929169
ình 1
Vàng 1
ign@@ 0.5450977866759936
Trình 1
Chế 1
Polypodiaceae 1
mốc 1
Thelypter@@ 1
Làng 1
Tỷ 1
hãm 1
ih@@ 0.9095770713958056
cur@@ 0.34430747830706854
oe 1
Ka@@ 1
phia 1
ngẫu 1
Thẩm 1
1000 0.7878794074365655
mad@@ 1
zia 1
Un@@ 0.28012434632782546
ear@@ 0.8534282378936195
una 0.032443405212091
Doanh 1
lin 0.6615016725186423
tím 1
OS 1
Peru 1
Harry 1
Z 0.6985831720525832
obi@@ 1
SS 0.8084761442069255
chil@@ 1
Py@@ 1
International 0.20529720753068834
mâu 1
Tuyến 1
Cyr@@ 1
ỹ 1
1.000 1
atha 1
val@@ 0.5054144103177025
87 1
89 1
giấu 1
1897 0.9789531270395726
Yam@@ 1
700 1
dính 1
cia 1
ặm 1
15@@ 1
Na@@ 1
Nigeria 1
tiệc 1
It 0.04027338216217415
pro@@ 0.3047648523322075
ele 0.6018064072405032
W. 0.7806536420095119
ago 0.8406256123524124
59,5 1
1899 0.959634979211816
1902 0.8601917893545782
múa 1
ilus 1
kin 0.734909690476912
Les@@ 1
nhiếp 1
nom@@ 0.8847407377657517
Madrid 0.5996298874236677
all 0.06213226791696851
120 1
Serie 0.7874174583060354
đà 1
Elizabeth 0.8651566590987835
94 1
cúng 1
bit 0.9034629108741573
Aquitaine 1
uti@@ 1
Linyphiidae 1
Prot@@ 0.7605960244936616
trừng 1
Trí 1
ngai 1
Trấn 1
Ran@@ 0.8184735538747887
ker 0.27430608911642723
túy 1
ngón 1
Sim@@ 0.5978202775381458
nghịch 1
lưỡi 1
micro@@ 0.9064656797974578
uki 1
Quách 1
Theri@@ 1
Tả 1
lati@@ 1
uyến 1
Bách 1
Mạnh 1
tê 1
icola 1
ém 1
vay 1
Ecuador 1
Phùng 1
bến 1
ū@@ 1
que 0.012174987998635742
Bảy 1
idi@@ 0.9964741210053945
kiệt 1
yum 1
Xa 1
mù 1
Premier 0.7150336522852143
Đồ 1
Chùa 1
On@@ 1
gi 1
kil@@ 1
tis@@ 0.5987166428200033
ton@@ 0.6841377273675058
Ú@@ 1
Air 0.3421046582414264
ẽ 1
1896 0.9528435471571192
Tháo 1
ichi 1
ocarpus 1
Tour 0.4042769166478961
fi@@ 0.33577880570153
asa 1
Quán 1
Pen@@ 0.7311648235513393
ling 0.2773515960514049
att@@ 0.3368452131221151
Hoằng 1
mầm 1
Bát 1
Ale@@ 1
tùng 1
aen@@ 1
mỡ 1
Hier@@ 1
guitar 1
eur@@ 1
đâm 1
Bão 1
khỉ 1
Carl 0.7822118204744268
DC 0.924782891710039
ylo@@ 1
* 0.15540102818599788
Khi@@ 1
Hung 1
Giả 1
entr@@ 0.36638696330117076
Dic@@ 1
kĩ 1
tơ 1
Milan 1
ca@@ 1
eni 1
ho 1
Nói 1
aul@@ 1
ome 0.5738197622626132
oria 1
Tai 1
chiêu 1
Lincoln 1
oan 1
Chất 1
fasci@@ 1
Mir@@ 0.7322314587711952
ful@@ 1
Hỏa 1
.000 1
Ả@@ 1
ừ 1
arius 1
Chelsea 1
Ca@@ 1
Ku@@ 1
ố@@ 1
ke@@ 0.6106183746842558
1901 0.8280614067836337
Chợ 1
lầy 1
tiaceae 1
Pat@@ 0.694030552160245
hối 1
Rad@@ 0.6820372033493233
Bởi 1
ocer@@ 1
Tưởng 1
ngừa 1
Bốn 1
des@@ 0.1481011072306751
rào 1
Kon@@ 0.3840744854333437
anc@@ 0.45287037222846144
Records 0.38633990522375117
lây 1
~ 1
viếng 1
Vận 1
Ga 1
Đạt 1
Johnson 0.6737498865301037
ici@@ 0.661424145263862
Nor@@ 0.4250462889480401
Đốc 1
10.@@ 1
bal@@ 0.389362853606377
aca 1
Mộ 1
Xem 1
lườn 1
nhậm 1
ista 0.34583231182714685
chốt 1
Ir@@ 0.6693138293662487
ecia 1
him 0.08700752550538339
Ô@@ 1
Red 0.43370828781517157
In 0.015408098942199732
iki 0.7164629651806681
nghiêng 1
nhạy 1
ịnh 1
hin@@ 0.6719282641611592
thở 1
Bán 1
1,5 1
dũng 1
fur@@ 1
ngộ 1
Diệp 1
res@@ 0.17859044314391018
Onthophagus 1
hảo 1
ny 0.7760492378394385
chừng 1
osidae 1
1894 1
Ç@@ 1
Sav@@ 0.8168644650124312
itz 0.5122866479750631
elle 0.07021410799727207
Chlor@@ 1
Biểu 1
ee 0.3599324172371532
trật 1
Ngh@@ 1
vic@@ 0.7082674897977107
pe 0.33049755326637126
đạp 1
Arkansas 1
Fl@@ 0.33055802172371934
Vật 1
ure 0.2427705985587997
with 0.010527270546648865
ze 0.36794970423829604
trăng 1
bù 1
hir@@ 1
ava 1
miếu 1
DVD 0.8419237651416885
din@@ 0.7840925077805023
rễ 1
ềng 1
Town 0.6519021155481842
antes 0.19493932451911533
Chrys@@ 1
bớt 1
uk 1
Stalin 1
dec@@ 0.3214648641858592
ern@@ 0.39243714890926507
Dav@@ 1
ati 0.7243272783315735
xá 1
đắc 1
Hil@@ 0.8212448968887075
tấu 1
name 0.11157177325317293
ẵn 1
DC. 1
ger 0.369667464296697
nhi 1
rác 1
cuồng 1
uca 1
laceae 1
dii 1
tị 1
Đề 1
Michigan 0.7347599237738812
els 0.15370275603181546
use 0.11395523667289591
Italia 1
Occitanie 1
sói 1
Ban@@ 0.5736869542034833
Ple@@ 1
go 0.2927971928191217
khớp 1
Chuẩn 1
Che@@ 1
Tuổi 1
ven@@ 0.3790531882898191
Cur@@ 0.5918757339447739
Frank 0.6095030670512017
Lạt 1
So 0.4645989456653873
osia 1
Hạng 1
ươn 1
ika 0.7521157894842996
Liverpool 1
ack 0.5998773415833905
ap 0.515934205831962
Game 0.839535223376054
Ul@@ 0.7478460855593717
thỏ 1
Rhône 1
vel@@ 0.8997361580383264
oxide 1
uz@@ 0.6874819624189723
Đánh 1
aer@@ 1
bol@@ 0.8327451766136293
aly@@ 1
gốm 1
esi 0.9820489164690869
Khối 1
Arthur 0.6867320950109163
250 0.8730117784305795
Pap@@ 0.7042748391546849
Nobel 1
arc@@ 1
odi@@ 0.7122191715215217
phyllum 1
sút 1
triệt 1
Độc 1
Tetr@@ 1
dion 1
ớ@@ 1
móc 1
icul@@ 1
bin 0.9982601793128845
hum@@ 0.6484202248394545
Euphorbia 1
rửa 1
Túc 1
Tiết 1
Tri 1
tảo 1
UB@@ 1
anga 1
bát 1
otr@@ 1
ust@@ 0.9370280100635517
alm@@ 0.6513177136392079
Huỳnh 1
enti@@ 0.27701518389975943
gạch 1
Cấu 1
mặn 1
đắp 1
đeo 1
Ox@@ 1
hôi 1
Sor@@ 0.8578982170704595
Mậu 1
Taylor 0.8465344651650937
trà 1
Pyr@@ 1
isi@@ 0.4339611757592393
õm 1
ụi 1
etta 1
mũ 1
Bác 1
YouTube 1
ole 0.452010279137836
ker@@ 0.7275544706497762
adi 1
mes@@ 0.9327330154836863
illar@@ 1
Croatia 1
0.@@ 0.43226925690617396
Đền 1
Cỏ 1
dạ 1
gấu 1
vạch 1
CL@@ 1
ovich 1
Tel@@ 0.6672911176395389
Je@@ 0.628841826319203
Í@@ 1
iidae 1
Sw@@ 0.6297218747338376
Giữa 1
Gray 1
Lor@@ 0.8021468845717961
not@@ 0.38063681842665215
Ep@@ 1
Mường 1
eu@@ 0.8804862935474215
khói 1
Nouvelle 1
Năng 1
ów 1
ellidae 1
1889 0.9491716202875708
Gần 1
cài 1
Phản 1
est 0.013050685446054781
ond@@ 0.5673939087394583
oga 1
pel@@ 0.47200481333719113
via 0.33888200954336894
ain 0.28467786404292406
opter@@ 1
Sur@@ 0.5196423808995733
Brom@@ 1
Sul@@ 1
1890 0.8070104677030779
cóc 1
xen 1
ụn 1
eda 1
Pit@@ 1
bàng 1
illi@@ 1
jeunea 1
wood 0.344020875156714
phylla 1
macro@@ 1
Nav@@ 1
Dis@@ 0.40273541264131163
Sho@@ 0.8514855670874991
Lept@@ 1
Lĩnh 1
ẽ@@ 1
thơm 1
war@@ 0.22325128377879025
ates 0.13057628973132598
mé@@ 0.6144186614785219
Đen 1
Columbia 0.6529514848942741
Maz@@ 1
dor@@ 0.6524200036838265
lùi 1
pennis 1
Times 0.5252061670096866
rẽ 1
Bàn 1
Bro@@ 0.5396587263208433
Real 0.6648094660888599
đãi 1
giáng 1
iri 1
V. 0.8980863106799565
Da@@ 1
ophora 1
trop@@ 1
American 0.07896103609444571
quỷ 1
Jack 0.610909397594964
ce@@ 0.7131001494077752
Slovakia 1
omyia 1
umi 1
vượng 1
carbon 1
say 0.9722657584690544
HĐ@@ 1
thùy 1
Pre@@ 0.4494633217833097
var@@ 0.7400904556775445
Mot@@ 0.5830589952015675
TP 1
bách 1
Càn 1
ein@@ 0.12191959629107109
Rô@@ 1
Star 0.4961682802065063
vân 1
Pav@@ 1
anes 1
ngụ 1
Hay@@ 0.9043226235620385
ini@@ 1
ím 1
Lã 1
Pháo 1
Mim@@ 1
yo 1
Pel@@ 1
Shin@@ 1
ef@@ 0.36264473742998665
oglossum 1
Don@@ 0.6519453229293174
Ash@@ 0.7767797205590727
PC 0.9140503743670434
bel@@ 0.3035890700834815
23@@ 1
iko 1
Halictidae 1
gin@@ 1
amo@@ 1
vẹn 1
Jones 0.5665064813179267
Leuc@@ 1
ites 0.3779584249215883
ire 0.2655407721572505
Apple 1
khánh 1
del@@ 0.3619136030048986
Kit@@ 1
je@@ 0.5537984596598694
Thích 1
onom@@ 1
Rhynch@@ 1
bil@@ 0.49876512165923365
ngọc 1
HMS 1
ceph@@ 1
giật 1
bó 1
ks 0.13892092049244467
lor@@ 1
Carex 1
nảy 1
xít 1
Khả 1
Luc@@ 0.9156205576676472
muộn 1
vari@@ 0.38905022007116336
trôi 1
3D 1
Molo@@ 1
Orth@@ 1
ales 0.10506971872862683
Benth. 1
QĐ 1
Hãn 1
Hiền 1
Hãng 1
tựu 1
Lá 1
Giáp 1
Jac@@ 1
tro 0.7922415498950433
Cường 1
Pil@@ 0.8929436425495535
ennis 1
1885 0.9144146167910102
Albert 0.6083522914294056
châm 1
olus 1
une 0.01987890586864811
Hom@@ 0.7000172590115696
pseud@@ 1
istr@@ 1
opteris 1
Latin 0.7043202623205953
melan@@ 1
Oxy@@ 1
nướng 1
• 1
Sri 1
Tipulidae 1
Yo@@ 1
Tom 0.6306344256527887
Nhơn 1
nhu@@ 1
ham@@ 1
Kas@@ 0.6536052095427546
sét 1
hố 1
− 0.8190049103975161
pin 1
umb@@ 1
chổi 1
way 0.12394166393359987
30@@ 0.7760779588928209
Agr@@ 1
series 0.11090379250505282
Pod@@ 1
cuống 1
Ble@@ 1
10.000 1
Australasia 1
Phụng 1
Wilhelm 0.6007842250734707
Mik@@ 1
Pic@@ 1
Megachilidae 1
sey 0.676034831655279
han 0.29940637423971483
Ánh 1
hiệ@@ 1
olep@@ 1
Var@@ 0.876210627662126
vĩnh 1
mas@@ 0.3284527385642293
ẹ@@ 1
Dicranomyia 1
Club 0.20193314537468582
UNESCO 1
mb@@ 1
Wood@@ 0.8379426818668705
eidae 1
25@@ 0.8487277672072359
Big 0.5024856760646881
Java 1
pith@@ 1
1878 0.9894612697295648
NGC 1
Hed@@ 1
Steph@@ 1
11.@@ 1
Hymen@@ 1
nu@@ 0.8641361761086293
ui 1
Williams 0.5730584057150833
mic@@ 1
May@@ 0.7501585678728108
Xá 1
Cai 1
Fri@@ 0.8634478136000143
aeus 1
zi 0.8869273650044723
ượt 1
end 0.07845965503490124
CN@@ 1
Anti@@ 0.8759602917847463
sor@@ 0.40338825984794563
Pseudo@@ 1
ocar@@ 1
ett 0.41626700179571524
ę@@ 1
Trump 1
plen@@ 1
Awards 0.362509737211094
ç@@ 0.50184656499008
Ra@@ 0.804896730536314
tera 1
atri 1
opidae 1
Dom@@ 0.5637608987248011
Cten@@ 1
GDP 1
Psychotria 1
00@@ 0.8750017943222517
1870 0.7956098473702733
Cryp@@ 1
Rh@@ 1
Bon@@ 0.69268270064171
sur@@ 0.19238529683896047
Gl@@ 0.5358151444374019
ry 0.3028657549064167
sz@@ 1
2.000 1
Congo 1
NH@@ 1
vin@@ 0.5887047009777684
Bay@@ 0.7287525100010511
spin@@ 1
Dal@@ 1
anda 0.7543239171052103
MTV 1
dám 1
2,5 1
Bourgogne 1
tambon 1
ock 0.46282315839700333
ria 1
Hauts 1
Mand@@ 0.769799839637118
nhiễ@@ 1
Syn@@ 1
bon@@ 1
tiế@@ 1
pat@@ 0.4319540568221369
Calli@@ 1
White 0.36418467142056365
Eugène 1
icidae 1
26@@ 1
Rock 0.5095871178220936
roc@@ 1
pus 1
cop@@ 0.6343572604826478
Ober@@ 0.22651232392332568
phora 1
Bat@@ 0.5614441445465819
lig@@ 0.38551138551985054
ván 1
amin 1
osoma 1
ros 1
Bos@@ 0.8330759520458225
Ga@@ 0.9193219392846288
xi 1
met@@ 0.3947916480989918
Marie 0.4196002615536192
aba 0.16537892872017979
onii 1
kii 1
ins 0.12079712241752943
nem@@ 1
Nik@@ 1
Tho@@ 1
Young 0.5491552569870474
Pri@@ 0.8088656146864593
ity 0.09356093029667158
Fer@@ 0.6210384079154524
Thom@@ 1
abilis 1
sem@@ 0.6583845796267309
TH@@ 1
ame 0.4167583627277325
Rio 0.8965966770918914
ington 0.4771056456563085
tru@@ 1
Time 0.643409799477921
rec@@ 0.1825955328707133
esi@@ 1
Tan@@ 0.8224967075797598
asia 1
ney 0.49909516562823586
alum 1
gium 1
Brown 0.4952269244676551
Cher@@ 1
Normandie 1
Sab@@ 0.7126664547182486
Shim@@ 1
Macedonia 1
stein 0.35614037633526985
17@@ 1
gii 1
Ven@@ 0.7636694230794232
Ele@@ 1
Pic 1
yx 1
Haute 1
đo@@ 1
Moore 1
phosph@@ 1
atia 1
oba 1
ska 1
feet 0.9644279161278778
odon@@ 1
oid 1
nhi@@ 1
ray 1
Dem@@ 0.5645639595892662
cola 1
ade 0.22204181630091455
rol@@ 1
Amar@@ 1
otes 1
san@@ 0.48006204865910795
1893 0.8218805872950082
27@@ 1
MiG 1
Diệm 1
Shi@@ 0.9320575695227388
Pierre 0.3572178907352555
uv@@ 0.8451693730742922
Pomeranian 1
Cir@@ 1
Bru@@ 0.6917168724637435
pen@@ 0.38896758200363124
az 0.5173987843998992
oli@@ 1
khe 1
ornis 1
Costa 0.9604695593979407
Carolina 0.512026052222487
any@@ 0.7254190900058975
play 0.15170309202251786
Algérie 1
Ach@@ 0.836153002851395
dem@@ 0.25690791777986177
1859 1
Panama 1
AP@@ 0.84277550207714
olor 1
ởi 1
uni@@ 0.5488393253776025
imb@@ 1
vo@@ 0.44027282302542053
Sz@@ 1
mos@@ 0.7746865085831118
Scott 0.5653238795355603
10,@@ 1
yla 1
ance 0.10857928571842804
Voivodeship 1
ượn 1
wi@@ 0.7775522233804076
SE@@ 0.905807321489804
bo 0.9309361734015899
Euro 0.8720358892257786
Wat@@ 0.9096710729841394
ụ@@ 1
Ari@@ 0.9875729629386129
podium 1
Chicago 0.34317577600708127
Dev@@ 0.5706555289207471
brach@@ 1
esti@@ 0.6785479486108927
Med@@ 0.9533150613090429
zo 0.6622701356529462
Vit@@ 1
ish 0.2605496218121384
tenu@@ 1
1882 0.9471336745488534
Tam@@ 0.8266660928130661
mol@@ 0.7916371642142513
Pach@@ 1
1886 0.8824519555496696
diidae 1
eto 0.5858585524897737
ừu 1
VII 1
bach 0.3527804689019055
Ta 1
arm@@ 0.40406023093006904
ier@@ 0.3154938812845455
AC 0.6129758629203904
wal@@ 0.47175388834141996
Ấ@@ 1
11,@@ 1
São 1
Boston 0.5070577005084782
Kom@@ 0.40463591549623396
XX 0.699709304806345
rit@@ 0.5447236858602701
12,@@ 1
Lanka 1
Wilson 0.675446554601929
icornis 1
Julius 1
Kav@@ 1
Daniel 0.48020496834250037
Dys@@ 1
nam@@ 0.5448018869796124
Bou@@ 0.6463101209649513
N.@@ 1
Mich@@ 1
Rho@@ 1
sam@@ 0.6669386228919406
ś@@ 1
Sun@@ 0.7415441786288809
Indiana 0.8927945440586705
Kenya 1
inger 0.3620796916685939
Walter 0.5771948102542294
CO@@ 0.6955461508987637
til@@ 0.4460211941713226
1880 0.7555619928279453
Pa 1
Pha@@ 1
plat@@ 0.8318458727642308
Comté 1
ốm 1
Gro@@ 0.6060455685831676
kem 1
coc@@ 1
Franche 1
ophila 1
Ther@@ 0.8623869996830686
fer 0.2937042953747765
1875 0.9723138954426199
1888 0.8342926818113477
Ren@@ 0.4818486582537586
ero 0.26310138262982913
solo 0.26121672854508077
apur 1
Show 0.5965700769904194
Vai 1
hab@@ 0.5490857374593372
All 0.17184882159561427
yu 1
Acanth@@ 1
Win@@ 0.6348198908991032
aux 0.053239909595761026
low 0.2169987549434235
Lib@@ 1
etes 0.8916993641081116
hor@@ 0.4302839796000963
rh@@ 1
flor@@ 1
inter@@ 0.09279216670838804
Napoléon 1
1860 0.8221390438029903
ễ@@ 1
Dur@@ 0.6825651413241737
Live 0.6271227183980195
Chik@@ 1
Lac@@ 1
XIX 0.6821786429310748
actylus 1
Plagi@@ 1
Mul@@ 0.6256191767585816
aro 0.7423988601212578
hái 1
ines 0.20491700819515477
ue 0.20059290593272613
National 0.08285866968216186
1871 0.8459324778600281
Night 0.7730587284161106
thia 1
endrum 1
prot@@ 0.36776684877742166
CN 1
Hollywood 0.8545297008911198
Fe@@ 0.3933098458737316
Dec@@ 0.5158646628898732
ı@@ 1
Uganda 1
The@@ 0.4988362346055923
EP 0.604955926554763
kin@@ 0.8534979578515328
kr@@ 0.45685873648827513
ợn 1
Nai 1
Cocker@@ 1
Gy@@ 1
Bul@@ 0.6429567615809006
TS 1
atidae 1
29@@ 1
gal@@ 0.5853478026657174
ume 0.5133251318380048
jo 0.5294885859227
Kaz@@ 1
MV 1
Anne 0.6518259392946131
Gru@@ 1
lut@@ 1
eil@@ 1
lea 1
28@@ 1
pur 1
mia 1
skie 1
Sum@@ 0.8164430455132171
uri 0.9670467298708693
BBC 0.5318982626273279
elis 1
chin@@ 1
Hill 0.3803481994286947
3.000 1
ơ@@ 1
1879 0.914249029516807
bus 0.4668753417198131
Bus@@ 0.6444334503061292
sten@@ 1
à@@ 1
ệnh 1
ku@@ 0.6640530264112097
Hab@@ 0.8532148976122593
Li 1
Arc@@ 1
chlor@@ 1
emon 1
Hon@@ 0.6561578058608448
fera 1
óa 1
eti 1
Barcelona 0.6915590703939261
Group 0.2532477163224537
enidae 1
Media 0.5596907867531438
stis 1
Rhy@@ 1
bar 0.2651047219383944
AT@@ 0.6864468520689152
Tre@@ 0.44940406698433427
well 0.0681881447914625
ủ@@ 1
onn@@ 0.35613546568433524
electron 1
hiên 1
Vo@@ 0.5777799861234049
cens 1
ecio 1
land@@ 0.3016941240838321
Phu 1
Ci@@ 0.8463000038882924
ị@@ 1
By@@ 1
fol@@ 0.6410713618265229
eon@@ 1
õ@@ 1
Okinawa 1
AN 1
ille 0.3298166090921015
Bao 1
Lab@@ 1
phyl@@ 1
net 0.4486394190767499
asp@@ 1
Ker@@ 0.6374590414874103
agin@@ 1
Castile 1
Dam@@ 0.6719619052435275
12.@@ 1
She@@ 0.7961831422923994
my@@ 0.5357395106458192
nit@@ 1
Grammy 1
emia 1
evich 1
AS 0.7143077338361694
line@@ 1
1887 0.826227711105099
1883 0.8996090699545777
air@@ 0.26830712842433674
1892 0.749272657590191
Mari@@ 0.5163533431584059
bat@@ 0.3760279061800066
Anna 0.6035800247482426
ọa 1
Nam@@ 0.9754544531899445
1869 0.9781811083433944
Wi@@ 0.7185537197887509
Neph@@ 1
Airlines 1
1873 0.9117281748080424
jo@@ 0.7819116622092569
brun@@ 1
rium 1
1884 0.8342086809714604
Wang 1
him@@ 1
Go 1
han@@ 1
ake 0.2925637389005714
dong 1
Games 0.3902697237637034
Perry 1
hydro 1
Op@@ 0.4767932621373169
nis 0.58223334895683
town 0.12651995545204994
Lar@@ 0.654621390538746
Warsaw 1
chr@@ 1
Blue 0.528217631894394
ophylla 1
N. 1
Pin@@ 0.6631345358190603
INE 1
piano 0.7575515095226852
nik 1
reg@@ 0.2236791917008663
hol@@ 0.26591864446882646
tim@@ 0.35562557956976726
ath 0.3999769500300051
bra 1
Arsenal 1
Inter@@ 0.22925522195607514
err@@ 0.42607414248784836
oku 1
grandi@@ 1
ở@@ 1
130 1
Boeing 1
IM@@ 0.8548004137472386
‘ 0.36165059266040767
Nem@@ 1
acc@@ 0.2908519552816041
Asp@@ 1
Crypto@@ 1
mont 0.6297369809333864
Vel@@ 0.8292861884423938
Aph@@ 1
Em 1
iscus 1
1866 0.7453074597332258
ise 0.11279498792929306
Cambridge 0.7468770078218274
Ja@@ 1
Myanmar 1
bos@@ 1
inata 1
tú 1
Vil@@ 0.6844742748214362
from 0.010450036798316187
sum@@ 0.38231843766882784
Dre@@ 0.6411439683805229
Max 0.5472298813484
n. 1
ộp 1
ck 0.5454535841264877
Om@@ 1
kan@@ 0.5358300928134021
1864 0.8242853563072198
Bry@@ 1
Xe 1
phil@@ 1
900 1
1877 0.8810492354062683
Gil@@ 0.7325778974810332
soni 1
uke 1
Belarus 1
dis 1
tam@@ 0.85553456342449
obr@@ 1
CA@@ 0.5209036719474873
Christian 0.25753355424709334
kov@@ 1
ồm 1
lac@@ 1
Fran@@ 0.6472367991218261
mil@@ 0.4211963105515135
1876 0.8416115402639078
13,@@ 1
Pom@@ 1
cua 1
Palestine 1
Fo@@ 0.5497736436599238
Jan@@ 0.6890140424661785
1838 1
ilia 1
Heli@@ 1
ow 0.32846814771489286
11@@ 0.931135688940845
110 0.9948424733047421
amm@@ 0.49435546120549956
aff@@ 0.3542747725323088
lossum 1
icollis 1
1861 0.8167702624106994
Cand@@ 1
top@@ 0.673799838103163
cre@@ 0.18881972991508017
vol@@ 0.24714701956940646
won 0.09018374067899051
ú@@ 0.5207297534553096
O.@@ 1
Cham@@ 1
ets 0.1319233980301422
ico 0.2674324125764071
.com 0.7326239185364486
nor@@ 0.373254214729517
ław 1
pa@@ 0.8328448852325306
ron@@ 1
alp@@ 1
form@@ 0.2578107674181842
Hal 1
Pon@@ 0.6842249160147651
Cel@@ 0.7911800945119853
Alo@@ 1
Massachusetts 0.5535081632671984
Sat@@ 0.777216655421291
py@@ 1
Pres@@ 0.3344870150375699
US 0.10128907281682135
Acacia 1
Model 1
1867 0.8406663201932794
nii 1
US@@ 0.4058072666347579
ocera 1
eon 1
Call@@ 1
Mos@@ 0.5418635549081704
Centr@@ 1
oth 0.6129797692191424
IC@@ 0.6889761007260574
Island 0.24977610775992573
yn 0.6750960777093972
ep 0.5387486146341687
we@@ 0.24098017389024942
Life 0.3267000422458317
enz@@ 0.312773235288358
opa 1
Championship 0.2314893519200994
UFO 1
aus 0.03345546638151345
meg@@ 1
hit 0.3973388232389256
udi@@ 1
1868 0.8564494657071898
ais 0.3636796860045949
Bay 0.332874740541558
Star@@ 0.6858556850257356
VIII 1
Bab@@ 0.7283886768642576
Gly@@ 1
1881 0.7947718211513579
mum 1
AR@@ 0.4758456438205271
Rus@@ 0.5209399115789064
1874 0.8610075917277115
bit@@ 0.6605694390416869
Bag@@ 1
Sau@@ 0.6205275697761324
Juan 0.27908378145716894
1863 0.8273994794105183
esta 0.15468153650919583
Hen@@ 0.7602620536569944
lí@@ 1
MA 0.6806178859424173
plex 1
Mach@@ 0.9430637108073178
Madagascar 1
ě@@ 1
Kos@@ 1
iculata 1
Rid@@ 1
tze 1
Tanzania 1
kl@@ 0.2845505481132892
Im@@ 0.2759551048106684
Mun@@ 0.7111056270428315
lus 1
Aleyro@@ 1
bes@@ 0.3599015958902277
MC 1
leuc@@ 1
tor 0.20676861576414615
neo 1
ophy@@ 1
int@@ 0.2920259192817496
Dan@@ 0.654663224854769
unda 1
Begonia 1
Red@@ 0.3668373689480049
Austr@@ 1
chn@@ 1
ein 0.022565396006714266
ū 1
Sand@@ 0.4997211524209941
sonii 1
Gh@@ 0.8761409900422165
Rap@@ 0.8311765154636302
XIII 1
ois 0.6124503036149599
opera 0.9738443127245827
Megach@@ 1
inum 1
180 1
Nepal 1
gan@@ 0.5968410345910228
palli@@ 1
Ed@@ 0.5850474677497467
ais@@ 0.3799332867403225
isia 1
ster 0.2652011578522428
Khan 0.7544513777464524
Jordan 1
agri@@ 1
ome@@ 0.9680821737798642
Bri@@ 0.6215504980185543
IX 1
DS 0.956278258043917
ẻ@@ 1
Marshall 1
osh@@ 1
Nu@@ 0.8220706918739845
eps 1
Pomerania 1
Ah@@ 0.7957998314755156
Kong 0.5391403862541645
lip@@ 1
Reg@@ 0.22861298973969726
101 1
eca 1
cher 0.22372862328161208
tour 0.2155973710305338
acul@@ 1
ill 0.2994752784985321
Epid@@ 1
Ghana 1
wo 0.19550900406388774
enc@@ 0.22431214227288154
ye@@ 0.6930281846554444
vis@@ 0.40445767318016995
odendron 1
Cent@@ 1
Clu@@ 1
imus 1
1850 0.8023937699995098
loa 1
Bak@@ 0.6795688377535157
Ten@@ 0.9142703970421273
aden@@ 1
Sudan 1
Samsung 1
Albania 1
Hos@@ 1
Da 0.42122388705137753
eck@@ 0.6168711412102247
Thor@@ 1
app@@ 0.44658964302038023
etus 1
ess 0.17393744040158604
ier 0.24032141649804975
orn@@ 1
ff 0.41478977692154434
our 0.18595305824856198
rag@@ 0.973386332543308
José 0.2755587797074636
laria 1
thar@@ 1
Green 0.3927027216537836
ophorus 1
1.0@@ 1
Royal 0.18086308120932795
ui@@ 1
đu@@ 1
enes 0.8691369178885618
vul@@ 1
Had@@ 1
Vin@@ 1
èze 1
gris@@ 1
Som@@ 0.9781697758102365
Spar@@ 1
anah@@ 1
Petr@@ 1
ogr@@ 0.974637321420858
CH 1
1862 0.7785790225840716
AN@@ 0.7074851339384932
Yang 1
rop@@ 1
obscur@@ 1
Hassan 1
Oli@@ 1
IN@@ 0.6308108336119955
Mis@@ 0.6158170351619284
ado 0.041618540341554225
dol@@ 0.8980722014102945
sea 0.28675147717346566
Sphaer@@ 1
Sti@@ 0.9524089427139926
1865 0.7635963676515324
sar@@ 0.6633264332596361
SA 0.5503786663148712
set 0.11258120099339644
ST@@ 0.777837115002085
Sir@@ 1
köy 1
ỏa 1
Hong 0.5349125987699347
etia 1
edi@@ 0.4117001010547576
SC 0.4907114655845024
olata 1
Sí@@ 1
ếc 1
IS@@ 0.5632452854558283
ash 0.4663379469649379
Rose 0.7411087620162357
pre@@ 0.1037312477451273
als 0.015350560282088713
ech 0.7736222131529585
ju 1
ą@@ 1
Ra 1
fan 1
14,@@ 1
ken@@ 0.36495261235153115
Š@@ 0.8621588866197809
León 0.9876815821987074
Nom@@ 1
Vas@@ 0.949409223676154
Anis@@ 1
Haw@@ 0.88255794880479
rich@@ 0.47115950397297235
Davis 0.5841052962717942
PT 1
ì@@ 1
Kus@@ 1
Xanth@@ 1
East 0.17011499502703134
Romania 1
â@@ 0.5160783738721171
Gom@@ 1
pap@@ 0.6955340995354783
Pu@@ 0.7672637480339136
nic@@ 1
Auvergne 1
F.C. 1
Sam 0.7589992193373104
100.000 1
leri 0.5827932255836495
wan@@ 0.6919219317402062
Melo@@ 1
ingen 0.2534775321174506
hom@@ 0.27009026091196103
ku 1
Chris 0.5575897370658581
Val 1
1858 1
MS 0.655122650651562
Ken@@ 0.7945906219456144
osaurus 1
ylus 1
Cass@@ 1
Apo@@ 1
Fair@@ 0.8273796630170481
bin@@ 0.4954238770217419
Lev@@ 0.6575569762130986
idea 0.40096317228938777
Lom@@ 1
1848 0.7122374473410449
Ali 0.5958724463464262
omys 1
aster 0.808928683006554
ez 0.34972711838492354
PS@@ 0.8095142322032842
Tim@@ 0.7537283730988577
arr@@ 0.24284392418875023
itis 1
Mid@@ 0.6603920088921107
Raj@@ 0.5991811450153115
Stone 0.7319249354877918
Kad@@ 1
Su 0.20593907104704276
Mi 1
gran@@ 0.752115776589106
Sax@@ 1
Kl@@ 0.4585047678781911
1840 0.9128110282215892
cos@@ 0.646108338630191
Trach@@ 1
alt@@ 0.31171944532644996
isch@@ 0.49372133232482607
fo@@ 0.28488127705510835
ido 0.15805181473436217
AC@@ 0.5676992428040237
Day 0.34794334434863716
pula 1
agus 1
ail 0.3560773806930969
I.@@ 1
omia 1
ollis 1
Dryopter@@ 1
yne 1
usia 1
Bac@@ 1
anica 1
van@@ 1
ía 0.10190279901628133
Nic@@ 0.946518416419134
fu@@ 0.5385310095102199
tem@@ 0.5563066331190926
avi@@ 0.7121521481829043
Gol@@ 0.5367395249939804
oton 1
len 0.3112098898951735
Sony 1
art 0.11703496873875066
Sid@@ 1
Lake 0.25794865094878994
Lewis 0.6056838334059715
ack@@ 0.3579244222071552
hydro@@ 0.5894615027670161
Norfolk 1
Pand@@ 1
meth@@ 1
ờ@@ 1
illo 0.5564150317429268
Ethiopia 1
Puerto 0.6306187032785052
mus 1
Little 0.47746822991599513
Rich@@ 0.8239646581698422
Liga 0.32101130009282164
ifol@@ 1
NATO 1
ć 0.7357606188409744
num 1
show 0.12934972427191596
luy@@ 1
Amp@@ 1
News 0.48972087403897
Gun@@ 0.825353659934427
enta 0.4144177708900624
GP 1
Yos@@ 1
Ann@@ 0.5341163708643697
ưới 1
heim 0.35272002237422606
Pleur@@ 1
lora 1
uchi 1
our@@ 0.42918618486749704
oy 0.7258705594523751
ves 0.16956849495572718
ịu 1
alensis 1
thor@@ 0.8431194373168348
Sas@@ 1
was 0.0035910111550873807
Company 0.1921527439314208
acet@@ 1
alan@@ 1
1857 0.9200395083333365
Wall@@ 0.8758541459284608
lad@@ 0.6697365866421464
kal@@ 0.45409482813846286
pter@@ 1
mot@@ 0.361322420695045
out 0.04456199878348988
yro@@ 1
50@@ 0.7867970330807279
lei 1
ás 1
tatus 1
Arch@@ 0.7040892069770716
3,5 1
chus 1
fal@@ 0.4517642235520688
CD@@ 0.817240934478471
1830 0.8969271902706217
Norman 1
Amph@@ 1
Dy@@ 1
ẹp 1
Cav@@ 0.9180491604713752
Liban 1
Mau 1
Nes@@ 1
XII 1
nea 1
ya@@ 1
agu@@ 0.497935942355015
Douglas 0.7129180527821452
Sydney 0.4743506279806024
Fox 0.5931685372482738
trán 1
Allen 0.7579088872634961
Georgia 0.46336214828570105
Ing@@ 0.6009232701981126
agar 1
dy 0.4283971183281676
Caribe 1
cyan@@ 1
roi 0.3928266517299811
has@@ 0.7703483985902874
ocephalus 1
Dich@@ 1
agr@@ 0.673118857376395
WWE 1
Aeg@@ 1
oka 1
CS 1
Ere@@ 1
Oregon 0.7890558657509913
1854 0.9526685824249482
80@@ 1
emma 1
mul@@ 0.6572914619401873
ö@@ 0.21829566943267736
cula 1
ĩnh 1
College 0.1099259957995902
wan 0.9045027762699879
eff@@ 0.5612430325549085
ocy@@ 1
Franklin 0.9490083359059037
dig@@ 0.5233536053003077
ram@@ 0.6212720290374509
amin@@ 1
amus 1
Alexand@@ 1
20.000 1
Lap@@ 1
iga 0.8854253125332904
Tum@@ 1
bert 0.4360983018829659
Pir@@ 0.780945303959916
mir@@ 0.5398217088052882
amine 1
ris 1
ebr@@ 0.9187245120793297
Cape 0.7549156088711693
chry@@ 1
ras@@ 0.49161902219347664
.-@@ 1
1836 1
imp@@ 0.3097245329444259
dal@@ 1
Bec@@ 0.97686323084379
Can 1
Stand@@ 0.8187136131638985
Vir@@ 0.6835911746772093
viol@@ 0.30780824301401716
Ludwig 0.5896137084625098
Hall 0.20814075161323642
Joe 0.4562264725833435
ky@@ 1
Boy 0.9257496855438562
margin@@ 1
assi@@ 0.774214574039133
Bank 0.3413788381835696
dev@@ 0.38815711176259166
140 1
bro@@ 0.4512290324245909
ken 0.13778990167735436
igh@@ 0.3879478333252478
utt@@ 1
les@@ 0.3777347856997297
mis 0.47761888500054794
Y.@@ 1
ord@@ 0.22352609510985144
Miy@@ 1
Yu@@ 1
Ju@@ 0.46842951059615207
Shar@@ 0.6712014650255059
dan@@ 0.6370959888812422
Colle@@ 1
lã@@ 1
· 0.08592262764087548
18@@ 0.8769332296691098
XIV 1
RNA 1
grac@@ 1
1849 0.9448228008796167
Bill 0.4140238711929874
ấ@@ 1
ée 0.04155022482640352
Abr@@ 1
Chart 1
úa 1
America 0.1812399334421944
amoto 1
uka 1
Brit@@ 1
ũ@@ 1
PA 0.6079135370022354
eno 0.6067368296046282
ươi 1
aku 1
Mam@@ 1
Ny@@ 1
UN@@ 0.5482006201308417
achi 1
Rem@@ 0.4820026973385317
log@@ 0.35272484956904704
trans@@ 0.11922618519048707
wat@@ 0.5467351613151821
Azerbaijan 1
Bir@@ 0.4070767311301069
Fu@@ 0.6741103326831568
35@@ 0.9851259420427845
Moon 1
Seine 0.29265553526265564
LGBT 1
Lepid@@ 1
Och@@ 1
Szczecin 1
Arec@@ 1
Ric@@ 1
Bangladesh 1
phidae 1
po 0.6464252761922624
ž@@ 0.7335516731590773
Cin@@ 0.7678153376600659
we 0.18279185914402846
Android 1
CC@@ 0.7575384608637976
ater 0.6392403564941885
DE 1
Pro 0.5751050481281267
1841 1
SA@@ 0.6629096961121572
Ching 1
mari@@ 0.6943091748201469
sit@@ 0.5144844461559712
vis 1
1872 0.734818815814833
Acro@@ 1
ướp 1
sun@@ 0.6159259708213405
Dubai 1
bis@@ 0.9745304468635743
f. 1
It@@ 1
CM 1
Lan@@ 0.652234850198096
kon@@ 0.23116055290146442
tol@@ 0.9339527678175603
lı 0.9664794850198616
p. 1
Carlos 0.34929869618187503
Sm@@ 0.8525591183126369
60@@ 1
1851 0.9609282331518185
Melan@@ 1
heter@@ 1
ij@@ 1
kor@@ 0.5032499929916229
Henri 0.541933227535473
rung 1
ail@@ 0.3277218045821469
anna 0.8243017650471617
stri@@ 0.8046695472918228
Linux 1
PlayStation 1
Bengal 1
Sag@@ 1
Tal@@ 0.4199940712776058
esp@@ 0.33144959184248113
uh@@ 0.8242095299329435
ẹ 1
Baltic 1
eton 0.861784477053694
Pradesh 1
Facebook 1
Rac@@ 1
oll@@ 0.4046553086066035
yon 1
zon@@ 1
Jersey 0.4384134967206336
Leg@@ 0.47921565792315085
pora 1
eros 0.3912660032615524
1846 1
nung 0.5308833500822803
Hex@@ 1
lem@@ 0.5936104192203547
pau@@ 1
rel@@ 0.1539379757297944
ski@@ 0.7797436328817988
phen@@ 0.8701351208766577
ứu 1
NS@@ 0.8337835354394467
Will@@ 0.928458655717958
160 1
pho 1
Chil@@ 0.8126691603785383
igu@@ 0.6145486274425658
pi 1
Au@@ 0.420721577937034
Super@@ 0.3241694784610421
Corporation 0.43987453389118203
Cyclo@@ 1
hem@@ 0.8803810229795571
AM@@ 0.5954445928535478
É@@ 0.21337923897172908
Ok@@ 0.7749431091890857
Vu 1
agi 1
Ali@@ 0.6575183072008041
Buc@@ 0.6919346798227194
Hop@@ 1
ges@@ 0.18155740423763028
Street 0.15343830477535775
dera 1
Queen 0.362821043813918
Fir@@ 0.7424076095387451
Iceland 1
iner@@ 1
Tol@@ 0.7543423903420136
lov@@ 0.8321654454177263
ariidae 1
AD@@ 0.6104071753259931
1753 1
c. 1
jin 1
úi 1
Adam 0.5705433844321744
Bad@@ 0.5666322017985344
Francis 0.4884643901213771
yna 1
Rica 1
ythro@@ 1
Air@@ 0.700914440465424
Black@@ 0.6728108217716787
British 0.08953675042491409
ett@@ 0.45122311748353044
Gel@@ 0.5545490828475786
Sk@@ 0.3929324964969662
isi 0.6374152843922326
nai 1
aqu@@ 0.43156760919515835
Sig@@ 0.5279567928484795
ace 0.3039310334410346
BT 1
brevi@@ 1
ades 0.2493553068488529
Eng@@ 0.5790811799239475
Gir@@ 0.6445593561769338
Maj@@ 0.6481262860528196
abis 1
Loph@@ 1
Anderson 0.6841303802667945
esh@@ 0.5740537796096111
Mike 0.4781646663595935
lu 0.9120507428860049
opteryx 1
ino@@ 1
ulosa 1
anot@@ 1
leu@@ 1
ence 0.10026177711163423
ặp 1
1844 1
Hap@@ 1
radio 0.20562995570887557
onis 1
ovo 1
sch 0.31633484101202825
ispa 1
ver 0.2044280466230363
Jan 0.6497118804434843
iger 0.2919302978885157
Prim@@ 0.6673224968436265
angusti@@ 1
itz@@ 0.4006876054061864
Andrew 0.5046790377867036
Marne 1
sum 1
Swift 1
40@@ 0.8629920593225813
Team 0.2303835487641703
orr@@ 0.9963333316383622
Chry@@ 1
fic@@ 0.4788302020202334
port 0.18664402052483456
phot@@ 0.6661609674754314
pot@@ 0.3482134960330642
13.@@ 1
Piper 1
Wo@@ 0.7664181040912298
simil@@ 0.8176794264572594
umin@@ 1
Cyc@@ 1
vu 1
multi@@ 0.5044714191380009
15,@@ 1
Philip 0.7193078834803718
Spr@@ 0.6754739599647274
hel@@ 0.6544223432749627
Mart@@ 1
Best 0.24014176245405355
macul@@ 1
1853 0.9455552485348042
1845 0.9982308265723768
RA@@ 0.5316552627201679
Mec@@ 1
350 1
ron 1
St 0.2179667077719224
inensis 1
ecta 1
codice 0.9622377092409903
Pedro 0.4533103843702195
onium 1
chilus 1
Kum@@ 1
Open 0.2982643293963332
oli 0.8318455269956967
sei 0.31635712995451015
yan 0.5628736297490289
gn@@ 0.6966727833883101
oti@@ 1
ữa 1
County 0.07555284827205279
ướ@@ 1
Lang@@ 0.3468141476875022
ith@@ 0.9259270805015238
ợt 1
chai 1
pis 1
Merr@@ 1
aine 0.35583303591214166
d. 1
ogen 0.6801660516732848
Sap@@ 1
enberg 0.45461681585927677
Antonio 0.3309980813404645
je 0.22782479958478108
Sachsen 0.9728024423940269
ỏ@@ 1
Bot@@ 0.48878828932183616
ostoma 1
ık 1
Ki 1
Aer@@ 0.7874204012451401
Alaska 1
gel@@ 0.17674929637943107
ych@@ 1
Otto 0.5468887164287113
Grande 0.4728480285732879
Slam 1
din 0.7822384741429809
Tem@@ 0.8233082383120509
王 0.5799616728773611
Kn@@ 0.42154111191678617
equ@@ 0.29717686096822443
rup@@ 0.6308570142338162
Arist@@ 1
idus 1
single 0.09591458158759003
Ful@@ 0.8292826266654028
School 0.07003881569328449
icata 1
ple@@ 0.34418235295067834
Bes@@ 0.5000832084336653
gracilis 1
asis 0.8535500001483962
Lawrence 0.7994484279212732
Sun 0.4871891315650968
dan 0.32559703811828955
Lenin 1
ji@@ 1
oridae 1
pseudo@@ 1
Fun@@ 1
V.@@ 1
XI 0.9882874171209272
Ceph@@ 1
Has@@ 0.781197084497902
olo 0.7955684336824452
4.000 1
õi 1
ATP 1
Philadelphia 0.5260306653793984
aem@@ 1
jeun@@ 1
kur 1
proc@@ 0.6565860162422162
FI@@ 0.6496615299576014
Paulo 0.9800371623116583
wil@@ 0.8588886781624406
Conn@@ 0.5848195581153128
Hypo@@ 1
Studios 0.6661861275375639
able 0.04431580765965137
tz 0.7303543472018948
estes 1
neutr@@ 1
Frederick 0.7307266743399252
Lav@@ 0.9290011845990086
endron 1
ion@@ 0.6478576092303909
enus 1
ưở@@ 1
ử@@ 1
Uruguay 0.9680222733057736
dus 1
owski 1
trium 1
AT 0.8338554010203454
Dun@@ 0.5368085839327525
lit@@ 0.3726219503219629
nan@@ 1
Gon@@ 1
Lis@@ 0.9270971834698581
ec 1
Ố@@ 1
Adams 0.8333334756630422
West@@ 0.23967593681936816
ben@@ 0.26125179444818114
Ō@@ 1
Great 0.2388827180728994
lid@@ 1
ầng 1
Bolivia 1
ju@@ 0.3692250901573179
Tos@@ 1
Hamilton 0.5974727203665426
onne 0.42492966745183747
yer@@ 1
ré@@ 0.08591540101040296
any 0.08930349857085806
dea 1
ský 1
37@@ 1
ight 0.32554502250577216
105 1
Ley@@ 1
dius 1
nes 0.295689107679274
omi@@ 1
Girls 0.8859054159468622
Kin@@ 0.5160074906975817
Aul@@ 1
uss@@ 0.46956047331222206
tos@@ 1
Ukraine 0.5227895625910146
Cour@@ 0.45806319483759883
Stephen 0.53464034847777
aud@@ 0.6357386353949717
Astr@@ 0.7789179780976491
Fal@@ 0.5030741291225549
Rico 0.8550125706715527
16,@@ 1
Kil@@ 0.5103304069442725
che@@ 0.48992720140791207
Got@@ 0.8681897920315582
enko 1
DD 1
Dou@@ 0.6771978601589448
Ye@@ 1
Ze@@ 0.47866140235216265
Fi@@ 0.4318587073898768
Pent@@ 1
Si 0.42097796785244024
Galaxy 1
Tec@@ 1
Mk 1
ùy 1
Hat@@ 0.8650249478112106
Wimbledon 1
ag 0.5644242036025267
Mang@@ 0.9920853013365648
Pet@@ 0.7927795249599777
SP@@ 0.5606979093033752
Dj@@ 1
Kazakhstan 1
centr@@ 0.3997481670856812
Ore@@ 1
op 0.39810732341924804
ịa 1
Coel@@ 1
Queensland 0.650714544622755
icolor 1
Grac@@ 1
Pokémon 1
pid@@ 1
win 0.14500833939011734
Cot@@ 0.7342632644782803
flu@@ 0.4011676935766162
Rome 0.3567625165072278
row 0.34530714465543366
AM 0.5634082343167844
XVI 0.7812688521794912
bius 1
Land@@ 0.15033195351978287
ont@@ 0.5806071389396573
Centre 0.2863163316433725
Sed@@ 1
Vill@@ 0.5834462990090177
ats@@ 0.6715595153177727
prop@@ 0.42211158308638236
360 1
SO@@ 0.804624906404397
sin 0.16349916080154656
amar@@ 1
ew@@ 0.3604204678654246
atin 1
enzyme 1
ński 1
pros@@ 1
Côte 1
Dragon 1
pur@@ 0.2924923199845869
arch@@ 0.2909250435791678
gy@@ 1
sson 0.6640208038904025
sty@@ 1
Marx 1
elegans 1
Plan@@ 0.39949512589181324
imm@@ 0.7665049171360178
Aur@@ 0.8126022335582671
Ot@@ 0.5634715432049725
taria 1
Beau@@ 0.6588487817473367
mis@@ 0.173262152256341
ix@@ 1
owo 1
Â@@ 1
ote 0.27372123583724545
Gymn@@ 1
Cerat@@ 1
Fin@@ 0.4240748458864634
illus 1
ons@@ 0.3071781189014238
Vladimir 1
hao 1
ń@@ 1
200@@ 0.9419299276555309
Fle@@ 0.7363870535742202
Mill@@ 0.6943638820260523
dam@@ 0.5769671538674883
dar@@ 0.37931867336964276
gas@@ 0.5424159412298528
hat@@ 0.7604320951075048
ste@@ 0.16471490277575923
itus 1
Hid@@ 1
quin@@ 1
elli@@ 1
House 0.11487289653399307
Libya 1
Osaka 1
mod@@ 0.3429492274706996
Max@@ 1
NO@@ 0.7969489805651166
Rick 1
thon 1
Bob 0.464455812104662
Newton 1
asi 0.9211719623153896
rho@@ 1
Kot@@ 1
1856 0.7662908143599504
Mississippi 0.7334896165420409
Pur@@ 0.5108718455075443
36@@ 1
Papua 1
esch@@ 0.5475056857677448
inea 1
Eugenia 1
Ben 0.49156270182502676
Bet@@ 0.6543192959390677
Schmidt 1
iss 0.7996754057119475
125 0.8760102987951162
mus@@ 0.2565880529211996
not 0.02162060435178489
oceph@@ 1
PS 0.491285542245272
andi@@ 0.737518956520166
azi@@ 1
phon 1
phon@@ 0.7364465056758641
Xen@@ 1
niti@@ 1
Union 0.12125601105892819
Barn@@ 1
Les 0.04019034894335347
cú@@ 1
ega 0.9165087399809743
Pul@@ 0.7598057586283247
14.@@ 1
Kim@@ 1
euro 1
Pfalz 1
Sung 1
amer@@ 1
lie 0.3375684059355098
kat@@ 0.5984970797045619
kaz 1
Muhammad 0.9465019064182073
Luz@@ 1
k. 1
Rud@@ 1
purpur@@ 1
dre@@ 0.309103839074133
rier 0.6177660445941615
vu@@ 1
ø@@ 0.48568524564578214
17,@@ 1
Creek 0.35764383996503757
Sad@@ 0.857419072575728
General 0.10520655374668249
Tw@@ 0.5299276173743211
quadr@@ 1
Coc@@ 1
Slovenia 1
ident@@ 1
Bad 0.4962376645139253
AFC 1
Girl 0.8286536853148422
court 0.17203772414347313
hoe 1
Lag@@ 0.7127937479123944
ors 0.06728758986233797
Gregory 1
bir@@ 0.5296332275587695
Alfred 0.5113647233679791
rac@@ 0.36010446102504623
Bangkok 1
Ẩ@@ 1
Gam@@ 0.8745340377094775
Roger 0.5447542684198423
Solomon 1
more 0.034808803217762155
Bud@@ 0.7764039561454873
khan 1
Malta 1
On 0.03146649871777111
Rol@@ 0.840615610336377
luc@@ 1
cic@@ 1
xy@@ 1
Series 0.3034164810402776
nat@@ 0.7024496094439722
Lec@@ 1
IS 0.7691439535711878
Jamaica 1
icia 1
mur@@ 0.44287096996747033
yra 1
Phy@@ 1
nov@@ 0.9758249156826174
website 0.5136101458323163
hii 1
ún 1
AI@@ 0.6594028592606099
los 0.010082235530948594
uni 1
6.000 1
Son@@ 0.571500959227757
Yak@@ 1
Ji@@ 0.9291230966170899
dh@@ 0.5151196404490057
Port 0.4253328094316019
SM 1
austr@@ 1
Bau@@ 0.16032237620218637
alidae 1
mg 1
mo 0.42355735214477286
som@@ 0.4042644353469038
mini 1
Wit@@ 0.6037151949200711
Wikipedia 1
aut@@ 0.3089650023457936
ingi@@ 1
teri 1
Lady 0.45123402617432257
min 0.6003445999118121
1847 0.8728410926674455
gly@@ 1
ẹn 1
Est@@ 0.2717308245409027
esa 0.24399692160555722
Pad@@ 0.666362698246953
EU 0.6858995977808995
abe 0.5317882396636004
Hav@@ 0.7359674532734132
Blo@@ 0.5225235860648142
Till@@ 1
Sultan 0.9993766187941585
Catherine 0.7667349623033517
All@@ 0.4201243219213738
ara@@ 1
vo 0.361676351277351
Ś@@ 1
aro@@ 0.719021876035643
Alice 0.7475682691535895
Aqu@@ 0.6815316610063868
Donald 0.7050660835360518
aru 1
Ford 0.4526537610192558
ory 0.18366669151190687
Asteraceae 1
Cuc@@ 1
Dod@@ 1
HIV 1
Chen 1
issa 1
oko 1
fil@@ 0.274803288036926
sep@@ 1
Center 0.1743503710507456
Schum@@ 1
Zo@@ 0.874644303805722
iceps 1
lon 0.9526398939794407
Schw@@ 0.32645603345156293
Steve 0.44993667215429545
hat 0.08243969067190977
xia 1
Bil@@ 0.39031612028501317
Din@@ 0.6912770425356228
ulum 1
kali 1
Chel@@ 1
Linn@@ 1
1,2 1
Radio 0.23271201443118805
oro 0.42811377452759297
Berg@@ 0.30470168625234845
eki 1
uro 0.8870812799463437
Clark 0.6230988915812051
CS@@ 0.6045290202052037
Gul@@ 0.8811677164510205
MP@@ 0.5916379302141114
pent@@ 1
Jung 1
Harvard 0.634043960327993
Margaret 0.6903755432072913
ison 0.29872532954694
section 0.19410166944395388
1837 0.9208093529888888
大@@ 0.09933044158623602
eger 1
Herbert 0.7698653386180083
Inc. 0.5859209302652151
Hang 1
Bis@@ 0.9469411123742999
emb@@ 0.18173466049104514
ics 0.13072644053502536
CBS 0.8184562589126662
urn@@ 0.6089640955455533
teri@@ 0.7922152527728163
Leu@@ 1
lio 1
omy@@ 1
1833 1
Chir@@ 1
Sir 0.2624275051577138
Tir@@ 0.8011793192634965
Vis@@ 0.44136749275304477
Cameroon 1
Rub@@ 0.9315567455720121
Shir@@ 1
zh@@ 1
Ich@@ 1
but@@ 0.4111049695226648
perus 1
1842 0.9251534612074
Alabama 0.6620443915792789
Jerusalem 0.9055217744949149
Yemen 1
mati@@ 0.6767824523318466
Gau@@ 0.5458516360302769
Howard 0.5524176031978594
aena 1
öy 1
Jung@@ 0.8497302222066357
Kaw@@ 1
Pass@@ 0.5278374775829201
Sicilia 1
Gn@@ 1
Ball@@ 0.5141920715341125
IC 0.6446792651975204
Vic@@ 0.5585306332992066
TC 0.7831879362591772
eau 0.16593305780021553
45@@ 1
ỳnh 1
Alexandria 1
Dig@@ 1
Schleswig 1
Whit@@ 0.471429255266137
tiv@@ 0.41166509217602726
Estonia 1
ouv@@ 0.612322956222962
Bell@@ 0.7443529837240652
pec@@ 1
pus@@ 1
Den@@ 0.436528505593894
Ivan 1
oder@@ 1
ỏng 1
Rab@@ 0.5745031382268944
gay 1
Chaet@@ 1
Qatar 1
ault 0.3958505961772752
tt@@ 1
Ferdinand 0.7077636382578734
Yas@@ 1
God@@ 0.6041122314452976
ass 0.3133913193048491
opl@@ 1
Europa 0.26193967191260326
ifera 1
Hang@@ 1
Hum@@ 0.5073675055972029
Maroc 1
GS 1
Nat@@ 0.7385010160011037
istan 0.9629344012472243
Tang 1
psych@@ 0.3835248906562625
Rheinland 1
Sierra 0.7154336959611317
Your 0.6884639541668464
Lig@@ 0.5589158895032037
Villa 0.5048862975649572
ings 0.06470337655993325
Gang@@ 1
Oxford 0.4247185092683421
wer@@ 0.20260727492471264
1824 1
Alli@@ 1
New@@ 0.45994535448724466
iti 0.8444791301838628
urai 1
Zh@@ 0.8758605019277137
sec@@ 0.2070501430454542
Asia 0.3255637833950657
Bell 0.616143074412659
Ray 0.610810115606451
ept@@ 1
hip@@ 1
Long@@ 0.6093596962179375
Wol@@ 0.41732276772247834
illy 0.48757867915138564
obus 1
TT@@ 1
gol@@ 0.47221643639941063
Cab@@ 0.6228275533263081
Odon@@ 1
amba 1
one@@ 1
color 0.2532618403961679
internet 0.9396486529529007
1852 0.7815094406733587
33@@ 1
Roc@@ 0.5658203223207653
athus 1
Set@@ 1
eh 0.6129073377960479
usi@@ 0.5461959699431156
ellia 1
Borneo 1
ope 0.791326921523944
old 0.0939147135462635
Nec@@ 1
ban@@ 0.26261057302678265
culus 1
ns 0.21587776237855152
Mass@@ 0.5717222305906017
Miller 0.5203748672008573
Nep@@ 1
Hook 1
Lau@@ 0.569011313606047
aun@@ 0.3801003136103898
elong@@ 1
ọp 1
z. 0.3809916892919044
chloride 1
1843 0.9337405109546091
inf@@ 0.1888626351440561
1839 0.9145570978373402
line 0.0701957908999893
0,5 1
arum 1
cz@@ 1
hip 0.3636389859227879
Shu@@ 1
adel@@ 0.8994756735459439
Alex 0.6321778954254756
Boy@@ 0.7265211561426793
Ard@@ 1
River 0.09803133632611921
Amazon 1
Clinton 0.9718810969134408
Napoli 1
UK 0.1825888362175829
anz@@ 0.2699119065418598
rix 1
HD 0.8136193430321376
Tamil 0.8253163605909994
Socorro 1
Bern@@ 0.6251194630336258
NASA 1
No 0.192834145564626
Lov@@ 0.6985526379495998
Macro@@ 1
media 0.1684920064052713
120@@ 1
University 0.038358194341646584
15.@@ 1
Tunisia 1
dy@@ 0.86297171642808
sta@@ 1
Grant 0.7188194149640268
Kry@@ 1
yak@@ 1
ale@@ 1
gig@@ 1
lop@@ 1
1832 0.9177191967784514
up 0.03257305581048724
Kag@@ 1
side 0.07743842540272529
Anime 1
Jar@@ 0.6007795497983637
16.@@ 1
Torino 1
pia 1
108 1
Leon@@ 0.7983211408009641
Walker 0.6877420938588676
dur@@ 0.30939312574495303
ango 0.7149166808433912
Up 0.5941104547731055
eva 0.6741413890044741
Champion 0.8514142547400972
pyr@@ 1
Af@@ 0.787902425130645
Victor 0.521715657407056
Colorado 0.49832583602255154
aze 1
dai 1
Bog@@ 0.7068030224859834
onica 1
ars 0.14787803102773445
Quercus 1
Sci@@ 1
Hyper@@ 1
Arizona 0.49681264894162
Sher@@ 0.6872827850786656
imi@@ 1
acia 1
ider@@ 0.7378890003188244
olim@@ 1
Channel 0.5228613135701309
etti 0.38255910730767023
Eric 0.5747269695734746
logic 1
neg@@ 0.40472475301561844
Kennedy 0.6775110754681268
enburg 0.5162607991030571
Constant@@ 1
eder@@ 0.36613935607458
Bun@@ 0.7922386746899032
èm 1
Ophi@@ 1
sko 1
cost@@ 0.5609281862265982
ý@@ 1
Babylon 1
Rod@@ 0.7356104980548778
Watson 1
Baden 0.6453033889324417
Res@@ 0.28837803313008764
Vor@@ 0.08550799883249456
omorpha 1
1834 0.9180008904823578
ret@@ 0.2163078358668143
Hog@@ 1
thes 1
Clarke 1
eron 0.304091101572602
Alan 0.5903603850223778
Scar@@ 0.8848785782600221
Č@@ 0.8963453815085922
1827 1
ishi 1
robus@@ 1
rad@@ 0.633159858289311
Kel@@ 0.5182736859459437
inidae 1
ruf@@ 1
fa 0.763685341688056
38@@ 1
North@@ 0.4838120560356659
lob@@ 0.5030253139685504
ợi 1
Angola 1
Hou@@ 1
Lon@@ 1
ngu@@ 1
Chal@@ 1
Guam 1
Brian 0.506102955539629
Fern@@ 0.5147315318242034
ith 0.4812121954604897
tenus 1
Final 0.38192896690262634
Tin@@ 1
dale 0.5626026459648736
isp@@ 1
omus 1
1855 0.7002373638172135
Twitter 1
ters 0.11501780794606765
Kab@@ 0.7291532604102314
ej@@ 0.47599294073944387
oda 1
Houston 0.5613836664071993
Shō@@ 1
Tab@@ 0.5061458445349809
ennes 0.314100760895686
220 1
AL@@ 0.5577026888475527
Studio 0.6198001870545087
orph@@ 1
18,@@ 1
Glen@@ 1
Mys@@ 1
uto 1
Jam@@ 0.7142614027213062
liv@@ 0.5484743010419991
plan@@ 0.21282256606904176
onal@@ 0.5916718315587306
pet@@ 0.8734274619762418
Ast@@ 0.9711941604874202
amia 1
assa 1
lb 1
tà 1
Mitt@@ 1
ado@@ 0.9832713897357175
omb@@ 0.6157444946439903
oug@@ 0.561066869238892
Manila 1
Tony 0.45198201986282116
eck 0.3319943156634597
Domin@@ 0.5528546031555709
High 0.12085773045811404
Sumatra 1
Kraków 1
Sou@@ 0.46676871594516317
acty@@ 1
ovsky 1
tula 1
Franz 0.3896513227526975
Hun@@ 0.6478893092138
issus 1
Tok@@ 1
hot@@ 0.9233968782629289
Spe@@ 0.3626073871550776
king 0.11164841832199515
Green@@ 0.6389096182637786
Hand@@ 0.30751838217069555
Lat@@ 0.46447539389087933
ame@@ 0.6172581630999968
uf@@ 0.5152623807823232
Jane 0.6208143497824244
ei@@ 0.8357639817164539
First 0.15510467949915313
agi@@ 1
AR 0.706777943810907
Liv@@ 0.7760928904257852
anta 0.6255712562845187
Alex@@ 1
ka@@ 1
39@@ 1
Pictures 0.867984873342394
Sic@@ 0.9243658743833517
Zimbabwe 1
otom@@ 1
pan 1
Ix@@ 1
cip@@ 0.5919758103567169
Ax@@ 1
Byzantine 1
Somme 1
ère 0.10961962713964116
anidae 1
ester@@ 0.656103906657317
Jer@@ 0.6249621404895305
idi 0.8062666058524021
Champ@@ 1
Wa@@ 0.5182238313903365
ony 0.39021957289483655
ston 0.519890117028288
Fel@@ 0.40775041789910343
Nan@@ 0.9157526548655768
Phan@@ 1
yeong@@ 1
Esp@@ 0.4361528290460298
Mog@@ 1
Scot@@ 0.942543427294345
uru 0.977297046701527
Bruce 0.6437913819679691
Holstein 1
Bush 0.8142963628284912
Is 0.46029723117677146
Adi@@ 1
Kiev 1
lar 0.211388265108865
CIA 1
Xbox 1
pra@@ 1
alg@@ 0.31009217955082574
die 0.003795727184193033
nar@@ 0.6107181264423336
species 0.08247959415416492
Bra@@ 0.7096412177495495
inosa 1
Bit@@ 0.8997568370848652
ento 0.34054467685491335
tak@@ 0.4249597625228328
Bangalore 1
34@@ 0.9617885216263823
Cho@@ 1
ovi@@ 1
109 1
Two 0.21861811077508989
omi 1
Ig@@ 0.8358000346896045
Am 0.08183928114005022
Beatles 1
450 1
But@@ 0.5642557644106483
Guatemala 0.959379213508397
Ish@@ 1
Pop@@ 0.5800452766677671
minor 0.38965836913959306
bec@@ 1
{ 0.40676871438367124
Provence 1
sima 1
Chang 1
Yen@@ 1
Chim@@ 1
ark@@ 0.2840668924584996
this 0.020497225458632973
Lombar@@ 1
qui@@ 0.27968550439056644
Bang@@ 1
leria 1
rig@@ 0.5229449389865258
102 1
Vietnam 0.4609384793838626
Kis@@ 1
Moh@@ 0.6315887742255941
alli@@ 0.37179789554134623
chen@@ 0.41305767158854123
wo@@ 0.2675202336146383
Beach 0.41731781038415094
Yosh@@ 1
CA 0.5374691447922638
IP 0.7037321912627188
Key@@ 1
pos 0.700510109671249
rey 0.26154074812558814
1800 0.6501968468401369
auda 1
ball@@ 0.34144564295232976
hen@@ 1
Gur@@ 0.8045064119355974
Peter@@ 0.826371660480311
Rhin@@ 1
atsu 1
17.@@ 1
Chr@@ 1
alc@@ 1
Arn@@ 0.7518708033151632
Caesar 1
atis 1
set@@ 0.9045046919560649
Palomar 1
mont@@ 0.6240048628319277
ode 0.49937107906843425
yer 0.1989402504039781
1825 0.9523683529979262
Toronto 0.34868001162611234
eman 0.444276446527
NA 0.7674657796542548
Rat@@ 0.6888686069977878
Brunei 1
Harrison 0.838218740465558
acr@@ 1
syl@@ 0.928700874012704
Madonna 1
asci@@ 1
1831 0.8892650903731324
Gali@@ 1
DP 0.8190273026789622
Dance 0.6593677321776354
Epi@@ 1
Laur@@ 0.4987146447005562
RE@@ 0.4680576305263032
elius 1
Abu 0.927574980551129
Gris@@ 1
eza 0.8936235951727411
Dus@@ 1
wh@@ 0.20373991406541753
70@@ 0.9755247719575975
Bow@@ 0.5615808049040827
We 0.30665114804040844
Fur@@ 0.7936696067541873
Japan 0.14656246806206627
Mül@@ 1
München 0.38520039331559386
adr@@ 0.5029937908375463
chen 0.13439464473240878
Co 0.3937536709962172
ks@@ 0.3059552000705283
Erica 1
Il 0.022727612349595583
Maine 0.6845837148095925
Will 0.720304428702967
ner@@ 0.22851786705445848
Jun@@ 0.9635201548393133
Network 0.4365620063450134
glau@@ 1
Iso@@ 1
Point 0.42539320940781394
chum 1
orn 0.5870440429959295
ES@@ 0.4708959589564776
tari@@ 0.6260291681162373
Moselle 1
Pep@@ 0.9401582307086664
Siberia 1
25,@@ 1
Jefferson 0.9976888940182482
plic@@ 0.6097420486059711
Alt@@ 0.47223153453487077
Magn@@ 1
Tat@@ 0.8113138009698775
ike 0.45249515000677737
19,@@ 1
CE@@ 0.4865857011260245
ER@@ 0.4904588934852249
Ni 1
Tim 0.6800626748592447
beta 1
ding 0.19726476993029998
insky 1
pub@@ 1
test@@ 0.7431012371080373
Gaga 1
Alb@@ 0.6461424700089339
Pedi@@ 1
Old 0.26814848575128414
Sis@@ 1
aç@@ 0.6307970663975936
elles 0.11770252635007156
igo 0.8683933445619827
ä@@ 0.09715428750981522
24,@@ 1
Fro@@ 0.8110521586853224
enth 0.9694962152128793
170 1
AP 0.5837441773058261
Van@@ 0.8583184700469547
Bran@@ 0.6050637515667889
This 0.03205357523847249
feld 0.27986330477556276
gram@@ 1
Syr@@ 1
ander 0.8464530654059752
bs 0.2286114640404092
japon@@ 1
hiz@@ 1
kan 0.5996891329074254
ò@@ 1
Clem@@ 1
UTC 1
Bid@@ 1
aa 0.8749488529962514
chol@@ 1
lon@@ 1
Wor@@ 0.34688354845612657
low@@ 0.4116853057112537
s. 0.8046514660646183
auc@@ 0.9352255247089919
edia 1
ket 0.4830849238946968
ako 1
bri@@ 0.36015242835481814
Moscow 0.5611609288182683
SS@@ 0.6812953930312348
ped@@ 0.4342222106675808
Sn@@ 0.8872996191790102
wa@@ 0.45936354151493825
María 0.2880403564262363
Mozambique 1
Tul@@ 0.7144544788892564
Dum@@ 0.8064292521593223
ż@@ 1
AL 0.789399271949274
mit@@ 0.18217034510845084
127 1
dro@@ 0.2945787327006207
ocentr@@ 1
oo 0.5962292314382676
3000 0.7135745387475434
47@@ 1
Bed@@ 0.5037103123795653
Vatican 1
ast 0.19928901252225067
opti@@ 1
22@@ 0.8752757316717074
ili 0.5698761330565296
Mé@@ 0.34921841904300194
Valley 0.25352176829591844
ayi 1
hynchus 1
Île 1
Jong 1
Neg@@ 0.7372113945969844
XV 0.6483501260139285
ister@@ 0.47459630644884054
Sali@@ 1
Turner 0.8256646966696605
dri@@ 0.4887261994678143
ord 0.5346066596211021
pas@@ 0.15178050044891161
CT 1
Sym@@ 1
Wayne 0.7910975488649178
hydr@@ 0.6250304846554655
Artem@@ 1
Hamp@@ 1
brac@@ 1
Ever@@ 0.8192926458254254
Junior 0.41121802663671464
quar@@ 0.5352520748591312
zu 0.013526012723852461
Dro@@ 0.49633514273768004
ert 0.09755643637213408
Athens 1
Ji 1
tía 1
Pop 0.7875939465453093
vin 0.5109057094213828
ın@@ 1
Ped@@ 1
Vy@@ 1
aire 0.08012992594785535
arium 0.993860937001866
ting 0.05408807945178875
1828 0.9224483769127464
Trig@@ 1
ạy 1
104 1
Heinrich 0.30938516848817116
Kyoto 1
otr 1
rapper 1
oke 0.4914065385024667
α 0.38094746793395823
worth 0.3128343103299346
ariensis 1
gio 0.6182382766437049
ulu 0.7904481275986173
Mug@@ 1
Russell 0.6213055711734365
otica 1
Corn@@ 0.6959570395168103
Johann 0.2376232366678323
aco 0.5446656959662354
nica 1
LV 1
Şanlıurfa 1
Gran@@ 0.46481159762638324
Anthony 0.48830367823338955
key 0.2093859161259431
4,5 1
48@@ 1
Bretagne 0.768946359045916
Mey@@ 1
May 0.053547246211469404
Rhap@@ 1
aster@@ 0.8050508593460838
oxy@@ 0.8190518943485771
opes 1
Digital 0.7237523675477651
Thy@@ 1
pod@@ 1
amino 1
robot 1
lim@@ 0.34746330628776334
Miss 0.4163515002576718
å@@ 0.517597816480667
Sus@@ 0.5105220002583828
lé@@ 0.7542846199648021
Clar@@ 0.6217218549914428
Mario 0.6109374820505499
ér@@ 0.13928692750152238
Tag@@ 0.7339145972036876
Thai 1
odia 1
tea 1
tw@@ 0.20496473317302233
Prince 0.26910241438508326
edo 0.45527318319835447
spi@@ 1
Tsu@@ 1
1835 0.7775650798016899
Gas@@ 0.4225862186133236
Guadal@@ 1
Luxembourg 1
Greene 1
mand@@ 0.3201324829366023
30.000 1
Lob@@ 1
Wak@@ 1
otro@@ 1
Jr 0.43794697104754055
alaria 1
chan@@ 0.7764181569012781
jav@@ 1
ướm 1
quad@@ 1
Trans@@ 0.24042008463044154
LA 0.5365650119522498
amen 0.60414068996637
Munich 0.7905481630357529
osis 0.3959065866277903
Gag@@ 1
ựng 1
Buch@@ 0.35395819428448966
chrom@@ 0.810073936190819
Be 0.747288209549503
C1 1
20,@@ 1
ogn@@ 1
François 0.28514919211126666
Wu 1
estris 1
26,@@ 1
Shin 1
aja 0.5098699561169436
ges 0.16676172614946178
pon@@ 0.3175939718678378
Award 0.12349339020046049
Potter 1
by@@ 0.5727130893518649
vus 1
Leningrad 1
Koch 1
ina@@ 1
kam@@ 0.8498437630443184
Next 1
Nord@@ 0.19905167935323495
neum@@ 1
novel 0.22087412497426123
Baz@@ 1
alyptus 1
cau@@ 0.7148873545328118
王@@ 0.30203654248435696
Land 0.19123666757302604
agara 1
thy@@ 1
Las 0.10357251293383855
ody 0.374540766850088
asy@@ 1
hid@@ 0.5937553544904303
laser 1
stone 0.1986300067185565
enger 0.6643603746042532
esis 0.45613986757374186
DJ 0.63137128824628
Marvel 0.8490437816877731
asti@@ 0.7008508591998142
cell@@ 0.6954391870049701
Than 1
elus 1
hon 1
Road 0.14113448828106198
anti 0.19122790163130124
Um@@ 0.17858747901759842
let 0.19596189136618072
Sky@@ 1
190 1
GB 0.6851368575581969
Warner 0.6605042045882092
mel 0.7679635525495929
acer@@ 0.9067261943723763
Chin@@ 0.7103852798873652
Manga 1
eth 0.4445877910167157
tra@@ 0.34059501088057276
affin@@ 1
nd@@ 0.42835566100291916
Gold@@ 0.42949996553587
omer@@ 1
Prom@@ 0.7119078959470747
bass 0.6473839191063158
bau@@ 0.2504287804126768
mun@@ 0.37107728370008813
nham 1
amph@@ 1
Jacques 0.29960000319251223
Deb@@ 0.4136807503137541
hop 0.8257860610847527
Roosevelt 0.9966657530869352
27,@@ 1
Mikhail 1
Jin 1
Ner@@ 0.7718301828920677
Ryan 0.5676143887071172
ylon 1
Nas@@ 0.6536071141141565
XVIII 0.5695232243042458
atica 1
dev 1
320 1
Bom@@ 0.657521909104392
Ambl@@ 1
Tach@@ 1
canal 0.39067163495653684
gun 0.3620435407021885
its 0.01361480753023794
ī@@ 0.6058020655853161
Echin@@ 1
poli@@ 0.5736744149894715
Golden 0.3777829113059186
Obama 1
arra 1
dot 1
Band@@ 0.5085206701188807
Rec@@ 0.20458455419473698
cher@@ 0.4014154850471799
teria 1
tus@@ 1
Aus@@ 0.07625769027693147
Napoleon 1
actus 1
Zen@@ 1
ë@@ 0.5929304161396781
18.@@ 1
8.000 1
Fon@@ 0.5563962663301986
23,@@ 1
ave@@ 0.574659343160956
light 0.14115031724931548
na@@ 0.7587141130926344
1826 0.9222538812165645
Stein@@ 0.2950829171116881
las 0.012660473840361564
ana@@ 1
bury 0.3947080377767025
eira 1
Nob@@ 1
thium 1
ud 0.6077910706902632
ids 0.18711519701614754
Aleksandr 1
Christopher 0.5881386112787926
Net@@ 0.9567084649389531
inga 1
ose 0.3514166697227967
rug@@ 1
BC 0.28625456482778494
Miami 0.4840912245476526
acum 1
enza 1
Iz@@ 0.9410917436305372
Phal@@ 1
ated 0.02852814768580112
zy 1
AB@@ 0.6698543618993726
Taliban 1
AD 0.4586710239644458
Balkan 1
Bour@@ 0.5050451992128805
Lou@@ 0.5147458225801723
ily 0.6825389743464604
Philippe 0.48886238324714176
camera 0.8737499746512254
olia 1
Morgan 0.5693913549501441
Samuel 0.4064206957364963
abad 0.48993334091295143
apa 0.7145394652335508
Arm@@ 0.5591092157067508
ater@@ 0.6149959233441193
pach@@ 1
metal 0.2914799981883491
tium 1
MS@@ 0.7310879666426174
ning 0.20130461325842294
kur@@ 0.32164358799238857
Cardi@@ 1
cro@@ 0.20344940533078576
Chor@@ 0.6063836066577992
Raymond 0.7076099437076036
Ichneum@@ 1
ST 1
ander@@ 0.4812603004730473
tab@@ 0.3325640780674768
ş@@ 0.49771892148720986
TO@@ 0.9825860111782029
ide@@ 0.23966867640501346
Hans 0.2527303546792766
chel@@ 1
RO@@ 0.640606538984075
Kevin 0.5424178608091859
ches 0.1055871888029718
tac@@ 0.4881657906744942
Ostr@@ 1
lav@@ 0.5610380348848585
Banks 1
rep@@ 0.2650976350985723
DA 0.5834540134650467
erus 1
glo@@ 0.7925473423161453
Hin@@ 0.29682827979642507
Jim 0.38782682436698906
cron@@ 1
ès 0.30248036145942647
Pyrénées 1
nan 0.9519060045050043
Bah@@ 0.5099288974450857
Cant@@ 0.6054022477776254
Nelson 0.5850449809841612
ulin 1
Khar@@ 1
ough 0.3069814317150926
AIDS 1
fe@@ 0.09305195342224103
rap 1
Maritime 1
Ob@@ 0.34086461337390994
TE@@ 0.6385487743390187
sius 1
MI@@ 0.6601145529399365
oper@@ 0.2262443425967589
alis@@ 0.4110013141023795
bó@@ 1
GP@@ 0.9827124925658094
Good 0.5620096652620039
Spring 0.7478494789827997
onius 1
Lucas 0.8135261420520111
aj 0.6534328829528444
³ 0.8657212939431791
mes 0.16380904464649426
Gros@@ 0.7855670903039467
Wright 0.6335983912253671
glu@@ 1
128 1
Patrick 0.38769574420375574
alba 1
ean 0.47425390264492007
olig@@ 1
Rider 1
esper@@ 0.7140472561014476
Cru@@ 0.5618433687229052
Play 0.6386048086919065
Venezia 1
107 1
App@@ 0.5002467115376135
CC 0.4974599782026838
20.@@ 1
pres@@ 0.11440659017390223
tion 0.059184549497877124
Hak@@ 0.8605852226668661
Hur@@ 0.4361719840549119
enne 0.13584030186670787
idis 1
1829 0.8597092340145982
Nova 0.7223904774764782
onlyinclude 0.46529721116735656
zu@@ 0.202981314500445
Pau@@ 0.697104648872188
Santiago 0.39776582880844
Mut@@ 0.6049678064336785
Nicholas 0.7475685959452473
Ae@@ 1
Buck@@ 1
Yor@@ 1
medi@@ 0.18128210212698928
AU 1
Lem@@ 0.5845183214359391
Witt@@ 1
house 0.08140017759257193
Kra@@ 1
Rolling 0.873550585555969
22,@@ 1
50.000 1
Blake 1
Power 0.3950938801155095
kham 1
李@@ 0.2957596456115113
Yel@@ 1
cili@@ 1
Comp@@ 0.553065004085045
coma 1
leg@@ 0.20601946928916143
Heart 0.6288699977216232
Pog@@ 1
ader 0.3483510108541192
cot@@ 0.39651122603742717
ely 0.08772465758264138
ề@@ 1
Yok@@ 1
1820 0.5551431037849418
agon@@ 0.6762439909469418
Xu 1
fa@@ 0.19988018440179006
urg@@ 0.3327665869181252
ń 1
Bolsh@@ 1
Carter 0.6330755287112585
inium 1
ism 0.09962245546567308
kei 1
wen@@ 0.34038161316545273
Grim@@ 0.9849054474139589
Wer@@ 0.2603166984555642
rap@@ 0.22500272630216142
Lamp@@ 1
gens 0.6803313767591068
Aires 0.3514967892907565
Myan@@ 1
Sec@@ 0.3846172834884721
cha@@ 1
sac@@ 0.29355585730606903
amo 0.6730923277242147
emp@@ 0.20814294399616803
lich@@ 0.3181201435060353
yrus 1
Garonne 1
Men 0.28399445798730405
alan 0.409593135738444
neri 1
org@@ 0.4407682239345433
90@@ 1
Hokka@@ 1
Melbourne 0.41219180082819945
may@@ 0.4558656086674834
Anton@@ 0.8295843198605571
Darwin 1
Robin 0.7625012948173214
olis 1
acus 1
anch@@ 0.5180752726411235
comp@@ 0.14988219669712072
super@@ 0.13769464625025274
22.@@ 1
usta 1
Batman 1
CI@@ 0.486983263223
Hag@@ 0.7914280800598433
Son 0.14091397736357536
hal 1
21.@@ 1
Buenos 0.3489857573187907
ones 0.0934580068612904
1810 0.7992664535759423
Eup@@ 1
isha 0.9129416840360222
ran 0.18072123815346383
rei 1
DE@@ 0.4618249976133117
Mod@@ 0.43550315485597735
7.000 1
ẫu 1
Hit@@ 0.8626407254752783
Mess@@ 0.45848740168616625
ave 0.40845567195417376
foli@@ 1
Bundesliga 0.5529220543492592
Eul@@ 1
âng 1
Barbara 0.5960498766318587
hynch@@ 1
phr@@ 1
106 1
115 1
Wes@@ 0.5140583117817391
Cruz 0.4547116284813737
RI@@ 0.6001639572717349
anii 1
gem@@ 0.26602786556816227
Boh@@ 0.6903219328898703
Id@@ 1
War 0.05833491909766272
asu 1
kab@@ 0.6210602660498679
arina 1
AF@@ 0.678589159418952
Fantasy 1
Levi 1
Somalia 1
benz@@ 1
cid@@ 1
etum 1
lance@@ 1
ling@@ 0.6723300537812414
sag@@ 1
uga 1
bón 1
103 1
Namibia 1
gu 1
Genti@@ 1
Kul@@ 0.7197495745069743
Ontario 0.32518567817025507
anger 0.36908706478962594
lav 1
tae 1
Shah 0.9322888561868932
sl@@ 0.30600844842221553
tre@@ 0.1554525968916544
lida 1
Lei@@ 1
Eil@@ 1
bu 0.16993015435343076
Cun@@ 1
bula 1
ostr@@ 1
Brid@@ 0.7282306176865445
Mac 0.7881892229339559
oki 1
Cous@@ 1
agro@@ 1
sonia 1
ā 0.8579820630251833
Bruch@@ 1
Duy@@ 1
Nebraska 0.8931487651797908
Santo 0.6693343494822243
「 0.07338546280838922
Gle@@ 0.6525398131509681
MP 0.46406408921467956
eme 0.4996369817257023
Harris 0.5435133286417169
Home 0.31908549337602327
ann 0.4064791224712017
pol 1
radi@@ 0.286727275094887
CO 0.7107534374832013
trac@@ 0.33576575480664905
」 0.07321393148286842
Inter 1
anos 0.19849412125180232
model 0.18747225488166214
IA 0.74425022299734
Madison 0.8123178822380331
Maur@@ 0.575406710868831
uri@@ 0.7236242959506608
Lic@@ 0.7325640234424107
argent@@ 1
hin 0.3838793226174807
Sai@@ 1
dod@@ 1
eller 0.23736515790306956
n.@@ 1
Bath@@ 1
Oh@@ 1
Tiger 1
nati@@ 0.6609795053396057
sing@@ 0.3667760794871544
Rot@@ 0.3332514981967064
uno 0.11965797119647945
Assy@@ 1
Tennessee 0.4205592892411927
Tokugawa 1
Gabriel 0.5279940688331092
Kay@@ 1
Latvia 1
orient@@ 0.7016714350488559
Einstein 1
Lord 0.2123530057229403
rem@@ 0.21048918863984395
Lyon 0.47818997051246886
Sant@@ 0.7650477199849641
air 0.11356902829853376
oun 0.9929514302551725
w. 1
ayat 1
ias 0.6131353928172946
Turk@@ 1
Lith@@ 1
Sub@@ 0.1643738112544256
yar@@ 0.7101908887144989
Brah@@ 0.9172902894289136
Ivan@@ 1
Milano 1
Ralph 0.8362024100477763
Lup@@ 1
O. 0.847023083025679
Zambia 1
borough 0.3595164531965524
tag@@ 0.5682807528280367
Adolf 0.6268216016331417
Sper@@ 1
Takah@@ 1
} 0.40253492185507306
Solanum 1
andi 0.9583408079411739
avius 1
ady 0.44222526913198335
oliv@@ 1
imi 0.6770042877935698
111 1
Fil@@ 0.29224434239085173
PE@@ 0.6816223662315057
fili@@ 1
Him@@ 1
lard 0.47934727118971454
Web 0.954896338083352
ectus 1
kir@@ 0.5420057930964026
Marcus 0.896128041046785
poda 1
Sankt 1
ocol@@ 1
ser 0.06169860669855095
ữu 1
113 1
135 0.9557294363578367
Kō@@ 1
lev@@ 0.4007926562726121
lex 1
lod@@ 1
tz@@ 0.7454115972406269
Row@@ 0.6330670451703333
tul@@ 1
China 0.1002505179015373
Ptolem@@ 1
Sey@@ 1
Orch@@ 1
cun@@ 1
ü@@ 0.1307693613351148
Ama@@ 1
Jimmy 0.5455458766475991
Kepler 1
Mall@@ 1
Tric@@ 1
Dim@@ 0.8332768455894578
Ray@@ 0.8956918129344341
Cul@@ 0.43557381556241787
fre@@ 0.1501289340065276
Ses@@ 0.8423049457129633
zar@@ 0.6046914527663998
lus@@ 0.5179619787966864
Gö@@ 0.9097985972261298
eana 1
that 0.004703735285736772
eb 0.7528050181025399
este 0.06150119598535411
yon@@ 1
ș@@ 0.830221839359016
Luis 0.25360883663881245
Ves@@ 1
240 1
Post 0.26907754703358433
nucle@@ 0.8156223505519068
pac@@ 1
Association 0.09859398864714809
Under@@ 0.7198235678514461
oss 0.6587419803000859
other@@ 0.5049007506376443
sha 1
Min 1
itch 0.587330466339327
Sek@@ 0.7659444236120776
Story 0.6739257589131271
aug@@ 0.5894132542508471
lag@@ 0.26724508646939205
Andre@@ 0.9307315177228144
Fort 0.23759057764499797
Kak@@ 1
win@@ 0.6893259476013157
Uzbekistan 1
Sivas 1
Orange 0.6166702330802555
Sharp 1
Syl@@ 1
pri@@ 0.2468710661938475
Maya 1
sap@@ 1
Og@@ 0.952257681489538
1500 0.4870291633496663
46@@ 1
Cog@@ 1
ID 0.9854784920913007
avia 1
IBM 0.9370675751443547
far@@ 0.2764017945257466
then 0.030179421603137704
Mete@@ 1
leb@@ 0.6533666234699599
mang@@ 0.8037552582292588
oon 0.47434098675851105
19.@@ 0.9878594363403947
BO@@ 0.9946028110309862
ayan 0.58061728145924
dil@@ 0.43982616911704114
eland 0.4599362106470111
pH 1
Div@@ 0.37824429618715283
Type 0.6747935270429789
Yan@@ 0.8523818590399935
X. 1
aios 1
ange 0.30284383688828953
losa 1
Game@@ 1
Megal@@ 1
Neo@@ 1
Sea 0.2801138577026723
time 0.01892441528336853
Hut@@ 0.7614288188443282
Polyg@@ 1
ostris 1
wi 1
IUCN 1
ds 0.13030794326168288
wak@@ 0.5077066005553422
Paraguay 0.9464159763609838
Sang@@ 0.9803720757203612
his 0.005806938375609933
lik@@ 0.29967917896419505
phth@@ 1
CP@@ 0.6645755135173265
Manuel 0.3017303321327786
ao@@ 1
gor@@ 0.7388518219737167
28,@@ 1
Barr@@ 0.4470590113486963
Stor@@ 0.6519673995429137
egia 1
Juventus 1
azi 1
ery 0.22939791590661615
1.500 1
1806 0.7390558486299346
Apollo 1
MO@@ 0.6798365061765488
opp@@ 0.8791143000249066
55@@ 1
Charlie 0.5745301445844646
Mobile 0.9343083694245227
anium 1
zen 0.14644865730669995
200.000 1
A1 1
formes 0.41899679143003843
hydrox@@ 1
odo@@ 1
Kap@@ 0.33639429202904825
Ou@@ 0.6315671006633189
ort 0.2896253428276153
oster@@ 1
Ş@@ 0.6591699632059007
Vincent 0.5299284001759657
fin@@ 0.08881582155829139
sut@@ 1
syn@@ 0.2956366337574162
Hindu 0.9078521508859475
LC 0.9643952661812347
area 0.044847334295211864
ations 0.025886231729531313
ats 0.09157997247987848
Sac@@ 0.5668752458780862
ust 0.2604828222496148
21,@@ 1
TVB 1
ers@@ 0.4759434308006421
Nevada 0.7540080646359362
Pied@@ 1
100@@ 0.8808756935743789
Cic@@ 0.9966520420782246
gro@@ 0.31302852512974655
Carey 1
cam@@ 0.3211109249715676
yle 0.5120913624199661
Afr@@ 1
tot@@ 0.37077993875106147
ğ@@ 1
Adri@@ 0.6350074213709106
ego 0.4888899717175245
Calais 1
hormon@@ 1
kard 1
sw@@ 0.14880156169463776
Medi@@ 0.32331344471197376
Netflix 1
Newport 1
210 1
Haiti 1
Jura 1
jan@@ 1
thoph@@ 1
Typh@@ 1
camp@@ 0.5304593483404124
chor@@ 0.3767188817122667
Cook 0.7225395038571103
Festival 0.12340863355520702
fort 0.16156687903569578
mani 1
pid 1
NT@@ 1
Sarah 0.4897973293653678
otte 0.6922512601078157
Gad@@ 1
bac@@ 0.46653027390274293
file 0.7341054689454886
pınar 1
tem 0.5189668405262646
André 0.402956368272299
elma 1
Did@@ 1
Saf@@ 0.7494838187708683
Z. 1
ór@@ 0.5950732584439561
1.5@@ 1
rod@@ 0.6549075938962409
.C. 0.85181079482053
Edo 1
bine 1
cir@@ 0.5703829720311212
emer@@ 0.44871364846131984
Ori@@ 0.4764791937675058
elec@@ 0.23886810814408477
Pays 0.5033638765274486
Seg@@ 0.37321107931701747
aurus 1
alo@@ 1
uli 0.9788852598346821
AG@@ 0.7350928522019649
Boul@@ 0.8301834421166353
gos@@ 1
kh 1
ograd 1
65@@ 1
dorf 0.3331396068086643
yana 1
wara 1
40.000 1
Fest@@ 0.44656642992928053
Ant@@ 0.5654915954321243
Ngu@@ 1
abi 0.8618606938802781
ecus 1
1801 0.8292650942501939
cord@@ 1
odor 1
shū 1
var. 1
Chr. 0.5193372310937758
ŏ@@ 1
Boys 0.5043677193077181
Budapest 0.8045267411313097
Las@@ 0.6213698838299802
idia 1
tepe 1
Ł@@ 1
IP@@ 0.7753878841298575
Han 0.6406862889964491
Pis@@ 1
jazz 0.41528780584743324
uba 1
bot@@ 0.29387728960722986
pon 1
wang 0.9903360205034166
ald 0.4525300925199918
atis@@ 0.594670845708282
tit@@ 0.6336238136602124
Fabr@@ 1
OH 1
Santos 0.7487553541368331
plus 0.021582767873499196
Brandenburg 0.8218555619213438
Key 0.939160336601585
isc@@ 0.740527010049398
Hip@@ 1
Roy 0.5193175550912082
Sto@@ 0.37397261559951456
diesel 1
Intel 1
Lot@@ 0.6008938784865961
Pec@@ 1
XVII 0.6304714785238219
mak@@ 0.6190075720607819
Carthage 1
arp@@ 1
day 0.05009210936249114
Neu@@ 0.2036990309724288
1812 0.5807304325486701
EC 0.7759776777128058
HQ 1
IF@@ 0.8397440259147437
dos 0.04969059828687625
Jason 0.59602303772587
Zor@@ 1
base 0.08892323760720491
ical 0.060802476383343795
els@@ 0.4292237872572762
oux 0.5313066170422927
Ö@@ 0.29364434953322344
1789 0.8409634737504278
eles 0.5150479244945498
mix@@ 0.32973820118243524
Sen 1
.S. 0.8080902945150803
Andy 0.5914790983427034
Bismarck 1
Christ@@ 0.42525137148393294
Glo@@ 1
evik 1
Taj@@ 1
mail 0.6752491680058793
mon 0.5796345117714432
è@@ 0.24793443574578672
Dry@@ 1
Log@@ 0.5151868834903223
FF 0.6520545614374107
Maryland 0.40266155052286795
Ton@@ 0.4382603290129412
fen@@ 0.3571177177285841
squ@@ 0.4865287202161117
Ka 1
Kane 1
clav@@ 1
hiro 1
orth@@ 0.781164712417974
Tap@@ 0.872307072330598
Y. 1
ono 0.6624093122683828
Arena 0.5136042463024806
avan 1
ime 0.4162428530814629
ott 0.5370293548812867
AV@@ 0.8012058635688551
Shel@@ 0.6140729788267565
Silva 0.8493350307449196
aye 0.43700655915719977
h. 0.8824900857885222
Amsterdam 0.5400586729984183
MW 1
oya 1
1802 0.8799053047421588
Aragon 1
Kelly 0.4999568048140701
Light 0.4394522081328712
Saône 1
dav@@ 1
Like 0.3538955609915408
sburg 0.5583322425254446
Cast@@ 0.610539544822315
Gram@@ 1
System 0.2244884096510459
What 0.4291068967208619
Gordon 0.42857755300918043
Leo 0.6442407168262352
Malawi 1
Steven 0.7594100841724518
lers 0.16265028850721255
1.4@@ 1
112 0.9956090236034196
APG 1
Koz@@ 1
Stre@@ 0.28971718561069976
TA 0.41632263134667585
ante 0.051205830379016826
2.0@@ 1
Bhutan 1
fon@@ 0.2937943261304149
Toy@@ 1
let@@ 0.3006659725777655
æ@@ 0.5625572220734699
ợp 1
49@@ 0.8143945034551215
Cou@@ 0.49625174824941637
big@@ 1
ymus 1
Jur@@ 0.38621137180462256
Kır@@ 1
ize 0.3618695876678347
Alc@@ 1
Card@@ 1
adia 1
Dream 0.7977160897098772
Hoff@@ 1
atic 0.19821444044163666
Hus@@ 0.46774430214781904
Mind@@ 0.8497985860373845
Pan 0.6617646105503856
Walt 1
tax@@ 0.3704640600178726
Po 1
rog@@ 0.7651680856427335
Ut@@ 1
Neur@@ 0.8227538960985574
you 0.14795615922839545
Mau@@ 0.5273371768823415
Oz@@ 1
Rev@@ 0.29697254492893194
Universal 0.5589773590533539
etto 0.6975464691205283
oz 0.694311315477631
plaz@@ 1
tier 0.22655166157000473
vid@@ 0.6158358223971176
Habsburg 1
Kuwait 1
aman@@ 0.9950594246139042
1821 0.6718223259050081
44@@ 1
Cau@@ 0.6255245039722328
Nick 0.5258875168864174
115@@ 0.8384710541836918
ABC 0.44840558195732133
DI 1
1.6@@ 1
aan 1
152 1
Honduras 1
Tit@@ 0.3411419292815446
aud 0.24878594483172065
ingham 0.6819955780974
Idi@@ 1
ehr@@ 0.3966582118264943
see 0.09927840211603048
ệc 1
Ross 0.4715744875795128
Sahara 1
aban 0.12516798844322305
shire 0.2855976124736904
tes@@ 0.42675218088979855
Dark 0.6392095184860656
pig@@ 0.7981201297390266
BA 0.42084399249132876
VI@@ 0.5616349863073662
lec@@ 0.25094916068267226
web@@ 0.7464701600590273
Ferr@@ 0.5448687299700931
erman@@ 1
Luke 0.7758364445608767
Salvador 0.5743843426728364
endr@@ 0.6292460561249503
lot@@ 1
Delhi 0.6715794290432
Euph@@ 1
German 0.0751661236676944
Kod@@ 1
las@@ 0.519979428192414
stan 1
23.@@ 0.9364451154720884
how 0.13072239254202617
State 0.050703548664598176
bet@@ 0.40678562381161076
loan 0.4801170025479483
‎ 1
Maxim@@ 0.6888018441801766
Nev@@ 1
lier 0.29302483625413644
agan 0.6550379481305106
fas@@ 0.3064723458099845
frag@@ 0.36737350814368835
rosa 1
Benjamin 0.4721426974228433
Kens@@ 1
clar@@ 0.6258320365092795
NE@@ 0.5473667372937007
rea 0.8566911446302432
Sent@@ 1
Timor 1
og 0.5348063421018312
29,@@ 1
Lak@@ 0.61910432202996
oud 0.41577994463597695
uria 1
500.000 1
Giovanni 0.5493238838256645
Hamburg 0.2954210940893357
inda 0.8700996846266896
Sit@@ 0.9375212521341536
ete 0.17568054860891882
lera 1
Carl@@ 0.6949423082145744
Dipl@@ 1
Spir@@ 0.724141705962355
af 0.5026545396456176
cy 0.3743726507241175
vor@@ 0.06282272989100099
Dan 0.4688737573299987
ogo 0.9365745421757845
ther 0.43451813857993293
trum 0.6251356501141375
ago@@ 0.7606318174153196
cryp@@ 1
dent@@ 1
peti@@ 0.8114224035885838
RS 0.4954894226563242
zo@@ 0.5211033659439376
Mariana 1
Project 0.3653550082489735
1,3 1
Stap@@ 1
back 0.0489894528848111
opterus 1
yeon 1
75@@ 1
Fuj@@ 1
Jo 1
sta 0.6367085027002246
Venice 1
ocarp@@ 1
Raf@@ 0.8727349332186043
polis 0.6153519661857441
Meli@@ 1
Philip@@ 1
Vienna 0.5971027030332345
Kob@@ 1
Yuri 1
vers@@ 0.18979367666180638
750 0.7997392128627658
Abraham 0.6610565238827802
Agri@@ 1
Allo@@ 1
rus 1
230 1
Gek@@ 1
Lennon 1
Aub@@ 0.7331675169703673
Stewart 0.5106889674496522
dance 0.31041894132167125
das 0.00906187140022228
Clo@@ 0.8264398147611062
iPhone 1
š 0.6606490089025481
Zero 1
Caroline 0.6897973620380942
Cha@@ 1
Forbes 1
Montenegro 1
Oliver 0.5595280923397234
ies 0.06692169864634248
ác@@ 0.5477811966864501
1,8 1
sho@@ 0.24022337666724145
ustr@@ 0.7704924533168136
ères 0.13860506410083104
int 0.48600794670290576
Augustus 1
Lun@@ 0.8837207128755885
Murray 0.515333520737173
Bohemia 1
Hot@@ 0.8303211532434424
Jag@@ 0.6674390928615509
Kastamonu 1
Tham@@ 1
Wolf 0.5965636489942654
acon@@ 1
arti@@ 0.546929686035189
Boc@@ 1
ask@@ 0.4742850754089108
Now@@ 0.8367924667016108
Samoa 1
awak 1
peru@@ 1
ık@@ 1
Foundation 0.23416385417474997
Thr@@ 0.9228275646542831
Tottenham 1
itter 1
Leon 0.9491842376399493
Miz@@ 1
Titan 1
To 0.14299861194832175
forme 0.13433233590979002
Dong 1
Paras@@ 1
Byr@@ 1
Luther 1
Rein@@ 0.4355639751831692
Christ 0.38333409855898526
Jay 0.643563741345665
Office 0.23990744394399832
PO@@ 0.6986756168755217
chip 1
fe 0.14576044545531305
ology 0.07470761798972658
Alpha 0.9860471979333982
Cô@@ 1
Tru@@ 1
arus 1
ı 0.27876832471606683
ator@@ 0.43003839302557895
Monte 0.5714391443240269
Sah@@ 0.6587836408686959
Wood 0.5188003688480547
1,6 1
126 1
144 1
Art 0.08762553762776147
Robinson 0.5189419708386905
net@@ 0.37414576511549724
Tad@@ 1
That 0.2062263107597354
salis 1
Emb@@ 1
Ras@@ 0.5104457434787195
ble@@ 0.4343936871061204
August 0.031382881273142475
ISO 0.9662443566131339
Nixon 1
Singles 0.4005009377231637
aker 0.3275978843594631
dere 1
eran 0.09152485564746356
sig@@ 0.2156965247687989
Corse 1
Fol@@ 0.2867040533553484
igny 0.8026323107269756
Sco@@ 1
Uli@@ 1
oride 1
Line 0.1986734372784935
ante@@ 0.6404314438093803
blog 1
iz 0.49238238712445315
AK 1
iku 1
irus 1
Cler@@ 1
Frankfurt 0.3686714572809545
dita 1
± 1
ë 0.8918463340198213
000.000 1
280 1
Alek@@ 1
Ole@@ 1
Out 0.3975399977382603
abra 1
zh 0.5772604383663749
ören 1
Et@@ 0.26640127589294865
Way 0.52412526097467
Austin 0.49495384268589526
Pho@@ 1
Kann@@ 1
Shaw 0.904764485420666
plum@@ 1
Seattle 0.47887092139207244
Stu@@ 0.32314960716429164
anol 1
ment 0.04830804374276281
sos@@ 1
He 0.008475329378990584
tua 1
Ž@@ 0.8213510126521621
eville 0.765757897838035
unga 1
Ev@@ 0.4156819721109799
census 0.16076054752730515
lab@@ 0.2347197082010831
out@@ 0.09537906848854431
Evans 0.5866857557893979
jan 0.5306204629460181
speci@@ 0.25167034864733473
122 1
Nicaragua 1
audi@@ 0.6137948221407149
tr 1
TT 1
ayo 0.5158160290407164
Wed@@ 1
atra 1
nad 1
nom 0.07111617954581498
Phoenix 0.647282270967231
Valencia 0.6132260745016078
down 0.06771420338763971
gil@@ 1
Castro 0.7733209520601786
Sports 0.251897482607465
bak@@ 0.5288602708391789
ister 0.23462989619182742
oker 0.6361961591412165
Louisiana 0.5005235707315262
enf@@ 0.16962465411310995
gs 0.27025994338905035
Yar@@ 0.9724674598354427
Gos@@ 0.7017750804818402
Graham 0.5336460408627934
Thal@@ 1
enth@@ 0.37233294104617953
Rum@@ 0.5498570165443804
avi 0.7626695992964195
Trinidad 1
cover 0.17231141051337043
ellip@@ 1
kel 0.2645008423242582
rie 0.4200103313155959
ris@@ 0.3908662406697989
Matthew 0.5630086966769284
Roman 0.12739756064247554
fat 1
iec 1
pun@@ 0.2605000542579183
1805 0.8268479231983366
Michel 0.2894385600529561
PP@@ 0.8054039596637046
odor@@ 1
Cran@@ 0.8905909835242692
Castel@@ 1
Uni@@ 0.23977585491969747
trach@@ 1
esh 0.5003857917634025
Fernando 0.36715564099923
Sant 1
aren@@ 1
Eg@@ 0.4501931785015565
Global 0.4377484019417871
Hey@@ 0.7744908117128948
Women 0.13356841974619915
LO@@ 0.7764847643391916
Wii 1
fel@@ 0.24338875656155287
hex@@ 1
nier 0.30091839381416446
Central 0.0967590789285937
ôme 0.7608654537559113
330 1
Lub@@ 0.9484851868736817
ticul@@ 0.674321454140983
AA 0.40789160446481054
Juli@@ 0.6451701839534004
5000 0.6479309315676303
ares 0.19426995767136337
né 0.08817635541993624
Psych@@ 0.5683100620015814
123 1
Eus@@ 1
Ken 0.7127753264452519
Saur@@ 1
oscor@@ 1
Charlotte 0.4496456924791218
phone 0.30714939096728555
şehir 1
ME@@ 0.4799790035665048
eter@@ 0.42547660988223246
pep@@ 1
Florence 0.6055735863127623
Newcastle 0.7569503156123635
Square 0.38764484738196575
kom@@ 0.2533867337378105
topo@@ 1
án@@ 0.2969412128174541
DF 0.7949364938725723
ados 0.033054887171824164
obia 1
1819 0.784444810909204
ando 0.04163488478677863
isch 0.0649937275613009
phis 1
resc@@ 1
19@@ 0.8307239397541928
SI 0.9144618001700028
doc@@ 0.3945238468870555
mut@@ 0.20375485618505268
gram 1
Cairo 1
Jacob 0.47404044667885015
Nokia 1
jam@@ 1
57@@ 1
Kath@@ 0.5078730098004575
nano 1
omo 0.637926980004684
AI 0.8939291469012409
Cameron 0.8471015823747237
Stockholm 0.6555020005340947
oby 1
rom 1
Denis 0.6181690551547102
atar 1
lès 1
Bé@@ 0.5183743667496825
inopolis 1
soi 1
BT@@ 1
Chap@@ 0.7220279862928647
Lili@@ 1
Warren 0.5935145819388874
elt 0.20818097893198548
54@@ 1
Janeiro 0.6999093458234964
Kang 1
iOS 1
ont 0.0360421330766062
wel@@ 0.2075563088158892
Aut@@ 0.2677157737049004
onic 0.3604089665629611
ward 0.1601272872986015
→ 0.7993998526220988
Athena 1
Pak@@ 0.7508633490203596
Tour@@ 0.2323387128900885
eu 0.2213508665031315
occident@@ 1
260 1
alla 0.5862283807820775
Fus@@ 1
mar 0.23777625958187484
r. 1
uel@@ 0.5130232547637906
Acr@@ 1
occ@@ 0.9356948799797302
ren 0.5938746094716711
tif@@ 0.37433844095053753
trix 1
Ă@@ 1
Bi 1
Bo 1
Gem@@ 0.40941175097688315
alpha 1
art@@ 0.2229343059529021
ost 0.2557243209342545
Ho 1
Shak@@ 0.9139911222223582
oj@@ 0.8444183729133459
sand@@ 0.376802546437138
Ha 0.5292016860272957
Stach@@ 1
kel@@ 0.3231274741405647
ought 0.7991667298841132
Lo 0.73083784441661
Rou@@ 0.4312583494302475
sex@@ 0.4716452083453651
spin 0.8499747318228904
wald 0.33821886332207374
1,4 1
1.7@@ 1
Cad@@ 0.4920453933886011
lov 1
ops@@ 1
riv@@ 0.4708384889382203
Kut@@ 1
Stan@@ 0.7069095602507068
vern@@ 0.2907308551660361
1818 0.6830548428262215
Iberia 1
ester 0.312155418820262
etz@@ 0.27336587970957255
lau 1
15.000 1
Cus@@ 0.6145949836431145
alar@@ 0.3999893526472724
ses 0.02436982830404866
201@@ 0.7005710070916966
Dick@@ 0.6672358972594657
Od@@ 0.5750995261088236
auch@@ 0.5612934402592217
Eure 1
Minas 1
over 0.022001479735589715
Joh@@ 0.9726884138471297
Sik@@ 0.9820855319588752
ces@@ 0.44580076634995114
ret 0.4241033492460921
1.8@@ 1
Bahrain 1
Beth@@ 0.7374217339291932
Lach@@ 1
mp@@ 0.3188707606041595
try 0.17122568468978533
Fiji 1
Gab@@ 0.5850776432665141
Works 0.41490893922357797
brom@@ 1
erg@@ 0.274206390755012
neur@@ 0.2958455715610531
osaur@@ 1
pard 1
CPU 1
Cath@@ 0.7539745849455106
Wel@@ 0.3351549759948
ager 0.19076068226866033
trat 0.14894132148878772
ix 0.3498365796231393
Dixon 1
Kentucky 0.38361112584868884
aza 0.5420865417730653
ect 0.11197060014307601
trunc@@ 1
43@@ 1
Jas@@ 0.8139766028720704
Montgomery 0.8617808471772457
Agro@@ 1
Daily 0.506352051867393
Raw 1
Say@@ 0.6986136492108124
Was@@ 0.5594103983854678
cep@@ 0.6170335580213251
inos 0.21968478627998173
Cyn@@ 1
Mali 1
Sound 0.4671292349985711
diana 1
yun@@ 1
124 1
Acon@@ 1
Gothic 1
King@@ 0.6464801684094567
Tik@@ 1
alpin@@ 1
cab@@ 0.24861411554531104
1,1 1
Airways 1
Pier@@ 0.6986913358366611
Tou@@ 0.538526372468475
ores 0.11512039282700157
1815 0.5087941056113702
Loc@@ 0.3274227511441977
itar@@ 1
ovice 1
rik 1
117 1
AE 0.9917342751374935
McCartney 1
O2 1
ardi 1
off@@ 0.11658935747073068
them@@ 1
Palau 1
ano@@ 0.7415259767257112
unk@@ 0.3071879816703741
Duc@@ 0.8117215148232683
Mecklenburg 1
Nikolai 1
Stanley 0.4555239891966465
aum 0.4699687266069279
ović 0.5841665465608882
Bernard 0.35808531663348175
Lad@@ 0.47034894917321735
Württemberg 0.616151533847602
emat@@ 1
rov@@ 1
ror@@ 1
ted 0.03170107495068565
Sherman 1
pov 1
Cob@@ 0.5999812351205126
Proc@@ 0.6224576699673986
Strand 1
elin 0.7032315436074409
Koh@@ 0.47689873770223956
Mitchell 0.5654381787276863
Run@@ 0.4566482860739534
ants 0.046376372332933916
bot 0.36344783131925246
sign@@ 0.25086476086936693
Atlanta 0.39625327487662393
Slav 1
egr@@ 0.37418528559268005
bey 0.7510634406048754
155 1
Batt@@ 0.7074897149471159
Cyan@@ 1
Eth@@ 0.38865930124796993
Georges 0.3655087357430439
ME 0.7617588904258344
Web@@ 0.4732260603277214
ms 0.13674815029553347
Jonathan 0.5334715714085051
gul@@ 0.8508651786697103
Aug@@ 0.9579845867239937
Fed@@ 1
icius 1
CEO 0.4635935491447287
Dil@@ 1
FM 0.23634232628516366
Garr@@ 0.8037354801938683
RAM 1
Tax@@ 0.8749009826746402
Tō@@ 1
hop@@ 0.34800720229477117
Kyr@@ 1
Matt 0.4764373776773932
Wild 0.5910324954159915
Yuk@@ 1
has 0.009490428056447278
letes 1
Leh@@ 0.44908637081976505
uth 0.9471933713890951
Dru@@ 0.4853978408070043
com 0.7558800635013554
nin 0.19521310710348216
58@@ 1
Chan 1
Poc@@ 1
Biał@@ 1
End 0.4789442244779471
Riv@@ 0.5127973065590993
elop@@ 1
iji 1
qui 0.011574936638774489
ventr@@ 1
Eli@@ 0.496745897167782
ble 0.16415025677790335
idō 1
Johannes 0.33399906263602547
Sparta 1
lake 0.3074386415423365
Nord 0.15471753319632728
Rwanda 1
Virgin 0.6701826219551776
« 0.0050682585888196085
Len@@ 0.4464635487094758
Songs 0.4114305563883915
aver@@ 0.2988726650299878
less 0.06984890300040897
270 1
Flor@@ 0.411947529895715
Hunter 0.6095254404186152
Oklahoma 0.4151587377240279
cle@@ 0.2600515257063928
i.@@ 1
igi@@ 1
ĩa 1
Book 0.28490802288564154
post@@ 0.1962188653049179
Good@@ 0.5245376834235855
axis 0.8274646760394682
evo 0.8378615263219404
rio 0.8230023004733934
star 0.18318702346876914
Genève 1
Map@@ 0.6562717971180599
RC 0.38038796989701773
Tig@@ 0.7801873475255148
live 0.10215050325215881
Justin 0.8004857196418289
Sr@@ 1
dé@@ 0.030799682936803425
eter 0.17231967412862761
kw@@ 0.3249982363308341
sik@@ 1
7,5 1
Anc@@ 1
Chrom@@ 1
Greenland 1
Hay 0.6429084967618892
ilio 0.848632243082146
Charente 1
Gold 0.24699240055098381
Miguel 0.3098726943442879
RT@@ 0.5723564693429384
cheon 1
England 0.06798136529060898
crist@@ 1
ru 0.8818371863457711
Blan@@ 0.5137047884863045
Ris@@ 0.5267384272094714
Ain 1
andro@@ 1
my 0.17784242057832628
gene 0.42964117921462347
Gilbert 0.5892529801534045
Slo@@ 0.45429018078423766
文@@ 0.1882265520488318
1814 0.5389872486646238
Danube 1
ectes 1
1804 0.7804812501082093
Germain 0.9688343221740442
Ron 0.7244125941967684
USA 0.13156931938330924
Urban 0.6586938980889574
1822 0.708524059748153
Dub@@ 0.9245650092699607
Benn@@ 1
cana 1
£ 0.20660552152806316
Scho@@ 1
etti@@ 0.7181603648489915
1823 0.7278261843097174
pum@@ 1
Song@@ 0.9141415925265571
Weber 0.915046761826896
175 1
Engl@@ 0.95118118705633
Film 0.0726928354693525
Online 0.6772819346282093
RT 0.5086271421645707
SN@@ 0.6887358092083495
ikawa 1
mec@@ 0.9743151063739376
Stalingrad 1
thys 1
Delta 0.6712315404493453
atrix 1
116 1
Airbus 1
boat 0.346012843250785
121 1
Petersburg 0.5942907695731784
Pras@@ 1
Press 0.28809308341252965
xis 1
war 0.009411027630759286
cri@@ 0.2517952589524335
olog@@ 0.29567453668176286
anag@@ 1
aup@@ 0.6808946071618959
val 0.3830022809527609
1803 0.6523233745672404
kes 0.32892681395324974
rur@@ 1
ượ@@ 1
ideae 1
ingia 1
Ling@@ 1
tsch@@ 0.424054886059655
Akh@@ 1
Claude 0.35382405751738444
Hermann 0.3811954258007669
foot 0.3394748541839542
nm 1
Dow@@ 0.4558766054776179
lax@@ 1
Society 0.10249868098474144
Utah 0.4922336279768855
lun@@ 0.4858250422963578
www.@@ 0.7408567231668398
ửi 1
Express 0.3977221526782523
Hend@@ 0.8785787228686626
Nur@@ 0.5384737505429633
Olig@@ 1
adu@@ 1
bus@@ 0.1944574162426347
gre@@ 0.2531547334104993
Ts@@ 1
Vig@@ 0.8947174080677182
cz 1
iken 0.37186414000921386
ț@@ 0.9221858266647756
Bosnia 0.9176320108391792
Istanbul 0.7489715839050791
Jose 0.5995461759839554
ness 0.0977083904158123
que@@ 0.37454800653337716
stan@@ 0.8074612985222265
én@@ 0.1151280301876788
Baby 0.6815998448970886
Who 0.46701483459851
hap@@ 0.8101398453552826
otrop@@ 1
550 1
acan@@ 1
cali@@ 0.44078054345440637
major 0.06041254654611781
ław@@ 1
Param@@ 1
Weekly 0.8336450266642048
hon@@ 0.20105459247226606
lock 0.3356711317329101
天@@ 0.20164834252688815
5,5 1
Campo@@ 1
Mars 0.5639011515813138
Stevens 0.8811592857420429
kow@@ 1
thera 1
Rox@@ 1
Soy@@ 1
Ster@@ 0.5197729909270088
fes@@ 0.4999385201112765
sph@@ 0.5615760439196464
Vegas 0.5868462733265873
nes@@ 0.7961725508077502
oidea 1
Copa 0.2425483807317861
Haz@@ 0.5729106977128897
Scr@@ 1
Sega 1
Sky 0.5345049048418425
Julia 0.6573932127901534
bach@@ 0.8684853220412249
ket@@ 0.517727837127179
mu 1
Hard@@ 0.38568903845238445
Jun 1
Mom@@ 0.8233926862041205
Rog@@ 0.7132619435193382
Azur 1
ouk 1
Ż@@ 1
End@@ 0.37130429768156953
HT@@ 1
Louise 0.5157045591982851
Vorpommern 1
abus 1
aira 1
grap@@ 0.8317098324915424
kim@@ 1
GR@@ 1
Mr. 0.2995675073915437
Pas 1
NG 1
PC@@ 0.4583266553939123
obi 1
114 0.9530810716839808
Dir@@ 0.8738569294834757
Hydr@@ 1
Just 0.4847034306314682
duc@@ 0.21854736412817116
tei 1
Polyn@@ 1
Pun@@ 0.6381899068588004
Ted 0.8076370966525288
aton 0.6603178468917297
mea 1
thal@@ 1
β 0.6608898685066574
Yokohama 1
56@@ 1
CO2 1
INSEE 1
Oise 1
WC 1
XP 1
Zhu@@ 1
board 0.1146742119864802
edr@@ 0.48443146321548636
ieri 1
ilo 0.45675189514302833
oste@@ 1
res 0.15004022783516474
rid@@ 0.43549719660387615
Master 0.2560900817800375
Oh 1
Suzuki 1
1813 0.5897437411721753
BS 0.6014108073234604
Fred 0.49059092749341787
Wall 0.5511598707819921
Jeffrey 1
aia 1
Panzer 1
Ti 1
tir@@ 0.2485656230348963
118 1
145 1
AG 0.25591565940324545
Himalaya 1
Leone 1
Tac@@ 0.674762408709067
def@@ 0.14882715756832487
fru@@ 0.642365285288078
hypo@@ 1
Top@@ 0.5041654407157131
woo 1
ịp 1
1817 0.6854659122087354
Earth 0.236260808443891
hil@@ 0.5132553326200597
Fabaceae 1
Gamb@@ 0.9645408922159763
Phot@@ 0.6084137562937608
TE 0.8615654045302448
SE 0.6611542747195045
ahl@@ 0.37708538460489593
Chase 0.9638589852323485
Churchill 0.9811581560724686
Sainte 0.35800476594344377
Vent@@ 0.6155383500048996
WHO 1
sic@@ 1
公 0.6319834444994126
Boris 0.8509845224536441
Kop@@ 0.6085569330285348
quer@@ 0.4309408300512017
ushima 1
John@@ 1
Manhattan 0.5028799960962886
ck@@ 0.25125609537026744
eer 0.3210690686723499
ovic 1
zer@@ 0.29407414543354166
Ð@@ 1
ár@@ 0.3230531952890166
ạ@@ 1
BM@@ 0.5700205658580639
Birmingham 0.46102781708961454
asha 1
urs 0.12902592009837202
Gibraltar 1
Monroe 1
Vul@@ 0.6278217101313348
ents 0.05103777537446938
own 0.051241115398260116
tric 0.6278295282914301
» 0.004763108584234889
Johnny 0.41865532051479276
Maurice 0.37728551127974974
czy@@ 1
troph@@ 0.7159073807177253
Fuji@@ 1
angu@@ 0.7314889028321085
anom@@ 1
má@@ 0.4307836336720775
ocr@@ 1
İ@@ 0.5372827569944232
Cher 1
hara 1
icon 0.6977557786055779
med@@ 0.2406861082781277
uer@@ 0.23528153408108157
Rhine 1
Space 0.3351890208035413
fum@@ 0.8842822605116142
Fili@@ 0.3546603948647478
Lop@@ 1
dar 0.1896889429634244
sak@@ 0.8370359280851419
then@@ 1
Fuku@@ 1
Opera 0.42723510319910674
Wy@@ 0.6128564183916572
abri@@ 0.6992203366962463
nch@@ 0.8169022015605636
neb@@ 1
Back 0.5034035290802997
Blu@@ 0.36665335182865505
CV@@ 1
SH@@ 0.8233442547868947
een 0.36087341758078884
pag@@ 0.4098363354740477
yu@@ 1
Rib@@ 0.7922102744983299
bis 0.01436079744536769
cus@@ 0.4525299010900907
wor@@ 0.11522746805137417
nas@@ 0.597044223964304
Anhalt 1
Last 0.46618255594427077
Rosa 0.5178737799520217
gang 0.18891780158632412
oque 1
wer 0.18506576351853252
aw 0.501546356286395
pit@@ 0.3185630331602884
1.9@@ 1
Arts 0.1186452867990793
Sailor 1
Sl@@ 0.4419575827156015
sel 0.2643347152309325
Fire 0.3863856163970794
PL@@ 0.7474889033599974
Timber@@ 1
bank 0.1635439330726086
logo 0.5569104281388344
tel 0.17626522491084948
Iron 0.4881374284795241
Mozart 1
ous@@ 0.41728398113316867
Amen@@ 1
PT@@ 1
pend@@ 0.3996249547811909
Dallas 0.43046445896737245
Tox@@ 1
Vancouver 0.4756672631236034
izu 1
Ed 0.6069345039942367
Science 0.15574718431895948
aft 0.27990528032413947
129 1
Dylan 1
Putin 1
RA 0.37344304801230205
Asian 0.2134181829656173
Edwards 0.6512863114003514
lis@@ 0.5515054764506309
1,7 1
Cly@@ 1
JT@@ 1
Manche 1
itt 0.40835765539559
ays 0.11391590340491113
begin 0.3303549788515378
caud@@ 1
wich 0.6851456210327537
Day@@ 0.5299915726627439
Dead 0.5359331049191057
ener 0.14841189786802936
olle 1
165 1
Porto 0.7894600258991968
Yu 1
kai 1
sat@@ 0.5280849181552445
view 0.14219021612108013
1775 0.9383393345281088
Fraser 1
Geor@@ 0.5836336382414086
Tch@@ 0.6811945928842887
ley@@ 0.5597362023649102
zen@@ 0.3242196077860199
Billy 0.4203408756890078
Gaz@@ 0.5724911054662083
Patr@@ 0.23247455892569605
củ@@ 1
Pink 1
SBS 1
Uttar 1
ult@@ 0.3816913862748322
hyper@@ 0.6138063776352387
sab@@ 0.22500580457967426
64@@ 1
AB 0.5435786986493018
kaya 1
pet 1
stig@@ 0.7996853416781018
stric@@ 0.6931531190494375
Cooper 0.5039286445882885
into 0.016055247535425896
ushi 1
6,5 1
EX@@ 1
Prix 0.18856849592543462
Sing@@ 0.4389959758934813
atti 1
ige 0.06014422731632157
nav@@ 0.27901042566553824
Ann 0.4423412116031829
Nymph@@ 1
Penn@@ 1
star@@ 0.3283676661647866
53@@ 1
67@@ 1
Karab@@ 1
cari@@ 1
later@@ 1
sid@@ 0.4327282004476895
uz 0.8351174689219623
Marc 0.39431620089815356
agne 0.4044176819557874
arab@@ 0.5780466288709201
dei 1
phili@@ 1
ư@@ 1
Kem@@ 0.863608757235369
Tot@@ 0.5768734923807155
ef 0.29763842003023155
http 0.8987524874952504
kun@@ 0.8827065228751078
igi 1
rostr@@ 1
Gall@@ 0.5810943994126622
rates 0.29979558995670363
­ 0.6366536174380188
č 0.9684445525742986
1788 0.9475165175665718
IL 0.7349299378937536
eka 0.7557698069024552
Forest 0.2944841854614175
Kent 0.41502349965043994
Thompson 0.41897695395652845
Wh@@ 0.30123194708526146
başı 1
rang 0.5235467743782818
Çorum 1
,@@ 1
68@@ 0.9925040468946261
Gary 0.4665706726648623
H2O 1
imo 0.5309777056437669
opotam@@ 1
suki 1
Peg@@ 0.829899402655052
Sofia 0.9484349564521856
aman 0.6895837374885643
arms 0.2501769752553685
ingo 0.7777248583754998
sam 1
studio 0.1151672463071099
tas@@ 0.296766993834174
FK 0.6701956804779995
ilg@@ 0.9848743985448771
tila 1
124@@ 0.7613801053127855
Phil 0.5747421173575398
Yer@@ 1
orius 1
rus@@ 0.5091778426756781
Dob@@ 0.8011959149260073
Gabon 1
tetr@@ 1
tubercul@@ 1
AF 0.4246524386906194
Kızıl@@ 1
Tah@@ 0.7745148971795067
lot 0.1600721493449858
Brad@@ 0.8916465712325434
Choi 1
ces 0.05599924236783652
trad@@ 0.8802220706201545
uck 0.2574130935589214
Dra@@ 0.6445267134129317
Nicolas 0.3809049589826911
Raven@@ 1
anj@@ 0.629022230759693
fish 0.21407700402887192
Ek@@ 0.8676266883377282
Rak@@ 0.6004662523488986
VC 0.9442189140810008
Zel@@ 0.9665230002125534
Mauritius 1
SD 0.7415019535462918
achia 1
Dean 0.42653739079849384
Fos@@ 0.7147879083374571
anya 1
did@@ 0.81710819548063
lex@@ 0.9246211942491014
ond 0.21251175321531068
Hub@@ 0.5737802313326045
Oliv@@ 1
Tas@@ 0.4688147110335283
Connecticut 0.3799817305194218
Ges@@ 0.23241447748622157
Kosovo 0.8200955553219523
iba 0.6806539051589959
mid@@ 0.26945695023522676
ñ@@ 0.2135204169343426
Christina 1
brasili@@ 1
Eug@@ 1
FDA 1
IT@@ 0.4786400167380619
Calcio 1
Down 0.512283443177764
Sud@@ 0.41774858071334836
Western 0.1017951996610563
aver 0.5504059604692214
ladi@@ 1
747 1
Krasno@@ 1
Sev@@ 0.6998736529940295
ams 0.14860467656943793
Angel@@ 0.7403109940417602
Fab@@ 0.5269186642698004
Holmes 0.7881590265403632
uridae 1
Alder@@ 1
Galicia 1
Gerais 1
KV@@ 1
Lud@@ 0.7361957918429132
Or 0.6184820785853598
Portland 0.4697116386493331
Garden 0.4150691246141085
\ 0.43967123991857576
dov@@ 1
fran@@ 0.40720656148768664
under@@ 0.06667309119239426
30,@@ 1
Ball 0.5462850897002621
Empire 0.12612501292413061
Kind@@ 1
Trag@@ 0.7798978335233849
enda 0.39336087750313964
ush 0.3065756969911402
water 0.05409161200269721
146 1
DV@@ 0.8267473038780982
Feder@@ 0.53366972301836
Moldova 1
ayn@@ 0.7987948772593173
tal 0.17414125112850418
ể@@ 1
Clin@@ 0.6375116316247169
Aisne 1
LE@@ 0.47795425882165277
Leopold 0.8218681935521416
Pos@@ 0.35077813206082353
Pug@@ 1
Jennifer 0.8741547627027721
Lut@@ 0.8556072275499461
Nadu 1
Page 0.8082575817530016
burn 0.45332958941516416
cu 0.9130001218957501
gic 1
300.000 1
Gren@@ 0.657602452303131
auer 0.20992372036842516
ibn 0.5685631793510979
lic 0.7004859880384768
spl@@ 0.6454342179494903
Berg 0.4254588406004246
Cli@@ 0.7078385384060948
Karak@@ 1
Zy@@ 0.6404339787161587
onym@@ 0.9189713413688568
Boz@@ 1
Journal 0.2234953228378429
ensk 1
enton 0.6183707414437983
nen 0.1233296332548209
sangu@@ 1
Hell@@ 0.7338437729076993
pot 0.3539509518238864
ehr 0.6264754791138941
landia 1
Hudson 0.5236728270384781
Ian 0.4874867947082357
LV@@ 1
boy 0.2487187978465426
della 0.7245114590529597
ink 0.29252220114409533
pole@@ 1
psy@@ 1
132 1
Beijing 0.5945711257664019
enna 0.9739374272340509
114@@ 0.7795330498603881
1792 0.6461997249006772
Sv@@ 0.7755160252492325
Tus@@ 0.8611129158397276
eshi 1
obo@@ 1
Hugo 0.42116085476770426
Sok@@ 0.9332352471484323
Tun@@ 0.4799316671959247
parti@@ 0.23896626441201904
Animation 1
Bros. 1
Tet@@ 1
ig 0.18124431086059398
kas@@ 0.5062206291106081
vet@@ 0.3058466899527369
za@@ 0.8909846400024599
Shik@@ 1
tí@@ 0.7121485261491167
117@@ 0.7918345005557229
县 0.16266323082102727
650 0.9913318922335987
Chan@@ 0.6641184212493961
Eph@@ 1
Wah@@ 1
tria 1
Are 0.7516307526391308
ayama 1
kara 1
stein@@ 0.30395215287537214
thes@@ 1
Heidelberg 0.6549455214530461
Montana 0.6384257538652421
Soul 0.7356573486355134
Sund@@ 0.6289366010227543
icop@@ 1
ingi 1
113@@ 0.8552835833070197
25.000 1
Cac@@ 1
Cannes 0.8754699048325556
Copenhagen 1
Huy@@ 1
Law@@ 0.3430257658473074
mek@@ 1
24.@@ 0.7888842372897773
bei 0.014888913328681579
ib 0.8343378850586732
uda 0.9722859048257423
ism@@ 0.38951131021721885
ườ@@ 1
Bass@@ 0.44147335048617664
aji 0.7939594413545074
opatra 1
rum 1
， 0.002191632267026777
Singh 0.45228134322757085
Ward 0.4824465094853993
alta 0.37400292434615345
pta 1
ries@@ 1
wit@@ 0.506719527548637
Oman 1
iton 1
rell 0.4796008656895089
lap@@ 0.5189484672870388
ER 0.7506306438841603
Monaco 0.9530494486375586
pinn@@ 1
skaya 1
Aden@@ 1
Anto@@ 1
aina 1
kol@@ 0.28106191371390865
par 0.00716127018938634
1808 0.606043828648387
25.@@ 0.7884383881500778
Aş@@ 1
cut@@ 0.27817418983422015
magn@@ 0.903650012123675
Aj@@ 0.7281665830830403
icz 1
1.200 1
Athletic 0.41116934355604967
ally 0.03158196684733931
eld 0.33989324890912936
380 1
Carol 0.9366481687764946
Sul 1
hen 0.40863115083428214
Dip@@ 1
ON@@ 0.56303069004768
gamma 1
kum@@ 0.6145206632664967
a.@@ 0.4844095763737756
acker 0.45421652768848014
cad@@ 0.23303833263754828
tran@@ 0.3165374302317902
és 0.019912050389186784
Das@@ 1
Rhin 1
Uro@@ 1
conf@@ 0.11933919207067717
wet@@ 0.9176176596711648
Butler 0.6378863148865157
öl@@ 0.21855774455344493
Albums 0.4815195958512976
EA 0.8811782881878114
Jose@@ 0.5439110807326164
SK 0.6954006222852482
Stere@@ 1
cal 0.3005267581541818
hur@@ 0.2294672671595248
ihan@@ 1
tos 0.14760830788743587
DT 1
Over@@ 0.23810392350659135
igan 0.5770934804807158
minut@@ 1
sy 0.49957448733390214
ves@@ 1
Academy 0.0994771255565977
Harold 0.5657313303929086
Parker 0.4714283010166772
Dni@@ 1
ecker 1
fle@@ 0.18033696977159636
wol@@ 0.7621066023917757
Just@@ 0.9271986340740848
osi@@ 1
185 1
225 1
Bristol 0.48186515770584365
allo 0.6379081353647349
capit@@ 0.2554789712266528
gy 0.37984196645555435
Bart@@ 1
Brothers 0.40443063194556184
poli 0.9099107967495211
His@@ 1
People 0.17110565067729164
Smil@@ 1
aut 0.18529572263953464
beri 1
but 0.010101123645515558
cera 1
eler 0.30145070488352876
ente 0.04455097664999271
prol@@ 0.5509827263940112
Ernst 0.28200065501626764
Iv@@ 0.6408517738673926
Metro 0.3772515987618511
Zeus 1
ux 0.2498260010819085
Schul@@ 0.1416608619780467
Weise 0.6530469138294939
oti 1
rif@@ 0.4967961643672457
Gli@@ 1
Jon 0.5901220173001898
Monte@@ 0.804139297890439
Rangers 0.48238858695963177
har 0.7252236059116246
26.@@ 0.8031350331835869
ots 0.09542909171561499
119@@ 0.6976591174866688
BM 1
Bourbon 1
Lus@@ 0.7217243149249905
tiva 0.41945696005374916
1807 0.6396984619433254
Dream@@ 1
Sass@@ 1
imar@@ 1
Campbell 0.40126796928417385
Ces@@ 0.7071127617863026
Hills 0.400816226069092
Spo@@ 0.6700287182474987
inck 1
Sug@@ 1
dom 0.43916574147151105
esses 0.14989815058389944
Pra@@ 0.6832048418621212
inho 1
tec@@ 0.3826110458740414
Bond 0.7520209972738219
By 0.07420541874165028
Gra@@ 0.4377581736502259
Leonard 0.6316813176282711
PH@@ 1
Phys@@ 0.8592147259383636
Roman@@ 0.3287084105718158
endorf 0.35425011574653326
lom@@ 1
red 0.061038771578537175
triang@@ 0.7910763037698717
CR@@ 0.6258774088099247
Cla@@ 0.6689185352263665
Gill@@ 0.8335181152639706
PR 0.5881623167462356
SD@@ 0.746752764972139
her 0.00977561942999679
Idol 1
Marco 0.5312618601074129
yal@@ 0.3967131551800316
Oro@@ 1
ga@@ 0.8115958252232359
lava 1
12.000 1
59@@ 1
66@@ 1
Abdul 0.8983365901342344
Aristot@@ 1
Clay 1
Rafael 0.4892627968954573
corn@@ 1
116@@ 0.814380032162495
Manisa 1
Sever@@ 0.7451645824435066
xy 0.873123592211955
Ana 0.5067030761818805
Generation 0.5863369696407926
Slav@@ 0.6345956994243106
azaki 1
000@@ 1
Cyrus 1
Of 0.19960120331890469
Rey 0.4887549246578195
Roberts 0.5403512550349301
Stars 0.4135746290832086
Versailles 0.9964220598929517
elas 0.6182075838628666
rati@@ 0.19535229867473475
itum 1
136 1
Emma 0.6053916905718584
F1 0.8330837031829283
Hall@@ 0.5509669433974466
Laura 0.5359631855331489
Lisa 0.6016175799641827
Open@@ 0.5615293149128867
atri@@ 0.4773530803560244
lett 0.75135713736435
30.@@ 0.9665408604752654
Pacific 0.14959192068503108
anni 1
owice 1
pper 0.509188145251967
zz@@ 0.36765234708673805
2,4 1
akh 1
Die 0.007139708500733771
awi 1
2.500 1
Coch@@ 0.7550933143627949
Tan 1
2.0 0.6838871697276655
Bonaparte 1
Cum@@ 0.5304828081555769
Dave 0.38052249274144034
Emilia 1
Eugen 1
Marc@@ 1
Mek@@ 1
SL@@ 0.8040604524954496
hisp@@ 1
Buk@@ 1
Gib@@ 1
bal 0.2945568453093497
egi@@ 1
tron 0.9497482074342708
ır@@ 0.7242525603974254
Free 0.29537371752451613
stel@@ 0.526456603461079
tern@@ 0.32546672209766714
Chester 0.8043046150787676
Franco 0.460691123468322
Kle@@ 0.28704840546136845
Zi@@ 0.3229299763779158
cylin@@ 0.40969765655141693
eby 0.4908065976368715
D.C. 0.3683419762854997
Kre@@ 0.20921264616460397
peri@@ 0.41725624360321784
spr@@ 0.17784604879564267
Comics 0.45435821667602666
ET 0.8047545760966492
Io@@ 1
ahu 1
Say 1
notes 0.25929360221521425
tide 0.9116409297552274
2,3 1
Gri@@ 0.3905707673725742
Niger 1
litz 0.7069116686994807
stell@@ 0.38743787415357794
28.@@ 0.8347013801760436
Path@@ 0.7294702879841751
Phillips 0.6566551784516169
born 0.02216822388007493
deg@@ 0.7510260515165378
m2 1
Ajax 1
Dong@@ 1
Lie@@ 0.7035387516675102
Neb@@ 0.49163231385201267
Tut@@ 0.9618214884255076
kor 1
omel@@ 1
mart@@ 0.6985774761611554
134 1
1816 0.5518632846418224
Bailey 0.875242289388252
Haus@@ 0.24841342198744465
Nicol@@ 0.674578222735707
Yeşil@@ 1
apar@@ 0.3100599685020161
shi 0.914638068537511
Brun@@ 0.44960523423546306
How 0.5877698226569804
LP 0.35175216951582816
子 0.10335641170510376
99@@ 1
Calvin 1
Capr@@ 0.9702288897988152
Gan@@ 0.4908713580919841
Mem@@ 0.3532691248362543
Willis 1
frig@@ 1
1758 1
Isaac 0.5833898783754039
Saw@@ 0.8716449643031955
bian 0.5869811658345571
cons@@ 0.13063676059001622
emann 0.511547505090557
119 1
Westminster 0.7242965627759443
cast 0.12385048707119273
emi 0.7578977568335358
emis 1
leton 0.5088431641163579
Oricon 1
Party 0.06591418391807578
Tiber@@ 1
gir@@ 0.27736945383955525
Trot@@ 1
gon@@ 1
lay 0.4113428304381602
ndi@@ 1
And@@ 0.7076656034549174
Barb@@ 1
Kaf@@ 1
Store 0.8739985873162043
osph@@ 0.7663875017142598
t. 0.9616703856582347
Ahmed 0.6164352701616352
Normand@@ 1
Wur@@ 0.4461548978099825
clip 0.9771501170384701
osta 1
340 1
Crawford 1
Masters 0.45473193899479963
Taş@@ 1
ahl 0.33657255843466655
rans 1
ump@@ 0.2105681664250338
737 1
Honda 0.8358903220952056
Kov@@ 1
dad 0.3998204460343749
pir@@ 0.4041849030232522
wick 0.4303185240082668
young 0.09977622837166215
ň@@ 1
Mount 0.19924216293828106
cio 0.24149971624740424
tril@@ 0.6988650143923525
zel@@ 0.8653688053012751
är@@ 0.1147540065965166
Cole@@ 1
Cra@@ 1
Mud@@ 1
Ronaldo 1
Up@@ 0.4536983036117932
trig@@ 0.5679959661758761
Bermuda 1
For 0.04927394653080305
Jessica 0.9813671360628509
118@@ 0.7371064722925309
Guy 0.4016556004297197
Reagan 1
dop@@ 0.9784637249848026
ime@@ 1
mol 1
él@@ 0.19000053185047844
Big@@ 0.6169921982726101
Grap@@ 1
Schwarz 1
Hughes 0.6006958139830126
Now 0.3805657023929316
Wł@@ 1
bridge 0.13435130890384167
ebe 0.48548873640608325
ew 0.3729280380770661
hee 1
Angel 0.5314917910204642
Basil@@ 0.8017953467458055
Kobe 1
agon 0.6656279868436145
aser 1
dam 0.4242060869780185
iTunes 1
As 0.02953524347045619
Hunt 0.688090652396515
85@@ 1
Cag@@ 1
Metacritic 0.9797273390308295
Reed 0.726621950589079
asaki 1
bea 1
cum@@ 0.38683605885999145
Bruno 0.5022705217478198
Electric 0.5039460996179088
Fut@@ 0.4721479651100279
How@@ 0.567109928138083
ī 0.57044534217821
Kamp@@ 0.6058824579645129
Mab@@ 1
137 1
1798 0.634639219456212
MT 0.9970249108018483
Sep@@ 0.5626503423347309
Brooklyn 0.38675117031202316
Donn@@ 0.7008368077005898
Gw@@ 0.8187689498270596
Ind@@ 0.5594179518610064
Nab@@ 0.846321978775666
Philippine 0.6082306665890792
umbr@@ 0.8838151757092624
Gustav 0.4967196092213558
ore@@ 1
sdorf 0.33041680789662575
́ 0.05065212545299407
Ernest 0.5097365371018898
Naz@@ 0.38643836290714745
Zach@@ 1
core@@ 1
teen 0.17968637998081144
Erzurum 1
ason 0.4437603119431857
hav@@ 0.5435805024072736
Beat@@ 1
Carr@@ 0.4733535114372372
Dhar@@ 1
ahi 0.7763144345333306
fri@@ 0.281360666657557
otea 1
tex@@ 0.22053149615753795
ape 0.7185340930479174
modi@@ 0.31604163319036255
ová 1
235 1
Nancy 0.4885824524550931
Play@@ 0.37995866922708954
Tyran@@ 1
dul@@ 0.5676224982107131
ox 1
69@@ 1
Edinburgh 0.37090123253813867
Kub@@ 0.8163408795231694
Pam@@ 0.9400321405348885
idge 0.3972437081031196
uku 1
Enterprise 0.9767860221158072
Force 0.11404193023891793
Hart@@ 0.54781685265514
Stic@@ 1
Terry 0.5224154940565309
omor@@ 1
ppo 1
vers 0.04695728913499499
Kand@@ 1
Ltd 0.38717248017803335
Nich@@ 0.49406162861609537
ör@@ 0.18292838860403804
Chen@@ 1
Christmas 0.30469741585337745
Let 0.5318750556674464
Rhein 0.6806208492694287
Yamag@@ 1
eir@@ 1
ști 1
1790 0.5562878544787961
AE@@ 0.48894456680933607
Ass@@ 0.4528347539269081
Barry 0.44796026045008236
Meuse 1
illi 0.613274723296341
pop@@ 1
rech@@ 0.22612536140232395
Bh@@ 0.7877748514216655
Chit@@ 1
Eugene 0.7608079787485691
Grace 0.5522638748941014
Jeff 0.42287099916076754
Von 0.06310224274941623
hiy@@ 1
ikistan 1
lah 0.839899953114405
form 0.04271539288949661
Gav@@ 0.7116979044091817
dich@@ 0.9410747726917826
1799 0.6925936753468963
Ler@@ 0.6716255033374815
Pac@@ 0.5772567753168963
sula 1
157 1
DS@@ 0.6854651443217245
Schult@@ 1
bella 1
inin 0.2620382430572308
mark 0.17360726798552675
oh 0.9494218847750291
tar 0.28456321611447133
Calv@@ 1
fi 0.6480364092353681
FO@@ 0.5699678599299846
Hob@@ 0.5307554722194343
Liber@@ 0.29718163919097074
acta 1
non@@ 0.2638689101487854
Ligue 0.2739727139306691
Punjab 0.8353167522207839
Tav@@ 1
illon 0.32990060474620897
tad@@ 0.7548940414687109
andinavia 1
edi 0.49519233170040905
kar 0.4438424726846607
oney 0.6722033013112658
raga 1
安@@ 0.1489722561379065
Corin@@ 1
PM 0.6351543361815517
andal 0.6594573733956588
ate@@ 0.37401999104148687
etr@@ 0.6358030856349554
141 1
206 1
Grove 0.6878258712970707
Hebrew 0.6760705137946874
Rai 1
Rovers 0.8227146802985196
elt@@ 0.40258505871424133
1600 0.6197678971398908
Nielsen 1
bie 0.41935318644200686
gri@@ 0.31201470253503094
suy@@ 1
zan@@ 0.9596892098893859
Hass@@ 0.9521380388868502
Hiroshima 1
Liu 0.6359111473517766
Pix@@ 1
Thel@@ 1
IG@@ 0.6889602449499046
imoto 1
Pes@@ 0.7235196003457731
Rech@@ 0.6288281477321109
astes 1
eg 0.5255297443936786
ente@@ 1
214 1
Adel@@ 0.6112076117024832
Broadway 0.3240237096980741
Silla 1
ider 0.21539001660035556
27.@@ 0.7446323777347176
Georg 0.21971412586963038
Niz@@ 0.9451283533682033
Samsun 1
USB 1
Zhang 0.7169739143292532
away 0.0799888875212608
insig@@ 0.6979993593751461
Haj@@ 1
Neil 0.514619349078849
Wars 0.49837605377365707
ás@@ 0.44603659139705804
Cole 0.6720120390934676
Fas@@ 0.591131256208252
Magazine 0.2838237744574555
Ron@@ 0.8546509358777458
alifor@@ 1
2,2 1
Leipzig 0.2680215337671497
cum 1
edonia 1
indica 1
nar 0.8887717716502986
ury 0.286256918346807
1809 0.5675925180172329
Amphi@@ 1
Ankara 0.7462839216472081
Sha@@ 0.5088703426654609
agawa 1
Jol@@ 0.8356654639256176
Kok@@ 0.7625386431996973
SI@@ 0.5206321882685573
had 0.006854050857381895
の@@ 1
Liberia 1
Our@@ 1
chl@@ 1
evi@@ 0.7841732196649958
gea 1
ệch 1
hem 0.4100465338554774
ulia 1
Bryan 0.7225614949868949
Ceb@@ 1
Spin@@ 1
cid 1
lary 1
ogen@@ 0.26381942144505094
205 1
76@@ 1
simum 1
ọ@@ 1
Blu 1
Bung@@ 1
Cres@@ 1
Thüringen 1
cli@@ 0.2615236412130035
otti 0.8680826746145913
Nagasaki 1
amaz@@ 0.8860725007497009
mexicana 1
éc@@ 0.20440959475326456
131 1
Death 0.22318360312675165
Kö@@ 0.4073025822122114
Leit@@ 0.5566374039935353
Mare 1
ario 0.08690688211597088
ols 0.13485622651742307
Cross 0.21210721622395626
Fres@@ 0.3838770450496381
Rhodes 0.9306817025063839
ment@@ 0.1424743274880711
sal 0.2764584604374732
ē@@ 1
Bod@@ 0.3351823768826152
Camb@@ 0.4950150104010956
Nadal 1
Smol@@ 1
ő@@ 1
Limited 0.4133112656391001
Lip@@ 0.8756153357107531
Spears 1
mich@@ 1
tip@@ 1
vie 0.10113909961345481
€ 0.3972131703181103
Fat@@ 0.7062409241556449
Reh@@ 0.6732329988721915
erina 1
fem@@ 1
liz@@ 0.2641798743308255
Belle 0.7886321115303914
Cey@@ 1
LED 1
MG 0.9673424697552407
Magic 0.5774438847279807
Marseille 0.508489531090808
Sib@@ 0.7433162498178575
alin 1
awan 1
33,@@ 1
Lot 1
allo@@ 0.5514753378917668
rat 0.16254498855187582
Buf@@ 1
0,1 1
21@@ 1
GM 0.7408620410233921
Kru@@ 0.7513549194958075
Pou@@ 0.8213462367684113
lif@@ 0.2726845164090623
133 1
Buz@@ 0.9653974066265678
Carlo 0.48850510557625804
FBI 0.6773980322364903
Helena 0.8456173148172629
Nin@@ 0.6749000471958739
Thomson 0.9464702211008608
ophi@@ 1
sax@@ 1
Gör@@ 0.765058684436834
Mans@@ 0.6506598737975959
Princess 0.45355586510460744
Southern 0.14143758602488174
ique 0.09776110446708301
oso 0.13713342507409704
147 1
Khal@@ 1
Main 0.1902546857184841
Pag@@ 0.7624518035296145
Water@@ 0.4107637647381285
card 0.2543031487819125
ụp 1
Blackburn 1
Kuz@@ 1
gar 0.29726281235833346
211 1
Emmy 0.7474087569145577
Sup@@ 0.3049382384235421
ahu@@ 1
ause 0.366239567675783
Catal@@ 0.8474229506243928
DL 1
DO@@ 0.4546072016602687
Khali@@ 1
Wallace 0.5701250498920245
ads 0.1486538104633715
cona 1
zano 1
anie 0.43482967256426164
nu 0.5797913741956228
tics 0.13247768846596447
Arnold 0.4278576100785109
Cleveland 0.3330154681740954
Rama 1
Tib@@ 0.5033312248348579
1811 0.5709614590301518
Berkeley 0.5340573336631796
IGN 0.6516595069030305
Jakarta 1
Mancha 1
SP 0.742224999259244
if 0.04753002087245762
Fay@@ 1
Mercury 0.8113064084297932
atina 1
pound 1
quez 0.654156025493741
Amer@@ 0.5024955355670239
Nau@@ 0.8610570425079472
Ship@@ 1
Zar@@ 0.631149453379939
Jab@@ 0.9452585975217133
Ruiz 0.9930850730979623
annes 0.7627141827937477
kinson 0.5899616411162694
Crystal 0.823410428114978
Fa@@ 0.6098440565084431
opil@@ 1
143 1
′ 0.9009664667659886
138 1
Iw@@ 1
Us@@ 0.5528674530780441
dica 0.9166778272132474
world 0.04457263521486023
Hein@@ 0.4953375076029741
Kiy@@ 1
Mack@@ 0.5161827430564823
map@@ 0.6536651115559995
veri 1
Hampshire 0.41973579000646666
Suz@@ 1
azione 1
borg 0.5268841441028268
lau@@ 0.2740407566075669
NBA 0.21533060336711646
book 0.04979332479686027
ern 0.04288440458156089
head 0.05371635754928432
hyp@@ 0.8110002360012233
iva 0.39785624071235853
sol 0.256309924020825
148 1
Asi@@ 0.39312155188830267
Ost@@ 0.1602003728546781
aur 0.7561285066506704
ben 0.08874517140317324
esian 0.9781351809500245
maire 0.3890708189455244
tur 0.44805908661139215
Andro@@ 1
Bobby 0.501134591110768
Fall 0.2425883462280423
Beg@@ 0.2583468351743184
DM 0.6416813877888402
Fam@@ 0.642600936303282
Plus 0.3082097493076477
pis@@ 0.738263439863742
208 1
Dag@@ 0.5559258341577462
Italy 0.1347177734572845
Mez@@ 0.9364252646627043
Punk 1
Simpson 0.6252031967370913
Summer 0.1214070505444112
Andes 1
Sind@@ 1
Spi@@ 0.39065167931778993
cat 0.5974042167668104
idel@@ 0.3799890320588802
yev 1
DOS 1
NBC 0.37327316912840436
idan 0.8360465792661108
pura 1
203 1
VA 0.5057463543848093
VO@@ 1
hak@@ 0.743872925219372
schi@@ 0.4653932237408479
Hoch@@ 0.14101457081900776
Hope 0.5241173464244235
Hul@@ 0.9302342208686656
Lucy 0.7166017616643183
Sle@@ 0.6832164354190078
ík 1
202 1
Armstrong 0.6409442659354421
Cl 1
Guardian 0.5585325561263763
Viet@@ 1
Burundi 1
Core 1
Out@@ 0.26782599350307185
sion 0.057696681212274954
ussia 1
209 1
Explorer 1
Marion 0.7603081223416465
Rut@@ 0.6402972364823224
Springs 0.5054225042066331
hio 1
sus@@ 0.1858291738227814
trick 0.9653562517041756
Guyana 1
Algeria 1
Fe 0.5342840602337745
Mikha@@ 1
oca 0.5286698421899745
Anim@@ 0.5621950996260457
Luna 0.7545577317063854
Ret@@ 0.3366852679706363
Berry 0.7854290901164859
Hart 0.5843201011059341
Holt 1
aber 0.035493472407988065
zer 0.19890253209639647
Horn@@ 0.6235193837349164
Newfoundland 1
Wagner 0.5059994795582069
acu@@ 0.3156891243689981
Andrea 0.4954497326219643
Biden 1
Franch@@ 1
Uh@@ 1
kare 1
ớm 1
Bonn@@ 0.4706211226291668
English 0.04746874956289295
Nish@@ 1
UR@@ 0.758726065703372
ever 0.07518904371018464
ograp@@ 1
ük 1
Fighter 0.7526258855495616
Jerry 0.4651826757600255
Steel 0.674269963701416
anne 0.3639523616213285
29.@@ 0.8026544616368041
Aaron 0.6135323722028422
Faso 1
Ronald 0.6367702198663541
alu 1
iner 0.2806830924990879
4000 0.7389518557331508
fica 0.5847204531654719
166 1
310 1
Geneva 0.9289048251773097
Kash@@ 1
Three 0.18003679121478963
hard 0.1694075885985217
marketing 0.4359177888616798
Burkina 1
Lane 0.3656040912098685
Palace 0.33912126694051076
Service 0.11473774762474864
enzy@@ 1
rev@@ 0.17221432285847743
162 1
Aguilera 1
Dog@@ 0.5243655311098252
Hu 1
lies 0.09458855802430623
Alexandre 0.4209756547013497
Bridge 0.20355931313934236
Happy 0.8427245997248899
Rav@@ 0.38482609591635186
nov 1
oly@@ 1
168 1
Balıkesir 1
Knight 0.40000836734377304
Rudolf 0.3651099995471667
adin 1
ague 0.42143692875597877
ft@@ 0.6075879765545429
ph 0.48550904719286336
seu@@ 1
Charleston 0.9835519620372563
Orleans 0.3900243547961188
Year 0.138823509930023
Zu@@ 0.36852243649148153
195 1
256 1
Bosna 1
Cay@@ 0.8863439489241726
Kang@@ 1
Liberty 0.6328074256445306
Not 0.3111030384059462
Tasmania 1
氏 0.29594817707682586
Pay@@ 0.6006245700548323
Stuart 0.47727192734359664
mata 1
polit@@ 0.609541830849174
yat@@ 0.9084918811206739
Phili@@ 1
Tek@@ 0.9615237877487423
Youtube 1
hay@@ 0.7923249493490454
lid 1
omena 1
Holland 0.5048783161913032
Laurent 0.469904303228711
chir@@ 0.5216442286377662
iller 0.21082362419600498
oc 0.7095890898036451
unif@@ 0.7381783894775565
Bih@@ 1
Herzog 0.528637611832708
Saudi 0.527946423927012
Sob@@ 1
cken@@ 1
format 0.16803432692938453
hist@@ 0.6176539400169866
77@@ 1
AO@@ 0.6973767544640238
Alberto 0.3964295394266396
Pell@@ 1
aş@@ 0.5066916121845352
dida 0.91094899502845
dist@@ 0.1718777735396532
isl@@ 0.38479888927855505
mine 0.20925895084934965
ả@@ 1
ộ@@ 1
1200 0.5181839162537483
High@@ 0.3122930135165043
Lorraine 0.6955273215385391
ating 0.03114420680145704
fall@@ 0.23376494088770666
oru 1
ー@@ 1
156 1
Niedersachsen 1
Szcz@@ 1
iya 0.8845436082706079
och 0.7041535631537134
Luk@@ 0.6506355727715868
Wiel@@ 1
baz@@ 1
pers@@ 0.712950099805686
stadt 0.1483594484948954
Aman@@ 1
Edition 0.5540270479491778
Ehr@@ 0.5216656723113524
hausen 0.31042889618176783
ikh 0.9710574622758337
370 1
Rural 0.32171763813848825
his@@ 1
itaria 1
ovina 1
Atlas 0.7408599578031282
Everton 1
Field 0.20522614348224402
Roh@@ 0.3621067186398329
SL 0.7318279743715249
142 1
Kid@@ 0.7484718452247078
Space@@ 1
aland 1
text 0.14532421347797145
154 1
Caribbean 0.521056865466513
Camp 0.3366287701196545
Dah@@ 0.7944936353675653
KA 0.8317187233122398
Kashmir 1
Leicester 0.8752074068962261
Stanis@@ 1
Viking 1
cose 1
jug@@ 0.18828749563010144
lik 0.3256592548321175
Aleksand@@ 1
Hik@@ 1
Jin@@ 0.9797988192302952
Linda 0.721797260085818
Won 1
abl@@ 0.20614809223936448
berry 0.5643293496856682
met 0.0659382314103644
sar 0.44102287517428085
Collins 0.438619018322604
Let@@ 0.34639615470147017
Paral@@ 0.8845490231215075
kowski 1
suff@@ 0.17528283191484376
Battle 0.12431150676454088
Institute 0.07739273665528622
Link 0.8069019669451308
Lund@@ 1
Suez 1
spir@@ 0.31773317807258006
tara 1
vector 0.7726691748263503
ï@@ 0.11565411888030987
Amy 0.6945957157624676
Chau@@ 0.7715536848306542
Ham 1
Morris 0.37827805497089156
dot@@ 0.3314372177193892
fu 1
215 1
Cich@@ 1
Voice 0.6453463075618396
bay@@ 0.4865925673457567
ios 0.2575102177710665
217 1
Bin@@ 0.5717202386589085
Foster 0.6187666226800594
Put@@ 0.5877219417713235
Sean 0.5859583820544991
Trav@@ 0.3389070539920886
Uran@@ 1
Uz@@ 0.9731682190397667
arin 0.737144110576235
bolivi@@ 1
kha 1
CM@@ 0.620992919424691
Poh@@ 1
Botswana 1
Nad@@ 0.6671050863012962
Note 0.4016114579060658
Prun@@ 1
gam@@ 0.4980180070191423
sav@@ 0.15946506586783876
vania 1
Palermo 1
Petro@@ 1
abi@@ 1
dir@@ 0.2548612719892611
esz@@ 1
139 1
38.@@ 1
Chamber@@ 1
Cros@@ 0.6304538704932519
Del 0.32027153612338416
Eff@@ 0.2965940090083546
Portsmouth 0.8410388904035347
ebo 1
mach@@ 0.32927411428866515
punk 0.4512483214559237
scope 0.43208406198877625
1786 0.8453717253524015
Abdullah 1
Dani@@ 0.6085832045778182
Form@@ 0.44528820105230643
Num@@ 0.3337554441426792
angi 1
endi@@ 0.3095271871658193
Dz@@ 1
Phoen@@ 1
itas 0.316258518499276
jap@@ 1
sley 0.5527389597672157
Band 0.09409658747731312
Hannibal 1
Pant@@ 0.97950151835559
etz 0.3809319155070611
istes 0.12977743417825727
European 0.0551303610682609
bag@@ 0.8144542564214394
yen@@ 0.7655431903218659
Child 0.5671728614724638
Martin@@ 0.6420058466494695
Müller 0.4388320448902081
cru@@ 0.15296654783703073
Kaiser 0.2799942697963577
Virus 1
153 1
FL 0.32241636137731644
Wells 0.5490875711575474
entz 1
lip 0.4225882047464127
妃 1
305 1
84@@ 1
Ander@@ 0.6181400360206881
Helen 0.48557927339568363
Lima 0.41528157415146333
indic@@ 0.1578513597813788
Delaware 0.5586982847452102
Kah@@ 0.7768597135935407
Yale 0.5065240678051616
hir 0.5051077643560898
unt 0.24046560598254157
var 0.4358361408324786
176 1
32,@@ 1
II@@ 0.458156202625969
pera 0.9607666364635802
AO 0.9550283029718761
Colombo 1
Haf@@ 0.5865667991538303
Nog@@ 1
Valent@@ 0.8910480160207449
Ve@@ 0.6165266265447291
agna 1
coron@@ 0.5025690628862624
kn@@ 0.15468465971130904
kul@@ 0.2905237525641494
nú@@ 1
osema 1
tle 0.2186888078466101
Bologna 1
Loir 1
ache 0.14409242490145507
ture 0.10013014211626112
vat@@ 1
Cann@@ 0.751325564398122
Cord@@ 0.9311554604818754
Imp@@ 0.46105965478543004
Theod@@ 1
eux 0.07321455727657838
oric 0.8871938295435428
88@@ 1
API 1
Mitsubishi 1
Savoie 0.8392538256597091
Whitney 0.9051514787492453
bek 0.7292013111241069
seus 1
zek 1
201 0.9953855477862955
Hau@@ 0.5409064321791712
Joan 0.44730801088775307
kins 0.3759041558838285
prim@@ 0.15882143047955086
umo 1
wski 1
CE 0.3569803867003314
Chiang 1
Euler 1
Phar@@ 1
Z.@@ 1
eus@@ 1
inson 0.9106972066419218
zel 0.6956048726526071
Burn@@ 0.6793938408023594
Family 0.16911522225318293
Kuala 1
Tell 1
esc@@ 0.14881020684544416
Brow@@ 0.6394122790245367
C2 1
Dr. 0.10675981756297138
Hispanic 0.5036346803186829
Krish@@ 1
Pérez 0.44631765620324054
Reich@@ 0.20476904982650093
Wein@@ 0.2631343392239679
azu 1
ierz 1
Atlético 0.5594491978556437
HP 0.6418379363066332
Mohammed 0.7078195783489072
Mou@@ 0.6366221319585931
Rau@@ 0.48558522407628707
Trin@@ 0.5467335171001284
You@@ 1
concert 0.20167062543957578
yas@@ 0.7261321054639751
3.0@@ 1
35,@@ 1
Hotspur 1
Single 0.3325054029677825
dit 0.10108789795031381
hac@@ 1
ties 0.06321175040997935
2,6 1
63@@ 1
Jump 1
PR@@ 0.4557542142821074
Tay@@ 0.7547002444633627
Tower 0.3523710072328328
Traf@@ 0.7196552543497052
ebra 1
Eich@@ 0.4896047671190382
Lloyd 0.4088218803737971
ensi@@ 0.3009219281344391
odi 1
oros 1
Bunge 1
Kate 0.5651569653887535
Vista 0.9521836916929002
atom@@ 0.37497698109052363
ecki 1
fan@@ 0.35572258360584147
luk 0.9622384297255601
asta 1
spar@@ 0.2649761836110754
Guy@@ 0.7564828789818752
Quebec 0.311135665762616
Take 0.8304829752572587
Vik@@ 0.41071690401969735
ayashi 1
Minsk 1
Sur 0.12875871418040694
Tommy 0.49730450372660673
ampton 0.5250065409224084
ering 0.14316231693967346
ship 0.04575275490213602
avar@@ 1
golf 0.5254500363856666
indi@@ 0.13461375746230414
lim 1
oll 0.30852680011729516
Tarn 1
Tau@@ 0.5559212432960993
lymph@@ 1
子@@ 0.29702818121957686
Bug@@ 0.5301843686432702
ande 0.2306709614671086
eyi 1
onda 0.5902714244975881
三@@ 0.0903411574684534
151 1
Andrei 1
Cloud 0.7622320099373247
aven 0.5309783660980449
bic 0.9513084216297144
60.000 1
CT@@ 0.6504326800830482
SmackDown 1
Teen 1
Zan@@ 1
enst@@ 0.2479470837497546
ifer@@ 0.6460301212519992
wei 1
Gardner 0.9838381015911355
Hugh 0.4373376302770664
Nel@@ 1
Pall@@ 0.7734888085840813
SK@@ 1
anak@@ 1
nick 1
Capitol 0.7606849803998323
Nim@@ 1
Rag@@ 0.5762225796946878
Southampton 0.8990552792749666
ahr@@ 0.33952910025840644
atten@@ 0.49963184264649935
hot 0.37913658998062627
law 0.05061306824279006
AK@@ 0.7607324511339835
Tang@@ 0.7024038872650886
Volga 1
aten 0.0887044621480793
ric 0.5238322035781807
MBC 1
Mont 0.4715020680280251
SARS 1
ede 0.20850673682454113
ượu 1
AV 0.7836054502736796
EC@@ 0.5886403360854198
Floyd 0.8289912062513983
Gür@@ 1
Hac@@ 1
Mark@@ 0.3068593014632758
Zak@@ 1
bat 0.28295458653353095
chan 1
ș 1
Elec@@ 0.31131087452044914
Lancaster 0.7669352546170931
brid@@ 0.6825376556276693
orch@@ 0.885493331914134
Edgar 0.5675077782928526
Four 0.21397455032380436
Research 0.11232878952343367
Rihanna 1
Silver 0.3584527717189116
Stanford 0.5272105489318855
tina 1
174 1
tima 0.6456618250761232
192 1
2025 1
Owen 0.5920529981638939
aim@@ 0.30851143498964245
rat@@ 0.31794231276004553
zan 0.6099501216360407
Çam@@ 1
ː 1
212 1
Captain 0.2099610487925599
Hautes 1
Roy@@ 0.4755772489123548
Tokat 1
Vall@@ 0.5531663653630579
eia 1
insk 1
nix 1
ự@@ 1
Ce@@ 0.6981862463963934
McC@@ 0.7731326258838136
PP 0.6799020536715916
Secret 0.5769109606625763
Spencer 0.5489805533765441
Voy@@ 0.7437383387962314
alam@@ 1
auta 1
pris 0.2722188584141438
º@@ 1
Ê@@ 1
ńsk 1
ế@@ 1
186 1
Novgorod 1
Stil@@ 0.41335453669641165
engo 1
new 0.01584741360073027
480 1
AKB48 1
Drac@@ 1
cium 0.9328730600916586
elly 0.4095450906203562
Anton 0.3539744901915909
Château 0.5104033742217153
Lockheed 1
Lug@@ 0.5559425816170499
rin 0.7840344648878043
Emer@@ 0.30643341264287827
Felipe 0.4552182149363691
NT 1
Nile 1
contr@@ 0.0624404971682721
Gard@@ 0.776888874880962
Television 0.2332943663757698
yr 0.7492531442393542
1700 0.6162661347864306
Bahamas 1
Iris 1
Lump@@ 1
Spor@@ 0.42727292552591967
dum 1
ires 0.1694695222544352
loss@@ 1
uya 1
ç 0.5123949040469484
ˈ@@ 1
1787 0.7083708242816417
Rogers 0.4609034235252199
Wis@@ 0.56984423272209
ettel 1
had@@ 0.7568215865304956
74@@ 1
Gümüş@@ 1
Sevilla 0.5530399738107225
box@@ 0.25592163527515405
dina 1
CG 0.9129274540391635
Cri@@ 0.3735276805626281
Odys@@ 1
also 0.005737195492801414
mah@@ 0.6663219700885715
1791 0.5886791270878728
275 1
Campania 1
District 0.042874547467737806
Norte 0.2604253152205011
Samp@@ 1
arist@@ 1
ınar 1
Fleisch@@ 1
Yukar@@ 1
dioc@@ 0.9929411242471535
onga 0.8750946022103601
plasma 0.9022364335944693
tens 0.41825834390897115
toc@@ 0.7412173183196957
164 1
Hind@@ 0.5032014708932845
Jesus 0.2568145905128996
Vie@@ 0.48724245791663756
Viol@@ 0.3386328224458448
ağı 1
172 1
204 1
Diana 0.6301159653407875
Estr@@ 0.4462814345224884
MB 0.8177456053458505
abar@@ 1
atta 0.7158298554173289
incer@@ 1
Má@@ 0.763647681239601
amide 0.8150392324161259
icro@@ 1
290 1
Eb@@ 0.6183579022668398
Sebastian 0.4756070869972354
euc@@ 1
1793 0.43144548007350947
Alto 0.5998109338950226
Châ@@ 0.7032177048613232
Switch 1
U. 1
semi@@ 1
Bomb@@ 0.8927851461494191
Dortmund 0.7756770556428328
Harr@@ 0.5735103264346613
Mountain 0.20122260937415853
cosa 1
ici 0.2624087389138642
皇@@ 0.6426697101056248
Age 0.31487098950394626
Coast 0.1665548211400553
Guinness 1
Joyce 0.9628670947569902
Mason 0.5386094332441836
Mour@@ 1
Shah@@ 0.7499532293110605
Til@@ 0.4940556989390759
alı 0.568916900559273
have 0.008895526082223524
was@@ 0.24820994823605239
Doğ@@ 1
Kalin@@ 1
Mae 1
YG 1
anao 1
omorph@@ 1
tec 1
delic@@ 1
ilidae 1
ł 1
Colum@@ 1
Cost@@ 1
Harvey 0.517218569032631
Ju 1
Konya 1
Leeds 0.46319812688942796
Standard 0.3146125952050916
Teut@@ 1
box 0.17613936444737044
eber 0.669916297663537
ello@@ 1
urt 0.5091237817869131
Felix 0.5348315239554658
Torres 0.5830521040679384
tas 0.1841659119887532
0,6 1
Jon@@ 0.5937435095171271
Muh@@ 0.9479553491665461
dos@@ 0.41260258702348007
1794 0.5159056986262207
Dublin 0.27423500629754255
EF 1
Eisenhower 1
God 0.1542309757332966
key@@ 0.4248526500890959
ovsk 1
yō 1
孝@@ 1
Amaz@@ 0.954607966803906
Hep@@ 0.9627765096160599
Mini 0.9796212520970815
Sabah 1
States 0.022182138009962004
183 1
207 1
Arth@@ 1
Chang@@ 0.505635621339905
Rost@@ 0.9555067093068644
Sardin@@ 1
chon 1
het 1
jō 1
Macar@@ 1
Morrison 0.7279497220547309
Send@@ 0.6909552769099884
Small 0.5714327921580801
nio 0.7498628476060667
2,8 1
Abe 1
Dmi@@ 1
Galileo 1
Scor@@ 0.6562792870119608
aks 0.2125804343093125
cont@@ 0.12103012549130047
tius 1
Chand@@ 0.7677988043390208
Omar 0.8040292232006201
ağ@@ 0.894707376776602
bourg 0.21626040531634438
cass@@ 0.6957662496490414
ilen 0.21008667174259293
viv@@ 0.27668657922082834
189 1
Kou@@ 0.8429295695725688
Poznań 1
rub@@ 0.5584110457576299
visual 0.30995742408343413
167 1
221 1
Ashley 0.9467485003161903
BP 0.8323833884386816
Ey@@ 0.5595657390892407
Princeton 0.6109291374674187
Roberto 0.43288753090569365
alay@@ 1
Alexandra 0.78920005173739
Diyarbakır 1
Fried@@ 0.3588674682973833
Nis@@ 1
uva 1
vac@@ 0.17466078988885905
850 0.9936791778049507
Emp@@ 0.21434264015227514
Medina 0.8845845726780549
SM@@ 0.5683984711844564
Summer@@ 1
Yorkshire 0.3857669892150766
lung 0.33979228943257395
orb@@ 0.7568144130021592
rol 0.3416841442667976
École 0.2614518217883317
元@@ 0.3055949236851349
Bull 0.5756687008243171
Burg@@ 0.27971341686778856
Carol@@ 0.744921368415774
Rachel 0.6058940089611382
Software 0.40500570928785334
Zer@@ 0.4462876367582321
bey@@ 1
date 0.07072918772076142
gren 0.924287992076661
olana 1
ques 0.04839648121062795
sier 0.533807761661315
173 1
Aster@@ 1
Conan 1
Gig@@ 0.9011234650148464
Kro@@ 0.46205384085694207
Powell 0.6271425663938579
aik@@ 1
left 0.035664698050608144
tn@@ 0.5721232541973239
ube 0.7968034991969122
âz@@ 1
Beng@@ 0.3837247813899995
Kuh@@ 0.9549952193262715
annon 0.5160804386599983
carp@@ 0.5939050719359744
lands 0.09926352614236202
mos 0.4007942097984285
ram 0.5883209747054564
Bursa 1
Columbus 0.5612297059205179
More 0.2321797976172101
Psy@@ 0.8745529774256696
WTA 0.7700453179735685
ambo@@ 1
domin@@ 0.14373850954577608
iris 1
otz@@ 1
sui 1
238 1
Dul@@ 0.6029933461753034
Murphy 0.45890200433956113
Qaeda 1
Rep@@ 0.4440750622501239
Republic 0.0929923699848094
There 0.03115095173130023
bio 0.3623375363072598
entia 1
0,2 1
0,3 1
Panther 1
Venus 0.8066132846092798
under 0.01732803002587644
Atlantic 0.1814640086921619
Gov@@ 1
Todd 0.5966381912526303
ingu@@ 0.5152720384857207
laur@@ 0.6854859981864031
pedi@@ 0.5316675925064716
179 1
Alberta 0.3985459443909405
Hig@@ 1
Pascal 0.7757408967847671
Zam@@ 0.8580433228285395
heimer 0.5224955829130039
0,8 1
163 1
Brussels 0.7913281902460109
Dist@@ 0.3685156801636213
Fou@@ 0.7253443788150303
Jó@@ 1
Mill 0.5130018562381344
Muk@@ 0.9925515155748131
Non 0.42679593637757174
Vladi@@ 1
ders 0.0959254317196144
elo 0.3155198476003755
太@@ 0.25567496845146215
Clara 0.5362976102953424
Toyota 0.6736589513583916
hwa 1
meridi@@ 1
parado@@ 1
schn@@ 0.41878111824325537
325 1
Back@@ 0.4732744352761417
Kai 0.9432112511215632
Verde 0.8416465959859087
ampa 0.8431771593605982
vier 0.06622984717096264
Bill@@ 0.5206292014801472
Dioc@@ 1
cham@@ 0.5213012029108864
online 0.1761776957912368
patr@@ 0.12230321362690821
Chak@@ 1
Elo@@ 1
Jay@@ 0.6441300560490039
Maxwell 0.839760860978488
Morton 0.9218558363336247
Sheffield 0.5243127342745372
ycidae 1
Kurt 0.37903657696912074
aves 0.14510955023782127
red@@ 0.16917852177492457
Korea 0.18213152257107798
Puy 1
Reb@@ 0.26940001222950555
gne 1
ığ 1
皇后 1
Isabella 1
Leonardo 0.817157552768853
Stefan 0.46790153236060095
ough@@ 0.17924139473270434
pool 0.2752530704063505
thiop@@ 0.9165614888199586
184 1
199 1
Aren@@ 1
Mohamed 0.6725355912257561
dal 0.4707354872395031
geri 0.7135206392413943
明@@ 0.20083279387130543
193 1
Bahia 1
Glenn 0.7015811171520683
Togo 1
azz@@ 0.7365380559709345
estan 0.7606122801598347
noc@@ 0.8392816284521444
ras 0.30676583018054515
stedt 0.7629512277051251
Never 0.704140835583798
Planck 1
Sung@@ 1
Viola 1
Akira 1
Autom@@ 0.28973935253251176
Bar 0.3427798114687713
Fuk@@ 1
africana 1
dra@@ 0.15600612001324313
yang 1
222 1
420 1
Alliance 0.2733704084063938
Corr@@ 0.8324956106961899
Cycl@@ 0.5451535467330424
Eric@@ 1
Instagram 1
Oth@@ 1
Peters 0.9124493194104599
Vienne 0.49835765609416893
nitr@@ 0.5580071418787219
武@@ 0.23339867568407227
Are@@ 0.84561575696652
Aston 0.9529053543828001
Kabul 1
Lamb@@ 0.5853819173420102
RI 0.6364069190742802
burg@@ 0.5875463984715764
style 0.04798558582623101
8,5 1
Glasgow 0.3157822984378445
Kütahya 1
Marina 0.5021994653137254
Than@@ 0.8300840722707774
rhy@@ 0.5987745987234003
州 0.07333395105323909
177 1
Falcon 1
Fu 1
Hung@@ 0.7177718061778381
Mann@@ 0.3766758293756748
Sophie 0.4773604294205633
asco 0.7369906638378732
building 0.03625084034224653
fron@@ 0.3054250030498054
kus@@ 0.6300247707718332
Days 0.5031488485251702
Diplo@@ 1
Doctor 0.23728581804440735
Hib@@ 1
Marcel 0.4393793409618215
Movie 0.6670866323971432
Productions 0.4350255089118405
aise 0.13595952319336072
igg@@ 0.7527961783646123
iler 0.16121131880732315
liqu@@ 0.5605653327067209
osi 0.9892834938705335
oter@@ 0.9332150075887341
wr@@ 0.2882970881855946
Atlan@@ 1
Yozgat 1
inski 0.627486351641367
lach@@ 1
ps@@ 0.47678067283095715
rou@@ 0.1457869883753632
yrin@@ 1
178 1
2,7 1
Elena 0.6768254774142566
Nass@@ 1
anea 1
aon 1
capa 1
va@@ 0.6080019008714019
Arab@@ 0.2614340729661097
Bavaria 0.9807558729801296
Business 0.1823845406539066
Nations 0.15665564630429102
Post@@ 0.19402579774691167
Tel 0.6122125510985179
½ 0.7534684209679079
ə@@ 0.7505145539312529
Five 0.2889441298890532
Jenn@@ 0.7446573086223112
Logan 0.7721083221317881
Maximilian 0.8424163889879549
Meth@@ 0.5510362812533005
Nah@@ 0.34773194127272067
Oslo 0.4981238302265774
Phone 1
Pont 0.5112248700416269
Run 0.47208315229543046
Woman 0.40677056778720905
Yaz@@ 0.9805337486068207
eras 0.19950472715485645
lang@@ 0.19212162765878105
tie 0.1930719748806825
南@@ 0.08775310993570078
Bradford 0.7061979576851094
Ornith@@ 1
Rock@@ 0.31871901188918056
ement 0.0207300347220261
1776 0.6491386144782499
262 1
34,@@ 1
Karen 0.7020635050304964
RPG 1
Sty@@ 1
Wyoming 0.730946486195881
dio 0.1309659915074324
ypter@@ 1
Lazio 1
Ricardo 0.499906236588906
Vend@@ 0.6980679162511654
arı 0.758236766271249
dollar 0.957591330306704
2O@@ 1
308 1
Castell@@ 0.6982432850126445
Rhode 0.6085245236822617
SV@@ 0.9520500186265949
nev@@ 1
ák 1
182 1
265 1
365 1
Rotten 0.7717407531224364
act 0.06721335534810673
ains 0.055174326025486706
decor@@ 0.2556180591319354
esti 1
kay@@ 0.5229237279171967
plac@@ 0.2893730767259308
Erich 0.5906853101248515
Money 0.7001734799426391
bou@@ 0.16823658296109317
Aki@@ 1
Ferguson 0.8598414210876362
Freder@@ 0.47996012083324274
ege 0.35812506962666346
BAFTA 1
Dau@@ 0.40306675050182217
Lu 1
Nach@@ 0.11041437937297849
adan 0.5513332364601695
yeri 1
264 1
Brest 0.8188404003177053
Cola 1
Dh@@ 0.7040845805429705
Metz 0.7109089496296591
Orlando 0.5624090247020069
Pero 0.35964665646805977
SV 0.28160909608410123
aes@@ 0.646635887648851
bid@@ 0.4831903467385558
BD 0.7855698983683127
Kras@@ 1
Tanaka 1
aran@@ 1
atu 0.8652568992012273
bor 0.3804393143539429
eba 1
mouth 0.23142080263087944
228 1
36,@@ 1
78@@ 0.936652977299
95@@ 1
Bern 0.5521726459784555
Box 0.42149266423674847
Gök@@ 1
Rang 0.28899639010270933
glut@@ 1
ld 1
IF 0.5753848744725607
akov 1
cs 0.20806280250010792
gó@@ 1
sov 1
teo 0.9658394034453165
國@@ 0.14224554146700874
300@@ 1
Esco@@ 1
Henderson 0.659531868325245
LG 1
M1 1
Yay@@ 1
lington 0.4780749583801751
press@@ 0.4374202664018221
stream 0.21299243933784187
urg 0.4875013574227551
ü 0.26882341769536244
ỷ@@ 1
Africa 0.08355772765663932
Chop@@ 1
Cz@@ 1
Duke 0.16895756396223965
Face 0.6789190407760152
Nguy@@ 1
Pros@@ 1
Pus@@ 1
Roth@@ 0.6188485994681963
actr@@ 1
jer@@ 0.24496873823784804
tsch 1
vertic@@ 0.7128512521495112
Augusta 0.7641530403311533
Epis@@ 0.809129338446182
Essex 0.5431498816142414
Gund@@ 1
Hanover 1
López 0.33172664442391264
Yus@@ 1
acy 0.08305883319583422
elea 1
over@@ 0.04992764569310094
real 0.08266539294103173
taker 1
Yi 0.9722245487311957
edon 1
EN@@ 0.5076806467309743
Gandhi 0.9338456917066631
Grey 0.4962171583322591
Naples 0.5351530194756587
comment 0.5581155385427604
223 1
3,2 1
98@@ 1
Bob@@ 0.49782162384775014
Rocky 0.7154033236524627
Eritrea 1
GNU 1
Gabri@@ 0.5776187732206012
Jorge 0.28440302429342057
Jos@@ 0.4419771620986905
With 0.06095985282237116
kie 1
kot 1
ów@@ 1
1795 0.48124650117835355
181 1
188 1
Bali 1
Caes@@ 1
Grav@@ 0.5969802428568476
Hill@@ 0.46668806761031933
Lil@@ 0.6066851109983457
Pok@@ 0.5379774497777163
Soc@@ 0.6040700889681803
Stur@@ 0.4529228283559438
alen 0.10669066107687898
ebu 1
ort@@ 0.42238430434064256
ợ@@ 1
Bres@@ 0.7500991274849786
CL 0.8044897274893459
Cron@@ 0.9791650849500627
Eagle 0.5697403849381396
Edge 0.7166990863981156
Grig@@ 0.8311152456036273
Morning 0.5350678072360912
Richmond 0.3457227383513093
SN 1
Sweet 0.6715617125133748
kea 1
utu 1
Adelaide 0.44139027289370175
Ağrı 1
Herschel 1
Nice 0.618401143293203
Server 0.914038789842748
insul@@ 1
path@@ 0.19436407719060877
trin@@ 0.829006606971424
ysi@@ 1
Calabria 1
Ural 1
Flam@@ 0.3632582965489156
Paran@@ 1
Pompe@@ 1
Scotia 0.6871952080636553
ahara 1
anza 0.2659058212645499
raya 1
sberg 0.32143831720414945
wid@@ 0.1910049374486421
劉@@ 0.45319245734245805
Beautiful 0.9320075240085324
Get@@ 0.7200268405420599
Ibrahim 0.8402207014664306
Spart@@ 0.8944776976888109
ansen 0.7940560615301947
geh@@ 0.13174212046684064
196 1
Meh@@ 0.5177275451334361
PL 0.9362410081221977
Seb@@ 0.9218683132656715
Station 0.10461070550664116
arbor@@ 1
ná 1
olan 0.08463343564027793
orium 0.271081556859352
pei 0.9094329706492772
198 1
Dick 0.40809070781686435
Rég@@ 0.5558954409812888
iwa 1
xo 1
ın 0.09643114082776508
304 1
Bas 0.35562919479843036
Jal@@ 0.7542082632250178
chap@@ 0.21636068884766246
recur@@ 0.32398150732870745
tum@@ 0.3119675081241624
xima 1
Hack@@ 0.7563543360413865
Keith 0.4194830907890011
Piz@@ 0.7669512444272553
colspan 0.23240864574483422
egu 1
Casey 0.9105038076993993
Deme@@ 1
Din 0.9437449634280031
Ko 1
Visual 0.8763760301299447
Wembley 1
cott 0.757397224349333
endi 0.6956849232030615
ça 0.3453304613419442
KBS 1
Major 0.1298540854646624
Olivier 0.5623028460480686
ils 0.032964350112026426
plas@@ 0.3090342526127256
Blood 0.5045023738600266
CONCACAF 1
EM 0.5275452143647417
Ear@@ 0.28245705044790037
cath@@ 0.4304500238918593
erk@@ 0.20695676035486799
orio 0.3092449694850957
shi@@ 0.16924252727661215
区 0.10629080967028467
149 1
Assam 1
Bamb@@ 1
Craig 0.4452257923133459
Kenneth 0.5733112925176608
Rend@@ 1
YP 1
aux@@ 0.6537400201517147
cyclo@@ 1
ej 1
seri 1
simul@@ 0.3621866499028518
tap@@ 0.26753932483614035
255 1
After 0.01916878986512948
Get 0.5681853555327874
Greg@@ 0.6909858529210977
MHz 0.7386988287559347
Shakespeare 0.45688500326965625
Symp@@ 0.8514257923198375
ml 1
plut@@ 1
Sara 0.6295062546303439
See 0.1542584190541386
Tyler 0.6065599592463712
antan 1
cas 0.1038339334020638
lic@@ 0.19646674595913602
mph 0.7099871910479969
pio 0.8983727026891288
type 0.05700248286302927
158 1
Hussein 1
MIT 0.7937512746172192
Math@@ 0.4542286962299023
Northern 0.10567977288314366
Saxon 0.8244858192609015
dag@@ 1
gros@@ 0.22839371746539422
171 1
HM@@ 1
Kau@@ 0.70937301304968
Micha@@ 0.5624284805094136
Montreal 0.2604654008136178
demo 0.9757311379496244
dict@@ 0.41905611480489774
Celtic 0.5394459280305641
Edmund 0.5373839077536402
Kri@@ 0.4185000362552093
Meur@@ 1
Raz@@ 0.6530169172823387
americana 0.4299982033971716
ands 0.09509013912323726
leigh 1
lima 1
ossa 1
Ế@@ 1
1782 0.6827662608320297
213 1
Acan@@ 1
Baltimore 0.27917135870687504
Navarre 1
Wik@@ 0.8484390618019447
apr@@ 0.5312628532630873
dağ 1
dub@@ 0.48146139676639166
epi@@ 1
rain 0.267367865983272
vas@@ 0.2288202649445465
wing 0.07911940180018183
ậ@@ 1
Ent@@ 0.16862609367913323
Indian 0.06143895113375596
acro@@ 1
chem@@ 0.19230081683444047
sn@@ 0.1947822818198089
c.@@ 1
oissi@@ 1
paci@@ 0.7001237147949155
sti 1
1783 0.612274707764629
38,@@ 1
Fall@@ 0.43478968805548085
Fi 0.9380177924332289
Hawk 1
Justicia 0.8303598087519274
atin@@ 1
carbon@@ 0.7415022576742399
group 0.026874045798595373
schmi@@ 1
uj@@ 0.6382916354508011
1772 0.747005833916335
191 1
31.@@ 1
Aircraft 0.6513251593370019
Beyoncé 1
Chev@@ 0.5737790049848288
Jen@@ 0.7585957596406063
South@@ 0.32643344884834263
abo@@ 1
ub 1
་ 1
219 1
Duf@@ 0.833325123737518
Imag@@ 0.4828147345480062
Jud@@ 0.23168887422754567
Kw@@ 0.8487083046439277
Pablo 0.2943784689630941
Stade 0.4585647699346705
Vosges 1
abor@@ 0.1931976714775894
aly 0.5947928238543603
dem 0.004808400000439904
187 1
197 1
Barbar@@ 0.9934197494443153
Buck 1
Drake 0.7205684643327795
Jules 0.40234238699197844
Name 0.09390876688298751
dur 0.6411527857248623
icor@@ 1
37,@@ 1
García 0.256711818270649
Hood 0.8196098476095562
Rhe@@ 1
Terr@@ 0.34861772267104085
acar@@ 1
ifer 0.7799577213446724
municipal 0.1339743253424382
wiki 1
Düz@@ 1
Fag@@ 1
HC 0.3753206797145118
aklı 1
bria 1
buc@@ 0.7414707063311494
cke 0.6495312788876726
eves 0.4250775408669355
roy 0.5428116655813273
tat@@ 0.6551377705615388
two 0.007955067418821573
1797 0.5200906008780822
GA 0.5160892600247147
Nassau 0.612586701666613
Radi@@ 0.23133482237791397
Sunday 0.21665873216394715
asus 1
cyc@@ 1
urs@@ 0.4285912493027444
NES 1
Senior 0.24527293235091316
aber@@ 0.669193168105744
ael 0.5716146915826049
confer@@ 0.44282827958587695
nak@@ 0.4292070856379391
onte 0.46751784554845144
ıç@@ 1
ững 1
Josh 0.5947468899624181
Miranda 0.7352640123161761
Pavel 1
Today 0.2097667954883944
abol@@ 0.19183024542342106
ỗn 1
Casablanca 1
Hello 1
Sénégal 1
ppa 1
sche 0.10111064097841062
ws 0.1146655256241906
312 1
BAS@@ 1
Fig@@ 0.3873288281947856
Hannover 0.3396116583286051
Krak@@ 1
Shor@@ 1
bas 0.2203188179604021
china 0.6979325330938924
gom@@ 1
ses@@ 0.3763437578467573
stor@@ 0.11342203947365206
vie@@ 0.2993881136921178
德@@ 0.09502934937031945
Adobe 1
Crim@@ 0.5297618256259548
Deep 0.5395499666596547
Theodore 0.6715855399843861
muth 1
Associ@@ 0.5738091391050846
Ced@@ 0.6450220067813263
Horn 0.6736881340782562
Mardin 1
Nir@@ 1
fun@@ 0.2113371717855433
seg@@ 0.2740853187857251
termin@@ 0.09552661220331282
zef 1
CR 0.4491291494878351
Glau@@ 1
Mih@@ 0.739831316672397
Nos@@ 0.7565467874607241
Tomatoes 0.7996686978134984
Triple 0.48279728822547896
Ud@@ 0.6403343955529923
cav@@ 0.34396902833513154
cer 0.24089905097916622
coli 1
orf 0.422462871265409
spect@@ 0.421554963634242
400.000 1
767 1
79@@ 1
Jeanne 0.4916069591503431
Lyn@@ 0.6094789586316673
Must@@ 0.8553303917343023
Sof@@ 0.5144961230612404
TR@@ 0.6934899122633907
Torre 0.6284018544424995
Unix 1
alim@@ 0.5002865700061409
cius 1
ful 0.07151557094259035
Cry 1
Cube 1
Danny 0.447816705937046
René 0.32085280000917465
Sánchez 0.45495174180180437
dimi@@ 1
entino 1
fos@@ 0.26524891202847306
金@@ 0.11260288761108832
Bagh@@ 0.9829845083318757
Century 0.37106495600899186
Challenge 0.3129356526544513
Jut@@ 1
Kant@@ 0.4100852082201228
Second 0.09486695498910011
fac@@ 0.11710283429138048
four 0.021812895682499524
khe@@ 0.6632596571462139
0,4 1
161 1
Sergei 1
aki@@ 1
att 0.4484433119866631
ayana 1
team 0.015653903560391428
ǎ@@ 1
Braun 1
Québec 0.21235408149060078
Wind@@ 0.2730500265482678
cant@@ 0.16654949711020792
interrup@@ 0.5090772907816531
sola 0.5001418657874183
spec@@ 0.10950507403255662
ular 0.08431666979048075
Bois 0.5603401318777579
Hew@@ 0.9470160552903835
NET 1
Rob 0.5127976119062796
Zaragoza 0.7262172269771366
aphy@@ 1
eas@@ 0.40212342095998416
194 1
Afro@@ 1
Computer 0.3682721145881632
Detroit 0.23489015307909827
Dial@@ 0.7823952420515323
Lomb@@ 0.8478915345617833
Pang@@ 1
Sol 0.4503567361072348
gate 0.2651463718137657
onian 0.22837758786010132
Geh@@ 0.3107065793620323
SU 0.5973859859297702
enh@@ 0.13072016428266084
ieu 0.6755915755808126
Bella 1
Demir@@ 1
Erik 0.6080877441332735
Stark 1
acha 0.527046113311914
aş 1
core 0.18651004462361906
deser@@ 0.48361252747726624
kit@@ 0.3596977906305024
Göl@@ 1
Lynch 0.7518919415509344
Saturn 0.9979217398091224
asse 0.14643366195626756
debut 0.051073148220115425
emy 0.7343074287311624
erst@@ 0.12441119988291467
iv 0.4751302865274147
run 0.05484355799779751
track 0.07032256328060338
If 0.10476585843386783
MT@@ 0.7252308252738132
OVA 1
Porter 0.6191690602825902
enor@@ 0.4874596621209263
itr@@ 0.6017214803472356
mim@@ 0.899902909131775
oty@@ 0.6292938843061749
pra 1
right 0.05121594843171465
sac 0.6240287708296397
vic 0.40232231726486717
ür@@ 0.1374799007569565
226 1
3,3 1
Nacional 0.07938753738656658
250.000 1
João 0.902131162454035
Maharashtra 0.9623158452973971
Oaxaca 1
akan 1
auss 1
echn@@ 0.5048150546811425
yard 0.14593564675428017
150.000 1
Abu@@ 1
Human 0.22064613610015518
Management 0.1859768542012406
ingrad 1
tron@@ 0.26121549999972665
ış@@ 0.6089947047089419
440 1
Cyprin@@ 1
GO@@ 0.5738324401823824
Homo 1
auge 1
conc@@ 0.17235953179417401
ensa 0.46425704074230273
maj@@ 0.396652242609744
para 0.007911104304012472
Å@@ 0.7186834759026753
89@@ 1
Bolu 1
Gironde 1
Lily 1
Rin@@ 0.5468823648688315
Valeri@@ 1
inas 0.12986884297334986
lı@@ 1
Bey@@ 1
Dennis 0.40515298023800816
Fletcher 0.8961473173800527
Olympi@@ 0.3231131557700896
Special 0.17384970221153098
Sunderland 1
234 1
Antalya 1
Beh@@ 0.2019876435290918
Idaho 0.5795796548326771
Jr. 0.4169171256767144
Jum@@ 1
Latino 0.4496013508402167
commune 0.031160377936766483
mene 1
obu 1
yans@@ 1
232 1
Elisabeth 0.34432504356054694
Sheikh 1
Squ@@ 0.48337164371405356
ank@@ 0.41909593299871706
cricket 0.2486497360579095
jur@@ 0.1926115751250605
rah 0.9475201258314824
vir 1
169 1
CV 0.7181560732547934
Comic 0.7320654007862618
Infin@@ 0.881664365516444
Over 0.17724456369035493
Paolo 0.7601629923543911
aca@@ 1
Eva 0.48314597775867946
Hok@@ 1
chal@@ 0.49326772950257874
face 0.055024867806813746
som 0.5201578503692267
159 1
2023 0.7978810135687137
Cit@@ 0.4128479175754032
Flo@@ 0.3475471758565569
Lion 0.5994952586415802
Nero 1
Yon@@ 1
ages 0.035675829809015645
rim@@ 0.839172781931488
39,@@ 1
Ahmad 0.6215819280952771
Gambia 1
Köppen 1
Leb@@ 0.24831239398597185
McDonald 0.6560062543613566
Nex@@ 1
Sach@@ 0.26099758717770455
gil 0.891744272363435
parall@@ 0.45492430891817354
430 1
Antoine 0.2795298858204263
Bub@@ 0.7702402406992741
CF 0.49874300041197434
Emily 0.5435654233588985
Metal@@ 1
Stuttgart 0.2727456606295606
Vid@@ 0.40458688560099443
amii 1
server 0.41374164038583344
tun@@ 0.21059614468231197
山@@ 0.13234603889949748
1,9 1
CF@@ 0.45141495638102247
SW@@ 0.4899751154179674
glob@@ 0.3405333020711793
opi@@ 1
phal@@ 1
Born 0.16435703023221224
CNN 0.89989399240545
Fischer 0.4458446919980893
PD 0.5698605007390682
ROM 1
Roland 0.4205897664187081
Wan 1
Wanderers 0.9054659271384712
bra@@ 0.5841804558737733
evi 0.8498860459630373
oue 0.40682752278340867
u.@@ 1
3,6 1
Cabrera 1
Civ@@ 0.5395908743604543
Graf 0.3288624610058778
Kes@@ 0.6791276716939069
Mohammad 0.7249090345811602
chem 1
fasc@@ 0.4737653555477051
haz@@ 0.36663151854184267
ikov 1
led@@ 0.6585511386305593
nos@@ 0.843938539516377
remix 0.7658565745043111
zon 0.7756772352173893
् 0.0035281139228958494
Sophia 0.8577257384121736
Systems 0.294882448848705
Ultra 1
Wellington 0.4324659446664393
sheim 0.3832291124527264
高@@ 0.08853002580435167
Ave@@ 1
Krem@@ 0.9546682108810715
Raven 1
Yang@@ 0.9482163502005346
aron 0.031308494772385544
bol 0.7016727032740393
inj@@ 0.2738772815940065
umani 1
Call 0.573884172201845
Francesco 0.4203555851376903
ball 0.09684674097296903
chenko 1
Çay@@ 1
316 1
Atom@@ 0.6821526698602834
Bail@@ 1
Betty 0.6310797751373101
Carib@@ 1
Johnston 0.7126554315207027
Laden 1
Michelle 0.6701487970037162
augh 0.7450662666897601
bart 1
nec@@ 0.3163842421466578
ð@@ 0.40791782793506576
Knowles 1
SR 0.1651457586955119
U.@@ 0.4057951436907582
Werner 0.34709059374725304
anni@@ 0.992779769659733
ecik 1
iff@@ 0.7328581416476354
jac@@ 1
köprü 1
mit 0.0037230377322506184
oci@@ 0.38056475154918185
Anast@@ 0.8474203725126925
Hotel 0.16628346518655224
Quar@@ 0.487272822071398
ican 0.1953421517616375
imit@@ 0.4217892241907422
impres@@ 0.16496164413600223
sou@@ 0.07263314163353388
87@@ 1
Anglo 0.4125544596073221
Brig@@ 0.22831436193827528
Ech@@ 0.8438087908457829
Fland@@ 0.47625620006274166
IOC 1
asim@@ 1
Drive 0.37968538782363903
Guill@@ 1
LT@@ 1
Lost 0.46757200227464085
Lé@@ 0.39759765762359844
bell@@ 1
horn 0.3535668630913994
之@@ 0.07890757873936076
400@@ 1
777 1
Dynam@@ 0.5748505691127708
Nil@@ 0.7396910257505962
RAF 0.3494599240717844
ellan 0.8799728100835248
jk 0.907108071277047
254 1
Lea 1
Plymouth 0.6081554837398536
cell 0.16156991786450306
kiewicz 1
sh 0.3654853656644322
ẳ@@ 1
Head 0.2106485421838536
Ibn 0.5477289747532886
oris 1
osom@@ 0.5744370488221097
yam@@ 1
yap@@ 0.3267385958109172
ño 0.25010852932715394
Brisbane 0.4016031118378762
HD@@ 1
awesi 1
pink 0.7699937795454499
sey@@ 1
ident 0.1858865642388609
ondo 0.7757755273930477
onna 0.6164593806068026
reduc@@ 0.39678987137849997
227 1
279 1
Art@@ 0.4577304247068976
H1 1
Hardy 0.6482131672506719
Joachim 0.46448440350022674
Lopez 0.823521454253337
Phantom 1
Verd@@ 0.8011379113720501
Wrestling 0.24299096071619802
ata@@ 1
which 0.004024756363340879
Çanakkale 1
ă 0.693297037408245
A2 0.901190135659603
Cub@@ 0.48515438928043336
Ellen 0.5607823821906
Whe@@ 0.33595913703106006
agen 0.13288506941627473
dula 1
igne 0.35240254038433916
itor 0.20378431888994972
oğlu 0.49444544584617633
vik 0.7274262633484156
Country 0.17848037956832627
Got 0.8072036789987411
distinc@@ 0.47212913595376843
drama 0.1304856621717871
1784 0.5697974662326271
218 1
224 1
Greg 0.46529803338461706
Indi@@ 0.17746998973442338
India 0.04349560473050687
Köln 0.24031991248933504
Palm@@ 0.6564189611102096
Rel@@ 0.15932410971320252
XX@@ 0.5409692236087137
Ya 0.5126452102418616
Yahoo 1
deb@@ 0.20351318982779545
gab@@ 0.5695592430088738
owa 0.637635404684168
229 1
86@@ 1
Nap@@ 0.7751604741541712
Río 0.19646788457037728
age@@ 0.26248154866053974
ead 0.3450430133910528
iger@@ 0.4153963313148562
96@@ 1
Alber@@ 0.4354726481935377
Fast 0.7574229038484444
Julian 0.47546475149953005
Ordu 1
Soccer 0.35038234538953444
Swan@@ 0.6679926964232848
When 0.03897909746613265
action 0.04738448656919325
amu 1
eling 0.21431097063588783
kle@@ 0.27805737418726645
lit 0.23600724247501606
Coff@@ 0.7688521508966851
Hull 0.586063133970041
Sot@@ 0.8154638913163273
abo 0.9902660611778047
ador 0.05073164693037941
blatt 0.5939113608317457
lie@@ 0.45087704270397155
mexic@@ 0.777706801895834
303 1
Beta 0.9321830646178879
Giuseppe 0.48065783221242603
Isa@@ 0.764447013186555
Lil 1
Youth 0.2274528100359187
band 0.028986891169555443
flex@@ 0.4093519582931437
lug@@ 0.3617080697913593
ril@@ 1
1400 0.6862520780272449
1785 0.6141394687592324
Aud@@ 0.4961081641447001
Bratislava 1
Bron@@ 0.3787344466657385
Capital 0.2760025743646318
Gujar@@ 0.80908689098246
Siv@@ 1
Titanic 1
i. 1
yt@@ 0.7405089469686964
özü 1
Antil@@ 1
Dep@@ 0.3860467521273617
Indre 1
eleg@@ 0.29992878031936304
sous 0.02625367913784785
Anatolia 1
Borussia 1
Engel 1
Gay 0.6850697203892826
Johannesburg 1
Olympia 0.9014359960748041
Rice 0.5508552483900684
anov 1
fid@@ 0.37630113225764084
get 0.06554837707823442
İzmir 1
32@@ 1
Kron@@ 0.40561480645790887
Vau@@ 0.5643148426733167
Winston 0.7187239060190573
iden 0.11980571520468829
rian 0.4953763504118449
258 1
Bradley 0.576146876039175
Gand@@ 0.8282625198562
Heath 0.7703248808686791
Kids 0.6078914508089277
Sham@@ 0.6967956828101486
bull 0.7345776161287622
det@@ 0.05904383855624228
odus 1
umi@@ 0.7505965006755263
Dordogne 1
Kost@@ 0.45703667921607793
Truman 1
modes 0.6555389603339208
suka 1
3,7 1
Choice 0.6779780082575618
Dresden 0.26201060214029537
Mart 0.44134204200544574
Riga 0.7875977182373063
Rodríguez 0.3360789953723414
Wend@@ 0.7569986531487175
éri@@ 0.12579813973507592
-- 0.49813452220847615
239 1
245 1
Bremen 0.3414228404397896
Kati@@ 0.8922215145958108
Pinus 1
Sullivan 0.41329856178468666
Wonder 0.8022563308494173
allas 0.6696221575741901
twe@@ 0.9280643081803038
ysis 0.7496784573314766
ém@@ 0.12331098124168494
Chiba 1
Det@@ 0.24247782771087345
EL@@ 0.5045515445199552
Enter@@ 0.5647070818356305
Gates 0.9037809941950736
Gü@@ 0.5792984504954786
Knox 1
pole 0.2631033102313802
prom@@ 0.07744900656416558
2030 1
Const@@ 0.5863601799837332
DB 0.5055375060728572
IE@@ 0.4659670117478442
Kud@@ 1
Troy 0.78043845651581
Wr@@ 0.5859511023585653
etsk 1
ild 0.48027962786531553
lyr@@ 0.6081091208755586
nos 0.14736976755079434
tou@@ 0.24196624278220483
vip@@ 1
Amiens 1
Bach 0.2956514724120623
Biz@@ 0.6835313892870407
Johan 0.6036260624770466
Nig@@ 0.42265905064318676
Wad@@ 0.6908019730861124
rana 1
schw@@ 0.11960030901117678
249 1
EM@@ 0.4836795562406033
Krishna 0.8407101980474362
Mant@@ 0.581809367765918
Richardson 0.5741066037116727
aun 0.41888345673137006
Łódź 0.7973963110145805
Again 0.564589325079362
Coll@@ 0.3849155467023637
Fisher 0.48997919968389203
GHz 1
Vand@@ 0.7876238316395296
Vinc@@ 0.8871091377269762
chev@@ 0.3095099000477358
fiel@@ 0.666974123965339
its@@ 0.44676333638647725
tuber@@ 1
vag@@ 0.7165404579030857
KB 1
Pasha 1
aldo 0.48620756907473994
gas 0.11121973400161897
Chad 0.8346404646053717
Diamond 0.5033749889482371
Flash 0.6915592421015936
LG@@ 0.5956194904835493
Thess@@ 0.8695217779961356
ender 0.08034480980603291
namo 1
sug@@ 0.42101588844013427
tiques 0.26720902583330985
32.@@ 0.9866858392954344
Hero 0.6983292547147962
Igor 0.8512589361418398
Lucia 1
Wolfgang 0.29230921712666236
asan 0.8330378300841627
bai 1
ệ@@ 1
2D 1
Heb@@ 0.5973078589765
Lebanon 0.507560660706221
Motors 0.5877438899063476
Osh@@ 1
BE 0.4642191777293109
Hannah 0.7392184536060864
Parma 1
bab@@ 0.44980885817056926
chio 1
sex 0.15440682503173137
té 0.1129622068649606
0,7 1
301 0.9577803792613766
Baş@@ 0.9981256550288945
Conference 0.10818629887289008
EST 1
Francis@@ 0.8164287732088791
Reynolds 0.5766547237344104
Shan@@ 0.49286828950631284
Winter 0.15309815803187485
berger 0.14453840801254483
Blü@@ 0.8657537728522113
Curtis 0.548156819756648
Seven 0.32129643198496943
Tao 1
Xi 1
ardia 1
blan@@ 0.36361332641400035
heim@@ 0.405509818479442
tank@@ 1
Brook@@ 0.679828552618583
Dres@@ 0.5727704210291841
Gate 0.5054109632836052
Spiel@@ 0.12486575061814632
iPad 1
lian 0.8160472653948176
sanc@@ 0.3206707191984311
1780 0.5041394787812311
263 1
Ghost 0.6836492879863177
NK 1
U21 1
ahn 0.47681879006690436
ỡ@@ 1
2,1 1
Abbas 1
Hz 1
Tes@@ 0.49258061812954046
Xu@@ 1
eine 0.005402371828917056
eko 1
pist@@ 0.34587959565086757
uter 0.2583400649709305
Hali@@ 1
Lok@@ 0.3480402473116659
Pete 0.49400454012339395
Ring 0.35015870536489385
Stam@@ 0.6811754125376155
Tai@@ 0.30792552062949047
bran@@ 0.26193482695833076
bro 0.48853653495853966
first 0.005243698525836601
oshima 1
rav@@ 0.33754026280513255
Gou@@ 0.59649230079537
Nou@@ 0.9840715660629078
Trabzon 1
cent@@ 0.22564885075798002
div@@ 0.14512930466940555
fire 0.07064556889519526
gui@@ 1
ocamp@@ 1
tive 0.04492652573906823
阮@@ 1
3,8 1
Baldwin 0.6946006323207868
Canc@@ 1
Eleanor 0.8733696335705512
ICAO 1
Luci@@ 0.6840525828260908
Technology 0.15739604450532915
Wade 0.8533240643211661
alaya 1
lak@@ 0.32774642948524363
lich 0.02842711359061555
ppen@@ 0.5800839909224825
ubia 1
umba 0.8172178793264298
216 1
Cardiff 0.5481328845494177
Hash@@ 1
Marcos 0.5548947233742471
aven@@ 0.5003931109042442
bet 0.5928490776844115
data 0.07827650482093182
edra 0.6119508125100074
film 0.011854057649122144
lev 1
sman 0.38395629428132816
Aks@@ 1
Count@@ 0.7446662018207016
History 0.029118725068070457
LM 0.8273280629558885
Tobago 1
metall@@ 1
410 1
Bordeaux 0.38288844328596033
Davies 0.5054479128475283
Eis@@ 0.1976347697791509
Evil 0.844053139423143
Flu@@ 0.28721629181249814
NS 0.3701165811198564
dek 0.9099155326357855
kale 1
ongo 0.5720555261752157
Öz@@ 0.704843311063396
山 0.08509555604217561
31,@@ 1
Rain 0.8647000462101183
True 0.6696713786515015
isto 0.7470556268512306
self 0.08187479829074938
Auto 0.41011601679132337
Lour@@ 0.8989861962273573
Orléans 0.48060200886386156
Rainbow 0.9158371378949905
SH 0.6362481741979692
Wong 0.8855934782202459
cen@@ 0.31232291887320845
jar@@ 0.5216516182792431
Basel 0.3718953991966727
Freedom 0.3491717749715454
Haut 0.4546331058439666
Holocaust 0.664352872818809
Joy 0.7670480269599169
Mercedes 0.3573343116677713
Mo 0.9336380499853555
Night@@ 0.6968831876303154
basis 0.1287046585273943
eres 0.27664491144584225
ffer 0.4004323801483111
hane 1
timestamp 1
500@@ 1
80.000 1
Clap@@ 1
Guil@@ 0.45941724770950804
Osman@@ 0.8432884836731922
Ov@@ 1
Zw@@ 0.18592850939813643
GC 0.5466005019883137
González 0.29811809330374167
Isère 1
Lin 0.8291692240207384
Tesla 1
aul 1
brand@@ 0.45600780527176193
glomer@@ 0.8846537223056697
iku@@ 1
tv 1
Jazz 0.19817676495108966
Kingdom 0.07896873894030451
ML@@ 0.49527065576793944
Voc@@ 0.5052826280241395
Yur@@ 1
anlı 1
azar 0.4002595788967428
bour@@ 0.37349550973634216
console 0.7914520416527643
issi@@ 0.9604116061154182
285 1
Andrews 0.5297232988189553
Descartes 1
Hopkins 0.5716009397546427
Law 0.1005196297445545
Metal 0.30443121815548063
PG 0.7216727613552782
PI 0.6848267314760936
arga 1
tura 0.21391010159357324
Avi@@ 0.5584452701748499
BB 0.5197708085816078
Paul@@ 1
Valle 0.3948670637850979
hol 0.6991124194413733
ja@@ 1
oton@@ 1
1763 0.6825282314034941
Barack 0.881103963336253
Devon 0.6155247517244192
Hér@@ 0.5607899870284023
Kerala 0.4860269947972813
Nakamura 1
Paraná 1
Viktor 0.7494608733750855
adam@@ 0.9400436254204472
atur@@ 0.2283130252399295
contributor 0.8421212466946991
pes@@ 0.27086323616153735
quai 1
Gaza 0.8214519745407255
Helsinki 0.448687203681562
Joel 0.6148176606031552
Public 0.0973851712645242
Spl@@ 0.8941030557861648
Swe@@ 0.4097593485462177
alo 0.37500166189579537
ayak@@ 1
inger@@ 0.25931208051696564
tek 0.4329829449177236
BL@@ 1
Bon 0.7688866813821214
Electronic 0.6682401864670583
Hippo@@ 1
Malay 1
color@@ 0.35458037440547785
unds 0.15460120071485012
ān 0.7670021552022631
243 1
Apol@@ 0.6348653049849623
Blanco 0.7531268619844641
Monster 0.7746601829061222
alma 0.7086265850334834
asser 0.35956814995044184
nikov 1
trail@@ 0.3783466512433926
İn@@ 1
ň 1
Block 0.4348369864421519
Britney 1
CoV 1
LD 0.8941384857331363
Plant@@ 0.5149769382813558
Rand@@ 0.38127717026354135
aku@@ 0.6171913718993541
alu@@ 0.8945657308046832
asso 0.8847297634422548
escu 0.4522677224347841
imia 1
286 1
9,5 1
Auguste 0.3962685522464758
Bennett 0.44724869710859155
Lorenzo 0.3993897103349575
Marl@@ 0.7770214908727933
Orton 1
arak 0.363604143706138
ecr@@ 1
gelen@@ 1
yaz@@ 0.43248687574405614
1A 1
Lisbon 0.9255618043043145
Philipp@@ 0.7445051903484304
Seth 0.9654872488470783
aburi 1
afric@@ 0.5522919188885975
ean@@ 0.38416815124942194
got@@ 0.1886188813848224
sten 0.05659786486055571
Concert 0.7472282610848244
Kuch@@ 1
Petit 0.4412936194108129
ality 0.08352190089054513
annul@@ 0.700043562558173
coll@@ 0.12884231410314592
itia 1
ods 0.11095473496547772
taş 1
ved@@ 0.6354038417574399
vill@@ 0.2592664976957397
üt@@ 0.19327950340816055
242 1
501 1
Chic@@ 0.534111038572941
Jack@@ 0.5507048818662121
Marketing 0.7659044741216325
Rang@@ 0.4281111449765016
heli@@ 1
lower 0.07669775820386711
nik@@ 0.71399667492411
Ib@@ 0.5413836737241586
Kiss 0.7137498560412828
Surin@@ 1
buri 1
hisar 1
kirchen 0.39901706354351857
niv@@ 1
pher@@ 0.8843361395617289
HF 0.4191139524903808
Hubble 1
Kiss@@ 1
Larry 0.36186670135851606
Malatya 1
Wake 1
pling 0.5051057407792037
quis@@ 0.7618334957742934
tang@@ 0.7689255067153155
市 0.07627415711573286
Ani@@ 0.9766617382830699
Bati@@ 1
Heg@@ 1
Ic@@ 1
Jub@@ 1
MD@@ 1
Port@@ 0.4370803939142956
Shield 0.7654865439217263
ards 0.0740993554014585
auli@@ 1
divis@@ 0.35895774886090875
dou@@ 0.12323838842317619
geon 0.44983437844596746
lem 0.31699930896999223
point 0.03202861496475952
sé@@ 0.10116734091307043
1768 0.7324438021480693
Card 0.7813118785821361
Friends 0.42377976441029513
Ingrid 1
Ocean 0.22526305984282127
Riz@@ 0.8643607882834918
aray 1
bog@@ 0.4652533912962406
cla@@ 0.327165311631298
trag@@ 0.11586854376521592
uo 0.4048216189357134
251 1
Antonius 1
Benfica 1
Dami@@ 0.5919367898881046
Erzincan 1
atorium 1
Bus 0.380664559632814
Films 0.2346884760439338
Julie 0.49937106515417223
Leslie 0.5137508602240568
Rollins 1
ador@@ 0.5013797328076706
flag@@ 0.3924722553171099
iman 0.7149188454861816
Bla@@ 0.49909851654747744
Jake 0.6019474745018714
Kingston 0.4939414893828081
NC 0.5922321932179809
UI 1
bera 0.6714603396010912
https 0.5878599415893984
陳@@ 1
1781 0.6345047862513604
French 0.03194050459177828
GT@@ 0.3839505840180032
Hancock 1
Hes@@ 0.7812191957124718
IATA 1
Off@@ 0.13068982608715796
Somerset 0.4945690977105253
Spot@@ 0.8785077890712196
alina 1
nin@@ 0.31040984142597017
sad@@ 0.466409769847373
tain@@ 0.18285990744695485
username 1
35.@@ 0.956810268719728
Claire 0.48323038918378514
Giresun 1
Jonas 0.7520332293344182
Mumbai 0.5396795293848373
Planet 0.5690659214414048
Tonga 1
ische 0.018297842367504966
leh@@ 0.3555560306786062
yk@@ 0.6604291529494021
ân@@ 1
295 1
Gibson 0.49759276058998864
Lah@@ 0.617325913915823
N1 1
Ottawa 0.35790396968623756
Salzburg 0.4875906301192087
trap@@ 0.8468513453043273
Andal@@ 0.8105999746007531
Bash@@ 0.9880699884657859
Kara 0.9383154393062282
Mong@@ 0.5319846898968025
Plaza 0.28720898380638193
Watch 0.5712758073040602
cık 1
epis@@ 0.6423078794109703
Cov@@ 0.4816697755553175
Deg@@ 0.524655437425988
Machine 0.4384963174815916
Senegal 0.9028018197566879
Village 0.20587410993265473
Wester@@ 0.5368564878255587
estra 0.5407412295549641
mê@@ 1
ose@@ 1
oslav 0.8985424834731888
word 0.08447343292583877
yurt 1
Cali@@ 0.6650538620012975
Tatar 1
Toc@@ 1
Ya@@ 0.9610197515973126
bain 0.9215634468034803
code 0.11408776401822046
coni 0.8947641830343218
sau@@ 0.22543307886268188
張@@ 0.2762236258726767
Adıyaman 1
Beno@@ 1
Part 0.318651912537871
Roth 0.7576812780692246
Tep@@ 0.7979223171169072
eke 0.4670698295747015
ien 0.05427079815366359
integ@@ 0.6490813740436352
opar@@ 0.8187077658231682
1778 0.5941836841750403
Blair 0.6418597447846278
Nicole 0.6751606435570239
Pont@@ 1
body 0.05084226933140954
coronavirus 0.9865630593394135
nitz 0.33465074161795116
ül@@ 0.17370208365139478
252 1
Castil@@ 1
Cena 1
Nept@@ 0.8978687255568039
Place 0.22708870137576997
bes 0.12915173653983683
bun@@ 0.4836699651430137
gut@@ 0.6272829619953446
Constantinople 0.5045418792688126
Engel@@ 0.7223808918699725
HE@@ 1
bad@@ 0.2047450422468704
emati@@ 0.6486520442892105
gee 0.5312884878508888
thel@@ 0.86152981125344
wall 0.13388109281928257
ãm 1
257 1
Aff@@ 0.24381669577161455
Bloom@@ 0.555432500107273
Brad 0.6765820748238577
CI 0.4840596019047729
Carroll 0.6295364817767861
Coun@@ 0.25282770723487613
umia 1
233 1
33.@@ 0.8442346451686403
Josef 0.23987415515181945
Susan 0.3690727957152991
Süd@@ 0.0846298724184851
^ 1
ainville 1
aray@@ 1
cules 0.5096227802096851
ele@@ 0.7872682158610409
haw@@ 0.5142582605777025
noi 1
phin 0.6154003054321271
302 1
Eas@@ 0.3534128079369613
Gott@@ 0.7624973073175196
Hern@@ 0.5801333135681831
Pf@@ 0.11045428787529327
1796 0.43559716240564544
DR 0.3340553505449853
Villar@@ 0.8889995055312956
cit@@ 0.11227549082003448
dt 0.3296433908979415
num@@ 0.4047060109694322
race 0.052875601834202576
tras@@ 0.16481065131204625
ute 0.0929353746718401
侯 1
西@@ 0.05891149485770529
Ches@@ 0.8621271770396107
Falls 0.28291552873727527
Kara@@ 1
Pale@@ 0.6881688173154729
Targ@@ 0.7991112551776667
bara 0.8104993877332274
berg@@ 0.16758740860641078
e.@@ 0.6163530707856766
iza 0.6612673510522166
law@@ 0.12807936152955218
vesti@@ 0.4602878651332607
ward@@ 0.8651088830991195
Ê 1
Andreas 0.2870519669859203
Dit@@ 1
ES 0.4807032101960857
Eck@@ 0.6414977938007267
Fitz@@ 0.4584479024038098
cog@@ 0.660149271505946
obsol@@ 0.8118006209929562
ping@@ 1
ß@@ 0.10550407460439622
3,4 1
560 1
Fernández 0.32760388968544
Galli@@ 0.7701862614009469
Lagos 0.7604010100491179
Matt@@ 1
RIAA 1
Seng@@ 1
Webb 0.7221128609520796
ank 0.41972732674006435
cara 0.37466291124615303
deci@@ 0.7307731210128804
dest@@ 0.3947563007494168
tram 0.7264563676681693
trim@@ 0.924630711855593
Albion 0.8106224005584634
Antwer@@ 0.6495081882019773
Derby 0.3655983619893476
Janet 0.7100464055165014
angel@@ 0.40594752001881623
erno 1
gli@@ 0.3176534429063924
music 0.0247183728900097
sian 0.2297248207425804
Agu@@ 0.3987130311587428
Angela 0.6365551233333305
Lower 0.2837872605540688
Percy 0.6878226210344857
bad 0.1787794741079395
ender@@ 0.30772484851668347
garh 1
igns 0.5971562062388402
ourt 0.9215902405122092
pas 0.01803676044520911
uko 1
vs 0.5546599115313933
241 1
Adam@@ 0.973050079795295
Bok@@ 1
Steg@@ 1
amis 0.3695564931907088
endra 0.329727404419245
AZ 0.7341859555599759
Carmen 0.393699552001952
Lich@@ 0.3755916927138589
Starg@@ 1
Suk@@ 1
UT@@ 0.6901745504632391
fly 0.17348857668567824
zav@@ 1
BN 0.8932942540412259
Eddie 0.3450027634040722
Mega 0.823698350619868
WT@@ 0.755052943129936
ather 0.17133255178569767
lib@@ 0.3625327448444669
mam@@ 0.30344418802127016
organ 0.2974102182215215
ucci 0.8109030364354817
zam@@ 0.773517902379344
Hug@@ 0.6864821788884661
Rich 0.6021550661607075
TH 1
ambo 0.8660730283357748
apos@@ 0.4227734897834389
bah@@ 0.4066980846748591
ede@@ 0.5895572345545175
ile@@ 1
kill 0.15371588994810279
pru@@ 1
520 1
AX 0.8974789438279155
Barbados 1
Classic 0.2974431225740613
Nest@@ 0.7463238015603323
Pietro 0.5728806597000061
Salt 0.4592108845185955
dost@@ 1
nice 0.5520387089172102
occus 1
olin 0.6970635019831781
和@@ 0.20034777520438352
386 1
Buffalo 0.3207643658609083
Dmitri 1
GE 0.5471975257513264
IT 0.29783261877285155
Oda 1
beck 0.36571353070277046
ection 0.06895548020046742
essa 1
uss 0.16774398804857338
were 0.0031997230516674644
Charl@@ 0.6713628025501818
Dalm@@ 0.9667057517177557
Ef@@ 0.6196496371582647
Guar@@ 0.5692670834019221
Shig@@ 1
Vivi@@ 0.5785664019363237
al. 0.9179962899398842
aper@@ 0.48800596424346876
mann@@ 0.3195719570950841
tay@@ 1
upta 1
zyn 1
ø 0.7682092846810252
IV@@ 0.6083465556551424
blues 0.44968691885073064
colum@@ 0.6399190461539653
iki@@ 1
mend@@ 1
qi 0.32622490512788743
uan 0.4191558243681903
Observatory 0.7388886109571695
Teresa 0.5141148739631514
Yah@@ 1
oft 0.12718850798544687
sul 0.5166425184972295
tuy@@ 1
460 1
GPS 0.8983105041718735
Marino 0.909903402480926
Mu 1
Parad@@ 1
Wilhel@@ 0.37060360609016657
Zürich 0.2748866566438712
acles 0.4006542167124917
amata 1
kis 1
master 0.10391028913063766
sper@@ 0.33190194910108645
中@@ 0.044898821437495226
318 1
Alain 0.40551955038460663
Flying 0.4557902797093787
Jupiter 0.6459556917511868
Morav@@ 1
Va@@ 0.5188466432878833
iye 1
jun@@ 0.5601179098785832
mare 0.6513105006041524
penn@@ 0.7238926513789489
Étienne 0.3814100790372974
Aurora 0.7821091763355466
Becker 0.7104161865043463
Development 0.11019264940210309
Fame 0.188148141934059
Gat@@ 0.36639691611782726
Harper 0.5468549420461889
Hud@@ 0.7520503695413221
alle 0.04845881007363958
asto@@ 1
idas 0.09416515017875059
rin@@ 0.8411367549043993
thre@@ 0.16027205501550107
ual 0.09072680737467861
1740 0.7182730285455665
231 1
Bund@@ 1
Dak@@ 1
Hoh@@ 0.2506338558002401
Konstant@@ 1
Mother 0.4175282483401715
Ré@@ 0.1253712549265213
Toledo 0.41168252628675805
Webster 0.7559476486623103
dice 0.17094273822762443
elleri 1
ä 0.39782327810014834
1774 0.5913965706522116
950 1
Canon 0.8036380485098411
Noel 0.842306447638332
Oak 0.5158378741622711
UN 0.2694699938885412
mun 1
neph@@ 0.40481527136990453
uel 0.23487543361619873
307 1
390 1
Cow@@ 0.5104026026318
César 0.3657575776942368
ET@@ 0.49606122178411144
Gó@@ 1
IR@@ 0.4068908396189981
Kid 0.5858704699808955
Klo@@ 1
Luca 0.8878669884687465
Oblast 0.28857239721130895
Rok@@ 1
Salamanca 0.8526616541625883
Side 0.345461526385938
Veg@@ 1
Lew@@ 0.6127023441901072
Pie@@ 0.9845751735254575
Pol 1
entina 1
gall@@ 0.6221471169177538
ilius 1
mani@@ 0.34299232553518844
Gud@@ 1
Himmler 1
IB@@ 0.4272948624731317
Ment@@ 0.802718909075139
Moses 0.5528268978727889
O4 1
Steiermark 1
Çat@@ 1
Gaulle 0.8803913213144333
Jamie 0.5592530777225269
Krist@@ 0.35747667431773694
Philos@@ 1
SF@@ 0.44981870831305926
idon 1
℃ 1
323 1
Bayer 0.9683345221580631
Brunswick 0.36230120820564127
Firefox 1
Halifax 0.5750754475683049
Jaw@@ 0.9037184671402362
Ten 0.2573285527880363
aco@@ 0.9214459527113256
dow@@ 0.3360722708647425
life 0.01753163494513076
module 0.682473045551349
omat@@ 1
podi@@ 1
rest 0.07918066149757644
sir@@ 0.25821039102333
。 0.002104979696239351
001 0.7274647014129926
1767 0.7896315520342886
Denver 0.3490882259704185
Monica 0.6848404146826532
Nick@@ 0.5134715736148637
Odessa 1
Randy 0.6605276849610041
alk@@ 1
hier@@ 0.24074560193542624
imon 1
kit 0.6383356912293274
oce 1
530 1
Church 0.039842335534517444
EN 0.6525639327672327
Nike 1
Sin 0.08563168019524545
Wolver@@ 0.6208992407887768
hiv@@ 0.7966757187840667
load 0.19892196180866648
sim 1
thodes 1
ン@@ 1
Aw@@ 0.636290805651237
Doc@@ 0.26992731244761403
Eust@@ 1
Jes@@ 0.38046456346356683
Klein 0.3961359790484389
Lotus 0.7138185079409022
Meyer 0.38908503424381885
Nih@@ 1
Perkins 0.9225051645625838
Rig@@ 0.43980715567998024
Woj@@ 1
car 0.037794911451157626
clor@@ 1
lina 0.9711180344942473
lind@@ 1
othe@@ 1
sie 0.008925733194881838
36.@@ 0.8871698539381716
Asper@@ 1
Edwin 0.5103975196494779
Fey@@ 1
Gin@@ 0.49891664718052087
Suc@@ 0.3067062120243476
Thur@@ 0.4574812266873022
Tip@@ 0.7411101643451352
Za@@ 0.7240426748141015
concer@@ 0.275021995444107
enga 0.6742380060080823
fordshire 0.3632905189293023
ory@@ 1
qué 0.12259714027054093
246 1
268 1
94@@ 1
Adana 1
Angelo 0.6436208486835371
Bird 0.42917668120273617
Kars 1
List 0.06649747675509442
Miss@@ 0.28930039422460796
Schwar@@ 0.305489571574211
Sims 1
eber@@ 0.4543332346046952
enas 0.2651806582669862
ision 0.13163081072603947
soc@@ 0.6320607752809075
Ỷ 1
1760 0.6467027743975271
DR@@ 0.5406610666452151
Gif@@ 1
Gül@@ 0.9274244994520401
bel 0.21239049237788313
depres@@ 0.7147758085538501
平@@ 0.15162038261425223
H2@@ 1
HBO 0.6558911047682221
Midd@@ 0.5249960157284276
Rit@@ 0.37044121964395355
Saturday 0.2426665599529295
Town@@ 0.4413323861015527
U.S. 0.03293632134299607
ambi@@ 0.13609150151719576
ayr@@ 0.688154357926677
fj@@ 0.5554543351380673
hu 0.4748527419275247
oco 0.8712560175865511
usi 0.9339326739029523
Fron@@ 0.28544841451786473
Perth 0.4318696686514036
Prop@@ 1
Teg@@ 1
anto 0.53457705423507
engine 0.09874421148793436
gel 0.3556117515283688
orno 0.8165331304204645
schul@@ 0.2478674241688867
uza 1
236 1
37.@@ 0.9084824181983852
Burton 0.5035653358445141
Hagen 0.8401754694616644
Hod@@ 0.5565991902724918
KO 0.5037331218680997
WWF 0.7260775662014384
atlan@@ 0.7876725492914989
col 0.517851452968614
crip@@ 0.19114210628314976
[...]
