ya 422620
. 411295
na 310936
, 300899
wa 300096
katika 123455
kwa 115079
ni 107699
&quot; 96989
) 84269
( 84121
la 83396
za 67375
cha 42458
mwaka 42311
kama 41404
yake 38623
@-@ 38001
kuwa 34343
ku@@ 29835
nchini 28672
: 27603
au 23205
kutoka 21150
kwenye 20178
M@@ 19558
pia 19283
lugha 19223
zaidi 18897
vya 18893
watu 18559
&#91; 17132
&#93; 17076
mji 16781
kati 16548
wake 16496
alikuwa 16459
; 16275
Mto 15849
m@@ 15647
U@@ 15495
u@@ 14876
kwanza 14316
mwa 14293
Kwa 14030
nchi 14010
hii 13969
Tanzania 13766
ak@@ 13433
pamoja 13396
i 13373
hadi 13194
wakazi 13178
miaka 13049
Mwaka 12965
Ki@@ 12911
ali@@ 12853
hu@@ 12724
jina 12617
wali@@ 12565
&apos; 12525
Afrika 12463
wakati 12446
juu 12149
Kenya 11966
ilikuwa 11856
lakini 11675
ani 11587
huko 11581
o 11567
ki@@ 11543
kata 11426
moja 11361
tarehe 11339
am@@ 11227
mto 10867
ili 10842
K@@ 10750
mara 10720
u 10691
hiyo 10626
ndani 10479
mnamo 10478
kazi 10329
ambayo 10189
Bahari 10082
ili@@ 10052
ik@@ 9996
idadi 9886
ut@@ 9822
N@@ 9757
ia 9633
in@@ 9607
Mkoa 9448
uli@@ 9429
un@@ 9389
Katika 9361
Kati 9254
an@@ 9251
eneo 9189
sana 9174
Maji 9138
sehemu 9133
iko 9106
hatimaye 9088
nyingi 8881
baada 8749
mkoa 8659
kwamba 8654
ana 8630
a 8564
yao 8530
w@@ 8499
kubwa 8497
kundi 8300
j@@ 8254
Marekani 8227
ambao 8190
Wilaya 8178
aji 8134
ika 7970
chini 7946
a@@ 7866
unapatikana 7831
um@@ 7822
hasa 7786
hivyo 7721
Kusini 7650
huo 7575
isha 7546
ina 7542
oni 7530
tu 7519
mkuu 7439
im@@ 7327
ini 7150
yanaishia 7054
kawaida 6939
sensa 6939
wak@@ 6935
sababu 6933
mbalimbali 6815
k@@ 6771
Baada 6763
we 6763
al@@ 6741
y@@ 6701
at@@ 6677
- 6640
as@@ 6550
Uganda 6512
wasemaji 6433
kum@@ 6406
huu 6365
T@@ 6323
namba 6319
uk@@ 6297
Mashariki 6273
kaskazini 6267
ma@@ 6262
S@@ 6232
p@@ 6218
Ali@@ 6215
W@@ 6214
yenye 6210
it@@ 6163
wengi 6147
wilaya 6143
ari 6138
timu 6126
kila 6111
ang@@ 6080
kaunti 6057
n@@ 5993
1 5961
I@@ 5937
2 5922
ab@@ 5912
KK 5910
vile 5910
aa 5908
maji 5894
alizaliwa 5892
aka 5876
om@@ 5861
B@@ 5817
us@@ 5813
bahari 5696
ua 5695
ali 5649
ambaye 5645
Kufuatana 5616
ama 5613
kus@@ 5603
H@@ 5598
wapatao 5551
lake 5550
uainishaji 5537
Wakati 5526
kabla 5512
Mungu 5485
iliyofanyika 5445
2012 5434
z@@ 5424
ah@@ 5412
Mnamo 5410
siku 5393
magharibi 5362
yote 5360
/ 5329
Kanisa 5327
A@@ 5315
ka 5314
Kristo 5285
il@@ 5285
kuna 5251
inayozungumzwa 5244
upande 5227
Ni 5211
o@@ 5208
karne 5191
ar@@ 5181
mbili 5168
ambapo 5163
Uingereza 5161
af@@ 5154
kusini 5150
hali 5131
i@@ 5094
Kik@@ 5075
njia 5065
akiwa 5060
muziki 5058
si 5058
imehesabiwa 5057
dhidi 5008
Naili 4992
tena 4952
wan@@ 4947
ajili 4923
anga 4921
sh@@ 4919
karibu 4908
aina 4905
ek@@ 4891
kut@@ 4886
wenye 4868
inahusu 4858
oa 4858
tofauti 4850
ap@@ 4847
taifa 4842
Papa 4831
jimbo 4815
ot@@ 4812
G@@ 4806
ano 4786
muda 4785
ag@@ 4762
filamu 4760
asi 4756
vi@@ 4753
aw@@ 4728
sasa 4723
zake 4720
is@@ 4704
mtu 4702
Makala 4691
nyingine 4679
ok@@ 4673
3 4656
ur@@ 4636
hata 4625
b@@ 4593
tangu 4559
v@@ 4553
wote 4549
wao 4548
– 4544
D@@ 4540
mmoja 4535
iwa 4532
serikali 4501
ai 4489
kadhaa 4469
pili 4455
mashariki 4453
kutokana 4442
h@@ 4428
humo 4426
hivi 4419
nafasi 4404
zi 4396
Kaskazini 4380
or@@ 4369
ishwa 4354
J@@ 4345
wengine 4337
kuliko 4334
Kim@@ 4328
ch@@ 4311
mw@@ 4303
hilo 4299
L@@ 4272
tatu 4255
Tangu 4248
Kongo 4246
O@@ 4229
maisha 4227
aj@@ 4226
ara 4220
&amp; 4214
amu 4201
&#124; 4186
Chuo 4173
ny@@ 4171
anza 4141
P@@ 4136
Mji 4103
os@@ 4101
on@@ 4095
kuhusu 4076
hili 4011
ikiwa 4008
chake 4001
baadaye 3991
duniani 3988
ziwa 3985
leo 3984
Sikukuu 3956
mujibu 3952
mi@@ 3938
ita 3934
E@@ 3933
Kis@@ 3930
maeneo 3928
ung@@ 3914
asili 3887
up@@ 3880
ala 3870
5 3859
4 3856
Ulaya 3849
wat@@ 3849
mkubwa 3830
endelea 3809
Mak@@ 3808
muhimu 3801
Wa@@ 3794
Kiingereza 3790
Ufaransa 3784
ing@@ 3781
“ 3773
f@@ 3762
nje 3754
shule 3743
Pia 3741
mchezaji 3740
iki 3728
Kib@@ 3719
una@@ 3710
wa@@ 3710
t@@ 3704
walikuwa 3696
maarufu 3687
Ch@@ 3683
bila 3679
awa 3678
Hindi 3675
kufanya 3673
kale 3663
de 3645
Wak@@ 3625
eni 3623
em@@ 3620
ul@@ 3619
Ujerumani 3615
mjini 3611
ati 3608
kuf@@ 3598
ona 3595
wana@@ 3595
Eneo 3593
watoto 3589
yaani 3586
Magharibi 3584
zote 3584
familia 3575
of 3572
pekee 3554
mak@@ 3551
kupitia 3550
kim@@ 3548
” 3544
uni 3540
imani 3527
ea 3517
una 3503
20 3492
pa 3471
ach@@ 3468
wal@@ 3461
wanawake 3448
zamani 3436
% 3427
kabisa 3424
anda 3423
The 3417
m 3413
vita 3413
ir@@ 3404
ad@@ 3401
itwa 3378
kuu 3374
Januari 3369
amba 3363
bunge 3346
Mei 3337
klabu 3336
an 3334
eli 3334
g@@ 3332
kutumia 3321
wimbo 3312
habari 3307
iti 3304
Z@@ 3300
mat@@ 3296
weza 3292
e@@ 3284
e 3276
Wakristo 3275
al 3268
mwisho 3263
10 3261
idi 3253
okea 3252
d@@ 3246
ishi 3243
elimu 3239
huwa 3231
bora 3220
en@@ 3212
maana 3205
mtakatifu 3204
ish@@ 3201
Oktoba 3198
Japani 3195
awali 3190
19 3188
Mw@@ 3187
R@@ 3183
azi 3180
F@@ 3161
Italia 3161
amb@@ 3148
6 3146
aliye@@ 3138
mita 3131
mpya 3129
kipindi 3128
s@@ 3120
ata 3119
Kit@@ 3118
mengine 3115
Kikuu 3112
ima 3112
in 3110
ao 3108
albamu 3102
Julai 3091
hizi 3091
Roma 3090
BK 3089
ati@@ 3088
el@@ 3087
ema 3081
Juni 3080
id@@ 3079
Y@@ 3062
ambazo 3062
yan@@ 3055
Mas@@ 3045
kupata 3040
mab@@ 3036
kuanzia 3030
unga 3024
ug@@ 3023
mpira 3021
zin@@ 3016
Novemba 3015
Burundi 3012
waishio 3006
az@@ 3005
V@@ 2986
uf@@ 2985
Ma@@ 2980
jamii 2975
yo 2971
mito 2967
umri 2962
oka 2950
es@@ 2949
Machi 2944
hayo 2942
biashara 2937
milioni 2932
Desemba 2927
12 2922
7 2921
Agosti 2918
isi 2918
ile 2917
iri 2913
Septemba 2910
2000 2905
zili@@ 2905
op@@ 2895
Maisha 2892
s 2888
of@@ 2886
Aprili 2876
Wan@@ 2876
huadhimishwa 2875
km 2874
mfano 2868
Historia 2864
umia 2857
New 2854
ol@@ 2838
uch@@ 2829
takriban 2826
dunia 2825
eti 2818
oma 2818
usawa 2818
fu@@ 2804
2014 2802
Al@@ 2801
alipo@@ 2793
wam@@ 2782
miguu 2781
15 2778
kifo 2770
es 2765
nguvu 2761
kimataifa 2759
Nigeria 2758
inga 2757
ina@@ 2752
kiasi 2751
nyimbo 2747
Kuna 2746
2007 2741
was@@ 2736
ha 2734
alit@@ 2730
kit@@ 2729
aki@@ 2721
makuu 2721
msingi 2719
us 2709
x 2699
In@@ 2691
Februari 2689
Yesu 2689
eza 2688
olewa 2684
dini 2682
hut@@ 2682
matumizi 2679
ig@@ 2671
ub@@ 2669
Tuzo 2667
lili@@ 2664
ash@@ 2657
on 2638
kisiwa 2637
mrefu 2637
Dunia 2636
amezaliwa 2627
michezo 2624
binadamu 2604
julikana 2601
and@@ 2599
Hata 2589
Jamhuri 2587
kin@@ 2584
9 2581
mas@@ 2581
mwenye 2581
og@@ 2581
da 2580
kuj@@ 2579
hapo 2578
iliyo@@ 2576
zao 2575
umika 2574
ilit@@ 2571
18 2569
onyesha 2568
er@@ 2567
Kin@@ 2563
mengi 2555
historia 2554
d 2548
enga 2547
mt@@ 2543
Mar@@ 2530
ep@@ 2526
ulikuwa 2526
hizo 2522
li@@ 2520
di 2519
kampuni 2513
onekana 2512
enda 2508
Katoliki 2507
Idadi 2501
unda 2495
11 2493
iti@@ 2493
Sh@@ 2491
2008 2489
8 2487
usi 2487
the 2486
2009 2483
ko 2483
mechi 2470
fulani 2466
maj@@ 2466
ambalo 2463
16 2460
mpaka 2454
uwezo 2454
y 2446
13 2444
alicheza 2436
mtoto 2434
Ny@@ 2432
baadhi 2429
rasmi 2427
utawala 2426
mfumo 2414
2006 2410
kur@@ 2410
17 2406
Misri 2405
alim@@ 2405
lin@@ 2405
asa 2400
tu@@ 2399
kwenda 2397
sheria 2396
inaweza 2393
abu 2389
uma 2388
ja 2368
kik@@ 2365
po@@ 2363
2011 2362
am 2361
Ku@@ 2356
kuv@@ 2355
Lakini 2351
if@@ 2350
Jina 2347
mwandishi 2341
7@@ 2337
ay@@ 2334
Was@@ 2331
ongo 2331
haki 2330
kiwango 2325
An@@ 2320
’ 2320
iki@@ 2318
nne 2317
zinaz@@ 2317
l@@ 2315
uka 2315
iliy@@ 2311
damu 2307
alik@@ 2305
8@@ 2302
isho 2296
mwingine 2294
ungwa 2292
30 2289
Kazi 2276
tuzo 2275
jumla 2273
oh@@ 2272
2015 2270
mwili 2262
imu 2258
14 2253
inay@@ 2252
Kil@@ 2243
shirika 2243
Marejeo 2240
rangi 2231
adi 2227
ugonjwa 2223
ziliz@@ 2220
and 2205
umiwa 2203
yeye 2202
chama 2201
olojia 2199
Ziwa 2183
ume 2178
au@@ 2174
kucheza 2172
kutoa 2167
eka 2159
ki 2159
ndege 2158
yali@@ 2154
neno 2151
ila 2150
C@@ 2149
aga 2144
asilimia 2139
Mat@@ 2134
wana 2133
ewa 2132
Umoja 2128
uliwa 2119
ambako 2117
ndio 2117
any@@ 2113
imba 2110
21 2109
kub@@ 2106
sita 2106
et@@ 2104
mahali 2104
kumi 2100
6@@ 2097
ar 2091
ambo 2090
kw@@ 2084
aliy@@ 2078
chuo 2077
nyota 2075
hapa 2074
okana 2074
kis@@ 2069
I 2068
ana@@ 2061
askofu 2061
oto 2061
Tanganyika 2058
eta 2057
mfalme 2057
A 2056
aja 2051
ich@@ 2051
Mkuu 2050
halafu 2048
uhuru 2048
Uturuki 2046
ingia 2046
.@@ 2045
ikia 2045
uwanja 2040
wanyama 2037
do 2035
umu 2033
Amerika 2031
bado 2026
kup@@ 2026
umbo 2020
uz@@ 2018
mambo 2016
ame@@ 2013
mwezi 2012
po 2012
ule 2012
kul@@ 2011
mu@@ 2009
2005 2007
ibu 1996
oro 1996
mp@@ 1994
mdogo 1993
jeshi 1989
th@@ 1988
ti 1987
ungu 1985
ji@@ 1983
uru 1982
ta 1979
amia 1978
ingawa 1974
25 1970
ira 1970
mbali 1969
ha@@ 1968
oko 1967
ti@@ 1965
inat@@ 1962
iz@@ 1962
24 1961
wi 1959
Wam@@ 1958
asilia 1958
io 1958
katikati 1958
uchaguzi 1954
kuz@@ 1951
izi 1946
Jimbo 1943
II 1939
mama 1937
kun@@ 1934
mazingira 1934
kikuu 1932
chakula 1931
Wakatoliki 1928
ino 1928
ndogo 1925
ong@@ 1919
Uwanja 1918
hus@@ 1916
Rais 1915
aki 1914
Atlantiki 1909
2002 1898
² 1898
hi@@ 1896
mwenyewe 1895
aya 1893
2010 1890
aka@@ 1890
walio@@ 1889
wap@@ 1885
kijiji 1883
kwake 1881
sawa 1877
zile 1875
Guinea 1874
Hii 1873
dawa 1872
fu 1872
huelekea 1872
hao 1869
bi@@ 1866
uzi 1863
9@@ 1861
Kig@@ 1861
Alikuwa 1854
Baadaye 1854
ang 1852
inayo@@ 1851
iga 1850
nyumbani 1850
bali 1846
ez@@ 1845
fuata 1844
Am@@ 1840
Yeye 1832
jinsi 1831
ma 1824
makubwa 1824
ayo 1823
ud@@ 1821
Mia 1818
namna 1818
Tarafa 1811
r@@ 1810
Kiarabu 1809
di@@ 1808
amini 1807
kuch@@ 1806
= 1805
aliwa 1803
anya 1802
ib@@ 1801
zo 1796
Mara 1794
ale 1794
ime@@ 1791
Maj@@ 1788
Waorthodoksi 1787
Kifaransa 1786
enzi 1784
visiwa 1783
ho@@ 1781
Ng@@ 1779
Man@@ 1778
man@@ 1778
wanaoishi 1777
rais 1775
Kama 1774
Ukristo 1772
Ghana 1771
bu@@ 1763
pwani 1755
lilikuwa 1754
upo 1751
kisiasa 1749
hatari 1747
Bar@@ 1742
Vita 1742
22 1741
Watu 1741
urefu 1741
baba 1738
iriki 1732
ng@@ 1732
ba 1728
2016 1726
undwa 1726
ing 1725
k 1724
matokeo 1724
Yohane 1723
alianza 1720
ji 1719
anaheshimiwa 1716
huduma 1714
kulingana 1714
tano 1713
et 1707
Mpya 1706
mah@@ 1706
ezi 1704
wale 1703
wenyewe 1703
kidogo 1702
tun@@ 1699
ango 1698
av@@ 1698
ie 1698
vit@@ 1697
Kid@@ 1696
mag@@ 1693
23 1691
har@@ 1691
ye 1690
saba 1688
Mal@@ 1684
hak@@ 1683
mar@@ 1682
2018 1681
Orodha 1681
kitabu 1680
Tarehe 1677
aba 1677
egemea 1676
h 1676
kanda 1673
ob@@ 1672
mch@@ 1670
ura 1669
apo 1668
bu 1667
Paulo 1666
10@@ 1662
Wat@@ 1662
umba 1660
nyumba 1659
ania 1658
Wal@@ 1657
spishi 1657
mlima 1654
ej@@ 1653
huku 1652
watakatifu 1652
wala 1650
Jamii 1648
hewa 1648
hi 1647
uj@@ 1643
Urusi 1639
ito 1638
picha 1637
vitabu 1637
Dar 1636
mwan@@ 1636
maneno 1634
haya 1633
endo 1632
uri 1628
walit@@ 1628
5@@ 1627
mwigizaji 1625
joto 1624
miji 1624
Kuu 1622
Dola 1620
kuh@@ 1620
utamaduni 1617
wawili 1617
wezi 1612
2017 1608
si@@ 1608
Hispania 1607
anywa 1605
uh@@ 1604
ou@@ 1603
vijana 1603
Kilatini 1597
afu 1597
2013 1596
mojawapo 1592
aha 1590
map@@ 1589
aidia 1587
milima 1585
binafsi 1582
ifu 1576
korongo 1576
alis@@ 1571
Australia 1568
2020 1563
apo@@ 1562
makao 1561
eh@@ 1559
gt 1558
yanay@@ 1558
mb@@ 1556
Kiswahili 1555
shughuli 1554
irika 1553
esha 1552
uko 1552
masomo 1550
26 1549
udi 1549
vin@@ 1548
haz@@ 1546
hicho 1546
kuw@@ 1544
28 1543
bo@@ 1541
Wab@@ 1540
hiki 1540
2019 1539
ane 1539
postikodi 1539
andikwa 1536
um 1536
ah 1535
sauti 1535
moyo 1534
majina 1533
ajwa 1532
msimu 1531
ela 1530
jiji 1529
lt 1528
Biblia 1527
ada 1526
fanya 1526
zwa 1526
mbele 1525
! 1524
hatua 1523
Ab@@ 1517
ate 1516
ishaji 1516
kilomita 1512
Hivyo 1510
Wah@@ 1510
Asia 1509
eg@@ 1509
27 1506
ndiyo 1506
oz@@ 1506
ambacho 1505
100 1504
Ethiopia 1504
yak@@ 1501
ae 1498
Bonde 1497
2003 1495
ip@@ 1493
undi 1492
lik@@ 1491
eb@@ 1490
York 1489
2001 1488
ow@@ 1487
Shule 1486
alifariki 1484
uta 1484
John 1482
kili@@ 1482
uv@@ 1481
linalopatikana 1479
mwimbaji 1479
kuji@@ 1478
vyake 1478
kilich@@ 1476
od@@ 1476
at 1475
zinazo@@ 1475
yaliy@@ 1474
aribu 1473
Kal@@ 1472
Mad@@ 1470
angaza 1465
anay@@ 1458
mabadiliko 1458
1990 1457
Salaam 1456
waf@@ 1455
kote 1453
ush@@ 1453
eng@@ 1452
uo 1451
2004 1450
kisha 1450
B 1449
Ar@@ 1448
kar@@ 1447
uli 1447
Th@@ 1445
ardhi 1445
kon@@ 1443
el 1442
mz@@ 1440
29 1437
Uhindi 1434
ike 1434
ko@@ 1434
ai@@ 1428
apa 1426
yako 1426
Kir@@ 1424
acha 1423
utafiti 1421
aza 1420
ezo 1420
mwanachama 1419
mfululizo 1418
maendeleo 1417
Kibantu 1414
kituo 1414
mad@@ 1412
mwanamke 1411
we@@ 1411
end@@ 1410
China 1409
indi 1408
anzisha 1407
Ak@@ 1406
atia 1406
Mag@@ 1404
kitaifa 1404
ezwa 1399
kufikia 1397
Zanzibar 1395
.. 1392
kisasa 1389
iliwa 1387
soka 1387
alif@@ 1384
dia 1384
is 1383
omba 1377
n.k. 1376
ra 1375
to 1375
walio 1375
aweza 1371
du 1370
er 1370
inayot@@ 1370
majimbo 1370
posta 1370
naye 1368
pata 1368
vizuri 1368
alipata 1366
halisi 1364
huru 1364
haraka 1360
é 1360
Waislamu 1357
ge@@ 1357
Kigiriki 1355
kifupi 1352
kuli@@ 1351
esh@@ 1350
Ufa 1349
g 1349
as 1347
du@@ 1346
Alit@@ 1345
umb@@ 1340
wani 1337
kiongozi 1335
ezaji 1334
aliz@@ 1333
walik@@ 1333
kikubwa 1332
Chama 1330
eo 1330
Kar@@ 1329
rekodi 1323
ari@@ 1322
ih@@ 1319
vy@@ 1319
Vi@@ 1316
akili 1315
alifanya 1315
miwili 1314
matatizo 1313
zi@@ 1312
Mi@@ 1310
ungua 1306
Kale 1304
ov@@ 1304
kuto@@ 1302
upendo 1301
Maria 1298
or 1298
Kirumi 1297
31 1293
Kih@@ 1293
mit@@ 1293
tabia 1293
hakuna 1291
sanaa 1289
angazwa 1288
isi@@ 1288
mwanzo 1288
ba@@ 1287
Makao 1285
Nairobi 1282
uchumi 1281
kamili 1277
kuishi 1275
Mlima 1274
und@@ 1274
Lugha 1273
mashindano 1271
siasa 1271
kali 1267
matibabu 1266
isa 1265
be@@ 1263
zim@@ 1263
Kif@@ 1262
kil@@ 1261
wenzake 1261
Mataifa 1260
oti 1257
ef@@ 1255
kusababisha 1255
umeme 1255
msanii 1253
amani 1250
unao@@ 1250
afya 1248
kina 1246
kuingia 1244
Mab@@ 1243
azo 1242
ndiye 1241
lilil@@ 1240
t 1240
anzishwa 1239
indwa 1239
nyuma 1239
Kiaustronesia 1238
huitwa 1238
inda 1238
ombe 1236
Wimbo 1235
wiki 1235
ulio@@ 1233
era 1232
kweli 1232
oli 1230
omo 1230
mwanasiasa 1229
akuwa 1227
alia 1227
ole 1227
b 1226
vifaa 1226
sifa 1222
usu 1221
bara 1219
ola 1218
orodha 1217
Turkana 1216
vil@@ 1216
kike 1215
wanafunzi 1215
imo 1214
kabila 1211
ato 1209
Hu@@ 1206
ongozwa 1206
Kimataifa 1205
ga 1205
kilimo 1205
ong 1204
hal@@ 1203
mshindi 1203
seli 1203
adi@@ 1202
ishia 1202
kijamii 1200
oj@@ 1199
dalili 1194
ogo 1193
1999 1191
mik@@ 1191
akawa 1190
och@@ 1190
ham@@ 1189
ukubwa 1188
kushinda 1186
ongoza 1184
opo 1182
Kikristo 1181
esi 1181
pande 1181
Mt@@ 1179
dh@@ 1179
anyika 1177
mkono 1177
ta@@ 1177
wame@@ 1176
tarakimu 1174
ele 1173
Kombe 1172
iku@@ 1172
uu 1172
mchezo 1171
Bwana 1170
hifadhi 1168
lenye 1168
maalumu 1168
Kiafrika 1167
Mp@@ 1167
en 1167
pewa 1167
Shirika 1166
As@@ 1164
ulit@@ 1164
ori 1162
bendi 1159
l 1157
Indonesia 1156
inayofuata 1156
wah@@ 1156
ath@@ 1154
mafuta 1154
jua 1153
vu 1153
Un@@ 1152
mingi 1151
pe@@ 1151
alijiunga 1150
awe 1149
umma 1149
lazima 1148
ulia 1147
Hapo 1146
aanisha 1146
elea 1145
amp 1144
uti 1144
yo@@ 1143
zenye 1136
Kas@@ 1135
awala 1133
kumbukumbu 1133
mg@@ 1133
Ru@@ 1130
uhusiano 1130
utu 1130
kura 1127
anat@@ 1125
kuzuia 1124
walioishi 1122
osh@@ 1121
zilizo@@ 1120
atu 1119
Ili@@ 1118
1991 1117
maf@@ 1117
Siku 1116
ndugu 1116
Mu@@ 1115
Kijerumani 1114
kip@@ 1114
mapema 1114
C 1113
tasa 1113
vijiji 1113
wafiadini 1113
afanya 1112
avu 1112
mamlaka 1111
yaliyo@@ 1111
Albamu 1110
maziwa 1110
te 1110
mbinu 1109
nusu 1109
opatikana 1109
badala 1108
kulikuwa 1107
watumwa 1107
ed@@ 1106
hawak@@ 1106
sa 1106
hat@@ 1105
heshima 1105
wach@@ 1105
engwa 1104
Map@@ 1103
bar@@ 1103
le 1103
vitu 1103
ri@@ 1101
kat@@ 1100
kan@@ 1099
miezi 1099
Waf@@ 1098
ene 1098
zil@@ 1098
kikundi 1097
tar 1096
yoyote 1096
hadithi 1093
unaweza 1093
man 1092
tayari 1092
are 1091
engenezwa 1091
ikwa 1089
shahada 1089
kam@@ 1088
to@@ 1088
kufa 1087
pokea 1087
bidhaa 1086
miongoni 1086
Sudan 1085
ij@@ 1084
uhusu 1083
kitu 1082
kutangulia 1081
de@@ 1079
1995 1077
ilo 1077
-------- 1076
unat@@ 1076
vingine 1076
andika 1075
inayoandikwa 1075
Baba 1074
ke 1073
pi@@ 1071
ke@@ 1070
mafanikio 1070
ine 1069
moto 1069
war@@ 1069
Ingawa 1068
ak 1068
angwa 1068
hawa 1068
lil@@ 1066
iliyot@@ 1065
kia 1065
kid@@ 1065
kujit@@ 1065
1994 1064
barabara 1064
kuk@@ 1064
safari 1064
Kam@@ 1063
alama 1061
zinaweza 1060
Di@@ 1059
yam@@ 1059
huyo 1058
nane 1058
wanaweza 1057
Sehemu 1056
? 1055
tisa 1053
tisha 1053
40 1052
50 1052
Mb@@ 1052
hau@@ 1052
kuanzisha 1052
anacheza 1051
wanaume 1051
Ivoire 1050
Jum@@ 1050
ingo 1050
karibuni 1050
Hasa 1048
chang@@ 1047
ilia 1047
wahi 1047
Kisiwa 1046
Miaka 1046
aliyekuwa 1046
ain@@ 1043
ekwa 1042
mawili 1041
1993 1040
mimea 1040
umwa 1040
Al 1039
ida 1039
linal@@ 1037
wasanii 1037
ingwa 1036
mkataba 1036
makabila 1034
mis@@ 1034
1997 1033
awi 1033
koloni 1032
msh@@ 1032
te@@ 1032
kichwa 1031
Wayahudi 1029
alish@@ 1029
amp@@ 1029
Waziri 1027
pot@@ 1027
su@@ 1027
msaada 1026
engo 1025
Aliwahi 1022
elekea 1021
kuzaliwa 1021
mach@@ 1021
Baadhi 1020
ako 1019
kimo 1019
mashuhuri 1019
ulu 1019
amua 1018
elewa 1018
1998 1017
War@@ 1017
liwa 1017
has@@ 1016
one 1016
Elimu 1014
Nchi 1013
le@@ 1013
st@@ 1013
ri 1011
uw@@ 1009
maalum 1007
wazi 1006
lia 1005
osa 1005
Mtakatifu 1004
zilikuwa 1004
Kiniger 1003
wadogo 1003
Israeli 1002
enea 1001
kutengeneza 1001
ulimwengu 1001
alishinda 1000
cheo 1000
London 999
programu 998
uba 995
2@@ 994
Kidemokrasia 994
Wali@@ 994
12@@ 993
ake 992
yalikuwa 992
1996 991
eleza 991
ni@@ 991
4@@ 990
Cote 990
z 990
1980 989
kijeshi 989
1970 988
vingi 988
Pamoja 987
apatikana 987
hai 987
kutokea 987
safu 985
El@@ 983
Papua 983
eshi 983
kush@@ 983
lina 983
pu@@ 982
ahidi 981
Har@@ 980
r 980
video 980
wako 980
Mah@@ 978
viongozi 978
1992 977
Mwan@@ 977
eri 977
chache 976
wen@@ 976
Tana 975
onga 975
sha 975
kuanza 974
mpango 974
jo 972
usiku 972
kuunda 971
mil@@ 970
Bo@@ 969
Nyanza 969
ad 969
kud@@ 968
City 966
imekuwa 966
mal@@ 965
dola 964
jambo 964
jirani 964
uso 963
uti@@ 963
zina@@ 963
mwanamuziki 962
ng 962
uki 962
enti 961
ei 960
kuelekea 960
ono 960
ou 960
be 959
imet@@ 959
United 957
televisheni 956
virusi 956
fedha 955
athari 954
haw@@ 953
jeni 953
miz@@ 953
Uislamu 952
asi@@ 952
Kat@@ 951
Leo 951
kuchukua 950
masuala 949
waka@@ 949
fa 948
fika 948
kanuni 948
ech@@ 946
kujenga 946
California 945
kanisa 945
makazi 945
ote 945
pale 945
angalia 944
waj@@ 944
igo 943
sala 943
bao 942
kupunguza 942
mwanzilishi 942
0,000 941
Kabla 941
usha 940
Kich@@ 939
Korea 939
kujiunga 939
mfiadini 938
ambavyo 937
Kiy@@ 936
ota 936
Waarabu 934
ezea 934
Brazil 933
Nobel 933
re@@ 933
waki@@ 933
ume@@ 932
kua 931
baridi 930
wakilisha 930
Muziki 929
ge 929
uku@@ 929
ora 928
• 928
asema 925
mapokeo 925
uliopo 925
azama 922
kwani 921
mfupi 921
magonjwa 919
n 919
tan@@ 916
tr@@ 916
Hapa 915
chati 913
mataifa 913
Ad@@ 912
osi 912
kushika 911
mtandao 911
dhuluma 909
un 909
Lu@@ 908
kurudi 908
meli 907
ilianzishwa 906
lengo 906
viwango 906
kadiri 905
os 905
vilevile 905
ngozi 904
oga 904
umi 903
nao 902
Injili 901
mikoa 901
Ligi 900
kab@@ 899
vyombo 899
atwa 898
ulioko 898
kuendelea 897
kilikuwa 896
kusoma 896
mtindo 896
Taifa 895
afuta 893
Arusha 892
anajulikana 892
mawasiliano 892
chi 891
simu 891
alij@@ 890
wezesha 890
Bunge 889
embe 889
ic@@ 889
ru@@ 889
tak@@ 889
umbu@@ 889
roho 888
athiri 887
wanat@@ 887
jit@@ 886
mbio 886
mraba 886
wanao@@ 886
elezea 885
hutumika 885
zinazot@@ 885
apata 884
mbaya 884
zina 884
Kuanzia 883
aliza 883
mf@@ 883
Tanga 882
Vigawo 882
200 881
maambukizi 881
makundi 881
anaweza 880
hum@@ 880
1988 879
jumuisha 879
matukio 879
mvua 879
kando 878
1960 877
Kab@@ 877
Kip@@ 877
saa 877
1@@ 876
andishi 876
kuongeza 876
adilika 875
kij@@ 875
Ali 874
umbali 874
weka 874
kuona 873
mali 873
Vijijini 871
basi 871
ngazi 870
Vietnam 868
je 868
unganisha 868
Kanada 867
chanzo 867
mbunge 867
muundo 867
amil@@ 866
ev@@ 866
ibada 866
kutaja 866
uku 866
waziri 865
Msimbo 863
agua 861
vyote 861
wadudu 861
mwanzoni 860
uny@@ 860
usi@@ 860
vili@@ 860
mk@@ 857
mwalimu 857
wananchi 857
ndoa 856
waz@@ 856
penda 855
yanayo@@ 854
amizi 853
yale 853
uongozi 851
Bu@@ 850
aye 850
taasisi 850
Kitabu 849
Kutokana 849
dogo 849
mani 849
miti 849
wasi@@ 849
Ut@@ 848
alisema 848
sekondari 848
unguka 847
angi 845
hay@@ 845
padri 845
w 845
wakiwa 845
3@@ 844
Mjini 844
ten@@ 844
uza 843
kufika 842
Sal@@ 841
ongezeka 841
Sheria 840
itaji 839
kompyuta 839
yetu 839
askari 838
thi 838
Morogoro 837
kutumika 837
kumu@@ 836
waliot@@ 836
elek@@ 835
Hali 834
kuwepo 832
kufu@@ 831
zingine 831
Si@@ 830
evu 830
lililo@@ 830
Ame@@ 829
kusaidia 828
inap@@ 827
kas@@ 827
ungo 827
Mus@@ 826
Serikali 826
akam@@ 826
chu@@ 826
wastani 826
heri 825
dhahabu 824
Wap@@ 823
ambuliwa 823
mmojawapo 823
p 822
taarifa 822
Wanawake 821
samaki 821
tiki 821
ababisha 820
bea 819
4,@@ 818
Kwanza 818
Rwanda 818
maonyesho 817
1989 816
lo@@ 816
olo 816
ugu 816
‘ 816
bi 815
yi 815
Ka@@ 814
Mik@@ 814
Re@@ 814
lililo 814
ungaji 814
0 813
mam@@ 813
ahi 812
ilik@@ 812
mash@@ 811
par@@ 811
1987 810
juhudi 810
ujenzi 810
fupi 809
li 809
Waingereza 808
ekani 808
Botswana 807
Filamu 807
Uholanzi 807
gazeti 807
kinach@@ 807
ufalme 807
amo 806
ofanya 806
silaha 806
wingi 806
mtunzi 804
barani 803
ligi 803
adili 802
do@@ 801
13@@ 800
Na 800
c 799
kasi 799
ur 799
1,@@ 797
hutumia 797
kiuchumi 797
utaratibu 797
Kan@@ 796
kuandika 796
ongeza 796
Is@@ 795
eshaji 795
iy@@ 795
ubongo 795
husika 794
me@@ 794
sayansi 794
umaarufu 794
ushindi 791
biwa 790
En@@ 789
baina 789
Q@@ 788
se@@ 788
ukua 788
emb@@ 787
ere 787
maadili 787
nd@@ 787
India 786
ilitolewa 786
Mo@@ 785
ilianza 785
kuwa@@ 785
Akiwa 784
emia 784
Dodoma 783
Kiz@@ 782
tarafa 782
Zimbabwe 781
ikawa 781
yal@@ 781
wenyeji 780
gen@@ 779
mke 779
Ush@@ 777
Wakazi 777
ahamika 777
kupiga 777
mafundisho 777
maumivu 777
pengine 777
Mor@@ 776
2021 775
Kiislamu 775
Paris 775
hai@@ 775
yon@@ 775
Ta@@ 774
ambua 774
iliopo 774
mabao 774
omu 774
iliyokuwa 773
mafunzo 773
pombe 773
Fransisko 772
mwishoni 772
Angola 771
nzuri 771
sin@@ 771
upya 771
La 770
endel@@ 770
imbaji 770
isipokuwa 770
iv@@ 769
maandishi 769
Alizaliwa 768
Sahara 768
iliyo 768
mwendo 768
uchunguzi 768
usika 768
vid@@ 768
14@@ 767
akit@@ 767
kiume 766
aliandika 765
imb@@ 765
zinat@@ 765
jukumu 764
pesa 764
Mtume 763
f 763
isti 763
kuonekana 763
kuwas@@ 763
mchanganyiko 763
Tar@@ 762
iba 762
it 762
Sim@@ 761
madhehebu 761
ro@@ 760
Kila 759
West 759
alihamia 759
aini 758
ende@@ 758
aguliwa 757
olea 757
sa@@ 757
Sam@@ 756
kuja 756
emba 755
raia 755
umoja 755
Mur@@ 754
U 754
kiz@@ 754
B.K. 753
Wag@@ 753
lao 753
mkutano 753
wataalamu 752
avyo@@ 751
mashirika 750
ame 749
avyo 749
bakteria 749
barua 749
mno 749
wazazi 749
teknolojia 748
harakati 747
jum@@ 747
500 746
binti 746
kudumu 746
yanaweza 746
Kamerun 745
Kol@@ 745
iliana 744
kesi 744
sim@@ 744
Michael 743
toleo 743
wash@@ 743
Hakuna 742
akana 742
faida 742
walipo@@ 742
ajulikana 741
ye@@ 741
lime@@ 740
wanachama 740
faa 739
Mon@@ 738
Pol@@ 738
ac@@ 738
umishi 738
ikali 737
unguza 737
wakilishi 737
Bal@@ 736
ena 736
ambia 735
ando 735
ukoloni 735
Yerusalemu 734
kwao 734
wafuasi 734
Ag@@ 733
Sanaa 733
gari 733
reli 733
ula 733
Asili 732
waliokuwa 732
yat@@ 732
Tam@@ 731
Mbeya 730
mimba 729
wag@@ 729
Upande 727
Ureno 727
Il@@ 726
angu 726
ilisha 726
lina@@ 726
wakubwa 726
gi@@ 725
ofisi 725
umbe 725
uwezekano 725
III 724
kom@@ 724
0@@ 723
ekea 723
huf@@ 723
mradi 723
wanda 723
kushiriki 722
upinzani 722
Spishi 721
daraja 721
vipindi 721
Olimpiki 720
Uchina 720
kui@@ 720
unaot@@ 720
utia 720
Ang@@ 719
Mach@@ 719
hutokea 718
kufuata 718
kupig@@ 718
° 718
andi 717
eng 717
igizaji 717
kaisari 717
kir@@ 717
3,@@ 716
Kor@@ 716
Ugiriki 716
madogo 716
Cape 715
James 715
akat@@ 715
dhambi 715
hutumiwa 715
wali 715
alitoa 714
br 714
ome 714
Wajerumani 713
for 713
ilim@@ 713
kuweka 713
alianzisha 712
alil@@ 712
ifanya 712
ovu 712
riwaya 712
andi@@ 711
macho 711
ley 710
mich@@ 710
Wasifu 709
kumaliza 709
ony@@ 709
monasteri 708
Aina 706
Visiwa 706
ir 706
q@@ 706
wagonjwa 706
yenyewe 706
kikosi 705
Algeria 704
Neno 704
Roho 704
kihistoria 704
kutolewa 704
viwanda 704
ehe 703
jengwa 703
7,@@ 702
asha 702
Nyumba 701
R 701
jer@@ 701
uki@@ 701
Mis@@ 700
T 700
ufu@@ 700
Kampuni 699
bandari 699
studio 699
sik@@ 698
kilicho@@ 697
ondoka 697
tam@@ 697
Aleksandria 696
kuonyesha 695
ujumla 695
yana@@ 695
,000 694
Agano 694
ishara 694
vim@@ 694
Kitaifa 693
him@@ 691
redio 691
anaye@@ 690
vilivy@@ 690
Kur@@ 689
Mchezaji 689
Waafrika 689
mauaji 689
amekuwa 688
onyeshwa 688
soko 688
1982 687
Africa 687
kutafuta 687
vik@@ 687
Kigoma 686
Muungano 686
ambaa 686
ika@@ 686
irikiana 686
Mkristo 685
alipokuwa 685
jenasi 685
yen@@ 685
adilishwa 684
anam@@ 684
pas@@ 684
irikisha 683
60 682
ataa 682
etu 682
kinga 682
vinavy@@ 682
1981 681
Baraza 681
Shirikisho 681
nia 681
uzwa 681
1986 679
O 679
bo 679
maz@@ 679
tia 679
unganishwa 679
ukweli 678
African 677
chukua 677
kusim@@ 677
6,@@ 676
ee 676
elfu 675
idh@@ 675
uzito 675
5,@@ 674
aulu 674
iro 674
ju@@ 674
mapinduzi 673
Petro 672
huz@@ 672
alichaguliwa 671
ami 671
lilit@@ 671
makala 671
Mtwara 670
X 670
amet@@ 670
wav@@ 670
Far@@ 669
Par@@ 669
Somalia 669
sk@@ 669
tukio 669
Milima 668
amri 668
alipokea 667
dio 667
pan@@ 667
majaribio 666
zilizot@@ 666
Ubelgiji 665
idae 665
ushwa 665
Kut@@ 664
Ufalme 664
hop 664
mtayarishaji 664
se 664
Dar@@ 663
embo 663
iliyopita 663
Gu@@ 662
Nam@@ 662
VVU 662
ay 662
hip 662
kiungo 662
por@@ 662
Galana 661
abii 660
ende 659
had@@ 659
ol 659
1985 658
Mfalme 658
polisi 658
1984 657
Chi@@ 657
alo 657
El 656
FIFA 656
Pius 656
X@@ 656
anikiwa 656
katiba 656
kich@@ 656
ofu 656
zilit@@ 656
imbo 655
kupokea 655
mitatu 654
mj@@ 654
nakala 654
win@@ 654
Bur@@ 653
auti 653
Austria 652
FC 652
adamu 652
angani 652
ka@@ 652
waliouawa 652
William 651
mawe 651
uzazi 651
Mer@@ 650
Sa@@ 650
aswa 650
hup@@ 649
taratibu 649
ubali 649
wanaheshimiwa 649
imep@@ 648
wezekana 648
Habari 647
Kilimanjaro 647
haku@@ 647
mayai 647
vikundi 647
Hadi 646
Vy@@ 646
herufi 646
ne 646
oo 646
wanajeshi 646
hul@@ 645
ilich@@ 645
zu 645
akatifu 644
asim@@ 644
mbegu 644
ra@@ 644
Mama 643
hudhuria 643
ilipo@@ 643
x@@ 643
sherehe 642
George 641
Mch@@ 641
Athi 640
afanana 640
mwen@@ 640
2,@@ 639
fur@@ 639
hur@@ 639
kula 639
no 639
kinyume 638
oy@@ 638
Le@@ 637
Kaisari 636
Msumbiji 636
athiriwa 636
usimamizi 636
wachache 636
Paul 635
sura 635
Car@@ 634
Ko@@ 634
adilisha 634
walim@@ 634
wazo 634
ndi@@ 633
wafanyakazi 633
weze 633
afiti 632
ikiwemo 632
iliyopo 631
inas@@ 631
baharini 630
kukam@@ 630
utana 630
Joseph 629
Unguja 629
ingana 629
mawazo 629
wenda 629
Jua 628
mv@@ 628
Jeshi 627
King@@ 627
vituo 627
Hat@@ 626
egem@@ 626
gesi 626
pin@@ 626
tishwa 626
Utafiti 625
anti 625
Alianza 624
ant@@ 624
kupel@@ 623
tiba 623
Kaunti 622
St@@ 622
chombo 622
watatu 622
Chini 621
De@@ 620
Zambia 620
adiriwa 620
iny@@ 620
kiny@@ 620
lich@@ 620
men@@ 620
tawi 620
Iko 619
mirefu 619
pos@@ 619
toka 619
usa 619
* 618
300 618
Malcolm 618
Waj@@ 618
jijini 618
kisayansi 618
ot 618
usiana 618
400 617
Taasisi 617
Uchaguzi 617
afiri 617
atiwa 617
kijijini 617
mwanam@@ 617
Tr@@ 616
inak@@ 616
kutosha 616
sayari 616
eshwa 615
ishe 615
ahamu 614
kutu@@ 614
siri 614
udia 614
N 613
Ni@@ 613
c@@ 613
nyan@@ 613
son 613
ukiwa 613
kuongezeka 612
E 611
K.K. 611
Sabaki 611
Ser@@ 611
afan@@ 611
fun@@ 611
izo 611
ofautiana 611
ozi 611
huyu 610
odi 610
ondo 610
vikuu 610
waji 610
mashairi 609
ond@@ 609
Be@@ 608
Her@@ 608
majira 608
neema 608
matunda 607
National 606
aum@@ 606
bia 606
embelea 606
far@@ 606
kutambua 606
Uswidi 605
row 605
unja 604
ze 604
afuata 603
ishirini 603
D 602
ingi 602
mifumo 602
min@@ 602
nadharia 602
unge 602
CCM 601
ami@@ 601
ers 601
okeza 601
ombo 601
wachezaji 601
ed 600
hesabiwa 600
misitu 600
shida 600
Maf@@ 599
Wach@@ 599
afa 599
engeneza 599
fah@@ 599
lit@@ 599
ujuzi 599
8,@@ 598
Ig@@ 597
mwana 597
nguo 597
pen@@ 597
iliki 596
jiunga 596
sit@@ 596
viungo 596
5,000 595
80 595
Bab@@ 595
Hatimaye 595
Saint 595
ilikadiriwa 595
ilis@@ 594
nzima 594
TV 593
andaa 593
hospitali 593
kuleta 593
mi 593
mikubwa 593
mwanaharakati 593
uia 593
Maw@@ 591
Us@@ 591
kidini 591
kuenea 591
nini 591
ungana 591
alfabeti 590
huj@@ 590
ukuliwa 590
eja 589
inah@@ 589
kukat@@ 589
kupatikana 589
Az@@ 588
East 588
Nak@@ 588
V 588
fi@@ 588
haj@@ 588
mapigano 588
walianza 588
wanah@@ 588
1964 587
Jiografia 587
mbu@@ 587
milki 587
wanam@@ 587
Bora 586
Robert 586
avy@@ 586
isim@@ 586
kaka 586
majani 586
undo 586
walish@@ 586
Awards 585
Maz@@ 585
Me@@ 585
aku 585
rahisi 585
Ur@@ 584
ab 584
aliwahi 584
nayo 584
apishwa 583
kusema 583
uzalishaji 583
Kh@@ 582
kiroho 582
mikono 582
Matumizi 581
ya@@ 581
zik@@ 581
UKIMWI 580
ajiri 580
nyeupe 580
Charles 579
endi 579
kuhamia 579
mo@@ 579
nishati 579
ui 579
vifo 579
waw@@ 579
Up@@ 578
90 577
Kituo 577
Tu@@ 577
ega 577
pokuwa 577
ulimwenguni 577
ushirikiano 577
vyama 577
zime@@ 577
ajabu 576
chem@@ 576
70 575
afir@@ 575
anap@@ 575
gharama 575
kundinyota 575
-@@ 574
ey 574
1950 572
Benki 572
eno 572
pat@@ 572
peke 572
saf@@ 572
South 571
Uajemi 571
amuzi 571
shu@@ 571
etea 570
kiko 570
ung 570
Kiny@@ 569
Mit@@ 569
abara 569
alisoma 569
dar@@ 569
dua 569
mingine 569
pend@@ 569
San 568
dakika 568
kilometa 568
madini 568
Nile 567
adil@@ 567
bus@@ 567
chuma 567
endesha 567
ngoma 567
so@@ 567
uliot@@ 567
vyo 567
David 566
pel@@ 566
pi 566
som@@ 566
linalo@@ 565
mipango 565
abila 564
mpangilio 564
mta@@ 564
ongozi 564
viwili 564
é@@ 564
+ 563
35 563
Ina@@ 563
Tabora 563
tish@@ 563
afiki 562
gu@@ 562
omb@@ 562
ton 562
umuhimu 562
zaji 562
32 561
International 561
ch 561
diwa 561
elementi 561
tum@@ 561
Kagera 560
milele 560
ndefu 560
ofanana 560
ohusiana 560
akazi 559
ekundu 559
iriwa 559
kutoweka 559
unzi 559
Jumuiya 558
Mil@@ 558
ambukizwa 558
chenye 558
eto 558
kimoja 558
mkurugenzi 558
single 558
usalama 558
Na@@ 557
esho 557
mia 557
sahihi 557
ungumza 557
Kisha 556
masi 556
ulinzi 556
yanaelekea 556
yangu 556
# 555
aliweza 555
anak@@ 555
azim@@ 555
hin@@ 555
kuti@@ 555
nyama 555
ue 555
iitwayo 554
kufuatana 554
mahitaji 554
Njia 553
Viungo 553
adh@@ 553
aku@@ 553
atizo 553
isitiza 553
lote 553
maskini 553
omea 553
Per@@ 552
ku 552
medali 552
okia 552
ongo@@ 552
Records 551
fariki 551
ukoo 551
10,000 550
Waz@@ 550
aliendelea 550
alipewa 550
izwa 550
fasihi 549
hinda 549
kh@@ 549
vyuo 549
Kwenye 548
benki 548
gh@@ 548
itajika 548
jadi 548
majengo 548
mzuri 548
viumbe 548
wekwa 548
Lindi 547
isionari 547
ist@@ 547
kug@@ 547
nyekundu 547
tatizo 547
Senegal 546
aliyet@@ 546
Mpaka 545
North 545
ushahidi 545
Guthrie 544
Or@@ 544
Sayansi 544
Ub@@ 544
wanamuziki 544
uke 543
wepo 543
Ber@@ 542
Kus@@ 542
aliteuliwa 542
hamia 542
he@@ 542
mwanas@@ 542
Cor@@ 541
bul@@ 541
he 541
thamani 541
vipimo 541
1979 540
9,@@ 540
Bi@@ 540
Br@@ 540
falsafa 540
Manchester 539
a.@@ 539
ask@@ 539
kile 539
mwanafunzi 539
ongezeko 539
yanayot@@ 539
Bus@@ 538
isiyo 538
kuny@@ 538
usisha 538
Bas@@ 537
Kihindi 537
Li@@ 537
Maendeleo 537
Tak@@ 537
Uli@@ 537
taka 537
wanas@@ 537
wez@@ 537
ziko 537
Mwezi 536
akis@@ 536
huweza 536
kuimba 536
1977 535
abati 535
itumia 535
j 535
Peter 534
ard 534
Muh@@ 533
Mwanza 533
Ndugu 533
kitovu 533
mig@@ 533
naf@@ 533
1978 532
Huko 532
Jackson 532
Kon@@ 532
haf@@ 532
kijana 532
School 531
eke 531
pende@@ 531
1983 530
kupita 530
scope 530
udisha 530
yap@@ 530
Biashara 529
Kw@@ 529
Mfano 529
Um@@ 529
bei 529
kisheria 529
Ram@@ 528
ik 528
om 528
Mtaguso 527
kara 527
kuacha 527
onia 527
kitamaduni 526
zu@@ 526
1975 525
Mapinduzi 525
aliyo@@ 525
euliwa 525
icho 525
imara 525
inaf@@ 525
kumw@@ 525
mashamba 525
oweka 525
paswa 525
uy@@ 525
wab@@ 525
World 524
aria 524
ey@@ 524
Jersey 523
adui 523
auri 523
hudumu 523
kinacho@@ 523
wi@@ 523
Kiebrania 522
Pili 522
Sar@@ 522
akati 522
fainali 522
go 522
indana 522
kadi 522
akifunga 521
kukaa 521
kuongoza 521
risasi 521
Hifadhi 520
Kom@@ 520
Mkoani 520
Pwani 520
S 520
hiwa 520
irik@@ 520
nasaba 520
Ho@@ 519
Kap@@ 519
Kutoka 519
maelezo 519
shinikizo 519
yaliyot@@ 519
Muhammad 518
Wazungu 518
fa@@ 518
igiza 518
ujumbe 518
undua 518
Bin@@ 517
Michezo 517
Tor@@ 517
Wad@@ 517
by 516
ekuwa 516
ew@@ 516
mapafu 516
sal@@ 516
waandishi 516
... 515
Hal@@ 515
ambi 515
iw@@ 515
nus@@ 515
G 514
Gregori 514
ho 514
mtaalamu 514
umo 514
Kum@@ 513
akim@@ 513
bin 513
hisia 513
osha 513
udumu 513
usafiri 513
Bak@@ 512
Kundi 512
ashi 512
daktari 512
embamba 512
kufuatia 512
mchakato 512
salama 512
1969 511
IV 511
ajumuisha 511
avi 511
jangwani 511
magari 511
mazao 511
M 509
kea 509
kulia 509
ndipo 509
nyakati 509
ushi 509
yana 509
1976 508
Ruvuma 508
inajulikana 508
yalit@@ 508
Music 507
epata 507
ilipata 507
land 507
oaji 507
wanak@@ 507
Basi 506
vyo@@ 506
1963 505
Mali 505
maoni 505
mipaka 505
sera 505
wanap@@ 505
Ham@@ 504
Mombasa 504
mau@@ 504
takribani 504
ikilia 503
mazoezi 503
wenzao 503
Argentina 502
Sab@@ 502
kisiwani 502
kuuza 502
linat@@ 502
oidi 502
vidogo 502
vis@@ 502
Alipata 501
Kirusi 501
babu 501
hesabu 501
ilish@@ 501
im 501
kuwaf@@ 501
minne 501
kana 500
wowote 500
Sous 499
kujitawala 499
mapenzi 499
matam@@ 499
omi 499
Te@@ 498
gani 498
kukuza 498
kuta 498
mstari 498
sak@@ 498
Su@@ 497
Utawala 497
amiwa 497
barafu 497
hupatikana 497
kavu 497
ph@@ 497
préfecture 497
upasuaji 497
eki 496
tir@@ 496
1972 495
We@@ 495
ulizi 495
dada 494
kibiashara 494
ukuaji 494
cho@@ 493
ro 493
hutoa 492
ikit@@ 492
ilhali 492
mwenyekiti 492
ubaguzi 492
ulianza 492
hufanya 491
ind@@ 491
kukua 491
protestanti 491
suala 491
sw@@ 491
Nyam@@ 490
awa@@ 490
lio 490
wanaot@@ 490
Askofu 489
Wikipedia 489
em 489
ger@@ 489
34 488
aji@@ 488
kifu@@ 488
osababisha 488
33 487
Uf@@ 487
ache 487
anaf@@ 487
inayoitwa 487
mashine 487
mwanga 487
tani 487
1961 486
1974 486
L 486
Town 486
Uchumi 486
imbia 486
ire 486
visi@@ 486
Se@@ 485
id 485
kalenda 485
mzima 485
ulianzishwa 485
uwa 485
Gal@@ 484
Juu 484
Uswisi 484
beba 484
esabiwa 484
kuondoka 484
kushindwa 484
Kivuka 483
You 483
jinsia 483
oi 483
Iringa 482
br@@ 482
bun@@ 482
gea 482
ingiza 482
injini 482
limet@@ 482
matatu 482
muungano 482
onda 482
Kulingana 481
Singida 481
Vilevile 481
fik@@ 481
yeyote 481
Ndege 480
iria 480
omunisti 480
upana 480
Kiv@@ 479
Nyerere 479
alichunguza 479
alikua 479
hula 479
Ime@@ 478
Tun@@ 478
aia 478
anti@@ 478
asidi 478
huenda 478
tovuti 478
yas@@ 478
Malawi 477
Pakistan 477
Uz@@ 477
anz@@ 477
haifu 477
hani 477
hara 477
pe 477
taa 477
tim@@ 477
11,@@ 476
1973 476
Kioseaniki 476
Ndiyo 476
anaj@@ 476
don@@ 476
il 476
kubali 476
uga 476
vir@@ 476
ze@@ 476
600 475
alimtangaza 475
baki 475
chumvi 475
mti 475
wasichana 475
hawa@@ 474
hitimu 474
idai 474
likana 474
mkali 474
rafiki 474
1967 473
P 473
Sul@@ 473
polepole 473
sum@@ 473
ter@@ 473
Buk@@ 472
Ilikuwa 472
afikia 472
iliz@@ 472
ista 472
protini 472
Mau@@ 471
aminika 471
jia 471
kani 471
sumu 471
data 470
hibi@@ 470
udongo 470
urithi 470
weusi 470
Urefu 469
ani@@ 469
ii 469
ondolewa 469
utendaji 469
alitumia 468
ingi@@ 468
kurekodi 468
ms@@ 468
ser@@ 468
vinavyo@@ 468
esheni 467
kampeni 467
marufuku 467
Washington 466
anguka 466
ikuja 466
jengo 466
madhara 466
mpiga 466
runinga 466
walij@@ 466
atikana 465
inj@@ 465
mshairi 465
watawala 465
Kak@@ 464
Kinapatikana 464
Tofauti 464
asia 464
husababisha 464
msimbo 464
ngumu 464
ondoa 464
oraji 464
anzi 463
ava 463
dhana 463
ek 463
iwe 463
mapya 463
unap@@ 463
Kihispania 462
Kitui 462
Ndani 462
Sp@@ 462
adha 462
anisha 462
desturi 462
oba 462
Ri@@ 461
hek@@ 461
kr@@ 461
kujua 461
lo 461
uandishi 461
Ath@@ 460
ababishwa 460
ago 460
isheni 460
shi 460
son@@ 460
wasio 460
yanat@@ 460
1965 459
Pr@@ 459
ahili 459
div@@ 459
iliano 459
safi 459
wageni 459
Duniani 458
Kr@@ 458
Ky@@ 458
Uch@@ 458
alishiriki 458
emi 458
ihusisha 458
kand@@ 458
kuuawa 458
Anatolia 457
alifunga 457
eko 457
fung@@ 457
ipo 457
sio 457
tas@@ 457
wakuu 457
wer@@ 457
Mt 456
alirudi 456
eshimiwa 456
fut@@ 456
kombe 456
lim@@ 456
ncha 456
ofanywa 456
Mambo 455
ber@@ 455
fia 455
hati 455
onge 455
ford 454
kukubali 454
thibitisha 454
zifuatazo 454
Ha@@ 453
Mkutano 453
Vit@@ 453
inam@@ 453
kati@@ 453
obaki 453
onaki 453
F 452
anayejulikana 452
ayansi 452
ayarishwa 452
bilioni 452
gol@@ 452
kukab@@ 452
la@@ 452
Pas@@ 451
Sak@@ 451
Wengine 451
alivy@@ 451
ilivyo 451
imbwa 451
ivu 451
mwingi 451
usishwa 451
Gr@@ 450
alii 450
kari 450
majukumu 450
nad@@ 450
salaba 450
so 450
wetu 450
Ina 449
Moroko 449
ilif@@ 449
iliyop@@ 449
mapato 449
metali 449
neva 449
elezo 448
homa 448
mfu@@ 448
Haki 447
ic 447
1971 446
Can@@ 446
K 446
Ol@@ 446
jini 446
kipimo 446
kizazi 446
kuham@@ 446
mgongo 446
pitia 446
sar@@ 446
Billboard 445
linzi 445
ore 445
Afya 444
Lo@@ 444
Sababu 444
matendo 444
ubu 444
ugaji 444
upe 444
waamini 444
CC@@ 443
Gar@@ 443
Mc@@ 443
indani 443
kinat@@ 443
kutumiwa 443
kuzwa 443
zilizo 443
800 442
Muk@@ 442
Mwen@@ 442
Zaidi 442
ibu@@ 442
uyu 442
wakimbizi 442
36 441
ebaki 441
kk 441
kubadilisha 441
labda 441
mzunguko 441
uawa 441
vyakula 441
Wav@@ 440
West@@ 440
adhili 440
chukuliwa 440
mchanga 440
mdomo 440
Msh@@ 439
Uhuru 439
efanya 439
ero 439
kiini 439
re 439
vipande 439
1962 438
Bel@@ 438
Richard 438
amatwa 438
awaliwa 438
awany@@ 438
ekebisho 438
kuendeleza 438
kuondoa 438
nuru 438
yu 438
alip@@ 437
kibinafsi 437
mitano 437
Kata 436
Mam@@ 436
Mr@@ 436
makampuni 436
mitindo 436
ofanyika 436
undisha 436
volkeno 436
wanaj@@ 436
Mir@@ 435
angulia 435
bozi 435
indi@@ 435
jamhuri 435
sugu 435
wakifuata 435
Em@@ 434
Mahakama 434
River 434
est@@ 434
istoria 434
onesha 434
Kisovyeti 433
alich@@ 433
mtawala 433
okoa 433
tel@@ 433
tor@@ 433
vich@@ 433
Awali 432
Ok@@ 432
Ufilipino 432
University 432
atibu 432
kujitegemea 432
msimamo 432
pembe 432
uhai 432
1945 431
Mtu 431
Timu 431
age 431
angavu 431
kibinadamu 431
kuitwa 431
kuwat@@ 431
ifunza 430
lika 430
linaloitwa 430
maumb@@ 430
owahi 430
ubini 430
ukosefu 430
45 429
Tunisia 429
der 429
haswa 429
ly 429
michuano 429
mmonaki 429
uji 429
Black 428
Er@@ 428
Wagiriki 428
andaliwa 428
maaskofu 428
rej@@ 428
Bay 427
Denmark 427
etezi 427
ilip@@ 427
inapatikana 427
kufunga 427
kuigiza 427
porom@@ 427
udi@@ 427
wazima 427
Wash@@ 426
ames@@ 426
ingatia 426
kupanda 426
miradi 426
sekta 426
udu 426
ut 426
Mg@@ 425
Mtanzania 425
Nchini 425
kad@@ 425
kal@@ 425
makanisa 425
v 425
Familia 424
Kish@@ 424
Vik@@ 424
anifu 424
awishi 424
azamwa 424
kif@@ 424
madaraka 424
nyeusi 424
wewe 424
Anti@@ 423
Bikira 423
anah@@ 423
arini 423
azidi 423
nafsi 423
Nd@@ 422
ange@@ 422
ihi 422
kufundisha 422
ufu 422
So@@ 421
Thomas 421
atak@@ 421
daima 421
hakika 421
kezwa 421
king@@ 421
1,000 420
airi 420
esa 420
fikia 420
madawa 420
20@@ 419
Jiji 419
Lin@@ 419
Poland 419
ese 419
hubiri 419
isababisha 419
tamaduni 419
Con@@ 418
Kiar@@ 418
ein@@ 418
engele 418
kuboresha 418
kudhibiti 418
oyo 418
uzima 418
wakulima 418
wokovu 418
49 417
Hivi 417
haina 417
kulevya 417
kupewa 417
kutawala 417
ogoro 417
opita 417
zis@@ 417
1966 416
At@@ 416
Massachusetts 416
Mz@@ 416
Sch@@ 416
chapishwa 416
mu 416
ufa 416
Fr@@ 415
Tibeti 415
aro 415
fereji 415
10,@@ 414
Dh@@ 414
Ili 414
Mashindano 414
kuongea 414
ubiri 414
vilivyo@@ 414
He@@ 413
Kiyahudi 413
Martin 413
Park 413
gitaa 413
icha 413
kupinga 413
mnyama 413
thel@@ 413
1968 412
Bug@@ 412
Chanzo 412
ariki 412
hali@@ 412
julikani 412
lile 412
Mfumo 411
Mkurugenzi 411
Mug@@ 411
atana 411
inganishwa 411
jarida 411
lis@@ 411
tawimto 411
Kup@@ 410
Pasifiki 410
angaz@@ 410
eneza 410
kari@@ 410
kuzingatia 410
oksijeni 410
urahisi 410
wanja 410
Mbali 409
Ne@@ 409
Ti@@ 409
UEFA 409
Bon@@ 408
Co@@ 408
Vip@@ 408
aliishi 408
mwilini 408
odi@@ 408
safa 408
Kisino 407
Lagos 407
Min@@ 407
mahakama 407
mungu 407
Ba@@ 406
Men@@ 406
San@@ 406
mtazamo 406
watumiaji 406
0.@@ 405
37 405
aliamua 405
ingereza 405
ion@@ 405
shirikisho 405
ukia 405
La@@ 404
baadae 404
himu 404
jamaa 404
mashauri 404
meno 404
oke 403
profesa 403
umiaji 403
utambuzi 403
uzulu 403
Pi@@ 402
Str@@ 402
Uk@@ 402
ard@@ 402
fin@@ 402
hairi 402
imaji 402
kujifunza 402
sikukuu 402
tamthilia 402
uharibifu 402
achana 401
kuhari@@ 401
nywele 401
uigizaji 401
ulio 401
uto 401
utwa 401
yule 401
aktari 400
kuanzishwa 400
kupan@@ 400
tamasha 400
wanaishi 400
Bun@@ 399
chembe 399
ete 399
eti@@ 399
kaz@@ 399
kubaliwa 399
ost@@ 399
Po@@ 398
Shahada 398
bezi 398
ilivyo@@ 398
kifaa 398
kio 398
pl@@ 398
utumwa 398
yame@@ 398
0,@@ 397
Ash@@ 397
Shu@@ 397
ababishi 397
bonde 397
hawana 397
inayopatikana 397
kiti 397
muongo 397
omwa 397
umaini 397
… 397
Kamati 396
Kiroma 396
Maeneo 396
Song@@ 396
Tiba 396
afsiri 396
ajali 396
aliye 396
ishinda 396
madai 396
ongoni 396
35@@ 395
chochote 395
kig@@ 395
kule 395
mon@@ 395
ran@@ 395
wango 395
May@@ 394
Mazingira 394
aguzi 394
ajemi 394
aliyem@@ 394
enge 394
hari@@ 394
kisanii 394
tajiri 394
vipengele 394
47 393
Mwanzoni 393
Wizara 393
adhabu 393
aliyezaliwa 393
diko 393
esia 393
fi 393
haik@@ 393
mateso 393
uasi 393
weng@@ 393
Hak@@ 392
ambul@@ 392
anach@@ 392
homoni 392
jipya 392
malaria 392
ukuma 392
wafanyabiashara 392
Isi@@ 391
kina@@ 391
marafiki 391
taaluma 391
udiwa 391
hujulikana 390
kuweza 390
mbinguni 390
onyesho 390
Mwanam@@ 389
Nyota 389
enia 389
hisi 389
kuhitimu 389
kupanga 389
kutekeleza 389
malengo 389
rasi 389
tab@@ 389
ve 389
Fal@@ 388
Teknolojia 388
Way@@ 388
eba 388
endeleza 388
eon@@ 388
kel@@ 388
kemikali 388
na@@ 388
osisi 388
Katibu 387
ahudi 387
inayojulikana 387
kuzaa 387
magazeti 387
pemb@@ 387
saratani 387
takatifu 387
Uh@@ 386
ais@@ 386
inaitwa 386
kumaanisha 386
msaidizi 386
ombi 386
ope 386
ungi 386
zo@@ 386
2,000 385
Love 385
huohuo 385
jangwa 385
kilele 385
kuku@@ 385
kumt@@ 385
wasiwasi 385
Bara 384
Nyak@@ 384
Ro@@ 384
kuku 384
sam@@ 384
sinema 384
tumbo 384
uhusiwa 384
wad@@ 384
39 383
Berlin 383
Mash@@ 383
Nik@@ 383
adai 383
alipot@@ 383
awiwa 383
azamaji 383
changia 383
orodheshwa 383
angalau 382
iliyoko 382
inganisha 382
Af@@ 381
Asi@@ 381
alizi 381
duliwa 381
kushirikiana 381
mahusiano 381
ras@@ 381
tw@@ 381
Es@@ 380
Mn@@ 380
ambu@@ 380
edi 380
fan@@ 380
jaa 380
kifalme 380
madar@@ 380
uzam@@ 380
lu@@ 379
mshambuliaji 379
okuwa 379
unza 379
weke 379
$ 378
Anajulikana 378
Baringo 378
Du@@ 378
hud@@ 378
iliyofuata 378
mbadala 378
tar@@ 378
wamisionari 378
1000 377
Bor@@ 377
Konstantinopoli 377
Ngu@@ 377
Nyimbo 377
ileta 377
mbwa 377
upepo 377
abi 376
akich@@ 376
amoto 376
ashiria 376
hifadhiwa 376
makosa 376
nj@@ 376
taji 376
tem@@ 376
Namibia 375
Watoto 375
abiri 375
afi 375
akia 375
beki 375
chapisha 375
mchana 375
me 375
uliza 375
Jipya 374
King 374
Una 374
awamu 374
endeshwa 374
fanyika 374
idara 374
igwa 374
mashambu@@ 374
mid@@ 374
uen@@ 374
48 373
Bag@@ 373
Hadithi 373
agiza 373
apokuwa 373
der@@ 373
linalot@@ 373
oda 373
wajibu 373
wangu 373
1958 372
Nj@@ 372
emekana 372
furaha 372
kikoloni 372
les@@ 372
mabaki 372
ous 372
wazee 372
1959 371
Miji 371
Party 371
afisa 371
ande 371
dis@@ 371
yaliyo 371
yan 371
42 370
700 370
Alish@@ 370
Coast 370
Ireland 370
Kipama 370
Rasi 370
To@@ 370
balozi 370
ekeb@@ 370
elekeza 370
eswa 370
mwelekeo 370
ufundi 370
zinabaki 370
DJ 369
Dis@@ 369
Johannesburg 369
Mul@@ 369
Narok 369
ahitaji 369
akish@@ 369
kibao 369
kinachot@@ 369
kubeba 369
les 369
igaji 368
kamati 368
koo 368
kukom@@ 368
kuunganisha 368
mabaya 368
ok 368
upa 368
vi 368
wimbi 368
Ben@@ 367
Eritrea 367
Kiti@@ 367
Mig@@ 367
Sek@@ 367
Viktoria 367
ameichezea 367
anzia 367
ehemu 367
kiwa 367
kor@@ 367
zit@@ 367
38 366
Col@@ 366
Madrid 366
Mand@@ 366
Sel@@ 366
ajit@@ 366
aus@@ 366
berg 366
heria 366
kigeni 366
shaba 366
uhandisi 366
uishe 366
upungufu 366
utengenezaji 366
Bil@@ 365
Kanda 365
Kimarekani 365
Kiw@@ 365
astronomia 365
azwa 365
esab@@ 365
jitokeza 365
mhusika 365
odha 365
ongea 365
unua 365
urais 365
zam@@ 365
1930 364
Alich@@ 364
Kij@@ 364
giza 364
iri@@ 364
kupungua 364
mila 364
ngono 364
sil@@ 364
ubora 364
von 364
ziara 364
zisizo 364
Jean 363
Wareno 363
ez 363
huadhimisha 363
ikuu 363
udhibiti 363
Alimfuata 362
Kay@@ 362
Kipindi 362
bas@@ 362
ichezea 362
kutetea 362
lahaja 362
maafisa 362
tafsiri 362
ukwaa 362
000 361
Central 361
ait@@ 361
aliuawa 361
jumuiya 361
kikamilifu 361
kuelewa 361
wafalme 361
Ana 360
Huduma 360
Kiroho 360
Rufiji 360
Sultani 360
Uj@@ 360
Vijana 360
aguso 360
biolojia 360
inataja 360
patikana 360
sel@@ 360
tah@@ 360
umbi 360
8,000 359
Com@@ 359
Kichina 359
Malaysia 359
chumba 359
ikua 359
iliyotolewa 359
itu 359
jumba 359
liko 359
sanamu 359
uwepo 359
Chad 358
Mohamed 358
Sir@@ 358
Tab@@ 358
Wany@@ 358
haiku@@ 358
kufun@@ 358
lima 358
linaweza 358
maarifa 358
mot@@ 358
shwa 358
umet@@ 358
unia 358
54 357
Los 357
Uy@@ 357
alifu 357
ban@@ 357
eleka 357
ens@@ 357
hav@@ 357
kimb@@ 357
magadi 357
upili 357
vij@@ 357
yar@@ 357
Henry 356
Kisi@@ 356
Msingi 356
kadhalika 356
patia 356
Alipo@@ 355
Amani 355
Im@@ 355
hakuwa 355
hoteli 355
ondo@@ 355
osababishwa 355
vyenye 355
Hungaria 354
Takwimu 354
chao 354
hayaj@@ 354
ikam@@ 354
ne@@ 354
ombea 354
pasipo 354
wawa 354
yasiy@@ 354
Arsenal 353
Karne 353
Musa 353
Mzee 353
Uko 353
aliwa@@ 353
jiografia 353
matawi 353
mifano 353
saidia 353
ust@@ 353
Dam@@ 352
Ke@@ 352
Mwishoni 352
Shinyanga 352
ambi@@ 352
hisa 352
kuchangia 352
kushoto 352
kusudi 352
penye 352
uham@@ 352
umisha 352
waya 352
Julius 351
Mwana 351
achukua 351
ans 351
hibiti 351
ikisha 351
mimi 351
ram@@ 351
umbusho 351
ungan@@ 351
Ger@@ 350
hitaji 350
inaadhimishwa 350
kambi 350
kol@@ 350
kutana 350
liturujia 350
tasnia 350
vyanzo 350
zaa 350
52 349
Mwalimu 349
Postikodi 349
aminifu 349
ec@@ 349
fuatia 349
kish@@ 349
mtangazaji 349
thelathini 349
uno 349
1957 348
H 348
Louis 348
Mac@@ 348
Waliozaliwa 348
adirio 348
bodi 348
doa 348
haja 348
imbi 348
karatasi 348
tiwa 348
weni 348
Nakuru 347
Tabia 347
ambamo 347
che 347
etwa 347
hamu 347
ingine 347
kurej@@ 347
mwamba 347
pak@@ 347
per@@ 347
walis@@ 347
adiki 346
andam@@ 346
insia 346
ler 346
waliuawa 346
Mediteranea 345
Mitume 345
Nyungan 345
hughulikia 345
igizo 345
mada 345
mume 345
q 345
wany@@ 345
ac 344
aminiwa 344
arabu 344
indaji 344
jozi 344
kugun@@ 344
makumbusho 344
uamuzi 344
undu 344
Kumbe 343
Nyan@@ 343
VI 343
Wadogo 343
ambano 343
amilifu 343
chanjo 343
gr@@ 343
hisabati 343
huk@@ 343
mishipa 343
takwimu 343
tut@@ 343
watawa 343
1940 342
ahi@@ 342
akini 342
engen@@ 342
ganda 342
mgonjwa 342
mkoani 342
uhusika 342
ukumbi 342
umbuiza 342
wakit@@ 342
wanne 342
Kufikia 341
Sw@@ 341
anas@@ 341
arib@@ 341
bin@@ 341
hofu 341
iliendelea 341
iliyoitwa 341
indu@@ 341
maandiko 341
mabawa 341
makali 341
pol@@ 341
41 340
46 340
Mari@@ 340
akifanya 340
alivyo@@ 340
ayar@@ 340
des 340
laini 340
mahindi 340
sp@@ 340
waliop@@ 340
ziada 340
Toleo 339
hewani 339
linatokana 339
ongoji 339
ripoti 339
walifariki 339
Sen@@ 338
TANU 338
araka 338
ation 338
del 338
hadhi 338
inaonekana 338
teolojia 338
44 337
55 337
Bre@@ 337
Ir@@ 337
Me 337
elew@@ 337
hana 337
ifu@@ 337
imi 337
jumuia 337
kutibu 337
mwake 337
panya 337
tendo 337
viz@@ 337
Fel@@ 336
Kadiri 336
Qu@@ 336
Syria 336
amba@@ 336
atur@@ 336
haij@@ 336
inae 336
sadaka 336
walimu 336
Alis@@ 335
Anat@@ 335
Man 335
Utamaduni 335
XIII 335
ambuzi 335
kuandaa 335
misingi 335
oleo 335
pop 335
vip@@ 335
visa 335
1948 334
Fl@@ 334
Milki 334
Ruyigi 334
akap@@ 334
alionekana 334
dem@@ 334
fr@@ 334
hab@@ 334
ifuat@@ 334
isipaa 334
jenga 334
maradhi 334
ushawishi 334
zito 334
12,@@ 333
1956 333
3,000 333
Mk@@ 333
Nje 333
Sau@@ 333
akilishi 333
akula 333
ambulika 333
ica 333
ikira 333
let@@ 333
mhandisi 333
pr@@ 333
Benin 332
ass@@ 332
bak@@ 332
chi@@ 332
engi 332
ian 332
kez@@ 332
taba 332
tal@@ 332
vibaya 332
1954 331
Ker@@ 331
Matokeo 331
Palestina 331
ado 331
air@@ 331
arab@@ 331
baraza 331
duni 331
ent@@ 331
kukimbia 331
kulinda 331
ufanisi 331
yeji 331
33@@ 330
43 330
Go@@ 330
Os@@ 330
Wengi 330
XII 330
alitangaza 330
engine 330
gavana 330
hudumia 330
iliyozungumzwa 330
japani 330
kipekee 330
kutambu@@ 330
kutofau@@ 330
mauzo 330
mkusanyiko 330
Alifanya 329
angia 329
bain@@ 329
hiri 329
inapo@@ 329
ite 329
keza 329
lang@@ 329
lolote 329
mema 329
mfanyabiashara 329
waliweza 329
wili 329
1949 328
Bad@@ 328
Diok@@ 328
MA 328
Makueni 328
Pemba 328
Rut@@ 328
UB 328
Wen@@ 328
abar@@ 328
alisha 328
isia 328
lam@@ 328
mwenzake 328
ner 328
pendekeza 328
ufi 328
waliz@@ 328
yasiyo 328
Ghuba 327
Kitur@@ 327
Mary 327
alika 327
ifa 327
kimsingi 327
kuendesha 327
kuten@@ 327
lingine 327
miundo 327
mkia 327
situ 327
wafany@@ 327
64 326
Amechaguliwa 326
Fas@@ 326
Gi@@ 326
Mel@@ 326
aidi 326
aliitwa 326
ambulia 326
kiasili 326
kuit@@ 326
okaa 326
owevu 326
pa@@ 326
Cal@@ 325
Mich@@ 325
Nas@@ 325
akar@@ 325
amech@@ 325
angulizi 325
huka 325
imiza 325
kupambana 325
kuua 325
mikutano 325
mkopo 325
pofu 325
sisi 325
umbehai 325
unguzwa 325
upi 325
56 324
65 324
Ay@@ 324
Waswahili 324
ikio 324
kijani 324
kitengo 324
rapa 324
ria 324
walitumia 324
Bah@@ 323
Kun@@ 323
Meru 323
Nyeusi 323
UN@@ 323
Yosefu 323
chan@@ 323
kaboni 323
malipo 323
mapadri 323
C. 322
F.C. 322
Hassan 322
Maana 322
Mahali 322
Mexico 322
P. 322
Pal@@ 322
Video 322
iliza 322
kutunga 322
mitaa 322
tishu 322
unukiwa 322
vigumu 322
23@@ 321
Klabu 321
Lam@@ 321
Mkataba 321
ikazi 321
ikolojia 321
jaribio 321
kipya 321
miungu 321
vinaweza 321
88 320
Award 320
Benedikto 320
Moshi 320
Wataalamu 320
fani 320
imwa 320
inde 320
je@@ 320
malkia 320
michache 320
Mifano 319
Ofisi 319
arajiwa 319
ary 319
azam@@ 319
dan@@ 319
haba 319
ick 319
kukosa 319
pelekwa 319
tin@@ 319
wir@@ 319
yekevu 319
1920 318
73 318
J. 318
Jazz 318
Kiulaya 318
Manyara 318
Mwisho 318
Real 318
Tri@@ 318
achia 318
afanua 318
anda@@ 318
dom@@ 318
elezwa 318
kodi 318
kuchang@@ 318
magumu 318
moshi 318
ofaa 318
qu@@ 318
ungumzo 318
wahusika 318
weupe 318
1947 317
53 317
Georgia 317
Idara 317
My 317
Tan@@ 317
idhi 317
jwa 317
kukusanya 317
mini 317
oe 317
oza 317
tropiki 317
Kad@@ 316
Sol@@ 316
ekel@@ 316
sem@@ 316
shindano 316
tazama 316
tumb@@ 316
Anaheshimiwa 315
Daniel 315
Dawa 315
Gitega 315
Homa 315
Iran 315
akaf@@ 315
fanikiwa 315
hamsini 315
huishi 315
kumbu@@ 315
kuruka 315
mazuri 315
nyuklia 315
ofia 315
vikubwa 315
yoya 315
St. 314
kahawa 314
kupi@@ 314
mchango 314
mmea 314
mwanak@@ 314
tof@@ 314
umikia 314
1.@@ 313
Afghanistan 313
Alicheza 313
Edward 313
Maelezo 313
Mut@@ 313
ajiriwa 313
bilia 313
kem@@ 313
kupoteza 313
mpakani 313
sanifu 313
tendaji 313
ubunifu 313
vur@@ 313
waliendelea 313
ā@@ 313
Kampala 312
adiliano 312
alikufa 312
enya 312
hua 312
maduka 312
uel@@ 312
unduliwa 312
wahamiaji 312
1918 311
95 311
Angeles 311
Brown 311
Ju@@ 311
My@@ 311
Pulitzer 311
alimu@@ 311
anyiwa 311
azimishwa 311
dhar@@ 311
ensi 311
funguvisiwa 311
k.@@ 311
sm 311
uvamizi 311
wo@@ 311
agizo 310
ambulisha 310
haria 310
ikana 310
kiv@@ 310
kupima 310
meneja 310
miliki 310
1955 309
58 309
98 309
Alisoma 309
Cas@@ 309
Ikiwa 309
Waw@@ 309
adilifu 309
aten@@ 309
ekelezwa 309
epu@@ 309
her@@ 309
kipen@@ 309
mavazi 309
nah@@ 309
okrasia 309
vikosi 309
wito 309
100,000 308
Hospitali 308
Kajiado 308
Kiasia 308
Shab@@ 308
abaki 308
hekalu 308
imekaribia 308
kujiua 308
lenyewe 308
uhak@@ 308
ukom@@ 308
va 308
wanadamu 308
20,000 307
Kili@@ 307
Simba 307
dii 307
egawanywa 307
fundisha 307
halijoto 307
imp@@ 307
ishiwa 307
jen@@ 307
masaa 307
mn@@ 307
oliki 307
pig@@ 307
viv@@ 307
zimet@@ 307
B. 306
Bou@@ 306
DNA 306
Karibi 306
Muda 306
Wafiadini 306
Wang@@ 306
Wil@@ 306
endwa 306
likiwa 306
molekuli 306
nyoka 306
umbuzi 306
ville 306
— 306
1952 305
67 305
Dalili 305
Sheikh 305
aikolojia 305
alichukua 305
alig@@ 305
anayet@@ 305
huv@@ 305
ini@@ 305
mapatano 305
mtaa 305
onek@@ 305
ongwe 305
tamaa 305
uaji 305
Academy 304
Karibu 304
aidizi 304
die 304
imi@@ 304
kifedha 304
kutunza 304
lililot@@ 304
nurur@@ 304
wel@@ 304
Elizabeth 303
a. 303
asubuhi 303
iliyoanzishwa 303
mgombea 303
pakana 303
peleka 303
ukuu 303
wil@@ 303
99 302
Albert 302
Bongo 302
Daudi 302
One 302
Waisraeli 302
Waroma 302
abisha 302
ajiunga 302
amer@@ 302
den 302
kusafiri 302
makoloni 302
matangazo 302
mkon@@ 302
nyuzi 302
vyao 302
wamet@@ 302
Char@@ 301
Kati@@ 301
Smith 301
Ugonjwa 301
aharia 301
atika 301
doo 301
edi@@ 301
go@@ 301
pigwa 301
ubaliano 301
FA 300
Od@@ 300
State 300
asai 300
ghafla 300
masharti 300
miamba 300
ty 300
uk 300
Victoria 299
bur@@ 299
ell 299
fuatwa 299
halali 299
mifugo 299
mifupa 299
owekwa 299
pana 299
pole 299
shamba 299
ulikani 299
vijijini 299
vipaji 299
yezi 299
County 298
Pro@@ 298
anyia 298
cheza 298
choch@@ 298
ilio 298
ter 298
walifanya 298
Halafu 297
Jumba 297
Ms@@ 297
adhaiko 297
amt@@ 297
han@@ 297
inayom@@ 297
kong@@ 297
misuli 297
mitandao 297
mwenyeji 297
sah@@ 297
yuko 297
Barcelona 296
De 296
Don@@ 296
IC@@ 296
Mbinu 296
Muundo 296
Nyeri 296
Rom@@ 296
Ten@@ 296
Tume 296
atokea 296
den@@ 296
hambulia 296
inayoh@@ 296
ine@@ 296
kifodini 296
lilianzishwa 296
oku@@ 296
osim@@ 296
ov 296
sekunde 296
uda 296
uliofuata 296
13,@@ 295
75 295
Jubba 295
Lee 295
Math@@ 295
Wafaransa 295
arobaini 295
az 295
bele 295
bure 295
jumu@@ 295
manispaa 295
mashabiki 295
Alishinda 294
It 294
Kiitalia 294
Zealand 294
aalamu 294
ainishwa 294
alijit@@ 294
aliv@@ 294
atir@@ 294
elli 294
kutangaza 294
lad@@ 294
mkojo 294
ukuta 294
57 293
Jambo 293
Kenyatta 293
Mun@@ 293
Sekondari 293
Yakobo 293
amilia 293
amiza 293
andamizi 293
ent 293
hariri 293
iliya 293
kimwili 293
kuungana 293
mjumbe 293
ungano 293
usafi 293
1900 292
900 292
AN@@ 292
Geita 292
Norwei 292
Samb@@ 292
Sk@@ 292
dea 292
inus 292
kuchaguliwa 292
kuhakikisha 292
kuwapa 292
mwanariadha 292
njaa 292
pu 292
sigara 292
uteuzi 292
uzaji 292
uzoefu 292
150 291
Ros@@ 291
Rus@@ 291
Sasa 291
Watakatifu 291
ap 291
bahati 291
kikapu 291
kosa 291
maili 291
misaada 291
wanaf@@ 291
zuia 291
72 290
Nab@@ 290
cho 290
fuat@@ 290
kuzalisha 290
msichana 290
ofau@@ 290
tabaka 290
udishwa 290
62 289
85 289
ambaz@@ 289
azimio 289
field 289
fursa 289
kuamua 289
kuzi@@ 289
mkondo 289
mo 289
mzee 289
tambarare 289
wapinzani 289
1946 288
Hot 288
Sher@@ 288
Sin@@ 288
igh@@ 288
ongezwa 288
wo 288
Niger 287
Times 287
aliongoza 287
anapo@@ 287
iyo 287
majeraha 287
mumewe 287
nz@@ 287
ofika 287
olanzi 287
ubwa 287
watano 287
16@@ 286
1953 286
Bul@@ 286
Jo@@ 286
Kireno 286
Texas 286
athira 286
farasi 286
hir@@ 286
kamwe 286
kuchunguza 286
CD 285
Mwanzo 285
Uta@@ 285
aliji@@ 285
amano 285
bwana 285
egawanyika 285
faulu 285
kirefu 285
lebo 285
no@@ 285
onde 285
petrol@@ 285
thibitishwa 285
utalii 285
utheri 285
wachanga 285
zinapatikana 285
97 284
Kag@@ 284
Kiambu 284
Kikatoliki 284
Kimungu 284
Pangani 284
haikuwa 284
hiari 284
ichi 284
umbukwa 284
ungu@@ 284
unjika 284
za@@ 284
59 283
Njombe 283
Wamar@@ 283
Wana@@ 283
alihitimu 283
atilia 283
bol@@ 283
digrii 283
gia 283
hukum@@ 283
ilig@@ 283
kukutana 283
marefu 283
ord@@ 283
zilizokuwa 283
Foundation 282
Kipap@@ 282
Mabadiliko 282
No@@ 282
Val@@ 282
abiria 282
akwa 282
anus 282
fizikia 282
mlango 282
nim@@ 282
njano 282
ramani 282
ufafanuzi 282
uji@@ 282
usanya 282
45@@ 281
61 281
69 281
Khan 281
akaendelea 281
alishwa 281
andao 281
awan@@ 281
dr@@ 281
futwa 281
hait@@ 281
hio 281
kuzunguka 281
mm@@ 281
Hil@@ 280
Pe@@ 280
Sy@@ 280
Wote 280
anana 280
anzilishi 280
ast@@ 280
ens 280
ingizwa 280
kijivu 280
ongozaji 280
tawala 280
ushauri 280
wanapo@@ 280
79 279
Hor@@ 279
Muy@@ 279
S.@@ 279
Sum@@ 279
aliona 279
athirika 279
bendera 279
hukumu 279
ikil@@ 279
jaribu 279
life 279
lisha 279
mgu@@ 279
tarakilishi 279
ubi 279
Karthago 278
Wanyama 278
Ya 278
achangia 278
apaswa 278
apishaji 278
awanyika 278
ilimali 278
ishowe 278
kitaaluma 278
kununua 278
maandamano 278
sisko 278
tro@@ 278
umu@@ 278
utajiri 278
viny@@ 278
Biz@@ 277
Juma 277
Kanuni 277
Matibabu 277
Serbia 277
Tur@@ 277
Van 277
ain 277
alizika 277
alu 277
anini 277
atomu 277
boa 277
eleweka 277
ilir@@ 277
ishana 277
itia 277
mshauri 277
msim@@ 277
mwangaza 277
mweusi 277
sab@@ 277
unah@@ 277
wanash@@ 277
63 276
Do@@ 276
Elfu 276
Nad@@ 276
Y 276
Yoh 276
edonia 276
elelezi 276
ianchi 276
ilib@@ 276
ipot@@ 276
kuy@@ 276
mlipuko 276
nak@@ 276
opewa 276
wandani 276
wapo 276
Aj@@ 275
Cr@@ 275
ach 275
anyiko 275
duki 275
huonekana 275
ikw@@ 275
k.m. 275
kupumua 275
ler@@ 275
okus@@ 275
Bururi 274
Kah@@ 274
Kemia 274
Kifo 274
Kilele 274
Kiorthodoksi 274
Ud@@ 274
aani 274
ans@@ 274
ilishinda 274
imek@@ 274
injili 274
kilit@@ 274
kingine 274
kujik@@ 274
ogopa 274
saini 274
sukari 274
ungumzia 274
uvuvi 274
washiriki 274
Kilimo 273
Lengo 273
Plat@@ 273
afaa 273
akafuatwa 273
akas@@ 273
amana 273
asemekana 273
bura 273
kuimarisha 273
linam@@ 273
makamu 273
mikononi 273
mwanafizikia 273
pal@@ 273
tambu@@ 273
vitendo 273
wakiwemo 273
zawadi 273
zima 273
1939 272
71 272
Ah@@ 272
Chelsea 272
Fizikia 272
Gh@@ 272
Takriban 272
Vir@@ 272
ate@@ 272
avyot@@ 272
ebe 272
ipata 272
irani 272
kahawia 272
kutaka 272
pp@@ 272
usambazaji 272
vyema 272
yafuatayo 272
J 271
Pan@@ 271
Rangi 271
Wana 271
ajira 271
akani 271
alitaka 271
amali 271
anishwa 271
chaguliwa 271
ice 271
ilivy@@ 271
imef@@ 271
isiyo@@ 271
kezo 271
kutenda 271
miza 271
sia 271
Picha 270
Ug@@ 270
afu@@ 270
alikubali 270
anta 270
emp@@ 270
gun@@ 270
hotuba 270
imbe 270
ishughulisha 270
izaji 270
kima@@ 270
mbao 270
shuleni 270
uhamisho 270
uziki 270
vol@@ 270
14,@@ 269
Che@@ 269
Jer@@ 269
Kikan@@ 269
Mwenyekiti 269
Tatu 269
afsiriwa 269
bibi 269
huch@@ 269
ipoti 269
temi 269
usio 269
ustawi 269
250 268
74 268
91 268
Hot@@ 268
Katiba 268
Libya 268
Mexiko 268
Nor@@ 268
Sil@@ 268
akadiriwa 268
alikwenda 268
ambukiza 268
amiaji 268
kiafya 268
kuza 268
makundinyota 268
manu@@ 268
mhariri 268
mist@@ 268
ojiano 268
1888 267
E. 267
Kilwa 267
O.@@ 267
Uchunguzi 267
Vitabu 267
Wahispania 267
anaishi 267
huruma 267
kuangalia 267
kujif@@ 267
wek@@ 267
83 266
Andrea 266
IX 266
Said 266
UNESCO 266
Union 266
Ver@@ 266
all 266
amisha 266
bay@@ 266
kanaji 266
utaji 266
Cha 265
Licha 265
Mbu@@ 265
Nepal 265
_ 265
alir@@ 265
atili 265
hada 265
inaz@@ 265
ise 265
izo@@ 265
sabini 265
shabaha 265
uthi 265
vig@@ 265
vilivyo 265
1886 264
93 264
All 264
Ngozi 264
aliana 264
alimu 264
burudani 264
vina@@ 264
wiz@@ 264
Moja 263
awas@@ 263
ca 263
geni 263
hoja 263
itindo 263
kupo@@ 263
nik@@ 263
oloni 263
ongwa 263
opata 263
orodh@@ 263
tra 263
upan@@ 263
Dini 262
Florida 262
The@@ 262
akos 262
apili 262
aume 262
bal@@ 262
majini 262
opo@@ 262
66 261
Bi 261
Liberia 261
Ly@@ 261
Togo 261
ade 261
aje 261
anzania 261
araj@@ 261
atom@@ 261
hari 261
igan@@ 261
kupot@@ 261
Jam@@ 260
Zamani 260
duk@@ 260
mand@@ 260
89 259
Soka 259
eva 259
iyu 259
manne 259
pun@@ 259
uzo 259
15,@@ 258
96 258
Dj@@ 258
Vil@@ 258
Yos@@ 258
hini 258
jo@@ 258
liki@@ 258
mtendaji 258
oc@@ 258
osema 258
oshi 258
ukta 258
usiano 258
vina 258
Bung@@ 257
For@@ 257
XX@@ 257
abe 257
hush@@ 257
2.@@ 256
Don 256
FM 256
Hut@@ 256
Ji@@ 256
aburi 256
amo@@ 256
aru 256
jerumani 256
92 255
Han@@ 255
M. 255
Moi 255
Sala 255
W 255
Zam@@ 255
afsi 255
aska 255
ekana 255
eri@@ 255
hui 255
ity 255
sen@@ 255
Pen@@ 254
Society 254
anyi 254
inzani 254
mm 254
mwanah@@ 254
Abu 253
Armenia 253
Band@@ 253
Ish@@ 253
Martyr@@ 253
Tom@@ 253
ario 253
ele@@ 253
imes@@ 253
liv@@ 253
them@@ 253
ukawa 253
vo 253
waka 253
American 252
Mos@@ 252
bab@@ 252
elektr@@ 252
inal@@ 252
1951 251
30@@ 251
Chicago 251
Domin@@ 251
Gen@@ 251
Meksiko 251
Say@@ 251
ange 251
co 251
kamp@@ 251
94 250
Alexander 250
Kuz@@ 250
ber 250
elo 250
handisi 250
mer@@ 250
mip@@ 250
mweng@@ 250
ova 250
uvi 250
09 249
Kro@@ 249
akash@@ 249
alam@@ 249
bon@@ 249
co@@ 249
ish 249
ken@@ 249
pua 249
sen 249
League 248
Sam 248
bizi 248
but@@ 248
eket@@ 248
ella 248
elle 248
ografia 248
ologium 248
tisini 248
ulana 248
yewe 248
zaliwa 248
51 247
ANU 247
Aw@@ 247
Group 247
Imam 247
Romanum 247
antu 247
hesh@@ 247
ido 247
ilika 247
iya 247
jam@@ 247
ofa 247
onge@@ 247
orod@@ 247
Ana@@ 246
Bl@@ 246
Ge@@ 246
Jones 246
Son@@ 246
Tena 246
1941 245
Lyon 245
Sok@@ 245
akato 245
aur@@ 245
pon@@ 245
Democratic 244
Ken@@ 244
Vol@@ 244
Z 244
arakati 244
asiasa 244
ayarishaji 244
ci@@ 244
ikuwa 244
khali@@ 244
1500 243
1914 243
Bom@@ 243
Cl@@ 243
Gabon 243
Shak@@ 243
adhimisha 243
afunzi 243
aribia 243
azamo 243
burg 243
eze 243
gar@@ 243
kib@@ 243
kutengen@@ 243
ling@@ 243
ul 243
van 243
1936 242
84 242
Ac@@ 242
College 242
Grammy 242
Madag@@ 242
bel@@ 242
ghuli 242
ius 242
ukur@@ 242
uru@@ 242
wau@@ 242
yol@@ 242
1917 241
Bis@@ 241
Brit@@ 241
Kim 241
Le 241
Mot@@ 241
achama 241
ataba 241
ist 241
ongez@@ 241
1944 240
Fili@@ 240
High 240
Som@@ 240
dur@@ 240
1933 239
Cel@@ 239
Kamb@@ 239
Lim@@ 239
Pok@@ 239
Star 239
anja 239
bor@@ 239
for@@ 239
imar@@ 239
met@@ 239
obo 239
Grand 238
Leb@@ 238
Ter@@ 238
Williams 238
atomi 238
idi@@ 238
jin@@ 238
86 237
Tim@@ 237
ibn 237
imin@@ 237
open@@ 237
ult@@ 237
utano 237
Island 236
ais 236
baya 236
emo 236
evi 236
ori@@ 236
pino 236
76 235
AS@@ 235
Dem@@ 235
Radio 235
aham@@ 235
samb@@ 235
thai 235
.com 234
A. 234
Abr@@ 234
Hay@@ 234
Pat@@ 234
agi 234
angazaji 234
beg@@ 234
pop@@ 234
unguzi 234
Aki@@ 233
Braz@@ 233
Vienna 233
elim@@ 233
3000 232
Chan@@ 232
House 232
Jack 232
Moscow 232
SA@@ 232
Wiki 232
asisi 232
asiy@@ 232
mala@@ 232
zana 232
AD@@ 231
Association 231
Bay@@ 231
Hip 231
Rob@@ 231
Yo@@ 231
eria 231
ess@@ 231
iliv@@ 231
jah@@ 231
mati@@ 231
nin@@ 231
unu 231
£ 231
Anaf@@ 230
Chile 230
Go 230
Lug@@ 230
andar@@ 230
biot@@ 230
ishoni 230
pand@@ 230
77 229
Carey 229
Ng 229
Pad@@ 229
Reg@@ 229
Safari 229
Wain@@ 229
bes@@ 229
gam@@ 229
len@@ 229
rati@@ 229
ts@@ 229
ure 229
78 228
Jar@@ 228
Kamp@@ 228
Kl@@ 228
Progr@@ 228
abo 228
ambuk@@ 228
inar@@ 228
op 228
ougou 228
our 228
ulo 228
Hill 227
Ib@@ 227
Michigan 227
Ph@@ 227
amin@@ 227
ant 227
dir@@ 227
département 227
hap@@ 227
11@@ 226
Av@@ 226
Dan@@ 226
Math 226
Mh@@ 226
Nar@@ 226
Ndi@@ 226
Uri@@ 226
per 226
prot@@ 226
16,@@ 225
Burkina 225
Hi@@ 225
Johnson 225
Juli@@ 225
Ra@@ 225
aid@@ 225
andiko 225
eme 225
ile@@ 225
ill@@ 225
jus@@ 225
06 224
6,000 224
AM@@ 224
Ahmed 224
Club 224
Patri@@ 224
RC 224
Sun@@ 224
aso 224
ineo 224
inzi 224
ith 224
ju 224
lara 224
lat@@ 224
sult@@ 224
uchi 224
August@@ 223
Milano 223
St 223
Women 223
afak@@ 223
baji 223
puko 223
undu@@ 223
wood 223
Dr@@ 222
Ste@@ 222
umbani 222
usta@@ 222
25@@ 221
26@@ 221
CO@@ 221
Hab@@ 221
Hitler 221
Jay 221
Les@@ 221
arki 221
ige 221
robo 221
tamth@@ 221
15@@ 220
Cher@@ 220
Da@@ 220
Maur@@ 220
Nz@@ 220
achi 220
sta@@ 220
uni@@ 220
« 220
08 219
4,000 219
Marmara 219
amem@@ 219
assa 219
auti@@ 219
islamu 219
oni@@ 219
ts 219
unzo 219
» 219
17@@ 218
Gav@@ 218
Has@@ 218
Mandela 218
Moy@@ 218
On@@ 218
ahis@@ 218
haa 218
inge@@ 218
onjwa 218
8.@@ 217
Google 217
Sierra 217
Ul@@ 217
Young 217
ahari 217
alini 217
baini 217
fe 217
nit@@ 217
1934 216
27@@ 216
68 216
Accra 216
Gor@@ 216
adhi 216
aribio 216
ase 216
gel@@ 216
hor@@ 216
ille 216
italia 216
juli@@ 216
poli@@ 216
1922 215
1925 215
1929 215
BBC 215
Ban@@ 215
Queen 215
Santa 215
Wales 215
White 215
hub@@ 215
ins 215
iso 215
nam@@ 215
rika 215
tath@@ 215
ute 215
1942 214
Aid@@ 214
DC 214
Leone 214
Media 214
Mol@@ 214
Stars 214
ata@@ 214
erere 214
ham 214
igu@@ 214
ker 214
refu 214
umi@@ 214
5000 213
Company 213
Ex@@ 213
Sah@@ 213
XI 213
XVI 213
alb@@ 213
lav@@ 213
ver@@ 213
1885 212
24@@ 212
Dubai 212
Kou@@ 212
Kuk@@ 212
Pon@@ 212
Q 212
akan@@ 212
anj@@ 212
bom@@ 212
hughu@@ 212
tian 212
tro 212
1943 211
Canada 211
Dom@@ 211
Francis 211
adhi@@ 211
alme 211
ce 211
ker@@ 211
th 211
ungum@@ 211
82 210
Dor@@ 210
Had@@ 210
New@@ 210
Sik@@ 210
Ukraine 210
ash 210
ell@@ 210
sul@@ 210
tad@@ 210
tis@@ 210
1926 209
87 209
F.@@ 209
Fre@@ 209
ann@@ 209
rap 209
Band 208
Japan 208
Long@@ 208
Mif@@ 208
Si 208
onya 208
ule@@ 208
wakil@@ 208
1890 207
Hum@@ 207
Myanmar 207
Naf@@ 207
News 207
Oblast 207
Patrick 207
dari 207
eji 207
pum@@ 207
san@@ 207
vua 207
zia 207
17,@@ 206
Miz@@ 206
Nag@@ 206
Og@@ 206
adala 206
aman@@ 206
fig@@ 206
the@@ 206
ve@@ 206
Eli@@ 205
Lus@@ 205
Por@@ 205
Prussia 205
all@@ 205
amino 205
atio 205
hasara 205
laka 205
mish@@ 205
ubali@@ 205
ukumu 205
Profes@@ 204
fund@@ 204
mann 204
mwanaf@@ 204
yab@@ 204
Fed@@ 203
Port 203
ekeleza 203
ispania 203
toba 203
uria 203
י@@ 203
120 202
3.@@ 202
81 202
Ben 202
CH@@ 202
Cer@@ 202
Klem@@ 202
Rose 202
akab@@ 202
bio 202
diye 202
fil@@ 202
ropa 202
tari 202
yot@@ 202
1,0@@ 201
116 201
30,000 201
Gambia 201
Kaz@@ 201
Kimb@@ 201
pita 201
zani 201
39@@ 200
65@@ 200
Faso 200
Miss 200
Scott 200
aila 200
aire 200
ardin@@ 200
gom@@ 200
ikat@@ 200
imarisha 200
ons 200
03 199
04 199
But@@ 199
Inter@@ 199
MTV 199
Marie 199
Sha@@ 199
Sir 199
Taylor 199
Wa 199
area 199
bos@@ 199
buri 199
ego 199
elekeo 199
endera 199
huria 199
ilini 199
ime 199
tuli@@ 199
unifu 199
18,@@ 198
1910 198
1937 198
Bib@@ 198
Chris 198
Hek@@ 198
Mohammed 198
afr@@ 198
ege 198
usia 198
00@@ 197
AP@@ 197
Cap@@ 197
Christian 197
Dr. 197
Kul@@ 197
Luka 197
Ob@@ 197
Pl@@ 197
Satur@@ 197
Trans@@ 197
Vati@@ 197
bad@@ 197
gez@@ 197
huy@@ 197
indo 197
utar@@ 197
1938 196
7.@@ 196
Hus@@ 196
Kel@@ 196
Kris@@ 196
Lit@@ 196
Simon 196
Verde 196
ail@@ 196
bl@@ 196
elektron@@ 196
hes@@ 196
inayoz@@ 196
nying@@ 196
ubia 196
102 195
1905 195
Anthony 195
Met@@ 195
Rek@@ 195
armen@@ 195
binu 195
mata 195
mli@@ 195
yesi 195
Ap@@ 194
YouTube 194
alishaji 194
hem@@ 194
otea 194
ren@@ 194
sanii 194
ui@@ 194
und 194
Big 193
Life 193
Mark 193
Rhodesia 193
Theod@@ 193
VIII 193
adr@@ 193
ambukizi 193
arifa 193
est 193
hidro@@ 193
sentim@@ 193
usu@@ 193
wan 193
07 192
67@@ 192
Best 192
Kari@@ 192
Kong 192
LA 192
Zi@@ 192
anzo 192
ith@@ 192
Jose@@ 191
Kie@@ 191
Royal 191
abor@@ 191
ambana 191
anisa 191
ello 191
fal@@ 191
ff@@ 191
ks 191
paa 191
pro@@ 191
sav@@ 191
tom@@ 191
vent@@ 191
1919 190
36@@ 190
Category 190
Fu@@ 190
Rab@@ 190
akif@@ 190
alimt@@ 190
ensis 190
euzi 190
ry 190
1923 189
7,000 189
British 189
Bub@@ 189
In 189
Northern 189
People 189
bah@@ 189
domo 189
han 189
rek@@ 189
ukw@@ 189
uro 189
1931 188
2022 188
Abdallah 188
Bro@@ 188
Cam@@ 188
Cham@@ 188
Columbia 188
Congress 188
Den@@ 188
God@@ 188
Kais@@ 188
Kinshasa 188
Nis@@ 188
Ven@@ 188
eth@@ 188
ger 188
oria 188
tha 188
wemo 188
wing@@ 188
Des@@ 187
Fil@@ 187
Illinois 187
Mf@@ 187
Yugoslavia 187
dhah@@ 187
emu 187
igi 187
mes@@ 187
shi@@ 187
sk 187
1912 186
200@@ 186
9.@@ 186
Israel 186
Lut@@ 186
Sav@@ 186
aio 186
eh 186
itu@@ 186
ruh@@ 186
1927 185
Entertainment 185
I. 185
Ing@@ 185
Lab@@ 185
Mimi 185
Rad@@ 185
Raj@@ 185
Rub@@ 185
UK 185
Wit@@ 185
apos@@ 185
dy 185
emek@@ 185
falme 185
radi@@ 185
thibi@@ 185
tri@@ 185
000,000 184
50,000 184
Bol@@ 184
Mito 184
avi@@ 184
lan@@ 184
otho 184
tek@@ 184
tis 184
with 184
180 183
Kuba 183
Luther 183
Telev@@ 183
Tw@@ 183
Vis@@ 183
adam@@ 183
alay 183
api 183
apor@@ 183
des@@ 183
esh 183
fon@@ 183
hun@@ 183
lem@@ 183
mus@@ 183
nom@@ 183
ungumzwa 183
304 182
Carl 182
Hong 182
Je@@ 182
bil@@ 182
esis 182
ome@@ 182
AR@@ 181
Antak@@ 181
Bos@@ 181
Cu@@ 181
Istanbul 181
Pierre 181
She@@ 181
eli@@ 181
fet@@ 181
iana 181
kap@@ 181
kau@@ 181
yl@@ 181
{ 181
Arthur 180
Euro 180
Kabar@@ 180
Luk@@ 180
chap@@ 180
hospit@@ 180
sabit 180
ster@@ 180
zw@@ 180
Gaz@@ 179
Hel@@ 179
Hon@@ 179
Hur@@ 179
Isa@@ 179
Nelson 179
alin@@ 179
ern@@ 179
huri 179
umizi 179
une 179
wende 179
AK@@ 178
IM@@ 178
Moh@@ 178
Ou@@ 178
Rock 178
Run@@ 178
UM 178
VII 178
edia 178
hauri 178
lava 178
yn 178
Air 177
Hop 177
Kong@@ 177
Sydney 177
US@@ 177
ambar@@ 177
car@@ 177
endeleo 177
gal@@ 177
su 177
tang@@ 177
upe@@ 177
Francisco 176
Hip@@ 176
IS@@ 176
May 176
aua 176
ence 176
ette 176
hel@@ 176
mun@@ 176
oleta 176
sea 176
1928 175
303 175
Jamaika 175
Kilom@@ 175
Liverpool 175
Mog@@ 175
Om@@ 175
Pre@@ 175
Rio 175
Southern 175
day@@ 175
ie@@ 175
induzi 175
lig@@ 175
oth@@ 175
wele 175
120@@ 174
1889 174
Eu@@ 174
Frank 174
Ivory 174
Joe 174
S. 174
Single 174
Thi@@ 174
anchi 174
arr@@ 174
gan@@ 174
ilimia 174
kt@@ 174
lango 174
que 174
Bot@@ 173
DM 173
Fer@@ 173
Fir@@ 173
Hom@@ 173
Sc@@ 173
Western 173
aal@@ 173
anne 173
dis 173
e.@@ 173
erman@@ 173
jumbe 173
plasti@@ 173
ref 173
rut@@ 173
sent@@ 173
wakim@@ 173
} 173
Anna 172
Ari@@ 172
Hol@@ 172
Ty@@ 172
ax@@ 172
dor@@ 172
inger 172
jip@@ 172
lip@@ 172
o.@@ 172
rom@@ 172
rowspan 172
vul@@ 172
01 171
Beth@@ 171
Carlos 171
Cross 171
Fat@@ 171
Gre@@ 171
Iraq 171
Omar 171
Ptolem@@ 171
Tig@@ 171
Zulu 171
anik@@ 171
faransa 171
iva 171
jan@@ 171
‎ 171
119 170
AC 170
Adam 170
Hir@@ 170
Ik@@ 170
Knowles 170
Kuf@@ 170
Mesopotamia 170
Sing@@ 170
Sur@@ 170
aut@@ 170
beri 170
bert 170
jana 170
lilik@@ 170
15,000 169
1903 169
1916 169
CD@@ 169
Diamond 169
Munich 169
Natal 169
ington 169
its 169
mag 169
mfany@@ 169
mir@@ 169
oud 169
sur@@ 169
í@@ 169
A.@@ 168
AL@@ 168
Ed@@ 168
Fo@@ 168
Ford 168
Hen@@ 168
Karl 168
Star@@ 168
anii 168
apar@@ 168
bir@@ 168
mek@@ 168
opa 168
23,@@ 167
Aleks@@ 167
Sou@@ 167
Teresa 167
Virginia 167
ech 167
ige@@ 167
tol@@ 167
1.5 166
28@@ 166
4.@@ 166
6.@@ 166
Fran@@ 166
Tony 166
Viv@@ 166
Wilson 166
Yer@@ 166
adudu 166
atano 166
bani 166
ben@@ 166
ejulikana 166
mav@@ 166
sta 166
val@@ 166
Bangladesh 165
Golden 165
It@@ 165
Limited 165
NBC 165
Osman@@ 165
Sever@@ 165
Tokyo 165
ator 165
ess 165
iku 165
ilifu 165
ingira 165
kot@@ 165
shar@@ 165
sho@@ 165
wang@@ 165
α 165
1935 164
5.@@ 164
Dak@@ 164
Harvard 164
Mim@@ 164
SC 164
Samuel 164
Sand@@ 164
Shar@@ 164
Tal@@ 164
Yemen 164
ace 164
afrika 164
bot@@ 164
dens@@ 164
ento 164
kop@@ 164
rock 164
tik@@ 164
ukio 164
ys 164
19,@@ 163
1932 163
Alim@@ 163
Kau@@ 163
Kimar@@ 163
OS 163
Rip@@ 163
Sem@@ 163
ance 163
res@@ 163
tan 163
ć 163
1908 162
1913 162
20,@@ 162
Bir@@ 162
Boy@@ 162
Cairo 162
Fatima 162
Jin@@ 162
Kri@@ 162
R. 162
Zu@@ 162
ion 162
jener@@ 162
kto 162
tus@@ 162
uvu 162
wet 162
yem@@ 162
1896 161
1906 161
Ach@@ 161
Delta 161
Ras@@ 161
Studio 161
Super 161
Vid@@ 161
W. 161
amata 161
any 161
ekar@@ 161
hwa 161
irikiano 161
mer 161
ozaliwa 161
sey 161
Abu@@ 160
Bulgaria 160
Der@@ 160
Ek@@ 160
Queensland 160
Stefano 160
eana 160
hambu@@ 160
kumbu 160
mith@@ 160
otu 160
tou@@ 160
€ 160
AT@@ 159
Bad 159
Del@@ 159
Mes@@ 159
Walter 159
adhim@@ 159
anthropo@@ 159
atifu 159
chor@@ 159
eha 159
int@@ 159
papa 159
stone 159
2.5 158
29@@ 158
Dal@@ 158
anal@@ 158
bud@@ 158
eso 158
lor@@ 158
oli@@ 158
oph@@ 158
plat@@ 158
sat@@ 158
seti 158
sur 158
urah@@ 158
05 157
1870 157
Andrew 157
Baad@@ 157
Bill 157
Gat@@ 157
No 157
Pel@@ 157
SA 157
anc@@ 157
ds 157
estr@@ 157
gu 157
illa 157
lar@@ 157
obi 157
tus 157
way 157
Chang@@ 156
Cur@@ 156
D. 156
Eng@@ 156
Green 156
Hall 156
Rhine 156
Vo@@ 156
aceae 156
anar@@ 156
ark@@ 156
chai 156
liz@@ 156
ofi 156
350 155
Bes@@ 155
Boston 155
Carolina 155
Kwa@@ 155
Sig@@ 155
WWE 155
jazz 155
manga 155
od 155
1860 154
200,000 154
AS 154
Aegean 154
Bat@@ 154
Benjamin 154
Center 154
Geneva 154
IA 154
Nu@@ 154
TA 154
Tro@@ 154
dha 154
etti 154
hir 154
ins@@ 154
iru 154
mili@@ 154
pati@@ 154
,@@ 153
1902 153
Alfa 153
Ibrahim 153
Marko 153
Mati@@ 153
Shin@@ 153
Sud@@ 153
Time 153
ahada 153
aleta 153
als 153
apu 153
kung 153
tika 153
zuri 153
Antonio 152
Ev@@ 152
Kiaus@@ 152
Lor@@ 152
Pot@@ 152
Red 152
Siberia 152
Vincent 152
insi 152
ize 152
mez@@ 152
wahili 152
wor@@ 152
02 151
1907 151
59@@ 151
AC@@ 151
AI@@ 151
Gro@@ 151
Oxford 151
Qur@@ 151
RE@@ 151
Show 151
ambazaji 151
ante 151
ates 151
awesi 151
inad@@ 151
ney 151
oya 151
tezi 151
use 151
1924 150
Amin 150
Astronom@@ 150
Christopher 150
Day@@ 150
Dun@@ 150
EP 150
Fi@@ 150
IN@@ 150
Id@@ 150
Neg@@ 150
Pin@@ 150
Prince 150
Yas@@ 150
hy@@ 150
ich 150
oua 150
AB@@ 149
Day 149
Fa@@ 149
Laos 149
Liga 149
Nah@@ 149
Napoli 149
Old 149
Otto 149
Peru 149
Sep@@ 149
Steve 149
Tom 149
adri 149
gi 149
ps 149
1800 148
18@@ 148
Disney 148
Haw@@ 148
Lok@@ 148
Mass@@ 148
Pent@@ 148
Pom@@ 148
Umb@@ 148
Up 148
bar 148
bra 148
delta 148
dik@@ 148
dikt@@ 148
izi@@ 148
yid 148
1625 147
Bayer 147
Buh@@ 147
Ful@@ 147
Hamburg 147
M.@@ 147
Prot@@ 147
Tem@@ 147
Tos@@ 147
Tup@@ 147
afanuzi 147
akus@@ 147
angilio 147
awaida 147
ies 147
inev@@ 147
lak@@ 147
tur@@ 147
unya 147
was 147
well 147
ו@@ 147
109 146
40,000 146
Bob 146
Cib@@ 146
K. 146
Sad@@ 146
Wik@@ 146
ep 146
isiwa 146
kok@@ 146
low 146
odia 146
rud@@ 146
www.@@ 146
yc@@ 146
yer@@ 146
市 146
1836 145
Frederick 145
Kand@@ 145
Kuch@@ 145
Mau 145
Patr@@ 145
atu@@ 145
ett 145
hit@@ 145
ism 145
oki 145
ony 145
yn@@ 145
140 144
1911 144
25,@@ 144
Abdul@@ 144
Kind@@ 144
Lag@@ 144
Pennsylvania 144
Pretoria 144
Sor@@ 144
Vin@@ 144
adia 144
atani 144
aunti 144
aw 144
eda 144
glut@@ 144
kaya 144
oste 144
pap@@ 144
str@@ 144
tic 144
101 143
1880 143
1921 143
America 143
Gog@@ 143
José 143
Khar@@ 143
MC 143
Saf@@ 143
Sho@@ 143
Tand@@ 143
Tours 143
US 143
pro 143
ugo 143
ving@@ 143
Bid@@ 142
C.@@ 142
Jordan 142
Kub@@ 142
Mang@@ 142
Tel@@ 142
ahara 142
ambuli@@ 142
baa 142
bira 142
hed@@ 142
http 142
mali@@ 142
mark 142
oec@@ 142
oja 142
oper@@ 142
own 142
ˈ@@ 142
​ 142
110 141
Aur@@ 141
CA@@ 141
DP 141
Fe@@ 141
Hai@@ 141
Mr. 141
Orchestra 141
age@@ 141
da@@ 141
hu 141
jaw@@ 141
oso 141
piano 141
singi 141
sy@@ 141
tari@@ 141
thi@@ 141
unde 141
uwe@@ 141
37@@ 140
Antoni 140
Boy 140
Dav@@ 140
Gol@@ 140
Jab@@ 140
Khalifa 140
Mav@@ 140
Mike 140
Nach@@ 140
Norway 140
Ontario 140
Scotland 140
São 140
abr@@ 140
ampa 140
ehebu 140
fus@@ 140
hil@@ 140
ico 140
ings 140
issa 140
kimya 140
nor@@ 140
ufe 140
war 140
ys@@ 140
1,4@@ 139
12,000 139
1884 139
1887 139
1904 139
Afro 139
Lincoln 139
Ma 139
Nus@@ 139
Pac 139
Press 139
RA 139
Sun 139
abi@@ 139
his@@ 139
jal@@ 139
kulu 139
moy@@ 139
sou@@ 139
Beach 138
DA 138
Dami@@ 138
Institute 138
Nim@@ 138
Oy@@ 138
PA 138
Peters 138
Saba 138
Tut@@ 138
Zab@@ 138
aff@@ 138
buni 138
enz@@ 138
from 138
idia 138
inka 138
km2 138
ology 138
1899 137
Blue 137
Durban 137
G. 137
Win@@ 137
ikan@@ 137
lind@@ 137
otor@@ 137
ping@@ 137
tago 137
zen@@ 137
Abit@@ 136
Gir@@ 136
Great 136
Laur@@ 136
Lazio 136
Qaeda 136
Sultan 136
Tav@@ 136
Yus@@ 136
bs 136
ejeo 136
huba 136
kaf@@ 136
kupum@@ 136
lif@@ 136
meth@@ 136
obe 136
vin 136
11.@@ 135
124@@ 135
1891 135
53@@ 135
EC@@ 135
Gas@@ 135
Kang@@ 135
Mont@@ 135
Peace 135
Sweden 135
Territory 135
abab@@ 135
aluma 135
ekodi 135
imeh@@ 135
run@@ 135
1898 134
Dani@@ 134
ES@@ 134
Est@@ 134
Gaza 134
Gold 134
Haf@@ 134
Nat@@ 134
Road 134
Trans 134
agu@@ 134
beta 134
dai 134
gre@@ 134
ks@@ 134
pik 134
160 133
57@@ 133
Bin 133
Frankfurt 133
Ibn 133
Iw@@ 133
Jr 133
Lum@@ 133
Margaret 133
Neb@@ 133
Vanuatu 133
Wel@@ 133
`@@ 133
adiliko 133
ci 133
elezi 133
my@@ 133
non 133
owe 133
yok@@ 133
ão 133
Bang@@ 132
Ca@@ 132
Fort 132
Gau@@ 132
Kaw@@ 132
Mariah 132
Romania 132
Seg@@ 132
acho 132
azia 132
bero 132
els 132
indano 132
kran@@ 132
media 132
ns 132
ode 132
solo 132
thiop@@ 132
1,6@@ 131
ARC 131
Alek@@ 131
Anne 131
Beng@@ 131
CL@@ 131
Dol@@ 131
Hes@@ 131
Jen@@ 131
Kot@@ 131
Lang@@ 131
Max@@ 131
Rug@@ 131
Sag@@ 131
Sali@@ 131
Ze@@ 131
bera 131
efu 131
ekw@@ 131
gl@@ 131
ill 131
kuru 131
oué 131
sions 131
sok@@ 131
ա@@ 131
1791 130
1839 130
1915 130
22,@@ 130
Andes 130
Barn@@ 130
Chem@@ 130
Fon@@ 130
Med@@ 130
Roger 130
Toyota 130
atr@@ 130
che@@ 130
col@@ 130
ets 130
hug@@ 130
mang 130
yeo 130
1897 129
1901 129
Alex 129
Brian 129
Is 129
Nin@@ 129
Russia 129
Solomon 129
Tov@@ 129
XIV 129
ales 129
amerika 129
fre@@ 129
lands 129
nav@@ 129
pom@@ 129
sol@@ 129
ten 129
tes 129
á@@ 129
ô@@ 129
ō@@ 129
Amb@@ 128
Ann@@ 128
CE@@ 128
Film 128
Fin@@ 128
His@@ 128
Lom@@ 128
Orange 128
ajika 128
ambe 128
aud@@ 128
ebu 128
elem@@ 128
fululizo 128
kuliwa 128
ky 128
lie 128
lis 128
ole@@ 128
pil@@ 128
ster 128
xi 128
47@@ 127
500,000 127
60,000 127
Baden 127
Davis 127
Hy@@ 127
Kos@@ 127
Mob@@ 127
Wilhelm 127
Ya@@ 127
aam 127
aland 127
amar@@ 127
enza 127
rak@@ 127
uala 127
ugenzi 127
00 126
10.@@ 126
1866 126
9,000 126
Cambridge 126
Emmanuel 126
France 126
Gabriel 126
Hesse 126
Krist@@ 126
Movement 126
Obama 126
Panama 126
Rem@@ 126
Street 126
ag 126
ations 126
auso 126
bury 126
elia 126
hr@@ 126
neo 126
olia 126
ty@@ 126
yr@@ 126
ANC 125
Ard@@ 125
Arts 125
Free 125
Fur@@ 125
Kairo 125
Steven 125
banda 125
jan 125
kes 125
lin 125
lu 125
sand@@ 125
130 124
27,@@ 124
Bank 124
Dakar 124
Hollywood 124
Lil@@ 124
Nov@@ 124
Nur@@ 124
Ong@@ 124
Post 124
Pu@@ 124
Ruv@@ 124
Sis@@ 124
alm@@ 124
anze 124
asin 124
cl@@ 124
emokrasia 124
ener@@ 124
ful@@ 124
kos@@ 124
laz@@ 124
mashu@@ 124
opera 124
sonia 124
tata 124
tin 124
uri@@ 124
1892 123
75@@ 123
Beijing 123
CS@@ 123
Cop@@ 123
Earth 123
England 123
Grace 123
Howard 123
Hussein 123
Lil 123
Naz@@ 123
Pap@@ 123
Rashid 123
Sat@@ 123
Venezuela 123
Yam@@ 123
alla 123
ao@@ 123
ax 123
ays 123
del@@ 123
enn@@ 123
fel@@ 123
gul@@ 123
ichana 123
ide 123
isiti@@ 123
iss@@ 123
land@@ 123
ling 123
mor@@ 123
my 123
num@@ 123
ongoz@@ 123
out 123
sou 123
thro@@ 123
unj@@ 123
ven@@ 123
ï@@ 123
201@@ 122
24,@@ 122
Be 122
Blo@@ 122
Centre 122
Development 122
Ga@@ 122
Kaf@@ 122
Lat@@ 122
Len@@ 122
PE@@ 122
Qatar 122
Ross 122
andinavia 122
aun@@ 122
bomba 122
doba 122
ehem@@ 122
etta 122
ex@@ 122
ga@@ 122
hala 122
imia 122
keti 122
raga 122
reg@@ 122
til@@ 122
„ 122
103 121
105 121
119@@ 121
1895 121
Alfred 121
Dũng 121
Ellen 121
Iceland 121
Isaac 121
Juventus 121
Nap@@ 121
Num@@ 121
Oc@@ 121
On 121
Pau@@ 121
Taiwan 121
Tamb@@ 121
Tas@@ 121
UK@@ 121
We 121
ariadha 121
din 121
fer@@ 121
idizi 121
isini 121
kiza 121
krom@@ 121
olo@@ 121
otop@@ 121
ungufu 121
4000 120
Aqu@@ 120
Bosnia 120
Brothers 120
Cat@@ 120
Cre@@ 120
Ele@@ 120
Fox 120
L. 120
Live 120
Lạc 120
Main 120
Napoleon 120
Nye@@ 120
Ran@@ 120
Shir@@ 120
Tag@@ 120
Vig@@ 120
XV 120
Zin@@ 120
adan 120
att@@ 120
cu@@ 120
dei 120
enger 120
eski 120
eu 120
ics 120
imto 120
key 120
rav@@ 120
rei 120
ski 120
ym@@ 120
34@@ 119
Daily 119
Die 119
FO@@ 119
H. 119
Haiti 119
Kem@@ 119
Kok@@ 119
Laden 119
Laz@@ 119
Lem@@ 119
Leon@@ 119
Now 119
Rail@@ 119
Shi@@ 119
Sm@@ 119
WHO 119
akh 119
athi 119
bis@@ 119
eck 119
erina 119
fo 119
giji 119
ikal@@ 119
106 118
115@@ 118
360 118
Ahmad 118
Anast@@ 118
Canterbury 118
Dur@@ 118
Foreign 118
Global 118
Haz@@ 118
Kuh@@ 118
Lombar@@ 118
Red@@ 118
Sicilia 118
Sus@@ 118
adhimishwa 118
ck 118
con@@ 118
dan 118
ebi 118
ebo@@ 118
fur 118
ight 118
inum 118
ishati 118
jili 118
kl@@ 118
klin@@ 118
mbing@@ 118
pag@@ 118
tete 118
1200 117
1861 117
1871 117
60@@ 117
Allen 117
Apo@@ 117
Da 117
Gil@@ 117
Kath@@ 117
Lake 117
Lub@@ 117
Mub@@ 117
Stanley 117
Tek@@ 117
auli@@ 117
ayan 117
ayi 117
eland 117
fas@@ 117
ifuata 117
iliyor@@ 117
ja@@ 117
kak@@ 117
ny 117
ors 117
uth@@ 117
ward 117
1,8@@ 116
Bonif@@ 116
CNN 116
Div@@ 116
Hem@@ 116
Hills 116
Kelly 116
Lati@@ 116
Nan@@ 116
Raf@@ 116
SS 116
SS@@ 116
Uni@@ 116
ack 116
alie 116
aster@@ 116
atan@@ 116
chin@@ 116
dugu 116
fes@@ 116
grav@@ 116
igano 116
inn@@ 116
meng@@ 116
ock 116
pri@@ 116
tok@@ 116
uc@@ 116
vo@@ 116
á 116
1,9@@ 115
1893 115
26,@@ 115
Allah 115
Alliance 115
Cle@@ 115
Deb@@ 115
Dog@@ 115
Op@@ 115
Usw@@ 115
Var@@ 115
Wand@@ 115
aksi 115
art 115
avia 115
cr@@ 115
kamera 115
mojaw@@ 115
oth 115
our@@ 115
pyuta 115
ros@@ 115
sun@@ 115
tet@@ 115
vena 115
zab@@ 115
25,000 114
450 114
BC 114
Bundesliga 114
Diego 114
Dou@@ 114
Harris 114
Living@@ 114
Long 114
Max 114
Santos 114
Suez 114
Tim 114
Tus@@ 114
Villa 114
aan 114
dam@@ 114
eim@@ 114
kin 114
more 114
oug@@ 114
ters 114
unguko 114
én@@ 114
1894 113
Alpha 113
Atlanta 113
Claire 113
Eric 113
Jan@@ 113
Ltd 113
Luis 113
Ohio 113
Ony@@ 113
Orleans 113
Pam@@ 113
Pan 113
WA 113
able 113
ador 113
amm@@ 113
anna 113
aq 113
arg@@ 113
awia 113
band@@ 113
eci@@ 113
hep@@ 113
ory 113
semin@@ 113
theid 113
zee 113
ø@@ 113
ː 113
170 112
1840 112
43@@ 112
Ankara 112
Bayern 112
Cup 112
F. 112
Girls 112
Kazakhstan 112
Lak@@ 112
Microsoft 112
RI 112
Serie 112
Stephen 112
Theatre 112
abiashara 112
bai 112
bie 112
enzo 112
him 112
ispaa 112
nh@@ 112
yor@@ 112
107 111
21,@@ 111
Adolf 111
Anderson 111
Arabia 111
CB 111
Ezra 111
Gem@@ 111
Ot@@ 111
Sas@@ 111
Seng@@ 111
Sinai 111
Tol@@ 111
Tou@@ 111
ated 111
bee 111
enberg 111
esti 111
got@@ 111
ias 111
isti@@ 111
mazo@@ 111
pet@@ 111
sius 111
town 111
usur@@ 111
Ale@@ 110
BA 110
Baby 110
Bern@@ 110
Buy@@ 110
Dennis 110
Faus@@ 110
Front 110
Hand@@ 110
Hans 110
Harry 110
Marcus 110
Morocco 110
Shah 110
Silva 110
Soul 110
Tre@@ 110
Trier 110
Youth 110
ainishaji 110
bati@@ 110
bez@@ 110
hom@@ 110
iza 110
may@@ 110
omin@@ 110
ons@@ 110
ow 110
sch@@ 110
soni 110
ָ@@ 110
Art 109
Cy@@ 109
ER@@ 109
Konstant@@ 109
Luc@@ 109
NA 109
Pa@@ 109
RI@@ 109
RT 109
Rap 109
Seoul 109
Sit@@ 109
^ 109
andisi 109
angi@@ 109
chen@@ 109
enze 109
madeni 109
md@@ 109
ont@@ 109
ton@@ 109
wara 109
50@@ 108
80@@ 108
Barbara 108
By@@ 108
Cro@@ 108
Denis 108
Dub@@ 108
Fad@@ 108
Gun@@ 108
Gur@@ 108
Houston 108
Lac@@ 108
Lawrence 108
Milan 108
Mum@@ 108
Queens 108
Shel@@ 108
Song 108
Valley 108
Victor 108
Wallace 108
Wor@@ 108
Yak@@ 108
alum 108
edo 108
ff 108
ison 108
kg 108
kugawa 108
kukus@@ 108
ly@@ 108
mom@@ 108
ness 108
ose 108
owa 108
poin@@ 108
sburg 108
yang@@ 108
ó@@ 108
ī@@ 108
1,7@@ 107
2,0@@ 107
34,@@ 107
AR 107
Bell@@ 107
Bé@@ 107
Country 107
Galil@@ 107
MS@@ 107
Minnesota 107
Mississippi 107
Nation 107
Pep@@ 107
Ren@@ 107
Sarah 107
Sev@@ 107
Slovenia 107
Timor 107
Uruguay 107
ick@@ 107
ier@@ 107
lywood 107
muh@@ 107
ometr@@ 107
taki 107
tor 107
118@@ 106
ABC 106
Abdul 106
Afric@@ 106
Aks@@ 106
Amsterdam 106
Can 106
Daw@@ 106
Juan 106
Lewis 106
Ray 106
Sid@@ 106
Ther@@ 106
Whit@@ 106
atus 106
eus 106
lov@@ 106
mtaal@@ 106
oster@@ 106
ric@@ 106
ser 106
undisho 106
1881 105
Abdullah 105
District 105
Fun@@ 105
Girl 105
Mafia 105
Nol@@ 105
North@@ 105
Pemb@@ 105
Sports 105
Vod@@ 105
ein 105
eman 105
graf@@ 105
ide@@ 105
ien 105
ingen 105
men 105
nach@@ 105
not@@ 105
off 105
teri 105
tivo 105
12.@@ 104
Banda 104
Bra@@ 104
Brooklyn 104
Cass@@ 104
Chin@@ 104
Donald 104
Jaz@@ 104
Kennedy 104
Lup@@ 104
Oscar 104
Rah@@ 104
Res@@ 104
UU 104
Ung@@ 104
agr@@ 104
alon@@ 104
ambuliaji 104
ath 104
blog@@ 104
etab@@ 104
gon 104
hudi 104
kilogr@@ 104
kitab@@ 104
out@@ 104
para 104
sti@@ 104
up 104
ver 104
wang 104
290 103
38@@ 103
AF@@ 103
Bam@@ 103
Bernard 103
COVID 103
Corps 103
Felix 103
Jacob 103
Je 103
Nature 103
Pir@@ 103
Porto 103
Sow@@ 103
Township 103
alay@@ 103
aran@@ 103
asio 103
atie 103
audio 103
baj@@ 103
ei@@ 103
heim 103
rah@@ 103
riz@@ 103
ump@@ 103
1,3@@ 102
114@@ 102
3,0@@ 102
Bau@@ 102
Camb@@ 102
Colorado 102
Copa 102
Emmy 102
Equ@@ 102
Little 102
Mod@@ 102
Mom@@ 102
Mongolia 102
NBA 102
Nana 102
Network 102
T. 102
TE@@ 102
Wol@@ 102
XVII 102
Yo 102
Zak@@ 102
Zel@@ 102
aifa 102
beb@@ 102
dol@@ 102
esi@@ 102
ft 102
hol@@ 102
inz@@ 102
kah@@ 102
king 102
log@@ 102
lol@@ 102
nas@@ 102
pedia 102
uklia 102
108 101
1830 101
1850 101
320 101
Adri@@ 101
Alaska 101
Alb@@ 101
Bolivia 101
Boys 101
Brooks 101
Council 101
Ep@@ 101
Game 101
Gl@@ 101
Helen 101
Key@@ 101
Maryland 101
Pak@@ 101
Pop 101
Rak@@ 101
Tang@@ 101
ahu 101
andra 101
anger 101
aus 101
bou@@ 101
department 101
ef 101
eter@@ 101
fo@@ 101
into 101
keli 101
kh 101
port 101
thumb 101
urujia 101
1600 100
1700 100
1909 100
28,@@ 100
Bush 100
Business 100
Chil@@ 100
Church 100
Corporation 100
Dre 100
Forbes 100
Haj@@ 100
Iz@@ 100
Kamer@@ 100
Leopold 100
Lev@@ 100
dal@@ 100
giz@@ 100
inge 100
ment 100
orum 100
oy 100
spek@@ 100
teria 100
zur@@ 100
1869 99
36,@@ 99
Agost@@ 99
Aires 99
Ann 99
Azerbaijan 99
Bavaria 99
Bec@@ 99
Bell 99
Benn@@ 99
Chal@@ 99
Emer@@ 99
Huy@@ 99
Ian 99
Lady 99
Lov@@ 99
Mario 99
Not@@ 99
Oliver 99
Seb@@ 99
Thailand 99
Tottenham 99
agara 99
anisi 99
aph@@ 99
dop@@ 99
end 99
etto 99
gio 99
ien@@ 99
nan 99
u.@@ 99
æ@@ 99
1,5@@ 98
270 98
Abo@@ 98
Adi@@ 98
Albania 98
Anton@@ 98
Athens 98
Bahrain 98
Buenos 98
Cabo 98
Cav@@ 98
Cent@@ 98
Ci@@ 98
FDA 98
Gel@@ 98
Henri 98
Heroes 98
Lebanon 98
Ludwig 98
RD 98
Tennessee 98
Tik@@ 98
Valencia 98
Wall 98
aik@@ 98
een 98
feri 98
hist@@ 98
iche 98
ikh 98
jar@@ 98
likia 98
lob@@ 98
mr@@ 98
ran 98
senti@@ 98
shire 98
ting 98
va@@ 98
ê@@ 98
13.@@ 97
300,000 97
550 97
Ass@@ 97
Beta 97
Chim@@ 97
Din@@ 97
Fri@@ 97
Gordon 97
Just@@ 97
Karag@@ 97
Lar@@ 97
Mok@@ 97
Naj@@ 97
Pic@@ 97
Plateau 97
Rom 97
USA 97
Windows 97
Württemberg 97
XL@@ 97
ass 97
assi 97
besi 97
enne 97
ensa 97
ides 97
ines 97
leh@@ 97
leri 97
rey 97
risto 97
ste@@ 97
taz 97
ud 97
via 97
150,000 96
1882 96
Basil@@ 96
Bruce 96
Bruno 96
Cole 96
Gary 96
Hawaii 96
Ind@@ 96
Jol@@ 96
Joyce 96
Let@@ 96
Lucas 96
MS 96
Movie 96
Philip 96
Tah@@ 96
ally 96
ester@@ 96
ister@@ 96
itz 96
iz 96
lea 96
mate 96
nch@@ 96
pare 96
pul@@ 96
ray 96
37,@@ 95
Clinton 95
Douglas 95
Eg@@ 95
Gab@@ 95
Guyana 95
Irak 95
Jonathan 95
Lik@@ 95
Maurit@@ 95
Mid@@ 95
PS@@ 95
Pil@@ 95
Prim@@ 95
Puerto 95
Rico 95
Standard 95
Wood@@ 95
auf@@ 95
ente 95
erg@@ 95
galak@@ 95
if 95
lei 95
mari 95
mes 95
pur@@ 95
sky 95
tera 95
tic@@ 95
timi@@ 95
trans@@ 95
usim@@ 95
wei 95
ə@@ 95
Angel@@ 94
Cool 94
ET 94
Facebook 94
Family 94
IP@@ 94
Johannes 94
Junior 94
PhD 94
Pres@@ 94
SE@@ 94
Shi 94
Tanz@@ 94
Tet@@ 94
That 94
Tum@@ 94
Volta 94
Water@@ 94
Yan@@ 94
anag@@ 94
asso 94
house 94
inia 94
lat 94
lev@@ 94
name 94
ologia 94
oun 94
poti 94
sig@@ 94
sing@@ 94
var@@ 94
1883 93
63@@ 93
Dah@@ 93
Emb@@ 93
Greenland 93
Hai 93
Ligue 93
Magdalena 93
Nathan 93
Poly@@ 93
Saudi 93
Ses@@ 93
Singles 93
Super@@ 93
Toronto 93
Viz@@ 93
Wais@@ 93
Wall@@ 93
Wayne 93
air 93
alis 93
ank@@ 93
arm@@ 93
asy 93
atha 93
ator@@ 93
emaji 93
frey 93
ikizo 93
lah 93
opot@@ 93
sander 93
st 93
tii 93
tion 93
ū@@ 93
β 93
104 92
305 92
70@@ 92
Aristot@@ 92
Bologna 92
Claude 92
European 92
For 92
Friedrich 92
Jane 92
Mih@@ 92
Pav@@ 92
Rum@@ 92
Studios 92
Warner 92
Zo@@ 92
epa 92
ges 92
istil@@ 92
odo@@ 92
pik@@ 92
pora 92
sti 92
sy 92
tay@@ 92
ther@@ 92
ē@@ 92
100@@ 91
112 91
750 91
Amar@@ 91
Angela 91
B.@@ 91
Back 91
Baf@@ 91
Black@@ 91
Dev@@ 91
Franklin 91
Himalaya 91
Ice 91
Jennifer 91
Kevin 91
ML@@ 91
Mart@@ 91
Petr@@ 91
Quebec 91
Rouge 91
Sara 91
Ton@@ 91
Top 91
Wi@@ 91
Zan@@ 91
ait 91
ams 91
antan 91
arufu 91
bah 91
bat@@ 91
engel@@ 91
ers@@ 91
esta 91
fe@@ 91
hadi@@ 91
idge 91
isio 91
iwemo 91
leng@@ 91
nu@@ 91
opi 91
pep@@ 91
pir@@ 91
poli 91
sid@@ 91
tig@@ 91
udani 91
usan 91
vio 91
ç@@ 91
š@@ 91
116@@ 90
2,9@@ 90
Afr@@ 90
Chik@@ 90
Emilia 90
Festival 90
Fol@@ 90
Hid@@ 90
Jac@@ 90
Kali@@ 90
Khal@@ 90
MO 90
Marvel 90
Mr 90
ST@@ 90
Southampton 90
Spe@@ 90
aca 90
aman 90
ansi 90
gee 90
illo 90
metab@@ 90
nun@@ 90
ves 90
ë@@ 90
1865 89
210 89
AD 89
CM@@ 89
Campania 89
Cot@@ 89
Cuba 89
Dec@@ 89
God 89
IP 89
Kenneth 89
Lah@@ 89
Raymond 89
Ruf@@ 89
Ruh@@ 89
Tok@@ 89
Tul@@ 89
amis 89
anao 89
aux 89
bron@@ 89
chim@@ 89
dad 89
eu@@ 89
ev 89
jed@@ 89
marais 89
meme 89
o. 89
taw@@ 89
tri 89
él@@ 89
117@@ 88
240 88
6000 88
650 88
Akh@@ 88
All@@ 88
Angel 88
Arab 88
Charlotte 88
E.@@ 88
Gis@@ 88
Good@@ 88
Gul@@ 88
Jak@@ 88
Jimmy 88
Joshua 88
Las 88
Luxemburg 88
Newton 88
Paraguay 88
Shim@@ 88
Uzbekistan 88
XIX 88
Yor@@ 88
adies 88
dhul@@ 88
elius 88
endaji 88
fos@@ 88
hand@@ 88
kan 88
lan 88
luk@@ 88
mej@@ 88
mkus@@ 88
ogi 88
ret@@ 88
wand@@ 88
zio 88
125 87
1857 87
Alexandria 87
Ambro@@ 87
Bog@@ 87
Channel 87
Chiba 87
Cru@@ 87
Din 87
Europa 87
Gang@@ 87
Good 87
Kn@@ 87
Les 87
Many@@ 87
Marshall 87
Maurice 87
Migu@@ 87
Opera 87
Salvador 87
Santiago 87
Secondary 87
ail 87
ambu 87
bay 87
bon 87
bro@@ 87
cher 87
dos 87
habiki 87
ones 87
ron@@ 87
ted 87
ב@@ 87
1838 86
1867 86
Alan 86
Bagh@@ 86
Cab@@ 86
Ever@@ 86
Kho@@ 86
Kosovo 86
Kud@@ 86
Leon 86
Master 86
Montenegro 86
Mount 86
Republican 86
To 86
Vel@@ 86
Vladimir 86
asu 86
diana 86
fab@@ 86
her 86
inflam@@ 86
neur@@ 86
other@@ 86
pah@@ 86
sei 86
sis 86
1.2 85
113 85
260 85
325 85
380 85
Alvar@@ 85
Apple 85
Bernardo 85
Bih@@ 85
Bit@@ 85
Gabri@@ 85
Hos@@ 85
I.@@ 85
Jan 85
Khmer 85
Law 85
Lib@@ 85
Mek@@ 85
Missouri 85
Muz@@ 85
Ne 85
Oman 85
Ry@@ 85
Sib@@ 85
Unit 85
XVIII 85
aro@@ 85
atao 85
gen 85
has 85
illi@@ 85
illy 85
imoto 85
istan 85
itus 85
jug@@ 85
omp@@ 85
pokeo 85
star@@ 85
uan 85
uma@@ 85
uvisiwa 85
yl 85
É@@ 85
1,500 84
1815 84
1856 84
220 84
230 84
280 84
313 84
Adams 84
Alice 84
Andr@@ 84
Bati@@ 84
DD 84
Eliz@@ 84
Football 84
Fres@@ 84
Giovanni 84
Hag@@ 84
Ho 84
Irene 84
Leg@@ 84
Miami 84
Mill@@ 84
Nev@@ 84
Rap@@ 84
Rock@@ 84
SI 84
Shet@@ 84
Thes@@ 84
Yi 84
adini 84
alam 84
effer 84
ete@@ 84
harama 84
hindi 84
ier 84
kar 84
med@@ 84
othe@@ 84
path@@ 84
yoy@@ 84
zav@@ 84
1864 83
400,000 83
Arch@@ 83
Bismarck 83
Bob@@ 83
Bour@@ 83
DVD 83
Ernest 83
Eus@@ 83
Ferdinand 83
Florence 83
Gam@@ 83
Git@@ 83
Grant 83
Jacques 83
Johann 83
Lav@@ 83
Lisbon 83
Mali@@ 83
Meg@@ 83
Miller 83
Moses 83
Nikola 83
Power 83
RO@@ 83
Sevilla 83
Slovakia 83
Tour@@ 83
Walt 83
Will 83
` 83
af 83
alist@@ 83
amen@@ 83
astr@@ 83
ats 83
austr@@ 83
char@@ 83
dish 83
don 83
ede 83
hid@@ 83
law@@ 83
long@@ 83
net 83
osta 83
ouk 83
reh@@ 83
ru 83
were 83
ר@@ 83
1863 82
3,7@@ 82
310 82
330 82
AA 82
Air@@ 82
Arizona 82
Community 82
Dublin 82
Heinrich 82
Hun@@ 82
Indiana 82
Kach@@ 82
Kash@@ 82
Kost@@ 82
Leeds 82
Lop@@ 82
MP@@ 82
Mem@@ 82
Reb@@ 82
Rid@@ 82
Ryan 82
Sinema 82
Susan 82
Thel@@ 82
Trinidad 82
Wiss@@ 82
Yoh@@ 82
Zen@@ 82
abo@@ 82
api@@ 82
arra 82
atta 82
eb 82
gy 82
hariki 82
i.@@ 82
ical 82
kha 82
lam 82
optera 82
rid@@ 82
uge 82
zah@@ 82
ː@@ 82
א@@ 82
115 81
1300 81
Alt@@ 81
Ball@@ 81
Buch@@ 81
CU@@ 81
DO@@ 81
Dro@@ 81
Ez@@ 81
Finland 81
Force 81
Hav@@ 81
Herzegovina 81
Kardin@@ 81
Land@@ 81
Lou@@ 81
Matt 81
PN@@ 81
RA@@ 81
Sony 81
Taj@@ 81
Taliban 81
Television 81
Yeh@@ 81
alo@@ 81
anim@@ 81
fen@@ 81
form@@ 81
fuatana 81
geg@@ 81
gus@@ 81
ken 81
mel@@ 81
nar@@ 81
pres@@ 81
sar 81
stein 81
tul@@ 81
å@@ 81
ā 81
135 80
1862 80
Alberto 80
Ant@@ 80
Aston 80
Aut@@ 80
Baltimore 80
Bok@@ 80
CN@@ 80
Costa 80
Dance 80
Do 80
EC 80
Hope 80
IL@@ 80
Julia 80
Kle@@ 80
Law@@ 80
Ler@@ 80
Nations 80
Nig@@ 80
Petersburg 80
Sri 80
Stone 80
alifor@@ 80
ellan 80
enti@@ 80
ents 80
eth 80
fran@@ 80
gn@@ 80
har 80
latitu@@ 80
née 80
oi@@ 80
osoma 80
tend@@ 80
ī 80
́ 80
ְ@@ 80
211 79
340 79
Abd 79
Abdel@@ 79
Bremen 79
CA 79
Caesar 79
Chit@@ 79
DE@@ 79
Dul@@ 79
Education 79
Ere@@ 79
Fab@@ 79
Fiji 79
Franco 79
Home 79
Hotel 79
Kre@@ 79
Kuwait 79
Lig@@ 79
Lis@@ 79
Magaz@@ 79
Mauritius 79
Meng@@ 79
Michelle 79
Mk 79
Nath@@ 79
Rif@@ 79
SP@@ 79
Sass@@ 79
Syl@@ 79
Vienne 79
Way 79
What 79
Wu 79
Your 79
aj 79
app@@ 79
cana 79
egr@@ 79
gur@@ 79
inc@@ 79
jap@@ 79
kane 79
ody 79
rad@@ 79
raf@@ 79
side 79
taro 79
won 79
â@@ 79
113@@ 78
1858 78
1879 78
2500 78
AM 78
Arg@@ 78
Bac@@ 78
Bru@@ 78
Congo 78
Connecticut 78
Côte 78
Dag@@ 78
Et@@ 78
Eva 78
Franz 78
Grande 78
Gw@@ 78
Helena 78
Herbert 78
ISBN 78
Inter 78
Kansas 78
Lord 78
Men 78
NASA 78
Nde@@ 78
Path@@ 78
Pit@@ 78
Project 78
Stadium 78
Stewart 78
This 78
Yale 78
Yu@@ 78
aci@@ 78
agh@@ 78
akan 78
alle 78
aram@@ 78
ativ@@ 78
engenezaji 78
ges@@ 78
hid 78
hot@@ 78
izer 78
line 78
osis 78
ots 78
rit@@ 78
she 78
tit@@ 78
117 77
1873 77
29,@@ 77
420 77
Abraham 77
As 77
Bet@@ 77
Birmingham 77
Bond 77
Cho@@ 77
D.@@ 77
Dum@@ 77
General 77
Gon@@ 77
Kemal 77
Ket@@ 77
Lon@@ 77
Magic 77
Monte 77
Princess 77
Woman 77
ampuni 77
ars 77
atch 77
atil@@ 77
com@@ 77
cor@@ 77
eder@@ 77
eir@@ 77
eye 77
hon@@ 77
kt 77
lar 77
lies 77
old 77
onte 77
opl@@ 77
osom@@ 77
taya 77
tico 77
ה@@ 77
2,6@@ 76
An 76
Ax@@ 76
Aziz 76
Beg@@ 76
Bud@@ 76
Dab@@ 76
Emir 76
FI@@ 76
Grass@@ 76
Hamilton 76
Jam 76
Jun@@ 76
Lad@@ 76
Morav@@ 76
PC@@ 76
Pop@@ 76
Rh@@ 76
Sac@@ 76
Sang@@ 76
Sé@@ 76
Vill@@ 76
abar 76
ades 76
album 76
boya 76
gun 76
ilian 76
ium 76
leen 76
ops 76
ord 76
osia 76
tz 76
yang 76
114 75
14.@@ 75
1400 75
1878 75
3.5 75
40@@ 75
Ajax 75
Amer@@ 75
Beau@@ 75
Cameroon 75
Dan 75
Dr 75
Element@@ 75
Inc. 75
Kaj@@ 75
Karak@@ 75
Litu@@ 75
Lol@@ 75
Morgan 75
Morris 75
Philadelphia 75
RNA 75
SW@@ 75
Shane 75
So 75
Sub@@ 75
Taf@@ 75
Urban 75
Vivi@@ 75
ado@@ 75
amel@@ 75
ape 75
atini 75
ayn@@ 75
azini 75
das 75
dev@@ 75
enj@@ 75
eshim@@ 75
had 75
ibia 75
iye 75
kee 75
onne 75
ores 75
rand 75
rell 75
thia 75
viol@@ 75
yd@@ 75
ּ@@ 75
1.3 74
1100 74
127 74
129 74
1859 74
2,4@@ 74
Bass@@ 74
Diana 74
Down 74
Duke 74
EL@@ 74
Face 74
Gandhi 74
Hasan 74
IG@@ 74
Java 74
Just 74
Martha 74
Mask@@ 74
Miy@@ 74
Nav@@ 74
Out 74
Patricia 74
Point 74
Pri@@ 74
Sanc@@ 74
Stockholm 74
Ubun@@ 74
Vij@@ 74
atem@@ 74
bifu 74
diploma 74
fields 74
fol@@ 74
hoa 74
iliyoz@@ 74
isto 74
kro@@ 74
mivu 74
oh 74
oon 74
oton@@ 74
proj@@ 74
rik 74
tors 74
unk@@ 74
zan 74
zilishi 74
× 74
ł@@ 74
137 73
1837 73
1844 73
1876 73
250,000 73
35,@@ 73
451 73
540 73
74@@ 73
AT 73
AZ@@ 73
Abbas 73
Armstrong 73
BM@@ 73
Berg@@ 73
CIA 73
Campbell 73
Coc@@ 73
Cos@@ 73
Dig@@ 73
Dob@@ 73
Eb@@ 73
Epidem@@ 73
Iran@@ 73
Isid@@ 73
Ivan 73
Jal@@ 73
Jap@@ 73
Kiev 73
LO@@ 73
Marseille 73
Norman 73
Palm 73
Pur@@ 73
Ray@@ 73
Rhodes 73
Roberto 73
Rosa 73
Ruth 73
Schleswig 73
Tch@@ 73
UN 73
V. 73
ald 73
allo 73
ands 73
bit@@ 73
can@@ 73
ce@@ 73
court 73
didae 73
eira 73
ign@@ 73
mem@@ 73
olog@@ 73
reggae 73
sini 73
thu@@ 73
ugen@@ 73
uya 73
wur@@ 73
yg@@ 73
· 73
1.6 72
1875 72
19@@ 72
212 72
520 72
Austin 72
Austr@@ 72
Bh@@ 72
Bran@@ 72
Burma 72
CP@@ 72
Carr@@ 72
Child 72
Eugene 72
Fernando 72
Fund@@ 72
Future 72
Gn@@ 72
Hau@@ 72
J.@@ 72
Jose 72
Kund@@ 72
Lanka 72
Lili@@ 72
Louisiana 72
Lucy 72
Martin@@ 72
Mond@@ 72
Money 72
Of 72
PC 72
Rod@@ 72
Sean 72
Service 72
Siria 72
Tibet 72
Venezia 72
Voice 72
Zh@@ 72
Zuh@@ 72
amad@@ 72
aren 72
aton 72
cher@@ 72
cio 72
dad@@ 72
dale 72
day 72
deb@@ 72
diz@@ 72
ellen@@ 72
fam@@ 72
film 72
istr@@ 72
itz@@ 72
klor@@ 72
let 72
obi@@ 72
ovich 72
plas@@ 72
tif@@ 72
worth 72
田 72
1.4 71
1874 71
3,6@@ 71
39,@@ 71
480 71
850 71
Aber@@ 71
D.C. 71
Dallas 71
Everton 71
Fred 71
Get 71
Gray 71
IT@@ 71
Night 71
Robin 71
Schutz@@ 71
Sergio 71
She 71
Space 71
Sto@@ 71
Story 71
Toledo 71
XX 71
abak@@ 71
abul@@ 71
angu@@ 71
anth@@ 71
auer 71
ely 71
enburg 71
ense 71
fit@@ 71
iji 71
islam 71
itw@@ 71
kay@@ 71
kubor@@ 71
olim@@ 71
oti@@ 71
rem@@ 71
sc@@ 71
tai 71
tica 71
u. 71
uhan 71
viel@@ 71
zek@@ 71
zie 71
án 71
111 70
1841 70
19.@@ 70
2,5@@ 70
251 70
30,@@ 70
302 70
32,@@ 70
370 70
46@@ 70
Afro@@ 70
Aman@@ 70
Anay@@ 70
Brussels 70
CP 70
Catherine 70
Dream 70
Esp@@ 70
Ey@@ 70
Falls 70
Gra@@ 70
Han 70
Harrison 70
Heart 70
Him@@ 70
IAAF 70
Lamb@@ 70
Manuel 70
Mic@@ 70
Nicolas 70
Pug@@ 70
Rot@@ 70
Rup@@ 70
Santo 70
Sec@@ 70
Sheffield 70
Singapore 70
Tour 70
Zah@@ 70
ady 70
amine 70
atlan@@ 70
aug@@ 70
diplom@@ 70
dog@@ 70
ean 70
ester 70
fl@@ 70
hie 70
inger@@ 70
insul@@ 70
ishug@@ 70
kov@@ 70
mong 70
nes 70
opath@@ 70
ovi@@ 70
ses 70
sinte@@ 70
tel 70
try 70
uppe 70
vertebr@@ 70
wasi 70
win 70
wit@@ 70
à 70
ʿ@@ 70
0.5 69
1.8 69
1820 69
2,7@@ 69
311 69
33,@@ 69
Abd@@ 69
Barack 69
Baz@@ 69
Duncan 69
EN@@ 69
Fame 69
Got 69
Grim@@ 69
Guinness 69
IF@@ 69
Jah@@ 69
Jason 69
Kuv@@ 69
Liber@@ 69
Mary@@ 69
Mili@@ 69
Mission 69
Nept@@ 69
Nic@@ 69
Palmer 69
Pasha 69
Pra@@ 69
Sea 69
Seattle 69
Stalin 69
States 69
Stella 69
Sung@@ 69
Ted@@ 69
Tib@@ 69
Vie@@ 69
Wer@@ 69
With 69
aine 69
aq@@ 69
arak 69
ban 69
borg 69
cas@@ 69
dij@@ 69
ement 69
enta 69
enter@@ 69
eter 69
ids 69
lock 69
odo 69
plaz@@ 69
sos@@ 69
ston 69
tua 69
ux 69
wh@@ 69
ó 69
ος 69
ḥ@@ 69
17.@@ 68
1846 68
306 68
410 68
430 68
560 68
90@@ 68
Adrian 68
Alabama 68
Au@@ 68
Biss@@ 68
Castro 68
Chap@@ 68
DSM 68
DV@@ 68
Fah@@ 68
Flor@@ 68
Fortun@@ 68
Fro@@ 68
Graham 68
Hermann 68
Iowa 68
Kent 68
Khali@@ 68
Nash 68
O. 68
P.@@ 68
Phil@@ 68
Rich@@ 68
Science 68
Shig@@ 68
Sofia 68
U.S. 68
Uran@@ 68
abad 68
agna 68
aim@@ 68
ano@@ 68
art@@ 68
ast 68
ave 68
borough 68
cre@@ 68
gae 68
hayat@@ 68
inho 68
nat@@ 68
orn 68
ple@@ 68
teki 68
that 68
urdu 68
122 67
1847 67
1848 67
1868 67
1877 67
203 67
309 67
Agnes 67
Ani@@ 67
Auxerre 67
Banks 67
Blackburn 67
Cant@@ 67
Carter 67
Conn@@ 67
Cruz 67
Dave 67
First 67
Ghost 67
Hugo 67
IC 67
Jubil@@ 67
Kant@@ 67
LE@@ 67
MI@@ 67
Melbourne 67
Monica 67
NATO 67
Nazar@@ 67
Organization 67
Pope 67
Rec@@ 67
Ronald 67
Sey@@ 67
Sidi 67
UC@@ 67
Vic@@ 67
Wolf@@ 67
aduni 67
aul@@ 67
avana 67
bana 67
bre@@ 67
e. 67
fom@@ 67
gan 67
kei 67
lau@@ 67
nam 67
omia 67
opar@@ 67
ous@@ 67
sie 67
sim 67
tes@@ 67
yaz@@ 67
yp@@ 67
è@@ 67
מ@@ 67
190 66
215 66
314 66
4,0@@ 66
680 66
7000 66
Airport 66
Alf@@ 66
Apar@@ 66
Bamb@@ 66
Championship 66
Chel@@ 66
Clar@@ 66
Colombia 66
Edgar 66
Ernst 66
Fair@@ 66
Globe 66
Homo 66
Internet 66
Lob@@ 66
Mu 66
Noah 66
Ori@@ 66
Orlando 66
Ow@@ 66
PL@@ 66
Pant@@ 66
Prize 66
SPD 66
TO@@ 66
Tito 66
Warren 66
airo 66
alaya 66
ape@@ 66
aura 66
bola 66
cap@@ 66
cm 66
ebo 66
erian 66
esco 66
fah 66
format 66
lini 66
loc@@ 66
mont 66
org@@ 66
ox@@ 66
qui@@ 66
sang@@ 66
see 66
sis@@ 66
sson 66
urn@@ 66
uss@@ 66
yay@@ 66
yer 66
éd@@ 66
ş@@ 66
1.7 65
124 65
157 65
204 65
209 65
3,8@@ 65
Agr@@ 65
Arkansas 65
Aï@@ 65
Brid@@ 65
Cologne 65
Disk@@ 65
Emirates 65
Gloria 65
Independent 65
Jed@@ 65
Karen 65
Ki 65
Leonard 65
Log@@ 65
MO@@ 65
MT@@ 65
Marche 65
Raw@@ 65
Rog@@ 65
Roy 65
Samp@@ 65
Sof@@ 65
Tin@@ 65
Vor@@ 65
Wright 65
ack@@ 65
alg@@ 65
anes 65
ating 65
azi@@ 65
beck 65
bet@@ 65
biri 65
cin@@ 65
dak@@ 65
eller 65
este 65
fort 65
hij@@ 65
hip@@ 65
ibi 65
inyota 65
los@@ 65
mail 65
ment@@ 65
otom@@ 65
ough 65
pol 65
radio 65
rag@@ 65
rah 65
rie 65
ron 65
san 65
ube 65
ulaya 65
unge@@ 65
urs 65
usiwa 65
ventr@@ 65
wal 65
water 65
wol@@ 65
zuk@@ 65
1852 64
199@@ 64
307 64
4.5 64
640 64
66@@ 64
8000 64
Amazon 64
Anah@@ 64
Bishop 64
Boh@@ 64
Carson 64
Did@@ 64
File 64
François 64
Hali@@ 64
Holstein 64
Hospital 64
If 64
Innoc@@ 64
Kentucky 64
Main@@ 64
Marathon 64
Medi@@ 64
Mé@@ 64
Nom@@ 64
Portland 64
Pos@@ 64
Productions 64
Rita 64
Sa 64
Sham@@ 64
Technology 64
There 64
Vich@@ 64
Wo@@ 64
bal 64
blu@@ 64
din@@ 64
eaux 64
ex 64
hang@@ 64
hiv@@ 64
ib 64
int 64
kilis@@ 64
och 64
ort 64
polis 64
semi 64
star 64
sv@@ 64
tot@@ 64
ulus 64
yani 64
yek@@ 64
ú@@ 64
ō 64
נ@@ 64
123 63
1854 63
1872 63
201 63
206 63
214 63
3,5@@ 63
365 63
431 63
470 63
48@@ 63
5,0@@ 63
AU 63
Ada 63
Allan 63
Andal@@ 63
CBS 63
Chi 63
Curtis 63
Dee 63
Delhi 63
Dim@@ 63
Dir@@ 63
Eastern 63
End 63
Eth@@ 63
Fos@@ 63
Gad@@ 63
Gom@@ 63
High@@ 63
Janet 63
Johnny 63
Kav@@ 63
Kilim@@ 63
Kob@@ 63
Lic@@ 63
ME@@ 63
Mac 63
Mercy 63
Michel 63
NE@@ 63
Olu@@ 63
Palace 63
Pay@@ 63
Plan@@ 63
Silv@@ 63
Simpson 63
Sind@@ 63
T.@@ 63
Tat@@ 63
Walker 63
XXIII 63
abl@@ 63
adel@@ 63
afe 63
agan 63
agawa 63
asis 63
burn 63
dic@@ 63
emat@@ 63
ency 63
entr@@ 63
etr@@ 63
ever 63
ilg@@ 63
italiano 63
itt 63
kini 63
las 63
less 63
model 63
oku 63
ostr@@ 63
teri@@ 63
yon 63
′ 63
1853 62
312 62
440 62
ARA 62
BO@@ 62
BS 62
Barr@@ 62
Bauer 62
Bla@@ 62
Bri@@ 62
CO 62
CT@@ 62
Ce@@ 62
Children 62
Fac@@ 62
Gran@@ 62
Green@@ 62
Gut@@ 62
Hotspur 62
How 62
Jim 62
Konya 62
Kır@@ 62
Laura 62
Lloyd 62
Lost 62
Lot@@ 62
Madonna 62
Manga 62
Mbe@@ 62
Mud@@ 62
Newcastle 62
Oper@@ 62
Out@@ 62
PF 62
PO@@ 62
Powell 62
Py@@ 62
Roc@@ 62
Salzburg 62
Sup@@ 62
Ukraina 62
Universal 62
Valent@@ 62
Venice 62
Versailles 62
When 62
Yal@@ 62
Year 62
aban 62
ague 62
aida 62
alum@@ 62
ander 62
anto 62
athe@@ 62
auch@@ 62
bel 62
gas@@ 62
helik@@ 62
igi@@ 62
iss 62
koa 62
mar 62
mavi 62
nas 62
ning@@ 62
ossa 62
ović 62
ovo 62
pre@@ 62
put@@ 62
sion 62
ska 62
tho@@ 62
western 62
yakula 62
121 61
193 61
49@@ 61
530 61
Adam@@ 61
Agency 61
Bao 61
Buddha 61
Choice 61
Dipl@@ 61
Dut@@ 61
Ferr@@ 61
Flam@@ 61
G.@@ 61
Garcia 61
Glasgow 61
L.@@ 61
Land 61
Monaco 61
Moore 61
Nam 61
Nancy 61
Ner@@ 61
Nevada 61
Nih@@ 61
Nikol@@ 61
Niz@@ 61
Off 61
Screen 61
Sound 61
Sr. 61
Tay@@ 61
Zim@@ 61
abil@@ 61
aden@@ 61
ahr@@ 61
alaria 61
aldo 61
ann 61
asser 61
asta 61
can 61
cat@@ 61
country 61
eau 61
elik 61
epe 61
fer 61
idan 61
ique 61
mat 61
matem@@ 61
mit 61
nan@@ 61
nis@@ 61
posa 61
red 61
s.@@ 61
tula 61
van@@ 61
waliou@@ 61
you 61
ès 61
ש@@ 61
118 60
139 60
202 60
216 60
301 60
308 60
361 60
460 60
Ama@@ 60
Atlas 60
Ces@@ 60
Cit@@ 60
Co 60
Cou@@ 60
Death 60
Delgado 60
Derby 60
Forum 60
Get@@ 60
Gum@@ 60
ICC 60
Ip@@ 60
Iv@@ 60
Jerome 60
Ladies 60
Pauli 60
Pedro 60
Pictures 60
Premier 60
RT@@ 60
Rev@@ 60
Stre@@ 60
Sz@@ 60
Tir@@ 60
Village 60
adir 60
ae@@ 60
agin@@ 60
andamano 60
angle 60
ants 60
ardi 60
arn@@ 60
dal 60
dig@@ 60
entina 60
foro 60
gua 60
jab@@ 60
kunde 60
lib@@ 60
meg@@ 60
ning 60
obo@@ 60
okula 60
oré 60
pens@@ 60
school 60
set 60
sir@@ 60
traf@@ 60
tre 60
wich 60
world 60
1.1 59
155 59
1789 59
1814 59
2,8@@ 59
223 59
23.@@ 59
AG@@ 59
Amp@@ 59
Are 59
Area 59
Ast@@ 59
Brunei 59
CT 59
Cameron 59
Comp@@ 59
Cour@@ 59
Craig 59
End@@ 59
Epi@@ 59
Fund 59
Germain 59
Gram 59
Guatemala 59
Guy 59
Head 59
IT 59
Jackie 59
Kop@@ 59
Mish@@ 59
Nest@@ 59
PR 59
Pascal 59
Pass@@ 59
Pol 59
Row@@ 59
Rud@@ 59
SV 59
Sao 59
Stanford 59
Tobago 59
Wrestling 59
Yusuf 59
ael 59
agog@@ 59
ahu@@ 59
aille 59
brah@@ 59
cer@@ 59
dae 59
dee 59
elly 59
etown 59
etus 59
fich@@ 59
fir@@ 59
fri@@ 59
gar 59
hakikisha 59
hat 59
hou 59
ibe 59
ibo 59
ikistan 59
lon 59
mikro@@ 59
molek@@ 59
obu 59
pili@@ 59
qi@@ 59
shab@@ 59
tein 59
ther 59
top@@ 59
wiki@@ 59
− 59
.S. 58
.jpg 58
16.@@ 58
229 58
316 58
381 58
390 58
ATA 58
Act 58
Atle@@ 58
Avon 58
Beyoncé 58
Bohemia 58
Bush@@ 58
Caes@@ 58
Calvin 58
Georg 58
Jor@@ 58
Leonardo 58
Mills 58
Mitchell 58
Mong@@ 58
Monte@@ 58
Mozart 58
Oli@@ 58
Pearl 58
Phoenix 58
Ronaldo 58
Sap@@ 58
Siena 58
South@@ 58
Stade 58
Ster@@ 58
Sumatra 58
Wesley 58
Wing@@ 58
Yen@@ 58
aco 58
altar@@ 58
amii 58
ater@@ 58
aventura 58
awan 58
contributor 58
dibu@@ 58
diy@@ 58
hija 58
iam 58
lus@@ 58
modi@@ 58
mur@@ 58
onn@@ 58
ozo@@ 58
ping 58
rot@@ 58
seg@@ 58
tie 58
tras@@ 58
trieved 58
³ 58
ś@@ 58
ִ@@ 58
128 57
182 57
1821 57
225 57
22@@ 57
630 57
99@@ 57
Abi@@ 57
Augusto 57
Betty 57
Break 57
Brom@@ 57
Champions 57
Chief 57
Cleveland 57
Come 57
Digital 57
Dong@@ 57
Emma 57
Estonia 57
Gan@@ 57
Hampshire 57
Hits 57
Janeiro 57
K.@@ 57
Magazine 57
Moon 57
Nguy@@ 57
Nike 57
Peak 57
Pro 57
RIAA 57
Rainbow 57
Rav@@ 57
Raven@@ 57
Richards 57
SO@@ 57
Sent@@ 57
Surin@@ 57
Sweet 57
System 57
Whitney 57
ZA 57
afuatwa 57
aniki 57
atic 57
ats@@ 57
bria 57
cel@@ 57
dera 57
eg 57
ering 57
eum 57
habu 57
igan 57
izikia 57
lard 57
leta 57
mea 57
ms 57
oho 57
ott 57
pH 57
rec@@ 57
robot@@ 57
tag@@ 57
tila 57
trop@@ 57
zy 57
ér@@ 57
ï 57
1517 56
175 56
18.@@ 56
1810 56
207 56
208 56
213 56
323 56
André 56
Army 56
Auto 56
Camp@@ 56
Cecil 56
Dest@@ 56
Edinburgh 56
Freder@@ 56
Gates 56
Geor@@ 56
Hudson 56
Jos@@ 56
Lip@@ 56
Loy@@ 56
Lun@@ 56
Lyn@@ 56
Manhattan 56
Maxim@@ 56
Meth@@ 56
Next 56
PR@@ 56
PS 56
Pakistani 56
Pepe 56
Prison 56
Ra 56
Ric@@ 56
SE 56
Shang@@ 56
Smo@@ 56
Sno@@ 56
Son 56
Sug@@ 56
Suz@@ 56
Til@@ 56
Tot@@ 56
Tran@@ 56
Travis 56
Tuf@@ 56
Volume 56
Who 56
ager 56
agon@@ 56
ald@@ 56
anum 56
aten 56
ding 56
dom 56
domin@@ 56
ehr@@ 56
itis 56
ksi 56
los 56
mas 56
mol@@ 56
ob 56
odini 56
oll@@ 56
oslov@@ 56
sah 56
stad 56
thu 56
timestamp 56
viet@@ 56
xis 56
yasa 56
Ç@@ 56
ée 56
ør@@ 56
č@@ 56
ր@@ 56
126 55
2.4 55
205 55
217 55
256 55
264 55
406 55
44@@ 55
AG 55
AP 55
Afrique 55
Age 55
Ain 55
Album 55
Alois 55
BE 55
Bath@@ 55
Brah@@ 55
Cent 55
Cook 55
DF 55
Elias 55
Flores 55
Gregory 55
He 55
Hin@@ 55
ISO 55
Joel 55
Journal 55
Malta 55
Mustafa 55
Oregon 55
Piz@@ 55
Pun@@ 55
RS 55
Randy 55
Reh@@ 55
Roosevelt 55
Sandra 55
Seine 55
Shan@@ 55
Trade 55
Vul@@ 55
Wisconsin 55
adj@@ 55
agi@@ 55
alar@@ 55
aver 55
aze 55
cia 55
ck@@ 55
dar 55
dum@@ 55
gli@@ 55
icus 55
idy 55
inf@@ 55
ink@@ 55
ino@@ 55
kov 55
lab@@ 55
lug@@ 55
mane 55
misa 55
opatra 55
owe@@ 55
ram 55
sh 55
sian 55
username 55
way@@ 55
yet@@ 55
zon@@ 55
zy@@ 55
ַ@@ 55
ם 55
15.@@ 54
1835 54
218 54
222 54
227 54
335 54
About 54
Agu@@ 54
Are@@ 54
Atlantic 54
Au 54
Aus@@ 54
Belarus 54
Brescia 54
Brig@@ 54
Brook 54
Christina 54
DT 54
Daddy 54
Danny 54
Dik@@ 54
Eur@@ 54
Faith 54
Fati@@ 54
Fern@@ 54
Garden 54
Guang@@ 54
Gy@@ 54
Kass@@ 54
Kingston 54
Lec@@ 54
Li 54
Madagascar 54
Miguel 54
Mind@@ 54
More 54
Museum 54
Nicholas 54
Nick 54
Or 54
Palermo 54
Paula 54
Perry 54
Pet@@ 54
Pradesh 54
Primary 54
Rach@@ 54
Schrö@@ 54
Shah@@ 54
Torres 54
Tra@@ 54
Utah 54
Vib@@ 54
Yun@@ 54
Zor@@ 54
ahan 54
amaz@@ 54
chil@@ 54
chlor@@ 54
deg@@ 54
dub@@ 54
ert 54
etti@@ 54
face 54
gon@@ 54
ind 54
jah 54
min 54
ogr@@ 54
onom@@ 54
otic 54
oul@@ 54
over 54
parentid 54
pros@@ 54
sel 54
skop@@ 54
sup@@ 54
sus@@ 54
upta 54
uz 54
weg@@ 54
ég@@ 54
-- 53
181 53
1832 53
1849 53
185 53
1851 53
199 53
20.@@ 53
24.@@ 53
3,9@@ 53
354 53
38,@@ 53
AE 53
August 53
Bali 53
Bar 53
Berkeley 53
Big@@ 53
Broadcasting 53
CAF 53
Capital 53
Convention 53
Davies 53
Dep@@ 53
Destiny 53
Dre@@ 53
Fland@@ 53
Greatest 53
Guardian 53
Gö@@ 53
Isma@@ 53
Joh@@ 53
LP 53
Lan@@ 53
Latin 53
Lithuania 53
Lorenzo 53
Meh@@ 53
Minneapolis 53
Montreal 53
Netflix 53
Pand@@ 53
Pittsburgh 53
Public 53
Remix 53
Ris@@ 53
Rolling 53
Sardin@@ 53
Sot@@ 53
Sunday 53
Tad@@ 53
Thompson 53
Thriller 53
Vista 53
War 53
Wolfgang 53
Yem@@ 53
adu@@ 53
alism 53
amoja 53
anatom@@ 53
angal@@ 53
bach 53
boy 53
bus 53
eca 53
egu 53
ishan@@ 53
kateg@@ 53
lier 53
low@@ 53
music 53
naz@@ 53
nde@@ 53
ocho 53
okee 53
opi@@ 53
ose@@ 53
remix 53
stadt 53
sub@@ 53
tham 53
İzmir 53
136 52
145 52
151 52
1521 52
165 52
177 52
179 52
1831 52
226 52
283 52
397 52
3D 52
401 52
55@@ 52
7.5 52
Am 52
Amazonas 52
Ba 52
Barry 52
Basel 52
Benz 52
Book 52
Britain 52
Buz@@ 52
Calabria 52
Christ@@ 52
Chu@@ 52
Coll@@ 52
Di 52
Dion@@ 52
Edwin 52
English 52
Fior@@ 52
Foster 52
Gold@@ 52
Granada 52
Hob@@ 52
Holland 52
Honduras 52
Hugh 52
Indian 52
Jamaica 52
Keith 52
LL 52
Line 52
Mack@@ 52
Mann@@ 52
Medical 52
Milton 52
Minh 52
Nish@@ 52
Peninsula 52
Peter@@ 52
Pru@@ 52
Punjab 52
Rudolf 52
Sankt 52
Sky 52
Sugar 52
Tob@@ 52
Too 52
Trump 52
Trust 52
Van@@ 52
Winn@@ 52
Yang@@ 52
Ye@@ 52
assi@@ 52
atan 52
band 52
bes 52
ble 52
cul@@ 52
ebra 52
ere@@ 52
ffy 52
gor@@ 52
influ@@ 52
itwayo 52
kins 52
nik 52
omy@@ 52
oney 52
paz@@ 52
pho 52
pio 52
pos 52
rat 52
res 52
rio 52
ubu@@ 52
uva 52
wick 52
wing 52
yah 52
yos@@ 52
zus@@ 52
zz@@ 52
í 52
ö@@ 52
ı@@ 52
ṣ@@ 52
131 51
144 51
167 51
402 51
56@@ 51
6.5 51
711 51
AO 51
Apol@@ 51
Billy 51
Bordeaux 51
Butler 51
CC 51
Chen 51
Chir@@ 51
Cla@@ 51
Cul@@ 51
Data 51
Detroit 51
Diz@@ 51
Dow@@ 51
Es 51
Fabaceae 51
Fak@@ 51
Fem@@ 51
Gamb@@ 51
Glad@@ 51
Gren@@ 51
Hard@@ 51
Harold 51
Haut 51
Hed@@ 51
Heights 51
Hier@@ 51
IBM 51
Ich@@ 51
Kimber@@ 51
LC 51
Lau@@ 51
Lif@@ 51
Lopez 51
Marc 51
Marco 51
Matthew 51
Mountain 51
N.@@ 51
Nun@@ 51
Oth@@ 51
Our 51
Over 51
Pico 51
Plas@@ 51
Province 51
Ricardo 51
Rovers 51
Russell 51
Simone 51
TV@@ 51
Tong@@ 51
Upper 51
W.@@ 51
Wake 51
Zeus 51
aada 51
aid 51
apti@@ 51
arare 51
azar@@ 51
edr@@ 51
emin@@ 51
ett@@ 51
gil 51
halika 51
inas 51
indon@@ 51
jer 51
live 51
mana 51
mor 51
mos@@ 51
mus 51
odoro 51
okovu 51
penal@@ 51
pok@@ 51
pra 51
ris 51
rup@@ 51
super@@ 51
sus 51
text 51
vok@@ 51
yum@@ 51
ía 51
ğ@@ 51
ɛ@@ 51
ɪ@@ 51
大@@ 51
146 50
1845 50
195 50
2.2 50
224 50
233 50
257 50
258 50
331 50
407 50
49,@@ 50
490 50
510 50
610 50
710 50
970 50
AIDS 50
Antoine 50
Any@@ 50
Bik@@ 50
Bond@@ 50
Burn@@ 50
CE 50
Cin@@ 50
Dead 50
Feld@@ 50
Ferguson 50
Fly 50
Freedom 50
GO 50
Gamma 50
Hilton 50
Human 50
Instagram 50
Jeff 50
Jerry 50
Justin 50
Mariana 50
Micha@@ 50
Micro@@ 50
Ministry 50
Murphy 50
Nazi 50
Nes@@ 50
Nickelodeon 50
Nit@@ 50
Owen 50
Prix 50
Renaissance 50
Sophia 50
Suzuki 50
Theodore 50
Trav@@ 50
Ts@@ 50
UNICEF 50
Valeri@@ 50
Web@@ 50
Wiki@@ 50
Without 50
ace@@ 50
agonjwa 50
aup@@ 50
azu 50
bio@@ 50
buy@@ 50
cal@@ 50
cop@@ 50
elles 50
gang@@ 50
hakim@@ 50
hifad@@ 50
ink 50
kel 50
kinson 50
leg@@ 50
marathon 50
ry@@ 50
sag@@ 50
ship 50
stan 50
thr@@ 50
time 50
umer@@ 50
ém@@ 50
ž@@ 50
بن 50
1227 49
149 49
153 49
163 49
2.6 49
275 49
670 49
Aaron 49
Alexandra 49
Alo@@ 49
Anglo 49
Apollo 49
Bonn@@ 49
Bridge 49
CI@@ 49
Caroline 49
Chak@@ 49
Change 49
Cir@@ 49
Climate 49
Comics 49
Corona 49
Dakota 49
Dok@@ 49
Du 49
EU 49
Eff@@ 49
Estr@@ 49
Evans 49
FF 49
Gardens 49
Gib@@ 49
Gibraltar 49
Gustav 49
Hannah 49
Islands 49
Ja@@ 49
Last 49
Lives 49
Loc@@ 49
Lynn 49
Mao 49
Mars 49
Mumbai 49
Muslim 49
N. 49
NL 49
Never 49
Ober@@ 49
Ox@@ 49
PP@@ 49
Plata 49
Play 49
R.@@ 49
Raphael 49
Republic 49
Research 49
Rouen 49
SM@@ 49
Sax@@ 49
Series 49
Shakespeare 49
Social 49
Sog@@ 49
Soy@@ 49
Square 49
Stan@@ 49
Two 49
UR@@ 49
Vancouver 49
Werner 49
Wh@@ 49
Yamag@@ 49
alt@@ 49
aly 49
bank 49
ben 49
boro 49
ean@@ 49
ege@@ 49
epidem@@ 49
erry 49
eton 49
fan 49
formes 49
ful 49
haribi 49
inan@@ 49
ingham 49
inter@@ 49
ix 49
jem@@ 49
kala 49
magazine 49
mina 49
nazi 49
nio 49
oine 49
one@@ 49
onz@@ 49
pha 49
phine 49
qa 49
raine 49
soul 49
stown 49
tima 49
tow 49
ude 49
ulima 49
umbr@@ 49
vel@@ 49
vers 49
vu@@ 49
wer 49
är@@ 49
şehir 49
ד@@ 49
ל@@ 49
1250 48
133 48
138 48
166 48
168 48
178 48
1806 48
1855 48
192 48
253 48
259 48
286 48
30.@@ 48
315 48
345 48
377 48
525 48
720 48
980 48
Anj@@ 48
Augustine 48
Bei 48
Bello 48
Bird 48
Bov@@ 48
Byrne 48
Camp 48
Celtic 48
Chiefs 48
Cran@@ 48
Edmund 48
Ef@@ 48
Empire 48
Express 48
FBI 48
Fall 48
Fernández 48
Flora 48
Francesco 48
From 48
Goldman 48
Hey@@ 48
Hud@@ 48
Hul@@ 48
Hull 48
Islam 48
Lang 48
Level 48
Louise 48
Nice 48
Oran@@ 48
Peg@@ 48
Pompe@@ 48
Provence 48
Région 48
Still 48
Thur@@ 48
Tommy 48
Vasco 48
Vol 48
WT@@ 48
Will@@ 48
Yorkshire 48
Za@@ 48
Zw@@ 48
ads 48
ages 48
also 48
ardo 48
astani 48
ater 48
ault 48
aziz 48
born 48
china 48
dov@@ 48
ect 48
entia 48
err@@ 48
esti@@ 48
formula 48
head 48
his 48
ici@@ 48
itar@@ 48
jiang 48
kund@@ 48
mel 48
mifu@@ 48
neutr@@ 48
off@@ 48
otr@@ 48
otte 48
prop@@ 48
sin 48
spir@@ 48
tier 48
tina 48
tions 48
tum 48
tuz@@ 48
wn 48
zen 48
1492 47
169 47
1750 47
221 47
241 47
285 47
321 47
332 47
362 47
404 47
587 47
76@@ 47
780 47
870 47
960 47
Adr@@ 47
Aff@@ 47
Bash@@ 47
Bed@@ 47
Ble@@ 47
Boris 47
CV 47
Cardiff 47
Cha@@ 47
Constantine 47
Crystal 47
Cun@@ 47
Ec@@ 47
Ellis 47
Floyd 47
Georges 47
Harmon@@ 47
Herald 47
Hez@@ 47
Hizo 47
IB@@ 47
Il 47
Jung@@ 47
KA 47
Kids 47
Königsberg 47
Latvia 47
Lima 47
Lind@@ 47
Lisa 47
Liv@@ 47
Mess@@ 47
Miss@@ 47
Mo 47
NA@@ 47
NS@@ 47
NSDAP 47
Nagasaki 47
Nh@@ 47
Nina 47
Pac@@ 47
Pacific 47
Panther 47
Pieter 47
Plu@@ 47
Pé@@ 47
Raw 47
Reading 47
Robinson 47
Run 47
Réunion 47
Saw@@ 47
Semin@@ 47
Springs 47
Stuttgart 47
Tow@@ 47
Turk@@ 47
Us 47
Weimar 47
Yous@@ 47
Youtube 47
abri@@ 47
aise 47
anon 47
apr@@ 47
aris 47
arius 47
asc@@ 47
aç@@ 47
bac@@ 47
back 47
body 47
cius 47
dok@@ 47
ebr@@ 47
eed 47
eem 47
entino 47
ezaliwa 47
hit 47
iken 47
kong 47
log 47
mon 47
n.@@ 47
nu 47
okol@@ 47
oupe 47
plan@@ 47
ras 47
ris@@ 47
tics 47
ubio 47
uck 47
uela 47
umuisha 47
unt 47
ush 47
yin 47
zer 47
än 47
ה 47
ע@@ 47
Ἀ@@ 47
134 46
147 46
1597 46
1807 46
1824 46
1843 46
235 46
248 46
249 46
252 46
269 46
333 46
334 46
344 46
347 46
366 46
395 46
40,@@ 46
405 46
660 46
AB 46
AFC 46
AK 46
Acc@@ 46
Albion 46
Arabic 46
Arnold 46
Beirut 46
Bobby 46
CI 46
Charlie 46
Chr@@ 46
Christi@@ 46
Conference 46
Corn@@ 46
Dad@@ 46
Darwin 46
Dod@@ 46
Dorothy 46
East@@ 46
Eminem 46
Fuk@@ 46
Fut@@ 46
GT 46
Gall@@ 46
Hydro@@ 46
ID 46
Jacqueline 46
Jay@@ 46
Jesus 46
Joan 46
Julian 46
Karab@@ 46
Larry 46
Laurent 46
León 46
Like 46
Mad 46
Mai 46
Marina 46
Mason 46
Mediter@@ 46
Mens@@ 46
Metro 46
Metz 46
Nixon 46
Not 46
Nova 46
Number 46
Olivia 46
Order 46
Pang@@ 46
Rel@@ 46
Rights 46
Rodney 46
Ron@@ 46
Singh 46
Six@@ 46
Summer 46
Tanaka 46
Tunis 46
Twitter 46
Va@@ 46
adha@@ 46
alan@@ 46
aqu@@ 46
bag@@ 46
betr@@ 46
bit 46
bula 46
chel@@ 46
chen 46
chum@@ 46
city 46
dell 46
dida 46
dos@@ 46
dy@@ 46
far 46
fis@@ 46
hib@@ 46
hif@@ 46
ily 46
imbali 46
jou@@ 46
kham 46
kitaal@@ 46
las@@ 46
lington 46
migu@@ 46
ods 46
orius 46
pei 46
pers 46
pes@@ 46
sle@@ 46
trol@@ 46
tron@@ 46
uge@@ 46
è 46
éré 46
ę@@ 46
ן 46
152 45
1540 45
176 45
1813 45
1818 45
1842 45
197 45
238 45
263 45
287 45
32.@@ 45
329 45
348 45
379 45
409 45
413 45
44,@@ 45
538 45
642 45
787 45
86@@ 45
9000 45
AO@@ 45
Alfonso 45
Archi@@ 45
Bach@@ 45
Bomb@@ 45
Bradley 45
Chau@@ 45
Chess 45
Collins 45
Edo 45
Emily 45
Eul@@ 45
Fle@@ 45
GSM 45
Galileo 45
Gertru@@ 45
Got@@ 45
Gri@@ 45
Haute 45
Hood 45
Isabel 45
Jon 45
Kara 45
Kingdom 45
Klo@@ 45
Lane 45
Lap@@ 45
Leicester 45
Madison 45
Management 45
McDonald 45
Memphis 45
Middle 45
Nero 45
Oklahoma 45
PD 45
Petrus 45
Powers 45
Rangers 45
Rey 45
Roberts 45
Schalke 45
Sv@@ 45
Thu@@ 45
Tit@@ 45
Toulouse 45
Tsu@@ 45
VI@@ 45
Vision 45
Xbox 45
Zag@@ 45
acc@@ 45
akt@@ 45
alta 45
ander@@ 45
angep@@ 45
anu 45
asit@@ 45
aste 45
asti@@ 45
asuaji 45
awo 45
berto 45
comment 45
con 45
cy 45
cy@@ 45
dit 45
ender 45
enes 45
enna 45
enton 45
ewski 45
gil@@ 45
gs 45
hard 45
hero@@ 45
ider@@ 45
kno@@ 45
len 45
lers 45
mchang@@ 45
oir 45
onto 45
right 45
ski@@ 45
tara 45
taz@@ 45
tion@@ 45
uano 45
ushima 45
vera 45
yk@@ 45
132 44
1825 44
1828 44
183 44
187 44
188 44
198@@ 44
21.@@ 44
282 44
29.@@ 44
317 44
337 44
3500 44
384 44
411 44
417 44
453 44
483 44
54@@ 44
570 44
590 44
790 44
AN 44
Action 44
Adel@@ 44
Augsburg 44
Baker 44
Blake 44
Bonn 44
Bow@@ 44
Bronx 44
Brun@@ 44
Bryan 44
Carol@@ 44
Chand@@ 44
Chang 44
Clermont 44
Cob@@ 44
Cola 44
Cyn@@ 44
DL@@ 44
Dy@@ 44
Dz@@ 44
ER 44
Evening 44
Fan@@ 44
Federal 44
Fom@@ 44
Fou@@ 44
GR 44
Geb@@ 44
Gou@@ 44
Grey 44
Health 44
Iberia 44
Industry 44
Jag@@ 44
Kond@@ 44
Laf@@ 44
Lal@@ 44
MIT 44
MV 44
Make 44
Marino 44
Marne 44
Mou@@ 44
Non@@ 44
Pall@@ 44
PlayStation 44
Rogers 44
Rotterdam 44
Ruby 44
SI@@ 44
Say 44
Shik@@ 44
Sud 44
Tali@@ 44
Telec@@ 44
Tend@@ 44
Tog@@ 44
Tyler 44
Under@@ 44
Vegas 44
Ves@@ 44
Yar@@ 44
Yv@@ 44
Zar@@ 44
act@@ 44
aff 44
agn@@ 44
ale@@ 44
ality 44
andro@@ 44
atar 44
benz@@ 44
bish@@ 44
bridge 44
cha@@ 44
dag@@ 44
diki 44
dizi 44
ekee 44
elec@@ 44
eran 44
evich 44
gana 44
hee 44
icia 44
ideae 44
ife 44
ig 44
ilde 44
illi 44
ister 44
ket@@ 44
kle@@ 44
nataka 44
opoli 44
otro@@ 44
oui 44
pan 44
swana 44
tap@@ 44
uca 44
union 44
vali 44
zor@@ 44
ép@@ 44
1795 43
1799 43
1822 43
1829 43
228 43
244 43
262 43
268 43
341 43
342 43
375 43
429 43
509 43
605 43
760 43
ADN 43
América 43
App 43
Arab@@ 43
Authority 43
Beat 43
Bod@@ 43
Boul@@ 43
Buc@@ 43
CDU 43
Clark 43
Dand@@ 43
Democracy 43
Dortmund 43
Edith 43
Edwards 43
Fischer 43
Fraser 43
Fuj@@ 43
Gate 43
Gilbert 43
Greenwich 43
Gron@@ 43
Hannover 43
Hap@@ 43
Hunter 43
Ih@@ 43
Justice 43
Karat@@ 43
Lep@@ 43
Lionel 43
Living 43
Mae 43
Maine 43
Meyer 43
Mix@@ 43
Montana 43
Net@@ 43
Pete 43
Rivers 43
SMS 43
Sanders 43
Spencer 43
Syn@@ 43
True 43
a- 43
abol@@ 43
agar 43
agh 43
ago@@ 43
anos 43
anton 43
ayashi 43
ayn 43
azak@@ 43
bot 43
ders 43
dolar 43
dé@@ 43
eni@@ 43
erie 43
ery 43
fak@@ 43
gig@@ 43
isario 43
ities 43
izu 43
lett 43
ll 43
lum 43
mio 43
not 43
og 43
par 43
pek@@ 43
px 43
quar@@ 43
riwa 43
sap@@ 43
tive 43
tori 43
tuk@@ 43
ulata 43
umani 43
usho 43
var 43
vie 43
ways 43
zif@@ 43
ón 43
ς 43
県 43
143 42
148 42
1520 42
1572 42
161 42
184 42
194 42
2.3 42
232 42
26.@@ 42
288 42
318 42
336 42
339 42
346 42
355 42
356 42
357 42
422 42
50,@@ 42
515 42
580 42
58@@ 42
604 42
622 42
625 42
Alum@@ 42
Amy 42
Ansel@@ 42
Arap 42
Arn@@ 42
Atlético 42
Avenue 42
Broadway 42
Bros@@ 42
Buffalo 42
Ches@@ 42
Coca 42
Como 42
Const@@ 42
Danger@@ 42
Département 42
EA 42
ESA 42
Feder@@ 42
Five 42
Flav@@ 42
Forest 42
Games 42
Gran 42
Gros@@ 42
Hass@@ 42
Hend@@ 42
Hopkins 42
IS 42
Indo@@ 42
Jeremy 42
Knight 42
Lay@@ 42
Leipzig 42
MB 42
Marx 42
Morning 42
Moss 42
NO@@ 42
Nakamura 42
Naw@@ 42
Neo 42
Original 42
Pach@@ 42
Pter@@ 42
Rice 42
SH@@ 42
Sabah 42
Sales 42
Sark@@ 42
Sed@@ 42
Set@@ 42
Stor@@ 42
Tao 42
Toch@@ 42
Top@@ 42
Turner 42
VfL 42
Viol@@ 42
Web 42
Winston 42
aeus 42
alp@@ 42
apia 42
asco 42
assé 42
aud 42
bomb@@ 42
book 42
by@@ 42
cur@@ 42
duk 42
eia 42
ensi@@ 42
eraha 42
habit@@ 42
hair@@ 42
high 42
holanzi 42
hydro@@ 42
ider 42
iman 42
kopo 42
lamu 42
language 42
long 42
mbal@@ 42
million 42
mut@@ 42
new 42
otti 42
pes 42
poda 42
prim@@ 42
tawa 42
v. 42
wald 42
wanza 42
ä@@ 42
Š@@ 42
محمد 42
ه@@ 42
∘ 42
1,200 41
162 41
173 41
1809 41
1812 41
1834 41
191 41
254 41
276 41
36.@@ 41
373 41
386 41
609 41
632 41
8.5 41
950 41
98@@ 41
ACP 41
Ado@@ 41
Airbus 41
Airways 41
Andre 41
Android 41
Bahamas 41
Blood 41
Bundestag 41
CR 41
Cann@@ 41
Chart 41
Ciudad 41
DO 41
DR 41
DS 41
Dark@@ 41
Forever 41
Fuku@@ 41
Geoffrey 41
Hall@@ 41
Hard 41
Hop@@ 41
Hou@@ 41
Jul@@ 41
Kay 41
Köln 41
LM 41
Lahore 41
Manz@@ 41
Mar 41
Ming 41
Mist@@ 41
Nez@@ 41
Nicol@@ 41
Oce@@ 41
Oh@@ 41
Ple@@ 41
Rahman 41
Rama 41
Rein@@ 41
Rodriguez 41
Rou@@ 41
Secret 41
Seven 41
Siy@@ 41
Spir@@ 41
Stoke 41
Stuart 41
Swan@@ 41
TH@@ 41
TS 41
Takri@@ 41
Tang 41
Terr@@ 41
Troyes 41
Vas@@ 41
Vu@@ 41
Wang 41
Wes@@ 41
Wiz@@ 41
Wolf 41
aer@@ 41
agne 41
alisi@@ 41
aran 41
aurus 41
bano 41
bid@@ 41
blues 41
chur@@ 41
coc@@ 41
devi@@ 41
eksi 41
enko 41
eon 41
eville 41
ial 41
ix@@ 41
kum 41
kö@@ 41
lai 41
mano 41
mg 41
nig@@ 41
nova 41
nur@@ 41
oker 41
ost 41
owo 41
prom@@ 41
ret 41
rod@@ 41
shut@@ 41
sley 41
stil@@ 41
than 41
tria 41
ture 41
uld 41
unc@@ 41
zoni 41
ël 41
Ş@@ 41
1519 40
159 40
1802 40
1811 40
1833 40
292 40
327 40
387 40
476 40
484 40
69@@ 40
730 40
79@@ 40
Again 40
Airlines 40
Alber@@ 40
Amad@@ 40
Andorra 40
Athletic 40
Back@@ 40
Batman 40
Bonaparte 40
Borussia 40
Call 40
Captain 40
Deutsche 40
Doha 40
Dop@@ 40
ESPN 40
Economic 40
Eduardo 40
Four 40
Freeman 40
Giuseppe 40
Gob@@ 40
Hash@@ 40
Hippo@@ 40
Hiroshima 40
History 40
Honor@@ 40
Jorge 40
Kaya 40
Kid 40
Koch 40
Kru@@ 40
Lakes 40
Let 40
Liberation 40
Linda 40
Low@@ 40
Lud@@ 40
Mans@@ 40
Maya 40
Mountains 40
Nord@@ 40
Nottingham 40
Osh@@ 40
Ost@@ 40
Pain 40
Phillips 40
Pointe 40
Prom@@ 40
Quincy 40
Radi@@ 40
Region 40
Reims 40
Rig@@ 40
Rost@@ 40
Río 40
Samoa 40
Samsung 40
Sharon 40
Sn@@ 40
Sob@@ 40
TH 40
Tac@@ 40
Takah@@ 40
Tap@@ 40
Tau@@ 40
Ted 40
Theodor 40
Torino 40
Trabzon 40
Tub@@ 40
Vanessa 40
View 40
Wind@@ 40
XXII 40
Yahya 40
adv@@ 40
aea 40
ains 40
anen 40
arian 40
arin 40
atas@@ 40
atra 40
away 40
bek 40
beth 40
bey 40
ceph@@ 40
ches 40
chu 40
codice 40
daf@@ 40
della 40
dez 40
dir 40
dium 40
ective 40
eless 40
enc@@ 40
igh 40
iso@@ 40
itas 40
kn@@ 40
loy@@ 40
lut@@ 40
mere 40
micro@@ 40
mix@@ 40
nes@@ 40
number 40
ornis 40
outh 40
pera 40
phon@@ 40
qi 40
rap@@ 40
rel@@ 40
rh@@ 40
sev@@ 40
thal@@ 40
urg@@ 40
xi@@ 40
ð@@ 40
μ@@ 40
☉ 40
0.3 39
000@@ 39
141 39
142 39
1816 39
198 39
2.7 39
2.8 39
219 39
245 39
246 39
293 39
295 39
298 39
319 39
322 39
324 39
349 39
374 39
378 39
382 39
391 39
408 39
419 39
432 39
445 39
449 39
56,@@ 39
616 39
620 39
88@@ 39
Alberta 39
Animation 39
App@@ 39
Baj@@ 39
Beni 39
Bermuda 39
Blu@@ 39
Boc@@ 39
CDC 39
Carl@@ 39
Challenge 39
Cic@@ 39
Classic 39
Clement 39
Columbus 39
Connor 39
Corr@@ 39
Creek 39
Cube 39
Denizli 39
Dhar@@ 39
Dick@@ 39
Dit@@ 39
Dream@@ 39
Eas@@ 39
Eddy 39
Federation 39
Fire 39
German 39
Gulf 39
Ham 39
Harlem 39
Herr@@ 39
Hew@@ 39
Honey 39
Indi@@ 39
Jeh@@ 39
Jel@@ 39
Jesse 39
Jessica 39
Joy@@ 39
João 39
Kings 39
Labrador 39
Lenin 39
Loire 39
Luigi 39
Metropolitan 39
Moldova 39
Monaster@@ 39
Nass@@ 39
Neu@@ 39
Nick@@ 39
Nil@@ 39
Paolo 39
Parker 39
Place 39
Pod@@ 39
Poitiers 39
Portsmouth 39
Python 39
Rag@@ 39
Rat@@ 39
Recording 39
Ring 39
Row 39
SD 39
Small 39
Sos@@ 39
Talent 39
Traf@@ 39
Tribune 39
Trinity 39
Twe@@ 39
UT@@ 39
Vall@@ 39
Ward 39
Water 39
adre 39
ajara 39
aly@@ 39
amus 39
angazo 39
arama 39
arina 39
atis@@ 39
atoliki 39
avius 39
aï@@ 39
bik@@ 39
dam 39
dong 39
ennes 39
enny 39
esper@@ 39
hik@@ 39
iano 39
ices 39
iger 39
iné 39
issen@@ 39
keno 39
lain 39
lars 39
leigh 39
oc 39
oefu 39
otran@@ 39
ough@@ 39
pam@@ 39
pod@@ 39
pour 39
rania 39
sella 39
sons 39
stati@@ 39
this 39
ties 39
tili@@ 39
tiv@@ 39
urus 39
wes@@ 39
ín 39
î@@ 39
ü@@ 39
ʻ@@ 39
ν 39
† 39
1610 38
1780 38
1801 38
1803 38
189 38
2,500 38
2.0 38
2.1 38
236 38
239 38
243 38
265 38
274 38
343 38
363 38
4.3 38
403 38
444 38
46,@@ 38
668 38
690 38
820 38
910 38
AE@@ 38
AF 38
Abel 38
Against 38
Akira 38
Alpes 38
And@@ 38
Anita 38
Antalya 38
Anth@@ 38
Arc@@ 38
Aud@@ 38
Australian 38
Bhutan 38
Bing@@ 38
Bj@@ 38
Burg@@ 38
Bursa 38
Burton 38
Carlo 38
Commercial 38
Design 38
Dong 38
Drake 38
Dé@@ 38
Ed 38
Enrique 38
Exchange 38
Frank@@ 38
Funk 38
Gener@@ 38
Have 38
Her 38
Hindu 38
Hispan@@ 38
II@@ 38
Imperial 38
Journ@@ 38
Kai 38
Kashmir 38
Ken 38
Kisov@@ 38
Korn@@ 38
Logan 38
Mahar@@ 38
Mine 38
Moreno 38
Mous@@ 38
NY@@ 38
Nec@@ 38
Negro 38
Orig@@ 38
Phil 38
Prin@@ 38
Publi@@ 38
Rebecca 38
Record 38
Rihanna 38
SU@@ 38
Shanghai 38
Sisters 38
Songs 38
Spider 38
Sul 38
Sutherland 38
Terry 38
Text 38
Things 38
Tonight 38
Uru@@ 38
X. 38
Yon@@ 38
alog 38
anie 38
annes 38
ares 38
arro 38
atis 38
biom@@ 38
dec@@ 38
digit@@ 38
dinosaur@@ 38
dt 38
ection 38
emir@@ 38
evo 38
ew 38
glo@@ 38
heter@@ 38
ift 38
ignan 38
ils 38
irini 38
jur@@ 38
kes@@ 38
kri@@ 38
lag@@ 38
lane 38
meridi@@ 38
nin 38
nm 38
oba@@ 38
oji@@ 38
ological 38
osp@@ 38
plant 38
quot 38
ross 38
sist@@ 38
tarak@@ 38
ths 38
tib@@ 38
tos 38
tou 38
umin@@ 38
öl@@ 38
ık 38
ח@@ 38
כ@@ 38
0,0@@ 37
1220 37
158 37
1622 37
164 37
1648 37
1826 37
186 37
247 37
25.@@ 37
266 37
271 37
3.2 37
368 37
455 37
475 37
507 37
54,@@ 37
612 37
615 37
628 37
68@@ 37
705 37
880 37
Amir 37
And 37
Andre@@ 37
Andy 37
Arena 37
At 37
Atal@@ 37
Castle 37
Christ 37
Christmas 37
Crazy 37
Cum@@ 37
DE 37
DI 37
Dalm@@ 37
Derr@@ 37
Desmond 37
Deutsch 37
Ear@@ 37
Ej@@ 37
Eli 37
Eras@@ 37
Esther 37
Ethiop@@ 37
Fat 37
Frances 37
Fus@@ 37
Gand@@ 37
Gerard 37
Hann@@ 37
How@@ 37
Jas@@ 37
Kalin@@ 37
Kate 37
Kend@@ 37
Kerala 37
Light 37
Lille 37
Linn@@ 37
Liu 37
Lux@@ 37
ME 37
Mainz 37
Mercury 37
Methodist 37
Molly 37
NCAA 37
Nashville 37
Nord 37
Park@@ 37
Pat 37
Phyl@@ 37
Princeton 37
Pum@@ 37
Range 37
Rast@@ 37
Rich 37
Roz@@ 37
Rugby 37
Ruiz 37
Sant@@ 37
Sivas 37
Sl@@ 37
Smith@@ 37
Sporting 37
Steph@@ 37
TC 37
TP 37
Talk 37
Thomson 37
Toni 37
UT 37
Utrecht 37
Walsh 37
aar 37
alan 37
aldi 37
alus 37
ante@@ 37
ara@@ 37
arch@@ 37
ational 37
awadi 37
ayama 37
bach@@ 37
ball 37
bibli@@ 37
bil 37
brook 37
cape 37
coli 37
cus 37
eline 37
els@@ 37
euro 37
gin@@ 37
hab 37
hand 37
ifuatazo 37
isp@@ 37
itude 37
lings 37
mang@@ 37
muj@@ 37
né@@ 37
ojo 37
oman 37
osefu 37
osi@@ 37
raeli 37
ree 37
rop@@ 37
server 37
she@@ 37
skul@@ 37
sl@@ 37
tez 37
tidae 37
tim 37
tran@@ 37
uf 37
umen 37
ury 37
yu@@ 37
zeit@@ 37
ça 37
ɡ@@ 37
ܝ@@ 37
0.4 36
1.9 36
154 36
1792 36
1804 36
1817 36
196@@ 36
2030 36
255 36
277 36
28.@@ 36
291 36
296 36
3.7 36
33.@@ 36
39.@@ 36
393 36
399 36
415 36
421 36
5.5 36
559 36
629 36
64@@ 36
704 36
740 36
751 36
Alex@@ 36
Ama 36
Andri@@ 36
Anton 36
April 36
Aub@@ 36
Augustus 36
Ball 36
Berger 36
Bill@@ 36
Blan@@ 36
Boeing 36
Bolton 36
Booth 36
Bretagne 36
CU 36
Cast@@ 36
Charl@@ 36
Computer 36
Crew 36
Czech 36
Deu@@ 36
Dion 36
Emil 36
Erik 36
Field 36
Friends 36
García 36
Glenn 36
HA 36
Harr@@ 36
Hep@@ 36
Herman 36
Holy 36
Hug@@ 36
Idol 36
Inc 36
Iron 36
Jefferson 36
Josef 36
Jou@@ 36
Joy 36
Judith 36
KK@@ 36
KO 36
Kayseri 36
Kod@@ 36
Kug@@ 36
Ligh@@ 36
MD 36
Margar@@ 36
María 36
McCarthy 36
Meridi@@ 36
Muhammed 36
Murray 36
Napole@@ 36
Norte 36
ON@@ 36
Ocean 36
Only 36
Oslo 36
Over@@ 36
Parma 36
Pek@@ 36
Pereira 36
Rhy@@ 36
Ricky 36
Rol@@ 36
Roman 36
Romano 36
Rome 36
Shal@@ 36
Sport 36
Station 36
Strasbourg 36
Stu@@ 36
Teb@@ 36
Tes@@ 36
Tina 36
Tower 36
UB@@ 36
Universe 36
Verona 36
Vicente 36
Virgin 36
Weekly 36
Wis@@ 36
Wonder 36
Xi 36
Yah@@ 36
Yel@@ 36
Yosh@@ 36
Zer@@ 36
acet@@ 36
aden 36
aker 36
aragua 36
ariensis 36
arya 36
asus 36
ative 36
att 36
ayat 36
azz@@ 36
bek@@ 36
ca@@ 36
cas 36
cast 36
chez 36
doksi 36
eson 36
esp@@ 36
etia 36
fly 36
fum@@ 36
horn 36
https 36
i. 36
igg@@ 36
ionale 36
ites 36
iv 36
kers 36
krit 36
ley@@ 36
monaster@@ 36
ogen@@ 36
ography 36
orious 36
oru 36
osu 36
oto@@ 36
pierre 36
pper 36
ps@@ 36
red@@ 36
rep@@ 36
sek 36
spor@@ 36
tamb@@ 36
ug 36
unds 36
ère 36
ú 36
ān 36
1453 35
171 35
1740 35
1787 35
1808 35
1827 35
196 35
279 35
299 35
3.4 35
383 35
396 35
492 35
496 35
502 35
512 35
514 35
516 35
534 35
555 35
634 35
661 35
ACT 35
Allison 35
Andrews 35
Baja 35
Balıkesir 35
Beatrice 35
Bek@@ 35
Benfica 35
Billie 35
Borneo 35
Braun 35
Budapest 35
CF 35
CO2 35
Canal 35
Chlor@@ 35
Coch@@ 35
Colin 35
Confeder@@ 35
Crosby 35
Cyril 35
DH 35
Dean 35
Dek@@ 35
Dil@@ 35
Doh@@ 35
Dominic 35
Double 35
Encyclo@@ 35
Enter@@ 35
Fisher 35
Flight 35
GM 35
Greater 35
Hamb@@ 35
Henderson 35
Hind@@ 35
Hong@@ 35
Hughes 35
ID@@ 35
Idi@@ 35
Iglesias 35
Image 35
Jaw@@ 35
Jenn@@ 35
Jensen 35
Jo 35
Josi@@ 35
Jur@@ 35
Kirch@@ 35
Lydia 35
McKin@@ 35
Mussolini 35
Nem@@ 35
Norwich 35
Nos@@ 35
Novgorod 35
Ph.D. 35
Pitt 35
Prague 35
Pride 35
Pris@@ 35
Pul@@ 35
Rand@@ 35
Reserve 35
Rica 35
Right 35
Riv@@ 35
Ron 35
SN@@ 35
Sco@@ 35
Scor@@ 35
Shor@@ 35
Sound@@ 35
Special 35
Strat@@ 35
Suk@@ 35
TR 35
Taz@@ 35
Titan 35
Today 35
UM@@ 35
Umw@@ 35
Under 35
VA 35
Wanna 35
Watson 35
Willem 35
Wing 35
Word@@ 35
Yaz@@ 35
You@@ 35
Zürich 35
acon 35
afro@@ 35
aft@@ 35
agus 35
aines 35
alem@@ 35
andin@@ 35
ansen 35
ashara 35
atsu 35
augh@@ 35
automati@@ 35
avirus 35
avo 35
azaki 35
azar 35
beat 35
bet 35
black 35
board 35
but 35
chester 35
dou 35
down 35
ear@@ 35
eer 35
eit@@ 35
eki@@ 35
ener 35
eph@@ 35
fid@@ 35
fot@@ 35
gir@@ 35
harti 35
heimer 35
hn@@ 35
ici 35
igr@@ 35
ip 35
isc@@ 35
ision 35
ism@@ 35
kor 35
lang 35
lian 35
mac@@ 35
madh@@ 35
modeli 35
mun 35
nov@@ 35
ogy 35
ond 35
onna 35
orith@@ 35
oyle 35
pard 35
patri@@ 35
prin@@ 35
quel@@ 35
reti 35
rugby 35
sept@@ 35
series 35
show 35
stad@@ 35
sz@@ 35
tenga 35
tres 35
trus@@ 35
tuy@@ 35
ushing 35
ust 35
wen 35
ylo@@ 35
à@@ 35
én 35
ə 35
ե@@ 35
ո@@ 35
ἀ@@ 35
0.2 34
0.7 34
174 34
1760 34
1770 34
1775 34
1783 34
1793 34
1797 34
22.@@ 34
231 34
242 34
267 34
27.@@ 34
281 34
289 34
3.3 34
35.@@ 34
353 34
359 34
438 34
45,@@ 34
458 34
479 34
529 34
533 34
535 34
539 34
541 34
57,@@ 34
58,@@ 34
613 34
618 34
722 34
76,@@ 34
810 34
85@@ 34
Aar@@ 34
Adelaide 34
BAS@@ 34
BD 34
Bois 34
Born 34
Brand@@ 34
Calgary 34
Castel@@ 34
Clara 34
Coalition 34
Commission 34
Cooper 34
Copenhagen 34
Critics 34
Cub@@ 34
Culture 34
Doris 34
EMI 34
Eddie 34
Ella 34
Elvis 34
Erzurum 34
FK 34
Fam@@ 34
Fit@@ 34
Flying 34
Frauen 34
Ga 34
Gerald 34
Guz@@ 34
HTML 34
Haus@@ 34
Hayes 34
Hill@@ 34
Hof@@ 34
Hunt@@ 34
Jon@@ 34
Ka 34
Kiss 34
Krasno@@ 34
Kurt 34
Luna 34
Machine 34
Mikhail 34
Mohammad 34
Mour@@ 34
Nay@@ 34
Newfoundland 34
Nissan 34
Nou@@ 34
Och@@ 34
PM 34
Penny 34
Petrol@@ 34
Phillip 34
Pik@@ 34
Publ@@ 34
Rang@@ 34
Rov@@ 34
Sach@@ 34
Scot@@ 34
Senior 34
Services 34
Stam@@ 34
Stop 34
Sucre 34
Tai@@ 34
Taur@@ 34
Them@@ 34
Veronica 34
Vä@@ 34
Yuri 34
Zaragoza 34
agon 34
aleg@@ 34
amin 34
ansa 34
aray 34
atidae 34
atum 34
bir 34
biz@@ 34
brand 34
chat@@ 34
chie 34
dem 34
duc@@ 34
egen@@ 34
elt 34
entes 34
eros 34
esse 34
fug@@ 34
gram 34
gy@@ 34
het 34
hil 34
ht@@ 34
illus 34
inh 34
irie 34
left 34
lich 34
love 34
mal 34
mith 34
mouth 34
mul@@ 34
nier 34
oia 34
oll 34
onal@@ 34
oz 34
park 34
peri@@ 34
phone 34
ref@@ 34
ril 34
rin 34
rol@@ 34
say 34
say@@ 34
shin@@ 34
system 34
techni@@ 34
tine 34
tre@@ 34
uleni 34
use@@ 34
yav@@ 34
year 34
ö 34
ն 34
ֹ@@ 34
1550 33
1640 33
1650 33
1690 33
172 33
1776 33
1798 33
1805 33
1819 33
237 33
272 33
326 33
338 33
37.@@ 33
371 33
4.2 33
4.8 33
412 33
414 33
423 33
425 33
446 33
4500 33
461 33
472 33
505 33
55,@@ 33
614 33
701 33
747 33
78@@ 33
830 33
840 33
920 33
930 33
999 33
AW@@ 33
Alab@@ 33
Alto 33
Amat@@ 33
Ambrose 33
Angels 33
Ans@@ 33
Aug@@ 33
Aul@@ 33
Bahn 33
Bailey 33
Beh@@ 33
Benson 33
Bristol 33
CK 33
Cartoon 33
Chamb@@ 33
Civil 33
Commonwealth 33
Contemporary 33
Coun@@ 33
DA@@ 33
DL 33
Das 33
Def@@ 33
Diab@@ 33
Drama 33
EM@@ 33
Emir@@ 33
Fashion 33
Fau@@ 33
Fid@@ 33
French 33
Gang 33
Gos@@ 33
Gospel 33
H.@@ 33
Hiti@@ 33
IN 33
IR@@ 33
Internationale 33
Joey 33
Julio 33
Jupiter 33
Know 33
Konstanz 33
Kütahya 33
Limoges 33
Lion 33
Manisa 33
Marl@@ 33
Melan@@ 33
Memorial 33
Müller 33
Nair@@ 33
Nantes 33
Norbert 33
Normand@@ 33
Nothing 33
Of@@ 33
Off@@ 33
Ordu 33
Palma 33
Pengu@@ 33
Pier@@ 33
Pisa 33
Polyn@@ 33
Price 33
Professor 33
Pseud@@ 33
Ralph 33
Resist@@ 33
Rhein 33
Rho@@ 33
Rhythm 33
Ruther@@ 33
Shen@@ 33
Shield 33
Sic@@ 33
Sidney 33
Sol 33
Stand@@ 33
Starr 33
Sti@@ 33
Sunshine 33
Sánchez 33
Trevor 33
Volga 33
Wagner 33
Want 33
Yose@@ 33
Zero 33
aal 33
agio 33
agno@@ 33
ahe 33
ahl@@ 33
akadem@@ 33
allah 33
amie 33
anka 33
atham 33
audi@@ 33
awak 33
baad@@ 33
bass 33
bur 33
cam@@ 33
cat 33
dil@@ 33
dn 33
dorf 33
dou@@ 33
eig@@ 33
entista 33
entius 33
erini 33
etano 33
etz@@ 33
flam@@ 33
have 33
hen@@ 33
hiz@@ 33
hoe 33
imini 33
inv@@ 33
iny 33
ists 33
jav@@ 33
kal 33
kaza 33
kett 33
kun 33
like 33
lim 33
melan@@ 33
mim@@ 33
nitr@@ 33
oris 33
orus 33
part 33
pedi@@ 33
phy@@ 33
poly@@ 33
pon 33
pur 33
rapper 33
seh@@ 33
sichana 33
street 33
suya 33
tain 33
thon 33
uman 33
urn 33
usul@@ 33
vic@@ 33
web@@ 33
work 33
ws 33
xton 33
yth@@ 33
~ 33
École 33
ène 33
ë 33
ɾ@@ 33
الله 33
ṭ@@ 33
.C. 32
0.1 32
0.9 32
1560 32
1591 32
1790 32
3.1 32
328 32
351 32
358 32
367 32
385 32
416 32
427 32
435 32
443 32
477 32
521 32
527 32
536 32
547 32
601 32
602 32
603 32
969 32
AZ 32
Abe 32
Ago@@ 32
Alg@@ 32
Amen@@ 32
Astr@@ 32
Auckland 32
BL 32
Batt@@ 32
Bella 32
Bergen 32
Brandenburg 32
Cag@@ 32
Casablanca 32
Civ@@ 32
Conrad 32
Cornell 32
Coron@@ 32
Croatia 32
Cuban 32
Doctor 32
Einstein 32
Elisabeth 32
Engineering 32
Eskişehir 32
Fair 32
Flo@@ 32
Freiburg 32
Félix 32
Gig@@ 32
Heath 32
Heritage 32
Hubert 32
Hunt 32
IF 32
Information 32
Jong 32
Jules 32
KO@@ 32
Kant 32
Kastamonu 32
Katr@@ 32
Klin@@ 32
Ko 32
Kraków 32
Krishna 32
Lek@@ 32
Lid@@ 32
Ling@@ 32
Lo 32
Lou 32
Lower 32
Mann 32
March 32
Matrix 32
Mecklenburg 32
Mori@@ 32
Morton 32
Neal 32
Nebraska 32
Nich@@ 32
Novo 32
Oakland 32
Ov@@ 32
Oz@@ 32
Padua 32
Pag@@ 32
Part 32
Pho@@ 32
Porter 32
Richardson 32
Ridge 32
Rodrigu@@ 32
Rosario 32
Salisbury 32
Samsun 32
Sasha 32
Save 32
Sebasti@@ 32
Sex@@ 32
Seymour 32
Shirley 32
Sylv@@ 32
Tari@@ 32
Watch 32
Yuk@@ 32
Zaf@@ 32
Zhang 32
acks 32
action 32
ader 32
adol@@ 32
aks 32
angel@@ 32
ank 32
asy@@ 32
atl 32
aven 32
ball@@ 32
bat 32
corona 32
dre@@ 32
dri@@ 32
eld 32
eles 32
elik@@ 32
endorf 32
eor@@ 32
esto 32
form 32
gers 32
heli@@ 32
huel@@ 32
ican 32
idel@@ 32
iel 32
igny 32
iten@@ 32
jpg 32
juz@@ 32
kê 32
leaf 32
lid 32
litz 32
lop 32
lun@@ 32
mona 32
mond 32
nau@@ 32
neg@@ 32
nen 32
ner@@ 32
ols 32
opp@@ 32
opus 32
orr@@ 32
oud@@ 32
oux 32
pandemia 32
phus 32
pist@@ 32
priv@@ 32
put 32
quer@@ 32
rates 32
roy 32
rung 32
ström 32
tos@@ 32
uck@@ 32
wey 32
wig@@ 32
yir@@ 32
zig@@ 32
Île 32
ís 32
ă@@ 32
ū 32
ск 32
ֶ@@ 32
0.8 31
1. 31
1516 31
1535 31
1598 31
197@@ 31
234 31
261 31
273 31
284 31
364 31
433 31
463 31
467 31
47,@@ 31
482 31
506 31
518 31
532 31
546 31
551 31
553 31
681 31
77@@ 31
978 31
990 31
Alc@@ 31
Alessandro 31
Alme@@ 31
Amaz@@ 31
Amin@@ 31
Apostol@@ 31
Bang 31
Benedi@@ 31
Board 31
Books 31
Box 31
Brad 31
Cartagena 31
Cec@@ 31
Chase 31
Clarke 31
Cristi@@ 31
Córdoba 31
Dat@@ 31
Det@@ 31
Dus@@ 31
Esta 31
Fe 31
Food 31
Fried@@ 31
Gru@@ 31
Head@@ 31
Hern@@ 31
Hit@@ 31
Hubble 31
IB 31
IU@@ 31
Indianapolis 31
Initiative 31
Iso@@ 31
Jack@@ 31
Jalisco 31
Kent@@ 31
Kiss@@ 31
Kyoto 31
Latina 31
Lauren 31
Lena 31
MI 31
MR 31
Miles 31
Monroe 31
München 31
Nokia 31
Northwest 31
Né@@ 31
Oak 31
Orth@@ 31
Other 31
Pirates 31
Production 31
Railways 31
Review 31
Rib@@ 31
Scar@@ 31
Sebastian 31
September 31
Serena 31
Shaw 31
Sinclair 31
Somali 31
Sophie 31
Spr@@ 31
Squad 31
Sung 31
Symphony 31
Tech 31
Teen 31
Tenerife 31
Thing 31
Timothy 31
Training 31
U.@@ 31
Val 31
Vogue 31
Von 31
Wanderers 31
Warriors 31
Watt 31
Woods 31
Worcester 31
Y. 31
Zucker@@ 31
alpa 31
anime 31
aras@@ 31
aren@@ 31
asp@@ 31
bian 31
bius 31
dian 31
dle 31
duda 31
dur 31
ede@@ 31
ems 31
enf@@ 31
ennale 31
ety 31
first 31
iens 31
irikisho 31
isl@@ 31
kisi@@ 31
koh@@ 31
lay 31
lidae 31
nati@@ 31
neb@@ 31
obia 31
ois 31
okie 31
ore@@ 31
parta 31
pic@@ 31
plasma 31
play 31
plus 31
program 31
qui 31
song 31
stat@@ 31
stead 31
sui 31
thar@@ 31
tional 31
tius 31
tru@@ 31
ual 31
vier 31
word 31
yst@@ 31
zum@@ 31
émon 31
és 31
ô 31
ũ@@ 31
γ 31
ת 31
وَ@@ 31
藤 31
--- 30
1210 30
1498 30
156 30
1675 30
372 30
388 30
392 30
426 30
428 30
439 30
462 30
465 30
503 30
508 30
523 30
624 30
626 30
639 30
715 30
717 30
718 30
96@@ 30
975 30
Adana 30
Anthro@@ 30
Aran@@ 30
Arist@@ 30
Atatürk 30
BT 30
Base 30
Bee 30
Belle 30
Beverly 30
Bish@@ 30
Bros. 30
Brunswick 30
By 30
Call@@ 30
Capitol 30
Caribbean 30
Cath@@ 30
Chamberlain 30
Comedy 30
Crow@@ 30
Cunningham 30
Cyprus 30
Daisy 30
Dic@@ 30
Environmental 30
Fish@@ 30
Gaulle 30
Gene 30
Goa 30
Gujar@@ 30
HIV 30
Hart 30
Hawkins 30
Heil@@ 30
Hell 30
Helsinki 30
Homer 30
John@@ 30
Jung 30
Kenn@@ 30
Konrad 30
Look 30
Lucia 30
Lucky 30
Malatya 30
Malay 30
Mayo 30
NET 30
Name 30
Nel@@ 30
Nob@@ 30
Norfolk 30
Open 30
Osaka 30
Paz 30
Railway 30
Rhode 30
Ring@@ 30
Saga 30
Savage 30
Springfield 30
Stevenson 30
Studies 30
Suc@@ 30
Sussex 30
Teh@@ 30
Titus 30
Toy@@ 30
Tu 30
Ulu@@ 30
Viet@@ 30
Wed@@ 30
Week 30
Wet@@ 30
What@@ 30
Wood 30
XXI 30
Zach@@ 30
Zanz@@ 30
Zem@@ 30
acy 30
adio 30
ahl 30
aho 30
akter@@ 30
alu@@ 30
ampton 30
andro 30
anh 30
aniel 30
annah 30
atin 30
com 30
cona 30
dat@@ 30
diya 30
eine 30
ender@@ 30
engen 30
eron 30
etime 30
flo@@ 30
fungi@@ 30
gem@@ 30
got 30
html 30
illon 30
inski 30
iting 30
kod@@ 30
law 30
leton 30
lot@@ 30
ments 30
milli@@ 30
msa@@ 30
mund 30
nai@@ 30
occus 30
oidea 30
ologi@@ 30
omus 30
onso 30
otra 30
ph 30
phen@@ 30
pool 30
ppo 30
press 30
quin@@ 30
reno 30
rier 30
sai 30
song@@ 30
sor@@ 30
tical 30
tona 30
tone 30
ub 30
wais@@ 30
ware 30
xen 30
yen 30
yeti 30
ying 30
yne 30
zan@@ 30
zer@@ 30
Ö@@ 30
ʁ@@ 30
י 30
פ@@ 30
् 30
.org 29
0.6 29
1.0 29
1050 29
1215 29
1547 29
1555 29
1580 29
1730 29
1762 29
1823 29
2. 29
278 29
297 29
369 29
389 29
418 29
442 29
448 29
456 29
457 29
487 29
528 29
572 29
635 29
638 29
67,@@ 29
708 29
737 29
815 29
860 29
87@@ 29
94@@ 29
ATP 29
Ander@@ 29
Aydın 29
Benedict 29
Benito 29
Berry 29
Blues 29
Cabr@@ 29
Carol 29
Chan 29
Chen@@ 29
Circle 29
Clo@@ 29
Cohen 29
Commons 29
Cool@@ 29
Covid 29
Dylan 29
Ecuador 29
Eisenhower 29
Elis@@ 29
Elo@@ 29
Eugenio 29
Europe 29
Evangel@@ 29
Evelyn 29
Eye 29
Ferrari 29
Fidel 29
GA 29
GO@@ 29
Germany 29
Gian@@ 29
Grav@@ 29
Guadalajara 29
Gug@@ 29
HP 29
Habsburg 29
Harriet 29
Heli@@ 29
Idaho 29
Johns 29
Julie 29
Klaus 29
Kobe 29
Kyr@@ 29
LS 29
Lama 29
Las@@ 29
Leslie 29
Lorraine 29
Los@@ 29
Louisville 29
MB@@ 29
MG 29
Major 29
Mant@@ 29
Maxwell 29
Medici 29
Melissa 29
Midlands 29
Morrison 29
Nacional 29
Nau@@ 29
Neil 29
Ngo@@ 29
Nir@@ 29
No. 29
Oda 29
PDF 29
Pablo 29
Palmas 29
Patterson 29
Ped@@ 29
Pig@@ 29
Post@@ 29
Regina 29
Rest@@ 29
Reynolds 29
Sant 29
See 29
Soccer 29
Sparta 29
Staf@@ 29
Take 29
Teg@@ 29
Turkey 29
Té@@ 29
Ural 29
Voc@@ 29
Willie 29
Willis 29
Wolver@@ 29
Yang 29
abus 29
aft 29
anas 29
anger@@ 29
anner 29
ards 29
aspir@@ 29
asse 29
athini 29
aver@@ 29
aves 29
ayana 29
ayet@@ 29
azy 29
bau@@ 29
bro 29
cis 29
com. 29
cro@@ 29
door 29
eich@@ 29
erno 29
fac@@ 29
fish 29
force 29
get 29
gri 29
hane 29
hill 29
ieu 29
imbab@@ 29
inian 29
inson 29
iran 29
isch 29
kam 29
lade 29
lou 29
maine 29
makam@@ 29
mod@@ 29
news 29
nis 29
ocar@@ 29
ocy@@ 29
odor@@ 29
oides 29
olstadt 29
ords 29
orie 29
orio 29
ove 29
owski 29
ple 29
pler 29
ples 29
point 29
programming 29
propaganda 29
rea 29
real 29
revision 29
rif@@ 29
rist@@ 29
sant@@ 29
sep@@ 29
sola 29
sum 29
tela 29
tere 29
thouse 29
tific@@ 29
tino 29
tle 29
top 29
torate 29
trof@@ 29
under 29
wikitext 29
yat 29
yle 29
zh@@ 29
ár@@ 29
än@@ 29
élé@@ 29
č 29
ħ@@ 29
š 29
1450 28
1507 28
1530 28
1536 28
1603 28
1620 28
1670 28
1774 28
193@@ 28
2.9 28
294 28
3. 28
3.0 28
352 28
394 28
4.4 28
424 28
434 28
485 28
486 28
4x@@ 28
5. 28
511 28
531 28
542 28
607 28
707 28
770 28
775 28
89@@ 28
97@@ 28
Abbey 28
Afyonkarahisar 28
Agri@@ 28
Alba 28
Andreas 28
Angelo 28
Anti 28
Anto@@ 28
BT@@ 28
Baptiste 28
Barbados 28
Bart@@ 28
Beatles 28
Bennett 28
Bent@@ 28
Bess@@ 28
Bhar@@ 28
Bron@@ 28
Bureau 28
CR@@ 28
Camer@@ 28
Cash 28
Catal@@ 28
Cena 28
Chapman 28
Citi@@ 28
Clifford 28
Clin@@ 28
Court 28
Cry 28
Cuc@@ 28
DN@@ 28
Del 28
Díaz 28
Echo 28
Educ@@ 28
Elliott 28
Era 28
Essex 28
Estate 28
Freud 28
Fritz 28
Fron@@ 28
Generation 28
Gill 28
Giresun 28
Gone 28
Government 28
Guy@@ 28
Hamm@@ 28
Hanover 28
Haven 28
Institut 28
Islamic 28
Ivan@@ 28
Jeanne 28
Kenny 28
Killer 28
Koh@@ 28
Leh@@ 28
Linux 28
Magnus 28
Maritime 28
Maximilian 28
Mi 28
Minor 28
Molek@@ 28
Newman 28
Nicole 28
Ninja 28
Odessa 28
Pa 28
Parad@@ 28
Paradise 28
Peri@@ 28
Pes@@ 28
Philippe 28
Pi 28
Rachel 28
Rafael 28
Ramon 28
Región 28
Rit@@ 28
Rubin 28
SK 28
Salvat@@ 28
Serge 28
Simmons 28
Sister 28
Soci@@ 28
TCP 28
TR@@ 28
TU 28
Team 28
Telegraph 28
Tonga 28
Tril@@ 28
Unity 28
Valentine 28
Vermont 28
Vish@@ 28
WS 28
Week@@ 28
Well@@ 28
Willy 28
Xi@@ 28
Zurich 28
adem@@ 28
akama 28
anan 28
anch@@ 28
assy 28
atma 28
aut 28
bala 28
bergen 28
bonne 28
bé 28
cle 28
code 28
company 28
dama 28
dra@@ 28
eber@@ 28
edio 28
elev@@ 28
ern 28
esin@@ 28
essa 28
estra 28
fif@@ 28
gees 28
gens 28
gri@@ 28
haup@@ 28
huku@@ 28
hurst 28
iTunes 28
icks 28
icon 28
idea 28
insk 28
ires 28
jin 28
jun@@ 28
kho@@ 28
ladi@@ 28
lee 28
lus 28
mari@@ 28
nar 28
nay 28
nd 28
nus 28
ohama 28
ont 28
otto 28
padre 28
power 28
pus 28
ques 28
rez 28
ric 28
rows 28
s. 28
sain 28
sier 28
sion@@ 28
spr@@ 28
tape 28
tende 28
test@@ 28
teur 28
tural 28
tv 28
uit 28
ullah 28
uster 28
ué 28
vey 28
wet@@ 28
will 28
wind@@ 28
Çanakkale 28
ór@@ 28
ır@@ 28
ʾ@@ 28
ν@@ 28
ֵ@@ 28
ת@@ 28
1240 27
1418 27
1605 27
1619 27
1660 27
1756 27
436 27
447 27
491 27
495 27
501 27
504 27
537 27
548 27
552 27
554 27
586 27
641 27
651 27
656 27
68,@@ 27
727 27
843 27
Antonia 27
Arm@@ 27
Ars@@ 27
BE@@ 27
BN 27
Bas 27
Beautiful 27
Benz@@ 27
Bloom@@ 27
Body 27
Boz@@ 27
Brad@@ 27
Brother 27
Cac@@ 27
Campus 27
Cap 27
Cassini 27
Chab@@ 27
Chapel 27
Christine 27
Coff@@ 27
Control 27
Cork 27
Cristina 27
Dame 27
Delaware 27
Den 27
Department 27
Didier 27
Dora 27
Edge 27
Elle 27
Emin 27
En 27
Etim@@ 27
Eust@@ 27
FL 27
FL@@ 27
FS 27
Finn 27
Fow@@ 27
Gallery 27
Genesis 27
Gibson 27
Goethe 27
Greg 27
Göttingen 27
Harbor 27
Hastings 27
Hector 27
Holdings 27
Horiz@@ 27
Hour 27
INE 27
ITV 27
JavaScript 27
Jerusalem 27
Jonas 27
Josh 27
Judy 27
Juni@@ 27
Jus@@ 27
Keep 27
Kocaeli 27
Koz@@ 27
Lancaster 27
Luci@@ 27
MA@@ 27
Modern 27
Mtw@@ 27
NFL 27
NI@@ 27
Natalie 27
Need 27
News@@ 27
Nikolai 27
Noel 27
Nur 27
Oh 27
Pens@@ 27
Pf@@ 27
Player 27
Po 27
Provincia 27
Revolution 27
Rhap@@ 27
Riz@@ 27
Rosen@@ 27
SARS 27
SR 27
Sci@@ 27
Scottish 27
Sky@@ 27
Sta@@ 27
Stephanie 27
Tasmania 27
Territ@@ 27
Thor@@ 27
Three 27
Together 27
Tracks 27
Troy 27
Tudor 27
Veracruz 27
Visual 27
Wings 27
Works 27
Years 27
aber 27
agen 27
aig@@ 27
alls 27
amor@@ 27
anca 27
bad 27
blo@@ 27
bom 27
bor 27
cell@@ 27
chet 27
cic@@ 27
cois 27
coni 27
cos@@ 27
dağ 27
drama 27
dul@@ 27
ebe@@ 27
ec 27
embr@@ 27
emon 27
eren 27
esty 27
eur 27
father 27
gab@@ 27
gai 27
giriki 27
gran@@ 27
hen 27
hiro 27
hiy@@ 27
hood 27
host@@ 27
hou@@ 27
iah 27
icum 27
ih 27
ikon 27
isis 27
itali@@ 27
its@@ 27
lep@@ 27
m. 27
mine 27
now 27
olu 27
ool 27
otus 27
ovic 27
pen 27
rat@@ 27
rev@@ 27
sal 27
sing 27
than@@ 27
thir@@ 27
thor@@ 27
toc@@ 27
tries 27
ucci 27
uridae 27
uth 27
vai 27
vari 27
vic 27
view 27
vić 27
w.@@ 27
wns 27
ynn 27
yr 27
zun@@ 27
ò 27
öder@@ 27
ĩ@@ 27
ın 27
ın@@ 27
ɔ@@ 27
ի@@ 27
ל 27
ר 27
ܐ 27
1080 26
1130 26
1274 26
1427 26
1534 26
1588 26
1637 26
1680 26
195@@ 26
2100 26
31.@@ 26
38.@@ 26
493 26
499 26
524 26
549 26
59.@@ 26
636 26
64,@@ 26
645 26
652 26
666 26
712 26
768 26
911 26
928 26
Achi@@ 26
Administration 26
Ais@@ 26
Barb@@ 26
Bass 26
Boss 26
CF@@ 26
CW 26
Cali 26
Catholic 26
Ch 26
Cliff 26
Coleman 26
Compos@@ 26
Conservation 26
Construction 26
Cri@@ 26
DN 26
Desert 26
Diam@@ 26
Docum@@ 26
Dragon 26
Duk@@ 26
Dw@@ 26
Economics 26
Energy 26
Eti@@ 26
Eugen@@ 26
Fabian 26
Fay@@ 26
Fik@@ 26
Gerhard 26
Giant 26
Gil 26
Gonz@@ 26
Griffin 26
Heaven 26
Honda 26
Irving 26
Johan 26
Kepler 26
Klein 26
Kopenhagen 26
Kron@@ 26
LAN 26
Labour 26
Lea 26
Leng@@ 26
Leverkusen 26
Liz@@ 26
Maharashtra 26
Mans 26
Min 26
Most 26
Moul@@ 26
Nassau 26
Nep@@ 26
Noire 26
Olympic 26
Ottoman 26
Pauline 26
Phar@@ 26
Phot@@ 26
Presley 26
Produc@@ 26
Putin 26
Qing 26
RB 26
Race 26
Rau@@ 26
Richmond 26
Roy@@ 26
Saj@@ 26
Salv@@ 26
Scher@@ 26
Scotia 26
Second 26
Sequ@@ 26
Spring 26
Summit 26
Syracuse 26
TI 26
Tai 26
Tip@@ 26
Tof@@ 26
Trail 26
Tübingen 26
Voy@@ 26
Warrior 26
Warsaw 26
Winchester 26
Woj@@ 26
abaj@@ 26
ajo 26
arc@@ 26
aret 26
aribifu 26
arts 26
atl@@ 26
atri@@ 26
ause 26
azer 26
banks 26
bers 26
bis 26
camp@@ 26
cell 26
cri@@ 26
dah@@ 26
ect@@ 26
edan 26
eds 26
elio 26
elop@@ 26
eps 26
für 26
ged 26
gin 26
group 26
haus 26
icius 26
icky 26
ights 26
iner 26
irus 26
isson 26
ital 26
kat 26
kie 26
lah@@ 26
level 26
liber@@ 26
lip 26
loi 26
lé 26
master 26
moon 26
nel 26
nom 26
oran 26
oskop@@ 26
over@@ 26
pas 26
pass@@ 26
passi@@ 26
poem 26
quez 26
rel 26
rig@@ 26
ror@@ 26
sek@@ 26
sman 26
sun 26
tepe 26
tero 26
tial 26
tland 26
tric@@ 26
ular 26
ularis 26
under@@ 26
urg 26
vale 26
wyn 26
zano 26
zar 26
Çorum 26
Étienne 26
án@@ 26
ères 26
év@@ 26
ē 26
ış 26
ία 26
β@@ 26
山@@ 26
木 26
本 26
田@@ 26
野 26
001 25
1070 25
1260 25
1270 25
1312 25
1380 25
1420 25
1499 25
1609 25
1642 25
1644 25
1763 25
1794 25
2400 25
2700 25
398 25
400@@ 25
45.@@ 25
452 25
464 25
468 25
498 25
526 25
545 25
565 25
589 25
6.4 25
675 25
685 25
901 25
95@@ 25
Access 25
Aden@@ 25
Aer@@ 25
Alfredo 25
Amas@@ 25
Amiens 25
Anal@@ 25
Anhalt 25
Anim@@ 25
Artist 25
Audi 25
Bartol@@ 25
Bertr@@ 25
Bez@@ 25
Brach@@ 25
Bryant 25
Bu 25
CS 25
Case 25
Chic@@ 25
Clu@@ 25
Committee 25
Crown 25
Dick 25
Diplom@@ 25
Dirty 25
Division 25
Donovan 25
EP@@ 25
Evolution 25
Franc@@ 25
GPS 25
Gibbs 25
Glu@@ 25
Guil@@ 25
Gómez 25
H2O 25
HMS 25
Hang@@ 25
Henn@@ 25
Hey 25
Hidro@@ 25
Hig@@ 25
Hotels 25
Index 25
Ira@@ 25
Isab@@ 25
KZ 25
Karnataka 25
Lai 25
Lao 25
Lod@@ 25
Lour@@ 25
Lucius 25
Luxembourg 25
Luz@@ 25
Malik 25
Market 25
Mathe@@ 25
Mirror 25
Mont 25
Much@@ 25
Musical 25
Myr@@ 25
Naomi 25
Net 25
Newark 25
Oly@@ 25
Origen 25
Osman 25
Ottawa 25
PAC 25
Philipp@@ 25
Pierce 25
Plin@@ 25
Polo 25
Publishing 25
Pus@@ 25
Quer@@ 25
Quil@@ 25
Rally 25
Rick 25
Riley 25
Rob 25
Rochester 25
Rocky 25
Roh@@ 25
Roll 25
ST 25
Sain@@ 25
Santana 25
Schne@@ 25
Sheriff 25
Side 25
Sing 25
Siz@@ 25
SmackDown 25
Sod@@ 25
Source 25
Spo@@ 25
Stein@@ 25
Taun@@ 25
Tell 25
Tex@@ 25
Thai 25
Timber@@ 25
Tod 25
Tracy 25
Turn@@ 25
UA 25
UE@@ 25
Univers@@ 25
Urs@@ 25
Viel@@ 25
Viktor 25
Villar@@ 25
Yozgat 25
Zagreb 25
Zhu@@ 25
acker 25
acle 25
aen@@ 25
agona 25
akes 25
aling 25
amar 25
angem@@ 25
anges@@ 25
arat 25
ases@@ 25
aster 25
asum@@ 25
auto@@ 25
avir@@ 25
bri@@ 25
digital 25
eal 25
eim 25
ellen 25
enh@@ 25
esc@@ 25
estan 25
eux 25
eves 25
feld 25
funk 25
gir 25
hay 25
hiidae 25
hipa 25
hos@@ 25
idon 25
ieri 25
ihan@@ 25
iler 25
illas 25
inos 25
ious 25
ishers 25
istic 25
itch 25
juana 25
kuanz@@ 25
ky@@ 25
lama 25
lap@@ 25
lary 25
lion 25
lom@@ 25
luk 25
matr@@ 25
miner@@ 25
olan 25
olla 25
omys 25
onas 25
onidae 25
ories 25
ouv@@ 25
paradig@@ 25
people 25
pert 25
pin 25
pith@@ 25
plut@@ 25
pup@@ 25
py@@ 25
qua 25
return 25
rhy@@ 25
ros 25
rus@@ 25
same 25
sau 25
space 25
suka 25
syn@@ 25
tau 25
thm 25
trac@@ 25
tree 25
trig@@ 25
tura 25
uer@@ 25
ugu@@ 25
ulin 25
ums 25
vir 25
wers 25
which 25
xa 25
zar@@ 25
zon 25
ė@@ 25
ός 25
ׁ@@ 25
ῖ@@ 25
郎 25
1066 24
1170 24
1180 24
1230 24
1303 24
1415 24
1439 24
1532 24
1570 24
1582 24
1590 24
1595 24
1607 24
1618 24
1630 24
1632 24
1667 24
1710 24
1765 24
190@@ 24
3.9 24
31,@@ 24
376 24
42.@@ 24
454 24
46.@@ 24
466 24
469 24
478 24
49.@@ 24
543 24
582 24
585 24
595 24
627 24
907 24
940 24
ABA 24
Adnan 24
Alonso 24
Alph@@ 24
Annie 24
Ar 24
Artvin 24
Bahia 24
Baptist 24
Bartolom@@ 24
Bengal 24
Bing 24
Boyd 24
Bradford 24
Brand 24
Britann@@ 24
Cau@@ 24
Ced@@ 24
Centr@@ 24
Charleston 24
Cl 24
Cli@@ 24
Clim@@ 24
Complex 24
Cornwall 24
Cres@@ 24
DB 24
Daimler 24
Dais@@ 24
Dalton 24
Derek 24
Dioc@@ 24
Dip@@ 24
Dreams 24
Dundee 24
Earl 24
Ech@@ 24
Erie 24
Federico 24
Female 24
Fine 24
Fitzgerald 24
Friday 24
Fu 24
GNU 24
GP@@ 24
Ges@@ 24
Gin@@ 24
Giov@@ 24
Glory 24
Hadi@@ 24
Hampton 24
Hein@@ 24
Hoff@@ 24
Holocaust 24
Horn 24
Huang 24
Imag@@ 24
Jacobs 24
Javier 24
Jeffrey 24
Jesús 24
Jord@@ 24
Jov@@ 24
Jura 24
LG@@ 24
LGBT 24
Levi 24
Locke 24
Luc 24
Luch@@ 24
Manila 24
Marcel 24
Mari 24
Marsh@@ 24
Michel@@ 24
Mitsubishi 24
Moskva 24
Motor@@ 24
Moz@@ 24
NH@@ 24
Nati@@ 24
Natural 24
Navy 24
Night@@ 24
Office 24
Oliveira 24
Olympique 24
Our@@ 24
Pati@@ 24
Per 24
Perth 24
Pietro 24
Plant@@ 24
Poetry 24
Potsdam 24
Quint@@ 24
Rain 24
Re 24
Reagan 24
Reed 24
Rij@@ 24
Rin@@ 24
Rodríguez 24
Saxon 24
Seth 24
Six 24
Slam 24
Solanum 24
Spears 24
Spirit 24
Strange 24
TB 24
TNT 24
Technologies 24
Terror 24
Thames 24
Thir@@ 24
Timur 24
Tokat 24
Tucker 24
Tug@@ 24
Tunes 24
Universit@@ 24
Ved@@ 24
Venus 24
Vernon 24
Volk@@ 24
WWF 24
Westminster 24
Wir@@ 24
Xavier 24
Xin@@ 24
Yu 24
Zul@@ 24
act 24
acán 24
alya 24
anali@@ 24
anco 24
aries 24
arith@@ 24
asar 24
atz 24
back@@ 24
belt 24
bey@@ 24
bire@@ 24
burg@@ 24
bute 24
cal 24
centr@@ 24
church 24
cons@@ 24
cum 24
dim 24
dro@@ 24
ebel 24
einer 24
ells 24
enst@@ 24
erk@@ 24
fed@@ 24
fem@@ 24
fib@@ 24
four 24
gene 24
git@@ 24
glu@@ 24
hass@@ 24
hn 24
ifer@@ 24
ikal 24
ior 24
isra@@ 24
isten 24
ited 24
ivi@@ 24
kali@@ 24
kre@@ 24
lac@@ 24
lation 24
lfriend 24
lige 24
liy@@ 24
lyn 24
medi@@ 24
mens@@ 24
meta 24
mol 24
movie 24
ograd 24
oid 24
olet 24
olith@@ 24
online 24
orta 24
palest@@ 24
parach@@ 24
parad@@ 24
phr@@ 24
raf 24
rini 24
river 24
ré@@ 24
stadium 24
stan@@ 24
sten 24
suy@@ 24
tac@@ 24
tec@@ 24
tee 24
tiz@@ 24
tros 24
uel 24
uh 24
very 24
vet@@ 24
yel@@ 24
yem 24
yev 24
Å@@ 24
γ@@ 24
ܘ@@ 24
‏ 24
夫 24
1280 23
1305 23
1310 23
1330 23
1430 23
1501 23
1512 23
1515 23
1522 23
1524 23
1549 23
1720 23
1741 23
1767 23
1796 23
194@@ 23
3.6 23
34.@@ 23
47.@@ 23
522 23
544 23
575 23
655 23
725 23
814 23
84@@ 23
890 23
925 23
ACC 23
AJ 23
AL 23
Actress 23
After 23
Ahr@@ 23
Aleksand@@ 23
Amanda 23
Apr@@ 23
Arj@@ 23
Ashley 23
Auguste 23
Aval@@ 23
Avengers 23
Bachelor 23
Baldwin 23
Barton 23
Bel 23
Better 23
Bey@@ 23
Block 23
Bolu 23
Brabant 23
Break@@ 23
Buff@@ 23
Cannes 23
Cat 23
Cay@@ 23
Century 23
Champion 23
Championships 23
Chester 23
Christian@@ 23
Christophe 23
Chron@@ 23
Chung 23
Châ@@ 23
Cis@@ 23
Civic 23
Clan 23
Clayton 23
Cloud 23
Clyde 23
Cow@@ 23
Dale 23
Dana 23
Das@@ 23
Dawn 23
Denver 23
Diane 23
Diyarbakır 23
Düsseldorf 23
EL 23
EM 23
ESCO 23
Easy 23
Elec@@ 23
Emp@@ 23
Eph@@ 23
Erzincan 23
Eyes 23
FF@@ 23
Factor 23
Fant@@ 23
Fen@@ 23
Fleming 23
Four@@ 23
GE@@ 23
Gebr@@ 23
Gent@@ 23
Gif@@ 23
Gond@@ 23
Grenoble 23
Guill@@ 23
Gusta@@ 23
HV@@ 23
Hale 23
Halle 23
Happy 23
Heidelberg 23
Hungary 23
IV@@ 23
Igor 23
Isle 23
Jamie 23
Job 23
Jr. 23
KP@@ 23
Kabul 23
Kamera 23
Kars 23
Krak@@ 23
LE 23
Lab 23
Lamp@@ 23
Legend 23
Liechtenstein 23
List 23
Lyc@@ 23
MP 23
Mariano 23
Mathias 23
Mend@@ 23
Mercedes 23
Midd@@ 23
Miranda 23
Moun@@ 23
Multi@@ 23
Muğla 23
Neville 23
Nij@@ 23
Nikolaus 23
Organisation 23
Performance 23
Plymouth 23
Pog@@ 23
Potosí 23
Rai 23
Ram 23
Recordings 23
Report 23
Rhône 23
Rodrigo 23
Roland 23
Rush 23
SB 23
Sakarya 23
Schi@@ 23
Serra 23
Serv@@ 23
Shr@@ 23
Silver 23
Some@@ 23
Soto 23
Spar@@ 23
Stand 23
Stefan 23
Stock 23
Stra@@ 23
Sullivan 23
Swe@@ 23
Sylvia 23
Theory 23
Todd 23
Trich@@ 23
Triple 23
UCLA 23
VP 23
Wade 23
Waterloo 23
Weber 23
Wendy 23
Whe@@ 23
Where 23
Wild 23
Winter@@ 23
Work 23
Z. 23
Zir@@ 23
aat 23
ancy 23
anted 23
ardt 23
arum 23
arus 23
atayo 23
ation@@ 23
atorio 23
avan 23
bahn 23
balls 23
bog@@ 23
borne 23
brom@@ 23
chir@@ 23
cliffe 23
cone 23
dev 23
edra 23
egal 23
eit 23
eley 23
ember 23
ember@@ 23
emy 23
enk@@ 23
erson 23
essing 23
eve 23
fact 23
fat 23
fat@@ 23
ffe 23
fini 23
gie 23
gii 23
gué 23
how 23
iet 23
illing 23
immun@@ 23
infrar@@ 23
insky 23
itor 23
jk 23
kas 23
kırı 23
lax@@ 23
liers 23
lik 23
made 23
male 23
mawas@@ 23
mko@@ 23
nea 23
ngo@@ 23
non@@ 23
nos 23
obus 23
oco 23
orah 23
orchestra 23
orian 23
otta 23
oul 23
quil@@ 23
records 23
ren 23
roll 23
sahi@@ 23
sang 23
ses@@ 23
sitcom 23
squ@@ 23
style 23
sung 23
tal 23
thera 23
topo@@ 23
tori@@ 23
toria 23
unes 23
urai 23
urt 23
veri 23
vern@@ 23
vis 23
wave 23
xe 23
xico 23
xx 23
zhou 23
å 23
édi@@ 23
ò@@ 23
øn@@ 23
Č@@ 23
ʼ@@ 23
ε@@ 23
א 23
ק@@ 23
Ḥ@@ 23
″ 23
--@@ 22
1316 22
1431 22
1505 22
1523 22
1531 22
1533 22
1537 22
1565 22
1581 22
1592 22
1748 22
1772 22
2025 22
2200 22
3.8 22
437 22
5.4 22
5.6 22
66,@@ 22
965 22
976 22
AH 22
Affairs 22
Agriculture 22
Albany 22
Alexandre 22
Alz@@ 22
Andro@@ 22
Auvergne 22
BM 22
BO 22
Barrett 22
Belgrade 22
Boliv@@ 22
Bord@@ 22
Bravo 22
Brisbane 22
Britney 22
Burns 22
Cecilia 22
Champ@@ 22
Champagne 22
Cho 22
Collection 22
Consult@@ 22
Cox 22
César 22
DS@@ 22
Dark 22
Dinamo 22
Domingo 22
Doug@@ 22
Dwight 22
ES 22
Edition 22
Eduard 22
Egypt 22
Eil@@ 22
Ein@@ 22
Elazığ 22
Elbe 22
Emilio 22
Epic 22
Esc@@ 22
Fai@@ 22
Feel 22
Flag 22
Flin@@ 22
Form@@ 22
GC 22
GE 22
Gag@@ 22
Gard@@ 22
Gay@@ 22
Genti@@ 22
Giuli@@ 22
Goth@@ 22
Gour@@ 22
Grammar 22
Grec@@ 22
Gud@@ 22
Guerrero 22
Göte@@ 22
H1 22
Harper 22
Hart@@ 22
Harvey 22
Hatay 22
Herak@@ 22
Herschel 22
Hodg@@ 22
Holding 22
Hub@@ 22
Humph@@ 22
Hyper@@ 22
Indies 22
Islam@@ 22
Jacob@@ 22
Jim@@ 22
Kyle 22
LD 22
Lola 22
Luf@@ 22
Léopol@@ 22
Made 22
Mail 22
Mall 22
Marianne 22
Martínez 22
Mel 22
Merr@@ 22
Milwaukee 22
Moc@@ 22
Model 22
Msum@@ 22
Municipal 22
NR@@ 22
Native 22
Nico 22
Nie@@ 22
Olymp@@ 22
Online 22
PE 22
PHP 22
Palau 22
Palm@@ 22
Pearson 22
Phy@@ 22
Pie@@ 22
Plus 22
Presbyteri@@ 22
Prof. 22
Prosp@@ 22
Providence 22
Puebla 22
Pyrénées 22
Ramón 22
Rand 22
Raúl 22
Rise 22
SN 22
Sai@@ 22
Salem 22
Sciences 22
Security 22
Seh@@ 22
Split 22
Statistics 22
Steel 22
Sten@@ 22
Stur@@ 22
Sund@@ 22
Sym@@ 22
TE 22
Tarn 22
Technical 22
Tel 22
Temple 22
Tep@@ 22
Toul@@ 22
Tree 22
UD 22
Uttar 22
WO@@ 22
Webb 22
Wein@@ 22
Wembley 22
Wid@@ 22
Winter 22
Wr@@ 22
Wur@@ 22
Yuan 22
Yves 22
Zap@@ 22
abase 22
adura 22
amina 22
amn@@ 22
amt 22
andal 22
antal 22
antan@@ 22
aransa 22
are@@ 22
arge 22
arl@@ 22
asing 22
atrix 22
awards 22
been 22
bol 22
bright 22
card 22
chan 22
chart 22
chem 22
chrom@@ 22
cir@@ 22
cot 22
cover 22
det@@ 22
dete 22
disease 22
duo 22
eber 22
ecas 22
ects 22
elin 22
elis 22
ench@@ 22
encia 22
enheim 22
ening 22
epi@@ 22
erus 22
es.@@ 22
femin@@ 22
fou@@ 22
franchise 22
greg@@ 22
hon 22
idas 22
ign 22
iller 22
iris 22
jen 22
join@@ 22
kav@@ 22
ket 22
khe@@ 22
kim 22
know 22
kot 22
ković 22
list 22
lon@@ 22
lows 22
lula 22
machine 22
medi 22
mos 22
muhaf@@ 22
nada 22
obr@@ 22
occ@@ 22
oci@@ 22
olm 22
omi@@ 22
onio 22
oras 22
pit@@ 22
post 22
pou@@ 22
rim 22
rus 22
sam 22
self 22
sell 22
sesi 22
set@@ 22
seus 22
state 22
t. 22
tenburg 22
tered 22
they 22
tio 22
title 22
trum 22
twood 22
ulum 22
upp@@ 22
uy 22
vak@@ 22
ven 22
versi@@ 22
version 22
yar 22
zem@@ 22
zin 22
zir@@ 22
Çan@@ 22
Ø@@ 22
éré@@ 22
ü 22
ük 22
ɑ@@ 22
ская 22
յ@@ 22
ز@@ 22
一 22
山 22
川 22
1160 21
1484 21
1490 21
1525 21
1529 21
1546 21
1552 21
1556 21
1563 21
1596 21
1599 21
1601 21
1608 21
1624 21
1627 21
1649 21
1655 21
1721 21
1764 21
1782 21
189@@ 21
3200 21
473 21
494 21
5.7 21
562 21
576 21
667 21
69,@@ 21
801 21
914 21
99.@@ 21
ASA 21
Acacia 21
Ad 21
Adolfo 21
Albu@@ 21
Ami@@ 21
Amn@@ 21
Antar@@ 21
Arlington 21
Artem@@ 21
Associated 21
Augusta 21
Axel 21
Bari 21
Baron 21
Beb@@ 21
Benedic@@ 21
Bit 21
Box@@ 21
Brag@@ 21
Bride 21
Buchanan 21
CL 21
Cah@@ 21
Cali@@ 21
Cam 21
Capit@@ 21
Capr@@ 21
Card@@ 21
Care 21
Carmen 21
Ceph@@ 21
Chas@@ 21
Churchill 21
Code 21
Conservative 21
Dante 21
Donn@@ 21
Dover 21
Düz@@ 21
Eagle 21
Edi@@ 21
Erica 21
Exeter 21
Far 21
Fi 21
Film@@ 21
Garrett 21
Gaziantep 21
Germania 21
Gill@@ 21
Give 21
Golf 21
Goodman 21
Greg@@ 21
Guadalupe 21
Guar@@ 21
HO@@ 21
Heart@@ 21
Hod@@ 21
Holmes 21
ISS 21
Ida 21
Ign@@ 21
Imp@@ 21
Inspec@@ 21
Io@@ 21
Italian 21
Jet 21
Jin 21
Kann@@ 21
Langu@@ 21
Late 21
Loh@@ 21
MBA 21
MK 21
MK@@ 21
MX 21
Marilyn 21
Marx@@ 21
Mata 21
McC@@ 21
Medina 21
Meer 21
Meiji 21
Mell@@ 21
Mer 21
Mersin 21
Middlesex 21
Mission@@ 21
Mother 21
Motors 21
Myers 21
NB 21
NC 21
NXT 21
Netherlands 21
Ninh 21
Nuevo 21
Oaxaca 21
October 21
Olimp@@ 21
Oriental 21
Orthodox 21
PN 21
PP 21
Param@@ 21
Paz@@ 21
Percy 21
Petro@@ 21
Philipp 21
Pist@@ 21
Pras@@ 21
Rain@@ 21
Rize 21
Room 21
SUV 21
Sainte 21
Sandy 21
Schmidt 21
Schwe@@ 21
Script 21
Shannon 21
Ship@@ 21
Somerset 21
Spring@@ 21
Ston@@ 21
Tamil 21
Tampa 21
Te 21
Techn@@ 21
Thanh 21
Tiger 21
Touch 21
Trig@@ 21
Underground 21
Valladolid 21
Volkswagen 21
Wellington 21
XL 21
Xia@@ 21
Zhou 21
ading 21
alt 21
amaduni 21
app 21
arium 21
arti@@ 21
athon 21
atoria 21
atory 21
bourne 21
bul 21
burgh 21
cipe 21
cut@@ 21
debe 21
dina 21
dun@@ 21
dura 21
ecik 21
ecus 21
edes 21
egger 21
eleg@@ 21
elo@@ 21
emann 21
engu@@ 21
enig@@ 21
enso 21
enus 21
eral 21
erer 21
etes 21
fik 21
fina 21
free 21
game 21
gamma 21
gau 21
grey 21
halde 21
hero 21
high@@ 21
ht 21
ifera 21
igner 21
ild 21
ingrad 21
international 21
iriki@@ 21
iscus 21
istem@@ 21
iston 21
jang@@ 21
jung@@ 21
lap 21
lave 21
lem 21
light 21
ls 21
lug 21
math@@ 21
nag@@ 21
nak 21
o- 21
ograph@@ 21
ois@@ 21
onic 21
oning 21
opidae 21
org 21
orn@@ 21
oss 21
oue 21
ously 21
ovia 21
pach@@ 21
phy 21
prof@@ 21
pé 21
rane 21
rian 21
rol 21
scher@@ 21
sec@@ 21
tau@@ 21
television 21
thus 21
tif 21
ting@@ 21
tures 21
té 21
udo 21
ulf 21
ures 21
ustr@@ 21
uts 21
vas@@ 21
vere 21
weight 21
yekiti 21
yeni 21
yx 21
zek 21
µ@@ 21
½ 21
æ 21
éc@@ 21
ık@@ 21
Şanlıurfa 21
ον 21
ρ@@ 21
ւ@@ 21
ג@@ 21
عبد 21
→ 21
井 21
村 21
松@@ 21
002 20
1.0@@ 20
1001 20
1150 20
1241 20
1320 20
1538 20
1539 20
1542 20
1545 20
1566 20
1567 20
1593 20
1612 20
1616 20
1621 20
1633 20
1679 20
1717 20
1728 20
1758 20
1769 20
1773 20
2050 20
32@@ 20
4.1 20
4.7 20
474 20
48,@@ 20
481 20
5.1 20
5.8 20
58.@@ 20
581 20
6.2 20
767 20
845 20
985 20
Adult 20
Agen@@ 20
Aig@@ 20
Amasya 20
Another 20
Antwer@@ 20
Archib@@ 20
Art@@ 20
Att@@ 20
Because 20
Beethoven 20
Bern 20
Bernardino 20
Bir 20
Björ@@ 20
Blanc 20
Boca 20
Bolsh@@ 20
Brenn@@ 20
Brooke 20
Buck@@ 20
Butter@@ 20
Bình 20
Campo 20
Canadian 20
Cand@@ 20
Carnegie 20
Chance 20
Chom@@ 20
Chor@@ 20
Christie 20
Chuck 20
Communications 20
Cortes 20
Count 20
Creative 20
Cuando 20
Damon 20
Danube 20
Danzig 20
Deg@@ 20
Dom 20
Donna 20
EF@@ 20
EN 20
Edirne 20
Eis@@ 20
Eisen@@ 20
Elev@@ 20
Eri@@ 20
Every@@ 20
Fantas@@ 20
Fey@@ 20
Fif@@ 20
Finance 20
Flu@@ 20
Fot@@ 20
Fuji@@ 20
GI 20
Goldberg 20
Gow@@ 20
Grove 20
Guide 20
Guild 20
Gümüş@@ 20
HD 20
Hack@@ 20
Hahn 20
Hand 20
Hans@@ 20
Hati@@ 20
Hit 20
Horace 20
Horst 20
IE@@ 20
Inf@@ 20
Iron@@ 20
Jazz@@ 20
Jens 20
Jes@@ 20
July 20
June 20
Kahramanmaraş 20
Kane 20
Kazan 20
Kerry 20
Kes@@ 20
Kuy@@ 20
Kö@@ 20
Language 20
Lew@@ 20
Liège 20
Luth@@ 20
Manning 20
Mardin 20
Marta 20
Marvin 20
Mechan@@ 20
Mobile 20
Mund@@ 20
Must@@ 20
NK 20
Naples 20
Newport 20
Nguyễn 20
Nueva 20
OC 20
Odys@@ 20
Orion 20
Oro@@ 20
PRO@@ 20
Paper 20
Pavel 20
Penn@@ 20
Pis@@ 20
Planet 20
Play@@ 20
Plaza 20
Private 20
Proj@@ 20
Pyr@@ 20
Quang 20
Ramos 20
Rhin@@ 20
Rik@@ 20
Rok@@ 20
Rox@@ 20
Sang 20
Saturn 20
Schw@@ 20
Se 20
Second@@ 20
Sekond@@ 20
Shawn 20
Sinf@@ 20
Sinop 20
Solo 20
Sph@@ 20
Stock@@ 20
Stri@@ 20
Su 20
Suzanne 20
Switzerland 20
Taus@@ 20
Tekir@@ 20
These 20
Thorn@@ 20
Tiy@@ 20
Truman 20
Turbo 20
Ubuntu 20
Vag@@ 20
Vega 20
WCW 20
WW@@ 20
Walk 20
Wells 20
Wien 20
Wong 20
Wy@@ 20
Wyoming 20
Yes@@ 20
Yok@@ 20
Yuc@@ 20
\ 20
abb@@ 20
abis 20
accalaur@@ 20
acea 20
acia 20
acid 20
aira 20
ament@@ 20
andez 20
andt 20
anese 20
antes 20
anun@@ 20
apur 20
apy 20
arif 20
ato@@ 20
award 20
ayak@@ 20
azan 20
berger 20
berry 20
bow@@ 20
cant@@ 20
car 20
cer 20
chio 20
continental 20
dat 20
dicho 20
dige 20
disco 20
dollar 20
dor 20
dwell 20
ead 20
ecker 20
edy 20
elen 20
eler 20
elos 20
enci@@ 20
endan 20
eno@@ 20
ense@@ 20
ept@@ 20
equ@@ 20
erumani 20
esch@@ 20
etary 20
eur@@ 20
ezer 20
football 20
gaz@@ 20
hag@@ 20
heit 20
hoven 20
hyper@@ 20
icht 20
ict 20
idal 20
iformes 20
igne 20
igns 20
ilus 20
ingu@@ 20
irat@@ 20
itaria 20
ité 20
ives 20
iyi 20
jag@@ 20
jesu@@ 20
km@@ 20
lati@@ 20
liga 20
lines 20
met 20
ming 20
mir 20
mono@@ 20
mua 20
muz@@ 20
nica 20
nific@@ 20
ochem@@ 20
ofauti@@ 20
ogen 20
ographic 20
olle 20
onian 20
onius 20
oples 20
orno 20
oros 20
oscop@@ 20
page 20
palli@@ 20
patr@@ 20
pec@@ 20
phi@@ 20
piz@@ 20
rax 20
refu@@ 20
rique 20
rix 20
rov@@ 20
sad@@ 20
sau@@ 20
sher@@ 20
sir 20
sive 20
smith 20
sonian 20
spap@@ 20
stars 20
sters 20
sul 20
table 20
tando 20
tat@@ 20
tec 20
tery 20
test 20
them 20
tilla 20
trea 20
urst 20
using 20
utt@@ 20
vek@@ 20
vel 20
vers@@ 20
vette 20
vor@@ 20
women 20
xter 20
ycl@@ 20
ün@@ 20
ş 20
Ž@@ 20
ʉ@@ 20
Π@@ 20
ρος 20
Ա@@ 20
տ@@ 20
د@@ 20
Ἰ@@ 20
三 20
小@@ 20
雄 20
高@@ 20
0.000 19
1350 19
1409 19
1410 19
1497 19
1503 19
1506 19
1510 19
1511 19
1513 19
1568 19
1613 19
1623 19
1629 19
1643 19
1671 19
1676 19
1689 19
1713 19
1725 19
1729 19
1732 19
1736 19
1744 19
1768 19
1781 19
250@@ 19
4.0 19
44.@@ 19
48.@@ 19
7.2 19
777 19
9. 19
99,@@ 19
Advanced 19
Adıyaman 19
Aim@@ 19
Alexis 19
Alicia 19
Alphonse 19
Amazing 19
Anders 19
Andrés 19
Angers 19
Aph@@ 19
Archit@@ 19
Arrow 19
Arti@@ 19
Asp@@ 19
Atari 19
Aten@@ 19
Atlantis 19
Atom@@ 19
Aurora 19
Avignon 19
BAFTA 19
BI@@ 19
Ban 19
Barnes 19
Beauty 19
Benjam@@ 19
Bever@@ 19
Bingöl 19
Bo 19
Bosch 19
Bot 19
Bourgogne 19
Bowl 19
Branch 19
Bras@@ 19
Buffy 19
Bull 19
Bund@@ 19
Bus 19
Calais 19
Candy 19
Carac@@ 19
Cathedral 19
Cherry 19
Chihuahua 19
Class 19
Claudius 19
Cod@@ 19
Crist@@ 19
Cross@@ 19
DR@@ 19
Dead@@ 19
Deep 19
Deme@@ 19
Des 19
Devon 19
Dill@@ 19
Dru@@ 19
ET@@ 19
Edison 19
Edmon@@ 19
Emerson 19
Emil@@ 19
Enterprise 19
Erwin 19
Fan 19
Fav@@ 19
February 19
Frédéric 19
GS 19
Gardner 19
Giang 19
Gim@@ 19
Glo@@ 19
Glob@@ 19
Gottfried 19
Greek 19
Greene 19
Guadal@@ 19
Guido 19
Hanna 19
Harald 19
Henrik 19
Human@@ 19
Hyde 19
Hydr@@ 19
IM 19
Independence 19
Inn 19
Italy 19
JP 19
Jakarta 19
Jud@@ 19
Junction 19
Jut@@ 19
Kapit@@ 19
Key 19
Keys 19
LB 19
Lancashire 19
Lead@@ 19
Leningrad 19
Library 19
Lincoln@@ 19
Lions 19
Local 19
Lu 19
MCA 19
Marburg 19
Marcelo 19
Marcos 19
Marine 19
McCartney 19
Middles@@ 19
Mill 19
Mina 19
Mind 19
Mons 19
Már@@ 19
Mä@@ 19
Natalia 19
Nintendo 19
Noy@@ 19
O2 19
Oise 19
Ole@@ 19
Olivier 19
Ork@@ 19
PK 19
PT@@ 19
Page 19
Paw@@ 19
Pioneer 19
Portal 19
Potter 19
Preston 19
Pretty 19
Proc@@ 19
Pérez 19
Quir@@ 19
Raz@@ 19
Rennes 19
Rollins 19
Romeo 19
Sally 19
Salt 19
Samantha 19
Sami 19
Saray@@ 19
Send@@ 19
Sharp 19
Sieg@@ 19
Silla 19
Smart 19
Soh@@ 19
Soria 19
Spin@@ 19
Stan 19
Stein 19
Sue 19
Superior 19
Survivor 19
Swift 19
Systems 19
Ta 19
Tan 19
Tarr@@ 19
Teddy 19
Thor 19
Total 19
Train 19
Tyr@@ 19
UC 19
UL@@ 19
Un 19
Upp@@ 19
Ursula 19
Valenci@@ 19
VfB 19
Vigo 19
Vinci 19
Wan 19
Warwick 19
Word 19
Yer 19
Zhao 19
abei 19
ables 19
about 19
abra 19
aca@@ 19
acat@@ 19
ados 19
agre@@ 19
ajan 19
alab@@ 19
alc@@ 19
alists 19
arie 19
ashtra 19
ather 19
ators 19
atti 19
auss 19
autom@@ 19
av 19
ayr@@ 19
azz 19
bauer 19
bed@@ 19
bili@@ 19
cab@@ 19
celi 19
cen@@ 19
chia 19
club 19
cola 19
cou@@ 19
cules 19
dance 19
dek@@ 19
ders@@ 19
divis@@ 19
dum 19
dus 19
dès 19
eci 19
ector 19
edon 19
education 19
egel 19
ennium 19
ental 19
erre 19
estyle 19
etic 19
evi@@ 19
fera 19
fino 19
fred 19
fro@@ 19
fusion 19
gate 19
hang 19
hard@@ 19
hung 19
hé@@ 19
ibl@@ 19
icon@@ 19
ilk 19
inal 19
indica 19
initi@@ 19
irs 19
iste 19
iyet 19
kW 19
köy 19
lic@@ 19
lieu 19
loe 19
lop@@ 19
luc@@ 19
mani@@ 19
manus@@ 19
math 19
mey@@ 19
mic 19
mie 19
mph 19
mt 19
ners 19
nig 19
oca 19
ograf@@ 19
oking 19
oly@@ 19
onal 19
ondr@@ 19
onis 19
oque 19
oration 19
osaur@@ 19
oslav 19
oste@@ 19
oun@@ 19
owitz 19
pay@@ 19
ped@@ 19
pent@@ 19
person 19
phu 19
pm 19
port@@ 19
prol@@ 19
rab@@ 19
rett 19
ridge 19
ries 19
rpm 19
rug@@ 19
saxoph@@ 19
shan 19
sko@@ 19
som 19
sous 19
sville 19
tage 19
tem 19
therap@@ 19
thin 19
timo 19
tism 19
trav@@ 19
ual@@ 19
ulan 19
ump 19
utes 19
vania 19
ww@@ 19
xy 19
yal 19
years 19
yet 19
yla 19
Év@@ 19
Öz@@ 19
ás 19
ás@@ 19
équ@@ 19
õ@@ 19
ör@@ 19
ün 19
Đồng 19
ė 19
ław 19
šić 19
ż@@ 19
ɨ@@ 19
α@@ 19
η 19
ז@@ 19
ס@@ 19
اد 19
رَ@@ 19
አ@@ 19
三@@ 19
和@@ 19
0.0@@ 18
1185 18
1204 18
1308 18
1325 18
1370 18
1405 18
1406 18
1417 18
1425 18
1480 18
1494 18
1502 18
1527 18
1554 18
1558 18
1571 18
1578 18
1585 18
1586 18
1589 18
1606 18
1617 18
1631 18
1645 18
1651 18
1722 18
1726 18
1778 18
1786 18
1788 18
21@@ 18
2300 18
2600 18
3.0@@ 18
441 18
471 18
57.@@ 18
59,@@ 18
6.7 18
6.8 18
7. 18
757 18
875 18
996 18
ACE 18
Afrik@@ 18
After@@ 18
Akadem@@ 18
Arsen@@ 18
Assemb@@ 18
Aster@@ 18
Audi@@ 18
Auschwitz 18
Aviv 18
Ağrı 18
Basse 18
Bav@@ 18
Beck@@ 18
Bertrand 18
Bible 18
Bitlis 18
Bombay 18
Brook@@ 18
Buck 18
Bulls 18
CON@@ 18
Caj@@ 18
Canton 18
Cerro 18
Chall@@ 18
Chat@@ 18
Chrom@@ 18
Chur@@ 18
Clube 18
Common 18
Coventry 18
DI@@ 18
Dau@@ 18
Der 18
Dictionary 18
Dijon 18
Dominique 18
Dra@@ 18
Duf@@ 18
Durham 18
Dynam@@ 18
Egyptian 18
Elsa 18
Em 18
Enrico 18
Factory 18
Fest@@ 18
Films 18
Gaius 18
Galli@@ 18
Garr@@ 18
González 18
Griffith 18
Gus@@ 18
Gérard 18
HT 18
HT@@ 18
Ha 18
Hearts 18
Helmut 18
Hoffman 18
Hokka@@ 18
Holly 18
Hous@@ 18
IEEE 18
IO@@ 18
ION 18
ISA 18
Impact 18
Irish 18
Isabella 18
Jans@@ 18
Jenny 18
Jug@@ 18
Lara 18
Lazar@@ 18
Liberal 18
MR@@ 18
MT 18
Magdal@@ 18
Mallorca 18
March@@ 18
Mein@@ 18
Mercur@@ 18
Mikro@@ 18
Monterrey 18
Norton 18
Notre 18
Occidental 18
Olympia 18
Osk@@ 18
Padre 18
Pas 18
Phili@@ 18
Picture 18
Pix@@ 18
Plate 18
Príncipe 18
Quar@@ 18
Que@@ 18
Ques@@ 18
RCA 18
RF@@ 18
Randall 18
Regional 18
Rep@@ 18
Roses 18
Rover 18
Rudolph 18
Salm@@ 18
Samm@@ 18
Search 18
Sergei 18
Shiva 18
Show@@ 18
Singapur 18
Sist@@ 18
Sociedad 18
Spor@@ 18
Stav@@ 18
Steam 18
Storm 18
Sunderland 18
Table 18
Termin@@ 18
Terre 18
Thal@@ 18
Theater 18
Their 18
Theo 18
Tis@@ 18
Titanic 18
Trou@@ 18
Tru@@ 18
UE 18
UF@@ 18
VR 18
Ville 18
WH@@ 18
Weg@@ 18
Wide 18
Williamson 18
Winnipeg 18
Yab@@ 18
Yucatán 18
Zone 18
aday 18
adin 18
agas 18
ainville 18
akta 18
alba 18
alin 18
alk@@ 18
allas 18
alli 18
ames 18
ampli@@ 18
angelo 18
anny 18
arta 18
ason 18
asons 18
ativa 18
atriz 18
aub@@ 18
ave@@ 18
aving 18
bachelor 18
baum 18
biji 18
bins 18
box 18
c. 18
capit@@ 18
cav@@ 18
ces 18
cham@@ 18
cs 18
def@@ 18
deng@@ 18
dere 18
deu@@ 18
dica 18
dil 18
dine 18
dison 18
doc@@ 18
dot@@ 18
dow@@ 18
dream 18
eco 18
egan 18
eiro 18
ematic 18
emie 18
enas 18
endr@@ 18
enzi@@ 18
epo@@ 18
esday 18
eston 18
etz 18
eñ@@ 18
ffer 18
filo 18
fire 18
flor@@ 18
foot 18
geb@@ 18
gut 18
hal 18
haus@@ 18
hisar 18
icity 18
igen 18
igen@@ 18
ikon@@ 18
ikos 18
imento 18
imm@@ 18
inin 18
ios 18
isco 18
iyet@@ 18
ization 18
jes 18
k. 18
klar@@ 18
kon 18
later 18
latter 18
lecht 18
lek@@ 18
lès 18
mai 18
mans 18
manuel 18
mart@@ 18
may 18
mee 18
meni 18
mif@@ 18
monaki 18
nee 18
nham 18
noch 18
novi@@ 18
olar@@ 18
olep@@ 18
orth@@ 18
osph@@ 18
other 18
oton 18
otype 18
pac@@ 18
paras@@ 18
part@@ 18
parti@@ 18
phil@@ 18
pios 18
pot 18
pov 18
pp 18
print 18
public 18
rano 18
rate 18
rid 18
rod 18
rog@@ 18
rom 18
ruta 18
sat 18
sch 18
siti@@ 18
spec@@ 18
ss@@ 18
tabak@@ 18
tam 18
teh@@ 18
tet 18
tienne 18
tir 18
tium 18
tra@@ 18
tà 18
uch 18
undinyota 18
vist 18
voc@@ 18
vus 18
white 18
yes@@ 18
you@@ 18
zey 18
â 18
ñ@@ 18
ño 18
ós 18
İ@@ 18
ı 18
Ł@@ 18
τος 18
р@@ 18
ح@@ 18
ه 18
و 18
ُ@@ 18
ܪ@@ 18
佐@@ 18
岡@@ 18
正@@ 18
長@@ 18
1337 17
1440 17
1514 17
1526 17
1564 17
1584 17
1602 17
1626 17
1652 17
1654 17
1669 17
1705 17
1707 17
1712 17
1715 17
1723 17
1742 17
1745 17
1746 17
1749 17
1779 17
5.0 17
5.3 17
51,@@ 17
6. 17
79,@@ 17
9.5 17
ABS 17
AI 17
AV 17
Agn@@ 17
Albrecht 17
Albums 17
Allianz 17
Alone 17
Amor 17
Arc 17
Ardahan 17
Athena 17
Athletics 17
Autom@@ 17
Aviation 17
Azi@@ 17
BP 17
Bach 17
Basic 17
Bedford 17
Berg 17
Beyond 17
Bezirks@@ 17
Binh 17
Bio@@ 17
Bratislava 17
Broad@@ 17
Byron 17
CII 17
CN 17
Cad@@ 17
Ceb@@ 17
Celebr@@ 17
Cerv@@ 17
Chronicle 17
Chu 17
Class@@ 17
Close 17
Cole@@ 17
Colonel 17
Cord@@ 17
Cornelius 17
Cov@@ 17
Crawford 17
Cs 17
Daf@@ 17
Days 17
Differ@@ 17
Dimi@@ 17
División 17
Doc@@ 17
Dog 17
Dome 17
Dos@@ 17
Doyle 17
Dresden 17
Dunn 17
Eden 17
Ehr@@ 17
España 17
Eugène 17
Evan 17
Fast 17
Finn@@ 17
Fis@@ 17
Flash 17
Frances@@ 17
Gay 17
Gesellschaft 17
Giac@@ 17
Gle@@ 17
Glen 17
Gomez 17
Gore 17
Griff@@ 17
HC 17
Hannibal 17
His 17
Hist@@ 17
Hung@@ 17
Hz 17
IL 17
IST 17
IUCN 17
Ic@@ 17
Igu@@ 17
Industries 17
Itali@@ 17
January 17
Jiang@@ 17
KG 17
Kader 17
Khu@@ 17
Kill@@ 17
Laugh@@ 17
Laut 17
Legacy 17
Lens 17
Liter@@ 17
Lodge 17
Lowell 17
Lump@@ 17
Lé@@ 17
MM 17
Magdeburg 17
Magn@@ 17
Mahmud 17
Mai@@ 17
Mani@@ 17
Marin 17
Martinez 17
Matil@@ 17
McMahon 17
Mendel@@ 17
Mickey 17
Mini 17
Montevideo 17
Moyen 17
Mozambique 17
Mā@@ 17
NE 17
Nai 17
Neill 17
Neub@@ 17
Nha 17
Nouvelle 17
OK 17
OT@@ 17
Observatory 17
Omega 17
Outstanding 17
PCR 17
Pear@@ 17
Petit 17
Piano 17
Pill@@ 17
Poz@@ 17
Prec@@ 17
Program 17
Programme 17
Rac@@ 17
Raim@@ 17
Raja 17
Rath@@ 17
Regensburg 17
Regin@@ 17
Reichstag 17
René 17
Rex 17
Rising 17
Rojo 17
Rossi 17
Royale 17
Rule 17
SF@@ 17
SM 17
Saar@@ 17
Salazar 17
Salle 17
Sancho 17
Sand 17
Saskatchewan 17
Saône 17
Scorpi@@ 17
Self 17
Shep@@ 17
Sherman 17
Shō@@ 17
Slo@@ 17
Soviet 17
Starg@@ 17
Stark 17
Stories 17
Style 17
Tate 17
Tax@@ 17
Tech@@ 17
Telek@@ 17
Temp@@ 17
Through 17
Thunder 17
Tiber@@ 17
Tierra 17
Turn 17
VS 17
Vak@@ 17
Vale 17
Vent@@ 17
Vila 17
Vladi@@ 17
Volunte@@ 17
WM 17
Welcome 17
Wend@@ 17
Wich@@ 17
Willi@@ 17
Wind 17
Worth 17
Writers 17
Xen@@ 17
Yahoo 17
Yap@@ 17
Yat@@ 17
Yellow 17
Yol@@ 17
Zuc@@ 17
a.org 17
aders 17
aes@@ 17
afuatayo 17
akers 17
akis 17
alar 17
alog@@ 17
alpha 17
amay@@ 17
ampi@@ 17
amy 17
anche 17
angek@@ 17
anian 17
aron 17
atom 17
aur 17
ayed 17
bacteria 17
ballet 17
beli 17
ble@@ 17
boda 17
cara 17
cep@@ 17
chard 17
chus 17
cip@@ 17
cord 17
cott 17
cross 17
cup 17
dent@@ 17
dif@@ 17
digo 17
district 17
dock 17
dun 17
ease 17
eck@@ 17
eff@@ 17
ejer@@ 17
elip@@ 17
elot 17
ences 17
enty 17
ership 17
erst@@ 17
esk@@ 17
ext@@ 17
fang@@ 17
fold 17
fordshire 17
formed 17
française 17
freestyle 17
ged@@ 17
gic 17
gos@@ 17
hart 17
hoff 17
icidae 17
ieve 17
imar 17
imus 17
inette 17
ische 17
isher 17
issons 17
iter 17
iter@@ 17
ked 17
kill 17
kol 17
kow@@ 17
lab 17
languages 17
late 17
ldwide 17
lic 17
lie@@ 17
list@@ 17
ll@@ 17
mad 17
mary 17
mec@@ 17
mek 17
ml 17
nai 17
nen@@ 17
nye@@ 17
olar 17
ollo 17
omen@@ 17
onder@@ 17
onds 17
operation 17
oric 17
osh 17
ovsk 17
parap@@ 17
pasa 17
pau@@ 17
pel 17
phon 17
phot@@ 17
polit@@ 17
ppa 17
protein@@ 17
pura 17
rum@@ 17
said 17
sberg 17
sbury 17
sekon@@ 17
sex 17
sey@@ 17
shore 17
sidi@@ 17
sm@@ 17
software 17
tae 17
tain@@ 17
teen 17
tern 17
thesis 17
tida 17
tig 17
til 17
tly 17
toral 17
unit 17
uses 17
uss 17
virus 17
wall 17
west 17
with@@ 17
yeong@@ 17
yra 17
yrus 17
Á@@ 17
ä 17
èle 17
éli@@ 17
éra 17
ì 17
ío 17
ów 17
ɐ@@ 17
ʃ@@ 17
λογία 17
ο@@ 17
π@@ 17
τ@@ 17
ω 17
і@@ 17
կ@@ 17
أَ@@ 17
اء 17
د 17
َّ@@ 17
ّ@@ 17
ْ@@ 17
ܕ@@ 17
ọ 17
ἰ@@ 17
川@@ 17
.000 16
1190 16
1225 16
1248 16
1279 16
1311 16
1378 16
1424 16
1433 16
1481 16
1493 16
1559 16
1575 16
1577 16
1611 16
1614 16
1615 16
1701 16
1727 16
1761 16
1771 16
1777 16
1784 16
187@@ 16
4. 16
6.3 16
7.1 16
7.3 16
888 16
997 16
A1 16
AH@@ 16
AV@@ 16
Ab 16
Aeg@@ 16
Aix 16
Alain 16
Alar@@ 16
Alive 16
Als@@ 16
Alsace 16
Andersen 16
Aquitaine 16
Arth@@ 16
Asim@@ 16
BW@@ 16
Bail@@ 16
Barbar@@ 16
Barthol@@ 16
Bear 16
Belfast 16
Beth 16
Biden 16
Brighton 16
Brown@@ 16
Buil@@ 16
Building 16
Campe@@ 16
Canaria 16
Cancer 16
Castell@@ 16
Clarence 16
Claudia 16
Clem@@ 16
Communication 16
Competition 16
Condé 16
Constitu@@ 16
Corpus 16
Crime 16
Dam 16
Deh@@ 16
Deportivo 16
Dess@@ 16
Dollar 16
ED 16
Early 16
Edit@@ 16
Edmond 16
Electronics 16
Engel@@ 16
Episcopal 16
Ern@@ 16
Esk@@ 16
Euph@@ 16
FP 16
Fall@@ 16
Fantasy 16
Fell@@ 16
Fiesta 16
Financial 16
Firefox 16
Freddie 16
Freddy 16
Fá@@ 16
Gali@@ 16
Geographic 16
Giv@@ 16
Grac@@ 16
Grand@@ 16
Grimm 16
Guillaume 16
HBO 16
HS 16
Hain@@ 16
Hal 16
Heb@@ 16
Hef@@ 16
Here 16
Hoffmann 16
Humboldt 16
IR 16
IW@@ 16
Indo 16
Inh@@ 16
Intel 16
Intelligence 16
Investig@@ 16
Janu@@ 16
Jess@@ 16
Journey 16
Kara@@ 16
Karl@@ 16
Kirby 16
Kirk@@ 16
Kit 16
Klar@@ 16
Kno@@ 16
Kristi@@ 16
Kuala 16
Lafayette 16
Laguna 16
Laurence 16
Ley 16
Lublin 16
Mal 16
Manitoba 16
Marc@@ 16
Matthias 16
Mendoza 16
Minas 16
Mosk@@ 16
Mov@@ 16
Muş 16
Málaga 16
Mö@@ 16
NAS@@ 16
Neu 16
Neur@@ 16
Nürnberg 16
OE@@ 16
One@@ 16
Ordin@@ 16
PBS 16
PL 16
Panz@@ 16
Parti@@ 16
Payne 16
Pays 16
Penn 16
Person@@ 16
Pink 16
Pla@@ 16
Plut@@ 16
Police 16
Pont@@ 16
Purple 16
Put@@ 16
Rai@@ 16
Return 16
Richter 16
Robertson 16
Rum 16
SF 16
Sachsen 16
Sanskrit 16
Schwarzen@@ 16
Selim 16
Slav@@ 16
Sle@@ 16
Soc@@ 16
Software 16
Speed 16
Spek@@ 16
Sper@@ 16
Spiel@@ 16
Squ@@ 16
Stap@@ 16
Sterling 16
Stones 16
Studi@@ 16
Sultan@@ 16
Supreme 16
Sur 16
Swar@@ 16
Tales 16
Tall@@ 16
Ten 16
Thierry 16
Tif@@ 16
Toc@@ 16
U. 16
USD 16
Université 16
Uşak 16
VC 16
VV@@ 16
Vac@@ 16
Version 16
Victory 16
WC 16
Wars 16
Webster 16
Wey@@ 16
Zey@@ 16
Zit@@ 16
Zoo 16
aband@@ 16
acer@@ 16
actus 16
adam 16
adiri 16
ager@@ 16
agos 16
alak@@ 16
alas 16
algorith@@ 16
alist 16
aller 16
aller@@ 16
anic 16
anism 16
annon 16
aras 16
arte 16
ary@@ 16
ateur 16
ather@@ 16
atur 16
avera 16
awn 16
aş@@ 16
bella 16
big 16
bs@@ 16
chenko 16
chol@@ 16
chy 16
computer 16
coronavirus 16
coun@@ 16
crip@@ 16
cula 16
dion 16
dır 16
eger 16
ellia 16
elling 16
elten 16
endra 16
epis@@ 16
erd@@ 16
etum 16
eus@@ 16
evento 16
ezya 16
fluor@@ 16
frame 16
gano 16
ging 16
hausen 16
heb@@ 16
ibar 16
ident 16
idin 16
ifad@@ 16
inist 16
inn 16
inom@@ 16
internet 16
irt 16
isch@@ 16
ises 16
islav 16
ival@@ 16
ić 16
jp@@ 16
kem 16
kent 16
khan 16
kus 16
kut 16
kuts@@ 16
lav 16
lay@@ 16
local 16
loway 16
magn@@ 16
main@@ 16
mam 16
mst@@ 16
national 16
nek@@ 16
nell 16
net@@ 16
network 16
obs 16
ocer@@ 16
ock@@ 16
oid@@ 16
olin 16
onc@@ 16
ood 16
ort@@ 16
otis 16
oxide 16
pero 16
phosph@@ 16
pick 16
por 16
ppi 16
pping 16
program@@ 16
pru@@ 16
publi@@ 16
que@@ 16
reux 16
rou@@ 16
rum 16
sever@@ 16
shor@@ 16
sien 16
singles 16
some 16
spitze 16
station 16
tema 16
tification 16
tn@@ 16
tric 16
ull 16
unter 16
unum 16
urs@@ 16
utz@@ 16
val 16
value 16
versities 16
versity 16
vie@@ 16
vá@@ 16
week 16
woman 16
wr@@ 16
xima 16
ynam@@ 16
zburg 16
­ 16
Álvarez 16
äl@@ 16
éri@@ 16
ê 16
ł 16
Ō@@ 16
ն@@ 16
ان 16
بِ@@ 16
ش@@ 16
ى 16
ي 16
َ@@ 16
ܬ@@ 16
安@@ 16
福@@ 16
1285 15
1290 15
1307 15
1323 15
1348 15
1402 15
1460 15
1470 15
1485 15
1548 15
1579 15
1587 15
1604 15
1634 15
1636 15
1639 15
1641 15
1656 15
1665 15
1666 15
1681 15
1696 15
1698 15
1703 15
1709 15
1737 15
1757 15
1759 15
185@@ 15
186@@ 15
192@@ 15
2800 15
2A 15
300@@ 15
4.6 15
488 15
5.9 15
6.1 15
6.6 15
98.@@ 15
Aberdeen 15
Académie 15
Adv@@ 15
Alejandro 15
Alexand@@ 15
Alma 15
Alt 15
Anis@@ 15
Aragon 15
Armenian 15
Assy@@ 15
Azur 15
Ballet 15
Bangalore 15
Basketball 15
Battle 15
Birds 15
Bundes@@ 15
Burgos 15
Byzantine 15
C1 15
Camille 15
Campeonato 15
Canon 15
Car 15
Carp@@ 15
Carthage 15
Chiang 15
Chop@@ 15
Cim@@ 15
Clair 15
Colombo 15
Comm@@ 15
Concert 15
Cong@@ 15
Crus@@ 15
Cultural 15
Cus@@ 15
Cél@@ 15
DOS 15
Dado 15
Dawson 15
Defence 15
Dram@@ 15
Eind@@ 15
Eleanor 15
Electronic 15
Elliot 15
Ent@@ 15
Eve 15
FR@@ 15
Falk@@ 15
Farm 15
Feb@@ 15
Ferg@@ 15
Ferry 15
Fest 15
Final 15
Fog@@ 15
Forces 15
Formula 15
Free@@ 15
Gaga 15
Galaxy 15
Georgetown 15
Gly@@ 15
Gradu@@ 15
Grun@@ 15
Guerr@@ 15
Gun 15
Guzmán 15
HB 15
Half 15
Halifax 15
Hansen 15
Heavy 15
Heavyweight 15
Heg@@ 15
Hero 15
Hidalgo 15
Higgins 15
Himmler 15
Hoc@@ 15
Holiday 15
IA@@ 15
IATA 15
Inde@@ 15
Isla 15
Ital@@ 15
Jacksonville 15
Jade 15
Japanese 15
Jena 15
Jú@@ 15
Kan 15
Kang 15
Karaman 15
Katal@@ 15
Kateg@@ 15
Katherine 15
Kitab@@ 15
Kov@@ 15
Koy@@ 15
Lago 15
Lausanne 15
Lean 15
Leiden 15
Leigh 15
Liberty 15
Lich@@ 15
Ltd. 15
Luisa 15
Lynch 15
Marion 15
Mark@@ 15
Mec@@ 15
Mega 15
Michele 15
Midi 15
Midnight 15
Ms 15
NY 15
Nadal 15
Nadu 15
Nationale 15
Nielsen 15
Nine 15
Ning@@ 15
Now@@ 15
ON 15
Official 15
Olga 15
PD@@ 15
PG 15
PT 15
Paramount 15
Paraná 15
Perez 15
Philippines 15
Pier 15
Pine 15
Pitts@@ 15
Political 15
Power@@ 15
Prime 15
Progressive 15
Pros@@ 15
Pueblo 15
Qi@@ 15
Quest 15
Quito 15
RFC 15
Renn@@ 15
Rim@@ 15
Rioja 15
Ronal@@ 15
Rural 15
Ré@@ 15
Sacramento 15
Score 15
Season 15
Set 15
Sex 15
Sez@@ 15
Silver@@ 15
Sorbonne 15
Spanish 15
Spi@@ 15
Spit@@ 15
Stol@@ 15
Suffolk 15
TO 15
Tesla 15
Than 15
Than@@ 15
They 15
Thr@@ 15
Tor 15
USS 15
Ultra 15
Universität 15
VO@@ 15
Vand@@ 15
Vera 15
Verb@@ 15
Vic 15
Vilnius 15
Vu 15
Wester@@ 15
Wilhel@@ 15
YO@@ 15
acher 15
acio 15
aco@@ 15
adis 15
agne@@ 15
aign 15
aint 15
amen 15
andes 15
anidae 15
anni 15
antic 15
apu@@ 15
argent 15
arine 15
arry 15
artist 15
atik 15
autónoma 15
bourg 15
cano 15
cars 15
cerc@@ 15
change 15
cheon 15
chn@@ 15
cipi@@ 15
cit@@ 15
classical 15
desa 15
did@@ 15
dra 15
edition 15
egio 15
eje 15
embri@@ 15
emer@@ 15
enen 15
enzie 15
esen 15
estes 15
estri@@ 15
even 15
family 15
fast 15
ferr@@ 15
fiadini 15
fie 15
fin 15
flu@@ 15
franco 15
fried 15
gama 15
graphy 15
haven 15
heart 15
here 15
hipot@@ 15
hora 15
hulisha 15
icide 15
iden@@ 15
iger@@ 15
ighty 15
ihe 15
inco 15
indis@@ 15
ingers 15
inners 15
inosa 15
insula 15
ire@@ 15
itig@@ 15
ive 15
ivo 15
jet 15
kai 15
kard 15
key@@ 15
khi@@ 15
kii 15
kis 15
laf 15
lide 15
lins 15
lys@@ 15
macul@@ 15
metro 15
mium 15
mosa 15
nano 15
neux 15
nic@@ 15
nie 15
nos@@ 15
nut 15
oes 15
ofil@@ 15
olus 15
omel@@ 15
oming 15
oms 15
only 15
open 15
operative 15
original 15
orin 15
ority 15
orium 15
otr 15
ott@@ 15
ovna 15
oğlu 15
peace 15
phe 15
phth@@ 15
pid 15
pies 15
ply 15
polo 15
press@@ 15
rich 15
rift 15
rii 15
rin@@ 15
rojo 15
science 15
screen 15
secondary 15
short 15
smo@@ 15
sol 15
sted 15
sten@@ 15
strong@@ 15
such@@ 15
sworth 15
telenovela 15
tell 15
tent@@ 15
then@@ 15
through 15
ticul@@ 15
ticus 15
toile 15
too 15
tron 15
try@@ 15
type 15
ues 15
ugen 15
uil 15
umewe 15
umn 15
umul@@ 15
upon 15
utions 15
vas 15
vid 15
vida 15
vik 15
vino 15
vius 15
wed@@ 15
ween 15
wid@@ 15
works 15
yatta 15
ystal 15
zih@@ 15
çal@@ 15
ð 15
ña 15
ù 15
ń@@ 15
Κ@@ 15
θ@@ 15
ի 15
צ@@ 15
دی 15
من 15
ስ 15
ὁ 15
⁄ 15
↑ 15
也 15
原 15
口 15
司 15
島 15
森@@ 15
樹 15
治 15
直@@ 15
ﬁ@@ 15
10000 14
1205 14
1258 14
1291 14
1304 14
1314 14
1360 14
1389 14
1390 14
1397 14
1404 14
1428 14
1458 14
1471 14
1509 14
1518 14
1543 14
1544 14
1551 14
1557 14
1562 14
1569 14
1574 14
1576 14
1658 14
1662 14
1668 14
1678 14
1682 14
1683 14
1685 14
1686 14
1704 14
1716 14
1724 14
1734 14
1747 14
1754 14
1766 14
179@@ 14
188@@ 14
1st 14
20th 14
4.9 14
43.@@ 14
5.2 14
8. 14
97,@@ 14
@ 14
Acro@@ 14
Adal@@ 14
Adol@@ 14
Agricul@@ 14
Akr@@ 14
Aleksandr 14
Alger 14
Allmusic 14
Anatom@@ 14
Anglican 14
Antigua 14
Antonius 14
Ask@@ 14
Assembly 14
Atl@@ 14
B2 14
Bacon 14
Beat@@ 14
Beck 14
Becker 14
Benny 14
Bernhard 14
Bilbao 14
Bismar@@ 14
Blas@@ 14
Bochum 14
Boot 14
Boulogne 14
Brandon 14
Brandt 14
Bres@@ 14
Broken 14
Bros 14
But 14
CM 14
Ca 14
Carni@@ 14
Casa 14
Chav@@ 14
Chenn@@ 14
Chol@@ 14
Chry@@ 14
Cog@@ 14
Cricket 14
Dancing 14
Defense 14
Dendro@@ 14
Devil 14
Disco@@ 14
Dixon 14
Dudley 14
Dug@@ 14
Ebert 14
Elektr@@ 14
Eug@@ 14
Eurovision 14
Experience 14
Farm@@ 14
Fellow 14
Ferreira 14
Fish 14
Font@@ 14
Foot@@ 14
Fox@@ 14
Françoise 14
Fru@@ 14
Full 14
Galatasaray 14
Gap 14
Gaston 14
Genn@@ 14
Giorgio 14
Gli@@ 14
Gonzal@@ 14
Gothic 14
Goul@@ 14
Graz 14
Ground 14
Guam 14
H2@@ 14
HK@@ 14
Hamburger 14
Hammond 14
Hartford 14
Hay 14
Ide@@ 14
Ingrid 14
Ist@@ 14
Jav@@ 14
Juniors 14
KC 14
KV 14
Karate 14
Kilis@@ 14
Kinder 14
Klu@@ 14
Knox 14
Konstantin 14
LLC 14
Lac 14
Lange 14
Lans@@ 14
Laval 14
Legal 14
Libertadores 14
Loth@@ 14
Luca 14
Luke 14
Léon 14
M1 14
MG@@ 14
MW 14
Male 14
Marius 14
Marri@@ 14
Martín 14
Masters 14
Maxim 14
Mayer 14
Medicine 14
Ment@@ 14
Mick 14
Military 14
Mon 14
Monde 14
Montgomery 14
Montpellier 14
Moor 14
Moor@@ 14
Moselle 14
Motion 14
Motor 14
Much 14
Muhar@@ 14
Myster@@ 14
NN 14
NWA 14
Nietzsche 14
Nigel 14
Oil 14
Ophi@@ 14
Orch@@ 14
Ortiz 14
Pack@@ 14
Pain@@ 14
Paral@@ 14
Parks 14
Pharm@@ 14
Phoen@@ 14
Poli@@ 14
Popular 14
Population 14
Portugal 14
Prun@@ 14
Ptol@@ 14
Pyth@@ 14
Quảng 14
Rapha@@ 14
Reina 14
Resort 14
Reu@@ 14
Revol@@ 14
Reyes 14
Riga 14
Rod 14
Roman@@ 14
Rousseau 14
SP 14
SU 14
Saints 14
Saturday 14
Schneider 14
Schwar@@ 14
Secre@@ 14
Serge@@ 14
Simp@@ 14
Société 14
Something 14
Spain 14
Spot@@ 14
Stage 14
Strauss 14
Students 14
Surrey 14
Swiss 14
Tam 14
Tec@@ 14
Tolkien 14
Tourn@@ 14
Trujillo 14
Truth 14
Turismo 14
Tuz@@ 14
Twin 14
UP 14
VIP 14
Vampire 14
Vari@@ 14
Vaugh@@ 14
Verdun 14
Ville@@ 14
Villeneuve 14
Vinc@@ 14
Wahl 14
Wahl@@ 14
Was 14
Wass@@ 14
Waters 14
Westph@@ 14
Zav@@ 14
Zonguldak 14
Zé@@ 14
achers 14
aching 14
acus 14
aeda 14
afric@@ 14
after 14
aking 14
alize 14
alli@@ 14
alon 14
amid 14
ammad 14
andan 14
andere 14
anl@@ 14
anol 14
apur@@ 14
arom@@ 14
arri@@ 14
asaki 14
asan 14
aul 14
b. 14
baseball 14
bem@@ 14
bic 14
bler 14
bone 14
break@@ 14
brig@@ 14
cann@@ 14
cc 14
cen 14
ces@@ 14
champ@@ 14
chow 14
cine 14
classic 14
col 14
cole 14
come 14
comp@@ 14
comun@@ 14
cut 14
dans@@ 14
departments 14
division 14
dz@@ 14
ece 14
echa 14
efe 14
egen 14
eid@@ 14
eidae 14
eil@@ 14
ekwondo 14
elas 14
electrom@@ 14
eling 14
enek@@ 14
engel 14
ensen 14
ensk 14
ersch@@ 14
essor 14
estos 14
euil 14
eyi 14
fate 14
fax 14
fied 14
fj@@ 14
forth 14
fru@@ 14
garh 14
gas 14
giy@@ 14
gü@@ 14
history 14
hole 14
hong@@ 14
hot 14
iban 14
iber 14
icles 14
idus 14
iker 14
iles 14
ilin 14
ilis 14
imir 14
ination 14
inti@@ 14
inyanga 14
ions 14
isar 14
isons 14
isy 14
itte 14
itzer 14
ized 14
kâ@@ 14
label 14
lb 14
lec@@ 14
led 14
ledge 14
lets 14
license 14
lı@@ 14
main 14
many 14
map 14
mare 14
mark@@ 14
max 14
maya 14
mud 14
muz 14
má@@ 14
ned 14
negative 14
odon@@ 14
ogene 14
ografi 14
olas 14
oles 14
olls 14
ommun@@ 14
omorpha 14
opsis 14
paral@@ 14
pec 14
php 14
porting 14
pren@@ 14
quis@@ 14
qué 14
rem 14
rine 14
roc@@ 14
room 14
rose 14
roy@@ 14
rul 14
ruz 14
sein 14
serv@@ 14
sevi@@ 14
singer 14
six 14
sohn 14
ste 14
stock 14
strom 14
sue 14
suit 14
syndrome 14
takri@@ 14
tas 14
tea 14
team 14
tekn@@ 14
tens 14
their 14
theory 14
tiger 14
tik 14
timer 14
tionary 14
tur 14
tz@@ 14
ulizo 14
vamp@@ 14
variable 14
vent 14
vs 14
vs. 14
wart 14
water@@ 14
wege 14
when 14
who 14
wom@@ 14
yere 14
ythro@@ 14
yun@@ 14
zur 14
ém 14
érieure 14
ún 14
ă 14
Đ@@ 14
ński 14
ő@@ 14
Ś@@ 14
κ@@ 14
χ@@ 14
ј@@ 14
الس@@ 14
بَ@@ 14
عَ@@ 14
مْ 14
ِ@@ 14
ܡ@@ 14
ṯ@@ 14
ἐ@@ 14
Ἐ@@ 14
一@@ 14
中 14
中@@ 14
人 14
山市 14
林 14
男 14
1.5@@ 13
1234 13
1259 13
1455 13
1464 13
1479 13
1495 13
1508 13
1628 13
1663 13
1664 13
1672 13
1673 13
1731 13
1735 13
1743 13
1752 13
1755 13
2023 13
31@@ 13
41.@@ 13
69.@@ 13
89.@@ 13
96.@@ 13
98,@@ 13
Achiev@@ 13
Adj@@ 13
Advisory 13
Aguilera 13
Agus@@ 13
Alam@@ 13
Alco@@ 13
Alder@@ 13
Anc@@ 13
Anh@@ 13
Anime 13
Around 13
Artists 13
Aver@@ 13
Avi@@ 13
Aç@@ 13
BB 13
Balt@@ 13
Beer 13
Beyon@@ 13
Beşiktaş 13
Blair 13
Blanche 13
COM 13
Caf@@ 13
Calcio 13
Calli@@ 13
Cao 13
Card 13
Cari@@ 13
Carroll 13
Casino 13
Catalina 13
Chemical 13
Chevrolet 13
Chiapas 13
Christi 13
Claudio 13
Clay 13
Clemens 13
Cock@@ 13
Cold 13
Coming 13
Corin@@ 13
Corner 13
Crac@@ 13
Crisis 13
Croix 13
Cryp@@ 13
Cyclo@@ 13
Daniels 13
Darmstadt 13
Dart@@ 13
Descartes 13
Dietrich 13
Disc 13
Disco 13
Domenico 13
Dutch 13
ED@@ 13
Eber@@ 13
Econom@@ 13
Electric 13
Elek@@ 13
Emanuel 13
Environment 13
Father 13
Fear 13
Ferdin@@ 13
Fiction 13
Fletcher 13
Foot 13
Francis@@ 13
Gallen 13
Gerais 13
Gius@@ 13
Glas@@ 13
Graph@@ 13
Gregor 13
Guard 13
Guardi@@ 13
Guillermo 13
HI 13
Heat 13
Hebr@@ 13
Heid@@ 13
Hildes@@ 13
Hockey 13
Hok@@ 13
Identi@@ 13
Innsbruck 13
Ins@@ 13
Irel@@ 13
Joachim 13
Johanna 13
Jub@@ 13
Jérôme 13
Kemp@@ 13
Kieb@@ 13
Kra@@ 13
Lach@@ 13
Lanc@@ 13
Lars 13
Left 13
Leibniz 13
Leopoldo 13
Lepid@@ 13
Leu@@ 13
Levy 13
Libre 13
Lie@@ 13
Llan@@ 13
London@@ 13
Lugo 13
López 13
MD@@ 13
MM@@ 13
Madeleine 13
Mall@@ 13
Mare 13
Margarita 13
Martina 13
Mateo 13
Merlin 13
Mey@@ 13
Mez@@ 13
Mile 13
Moder@@ 13
Montréal 13
Moon@@ 13
Murcia 13
ND 13
Nac@@ 13
Nash@@ 13
Nek@@ 13
Neumann 13
Nolan 13
Normandie 13
OR 13
OR@@ 13
Obr@@ 13
Once 13
Operation 13
Oskar 13
Oswald 13
Owens 13
PH 13
PH@@ 13
PI@@ 13
Para 13
Paso 13
Pelle@@ 13
Peña 13
Philharmon@@ 13
Port@@ 13
Poul@@ 13
Premio 13
Primera 13
Princip@@ 13
Psy@@ 13
Publications 13
Quin@@ 13
Québec 13
RN 13
Reich 13
Respon@@ 13
Ret@@ 13
River@@ 13
Robbie 13
Roche 13
Rodolfo 13
Roi 13
Romero 13
Ronnie 13
Rote 13
Round 13
Ríos 13
SD@@ 13
SH 13
SO 13
Schult@@ 13
Scientific 13
Scre@@ 13
Shell 13
Shepher@@ 13
Shop 13
Shore 13
Snow 13
Spart@@ 13
Stat@@ 13
Strike 13
Sub 13
Suff@@ 13
Sut@@ 13
Tach@@ 13
Talbot 13
Tallinn 13
Teen@@ 13
Tham@@ 13
Tomorrow 13
Trent 13
Trin@@ 13
Trom@@ 13
Tropical 13
Tuc@@ 13
Tuna 13
U20 13
V.@@ 13
Vad@@ 13
Valence 13
Valentin 13
Valle 13
Vatican 13
Vers@@ 13
Vet@@ 13
Vince 13
Vinh 13
Viva 13
Vázquez 13
WB 13
WD 13
Walking 13
Walton 13
Welsh 13
Wild@@ 13
YG 13
Yes 13
Yug@@ 13
ability 13
acci 13
acter 13
actylus 13
afsir@@ 13
against 13
ahn@@ 13
alled 13
ancha 13
anea 13
anz 13
ardia 13
arit@@ 13
atos 13
aughter 13
aum 13
aï 13
aş 13
bacteri@@ 13
beria 13
best@@ 13
bic@@ 13
books 13
boys 13
brand@@ 13
bye 13
cath@@ 13
chant 13
chino 13
chor 13
cina 13
committee 13
crit@@ 13
critique 13
cz@@ 13
dek 13
dero 13
dible 13
dice 13
dier 13
dod@@ 13
eberg 13
echo 13
eden@@ 13
eff 13
elic 13
endi@@ 13
ennial 13
enos 13
ensburg 13
eries 13
esses 13
estris 13
ever@@ 13
fait 13
fare 13
fest 13
film@@ 13
fli@@ 13
flora 13
fos 13
fs 13
gal 13
girl 13
glass 13
green 13
hafen 13
harmon@@ 13
head@@ 13
hem 13
hide 13
hipo@@ 13
hol 13
home 13
hop@@ 13
iden 13
ieux 13
ilishi 13
inet 13
inidae 13
inium 13
interfer@@ 13
intern@@ 13
inu 13
ié 13
jon 13
jour@@ 13
kies 13
klas@@ 13
krip@@ 13
laine 13
lander 13
laya 13
leb@@ 13
leben 13
lende 13
lot 13
lower 13
lyc@@ 13
lí@@ 13
mac 13
mania 13
martial 13
masha@@ 13
matter 13
mechan@@ 13
mers 13
metal 13
meteor@@ 13
mira 13
nad 13
named 13
nda 13
new@@ 13
niv@@ 13
niz@@ 13
oblast 13
ocene 13
oder@@ 13
odor 13
okun@@ 13
onau@@ 13
ophi@@ 13
orama 13
oting 13
otrop@@ 13
ouard 13
oughton 13
ource 13
ox 13
p.@@ 13
pad@@ 13
party 13
perus 13
play@@ 13
porte 13
positive 13
post@@ 13
ppen@@ 13
proc@@ 13
pt@@ 13
radiation 13
resi 13
run 13
sali@@ 13
sche 13
scop@@ 13
sheim 13
sine 13
siz@@ 13
soci@@ 13
sonne 13
sos 13
standing 13
stein@@ 13
string 13
syst@@ 13
tag 13
tax@@ 13
tering 13
texte 13
thy@@ 13
tiers 13
tified 13
tira 13
tiy@@ 13
tois 13
trach@@ 13
track 13
trad@@ 13
traduction 13
tram 13
trap 13
trick 13
tt@@ 13
uer 13
ulation 13
uly 13
unif@@ 13
urban 13
usse 13
uzak@@ 13
vag@@ 13
vari@@ 13
vili 13
vision 13
walk 13
ward@@ 13
wear 13
wery 13
where 13
wimu 13
wine 13
xes 13
zel 13
± 13
ày 13
ác@@ 13
édition 13
ík 13
íl@@ 13
ù@@ 13
ý 13
ý@@ 13
ıl@@ 13
ń 13
ţ@@ 13
π 13
ω@@ 13
а@@ 13
Մ@@ 13
ս@@ 13
ּ 13
ار@@ 13
ال@@ 13
س 13
غ@@ 13
محافظة 13
مَ@@ 13
هُ 13
ية 13
া@@ 13
ር@@ 13
ῦ 13
宮@@ 13
島@@ 13
谷 13
道 13
07@@ 12
1235 12
1261 12
1295 12
1336 12
1340 12
1347 12
1349 12
1368 12
1377 12
1444 12
1469 12
1488 12
1504 12
1528 12
1541 12
1594 12
1635 12
1638 12
1674 12
1693 12
1708 12
1711 12
1714 12
1718 12
1733 12
1751 12
1785 12
1980s 12
2.0@@ 12
88.@@ 12
Academic 12
Ace 12
Adventures 12
Afgh@@ 12
Allied 12
Amerik@@ 12
Antil@@ 12
Archiv@@ 12
Ash 12
Assam 12
Assass@@ 12
Asturias 12
Ayr@@ 12
BF 12
BR@@ 12
Baltic 12
Bapti@@ 12
Barker 12
Barran@@ 12
Barth@@ 12
Bates 12
Bath 12
Bautista 12
Belgrad 12
Bey 12
Biy@@ 12
Blin@@ 12
Blind 12
Boom 12
Brien 12
CAM 12
CV@@ 12
Cadillac 12
Campo@@ 12
Canc@@ 12
Caracas 12
Carpenter 12
Casas 12
Castilla 12
Chambers 12
Chrysler 12
Cincinnati 12
Cler@@ 12
Colum@@ 12
Commerce 12
Commun@@ 12
Continental 12
Criminal 12
Cristóbal 12
Cromwell 12
Cron@@ 12
Cumberland 12
DF@@ 12
DH@@ 12
Danish 12
Diesel 12
Distribution 12
Dorothe@@ 12
Duo 12
Eagles 12
Edmonton 12
Elite 12
Erich 12
Et 12
Euler 12
Ex 12
Exper@@ 12
Fabio 12
Fenerbahçe 12
Fight 12
Fortune 12
Française 12
Garonne 12
German@@ 12
Giacomo 12
Gilles 12
Goes 12
Gov@@ 12
Gymnasium 12
HL 12
Hamp@@ 12
Hif@@ 12
Higher 12
Hyp@@ 12
Im 12
Industrial 12
Inside 12
Instituto 12
Int@@ 12
Isère 12
Jewish 12
Jump 12
Kaiser 12
Kiel 12
Klam@@ 12
Krem@@ 12
Label 12
Lass@@ 12
Lef@@ 12
Lex@@ 12
Ley@@ 12
Linz 12
Lisboa 12
Louv@@ 12
Ludwig@@ 12
MVP 12
Mack 12
Madel@@ 12
Marguerite 12
Marquis 12
Marsh 12
Matr@@ 12
Matthews 12
Maul@@ 12
McK@@ 12
Medal 12
Megal@@ 12
Memory 12
Merc@@ 12
Mesa 12
Minn@@ 12
Mix 12
Monter@@ 12
Mrs. 12
Musik@@ 12
Má@@ 12
NT 12
Nation@@ 12
Nicola 12
Nut@@ 12
OM 12
Oak@@ 12
Orléans 12
Osnabrück 12
PO 12
PV 12
PW 12
Partners 12
Paul@@ 12
Pec@@ 12
Pedi@@ 12
Pend@@ 12
Perfect 12
Petra 12
Pha@@ 12
Picasso 12
Pole 12
Pool 12
Pou@@ 12
Progress 12
RE 12
RF 12
Real@@ 12
Rend@@ 12
Ride 12
Rober@@ 12
Rochelle 12
Rockefeller 12
Rose@@ 12
Rumble 12
Ruy@@ 12
S.A. 12
Salz@@ 12
Sans 12
Sarg@@ 12
Sask@@ 12
Saur@@ 12
Scr@@ 12
Segunda 12
Sekund@@ 12
Sett@@ 12
Short 12
Sich@@ 12
Siv@@ 12
Slayer 12
Sons 12
Spec@@ 12
Stalingrad 12
Stall@@ 12
Supre@@ 12
Sven 12
TT@@ 12
Tag 12
Tier@@ 12
Tigers 12
Tin 12
Tirol 12
Topo@@ 12
Torre 12
Trac@@ 12
Track 12
Tradi@@ 12
Trag@@ 12
Transport 12
Trois 12
Trot@@ 12
Unix 12
VW 12
Vamp@@ 12
Virtual 12
Wald@@ 12
Why 12
William@@ 12
Witt@@ 12
Wool@@ 12
Writing 12
XT 12
Zimmer@@ 12
ably 12
aces 12
aches 12
achus@@ 12
acu@@ 12
adal@@ 12
africana 12
agher 12
agnes 12
ahua 12
aic 12
ails 12
akin 12
alen 12
alik 12
alista 12
allos 12
amas 12
amon 12
amura 12
anthus 12
apel 12
aphy@@ 12
arias 12
aring 12
arla 12
arle 12
asto@@ 12
atal 12
atta@@ 12
auf 12
ausen 12
avar 12
bap@@ 12
based 12
baz@@ 12
being 12
bill@@ 12
bird 12
bles 12
bling 12
blog 12
blood 12
bos 12
boxing 12
brit@@ 12
buc@@ 12
buch 12
buz@@ 12
canal 12
cent 12
chin 12
cht 12
cible 12
class 12
common 12
control 12
cot@@ 12
culture 12
cyan@@ 12
delle 12
development 12
dial@@ 12
diam@@ 12
dias 12
dic 12
dich@@ 12
dit@@ 12
dog 12
domes@@ 12
e- 12
eburg 12
ecia 12
ees 12
egu@@ 12
ehouse 12
eler@@ 12
emen 12
emiti@@ 12
enam@@ 12
engineering 12
enter 12
eper 12
ered 12
erh@@ 12
erman 12
esland 12
essed 12
essen 12
etini 12
eurs 12
fain@@ 12
fantas@@ 12
fau@@ 12
fier 12
fle@@ 12
gala 12
gina 12
golf 12
graph@@ 12
hasta 12
hesab@@ 12
hire 12
hof 12
hos 12
hosts 12
hy 12
hypo@@ 12
iPhone 12
iben 12
icker 12
idar@@ 12
iidae 12
ikan 12
ills 12
imz@@ 12
include 12
ingr@@ 12
iras 12
ird 12
isation 12
ished 12
ising 12
ision@@ 12
iç@@ 12
jar 12
jos 12
kant@@ 12
kind 12
kirchen 12
kur 12
landers 12
led@@ 12
linear 12
lius 12
loch 12
logo 12
loo 12
lov 12
lı 12
magaz@@ 12
mass 12
mic@@ 12
mil 12
mill@@ 12
minor 12
moor 12
most 12
mou@@ 12
mundo 12
nec@@ 12
neu 12
ngu@@ 12
nikov 12
nois 12
ocolate 12
oft 12
olay@@ 12
olig@@ 12
ologie 12
omni@@ 12
omor@@ 12
onie 12
onnen 12
onu 12
onym@@ 12
others 12
oxy@@ 12
pale@@ 12
partement 12
perten@@ 12
pet 12
phant 12
phis 12
phố 12
pis 12
prises 12
quit@@ 12
rau 12
raz@@ 12
region 12
related 12
released 12
reste 12
rico 12
roads 12
rob@@ 12
row@@ 12
sain@@ 12
sanc@@ 12
scher 12
seb@@ 12
sed@@ 12
segu@@ 12
shaw 12
sil 12
small 12
solar 12
source 12
sper@@ 12
spo@@ 12
stag@@ 12
stor@@ 12
strat@@ 12
studi@@ 12
subi 12
sud@@ 12
swe@@ 12
tale 12
tard 12
tava 12
telev@@ 12
tigen 12
tile 12
tillon 12
timi 12
tney 12
tril@@ 12
trim@@ 12
tube 12
two 12
tze 12
ufuku 12
ulos 12
uls 12
ups 12
usal@@ 12
used 12
utz 12
volume 12
while 12
woo 12
yard 12
yum 12
zone 12
´ 12
Ángel 12
Â@@ 12
ç 12
ías 12
ónica 12
ôn 12
ě@@ 12
ım@@ 12
ŋ@@ 12
ũ 12
ʊ@@ 12
ʒ@@ 12
ζ 12
ρ 12
σ@@ 12
το@@ 12
φ@@ 12
ών 12
и 12
на 12
Հ@@ 12
الح@@ 12
بع@@ 12
ة 12
دي 12
ذ@@ 12
علي 12
ك@@ 12
ل@@ 12
ون 12
ُ 12
ა@@ 12
ም 12
ን@@ 12
ḇ@@ 12
ー 12
二 12
太 12
清@@ 12
良@@ 12
西@@ 12
野@@ 12
----@@ 11
0s 11
1,2 11
1.4@@ 11
1302 11
1315 11
1386 11
1392 11
1463 11
1561 11
1583 11
1657 11
1687 11
1694 11
1702 11
1706 11
1739 11
1970s 11
2024 11
3- 11
50.@@ 11
79.@@ 11
93.@@ 11
96,@@ 11
AST 11
Aachen 11
Abb@@ 11
Adobe 11
Agence 11
Agent 11
Aguilar 11
Antarctic 11
Asian 11
Austral@@ 11
Ave@@ 11
Away 11
B1 11
BMW 11
Bamberg 11
Beast 11
Beaumont 11
Bernstein 11
Bew@@ 11
Blu 11
Bogotá 11
Boulevard 11
Brau@@ 11
Brett 11
Buddy 11
Buf@@ 11
Byr@@ 11
Bölgesi 11
CAD 11
CEO 11
CG 11
CH 11
CONCACAF 11
Caen 11
Campaign 11
Carr 11
Castile 11
Cell 11
Cey@@ 11
CoV 11
Commod@@ 11
Concor@@ 11
Confes@@ 11
Conservat@@ 11
Coruña 11
Coupe 11
Cra@@ 11
Cyrus 11
Cé@@ 11
DFB 11
Deutsch@@ 11
Deutschland 11
Dmi@@ 11
Dost@@ 11
Drive 11
Ds 11
Duc@@ 11
Duch@@ 11
Dud@@ 11
Dynamo 11
Eck@@ 11
Eid@@ 11
Ek 11
Ensemble 11
Europ@@ 11
Ever 11
Excell@@ 11
Explorer 11
Fabr@@ 11
Fag@@ 11
Felipe 11
Fig@@ 11
Flan@@ 11
Focus 11
Franken@@ 11
Fé@@ 11
Gain@@ 11
Galicia 11
Geg@@ 11
Geh@@ 11
Georgi@@ 11
Glass 11
Gogh 11
Graf@@ 11
Guitar 11
Gustavo 11
Handels@@ 11
Hank 11
Harbour 11
Hawai@@ 11
Hawk 11
Heer@@ 11
Herrera 11
Heter@@ 11
Horn@@ 11
Hub 11
Hà 11
IPv@@ 11
Infin@@ 11
Integr@@ 11
Invest@@ 11
Isabelle 11
Ji 11
Johnston 11
Kanz@@ 11
Kart@@ 11
Khi@@ 11
Kog@@ 11
Korean 11
Kow@@ 11
Lager 11
Laub@@ 11
Learning 11
Lennon 11
Lept@@ 11
Lexington 11
Liam 11
Libr@@ 11
Literature 11
Lokom@@ 11
Low 11
Malay@@ 11
Malm@@ 11
Manor 11
Meli@@ 11
Million 11
Misch@@ 11
Mitch@@ 11
Monday 11
Montre@@ 11
Morales 11
Murder 11
ND@@ 11
NO 11
Names 11
Natur@@ 11
Navig@@ 11
Networks 11
Niv@@ 11
Non 11
Norwegian 11
November 11
OH 11
Oder 11
Odon@@ 11
Old@@ 11
Oliv@@ 11
Olympics 11
Open@@ 11
Ort@@ 11
Ortho@@ 11
PI 11
Pass 11
Peterson 11
Ph.@@ 11
Phal@@ 11
Pie 11
Plant 11
Poh@@ 11
Poin@@ 11
Pratt 11
Prel@@ 11
Priv@@ 11
Professional 11
Proph@@ 11
Ps 11
Pá@@ 11
Quart@@ 11
Quarter@@ 11
Qui@@ 11
RAM 11
RO 11
RP 11
RR 11
Rae 11
Randolph 11
Resp@@ 11
Restaur@@ 11
Rolls 11
Romance 11
Rupert 11
Russian 11
Salamanca 11
Scho@@ 11
Sebastián 11
Sekre@@ 11
Sign@@ 11
Site 11
Skel@@ 11
Smol@@ 11
Sr@@ 11
Stad@@ 11
Stern 11
Store 11
Student 11
Suite 11
Sult@@ 11
Swedish 11
Syr@@ 11
THE 11
TRA@@ 11
Temper@@ 11
Terror@@ 11
Test@@ 11
Tetr@@ 11
Tev@@ 11
Tic@@ 11
Toulon 11
Turin 11
Universidad 11
Until 11
Upon 11
Uro@@ 11
VB 11
Var 11
Vec@@ 11
Vide@@ 11
Vie 11
Vier@@ 11
Viking 11
Vincenzo 11
Virus 11
Vl@@ 11
Wheeler 11
Wonder@@ 11
Worms 11
Writ@@ 11
Wł@@ 11
Yan 11
Yev@@ 11
Zur@@ 11
aat@@ 11
abel 11
abel@@ 11
abilis 11
abras 11
academy 11
acre 11
adas 11
agnol 11
ahn 11
aill@@ 11
alian 11
alidae 11
allo@@ 11
ambo@@ 11
amer 11
americana 11
amide 11
ampe 11
anal 11
analysis 11
andaki 11
andia 11
angeh@@ 11
angen@@ 11
anning 11
anse 11
apolis 11
appy 11
arc 11
arga 11
arma 11
arms 11
arn 11
around 11
arsen@@ 11
arten 11
arı 11
assen 11
athlon 11
athol@@ 11
atives 11
atorial 11
atri 11
ature 11
augh 11
añ@@ 11
barra 11
bass@@ 11
bec@@ 11
bium 11
blas@@ 11
blue 11
book@@ 11
bre 11
bull 11
bun 11
caf@@ 11
case 11
cent@@ 11
chal@@ 11
championship 11
chief 11
child 11
ciano 11
clar@@ 11
cle@@ 11
clear 11
clusive 11
cock 11
condi@@ 11
contemporary 11
copa 11
copy 11
countries 11
cript 11
cum@@ 11
date 11
deen 11
dej@@ 11
demo 11
det 11
dido 11
dist@@ 11
dius 11
dj@@ 11
dot 11
double 11
doul@@ 11
dova 11
dow 11
down@@ 11
drive 11
duro 11
dut 11
dés 11
ebre 11
edit@@ 11
elt@@ 11
emati@@ 11
eme@@ 11
ements 11
emic 11
emir 11
enbach 11
endía 11
enson 11
entin 11
esca 11
escope 11
estro 11
evya 11
fall 11
featured 11
fill 11
finance 11
fiz@@ 11
folk 11
full 11
function 11
gad@@ 11
gang 11
gard 11
gener@@ 11
gestr@@ 11
good 11
gro@@ 11
grou@@ 11
hardcore 11
hin 11
hydr@@ 11
hyp@@ 11
icata 11
ication 11
idential 11
ight@@ 11
ileg@@ 11
illac 11
illar@@ 11
illes 11
indr@@ 11
iness 11
inity 11
interface 11
isse 11
istin 11
kamp 11
kare 11
kart@@ 11
kil 11
kiye 11
kleri 11
kow 11
koy@@ 11
l. 11
lano 11
ld 11
league 11
leman 11
lete 11
lev 11
lida 11
lit 11
loss@@ 11
m2 11
maal@@ 11
mak 11
management 11
manch@@ 11
mann@@ 11
mid 11
mission 11
movement 11
mud@@ 11
nal 11
neri 11
nic 11
nitz 11
nou@@ 11
ocera 11
oche 11
odes 11
odon 11
ofre@@ 11
oil 11
ologist 11
omer 11
onium 11
onnais 11
opu@@ 11
order 11
organ 11
orial 11
oring 11
ornith@@ 11
osas 11
osus 11
oty@@ 11
outre 11
ovsky 11
phys@@ 11
plic@@ 11
pling 11
plo@@ 11
pomp@@ 11
pow@@ 11
production 11
province 11
pyr@@ 11
rant 11
ray@@ 11
recht 11
rest 11
rew 11
rew@@ 11
ril@@ 11
ritt 11
road 11
role 11
rég@@ 11
scale 11
schen@@ 11
script 11
semb@@ 11
send 11
seri 11
sign@@ 11
siy@@ 11
skaya 11
sn@@ 11
social 11
sof@@ 11
soprano 11
sports 11
spot 11
stic 11
stra 11
syl@@ 11
sym@@ 11
systems 11
talk 11
tenberg 11
terminal 11
tern@@ 11
ternal 11
thal 11
thành 11
till 11
tillo 11
tner 11
trans 11
uiya 11
ulla 11
ungef@@ 11
uten 11
uter 11
vana 11
vert 11
vine 11
voice 11
void 11
writer 11
wski 11
xo@@ 11
yeri 11
ylus 11
young 11
your 11
yt@@ 11
zap@@ 11
zel@@ 11
Æ@@ 11
Édouard 11
Ép@@ 11
Öster@@ 11
ál@@ 11
éry 11
és@@ 11
ím@@ 11
ôme 11
ön 11
önü 11
İn@@ 11
ž 11
ɛ 11
ʾ 11
ί@@ 11
ε 11
εια 11
ι 11
ξ@@ 11
στ@@ 11
τη@@ 11
χ 11
У@@ 11
а 11
в@@ 11
к 11
ка 11
л@@ 11
ш@@ 11
ь 11
ד 11
الج@@ 11
الف@@ 11
الن@@ 11
اَ@@ 11
ب@@ 11
ق 11
ملعب 11
هُ@@ 11
وم 11
وَ 11
ّ 11
ܩ@@ 11
ር 11
ới 11
Ἄ@@ 11
‌ 11
久@@ 11
幸 11
忠@@ 11
藤@@ 11
金@@ 11
0.0 10
007 10
1.000 10
1.7@@ 10
110@@ 10
1282 10
1284 10
1296 10
1328 10
1394 10
1396 10
1429 10
1451 10
1472 10
1474 10
1482 10
1483 10
1487 10
1553 10
1647 10
1659 10
1688 10
1691 10
1695 10
1697 10
1699 10
1719 10
184@@ 10
2,5 10
2O@@ 10
2nd 10
5.000 10
AU@@ 10
AX 10
Academ@@ 10
Acr@@ 10
Actor 10
Adem@@ 10
Adler 10
Agre@@ 10
Aguirre 10
Ail@@ 10
Aleg@@ 10
Alger@@ 10
Almería 10
Alternative 10
Arctic 10
Ariel 10
Ark@@ 10
Arturo 10
Atlan@@ 10
Augustin 10
Australasia 10
Autonom@@ 10
BI 10
Bau 10
Before 10
Being 10
Bibli@@ 10
Bic@@ 10
Bind@@ 10
Bombar@@ 10
Borough 10
Brist@@ 10
Büt@@ 10
CPU 10
Casey 10
Centro 10
Charente 10
Château 10
Cinema 10
Comple@@ 10
Concer@@ 10
Contr@@ 10
Course 10
Cuenca 10
Cz@@ 10
DJ@@ 10
Democrat 10
Democrats 10
Desp@@ 10
Direc@@ 10
Dup@@ 10
EB 10
EE 10
EG 10
EST 10
EV@@ 10
Ecol@@ 10
Eintracht 10
Emperor 10
Erlangen 10
Erz@@ 10
Ethn@@ 10
Eugenia 10
FDP 10
FX 10
Farr@@ 10
Ferrer 10
Fontaine 10
Franck 10
Friend 10
Fré@@ 10
Fulda 10
GDP 10
Gari@@ 10
Gene@@ 10
Gonzalo 10
Guay@@ 10
Guin@@ 10
Gustave 10
Göl@@ 10
HF 10
HM 10
Haar@@ 10
Hach@@ 10
Hammer 10
Heinz 10
Henriette 10
Het@@ 10
Highland 10
Hoa 10
Hollande 10
Hyundai 10
Hòa 10
ICA@@ 10
Independiente 10
Infantry 10
Influ@@ 10
Internet@@ 10
Into 10
Iris 10
Jakob 10
Jaén 10
Jeff@@ 10
Jip@@ 10
Joaqu@@ 10
Johannes@@ 10
Joint 10
Juven@@ 10
Juárez 10
Jürgen 10
KW 10
Karlsruhe 10
Kast@@ 10
Kazak@@ 10
Kill 10
Knights 10
Know@@ 10
Kons@@ 10
Kry@@ 10
Kumar 10
LT@@ 10
LV 10
Lance 10
Latino 10
Led@@ 10
Lindsay 10
Lori@@ 10
Lot 10
Lübeck 10
Lün@@ 10
ML 10
MLB 10
Madame 10
Malmö 10
Mass 10
Mauricio 10
Maver@@ 10
Mavi 10
Mediterranean 10
Melodi@@ 10
Method@@ 10
Mexican 10
Mid 10
Mines 10
Mode 10
Monster 10
Mora 10
Music@@ 10
Musique 10
Münster 10
NH 10
NS 10
NT@@ 10
Naval 10
Neckar 10
Never@@ 10
Nicaragua 10
Nicolás 10
Niedersachsen 10
Noël 10
Ob 10
Olympi@@ 10
Orchestre 10
Ord@@ 10
Ostr@@ 10
Otom@@ 10
Oxy@@ 10
Parsons 10
Part@@ 10
Pen 10
Pey@@ 10
Pick@@ 10
Piper 10
Plan 10
Planck 10
Pokal 10
Polit@@ 10
Pontific@@ 10
Prac@@ 10
Presse 10
Princ@@ 10
Proper@@ 10
Protection 10
Racing 10
Ramb@@ 10
Regi@@ 10
Renault 10
Rever@@ 10
Revolutionary 10
Rhe@@ 10
Rider 10
Roque 10
Ross@@ 10
SAR@@ 10
SL 10
SL@@ 10
Schools 10
Schul@@ 10
Scream 10
Skul@@ 10
Socialist 10
Solar 10
Some 10
Sonn@@ 10
Sonny 10
Sport@@ 10
Stadi@@ 10
Step 10
Stoc@@ 10
Strateg@@ 10
Study 10
Switch 10
Szczecin 10
Sá@@ 10
TM 10
Taş@@ 10
Third 10
Trabzonspor 10
Trek 10
Trio 10
Trop@@ 10
Ubel@@ 10
Ve@@ 10
Verg@@ 10
Vice 10
Vichy 10
Vida 10
Vidal 10
Vok@@ 10
Vos@@ 10
Vr@@ 10
Welt 10
Wildlife 10
Wimb@@ 10
Windsor 10
Won 10
World@@ 10
Yay@@ 10
Zal@@ 10
Zeitung 10
Zug 10
Zy@@ 10
acan 10
acar@@ 10
accor@@ 10
acon@@ 10
acteria 10
adora 10
afel 10
afla 10
aging 10
aios 10
alization 10
aming 10
amph@@ 10
angeb@@ 10
angeg@@ 10
aning 10
aon 10
aper@@ 10
apon 10
appeared 10
aque 10
araba 10
arazi 10
areti 10
ark 10
asure 10
ataifa 10
atas 10
atch@@ 10
atics 10
atin@@ 10
avis 10
azine 10
aña 10
bajo 10
başı 10
bean 10
bery 10
best 10
bew@@ 10
bier@@ 10
biye 10
bly 10
bow 10
boy@@ 10
brahim 10
bres 10
bt 10
carbon@@ 10
care 10
category 10
cel 10
chs 10
cian 10
cite 10
cli@@ 10
clo@@ 10
commerce 10
contr@@ 10
cos 10
counter 10
culp@@ 10
cus@@ 10
cz 10
cá@@ 10
cán 10
d. 10
dead 10
degree 10
designer 10
dicha 10
dien 10
dies 10
dili 10
dington 10
dire 10
disorder 10
dru@@ 10
echn@@ 10
edin 10
egro 10
elers 10
emer 10
emit@@ 10
emo@@ 10
empl@@ 10
endem@@ 10
enstr@@ 10
enth@@ 10
enthal 10
entz 10
enz 10
eppe 10
erin 10
esan 10
eten 10
eten@@ 10
etos 10
etsk 10
europ@@ 10
ević 10
eş@@ 10
ffs 10
fication 10
fiji 10
flag 10
food 10
fore 10
former 10
forming 10
fresh 10
för@@ 10
g. 10
gat 10
gest@@ 10
gim@@ 10
glob@@ 10
iOS 10
icio 10
identical 10
ieran 10
ighton 10
ignac 10
ikanische 10
ikov 10
ilien 10
imag@@ 10
imin 10
imon 10
index 10
index@@ 10
information 10
ingen@@ 10
inter 10
isen@@ 10
iser 10
islam@@ 10
issen 10
istry 10
itation 10
jet@@ 10
junior 10
jus 10
kamer@@ 10
kanz@@ 10
keys 10
known 10
kop 10
kup 10
lact@@ 10
lag 10
lak 10
lavery 10
lift 10
limited 10
load 10
lois 10
loser 10
lou@@ 10
lán 10
mayo 10
med 10
mental 10
metabol@@ 10
mill 10
minster 10
mix 10
mur 10
nation 10
nick 10
nii 10
nuclear 10
né 10
ober@@ 10
oby 10
occo 10
oise 10
ologue 10
onymous 10
orf 10
orthodoksi 10
oslav@@ 10
où 10
pack 10
phi 10
planet 10
plano 10
plant@@ 10
pneum@@ 10
pose 10
power@@ 10
pre 10
published 10
quilla 10
rac@@ 10
rang@@ 10
rank 10
rd 10
reas 10
reck 10
rir 10
rosa 10
sci@@ 10
seas 10
sekre@@ 10
sert@@ 10
service 10
shel@@ 10
shot 10
sic@@ 10
sig 10
signed 10
sino 10
skri@@ 10
smann 10
sombr@@ 10
sonville 10
sources 10
spe@@ 10
spring 10
square 10
stig@@ 10
stri@@ 10
super 10
sé@@ 10
tado 10
tenay 10
teo 10
terns 10
terres 10
thang 10
then 10
thys 10
ticism 10
tier@@ 10
tique 10
tiva 10
toire 10
tore 10
trix 10
uco 10
udan 10
umun 10
unci@@ 10
unk 10
urb@@ 10
usta 10
vais 10
veda 10
veren 10
verty 10
wick@@ 10
width 10
wig 10
xel 10
xie 10
xon 10
yes 10
yol 10
yright 10
yurt 10
Î@@ 10
áz@@ 10
ät@@ 10
ées 10
éma 10
éo 10
ét@@ 10
été 10
öh@@ 10
ös@@ 10
ø 10
û@@ 10
ć@@ 10
ım 10
ǎ@@ 10
ɪ 10
ʿ 10
Α@@ 10
Ε@@ 10
Μ@@ 10
Σ@@ 10
ει@@ 10
θ 10
καὶ 10
ξ 10
της 10
С@@ 10
լ@@ 10
վ@@ 10
ב 10
ח 10
إ@@ 10
ا 10
الدين 10
الم@@ 10
ب 10
ف@@ 10
ق@@ 10
لا@@ 10
ن@@ 10
هِ 10
َ 10
ܣ@@ 10
ስ@@ 10
ብ@@ 10
Ọ@@ 10
ụn 10
ῆς 10
℟ 10
ー@@ 10
井@@ 10
介 10
健@@ 10
加@@ 10
原@@ 10
吉@@ 10
本@@ 10
永@@ 10
鈴@@ 10
1- 9
1.6@@ 9
1.8@@ 9
1375 9
1422 9
1466 9
1476 9
1478 9
1653 9
1738 9
1753 9
20. 9
4.000 9
500@@ 9
8.1 9
97.@@ 9
Abl@@ 9
Admir@@ 9
Adventure 9
Alp@@ 9
Ambi@@ 9
Anadolu 9
Ancient 9
Appe@@ 9
Architecture 9
Archives 9
Armand 9
Ate@@ 9
BB@@ 9
BL@@ 9
Belgium 9
Belle@@ 9
Besançon 9
Bester 9
Between 9
Blanco 9
Bolívar 9
Brow@@ 9
Bulletin 9
Bár@@ 9
Bắc 9
Cambr@@ 9
Canberra 9
Caz@@ 9
Chev@@ 9
Cil@@ 9
Clare 9
Colonial 9
Color 9
Columb@@ 9
Comte 9
Count@@ 9
Cros@@ 9
Darren 9
Davidson 9
Dem 9
Dex@@ 9
Dmitri 9
Doc 9
Doug 9
Down@@ 9
Drac@@ 9
Drew 9
Dunk@@ 9
Dür@@ 9
Economy 9
Edel@@ 9
Elektron@@ 9
Engine 9
Er 9
Erd@@ 9
Erfurt 9
Ernesto 9
Ero@@ 9
Essen 9
Estado 9
Eugen 9
Extrem@@ 9
Falcon 9
Filos@@ 9
Fire@@ 9
Fj@@ 9
Folk 9
Fort@@ 9
Fourth 9
Fra@@ 9
Giz@@ 9
Gottlieb 9
Goya 9
Grab@@ 9
Grap@@ 9
Grig@@ 9
Gär@@ 9
Gü@@ 9
Gür@@ 9
HK 9
Hammer@@ 9
Hancock 9
Hat 9
Haupt@@ 9
Hell@@ 9
Hello 9
Henri@@ 9
Hernández 9
Hert@@ 9
Hi 9
Highway 9
Howe 9
Hoy@@ 9
Héctor 9
Infer@@ 9
Ingen@@ 9
Innovation 9
Investment 9
Jenkins 9
Jericho 9
Jew@@ 9
Jiménez 9
Jup@@ 9
KB 9
KP 9
Kaisers@@ 9
Kaji@@ 9
Kaplan 9
Keh@@ 9
Kirk 9
Kitap@@ 9
Kni@@ 9
Koll@@ 9
Kü@@ 9
LED 9
LG 9
Lakers 9
Lein@@ 9
Limous@@ 9
Lin 9
Loph@@ 9
Lyr@@ 9
Lü@@ 9
Many 9
Marketing 9
Master@@ 9
Mathemati@@ 9
Mathieu 9
Matt@@ 9
Maus@@ 9
Mech@@ 9
Mehmet 9
Mej@@ 9
Minister 9
Moldav@@ 9
Morph@@ 9
Murad 9
México 9
N1 9
NP 9
Navarra 9
Note 9
Novi 9
ODI 9
Observ@@ 9
Operations 9
Ore@@ 9
Oro 9
Ortega 9
Palomar 9
Paras@@ 9
Phan 9
Phu 9
Phúc 9
Pinto 9
Plac@@ 9
Policy 9
Politics 9
President 9
Priest 9
Prof@@ 9
Pseudo@@ 9
Punj@@ 9
RAF 9
RN@@ 9
Reid 9
Reyn@@ 9
Rhynch@@ 9
Rhyth@@ 9
Rick@@ 9
Rus 9
Rön@@ 9
SED 9
SQL 9
SW 9
Saarbrücken 9
Salom@@ 9
Scha@@ 9
Schubert 9
Schum@@ 9
Scienti@@ 9
Scout 9
Section 9
Sede 9
Sega 9
Senate 9
Seri 9
Sigu@@ 9
Silent 9
Singer 9
Solidar@@ 9
Somer@@ 9
Sonora 9
Spike 9
Spl@@ 9
Steiermark 9
Strong 9
Styles 9
Survey 9
Szcz@@ 9
TF 9
Tann@@ 9
Templ@@ 9
Tenn@@ 9
Terra 9
Thi 9
Thom@@ 9
Thre@@ 9
Thunder@@ 9
Ti 9
Tobias 9
Toro 9
Town@@ 9
Trach@@ 9
Trang 9
Trap@@ 9
Trus@@ 9
Tō@@ 9
UTC 9
Ukrain@@ 9
Ulrich 9
Vallée 9
Vander@@ 9
Vass@@ 9
Ví@@ 9
Víctor 9
Walther 9
Wander@@ 9
Wednes@@ 9
Whiteh@@ 9
Wiesbaden 9
Wun@@ 9
Würzburg 9
Yokohama 9
Yên 9
Zamora 9
aben 9
abon 9
acos 9
acteri@@ 9
adows 9
aide 9
aile 9
aird 9
airs 9
aker@@ 9
alej@@ 9
aliers 9
aline 9
alle@@ 9
along 9
alte 9
alyp@@ 9
amateur 9
amber 9
ambre 9
amid@@ 9
ancer 9
ances 9
anistan 9
anom@@ 9
anski 9
antum 9
appe@@ 9
apped 9
aquel 9
arran@@ 9
article 9
assis 9
astronom@@ 9
athan 9
atif 9
atures 9
atz@@ 9
aux@@ 9
available 9
aventure 9
avoc@@ 9
avy 9
aware 9
ayer 9
basa 9
because 9
before 9
bell@@ 9
bike 9
blan@@ 9
blatt 9
both 9
bran@@ 9
burger 9
c.@@ 9
call 9
canti@@ 9
cap 9
carp@@ 9
century 9
channel 9
chos 9
cid 9
cium 9
climate 9
core 9
corpor@@ 9
cose 9
costa 9
cu 9
cular 9
diz 9
document 9
domain 9
done 9
downs 9
dula 9
duruma 9
dé 9
eas@@ 9
eby 9
eccl@@ 9
ected 9
ecti@@ 9
ections 9
ectus 9
edeb@@ 9
egia 9
eis@@ 9
eks 9
elen@@ 9
elet 9
else 9
elus 9
emma 9
enario 9
enco 9
eness 9
ensor 9
enzyme 9
equation 9
eras 9
erei 9
eres 9
ernet 9
erra 9
esini 9
esque 9
etapa 9
eters 9
eto@@ 9
etts 9
fair 9
fati@@ 9
fic@@ 9
flan@@ 9
flav@@ 9
formis 9
front 9
gali 9
gall@@ 9
gene@@ 9
gier 9
girls 9
gle 9
glomer@@ 9
gly@@ 9
god@@ 9
[...]
