् 8669031
के 1666194
। 1546065
में 1258194
, 1226863
है 1085862
प 840104
की 781702
और 690486
़ 656794
से 610670
स 600550
का 595495
को 493718
एक 453923
य 404957
) 387192
( 385418
हैं 373996
क 338264
&quot; 332340
पर 324757
ट 289398
त 288634
ने 279963
. 275717
@-@ 274189
र 273314
व 270079
द 262827
किया 242885
था 230190
लिए 225826
भी 203068
यह 190775
कर 182232
इस 181431
गया 178847
न 178307
म 170014
या 169026
कि 161224
वर 158689
ग 147971
रूप 142312
ज 140131
ड 135827
जो 131657
उन 131121
ध 126425
जाता 125218
कार 121992
फ 120229
ही 118903
साथ 117304
करने 115682
उत 112411
श 111809
हो 109770
ष 109339
वारा 107481
थे 104761
&apos; 102958
राज 101920
भारत 101648
: 101376
नहीं 100235
ब 99431
री 98335
तक 97053
बाद 94208
तर 93683
र@@ 92260
निर 92067
अन 88733
तथा 86774
अपने 84981
थी 84394
म@@ 81591
दिया 80613
यक 77955
ति 77779
ी 77688
षेत 76360
वह 75556
ण 75541
ता 74935
होंने 74573
पूर 72364
होता 72228
ली 71219
ल 69335
क@@ 68735
दी 68559
न@@ 66857
जा 66743
अ@@ 66303
ा 66281
हुआ 65799
व@@ 64957
वे 64763
थित 63530
इन 63452
सर 62059
रा@@ 61988
ब@@ 61659
स@@ 61490
य@@ 60709
वि@@ 60244
कुछ 59681
रा 59616
थ 59583
हें 58524
नाम 58457
राष 58253
विश 58003
आ@@ 57117
रीय 57073
सम 56383
च 55595
ना 54317
करते 54291
हुए 53613
तो 53360
गाँव 53341
प@@ 52501
ल@@ 52304
समय 52188
त@@ 51836
दर 51660
इसके 51274
- 51100
एवं 50970
े 50620
होने 50029
कई 49377
उनके 49272
रि@@ 49091
संस 49054
षा 48985
ए@@ 48915
ना@@ 48549
ला 48155
; 48076
भारतीय 47133
अधिक 46933
रो@@ 46824
वाले 46536
जन 45690
नी 45611
बड 45450
वा@@ 45247
ट@@ 45213
सबसे 45118
का@@ 44984
कारण 44805
ज@@ 44641
अपनी 44513
कम 44436
करता 44377
द@@ 44358
सन 44299
होती 44225
मुख 43928
रों 43838
पहले 43722
मार 43591
थान 43114
अर 43099
ती 43089
गए 43078
पत 43000
रे@@ 42863
दो 42663
मा@@ 42550
टी 42512
ला@@ 42492
रकार 42181
जी 42079
सकता 41932
को@@ 41505
फिल 41181
किसी 40978
सु@@ 40886
&#93; 40456
जब 40447
ं@@ 40378
टर 40368
गई 40309
&#91; 40299
बर 39383
कहा 39249
शन 39180
या@@ 38969
लेकिन 38596
‍ 38393
रदेश 38348
यू@@ 38341
यों 38224
ये 38078
राप 38065
सि@@ 37970
वी 37911
नि@@ 37582
सी@@ 37385
जाती 37345
हुई 37289
ग@@ 37237
ह@@ 37178
बहुत 37039
सी 36978
लिया 36972
शामिल 36859
ले 36219
श@@ 36158
बन 36141
मा 35771
ते 35568
रक 35538
देश 35429
जैसे 35415
ड@@ 35049
बा@@ 35047
होते 34920
सं@@ 34902
सा 34774
भाषा 34594
जिले 34545
/ 34375
दक 34351
सा@@ 34194
ले@@ 34174
च@@ 34107
ता@@ 34081
पा@@ 33971
रम 33592
रहे 33491
षण 33484
ई 32816
धर 32797
ख 32717
उनकी 32293
वास 32230
गत 32155
उस 32123
विद 32051
जाने 32037
लि@@ 32029
री@@ 31837
रस 31755
यालय 31653
लो@@ 31635
इ@@ 31581
बीच 31257
चित 31254
उसके 31143
उद 31088
रहा 31024
मन 30994
सभी 30951
तरह 30673
जिसमें 30586
पश 30579
उ@@ 30393
भाग 30329
मे@@ 30158
इसे 30132
जा@@ 30128
रह 30070
के@@ 30016
रत 29813
आर 29746
इसका 29716
ए 29712
बे@@ 29477
अनुसार 29398
बार 29032
तहसील 28994
मो@@ 28871
ध@@ 28746
तान 28705
माण 28556
रमुख 28499
करना 28396
काम 28394
रिया 28382
मान 28293
मि@@ 28040
उसे 27696
कु@@ 27688
अध 27669
दा@@ 27593
भ 27570
कोई 27527
लोगों 27496
ओ@@ 27468
पड 27360
यात 27323
अक 27204
महत 27194
बढ 26749
ञान 26719
शिक 26715
राम 26581
उपयोग 26562
पार 26559
मण 26535
अल 26428
जीवन 26370
हिन 26366
वाली 26254
मी 26181
पी@@ 26112
वे@@ 25987
ति@@ 25800
जाते 25746
मक 25709
ने@@ 25705
पुर 25386
&#124; 25310
गो@@ 25232
दोनों 25174
आदि 25112
सिंह 24784
चार 24585
शब 24547
मूल 24527
शहर 24496
लिये 24484
मध 24470
लक 24407
लगभग 24406
नगर 24401
ई@@ 24361
ह 24259
रयोग 24219
दौरान 24186
ियों 24174
यहाँ 24054
डी 23904
थ@@ 23896
िल 23870
ली@@ 23795
साहित 23741
रेस 23702
ख@@ 23675
अंग 23626
से@@ 23593
ओर 23494
फ@@ 23423
सरकार 23298
काल 23260
डल 23137
अब 23120
तीन 23085
ंग 22998
शुरू 22915
विज 22874
फिर 22847
ा@@ 22801
ठ 22783
बि@@ 22693
लोग 22684
.@@ 22563
पास 22555
% 22547
षिण 22486
जिसे 22445
अलग 22320
विकास 22223
भ@@ 22111
1 21764
बल 21609
वार 21603
करती 21602
टा@@ 21578
ऑफ 21553
तन 21536
शक 21471
गु@@ 21214
मे 21213
पे@@ 21165
मु@@ 21021
केवल 20931
अंतर 20907
कों 20896
जिन 20825
सो@@ 20761
जाना 20713
नों 20649
रिकेट 20614
युद 20609
यान 20592
वस 20578
सकते 20563
पो@@ 20555
गर 20516
विशेष 20477
मंदिर 20444
इसकी 20427
हा@@ 20416
हर 20306
टी@@ 20189
पद 19976
कै@@ 19933
&amp; 19926
बी@@ 19896
रु@@ 19888
गा@@ 19829
विस 19822
ण@@ 19758
यम 19735
सिद 19731
बी 19713
दिन 19645
जर 19577
कभी 19576
नी@@ 19426
करण 19414
उनका 19334
विभिन 19323
सदस 19317
टीम 19312
वा 19221
बो@@ 19180
तु 19164
इतिहास 19127
पन 19107
योंकि 18953
साल 18952
उच 18904
इसमें 18898
शा@@ 18803
ष@@ 18796
पि@@ 18673
डे@@ 18622
तों 18621
नदी 18604
जी@@ 18542
वपूर 18531
2 18526
कृत 18509
टो@@ 18506
ं 18500
माना 18498
कि@@ 18438
ि@@ 18429
अपना 18422
दा 18413
इसी 18378
टे@@ 18341
राजा 18320
नो@@ 18317
कहते 18274
चर 18264
हालांकि 18211
थिति 18176
रण 18133
रही 18131
हिस 18101
संख 18097
रदर 18073
किए 17888
दिल 17839
वाला 17834
षित 17830
ों 17783
हे@@ 17776
टा 17748
ंग@@ 17713
भा@@ 17676
रसिद 17645
यु@@ 17628
योग 17502
रथम 17501
रू@@ 17461
शि@@ 17434
आ 17422
रे 17366
कल 17365
हि@@ 17364
रित 17357
॰ 17310
तब 17301
टि@@ 17275
वविद 17241
पहली 17220
रता 17124
कुल 17116
सत 17061
आवश 17031
रदान 17012
पुरस 16893
कन 16882
अस 16862
महा@@ 16854
बु@@ 16731
पी 16699
मै@@ 16672
रिय 16604
बना 16542
जे@@ 16494
टन 16464
संयुक 16450
दे@@ 16420
राज@@ 16390
दूसरे 16332
जिसके 16319
पर@@ 16295
अमेरिका 16276
जल 16258
केंद 16185
वी@@ 16171
थापित 16023
दे 15990
रन 15908
लों 15888
छ@@ 15881
उल 15859
परि@@ 15841
बै@@ 15811
टेशन 15807
भर 15806
तत 15792
मों 15721
तमान 15711
उसकी 15697
चा@@ 15673
दु@@ 15635
धि 15614
जबकि 15591
पक 15586
सामान 15575
एस 15572
यहां 15544
नर 15511
वन 15509
मात 15485
अप 15448
लैंड 15446
अनु@@ 15436
वीं 15417
दि@@ 15316
जिसका 15289
उप@@ 15242
े@@ 15240
कृष 15216
पाकिस 15194
सक 15171
बच 15158
सभा 15156
तियों 15140
लड 15140
पै@@ 15123
डि@@ 15084
मित 15079
आज 15060
डी@@ 14929
ो@@ 14900
पु@@ 14886
माध 14879
रति@@ 14850
थापना 14832
सू@@ 14830
घ@@ 14823
डा@@ 14770
तौर 14708
िले 14708
संग 14696
यता 14691
यू 14680
समर 14647
3 14610
मिक 14591
तु@@ 14569
’ 14563
रति 14540
एल 14500
मी@@ 14485
अत 14466
की@@ 14440
‘ 14432
पिता 14423
रिक 14419
ंस 14377
मर 14377
टि 14354
घर 14331
फि@@ 14331
मंत 14321
यो@@ 14319
जि@@ 14289
गयी 14276
ठ@@ 14241
रखा 14241
यवस 14237
मृत 14228
बनाया 14220
नामक 14196
अनेक 14180
दार 14180
आधार 14151
पुस 14086
कोड 14045
हो@@ 14011
यास 14010
बारे 13992
जु@@ 13974
डा 13964
उसने 13954
परिवार 13874
विक 13837
सेना 13829
चि@@ 13806
चाहिए 13749
देने 13748
बात 13707
आम 13670
वै@@ 13583
ययन 13548
समूह 13546
देशों 13517
जारी 13515
है@@ 13512
हार 13505
तार 13500
गढ 13499
रै@@ 13473
संगीत 13457
ु@@ 13457
बिहार 13448
सेवा 13401
उपलब 13391
षक 13354
ते@@ 13316
रो 13275
ऐसा 13243
ंट 13168
अच 13166
षों 13160
यु 13117
जिला 13067
सकती 13057
कर@@ 12973
१ 12940
ो 12931
लै@@ 12907
ी@@ 12906
रभाव 12901
२ 12901
पुत 12893
राचीन 12885
केन 12869
दृष 12851
ऐसे 12836
जो@@ 12821
जहां 12813
महिला 12778
वत 12716
बनाने 12709
चिम 12676
वाद 12670
अव@@ 12644
परिवर 12633
थीं 12631
अलावा 12607
छोड 12604
ंड 12489
दुर 12489
ओं 12446
गि@@ 12425
20 12424
अफ 12400
आई@@ 12375
देता 12365
लम 12342
भूमिका 12305
ऐ@@ 12293
मैच 12271
करके 12270
माता 12203
वक 12193
तराखण 12170
ँ@@ 12161
जुड 12154
दों 12147
लु@@ 12136
निम 12128
भू@@ 12121
चिकित 12111
जिससे 12095
खा@@ 12089
येक 12083
अं@@ 12081
दूर 12081
खिलाफ 12075
सार 12068
डो@@ 12022
ऑस 12020
यदि 12019
िया 12008
टिक 11996
मान@@ 11977
चक 11974
वतंत 11961
धार 11941
कंपनी 11922
रोग 11919
4 11912
पता 11912
रान 11892
यन 11879
काफी 11842
सामाजिक 11814
समस 11807
5 11767
दुनिया 11747
लेकर 11704
दू 11700
चुनाव 11645
कॉ@@ 11639
वान 11631
उसका 11629
जिस 11558
मस 11557
शे@@ 11526
तरी 11512
आई 11504
शास 11497
कप 11477
नई 11449
शताब 11402
५ 11398
झ@@ 11377
कला 11371
लर 11371
रिटिश 11354
दो@@ 11352
पहला 11348
चन 11345
ार 11335
जोड 11331
गये 11319
परीक 11310
अथवा 11273
सुरक 11252
ओ 11249
लेख 11240
था@@ 11197
10 11194
पानी 11194
वों 11191
खेल 11167
तर@@ 11155
समान 11132
पादन 11082
इंग 11067
जन@@ 11067
इसलिए 11057
किये 11054
ंद 11028
शुरुआत 11015
आगे 10963
धन 10961
अमेरिकी 10958
कूल 10955
छोटे 10949
ताओं 10946
जहाँ 10942
कृति 10938
– 10895
तेमाल 10880
रणाली 10870
राम@@ 10869
वरूप 10869
उम 10867
= 10857
आधारित 10828
एस@@ 10764
दी@@ 10722
सम@@ 10716
रकाशित 10691
वीप 10678
अप@@ 10671
एँ 10667
हम 10640
गा 10615
तित 10593
उदाहरण 10591
रेज 10573
6 10555
लाल 10543
लगा 10535
साम 10473
रेलवे 10472
चु@@ 10461
जनवरी 10456
समाज 10424
पूरी 10407
इससे 10394
फर 10391
राजस 10390
मुक 10384
बाहर 10345
इनके 10325
अंत 10306
अभि@@ 10304
आन 10299
३ 10288
शासन 10274
नियंत 10258
विकसित 10210
होगा 10181
वो 10168
मद 10167
लोक 10161
गांव 10157
४ 10119
पति 10116
गे@@ 10113
गी 10089
पदार 10054
३@@ 10042
ंड@@ 10013
रॉ@@ 10013
इं@@ 9997
मत 9981
रहता 9979
भगवान 9971
संघ 9963
दस 9958
रेन 9945
दशक 9939
बनी 9935
फे@@ 9922
मुद 9921
थल 9900
रेणी 9900
निया 9899
बने 9887
एम@@ 9860
वित 9856
ंक 9838
चे@@ 9822
रंग 9804
ियाँ 9804
सब 9803
आत 9797
देते 9797
जिनमें 9783
रहते 9773
एं 9728
अतिरिक 9710
टों 9706
आधुनिक 9705
! 9701
होकर 9689
बा 9668
एम 9641
हा 9641
अधिकांश 9639
मई 9592
रृंखला 9587
शरीर 9580
शीर 9580
रमण 9575
वाल 9568
६ 9522
रेजी 9520
०@@ 9519
रात 9512
चे 9505
gt 9500
लोकप 9479
लू@@ 9470
थिक 9461
पा 9454
हस 9441
अगस 9438
नए 9420
डे 9403
शर 9401
देखा 9396
९ 9340
यादा 9306
ढ 9298
णन 9282
धा@@ 9274
बांग 9268
संक 9249
बस 9240
टूबर 9234
देव 9230
कता 9220
तो@@ 9182
मिल 9172
यर 9166
कार@@ 9163
अधिकार 9139
डर 9130
ू 9130
हु@@ 9122
lt 9121
मानव 9115
उसी 9113
ती@@ 9109
सै@@ 9089
एन@@ 9086
सिस 9066
दूसरी 9059
विभाग 9056
राइ@@ 9048
भिन 9043
रैल 9037
कड 9001
ु 8984
८ 8982
आप 8981
अन@@ 8980
वाचन 8979
संबंध 8976
सर@@ 8974
जून 8970
मल 8966
चीन 8939
भूमि 8935
जगह 8931
छा@@ 8929
नाथ 8927
the 8925
मिश 8911
राजधानी 8907
० 8903
जुलाई 8900
देवी 8889
पूरा 8888
ऊपर 8877
खु@@ 8870
७ 8850
ही@@ 8836
थन 8832
चिमी 8825
तव 8823
ढ@@ 8815
नु@@ 8806
वैज 8805
रोत 8803
यी 8773
सह@@ 8770
ान 8765
राजनीतिक 8753
पल 8743
विचार 8743
पष 8740
सूची 8734
तैयार 8723
of 8717
विषय 8705
बिना 8702
सप 8686
मीटर 8681
ाई 8655
-@@ 8649
दन 8649
अग 8643
णा 8638
सीमा 8618
जीत 8617
टेस 8605
यार 8598
छा 8583
किन 8556
विधानसभा 8554
लेने 8551
युग 8548
रचना 8526
४@@ 8514
राय 8509
टै@@ 8503
ञानिक 8487
युत 8479
धा 8477
पृथ 8474
वयं 8467
निष 8461
अंतिम 8458
खिलाड 8453
लिखा 8442
मू@@ 8410
चा 8406
ू@@ 8406
चों 8404
जनसंख 8388
गै@@ 8384
आकर 8381
लिंग 8372
ञ 8365
थानीय 8360
खो@@ 8358
कोर 8346
ार@@ 8343
रपति 8333
निक 8332
मानित 8323
वृद 8316
उर 8301
रास 8294
समुद 8294
सहायता 8291
योजना 8280
टूर 8269
हल 8252
आने 8241
युक 8240
नीचे 8238
ंत 8208
शी 8175
मूर 8142
यापक 8142
ऐसी 8105
संगठन 8100
कहानी 8099
चौ@@ 8096
िया@@ 8088
होना 8082
समाप 8074
हिंदी 8065
पढ 8046
छात 8029
अभी 8019
पात 8013
पाया 8010
तुलना 8007
कॉलेज 8004
रहने 8004
9 7998
चंद 7995
नो 7988
ीय 7985
रकाश 7978
लो 7967
थि@@ 7946
आक 7936
रवेश 7928
तम 7926
वें 7917
मिला 7906
8 7899
शैली 7897
नाटक 7873
भाई 7871
रिस 7869
६@@ 7860
सूर 7855
7 7839
लीग 7836
वितीय 7820
किलोमीटर 7814
पूरे 7810
खे@@ 7802
चात 7801
विशिष 7787
सों 7785
रभावित 7780
सहित 7766
ित 7761
षमता 7757
लन 7755
सदी 7752
धान 7751
ची 7742
दूरी 7742
सौ@@ 7740
दृश 7738
अवधि 7735
निश 7733
ियां 7730
कू@@ 7714
सिर 7706
समा@@ 7698
अवस 7689
15 7683
मं@@ 7681
फो@@ 7675
संबंधित 7672
जै@@ 7665
बहु@@ 7662
पहाड 7648
एंड 7637
वल 7634
सल 7632
एन 7627
सूत 7623
शी@@ 7622
दास 7615
रयास 7611
वश 7604
लगे 7586
2008 7585
णी 7576
आबादी 7571
फा@@ 7571
किमी 7561
कुमाऊँ 7553
हों 7550
विधि 7547
12 7539
ऐतिहासिक 7527
वादी 7523
मिलता 7510
मुस 7509
पोर 7507
बुद 7506
मैं 7501
बोर 7500
जे 7496
बे 7496
वहाँ 7496
उड 7487
यकता 7481
खान 7459
इनमें 7456
यंत 7451
रीका 7444
टिंग 7439
वंश 7426
हत 7426
पित 7401
रियों 7401
रिया@@ 7399
धि@@ 7391
आर@@ 7384
ऑ@@ 7378
नक 7376
गति 7367
तंत 7360
रेष 7348
५@@ 7345
सिक 7344
तहत 7328
काव 7327
घोषणा 7323
यापार 7317
रहती 7310
2007 7286
तुत 7268
वीकार 7266
आकार 7262
दिए 7259
विधान 7252
टल 7243
टे 7237
आता 7235
लिम 7223
पुरुष 7220
बू@@ 7216
णा@@ 7215
दूसरा 7215
जनगणना 7198
भक 7197
आते 7188
रेट 7179
ि 7179
७@@ 7175
हाल 7172
आयोजित 7169
कांग 7167
सके 7166
कारी 7125
हाथ 7124
गीत 7123
नियम 7120
जों 7114
ऊर 7083
मदद 7067
रेलिया 7065
रण@@ 7060
लिस 7042
एशिया 7040
बौद 7038
जिसने 7025
19 7020
रं@@ 7011
लादेश 7009
बनाए 6997
इनका 6980
दिखाई 6977
विवाह 6957
लता 6955
2018 6947
टो 6945
2019 6909
चल 6887
थात 6884
बाल 6884
थर 6881
जाए 6872
टम 6869
दल 6858
आया 6839
जाति 6831
पण 6823
2009 6808
नामेंट 6802
हेतु 6800
कारों 6787
धांत 6783
लास 6772
दान 6758
रखने 6758
याय 6752
गन 6747
तुम 6745
बताया 6731
ॅ@@ 6730
रव 6729
सामने 6726
देव@@ 6724
ीन 6724
अंतरराष 6723
शादी 6706
बैंक 6695
थानों 6694
षा@@ 6691
पू@@ 6683
महिलाओं 6682
बम 6672
मिली 6672
रारंभिक 6670
नन 6662
रह@@ 6648
कं@@ 6640
उपन 6631
पांच 6629
लिन 6612
शो@@ 6611
लॉ@@ 6608
राह 6601
साक 6598
रप 6592
नियुक 6585
पुलिस 6580
ै@@ 6575
रशिक 6570
कश 6567
बंद 6567
0 6551
मास 6534
नेतृत 6531
30 6527
हे 6522
पुनर 6520
ोर 6519
मह@@ 6518
२@@ 6517
कवि 6514
कुमार 6504
यिक 6502
करा@@ 6500
लाम 6499
९@@ 6496
11 6494
हवाई 6477
ठा 6473
‌ 6472
रेल 6471
नस 6463
बं@@ 6445
चला 6443
अम 6437
ूर 6437
शा 6422
रद 6417
सात 6399
घटना 6396
किस 6390
अधि@@ 6381
कस 6381
सांस 6377
मार@@ 6376
रिका 6373
परिषद 6371
फरवरी 6359
मेंट 6355
रिकॉर 6355
सफल 6355
ौ@@ 6350
लग@@ 6349
लेखक 6347
पैदा 6346
राकृतिक 6346
दिशा 6327
संरक 6326
डॉ 6309
मीर 6307
८@@ 6300
वेस 6294
नौ@@ 6291
छत 6289
ंगे 6286
मैन 6286
बंगाल 6277
मनुष 6276
मिलियन 6274
अरब 6261
सब@@ 6258
वती 6257
दू@@ 6255
यवहार 6247
नृत 6235
रल 6234
शु@@ 6229
सितंबर 6223
गैर 6205
विन 6204
जानकारी 6201
वापस 6201
वामी 6198
रम@@ 6192
ईस 6191
जित 6182
खड 6177
फै@@ 6177
2006 6176
टर@@ 6174
जनता 6170
आश 6161
लाभ 6160
18 6150
गार 6148
गोल 6146
षिणी 6141
षी 6136
वजनिक 6132
पह@@ 6110
दिनों 6104
मनी 6104
छोटी 6099
सैन 6098
तिक 6094
नल 6087
ारा 6084
लू 6072
समुदाय 6065
यूरोप 6057
सड 6040
भीतर 6009
हासिल 6006
पुष 6004
कालीन 5995
राव 5979
खि@@ 5977
वेल 5970
कृ@@ 5968
कानून 5952
कथा 5931
वृत 5928
कब 5923
इनकी 5921
भी@@ 5920
इन@@ 5918
चै@@ 5918
खोज 5917
आमतौर 5911
तल 5905
अगर 5901
अड 5893
शित 5893
बजे 5891
देती 5886
लब 5884
धीरे 5880
सरकारी 5880
रां@@ 5879
छी 5878
सामग 5874
ठी 5868
पहचान 5857
राजमार 5853
शिव 5841
गुप 5831
पीछे 5829
इलेक 5822
खा 5820
कृतिक 5815
सिटी 5811
रतिशत 5804
षिक 5803
जिम 5801
घा@@ 5789
2010 5781
25 5777
उपस 5767
कृषि 5758
जिसकी 5756
ची@@ 5752
डन 5749
मेल 5749
तरफ 5747
मिस 5734
ॉर 5720
यत 5712
16 5711
समिति 5707
विष 5702
पाठ 5691
कक 5687
14 5685
दिसंबर 5682
परिणाम 5670
लगता 5668
लिक 5667
सागर 5665
यही 5663
जल@@ 5659
? 5648
रहण 5644
१९@@ 5643
एं@@ 5629
जैसा 5624
सहायक 5623
ऊ@@ 5620
अभिनय 5619
नवंबर 5617
बिल 5607
लित 5606
चरण 5604
वो@@ 5602
डिग 5596
चीनी 5593
लाख 5586
महान 5585
अनुसंधान 5583
ईसा 5581
किंग 5580
मौजूद 5571
वर@@ 5569
टीवी 5565
बर@@ 5557
रौद 5548
सेंट 5546
वार@@ 5544
कमी 5541
नलिखित 5538
ये@@ 5536
पंजाब 5535
खुद 5534
ञात 5526
तिगत 5509
एल@@ 5504
अकादमी 5499
ताकि 5499
िय@@ 5499
जीता 5493
जैन 5487
मौ@@ 5475
वजह 5475
तानी 5473
तीय 5467
अपेक 5464
बिन 5461
लाइ@@ 5459
लौ@@ 5458
आधिकारिक 5455
यतः 5454
टेक 5449
धी 5441
तीर 5438
निजी 5436
ः 5430
गुरु 5429
कला@@ 5428
पाद 5426
नै@@ 5422
घु@@ 5420
सिन 5414
थों 5407
21 5404
रांस 5401
भाषाओं 5388
नता 5382
१८@@ 5381
रिलीज 5371
थे@@ 5363
ंडा 5360
बदल 5358
औसत 5353
नव@@ 5352
याप 5350
धारित 5349
जीव 5347
रेम 5346
धारा 5345
जाएगा 5340
एकल 5337
आंदोलन 5335
योगदान 5335
नेपाल 5333
पॉ@@ 5333
बाहरी 5328
रेड 5327
यूरोपीय 5324
विशाल 5324
पिक 5322
तः 5320
उससे 5318
ञा@@ 5318
िला 5310
बाजार 5305
शाह 5293
जय@@ 5290
यूटर 5287
वेद 5286
ीं 5282
लय 5281
अनुमति 5270
रेक 5264
रु 5261
उनमें 5256
वहां 5254
दिर 5251
साइ@@ 5243
पट 5241
पृष 5240
जैसी 5230
मुंबई 5228
ें 5218
17 5217
टार 5217
किंतु 5213
अली 5202
2014 5200
पालन 5199
सूचना 5197
पूजा 5192
यस 5190
2011 5186
मंडल 5181
2016 5180
हाइड 5174
ठीक 5164
णय 5156
रबंधन 5143
_ 5139
गों 5139
विजय 5139
2017 5138
लाई 5137
चुके 5131
दर@@ 5130
सेन 5126
फोर 5125
नीति 5122
डब 5113
संचालित 5106
रधान 5104
भु@@ 5103
संदर 5103
लं@@ 5094
देखने 5093
विरोध 5092
एच@@ 5091
सीमित 5089
कविता 5088
यद 5085
रांत 5084
धित 5078
आसपास 5076
अनुवाद 5075
ारी 5070
आस 5065
रतियोगिता 5065
2005 5064
राय@@ 5048
फल 5047
रानी 5042
लागू 5034
ंगा 5025
लगाया 5022
रीन 5013
मामले 5012
छि@@ 5010
and 5005
एफ@@ 5003
13 5002
सफलता 4999
रच@@ 4977
मन@@ 4967
देश@@ 4966
मनो@@ 4963
सुधार 4958
लाने 4956
नेटवर 4954
करें 4951
तू@@ 4951
शासक 4945
चलता 4944
मॉ@@ 4940
छ 4935
पटना 4921
महीने 4911
+ 4910
रवा@@ 4902
संघर 4902
नि 4900
इंडिया 4898
भोजन 4898
योगिकी 4882
ारों 4880
परा@@ 4872
इत 4861
शो 4861
महाराष 4859
१९९@@ 4858
बावजूद 4853
बार@@ 4849
बद 4845
जॉन 4844
टॉ@@ 4843
मिलती 4841
शुक 4838
ंद@@ 4835
बनाई 4834
नया 4828
ऑक 4820
वीर 4820
गंगा 4819
मोड 4818
ठा@@ 4804
तविक 4803
भारी 4799
शुद 4799
2012 4798
घंटे 4796
सेल 4784
पना 4782
जू@@ 4781
शिष 4778
बैंड 4771
जापान 4770
बॉ@@ 4770
षम 4770
परन 4761
पाए 4760
रिटेन 4756
शै@@ 4747
अधिनियम 4746
भार 4745
कहीं 4742
डिंग 4735
आं@@ 4734
णु 4733
षर 4733
चरित 4732
सुन 4732
पं@@ 4727
लेट 4726
संबंधी 4724
आए 4722
धारण 4721
2000 4720
मॉडल 4713
रिय@@ 4713
संभव 4711
हॉ@@ 4711
रयुक 4709
छह 4705
अभिनेता 4699
याख 4679
तमिल 4677
पाल 4677
१९८@@ 4677
गठन 4671
आती 4667
गं@@ 4667
संकेत 4660
राट 4650
औ@@ 4649
मिट 4649
झील 4646
परम 4646
नात 4645
तुर 4642
नम 4637
ौर 4636
शों 4635
वाड 4633
पेन 4630
2020 4629
रेखा 4609
मिनट 4607
परंतु 4606
फु@@ 4605
हिंदू 4602
करोड 4601
लाइन 4601
णों 4598
लाया 4595
माल 4592
पीड 4589
कोशिश 4582
उपचार 4581
लस 4580
रिपोर 4579
गी@@ 4577
परिचय 4572
संरचना 4568
गौ@@ 4566
आरम 4562
रतिनिधित 4562
विवरण 4560
परियोजना 4559
माँ 4554
वज 4547
गड 4545
टू@@ 4538
रूस 4537
तुओं 4532
50 4528
छोटा 4527
मीडिया 4524
मामलों 4523
दत 4521
भाव 4512
अम@@ 4511
कंप 4510
होगी 4506
हर@@ 4505
साधारण 4502
मानते 4499
चले 4498
मील 4498
माने 4489
रसाद 4484
100 4479
रिज 4475
तट 4470
मुरादाबाद 4470
तृत 4468
नेता 4467
ंगी 4465
रोड 4465
रतिक 4463
लेखन 4461
आइ@@ 4457
कौ@@ 4457
विपरीत 4455
गम 4454
तेज 4449
2015 4443
अधिकारी 4441
फी@@ 4437
धु@@ 4430
भव 4428
रोक 4423
संविधान 4409
एफ 4407
in 4403
जान 4401
अभियान 4395
दीन 4395
सही 4395
24 4394
भागों 4394
ँ 4392
कान 4387
भि@@ 4385
ारे 4380
2004 4379
रि 4378
देना 4377
महल 4375
घट@@ 4367
आयोजन 4363
पुराने 4363
तियाँ 4358
बद@@ 4355
भे@@ 4355
रकाशन 4355
लेषण 4354
22 4351
सहयोग 4351
चिन 4350
अनुभव 4346
ऊ 4341
टाइ@@ 4339
कम@@ 4334
रिश 4334
रतिष 4332
रकृति 4330
पों 4329
आईसीसी 4328
अगले 4326
चू@@ 4326
वं@@ 4324
याओं 4321
सिं@@ 4321
पाई 4311
ंज 4308
वॉ@@ 4308
पार@@ 4305
नियों 4299
लियों 4297
आचार 4291
पुरी 4290
घोषित 4289
शं@@ 4289
डॉलर 4286
फाइनल 4284
१९७@@ 4283
कोट 4274
लगातार 4273
इच 4266
लेते 4265
खंड 4264
चुका 4260
नत 4256
एक@@ 4253
मुहम 4250
विधायक 4245
पेट 4244
पदक 4243
भविष 4240
वीडियो 4236
तेल 4235
2013 4234
शाखा 4232
१@@ 4230
रश 4227
ओलंपिक 4221
संसद 4221
आयु 4217
धी@@ 4212
लेक 4212
डु@@ 4211
लंदन 4211
रतिस 4208
a 4205
बनने 4201
रचित 4199
गुण 4195
दित 4191
बह@@ 4187
गांधी 4182
समीक 4181
कीय 4178
अतः 4177
िक 4177
2021 4176
नें 4176
घरेलू 4171
उसमें 4158
विभाजित 4158
चो@@ 4154
निवास 4153
पिछले 4153
विदेशी 4152
करीब 4143
8@@ 4136
खेलों 4134
भवन 4134
लगी 4133
बाज 4132
रंथ 4123
रशासनिक 4123
नामित 4121
राजनीति 4116
गुजरात 4115
यादि 4112
वायु 4112
अज 4110
योगिक 4110
षेप 4107
हित 4101
जम 4100
शल 4098
तियां 4096
रज 4092
रमा@@ 4092
किनारे 4090
इसने 4087
बन@@ 4086
बोली 4086
निकट 4085
सेट 4085
२० 4083
आदेश 4081
नेस 4081
धो@@ 4080
रखते 4080
जिनके 4075
लाह 4074
शेष 4069
“ 4067
डिजाइन 4065
$ 4061
पकड 4061
वालों 4057
युवा 4052
सूक 4052
लग 4050
टिन 4046
चारों 4042
यायालय 4039
फॉर 4030
गंज 4028
दौरा 4028
ऋ@@ 4027
इलाहाबाद 4022
आठ 4009
निस 4000
रचलित 4000
सुविधा 4000
मेट 3999
पवित 3996
लने 3995
हरा 3994
यूज 3993
उपकरण 3992
मिलकर 3992
मानक 3983
गल 3982
चुना 3982
माइक 3980
परिणामस 3979
थायी 3978
नेट 3977
वृ@@ 3972
थोड 3971
शोध 3971
7@@ 3968
” 3966
पारंपरिक 3965
हमारे 3965
बिक 3960
गो 3959
टु@@ 3955
ताव 3953
ताक 3952
केट 3948
रार 3947
लें 3944
तस 3941
अनुमान 3940
ाने 3939
मैचों 3935
नारायण 3923
अभिनेत 3920
तरीके 3920
वाधिक 3920
नार 3917
नाइट 3916
रारंभ 3915
सारे 3915
23 3912
निक@@ 3911
रू 3909
भिक 3908
यपि 3905
खेला 3904
औद 3898
चेन 3898
दिसम 3895
आदर 3894
रवर 3893
वप 3892
दावा 3890
रिंग 3890
नाइ@@ 3888
​ 3886
लिखी 3880
बंधित 3879
पाँच 3874
रोह 3874
नान 3873
१९६@@ 3868
रख 3867
है- 3867
नपुर 3865
यवसाय 3858
यादातर 3856
घ 3853
नीय 3852
रीलंका 3840
भावना 3838
तकों 3837
आय@@ 3836
छे 3836
गैस 3833
वृक 3831
आगरा 3824
निय@@ 3822
अभ 3818
समाचार 3815
विल 3811
आग 3810
राथमिक 3807
26 3806
,@@ 3803
विकेट 3803
विख 3799
टिस 3798
फोन 3796
चैनल 3795
मौत 3794
लिय@@ 3794
नवम 3791
नागरिक 3790
नियमित 3790
नातक 3786
तरा@@ 3785
टस 3778
लेखनीय 3778
बजाय 3774
अधीन 3771
लेन 3771
रतीक 3768
ंडी 3759
शिव@@ 3758
2003 3756
ूल 3755
मानी 3751
संपर 3743
लिपि 3740
रुप 3738
लोक@@ 3737
कलाकार 3732
मना@@ 3732
खाने 3731
थाओं 3731
बेल 3728
घाट 3727
डिस 3726
कॉर 3724
रेरित 3722
अवसर 3721
बाई 3719
दोस 3718
झा@@ 3715
रचार 3713
वां 3711
2002 3709
साइड 3709
2001 3708
लेता 3708
सॉफ 3705
इ 3703
संत 3703
धों 3698
मंड@@ 3695
आरंभ 3693
सार@@ 3693
यधिक 3689
सामना 3689
धियों 3684
अद 3680
नॉ@@ 3680
विकल 3677
रामीण 3675
डॉ@@ 3674
ंच@@ 3670
थो@@ 3666
वैश 3665
दु 3664
9@@ 3663
वाक 3660
मिलते 3659
हमेशा 3659
घाटी 3658
१० 3658
संचार 3652
ियन 3651
फी 3649
भट 3646
दियों 3644
विवाद 3643
पुरा 3641
थितियों 3640
लामी 3638
खाद 3636
षि@@ 3634
उप 3633
ईश 3631
पुनः 3631
रशासन 3625
आँ@@ 3621
घो@@ 3620
लना 3616
I 3610
1990 3609
मैदान 3609
टेट 3606
s 3605
रैक 3605
हरि@@ 3604
जॉर 3603
बां@@ 3601
नष 3599
तीसगढ 3598
रोज 3596
जनरल 3595
पेश 3590
समझ@@ 3590
एकमात 3588
खी 3587
देशक 3587
जिनका 3579
जीवित 3575
रमा 3575
रंग@@ 3572
परिस 3569
नेशनल 3568
रधानमंत 3567
लिखित 3567
याय@@ 3562
मैक 3561
40 3555
वायु@@ 3553
मधु@@ 3551
१७@@ 3551
तै@@ 3549
रमों 3545
कनाडा 3538
तीसरे 3536
धति 3535
वेन 3534
परमाणु 3533
संपत 3531
बों 3528
मोर 3528
तं@@ 3527
पेड 3524
चाहते 3518
वाइ@@ 3514
अंतरिक 3513
यज 3513
ताप 3510
अधिकतर 3504
ंब@@ 3503
वेक 3499
रेडियो 3494
एका@@ 3488
हीं 3487
जान@@ 3481
टेड 3480
विष@@ 3480
पे 3477
यो 3476
आलोचना 3469
जांच 3469
मू 3468
इंड@@ 3462
तें 3462
मेन 3461
रुद 3460
वाई 3457
सां@@ 3457
खण 3455
मिले 3455
बेटे 3454
लगा@@ 3450
निंग 3448
बत 3447
माइ@@ 3446
राशि 3444
हाउस 3444
इस@@ 3442
ियर 3436
पुरुषों 3435
गेम 3434
सव 3434
बेहतर 3432
यमान 3429
गणित 3426
रकट 3425
ढा@@ 3421
फा 3421
रिकेटर 3420
रत@@ 3419
चढ 3416
चुकी 3416
शय 3416
टक 3414
लि 3412
जनक 3410
रारम 3406
लियन 3406
नायक 3405
इंजन 3404
तापमान 3404
षणों 3403
27 3400
करियर 3399
पताल 3398
याद 3398
रका@@ 3398
28 3397
केरल 3397
परिक 3396
परंपरा 3392
दम 3391
जेल 3389
शाही 3389
मांग 3388
ईसाई 3384
जिद 3384
अर@@ 3383
सिंग 3381
कीर 3376
फाइ@@ 3373
णित 3372
बराबर 3369
धिक 3368
लंबे 3367
ियो@@ 3366
टवेयर 3365
नज 3365
6@@ 3362
लार 3361
सैनिक 3361
महासागर 3355
हद 3350
समारोह 3349
शहरों 3340
ॉ@@ 3337
अंदर 3334
संचालन 3334
... 3332
टाइम 3332
मेलन 3330
हालाँकि 3330
यि@@ 3328
लकर 3326
मियों 3323
राव@@ 3323
ंच 3318
रासायनिक 3316
तीव 3314
विमान 3314
पंच@@ 3310
B@@ 3306
गंभीर 3302
टिकोण 3302
वहीं 3300
ंप@@ 3298
भाषा@@ 3293
मिलित 3292
इज 3291
काम@@ 3291
विषयों 3288
मौसम 3283
उनसे 3280
यावरण 3279
लगाने 3279
नू@@ 3276
तारा 3275
टियों 3271
लेस 3271
देख 3268
मां 3265
रौ@@ 3264
रांति 3263
to 3261
डो 3261
मृ@@ 3260
आयोग 3259
विलियम 3259
रालय 3255
रोम 3254
अरबी 3253
तथ 3250
नाग@@ 3249
१९५@@ 3247
थापक 3245
जड 3243
भौतिक 3243
शारीरिक 3243
सान 3242
इतना 3239
गुरु@@ 3237
देखें 3237
यूट 3235
महाराज 3233
रायः 3233
घटनाओं 3230
थव 3227
डिज 3225
कल@@ 3224
लागत 3223
सितम 3223
ताल 3213
ञा 3211
पाने 3211
लिखे 3211
समूहों 3210
हमला 3210
किले 3209
तोड 3208
हैं- 3205
पुल 3204
एच 3202
वन@@ 3198
फॉ@@ 3197
2@@ 3194
H@@ 3194
बेटी 3193
मोहन 3193
वाणिज 3193
खर 3192
लते 3191
शान 3191
खों 3190
मक@@ 3185
सुल 3185
यकार 3181
डाय@@ 3180
कपड 3178
वही 3178
तकनीक 3175
ंडर 3174
परिसर 3174
संप 3174
हम@@ 3173
दिक 3172
सीधे 3171
अंक 3170
टू 3170
गे 3169
कपूर 3164
विरोधी 3164
चली 3162
सेक 3162
ताह 3159
धार@@ 3159
फुटबॉल 3159
विभाजन 3158
दिखाया 3157
दुल 3156
अधिकारियों 3155
इक 3154
१९४@@ 3154
मिलने 3153
10@@ 3152
सच 3150
षीय 3148
सें@@ 3147
ंस@@ 3146
गाने 3145
ंसी 3144
रॉन 3144
भग@@ 3143
भेद 3143
वोच 3143
ियो 3142
पौ@@ 3141
हवा 3139
निभाई 3137
रियाओं 3137
लोकसभा 3136
रहालय 3131
ै 3131
चलने 3130
दौर 3130
तेजी 3127
निकल 3123
नित 3122
वानों 3122
अध@@ 3121
झु@@ 3121
थक 3120
यप 3119
कुं@@ 3117
रिम 3117
देशित 3115
विजेता 3113
बल@@ 3112
शंकर 3112
कैरियर 3109
सभ 3109
रोमन 3108
रूसी 3104
सिल 3103
1980 3102
कैसे 3101
मुझे 3101
राजवंश 3100
शकों 3099
सह 3099
ृ@@ 3099
गण@@ 3094
सतह 3092
षात 3091
भित 3089
ॉन 3087
भाव@@ 3086
विरुद 3086
भूत 3085
अश 3084
पहुंच 3084
राक 3084
याग 3079
विचारों 3079
अलीगढ 3075
दि 3074
यूक 3073
ंक@@ 3070
1999 3068
तकनीकी 3066
सेवाओं 3061
षत 3058
भेजा 3057
छु@@ 3056
सोवियत 3055
पाद@@ 3046
बेस 3045
रखता 3045
॥ 3045
देखते 3042
चट 3041
चिह 3041
दिवस 3041
भुगतान 3040
उपाधि 3038
वेंटी 3036
यावसायिक 3035
कोश 3027
घू@@ 3024
शांति 3019
नैनीताल 3014
डै@@ 3005
जोखिम 3004
बता@@ 3002
देवता 3001
पसंद 3001
एशियाई 2999
चतुर 2998
देशन 2998
दौरे 2998
आये 2996
शील 2996
तिब 2995
रियल 2993
लंबी 2992
इब 2989
रवृत 2989
यमंत 2988
जग@@ 2987
पुराण 2986
वातावरण 2984
सरल 2984
डॉक 2981
उचित 2979
टने 2977
रभावी 2976
विशेषज 2975
अंततः 2973
तार@@ 2973
लैक 2972
नेवाले 2970
संभावना 2970
धातु 2967
हन 2967
लीय 2966
दौ@@ 2965
जलवायु 2963
तिष 2962
डिया 2959
हरा@@ 2959
जिसमे 2958
करेगा 2957
थिर 2955
नियमों 2955
कोलकाता 2952
ः@@ 2950
वाह 2950
करी 2949
कण 2944
अल@@ 2943
टीमों 2942
इंस 2940
चय 2940
डों 2939
अंग@@ 2938
रोजन 2938
कॉन 2934
कास 2933
मंग@@ 2933
लैण 2933
लती 2932
पत@@ 2928
यटन 2928
चलते 2927
जेम 2926
यूजीलैंड 2925
गवर 2922
जापानी 2914
टिव 2914
नार@@ 2909
1998 2908
मोहम 2907
इकाई 2903
गतिविधियों 2902
कारक 2901
हज 2900
हड 2900
१५@@ 2900
पद@@ 2899
दिखा@@ 2895
कट@@ 2892
०० 2892
हाइ@@ 2890
कंपनियों 2889
यकाल 2889
31 2886
5@@ 2885
घे@@ 2885
ङ 2885
चार@@ 2881
रमाण 2881
गद 2880
जीव@@ 2880
मानना 2875
29 2874
इंडियन 2874
formula 2873
जस 2871
शैक 2870
हिल 2870
चैम 2869
रस@@ 2869
दबाव 2868
वोल 2867
मजबूत 2866
करा 2862
सारी 2860
निवेश 2859
नर@@ 2858
शत 2857
फैसला 2856
रिप 2856
पैमाने 2854
यौगिक 2854
कराया 2853
गति@@ 2853
P@@ 2852
टेलीविजन 2852
वाहन 2851
दोलन 2848
गान 2846
फू@@ 2845
कैंसर 2844
दीक 2836
पुराना 2835
खाड 2834
उपयोगकर 2828
शायद 2825
नुसार 2823
शाह@@ 2822
दै@@ 2819
रॉक 2819
सीरीज 2819
कां@@ 2816
३० 2816
थियों 2815
वरी 2815
N@@ 2813
चयन 2810
रेजों 2807
आरोप 2806
करे 2804
भा 2799
यूयॉर 2798
उनको 2795
यर@@ 2794
सीजन 2794
परिवहन 2791
यालयों 2789
हाई 2788
हमें 2787
बुल 2783
मोबाइल 2782
यूनाइटेड 2782
रसारण 2780
अना@@ 2779
मेश 2779
वनि 2777
विशेषता 2773
ठे 2772
भो@@ 2772
आवाज 2771
फुट 2771
नं@@ 2770
यूनिवर 2770
हास 2767
तन@@ 2766
लपुर 2765
उपयुक 2756
जंक 2756
टेडियम 2755
१५ 2755
जानी 2754
डाला 2754
भूषण 2754
मतलब 2752
पोस 2750
हूँ 2748
एड@@ 2747
रदाय 2747
सत@@ 2743
सिया 2743
शिकार 2742
निवासी 2739
मानसिक 2739
असम 2738
कट 2738
वेब 2738
मेरे 2736
बई 2726
भार@@ 2723
गृह 2722
खेती 2720
ढंग 2719
रदा@@ 2719
रोल 2717
यें 2716
रूपों 2716
सीज 2711
रसा@@ 2710
सैनिकों 2709
° 2706
निदेशक 2706
बाह 2706
रव@@ 2706
वेश 2706
G@@ 2704
पुरानी 2704
लभ 2704
बॉक 2703
किल 2700
बहन 2700
हराया 2700
अति@@ 2699
रपुर 2699
१६@@ 2698
इंटरनेट 2689
उज 2688
सस 2687
तीसरी 2686
शुल 2684
जुन 2682
रॉफी 2682
नज@@ 2678
सित 2678
तू 2676
अनुप 2675
गईं 2673
ञापन 2673
राफ 2673
कृतियों 2672
णु@@ 2672
रखी 2671
ुक 2671
मैक@@ 2667
जगत 2665
लीन 2665
ताएं 2664
रवाह 2663
विविध 2662
उष 2661
जिक 2655
ईरान 2653
ावा 2652
गुज@@ 2651
वैदिक 2651
A 2650
रफल 2650
इंटर@@ 2648
गूगल 2648
यकर 2647
1996 2643
बिंदु 2643
मज 2643
लकड 2640
सुंदर 2639
संसार 2638
थशास 2635
समझ 2635
तरण 2634
यव@@ 2631
पेक 2630
शिल 2629
आपूर 2626
कियों 2624
जातियों 2624
वली 2623
हरी 2623
बनिक 2622
गिर@@ 2618
चुने 2618
नही 2618
लेना 2618
१२ 2618
निधन 2616
गिर 2615
पाइ@@ 2614
बिजली 2614
णि@@ 2612
पाल@@ 2610
जीन 2609
षकों 2609
वामित 2608
ियम 2607
कहना 2604
उठा@@ 2603
परिभाषित 2603
विदेश 2602
हरियाणा 2602
मिर 2601
गिरफ 2599
नॉर 2599
आय 2598
अनंतपुर 2595
M@@ 2594
खेले 2592
लघु 2592
इटली 2591
रसार 2591
संधि 2591
चम 2590
पशु 2587
इल 2586
काल@@ 2585
बिया 2585
लखनऊ 2585
गणराज 2583
योग@@ 2583
सौ 2581
षियों 2580
हजार 2579
रुखाबाद 2578
अपराध 2577
तात 2577
बीमारी 2574
तने 2569
टता 2567
1970 2564
रशा@@ 2564
पें@@ 2562
T@@ 2558
भर@@ 2556
मां@@ 2555
मृति 2553
कानूनी 2551
दिये 2550
बाबा 2550
रेशन 2550
आसानी 2548
सल@@ 2548
धिकार 2546
महाभारत 2543
उपा@@ 2540
लिमिटेड 2539
कहलाता 2537
निका@@ 2537
बैठ@@ 2537
वु@@ 2537
कारणों 2536
पट@@ 2534
पीढ 2534
अनिवार 2532
आंतरिक 2531
ारि@@ 2531
धारी 2530
आंकड 2527
पौड 2527
रज@@ 2526
साबित 2526
आयरलैंड 2525
परा 2524
नेताओं 2522
टेल 2521
नव 2520
1997 2519
C@@ 2519
टिप 2518
खास 2517
राग 2517
टरों 2516
हृदय 2516
अवार 2515
एयर 2515
नौ 2515
रीकी 2513
तय 2511
देकर 2509
षिप 2508
वितरण 2507
उपग 2506
दीर 2505
गल@@ 2504
मिशन 2504
सफ 2504
जोर 2502
महाराजा 2502
याम 2502
चारण 2499
पीठ 2499
चौड 2497
जनों 2497
धता 2496
वानी 2495
कत 2494
एड 2493
फार 2490
is 2489
अस@@ 2488
सदर 2488
वोत 2487
गुणवत 2486
हैदराबाद 2484
डेटा 2483
60 2482
एकत 2482
कठिन 2480
जमीन 2480
निगम 2479
दिवसीय 2478
S@@ 2477
होटल 2477
रीक 2475
मो 2474
नुकसान 2472
काशी 2471
रोस 2471
सो 2471
अभिव 2468
गाड 2466
समझा 2465
रियन 2464
जाकर 2463
पहुँच 2461
रसन 2461
शिया 2460
बचपन 2457
लान 2456
यानी 2450
लिख@@ 2448
महसूस 2447
आपको 2446
नंबर 2446
साफ 2446
दें 2444
परे@@ 2444
The 2442
ऋषि 2442
तिशाली 2442
राल 2442
संज 2441
रोकने 2438
चना 2437
बंध@@ 2434
बैक 2433
किरदार 2432
3@@ 2428
वनडे 2422
मनाया 2419
रंथों 2417
साम@@ 2417
बहा@@ 2415
दारी 2414
रचनाओं 2414
वनस 2414
कोरिया 2412
चाहता 2412
रेय 2411
रेलियाई 2410
मज@@ 2409
बारी 2408
तीनों 2407
मुगल 2400
रियता 2399
ऊंचाई 2398
पंक 2397
हमले 2397
वाणी 2395
जय 2392
लॉक 2392
पनी 2391
09 2389
D@@ 2388
नियो@@ 2388
सेंटर 2388
विवा@@ 2385
साथी 2384
आनंद 2383
साधन 2382
अ 2381
काओं 2381
वां@@ 2381
चं@@ 2379
ारण 2378
फीट 2377
मुश 2377
खेलने 2375
राजाओं 2374
1992 2370
में@@ 2370
घरों 2368
इंजीनियरिंग 2367
तारों 2366
उपज 2363
जहाज 2363
डार 2362
सुर 2362
दिख@@ 2360
चला@@ 2359
तृतीय 2359
यिकी 2358
१०@@ 2358
जक 2357
गीकरण 2356
अनुपात 2355
कने 2355
जयपुर 2355
समृद 2354
ाया 2353
x 2352
धारावाहिक 2352
कोल 2351
— 2351
पादों 2350
होंगे 2349
अहमद 2347
रायगढ 2345
छेद 2344
लु 2344
रीष 2343
दूध 2342
मल@@ 2342
मुख@@ 2340
रॉनिक 2337
तारे 2336
रीट 2336
कैम@@ 2335
जिनकी 2335
चूंकि 2334
बाँ@@ 2333
टुकड 2332
डेल 2331
तता 2331
नूलु 2331
षता 2330
1994 2329
रोगी 2329
यानि 2327
मंच 2326
बंगाली 2325
रय 2325
जरूरत 2324
रसारित 2324
बनाये 2322
गुण@@ 2321
जरी 2321
आउट 2318
मिलाकर 2318
कोण 2317
गायक 2317
डाइ@@ 2317
खत 2316
तुरंत 2315
किला 2313
अफ@@ 2312
तभी 2312
1960 2311
पांड@@ 2311
खाना 2310
इलाज 2309
भौगोलिक 2309
उन@@ 2307
रिन 2307
गणना 2306
पियनशिप 2306
जाया 2305
रीमियर 2305
रचना@@ 2304
चिं@@ 2303
जातीय 2302
200 2300
धू@@ 2300
अंड@@ 2299
चीज 2299
ठित 2299
हार@@ 2298
मेरी 2295
ोन 2293
गण 2292
जार 2292
मिन 2292
रुचि 2292
1991 2291
गुज 2290
भूगोल 2289
२०@@ 2286
R@@ 2280
औपचारिक 2280
जनसांख 2279
तया 2279
माला 2279
रवरी 2278
काली 2277
णीय 2276
काफ 2274
1995 2273
कुर 2273
पान 2272
टोन 2270
भागलपुर 2270
हाथों 2270
रगति 2269
एयर@@ 2268
नौज 2268
गुड 2265
कदम 2264
संपूर 2264
अधिकतम 2262
आध 2262
भाषाएँ 2262
संबद 2261
1993 2260
कलाकारों 2260
ऑर 2259
बोल 2259
रतिनिधि 2258
कोशिकाओं 2257
दीप 2255
गू@@ 2254
माल@@ 2254
रग 2254
सौर 2253
हरे 2253
डू@@ 2251
उपकरणों 2247
करेंगे 2247
हाट 2247
-- 2242
रहित 2242
सिनेमा 2241
तीसरा 2237
बदलाव 2237
छे@@ 2235
उपयोगी 2232
बीज 2232
धक 2231
महाविद 2231
रती 2230
गेंद 2228
बाकी 2228
नाल 2227
लत 2227
पौधों 2226
मिल@@ 2226
नाट 2223
वात 2222
W@@ 2221
रांसीसी 2221
मारक 2217
देवताओं 2216
शू@@ 2215
आदमी 2213
रख@@ 2212
पंचायत 2211
भै@@ 2211
रजा@@ 2211
केश 2209
मर@@ 2209
परिभाषा 2207
कालिक 2206
जात 2206
ेन 2206
फूल 2205
यूनि@@ 2205
,००० 2204
निरा@@ 2201
मराठी 2200
0@@ 2198
ऊँचाई 2198
दार@@ 2197
घाटन 2196
बनाकर 2196
रेरणा 2195
समझने 2195
मय 2193
हॉल 2193
बनाता 2192
माह 2192
नाग 2191
नाक 2189
योज@@ 2188
हिमालय 2188
अति 2187
इट 2185
इण 2184
कथा@@ 2184
कह 2182
लिका 2181
लॉन 2181
अवधारणा 2180
रहस 2180
शुरुआती 2177
निहित 2176
समु@@ 2176
मद@@ 2174
२५ 2174
टूडियो 2173
अंश 2172
वेत 2171
जॉ@@ 2170
धन@@ 2167
सचिव 2167
सफेद 2167
डिजिटल 2165
वायरस 2165
हटा 2165
इमारत 2162
जीतने 2162
रीम 2162
थु@@ 2161
लौट 2159
हिंसा 2159
पथ 2157
घं@@ 2155
थानांतरित 2155
सीट 2155
दृढ 2154
दैनिक 2154
नग@@ 2154
पन@@ 2154
मुसलमानों 2154
4@@ 2152
बनाते 2152
मारे 2152
रुक 2150
मचारियों 2148
जटिल 2147
फलस 2147
शस 2146
किंगडम 2145
षे@@ 2145
रॉयल 2144
सरस 2143
यौन 2141
लिखने 2141
तीं 2140
पेशेवर 2137
रशंसा 2137
सद 2137
इम 2136
पू 2136
बस@@ 2134
बाग 2134
यल 2134
झू@@ 2133
अधिकारों 2132
मोटर 2132
रभा@@ 2131
इंटरनेशनल 2130
पुन 2130
उपभोक 2129
एलि@@ 2128
संबंधों 2128
ंडे@@ 2126
आदि@@ 2126
११ 2126
आयुर 2125
कित 2125
परस 2125
यातायात 2125
दया@@ 2123
कोशिका 2120
पोषण 2120
शन@@ 2119
कच 2118
A@@ 2116
चुनावों 2116
गां@@ 2115
महात 2115
१९३@@ 2115
ंगों 2114
हीन 2114
खो 2113
रसायन 2113
षाकृत 2113
खरी@@ 2112
फैला 2112
रूप@@ 2112
सक@@ 2111
35 2110
C 2108
रतीत 2108
टेन 2107
यकारी 2107
घात 2103
मचारी 2102
मेर 2102
सज 2102
डेन 2101
अमरीका 2100
अला@@ 2100
पेस 2100
खे 2099
शराब 2099
शृंखला 2099
ोड 2099
20@@ 2098
PM 2098
कह@@ 2098
डाल 2098
उभ@@ 2097
इलाकों 2095
उ 2094
कौशल 2094
जीवनी 2094
निभा@@ 2094
५० 2094
सुपर 2093
डेविड 2092
लाइट 2091
घोड 2090
करी@@ 2087
काउंटी 2087
नील 2087
500 2085
डोर 2085
लंबाई 2085
अशोक 2084
रष 2083
नवा@@ 2082
राजनैतिक 2080
ियाई 2078
याण 2077
चम@@ 2073
तह@@ 2070
पंजाबी 2070
१४ 2070
नक@@ 2069
हूं 2069
अमेरिकन 2068
कोच 2067
शीलता 2067
ऍ@@ 2065
झ 2065
इतनी 2063
कू 2063
सलाह 2062
होम 2061
रखना 2060
ठभूमि 2059
पृथक 2059
अभाव 2058
संगठनों 2058
ठोस 2056
नड 2056
बंदी 2055
पौराणिक 2054
बनता 2054
शे 2052
I@@ 2051
कराने 2050
तिरु@@ 2050
षरता 2048
समीप 2047
मशीन 2046
विधा@@ 2046
गेट 2045
सेस 2044
संहिता 2043
सुन@@ 2042
वरों 2040
ऋण 2039
नाएं 2039
यपाल 2039
शौ@@ 2038
जब@@ 2037
पादित 2036
समानता 2036
शां@@ 2035
आविष 2034
मेदार 2034
खंड@@ 2033
चलती 2033
लगती 2033
मिथ 2030
लेखों 2030
दाता 2029
साह@@ 2028
ऊपरी 2027
बनाना 2025
महाद 2025
80 2024
रथ 2023
रोटीन 2023
सूच@@ 2023
तां@@ 2022
रोफेसर 2022
ञ@@ 2020
लाना 2018
सुबह 2015
बास 2012
वचा 2012
शाला 2011
गलत 2010
जंगल 2010
रांड 2010
हान 2010
रर 2009
रणी 2008
रेगोरी 2007
बसा 2006
वतन 2006
किताब 2005
यांकन 2005
भाग@@ 2004
बना@@ 2003
काले 2001
विवे@@ 2001
माइकल 1999
ंगल 1998
मेक 1998
कॉम 1997
बरी 1997
माया 1996
रेंच 1996
२१ 1996
जमा 1995
नेत 1995
विरासत 1995
बॉलीवुड 1994
वाचित 1994
इंच 1993
पहुंचती 1993
शनिक 1993
सकारात 1991
नये 1990
पंडित 1990
सन@@ 1990
टेज 1989
तकालय 1989
मठ 1989
राजनीतिज 1989
सुनिश 1987
यार@@ 1986
रमशः 1986
अभ@@ 1985
समाधान 1985
माउ@@ 1984
लिश 1984
षि 1984
समन 1984
सुझाव 1984
विशेष@@ 1982
शिखर 1980
नदियों 1979
पिंग 1979
वैसे 1979
जीवों 1974
नाम@@ 1973
दवा 1972
बेन 1972
लेती 1972
ौ 1971
रेम@@ 1970
मीद 1969
जवाब 1968
थी@@ 1966
बायो@@ 1966
मेला 1965
शायर 1964
टिल 1963
रोध 1963
जिंग 1962
टॉक 1962
रुपये 1962
एसोसिएशन 1960
शह@@ 1958
नेवाली 1957
शून 1957
निकाला 1956
बाल@@ 1954
तौ@@ 1953
बंग@@ 1953
कंप@@ 1952
सका 1952
टकर 1951
देखी 1951
मिया 1951
1989 1950
२४ 1947
फील 1946
ठों 1944
थलों 1944
सीन 1944
राउंड 1943
वयस 1943
रजातियों 1942
संभावित 1942
विंग 1941
45 1938
हिर 1938
करवाया 1937
बुक 1937
जीवन@@ 1936
नवी@@ 1936
रखण 1936
तिथि 1935
कैलंडर 1934
गुणों 1933
शीघ 1933
बीमा 1931
बो 1931
मंदिरों 1931
सात@@ 1931
मोह@@ 1930
अकबर 1929
केशन 1929
टेनिस 1929
नतम 1929
मना 1927
समझौते 1927
यम@@ 1925
पारी 1924
शेयर 1924
१६ 1924
थाई 1923
देखकर 1923
वाय@@ 1923
सुप 1923
1950 1922
संकट 1922
थि 1921
एप 1918
बक 1918
ऑन 1917
चाहे 1917
ईट 1916
कथित 1916
रणा@@ 1916
सियों 1916
यूरो@@ 1915
सालों 1915
पुट 1914
वरिष 1914
कुल@@ 1912
गुना 1912
विलय 1911
70 1910
किम 1910
लह@@ 1910
१८ 1910
मगध 1909
याव@@ 1909
कुत 1907
कैम 1907
रें 1906
वाज 1906
कौन 1905
यथा 1905
चालक 1904
यहीं 1904
रेखांश 1903
वंद 1902
साइट 1902
E@@ 1900
खराब 1900
यं@@ 1900
विच 1900
लाभ@@ 1899
षु@@ 1899
an 1898
ंत@@ 1898
लोर 1898
चुम 1897
पौधे 1897
लेखकों 1897
जीते 1895
संभा@@ 1894
सिख 1894
ऑनलाइन 1893
खेलते 1893
ञानिकों 1893
मालिक 1893
संग@@ 1893
जाये 1891
रेखा@@ 1891
दोष 1890
नोट 1890
रभु 1889
हू@@ 1889
होल 1889
कहता 1888
ठाकुर 1886
२०११ 1886
आप@@ 1885
पांच@@ 1885
बदले 1885
बैठक 1885
एट 1884
टरी 1884
निरंतर 1883
मत@@ 1883
चौधरी 1882
लाहौर 1882
आंध 1881
रखे 1881
सास 1881
12@@ 1880
इड 1876
ऐल 1876
गोस 1875
संसाधन 1875
सकें 1875
कारियों 1874
महि@@ 1874
वाँ 1873
हुये 1873
बाब 1872
L@@ 1871
तरित 1869
धांतों 1869
सांसद 1869
तृ@@ 1867
दंड 1867
F@@ 1866
यहूदी 1865
टैक 1864
संदेश 1864
देन 1863
यूब 1863
जवा@@ 1859
यापारिक 1859
लगते 1858
आहार 1857
दौड 1855
शहरी 1855
इरा@@ 1854
कवर 1854
रचनात 1854
चोट 1853
राणी 1853
पारित 1851
यूनानी 1851
धारा@@ 1850
रहों 1850
लेबाज 1850
बुनियादी 1849
कलकत 1848
हेनरी 1848
दीवार 1847
छवि 1846
नियन 1845
बिस 1844
जना 1843
जिलों 1843
थना 1843
मिंग 1842
विड 1842
भू 1840
तमिलनाडु 1839
मनोविज 1839
रोगों 1839
O@@ 1838
कोष 1838
जला@@ 1838
जैक 1838
कवि@@ 1837
१४@@ 1837
दायित 1836
देखभाल 1836
१३ 1836
डबल 1835
रॉस 1835
शुरूआत 1835
अनुबंध 1833
करणों 1833
1@@ 1832
संशोधन 1832
1947 1831
नैतिक 1831
रथा 1830
देख@@ 1828
संकल 1825
J@@ 1824
यंजन 1824
भूति 1823
याज 1823
यायाधीश 1823
यादव 1822
फिक 1821
२०१४ 1821
1986 1819
नौकरी 1819
पनिक 1819
बहादुर 1819
V@@ 1818
निकाल 1818
मती 1818
तुल 1817
नने 1817
कैथोलिक 1815
बेगूसराय 1814
यांत 1814
रिकी 1810
ारी@@ 1810
औरंगाबाद 1809
णुओं 1809
समकालीन 1809
रतिद 1807
हारी 1807
पने 1806
मनोरंजन 1806
संयोजन 1806
दय 1801
नामों 1801
बृ@@ 1800
राइट 1799
भाष 1798
सेवन 1798
भव@@ 1797
राफी 1797
ऑफिस 1796
कोशि@@ 1796
ारो@@ 1796
गीतों 1795
रॉबर 1795
1988 1794
अष 1794
किसान 1794
इंद 1793
वेग 1793
यंग 1791
सुधार@@ 1790
तक@@ 1789
आपके 1788
रबंध 1787
१२@@ 1787
K@@ 1786
राई 1785
गॉ@@ 1784
मांस 1784
देर 1783
ंश 1782
रयासों 1782
कहा@@ 1781
योजन 1781
धरती 1780
हजारों 1780
छूटती 1779
नेहरू 1778
अफगानिस 1777
शासकों 1775
सिंगापुर 1775
1984 1774
नेल 1774
बागेश 1774
रयत 1774
कुश 1773
याकरण 1772
बोस 1769
अपनाया 1768
१९ 1768
90 1765
ठि@@ 1764
विचार@@ 1764
बोध 1763
अदालत 1762
हिट 1761
पाण 1760
पीटर 1760
गुर 1759
यय 1759
शाली 1758
पेश@@ 1756
ंडों 1755
दूर@@ 1755
निदान 1754
मानव@@ 1754
रताप 1754
एंटी@@ 1753
कॉटलैंड 1752
दारों 1752
राजपूत 1751
तकें 1750
लव 1750
शाम 1750
बू 1749
चेस 1748
पुणे 1748
ौली 1748
बालक 1747
मीन 1746
षाओं 1746
जैव 1743
निया@@ 1743
हल@@ 1743
खै@@ 1742
दश@@ 1742
निको@@ 1742
पैरा@@ 1740
वेबसाइट 1740
षणिक 1740
कीमत 1739
राजकुमार 1739
भौतिकी 1738
कैप 1737
मैन@@ 1737
टाई 1734
निन 1734
टीन 1733
दिष 1733
रवाई 1733
13@@ 1732
हिमाचल 1732
ंती 1731
नवीन 1731
नियां 1729
पादक 1729
विविधता 1728
मुर 1727
मौजूदा 1727
पदों 1726
* 1725
तरीय 1725
भद 1725
भरी 1724
सिम 1723
ेक 1723
अवश 1722
मकालीन 1722
कमाई 1721
तनाव 1721
यरत 1721
वापसी 1720
D 1719
फेस 1719
बचाने 1719
लोन 1719
नंद 1718
रुव 1718
वैकल 1717
गिल 1716
रोगियों 1716
असफल 1715
१७ 1715
S 1714
रामायण 1714
पहुंचा 1713
पैर 1713
आरो@@ 1712
उद@@ 1712
निवे@@ 1712
जनजाति 1711
चमोली 1709
नास 1709
निवासियों 1709
रतिमा 1709
विध@@ 1709
वेट 1709
सेवाएं 1709
1985 1707
आकाश 1706
पुन@@ 1706
आवृत 1705
भास 1705
हुसैन 1705
चाल 1703
रहे@@ 1703
सामूहिक 1702
डिवीजन 1701
रभावशाली 1701
रामा@@ 1701
सॉ@@ 1701
पाठ@@ 1700
योजित 1700
आजकल 1699
अनुकूल 1698
कठोर 1698
बनाती 1698
135 1697
जहा@@ 1697
32 1696
काई 1696
पसंख 1696
सुविधाओं 1696
इसको 1695
पेरिस 1695
बिता@@ 1695
जैविक 1694
पस 1693
लिं@@ 1693
औष@@ 1691
गोली 1691
रहना 1691
समी@@ 1691
br 1690
अनुरूप 1690
जुर 1690
तकर 1690
लिप 1688
हज@@ 1688
• 1687
करनी 1686
जाम 1686
अनुक 1684
वादियों 1683
वुड 1683
पतन 1681
बंदरगाह 1681
बारा 1681
सजा 1681
तराधिकारी 1680
M 1679
संघीय 1678
ाइन 1677
कोस 1676
गृ@@ 1675
तरल 1675
रैंक 1675
नकर 1673
खिताब 1672
तरों 1672
मानु@@ 1672
पौडी 1671
रमित 1671
विपणन 1671
T 1670
खाते 1670
दरबार 1669
केल 1668
बेहद 1667
फाय@@ 1666
1987 1665
चतम 1665
घटक 1664
बताते 1664
मि 1664
वास@@ 1664
AM 1663
मूल@@ 1662
रबन 1662
संभवतः 1662
हमारी 1661
आग@@ 1660
खोला 1660
डस 1660
ॉ 1660
फाई 1659
वें@@ 1659
ंचा@@ 1658
मछली 1657
याया@@ 1657
वि 1657
1962 1656
देखे 1656
षय 1656
1971 1655
तप 1654
उपजिला 1653
काएँ 1653
मौलिक 1653
वजन 1653
आवास 1652
आंशिक 1651
शुरु 1651
ओवर 1650
पॉल 1649
तथापि 1648
बरा 1648
रीज 1648
B 1647
रने 1646
वच 1646
14@@ 1645
मंगल 1645
मुम 1645
रीति 1645
वाहि@@ 1645
बचा@@ 1644
संसदीय 1644
बचाव 1643
मेरा 1643
टिया 1642
दशा 1642
दरवा@@ 1640
लाओं 1639
समझौता 1639
ोल 1639
राहक 1637
शासनकाल 1637
बिलियन 1636
मेडिकल 1636
सहा@@ 1636
सीमा@@ 1636
२२ 1636
तुल@@ 1634
वट 1634
पहुंच@@ 1633
मजबूर 1632
लोगो 1632
शतक 1632
दिग 1631
पुरम 1630
1972 1627
on 1627
कमा@@ 1626
1967 1625
यथार 1625
जेन 1623
धु 1623
सांख 1623
२०१० 1623
नरी 1622
मारा 1622
i 1621
टाचार 1621
आगमन 1620
बातचीत 1620
राजनेता 1620
आपने 1619
मोन 1619
रहीं 1619
n 1618
नयी 1618
बांध 1618
हेल 1618
अधिग 1617
तुकला 1617
रियासत 1617
सेज 1617
डिक 1616
बाइ@@ 1616
मारने 1616
मेह@@ 1616
सें 1616
चलाने 1615
दपुर 1615
वाना 1615
कथाओं 1614
टार@@ 1613
मुताबिक 1613
सोने 1613
जानते 1612
कहानियों 1611
गार@@ 1611
डीज 1611
पिन 1611
भीड 1611
विचारधारा 1611
अनि@@ 1610
मपुर 1610
लिप@@ 1610
बिल@@ 1609
जानवरों 1608
नाय@@ 1608
यटक 1608
रजनन 1608
लैटिन 1608
रयोगों 1607
पंचा@@ 1606
मनोवैज 1605
1952 1604
उठ@@ 1604
रिं@@ 1603
बंध 1602
१३@@ 1602
लॉस 1601
हौ@@ 1601
धारणा 1600
महीनों 1597
माध@@ 1597
देशी 1596
बदला 1596
ऊष 1595
घायल 1595
योगों 1595
गाया 1594
ंगु@@ 1591
कागज 1591
चौथे 1591
b@@ 1590
ओपन 1590
मूत 1590
आध@@ 1589
सहयोगी 1588
ुदा 1588
जू 1587
रोजगार 1587
al 1586
राण 1584
गिनी 1583
मौखिक 1583
हानि 1583
लंबा 1582
विशेषकर 1582
२००९ 1582
मिनल 1580
जिन@@ 1579
नेश 1579
पटकथा 1578
रारूप 1577
बौ@@ 1575
रामक 1575
अमरीकी 1574
फारसी 1574
शेर 1574
उदाह@@ 1572
संपादक 1572
तिम 1571
रतिबंध 1571
लोड 1571
कलन 1568
रतिभा 1568
रेंस 1568
लव@@ 1568
अदिलाबादु 1567
हनुमान 1566
# 1564
घि@@ 1563
मलयालम 1563
विजय@@ 1563
or 1562
आपस 1562
दुओं 1561
णिक 1560
वेयर 1560
रावण 1559
नागरिकों 1558
संयंत 1557
1.@@ 1556
कमल 1555
शनों 1555
लाइव 1554
बदलने 1553
बचने 1552
रब 1552
टेली@@ 1551
रयाग 1551
गठबंधन 1549
टाउन 1549
बरा@@ 1549
अंत@@ 1548
इतने 1548
डिय@@ 1548
सरदार 1548
बान 1547
रशांत 1547
उदय 1546
भरा 1546
राहकों 1546
साई 1546
कवियों 1545
कुशल 1545
ताएँ 1545
समेत 1545
हट 1545
चेतना 1544
टोरिया 1543
मणि 1543
रमिक 1542
पेशकश 1541
L 1537
तरीकों 1537
रपात 1537
विट 1537
वेद@@ 1537
कारा@@ 1536
चावल 1536
पुरा@@ 1536
महादेव 1535
रिचर 1535
कव@@ 1533
गोवा 1533
महर 1532
300 1531
उपनाम 1531
तनों 1531
सुविधा@@ 1531
एण 1530
भागीदारी 1530
दिव 1529
हिम 1529
काएं 1528
मशी@@ 1528
मुसलमान 1528
सुपर@@ 1528
णता 1527
पिल 1527
किसानों 1526
यां 1526
धाम 1525
ईंधन 1524
एकीकृत 1524
अंचल 1522
अवतार 1522
वय 1522
जोकि 1521
ढाका 1521
नेवाला 1521
इनकार 1520
शम 1519
घड 1518
तावित 1518
वेज 1518
कोप 1517
नाएँ 1517
एडि@@ 1516
थापन 1516
रिड 1516
हुईं 1515
0.@@ 1514
किट 1514
गेंदबाज 1514
ताज 1514
रेल@@ 1514
वंशज 1514
सारा 1514
1977 1513
1982 1513
तपुर 1513
भेज 1513
टें 1512
गहराई 1511
फसल 1511
मशहूर 1511
मता 1509
ंगे@@ 1508
पहुंचने 1508
दूसरों 1507
मलेशिया 1507
रयो@@ 1507
लेख@@ 1507
वयं@@ 1507
ियाना 1507
इतिहासकार 1506
इलाके 1506
टेन@@ 1506
पशुओं 1506
मानवीय 1506
अमीर 1505
ञान@@ 1505
आखिरी 1504
ऑल 1504
शोषण 1504
घनत 1503
बलों 1503
उपाध 1502
संपन 1502
ील 1501
ओड 1500
परंपरागत 1500
नू 1498
बेथ 1498
विपक 1498
नमक 1497
रें@@ 1497
बीस 1496
आउट@@ 1495
ईं 1495
सुल@@ 1495
ॆ@@ 1495
नति 1494
अपना@@ 1493
जाय 1493
रजाति 1493
रोतों 1493
ंगर 1492
गज 1492
पाता 1492
संगम 1492
सेवानिवृत 1492
जलि 1491
मैंने 1491
गठित 1490
लेज 1490
शासित 1490
उपर 1489
भाषण 1489
रणालियों 1488
दुष 1487
वालीफायर 1487
00@@ 1486
नेपाली 1486
वाराणसी 1486
गीकृत 1485
जाएगी 1485
जोधपुर 1485
जोन 1485
ठान 1485
जं@@ 1484
धे@@ 1484
यवाद 1484
लाल@@ 1484
साझा 1483
ऐ 1482
यावहारिक 1481
वीपों 1481
नाओं 1479
रीस 1479
सोम@@ 1478
खुले 1477
पराजित 1477
पाते 1477
रोन 1477
कडप 1476
दाब 1476
सूरज 1476
काला 1475
चौथी 1475
जंगली 1475
यक@@ 1475
उसको 1474
चाहिये 1474
जितना 1474
परिवारों 1474
गीता 1473
यटकों 1473
विकार 1473
जनपद 1470
महाकाव 1469
आशा 1468
गतिविधि 1468
रेड@@ 1468
बाज@@ 1467
गरीब 1466
टॉप 1465
बिग 1463
खें 1462
णात 1462
तुति 1462
बारह 1462
तरीका 1461
बताता 1461
परत 1460
सवाल 1460
झा 1458
संगत 1458
रवि@@ 1457
रेख 1457
परामर 1456
y 1455
आदिवासी 1455
कमजोर 1455
संघ@@ 1454
अगली 1453
पाली 1453
दाद 1452
बाढ 1452
डम 1451
गदर 1450
भारती 1450
वचन 1450
विं@@ 1450
दण 1449
विमानक 1449
अखिल 1448
लेयर 1448
साय@@ 1447
णक 1446
दवाओं 1446
२३ 1446
निज 1445
साँ@@ 1445
1975 1444
पिस 1443
जिल 1442
बैंग@@ 1442
पणी 1441
मेजबानी 1441
नामकरण 1440
यौ@@ 1440
समीकरण 1440
हाथी 1440
.. 1439
c 1439
m 1439
अमर 1439
उस@@ 1439
फोट 1439
खी@@ 1438
गाँ@@ 1438
चैंपियनशिप 1437
वॉल 1437
33 1436
गणेश 1436
दाय@@ 1436
एजेंसी 1435
यमिक 1435
राइल 1435
खींच@@ 1434
बहती 1434
यवसा@@ 1434
बेटा 1433
००० 1433
चलाया 1431
सिंह@@ 1431
पहचा@@ 1430
पहुँच@@ 1430
आरंभिक 1429
धम@@ 1429
बिट 1429
मरा@@ 1429
सहज 1429
आसान 1428
सृष 1428
तनी 1427
रियो 1427
डियन 1424
रमुख@@ 1424
संगीतकार 1424
लेश 1423
यापारी 1422
विंडोज 1422
1973 1420
चुनौती 1420
रखती 1420
1979 1419
भावनाओं 1419
हं@@ 1419
अनू@@ 1418
राओं 1418
E 1417
अंतर@@ 1416
इला@@ 1416
इसीलिए 1416
उपाय 1416
झारखंड 1416
लियम 1416
हाइट 1416
खतरा 1415
नीतियों 1415
मने 1415
लुक 1415
कठ@@ 1414
कारा 1414
नाडु 1414
यताओं 1414
आलोचकों 1413
खर@@ 1413
शांत 1413
कहने 1412
बाजी 1412
हटा@@ 1412
1948 1411
डाक 1411
पब 1411
मगर 1411
अनुरोध 1410
टाइप 1410
डू 1410
वायत 1410
s@@ 1409
कुम 1409
पाय@@ 1409
याल 1409
ीकरण 1409
२६ 1409
36 1407
कैलिफोर 1407
हक 1407
आना 1406
ञों 1406
शीतकालीन 1406
साव@@ 1406
कोटा 1405
गिरजाघर 1405
पैसे 1405
समग 1405
कुण 1404
मुंगेर 1404
राणा 1404
सरे 1404
ऋतु 1403
तापूर 1403
सूचीबद 1403
२००८ 1403
सदन 1402
२७ 1402
लिंक 1401
सिको 1401
४० 1401
दगी 1400
यूनतम 1400
लिखते 1399
रतिरोध 1398
वादक 1397
खरीद 1396
पला@@ 1395
किशोर 1394
कूलों 1394
घिरा 1394
छः 1394
जाए@@ 1394
काट 1393
किं@@ 1392
जमी@@ 1392
1930 1391
अयोध 1391
करो 1391
गिरावट 1391
चलकर 1391
चिंता 1391
धे 1391
as 1390
किता@@ 1390
बोलने 1390
मानता 1390
समुदायों 1390
1983 1389
रफ 1389
वाहक 1389
1956 1388
फार@@ 1388
भोज@@ 1388
मैग 1388
सुख 1388
घा 1387
दुश 1387
अवशेष 1385
चाँ@@ 1384
टूट 1384
संदेह 1384
ंडे 1383
लियाँ 1383
हथियार 1383
जियम 1381
तपस 1381
तोष 1381
नजर 1380
पिथोरागढ 1380
अका@@ 1378
आनन 1378
बती 1378
आईटी 1377
इराक 1377
इसलिये 1377
रूद 1377
भेड 1376
नकारात 1375
पाती 1375
बिं@@ 1375
लगने 1375
75 1373
अग@@ 1373
सुंद@@ 1373
मेदारी 1372
संपादित 1372
समि@@ 1372
सोसाइटी 1372
1957 1371
कटि@@ 1371
भाँति 1371
लां@@ 1370
२८ 1370
पहुंचा@@ 1369
for 1368
याँ 1368
सहमति 1368
उक 1367
वालियर 1367
शेख 1367
षांश 1367
वाभाविक 1366
आमंत 1365
ऑपरेशन 1365
गंगा@@ 1365
चरणों 1365
हारे 1365
१९०@@ 1365
मरण 1364
योतिष 1364
ऊंच@@ 1363
शाब 1363
कांक 1362
जौ@@ 1362
यूनियन 1362
15@@ 1360
रेटर 1360
विकिरण 1360
सहमत 1360
कमरे 1359
बसे 1359
मासिक 1359
वाह@@ 1359
निकाय 1358
यकताओं 1358
यूरो 1358
वैद 1357
रूढ 1355
विर 1355
संगठित 1355
असामान 1354
मुल 1354
योद 1354
सलाहकार 1354
२०१३ 1354
गाना 1352
बटा@@ 1352
ऊँचा 1351
संतुलन 1351
एकता 1350
गाय@@ 1349
कारकों 1348
संसाधनों 1348
सीता 1347
ताई 1346
डच 1345
नौसेना 1345
बीन 1345
मोत 1345
विज@@ 1345
दुस 1344
मुग 1344
रदेशों 1344
आधे 1343
गुफा 1343
निकालने 1343
खनिज 1342
मीदवार 1342
2.@@ 1341
गुजराती 1341
विया 1341
कुन 1340
षति 1340
आजादी 1338
खन 1338
रथ@@ 1338
रामपुर 1338
२००६ 1338
भोपाल 1337
रयोगशाला 1337
रिकाओं 1337
एडवर 1336
वैष 1336
एव@@ 1333
नूर 1333
पुरु@@ 1333
मुनि 1333
ृ 1333
आरक 1331
जीवी 1331
साहब 1331
विफल 1330
कु 1329
तैयारी 1329
55 1328
R 1328
F 1327
वाष 1327
वीकृति 1327
संवाद 1327
अमीरात 1326
पो 1326
1978 1325
मथुरा 1325
वासियों 1325
उल@@ 1324
दोनो 1324
नवाब 1324
निगरानी 1324
फौ@@ 1324
रनाथ 1324
सेवा@@ 1323
1965 1322
निकलने 1321
गाँधी 1320
टीट 1320
बजट 1320
बुलाया 1320
माताओं 1320
रंगों 1320
शियम 1320
संशोधित 1320
e@@ 1319
तना 1319
पशु@@ 1319
1981 1318
लट 1318
d@@ 1317
आठ@@ 1317
टोक 1317
विशे@@ 1317
धूम 1316
पियन 1316
कही 1315
टिकट 1315
मोक 1315
रहा@@ 1315
लियो@@ 1315
शुष 1315
जातियाँ 1314
नंद@@ 1314
निरीक 1314
फिया 1314
वासी 1314
सवीं 1314
सुना@@ 1314
अरु@@ 1313
जाल 1313
पायी 1313
N 1312
P 1312
कानपुर 1312
मौका 1312
शरण 1312
संवत 1312
कोरियाई 1311
छोर 1311
जाँच 1311
भय 1311
राची@@ 1311
सभा@@ 1311
1976 1310
सिविल 1310
हमने 1310
चाप 1309
नामांकन 1309
रेमी 1309
ation 1308
नीदरलैंड 1308
शती 1307
amp 1306
महे@@ 1306
टोर 1305
दरा 1304
मेले 1304
मोदी 1304
लॉर 1304
केश@@ 1303
जेक 1303
सबूत 1303
अनुकू@@ 1302
रचनाएँ 1302
डाटा 1301
ञानी 1300
यां@@ 1300
लंघन 1299
अनुमानित 1298
टइंडीज 1297
गहरा 1296
मेगा@@ 1296
२००७ 1296
अपरा@@ 1295
पुरातत 1295
तांत 1294
शानदार 1294
नती 1293
रीकरण 1293
ing 1292
पाये 1292
पोल 1292
बहुमत 1292
मिनी 1292
राणियों 1291
लाइसेंस 1291
काला@@ 1290
रियर 1290
रिल 1290
संकलन 1290
आकृति 1289
पटेल 1289
महामारी 1289
यून 1289
1969 1288
1974 1288
फैल 1288
भुत 1288
राधा 1288
साग@@ 1288
रकारों 1287
लाव 1286
वाओं 1286
हिंदुस 1286
ँग 1285
नगरों 1285
शाया 1285
तावेज 1284
निशा@@ 1284
मिति 1284
वंशी 1284
अनुसरण 1283
दशकों 1283
मानचित 1283
सौंदर 1283
काने 1282
भूमिकाओं 1282
कृतियाँ 1281
कैं@@ 1281
टीका 1281
तेलुगु 1281
माप 1281
कॉमिक 1280
झी@@ 1280
बाड 1280
रॉय 1280
अनुष 1279
जिनसे 1279
पाक 1279
लेट@@ 1279
II 1278
बली 1278
गायन 1277
भारत@@ 1277
मादा 1277
अकेले 1276
कें 1276
ारसी 1274
पावत 1273
पॉलि@@ 1273
पोरेशन 1273
एलबम 1272
गोर 1272
तंभ 1272
भुज 1270
वकील 1270
विशा@@ 1270
नगरीय 1269
बनते 1268
विनो@@ 1268
होनी 1268
.com 1267
एथली@@ 1267
नोबेल 1267
शाता 1267
37 1266
गरम 1266
गहरी 1266
निपट@@ 1266
मापन 1266
निचले 1265
बख 1265
सदा 1264
सीखने 1264
उठाया 1263
१.@@ 1263
यमुना 1262
यापन 1262
रियम 1262
लीप 1262
समझी 1262
सहारा 1262
U@@ 1261
मैदा@@ 1261
निकटतम 1259
शिला@@ 1259
बाला 1258
मोटे 1258
शिशु 1258
400 1257
अवय@@ 1257
डीन 1257
पठार 1257
शिप 1257
गीय 1256
गोपाल 1256
डियो 1256
नाथ@@ 1256
वभाव 1256
आखि@@ 1255
भंग 1255
विधियों 1255
खिला@@ 1254
यड 1254
ळ@@ 1254
ar 1253
नरेश 1253
जाय@@ 1251
डिप 1251
निकलती 1251
बातों 1251
विशेषताओं 1251
साहिब 1251
सिंहासन 1251
रही@@ 1250
सियस 1250
रामा 1249
रायद 1249
ईरानी 1248
उग 1248
एकड 1248
रूम 1248
टिकल 1247
पहल 1247
लिटी 1247
38 1246
केस 1246
रोह@@ 1245
अचानक 1244
अनन 1244
टी20आई 1244
कना@@ 1243
खेत 1243
मुखी 1243
रणीय 1243
रमश 1243
कॉमेडी 1242
रती@@ 1242
रांतिकारी 1242
हेक 1241
गौतम 1239
मिले@@ 1239
वाई@@ 1239
अथ@@ 1238
अभयारण 1238
इतालवी 1237
डक 1237
विनिर 1237
ंगो 1236
माई 1236
पल@@ 1234
रणार 1234
हंडिया 1234
भाजपा 1233
भूमि@@ 1233
रियाई 1233
वैत 1233
असमर 1232
संवैधानिक 1232
सूचित 1232
सैद 1232
सोर 1232
चाई 1231
दं@@ 1231
नाटकों 1231
बहु 1231
भूमध 1231
सीता@@ 1231
हिष 1231
दलों 1230
निरू@@ 1230
गाय 1229
रभावों 1229
किरा@@ 1228
मरी 1228
रेश 1228
साधना 1228
गोल@@ 1227
दावली 1226
पुण 1226
जिया 1225
भों 1225
मौर 1224
रमंडल 1224
सेवक 1224
घन 1223
डु 1223
सिय@@ 1223
अलं@@ 1222
कांस 1222
गोत 1222
मतदान 1222
रघु@@ 1222
सख 1222
२०१६ 1222
वयन 1221
अंकित 1220
नुक 1220
बचा 1220
रतिरक 1220
65 1219
धड 1219
रेंज 1219
वीन 1219
सोच 1219
६० 1219
इकट 1218
इज@@ 1218
युगल 1218
रशं@@ 1218
रीकृष 1218
हॉकी 1218
२०१२ 1218
काण 1217
कैल 1217
पारिवारिक 1216
सापेक 1216
दायक 1215
देशा@@ 1215
बनती 1215
रबंधक 1215
उपमहाद 1214
जायेगा 1214
तरार 1213
नहर 1213
वध 1213
शेखर 1213
सटीक 1213
कंट 1212
नागपुर 1212
निधि 1212
मातृ@@ 1212
रकारिता 1212
हाँ 1212
डि 1211
भौ@@ 1211
याति 1211
रुप@@ 1211
लगाए 1211
ोत 1211
करवा@@ 1210
तिज 1210
रेणियों 1210
वल@@ 1210
चरम 1209
मेज 1209
वंश@@ 1209
टाटा 1208
फाउंडेशन 1207
असली 1206
करे@@ 1206
खाली 1206
गीर 1206
लाज 1206
X 1205
अनुभ@@ 1205
कमे@@ 1205
पहुंचे 1205
शूटिंग 1205
खुला 1204
महारानी 1204
संगीत@@ 1204
हराकर 1204
सीमाओं 1203
खून 1201
नींव 1201
तख 1200
जानने 1199
भंड@@ 1199
रुस 1199
रोसे@@ 1199
२००० 1199
असर 1198
पहुँचा@@ 1198
रवासी 1198
लॉग 1197
समाजवादी 1197
अवैध 1196
बेल@@ 1196
सैयद 1196
अंडर 1195
टेबल 1195
तालाब 1195
बहस 1195
तल@@ 1194
राण@@ 1194
34 1193
निरपेक 1192
मैरी 1192
विकिपीडिया 1192
हैरी 1192
1,@@ 1191
रोधी 1189
टान 1188
बच@@ 1188
बुरी 1188
महिलाएं 1188
वाद@@ 1188
सफलतापूर 1188
सहस 1188
l 1187
गयीं 1187
उठा 1186
उतर@@ 1186
चौथा 1186
चौहान 1186
1000 1185
1920 1185
48 1185
जरूरी 1185
थॉमस 1185
मूलतः 1185
बोलते 1184
आकाश@@ 1183
चारिक 1183
रिकार 1183
दादा 1182
नेक 1182
फास 1182
मिन@@ 1182
यवादी 1182
यिका 1182
कुश@@ 1181
वारों 1181
२०१५ 1181
लाक 1180
ीक 1180
बेडकर 1179
रांसिस 1179
पूंजी 1178
बनवाया 1178
1968 1177
खतरे 1177
बाध 1177
बाबू 1177
परिणामों 1176
https 1175
ृत 1175
अनुच 1174
उदा@@ 1174
खाता 1174
रतिवर 1174
1964 1173
उपनिवे@@ 1173
रखकर 1173
रबल 1173
हिसाब 1173
थै@@ 1172
साध@@ 1172
कुमारी 1171
टें@@ 1171
दरी 1171
ओल 1170
किन@@ 1170
देगा 1170
पेज 1170
रोडक 1170
लोहे 1170
छो@@ 1169
तिस 1169
पूछ@@ 1169
चेहरे 1168
माँ@@ 1168
सीसी 1168
चिड 1167
वत@@ 1167
सकीय 1167
1966 1166
बातें 1166
मैसूर 1166
सवार 1166
िम 1166
रधा@@ 1165
रन@@ 1165
रेत 1165
रोहित 1165
िस 1165
तगा@@ 1164
भाषी 1164
इर 1162
बाला@@ 1162
रतिदिन 1162
रुत 1162
टाइन 1161
मेमो@@ 1161
रमाणित 1161
शनी 1161
de 1160
घास 1160
भरे 1160
मुखर 1160
रणनीति 1160
खाल 1159
परियोजनाओं 1159
पूं@@ 1159
फिलिप 1159
इनर 1158
काठ@@ 1158
नीज 1158
बाधा 1158
रोसॉफ 1158
सू 1158
अनुप@@ 1157
तलाश 1157
by 1156
नियर 1156
मांस@@ 1156
दूत 1154
रगुप 1154
गौरव 1153
झो@@ 1153
निकाल@@ 1153
y@@ 1152
छू@@ 1152
पालिका 1152
ोसी 1152
0,000 1151
गिरी 1151
ंटी 1150
कुंड 1150
रजत 1150
लाखों 1150
विल@@ 1150
संपादन 1150
52 1149
तटीय 1149
शाखा@@ 1149
सुख@@ 1148
परो@@ 1147
रजा 1147
कालेज 1146
कुट 1146
टेलि@@ 1146
दूरदर 1146
ऐक 1145
चलन 1145
दबा@@ 1145
सेप 1145
जानवर 1144
मानों 1144
रनों 1144
रिटी 1144
लाइफ 1144
लीला 1144
007@@ 1143
घूर 1143
रतिभा@@ 1143
वेदी 1143
सूरा 1143
मुकाबले 1142
गानों 1141
लाय@@ 1141
हारों 1141
बदलकर 1140
रवादी 1140
लेंस 1140
लैंगिक 1140
विभक 1140
अधिका@@ 1139
आवासीय 1139
ऋग 1139
गणितीय 1139
टाइल 1139
पीछा 1139
यमकेश 1139
रोही 1139
चि 1138
याप@@ 1138
सिंचाई 1138
ंडि@@ 1137
जीती 1137
मग@@ 1137
कात 1136
छन 1136
हितों 1136
होली 1135
ाव 1135
दिशा@@ 1134
कूट 1133
h 1132
खूबसूरत 1132
छिद 1132
टेम 1132
p 1131
ंची 1131
कायम 1131
कैन 1131
जरू@@ 1131
संतान 1131
H 1130
16@@ 1129
कानों 1129
रना 1129
शियन 1129
64 1128
करों 1128
पूल 1128
युनिस 1128
राधिकरण 1128
शुभ 1128
२९ 1128
एव 1127
लेबाजी 1127
गिरि 1126
ठे@@ 1126
तिपूर 1125
नातकोत 1125
वीकृत 1125
समक 1125
सशस 1125
हू 1125
मले@@ 1124
अबू 1123
जाट 1123
रमे@@ 1123
रूज 1123
शिला 1123
हफ 1123
अण 1122
पीने 1122
षी@@ 1122
षेक 1122
हिमा@@ 1122
थम 1121
मिला@@ 1120
युनि@@ 1120
वयुद 1120
वारी 1120
सीबी@@ 1120
एज 1119
कथन 1119
तारीख 1119
रिसर 1119
अनुसूचित 1118
फैशन 1118
मणि@@ 1118
शेल 1118
p@@ 1117
अके@@ 1117
तीस 1117
रहमान 1117
n@@ 1116
डिजा@@ 1116
ताइ@@ 1116
मसा@@ 1116
लयों 1116
सिने@@ 1116
इंदिरा 1115
डाउन 1115
मामला 1115
रदूषण 1115
लॉजी 1115
सफ@@ 1114
साउ@@ 1114
g@@ 1113
अंगों 1113
दाम 1113
आधार@@ 1112
मराठा 1112
सैकड 1112
हसन 1112
तालिका 1111
राजकीय 1111
रीमती 1111
19वीं 1110
जेट 1110
रिपब 1110
विहार 1110
मतों 1108
योति@@ 1108
विधि@@ 1108
सोनी 1108
42 1107
अखबार 1107
१०० 1107
लिट 1106
लेखा@@ 1106
वाट 1106
ऑटो@@ 1105
आपकी 1104
नाई 1104
पारिस 1104
विभागों 1104
वेशन 1104
सोल 1104
आया@@ 1103
इंजीनियर 1103
एयरलाइन 1103
वराज 1103
शोधकर 1103
साधारण@@ 1103
सिया@@ 1103
मुफ 1102
रेटिंग 1102
षेपण 1102
ंदी 1101
चाय 1101
दीवारों 1101
नु 1101
इक@@ 1100
डित 1100
ंदगी 1099
चाहती 1099
किशो@@ 1098
लीस 1098
विध 1098
योगि@@ 1096
G 1095
बकीय 1095
रते 1095
राहुल 1095
रैंड 1095
वहन 1095
एर 1094
वागत 1094
ेश 1094
दांत 1093
यापी 1093
रोजेक 1093
साद 1093
जिब 1092
थिएटर 1092
पहुँचने 1092
बादशाह 1092
भूतपूर 1092
िये 1092
इनसे 1091
1940 1090
अहमदाबाद 1090
गहरे 1090
जमा@@ 1090
नबर 1090
08 1089
b 1089
काउंसिल 1089
जीर 1089
टीना 1089
पूँ@@ 1089
लें@@ 1089
चुंबकीय 1088
फन 1088
मैट 1088
बयान 1087
विरो@@ 1087
अकाल 1086
गंगो@@ 1086
घटित 1086
मेवाड 1086
सरकारों 1086
हिप 1086
O 1085
उदयपुर 1085
णकटिबंधीय 1085
भले 1084
मछ@@ 1084
सामं@@ 1084
ईसा@@ 1083
टी20ई 1083
फोटोग 1083
संहार 1083
30@@ 1082
टील 1082
ओस 1081
पुर@@ 1081
बुन 1081
सरी 1081
मानस 1080
लेफ 1080
वाकर 1080
िन 1080
खनन 1079
देह 1079
रचलन 1079
शिवाजी 1079
रवाल 1078
कविताओं 1077
काइ@@ 1077
काउ@@ 1077
ढा 1077
बारा@@ 1077
बारिश 1077
लेम 1077
एपिसोड 1076
तिमान 1076
लोराइड 1076
सोलहवीं 1075
एकदिवसीय 1074
कहलाते 1074
नली 1073
संवेद@@ 1073
समाज@@ 1073
1961 1072
छाया 1072
धारक 1072
ई० 1071
एसिड 1071
फूलपुर 1071
राह@@ 1071
वीय 1071
h@@ 1070
चैंपियन 1068
णव 1067
फैक 1067
यायिक 1067
सीधा 1067
N.Z.A. 1066
ंचल 1066
लिफ 1066
अतीत 1065
कटिक 1065
मॉर 1065
राने 1065
शियाई 1065
that 1064
जंगलों 1064
थिरता 1064
नती@@ 1064
रेगिस 1064
वाहनों 1064
तरा 1063
पेय 1063
बीसी 1063
मेजर 1063
हटाने 1063
१,@@ 1063
1963 1062
बॉम 1062
ंडो 1061
कहलाती 1061
केप 1061
मिया@@ 1061
खरी 1060
परिचित 1060
फेयर 1060
कथानक 1059
कनेक 1059
भूकंप 1059
रायल 1059
विभा@@ 1059
२००१ 1059
८० 1059
उतना 1058
औरंग@@ 1058
गुरुत 1058
राइव 1058
शाखाओं 1058
पॉप 1057
सुविधाएं 1057
ेद 1057
अणु 1056
औषधि 1056
औसतन 1056
कुरान 1056
पतियों 1056
पहुँचा 1056
पाश 1056
फल@@ 1056
योगी 1056
रैंकिंग 1056
भोग 1055
सेनाओं 1055
ंट@@ 1054
जीवि@@ 1054
दां@@ 1054
पनों 1054
लीफ 1054
टवर 1053
वनी 1053
साहन 1053
अव 1052
कीं 1052
गली 1051
जूनियर 1051
तरराष 1051
निकला 1051
विनाश 1051
06 1050
रवाद 1050
लेशन 1050
षु 1050
शु 1049
अनुयायी 1048
कॉल 1048
दल@@ 1048
दोषी 1048
बुर 1048
वसा 1048
सिलि@@ 1048
अमे@@ 1047
कलात 1047
मॉड@@ 1047
साउथ 1047
रतिनि@@ 1046
वितरित 1046
असम@@ 1045
आस@@ 1045
काँ@@ 1045
परिकल 1045
योहार 1045
at 1044
t 1044
अपरि@@ 1044
गले 1044
जाये@@ 1044
पंद 1044
150 1043
j@@ 1043
गेंदबाजी 1043
मीरी 1043
मैने@@ 1043
लियो 1043
सदा@@ 1043
हवीं 1043
अनेकों 1042
जागरू@@ 1042
बिहारी 1042
मानने 1042
राजा@@ 1042
लौटने 1042
वोट 1042
44 1041
आईपी@@ 1041
खोल 1041
चस 1041
टेलीविज 1041
महावीर 1041
मानकों 1041
आधा 1040
इकाइयों 1040
कालि@@ 1040
णि 1040
वसन 1040
तकनीकों 1039
तिया 1039
मालि@@ 1039
वासन 1039
टाने 1038
देहरादून 1038
भोज 1038
मुलाकात 1038
पैदल 1037
वेतन 1037
दीकी 1036
मांड@@ 1036
इंडोनेशिया 1035
गीत@@ 1035
पठ@@ 1035
हि 1035
इलाक 1034
कणों 1034
किर@@ 1034
गोवि@@ 1034
निशान 1034
पुराणों 1034
बॉल 1034
टिका 1033
तिर@@ 1033
नमू@@ 1033
लखीसराय 1033
लाए 1033
3.@@ 1032
पोरेट 1032
रिको@@ 1032
1955 1031
k@@ 1031
पाठक 1031
रेडिट 1031
वरण 1031
शहीद 1031
टेंट 1030
तिका 1030
षरों 1030
सेना@@ 1030
95 1029
am 1029
अपील 1029
फेफड 1029
जागरण 1028
रूर 1028
१८९@@ 1028
अवसरों 1027
ताम 1027
आरा@@ 1026
घातक 1026
दाहि@@ 1026
वीपसमूह 1026
शनल 1026
डेक 1025
नाना 1025
रभु@@ 1025
शॉ@@ 1025
सिग 1025
सीरिया 1025
आधु@@ 1024
रांतीय 1024
राउ@@ 1024
शिलालेख 1024
ोस 1024
कोटि 1022
ङ@@ 1022
पायर 1022
होनें 1022
ेगा 1021
V 1020
डालने 1020
तरिक 1020
नगरी 1020
विषा@@ 1020
असाधारण 1019
परे 1019
रवास 1019
पारस 1018
भाइयों 1018
भारतीयों 1018
आईएस@@ 1017
जगहों 1017
यवर 1017
राजील 1017
संलग 1017
इंदौर 1016
डाई 1016
रावधान 1016
लौकिक 1016
वेदों 1016
खबर 1015
पण@@ 1015
रया@@ 1015
अनुयाई 1014
रोग@@ 1014
गोविन 1013
पाउंड 1013
फें@@ 1013
रूपांतरण 1013
ास 1013
1949 1012
51 1012
किक 1012
चय@@ 1012
विवेचन 1012
18@@ 1011
an@@ 1011
गुल@@ 1011
बहुसंख 1011
२००५ 1011
000 1010
अमी@@ 1010
कली 1010
रीन@@ 1010
हारा 1010
हृ@@ 1010
छुट 1009
ई.पू. 1008
तेन 1008
47 1007
आल 1007
इमारतों 1007
भेजने 1007
मिसाइल 1007
लेखा 1007
रविष 1006
राना 1006
05 1005
अनाज 1005
कहती 1005
जनित 1005
मच 1005
राइड 1005
एलेक 1004
विला@@ 1004
सके@@ 1004
r@@ 1003
आम@@ 1003
किर 1003
तगाली 1003
नून 1003
महाराणा 1003
षार 1003
सकी 1003
जर@@ 1002
जोशी 1002
पावर 1002
कहे 1001
रभाव@@ 1001
राजकुमारी 1001
रिट 1001
संश 1001
अंडे 1000
टमैन 1000
देहा@@ 1000
मुहा@@ 1000
रहें 1000
वरुप 1000
सना@@ 1000
गहन 999
समापन 999
1945 998
ic 998
असल 998
ताजी 998
ीसा 998
थानी 997
तला@@ 996
मंगो@@ 996
99 995
अज@@ 995
भीम@@ 995
संतुष 995
चाह@@ 994
शार@@ 994
हमलों 994
खाया 993
फेट 993
विलुप 993
टीज 992
तराखंड 992
याएं 992
योजनाओं 992
ववर 992
पिछली 991
पिया 991
मिं@@ 991
सोडियम 991
ाना 991
07 990
अनुपस 990
गणतंत 990
नाटकीय 990
पहलुओं 990
रहेगा 990
आवेदन 989
कबी@@ 989
बराम@@ 989
याह 989
वनों 989
बसा@@ 988
लिया@@ 988
२००४ 988
en 987
थाप@@ 987
धारणा@@ 987
रहकर 987
d 986
आख 986
खुदाई 986
बैंकों 986
सेकंड 986
t@@ 985
चिल 985
पुनरा@@ 985
बेर 985
मांकन 985
मोडा 985
राजीव 985
बिज@@ 984
सपुर 984
सराय 984
एम.@@ 983
कारोबार 983
डियों 983
ताल@@ 983
बलि@@ 983
यूरे@@ 983
रतिबंधित 983
ओलि@@ 982
गांवों 982
फैले 982
मग 982
नीयता 981
यूके 981
येष 981
संक@@ 981
समाजशास 981
1954 980
रुख 980
सिंध 980
उपदेश 979
रभुत 979
विटामिन 979
विषाणु 979
शनीय 979
हमारा 979
गाई 978
नैदानिक 978
मोनो@@ 978
o@@ 977
अमृत@@ 977
डेट 977
निकलता 977
फूलों 977
फेड@@ 977
सांरगढ 977
जगन 976
पंजीकृत 976
पोप 976
षिणपूर 976
ाइल 976
एनिमे@@ 975
दिलचस 975
वियतनाम 975
अभिक 974
आराम 974
एगा 974
कबीर 974
जलप 974
टु 974
1946 973
ंदा 973
कोरो@@ 973
मापी 973
खगोलीय 972
पेनिश 972
बनकर 972
फे 971
बैंकिंग 971
रकाश@@ 971
लेड 971
गायत 970
चालू 970
लगाकर 970
लेन@@ 970
सबर 970
कष 969
टॉम 969
निषे@@ 969
योर 969
लाई@@ 969
ारक 969
अंटार 968
औपनिवेशिक 968
रआन 968
विनिमय 968
चलचित 967
थता 967
लीज 967
लैश 967
आइस@@ 966
इयों 966
छंद 966
राउन 966
लाकर 966
सती 966
सदैव 966
एंड@@ 965
छिक 965
रेजि@@ 965
लामिक 965
वालामुखी 965
वाली@@ 965
चौद@@ 963
तरंग 963
नाश 963
बैठे 963
मोल 963
डाउन@@ 962
रोकार 962
सतत 962
43 961
यूएस 961
आंग 960
आवर 959
कामया@@ 959
डेमोक 959
सीय 959
२०१७ 959
अत@@ 958
गमन 958
तुएँ 958
पूछा 958
बोल@@ 958
रकला 958
उठाने 957
भरत@@ 956
लिंग@@ 956
अलेक 955
गरी 955
चालन 955
लिब 955
जटि@@ 954
फुल 954
भीम 954
यॉर 954
उपरांत 952
काया 952
ed 951
एजेंट 951
लघु@@ 951
ियंस 951
1958 950
उपासना 950
पदा 950
अंगू@@ 949
कॉट 949
थाईलैंड 949
रवाहित 949
७० 949
छड 948
जेब 948
रोक@@ 948
किरण 947
इनको 946
कोलंबिया 946
गोरखपुर 946
पहल@@ 946
बनाम 946
बहने 946
रवि 946
आदित 945
बॉन 945
लोबल 945
53 944
पहलू 944
फंड 944
माँग 944
लोकतंत 944
सीक 944
ृंग@@ 944
ॊ@@ 944
जम@@ 943
मुकाबला 943
56 942
ऊँची 942
चोटी 942
फाल 942
भरने 942
रीम@@ 942
साथियों 942
आपात@@ 941
तलाक 941
तेह@@ 941
दुः@@ 941
बिलकुल 941
मुकदमा 941
सूचक 941
२०१८ 941
17@@ 940
1951 940
46 940
चेतावनी 940
निंदा 940
फैली 940
ओलम 939
रंगमंच 939
षद 939
a@@ 938
खासकर 938
खू@@ 938
गना 938
टेयर 938
सेनानी 938
39 937
दुबई 937
मणिपुर 937
हिम@@ 937
ँसी 936
ंकी 936
आद@@ 936
करार 936
घोष 936
यथा@@ 936
रिफ 936
अक@@ 935
खतरनाक 935
धाओं 935
बँ@@ 935
बाघ 935
महोत 935
सद@@ 935
गोप@@ 934
रतों 934
राहत 934
रोधक 934
एह@@ 933
तेलंगाना 933
दिखाने 933
नाट@@ 933
वभौ@@ 933
1959 932
अट@@ 932
गौड 932
भाषाई 932
वय@@ 932
काना 931
यौगिकों 931
विय@@ 931
उपयोगि@@ 930
थापत 930
मॉन 930
साइंस 930
सामुदायिक 930
04 929
इका@@ 929
बरेली 929
रक@@ 929
राफिक 929
सं 929
ंडिंग 928
नगरपालिका 928
अंतराल 927
कुमार@@ 927
बीकानेर 927
लौर 927
हांगकांग 927
ऊंची 926
घटन 926
चोरी 926
जावा 926
परक 926
सृ@@ 926
एथ@@ 925
धातुओं 925
पिथौरागढ 925
लॉ 925
ंपिक 924
चल@@ 924
पृ@@ 924
मुला@@ 924
आलोच@@ 923
जीवाश 923
ताप@@ 923
पाट 923
पारि@@ 923
बुल@@ 923
लगाव 923
५०० 923
ंदर 922
दशी 922
धीय 922
सकल 922
41 921
करेगी 921
गास 921
देखता 921
नामी 921
पारम 921
बीर 921
माम@@ 921
असं@@ 920
कैद 920
तावादी 920
फलन 920
रेंद 920
वांछित 920
शिवा@@ 920
शीत@@ 920
सदियों 920
.सी@@ 919
X@@ 919
ईसवी 919
गुरू 919
गृह@@ 919
बनावट 919
सऊदी 919
सचेंज 919
काशी@@ 918
मतभेद 918
मिका 918
वनाथ 918
कीट 917
ढी 917
थियो@@ 917
नाज 917
यी@@ 917
योजक 917
वदेशी 917
600 916
कानू@@ 916
पूरक 916
बाँध 916
मातृभाषा 916
यासों 916
00 915
us 915
चमक 915
जिकल 915
जिनमे 915
बाद@@ 915
भूटान 915
वाही 915
सृजन 915
इतिहासकारों 914
नांक 914
पहचाना 914
मुन 914
आयात 913
तिन 913
मंद 913
खार 912
जीवा@@ 912
दमन 912
मता@@ 912
वादा 912
इंटर 911
इंडीज 911
ऑव 911
तमाम 911
तरंग@@ 911
निकटता 911
जीरिया 910
तेलुगू 910
रॉ 910
o 909
डीसी 909
बीमार@@ 909
ययनों 909
वतों 909
ar@@ 908
झिल 908
मदर 908
पंथ 907
वेश@@ 907
72 906
85 906
खगोल@@ 906
पैरों 906
ॉल 906
मंजूरी 905
रणों 905
रांस@@ 905
राब 905
साझेदारी 905
२००३ 905
जाइ@@ 904
पास@@ 904
समतल 904
एना@@ 903
गुफा@@ 903
तली 903
U 902
जें 902
बेचने 902
विधियाँ 902
सेनापति 902
ैर 902
अजय 901
खारिज 901
गेंद@@ 901
बचे 901
संजय 901
24@@ 900
बेड 900
लौह 900
हरि 900
निवार@@ 899
रीब 899
लाद 899
समू@@ 899
भागी@@ 898
रूपां@@ 898
54 897
c@@ 897
with 897
एकीकरण 897
छूट 897
पिछड 897
फायर 897
मालवा 897
वैध 897
उपनिषद 896
जें@@ 896
डेस 896
परेशान 896
मानन 896
लुप 896
वसनीय 896
पेशियों 895
लाब 895
समे@@ 895
साप 895
जरिए 894
भट@@ 894
मिड@@ 894
शंस 894
काउं@@ 893
चिंग 893
जानता 893
टीरिया 893
दायी 893
नाड 893
रकरण 893
01 892
अटलांटिक 892
तिग 892
धुरी 892
लॆ 892
अकार 891
दाएं 891
निबंध 891
परास 891
लरी 891
संन 891
झे@@ 890
धृत 890
निका 890
बानी 890
माम 890
रायन 890
साधनों 890
are 889
was 889
अनुमो@@ 889
अली@@ 889
ढाई 889
नीत 889
रीयता 889
रोटो@@ 889
रोशनी 889
चमत 888
तनत 888
ताना 888
धीन 888
निकी 888
लाश 888
विधेयक 888
गंध 887
नेन 887
मिलन 887
रियो@@ 887
सेमी@@ 887
टियाँ 886
तारित 886
देरी 886
x@@ 885
एसए 885
चिका 885
चौक 885
धियाँ 885
पियर 885
मानवा@@ 885
रपान 885
सीधी 885
सु 885
तुलनात 884
मस@@ 884
यकों 884
लगाना 884
वाइस 884
गुस 883
धांतिक 883
महमूद 883
रेरी 883
शिवलिंग 883
अतिथि 882
ऊतक 882
घट 882
भागवत 882
वैन 882
नामांकित 881
निग@@ 881
पहुँचे 881
फलों 881
as@@ 880
आसन 880
इंजीनिय@@ 880
टबॉल 880
तैनात 880
पं 880
पाप 880
मलिक 880
सिरे 880
g 879
ंगरी 879
रताप@@ 879
शप 879
समाधि 879
अभिप 878
करु@@ 878
कुड 878
नामा 878
मनु 878
मिलान 878
रचु@@ 878
बेच 877
यकृत 877
कोय@@ 876
टमेंट 876
पैक 876
राही 876
लियां 876
वरु@@ 876
षस 876
आवागमन 875
याद@@ 875
वस@@ 875
सुनाई 875
ऊँचे 874
थेन 874
भण 874
अनिश 873
उदार@@ 873
जरु@@ 873
डीएनए 873
विदेशों 873
वेर 873
शोथ 873
करनेवाले 872
कांत 872
तारा@@ 872
तिहाई 872
तृप 872
थरों 872
पाँच@@ 872
पैलेस 872
मूली 872
रतियो@@ 872
लगाते 872
वंशा@@ 872
सशक 872
49 871
जीवाणु 871
डेवल@@ 871
तावाद 871
परिष 871
तारामंडल 870
लेबल 870
खुश 869
पितृ@@ 869
सैंण 869
सोसायटी 869
पंथी 868
रोम@@ 868
कमान 867
कीकरण 867
कोयला 867
खरीदने 867
णिया 867
बोट 867
संबोधित 867
आपसी 866
कहकर 866
णिमा 866
सौंप 866
हथियारों 866
इंट 865
झारखण 865
पदा@@ 865
सराह@@ 865
ुद 865
१८५@@ 865
जेने@@ 864
तिलक 864
देखना 864
पुरू@@ 864
बग 864
बलि 864
संवर 864
k 863
ढांचे 863
राँ@@ 863
विधा 863
वीडन 863
ीर 863
2,@@ 862
गलती 862
गिक 862
टित 862
पिट 862
बी.@@ 862
रुवीय 862
ंडा@@ 861
कठिनाई 861
रभाग 861
शिकायत 861
26@@ 860
खल@@ 860
गरु@@ 860
नाव 860
रेण@@ 860
वेब@@ 860
पथ@@ 859
मुड 859
मेल@@ 859
रतिबद 859
वरन 859
1857 858
in@@ 858
चाचा 858
भंडार 858
शिकागो 858
सफर 858
अधिकृत 857
तुतः 857
नीकरण 857
बृहस 857
सकर 857
रोफ 856
सकों 856
३१ 856
1942 855
आयी 855
जितनी 855
नारी 855
विवादास 855
सांप 855
साइकिल 855
कज 854
गुला@@ 854
घम 854
जंग 854
पंच 854
रशस 854
al@@ 853
अनिय@@ 853
दाज 853
दिखने 853
बैं@@ 853
वियों 853
सरोवर 853
7.@@ 852
आतंकवादी 852
आपका 852
कैबिनेट 852
टेशनों 852
ठार@@ 852
यौहार 852
नागा@@ 851
नेर 851
२.@@ 851
62 850
तीफा 850
पीएच@@ 850
पैटर 850
रवी@@ 850
१९९० 850
m@@ 849
अंकों 849
जता 849
थो 849
भया@@ 849
वतीय 849
खूब 848
टना 848
शैलियों 848
हाई@@ 848
खुशी 847
पवन 847
भेंट 847
मीमां@@ 847
आनु@@ 846
ओमान 846
यास@@ 846
रतियोगिताओं 846
शरी@@ 846
सुनकर 846
हिं@@ 846
अपूर 845
काज 845
जाएँ 845
टियां 845
नियाँ 845
पचा@@ 845
परमा@@ 845
बनायी 845
यकालीन 845
शिय@@ 845
षड 845
टी20 844
नय 844
बीज@@ 844
भिकियासैण 844
रामिंग 844
वचालित 844
ियल 844
धनी 843
पैसा 843
बताती 843
मेयर 843
राजपू@@ 843
राजशाही 843
अजी@@ 842
अह@@ 842
ढूं@@ 842
रधानमन 842
सिंड 842
ुल 842
एग 841
निभाया 841
बेक 841
मुँ@@ 841
उपनिषदों 840
गरीबी 840
टैग 840
ढू@@ 840
नियल 840
मकता 840
राधा@@ 840
रूण 840
रोमा@@ 840
वेंट 840
२०० 840
57 839
अपहरण 839
आयरिश 839
कंदर 839
हेड 839
करू@@ 838
कारी@@ 838
गायिका 838
तलवार 838
पीले 838
मांग@@ 838
राली 838
वीपीय 838
III 837
Y@@ 837
एंजिल 837
एयरलाइंस 837
चालित 837
बाग@@ 837
बें@@ 837
सूरी 837
1953 836
अवलोकन 836
आनुवंशिक 836
पसंदीदा 836
मरने 836
महेश 836
रखाव 836
संवेदनशील 836
होस 836
अपर 835
ओन 835
जिसको 835
नग 835
मै 835
राजदूत 835
होत 835
.एस. 834
2022 834
4.@@ 834
ंकर 834
पहर 834
भाप 834
महिला@@ 834
मौलाना 834
लोस 834
षण@@ 834
ढे@@ 833
थियेटर 833
रखंड 833
लाइब 833
संकाय 833
साह 833
63 832
असे@@ 832
गात 832
नम@@ 832
बनारस 832
मुग@@ 832
मेर@@ 832
विकता 832
संयोग 832
सिपा@@ 832
सिफारिश 832
8.@@ 831
कितना 831
भावी 831
हिंसक 831
es 830
उंड 830
कोइल 830
खानों 830
टकरा@@ 830
मांड 830
राजनयिक 830
वायर 830
50@@ 829
कायमगंज 829
गु 829
चंडीगढ 829
चेक 829
ञता 829
तरी@@ 829
पेटेंट 829
भरत 829
मारी 829
रोप 829
संकेतों 829
ठहराया 828
डीह 828
दाई 828
नते 828
नाशक 828
सोशल 828
66 827
ंगटन 827
खला 827
थली@@ 827
परिचालन 827
बता 827
रसूल 827
58 826
चने 826
पुरातात 826
बंधन 826
भेजे 826
रेडियो@@ 826
वकों 826
डियो@@ 825
यानों 825
राद 825
रोकथाम 825
सोच@@ 825
चूँकि 824
वकालत 824
आतं@@ 822
डेड 822
ताहिक 822
बाकू 822
मिथि@@ 822
मुज@@ 822
रैंक@@ 822
सवारी 822
25@@ 821
v@@ 821
टानों 821
तारी 821
बादल 821
लोकतांत 821
शॉट 821
सेमी 821
ंकि 820
किलो 820
कुमा@@ 820
अपवाद 819
गिटार 819
देवनागरी 819
बेहतरीन 819
बोले 819
यमन 819
कैलेंडर 818
बाएं 818
यवाही 818
रियाँ 817
संचरण 817
एंटर@@ 816
खुली 816
चेरी 816
तीयक 816
नां@@ 816
मेजबान 816
योनि 816
विटी 816
संके@@ 816
सजा@@ 816
सिडनी 816
अमृ@@ 815
कठि@@ 815
कमीशन 815
दाँ@@ 815
मुंह 815
रेस@@ 815
e 814
मणों 814
मनी@@ 814
वीराज 814
सून 814
उपेक 813
धात 813
रूचि 813
षम@@ 813
हानिकारक 813
कोह@@ 812
टीमें 812
दुर@@ 812
महासचिव 812
रसंग 812
लंबित 812
सौंपा 812
िवादी 812
२००२ 812
मानिया 811
रजातियां 811
टनी 810
पोशाक 810
बंधों 810
लिख 810
वाशिंगटन 810
अजमेर 809
घी 809
तद@@ 809
मरी@@ 809
रहवीं 809
लोरि@@ 809
सेतु 809
ref 808
अमि@@ 808
कितनी 808
मेघा@@ 808
यापारियों 808
सँ@@ 808
800 807
टका 807
दाख 807
दूतावास 807
परिपथ 807
भेदभाव 807
अनुदान 806
आजाद 806
चिप@@ 806
टलर 806
दीना 806
नदियाँ 806
१८८@@ 806
एडम 805
कराचार 805
तूफान 805
सीई@@ 805
कहानियाँ 804
चारी 804
जिस@@ 804
फलता 804
रोटोकॉल 804
संभाला 804
11@@ 803
दिमा@@ 803
बलात 803
बीए 803
समावेश 803
०३ 803
आपराधिक 802
खली@@ 802
खाई 802
दोन 802
नसन 802
रानीखेत 802
हैम 802
अपितु 801
ओडिशा 801
जेस 801
तिकी 801
थेरे@@ 801
धां@@ 801
नाभि@@ 801
बेरी 801
रावस 801
चूर 800
जहाजों 800
डीवी@@ 800
णत 800
बॉडी 800
भांति 800
मरीज 800
साध 800
अपराधी 799
चारित 799
धीमी 799
पिंड 799
बीसवीं 799
लेग 799
शपथ 799
सिंधु 799
विमानों 798
सीटों 798
उपहार 797
जोसेफ 797
धरोहर 797
पायलट 797
रमण@@ 797
वतमाला 797
सरा@@ 797
सैम@@ 797
अदा 796
आलोचक 796
काॅ@@ 796
कोने 796
खम 796
यश 796
रलाल 796
रशंसकों 796
रीनगर 796
शियल 796
ाइ@@ 796
1936 795
68 795
अहम 795
उपक 795
एलन 795
ओम 795
कैथ@@ 795
दुकान 795
फैसले 795
बें 795
बेगम 795
संभल 795
हॉलीवुड 795
02 794
ंचर 794
राजेश 794
अवध 793
कप@@ 793
छी@@ 793
जरिये 793
निकले 793
भूल 793
यतीत 793
०२ 793
जाज 792
दृ@@ 792
बीबीसी 792
रमिकों 792
उपरोक 791
डॉन 791
थानिक 791
संभवत 791
ानिस 791
ईयों 790
गामी 790
थकों 790
नृ@@ 790
फसलों 790
बढ@@ 790
हब 790
ओँ 789
गुलाम 789
निभाने 789
फीचर 789
यशास 789
अवकाश 788
कुंड@@ 788
गिरि@@ 788
छल 788
नलों 788
मरम 788
लद 788
लानी 788
विकासशील 788
K 787
ऑपरेटिंग 787
टीव 787
देंगे 787
माओं 787
इसपर 786
खुर 786
खोजने 786
गामा 786
यन@@ 786
यरों 786
युगा@@ 786
मेहता 785
रासं@@ 785
सुना 785
गणितज 784
मालूम 784
सफोर 784
गित 783
चाल@@ 783
हिंदुओं 783
03 782
गस 782
धौ@@ 782
लोनी 782
ऑप 781
कंद@@ 781
खाँ 781
झाड 781
डान 781
नौकर@@ 781
रंगीन 781
i@@ 780
रतिकूल 780
www.@@ 779
अभिलेख 779
डेंट 779
तथा@@ 779
नोलॉजी 779
पसन 779
98 778
कारि@@ 778
दोलनों 778
परागत 778
मला@@ 778
लजी 778
लाते 778
षाण 778
समकक 778
सुदूर 778
ौती 778
अद@@ 777
ईमान@@ 777
बियन 777
बैटरी 777
शरीफ 777
परंपराओं 776
पिटल 776
बीमार 776
युनाइटेड 776
40@@ 775
http 775
ऑपरे@@ 775
कॅ@@ 775
डोमेन 775
तान@@ 775
नैतिकता 775
मुर@@ 775
युगीन 775
राश@@ 775
सोचा 775
अख 774
कॉक 774
तूर 774
रवार 774
वानु@@ 774
हदीस 774
71 773
जातक 773
रीड 773
रुपए 773
शुरू@@ 773
समझते 773
निरं@@ 772
शिमला 772
साधु 772
चतु@@ 771
नमाज 771
तुम@@ 770
देल@@ 770
भरता 770
वाण 770
अभियांत 769
अहम@@ 769
एजेंस@@ 769
फाइल 769
बरकरार 769
विकला@@ 769
विका@@ 769
शेक 769
साइक 769
सूरत 769
1939 768
चोपड 768
माली 768
रेनी 768
ाते 768
ाम 768
73 767
it 767
जाग@@ 767
दूक 767
धरा@@ 767
मिने@@ 767
विवेक 767
आतंकवाद 766
खुलासा 766
राथमिकता 766
ृंख@@ 766
w@@ 765
अदा@@ 765
खान@@ 765
साइटों 765
हरी@@ 765
एवम 764
धानों 764
नियत 764
पाउ@@ 764
रौली 764
सोम 764
आचरण 763
उजागर 763
कमांडर 763
काय 763
टते 763
टिनेंट 763
ठंडा 763
डेनमार 763
वाग 763
28@@ 762
एंग 762
गोला@@ 762
ताकत 762
शोर 762
हालत 762
अनौ@@ 761
गेल 761
नियाई 761
ललि@@ 761
शनि 761
गुन 760
भड 760
रहार 760
रेरक 760
सुनने 760
अररिया 759
नीले 759
यिता 759
रणो@@ 759
कच@@ 758
चीजों 758
णायक 758
नाते 758
माय@@ 758
यश@@ 758
हवेली 758
अलंकार 757
खंडों 757
उपनिवेश 756
तें@@ 756
रोशन 756
विदा 756
सीम 756
आगामी 755
डिब 755
धनुष 755
नाराय@@ 755
गुल 754
ठाकु@@ 754
दिला@@ 754
भयंकर 754
नांतर 753
मेह 753
राघ@@ 753
षिण@@ 753
३५ 753
संकु@@ 752
टोनी 751
तराधिकार 751
नमूने 751
शनि@@ 751
सीख@@ 751
इंगित 750
जिया@@ 750
तिवारी 750
भूमिगत 750
खपत 749
दायर 749
1941 748
आवरण 748
दीपक 748
नरेन 748
लुई 748
हावड 748
ियोग 748
1937 746
Z@@ 746
um 746
खंडन 746
बोला 746
रगतिशील 746
लख@@ 746
लनों 746
ate 745
अपनाने 745
f@@ 744
अभिनीत 743
ताब 743
लगाई 743
77 742
नैशनल 742
सरलता 742
.मी. 741
1900 739
णे 739
पां@@ 739
मिता 739
ad@@ 738
from 738
डांस 738
नशील 738
1919 737
5.@@ 737
मुकद@@ 737
250 736
कोल@@ 736
सिलसि@@ 736
विशेषताएँ 735
86 734
लूज 734
3,@@ 733
अख@@ 733
एनी@@ 733
सिग@@ 733
web 732
US 731
ंडल 731
इमार@@ 731
वीज 731
अरुण 730
61 729
पीय 729
रंश 729
रयोग@@ 728
59 727
re@@ 727
23@@ 726
1932 725
Y 721
सरों 721
टिश 719
धिकारी 719
मुं@@ 719
मुरा@@ 719
88 718
ch@@ 718
Ch@@ 717
ंव 714
चुनौ@@ 714
तज 714
सौंप@@ 714
web.archive.org 713
5,@@ 711
मति 711
67 710
यहू@@ 710
74 709
ur 709
27@@ 708
सरो@@ 708
120 706
बाव@@ 705
लंका 704
u 703
सामा@@ 703
l@@ 702
84 701
Z 701
th@@ 701
ई.@@ 701
पंजी@@ 701
ंडो@@ 700
वाया 700
97 699
एजे@@ 699
4,@@ 697
96 697
Q@@ 697
{ 697
r 695
नद@@ 695
पि 694
धानी 692
76 691
काश 691
मला 691
उपभो@@ 690
जनन 690
29@@ 688
अने@@ 688
ियान 688
मेडि@@ 687
वड 687
AS@@ 685
संतु@@ 683
हां 683
83 680
78 679
E0 679
া@@ 679
गाह 677
1928 676
f 675
डियम 674
दिल@@ 674
आधि@@ 672
ऊँ@@ 672
२०१@@ 672
नागरि@@ 671
मीद@@ 668
1931 667
ns 667
‎ 666
रभ@@ 665
er 664
अभिया@@ 664
1,000 662
92 661
आज@@ 660
दाबाद 659
1935 658
model 658
राबाद 656
201@@ 655
1934 653
6.@@ 653
£ 653
700 652
ंगो@@ 651
1921 650
81 650
ity 650
} 650
1924 649
खरीद@@ 649
87 648
ॅ 648
1918 647
1944 647
हाबाद 647
v 646
ं- 646
लाह@@ 646
समारो@@ 646
W 645
45@@ 643
शाक 643
संचा@@ 643
1938 642
91 639
पंड@@ 639
चैंप@@ 638
be 636
राजन@@ 636
82 635
आयु@@ 633
सैं@@ 627
पहा@@ 626
यनों 626
A4 624
National 624
िश 623
69 622
contributor 621
93 620
timestamp 620
कोलं@@ 620
सिए@@ 620
am@@ 617
गतिशील 617
टलैंड 617
दरगाह 617
5,000 616
पहुँ@@ 616
लियर 613
94 612
6,@@ 610
89 609
एसि@@ 609
1943 608
1912 607
`@@ 607
format 607
कारिता 607
9.@@ 605
ंडी@@ 605
हाला@@ 605
ag@@ 604
10,000 603
ईं@@ 602
थॉ@@ 602
विक@@ 602
एनए 601
₹ 599
शोध@@ 597
भीर 596
1922 595
1929 595
कड@@ 594
er@@ 593
आवे@@ 590
बह 590
रैं@@ 590
दिरा 589
पहु@@ 588
सरण 588
− 588
1933 587
रसू@@ 586
1925 585
2.5 585
username 585
रबंध@@ 583
थानां@@ 582
ॐ 582
7,@@ 581
1914 580
di@@ 580
lo@@ 579
आका@@ 579
en@@ 577
79 576
1917 574
India 574
one 574
pur 574
तिहासिक 574
1926 571
कारिक 570
रांति@@ 570
सैण 569
ya 568
1.5 567
on@@ 566
or@@ 566
कैलि@@ 566
IS@@ 565
सचि@@ 564
un@@ 563
पाँ@@ 562
ारित 561
,000 560
ap@@ 556
रिए 556
अमेरि@@ 553
वाला@@ 553
which 549
Q 547
मजब@@ 546
रिये 546
la 545
सना 544
उदय@@ 543
1927 539
ँच 539
झे 539
गठ@@ 538
रेली 538
ीज 535
--@@ 534
एपि@@ 534
पराज@@ 534
बज@@ 534
35@@ 532
मही@@ 532
ab@@ 530
at@@ 530
ढांच@@ 530
संगठ@@ 530
j 529
टली 529
1908 528
शिका@@ 528
1910 526
तिहा@@ 526
10.@@ 525
· 525
संहि@@ 524
ia 523
et 522
sh@@ 522
8,@@ 521
विजे@@ 520
200@@ 519
लूम 519
1905 518
1923 518
comment 517
le 517
ine 516
× 516
1911 515
Re@@ 514
el@@ 514
गरी@@ 514
नेह@@ 513
रिके@@ 513
ंप 512
इसी@@ 512
शोक 512
सील 511
परिणा@@ 510
ic@@ 507
रगढ 506
हनु@@ 506
थार 505
राधि@@ 504
di 503
विकास@@ 502
सानी 502
.एस@@ 501
his 501
टिने@@ 498
कहला@@ 497
le@@ 496
टोग 496
om@@ 495
1916 494
ंतु 494
लैंग@@ 493
सचे@@ 493
ak@@ 492
de@@ 492
सुझा@@ 492
ous 491
is@@ 490
… 490
In 489
ऽ@@ 489
OS 488
DVD 487
80@@ 486
आवा@@ 486
बादी 486
हरण 486
ओल@@ 485
खिक 485
तकनी@@ 485
5000 483
निकों 482
ology 481
एनि@@ 480
आतंक@@ 479
यीं 478
रागढ 478
भग 477
ad 476
एसोसिए@@ 475
CO@@ 473
नानी 472
नेशिया 472
12.@@ 470
WWE 469
Windows 468
co@@ 467
कद@@ 467
IN@@ 466
सेफ 464
ed@@ 463
सिल@@ 463
ळ 462
2,000 461
1915 459
तारी@@ 459
गेश 458
विजन 458
11.@@ 456
60@@ 456
ur@@ 456
वाता@@ 456
विकि@@ 456
1906 453
it@@ 453
नगर@@ 453
1500 452
An@@ 452
रदू@@ 451
1901 450
हुल 450
In@@ 449
मश@@ 449
AD@@ 448
parentid 448
इंडो@@ 448
मिकता 448
दिरों 447
नागरी 447
हिक 447
J 446
ary 446
निवृत 446
es@@ 445
op@@ 445
Ar@@ 444
্ 443
AL@@ 442
id@@ 441
इंग@@ 438
் 436
लुओं 434
वज@@ 434
ers 433
180 432
1904 432
थाई@@ 429
160 428
720 428
चुंब@@ 428
रोफे@@ 428
SO@@ 426
ated 426
ot@@ 426
ph@@ 425
1896 424
IV 424
ul@@ 424
1909 423
CD@@ 422
1913 421
Al@@ 421
th 421
रेडि@@ 420
Microsoft 419
भूत@@ 419
यारी 419
kh@@ 418
350 417
el 417
मनोरं@@ 417
have 416
चुना@@ 416
wiki 415
900 414
हिब 414
ism 413
तुर@@ 413
यायाधी@@ 413
किया@@ 412
UK 411
ac@@ 410
ूत 410
ER@@ 409
घोष@@ 409
་ 409
9,@@ 408
NBC 408
थिय@@ 408
1907 407
विधान@@ 407
he 406
110 405
align 405
सूस 405
Sh@@ 404
टती 404
70@@ 403
ai 403
जंग@@ 402
डिवी@@ 402
0,@@ 401
thumb 401
चान 401
HIV 400
ite 400
z 399
2.0 398
not 398
ol@@ 398
लेंडर 398
परी 397
फस@@ 397
ारस 397
130 396
1890 395
फिस 395
वाहिक 394
CA@@ 393
140 392
has 392
ra 392
tr@@ 392
3000 391
टीय 391
ैतिक 391
34@@ 390
os@@ 390
परियोज@@ 390
li@@ 388
मौजू@@ 388
ations 387
कोत 387
il@@ 386
100,000 385
108 385
शिंगटन 385
अनुसं@@ 384
किलो@@ 383
55@@ 382
center 382
av@@ 381
z@@ 381
परंपरा@@ 381
meridi@@ 380
यूजी@@ 380
text 379
वेली 378
13.@@ 377
MS 377
also 377
कैल@@ 377
खतर@@ 377
Kh@@ 376
ical 376
वैधानिक 376
--- 375
3.5 375
रानी@@ 375
1902 374
ec@@ 374
रोजग@@ 374
ऊँ 373
हरिया@@ 373
og@@ 372
u@@ 372
रासत 372
लात 371
name 370
se 370
कारो@@ 369
गोरख@@ 369
AT 368
ent 367
PA 366
em@@ 366
खूब@@ 366
IC@@ 365
Indian 365
id 365
रामी@@ 363
14.@@ 362
3,000 362
1880 361
ir@@ 361
MS@@ 360
125 359
ae 359
ari 359
q 359
ti@@ 359
छित 359
NET 358
बेह@@ 356
ऱ 356
ana 355
रतियोगि@@ 355
गोरी 352
1800 349
1899 349
50,000 349
ST@@ 349
ā@@ 349
सफल@@ 349
Rousseau 348
ंख@@ 348
किंग@@ 348
20,000 347
यमु@@ 347
----@@ 346
CD 346
FI@@ 346
im@@ 346
गिस 346
ओडि@@ 345
TV 344
पिछ@@ 344
माज 344
als 343
समे 343
पेशे@@ 342
मिसाइ@@ 342
codice 341
aj@@ 340
this 340
पीडिया 339
1895 338
ˈ@@ 338
1903 337
SC 337
tion 337
सिफारि@@ 337
w 336
AC 335
संबंध@@ 335
NA 334
ma 334
बित 334
1860 333
dis@@ 333
ve 333
1898 332
AS 332
Highway 332
its 332
747 331
AT@@ 331
ik@@ 331
यारण 331
1858 330
CI@@ 330
ro@@ 329
अंतरा@@ 328
1889 327
22@@ 327
IM@@ 327
विनि@@ 327
1870 326
इनल 326
फड 325
et@@ 324
वियत@@ 324
105 323
1885 322
33@@ 322
st@@ 322
फान 322
101 321
1891 321
TS 321
Th@@ 321
ay@@ 321
po@@ 321
² 321
1887 320
able 320
ath@@ 320
pr@@ 320
आनुवं@@ 320
BC 319
ance 319
than 319
MA 318
র@@ 317
CH@@ 316
da 316
बेड@@ 316
AM@@ 315
ha 315
to@@ 315
US@@ 313
एटर 313
revision 312
शासन@@ 312
रिष 311
सटी@@ 311
10,@@ 309
104 309
1897 309
SA 309
can 309
Man@@ 308
River 308
ch 306
ka 306
system 306
हिए 306
1894 305
od@@ 305
ting 305
SA@@ 304
Par@@ 303
360 302
लाइसे@@ 302
1888 301
90@@ 301
all 301
ator 301
right 301
1,0@@ 300
ব@@ 300
age 299
na 299
tic 299
थौ@@ 299
राथ@@ 299
230 298
Con@@ 298
1882 297
WWF 296
ach@@ 295
निर@@ 295
CS@@ 294
Ig@@ 294
झार@@ 294
19@@ 293
36@@ 293
hi@@ 293
ho@@ 293
ons 293
um@@ 293
wikitext 293
Cl@@ 292
DC 292
1886 291
no@@ 291
time 291
विविध@@ 290
शुरु@@ 290
100@@ 289
As 289
ISO 289
15.@@ 288
21@@ 288
47@@ 288
ang@@ 288
ative 288
संशो@@ 288
man 287
ter 287
ंदु 287
कील 287
टकों 287
1892 286
अवै@@ 286
NT@@ 285
\ 285
विप@@ 285
16.@@ 284
4,000 284
SP@@ 284
group 284
हारिक 284
102 283
1893 283
ics 282
भवतः 282
ut@@ 281
फाउ@@ 281
युग@@ 281
ি@@ 281
MP@@ 279
their 279
AC@@ 278
U.S. 278
ta 278
1.2 277
750 277
38@@ 276
te 276
अनंत@@ 276
जोखि@@ 276
BS 275
^ 275
AP@@ 274
ant 274
1884 273
two 273
शही@@ 273
1200 272
आयर@@ 272
05@@ 271
27.@@ 270
PC 270
गू 270
समझौ@@ 270
ॠ@@ 269
तिकता 268
रखा@@ 268
FA 267
us@@ 267
37@@ 266
UN@@ 266
ing@@ 266
os 266
par@@ 266
AN@@ 265
LA 265
Sam@@ 265
~ 265
तीत 265
SE@@ 264
bi@@ 264
km 264
ov@@ 264
450 263
CC@@ 263
Institute 263
ऎ@@ 263
106 262
Co@@ 262
1850 261
1881 261
ala 261
har@@ 261
q@@ 261
11,@@ 260
Bar@@ 260
RE@@ 260
more 260
अटलां@@ 260
कमी@@ 260
4000 259
hi 259
ish@@ 259
0.5 258
ata 258
ts 258
were 258
लोकन 258
1867 257
IC 257
ating 257
इसे@@ 257
भेद@@ 257
103 256
RA@@ 255
राजनी@@ 255
18.@@ 254
190@@ 254
് 254
Am@@ 253
amp@@ 253
cr@@ 253
ol 253
α 253
डेन@@ 253
1872 252
1876 252
Per@@ 252
ans 252
AR@@ 251
br@@ 251
first 251
number 251
tive 251
war 251
115 250
ani 250
but 250
oc@@ 250
लखी@@ 250
1883 249
48@@ 248
Raj@@ 248
सवी 248
les 247
Mar@@ 246
der 246
other 246
Google 245
MTV 245
NH@@ 245
and@@ 245
sp@@ 245
गानिस 245
→ 245
RS 244
This 244
World 244
had 244
1848 243
1878 243
ak 243
ंचाई 243
बोधित 243
109 242
65@@ 242
BE 242
ah 242
se@@ 242
सिंहा@@ 242
Pr@@ 241
been 241
per@@ 241
.-@@ 240
1700 240
It 240
ম@@ 240
GE 239
1871 238
ates 238
ha@@ 238
ri@@ 238
योगकर 238
30,000 237
IP@@ 237
ara 237
1865 236
ah@@ 236
ali 236
end@@ 236
21.@@ 235
22.@@ 235
ii 235
me@@ 235
औ 235
जने 235
सानों 234
€ 234
KM 233
agar 233
ex@@ 233
गापुर 233
000,000 232
220 232
PE@@ 232
University 232
hap@@ 232
1868 231
AB@@ 231
International 231
mo@@ 231
यण 231
षदों 231
001 230
119@@ 230
1861 230
HD 230
St@@ 230
ep@@ 230
html 230
ke 230
107 229
17.@@ 229
1875 229
6,000 229
DA 229
gr@@ 229
1873 228
Mah@@ 228
ty 228
used 228
उजा@@ 228
रंगा@@ 228
1877 227
78@@ 227
car@@ 227
sub@@ 226
इतिहास@@ 226
साब 226
్ 226
CE@@ 225
Ex@@ 225
NO@@ 225
0.1 224
120@@ 224
Qu@@ 224
SE 224
law 224
tu@@ 224
.jpg 223
IP 223
las 223
ti 223
नदार 223
DNA 222
MI@@ 222
ক@@ 222
170 221
AI@@ 221
con@@ 221
ist 221
1.3 220
1.6 220
126 220
1879 220
59.@@ 220
CE 220
टतम 220
भारती@@ 220
23.@@ 219
್ 219
1856 218
320 218
46@@ 218
De@@ 218
FDA 218
bit 218
eg@@ 218
poem 218
who 218
ল@@ 218
1600 217
1859 217
SS 217
1830 216
19.@@ 216
GB 216
LS 216
ari@@ 216
हानि@@ 216
128 215
1840 215
4.5 215
En@@ 215
ge@@ 215
सोसिए@@ 215
1.1 214
56@@ 214
WCW 214
Ac@@ 213
ay 213
tical 213
114 212
1866 212
2500 212
si@@ 212
जूरी 212
हदी@@ 212
me 211
no 211
ob@@ 211
घु 211
20.@@ 210
ence 210
ted 210
use 210
1863 209
आउ@@ 209
7.5 208
function 208
west 208
भुग@@ 208
ND@@ 207
া 207
1,4@@ 206
112 206
Mo@@ 206
px 206
44@@ 205
he@@ 205
सफे@@ 205
Car@@ 204
ISBN 204
हिंद@@ 204
ন 204
-1 203
43@@ 203
AD 203
Me@@ 203
OH 203
116 202
122 202
1818 202
25.@@ 202
BM@@ 202
CA 202
aw@@ 202
दून 202
ऱ@@ 202
॒ 202
1.8 201
1854 201
1874 201
Ph@@ 201
east 201
डनी 201
रेर@@ 201
380 200
Nag@@ 200
12,@@ 199
190 199
File 199
Pat@@ 199
com@@ 199
ig@@ 199
value 199
ver@@ 199
गणि@@ 199
1.4 198
111 198
CO 198
CP@@ 198
HTML 198
bo@@ 198
inter@@ 198
ki 198
type 198
63@@ 197
BBC 197
CO2 197
S.@@ 197
SI 197
ment 197
s.@@ 197
परी@@ 197
पात@@ 197
1869 196
49@@ 196
GP@@ 196
ors 196
124 195
75@@ 195
@ 195
Di@@ 195
ino 195
man@@ 195
such 195
240 194
CC 194
New 194
parallel 194
ə@@ 194
घरेल@@ 194
जूद 194
फैस@@ 194
साझे@@ 194
39@@ 193
AP 193
1815 192
8,000 192
सलाह@@ 192
1,5@@ 191
VI 191
go@@ 191
li 191
sion 191
they 191
भाषित 191
ু@@ 191
Dis@@ 189
SW@@ 189
WHO 189
ni@@ 189
ter@@ 189
णकटि@@ 189
র 189
1864 188
2.4 188
500,000 188
Div@@ 188
anti@@ 188
mon@@ 188
pH 188
144 187
English 187
O2 187
Se@@ 187
ant@@ 187
ati@@ 187
energy 187
ne@@ 187
ore 187
काता 187
1820 186
He 186
Tr@@ 186
be@@ 186
æ@@ 186
लीवुड 186
AO@@ 185
ene 185
hy@@ 185
oph@@ 185
point 185
β 185
रमि@@ 185
ॄ@@ 185
117 184
138 184
14,@@ 184
7,000 184
II@@ 184
IS 184
TA 184
काब@@ 184
मलया@@ 184
1855 183
RI@@ 183
ea 183
ess 183
into 183
line 183
osis 183
ra@@ 183
121 182
123 182
650 182
PS@@ 182
between 182
il 182
trans@@ 182
up@@ 182
­ 182
118 181
Col@@ 181
DN 181
RA 181
mar@@ 181
out 181
1803 180
26.@@ 180
6000 180
ID 180
IT@@ 180
theory 180
up 180
113 179
210 179
25,000 179
Bo@@ 179
est 179
nam@@ 179
ological 179
बुनिया@@ 179
1.0 178
Ab@@ 178
Ge@@ 178
IT 178
LC 178
Tri@@ 178
jpg 178
only 178
pre@@ 178
tic@@ 178
1- 177
145 177
24.@@ 177
CP 177
SD@@ 177
TE@@ 177
hai 177
ॆ 177
A.@@ 176
AA 176
alism 176
भां@@ 176
1400 175
Cl 175
Mas@@ 175
ai@@ 175
language 175
ton 175
औप@@ 175
पंजा@@ 175
ES@@ 174
Inter@@ 174
Kal@@ 174
Kar@@ 174
action 174
ath 174
भाल 174
16,@@ 173
1851 173
330 173
Na@@ 173
SQL 173
SS@@ 173
bar@@ 173
str@@ 173
where 173
ে@@ 173
.org 172
13,@@ 172
550 172
Fe@@ 172
ang 172
ings 172
most 172
ong 172
pi@@ 172
ː@@ 172
तका@@ 172
1845 171
2.3 171
CT 171
John 171
Po@@ 171
Ram@@ 171
land 171
left 171
power 171
ɪ@@ 171
संभ@@ 171
132 170
1835 170
1853 170
CR@@ 170
ally 170
form 170
लखन@@ 170
Ad@@ 169
COVID 169
Cor@@ 169
Un@@ 169
ada 169
atic 169
languages 169
yl@@ 169
2.2 168
57@@ 168
AN 168
H.@@ 168
M.@@ 168
My@@ 168
Sp@@ 168
UR@@ 168
` 168
2.1 167
2023 167
66@@ 167
Sa@@ 167
eb@@ 167
qu@@ 167
सूची@@ 167
हैद@@ 167
15,@@ 166
A. 166
Pan@@ 166
a.org 166
ati 166
ation@@ 166
ere 166
eter 166
ms 166
tri@@ 166
1,500 165
Ne@@ 165
des 165
esh@@ 165
ina 165
kar@@ 165
will 165
लिमि@@ 165
1,8@@ 164
1819 164
2- 164
As@@ 164
Cal@@ 164
era 164
স@@ 164
115@@ 163
12,000 163
124@@ 163
1817 163
5.5 163
IF@@ 163
Le@@ 163
ly 163
so 163
शः 163
Mal@@ 162
USB 162
au@@ 162
sa 162
war@@ 162
000@@ 161
1,6@@ 161
40,000 161
BMW 161
Bal@@ 161
Bi@@ 161
MC 161
NS@@ 161
United 161
angle 161
colspan 161
ner 161
state 161
ताराम@@ 161
ौद 161
॑ 161
দ@@ 161
1843 160
Be@@ 160
Open 160
PS 160
TC 160
a.@@ 160
aceae 160
ci@@ 160
over 160
pl@@ 160
ura 160
141 159
15,000 159
280 159
32@@ 159
CL@@ 159
SI@@ 159
ash@@ 159
current 159
end 159
ents 159
od 159
try 159
water 159
29.@@ 158
CM@@ 158
On 158
Or@@ 158
PO@@ 158
Su@@ 158
ability 158
all@@ 158
body 158
if 158
per 158
set 158
so@@ 158
vol@@ 158
ו@@ 158
गोलीय 158
850 157
do@@ 157
ist@@ 157
te@@ 157
जबा@@ 157
यौगि@@ 157
165 156
CN@@ 156
RI 156
cor@@ 156
du 156
e.@@ 156
ru@@ 156
π 156
ி@@ 156
201 155
abad 155
dr@@ 155
may 155
́ 155
मुकाब@@ 155
1847 154
ian 154
mart@@ 154
pe@@ 154
pro@@ 154
vi@@ 154
धरी 154
1.7 153
127 153
175 153
67@@ 153
DE@@ 153
Ma@@ 153
USA 153
ica 153
res@@ 153
when 153
ா@@ 153
1862 152
200,000 152
270 152
B.@@ 152
El@@ 152
GDP 152
az@@ 152
mi 152
ok@@ 152
ন@@ 152
Cs 151
Fr@@ 151
Pro@@ 151
SV 151
Sar@@ 151
col@@ 151
idae 151
series 151
su@@ 151
tics 151
world 151
ऽ 151
118@@ 150
1844 150
Ap@@ 150
Mad@@ 150
do 150
ins 150
tis 150
तीस@@ 150
राजी@@ 150
131 149
133 149
1839 149
3.1 149
59@@ 149
Com@@ 149
VO@@ 149
ent@@ 149
ind@@ 149
some 149
י@@ 149
142 148
CEO 148
GP 148
Sc@@ 148
apur 148
eh@@ 148
मोली 148
रधान@@ 148
148 147
17,@@ 147
SP 147
him 147
light 147
we 147
शारी@@ 147
0.2 146
Br@@ 146
DR 146
Pal@@ 146
Ro@@ 146
any 146
field 146
force 146
style 146
well 146
इतिहा@@ 146
जाघर 146
় 146
】 146
136 145
1849 145
6.5 145
76@@ 145
8.5 145
Hindi 145
Te@@ 145
ational 145
ie 145
ta@@ 145
Al 144
Cr@@ 144
For@@ 144
RNA 144
SAP 144
ale 144
ell@@ 144
ens 144
her 144
उपनि@@ 144
मथु@@ 144
राती 144
【 144
1789 143
1838 143
8000 143
AV@@ 143
South 143
after 143
duc@@ 143
ement 143
ome 143
re 143
ve@@ 143
हराई 143
ত@@ 143
க@@ 143
264 142
53@@ 142
IA 142
NY@@ 142
Research 142
ac 142
for@@ 142
ir 142
1100 141
137 141
146 141
152 141
1837 141
American 141
BA 141
RC 141
Sch@@ 141
System 141
many 141
ne 141
ng 141
ties 141
दाय 141
ऩ@@ 141
116@@ 140
1832 140
1842 140
185 140
300@@ 140
data 140
gen@@ 140
ists 140
ా@@ 140
154 139
155 139
199@@ 139
928 139
Az@@ 139
DP 139
P.@@ 139
dia 139
edi@@ 139
ile 139
ish 139
und@@ 139
1300 138
134 138
153 138
3.0 138
58@@ 138
FS 138
Har@@ 138
Mag@@ 138
Mon@@ 138
PN@@ 138
UEFA 138
ase 138
lu@@ 138
mer@@ 138
un 138
166 137
1770 137
1801 137
1805 137
260 137
54@@ 137
68@@ 137
Go@@ 137
ME@@ 137
adi 137
ets 137
same 137
´ 137
खुला@@ 137
119 136
129 136
225 136
3.2 136
For 136
UM@@ 136
ī@@ 136
एयरलाइ@@ 136
157 135
28.@@ 135
74@@ 135
NH 135
Sal@@ 135
V6 135
YouTube 135
ain 135
garh 135
mm 135
psychology 135
title 135
tor 135
इंजी@@ 135
कॉमे@@ 135
यादा@@ 135
ர@@ 135
1,3@@ 134
86@@ 134
888 134
Act 134
DS 134
First 134
GSM 134
Kan@@ 134
Oracle 134
RFC 134
ST 134
TE 134
hal@@ 134
ji 134
mass 134
uk@@ 134
सामू@@ 134
1824 133
3D 133
Str@@ 133
TV@@ 133
act 133
ants 133
arg@@ 133
cl@@ 133
ency 133
est@@ 133
ory 133
pal@@ 133
sc@@ 133
आलो@@ 133
सिफ@@ 133
য 133
1846 132
98@@ 132
Rh@@ 132
about 132
em 132
esis 132
ks 132
log@@ 132
ong@@ 132
ot 132
que 132
st 132
ue 132
uri 132
wa 132
ंने 132
चेता@@ 132
ো@@ 132
143 131
149 131
340 131
ABC 131
AF 131
AI 131
Bot 131
eng@@ 131
non 131
pedi@@ 131
ure 131
wiki@@ 131
नुक@@ 131
॓ 131
1707 130
235 130
DR@@ 130
Group 130
IATA 130
IBM 130
ICAO 130
ane 130
cu@@ 130
her@@ 130
hu@@ 130
ma@@ 130
ud@@ 130
151 129
1799 129
1833 129
1841 129
202 129
RO@@ 129
ion 129
ni 129
people 129
ऑन@@ 129
बंगा@@ 129
1,9@@ 128
182 128
2,0@@ 128
3.3 128
AB 128
La 128
Lee 128
NT 128
Ver@@ 128
XX@@ 128
ass@@ 128
att@@ 128
son 128
कैथो@@ 128
भाँ@@ 128
156 127
1826 127
205 127
23,@@ 127
AG 127
AL 127
GA 127
RT@@ 127
SAT 127
based 127
color 127
electric 127
iv@@ 127
pp@@ 127
ran@@ 127
through 127
158 126
64@@ 126
IB@@ 126
PL@@ 126
cur@@ 126
gi@@ 126
om 126
ps 126
अधिक@@ 126
नशिप 126
159 125
1775 125
1806 125
1814 125
7000 125
DNS 125
FO@@ 125
IR@@ 125
MO@@ 125
called 125
iy@@ 125
pat@@ 125
three 125
tions 125
117@@ 124
18,@@ 124
Technology 124
adi@@ 124
bu@@ 124
ca 124
ip@@ 124
known 124
ozo@@ 124
pu@@ 124
वजन@@ 124
ED@@ 123
EMI 123
Si@@ 123
XP 123
bl@@ 123
ill@@ 123
ker 123
ler 123
ley 123
ora 123
process 123
second 123
º 123
मुसल@@ 123
4.2 122
978 122
ba@@ 122
ect 122
ection 122
els 122
equ@@ 122
ev@@ 122
there 122
would 122
सोलह@@ 122
1,7@@ 121
163 121
1750 121
1852 121
370 121
ME 121
back 121
bul@@ 121
ness 121
ular 121
139 120
1825 120
9,000 120
Dev@@ 120
ail 120
au 120
ek@@ 120
ids 120
king 120
oid 120
172 119
640 119
DL@@ 119
Pakistan 119
Singh 119
Trans@@ 119
WA 119
ality 119
chrom@@ 119
ee 119
inal 119
oh@@ 119
pa 119
tel@@ 119
ung@@ 119
way 119
नात@@ 119
′ 119
164 118
1793 118
211 118
AR 118
F1 118
LO@@ 118
MP 118
PC@@ 118
aon 118
each 118
eth@@ 118
film 118
indi@@ 118
our 118
ri 118
½ 118
डिजि@@ 118
1834 117
2.7 117
400@@ 117
DS@@ 117
IX 117
NE@@ 117
Res@@ 117
San 117
af@@ 117
ser@@ 117
sol@@ 117
tor@@ 117
पसं@@ 117
सेक@@ 117
த@@ 117
1761 116
1836 116
2,500 116
An 116
Corporation 116
Do@@ 116
Lo@@ 116
amb@@ 116
aya 116
har 116
like 116
micro@@ 116
och@@ 116
width 116
महमू@@ 116
ర@@ 116
192 115
Av@@ 115
EF@@ 115
So@@ 115
ain@@ 115
air 115
kar 115
် 115
0.4 114
0.7 114
147 114
195 114
20,@@ 114
256 114
500@@ 114
79@@ 114
Hu@@ 114
RAM 114
fl@@ 114
ib@@ 114
iz@@ 114
mal@@ 114
ow@@ 114
ंडिया 114
আ@@ 114
0.6 113
168 113
169 113
1776 113
1783 113
1821 113
1831 113
3- 113
3.4 113
3.6 113
EC@@ 113
Long@@ 113
PR@@ 113
both 113
distance 113
hat@@ 113
new 113
prot@@ 113
बंधीय 113
প@@ 113
114@@ 112
1792 112
1829 112
212 112
217 112
77@@ 112
9000 112
99@@ 112
BD 112
DE 112
EC 112
He@@ 112
LAN 112
MHz 112
State 112
cap@@ 112
common 112
during 112
enti@@ 112
esh 112
im 112
ium 112
lin@@ 112
loc@@ 112
ole 112
oth@@ 112
1.9 111
161 111
Bas@@ 111
DV@@ 111
EG 111
H2@@ 111
Inc. 111
Pre@@ 111
Sur@@ 111
ab 111
dh@@ 111
fr@@ 111
ling 111
net 111
these 111
under 111
0.3 110
167 110
1765 110
188 110
19,@@ 110
203 110
206 110
3G 110
4- 110
999 110
EN@@ 110
San@@ 110
ann@@ 110
day 110
dec@@ 110
ding 110
less 110
mi@@ 110
partic@@ 110
ster 110
und 110
1526 109
1772 109
30.@@ 109
4.0 109
BO@@ 109
CBS 109
D. 109
Is@@ 109
Last 109
M. 109
XI 109
fer@@ 109
gu@@ 109
ies 109
sur@@ 109
then 109
tional 109
ר@@ 109
नीदर@@ 109
ारिज 109
● 109
150@@ 108
1804 108
1827 108
1828 108
2.8 108
AF@@ 108
Apple 108
DM 108
Iglesia 108
MV 108
PT@@ 108
RN@@ 108
Sub@@ 108
Tar@@ 108
Val@@ 108
complex 108
cy@@ 108
ial 108
method 108
mod@@ 108
news 108
nm 108
order 108
sin@@ 108
super@@ 108
ulation 108
work 108
मोबा@@ 108
सोड 108
1773 107
1812 107
300,000 107
480 107
84@@ 107
Des@@ 107
Hy@@ 107
Mor@@ 107
R.@@ 107
Samsung 107
ans@@ 107
aur 107
code 107
include 107
met@@ 107
pol@@ 107
pur@@ 107
spec@@ 107
ther@@ 107
year 107
σ 107
1823 106
365 106
60,000 106
Mac@@ 106
No@@ 106
Ta@@ 106
Temple 106
We@@ 106
air@@ 106
du@@ 106
ever 106
gan@@ 106
min@@ 106
out@@ 106
red 106
tra 106
ual 106
± 106
सहम@@ 106
ு@@ 106
162 105
1764 105
1788 105
1816 105
204 105
420 105
Char@@ 105
Nar@@ 105
Ni@@ 105
Sony 105
States 105
acy 105
ages 105
ard 105
cat@@ 105
circuit 105
ely 105
int 105
istic 105
ography 105
phy@@ 105
rec@@ 105
ug@@ 105
wor@@ 105
थिये@@ 105
विटा@@ 105
सामु@@ 105
জ@@ 105
1780 104
1790 104
1798 104
250,000 104
85@@ 104
87@@ 104
College 104
H2O 104
Khan 104
One 104
Ur@@ 104
constant 104
fe@@ 104
ng@@ 104
phot@@ 104
public@@ 104
ste@@ 104
using 104
विधे@@ 104
হ@@ 104
ಾ@@ 104
1,200 103
1774 103
2.6 103
AIDS 103
Category 103
FC 103
IE@@ 103
Mc@@ 103
RT 103
TP 103
Ter@@ 103
ax@@ 103
ell 103
ge 103
years 103
� 103
22,@@ 102
39.@@ 102
4.1 102
5.0 102
6.2 102
Ag@@ 102
C. 102
E. 102
Gr@@ 102
Im@@ 102
LP 102
North 102
U.@@ 102
del 102
ential 102
ff@@ 102
ging 102
hin@@ 102
ise 102
ou@@ 102
period 102
radi@@ 102
south 102
va 102
wave 102
بن 102
वीप@@ 102
हथिय@@ 102
ਾ@@ 102
1757 101
1784 101
181 101
PR 101
Pi@@ 101
ROM 101
ali@@ 101
ap 101
area 101
ber@@ 101
high 101
ko 101
north 101
numbers 101
￼ 101
38.@@ 100
Association 100
CF@@ 100
DI 100
Gar@@ 100
ICC 100
J. 100
LE@@ 100
PH@@ 100
Ser@@ 100
ick@@ 100
ly@@ 100
ogen@@ 100
ung 100
yn@@ 100
नामां@@ 100
ാ@@ 100
178 99
1795 99
245 99
By 99
CI 99
Central 99
SR@@ 99
VII 99
Web 99
XX 99
ales 99
cal 99
des@@ 99
han@@ 99
mu@@ 99
off 99
si 99
चंडी@@ 99
0.8 98
113@@ 98
183 98
215 98
37.@@ 98
88@@ 98
All 98
CS 98
I.@@ 98
Indi@@ 98
To@@ 98
atr@@ 98
ba 98
change 98
ella 98
enc@@ 98
ess@@ 98
inf@@ 98
low 98
0,0@@ 97
192@@ 97
3.7 97
4.4 97
Gu@@ 97
IG@@ 97
PP@@ 97
SR 97
Society 97
ach 97
book@@ 97
das 97
der@@ 97
ey 97
kr@@ 97
list 97
ode 97
unit 97
θ 97
110@@ 96
1556 96
177 96
1802 96
184 96
193@@ 96
4.3 96
Co 96
EP 96
ET 96
MI 96
PV 96
SL@@ 96
den 96
mag@@ 96
the@@ 96
them 96
ture 96
तमिल@@ 96
1760 95
221 95
28,@@ 95
5.2 95
Ban@@ 95
Er@@ 95
HC 95
Hal@@ 95
The@@ 95
ao 95
han 95
heat 95
ht@@ 95
ili@@ 95
inc@@ 95
mat@@ 95
minor 95
oma 95
ox@@ 95
ua 95
पसी 95
ம@@ 95
1822 94
195@@ 94
3500 94
6.0 94
SH@@ 94
School 94
Siemens 94
Sol@@ 94
T. 94
cos@@ 94
ef@@ 94
equation 94
ides 94
imp@@ 94
key 94
lam@@ 94
pressure 94
uc@@ 94
धारण@@ 94
यापार@@ 94
ల@@ 94
ರ@@ 94
193 93
232 93
25,@@ 93
310 93
Bhar@@ 93
CV 93
DT 93
EM@@ 93
Mi@@ 93
Mu@@ 93
V8 93
ake 93
cell 93
det@@ 93
made 93
ota 93
pan@@ 93
poly@@ 93
sive 93
systems 93
tion@@ 93
tur@@ 93
γ 93
हमे@@ 93
171 92
176 92
1787 92
2,8@@ 92
265 92
36,@@ 92
Bh@@ 92
Council 92
DO@@ 92
Development 92
Great 92
Hol@@ 92
PG 92
R. 92
Social 92
VI@@ 92
ani@@ 92
book 92
ds 92
fo@@ 92
led 92
neur@@ 92
side 92
tom@@ 92
top 92
« 92
é 92
मचार@@ 92
सऊ@@ 92
179 91
26,@@ 91
275 91
3,0@@ 91
5.6 91
99.@@ 91
AX 91
Can@@ 91
E.@@ 91
EU 91
Mot@@ 91
S. 91
William 91
acid 91
act@@ 91
ato 91
chi 91
district 91
gener@@ 91
ke@@ 91
sam@@ 91
table 91
२००@@ 91
2,5@@ 90
227 90
48.@@ 90
95@@ 90
AE@@ 90
Ca@@ 90
Company 90
Em@@ 90
FIFA 90
H1 90
HT@@ 90
MB 90
Pe@@ 90
SB 90
Shar@@ 90
Sim@@ 90
ga 90
ini 90
life 90
my 90
tan@@ 90
ऋ 90
1813 89
24,@@ 89
3.8 89
325 89
69@@ 89
ER 89
ML@@ 89
SD 89
Sanc@@ 89
asa 89
being 89
cin@@ 89
cre@@ 89
ek 89
ita 89
iti@@ 89
itis 89
place 89
plas@@ 89
sa@@ 89
sw@@ 89
tric 89
ి@@ 89
1540 88
173 88
250@@ 88
3,7@@ 88
35.@@ 88
404 88
5.1 88
B. 88
Bur@@ 88
General 88
Ma 88
ax 88
fi@@ 88
given 88
my@@ 88
part 88
pe 88
ren@@ 88
rom@@ 88
א@@ 88
बिनेट 88
बीका@@ 88
ச@@ 88
ക@@ 88
1550 87
1763 87
1785 87
5.4 87
AG@@ 87
Elec@@ 87
GNU 87
Her@@ 87
Ho@@ 87
K. 87
Red@@ 87
Science 87
Tel@@ 87
UI 87
West 87
alis 87
ays 87
co 87
development 87
ga@@ 87
km2 87
men 87
product 87
self 87
ub@@ 87
yan@@ 87
ँकि 87
दूता@@ 87
ী 87
ப@@ 87
1620 86
174 86
1807 86
1809 86
194 86
196@@ 86
2,9@@ 86
226 86
400,000 86
Ber@@ 86
Dr@@ 86
London 86
Plan@@ 86
cc 86
company 86
dar 86
example 86
following 86
if@@ 86
iri 86
taya 86
ō@@ 86
ऴ 86
ॊ 86
ા@@ 86
ར@@ 86
10000 85
1756 85
1810 85
208 85
222 85
4.6 85
5- 85
BL 85
CL 85
Chinese 85
Cy@@ 85
GI 85
GR@@ 85
Gal@@ 85
LLC 85
MT@@ 85
SMS 85
SN@@ 85
Server 85
WW@@ 85
class 85
dic@@ 85
electr@@ 85
space 85
wh@@ 85
मुता@@ 85
वाभा@@ 85
ਸ@@ 85
07@@ 84
1782 84
199 84
239 84
290 84
BP 84
CR 84
ECW 84
Es@@ 84
Gan@@ 84
History 84
Linux 84
Mak@@ 84
Prot@@ 84
Publ@@ 84
VC 84
Year 84
anti 84
arch@@ 84
ast 84
atom@@ 84
ice 84
ization 84
over@@ 84
sil@@ 84
tag@@ 84
tem@@ 84
ten@@ 84
tors 84
tro@@ 84
very 84
ye 84
yp@@ 84
अनुया@@ 84
2.9 83
243 83
27,@@ 83
630 83
C.@@ 83
Mand@@ 83
NBA 83
OR@@ 83
Psych@@ 83
Pur@@ 83
Sah@@ 83
Ti@@ 83
Union 83
bre@@ 83
cal@@ 83
champ 83
effect 83
ki@@ 83
later 83
ocene 83
ond@@ 83
orr@@ 83
real 83
section 83
ula 83
ush@@ 83
yo@@ 83
you 83
यावसा@@ 83
■ 83
0.9 82
1660 82
194@@ 82
29,@@ 82
47.@@ 82
5.3 82
AH 82
Ak@@ 82
Dynasty 82
East 82
GO@@ 82
Gl@@ 82
Life 82
MT 82
N1 82
P. 82
SM@@ 82
TT 82
UTC 82
XML 82
ace 82
atus 82
can@@ 82
ese 82
free 82
human 82
igh@@ 82
kg 82
long 82
nucle@@ 82
onal 82
phase 82
small 82
tes 82
we@@ 82
while 82
শ@@ 82
1748 81
1791 81
1794 81
191 81
305 81
32.@@ 81
5,0@@ 81
6.1 81
BT 81
Bel@@ 81
Book 81
China 81
Det@@ 81
ES 81
Mes@@ 81
app@@ 81
base 81
bin@@ 81
cells 81
ean 81
ens@@ 81
ft 81
gas 81
hol@@ 81
ick 81
ius 81
near 81
ov 81
oz@@ 81
quanti@@ 81
sions 81
surface 81
ts@@ 81
ɛ@@ 81
औपनिवे@@ 81
দ 81
৷ 81
130@@ 80
1536 80
196 80
2nd 80
530 80
Air 80
Ba@@ 80
DB@@ 80
Day 80
FM 80
Health 80
High 80
Ko@@ 80
Law 80
ML 80
Mer@@ 80
Pol@@ 80
Rec@@ 80
Tit@@ 80
ame 80
ature 80
ema 80
induc@@ 80
ites 80
lat@@ 80
ner@@ 80
ome@@ 80
public 80
rot@@ 80
tage 80
une 80
ut 80
ā 80
आरं@@ 80
ਰ@@ 80
வ@@ 80
150,000 79
207 79
228 79
238 79
2O@@ 79
302 79
4,0@@ 79
560 79
950 79
API 79
CPU 79
James 79
King 79
Pres@@ 79
RCA 79
TH@@ 79
Vol@@ 79
Yam@@ 79
You 79
alg@@ 79
ama 79
aria 79
ats 79
ce 79
city 79
etic 79
fac@@ 79
gh@@ 79
nom@@ 79
odi@@ 79
onic 79
yc@@ 79
গ@@ 79
ര@@ 79
1605 78
1739 78
198@@ 78
21,@@ 78
214 78
233 78
3.9 78
301 78
303 78
96@@ 78
Black 78
Li@@ 78
Music 78
NA@@ 78
PI 78
Santa 78
asi@@ 78
ast@@ 78
bal@@ 78
century 78
control 78
elec@@ 78
functions 78
has@@ 78
ich@@ 78
io 78
lab@@ 78
science 78
sin 78
source 78
tal@@ 78
tar@@ 78
ters 78
za 78
दैव 78
ਿ@@ 78
ി@@ 78
1740 77
189 77
198 77
1st 77
2,7@@ 77
234 77
AE 77
EV@@ 77
GHz 77
HD@@ 77
IA@@ 77
Island 77
Kam@@ 77
Kingdom 77
Mur@@ 77
Ran@@ 77
case 77
ce@@ 77
different 77
ez@@ 77
flu@@ 77
hom@@ 77
lan@@ 77
ments 77
osa 77
reg@@ 77
yr@@ 77
ে 77
180@@ 76
197 76
2030 76
218 76
375 76
At@@ 76
DL 76
DOS 76
FF 76
H. 76
Ha@@ 76
IN 76
UL@@ 76
anga 76
cas@@ 76
down 76
ery 76
found 76
ire 76
mal 76
mg 76
ok 76
page 76
social 76
sources 76
temperature 76
wan@@ 76
ंडेशन 76
वारिक 76
চ@@ 76
31@@ 75
7.2 75
Ga@@ 75
IL 75
LT@@ 75
Lin@@ 75
Op@@ 75
SEC 75
ZA 75
ators 75
aus@@ 75
cul@@ 75
electron 75
ena 75
gen 75
ide 75
por@@ 75
tim@@ 75
» 75
ū@@ 75
מ@@ 75
ང 75
1768 74
1778 74
216 74
241 74
244 74
At 74
IO@@ 74
N.@@ 74
Nu@@ 74
aha 74
cycle 74
emb@@ 74
ola 74
tha 74
ə 74
ऍ 74
ன 74
ు@@ 74
ོ@@ 74
.1 73
0.0@@ 73
1786 73
1797 73
1808 73
186 73
2,6@@ 73
209 73
237 73
273 73
660 73
737 73
8.1 73
CT@@ 73
Cap@@ 73
Cer@@ 73
EL@@ 73
Foundation 73
George 73
KP 73
Met@@ 73
Power 73
To 73
War@@ 73
alp@@ 73
analysis 73
cer@@ 73
ements 73
family 73
ida 73
ines 73
ja 73
kal@@ 73
m2 73
map@@ 73
mtDNA 73
ona 73
points 73
return 73
sing@@ 73
standard 73
una 73
word 73
ye@@ 73
ী@@ 73
1530 72
187 72
223 72
251 72
286 72
307 72
322 72
33.@@ 72
34,@@ 72
4.9 72
5.8 72
777 72
89@@ 72
97@@ 72
Aj@@ 72
Bah@@ 72
GT 72
Medical 72
Peri@@ 72
Pl@@ 72
Sir 72
Sir@@ 72
aka 72
ars 72
background 72
fin@@ 72
head 72
ih@@ 72
information 72
ized 72
mot@@ 72
ock 72
pos@@ 72
position 72
region 72
tec@@ 72
tw@@ 72
uru 72
wara 72
الله 72
रासाय@@ 72
ি 72
ಿ@@ 72
248 71
44.@@ 71
540 71
BI 71
CAM 71
DB 71
David 71
Ds 71
EP@@ 71
Far@@ 71
GC 71
Gen@@ 71
Min@@ 71
Mul@@ 71
Sanskrit 71
Space 71
ail@@ 71
amework 71
ams 71
ey@@ 71
hat 71
illa 71
lar@@ 71
lie 71
mus@@ 71
onom@@ 71
ori 71
परिव@@ 71
ত 71
7- 70
79.@@ 70
94@@ 70
ANC 70
CN 70
Centre 70
DD 70
Is 70
MIT 70
Mus@@ 70
Open@@ 70
Proc@@ 70
Robert 70
alme 70
ard@@ 70
aur@@ 70
ber 70
eli@@ 70
identity 70
ju@@ 70
la@@ 70
ratio 70
river 70
single 70
those 70
ume 70
unc@@ 70
version 70
x86 70
ying 70
ym@@ 70
μ@@ 70
बात@@ 70
224 69
309 69
Bor@@ 69
CY@@ 69
District 69
Earth 69
Fe 69
House 69
However 69
Information 69
JP 69
KO 69
MA@@ 69
Man 69
Mos@@ 69
N. 69
Nap@@ 69
Pradesh 69
TO@@ 69
Tal@@ 69
aj 69
bs 69
bs@@ 69
ental 69
eri 69
kHz 69
level 69
mer 69
motion 69
old 69
reaction 69
row 69
run 69
sph@@ 69
star 69
ul 69
yst@@ 69
ה@@ 69
محمد 69
अयो@@ 69
खाबाद 69
‚ 69
1658 68
1689 68
1699 68
1759 68
1767 68
219 68
236 68
266 68
410 68
430 68
69.@@ 68
Chi@@ 68
EE 68
List 68
MGM 68
NS 68
No 68
See 68
Wildlife 68
asp@@ 68
ble 68
bur@@ 68
fication 68
go 68
mah@@ 68
mel@@ 68
mp@@ 68
rule 68
ry 68
uk 68
ves 68
ys 68
ys@@ 68
नुष 68
য@@ 68
1720 67
1769 67
2100 67
213 67
231 67
247 67
262 67
356 67
36.@@ 67
37,@@ 67
570 67
6.6 67
610 67
BSD 67
CIA 67
City 67
Delhi 67
Dr. 67
H2 67
HP 67
Hel@@ 67
Jag@@ 67
Kol@@ 67
Office 67
Park 67
Por@@ 67
Some 67
Ther@@ 67
UFC 67
Vi@@ 67
WD 67
active 67
before 67
char@@ 67
cular 67
ded 67
del@@ 67
den@@ 67
ective 67
frequency 67
hr@@ 67
ils 67
linear 67
much 67
nu 67
our@@ 67
properties 67
ro 67
ses 67
ship 67
चीत 67
सनिक 67
మ@@ 67
မ@@ 67
.S. 66
0s 66
1545 66
1680 66
1729 66
1752 66
1766 66
252 66
35,@@ 66
510 66
625 66
A1 66
COM 66
Charles 66
Cop@@ 66
Cu@@ 66
DO 66
England 66
GN@@ 66
Gh@@ 66
Le 66
Plus 66
Tur@@ 66
aries 66
ass 66
device 66
e.g. 66
emia 66
hiv@@ 66
ine@@ 66
ll 66
mis@@ 66
multi@@ 66
ning 66
peri@@ 66
plat@@ 66
root 66
she 66
sk@@ 66
sy@@ 66
test 66
uses 66
ē@@ 66
ō 66
सोसाइ@@ 66
1690 65
1781 65
30,@@ 65
34.@@ 65
520 65
7.3 65
Bu@@ 65
Equ@@ 65
Kat@@ 65
Live 65
Ltd 65
PD 65
Pro 65
Service 65
ae@@ 65
anc@@ 65
calcul@@ 65
chi@@ 65
conver@@ 65
ensis 65
hem@@ 65
hindi 65
how 65
ika 65
int@@ 65
isi@@ 65
long@@ 65
magnetic 65
mes@@ 65
other@@ 65
phen@@ 65
pi 65
political 65
pura 65
scale 65
sch@@ 65
tis@@ 65
ـ@@ 65
धानिक 65
1650 64
1779 64
1811 64
285 64
304 64
333 64
335 64
4.8 64
6.7 64
7.1 64
Ang@@ 64
Army 64
D.@@ 64
DI@@ 64
DSM 64
Dhar@@ 64
FIA 64
French 64
Human 64
Ke@@ 64
OR 64
She 64
These 64
Tor@@ 64
Var@@ 64
ade 64
apo@@ 64
centr@@ 64
chemical 64
eum 64
form@@ 64
ham@@ 64
history 64
log 64
medi@@ 64
ocy@@ 64
sec@@ 64
ten 64
tia 64
true 64
umb@@ 64
ऑ 64
ऩ 64
ৰ@@ 64
ಕ@@ 64
‏ 64
1520 63
1580 63
1670 63
259 63
271 63
276 63
321 63
334 63
440 63
45.@@ 63
632 63
960 63
BAFTA 63
Ben@@ 63
CM 63
Code 63
Fl@@ 63
Global 63
HF 63
HR 63
ID@@ 63
Joseph 63
MG 63
Name 63
Network 63
Republic 63
Sea 63
Tir@@ 63
UT@@ 63
Xbox 63
above 63
ains 63
could 63
factor 63
hydro@@ 63
let 63
lic 63
major 63
mm@@ 63
nam 63
negative 63
net@@ 63
opo@@ 63
pel@@ 63
refl@@ 63
ver 63
what 63
ב@@ 63
ל@@ 63
वसीय 63
ল 63
ు 63
1610 62
1710 62
1728 62
1755 62
255 62
268 62
39,@@ 62
49.@@ 62
543 62
AK@@ 62
App@@ 62
Bre@@ 62
Center 62
EST 62
GT@@ 62
HA 62
His 62
IEC 62
IST 62
Lad@@ 62
Language 62
Road 62
Ros@@ 62
Sy@@ 62
Systems 62
Time 62
agne@@ 62
art 62
charge 62
comp@@ 62
endra 62
ep 62
four 62
house 62
hyper@@ 62
kan@@ 62
large 62
mor@@ 62
now 62
ny@@ 62
often 62
result 62
rit@@ 62
sson 62
ust 62
van@@ 62
vi 62
xi@@ 62
і@@ 62
वियत 62
ു@@ 62
.मी@@ 61
1527 61
1618 61
1724 61
1730 61
2050 61
229 61
323 61
326 61
460 61
911 61
Ash@@ 61
Bil@@ 61
CV@@ 61
Ed@@ 61
HS 61
Han@@ 61
Hem@@ 61
IUCN 61
Kur@@ 61
MR 61
Moh@@ 61
NR@@ 61
RE 61
Red 61
Shah@@ 61
Shr@@ 61
Theory 61
There 61
Thir@@ 61
another 61
arp@@ 61
axis 61
books 61
bus@@ 61
cogni@@ 61
dead 61
due 61
estr@@ 61
eus 61
fier 61
great 61
hab@@ 61
hum@@ 61
ill 61
je@@ 61
mo 61
oli 61
ote 61
positive 61
see 61
several 61
since 61
ster@@ 61
thr@@ 61
village 61
vis@@ 61
wan 61
ysis 61
ī 61
ɑ@@ 61
ृद 61
ి 61
― 61
242 60
31.@@ 60
319 60
324 60
5.9 60
6.8 60
B2 60
Bir@@ 60
Bl@@ 60
CH3 60
De 60
Eric@@ 60
European 60
Government 60
Kumar 60
Limited 60
Me 60
Mel@@ 60
Micro@@ 60
USD 60
VIII 60
War 60
acceler@@ 60
ami 60
anus 60
ash 60
es.@@ 60
ew@@ 60
ger 60
government 60
ham 60
home 60
international 60
ker@@ 60
mas@@ 60
rel@@ 60
ros@@ 60
tar 60
tivity 60
total 60
ules 60
yl 60
β@@ 60
، 60
ऒ@@ 60
ੰ@@ 60
ం@@ 60
త@@ 60
1250 59
1688 59
1749 59
1753 59
249 59
278 59
282 59
293 59
46.@@ 59
490 59
6.3 59
6.4 59
BF 59
CLC 59
Cam@@ 59
Cav@@ 59
Commission 59
DH@@ 59
Energy 59
Engineering 59
Fer@@ 59
Ford 59
From 59
G. 59
IL@@ 59
Ind@@ 59
Jo@@ 59
Jump 59
March 59
Out@@ 59
RIAA 59
RO 59
SH 59
SL 59
SM 59
T.@@ 59
TR@@ 59
White 59
XVI 59
acc@@ 59
ag 59
agram 59
anda 59
ayan 59
because 59
country 59
dig@@ 59
door 59
fil@@ 59
frame 59
general 59
ision 59
iv 59
ks@@ 59
les@@ 59
m.@@ 59
main 59
material 59
mic 59
music 59
oa 59
ori@@ 59
ou 59
phone 59
plane 59
pres@@ 59
scope 59
structure 59
under@@ 59
vo@@ 59
xx 59
ynam@@ 59
á@@ 59
1534 58
1703 58
1754 58
1796 58
188@@ 58
2025 58
281 58
295 58
3,5@@ 58
3,6@@ 58
311 58
32,@@ 58
57.@@ 58
680 58
Aer@@ 58
Archiv@@ 58
BCE 58
BR 58
British 58
C1 58
Cent@@ 58
Da@@ 58
Gor@@ 58
Gov@@ 58
Hor@@ 58
K.@@ 58
LG@@ 58
Pu@@ 58
Reg@@ 58
Sil@@ 58
Thomas 58
Ul@@ 58
alli 58
around 58
come 58
coun@@ 58
early 58
ering 58
etes 58
fied 58
final 58
geome@@ 58
hav@@ 58
including 58
ko@@ 58
mann 58
non@@ 58
of@@ 58
oil 58
ones 58
open 58
otic 58
rate 58
research 58
she@@ 58
software 58
ush 58
yu 58
മ@@ 58
★ 58
125@@ 57
1665 57
1758 57
246 57
257 57
258 57
294 57
312 57
328 57
355 57
415 57
525 57
6- 57
624 57
880 57
America 57
Chand@@ 57
Cre@@ 57
Education 57
Internet@@ 57
June 57
Mat@@ 57
Medi@@ 57
Media 57
ON@@ 57
Paul 57
RM 57
Ra@@ 57
She@@ 57
W. 57
ack@@ 57
andi@@ 57
anth@@ 57
dy 57
ech 57
hor@@ 57
ima 57
ira 57
iss@@ 57
ith@@ 57
kho@@ 57
must 57
natural 57
nuclear 57
object 57
ophy@@ 57
ost@@ 57
physical 57
port 57
pul@@ 57
ray 57
should 57
sing 57
sum 57
syn@@ 57
ute 57
vari@@ 57
won 57
yan 57
É@@ 57
धपुर 57
ਨ@@ 57
ட@@ 57
ల 57
1603 56
1627 56
274 56
306 56
313 56
345 56
384 56
386 56
4.7 56
470 56
760 56
980 56
Airport 56
Dar@@ 56
Force 56
Games 56
HO@@ 56
IU@@ 56
Intel 56
Khar@@ 56
Ki@@ 56
Kor@@ 56
MK 56
Maj@@ 56
Net@@ 56
Public 56
SF@@ 56
SU@@ 56
SV@@ 56
Syn@@ 56
Uni@@ 56
against 56
arr@@ 56
black 56
box 56
chem@@ 56
diff@@ 56
direct 56
ev 56
forces 56
gam@@ 56
industry 56
ised 56
mit@@ 56
modern 56
onlyinclude 56
oth 56
plan@@ 56
ples 56
potential 56
psych@@ 56
sel@@ 56
son@@ 56
states 56
sul@@ 56
thi 56
til@@ 56
ton@@ 56
variable 56
without 56
ʲ@@ 56
रारं@@ 56
ਹ@@ 56
క@@ 56
ಮ@@ 56
007 55
129@@ 55
1325 55
1517 55
1533 55
1648 55
1704 55
1713 55
308 55
390 55
4500 55
9.5 55
AST 55
Bag@@ 55
Brah@@ 55
Business 55
ET@@ 55
Facebook 55
Green 55
HBO 55
HTTP 55
Hydro@@ 55
Kot@@ 55
L. 55
MR@@ 55
Mac 55
Management 55
My 55
NAS@@ 55
PL 55
Pa@@ 55
Sem@@ 55
Series 55
Visual 55
Vo@@ 55
Wor@@ 55
alization 55
andi 55
aph@@ 55
asis 55
atory 55
cel@@ 55
cho@@ 55
com 55
conduc@@ 55
course 55
disease 55
dit 55
education 55
emis@@ 55
emp@@ 55
eng 55
ger@@ 55
him@@ 55
ik 55
ogr@@ 55
oning 55
ose 55
own 55
published 55
range 55
rati@@ 55
search 55
species 55
tan 55
term 55
therapy 55
trum 55
uv@@ 55
vector 55
zo@@ 55
हांग@@ 55
୍ 55
న@@ 55
བ@@ 55
1531 54
1542 54
1555 54
1630 54
1708 54
1725 54
254 54
283 54
287 54
327 54
840 54
August 54
Bay 54
Dig@@ 54
EA 54
EX@@ 54
F. 54
Fil@@ 54
Gang@@ 54
Gi@@ 54
If 54
Long 54
Multi@@ 54
NASA 54
Poly@@ 54
Pul@@ 54
Raw@@ 54
Royal 54
Tam@@ 54
Ven@@ 54
Western 54
absor@@ 54
assi@@ 54
bank 54
bil@@ 54
cm 54
eous 54
even 54
gar@@ 54
ges 54
ight 54
ku@@ 54
last 54
mean 54
media 54
nature 54
ple@@ 54
rap@@ 54
sar@@ 54
sem@@ 54
val@@ 54
view 54
wal 54
women 54
à@@ 54
ক 54
ம 54
ல@@ 54
ས@@ 54
ṭ@@ 54
1316 53
1518 53
2024 53
253 53
263 53
272 53
288 53
331 53
343 53
368 53
580 53
620 53
88.@@ 53
ATA 53
AU 53
April 53
B1 53
Cas@@ 53
Cur@@ 53
Del@@ 53
Fi@@ 53
HM 53
I. 53
Jean 53
MW 53
Mathemati@@ 53
Middle 53
Project 53
Records 53
Region 53
Sab@@ 53
Sr@@ 53
Sud@@ 53
TT@@ 53
Web@@ 53
aa 53
ace@@ 53
bar 53
blog@@ 53
bon 53
ching 53
cross 53
d.@@ 53
ech@@ 53
eo 53
err@@ 53
ex 53
ful 53
lig@@ 53
nic@@ 53
path@@ 53
php 53
prec@@ 53
property 53
rpm 53
sp 53
stage 53
team 53
terms 53
times 53
trig@@ 53
tube 53
ven@@ 53
æ 53
ð 53
ָ@@ 53
कारात 53
दमी 53
મ@@ 53
ய@@ 53
గ@@ 53
ನ@@ 53
1564 52
1640 52
1659 52
1751 52
1777 52
197@@ 52
3,8@@ 52
58.@@ 52
600@@ 52
Academy 52
CH 52
CoV 52
Court 52
ED 52
Edward 52
FF@@ 52
France 52
ISA 52
IV@@ 52
La@@ 52
Lake 52
Other 52
Pen@@ 52
Ps 52
Sav@@ 52
Soci@@ 52
Standard 52
Vista 52
allo@@ 52
among 52
ava 52
ban@@ 52
coordin@@ 52
cs 52
def@@ 52
esti@@ 52
eta 52
had@@ 52
hu 52
index 52
land@@ 52
lines 52
mati@@ 52
mium 52
mol 52
nor@@ 52
play 52
quality 52
qui@@ 52
said 52
sor@@ 52
stone 52
support 52
sym@@ 52
technology 52
uli 52
uli@@ 52
¤ 52
§ 52
ð@@ 52
मुंगे@@ 52
ప@@ 52
ག@@ 52
″ 52
1320 51
1450 51
1528 51
1543 51
1598 51
1612 51
1743 51
1762 51
2,4@@ 51
2200 51
292 51
344 51
352 51
50.@@ 51
870 51
BR@@ 51
Bad@@ 51
Baz@@ 51
CB@@ 51
EN 51
GS 51
Hind@@ 51
Je@@ 51
July 51
Kas@@ 51
L.@@ 51
Mil@@ 51
NI@@ 51
Na 51
PE 51
Pri@@ 51
Rel@@ 51
Sad@@ 51
Sw@@ 51
UN 51
XIV 51
XV 51
aci@@ 51
ais@@ 51
aja 51
ana@@ 51
auri 51
average 51
best 51
bit@@ 51
crip@@ 51
din 51
ebo@@ 51
ect@@ 51
face 51
forms 51
ion@@ 51
itude 51
ky 51
lands 51
make 51
metal 51
obi@@ 51
oscop@@ 51
physics 51
pin@@ 51
present 51
san@@ 51
sine 51
specific 51
tiv@@ 51
tre@@ 51
wood 51
ε 51
पिथो@@ 51
ম 51
ਮ@@ 51
√ 51
▪ 51
.C. 50
1492 50
1661 50
1702 50
1771 50
189@@ 50
3,9@@ 50
377 50
5.7 50
628 50
670 50
Bank 50
C2 50
CG 50
Catedral 50
IF 50
Internet 50
Mir@@ 50
Nam@@ 50
PO 50
Pas@@ 50
Sciences 50
Studies 50
Super 50
Super@@ 50
TCP 50
V. 50
VA 50
Vir@@ 50
Vis@@ 50
Wil@@ 50
Wy@@ 50
alan 50
ark@@ 50
back@@ 50
ces 50
did 50
enn@@ 50
eti@@ 50
expon@@ 50
features 50
fre@@ 50
get 50
ide@@ 50
important 50
inn@@ 50
kot 50
learning 50
lied 50
mission 50
oni 50
org@@ 50
rut@@ 50
short 50
sim@@ 50
stat@@ 50
tica 50
von 50
yg@@ 50
ze 50
ه 50
ধ@@ 50
ভ@@ 50
ವ@@ 50
1505 49
1506 49
1541 49
1631 49
1715 49
1719 49
1722 49
1727 49
184@@ 49
261 49
279 49
284 49
354 49
512 49
622 49
661 49
787 49
AND 49
Ali 49
Android 49
BM 49
Bab@@ 49
Bak@@ 49
Bud@@ 49
Canada 49
Cat@@ 49
DF 49
Ger@@ 49
German 49
IEEE 49
LD 49
Land 49
Ly@@ 49
Meth@@ 49
October 49
Of 49
Old 49
Pap@@ 49
Ri@@ 49
Sat@@ 49
Sho@@ 49
Sin@@ 49
ack 49
ads 49
alm@@ 49
ano 49
beam 49
bor@@ 49
c.@@ 49
computer 49
dat@@ 49
double 49
dy@@ 49
ects 49
equal 49
fact 49
immun@@ 49
inae 49
isa 49
numer@@ 49
ories 49
pedia 49
principle 49
radiation 49
ree 49
sh 49
square 49
sti@@ 49
study 49
white 49
І 49
נ@@ 49
तरीन 49
दूस@@ 49
ಿ 49
ು@@ 49
വ@@ 49
ས 49
း@@ 49
09@@ 48
1638 48
1666 48
1672 48
297 48
405 48
411 48
50,@@ 48
505 48
627 48
780 48
930 48
970 48
Board 48
Bol@@ 48
Dec@@ 48
Egypt 48
Gur@@ 48
Henry 48
IR 48
Jur@@ 48
Kad@@ 48
Oc@@ 48
PM@@ 48
Pa 48
Pale@@ 48
SK@@ 48
Son@@ 48
Station 48
Ste@@ 48
Sum@@ 48
Sun@@ 48
Ty@@ 48
WH@@ 48
amm@@ 48
arm@@ 48
dium 48
eli 48
eth 48
ference 48
ford 48
gl@@ 48
hand 48
hydr@@ 48
ically 48
ila 48
ili 48
image 48
kin@@ 48
kl@@ 48
kum@@ 48
lo 48
mathemati@@ 48
mol@@ 48
na@@ 48
oni@@ 48
ons@@ 48
oo 48
orph@@ 48
ots 48
plac@@ 48
quar@@ 48
run@@ 48
sal@@ 48
sen 48
sv@@ 48
third 48
ths 48
tin 48
ty@@ 48
ulus 48
values 48
vas@@ 48
zy@@ 48
í@@ 48
ω 48
ּ@@ 48
ੀ 48
ி 48
జ@@ 48
ိ@@ 48
ြ@@ 48
1350 47
1453 47
1572 47
1576 47
1632 47
1718 47
267 47
291 47
315 47
353 47
403 47
656 47
711 47
740 47
Ar 47
CF 47
Du@@ 47
Jam@@ 47
January 47
Ka@@ 47
Krish@@ 47
L2 47
Lak@@ 47
Location 47
Louis 47
Non 47
PAC 47
Pad@@ 47
Pakistani 47
Pras@@ 47
SF 47
Sang@@ 47
Sing@@ 47
Spec@@ 47
Sudan 47
Ten@@ 47
Test 47
Tu@@ 47
WT@@ 47
When 47
ampli@@ 47
asi 47
below 47
born 47
business 47
cha 47
cro@@ 47
ected 47
food 47
ged 47
gi 47
half 47
itation 47
ities 47
ler@@ 47
lia 47
los@@ 47
op 47
organic 47
original 47
others 47
output 47
pil@@ 47
ption 47
quantum 47
take 47
took 47
tree 47
ust@@ 47
zero 47
ɔ@@ 47
ɡ@@ 47
ʁ@@ 47
Δ 47
י 47
कायम@@ 47
ོ 47
1504 46
1535 46
1628 46
1642 46
1652 46
1667 46
1734 46
1744 46
20th 46
2600 46
269 46
289 46
2A 46
336 46
342 46
544 46
814 46
After 46
Asia 46
Cin@@ 46
Cro@@ 46
Dom@@ 46
Dur@@ 46
E9E9E9 46
GO 46
Jan@@ 46
Library 46
MD 46
Mach@@ 46
Men@@ 46
Mobile 46
People 46
SARS 46
Services 46
Sid@@ 46
aga 46
ago 46
ances 46
ania 46
article 46
astic 46
bi 46
blood 46
board 46
bridge 46
ches 46
contr@@ 46
duction 46
engineering 46
eral 46
having 46
hyp@@ 46
iPhone 46
ich 46
istics 46
iti 46
kW 46
management 46
men@@ 46
million 46
motor 46
ney 46
ols 46
ope 46
oper@@ 46
pa@@ 46
pen@@ 46
ple 46
population 46
propor@@ 46
quot 46
sil 46
soci@@ 46
syl@@ 46
symbol 46
trac@@ 46
tural 46
ــــ@@ 46
नवं@@ 46
ॿ@@ 46
ਤ@@ 46
ர 46
ಂ@@ 46
ུ@@ 46
1451 45
1558 45
1560 45
1606 45
170@@ 45
1716 45
1745 45
185@@ 45
298 45
332 45
395 45
89.@@ 45
Bih@@ 45
Church 45
Economic 45
FP 45
FT 45
God 45
HI 45
Index 45
Lord 45
MK@@ 45
MO 45
NWA 45
ODI 45
OE@@ 45
Os@@ 45
RF 45
Richard 45
Screen 45
Sen@@ 45
Sul@@ 45
Tamil 45
Wh@@ 45
Yol@@ 45
York 45
af 45
aff@@ 45
aji 45
ancy 45
andra 45
ards 45
athi 45
atti 45
bel@@ 45
dem@@ 45
design 45
dev@@ 45
differenti@@ 45
dys@@ 45
ector 45
elle 45
eme 45
engine 45
full 45
gal@@ 45
graphy 45
hur@@ 45
idea 45
ider@@ 45
input 45
inst@@ 45
magnitude 45
med@@ 45
national 45
nav@@ 45
ont@@ 45
osph@@ 45
phil@@ 45
phon@@ 45
rd 45
thus 45
trade 45
uma 45
unger 45
uni@@ 45
ures 45
var@@ 45
vers 45
ville 45
wal@@ 45
within 45
ʊ@@ 45
области 45
ש@@ 45
ং@@ 45
వ@@ 45
1303 44
1596 44
1597 44
1611 44
1624 44
1644 44
1671 44
1709 44
1717 44
317 44
391 44
501 44
565 44
590 44
All@@ 44
Also 44
Arch@@ 44
Award 44
BAS@@ 44
Cir@@ 44
El 44
Euler 44
Fin@@ 44
Jal@@ 44
Journal 44
Kir@@ 44
LV 44
Lab@@ 44
Les 44
Phot@@ 44
RB 44
RD 44
Sag@@ 44
Security 44
Sri 44
UV 44
Us 44
Vari@@ 44
Water 44
YG 44
ables 44
actions 44
any@@ 44
ayat 44
condition 44
critical 44
defined 44
dir 44
electro@@ 44
elements 44
ette 44
event 44
ho 44
i.@@ 44
itor 44
length 44
map 44
match 44
matter 44
mechan@@ 44
medium 44
onia 44
pole 44
products 44
put@@ 44
quadr@@ 44
size 44
sus 44
ural 44
verse 44
ה 44
ه@@ 44
শ 44
ਜ@@ 44
ದ@@ 44
≤ 44
0.0 43
002 43
1509 43
1512 43
1582 43
1685 43
1705 43
1712 43
1714 43
1726 43
1746 43
299 43
318 43
366 43
629 43
ABA 43
ARC 43
CB 43
Class 43
Control 43
Department 43
Direc@@ 43
End 43
Fo@@ 43
Fre@@ 43
Hun@@ 43
Integr@@ 43
Ir@@ 43
MM 43
María 43
May 43
Mol@@ 43
Nav@@ 43
Ner@@ 43
PN 43
Rat@@ 43
They 43
Tre@@ 43
Tw@@ 43
arc@@ 43
ater 43
block 43
certain 43
circle 43
compound 43
countries 43
da@@ 43
die 43
does 43
ear@@ 43
element 43
eph@@ 43
ete 43
former 43
gre@@ 43
i.e. 43
independent 43
ington 43
ix 43
late 43
m3 43
mad@@ 43
medicine 43
memory 43
ml 43
morph@@ 43
mph 43
operating 43
operation 43
optera 43
par 43
pus 43
resist@@ 43
story 43
umin@@ 43
until 43
vir@@ 43
wat@@ 43
written 43
zi@@ 43
ƒ 43
ɾ@@ 43
ʃ@@ 43
ְ@@ 43
ನ 43
പ@@ 43
င 43
↑ 43
140@@ 42
1565 42
1568 42
1575 42
1616 42
1622 42
1653 42
1731 42
2400 42
316 42
339 42
361 42
364 42
3rd 42
49,@@ 42
770 42
820 42
ACP 42
Ah@@ 42
And 42
Ann@@ 42
Aqu@@ 42
Ari@@ 42
Ay@@ 42
BB@@ 42
BT@@ 42
Cel@@ 42
DJ 42
DT@@ 42
Dh@@ 42
Division 42
EM 42
Eur@@ 42
FL@@ 42
Grand 42
Gy@@ 42
IM 42
Industrial 42
Ku@@ 42
Kun@@ 42
Kus@@ 42
Lu@@ 42
Malaysia 42
News 42
Paris 42
Post 42
Ren@@ 42
Ru@@ 42
UC@@ 42
XII 42
Ze@@ 42
aging 42
became 42
by@@ 42
ca@@ 42
chemistry 42
cop@@ 42
cos 42
date 42
deriv@@ 42
don@@ 42
dynasty 42
efficient 42
electrical 42
ern@@ 42
fir@@ 42
gn@@ 42
good 42
groups 42
health 42
ins@@ 42
ished 42
lead 42
load 42
local 42
machine 42
making 42
membrane 42
mil@@ 42
mos@@ 42
mul@@ 42
ners 42
oy@@ 42
post 42
production 42
refr@@ 42
sar 42
school 42
spo@@ 42
tam@@ 42
tex 42
units 42
ward 42
works 42
Ú@@ 42
ː 42
μ 42
ת 42
मेजबा@@ 42
། 42
0.00 41
1050 41
128@@ 41
160@@ 41
1615 41
1669 41
1687 41
1723 41
1736 41
2D 41
31,@@ 41
314 41
329 41
33,@@ 41
338 41
385 41
406 41
42.@@ 41
44,@@ 41
636 41
712 41
93.@@ 41
ARM 41
Art 41
Arthur 41
Bang@@ 41
Big 41
Blue 41
CAD 41
CII 41
CNN 41
D1 41
F.@@ 41
Kin@@ 41
Mang@@ 41
Many 41
Nations 41
Od@@ 41
Sec@@ 41
September 41
Source 41
Two 41
acts 41
apur@@ 41
band 41
berg 41
che 41
cle@@ 41
ders 41
difference 41
ein 41
ela 41
entr@@ 41
films 41
graph 41
green 41
iTunes 41
leg@@ 41
node 41
ough 41
possible 41
pression 41
price 41
proc@@ 41
processing 41
prop@@ 41
ram@@ 41
ruled 41
service 41
shi@@ 41
sit@@ 41
spir@@ 41
tro 41
ved 41
vis 41
vul@@ 41
worth 41
య@@ 41
ా 41
1485 40
1511 40
1529 40
1562 40
1588 40
1623 40
1675 40
1698 40
1701 40
1721 40
1733 40
179@@ 40
2800 40
337 40
359 40
425 40
634 40
860 40
920 40
96.@@ 40
AW@@ 40
Anti@@ 40
Bin@@ 40
Ci@@ 40
Deb@@ 40
Electronics 40
Eth@@ 40
Free 40
G.@@ 40
Hi@@ 40
Hus@@ 40
ICA@@ 40
Ka 40
Korea 40
LED 40
LR 40
Military 40
NC 40
NCAA 40
Natural 40
Neur@@ 40
New@@ 40
Note 40
Ny@@ 40
O. 40
Path@@ 40
Point 40
Pot@@ 40
Ray@@ 40
Rev@@ 40
SB@@ 40
Shi@@ 40
U2 40
Wh 40
Whe@@ 40
acu@@ 40
agr@@ 40
amo@@ 40
az 40
cher 40
children 40
considered 40
culture 40
eds 40
ele 40
enta 40
exchange 40
generation 40
hag@@ 40
hot@@ 40
identi@@ 40
imal 40
iner@@ 40
ip 40
jo 40
kha 40
lag@@ 40
lum 40
notation 40
ogen 40
oy 40
parts 40
play@@ 40
pon@@ 40
problem 40
record 40
reser@@ 40
resistance 40
show 40
station 40
still 40
tit@@ 40
wall 40
web@@ 40
φ 40
ִ@@ 40
ד@@ 40
गोलिक 40
विपरी@@ 40
প 40
ਾ 40
ന@@ 40
ി 40
ု@@ 40
≥ 40
01.@@ 39
1498 39
1510 39
1515 39
1553 39
1561 39
1625 39
1643 39
1664 39
1668 39
1683 39
1706 39
1742 39
277 39
296 39
347 39
642 39
810 39
BB 39
BI@@ 39
Basic 39
Comp@@ 39
Dan@@ 39
Dor@@ 39
Electric 39
IPv@@ 39
MD@@ 39
Mod@@ 39
O4 39
Revolution 39
Sak@@ 39
Second 39
Sen 39
T1 39
Tim@@ 39
Vid@@ 39
actor 39
alist 39
apar@@ 39
astr@@ 39
av 39
bas@@ 39
bers 39
cat 39
chain 39
chlor@@ 39
differ@@ 39
division 39
don 39
dynam@@ 39
ently 39
equivalent 39
eters 39
ett@@ 39
every 39
fa 39
few 39
flow 39
formation 39
gang@@ 39
held 39
ibn 39
illar@@ 39
imm@@ 39
isation 39
ith 39
jan@@ 39
ji@@ 39
ket 39
len@@ 39
lis 39
market 39
means 39
min 39
multiple 39
results 39
star@@ 39
substance 39
ud 39
unda 39
urg@@ 39
vin@@ 39
was@@ 39
waves 39
yi 39
án 39
ān 39
ʒ@@ 39
ফ@@ 39
વ@@ 39
ு 39
ം 39
ത@@ 39
ല@@ 39
ན 39
្ 39
---- 38
08@@ 38
1336 38
1519 38
1539 38
1570 38
1609 38
1732 38
40.@@ 38
444 38
475 38
486 38
603 38
843 38
94.@@ 38
940 38
AV 38
Agency 38
Alpha 38
Authority 38
Best 38
Boy@@ 38
Cant@@ 38
Committee 38
Common 38
Computer 38
Defence 38
EL 38
Eng@@ 38
FBI 38
Fi 38
Gir@@ 38
ITV 38
Industries 38
Intelligence 38
Kon@@ 38
Kr@@ 38
Ky@@ 38
LE 38
Lim@@ 38
May@@ 38
ON 38
Ob@@ 38
PD@@ 38
Peter 38
Right 38
Sn@@ 38
Software 38
Su 38
Technologies 38
Yahoo 38
Zo@@ 38
always 38
approxim@@ 38
arch 38
asc@@ 38
ave 38
awa 38
bra 38
count 38
days 38
determin@@ 38
ending 38
ense 38
equilibri@@ 38
fa@@ 38
fundamental 38
grav@@ 38
hara 38
hard 38
hip 38
icus 38
ign@@ 38
ind 38
index@@ 38
integ@@ 38
ital 38
ka@@ 38
kam 38
mature 38
military 38
mut@@ 38
needed 38
network 38
not@@ 38
omi 38
person 38
ram 38
released 38
religious 38
six 38
speed 38
spot@@ 38
stad 38
sun@@ 38
theorem 38
tle 38
tra@@ 38
tt@@ 38
uch@@ 38
wheel 38
your 38
zu 38
à 38
ś@@ 38
Δ@@ 38
δ 38
ان 38
و 38
आजा@@ 38
भाज@@ 38
याता@@ 38
ৰ 38
ା@@ 38
ರ 38
≡ 38
大@@ 38
1001 37
1150 37
1552 37
159@@ 37
1617 37
1649 37
1694 37
1738 37
1A 37
372 37
413 37
414 37
458 37
468 37
483 37
515 37
645 37
715 37
730 37
907 37
990 37
Age 37
Ali@@ 37
BE@@ 37
Bio@@ 37
DF@@ 37
Data 37
December 37
Fort 37
Gre@@ 37
Ham@@ 37
Hill 37
Hin@@ 37
Hz 37
ISS 37
Kap@@ 37
Leg@@ 37
Love 37
Ms 37
November 37
Pay@@ 37
Plas@@ 37
Radi@@ 37
Rem@@ 37
S.A. 37
Search 37
Special 37
Star 37
VHS 37
Vel@@ 37
We 37
WrestleMania 37
addition 37
apy 37
ave@@ 37
basic 37
bot@@ 37
built 37
carbon 37
comm@@ 37
cont@@ 37
cus 37
cut@@ 37
economic 37
eless 37
ences 37
fixed 37
game 37
gram 37
height 37
higher 37
included 37
indic@@ 37
ison 37
ited 37
ize 37
ked 37
kin 37
kn@@ 37
lb 37
leaf 37
limit 37
literature 37
lower 37
ls 37
mac@@ 37
meth@@ 37
nu@@ 37
ord@@ 37
osh@@ 37
otr@@ 37
pic@@ 37
pig@@ 37
programming 37
py@@ 37
related 37
sea 37
sen@@ 37
sid@@ 37
solar 37
solid 37
supply 37
tax 37
tered 37
thor@@ 37
trol@@ 37
win 37
wrote 37
ó@@ 37
Ω 37
ן 37
ई.पू@@ 37
वासीय 37
ॾ@@ 37
த 37
ே@@ 37
ర 37
ന 37
ေ@@ 37
1.5@@ 36
1066 36
1525 36
1532 36
1601 36
1602 36
1608 36
1641 36
1646 36
1651 36
1657 36
371 36
38,@@ 36
381 36
399 36
427 36
476 36
524 36
555 36
562 36
641 36
A2 36
AO 36
ART 36
Ask@@ 36
Ball@@ 36
Bro@@ 36
Civil 36
Cog@@ 36
Dal@@ 36
Exchange 36
FX 36
GM 36
Him@@ 36
Hindu 36
IW@@ 36
M1 36
Machine 36
Martin 36
Mechan@@ 36
Most 36
Mut@@ 36
NFL 36
Organ@@ 36
PT 36
Player 36
Saint 36
Shim@@ 36
Sun 36
TF 36
Tan@@ 36
W.@@ 36
Wal@@ 36
Women 36
Young 36
access 36
amin@@ 36
animals 36
aqu@@ 36
atur@@ 36
away 36
cause 36
child 36
compar@@ 36
curr@@ 36
dur@@ 36
earth 36
ei 36
enth@@ 36
environment 36
eri@@ 36
escence 36
far 36
father 36
fields 36
fis@@ 36
five 36
flo@@ 36
formed 36
gia 36
gro@@ 36
ground 36
hal 36
haw@@ 36
icle 36
ills 36
inga 36
izing 36
just 36
kara 36
kat@@ 36
macro@@ 36
marathon 36
ment@@ 36
mus 36
named 36
oris 36
otro@@ 36
pas@@ 36
plant 36
print 36
reson@@ 36
scat@@ 36
scop@@ 36
script 36
started 36
statement 36
su 36
tera 36
tism 36
tournament 36
towards 36
ump@@ 36
van 36
variables 36
vid@@ 36
void 36
whose 36
ya@@ 36
® 36
³ 36
è 36
é@@ 36
ˌ@@ 36
α@@ 36
λ 36
פ@@ 36
पिथौ@@ 36
ট@@ 36
ਦ@@ 36
མ@@ 36
ာ@@ 36
ー@@ 36
￸ 36
112@@ 35
1494 35
1516 35
1521 35
1613 35
1614 35
1619 35
1629 35
1636 35
1696 35
187@@ 35
351 35
357 35
392 35
534 35
575 35
586 35
768 35
802.@@ 35
830 35
According 35
Band@@ 35
Bul@@ 35
California 35
Cle@@ 35
Coun@@ 35
Die 35
ESA 35
Hello 35
Hills 35
Hir@@ 35
J.@@ 35
Java 35
KO@@ 35
League 35
Mi 35
Mountains 35
Mun@@ 35
Net 35
Nil@@ 35
Population 35
President 35
Railway 35
Rights 35
Sky@@ 35
Star@@ 35
Tab@@ 35
Tag@@ 35
Tak@@ 35
UK@@ 35
WS 35
aki 35
alb@@ 35
alia 35
aling 35
along 35
amine 35
amount 35
analy@@ 35
ander 35
array 35
avi 35
basis 35
bol@@ 35
but@@ 35
cav@@ 35
comput@@ 35
cot@@ 35
devices 35
eding 35
electrom@@ 35
enter@@ 35
ert 35
external 35
ff 35
figure 35
graph@@ 35
hang@@ 35
hel@@ 35
here 35
hop@@ 35
kind 35
lex@@ 35
measur@@ 35
mod 35
normal 35
olo@@ 35
ologist 35
opath@@ 35
oral 35
org 35
ow 35
phones 35
plication 35
po 35
polym@@ 35
popular 35
pora 35
primary 35
produced 35
put 35
rane 35
ras@@ 35
rather 35
sag@@ 35
shi 35
smo@@ 35
start 35
storage 35
stress 35
tac@@ 35
tam 35
temple 35
thetic 35
tile 35
trav@@ 35
urs 35
var 35
veloc@@ 35
weight 35
wi@@ 35
yo 35
µ@@ 35
ç@@ 35
è@@ 35
ة 35
د 35
م 35
ي 35
ਰ 35
ર@@ 35
ି@@ 35
க 35
ಗ@@ 35
ಸ@@ 35
0000@@ 34
1296 34
1392 34
1394 34
1480 34
1574 34
1583 34
1590 34
1626 34
1639 34
1674 34
1695 34
1711 34
1735 34
1737 34
341 34
358 34
376 34
389 34
432 34
435 34
455 34
527 34
529 34
67,@@ 34
914 34
925 34
Battle 34
By@@ 34
Chief 34
Country 34
Digital 34
Fox 34
Gener@@ 34
Gun@@ 34
Image 34
Io@@ 34
JT@@ 34
Line 34
Log@@ 34
Med@@ 34
Medicine 34
Mount 34
NG 34
Nay@@ 34
Order 34
Organization 34
Plant 34
Political 34
Produc@@ 34
Ret@@ 34
Sik@@ 34
Sit@@ 34
So 34
St. 34
Tol@@ 34
Total 34
Tro@@ 34
Uttar 34
VP 34
Valley 34
Vit@@ 34
acet@@ 34
aft 34
again 34
ame@@ 34
aq 34
architecture 34
areas 34
atha 34
atics 34
ats@@ 34
ault 34
become 34
chen 34
ends 34
etary 34
eti 34
fish 34
fly 34
fol@@ 34
fold 34
foreign 34
head@@ 34
hiz@@ 34
intr@@ 34
inver@@ 34
kh 34
let@@ 34
liquid 34
liter@@ 34
living 34
mail 34
methods 34
mom@@ 34
nj@@ 34
onn@@ 34
ova 34
pend@@ 34
plants 34
press@@ 34
quot@@ 34
ring 34
round 34
secondary 34
sed 34
shar@@ 34
similar 34
society 34
speci@@ 34
tif@@ 34
tig@@ 34
tools 34
tox@@ 34
vibr@@ 34
wing 34
yal@@ 34
zz@@ 34
ν 34
एकी@@ 34
नैनी@@ 34
യ@@ 34
က@@ 34
1.0@@ 33
1000@@ 33
1323 33
1544 33
1547 33
1554 33
1569 33
1585 33
1635 33
1693 33
2300 33
367 33
401 33
409 33
445 33
467 33
502 33
533 33
539 33
545 33
55,@@ 33
639 33
652 33
707 33
790 33
845 33
875 33
Africa 33
Ancient 33
Bat@@ 33
Borough 33
Christian 33
Dam@@ 33
Europe 33
FI 33
FL 33
February 33
Film 33
Ga 33
Geneva 33
Hans 33
Hat@@ 33
Hil@@ 33
Home 33
Hospital 33
Hydr@@ 33
IGN 33
ION 33
ISC 33
Ji@@ 33
Korean 33
Ling@@ 33
Mary 33
Mic@@ 33
Museum 33
NO 33
Nas@@ 33
Navy 33
Near 33
On@@ 33
PP 33
Plat@@ 33
Rud@@ 33
S2 33
Sev@@ 33
Si 33
Sup@@ 33
TR 33
UC 33
Video 33
Wel@@ 33
XIX 33
across 33
activity 33
adr@@ 33
age@@ 33
alt@@ 33
ands 33
animal 33
anta 33
aring 33
aris 33
aud@@ 33
bin 33
bus 33
changes 33
ched 33
chem 33
codes 33
cript 33
density 33
disorder 33
distribution 33
eal 33
ebo 33
eci@@ 33
effici@@ 33
electronic 33
ems 33
ening 33
esia 33
ft@@ 33
hak@@ 33
help 33
hex@@ 33
hil@@ 33
however 33
hp 33
interest 33
kw@@ 33
latitude 33
lion 33
lor@@ 33
mani 33
mechanical 33
mid 33
moment 33
nas@@ 33
neutr@@ 33
o.@@ 33
ods 33
omen@@ 33
organ@@ 33
osc@@ 33
oxy@@ 33
pap@@ 33
para 33
physi@@ 33
placement 33
pot@@ 33
rac@@ 33
relative 33
runs 33
sex 33
signal 33
simple 33
sometimes 33
stor@@ 33
syndrome 33
taken 33
territory 33
tex@@ 33
than@@ 33
tin@@ 33
tom 33
town 33
transfer 33
tre 33
tun@@ 33
tures 33
udi 33
uni 33
val 33
vous 33
wel@@ 33
wer@@ 33
whole 33
wo@@ 33
xy@@ 33
yn 33
á 33
ø@@ 33
ρ 33
ע@@ 33
د@@ 33
عبد 33
۝ 33
ਕ@@ 33
ਗ@@ 33
ਲ@@ 33
ತ@@ 33
ර@@ 33
ྱ@@ 33
ရ@@ 33
⁄ 33
1,1 32
1,2 32
1290 32
1501 32
1586 32
1589 32
1591 32
1621 32
1633 32
1682 32
1697 32
1747 32
362 32
378 32
418 32
421 32
451 32
465 32
4th 32
552 32
612 32
626 32
651 32
775 32
965 32
98.@@ 32
ACE 32
AH@@ 32
Ach@@ 32
Autom@@ 32
BL@@ 32
CW 32
Chak@@ 32
Compar@@ 32
Cos@@ 32
Dragon 32
Entertainment 32
Es 32
Fac@@ 32
Forest 32
Fu@@ 32
GPS 32
Gas@@ 32
Juan 32
KA 32
Kel@@ 32
Ker@@ 32
Kos@@ 32
Kum@@ 32
Lat@@ 32
Low 32
Major 32
Meg@@ 32
Nov@@ 32
OC 32
Obj@@ 32
Party 32
Persian 32
Pin@@ 32
Pun@@ 32
Rag@@ 32
TM 32
Tech 32
Tul@@ 32
UCLA 32
Vik@@ 32
XIII 32
algeb@@ 32
amar@@ 32
bes 32
bes@@ 32
big 32
bri@@ 32
capital 32
cis 32
com. 32
concept 32
cut 32
definition 32
degree 32
direction 32
display 32
diz@@ 32
ear 32
economy 32
either 32
eling 32
elling 32
ended 32
epo@@ 32
ered 32
eu@@ 32
eva 32
expression 32
fall 32
flux 32
front 32
fu@@ 32
further 32
hir@@ 32
hypo@@ 32
idi@@ 32
ign 32
iliz@@ 32
inary 32
increase 32
k.@@ 32
ku 32
lens 32
lock 32
meg@@ 32
member 32
mobile 32
names 32
ographic 32
ops 32
orders 32
otrop@@ 32
pay@@ 32
personal 32
pic 32
plus 32
pounds 32
proj@@ 32
rana 32
received 32
rel 32
risk 32
running 32
ser 32
serv@@ 32
services 32
site 32
sky 32
solution 32
sound 32
sum@@ 32
sy 32
tering 32
tes@@ 32
thought 32
today 32
top@@ 32
tric@@ 32
tu 32
volume 32
wer 32
writing 32
you@@ 32
zone 32
н@@ 32
ب@@ 32
ى 32
ަ@@ 32
अपि@@ 32
मशह@@ 32
समुदा@@ 32
খ@@ 32
ன@@ 32
ద@@ 32
ಲ@@ 32
් 32
ད@@ 32
-------- 31
02.@@ 31
1347 31
1679 31
1684 31
1686 31
2,3 31
2700 31
348 31
363 31
398 31
40,@@ 31
402 31
412 31
45,@@ 31
46,@@ 31
461 31
496 31
536 31
546 31
605 31
614 31
68,@@ 31
705 31
7th 31
Administration 31
Af@@ 31
Am 31
Amaz@@ 31
Ath@@ 31
Aut@@ 31
Blood 31
Books 31
Cell 31
Child 31
Congress 31
D2 31
DA@@ 31
Da 31
Declar@@ 31
Der@@ 31
Encyclo@@ 31
Exper@@ 31
Fat@@ 31
Federation 31
Financial 31
Gran@@ 31
Identi@@ 31
Il@@ 31
Ju@@ 31
Kak@@ 31
Lam@@ 31
Law@@ 31
Little 31
Lor@@ 31
Lun@@ 31
MB@@ 31
MF 31
Map@@ 31
Mis@@ 31
No. 31
O.@@ 31
Pass@@ 31
Ped@@ 31
Philosophy 31
Posi@@ 31
Press 31
Rap@@ 31
Rus@@ 31
Sand@@ 31
Scientific 31
Since 31
Sus@@ 31
Times 31
Trich@@ 31
UP 31
UR 31
UT 31
Ud@@ 31
Um@@ 31
Van 31
Village 31
Wa@@ 31
XL@@ 31
abase 31
acea 31
acier 31
ado 31
ais 31
aman@@ 31
announced 31
aran 31
arith@@ 31
aro@@ 31
art@@ 31
artic@@ 31
ate@@ 31
attack 31
aul@@ 31
avi@@ 31
bac@@ 31
bah@@ 31
broad@@ 31
central 31
cit@@ 31
coll@@ 31
components 31
controlled 31
dale 31
developed 31
dimensional 31
eau 31
eb 31
edi 31
edit@@ 31
ener@@ 31
ero 31
eur@@ 31
evidence 31
ext@@ 31
fal@@ 31
fas@@ 31
female 31
files 31
gly@@ 31
ices 31
ie@@ 31
internal 31
ister 31
jav@@ 31
largest 31
lic@@ 31
little 31
live 31
lob@@ 31
measure 31
molec@@ 31
mun@@ 31
ocar@@ 31
off@@ 31
onda 31
osper@@ 31
oto 31
performance 31
plate 31
pm 31
polar 31
port@@ 31
pros@@ 31
race 31
radio 31
ran 31
relation 31
rest 31
rights 31
scrip@@ 31
shift 31
shows 31
significant 31
sl@@ 31
sm@@ 31
static 31
step 31
struc@@ 31
thesis 31
thi@@ 31
ticism 31
ticul@@ 31
tissue 31
ulu 31
ulum 31
upon 31
user 31
usually 31
via 31
vision 31
wa@@ 31
words 31
working 31
ַ@@ 31
ם 31
ح@@ 31
ॲ@@ 31
অ@@ 31
ব 31
ਪ@@ 31
ର@@ 31
ல 31
డ@@ 31
ಪ@@ 31
ು 31
† 31
1190 30
1386 30
1522 30
1524 30
1634 30
1647 30
1691 30
373 30
408 30
41.@@ 30
655 30
690 30
6th 30
704 30
710 30
725 30
910 30
97.@@ 30
Agr@@ 30
Auth@@ 30
Beh@@ 30
Bos@@ 30
Coll@@ 30
DN@@ 30
Def@@ 30
Din@@ 30
Ec@@ 30
Fal@@ 30
Fir@@ 30
Fol@@ 30
Go 30
Gro@@ 30
Hard@@ 30
Hyper@@ 30
Inf@@ 30
Int@@ 30
Jay@@ 30
KS 30
Kab@@ 30
Kashmir 30
LF 30
Lap@@ 30
Lar@@ 30
Nik@@ 30
Nor@@ 30
Ple@@ 30
Post@@ 30
Proj@@ 30
Rah@@ 30
Rock 30
Sap@@ 30
Sel@@ 30
Self 30
Sex@@ 30
Shan@@ 30
Sor@@ 30
Sub 30
Survey 30
TNA 30
TRA@@ 30
Teh@@ 30
Up@@ 30
VW 30
Vas@@ 30
Vin@@ 30
What 30
Wi@@ 30
Win@@ 30
achi 30
alit@@ 30
amba 30
amus 30
aster@@ 30
ateral 30
bat@@ 30
bed 30
better 30
birds 30
bos@@ 30
buc@@ 30
cath@@ 30
composed 30
conservation 30
continu@@ 30
cru@@ 30
dar@@ 30
discre@@ 30
dot 30
edge 30
election 30
eness 30
established 30
false 30
follow 30
fric@@ 30
gas@@ 30
gence 30
give 30
greater 30
hun@@ 30
iment 30
instead 30
instrument 30
integr@@ 30
ista 30
iting 30
know 30
kon@@ 30
kur@@ 30
larger 30
legal 30
lev@@ 30
located 30
logic 30
loss 30
maps 30
materials 30
members 30
meter 30
modi@@ 30
nd@@ 30
night 30
operations 30
orth@@ 30
orum 30
pad@@ 30
phi@@ 30
plic@@ 30
polar@@ 30
positi@@ 30
post@@ 30
prob@@ 30
ret@@ 30
seen 30
sensi@@ 30
separ@@ 30
seven 30
shell 30
sian 30
status 30
teenth 30
thm 30
tho@@ 30
tz 30
ule 30
valu@@ 30
vel@@ 30
vertebr@@ 30
virus 30
voir 30
¾ 30
ão 30
š@@ 30
خان 30
ু 30
ବ@@ 30
ந@@ 30
ோ@@ 30
ತ 30
മ 30
1210 29
1375 29
1440 29
1537 29
1645 29
349 29
43.@@ 29
437 29
447 29
471 29
504 29
604 29
615 29
Alexander 29
Astr@@ 29
Au 29
Beg@@ 29
Bruno 29
Bureau 29
Ca 29
Chang@@ 29
Chemical 29
Chit@@ 29
Dand@@ 29
Dro@@ 29
Dum@@ 29
Festival 29
Food 29
Frederick 29
GE@@ 29
Gam@@ 29
Gandhi 29
Greek 29
Hom@@ 29
Hon@@ 29
Inc 29
Ish@@ 29
Ja@@ 29
Kod@@ 29
LV@@ 29
Lac@@ 29
Light 29
Modern 29
More 29
NATO 29
NF 29
Naval 29
Organisation 29
Ox@@ 29
PH 29
Page 29
RP 29
Ram 29
Roman 29
Russian 29
Sind@@ 29
Som@@ 29
Spe@@ 29
Tech@@ 29
Tran@@ 29
Tru@@ 29
UB 29
Wo@@ 29
Xia@@ 29
Zh@@ 29
aba 29
aca 29
ading 29
aer@@ 29
agus 29
although 29
anese 29
applied 29
arc 29
archy 29
atives 29
atom 29
award 29
aye 29
bacteri@@ 29
bal 29
bat 29
began 29
bird 29
ble@@ 29
building 29
came 29
complete 29
cri@@ 29
dist@@ 29
domain 29
dop@@ 29
dri@@ 29
eh 29
ein@@ 29
ells 29
eter@@ 29
exposure 29
famous 29
fusion 29
ges@@ 29
glo@@ 29
heter@@ 29
hir 29
ici@@ 29
icial 29
idge 29
ification 29
iler 29
illi@@ 29
imb@@ 29
inger 29
inv@@ 29
iron 29
lang 29
lation 29
laws 29
lers 29
los 29
lost 29
low@@ 29
medical 29
mill@@ 29
mir@@ 29
movement 29
ned 29
never 29
official 29
ogy 29
ologists 29
onian 29
ously 29
patr@@ 29
pers 29
philosophy 29
phyl@@ 29
rak@@ 29
read 29
relationship 29
rem@@ 29
tang@@ 29
tel 29
then@@ 29
together 29
various 29
vic@@ 29
vin 29
ving 29
viol@@ 29
ö@@ 29
ον 29
ز@@ 29
धरो@@ 29
স 29
ಯ@@ 29
ത 29
ེ@@ 29
ྲ@@ 29
1215 28
1279 28
1311 28
1330 28
1368 28
1405 28
1433 28
1469 28
1484 28
1548 28
1581 28
1599 28
1673 28
186@@ 28
374 28
388 28
397 28
416 28
454 28
462 28
4x@@ 28
581 28
5th 28
64,@@ 28
717 28
767 28
901 28
975 28
ACT 28
Agricul@@ 28
Area 28
Arts 28
Au@@ 28
Billboard 28
Cass@@ 28
Chau@@ 28
Civ@@ 28
Dem@@ 28
Ear@@ 28
Ele@@ 28
Ep@@ 28
F2 28
Falls 28
Ferrari 28
God@@ 28
Had@@ 28
Main 28
Max 28
Mess@@ 28
Now 28
Num@@ 28
One@@ 28
PCI 28
PF 28
PHP 28
Pand@@ 28
PlayStation 28
Prin@@ 28
Rak@@ 28
Raw 28
Sens@@ 28
Sm@@ 28
Sto@@ 28
Street 28
Study 28
Swar@@ 28
Sym@@ 28
T20 28
Technical 28
Ti 28
Van@@ 28
Vic@@ 28
Vul@@ 28
Washington 28
Wr@@ 28
ably 28
absolute 28
alli@@ 28
arian 28
ask@@ 28
astronom@@ 28
aun@@ 28
awan 28
bad@@ 28
birth 28
blue 28
bro@@ 28
care 28
ci 28
cip@@ 28
colors 28
conf@@ 28
consum@@ 28
content 28
death 28
digital 28
doc@@ 28
dom@@ 28
dor@@ 28
down@@ 28
ei@@ 28
entum 28
eon 28
eps 28
expansion 28
ez 28
financial 28
fix 28
forest 28
gave 28
growth 28
gs 28
hand@@ 28
harmon@@ 28
infin@@ 28
inverse 28
iser 28
jan 28
jo@@ 28
lan 28
lap@@ 28
lec@@ 28
levels 28
lier 28
ling@@ 28
lingu@@ 28
lit@@ 28
lot 28
lumin@@ 28
middle 28
nal 28
nh@@ 28
office 28
oidea 28
osom@@ 28
oxide 28
partial 28
pent@@ 28
phosph@@ 28
played 28
pling 28
regul@@ 28
rep@@ 28
ru 28
ry@@ 28
sain 28
sand 28
say 28
sequence 28
sis 28
sle@@ 28
steel 28
stellation 28
stroke 28
studies 28
sub 28
tak@@ 28
translation 28
trom@@ 28
tus 28
uj@@ 28
uns 28
vid 28
yap@@ 28
ystal 28
¿ 28
â@@ 28
ɪ 28
ֹ@@ 28
כ@@ 28
ر@@ 28
सदीय 28
এ@@ 28
ਵ@@ 28
ੋ@@ 28
ે 28
ந 28
ూ@@ 28
ె@@ 28
ད 28
≈ 28
ン@@ 28
1170 27
1225 27
1240 27
1260 27
1420 27
1487 27
1502 27
1508 27
1514 27
1559 27
1592 27
1595 27
1604 27
1607 27
1662 27
1741 27
2000@@ 27
3200 27
379 27
387 27
422 27
426 27
428 27
431 27
48,@@ 27
484 27
488 27
518 27
526 27
589 27
635 27
638 27
727 27
757 27
815 27
890 27
996 27
9th 27
Air@@ 27
Alt 27
Asian 27
Astronom@@ 27
Australian 27
Awards 27
Beach 27
Club 27
Conference 27
Dav@@ 27
Dol@@ 27
Early 27
Environment 27
Era 27
FR@@ 27
Family 27
Fran@@ 27
Germany 27
GmbH 27
Gul@@ 27
HV@@ 27
Hum@@ 27
Iron 27
Jacques 27
Japanese 27
Kit@@ 27
Kn@@ 27
LG 27
Land@@ 27
Later 27
Legal 27
Les@@ 27
Lin 27
Lingu@@ 27
MM@@ 27
Nokia 27
Punjab 27
Py@@ 27
Rad@@ 27
Real 27
SUV 27
Shah 27
Smith 27
Southern 27
Sug@@ 27
Tem@@ 27
Trade 27
Training 27
UB@@ 27
Vij@@ 27
aik@@ 27
algorith@@ 27
alized 27
angles 27
apr@@ 27
ary@@ 27
asy@@ 27
aut@@ 27
bic@@ 27
bility 27
billion 27
bing 27
charged 27
chron@@ 27
clear 27
college 27
combin@@ 27
concentration 27
court 27
deep 27
dha 27
direc@@ 27
diver@@ 27
dra@@ 27
ease 27
eda 27
educ@@ 27
ej@@ 27
ement@@ 27
enty 27
error 27
esc@@ 27
especially 27
etc 27
fare 27
flex@@ 27
frac@@ 27
fur@@ 27
gic 27
glass 27
gold 27
haz@@ 27
hr 27
iOS 27
ico 27
icon@@ 27
ier 27
incident 27
intelligence 27
inus 27
ishes 27
isti@@ 27
itself 27
ive 27
iya 27
ju 27
kul@@ 27
lar 27
least 27
lets 27
letter 27
limited 27
love 27
mark 27
mental 27
mother 27
oda 27
olf 27
omy@@ 27
operative 27
oric 27
osci@@ 27
param@@ 27
paras@@ 27
path 27
pore 27
problems 27
processes 27
propag@@ 27
pun@@ 27
reci@@ 27
relations 27
sab@@ 27
sal 27
sector 27
selection 27
semi 27
sha 27
sight 27
sort 27
squ@@ 27
sure 27
tend@@ 27
though 27
tial 27
tri 27
tron 27
trop@@ 27
turn 27
udu 27
ugu 27
wala 27
wi 27
wind 27
wr@@ 27
write 27
ww@@ 27
yet 27
yth@@ 27
¥ 27
º@@ 27
Ð 27
ã@@ 27
í 27
ن@@ 27
ंपरिक 27
तेलु@@ 27
यंकर 27
ऴ@@ 27
ॐ@@ 27
ড 27
ੀ@@ 27
ட 27
ற@@ 27
ದ 27
ೆ 27
ೆ@@ 27
ೇ@@ 27
േ@@ 27
མ 27
05.@@ 26
1424 26
1444 26
1460 26
1490 26
1513 26
1566 26
1571 26
1578 26
1579 26
1587 26
1663 26
1676 26
1681 26
424 26
429 26
446 26
452 26
47,@@ 26
472 26
499 26
506 26
508 26
521 26
531 26
58,@@ 26
8th 26
AAA 26
AMD 26
Advanced 26
Bac@@ 26
Bon@@ 26
Bot@@ 26
Box 26
But@@ 26
Capr@@ 26
Centr@@ 26
Chal@@ 26
Climate 26
Convention 26
Culture 26
Differ@@ 26
Dy@@ 26
Edge 26
Emp@@ 26
FE@@ 26
Foreign 26
François 26
Fund 26
Gad@@ 26
Gn@@ 26
Gol@@ 26
Graph@@ 26
Hall 26
Here 26
ICE 26
Industry 26
Kand@@ 26
Khal@@ 26
Krishna 26
Laun@@ 26
Li 26
MAC 26
MCA 26
Michael 26
Mind@@ 26
Muhammad 26
Muk@@ 26
Nature 26
Not@@ 26
Number 26
Oper@@ 26
Ori@@ 26
PGA 26
PI@@ 26
Pak@@ 26
Pic@@ 26
Pierre 26
Pter@@ 26
Pyr@@ 26
Rab@@ 26
Range 26
SO 26
Shel@@ 26
Sher@@ 26
Techn@@ 26
Tib@@ 26
Tom@@ 26
Treaty 26
Type 26
Upper 26
V.@@ 26
VR 26
Vil@@ 26
WG 26
XVII 26
abe 26
abi 26
account 26
ades 26
adv@@ 26
ady 26
aic 26
ait 26
aker 26
alphab@@ 26
amy 26
anna 26
ativ@@ 26
available 26
bert 26
bias 26
bir@@ 26
bon@@ 26
cancer 26
cell@@ 26
cha@@ 26
che@@ 26
ck 26
core 26
day@@ 26
died 26
divided 26
done 26
e- 26
economics 26
enz@@ 26
eria 26
esa 26
expres@@ 26
eye 26
factors 26
fer 26
file 26
fire 26
got 26
gradi@@ 26
hana 26
hip@@ 26
hist@@ 26
hypoth@@ 26
ication 26
ike 26
includes 26
infection 26
injury 26
ino@@ 26
interaction 26
ising 26
ism@@ 26
ito 26
lad@@ 26
lies 26
lin 26
lit 26
location 26
loss@@ 26
mic@@ 26
mix@@ 26
monument 26
move 26
nar 26
nar@@ 26
new@@ 26
oll@@ 26
once 26
ond 26
outside 26
p.@@ 26
pith@@ 26
placed 26
press 26
project 26
rand@@ 26
rat 26
reading 26
reference 26
rier 26
rock 26
rotation 26
rup@@ 26
sak@@ 26
sav@@ 26
scientific 26
security 26
sens@@ 26
sey 26
som@@ 26
strong 26
themselves 26
thir@@ 26
tiliz@@ 26
too 26
training 26
treatment 26
ui@@ 26
uti@@ 26
visual 26
ws 26
yon 26
ç 26
ε@@ 26
ա@@ 26
ش@@ 26
ك@@ 26
भिकिया@@ 26
ই@@ 26
ঙ 26
ੁ@@ 26
્ 26
ை@@ 26
స@@ 26
ക 26
ട@@ 26
ག 26
ི@@ 26
1415 25
1470 25
1475 25
1507 25
1549 25
1563 25
1573 25
1584 25
1637 25
346 25
393 25
473 25
485 25
492 25
493 25
538 25
57,@@ 25
667 25
675 25
701 25
718 25
801 25
AK 25
Amar@@ 25
Amp@@ 25
Back@@ 25
Bay@@ 25
Bill 25
Bis@@ 25
CH3@@ 25
Championships 25
Chap@@ 25
Cher@@ 25
Chlor@@ 25
Current 25
Design 25
Emb@@ 25
Explorer 25
Friedrich 25
Game 25
HE@@ 25
Harry 25
High@@ 25
How 25
Human@@ 25
Ide@@ 25
Japan 25
Key 25
Kul@@ 25
LGBT 25
Laboratory 25
Let 25
MBA 25
Mars 25
Mg@@ 25
Mission 25
Motion 25
Muslim 25
Nah@@ 25
Northern 25
OK 25
PBS 25
PDF 25
Param@@ 25
Pav@@ 25
Physical 25
Policy 25
RN 25
Radio 25
Rom@@ 25
Run@@ 25
SG 25
SG@@ 25
Saf@@ 25
Score 25
Sig@@ 25
Sk@@ 25
Statis@@ 25
Story 25
Tap@@ 25
Three 25
Twitter 25
USS 25
Vish@@ 25
WR 25
Way 25
While 25
Who 25
Wikipedia 25
Wimbledon 25
XVIII 25
acquired 25
ahi 25
aining 25
ami@@ 25
angal@@ 25
anism 25
apping 25
army 25
arrangement 25
associated 25
aw 25
bai 25
beat 25
ben@@ 25
bo 25
bond 25
bot 25
bow@@ 25
cher@@ 25
chol@@ 25
circum@@ 25
civil 25
commonly 25
component 25
condens@@ 25
conflict 25
consci@@ 25
cylin@@ 25
dev 25
dhar@@ 25
dil@@ 25
dir@@ 25
divid@@ 25
dule 25
eller 25
eman 25
enia 25
erg@@ 25
essor 25
eur 25
exper@@ 25
far@@ 25
freedom 25
fuel 25
generally 25
global 25
greatest 25
gri 25
gy@@ 25
himself 25
hold 25
icity 25
idal 25
ided 25
insul@@ 25
interface 25
ische 25
ition 25
itter 25
kit 25
knowledge 25
lay@@ 25
ld@@ 25
mathematics 25
mode 25
money 25
moving 25
navigation 25
oga 25
oke 25
olog@@ 25
one@@ 25
ony 25
opposite 25
ore@@ 25
otype 25
park 25
piece 25
pping 25
prim@@ 25
program 25
proof 25
ps@@ 25
quad@@ 25
ras 25
rh@@ 25
rian 25
ron 25
rules 25
season 25
sho@@ 25
sides 25
sig@@ 25
sion@@ 25
standards 25
stock 25
stom@@ 25
tax@@ 25
test@@ 25
tradition 25
trial 25
trieved 25
tum@@ 25
urai 25
uri@@ 25
va@@ 25
venti@@ 25
ves@@ 25
wn 25
writer 25
yon@@ 25
zh@@ 25
ñ@@ 25
÷ 25
ū 25
ζ 25
р@@ 25
را@@ 25
ن 25
۔ 25
ंडोज 25
दीदा 25
परियो@@ 25
উ@@ 25
ਬ@@ 25
ી 25
ે@@ 25
క 25
ಕ 25
འ@@ 25
ལ 25
ྫ@@ 25
တ@@ 25
ḍ@@ 25
03.@@ 24
1230 24
1388 24
1455 24
1478 24
1496 24
1503 24
1678 24
1692 24
3.0@@ 24
383 24
407 24
419 24
448 24
478 24
479 24
495 24
509 24
516 24
522 24
535 24
551 24
553 24
602 24
609 24
613 24
618 24
668 24
976 24
Ad 24
Analysis 24
Another 24
Arg@@ 24
Assembly 24
Aur@@ 24
Australia 24
Bet@@ 24
Beta 24
Black@@ 24
C4 24
Canadian 24
Cham@@ 24
Chang 24
Che@@ 24
Coast 24
Contr@@ 24
Cot@@ 24
Dak@@ 24
Diff@@ 24
Don@@ 24
Dynam@@ 24
Ed 24
Electronic 24
Empire 24
Et@@ 24
Express 24
Gem@@ 24
Gold 24
Good 24
HM@@ 24
Head 24
Heritage 24
Hung@@ 24
Independence 24
Islands 24
LM 24
Lav@@ 24
Learning 24
Liber@@ 24
Liter@@ 24
Lon@@ 24
Max@@ 24
Meh@@ 24
Mem@@ 24
Men 24
Model 24
Mont@@ 24
Newton 24
Night 24
Nir@@ 24
Off@@ 24
Olympic 24
Orth@@ 24
Pacific 24
Pep@@ 24
Pho@@ 24
Power@@ 24
Princip@@ 24
Queen 24
STS 24
Sac@@ 24
Shir@@ 24
Show 24
Shu@@ 24
Sound 24
Spo@@ 24
Strateg@@ 24
Studio 24
Third 24
Tik@@ 24
Top@@ 24
UNICEF 24
Universal 24
WI 24
Wilhelm 24
With 24
Xi@@ 24
You@@ 24
ader 24
agent 24
anatom@@ 24
angu@@ 24
asia 24
author 24
auto@@ 24
ball 24
begin 24
brain 24
capac@@ 24
cases 24
characters 24
claim 24
climate 24
communication 24
concrete 24
currently 24
dan 24
derived 24
directly 24
div@@ 24
effects 24
ele@@ 24
ematic 24
ender 24
enough 24
ero@@ 24
erry 24
eties 24
exc@@ 24
fill 24
fit 24
folia 24
forced 24
forward 24
furn@@ 24
gene 24
get@@ 24
gives 24
hain 24
hier@@ 24
historical 24
hon@@ 24
hours 24
icon 24
indica 24
intens@@ 24
ions 24
itz 24
journ@@ 24
kal 24
ken 24
lang@@ 24
lon 24
loop 24
meaning 24
months 24
nag@@ 24
nec@@ 24
neg@@ 24
next 24
odon@@ 24
ody 24
olar 24
omer@@ 24
oria 24
ority 24
ost 24
ough@@ 24
particular 24
pass 24
pes 24
ping 24
player 24
ply 24
pre 24
prime 24
primiti@@ 24
produce 24
reduction 24
religion 24
representation 24
rig@@ 24
room 24
roqui@@ 24
saw 24
sexual 24
shan 24
ski@@ 24
special 24
styl@@ 24
suc@@ 24
synth@@ 24
tabla 24
tari@@ 24
ther 24
tory 24
tronics 24
tropical 24
ums 24
unique 24
unt 24
uta 24
uz@@ 24
water@@ 24
week 24
yal 24
ze@@ 24
zi 24
¸ 24
Ü@@ 24
̃ 24
λ@@ 24
й 24
ק@@ 24
م@@ 24
َّ@@ 24
इताल@@ 24
णिज 24
वाराण@@ 24
संबर 24
ণ 24
ূ@@ 24
ੱ@@ 24
ମ@@ 24
ெ@@ 24
ை 24
న 24
ා@@ 24
ි@@ 24
ེ 24
ា@@ 24
█ 24
08.@@ 23
1070 23
1220 23
1258 23
1370 23
1468 23
1481 23
1495 23
1499 23
1546 23
19th 23
456 23
466 23
507 23
514 23
547 23
549 23
56,@@ 23
572 23
ATP 23
Ai 23
Alfred 23
Anti 23
Arc@@ 23
BN 23
Beng@@ 23
Bom@@ 23
Bran@@ 23
Bridge 23
Capital 23
Card 23
Chil@@ 23
Chin@@ 23
Comput@@ 23
Conn@@ 23
Cup 23
Dam 23
Dead 23
Don 23
ESPN 23
Educ@@ 23
Eff@@ 23
FE 23
Fel@@ 23
Field 23
Francis 23
Get@@ 23
Golden 23
Grammar 23
Hai 23
Hand@@ 23
Immun@@ 23
Investment 23
Karl 23
LIN@@ 23
Let@@ 23
Luc@@ 23
Mr. 23
NP 23
NY 23
Natur@@ 23
Neg@@ 23
Nic@@ 23
Oxford 23
Physics 23
Plan 23
Prince 23
Rang@@ 23
Ras@@ 23
Re 23
Sha@@ 23
Sl@@ 23
Sph@@ 23
Spir@@ 23
Square 23
Statistics 23
Stock 23
That 23
UA 23
UFO 23
UM 23
WTA 23
Wall 23
Whit@@ 23
academic 23
acted 23
addi@@ 23
agog@@ 23
agu@@ 23
alu 23
amin 23
anger 23
angular 23
ara@@ 23
arium 23
asing 23
aura 23
aut 23
aves 23
awn 23
bacteria 23
bad 23
behavi@@ 23
bine 23
biology 23
brid 23
capacity 23
card 23
cial 23
col 23
common@@ 23
conn@@ 23
conson@@ 23
cost 23
cou@@ 23
created 23
dea 23
decom@@ 23
dies 23
dis 23
dro@@ 23
elimin@@ 23
embr@@ 23
ensi@@ 23
entation 23
ession 23
exec@@ 23
fe 23
finals 23
flav@@ 23
gun 23
hari 23
heart 23
hole 23
ight@@ 23
ij@@ 23
ika@@ 23
iki 23
illy 23
inflam@@ 23
inform@@ 23
ink@@ 23
jar 23
ky@@ 23
lak@@ 23
leading 23
lep@@ 23
lim 23
lim@@ 23
liv@@ 23
luk 23
mRNA 23
mai 23
mand@@ 23
matrix 23
max 23
metric 23
mis 23
molecular 23
moral 23
nit@@ 23
occur 23
oms 23
oon 23
oriented 23
origin 23
otom@@ 23
pag@@ 23
ped 23
ped@@ 23
pendi@@ 23
pher@@ 23
poems 23
ports 23
predic@@ 23
recur@@ 23
resulting 23
rid 23
sah@@ 23
sites 23
soil 23
sour@@ 23
span 23
t. 23
tai 23
tas@@ 23
teen 23
thal@@ 23
tice 23
titles 23
tone 23
trag@@ 23
tras@@ 23
ui 23
usa 23
ventr@@ 23
vet 23
virtu@@ 23
watch 23
wav@@ 23
win@@ 23
wind@@ 23
yar@@ 23
yellow 23
young 23
yx 23
zen 23
zer 23
¨ 23
ó 23
ē 23
ŋ@@ 23
˚ 23
γ@@ 23
в@@ 23
н 23
о@@ 23
ל 23
أبو 23
علی 23
अचा@@ 23
ঁ@@ 23
ન@@ 23
ா 23
ಡ@@ 23
ಶ@@ 23
ള@@ 23
ར 23
ྒ@@ 23
သ@@ 23
္ 23
ṇ@@ 23
↓ 23
李@@ 23
09.@@ 22
1130 22
1360 22
1406 22
1488 22
1493 22
1567 22
1677 22
394 22
441 22
469 22
482 22
498 22
54,@@ 22
542 22
681 22
751 22
969 22
Agre@@ 22
Agriculture 22
Anthro@@ 22
Apo@@ 22
App 22
Archae@@ 22
Ass@@ 22
Bell 22
Building 22
CDC 22
CK 22
CON@@ 22
Carl 22
Chem@@ 22
Citi@@ 22
Commonwealth 22
Cru@@ 22
D.C. 22
Dat@@ 22
Deg@@ 22
Diplom@@ 22
Dul@@ 22
FR 22
Free@@ 22
GN 22
HT 22
Head@@ 22
Honda 22
IOC 22
Indo 22
Its 22
Jan 22
Johann 22
KB 22
Kath@@ 22
Kom@@ 22
Kud@@ 22
Lambert 22
Leon@@ 22
Lib@@ 22
Main@@ 22
Mo 22
Money 22
Mumbai 22
NGC 22
Nat@@ 22
Ng@@ 22
North@@ 22
Nuclear 22
Ol@@ 22
Om@@ 22
Only 22
Operation 22
Original 22
Part 22
Paw@@ 22
Peace 22
Person@@ 22
Port 22
Programm@@ 22
Publishing 22
Put@@ 22
RR 22
Review 22
Rob@@ 22
Roh@@ 22
Rol@@ 22
SAS 22
Seven 22
Shak@@ 22
Shell 22
Short 22
Staff 22
TB 22
TG@@ 22
Taylor 22
Termin@@ 22
Thus 22
Tiger 22
Til@@ 22
Up 22
Veh@@ 22
WC 22
Wis@@ 22
Work 22
abol@@ 22
acial 22
acter 22
acting 22
added 22
additional 22
agi 22
alam 22
alan@@ 22
ald 22
altern@@ 22
ament 22
angi 22
application 22
ately 22
ator@@ 22
audio 22
automatic 22
awali 22
ayed 22
ayn@@ 22
ball@@ 22
bis 22
break 22
cand@@ 22
cast 22
cent@@ 22
cli@@ 22
completed 22
condi@@ 22
contact 22
continuous 22
cord 22
cum@@ 22
defeat 22
despite 22
dial@@ 22
dog 22
dre@@ 22
eca 22
ega 22
eing 22
ello 22
else 22
eping 22
ests 22
failure 22
fan 22
fel@@ 22
fle@@ 22
follows 22
foot@@ 22
fos@@ 22
fourth 22
gain 22
gases 22
genetic 22
giant 22
govern@@ 22
heli@@ 22
hes@@ 22
human@@ 22
icide 22
idence 22
ider 22
ights 22
ilia 22
iro 22
issa 22
ja@@ 22
je 22
joint 22
kern@@ 22
kes 22
kol@@ 22
kor@@ 22
las@@ 22
lem@@ 22
lex 22
link 22
lip@@ 22
listed 22
look 22
lymph@@ 22
manufacturing 22
mation 22
maximum 22
meet 22
met 22
mid@@ 22
mit 22
mos 22
movie 22
nik 22
nitr@@ 22
née 22
oe 22
oi 22
ores 22
ort 22
otes 22
oti 22
ought 22
ource 22
oxid@@ 22
personality 22
pet 22
pet@@ 22
philosoph@@ 22
phora 22
plug@@ 22
politics 22
pot 22
pren@@ 22
rare 22
rates 22
real@@ 22
repe@@ 22
required 22
resolution 22
rod@@ 22
role 22
satur@@ 22
sep@@ 22
sets 22
shown 22
sic 22
sign 22
spot 22
stein 22
strength 22
students 22
superior 22
surgery 22
sus@@ 22
swe@@ 22
tanks 22
tent 22
testing 22
therefore 22
transmission 22
tured 22
tv 22
udi@@ 22
uh@@ 22
ulas 22
union 22
useful 22
v. 22
video 22
vill@@ 22
villages 22
vus 22
wards 22
ware 22
wife 22
with@@ 22
xy 22
yak@@ 22
yr 22
yro@@ 22
¢ 22
É 22
ì 22
ος 22
ֶ@@ 22
צ@@ 22
ال@@ 22
خ@@ 22
من 22
ٱ@@ 22
सोसाय@@ 22
জ 22
ਤ 22
ਲ 22
દ@@ 22
ལ@@ 22
ི 22
ခ@@ 22
ပ@@ 22
រ@@ 22
ṣ@@ 22
ⴰ@@ 22
1274 21
1380 21
1593 21
176@@ 21
2. 21
2.0@@ 21
382 21
423 21
436 21
463 21
464 21
532 21
554 21
576 21
585 21
76,@@ 21
985 21
AJ 21
ASA 21
Adobe 21
Akh@@ 21
Although 21
Andr@@ 21
Arab 21
Ball 21
Be 21
Block 21
Bou@@ 21
Cambridge 21
Cen@@ 21
Century 21
Channel 21
Chir@@ 21
Collection 21
Color 21
Compos@@ 21
Concer@@ 21
Coordin@@ 21
Dan 21
Drive 21
Eastern 21
Environmental 21
Ex 21
Fire 21
Flash 21
Front 21
GL 21
Game@@ 21
Gas 21
Gau@@ 21
Gon@@ 21
Gra@@ 21
Has@@ 21
Heli@@ 21
Her 21
Il 21
Ireland 21
Islam 21
It@@ 21
Jah@@ 21
Jas@@ 21
Jaw@@ 21
Jer@@ 21
Joint 21
Kann@@ 21
Lewis 21
Like 21
Mahar@@ 21
Maria 21
Mark 21
Marx@@ 21
Mass 21
Miami 21
Micha@@ 21
Mov@@ 21
Movement 21
Myr@@ 21
Nau@@ 21
Not 21
OT@@ 21
Ocean 21
Over@@ 21
Pedro 21
References 21
Sans@@ 21
Sant@@ 21
Satellite 21
Solar 21
String 21
Suc@@ 21
T20I 21
Thal@@ 21
Then 21
Tradi@@ 21
UE@@ 21
Ut@@ 21
Wiki@@ 21
Works 21
Yos@@ 21
according 21
agreement 21
ague 21
alay@@ 21
anced 21
anch@@ 21
ares 21
arms 21
arya 21
aster 21
atch 21
atis@@ 21
atri@@ 21
atta 21
bah 21
band@@ 21
benz@@ 21
bits 21
blog 21
cape 21
carbon@@ 21
ception 21
clinical 21
collec@@ 21
collection 21
companies 21
compared 21
compos@@ 21
conc@@ 21
conditions 21
cons@@ 21
consequ@@ 21
continued 21
cricket 21
democ@@ 21
details 21
develop@@ 21
dice 21
document 21
edition 21
elli 21
emic 21
enes 21
enth 21
ept@@ 21
esses 21
etry 21
eval 21
expressed 21
extr@@ 21
fiel@@ 21
figures 21
find 21
fon@@ 21
gar 21
gros@@ 21
hot 21
iger@@ 21
igu@@ 21
impl@@ 21
ingi@@ 21
integral 21
ises 21
ishing 21
jag@@ 21
junction 21
lac@@ 21
layer 21
lif@@ 21
lith@@ 21
logo 21
mail@@ 21
meeting 21
month 21
mutation 21
nati@@ 21
need 21
nel 21
olith@@ 21
ophys@@ 21
opus 21
osp@@ 21
ousness 21
practice 21
pri@@ 21
pron@@ 21
provides 21
pt 21
quarter 21
radio@@ 21
rang 21
recognition 21
regular 21
report 21
response 21
reverse 21
rul@@ 21
sat@@ 21
says 21
set@@ 21
sn@@ 21
spread 21
stell@@ 21
string 21
subject 21
sur 21
tain 21
thro@@ 21
tioning 21
tol@@ 21
transition 21
types 21
ues 21
uman 21
uria 21
urn@@ 21
usion 21
vec@@ 21
vers@@ 21
wali 21
xi 21
yana 21
ü@@ 21
ŋ 21
ʊ 21
π@@ 21
а@@ 21
ג@@ 21
ח@@ 21
॔ 21
ও@@ 21
ষ 21
જ@@ 21
କ@@ 21
ସ@@ 21
బ@@ 21
ಬ@@ 21
ಲ 21
ಹ@@ 21
ೀ@@ 21
അ@@ 21
സ@@ 21
ာ 21
ḥ@@ 21
∞ 21
1,3 20
1270 20
1382 20
1402 20
1538 20
1557 20
1577 20
1654 20
369 20
396 20
434 20
474 20
491 20
511 20
541 20
548 20
559 20
587 20
92.@@ 20
99,@@ 20
997 20
ABS 20
Administr@@ 20
Ale@@ 20
Alg@@ 20
Amazon 20
Back 20
Bengal 20
Bod@@ 20
Buz@@ 20
CBC 20
Case 20
Cul@@ 20
Cyc@@ 20
Delta 20
Den@@ 20
Dic@@ 20
Dr 20
Dru@@ 20
Eg@@ 20
Electr@@ 20
Emer@@ 20
Ey@@ 20
Four 20
Fourier 20
Gand@@ 20
Gaz@@ 20
Generation 20
Gold@@ 20
Hot 20
Imp@@ 20
Ing@@ 20
Islamic 20
Jar@@ 20
Johnson 20
Jud@@ 20
Kav@@ 20
Kepler 20
Kho@@ 20
LCD 20
Lab 20
Lang@@ 20
Langu@@ 20
Lower 20
Master 20
Memory 20
Mid@@ 20
Mik@@ 20
Mund@@ 20
Must@@ 20
ND 20
NHL 20
Nak@@ 20
Nan@@ 20
Out 20
Pel@@ 20
Ph.D. 20
Phan@@ 20
Phil@@ 20
Phon@@ 20
Pil@@ 20
Pon@@ 20
Prim@@ 20
Prize 20
Rural 20
SU 20
Simon 20
Soviet 20
Ster@@ 20
Stre@@ 20
Syst@@ 20
Ta 20
Theatre 20
Therefore 20
Thor@@ 20
Too 20
Top 20
Tum@@ 20
VB 20
Ve@@ 20
Was@@ 20
Wi 20
Wik@@ 20
Wood@@ 20
Youth 20
acs 20
activ@@ 20
ained 20
ait@@ 20
almost 20
aly 20
amer@@ 20
ancient 20
ange 20
ante 20
apa 20
articles 20
ased 20
assembly 20
atio 20
atu 20
bear 20
beginning 20
bli@@ 20
career 20
chr@@ 20
cid 20
clus@@ 20
competition 20
concentr@@ 20
consecutive 20
cover 20
cover@@ 20
create 20
dal 20
depos@@ 20
dial 20
edia 20
edr@@ 20
electricity 20
ellip@@ 20
enter 20
epi@@ 20
escope 20
esian 20
ettes 20
evolution 20
exact 20
existence 20
exp@@ 20
ext 20
fast 20
fo 20
formal 20
friend 20
genus 20
guide 20
hair 20
hau@@ 20
hik@@ 20
host 20
iced 20
ichi 20
ient 20
ier@@ 20
ify 20
iled 20
iling 20
ime@@ 20
impul@@ 20
individual 20
ingu@@ 20
integration 20
intest@@ 20
introduced 20
isi 20
issue 20
itary 20
itu@@ 20
lateral 20
lib@@ 20
ligh@@ 20
links 20
male 20
matches 20
math 20
med 20
might 20
migration 20
ming 20
mouth 20
ms@@ 20
nch@@ 20
needs 20
notes 20
nt 20
nutri@@ 20
ny 20
odi 20
opl@@ 20
ord 20
ords 20
otion 20
oud 20
paper 20
parent 20
past 20
pharm@@ 20
phys@@ 20
players 20
policy 20
principal 20
provide 20
provided 20
purpose 20
pyr@@ 20
railway 20
reason 20
records 20
reduc@@ 20
ref@@ 20
rev@@ 20
revolution 20
ric@@ 20
rio 20
ror 20
separate 20
shire 20
sia 20
soon 20
southern 20
spr@@ 20
stig@@ 20
sts 20
student 20
subs@@ 20
sup@@ 20
taire 20
tal 20
tank 20
tap@@ 20
teri@@ 20
tetr@@ 20
topl@@ 20
tr 20
train 20
trich@@ 20
ured 20
uring 20
wak@@ 20
want 20
website 20
wild 20
wood@@ 20
yah 20
yas@@ 20
yin 20
Ø@@ 20
ô@@ 20
č@@ 20
η 20
الر@@ 20
چ@@ 20
ی@@ 20
औस@@ 20
ই 20
ষ@@ 20
ਘ 20
ਸ 20
਼ 20
ા 20
ங 20
ப 20
ள@@ 20
ಟ@@ 20
ട 20
ശ@@ 20
န 20
း 20
◆ 20
04.@@ 19
06.@@ 19
07.@@ 19
1282 19
1377 19
1395 19
1404 19
1458 19
1461 19
1474 19
1479 19
18th 19
417 19
433 19
442 19
443 19
457 19
481 19
487 19
494 19
528 19
685 19
69,@@ 19
A3 19
AMC 19
About 19
African 19
Agu@@ 19
Anne 19
Arabic 19
Bam@@ 19
Bish@@ 19
Bus@@ 19
CU 19
Cape 19
Ceph@@ 19
Chen 19
Cho@@ 19
Corpor@@ 19
Cultural 19
Disney 19
Dud@@ 19
Dun@@ 19
Dz@@ 19
Evolution 19
FP@@ 19
Fem@@ 19
Flu@@ 19
Fox@@ 19
Fron@@ 19
Good@@ 19
Guide 19
HK@@ 19
Horse 19
IB 19
ING 19
Imperial 19
Indonesia 19
Inter 19
KV 19
Kang@@ 19
Lahore 19
Lal@@ 19
Link 19
M2 19
MX 19
Macintosh 19
Mam@@ 19
Marg@@ 19
Math@@ 19
Matthew 19
Mill@@ 19
Motor 19
NASCAR 19
NN 19
Ok@@ 19
Oriental 19
PCR 19
PRO@@ 19
Parti@@ 19
PhD 19
Physi@@ 19
Primary 19
Protection 19
Ray 19
Rot@@ 19
SN 19
SW 19
Sa 19
Small 19
Sper@@ 19
Stone 19
Tang@@ 19
Terr@@ 19
Territory 19
Thérèse 19
Trach@@ 19
UD 19
Vad@@ 19
WO@@ 19
Wii 19
Writ@@ 19
XL 19
aces 19
aching 19
adu@@ 19
agon@@ 19
agran@@ 19
aim@@ 19
ann 19
anol 19
aper@@ 19
ather 19
atra 19
aus 19
balance 19
ban 19
becomes 19
becoming 19
bio@@ 19
bodies 19
cannot 19
chamber 19
chloride 19
chu@@ 19
cine 19
clo@@ 19
close 19
closed 19
colour 19
combination 19
comes 19
commercial 19
cone 19
connection 19
const@@ 19
contract 19
conversion 19
cool@@ 19
counter@@ 19
counts 19
dark 19
demand 19
depth 19
digit@@ 19
diya 19
dog@@ 19
dom 19
domestic 19
dry 19
ean@@ 19
ebr@@ 19
eck@@ 19
eer 19
eld 19
emat@@ 19
emer@@ 19
enna 19
ett 19
etti 19
etus 19
evich 19
exhaus@@ 19
fluor@@ 19
fort 19
func@@ 19
future 19
gate 19
gery 19
gir@@ 19
graphic 19
guitarist 19
gy 19
hid@@ 19
highest 19
hl 19
hood 19
ible 19
ican 19
idas 19
ied 19
ifer@@ 19
ille 19
illus 19
ination 19
independence 19
influence 19
institute 19
intermedi@@ 19
isch@@ 19
isha 19
iter@@ 19
kab@@ 19
kad@@ 19
kir@@ 19
kt@@ 19
library 19
lide 19
lip 19
longer 19
loween 19
lows 19
lus@@ 19
marks 19
mb@@ 19
metabol@@ 19
mind 19
miz@@ 19
motiv@@ 19
native 19
news@@ 19
note 19
ochem@@ 19
oh 19
oid@@ 19
onis 19
open@@ 19
opti@@ 19
organization 19
oride 19
ostr@@ 19
otive 19
part@@ 19
party 19
perception 19
polyg@@ 19
prehensive 19
pressed 19
principles 19
private 19
quin@@ 19
rag@@ 19
recognized 19
recorded 19
release 19
remain 19
rey 19
ris@@ 19
road 19
rol@@ 19
ross 19
saf@@ 19
sana 19
sap@@ 19
soft 19
sover@@ 19
specif@@ 19
standing 19
structures 19
television 19
tern@@ 19
tery 19
tically 19
tiles 19
till@@ 19
tot@@ 19
tz@@ 19
ularis 19
unds 19
unge 19
unt@@ 19
upper 19
uth@@ 19
utions 19
versity 19
verte@@ 19
voc@@ 19
ways 19
why 19
xin 19
yd@@ 19
¼ 19
Å@@ 19
Ï@@ 19
Ù@@ 19
ás@@ 19
ł@@ 19
ǎ@@ 19
ɒ@@ 19
ʰ@@ 19
ʻ@@ 19
ζ@@ 19
ν@@ 19
ς 19
ار@@ 19
ج@@ 19
ع@@ 19
ل@@ 19
މ@@ 19
ট 19
ণ@@ 19
ধ 19
ফ 19
ત@@ 19
அ@@ 19
ཐ@@ 19
པ@@ 19
့ 19
ျ@@ 19
ṛ@@ 19
人 19
字 19
日本@@ 19
1080 18
1180 18
1204 18
1234 18
1295 18
1302 18
1327 18
1399 18
1425 18
1430 18
1482 18
1483 18
1655 18
438 18
453 18
537 18
Action 18
Anatom@@ 18
Andrew 18
Animal 18
Ax@@ 18
Base 18
Bau@@ 18
Bes@@ 18
Bru@@ 18
Change 18
Complex 18
Concep@@ 18
Confes@@ 18
Cou@@ 18
Cri@@ 18
Cus@@ 18
DH 18
DJ@@ 18
Dictionary 18
Do 18
Doc@@ 18
Docum@@ 18
Down@@ 18
During 18
Dys@@ 18
Eli@@ 18
Elizabeth 18
Epi@@ 18
Father 18
Five 18
Frank 18
Freedom 18
Fun@@ 18
Fur@@ 18
GR 18
Historical 18
Hong 18
IG 18
Imag@@ 18
Israel 18
JavaScript 18
Jos@@ 18
Jou@@ 18
Kah@@ 18
Keys 18
Ki 18
Kil@@ 18
Kong 18
Lag@@ 18
Latin 18
Len@@ 18
Lok@@ 18
Mari@@ 18
Marie 18
MiG 18
Minister 18
Morgan 18
Muz@@ 18
Mé@@ 18
NAT@@ 18
Non@@ 18
Ot@@ 18
Pach@@ 18
Peak 18
Pedi@@ 18
Philosoph@@ 18
Phosph@@ 18
Pir@@ 18
Price 18
Production 18
Program 18
Punj@@ 18
Python 18
Rand@@ 18
Rat 18
Rav@@ 18
Ris@@ 18
Rum@@ 18
Russia 18
S1 18
Sci@@ 18
Scr@@ 18
Smart 18
Sog@@ 18
South@@ 18
Sports 18
Takah@@ 18
Thes@@ 18
Thomson 18
Ton@@ 18
Tower 18
Tree 18
Tu 18
UNESCO 18
Under@@ 18
VV@@ 18
Vice 18
Will 18
Work@@ 18
XXI 18
YO@@ 18
abl@@ 18
accur@@ 18
acker 18
acks 18
acteria 18
adio 18
agin@@ 18
ahr@@ 18
aise 18
aku 18
alle 18
aller 18
alog 18
ande 18
anim@@ 18
ank@@ 18
antum 18
ao@@ 18
appointed 18
araj@@ 18
arge 18
arily 18
arly 18
aro 18
attitude 18
aurus 18
autom@@ 18
avar@@ 18
ayer 18
aying 18
bab@@ 18
believed 18
belt 18
bic 18
bio 18
biom@@ 18
boundary 18
branch 18
bu 18
cardi@@ 18
celer@@ 18
changed 18
chin@@ 18
chor@@ 18
claimed 18
cle 18
client 18
coc@@ 18
community 18
dal@@ 18
dam 18
dated 18
dem 18
depend@@ 18
directed 18
discovered 18
disper@@ 18
dle 18
dok@@ 18
eder@@ 18
edral 18
edy 18
ef 18
eign 18
eline 18
elled 18
emati@@ 18
eni 18
eno 18
esi@@ 18
ested 18
eton 18
events 18
farming 18
fib@@ 18
formes 18
gin@@ 18
gran@@ 18
heavy 18
hid 18
hou 18
humans 18
ict 18
ideas 18
ido 18
iga 18
igh 18
ilk 18
imagin@@ 18
increases 18
inda 18
industrial 18
inian 18
inking 18
internet 18
interpre@@ 18
ives 18
jap@@ 18
jet 18
kap@@ 18
kata 18
kav@@ 18
lett 18
liz@@ 18
lu 18
mach@@ 18
marketing 18
mata 18
max@@ 18
may@@ 18
mud@@ 18
nak@@ 18
o. 18
ograph 18
oj@@ 18
older 18
onds 18
ordin@@ 18
orial 18
osaurus 18
pain 18
plasma 18
portal 18
pu 18
qi 18
racy 18
radial 18
rah@@ 18
rain 18
red@@ 18
regions 18
rif@@ 18
ring@@ 18
rou@@ 18
rub@@ 18
sac@@ 18
sand@@ 18
scre@@ 18
shape 18
shore 18
shu@@ 18
sik@@ 18
sk 18
ski 18
sm 18
spl@@ 18
ss@@ 18
stand 18
stop 18
stories 18
straight 18
sun 18
super 18
sych@@ 18
synchron@@ 18
tab@@ 18
tension 18
tern 18
tium 18
tiz@@ 18
tly 18
traditional 18
trap@@ 18
travel 18
troph@@ 18
uch 18
ucle@@ 18
ult@@ 18
ump 18
unter 18
upta 18
ury 18
vention 18
vessel 18
vie@@ 18
whom 18
yam@@ 18
ylon 18
zo 18
ñ 18
ù 18
Ā@@ 18
ɐ 18
ɐ@@ 18
ʿ@@ 18
απ@@ 18
τ 18
ва 18
ס@@ 18
ת@@ 18
احمد 18
الم@@ 18
سن@@ 18
ف@@ 18
وَ@@ 18
َ@@ 18
ِ@@ 18
গ 18
ਅ@@ 18
ਿ 18
ં@@ 18
ી@@ 18
ା 18
ள 18
చ@@ 18
ే@@ 18
ో@@ 18
ര 18
န@@ 18
ု 18
ွ@@ 18
℃ 18
← 18
子 18
山 18
， 18
1.6@@ 17
1205 17
1280 17
1310 17
1340 17
1356 17
1371 17
1454 17
1551 17
1656 17
178@@ 17
503 17
582 17
59,@@ 17
607 17
66,@@ 17
AZ 17
Ab 17
Abr@@ 17
Abu 17
Alternative 17
Archi@@ 17
Batt@@ 17
Because 17
Bed@@ 17
Blu@@ 17
Body 17
CH2@@ 17
Can 17
Catholic 17
Ce@@ 17
Census 17
Chrom@@ 17
Class@@ 17
Combin@@ 17
Cricket 17
Diam@@ 17
Dim@@ 17
Dog 17
Dra@@ 17
EU@@ 17
Economy 17
Europ@@ 17
External 17
Eye 17
F.C. 17
Fa@@ 17
Fed@@ 17
Forces 17
Fres@@ 17
Fri@@ 17
Garden 17
Glu@@ 17
Hab@@ 17
Heat 17
Heter@@ 17
Hit@@ 17
Horiz@@ 17
Hot@@ 17
Hyp@@ 17
Ice 17
JR 17
Jade 17
Jr 17
Justice 17
Kash@@ 17
Kund@@ 17
Lawrence 17
Lev@@ 17
Lex@@ 17
Liberation 17
Lif@@ 17
Lili@@ 17
Lit@@ 17
Mit@@ 17
NXT 17
Nim@@ 17
Nin@@ 17
Nuestra 17
Nur@@ 17
Observatory 17
Olig@@ 17
Origin 17
Pac@@ 17
Peninsula 17
Personal 17
Petrol@@ 17
Phone 17
Politics 17
Potter 17
Prof. 17
Rick@@ 17
Ring 17
Rub@@ 17
SK 17
Sach@@ 17
Samb@@ 17
Scott 17
Sex 17
Señora 17
Sle@@ 17
Song 17
Standards 17
Store 17
Supreme 17
TNT 17
Tas@@ 17
Team 17
Telec@@ 17
Temper@@ 17
Than@@ 17
Tour 17
Toyota 17
Trav@@ 17
Tun@@ 17
VS 17
View 17
Volume 17
Wad@@ 17
Water@@ 17
Wright 17
aan 17
abr@@ 17
ache 17
acle 17
acqu@@ 17
aden@@ 17
adjus@@ 17
agn@@ 17
aircraft 17
aking 17
alis@@ 17
allowed 17
ampl@@ 17
anas 17
ander@@ 17
anj@@ 17
ared 17
arum 17
asan 17
aud 17
ause 17
authority 17
awards 17
bach 17
bid 17
boy 17
break@@ 17
brought 17
calend@@ 17
canal 17
cep@@ 17
ceph@@ 17
character 17
circular 17
command@@ 17
committee 17
conj@@ 17
connected 17
consisting 17
containing 17
corresponding 17
criticized 17
cultural 17
cyc@@ 17
defeated 17
degrees 17
denomin@@ 17
described 17
dian 17
differences 17
din@@ 17
disch@@ 17
dish 17
drawn 17
ecting 17
ectiv@@ 17
ecus 17
effective 17
eggs 17
eigen@@ 17
elles 17
enses 17
entry 17
estim@@ 17
estimated 17
etal 17
eto 17
etr@@ 17
existing 17
feature 17
fi 17
flag@@ 17
focus 17
followed 17
fur 17
gest@@ 17
gin 17
gir 17
glu@@ 17
hard@@ 17
hol 17
holds 17
ician 17
icles 17
idi 17
increased 17
instruments 17
interactions 17
ishi 17
jang@@ 17
jun@@ 17
kam@@ 17
kay@@ 17
kers 17
ket@@ 17
kill 17
kit@@ 17
lab 17
law@@ 17
led@@ 17
ledge 17
leg 17
liber@@ 17
lik@@ 17
lists 17
loy@@ 17
ló 17
m. 17
main@@ 17
mans 17
mass@@ 17
meas@@ 17
median 17
mentation 17
message 17
mine 17
nah@@ 17
navig@@ 17
nee 17
neph@@ 17
ns@@ 17
offer 17
ois 17
oku 17
omb 17
ony@@ 17
oti@@ 17
oug@@ 17
ovi@@ 17
pack@@ 17
pah@@ 17
pattern 17
peg 17
persons 17
pha 17
pin 17
pitch 17
pli@@ 17
pology 17
pra 17
preser@@ 17
printing 17
pro 17
profile 17
pure 17
rant 17
rav@@ 17
relief 17
rine 17
rise 17
rus@@ 17
sciences 17
sely 17
signed 17
silver 17
skin 17
sko@@ 17
spac@@ 17
sta 17
steam 17
substitu@@ 17
suff@@ 17
switch 17
taking 17
tation 17
techniques 17
tent@@ 17
thal 17
tham 17
toc@@ 17
tos@@ 17
tran@@ 17
turing 17
uniform 17
unk 17
urg 17
users 17
ution 17
utt@@ 17
uy@@ 17
vak@@ 17
variation 17
verl@@ 17
versi@@ 17
vertical 17
virtual 17
vit@@ 17
went 17
wers 17
xa 17
zed 17
Ì@@ 17
å@@ 17
ée 17
ă@@ 17
ě@@ 17
Š@@ 17
қ@@ 17
ө@@ 17
ר 17
ب 17
حسن 17
شهر 17
علي 17
ــ@@ 17
ِ 17
ی 17
ܝ@@ 17
रावट 17
ॼ@@ 17
ৃ@@ 17
ো 17
ਆ@@ 17
ੂ@@ 17
ક@@ 17
ો@@ 17
େ@@ 17
ண 17
ண@@ 17
ய 17
ழ 17
ద 17
య 17
ἀ@@ 17
─ 17
ﷺ 17
1. 16
1.4@@ 16
109@@ 16
1227 16
1308 16
1378 16
1390 16
13th 16
1418 16
1422 16
1428 16
1439 16
1471 16
1497 16
14th 16
449 16
477 16
708 16
ACC 16
Afghanistan 16
Ah 16
Alliance 16
Anim@@ 16
Annual 16
Antarctic 16
Anth@@ 16
Assam 16
Atlantic 16
Atom@@ 16
Audio 16
Bisch@@ 16
Blo@@ 16
Boh@@ 16
Boston 16
Bour@@ 16
Boys 16
Bull 16
But 16
C3 16
Car 16
Chik@@ 16
Children 16
Cit@@ 16
Columbia 16
Commerce 16
Compu@@ 16
Conservation 16
Const@@ 16
Cret@@ 16
Cross 16
Crow@@ 16
Dance 16
Day@@ 16
Despite 16
Diagn@@ 16
Dip@@ 16
Direct 16
Editor 16
Egyptian 16
Ek@@ 16
Euc@@ 16
Exec@@ 16
Federal 16
Gom@@ 16
Gos@@ 16
Gram 16
Grav@@ 16
HK 16
HL 16
HMS 16
Haz@@ 16
Heinrich 16
Hollywood 16
Hou@@ 16
Howard 16
INSE@@ 16
Ins@@ 16
Instrum@@ 16
Insur@@ 16
Intro@@ 16
Isaac 16
Iso@@ 16
Italian 16
Jack 16
Jews 16
Jose 16
KG 16
KV@@ 16
Kno@@ 16
Kut@@ 16
Las@@ 16
Lau@@ 16
Lec@@ 16
Lep@@ 16
Letters 16
Literature 16
Loc@@ 16
Lotus 16
Mann@@ 16
Mant@@ 16
Mau@@ 16
Memorial 16
Mercury 16
Mn@@ 16
Mohammad 16
Mom@@ 16
Motors 16
Naz@@ 16
News@@ 16
Nih@@ 16
Nile 16
Official 16
Oh@@ 16
Oil 16
Or 16
Ou@@ 16
Ov@@ 16
Over 16
Pag@@ 16
Pati@@ 16
Patri@@ 16
Pit@@ 16
Play 16
Police 16
Private 16
Proper@@ 16
Psy@@ 16
Ques@@ 16
Religion 16
Renault 16
Rod@@ 16
Row@@ 16
Rule 16
SQ@@ 16
Say@@ 16
Sched@@ 16
Serv@@ 16
Sof@@ 16
Song@@ 16
St 16
Stat@@ 16
Stories 16
Suk@@ 16
Sv@@ 16
Syl@@ 16
Table 16
Tad@@ 16
Tax@@ 16
Text 16
Tos@@ 16
Tril@@ 16
UF@@ 16
Unix 16
Va@@ 16
Vol 16
Wak@@ 16
Wat@@ 16
Williams 16
Wir@@ 16
XT 16
Yard@@ 16
Years 16
Yer@@ 16
Your 16
Zar@@ 16
Zone 16
aceu@@ 16
acking 16
activities 16
adh@@ 16
ador 16
agonal 16
aine 16
alists 16
allow 16
alone 16
alt 16
ample 16
anya 16
appar@@ 16
approach 16
arab@@ 16
aras 16
arm 16
arts 16
aters 16
attempt 16
atum 16
aug@@ 16
bag@@ 16
bed@@ 16
benef@@ 16
bia 16
blast 16
brach@@ 16
bran@@ 16
brand@@ 16
brevi@@ 16
bud@@ 16
build 16
buildings 16
burg 16
camera 16
capture 16
carrier 16
cerebr@@ 16
channel 16
char 16
cia 16
cities 16
civiliz@@ 16
ck@@ 16
cold 16
column 16
constructed 16
construction 16
corpor@@ 16
counc@@ 16
cryp@@ 16
cycles 16
dam@@ 16
daughter 16
decided 16
declared 16
define 16
definiti@@ 16
dell 16
dible 16
dic 16
disc 16
domin@@ 16
echn@@ 16
educational 16
een 16
efforts 16
emit@@ 16
ench@@ 16
endi@@ 16
engines 16
engl@@ 16
entire 16
eper 16
esp@@ 16
ester@@ 16
exist 16
experimental 16
fem@@ 16
fen@@ 16
fifth 16
finance 16
flora 16
foc@@ 16
fri@@ 16
fy 16
gauge 16
geograph@@ 16
going 16
gon@@ 16
hani 16
heim 16
hisa 16
hour 16
hua 16
ikh 16
illing 16
impact 16
iness 16
ink 16
investig@@ 16
investment 16
isions 16
iss 16
keep 16
ken@@ 16
khi 16
kingdom 16
ldwide 16
line@@ 16
liqu@@ 16
mar 16
marriage 16
minimum 16
musical 16
nation 16
nation@@ 16
nia 16
noc@@ 16
noise 16
northern 16
nos@@ 16
oba 16
obia 16
objects 16
occus 16
odes 16
offic@@ 16
og 16
ograph@@ 16
oking 16
oles 16
olling 16
olus 16
oly@@ 16
onal@@ 16
ongo 16
ont 16
opter@@ 16
osus 16
overall 16
ox 16
pair 16
pal 16
parti@@ 16
peer 16
ph 16
places 16
planet 16
plates 16
playing 16
posterior 16
print@@ 16
produces 16
programs 16
prom@@ 16
prud@@ 16
psy@@ 16
que@@ 16
rah 16
ratic 16
reported 16
retired 16
review 16
rich 16
rop@@ 16
rot 16
rowspan 16
sad@@ 16
sense 16
serve 16
sof@@ 16
solutions 16
sonia 16
sons 16
spar@@ 16
sper@@ 16
stab@@ 16
stable 16
sth@@ 16
store 16
stre@@ 16
stream 16
stri@@ 16
supr@@ 16
tail 16
tary 16
teaching 16
teams 16
thing 16
thre@@ 16
transformation 16
uba 16
uka 16
ulla 16
universal 16
uno 16
vary 16
vehicle 16
vent 16
vor@@ 16
w.@@ 16
weigh@@ 16
wide 16
wil@@ 16
winning 16
woman 16
yer 16
yle 16
 16
ª@@ 16
Â@@ 16
Ö@@ 16
Ù 16
ë@@ 16
ï@@ 16
ö 16
ʌ@@ 16
θ@@ 16
и 16
л@@ 16
р 16
الح@@ 16
س@@ 16
ك 16
میں 16
پاکستان 16
ऎ 16
थापि 16
मुंब@@ 16
ગ@@ 16
હ@@ 16
ତ@@ 16
ନ 16
ஸ 16
అ@@ 16
ీ@@ 16
ಚ@@ 16
ಜ@@ 16
ദ@@ 16
ཁ@@ 16
བ 16
ུ 16
☃ 16
♭ 16
の@@ 16
国@@ 16
漢@@ 16
한@@ 16
﻿ 16
1185 15
1291 15
12th 15
1312 15
1337 15
1348 15
1349 15
1365 15
1389 15
1410 15
1472 15
1594 15
595 15
601 15
98,@@ 15
ARD 15
Affairs 15
Analy@@ 15
Apache 15
Arab@@ 15
Audi@@ 15
BW@@ 15
Bad 15
Band 15
Barn@@ 15
Bell@@ 15
Bird 15
Boy 15
Britain 15
Cancer 15
Cath@@ 15
Championship 15
Clap@@ 15
Cler@@ 15
Clin@@ 15
Coc@@ 15
Commons 15
Commun@@ 15
Compl@@ 15
Consult@@ 15
County 15
Criminal 15
Crown 15
Dah@@ 15
Daniel 15
Denmark 15
Diamond 15
Dir@@ 15
Dist@@ 15
Doctor 15
Dog@@ 15
Echin@@ 15
Emperor 15
Enter@@ 15
Even 15
Extr@@ 15
Ferr@@ 15
Finance 15
Fle@@ 15
Flo@@ 15
Four@@ 15
Ful@@ 15
Full 15
Future 15
Gil@@ 15
Grap@@ 15
Greater 15
Green@@ 15
Guinea 15
Haj@@ 15
Hay@@ 15
Hen@@ 15
Hey@@ 15
Hist@@ 15
Hos@@ 15
Ich@@ 15
Intel@@ 15
Jak@@ 15
Jav@@ 15
Joe 15
Jones 15
Kerala 15
Kim@@ 15
Kish@@ 15
Kw@@ 15
Lem@@ 15
Loh@@ 15
Lov@@ 15
Lud@@ 15
MG@@ 15
Malik 15
Marine 15
Market 15
Masters 15
Maw@@ 15
Maxim@@ 15
Miller 15
Miss@@ 15
Museo 15
Nacional 15
Navig@@ 15
Naw@@ 15
Ne 15
Neo@@ 15
Networks 15
Neu@@ 15
Notes 15
Olympics 15
Online 15
Otto 15
Our 15
Pharm@@ 15
Phase 15
Phen@@ 15
Philip 15
Prak@@ 15
Prom@@ 15
Province 15
RAF 15
RF@@ 15
Raja 15
Reh@@ 15
Rep@@ 15
Roy 15
Sark@@ 15
Sau@@ 15
Secondary 15
Ses@@ 15
Sound@@ 15
Space@@ 15
Species 15
Spl@@ 15
TU 15
Ten 15
Territ@@ 15
Tex@@ 15
Tom 15
Tour@@ 15
Ung@@ 15
Ved@@ 15
Victor 15
Vide@@ 15
WB 15
Wales 15
Wave 15
Why 15
Wiki 15
Wind 15
Wonder@@ 15
Ye@@ 15
Yu@@ 15
Z.@@ 15
a. 15
aar 15
abar@@ 15
abor@@ 15
abstr@@ 15
achiev@@ 15
acked 15
aco 15
adap@@ 15
add 15
aea 15
aeus 15
akh 15
alisation 15
alu@@ 15
amed 15
amide 15
anap@@ 15
ano@@ 15
anthus 15
anz@@ 15
app 15
applications 15
arti@@ 15
ases 15
ather@@ 15
atica 15
bill 15
bis@@ 15
bles 15
bow 15
bron@@ 15
bury 15
call 15
cam@@ 15
car 15
cent 15
characteristic 15
cible 15
cinema 15
citizens 15
cla@@ 15
classical 15
cles 15
clock 15
coming 15
competed 15
compl@@ 15
contain 15
control@@ 15
converted 15
cour@@ 15
craft 15
critics 15
cultiv@@ 15
cutting 15
cycl@@ 15
cyclo@@ 15
damage 15
dedicated 15
dimensions 15
diseases 15
dol@@ 15
drum 15
dt 15
eba 15
eck 15
ections 15
edited 15
ehr@@ 15
eight 15
elin 15
enberg 15
encies 15
enger 15
enh@@ 15
ente 15
ento 15
enzyme 15
erial 15
ers@@ 15
ership 15
etan 15
evalu@@ 15
examples 15
experim@@ 15
extinc@@ 15
fat 15
feed 15
feet 15
finish 15
fix@@ 15
française 15
fro@@ 15
fung@@ 15
gets 15
giving 15
goal 15
gor@@ 15
graduate 15
gru@@ 15
hai@@ 15
hair@@ 15
hands 15
hardware 15
heri 15
hero 15
hic 15
hind@@ 15
hit 15
hit@@ 15
hospital 15
hus@@ 15
ias 15
icians 15
icket 15
inclu@@ 15
infl@@ 15
itable 15
lack 15
lake 15
leaders 15
letters 15
likely 15
lime 15
lov@@ 15
lun@@ 15
magne@@ 15
mark@@ 15
mart 15
measured 15
metr@@ 15
model@@ 15
moved 15
nat@@ 15
nes 15
ning@@ 15
nor 15
noted 15
numerous 15
nun 15
nut 15
observ@@ 15
ocentr@@ 15
odor@@ 15
olig@@ 15
ologi@@ 15
omena 15
ometr@@ 15
ommun@@ 15
oned 15
onium 15
ood 15
opp@@ 15
orbital 15
orium 15
oso 15
ospace 15
particularly 15
person@@ 15
pid@@ 15
pit@@ 15
plain 15
plan 15
pler 15
plex@@ 15
pneum@@ 15
polis 15
pose 15
prak@@ 15
preci@@ 15
proper 15
ques 15
quet 15
radical 15
rang@@ 15
raph 15
ray@@ 15
referred 15
represent 15
resp@@ 15
retr@@ 15
roman@@ 15
sample 15
sau@@ 15
sci@@ 15
scr@@ 15
selected 15
share 15
slow 15
song 15
songs 15
statis@@ 15
stimul@@ 15
street 15
stret@@ 15
suffered 15
supported 15
tainable 15
tant 15
tard 15
technical 15
termin@@ 15
tests 15
thar@@ 15
theor@@ 15
think 15
tier 15
toral 15
tral 15
transport 15
tribes 15
truth 15
tubes 15
uel@@ 15
uer@@ 15
urb@@ 15
vapor 15
victory 15
views 15
vil 15
viv@@ 15
vs. 15
wani 15
waste 15
weeks 15
xim@@ 15
yab@@ 15
¡ 15
École 15
Ü 15
án@@ 15
és 15
ý@@ 15
δ@@ 15
д@@ 15
أ@@ 15
الع@@ 15
عمر 15
مو@@ 15
ي@@ 15
ْ@@ 15
گ@@ 15
ދ@@ 15
ऺ 15
হ 15
ৌ@@ 15
ਕ 15
ਨ 15
ୁ@@ 15
இ@@ 15
ஜ@@ 15
ಅ@@ 15
ೋ@@ 15
ച@@ 15
ണ@@ 15
പ 15
ൂ@@ 15
ോ@@ 15
ཆ@@ 15
⅓ 15
↔ 15
≠ 15
☑ 15
イ@@ 15
小@@ 15
10th 14
1304 14
1305 14
1346 14
1476 14
16th 14
1960s 14
1990s 14
2,2 14
202@@ 14
21st 14
722 14
96,@@ 14
97,@@ 14
Abd 14
Access 14
Ahmed 14
Ajax 14
Alb@@ 14
Albert 14
Aph@@ 14
Arc 14
Are 14
Aristot@@ 14
Associ@@ 14
Aus@@ 14
BO 14
Baba 14
Benz 14
Bit@@ 14
Blan@@ 14
Bow@@ 14
Box@@ 14
Broad@@ 14
Brown 14
Bus 14
CU@@ 14
Caes@@ 14
Cann@@ 14
Canon 14
Caribbean 14
Cast@@ 14
Castle 14
Champ@@ 14
Classical 14
Coch@@ 14
Cod@@ 14
Communications 14
Continu@@ 14
Core 14
Cran@@ 14
Dab@@ 14
Daimler 14
Das 14
Death 14
Deutschland 14
Ecol@@ 14
Edition 14
Engine 14
Ernst 14
Esper@@ 14
Eu@@ 14
Event 14
Evil 14
Expl@@ 14
FK 14
Fair@@ 14
Fey@@ 14
Fos@@ 14
Furn@@ 14
GL@@ 14
Gari@@ 14
Geography 14
Goa 14
Gujar@@ 14
Haw@@ 14
Hayes 14
Heavy 14
Hew@@ 14
Holy 14
Huy@@ 14
Indians 14
Java@@ 14
Judi@@ 14
Karnataka 14
Kau@@ 14
Key@@ 14
Kid@@ 14
Lan@@ 14
Late 14
Lay@@ 14
Leo 14
Level 14
Ley@@ 14
Libr@@ 14
Liv@@ 14
Living 14
Lot@@ 14
Marathon 14
Marx 14
Maxwell 14
Member 14
Mendel@@ 14
Mind 14
Ministry 14
Minor 14
Mountain 14
Movie 14
Mug@@ 14
Nation 14
Nel@@ 14
Nep@@ 14
Never 14
Opera 14
PW 14
Palace 14
Pent@@ 14
Phy@@ 14
Pictures 14
Pill@@ 14
Planet 14
Play@@ 14
Rai@@ 14
Renaissance 14
Reser@@ 14
Resources 14
Ry@@ 14
SBS 14
Sas@@ 14
Scar@@ 14
Scorpi@@ 14
Sevent@@ 14
Sham@@ 14
Singapore 14
Site 14
Siv@@ 14
Soft 14
Son 14
Spar@@ 14
Spot@@ 14
Stan@@ 14
Studios 14
Sultan@@ 14
Sut@@ 14
TI 14
Take 14
Talk 14
Today 14
Urs@@ 14
VIP 14
Vib@@ 14
Vision 14
Voice 14
Where 14
Wilson 14
Wol@@ 14
Wood 14
Word 14
Yel@@ 14
Z.A. 14
Zealand 14
a- 14
abdom@@ 14
abis 14
acr@@ 14
aday 14
ado@@ 14
adri 14
aen@@ 14
agen@@ 14
agon 14
ahl 14
ahu 14
aid@@ 14
alar 14
aller@@ 14
alpha 14
alphabet 14
alter@@ 14
alternative 14
alty 14
amen 14
ames 14
anag@@ 14
ando 14
aning 14
ape 14
apparent 14
appear 14
aras@@ 14
arn@@ 14
aru 14
asti@@ 14
atorial 14
auss 14
auto 14
beta 14
biological 14
blo@@ 14
border 14
boys 14
cap 14
celebr@@ 14
ces@@ 14
chan@@ 14
chang@@ 14
chart 14
chir@@ 14
circuits 14
cium 14
clav@@ 14
coal 14
coli 14
command 14
composition 14
compositions 14
configuration 14
consist@@ 14
correct 14
cup 14
custom@@ 14
dae 14
daily 14
defin@@ 14
diab@@ 14
dile 14
disk 14
divisions 14
dorsal 14
dra 14
dress 14
drug 14
dul@@ 14
eases 14
eins 14
eka 14
element@@ 14
employment 14
ened 14
ensor 14
ephone 14
esta 14
eting 14
etta 14
ety 14
etz@@ 14
eu 14
except 14
expl@@ 14
explan@@ 14
explor@@ 14
faces 14
failed 14
fee 14
females 14
fic@@ 14
finished 14
folk 14
foot 14
formul@@ 14
founder 14
galax@@ 14
gall@@ 14
gamma 14
garden 14
gem@@ 14
gene@@ 14
gens 14
goes 14
grandi@@ 14
growing 14
guitar@@ 14
gul@@ 14
gur@@ 14
hata 14
herb@@ 14
hips 14
hn 14
hn@@ 14
horn 14
hos@@ 14
icul@@ 14
icum 14
ield 14
ige 14
igg@@ 14
illed 14
illi 14
ilo 14
imbi 14
ime 14
inclin@@ 14
ingly 14
ini@@ 14
inj@@ 14
insec@@ 14
involving 14
isher 14
island 14
isol@@ 14
jana 14
jum@@ 14
justice 14
kat 14
kaya 14
kes@@ 14
kid@@ 14
kings 14
kins 14
lam 14
launched 14
lav@@ 14
leist@@ 14
lement 14
len 14
light@@ 14
longitud@@ 14
maker 14
mam@@ 14
mary 14
mas 14
master 14
mat 14
math@@ 14
medal 14
mes 14
minister 14
minutes 14
models 14
mud 14
multi 14
nad@@ 14
nan@@ 14
nea 14
necessary 14
nix 14
nos 14
nuc@@ 14
och 14
ois@@ 14
oki 14
olet 14
oli@@ 14
ologies 14
omb@@ 14
omer 14
online 14
ool 14
operator 14
orus 14
oted 14
othe@@ 14
ours 14
owned 14
pain@@ 14
passed 14
pay 14
perf@@ 14
perfect 14
petrol@@ 14
pper 14
protein 14
quart@@ 14
reas 14
recent 14
recogni@@ 14
rein@@ 14
repeated 14
replaced 14
reproduction 14
rid@@ 14
ridor 14
rod 14
ron@@ 14
sac 14
satis@@ 14
sel 14
setting 14
seudo 14
shif@@ 14
ships 14
shock 14
situated 14
sius 14
sively 14
sol 14
soul 14
speech 14
stan@@ 14
stated 14
structural 14
sura 14
tag 14
tain@@ 14
talk 14
technique 14
thu 14
tional@@ 14
titude 14
trad@@ 14
trading 14
tres 14
triple 14
tru@@ 14
tubercul@@ 14
tur 14
twice 14
ude 14
ulata 14
ull 14
urus 14
ushing 14
usi@@ 14
variety 14
veget@@ 14
vir 14
voice 14
volcan@@ 14
wali@@ 14
warf 14
whether 14
wig@@ 14
wir@@ 14
wire 14
writers 14
ylo@@ 14
© 14
¶ 14
Á@@ 14
Ø 14
én 14
ú 14
ɑ 14
ɡ 14
ρ@@ 14
τος 14
ка 14
м 14
у@@ 14
ы@@ 14
ֵ@@ 14
ז@@ 14
آباد 14
اس@@ 14
الب@@ 14
الن@@ 14
عن 14
في 14
لَ@@ 14
مسجد 14
کی 14
राणिक 14
ॻ@@ 14
ਭ@@ 14
੍ 14
અ@@ 14
ି 14
ం 14
ಣ@@ 14
ಪ 14
ಳ@@ 14
ಶ 14
റ@@ 14
လ@@ 14
ီ@@ 14
ᱟ@@ 14
ṅ@@ 14
♦ 14
三@@ 14
國@@ 14
新@@ 14
明@@ 14
ꯤ@@ 14
￱ 14
1,4 13
1396 13
1429 13
1431 13
1464 13
177@@ 13
1980s 13
3. 13
439 13
666 13
Abdullah 13
Abraham 13
Absol@@ 13
Acc@@ 13
Alt@@ 13
Amb@@ 13
Ani@@ 13
Asi@@ 13
Asunción 13
Autonom@@ 13
Aver@@ 13
Bagh@@ 13
Baj@@ 13
Barr@@ 13
Bec@@ 13
Benjamin 13
Blas@@ 13
Bombay 13
Bri@@ 13
Brothers 13
Bub@@ 13
Bug@@ 13
Bun@@ 13
Cab@@ 13
Charlie 13
Circle 13
Cla@@ 13
Classic 13
Cloud 13
Command 13
Communication 13
Consum@@ 13
Cont@@ 13
Continental 13
D9 13
Democ@@ 13
Dep@@ 13
Deutsche 13
Di 13
Dug@@ 13
EF 13
Economics 13
Esp@@ 13
Extreme 13
FDP 13
Fab@@ 13
Fame 13
Ferdinand 13
Final 13
Forbes 13
Formula 13
Fund@@ 13
Gallery 13
Garr@@ 13
Giovanni 13
Girl 13
Glass 13
Gob@@ 13
Gordon 13
Gru@@ 13
Gug@@ 13
Hans@@ 13
Herbert 13
Jerome 13
José 13
Julian 13
Jun@@ 13
Junior 13
Just 13
Kach@@ 13
Kaw@@ 13
Kes@@ 13
Ket@@ 13
Koh@@ 13
Kop@@ 13
Koz@@ 13
Leuc@@ 13
Lic@@ 13
Lik@@ 13
Lil@@ 13
Lut@@ 13
Lyn@@ 13
M3 13
Malay@@ 13
Manager 13
Mart 13
Maur@@ 13
Maz@@ 13
Mec@@ 13
Mercedes 13
Metallica 13
Mim@@ 13
Mini@@ 13
Mish@@ 13
Mt 13
Mu 13
Nab@@ 13
Nad@@ 13
Nepal 13
Offic@@ 13
Ophi@@ 13
Pall@@ 13
Paper 13
Part@@ 13
Partido 13
Pec@@ 13
Ph.@@ 13
Pirates 13
Plin@@ 13
Pos@@ 13
Principal 13
Priv@@ 13
Professional 13
Programme 13
Pyth@@ 13
Rahman 13
Regul@@ 13
Rein@@ 13
Religi@@ 13
Report 13
Resp@@ 13
Rhy@@ 13
Rox@@ 13
Ruby 13
SAR@@ 13
Sabha 13
Salvador 13
Samuel 13
Santiago 13
Saw@@ 13
Sche@@ 13
Scotland 13
Seg@@ 13
Signal 13
Simul@@ 13
SmackDown 13
Socialist 13
Sou@@ 13
Spanish 13
Spr@@ 13
Sten@@ 13
Sund@@ 13
Swiss 13
TER 13
Tag 13
Tah@@ 13
Task 13
Tek@@ 13
Television 13
Test@@ 13
Thompson 13
Tin@@ 13
Transport 13
Tunnel 13
Under 13
Unicode 13
Unit 13
Vag@@ 13
Veter@@ 13
Vill@@ 13
Walter 13
West@@ 13
Wide 13
Wit@@ 13
Yo@@ 13
Zero 13
abled 13
acher 13
acquisition 13
acter@@ 13
adas 13
address 13
advantage 13
aggregate 13
ags 13
aid 13
alar@@ 13
alde@@ 13
aliz@@ 13
allen 13
alog@@ 13
alogue 13
already 13
alum 13
ament@@ 13
anes 13
anner 13
anos 13
anthropo@@ 13
archi@@ 13
arius 13
armed 13
arranged 13
asar 13
ason 13
asser@@ 13
ater@@ 13
atidae 13
atmosphere 13
attention 13
attribu@@ 13
avirus 13
avoid 13
azim@@ 13
bak@@ 13
bas 13
battery 13
battle 13
bay@@ 13
baz@@ 13
beautiful 13
behind 13
bern@@ 13
biot@@ 13
bomb 13
bone 13
cable 13
cataly@@ 13
catch 13
cel 13
charg@@ 13
cho 13
cim@@ 13
claims 13
conductor 13
consists 13
contains 13
copper 13
cord@@ 13
corro@@ 13
counter 13
creation 13
criptions 13
culus 13
dan@@ 13
declar@@ 13
declin@@ 13
didae 13
difficult 13
dix 13
doctrine 13
draw 13
duk@@ 13
e.org 13
earlier 13
edra 13
educated 13
eed 13
egr@@ 13
elia 13
elt 13
empir@@ 13
enko 13
entered 13
entes 13
erh@@ 13
eron 13
establish 13
etto 13
evi 13
examin@@ 13
expanded 13
experience 13
extrem@@ 13
facts 13
falls 13
fera 13
feud@@ 13
ffer 13
fit@@ 13
flight 13
folio 13
forests 13
found@@ 13
frag@@ 13
fs 13
ful@@ 13
functional 13
für 13
gained 13
games 13
gan 13
gau@@ 13
geb@@ 13
gel@@ 13
gestion 13
grap@@ 13
hen@@ 13
hibition 13
hs 13
hy 13
icks 13
ideal 13
iger 13
iku@@ 13
iller 13
individuals 13
inferior 13
initi@@ 13
initial 13
inner 13
integrated 13
intellectu@@ 13
ious 13
iter 13
ix@@ 13
jah@@ 13
kari 13
kel 13
killed 13
kot@@ 13
kun@@ 13
label 13
lap 13
lay 13
luc@@ 13
mad 13
mainly 13
mak@@ 13
makes 13
manipul@@ 13
markets 13
married 13
mec@@ 13
mers 13
migr@@ 13
miner@@ 13
mont 13
moun@@ 13
nations 13
natur@@ 13
nig@@ 13
novi@@ 13
observed 13
ogene 13
omin@@ 13
onas 13
onym 13
ophyl@@ 13
opsis 13
ored 13
osh 13
oting 13
otra 13
paid 13
palli@@ 13
parties 13
photo 13
phus 13
plant@@ 13
plays 13
pollution 13
powers 13
pp 13
praised 13
present@@ 13
professional 13
proportion 13
protect 13
protection 13
province 13
pt@@ 13
pup@@ 13
question 13
radic@@ 13
rapid 13
reach 13
reached 13
refer 13
refers 13
refin@@ 13
reform 13
registr@@ 13
represented 13
representing 13
res 13
ric 13
rich@@ 13
ridge 13
roc@@ 13
runner 13
s. 13
saini 13
screen@@ 13
seed 13
sequ@@ 13
shel@@ 13
shor@@ 13
shoul@@ 13
ska 13
smaller 13
som 13
spirit 13
stand@@ 13
statistics 13
stones 13
sty@@ 13
supp@@ 13
tad@@ 13
tah@@ 13
tat@@ 13
techn@@ 13
terminal 13
thousand 13
thy@@ 13
tified 13
tigen 13
tos 13
tour@@ 13
traits 13
travi@@ 13
tries 13
tum 13
typically 13
ulo 13
umn 13
university 13
uro 13
valley 13
vo 13
vot 13
wana 13
wash@@ 13
whilst 13
widely 13
worldwide 13
yat 13
yen@@ 13
zy 13
ár@@ 13
ê@@ 13
ë 13
ì@@ 13
ò 13
ón 13
þ@@ 13
ɹ@@ 13
Σ 13
χ@@ 13
ός 13
а 13
г@@ 13
ская 13
ׁ@@ 13
ד 13
ז 13
ע 13
ابن 13
ار 13
الرحمن 13
ر 13
ری 13
سم 13
ش 13
محافظة 13
مَ@@ 13
و@@ 13
ين 13
ު 13
दानिक 13
ऺ@@ 13
ঘ@@ 13
ছ@@ 13
ਬ 13
ન 13
ભ@@ 13
સ@@ 13
ુ@@ 13
ହ@@ 13
எ@@ 13
ழ@@ 13
ట@@ 13
డ 13
హ@@ 13
ೂ@@ 13
ം@@ 13
ീ@@ 13
ൃ@@ 13
ම@@ 13
ස@@ 13
ු@@ 13
ཀ@@ 13
ན@@ 13
པ 13
စ@@ 13
ည 13
ა@@ 13
ម@@ 13
‑ 13
☉ 13
南@@ 13
金@@ 13
김@@ 13
 13
1160 12
11th 12
1385 12
175@@ 12
AFC 12
Active 12
Adi@@ 12
Adv@@ 12
Afgh@@ 12
Alan 12
Alex@@ 12
Amer@@ 12
And@@ 12
Ans@@ 12
Assist@@ 12
Bati@@ 12
Big@@ 12
Boeing 12
Bomb@@ 12
Brach@@ 12
Brain 12
Brid@@ 12
Brom@@ 12
CHP 12
Calvin 12
Camb@@ 12
Camp 12
Camp@@ 12
Career 12
Cathedral 12
Cau@@ 12
Cay@@ 12
Ch 12
Chan@@ 12
Chel@@ 12
Chron@@ 12
Chur@@ 12
Clar@@ 12
Cli@@ 12
Clo@@ 12
Compan@@ 12
Comple@@ 12
Constitution 12
Cov@@ 12
Dark 12
Das@@ 12
Desert 12
Dipl@@ 12
Director 12
Distribution 12
Domin@@ 12
Double 12
Due 12
Dw@@ 12
Dé@@ 12
E3 12
EB 12
ESS 12
Einstein 12
Elev@@ 12
En 12
End@@ 12
Entre@@ 12
Ev@@ 12
Executive 12
FIBA 12
Fas@@ 12
Form 12
Forum 12
GG 12
Gab@@ 12
Gene@@ 12
Girls 12
Govern@@ 12
Graham 12
Ground 12
Ha 12
Haf@@ 12
Hak@@ 12
Hansen 12
Higher 12
Hippo@@ 12
Hub 12
Hypo@@ 12
Interactive 12
Jac@@ 12
Ji 12
Jug@@ 12
KC 12
King@@ 12
Kings 12
Know@@ 12
Kuk@@ 12
L4 12
Lah@@ 12
Large 12
Left 12
Lens 12
Libre 12
Linn@@ 12
Lip@@ 12
Lis@@ 12
Lob@@ 12
Local 12
Lod@@ 12
London@@ 12
Lost 12
Lu 12
MAX 12
MVP 12
Mans@@ 12
Manufac@@ 12
Mb@@ 12
Mend@@ 12
Merc@@ 12
Monte 12
Mr@@ 12
Mrs. 12
Mys@@ 12
NES 12
NL 12
Nam 12
Nath@@ 12
Nati@@ 12
Neb@@ 12
Neo 12
Nike 12
Nintendo 12
Nom@@ 12
Norway 12
Pain 12
Palest@@ 12
Pet@@ 12
Phar@@ 12
Phoen@@ 12
Phoenix 12
Phys@@ 12
Plac@@ 12
Polyn@@ 12
Pra@@ 12
Prac@@ 12
Prime 12
Pseud@@ 12
Qur@@ 12
Record 12
Return 12
Rig@@ 12
Rock@@ 12
Rogers 12
Ross 12
Russell 12
SPD 12
SSR 12
Sali@@ 12
Santo 12
Scor@@ 12
Scre@@ 12
Script 12
Shawn 12
Shen@@ 12
Shik@@ 12
Sin 12
Sky 12
Slam 12
Smo@@ 12
Stewart 12
Such 12
Sultan 12
Symp@@ 12
Tail@@ 12
Tat@@ 12
Though 12
Thr@@ 12
Tokyo 12
Tow@@ 12
Town 12
Tube 12
Ve 12
Ves@@ 12
Viv@@ 12
Wan@@ 12
Warren 12
Wars 12
Wild 12
Will@@ 12
Wimb@@ 12
XXII 12
Y.@@ 12
Zen@@ 12
abi@@ 12
abilities 12
abu 12
accoun@@ 12
achieved 12
actually 12
adj@@ 12
advis@@ 12
aena 12
ager 12
agriculture 12
akar@@ 12
aler 12
alities 12
alk@@ 12
alpin@@ 12
alth 12
alth@@ 12
aman 12
aming 12
anded 12
anian 12
anium 12
ante@@ 12
anterior 12
anthro@@ 12
approximately 12
aran@@ 12
arbitr@@ 12
artists 12
asant 12
asting 12
atal 12
atern@@ 12
atham 12
athan 12
atia 12
atika 12
atures 12
augh@@ 12
aun 12
aver@@ 12
avu 12
axi@@ 12
aza 12
bands 12
bath 12
beauty 12
behavior 12
berry 12
beyond 12
bian 12
boat 12
box@@ 12
brand 12
burn 12
c. 12
cally 12
camp@@ 12
cann@@ 12
capit@@ 12
category 12
causes 12
chip 12
choice 12
cir@@ 12
circul@@ 12
circulation 12
club 12
compu@@ 12
con 12
concepts 12
conduct 12
conjug@@ 12
conqu@@ 12
conserv@@ 12
constitu@@ 12
constr@@ 12
convention 12
corporation 12
cost@@ 12
cula 12
dad@@ 12
decre@@ 12
defici@@ 12
deg@@ 12
department 12
determined 12
diffusion 12
distr@@ 12
dn 12
document@@ 12
dow@@ 12
edo 12
ees 12
eign@@ 12
elds 12
eles 12
elly 12
embran@@ 12
emy 12
endant 12
ented 12
enthal 12
equipment 12
eres 12
ern 12
erup@@ 12
esi 12
esser 12
estate 12
etti@@ 12
eve 12
evil 12
exer@@ 12
eyes 12
factory 12
fair 12
fat@@ 12
fate 12
finding 12
fj@@ 12
ford@@ 12
foundation 12
fra@@ 12
gad@@ 12
gal 12
gap 12
gath@@ 12
gency 12
gers 12
gies 12
gli@@ 12
glob@@ 12
golden 12
goods 12
hala 12
hay@@ 12
hearing 12
hib@@ 12
high@@ 12
highly 12
hin 12
icked 12
identifi@@ 12
igan@@ 12
igne 12
ikan@@ 12
iki@@ 12
iko 12
implic@@ 12
improv@@ 12
inde@@ 12
iner 12
infr@@ 12
inger@@ 12
inside 12
instance 12
ional 12
irus 12
isch 12
itas 12
itus 12
iz 12
joining 12
jung@@ 12
jus 12
key@@ 12
kov@@ 12
labour 12
lak 12
latter 12
leaves 12
legi@@ 12
lei 12
lich@@ 12
lying 12
mari@@ 12
marked 12
mem@@ 12
minute 12
mitted 12
mixed 12
motor@@ 12
mur@@ 12
nership 12
neum@@ 12
nikov 12
num@@ 12
nur@@ 12
oba@@ 12
oc 12
occup@@ 12
oder@@ 12
odo@@ 12
offensive 12
offered 12
ogle 12
ole@@ 12
olo 12
onna 12
onym@@ 12
opa 12
optim@@ 12
organis@@ 12
organisation 12
organiz@@ 12
oring 12
orn 12
oro 12
ory@@ 12
oshi 12
oss 12
osyn@@ 12
otop@@ 12
otran@@ 12
ounced 12
ove 12
ovich 12
oz 12
pairs 12
pak@@ 12
papers 12
participated 12
phant 12
phi 12
phth@@ 12
pio 12
planning 12
plans 12
plot 12
pod@@ 12
poda 12
pour 12
powerful 12
presence 12
priv@@ 12
procedure 12
producing 12
protoc@@ 12
proved 12
pter@@ 12
qua 12
quer@@ 12
quite 12
rea 12
reco@@ 12
removed 12
rent 12
resid@@ 12
respon@@ 12
result@@ 12
revol@@ 12
rhy@@ 12
rice 12
roots 12
round@@ 12
sanc@@ 12
save 12
sbury 12
sch 12
schools 12
screen 12
sec 12
seconds 12
secre@@ 12
secure 12
seg@@ 12
ses@@ 12
shall 12
shaped 12
sible 12
sier 12
simply 12
sist@@ 12
sold 12
spe@@ 12
speak 12
spin@@ 12
spor@@ 12
staff 12
stars 12
stati@@ 12
stations 12
substr@@ 12
swit@@ 12
symptoms 12
tarak@@ 12
technologies 12
tee 12
tens@@ 12
thera 12
thu@@ 12
tible 12
ticus 12
till 12
tious 12
told 12
toler@@ 12
tool 12
tou@@ 12
track 12
translated 12
tron@@ 12
ub 12
uck 12
uld 12
uled 12
ult 12
uly 12
umi 12
uncle 12
unknown 12
usu@@ 12
uter 12
uth 12
utionary 12
uts 12
variant 12
veda 12
vely 12
vern@@ 12
vial 12
visible 12
vs 12
warm 12
wey 12
wick 12
wine 12
winners 12
work@@ 12
writings 12
yar 12
yav@@ 12
yu@@ 12
zar 12
zin@@ 12
áng 12
ú@@ 12
ü 12
ġ@@ 12
Ÿ@@ 12
κ 12
σ@@ 12
τ@@ 12
У@@ 12
Х@@ 12
й@@ 12
на 12
о 12
ט@@ 12
الأ@@ 12
ان@@ 12
ت@@ 12
حيم 12
در 12
رَ@@ 12
س 12
ق@@ 12
ل 12
مي 12
نام@@ 12
ند@@ 12
وا@@ 12
ّ@@ 12
ک@@ 12
ނ@@ 12
परंप@@ 12
वकाल@@ 12
ও 12
ਖ@@ 12
બ@@ 12
લ@@ 12
ଦ@@ 12
ର 12
ୋ@@ 12
త 12
భ@@ 12
ಟ 12
ೊ@@ 12
ല 12
ල@@ 12
้ 12
ང@@ 12
တ 12
ე@@ 12
ស@@ 12
ῖ@@ 12
ℓ 12
∆ 12
∈ 12
ン 12
市 12
式@@ 12
西@@ 12
🙏 12
1235 11
1435 11
1466 11
1523 11
17th 11
2,6 11
4,6 11
523 11
AU@@ 11
AZ@@ 11
Academic 11
Acu@@ 11
Adap@@ 11
Alphab@@ 11
Andersen 11
Architecture 11
Armada 11
Arth@@ 11
Austr@@ 11
Auto@@ 11
Avi@@ 11
BK 11
Bach@@ 11
Bangalore 11
Baptist 11
Bath@@ 11
Bear 11
Beau@@ 11
Benz@@ 11
Bern@@ 11
Boul@@ 11
Brit@@ 11
Carbon@@ 11
Carlo 11
Casa 11
Cat 11
Cha@@ 11
Chairman 11
Chat@@ 11
Chenn@@ 11
Chor@@ 11
Chr@@ 11
Cool@@ 11
Dag@@ 11
Deh@@ 11
Develop@@ 11
Diab@@ 11
Dover 11
Down 11
Duke 11
Dutch 11
Excell@@ 11
Female 11
Fire@@ 11
Gard@@ 11
Gesellschaft 11
Gig@@ 11
Gli@@ 11
Got 11
Gradu@@ 11
Gulf 11
Harmon@@ 11
Hav@@ 11
Hed@@ 11
Hep@@ 11
Hermann 11
Hid@@ 11
Hip@@ 11
Hop@@ 11
Hous@@ 11
Id@@ 11
Idi@@ 11
Infin@@ 11
Inst@@ 11
Jeux 11
Johannes 11
Jon@@ 11
Jung@@ 11
Jut@@ 11
Kaiser 11
Kay@@ 11
Kim 11
Klein 11
Konstanz 11
Kuv@@ 11
Lead@@ 11
Lepid@@ 11
Lt@@ 11
Luis 11
MLB 11
Madame 11
Magn@@ 11
Make 11
Male 11
Martha 11
Mata 11
Maul@@ 11
Medal 11
Members 11
Metr@@ 11
Mub@@ 11
Mum@@ 11
Nova 11
Palm 11
Pam@@ 11
Pan 11
Pant@@ 11
Pass 11
Pengu@@ 11
Penn@@ 11
Poc@@ 11
Pop@@ 11
Pre 11
Prob@@ 11
Prof@@ 11
Que@@ 11
Racing 11
Raf@@ 11
Rail 11
Reb@@ 11
Refer@@ 11
Regional 11
Reserve 11
Rho@@ 11
Rich@@ 11
Roch@@ 11
Roger 11
Rost@@ 11
Rudolf 11
Rup@@ 11
Safety 11
Salt 11
Salv@@ 11
Sard@@ 11
Scal@@ 11
Schools 11
Secre@@ 11
Secret 11
Sep@@ 11
Sierra 11
Sis@@ 11
Songs 11
Spring 11
Squ@@ 11
Steel 11
Stein@@ 11
Stephen 11
Stop 11
Stor@@ 11
Switzerland 11
TL 11
Tai@@ 11
Tank 11
Te 11
Terra 11
Thi@@ 11
Tig@@ 11
Trail 11
Trans 11
Trust 11
Us@@ 11
Venez@@ 11
Vent@@ 11
WM 11
Walker 11
Watson 11
Wind@@ 11
World@@ 11
Yan@@ 11
Yellow 11
Yuk@@ 11
Zam@@ 11
Zi@@ 11
abil@@ 11
abul@@ 11
actors 11
actual 11
aded 11
advanced 11
aes@@ 11
agan 11
agers 11
aggreg@@ 11
ago@@ 11
agreed 11
ahara 11
aig@@ 11
aint 11
aire 11
ajan 11
alam@@ 11
alco@@ 11
alika 11
alo 11
alo@@ 11
ambi@@ 11
aments 11
amorph@@ 11
amps 11
analog@@ 11
andal 11
andan 11
angi@@ 11
ango 11
anic 11
ank 11
anning 11
annual 11
anto 11
apor@@ 11
aq@@ 11
arding 11
argument 11
aspect 11
asts 11
asy 11
ata@@ 11
atura 11
auch@@ 11
authors 11
autonom@@ 11
aver 11
awi 11
ayar 11
bee 11
belief 11
bium 11
borough 11
bound 11
breeding 11
cab@@ 11
cad@@ 11
carri@@ 11
caus@@ 11
celebrated 11
centre 11
centuries 11
chan 11
chapter 11
chel@@ 11
chu 11
church 11
cili@@ 11
cipi@@ 11
classes 11
cliffe 11
coma 11
combus@@ 11
compens@@ 11
consider 11
conv@@ 11
cros@@ 11
cule 11
cus@@ 11
dance 11
deal 11
dean 11
dep@@ 11
dered 11
description 11
destruc@@ 11
dich@@ 11
diction 11
drive 11
drop 11
dum 11
duty 11
ead 11
eas 11
ec 11
ece 11
econom@@ 11
ecos@@ 11
ecraft 11
ecti@@ 11
eded 11
eder 11
edly 11
elo@@ 11
eman@@ 11
emo 11
emplo@@ 11
endr@@ 11
erian 11
esch@@ 11
essel 11
essenti@@ 11
ete@@ 11
exists 11
extra 11
fashion 11
femin@@ 11
festival 11
fight 11
fighting 11
filled 11
fine 11
forming 11
foss@@ 11
founded 11
framework 11
frequently 11
fron@@ 11
fruit 11
fut@@ 11
fying 11
getting 11
gio 11
girls 11
gium 11
glomer@@ 11
grass 11
gravit@@ 11
guard 11
gut 11
haria 11
hep@@ 11
hiver 11
hope 11
ht 11
hul@@ 11
husband 11
iah 11
idel@@ 11
ifera 11
ift 11
igration 11
ilfe 11
ilus 11
ily 11
imental 11
indicate 11
indr@@ 11
ingo 11
inspired 11
invol@@ 11
irat@@ 11
ire@@ 11
irs 11
ishment 11
isson 11
issues 11
izer 11
jah 11
jam@@ 11
jar@@ 11
jit@@ 11
job 11
jur@@ 11
jus@@ 11
kah@@ 11
kan 11
kard 11
kil@@ 11
kom@@ 11
kov 11
kri@@ 11
kul 11
kur 11
kus@@ 11
labor 11
lary 11
leadership 11
lem 11
lev 11
lik 11
lined 11
linked 11
lique 11
list@@ 11
lius 11
lived 11
liye 11
losses 11
lowing 11
managed 11
manif@@ 11
manufacturer 11
materi@@ 11
mechanism 11
mil 11
miles 11
mir 11
mk@@ 11
mon 11
n.@@ 11
nai 11
nd 11
nik@@ 11
num 11
objective 11
obsol@@ 11
obtained 11
ocean 11
oi@@ 11
oides 11
olar@@ 11
oldest 11
olla 11
ologie 11
olympiques 11
oney 11
onne 11
oration 11
orb@@ 11
ordinary 11
origin@@ 11
otypes 11
oun 11
owed 11
p. 11
pages 11
pale@@ 11
parall@@ 11
pass@@ 11
passengers 11
patterns 11
pav@@ 11
pec@@ 11
pen 11
percent 11
performed 11
perhaps 11
periods 11
persist@@ 11
pid 11
planned 11
plastic 11
plo@@ 11
poli@@ 11
poor 11
pound 11
pped 11
practical 11
previous 11
prin@@ 11
projects 11
providing 11
publ@@ 11
pulmon@@ 11
qa 11
qui 11
refer@@ 11
refle@@ 11
regarded 11
regional 11
representative 11
require 11
respect 11
rim 11
riv@@ 11
rob@@ 11
ros 11
rose 11
royal 11
safety 11
sang 11
sans@@ 11
satellite 11
scholars 11
scru@@ 11
sed@@ 11
sei 11
sent 11
senti@@ 11
sert 11
session 11
show@@ 11
showing 11
signs 11
sir@@ 11
some@@ 11
speaking 11
sports 11
spre@@ 11
ston 11
success 11
successful 11
surg@@ 11
sworth 11
symp@@ 11
target@@ 11
tec 11
ted@@ 11
tei 11
tela 11
telec@@ 11
tens 11
texts 11
theories 11
thin 11
thinking 11
thy 11
tioned 11
tn@@ 11
tons 11
torate 11
transform@@ 11
trees 11
try@@ 11
tuber@@ 11
uf@@ 11
umen 11
unif@@ 11
unter@@ 11
urt 11
uss@@ 11
ux 11
v.@@ 11
vac@@ 11
vation 11
ven 11
vent@@ 11
vertic@@ 11
vic 11
vil@@ 11
walking 11
wall@@ 11
wang 11
waters 11
weather 11
will@@ 11
worked 11
xima 11
yang 11
ycl@@ 11
yel@@ 11
yph@@ 11
yright 11
yrus 11
zan 11
zee 11
Émile 11
Ö 11
â 11
ä@@ 11
ò@@ 11
ɔ 11
ɕ@@ 11
ɛ 11
ʰ 11
ία 11
Ка@@ 11
в 11
вич 11
д 11
евич 11
к 11
к@@ 11
нович 11
ский 11
у 11
ң 11
ә@@ 11
א 11
آ@@ 11
ا 11
الدین 11
به 11
بَ@@ 11
بِ@@ 11
حَ@@ 11
ری@@ 11
ط@@ 11
لو@@ 11
نی@@ 11
هر 11
هُ 11
ور 11
ۃ 11
ܪ@@ 11
आपरा@@ 11
औरंगा@@ 11
ॠ 11
ॱ 11
খ 11
ঞ 11
থ@@ 11
ਚ@@ 11
ਧ@@ 11
ੁ 11
ੂ 11
છ@@ 11
ણ@@ 11
પ@@ 11
ર 11
િ@@ 11
ନ@@ 11
ீ@@ 11
ట 11
మ 11
ಡ 11
ജ@@ 11
ശ 11
ഷ 11
ഷ@@ 11
ഹ@@ 11
െ@@ 11
ൻ 11
ർ 11
ක@@ 11
ත@@ 11
ය 11
ဒ@@ 11
မ 11
រ 11
ᱚ@@ 11
↵ 11
る 11
ラ@@ 11
ル@@ 11
中@@ 11
北@@ 11
日 11
株@@ 11
의 11
이 11
인@@ 11
 11
0.000 10
1,5 10
1248 10
1259 10
1315 10
1341 10
1355 10
1417 10
183@@ 10
1920@@ 10
1970s 10
2,4 10
4,5 10
Actor 10
Adam 10
Adventure 10
Aff@@ 10
Agro@@ 10
Alem@@ 10
Alice 10
Alo@@ 10
Ame@@ 10
Amphi@@ 10
Anderson 10
Anj@@ 10
Anthony 10
Aran@@ 10
Arms 10
Associated 10
Atmos@@ 10
Att@@ 10
Ba 10
Basil@@ 10
Bill@@ 10
Biz@@ 10
Ble@@ 10
Broadcasting 10
Bron@@ 10
Buil@@ 10
Butter@@ 10
Cand@@ 10
Capit@@ 10
Cey@@ 10
Chanc@@ 10
Chi 10
Chol@@ 10
Christ@@ 10
Christi@@ 10
Christmas 10
Cic@@ 10
Colorado 10
Corn@@ 10
Corona 10
Corpus 10
Cour@@ 10
Cross@@ 10
Davis 10
Deep 10
Der 10
Des 10
Dial@@ 10
Dong@@ 10
Dre@@ 10
Dream 10
Dub@@ 10
Dubai 10
Dyn@@ 10
EB@@ 10
Edmund 10
Eich@@ 10
Ek 10
Enterprise 10
Establ@@ 10
Factor 10
Faith 10
Fall 10
Fam@@ 10
Fiction 10
Films 10
Found@@ 10
Frank@@ 10
Frequ@@ 10
Gabriel 10
Gall@@ 10
Gay@@ 10
Georges 10
Giant 10
Glob@@ 10
Gospel 10
Graf@@ 10
Grou@@ 10
Guild 10
HB 10
Hand 10
Hong@@ 10
Honor@@ 10
Hotel 10
How@@ 10
Ibn 10
Initiative 10
Internationale 10
Investig@@ 10
Italy 10
Jacob 10
Jesus 10
Jo 10
KK 10
KW 10
Kag@@ 10
Kamp@@ 10
Kati@@ 10
Kri@@ 10
Kub@@ 10
Lanka 10
Liberty 10
Lind@@ 10
Lup@@ 10
Maharashtra 10
Mar 10
Materi@@ 10
Maurice 10
Mk 10
Mongolia 10
Moon 10
Mud@@ 10
NE 10
Naj@@ 10
Names 10
Nec@@ 10
Nem@@ 10
Neph@@ 10
Nex@@ 10
Ni 10
Nich@@ 10
Night@@ 10
Nish@@ 10
Nun@@ 10
OM 10
Orion 10
PK 10
Pain@@ 10
Palm@@ 10
Para 10
Paral@@ 10
Patrick 10
Peg@@ 10
Pend@@ 10
Pf@@ 10
Philips 10
Phyl@@ 10
Planck 10
Plut@@ 10
Poetry 10
Prec@@ 10
Rail@@ 10
Respon@@ 10
Rhe@@ 10
Robin 10
Roc@@ 10
Rolling 10
Roman@@ 10
Room 10
Rut@@ 10
République 10
Samp@@ 10
Sant 10
Saturday 10
Say 10
Secretary 10
Set@@ 10
Sett@@ 10
Shal@@ 10
Silver@@ 10
Soul 10
Soy@@ 10
Spirit 10
Stanley 10
Stars 10
Status 10
Steam 10
Stern 10
Summer 10
Sung@@ 10
Swe@@ 10
System@@ 10
Taxonom@@ 10
Tin 10
Tob@@ 10
Trag@@ 10
Tropical 10
Tub@@ 10
Ultra 10
Utt@@ 10
Verte@@ 10
Victoria 10
Vie@@ 10
Virtual 10
Wid@@ 10
Wolver@@ 10
Word@@ 10
Workers 10
Xen@@ 10
Zin@@ 10
Zu@@ 10
aban 10
abar 10
aber 10
abo@@ 10
accomp@@ 10
accompl@@ 10
accounts 10
acha 10
aches 10
acor@@ 10
adding 10
administration 10
adult 10
affairs 10
afr@@ 10
agents 10
ahl@@ 10
ails 10
aina 10
akes 10
alised 10
aliy@@ 10
alled 10
alls 10
altitude 10
aly@@ 10
amo 10
amu 10
anao 10
ancing 10
anne 10
antic@@ 10
anu 10
anum 10
anza 10
aper 10
appearance 10
appeared 10
artificial 10
ashi 10
assemb@@ 10
asses 10
association 10
asure 10
aten 10
athletes 10
ations@@ 10
atis 10
attraction 10
aum 10
aving 10
avo@@ 10
awarded 10
axes 10
ayana 10
azar 10
bani 10
basin 10
believe 10
bile 10
blocks 10
boards 10
brah@@ 10
bright 10
bro 10
bul 10
bun@@ 10
busin@@ 10
cade 10
carried 10
cer 10
certain@@ 10
cession 10
chair 10
character@@ 10
charges 10
cian 10
classified 10
clay 10
collapse 10
colonial 10
commerce 10
completely 10
confin@@ 10
connections 10
contained 10
convers@@ 10
copy 10
coul@@ 10
cred@@ 10
credited 10
cription 10
decision 10
deo 10
dependent 10
depending 10
determine 10
diameter 10
diplom@@ 10
discovery 10
distinct 10
distinction 10
distor@@ 10
dite 10
diversi@@ 10
divide 10
dj@@ 10
dod@@ 10
dollar 10
dot@@ 10
drawing 10
drome 10
dru@@ 10
dual 10
dub@@ 10
dur 10
earthqu@@ 10
easily 10
eber 10
eby 10
eclip@@ 10
ecture 10
ectus 10
editor 10
egi@@ 10
ego 10
elected 10
elev@@ 10
ellan 10
ember 10
emma 10
emphas@@ 10
employed 10
ende 10
enne 10
ennial 10
environmental 10
equipped 10
erus 10
esty 10
eventually 10
explo@@ 10
eze 10
fall@@ 10
families 10
fellow 10
ffen 10
flat@@ 10
flows 10
flying 10
fortun@@ 10
fran@@ 10
fully 10
fund 10
fund@@ 10
ged@@ 10
gel 10
genera 10
gramm@@ 10
grounds 10
grow 10
guar@@ 10
gue 10
gun@@ 10
happ@@ 10
hari@@ 10
headed 10
helped 10
heritage 10
hide 10
hij@@ 10
hil 10
hop 10
hormon@@ 10
horse 10
host@@ 10
iPod 10
ibil@@ 10
ici 10
icious 10
identification 10
ified 10
ilis 10
images 10
importance 10
ina@@ 10
indu@@ 10
influenced 10
ingen 10
inher@@ 10
inin 10
initially 10
inning 10
intensive 10
interpretation 10
ior 10
isc@@ 10
isco 10
ision@@ 10
isp@@ 10
istic@@ 10
istry 10
iver 10
iyi 10
kept 10
khan 10
kilom@@ 10
kk 10
km@@ 10
kut 10
kut@@ 10
lag 10
lana 10
laser 10
latest 10
lea 10
leb@@ 10
leen 10
lein 10
lil@@ 10
limit@@ 10
lives 10
loo 10
lut@@ 10
lywood 10
lí@@ 10
machines 10
magazine 10
males 10
mang@@ 10
mano 10
mant@@ 10
manus@@ 10
mare 10
marg@@ 10
matr@@ 10
maxim@@ 10
melan@@ 10
metall@@ 10
meteor@@ 10
mg@@ 10
mono@@ 10
morning 10
nau@@ 10
nchron@@ 10
neither 10
nian 10
nier 10
nine 10
nis 10
noble 10
nose 10
notable 10
obj@@ 10
oblig@@ 10
obr@@ 10
obus 10
occ@@ 10
ocer@@ 10
odes@@ 10
oes 10
ogo 10
oj 10
oja 10
oline 10
omorph@@ 10
onau@@ 10
onder@@ 10
ondr@@ 10
opard 10
opposed 10
oqu@@ 10
ordered 10
organised 10
orta 10
oster@@ 10
oton@@ 10
ous@@ 10
pac@@ 10
parap@@ 10
passage 10
peace 10
peak 10
penetr@@ 10
percentage 10
perpet@@ 10
perspective 10
peti@@ 10
phases 10
pist@@ 10
police 10
pool 10
porting 10
pos 10
positions 10
potenti@@ 10
precipit@@ 10
prepar@@ 10
prises 10
proced@@ 10
profit 10
prol@@ 10
propri@@ 10
protected 10
pse 10
pseud@@ 10
publishing 10
pus@@ 10
qu 10
quick@@ 10
quiry 10
rank 10
raya 10
reduced 10
regulation 10
relatively 10
remaining 10
remains 10
remote 10
request 10
resol@@ 10
respirat@@ 10
returned 10
rie 10
rising 10
rocks 10
san 10
sat 10
saying 10
score 10
sections 10
semin@@ 10
sent@@ 10
served 10
server 10
sex@@ 10
shap@@ 10
shares 10
shop 10
shot 10
simultan@@ 10
sir 10
slo@@ 10
smith 10
something 10
soph@@ 10
speakers 10
spiritual 10
spontan@@ 10
stages 10
steps 10
stere@@ 10
stis 10
storm 10
streng@@ 10
subj@@ 10
subsequently 10
succession 10
superi@@ 10
tabl@@ 10
tail@@ 10
takes 10
tari 10
teacher 10
tell 10
theore@@ 10
thes@@ 10
throughout 10
tique 10
tir@@ 10
touch@@ 10
trach@@ 10
transi@@ 10
transmit@@ 10
turns 10
tus@@ 10
tut@@ 10
u.@@ 10
ug 10
ulia 10
undi 10
unga 10
uss 10
uti 10
vas 10
vents 10
vet@@ 10
vice 10
visa 10
wad@@ 10
wah@@ 10
way@@ 10
weapons 10
western 10
wick@@ 10
wise 10
wo 10
xes 10
yard 10
yk@@ 10
za@@ 10
Å 10
är@@ 10
ís 10
Ś@@ 10
ž@@ 10
ʀ@@ 10
ʔ@@ 10
̩ 10
ρος 10
τί@@ 10
της 10
И@@ 10
М@@ 10
Ми@@ 10
м@@ 10
ү@@ 10
ե@@ 10
آل 10
أحمد 10
است@@ 10
باغ 10
بر@@ 10
ت 10
تر@@ 10
ج 10
ذ@@ 10
ستان 10
سی@@ 10
سید 10
غ@@ 10
مولانا 10
ية 10
ُ 10
ܐ 10
އ@@ 10
ު@@ 10
अदिला@@ 10
सितं@@ 10
ृंखला 10
ং 10
ড@@ 10
থ 10
ਮ 10
ં 10
શ@@ 10
ஆ@@ 10
ఆ@@ 10
శ 10
ొ@@ 10
ಣ 10
ಯ 10
ഗ@@ 10
യ 10
ප@@ 10
ය@@ 10
ල 10
่ 10
က 10
ယ 10
အ@@ 10
ទ@@ 10
Ḥ@@ 10
ṅ 10
‡ 10
₂ 10
✔ 10
ル 10
一@@ 10
中国@@ 10
会@@ 10
川 10
拳 10
日本 10
武@@ 10
田@@ 10
菠@@ 10
蘿@@ 10
ꯥ@@ 10
국@@ 10
대@@ 10
자 10
 10
️ 10
🌹 10
👉 10
1.8@@ 9
1261 9
1284 9
1314 9
1328 9
1397 9
1427 9
1463 9
616 9
Acacia 9
Activ@@ 9
Again 9
Aircraft 9
Alph@@ 9
Ambi@@ 9
Americans 9
Among 9
Amph@@ 9
Anna 9
Anton@@ 9
Arctic 9
Arj@@ 9
Augustus 9
Austria 9
Bari 9
Basin 9
Bass@@ 9
Being 9
Beno@@ 9
Berg@@ 9
Beth@@ 9
Biography 9
Bond 9
Bonn 9
Bra@@ 9
Brazil 9
Britann@@ 9
Brunswick 9
Buch@@ 9
Buck@@ 9
Buddh@@ 9
Bung@@ 9
Burns 9
Bình 9
Cad@@ 9
Cali@@ 9
Cardi@@ 9
Care 9
Castile 9
Castillo 9
Catal@@ 9
Cathol@@ 9
Caus@@ 9
Ce 9
Chaplin 9
Chim@@ 9
Christianity 9
Christopher 9
Chrysler 9
Chuck 9
Claude 9
Collins 9
Come 9
Congo 9
Constitu@@ 9
Construction 9
Coul@@ 9
Count 9
Creative 9
Crime 9
Critical 9
Cut@@ 9
DFB 9
Daily 9
Dead@@ 9
Defense 9
Depression 9
Deutsch@@ 9
Din 9
Du 9
Each 9
Edi@@ 9
Emirates 9
Euro@@ 9
Eust@@ 9
Ever@@ 9
Every 9
Farm@@ 9
Feder@@ 9
Fighting 9
Fisher 9
Flora 9
Following 9
Football 9
Fourth 9
Frag@@ 9
Fried@@ 9
Fru@@ 9
Galaxy 9
Gamb@@ 9
Gary 9
Gate 9
Gates 9
Gib@@ 9
Glo@@ 9
Goethe 9
Grace 9
Gram@@ 9
Greatest 9
Grimm 9
HQ 9
Half 9
Hamilton 9
Hang@@ 9
Haus@@ 9
Heb@@ 9
Hebrew 9
Henri 9
Hier@@ 9
Himalaya 9
Ho 9
Hochschule 9
Hope 9
Hul@@ 9
Hur@@ 9
INE 9
IST@@ 9
Illustr@@ 9
Individ@@ 9
Inform@@ 9
Innovation 9
Institut 9
Invest@@ 9
Iran 9
Jab@@ 9
Jewish 9
Jol@@ 9
Jules 9
KK@@ 9
KP@@ 9
Kari@@ 9
Kem@@ 9
Ken@@ 9
Kend@@ 9
Kids 9
Kow@@ 9
Kran@@ 9
Kuch@@ 9
L5 9
Lamb@@ 9
Led 9
Legend 9
Leon 9
Leonardo 9
Lines 9
Lom@@ 9
Lou@@ 9
Lyon 9
Marcus 9
Marketing 9
Mart@@ 9
Mass@@ 9
McKin@@ 9
Mexico 9
Mich@@ 9
Michel 9
Mill 9
Miss 9
Morph@@ 9
Moscow 9
Municipal 9
Murray 9
Nd@@ 9
Nelson 9
Next 9
Nicol@@ 9
Nicolas 9
Nielsen 9
Nig@@ 9
Niz@@ 9
Nos@@ 9
Observ@@ 9
Ole@@ 9
Oliver 9
Olymp@@ 9
Ontario 9
Orig@@ 9
Ostr@@ 9
Oy 9
Paras@@ 9
Parliament 9
Pearl 9
Pearson 9
Performance 9
Peter@@ 9
Picture 9
Pier@@ 9
Pis@@ 9
Piz@@ 9
Place 9
Pod@@ 9
Poli@@ 9
Polyg@@ 9
Presidente 9
Problem 9
Pug@@ 9
Quar@@ 9
Rath@@ 9
Reich 9
Resolution 9
Revolutionary 9
Rio 9
Rocket 9
Rose 9
SY@@ 9
Savage 9
Schmidt 9
Scienti@@ 9
Sheikh 9
Shor@@ 9
Sib@@ 9
Sour@@ 9
Stanford 9
Stell@@ 9
Style 9
Suite 9
Summer@@ 9
Sur 9
Symbol 9
Symphony 9
Syr@@ 9
TO 9
Tec@@ 9
Thai 9
Their 9
Things 9
Toronto 9
Tot@@ 9
Tox@@ 9
Trig@@ 9
Trophy 9
True 9
Uj@@ 9
Unity 9
VE 9
Vall@@ 9
Vincent 9
Virginia 9
Voc@@ 9
Voy@@ 9
Walt 9
Wang 9
Wang@@ 9
Warner 9
Watch 9
Winter@@ 9
Wolf 9
Wolfgang 9
Woman 9
Xe 9
Yoh@@ 9
Zak@@ 9
accept 9
achieve 9
acia 9
acritic 9
actus 9
adel@@ 9
aders 9
admir@@ 9
aem@@ 9
aff 9
aflu@@ 9
aged 9
agen 9
ahi@@ 9
aim 9
ainville 9
alak@@ 9
alaria 9
alaya 9
ale@@ 9
aled 9
alumin@@ 9
ambar@@ 9
ambi 9
amn@@ 9
amph@@ 9
anak@@ 9
ange@@ 9
anime 9
annes 9
anni@@ 9
antage 9
anthrop@@ 9
anton 9
api@@ 9
arak 9
ario 9
ark 9
arle 9
arma 9
arrived 9
arry 9
asked 9
asking 9
aspects 9
assa 9
atmosph@@ 9
atri 9
atro@@ 9
attle 9
audi@@ 9
augh 9
authorities 9
ayo 9
azi 9
baba 9
batt@@ 9
bau@@ 9
belonging 9
best@@ 9
bet@@ 9
bey 9
bid@@ 9
binding 9
black@@ 9
bloc@@ 9
block@@ 9
bomb@@ 9
brick 9
bring 9
broke 9
bronze 9
brown 9
buch 9
buil@@ 9
cali@@ 9
capable 9
carry 9
cas 9
cats 9
ced 9
cen@@ 9
cend@@ 9
census 9
changing 9
check 9
chief 9
chil@@ 9
chn@@ 9
circ@@ 9
combined 9
commemor@@ 9
comment@@ 9
commun@@ 9
compiled 9
conducted 9
connecting 9
consistent 9
constituent 9
contamin@@ 9
contin@@ 9
contributed 9
contribution 9
conven@@ 9
conventional 9
cooperation 9
council 9
covered 9
cra@@ 9
crew 9
criminal 9
crit@@ 9
dates 9
deb@@ 9
defence 9
delta 9
demonstr@@ 9
dens@@ 9
dense 9
depres@@ 9
designed 9
develop 9
developing 9
devi@@ 9
diam@@ 9
dienst 9
dimension 9
diy@@ 9
doing 9
dorf 9
dus 9
dw@@ 9
dé@@ 9
earned 9
eas@@ 9
eff@@ 9
eg 9
egen 9
eig@@ 9
ej 9
eled 9
elevation 9
elite 9
ellor 9
emerg@@ 9
emi 9
emon 9
enclat@@ 9
endre 9
enemy 9
enge 9
enk@@ 9
ennium 9
enza 9
eros 9
escap@@ 9
essed 9
essing 9
essment 9
esto 9
etum 9
excit@@ 9
exclus@@ 9
expected 9
extension 9
extraction 9
extraordin@@ 9
factor@@ 9
fan@@ 9
fin 9
finally 9
fire@@ 9
flag 9
flan@@ 9
flat 9
flies 9
flor@@ 9
follow@@ 9
fordshire 9
friends 9
fun@@ 9
genes 9
glut@@ 9
god@@ 9
gol@@ 9
gr 9
grade 9
gram@@ 9
gri@@ 9
gu 9
haus@@ 9
hian 9
highway 9
histor@@ 9
honor@@ 9
horizontal 9
huge 9
huri 9
hut@@ 9
iche 9
icro@@ 9
idan 9
ieu 9
ifer 9
iformes 9
igen@@ 9
ignant 9
ild 9
ilit@@ 9
iman 9
iments 9
imo 9
inar 9
income 9
industries 9
ined 9
institutions 9
intended 9
inter 9
invest@@ 9
iny 9
iran 9
ishers 9
isis 9
isolated 9
issued 9
istan 9
ister@@ 9
iston 9
items 9
itum 9
itz@@ 9
jin@@ 9
journey 9
joy 9
kai 9
kala 9
kali 9
keeping 9
kim 9
kle@@ 9
kno@@ 9
kote 9
lage 9
lah 9
lai 9
ld 9
leader 9
leads 9
learn 9
learned 9
leaving 9
leng@@ 9
ley@@ 9
liers 9
lights 9
literary 9
ls@@ 9
lus 9
maf@@ 9
maintenance 9
measures 9
mentioned 9
mess@@ 9
meta 9
mia 9
mille 9
mission@@ 9
moon 9
mountain 9
mt@@ 9
musicians 9
nac@@ 9
neb@@ 9
negoti@@ 9
neutral 9
nominal 9
norm@@ 9
novel 9
now@@ 9
obe 9
observer 9
obtain 9
ocarp@@ 9
ocarpus 9
occurr@@ 9
oci@@ 9
ogi 9
oka 9
oker 9
okie 9
olin 9
omo 9
onc@@ 9
oner 9
onto 9
opened 9
opening 9
opi@@ 9
opteris 9
organ 9
organizations 9
organized 9
osi 9
oste@@ 9
ott@@ 9
oured 9
oyn@@ 9
pan 9
pand@@ 9
participation 9
peoples 9
perio@@ 9
picture 9
pies 9
pill@@ 9
pinn@@ 9
platform 9
pol 9
possibly 9
pow@@ 9
power@@ 9
practices 9
presented 9
previously 9
priest 9
prior 9
process@@ 9
prof@@ 9
progressive 9
proteins 9
proxim@@ 9
quali@@ 9
quarters 9
quest 9
quit@@ 9
rach@@ 9
rain@@ 9
rat@@ 9
rech@@ 9
recommended 9
recording 9
remainder 9
remained 9
reports 9
requ@@ 9
requires 9
respond@@ 9
responsibility 9
responsible 9
rest@@ 9
rett 9
returns 9
revers@@ 9
ries 9
rival 9
rows 9
rs 9
rt 9
rug@@ 9
rum 9
rum@@ 9
sales 9
sali@@ 9
salt 9
samb@@ 9
scheme 9
segment 9
sell 9
selling 9
semif@@ 9
shed 9
sibility 9
singles 9
sional 9
situation 9
six@@ 9
sman 9
snow@@ 9
sociation 9
spring 9
stitut@@ 9
stoc@@ 9
strat@@ 9
strategic 9
sud@@ 9
surname 9
survey 9
suspension 9
syst@@ 9
systemati@@ 9
taining 9
tane 9
tennis 9
terres@@ 9
territorial 9
territories 9
terror@@ 9
thang 9
things 9
thium 9
tico 9
tie 9
tiers 9
tification 9
tik@@ 9
timate 9
tio 9
tish 9
topo@@ 9
traf@@ 9
traffic 9
transit 9
trau@@ 9
trus@@ 9
tun 9
twenty 9
typ@@ 9
uan 9
ular@@ 9
uls 9
umbo 9
understanding 9
unk@@ 9
upp@@ 9
utes 9
util@@ 9
vel 9
versities 9
visit 9
walk 9
wand@@ 9
wear 9
wed 9
wich 9
wit@@ 9
writes 9
wrong 9
xu@@ 9
yat@@ 9
ycle 9
youth 9
yra 9
ysi@@ 9
ystem 9
¹ 9
Æ@@ 9
ß 9
ál@@ 9
én@@ 9
óst@@ 9
ör@@ 9
ă 9
ǐ 9
ʁ 9
ˈ 9
͡ 9
ι 9
ϕ 9
О@@ 9
з 9
л 9
х 9
Қ@@ 9
ն@@ 9
ր@@ 9
ב 9
اب 9
اد 9
ال 9
الخ@@ 9
اله@@ 9
بو@@ 9
جان 9
ح 9
حسین 9
دة 9
رسول 9
سلطان 9
شه@@ 9
عبد@@ 9
عل@@ 9
ف 9
مة 9
مح@@ 9
مع@@ 9
پ@@ 9
ީ@@ 9
ް 9
ऒ 9
ৈ@@ 9
ਦ 9
ੇ 9
આ@@ 9
ો 9
କ 9
ଗ@@ 9
ଦ 9
ପ@@ 9
ଳ 9
ச 9
ற 9
ஷ 9
ூ@@ 9
ణ 9
ವ 9
ണ 9
റ 9
ව@@ 9
ේ@@ 9
ວ@@ 9
ྩ@@ 9
ត 9
ន 9
ᱨ@@ 9
ḷ@@ 9
⋅ 9
ⵉ@@ 9
ジ@@ 9
ス@@ 9
七@@ 9
包 9
周@@ 9
国 9
家@@ 9
寺 9
東 9
河 9
道 9
阿@@ 9
고@@ 9
민@@ 9
이@@ 9
치 9
𐩖 9
𝐞@@ 9
1.000 8
1.7@@ 8
1275 8
1477 8
3,4 8
3,5 8
5. 8
79,@@ 8
Abel 8
Acon@@ 8
Actu@@ 8
Addi@@ 8
Admiral 8
Adolf 8
Ae@@ 8
After@@ 8
Against 8
Ahmad 8
Airlines 8
Alexandria 8
Alfa 8
Allo@@ 8
Ann 8
Antonio 8
Apos@@ 8
Archit@@ 8
Arm@@ 8
Assy@@ 8
Aston 8
Atlas 8
Austral@@ 8
Auto 8
Aviation 8
Aw@@ 8
Badminton 8
Baptiste 8
Baron 8
Bee 8
Berkeley 8
Berlin 8
Bernard 8
Bernstein 8
Between 8
Bib@@ 8
Bid@@ 8
Blind 8
Bloom@@ 8
Bob 8
Bok@@ 8
Bord@@ 8
Both 8
Brian 8
Bros. 8
Buc@@ 8
Buddhist 8
Call 8
Captain 8
Carac@@ 8
Card@@ 8
Carol@@ 8
Cassini 8
Catherine 8
Caval@@ 8
Ces@@ 8
Chapter 8
Chemistry 8
Chen@@ 8
Clark 8
Cock@@ 8
Colegio 8
Commander 8
Community 8
Contin@@ 8
Cord@@ 8
Coron@@ 8
Crew 8
Crisis 8
Cuc@@ 8
Cum@@ 8
Côte 8
DAP 8
Dalton 8
Del 8
Democratic 8
Deputy 8
Dil@@ 8
Dj@@ 8
Dow@@ 8
Dream@@ 8
Dublin 8
Dup@@ 8
East@@ 8
Econom@@ 8
Edwin 8
Egyp@@ 8
Eric 8
Esc@@ 8
Estr@@ 8
Ethn@@ 8
Eug@@ 8
Eugene 8
Evol@@ 8
Falcon 8
Faz@@ 8
Fif@@ 8
Filmf@@ 8
Finals 8
Flav@@ 8
Flor@@ 8
Foot 8
Former 8
Fra@@ 8
Francisco 8
Further 8
Galil@@ 8
Gel@@ 8
Gen 8
Geograph@@ 8
Georgia 8
Gest@@ 8
Gibraltar 8
Give 8
Gly@@ 8
Gog@@ 8
Got@@ 8
Governor 8
Gramm@@ 8
Gray 8
Greece 8
Greg@@ 8
Guil@@ 8
Guy 8
Gw@@ 8
Hag@@ 8
Harr@@ 8
Hat 8
Heg@@ 8
Hell@@ 8
Hero 8
Histori@@ 8
Hob@@ 8
Holding 8
Horace 8
Howe 8
Hymenoptera 8
Igu@@ 8
Impact 8
Inc@@ 8
Independent 8
Influ@@ 8
Inh@@ 8
Instagram 8
Institu@@ 8
Irish 8
Iron@@ 8
Itali@@ 8
Jaguar 8
Jakob 8
Jane 8
Jay 8
Jersey 8
Joh@@ 8
Jor@@ 8
Jordan 8
Jov@@ 8
Jul@@ 8
Junction 8
Kaj@@ 8
Kang 8
Khali@@ 8
Khu@@ 8
Kib@@ 8
Kingston 8
Kirch@@ 8
Knight 8
Koch 8
Kok@@ 8
Kov@@ 8
Kre@@ 8
Laborat@@ 8
Lady 8
Laugh@@ 8
Laur@@ 8
Legislative 8
Lig@@ 8
Light@@ 8
Lions 8
Lol@@ 8
Louise 8
Ludwig 8
Mali@@ 8
Mall@@ 8
Manchester 8
Mann 8
Manus@@ 8
Maritime 8
Mark@@ 8
Marri@@ 8
Marshall 8
Massachusetts 8
Matt@@ 8
Melan@@ 8
Metropolitan 8
Minister@@ 8
Mir 8
Monte@@ 8
Morales 8
Morning 8
Motor@@ 8
Much@@ 8
Munich 8
Myth@@ 8
NCA@@ 8
Nadu 8
Neill 8
Nest@@ 8
Nev@@ 8
Nine 8
Niño 8
Noah 8
Nob@@ 8
Norte 8
Oak 8
Of@@ 8
Oh 8
Ong@@ 8
Oste@@ 8
Oxy@@ 8
PSA 8
Palacio 8
Palmer 8
Pang@@ 8
Pasha 8
Patr@@ 8
Pennsylvania 8
Per 8
Peti@@ 8
Philippe 8
Phillips 8
Places 8
Plant@@ 8
Poland 8
Premier 8
Prix 8
Professor 8
Proph@@ 8
Prov@@ 8
Psychi@@ 8
Publications 8
Pum@@ 8
Quin@@ 8
Race 8
Rama 8
Reading 8
Real@@ 8
Registr@@ 8
Reli@@ 8
Rhin@@ 8
Rib@@ 8
Ric@@ 8
Rice 8
Rik@@ 8
Rise 8
Rome 8
Romeo 8
Rou@@ 8
Rue 8
Saudi 8
Saur@@ 8
Se 8
Seh@@ 8
Sek@@ 8
Senior 8
Sequ@@ 8
Set 8
Several 8
Shadow 8
Shakespeare 8
Shaw 8
Side 8
Siegfried 8
Sign@@ 8
Solidar@@ 8
Spani@@ 8
Spider 8
Spin@@ 8
Sport 8
Staff@@ 8
Stand@@ 8
Stap@@ 8
Stu@@ 8
Student 8
Swan 8
Tamb@@ 8
Targ@@ 8
Tay@@ 8
Tell 8
Testament 8
Texas 8
Those 8
Thre@@ 8
Tony 8
Tou@@ 8
Tra@@ 8
Ts@@ 8
Tus@@ 8
Typ@@ 8
U. 8
UE 8
Ug@@ 8
Uh@@ 8
Ulu@@ 8
Vega 8
Venus 8
Vickers 8
Von 8
Vy@@ 8
Wallace 8
Way@@ 8
Weber 8
Website 8
Wei 8
Wein@@ 8
What@@ 8
William@@ 8
Within 8
Wool@@ 8
Yes@@ 8
Yusuf 8
aband@@ 8
absol@@ 8
abund@@ 8
acar@@ 8
accalaur@@ 8
accepted 8
aco@@ 8
adem@@ 8
adia 8
adir 8
administer@@ 8
adopted 8
advoc@@ 8
agh@@ 8
agre@@ 8
ahalli 8
ainer 8
aired 8
airport 8
aki@@ 8
alab@@ 8
album 8
als@@ 8
altitu@@ 8
ambu@@ 8
amental 8
amer 8
amis 8
anal@@ 8
andal@@ 8
angel@@ 8
anl@@ 8
antha 8
apons 8
apos@@ 8
appears 8
appl@@ 8
appropriate 8
aps 8
apu 8
aram@@ 8
archae@@ 8
archiv@@ 8
archive.org 8
archives 8
arguments 8
arte 8
artillery 8
asai 8
asal 8
ask 8
assets 8
assign@@ 8
assigned 8
assumed 8
assy 8
atan 8
atin 8
atma 8
atoria 8
attacks 8
auer 8
aul 8
automobile 8
avir@@ 8
bank@@ 8
beetle 8
begins 8
benefit 8
berger 8
bet 8
big@@ 8
bik@@ 8
borne 8
bra@@ 8
brid@@ 8
bris 8
bun 8
buri 8
cereb@@ 8
ceremony 8
chal@@ 8
challenge 8
chanc@@ 8
chat@@ 8
chen@@ 8
chev@@ 8
chus 8
clean 8
cler@@ 8
clin@@ 8
coat 8
coff@@ 8
coinc@@ 8
collap@@ 8
collective 8
colleges 8
commune 8
communications 8
compatible 8
compensation 8
conclusion 8
cond@@ 8
conform@@ 8
coni 8
constituency 8
contemporary 8
continental 8
continue 8
contrast 8
[...]
