. 1
, 0.8585995591415555
&apos; 1
ve 1
&quot; 1
bir 1
) 0.945353258042635
( 0.9447680875652146
da 1
de 0.4709470017110464
@-@ 0.6023806646708562
olarak 1
ile 1
in 0.3200103454269362
için 1
olan 1
bu 1
ın 1
’ 1
en 0.5009852655652144
yılında 1
tarafından 1
ya 1
Bu 1
sonra 1
; 1
lar 1
: 0.901376095008544
nin 1
nın 1
ler 1
ları 1
i 1
an 0.7801753310697637
un 0.8704255123992416
a 0.20660886529773714
daha 1
ı 1
ilk 1
te 1
leri 1
ise 1
yer 1
ç@@ 1
e 1
gibi 1
k@@ 1
den 0.9076809405646307
al@@ 1
çok 1
inin 1
arasında 1
ye 1
y@@ 1
kadar 1
ası 1
bağlı 1
veya 1
= 1
iki 1
lerin 1
an@@ 1
büyük 1
u 1
ş@@ 1
ların 1
dan 1
esi 1
1 1
göre 1
dir 1
ma 1
at@@ 1
oldu 1
ini 1
S@@ 1
il@@ 1
ta 1
bulunan 1
ının 1
ak@@ 1
ak 1
&#124; 1
2 1
li 1
ını 1
ine 1
K@@ 1
ar 1
lı 1
ar@@ 1
la 0.1382974228785218
me 1
Türkiye 1
olduğu 1
d 1
- 1
adı 1
at 0.4427451354747387
t@@ 1
tarihinde 1
ıl@@ 1
Y@@ 1
ol@@ 1
T@@ 1
alan 1
k 1
ad@@ 1
lik 1
l@@ 1
birlikte 1
nde 1
ne 1
! 1
lerini 1
s@@ 1
ına 1
el@@ 1
4 1
ik@@ 1
isi 1
G@@ 1
in@@ 1
et@@ 1
3 1
ır 1
ik 1
km 1
c@@ 1
Ç@@ 1
d@@ 1
diğer 1
ek@@ 1
z@@ 1
mak 1
/ 0.868069982903049
ü 1
le 0.2699143985499427
İ@@ 1
etti 1
A@@ 1
er 0.4209840059030358
nda 1
inde 1
aynı 1
ında 1
Türk 1
o 1
D@@ 1
deki 1
daki 1
H@@ 1
el 0.24671402891973726
on 0.24025361557434316
g@@ 1
Ş@@ 1
al 0.6690905964586366
m@@ 1
yap@@ 1
ay@@ 1
et 0.2327147098434808
am@@ 1
M@@ 1
E@@ 1
B@@ 1
lara 1
adlı 1
yıl 1
yeni 1
larının 1
align 1
center 1
ver@@ 1
lerinin 1
son 0.8277519770722045
her 1
aldı 1
larını 1
im 0.5385798826871342
mek 1
em@@ 1
ancak 1
lık 1
en@@ 1
iş@@ 1
P@@ 1
larda 1
nun 1
aş@@ 1
İstanbul 1
kal@@ 1
iler 1
ev@@ 1
karşı 1
im@@ 1
Avrupa 1
maya 1
ması 1
önemli 1
Dünya 1
&amp; 1
% 0.7846856556886834
ım 1
iz@@ 1
di 1
ama 1
h@@ 1
ün 1
eski 1
ından 1
başladı 1
z 1
önce 1
ilçesine 1
lere 1
eden 1
as@@ 1
eli 1
unun 1
b@@ 1
lerde 1
f@@ 1
mesi 1
ir@@ 1
ı@@ 1
ılar 1
O@@ 1
ü@@ 1
er@@ 1
unu 1
na 1
N@@ 1
alı 1
miştir 1
ek 1
eler 1
5 1
v@@ 1
az 1
aya 1
ıdır 1
Ar@@ 1
il 0.6931689374759837
şekilde 1
olduğunu 1
olmuştur 1
yapılan 1
The 0.1482500477632615
larına 1
inden 1
m 1
üzere 1
ana 1
ada 1
6 1
tan 1
içinde 1
Üniversitesi 1
ay 1
üzerine 1
kur@@ 1
p 1
vardır 1
di@@ 1
larında 1
ır@@ 1
p@@ 1
lerinde 1
ç 1
ten 1
ti@@ 1
Bir 1
birçok 1
ileri 1
kez 1
n@@ 1
kon@@ 1
enin 1
t 0.8435441218732744
Z@@ 1
lerine 1
r@@ 1
eleri 1
arak 1
L@@ 0.8989462733706256
or@@ 1
una 0.5986369028203595
Mart 1
aları 1
kabul 1
ki 1
10 1
liği 1
az@@ 1
Ayrıca 1
es@@ 1
F@@ 1
C@@ 1
yaz@@ 1
iyi 1
sahip 1
Mayıs 1
it 0.4297852163030684
ul@@ 1
gel@@ 1
kar@@ 1
Al@@ 1
anın 1
is@@ 1
on@@ 1
ayı 1
devam 1
Ocak 1
ık 1
üç 1
aç@@ 1
ikinci 1
baş@@ 1
ir 1
unda 1
us 1
Kasım 1
gelen 1
R@@ 0.8815579830848568
2010 1
fazla 1
tüm 1
ış@@ 1
“ 0.5979227883819224
it@@ 1
lu 1
yaptı 1
V@@ 1
Eylül 1
Ekim 1
edil@@ 1
lerinden 1
” 1
ardından 1
Kar@@ 1
ısı 1
ilinin 1
av@@ 1
yüksek 1
Haziran 1
kendi 1
Nisan 1
ABD 1
Osmanlı 1
iy@@ 1
Temmuz 1
sür@@ 1
kap@@ 1
ık@@ 1
ül@@ 1
Daha 1
bazı 1
olmak 1
Ağustos 1
Amerika 1
tek 1
ın@@ 1
biri 1
Aralık 1
meye 1
hem 1
eri 1
göster@@ 1
s 0.4172614330049874
sırasında 1
am 0.6743737593083317
üzerinde 1
mıştır 1
farklı 1
oğlu 1
olup 1
su 0.5799329501139946
l 0.7276786592309771
ab@@ 1
Ancak 1
görev 1
yi 1
ter@@ 1
geç@@ 1
lan@@ 1
ur 1
çek@@ 1
of 0.03531410266417722
zaman 1
asında 1
dır 1
ılan 1
ıp 1
lardan 1
ortaya 1
re@@ 0.4894485441709143
um 0.8967873635298832
bulun@@ 1
miş 1
anı 1
say@@ 1
ım@@ 1
alar 1
man 1
eye 1
i@@ 1
7 1
&#93; 1
yılları 1
İlk 1
Şubat 1
Birleşik 1
&#91; 1
iş 1
eş@@ 1
yılı 1
colspan 1
çeşitli 1
onu 1
man@@ 1
12 1
Savaşı 1
â@@ 1
y 0.12088914325471381
arı 1
bulunmaktadır 1
geri 1
ıyla 1
15 1
ili 1
küçük 1
ede 1
nedeniyle 1
edildi 1
ur@@ 1
larından 1
ğ@@ 1
boyunca 1
ara 1
bul@@ 1
ö@@ 1
8 1
esine 1
– 0.30032542103091137
yeniden 1
20 1
lerden 1
zamanda 1
te@@ 1
maktadır 1
mektedir 1
idi 1
ör@@ 1
2012 1
2020 1
An@@ 1
ken 1
sadece 1
U@@ 1
ot@@ 1
En 0.47529258506009686
dı 1
ti 1
gün 1
edilen 1
yaklaşık 1
ed@@ 1
lığı 1
kan@@ 1
2011 1
par@@ 1
2009 1
sa 0.9791638847334774
yar@@ 1
le@@ 1
çık@@ 1
î 1
tı 1
Ak@@ 1
esinde 1
katıl@@ 1
j@@ 1
ındaki 1
ağ@@ 1
erek 1
a@@ 1
tak@@ 1
II 1
uy@@ 1
ah@@ 1
de@@ 1
ok@@ 1
kullan@@ 1
bil@@ 1
as 0.1097721973456651
süre 1
ıldı 1
genel 1
ür 1
ist@@ 1
nüfusu 1
diği 1
masına 1
film 1
imi 1
ac@@ 1
ser@@ 1
si 1
üne 1
ünün 1
uzun 1
yerine 1
ımı 1
gör@@ 1
11 1
ele 1
2008 1
asyon 1
bas@@ 1
un@@ 0.6288127489922636
f 1
indeki 1
köy 1
2014 1
um@@ 1
eti 1
9 1
Tarihçe 1
onun 1
merkezine 1
kay@@ 1
kat@@ 1
çalış@@ 1
os 0.7023993690379583
mış 1
tut@@ 1
larla 1
li@@ 1
Almanya 1
iyle 1
var@@ 1
.@@ 1
uz@@ 1
rağmen 1
yer@@ 1
Fransa 1
elde 1
der@@ 1
16 1
ş 1
os@@ 1
30 1
Er@@ 1
2015 1
e@@ 0.6623522225450722
yol@@ 1
2013 1
dön@@ 1
se@@ 1
J@@ 0.9110610815869585
Genel 1
ıları 1
ış 1
belir@@ 1
Coğrafya 1
ait 1
tan@@ 1
yı 1
se 0.18707760931199696
yaptığı 1
len@@ 1
ere 1
bulunur 1
kişi 1
ağı 1
altında 1
bak@@ 1
2007 1
2016 1
acak 1
o@@ 0.8792508160698393
ilgili 1
kısa 1
dahil 1
İngiltere 1
çıkar@@ 1
lam@@ 1
Alman 1
beri 1
masını 1
Güney 1
2006 1
Ankara 1
edilmiştir 1
New 0.6852680196204778
genellikle 1
Yeni 1
almıştır 1
ildi 1
lama 1
ayrıca 1
19 1
is 0.08557240241686213
the 0.014077774014686465
lerle 1
çi 1
bir@@ 1
özel 1
tir 1
0 1
ıt@@ 1
13 1
ünü 1
den@@ 1
14 1
esini 1
İngiliz 1
doğru 1
Kuzey 1
Amerikan 1
dil@@ 1
yarış@@ 1
18 1
uzaklıktadır 1
ca 1
takım 1
kazandı 1
ıcı 1
Rusya 1
tür@@ 1
h 1
başka 1
şu 1
tanım@@ 1
O 1
eder 1
ona 1
du 0.17037711483246085
kö@@ 1
id@@ 1
dört 1
tür 1
esinin 1
ey@@ 1
om@@ 1
ni 1
asına 1
yan@@ 1
geçir@@ 1
siz 1
17 1
I@@ 0.9452142266106653
merkezi 1
abilir 1
alan@@ 1
mesine 1
2018 1
ince 1
adıyla 1
ri@@ 1
2017 1
ür@@ 1
ap@@ 1
Roma 1
kes@@ 1
tarihi 1
Cumhuriyeti 1
özellikle 1
yapıl@@ 1
ka 1
müzik 1
adan 1
ist 0.25210167077536605
arasındaki 1
eb@@ 1
af@@ 1
geliş@@ 1
ılmıştır 1
yayın@@ 1
alt@@ 1
ilir 1
kab@@ 1
yen@@ 1
25 1
ük@@ 1
ünde 1
Mar@@ 1
eme 1
and@@ 1
mayı 1
yaş@@ 1
yas@@ 1
bilinen 1
_ 0.9981730582721805
undan 1
n 0.8468667568404038
ev 1
düş@@ 1
tekrar 1
öl@@ 1
Birliği 1
millî 1
asını 1
Doğu 1
ce 0.7989491949086729
sahiptir 1
yle 1
birkaç 1
anlar 1
A 0.41261529610906855
oluşan 1
Or@@ 1
seç@@ 1
duy@@ 1
2005 1
bağ@@ 1
sonunda 1
kullanılan 1
idir 1
tar@@ 1
2019 1
gün@@ 1
Büyük 1
Kur@@ 1
us@@ 1
ün@@ 1
ci 1
v 1
Kupası 1
bi@@ 1
kır@@ 1
r 1
2000 1
kullanıl@@ 1
sırada 1
göz@@ 1
iç@@ 1
saldır@@ 1
hakkında 1
İtalya 1
ıkları 1
devlet 1
lanan 1
ilen 1
od@@ 1
altı 1
üm@@ 1
ilerin 1
luk 1
yapan 1
re 1
verdi 1
art@@ 1
kazan@@ 1
yon 1
21 1
üy@@ 1
ılmış 1
olması 1
olmayan 1
ut@@ 1
hav@@ 1
lt 1
gir@@ 1
or 0.230011528621306
es 0.14245865147581727
şehir 1
ığını 1
Aynı 1
ler@@ 1
Fransız 1
Rus 1
lem@@ 1
çıkan 1
dur@@ 1
ne@@ 1
ız 1
itibaren 1
Paşa 1
son@@ 1
spor 1
oyuncu 1
sağ@@ 1
yet@@ 1
eyi 1
sel 1
ulaş@@ 1
bırak@@ 1
yay@@ 1
ant@@ 1
Çin 1
doğ@@ 1
sıra 1
almaktadır 1
etmiştir 1
mesini 1
gt 1
kor@@ 1
24 1
kol@@ 1
ecek 1
uk 1
ği 1
Baş@@ 1
tamam@@ 1
2004 1
rol 1
Öz@@ 1
geldi 1
inşa 1
yol 1
har@@ 1
yüz@@ 1
be@@ 0.8645588029316313
değiş@@ 1
milyon 1
savaş 1
W@@ 0.4825086761796253
met@@ 1
22 1
Devletleri 1
asının 1
sezonunda 1
grup 1
ılır 1
çıktı 1
yakın 1
düşün@@ 1
yapmıştır 1
adını 1
26 1
I. 1
Film 1
tur@@ 1
çe 1
eni 1
Köy 1
Ü@@ 1
din@@ 1
sun@@ 1
döneminde 1
etmek 1
ali 1
tem@@ 1
üs@@ 1
mad@@ 1
ip 1
savaş@@ 1
şark@@ 1
Kon@@ 1
pl@@ 1
udur 1
neden 1
pek 1
kim@@ 1
ayrıl@@ 1
mahalledir 1
takımı 1
oloji 1
mi 1
ez@@ 1
yanı 1
bin 1
Partisi 1
san@@ 1
aj@@ 1
usu 1
görün@@ 1
üz@@ 1
men@@ 1
ic@@ 1
verilen 1
manın 1
gi@@ 1
ıyor 1
Amerikalı 1
dışında 1
alın@@ 1
atı 1
kadın 1
tam 1
Ö@@ 1
mer@@ 1
alır 1
teki 1
23 1
tasar@@ 1
itibarıyla 1
res@@ 1
iz 1
ıyordu 1
Ad@@ 1
ni@@ 1
plan@@ 1
oy@@ 1
and 0.021319861631981078
ör 1
ko@@ 1
toplam 1
ilmiş 1
ia 0.8345449956664618
sonucu 1
ans 0.6946979153523181
muştur 1
ıs@@ 1
dolayı 1
futbol 1
nüfus 1
tik 1
lü 1
men 1
ıktan 1
El@@ 1
eğitim 1
eğ@@ 1
anda 1
Batı 1
görüş@@ 1
ku@@ 1
aldığı 1
ov 1
ılması 1
iler@@ 1
Ligi 1
uk@@ 1
tek@@ 1
oyun@@ 1
sayımına 1
ilmiştir 1
şarkı 1
görev@@ 1
ığı 1
hazır@@ 1
sen@@ 1
kariyeri 1
tab@@ 1
u@@ 0.8655146460675337
dönemde 1
lanmıştır 1
Anadolu 1
sayısı 1
leme 1
diz@@ 1
mas@@ 1
masıyla 1
kem@@ 1
kad@@ 1
sin@@ 1
ke@@ 1
yılından 1
maları 1
üst 1
abil@@ 1
York 0.9105175925634442
Ulusal 1
olur 1
sat@@ 1
git@@ 1
ıc@@ 1
İmparatorluğu 1
yon@@ 1
uş@@ 1
çoğu 1
Ser@@ 1
ut 1
geliştir@@ 1
Şarkı 1
Ödülü 1
27 1
leriyle 1
si@@ 1
per@@ 1
gelir 1
nden 1
ci@@ 1
28 1
ırlar 1
bin@@ 1
2002 1
ze 1
Bar@@ 1
temsil 1
ol 1
Bil@@ 1
ıya 1
yıl@@ 1
to@@ 1
yerleş@@ 1
kan 1
ra 1
lenen 1
yaşında 1
uç@@ 1
düz@@ 1
oluş@@ 1
yarat@@ 1
mi@@ 1
2021 1
yıllarında 1
zor@@ 1
başar@@ 1
form@@ 1
dur 1
içer@@ 1
ünden 1
elerin 1
irler 1
1990 1
üçüncü 1
b 0.9904507560319301
ıların 1
dev@@ 1
mem@@ 1
tah@@ 1
sah@@ 1
ça 1
edi 1
Uluslararası 1
karar 1
yan 1
değiştir@@ 1
der 0.04159458463986895
destek@@ 1
kaç@@ 1
anlat@@ 1
Bunun 1
muş 1
ki@@ 1
edilir 1
Orta 1
lik@@ 1
pat@@ 1
isinin 1
sezon 1
yön@@ 1
oluştur@@ 1
ız@@ 1
savun@@ 1
Ali 1
tal@@ 1
Her 1
ina 1
insan 1
getir@@ 1
sır@@ 1
fakat 1
taş@@ 1
2003 1
anlaş@@ 1
Ay@@ 1
mak@@ 1
düzen@@ 1
ılı 1
ö 1
kurulan 1
müştür 1
ayında 1
attı 1
İn@@ 1
doğdu 1
ıy@@ 1
ıydı 1
vi@@ 1
2001 1
açık@@ 1
Lig 1
John 0.7704901467262906
karşılaş@@ 1
ışı 1
tü@@ 1
kalan 1
anl@@ 1
yüksel@@ 1
katıldı 1
ag@@ 0.77312698675677
dünya 1
yapımı 1
yak@@ 1
isini 1
leş@@ 1
ilik 1
do@@ 1
em 1
alt 1
ad 1
ön@@ 1
isimli 1
üm 1
hemen 1
sınır@@ 1
aların 1
kız@@ 1
askeri 1
ettiği 1
As@@ 1
açık 1
kl@@ 1
ro@@ 0.9075675299402374
temel 1
sonraki 1
beraber 1
aki 1
uluslararası 1
arası 1
NGC 1
konuş@@ 1
öz@@ 1
Azerbaycan 1
ani 1
100 1
sar@@ 1
kaldı 1
hi@@ 1
ük 1
durum@@ 1
ıda 1
Hay@@ 1
orta 1
29 1
köydür 1
üş@@ 1
beş 1
sistem@@ 1
bar@@ 1
lar@@ 1
futbolcudur 1
takım@@ 1
ayan 1
duğu 1
Parti 1
karakter@@ 1
öğren@@ 1
ec@@ 1
lanmış 1
ifade 1
albümü 1
B 1
Sovyet 1
yaşam@@ 1
ici 1
yine 1
maç@@ 1
gen@@ 1
filmi 1
bulunduğu 1
31 1
boy@@ 1
Gö@@ 1
oranı 1
koy@@ 1
andı 1
ye@@ 1
yat@@ 1
iç 1
İyi 1
tin 1
kaz@@ 1
tiği 1
erin 1
geniş 1
Şampiyonası 1
Afrika 1
bel@@ 1
ans@@ 1
mes@@ 1
taraf@@ 1
kurul@@ 1
program@@ 1
geçen 1
veril@@ 1
tarih@@ 1
ri 1
ilçe 1
karar@@ 1
yerel 1
bat@@ 1
düzenlenen 1
imleri 1
sel@@ 1
biridir 1
üst@@ 1
ton 0.896636144478182
bek@@ 1
Bur@@ 1
Paris 1
ber@@ 1
bur@@ 1
g 0.8244440778841015
mesiyle 1
dem@@ 1
meyi 1
Kal@@ 1
Har@@ 1
County 0.9513274016779937
tu@@ 1
siyasi 1
kullanılır 1
ks@@ 1
8@@ 1
üyesi 1
söy@@ 1
landı 1
tel@@ 1
Devlet 1
lo@@ 0.7621255055987709
bi 1
tr@@ 0.5092438233950114
mişti 1
laş@@ 1
kaynak@@ 1
burada 1
resmi 1
gü@@ 1
yıllarda 1
formula 0.792225832908126
uyar@@ 1
Ab@@ 0.802833988790281
yen 1
İran 1
transfer 1
izin 1
gol 1
bo@@ 1
C 0.8639820579244776
masının 1
van 1
üsü 1
var 1
herhangi 1
if@@ 1
aş 1
uc@@ 1
Kol@@ 1
sayıda 1
vardı 1
içerisinde 1
mu@@ 1
diğini 1
1999 1
ail@@ 1
gerçekleştir@@ 1
ular 1
maz 1
erkek 1
Kor@@ 1
gönder@@ 1
üler 1
mıştı 1
sak@@ 1
hal@@ 1
ah 1
gö@@ 1
yıllık 1
eser@@ 1
oynadı 1
grubu 1
sezonu 1
Nüfus 1
1980 1
liğini 1
hareket@@ 1
okul@@ 1
televizyon 1
Kat@@ 1
isinde 1
Bey 1
sistemi 1
yal@@ 1
İngilizce 1
bütün 1
anlamına 1
haline 1
En@@ 1
op@@ 0.8824908512808317
bal@@ 1
merkez@@ 1
gem@@ 1
me@@ 1
Be@@ 0.9942060831140223
MÖ 1
birleş@@ 1
larıyla 1
suç@@ 1
dağ@@ 1
ünlü 1
Fakat 1
dü 1
kom@@ 1
del@@ 1
yaşayan 1
bu@@ 1
Diğer 1
may@@ 1
of@@ 1
öldü 1
amp 0.602109148912918
başarılı 1
Par@@ 1
mücadele 1
kaldır@@ 1
dir@@ 1
yanında 1
üdür 1
ili@@ 1
kas@@ 1
7@@ 1
nı 1
uygulam@@ 1
D 1
genç 1
girdi 1
kin 1
Mısır 1
acı 1
Bel@@ 1
esinden 1
maçta 1
örü 1
ül 1
ederek 1
ıt 1
işlem@@ 1
ib@@ 1
olabilir 1
isti@@ 1
asyonu 1
list@@ 1
başlayan 1
madan 1
forma 1
bit@@ 1
makta 1
ilan 1
ıl 1
dizi 1
oldukça 1
müş 1
çalıştı 1
yılına 1
sahibi 1
Ev@@ 1
ırken 1
başına 1
konusunda 1
yüzyılda 1
dönüş@@ 1
mez 1
ley@@ 1
ark@@ 1
eyaletinde 1
bölüm@@ 1
ilmesi 1
teknik 1
iken 1
kul@@ 1
öldür@@ 1
İs@@ 1
ing 0.13655522136278408
elik 1
edilmiş 1
ılık 1
st@@ 0.4458174634693008
masında 1
değil 1
1998 1
mez@@ 1
î@@ 1
1992 1
bunun 1
alm@@ 1
taki 1
başkanı 1
çal@@ 1
çocuk 1
sosyal 1
I 0.39841558818117795
yarı 1
mekte 1
ke 1
parti@@ 1
ard@@ 1
diye 1
meden 1
Ch@@ 0.5284722137624197
metre 1
osu 1
dönem@@ 1
ülke 1
İkinci 1
günü 1
evi 1
ığında 1
tespit 1
Av@@ 1
tığı 1
İspanya 1
ısına 1
sal 1
bes@@ 1
Sar@@ 1
geçti 1
üre@@ 1
j 1
yağ@@ 1
Tak@@ 1
çı 1
deniz 1
isim@@ 1
x 0.9181452271370589
Am@@ 1
giy@@ 1
üc@@ 1
Di@@ 1
dönem 1
malar 1
iri 1
belediye 1
Per@@ 1
Yap@@ 1
eleştir@@ 1
uğr@@ 1
ayr@@ 1
veren 1
bilin@@ 1
6@@ 1
dol@@ 1
50 1
amacıyla 1
isine 1
ülk@@ 1
hiçbir 1
sal@@ 1
ebil@@ 1
adet 1
başlamıştır 1
Kö@@ 1
lanır 1
sız 1
ladı 1
söz 1
ru@@ 1
sonucunda 1
tu 1
Türk@@ 1
Bakanlığı 1
Man@@ 1
alarda 1
güçlü 1
Re@@ 0.6639192780859072
umu 1
yü@@ 1
Japonya 1
yazar 1
dar 1
Ber@@ 1
ih@@ 1
De@@ 1
1996 1
leyen 1
ön 1
araştır@@ 1
Tr@@ 0.7894028929706017
Ne@@ 1
uz 1
albüm 1
mar@@ 0.9177562168912442
ndan 1
benzer 1
giriş@@ 1
1991 1
1994 1
K 1
pr@@ 0.829153155563058
1995 1
hareket 1
Fakültesi 1
asyon@@ 1
Bay@@ 1
Mer@@ 1
1993 1
1997 1
Ol@@ 1
hava 1
erken 1
Hal@@ 1
Der@@ 1
ismi 1
hizmet 1
ice 1
söz@@ 1
yana 1
inan@@ 1
değildir 1
kent@@ 1
ucu 1
yaygın 1
yayınlanan 1
mek@@ 1
ülkenin 1
alanı 1
şehrin 1
olojik 1
familyasına 1
Oy 1
Yunan 1
başında 1
dığı 1
sona 1
yık@@ 1
ebilir 1
ap 1
önceki 1
end@@ 0.9724525552875671
ob@@ 1
yani 1
Ter@@ 1
etkil@@ 1
han 1
Kan@@ 1
9@@ 1
Brezilya 1
to 0.019997338414151918
ıma 1
Bir@@ 1
su@@ 1
mezun 1
ortak 1
parç@@ 1
ınca 1
batı 1
etmektedir 1
1970 1
kil@@ 1
parçası 1
aca 1
bilim 1
za 1
lat@@ 1
olay@@ 1
İsrail 1
anlam@@ 1
film@@ 1
iddia 1
du@@ 1
acağı 1
şeklinde 1
leştir@@ 1
masından 1
oyun 1
eti@@ 1
uygun 1
seçildi 1
Sultan 1
ses@@ 1
bilgi 1
değer@@ 1
layan 1
tamamen 1
bulundu 1
meydana 1
Asya 1
üç@@ 1
Sh@@ 0.767883087432201
Son 1
kuş@@ 1
nedenle 1
şirket@@ 1
yu 1
adır 1
İzmir 1
TV 1
rol@@ 1
ova 1
ğin 1
güç@@ 1
ilere 1
Bazı 1
iller 1
içeren 1
yalnızca 1
Kay@@ 1
gerek@@ 1
Suriye 1
üs 1
İl@@ 1
kuzey@@ 1
br 1
kıy@@ 1
ge 1
amı 1
1960 1
ayrı 1
diler 1
Mal@@ 1
elerde 1
sonrasında 1
güney@@ 1
ken@@ 1
lük 1
siz@@ 1
eg@@ 0.9289347810378242
cm 1
luğu 1
babası 1
Eski 1
hak@@ 1
gerçekleş@@ 1
ra@@ 1
At@@ 1
ulusal 1
sürdür@@ 1
ene 1
turnuv@@ 1
ov@@ 1
Kaliforniya 1
halk 1
alarını 1
Se@@ 0.9234813410015421
undaki 1
ıştı 1
Bizans 1
Londra 1
model@@ 1
elerinde 1
ladığı 1
İslam 1
Bo@@ 1
düğü 1
listesi 1
por 0.14718091034172856
c 0.5206037068242373
ul 1
ger@@ 1
ane 1
kav@@ 1
elem@@ 1
yazar@@ 1
Nehri 1
aday 1
Bak@@ 1
Mehmet 1
cin@@ 1
Pr@@ 1
² 1
alarak 1
yüzyılın 1
çocuk@@ 1
etin 1
Le@@ 0.7809015436537489
dil 1
manı 1
endi 1
üzerinden 1
konum@@ 1
din 1
piyasaya 1
lider@@ 1
ekonomik 1
lık@@ 1
sık@@ 1
ite 0.7923162633727904
yaklaş@@ 1
sonuç@@ 1
bile 1
Japon 1
yet 1
lardı 1
oz@@ 1
meyen 1
düşük 1
Başkanı 1
İki 1
ısını 1
Tur@@ 1
sık 1
sim@@ 1
ey 1
ent@@ 0.507052277646874
so@@ 1
tir@@ 1
Ko@@ 1
kardeşi 1
ğini 1
ilç@@ 1
İtalyan 1
gerçek 1
ter 0.37573302529299224
boş@@ 1
elerinin 1
tur 1
ord@@ 1
hay@@ 1
topl@@ 1
Ger@@ 1
adi@@ 1
Sal@@ 1
iye 1
şek@@ 1
Mustafa 1
Futbol 1
hastal@@ 1
Sa@@ 1
Her@@ 1
Krallık 1
+ 1
bağımsız 1
kontrol 1
yayınlandı 1
başı 1
T 1
esidir 1
müz@@ 1
istan 1
karşıl@@ 1
büyü@@ 1
yöntem@@ 1
bölgesinde 1
pi@@ 1
po@@ 0.69332875489757
sev@@ 1
40 1
yardım 1
verildi 1
albüm@@ 1
tartış@@ 1
profesyonel 1
Polonya 1
dik@@ 1
inç 1
sor@@ 1
lanması 1
ılmaktadır 1
-@@ 0.9736694576605647
sil@@ 1
Millî 1
û@@ 1
öner@@ 1
5@@ 1
İş@@ 1
ığ@@ 1
mal@@ 1
lidir 1
1989 1
til@@ 1
Te@@ 1
X 1
Avusturya 1
sonrası 1
kendisine 1
olmasına 1
soy@@ 1
ef@@ 1
ilg@@ 1
ai 1
St@@ 0.6458125564976013
ata 1
serbest 1
alarının 1
Tar@@ 1
çiz@@ 1
kü@@ 1
kariyerine 1
Ağ@@ 1
başkan@@ 1
he@@ 1
sit@@ 1
S 0.9469246640539744
mut@@ 1
şehir@@ 1
bölge 1
10@@ 1
bilinir 1
liğinde 1
Rom@@ 1
Mes@@ 1
iti@@ 1
tip 1
acağını 1
eng@@ 1
kı@@ 1
meleri 1
kr@@ 1
uma 1
doğal 1
kurulmuştur 1
Yahudi 1
amaç@@ 1
El 0.23133426619188754
yönünde 1
hale 1
Arap 1
iden 1
birinci 1
dek 1
eceği 1
aç 1
up 0.3406605946256708
ledi 1
tanıt@@ 1
Bal@@ 1
kısmı 1
arlar 1
Örneğin 1
yolu 1
kiş@@ 1
Kom@@ 1
sol@@ 1
yardımcı 1
modern 1
Sel@@ 1
komut@@ 1
şey@@ 1
Hak@@ 1
yürüt@@ 1
Aş@@ 1
mo@@ 0.8726568976522927
Eurovision 1
ati@@ 1
altına 1
başlam@@ 1
han@@ 1
bölümü 1
kam@@ 1
lu@@ 1
anc@@ 1
Su@@ 1
Türkçe 1
Sovyetler 1
hat@@ 1
ip@@ 1
dünyanın 1
köy@@ 1
yapıldı 1
fer@@ 1
kuruldu 1
oyn@@ 1
yorum@@ 1
tır 1
dav@@ 1
durum 1
verdiği 1
adlandır@@ 1
maçında 1
açıklam@@ 1
Kap@@ 1
başlar 1
video 1
ade 1
asıyla 1
doğu 1
Buna 1
türü 1
andır@@ 1
Kaz@@ 1
Merkezi 1
Yüksek 1
fin@@ 1
günümüzde 1
X@@ 1
lerdir 1
maç 1
ale 0.5385036145540276
oluşur 1
val@@ 1
land@@ 1
bey@@ 1
atik 1
biy@@ 1
yum 1
Yunanistan 1
ısında 1
çalışan 1
kıs@@ 1
olsa 1
yn@@ 1
tas@@ 1
görül@@ 1
vur@@ 1
Br@@ 0.6800303309478004
Müzik 1
kuruluş@@ 1
sa@@ 1
lak 1
altın 1
tarihli 1
değ@@ 1
hızlı 1
dal@@ 1
yazıl@@ 1
etkin@@ 1
yok 1
bunu 1
sanat 1
saat 1
U 0.9997088410659061
paylaş@@ 1
ılarak 1
iyor 1
çatış@@ 1
gar@@ 1
satın 1
ete 1
devlet@@ 1
çalışmalar@@ 1
başlat@@ 1
defa 1
dikten 1
istem@@ 1
has@@ 1
öğrenc@@ 1
adına 1
elerini 1
olmuş 1
uyla 1
Halk 1
Toplam 1
yönetim 1
ilerinin 1
ağır@@ 1
eceğini 1
ime 1
üt@@ 1
enc@@ 1
ular@@ 1
arın 1
Hav@@ 1
can@@ 1
Avustralya 1
siyon 1
ıç@@ 1
kitap@@ 1
birlik@@ 1
kızı 1
ch@@ 0.22718553229627564
mesinden 1
ağır 1
Mad@@ 1
1988 1
beyaz 1
baş 1
yapı 1
Yen@@ 1
yapılmıştır 1
iline 1
alanında 1
ses 0.36797982344311625
kent 1
E 1
fik@@ 1
tav@@ 1
tor@@ 1
Ma@@ 1
lis@@ 1
inc@@ 1
Ödülleri 1
hafta 1
Fenerbahçe 1
çalışmaları 1
ölç@@ 1
id 1
yönelik 1
seçim@@ 1
Ham@@ 1
Gün@@ 1
irken 1
öne 1
lad@@ 1
verir 1
dar@@ 1
zorunda 1
On@@ 1
toprak@@ 1
landır@@ 1
kız 1
Car@@ 0.6678661853990201
fil@@ 1
kurum@@ 1
miş@@ 1
? 1
zi 1
içerir 1
yenil@@ 1
ordusu 1
laştır@@ 1
alarına 1
be 0.12138764369992097
şehri 1
Merkez 1
1987 1
bileş@@ 1
tepe 1
Kır@@ 1
çevir@@ 1
yıldız@@ 1
lığına 1
ette 1
imler 1
Bununla 1
kuvvet@@ 1
ordu 1
asker@@ 1
çöz@@ 1
deney@@ 1
ıklar 1
yeri 1
kir@@ 1
dair 1
Galatasaray 1
alarında 1
güç 1
min@@ 1
ilerek 1
yük@@ 1
ari@@ 1
dağıt@@ 1
oyuncul@@ 1
Kanada 1
yapmış 1
üd@@ 1
Es@@ 1
Yarışması 1
lardır 1
FC 1
aj 1
idae 1
kurtar@@ 1
mesinin 1
aşam@@ 1
taşın@@ 1
ılığı 1
ılara 1
değerlendir@@ 1
adaki 1
bildir@@ 1
Mah@@ 1
1928 1
Bey@@ 1
Seç@@ 1
Doğ@@ 1
bölüm 1
üret@@ 1
Ver@@ 0.4251052194131805
kâ@@ 1
Hayatı 1
yılının 1
seslendir@@ 1
lay@@ 1
para 0.20204490329709157
ham@@ 1
uları 1
ren@@ 1
onları 1
San 0.5692908180672851
gözlem@@ 1
üzerindeki 1
sinema 1
Ukrayna 1
lenmiş 1
Grup 1
öldürül@@ 1
Kıbrıs 1
Kad@@ 1
oy 1
başkenti 1
edi@@ 1
oc@@ 0.679596675198859
şarkıcı 1
döndü 1
Kore 1
yüzyıl 1
ley 0.6333055070877898
1986 1
ödül@@ 1
dünyaya 1
hız@@ 1
3@@ 1
kasab@@ 1
tanr@@ 1
güven@@ 1
karşısında 1
lenir 1
boş 1
kendini 1
III 1
eği 1
erini 1
iştir 1
kişinin 1
Köyün 1
geleneksel 1
Dev@@ 1
yesi 1
belirli 1
örgüt@@ 1
aka 1
söyledi 1
Em@@ 1
kültür@@ 1
şe 1
çünkü 1
eyen 1
1950 1
tipi 1
sayesinde 1
andır 1
kıl@@ 1
ji 1
tim@@ 1
sezon@@ 1
Az@@ 1
ığına 1
acaktır 1
isidir 1
menin 1
çift@@ 1
aktif 1
edilmektedir 1
sahi@@ 1
yazarı 1
Ordu 1
artık 1
indir@@ 1
Do@@ 1
Muhammed 1
alara 1
hâ@@ 1
Şehir 1
Val@@ 1
mey@@ 1
sayı 1
sağlam@@ 1
th@@ 0.4020336872306698
çarp@@ 1
yayın 1
taş 1
elli 1
Hindistan 1
iliği 1
liğe 1
Hollanda 1
İsveç 1
dış 1
ig@@ 0.6561780493276493
kurdu 1
dikleri 1
1.@@ 1
üniversit@@ 1
kayıt@@ 1
emi 1
ge@@ 0.49621881240802984
enerji 1
ide 1
konu 1
Han 1
ks 0.6247760528235744
all@@ 0.9691355849146241
kel@@ 1
galaksidir 1
Sam@@ 1
Mor@@ 0.8306129415748787
tır@@ 1
mam@@ 1
William 0.8487321307121377
uygulan@@ 1
1984 1
med@@ 1
mü@@ 1
senar@@ 1
ila 1
Süper 1
İz@@ 1
kardeş@@ 1
bitir@@ 1
Devleti 1
eri@@ 1
fe@@ 0.9929405096157427
kaybet@@ 1
ığın 1
Burada 1
araç@@ 1
Ön@@ 1
yüksek@@ 1
tic@@ 1
şehirdir 1
kut@@ 1
ie 0.3108172456876365
Gü@@ 1
üyle 1
maçı 1
met 1
ing@@ 0.7030559177194993
destek 1
Windows 1
Yak@@ 1
adığı 1
va 1
proj@@ 1
teor@@ 1
Gürcistan 1
F 0.9576373739178831
iğ@@ 1
şarkısı 1
single 0.7088471623608249
indedir 1
ilinde 1
yerleşim 1
bah@@ 1
ısının 1
hiç 1
yazdığı 1
şey 1
ve@@ 1
2. 1
ret@@ 1
UEFA 1
mec@@ 1
1985 1
idari 1
ayak@@ 1
mel@@ 1
fa@@ 1
ika 1
takip 1
korun@@ 1
br@@ 0.47159203360107294
do 0.43805893865444473
ize 1
fi 1
ce@@ 1
elerine 1
L 0.6240396417165888
cinstir 1
suz 1
Böylece 1
tar 1
ölçüde 1
ündeki 1
1982 1
kuzey 1
sürekli 1
iyordu 1
siy@@ 1
yoktur 1
kelim@@ 1
kazanmıştır 1
ari 1
mağ@@ 1
cu 1
deniz@@ 1
kazanan 1
tarihleri 1
ışık 1
2.@@ 1
Tarihi 1
M 0.9681365083705303
etmeye 1
Mon@@ 0.7017681740955619
sahn@@ 1
final 0.5739245470079093
Tek@@ 1
cı 1
dışı 1
oynanan 1
çalışma 1
kara 1
tes@@ 1
To@@ 1
Deniz 1
bölgede 1
ati 1
Sen@@ 1
adında 1
esiyle 1
Pol@@ 1
ölüm@@ 1
Ahmet 1
bor@@ 1
uldu 1
kum@@ 1
silah@@ 1
tiyatro 1
mada 1
kı 1
Irak 1
ep@@ 0.9823827707948509
halk@@ 1
kleri 1
yakın@@ 1
göç@@ 1
aşağıdaki 1
güney 1
Yaz@@ 1
bilim@@ 1
tü 1
yerini 1
derec@@ 1
doğrudan 1
lamak 1
ıyı 1
ot 1
kendisi 1
Eğitim 1
kitap 1
kötü 1
gösteren 1
ran@@ 1
yerleştir@@ 1
ancı 1
ali@@ 1
James 0.8669152061535722
... 0.822127615662832
geçmektedir 1
ten@@ 0.7403316097406702
resmî 1
best@@ 1
takımına 1
yazdı 1
koşul@@ 1
Mel@@ 1
uğu 1
popüler 1
hayvan 1
Bah@@ 1
luk@@ 1
taşıyan 1
iv@@ 1
Sonuçlar 1
kurulmuş 1
pleri 1
ydi 1
eh@@ 0.8514418217154425
Bölgesi 1
çağ@@ 1
eler@@ 1
R 0.8503381615339746
sü@@ 1
enler 1
ha 0.5792958407362547
ins@@ 1
lem 1
zu 0.12469603637748054
1983 1
çevr@@ 1
P 1
Kurulu 1
küt@@ 1
Özel 1
dam@@ 1
anları 1
görevi 1
öğ@@ 1
des@@ 0.549509901248682
derg@@ 1
Kuvvetleri 1
any@@ 1
sul@@ 1
ayır@@ 1
Bab@@ 1
iliş@@ 1
asından 1
yoğun 1
60 1
mevcut 1
Enstitüsü 1
elektrik 1
Tan@@ 1
Fil@@ 1
asa 1
David 0.9146529511087773
seviy@@ 1
ok 1
futbol@@ 1
sınıf@@ 1
ımlar 1
elerinden 1
dedir 1
Birinci 1
dır@@ 1
anti@@ 1
oran@@ 1
çekil@@ 1
kullanarak 1
ındadır 1
uş 1
yl@@ 1
dönemi 1
Yaz 1
zaman@@ 1
yard@@ 1
no@@ 0.8517638712201631
Berlin 0.9742379430054493
Th@@ 0.656361356775064
Ermeni 1
medi 1
otur@@ 1
yok@@ 1
batısında 1
V 0.8435008593221359
gelmiştir 1
4@@ 0.978959831305249
Şehrin 1
sab@@ 1
yedi 1
işi 1
her@@ 0.7304686409177571
yetiş@@ 1
halinde 1
ortam@@ 1
x@@ 0.7221099101732862
hap@@ 1
ald@@ 1
‘ 1
kin@@ 1
yılındaki 1
yası 1
Bas@@ 1
hizmet@@ 1
og@@ 0.9039920529034747
are 0.09074319804204192
eşi 1
insan@@ 1
Bakanı 1
etti@@ 1
Gal@@ 1
etmiş 1
ann@@ 1
Cumhuriyet 1
hedef@@ 1
yaşam 1
Altın 1
19. 1
ilçesinde 1
çıkmıştır 1
bölgesi 1
ent 0.20012284122159896
Moskova 1
ino 0.7649654721626786
süren 1
kendisini 1
bü@@ 1
aktar@@ 1
hüküm@@ 1
oluşturul@@ 1
top@@ 1
Bul@@ 1
Bor@@ 1
gelen@@ 1
Var@@ 1
hak 1
gen 1
lek@@ 1
Kas@@ 1
Profesyonel 1
ano 0.6073151596769243
tanın@@ 1
dis@@ 0.2997255486598983
gi 1
liğine 1
nu 1
ens@@ 0.6224582220769521
van@@ 1
etkisi 1
çesi 1
ilik@@ 1
keşf@@ 1
araştırma 1
ces@@ 1
lig@@ 1
ha@@ 1
Beyaz 1
çift 1
Başkanlığı 1
alık 1
donan@@ 1
dayan@@ 1
lak@@ 1
madalya 1
hesap@@ 1
Mak@@ 1
çı@@ 1
grubun 1
bitki 1
1979 1
şah@@ 1
kayb@@ 1
sırasıyla 1
Festivali 1
Dar@@ 1
adam@@ 1
ed 0.09213755551864536
rom@@ 1
mon@@ 0.5293383290873889
dür 1
sefer@@ 1
alar@@ 1
Kariyeri 1
Okulu 1
Mat@@ 1
sk@@ 1
2@@ 0.9716074670613488
açısından 1
kilis@@ 1
Belediye 1
kullanılmaktadır 1
kişilik 1
yum@@ 1
canlandır@@ 1
çisi 1
bazen 1
elere 1
zar@@ 1
ğ 1
Michael 1
200 1
şirketi 1
fi@@ 1
nasıl 1
Olimpiyatları 1
karış@@ 1
birleştir@@ 1
Sez@@ 1
dağ 1
gösterir 1
Fer@@ 1
land 0.37939503896424037
kesin 1
pu@@ 1
1981 1
era 0.3268343508862089
şi 1
antik 1
meler 1
doğusunda 1
aktadır 1
kaf@@ 1
La 0.09838369986702557
yla 1
Müslüman 1
dördüncü 1
ifad@@ 1
bilimsel 1
hayvan@@ 1
cihaz@@ 1
eğitimi 1
fir@@ 1
urlar 1
mis@@ 1
mahalle 1
sh@@ 0.3818419218728
kend@@ 1
Geç@@ 1
alındı 1
def@@ 1
Kr@@ 1
kayıtlarında 1
ba@@ 1
ımını 1
uv@@ 1
dış@@ 1
att@@ 1
açıkladı 1
göç 1
olabil@@ 1
annesi 1
rast@@ 1
Ku@@ 1
şehrinde 1
oyunu 1
Kral 1
kullanılmıştır 1
Yar@@ 1
meni 1
ıştır 1
Ordusu 1
ez 1
ümü 1
arab@@ 1
yapmaktadır 1
yapmak 1
böylece 1
üye 1
la@@ 1
verilmiştir 1
ho@@ 0.8699955997044215
vak@@ 1
bulunmuştur 1
Krallığı 1
3. 1
1974 1
isim 1
üretilen 1
pol@@ 1
aklı 1
ecektir 1
lenmiştir 1
Yaşamı 1
öncesi 1
etkili 1
bölümünde 1
oper@@ 1
buna 1
yabancı 1
gelmektedir 1
hayatını 1
iddi@@ 1
yoluyla 1
ala 1
takımyıldızı 1
aba 0.6775303362305413
1978 1
ze@@ 1
eli@@ 1
yonu 1
Grubu 1
ağa 1
yıldız 1
alam@@ 1
yo@@ 1
gazet@@ 1
stüdyo 1
yayım@@ 1
Günümüzde 1
ilgi 1
pe@@ 0.9014234777594269
ta@@ 1
içi 1
yapt@@ 1
Spor 1
90 1
muh@@ 1
tarz@@ 1
şampiyon@@ 1
1945 0.7757269513009535
Hava 1
dür@@ 1
neredeyse 1
fark@@ 1
min 1
Lisesi 1
Akdeniz 1
malzem@@ 1
if 0.7441758353478534
sahne 1
çaplı 1
uyor 1
iydi 1
konusu 1
Oy@@ 1
Rus@@ 1
dini 1
olu 1
Gir@@ 1
ılığ@@ 1
aile 1
tarih 1
üretil@@ 1
kapat@@ 1
fır@@ 1
sen 0.9701719071050882
kitabı 1
dağıl@@ 1
maktaydı 1
Savaş 1
one 0.11561057929229353
Si@@ 1
parti 1
lanmaktadır 1
mil@@ 1
göl@@ 1
çocuğu 1
geçirdi 1
Robert 0.8179629895399229
mal 1
Can@@ 1
izm 1
arkadaş@@ 1
kalm@@ 1
kullanıc@@ 1
mücadel@@ 1
yasa 1
tane 1
enen 1
1973 1
San@@ 1
let@@ 1
sem@@ 1
Ah@@ 1
görevini 1
terk 1
1968 1
Beşiktaş 1
nün 1
Mo@@ 0.8121713865939714
siyasetçi 1
imini 1
karş@@ 1
çoğunlukla 1
dizisi 1
vir@@ 1
ang@@ 0.5821265604094897
diğinde 1
ığından 1
arkadaşı 1
futbolcu 1
oğ@@ 1
madı 1
tekn@@ 1
Kemal 1
acak@@ 1
ğe 1
doğrul@@ 1
kentinde 1
G 0.7894596507059778
Müz@@ 1
finalde 1
Dur@@ 1
dikkat 1
yüzden 1
H 1
sız@@ 1
işgal 1
tör@@ 1
ıdan 1
sınırları 1
yetiştir@@ 1
malı 1
1972 0.9829407490511636
FIFA 1
almış 1
ettir@@ 1
ekonom@@ 1
fe 1
birliği 1
tec@@ 1
N 0.8854616108671678
1975 0.968506076300981
dili 1
Mil@@ 1
faaliyet@@ 1
göz 1
vermiştir 1
motor@@ 1
hayatı 1
tamamladı 1
ılarını 1
ımları 1
bölgesine 1
metr@@ 1
Kara 1
Britanya 1
om 1
Mu@@ 1
Bat@@ 1
filmin 1
keşfedilmiştir 1
İk@@ 1
lığa 1
gitti 1
üyeleri 1
ilçesi 1
seçim 1
Hristiyan 1
Bursa 1
cinsel 1
aşı 1
lanma 1
araya 1
birbir@@ 1
ıldığı 1
Has@@ 1
Me@@ 0.8810432807012005
nü 1
değer 1
elerden 1
giren 1
görülür 1
ortalama 1
ndeki 1
canlı 1
milletvekili 1
nes@@ 1
nam@@ 1
Küçük 1
sürül@@ 1
1977 1
Tarih 1
1920 1
Ni@@ 1
kavram@@ 1
lig 1
yapılmış 1
Ge@@ 0.8213226963107421
başlarında 1
° 0.8135939205548769
Macaristan 1
eki 1
sağlar 1
35 1
Demir@@ 1
hala 1
sağlayan 1
George 0.7400464473635995
kırmızı 1
Yay@@ 1
seçimleri 1
durumu 1
alınan 1
çiler 1
takımında 1
içindeki 1
yayımlanan 1
minin 1
ort@@ 1
Sanat 1
tep@@ 1
Muharebesi 1
yönetimi 1
aklar 1
bab@@ 1
teş@@ 1
toplant@@ 1
kökenli 1
sevi@@ 1
başta 1
can 0.27561352935031697
1976 0.9845698099621009
olmam@@ 1
Meclisi 1
Mas@@ 1
sanatçı 1
ask@@ 1
mevcuttur 1
İsviçre 1
Kulüp 1
mm 1
baz@@ 1
mac@@ 1
saat@@ 1
Tab@@ 1
ilerini 1
etik 1
idar@@ 1
bölün@@ 1
Po@@ 0.9943217034753491
fl@@ 0.7853265834030597
yaşadığı 1
Kültür 1
hu@@ 1
ro 1
dük@@ 1
düğ@@ 1
lenmesi 1
Tay@@ 1
sol 1
mayan 1
Güneş 1
ımc@@ 1
özellik@@ 1
Özellikle 1
onların 1
vatandaş@@ 1
cu@@ 0.7492271246783523
Dr. 1
çağr@@ 1
olmadığı 1
Tüm 1
düzenlem@@ 1
Gr@@ 0.5967495427146821
1969 1
pler@@ 1
Kadın 1
merkez 1
Derneği 1
puan 1
ko 1
nak@@ 1
önem@@ 1
pler 1
lendir@@ 1
üğ@@ 1
lıdır 1
düşünül@@ 1
duvar@@ 1
tercih 1
Haz@@ 1
Müzesi 1
akt@@ 1
laması 1
1971 0.980343359382627
anan 1
çıkar 1
Mek@@ 1
kaya 1
Gül@@ 1
içine 1
lemek 1
spor@@ 1
okulu 1
çab@@ 1
Şampiyon@@ 1
oynadığı 1
diş@@ 1
Akademisi 1
kurtul@@ 1
çapında 1
Portekiz 1
onay@@ 1
rah@@ 1
lığını 1
2022 1
Med@@ 1
kit@@ 1
Sey@@ 1
atandı 1
ese 0.6623945724048531
götür@@ 1
mektu@@ 1
kanıt@@ 1
45 1
diren@@ 1
Pro@@ 0.8327845774177816
80 1
City 0.43262089927475006
eylem@@ 1
ansı 1
yetkil@@ 1
Bi@@ 0.8112632291070568
müş@@ 1
kuşat@@ 1
lamıştır 1
mişlerdir 1
üretim 1
asker 1
ndaki 1
normal 1
eriş@@ 1
denir 1
yayınladı 1
gerçek@@ 1
gücü 1
orijinal 1
500 0.9910723312645926
ire 0.8934790598851035
don@@ 1
cez@@ 1
derece 1
lı@@ 1
edilmesi 1
rim 1
mekteydi 1
tahmin 1
fark 1
taşımaktadır 1
makin@@ 1
arş@@ 1
performans@@ 1
Gu@@ 0.7165499216502431
Kadınlar 1
Los 0.37364293363850054
ayrıldı 1
ateş@@ 1
göstermektedir 1
istik 1
Mus@@ 1
ticari 1
edir 1
ba 1
Gaz@@ 1
Sah@@ 1
1967 1
söyler 1
aşırı 1
Taş@@ 1
Mez@@ 1
ücü 1
seri 1
ts@@ 0.7988184004125134
genç@@ 1
oyuncusu 1
rak@@ 1
azalt@@ 1
ülkede 1
Bunlar 1
yor 1
ell@@ 0.7454114854200196
devr@@ 1
ence 0.542425179635261
Mc@@ 0.6119378710285321
hatta 1
Savaş@@ 1
Et@@ 1
likleri 1
geçmiş@@ 1
İsk@@ 1
ğine 1
takımın 1
mant@@ 1
ölmüştür 1
sağ 1
Teknik 1
gördü 1
eller 1
lendi 1
Charles 0.7125001302639852
Kilisesi 1
amadı 1
ılarının 1
fonksiyon@@ 1
anların 1
bilinmektedir 1
teri 1
ori 1
uzak@@ 1
açtı 1
ıştır@@ 1
artır@@ 1
ikler 1
arka 1
3.@@ 1
durumda 1
sebe@@ 1
Sır@@ 1
Tanrı 1
Gen@@ 1
32 1
Gök@@ 1
ato 1
adi 1
Mem@@ 1
day@@ 1
pan@@ 1
cul@@ 1
fotoğraf@@ 1
özellikleri 1
Paul 0.6501132726388855
kültürel 1
imparator@@ 1
çoğ@@ 1
aday@@ 1
yaptır@@ 1
sanat@@ 1
belli 1
neden@@ 1
İlçenin 1
sebebiyle 1
ticaret 1
politik@@ 1
roman@@ 1
Cam@@ 1
almak 1
uğ@@ 1
koş@@ 1
polis 1
özg@@ 1
1930 1
öz 1
est@@ 0.47105284314717655
insanların 1
Sin@@ 1
arada 1
ğinde 1
meş@@ 1
dönemin 1
Van 1
şiir@@ 1
Ama 1
takımının 1
ımının 1
lan 1
olma 1
metal 1
haf@@ 1
adamı 1
biçim@@ 1
sınıflandır@@ 1
yaş 1
kuzeyinde 1
Ana 1
yerde 1
Cor@@ 0.5996845403996915
12@@ 0.9388058133838995
Mac@@ 1
lü@@ 1
sistem 1
aracılığıyla 1
sok@@ 1
tutuk@@ 1
ziyaret 1
yükseldi 1
kulübünde 1
1961 1
Tor@@ 1
70 1
Geçersiz 1
bağlant@@ 1
çekir@@ 1
örnek 1
pozisyonunda 1
mahall@@ 1
yapısı 1
küm@@ 1
gece 1
kale 1
culuk 1
ast@@ 1
astronom 1
doğum 1
ae 0.8589064790006551
korum@@ 1
sergil@@ 1
dr@@ 0.5876970948748595
etler 1
ulu 1
liğin 1
yeter@@ 1
ımında 1
çalışmalar 1
akları 1
ard 0.5240253421070512
bağl@@ 1
yıllar 1
kendine 1
müziği 1
yem@@ 1
kapasit@@ 1
ita 0.9322010180576481
nüfusunun 1
yurt 1
etme 1
â 1
amacı 1
ant 0.17834561577738206
üz 1
kamp@@ 1
olduğuna 1
olmadığını 1
sekiz 1
endi@@ 1
mışlardır 1
iyet@@ 1
biçimde 1
Tür@@ 1
oluşturan 1
bek 1
kadın@@ 1
kontluğunda 1
pas@@ 1
Dav@@ 1
Yaş@@ 1
ch 0.36455008024375685
ph@@ 0.4609323701824508
Dağ@@ 1
çu 1
ilerde 1
gez@@ 1
Atatürk 1
teslim 1
Naz@@ 1
parish 1
erine 1
günlük 1
yo 1
ban@@ 1
civil 1
elen@@ 1
ker@@ 1
gul@@ 1
kararı 1
Sak@@ 1
Bu@@ 1
ges@@ 0.9172797373604357
Rum@@ 1
sı 1
pazar@@ 1
1965 0.9990124051977037
Ro@@ 0.7080164736365784
Yüz@@ 1
klasik 1
fer 1
okul 1
alanda 1
attığı 1
Çok 1
lılar 1
elektr@@ 1
w@@ 0.22459215965821955
doğan 1
illi 1
bilg@@ 1
sahipliği 1
vek@@ 1
1966 1
Sab@@ 1
örneğin 1
dılar 1
organ@@ 1
İrlanda 1
İç 1
1940 0.9525859448996283
teknoloj@@ 1
atif 1
ört@@ 1
siyah 1
ulan 1
çalışmaya 1
lev@@ 1
tutul@@ 1
durdur@@ 1
Aday 1
Ac@@ 0.8685786240853676
araz@@ 1
öy 1
no 0.1381979206526061
yere 1
sağlay@@ 1
sı@@ 1
açıl@@ 1
üstü 1
sey@@ 1
let 1
mimar@@ 1
ket@@ 1
Yine 1
önceleri 1
Str@@ 0.6329211918881966
hücrel@@ 1
öğretim 1
Say@@ 1
1964 0.9658627893545698
Sosyal 1
Osman@@ 1
kis@@ 1
dö@@ 1
lenme 1
trik 1
veri 1
Sch@@ 0.2600224821985285
ma@@ 0.9433785227382657
yılda 1
oluşmaktadır 1
alarından 1
red@@ 1
aat 1
hükümdar@@ 1
Res@@ 1
ettiler 1
yılın 1
4. 1
Türkç@@ 1
ailesi 1
ber 0.8638341857389329
lek 1
enf@@ 1
ölümünden 1
20. 1
giriş 1
özel@@ 1
seçil@@ 1
karşılık 1
anlam 1
kitab@@ 1
bilgisayar 1
yapmaya 1
toprak 1
ruh@@ 1
ner 0.4731302646261132
enerj@@ 1
ker 0.7161407982388307
elinde 1
Harek@@ 1
Konseyi 1
ıklı 1
Muh@@ 1
Co@@ 0.5048833894939952
Ül@@ 1
listesinde 1
üme 1
etmesi 1
abilen 1
işlet@@ 1
yor@@ 1
iyet 1
boğ@@ 1
dalg@@ 1
Far@@ 1
pro@@ 0.7836488708813906
fiziksel 1
Kir@@ 1
harek@@ 1
İspanyol 1
General 0.5768946591649688
Trabzon 1
League 0.37720818606385437
gelebilir 1
bö@@ 1
kop@@ 1
ımına 1
elek@@ 1
sağlık 1
organiz@@ 1
kaybetti 1
Oyuncu 1
kullanımı 1
kiler 1
ga 1
zaf@@ 1
kalmıştır 1
sivil 1
fre@@ 1
duyur@@ 1
insanlar 1
fa 1
ras@@ 1
ıç 1
yüzey@@ 1
ımcı 1
Arapça 1
türüdür 1
rad@@ 1
ura 0.967927724101364
0@@ 1
Ba@@ 1
In@@ 0.3442216854359517
Hasan 1
ton@@ 1
siyon@@ 1
gerekli 1
Ek@@ 1
1. 0.7962403778499672
aştır@@ 1
kanal@@ 1
lüğ@@ 1
bazıları 1
lardaki 1
filminde 1
Meksika 1
sur@@ 0.6077488772337746
tre 1
Belçika 1
güvenlik 1
psik@@ 1
yaparak 1
anlığı 1
TBMM 1
aral@@ 1
cam@@ 1
onlar 1
yazı 1
atan@@ 1
şart@@ 1
1944 0.8130203763197975
ığa 1
ecek@@ 1
ilerden 1
dığını 1
sıcak@@ 1
1963 1
yayımlandı 1
filmde 1
Bulgaristan 1
ımın 1
inti@@ 1
teleskopla 1
çeşit@@ 1
gan@@ 1
Birçok 1
oluşturur 1
ilebilir 1
landığı 1
Dönem 1
Peter 0.8074630579734636
vel@@ 1
aman@@ 1
sonradan 1
ısal 1
sözleşme 1
Hor@@ 1
sebep 1
şirket 1
merkezli 1
kontrol@@ 1
tüke@@ 1
ajı 1
sorun@@ 1
Kam@@ 1
ıklarını 1
henüz 1
ers 0.1305499445074527
olduğundan 1
mod@@ 1
Karadeniz 1
oluştuğu 1
hüc@@ 1
str@@ 0.5067320365849703
vil@@ 1
işlev@@ 1
ceph@@ 1
uru 1
birey@@ 1
Katalog 1
önc@@ 1
Kızıl@@ 1
uzay 1
eline 1
maz@@ 1
aynalı 1
belirtil@@ 1
görülen 1
dolayısıyla 1
ret 1
zam@@ 1
Microsoft 1
Fransızca 1
adlandırılan 1
Ef@@ 1
und@@ 0.822654304994798
yandan 1
Gökyüzünde 1
tro@@ 1
inş@@ 1
geçer 1
yüzünden 1
boyut@@ 1
Albüm 1
tiler 1
kaynağı 1
zem@@ 1
klu 1
İbrahim 1
güneyinde 1
Min@@ 1
yapılır 1
imin 1
larındaki 1
Arjantin 1
teh@@ 1
ağ 1
edebiyat@@ 1
yalı 1
ürün@@ 1
sonlarında 1
ödül 1
belirtti 1
sağladı 1
üş 1
tuğ@@ 1
Dış 1
akta 1
zengin 1
andığı 1
getirildi 1
tri@@ 0.6233425251681433
kov@@ 1
je@@ 1
sayılı 1
anya 1
Adana 1
parçac@@ 1
He@@ 0.6818279200545201
başl@@ 1
ıyor@@ 1
ys@@ 1
hastan@@ 1
Efendi 1
Grand 0.7613536407785192
1941 0.8490038767647002
ayet 1
Kab@@ 1
ate 0.13587262045789053
rock 0.9680751454336661
kül@@ 1
Is@@ 1
fik 1
karşın 1
mümkün 1
kar 1
oloj@@ 1
orman@@ 1
ebe 1
versiyon@@ 1
Jean 0.5763922706949326
maçına 1
sağlamak 1
ılar@@ 1
süre@@ 1
Federasyonu 1
Sü@@ 1
ikleri 1
vol@@ 0.9186602254050591
Hukuk 1
ciddi 1
Ardından 1
Ör@@ 1
Angeles 1
aslında 1
1962 0.9632343870914598
eğiti@@ 1
Con@@ 0.3292841870717758
lisans 1
13@@ 0.8773218324675097
For@@ 0.6312663844106772
önünde 1
Babası 1
amay@@ 1
Yıl@@ 1
lim@@ 1
şöyle 1
acılık 1
Pe@@ 1
metin 1
pak@@ 1
Kralı 1
iği 1
ilerine 1
Bölümü 1
1959 1
1956 0.990336518727715
ku 1
fiy@@ 1
inli 1
programı 1
Göz@@ 1
gec@@ 1
evlendi 1
haber@@ 1
World 0.2618542335735368
Kul@@ 1
bugün 1
sap@@ 1
uygul@@ 1
ilişkin 1
kaynak 1
Q@@ 0.713926400102599
üp 1
yavaş 1
rec@@ 0.5617412473365877
hükûmet 1
tari@@ 1
kus@@ 1
orada 1
leyici 1
soğ@@ 1
Hitler 1
kültür 1
ikisi 1
NBA 1
lediği 1
pa 1
Cem@@ 1
ece 1
olacak 1
olar@@ 1
Müdürlüğü 1
olan@@ 1
Hol@@ 1
mev@@ 1
Eğer 1
eseri 1
Alman@@ 1
Dışişleri 1
alg@@ 1
üretimi 1
ğinden 1
oynam@@ 1
ortadan 1
aksine 1
yasal 1
Süleyman 1
yapar 1
Söz@@ 1
yayınlan@@ 1
babasının 1
toplan@@ 1
kralı 1
lıklar 1
kış@@ 1
1@@ 1
irdi 1
çevres@@ 1
Yer@@ 1
por@@ 0.812976303727014
mesinde 1
geniş@@ 1
benzer@@ 1
asıdır 1
kh@@ 0.8008685251340409
anlamlara 1
kg 1
gösterdi 1
atan 1
çiç@@ 1
Ti@@ 1
renk@@ 1
azi 1
dakika 1
larca 1
toplum@@ 1
tüm@@ 1
kü 1
Ermenistan 1
.. 1
ris@@ 1
von 0.03706500506408306
lideri 1
Hüseyin 1
eşit@@ 1
Antalya 1
mül@@ 1
örnek@@ 1
art 0.46963755223832265
demir 1
Dan@@ 1
lo 0.24421772879377018
vad@@ 1
Cen@@ 1
ill@@ 0.552232821710718
Sür@@ 1
Ok@@ 1
laşma 1
mah@@ 1
arac@@ 1
ora 1
Hristiyan@@ 1
Ke@@ 1
ayarak 1
Den@@ 1
kapsamında 1
mit@@ 1
1946 0.9261100497512249
num@@ 1
ıld@@ 1
Li@@ 0.7293203254006073
kişisel 1
tad@@ 1
hakkı 1
işle@@ 1
14@@ 0.9819460642149066
yordu 1
1958 0.9641991503248195
Ur@@ 1
atör@@ 1
inci 1
IV 1
barındır@@ 1
üzer@@ 1
lüğü 1
yasak@@ 1
Gölü 1
Çağ@@ 1
for 0.02250630913120744
çizgi 1
final@@ 1
yönetmen@@ 1
Sivas 1
odak@@ 1
şehr@@ 1
duğunu 1
eğini 1
gizli 1
Yard@@ 1
aci@@ 1
karakter 1
ağın 1
Ben@@ 1
giderek 1
Park 0.551223179059521
Siy@@ 1
etkileş@@ 1
gerçekleştirilen 1
Norveç 1
yaşındayken 1
masıdır 1
ayla 1
ira 1
Üç 1
Gürcü 1
Belediyesi 1
girişim@@ 1
konular@@ 1
yönet@@ 1
Cel@@ 1
mik@@ 1
hızla 1
konser@@ 1
Üniversit@@ 1
ırdı 1
etkilen@@ 1
biraz 1
Antik 1
hane 1
sik@@ 1
mühendis@@ 1
tarım 1
değişik 1
üğü 1
köyü 1
ıcısı 1
Sem@@ 1
aza 1
giden 1
lisi 1
gaz@@ 1
politik 1
Kim@@ 1
tam@@ 1
bunların 1
üretic@@ 1
fes@@ 1
getirdi 1
değişik@@ 1
St 0.9694511548752174
Erzurum 1
radyo 1
sürüm@@ 1
tiy@@ 1
amaz 1
eyalet@@ 1
giydi 1
yakal@@ 1
1918 1
başarı 1
sp@@ 0.38276097459695285
sene 1
ölüm 1
Mir@@ 1
by 0.025464526619496834
elt@@ 1
kullanan 1
net 1
Hint 1
silah 1
model 1
makal@@ 1
Kem@@ 1
sanatç@@ 1
geçmiştir 1
arg@@ 1
1957 0.9952264525542747
toplamda 1
Basketbol 1
pen@@ 1
yönetim@@ 1
Yun@@ 1
dos@@ 1
On 0.1518116166662211
Camii 1
ikli 1
Filmin 1
Cumhurbaşkanı 1
Sur@@ 1
memiş 1
gol@@ 1
doğumlu 1
4.@@ 1
müzik@@ 1
abilecek 1
kre@@ 1
rir 1
faaliyet 1
Denizi 1
hat 0.40710313493673167
şer@@ 1
ind@@ 1
nedeni 1
leyerek 1
liğinin 1
savunma 1
Konya 1
layarak 1
web 1
cel@@ 1
enti@@ 0.6889081417244854
olay 1
ilerinden 1
ımda 1
nokt@@ 1
sözleş@@ 1
hidro@@ 1
almaya 1
ulaştı 1
Sosyalist 1
vaz@@ 1
Kuş@@ 1
nik 1
Yunanca 1
desi 1
Başkan 1
Don@@ 1
ong 0.6602753214615269
eser 1
alardan 1
Sil@@ 1
kel 1
Han@@ 1
Ermen@@ 1
Venedik 1
1954 1
Sp@@ 0.6162694799195598
1955 1
gök@@ 1
ısıdır 1
ilidir 1
lıkları 1
ayet@@ 1
ılarına 1
ide@@ 1
ılabilir 1
Alt@@ 1
Lis@@ 1
kişidir 1
düşür@@ 1
katılan 1
askerî 1
1943 0.8277705979756168
Pl@@ 0.8829734987218026
sınır 1
Stadyumu 1
uzak 1
5. 1
mini 1
etnik 1
rekor@@ 1
aller 1
des 0.019660271764246225
üyor 1
edebil@@ 1
ica 0.5201444186989507
ğinin 1
haz@@ 1
roman 1
kayn@@ 1
Uz@@ 1
muhtemelen 1
rolü 1
eş 1
1948 0.8839459431930842
Ker@@ 1
Şir@@ 1
aceae 1
fu@@ 1
kulü@@ 1
ilmektedir 1
mesaf@@ 1
kullanıldı 1
alma 1
böl@@ 1
şampiyon 1
finale 1
Men@@ 1
ren 1
Bek@@ 1
halkı 1
ilişkil@@ 1
jen 1
madde 1
Danimarka 1
Tep@@ 1
Henry 0.828949284285906
Ölümü 1
Karş@@ 1
Adası 1
Adaylık 1
Uzun 1
anlı 1
Osman 1
dey@@ 1
graf@@ 1
kural@@ 1
çıkış 1
yüz 1
söylem@@ 1
sinin 1
önde 1
başardı 1
lilik 1
yük 1
oynayan 1
özelliği 1
oynan@@ 1
Thomas 0.6047330491742371
acaktı 1
gereken 1
Mü@@ 1
1939 0.8016700162841367
Milletler 1
urdu 1
Kızıl 1
Lo@@ 0.7402650185792244
başvur@@ 1
Düz@@ 1
Kategori 1
güc@@ 1
lenmektedir 1
nö@@ 1
sub@@ 0.39871393612177775
yeten@@ 1
malar@@ 1
é 0.11963196489282782
belirt@@ 1
Şark@@ 1
şekil@@ 1
ödülü 1
Genç@@ 1
Nazi 1
kuvvetleri 1
incel@@ 1
şampiyonu 1
Samsun 1
seçimlerinde 1
birim@@ 1
genelde 1
Mehmed 1
tedavi 1
his@@ 1
Sırbistan 1
benim@@ 1
keş@@ 1
ski 1
sürec@@ 1
gerektiğini 1
Genç 1
Tiyatrosu 1
koruy@@ 1
ismini 1
hayat@@ 1
İç@@ 1
birbirine 1
girmiştir 1
sert 1
seçilmiştir 1
Oyun@@ 1
çap@@ 1
Tarih@@ 1
gu@@ 0.5140070811629762
Hel@@ 1
hir 1
birisi 1
kın@@ 1
ayn@@ 1
dek@@ 1
alılar 1
işe 1
Komünist 1
grub@@ 1
Ben 1
Tü@@ 1
Mi@@ 1
Yarış@@ 1
bun@@ 1
düz 1
Ir@@ 1
makam@@ 1
çalıştır@@ 1
lığın 1
ırı 1
hikây@@ 1
Final 1
af 1
pop 1
300 1
aliz@@ 1
st 0.5950486622158297
zor 1
oyunc@@ 1
ben@@ 1
bol@@ 1
verilir 1
yönel@@ 1
civarında 1
Kav@@ 1
ang 0.5856935183287136
güzel 1
milyar 1
tük@@ 1
oz 1
yaygın@@ 1
ister 1
grupl@@ 1
lin 1
göv@@ 1
ışlardır 1
kod@@ 1
Pan@@ 1
ağaç@@ 1
Pal@@ 1
çö@@ 1
itibarı 1
davran@@ 1
gaz 1
muhar@@ 1
bozul@@ 1
Richard 0.7925485850302584
yazılan 1
Gör@@ 1
bölgeye 1
ınd@@ 1
Sim@@ 1
düzenli 1
ardır 1
saha 1
sürdü 1
Oyunları 1
egemen@@ 1
ket 1
yaşadı 1
hafif 1
incelem@@ 1
arlı 1
olog 1
profes@@ 1
Şeh@@ 1
sad@@ 1
kullanılarak 1
bölgeler@@ 1
Kısa 1
diy@@ 1
endüstr@@ 1
Sol@@ 0.8626774726648709
köş@@ 1
liye 1
ğr@@ 1
hangi 1
çıkış@@ 1
dizisinde 1
giz@@ 1
arda 1
basit 1
Gel@@ 1
ass@@ 0.41321957254650554
uydu 1
fakt@@ 1
ildiği 1
kişiler 1
test@@ 1
Antlaşması 1
eci 1
off 0.3634269352526334
hek@@ 1
Washington 0.6956607652685468
çev@@ 1
çok@@ 1
birden 1
Gar@@ 0.9537225125397494
aman 1
erkek@@ 1
uzman@@ 1
Kit@@ 1
Yönetim 1
ışt@@ 1
gümüş 1
Havalimanı 1
noktası 1
tif 1
Topl@@ 1
istasyon@@ 1
sin 0.701644627109114
vermektedir 1
taşındı 1
Göl@@ 1
yüzyıl@@ 1
gerçekleşen 1
gr@@ 0.30734167776606663
kın 1
etki 1
Qu@@ 0.4804814564393395
büyük@@ 1
So@@ 0.8358240205898647
saldırı 1
1942 0.7805934579373442
Genellikle 1
mamış 1
çekildi 1
asıllı 1
car@@ 0.34028026135423783
hab@@ 1
günümüze 1
rej@@ 1
Romanya 1
cumhur@@ 1
davranış@@ 1
berg 0.49322400043266806
krall@@ 1
belediy@@ 1
sahipti 1
kulüp 1
Baz@@ 1
arttır@@ 1
beşinci 1
düğünü 1
yönetmen 1
dalında 1
gören 1
Kırım 1
başkan 1
Del@@ 1
5.@@ 1
boz@@ 1
tanınan 1
undadır 1
çıkt@@ 1
33 1
mir@@ 1
sonuna 1
fr@@ 0.5654779627066463
United 0.18180411128327334
haber 1
niş@@ 1
1953 0.9614451422941708
Hu@@ 1
isti 1
sinem@@ 1
Rusça 1
medi@@ 1
eceğ@@ 1
öm@@ 1
hukuk 1
erinin 1
1919 0.9910371965956346
edilebilir 1
Pat@@ 1
bitirdi 1
düny@@ 1
You 0.9721584120685985
ağaç 1
nok@@ 1
Sor@@ 1
kullanılabilir 1
yerli 1
etleri 1
kabil@@ 1
isi@@ 0.9896348572026819
sektör@@ 1
Nas@@ 1
hac@@ 1
lerdi 1
top 0.5172222601342491
Yahud@@ 1
çıkart@@ 1
araç 1
elerle 1
fabrik@@ 1
geçiş 1
toplam@@ 1
onya 1
mat@@ 0.8518095856139962
taşı@@ 1
Mur@@ 1
Olimpiyat 1
Vol@@ 1
lıkla 1
lığında 1
mer 0.6091851143387728
istifa 1
zarar 1
geçici 1
Dr@@ 0.8773613626807122
Saint 0.28881989262448826
Katolik 1
albümün 1
Finlandiya 1
del 0.04018948752659057
Fr@@ 0.6472748589965628
ima 1
karşılaştır@@ 1
Ahmed 1
etkis@@ 1
tedav@@ 1
Kel@@ 1
hükûmeti 1
emekli 1
çıkardı 1
görülmektedir 1
kes 1
yayınlanmıştır 1
1952 0.9033044746370406
cil@@ 1
haft@@ 1
çalışır 1
temsilc@@ 1
Yüzölçümü 1
memiştir 1
gösterildi 1
vide@@ 1
Kutsal 1
numaralı 1
Erkekler 1
MS 1
Dağı 1
hatt@@ 1
64 0.9964795717200758
şehridir 1
Böl@@ 1
areti 1
benzeri 1
ud@@ 1
Milli 1
başlamış 1
andan 1
internet 1
Geliş@@ 1
ius 1
Komitesi 1
mezar@@ 1
sav@@ 1
muhaf@@ 1
öy@@ 1
olumlu 1
tif@@ 1
varsay@@ 1
Bin@@ 1
ya@@ 1
Sev@@ 1
tahta 1
ıtı 1
Viyana 1
önceden 1
Yas@@ 1
abilmektedir 1
öğrenci 1
imzaladı 1
faz@@ 1
üreti@@ 1
for@@ 0.3373429285722005
yaz 1
babasıdır 1
DNA 1
Şu 1
bayr@@ 1
dü@@ 1
Almanca 1
temel@@ 1
kısm@@ 1
yayıl@@ 1
içeri@@ 1
dıktan 1
kür@@ 1
Os@@ 1
erler 1
alb@@ 1
arken 1
cinsidir 1
rip 1
sorumlu 1
katıldığı 1
Meclis 1
zamanlar 1
evlen@@ 1
ailesinin 1
leşme 1
Af@@ 1
ilip 1
resim 1
ja 0.6505098113324893
rapor@@ 1
tören@@ 1
çizg@@ 1
onlara 1
ân 1
dere 1
oldukları 1
Diyarbakır 1
Ta@@ 1
başlay@@ 1
geldiği 1
efsan@@ 1
tiş@@ 1
yö@@ 1
konus@@ 1
gan 1
benz@@ 1
yaşamı 1
minde 1
Billboard 1
Çev@@ 1
İsa 1
ell 0.42215986267571837
ektedir 1
lerindeki 1
stad@@ 1
Boy@@ 1
imz@@ 1
İngiliz@@ 1
Diz@@ 1
çocuğ@@ 1
kuyru@@ 1
tilen 1
Eş@@ 1
Gre@@ 1
sabit 1
sınıf 1
Arnavutluk 1
zamanlarda 1
sefer 1
çeş@@ 1
platform@@ 1
not@@ 0.8429438716000034
bölgenin 1
tis@@ 1
ederken 1
Tah@@ 1
olmadan 1
hakları 1
yav@@ 1
diğ@@ 1
koruma 1
isinden 1
ıldığında 1
Akademi 1
Kür@@ 1
Dol@@ 1
görevlendir@@ 1
1949 0.8363653077783904
Ali@@ 1
Eyaleti 1
yarar@@ 1
Louis 0.6266845479884241
oda 1
gerekir 1
1947 0.8470695180316816
altındaki 1
aralarında 1
ea 0.6775622607477249
kıt@@ 1
Bö@@ 1
edildiği 1
leh@@ 1
sunul@@ 1
güneş 1
ida 0.5240367766270134
serv@@ 1
salg@@ 1
mağlup 1
sıcak 1
komündür 1
Ho@@ 0.7633147376353091
renk 1
aktır 1
bunlar 1
asındaki 1
yiy@@ 1
ayrımı 1
400 0.9799480364695848
kenar@@ 1
ısından 1
Şampiyonlar 1
Bağ@@ 1
kul 1
1938 0.8215076693322136
asıl 1
Erkek 1
parça 1
barış 1
unsur@@ 1
hakk@@ 1
sembol@@ 1
Adaları 1
başladığı 1
kimyasal 1
aray@@ 1
yönetmenliğini 1
çalışması 1
Bayr@@ 1
öğretmen@@ 1
mahkem@@ 1
şar@@ 1
Na@@ 1
eşit 1
Cr@@ 0.6743839429253727
ettiğini 1
incisi 1
na@@ 1
İnsan 1
ole 0.972723062839624
Hat@@ 1
liğ@@ 1
oni 1
serisi 1
nek 1
başrol@@ 1
duyurdu 1
Çağ 1
amaçlı 1
yenin 1
yönettiği 1
vas@@ 1
6. 1
Love 1
makla 1
isindeki 1
uğraş@@ 1
plan 0.7135190562184891
toplumsal 1
performans 1
ülü 1
gruplar@@ 1
kalp 1
böyle 1
pek@@ 1
aspor 1
maktan 1
Üçüncü 1
amam@@ 1
Atina 1
direktör@@ 1
Gür@@ 1
lanarak 1
aret@@ 1
ilerle 1
Fır@@ 1
Latin 1
yeşil 1
endir@@ 1
plak 1
kamu 1
Un@@ 0.525881763579124
yazılmış 1
Saf@@ 1
familyasıdır 1
hükûmet@@ 1
yetenek@@ 1
kurulu 1
Modern 1
Martin 0.7345161312839822
Oyun 1
Tem@@ 1
kadınlar 1
48 1
kri@@ 1
Nik@@ 1
numar@@ 1
Mev@@ 1
Records 0.7714908800254034
zamanında 1
sezonunun 1
isiyle 1
Aydın 1
adam 1
antren@@ 1
ven 1
imli 1
ılarında 1
akla 1
bay 1
det@@ 0.7629323313904268
kazandır@@ 1
34 1
Kudüs 1
bed@@ 1
Din@@ 1
durumunda 1
kilise 1
sunuc@@ 1
istedi 1
Nor@@ 0.8500889778137368
und 0.014534724320047982
anma 1
ilerinde 1
lin@@ 0.6358917630384783
bol 1
ınt@@ 1
halka 1
ella 0.5689294371823262
iletişim 1
sarı 1
katı 1
uşu 1
tapın@@ 1
orta@@ 1
Fatih 1
Su 0.6591038959550709
cular 1
çak 1
bay@@ 1
gin@@ 1
olmay@@ 1
yönetic@@ 1
nit@@ 1
Gazet@@ 1
ağı@@ 1
bakımından 1
ateş 1
ayar@@ 1
Erken 1
Tun@@ 1
doktor@@ 1
1925 1
Sağlık 1
amb@@ 1
katkıda 1
Tat@@ 1
eserleri 1
taarru@@ 1
kendisinin 1
ej@@ 1
len 1
başlandı 1
kilometre 1
Col@@ 0.4100124115736929
OS 1
ilk@@ 1
co@@ 0.21147504381395452
anus 1
yarg@@ 1
dik 1
olojisi 1
türleri 1
ab 0.28650765395124766
ekran@@ 1
kuş 1
çevrel@@ 1
ölümü 1
dünyada 1
yel@@ 1
gider@@ 1
lul@@ 1
maddel@@ 1
kiye 1
ani@@ 1
yörüng@@ 1
Ul@@ 1
başlıca 1
Birleşmiş 1
taht@@ 1
ıza 1
Yayın@@ 1
Pap@@ 1
sonuçları 1
Güvenlik 1
36 0.9526544724324117
00 1
sanatçı@@ 1
mediği 1
bağlıdır 1
prot@@ 0.9516456515910134
1936 0.8385436261722011
Cih@@ 1
işaret 1
yang@@ 1
Kut@@ 1
uçak 1
orum 1
başarısız 1
mensu@@ 1
anlamda 1
standart 1
kalit@@ 1
Savunma 1
alist 1
lerdeki 1
Ve 1
sand@@ 1
aması 1
önder@@ 1
Farsça 1
abı 1
evinde 1
topluluk@@ 1
Mut@@ 1
ödem@@ 1
ster@@ 1
sarmal 1
amik 1
yakınlarında 1
indi@@ 1
maruz 1
urken 1
leridir 1
leyic@@ 1
numaraya 1
sezonda 1
Başkan@@ 1
İl 1
Dem@@ 1
araştırmac@@ 1
engel@@ 1
75 1
kullandığı 1
ograf@@ 1
yaşan@@ 1
izi 1
imzal@@ 1
Albüm@@ 1
1951 0.906577149705694
allar 1
$ 0.2655074261575473
Lee 1
sıralam@@ 1
Piy@@ 1
Yol@@ 1
ekte 1
Sırp 1
ekiplerinden 1
1933 0.8430437529473692
kayıt 1
ena 0.7606813605148356
ede@@ 1
ülkeler 1
1921 1
filmidir 1
beledi@@ 1
dijital 1
olar 1
dalga 1
Kullan@@ 1
ortak@@ 1
çekti 1
modeli 1
bastır@@ 1
Hey@@ 1
kulübü 1
suyu 1
ardı 1
gun@@ 1
otom@@ 1
dile 1
1922 1
Makedonya 1
birlikleri 1
sur 0.08393620434871066
Müslüman@@ 1
klü 1
Tek 1
kat 1
komedi 1
elektronik 1
ai@@ 1
adayı 1
renkli 1
Adalet 1
bugünkü 1
üniversite 1
les@@ 1
motor 1
döv@@ 1
düzey@@ 1
gid@@ 1
milyon@@ 1
mekle 1
Bölge 1
1935 0.9235176926200652
edin@@ 1
yerek 1
yola 1
ebe@@ 1
ilişkileri 1
Kurul@@ 1
sürdürdü 1
7.@@ 1
kapsam@@ 1
ışma 1
çat@@ 1
şair 1
sti@@ 0.9370043220257502
Rad@@ 1
Vakfı 1
süt@@ 1
zy@@ 1
katılmıştır 1
san 1
paşa 1
öv@@ 1
kten 1
maça 1
Joseph 0.6506219535431931
telef@@ 1
bahse@@ 1
Hi@@ 1
hatır@@ 1
yöneti@@ 1
sezonun 1
Al 0.536688061677896
Bundan 1
gal@@ 1
Tiyatro 1
unc@@ 1
dedi 1
kullanır 1
38 0.9788748686849933
sanatçısı 1
emek 1
Düş@@ 1
SS 1
dolar 1
ven@@ 0.7444961164167616
Adam 1
dönüştür@@ 1
geçmiş 1
kurucusu 1
Fiz@@ 1
Google 1
Yerli 1
lanabilir 1
Ag@@ 0.9582849939384075
halde 1
kup@@ 1
uva 1
saf@@ 1
likler 1
likte 1
iksel 1
ığının 1
cü 1
uyordu 1
blo@@ 1
yans@@ 1
yanlış 1
Apple 1
tik@@ 1
üyordu 1
bask@@ 1
işleri 1
65 0.751128911093502
milliyet@@ 1
pınar 1
rel@@ 0.5133669044865508
yoğun@@ 1
Fe@@ 0.9765593664318617
Dağları 1
oynamıştır 1
Ken@@ 1
çak@@ 1
1923 1
ediyor 1
petrol 1
yaşanan 1
esindeki 1
istih@@ 1
gu 1
Div@@ 1
set@@ 1
bulundur@@ 1
Demokratik 1
Son@@ 1
mit 0.04345098288185896
lası 1
tehlik@@ 1
ori@@ 0.8696115976650638
yönetilen 1
37 1
Oğ@@ 1
İsti@@ 1
ödülünü 1
Da@@ 1
uygulama 1
belgel@@ 1
Araştırma 1
uzun@@ 1
ders@@ 1
lıca 1
ülen 1
Zey@@ 1
değeri 1
Hiz@@ 1
Lev@@ 1
derin@@ 1
geçerek 1
iliyor 1
lığının 1
insel 1
bıraktı 1
nesn@@ 1
yanına 1
Ram@@ 1
farklıl@@ 1
hayatta 1
liler 1
anlaşma 1
köyün 1
Go@@ 0.7567879637686353
buldu 1
Top@@ 1
karmaşık 1
person@@ 1
sürede 1
Kazakistan 1
ılardan 1
bisik@@ 1
oca 1
cil 1
besi 1
teşvik 1
test 1
takımları 1
Madrid 1
mış@@ 1
ver 0.6922711039030781
tim 1
çuk 1
Kraliyet 1
Parkı 1
ilişkiler 1
ilerlem@@ 1
idam 1
mor@@ 0.7020244716175164
Müd@@ 1
ediği 1
şiir 1
ekli 1
ıf 1
Vil@@ 1
yal 1
gerekti@@ 1
başlad@@ 1
erk@@ 1
grup@@ 1
İr@@ 1
16. 1
çubu@@ 1
alınmıştır 1
iti 1
Yarı 1
Tom@@ 1
liliği 1
vermek 1
Evli 1
kt@@ 1
oyu 1
Şah 1
Sad@@ 1
Çanakkale 1
anlık 1
basketbol 1
erdi 1
Katılım 1
göre@@ 1
Ey@@ 1
Çocuk@@ 1
55 1
statüsü 1
Fu@@ 1
grubunun 1
isteyen 1
kısıt@@ 1
demiryolu 1
hey@@ 1
eğer 1
okum@@ 1
bahar@@ 1
uların 1
ders 0.9695046795167063
aittir 1
dular 1
tez@@ 1
Kend@@ 1
w 0.3973759310396362
hi 1
halkın 1
koleksiyon@@ 1
ülük 1
1924 0.9703093992495184
poli@@ 1
malarına 1
lük@@ 1
açıdan 1
menler 1
amak 1
ürün 1
eğitimini 1
Yılın 1
Bosna 1
mot@@ 1
savaşı 1
malarını 1
sey 1
Lim@@ 1
güreş@@ 1
asal 1
miktarda 1
merc@@ 1
gesi 1
ören 1
ela 0.96570139557084
aban 0.7151288423724035
kenti 1
ami 1
edebiyat 1
görevine 1
hareketi 1
yerleşimi 1
Ru@@ 0.9285467312763949
Çünkü 1
İnsan@@ 1
adlandırılır 1
tarihsel 1
Sav@@ 1
au 0.049674298297668944
başkanlığı 1
Büyükşehir 1
ilgilen@@ 1
bet@@ 1
değildi 1
yeterli 1
üyesidir 1
1937 0.8100547775885168
ou@@ 0.306725556442184
Ros@@ 0.7332650406806948
çevresinde 1
Moğol@@ 1
etrafında 1
gömül@@ 1
Doktor 1
cudur 1
emez 1
incil 1
yansıt@@ 1
talep 1
küresel 1
parçal@@ 1
ısındaki 1
Kayseri 1
6.@@ 1
bağış@@ 1
ailenin 1
derin 1
festiv@@ 1
kulübü@@ 1
raf@@ 1
7. 1
Kalesi 1
tabak@@ 1
cem@@ 1
Mahkemesi 1
şunlardır 1
tehdit 1
Bunların 1
yüzde 1
kulüplerinde 1
Boz@@ 1
dadır 1
kaçır@@ 1
açılan 1
geçirdiği 1
yönetmeni 1
zir@@ 1
esas 1
Aziz 1
Me 1
amp@@ 0.7720059838315475
hayatına 1
Ban@@ 1
pap@@ 1
Kulübü 1
oları 1
oll@@ 1
yemek 1
ılarından 1
anak@@ 1
eten 0.9795872445912321
eşlik 1
dolaş@@ 1
aylık 1
Tel@@ 1
artan 1
gemi 1
istler 1
İsmail 1
kategor@@ 1
lamaya 1
edip 1
unca 1
ordusunun 1
ahr@@ 1
davet 1
gelişmiş 1
1914 0.8887355873635953
Karak@@ 1
sınırlı 1
açıldı 1
siyaset@@ 1
general 0.358475404173225
iliyordu 1
Kürt 1
birer 1
aşağ@@ 1
yür@@ 1
š@@ 0.9942085185805225
avuk@@ 1
dokuz 1
ekler 1
ilişki 1
Kum@@ 1
dayanan 1
versiyonu 1
yardımcısı 1
1934 0.8720662367466232
olmakla 1
biriydi 1
kans@@ 1
mikro@@ 1
bünyesinde 1
ford 0.5535710407147869
karakteri 1
Cumhuriy@@ 1
alanları 1
traf@@ 1
Kü@@ 1
engell@@ 1
1912 0.9960919033304543
Tıp 1
silahlı 1
Mersin 1
Barış 1
kuruc@@ 1
önem 1
dah@@ 1
müd@@ 1
42 1
arm@@ 0.9138245849877068
doldur@@ 1
ahl@@ 1
dem 0.05013549606154939
alfab@@ 1
ötürü 1
Pi@@ 0.6743669719247305
ami@@ 1
lise 1
unvanını 1
şarkının 1
kadro@@ 1
Tam@@ 1
toplul@@ 1
köprü 1
mavi 1
he 0.03508868255641046
ore 0.48885452774777177
18. 1
eğitim@@ 1
tat@@ 1
afa 1
bozuk@@ 1
Takımı 1
dost@@ 1
mann 0.49677353371669675
ekibi 1
ahi 1
tiyle 1
Sonraki 1
á@@ 0.46013097910686906
karıştır@@ 1
ligi 1
Litvanya 1
Jackson 1
dans 0.047859616614840894
ith@@ 1
yargıl@@ 1
Kürt@@ 1
Dün@@ 1
edit@@ 1
eleme 1
line 0.27031964057529206
ciler 1
vok@@ 1
ii 1
olmaya 1
Lig@@ 1
kaydet@@ 1
şüph@@ 1
Eser@@ 1
isten@@ 1
İmparator 1
altyap@@ 1
kapalı 1
emek@@ 1
Kari@@ 1
istatisti@@ 1
larıdır 1
yab@@ 1
Mag@@ 0.7119825088024792
komutanı 1
Star 0.9557457323761533
fen@@ 1
imiz 1
mamıştır 1
çileri 1
Arap@@ 1
hikâ@@ 1
dukları 1
fel@@ 1
lenebilir 1
per 0.3117597307213433
SC 1
Bulgar 1
ihtiyaç 1
Cal@@ 0.5587534997914602
Ticaret 1
gruba 1
karşılığında 1
lerce 1
oluşturulan 1
bey 1
kullandı 1
tarafında 1
ğlu 1
1917 0.8842777528204779
yanın 1
tarihlerinde 1
One 0.40913851750928815
önüne 1
birinin 1
uncu 1
ub@@ 1
Çalış@@ 1
lir 1
müsabak@@ 1
seçilen 1
sta 1
ülkelerde 1
rit@@ 1
kesi 1
kıyısında 1
cal@@ 0.7705111790102265
esnasında 1
bilgisayar@@ 1
prodük@@ 1
lüğünü 1
lığ@@ 1
uya 1
abl@@ 1
Açık 1
Ömer 1
bilgiler 1
tiğini 1
düşünülmektedir 1
ıdaki 1
ehri 1
şeklin@@ 1
ilde 1
koc@@ 1
takımlarından 1
ac 0.7391276786497137
ürü 1
giye 1
Şi@@ 1
Fel@@ 1
Hanedanı 1
baskı 1
Sonr@@ 1
medya 1
tarzı 1
ılarda 1
özgü 1
dükten 1
Hab@@ 1
milletvek@@ 1
adr@@ 1
çıktığı 1
ölümüne 1
Sarayı 1
ayrılır 1
Devrimi 1
field 0.3029803365798086
söyl@@ 1
üstlendi 1
Video 1
atlar 1
emen 1
oluşturduğu 1
dak@@ 1
Ra@@ 1
bundan 1
uzan@@ 1
ayda 1
8.@@ 1
oynamaktadır 1
öyk@@ 1
Abdül@@ 1
operasyon@@ 1
şi@@ 1
ımlı 1
süs@@ 1
imza 1
alama 1
harf@@ 1
Çek@@ 1
oğulları 1
za@@ 1
led@@ 1
Yal@@ 1
ast 0.8427639450926359
sistemleri 1
Herschel 1
seyir@@ 1
Yönet@@ 1
irleri 1
kaydedil@@ 1
süresi 1
yaşamaktadır 1
Cas@@ 0.7055477876536306
tipik 1
yatır@@ 1
Filistin 1
dört@@ 1
plar@@ 1
rek 1
semt@@ 1
Ren@@ 1
bağlantılar 1
İd@@ 1
reak@@ 1
ikti@@ 1
Murat 1
toplum 1
zan 1
ı.@@ 1
liğindeki 1
ensel 1
okun@@ 1
Cer@@ 1
uzanan 1
Bilim 1
inde@@ 1
sisteminin 1
enz@@ 0.7844201492937882
kurucu 1
durumlarda 1
şehirde 1
abilirler 1
Kitap 1
noktas@@ 1
oto 1
hip 1
konfer@@ 1
konul@@ 1
WWE 1
anti 0.8347925468442583
ikili 1
gönderildi 1
tesis@@ 1
Yugoslavya 1
kalma 1
Maria 0.8002304584038353
giyen 1
geliştirilen 1
madığı 1
olduktan 1
go 0.5120541125032073
nükleer 1
çoğunluğu 1
yazılmıştır 1
Yıldız 1
Cup 0.3667485404235194
bakanı 1
malıdır 1
ızı 1
şah 1
1926 0.9196448358377648
aracı 1
haned@@ 1
les 0.02611160763117524
problem@@ 1
ıf@@ 1
mekaniz@@ 1
May@@ 1
sınıfı 1
takımlar 1
tarihinin 1
yaşad@@ 1
tarihte 1
temiz@@ 1
pir@@ 1
Sultan@@ 1
Edward 0.957188853329348
Haf@@ 1
çalışmalarına 1
açıklandı 1
viz@@ 1
bütün@@ 1
ick 0.552257787704535
çilik 1
forması 1
maların 1
görüldü 1
temsilcisi 1
çoğun@@ 1
kolon@@ 1
atlı 1
dayalı 1
refer@@ 1
hücre 1
Por@@ 0.9591317069754226
mesidir 1
Eskişehir 1
Ord@@ 1
72 1
A. 0.6069642877059558
konser 1
Şah@@ 1
Ka@@ 1
oh@@ 0.9179240032100718
dakik@@ 1
ıkların 1
iyeti 1
hayat 1
sıklıkla 1
Hali@@ 1
Sun@@ 1
irse 1
ters 0.4399456125193777
sam@@ 1
CD 0.8724634426573694
Selçuklu 1
türlü 1
alması 1
ağının 1
edeki 1
tül@@ 1
olacaktır 1
Soy@@ 1
kral@@ 1
köpr@@ 1
birisidir 1
çer@@ 1
kısmen 1
likle 1
Balıkesir 1
Kıl@@ 1
1927 0.9149700759980012
vat@@ 1
ly@@ 1
Met@@ 1
Tri@@ 0.5612304338298891
müh@@ 1
th 0.2604889965134952
De 0.29176284441991374
öncesinde 1
Latince 1
ted@@ 1
Bakü 1
rı 1
ıcılar 1
ağan 1
enmiş 1
sanayi 1
My 1
felse@@ 1
arasına 1
ess@@ 0.48512705384317295
Il@@ 1
aly@@ 1
ens 0.17115996731300642
nüfusun 1
direktör 1
sonuç 1
yönlendir@@ 1
dest@@ 1
göreve 1
— 0.033798188552844374
yazılım 1
geç 1
ond@@ 1
şık 1
Macar 1
depre@@ 1
hakkındaki 1
luğunu 1
eyal@@ 1
algıl@@ 1
adının 1
Yerel 1
kahr@@ 1
kaydetti 1
ortasında 1
Sek@@ 1
malara 1
ath@@ 0.5906087022670163
Bankası 1
dan@@ 1
Gi@@ 0.8344486382639686
rev@@ 1
etraf@@ 1
pik 1
Kurtuluş 1
belediyeye 1
civar@@ 1
gali@@ 1
Sat@@ 1
TRT 1
Karab@@ 1
atör 1
lili@@ 1
cer@@ 0.6663660648473223
kendilerini 1
Le 0.06867588260952354
West 0.3102763517318995
Ri@@ 0.6700199393863239
bakış 1
nitelendir@@ 1
uzaklıkta 1
urt@@ 1
Edirne 1
emiştir 1
çocukları 1
Bol@@ 1
olaylar 1
çalışt@@ 1
Mik@@ 1
hem@@ 1
fos@@ 1
göstermiştir 1
aret 1
Kı@@ 1
akış@@ 1
kullanım 1
‎ 1
ayrılmıştır 1
yazmıştır 1
çıkmış 1
derecede 1
Güzel 1
Tal@@ 1
gil@@ 1
bölümde 1
çevre 1
ins 0.23912826569680168
je 0.6953952280379568
soğuk 1
Hil@@ 1
boyu 1
aylar 1
koz@@ 1
9.@@ 1
işletim 1
SSCB 1
akar@@ 1
Abdullah 1
ğı 1
io 0.498630957172531
buluş@@ 1
far@@ 1
yapılmaktadır 1
avi 1
tuz@@ 1
0.@@ 0.7489086774677527
Bölüm@@ 1
Bugün 1
abileceği 1
düştü 1
Kayn@@ 1
alif@@ 1
uf@@ 1
kesim@@ 1
asi@@ 0.8650891701679299
Bunlardan 1
Maç@@ 1
Kül@@ 1
ederler 1
Eyal@@ 1
Takım 1
bölgesinin 1
bl@@ 0.31722480254308544
ektir 1
gerçekleşti 1
bronz 1
lenerek 1
örler 1
Gazi 1
cad@@ 1
fü@@ 1
Bağım@@ 1
kolay 1
Sın@@ 1
layıcı 1
Komünün 1
rel 1
Askeri 1
abilmek 1
ağında 1
oluşum@@ 1
ondan 1
tom@@ 0.7532448551905144
hüküm 1
lıların 1
Music 0.47899529866402546
ban 0.960710814992539
gelmiş 1
incelen@@ 1
Y 0.8625992644615968
kazand@@ 1
grafik 1
hast@@ 1
him@@ 1
dam 1
eksik@@ 1
Papa 1
yirmi 1
İ 1
Sonra 1
Santa 0.6328450802117801
aydın@@ 1
başlangıçta 1
taşıy@@ 1
1929 0.7974307354360386
Rock 0.984254587443064
muşlardır 1
işaret@@ 1
Prix 1
aat@@ 1
zm 1
Onun 1
tıp 1
Komut@@ 1
şö@@ 1
Lu@@ 0.7340745526851169
dair@@ 1
döng@@ 1
ola 0.8690094549940548
pe 0.5381432763472175
yenerek 1
Ari@@ 1
vücu@@ 1
1,@@ 0.7980598041011995
gruplar 1
asit 1
devrim@@ 1
17. 1
Black 0.6632780556668916
Ay 1
Deniz@@ 1
Gor@@ 1
düğünde 1
kral 1
44 0.8405236628649368
q@@ 0.8703897532007788
birimi 1
57 1
düşman@@ 1
dışındaki 1
inler 1
desteklem@@ 1
desteği 1
saç@@ 1
Fin@@ 1
olmasını 1
aha 1
Sok@@ 1
V. 1
gazeteci 1
ürünleri 1
Sanat@@ 1
devletin 1
atıl@@ 1
Derg@@ 1
zer@@ 1
ham 1
yolcul@@ 1
evi@@ 1
sonuc@@ 1
sun 1
Um@@ 0.7307207709528555
manyetik 1
öldürüldü 1
taşım@@ 1
emey@@ 1
ittif@@ 1
93 1
Ekonomi 1
Ang@@ 0.6461094796591945
lamaktadır 1
sonu 1
Başbakan 1
end 0.14506781001249514
Tokyo 1
bahç@@ 1
Ödül@@ 1
Selim 1
kısmını 1
teklif 1
Ege 1
Konusu 1
olog@@ 1
kah@@ 1
zz@@ 1
Kosova 1
Show 1
ა@@ 1
ser 0.27756444365673394
elle 0.11257192174628548
Od@@ 1
itler 1
Dil@@ 1
bölgel@@ 1
cüm@@ 1
pozisyon@@ 1
düzey 1
hattı 1
organizasyon@@ 1
Gençlik 1
onur@@ 1
urg@@ 1
Cephesi 1
Harry 1
senesinde 1
erde 1
ici@@ 1
sar 1
dün@@ 1
ayrınt@@ 1
Dal@@ 1
gerek 1
usal 1
abilir@@ 1
ehr@@ 1
süreç@@ 1
1932 0.8174925736056435
kısmında 1
şim@@ 1
Kastamonu 1
Demokrat 1
benze@@ 1
tanı@@ 1
kuv@@ 1
Kuzey@@ 1
insanları 1
0,@@ 0.8263877682759403
bölgelerde 1
okudu 1
seyahat 1
Büyükel@@ 1
hali@@ 1
öğret@@ 1
hedef 1
mektedirler 1
turda 1
erkekler 1
yerlerde 1
zi@@ 0.7783366140312464
bac@@ 1
müziğ@@ 1
8. 1
yerinde 1
ty 0.27755145901158873
Buc@@ 1
süreci 1
Manisa 1
alternatif 1
mine 1
ıkla 1
Afganistan 1
dergisi 1
Manchester 1
denilen 1
sahip@@ 1
Sezon 1
otomobil 1
eserler 1
zinc@@ 1
Edebiyat 1
figür@@ 1
W 0.6054479485642996
kontrolü 1
luğa 1
masa 1
büyükl@@ 1
uri 1
kayı@@ 1
olumsuz 1
sini 1
zamanla 1
dom@@ 1
karısı 1
sk 1
95 1
miktar@@ 1
yapılması 1
plar 1
buz 1
dığında 1
oku@@ 1
bölgesel 1
mede 1
bom@@ 1
sizlik 1
time 0.08528369808371228
Komutanlığı 1
anne 1
ende 0.39171424455728615
oj@@ 1
satış 1
ziyaret@@ 1
harit@@ 1
ng@@ 0.9238994360207762
umlu 1
Beş@@ 1
feth@@ 1
balık 1
all 0.09122946127310719
Kil@@ 1
savaşın 1
geçer@@ 1
ish@@ 0.7465201693295495
toplay@@ 1
layık 1
A.@@ 1
ats@@ 1
genelinde 1
oyunculuk 1
kazandığı 1
çalışmalarını 1
Smith 0.6649827359057462
olmad@@ 1
dim 1
COVID 1
Bit@@ 1
içermektedir 1
büt@@ 1
mamaktadır 1
play 0.2920528161094072
fon@@ 1
mütte@@ 1
tabanlı 1
92 1
taşı 1
yat 1
İm@@ 1
Fl@@ 0.5165456650405593
anında 1
Ün@@ 1
Ed@@ 1
beraber@@ 1
merkezinde 1
All 0.34388592192522544
terimi 1
hoş@@ 1
işbirliği 1
sak 1
ilişkili 1
ou 0.11055085050871664
üretim@@ 1
bayrağ@@ 1
emektedir 1
alandır@@ 1
Jack 1
Çoğu 1
yarısında 1
cas@@ 0.431182175347554
yaşlı 1
karakterini 1
kişiden 1
Don 0.9771468761593923
alarla 1
hük@@ 1
neg@@ 1
proje 1
ka@@ 1
krist@@ 1
bar 0.5481142144836452
1931 0.8282779568251473
iminin 1
Komisyonu 1
tasarım 1
İdari 1
birini 1
fas@@ 1
Kim 1
sığın@@ 1
başkanlık 1
görevinden 1
Entertainment 1
Aşağıdaki 1
korumak 1
aylarında 1
işgal@@ 1
ello 0.7829669090240131
52 0.9561836294529463
zul@@ 1
ayak 1
Bilimler 1
sürüldü 1
kalır 1
yönetil@@ 1
atr@@ 0.7974281985689525
günümüz 1
Pas@@ 0.8488875629542886
sosy@@ 1
esir 1
ölü 1
yaşamış 1
lendiği 1
mindeki 1
Mağ@@ 1
köken@@ 1
kte 1
şimdi 1
adım 1
eta 0.6638415673263617
işçi 1
Çay@@ 1
Çek 1
Milli@@ 1
işlem 1
yapıldığı 1
yazılı 1
luğun 1
km. 1
muhalef@@ 1
tanış@@ 1
varlığı 1
yaprak@@ 1
M. 0.7936286883930409
fal@@ 1
atom@@ 1
Oper@@ 1
paz@@ 1
Ste@@ 0.602199113072566
dans@@ 1
parlak 1
tılar 1
Ertesi 1
Bre@@ 0.6197973448724956
malarda 1
zih@@ 1
AB 1
Şirket 1
ru 1
imine 1
Plat@@ 1
ation 0.05272240775577362
politi@@ 1
ludur 1
ong@@ 0.6791503204857798
Android 1
aktör 1
oma 0.983479628184224
romanı 1
satışa 1
vurgul@@ 1
39 0.9439210856432526
AR@@ 1
illa 0.6543856647504288
tal 1
anmış 1
av 1
uç 1
lamış 1
­ 1
üldü 1
41 0.9843316882332781
Rio 1
q 1
şampiyonluğu 1
alanlarda 1
komutasındaki 1
suik@@ 1
Film@@ 1
cılık 1
akademik 1
inen 1
1915 0.9633597581445442
Kurumu 1
hastalığı 1
solo 0.508656268698713
Nev@@ 1
ava 1
güçlendir@@ 1
çekilen 1
Federal 1
imsel 1
mik 1
semb@@ 1
iptal 1
cinsine 1
kişilerin 1
gösterilmiştir 1
sıcaklık 1
Futbol@@ 1
zayıf 1
Bl@@ 0.5628802998044721
Je@@ 1
alim@@ 1
iliy@@ 1
kısaca 1
tekrar@@ 1
Dam@@ 1
fırlat@@ 1
yayı 1
yılların 1
atları 1
lim 1
İlçe 1
Ortodoks 1
başarısı 1
eder@@ 1
Frank 0.9409867676840666
gördüğü 1
47 1
Balkan 1
J. 0.6449281344227704
Arka 1
Haçlı 1
listesine 1
yr@@ 0.9027142533371545
gelenek@@ 1
sim 1
ansal 1
bölümünü 1
hariç 1
ılmasına 1
ville 0.21232715506532912
orik 1
bağlantı 1
bina 1
ef 1
sın@@ 1
sent@@ 1
Eri@@ 1
Tu@@ 1
9. 1
tikten 1
gider 1
Hot 1
* 0.22580232486555998
iro 1
aileden 1
ürler 1
coğrafi 1
etkileri 1
ony@@ 1
sayım 1
Yan@@ 1
Du@@ 0.6845182055832643
Silahlı 1
cen@@ 1
oğl@@ 1
Sayımı 1
aire 0.2941114448441742
köyl@@ 1
Çocuk 1
amayan 1
eğilim@@ 1
85 1
amamıştır 1
Sekre@@ 1
teorisi 1
beden 1
ust@@ 1
Biy@@ 1
çilerin 1
ō 1
ork@@ 1
ff@@ 0.4632312243281623
serg@@ 1
ımdan 1
ındaydı 1
10.@@ 1
Asker@@ 1
ınız 1
Karl 0.8043464060261624
Sadece 1
idare 1
aze 1
bola 1
det 1
İşçi 1
Ebu 1
anması 1
kendilerine 1
Bunu 1
gür@@ 1
ülkes@@ 1
Araştır@@ 1
Nec@@ 1
enleri 1
insanın 1
43 0.9788886470352609
büyükel@@ 1
İh@@ 1
Aj@@ 1
komş@@ 1
enn@@ 0.6126855730188869
dünyas@@ 1
hazırlanan 1
biç@@ 1
cev@@ 1
Pakistan 1
kutsal 1
özellikler 1
EP 1
amış 1
ırt@@ 1
evren@@ 1
tık@@ 1
Orta@@ 1
aşa 1
edilerek 1
ic 0.16964083043919637
iklim 1
muştu 1
ılmasını 1
kanalı 1
itik 1
sayılabilir 1
Gru@@ 1
mark@@ 1
tamamı 1
yapım 1
İmparator@@ 1
usudur 1
56 1
anlay@@ 1
ender@@ 1
ner@@ 0.8052551817293027
ome@@ 1
birik@@ 1
famil@@ 1
kütüphan@@ 1
liste 1
oyuna 1
zamanlı 1
kapsayan 1
kurduğu 1
redde@@ 1
rolünü 1
görüntü@@ 1
sıvı 1
ıklık 1
yayımladı 1
yukar@@ 1
AS@@ 0.9055340287008912
ekleri 1
Şam 1
heyk@@ 1
bölgedeki 1
iktidar@@ 1
Pek@@ 1
etinin 1
soy 1
kalınt@@ 1
kaleme 1
tizm 1
topr@@ 1
600 1
kal 1
Dört 1
ung 0.11593490793063196
eddin 1
Nar@@ 1
hizmete 1
röportaj@@ 1
aram@@ 1
başk@@ 1
dül@@ 1
kaldığı 1
sömür@@ 1
özgün 1
sekre@@ 1
çalışmıştır 1
pal@@ 0.7266539225558564
1000 1
köyünde 1
stüd@@ 1
tanınmış 1
gazete 1
kazanarak 1
ao 0.6555431188123213
reform@@ 1
disipl@@ 1
isimler 1
müzisyen 1
çiliği 1
dizinin 1
karşıtı 1
62 1
danış@@ 1
golünü 1
Bütün 1
başlayarak 1
hiss@@ 1
mimari 1
onik 1
olas@@ 1
altıncı 1
kitabında 1
üstün@@ 1
düzenlen@@ 1
süz 1
timi 1
ā@@ 0.67998778951072
esin@@ 1
atmos@@ 1
dönen 1
fot@@ 1
zengin@@ 1
Yusuf 1
alana 1
bölgelerinde 1
Belediyespor 1
eksiyon@@ 1
ressam 1
ğu 1
Hırvatistan 1
Mec@@ 1
doktora 1
pları 1
tiyatr@@ 1
88 1
Can 1
54 1
anlamı 1
manast@@ 1
hid@@ 1
esel 1
Hir@@ 1
sek@@ 1
age 0.09190320359929802
tici 1
yardımıyla 1
kalın@@ 1
Altı 1
Prot@@ 1
Muhaf@@ 1
SK 1
tesi 1
Karay@@ 1
balık@@ 1
Pers 1
hep@@ 1
yn 1
cilik 1
dilleri 1
reli 1
ts 0.10806122698801901
Kafkasya 1
Play 1
Yaklaşık 1
yapımc@@ 1
devam@@ 1
burg 0.6380945011207689
Özellik@@ 1
çözün@@ 1
Münih 1
oyuncular 1
150 1
cinsi@@ 1
denin 1
getiren 1
gönderdi 1
yaspor 1
aras@@ 1
ates 0.20096835538624436
şef@@ 1
olası 1
Hac@@ 1
46 0.9608224127483714
ekib@@ 1
laşması 1
uçuş@@ 1
Mim@@ 1
Kaynakça 1
acağ@@ 1
eleriyle 1
kadınların 1
Altın@@ 1
ayeti 1
görülmüştür 1
standart@@ 1
varlığını 1
tay@@ 1
kaçın@@ 1
çözüm@@ 1
mil 1
koordin@@ 1
dilinde 1
Türkmen@@ 1
akya 1
alandı 1
tekni@@ 1
oyunun 1
dağılımı 1
resim@@ 1
savaşa 1
sine 1
mel 1
Kes@@ 1
stein 0.6161310905872532
qu@@ 0.1854919816147871
Plan@@ 1
Zaman 1
Ür@@ 1
Prens 1
ilham 1
kullanıcı 1
buc@@ 1
King 0.389106365167174
eyalet 1
eve 1
illeri 1
Albümün 1
ikiye 1
ulaşan 1
Club 0.3259646732060029
Eng@@ 1
luğuna 1
beklen@@ 1
sil 1
göl 1
türe@@ 1
Ne 1
ağına 1
Kâ@@ 1
üf@@ 1
Sand@@ 1
eci@@ 1
est 0.01964364868464814
fayd@@ 1
Uzay 1
Daniel 0.8639565657122174
alıdır 1
co 0.24043812970809203
gelecek@@ 1
gerektir@@ 1
ikna 1
trans@@ 0.28788805351437546
Mol@@ 0.9884066155193455
ılarla 1
Man 0.6674214060142777
çök@@ 1
binlerce 1
doğmuştur 1
emedi 1
Ph@@ 0.5892704769524358
ınar 1
gösterime 1
č@@ 0.9205201471507283
71 1
ayaklan@@ 1
birlik 1
etkin 1
kapı 1
yüzey 1
​ 1
Buffy 1
değişikliğinden 1
rebil@@ 1
Şim@@ 1
başladılar 1
muş@@ 1
Dor@@ 0.875653924433416
Kış 1
otomatik 1
sül@@ 1
Alexander 0.7471778860031835
yd@@ 1
değişiklik 1
Ec@@ 1
oyunları 1
vergi 1
değerli 1
kısalt@@ 1
başlattı 1
otik 1
bank@@ 1
düzenlendi 1
ilet@@ 1
program 0.4898457045233959
suz@@ 1
Tes@@ 1
atin 1
67 1
Şey@@ 1
alizm 1
Nur@@ 1
belirgin 1
Rek@@ 1
kli 1
pozis@@ 1
tepki 1
çılık 1
anlayış@@ 1
elik@@ 1
Eleştir@@ 1
fak@@ 1
sebebi 1
veçli 1
99 1
Uyg@@ 1
gerçekleştirildi 1
yada 1
Kent 1
gin 1
unvanı 1
organize 1
ō@@ 1
1916 0.9151781833830686
indi 1
ordus@@ 1
yüzyıldan 1
mümkündür 1
sorumlul@@ 1
türk 1
yaşamını 1
Ü 1
ımcılığı 1
.com 1
Live 1
güncell@@ 1
güçleri 1
onunla 1
Chicago 0.5980643142574457
padi@@ 1
tanınır 1
da@@ 1
pos@@ 0.38583607178197
ebilecek 1
eliğine 1
ulaşım 1
yöntemi 1
dakikada 1
ly 0.14961906215044232
rem@@ 0.8185478075788072
sakat@@ 1
İbran@@ 1
İskoçya 1
üstünde 1
bağım@@ 1
tablo@@ 1
tı@@ 1
Zelanda 1
bulunmaktaydı 1
olacağını 1
ray@@ 1
alli 1
şarkıyı 1
değiştirildi 1
denem@@ 1
yumur@@ 1
bağlam@@ 1
aktiv@@ 1
58 1
telefon 1
51 0.9698249237123856
arlık 1
ug@@ 0.6680323036944734
77 1
akademis@@ 1
hakim@@ 1
çıkardığı 1
şarkıları 1
18,7 1
ebilen 1
filmleri 1
halkının 1
Hen@@ 1
Mary 0.608805811039321
Nobel 1
karşıya 1
oluşturmak 1
Görev@@ 1
Siyasi 1
amıştır 1
yerleşim@@ 1
Pir@@ 1
47,5 1
lıklı 1
yaşındaki 1
53 1
1908 0.9245468527509758
org@@ 1
takıma 1
yaptıkları 1
aşağı 1
eyle 1
hakim 1
sıradan 1
takımda 1
tirir 1
Konstantinopolis 1
komple@@ 1
sürümü 1
arkadaşları 1
fakül@@ 1
Sakarya 1
Çam@@ 1
matemati@@ 1
asi 1
tasvir 1
Hanım 1
Vadisi 1
şiddetli 1
araştırmalar 1
vererek 1
dönemlerde 1
Ex@@ 0.2931441699336046
dişi 1
halen 1
kim 1
Kongresi 1
Ven@@ 1
neye 1
suç 1
günde 1
sayf@@ 1
boyutlu 1
kli@@ 1
köl@@ 1
etmeyi 1
hızı 1
Ori@@ 1
Yılmaz 1
Kur 1
ə@@ 1
Red 0.5911699242590446
buz@@ 1
kaynakları 1
klip 1
diğer@@ 1
kisi 1
gösterdiği 1
hiz@@ 1
alıp 1
açıkça 1
barat 1
yakalan@@ 1
yarışması 1
Ly@@ 0.9535185366670744
enek@@ 1
protein@@ 1
dokun@@ 1
olmaktadır 1
utul@@ 1
86 1
gitar@@ 1
uçak@@ 1
800 1
Uygul@@ 1
63 1
Baba 1
ansa 1
ion 0.44708042160255534
Bis@@ 1
Flor@@ 1
Z 0.8783246041005538
azar 1
dirler 1
düler 1
Kütahya 1
resmen 1
anılan 1
Öğ@@ 1
ıman 1
Voleybol 1
melerini 1
görür 1
taraftar@@ 1
toprakları 1
arist@@ 1
olduğ@@ 1
Körfezi 1
formasını 1
ota 0.9139730348937454
iten 1
nas@@ 1
Değ@@ 1
Mark 0.7080052929864354
bit 1
usunda 1
Yardımcısı 1
68 1
73 1
yapma 1
Mey@@ 1
geliştirme 1
Fre@@ 0.470597205467504
sorum@@ 1
ülkelerin 1
Tro@@ 0.9494393396192097
ağırlıklı 1
Öl@@ 1
Mit@@ 0.8462690043776703
mekten 1
tra 0.6171040074608098
çalıştığı 1
kıyı 1
Çağı 1
Lübnan 1
felsefe 1
ülkesi 1
key 0.6992742913650779
ligde 1
Gaziantep 1
neh@@ 1
Koz@@ 1
São 1
bölge@@ 1
fo@@ 0.6137069272115905
arasındadır 1
unla 1
Wil@@ 0.5882156196002308
anlatır 1
yükselen 1
savaşta 1
rik 1
soruştur@@ 1
Uç@@ 1
denklem@@ 1
soyl@@ 1
Marmara 1
hapis 1
Real 0.9609351826743249
taraf 1
yolları 1
zade 1
ağını 1
hal 1
rot@@ 0.8797188195312728
ei 0.6222373135253613
işti 1
yarım 1
1913 0.8218414612305943
Albert 0.9081679409002915
Nokia 1
Tour 0.5208474290101117
ach@@ 0.23680454123244848
koyu 1
• 1
oksi@@ 1
evlilik 1
şub@@ 1
evr@@ 1
hr@@ 0.997410428938797
görüntü 1
rü@@ 1
ung@@ 0.4651771162484542
Williams 0.8772102994628643
maması 1
ölçek@@ 1
Tom 0.9434332703247822
uzunluğu 1
Yük@@ 1
öğrencisi 1
98 1
arc@@ 1
Rum 1
ekonomi 1
düşen 1
kalıcı 1
Çat@@ 1
Roman 0.5634287808006238
albümüdür 1
zamana 1
Pasifik 1
Fat@@ 1
International 0.2541500165171592
alarıyla 1
edr@@ 1
rat 0.9973790184567393
yarış 1
otob@@ 1
sorunları 1
yitir@@ 1
metre@@ 1
Soğ@@ 1
darbe 1
mezunudur 1
sızlık 1
kırı 1
süreli 1
evli 1
girer 1
94 1
gelecek 1
kavuş@@ 1
au@@ 0.2180696406906028
Hem 1
işler 1
santr@@ 1
beğen@@ 1
aw@@ 0.3703157026015421
ır.@@ 1
Manast@@ 1
Orhan 1
oranda 1
şı 1
ener 0.7551903861672788
genişlem@@ 1
hayran@@ 1
kuvvet 1
şehrinin 1
nesil 1
kampany@@ 1
yosu 1
üste 1
Koleji 1
getiril@@ 1
rütbes@@ 1
başlanmıştır 1
İst@@ 1
Pre@@ 0.647429696354771
gıda 1
Q 1
ezi 1
eç@@ 1
gitar 1
ressam@@ 1
Üç@@ 1
devleti 1
orlar 1
Bölgesel 1
Turnuv@@ 1
Amatör 1
J 0.6842136869807756
sağlamıştır 1
bakan 1
duruma 1
Tev@@ 1
Nüfusu 1
Yeşil@@ 1
day 0.1980179322302429
iyileştir@@ 1
çeken 1
Trabzonspor 1
zun@@ 1
Vak@@ 1
statüs@@ 1
ırsa 1
ertesi 1
teknoloji 1
opera 1
sanay@@ 1
eyaletinin 1
kutu@@ 1
kuram@@ 1
ger 0.4952102386506856
reddet@@ 1
yakınlarındaki 1
akş@@ 1
ağz@@ 1
baba 1
diğine 1
Â@@ 1
Sanatlar 1
Tı@@ 1
ekip@@ 1
giymektedir 1
ürlüğ@@ 1
Anne 1
Miss 1
dir.@@ 1
harekete 1
öğre@@ 1
rüt@@ 1
Allah 1
görüş 1
molekül@@ 1
Akadem@@ 1
kuruluş 1
kuruluşu 1
satan 1
We@@ 0.4922464618487288
azın@@ 1
bitkil@@ 1
Bağdat 1
Big 0.752213604177028
Dil 1
satış@@ 1
şirketin 1
Tanr@@ 1
Ap@@ 0.7224871562951404
ladılar 1
çağdaş 1
İlç@@ 1
neş@@ 1
ortalarında 1
Örgütü 1
çidir 1
olayları 1
tün@@ 1
oldular 1
dolu 1
kapsamlı 1
meli 1
Niş@@ 1
filmler 1
işli 1
Belarus 1
gâ@@ 1
ost 1
bireysel 1
topluluğ@@ 1
öngör@@ 1
özerk 1
ulus@@ 1
çekimi 1
konsol@@ 1
parçasıdır 1
No 0.5518435794955315
Okul@@ 1
gemisi 1
ilçedir 1
Teksas 1
alınarak 1
unvan@@ 1
Sonuç 1
Yam@@ 1
hazır 1
mitoloj@@ 1
rek@@ 1
96 1
geçerli 1
anay@@ 1
genişlet@@ 1
konuda 1
Üniversite 1
lular 1
udi@@ 1
yönetiminde 1
Bro@@ 0.757647186647581
Lor@@ 1
gücünü 1
Dik@@ 1
Max 1
isyan 1
düşünce 1
konuşma 1
önü 1
Kırg@@ 1
aff@@ 0.6601523886443498
Demografi 1
duktan 1
yev 1
siyaset 1
66 1
mız@@ 1
13. 1
Kardeş@@ 1
Avrupal@@ 1
enlerin 1
ürlük@@ 1
Yağ@@ 1
kelime 1
afe 1
isimleri 1
akrab@@ 1
desteğ@@ 1
lider 1
AK 1
partinin 1
tarihindeki 1
filoz@@ 1
hükû@@ 1
kesin@@ 1
sözleri 1
deş@@ 1
lisans@@ 1
olsun 1
49 0.896064965993626
kulland@@ 1
pilot@@ 1
hil 1
Erdoğan 1
bet 1
Boğaz@@ 1
Cemiyeti 1
yüzyıla 1
DVD 1
hum@@ 0.8699553655284892
kelimesi 1
düşman 1
sky 0.8494168844602598
ât 1
0.000 1
Mahallenin 1
Asyalı 1
hayata 1
ud 1
kub@@ 1
etli 1
fikir 1
güne 1
Çelebi 1
albümünü 1
Yarg@@ 1
ayrılarak 1
beyin 1
kültürü 1
reye 1
görsel 1
1910 0.7432455160826758
dersleri 1
geti@@ 1
Kulü@@ 1
oluşturmaktadır 1
albümleri 1
olmuştu 1
prak 1
seçimi 1
ülebil@@ 1
madal@@ 1
97 1
bölgeleri 1
eden@@ 1
ism@@ 1
Laz@@ 1
ayın 1
parçaları 1
İtalyan@@ 1
Sinema 1
irli 1
konuk 1
Bud@@ 1
Nak@@ 1
şeyi 1
Hacı 1
gru@@ 1
Sir@@ 1
cel 1
dok@@ 1
kasaba 1
mahkû@@ 1
Arabistan 1
boy 1
doğrultusunda 1
yolcu 1
ımız 1
Com@@ 0.3266528729230669
Let@@ 1
It 0.04829407521846793
uçuş 1
ıra 1
My@@ 1
bağımsız@@ 1
zorunlu 1
sergilen@@ 1
feder@@ 1
paralel 1
ışın@@ 1
Köyü 1
melerine 1
yemek@@ 1
ımıyla 1
Demir 1
bilgileri 1
Çan@@ 1
alış@@ 1
sayede 1
Devletler 1
demir@@ 1
kısım@@ 1
toplama 1
Suudi 1
luğunun 1
pozitif 1
FA 1
mater@@ 1
piy@@ 1
ân@@ 1
asist 1
kıyaf@@ 1
zehir@@ 1
Anna 1
Gali@@ 1
familyasından 1
erden 1
İş 1
ain 0.3849417502814116
yaşay@@ 1
gerekçesiyle 1
Company 0.399421745468537
NATO 1
mutfa@@ 1
Yab@@ 1
memesi 1
larken 1
genetik 1
intihar 1
yürü@@ 1
Mis@@ 1
arasından 1
Hik@@ 1
bre@@ 0.3540055789895025
ilerleyen 1
84 1
Tav@@ 1
lağ@@ 1
nehir 1
dıkları 1
esiydi 1
sendrom@@ 1
Sinan 1
Solanum 1
kayded@@ 1
ğer 1
reddetti 1
larlar 1
projesi 1
geliştiril@@ 1
melidir 1
Hâ@@ 1
maktadırlar 1
çif@@ 1
Kars 1
toplu 1
Vik@@ 1
ayları 1
yakıt 1
lamalar 1
mali 1
mevsim@@ 1
grupları 1
uh@@ 1
belediyesi 1
genin 1
rede 1
tanın 1
Proj@@ 1
ecekti 1
katkı@@ 1
valisi 1
Çeşitli 1
Klasik 1
gın 1
59 0.9920827230523237
91 1
ayrılan 1
kalk@@ 1
Grubun 1
ödüllendir@@ 1
In 0.019348399304852746
bölges@@ 1
dergi 1
açılmıştır 1
ediler 1
görüntül@@ 1
protest@@ 1
ıs 1
alyası 1
duğunda 1
klar 1
Tut@@ 1
yüzü 1
anlaşmaz@@ 1
Şarkının 1
bakanlık 1
imidir 1
Hersek 1
tarihine 1
kuru 1
Artvin 1
güzel@@ 1
programında 1
Gümüş@@ 1
dışına 1
87 1
ple 1
ılım 1
dikkate 1
komünist 1
Pop@@ 1
doğr@@ 1
kullanılması 1
Özerk 1
Arizona 1
kart@@ 1
anlatan 1
shire 1
yede 1
15. 1
National 0.13460782338147903
atmıştır 1
alin 1
sonraları 1
Ork@@ 1
BBC 0.8756385967663041
Emir@@ 1
74 1
Diy@@ 1
albümde 1
asyonlar 1
inşaat 1
hastalık 1
78 1
Est@@ 0.694508523698145
alle 0.432848774943816
gerçekleştirdi 1
ıkta 1
analiz 1
gül@@ 1
tasarımı 1
âr 1
atma 1
dönüş 1
şekli 1
abe 1
düzeyde 1
kalmış 1
Massachusetts 0.9919687577474481
felsef@@ 1
verg@@ 1
04 1
Dön@@ 1
Royal 0.3452230821644072
ziy@@ 1
Bolş@@ 1
ksel 1
sundu 1
10. 1
20@@ 0.8311930854730668
ordu@@ 1
nitelik@@ 1
vermeye 1
11.@@ 1
döner 1
ina@@ 1
maçın 1
yürüyü@@ 1
The@@ 0.8073913163223551
Gem@@ 1
gun 1
malzeme 1
Tapın@@ 1
Temsilc@@ 1
oluşuyordu 1
Tasar@@ 1
eliği 1
ener@@ 1
Kütüphan@@ 1
kariyerini 1
las@@ 1
liğinden 1
tarihçi 1
Chris 1
Sig@@ 1
Topluluğu 1
fotoğraf 1
İmparatoru 1
taya 1
yarışı 1
azı 1
CHP 1
laborat@@ 1
Başar@@ 1
kuz@@ 1
nek@@ 1
Arthur 0.8738826410033007
ach 0.3341733144559133
diğerleri 1
Moğol 1
düşüncel@@ 1
fizik 1
hepsi 1
oynad@@ 1
69 1
söylemiştir 1
doğa 1
kişiye 1
76 1
bat 1
belirti@@ 1
Mezarlığı 1
doğuda 1
port 0.4156775334157175
sos@@ 1
alk@@ 1
farkl@@ 1
gösteril@@ 1
Vir@@ 1
kamera 1
Birkaç 1
lendirme 1
tabl@@ 1
Vel@@ 1
81 1
bildirdi 1
kati@@ 1
pul@@ 0.6118405024400063
sözü 1
uzunluğunda 1
Sanayi 1
basın 1
deye 1
No@@ 0.6906377611976314
Bun@@ 1
bulunuyordu 1
Pierre 0.5379208485298728
binası 1
imparator 1
olanak 1
ales 0.1427246979277811
zon@@ 1
Malatya 1
ney 0.7385882740480872
posta 1
Esk@@ 1
Jones 0.7599027895313885
uda 1
önlem@@ 1
Karadağ 1
bölgesindeki 1
hizmeti 1
İmparatorluk 1
Üsk@@ 1
mekte@@ 1
servis 1
üt 1
çoğunu 1
öt@@ 1
çağ 1
Bes@@ 1
diğinden 1
Ekonomik 1
Liga 0.6334683107734232
09 1
Türkler 1
adamları 1
atür@@ 1
ısıyla 1
İçişleri 1
yapımcı 1
Ağa 1
Siv@@ 1
Çak@@ 1
fol@@ 1
maktır 1
Çerk@@ 1
matematik 1
birbirinden 1
karbon@@ 1
tüc@@ 1
nü@@ 1
1900 0.6963083772745279
kardeş 1
nokta 1
Şer@@ 1
vin@@ 0.8340956510736005
Şili 1
Premier 0.8249453388792359
hit@@ 1
vey@@ 1
ât@@ 1
kimi 1
anıl@@ 1
ırk@@ 1
Nam@@ 1
akım 1
çeyrek 1
şair@@ 1
ıncı 1
Virginia 0.6073517725756871
şov@@ 1
83 1
Oc@@ 1
ihtim@@ 1
yürütül@@ 1
Eur@@ 1
danışman@@ 1
minden 1
terfi 1
yerleşti 1
İstatisti@@ 1
katkı 1
American 0.10288667045137506
ator 0.252700879359111
ilçesinin 1
lerken 1
puanla 1
undur 1
duğ@@ 1
köyde 1
lamaları 1
yapımcısı 1
ihl@@ 1
Ailesi 1
hazırlık 1
Mekte@@ 1
cevap 1
ikal 1
anali@@ 1
kış 1
resi 1
1911 0.776453522251296
bağımsızlığını 1
dışar@@ 1
hız 1
sonlarına 1
Anayasa 1
ben 0.49785507980357097
tul@@ 1
Fransız@@ 1
heykel@@ 1
Florida 0.6627190568087572
Tokat 1
Yerleş@@ 1
ölen 1
gay@@ 1
rolüyle 1
çeşit 1
emin 1
Kah@@ 1
onar@@ 1
analiz@@ 1
şaş@@ 1
Vietnam 1
otorit@@ 1
vi 1
üstlenmiştir 1
şarkılar 1
Francisco 0.5036736841216312
erinde 1
ürken 1
ezya 1
pol 1
61 1
ost@@ 0.7592231862555778
ılıp 1
Başlangıçta 1
vari 1
Stalin 1
usa 1
yurt@@ 1
lıktan 1
Life 0.5669181075275505
Zir@@ 1
orman 1
Kalkınma 1
Prof. 1
arazi 1
ih 1
lesi 1
büyüm@@ 1
enden 0.2897808871277949
aydı 1
yerleri 1
evine 1
aylı 1
açan 1
canlandırdığı 1
karşılıklı 1
Serbest 1
aliy@@ 1
dayanmaktadır 1
duyar@@ 1
anının 1
ian 0.36401013166760227
inleri 1
nispeten 1
yalnız 1
çısı 1
08 1
Estonya 1
Keş@@ 1
dev 1
los@@ 0.9929354125975673
rasi 1
ürlüğü 1
Birlik 1
Kıs@@ 1
Yazar@@ 1
gazetec@@ 1
kler 1
Altay 1
Ki@@ 0.9847222174404657
Kız 1
Radyo 1
ülke@@ 1
cusu 1
kullanıldığı 1
bon@@ 1
insanı 1
kök@@ 1
uyu 1
14. 1
abilmesi 1
á 0.43640929674172696
Cum@@ 1
molek@@ 1
tris 1
Elizabeth 0.9581789170501831
füz@@ 1
örd@@ 1
şirke@@ 1
89 1
Bü@@ 1
agr@@ 1
astronom@@ 1
fiz@@ 1
İliş@@ 1
bis@@ 1
ilişkisi 1
tidir 1
fikir@@ 1
sınırı 1
Büyük@@ 1
Alan 1
yaparken 1
İskender 1
Friedrich 0.6310293460810797
alanlar 1
ets 0.2233597037773744
rey 0.7280223170867396
basketbol@@ 1
elendi 1
kanalında 1
Kişisel 1
çılar 1
Uy@@ 1
aşk 1
birim 1
geriye 1
üyeliği 1
ula 1
Profes@@ 1
teşkil@@ 1
albümünde 1
Pav@@ 1
forvet 1
hep 1
süper 1
Alek@@ 1
Köy@@ 1
hikâye 1
maçları 1
La@@ 0.8018015975482822
indendir 1
sağlan@@ 1
İktis@@ 1
ısız 1
değişen 1
emesi 1
küç@@ 1
amatör 1
filminin 1
görülebilir 1
hasar 1
kavramı 1
tin@@ 1
Köpr@@ 1
gösterilen 1
devre 1
enteg@@ 1
tıbbi 1
askerleri 1
ran 0.5763691435919045
sistemin 1
dolay@@ 1
Vi@@ 0.5930408046391141
batıda 1
süreçte 1
üb@@ 1
Koc@@ 1
Mimar@@ 1
ceza 1
defn@@ 1
rev 1
ulur 1
belirlen@@ 1
uştur@@ 1
galibiyet 1
kolu 1
organik 1
tikleri 1
yapıt@@ 1
ito 0.5367014901546113
uygulamaları 1
komşu 1
lılık 1
Kongre 1
edecek 1
trop@@ 1
Vas@@ 1
mî 1
yağ 1
Saldır@@ 1
vet 1
wood 0.4272855525776643
Time 0.9033110253714326
Yarımadası 1
serisinin 1
televizyon@@ 1
âtı 1
Yıldırım 1
coğraf@@ 1
mediğini 1
yaralan@@ 1
12. 1
Dizi 1
Hükûmeti 1
saray 1
sözcüğü 1
ć 1
asla 1
vez@@ 1
yorum 1
sırt@@ 1
Güreş 1
Hy@@ 0.8278414650293727
Hem@@ 1
yapılacak 1
şarkıc@@ 1
Meg@@ 1
profesör 1
so 0.09879465344022277
Üyeliği 1
başkent 1
cumhurbaşkanı 1
seçilmiş 1
Okyanusu 1
üstlendiği 1
katli@@ 1
karbon 1
anz@@ 0.6826732929047233
değişiklikler 1
yoğ@@ 1
Oscar 1
Scott 0.8136336267187109
bulur 1
ediyordu 1
elenmiştir 1
işk@@ 1
elin 1
anlara 1
peş@@ 1
atarak 1
ografi 1
Formula 1
Millet 1
luy@@ 1
Haç@@ 1
Nes@@ 1
üle 1
Maz@@ 1
bırakıldı 1
gelindiğinde 1
imparatorluk 1
İnternet 1
yedinci 1
üçlü 1
azak@@ 1
üstün 1
üyelerinin 1
Dönem@@ 1
Koruma 1
belirtir 1
cami 1
gereği 1
kamer@@ 1
takvi@@ 1
yayımlan@@ 1
Dönemi 1
sy@@ 1
şekill@@ 1
lukları 1
anlaşıl@@ 1
awa 1
kurmay 1
sahneye 1
sinir 1
Şeyh 1
Kl@@ 0.8421716526476498
Cur@@ 0.6968851644322913
bilimi 1
mükem@@ 1
park 0.5598766687513275
vazgeç@@ 1
ideki 1
Rize 1
albümünün 1
ym@@ 0.7458494890428033
Grammy 1
hass@@ 1
yoğunluğu 1
Art@@ 1
basın@@ 1
bölgeyi 1
fiye 1
geldiğinde 1
okyan@@ 1
ecik 1
çıkarak 1
Bilg@@ 1
Jersey 0.8821653849415011
fan@@ 1
ilaç@@ 1
Çer@@ 1
82 1
Temel 1
besteci 1
göğ@@ 1
sorgul@@ 1
Hür@@ 1
UNESCO 1
Sas@@ 1
oluşturdu 1
abileceğini 1
fırsat@@ 1
ity 0.12841614416018707
kalar 1
biyolojik 1
sonuçlar 1
müdahal@@ 1
topraklarına 1
İspanyolca 1
kentin 1
Cezayir 1
kanun 1
taşır 1
Dir@@ 1
tank@@ 1
arkad@@ 1
ash@@ 0.5701672429264238
başlangıç 1
işgali 1
olduğunda 1
piyas@@ 1
ington 0.6565791703181735
lis 0.9262990586498272
veti 1
olmasından 1
yarışma 1
önemlidir 1
Had@@ 1
belirtmiştir 1
İli 1
sporcu 1
Günü 1
Nov@@ 0.9309733845766376
olayı 1
sis 1
Nih@@ 1
ettikleri 1
Ayak@@ 1
Reş@@ 1
tayin 1
idi@@ 1
kullanılmaya 1
odi@@ 0.8380660036193962
Ner@@ 1
bon 1
geçiren 1
120 1
Çorum 1
zin@@ 1
diplomatik 1
stil 1
utu 1
ücretsiz 1
his 0.019042484488560912
vücut 1
şeh@@ 1
kalın 1
bez@@ 1
ow@@ 0.3750975457059531
mesle@@ 1
ars 0.37125675141441894
alleri 1
urt 1
Bug@@ 1
Hükû@@ 1
potansiyel 1
yuvar@@ 1
Bölüm 1
sosyalist 1
etiyle 1
Mardin 1
bölümleri 1
performansı 1
ülkeye 1
hipot@@ 1
kaybol@@ 1
Musa 1
eksiyon 1
nüfus@@ 1
denet@@ 1
ilim@@ 1
ahı 1
hukuk@@ 1
AN@@ 1
Caddesi 1
sistemine 1
başlıklı 1
eleştirmen@@ 1
istedi@@ 1
vit@@ 1
Çiç@@ 1
Erzincan 1
Hastanesi 1
Pey@@ 1
yapılar 1
finalinde 1
istediği 1
Sistemi 1
evlili@@ 1
katılımc@@ 1
ulaşmıştır 1
Tarım 1
semp@@ 1
İnş@@ 1
prensi@@ 1
Ha@@ 0.6502987874405581
enko 1
ismiyle 1
tarihinden 1
uki 1
üretilmiştir 1
Kızılder@@ 1
böcek 1
kurulması 1
ımsal 1
Cumhurbaşkanlığı 1
Parlamentosu 1
iko 1
izlen@@ 1
prak@@ 1
tanesi 1
ardaki 1
hoc@@ 1
ilgil@@ 1
voleybol 1
yoktu 1
çalın@@ 1
kadının 1
tikçe 1
vermiş 1
yöntem 1
Ayr@@ 1
baskın 1
meyve 1
pay@@ 0.8206604532884864
uygulanan 1
ışın 1
Güney@@ 1
etini 1
fazl@@ 1
Times 0.631437021071745
Elazığ 1
Tim@@ 1
mahalle@@ 1
sus 0.11928302549539986
sığ@@ 1
Alb@@ 1
adal@@ 1
âr@@ 1
11. 1
cılar 1
dizide 1
raf 1
Kanal 1
alanına 1
açar 1
uğunu 1
ille 0.49686434884724645
İttif@@ 1
Türkmen 1
asıydı 1
arkasında 1
Kuvvet@@ 1
astı 1
bas 1
memektedir 1
kok@@ 1
önlemek 1
dip 1
akıllı 1
amad@@ 1
yetik 1
H. 0.7732036844728966
ishan@@ 1
ılma 1
05 1
Dom@@ 0.7293890056637589
Mod@@ 1
Yor@@ 1
2,@@ 0.7542875948373504
arama 1
müştü 1
şiddet 1
ruh 1
Çift@@ 1
Bölge@@ 1
Geleneksel 1
adıdır 1
Cl@@ 0.5650881153637259
Libya 1
doğum@@ 1
örgü@@ 1
ümcek 1
Kart@@ 1
döneminin 1
rini 1
oya 1
saldırıya 1
işlemi 1
yakınında 1
Lin@@ 0.647270959308471
TC 1
sistemini 1
tüy@@ 1
uğa 1
gelerek 1
maliyet@@ 1
rar 1
çay 1
Fo@@ 0.8680276416819938
Mih@@ 1
tahmin@@ 1
geril@@ 1
inger 0.5123668722735959
eo 0.5523533323568043
Ukr@@ 1
beş@@ 1
saldırısı 1
uvar@@ 1
edeb@@ 1
erle 1
uluk 1
bağlantılı 1
ucu@@ 1
Gön@@ 1
ern@@ 0.43920853546187555
örneği 1
alanlarında 1
terek 1
İlçesi 1
alet 1
dayanır 1
eyaletine 1
fizik@@ 1
nekler 1
aga 0.9101348361859449
olduklarını 1
turn@@ 1
çalışmaktadır 1
79 1
Aşk 1
Şanlıurfa 1
şehirler 1
Afrikan 1
North 0.1880400497005047
tığını 1
veda 1
landırma 1
Hollywood 1
atıldı 1
optik 1
yıldır 1
Op@@ 0.7237657342054181
yanl@@ 1
çelik 1
emir 1
kere 1
korku 1
Brezilyalı 1
Denizli 1
Beş 1
dökül@@ 1
estr@@ 0.5802319911095744
okuy@@ 1
hom@@ 0.46912885217185185
andaki 1
artış 1
şansı 1
Blo@@ 1
süz@@ 1
Aşağı 1
Arnavut 1
Brown 0.6583060424251566
Jo@@ 0.7675193326495483
ain@@ 0.4922034326406611
bil 1
birinc@@ 1
doğus@@ 1
tuğu 1
Kanunu 1
olmasıdır 1
reti@@ 1
Ann@@ 0.9534675930369167
Konu 1
cü@@ 1
şarap 1
Annesi 1
süreç 1
ılığını 1
Sof@@ 1
kolayca 1
toplanan 1
tutuklandı 1
with 0.01163650699638039
yerler 1
bölgesinden 1
İslam@@ 1
nak 1
ny@@ 1
Halil 1
Tol@@ 1
dis 1
ziyade 1
mesaj@@ 1
vb. 1
Hüs@@ 1
Kendisi 1
Carl 0.8230801207622924
Ep@@ 1
girdiği 1
tel 0.7316847079926473
tör 1
Cev@@ 1
temsil@@ 1
başlangıc@@ 1
fat@@ 1
Chi@@ 0.6864153102842867
dava 1
eus 1
Kırmızı 1
apr@@ 1
verilerine 1
sözcük@@ 1
Bot@@ 0.984174776505089
reklam@@ 1
türler 1
mur 1
sorun 1
Alaska 1
Halep 1
ihr@@ 1
Mahmud 1
aktaydı 1
Değiş@@ 1
galak@@ 1
tasarlanmış 1
verimli 1
çerçev@@ 1
ülkeleri 1
hâlâ 1
ovi@@ 1
sunuldu 1
AT@@ 0.9977136059805177
becer@@ 1
iner 1
yosunu 1
yüzölçüm@@ 1
Eğ@@ 1
komis@@ 1
Benz@@ 1
adres@@ 1
kütle 1
şarkısıyla 1
öğrenimini 1
maddi 1
Üst@@ 1
Başka 1
dönüştürül@@ 1
ıştır.@@ 1
lukla 1
rakibi 1
yg@@ 1
Bon@@ 0.875252718371849
bulmak 1
etkinlik@@ 1
Red@@ 0.5897167824866117
Young 0.7118086996165668
güvenli 1
çıkarılan 1
birbirlerine 1
mur@@ 0.9737855019257172
Donanması 1
ortalam@@ 1
Ülkenin 1
Dör@@ 1
başkanlığını 1
dâ@@ 1
ilişkilendir@@ 1
name 0.12288318729129853
Öğret@@ 1
1909 0.7923030414961669
uygulaması 1
karanlık 1
rakam@@ 1
yıldan 1
Inter@@ 0.3438551789428682
Parti@@ 1
ahşap 1
yse 1
Marie 0.5411305566144833
ons 0.12256995993765861
çağır@@ 1
Doğan 1
Johnson 0.7176652297459679
alıyor 1
Ten@@ 1
sitesi 1
tanındı 1
vatand@@ 1
İsy@@ 1
ich 0.4039394896998741
vefat 1
subay 1
Ulu@@ 1
klas@@ 1
kum 1
vb 1
Prusya 1
getirmiştir 1
öğretmen 1
ışını 1
derecesi 1
sıraya 1
yapımcılığını 1
M.Ö. 1
bakter@@ 1
getirilmiştir 1
tis 0.6934508013352614
engel 1
olasıl@@ 1
Osmanlılar 1
onal 0.7274261847147093
etinde 1
od 0.6001273439866166
ary 0.14191708536100664
ps 0.3132883369048081
üce 1
Balkan@@ 1
Bay 0.5222696469398173
demok@@ 1
inanç@@ 1
İsko@@ 1
Dis@@ 0.46234383431993376
Dum@@ 1
Feder@@ 1
ileti@@ 1
kökeni 1
niteli@@ 1
Ant@@ 1
getirir 1
sözc@@ 1
Anayas@@ 1
Ford 1
Lit@@ 1
küçük@@ 1
gündem@@ 1
sayıl@@ 1
Ty@@ 1
dizisinin 1
iklerin 1
ülebilir 1
12.@@ 1
las 0.03502140751856974
eskiden 1
zo 0.8873913021809956
Sicilya 1
depo@@ 1
ros@@ 0.7903966444887052
Dünyanın 1
faaliyetleri 1
tren 1
apo@@ 0.5536553027741647
belirlenmiştir 1
kazanmış 1
tamamlamıştır 1
çili@@ 1
Ceza 1
dahi 1
konuşan 1
eleştiriler 1
reklam 1
gerçekten 1
Şek@@ 1
eklem@@ 1
amac@@ 1
beyi 1
hisar 1
jen@@ 1
mekanik 1
plaz@@ 1
sayg@@ 1
Giresun 1
ebilmektedir 1
nur 0.17081648215570114
sıf@@ 1
uzaklaştır@@ 1
imzalam@@ 1
oyunda 1
anahtar@@ 1
aktivit@@ 1
diğeri 1
kapan@@ 1
ayırt 1
canlandırdı 1
kırsal 1
# 0.4581404938587739
annis 1
siyas@@ 1
bunlardan 1
pah@@ 1
siyasal 1
Yukar@@ 1
malarının 1
Hakk@@ 1
Televizyon 1
yoğunlaş@@ 1
Kız@@ 1
bölümler 1
evrim@@ 1
eleş@@ 1
ram 1
Mütte@@ 1
jüri 1
Hüküm@@ 1
alınması 1
DP 1
Yaşam 1
Tos@@ 1
inus 1
sö@@ 1
İdar@@ 1
yedir 1
ınlar 1
Iş@@ 1
Milletvekilliği 1
gelişen 1
geliştirilmiş 1
attan 1
up@@ 0.28858877844136616
üstriyel 1
Berg@@ 0.6729245033953808
Def@@ 1
Char@@ 0.3762147382447318
ayının 1
azar@@ 1
gelişme 1
içe 1
Kraliçe 1
Ry@@ 1
yayımlanmıştır 1
eva 1
rapor 1
700 1
Pen@@ 0.7416733012535929
gar 1
oloji@@ 1
diş 1
yapay 1
üstüne 1
ike 1
kaynaklar 1
ure 0.2584644053588891
kadrosuna 1
section 0.4285297781869415
talar 1
Kendi 1
Resmi 1
açıklama 1
mahallesi 1
yeğ@@ 1
çarpış@@ 1
olmayı 1
250 0.9485021695315026
Pin@@ 0.9661069801134929
cezası 1
saltan@@ 1
ünc@@ 1
6,@@ 0.9957549700678658
federal 0.7306699499153267
hiy@@ 1
istikr@@ 1
kuantum 1
yem 1
06 1
Otom@@ 1
1907 0.7454984029783671
had@@ 1
Andr@@ 1
ülkeden 1
Brit@@ 1
Cav@@ 1
ekran 1
riv@@ 1
eğine 1
hizmetleri 1
sanc@@ 1
takımıyla 1
Fakül@@ 1
VI 1
daş 1
gener@@ 0.4498377079590474
şeker 1
kadrosunda 1
asyona 1
edici 1
görünür 1
mektir 1
şiş@@ 1
elenen 1
Sul@@ 1
eserinde 1
sıkınt@@ 1
kariyerinin 1
Aks@@ 1
turizm 1
ihtiyaç@@ 1
Müc@@ 1
deng@@ 1
süper@@ 1
sınav@@ 1
ult@@ 1
ero 0.35434122441755145
lileri 1
Ener@@ 1
noktada 1
oni@@ 0.6266710403866403
vard@@ 1
liman@@ 1
Öğrenc@@ 1
popül@@ 1
İbn 1
Mari@@ 0.7362105408165168
Yayın 1
buraya 1
FK 1
budur 1
zaten 1
görevinde 1
sıv@@ 1
tüf@@ 1
Leh@@ 1
ensi 1
terim 1
é@@ 0.11588128683464095
ıköy 1
girerek 1
tın@@ 1
Tok@@ 1
düzenledi 1
lilik@@ 1
İşlet@@ 1
atıfta 1
biyograf@@ 1
çekilmiştir 1
gönderil@@ 1
Fran@@ 0.958218811299728
Yozgat 1
tamamlayan 1
çocuklar 1
gazetesi 1
vr@@ 1
Tam 1
afi 1
pres@@ 0.31709120842004085
tarihten 1
uyuştur@@ 1
hır@@ 1
bulunması 1
retim 1
Hall 0.36470234188909084
Pa@@ 0.8933884725118081
asist@@ 1
nik@@ 1
sular@@ 1
pp@@ 0.4970926574832705
Bulgar@@ 1
1905 0.674373097023503
Hareketi 1
sözcüğ@@ 1
tirler 1
özgür 1
Raw 1
Yel@@ 1
bilgisi 1
kopya 1
kamu@@ 1
ling 0.2770304783792414
ölçü@@ 1
Tunus 1
biçiminde 1
Sc@@ 0.5163891623763
müzikal 1
arla 1
nüfuslu 1
Yahudiler 1
Şehir@@ 1
ylelikle 1
ımından 1
Yani 1
zey@@ 1
ი@@ 1
inos 0.7855851586697522
Ölüm@@ 1
klibi 1
görevden 1
» 0.018381439940871765
öncel@@ 1
Des@@ 0.4778923226746805
mür 1
Malta 1
bunları 1
sig@@ 0.723004693405497
birine 1
tüğü 1
yonun 1
Cat@@ 0.6377578998548428
Teşkil@@ 1
lığından 1
Ülke 1
kahram@@ 1
yüksekliği 1
gerç@@ 1
ift 1
kuvvetlerinin 1
çalışırken 1
bağlan@@ 1
spek@@ 1
Öte 1
mag@@ 0.4826658707370177
değişiklik@@ 1
tedir 1
işini 1
Küba 1
bot@@ 0.9051669267591351
lip@@ 1
Samsung 1
cısı 1
erleri 1
01 1
Akh@@ 1
Joe 0.7899773970459257
aldılar 1
yıldızı 1
çevrimiçi 1
yürürlüğe 1
ital 1
milli 1
şampiyonluk 1
Sağ@@ 1
bağımsızlık 1
op 0.7856017601916521
çam@@ 1
atının 1
hur 1
kanın 1
ulmuş 1
tir.@@ 1
Turu 1
küme 1
yukarı 1
bulunmuş 1
eceğine 1
sının 1
siyonu 1
gerilim 1
annesinin 1
teklif@@ 1
tip@@ 1
kart 1
üreten 1
College 0.18761238758155782
aro 0.9844866027989022
atom 1
jinal 1
kaynaklarda 1
planı 1
Selanik 1
ayg@@ 1
yaşar 1
dönemine 1
sesi 1
şans@@ 1
gezeg@@ 1
özellik 1
formasıyla 1
örleri 1
ıktır 1
AC 0.7875625462657038
port@@ 0.7505279902927605
Şehirdeki 1
Kh@@ 0.46526797437235473
ellen@@ 1
inanc@@ 1
stil@@ 1
avy@@ 1
kahverengi 1
köyü@@ 1
Gil@@ 1
iklet 1
kron@@ 1
oymağına 1
steri 1
Atle@@ 1
destekleyen 1
yos@@ 1
şehre 1
1878 1
Hikâ@@ 1
MTV 1
kanat 1
gerektiği 1
ladıktan 1
siye 1
rahatsız@@ 1
çerçevesinde 1
iyileş@@ 1
geçtiği 1
lit 1
yararlan@@ 1
eksen@@ 1
luklar 1
Gürcüce 1
oynay@@ 1
phe 1
rüzgâ@@ 1
drama 0.8374265462145403
dönüştü 1
endisi 1
neticesinde 1
tanı 1
değişir 1
lia 1
tt@@ 1
haz 1
Şub@@ 1
4,@@ 1
Milletvek@@ 1
izlem@@ 1
bağlandı 1
cam 1
esiz 1
terim@@ 1
ayolu 1
buradan 1
ilaç 1
Anti@@ 1
ekip 1
not 0.0432447442609161
zur@@ 1
Spor@@ 1
mevkiinde 1
şunları 1
başarısız@@ 1
ave 1
komün@@ 1
uyum@@ 1
atın 1
şid@@ 1
Ky@@ 1
Sk@@ 0.7083983905141139
har 1
köğretim 1
teker@@ 1
yönetti 1
ünce 1
şimdiki 1
Halk@@ 1
kuku 1
saf 1
diplom@@ 1
üph@@ 1
asit@@ 1
olmasının 1
depol@@ 1
gusal 1
krizi 1
HP 1
Top 0.6769250565842346
değişim 1
kolay@@ 1
Angel 1
Bizans@@ 1
pil@@ 0.6802464968712809
mağaz@@ 1
sayıları 1
1902 0.8056591056963877
D. 0.6057089952263919
Yer 1
vil 1
Obl@@ 1
büyüklüğ@@ 1
şiddet@@ 1
Hong 0.8356100274521246
Merkez@@ 1
İlk@@ 1
ft 0.4279432142453242
pel@@ 0.5028532123349373
rekabet 1
sonuçlandı 1
Kiev 1
Savaşları 1
Yukarı 1
kun@@ 1
çar@@ 1
Sanc@@ 1
ett 0.48212436638609724
gerekmektedir 1
sik 1
Cey@@ 1
Muğla 1
360 1
kalı@@ 1
kategorisinde 1
Ölüm 1
dram@@ 1
zamanı 1
mimar 1
müdahale 1
suyun 1
Endonezya 1
Mıs@@ 1
Ort@@ 1
elektron 1
pi 1
Sanatçı 1
dy@@ 1
Dok@@ 1
uzunluğ@@ 1
yanıt 1
tanıştı 1
Önc@@ 1
Şirketi 1
algorit@@ 1
kayd@@ 1
ıldığını 1
Cre@@ 0.5145965410988137
aklık 1
estra 1
kıyasla 1
müze 1
yakından 1
Kamp@@ 1
Vladimir 1
olursa 1
Aydın@@ 1
acağına 1
olacağı 1
Kitap@@ 1
elidir 1
enti 1
kanun@@ 1
olanlar 1
gereksin@@ 1
kariyerinde 1
sisteminde 1
ürlük 1
saygı 1
000 0.3898073696106847
Super@@ 0.5686575355736658
alınmış 1
7,@@ 0.9304470606067807
Hö@@ 1
deplas@@ 1
kişiyi 1
abi 1
arkeolojik 1
kalabalık 1
yazan 1
yaşta 1
5.000 1
Turizm 1
ige 0.22972925209064302
gelişimi 1
som@@ 0.8207073537682444
Listesi 1
Siyasal 1
tren@@ 1
« 0.017642731763924287
José 0.4197223666975471
Taylor 0.872542848986522
Madonna 1
galibi@@ 1
indeydi 1
Yeşil 1
Yönetimi 1
ecekleri 1
ema 0.8734145164044091
layıp 1
politika 1
üsünü 1
Lewis 0.9681846348605248
potansiy@@ 1
şarkısını 1
kiralık 1
Çık@@ 1
anos 0.5449752284088766
Belgrad 1
bilinmemektedir 1
mobil 1
tamamlan@@ 1
yarışmada 1
chi 0.4823089615796168
Aile 1
katılmış 1
saniy@@ 1
Bilgi 1
dayanarak 1
girmiş 1
End@@ 1
uçağı 1
kilometr@@ 1
merkezidir 1
rö@@ 1
sayısının 1
Güneydoğu 1
Polonyalı 1
taz@@ 1
Koreli 1
değişken@@ 1
görmüştür 1
ihtiy@@ 1
kurgusal 1
zamandan 1
Zi@@ 1
gönderilen 1
birinde 1
müdürü 1
yönde 1
etkisiyle 1
gruptan 1
krom@@ 1
listelerinde 1
oynamaya 1
püskür@@ 1
sürmüştür 1
isteği 1
Antonio 0.6004668037924527
Fa@@ 1
amba 1
getirilen 1
saniye 1
sinden 1
verim@@ 1
yona 1
şifrel@@ 1
Bob 0.9015441398140844
Doğal 1
Karolina 1
anılır 1
manda 1
riye 1
yönetici 1
şir@@ 1
biye 1
etkiler 1
kle@@ 1
Konferansı 1
getirdiği 1
üleri 1
Aslında 1
Trans@@ 0.5922825293797018
eşleş@@ 1
niyet 1
Sonunda 1
alışver@@ 1
kraliyet 1
piskopos@@ 1
askerler 1
lıkta 1
yapım@@ 1
ıd@@ 1
Carlos 0.5937734915557529
Eb@@ 1
PC 0.9772482780281418
görevlisi 1
rezer@@ 1
yalar 1
trol 1
Aç@@ 1
beli 1
AP 1
Mirası 1
kari@@ 1
şampiyonluğunu 1
1886 1
dünyadaki 1
ektör@@ 1
kuzuncu 1
içinden 1
kanser@@ 1
psikolojik 1
RA@@ 0.9482378167446112
SA@@ 1
yöne@@ 1
ümlü 1
Sed@@ 1
aktan 1
içeriyordu 1
gil 1
kullanmıştır 1
pazar 1
dikkat@@ 1
Kamu 1
asyonun 1
özelliklerini 1
epe 1
liydi 1
maddeler 1
peyg@@ 1
taç 1
Görün@@ 1
direktörü 1
Kanadalı 1
ys 0.4479120491031682
akı 1
anına 1
gri 1
RNA 1
programları 1
tatlı 1
thi@@ 1
hazırlan@@ 1
kod 1
mand@@ 0.7805395808154313
mill@@ 1
türdür 1
bürokr@@ 1
günümüzdeki 1
olo@@ 1
usul@@ 1
başbakan 1
emli 1
Paulo 1
Wilhelm 0.6570833043204516
baz 1
macer@@ 1
olmalıdır 1
sürdürmektedir 1
Devrim@@ 1
Sony 1
km2 1
Ray@@ 1
basınç 1
oğludur 1
sir@@ 1
Group 0.32822435717289533
gelip 1
ondur 1
süt 1
Kn@@ 0.7582392558379448
aal@@ 1
gis@@ 1
sü 1
transfer@@ 1
yatırım 1
Reg@@ 0.33413757069439753
anik 1
bağır@@ 1
elektron@@ 1
hor@@ 0.5385281076669064
jer@@ 1
Başbakanı 1
Etim@@ 1
Hiti@@ 1
vanya 1
5,@@ 1
Dest@@ 1
Kocaeli 1
bestec@@ 1
protein 1
açıklamıştır 1
R. 0.7059146275989012
Biyografi 1
mus@@ 0.49213779027701915
Yasası 1
oradan 1
DC 0.8605984116116187
doğur@@ 1
etmişti 1
tank 1
Rem@@ 0.7967278792904421
Trakya 1
ase 0.3055262244714699
geliştirdi 1
hit 0.560308795289795
kadem@@ 1
Liverpool 1
Stand@@ 1
rul 1
yken 1
va@@ 1
ekim 1
maksızın 1
Final@@ 1
giyi 1
nem 1
yazında 1
beyaz@@ 1
erişim 1
nadir 1
Boston 0.6168309005809776
oluşmuştur 1
Yahudilerin 1
anayas@@ 1
Karabağ 1
anna 1
eğlence 1
hayal 1
ick@@ 0.34767381023826394
tanımlan@@ 1
ıştığı 1
els 0.15125291522720488
etine 1
gayet 1
Napolyon 1
School 0.12492152204204857
int@@ 0.41623794400798236
yöneticisi 1
örlük 1
akan 1
çekim 1
demokrati@@ 1
üfetti@@ 1
Pis@@ 1
bağ 1
Hollandalı 1
astr@@ 0.8607622838147424
delik 1
ehir 1
ped@@ 1
pişir@@ 1
aşık 1
bulut@@ 1
manlar 1
olağanüstü 1
prens@@ 1
çıkması 1
Köprüsü 1
açılış 1
hayvanc@@ 1
kitapları 1
miktarı 1
protesto 1
sever@@ 1
verilmektedir 1
ındır@@ 1
belirlem@@ 1
Pot@@ 0.986393358169287
anlaşması 1
değiştirdi 1
Pro 0.9472262419150131
dün 1
meclis 1
İstasyonu 1
dikkatini 1
Hur@@ 1
iktir 1
Psik@@ 1
stratejik 1
Ces@@ 1
Mid@@ 1
Sir 0.5269147046436361
doktor 1
tiz@@ 1
07 1
etta 1
politikası 1
tartışma 1
tro 0.8375461648214089
Ağrı 1
halklardan 1
tit@@ 1
Ada 1
büyüme 1
eklen@@ 1
enstr@@ 1
konuşulan 1
önemi 1
Oto@@ 1
eto 0.7021537175876503
saptan@@ 1
Emir 1
Fir@@ 1
rengi 1
İslami 1
Portekizce 1
bellek 1
birimleri 1
gezegen@@ 1
macı 1
Haned@@ 1
imha 1
ardan 1
büyüdü 1
ildir 1
izler 1
Lar@@ 0.8575148943165536
Lenin 1
ertel@@ 1
Amasya 1
Timur 1
biçimi 1
kateg@@ 1
TE@@ 1
faz 1
Metin 1
dia 0.7181091567939739
İo@@ 1
Kilise 1
ky 0.5264473469810292
maksimum 1
Mavi 1
madığını 1
piyano 1
izi@@ 1
geldiğini 1
turu 1
ack 0.5831374865443654
lıklarını 1
raki@@ 1
uyum 1
antlaş@@ 1
örnekleri 1
Lam@@ 0.8557748408517679
bidir 1
bölümünün 1
cası 1
isiydi 1
kurmuştur 1
bahar 1
yanlısı 1
Tiflis 1
fikri 1
huku@@ 1
eğe 1
kalıntıları 1
komuta 1
Ale@@ 1
Mihail 1
ayrılmış 1
etmişlerdir 1
Num@@ 1
anah@@ 1
nd@@ 1
Harp 1
don 0.49794470215111397
genişletil@@ 1
Özbekistan 1
Özgür 1
çevresindeki 1
War@@ 0.4577894850585991
kanal 1
ment@@ 0.6137685071541348
liy@@ 1
İzlanda 1
Vek@@ 1
grubuna 1
kendisinden 1
sever 1
özü 1
olurken 1
zu@@ 0.5112795747646612
GB 1
denize 1
kolaylaştır@@ 1
sorunlar 1
deneysel 1
Çalışma 1
Disney 1
Eli@@ 1
osen 1
uzat@@ 1
Fik@@ 1
konumu 1
kurt 1
zırhlı 1
Hükümeti 1
radyas@@ 1
çözül@@ 1
0,1 1
AL 1
Mam@@ 1
Mars 1
kuzeyde 1
motoru 1
stat@@ 0.7482300348486753
tepel@@ 1
Sibirya 1
avantaj@@ 1
belirlemek 1
araba 1
cumhurbaşkanlığı 1
ime@@ 1
naz@@ 1
nem@@ 1
haklarını 1
hali 1
mürette@@ 1
reç@@ 1
sorunu 1
.000 1
aşkın 1
dergisinde 1
gibidir 1
inae 1
zirve@@ 1
Sus@@ 1
Süre@@ 1
estrası 1
Gur@@ 1
Hum@@ 1
Meydanı 1
Seferi 1
matematiksel 1
Simon 0.8287857138347297
Cem 1
acı@@ 1
ematik 1
golle 1
güneyde 1
yoluna 1
cezasına 1
ülkeyi 1
Day 0.5210006827153667
Saray 1
lah 1
görünüş@@ 1
oph@@ 0.4669578708536263
geride 1
İran@@ 1
Balt@@ 1
Super 0.5666578865700841
etmesini 1
illiği 1
koalis@@ 1
kullanmak 1
makale 1
oran 1
gönüllü 1
Dairesi 1
Kong 0.7563356304303115
denk 1
duk@@ 1
kısım 1
onda 1
Mali@@ 1
Niz@@ 1
ente 0.1710730519968809
etkiley@@ 1
ojen 1
İler@@ 1
Yaş 1
dun 1
yuv@@ 1
Yaln@@ 1
arma 1
müzisyen@@ 1
set 0.16332006768712162
İşleri 1
Uğ@@ 1
düzenlenmiştir 1
hayv@@ 1
sekizinci 1
abad 1
bahsedil@@ 1
hayatının 1
Yavuz 1
tanımlanan 1
tanımlanır 1
hasta 0.19260611043428583
olun@@ 1
anlamında 1
like 0.17988251303505187
yarısı 1
Pri@@ 0.8978808059493497
encer@@ 1
malarında 1
muhab@@ 1
ry 0.32984638958141865
Rıza 1
asyonları 1
iss@@ 0.49681490719177274
rekab@@ 1
ölçümü 1
SA 0.7947765195657097
po 1
kaldırıldı 1
karışık 1
oranında 1
sipar@@ 1
sonlandır@@ 1
Çekoslov@@ 1
popüler@@ 1
Hamilton 1
entr@@ 0.3297299320585908
hükümeti 1
BM 1
Hatta 1
bombard@@ 1
ketin 1
kör@@ 1
Okyan@@ 1
Team 0.3871444682536442
oku 1
Air 0.3039127628859795
Hız@@ 1
kurum 1
mezar 1
oyunlar 1
tiğinde 1
Fox 0.9076214347007778
Meş@@ 1
Sınıf@@ 1
akıl 1
yazmaya 1
Fot@@ 1
bugüne 1
süredir 1
Demok@@ 1
etçi 1
keşif 1
kitabın 1
topraklarında 1
nüfusa 1
yeti 1
Meh@@ 1
ikat@@ 1
imzalanan 1
kork@@ 1
Bolu 1
Genel@@ 1
endiş@@ 1
sinde 1
uzaklaş@@ 1
memur@@ 1
olabileceği 1
Victoria 0.6275738570148419
laz@@ 1
tanrı 1
teklifi 1
şan 1
Dolayısıyla 1
karak@@ 1
IS@@ 0.811085606465189
Konservatuvarı 1
köle 1
Not@@ 0.6756443481373257
Teknoloji 1
başlang@@ 1
olabileceğini 1
DE@@ 1
Yüksek@@ 1
mı 1
yükselmiştir 1
Mül@@ 1
Vit@@ 1
nadi@@ 1
Hill 0.46302379074895267
PKK 1
ó@@ 0.3061550836192619
şova 1
alanan 1
işleme 1
madır 1
ი 1
Kre@@ 0.8205900175210172
bölgeler 1
kaynaklanan 1
lit@@ 0.6445740994196989
seslendirilen 1
animasyon 1
belki 1
Hır@@ 1
ão 1
deri 1
ich@@ 0.34614770575360365
söylenir 1
1906 0.6549307243185472
Linux 1
Tuna 1
aker@@ 1
dönemlerinde 1
kas 1
Gez@@ 1
Steve 0.856625576747445
net@@ 1
liman 1
şehristanı 1
Day@@ 1
esc@@ 0.688507794026617
luğ@@ 1
Wal@@ 0.4364575107341902
gecik@@ 1
rakip 1
Yah@@ 1
sunulan 1
biti@@ 1
E. 0.6133721370813011
Juan 0.3749968694367021
Pel@@ 1
entin 1
restor@@ 1
seçimlerde 1
Got@@ 1
bilimkurgu 1
istediğini 1
ES@@ 1
Fili@@ 1
Rob@@ 0.8795923973778327
düzenlediği 1
şif@@ 1
Sol 1
devir@@ 1
ister@@ 1
kurban@@ 1
ufak 1
vokal 1
yazarlar 1
ısıt@@ 1
atöl@@ 1
devamı 1
imde 1
isy@@ 1
3,@@ 0.7952917096712593
ST@@ 1
hâlen 1
öncelikle 1
belgesel 1
düşer 1
hakimiyet@@ 1
Bill 0.6427156106744962
ebilir@@ 1
eğit@@ 1
oğun@@ 1
atta 1
açmıştır 1
haftalık 1
suzluk 1
söylen@@ 1
İle@@ 1
Dük@@ 1
isa 0.9104482787323278
oksit 1
Rod@@ 1
duvar 1
ürünü 1
recek 1
Ön 1
ürünler 1
Beledi@@ 1
Eğitimi 1
Kafkas 1
cık 1
ihtiyacı 1
limi 1
Bundesliga 1
amaz@@ 1
imkân@@ 1
farklıdır 1
ile@@ 1
çel@@ 1
Mahmut 1
ept@@ 1
Not 1
Tony 0.9421443874356003
diya 1
gular 1
Sos@@ 1
Sub@@ 0.41807629068961905
kesiminde 1
Mühendis@@ 1
sevgil@@ 1
France 0.11054181093806123
Galler 1
Seri 1
erinden 1
yaşına 1
kaleci 1
pot@@ 0.5740063509403309
ense 0.5547818803833853
indir 1
meyd@@ 1
pand@@ 1
yumuşak 1
Sam 1
ance 0.12295165482162093
bölümden 1
ji@@ 1
teşkil 1
opo@@ 1
toplumun 1
yapması 1
ee 0.32745225764548763
sürecinde 1
Cin@@ 1
Nag@@ 0.8963395101328886
başarıyla 1
ordusunu 1
ıntı 1
Şen@@ 1
Konfeder@@ 1
Lef@@ 1
Pop 1
anır 1
gelmesi 1
zayıf@@ 1
C. 0.35867897335189786
Sün@@ 1
meydan 1
ameliy@@ 1
geler 1
gide 1
parçalar 1
gazetesinde 1
Christian 0.33029154352186557
aye 1
oto@@ 1
pos 1
temas 1
Kahire 1
Rey 1
Mühendisliği 1
Protest@@ 1
Müs@@ 1
ame 0.45248064560066836
1890 0.7705645992378649
verme 1
sıralan@@ 1
tuz 1
element@@ 1
etten 1
Kaf@@ 1
Sy@@ 0.6059894029124018
cut 0.7259106579941526
03 1
Ek 1
biliş@@ 1
low 0.2516941733768579
egen 1
plastik 1
çuk@@ 1
Avustur@@ 1
amo@@ 1
arke@@ 1
güreş 1
CD@@ 1
Kahramanmaraş 1
sağlam 1
ıyan 1
aley@@ 1
avi@@ 1
filmlerinde 1
Kupa 1
stan@@ 1
well 0.08190981549178121
Edebiyat@@ 1
YouTube 1
Zaf@@ 1
Boğazı 1
Gerçek 1
François 0.6427977815683551
ağr@@ 1
une 0.019856524232226495
evde 1
inter@@ 0.10732710018383362
tika 1
çıkarıldı 1
avir@@ 1
Pam@@ 1
haric@@ 1
Cengiz 1
Tuğ@@ 1
diklerini 1
ensis 0.5348412063403616
log@@ 0.537431944433882
usunun 1
Beh@@ 1
evre 1
ıca 1
kare 1
Pazar 1
Polis 1
reh@@ 1
Kup@@ 1
Murad 1
alis@@ 0.9700582316376186
aray 1
ous 0.11225873786454417
Arab@@ 1
White 0.383301249919941
ort 0.7502885227030286
ortal@@ 1
Çayı 1
Kale 1
plak@@ 1
ayd@@ 1
ess 0.23649676267139774
umun 1
ER@@ 1
gey@@ 1
mim@@ 1
în 1
boya 1
Fas 1
suy@@ 1
Ö 1
ıdır@@ 1
bine 1
icra 1
kombin@@ 1
rat@@ 1
1876 1
Walter 0.6513655352479621
eksi 1
Ash@@ 0.7497017514368494
Ses@@ 1
düncü 1
etr@@ 1
emb@@ 0.3369772873513862
urlu 1
hesab@@ 1
Mahallesi 1
aber 0.14844050244865625
ū@@ 0.9683144173948995
Mac 1
dor@@ 0.616456342120646
isin 1
salon@@ 1
Finali 1
Fut@@ 1
Maked@@ 1
eka 1
nu@@ 0.86648029221928
sekt@@ 1
kut 1
İt@@ 1
has 0.029191014260639046
1877 1
Cy@@ 0.9203880503277898
US@@ 0.5177380185895475
elec@@ 0.6218844303344767
helik@@ 1
ispor 1
Ere@@ 1
Antakya 1
enses 0.9322549829924869
urg 1
rem 1
ini@@ 1
Ot@@ 0.9613833233160812
ilin 1
nat@@ 1
yendi 1
air 0.2778196689030074
üler@@ 1
ayar 1
Cez@@ 1
Zam@@ 1
1896 0.7944931952836911
Fri@@ 0.8646653364063674
Oğuz 1
Bahç@@ 1
University 0.07349627376573341
hiper@@ 1
ordur 1
Zü@@ 1
1904 0.6508785962939639
Lord 0.5178891186213117
Recep 1
ng 1
bank 0.5423769539852209
AM@@ 0.9180854810803941
Night 0.8755339310616125
uke 1
kov 1
1,5 1
B. 0.3180756864837572
Ov@@ 1
azam 1
lon 1
Hatay 1
pilot 1
Wilson 0.7427965980966179
Cad@@ 1
alp@@ 1
Slov@@ 1
komit@@ 1
mahk@@ 1
ücret@@ 1
10.000 1
AD@@ 0.9422050977570775
ezid 1
Arj@@ 1
kimya 1
Şahin 1
ampiyon 1
pey@@ 1
Barcelona 0.7962103949670539
aliye@@ 1
zen 0.36843086257550184
alya 1
Sinop 1
Sto@@ 0.9721259852470213
Arena 1
elen 1
form 0.1630130113324374
sch@@ 0.09668783084966637
Çarş@@ 1
Mike 0.7404808765193744
Milano 1
TÜ@@ 1
Andrew 0.7870937651904713
Sist@@ 1
ekt@@ 1
direkt 1
ej 1
alay@@ 1
evik 1
bün@@ 1
tadan 1
House 0.194344683455585
lah@@ 1
Brian 0.9841475366378659
erg@@ 0.8110875272645574
í@@ 0.20742639180272535
retti 1
Stephen 0.872370469474342
luğunda 1
lice 1
Ail@@ 1
ish 0.28004380156595887
dal 1
Abdülham@@ 1
kaza 1
bır@@ 1
Rön@@ 1
Yo@@ 1
uta 1
Kurt 1
hur@@ 0.8055324955310817
loj@@ 1
Aslan 1
Fi@@ 0.7040312757404623
ando 0.11930757357882073
asan 1
AS 0.8254309882657712
Fark@@ 1
Kri@@ 1
Buenos 0.8124478100967946
Komis@@ 1
1901 0.6866985197069944
Corporation 0.6613741214652776
anj@@ 1
marka 1
Kilis@@ 1
SE@@ 0.9580735306692887
ado 0.055100737670700575
aport@@ 1
afya 1
distan 1
isar 1
parlament@@ 1
S. 0.5129202977782403
Bülent 1
Oxford 0.773196409843572
büy@@ 1
gut 0.7862488019338055
og 1
Aires 0.8089568585034789
Kuy@@ 1
fig@@ 1
AL@@ 1
sat 1
uli@@ 0.8320509110487702
Bed@@ 1
olim@@ 1
-- 1
ff 0.5383312502728618
ž@@ 1
Holding 1
sus@@ 0.7451163565621746
Len@@ 1
kam 0.26556759732714197
Kaya 1
Ceph@@ 1
Kitab@@ 1
riz@@ 1
Tac@@ 1
Yıldız@@ 1
Elektrik 1
ock 0.45937318656688075
zay@@ 1
MS@@ 1
Tiyatr@@ 1
Saray@@ 1
protokol@@ 1
ster 0.33450284629511395
Mot@@ 0.5319858375400596
stand@@ 0.8688423307457317
Napoli 1
ake 0.3386278910678271
umi 1
Hans 0.5572466320924158
Rab@@ 1
ë@@ 1
Ş 1
Yat@@ 1
oa 0.7326728464858328
Kahr@@ 1
ე@@ 1
matik 1
Championship 0.28290968008323564
rap@@ 0.5097080229988833
enci 1
kol 1
Hom@@ 0.6503227334393265
stratej@@ 1
zek@@ 1
Batman 1
Bos@@ 0.826580492284529
Jacques 0.6404796061838718
halef@@ 1
Bank 0.4804208306508647
unları 1
ettin 1
kant@@ 1
oman@@ 1
ua 0.5869057067336234
ullah 1
yesinde 1
Pensil@@ 1
Pil@@ 0.8213690667310397
mam 1
yeye 1
She@@ 0.8936145863893553
sed@@ 1
Who 1
mağlu@@ 1
East 0.2223015761065212
Mont@@ 0.42847828638392577
Patr@@ 0.7415242495206086
Sloven@@ 1
sson 1
Bod@@ 1
kontr@@ 1
vey 1
Grande 0.7247787774146435
oter@@ 1
Emre 1
vet@@ 1
02 0.9566509324985845
Pu@@ 0.9982862033197774
Giz@@ 1
part@@ 0.974741298725341
Küçük@@ 1
vesi 1
öh@@ 1
ert 0.19753424995145855
vah@@ 1
Alt 1
suya 1
tran@@ 1
hel@@ 0.9809244941262736
ido 0.20843444197239286
ihan@@ 1
Boğ@@ 1
ont@@ 0.9238181922314735
sans@@ 1
Çav@@ 1
Japon@@ 1
cins@@ 1
rul@@ 1
Tre@@ 0.49430527808402297
dör@@ 1
Gro@@ 0.6359469520493195
vin 1
ashi 1
hik@@ 1
ombi@@ 1
Nah@@ 1
lil@@ 1
Stone 0.9531913994665266
amm@@ 0.578479734533233
elip@@ 1
ımad@@ 1
IM@@ 0.970798964006774
Charlie 1
ill 0.37084145287488385
Vah@@ 1
ago 0.6401375843256975
plana 1
8,@@ 0.8954795881063219
Tas@@ 1
Art 0.23158277533933116
arya 1
14.@@ 1
Pet@@ 1
lige 1
130 1
emp@@ 0.4602952832065136
tropo@@ 1
Mark@@ 1
sef@@ 1
Arnavut@@ 1
Gl@@ 0.510183067807217
Rah@@ 1
ksi 1
lenti@@ 1
hata 1
uni 1
Yöne@@ 1
hü@@ 1
Senat@@ 1
Of 0.6819820264639442
vis@@ 0.49713692706263973
keleri 1
ash 0.5911468082054221
önces@@ 1
Newton 1
Amerik@@ 1
beden@@ 1
odo@@ 1
Key@@ 1
1903 0.6398359525199229
Rak@@ 1
Web 1
che 0.1975599003798913
Tatar 1
Tic@@ 1
icat 1
parlamento 1
Lat@@ 0.8633763465300901
gre@@ 0.7451825264196391
Stad@@ 1
Buz@@ 1
yam@@ 1
Swift 1
alis 0.7693707319271972
urs 0.3891674531710138
normal@@ 1
Hek@@ 1
17.@@ 1
denen 0.42082070107891884
Biz@@ 1
Galaxy 1
Ulus@@ 1
iOS 1
Alfred 0.8244369596467646
Filipin@@ 1
mun@@ 0.7592290601255618
ie@@ 0.3658475220286291
Pale@@ 1
HD 1
Program@@ 1
con@@ 0.08850317947676627
Kub@@ 1
Ardahan 1
Avustr@@ 1
osa 0.36877902958618264
× 0.6719511243240356
üzel@@ 1
Nit@@ 1
beğ@@ 1
ho 1
16@@ 0.8220051354237022
als 0.01912933284286256
zırh@@ 1
anim@@ 0.761990900958568
Alice 1
Green 0.4792180253990998
itz 0.40663808913440347
gl@@ 0.37235751897600267
Bitlis 1
Muk@@ 1
klem@@ 1
Tur 1
1880 0.7608837697548074
ont 0.09631349928350269
а@@ 0.19123151947534353
etle 1
unum 1
oru 1
Cap@@ 0.5860099068575471
Tran@@ 0.9651794075274076
ebi 1
jin@@ 1
mür@@ 1
Football 0.319481956114956
Gec@@ 1
bâ@@ 1
omi 1
ty@@ 0.3810310455434455
vili 1
Gol@@ 0.6781588431050908
imi@@ 1
ović 1
yle@@ 1
Im@@ 0.3198444842531706
Sudan 1
rüz@@ 1
Dü@@ 1
Little 0.6058555138365131
Muhar@@ 1
cr@@ 0.14848437934350103
hol@@ 0.28926927391831986
miz@@ 1
ölçüm@@ 1
Liz@@ 1
ikam@@ 1
Faz@@ 1
Ohio 0.533046620486282
gam@@ 1
Petr@@ 1
ikan@@ 1
13.@@ 1
50@@ 1
00@@ 0.7900628706182667
mang@@ 1
Eric 0.9965149585808043
Island 0.2829975715240264
ram@@ 0.808865472745459
Parlamento 1
Sap@@ 1
Vali 1
aller@@ 1
dara 1
Columbia 0.5442354280203262
II@@ 1
anca 1
Pak@@ 1
Maine 1
Kör@@ 1
dat@@ 0.6485529398554961
mom@@ 1
oshi 1
რ@@ 1
öf@@ 1
seyah@@ 1
PS 0.7552421399950853
Sit@@ 1
ier 0.28566782273628527
müs@@ 1
110 1
Ras@@ 1
eren 0.2970031848169898
spektr@@ 1
stan 1
Atlas 1
Heinrich 0.5899890080179355
alak@@ 1
landalı 1
och@@ 0.47512855837390483
ded@@ 1
mo 0.6701478981440478
şun@@ 1
Cu@@ 0.517352605469036
Kevin 1
iben 1
pta 1
Euro 0.8374423954273186
ark 1
ikil@@ 1
uca 1
cir 1
ico 0.29629472931847534
Konstantin 1
hil@@ 1
Uşak 1
dire@@ 1
plat@@ 0.8164896312016615
çey@@ 1
Illinois 0.5698780182397606
format@@ 1
hes@@ 1
portr@@ 1
ney@@ 1
ting 0.10231542549825137
uvarı 1
Alex 1
Center 0.27758686538163396
Yeş@@ 1
ck 0.5895793495648775
Hon@@ 0.6696384664578648
ł@@ 0.5434696722636946
SB@@ 1
ein 0.02578519092003913
ukur@@ 1
bakır 1
kong@@ 1
rahats@@ 1
Prag 1
die 0.006772432020911674
Bask@@ 1
Sistem@@ 1
SS@@ 1
W. 0.5562306735151719
esti@@ 0.6474641968678675
iran 1
Ensti@@ 1
Zonguldak 1
tura 1
miner@@ 1
Ez@@ 1
Hun@@ 1
Mand@@ 0.6924707222651731
aziz 1
cami@@ 1
Dili 1
Kara@@ 1
cher 0.2578604057640134
öl 1
Opera 1
kritik 1
sep@@ 1
Yav@@ 1
way 0.10638062639838479
Adnan 1
Devlet@@ 1
go@@ 0.4411000570104028
Ankar@@ 1
kot@@ 1
raz 1
Adri@@ 1
ikle 1
Coğr@@ 1
Fen@@ 1
Adolf 1
bran@@ 1
seb@@ 1
yar 1
emir@@ 1
buy@@ 1
biz@@ 1
tiz 1
Euro@@ 1
bert 0.5533574596945172
kapit@@ 1
oth@@ 0.371793519794282
sponsor@@ 1
ehir@@ 1
oğul@@ 1
ulus 1
Cambridge 0.7890087201353674
eştir@@ 1
Blue 0.5511771319950547
Einstein 1
Emin 1
milit@@ 1
ons@@ 0.4538474948659736
filme 1
FI@@ 0.9157170585165367
bik 1
iller@@ 1
Hırv@@ 1
ides 0.2607251352563513
inal 0.6162425883985598
ue 0.1971993350943205
UN@@ 0.7053879503516148
rest@@ 0.6538358452164237
í 0.37175701444295256
hai 0.4023223045763979
ümüş 1
Nu@@ 0.9264492494567388
ine@@ 0.5982055608680813
mr@@ 1
Jan@@ 0.7364174100684732
Porto 1
eke 1
Philadelphia 0.7386075845450665
tre@@ 0.3220180584577757
Hap@@ 1
Michigan 0.5615107910076885
oid 1
thi 0.9245315834417158
Salih 1
Nat@@ 1
moda 1
1870 0.6925922083058327
Francis 0.6528967499475711
Seb@@ 1
inn@@ 0.42838876394081116
eter@@ 1
klar@@ 1
Otto 0.7566706607744957
arr@@ 0.28934727504626234
lamada 1
Sw@@ 0.4966400874271655
Anthony 0.9047108232052358
F. 0.6150430833461948
idin 1
Politi@@ 1
Chelsea 1
Off 1
our 0.21346414759593227
pref@@ 1
rom 1
lam 1
lat 1
Peru 1
hus@@ 1
ref 0.9405084669524604
sist@@ 1
1897 0.6749604622081626
Kost@@ 1
agon@@ 1
raz@@ 1
ümüz 1
arca 1
lif@@ 0.9352640758846572
Nem@@ 1
atar 1
rar@@ 1
1500 1
ımcısı 1
Jon 1
tron 1
P. 0.5576583412229851
PlayStation 1
Yu@@ 1
Yorkshire 1
aset 1
ME@@ 1
ator@@ 1
hiç@@ 1
nir 1
Dost@@ 1
1899 0.659231927677214
Yemen 1
PS@@ 0.9458745969548396
bo 0.8525229882213816
Š@@ 0.9932363239763797
DJ 1
Harvard 0.9752909053266805
Luc@@ 0.7423383281713234
IP 1
KP 1
Panzer 1
eki@@ 1
etk@@ 1
bal 0.9219764225482503
slo@@ 0.9235627177096676
Hid@@ 1
Kiş@@ 1
Vez@@ 1
mana 1
All@@ 0.6345852964935758
Liv@@ 1
Kin@@ 0.7177103910959824
AC@@ 0.6645997348804303
Portekiz@@ 1
Tug@@ 1
hin@@ 0.48997813630381415
AT 1
mut 1
Street 0.1993409319948328
elleri 1
reti 1
Giovanni 1
Afyonkarahisar 1
Fey@@ 1
Ren 1
adele 1
trav@@ 0.5108996493928184
24@@ 0.6134213546212659
NASA 1
abat 1
udu 1
apa 1
Burs@@ 1
Noel 1
9,@@ 0.961836784090452
lebilir 1
lie 0.4908783013467709
pop@@ 1
Gürc@@ 1
Frankfurt 0.875908751446815
edem@@ 1
VII 0.9797740672724121
Adıyaman 1
fut@@ 1
Azer@@ 1
God@@ 0.9329703414879527
depres@@ 1
siv@@ 1
Ate@@ 1
eh 0.9599634931327082
krip@@ 1
iPhone 1
üng@@ 1
fan 1
tüsü 1
Ga@@ 0.7880221483001123
akl@@ 1
acil 1
ø@@ 0.7023924573745117
Go 1
Is 0.7728922445776838
Tekir@@ 1
com@@ 0.12151936510656966
tifik@@ 1
1864 0.8357285594761696
I.@@ 1
avant@@ 1
Fin 1
Wood@@ 0.6829354327652702
yüzünde 1
CA@@ 0.5317055708731702
California 0.19818180858585463
Rick 1
Teh@@ 1
Hep@@ 1
11,@@ 1
Ca@@ 0.8845754002547233
matr@@ 1
reb@@ 1
Miy@@ 1
bomb@@ 0.9219154873659735
deş 1
Arslan 1
SY@@ 1
flor@@ 1
ace 0.3908507740470606
öng@@ 1
isler 1
Universe 1
Dah@@ 1
Sho@@ 0.6476049042068219
MA 0.7142121250674814
ste@@ 0.23147356676910824
öre 1
Hic@@ 1
Just@@ 1
Kons@@ 1
aur@@ 0.5831804348696217
kast@@ 1
lini 1
Muş 1
Villa 0.7699748459008954
dy 0.5059924821284147
karma@@ 1
radik@@ 1
Gaga 1
Milan 1
celi 1
DS@@ 1
kün@@ 1
1895 0.650363608093343
Arg@@ 1
Atlantik 1
opotam@@ 1
Samuel 0.7532165729309481
Kuz@@ 1
olik 1
1885 0.7176572666909834
Serie 0.5224957418038951
imkâ@@ 1
80@@ 1
Lah@@ 1
Mul@@ 0.5750299424646343
key@@ 1
tili@@ 1
û 1
ikal@@ 1
rekt@@ 1
Küt@@ 1
the@@ 0.32887980339171763
Kant@@ 1
Radi@@ 0.9715697039659749
Sami 1
okula 1
usta 1
1,2 1
Game 0.6067377114527829
ush@@ 0.7618325778686212
amber 1
chi@@ 0.4125256467561244
CO@@ 0.6252423808387654
anta 1
him 0.061439612834039085
gus@@ 1
imal@@ 1
tap@@ 1
Astr@@ 1
tz 0.961328719079568
Aleksandr 1
cuya 1
€ 1
900 1
Asteraceae 1
Ci@@ 0.7970963172814921
South 0.09717088123575125
Ted@@ 1
Teb@@ 1
vo 0.5239578411290813
Ceb@@ 1
park@@ 1
Win@@ 0.5739945307409536
avar 1
Hamburg 0.6535540409206231
Karaman 1
Pon@@ 0.6893983219824249
Arsenal 1
que 0.008212229821084953
L. 0.5914758659912736
yör@@ 1
üstr@@ 1
Kuv@@ 1
tuk@@ 1
heb@@ 1
lez@@ 1
oth 0.6220641342087458
Ray 0.917432647109531
Ju@@ 0.5540108250244788
Hugo 1
km@@ 1
yp@@ 0.5387145348350059
Kos@@ 1
Sen 1
klor@@ 1
Doctor 0.9195948900940879
Progr@@ 1
G. 0.6440592500638633
Som@@ 1
kariyer@@ 1
risk 0.8688237617518015
Amsterdam 1
Bad 0.6924495756691162
Model 1
ves@@ 1
1898 0.606825030921268
Lak@@ 1
30@@ 0.6033058020029818
Budap@@ 1
hop 1
Slo@@ 1
reg@@ 0.2155568615115946
teles@@ 1
ızca 1
His@@ 1
1889 0.6936778589404589
freguesia 1
Cro@@ 0.4973391714766536
khan 1
sens@@ 0.8777887172808758
Mobile 1
lav 1
Kov@@ 1
Radio 0.33495623589926804
Yön@@ 1
yeş@@ 1
eter 0.42230069218563604
Yum@@ 1
Mos@@ 0.5417397905339796
West@@ 0.31161917873341877
mat 1
adel@@ 1
uli 1
çıkard@@ 1
ana@@ 1
Tir@@ 1
sert@@ 1
liberal 1
yc@@ 0.5397890275287551
ichi 1
off@@ 0.2778917466069122
ple@@ 0.4396480426452469
Jan 0.804421868488736
Mill@@ 0.9333914674932883
Normal 1
oe 1
yun@@ 1
Ast@@ 1
Sinc@@ 1
post@@ 0.47581228934646863
ref@@ 0.5422913162646512
Lad@@ 1
Zor@@ 1
Afrik@@ 1
muz@@ 1
Cos@@ 0.6990941423235935
Kent@@ 1
Sun 0.6196804453052611
nük@@ 1
este 0.1198234964104084
omen 1
Bell@@ 1
Lady 0.6303089251608108
pomp@@ 1
Georgia 0.5224848992889293
Up 0.8943408411318101
bür@@ 1
fonk@@ 1
tram@@ 1
11@@ 0.900799033797233
lete 1
ikos 1
otor@@ 1
Tel 1
ath 0.37771353701244925
geometr@@ 1
But@@ 0.898758420038097
Mario 1
çya 1
trol@@ 1
Society 0.25300440707879246
Tanz@@ 1
ango 1
vali 1
Patrick 0.7001763481894867
lib@@ 1
Fon@@ 0.9754503158382025
Bec@@ 1
Said 1
MP@@ 0.8347989233965879
rap 1
Henri 0.6371775756545536
Leon 1
Leon@@ 1
Tw@@ 0.7180909590753635
akadem@@ 1
Abbas 1
Motor@@ 0.9765504444351807
Prim@@ 0.8149179471354305
Köln 1
Association 0.19011651943572025
Bingöl 1
Metal 1
onom@@ 1
yıla 1
Arkad@@ 1
Moldova 1
iga 0.9967371402274218
etim@@ 1
kayde@@ 1
Black@@ 0.807505260624638
Dep@@ 1
engi 1
Sali@@ 1
atus 0.508474472711232
Luis 0.4871070817133275
Rose 0.7765105617457239
Aleksand@@ 1
hö@@ 1
Franz 0.6010191683812508
tac@@ 0.8626027888373622
− 0.613109961942106
Hati@@ 1
å@@ 0.8631618056511206
Bus@@ 0.5711385774534357
SP@@ 0.7182397664783206
Din 1
³ 1
anse 1
eno 0.6912875376572899
Pep@@ 1
terci@@ 1
Victor 0.7700999953397117
kili@@ 1
16.@@ 1
AP@@ 0.6932891955604397
Nur 1
Allen 0.8333112371090793
Die 0.020090756061246984
alc@@ 1
asti@@ 1
ekar@@ 1
sul 1
imo 1
Anderson 0.8167532170292383
Fabrik@@ 1
obi 1
Olu@@ 1
Twitter 1
Jr 0.7295132833964493
fret 1
ment 0.10512162656458013
100.000 1
gir 1
Ses 0.8283745675096292
Bad@@ 0.6692261999840434
Miller 0.7481804810678876
liber@@ 0.5248923046375765
opter@@ 1
60@@ 1
Media 0.49470555851285103
Beni 1
Konstant@@ 1
Lincoln 0.7944149581818908
duran 1
geome@@ 1
tesp@@ 1
tor 0.20294711630704482
Laborat@@ 1
ings 0.09165346638062156
dez@@ 1
lip 1
ater@@ 1
Cab@@ 0.8838703274741243
Del 1
Roger 0.7245610095437326
vo@@ 0.360756300491878
pay 0.6624377140972126
Jim 0.6744169270955589
Studios 0.8203316542444432
Town 0.4328889768760329
Tatar@@ 1
ester@@ 0.9990960510367731
termin@@ 0.374439102254432
tia 0.5582023338184201
Diego 0.6070763416467629
oi 1
DT@@ 1
Venezuela 0.7597387987919044
fat 1
Üy@@ 1
Olimpiyat@@ 1
iter 0.6154376691624971
1860 0.6933879071381202
Adams 1
disk 1
rin 1
strat@@ 1
Jane 0.9353145273061119
ire@@ 1
oti@@ 1
Marcus 1
Stockholm 1
öd@@ 1
sid@@ 1
türk@@ 1
jo 0.45357552387201167
15.@@ 1
Benjamin 0.9665157392635897
acet@@ 1
lus 1
3000 1
ania 0.5881459962400262
lâ@@ 1
mas 1
nova 1
ax 0.7280599081745115
bury 0.6645256833064547
hara 1
iat 1
wa 0.2396172598857499
CE@@ 0.7570429758980486
1894 0.6620311263478409
metal@@ 1
Halen 1
Paz@@ 1
Xbox 1
Girl 1
Christopher 0.9868458184234286
Dan 0.9578528278699169
21. 0.7831517139679324
Dead 1
Dun@@ 0.6506084517445304
SO@@ 1
oka 1
Günümüz@@ 1
Norman 1
enj@@ 1
kur 1
tezi 1
nic@@ 1
ider@@ 1
Franklin 1
Nus@@ 1
iste 0.21263355781593346
kule 1
Nic@@ 0.9735441235153705
eles 0.9990598035239258
ep 0.5028682643066562
parta 1
án 0.19907566846843133
aver@@ 0.6783054782741422
titr@@ 1
Douglas 0.7538996508107654
Pay@@ 1
akter@@ 1
gur@@ 1
kop 1
ome 0.3568330578919699
int 0.998196954298161
Güm@@ 1
worth 0.49348041731110814
Johann 0.37567524045726935
Your 0.9387519987364618
âz@@ 1
Davis 0.5856022554907292
Les@@ 0.7006946409491545
belge 1
obj@@ 1
ogen@@ 0.7678084780890215
otel 1
rağ@@ 1
oks 1
ors 0.08662080237178367
28@@ 0.9414796550918456
Antark@@ 1
Direkt@@ 1
sis@@ 1
tes 0.09208035445711073
fen 0.5091122937872259
Lov@@ 0.9739390561163918
col@@ 0.1291610315010942
iliyor@@ 1
ned@@ 1
teri@@ 1
Organiz@@ 1
kali@@ 1
eman 0.6698575507828426
Wh@@ 0.7456425834971147
ingen 0.2546219162015591
19.@@ 1
MP 0.8165945364145385
irt 1
nel 1
pre@@ 0.1032702709472721
Aster 1
ight 0.3910736214730623
out 0.04659635852857934
veç@@ 1
Deb@@ 0.6707605650602232
Krist@@ 1
eba 1
pist@@ 1
tus 0.8498319161742098
… 0.2411502666545545
20.@@ 1
Connecticut 0.9486763353539968
IC@@ 0.6311591523506204
Karag@@ 1
oker 1
Mich@@ 0.8151190019302167
Uruguay 1
180 1
Wat@@ 0.7140530753756709
ä@@ 0.14765699057562523
SmackDown 1
Tuz@@ 1
enk@@ 1
1893 0.6337097243175198
Network 0.6569497763305093
Pul@@ 0.9516879878880701
Star@@ 0.6295587945676759
Whit@@ 0.6294889647765941
ember@@ 1
okras@@ 1
Facebook 1
unlu 1
talık 1
lus@@ 0.9285764538660273
car 0.1731738122933801
vs 1
yl 0.5337067317807082
plerinden 1
Slav 1
Lake 0.2611576335947463
Boy 0.9727510071823028
ogr@@ 0.9361325151555978
Ryan 0.9105334861450297
emis@@ 1
kuy@@ 1
agan 1
tig@@ 0.31620116274402105
Festival 0.22700865403996773
emati@@ 1
bel 0.9793619026553542
pin@@ 0.6504841193905233
40@@ 0.9719784845212318
amin@@ 1
fabr@@ 1
tev@@ 1
1800 0.9559308906901438
Kazak@@ 1
Song 0.5003761342875157
kamp 1
evin 1
Bâ@@ 1
Cannes 1
iliz@@ 1
Kazan 1
TO@@ 1
dad@@ 1
18.@@ 1
d.@@ 1
IX 0.9315295408018058
Lise 1
patr@@ 0.4138967586954628
Bart@@ 1
CEO 1
Lav@@ 1
Zer@@ 1
Sm@@ 0.9115226600706966
.S. 1
1882 0.7295439435292135
linde 1
tion 0.09770095372740896
Jar@@ 0.816659489312757
Pur@@ 0.6232663883635977
S.@@ 0.7041914401689419
inf@@ 0.25414984163627746
porno@@ 1
Barbar@@ 1
Emmy 1
Post@@ 0.6682136526828525
Lawrence 0.9154563877311495
Minnesota 0.6094368915382223
amer@@ 1
dekor@@ 1
27@@ 0.8634401936466799
ny 0.47669906877732704
Shin@@ 1
ლ@@ 1
1892 0.6269302040122093
Mun@@ 0.6452576360886235
atle@@ 1
ometr@@ 1
Michel 0.5915964170660771
TA 0.7814148097376488
ender 0.3209585591109228
restore 1
Nintendo 1
VIII 1
otu 1
from 0.0090711413320513
sten 0.235134584012398
1881 0.710071938433748
26@@ 0.8381499896301723
Bru@@ 0.5223729374997387
Nil@@ 1
fordshire 1
ibi 1
High 0.16999051844980592
row 0.4087602412245559
adap@@ 0.9397748015947157
aa 1
azz@@ 1
dikt@@ 1
Güven@@ 1
We 0.4470449722497165
18@@ 0.9071323981348389
Erk@@ 1
Pictures 1
aton 1
jener@@ 1
Dek@@ 1
Queen 0.39346837187684486
Yeh@@ 1
Yos@@ 1
dre@@ 0.37781919306548595
zat 1
Fal@@ 0.5842286315906716
ate@@ 1
eth 0.6917900297566899
los 0.01253504252664126
agog@@ 1
arz@@ 1
mezun@@ 1
Best 0.2664319984103187
icus 1
nh@@ 0.30847084709084743
nar 1
Motor 0.891496330148428
bire@@ 1
lum 0.8236589064810862
Dec@@ 0.4085729843881364
Ze@@ 0.5545688469904272
amin 1
ա@@ 1
zar 1
Apol@@ 1
Bou@@ 0.49669262331948927
Metro 0.9476972981196443
das 0.017502062706010405
Augustus 1
liter@@ 0.49248580487287114
fin 0.15773341642475897
like@@ 1
Antal@@ 1
AE@@ 1
Ark@@ 1
Tekn@@ 1
Toronto 0.4995248936099726
Vo@@ 0.46738517950962455
azan 1
m. 0.8853680402357419
ska 0.9169677804025154
23@@ 0.6992044388794063
Domin@@ 0.7642206976182195
Singapur 1
kuz 1
leti 1
arif 1
topo@@ 1
Kongo 1
dit@@ 1
Ruh@@ 1
Sum@@ 0.6453865520130835
Bush 1
Land@@ 0.17475089779099248
PE@@ 1
Rec@@ 0.3168803607828693
sius 1
madeni 1
ehrin 1
Nav@@ 0.9266263111758118
kans 1
Dic@@ 1
Zeus 1
maktad@@ 1
IS 0.9311507352947287
embe 1
enberg 0.5013406413261235
́ 0.13285293416100186
kompl@@ 1
Fol@@ 0.5570511168381862
River 0.12812630185843799
North@@ 0.6522230577814435
bana 1
nis@@ 1
fet@@ 1
Games 0.320917486368036
Sarah 0.8619629859769877
Vincent 0.92305641382791
otiv 1
Aer@@ 0.8641841903806
1891 0.6161707948667485
Blu@@ 0.8266796042034111
Sz@@ 0.9366124145955872
ebr@@ 0.9136504901275911
Lombar@@ 1
Peter@@ 1
Elek@@ 1
Tibet 1
bach 0.2647102313381177
riz 1
33,@@ 1
Warner 0.9995679062544587
tere 1
AK@@ 1
Alg@@ 1
Liber@@ 0.7882885193848604
Krall@@ 1
ett@@ 0.4779761118452473
udan 1
Matt 0.9914599222800317
RAM 1
aria 0.28262576638278414
klinik 1
101 1
M.@@ 0.8721958581971719
Schleswig 1
25@@ 0.567811540975946
Herak@@ 1
Mahkem@@ 1
UCI 1
heim 0.33922694970071926
sek 1
29@@ 0.9417992672388757
nez@@ 1
onia 0.49960980904367586
türel 1
use 0.06895012972778339
Flam@@ 1
1835 1
Maur@@ 0.9409487050030418
plas@@ 1
ison 0.3673334257382886
akıl@@ 1
metro 1
ă@@ 0.7315213985800328
London 0.11671352813331394
ansiy@@ 1
Ful@@ 0.8999966678866104
Slav@@ 1
aus@@ 0.07044185699318177
2.000 1
Abr@@ 1
K. 0.6988503196367215
Sabah 1
ory 0.22267587337544323
ife 1
tay 1
ics 0.16078634539793515
agn@@ 0.5559737700099682
Sonuç@@ 1
jan 1
mon 1
Be 1
cor@@ 0.13022874827600417
15@@ 0.6890540695207006
Ferdinand 0.8772759189109335
maye 1
filtr@@ 1
ibe 1
Kus@@ 1
old 0.11865158978000442
Elektronik 1
ack@@ 0.33619432546268685
star 0.3775584158085114
125 1
Eg@@ 0.8735566011949378
Ther@@ 0.6398023295766793
aten 0.26458571268838543
Minas 1
aja 0.7471148188086945
ök@@ 1
Jay 1
cl@@ 0.15274608443279777
ium 0.4231345453672127
140 0.9923242096016684
ax@@ 0.3954565902454015
British 0.09299077865690385
Play@@ 0.973786073118435
AM 0.6291557277210722
pam@@ 1
FM 0.4795465066424702
Leo 1
Pres@@ 0.2797412817539749
eria 0.7633514895890837
tra@@ 0.5030361713772349
arius 1
ca@@ 0.8133621937622663
elia 1
leer 1
Rev@@ 0.5286676901718346
Belç@@ 1
Charlotte 0.870971597794638
FF 1
Ferrari 1
air@@ 0.2110422079145483
bad@@ 0.8251959256816758
ith 0.6271109034178839
Jason 1
parlam@@ 1
ei@@ 1
enter 0.4665923023617374
more 0.04051398536881804
Marx 1
Silah@@ 1
Bernard 0.7155372641884187
ow 0.2694963851949145
0,6 1
anime 1
doğru@@ 1
onlyinclude 0.7136364918867162
Selçuk@@ 1
oria 0.8183430082369778
Lang@@ 0.36489211716799136
Spar@@ 0.9388194191670834
kun 1
Wrestling 0.8795443664966661
ier@@ 0.22816453596013453
1.000 1
Bruce 0.8544039098180634
Miami 0.7193170299243351
ag 0.6169397543433026
Gam@@ 1
IN@@ 0.5574561560150261
azam@@ 1
may 0.07506357737425769
Cop@@ 0.6348948362129614
KA 1
addin 1
oli 0.865397018604385
Andrea 1
Basil@@ 1
Howard 0.6630232715350983
Karat@@ 1
fah 1
fes 1
tesis 1
1848 0.6410107380497074
Holstein 1
Kelly 0.8655631461296596
Pers@@ 1
Philip 0.7425424888514305
2,5 1
Bell 0.7513516110150877
vamp@@ 1
Gun@@ 0.7592936854378949
Jür@@ 1
Kle@@ 0.6948858703446432
ayn 1
müc@@ 1
res 0.3163665964446106
Lind@@ 0.7673885313059804
illi@@ 0.72464066883732
America 0.1755587542575417
Batt@@ 1
Strat@@ 1
laf 1
ait@@ 1
tica 0.3994291428717971
Petersburg 1
Til@@ 1
tadır 1
Anton@@ 1
Long 0.41375352208624905
Maj@@ 0.6573659311236741
iletiş@@ 1
Dance 0.8850309080921357
Mali 1
Part@@ 1
Post 0.43502366757095523
Ran@@ 0.4352961556425976
asu 1
ein@@ 0.07542040377063931
Gordon 0.7386344145138145
Performan@@ 1
Py@@ 1
kana 1
oldu@@ 1
eda 0.8455083643853468
lav@@ 0.833846362011899
Laur@@ 0.6681691989276731
Muz@@ 1
olata 1
1867 0.682592395241229
1888 0.6007919394186516
Bau@@ 0.18488406401694138
Janeiro 1
oton@@ 1
Voy@@ 1
eng 0.4890382694563893
hipo@@ 1
mevcut@@ 1
pa@@ 0.6700815947187226
1884 0.6405204270038202
23.@@ 1
filos@@ 1
mar 0.45482749285666796
CS@@ 0.7073032883004465
Helsinki 1
Nil 1
PA 0.5812786229673353
Lap@@ 1
Manuel 0.49169685575022043
Nikolay 1
gönül@@ 1
mâ@@ 1
AN 1
Indiana 0.6353477432017856
Marvel 1
eğl@@ 1
Kati@@ 1
List@@ 1
Mr 1
Pic@@ 0.7068956480249019
able 0.04665122858753046
begin 0.7098289035114324
işletil@@ 1
Lid@@ 1
Nez@@ 1
TP 1
This 0.043363818966922534
alay 1
Bryan 1
adem@@ 1
köğ@@ 1
oride 1
rah 1
tol@@ 0.8995172627813798
ning 0.293998675014124
Las 0.14678625553033417
ough 0.45307335956296274
Bran@@ 0.8126363273039847
Russell 0.8547909233126001
bot 0.7075432386111202
filmi@@ 1
20.000 1
traj@@ 1
Net@@ 1
Phone 1
RT@@ 1
iner@@ 1
{ 0.5306146323691339
ager 0.36541498640128306
eck 0.42298245343022384
ester 0.5950719359819001
nor@@ 0.29831868658959615
ú@@ 0.41489121262988227
TV@@ 0.9333392937517264
aun@@ 0.4585248668740142
İsviç@@ 1
Organ@@ 1
eff@@ 0.5206279022133025
âm 0.7768472692625727
ametr@@ 1
api 1
nes 0.31149085744724037
olduk@@ 1
Abdul@@ 1
Sankt 1
Mess@@ 0.694865545116087
asen 1
lâm 1
Hus@@ 0.7957801695556359
kru@@ 1
Steven 1
mav@@ 1
RE@@ 0.6141571202959405
alle@@ 0.6908055261564673
ნ@@ 1
rün@@ 1
tenis 1
tras@@ 0.6393748857354721
1865 0.6515362398583499
Dre@@ 0.4959822221381103
Konfer@@ 1
Rihanna 1
17@@ 0.7800894053666899
Out 0.7151100601725774
Sn@@ 1
deleg@@ 0.6630469573131235
Houston 0.700764658292682
Doktor@@ 1
´ 1
Ej@@ 1
bilgis@@ 1
Andre@@ 1
Bog@@ 0.8578580164327116
uzaklık@@ 1
Dro@@ 0.6672901133705914
dale 0.6981997160873634
niz@@ 1
Fernando 0.6712589910611639
KK@@ 1
Fair@@ 0.7144177808367926
Ludwig 0.543006465642306
Tim 0.892044666431937
obil@@ 1
Mercedes 1
mete 1
Margaret 0.7867021855429336
tom 0.9850339903956278
Marshall 0.9275654141319204
Shi@@ 0.6225710318496965
ame@@ 0.7754395392250373
ander 1
ble 0.31571387453372485
Guy 0.9556028225597588
Pedro 0.4528234912517615
house 0.11933776169509103
zon 1
Danim@@ 1
Elem@@ 1
Hidro@@ 1
SV 0.8674069137817425
ais@@ 0.3099433285551789
diplomat 1
ju 1
Duy@@ 1
Kennedy 0.8191555712824099
News 0.43281243207724984
Tul@@ 0.9426517120812411
mün@@ 1
www.@@ 1
Reis 1
tr 1
Boliv@@ 1
LE@@ 1
Potter 1
ahş@@ 1
1887 0.6071891926702646
ail 0.30981077842334626
ros 1
1871 0.5940196833770911
Drama 1
NO@@ 0.848324570394959
Wol@@ 0.4861957029105817
Theod@@ 1
aus 0.026569715612438365
bos@@ 1
à 0.005935545695532979
Bag@@ 0.8507067840063252
Tit@@ 0.5711592915762695
kil 1
ris 1
gag@@ 1
Boeing 1
Om@@ 0.9037566816773227
ahan 1
ako 1
istil@@ 1
versi@@ 0.7423664060455901
Ing@@ 0.53646141915682
zad@@ 1
DS 0.7682892945263325
ju@@ 0.3756815550519788
skaya 1
we 0.16975014336588298
Van@@ 1
160 0.990769582510486
Hop@@ 1
dig@@ 0.4713212417368939
edan 1
kilit@@ 1
plant@@ 0.5761374343277091
sn@@ 0.6151175003198889
uman 1
zan@@ 1
aks 0.6130628031448676
belle@@ 1
arru@@ 1
komp@@ 1
105 1
First 0.19220043383226337
Roman@@ 0.737439611216971
Harris 0.8075062940726517
zır@@ 1
Gabriel 0.7891711865066525
Hampshire 1
Hin@@ 0.4193191102474034
Ernst 0.6245536278002319
Les 0.04287397131684511
Lisa 1
Turn@@ 1
Yang@@ 1
bro@@ 0.40782770786529987
ideal 1
nada 1
Sky@@ 1
pembe 1
Sidney 1
T. 0.553545826136193
Will 0.915837924360939
Wo@@ 0.7414789531047887
Rez@@ 1
ceb@@ 1
dit 0.2729125081016825
Anim@@ 1
Yahya 1
Aviv 1
LGBT 1
site 0.11680821129038921
1850 0.6454454629496228
64,@@ 1
Balık@@ 1
ador 0.1716114573598209
letin 1
ovo 1
stati@@ 1
Kun@@ 0.8679622862483628
Dür@@ 1
Rag@@ 1
Telek@@ 1
arki 1
cir@@ 0.8966130673080999
monte 1
BA 0.695005966103965
DA 0.815613177622327
Poly@@ 0.7458164077652399
BB 1
Vis@@ 0.49179380458288424
bra 0.8065385195490743
oga 0.8399949322118506
Kru@@ 1
Moore 0.7101412848196053
MI@@ 0.9241275182830413
Intel 1
yu@@ 1
Dig@@ 1
ault 0.4443240200135073
jin 1
lej@@ 1
metabol@@ 1
X. 1
keli 1
DE 1
Dark 1
To 0.24243575757390026
MC 0.8896079125355838
Nick 0.8554118845766436
ahi@@ 1
polar@@ 1
reden 1
š 1
Fur@@ 0.9923561539805508
arom@@ 1
hy@@ 0.3486393894607017
hâl@@ 1
3D 0.8907491864980562
umb@@ 0.5933336647571194
ass 0.35062165875397433
esk@@ 1
1.5 1
Program 0.8431061425455771
Shakespeare 1
Shar@@ 0.5953418255929533
endem@@ 1
Ya@@ 1
Claude 0.6744313212544475
aster@@ 1
vay 1
Ball@@ 0.5689012829499023
Reh@@ 1
Sau@@ 0.475386777166791
Tig@@ 1
Jimmy 0.8102780831776187
Morgan 0.7763524356219329
isse 0.8476812939113681
1883 0.6365812377247295
back 0.08128773528156148
Bet@@ 0.6748343639659908
kurgu 1
Büro@@ 1
Death 0.5321918197013229
ader 0.49038636614597864
dua 1
İspanyol@@ 1
elendir@@ 1
Gior@@ 1
Robin 1
tâ@@ 1
Aur@@ 0.820559553887787
Lü@@ 1
Pad@@ 0.7104164487585607
presti@@ 1
State 0.08241651308259118
TL 1
ais 0.2764667534970585
div@@ 0.4985662179094135
etkisi@@ 1
US 0.07645694602605943
AB@@ 0.9049507698624657
Donald 0.7535802621771697
firma 1
ī@@ 0.8080233518364203
bomba 1
yumuş@@ 1
Eğiti@@ 1
Girls 0.8675846639658484
tha 0.7432385917455311
Broadway 0.7576335432109271
Edi@@ 1
Jeff 0.9742711951794952
Kot@@ 1
keti 1
prati@@ 1
350 0.9427271239656452
Arts 0.23326284941566983
Enter@@ 1
Do 0.6808662814845501
dos 0.07743028554177758
ios 0.6571416354266896
jür@@ 1
vac@@ 0.48648715827334377
2.0 1
Kand@@ 1
Great 0.2330758490166594
Netflix 1
200@@ 0.9473736124585813
alini 1
gran@@ 0.6147439661574279
rum 1
Universal 0.8864477958122446
cha 0.25911902864123587
amo 0.9366973181869525
stone 0.25914236723401496
Nan@@ 1
eira 1
gh@@ 0.4112467557461352
antal 1
iTunes 1
1863 0.6193089731225434
Manhattan 0.9683267370269227
Dimi@@ 1
Norman@@ 1
ex@@ 0.06227636226278965
ther@@ 0.26577148801132366
ო@@ 1
RO@@ 0.8605888182721992
depart@@ 1
oba 1
oidea 1
oğu 1
yir@@ 1
Wi@@ 0.5012374973117515
yin 1
ón 0.12366273088090748
Oliver 0.9137935878556733
kala 1
Boris 1
Gul@@ 0.9339245446138944
tem 0.7805924153264526
35@@ 0.8543426003729787
Pod@@ 0.7464570099984834
ij@@ 0.9995822582000778
vir 1
Moh@@ 0.7567953687841098
yes@@ 1
Way 0.8731452765004144
jet 1
ray 0.87997774850948
AV@@ 1
Alem@@ 1
Good 0.7578462948869801
ote 0.2721411758801621
Ross 0.7433831812965253
Venedi@@ 1
thr@@ 0.5054724506764303
£ 0.3767583794024506
Gogh 1
Rap@@ 0.6248056310019261
Under@@ 1
ody 0.4823628964729897
platform 0.5509588151439067
Geor@@ 1
kuts@@ 1
Banglad@@ 1
aham@@ 1
dae 1
kost@@ 1
0,3 1
3.000 1
Lag@@ 0.7245596832941
Sib@@ 1
caya 1
ech 0.6113289137293497
uch@@ 0.28709602536667717
Riz@@ 1
Wayne 0.9772850163190249
jan@@ 1
Studio 0.711946251219347
soh@@ 1
Lost 1
vel 1
Cena 1
heter@@ 1
Kok@@ 1
Liberal 0.7080346504335995
ady 0.6280811418567324
ante 0.0788051723928969
AG@@ 1
Kate 1
dec@@ 0.1644633685646528
rine 1
Cle@@ 0.6579117257128355
Bayern 0.7251550226144059
Mora 1
1875 0.6232669928372038
ET@@ 1
Ostr@@ 1
bahçe 1
ston 0.6049100603174811
Mass@@ 0.6214684953040043
Out@@ 0.6371670245776313
zo@@ 0.8282366430206914
Office 0.3875730688637003
Serv@@ 1
eer 0.6041567858309683
pik@@ 1
vim@@ 1
yk@@ 1
An 0.13105367049901817
Dublin 0.7337515437757187
Jer@@ 0.723747774788237
Johnny 0.7888093660831936
Thor@@ 0.7850986132388208
olo 0.7404075354188996
1873 0.6211438878330751
Vor@@ 0.09589114617290512
lob@@ 0.5677942659476933
Haw@@ 0.6885497050690502
Must@@ 1
isten 0.27724582874695763
apar@@ 0.6652948973279089
asim@@ 1
war@@ 0.1200138325150771
Bri@@ 0.4639181437810238
Fah@@ 1
Miguel 0.5511443958216957
tum 0.987887320993539
1830 0.732520937291437
Jordan 0.7548887496750128
Ligue 0.6106056346224377
Rot@@ 0.4624890191449207
SD@@ 1
asy@@ 1
ness 0.17775319734208922
AD 0.594379693117968
Division 0.1263288296696438
ABC 0.6887846861171297
TS 1
A2 1
abak@@ 1
aksi 1
iral 1
sigara 1
Barbara 0.8077049088989815
ae@@ 1
cin 1
gön@@ 1
maf@@ 1
Hot@@ 1
Sag@@ 1
ole@@ 1
о@@ 0.09521063346410398
Bern@@ 0.6754080874390034
mus 0.9401307571781452
ë 1
Amazon 1
AG 0.4713601953153343
CIA 1
Conn@@ 0.539867328919919
Kan 1
Last 0.8740954123658289
agon 1
elt 0.34856999074966605
liv@@ 0.6172955335948175
deb@@ 0.6375599224597099
esi@@ 0.8736087164397704
Missouri 0.5405311848710008
aud 0.37973207222443955
Store 1
itz@@ 0.357778230326719
oki 1
Lan@@ 0.5547154091108428
128 1
Kopen@@ 1
Helen 1
trin@@ 1
Channel 0.569563750840531
Jerry 1
Kob@@ 1
Jonathan 0.9158967306733128
Yus@@ 1
oke 0.5931104436212311
Hü@@ 1
Kron@@ 1
Mach@@ 0.6764214774204871
iki@@ 1
oid@@ 1
Pit@@ 0.7800608129106583
Zel@@ 1
piter 1
22.@@ 1
Carlo 1
Ob@@ 0.44092655020173077
Pom@@ 0.7267494105793633
ümer 1
inay@@ 1
Seattle 0.7660622496103664
Torino 1
ric@@ 0.6988190785196818
Clar@@ 0.7538231905891725
Julia 1
1868 0.6054564143446793
kulu 1
Gag@@ 1
ave@@ 0.7224006082684656
1834 0.9945519892308387
ones 0.1241646642016176
Karad@@ 1
Para 0.38814855873965576
anatom@@ 1
Lyon 0.6486415616803556
New@@ 0.4783695251975623
alimanı 1
bira 1
enza 1
geb@@ 0.2079572186035865
Frederick 0.6626101631519019
Che@@ 0.7079313266151646
Riv@@ 0.8752062107676291
tidae 1
FIBA 1
GP@@ 1
Slam 1
eon 1
alde 1
BC 0.3603446529098875
mol@@ 0.4790222650933148
Open@@ 1
Hul@@ 1
Süley@@ 1
Yugoslav 1
ME 1
RT 0.8846405885665295
idea 0.30681524829169704
lor@@ 1
Olimpi@@ 1
Tart@@ 1
Junior 0.4857279249693542
Nüf@@ 1
enburg 0.5534270127440967
hin 0.514188631067314
prom@@ 0.24057465870702957
ó 0.03811535100819923
1861 0.5609510133184099
Lüt@@ 1
Raf@@ 1
hen@@ 1
meme 1
Arti@@ 1
Telef@@ 1
gio 0.7324172652141403
Atlanta 0.6655149022542739
Santos 1
1879 0.5778374981256467
Ris@@ 0.90339695684093
ps@@ 1
sc@@ 0.1578139239798847
Cul@@ 0.5948295154738469
band@@ 0.7783548296681511
Li 0.7220351714141555
amet@@ 1
yid 1
36@@ 1
André 0.5701154244787964
duk 1
Gold@@ 0.5249247814163686
Sparta 1
Tennessee 0.5614246129714647
70@@ 1
AR 0.7776916718790284
sir 1
arp@@ 1
vod@@ 1
eau 0.16815016651277323
AF 0.794010679038279
Ivan 1
Raymond 0.8819242330173176
Ye@@ 1
didae 1
1872 0.6027949378459001
Bin 1
Leningrad 1
That 0.3189587050580541
Müh@@ 1
Ober@@ 0.12887817592139994
meg@@ 1
tral 1
ikon 1
Mant@@ 1
Ya 1
Kamb@@ 1
dokum@@ 1
omer@@ 1
pin 1
ron@@ 0.7593973869116988
} 0.5379866297176545
Sv@@ 1
obil 1
ose@@ 1
Heart 0.802265178648973
Wright 0.7969454672429033
moderni@@ 1
TH@@ 1
Hoc@@ 1
Mart@@ 0.8908660802345872
iman 1
ves 0.13151429166707027
000.000 1
Aristot@@ 1
E.@@ 0.796310802056816
Viz@@ 1
keh@@ 1
lebil@@ 1
ui 0.6666949118285085
Geb@@ 0.8322532753174473
mir 1
http 1
1.0@@ 1
Juli@@ 1
What 0.6154921502707559
RC 0.6354483719683172
fres@@ 1
hir@@ 1
lov@@ 0.692948375036842
pag@@ 0.7300135701383731
21.@@ 1
Wor@@ 0.3951258463661007
tok@@ 1
probl@@ 1
Gas@@ 0.4961049851869644
Maya 1
1874 0.5887017584612163
Kıbr@@ 1
Marino 1
we@@ 0.165109568119205
Hard@@ 0.6666432203162906
Home 0.4146237385473407
eth@@ 0.23345382880192833
assa 1
tron@@ 0.7463022557523856
1840 0.6775010800682679
Krali@@ 1
Santiago 0.4976364651145854
fantas@@ 1
tiv@@ 0.40798235141113914
für 0.016209910585284575
Lab@@ 0.6441976659727947
ambi@@ 0.46863116223168955
tali@@ 1
ech@@ 0.21481713866906943
Boys 0.7009622726617001
Golden 0.45318877350990855
alit@@ 0.95168568321783
graf 1
Austin 0.7549816269108612
Dave 0.753203547288472
Perry 1
SD 1
anor@@ 1
unt 0.5607992281368464
asıl@@ 1
kini 1
seg@@ 0.7631076772185608
Caf@@ 1
FO@@ 1
Justin 1
Poe 1
Rolling 1
bec@@ 1
imb@@ 0.7210401361026864
mu 1
prim@@ 0.3719545952602511
problem 0.5041864870826444
Zo@@ 0.8379173732665735
par 0.013535188326082017
side 0.07939238123326102
tw@@ 0.23786702475565574
Family 0.3957269504313297
Josef 0.7808358584211206
had 0.014394299371008612
Medi@@ 0.44025554341856504
owski 0.8700828658994676
33@@ 0.99369044082697
beta 1
UK 0.184713973562395
Gari@@ 1
ew@@ 0.3224576131142605
kont@@ 1
obu 1
Gran@@ 0.5299414500696041
akus@@ 1
Road 0.16573899780022192
Zen@@ 1
kulüb@@ 1
Inc 1
pes 0.4041261285772946
cid@@ 1
til 1
yumu 1
É@@ 0.1740544702316808
Billy 0.7429410267586263
Reich 0.6789377199713761
Stefan 1
NE@@ 0.788435385988855
MK@@ 1
Sep@@ 1
anik@@ 1
fil 1
Airlines 0.9366696708315357
Cola 1
IC 0.6241145548918801
ely 0.1086455822923972
Amy 1
aer@@ 0.6692079897588543
eji 1
Bron@@ 1
Cerr@@ 1
Ox@@ 0.9678974881755538
Roc@@ 0.5575873461749955
ago@@ 1
undu 1
120@@ 1
Adap@@ 1
Sl@@ 0.7671431133388682
Yok@@ 1
esen 0.4438555452911611
imal 1
uh 1
Old 0.29445428541859703
Single 0.769514849704314
Julius 0.9772355086286649
manga 0.9857073279741174
nen 0.22461239670285776
trat 0.23407138107229292
Wit@@ 0.5616722462524628
abr@@ 0.5380708955091534
ary@@ 1
Matthew 0.8506696886945907
urn@@ 0.5806667104143353
War 0.07297148583147735
Eu@@ 1
ades 0.20397254613234558
Kang@@ 1
Koy@@ 1
Lib@@ 0.5986974842949612
1866 0.47142644457479027
And 0.5158770011237144
isp@@ 1
Koca@@ 1
Başlang@@ 1
Brooklyn 0.7694983349250369
Kansas 0.4668627959341133
Luk@@ 1
alik 1
rod@@ 0.8757927388528411
Catherine 0.7116851519684135
Marc 0.691046548663373
Spe@@ 0.37731993198893515
ecz@@ 1
Grig@@ 1
Union 0.10927474574651508
Utah 0.8104146472513314
win 0.12674566638975832
Jov@@ 1
hay 0.24099186102209139
Azerbay@@ 1
Copa 0.4028841006623568
Renault 1
Sonic 1
onn@@ 0.21572355277697852
riter@@ 1
usi 1
B.@@ 0.7179600426684175
Jac@@ 0.6323478169122559
alla 0.8980895462741355
amoto 1
Clark 0.5838236887847139
Fort 0.30707460991917296
Wa@@ 0.5403958852487666
ding 0.21353381348740966
fu 1
Dream 1
Port 0.3908330160965392
Vok@@ 1
edon 1
güt@@ 1
king 0.11588444429856486
that 0.006052137668031875
10,@@ 0.8656023182546196
Cass@@ 0.8098328726473576
Cruz 0.5603660617274592
Teş@@ 1
ehr 1
folkl@@ 1
geni 1
Hes@@ 1
VI@@ 0.7850248926664642
ibn 1
ვ@@ 1
Oklahoma 0.6591454797988482
hibe 1
propaganda 1
Leg@@ 0.3765248000288165
Nis@@ 1
ande 0.5292030093538636
Gh@@ 0.5802700293853099
ex 0.27147088137061437
tema 0.7901094355839173
stra 1
alize 1
aran@@ 1
Dallas 0.733444594532766
MO@@ 0.88216555449906
coğr@@ 1
esp@@ 0.25907553518594745
inda 1
reform 0.5566073557000562
Neb@@ 0.9416820406379581
450 1
Cah@@ 1
ust 0.33944934876908256
Koh@@ 0.7411740566798627
Power 0.47298124017730164
ikan 1
iss 0.7017268347215134
mun 1
non 0.07756083918303586
onte 1
Dim@@ 1
anga 0.6462464528732862
icum 1
uf 1
‭ 1
Cru@@ 0.6643044957989488
Ian 0.8679185613603773
Phoenix 0.9485906042568161
Series 0.2732489531084163
Apollo 1
Digital 0.7957782363541265
Fab@@ 0.9260070018879295
Git@@ 1
Him@@ 1
arl@@ 1
Eskiş@@ 1
Kane 1
NXT 1
Salon 1
Gav@@ 1
Shel@@ 0.825908876637703
ubu@@ 1
1869 0.5882760357170914
Big@@ 1
Gary 0.8046039102090732
Darwin 1
Kli@@ 1
Mirza 1
imm@@ 0.6567411789140215
pes@@ 0.8084088285215392
ს@@ 1
Andy 0.7882428015097949
Ed 1
Nova 0.8512253004410442
Vest@@ 1
pan 1
prov@@ 0.39784404958562425
Beach 0.4342400919019449
Co 0.4142944071375616
aco 0.5933867234075904
hang@@ 0.9115172051577921
ē@@ 1
Jap@@ 1
Zar@@ 1
Dog@@ 1
Sean 1
Seg@@ 0.4873334776680236
dic@@ 0.1712655686348187
kuk@@ 1
lac@@ 0.7600632609481832
æ@@ 0.7563369204239058
Ath@@ 0.5897523703338383
Philippe 0.5601825473924366
Pont@@ 1
Ric@@ 0.8955761683678791
pis@@ 1
Č@@ 0.8815829386696169
1200 1
Afr@@ 1
Like 0.47358154016785636
Platon 1
app@@ 0.3003741328861271
daima 1
tun@@ 0.571683590670415
zin 1
Luke 1
cada 0.22739404998552643
gram 1
Alternati@@ 1
organ 0.9314555430760053
otr@@ 0.8122314890787456
Cher@@ 0.6221457712982081
ISO 1
Space 0.5548037126826558
Bac@@ 1
Dinamo 1
fün@@ 1
uba 1
Astronom@@ 1
Colorado 0.482069980498988
gor@@ 0.936156877728679
Dul@@ 1
Seul 1
basi 1
Air@@ 0.5449128432892014
Dean 0.7326955654222436
Valley 0.27069753455551504
lum@@ 1
armon@@ 1
Hind@@ 1
borg 1
erc@@ 1
Journal 0.38889960901149273
Toyota 1
Simp@@ 1
ason 0.8498452773831973
bus 0.2691526816840295
gene 0.6676809969018025
Hag@@ 0.9347755170602414
Rid@@ 0.687185145612907
escu 1
ê@@ 0.3903911023654614
Toplul@@ 1
Vati@@ 1
Madison 0.9758461185442454
Rol@@ 0.7338791333668294
aph@@ 0.5914659221708105
modern@@ 0.6602572659650019
Gri@@ 0.7244017469650871
igo 0.9007447430604496
13,@@ 0.8514483751109388
Ele@@ 0.9311919746312664
Cour@@ 0.3769457608306331
amiral 1
anger 0.4398559695939362
ect 0.16725480727101918
Homer 1
pon 1
feminist 1
rop@@ 1
Cleveland 0.6673219461997197
Jacob 0.6904987140514764
Kenya 0.9546285722082503
aide 0.48825297587877203
opl@@ 1
sidir 1
Tang 1
Vic@@ 0.508861341647327
ss@@ 1
Internet 0.40020327850336074
PO@@ 0.9684965846903614
RS 0.6754965303409384
hormon@@ 1
170 1
Lem@@ 0.6737081450863194
cell@@ 0.7584374462685834
paral@@ 1
puan@@ 1
Gerais 1
Leipzig 0.5218962973577672
Trump 0.6987958925009743
muz 1
punk 0.963417370633189
ée 0.03057915547799792
oli@@ 0.5917386527167887
say 0.449953941816958
zil@@ 1
ember 1
uck 0.4332596282358911
Carter 0.7329676877165169
Detroit 0.6085587010117283
etab@@ 1
gri@@ 0.601363665646627
hid 1
modi@@ 0.5979944090460159
Ajax 1
Hawaii 0.9242736125949765
Pan 0.8696718323988691
Pos@@ 0.5986337425732643
nar@@ 0.609042735443994
Galer@@ 1
Mi 1
tri 1
Story 0.8240282061232329
`@@ 1
Row@@ 0.7659081667510542
kit 1
Erd@@ 0.6503338074543249
Guang@@ 1
Sul 1
orn 0.5980508937839227
Roberto 0.9951135002545054
T.@@ 1
itum 1
oko 1
sburg 0.7240340529362367
Rachel 1
Zh@@ 0.7961942864515564
Burg@@ 0.6427243673735299
Rest@@ 1
Styles 1
aren@@ 1
inist 1
Sovyet@@ 1
cay@@ 1
ino@@ 1
omb@@ 0.5971852528866367
Gan@@ 0.8972086110371934
gas@@ 0.4513684531280233
uhan 1
ysel 1
illo 0.38122559024732594
At 0.06939393892166974
Phil@@ 0.5361624683192004
igh@@ 0.27832313640175366
shi 1
propag@@ 0.9898483055110832
tic 0.14573823154331214
Bra@@ 0.6986760224229672
Tiber@@ 1
Miz@@ 1
17,@@ 1
Festiv@@ 1
Pac@@ 1
Franco 0.828311796826853
RI@@ 0.693223212290651
alia 0.6328842954844973
Oslo 1
Rock@@ 0.7520197516009769
spir@@ 0.6595044132159114
Gab@@ 0.8480081572718436
Mic@@ 0.8386959410423669
5000 0.9125578828228207
Taliban 1
tiva 0.7336968397638268
Sis@@ 1
Cooper 0.817454858016561
Emma 1
Light 0.561561656870779
biyle 1
ds 0.15902351306802676
eviz@@ 1
ther 0.5767638268889956
‬ 1
Silva 1
Spike 1
UR@@ 1
gs 0.37553378598525583
fed@@ 1
ron 0.8092461120636668
ümüz@@ 1
medir 1
100@@ 1
Down 0.8467227868775346
Georges 0.5349126007322758
Juventus 1
direk@@ 1
kura 1
sum@@ 0.22548391932362835
Best@@ 0.558027794189884
Jennifer 1
Ny@@ 0.8299662891409254
Run@@ 0.6659952134076856
ank@@ 1
Ah 1
ider 0.4056429927860716
zer 0.3955244037199002
12,@@ 0.855756908880899
Greg@@ 1
borough 0.42117175281486
its 0.014650261165120866
Harr@@ 1
án@@ 0.4166131245126596
135 1
aliyet 1
Acon@@ 1
Green@@ 0.6107028249138367
Jos@@ 1
Va@@ 1
Hermann 0.5764637183227379
apart@@ 1
Moon 0.7554459871932034
Sher@@ 0.631835373453798
amino 1
Anti 0.99924533710273
LA 0.558535469855848
\ 0.7235011962405503
მ@@ 1
4.000 1
asta 1
ista 0.1431207336917927
Aki@@ 1
CP 1
For 0.08873157183628894
Sec@@ 0.43172344278289926
Var 1
Vide@@ 1
caz@@ 1
ín 0.2539159070786271
ATP 0.8194638763919635
Alberto 0.7978950928321255
Mang@@ 0.781627405922019
Ofisi 1
Vermont 1
ague 0.8411754242585286
Stein@@ 0.31629450374979223
Tank 1
gesel 1
oskop@@ 1
trom@@ 1
Lau@@ 0.509613905148622
Museum 0.1517057166999445
Tommy 1
1862 0.49524350461216754
Gib@@ 1
eran 0.1228833505311515
ê 1
Dos@@ 1
Magic 1
ındayken 1
Bart 1
Jefferson 0.9791694646147803
Sou@@ 0.4410909200779608
Wisconsin 0.4576087518692016
aeus 1
ever 0.1479413296152409
robot@@ 1
she 0.027292871732869334
3,5 1
Frank@@ 1
Lucas 0.8864586232571481
Us@@ 1
ated 0.030670916534664285
atur@@ 0.6335925777015655
ges 0.17375416510536013
ikon@@ 1
nan 1
uchi 1
Central 0.1332104772399285
Suffolk 1
metod@@ 1
Stanley 0.6508305185275443
Willow 1
fah@@ 1
Dubai 1
Duv@@ 1
Server 1
Point 0.41712924365146087
icks 0.7057268512082511
koloni 1
Dans 0.13489943214054284
May 0.05458570528194871
Rub@@ 0.7987474763883662
WrestleMania 1
mor 1
antum 1
familyas@@ 1
isto 1
tics 0.2515515081935273
Gy@@ 1
Zagreb 1
103 1
AI@@ 0.5467484671279265
Bonn 1
Norfolk 1
esta 0.09328229555781076
Ontario 0.3657864387669374
vik 1
Pes@@ 1
ange 0.357155728862785
err@@ 0.241589957769817
Thompson 0.6640317634270451
Mississippi 0.5878629573469201
ht@@ 1
Angel@@ 1
Marco 0.9043663553380507
Mikro@@ 1
Nelson 0.6274861828725926
feld 0.2748270014308593
ilir@@ 1
ink@@ 1
red 0.10369759561449798
Ma 0.859794174478614
kalab@@ 1
kaç 1
omen@@ 1
zona 0.3308320161066214
Komit@@ 1
Prince 0.2731570949478748
Roy 0.6323819936674211
Sierra 0.6180830461608302
Somali 1
pus@@ 1
rag@@ 0.6020771425447305
2.5 0.9275035762831989
Jam@@ 0.6588217325952146
iks 1
maktay@@ 1
mid@@ 0.4307067731410045
Boh@@ 0.765474377272314
Comics 0.7857568190646128
Dış@@ 1
Loc@@ 0.46032707354834795
lag@@ 0.3105440977221101
ege 0.817521833219585
egr@@ 0.5291102869620143
ovski 1
arlığı 1
aca@@ 1
ondo 1
uri@@ 0.8102630807843743
თ@@ 1
PG 1
Yem@@ 1
tos 0.24498257977644614
By@@ 0.776475298894646
Palm 1
esh@@ 0.41565680163697044
nal 1
porta@@ 1
Ann 0.6893809453752336
Birmingham 0.6978124313539745
Neg@@ 0.7241376183142875
depos@@ 0.6491121360140273
Duk@@ 1
Robinson 0.6766264274976932
nov@@ 0.7933964230612206
1828 0.9086576945430298
26.@@ 1
Lloyd 0.8360044962511638
acat@@ 1
festival 0.29416531972190546
lab@@ 0.31055323299711596
mes 0.1752944482754355
sic@@ 1
Danny 1
Open 0.21995045213328812
Sergey 1
nav@@ 0.43301213732069826
ers@@ 0.5574160018460294
gay 0.8867718876728158
kapsay@@ 1
45@@ 0.9295138444523643
alli@@ 0.3510826658647551
omu 1
vis 0.7291483632691858
Ard@@ 1
ensi@@ 0.6116521187869768
lov 1
Esp@@ 0.40498086270604233
Gold 0.35198654633439486
Sever@@ 1
gres@@ 1
kenin 1
dul 1
emann 0.8801190636261372
val 0.5545441292140268
Fire 0.5863207901432238
Shim@@ 1
104 1
Atlético 1
Bon 1
Bruno 0.8766291502052682
Men 0.30753170359809984
Stuttgart 0.6719927733409669
Za@@ 1
oro 0.3554749416028648
Global 0.5816928289757888
It@@ 0.9481833994013932
Sports 0.331900216103316
emy 1
ines 0.10674440515337226
30.000 1
ky@@ 1
Kentucky 0.5262179985039722
edo 0.45178833587054845
mab@@ 1
obi@@ 0.819482136353076
ás 0.6787118365627038
XX@@ 1
akat@@ 1
Osaka 1
Vegas 0.8551304821678782
kahver@@ 1
pas 0.050541942670572854
ube 1
Fay@@ 1
Parker 0.7688542743999395
lio 0.9329433349984418
mevki@@ 1
Orton 1
cio 0.41474646767183937
Fas@@ 1
Hand@@ 0.2802554145830621
Il 0.02152128839883157
Kanuni 1
Lac@@ 0.6214835702577555
Muhareb@@ 1
Angola 1
Kong@@ 1
Plan 0.5618089951050506
Wer@@ 0.2785532032249174
ampiy@@ 1
any 0.06703073874633125
olana 1
uil 1
zik@@ 1
Tet@@ 1
hip@@ 1
Aqu@@ 0.5526587695121277
seti 1
Coca 1
Kak@@ 1
Long@@ 0.5148307547166502
sif 1
Der 0.024219993270157864
Eth@@ 0.5350071980782284
liz@@ 0.4768877430501419
Bom@@ 0.6625196761536761
Triple 1
Vat@@ 1
ald 0.5325498683973171
dedi@@ 1
opti@@ 1
Dakota 0.7454974437140226
ymus 1
deh@@ 1
ismi@@ 1
osaurus 1
Polit@@ 1
acc@@ 0.15952861339210755
ains 0.12138083451186352
α 0.36809073641494033
′ 1
Book 0.3956765919356234
ante@@ 0.8151916851929215
dul@@ 0.9819045988556482
eros 0.2692586998865332
mobil@@ 0.6677533507549475
nia 0.6129787523878519
Adam@@ 1
Ron 1
Texas 0.16197415835062165
Yur@@ 1
uti 1
çek 1
Java 0.9321485110766238
Nin@@ 1
cara 1
dum@@ 1
~ 0.9348148128913212
Institute 0.1486768046427381
Katal@@ 1
entum 0.8296009936389734
lamb@@ 1
yas 1
NBC 0.6876110389571187
System 0.2671898174810425
USB 1
face 0.13187498846212123
Francesco 1
minimum 0.7329115901265986
37@@ 0.9066081647769656
Alabama 0.5420487194761318
Lou@@ 0.5218825444593994
Hat 1
Type 0.7563989312598701
osman@@ 1
vic@@ 0.2762754157191461
ʿ@@ 1
Grant 0.6122183005284698
Maryland 0.4743442042492299
Mini 1
Nicolas 0.5805135390260511
bian 0.9820927716125335
etto 0.8336469621272721
Elektr@@ 1
Kaw@@ 1
Web@@ 0.6421117102560041
agu@@ 0.31934191244306387
Graham 0.684907734138906
Grön@@ 1
Press 0.4038019614402352
Solo 1
Anah@@ 1
Anton 0.7148900214703819
Beng@@ 0.8053557566777082
Just 0.6952588801830789
Sebastian 0.9744777961873963
Shak@@ 1
Edge 1
Nürnberg 1
Rok@@ 1
pli 1
rim@@ 1
ry@@ 0.7424502163721618
burg@@ 1
Herbert 0.620451308265031
Kop@@ 0.8800796465622184
NA 0.7003450708558498
afir@@ 1
binden 1
laka 1
Academy 0.1581114808733428
Diplom@@ 1
kopos@@ 1
mide 1
seyi 1
Gra@@ 0.704325318620621
mineral 1
pon@@ 0.3091427509115596
AFC 1
Clara 1
Rey@@ 1
Tap@@ 1
enes 0.5115785889450916
igu@@ 0.41589052266521476
salon 1
öp@@ 1
Fi 1
Georg 0.3813266381185093
Hass@@ 1
Baron 0.5917504736095709
osaur@@ 1
Band@@ 0.501675002768573
Fred 0.6992164367143555
wi@@ 0.3703021717237887
Shane 1
Stewart 0.6235312843643714
aris 1
eum 0.5364113285536355
ward 0.20839385232948515
Stre@@ 0.33837111573286743
leg@@ 0.212783969684803
Fiat 1
HC 0.8507095943890456
Televiz@@ 1
anto 1
ats 0.1024626148131647
tabaka 1
Gaziante@@ 1
Harold 0.8892850110072528
Jose@@ 0.8527040772462353
nun@@ 1
115@@ 0.9851269836944643
Iowa 0.4786553034175881
Monte 0.7034430101557863
UTC 1
vik@@ 1
Cand@@ 1
End 0.6415442061871164
Magazine 0.4889113317202854
Stu@@ 0.4037407569624091
750 0.9667226540915197
Dragon 0.9527780054578108
Laura 0.8618428016373161
elma 1
ilişk@@ 1
mati@@ 0.541292204742678
sept 0.4326127468528754
Mexico 0.21905865128909993
Neil 0.8840398130853274
Sevilla 1
ento 0.302514685013097
nom@@ 0.31391681927469556
osh@@ 0.9372510717977078
J.@@ 0.7275665611812571
Kud@@ 1
Master 0.3615382455939075
Sic@@ 0.8058496572595061
enter@@ 0.44198898762700434
https 1
cho 0.06497756396817447
femin@@ 0.9346156841995252
Andreas 0.7685575829586692
Hok@@ 1
Lok@@ 0.872128557546915
Lon@@ 0.9626051542964684
Oregon 0.49653819306494856
ord 0.4950173551711521
Iron 0.7031225466610326
oo 0.5488274333609149
6.000 1
arin 1
itt 0.5912371889151903
zen@@ 0.47112018654675036
üzel 1
ław 0.9753746632703603
Amar@@ 1
Diyar@@ 1
Scar@@ 0.7471921353437254
Stal@@ 1
Da 0.24322990782344392
Ji@@ 0.7110138955853519
Bohem@@ 1
Fame 0.5123925207156932
brah@@ 1
Koordin@@ 1
Leonardo 1
Maurice 0.5348106833145146
Morris 0.7023595881970888
eron 0.2574237157563055
1856 0.5673968918056321
Abraham 0.7913513204826556
Fos@@ 1
Fres@@ 0.6608747660139107
Pink 1
Raz@@ 1
kos 1
sw@@ 0.16482225690897703
CI@@ 0.49864492087005174
MB 1
ays 0.16427642254233965
uss@@ 0.3353942220681293
ū 0.8553209841353935
1,1 1
Paraguay 1
Salvador 0.671664207747464
aver 0.8164739926238426
sem 1
Esper@@ 1
Sik@@ 1
Aston 1
Kod@@ 1
Rich@@ 0.4983332106517515
Ural 1
tora 1
uka 1
Hotel 0.389222562943164
Rocky 1
illus 1
Panama 1
Warren 0.7518242354154011
ann 0.42153576935000947
filo 1
BM@@ 0.7998466935133529
LED 1
Punk 1
atas@@ 1
bre 0.3113972353438441
eral 0.6876346946956848
iber 1
kınma 1
tez 1
vec@@ 0.6229284214433821
1784 1
Parlament@@ 1
rell 0.7275440319147246
İb@@ 1
Au@@ 0.2773086189207475
Pent@@ 0.983010844060142
Rav@@ 0.6912334686139702
hül@@ 1
tot@@ 0.405604711523733
AA 0.5088301583107454
Log@@ 0.5809752236204927
Stat@@ 0.7869501227151483
BMW 1
CBS 0.6366919760540165
emper@@ 1
pros@@ 0.7825478339948935
Arm@@ 0.5420743507862764
Cook 0.7898321293912719
Hit@@ 0.8739148488079238
anov 1
elly 0.7935957286187687
inski 1
omor@@ 1
109 1
CN@@ 0.6242754741017175
Michel@@ 1
Pau@@ 0.6912774855060614
avar@@ 1
eb 0.7961432112725942
ign@@ 0.1861565274377499
card 0.4361747877132985
ck@@ 0.3503052272912659
inge 0.5438083207831983
kins 0.703684872183141
kulüpler@@ 1
Glenn 1
Metro@@ 1
kati 1
umia 1
BK 1
prof@@ 0.3029618831432252
ა 1
Pompe@@ 1
enos 1
lard 0.5000555029849286
GP 1
otop@@ 1
Fak@@ 1
30.@@ 1
Baden 0.5309015687509414
Carey 1
Good@@ 0.6854896322858026
Nest@@ 1
Ved@@ 1
aux 0.02554524963148077
gia 0.1446407416945827
pale@@ 1
urs@@ 0.9385957591177841
Arc@@ 0.8863316993840725
Baby 0.9169686041778886
Person@@ 0.4569622928784653
CC@@ 0.4776804596145131
Dawn 1
Fro@@ 0.714797808081648
Science 0.21888773570681327
fid@@ 0.888931314923954
uno 0.12303575780999847
Brothers 0.6143758811919575
eland 0.4875827366971384
kot 1
115 1
Hart 1
kilogr@@ 1
sit 1
1859 0.5081027059500123
CG 1
SM 1
Tot@@ 0.8200289550877964
iser 0.34043959102805227
rece@@ 0.8069004361015434
უ@@ 1
14,@@ 0.77708181122323
esti 1
hard 0.29790975043581247
lana 1
Comp@@ 0.5446373409781902
Pokémon 1
ec 0.7145957677881708
pep@@ 1
sing@@ 0.3741717690807341
ð@@ 0.9329487369877771
Ng@@ 0.504267274036779
kak@@ 1
Gros@@ 0.7603872506407107
polisi 1
.C. 0.9162872684268923
AIDS 1
Liste 0.17993806010677146
andi 0.9795330783564684
hisi 1
sup@@ 0.3651651259106604
tarafa 1
bad 0.462118811357802
jet@@ 1
wal@@ 0.21761479273178527
Ž@@ 0.9803773341779334
illy 0.38201398553965976
seven 0.158365026760219
âme 1
Elena 1
Kath@@ 0.6242206860299603
Ton@@ 0.48323946564192366
Two 0.18658629441313734
rie 0.5071609824614015
102 0.900805554091348
FL 0.5858569134126976
Güre@@ 1
Holmes 1
Habsburg 1
N. 0.6541434475152854
annes 1
aster 0.4640604492920402
istin 1
tz@@ 0.7647716616012215
Gay@@ 1
Og@@ 0.988942586182673
eze 1
Slayer 1
Çeşit@@ 1
Johannes 0.42651814022101375
Lug@@ 1
ego 0.5192824696742813
ifa 1
org 1
uti@@ 0.45267693857976316
vid@@ 0.6864974285345622
1.2 1
90@@ 1
Sung@@ 1
abol@@ 0.41255707055824076
erina 1
kadros@@ 1
H.@@ 0.8405958864315511
Nicholas 0.7209649490946409
nev@@ 1
י@@ 1
PT@@ 1
Sky 0.7098397569541819
baa 1
tilla 1
mene 1
August 0.036820784990196906
Dortmund 1
Ever@@ 0.72063209450853
L.@@ 0.7409869931620656
ajan 1
enne 0.1311973825508933
ies 0.07729839685079634
light 0.13201914782248916
pot 0.5100745618286588
Homo 1
Women 0.16075026571039638
enci@@ 0.5221120297255132
iPad 1
vers 0.07480220316911536
34@@ 0.8034575309820393
Awards 0.15181978009053154
Bar 0.6813362194694919
difer@@ 1
Forest 0.41169920703371893
Let 0.8467072532342798
Micro@@ 0.8455002952656161
Theatre 0.26412164845038266
Volga 1
Wehrmacht 1
sola 1
Back 0.6832858177142749
Songs 0.52121070188615
won 0.04674855175301225
Vampire 1
Vin@@ 0.7160038829314996
IBM 0.9617267693635688
Max@@ 0.9163937202828136
SE 0.8846480069266743
Sri 0.44936209222172724
amen 0.5422630081450878
dat 1
fahr@@ 0.41291272709230586
xi 0.8274281110194592
Civ@@ 1
anom@@ 1
ents 0.06868678041082468
Minsk 1
Sid@@ 0.7570355172779769
Thi@@ 0.4791758205977882
hist@@ 1
50.000 1
Eddie 0.8780695569977177
less 0.08819433159325457
sv@@ 1
İng@@ 1
106 1
Dou@@ 0.4591901112437605
Ple@@ 0.6337098782584704
did@@ 1
itch 0.5978828264320026
onne 0.28618827224901605
Berkeley 0.8835391509280122
Jin 1
Montreal 0.542271471630242
Nevada 0.7827737362396616
enta 0.24027767276063697
ig 0.25953298900815464
Mans@@ 1
cover 0.20363279577236368
Fahr@@ 0.3335235054119684
Graf@@ 0.9300692013949372
Hills 0.5926161770559505
Rudolf 0.6250011949593304
Sardin@@ 1
Tuf@@ 1
by@@ 0.5131501675090764
rates 0.41374376806086144
Ped@@ 0.9778621632256868
^ 1
andi@@ 0.5173185941472008
jo@@ 0.37880319850813987
low@@ 0.35392222329008305
umu@@ 1
über@@ 0.07730630516462848
Edinburgh 0.5810767873530119
Gon@@ 1
Ts@@ 1
Turner 0.7128625143206976
ikistan 1
opi 1
107 1
Bologna 1
Yuri 1
izo@@ 1
1857 0.5303238341315956
Ferr@@ 0.599717574184273
asto@@ 1
dine 1
enger 0.5951801359048342
post 0.14338111823035246
Hül@@ 1
edin 1
ule 0.33843846676597933
1849 0.5633674456774401
Hut@@ 0.7764456894980437
Italia 0.41734402899240597
Meli@@ 1
Solomon 1
loc@@ 0.12934070714698748
utt@@ 1
yiti@@ 1
38@@ 0.8025293925759819
atri 1
240 1
Dak@@ 1
Nog@@ 1
Gedi@@ 1
Maxwell 1
Plus 0.510388496432398
edral 1
1831 0.7386436250146552
Dini 1
Law@@ 0.4878827150003999
mani 1
ski@@ 0.47939152333802226
taker 1
Borussia 1
Cent@@ 0.5978373872309949
Nancy 0.7574670847936272
own 0.06777263349738523
tine 1
ende@@ 1
sl@@ 0.29627923643893755
yı@@ 1
Arnold 0.6962566784922957
Trav@@ 0.5865642544269678
codice 0.6124655035826927
Rost@@ 1
1785 1
Ken 0.8343979915227023
aine 0.2292876103806732
mos 0.7585977653623697
otro@@ 1
Hob@@ 0.8272375504413412
Ment@@ 1
15,@@ 0.8724004081083081
1826 0.8280957991252801
CA 0.44185848887693524
Mün@@ 0.6505229296420483
town 0.061275239365964476
ting@@ 1
GM 1
GPS 1
Gustav 0.7591886379257008
Kaplan 1
LC 0.9747366643409276
Ted 1
iliz 1
ī 0.8683938370259783
Baker 0.6457200442621783
Get 1
Jericho 1
Nice 1
Cape 0.43859977165169944
Earth 0.30663030906539884
Fed@@ 1
Hip@@ 1
Melbourne 0.3886735799439166
Touch 1
1600 0.9654169076022948
Churchill 1
Eva 1
Now 0.5755556567231015
Lynch 1
Stan@@ 0.8370202380167958
asp@@ 1
kor 1
nos 0.33030598513710596
ater 0.37984260071601816
emat@@ 1
1855 0.547078776018497
CF 1
Gos@@ 0.8020953190120714
är@@ 0.17229801346538468
108 0.9416693899402019
Alfa 1
Oda 1
1854 0.5446954492467906
Volkswagen 1
üh@@ 0.44823061951308224
Barry 0.6848389796532033
Beg@@ 0.4189743943913447
Shield 1
Ve@@ 1
dizi@@ 1
pus 1
Bour@@ 0.4526909851977264
Carol 1
Fem@@ 0.9471544059312018
ery 0.23001569323227236
lers 0.17109273721850463
lot 0.21609333671063133
25.@@ 1
Benz 1
Hell 1
Newcastle 0.8735599961400071
Sur 0.22591459453849544
ovich 0.9373484771759437
plasti@@ 1
sam 1
е@@ 0.11774828732143433
Wimbledon 1
kine 1
PP@@ 0.916325422985644
anal@@ 1
atsu 1
Orange 0.6060739479664908
alo@@ 1
Nex@@ 1
anam@@ 1
ical 0.06293078559519538
mm@@ 1
pedi@@ 0.9913428086666594
ünkü 1
119@@ 0.9905073117069649
Collins 0.7378056450131756
Isaac 0.8591101440333087
So 0.16342098995952448
Walker 0.517848604889313
def 1
esa 0.17181748571419056
ted 0.037860093863085774
eton 0.5119970075890157
Masters 0.6722599372764443
Sac@@ 0.5646194417774191
ations 0.025903125810834742
atri@@ 0.6887031918624742
old@@ 1
II. 0.32037112162484566
SI 1
Wood 0.5719698497359774
glu@@ 1
Artem@@ 1
Neo 1
Nero 1
Bez@@ 1
CH@@ 0.4526778411796529
mama 1
mont 0.2987308058015371
GNU 1
Nord@@ 0.17170108764366127
Orlando 1
aran 0.6338603164915666
nan@@ 1
Madag@@ 1
Yuk@@ 1
evo 1
ñ@@ 0.2859281655022954
Fern@@ 0.3950769185269315
Ptolem@@ 1
16,@@ 0.8772643485433445
24.@@ 1
BP 1
Cant@@ 0.5408331133634988
Claudius 1
Hall@@ 0.7887552754623249
ander@@ 0.42707758040898053
klin@@ 1
sm@@ 0.38845104824723065
Murphy 0.84342742992896
kaz 1
limit@@ 0.37519076841465715
onius 1
airi 1
aki@@ 1
etz 0.640805212451136
lö@@ 0.899016318830258
unk@@ 0.3610651212527053
As 0.04362078693740418
Buda 1
Viktor 1
bus@@ 0.23973250900031154
nam 0.3334438607982453
pant@@ 1
Cil@@ 1
IP@@ 0.7786325073360258
uro 0.6199924706042148
Ash 1
Cot@@ 0.4755013450992008
Rud@@ 0.6783921978305433
aios 1
sept@@ 1
tart@@ 1
Las@@ 0.6227237263416079
Planck 1
amor@@ 0.7828315586905134
ns 0.15807599915984644
osp@@ 0.5854252885765664
Ich@@ 1
adis 1
direkt@@ 1
fare 0.4214040406524052
Sym@@ 0.8541510001121646
agi 1
1839 0.6643715285413901
aline 1
etes 0.3839529214998816
kos@@ 1
leyen@@ 1
F1 1
Jorge 0.5451199114367045
Nept@@ 1
bri@@ 0.2929905087291773
ms 0.16064050307056285
uto 0.9387055681382142
Band 0.15675665175858147
Iv@@ 0.8873197086919855
Kard@@ 1
Shu@@ 0.8213788643908739
asaki 1
orf 0.8473550379966387
torp@@ 1
Ach@@ 0.3447661345208932
Barr@@ 0.43427544603266705
HIV 1
Mozart 1
Power@@ 1
1789 0.8440182641529965
Bobby 0.7867495194616608
Lec@@ 0.7051786803534114
Part 0.7419085397314993
ingham 0.7041303899731476
kore@@ 1
ods 0.25212624574494424
plo@@ 1
God 0.27478179011258447
R.@@ 0.6831779096514994
istr@@ 0.5470339243948112
sha 1
̣ 1
Gray 0.742933961240678
Rafael 0.6841849702688328
Tag 0.3538112797917662
isel 1
Kid@@ 1
ear@@ 0.26104244909526614
Hük@@ 1
Money 1
ado@@ 0.7429695996087556
alog 0.9004238964610835
sof@@ 1
ume 0.22440256790398813
Baf@@ 1
Corn@@ 0.5698153159763784
Gener@@ 0.3329073676770418
KO@@ 1
Spears 1
Toy@@ 1
head 0.08375965714102107
müzis@@ 1
nai@@ 1
Reb@@ 0.4911279792080514
Yosh@@ 1
aku 1
eman@@ 1
erer 0.5808932616498269
201@@ 0.7954309438191044
AO@@ 1
Camp@@ 0.34961135160310636
Vent@@ 0.7629993754667725
achi 0.7108056652264199
ellik@@ 1
Aus@@ 0.06541490478953552
Hunter 0.7126683074376802
Uni@@ 0.26480211796156333
cal 0.4092161527544227
omo 0.7126037380651067
osis 0.32961133215820543
pig@@ 0.8181609349553063
vana 1
Clinton 0.6974886341183925
Louisiana 0.5473885309242112
Wolf 0.6317689073578527
gy 0.5187885837437843
our@@ 0.2321870168944499
Klar@@ 1
Lincoln@@ 1
Rik@@ 1
Rou@@ 0.4872272366052197
SH@@ 1
Sport 0.3922584419957054
aul@@ 0.3878075401275432
yonel 1
down 0.07405352285540974
norm@@ 0.8523663341159929
Coc@@ 0.8177035040296612
Dani@@ 0.9960682824152453
Fig@@ 0.7618938103280564
Sco@@ 1
dak 1
gat 1
Kib@@ 1
els@@ 0.42608056824014834
igns 1
iya 1
1858 0.5168880165999657
vill@@ 0.580887792951401
Anast@@ 1
People 0.23279116797826524
ulos 1
üncü 1
AF@@ 0.6104782492221327
DO@@ 0.6913317695053878
Mayer 1
lon@@ 1
Cic@@ 0.9511076949808261
SI@@ 0.7742613295647213
ekten 1
ril 1
wan 0.4927690961159014
BO@@ 0.9342706242032622
Departamento 0.9281261235728205
Montgomery 0.9712314536978668
omb 1
sper@@ 0.7838106938293691
Ğ@@ 1
Sara 1
Sci@@ 1
atil@@ 1
illon 0.4830894090383406
27,@@ 1
Arist@@ 1
Vila 1
een 0.4463794608363541
heavy 0.2743208415331198
itte 1
Örgüt@@ 1
118@@ 1
Somerset 1
Valencia 0.6597091631707398
aker 0.34754334932773207
cap@@ 0.10431092971994559
XI 0.5964555523739271
isha 0.808336522427673
put@@ 0.4546173804431987
500.000 1
Petrus 1
Yan 1
ilo 0.5522491206756562
kek 1
ops 0.2467265614104161
arit@@ 1
dh@@ 0.3418625283448318
lock 0.4005417638559828
tıb@@ 1
Gau@@ 0.37387528181845164
Simpson 0.9563990157586039
zap@@ 1
Challenge 0.6105917987741173
EN@@ 0.9406074484775114
oney 0.9765698800151223
AZ 1
Gin@@ 1
Gren@@ 0.8492012582181581
Rut@@ 0.9843652830704227
trib@@ 1
1836 0.629328043399534
550 1
Barn@@ 0.6786597564938915
Drive 0.7717380544241025
Giuseppe 0.9952403433981925
IA 0.6673713275983586
akter 1
opa 1
style 0.08605523868680855
Iz@@ 0.7877070743525644
Lazio 1
1853 0.5530264594368615
4000 1
Edgar 0.9484358084558349
Putin 1
Tali@@ 1
radar 0.8211246478272831
0.1 1
124@@ 0.9588966654319107
46@@ 0.9858344757460226
Freder@@ 0.8732767476381241
Ves@@ 1
gn@@ 0.4110401620554478
Silver 0.5977084565565604
39@@ 0.8233452893567125
Honda 1
Nepal 0.8185990534543391
SR 0.3320630194483389
Sark@@ 1
nm 1
Bros 1
Cir@@ 0.564319046035524
ix 0.38823094805589875
online 0.3101671893267979
s. 0.6241246284200593
Castro 0.818952247976939
Denis 0.67107862013337
Larry 0.7960529288103088
Pablo 0.558314931611732
Roberts 0.7308314257748678
ayi 1
onal@@ 0.43326389024801276
Bül@@ 1
Büt@@ 1
lidae 1
Business 0.32620785369053723
Carolina 0.20333328590126656
Diana 1
Ernest 0.7183803468746357
IT@@ 0.6054135900892502
stab@@ 0.5947177589303396
sultan 1
→ 0.8671006591929787
Aran@@ 1
Chr@@ 0.94125701824665
Orleans 0.6024503330245901
Project 0.3709414676744223
220 0.8718580458853536
Brid@@ 0.641902793544739
Dö@@ 1
EA 1
Rosa 0.627932673974033
Yes@@ 1
auer 0.26810281838265243
ursa 1
Are 0.9677337028763621
Eve 1
SM@@ 0.980231071028701
Tyler 1
Calabria 1
master 0.23859967826224623
mg 1
temelen 1
200.000 1
Chart 0.5609760209013045
Hell@@ 0.9336575369983787
Lil@@ 1
Molek@@ 1
Sha@@ 0.7349812115848432
aliyet@@ 1
dou@@ 0.26887424437435337
zur 0.03104533834616178
ხ@@ 1
1851 0.5278851340794279
Jun@@ 0.727756020684012
Lorenzo 0.8643843863337671
ბ@@ 1
1845 0.5743770365314002
CONCACAF 1
NS@@ 0.4637477220873171
Roosevelt 0.8070680259901682
bli@@ 1
Aut@@ 0.2890497747690208
Blood 0.932119371092757
aro@@ 0.4694258231391683
isl@@ 0.5940213732097233
kett 1
Brah@@ 0.8117036543284628
Monica 1
aut@@ 0.20110735742654529
okol@@ 1
Flash 1
Syn@@ 0.42891841137904696
qui@@ 0.20878681561929188
ו@@ 1
Alex@@ 0.83060583712432
Apo@@ 0.7825985025367461
Eminem 1
Guatemala 0.7063463527179342
Jung 1
Online 0.7693949077294825
Rotterdam 1
Sans@@ 1
Sti@@ 0.4647423659771682
alog@@ 0.47426582020331853
anüstü 1
öne@@ 1
Jessica 1
Lik@@ 1
RA 0.4509271339527196
Total 1
Walt 1
Daily 0.5516507555894155
Rap 1
aru 1
kn@@ 0.24500331764647024
Arn@@ 0.5586347782188774
Express 0.4569656351826435
Veh@@ 1
İsp@@ 1
amel@@ 1
ias 0.5390511377610893
5,2 1
Aram@@ 1
Born 0.3200500857139163
günümüz@@ 1
1847 0.5590172569127254
Cameron 0.8962506302667244
Hardy 1
Tad@@ 1
alus 1
eto@@ 1
111 0.935870179725201
Hudson 0.6575241414897723
Jas@@ 0.8787144331991121
Joan 0.7072198267103069
Owens 1
Sov@@ 1
fri@@ 0.389065508321648
nete 0.6215395512383255
ond 0.2625290674340865
Di 0.9045091744442153
aut 0.24039265518271136
ofisi 1
Free 0.39350999534013614
Mussolini 1
Savun@@ 1
ˈ@@ 1
Hannover 0.6331594392630993
inho 1
1829 0.7142541831543475
8.000 1
Kamerun 1
ano@@ 0.8021181338384966
65@@ 1
Terry 0.7202404566255861
Wallace 0.8233105740522216
hou 1
polin@@ 1
25. 0.40867807109071225
Det@@ 0.4883233793471665
Parlam@@ 1
Susan 0.807485983527936
Wagner 0.7513086799741159
bud@@ 0.8305696327182959
eper 0.7104888371264703
frag@@ 0.3581256671814879
scope 0.6673820732630775
Force 0.1571330029377906
Mab@@ 1
Phil 0.6984099300775591
Rollins 1
kem 1
ković 1
rep@@ 0.2177585800816563
112 0.9382902879827802
Atl@@ 1
Lakers 1
Stanford 0.8471685385675995
direc@@ 0.20118500082209775
trig@@ 0.7660903170893745
Özg@@ 1
Cole 0.9425738399391984
Pier@@ 0.7499213928553025
1.4 1
Ig@@ 0.603674789530699
Pand@@ 0.9643841570944738
Slovak 1
122 1
Bang 1
integr@@ 0.4436056049079506
დ@@ 1
1815 0.5454797552942855
75@@ 1
Ltd 0.5302359931280998
Traf@@ 1
itar 1
kip@@ 1
ú 0.5073075614890299
3.5 0.9745507117661231
Khan 0.3479754629967141
Pag@@ 1
Peugeot 1
Pyr@@ 0.6960086586704124
Racing 0.4155496812131929
Sug@@ 1
bul 1
oman 1
Chir@@ 0.777420645487865
Note 0.6132150763842544
Sant@@ 0.6574093336234724
Von 0.08658853537739221
my 0.19639108769320468
Feh@@ 0.9276326365845203
Pok@@ 0.9497352376993473
Tai@@ 0.627028320757876
Tsu@@ 1
XIV 0.6197266519636717
atak@@ 1
ević 1
got@@ 0.3951652345937754
reper@@ 0.9608867887282708
tivi@@ 1
ā 0.7280103806903303
Avru@@ 1
Felipe 0.7312636526495213
Louise 0.5857677147139397
ayna 1
1837 0.5886683416929706
76@@ 1
Pist@@ 1
pid@@ 1
ér@@ 0.1071784727080892
D.@@ 0.7076456278969212
Senegal 1
ä 0.8854289425378732
ınday@@ 1
1846 0.5456558274348832
Abd@@ 1
Western 0.12361015852177067
Å@@ 1
Basel 0.7618322753174924
XII 0.6166288146322569
afor@@ 1
atum 0.7074381540326791
kle 1
leb@@ 0.5754381949959575
ology 0.07406815692287155
Bow@@ 0.408783635279449
Gall@@ 0.6897824017841407
Helena 1
Mahall@@ 1
Watson 0.8000132830856737
haci@@ 1
over 0.02321141897960174
sion 0.08375912141348037
22@@ 0.6489238154872156
Dennis 0.7584483946741314
Oh 1
Termin@@ 1
XIII 0.5335586548195547
bur 1
esis 0.3540242122956236
sch 0.17517498318977828
1700 0.9838197744193041
40.000 1
Cib@@ 1
Days 0.8541088431401952
Mom@@ 0.9237734804558763
Summer 0.17471828013305918
pet@@ 0.6053478387977862
Pra@@ 0.8680815035127487
Tag@@ 0.5563245239857448
Vancouver 0.5527232202343617
ams 0.17948352484289362
1530 1
Bob@@ 0.8661969681720868
Hog@@ 1
Peg@@ 0.9820571477357813
diz 1
viral 1
„ 0.014580089961686027
Asp@@ 0.7061288520050087
Germain 1
Micha@@ 1
More 0.38297681902013775
bor 0.6545682839587404
soundtrack 0.6991889477875083
urus 1
44@@ 0.9918211819097651
Forbes 1
Sup@@ 0.4290035389983378
Wild 0.6291615831138769
pod@@ 1
Myanmar 1
cre@@ 0.08272605210102751
dop@@ 1
islav 1
1812 0.5290807168595324
1820 0.45367208569915374
Ayn@@ 1
HMS 0.5717596917279311
Leeds 0.7470734393704241
Mum@@ 1
ogo 0.8924575840747014
Bella 1
Gom@@ 1
Inter 0.9495330456993205
Josh 1
María 0.21228547552719568
cili@@ 1
ár@@ 0.36732760613257637
Mason 0.8635323929059013
Tib@@ 0.7063162645676075
Woman 0.6872113483943849
İnter@@ 1
Lep@@ 1
SF@@ 0.9926906026846745
anes 0.38550360271411704
API 1
BAFTA 1
Never 1
One@@ 1
Plas@@ 1
vić 1
ř@@ 0.4300595114181017
79,@@ 1
Arch@@ 0.34858636973203827
Vista 1
taz 1
ы@@ 0.15986687852475506
EL@@ 0.9827070593130244
Ekonom@@ 1
Hr@@ 1
fab@@ 1
polar 1
uza 1
1844 0.5839640369197018
ID 0.8470888771752145
Na 0.9760792520367773
33.@@ 1
Beyoncé 1
HF 0.8614566317235153
burn 0.542131963073474
duda 1
kinson 0.8249541265683257
Patri@@ 0.4290219139498183
afak@@ 1
enges@@ 1
size 0.1579825574985403
68@@ 1
Adrian 1
FBI 0.9340810582174909
Michelle 1
ved@@ 1
yot@@ 1
27.@@ 1
And@@ 0.913533987404578
Bremen 0.6595997408738247
CS 0.5498035365813979
Princeton 0.9835822304120816
Ptol@@ 1
bater@@ 1
1.1 1
Emilia 1
Obama 0.7784468109850765
them 0.035091059996372125
Dick 0.7034284586241784
Did@@ 1
Gregory 0.7723618047573555
Nab@@ 1
dea 1
ots 0.11842238346715656
prop@@ 0.2438855558037922
Hub@@ 0.6724080603194442
Jur@@ 0.35248360331968753
board 0.12722404487196398
ferin 1
ring 0.18552345561892197
wick 0.5558879340407938
127 1
Abu 0.6524183610124908
BS 0.6648482967799457
ET 1
Lanka 0.5870466069236104
Lud@@ 0.8659087880178175
Maxim@@ 0.6390779937038285
Rangers 0.5951700253029449
fran@@ 0.4804911693239446
igg@@ 1
ograd 1
LG@@ 1
Pass@@ 0.3313687650948014
amar@@ 0.6451054176346919
astron@@ 1
feri 1
1814 0.572354379406977
CC 0.3936562410527099
cia 0.6731096558619615
imon 1
ub 1
114@@ 0.925279491620581
49@@ 0.7356803597051111
Tec@@ 1
akos 1
fte 0.659006333644255
Jamaika 1
adil@@ 1
bag@@ 1
ism 0.08015649814421276
Monroe 1
Saw@@ 1
arch@@ 0.1677857728760009
elop@@ 1
tho@@ 0.325548731617491
unv@@ 1
venc@@ 1
Krasno@@ 1
Mitchell 0.5823190312477396
Suzuki 1
angelo 1
auf 0.010009057947059872
grav@@ 0.23038672812334976
mix@@ 0.2942455058188967
my@@ 0.21499628961013553
uga 1
Çel@@ 1
oral 0.42774840668002573
Athletic 0.4949563973214652
Line 0.1910284336913953
ares 0.19224444084214992
cat@@ 0.13319185514523124
voy@@ 0.5286658661787106
· 0.04331967754454011
Felix 0.8385553990309139
Meksiko 1
Tottenham 1
Up@@ 0.5799489863475519
Athena 1
C.@@ 0.4378823121896079
Rh@@ 0.48399892642187364
Wall 0.6020840535888163
fit 0.30011456037582007
yac@@ 1
Ar 1
Evans 0.56622547521903
Murray 0.48448630937526743
Stark 1
iPod 1
és 0.024008606876585636
Hugh 0.6587485924274331
Nikola 1
act@@ 0.29991483303409877
aq 1
ous@@ 0.46579894792323434
LO@@ 0.7570271268892569
Leb@@ 0.4488668861546493
Leonard 0.7718154759785191
Maver@@ 1
Sullivan 0.7820874231816698
mail 0.5970172029391024
ory@@ 1
Jose 0.6399762788936341
uni@@ 0.19949151218418645
Bordeaux 0.7446765304647149
Medici 1
Vul@@ 0.6884219625872348
beste 1
dum 1
nini 1
190 1
England 0.07097825426400185
Kiss 1
Patent 1
Pun@@ 0.6892188564332207
cus 0.49366973386374746
mb@@ 0.3509103896399225
rif@@ 0.6003417395899198
Claire 0.9746998212017157
Pietro 1
m2 1
õ@@ 1
320 1
Cumhur@@ 1
Nac@@ 1
Randy 1
Survivor 1
Veter@@ 1
alem@@ 1
maj@@ 0.705166102272755
15.000 1
Adi@@ 1
ER 0.8860375871505871
Erik 1
Tolkien 1
bie 0.5476766414088009
ega 0.5271776663280422
29.@@ 1
Cou@@ 0.4404851507347177
European 0.0798143642068555
Ish@@ 1
Kafkas@@ 1
Nacional 0.14016127674686044
Valent@@ 1
Vid@@ 0.7261781678450412
erse 1
wen 0.6204002269054023
Brun@@ 0.5603573552537366
Palm@@ 1
ST 0.8233351238414333
bik@@ 1
kand@@ 1
tila 1
tle 0.31844985694846095
7.000 1
Politik 0.49738305941978433
Stor@@ 0.5473051823441231
Yale 0.7343852650687152
element 0.5948285938109477
etz@@ 0.2717908436044043
gerekç@@ 1
yoya 1
ě@@ 0.6091267889298637
Magn@@ 0.8979950624597312
Pant@@ 1
anot@@ 0.9131819737943778
atlan@@ 1
1821 0.5977598865429944
BT 1
Country 0.3269412248095914
Grim@@ 0.7648331508652827
YP 1
dist@@ 0.24149653878292335
fur 0.8909991226679836
hen 0.482626155025518
was 0.0017152989368421831
Beatles 0.879109596237642
Delhi 0.6029018862436943
Harrison 0.5710480513599598
Xi@@ 0.5930069291358299
mark 0.22358517287833166
tern@@ 0.3998001916689137
ș@@ 0.6806966428414792
Hindu 0.759833089392398
IF@@ 0.7252216542296273
Vize 1
chen 0.09274651283599686
its@@ 0.8376893612932497
pora 1
Andorra 1
Uran@@ 1
Vill@@ 0.32438356347036723
get 0.12091530890221876
neo 0.9371629832857047
App@@ 0.38325690119874256
Vali@@ 1
XVI 0.4318996491328768
play@@ 0.43856120680014926
wald 0.3327845336154627
én 0.418175179382985
GT 0.7296386398939156
Monte@@ 0.954800314762831
gard 1
zhou 1
57@@ 1
Pennsylvania 0.21002149624941
Rumble 1
Zak@@ 1
iret 1
55@@ 0.9325553113767024
Stuart 0.6603758270774297
Whitney 1
imar 1
izer 1
pH 1
48@@ 0.880490212837021
Bach 0.5483583565574108
Carr@@ 0.5962640618885573
Garden 0.4705919993665941
Mog@@ 0.9182218986105056
atis 1
gel 0.7532742931029429
hamshire 1
ib 0.9629830829413905
École 0.4035944841227158
Mug@@ 0.9074896899056647
Takah@@ 1
Yev@@ 1
aland 1
itus 0.8367604172389583
onis 1
uan 0.860684899309548
č 1
Alain 0.8354838360027356
Land 0.13882553445430415
anth@@ 0.3997432551475818
bria 1
ï@@ 0.16255244628713145
210 1
Armstrong 0.8634324444589389
Vad@@ 1
auss 1
gal 1
inz@@ 1
vy@@ 1
Campbell 0.47526571630426634
Ero@@ 1
Galileo 1
Oh@@ 0.8489486035339633
Tan 1
isch 0.0625505139586642
ór@@ 0.49934007030678224
Aff@@ 0.4855073408050743
GS 1
atini 1
imento 1
sala 0.7694864619452482
Electric 0.6256193996199502
Falcon 1
Productions 0.6863743587323146
Yıld@@ 1
ony 0.2571774649141004
try 0.16762625873298662
Knight 0.546292443587985
Spir@@ 0.6461622776148785
alist@@ 1
box 0.26579889796589573
ind 0.4887374194853598
zy 0.7807782492686277
ceden 1
zif@@ 1
1,4 1
47@@ 0.8366987395503486
650 1
Afro@@ 1
Burton 1
CO 0.5558363568905602
Jazz 0.3759620376938163
Jules 0.6723020058812911
Reform@@ 1
Suz@@ 1
aven@@ 0.9392059139559442
ishi 1
lime 1
odi 1
Asper@@ 1
Pus@@ 1
Romeo 1
eber 1
kau@@ 1
230 1
Bristol 0.5607094756403274
Cast@@ 0.523529109040253
berger 0.2672411277810533
olin 1
ush 0.34331941611124117
Bond 0.8825906459292799
Montana 0.7253500256194078
Over 0.3068238998913609
Porsche 1
Eugene 0.9481331508038326
Ralph 0.6563157872377313
Ronald 0.8565829800715017
akis 1
issa 1
parad@@ 1
rass@@ 1
xi@@ 0.30318901466384907
zek 1
à@@ 1
Fland@@ 0.8382540262211723
Mud@@ 1
Test 0.47106255784666917
della 0.8132768320505329
meti 1
1832 0.5629328848400802
Grace 0.6873315340082486
LP 0.42437270899532903
MVP 1
Nich@@ 0.6133317507106539
René 0.540330997583925
Sud@@ 0.4629888585213613
heimer 0.798249489408829
mul@@ 0.3071953886772638
Goethe 1
Nad@@ 0.9237923127964446
Zimbab@@ 1
igan 0.6643153543492079
Ç 1
Carl@@ 0.6123370691590466
Japan 0.09820721825201974
acan 1
band 0.05177448236735272
daf@@ 1
eu@@ 0.25977257179477364
iva 0.5221311748410474
sera 0.21996063404862454
Emily 0.9389531096046952
Fun@@ 0.5393805569412532
Nikol@@ 1
Timber@@ 1
Tin@@ 0.6740786682335911
cur@@ 0.08915493978884151
iger 0.14810611391203507
revi@@ 0.8465857915075359
tham 0.2765902326361758
Paolo 1
Viking 1
4.0 1
Dick@@ 0.6368427731900095
Sound 0.45048248970872834
pers 0.278762873547345
rit 1
wo@@ 0.17632551196519397
Haiti 1
Hard 1
Uganda 0.8082101992426254
tors 0.11832288755374788
28.@@ 0.9908490768027558
Campania 1
Of@@ 1
Secret 0.8325727552583531
amer 0.8258906448606078
ISBN 1
ubi 1
Portland 0.5156198703411433
ean 0.3500045208495076
lararası 1
olum@@ 1
Blu 1
Lucius 1
Rüst@@ 1
SG 0.6092890165223616
bius 1
ingo 0.8373560050337198
loy@@ 0.4804833414199488
Bayer 1
Hop 1
XV@@ 1
amus 1
inat@@ 1
kus 0.6546368769593237
ør@@ 0.8497423897703491
Delta 0.6673404536472298
Get@@ 1
Odys@@ 1
gang@@ 0.6837428492875866
phi 0.8431321869203457
ığ 1
Bank@@ 1
Bomb@@ 1
Caroline 0.6066813685452163
Mountain 0.29411639656475436
Mé@@ 0.23562218597606702
pit@@ 0.3339125337513704
see 0.08524230884307335
Party 0.07853112605225246
SL@@ 0.9379493821878218
AE 0.9416745875669912
Battle 0.16850696637106508
Foster 0.8395563781142528
Leopold 0.8971288362312315
Ricardo 0.7708720335475355
but@@ 0.23864944125250173
eg 0.6508863929706187
ien 0.10391017056637386
Dow@@ 0.45574000778146084
EM@@ 0.8631960628898945
GT@@ 0.7283788091147743
Gilbert 0.5781978605288093
Soh@@ 0.9396611668413136
121 0.9939758347966
330 1
Lus@@ 0.8207266077942906
gari 1
rimi 1
uzam@@ 1
Joh@@ 0.911054348783353
KO 1
Roh@@ 0.4852427494795006
bun 1
jili 1
ose 0.25061603681027206
prol@@ 0.623721823397834
KK 1
Soul 0.8113599844245777
Tari@@ 1
Zem@@ 1
kün 1
ling@@ 0.5042291589481503
yoy@@ 1
A1 1
EB@@ 1
ES 0.9283474204756176
Freud 1
Gn@@ 1
Malat@@ 1
Nicol@@ 0.7901942689587691
esia 0.475068054698199
iter@@ 0.5011036336426786
stad 1
Colin 0.8892265836599088
Mann 0.2808544614513484
Wall@@ 0.3900145885929409
Wii 1
epit@@ 1
pard 0.9762352192074194
117 0.9683902699724879
Jet 1
Ley@@ 0.9184016452696403
abri@@ 0.7187203385354092
andra 0.6361735593873628
oso 0.17274021725990762
Harvey 0.7487307456597687
IG@@ 0.8425398033447936
SB 1
dio 0.19972408881139303
fit@@ 0.6962327342153554
lokom@@ 1
piz@@ 1
thor@@ 0.37357960005347984
öte 1
Lamb@@ 0.880931224089727
Mav@@ 1
Sult@@ 1
neğin 1
oros 1
vic 0.6642279349914272
56@@ 1
kW 0.8181583885248004
oper 0.8478075493819088
Ō@@ 0.8385588898928641
β 0.663661157272311
Buk@@ 1
Burn@@ 0.9291841459487425
Bé@@ 0.4755341813825967
Cross 0.2632667074877303
Ham 1
Nathan 0.9245049211277462
Rib@@ 0.8105869488534024
Rig@@ 0.8761740310290471
Tür 1
Wyatt 1
ardo 0.8356260565145903
ekt 0.5147002294660996
seri@@ 0.46474693560353725
Ax@@ 0.8432967167806938
DI 0.8559484793162563
Dion@@ 1
Head 0.3591804106527472
Map@@ 0.6292204528935617
Stars 0.4715798422067988
itibar@@ 1
Heat 1
sz@@ 0.4813223638985159
Aster@@ 1
Behr@@ 1
CE 0.48641794027228463
Ce@@ 0.978002167364752
Over@@ 0.26483567958086085
Was@@ 0.5216905256050561
Wes@@ 0.38007293448266094
lake 0.292992979676005
123 0.9627131011159452
Christ@@ 0.3466857305263861
agres@@ 1
ernet 1
Four 0.2981464245068671
Si 0.21703591878342876
engeb@@ 1
BT@@ 1
Kō@@ 1
Opel 1
akab@@ 1
arina 0.9793926574055674
etsk 1
ites 0.11237275120388336
mük@@ 1
Arkansas 0.46798712107864676
Bull 0.8346240353631803
O. 0.6349663120428594
bridge 0.15762091790077512
fib@@ 1
onidae 1
Baj@@ 1
EM 0.8221301865340132
Julie 0.9221928660745795
Lopez 1
Yon@@ 1
dut 1
Beta 1
Deep 0.8626849193099327
Jamie 1
Keith 0.6504817806252161
Metr@@ 1
laya 1
Costa 0.315663717761396
Maggie 1
erz@@ 1
Instagram 1
Morrison 1
onga 1
raya 1
1852 0.44829845604789315
Clo@@ 0.7007602936303585
Leicester 1
PR@@ 0.6165880269477727
Raj@@ 0.25421322204541696
Rit@@ 0.7305090757027368
Roland 0.6951465343455416
Tik@@ 1
Akr@@ 1
GC 0.9748458082850459
Gond@@ 1
Mazda 1
Min 1
afr@@ 0.811543273954971
cus@@ 0.45577525762414023
servat@@ 1
Hang@@ 1
formes 0.32437444462015214
yaln@@ 1
Beau@@ 0.3397049558694075
Gang@@ 0.6933397789194417
Gazi@@ 1
HA 1
Hask@@ 1
Page 0.8514623138345727
Santo 0.4901967975565539
ahu 1
aqu@@ 0.20560896483938354
cid 1
EP@@ 0.8314580769091809
GA 0.8109046397184285
Rö@@ 0.534593144005903
Sweet 1
USA 0.12527515717597723
magne@@ 1
District 0.059673262255798214
Olga 1
Research 0.15384569333605466
Sheffield 0.759681440673677
ants 0.04300105660783044
embri@@ 1
eph@@ 0.4570003376967121
garanti@@ 0.8528851244395056
ilif@@ 1
manuel 1
onyalı 1
ovna 1
wich 0.6927850714293076
Buh@@ 1
Edition 0.7135571917216366
Got 1
Rein@@ 0.370597031442217
Ut@@ 1
Vakf@@ 1
tv 1
4,5 1
Deutsche 0.2792790928196047
Komün@@ 1
Nietzsche 1
Pseud@@ 0.6613571689389064
UI 1
put 0.1327452429526171
კ@@ 1
João 1
Square 0.34382290427731077
Sydney 0.2070168003200498
ammer 1
aves 0.20989276778966034
ged@@ 0.41816299168862114
lev 1
EL 1
Sent@@ 1
Zah@@ 1
aden 0.2763713894408748
etus 1
itis 0.8981226350502911
oslav 1
ía 0.043440445805800004
Christina 1
Pach@@ 0.7596753235200591
odon@@ 1
0.3 1
1.0 1
Barrett 1
CM 1
Christmas 0.35405515757362965
Dj@@ 0.6184899936114201
Floyd 1
PM 0.7449077666976762
gut@@ 1
habit@@ 0.2230086447111045
ix@@ 0.634939907628637
Lancashire 1
Nicole 1
inga 0.7306435291077588
ink 0.3069366581050208
istanı 1
rov 1
sekiz@@ 1
ump@@ 0.23899086095494784
1841 0.5133751265577127
Capr@@ 1
Hannibal 1
Hip 1
Ki 1
Nielsen 1
She 0.025132732840451876
Singles 0.3400247638494746
Wel@@ 0.30206937566904674
away 0.09456899950208382
odon 1
ès 0.20907425457559708
ć@@ 0.9632520242136714
Dub@@ 0.8605192922478041
aron 0.05083499453183048
ayo 0.44331783511970013
insky 0.7226799341228394
Cec@@ 1
Euler 1
Pho@@ 1
ibl@@ 1
trat@@ 0.47836375334382436
zus@@ 0.5143888862370113
Glasgow 0.4557315599545948
Summer@@ 1
orius 1
rama 1
Empire 0.13037684778725359
Monaco 1
Nazar@@ 1
Stalingrad 1
Stephan 1
aben 0.5061447648846493
ott 0.4232636625106206
rio 0.7552905485584359
HBO 1
IN 0.9992563453109985
Kay 0.9036546358675586
Klein 0.7550255927376618
ariz@@ 1
idal 1
skop@@ 1
zh@@ 0.955766698081111
256 1
Brooks 0.9288764439794965
Cloud 1
Elaz@@ 1
Palermo 1
Pascal 1
Reform 0.8972430378209414
Sea 0.21058170857038877
acab@@ 1
arat 1
bs 0.14366520598767069
kanad@@ 1
kisi@@ 1
oner 0.6589780416062653
67@@ 1
Ambrose 1
Dut@@ 1
Hüsey@@ 1
Ice 0.596905431556831
Julian 0.7833547145613735
Rob 0.8003357378023244
Sporting 0.9405851644981615
leton 0.5670976173429427
Atal@@ 1
Hein@@ 0.5986121247201279
Salzburg 0.8725215879518025
idon 1
117@@ 0.8206261957208532
DR 0.6068310493957332
Er 0.03133981798521596
Ho 1
OH 1
ael 0.8756681966533494
dorf 0.25583122103288397
entz 1
fav@@ 1
ر@@ 0.4314494343959122
Dresden 0.43530861405116733
seus 1
you 0.11776858282935648
Aaron 0.7547129156201385
Child 0.7267709550255065
Europe 0.06535760612456164
Luka 1
Television 0.3137666704624706
acy 0.12169431660082712
pio 1
ə 1
1843 0.5186029083620349
Baltimore 0.42068849525887936
Sno@@ 1
imar@@ 1
opatra 1
show 0.05439755117586053
Bahia 1
Call@@ 0.6070061086806451
Joel 1
Ket@@ 0.9950838716498178
Sophie 0.6797265421205354
gli@@ 0.5772947306112777
igi 1
uktur 1
1.5@@ 1
97,@@ 1
aliye 1
char@@ 0.1363911492387274
rail@@ 0.5998674086698229
ric 0.6903285244955005
rov@@ 1
sier 0.7382836803978599
Turk@@ 1
WWF 1
ace@@ 0.25169552163455006
ement 0.029697012482954324
melod@@ 1
out@@ 0.08060857116092397
ovu 1
sei 0.14892858604028075
1842 0.4949484711210914
54@@ 1
Bulls 1
Cohen 0.9036853925777811
Craig 0.6617721699871879
Erz@@ 0.5031725202511892
Fle@@ 0.36801565460994196
Marcel 0.6238200737850778
Parma 1
Sant 0.9753060618140669
adin 1
mali@@ 1
Allan 0.8417239231675192
Pik@@ 1
Wolfgang 0.4869886707946488
rest 0.1475326498035924
59@@ 1
Giles 1
andal 0.751740042436047
nio 1
1642 1
1787 0.9419139152812888
Brandenburg 0.6243722704452203
Harper 1
Mercury 0.957255624437086
Oz@@ 1
Petro@@ 1
Tour@@ 0.201260746320031
cell 0.2585450810444411
cy 0.30104099685002006
jer 1
pto 1
2.0@@ 1
Antoine 0.4388202615461615
Lom@@ 0.809773614141397
Weekly 0.7730122038860929
Yokohama 1
itten 1
kw@@ 0.29363039390204865
rati@@ 0.2093983357852192
0,000 0.36471842909238394
1833 0.5379022989200557
Alpes 0.5202169507314467
Core 1
Rel@@ 0.25667287954941825
Space@@ 1
Tiger 0.8232917719810418
aug@@ 0.427683563918024
doğrult@@ 1
eca 0.46587409083544457
eu 0.19122172722809908
radi@@ 0.20222610748869524
23,@@ 0.9684585336637596
25.000 1
Drake 1
Fars@@ 1
Jol@@ 0.9571553653867788
Rü@@ 1
Saur@@ 1
amii 1
aur 0.8968769725883627
mend@@ 1
nel@@ 1
ère 0.06465288999451087
і@@ 0.8867177983190379
Form@@ 0.5588634865813679
Himmler 1
Kyoto 1
esto 0.2004963014674054
oval 1
Lane 0.4435639289459959
Law 0.17062536293282285
MHz 1
Ud@@ 0.9674870050998338
ario 0.10051172185517292
asia 0.6932840831273229
esten 1
hut 1
Box 0.601719520484475
Shō@@ 1
Tao 1
Wolf@@ 0.6946674273162565
fort 0.12055268865737283
onist 0.5865910766122979
Humboldt 1
Kepler 1
O.@@ 0.8999515925960088
tier 0.17645505700214764
ów 0.2917318986001847
1838 0.4917880891723637
Award 0.07889520647629006
ROM 1
Smart 1
With 0.08774655344435062
demo 1
fren@@ 1
12.000 1
124 0.9165197807686026
Guardian 0.6631252041556983
Locke 1
Pearl 0.745774062801463
ern 0.05063218332897013
terminal 0.459652134792268
vit 0.5633110783770076
Anglo 0.6478842437153269
Antonius 1
BL 0.8210336950599566
Cat 1
Cord@@ 1
Et 0.8643031042554005
Riga 1
Say 1
Spencer 0.714359513192448
Toulouse 0.5925215492559611
ono 0.5026865702862062
tas 0.24621398906983172
via 0.09099071858947484
vul@@ 0.5254308415876215
116 0.9308201638053151
126 0.9126788560735398
Bard@@ 1
Birleş@@ 1
Kenneth 0.834812270191563
PR 0.6147729635985919
Stav@@ 1
alen 0.153075364736919
ebel 0.8403157830690311
lett 0.7929071185617685
ois 0.2284025636826988
rand@@ 0.5410381638061695
wat@@ 0.23421533312676787
İli@@ 1
Buy@@ 1
McMahon 1
Riley 1
SL 0.8927174088951901
ands 0.13934647211776638
cast 0.13381400878144026
hl 0.5855331936669224
tril@@ 0.7563637146976678
Classic 0.5308871265224266
History 0.04830017765050316
Seine 0.12576680883739735
When 0.06198897468459479
XX 0.2206261761709748
adili 1
ifer@@ 0.8262140255951373
ś@@ 0.5582516710068823
22,@@ 0.9888724991083947
Dob@@ 0.7786908582781504
Three 0.21565107542855882
amini 1
esh 0.4154635525978831
kund@@ 1
opsis 0.7622224713311216
sos 1
Ander@@ 0.7685365867791032
Dale 1
Dmitri 1
Johan 0.9741283373035362
Prom@@ 0.4515092963071289
anten 0.44138035815243293
40,@@ 1
Creek 0.17879106055017402
Springs 0.5954318597297482
Uş@@ 1
1790 0.6117219827991857
270 1
Kings 0.5451020798984612
Wu 0.7580611331683859
andinav@@ 1
büro 1
islam 1
lang@@ 0.2665587786815082
papa 1
ring@@ 0.7518144036066349
145 0.9844402788608922
27. 0.35145122805998574
Fisher 0.7895583604837724
Fritz 0.5323486823891908
Ster@@ 0.47296111014206127
Theodore 0.9929118340295109
con 0.007300734209692837
elius 1
finden 0.2185421312229299
motiv@@ 0.4439928651188713
netic@@ 1
ope 0.4227268656582129
plen@@ 1
Liège 1
OR@@ 0.8848616455175669
Yamag@@ 1
ô@@ 0.30202421498501814
ă 1
Eric@@ 1
Hed@@ 0.619633523308889
Nissan 1
analog 1
euro 1
pur@@ 0.14096975455240907
yek@@ 1
yst@@ 0.269227686730962
Everton 1
Granada 0.7885248030689814
Spr@@ 0.30276011132018593
Württemberg 0.5279395812855301
atha 0.7367428562685158
elos 0.6009623436766091
а 0.020762059490163746
113 0.8497491005271723
Blan@@ 0.4513443966050933
Mu 1
Off@@ 0.22225123800690794
encer 1
ful 0.10570173060250675
mod 1
otti 0.9715943368602187
zim@@ 1
113@@ 0.8474765419226858
Banks 0.9723465288697416
Ellen 0.8733553766884314
Limited 0.4658908633180265
Petro 1
ga@@ 0.8333212807453867
oon 0.3362690269670688
sisi 1
Jim@@ 1
Kis@@ 0.959194656104945
Lazar@@ 1
Luftwaffe 1
Sej@@ 1
ukta 1
26. 0.3251672301163938
fo 0.5283310063930956
hos 1
intern@@ 0.5866576984240336
itar@@ 1
kii 1
129 1
Benfica 1
Bismarck 1
Foundation 0.18482600247611644
Haft@@ 1
Ja@@ 0.6716720817508084
Nim@@ 1
Ring 0.566506109761185
cek 1
usu@@ 1
vor@@ 0.04884349460934161
280 0.9910812361996892
Gamb@@ 0.8766661543810974
IT 0.5215562785734613
Müller 0.5348840538353274
Send@@ 0.9039067124349002
Take 1
Vall@@ 0.7012088507858683
isme 0.1381816735990452
Emmanuel 0.7710093155072238
English 0.05552627334625292
G.@@ 0.7885809854529896
Gabri@@ 0.8058815006088398
Marion 0.878316011750122
P.@@ 0.6551824888225208
Rhône 0.696170626858289
Ronaldo 1
SMS 1
elo 0.42030094332444945
eson 0.8654036859916577
2500 1
58@@ 1
Janet 1
Nebraska 0.5993379578302437
Olivier 0.7953055696776957
Paraná 1
Vl@@ 1
agi@@ 0.5774914039071699
azaki 1
dırım 1
edia 0.8036744543306672
114 0.8540738403619432
Ble@@ 0.44538081109071076
Fior@@ 1
Hend@@ 0.776000648012745
Martin@@ 0.7779927970638199
USS 0.4693852596567141
XP 1
bistan 1
Dad@@ 1
Standard 0.40709520207906097
Unix 1
Village 0.3475626324398493
aniz@@ 1
hiro 1
kez@@ 1
1595 1
3.0 1
Bonn@@ 0.5455379516961725
Haj@@ 1
Kids 0.9484322172349949
Reichs@@ 0.27240572963375537
Side 0.6090272513033759
TT@@ 1
XV 0.3840164105253635
hici@@ 1
uo 0.6742817573355896
CO2 1
Ede@@ 1
Hos@@ 0.6966922738325501
dom 0.4433715288899875
idas 0.16492988086838073
sportif 1
tö@@ 1
wan@@ 0.2641001229357397
1827 0.6189510717349893
480 1
Heinz 0.6898561440710207
Manz@@ 1
olig@@ 1
oris 1
ė 1
ON@@ 0.5559383563761441
country 0.06123930264219814
elim@@ 1
ikawa 1
Erich 0.8012041294913786
Konservat@@ 1
Mikhail 1
Park@@ 0.6621995944383331
eks 0.7467203739760977
uel@@ 0.42081485344160474
Vy@@ 1
Works 0.3443160998437341
kiz 1
yang 1
Ret@@ 0.38556350225960034
afaa 1
Am 0.04637149886743702
Düsseldorf 0.5582772865441967
Lip@@ 0.9600358953927505
PC@@ 0.40710647851524573
Schumacher 1
116@@ 0.8173179271030354
Agr@@ 0.4351461185965235
Blake 0.8024012181100783
Chuck 0.9318624835942197
Forum 0.5943724327398529
Fuj@@ 1
Heavy 1
Jeremy 1
Kro@@ 0.5990727852197171
Nina 1
Wi 1
endir 1
ft@@ 0.7009990016848052
melan@@ 1
meteor@@ 1
ofi 1
sta@@ 0.9001142671932186
è 0.8428025635754364
Atlantic 0.2366659438805056
Chaplin 1
Crown 0.4538925391677354
Steph@@ 0.6559460324789899
auri 1
131 1
18,@@ 0.7274697430046718
Planet 0.9406112559598594
Woods 0.861340465844545
alab@@ 1
edeyse 1
fur@@ 0.24378534687477638
hp 1
market@@ 0.9327513167383049
mont@@ 0.35272011486442223
mos@@ 0.22996044227859563
sana 1
43@@ 0.8841371145704584
Bub@@ 1
Century 0.5323868666358648
Edmund 0.7508763761117284
ICAO 1
RI 0.840458067750386
Robbie 1
Salticidae 1
aler@@ 1
atos 0.297977984205955
cuy@@ 1
folk 0.4102617642722674
lop 1
tat 1
64@@ 1
CNN 1
Come 0.9275250267877413
Fuku@@ 1
Ler@@ 0.7113558513581648
Mount 0.20652026597322043
Vilnius 1
Werner 0.5168542912991645
abor@@ 0.27198148240910197
aden@@ 0.5961260471902569
aldo 0.7545765149874578
eza 0.5037905692671486
gate 0.3819730178879473
odor 1
260 0.9762999560475097
Cheshire 1
Essex 0.7349908574320025
Pete 0.7765216679052174
SN@@ 0.5889226190405317
Todd 0.771684103131544
iv 0.685658732611095
Ferguson 1
Torres 0.7372477562517894
anka 1
into 0.014798692302537355
ofil@@ 1
past@@ 1
rab@@ 0.39273443760457494
than 0.023116937832219023
CI 0.8049411936218485
Metropolitan 0.4029154742757536
core 0.26823729943653585
formu@@ 1
jede 0.8958113584956008
1808 0.5843631532680558
78@@ 1
MW 0.822061719282536
Marina 0.6594054196591509
McLaren 1
Neu@@ 0.1457454378686136
agna 1
cop@@ 0.17873553979394666
luc@@ 0.800268935115295
Fe 0.6001421688690133
Inc. 0.2902093393541044
Rhode 0.807122958078629
Service 0.13065482935051903
ampton 0.6330754119828862
idge 0.41533028636567115
kilome@@ 1
How 0.5958625219797344
Hz 1
Milton 0.8758610701220123
aea 0.9143800181312801
chin@@ 0.3746792509590601
coin 0.8735483860553677
romanti@@ 1
э@@ 0.056426731846153946
Thr@@ 0.6951749623942819
Tou@@ 0.43979179037294225
Merk@@ 1
O2 1
lion 0.2517714414988976
tun 1
web@@ 0.54513812108751
1.8@@ 1
Ball 0.5089884130384751
Berry 0.876885138327587
Bridge 0.2307021909725884
Dre 1
alternati@@ 0.5803743529147909
bizi 1
Basketball 0.3675459809374721
Bennett 0.7128794793910219
Eh@@ 1
Magnus 1
born 0.02237308042008205
cari@@ 1
deren 0.10887603137546543
elli@@ 1
patent 0.9381968962470505
veter@@ 0.6767694300914011
22. 0.3130992972571602
Kid 0.9973535848230282
Technology 0.24446605792432874
Virgin 0.552682056337744
akov 1
petrol@@ 1
trans 1
1300 0.9383858236085552
Blues 0.44156052483107744
Spiel@@ 0.19227479387559407
Talk 1
kupan@@ 1
ols 0.1445280514948396
oug@@ 0.3003249330243141
unt@@ 1
ál@@ 0.4855242181223616
1400 1
300.000 1
Ear@@ 0.38374190379441486
Fried@@ 0.4519733370967178
Golf 0.5821472382442672
Lomb@@ 1
Math@@ 0.6197650009138436
Oli@@ 0.5599434187565495
Sa 0.17118079502608602
Site 0.7578340733218666
Sund@@ 0.5926418241816205
Vod@@ 1
Zab@@ 1
sea 0.10470907551965795
ux 0.24208617075544628
118 0.9211650579988613
1786 0.9757497706435203
Io@@ 1
Nun@@ 0.9296237147186885
ovsk 1
sec@@ 0.10427080750407892
vu@@ 1
Caesar 1
Friends 0.6772600994476423
Habitat 1
Hart@@ 0.5637323920919378
LG 1
Odessa 1
VA 0.5560258996818446
hu 0.8175308862710989
programa 0.2497172705453516
ruz 1
uj@@ 0.8741727862556435
Franken@@ 1
Ivan@@ 1
Jake 0.9646433137066598
Kingston 0.7916462808181051
Kne@@ 1
Us 0.8334161129857207
Wesley 1
eten@@ 1
ograf 1
trum 0.4584935674663875
Are@@ 1
Augusta 1
Cun@@ 0.9597417356471655
Córdoba 0.5684503645697794
Dame 0.31147597832201934
He 0.006498990763390941
Luigi 0.9978205400186042
aft 0.24846037440428204
ecus 1
jana 1
vari@@ 0.10062227519273767
App 1
Rog@@ 0.6077562331451354
TE 0.7430426499978586
adia 0.7991583752885472
berto 0.7557695534687847
führer 0.4417972917611674
karahisar 1
wer@@ 0.101172750674748
German@@ 0.5441823401875717
Glory 1
Monster 1
ball 0.13977677761054766
edel@@ 1
gios 1
harmon@@ 0.3826397170240917
hib@@ 1
Again 0.8480604986344094
Levi 1
Miss@@ 0.4925476938206671
Reed 0.7321588501487976
att 0.6234608785837468
Fok@@ 1
Jong 1
King@@ 0.515490889294894
Sophia 1
aku@@ 0.9652777426606457
enton 0.5689700585209267
kham 0.9169192322975107
sponsor 1
31.@@ 1
Major 0.17386346434067051
Palace 0.37545049982357676
ahl 0.3361380726003719
eal 0.6973376429323116
haus 0.18700624122620818
insk 1
1.6 1
1.7@@ 1
High@@ 0.349659129842044
Hill@@ 0.6143063085324325
Mau@@ 0.3732729145970655
Naf@@ 1
court 0.0800564572885475
ionale 1
lier 0.21120591015427598
polit@@ 0.6765449127329074
ril@@ 1
გ@@ 1
1806 0.4919725973358764
Bora 1
García 0.349016397569216
Pilot 1
Stevens 0.7386939272330579
ems 0.33683487763866043
mond 0.533739949252268
pri@@ 0.16344141184689295
ticus 1
Bern 0.7161589299262019
China 0.0655905667465204
Cran@@ 0.6758220902525848
Sing@@ 0.3889656439955136
trick 1
ufi 1
ört 1
Gene 0.8379274555272399
IF 0.7459070355505661
Karen 0.8983637110212548
Leone 1
Mozambi@@ 1
ally 0.02965733729107115
ape 0.7234409995177962
lies 0.10438200350561407
log 0.9677016444797782
oti 1
ping 0.34422765574139025
zah@@ 1
ös@@ 0.6238704696272153
1810 0.49653353757954044
Alexandre 0.46306138340188535
Dark@@ 0.999895765068624
Wanderers 1
ste 0.1071884676950512
AI 0.6860920296358531
Airways 1
Ced@@ 0.8789344963756914
Malmö 1
Motors 0.8766132105600949
Oran@@ 1
angi 1
aos 1
asse 0.20286825982784812
egel 0.7301356517757599
tit 0.9489691940244834
165 1
Ba 0.489062239690426
Connor 0.8203374254613431
Kiy@@ 1
Lyn@@ 0.8314769955726603
NT@@ 0.7723922160061157
Swe@@ 0.630188809430239
bei 0.013795979172706599
etime 1
DR@@ 0.9075077533494755
Kamer@@ 0.9657839865302507
Laurent 0.5174645764296605
Lille 0.7933446566391077
Metallica 1
bugün@@ 1
ican 0.27811782761184
AV 0.9156164044117207
CPU 1
Tang@@ 0.8193671186404795
Tesla 1
UV 1
agram 1
allo 0.5968402622898931
andal@@ 1
bezi 1
diki 1
kari 1
ński 0.7997134519369399
Chan 0.975173271960491
Emin@@ 1
Jesse 0.8756105413061805
eko 1
otr 1
sia 0.593649558417651
1.500 1
Deportivo 0.6955996933596392
N.@@ 0.6314987422727144
cer 0.32666432361322295
emo 1
ental 0.17048491929270643
facto 0.8298222676424235
Dram@@ 0.8814542795225184
rid 0.4575206242606977
ısız@@ 1
DH@@ 1
Dante 1
Nir@@ 1
Put@@ 0.6538473896643738
Taz@@ 1
Test@@ 0.5808502847275765
Voice 0.7168493886684763
Wak@@ 0.6046929833033413
idan 0.8870011227266901
pent@@ 0.543091861737695
yed@@ 1
Alf@@ 1
Cus@@ 0.4740331668062132
Jag@@ 0.4809364593281481
Strasbourg 0.7500652687254119
Wy@@ 0.5210728693478144
Zap@@ 0.935220577948528
anni 1
com 0.5962479286054264
endr@@ 0.4409955096535815
ić 1
robot 1
tie 0.24326004663972486
Call 0.803500623738294
From 0.06616909278026613
Wells 0.6163868891852607
dor 1
giz 1
jiang 0.8311076176744684
roy@@ 0.6003549767349192
132 0.9604733974454831
155 0.9411253671837823
19@@ 0.6260767869704911
Age 0.3751301954468877
Beautiful 1
Disk@@ 1
Klinik 1
Köl@@ 1
Oro@@ 1
Pall@@ 0.8896688847985728
Rogers 0.5416727130761464
Spo@@ 0.6247241350118382
Theodor 0.6877105595002402
Zeh@@ 0.8072672733830254
egem@@ 1
ingi 1
oft 0.20552216446911248
orus 1
sedi@@ 0.7059527003725
1813 0.4910319276340186
Children 0.3511239038757672
EX@@ 1
Fati@@ 1
Owen 0.6869599511096993
Roth@@ 0.7874048343079662
Set@@ 0.9427037292151635
Siena 1
ank 0.6655061621971442
apur 1
cun@@ 1
enton@@ 1
ive 0.3862391509678891
tius 1
vern@@ 0.2237639563598501
ستان 1
Bass@@ 0.4007578732253882
DA@@ 1
Dar 1
Hubble 1
Jon@@ 0.7078080797427576
Lil 1
Norte 0.30655965577802763
water 0.0482536368182121
Eduard 0.7321685112861828
Proc@@ 0.48415594798493355
imoto 1
tekli@@ 1
175 0.8504867764202939
66@@ 1
Cartoon 1
Chil@@ 0.3182879436120413
Thor 1
batt@@ 0.18913367162837263
mart 1
1.6@@ 1
Agri@@ 1
EC 0.5182308072875934
Fall 0.25435379966189436
Samp@@ 1
last@@ 0.5519547894289568
libre@@ 0.8811365106432502
liga 0.20979710301599006
naf@@ 1
1819 0.585380282760261
Alber@@ 0.6165115531435781
Camp 0.3674715893771972
Kahraman@@ 1
Machine 0.6770940687340589
Mine 0.8800395189453575
dri@@ 0.2660909676254146
nis 0.17875680937510138
ossa 1
147 1
Bib@@ 0.6954851441469787
Cob@@ 0.46377618596468934
Fener@@ 1
Piz@@ 0.9838408624949738
Powell 0.751874829507913
Software 0.4857203229607228
bars 0.7089674226768704
Canada 0.05785381710099621
Gig@@ 1
Melodi@@ 1
Place 0.3517658526806631
Soc@@ 0.7656189074936431
debil@@ 1
rus@@ 0.44101094118177137
DB 0.7240622918510241
Deh@@ 1
Duke 0.21275324351208197
Gug@@ 1
Martha 0.7418279570894758
Poc@@ 0.8721747901137795
Vig@@ 0.7185360404157237
Whe@@ 0.47086844661637733
atu 1
frey 1
inhibit@@ 1
23. 0.30621727091091605
Aragon 1
Here 0.4218893968715941
Nakamura 1
dete 0.28167539800362607
sag@@ 0.644611192427783
vert 0.40659640527374963
Butler 0.5759905371660041
Gibson 0.7596676005276202
III. 0.44386398075848865
Lun@@ 0.621147242103989
Neville 1
Phillips 0.618870369733074
vers@@ 0.13385523807364072
19,@@ 0.740182243765513
Amp@@ 0.8045113720453888
Dy@@ 0.519450404319858
Lal@@ 1
Seth 1
c. 1
yalist 1
yr 0.8596295626789261
ր@@ 1
Greg 0.6493191314522067
Heaven 0.9266223394708935
Lynn 0.9100198108562015
Seven 0.46397809977714316
Stan 0.976164523957456
acker 0.40889439664773997
iris 1
yes 0.8689186112617174
24. 0.30111620213141943
Angela 0.9906969784850972
DF 0.5849402325812284
Nickelodeon 1
Un 0.0659080706666116
bes 0.19813658032383244
phus 0.8478550995847529
wil@@ 0.3510996367028822
ę@@ 0.39585131022730824
1793 0.49998777742574163
Anth@@ 0.6688952086253503
Cay@@ 0.9338061271358217
Clarke 0.6224492754690913
Heli@@ 1
Hughes 0.5729009469979373
Reich@@ 0.2272736026085209
ansen 0.9999635836840881
bara 1
gani 1
quot 0.5316117084105499
Alpha 0.6912317013774231
Basket 1
Bolton 1
Mills 0.6396040413987963
egan 0.8391689467826099
falt 1
stadt 0.15856262890233735
Ain 1
Hert@@ 1
KV@@ 1
Neill 0.8968650812562039
Rat@@ 0.35592099491625434
Thom@@ 0.8570889450137013
bia 0.7197934686925136
cc 0.9768179251771781
izu 1
minim@@ 0.46351211341334236
nin@@ 0.467998874401896
pac@@ 0.879656309569026
trof@@ 1
CL 1
CM@@ 0.6680019337447697
Hig@@ 1
NT 1
Pug@@ 1
Water@@ 0.4137387681347526
kula 1
s.@@ 0.9445950610069861
tani 1
ural 0.4667857746634696
wa@@ 0.24339170998063428
Cam 1
Curtis 0.7831202855172003
Dat@@ 0.5848069338186969
Koch 0.8536626625797554
Québec 0.2787519079198693
Rotten 0.9417494263369637
Shir@@ 0.6903331513069877
TR@@ 0.9032855683771939
iker 0.17840126901283634
nas 1
ucci 1
zum 0.01473005809225123
119 0.9601534805131938
133 1
Brow@@ 0.7013023576408104
Fabr@@ 1
Gaius 1
Guar@@ 0.886845826003922
Kag@@ 1
Keh@@ 1
MR 1
gens 0.3992464543831128
1792 0.5612651108483936
20,@@ 0.7115848359571368
737 1
Cim@@ 1
Jor@@ 0.7301808057488937
NET 1
atra 0.8028643181760784
evich 0.9379923234581748
hasara 1
irini 1
zav@@ 1
Edwards 0.5382973412777569
Flo@@ 0.4639392930787774
Giro 1
Gle@@ 0.3905995476958266
If 0.1379948323170092
Jo 0.8479570717375633
vie 0.10069278235547421
53@@ 0.955376597525566
After 0.024202344202383253
DL 1
Explorer 1
Mao 1
Westminster 0.6730399336553541
Zin@@ 1
a.@@ 0.4287373107244585
aia 1
ulia 1
1453 1
26,@@ 0.9011246980988333
GE 0.8454478269066086
Lima 0.4483432654116725
Now@@ 0.577151080624626
Systems 0.3955952239656462
Will@@ 0.35013917354435076
nikov 1
peri@@ 0.38402403135835395
Bradley 0.7976071001054104
Dami@@ 0.8759662912638876
Fall@@ 0.5513544858935713
K.@@ 0.9686276943625906
Mask@@ 1
Meng@@ 1
Tru@@ 0.711016621302836
Yang 0.6772105983238331
978 1
BE 0.653767463535107
Mind@@ 0.558544172446121
afen 1
ion@@ 0.26122796244970314
Duf@@ 1
ML@@ 0.7135419009307824
Mail 0.904555459739385
Queens 0.7493535180987034
Rep@@ 0.517450676927218
Rovers 0.7898325444265263
Viol@@ 0.38314488229440974
Wade 1
ws 0.14687376269194877
شه@@ 1
850 1
Angelo 1
Kobe 1
Nek@@ 1
Ra 1
Ron@@ 0.8253198281661176
Schmidt 0.528670140091094
Vu@@ 1
king@@ 0.7473028693491275
mp@@ 0.2356995964963091
opp@@ 0.5452148835500037
1825 0.47990869366846683
Cromwell 1
César 0.568505781545455
Hud@@ 1
Sergio 0.8719291596093766
anthus 1
bis 0.011706087451986208
market 0.1155968466692553
ode 0.25328721268509735
ouard 1
ozo@@ 1
uku 1
Buck@@ 0.5852769530118437
Emil 0.7708952569212396
IATA 1
KB 1
Kalk@@ 1
McDonald 0.8637610079882589
WTA 0.8895269009612452
Wellington 0.5739299655608857
ennes 0.15329536914651082
ostr@@ 0.7311024728214212
ph 0.4995169089692852
sons 0.14238263399053547
Brad 1
Giorgio 1
Hey 1
Nij@@ 1
Novgorod 1
Review 0.3783568306213885
berg@@ 0.25216671915837513
nano 1
star@@ 0.2713053333045755
Airbus 1
Gut@@ 0.41506545702799486
Honduras 0.7154363848335352
Jin@@ 1
Wang 0.4689305236158401
brand 0.2347499781479514
lane 0.4509995247569197
sley 0.5841927447906827
3.0@@ 1
Diamond 0.6974244229772683
EC@@ 0.6446322672758396
Ent@@ 0.21075528548579056
Linda 0.7514514424124753
López 0.4013948047265672
Prof@@ 0.35425051915241496
Titus 1
erb@@ 0.5638604074187773
terti@@ 1
tet@@ 1
Memphis 0.7284458439787899
SK@@ 1
Stur@@ 0.5500705486692582
Yarımad@@ 1
Yu 0.8525832697559782
cape 0.6031685361261508
denk@@ 1
islam@@ 0.8264935563963384
performan@@ 1
ventr@@ 0.8556484945811557
ziti@@ 1
ò 0.7078880074581392
ո@@ 1
365 1
Atmos@@ 1
Mir 1
Net 1
Sally 1
aragua 1
dad 0.3673847562684336
neri 1
nier 0.21346994074788783
orit@@ 0.6619355854554788
pu 0.36865562411153374
А@@ 0.03559563120107363
Dair@@ 1
Dud@@ 1
Edwin 0.793723665115761
Grey 0.5981776037198221
Wars 0.4759999517358727
Weimar 0.8310892246335464
artisti@@ 1
ather 0.2583730458701775
pov 1
Brest 0.9735238544593133
Dru@@ 0.3601018431620522
Fit@@ 0.9072589328836927
Gregor 1
Jak@@ 0.7385784542335679
MD 0.621729648062889
Rac@@ 0.5431336517774706
Them@@ 1
blog@@ 1
enten 0.16430507379529732
grad 0.8684818299032058
poly@@ 0.18778171660174697
çevrim@@ 1
152 0.9602277893574899
2023 1
González 0.42119103165199195
Waters 1
iscus 1
lop@@ 1
pool 0.31931291772407444
380 1
Brig@@ 0.3011160239856145
Devon 0.8721981384410903
Ellis 0.7358821803474246
Ji 1
Provence 0.6277228031273493
ache 0.15267409251759056
oides 0.4868077710295307
wh@@ 0.10263228485035819
0,5 0.7370964937530585
Crystal 0.8038376074286916
Grav@@ 0.7168821868159143
Lois 1
Rhodes 0.8894039043706536
Shaw 0.6192545168099183
aud@@ 0.25400821764480386
zit@@ 1
2.2 1
Aud@@ 0.6647461469668834
Chase 0.751885389116912
Roll 0.8206441010086076
omy@@ 1
sonr@@ 1
tive 0.06239581789465563
zani 1
ს 1
1804 0.5829653293510553
inas 0.16642538738552515
ores 0.08394465315056526
Ök@@ 1
América 0.272179664088942
Glass 0.9354570291150776
Hotspur 1
Kurtul@@ 1
Sod@@ 1
Under 0.16797272572816144
azu 1
body 0.07418069283649639
deg@@ 0.6697786777958973
э 0.2145871836759477
Lic@@ 0.42336760900385406
Lucy 0.704797421499691
Pavel 1
Plin@@ 1
Song@@ 0.6818986951385156
ards 0.10600326037486424
bell 0.6905294250160436
gram@@ 1
icz 0.8513115283428383
ingen@@ 0.638791289914379
life 0.02674479361812017
poziti@@ 1
yeon 1
yeong@@ 1
1.4@@ 1
Fac@@ 0.2810247003531021
Jump 1
Warriors 0.825990923593388
blues 0.6724089575302213
dus 1
tos@@ 0.7672366947242841
146 1
1809 0.5339994359959163
Bill@@ 0.5917179006303822
Britney 1
Fou@@ 0.8201427801834356
Miles 0.6862022184543783
Tara 1
Tob@@ 0.8387303228780448
sut@@ 1
х@@ 0.062324341200734795
1801 0.5101320065569397
1822 0.5255402467964297
Fid@@ 1
Hopkins 0.7965202834594114
Weber 0.6789941749135571
dong 1
heri 1
otte 0.42233386946216367
Á@@ 0.32191055772520605
Celtic 0.6537507155800638
Cornwall 0.9201336482132207
Covid 1
Faith 0.9136631270691814
Ist@@ 1
Klaus 0.6049572213692865
anova 1
golf 0.5553585717748726
ovsky 0.7620763854830445
Ars@@ 1
Jam 1
Kamera 1
MV 0.8226021323090759
Schalke 1
kali 1
wn 0.20254778930901102
Kateg@@ 1
ead 0.4529479830200526
hij@@ 1
lands 0.11121423235157844
sah 0.4661992920414618
yün 1
1818 0.4810605464343015
Denver 0.5265133097193263
Format 0.8761837091052191
Future 0.5450048859976482
Garr@@ 0.5780979335723873
Rita 1
Sound@@ 1
Verg@@ 1
mert 1
1.3 0.9392229753538556
74@@ 1
Key 0.5758587425674236
Lot@@ 0.3708213880078315
SQL 1
Tu 1
Youtube 1
Bid@@ 0.9665794187911096
Eas@@ 0.5100726804459274
FT 1
Jr. 0.5246231438692036
Nig@@ 0.562576497836005
Sut@@ 1
ual 0.13473988904126513
Fourier 1
Trinidad 0.7133823854976032
black 0.09898548481371465
čić 1
60.000 1
Alliance 0.30972363872945863
Lju@@ 1
Spart@@ 1
act 0.07747903693693758
1816 0.4834792865302516
Alonso 0.760245249249556
Dmi@@ 1
Fam@@ 0.6160728308178426
Karate 1
MT@@ 0.8976290473451027
Nob@@ 0.7332377793648858
Refer@@ 0.5431489424374408
Val 0.41446961684247274
kata 0.8544065891039598
lec@@ 0.16014261135198124
nota 1
ruf 1
1807 0.5411269855800627
Ass@@ 0.4094813243769423
Blair 0.9119135167571694
Gires@@ 1
Lati@@ 1
Sussex 0.703763829974512
Trinity 0.4731700027619258
Year 0.1368950729974822
aan 0.7895423265630023
auch@@ 0.3923846473930658
emon 1
Chester 0.6942390742984371
Field 0.20466561835985778
Hier@@ 0.38897872443854065
Kardinal 1
Tower 0.3640543417372202
Trans 1
ilia 0.6295947895915228
oud 0.2664474887380189
ás@@ 0.4101704823409162
CW 1
Hez@@ 1
Interactive 1
Jeffrey 1
Scot@@ 0.44194804627110656
cestershire 1
elis 0.7883694117499846
itas 0.3195826806917415
navig@@ 0.65595559974633
uel 0.34607492502896675
Bang@@ 0.6888734958114652
Champions 0.2825450816793107
Coupe 0.20445651145563176
DM 0.6108184296499298
Hope 0.5020883875995541
Tram@@ 1
bah 1
erh@@ 0.30229384173634366
mara 0.9133784760599809
qua 0.1443008826509045
ras 0.3431592224782663
sten@@ 0.5699243711754963
144 0.9539318114481101
Burkina 1
Eli 1
Krem@@ 1
Lub@@ 0.6380092959194414
Starg@@ 1
altar@@ 1
law 0.052854722501743674
Đ@@ 0.296639514964604
Anatom@@ 1
Clin@@ 0.5108568404185311
Joey 1
Myr@@ 0.6825600428660505
blog 0.905535644800533
dog@@ 0.435685817817403
icius 1
yel 1
Alp@@ 1
Beethoven 1
Bengal 0.5724724060238022
Lancaster 0.7964075965874287
Lucia 1
Ward 0.3948561739539667
alta 0.30650977540234253
nati@@ 0.3704833219952749
sander 1
ț@@ 0.67459241574048
Capital 0.35550630718544685
ushi 1
Castle 0.20537909322212514
Guy@@ 0.7723286821827
alom 0.7501692957832511
asis 0.31790050897426614
flü@@ 0.5488323167291229
kiewicz 1
sman 0.5118570077459165
Atlantis 1
Chal@@ 0.45216394373163066
Joyce 1
Marilyn 1
Maximilian 0.9406797607976379
Rain 1
Sach@@ 0.3233459979437257
Stef@@ 1
Xia@@ 1
bron@@ 1
chus 1
ovic 1
vs. 0.5207803099359338
win@@ 0.3954156444749295
Adobe 1
Björ@@ 1
Carmen 0.5609287541611009
Eden 1
Game@@ 0.611344372982265
Holland 0.4892838275810428
Marc@@ 1
Metacritic 0.8526066974734019
Thunder 0.9998564588020586
Tog@@ 1
amon 1
cim@@ 1
ial 0.15865160017497065
iton 1
mRNA 1
nim@@ 1
nov 1
spin 0.5790868802529231
ture 0.10103893939470852
1824 0.469788732559783
Alc@@ 0.8704864699049901
Alexand@@ 0.5437870918576903
Po 1
Titan 1
Waffen 0.893855371174391
Zag@@ 1
asc@@ 0.1614397072863275
ense@@ 0.36197743504105495
olağ@@ 1
Bati@@ 1
Desp@@ 1
Haus@@ 0.2133673508373573
Ou@@ 0.3668459730334393
Vladi@@ 1
anton 0.941003779792707
dej@@ 0.7157122088844833
endis@@ 1
138 0.9752366378587141
Cry 1
Gill@@ 0.690913828323659
Hitchcock 1
Rho@@ 0.8369823131262482
ign 0.4454267923832363
neği 1
oll 0.31415822917946307
176 1
199@@ 1
77@@ 1
Atom@@ 0.8443240932524145
Bergen 0.63532975945633
Hanna 1
Heter@@ 1
Patricia 0.8362242127706574
VB 1
Verona 1
imen 0.4499661876853928
mare 0.9334059696199859
141 0.9954253774428792
24,@@ 0.785282773694149
Gw@@ 0.7100737130463688
HT 1
dra@@ 0.1714007622723759
oux 0.317714906752433
Abdul 0.7426992382226604
Fantas@@ 0.8295355600989924
Hast@@ 1
sing 0.114726191963015
Beth@@ 0.4998101570771672
Jonas 1
Lö@@ 0.3383244753717405
Movie 0.7315411140770581
Run 0.5210522268678349
Schw@@ 0.13445262626179277
aft@@ 1
avan 1
ayama 1
egger 1
remix 0.9370990227315662
sy 0.40609575262519837
205 1
Elisabeth 0.41718923190096785
Watch 0.7809747799673098
alo 0.499555218696327
integral 0.7634719479652029
odor@@ 1
sov 1
Laos 1
Plaza 0.3924044198368971
Set 0.8548938118188534
Stephanie 1
ello@@ 1
otto 1
134 0.9720002394573202
AH 1
Das 0.017515824346582266
Gaulle 1
Happy 0.7940550301632365
Hero 0.8949935865914226
Only 0.2883493598808346
Quebec 0.3120863496317944
Saturn 1
Sergei 1
anu 1
ches 0.05502073787149978
mail@@ 1
rant 0.1512322630633071
216 1
225 0.9981312731580256
Alfonso 0.46008811294643004
Auto 0.5369223329127008
Borough 0.5489282941691799
TNA 1
Tallinn 1
Tomatoes 0.9366955153586226
Turkey 0.2815885013225979
lada 1
meta 1
vius 1
Fernández 0.4539219669469769
Macar@@ 1
Togo 1
Wembley 1
arti@@ 0.34333481642587654
ensk 1
pp 0.9385226563435799
AO 0.9321386107113304
Alz@@ 1
Hamil@@ 1
IL@@ 0.7920229011681719
Sin 0.12286555935046409
Sle@@ 0.6300063593887997
sdorf 0.28424100977415806
69@@ 1
Know 1
MX 1
Pratt 1
Salt 0.6404643809714576
Samoa 1
Sang@@ 0.5511759775308196
Stade 0.5279097473272145
estes 1
lau@@ 0.2510271109285152
lens 1
ofu 1
1788 0.7129701543059631
1798 0.540949421422599
Anat@@ 1
Cham@@ 0.4600299986740823
Const@@ 0.7386925211276479
Gand@@ 1
eck@@ 0.18385814328278538
nus 0.6967684138537492
real 0.09186112702081517
sho@@ 0.15034628364649508
1100 0.9492157166571377
Ai@@ 1
Betty 0.7641831844978909
Blackburn 1
HT@@ 1
atidae 1
bourne 0.7767286157870764
hut@@ 1
ils 0.037312213282
nde@@ 1
tetr@@ 1
Away 1
Electronic 0.8754140114003296
Garcia 0.7622027379398374
Hammer 0.9848844252431447
color 0.10663567716805356
kran@@ 0.5343834913497226
nez 0.9476034039252031
self 0.10603830921333682
spons@@ 1
1774 0.8298766868948947
Alto 0.6135925985954183
Card@@ 0.6126466068897491
Hood 0.9363789652318
Lay@@ 0.8761306896660451
Sex 0.7701266722404703
Winter@@ 0.245488395990484
ansk 1
eia 1
phone 0.20030932340065286
reci@@ 0.40703654049104504
Car 0.4348593243043567
Cli@@ 0.5446399870576625
Coast 0.17114650348878518
Igor 1
Klin@@ 0.9585369395172249
ML 0.9009666612144341
Reis@@ 0.5167674457270333
coli 1
enge 0.5408389103782969
iku@@ 1
monit@@ 0.48451232768236324
osi 1
pei 1
tum@@ 0.34905445829256193
İtal@@ 1
About 0.2769988373915082
CF@@ 0.5388047745789691
[...]
