. 4362292
, 4172187
на 4148973
и 2381664
в 1953343
е 1800341
от 1471340
се 1008276
( 964235
) 964196
за 900519
@-@ 862337
с 826977
„ 677459
“ 671893
да 653692
&quot; 646002
са 472545
по 468746
– 441593
г. 410464
като 386605
през 383030
г 366012
си 347710
до 281378
година 265319
ни 256417
През 254786
но 252724
а 246712
В 243932
му 235411
ните 211230
не 208003
че 207531
: 197731
ната 193314
това 153740
към 152144
ва 149763
ния 149059
ски 147546
ска 145651
които 145558
ка 143124
най 141772
при 140127
или 139502
който 139249
след 138804
не@@ 137408
т 132932
на@@ 132152
из@@ 131512
ли 130472
На 130040
ската 124867
фон 122444
във 122270
; 122009
за@@ 120879
има 118651
пре@@ 115361
ския 114897
ното 113439
ти 113215
А@@ 110121
н 109279
част 108863
време 108559
л 108454
ко@@ 106571
та 103790
ват 103470
която 103253
години 102311
ци 102071
След 100902
което 100811
те 99348
ли@@ 97891
ла 97805
у@@ 97669
раз@@ 97508
ване 97211
със 96818
ско 96259
Е@@ 95939
о@@ 95476
к 95255
ри@@ 95158
той 94848
по@@ 94173
с@@ 91382
я 91313
к@@ 91275
д 90313
от@@ 89446
град 89385
ре@@ 88730
ни@@ 88242
ра 86977
1 86667
ите 86374
О@@ 85839
но@@ 85612
е@@ 84455
р 83902
ят 83889
ди 83853
съ@@ 83079
ът 82290
ка@@ 81730
де@@ 81662
ви 81584
По 81564
ката 81451
ските 80772
/ 79319
става 77986
ле@@ 77875
те@@ 77778
ването 77653
ди@@ 77459
ското 77128
България 77025
до@@ 76004
2 75266
то 75082
около 74438
го 74143
век 73665
ти@@ 73651
между 73298
много 73293
ният 73160
ра@@ 72786
ри 72775
про@@ 72362
ви@@ 72347
От 71908
лен 71307
о 71181
Той 71107
ки 70348
село 70089
ден 69531
мо@@ 69514
при@@ 69433
л@@ 69397
С@@ 69298
м 69270
си@@ 69173
м@@ 68287
в@@ 68072
† 67096
а@@ 66954
ма@@ 66948
ма 66847
може 66501
Ко@@ 66130
ѝ 66111
ми@@ 66108
я@@ 65908
един 65634
ро@@ 65473
ците 65144
където 64688
ва@@ 63793
то@@ 62571
И@@ 62555
ята 62116
п@@ 61943
война 61890
т@@ 61789
както 61390
й@@ 61354
други 61230
ла@@ 60765
3 60580
ло@@ 60120
също 60055
цията 60010
под 59816
Ка@@ 59523
ник 59005
се@@ 58502
им 58031
г@@ 57866
ст 57528
ници 57492
д@@ 57412
та@@ 56317
този 56050
ция 55836
лите 55728
па@@ 55554
Ма@@ 54669
У@@ 54569
х@@ 54448
започва 54362
лни 53818
ени 53631
По@@ 53535
рите 52969
късно 52818
Б@@ 52814
ку@@ 52365
само 52347
4 52316
ми 52173
б@@ 52066
з@@ 51566
ще 51278
още 51192
ата 51114
пе@@ 50849
ност 50746
ло 50591
бо@@ 50572
ве@@ 50500
би@@ 50235
ме@@ 50035
За 49958
Д@@ 49852
и@@ 49805
ш@@ 49541
души 49522
над 49484
него 49242
път 48367
да@@ 48130
П@@ 47990
една 47892
На@@ 47826
края 47601
К@@ 47581
че@@ 47571
ките 47468
пи@@ 47467
срещу 47453
га@@ 47052
5 46901
ща 46779
под@@ 46674
нов 46606
ба@@ 46565
I 46519
зи@@ 46475
така 46426
ко 46257
га 46249
когато 46124
вид 45851
вата 45837
лно 45677
Биография 45618
го@@ 44967
български 44851
началото 44834
ство 44676
са@@ 44653
няколко 44373
всички 44215
6 44181
m 44100
селото 44078
чни 44028
чен 43882
II 43769
ството 43496
рат 43476
Ми@@ 43373
во@@ 43328
ен 43168
10 42562
Т@@ 42328
km 42134
семейство 42093
щи 42067
граф 41935
тях 41930
су@@ 41783
лна 41742
н@@ 41611
20 41421
ш 41363
со@@ 41241
чи@@ 41189
За@@ 41186
й 41160
река 41131
об@@ 40967
во 40934
Не@@ 40864
бе@@ 40818
София 40768
Са@@ 40637
сти@@ 40601
Де@@ 40481
две 40305
ският 40108
би 40060
май 39887
септември 39788
Г@@ 39286
ността 39286
града 39260
рия 39132
заедно 38916
Това 38793
тя 38768
ран 38488
% 38472
ж@@ 38430
рен 38386
Ли@@ 38355
получава 38243
тези 37996
ци@@ 37949
място 37866
Из@@ 37600
тази 37588
въз@@ 37553
Ба@@ 37507
Според 37335
дъщеря 37223
вен 37086
В@@ 36947
имат 36935
януари 36900
С 36728
ги 36720
ру@@ 36687
ков 36639
сти 36634
нията 36608
- 36591
ф@@ 36587
ст@@ 36526
намира 36478
октомври 36417
7 36281
САЩ 36174
преди 36133
Се@@ 36127
върху 36100
юни 36035
Ро@@ 35995
Па@@ 35891
юли 35861
ки@@ 35759
името 35665
август 35605
два 35500
хо@@ 35470
различни 35461
Македония 35457
бъде 35404
ван 35395
М@@ 35393
тен 35358
Ви@@ 35287
нието 35256
ду@@ 35200
чрез 35074
март 35048
ране 34947
Х@@ 34938
рани 34758
област 34740
сто@@ 34738
април 34551
ин@@ 34528
хи@@ 34491
лата 34271
син 34266
тите 34251
ц 34192
ца 34185
ста@@ 34184
ноември 34096
п 34058
8 33986
работи 33978
ч@@ 33953
три 33946
Бо@@ 33932
у 33869
декември 33827
жени 33796
община 33743
ча@@ 33695
ч 33512
15 33484
де 33431
лия 33232
зи 33148
ница 32912
зо@@ 32819
ля@@ 32606
Бе@@ 32442
История 32404
&amp; 32371
При@@ 32308
дни 32260
12 32178
ниците 32176
р@@ 31875
някои 31781
ър 31741
кра@@ 31700
група 31630
рана 31566
щ 31462
ха@@ 31421
ан@@ 31351
често 31339
х 31154
Ха@@ 30947
Ре@@ 30903
Съ@@ 30814
ства 30813
Ф@@ 30762
ба 30669
Ра@@ 30631
йски 30557
щата 30509
При 30454
страната 30226
бу@@ 30206
Си@@ 30132
чна 30060
Тя 30005
9 29883
30 29806
чно 29774
Ме@@ 29731
з 29718
Ал@@ 29716
ето 29715
февруари 29636
Мо@@ 29599
ен@@ 29569
Ку@@ 29391
вайки 29373
кон@@ 29372
Ди@@ 29203
З@@ 29154
он 29153
език 29141
ар@@ 28861
вече 28857
пред@@ 28812
Ле@@ 28809
Те 28782
ено 28717
чи 28609
могат 28538
сред 28537
Пе@@ 28529
Ру@@ 28520
прави 28431
център 28359
пр.н.е. 28233
роден 28174
ява 28146
гу@@ 28128
империя 28105
Пре@@ 28102
лната 28081
ж 28030
вите 28002
Ш@@ 27985
Ар@@ 27924
ши@@ 27845
Н@@ 27762
Ри@@ 27614
Разпространение 27587
Видът 27505
повече 27477
университет 27389
Италия 27297
фи@@ 27238
завършва 27191
отново 27189
16 27107
Северна 27106
вър@@ 27084
без 26956
лу@@ 26934
ги@@ 26924
бил 26859
използва 26813
ф 26803
000 26723
ника 26694
стра@@ 26672
участва 26522
страна 26500
Да@@ 26486
До@@ 26291
ге@@ 26279
ту@@ 26252
18 26241
Я@@ 26227
Про@@ 26109
19 26069
три@@ 26069
жители 26062
14 26011
води 25994
11 25956
Р@@ 25952
училище 25903
Л@@ 25863
ше@@ 25757
части 25751
нен 25748
населението 25720
То@@ 25715
сезон 25636
височина 25635
ве 25610
Най 25536
поради 25428
рата 25369
вани 25356
ман 25305
световна 25269
трябва 25269
Пи@@ 25260
нея 25250
ю@@ 25189
първата 25182
вия 25161
дени 25139
периода 25130
Мар@@ 25108
зе@@ 25095
13 25066
сен 24996
мата 24925
ск@@ 24924
малко 24920
обаче 24839
гра@@ 24687
според 24602
це@@ 24588
тата 24576
тът 24522
&apos; 24428
име 24425
Ла@@ 24396
ръ@@ 24365
сън 24365
голяма 24356
Раз@@ 24263
III 24257
б 24127
ран@@ 24082
бург 24058
17 24042
Германия 24019
ц@@ 23955
ат@@ 23953
Та@@ 23865
пра@@ 23766
Франция 23716
ста 23664
своя 23636
чески 23624
член 23574
Русия 23554
25 23490
ня@@ 23466
край 23427
Га@@ 23415
берг 23305
ля 23268
пла@@ 23241
армия 23232
Ве@@ 23185
Би@@ 23088
Лу@@ 23087
Бу@@ 23055
система 22939
умира 22939
ев 22937
Свети 22909
мен 22906
2010 22868
му@@ 22798
Ва@@ 22741
ров 22737
рането 22700
били 22683
* 22658
лов 22578
смъртта 22556
ман@@ 22548
йки 22506
дава 22498
мен@@ 22388
Ю@@ 22383
же@@ 22326
км 22321
ции 22311
лните 22269
ъ@@ 22230
жи@@ 22227
пи 22202
фе@@ 22083
чев 22060
Ти@@ 22054
жи 22028
Гърция 22025
2011 21996
Ки@@ 21983
лят 21908
жда 21894
Те@@ 21861
Ан@@ 21840
църква 21839
население 21785
ал@@ 21746
Иван 21738
Европа 21727
йн 21724
ши 21671
вете 21575
Георги 21562
кри@@ 21545
тъ@@ 21501
стите 21499
Въпреки 21491
нови 21446
ани 21443
кръ@@ 21390
без@@ 21385
вана 21345
ну@@ 21259
ке@@ 21206
ша 21144
докато 21140
Го@@ 21125
днес 21103
чу@@ 21052
полу@@ 21040
тни 21023
От@@ 20984
ние 20958
ха 20883
тан@@ 20873
първи 20853
ващи 20786
играе 20770
едно 20744
Ни@@ 20670
Мария 20626
кия 20623
времето 20609
пише 20577
деца 20496
отбор 20473
12@@ 20445
Хо@@ 20441
А 20386
циите 20368
21 20356
ьо@@ 20354
Роден 20351
дена 20336
страни 20288
групата 20265
баща 20259
живот 20245
ан 20239
тъй 20197
над@@ 20186
нова 20177
13@@ 20168
ча 20153
щите 20146
печели 20125
кар@@ 20070
Населението 20020
ит@@ 19962
големи 19931
ек@@ 19922
първия 19902
ор@@ 19892
света 19848
нат 19826
па 19765
крал 19762
период 19719
пу@@ 19679
окръг 19656
сили 19645
Ло@@ 19615
рано 19553
вал 19517
Ц@@ 19507
фа@@ 19493
24 19478
остава 19414
Южна 19408
вания 19405
брат 19347
хе@@ 19347
Ду@@ 19330
лото 19326
Су@@ 19256
Има 19226
кът 19116
чер@@ 19112
щ@@ 19046
провинция 19018
мъ@@ 18988
22 18966
Гра@@ 18952
фо@@ 18841
2000 18822
сте@@ 18816
ска@@ 18812
първите 18808
Кар@@ 18719
др 18715
войната 18709
Но@@ 18676
ер@@ 18657
сни 18646
бъдат 18629
ро 18622
пред 18598
.@@ 18582
известен 18538
ден@@ 18493
нал 18455
us 18440
места 18395
почти 18388
начин 18345
лъ@@ 18344
Ч@@ 18324
няма 18300
2012 18254
там 18253
2009 18252
голям 18227
2007 18208
мите 18193
къ@@ 18162
вали 18157
чната 18137
тна 18098
2008 18090
дата 18032
ител 18018
зна@@ 17993
жен 17959
продължава 17959
чните 17944
ак@@ 17899
филм 17871
тия 17841
йската 17817
тре@@ 17806
включва 17803
стро@@ 17790
ме 17781
бра@@ 17769
Александър 17735
цел 17725
23 17687
Първата 17677
2006 17638
Кон@@ 17577
жа@@ 17545
рът 17468
ър@@ 17455
хора 17451
дите 17436
ждат 17397
използват 17386
Об@@ 17343
двете 17322
дъ@@ 17299
данни 17297
ген 17288
бър@@ 17243
все 17149
тогава 17141
работа 17066
ле 17061
всеки 17019
лния 17010
тра@@ 16995
била 16986
сия 16979
Со@@ 16951
Димитър 16940
̀ 16935
американски 16930
нява 16928
26 16920
оби@@ 16860
жена 16825
50 16820
семейството 16739
успява 16718
кс 16700
йския 16691
10@@ 16664
спа@@ 16652
спо@@ 16646
кан@@ 16640
ху@@ 16567
гла@@ 16551
резултат 16527
ари 16524
север 16511
областта 16485
сът 16469
района 16460
същата 16451
награда 16449
idae 16446
море 16425
само@@ 16422
мия 16374
род@@ 16373
Фридрих 16359
въ@@ 16353
лю@@ 16347
дейност 16338
тно 16334
територията 16301
император 16287
щайн 16274
ново 16238
запа@@ 16231
род 16220
100 16219
мо 16202
юг 16173
четири 16078
председател 16061
вода 15867
Втората 15858
ур@@ 15803
Като 15802
степен 15802
съюз 15787
2013 15782
ско@@ 15779
малки 15766
дия 15745
ате@@ 15729
ер 15726
първият 15712
28 15688
отбора 15642
партия 15608
стта 15604
заради 15596
пъти 15579
генерал 15577
кла@@ 15560
своите 15559
що 15550
ваща 15533
лин@@ 15522
2014 15515
Ин@@ 15515
дори 15514
регион 15512
управление 15512
27 15496
република 15493
изток 15477
сло@@ 15464
Му@@ 15459
албум 15452
2005 15400
пол@@ 15393
жда@@ 15388
тър@@ 15380
Хи@@ 15366
ща@@ 15357
лното 15354
своята 15327
ша@@ 15299
ем@@ 15261
тро@@ 15240
пар@@ 15229
стре@@ 15160
ел 15157
площ 15122
жението 15080
множество 15078
мача 15064
преминава 15054
ващ 15034
голямата 15020
например 15020
възраст 15018
° 15012
обикновено 15001
участие 14959
тън 14938
Ке@@ 14911
близо 14909
IV 14908
църквата 14904
живота 14887
рията 14867
Ге@@ 14854
вен@@ 14844
филма 14830
съпруга 14827
рин@@ 14812
2001 14810
ждане 14794
ет@@ 14786
Към 14783
тур@@ 14753
бро@@ 14744
жа 14698
40 14697
лин 14668
8@@ 14667
дължина 14653
ък 14652
острови 14651
лан@@ 14646
разпространен 14642
организация 14636
остров 14632
2015 14543
гле@@ 14540
Карл 14535
Кри@@ 14532
чка 14499
войски 14495
йска 14489
вла@@ 14465
14@@ 14461
излиза 14447
вида 14417
история 14416
кли@@ 14416
дж@@ 14411
среща 14410
2004 14406
1944 14384
Кра@@ 14365
дър@@ 14363
надморска 14309
Република 14298
гъ@@ 14277
ън 14256
Османската 14227
он@@ 14210
включително 14151
вер@@ 14140
ет 14122
До 14111
2002 14108
вена 14107
гат 14094
29 14091
стен 14087
лски 14080
Когато 14067
общината 14058
достига 14025
пло@@ 14018
Йо@@ 14002
анти@@ 13999
e 13985
линия 13983
_ 13961
Ста@@ 13951
ря@@ 13947
групи 13932
хра@@ 13929
кариера 13920
съвет 13919
ано 13894
Фи@@ 13893
съпругата 13877
състои 13864
И 13861
бата 13856
застрашен 13856
чо 13856
лд 13854
чени 13847
The 13833
особено 13824
избран 13813
Хе@@ 13806
казва 13795
Бер@@ 13791
лен@@ 13781
запад 13763
Освен 13754
министър 13747
шка 13737
брой 13710
чния 13708
gt 13706
Ж@@ 13701
вя@@ 13692
създава 13648
ати@@ 13636
мина@@ 13611
средата 13587
форма 13562
власт 13560
предимно 13551
живее 13541
География 13521
вото 13519
историята 13481
бен 13469
добре 13466
² 13444
9@@ 13430
пъ@@ 13424
ос@@ 13414
започват 13408
пер@@ 13393
втората 13339
херцог 13338
шен 13334
тор 13323
Фа@@ 13306
българи 13280
Ню 13262
вероятно 13252
сла@@ 13244
нов@@ 13212
право 13195
яване 13187
дя@@ 13170
общо 13154
чат 13082
lt 13014
връзка 13010
въпреки 13009
жен@@ 13004
ческа 13001
край@@ 12963
жение 12952
лка 12949
ита 12937
силно 12920
Рай@@ 12907
V 12903
сите 12886
нарича 12879
мир 12864
Ай@@ 12859
пис@@ 12855
ални 12844
бор@@ 12836
Хайнрих 12829
ген@@ 12818
отнася 12814
сен@@ 12813
ори 12797
Вер@@ 12794
ня 12782
ян 12774
вени 12758
сл 12740
служба 12738
договор 12732
Гу@@ 12718
състава 12718
Сто@@ 12710
майка 12698
нски 12694
тип 12680
чета 12647
шки 12631
1990 12627
Така 12623
60 12621
31 12604
Мал@@ 12567
защото 12567
вар@@ 12562
Кара@@ 12560
Ша@@ 12553
Ор@@ 12542
влиза 12540
дел@@ 12538
лени 12529
работ@@ 12529
Йохан 12518
годишна 12517
видове 12514
Никола 12494
яват 12478
2016 12464
рен@@ 12458
ус 12423
мар@@ 12417
Завършва 12412
след@@ 12391
№ 12341
Петър 12330
пъл@@ 12309
Во@@ 12299
шо@@ 12286
ъл 12277
ителите 12275
преда@@ 12263
ално 12246
лет@@ 12225
носи 12212
&#93; 12209
било 12199
българска 12191
Хар@@ 12183
роля 12165
гръцки 12159
Разпространен 12149
никът 12145
големите 12127
дро@@ 12111
гре@@ 12105
Пловдив 12103
щат 12092
&#91; 12062
изчезване 12051
ствена 12031
прове@@ 12023
ера 12008
ако 12002
ление 11996
неговата 11996
ствата 11992
представлява 11982
Ту@@ 11978
назначен 11953
пле@@ 11952
вни 11929
мач 11925
район 11922
рена 11919
0 11910
2003 11886
кото 11886
дено 11879
Чер@@ 11840
ред 11840
хората 11839
гор@@ 11838
ствени 11820
цар 11802
Рим 11798
2017 11786
повечето 11730
Че@@ 11727
песни 11724
Джон 11706
стри@@ 11705
състав 11703
Васил 11702
цен@@ 11685
йн@@ 11682
свят 11637
приема 11624
графиня 11609
поли@@ 11606
Бра@@ 11602
всяка 11594
кова 11572
втори 11562
рин 11560
комитет 11540
лич@@ 11485
провежда 11481
метра 11479
Англия 11462
Ман@@ 11462
тя@@ 11439
академия 11419
мът 11406
хар@@ 11406
Ча@@ 11380
редица 11370
s 11339
бан@@ 11335
мета@@ 11332
рени 11330
нена 11325
човек 11324
класи@@ 11321
пр 11299
държава 11294
Щ@@ 11292
вли@@ 11256
им@@ 11255
ити 11253
електро@@ 11252
це 11250
милиона 11206
Въз@@ 11197
ъ 11190
джи@@ 11177
ъл@@ 11173
българската 11171
плани@@ 11160
Испания 11154
свързани 11133
учи 11133
бите 11116
ене@@ 11070
7@@ 11056
ална 11053
стър 11053
сту@@ 11050
вна 11049
Тре@@ 11035
ре 11010
ред@@ 11009
тър 10996
руски 10990
Нова 10983
Париж 10975
син@@ 10966
80 10958
Стефан 10946
Лю@@ 10936
фор@@ 10927
послед@@ 10915
манастир 10908
полк 10900
вра@@ 10895
1912 10882
же 10873
дат 10872
започ@@ 10870
командир 10869
Филип 10867
Вал@@ 10845
Бар@@ 10835
ане 10831
живеят 10828
гата 10812
щия 10798
сила 10788
тин@@ 10781
доб@@ 10773
сел@@ 10768
пет 10761
бързо 10758
вица 10757
известни 10735
вой@@ 10719
лена 10715
водо@@ 10711
Америка 10701
ю 10701
Три@@ 10699
образование 10694
Великобритания 10692
музика 10691
голямо 10680
неговите 10673
Мон@@ 10665
све@@ 10663
друг 10662
йските 10657
връх 10652
дивизия 10648
Мак@@ 10642
гимназия 10638
Китай 10629
1991 10612
връща 10607
ос 10604
зия 10558
разположен 10556
Африка 10554
пан@@ 10548
развитие 10544
известна 10543
политически 10539
Пър@@ 10538
коле@@ 10531
ато@@ 10528
ед@@ 10521
цата 10504
началник 10489
C 10485
собстве@@ 10483
Христо 10457
тер@@ 10445
нин 10430
главен 10429
1945 10426
Умира 10416
гри@@ 10409
движение 10403
друга 10402
месеца 10396
вски 10395
тове 10391
разположени 10388
дра@@ 10386
лица 10377
зъм 10370
отношение 10370
Бре@@ 10367
нение 10364
зу@@ 10357
ск 10348
К 10344
стил 10335
Пет@@ 10330
заема 10330
театър 10314
ний 10293
продължение 10281
Кор@@ 10269
вала 10263
основно 10245
мин@@ 10225
1999 10223
ще@@ 10212
2018 10207
реката 10207
чното 10206
оръ@@ 10204
1913 10197
образу@@ 10195
рий 10190
чове@@ 10184
еди@@ 10182
Дж@@ 10180
СССР 10155
70 10144
нос 10143
правителство 10143
следва 10143
гър@@ 10138
спор@@ 10131
+ 10120
То 10114
произход 10112
свет@@ 10094
тната 10093
ези@@ 10091
дву@@ 10088
образ@@ 10087
йско 10085
ствено 10080
ета 10079
жава 10079
държави 10076
Този 10067
вено 10062
нения 10053
обя@@ 10051
литература 10049
директор 10024
създаването 10014
П 10012
първенство 10003
покри@@ 10002
опа@@ 9990
Сла@@ 9987
— 9987
лятото 9984
вано 9983
вод@@ 9983
ати 9972
мили@@ 9970
ности 9969
президент 9964
Япония 9955
мястото 9951
ствен 9951
Йорк 9943
гите 9939
цар@@ 9938
щето 9921
новата 9920
останалите 9905
ителни 9904
ход@@ 9902
сина 9899
ители 9897
английски 9894
управлението 9888
птица 9880
бива 9877
of 9873
тел 9858
рай@@ 9845
= 9841
цялата 9827
дар@@ 9818
Първият 9814
истори@@ 9805
1992 9791
Ши@@ 9788
пости@@ 9778
Българската 9776
първото 9770
точка 9769
ил 9763
сле@@ 9763
хайм 9755
1941 9750
политик 9735
ров@@ 9733
произ@@ 9722
1989 9717
ок 9716
вно 9706
нала 9702
Николай 9698
действия 9698
книги 9694
френски 9692
зен 9686
наслед@@ 9686
значение 9682
Вилхелм 9680
кре@@ 9672
лек@@ 9666
хода 9658
решава 9650
Ху@@ 9649
ся@@ 9643
лер 9642
ницата 9637
центъра 9629
ьор@@ 9615
бри@@ 9610
дът 9595
бъде@@ 9592
XIX 9589
зем@@ 9586
намират 9578
Анна 9574
кан 9572
1998 9571
служи 9569
Полша 9563
Западна 9555
топ@@ 9555
рал 9538
дер 9536
чки 9532
Св 9531
напуска 9531
гро@@ 9529
другите 9523
бар@@ 9521
сме@@ 9507
чава 9503
Михаил 9497
малка 9493
двата 9487
Някои 9477
морски 9473
ител@@ 9462
епископ 9455
стават 9455
formula 9443
роман 9437
Москва 9432
правителството 9431
същото 9419
бя@@ 9418
футболист 9418
200 9416
ав@@ 9411
разположено 9410
дове 9401
дьо 9392
албума 9388
Вели@@ 9385
1997 9380
децата 9374
Цент@@ 9372
лът 9370
зира 9338
ролята 9337
бряг 9331
едва 9329
дер@@ 9327
щати 9319
тер 9316
ън@@ 9301
Във 9291
пове@@ 9291
Тази 9288
Поли@@ 9287
неговото 9286
превръща 9286
сна 9273
Там 9272
! 9267
дей@@ 9266
сър@@ 9265
мост 9263
означава 9254
Т 9251
есте@@ 9249
къс@@ 9242
1996 9237
Намира 9235
ент@@ 9228
последните 9228
битката 9227
Азия 9211
ком@@ 9203
вър 9202
Тези 9188
призна@@ 9187
ита@@ 9177
ок@@ 9176
военни 9173
учител 9172
90 9171
разлика 9170
няват 9160
стъ@@ 9157
кен@@ 9149
нали 9144
песента 9144
лига 9140
йна 9137
лов@@ 9121
подоб@@ 9118
Кръ@@ 9098
мм 9095
Турция 9087
1995 9086
нос@@ 9085
унищо@@ 9082
ца@@ 9082
мати@@ 9080
нето 9078
Къ@@ 9073
Селото 9060
княз 9060
дне@@ 9053
съще@@ 9053
скоро 9051
тира 9042
1994 9035
откри@@ 9035
поставя 9035
книга 9034
лий 9034
ново@@ 9031
плат@@ 9026
Поради 9003
мини@@ 9003
йни 9002
едно@@ 8998
консул 8998
завър@@ 8996
спи@@ 8981
успех 8981
четвър@@ 8980
Индия 8976
йт 8976
нението 8973
6@@ 8961
напълно 8959
ун@@ 8959
мер@@ 8958
ческо 8948
ше 8940
ителен 8934
главно 8933
изкуство 8932
Май@@ 8929
информация 8924
Дра@@ 8922
Фе@@ 8921
течение 8921
малък 8918
Света 8915
издава 8915
двамата 8913
прав@@ 8911
много@@ 8906
щият 8906
1980 8897
зона 8897
Елизабет 8895
Описание 8890
компания 8887
Сан@@ 8880
Сърбия 8872
ена 8869
кораба 8863
насо@@ 8861
вели@@ 8853
територия 8848
стена 8839
ително 8836
кораби 8828
ващите 8820
сата 8804
въстание 8796
влияние 8788
изследвания 8781
Сан 8776
граф@@ 8776
коло@@ 8764
али@@ 8763
кове 8763
рав@@ 8763
Константин 8761
лено 8756
Варна 8752
поле 8741
М 8736
Д 8730
зва 8728
лището 8728
развитието 8727
Лудвиг 8720
Ше@@ 8712
бъ@@ 8689
кови 8685
събрание 8685
Дже@@ 8683
теле@@ 8680
кръг 8679
праз@@ 8678
тук 8677
градове 8673
планина 8671
жат 8668
сан@@ 8666
тив@@ 8666
Це@@ 8658
Дей@@ 8655
Чи@@ 8652
исторически 8649
изпъл@@ 8647
тар@@ 8647
защита 8642
ван@@ 8635
анд@@ 8634
тон 8630
политика 8623
­ 8621
тните 8621
Участва 8615
фи 8613
ора 8612
писател 8609
Австралия 8601
опит 8598
чо@@ 8598
известно 8597
mm 8596
официално 8586
почи@@ 8583
раст@@ 8583
фер@@ 8573
производство 8572
българските 8571
цо@@ 8570
половина 8567
тото 8567
гия 8563
кул@@ 8559
целия 8550
случай 8538
професор 8532
a 8531
завръща 8530
водата 8526
пара@@ 8525
ческите 8516
идва 8513
изцяло 8513
дъл@@ 8510
1993 8509
бер@@ 8508
членове 8508
лява 8505
ционни 8501
Пра@@ 8498
произведения 8491
въве@@ 8489
продъл@@ 8485
зата 8484
организи@@ 8480
ин 8479
преброяването 8476
неговия 8475
бия 8474
Лондон 8461
развива 8456
обявява 8449
Пла@@ 8444
култура 8441
слу@@ 8441
ций 8435
гар@@ 8429
Украйна 8428
гер 8426
бре@@ 8423
позиция 8420
шката 8418
пор@@ 8403
участват 8403
тор@@ 8401
народ@@ 8398
вин@@ 8394
форми@@ 8392
правят 8386
следващите 8385
ери 8383
появява 8383
Пу@@ 8380
2019 8370
сестра 8363
стка 8358
ционен 8358
чена 8357
пови@@ 8351
физи@@ 8351
съд 8344
шно 8340
Под@@ 8339
лей@@ 8336
лина 8331
тен@@ 8330
ждането 8329
музей 8327
положение 8327
планината 8318
джа@@ 8311
ните@@ 8309
твър@@ 8309
точ@@ 8307
Но 8304
кораб 8298
села 8296
1943 8291
чин 8291
първо 8288
они 8287
десет 8280
игра@@ 8272
Ак@@ 8253
Бразилия 8251
жените 8251
управля@@ 8246
1878 8243
юр@@ 8243
мени 8240
състояние 8239
Джо@@ 8238
ум 8229
логи@@ 8219
Източна 8204
клуб 8201
лова 8197
мов 8196
всичко 8193
изпра@@ 8191
автор 8190
ене 8185
фа 8185
посо@@ 8178
Мла@@ 8173
против 8167
земи 8162
първоначално 8160
менти 8152
игри 8148
вестник 8143
ланд@@ 8135
вият 8134
годината 8134
хи 8128
500 8126
условия 8123
пен 8119
Б 8118
разде@@ 8109
пада 8100
гола 8092
висо@@ 8090
Сред 8088
ителна 8088
1970 8081
br 8079
диа@@ 8078
помощта 8076
слав 8075
прода@@ 8069
тан 8068
P@@ 8066
значително 8066
1900 8064
дру@@ 8064
изобраз@@ 8064
нар@@ 8063
шу@@ 8056
наме@@ 8054
Разположено 8052
гли@@ 8045
себе 8044
Бал@@ 8041
демокра@@ 8040
райони 8038
техните 8038
стика 8037
довете 8034
живо@@ 8034
системи 8028
издаден 8027
кита@@ 8027
държав@@ 8021
километра 8021
проект 8018
шни 8018
временно 8016
езици 8013
настоя@@ 8010
открива 8007
право@@ 8005
годините 8003
стъп@@ 8001
1918 7994
флот 7992
Фамилия 7989
столицата 7989
нина 7987
формата 7987
институт 7985
рал@@ 7985
Пред@@ 7984
дан@@ 7977
записва 7974
цели 7973
Вол@@ 7967
рон 7964
ити@@ 7963
ули@@ 7961
представител 7960
ков@@ 7958
сви@@ 7953
ата@@ 7947
елементи 7946
Бур@@ 7945
включ@@ 7934
рис 7932
мон@@ 7929
включват 7928
Ер@@ 7922
Източ@@ 7922
разположена 7922
пръв 7921
българско 7915
компанията 7914
шампион 7914
отво@@ 7912
Стара 7910
зов 7910
тура 7906
the 7900
Марк 7900
S@@ 7894
Зе@@ 7894
алната 7885
сп@@ 7885
сто 7879
иг@@ 7876
присъ@@ 7872
осман@@ 7870
ланд 7869
град@@ 7867
зма 7867
книгата 7865
военен 7853
основава 7848
селище 7846
is 7838
точки 7838
позволява 7827
смята 7827
рии 7825
участието 7824
близост 7823
Ев@@ 7822
Австрия 7818
действие 7814
пътя 7811
секретар 7809
следващата 7808
версия 7807
i 7806
Вла@@ 7797
използва@@ 7796
решение 7793
наре@@ 7792
ческия 7790
вяр@@ 7786
макар 7780
1960 7779
освен 7777
ьо 7768
модер@@ 7765
Други 7748
обща 7747
часа 7745
предлага 7744
око@@ 7738
състав@@ 7733
средства 7732
брак 7727
титлата 7725
толкова 7719
цент@@ 7718
дре@@ 7717
лат@@ 7717
пли@@ 7712
пти@@ 7712
тика 7705
Между 7704
проте@@ 7703
оти@@ 7695
1940 7693
лет 7689
изключително 7685
ФК 7679
разши@@ 7677
създа@@ 7676
35 7667
лска 7665
кият 7664
задъл@@ 7663
рио@@ 7662
оказва 7661
армията 7660
мет@@ 7653
рей@@ 7652
песен 7648
чет@@ 7647
вет@@ 7645
владе@@ 7645
сезона 7645
cm 7639
пен@@ 7639
военна 7638
разпростра@@ 7638
сметка 7637
Ек@@ 7632
пър@@ 7632
со 7631
работата 7630
пръ@@ 7626
противо@@ 7617
реали@@ 7614
дело 7611
1942 7610
Джа@@ 7605
Хай@@ 7602
езерото 7577
май@@ 7577
Мексико 7566
вате@@ 7566
оста@@ 7566
ниво 7564
израз@@ 7562
такива 7560
шко 7560
процес 7558
съществу@@ 7556
шест 7547
нер 7544
Ги@@ 7543
Първоначално 7538
пуска 7538
Не 7537
къщи 7537
заместник 7536
алните 7535
филми 7535
представ@@ 7533
сигурност 7529
Вар@@ 7528
чва 7520
втория 7518
помощ 7511
Унгария 7510
графи@@ 7508
прото@@ 7507
взема 7505
чават 7505
крити@@ 7502
Фу@@ 7501
добър 7495
понякога 7493
ито 7488
Ен@@ 7485
мени@@ 7485
зва@@ 7484
Гор@@ 7483
губи 7482
лев 7480
Пан@@ 7470
големият 7468
ностите 7468
ян@@ 7467
позна@@ 7465
Й@@ 7463
показва 7460
своето 7457
смя@@ 7453
отношения 7451
мат@@ 7448
пое@@ 7448
соци@@ 7448
ански 7445
2020 7440
температура 7440
мни 7435
омъжва 7434
M@@ 7430
награди 7426
следните 7418
рак@@ 7417
стве@@ 7406
българския 7392
Син@@ 7388
ун 7386
сграда 7385
Стра@@ 7383
Гла@@ 7382
изди@@ 7379
Църквата 7377
гр 7377
новия 7373
дали 7369
нени 7365
ул 7365
гори@@ 7363
Много 7356
бал@@ 7354
представя 7353
ващо 7348
изя@@ 7348
намира@@ 7348
мрежа 7347
Канада 7345
възможност 7345
нася 7339
част@@ 7339
кто@@ 7337
Же@@ 7334
бол@@ 7334
ней@@ 7334
права 7333
Въ@@ 7332
рок 7331
дин@@ 7330
новен 7329
ели@@ 7324
събития 7324
учеб@@ 7322
тена 7313
Лан@@ 7311
ват@@ 7308
мат 7308
Пар@@ 7307
коре@@ 7306
1986 7295
отказва 7289
основа 7287
сва@@ 7285
зите 7283
острова 7279
Р 7278
дружество 7276
О 7274
45 7270
бах 7269
инди@@ 7266
професиона@@ 7261
Мари@@ 7256
висока 7248
крат@@ 7245
мла@@ 7245
обеди@@ 7244
съюз@@ 7243
Централна 7236
определя 7234
тръ@@ 7232
пет@@ 7227
ал 7226
Още 7223
испан@@ 7222
1988 7218
съгла@@ 7216
ев@@ 7213
говори 7209
проблеми 7209
нито 7207
тин 7207
вол@@ 7205
ква@@ 7202
Кру@@ 7199
5@@ 7197
од@@ 7194
отде@@ 7194
потреб@@ 7188
списание 7188
лният 7186
Пер@@ 7185
забра@@ 7184
южната 7178
Глав@@ 7176
Йоан 7172
годишен 7171
Кирил 7164
два@@ 7162
коми@@ 7161
вът 7160
животни 7159
1950 7156
мест@@ 7147
минава 7145
съдържа 7145
опера@@ 7144
създадена 7144
Ел@@ 7137
пат@@ 7136
чение 7135
достигат 7124
цвет@@ 7122
съществува 7118
форми 7113
так@@ 7112
мя@@ 7111
Преди 7108
зат@@ 7108
ите@@ 7105
ток 7103
дения 7100
... 7093
новите 7093
1934 7091
властта 7091
рода 7087
Дру@@ 7084
рамките 7083
твор@@ 7082
лс 7080
области 7080
пол 7074
византи@@ 7072
извършва 7071
вил 7067
1905 7060
опитва 7060
ясно 7057
Север@@ 7052
сон 7047
авто@@ 7046
месец 7045
оръдия 7043
треньор 7039
двама 7028
Ако 7025
D@@ 7024
Тра@@ 7021
родена 7014
воде@@ 7005
лите@@ 7004
Египет 7001
уни@@ 6998
ква 6993
културата 6990
приток 6989
програма 6984
тски 6982
ган 6979
същия 6978
северната 6972
300 6968
шите 6965
публикува 6958
впоследствие 6957
хиляди 6957
вре@@ 6956
националния 6953
смърт 6949
дна 6947
.. 6946
извън 6946
съвет@@ 6943
ева 6941
басейн 6936
поло@@ 6934
границата 6933
основните 6928
бе 6927
цът 6924
Румъния 6923
сове 6901
лис 6899
кор@@ 6893
чите 6885
Гре@@ 6881
избори 6876
C@@ 6873
съответ@@ 6867
ган@@ 6866
лизи@@ 6865
вис@@ 6861
Сре@@ 6860
разработ@@ 6859
автомоби@@ 6854
защит@@ 6853
яването 6853
футбол 6852
Кан@@ 6851
попада 6850
Кла@@ 6848
гори 6844
преми@@ 6831
Уе@@ 6828
de 6826
Бър@@ 6825
ково 6825
наградата 6824
нати 6823
доста 6822
стен@@ 6815
Джи@@ 6812
кате@@ 6812
32 6810
2@@ 6809
вка 6802
построена 6796
гене@@ 6793
кара 6791
тялото 6790
нската 6786
модел 6785
1985 6781
рий@@ 6777
Бан@@ 6771
1920 6768
установява 6760
ем 6759
плъ@@ 6759
принцеса 6747
начело 6746
поема 6744
бли@@ 6739
рец 6739
Основ@@ 6735
бой@@ 6732
ръко@@ 6731
1987 6730
хими@@ 6729
причина 6726
Името 6722
Население 6721
иска 6721
оп@@ 6720
срещат 6716
възможно 6714
зе 6714
изпълнява 6712
немски 6712
деец 6707
жу@@ 6701
щото 6701
създаден 6700
сно 6697
лението 6696
пите 6694
B@@ 6690
случаи 6686
капитан 6685
езеро 6682
ут@@ 6681
представители 6680
премина@@ 6679
освобо@@ 6677
Г 6676
Шу@@ 6674
Само@@ 6668
кти@@ 6666
рова 6665
сега 6661
1984 6656
сов 6656
фамилията 6654
кариерата 6649
новете 6649
ъра 6646
чен@@ 6640
мир@@ 6637
A@@ 6636
получават 6635
Йе@@ 6632
Бро@@ 6631
погре@@ 6625
1939 6624
Първите 6624
пя@@ 6622
пе 6617
нен@@ 6615
кър@@ 6611
ум@@ 6611
1981 6605
XX 6605
Произход 6600
връ@@ 6598
дви@@ 6595
1968 6594
прекра@@ 6591
сли@@ 6589
ву@@ 6583
Борис 6581
национален 6580
тов 6578
Берлин 6569
япон@@ 6567
офицер 6566
прием@@ 6565
четата 6550
-@@ 6549
Виена 6543
лон 6541
скорост 6541
пока@@ 6538
високо 6536
клас 6536
основни 6534
1974 6533
бур@@ 6532
енергия 6532
Балканската 6527
дем 6523
ческата 6523
региона 6518
роман@@ 6516
точно 6515
обе@@ 6513
бо 6511
йс 6509
чението 6509
статут 6505
ото 6502
из 6501
кси@@ 6501
Джеймс 6500
пак 6500
митрополит 6499
нор@@ 6499
път@@ 6497
дри@@ 6493
помага 6492
Също 6491
войници 6491
въл@@ 6490
Баща 6489
епархия 6489
промени 6489
ционна 6466
негов 6460
1979 6458
гора 6447
производ@@ 6446
гне 6445
планински 6444
план 6442
как 6441
среда 6439
вижда 6427
занимава 6425
обра@@ 6424
ета@@ 6421
храм 6421
лист 6415
производството 6410
долината 6409
зация 6409
мна 6403
ход 6402
трите 6401
1978 6395
кат@@ 6393
1948 6387
зае@@ 6387
VI 6386
Дъ@@ 6385
теж@@ 6383
1971 6381
големия 6381
изда@@ 6381
E@@ 6379
дом 6377
она 6377
църков@@ 6376
обви@@ 6372
ствие 6372
западната 6371
чието 6369
типа 6368
Мор@@ 6362
Административен 6359
турнира 6355
лог 6352
нер@@ 6349
бази@@ 6345
посока 6339
широко 6339
дове@@ 6338
лан 6337
убит 6335
1928 6332
земя 6331
Кал@@ 6328
контрол 6327
ралния 6324
беле@@ 6322
влизат 6321
e@@ 6320
християн@@ 6319
ляне 6318
уч@@ 6316
1982 6315
чност 6312
вид@@ 6311
фу@@ 6310
военно@@ 6299
сед@@ 6298
Ран@@ 6292
1976 6286
отбелязва 6284
ьор 6281
Разположен 6280
уме@@ 6273
дълго 6271
местообитание 6270
ке 6267
победа 6265
1946 6264
Тър@@ 6263
дават 6263
открити 6262
1@@ 6256
кин 6255
чето 6254
рение 6250
винаги 6246
Вър@@ 6245
Левски 6244
школа 6244
европейски 6238
кратко 6237
мон 6236
ология 6235
Бен@@ 6230
йо@@ 6229
резер@@ 6228
зани 6227
тичен 6222
Владимир 6221
практика 6220
гът 6219
проекта 6217
италиански 6216
войни 6214
оригина@@ 6209
ръководството 6209
1972 6206
Вай@@ 6203
причи@@ 6202
сградата 6201
твърди 6196
Фран@@ 6191
столица 6188
тични 6186
използвани 6181
Британ@@ 6179
Гри@@ 6178
момент 6178
шава 6172
V@@ 6171
гнат 6171
фон@@ 6171
местните 6170
ад@@ 6169
вич 6168
1930 6164
т.нар. 6164
ането 6163
мент 6161
ждава 6160
чест 6160
тел@@ 6156
университета 6156
шата 6155
дел 6151
лство 6150
спече@@ 6149
пит@@ 6145
правител@@ 6145
един@@ 6142
жни 6136
Доб@@ 6129
тори 6128
бле@@ 6127
лската 6127
т.е. 6125
електри@@ 6124
ради@@ 6124
прави@@ 6123
дял 6122
творчество 6120
маси@@ 6118
T@@ 6117
къща 6117
бург@@ 6115
остават 6113
тар 6113
лагат 6111
източната 6105
офици@@ 6104
турската 6099
йското 6098
ограни@@ 6097
Димитров 6092
нд 6090
цялото 6089
Нико@@ 6088
дар 6087
Градът 6085
традицион@@ 6084
грани@@ 6083
дале@@ 6083
рено 6083
еле@@ 6082
четири@@ 6082
зву@@ 6079
Всички 6078
1975 6077
благород@@ 6076
ец 6076
унгар@@ 6076
редактор 6074
сий 6074
общество 6070
присъединява 6066
1947 6065
океан 6064
Калифорния 6057
постепенно 6057
предизви@@ 6056
цо 6053
хвър@@ 6047
ей 6043
побе@@ 6041
жителите 6040
стру@@ 6039
гол 6037
запис@@ 6035
обла@@ 6035
стар@@ 6032
дж 6023
жеството 6020
ръководител 6019
свързва 6016
Вис@@ 6015
жо@@ 6010
ара 6009
радио@@ 6008
низи@@ 6007
Днес 6005
наричат 5998
мит@@ 5995
каза 5994
1969 5991
дан 5990
извърш@@ 5989
Солун 5986
Ото 5980
лати@@ 5973
битка 5972
Ръ@@ 5970
австри@@ 5968
1973 5967
мал@@ 5966
Лай@@ 5965
лър 5965
Площта 5963
организацията 5961
нични 5955
стран@@ 5955
1983 5954
Започва 5954
гръцката 5946
ана 5940
отива 5934
земята 5931
джа 5922
дете 5915
православна 5912
жения 5908
зад 5908
Ци@@ 5905
заминава 5904
1927 5903
изче@@ 5903
революция 5902
древ@@ 5896
йл 5894
кол@@ 5893
Югославия 5892
полуостров 5892
Луи 5891
Тодор 5886
американ@@ 5886
сгради 5884
стрел@@ 5884
Саксония 5882
чват 5881
нически 5880
гане 5879
парк 5878
уче@@ 5878
организации 5876
1919 5875
реките 5875
кло@@ 5874
турски 5869
съответно 5867
семейства 5866
вец 5862
специално 5862
тов@@ 5862
държавата 5857
1923 5852
1967 5851
L@@ 5846
y@@ 5846
Един 5842
гел 5842
бивш 5838
уби@@ 5834
различните 5826
Стру@@ 5825
вин 5823
народен 5819
мин 5813
тична 5813
Земята 5811
Фо@@ 5811
трети 5810
описва 5808
изпраща 5805
дън 5801
актьор 5799
Фри@@ 5798
българското 5796
пълно@@ 5796
обществе@@ 5790
рове 5788
лож@@ 5784
завърш@@ 5783
сор@@ 5783
тият 5783
колек@@ 5779
стът 5778
G@@ 5776
Кур@@ 5776
мар 5776
нама@@ 5776
европей@@ 5775
науки 5772
поч@@ 5772
станция 5772
издание 5770
Запад@@ 5767
Голе@@ 5766
У 5763
нато@@ 5763
дворец 5762
румъ@@ 5762
1962 5761
манастира 5760
Бургас 5754
лага 5754
Павел 5752
Кул@@ 5751
тивно 5751
майор 5748
отделни 5747
организира 5743
щи@@ 5739
зависимост 5737
щен 5735
Воен@@ 5733
рас@@ 5731
актриса 5729
основата 5729
съхра@@ 5727
постав@@ 5726
кур@@ 5724
успешно 5723
сре@@ 5719
фикация 5719
Сер@@ 5717
граница 5714
Създа@@ 5711
разли@@ 5711
стандар@@ 5710
кот@@ 5709
лация 5707
хро@@ 5707
изо@@ 5704
местността 5704
Американ@@ 5702
Фор@@ 5700
1966 5699
мно 5698
Анти@@ 5697
подписва 5697
военно 5694
спе@@ 5691
статистиката 5686
материали 5684
ления 5678
Тро@@ 5672
стои 5672
кралство 5668
транс@@ 5665
зването 5664
превър@@ 5664
крайна 5663
открит 5663
Бру@@ 5662
има@@ 5661
консу@@ 5661
пад@@ 5661
Жи@@ 5660
титла 5657
дол@@ 5654
начало 5650
дълго@@ 5649
ален 5648
сравнително 5648
съвремен@@ 5647
необходи@@ 5644
господар 5642
компози@@ 5635
1965 5631
вторият 5631
Ос@@ 5630
нския 5630
стига 5630
БКП 5628
системата 5628
живе@@ 5623
глед 5621
Георг 5617
стан@@ 5617
Община 5616
общ@@ 5616
Пара@@ 5614
изи@@ 5614
Бри@@ 5612
науч@@ 5612
1977 5611
дин 5609
когото 5604
финала 5604
1959 5603
1964 5603
Бай@@ 5602
Тук 5598
1915 5588
пило@@ 5582
гара 5577
убе@@ 5573
лност 5568
мс 5567
Бор@@ 5566
Жан 5566
щава 5566
F@@ 5565
Уилям 5565
епоха 5565
управлява 5562
Тогава 5560
38 5559
Сте@@ 5556
южно 5555
зване 5554
преимену@@ 5552
следващия 5551
Кай@@ 5550
паметник 5550
папа 5550
стане 5549
1949 5545
лския 5544
дра 5542
Работи 5540
1938 5539
3@@ 5538
Формула 5537
2021 5532
кръсто@@ 5531
Ау@@ 5528
план@@ 5528
Иванов 5527
приемат 5527
подкрепа 5524
факултет 5524
A 5523
атор 5522
смър@@ 5521
фото@@ 5516
имало 5515
футбо@@ 5515
наречен 5512
ства@@ 5512
стън 5512
Пен@@ 5511
кон 5508
зо 5503
лянето 5503
R@@ 5500
преве@@ 5500
първа 5498
градът 5496
италиан@@ 5492
Тур@@ 5488
обо@@ 5488
симво@@ 5488
женията 5487
романа 5484
гло@@ 5482
албан@@ 5480
звез@@ 5480
родния 5478
градски 5475
политическа 5469
електрон@@ 5468
стин@@ 5468
дже@@ 5465
лище 5462
нейната 5462
борба 5460
ъм 5459
дълбо@@ 5458
1961 5457
b@@ 5457
територии 5455
логия 5450
et 5448
отгле@@ 5448
арти@@ 5447
Заедно 5446
мира 5446
Н 5445
тния 5445
юго@@ 5445
1956 5443
художник 5439
Голяма 5437
посещава 5436
северно 5436
рам@@ 5435
зват 5431
um 5429
рабо@@ 5428
име@@ 5427
поддържа 5427
Гвинея 5425
изку@@ 5424
кин@@ 5421
контра@@ 5421
орден 5419
обучение 5418
рина 5418
1963 5417
вместо 5417
рява 5416
Швеция 5415
1000 5414
стени 5411
миналото 5406
нин@@ 5405
теория 5399
Дъл@@ 5396
Търново 5394
маса 5393
Кре@@ 5392
глава 5391
дома 5390
стоя@@ 5387
1958 5385
33 5385
X 5379
Све@@ 5379
интер@@ 5379
българите 5374
Вен@@ 5373
Скопие 5373
долара 5370
ходи 5367
източници 5364
бив@@ 5363
действа 5362
ски@@ 5361
отколкото 5360
магни@@ 5359
стойност 5358
премества 5355
състоя@@ 5355
Докато 5354
известните 5354
N@@ 5353
ванията 5352
Кле@@ 5350
шев 5349
Нор@@ 5344
негово 5342
средно 5342
изиск@@ 5341
клуба 5340
кт 5340
активно 5336
математи@@ 5336
Софи@@ 5335
тация 5333
Злат@@ 5332
1936 5329
обект 5328
1924 5321
жител@@ 5320
селата 5320
свой 5318
водят 5317
рения 5317
училището 5316
мери@@ 5312
дат@@ 5311
разполага 5311
in 5310
Тан@@ 5308
400 5306
Член 5302
мно@@ 5301
Тео@@ 5299
рядко 5299
йд 5296
разби@@ 5296
тво@@ 5295
Ней@@ 5291
музиката 5291
Константинопол 5289
наследство 5289
жите 5288
фил@@ 5288
Тракия 5285
режисьор 5285
подобни 5281
съеди@@ 5281
яр@@ 5279
лично 5277
революционер 5277
шена 5276
? 5275
херцо@@ 5275
центра@@ 5274
рото 5273
яне 5272
мента 5269
1926 5268
успеш@@ 5265
нео@@ 5264
Сред@@ 5263
младеж@@ 5263
лу 5262
цяло 5262
езика 5260
ствената 5260
никога 5256
Кариера 5255
Етнография 5254
превод 5253
Уи@@ 5252
мей@@ 5251
поя@@ 5249
дно 5248
Мъ@@ 5246
Хер@@ 5245
зан 5243
успяват 5242
горе@@ 5240
сък 5239
1903 5238
аре@@ 5237
гръ@@ 5237
нове@@ 5237
работят 5237
Гер@@ 5235
римски 5235
Пале@@ 5234
сията 5232
икономиче@@ 5231
сред@@ 5231
Е 5229
36 5228
годишно 5227
обита@@ 5226
нем@@ 5225
техника 5224
добра 5222
люби@@ 5221
създават 5221
комуни@@ 5220
копи@@ 5218
Тъй 5215
образува 5215
статистика 5215
броя 5214
чено 5213
4@@ 5212
носител 5212
сан 5211
раните 5210
хор@@ 5210
стина 5208
закри@@ 5207
използването 5201
скъ@@ 5196
Ван@@ 5195
тически 5195
операция 5194
пря@@ 5186
34 5183
режисьора 5182
Лин@@ 5181
млн. 5181
поръ@@ 5181
продължават 5177
връзки 5175
мена 5174
крайцери 5172
достатъчно 5169
огром@@ 5167
гон@@ 5166
линии 5166
дет@@ 5163
нали@@ 5162
бен@@ 5160
германски 5157
150 5154
северо@@ 5154
духов@@ 5151
Анто@@ 5149
бели 5149
бун@@ 5149
майстор 5147
бира 5144
герой 5144
между@@ 5144
сна@@ 5143
взе@@ 5142
отбеля@@ 5142
нар 5141
нася@@ 5140
микро@@ 5139
определени 5138
разпреде@@ 5138
партията 5133
пода@@ 5133
хран@@ 5133
мъже 5130
Швейцария 5129
число 5129
Крал@@ 5128
залив 5125
кали@@ 5125
литератур@@ 5124
кция 5123
издадена 5121
зен@@ 5120
последния 5117
революционна 5117
научни 5116
храма 5112
високи 5111
1935 5108
база 5106
изработ@@ 5106
реки 5104
търговски 5102
1952 5097
дълбочина 5096
чиято 5096
джи 5094
дума 5092
надесе@@ 5091
меди@@ 5085
Българ@@ 5084
броне@@ 5084
възраст@@ 5082
дости@@ 5082
еми 5082
британ@@ 5080
1929 5079
Тай@@ 5078
Дар@@ 5077
Спа@@ 5075
бю@@ 5074
свои 5074
1914 5073
сингъл 5073
Първа 5070
лист@@ 5068
фронт 5066
размери 5065
Джордж 5058
Ян@@ 5058
цки 5055
сбург 5054
Елена 5052
Дю@@ 5051
няване 5049
ѐ@@ 5049
ООН 5048
0@@ 5047
имена 5047
Софийския 5045
1925 5044
значи@@ 5043
собственост 5041
минути 5040
Колумбия 5039
счита 5037
срещ@@ 5035
Пол@@ 5034
обез@@ 5034
административен 5032
1921 5031
генера@@ 5030
номер 5025
използван 5024
O@@ 5023
християни 5023
централната 5020
последовате@@ 5019
ам@@ 5018
ката@@ 5015
хан 5015
ент 5011
македон@@ 5009
Послед@@ 5008
гли 5008
Кат@@ 5007
ВМОРО 5004
вяват 5003
цвят 5002
дението 5000
янето 5000
сръб@@ 4999
жъл@@ 4997
вземат 4991
т.н. 4991
храна 4991
войска 4990
вало 4989
фен@@ 4989
Около 4988
птици 4987
творби 4987
Тех@@ 4986
37 4985
дати@@ 4983
тяхната 4983
кър 4982
оце@@ 4982
разкри@@ 4982
западна 4981
седем 4981
сел 4979
достав@@ 4977
тното 4976
предло@@ 4975
художе@@ 4975
човека 4974
стан 4971
риа@@ 4970
наследник 4967
пру@@ 4967
тина 4967
къде 4965
близ@@ 4962
главния 4961
икономически 4961
полски 4960
недо@@ 4959
дво@@ 4958
присъеди@@ 4956
мото 4955
стър@@ 4955
ващата 4954
мани@@ 4954
1908 4953
рит 4952
Националната 4950
дор 4950
нико@@ 4950
ителя 4947
племен@@ 4945
1922 4943
нове 4943
тирани 4941
построен 4939
Министерството 4935
есента 4935
стаби@@ 4935
кула 4933
американската 4932
войвода 4932
участ@@ 4932
думи 4930
42 4926
дията 4926
компютър@@ 4926
Пор@@ 4925
постро@@ 4923
доби@@ 4922
споменава 4922
ов@@ 4920
Мин@@ 4919
иде@@ 4919
епи@@ 4918
серия 4917
държавен 4916
линията 4916
Русе 4914
брега 4913
уз@@ 4910
Сти@@ 4909
тона 4909
ническа 4907
тран@@ 4906
предназна@@ 4905
1951 4904
ничен 4904
ражда 4904
такъв 4904
Ф 4900
моно@@ 4900
щение 4899
поле@@ 4898
стопан@@ 4895
втора 4894
вън@@ 4893
Чу@@ 4892
продукти 4892
Брат 4891
комплекс 4891
поп 4891
краси@@ 4890
числе@@ 4886
формира 4884
чината 4884
Сле@@ 4882
жна 4880
1953 4879
равни@@ 4878
Римската 4877
мощ@@ 4877
създаване 4876
1877 4873
Велики 4872
Ол@@ 4870
възник@@ 4867
зар@@ 4865
стер@@ 4865
Белгия 4864
1933 4863
жки 4863
игра 4863
бър 4862
окръ@@ 4862
осигур@@ 4859
променя 4859
върха 4855
код 4854
65 4852
писате@@ 4852
после 4850
рон@@ 4848
въоръ@@ 4846
рих 4846
хия 4846
ль@@ 4842
1957 4841
обратно 4841
прие@@ 4841
крайцера 4840
меня 4838
утвър@@ 4835
Горна 4834
власти 4833
55 4832
Ам@@ 4831
Джу@@ 4825
Руската 4824
a@@ 4823
пристига 4823
провеждат 4821
Загора 4820
дате@@ 4820
поредица 4820
укра@@ 4817
нев 4816
дал 4815
престъп@@ 4811
защитава 4809
Съединените 4808
вз@@ 4806
Луций 4803
H@@ 4802
католи@@ 4802
расте@@ 4802
мията 4799
инте@@ 4798
1937 4793
зави@@ 4793
структура 4790
транспор@@ 4788
характер 4786
Филмът 4785
изкуството 4783
съл 4781
братя 4779
Але@@ 4778
1904 4775
Мер@@ 4774
премах@@ 4774
кани 4773
дела 4769
дълги 4769
стату@@ 4766
бъл 4765
пролетта 4765
допъл@@ 4764
хай@@ 4764
жела@@ 4762
боле@@ 4760
x 4757
дорф 4757
нейните 4756
постоян@@ 4752
Университета 4751
Димит@@ 4748
склонове 4748
моби@@ 4745
тех@@ 4743
1917 4740
чване 4740
Под 4739
благо@@ 4739
роли 4739
селища 4739
възра@@ 4738
Гар@@ 4736
опис@@ 4736
Хон@@ 4735
налага 4734
образуват 4734
единствено 4732
употреба 4731
френския 4729
дената 4727
направи 4727
принц 4727
проф 4723
проце@@ 4720
тира@@ 4720
Мит@@ 4716
подходя@@ 4715
фина@@ 4715
беше 4712
Йор@@ 4709
държа@@ 4709
Бел@@ 4708
загу@@ 4706
затова 4706
комуника@@ 4704
последната 4703
пехотен 4702
уста@@ 4702
пари 4701
фран@@ 4701
VII 4700
именно 4699
полож@@ 4699
военните 4698
граждан@@ 4692
осъществява 4692
украин@@ 4692
зъ@@ 4691
Франц 4687
герман@@ 4687
футболен 4687
мор 4684
изключение 4682
Една 4681
ктор 4681
Алек@@ 4679
отряд 4678
камък 4675
архи@@ 4674
каз@@ 4674
75 4673
гот@@ 4673
I@@ 4669
осем 4669
наричан 4667
Гро@@ 4665
Купата 4665
тиран 4663
взима 4660
засе@@ 4660
ensis 4659
къл@@ 4658
нари@@ 4658
Сюжет 4657
нав@@ 4657
комисия 4653
подчи@@ 4652
дейността 4651
Спи@@ 4649
евре@@ 4649
регистри@@ 4649
зин@@ 4648
вери@@ 4647
1954 4646
Ед@@ 4644
американска 4644
интерес 4642
тру@@ 4642
гна@@ 4640
международни 4637
ѝ@@ 4636
види@@ 4635
гон 4634
използване 4634
растения 4634
гру@@ 4632
Гай 4630
заявява 4629
намалява 4627
офи@@ 4627
ь@@ 4624
Юж@@ 4621
оне@@ 4620
поста 4620
старите 4620
Мартин 4618
отдел 4618
турата 4618
она@@ 4617
благодарение 4615
преподава 4615
сена 4615
разви@@ 4613
труд 4613
заповед 4611
хо 4611
варя@@ 4610
пуснат 4606
Дунав 4604
телевизион@@ 4604
Кли@@ 4603
лед@@ 4599
Кам@@ 4596
събра@@ 4595
дка 4593
and 4592
появяват 4591
’ 4589
жът 4587
текст 4587
1932 4585
ърс 4585
местни 4584
пост 4581
произве@@ 4581
основан 4580
нещо 4579
сведения 4579
кмет 4578
вся@@ 4577
теро@@ 4577
измер@@ 4575
изпратен 4573
алното 4568
Съюза 4567
1910 4566
корпус 4566
чения 4566
носят 4565
онът 4565
пъту@@ 4565
товете 4564
Повечето 4562
Сту@@ 4561
памет@@ 4561
дените 4559
побеждава 4559
оръжие 4556
нено 4555
следва@@ 4555
сериал 4554
Балкан@@ 4553
пози@@ 4551
западните 4550
обекти 4550
определя@@ 4550
щане 4548
кле@@ 4547
бое@@ 4546
ъри 4546
изпълните@@ 4543
железопъ@@ 4542
вале@@ 4541
линко@@ 4541
рез@@ 4540
кам@@ 4534
наречена 4534
постъпва 4533
веднага 4532
родо@@ 4532
мона@@ 4529
Индонезия 4528
Робърт 4527
телевизия 4527
комплек@@ 4524
идеята 4523
ковски 4523
сови 4521
източ@@ 4520
ландски 4520
1955 4517
журнали@@ 4517
коро@@ 4517
траки@@ 4516
замък 4515
кори@@ 4515
напа@@ 4512
ево 4509
насят 4508
крепост 4506
алния 4503
проек@@ 4499
командването 4497
стки 4497
биват 4496
хард 4496
шат 4495
сната 4494
добри 4493
Фердинанд 4492
скулп@@ 4491
лейтенант 4489
реги@@ 4489
техниче@@ 4489
федерация 4488
рак 4486
ЦСКА 4485
жаване 4484
сра@@ 4484
старо@@ 4484
Конрад 4483
отли@@ 4482
св 4481
все@@ 4480
уд@@ 4480
клон 4479
нови@@ 4479
прекъс@@ 4478
цяла 4474
дебю@@ 4472
срещи 4472
в. 4471
изка@@ 4471
вока@@ 4467
скан@@ 4467
спек@@ 4467
установ@@ 4467
обработ@@ 4465
ралната 4465
относно 4464
дипло@@ 4462
мър@@ 4462
тек@@ 4462
просто 4460
пери@@ 4459
изви@@ 4458
лети@@ 4455
едновременно 4454
разв@@ 4452
режим 4452
материал 4451
разгле@@ 4451
циона@@ 4451
Спо@@ 4449
богат@@ 4449
Или@@ 4448
чина 4448
Свет@@ 4447
федера@@ 4446
лки 4445
открито 4445
Атина 4444
самия 4444
стадион 4441
чийто 4441
пия 4439
Въл@@ 4438
склю@@ 4438
Сал@@ 4437
тяхното 4437
северозапад 4435
количество 4434
раната 4434
ску@@ 4432
64 4429
училища 4428
полета 4427
ема 4426
пространство 4426
рес 4424
тяло 4424
Междусъюзническата 4423
мисле@@ 4421
52 4420
контроли@@ 4420
стра 4418
бни 4417
00 4416
рите@@ 4416
Аржентина 4415
гне@@ 4414
произлиза 4414
сова 4413
държа 4412
постоянно 4412
широ@@ 4412
графия 4409
Автор 4408
Бя@@ 4408
дръ@@ 4407
стват 4407
типи@@ 4406
клет@@ 4405
Ернст 4404
изве@@ 4404
негови 4404
Ню@@ 4402
щаб 4402
Албания 4400
нача@@ 4400
Южен 4399
бин@@ 4395
Томас 4394
изпълнение 4394
прекарва 4394
спрямо 4393
гео@@ 4392
ляз@@ 4391
годиш@@ 4390
изключ@@ 4390
свидетел@@ 4389
Вел@@ 4388
бва 4387
кос@@ 4387
Бъ@@ 4386
пото@@ 4384
Край@@ 4382
информа@@ 4382
орган 4381
запла@@ 4380
лос 4379
лиза@@ 4378
финансо@@ 4378
ческото 4378
o 4376
оцен@@ 4372
тил 4372
Ска@@ 4370
ращи 4368
паша 4366
действието 4365
квартал 4365
обще@@ 4364
специфи@@ 4362
какви 4359
свър@@ 4358
нан@@ 4355
циви@@ 4355
ствените 4353
чният 4353
избя@@ 4351
източно 4351
йският 4348
промен@@ 4348
Хитлер 4346
побед@@ 4345
канал 4344
Един@@ 4343
жата 4342
леги@@ 4342
фак@@ 4341
Рей@@ 4340
добрите 4340
Богородица 4337
какво 4337
лово 4336
La 4335
Сара@@ 4335
зала 4335
остав@@ 4335
шкото 4335
основен 4334
Лъ@@ 4332
лян 4332
ис@@ 4331
K@@ 4330
Тер@@ 4326
Впоследствие 4324
Село 4323
играят 4320
мъж@@ 4320
пита@@ 4320
победата 4319
чита@@ 4319
amp 4318
западно 4318
цу@@ 4318
театра@@ 4317
важна 4315
голямото 4310
президента 4309
вина 4308
Х 4306
изуча@@ 4306
хърват@@ 4306
1931 4304
Пол 4302
Тор@@ 4301
поредицата 4301
Фло@@ 4300
тема 4299
Откри@@ 4294
Учи 4293
печат@@ 4293
гърци 4292
Например 4290
документи 4289
мента@@ 4289
нейния 4289
опит@@ 4287
гроб@@ 4286
програмата 4286
сравнение 4286
разпо@@ 4284
тай@@ 4283
жка 4282
исля@@ 4282
клю@@ 4282
берт 4281
Обикновено 4279
Кате@@ 4278
бло@@ 4277
ляват 4277
религиоз@@ 4277
Ара@@ 4276
вали@@ 4276
нг 4276
географ@@ 4275
зало@@ 4275
Едуард 4274
рие 4274
тието 4274
сериала 4273
щат@@ 4273
високата 4272
тима 4270
чката 4268
тическа 4267
Национа@@ 4266
W@@ 4265
Кир@@ 4264
музика@@ 4264
полковник 4263
ствието 4263
39 4262
слън@@ 4261
atus 4260
библиотека 4260
нати@@ 4259
нените 4257
североизток 4257
истин@@ 4256
негова 4253
руския 4253
600 4252
райки 4251
фал@@ 4251
чиито 4250
енерги@@ 4249
Става 4248
бой 4248
тивни 4245
стъпва 4244
тогаваш@@ 4244
общини 4241
чева 4241
Черно@@ 4238
даден 4237
43 4236
Кали@@ 4236
ждават 4233
лката 4233
Живо@@ 4232
изра@@ 4232
Вин@@ 4231
62 4230
екра@@ 4230
еска@@ 4229
югоизток 4229
икономика 4226
въпроси 4225
Корея 4223
кал@@ 4223
обича@@ 4223
ологи@@ 4221
коп@@ 4220
високо@@ 4219
пома@@ 4219
градовете 4217
общност 4216
Съвет@@ 4215
54 4214
Албрехт 4213
турнир 4212
разру@@ 4210
Зо@@ 4209
Илия 4209
класа 4209
Следва@@ 4208
изло@@ 4208
външ@@ 4207
ръководи 4207
сблъ@@ 4207
лове 4206
1916 4205
изградена 4205
руската 4205
мор@@ 4204
н.в. 4204
приет 4203
устието 4200
причини 4199
сътрудничество 4199
тиче@@ 4196
конгрес 4194
тки 4193
търгов@@ 4193
Авто@@ 4190
Тю@@ 4190
лес 4190
Гру@@ 4189
университе@@ 4189
швед@@ 4189
вната 4187
британски 4185
ас 4183
Дейвид 4180
всяко 4179
мом@@ 4179
кана 4178
Хоен@@ 4177
висок 4176
сар 4176
нейното 4175
разбира 4175
Макар 4174
1906 4173
лев@@ 4173
Бю@@ 4171
всичките 4168
обикнове@@ 4168
важни 4167
получи 4167
определен 4162
преси@@ 4162
44 4161
фици@@ 4161
Първото 4158
хидро@@ 4158
показват 4155
аб@@ 4153
автор@@ 4153
лища 4153
енен 4151
изли@@ 4151
крепостта 4151
ори@@ 4150
ерата 4149
съществуват 4148
падането 4146
извън@@ 4145
правото 4145
фолкло@@ 4143
първонача@@ 4141
тност 4138
лови 4137
лива 4136
48 4133
Родена 4132
погребан 4132
манд@@ 4131
основната 4131
разказва 4131
Първи 4129
популяр@@ 4129
зер@@ 4128
учени 4128
архитек@@ 4127
промиш@@ 4126
повре@@ 4125
върне 4124
дис 4123
сво@@ 4123
Стро@@ 4122
краля 4122
страните 4119
Стан@@ 4117
заве@@ 4116
n@@ 4112
ционно 4112
царство 4111
км2 4110
тери@@ 4110
обхваща 4109
подпис@@ 4109
полет 4109
поме@@ 4109
Еле@@ 4108
Ботев 4105
континента@@ 4104
приятел 4104
изследване 4103
йка 4103
посе@@ 4101
философия 4098
сцена 4097
Бело@@ 4096
партн@@ 4096
d@@ 4095
Иран 4094
лд@@ 4094
ia 4093
km2 4092
s@@ 4092
поет 4089
търговия 4089
оча@@ 4088
затвор 4086
тели 4086
Кър@@ 4085
големина 4085
сам 4085
фаза 4084
десе@@ 4083
лекар 4083
лството 4081
ниче@@ 4081
сътруд@@ 4080
Август 4079
Пав@@ 4078
въоръжение 4078
вдъх@@ 4076
живя@@ 4076
племена 4076
победи 4076
Обитава 4075
o@@ 4074
представляват 4074
жено 4073
извър@@ 4070
труд@@ 4068
фанта@@ 4068
зано 4067
рекла@@ 4067
ционните 4067
свещеник 4066
днеш@@ 4064
загла@@ 4063
технологи@@ 4062
засел@@ 4061
приятел@@ 4061
що@@ 4061
подвод@@ 4059
седмици 4057
бригада 4056
основана 4056
рев@@ 4055
санд@@ 4054
чество 4054
индустри@@ 4053
Хал@@ 4052
произвежда 4052
стове 4052
вените 4051
зането 4049
оценка 4049
уре@@ 4048
Хр 4047
вън 4047
дент 4047
политиче@@ 4047
Израел 4046
изграждането 4046
джиев 4045
дски 4044
Двамата 4040
проекти 4040
кат 4039
лесно 4039
източник 4038
ул@@ 4038
крайбрежие 4036
оло@@ 4034
поход 4033
предиш@@ 4032
Национален 4031
държи 4030
рес@@ 4030
селището 4030
времен@@ 4028
лицата 4028
данъ@@ 4027
добав@@ 4025
дов 4024
нес 4022
тари@@ 4022
затво@@ 4021
нямат 4021
предизвиква 4021
къл 4020
продължител@@ 4020
1911 4019
бого@@ 4018
постига 4018
гол@@ 4017
слав@@ 4016
Хесен 4015
кар 4015
0,@@ 4014
t 4014
осигурява 4014
фек@@ 4011
глав@@ 4009
лон@@ 4008
писана 4008
зло@@ 4005
лар@@ 4005
стата 4005
гове 4004
образованието 4004
специалност 4003
рису@@ 4002
спомена@@ 4002
рали 4001
ана@@ 4000
култур@@ 4000
служ@@ 4000
независимост 3999
комунистиче@@ 3998
Кьо@@ 3997
дъж@@ 3997
затвора 3997
сигур@@ 3997
геро@@ 3995
обявен 3995
56 3994
тежки 3993
форд 3993
събира 3991
став@@ 3990
Долна 3988
хове 3988
Ала@@ 3987
анима@@ 3986
въгле@@ 3986
пом@@ 3986
притежава 3986
чаване 3985
Чо@@ 3984
общ 3983
1902 3982
гради@@ 3981
кро@@ 3980
югозапад 3980
друго 3979
лай@@ 3979
гер@@ 3977
дина@@ 3977
c@@ 3976
науките 3976
ae 3973
Георгиев 3972
флота 3971
Малко 3968
Мюнхен 3968
граждани 3968
правата 3968
жан@@ 3966
Дър@@ 3964
g 3963
хва@@ 3963
Климент 3962
графство 3961
лира 3961
йе@@ 3959
руските 3959
1907 3957
главната 3957
парти@@ 3957
сберг 3956
листи 3955
Фили@@ 3954
Хенри 3954
ителните 3953
мини 3951
фика@@ 3951
машини 3950
Нидерландия 3949
Христос 3949
Л 3948
защите@@ 3948
лице 3948
свеще@@ 3948
Юго@@ 3947
изъм 3947
преподавател 3947
Петров 3946
бойни 3946
медал 3946
убийството 3946
членовете 3946
Адолф 3944
западния 3943
вице@@ 3941
рово 3940
говор 3938
мер 3937
сии 3937
вариант 3936
улица 3936
Дан@@ 3935
Сръб@@ 3934
41 3930
месе@@ 3929
хил. 3928
Ата@@ 3926
Голямата 3926
далеч 3925
претен@@ 3925
нас 3924
увеличава 3924
нало@@ 3923
тивна 3923
международ@@ 3920
Кънчов 3919
владетел 3919
архитектура 3915
открита 3915
размер 3914
Хен@@ 3913
снати 3913
вието 3909
Коста 3907
пие@@ 3907
ранните 3906
B 3905
емо@@ 3905
яна 3905
главата 3902
графски 3902
сми@@ 3901
възста@@ 3900
1909 3899
поне 3899
силата 3898
тка 3897
зимата 3895
меха@@ 3895
гство 3894
лични 3894
ляр@@ 3893
ментите 3893
Стоян 3892
дон 3892
планини 3891
еро@@ 3890
народна 3890
олимпийски 3890
Вътрешната 3888
публику@@ 3886
бизнес 3885
ряване 3885
династията 3883
120 3880
чани 3880
ширина 3878
автори 3876
шения 3876
бед@@ 3874
изгра@@ 3874
национално 3874
ръковод@@ 3873
Мате@@ 3872
бан 3866
мили 3864
поставят 3862
функции 3862
инструменти 3860
няването 3858
войските 3856
73 3855
72 3854
Част 3854
залива 3854
Кро@@ 3853
къщата 3853
Милано 3852
Ну@@ 3851
най@@ 3850
загуби 3848
зада@@ 3848
ника@@ 3848
произведен 3848
цве@@ 3848
Него@@ 3847
арестуван 3846
Португалия 3845
действа@@ 3845
преминават 3845
колкото 3843
българ@@ 3842
космиче@@ 3842
сне@@ 3841
Европейския 3840
команд@@ 3839
прияте@@ 3839
лив 3838
публиката 3836
Словения 3834
действ@@ 3834
Ис@@ 3833
Ели@@ 3832
ела 3832
стъл@@ 3831
избухването 3828
отборът 3828
пан 3828
фор 3827
on 3826
общи@@ 3825
ол@@ 3823
въздуш@@ 3822
документа@@ 3820
Атанас 3819
гласу@@ 3819
запазени 3819
Насау 3817
дърво 3817
отне@@ 3817
рания 3816
култури 3815
Скоро 3814
синте@@ 3813
технически 3813
Зи@@ 3811
гате@@ 3811
1885 3810
каза@@ 3808
единственият 3806
съдържание 3806
ващия 3804
тора 3804
лева 3803
67 3801
визи@@ 3801
Рабо@@ 3800
Антон 3799
рим@@ 3799
рова@@ 3799
цер@@ 3798
шаване 3798
руп@@ 3797
Солу@@ 3796
писва 3796
сер@@ 3795
Сим@@ 3794
радио 3794
Конго 3793
1873 3791
нини 3791
проекти@@ 3791
Втора 3790
чил 3790
рел 3787
фт 3785
Али@@ 3784
взри@@ 3784
Ла 3783
паз@@ 3783
бон 3782
57 3781
63 3781
ic@@ 3777
n 3777
устройство 3777
гат@@ 3776
дам 3776
наблюдава 3776
лег@@ 3775
логията 3775
53 3774
Виктор 3773
анали@@ 3772
камен@@ 3771
Светов@@ 3770
езера 3770
стой@@ 3770
зад@@ 3768
подобно 3768
минера@@ 3767
въпрос 3766
новена 3765
старата 3763
Филипи@@ 3760
чужбина 3760
лей 3759
ителната 3758
йците 3758
Цариград 3756
ар 3756
зина 3756
надесет 3756
участник 3756
бежанци 3755
реле@@ 3753
Александ@@ 3752
лизация 3752
ност@@ 3752
подгот@@ 3751
76 3750
подготовка 3750
целта 3750
g@@ 3749
ефектив@@ 3749
търси 3748
вну@@ 3746
пояснение 3745
Шо@@ 3744
административ@@ 3744
осъ@@ 3744
престо@@ 3743
поставени 3741
сва 3741
наи@@ 3740
Съвета 3739
древно@@ 3739
жката 3739
изследовате@@ 3739
придобива 3739
армен@@ 3738
Велико 3737
продуци@@ 3737
Численост 3736
нис 3735
региона@@ 3735
кралица 3734
реш@@ 3734
фелд 3734
&#124; 3733
накрая 3731
отстъп@@ 3731
ракет@@ 3730
Олимпи@@ 3729
съветник 3729
съветски 3729
ядре@@ 3729
доли@@ 3728
кръст 3727
стопанство 3727
получа@@ 3726
Род@@ 3725
Херман 3725
скри@@ 3725
тури@@ 3725
слабо 3724
Фла@@ 3723
кват 3723
гането 3722
твърде 3721
Среща 3720
Бавария 3719
дебютира 3719
изво@@ 3719
закон 3718
дс 3717
Майкъл 3715
нска 3715
обслуж@@ 3715
носе@@ 3714
повърхността 3714
национални 3713
низация 3712
Вит@@ 3711
водите 3711
ристи@@ 3711
47 3707
турци 3706
дейности 3705
осъщест@@ 3705
програми 3703
форма@@ 3703
ге 3702
вода@@ 3699
категория 3698
статии 3698
ученици 3698
македоно 3696
крайцер 3694
ничка 3694
местен 3693
процеса 3693
Ирландия 3692
Оскар 3692
убива 3692
Кей@@ 3691
Роб@@ 3691
карти@@ 3690
лият 3690
Руско 3689
единици 3689
източните 3688
обществото 3688
партии 3688
експедиция 3687
звезда 3687
пясъ@@ 3686
Кралство 3684
броят 3683
ствия 3683
офор@@ 3681
светов@@ 3681
Тру@@ 3680
вари@@ 3680
звание 3680
Истори@@ 3679
фестивал 3677
журналист 3676
медицина 3676
онова 3676
финанси@@ 3676
миш@@ 3675
жават 3674
смятат 3674
Методий 3672
назна@@ 3671
вай@@ 3670
зел 3667
рос 3667
Сю@@ 3666
джу@@ 3665
опас@@ 3665
Виетнам 3664
кович 3664
лие 3664
национална 3664
музикални 3663
250 3662
Оли@@ 3661
Хел@@ 3659
архиепископ 3659
динами@@ 3659
против@@ 3659
Ей@@ 3657
американския 3657
такава 3656
Лос 3655
етап 3655
любов 3655
мате@@ 3655
всъщност 3654
ръка 3654
илю@@ 3653
използвана 3652
метод 3652
играч 3651
аку@@ 3649
дина 3648
компании 3648
разруш@@ 3647
ралните 3646
46 3645
единстве@@ 3645
изиграва 3645
чар@@ 3645
изборите 3642
Бори@@ 3641
сява 3641
пристани@@ 3640
двой@@ 3639
фло@@ 3639
малките 3637
Белград 3636
вди@@ 3636
органи@@ 3635
подава 3635
Националния 3634
отстра@@ 3634
промяна 3634
сис 3634
характеристики 3634
скали 3632
границите 3631
Стоянов 3630
олог 3630
Норвегия 3629
Съветския 3629
включени 3629
запад@@ 3629
вци 3627
градче 3627
дефини@@ 3626
добро 3626
лип@@ 3626
чването 3626
ционната 3625
Николов 3624
отделя 3623
тично 3623
социалистиче@@ 3621
продук@@ 3619
цио@@ 3619
L 3618
Ком@@ 3617
водни 3617
дължи 3617
френ@@ 3617
1901 3616
трени@@ 3616
предава 3614
чита 3613
парламентар@@ 3612
времена 3611
хаузен 3611
800 3610
Хю@@ 3610
бор 3610
мисия 3609
I. 3607
дието 3607
социали@@ 3607
зър@@ 3606
прив@@ 3606
забеля@@ 3604
i@@ 3603
помощник 3603
последният 3603
сексу@@ 3601
ляв 3599
нало 3599
отбори 3599
свети@@ 3599
турците 3598
леген@@ 3597
напред@@ 3594
уе@@ 3594
отговор@@ 3592
Епи@@ 3591
глас 3591
куп@@ 3591
мунд 3591
ура 3591
хвърля 3591
знак 3589
атака 3588
взаимо@@ 3587
разделя 3587
рият 3587
второ 3586
династия 3586
лови@@ 3586
специални 3585
неговият 3584
VIII 3583
Ган@@ 3583
Бил 3582
тява 3582
шките 3582
приблизително 3580
цбург 3580
изне@@ 3579
Босна 3578
годишната 3578
функция 3575
десен 3573
културно 3572
публи@@ 3572
оба@@ 3571
основател 3571
тропи@@ 3571
напра@@ 3570
черно@@ 3570
имо@@ 3569
премест@@ 3569
ъгъл@@ 3569
конкре@@ 3566
ЦК 3565
борбата 3565
сръбски 3565
новото 3563
оните 3563
издате@@ 3562
Института 3561
бав@@ 3560
едноименния 3560
елемент 3560
забав@@ 3560
запознава 3560
вътреш@@ 3559
нет 3559
предполага 3558
НС 3557
базата 3557
въстанието 3557
самолети 3557
чът 3557
пазар 3556
Теле@@ 3555
араб@@ 3555
здра@@ 3554
принуден 3554
газо@@ 3553
източна 3553
ваните 3551
движението 3551
пари@@ 3551
писи 3551
убити 3551
братята 3550
занима@@ 3550
стено@@ 3550
островите 3549
морската 3548
Народ@@ 3546
силите 3546
Баден 3545
нахлу@@ 3545
свързан 3543
окупи@@ 3542
индивиду@@ 3540
населе@@ 3540
пример 3540
думата 3539
налите 3539
операции 3538
догово@@ 3535
мис@@ 3534
кни@@ 3533
хан@@ 3532
свързана 3531
отговаря 3529
управител 3529
59 3528
Окръг 3528
вий 3528
кино@@ 3528
конфликт 3528
играта 3527
изкуства 3527
каква 3527
равнина 3527
Кюстендил 3525
изглежда 3525
независи@@ 3525
стични 3525
Кол@@ 3524
ид@@ 3524
мостта 3524
стро 3524
51 3522
Ана@@ 3520
двора 3520
сценарий 3519
вероя@@ 3518
бомбарди@@ 3516
ничи 3516
изма 3515
световно 3515
освободен 3513
певица 3513
тат 3512
повод 3511
съсед@@ 3511
единица 3510
летие 3510
чените 3510
избира 3509
Ори@@ 3507
Както 3506
преслед@@ 3505
съобще@@ 3504
Пле@@ 3500
моду@@ 3499
списък 3499
X@@ 3497
Пъ@@ 3497
Родо@@ 3497
избра@@ 3497
Никола@@ 3496
местното 3496
вод 3495
отбраната 3493
тон@@ 3493
маните 3492
хов@@ 3492
Юли@@ 3490
ляни 3490
сцената 3489
кува 3488
Асен 3486
иска@@ 3486
създадени 3486
фен 3485
l 3483
Лей@@ 3481
ней 3481
писмо 3480
замъка 3478
мова 3478
поля@@ 3478
Сър@@ 3477
сферата 3477
сар@@ 3475
рието 3474
Македо@@ 3473
ническите 3473
sa 3472
академи@@ 3472
Герман@@ 3471
Пот@@ 3471
Сви@@ 3471
епизод 3471
спечели 3471
стически 3471
Съединени 3470
теоре@@ 3469
Ричард 3467
това@@ 3467
уси@@ 3467
Перу 3466
Мен@@ 3465
Рек@@ 3463
православ@@ 3463
66 3460
днев@@ 3460
Сар@@ 3459
шкия 3458
смисъл 3457
Зал@@ 3456
новски 3456
оставя 3456
стратеги@@ 3455
Списък 3453
S 3451
кампания 3451
светлина 3451
частично 3451
шо 3450
завръщането 3449
трибу@@ 3448
отговор 3446
мпи@@ 3445
инвести@@ 3444
стов 3444
т. 3444
1895 3442
член@@ 3442
Остро@@ 3441
учител@@ 3441
съдеб@@ 3438
драма 3436
on@@ 3435
морето 3435
трудно 3435
тик 3434
филмо@@ 3434
Ной@@ 3433
публикуван 3433
строй@@ 3433
ърк@@ 3432
Гон@@ 3431
нощта 3431
църкви 3431
бек 3428
долина 3428
реди@@ 3428
експери@@ 3426
лети 3426
труда 3426
Андрей 3425
основна 3423
стените 3423
знае 3421
шия 3421
изби@@ 3420
дълга 3419
мачове 3419
спът@@ 3419
f@@ 3418
болница 3417
дър 3417
космически 3416
главните 3415
стия 3415
прехвър@@ 3413
86 3412
нару@@ 3412
ходите 3412
памет 3411
повлия@@ 3411
притоци 3411
рица 3411
роди@@ 3411
средновеков@@ 3410
дови@@ 3409
медицин@@ 3409
рация 3409
Плевен 3406
Прав@@ 3406
запазва 3406
фамилия 3406
Вой@@ 3405
Рудолф 3405
Хор@@ 3405
98 3404
d 3403
лъчеперка 3403
офицери 3401
тера@@ 3401
изпълняват 3400
сие 3400
p@@ 3399
разкази 3399
общин@@ 3398
Европей@@ 3397
опреде@@ 3397
строителството 3397
Тран@@ 3396
империята 3396
био@@ 3395
граници 3395
второто 3394
проя@@ 3394
физика 3394
циф@@ 3394
Гали@@ 3393
вещества 3393
испански 3393
нителни 3393
издига 3391
рийски 3391
лекар@@ 3390
пътища 3389
фин@@ 3389
френската 3388
вява 3386
възможността 3382
народ 3382
наде@@ 3381
позиции 3377
южните 3376
Дон@@ 3375
бла@@ 3375
ливи 3375
революцион@@ 3375
хът 3375
жба 3374
специализи@@ 3374
дадена 3373
корабо@@ 3373
вест@@ 3372
прину@@ 3372
Зиг@@ 3371
нична 3371
Същата 3370
пехотна 3369
І@@ 3368
политиката 3368
см 3367
Област 3366
Получава 3365
борда 3364
ata 3363
Вашингтон 3363
Сен 3362
дома@@ 3362
екзархия 3361
Сейнт 3360
удар 3360
удар@@ 3360
традиция 3359
1896 3358
58 3358
родителите 3358
мове 3357
съдове 3357
лас 3356
приклю@@ 3356
Битоля 3355
режи@@ 3355
северните 3355
Вра@@ 3354
Международ@@ 3354
Петербург 3354
приятели 3354
слож@@ 3354
Христов 3352
способ@@ 3351
Габрово 3349
соли@@ 3349
доктор 3348
веднъж 3347
световен 3347
69 3345
er@@ 3345
достъп 3344
художествена 3344
символ 3343
тела 3343
Зем@@ 3342
завладя@@ 3342
ръцете 3341
семей@@ 3341
връщат 3339
мало@@ 3339
Ари@@ 3337
Инди@@ 3337
подо@@ 3337
y 3336
ай@@ 3336
водосборния 3336
полза 3336
увели@@ 3335
състезания 3334
Пон@@ 3333
дните 3333
определят 3333
морска 3332
Бол@@ 3330
ползва@@ 3330
пис 3329
отго@@ 3328
Българска 3327
Кипър 3327
ске@@ 3327
диалект 3326
мина 3326
Анге@@ 3323
тежко 3322
зор@@ 3321
методи 3319
ителното 3318
95 3317
тъл@@ 3316
сус 3315
механиз@@ 3314
нец 3314
сение 3314
колони@@ 3313
купата 3313
изисква 3312
дския 3311
лезе 3311
подви@@ 3311
ителят 3310
сро@@ 3310
сул@@ 3309
технологии 3309
in@@ 3307
ителност 3307
N 3306
пка 3305
градите 3304
кара@@ 3304
придру@@ 3304
случа@@ 3304
чан@@ 3304
ено@@ 3303
F 3301
листа 3301
съдържа@@ 3301
надпис 3300
нителна 3300
национа@@ 3299
дипломати@@ 3298
хре@@ 3298
Дания 3297
СС 3297
вкарва 3297
позицията 3297
Луис 3295
банка 3294
текстове 3294
дебют 3293
чия 3293
рик 3292
американските 3291
мнение 3291
природата 3291
десет@@ 3290
домини@@ 3290
стари 3290
Северен 3289
уника@@ 3289
Групата 3288
актьор@@ 3288
автоно@@ 3286
популярност 3286
важен 3284
жно 3282
конструкция 3282
чов 3282
дов@@ 3281
домакинства 3281
излъ@@ 3281
ниска 3281
стати@@ 3281
гар 3280
двор 3280
джър 3280
партизан@@ 3280
раждането 3279
ВМРО 3278
европейските 3278
метро@@ 3277
събират 3277
кило@@ 3276
нес@@ 3276
император@@ 3275
линг 3275
неза@@ 3275
брего@@ 3273
жанра 3273
останали 3273
стката 3271
Черна 3270
бори 3270
съпротив@@ 3269
една@@ 3267
избе@@ 3267
конкурс 3267
преме@@ 3266
оли@@ 3264
опълчение 3264
горната 3263
дол 3263
принци@@ 3263
окупа@@ 3261
Бат@@ 3260
лагер 3259
гау 3258
цов 3258
Мел@@ 3257
вят 3256
85 3255
93 3255
музикален 3254
бавно 3253
навлиза 3253
хъл@@ 3253
директно 3251
конститу@@ 3251
процеси 3251
свири 3251
важ@@ 3248
Венеция 3247
желез@@ 3247
концер@@ 3247
отхвър@@ 3247
49 3246
Ама@@ 3245
Черно 3245
тече 3245
1899 3244
хите 3244
лийски 3243
съм 3242
актив@@ 3241
двигател 3241
трима 3241
уда@@ 3240
лечение 3238
романи 3238
Йосиф 3237
Кристиан 3237
Малайзия 3237
корабите 3237
независимо 3237
свобода 3237
транспорт 3237
Ада@@ 3236
каче@@ 3236
укреп@@ 3236
признава 3234
чево 3234
институции 3233
пътува 3233
източния 3232
португа@@ 3232
изме@@ 3231
курс 3231
мести 3231
звезди 3230
научна 3229
тат@@ 3229
влади@@ 3227
нс 3227
отношенията 3226
Анджелис 3225
Често 3225
интернет 3225
Ур@@ 3224
природни 3224
зан@@ 3223
карта 3223
нските 3223
оке@@ 3223
внимание 3222
значителни 3222
боли@@ 3221
жително 3221
гии 3219
обшир@@ 3219
поро@@ 3219
ръководство 3219
заре@@ 3218
споразумение 3218
наука 3216
промишленост 3216
Оби@@ 3215
трябвало 3215
ут 3215
щен@@ 3215
поред@@ 3214
поте@@ 3212
смес@@ 3212
Гьо@@ 3210
Хам@@ 3210
Санкт 3209
студент@@ 3209
археологически 3208
въста@@ 3208
бер 3207
кано@@ 3207
криза 3206
Гю@@ 3205
ърът 3205
самата 3204
or@@ 3202
застра@@ 3202
слава 3202
Йордан 3201
изва@@ 3201
копия 3200
опити 3200
загуба 3199
Хаджи@@ 3198
to 3197
военната 3197
кой 3197
аристокра@@ 3195
кули 3195
риал@@ 3195
Няколко 3194
83 3193
Йозеф 3193
мино@@ 3193
широка 3193
разстояние 3191
останки 3190
съчета@@ 3190
ненията 3189
задача 3188
прести@@ 3188
трона 3188
японски 3188
следи 3187
услуги 3186
млади 3185
Римска 3183
излъчва 3183
инженер 3183
чин@@ 3183
el@@ 3182
Каролина 3182
преврат 3181
Фон@@ 3180
нищо 3180
окончателно 3180
врата 3179
определена 3179
третата 3179
едни 3177
метър 3177
Ген@@ 3176
стване 3176
латински 3174
огън 3174
зали@@ 3173
чата 3173
чко 3173
вие 3171
ползва 3171
пресел@@ 3170
яв@@ 3170
Сити 3168
профе@@ 3168
Радо@@ 3167
Швар@@ 3167
пътеше@@ 3166
препоръ@@ 3165
старши 3165
Пау@@ 3162
видео 3162
кс@@ 3162
ох@@ 3162
купа 3161
работе@@ 3161
ходът 3161
кг 3160
славян@@ 3160
мра@@ 3158
насочва 3158
събор 3158
варят 3157
ЕС 3156
потвър@@ 3156
$ 3155
Агнес 3155
състезате@@ 3155
минист@@ 3154
наличието 3154
ока@@ 3154
68 3153
откло@@ 3153
разтво@@ 3153
сериозно 3153
реша@@ 3152
тови 3151
Смо@@ 3149
устойчи@@ 3149
идеи 3148
носа 3146
чак 3145
воден 3144
жп 3143
отве@@ 3143
злат@@ 3142
освобод@@ 3141
тово 3141
1876 3140
Шан@@ 3140
зони 3140
неу@@ 3138
Тайланд 3137
Световната 3136
Стар@@ 3136
сце@@ 3136
финал 3136
ку 3134
малкото 3132
силен 3132
кови@@ 3130
мощност 3130
прило@@ 3130
поддържа@@ 3128
модели 3127
недостатъ@@ 3126
меж@@ 3124
автомати@@ 3123
парламент 3123
сада 3123
съпротива 3122
Z@@ 3121
Уол@@ 3121
течението 3121
граничи 3120
климат 3120
предаване 3120
атаку@@ 3119
драта 3119
любо@@ 3119
Само 3118
Със 3118
J@@ 3117
високите 3117
лагане 3117
попа@@ 3117
разглежда 3117
лил 3116
ря 3115
Прин@@ 3114
капита@@ 3114
нарежда 3114
наци@@ 3112
преоблада@@ 3112
Обще@@ 3111
влиянието 3111
фли@@ 3111
лии 3110
напре@@ 3110
торпе@@ 3110
стоят 3109
клетки 3108
метъл 3108
Вил@@ 3107
Симеон 3106
кер 3106
1894 3105
бин 3105
издания 3105
вул@@ 3101
ровка 3101
Ловеч 3100
Шумен 3099
совете 3098
направени 3097
трета 3097
Син 3096
Сирия 3096
бани 3095
дире@@ 3095
дружина 3093
иск@@ 3093
Йоа@@ 3092
бом@@ 3091
герои 3091
икономиката 3091
Вън@@ 3090
Шарл 3090
газ 3090
съста@@ 3090
инженер@@ 3089
мият 3089
омъжена 3089
ду 3088
участък 3088
они@@ 3086
фре@@ 3086
гал 3085
бившия 3084
Анхалт 3083
Сли@@ 3083
лез@@ 3083
положението 3082
кет 3081
адмирал 3080
Ля@@ 3078
ническата 3078
кандидат 3077
редов@@ 3077
88 3075
Попов 3075
органи 3075
Продъл@@ 3074
Югоизточна 3074
картини 3074
специали@@ 3074
IX 3073
вле@@ 3073
гъл 3073
земите 3073
изграден 3073
место@@ 3073
основано 3072
възрожден@@ 3071
забележител@@ 3071
художници 3071
имената 3070
самият 3070
домакин@@ 3069
чността 3069
Лау@@ 3068
фурт 3068
Ханс 3067
изслед@@ 3067
хал@@ 3067
институ@@ 3066
киселина 3066
Пло@@ 3065
важните 3065
пустин@@ 3065
700 3064
анализ 3064
третия 3064
мето@@ 3063
поста@@ 3063
XVIII 3062
младе@@ 3062
проблем 3062
степен@@ 3062
връзката 3060
Бой@@ 3059
шър 3058
Охридски 3057
декора@@ 3057
тради@@ 3057
Кос@@ 3056
държат 3055
продуцент 3055
произведе@@ 3055
Хърватия 3054
изстре@@ 3054
факта 3054
Христо@@ 3053
функ@@ 3053
ционния 3053
81 3052
денията 3051
нараст@@ 3051
различен 3050
Хъ@@ 3049
арабски 3049
гъл@@ 3049
построени 3049
шест@@ 3049
89 3048
Армения 3047
льо 3047
женен 3046
наследява 3045
ч. 3044
чини 3044
стар 3043
Маргарета 3042
Дължината 3041
Меди@@ 3041
ато 3041
гимназията 3041
сня@@ 3041
кер@@ 3039
познат 3039
Стой@@ 3037
махала 3037
обявена 3037
писатели 3037
лек 3036
даде 3035
ствения 3034
Тръ@@ 3033
качеството 3033
маги@@ 3033
науката 3033
Ал 3032
рибо@@ 3032
шампи@@ 3032
гани 3031
въздуха 3030
бял 3029
Бранденбург 3028
Обе@@ 3028
известния 3028
създаде 3028
копа@@ 3026
пале@@ 3026
Ангел 3025
Танзания 3025
Тек@@ 3025
възстанов@@ 3025
населени 3025
основ@@ 3024
61 3023
съби@@ 3023
бреговете 3022
предостав@@ 3022
дев 3021
настъп@@ 3021
Вюртемберг 3019
Санд@@ 3019
научен 3019
изградени 3018
олимпи@@ 3018
ІІ 3017
бит@@ 3017
няко@@ 3017
песните 3017
1880 3016
1898 3016
XIV 3016
Мадрид 3016
итите 3016
al@@ 3015
Прага 3015
чеството 3015
астроно@@ 3014
мъж 3014
нира 3014
Луиза 3013
дие 3013
уча@@ 3013
Оу@@ 3012
шко@@ 3012
посредством 3011
приета 3011
озву@@ 3010
помо@@ 3008
Вто@@ 3007
1897 3006
Аб@@ 3005
асоциация 3005
la 3004
Съществуват 3004
изпит@@ 3004
обика@@ 3004
градина 3003
Битката 3002
гово@@ 3001
разрабо@@ 2999
Заради 2998
Пала@@ 2998
международен 2998
остро@@ 2998
съдържат 2997
кру@@ 2996
лато@@ 2996
ресурси 2996
фов 2996
сет 2995
левия 2994
плоча 2994
съвместно 2994
държавна 2993
направ@@ 2993
нович 2992
лича 2991
вътрешните 2990
решения 2990
зако@@ 2989
Ща@@ 2988
деня 2988
стин 2987
чик 2986
Мю@@ 2985
продаж@@ 2985
осъден 2984
поставен 2984
пора@@ 2983
рев 2983
биологи@@ 2982
изго@@ 2982
кари@@ 2982
образовате@@ 2982
78 2981
графска 2981
мюсюлман@@ 2981
устройства 2979
зон@@ 2978
разпространение 2978
рю@@ 2978
Цве@@ 2977
англи@@ 2977
външните 2977
градската 2977
спу@@ 2977
87 2976
опита 2976
бере 2975
кня@@ 2975
маркграф 2975
мски 2975
някой 2975
решават 2975
Хър@@ 2973
африкан@@ 2973
тем@@ 2971
английския 2970
бележи 2969
вор@@ 2969
рил 2969
стер 2969
t@@ 2968
ано@@ 2968
маща@@ 2968
отраз@@ 2968
привле@@ 2968
ственото 2968
лате@@ 2967
откриват 2967
тс 2965
Москов@@ 2963
Локомотив 2962
Основните 2962
държавни 2960
императора 2959
парак@@ 2959
тим 2959
Евро@@ 2958
ждани 2958
закона 2958
наше@@ 2958
придоби@@ 2957
Македоно 2955
подкре@@ 2955
сражение 2955
Всяка 2954
После@@ 2954
Торино 2954
награден 2954
обозна@@ 2954
наб@@ 2952
синът 2952
лидер 2951
пропаганда 2951
рио 2951
Популацията 2950
композитор 2950
кореспон@@ 2950
народи 2950
отда@@ 2950
лиза 2949
Преми@@ 2948
Тар@@ 2948
зана@@ 2948
калибър 2948
наси@@ 2948
пер 2948
турне 2948
71 2947
ac@@ 2947
Виктория 2947
природ@@ 2947
тират 2947
гнати 2946
пригот@@ 2946
тегло 2946
84 2945
вните 2945
парале@@ 2945
Фро@@ 2944
лацията 2944
турни 2943
77 2942
Играе 2941
Оре@@ 2941
ети@@ 2941
Мати@@ 2940
метри@@ 2940
подкреп@@ 2940
продава 2940
равно@@ 2938
земедел@@ 2937
пилот 2937
Св. 2935
посеща@@ 2935
Майка 2934
бана 2934
буди@@ 2934
седмица 2934
заво@@ 2933
обуча@@ 2933
приложение 2933
възниква 2932
одринска 2932
последователно 2932
Андре@@ 2931
79 2929
зана 2929
Бей@@ 2928
лагането 2928
пов@@ 2928
” 2927
уд 2926
йните 2925
леп@@ 2925
напрежение 2925
длъжността 2923
ктори 2923
тински 2923
Гръц@@ 2922
кафя@@ 2922
мора@@ 2922
перси@@ 2921
цял 2921
вътре 2920
новени 2920
1,@@ 2919
доку@@ 2919
класа@@ 2919
рика 2919
ch@@ 2918
варя 2918
налягане 2918
учен 2918
r@@ 2916
десетилетия 2916
пър 2916
гард 2915
първенството 2915
ъгъл 2914
гната 2913
нау 2913
предмети 2912
чичо 2912
атмо@@ 2911
отсъ@@ 2910
енти 2909
XVI 2908
вис 2908
съю@@ 2908
аси@@ 2907
предотвра@@ 2907
тска 2906
Чехия 2905
сегаш@@ 2905
екзеку@@ 2904
З 2903
Френ@@ 2903
музе@@ 2903
сфе@@ 2903
тис 2903
Зим@@ 2902
бол 2902
сира 2902
средната 2902
Всеки 2901
въоръжени 2901
кос 2901
продължи 2901
дядо 2900
йно 2900
привърже@@ 2900
суб@@ 2900
латин@@ 2899
ot@@ 2898
теми 2898
тол@@ 2898
Стре@@ 2897
ография 2897
председате@@ 2897
президент@@ 2897
техния 2897
Ян 2896
включен 2896
летище 2896
професионален 2896
психо@@ 2896
сим@@ 2896
вицата 2895
кино 2895
мяната 2895
Ден@@ 2894
артилерийски 2894
водещ 2894
приме@@ 2894
славя@@ 2894
бежан@@ 2893
бозайник 2893
нива 2893
падат 2893
принадлежи 2893
Цар@@ 2892
отделение 2892
сон@@ 2892
Иса@@ 2891
законодате@@ 2891
вследствие 2890
договора 2890
Връ@@ 2889
Георги@@ 2889
изоста@@ 2889
самолет 2889
Кари@@ 2888
вътре@@ 2887
версии 2886
вета 2886
диаметър 2886
другата 2886
хов 2886
повърхност 2885
покрай 2885
Свобо@@ 2884
допълнително 2884
контрола 2884
довежда 2883
обу@@ 2883
самолета 2883
нан 2882
Брай@@ 2881
Гене@@ 2881
Средна 2881
ключ@@ 2881
оттегля 2880
поколение 2880
Мат@@ 2879
имал 2879
индиан@@ 2878
съобщава 2878
Кю@@ 2877
впечат@@ 2877
горски 2877
малката 2877
мето 2877
разузна@@ 2877
социални 2877
стота 2877
бей 2876
патриаршия 2876
свобод@@ 2875
срав@@ 2875
ел@@ 2874
Класи@@ 2873
подкрепя 2873
ефект 2872
силни 2872
управ@@ 2872
91 2870
плу@@ 2869
различна 2869
бета 2868
пее 2868
Сил@@ 2867
ниски 2867
поведение 2865
фла@@ 2865
Пал@@ 2864
спорт 2864
квадра@@ 2863
ът@@ 2862
хт 2860
1890 2859
оказват 2859
брони@@ 2858
съз@@ 2858
явява 2858
ждението 2857
съществуването 2857
Санта 2856
знание 2856
изпис@@ 2856
лит@@ 2856
дение 2855
нка 2855
шението 2855
1500 2854
изучава 2854
излъчване 2853
започне 2852
гов 2851
тическата 2851
Офици@@ 2850
маршал 2850
части@@ 2850
шампион@@ 2850
грама 2849
портре@@ 2848
самото 2848
дотогава 2847
принцип 2847
софи@@ 2847
Международната 2846
Свето@@ 2846
възмож@@ 2846
нараства 2846
нау@@ 2846
поезия 2846
фонд 2846
госпо@@ 2843
каз 2843
митология 2843
продукт 2843
чуж@@ 2843
световното 2842
хер 2842
92 2840
баро@@ 2840
бъл@@ 2840
деление 2840
опера 2840
Проек@@ 2839
Смър@@ 2839
многобройни 2839
учи@@ 2839
контак@@ 2838
манасти@@ 2838
Ново@@ 2837
дълъг 2837
оръжия 2837
тий 2836
Втори 2835
Опера@@ 2835
интерв@@ 2835
теорията 2835
лицето 2834
провинции 2834
окръга 2833
излизат 2832
линей@@ 2832
облек@@ 2832
титли 2832
мп@@ 2831
зна 2830
Слу@@ 2829
Судан 2829
вдо@@ 2829
пазара 2829
завод 2828
казате@@ 2828
1879 2827
Дет@@ 2827
гаран@@ 2827
двореца 2827
единствен 2827
заемат 2826
зар 2826
лик 2826
ранен 2826
реду@@ 2826
щица 2826
състезание 2825
четирите 2825
боя 2824
каме@@ 2824
неф@@ 2823
1891 2822
аресту@@ 2821
вземе 2821
Трен@@ 2820
постанов@@ 2820
успе@@ 2820
идея 2819
катедра@@ 2819
свързано 2819
Все 2817
74 2816
разделят 2816
Затова 2815
особ@@ 2815
нят 2814
средна 2814
търговията 2814
Парти@@ 2813
Поп@@ 2813
конкурен@@ 2813
фоку@@ 2813
командване 2812
Изпъл@@ 2811
духо@@ 2811
характер@@ 2811
D 2809
извест@@ 2809
камъни 2809
ство@@ 2809
пев@@ 2808
рист 2808
огра@@ 2807
приключва 2807
Щи@@ 2806
археологи@@ 2806
прека@@ 2806
Вест@@ 2805
изтреб@@ 2805
́ 2803
пто@@ 2803
нично 2802
сте 2802
паци@@ 2801
спира 2801
уст@@ 2801
химия 2800
душ@@ 2799
карти 2799
Христи@@ 2798
Чрез 2798
дисципли@@ 2797
мерки 2797
монар@@ 2797
Световното 2795
врий@@ 2794
липсата 2794
предшестве@@ 2794
собствена 2794
зират 2793
ял 2793
TV 2792
муску@@ 2792
философ@@ 2792
k@@ 2791
инци@@ 2790
думите 2789
мената 2789
ранг 2789
иденти@@ 2788
увол@@ 2788
нации 2787
стие 2786
щни 2785
Константи@@ 2784
Херцеговина 2784
знаме 2784
скоростта 2784
фир@@ 2784
kg 2783
Хан@@ 2783
бар 2783
десния 2783
отдале@@ 2783
x@@ 2782
чле@@ 2782
Брауншвайг 2781
Народно 2781
длъжност 2781
индустрия 2781
Неговият 2780
Сливен 2780
единствената 2780
Ката@@ 2779
мре@@ 2779
Бог 2777
вя 2776
зане 2776
Кло@@ 2775
етаж 2775
наричана 2774
съзна@@ 2774
широк 2773
събитие 2772
съпруг 2772
алкохо@@ 2770
благоприя@@ 2770
вит@@ 2770
землището 2770
Катарина 2769
планините 2769
er 2768
Неапол 2768
свързва@@ 2768
въвежда 2767
лизира 2767
момента 2767
пътна 2767
Българското 2766
публикувани 2766
лика 2765
хен@@ 2765
ph@@ 2764
отбрана 2764
торът 2764
Древ@@ 2762
одринското 2762
теат@@ 2761
добива 2759
народни 2759
пола 2759
възпита@@ 2758
резултати 2758
Науч@@ 2757
имену@@ 2757
om@@ 2756
гва 2756
дели 2756
икони 2756
рекор@@ 2756
Прусия 2755
господ@@ 2755
обръща 2755
проти@@ 2755
стария 2754
Цезар 2753
библиоте@@ 2753
забележителности 2753
фай@@ 2753
Албумът 2752
стартира 2751
Мала 2750
бру@@ 2750
депутат 2750
пристанище 2750
тиране 2749
фигури 2749
1870 2748
Венецуела 2748
откриването 2748
зам@@ 2747
лта 2746
сор 2746
историк 2745
Основната 2744
датира 2744
интере@@ 2744
двойки 2743
колеж 2743
музикална 2743
реше@@ 2743
цион@@ 2743
Цари@@ 2742
католиче@@ 2742
сно@@ 2742
правила 2741
психи@@ 2741
ковете 2740
т.@@ 2740
ума 2740
дания 2739
лар 2739
лат 2739
частни 2739
кол 2738
предвид 2738
варира 2737
купува 2737
Държав@@ 2736
ефек@@ 2736
откъдето 2736
републикан@@ 2736
свойства 2736
карто@@ 2735
командващ 2735
македонски 2735
нато 2735
отка@@ 2735
монети 2734
спома@@ 2734
сват@@ 2733
дес 2732
дъщери 2732
изсел@@ 2732
Народна 2731
Теодор 2731
Васи@@ 2730
тег@@ 2730
Висо@@ 2728
местния 2728
писателка 2728
Интер@@ 2727
днешна 2726
Най@@ 2724
етите 2724
средното 2724
ol@@ 2723
научно 2722
раб@@ 2722
световната 2720
провод@@ 2719
устрой@@ 2719
принос 2718
архитект 2717
споме@@ 2717
стръ@@ 2717
бук@@ 2716
жената 2716
молеку@@ 2716
серио@@ 2715
тежка 2715
Освобождението 2714
възви@@ 2713
нуж@@ 2713
обър@@ 2713
студиен 2713
Междувременно 2712
ангажи@@ 2712
фри@@ 2712
дват 2711
Оста@@ 2710
ател 2710
северозападно 2710
успехи 2709
Корне@@ 2708
ителството 2708
вара 2707
денбург 2707
златен 2707
протежение 2706
Гео@@ 2704
еволю@@ 2703
певец 2702
тръгва 2702
Дя@@ 2701
телевизионен 2701
насле@@ 2700
седалище 2700
яни 2700
Музи@@ 2699
Произве@@ 2699
въпро@@ 2699
конференция 2699
низ@@ 2699
разделени 2699
сбир@@ 2699
сай@@ 2698
програми@@ 2697
Песента 2696
тиката 2695
момиче@@ 2693
Бон@@ 2692
Шар@@ 2692
гря@@ 2692
попу@@ 2690
самостоятелно 2690
цялост@@ 2690
девет 2689
дървета 2689
интерпре@@ 2689
потом@@ 2689
религиозни 2689
тивен 2689
търсене 2689
нощ 2688
обособ@@ 2688
първо@@ 2688
систе@@ 2688
новено 2687
парламента 2687
Спартак 2686
визия 2686
евреи 2686
беля@@ 2685
1893 2684
раща 2683
Следва 2682
Василий 2681
важно 2681
ник@@ 2681
патриар@@ 2681
сени 2681
дото 2680
мана 2679
отличава 2679
полез@@ 2679
Орга@@ 2678
Вален@@ 2677
ХХ 2676
д. 2676
рира 2676
агре@@ 2675
близки 2675
брази@@ 2675
последното 2675
Тем@@ 2673
грамо@@ 2673
класира 2673
тичната 2673
извършват 2672
средство 2672
центрове 2672
Марко 2671
достъп@@ 2671
Близ@@ 2670
демо@@ 2670
кола 2670
любовта 2670
християнски 2670
германските 2669
изчис@@ 2669
цеп@@ 2669
чув@@ 2669
124@@ 2667
изтъ@@ 2667
лда 2667
решението 2667
зацията 2666
случая 2666
условията 2666
99 2665
наречени 2665
Мишев 2664
Уо@@ 2664
протича 2664
третият 2664
Пари@@ 2663
координа@@ 2663
мет 2663
en@@ 2662
Вселе@@ 2662
Полу@@ 2662
оглавява 2662
успешен 2662
италианския 2661
ращ 2661
фигу@@ 2661
82 2660
ползват 2660
сица 2660
хла@@ 2660
Али 2659
Коле@@ 2658
флан@@ 2657
1889 2656
издадени 2656
Мала@@ 2655
проду@@ 2655
пълна 2655
сните 2655
Книгата 2654
пълно 2653
сфера 2653
Рейн@@ 2652
отделните 2652
G 2651
лското 2650
ina 2649
ним 2649
Мет@@ 2648
Нача@@ 2648
галерия 2648
оркестър 2647
Хаб@@ 2645
Чети@@ 2645
растение 2645
Коло@@ 2644
гнез@@ 2644
Изда@@ 2643
мюсюлмани 2643
1892 2642
гов@@ 2642
секретаря 2642
XVII 2641
Бран@@ 2641
Еквадор 2641
лиан@@ 2641
пал@@ 2641
119@@ 2640
съвсем 2640
кораб@@ 2639
риба 2639
Петко 2638
периоди@@ 2638
съвременните 2638
1886 2637
връщане 2637
подчер@@ 2637
поту@@ 2637
C. 2635
атри@@ 2635
ес 2634
зни 2634
морските 2634
торите 2634
югозападно 2634
бел 2633
опитват 2633
вое@@ 2632
гор 2632
палу@@ 2632
появата 2632
ляво 2631
последва@@ 2631
допълнителни 2630
студенти 2630
лиде@@ 2628
революционен 2627
живопис 2625
оттег@@ 2625
хберг 2625
пов 2624
фер 2624
басейни 2623
нич@@ 2623
вато@@ 2622
задачи 2622
издигнат 2622
лам@@ 2621
лета 2621
текста 2621
уско@@ 2621
концерти 2620
пове 2619
етата 2618
Богородично 2617
архиеписко@@ 2617
зас 2617
масо@@ 2617
обхва@@ 2617
Скоп@@ 2616
гин@@ 2616
силна 2616
канад@@ 2615
предаването 2615
трен@@ 2614
заме@@ 2613
жие 2612
малкия 2611
чис@@ 2611
щението 2611
Пат@@ 2609
пряко 2609
етно@@ 2608
шил 2608
списъка 2607
Австри@@ 2606
Вале@@ 2606
прин@@ 2606
Пфалц 2605
дии 2605
жде@@ 2605
ринг 2605
стоки 2604
автомобили 2603
зах@@ 2603
обнов@@ 2603
Представ@@ 2602
евро 2602
ещи 2602
настоящем 2602
практи@@ 2602
риите 2602
снаб@@ 2602
вяването 2601
гроби@@ 2601
южно@@ 2601
Български 2600
Внук 2600
лец 2600
патриарх 2600
96 2598
j@@ 2598
Постро@@ 2598
живо 2598
поре@@ 2598
провинцията 2598
94 2597
сели@@ 2597
вов 2596
кап@@ 2596
лиш@@ 2596
изследва 2595
пояс 2595
Последният 2594
здраве@@ 2594
консул@@ 2594
сектор 2594
служители 2594
храни 2594
общи 2593
Блан@@ 2592
Демократична 2592
Между@@ 2592
Сицилия 2592
дясно 2592
позво@@ 2592
худож@@ 2592
97 2591
Може 2591
бестсел@@ 2591
изри@@ 2591
обръ@@ 2591
семина@@ 2591
яйки 2591
купу@@ 2590
личе@@ 2590
напред 2590
лес@@ 2589
меда@@ 2589
подкрепата 2589
политическата 2589
тара 2589
акть@@ 2588
курор@@ 2588
Чили 2586
вед@@ 2586
заслу@@ 2586
капацитет 2586
моти@@ 2586
навли@@ 2586
предви@@ 2586
първен@@ 2586
1881 2585
води@@ 2585
наричани 2585
официален 2585
тие 2585
Иск@@ 2584
вертика@@ 2583
културни 2582
катедралата 2581
нация 2581
случва 2581
опи@@ 2580
бира@@ 2579
чеш@@ 2579
балкан@@ 2578
ждите 2578
изпълнението 2578
национали@@ 2578
седми@@ 2578
обек@@ 2577
плавате@@ 2577
пус@@ 2577
тания 2577
Семейство 2576
британската 2576
тният 2576
es 2575
Кала@@ 2574
изгар@@ 2574
комедия 2574
невро@@ 2574
проучвания 2574
Гос@@ 2573
изпълня@@ 2571
малната 2570
екипа 2569
Благо@@ 2568
Косово 2568
11@@ 2567
бяга 2567
реак@@ 2567
слой 2567
ужа@@ 2567
Кения 2566
пъте@@ 2566
шево 2566
Мир@@ 2565
екипа@@ 2565
зато@@ 2565
Академията 2564
Профе@@ 2564
администрация 2564
криста@@ 2564
ландия 2564
нър 2564
ценни 2564
Ar@@ 2562
ta 2562
Фол@@ 2562
простира 2562
ar@@ 2561
id@@ 2561
комунистическа 2561
вки 2560
Състе@@ 2559
нк@@ 2559
юж@@ 2559
гни@@ 2558
екземпля@@ 2558
лична 2558
отбра@@ 2558
развиват 2558
сов@@ 2558
психологи@@ 2557
Илинден@@ 2556
дация 2556
учред@@ 2556
Лим@@ 2555
УЕФА 2555
зависи 2555
ту 2555
Сей@@ 2554
Бого@@ 2553
Особ@@ 2553
приеме 2553
делят 2552
концерт 2552
отрицате@@ 2552
сцени 2552
шето 2552
кримина@@ 2551
убийство 2551
уми@@ 2550
Видин 2549
Холандия 2549
непре@@ 2549
Зна@@ 2547
провер@@ 2547
видни 2546
съпер@@ 2546
БАН 2545
сума 2545
малкият 2544
вети 2543
дебе@@ 2543
мация 2543
функциона@@ 2543
вет 2541
дек@@ 2540
интензи@@ 2540
настан@@ 2540
състезава 2540
Улрих 2539
котловина 2539
лем 2539
форму@@ 2539
1,5 2538
шаването 2538
намаля@@ 2537
An@@ 2536
Пиер 2536
Ун@@ 2536
среща@@ 2536
помежду 2535
проявява 2535
явление 2535
германската 2534
мъжка 2534
напусне 2534
стотата 2534
Шампион@@ 2533
диалек@@ 2533
дната 2533
съда 2533
O 2532
идват 2532
осве@@ 2532
тю@@ 2532
1884 2531
U@@ 2531
Тексас 2531
мърт@@ 2531
парка 2531
сбор@@ 2531
шан@@ 2531
op@@ 2530
грижи 2530
дебелина 2530
паметници 2530
Изгра@@ 2529
религи@@ 2529
паси@@ 2528
рисува 2527
Наполеон 2526
печелят 2526
прочу@@ 2526
уро@@ 2526
фрайхер 2526
ани@@ 2525
значителна 2525
обществени 2525
подре@@ 2524
поставена 2524
ученик 2524
поз@@ 2523
произведение 2523
1883 2522
обучението 2522
разкрива 2522
термин 2522
Две 2521
ели 2521
популярни 2521
север@@ 2521
телефон@@ 2521
Con@@ 2520
Окръ@@ 2519
бронзо@@ 2519
насър@@ 2519
сета 2519
Съвремен@@ 2518
зеф 2518
лива@@ 2518
зале@@ 2516
клуб@@ 2516
наши 2516
относително 2516
подло@@ 2516
югоизточно 2516
юн@@ 2516
Средната 2514
виде@@ 2514
дадено 2514
шампионат 2514
Жу@@ 2513
вълна 2513
ия 2513
чай@@ 2513
статистиче@@ 2512
цето 2512
лун@@ 2511
разслед@@ 2510
риту@@ 2509
шение 2509
желание 2508
жерт@@ 2508
преговори 2508
пуск@@ 2508
специален 2508
Гло@@ 2507
Конститу@@ 2507
крило 2507
супер@@ 2506
жния 2505
начина 2505
Миха@@ 2504
вяване 2504
ниско 2504
висше 2503
стичен 2503
състезанието 2503
топо@@ 2502
чете 2502
лва 2501
пена 2501
плочи 2501
3000 2500
Джор@@ 2500
дска 2500
сухо@@ 2500
шна 2500
вел 2499
неутра@@ 2499
чели 2499
машина 2498
разгро@@ 2498
поли 2497
представяне 2497
ФИ@@ 2495
армии 2495
зася@@ 2495
мю@@ 2495
нта 2495
изтег@@ 2494
казват 2494
струк@@ 2494
юри@@ 2494
написана 2493
отря@@ 2493
притежа@@ 2493
изклю@@ 2492
обем 2492
следовате@@ 2492
кад@@ 2491
h 2489
БН@@ 2488
План@@ 2488
ваку@@ 2488
ленд 2488
вта 2487
званието 2487
Гал@@ 2486
блу@@ 2486
ента@@ 2486
ителния 2486
мото@@ 2486
подобен 2486
религия 2485
родното 2485
североизточно 2485
Четвър@@ 2484
концентра@@ 2483
народа 2483
съвременни 2483
Дне@@ 2482
градския 2482
засне@@ 2482
мнозин@@ 2482
музея 2481
протестан@@ 2481
цветове 2481
компю@@ 2480
общата 2480
тава 2480
шоу 2480
Джовани 2479
зин 2479
родни 2479
шън 2479
възможности 2477
глу@@ 2477
южния 2477
Диа@@ 2476
долната 2476
закони 2476
османски 2476
придвиж@@ 2476
Казахстан 2475
жната 2475
просвет@@ 2475
рене 2475
it@@ 2474
Финландия 2474
апара@@ 2474
квалифика@@ 2474
Ети@@ 2473
влива 2472
ничеството 2472
пон@@ 2472
асистент 2471
половината 2471
th@@ 2470
Егейска 2470
борд 2470
присъства 2470
Тя@@ 2469
отра@@ 2469
предоставя 2469
Ива@@ 2468
Сел@@ 2468
бит 2468
дълбоко 2468
документ 2467
енберг 2466
нелега@@ 2466
необходимо 2465
Военно@@ 2464
епизода 2463
импера@@ 2463
националната 2463
фраг@@ 2462
рито@@ 2461
Фал@@ 2460
седем@@ 2460
E 2459
Windows 2459
Дани@@ 2458
ковите 2458
студи@@ 2458
съгласно 2458
простран@@ 2457
сутри@@ 2457
1860 2456
НАСА 2456
зовава 2456
меч@@ 2456
Френска 2455
бел@@ 2455
опти@@ 2455
чисто 2455
нивото 2454
съвременната 2454
базиран 2453
Административно 2452
детай@@ 2452
дивизи@@ 2452
длъж@@ 2452
зон 2452
народно 2452
човешки 2452
групи@@ 2451
творчеството 2451
характерни 2451
абат@@ 2450
сиг@@ 2450
an@@ 2449
злато 2449
Атлан@@ 2448
египет@@ 2448
деле@@ 2447
доба@@ 2447
интереси 2446
Републикански 2445
мос 2445
източно@@ 2444
писите 2443
преобразу@@ 2443
емата 2442
лята 2442
кандидат@@ 2441
Река 2440
пота@@ 2440
допълнение 2439
миче@@ 2439
млад 2439
горното 2438
еписко@@ 2438
многократно 2438
обса@@ 2437
римската 2437
Грузия 2435
лян@@ 2435
одобре@@ 2435
противника 2435
оз@@ 2434
бат 2433
експер@@ 2433
жд@@ 2432
намаляване 2432
нинген 2432
съсе@@ 2432
урав@@ 2432
щането 2432
дора 2431
линген 2431
пристигат 2431
удостоен 2431
Пей@@ 2430
Шотландия 2430
p 2429
Граждан@@ 2429
Ся@@ 2429
електрически 2429
пати@@ 2429
кост@@ 2428
чаването 2428
вземането 2426
Дире@@ 2425
верига 2425
ез@@ 2425
лък 2425
свободен 2425
фигура 2425
Нобе@@ 2424
Божи@@ 2423
мените 2423
Фар@@ 2422
фирма 2422
XV 2421
играчи 2421
създадено 2421
гръцките 2420
мерите 2420
рум 2420
обсъ@@ 2418
тра 2418
Византия 2416
Ир@@ 2416
площад 2416
сето 2416
упраж@@ 2416
R 2415
активи@@ 2415
десан@@ 2415
направен 2415
северния 2415
бог 2413
женски 2413
обре@@ 2413
представен 2413
тици 2413
реакция 2412
липса 2411
наем 2411
ного 2410
талан@@ 2409
градска 2408
зат 2408
рка 2408
дизайн 2406
педагоги@@ 2406
Молдова 2405
Фил@@ 2405
местност 2405
акт 2404
сътрудник 2404
успо@@ 2403
am@@ 2402
комен@@ 2402
Уелс 2401
околната 2401
собствени 2401
Музе@@ 2400
XII 2399
Рели@@ 2399
дият 2399
лер@@ 2399
продукция 2399
валу@@ 2398
затвор@@ 2398
кис 2398
носен 2398
оръдие 2398
привлича 2398
централна 2398
Population 2397
влияте@@ 2397
тана 2397
Добруджа 2396
оборудване 2396
македонска 2395
общински 2395
положен 2394
световни 2394
M 2393
ов 2393
стична 2393
десетки 2392
назначава 2392
Без@@ 2391
Макси@@ 2391
Тодоров 2391
медицински 2391
предлагат 2391
работи@@ 2391
вътрешността 2390
книжо@@ 2390
марка 2390
политическите 2390
сите@@ 2390
хар 2390
активна 2388
Лига 2387
Од@@ 2387
изразява 2387
Мето@@ 2386
черен 2386
m@@ 2385
Macédoine 2384
дей 2384
Констан@@ 2383
плато 2383
реч@@ 2383
съвмест@@ 2383
училищ@@ 2383
щин@@ 2383
no@@ 2382
гун@@ 2382
лищ@@ 2382
рингия 2382
агенция 2381
преподавате@@ 2381
пълен 2381
стък@@ 2381
събитията 2381
Зам@@ 2380
алпи@@ 2380
двигатели 2380
небе@@ 2380
Иде@@ 2379
кел 2379
фили@@ 2378
Chrétienne 2377
дък 2377
почетен 2377
Благоевград 2376
Носител 2376
загина@@ 2376
змът 2376
какъв 2376
площта 2376
тал 2375
1888 2374
Вторият 2374
корпуса 2374
мската 2374
мъжете 2374
рението 2374
резо@@ 2373
французите 2373
гледна 2371
скло@@ 2371
хор 2371
полага 2370
alis 2369
възлиза 2369
усп@@ 2369
епохата 2368
разкло@@ 2368
Фер@@ 2367
Дел@@ 2364
дейци 2364
коли@@ 2364
съоръжения 2364
Европейската 2363
минават 2362
предложение 2362
селскостопан@@ 2362
секре@@ 2361
Смит 2359
брон@@ 2359
ралното 2359
сей 2359
фестивала 2359
oc@@ 2358
отбор@@ 2358
7,@@ 2357
Нар@@ 2357
гориво 2357
Слънцето 2355
собствен 2355
нами@@ 2354
пиано 2354
тската 2354
издаването 2353
рази@@ 2353
Мей@@ 2352
Хари 2352
сура 2352
Над 2351
публикувана 2351
сак@@ 2351
армей@@ 2350
подар@@ 2350
читалище 2350
атак@@ 2349
стри 2349
Нови 2348
фрон@@ 2348
спан@@ 2347
сино@@ 2346
близък 2345
услу@@ 2345
четвърти 2345
Ана 2344
избирате@@ 2344
известната 2344
полицията 2344
фабрика 2344
мална 2343
Дом 2342
Кня@@ 2342
ключо@@ 2342
свобо@@ 2342
екип 2341
изпълнители 2341
класацията 2341
стила 2340
Златен 2339
въздух 2339
плодове 2339
учители 2339
Климатът 2338
Мил@@ 2338
доказателства 2338
Предполага 2337
депутат@@ 2337
леко 2337
макси@@ 2337
посланик 2337
Балканите 2336
бита 2336
неин 2336
пля@@ 2336
успешни 2336
c 2335
Джей@@ 2335
Сай@@ 2335
ing 2334
Григорий 2334
лства 2334
начи@@ 2334
слънче@@ 2334
Ас@@ 2333
Голям 2333
новият 2333
каменни 2331
собственик 2331
T 2330
Ъ@@ 2330
идентифици@@ 2330
мозъ@@ 2330
Апосто@@ 2329
Федера@@ 2329
леп 2329
морския 2329
обиколка 2329
бие 2328
вече@@ 2328
писа@@ 2328
представена 2328
рота 2328
Сергей 2327
ам 2327
дява 2327
руска 2327
цио 2327
ентите 2326
разстоя@@ 2326
тила 2326
апарат 2325
биха 2325
номина@@ 2325
уве@@ 2325
усилия 2325
Северо@@ 2324
режиси@@ 2324
свободно 2324
нападение 2323
техни@@ 2323
червен 2323
Золмс 2322
снаря@@ 2322
ънс 2322
Гъ@@ 2321
Дитрих 2321
германския 2321
произвеждат 2321
цу 2321
Беларус 2320
Рейн 2320
дене 2320
защитник 2320
непосредствено 2320
нско 2320
поручик 2320
изграждане 2319
Чар@@ 2318
ьорите 2318
b 2317
Над@@ 2317
ети 2317
хен 2317
понеже 2316
частици 2316
Бла@@ 2315
Благодарение 2315
жните 2315
леви 2315
достигне 2314
мъжки 2314
подпома@@ 2314
позволяват 2314
шах@@ 2314
os@@ 2313
ари@@ 2313
инду@@ 2313
часов@@ 2313
Квинт 2312
гост 2312
шел 2312
l@@ 2311
Адри@@ 2311
Касте@@ 2311
дани 2311
личности 2311
предпочита@@ 2311
Мър@@ 2310
бас 2310
инициатива 2310
чужди 2310
детска 2309
лищата 2309
специална 2309
местната 2308
съв@@ 2308
Председате@@ 2307
бена 2307
мел@@ 2307
отлич@@ 2307
P 2306
Сградата 2306
басейна 2306
войската 2306
личните 2306
низъм 2306
претърпява 2306
1848 2305
h@@ 2305
Херцо@@ 2305
поддръ@@ 2305
популярен 2305
сценарист 2304
филмът 2304
югослав@@ 2304
Каме@@ 2303
действията 2303
зията 2303
ува@@ 2303
черве@@ 2303
z@@ 2301
Червената 2301
възгле@@ 2301
едноименната 2301
блок 2300
строител@@ 2300
Обединеното 2299
гражданска 2299
контин@@ 2299
предприятия 2299
сек@@ 2299
дател 2298
находи@@ 2298
прогре@@ 2298
строителство 2298
южна 2298
Хил@@ 2297
мония 2297
входа 2296
напускат 2296
телевизионни 2296
Смята 2295
автономен 2295
одоб@@ 2295
XI 2294
Зон@@ 2294
ремон@@ 2294
Балти@@ 2293
Пиемонт 2293
Юлий 2293
заря@@ 2293
дек 2292
представени 2292
гнали 2291
пейза@@ 2291
1882 2290
детски 2290
фред 2289
посред@@ 2288
Питър 2287
маг@@ 2287
петро@@ 2287
превъз@@ 2287
тността 2287
Теат@@ 2285
бяха 2285
контро@@ 2285
напад@@ 2285
Мери 2284
изображения 2284
литературата 2284
настъпва 2284
считат 2284
Върховния 2283
Учи@@ 2283
Целта 2283
Враца 2282
отваря 2282
бра 2281
кост 2281
рестав@@ 2281
сключва 2281
наред 2280
v@@ 2279
Провин@@ 2279
Спор@@ 2279
Фут@@ 2279
кора 2279
орбита 2279
прости@@ 2279
брат@@ 2278
табли@@ 2278
взи@@ 2277
кисло@@ 2277
прене@@ 2277
характеризира 2277
вска 2276
структури 2276
укре@@ 2276
зда@@ 2275
китара 2275
Оде@@ 2274
служе@@ 2274
жина 2273
сни@@ 2273
Горно 2272
вниманието 2272
енер@@ 2272
златни 2272
1871 2271
водно 2271
ляните 2271
роб@@ 2271
шан 2271
Сало@@ 2270
жаването 2270
бове 2269
джан@@ 2269
рус@@ 2269
финансови 2269
брака 2268
говорят 2268
гръцкия 2268
лизъм 2268
ряват 2268
съсредо@@ 2268
XIII 2267
гър 2267
древните 2267
начал@@ 2267
Вероятно 2266
календар 2266
АД 2265
Гвиана 2265
Коли@@ 2265
Ско@@ 2265
вения 2265
еца 2265
упо@@ 2265
Зеландия 2264
Флорида 2264
сериозни 2264
съкра@@ 2264
артилерия 2263
гиган@@ 2262
нителен 2262
Аделхайд 2261
1887 2260
Стефа@@ 2260
Уч@@ 2260
20@@ 2259
Източен 2259
ракети 2259
структурата 2258
географски 2257
издават 2257
рар@@ 2257
сват 2257
Адам 2256
дово 2256
освобожда@@ 2256
полице@@ 2256
построява 2256
ti@@ 2255
Киев 2255
Личен 2255
правосла@@ 2255
фър 2255
бело@@ 2253
кмет@@ 2253
строе@@ 2253
филология 2253
наблюда@@ 2251
театъра 2251
тенден@@ 2251
икономи@@ 2250
мън 2250
тене 2250
хово 2250
ьори 2250
Ирак 2249
зирани 2249
оставка 2249
поко@@ 2249
сформи@@ 2249
тския 2249
екипажа 2248
имперски 2248
теч@@ 2248
Неговата 2247
Уил@@ 2247
математика 2247
нагоре 2247
нист 2247
основите 2247
въд@@ 2246
Пакистан 2245
бна 2245
год@@ 2245
опе@@ 2245
Демокра@@ 2244
благотворите@@ 2244
загива 2244
историческа 2244
меня@@ 2244
ничество 2244
растителност 2244
въз 2243
червено 2243
доброволци 2242
тета 2242
Охрид 2241
прибли@@ 2241
прими@@ 2241
цена 2241
аз 2240
интелекту@@ 2240
Преди@@ 2238
активни 2238
Публи@@ 2237
Понякога 2236
секунди 2236
6,@@ 2235
Букурещ 2235
работен 2235
тино 2235
хер@@ 2235
мисии 2234
работници 2234
бащата 2233
въпроса 2233
Маса@@ 2232
активност 2232
магази@@ 2232
джамия 2231
маши@@ 2231
очер@@ 2231
такова 2231
Al@@ 2230
бат@@ 2229
низина 2229
популярна 2229
мотиви 2228
нува 2228
традиции 2228
Три 2227
бърг 2227
екзархи@@ 2227
изти@@ 2227
провъзгла@@ 2227
римляните 2227
проуч@@ 2226
Ан 2225
Петро@@ 2225
дели@@ 2225
стор 2225
територи@@ 2225
сър 2224
властите 2223
издателство 2223
Да 2222
Пазарджик 2222
взаим@@ 2222
ническия 2222
северна 2222
дължината 2221
Дон 2220
Управ@@ 2220
бул 2220
иконоста@@ 2220
минута 2220
духовник 2219
ждение 2219
жиз@@ 2219
разширява 2219
киното 2218
лето@@ 2218
пси@@ 2218
Гър@@ 2217
вам 2217
стабилна 2217
футболна 2217
Антонио 2216
въздушни 2216
икономическа 2216
творче@@ 2216
мексикан@@ 2215
пределите 2215
Си 2214
гват 2214
180 2213
Вито@@ 2213
говора 2213
изоли@@ 2213
природа 2213
цикъл 2213
числа 2213
юно@@ 2213
Съюз@@ 2212
наименование 2212
опазване 2211
практически 2211
профи@@ 2211
Цър@@ 2210
върхо@@ 2210
местно 2210
съхранява 2210
1875 2209
Дисни 2209
повърх@@ 2209
психоанали@@ 2209
десети@@ 2208
ждата 2208
пътуване 2208
бюро 2207
мал 2207
основателите 2207
представля@@ 2207
разполо@@ 2207
снимки 2207
тинг 2207
Кьолн 2206
доброто 2206
рови 2206
Ната@@ 2205
рид 2205
Джон@@ 2204
Емил 2204
годишния 2204
час 2204
Дер@@ 2203
Пловдив@@ 2203
Франк 2203
успеха 2203
намери 2202
пур@@ 2202
смен@@ 2202
трето 2202
тури 2202
Основни 2201
Холщайн 2201
вне@@ 2201
последен 2201
празник 2201
съседните 2201
шен@@ 2201
вар 2200
дската 2200
конвен@@ 2200
менена 2200
възстановяване 2199
температурата 2199
чките 2199
Икономика 2198
жилищ@@ 2198
знач@@ 2198
изследовател 2198
сход@@ 2198
Бир@@ 2197
Петков 2197
британските 2197
лските 2197
обеща@@ 2197
разнообразие 2197
• 2197
Вирджиния 2196
администра@@ 2196
братовчед 2196
докла@@ 2196
младите 2196
формират 2196
хоризонта@@ 2196
чан 2196
архитектур@@ 2195
Асе@@ 2194
Библи@@ 2194
Друг 2194
Мест@@ 2194
вло@@ 2194
гласа 2194
дово@@ 2194
Международния 2193
is@@ 2192
жесто@@ 2192
усе@@ 2192
Главен 2191
Дор@@ 2191
Жо@@ 2191
Историята 2191
Специ@@ 2191
турска 2191
вал@@ 2190
изложби 2190
шени 2190
1872 2189
Свеще@@ 2189
гент@@ 2189
инструмент 2189
строежа 2189
Вси@@ 2188
Невро@@ 2188
гръцка 2188
команди@@ 2188
спира@@ 2188
Охри@@ 2187
музикант 2187
обяснява 2187
Цвет@@ 2186
века 2186
крайбре@@ 2186
оцеле@@ 2186
планинска 2186
самостоятелна 2186
софтуер 2186
Куба 2184
влю@@ 2184
норма@@ 2184
ЕЦ 2183
избор 2183
леку@@ 2183
ляна 2182
мати 2182
полската 2182
Ах@@ 2181
Клуб@@ 2181
Хоенлое 2181
музиканти 2181
приложения 2181
студио 2181
хим 2181
114@@ 2180
Избра@@ 2180
агент 2180
заболявания 2180
слага 2180
температури 2180
вила@@ 2179
сев 2179
НАТО 2178
действат 2178
препра@@ 2178
селе@@ 2178
фра@@ 2178
вената 2177
качества 2177
насий 2177
поддръжка 2177
фро@@ 2177
Шьон@@ 2176
озна@@ 2176
съответствие 2176
експло@@ 2175
зрите@@ 2175
римския 2175
сним@@ 2175
търговец 2175
Максимилиан 2174
Теодо@@ 2174
ливо 2174
независимостта 2174
снабдя@@ 2174
нататък 2173
изнася 2172
ителство 2172
летите 2172
слуш@@ 2172
06 2171
Манасти@@ 2171
личен 2171
название 2171
обстоятел@@ 2171
ремонт 2171
съставена 2171
циони@@ 2171
Казан@@ 2170
Кот@@ 2170
дисертация 2170
чувства 2170
Музика@@ 2169
насам 2169
аген@@ 2168
бет 2168
следванията 2168
мемо@@ 2167
посочва 2167
построяването 2167
хребет 2167
Боливия 2165
ментът 2165
Вир@@ 2164
видна 2164
помогне 2164
адап@@ 2163
скла@@ 2163
френските 2163
Граф@@ 2162
Ради@@ 2162
може@@ 2162
lo@@ 2161
експлоатация 2161
покрива 2161
лах 2160
събо@@ 2160
120@@ 2159
u@@ 2159
Дви@@ 2159
Супер@@ 2159
Ця@@ 2159
инста@@ 2159
люб@@ 2159
ляване 2159
унс 2159
Лен@@ 2158
Леополд 2158
белите 2158
пече@@ 2158
адвокат 2157
мара 2157
покрити 2157
предварително 2157
западно@@ 2156
шампионата 2156
орът 2155
Рио 2154
местности 2154
том@@ 2154
долното 2153
псевдонима 2153
стично 2153
мато@@ 2152
участници 2152
функциони@@ 2152
популяри@@ 2151
тла@@ 2151
чане 2151
Лон@@ 2150
Няма 2150
мито@@ 2150
ждан 2149
коман@@ 2149
основаването 2149
тации 2149
Ник@@ 2148
лит 2148
свободна 2148
шоуто 2148
Серия 2147
печ@@ 2147
фирмата 2147
административно 2146
ваме 2146
епизо@@ 2146
обработка 2146
поражение 2146
Истанбул 2145
Организацията 2145
изгот@@ 2145
окол@@ 2145
тък 2145
дребни 2144
нята 2144
разпространени 2144
юноше@@ 2144
140 2143
World 2143
губят 2143
звук 2142
сбо@@ 2142
славянски 2142
съединения 2142
Независи@@ 2141
мед 2141
покан@@ 2141
Награди 2139
Папуа 2139
автобу@@ 2139
аро@@ 2139
жил 2139
Мианмар 2138
белги@@ 2138
организират 2138
основават 2138
почви 2138
Анри 2137
Тей@@ 2137
ников 2137
остатъ@@ 2137
Самият 2136
Сен@@ 2136
бълга@@ 2136
летни 2136
телевизията 2136
актри@@ 2135
дио 2135
дока@@ 2135
китайски 2135
личност 2135
мул@@ 2135
ру 2135
етнически 2134
ръце 2134
гент 2133
общественик 2133
станции 2133
чие 2133
долу 2132
сиона@@ 2132
ica 2131
Анаста@@ 2131
доброволец 2131
международно 2131
никата 2131
полис 2131
класифици@@ 2130
Обеди@@ 2129
искат 2129
мах@@ 2129
немския 2129
познати 2129
сребър@@ 2129
тяване 2129
09 2128
Car@@ 2128
Хуан 2128
гиня 2128
жани 2128
земетре@@ 2128
подножието 2128
подобна 2128
стотици 2128
тексто@@ 2128
вици 2127
функционира 2127
цъф@@ 2127
Неговите 2126
засил@@ 2126
мий 2126
поддържат 2126
представят 2126
замен@@ 2125
дент@@ 2124
цин@@ 2124
загубата 2123
оператив@@ 2123
Бит@@ 2122
Варшава 2122
единени 2122
миси@@ 2122
ровете 2122
включена 2121
онлайн 2121
повядва 2121
You 2120
ul@@ 2120
загиват 2120
критика 2120
иконо@@ 2119
магистра@@ 2119
повторно 2119
приз@@ 2119
Аре@@ 2118
итер 2118
хин@@ 2118
Марица 2117
Чарлз 2117
ковен 2117
певицата 2117
сят 2117
брига@@ 2116
предприе@@ 2116
рън 2116
Юнайтед 2115
вечер 2115
животните 2115
квар@@ 2115
лага@@ 2115
разделена 2115
потъ@@ 2114
същност 2114
Би 2113
Търгови@@ 2113
жертви 2113
проби@@ 2113
Барселона 2112
Известен 2112
130 2111
Карлос 2111
Североизточна 2111
гледа 2111
иници@@ 2111
социална 2111
съпрово@@ 2111
леки 2110
Михайлов 2109
ващото 2109
направление 2109
срещата 2108
доро@@ 2107
поня@@ 2107
рала 2107
британския 2106
официални 2106
пехот@@ 2106
проучване 2106
труп@@ 2106
фанзи@@ 2105
Сиг@@ 2104
Хей@@ 2103
буква@@ 2103
бек@@ 2102
културен 2102
намерени 2102
оне 2102
черни 2102
люция 2101
нки 2101
2,5 2100
преде@@ 2100
регули@@ 2100
сестри 2100
Заема 2099
активен 2099
достига@@ 2099
пони@@ 2099
преди@@ 2099
ряз@@ 2099
списания 2099
дец 2098
знаци 2098
ном 2098
пал 2098
албуми 2097
Франческо 2096
заглавие 2096
носи@@ 2096
пресича 2096
точен 2096
Бракът 2095
Мило@@ 2095
кръст@@ 2095
спортни 2095
Место@@ 2094
Уот@@ 2094
особености 2094
Гран@@ 2093
Нов 2093
Сло@@ 2093
вулка@@ 2093
ителността 2093
вач 2092
лността 2092
службата 2092
имали 2091
мит 2091
общото 2091
отблъ@@ 2091
пускането 2091
Кало@@ 2090
максимална 2090
118@@ 2089
навод@@ 2089
ниите 2089
ничните 2089
нт 2089
Войната 2088
вила 2088
установяват 2088
ждания 2087
стъплението 2087
фю@@ 2087
Мори@@ 2086
кавале@@ 2086
марк@@ 2086
останалата 2086
разпространява 2086
Уай@@ 2085
атаки 2085
гла 2085
деви@@ 2085
Сили@@ 2084
майката 2084
султан 2084
вей@@ 2083
изследователи 2083
5000 2081
мната 2081
предход@@ 2081
реч 2081
свободата 2081
Ломбардия 2080
Стивън 2080
данните 2080
лита 2080
полити@@ 2080
раждане 2080
вариан@@ 2079
клубове 2079
пата 2079
посветен 2079
постъп@@ 2079
редно 2079
Публий 2078
написва 2078
номиниран 2078
Либе@@ 2076
главна 2076
зова@@ 2076
книгите 2076
лации 2076
Пис@@ 2075
балан@@ 2075
говоре@@ 2075
заселват 2075
коли 2075
момиче 2075
тичните 2075
удоб@@ 2075
di 2074
племе 2073
теленове@@ 2073
Тере@@ 2072
върховенството 2072
излъчен 2072
масово 2072
ау@@ 2071
Хр. 2070
планове 2070
присти@@ 2070
Даниел 2069
зор 2069
интегра@@ 2069
палуба 2069
дик@@ 2068
лока@@ 2068
реда 2068
андар@@ 2067
силвания 2067
австрали@@ 2066
непосред@@ 2066
обх@@ 2066
рун@@ 2066
избрана 2065
търже@@ 2065
2,@@ 2064
тях@@ 2064
централен 2064
Монтана 2063
връщането 2063
външната 2063
забеле@@ 2063
обекта 2063
Кита@@ 2062
гнал 2062
европейската 2062
лежи 2062
несени 2062
строй 2062
тант 2062
Лазар 2061
Цан@@ 2061
литературен 2061
поди@@ 2061
резиденция 2061
сърде@@ 2061
шпи@@ 2061
Рим@@ 2060
дого@@ 2060
нологи@@ 2060
Уилямс 2059
дит 2059
сей@@ 2059
съветските 2059
формация 2059
шават 2059
Обла@@ 2058
контакт 2058
къси 2058
преодо@@ 2058
надолу 2057
прили@@ 2057
ana 2056
Кова@@ 2055
християнството 2055
читате@@ 2055
брюкен 2054
вежда 2054
Вод@@ 2053
женитба 2053
каф@@ 2053
околните 2053
Използва 2052
Македонската 2052
Нами@@ 2052
виден 2052
престола 2052
скоро@@ 2052
Нан@@ 2051
Представлява 2051
ленбург 2051
мяна 2051
низма 2051
посет@@ 2051
преброяванията 2051
сара@@ 2051
светлината 2051
старото 2051
1869 2050
WWE 2050
Средновековието 2050
войните 2050
нарича@@ 2050
Народното 2049
ликата 2049
марки@@ 2049
115@@ 2048
Союз 2048
гово 2048
доведе 2048
турен 2048
Жене@@ 2047
Лий 2047
Маро@@ 2047
Приме@@ 2047
богат 2047
игрален 2047
разделен 2047
‰ 2047
1867 2046
научава 2046
чувств@@ 2046
швейцар@@ 2046
1864 2045
защитата 2045
изобре@@ 2045
него@@ 2045
способността 2045
центри@@ 2045
декла@@ 2044
поток 2044
Основан 2043
мии 2043
способност 2043
титуля@@ 2042
писа 2041
учре@@ 2041
физически 2041
Йерусалим 2040
звайки 2040
мирен 2040
Тихия 2039
Фера@@ 2039
кв. 2039
влечу@@ 2038
обединение 2038
проник@@ 2038
Дой@@ 2037
Нем@@ 2037
зим@@ 2037
ровки 2037
Джак 2036
зени@@ 2036
дирек@@ 2035
вдовица 2034
региони 2034
чене 2034
Атанасов 2033
записи 2033
младия 2033
щения 2033
избо@@ 2032
лината 2032
финалите 2032
Водо@@ 2031
Произлиза 2031
бал 2031
отразява 2031
сово 2031
Уа@@ 2030
осигури 2030
осъще@@ 2030
отри@@ 2030
Том 2029
външен 2029
количества 2029
нарко@@ 2029
споделя 2029
Каро@@ 2028
генщайн 2028
пел 2028
превръщат 2028
Австро 2027
вино 2027
дете@@ 2027
крайцерите 2027
приемането 2027
чената 2027
Анд@@ 2026
клетъ@@ 2026
писта 2026
увеличаване 2026
Панама 2025
Съгласно 2025
съдбата 2025
съди@@ 2025
Бургун@@ 2024
Изенбург 2024
Любо@@ 2024
видеокли@@ 2024
глежда 2024
зер 2024
изстрел@@ 2024
рели@@ 2024
съдия 2024
110 2023
900 2023
дий 2023
дини 2023
малцин@@ 2023
мей 2023
прия@@ 2023
среднове@@ 2023
вяра 2022
съставлява 2022
потенци@@ 2021
пул@@ 2021
МС 2020
Реги@@ 2020
Уин@@ 2020
цент 2020
драв@@ 2019
италианската 2019
кух@@ 2019
мил@@ 2019
08 2018
Куку@@ 2018
подно@@ 2018
Кер@@ 2017
модела 2017
колони 2016
фийлд 2016
френска 2016
зима 2015
ид 2015
порно@@ 2015
Добрич 2014
категори@@ 2014
количе@@ 2014
мрежи 2014
Деца 2013
Друга 2012
Кин@@ 2012
Скот 2012
Успе@@ 2012
зиран 2012
международна 2012
псевдоним 2011
Пише 2010
описание 2010
Ману@@ 2009
докторска 2009
рек 2009
ur@@ 2008
водство 2008
къв 2008
мандат 2008
мащаб 2008
морета 2008
фактори 2008
фар@@ 2008
язовир 2008
иза 2007
карва 2007
присъединяват 2007
сяват 2007
Италиан@@ 2006
архипе@@ 2006
стихове 2006
хилядо@@ 2006
бити@@ 2005
Бавар@@ 2004
Мюн@@ 2004
Слън@@ 2004
скала 2004
хълми@@ 2004
Афганистан 2003
Кристоф 2003
Льо@@ 2003
представителите 2003
H 2002
Йотинген 2002
Франк@@ 2002
граду@@ 2002
независима 2002
реб@@ 2002
самолетоноса@@ 2002
ада 2001
бърн 2001
племето 2001
живява 2000
удъл@@ 2000
Терминът 1999
неща 1999
претър@@ 1999
редки 1999
Алън 1998
изпълнител 1998
моне@@ 1998
Мака@@ 1997
писателя 1997
попадат 1997
фелс 1997
награ@@ 1996
Пирин 1995
класиране 1995
морско 1995
Хасково 1993
кса 1993
отношението 1993
сков 1993
Ени@@ 1992
Закона 1992
Словакия 1992
дух 1992
освет@@ 1992
уа 1992
драмати@@ 1991
либера@@ 1991
характеристика 1991
as@@ 1990
Лихтен@@ 1990
Мадагаскар 1990
апосто@@ 1990
конституция 1990
основате@@ 1990
стви@@ 1990
щаст@@ 1990
Успение 1989
Флоренция 1989
закон@@ 1989
концентри@@ 1989
наречено 1989
съставен 1989
говорите 1987
очите 1987
Мора@@ 1986
Хау@@ 1986
настъпление 1986
съпру@@ 1986
Долно 1985
Конгре@@ 1985
Кърджали 1985
Тайван 1985
безопас@@ 1985
компи@@ 1985
лагер@@ 1985
сау 1985
сърби 1985
Еберхард 1984
Луната 1984
зал@@ 1984
краи@@ 1984
месеци 1984
батальон 1983
Вед@@ 1982
Груп@@ 1982
Ст@@ 1982
il@@ 1981
Тон@@ 1981
качество 1981
отмъ@@ 1981
хек@@ 1981
Погребан 1980
азиат@@ 1980
дова 1980
осем@@ 1980
Резултат@@ 1979
хло@@ 1979
бяло 1978
месо 1978
богата 1977
бърт 1977
енбург 1977
персо@@ 1977
дърве@@ 1976
картина 1976
ковци 1976
критие 1976
бай@@ 1975
запи@@ 1975
Физи@@ 1974
ат 1974
докто@@ 1974
раз 1974
сма@@ 1974
сърцето 1974
тютю@@ 1974
написан 1973
тос 1973
Азербайджан 1972
Мозамбик 1972
Сталин 1972
говор@@ 1972
защо 1972
печат 1972
приказ@@ 1972
1200 1971
бойна 1971
гръцкото 1971
дубла@@ 1971
Манчестър 1970
Ранни 1970
лом 1970
ню@@ 1970
тясно 1970
Адрианопол 1969
Ери@@ 1969
Шек@@ 1969
лагера 1969
превоз@@ 1969
факти 1969
еки@@ 1968
кване 1968
населя@@ 1968
бяла 1967
врати 1967
късната 1967
мене@@ 1967
рато@@ 1967
царе@@ 1967
Еману@@ 1966
кай@@ 1966
противоре@@ 1966
хоро@@ 1966
щур@@ 1966
160 1965
Василев 1965
гражданин 1965
движения 1965
енето 1965
посвет@@ 1965
рят 1965
шков 1965
изпада 1964
морското 1964
су 1964
учениците 1964
вою@@ 1963
инстру@@ 1963
кас 1963
носо@@ 1963
бездетен 1962
мол@@ 1962
Магдалена 1961
Ю 1961
госту@@ 1961
периоди 1961
предприема 1961
вой 1960
линг@@ 1960
майстори 1960
миграция 1960
усъвършен@@ 1960
Дебютира 1959
Маври@@ 1959
Милан 1959
мани 1959
матери@@ 1959
хит 1959
Разполо@@ 1958
вяне 1958
кратно 1958
нон 1958
служат 1958
Де 1957
бана@@ 1957
бище 1957
диви 1957
ждения 1957
защита@@ 1956
съоръ@@ 1956
топ 1956
бойните 1955
желанието 1955
уеб 1955
Апри@@ 1954
католическата 1954
язови@@ 1954
бран@@ 1953
експедицията 1953
интерес@@ 1953
колежа 1953
as 1952
Берлин@@ 1952
Франсоа 1952
море@@ 1952
посветена 1952
сам@@ 1952
ap@@ 1951
вер 1951
данов 1951
планетата 1951
промо@@ 1951
шин@@ 1951
обявено 1950
отпечат@@ 1950
реда@@ 1950
счита@@ 1950
състеза@@ 1950
люс 1948
нова@@ 1948
област@@ 1948
софту@@ 1948
деж@@ 1947
ико@@ 1947
осъзна@@ 1947
Републикан@@ 1946
ента 1946
клу@@ 1946
любов@@ 1946
свръх@@ 1946
турнири 1946
u 1945
внук 1945
глави 1945
охла@@ 1945
статия 1945
01 1944
военното 1944
какв@@ 1944
резултатите 1944
схема 1944
фан@@ 1944
ЮНЕСКО 1943
авио@@ 1943
лили 1943
римска 1943
Бли@@ 1942
Жак 1942
гръцко 1942
полиция 1942
бремен@@ 1941
мело@@ 1941
ълъ@@ 1941
ор 1940
отсе@@ 1940
05 1939
Кен@@ 1939
Любомир 1939
Центра@@ 1939
алу@@ 1939
възела 1939
командва 1939
ефици@@ 1938
избяга 1938
вътрешни 1937
дже 1937
публикации 1937
1874 1936
Дал@@ 1936
Едва 1936
артилерий@@ 1936
различно 1936
школата 1936
Кому@@ 1935
Пин@@ 1935
Тъ@@ 1935
дървени 1935
импер@@ 1935
милиарда 1935
остане 1935
отделен 1935
рените 1935
ресторан@@ 1935
славата 1935
стрелба 1935
Оба@@ 1934
кили@@ 1934
локо@@ 1934
плаване 1934
селски 1934
изкуствата 1933
мък 1933
орбит@@ 1933
публично 1933
установка 1933
иму@@ 1932
леност 1932
спорта 1932
трилър 1932
финан@@ 1932
Бил@@ 1931
зиране 1931
ова 1931
срок 1931
ѫ@@ 1931
1868 1930
Кристина 1930
шната 1930
Вене@@ 1929
кал 1929
нберг 1929
ху 1929
Жив@@ 1928
губернатор 1928
конфликти 1928
крайбрежието 1928
мони@@ 1928
обкръ@@ 1928
популярните 1928
K 1927
Преображен@@ 1927
запис 1927
мални 1927
търсят 1927
Максим 1926
аеро@@ 1926
здраве 1926
небург 1926
покров@@ 1926
Нау@@ 1925
Ул@@ 1925
дъното 1925
изостав@@ 1925
никой 1925
Игра@@ 1924
Мари 1924
Северозападна 1924
изпратени 1924
прилага 1924
рополия 1924
фът 1924
Тради@@ 1923
Именно 1922
някога 1922
оксид 1922
сини 1922
върнат 1921
тенис 1921
Англи@@ 1920
Бот@@ 1920
варови@@ 1920
вард 1919
папата 1919
синовете 1919
бров@@ 1918
вари 1918
нави@@ 1918
огъня 1918
посла@@ 1918
трай@@ 1918
r 1917
бро 1917
водач 1917
евреите 1917
психология 1917
1866 1916
желя@@ 1916
фос@@ 1916
Общата 1915
арте@@ 1915
гръбна@@ 1915
рея 1915
англича@@ 1914
еви 1914
корабна 1914
наблюдават 1914
наименова@@ 1914
Двете 1913
Еди@@ 1913
зая@@ 1913
мъжкото 1913
разве@@ 1913
спокой@@ 1913
сръбската 1913
указ 1913
видно 1912
8,@@ 1911
Народен 1911
мисията 1911
юриди@@ 1911
затворен 1910
маха@@ 1910
Им@@ 1909
посрещ@@ 1909
Запа@@ 1908
Съществу@@ 1908
конкурса 1908
сенатор 1908
Нигерия 1907
Роу@@ 1907
експеримента@@ 1907
приблизителна 1907
ag@@ 1906
Варнен@@ 1906
едната 1906
използвайки 1906
колекция 1906
лекции 1906
ситуация 1906
употребата 1906
Алберт 1905
орке@@ 1905
посочено 1905
югоизточната 1905
Макс 1904
Френската 1904
Ър@@ 1904
аз@@ 1904
архив 1904
нил 1904
принуждава 1904
слад@@ 1904
стихо@@ 1904
участия 1904
Папа@@ 1903
лън 1903
моли 1903
редовно 1903
колко@@ 1902
отборите 1902
редо@@ 1902
яд@@ 1902
темати@@ 1901
щайки 1901
Гале@@ 1900
Филосо@@ 1900
лост 1899
патри@@ 1899
музикално 1898
1861 1897
Известни 1897
вку@@ 1897
еванге@@ 1897
приви@@ 1897
състоянието 1897
универса@@ 1897
художника 1897
Реал 1896
екзархисти 1896
лежа@@ 1896
нацията 1896
разпръ@@ 1896
Ерик 1895
Доротея 1894
симфо@@ 1894
спечелва 1894
членки 1894
Монте@@ 1893
задвиж@@ 1893
хожда@@ 1893
персона@@ 1892
пусти@@ 1892
разработва 1892
същите 1892
Records 1891
Ново 1891
АТ@@ 1890
Рика 1890
литературни 1890
полети 1890
списанието 1890
Андер@@ 1889
евро@@ 1889
определено 1889
процеду@@ 1889
сайт 1889
Илиев 1888
Завръ@@ 1887
Саму@@ 1887
велик 1887
разузнавате@@ 1887
серията 1887
чуждестранни 1887
вка@@ 1886
зрители 1886
филмите 1886
ърд 1886
възстановява 1885
диагно@@ 1885
кторите 1885
разположение 1885
Уни@@ 1884
размно@@ 1884
стото 1884
СП 1883
вател 1883
гале@@ 1883
демонстри@@ 1883
земеделието 1883
отличие 1883
съветската 1883
Изабе@@ 1882
дипломат 1882
летът 1882
македонския 1882
мил 1882
рус 1882
ряването 1882
Окта@@ 1881
види 1881
класически 1881
факт 1881
сладковод@@ 1880
филмов 1880
Перник 1879
ази@@ 1879
подзем@@ 1879
Люксембург 1878
корпора@@ 1878
очаква 1878
ври 1877
непрекъснато 1877
председателя 1877
сму@@ 1877
МВ@@ 1876
националните 1876
quot 1875
Ези@@ 1875
Сингапур 1875
полови@@ 1875
тали@@ 1875
департамент 1874
емигран@@ 1874
ранени 1874
Защ@@ 1873
Комисията 1873
личния 1873
синове 1873
страте@@ 1872
Дим@@ 1871
концеп@@ 1871
плато@@ 1871
пенсиони@@ 1870
плодо@@ 1870
Аз 1869
Тол@@ 1869
другия 1869
емост 1869
рас 1869
тани 1869
турските 1869
близките 1868
изигра@@ 1868
основния 1868
подготовката 1868
сяване 1868
днешния 1867
историческата 1867
лицен@@ 1867
мур 1867
немските 1867
03 1866
ella 1866
стиче@@ 1866
фия 1866
Имат 1865
възстановяването 1865
двадесет 1865
ковод@@ 1865
инфек@@ 1864
кор 1864
отхвърля 1864
верен 1863
присъстват 1863
пускат 1863
жар@@ 1862
кир@@ 1862
щаба 1862
Ел 1861
социално 1861
Кинг 1860
избухва 1860
огла@@ 1860
стара 1860
Жен@@ 1859
Ред@@ 1859
говорен 1859
монах 1859
притежават 1859
фите 1859
U 1858
диску@@ 1858
дуин 1857
замъ@@ 1857
спон@@ 1857
цир@@ 1857
чети 1857
завършват 1856
холм 1856
Джо 1855
въглища 1855
джаз 1855
магистър@@ 1855
мисли 1855
разнообразни 1855
ранната 1855
350 1854
жо 1854
назва@@ 1854
пул 1854
спря@@ 1854
bi@@ 1853
нит 1853
повя@@ 1853
уна 1853
Григо@@ 1852
жертва 1852
кау@@ 1852
черно 1852
Семей@@ 1851
зии 1851
княжество 1851
крака 1851
майки 1851
дрехи 1850
запазена 1850
лом@@ 1850
погребе@@ 1850
различават 1850
русна@@ 1850
дарска 1849
лско 1849
написани 1849
сли 1849
фин 1849
Държавния 1848
Едно 1848
дълбока 1848
Компа@@ 1847
Сед@@ 1847
лието 1847
президентът 1847
рене@@ 1847
тията 1847
Памет@@ 1846
вили 1846
зет@@ 1846
истории 1846
кота 1846
писане 1846
преводач 1846
снима 1846
стиму@@ 1846
Миси@@ 1845
Одрин 1844
апси@@ 1844
досто@@ 1844
заклю@@ 1844
обли@@ 1844
прието 1844
Уязвим 1843
многобро@@ 1843
моде@@ 1843
секс 1843
бозайници 1842
Ву@@ 1841
Естония 1841
птем@@ 1841
състезател 1841
Романът 1840
блоки@@ 1840
дост 1840
преброяване 1840
следствие 1840
търговска 1840
щера 1840
k 1839
Лет@@ 1839
екологи@@ 1839
реформи 1839
Роман@@ 1838
баба 1837
лека 1837
натиск 1837
проблемите 1837
став 1837
съзнание 1837
Браун 1836
Камерун 1836
водена 1836
земеделски 1836
напит@@ 1836
бени 1835
влия@@ 1835
евенту@@ 1835
пеще@@ 1835
плен 1835
хау@@ 1835
камера 1834
Проду@@ 1833
Сток@@ 1832
епо@@ 1832
компонен@@ 1832
мб@@ 1832
обявяват 1832
средно@@ 1832
тей@@ 1832
цев 1832
Фин@@ 1831
атели 1831
гено@@ 1831
матика 1831
говете 1830
заслуги 1829
крепост@@ 1829
нското 1829
признание 1829
Храмът 1828
болести 1828
миро@@ 1828
служби 1828
Кана@@ 1827
Литва 1827
двигателя 1827
заболяване 1827
нии 1827
околностите 1827
отправя 1827
диско@@ 1826
домакин 1826
116@@ 1825
Иконо@@ 1825
довни 1825
кана@@ 1825
холанд@@ 1825
германците 1824
жество 1824
нада 1824
разпада 1824
твърдят 1824
1863 1823
ea 1823
въоръжена 1823
двор@@ 1823
гражданите 1822
живи 1822
замест@@ 1822
кампа@@ 1822
сното 1822
хожда 1822
Панай@@ 1821
виждат 1821
образ 1821
предпа@@ 1821
произхожда 1821
Средиземно 1820
нататъ@@ 1820
титу@@ 1820
триум@@ 1820
флу@@ 1820
Пос@@ 1819
базилика 1819
основното 1819
пиеси 1819
терен 1819
цин 1819
деноно@@ 1818
медии 1818
насти@@ 1818
предим@@ 1818
Радио 1817
менти@@ 1817
Щол@@ 1816
бакалавърска 1816
мала@@ 1816
водеща 1815
едноимен@@ 1815
възвишение 1814
метра@@ 1814
подготвя 1814
Андро@@ 1813
Западен 1813
излъч@@ 1813
тет 1813
тъм 1813
хранене 1813
замяна 1812
Ch@@ 1811
Густав 1811
Македонски 1811
конгре@@ 1811
родината 1811
em@@ 1810
og@@ 1810
Мав@@ 1810
добавя 1810
магистрала 1810
рам 1810
НО@@ 1809
гур@@ 1809
двойка 1809
рекорд 1809
стади@@ 1809
участниците 1809
Давид 1808
Стамбо@@ 1808
Шуленбург 1808
континента 1808
ордена 1808
помещения 1808
туристически 1808
Бий@@ 1807
Костур@@ 1807
административни 1807
астронав@@ 1807
вост 1807
нападател 1807
югозападната 1807
Сома@@ 1806
графовете 1806
основа@@ 1806
правило 1806
принудени 1806
Годи@@ 1805
Държавната 1805
атакува 1805
емигрира 1805
кина 1805
кисели@@ 1805
кръв 1805
разбира@@ 1805
специал@@ 1805
стая 1805
Алжир 1804
Веро@@ 1804
зелен@@ 1804
листни 1804
1850 1803
нел 1803
обединява 1803
пистата 1803
показа@@ 1803
свързват 1803
сква 1803
тън@@ 1803
държавната 1802
натруп@@ 1802
разпозна@@ 1802
сос 1802
станцията 1802
яните 1802
Владислав 1801
Джак@@ 1801
Ог@@ 1801
гам 1801
съвременния 1801
Дек@@ 1800
вътрешната 1800
йци 1800
район@@ 1800
самостоятелен 1800
годишнината 1799
грузин@@ 1799
деля 1799
мология 1799
номини@@ 1799
открития 1799
Антио@@ 1798
Чехословакия 1798
дъщерята 1798
насе@@ 1798
посто@@ 1798
широко@@ 1798
лято 1797
пад 1797
117@@ 1796
li@@ 1796
os 1796
Помпе@@ 1796
графството 1796
доцент 1796
насекоми 1796
нах 1796
плен@@ 1796
1865 1795
комбинация 1795
Лар@@ 1794
абсолю@@ 1794
албумът 1794
движи 1794
моста 1794
насил@@ 1794
огромен 1794
пребива@@ 1794
стойности 1794
Хан 1793
съгласява 1793
хана 1793
lidae 1792
напис@@ 1792
необходими 1792
слото 1792
бити 1791
заплаха 1791
отказват 1791
продадени 1791
фелд@@ 1791
Цар 1790
английската 1790
кучета 1790
нително 1790
подход 1790
тенбург 1790
Етиопия 1789
красо@@ 1789
ктор@@ 1789
напом@@ 1789
онен 1789
ориента@@ 1789
сингъла 1789
следват 1789
Влиза 1788
дил 1788
препят@@ 1788
променят 1788
сложни 1788
тирана 1788
цити@@ 1788
Диони@@ 1787
Служи 1787
дипломирането 1787
Почти 1786
триъгъл@@ 1786
естествено 1785
линейни 1785
нужда@@ 1785
рецеп@@ 1785
свое 1785
сдру@@ 1785
1830 1784
Ад@@ 1784
вечер@@ 1784
заселе@@ 1784
манастир@@ 1784
мбо@@ 1784
повди@@ 1784
постижения 1784
ром 1784
самостоятелни 1784
Драго@@ 1783
владения 1783
кира 1783
коалиция 1783
повто@@ 1783
Етнически 1782
дере 1782
изгражда 1782
постоянен 1782
търговци 1782
мява 1781
отнасят 1781
традиционно 1781
ad@@ 1780
at@@ 1780
Атлантическия 1780
Два@@ 1780
кел@@ 1780
Шарлота 1779
дови 1779
дят 1779
евич 1779
for 1778
Авра@@ 1778
Амалия 1778
Беле@@ 1778
Стран@@ 1778
дес@@ 1778
катастро@@ 1778
принадлежа@@ 1778
БЗ@@ 1777
Пери@@ 1777
остан@@ 1777
седа@@ 1777
Такива 1776
вълни 1776
говото 1776
диск 1776
истински 1776
пети 1776
присъствие 1776
фолк 1776
Раковски 1775
Так@@ 1775
биз@@ 1775
немската 1775
разкопки 1775
Кири@@ 1774
Княжество 1774
Старо@@ 1774
граждански 1774
кит@@ 1774
нините 1774
обсадата 1774
ранна 1774
строеж 1774
ть@@ 1774
херцогиня 1774
Ангола 1773
Ат@@ 1773
Отборът 1773
избират 1773
млад@@ 1773
пазар@@ 1773
СД@@ 1772
Сиби@@ 1772
Чикаго 1772
главни 1772
пато@@ 1772
пки 1772
пос@@ 1772
1800 1771
Сестра 1771
еврейски 1771
обществено 1771
специалисти 1771
споразуме@@ 1771
бина 1770
масата 1770
отец 1770
рацията 1770
стипен@@ 1770
aceae 1769
Ямбол 1769
североизточната 1769
хол@@ 1768
.с. 1767
джо 1767
нената 1767
пр. 1767
Апо@@ 1766
Вре@@ 1766
алният 1766
възможни 1766
османските 1766
потвърждава 1766
произведени 1766
Сак@@ 1765
вещество 1765
воар 1765
причината 1765
al 1764
at 1764
Негов 1764
алтерна@@ 1764
гията 1764
молба 1764
туризъм 1764
Арабия 1763
древни 1763
организа@@ 1763
северозападната 1763
тух@@ 1763
умения 1763
Резо@@ 1762
Твор@@ 1762
полузащитник 1762
измъ@@ 1761
ническо 1761
увре@@ 1761
фентъзи 1761
химиче@@ 1761
Лука 1760
Мета@@ 1760
Феде@@ 1760
букви 1760
завърши 1760
международната 1760
писан 1760
заку@@ 1759
климати@@ 1759
конту@@ 1759
операцията 1759
нейният 1758
ств@@ 1758
забран@@ 1757
значителен 1757
Вътреш@@ 1756
ефекти 1756
компютри 1756
тоест 1756
ВИ@@ 1755
Дъщер@@ 1755
заменен 1755
пфалц@@ 1755
териториите 1755
тини 1755
дем@@ 1754
дис@@ 1754
замър@@ 1754
известният 1754
маз@@ 1754
моря@@ 1754
социацията 1754
Купа 1753
тане 1753
философ 1753
Love 1752
І 1751
ида 1751
идеите 1751
комеди@@ 1751
комер@@ 1751
логични 1751
наблюдение 1751
присъствието 1750
тео@@ 1750
Он@@ 1749
Стари 1749
ливо@@ 1749
организми 1749
Барбара 1748
Симон 1748
Хосе 1748
канали 1748
сион 1748
съществуване 1748
хон@@ 1748
Делчев 1747
адапти@@ 1747
визу@@ 1747
воя 1747
глъ@@ 1747
трудо@@ 1747
употре@@ 1747
ec@@ 1746
Терито@@ 1746
Шри 1746
евски 1746
корона 1746
пивовар@@ 1746
радика@@ 1746
смесено 1746
Характер@@ 1745
богати 1745
еве 1745
Голя@@ 1744
Държавна 1744
Камбоджа 1744
вни@@ 1744
вро@@ 1744
завършен 1744
ференци@@ 1744
Министерство 1743
екс@@ 1743
лето 1743
моги@@ 1743
Желе@@ 1741
волей@@ 1741
мба@@ 1741
национал@@ 1741
позната 1741
рер 1741
Трои@@ 1740
Франциско 1740
деното 1740
напада 1740
отделно 1740
сил@@ 1740
сили@@ 1740
Парла@@ 1739
Родопи 1739
лента 1739
туристи@@ 1739
et@@ 1738
Готфрид 1738
бота@@ 1738
ваната 1738
водени 1738
Дол@@ 1737
маршру@@ 1737
стот@@ 1737
es@@ 1736
нология 1736
посвещава 1736
публици@@ 1736
гос 1735
дика 1735
изпре@@ 1735
бившата 1734
военния 1734
самите 1734
сения 1734
Ербах 1733
спози@@ 1733
участъци 1733
Мини@@ 1732
арх@@ 1732
държане 1732
въдство 1731
извори 1731
представи 1731
прослед@@ 1731
хълма 1731
векове 1730
мните 1730
Побед@@ 1729
вилаетите 1729
сем@@ 1729
достъ@@ 1728
категории 1728
клин 1728
курфюрст 1728
манов 1728
РБ 1727
войниците 1727
главно@@ 1727
годишни 1727
ментар@@ 1727
мляко 1727
охра@@ 1727
трудове 1727
Лам@@ 1726
Творчество 1726
битки 1726
вестници 1726
мска 1726
детето 1725
лиев 1725
пехо@@ 1725
пристигането 1725
технология 1725
Bar@@ 1724
отделят 1724
тит@@ 1724
Древен 1723
Национална 1723
исти@@ 1723
масло 1723
сериа@@ 1723
Общината 1722
зависи@@ 1722
кьой 1722
скал@@ 1722
христи@@ 1722
иран@@ 1721
особе@@ 1721
помощ@@ 1721
разновид@@ 1721
средновековна 1720
типове 1720
чинов@@ 1720
дю@@ 1719
изложба 1719
отразяваща 1718
сани@@ 1718
st@@ 1717
КС 1717
запозна@@ 1717
хим@@ 1717
Езе@@ 1716
Съще@@ 1716
драматичен 1716
зали 1716
цигу@@ 1716
Кума@@ 1715
яй@@ 1715
Брюксел 1714
Марс 1714
Подобно 1714
акту@@ 1714
домо@@ 1714
комби@@ 1713
убие 1713
кратък 1712
нак 1712
номе@@ 1711
склон 1711
партиза@@ 1710
публика 1710
темпера@@ 1710
явления 1710
английска 1709
домаш@@ 1709
лерн 1709
върш@@ 1708
допри@@ 1707
геоло@@ 1706
наброява 1706
Гоце 1705
съдържанието 1705
Архи@@ 1704
Мом@@ 1704
Тибе@@ 1704
нината 1704
предмет 1704
125 1703
деми@@ 1703
къла 1702
цла@@ 1702
груп@@ 1701
динген 1701
допринася 1701
конструкцията 1701
майсторство 1701
сри@@ 1701
DVD 1700
Касти@@ 1699
Монастир 1699
здрав@@ 1699
товар@@ 1699
шли 1699
an 1698
el 1698
Марков 1698
целе@@ 1698
лм 1697
разрешение 1697
Соци@@ 1696
министер@@ 1696
пин 1696
фе 1696
характери@@ 1696
2022 1695
Крис 1695
словен@@ 1695
ала 1694
зря@@ 1694
легенда 1694
фона 1694
Маг@@ 1693
Осман@@ 1693
азбука 1693
гс 1693
лизат 1693
Сава 1692
Фрай@@ 1692
минът 1692
разнообраз@@ 1692
рю 1692
фганг 1692
113@@ 1691
na 1691
набро@@ 1691
Бернхард 1690
Министер@@ 1690
ара@@ 1689
лаго@@ 1689
en 1688
Испан@@ 1688
колония 1688
ниси@@ 1688
хата 1688
ориен@@ 1687
резерват 1687
спор 1687
1856 1686
шев@@ 1686
… 1686
04 1685
Сул@@ 1685
катастрофа 1685
рич 1685
червени 1685
довате@@ 1684
студент 1684
л. 1682
лай 1681
порт 1681
Латин@@ 1680
Хол@@ 1680
парт@@ 1680
характе@@ 1680
цента 1680
Антаркти@@ 1679
Нюр@@ 1679
диригент 1679
океан@@ 1679
тайно 1679
дн 1678
плате@@ 1678
9,@@ 1677
сайта 1677
W 1676
второ@@ 1676
1862 1675
Екатерина 1675
Холи@@ 1675
Влади@@ 1674
незия 1674
ниан 1674
режись@@ 1674
родители 1674
Арсе@@ 1673
бора 1673
еже@@ 1673
Мери@@ 1672
гина@@ 1672
скон@@ 1672
ro@@ 1671
Сене@@ 1671
практику@@ 1671
храбро@@ 1671
ас@@ 1670
вход 1670
набор 1670
прова@@ 1670
дурас 1669
критично 1669
общности 1669
07 1668
онора 1668
зай@@ 1667
1859 1666
проход 1666
ѣ@@ 1665
морфо@@ 1664
падан@@ 1664
сх@@ 1664
Гватемала 1663
Комнин 1663
коне 1663
яйца 1663
зова 1662
ПФК 1661
термо@@ 1661
Хра@@ 1660
хара 1660
душно 1658
лини 1658
фрид 1658
Par@@ 1657
Аполо@@ 1657
полага@@ 1657
Герхард 1656
Трай@@ 1656
ваше 1656
тман 1656
космо@@ 1655
Форд 1654
вършва 1654
зеле@@ 1654
лани 1654
як 1654
Шва@@ 1653
формат 1653
Лота@@ 1652
вестника 1652
мерно 1652
пропа@@ 1652
авторите@@ 1651
застава 1651
земедели@@ 1651
изображение 1651
интересу@@ 1651
чайно 1651
лъж@@ 1650
морф@@ 1650
рол 1650
# 1648
веро@@ 1647
зас@@ 1647
лингви@@ 1647
милия 1647
тур 1647
ави@@ 1646
формации 1646
Византи@@ 1645
зараз@@ 1645
кви 1644
марке@@ 1644
неделя 1644
дири@@ 1643
ключва 1643
сит@@ 1643
коди@@ 1642
рида 1642
владение 1641
доне@@ 1641
наем@@ 1641
оси@@ 1640
Коман@@ 1639
Фьо@@ 1639
гас 1639
отличия 1639
предста@@ 1639
юрист 1639
просве@@ 1638
Кристи@@ 1637
Генерал 1636
акти@@ 1636
рит@@ 1636
сати@@ 1636
сер 1636
Себа@@ 1635
Тря@@ 1635
вивален@@ 1635
вита@@ 1635
галакти@@ 1635
Уганда 1634
сол 1634
Участ@@ 1633
марки 1633
oph@@ 1632
незакон@@ 1632
Стани@@ 1630
опер@@ 1630
церемо@@ 1630
шва 1630
tr@@ 1629
Марти@@ 1629
същ@@ 1629
Парк 1628
молит@@ 1628
оправ@@ 1628
рей 1628
Импера@@ 1627
амби@@ 1627
рини 1627
крови@@ 1625
разка@@ 1625
Рафа@@ 1624
констру@@ 1624
свиде@@ 1624
хиля@@ 1624
готов@@ 1623
добро@@ 1623
предпоч@@ 1623
di@@ 1622
Вместо 1622
аргу@@ 1622
справ@@ 1622
техники 1622
Ван 1621
Мур@@ 1621
отре@@ 1621
Майнц 1620
Никарагуа 1620
получил 1620
le 1619
Тене@@ 1619
гражданство 1619
изгнание 1619
ят@@ 1619
Тома 1618
безу@@ 1618
лега@@ 1618
графа 1617
делега@@ 1617
фан 1617
гари 1616
In@@ 1615
али 1615
развита 1615
пани 1614
Tr@@ 1613
цер 1613
Будапе@@ 1612
Тони 1612
виан 1612
хит@@ 1612
почит@@ 1611
Антоний 1610
Игна@@ 1610
Лорен@@ 1610
дона 1609
печа@@ 1609
случайно 1609
номинации 1608
почет@@ 1608
богато 1607
вкус 1607
двигате@@ 1607
министерство 1607
пап@@ 1607
бно 1606
ктора 1606
максима@@ 1606
f 1604
намест@@ 1604
циан@@ 1604
Клавдий 1603
Мохамед 1603
могила 1603
сипи 1603
специ@@ 1603
сть@@ 1603
Съеди@@ 1602
термина 1602
трон 1602
фини@@ 1602
щина 1602
Произ@@ 1601
Фланд@@ 1601
водоизме@@ 1601
насилие 1601
Ил@@ 1600
Ца@@ 1600
Лаза@@ 1598
аспек@@ 1598
почита@@ 1598
Араб@@ 1597
Коро@@ 1597
Рот@@ 1597
пожар 1597
02 1596
фрай@@ 1596
Висконти 1595
Иван@@ 1595
хот@@ 1595
хотел 1595
ноафрикан@@ 1593
Холмс 1591
мине 1591
нади@@ 1591
нам 1591
северно@@ 1591
тец 1590
Ланд@@ 1589
консервато@@ 1589
можно 1589
тома 1589
удо@@ 1589
St@@ 1588
Мехмед 1588
Стати@@ 1588
Тат@@ 1588
еро 1588
Коб@@ 1587
банд@@ 1587
лея 1587
фронта 1586
цилин@@ 1586
шеви@@ 1586
ьон 1586
or 1585
доброво@@ 1585
експеди@@ 1585
ис 1585
лак 1585
кред@@ 1584
пова 1584
сдел@@ 1584
фами@@ 1584
дивизии 1583
жник 1583
мети@@ 1583
аза 1582
кожи 1582
престол 1582
Чле@@ 1581
але@@ 1581
ракета 1581
рд 1581
Y@@ 1580
тей 1580
Европе@@ 1579
кции 1579
монт 1579
после@@ 1579
фабри@@ 1579
Райн@@ 1578
голе@@ 1578
дад 1578
хищ@@ 1578
метрия 1576
слов@@ 1576
списъ@@ 1576
ed@@ 1575
вмести@@ 1575
гел@@ 1575
динг 1575
дли@@ 1575
жанр 1575
колко 1575
степ@@ 1575
Коста@@ 1574
дим 1574
рели 1573
Геро@@ 1572
Краси@@ 1572
Ники@@ 1572
бий 1572
вати@@ 1572
ук 1572
ВМС 1571
Ц 1571
Якоб 1571
парта@@ 1571
Два 1570
бари@@ 1570
близко 1570
перу@@ 1570
разре@@ 1570
смар@@ 1570
астро@@ 1569
ванов 1569
мл@@ 1569
неправи@@ 1569
anus 1568
Домини@@ 1568
лектро@@ 1568
усили@@ 1568
Габри@@ 1566
ежегодно 1566
медали 1566
тения 1566
Систе@@ 1565
конфликта 1565
селек@@ 1565
фактор 1565
ТВ 1563
аван@@ 1563
поляр@@ 1563
кус 1562
пещер@@ 1562
церемония 1562
демон@@ 1561
изделия 1561
намере@@ 1561
епархи@@ 1560
оборуд@@ 1560
бунт 1559
лед 1559
инструк@@ 1558
фо 1558
Брон@@ 1557
Остров 1557
колонии 1557
Боя@@ 1556
Есте@@ 1556
бараба@@ 1556
инспектор 1556
чков 1556
4000 1555
Андже@@ 1555
ЗИ@@ 1555
емо 1555
кли 1555
консер@@ 1555
хри@@ 1555
Вран@@ 1554
Маргарита 1554
цело@@ 1554
dae 1553
Фредерик 1553
Зеле@@ 1552
виру@@ 1550
императрица 1550
тиви@@ 1550
105 1549
Весе@@ 1549
интерфе@@ 1549
огне@@ 1549
тера 1549
уи@@ 1548
Re@@ 1547
деспо@@ 1547
доклад 1547
лок 1547
сфер@@ 1547
принадлеж@@ 1546
Обя@@ 1544
хам@@ 1544
Управление 1543
достатъ@@ 1543
лого@@ 1543
Джей 1542
Дмитрий 1542
ним@@ 1542
берто 1541
вто@@ 1541
гно@@ 1541
секция 1541
тени 1541
23@@ 1540
инициати@@ 1540
лизма 1540
разгра@@ 1540
Интер 1539
1858 1538
обле@@ 1538
орга@@ 1538
свой@@ 1538
среди 1538
Велико@@ 1537
Художе@@ 1537
дос 1537
лата@@ 1537
устро@@ 1537
Монго@@ 1535
Карло 1534
крайбрежи@@ 1534
слабо@@ 1534
цени 1534
оформ@@ 1533
прокуро@@ 1533
скро@@ 1533
увелич@@ 1533
Бала@@ 1532
шири@@ 1532
мур@@ 1531
Господ@@ 1530
Пана@@ 1530
вадор 1530
мус 1530
Интере@@ 1529
пирами@@ 1529
пролет@@ 1529
депре@@ 1528
4,@@ 1527
Туни@@ 1527
сет@@ 1527
дея@@ 1526
жив 1526
завла@@ 1526
метал 1526
чник 1526
Фре@@ 1525
пера@@ 1525
5,@@ 1524
диана 1523
дира 1523
композиция 1523
некро@@ 1523
1840 1522
наля@@ 1522
станов@@ 1522
Заха@@ 1521
бавар@@ 1521
влаж@@ 1521
откро@@ 1521
сборник 1521
Петер 1520
Сек@@ 1520
канала 1520
нистиче@@ 1520
Добро@@ 1519
дио@@ 1519
констан@@ 1519
сигнал 1519
шено 1519
le@@ 1518
Мол@@ 1518
Шен@@ 1518
принадлежат 1517
Ани@@ 1516
Джорджия 1516
Кюстен@@ 1516
Нос@@ 1516
Проце@@ 1516
доказате@@ 1516
кен 1516
убий@@ 1516
чит@@ 1516
Бул@@ 1515
Маха@@ 1515
Социалистиче@@ 1515
драматург 1515
стандарт 1515
фено@@ 1515
яко@@ 1515
1300 1514
сражения 1514
рико 1513
po@@ 1512
кожа 1512
24@@ 1511
баня 1511
организато@@ 1511
циан 1511
Кавказ 1510
ФА 1510
кван@@ 1510
консервати@@ 1510
турни@@ 1510
z 1509
мя 1509
зре@@ 1508
реца 1508
ti 1507
серти@@ 1507
тари 1507
фей 1507
Динамо 1506
Подоб@@ 1506
фат 1506
чест@@ 1506
видят 1505
Сала@@ 1504
вере@@ 1504
ик 1504
порта 1504
равенство 1504
Дона@@ 1503
Уор@@ 1503
мел 1503
Шиш@@ 1502
втори@@ 1502
гт 1502
легендар@@ 1502
пас@@ 1502
Родж@@ 1501
Уругвай 1501
позволя@@ 1500
референ@@ 1499
Алексей 1498
артиле@@ 1498
остана@@ 1497
режима 1497
26@@ 1496
квартала 1496
1600 1495
концерта 1495
предупре@@ 1495
Окс@@ 1494
гали 1494
парата 1494
450 1493
Роман 1493
Сце@@ 1493
Токио 1493
мила 1493
похода 1493
сок 1493
уха@@ 1493
Доми@@ 1492
ниг@@ 1492
нор 1492
отро@@ 1492
m3 1491
гин 1491
кора@@ 1491
мах 1491
обстанов@@ 1491
Авре@@ 1490
Япон@@ 1490
Много@@ 1489
трапе@@ 1489
чере@@ 1489
ys 1488
гравита@@ 1488
усло@@ 1488
icus 1487
венту@@ 1487
пункт 1487
отряда 1486
Бела@@ 1485
Нед@@ 1483
Сам 1483
Сезон 1483
приспособ@@ 1483
Док@@ 1482
Спе@@ 1482
назад 1482
пресе@@ 1482
скоп 1482
Ирина 1481
противник 1480
биографи@@ 1479
княже@@ 1479
означа@@ 1479
Манд@@ 1478
метео@@ 1478
поне@@ 1478
сил 1478
1849 1477
Гил@@ 1477
Латвия 1477
архитектурно 1477
вселе@@ 1477
горе 1477
ограниче@@ 1477
бакте@@ 1476
фера 1476
гимнази@@ 1475
избух@@ 1474
матри@@ 1474
пс 1474
ВВС 1473
ьора 1472
Кава@@ 1470
Сарди@@ 1470
Спорт 1470
колеба@@ 1470
пожар@@ 1470
ситуа@@ 1470
3,@@ 1469
Юта 1469
ир@@ 1469
бов 1468
вонача@@ 1468
ежедне@@ 1468
ръб@@ 1468
Режи@@ 1467
блю@@ 1467
инг 1467
хаме@@ 1467
сп 1466
101 1465
гвардей@@ 1465
даже 1465
смо@@ 1465
Александра 1463
Виде@@ 1463
кардинал 1463
пуск 1463
реаги@@ 1463
Академи@@ 1462
измен@@ 1462
критик 1462
мян 1462
нападения 1462
рион 1462
акции 1461
клави@@ 1461
Сара 1460
ост@@ 1460
тока 1460
Региона@@ 1459
анар@@ 1459
кварта@@ 1459
³ 1458
керамика 1458
лур@@ 1458
предстоя@@ 1458
Пру@@ 1457
Шлезвиг 1457
дизай@@ 1457
пин@@ 1457
предполага@@ 1457
серии 1457
Известно 1456
Муста@@ 1456
Стюарт 1456
анек@@ 1456
вание 1456
гроз@@ 1456
индо@@ 1456
писал 1456
Пит@@ 1455
интегри@@ 1455
питания 1455
услож@@ 1455
Образование 1454
ПС 1454
подроб@@ 1454
1806 1453
ледо@@ 1453
относ@@ 1453
сама 1453
Google 1452
ну 1452
пциг 1452
Президент@@ 1451
полка 1451
рат@@ 1451
шар@@ 1451
Андреа 1450
космоса 1450
Me 1449
Станислав 1448
to@@ 1447
Сатур@@ 1447
мле@@ 1447
производители 1447
ферен@@ 1447
гвай 1446
космонав@@ 1446
лекате@@ 1446
цик@@ 1446
des 1445
ir@@ 1445
Аристо@@ 1445
Обер@@ 1445
Рак@@ 1445
духа 1445
окончате@@ 1445
гаш@@ 1444
риан@@ 1444
чело 1444
Мано@@ 1443
дека@@ 1443
посещение 1443
зно 1442
Инте@@ 1441
нета 1441
рисунки 1441
Лиг@@ 1440
римско 1440
Постепенно 1439
предоста@@ 1439
либе@@ 1438
решено 1438
скор@@ 1438
Наслед@@ 1437
личане 1437
непо@@ 1437
тев 1437
циклопе@@ 1437
1854 1436
Гюн@@ 1436
Мике@@ 1436
говори@@ 1436
като@@ 1436
парамет@@ 1436
теории 1436
New 1435
дор@@ 1435
платформа 1435
30@@ 1434
ограничена 1434
онер 1434
Пир@@ 1433
кири@@ 1433
оза@@ 1433
лум@@ 1432
препода@@ 1432
противополож@@ 1432
редакти@@ 1432
затру@@ 1431
предварите@@ 1431
Мех@@ 1430
заболя@@ 1430
подполковник 1430
пше@@ 1429
Аба@@ 1427
Бундесли@@ 1427
Юрий 1427
Ав@@ 1426
Специали@@ 1426
пети@@ 1426
codice 1425
опере@@ 1425
отчасти 1425
Интернет 1424
изре@@ 1424
склон@@ 1424
Бек@@ 1423
Ордена 1423
гости 1423
критику@@ 1423
тист 1423
вор 1422
деб@@ 1422
резерва 1422
Гун@@ 1421
компа@@ 1421
образец 1421
отправ@@ 1421
регент@@ 1421
специалист 1421
средиземно@@ 1420
ru@@ 1419
ставля@@ 1419
ансам@@ 1418
ауди@@ 1418
конструи@@ 1418
рован 1417
трав@@ 1417
формат@@ 1416
ter@@ 1415
Арно@@ 1415
Боб@@ 1415
Изра@@ 1415
Рам@@ 1415
Хим@@ 1415
глобус 1415
джин@@ 1415
рови@@ 1415
ака@@ 1414
жд 1414
тическия 1414
записан 1413
революцио@@ 1413
дри 1412
буква 1411
мед@@ 1411
реван@@ 1411
Microsoft 1410
ri@@ 1410
Трини@@ 1410
Горно@@ 1409
Каза@@ 1409
били@@ 1409
Вернер 1408
Средиземно@@ 1408
карбо@@ 1408
юри 1408
1853 1407
urus 1407
бюдже@@ 1407
водоро@@ 1407
животно@@ 1407
керами@@ 1407
наги 1407
Ac@@ 1406
Климат 1406
шер 1406
Юлия 1405
мосексу@@ 1405
102 1404
1857 1404
Микро@@ 1404
Птоле@@ 1404
рет 1404
Без 1403
Симе@@ 1403
нага 1403
пей@@ 1403
рад 1403
кабинета 1402
съд@@ 1402
Рос@@ 1401
мигран@@ 1401
рита 1401
убежище 1401
философи@@ 1401
ограничен 1400
равна 1400
ур 1400
Гол@@ 1399
Карта@@ 1399
кава 1399
санти@@ 1399
стана 1399
w@@ 1397
Коми@@ 1397
Мекленбург 1397
зки 1397
плана 1397
хе 1397
ценности 1397
опро@@ 1396
Ким 1395
градата 1395
терми@@ 1395
Ня@@ 1394
комплекса 1394
Кампа@@ 1393
лак@@ 1393
опусто@@ 1393
проф@@ 1393
Co@@ 1392
Вул@@ 1392
литов@@ 1392
организма 1392
Бълга@@ 1391
низацията 1391
бод@@ 1390
гото@@ 1390
офицер@@ 1390
терапия 1390
un@@ 1389
КНР 1389
СП@@ 1389
вее 1389
наблюдения 1389
оре@@ 1389
противопостав@@ 1389
тес 1389
две@@ 1388
фата 1388
Дрезден 1387
бридж 1387
гу 1387
хирур@@ 1387
принципа 1386
co@@ 1385
Тун@@ 1385
дон@@ 1385
мас@@ 1385
мери 1385
ници@@ 1385
поде@@ 1385
дир 1384
ким 1384
Александров 1383
плати@@ 1383
разработка 1383
разрушен 1383
Евгений 1382
ант 1382
др. 1382
инструмента@@ 1382
мигри@@ 1382
страх 1382
Фун@@ 1381
Шампи@@ 1381
с.@@ 1381
вирту@@ 1380
гана 1380
мео 1380
реформа 1380
траге@@ 1380
27@@ 1379
префек@@ 1379
Капита@@ 1378
Юри@@ 1378
земно@@ 1377
окс 1377
Сидни 1375
нара@@ 1375
Еги@@ 1374
Рене@@ 1374
Тен@@ 1374
Гай@@ 1373
Прото@@ 1373
Страс@@ 1373
запове@@ 1373
капиту@@ 1373
ърт 1373
Дебю@@ 1372
1700 1371
ob@@ 1371
Джен@@ 1371
симпто@@ 1371
сал 1370
× 1369
Север 1369
Фила@@ 1369
Ш 1369
находки 1369
токси@@ 1369
Кем@@ 1368
сюже@@ 1368
Music 1366
подписан 1366
постра@@ 1366
ar 1365
Хаджи 1365
re@@ 1364
Ску@@ 1364
декс 1364
здраво@@ 1364
Кит@@ 1363
носители 1363
танка 1363
корей@@ 1362
охрана 1362
Гам@@ 1360
Месо@@ 1360
подчинение 1360
inus 1359
{ 1359
Тим@@ 1359
комбини@@ 1359
уто 1359
генери@@ 1358
пиани@@ 1358
предприятие 1358
Мед@@ 1357
затор 1357
йор@@ 1357
Рей 1356
автора 1356
мило@@ 1356
пост@@ 1356
розо@@ 1356
bus 1354
Медичи 1354
Хро@@ 1354
бата@@ 1354
прито@@ 1354
радо@@ 1354
револю@@ 1353
реакции 1352
Рождество 1350
мически 1350
установки 1350
фара@@ 1350
і@@ 1350
Отече@@ 1349
оценки 1349
спуска@@ 1349
Бен 1348
Украин@@ 1348
Бона@@ 1347
Кот 1347
Сол@@ 1347
СУ 1346
авиация 1346
равно 1346
Cr@@ 1345
мас 1345
акция 1344
игу@@ 1344
ликвиди@@ 1344
Cor@@ 1343
Th@@ 1342
земе@@ 1342
реми@@ 1342
Абду@@ 1341
Кни@@ 1341
Ере@@ 1340
дала 1340
манитар@@ 1340
том 1340
UTC 1339
химик 1339
Хари@@ 1338
Хри@@ 1338
дует 1338
мп 1338
живопис@@ 1337
Кораб@@ 1336
водосбор@@ 1336
оки@@ 1336
порта@@ 1336
тери 1336
цка 1336
Киев@@ 1335
образно 1335
обща@@ 1335
Размно@@ 1334
Соломо@@ 1334
лик@@ 1334
Запад 1333
диктат@@ 1333
Отно@@ 1332
шин 1332
Архитектура 1331
играл 1331
иту@@ 1331
Дво@@ 1330
Леон 1330
знал 1330
Монако 1329
прово@@ 1329
Бангладеш 1328
накло@@ 1328
сег@@ 1328
Лек@@ 1327
вене@@ 1327
пораз@@ 1327
3,5 1326
наро@@ 1326
виз@@ 1325
лиса 1325
сами 1325
Аш@@ 1324
КП 1324
Кан 1324
Мани@@ 1324
траги@@ 1324
стихотворения 1323
Археологи@@ 1322
доктри@@ 1322
тори@@ 1322
фаши@@ 1322
Мичи@@ 1321
ора@@ 1321
чности 1321
ed 1320
Богдан 1320
Роберт 1320
героин@@ 1320
сбли@@ 1320
стория 1320
наказа@@ 1319
дал@@ 1318
див@@ 1317
ограничения 1316
течения 1316
Основа@@ 1315
трево@@ 1315
Бати@@ 1314
Зак@@ 1314
вес 1314
ере@@ 1314
запаз@@ 1314
канц@@ 1314
Аги@@ 1313
Завър@@ 1313
Литера@@ 1312
пере@@ 1312
компак@@ 1311
концепция 1311
кули@@ 1311
осново@@ 1311
Боло@@ 1310
Брат@@ 1309
капе@@ 1309
писец 1309
сериал@@ 1309
храни@@ 1309
Le@@ 1308
образа 1308
чове 1308
изоби@@ 1307
кура@@ 1307
печата@@ 1306
Дре@@ 1305
Bo@@ 1302
Брю@@ 1302
Диего 1302
магазин 1302
шел@@ 1302
зя@@ 1301
иро@@ 1301
разоча@@ 1301
братовче@@ 1300
дом@@ 1299
условие 1299
Яко@@ 1298
мун@@ 1298
синг 1298
Все@@ 1297
биография 1297
дружества 1297
своеобраз@@ 1297
1821 1296
170 1295
метода 1295
наказание 1295
норве@@ 1295
редак@@ 1295
тюр@@ 1295
Col@@ 1294
Отли@@ 1294
кул 1294
Плат@@ 1293
Пример 1293
рево 1293
снаряда 1293
Кама@@ 1292
фести@@ 1292
Лип@@ 1291
портрет 1291
практики 1291
Жер@@ 1290
виг 1290
завое@@ 1290
неиз@@ 1290
Йохан@@ 1289
лял 1289
наблюдате@@ 1289
толо@@ 1289
Леген@@ 1288
Франци@@ 1288
държан@@ 1288
способен 1288
Дат@@ 1287
заведения 1287
осе@@ 1287
Жор@@ 1286
сю@@ 1286
im@@ 1285
Джули@@ 1285
връз@@ 1285
чувство 1285
шотланд@@ 1285
Лондон@@ 1284
После 1284
почва 1284
br@@ 1283
Ов@@ 1283
Мно@@ 1282
негати@@ 1282
тюрк@@ 1282
АС@@ 1281
академик 1281
звукозапис@@ 1281
Скан@@ 1279
мая 1279
пенси@@ 1279
хори@@ 1279
Вилхе@@ 1278
1815 1277
ura 1277
In 1276
страции 1276
Опреде@@ 1275
бу 1275
джо@@ 1275
метеоро@@ 1275
царя 1275
Мя@@ 1274
фикси@@ 1274
цвета 1274
Бак@@ 1273
Рав@@ 1273
моз@@ 1273
ниц 1273
Sh@@ 1272
1831 1271
one 1271
мнения 1271
оранже@@ 1271
1812 1270
подразделения 1270
упа@@ 1270
Cal@@ 1269
изобра@@ 1269
Mon@@ 1268
Августа 1268
диапа@@ 1268
мега@@ 1268
чук 1268
Марина 1267
Форт 1267
жем 1267
28@@ 1266
Кази@@ 1266
мож@@ 1266
1835 1265
нойс 1265
сезо@@ 1265
цит@@ 1265
коали@@ 1264
бей@@ 1263
боже@@ 1263
взаимодействие 1263
индиви@@ 1263
лога 1263
ряд 1263
удовлетво@@ 1263
Валерий 1262
окси@@ 1262
осигу@@ 1262
сек 1262
1829 1261
My 1261
борн 1261
венството 1261
обикол@@ 1261
пите@@ 1261
Бене@@ 1260
вклю@@ 1260
законо@@ 1260
тест 1260
гвар@@ 1259
археоло@@ 1258
мач@@ 1258
таря 1258
ale 1257
da 1257
глаго@@ 1257
кю@@ 1257
мигра@@ 1257
Извест@@ 1256
политан@@ 1256
Киргиз@@ 1255
Фау@@ 1255
лодки 1255
чила 1255
240 1254
СО@@ 1254
ей@@ 1254
знания 1254
нинг 1252
регу@@ 1252
Обо@@ 1251
бак@@ 1251
насла@@ 1251
фект 1251
целу@@ 1251
оло 1250
Куин@@ 1249
гарнизон 1249
сал@@ 1249
строго 1249
am 1248
ДНК 1248
Образу@@ 1248
Пси@@ 1248
атия 1248
Стри@@ 1247
мем@@ 1247
прозра@@ 1247
равен 1247
разрушена 1247
eus 1246
езе@@ 1246
литера@@ 1246
ig@@ 1245
Педро 1245
Фернандо 1245
крепости 1245
тта 1245
фонсо 1245
хет@@ 1245
щер@@ 1245
Кара 1244
понятие 1244
инфра@@ 1243
лоя@@ 1243
огро@@ 1243
перка 1243
1855 1242
29@@ 1242
идеологи@@ 1242
ними 1242
Лите@@ 1241
враже@@ 1241
инфраструктура 1241
мину@@ 1241
My@@ 1240
АС 1240
Стен@@ 1240
лана 1240
ядро 1240
Сам@@ 1239
тили 1239
Колорадо 1238
Фра@@ 1238
горо@@ 1238
Карл@@ 1237
Мах@@ 1237
Сон@@ 1237
бара@@ 1237
кости 1237
менно 1237
употреб@@ 1237
фрак@@ 1237
храните@@ 1237
бло 1236
знамени@@ 1236
субтропи@@ 1236
127 1235
Рен@@ 1235
знаме@@ 1235
фаса@@ 1235
ирланд@@ 1234
адре@@ 1233
вай 1233
антрополо@@ 1232
стадиона 1232
статус 1232
Mar@@ 1231
Попо@@ 1231
фур@@ 1231
теку@@ 1230
Зай@@ 1229
Канди@@ 1229
Хру@@ 1229
необ@@ 1229
фило@@ 1229
Атлети@@ 1228
Разпростра@@ 1228
монаше@@ 1228
способности 1228
унд 1228
ma 1227
Рю@@ 1227
разно@@ 1227
събити@@ 1227
пожа@@ 1226
− 1226
1852 1225
лево 1225
предше@@ 1225
1845 1224
it 1224
ографи@@ 1224
посве@@ 1224
шов 1224
баб@@ 1223
вуд 1223
обвинения 1223
1828 1222
Съю@@ 1222
риана 1222
хали@@ 1221
Амстер@@ 1220
Ебер@@ 1220
Сури@@ 1220
коне@@ 1220
пит 1220
Ой@@ 1219
Стеф@@ 1219
ориенти@@ 1219
кве@@ 1218
мрамор@@ 1217
мюзи@@ 1217
Гръ@@ 1216
кабинет 1216
кум 1216
терито@@ 1216
ута 1216
ССР 1215
ит 1215
композиции 1215
минг 1215
матизи@@ 1214
репу@@ 1214
ког@@ 1213
обстре@@ 1213
писание 1213
стрем@@ 1213
отте@@ 1212
тив 1212
кинс 1211
показате@@ 1211
ректор 1211
Проти@@ 1210
Университе@@ 1210
еги@@ 1210
Африкан@@ 1209
Пере@@ 1209
вика@@ 1209
лаборатория 1209
pi@@ 1208
анге@@ 1208
ники 1208
противоречи@@ 1208
Гей@@ 1207
Пай@@ 1207
около@@ 1207
мало 1206
tu@@ 1205
Звез@@ 1205
Скор@@ 1205
борът 1205
пласти@@ 1205
1820 1204
Майк 1204
Фести@@ 1204
атов 1204
бир@@ 1204
площа@@ 1204
прак@@ 1204
различия 1204
der 1203
Цю@@ 1202
заседание 1202
надписи 1202
Загре@@ 1201
1837 1200
Гур@@ 1200
Джузе@@ 1200
Фан@@ 1200
писанието 1200
Закон 1199
гей@@ 1199
Адми@@ 1198
Архан@@ 1198
старта 1198
дание 1197
конкур@@ 1197
крите@@ 1197
рая 1197
Q@@ 1196
геометри@@ 1196
историко 1196
моди@@ 1195
НИ@@ 1194
гал@@ 1194
машин@@ 1194
сана 1194
1814 1193
Кристо@@ 1193
Желез@@ 1192
Клуб 1192
Поме@@ 1192
служил 1192
Операция 1191
общества 1191
ог@@ 1191
свето@@ 1191
сио 1191
счит@@ 1191
трудности 1191
Импе@@ 1190
лете 1190
форт 1190
1847 1189
STS 1189
Ака@@ 1189
Бог@@ 1189
дзи@@ 1189
настав@@ 1189
нима@@ 1188
проблема 1188
Чет@@ 1187
дама 1187
номера 1187
спеди@@ 1187
OS 1186
нея@@ 1185
1841 1184
od@@ 1184
Варшав@@ 1184
РП 1184
вход@@ 1184
предназначен 1183
трафи@@ 1183
шах 1183
152 1182
220 1182
ску 1182
изменения 1181
местообита@@ 1181
старт 1181
опъл@@ 1180
секун@@ 1180
исто@@ 1179
митрополи@@ 1178
появи@@ 1178
Коре@@ 1177
Револю@@ 1177
камъ@@ 1177
мут 1177
Архите@@ 1176
Вави@@ 1176
Калифорни@@ 1176
венециан@@ 1176
основание 1176
Еге@@ 1175
ходи@@ 1175
юби@@ 1175
te 1174
епископ@@ 1174
осно@@ 1174
програ@@ 1174
враг 1173
комите@@ 1173
​ 1173
Колум@@ 1172
похо@@ 1172
риск 1172
учения 1172
J 1171
par@@ 1171
Гот@@ 1171
Отде@@ 1171
Стади@@ 1171
цизма 1171
феода@@ 1170
ОО@@ 1169
Фило@@ 1169
мюсюл@@ 1169
рациона@@ 1169
ing@@ 1168
Челси 1168
физик 1168
ab@@ 1167
Клу@@ 1167
Осе@@ 1167
авиа@@ 1167
рог 1167
CD 1166
Библиоте@@ 1166
Монте 1166
Ще@@ 1166
гю@@ 1166
шанс 1166
International 1165
Марио 1165
бог@@ 1165
икона 1165
дум 1164
носец 1164
0,5 1163
tidae 1163
поря@@ 1163
осу@@ 1162
пил 1162
соции@@ 1162
увеличе@@ 1162
ченко 1162
ci@@ 1161
Каспи@@ 1161
Кларк 1161
Ок@@ 1161
как@@ 1161
произво@@ 1161
Берн@@ 1160
Перси@@ 1160
Том@@ 1160
движ@@ 1160
обмен 1160
потенциал 1160
1851 1159
Фак@@ 1159
Шей@@ 1159
хай 1159
Sc@@ 1158
ир 1158
робо@@ 1158
Праз@@ 1157
Авгу@@ 1156
Гран 1156
принуд@@ 1156
Y 1155
Широ@@ 1155
бюджет 1155
отмен@@ 1155
пиро@@ 1155
социа@@ 1155
дана 1154
сче@@ 1154
ув@@ 1154
шили 1154
1844 1153
Джейн 1153
Транспорт 1153
мити@@ 1153
оператор 1153
птември 1153
Z 1152
Участи@@ 1152
1846 1151
360 1151
губ@@ 1151
нидерланд@@ 1151
6000 1150
адво@@ 1150
сборника 1150
сбур@@ 1150
гит@@ 1149
мета 1149
провинци@@ 1149
Артур 1148
убийства 1148
лаг 1147
приори@@ 1147
Занима@@ 1146
чести 1146
Попу@@ 1145
пай@@ 1145
равнове@@ 1145
цари 1145
яние 1145
1836 1144
Доктор 1144
Ж 1144
Пь@@ 1144
гова 1144
гран@@ 1144
ждали 1144
опла@@ 1144
пласт@@ 1144
Дву@@ 1143
Лит@@ 1143
числения 1143
кали 1142
обит@@ 1142
рой 1142
астеро@@ 1141
креп@@ 1141
спас@@ 1141
Команд@@ 1140
анализа 1140
катего@@ 1140
пространства 1140
цен 1140
Комитета 1139
МО@@ 1139
Нил 1139
гну@@ 1139
факул@@ 1139
НР 1138
Патрик 1138
Юр@@ 1138
фактически 1138
Live 1136
US@@ 1136
цър@@ 1136
Нер@@ 1135
Бата@@ 1134
Грей@@ 1134
гло 1134
каса@@ 1134
онер@@ 1134
ця@@ 1134
De@@ 1133
Str@@ 1133
Вор@@ 1133
Узбекистан 1133
жието 1133
начина@@ 1133
оте@@ 1133
Вати@@ 1132
Вет@@ 1132
монархи@@ 1132
схе@@ 1131
туро@@ 1131
Тома@@ 1130
героя 1130
ларов 1130
Валентин 1128
максимум 1128
рополи@@ 1128
смет@@ 1128
цита@@ 1128
ДС 1127
постановки 1127
ber@@ 1126
механика 1126
серий@@ 1126
1400 1125
конструк@@ 1125
ьон@@ 1125
Ая@@ 1124
Чарли 1124
ганд@@ 1123
кно@@ 1123
ops 1122
ап@@ 1122
бизнеса 1122
дас 1122
прозви@@ 1122
1792 1121
2500 1121
арт 1121
наблю@@ 1121
чудови@@ 1121
готов 1120
размера 1120
Позна@@ 1119
публика@@ 1119
стихотво@@ 1119
Върхов@@ 1118
Сената 1118
Тур 1118
бои 1118
сив@@ 1118
Производ@@ 1117
Фир@@ 1117
компро@@ 1117
лим@@ 1117
деш 1116
пау@@ 1116
ями 1116
de@@ 1115
дистан@@ 1115
залож@@ 1115
патрио@@ 1115
писто@@ 1115
слов 1115
бий@@ 1114
океана 1114
Надежда 1113
площадка 1113
постройки 1113
снение 1113
туберку@@ 1113
Клю@@ 1112
Лор@@ 1112
лице@@ 1112
машино@@ 1111
рока 1111
скорост@@ 1111
ГДР 1110
лее 1110
орна@@ 1109
пож@@ 1109
репер@@ 1109
цет@@ 1109
11,@@ 1108
Ахмед 1108
СВ 1108
дили 1107
спонсо@@ 1107
mo@@ 1106
предска@@ 1106
сюжета 1106
мане 1105
омъ@@ 1105
4,5 1104
Tour 1104
Плу@@ 1104
берг@@ 1104
демонстра@@ 1104
програм@@ 1104
Br@@ 1103
Шпи@@ 1103
вели 1103
верси@@ 1103
страда@@ 1103
чай 1103
гарни@@ 1102
кона 1102
предате@@ 1102
Анастасия 1101
гей 1101
нера@@ 1101
Волга 1099
Жана 1099
архе@@ 1099
завеща@@ 1099
чино 1099
шу 1099
odon 1098
Бруно 1098
Мало@@ 1098
Рок@@ 1098
ад 1098
кафе 1098
ряд@@ 1098
Яков 1097
набе@@ 1097
Поч@@ 1096
национал 1096
представления 1096
тун@@ 1096
eri 1095
ra 1095
Аля@@ 1095
Бога 1095
Хайн@@ 1095
лорд 1095
снато 1095
могли 1094
монумента@@ 1094
музикан@@ 1094
сь@@ 1094
En@@ 1093
Алекс 1093
Рене 1093
Турк@@ 1093
етна@@ 1093
конфи@@ 1093
1839 1092
1843 1092
костю@@ 1092
лона 1092
Ави@@ 1091
поколения 1091
Мара@@ 1090
боя@@ 1090
календар@@ 1090
ходя@@ 1090
мак 1089
нус 1089
ово@@ 1089
пробле@@ 1089
шести 1089
ситуации 1088
тизма 1088
трам@@ 1088
Гранд 1087
коно@@ 1087
спла@@ 1087
учение 1087
Hy@@ 1086
per@@ 1086
носите@@ 1086
Обу@@ 1085
дисцип@@ 1085
Андре 1084
облада@@ 1083
фундамента@@ 1083
Иванова 1082
обсервато@@ 1082
25@@ 1081
Ex@@ 1081
Сва@@ 1081
психиат@@ 1081
106 1080
вера 1080
медици@@ 1080
СК 1079
жили 1079
ся 1079
Боле@@ 1078
видео@@ 1078
рона 1078
Камен@@ 1077
снима@@ 1077
Зан@@ 1076
КП@@ 1076
пун@@ 1076
зал 1075
миниат@@ 1075
атмосфер@@ 1074
бараб@@ 1074
оказа@@ 1074
фарма@@ 1074
акт@@ 1073
артист 1073
мово 1073
сценари@@ 1073
280 1072
Шве@@ 1071
проро@@ 1071
цилиндри@@ 1071
onidae 1070
Спар@@ 1070
ату 1070
опо@@ 1070
серви@@ 1070
Поло@@ 1069
Самар@@ 1069
Сор@@ 1069
минимум 1069
нака@@ 1069
неа@@ 1069
тексти@@ 1069
хин 1069
шила 1069
Чин@@ 1068
вос@@ 1068
заим@@ 1068
построе@@ 1067
псевдо@@ 1067
opus 1066
корен@@ 1066
боеприпа@@ 1065
поклон@@ 1065
равнин@@ 1065
сков@@ 1065
Награ@@ 1064
дола@@ 1064
шал 1064
One 1063
Сме@@ 1063
Фели@@ 1063
резиден@@ 1063
Освобо@@ 1062
м. 1062
партий@@ 1062
сман 1062
00@@ 1061
Джан@@ 1061
Музей 1061
майсто@@ 1061
шина 1061
гломе@@ 1060
завода 1060
прите@@ 1060
адрес 1059
баскетбо@@ 1059
вражде@@ 1059
завод@@ 1059
Феликс 1058
дето 1058
жити@@ 1058
Цер@@ 1057
кология 1057
Вли@@ 1056
автоном@@ 1056
поправ@@ 1056
1818 1055
Am@@ 1055
Кау@@ 1055
етро 1055
za 1054
Копен@@ 1054
Миро@@ 1054
атив@@ 1054
величина 1054
помещение 1054
чили 1054
жества 1053
1832 1052
Per@@ 1052
Бос@@ 1052
Стандар@@ 1052
Стив 1052
Ленинград 1051
Орден 1051
наличие 1051
освобождение 1051
покой@@ 1051
1838 1049
qu@@ 1049
зве@@ 1049
сезон@@ 1049
скре@@ 1049
12,@@ 1048
1834 1048
Евре@@ 1048
13,@@ 1047
зий 1047
талант 1047
vi@@ 1046
Дай@@ 1046
департамента 1046
резул@@ 1046
Рад@@ 1045
шахмат@@ 1045
шести@@ 1045
анто@@ 1044
мари@@ 1044
чате@@ 1044
Di@@ 1043
Ски@@ 1043
кий 1043
прекрат@@ 1043
формули@@ 1043
радиа@@ 1042
car@@ 1041
Как@@ 1041
лю 1041
тии 1041
трофе@@ 1041
1.@@ 1040
дента 1040
стал 1040
тинген 1040
богосло@@ 1039
ила 1039
каните 1039
.com 1038
Qu@@ 1038
ch 1038
ov@@ 1038
Браун@@ 1038
Тал@@ 1038
вед 1038
пира@@ 1038
схо@@ 1038
135 1037
750 1037
ep@@ 1037
безо@@ 1037
мбу@@ 1037
полуострова 1037
1810 1036
Вюр@@ 1036
бивши@@ 1036
института 1036
манипу@@ 1036
справедливо@@ 1036
анато@@ 1035
мона 1034
сив 1034
стор@@ 1034
Дж 1033
патру@@ 1033
34,@@ 1032
Еванге@@ 1032
Юн@@ 1032
пано@@ 1032
столи@@ 1032
определение 1031
оче@@ 1031
ресур@@ 1031
шек 1031
1793 1030
Настоя@@ 1030
дубли@@ 1030
рим 1030
футбола 1030
дки 1029
члена 1029
янов 1029
108 1028
вести@@ 1028
публики 1028
Леонар@@ 1027
отло@@ 1027
Таджи@@ 1026
гени@@ 1026
мид 1026
ова@@ 1026
пара 1026
1842 1025
w 1025
жила 1025
кала 1025
квали@@ 1024
модифици@@ 1024
положения 1024
камер@@ 1023
оре 1023
ula 1022
ВП 1022
Пуш@@ 1021
Тимо@@ 1021
маршрут 1021
фюр@@ 1021
Смир@@ 1020
вей 1020
дея 1020
подробно 1020
прони@@ 1020
Характеристи@@ 1019
Sp@@ 1018
архиманд@@ 1018
благодар@@ 1017
зате@@ 1017
индуст@@ 1017
нила 1017
поези@@ 1017
si@@ 1016
Боб 1016
Клин@@ 1016
Норман@@ 1016
Сера@@ 1016
дник 1016
гимнасти@@ 1015
статисти@@ 1015
ционе@@ 1015
1825 1014
кампании 1013
предлага@@ 1013
сали@@ 1013
1100 1012
вземан@@ 1012
едино@@ 1012
мба 1012
спект 1012
яния 1012
All 1011
didae 1011
ax 1010
per 1010
Порт 1010
впечатление 1010
кош@@ 1010
лайн 1010
1822 1009
pr@@ 1009
Хара@@ 1009
кономиче@@ 1009
н. 1009
резултат@@ 1009
св@@ 1009
характерно 1009
Ph@@ 1008
con@@ 1008
Ди 1008
среди@@ 1008
190 1007
кой@@ 1007
конден@@ 1007
случи@@ 1007
францу@@ 1007
Шер@@ 1006
дун 1006
изобретате@@ 1006
педагог 1006
финансов 1006
флаг 1006
Life 1005
автобиографи@@ 1005
навига@@ 1005
регистра@@ 1005
1813 1004
други@@ 1004
описан 1004
Ли 1003
отделения 1003
провин@@ 1003
eg@@ 1002
неприя@@ 1002
показатели 1002
прокура@@ 1002
пропове@@ 1002
шахмати@@ 1002
It 1001
апо@@ 1001
103 1000
Дипло@@ 1000
Католиче@@ 1000
Сино@@ 1000
Яро@@ 1000
одрин@@ 1000
материал@@ 999
320 998
Клау@@ 998
Погре@@ 998
Соб@@ 998
ation 997
Богда@@ 997
Неа@@ 997
ad 996
Реда@@ 996
se 995
бр 995
пера 995
80@@ 994
АК 994
Крон@@ 994
гради 994
жин@@ 994
отдела 994
алгори@@ 993
10,@@ 992
Пя@@ 992
Стат@@ 992
вои@@ 992
дало 992
аналоги@@ 991
вез@@ 991
ношение 991
Кун@@ 990
мотор@@ 990
наби@@ 990
Group 988
Граф 988
Доро@@ 988
Маргарет 988
Медицин@@ 988
Хиро@@ 988
голове 988
104 987
que 987
затруд@@ 987
Mus@@ 986
работник 986
Прак@@ 985
Принци@@ 985
жия 985
фикации 985
Дома@@ 984
Рон@@ 984
Сухо@@ 984
сат@@ 984
Секре@@ 983
вас 983
ная 983
us@@ 982
Вита@@ 982
зрение 982
примити@@ 982
стон 982
V. 981
Франси@@ 981
ниста 981
комик@@ 980
звука 979
зя 979
Billboard 978
заги@@ 978
очевидно 978
Академия 977
Робер@@ 977
Хали@@ 977
гава 977
припис@@ 977
скоп@@ 977
направления 976
степени 976
тетра@@ 976
Les 975
Аг@@ 975
пусне 975
ate 974
Институт 974
Сем@@ 974
внезапно 974
рот 974
сток 974
j 973
Урал 973
вик 973
гда@@ 973
дворцо@@ 973
нио 973
сюл@@ 973
1789 972
ni@@ 972
ve 972
саунд@@ 972
стието 972
ститу@@ 972
толе@@ 972
Бернар@@ 971
блестя@@ 971
мали 971
махта 971
стери@@ 971
учението 971
Мали@@ 970
зян 970
1795 969
кнове@@ 969
норвеж@@ 969
чно@@ 969
orum 968
v 968
предложения 968
109 967
Black 967
ens 967
дли 967
направил 967
рила 967
35,@@ 966
Can@@ 966
семит@@ 966
трак@@ 966
ждал 965
строена 965
търсен@@ 965
язвим 965
1803 964
лоша@@ 964
нили 964
обяс@@ 964
флаг@@ 964
имение 963
лера 963
обвиня@@ 963
Гера@@ 962
Комплек@@ 962
Осно@@ 962
веща@@ 962
нарушения 962
los@@ 961
комитета 961
tus 960
заведение 960
ствола 960
128 959
Румъ@@ 959
нем 959
скрип@@ 959
чуждестран@@ 959
1797 958
º 958
лоу 958
чев@@ 958
шир 958
ьой 958
Ии@@ 957
Люд@@ 957
Торонто 957
филосо@@ 957
НК 956
конферен@@ 956
привър@@ 956
спекти@@ 956
Se@@ 955
джия 955
кала@@ 955
пропорциона@@ 955
църк@@ 955
ca 954
Участник 954
греб@@ 954
дене@@ 954
мец 954
увеличение 954
Рона@@ 953
даря 953
риз@@ 953
хина 953
230 952
Орле@@ 952
Структура 952
предприя@@ 952
SS 951
Ибра@@ 951
кандид@@ 951
транспорта 951
1790 950
era 950
oth@@ 950
tic@@ 950
вален@@ 950
инжен@@ 949
рами@@ 949
si 947
ha 946
Нат@@ 946
авиацион@@ 946
кода 946
лири@@ 946
плаз@@ 946
зака@@ 945
юрис@@ 945
lu@@ 944
литур@@ 944
онов 944
преду@@ 944
пур 944
регла@@ 944
чал 944
впа@@ 943
москов@@ 942
1819 941
лекси@@ 941
родом 941
руд@@ 941
спери@@ 941
Люб@@ 939
ПК 939
107 938
yc@@ 938
Корпу@@ 938
англо@@ 938
дуар@@ 938
Rock 937
глю@@ 937
друго@@ 937
обору@@ 937
ον 936
имен@@ 936
обще 936
14,@@ 935
Вид 935
Константино@@ 935
кине@@ 935
участъ@@ 935
Моно@@ 934
жден 934
параз@@ 934
1833 933
ach@@ 933
Император@@ 933
вариа@@ 933
Хин@@ 932
поче@@ 932
1,2 931
1805 931
Бара@@ 931
Боро@@ 931
каби@@ 931
Соло@@ 930
руб@@ 930
int 929
Бенеди@@ 929
Мемо@@ 929
кистан 929
построено 929
анг@@ 928
дано 928
дино 928
позити@@ 928
пъти@@ 928
Un@@ 927
Бун@@ 927
Жа@@ 927
диск@@ 927
мезо@@ 927
ске 927
ie 926
ter 926
Анато@@ 926
Бет@@ 926
имуще@@ 926
продукции 926
укрепления 926
хоре@@ 926
абстрак@@ 925
лодка 925
орто@@ 925
Wrestling 924
age 924
Дур@@ 924
Яку@@ 924
док 924
305 923
Сели@@ 923
канди@@ 923
проведена 922
термина@@ 922
паро@@ 921
строен@@ 921
II@@ 920
Чай@@ 920
веще@@ 920
пр@@ 920
ii 919
дай@@ 919
звуко@@ 919
Java 918
Mo@@ 918
Играл 918
Саксо@@ 918
верто@@ 918
лод@@ 918
прогно@@ 918
цова 918
oma 917
Хат@@ 917
гражда@@ 917
сети 917
уру 917
36@@ 916
або@@ 915
гала 915
монта@@ 915
нар. 915
науча@@ 915
работка 915
религии 915
ринга 915
ская 915
1808 914
компонент 914
стали 914
210 913
Роди@@ 913
варианта 913
венство 913
доста@@ 913
методи@@ 913
пнев@@ 913
gr@@ 912
Te@@ 911
122 910
Бло@@ 910
зархи@@ 910
служеб@@ 910
ine 909
1816 908
ожесто@@ 908
сест@@ 908
1799 907
Патриар@@ 907
Лука@@ 906
гун 906
нера 906
Комите@@ 905
композитора 905
лане 905
понятия 905
правед@@ 905
рез 905
pe@@ 904
вокали@@ 904
стат@@ 904
1750 902
гра 902
перифе@@ 902
Филип@@ 901
диска 901
ком 901
пород@@ 901
40@@ 900
Ква@@ 900
1796 899
Лод@@ 899
получили 899
стя@@ 899
Po@@ 898
Закон@@ 898
СС@@ 898
ак 898
1817 897
Ne@@ 897
отказа@@ 897
патро@@ 897
покло@@ 897
34@@ 896
ore 896
аранжи@@ 896
губерния 895
зап@@ 895
запас 895
Ага@@ 894
Ази@@ 894
уи 894
tis 892
конструкции 892
синг@@ 892
спешно 892
приве@@ 891
Куз@@ 890
Моги@@ 890
Постоян@@ 890
115 889
нарушение 888
1826 887
Скоро@@ 887
заяв@@ 887
сприн@@ 887
кономи@@ 886
сол@@ 886
флек@@ 886
EP 885
bo@@ 885
алге@@ 885
върх@@ 885
Аз@@ 884
лато 884
бара 883
нъж 883
свин@@ 883
фина 883
щу@@ 883
1801 882
Q 882
Люби@@ 882
непри@@ 882
отча@@ 882
Apple 881
so@@ 881
библиотеки 881
венти@@ 881
колеп@@ 881
пуска@@ 881
1807 880
och@@ 880
рах 880
ers 879
Брен@@ 879
РК 879
назначение 879
сур@@ 879
щие 879
2.@@ 878
Бое@@ 878
Пие@@ 878
Шах@@ 878
рецен@@ 878
Or@@ 877
Вя@@ 877
вит 877
лаборато@@ 877
убед@@ 877
eb@@ 876
англ 876
заключ@@ 876
Православ@@ 875
работо@@ 875
ne@@ 874
Пото@@ 874
Пробле@@ 874
полуфинал 874
сирий@@ 874
35@@ 873
Кап@@ 873
звания 873
насеком@@ 873
слова@@ 873
султана 873
твер@@ 873
Кве@@ 872
Чан@@ 872
Турни@@ 871
нане@@ 871
проб@@ 871
AS@@ 870
um@@ 870
Църк@@ 870
Шам@@ 870
характера 870
260 869
tra 869
ентъ@@ 869
климата 869
рован@@ 869
Гуан@@ 868
Мун@@ 868
хам 868
стройка 867
550 866
Entertainment 866
Книга 866
системати@@ 866
1635 865
Gr@@ 865
Я 865
баси@@ 865
фун@@ 865
чек 865
яро@@ 865
Алта@@ 864
р. 864
1648 863
650 863
ni 863
Воро@@ 863
Петер@@ 863
сценария 863
цев@@ 862
цк 862
драматур@@ 861
новременно 861
разреша@@ 861
Соко@@ 860
Тури@@ 860
направи@@ 860
1804 859
Родри@@ 859
ору@@ 859
учителя 859
ut@@ 858
назем@@ 858
подразделение 858
рое 858
ура@@ 858
ях 858
126 857
блока@@ 857
гуа 857
кля@@ 857
минима@@ 857
ans 856
omys 856
паке@@ 856
und 855
Зу@@ 855
гъла 855
куку@@ 855
Денис 854
бс 854
рент@@ 854
1794 853
кури@@ 853
270 852
новение 852
Cyprin@@ 851
yr@@ 851
физ@@ 851
ent@@ 850
io 850
МиГ 850
Плани@@ 850
командира 850
ското@@ 850
Яр@@ 849
фабрики 849
ei 848
Бед@@ 848
Вера 848
удостоена 848
кардина@@ 847
курса 847
330 846
380 846
Благове@@ 846
ведом@@ 846
дизе@@ 846
ator 845
Лев 845
бес@@ 845
графо@@ 845
ото@@ 845
пада@@ 845
Pr@@ 844
ka 844
излож@@ 844
раста@@ 844
1791 843
sp@@ 843
Пове@@ 843
иначе 843
цвет 843
123 842
cus 842
Виз@@ 842
квалифици@@ 842
стеро@@ 842
yl@@ 841
абсолютно 841
gi@@ 840
Дуна@@ 840
клон@@ 840
блей@@ 839
риф@@ 839
слави@@ 839
ver@@ 838
ксе@@ 838
Мона@@ 837
бок@@ 837
бус 837
плоско@@ 837
разу@@ 837
раке@@ 837
111 836
ati@@ 836
Арханге@@ 836
Литератур@@ 836
риса 836
тение 836
Le 835
Татар@@ 835
кви@@ 835
натура@@ 835
танк 835
mar@@ 834
Мир 834
брата 834
фу 834
1772 833
детекти@@ 833
макро@@ 833
пару@@ 833
поражения 833
хова 833
Администра@@ 832
азбу@@ 832
имущество 832
предо@@ 831
щу 831
Име@@ 830
1824 829
33@@ 829
à 829
емигри@@ 829
стой 829
16@@ 828
uli@@ 828
Вся@@ 828
СА@@ 828
Университет 828
чества 828
1680 827
Цу@@ 827
раса 827
WWF 826
Оцен@@ 826
ате 826
бка 826
1576 825
1798 825
Дро@@ 825
Tro@@ 824
гай@@ 824
кевич 824
унд@@ 824
15@@ 823
аудито@@ 823
блъ@@ 823
корпу@@ 823
кун@@ 823
мура 823
юни@@ 823
.-@@ 822
1634 822
1660 822
De 822
Micro@@ 822
Нов@@ 822
зания 822
отказ 822
1827 821
буд@@ 821
10.@@ 820
av@@ 820
Фай@@ 820
Ход@@ 820
материа@@ 820
множе@@ 820
станови@@ 820
уточ@@ 820
цина 820
1823 819
As@@ 819
XXI 819
Щер@@ 819
дет 819
целя@@ 819
112 818
Жанейро 818
зага@@ 818
зун@@ 818
уса 818
Ино@@ 817
Усп@@ 817
кипа@@ 817
ют 817
15,@@ 816
1640 816
авари@@ 816
Pro@@ 815
1688 814
Кън@@ 814
ист 814
строен 814
No 813
Проте@@ 813
дела@@ 813
мотив 813
1570 812
203 812
37@@ 812
Джер@@ 812
Худо@@ 812
ini 811
ест 811
175 810
боро@@ 810
ционер@@ 810
1780 809
Сици@@ 809
герб 809
закреп@@ 809
шот@@ 809
3D 808
Доне@@ 808
монго@@ 808
8000 807
Оси@@ 807
Патри@@ 807
1530 806
Ser@@ 806
спир@@ 806
CO@@ 805
Арка@@ 805
Сво@@ 805
добровол@@ 805
недвижи@@ 805
сочи@@ 805
челю@@ 805
oides 804
Монре@@ 804
Company 803
Сбор@@ 803
дискри@@ 803
логии 803
Tri@@ 802
1606 801
жете 801
ons 800
подоби@@ 800
теля 800
50@@ 799
дизайна 799
пала 799
Каби@@ 798
влияния 798
дере@@ 798
несота 798
чет 798
124 797
1763 797
наход@@ 797
нидер@@ 797
Go@@ 796
Тихоокеан@@ 796
бери 796
цито@@ 796
1676 795
1802 795
ani 795
no 795
Коз@@ 795
лакти@@ 795
7,5 794
ides 794
окла@@ 794
AC 793
mon@@ 793
РО 793
матът 793
нести 793
сюжет 793
1809 792
do 792
Абу 792
скопи@@ 792
aria 791
aur@@ 791
Франко 791
албу@@ 791
структур@@ 791
хромо@@ 791
22@@ 790
няк 790
разуме@@ 790
риат 790
12.@@ 789
СО 789
конфлик@@ 789
лектри@@ 789
словно 789
ne 788
шер@@ 788
114 787
Знач@@ 787
арми@@ 787
Чудо@@ 786
вян@@ 786
лабора@@ 786
соб@@ 786
Sol@@ 785
военноплен@@ 785
лков 785
117 784
17,@@ 784
em 784
1650 783
tor@@ 783
реконструи@@ 783
яваща 783
1623 782
osa 782
грав@@ 782
кисе@@ 782
указа@@ 782
Развитие 781
зв@@ 781
интен@@ 781
модели@@ 781
флоти@@ 781
Cl@@ 780
com@@ 780
oni 779
Аф@@ 779
антро@@ 779
кта 779
1618 778
КО@@ 778
мад 778
ству@@ 778
фору@@ 778
Война 777
измене@@ 777
македо@@ 777
мероприятия 777
модификации 777
Михай@@ 776
соз@@ 776
лович 775
пави@@ 775
понен@@ 775
хле@@ 775
чат@@ 775
vir@@ 774
Ита@@ 774
Цин@@ 774
баскет@@ 774
1740 773
Li@@ 773
КА 773
рино 773
→ 773
School 772
Vi@@ 772
ich@@ 772
РС@@ 772
зов@@ 772
мага@@ 772
пох@@ 772
mag@@ 771
Категория 771
хирурги@@ 771
цифро@@ 771
ps 770
Албу@@ 770
Герман 770
Партия 770
1787 769
1770 768
38@@ 768
RA@@ 768
Ro@@ 768
ho@@ 768
ава@@ 768
коме@@ 768
зена 767
WTA 766
лям 766
неж@@ 766
Time 765
Тара@@ 765
бря@@ 765
мора 765
Com@@ 764
ai 764
phus 764
Порт@@ 764
жило 764
наимено@@ 764
Конструкция 763
Средновекови@@ 763
дзе 762
персонаж 762
татар@@ 762
Lo@@ 761
Леонид 761
подразде@@ 761
конференции 760
туризма 760
1610 759
ius 759
Виш@@ 759
док@@ 759
Ge@@ 758
Ту 758
барон 758
сьор 758
1625 757
Pi@@ 757
Люксем@@ 757
придвор@@ 757
филд 757
Сент 756
проло@@ 756
1632 755
1774 755
cin@@ 755
Квин@@ 755
МИ@@ 755
порти@@ 755
ј@@ 755
1768 754
yn@@ 754
символизи@@ 754
щал 754
щате@@ 754
MS 753
Австра@@ 753
герои@@ 753
дта 753
капа@@ 753
соли 753
шед@@ 753
16,@@ 752
El@@ 751
No@@ 751
Млад@@ 751
експлоата@@ 751
потока 751
рили 751
Ч 750
ада@@ 750
воз@@ 750
нена@@ 749
явно 749
7000 748
Фернан@@ 748
дера 748
каде@@ 748
пр.н@@ 748
Калу@@ 747
разработки 747
ский 747
слово 747
1560 746
Be@@ 746
all@@ 746
Глу@@ 746
вме@@ 746
г.@@ 746
нужно 746
СТ@@ 745
вице 745
забо@@ 745
заседа@@ 745
пише@@ 745
inc@@ 744
man 744
1776 743
Архе@@ 743
Лове@@ 743
секции 743
винов@@ 742
гля@@ 742
лесо@@ 742
пие 742
Око@@ 741
дара 741
1775 740
1811 740
Fr@@ 740
критики 740
надеж@@ 740
рь@@ 740
спер@@ 740
25,@@ 739
480 739
alus 739
cor@@ 739
del 739
Леон@@ 739
ждан@@ 739
кварти@@ 739
1616 738
€ 738
For@@ 737
Азиат@@ 737
бай 737
дя 737
ина 737
кологи@@ 737
Илин@@ 736
преимуще@@ 736
стояние 736
Отец 735
стере@@ 735
форм@@ 735
Empire 734
пор 734
язви@@ 734
ярко 734
1630 733
Каре@@ 733
глад@@ 733
площад@@ 733
Соф@@ 732
Сур@@ 732
жу 732
лито@@ 732
мара@@ 732
à@@ 731
казах@@ 731
Пазар@@ 730
казал 730
кав@@ 729
Ag@@ 728
ell@@ 728
un 728
Й 728
велосипе@@ 728
врага 728
1701 727
ИК 727
Петрович 727
низа@@ 727
шеб@@ 727
Ря@@ 726
нете 726
ваго@@ 725
покуп@@ 725
удосто@@ 725
фик@@ 725
SO@@ 724
UN@@ 724
город 724
дз@@ 724
зора 724
American 723
кет@@ 723
майстор@@ 723
с. 723
121 722
1598 722
1788 722
osus 722
алгорит@@ 722
лечеб@@ 722
банк 721
шал@@ 721
1627 720
1683 719
IBM 719
писания 718
удара 718
щината 718
NO@@ 717
Tur@@ 717
ref 717
Препода@@ 717
Уру@@ 717
водохрани@@ 717
кур 717
повтор@@ 717
1651 716
rom@@ 716
Гаври@@ 716
Законодате@@ 716
ПО 716
фамилии 716
1540 715
Бах@@ 715
РНК 715
порт@@ 715
разо@@ 715
цикло@@ 715
ari@@ 714
Елиза@@ 714
мпе@@ 714
sus 713
Зар@@ 713
изменение 713
Дит@@ 712
вмест@@ 712
por@@ 711
Леона@@ 711
комендан@@ 710
никова 710
характеристи@@ 710
шенко 710
lar@@ 709
Времен@@ 709
Институ@@ 709
Рат@@ 709
заба@@ 709
облож@@ 709
тони 709
СК@@ 708
оно@@ 708
1667 707
XX@@ 707
Мекси@@ 707
балти@@ 707
метро 707
118 706
1450 706
1567 706
Hot 706
неш@@ 706
ISO 705
sch@@ 705
ath@@ 704
город@@ 704
избира@@ 704
кла 704
ответ@@ 704
сад@@ 704
сина@@ 704
1638 703
Eth@@ 703
ent 703
Комп@@ 703
допу@@ 703
достиг 703
1704 702
Mark 702
Брази@@ 702
Яна 702
зоо@@ 702
нормати@@ 702
чии 702
Of 701
Как 701
агро@@ 701
фора 701
хват@@ 701
5,5 700
Дем@@ 700
ist@@ 699
вое 699
женит@@ 699
привет@@ 699
тряб@@ 699
me 698
аре 698
ибн 698
присво@@ 698
1550 697
du@@ 697
Иг@@ 697
ежегод@@ 697
1622 696
SI 696
АН@@ 696
атом 696
сцена@@ 696
1605 695
вията 695
топли@@ 695
шева 695
1526 694
1631 694
1665 694
ce 694
ou@@ 694
tes 694
гона 694
рации 694
129 693
155 693
Disney 693
MHz 693
втор@@ 693
въгли@@ 693
ландшаф@@ 693
маро@@ 693
офице@@ 693
финиши@@ 693
шат@@ 693
IM@@ 692
ренно 692
цате@@ 692
1585 691
1619 690
tri@@ 690
неното 690
вес@@ 689
достовер@@ 689
н.@@ 689
1783 688
19,@@ 688
Network 688
are 688
Герой 688
Неф@@ 688
але 688
енко 688
надле@@ 687
русали@@ 687
1636 686
col@@ 686
é 686
Ет@@ 686
Шарло@@ 686
вещи 686
дром 686
FI@@ 685
Севасто@@ 685
рун 685
ic 684
Павлович 684
пина 684
ропо@@ 684
1568 683
Анг@@ 683
лицензи@@ 683
лси 683
луч@@ 683
свръ@@ 683
стани@@ 683
nig@@ 682
Афа@@ 682
Кав@@ 682
1620 681
1668 681
IN@@ 681
do@@ 681
Су 681
заменя@@ 681
мь@@ 681
1711 680
АП 680
1666 679
du 679
ion 679
атлети@@ 679
плението 679
1785 678
Михайлов@@ 678
бере@@ 678
войско@@ 678
градо@@ 678
графии 678
джик 678
кантон 678
мам 678
рово@@ 678
1559 677
ran@@ 677
Саха@@ 677
зачислен 677
старин@@ 677
1569 676
1621 676
1661 676
Cich@@ 676
odon@@ 676
грар@@ 676
них 676
IP 675
ara 675
sh@@ 675
жим 675
пу 675
сну@@ 675
спорт@@ 675
1612 674
1670 674
yg@@ 674
0.@@ 673
1595 673
Linux 673
ola 673
дюй@@ 673
зара@@ 673
преки 673
Олег 672
образо@@ 672
фео@@ 672
1250 671
Acro@@ 671
Mal@@ 671
бомбардиров@@ 671
герба 671
mac@@ 670
базо@@ 670
убил 670
1547 669
18,@@ 669
AR@@ 669
se@@ 669
Ленинград@@ 669
лауреат 669
39@@ 668
Sch@@ 668
cop@@ 668
ity 668
ys@@ 668
Южно 668
лам 668
лън@@ 668
1536 667
1715 667
20,@@ 667
Ap@@ 667
Иванов@@ 667
Обра@@ 667
листо@@ 667
1,6 666
1572 666
6,5 666
Ca@@ 666
Man 666
α 666
Минск 666
ПВО 666
дъщер@@ 666
яйце@@ 666
′ 666
Bi@@ 665
Fe@@ 665
man@@ 665
re 665
вир@@ 665
яну@@ 665
1626 664
1686 664
Сталин@@ 664
пра 664
1675 663
1784 663
Право@@ 663
1769 662
On 662
ya 662
è@@ 662
Генера@@ 662
организ@@ 662
пява 662
щена 661
1590 660
340 660
pra@@ 660
Хит@@ 660
гита@@ 660
дзу@@ 660
Bur@@ 659
бита@@ 659
165 658
сигна@@ 658
116 657
Cer@@ 657
Баку 657
1521 656
1699 656
проводи@@ 656
Times 655
Лав@@ 655
батальона 655
сена@@ 655
1492 654
Die 654
co 654
cu@@ 654
епископа 654
au@@ 653
} 653
£ 653
разкоп@@ 653
типо@@ 653
Ad@@ 652
ulus 652
ЮАР 652
голо@@ 652
оба 652
пович 652
1538 651
1637 651
1722 651
Ver@@ 651
ite 651
te@@ 651
газ@@ 651
Mor@@ 650
PC 650
Чере@@ 650
инвали@@ 650
кио 650
музи@@ 650
предвод@@ 650
sit@@ 649
Военно 649
ловина 649
1,3 648
DJ 648
Като@@ 648
Таш@@ 648
арки 648
бул@@ 648
ние@@ 648
цей 647
1480 646
1577 646
1664 646
ef@@ 646
ino 646
КБ 646
зу 646
At@@ 645
перспек@@ 645
танков 645
1580 643
m2 643
дт 643
спектак@@ 643
1757 642
жур@@ 642
социация 642
1690 641
Гин@@ 641
кома 641
риал 641
133 640
145 640
1603 640
1744 640
1762 640
евна 640
обмен@@ 640
1607 639
1689 639
кая 639
1649 638
To 638
Your 638
Me@@ 637
гам@@ 637
лондон@@ 637
and@@ 636
Ка 636
Президент 636
импе@@ 636
1453 635
1643 635
1767 635
Bel@@ 635
MP@@ 635
Лат@@ 635
написал 635
1778 634
1633 633
1743 633
27,@@ 633
aris 633
ena 633
Ab@@ 632
tica 632
Побе@@ 632
разногла@@ 632
сило@@ 632
1673 631
1786 631
Португа@@ 631
лейбу@@ 631
ma@@ 630
uridae 630
Дис@@ 630
1586 629
1659 629
MTV 629
ala 629
chem 629
for@@ 629
ita 629
Воло@@ 629
406 628
азербайджан@@ 628
извле@@ 628
1702 627
To@@ 627
ous 627
Нови@@ 627
питан@@ 627
1737 626
1766 625
225 625
can@@ 625
Камчат@@ 625
Развити@@ 625
1,8 624
1663 624
1707 624
be@@ 624
Крас@@ 624
стара@@ 624
1535 623
28,@@ 623
45@@ 623
60@@ 623
Лоу@@ 623
капаците@@ 623
огъ@@ 623
1503 622
1672 622
Тбилиси 622
бик 622
об 622
сад 622
144 621
1735 621
Hel@@ 621
Ι@@ 621
окра@@ 621
1712 620
династи@@ 620
имено@@ 620
увен@@ 620
113 619
1563 619
1604 619
1748 619
NXT 619
atidae 619
il 619
годи@@ 619
лост@@ 619
1328 618
lan@@ 618
yi 618
КПСС 618
получила 618
1760 617
24,@@ 617
pl@@ 617
public 617
кого 617
11.@@ 616
1656 616
1728 616
ВМ@@ 616
долф 616
1. 615
1644 615
199 615
АН 615
ВМФ 615
компен@@ 615
литет 615
оборо@@ 615
1541 614
зем 614
1589 613
1596 613
аф@@ 613
фотографи@@ 613
юк 613
1771 612
близо@@ 612
обращение 612
1724 611
Do@@ 611
ex 611
ida 611
АР 611
гиз@@ 611
1575 610
1652 610
Warner 610
ек 610
1781 609
лизации 609
проходи@@ 609
1519 608
млн 608
проли@@ 608
1370 607
1756 607
дъх@@ 607
нрав@@ 607
отлича@@ 607
1444 606
1777 606
3.@@ 606
`@@ 606
yp@@ 606
опор@@ 606
1573 605
1653 605
1720 605
1773 605
la@@ 605
name 605
ser@@ 605
Населе@@ 605
1721 604
ant@@ 604
нев@@ 604
строения 604
Mac@@ 603
Демо@@ 603
Моло@@ 603
адми@@ 603
курфюр@@ 603
отрасли 603
1746 602
материала 602
1260 601
1584 601
1641 601
1658 601
Air 601
ok@@ 601
sc@@ 601
лидер@@ 601
търго@@ 600
швили 600
168 599
ang@@ 599
by 599
ili@@ 599
соно@@ 599
1270 598
1290 598
1739 598
System 598
Ο@@ 598
Наполе@@ 598
1520 597
1592 597
IS@@ 597
1741 596
индекс 596
политики 596
самостоя@@ 596
теран@@ 596
1190 595
1525 595
1726 595
ay 595
est 595
Жур@@ 595
Начало 595
1601 594
1692 594
á@@ 594
гастро@@ 594
квартира 594
получи@@ 594
1642 593
26,@@ 593
hi@@ 593
Кавказ@@ 593
НБА 593
купи@@ 593
основания 593
пострада@@ 593
1558 592
420 592
Er@@ 592
š@@ 592
Абра@@ 592
Гоме@@ 592
Президиума 592
Ричар@@ 592
кове@@ 592
сла 592
стойчи@@ 592
55@@ 591
atr@@ 591
hin@@ 591
Бере@@ 591
Еже@@ 591
възгла@@ 591
разме@@ 591
1782 590
Club 590
illa 590
ā@@ 590
болез@@ 590
глоба@@ 590
зви@@ 590
описания 590
ское 590
скорости 590
1678 589
1729 589
1738 589
фта 589
хотели 589
ядра 589
1420 588
1566 588
MA 588
годно 588
1,4 587
Bl@@ 587
ДР 587
лидера 587
сч@@ 587
1578 586
1709 586
end@@ 586
Швей@@ 586
метрополи@@ 586
слан 586
with 585
оттен@@ 585
тно@@ 585
хър@@ 585
ь 585
1308 584
1554 584
1745 584
li 584
взо@@ 584
даго@@ 583
кратер 583
рович 582
1347 581
1350 581
1655 581
208 581
BBC 581
Dis@@ 581
ba@@ 581
ceph@@ 581
eph@@ 581
Иванович 581
фигур@@ 581
1340 580
1611 580
1629 580
1708 580
AT@@ 580
Corporation 580
богослу@@ 580
1614 579
1706 579
850 579
ГБ 579
Среднове@@ 579
ците@@ 579
1608 578
1639 578
Em@@ 578
Her@@ 578
High 578
Фрей@@ 578
директора 578
помест@@ 578
1548 577
1571 577
1593 577
Night 577
Pe@@ 577
Δ@@ 577
гау@@ 577
1371 576
1730 576
CA@@ 576
\ 576
ведение 576
гена 576
про 576
1562 575
1685 575
Баш@@ 575
1669 574
1733 574
1764 574
вше@@ 574
справед@@ 574
чеб@@ 574
палат@@ 573
1557 572
El 572
Grec@@ 572
Pol@@ 572
Star 572
Up 572
Жан@@ 572
Шот@@ 572
молекуляр@@ 572
ряда 572
Hydro@@ 571
Open 571
Добру@@ 571
Кост@@ 571
СМ 571
значения 571
134 570
1415 570
1508 570
1582 570
1682 570
1714 570
1723 570
new 570
деяте@@ 570
1522 569
HTML 569
Is 569
тура@@ 569
1662 568
IC@@ 568
fr@@ 568
iidae 568
ts 568
Геор@@ 568
Ура@@ 568
ню 568
пес@@ 568
тики 568
1380 567
Best 567
Mag@@ 567
SP@@ 567
cap@@ 567
graphique 567
lin@@ 567
мала 567
1597 566
Ottoman 566
Statisti@@ 566
АЗ 566
запада 566
именова@@ 566
132 565
года 565
1617 564
1657 564
крепо@@ 564
ровна 564
установи@@ 564
фестива@@ 564
фонда 564
1671 563
1679 563
1681 563
cr@@ 563
su@@ 563
Пес@@ 563
кинемато@@ 563
лор@@ 563
пропаган@@ 563
столетия 563
формирования 563
138 562
1615 562
1705 562
1765 562
185 562
Ниж@@ 562
гови@@ 562
дав@@ 562
дила 562
непрекъ@@ 562
ревизи@@ 562
1204 561
1440 561
1574 561
1628 561
Awards 561
alb@@ 561
ex@@ 561
Луч@@ 561
Флорен@@ 561
желе@@ 561
205 560
48@@ 560
DC 560
kW 560
.е. 559
1579 559
1599 559
University 559
end 559
Демография 559
чер 559
1710 558
Fox 558
Red 558
ak@@ 558
iz@@ 558
Олимпиа@@ 558
шей@@ 558
1304 557
ev@@ 557
АП@@ 557
вени@@ 557
доров@@ 557
йнт 557
кавказ@@ 557
отбо@@ 557
1360 556
1410 556
1495 556
1581 556
Il 556
Смолен@@ 556
числен 556
1488 555
1684 555
bar@@ 555
dia 555
Викто@@ 555
ФРГ 555
1693 554
Sal@@ 554
власт@@ 554
писали 554
1758 553
all 553
МТ@@ 553
инжене@@ 553
1588 552
1645 552
1742 552
23,@@ 552
3500 552
1731 551
1754 551
1761 551
MI 551
mi@@ 551
строя 551
1531 550
RO@@ 550
YouTube 550
ates 550
ik@@ 550
зур@@ 550
принце@@ 550
1718 549
City 549
atum 549
thr@@ 549
è 549
бакала@@ 549
жан 549
охраня@@ 549
роз@@ 549
310 548
USS 548
gen@@ 548
влюб@@ 548
итава 548
конку@@ 548
Pictures 547
This 547
Герма@@ 547
горно@@ 547
1677 546
1716 546
36,@@ 546
Cas@@ 546
ist 546
ora 546
Лом@@ 546
Тихо@@ 546
самбле@@ 546
1594 545
Inc. 545
кафе@@ 545
1515 544
1613 544
7.@@ 544
Bal@@ 544
Blue 544
So@@ 544
Рах@@ 544
клад@@ 544
хтен@@ 544
Chaet@@ 543
He@@ 543
Man@@ 543
Лео@@ 543
Нидерланд@@ 543
комбинат 543
описа@@ 543
рейтинг 543
1390 542
1482 542
1553 542
1736 542
ER@@ 542
Media 542
ano 542
пушки 542
1460 541
1485 541
1609 541
chi@@ 541
Серги@@ 541
1587 540
5.@@ 540
A. 540
рака 540
1654 539
1779 539
вот 539
могло 539
неизвестно 539
скул@@ 539
We 538
hy@@ 538
ja 538
· 538
Система 538
тормо@@ 538
1330 537
1527 537
1602 537
Mel@@ 537
ST@@ 537
Георгий 537
жертво@@ 537
моло@@ 537
пропор@@ 537
бокс@@ 536
1759 535
Char@@ 535
Tor@@ 535
ler 535
ордина@@ 535
уте@@ 535
филологи@@ 535
1305 534
1493 534
22,@@ 534
370 534
пореди@@ 534
тли@@ 534
1240 533
1259 533
1565 533
loc@@ 533
планет@@ 533
1348 532
1583 532
1753 532
thi@@ 532
Краснояр@@ 532
представление 532
1552 531
1703 531
National 531
az@@ 531
км@@ 531
нок 531
1220 530
1647 530
ak 530
Фердина@@ 530
пограни@@ 530
поколе@@ 530
44@@ 529
Thr@@ 529
olo@@ 529
ornis 529
боло@@ 529
отече@@ 529
0,1 528
1545 528
17@@ 528
Вите@@ 528
Уро@@ 528
доход 528
1475 527
1561 527
1694 527
4.@@ 527
ES@@ 527
gu@@ 527
out 527
уез@@ 527
ука@@ 527
чим 527
1646 526
1687 526
325 526
Pan@@ 526
1356 525
cul@@ 525
решил 525
1624 524
omy@@ 524
otus 524
Конструк@@ 524
дворя@@ 524
запу@@ 524
Mer@@ 523
ot 523
pora 523
СМ@@ 523
батареи 523
1505 522
1539 522
154 522
1691 522
1695 522
be 522
Перио@@ 522
Pic@@ 521
mat@@ 521
min@@ 521
ona 521
onia 521
ur 521
вси@@ 521
гръц@@ 521
1524 520
AF 520
AG 520
Channel 520
ium 520
1230 519
147 519
1751 519
e.@@ 519
eti@@ 519
ke 519
блока 519
геологи@@ 519
недостат@@ 519
1385 518
176 518
ill@@ 518
Майн@@ 518
Моро@@ 518
схват@@ 518
чел 518
1752 517
Acanth@@ 517
Studios 517
bl@@ 517
ister 517
les 517
Τ@@ 517
Гроз@@ 517
146 516
1529 516
1713 516
1749 516
Sor@@ 516
Sph@@ 516
дзи 516
ете 516
ной 516
оси 516
1280 515
1532 515
1564 515
1725 515
Si@@ 515
зиди@@ 515
предполо@@ 515
1282 514
136 514
166 514
1674 514
1698 514
Pter@@ 514
съвършен@@ 514
‘ 514
Intel 513
` 513
phy@@ 513
внезап@@ 513
гани@@ 513
1346 512
1365 512
46@@ 512
OH 512
ectus 512
uc@@ 512
горя@@ 512
зян@@ 512
крае@@ 512
механизи@@ 512
неве@@ 512
1732 511
1734 511
ann@@ 511
чив 511
1504 510
162 510
Bre@@ 510
War@@ 510
www.@@ 510
бера 510
заинтересо@@ 510
1511 509
1542 509
бозай@@ 509
кации 509
съвърш@@ 509
шай@@ 509
Rhin@@ 508
agri@@ 508
anth@@ 508
прида@@ 508
фру@@ 508
148 507
1516 507
Hol@@ 507
SE@@ 507
sol@@ 507
едо@@ 507
1727 506
Inter@@ 506
Not@@ 506
Phyl@@ 506
ere 506
str@@ 506
РО@@ 506
воло@@ 506
лано 506
поиска@@ 506
хта 506
шка@@ 506
pal@@ 505
Анатолий 505
1506 504
1697 504
Val@@ 504
1510 503
1546 503
192 503
US 503
cer@@ 503
thys 503
газе@@ 503
York 502
чали 502
щта 502
AN@@ 501
Харак@@ 501
концепции 501
прав 501
1180 500
1533 500
1537 500
Ur@@ 500
Литов@@ 500
оставил 500
119 499
1315 499
1396 499
1494 499
1549 499
2. 499
ant 499
arius 499
ton 499
шие 499
131 498
Cre@@ 498
бека 498
реши@@ 498
чужде@@ 498
1430 497
AC@@ 497
HMS 497
Plat@@ 497
ly 497
tac@@ 497
ty 497
дино@@ 497
круп@@ 497
помощи 497
разнообрази@@ 497
сково 497
феро@@ 497
TV@@ 496
ass@@ 496
шав@@ 496
1,7 495
NGC 495
chil@@ 495
chrom@@ 495
Поз@@ 495
зации 495
1528 494
1534 494
Дени@@ 494
Род 494
жината 494
8,5 493
Big 493
O2 493
Вей@@ 493
Николаевич 493
Ом@@ 493
коат@@ 493
чети@@ 493
1717 492
1755 492
Na@@ 492
eo 492
pin@@ 492
Досто@@ 492
Христа 492
препара@@ 492
теше@@ 492
1291 491
1479 491
Gal@@ 491
MW 491
Pro 491
Критика 491
РСФСР 491
церемонии 491
1463 490
Cu@@ 490
Cy@@ 490
Eur@@ 490
ema 490
sin@@ 490
вопро@@ 490
его 490
кохо@@ 490
примерно 490
1395 489
1551 489
Don 489
ost@@ 489
the@@ 489
тело 489
1279 488
142 488
151 488
oni@@ 488
см@@ 488
стр 488
1498 487
2,3 487
70@@ 487
Сат@@ 487
дарение 487
служи@@ 487
тре 487
der@@ 486
ge 486
ge@@ 486
гини 486
зав@@ 486
метров 486
очи@@ 486
сона 486
9.@@ 485
Fl@@ 485
den 485
Голо@@ 485
Окон@@ 485
Поб@@ 485
нино 485
петер@@ 485
семи@@ 485
1378 484
кавалерий@@ 484
лая 484
1310 483
1517 483
AS 483
DE@@ 483
Дости@@ 483
Евгения 483
глав 483
1483 482
illi@@ 482
Департа@@ 482
Запоро@@ 482
шир@@ 482
1719 481
Ma@@ 481
Производство 481
могла 481
различ@@ 481
тая 481
1470 480
Sci@@ 480
ol 480
om 480
названия 480
органа 480
1591 479
q@@ 479
Етно@@ 479
1543 478
Be 478
сас 478
1312 477
1501 477
235 477
430 477
ai@@ 477
1150 476
1435 476
1499 476
AM@@ 476
che 476
ell 476
if 476
th 476
надий 476
неже@@ 476
1497 475
1512 475
275 475
356 475
Im@@ 475
melan@@ 475
гда 475
дено@@ 475
161 474
ki 474
zi 474
č@@ 474
Боли@@ 474
опу@@ 474
ѐ 474
Lib@@ 473
cel@@ 473
class 473
ularis 473
княжества 473
команда 473
принца 473
секретар@@ 473
1555 472
1747 472
Ho@@ 472
SA 472
SS@@ 472
Studio 472
Su@@ 472
anti@@ 472
Об 472
балета 472
реабили@@ 472
ям 472
é@@ 471
Слова@@ 471
0,3 470
1355 470
mg 470
q 470
общава 470
уго@@ 470
0,2 469
440 469
90@@ 469
mor@@ 469
цете 469
1302 468
182 468
8.@@ 468
For 468
cal@@ 468
Лебе@@ 468
речи 468
1307 467
гера 467
летий 467
ману@@ 467
социации 467
хии 467
1402 466
21,@@ 466
ense 466
Звезда 466
09.@@ 465
47@@ 465
ales 465
go@@ 465
Α@@ 465
отъ@@ 465
псе@@ 465
Grand 464
Mur@@ 464
im 464
ta@@ 464
бух@@ 464
вил@@ 464
пропу@@ 464
1316 463
asi@@ 463
Щ 463
вобо@@ 463
воро@@ 463
дисерта@@ 463
1389 462
ure 462
носа@@ 462
церите 462
1225 461
1275 461
1284 461
137 461
1490 461
217 461
Ставро@@ 461
овладе@@ 461
1556 460
est@@ 460
Рома@@ 460
рисун@@ 460
1422 459
1696 459
CE@@ 459
Estr@@ 459
dr@@ 459
gar@@ 459
land 459
Адриа@@ 459
ВС 459
Суво@@ 459
163 458
SA@@ 458
Tel@@ 458
мами 458
неде@@ 458
формирова@@ 458
193 457
43@@ 457
af@@ 457
баш@@ 457
парламен@@ 457
1368 456
1478 456
195 456
290 456
FO@@ 456
Pseud@@ 456
вши@@ 456
1474 455
AT 455
actylus 455
ellus 455
opo@@ 455
Михайлович 455
Преобра@@ 455
мович 455
156 454
Day 454
Уд@@ 454
201 453
Dark 453
Like 453
San 453
Норве@@ 453
ваш@@ 453
тога@@ 453
учреждения 453
200@@ 452
256 452
Do 452
Dr@@ 452
друже@@ 452
йти 452
1404 451
141 451
ABC 451
able 451
гоно@@ 451
треш@@ 451
2.0 450
Ber@@ 450
Death 450
ima 450
волю@@ 450
спектра@@ 450
1320 449
1481 449
Tyran@@ 449
etta 449
nus 449
tion 449
фотографии 449
1386 448
Android 448
Nov@@ 448
Sub@@ 448
return 448
ПУ 448
1,1 447
1285 447
1418 447
iv@@ 447
куб@@ 447
Centr@@ 446
va 446
гизи@@ 446
жоу 446
иск 446
пизо@@ 446
1258 445
1341 445
1377 445
950 445
AN 445
Σ@@ 445
европе@@ 445
мера 445
1327 444
1425 444
164 444
cas@@ 444
yth@@ 444
АМ@@ 444
кут@@ 444
1314 443
1484 443
196 443
204 443
Go 443
hynchus 443
me@@ 443
мирането 443
повсе@@ 443
560 442
Del@@ 442
гами 442
телевизи@@ 442
172 441
2,4 441
460 441
RE@@ 441
гет@@ 441
1349 440
1514 440
bu@@ 440
бн 440
заста@@ 440
мов@@ 440
предме@@ 440
54@@ 439
H2O 439
Line 439
eri@@ 439
ster@@ 439
Казах@@ 439
Фреде@@ 439
Чика@@ 439
вив 439
ключе@@ 439
1185 438
167 438
206 438
410 438
49@@ 438
Meg@@ 438
Проект 438
изгна@@ 438
хослова@@ 438
1455 437
1502 437
aster 437
АО 437
Свя@@ 437
рк 437
фракции 437
1518 436
215 436
520 436
Образо@@ 436
диза@@ 436
фашист@@ 436
1397 435
188 435
29,@@ 435
1235 434
Open@@ 434
dus 434
inidae 434
Депу@@ 434
Петербург@@ 434
Печ@@ 434
жок 434
1274 433
1303 433
Zo@@ 433
eil@@ 433
fer@@ 433
flav@@ 433
lia 433
Счита@@ 433
дивизион 433
чу 433
139 432
Sy@@ 432
iss@@ 432
ner 432
omus 432
sk@@ 432
ος 432
ере 432
листиче@@ 432
сибир@@ 432
0,6 431
1476 431
TE@@ 431
from 431
pp@@ 431
tar@@ 431
лем@@ 431
линий 431
1439 430
Av@@ 430
CBS 430
Out 430
ali@@ 430
ance 430
bre@@ 430
mi 430
железо@@ 430
неуда@@ 430
подписа@@ 430
Hap@@ 429
son 429
инспе@@ 429
United 428
What 428
ary 428
he@@ 428
ve@@ 428
view 428
гости@@ 428
скет@@ 428
212 427
див 427
императри@@ 427
свое@@ 427
1451 426
178 426
184 426
197 426
ene 426
Спу@@ 426
ом 426
служили 426
чика 426
1311 425
1469 425
1523 425
186 425
720 425
AV@@ 425
COVID 425
Op@@ 425
TS 425
ное 425
1417 424
1468 424
Labr@@ 424
RI@@ 424
ence 424
174 423
act@@ 423
k.@@ 423
μ@@ 423
Сав@@ 423
губернатора 423
построй@@ 423
щем 423
1472 422
365 422
Home 422
PS 422
ine@@ 422
ng@@ 422
1160 421
1170 421
SQL 421
ile 421
ith@@ 421
Ле 421
Ск@@ 421
офицера 421
припа@@ 421
рейтин@@ 421
1296 420
1382 420
Por@@ 420
amp@@ 420
149 419
177 419
2,6 419
Bor@@ 419
bur@@ 419
otis 419
~ 419
Оле@@ 419
бя 419
нах@@ 419
1513 418
Bol@@ 418
als 418
tel@@ 418
ò@@ 418
Абха@@ 418
Букуре@@ 418
Площа@@ 418
парла@@ 418
1466 417
AD@@ 417
und@@ 417
Леопол@@ 417
зови@@ 417
страхо@@ 417
узна@@ 417
183 416
74@@ 416
Cro@@ 416
ks 416
денти@@ 416
жер 416
игро@@ 416
пии 416
стокра@@ 416
169 415
Radio 415
Super@@ 415
mer@@ 415
pes 415
вило 415
ходят 415
1323 414
1544 414
213 414
254 414
opsis 414
ty@@ 414
ym@@ 414
Красно@@ 414
новения 414
1507 413
153 413
Scar@@ 413
aup@@ 413
don@@ 413
друж@@ 413
так 413
64@@ 412
Sun 412
бизне@@ 412
211 411
65@@ 411
John 411
убит@@ 411
шле@@ 411
1509 410
67@@ 410
ari 410
Кузне@@ 410
рук 410
увле@@ 410
юго 410
1248 409
3,2 409
3,6 409
56@@ 409
ostris 409
доктор@@ 409
рем 409
рождение 409
AP@@ 408
Space 408
ah@@ 408
ard@@ 408
pa@@ 408
низации 408
Cat@@ 407
Heart 407
ard 407
enti@@ 407
ë@@ 407
демоби@@ 407
216 406
58@@ 406
Award 406
Bros. 406
Du@@ 406
Facebook 406
Uni@@ 406
bi 406
ice 406
Рус@@ 406
капитана 406
Royal 405
pa 405
Гле@@ 405
включа@@ 405
кото@@ 405
уна@@ 405
1388 404
143 404
202 404
6.@@ 404
A.@@ 404
ah 404
char@@ 404
oh@@ 404
tan@@ 404
здание 404
191 403
авгу@@ 403
агент@@ 403
брю@@ 403
копий 403
лке 403
мону@@ 403
холо@@ 403
1496 402
2,2 402
Reg@@ 402
ud@@ 402
ВМО@@ 402
Чем@@ 402
обусло@@ 402
cre@@ 401
0,8 400
1241 400
1375 400
218 400
Χ@@ 400
Француз@@ 400
басе@@ 400
заду@@ 400
,@@ 399
390 399
9000 399
HD 399
Show 399
ace@@ 399
ay@@ 399
etus 399
летия 399
лой 399
пав@@ 399
Es@@ 398
King 398
eum 398
ota 398
ë 398
гато 398
ожи@@ 398
старто@@ 398
строение 398
шла 398
1295 397
1464 397
59@@ 397
Dance 397
ib@@ 397
ick 397
isti@@ 397
Николаев@@ 397
псевдони@@ 397
1429 396
Top 396
WCW 396
bor@@ 396
km@@ 396
sub@@ 396
von 396
Луган@@ 396
68@@ 395
Mac 395
Pal@@ 395
eu@@ 395
icidae 395
определения 395
1261 394
189 394
левич 394
слова 394
1458 393
157 393
640 393
ess@@ 393
ФР@@ 393
верса@@ 393
оконча@@ 393
187 392
API 392
fer 392
id 392
inae 392
je 392
Пед@@ 392
СР 392
кое 392
остат@@ 392
285 391
News 391
oa 391
─ 391
House 390
Sony 390
cic@@ 390
eh@@ 390
ff@@ 390
ip@@ 390
Journal 389
aci@@ 389
od 389
style 389
ten@@ 389
дисло@@ 389
новка 389
1130 388
1205 388
98@@ 388
Hem@@ 388
We@@ 388
otr@@ 388
Александрович 388
рост 388
услови@@ 388
1471 387
ca@@ 387
sen@@ 387
вити@@ 387
хок@@ 387
1394 386
1487 386
General 386
HBO 386
Min@@ 386
Pom@@ 386
TA 386
tera 386
tur@@ 386
Ломбар@@ 386
доров 386
ленко 386
сервато@@ 386
1392 385
Lov@@ 385
vit@@ 385
сун@@ 385
1337 384
Can 384
Center 384
cur@@ 384
lam@@ 384
και 384
Амери@@ 384
Калинин@@ 384
закре@@ 384
мъжва 384
1050 383
2,7 383
Camb@@ 383
HD@@ 383
Rem@@ 383
XML 383
Xen@@ 383
ae@@ 383
aw@@ 383
dic@@ 383
238 382
99@@ 382
ect 382
eps 382
ker 382
ori@@ 382
Марга@@ 382
династии 382
ляли 382
пут@@ 382
шинг@@ 382
ѣ 382
1409 381
540 381
DOS 381
Hz 381
Way 381
reg@@ 381
БА 381
381 380
ua 380
Зав@@ 380
взаимодействия 380
йто 380
4500 379
VA 379
ani@@ 379
tal@@ 379
± 379
нами 379
флага 379
CH@@ 378
Ri@@ 378
Unix 378
ada 378
aen@@ 378
ley 378
1336 377
2,8 377
33,@@ 377
AL@@ 377
if@@ 377
ilia 377
Количе@@ 377
ждено 377
лики 377
соф@@ 377
тря@@ 377
222 376
Street 376
USB 376
atis 376
bius 376
sim@@ 376
дера@@ 376
1454 375
1461 375
306 375
680 375
ther@@ 375
ulata 375
198 374
209 374
PO@@ 374
VI@@ 374
ry@@ 374
играли 374
окон@@ 374
1325 373
1424 373
173 373
179 373
Camp@@ 373
pu@@ 373
мощности 373
фигури@@ 373
шру@@ 373
ъф@@ 373
1406 372
88@@ 372
студии 372
75@@ 371
ek@@ 371
ra@@ 371
Плов@@ 371
лаборатории 371
терна@@ 371
207 370
RT@@ 370
ba 370
ning 370
tra@@ 370
Антар@@ 370
1431 369
171 369
343 369
Gu@@ 369
ax@@ 369
ones 369
Черни@@ 369
старей@@ 369
470 368
GB 368
Ran@@ 368
dium 368
til@@ 368
Κ@@ 368
Яков@@ 368
бест@@ 368
кам 368
AB 367
Ger@@ 367
Good 367
SMS 367
VHS 367
anthus 367
ess 367
ire 367
tro 367
Бота@@ 367
венства 367
позволи@@ 367
229 366
gens 366
Моха@@ 366
Снеж@@ 366
Хаба@@ 366
1234 365
395 365
Universal 365
ny@@ 365
ony@@ 365
ž@@ 365
Гви@@ 365
мок 365
ремо@@ 365
355 364
TNA 364
ets 364
Постанов@@ 364
аль@@ 364
гимназии 364
тата@@ 364
0,4 363
aj@@ 363
ake 363
las 363
sec@@ 363
Ε@@ 363
Игра 363
лиц 363
AI@@ 362
low 362
void 362
Вз@@ 362
Ль@@ 362
мля@@ 362
CC@@ 361
Leg@@ 361
Mir@@ 361
NE@@ 361
Vol@@ 361
arch@@ 361
ast@@ 361
text 361
географи@@ 361
живу@@ 361
премия 361
245 360
3. 360
375 360
Ach@@ 360
Kr@@ 360
заи@@ 360
ATP 359
Buf@@ 359
Cl 359
Cur@@ 359
DO@@ 359
Festival 359
PE@@ 359
Ros@@ 359
ens@@ 359
fasci@@ 359
ken 359
mel@@ 359
nis 359
Новосибир@@ 359
водил 359
удив@@ 359
001 358
1428 358
America 358
lis 358
pay 358
Вну@@ 358
Сибир@@ 358
здания 358
рование 358
Plan@@ 357
S.@@ 357
стров 357
тник 357
elli 356
ics 356
ву 356
дуб@@ 356
зиден@@ 356
ноги 356
подве@@ 356
Cam@@ 355
MO@@ 355
cl@@ 355
mal@@ 355
opterus 355
st 355
β 355
Вашинг@@ 355
бок 355
гом 355
комедии 355
лого 355
0,7 354
DA 354
pel@@ 354
sil@@ 354
Рас@@ 354
орде@@ 354
пци@@ 354
ранга 354
9,5 353
Lab@@ 353
SM 353
bit 353
go 353
ir 353
ocephalus 353
статъ@@ 353
3,3 352
College 352
Des@@ 352
dor@@ 352
zi@@ 352
ó@@ 352
гина 352
зра@@ 352
негатив@@ 352
Eu@@ 351
Ferrari 351
Pl@@ 351
Rom@@ 351
milit@@ 351
меда 351
радо 351
194 350
255 350
960 350
Bath@@ 350
EN@@ 350
Клав@@ 350
Мос@@ 350
аспиран@@ 350
итуа@@ 350
219 349
53@@ 349
BMW 349
First 349
Ple@@ 349
Project 349
ast 349
nem@@ 349
net 349
Из 349
пластин@@ 349
стройки 349
тности 349
Dead 348
FM 348
Homo 348
Шев@@ 348
веду@@ 348
решили 348
тоне 348
18@@ 347
Girl 347
bul@@ 347
tia 347
« 347
баталь@@ 347
зани@@ 347
уг@@ 347
1477 346
2200 346
Mic@@ 346
PP@@ 346
cha 346
ight 346
Ν@@ 346
тика@@ 346
159 345
M. 345
NET 345
Ter@@ 345
White 345
ber 345
Иркут@@ 345
Петра 345
ato 344
ry 344
vus 344
‎ 344
Apo@@ 343
IC 343
Ni@@ 343
her@@ 343
ler@@ 343
оса@@ 343
530 342
86@@ 342
880 342
CN@@ 342
ila 342
ovo 342
Локо@@ 342
лъче@@ 342
цера 342
1399 341
251 341
Dol@@ 341
Vo@@ 341
eli@@ 341
ici@@ 341
НКВД 341
занятия 341
1227 340
335 340
Kiss 340
Lady 340
Круп@@ 340
Степа@@ 340
деления 340
181 339
610 339
phidae 339
ł@@ 339
дистанции 339
нат@@ 339
подро@@ 339
158 338
970 338
Lin@@ 338
занти@@ 338
рождения 338
сержант 338
232 337
66@@ 337
Hal@@ 337
Sil@@ 337
cat@@ 337
chi 337
fus@@ 337
ow@@ 337
rich@@ 337
soni 337
ός 337
НЕ@@ 337
221 336
2400 336
323 336
Cartoon 336
Mas@@ 336
Web 336
eng@@ 336
ga 336
вру@@ 336
множества 336
шля@@ 336
Black@@ 335
Hello 335
ade 335
long@@ 335
Зако@@ 335
восток 335
жени@@ 335
одо@@ 335
ради 335
ье 335
BC 334
icum 334
барди@@ 334
бре 334
воен@@ 334
поставил 334
265 333
Championship 333
Chi@@ 333
Co 333
Press 333
Sar@@ 333
au 333
una 333
департа@@ 333
цери 333
1080 332
283 332
Book 332
Down 332
Mk 332
arg@@ 332
ariidae 332
optera 332
ˈ@@ 332
η 332
Президента 332
ранже@@ 332
And 331
Ang@@ 331
Are 331
MS@@ 331
UT@@ 331
ama 331
Μ@@ 331
пл@@ 331
1,9 330
253 330
Brach@@ 330
D. 330
ITF 330
Song 330
tor 330
Риг@@ 330
окли@@ 330
плав@@ 330
президен@@ 330
формирование 330
301 329
334 329
MC 329
bal@@ 329
dom@@ 329
ico 329
illus 329
Π@@ 329
Жена 329
вок@@ 329
08.@@ 328
303 328
PA 328
Twitter 328
pul@@ 328
Медве@@ 328
Юго 328
приблиз@@ 328
15.@@ 327
214 327
B. 327
Der 327
Har@@ 327
Last 327
Little 327
ame 327
eni 327
ō@@ 327
Наи@@ 327
234 326
Cham@@ 326
GP@@ 326
IT@@ 326
Ly@@ 326
estes 326
дами 326
дой 326
тем 326
06.@@ 325
224 325
GNU 325
Model 325
Pap@@ 325
RC 325
Ste@@ 325
aga 325
arus 325
ly@@ 325
usa 325
Владими@@ 325
Изна@@ 325
рос@@ 325
262 324
38,@@ 324
Visual 324
ain@@ 324
die 324
ello 324
ko@@ 324
oi 324
pe 324
tin@@ 324
Храм 324
епархии 324
туда 324
57@@ 323
CI@@ 323
CO 323
Columb@@ 323
E. 323
Gro@@ 323
Super 323
War 323
esti@@ 323
leuc@@ 323
vic@@ 323
ρι@@ 323
Сверд@@ 323
год 323
14.@@ 322
32,@@ 322
Dec@@ 322
Internet 322
NBC 322
cho@@ 322
sy@@ 322
Ρ@@ 322
Рожде@@ 322
свя@@ 322
284 321
580 321
Sep@@ 321
ated 321
ech@@ 321
ticus 321
time 321
зей 321
писала 321
сравни@@ 321
ято 321
425 320
Ba@@ 320
CD@@ 320
Productions 320
RAM 320
asy@@ 320
ub@@ 320
ut 320
лав@@ 320
яви@@ 320
3,7 319
aca 319
eta 319
самостояте@@ 319
04.@@ 318
1427 318
Back 318
Mat@@ 318
rot@@ 318
Азербайджан@@ 318
ГУ@@ 318
лабо@@ 318
.н@@ 317
241 317
AE@@ 317
Mc@@ 317
ati 317
entr@@ 317
philus 317
ue 317
ГИ@@ 317
аран@@ 317
кандидата 317
2,1 316
227 316
244 316
Mes@@ 316
hr@@ 316
Няко@@ 316
губернато@@ 316
начала 316
509 315
ECW 315
Game 315
Light 315
Star@@ 315
ero 315
etti 315
non 315
pos@@ 315
up@@ 315
жден@@ 315
империи 315
Fire 314
Mot@@ 314
Park 314
Pas@@ 314
ania 314
ek 314
Абсолю@@ 314
Амур@@ 314
фектив@@ 314
0,9 313
23.@@ 313
451 313
agus 313
this 313
Семе@@ 313
вино@@ 313
зеро 313
DE 312
Dream 312
ors 312
ostoma 312
ros@@ 312
реж@@ 312
760 311
London 311
USA 311
del@@ 311
ela 311
tho@@ 311
Адел@@ 311
генерала 311
квалификации 311
оборот 311
певи@@ 311
шим 311
3,4 310
Lim@@ 310
Sim@@ 310
olep@@ 310
pre@@ 310
Стю@@ 310
видов 310
дович 310
ликви@@ 310
правил 310
чит 310
щено 310
07.@@ 309
1.0@@ 309
242 309
630 309
78@@ 309
But@@ 309
CV 309
Hell 309
Who 309
arum 309
Астра@@ 309
Двор@@ 309
Трудо@@ 309
депо 309
мян@@ 309
пиво@@ 309
фунда@@ 309
12,5 308
1215 308
252 308
333 308
840 308
Animation 308
ette 308
icul@@ 308
leg@@ 308
my 308
» 308
243 307
249 307
295 307
69@@ 307
747 307
BSD 307
alia 307
way 307
пок@@ 307
ѧ 307
315 306
Bad 306
Call@@ 306
a.@@ 306
ong 306
tro@@ 306
их 306
моми@@ 306
написа@@ 306
22.@@ 305
3,8 305
570 305
Bu@@ 305
Bul@@ 305
LA 305
not@@ 305
арен@@ 305
шаф@@ 305
Art 304
GT@@ 304
Syn@@ 304
athus 304
olis 304
ric@@ 304
Атана@@ 304
кера 304
основе 304
313 303
JavaScript 303
Kar@@ 303
^ 303
ack@@ 303
op 303
Ефи@@ 303
захва@@ 303
ловка 303
Chir@@ 302
Get 302
Trans@@ 302
don 302
phis 302
του 302
Всеволо@@ 302
жал 302
зрения 302
264 301
279 301
AB@@ 301
Prot@@ 301
alm@@ 301
Характе@@ 301
красно@@ 301
-- 300
282 300
870 300
Tre@@ 300
ez@@ 300
phil@@ 300
sel@@ 300
Во 300
Уст@@ 300
Чело@@ 300
восто@@ 300
лами 300
Association 299
Fre@@ 299
Gi@@ 299
amb@@ 299
formes 299
ko 299
len@@ 299
pan@@ 299
Β@@ 299
Есто@@ 299
СН@@ 299
312 298
324 298
Furn@@ 298
MI@@ 298
Os@@ 298
ce@@ 298
ha@@ 298
ias 298
ori 298
our 298
sec 298
so 298
tig@@ 298
вере 298
видение 298
газа 298
федерации 298
246 297
AP 297
Deep 297
Video 297
aja 297
cola 297
Вяче@@ 297
DS 296
Dic@@ 296
GT 296
Gar@@ 296
Plus 296
Works 296
ami@@ 296
sal@@ 296
монографи@@ 296
тате@@ 296
2300 295
272 295
2O@@ 295
Global 295
Tham@@ 295
Type 295
alidae 295
ellas 295
ins 295
rop@@ 295
Жиз@@ 295
Мои@@ 295
вая 295
нице 295
281 294
337 294
I.@@ 294
IS 294
ap 294
ars 294
ito 294
Грин@@ 294
286 293
BO@@ 293
Days 293
Dragon 293
Fi 293
Machine 293
Obj@@ 293
dis@@ 293
ə@@ 293
Воз@@ 293
лечения 293
меро@@ 293
писе@@ 293
появ@@ 293
см. 293
302 292
378 292
Canal 292
Force 292
Res@@ 292
ey@@ 292
olog@@ 292
Кърджа@@ 292
тр@@ 292
ME@@ 291
Queen 291
That 291
della 291
son@@ 291
world 291
Семи@@ 291
отказ@@ 291
273 290
37,@@ 290
79@@ 290
NH@@ 290
escens 290
ock 290
vul@@ 290
ĸ@@ 290
производства 290
скар 290
1405 289
336 289
ki@@ 289
oz@@ 289
Λ@@ 289
ι@@ 289
еви@@ 289
435 288
Band 288
Cin@@ 288
Europe 288
Hor@@ 288
M.@@ 288
Team 288
eth@@ 288
ish 288
tatus 288
езда 288
прояв@@ 288
317 287
Fe 287
Rec@@ 287
ab 287
ach 287
ci 287
ecus 287
orus 287
Росто@@ 287
Чехослова@@ 287
вах 287
посетил 287
267 286
274 286
510 286
Cap@@ 286
Lu@@ 286
Stars 286
онат 286
стала 286
1433 285
226 285
237 285
248 285
30,@@ 285
385 285
Baby 285
Play 285
Ti@@ 285
ey 285
ira 285
vo 285
Герб 285
персонажа 285
повести 285
GPS 284
Ram@@ 284
Road 284
Sel@@ 284
acea 284
ro 284
ă@@ 284
педаго@@ 284
селение 284
276 283
32@@ 283
Mil@@ 283
adi@@ 283
els 283
lat@@ 283
ν 283
звуча@@ 283
способ 283
976 282
UR@@ 282
mus 282
my@@ 282
tic 282
Осве@@ 282
Руси 282
мой 282
самолето@@ 282
236 281
660 281
@ 281
CA 281
CS@@ 281
prim@@ 281
trum 281
Чемпи@@ 281
кантона 281
4,2 280
European 280
iti@@ 280
гария 280
рее 280
620 279
Ceph@@ 279
Dom@@ 279
cip@@ 279
fl@@ 279
res@@ 279
Аржен@@ 279
нег@@ 279
подписал 279
Brothers 278
Games 278
T. 278
agr@@ 278
anum 278
dec@@ 278
key 278
olus 278
out@@ 278
ω 278
Иль@@ 278
Резул@@ 278
гория 278
пору@@ 278
физико 278
268 277
541 277
565 277
76@@ 277
Met@@ 277
Pot@@ 277
Power 277
Young 277
ick@@ 277
ri 277
А.@@ 277
Максимили@@ 277
бурга 277
двиг 277
диф@@ 277
ксел 277
превра@@ 277
Ak@@ 276
Name 276
RS 276
Via 276
With 276
down 276
eria 276
ista 276
ансамб@@ 276
изнача@@ 276
1070 275
233 275
257 275
266 275
457 275
Oc@@ 275
ac 275
ang 275
asc@@ 275
Нидер@@ 275
Телефон@@ 275
стили 275
293 274
316 274
Cten@@ 274
Express 274
Sw@@ 274
Writ@@ 274
bat@@ 274
wer@@ 274
место 274
отрас@@ 274
пунк@@ 274
страк@@ 274
287 273
308 273
404 273
Blood 273
Chlor@@ 273
Dream@@ 273
Pin@@ 273
ali 273
enia 273
ong@@ 273
ou 273
yo@@ 273
δ@@ 273
Динами@@ 273
Карла 273
Хот@@ 273
брежи@@ 273
дая 273
ино@@ 273
предложил 273
223 272
331 272
77@@ 272
isi@@ 272
академии 272
рян@@ 272
цева 272
← 272
13.@@ 271
228 271
4. 271
Anth@@ 271
Iron 271
Ob@@ 271
Saint 271
color 271
gn@@ 271
igh@@ 271
Богороди@@ 271
вс@@ 271
нефте@@ 271
03.@@ 270
Amph@@ 270
Dem@@ 270
ISBN 270
Sun@@ 270
Sur@@ 270
apo@@ 270
bis 270
ray 270
ς 270
Джек@@ 270
волж@@ 270
говорил 270
пребро@@ 270
2100 269
780 269
860 269
Aer@@ 269
CL@@ 269
Fal@@ 269
SC 269
Sky 269
Society 269
acus 269
ini@@ 269
Мада@@ 269
форси@@ 269
Action 268
Boeing 268
Fo@@ 268
Girls 268
Ty@@ 268
anc@@ 268
fic@@ 268
macro@@ 268
Υ 268
берга 268
304 267
490 267
Digital 267
Sa@@ 267
fi@@ 267
iceps 267
istr@@ 267
urn@@ 267
Γ@@ 267
Алекса 267
латен 267
несли 267
02.@@ 266
322 266
384 266
84@@ 266
Electric 266
Gen@@ 266
Japan 266
Let 266
ik 266
obi@@ 266
pro 266
АССР 266
пункта 266
ренко 266
часов 266
Ltd 265
Pa@@ 265
S. 265
esper@@ 265
icola 265
ton@@ 265
Благоев@@ 265
лауре@@ 265
05.@@ 264
408 264
L. 264
Research 264
Science 264
Код 264
бии 264
образован 264
Century 263
X. 263
amm@@ 263
ations 263
ee 263
eni@@ 263
ι 263
π 263
τ@@ 263
НК@@ 263
вела 263
дорович 263
лиги 263
нач@@ 263
свет 263
сомо@@ 263
увеличи@@ 263
239 262
63@@ 262
978 262
IB@@ 262
San@@ 262
Sho@@ 262
Stone 262
UK 262
ites 262
nm 262
pH 262
ting 262
Прод@@ 262
несла 262
307 261
Ox@@ 261
har@@ 261
ise 261
pic@@ 261
tom@@ 261
Улица 261
16.@@ 260
263 260
405 260
Al 260
FA 260
NT@@ 260
Philips 260
SI@@ 260
auda 260
string 260
י@@ 260
258 259
2700 259
rh@@ 259
tis@@ 259
ug@@ 259
yx 259
получило 259
512 258
Now 258
Office 258
Server 258
iscus 258
orn@@ 258
ven@@ 258
Грод@@ 258
жир@@ 258
лла 258
нца 258
скостопан@@ 258
участи@@ 258
хождение 258
271 257
476 257
Arg@@ 257
Blo@@ 257
P. 257
ilus 257
ode 257
ρ 257
Бунде@@ 257
Даге@@ 257
дворян@@ 257
17.@@ 256
359 256
AM 256
Ci@@ 256
Poly@@ 256
arc@@ 256
ger 256
iPhone 256
king 256
unc@@ 256
var 256
ä@@ 256
í@@ 256
Покров@@ 256
бки 256
заключения 256
311 255
Aus@@ 255
Cir@@ 255
Ju 255
Wild 255
XXII 255
get@@ 255
gia 255
ole 255
tius 255
Укра@@ 255
Форму@@ 255
изменя@@ 255
1210 254
261 254
4,6 254
730 254
Ele@@ 254
Paris 254
SE 254
Sym@@ 254
Ta@@ 254
замени@@ 254
2600 253
Div@@ 253
H2 253
H2@@ 253
Lep@@ 253
Maria 253
Nokia 253
So 253
elus 253
ilis 253
ness 253
надо 253
окончания 253
100@@ 252
415 252
5. 252
590 252
BM@@ 252
DB 252
Fi@@ 252
Hill 252
Ko@@ 252
Lar@@ 252
abr@@ 252
ger@@ 252
iTunes 252
lum 252
ok 252
uta 252
лейб@@ 252
набра@@ 252
построил 252
201@@ 251
338 251
Lon@@ 251
May@@ 251
Pri@@ 251
astr@@ 251
bic@@ 251
ici 251
include 251
nam@@ 251
pon@@ 251
зела 251
недел@@ 251
рована 251
сум@@ 251
318 250
Bulgaria 250
String 250
dei 250
iOS 250
ical 250
oria 250
жер@@ 250
299 249
387 249
By@@ 249
Cos@@ 249
Free 249
G. 249
macul@@ 249
nov@@ 249
of@@ 249
vol@@ 249
шло 249
830 248
Boy 248
LC 248
Spar@@ 248
ord@@ 248
Восто@@ 248
364 247
5,6 247
F.@@ 247
Mol@@ 247
Sin@@ 247
Win@@ 247
align 247
cyan@@ 247
mu@@ 247
ome 247
ylo@@ 247
ò 247
Ленин@@ 247
гръб@@ 247
купа@@ 247
маке@@ 247
установил 247
25.@@ 246
4,4 246
475 246
85@@ 246
Boys 246
IA 246
Lam@@ 246
Pop@@ 246
Review 246
TP 246
Wi@@ 246
Zeppelin 246
acer@@ 246
ents 246
fo@@ 246
α@@ 246
Брян@@ 246
Работа 246
19@@ 245
309 245
820 245
Bank 245
CC 245
Heter@@ 245
Magazine 245
den@@ 245
hom@@ 245
int@@ 245
mus@@ 245
nic@@ 245
sem@@ 245
you 245
Подо@@ 245
Уз@@ 245
воин@@ 245
носил 245
сда@@ 245
288 244
39,@@ 244
533 244
Factor 244
Metal 244
When 244
ack 244
ail@@ 244
ain 244
log@@ 244
ted 244
β@@ 244
назначения 244
2.5 243
247 243
278 243
2800 243
294 243
4,7 243
431 243
CO2 243
Over 243
Software 243
aea 243
cipi@@ 243
orb@@ 243
á 243
Инфраструктура 243
йлд 243
цах 243
Atel@@ 242
Proc@@ 242
less 242
vo@@ 242
Моск@@ 242
простра@@ 242
степенно 242
18.@@ 241
326 241
Arc@@ 241
Bell 241
British 241
CP 241
Heaven 241
Is@@ 241
Je@@ 241
LO@@ 241
ader 241
pus 241
ren@@ 241
rol@@ 241
í 241
Один 241
лизо@@ 241
332 240
363 240
383 240
99,@@ 240
Abr@@ 240
Explorer 240
IT 240
LE@@ 240
La@@ 240
Mobile 240
Ori@@ 240
XP 240
elas 240
ή 240
ВО 240
Дина@@ 240
Мек@@ 240
РК@@ 240
980 239
AR 239
Business 239
Come 239
Not 239
Red@@ 239
Service 239
bas@@ 239
enta 239
ep 239
esta 239
leu@@ 239
ris 239
yd@@ 239
раза 239
седате@@ 239
Chil@@ 238
Film 238
Max 238
Pach@@ 238
Sac@@ 238
Word@@ 238
XXIII 238
ane 238
idel@@ 238
½ 238
Владимир@@ 238
ный 238
основал 238
345 237
670 237
AL 237
Foundation 237
France 237
IP@@ 237
Ke@@ 237
One@@ 237
RA 237
Roc@@ 237
Tw@@ 237
VC 237
Ven@@ 237
ago 237
dii 237
etes 237
pro@@ 237
we@@ 237
ze 237
стоян@@ 237
20.@@ 236
As 236
MG 236
Pre@@ 236
Python 236
RT 236
Ul@@ 236
Vir@@ 236
bia 236
bil@@ 236
dis 236
gi 236
å@@ 236
ū@@ 236
напротив 236
трудов 236
327 235
Data 235
Deutsche 235
Great 235
Ha@@ 235
North 235
Out@@ 235
Pun@@ 235
Tal@@ 235
hip@@ 235
Ап@@ 235
пуа 235
292 234
3.0 234
AD 234
Pyr@@ 234
Sem@@ 234
Systems 234
Union 234
mul@@ 234
nom@@ 234
π@@ 234
адрес@@ 234
земле@@ 234
кров@@ 234
подозре@@ 234
386 233
455 233
535 233
965 233
End 233
K. 233
Mi@@ 233
Nu@@ 233
Woman 233
comes 233
fe@@ 233
sti@@ 233
uch@@ 233
куро@@ 233
лета@@ 233
млрд 233
обозначения 233
скам 233
шая 233
1066 232
259 232
296 232
BA 232
H. 232
Led 232
Old 232
West@@ 232
aeus 232
anensis 232
pol@@ 232
ung@@ 232
vari@@ 232
Собо@@ 232
ЦИК 232
секу@@ 232
1.5 231
2,9 231
269 231
3,9 231
328 231
361 231
Earth 231
Opera 231
Pel@@ 231
St. 231
The@@ 231
V8 231
ans@@ 231
ind@@ 231
lig@@ 231
Голу@@ 231
всем 231
заболе@@ 231
19.@@ 230
DV@@ 230
Edition 230
Fac@@ 230
Gall@@ 230
Never 230
Power@@ 230
elle 230
kh@@ 230
mas@@ 230
stri@@ 230
ters 230
yst@@ 230
ī@@ 230
стреми@@ 230
чело@@ 230
│ 230
4,8 229
Arts 229
Net@@ 229
People 229
chus 229
esi 229
pha 229
Челябин@@ 229
губерна@@ 229
миграции 229
Ben@@ 228
Hall 228
Pascal 228
SK 228
SW@@ 228
Trich@@ 228
body 228
ds 228
ser 228
ste@@ 228
Волго@@ 228
дь@@ 228
образова@@ 228
отно@@ 228
AMD 227
AX 227
Dev@@ 227
Dro@@ 227
Hits 227
Island 227
Magic 227
Tar@@ 227
Xbox 227
eli 227
ke@@ 227
sur@@ 227
tu 227
vil@@ 227
ω@@ 227
провел 227
шиф@@ 227
362 226
5,8 226
DI 226
Hu@@ 226
On@@ 226
System@@ 226
ath 226
ies 226
ru 226
Золо@@ 226
бива@@ 226
ствен@@ 226
чания 226
Buc@@ 225
Cel@@ 225
F. 225
ME 225
Nor@@ 225
R. 225
Ring 225
alensis 225
fu@@ 225
gon 225
ings 225
ische 225
lep@@ 225
line@@ 225
une 225
Χ 225
Исла@@ 225
РФ 225
вести 225
прочем 225
учен@@ 225
этно@@ 225
1.0 224
298 224
4,3 224
5,2 224
Blu 224
CG 224
Greatest 224
P.@@ 224
Post@@ 224
Stu@@ 224
Te 224
kHz 224
s.@@ 224
ust@@ 224
Алексе@@ 224
Ие@@ 224
пяти@@ 224
ו@@ 224
0,0@@ 223
GP 223
Soul 223
Theatre 223
kr@@ 223
our@@ 223
sa@@ 223
tem@@ 223
αν@@ 223
Витеб@@ 223
Франсо@@ 223
допуска@@ 223
регуляр@@ 223
10,5 222
231 222
3,1 222
402 222
From 222
Just 222
Lac@@ 222
Mad@@ 222
ham@@ 222
nor@@ 222
ody 222
стир 222
27.@@ 221
737 221
AG@@ 221
Ari@@ 221
Myr@@ 221
house 221
osp@@ 221
tili@@ 221
ù 221
ν@@ 221
Арме@@ 221
Людови@@ 221
Сева@@ 221
коми 221
рее@@ 221
3200 220
321 220
344 220
Augus@@ 220
CW 220
Dendro@@ 220
Family 220
PS@@ 220
Public 220
Run@@ 220
Sk@@ 220
ami 220
aph@@ 220
aud@@ 220
red 220
tion@@ 220
ă 220
Куй@@ 220
20. 219
342 219
357 219
407 219
Che@@ 219
Cot@@ 219
MB 219
Mak@@ 219
Medi@@ 219
SL@@ 219
Test@@ 219
West 219
ace 219
ava 219
background 219
sis 219
val@@ 219
vin@@ 219
Днепро@@ 219
Числе@@ 219
куда 219
пособи@@ 219
493 218
555 218
Il@@ 218
inum 218
lio 218
sor@@ 218
της 218
новил 218
409 217
412 217
5,4 217
527 217
An 217
DS@@ 217
FC 217
Fil@@ 217
Kids 217
Lic@@ 217
Los 217
PlayStation 217
bel@@ 217
brach@@ 217
kii 217
line 217
Истан@@ 217
жит 217
моро@@ 217
367 216
379 216
382 216
5,3 216
920 216
Blues 216
God 216
Melan@@ 216
State 216
kar@@ 216
kin 216
micro@@ 216
plat@@ 216
poem 216
punc@@ 216
ts@@ 216
Уча@@ 216
лли@@ 216
-1 215
352 215
534 215
997 215
Meli@@ 215
NS@@ 215
Television 215
ator@@ 215
Ν 215
входя@@ 215
ничества 215
преодоле@@ 215
1001 214
21.@@ 214
297 214
454 214
97@@ 214
Box 214
Brother 214
He 214
ML 214
Summer 214
aer@@ 214
ill 214
inn@@ 214
mail 214
аспи@@ 214
жав@@ 214
ы 214
376 213
525 213
Gor@@ 213
PHP 213
Party 213
Play@@ 213
ROM 213
Sab@@ 213
Story 213
ando 213
ante 213
anz@@ 213
rec@@ 213
static 213
Š@@ 213
Екатерин@@ 213
Леони@@ 213
предвари@@ 213
тах 213
314 212
IEC 212
SD 212
act 212
ky 212
tw@@ 212
Аль@@ 212
Меж@@ 212
Рес@@ 212
Саратов@@ 212
приш@@ 212
стики 212
24.@@ 211
890 211
Na 211
Nec@@ 211
Pat@@ 211
culus 211
Со 211
безработ@@ 211
брен@@ 211
печати 211
89@@ 210
940 210
96@@ 210
Dip@@ 210
Ep@@ 210
IF@@ 210
Leuc@@ 210
Real 210
acty@@ 210
berg 210
gl@@ 210
left 210
leri 210
m. 210
oth 210
ova 210
tii 210
var@@ 210
деле 210
ы@@ 210
289 209
Airlines 209
Amaz@@ 209
Audi 209
EC 209
HT@@ 209
Kon@@ 209
ML@@ 209
Squ@@ 209
Take 209
des@@ 209
let 209
lo 209
mot@@ 209
ocer@@ 209
ster 209
yla 209
yrus 209
ē@@ 209
ś@@ 209
Η@@ 209
излу@@ 209
351 208
Hir@@ 208
ON@@ 208
ash 208
att@@ 208
eti 208
ian 208
ilius 208
mo 208
nia 208
opter@@ 208
tre@@ 208
we 208
Лауреат 208
товче@@ 208
28.@@ 207
368 207
377 207
413 207
503 207
Opel 207
bra 207
olor 207
po 207
ου 207
σ@@ 207
сси@@ 207
354 206
810 206
How 206
Long 206
hp 206
use 206
xi@@ 206
сит 206
ѫ 206
21@@ 205
448 205
985 205
990 205
Angel 205
Central 205
Crazy 205
E.@@ 205
J. 205
L.@@ 205
Pon@@ 205
Sound 205
ase 205
chr@@ 205
con 205
elia 205
ie@@ 205
летов 205
плацдар@@ 205
полков@@ 205
стом 205
465 204
Ford 204
GA 204
Mu@@ 204
Paul 204
Phil@@ 204
SH@@ 204
Santa 204
Var@@ 204
Web@@ 204
gin@@ 204
Ъ 204
вами 204
зависимости 204
тни@@ 204
358 203
87@@ 203
Bon@@ 203
Books 203
CR@@ 203
Calli@@ 203
Institute 203
Mess@@ 203
Rev@@ 203
Voice 203
Wor@@ 203
inter@@ 203
odi@@ 203
издал 203
пар 203
революции 203
стадии 203
401 202
456 202
EA 202
Films 202
Italia 202
Jean 202
Post 202
Tom@@ 202
ado 202
ful@@ 202
su 202
tos 202
деся@@ 202
длин@@ 202
княз@@ 202
управления 202
школ@@ 202
Pres@@ 201
Sweet 201
ater 201
back 201
center 201
ese 201
esh@@ 201
rit@@ 201
sum@@ 201
Маль@@ 201
ѭ 201
319 200
366 200
710 200
910 200
Chel@@ 200
Fu@@ 200
Jonas 200
Rolling 200
Sen@@ 200
Three 200
gig@@ 200
ich 200
iger 200
ology 200
pen@@ 200
port 200
vis 200
ě@@ 200
командо@@ 200
ль 200
стера 200
29.@@ 199
394 199
Academy 199
Astr@@ 199
Aut@@ 199
Computer 199
Cop@@ 199
Eyes 199
Head 199
Hom@@ 199
More 199
TO@@ 199
WG 199
enn@@ 199
sia 199
æ@@ 199
Ω@@ 199
Мадри@@ 199
ганда 199
заня@@ 199
изпол@@ 199
поселения 199
рами 199
тр 199
277 198
432 198
508 198
AU 198
Cinema 198
N.@@ 198
Sea 198
Sper@@ 198
acc@@ 198
anidae 198
atio 198
ful 198
up 198
x86 198
Зол@@ 198
праж@@ 198
291 197
770 197
Away 197
Ray 197
Right 197
TC 197
app@@ 197
aus 197
ement 197
eros 197
mol@@ 197
sii 197
uma 197
Твер@@ 197
26.@@ 196
458 196
DP 196
Dor@@ 196
EV@@ 196
Gate 196
Pop 196
Rain 196
Spe@@ 196
Un 196
dy@@ 196
fin@@ 196
ign@@ 196
land@@ 196
print@@ 196
ά 196
одеж@@ 196
341 195
353 195
930 195
Phal@@ 195
Point 195
Sm@@ 195
chin@@ 195
chlor@@ 195
cula 195
hu@@ 195
sac@@ 195
trix 195
uk@@ 195
γ@@ 195
Башкортостан 195
контракт 195
пой 195
417 194
479 194
775 194
95@@ 194
CV@@ 194
If 194
Ru@@ 194
adr@@ 194
ats 194
ellidae 194
emis 194
ins@@ 194
los 194
quit@@ 194
Ивана 194
масте@@ 194
ѧ@@ 194
486 193
740 193
911 193
Asp@@ 193
Benz 193
Comedy 193
ES 193
PC@@ 193
Samsung 193
cid@@ 193
gran@@ 193
non@@ 193
ocy@@ 193
κα@@ 193
евка 193
жали 193
лн 193
телеви@@ 193
585 192
777 192
ARC 192
Bab@@ 192
Bas@@ 192
Chrom@@ 192
Cul@@ 192
Dog@@ 192
FF 192
Green 192
History 192
League 192
Lost 192
Som@@ 192
Van@@ 192
Vista 192
Ze@@ 192
grandi@@ 192
inf@@ 192
its 192
ng 192
rostr@@ 192
spin@@ 192
ush 192
войн 192
нике 192
стоял 192
тече@@ 192
् 192
007 191
5,7 191
999 191
B.@@ 191
Hon@@ 191
Standard 191
acul@@ 191
idus 191
lob@@ 191
ō 191
В.@@ 191
Горо@@ 191
е. 191
приготов@@ 191
.н. 190
552 190
DM 190
Fin@@ 190
Gesellschaft 190
Jo@@ 190
Luc@@ 190
austr@@ 190
dy 190
ling 190
men@@ 190
mol 190
onis 190
otes 190
ul 190
ye 190
ина@@ 190
нъ@@ 190
плей 190
ципа@@ 190
шали 190
.1 189
403 189
464 189
875 189
969 189
Control 189
Factory 189
Forever 189
Lei@@ 189
MP 189
Maiden 189
Master 189
NT 189
Non 189
Sec@@ 189
South 189
Tran@@ 189
Tu@@ 189
asp@@ 189
inger 189
occ@@ 189
van 189
кирпи@@ 189
1.1 188
Austr@@ 188
BE 188
Beautiful 188
Das 188
ET 188
Got 188
IV@@ 188
Land 188
Mis@@ 188
RFC 188
SD@@ 188
Under 188
alli@@ 188
cy@@ 188
esia 188
kl@@ 188
ny 188
sw@@ 188
ten 188
type 188
uz@@ 188
wal@@ 188
ze@@ 188
ο@@ 188
Тамбо@@ 188
Уиля@@ 188
Япо@@ 188
дут 188
неме@@ 188
тех 188
411 187
681 187
705 187
Daily 187
NWA 187
Oracle 187
Stre@@ 187
UFC 187
Wall 187
onom@@ 187
ophorus 187
vel@@ 187
ζ@@ 187
ρ@@ 187
дрин 187
рубе@@ 187
треб@@ 187
424 186
445 186
690 186
A1 186
Children 186
Dam@@ 186
Gl@@ 186
Hyper@@ 186
IG@@ 186
Mem@@ 186
Motor@@ 186
SM@@ 186
TE 186
atica 186
bran@@ 186
gal@@ 186
ns 186
ond@@ 186
ory 186
tric@@ 186
ust 186
ì@@ 186
Екатери@@ 186
голя@@ 186
отвер@@ 186
присвоено 186
сой 186
843 185
907 185
Autom@@ 185
BB 185
Cle@@ 185
EN 185
EP@@ 185
GmbH 185
Sabbath 185
ains 185
art 185
bier 185
https 185
ji 185
light 185
opidae 185
pter@@ 185
self 185
set 185
tim@@ 185
ā 185
Оренбург@@ 185
ками 185
373 184
All@@ 184
Chart 184
East 184
FS 184
Golden 184
Mercedes 184
Moon 184
PR@@ 184
Rh@@ 184
abilis 184
air@@ 184
cli@@ 184
com 184
gh@@ 184
value 184
393 183
422 183
429 183
575 183
815 183
Aqu@@ 183
BS 183
Cup 183
Eng@@ 183
MD@@ 183
Ruby 183
Script 183
Two 183
chilus 183
ect@@ 183
function 183
hor@@ 183
isa 183
mani 183
oll@@ 183
vi 183
Оль@@ 183
уде@@ 183
01.@@ 182
414 182
6. 182
996 182
About 182
Apache 182
IEEE 182
PR 182
XL@@ 182
cher 182
das 182
lex 182
oridae 182
rix 182
Ζ@@ 182
Арх@@ 182
жет 182
следо@@ 182
ством 182
шю@@ 182
45,@@ 181
888 181
Born 181
R.@@ 181
Songs 181
Tak@@ 181
WA 181
aus@@ 181
ein 181
ml 181
rho@@ 181
Исто@@ 181
Неме@@ 181
мирович 181
напада@@ 181
339 180
347 180
Age 180
Am 180
Amp@@ 180
Ban@@ 180
Bay 180
EMI 180
Sports 180
day 180
eca 180
esa 180
ier@@ 180
ish@@ 180
men 180
not 180
oto 180
ulg@@ 180
Феодо@@ 180
брово 180
дерев@@ 180
если 180
раун@@ 180
сента 180
ссе@@ 180
ა@@ 180
30.@@ 179
349 179
388 179
449 179
474 179
625 179
CM@@ 179
Christmas 179
ER 179
Ec@@ 179
Human 179
Series 179
ento 179
hol@@ 179
kon@@ 179
Заслу@@ 179
Костро@@ 179
буль@@ 179
гой 179
дах 179
лосо@@ 179
люд@@ 179
нив 179
3.5 178
472 178
814 178
Aeg@@ 178
DF 178
GM 178
Good@@ 178
Side 178
agon@@ 178
bian 178
da@@ 178
imus 178
iter 178
iti 178
lati@@ 178
oris 178
ov 178
tiv@@ 178
uck 178
ε@@ 178
бакалавър@@ 178
ждена 178
одно 178
њ@@ 178
396 177
515 177
Ann@@ 177
Bet@@ 177
Bit@@ 177
CT 177
Lat@@ 177
NA 177
Stor@@ 177
Syl@@ 177
Wide 177
eme 177
enc@@ 177
head 177
wi@@ 177
γ 177
сержан@@ 177
стя 177
фамили@@ 177
329 176
369 176
421 176
44,@@ 176
801 176
Fall 176
Kal@@ 176
LP 176
Management 176
Morning 176
Pep@@ 176
Technology 176
Ther@@ 176
apia 176
else 176
ocr@@ 176
ogn@@ 176
sul@@ 176
udi@@ 176
Магда@@ 176
воль@@ 176
километров 176
позволило 176
сту 176
тея 176
і 176
348 175
49,@@ 175
605 175
Dog 175
Dre@@ 175
EC@@ 175
Mr. 175
Rel@@ 175
Rho@@ 175
Rob@@ 175
Sam@@ 175
Sex@@ 175
ate@@ 175
bin@@ 175
ines 175
more 175
occus 175
pres@@ 175
top@@ 175
wa 175
Θ@@ 175
мероприя@@ 175
″ 175
602 174
Again 174
Child 174
Dr. 174
Ky@@ 174
Modern 174
Ra@@ 174
Sofia 174
dal@@ 174
duc@@ 174
gio 174
ku@@ 174
pil@@ 174
star 174
wood 174
Вероя@@ 174
джет 174
ември 174
ологии 174
потен@@ 174
сом@@ 174
199@@ 173
Comp@@ 173
EF@@ 173
Fiat 173
Impact 173
MGM 173
Men 173
Tim@@ 173
atin@@ 173
boy 173
cili@@ 173
ho 173
ome@@ 173
org@@ 173
osoma 173
phr@@ 173
sar@@ 173
ung 173
Ι 173
οβ@@ 173
вии 173
гласно 173
ской 173
419 172
Act 172
Cryp@@ 172
Ere@@ 172
LCD 172
Net 172
Petr@@ 172
RCA 172
Sex 172
Vic@@ 172
für 172
ili 172
meg@@ 172
pf@@ 172
private 172
tura 172
ures 172
Э@@ 172
Ярослав@@ 172
зеку@@ 172
работки 172
реи 172
фалц 172
шате@@ 172
ї@@ 172
389 171
428 171
439 171
484 171
501 171
506 171
507 171
532 171
Alo@@ 171
Brown 171
Ic@@ 171
Ol@@ 171
Store 171
Year 171
estr@@ 171
ett@@ 171
nat@@ 171
well 171
Вологод@@ 171
499 170
925 170
Aph@@ 170
CR 170
Ir@@ 170
Pseudo@@ 170
Wh@@ 170
Will 170
ash@@ 170
dol@@ 170
ew@@ 170
ika 170
mic@@ 170
orient@@ 170
pec@@ 170
utt@@ 170
via 170
width 170
Δήμος 170
иско@@ 170
мое 170
сипе@@ 170
фол@@ 170
196@@ 169
391 169
399 169
423 169
444 169
471 169
50,@@ 169
AK@@ 169
D.@@ 169
Martin 169
Mind 169
O4 169
Set@@ 169
Vol 169
avi@@ 169
com. 169
ego 169
face 169
hab@@ 169
idi@@ 169
onal@@ 169
ruf@@ 169
section 169
ski 169
wo@@ 169
Σ 169
брехт 169
453 168
496 168
AF@@ 168
[...]
