{"version":"1.0","truncation":null,"padding":null,"added_tokens":[{"id":0,"special":true,"content":"[PAD]","single_word":false,"lstrip":false,"rstrip":false,"normalized":false},{"id":1,"special":true,"content":"[SOS]","single_word":false,"lstrip":false,"rstrip":false,"normalized":false},{"id":2,"special":true,"content":"[EOS]","single_word":false,"lstrip":false,"rstrip":false,"normalized":false},{"id":3,"special":true,"content":"[UNK]","single_word":false,"lstrip":false,"rstrip":false,"normalized":false},{"id":4,"special":true,"content":"[MASK]","single_word":false,"lstrip":false,"rstrip":false,"normalized":false}],"normalizer":null,"pre_tokenizer":{"type":"Whitespace"},"post_processor":null,"decoder":null,"model":{"type":"BPE","dropout":null,"unk_token":null,"continuing_subword_prefix":"@@","end_of_word_suffix":null,"fuse_unk":false,"vocab":{"[PAD]":0,"[SOS]":1,"[EOS]":2,"[UNK]":3,"[MASK]":4,"!":5,"\"":6,"#":7,"$":8,"%":9,"&":10,"'":11,"(":12,")":13,"*":14,"+":15,",":16,"-":17,".":18,"/":19,"0":20,"1":21,"2":22,"3":23,"4":24,"5":25,"6":26,"7":27,"8":28,"9":29,":":30,";":31,"<":32,"=":33,">":34,"?":35,"@":36,"A":37,"B":38,"C":39,"D":40,"E":41,"F":42,"G":43,"H":44,"I":45,"J":46,"K":47,"L":48,"M":49,"N":50,"O":51,"P":52,"Q":53,"R":54,"S":55,"T":56,"U":57,"V":58,"W":59,"X":60,"Y":61,"Z":62,"[":63,"\\":64,"]":65,"^":66,"_":67,"`":68,"a":69,"b":70,"c":71,"d":72,"e":73,"f":74,"g":75,"h":76,"i":77,"j":78,"k":79,"l":80,"m":81,"n":82,"o":83,"p":84,"q":85,"r":86,"s":87,"t":88,"u":89,"v":90,"w":91,"x":92,"y":93,"z":94,"{":95,"|":96,"}":97,"~":98,"¡":99,"¢":100,"£":101,"¤":102,"¥":103,"¦":104,"§":105,"¨":106,"©":107,"ª":108,"«":109,"¬":110,"®":111,"¯":112,"°":113,"±":114,"²":115,"³":116,"´":117,"µ":118,"¶":119,"·":120,"¸":121,"¹":122,"º":123,"»":124,"¼":125,"½":126,"¾":127,"¿":128,"À":129,"Á":130,"Â":131,"Ã":132,"Ä":133,"Å":134,"Æ":135,"Ç":136,"È":137,"É":138,"Ê":139,"Ë":140,"Ì":141,"Í":142,"Î":143,"Ï":144,"Ð":145,"Ñ":146,"Ò":147,"Ó":148,"Ô":149,"Õ":150,"Ö":151,"×":152,"Ø":153,"Ù":154,"Ú":155,"Û":156,"Ü":157,"Ý":158,"Þ":159,"ß":160,"à":161,"á":162,"â":163,"ã":164,"ä":165,"å":166,"æ":167,"ç":168,"è":169,"é":170,"ê":171,"ë":172,"ì":173,"í":174,"î":175,"ï":176,"ð":177,"ñ":178,"ò":179,"ó":180,"ô":181,"õ":182,"ö":183,"÷":184,"ø":185,"ù":186,"ú":187,"û":188,"ü":189,"ý":190,"þ":191,"ÿ":192,"Ā":193,"ā":194,"Ă":195,"ă":196,"Ą":197,"ą":198,"Ć":199,"ć":200,"Ĉ":201,"ĉ":202,"Ċ":203,"ċ":204,"Č":205,"č":206,"Ď":207,"ď":208,"Đ":209,"đ":210,"Ē":211,"ē":212,"Ĕ":213,"ĕ":214,"Ė":215,"ė":216,"Ę":217,"ę":218,"Ě":219,"ě":220,"Ĝ":221,"ĝ":222,"Ğ":223,"ğ":224,"Ġ":225,"ġ":226,"Ģ":227,"ģ":228,"Ĥ":229,"ĥ":230,"Ħ":231,"ħ":232,"Ĩ":233,"ĩ":234,"Ī":235,"ī":236,"Ĭ":237,"ĭ":238,"Į":239,"į":240,"İ":241,"ı":242,"Ĳ":243,"ĳ":244,"Ĵ":245,"ĵ":246,"Ķ":247,"ķ":248,"ĸ":249,"Ĺ":250,"ĺ":251,"Ļ":252,"ļ":253,"Ľ":254,"ľ":255,"Ŀ":256,"ŀ":257,"Ł":258,"ł":259,"Ń":260,"ń":261,"Ņ":262,"ņ":263,"Ň":264,"ň":265,"ŋ":266,"Ō":267,"ō":268,"ŏ":269,"Ő":270,"ő":271,"Œ":272,"œ":273,"Ŕ":274,"ŕ":275,"Ř":276,"ř":277,"Ś":278,"ś":279,"Ŝ":280,"ŝ":281,"Ş":282,"ş":283,"Š":284,"š":285,"Ţ":286,"ţ":287,"Ť":288,"ť":289,"ũ":290,"Ū":291,"ū":292,"ŭ":293,"Ů":294,"ů":295,"Ű":296,"ű":297,"Ų":298,"ų":299,"ŵ":300,"ŷ":301,"Ÿ":302,"Ź":303,"ź":304,"Ż":305,"ż":306,"Ž":307,"ž":308,"ſ":309,"Ɔ":310,"Ƒ":311,"ƒ":312,"Ɠ":313,"Ɩ":314,"Ƙ":315,"ƛ":316,"Ɲ":317,"Ơ":318,"ơ":319,"Ʀ":320,"Ƭ":321,"ư":322,"ǎ":323,"ǐ":324,"ǒ":325,"ǔ":326,"ǣ":327,"Ǵ":328,"ǵ":329,"Ǻ":330,"ȃ":331,"ș":332,"ț":333,"Ȥ":334,"Ȼ":335,"ɐ":336,"ɑ":337,"ɒ":338,"ɔ":339,"ə":340,"ɚ":341,"ɛ":342,"ɜ":343,"ɡ":344,"ɨ":345,"ɪ":346,"ɫ":347,"ɬ":348,"ɯ":349,"ɴ":350,"ɵ":351,"ɹ":352,"ɾ":353,"ʀ":354,"ʃ":355,"ʊ":356,"ʌ":357,"ʐ":358,"ʒ":359,"ʔ":360,"ʚ":361,"ʤ":362,"ʦ":363,"ʲ":364,"ʺ":365,"ʻ":366,"ʼ":367,"ʾ":368,"ʿ":369,"ˆ":370,"ˇ":371,"ˈ":372,"ˌ":373,"ː":374,"˘":375,"˙":376,"˚":377,"˛":378,"˜":379,"˝":380,"ˡ":381,"̀":382,"́":383,"̂":384,"̃":385,"̆":386,"̇":387,"̈":388,"̍":389,"̣":390,"̤":391,"̧":392,"̯":393,"̱":394,"̶":395,"͘":396,"͡":397,";":398,"΄":399,"Ά":400,"Έ":401,"Ί":402,"Ό":403,"Ώ":404,"ΐ":405,"Α":406,"Β":407,"Γ":408,"Δ":409,"Ε":410,"Ζ":411,"Η":412,"Θ":413,"Ι":414,"Κ":415,"Λ":416,"Μ":417,"Ν":418,"Ο":419,"Π":420,"Ρ":421,"Σ":422,"Τ":423,"Υ":424,"Φ":425,"Χ":426,"Ω":427,"ά":428,"έ":429,"ή":430,"ί":431,"α":432,"β":433,"γ":434,"δ":435,"ε":436,"ζ":437,"η":438,"θ":439,"ι":440,"κ":441,"λ":442,"μ":443,"ν":444,"ξ":445,"ο":446,"π":447,"ρ":448,"ς":449,"σ":450,"τ":451,"υ":452,"φ":453,"χ":454,"ψ":455,"ω":456,"ϊ":457,"ϋ":458,"ό":459,"ύ":460,"ώ":461,"Ё":462,"Ђ":463,"Ѓ":464,"Є":465,"Ѕ":466,"І":467,"Ї":468,"Ј":469,"Љ":470,"Њ":471,"Ћ":472,"Ќ":473,"Ў":474,"Џ":475,"А":476,"Б":477,"В":478,"Г":479,"Д":480,"Е":481,"Ж":482,"З":483,"И":484,"Й":485,"К":486,"Л":487,"М":488,"Н":489,"О":490,"П":491,"Р":492,"С":493,"Т":494,"У":495,"Ф":496,"Х":497,"Ц":498,"Ч":499,"Ш":500,"Щ":501,"Ъ":502,"Ы":503,"Ь":504,"Э":505,"Ю":506,"Я":507,"а":508,"б":509,"в":510,"г":511,"д":512,"е":513,"ж":514,"з":515,"и":516,"й":517,"к":518,"л":519,"м":520,"н":521,"о":522,"п":523,"р":524,"с":525,"т":526,"у":527,"ф":528,"х":529,"ц":530,"ч":531,"ш":532,"щ":533,"ъ":534,"ы":535,"ь":536,"э":537,"ю":538,"я":539,"ё":540,"ђ":541,"ѓ":542,"є":543,"ѕ":544,"і":545,"ї":546,"ј":547,"љ":548,"њ":549,"ћ":550,"ќ":551,"ў":552,"џ":553,"Ѳ":554,"ѳ":555,"Ґ":556,"ґ":557,"ғ":558,"ҙ":559,"қ":560,"Ҡ":561,"ҡ":562,"ң":563,"ү":564,"ұ":565,"Ҳ":566,"ҳ":567,"һ":568,"ә":569,"ө":570,"ְ":571,"ֲ":572,"ֳ":573,"ִ":574,"ֵ":575,"ַ":576,"ָ":577,"ֹ":578,"ּ":579,"ֿ":580,"ׁ":581,"א":582,"ב":583,"ג":584,"ד":585,"ה":586,"ו":587,"ז":588,"ח":589,"ט":590,"י":591,"כ":592,"ל":593,"ם":594,"מ":595,"ן":596,"נ":597,"ס":598,"ע":599,"פ":600,"ץ":601,"צ":602,"ק":603,"ר":604,"ש":605,"ת":606,"،":607,"ؒ":608,"؛":609,"ء":610,"آ":611,"أ":612,"ؤ":613,"إ":614,"ئ":615,"ا":616,"ب":617,"ة":618,"ت":619,"ث":620,"ج":621,"ح":622,"خ":623,"د":624,"ذ":625,"ر":626,"ز":627,"س":628,"ش":629,"ص":630,"ض":631,"ط":632,"ظ":633,"ع":634,"غ":635,"ـ":636,"ف":637,"ق":638,"ك":639,"ل":640,"م":641,"ن":642,"ه":643,"و":644,"ى":645,"ي":646,"ً":647,"ٌ":648,"َ":649,"ُ":650,"ِ":651,"ّ":652,"ْ":653,"ټ":654,"پ":655,"ځ":656,"چ":657,"ک":658,"ڭ":659,"گ":660,"ھ":661,"ہ":662,"ۂ":663,"ۆ":664,"ۇ":665,"ی":666,"ې":667,"۞":668,"۩":669,"۰":670,"۱":671,"۲":672,"۳":673,"۴":674,"۵":675,"۶":676,"۷":677,"۸":678,"۹":679,"ߖ":680,"ߧ":681,"߮":682,"ं":683,"अ":684,"आ":685,"ई":686,"क":687,"ग":688,"च":689,"छ":690,"ज":691,"ञ":692,"ट":693,"ड":694,"ढ":695,"ण":696,"त":697,"थ":698,"द":699,"ध":700,"न":701,"प":702,"ब":703,"भ":704,"म":705,"य":706,"र":707,"ल":708,"व":709,"श":710,"ष":711,"स":712,"ह":713,"़":714,"ा":715,"ि":716,"ी":717,"ु":718,"े":719,"ो":720,"्":721,"ॐ":722,"०":723,"१":724,"२":725,"३":726,"५":727,"९":728,"আ":729,"ই":730,"এ":731,"ক":732,"গ":733,"চ":734,"ট":735,"ন":736,"প":737,"ব":738,"ম":739,"য":740,"র":741,"ল":742,"হ":743,"়":744,"া":745,"ি":746,"ু":747,"ো":748,"্":749,"ਗ":750,"ਚ":751,"ਡ":752,"ਹ":753,"ੀ":754,"੍":755,"ੜ":756,"ੰ":757,"૦":758,"૧":759,"૨":760,"க":761,"ங":762,"ச":763,"ட":764,"த":765,"ன":766,"ப":767,"ம":768,"ய":769,"ர":770,"வ":771,"ஷ":772,"ா":773,"ி":774,"ு":775,"ூ":776,"ெ":777,"ை":778,"ோ":779,"்":780,"ಐ":781,"ಯ":782,"ರ":783,"ವ":784,"ಶ":785,"ಾ":786,"ೆ":787,"ೈ":788,"್":789,"ೖ":790,"೦":791,"೧":792,"೨":793,"೩":794,"೫":795,"೬":796,"೮":797,"೯":798,"ക":799,"ദ":800,"പ":801,"ല":802,"വ":803,"ഷ":804,"ീ":805,"്":806,"න":807,"ම":808,"ර":809,"ව":810,"හ":811,"ු":812,"ก":813,"ข":814,"ค":815,"ฆ":816,"ง":817,"จ":818,"ฉ":819,"ช":820,"ซ":821,"ญ":822,"ฎ":823,"ฏ":824,"ฑ":825,"ณ":826,"ด":827,"ต":828,"ถ":829,"ท":830,"ธ":831,"น":832,"บ":833,"ป":834,"ผ":835,"ฝ":836,"พ":837,"ฟ":838,"ภ":839,"ม":840,"ย":841,"ร":842,"ฤ":843,"ล":844,"ว":845,"ศ":846,"ษ":847,"ส":848,"ห":849,"อ":850,"ฮ":851,"ะ":852,"ั":853,"า":854,"ำ":855,"ิ":856,"ี":857,"ึ":858,"ื":859,"ุ":860,"ู":861,"฿":862,"เ":863,"แ":864,"โ":865,"ใ":866,"ไ":867,"ๆ":868,"็":869,"่":870,"้":871,"๊":872,"์":873,"๑":874,"ຄ":875,"ງ":876,"ຈ":877,"ດ":878,"ຖ":879,"ນ":880,"ບ":881,"ມ":882,"ລ":883,"ວ":884,"ັ":885,"າ":886,"ຸ":887,"ຽ":888,"་":889,"ད":890,"བ":891,"ོ":892,"ა":893,"ბ":894,"გ":895,"დ":896,"ე":897,"ვ":898,"თ":899,"ი":900,"კ":901,"ლ":902,"მ":903,"ნ":904,"ო":905,"პ":906,"რ":907,"ს":908,"ტ":909,"უ":910,"ქ":911,"ღ":912,"შ":913,"ც":914,"ხ":915,"ჯ":916,"ህ":917,"ሊ":918,"ል":919,"ሓ":920,"ሕ":921,"መ":922,"ም":923,"ረ":924,"ራ":925,"ር":926,"ሰ":927,"ስ":928,"ሻ":929,"ሽ":930,"ቀ":931,"ቐ":932,"በ":933,"ቢ":934,"ባ":935,"ተ":936,"ት":937,"ቶ":938,"ነ":939,"ን":940,"አ":941,"ኣ":942,"ኤ":943,"እ":944,"ኦ":945,"ካ":946,"ክ":947,"ዋ":948,"ው":949,"ዓ":950,"ዕ":951,"የ":952,"ይ":953,"ደ":954,"ዲ":955,"ገ":956,"ጋ":957,"ጨ":958,"ጽ":959,"ፅ":960,"ፈ":961,"ፍ":962,"፣":963,"ᐃ":964,"ᑦ":965,"ᒃ":966,"ᓄ":967,"ḍ":968,"ḏ":969,"ḥ":970,"ḫ":971,"ḳ":972,"ṃ":973,"ṇ":974,"ṉ":975,"ṛ":976,"ṣ":977,"ṭ":978,"ṳ":979,"ẋ":980,"ạ":981,"ả":982,"ấ":983,"ầ":984,"ẩ":985,"ậ":986,"ắ":987,"ằ":988,"Ẳ":989,"ặ":990,"ẻ":991,"ẽ":992,"ế":993,"ề":994,"ể":995,"ễ":996,"ệ":997,"ỉ":998,"ị":999,"ọ":1000,"ỏ":1001,"ố":1002,"ồ":1003,"ổ":1004,"ộ":1005,"ớ":1006,"ờ":1007,"ở":1008,"ỡ":1009,"ợ":1010,"ụ":1011,"ủ":1012,"ứ":1013,"ừ":1014,"ử":1015,"ữ":1016,"ự":1017,"ỳ":1018,"ỹ":1019,"ἀ":1020,"ἅ":1021,"Ἀ":1022,"ἔ":1023,"Ἔ":1024,"Ἡ":1025,"Ἥ":1026,"ἰ":1027,"Ἱ":1028,"Ὑ":1029,"ά":1030,"ὶ":1031,"ῆ":1032,"ῑ":1033,"ῖ":1034,"ῥ":1035,"ῦ":1036,"‐":1037,"‑":1038,"‒":1039,"―":1040,"‖":1041,"‛":1042,"‟":1043,"†":1044,"‡":1045,"•":1046,"‰":1047,"′":1048,"″":1049,"‶":1050,"‹":1051,"›":1052,"※":1053,"‼":1054,"‽":1055,"⁄":1056,"ⁿ":1057,"₂":1058,"₠":1059,"₣":1060,"₤":1061,"₩":1062,"₪":1063,"€":1064,"₴":1065,"₵":1066,"⃛":1067,"℃":1068,"ℓ":1069,"№":1070,"™":1071,"Ω":1072,"℮":1073,"⅔":1074,"⅛":1075,"⅞":1076,"Ⅱ":1077,"←":1078,"↑":1079,"→":1080,"↓":1081,"↔":1082,"⇒":1083,"⇗":1084,"⇢":1085,"∀":1086,"∈":1087,"−":1088,"√":1089,"∞":1090,"∫":1091,"∴":1092,"∶":1093,"∼":1094,"≈":1095,"≠":1096,"≤":1097,"≥":1098,"≪":1099,"≫":1100,"⋅":1101,"⌃":1102,"⌘":1103,"①":1104,"②":1105,"③":1106,"─":1107,"│":1108,"╚":1109,"╞":1110,"╩":1111,"█":1112,"░":1113,"■":1114,"□":1115,"▪":1116,"▲":1117,"△":1118,"▸":1119,"►":1120,"▼":1121,"◆":1122,"◇":1123,"◈":1124,"◊":1125,"○":1126,"◎":1127,"●":1128,"◙":1129,"◦":1130,"★":1131,"☆":1132,"☎":1133,"☏":1134,"☑":1135,"☺":1136,"☻":1137,"☼":1138,"♀":1139,"♂":1140,"♠":1141,"♣":1142,"♥":1143,"♦":1144,"♪":1145,"♫":1146,"✿":1147,"➔":1148,"➚":1149,"➟":1150,"➲":1151,"Ⰶ":1152,"ⲉ":1153,"ⲟ":1154,"Ⲡ":1155,"ⲣ":1156,"ⲩ":1157,"、":1158,"。":1159,"々":1160,"《":1161,"》":1162,"「":1163,"」":1164,"『":1165,"』":1166,"【":1167,"】":1168,"〔":1169,"〕":1170,"〜":1171,"あ":1172,"ぃ":1173,"い":1174,"う":1175,"え":1176,"お":1177,"か":1178,"が":1179,"き":1180,"ぎ":1181,"く":1182,"ぐ":1183,"け":1184,"げ":1185,"こ":1186,"ご":1187,"さ":1188,"ざ":1189,"し":1190,"じ":1191,"す":1192,"ず":1193,"せ":1194,"ぜ":1195,"そ":1196,"ぞ":1197,"た":1198,"だ":1199,"ち":1200,"ぢ":1201,"っ":1202,"つ":1203,"づ":1204,"て":1205,"で":1206,"と":1207,"ど":1208,"な":1209,"に":1210,"ぬ":1211,"ね":1212,"の":1213,"は":1214,"ば":1215,"ひ":1216,"び":1217,"ふ":1218,"ぶ":1219,"ぷ":1220,"へ":1221,"べ":1222,"ほ":1223,"ぼ":1224,"ま":1225,"み":1226,"む":1227,"め":1228,"も":1229,"や":1230,"ゆ":1231,"ょ":1232,"よ":1233,"ら":1234,"り":1235,"る":1236,"れ":1237,"ろ":1238,"わ":1239,"ゐ":1240,"ゑ":1241,"を":1242,"ん":1243,"゛":1244,"ア":1245,"ィ":1246,"イ":1247,"ゥ":1248,"ウ":1249,"ェ":1250,"エ":1251,"オ":1252,"カ":1253,"ガ":1254,"キ":1255,"ギ":1256,"ク":1257,"グ":1258,"ケ":1259,"ゲ":1260,"コ":1261,"ゴ":1262,"サ":1263,"ザ":1264,"シ":1265,"ジ":1266,"ス":1267,"ズ":1268,"セ":1269,"ゼ":1270,"ソ":1271,"ゾ":1272,"タ":1273,"ダ":1274,"チ":1275,"ッ":1276,"ツ":1277,"テ":1278,"デ":1279,"ト":1280,"ド":1281,"ナ":1282,"ニ":1283,"ヌ":1284,"ネ":1285,"ノ":1286,"ハ":1287,"バ":1288,"パ":1289,"ヒ":1290,"ビ":1291,"ピ":1292,"フ":1293,"ブ":1294,"プ":1295,"ヘ":1296,"ベ":1297,"ペ":1298,"ホ":1299,"ボ":1300,"ポ":1301,"マ":1302,"ミ":1303,"ム":1304,"メ":1305,"モ":1306,"ャ":1307,"ヤ":1308,"ュ":1309,"ユ":1310,"ョ":1311,"ヨ":1312,"ラ":1313,"リ":1314,"ル":1315,"レ":1316,"ロ":1317,"ワ":1318,"ン":1319,"ヴ":1320,"・":1321,"ー":1322,"ㄤ":1323,"ㄧ":1324,"ㅣ":1325,"㎡":1326,"䟩":1327,"一":1328,"七":1329,"万":1330,"丈":1331,"三":1332,"上":1333,"下":1334,"不":1335,"与":1336,"世":1337,"丘":1338,"东":1339,"两":1340,"丨":1341,"个":1342,"中":1343,"丸":1344,"丹":1345,"为":1346,"主":1347,"丽":1348,"举":1349,"久":1350,"义":1351,"之":1352,"乌":1353,"乎":1354,"乏":1355,"乐":1356,"乗":1357,"乙":1358,"九":1359,"习":1360,"书":1361,"了":1362,"事":1363,"二":1364,"于":1365,"云":1366,"互":1367,"五":1368,"井":1369,"亚":1370,"些":1371,"亜":1372,"交":1373,"产":1374,"京":1375,"人":1376,"亿":1377,"什":1378,"仁":1379,"今":1380,"从":1381,"付":1382,"仙":1383,"代":1384,"以":1385,"仪":1386,"仮":1387,"仲":1388,"件":1389,"价":1390,"伊":1391,"伎":1392,"会":1393,"伝":1394,"伟":1395,"传":1396,"伦":1397,"伯":1398,"伴":1399,"伸":1400,"但":1401,"位":1402,"住":1403,"佐":1404,"佑":1405,"体":1406,"何":1407,"余":1408,"作":1409,"你":1410,"佰":1411,"侍":1412,"依":1413,"便":1414,"俄":1415,"俊":1416,"保":1417,"信":1418,"修":1419,"倉":1420,"倍":1421,"倒":1422,"假":1423,"做":1424,"健":1425,"備":1426,"储":1427,"働":1428,"儀":1429,"儉":1430,"元":1431,"先":1432,"光":1433,"克":1434,"免":1435,"入":1436,"全":1437,"八":1438,"公":1439,"六":1440,"共":1441,"关":1442,"兵":1443,"其":1444,"具":1445,"内":1446,"冊":1447,"写":1448,"农":1449,"冤":1450,"决":1451,"况":1452,"冷":1453,"净":1454,"凄":1455,"准":1456,"凍":1457,"几":1458,"出":1459,"分":1460,"切":1461,"列":1462,"刘":1463,"则":1464,"刚":1465,"別":1466,"刨":1467,"利":1468,"别":1469,"到":1470,"制":1471,"則":1472,"前":1473,"剑":1474,"剣":1475,"剥":1476,"副":1477,"割":1478,"劇":1479,"力":1480,"功":1481,"加":1482,"务":1483,"动":1484,"助":1485,"势":1486,"動":1487,"勝":1488,"勢":1489,"勧":1490,"勿":1491,"包":1492,"化":1493,"北":1494,"匡":1495,"匹":1496,"区":1497,"医":1498,"匿":1499,"十":1500,"千":1501,"华":1502,"协":1503,"卓":1504,"单":1505,"卖":1506,"南":1507,"博":1508,"卡":1509,"卦":1510,"危":1511,"却":1512,"厂":1513,"原":1514,"去":1515,"县":1516,"参":1517,"及":1518,"友":1519,"反":1520,"发":1521,"取":1522,"受":1523,"变":1524,"口":1525,"古":1526,"只":1527,"叫":1528,"可":1529,"台":1530,"史":1531,"右":1532,"号":1533,"司":1534,"吃":1535,"合":1536,"吉":1537,"吊":1538,"名":1539,"后":1540,"向":1541,"吗":1542,"君":1543,"否":1544,"吧":1545,"听":1546,"吴":1547,"吸":1548,"吹":1549,"吾":1550,"呀":1551,"呂":1552,"呆":1553,"告":1554,"呑":1555,"周":1556,"味":1557,"呼":1558,"和":1559,"咬":1560,"哈":1561,"員":1562,"哲":1563,"唐":1564,"售":1565,"唸":1566,"商":1567,"問":1568,"啤":1569,"啦":1570,"喜":1571,"嘉":1572,"嘛":1573,"嘟":1574,"器":1575,"四":1576,"回":1577,"団":1578,"囧":1579,"园":1580,"固":1581,"国":1582,"图":1583,"圆":1584,"國":1585,"圍":1586,"圓":1587,"土":1588,"在":1589,"地":1590,"圳":1591,"场":1592,"坊":1593,"坐":1594,"型":1595,"垣":1596,"城":1597,"基":1598,"堂":1599,"報":1600,"場":1601,"塔":1602,"塗":1603,"塾":1604,"墟":1605,"壊":1606,"士":1607,"壮":1608,"売":1609,"壳":1610,"处":1611,"备":1612,"変":1613,"夕":1614,"外":1615,"多":1616,"大":1617,"天":1618,"太":1619,"夫":1620,"央":1621,"头":1622,"夷":1623,"夹":1624,"奇":1625,"奈":1626,"奉":1627,"套":1628,"奚":1629,"奥":1630,"女":1631,"奶":1632,"奸":1633,"好":1634,"如":1635,"妖":1636,"妻":1637,"始":1638,"姦":1639,"娃":1640,"娥":1641,"娱":1642,"婁":1643,"媛":1644,"子":1645,"字":1646,"存":1647,"季":1648,"学":1649,"孴":1650,"學":1651,"宁":1652,"宇":1653,"安":1654,"宏":1655,"宗":1656,"官":1657,"定":1658,"宜":1659,"宝":1660,"实":1661,"実":1662,"客":1663,"宣":1664,"宫":1665,"宮":1666,"家":1667,"容":1668,"宿":1669,"寄":1670,"密":1671,"寤":1672,"寧":1673,"寨":1674,"寶":1675,"寸":1676,"对":1677,"寺":1678,"寿":1679,"専":1680,"将":1681,"小":1682,"少":1683,"尔":1684,"尘":1685,"就":1686,"尾":1687,"尿":1688,"局":1689,"屄":1690,"居":1691,"屈":1692,"届":1693,"屋":1694,"屏":1695,"属":1696,"山":1697,"屿":1698,"岐":1699,"岗":1700,"岡":1701,"岩":1702,"岭":1703,"岷":1704,"島":1705,"崎":1706,"崔":1707,"崩":1708,"嵥":1709,"嶺":1710,"嶼":1711,"川":1712,"州":1713,"左":1714,"巧":1715,"己":1716,"巴":1717,"巻":1718,"市":1719,"布":1720,"师":1721,"希":1722,"帝":1723,"帥":1724,"常":1725,"幌":1726,"干":1727,"平":1728,"年":1729,"幸":1730,"幹":1731,"幾":1732,"广":1733,"庁":1734,"広":1735,"庄":1736,"庆":1737,"应":1738,"底":1739,"店":1740,"庚":1741,"府":1742,"度":1743,"庫":1744,"康":1745,"廣":1746,"建":1747,"开":1748,"弁":1749,"弄":1750,"式":1751,"弔":1752,"引":1753,"张":1754,"弦":1755,"張":1756,"强":1757,"当":1758,"形":1759,"彩":1760,"彭":1761,"彰":1762,"影":1763,"役":1764,"彻":1765,"彼":1766,"征":1767,"很":1768,"律":1769,"後":1770,"徒":1771,"得":1772,"復":1773,"微":1774,"徳":1775,"德":1776,"徹":1777,"心":1778,"必":1779,"忆":1780,"忍":1781,"志":1782,"応":1783,"快":1784,"念":1785,"态":1786,"怒":1787,"思":1788,"怡":1789,"急":1790,"性":1791,"怪":1792,"恢":1793,"恵":1794,"悟":1795,"悠":1796,"您":1797,"悩":1798,"悪":1799,"情":1800,"惑":1801,"惠":1802,"惧":1803,"惯":1804,"想":1805,"意":1806,"愛":1807,"慈":1808,"態":1809,"慢":1810,"慣":1811,"慶":1812,"憎":1813,"憨":1814,"憶":1815,"憾":1816,"成":1817,"我":1818,"戒":1819,"戴":1820,"戶":1821,"户":1822,"戸":1823,"所":1824,"扈":1825,"手":1826,"才":1827,"打":1828,"找":1829,"承":1830,"技":1831,"投":1832,"折":1833,"抜":1834,"护":1835,"报":1836,"押":1837,"担":1838,"拉":1839,"拓":1840,"拟":1841,"择":1842,"括":1843,"拳":1844,"拼":1845,"拿":1846,"持":1847,"挂":1848,"指":1849,"挡":1850,"振":1851,"损":1852,"据":1853,"捷":1854,"掉":1855,"排":1856,"掛":1857,"探":1858,"接":1859,"控":1860,"掻":1861,"揂":1862,"揃":1863,"提":1864,"換":1865,"握":1866,"援":1867,"搅":1868,"損":1869,"搞":1870,"摂":1871,"摇":1872,"摩":1873,"撫":1874,"撮":1875,"操":1876,"支":1877,"收":1878,"攻":1879,"放":1880,"政":1881,"故":1882,"敏":1883,"救":1884,"教":1885,"散":1886,"数":1887,"整":1888,"文":1889,"斗":1890,"料":1891,"新":1892,"方":1893,"施":1894,"旅":1895,"旋":1896,"族":1897,"无":1898,"日":1899,"旭":1900,"时":1901,"昇":1902,"明":1903,"易":1904,"星":1905,"映":1906,"春":1907,"昭":1908,"是":1909,"显":1910,"時":1911,"晏":1912,"晨":1913,"普":1914,"景":1915,"智":1916,"暂":1917,"暫":1918,"暴":1919,"曌":1920,"曝":1921,"更":1922,"書":1923,"曾":1924,"最":1925,"月":1926,"有":1927,"朗":1928,"望":1929,"朝":1930,"木":1931,"末":1932,"本":1933,"札":1934,"术":1935,"朱":1936,"机":1937,"李":1938,"杏":1939,"材":1940,"村":1941,"条":1942,"来":1943,"杨":1944,"東":1945,"松":1946,"板":1947,"林":1948,"果":1949,"架":1950,"染":1951,"查":1952,"柱":1953,"柴":1954,"树":1955,"校":1956,"株":1957,"栽":1958,"桂":1959,"框":1960,"桶":1961,"梁":1962,"梅":1963,"检":1964,"森":1965,"棲":1966,"椅":1967,"植":1968,"検":1969,"楠":1970,"業":1971,"極":1972,"楼":1973,"楽":1974,"樓":1975,"標":1976,"模":1977,"横":1978,"樹":1979,"機":1980,"檀":1981,"次":1982,"欢":1983,"款":1984,"歌":1985,"止":1986,"正":1987,"此":1988,"步":1989,"武":1990,"歩":1991,"死":1992,"殊":1993,"段":1994,"殷":1995,"殻":1996,"殿":1997,"毁":1998,"毓":1999,"比":2000,"毛":2001,"氏":2002,"民":2003,"气":2004,"気":2005,"氣":2006,"水":2007,"氷":2008,"求":2009,"汇":2010,"汉":2011,"汕":2012,"江":2013,"汤":2014,"汴":2015,"決":2016,"沙":2017,"沛":2018,"没":2019,"沢":2020,"沪":2021,"沱":2022,"油":2023,"治":2024,"況":2025,"泉":2026,"泊":2027,"法":2028,"波":2029,"泥":2030,"注":2031,"泰":2032,"泽":2033,"洋":2034,"洒":2035,"洛":2036,"洞":2037,"洪":2038,"活":2039,"派":2040,"流":2041,"测":2042,"济":2043,"浙":2044,"浜":2045,"浦":2046,"浮":2047,"浴":2048,"海":2049,"涂":2050,"消":2051,"淫":2052,"深":2053,"混":2054,"淹":2055,"清":2056,"済":2057,"渋":2058,"渝":2059,"温":2060,"港":2061,"渲":2062,"湖":2063,"湯":2064,"湾":2065,"満":2066,"溜":2067,"溝":2068,"溢":2069,"溥":2070,"溪":2071,"溶":2072,"滞":2073,"滬":2074,"漢":2075,"潢":2076,"潮":2077,"澤":2078,"濟":2079,"灣":2080,"火":2081,"灯":2082,"灰":2083,"灾":2084,"点":2085,"為":2086,"烏":2087,"烦":2088,"热":2089,"無":2090,"然":2091,"焼":2092,"煙":2093,"照":2094,"煩":2095,"煮":2096,"熟":2097,"熨":2098,"熱":2099,"燗":2100,"爆":2101,"爛":2102,"爪":2103,"爱":2104,"父":2105,"片":2106,"版":2107,"牌":2108,"牙":2109,"物":2110,"特":2111,"状":2112,"狗":2113,"独":2114,"狭":2115,"献":2116,"獲":2117,"率":2118,"玉":2119,"王":2120,"珈":2121,"珍":2122,"珠":2123,"班":2124,"球":2125,"理":2126,"琢":2127,"琲":2128,"璐":2129,"瓶":2130,"甜":2131,"生":2132,"用":2133,"田":2134,"甲":2135,"申":2136,"电":2137,"町":2138,"界":2139,"留":2140,"畢":2141,"略":2142,"畿":2143,"疆":2144,"疑":2145,"疗":2146,"疫":2147,"病":2148,"痛":2149,"痴":2150,"癌":2151,"発":2152,"登":2153,"白":2154,"百":2155,"的":2156,"皇":2157,"皮":2158,"盆":2159,"益":2160,"盖":2161,"盗":2162,"盛":2163,"監":2164,"目":2165,"直":2166,"相":2167,"省":2168,"看":2169,"県":2170,"真":2171,"眩":2172,"眼":2173,"着":2174,"睦":2175,"瞎":2176,"瞳":2177,"知":2178,"石":2179,"码":2180,"砂":2181,"砕":2182,"硝":2183,"硬":2184,"确":2185,"確":2186,"磨":2187,"示":2188,"礼":2189,"社":2190,"祖":2191,"神":2192,"票":2193,"祭":2194,"祸":2195,"祿":2196,"禁":2197,"禅":2198,"福":2199,"禪":2200,"禹":2201,"秀":2202,"私":2203,"秉":2204,"秋":2205,"种":2206,"科":2207,"租":2208,"积":2209,"称":2210,"移":2211,"程":2212,"稲":2213,"稼":2214,"空":2215,"立":2216,"站":2217,"竞":2218,"章":2219,"端":2220,"競":2221,"竹":2222,"第":2223,"答":2224,"签":2225,"简":2226,"箍":2227,"箕":2228,"管":2229,"箱":2230,"節":2231,"米":2232,"粤":2233,"粵":2234,"精":2235,"糖":2236,"系":2237,"紂":2238,"紅":2239,"紋":2240,"納":2241,"純":2242,"紙":2243,"素":2244,"索":2245,"紧":2246,"細":2247,"終":2248,"経":2249,"結":2250,"絞":2251,"統":2252,"続":2253,"網":2254,"綺":2255,"線":2256,"繁":2257,"约":2258,"级":2259,"纸":2260,"纹":2261,"纽":2262,"线":2263,"细":2264,"经":2265,"绞":2266,"统":2267,"绪":2268,"维":2269,"网":2270,"罗":2271,"罪":2272,"置":2273,"署":2274,"羅":2275,"美":2276,"群":2277,"義":2278,"羲":2279,"羽":2280,"翁":2281,"習":2282,"翻":2283,"耀":2284,"老":2285,"考":2286,"者":2287,"而":2288,"耐":2289,"耳":2290,"联":2291,"聖":2292,"聞":2293,"育":2294,"背":2295,"胜":2296,"胞":2297,"胡":2298,"能":2299,"脑":2300,"脖":2301,"脱":2302,"腕":2303,"腹":2304,"腺":2305,"膚":2306,"臂":2307,"臈":2308,"臓":2309,"臘":2310,"臧":2311,"臨":2312,"自":2313,"至":2314,"致":2315,"臺":2316,"舁":2317,"舅":2318,"舍":2319,"舐":2320,"舖":2321,"舞":2322,"舣":2323,"舩":2324,"航":2325,"舫":2326,"般":2327,"良":2328,"色":2329,"艳":2330,"节":2331,"芝":2332,"芦":2333,"花":2334,"苏":2335,"苑":2336,"若":2337,"英":2338,"茂":2339,"茜":2340,"茨":2341,"茶":2342,"草":2343,"荣":2344,"莲":2345,"获":2346,"莹":2347,"菜":2348,"華":2349,"菱":2350,"萄":2351,"萧":2352,"落":2353,"葉":2354,"葡":2355,"董":2356,"蒋":2357,"蒸":2358,"蓋":2359,"蔓":2360,"蔚":2361,"薬":2362,"藕":2363,"藤":2364,"蘇":2365,"虑":2366,"蛋":2367,"螨":2368,"螳":2369,"螺":2370,"蟲":2371,"血":2372,"行":2373,"術":2374,"街":2375,"表":2376,"裂":2377,"装":2378,"裕":2379,"西":2380,"要":2381,"見":2382,"視":2383,"覧":2384,"親":2385,"覺":2386,"见":2387,"视":2388,"觉":2389,"角":2390,"解":2391,"言":2392,"訃":2393,"訓":2394,"記":2395,"設":2396,"許":2397,"試":2398,"詩":2399,"詰":2400,"話":2401,"詳":2402,"誓":2403,"語":2404,"說":2405,"読":2406,"調":2407,"請":2408,"諸":2409,"謑":2410,"證":2411,"讃":2412,"计":2413,"讣":2414,"议":2415,"讯":2416,"许":2417,"设":2418,"证":2419,"识":2420,"译":2421,"试":2422,"诘":2423,"话":2424,"该":2425,"详":2426,"语":2427,"请":2428,"课":2429,"调":2430,"谢":2431,"谷":2432,"豆":2433,"貌":2434,"負":2435,"財":2436,"貢":2437,"販":2438,"貮":2439,"貰":2440,"貴":2441,"賀":2442,"資":2443,"賢":2444,"贊":2445,"贞":2446,"负":2447,"贡":2448,"货":2449,"质":2450,"贱":2451,"贳":2452,"贷":2453,"赌":2454,"赛":2455,"赤":2456,"赵":2457,"赶":2458,"起":2459,"超":2460,"越":2461,"足":2462,"跆":2463,"跋":2464,"跨":2465,"路":2466,"踌":2467,"蹟":2468,"躇":2469,"躊":2470,"躍":2471,"身":2472,"車":2473,"軍":2474,"較":2475,"載":2476,"輪":2477,"车":2478,"转":2479,"载":2480,"较":2481,"辛":2482,"辞":2483,"辱":2484,"込":2485,"迅":2486,"过":2487,"迎":2488,"近":2489,"返":2490,"这":2491,"进":2492,"连":2493,"迷":2494,"送":2495,"适":2496,"逃":2497,"逆":2498,"选":2499,"途":2500,"通":2501,"速":2502,"連":2503,"逸":2504,"遇":2505,"遊":2506,"過":2507,"道":2508,"達":2509,"遗":2510,"遝":2511,"適":2512,"遪":2513,"遭":2514,"遲":2515,"遷":2516,"遽":2517,"邑":2518,"那":2519,"邱":2520,"郎":2521,"郑":2522,"郝":2523,"部":2524,"郷":2525,"都":2526,"鄂":2527,"鄭":2528,"酉":2529,"配":2530,"酎":2531,"酒":2532,"采":2533,"釉":2534,"里":2535,"重":2536,"野":2537,"量":2538,"金":2539,"釣":2540,"鈍":2541,"鈴":2542,"鉋":2543,"銀":2544,"銭":2545,"鋍":2546,"鋑":2547,"鋒":2548,"鋓":2549,"鋖":2550,"鋘":2551,"鋜":2552,"鋝":2553,"鋞":2554,"鋟":2555,"録":2556,"鍋":2557,"鎚":2558,"鏡":2559,"鐵":2560,"针":2561,"钓":2562,"钟":2563,"钢":2564,"钦":2565,"钧":2566,"钱":2567,"铁":2568,"铭":2569,"银":2570,"锈":2571,"锋":2572,"锦":2573,"键":2574,"镜":2575,"長":2576,"长":2577,"門":2578,"開":2579,"間":2580,"関":2581,"閣":2582,"閥":2583,"閩":2584,"關":2585,"门":2586,"问":2587,"间":2588,"闻":2589,"闽":2590,"阜":2591,"阪":2592,"防":2593,"阳":2594,"阿":2595,"陀":2596,"际":2597,"陈":2598,"降":2599,"院":2600,"除":2601,"陳":2602,"陵":2603,"陶":2604,"陽":2605,"隆":2606,"隊":2607,"階":2608,"难":2609,"雄":2610,"集":2611,"雙":2612,"雛":2613,"離":2614,"雲":2615,"雷":2616,"電":2617,"露":2618,"青":2619,"静":2620,"非":2621,"面":2622,"革":2623,"靳":2624,"音":2625,"韻":2626,"頂":2627,"項":2628,"順":2629,"須":2630,"頑":2631,"頭":2632,"題":2633,"顗":2634,"顯":2635,"页":2636,"顶":2637,"顾":2638,"预":2639,"颐":2640,"颖":2641,"题":2642,"颜":2643,"風":2644,"风":2645,"飛":2646,"飞":2647,"食":2648,"飲":2649,"飼":2650,"館":2651,"饮":2652,"馆":2653,"首":2654,"香":2655,"馬":2656,"駄":2657,"駅":2658,"験":2659,"騙":2660,"騜":2661,"马":2662,"验":2663,"骨":2664,"髄":2665,"體":2666,"高":2667,"鬼":2668,"魔":2669,"鰀":2670,"鰃":2671,"鰄":2672,"鰈":2673,"鰊":2674,"鰎":2675,"鱲":2676,"鱼":2677,"鲁":2678,"鲞":2679,"鳩":2680,"鴻":2681,"鵜":2682,"鷹":2683,"鸭":2684,"鹈":2685,"鹿":2686,"麗":2687,"黄":2688,"黒":2689,"黚":2690,"黡":2691,"黨":2692,"黮":2693,"黵":2694,"黷":2695,"龍":2696,"龙":2697,"검":2698,"고":2699,"구":2700,"국":2701,"군":2702,"권":2703,"김":2704,"뀌":2705,"나":2706,"년":2707,"노":2708,"누":2709,"는":2710,"니":2711,"닌":2712,"님":2713,"다":2714,"단":2715,"당":2716,"대":2717,"도":2718,"돌":2719,"동":2720,"드":2721,"디":2722,"딩":2723,"라":2724,"레":2725,"려":2726,"로":2727,"루":2728,"르":2729,"린":2730,"마":2731,"막":2732,"맨":2733,"면":2734,"목":2735,"문":2736,"미":2737,"바":2738,"반":2739,"뱅":2740,"번":2741,"법":2742,"베":2743,"별":2744,"블":2745,"비":2746,"빅":2747,"빌":2748,"빛":2749,"사":2750,"서":2751,"성":2752,"세":2753,"셀":2754,"셜":2755,"소":2756,"스":2757,"습":2758,"시":2759,"신":2760,"아":2761,"양":2762,"어":2763,"었":2764,"에":2765,"엠":2766,"영":2767,"오":2768,"왕":2769,"요":2770,"월":2771,"웨":2772,"유":2773,"으":2774,"읍":2775,"이":2776,"인":2777,"일":2778,"자":2779,"작":2780,"적":2781,"전":2782,"정":2783,"제":2784,"조":2785,"주":2786,"지":2787,"짝":2788,"창":2789,"천":2790,"체":2791,"추":2792,"층":2793,"치":2794,"클":2795,"키":2796,"태":2797,"터":2798,"턴":2799,"트":2800,"티":2801,"폐":2802,"피":2803,"한":2804,"향":2805,"호":2806,"회":2807,"ﬁ":2808,"ﬂ":2809,"ﷲ":2810,"︰":2811,"！":2812,"＄":2813,"（":2814,"）":2815,"＊":2816,"，":2817,"－":2818,"．":2819,"：":2820,"；":2821,"？":2822,"［":2823,"］":2824,"ｔ":2825,"､":2826,"･":2827,"ｫ":2828,"ｲ":2829,"ｻ":2830,"ｿ":2831,"ﾜ":2832,"ﾟ":2833,"￠":2834,"￥":2835,"￼":2836,"�":2837,"𐌰":2838,"𐌴":2839,"𐌸":2840,"𐌼":2841,"𐌽":2842,"𐍃":2843,"𐍉":2844,"𠐄":2845,"𢥲":2846,"𧵮":2847,"@@r":2848,"@@i":2849,"@@n":2850,"@@t":2851,"@@d":2852,"@@o":2853,"@@k":2854,"@@u":2855,"@@m":2856,"@@e":2857,"@@9":2858,"@@3":2859,"@@0":2860,"@@g":2861,"@@s":2862,"@@c":2863,"@@h":2864,"@@ü":2865,"@@z":2866,"@@a":2867,"@@b":2868,"@@l":2869,"@@f":2870,"@@p":2871,"@@ī":2872,"@@y":2873,"@@ä":2874,"@@j":2875,"@@E":2876,"@@D":2877,"@@U":2878,"@@C":2879,"@@T":2880,"@@I":2881,"@@O":2882,"@@N":2883,"@@ß":2884,"@@w":2885,"@@ń":2886,"@@ó":2887,"@@8":2888,"@@ö":2889,"@@v":2890,"@@H":2891,"@@V":2892,"@@x":2893,"@@о":2894,"@@к":2895,"@@а":2896,"@@з":2897,"@@н":2898,"@@и":2899,"@@і":2900,"@@в":2901,"@@é":2902,"@@q":2903,"@@í":2904,"@@р":2905,"@@л":2906,"@@д":2907,"@@е":2908,"@@я":2909,"@@M":2910,"@@W":2911,"@@A":2912,"@@L":2913,"@@P":2914,"@@à":2915,"@@S":2916,"@@R":2917,"@@Ü":2918,"@@5":2919,"@@F":2920,"@@ñ":2921,"@@2":2922,"@@G":2923,"@@п":2924,"@@м":2925,"@@ы":2926,"@@й":2927,"@@B":2928,"@@6":2929,"@@K":2930,"@@7":2931,"@@á":2932,"@@š":2933,"@@đ":2934,"@@å":2935,"@@с":2936,"@@т":2937,"@@X":2938,"@@ô":2939,"@@â":2940,"@@є":2941,"@@ี":2942,"@@ก":2943,"@@ด":2944,"@@4":2945,"@@舁":2946,"@@ő":2947,"@@Š":2948,"@@Č":2949,"@@1":2950,"@@ω":2951,"@@ν":2952,"@@τ":2953,"@@α":2954,"@@ό":2955,"@@ς":2956,"@@è":2957,"@@ç":2958,"@@J":2959,"@@ц":2960,"@@त":2961,"@@न":2962,"@@Г":2963,"@@џ":2964,"@@б":2965,"@@ο":2966,"@@ж":2967,"@@ь":2968,"@@Ã":2969,"@@Y":2970,"@@Ö":2971,"@@ш":2972,"@@ê":2973,"@@ф":2974,"@@ò":2975,"@@î":2976,"@@Q":2977,"@@須":2978,"@@賀":2979,"@@市":2980,"@@出":2981,"@@来":2982,"@@ë":2983,"@@ć":2984,"@@ј":2985,"@@õ":2986,"@@Z":2987,"@@为":2988,"@@一":2989,"@@个":2990,"@@网":2991,"@@页":2992,"@@É":2993,"@@ý":2994,"@@ı":2995,"@@у":2996,"@@原":2997,"@@氏":2998,"@@ş":2999,"@@Ä":3000,"@@ł":3001,"@@ï":3002,"@@х":3003,"@@ч":3004,"@@Ћ":3005,"@@С":3006,"@@Ѓ":3007,"@@ã":3008,"@@ŕ":3009,"@@ň":3010,"@@ă":3011,"@@ĺ":3012,"@@Á":3013,"@@щ":3014,"@@ю":3015,"@@ú":3016,"@@œ":3017,"@@ę":3018,"@@ě":3019,"@@ž":3020,"@@ð":3021,"@@ن":3022,"@@ك":3023,"@@г":3024,"@@Ñ":3025,"@@ů":3026,"@@Џ":3027,"@@年":3028,"@@λ":3029,"@@ι":3030,"@@μ":3031,"@@σ":3032,"@@ρ":3033,"@@ś":3034,"@@ţ":3035,"@@ż":3036,"@@ъ":3037,"@@č":3038,"@@ō":3039,"@@υ":3040,"@@δ":3041,"@@έ":3042,"@@ε":3043,"@@统":3044,"@@ū":3045,"@@ą":3046,"@@ā":3047,"@@ř":3048,"@@ح":3049,"@@د":3050,"@@ا":3051,"@@ث":3052,"@@ع":3053,"@@ل":3054,"@@و":3055,"@@ت":3056,"@@ÿ":3057,"@@ì":3058,"@@ø":3059,"@@凄":3060,"@@β":3061,"@@ű":3062,"@@ĝ":3063,"@@ﬁ":3064,"@@ї":3065,"@@О":3066,"@@Л":3067,"@@Т":3068,"@@Ы":3069,"@@Ú":3070,"@@ί":3071,"@@ˆ":3072,"@@臈":3073,"@@њ":3074,"@@º":3075,"@@م":3076,"@@ù":3077,"@@Ă":3078,"@@ა":3079,"@@ნ":3080,"@@ხ":3081,"@@ლ":3082,"@@დ":3083,"@@Ì":3084,"@@ª":3085,"@@后":3086,"@@从":3087,"@@下":3088,"@@面":3089,"@@的":3090,"@@拉":3091,"@@列":3092,"@@表":3093,"@@中":3094,"@@η":3095,"@@γ":3096,"@@ي":3097,"@@ೆ":3098,"@@ೖ":3099,"@@城":3100,"@@π":3101,"@@κ":3102,"@@æ":3103,"@@ğ":3104,"@@ง":3105,"@@艳":3106,"@@舞":3107,"@@载":3108,"@@和":3109,"@@食":3110,"@@ώ":3111,"@@०":3112,"@@३":3113,"@@В":3114,"@@屿":3115,"@@山":3116,"@@な":3117,"@@い":3118,"@@と":3119,"@@駄":3120,"@@目":3121,"@@だ":3122,"@@思":3123,"@@ま":3124,"@@す":3125,"@@头":3126,"@@ị":3127,"@@Ÿ":3128,"@@.":3129,"@@圆":3130,"@@明":3131,"@@ľ":3132,"@@ė":3133,"@@Í":3134,"@@届":3135,"@@φ":3136,"@@χ":3137,"@@ύ":3138,"@@ﬂ":3139,"@@ņ":3140,"@@û":3141,"@@ά":3142,"@@萧":3143,"@@洒":3144,"@@ſ":3145,"@@П":3146,"@@И":3147,"@@Д":3148,"@@년":3149,"@@È":3150,"@@А":3151,"@@Н":3152,"@@Ђ":3153,"@@Р":3154,"@@Њ":3155,"@@þ":3156,"@@ج":3157,"@@İ":3158,"@@刨":3159,"@@纹":3160,"@@繁":3161,"@@ز":3162,"@@µ":3163,"@@治":3164,"@@神":3165,"@@宮":3166,"@@ť":3167,"@@І":3168,"@@Х":3169,"@@要":3170,"@@ه":3171,"@@套":3172,"@@图":3173,"@@多":3174,"@@ď":3175,"@@蔚":3176,"@@仁":3177,"@@寺":3178,"@@ѓ":3179,"@@ē":3180,"@@票":3181,"@@否":3182,"@@决":3183,"@@制":3184,"@@น":3185,"@@ช":3186,"@@ή":3187,"@@天":3188,"@@门":3189,"@@Ê":3190,"@@ĩ":3191,"@@土":3192,"@@瓶":3193,"@@用":3194,"@@拼":3195,"@@音":3196,"@@ķ":3197,"@@Ė":3198,"@@ấ":3199,"@@管":3200,"@@得":3201,"@@了":3202,"@@鲞":3203,"@@岭":3204,"@@学":3205,"@@校":3206,"@@-":3207,"@@Ó":3208,"@@顗":3209,"@@У":3210,"@@臘":3211,"@@ู":3212,"@@ไ":3213,"@@เ":3214,"@@ต":3215,"@@θ":3216,"@@Ń":3217,"@@云":3218,"@@憎":3219,"@@溝":3220,"@@婁":3221,"@@颐":3222,"@@მ":3223,"@@ი":3224,"@@า":3225,"@@ร":3226,"@@อ":3227,"@@ะ":3228,"@@谢":3229,"@@ớ":3230,"@@Ç":3231,"@@Ł":3232,"@@人":3233,"@@Ù":3234,"@@Λ":3235,"@@Η":3236,"@@Ν":3237,"@@Ι":3238,"@@Κ":3239,"@@Ο":3240,"@@脱":3241,"@@罪":3242,"@@ų":3243,"@@Ќ":3244,"@@Љ":3245,"@@ξ":3246,"@@۴":3247,"@@Е":3248,"@@訓":3249,"@@子":3250,"@@э":3251,"@@һ":3252,"@@Ï":3253,"@@迎":3254,"@@ș":3255,"@@ב":3256,"@@ר":3257,"@@ה":3258,"@@پ":3259,"@@ң":3260,"@@ғ":3261,"@@可":3262,"@@证":3263,"@@闻":3264,"@@取":3265,"@@บ":3266,"@@ส":3267,"@@Ý":3268,"@@Ř":3269,"@@ش":3270,"@@ب":3271,"@@ّ":3272,"@@ة":3273,"@@ې":3274,"@@ź":3275,"@@ϋ":3276,"@@ฉ":3277,"@@ท":3278,"@@体":3279,"@@文":3280,"@@唸":3281,"@@っ":3282,"@@ラ":3283,"@@ー":3284,"@@ǒ":3285,"@@止":3286,"@@Ž":3287,"@@Ę":3288,"@@済":3289,"@@友":3290,"@@鋍":3291,"@@ứ":3292,"@@ŷ":3293,"@@Î":3294,"@@师":3295,"@@法":3296,"@@ļ":3297,"@@け":3298,"@@花":3299,"@@ั":3300,"@@จ":3301,"@@ม":3302,"@@站":3303,"@@井":3304,"@@日":3305,"@@本":3306,"@@料":3307,"@@理":3308,"@@戴":3309,"@@へ":3310,"@@部":3311,"@@ё":3312,"@@自":3313,"@@便":3314,"@@Б":3315,"@@خ":3316,"@@ر":3317,"@@眩":3318,"@@ọ":3319,"@@ำ":3320,"@@ป":3321,"@@Å":3322,"@@ŵ":3323,"@@ѕ":3324,"@@ข":3325,"@@К":3326,"@@皇":3327,"@@ע":3328,"@@ל":3329,"@@分":3330,"@@之":3331,"@@動":3332,"@@販":3333,"@@売":3334,"@@機":3335,"@@گ":3336,"@@务":3337,"@@۸":3338,"@@أ":3339,"@@伯":3340,"@@语":3341,"@@Ô":3342,"@@ǔ":3343,"@@Ć":3344,"@@Й":3345,"@@ล":3346,"@@ย":3347,"@@ุ":3348,"@@ญ":3349,"@@ิ":3350,"@@ค":3351,"@@ณ":3352,"@@解":3353,"@@字":3354,"@@外":3355,"@@羽":3356,"@@清":3357,"@@水":3358,"@@ﾟ":3359,"@@ַ":3360,"@@ְ":3361,"@@מ":3362,"@@ס":3363,"@@ֵ":3364,"@@۰":3365,"@@۹":3366,"@@ห":3367,"@@ζ":3368,"@@五":3369,"@@郎":3370,"@@Æ":3371,"@@რ":3372,"@@თ":3373,"@@უ":3374,"@@直":3375,"@@ḥ":3376,"@@۳":3377,"@@ộ":3378,"@@ו":3379,"@@ת":3380,"@@Ş":3381,"@@ẻ":3382,"@@Ë":3383,"@@À":3384,"@@ˈ":3385,"@@酒":3386,"@@指":3387,"@@の":3388,"@@誓":3389,"@@摂":3390,"@@家":3391,"@@庫":3392,"@@県":3393,"@@入":3394,"@@ɛ":3395,"@@ق":3396,"@@س":3397,"@@체":3398,"@@Â":3399,"@@ン":3400,"@@バ":3401,"@@Я":3402,"@@ッ":3403,"@@チ":3404,"@@も":3405,"@@電":3406,"@@レ":3407,"@@ジ":3408,"@@ќ":3409,"@@ف":3410,"@@正":3411,"@@奸":3412,"@@Ц":3413,"@@加":3414,"@@油":3415,"@@力":3416,"@@不":3417,"@@支":3418,"@@ể":3419,"@@メ":3420,"@@ネ":3421,"@@イ":3422,"@@参":3423,"@@ŭ":3424,"@@ใ":3425,"@@َ":3426,"@@Ε":3427,"@@振":3428,"@@込":3429,"@@ْ":3430,"@@ː":3431,"@@ự":3432,"@@难":3433,"@@题":3434,"@@ק":3435,"@@Ъ":3436,"@@ʔ":3437,"@@ə":3438,"@@頂":3439,"@@ی":3440,"@@Ő":3441,"@@鋓":3442,"@@ȃ":3443,"@@ص":3444,"@@ɐ":3445,"@@撮":3446,"@@晏":3447,"@@落":3448,"@@ち":3449,"@@て":3450,"@@る":3451,"@@龍":3452,"@@急":3453,"@@遽":3454,"@@役":3455,"@@所":3456,"@@黨":3457,"@@ɨ":3458,"@@湯":3459,"@@朱":3460,"@@安":3461,"@@雄":3462,"@@ِ":3463,"@@娥":3464,"@@尿":3465,"@@病":3466,"@@體":3467,"@@式":3468,"@@屈":3469,"@@盗":3470,"@@専":3471,"@@門":3472,"@@ベ":3473,"@@ル":3474,"@@で":3475,"@@鰊":3476,"@@国":3477,"@@幌":3478,"@@吴":3479,"@@志":3480,"@@宁":3481,"@@梅":3482,"@@א":3483,"@@נ":3484,"@@王":3485,"@@卓":3486,"@@钧":3487,"@@Û":3488,"@@Ø":3489,"@@ổ":3490,"@@斗":3491,"@@紙":3492,"@@М":3493,"@@阳":3494,"@@ʒ":3495,"@@ɒ":3496,"@@ⁿ":3497,"@@没":3498,"@@有":3499,"@@显":3500,"@@示":3501,"@@屏":3502,"@@问":3503,"@@З":3504,"@@ạ":3505,"@@೯":3506,"@@೬":3507,"@@೫":3508,"@@漢":3509,"@@能":3510,"@@検":3511,"@@定":3512,"@@試":3513,"@@験":3514,"@@ょ":3515,"@@う":3516,"@@せ":3517,"@@沢":3518,"@@회":3519,"@@黵":3520,"@@Õ":3521,"@@ƒ":3522,"@@ắ":3523,"@@ُ":3524,"@@ϊ":3525,"@@た":3526,"@@右":3527,"@@腕":3528,"@@ื":3529,"@@י":3530,"@@ד":3531,"@@ҙ":3532,"@@货":3533,"@@场":3534,"@@化":3535,"@@華":3536,"@@民":3537,"@@共":3538,"@@國":3539,"@@娃":3540,"@@ह":3541,"@@ṭ":3542,"@@ש":3543,"@@ם":3544,"@@ተ":3545,"@@ቀ":3546,"@@የ":3547,"@@ረ":3548,"@@ው":3549,"@@伸":3550,"@@広":3551,"@@१":3552,"@@ら":3553,"@@ן":3554,"@@切":3555,"@@腹":3556,"@@重":3557,"@@崎":3558,"@@양":3559,"@@鈍":3560,"@@色":3561,"@@呆":3562,"@@ǎ":3563,"@@咬":3564,"@@紧":3565,"@@牙":3566,"@@ʲ":3567,"@@ว":3568,"@@แ":3569,"@@ى":3570,"@@ڭ":3571,"@@回":3572,"@@乏":3573,"@@术":3574,"@@Þ":3575,"@@女":3576,"@@徒":3577,"@@然":3578,"@@江":3579,"@@ी":3580,"@@约":3581,"@@时":3582,"@@报":3583,"@@嵥":3584,"@@北":3585,"@@車":3586,"@@린":3587,"@@턴":3588,"@@寸":3589,"@@步":3590,"@@ģ":3591,"@@ይ":3592,"@@ሕ":3593,"@@団":3594,"@@宣":3595,"@@言":3596,"@@Ů":3597,"@@亜":3598,"@@頭":3599,"@@貮":3600,"@@其":3601,"@@蛋":3602,"@@白":3603,"@@吊":3604,"@@事":3605,"@@戸":3606,"@@方":3607,"@@は":3608,"@@ǐ":3609,"@@徳":3610,"@@帥":3611,"@@界":3612,"@@が":3613,"@@逆":3614,"@@さ":3615,"@@に":3616,"@@見":3617,"@@え":3618,"@@持":3619,"@@舅":3620,"@@ض":3621,"@@غ":3622,"@@ط":3623,"@@ố":3624,"@@验":3625,"@@フ":3626,"@@科":3627,"@@ח":3628,"@@海":3629,"@@降":3630,"@@注":3631,"@@ถ":3632,"@@พ":3633,"@@割":3634,"@@れ":3635,"@@か":3636,"@@よ":3637,"@@を":3638,"@@鉋":3639,"@@紋":3640,"@@Ě":3641,"@@ġ":3642,"@@ỏ":3643,"@@ศ":3644,"@@ֿ":3645,"@@ג":3646,"@@引":3647,"@@立":3648,"@@课":3649,"@@ር":3650,"@@ካ":3651,"@@舣":3652,"@@ึ":3653,"@@合":3654,"@@度":3655,"@@假":3656,"@@居":3657,"@@住":3658,"@@೮":3659,"@@೩":3660,"@@き":3661,"@@換":3662,"@@Ð":3663,"@@Ж":3664,"@@ি":3665,"@@ন":3666,"@@ট":3667,"@@晨":3668,"@@嶼":3669,"@@ผ":3670,"@@秉":3671,"@@官":3672,"@@書":3673,"@@ল":3674,"@@ư":3675,"@@鋖":3676,"@@ই":3677,"@@雲":3678,"@@父":3679,"@@吗":3680,"@@帝":3681,"@@夹":3682,"@@采":3683,"@@锈":3684,"@@钢":3685,"@@材":3686,"@@港":3687,"@@第":3688,"@@囧":3689,"@@ذ":3690,"@@古":3691,"@@具":3692,"@@骨":3693,"@@董":3694,"@@祭":3695,"@@り":3696,"@@ざ":3697,"@@ぐ":3698,"@@風":3699,"@@寿":3700,"@@司":3701,"@@交":3702,"@@量":3703,"@@更":3704,"@@大":3705,"@@ʼ":3706,"@@ῆ":3707,"@@念":3708,"@@木":3709,"@@ờ":3710,"@@ֳ":3711,"@@刘":3712,"@@静":3713,"@@怡":3714,"@@離":3715,"@@郑":3716,"@@汉":3717,"@@龙":3718,"@@鎚":3719,"@@豆":3720,"@@諸":3721,"@@島":3722,"@@鋝":3723,"@@若":3724,"@@妻":3725,"@@金":3726,"@@į":3727,"@@想":3728,"@@赶":3729,"@@라":3730,"@@디":3731,"@@미":3732,"@@르":3733,"@@ธ":3734,"@@嘛":3735,"@@Ω":3736,"@@ῦ":3737,"@@월":3738,"@@ṳ":3739,"@@Ś":3740,"@@健":3741,"@@秋":3742,"@@乌":3743,"@@逃":3744,"@@物":3745,"@@呼":3746,"@@実":3747,"@@无":3748,"@@塔":3749,"@@灣":3750,"@@夕":3751,"@@节":3752,"@@啦":3753,"@@号":3754,"@@Ū":3755,"@@פ":3756,"@@ט":3757,"@@지":3758,"@@막":3759,"@@으":3760,"@@로":3761,"@@少":3762,"@@惑":3763,"@@星":3764,"@@โ":3765,"@@テ":3766,"@@ナ":3767,"@@台":3768,"@@ɪ":3769,"@@Τ":3770,"@@シ":3771,"@@ョ":3772,"@@۶":3773,"@@道":3774,"@@Œ":3775,"@@森":3776,"@@ு":3777,"@@த":3778,"@@۷":3779,"@@Ò":3780,"@@ỹ":3781,"@@読":3782,"@@態":3783,"@@义":3784,"@@Ų":3785,"@@裂":3786,"@@釉":3787,"@@ニ":3788,"@@开":3789,"@@发":3790,"@@银":3791,"@@行":3792,"@@与":3793,"@@签":3794,"@@署":3795,"@@亿":3796,"@@美":3797,"@@元":3798,"@@信":3799,"@@贷":3800,"@@协":3801,"@@议":3802,"@@积":3803,"@@小":3804,"@@巧":3805,"@@代":3806,"@@十":3807,"@@四":3808,"@@卦":3809,"@@ظ":3810,"@@ک":3811,"@@ệ":3812,"@@系":3813,"@@ს":3814,"@@会":3815,"@@社":3816,"@@オ":3817,"@@ト":3818,"@@ク":3819,"@@ス":3820,"@@セ":3821,"@@ブ":3822,"@@栽":3823,"@@ʃ":3824,"@@ീ":3825,"@@പ":3826,"@@Ь":3827,"@@辱":3828,"@@鰎":3829,"@@Ň":3830,"@@受":3831,"@@氷":3832,"@@満":3833,"@@決":3834,"@@手":3835,"@@常":3836,"@@侍":3837,"@@翁":3838,"@@珠":3839,"@@일":3840,"@@宜":3841,"@@野":3842,"@@武":3843,"@@俊":3844,"@@ტ":3845,"@@ე":3846,"@@გ":3847,"@@ო":3848,"@@შ":3849,"@@付":3850,"@@ֲ":3851,"@@ֹ":3852,"@@ヌ":3853,"@@川":3854,"@@む":3855,"@@つ":3856,"@@み":3857,"@@Α":3858,"@@溜":3859,"@@馬":3860,"@@য":3861,"@@配":3862,"@@律":3863,"@@ψ":3864,"@@乗":3865,"@@顶":3866,"@@弔":3867,"@@話":3868,"@@次":3869,"@@新":3870,"@@比":3871,"@@较":3872,"@@彻":3873,"@@底":3874,"@@ً":3875,"@@記":3876,"@@ئ":3877,"@@ẽ":3878,"@@丘":3879,"@@し":3880,"@@勿":3881,"@@آ":3882,"@@鰀":3883,"@@西":3884,"@@弁":3885,"@@ʦ":3886,"@@ˌ":3887,"@@ʀ":3888,"@@ơ":3889,"@@蔓":3890,"@@藤":3891,"@@幾":3892,"@@ץ":3893,"@@着":3894,"@@竹":3895,"@@浦":3896,"@@答":3897,"@@ि":3898,"@@म":3899,"@@ा":3900,"@@च":3901,"@@ल":3902,"@@損":3903,"@@證":3904,"@@Ф":3905,"@@成":3906,"@@성":3907,"@@자":3908,"@@雷":3909,"@@县":3910,"@@岐":3911,"@@ど":3912,"@@ん":3913,"@@确":3914,"@@过":3915,"@@敏":3916,"@@检":3917,"@@测":3918,"@@应":3919,"@@是":3920,"@@免":3921,"@@疫":3922,"@@球":3923,"@@而":3924,"@@非":3925,"@@足":3926,"@@Χ":3927,"@@य":3928,"@@ɜ":3929,"@@ｫ":3930,"@@林":3931,"@@甲":3932,"@@া":3933,"@@ম":3934,"@@宗":3935,"@@鴻":3936,"@@章":3937,"@@耀":3938,"@@施":3939,"@@放":3940,"@@气":3941,"@@快":3942,"@@捷":3943,"@@店":3944,"@@鱼":3945,"@@煮":3946,"@@詰":3947,"@@嘟":3948,"@@情":3949,"@@網":3950,"@@わ":3951,"@@Ґ":3952,"@@疆":3953,"@@维":3954,"@@吾":3955,"@@尔":3956,"@@区":3957,"@@舐":3958,"@@ბ":3959,"@@仲":3960,"@@圓":3961,"@@悟":3962,"@@摇":3963,"@@尾":3964,"@@麗":3965,"@@Ч":3966,"@@ŏ":3967,"@@口":3968,"@@何":3969,"@@ɾ":3970,"@@箱":3971,"@@书":3972,"@@Μ":3973,"@@覺":3974,"@@羅":3975,"@@三":3976,"@@佰":3977,"@@나":3978,"@@이":3979,"@@티":3980,"@@드":3981,"@@ህ":3982,"@@ợ":3983,"@@淹":3984,"@@臧":3985,"@@ಶ":3986,"@@熨":3987,"@@ہ":3988,"@@ۂ":3989,"@@ụ":3990,"@@ħ":3991,"@@ገ":3992,"@@ስ":3993,"@@ት":3994,"@@石":3995,"@@几":3996,"@@舖":3997,"@@寶":3998,"@@琲":3999,"@@閣":4000,"@@場":4001,"@@く":4002,"@@ء":4003,"@@遲":4004,"@@स":4005,"@@צ":4006,"@@东":4007,"@@机":4008,"@@ּ":4009,"@@ָ":4010,"@@固":4011,"@@援":4012,"@@ɑ":4013,"@@々":4014,"@@お":4015,"@@Ѕ":4016,"@@鋜":4017,"@@ў":4018,"@@燗":4019,"@@黡":4020,"@@ả":4021,"@@省":4022,"@@级":4023,"@@ĉ":4024,"@@泽":4025,"@@央":4026,"@@ậ":4027,"@@ヒ":4028,"@@揃":4029,"@@Щ":4030,"@@Đ":4031,"@@ṃ":4032,"@@眼":4033,"@@鏡":4034,"@@ጽ":4035,"@@ዋ":4036,"@@ञ":4037,"@@知":4038,"@@田":4039,"@@空":4040,"@@洛":4041,"@@ŋ":4042,"@@ු":4043,"@@ව":4044,"@@ර":4045,"@@Ў":4046,"@@ṉ":4047,"@@农":4048,"@@草":4049,"@@经":4050,"@@Θ":4051,"@@Σ":4052,"@@茶":4053,"@@荣":4054,"@@痛":4055,"@@起":4056,"@@近":4057,"@@マ":4058,"@@ェ":4059,"@@ホ":4060,"@@調":4061,"@@べ":4062,"@@波":4063,"@@丽":4064,"@@士":4065,"@@松":4066,"@@ỉ":4067,"@@向":4068,"@@開":4069,"@@設":4070,"@@特":4071,"@@ペ":4072,"@@ề":4073,"@@別":4074,"@@当":4075,"@@旋":4076,"@@階":4077,"@@段":4078,"@@心":4079,"@@ゆ":4080,"@@壊":4081,"@@ራ":4082,"@@聞":4083,"@@長":4084,"@@包":4085,"@@圍":4086,"@@ಾ":4087,"@@鲁":4088,"@@루":4089,"@@द":4090,"@@े":4091,"@@श":4092,"@@飼":4093,"@@光":4094,"@@越":4095,"@@握":4096,"@@欢":4097,"@@ミ":4098,"@@试":4099,"@@相":4100,"@@۵":4101,"@@伦":4102,"@@电":4103,"@@影":4104,"@@ז":4105,"@@菜":4106,"@@申":4107,"@@비":4108,"@@엠":4109,"@@送":4110,"@@茂":4111,"@@楠":4112,"@@歌":4113,"@@公":4114,"@@性":4115,"@@遭":4116,"@@质":4117,"@@疑":4118,"@@ủ":4119,"@@陈":4120,"@@铭":4121,"@@政":4122,"@@ｲ":4123,"@@ữ":4124,"@@动":4125,"@@鋘":4126,"@@修":4127,"@@鹈":4128,"@@呑":4129,"@@数":4130,"@@以":4131,"@@遪":4132,"@@都":4133,"@@产":4134,"@@生":4135,"@@德":4136,"@@층":4137,"@@대":4138,"@@법":4139,"@@당":4140,"@@ׁ":4141,"@@経":4142,"@@禅":4143,"@@堂":4144,"@@ț":4145,"@@危":4146,"@@惧":4147,"@@語":4148,"@@淫":4149,"@@我":4150,"@@鵜":4151,"@@Ĺ":4152,"@@無":4153,"@@ன":4154,"@@名":4155,"@@셀":4156,"@@ĵ":4157,"@@周":4158,"@@末":4159,"@@세":4160,"@@돌":4161,"@@芝":4162,"@@盛":4163,"@@平":4164,"@@인":4165,"@@사":4166,"@@溢":4167,"@@ฆ":4168,"@@ษ":4169,"@@ṇ":4170,"@@ḍ":4171,"@@ṛ":4172,"@@ĕ":4173,"@@業":4174,"@@奶":4175,"@@遝":4176,"@@ʊ":4177,"@@踌":4178,"@@躇":4179,"@@壳":4180,"@@磨":4181,"@@砂":4182,"@@属":4183,"@@设":4184,"@@计":4185,"@@ं":4186,"@@ड":4187,"@@ग":4188,"@@ढ":4189,"@@讯":4190,"@@黄":4191,"@@隆":4192,"@@款":4193,"@@觉":4194,"@@罗":4195,"@@儀":4196,"@@煙":4197,"@@ũ":4198,"@@味":4199,"@@崩":4200,"@@어":4201,"@@饮":4202,"@@張":4203,"@@ウ":4204,"@@デ":4205,"@@ィ":4206,"@@ア":4207,"@@广":4208,"@@呀":4209,"@@上":4210,"@@げ":4211,"@@ば":4212,"@@好":4213,"@@考":4214,"@@识":4215,"@@别":4216,"@@讣":4217,"@@許":4218,"@@ɵ":4219,"@@酎":4220,"@@坐":4221,"@@去":4222,"@@ぃ":4223,"@@括":4224,"@@在":4225,"@@内":4226,"@@र":4227,"@@ை":4228,"@@폐":4229,"@@셜":4230,"@@ซ":4231,"@@际":4232,"@@迷":4233,"@@航":4234,"@@ຽ":4235,"@@ງ":4236,"@@ຈ":4237,"@@ັ":4238,"@@ນ":4239,"@@ٌ":4240,"@@ằ":4241,"@@澤":4242,"@@真":4243,"@@鰄":4244,"@@妖":4245,"@@精":4246,"@@死":4247,"@@學":4248,"@@跋":4249,"@@扈":4250,"@@ご":4251,"@@覧":4252,"@@南":4253,"@@保":4254,"@@太":4255,"@@監":4256,"@@洋":4257,"@@仪":4258,"@@Ď":4259,"@@員":4260,"@@阜":4261,"@@见":4262,"@@Ą":4263,"@@ሰ":4264,"@@ነ":4265,"@@Ω":4266,"@@訃":4267,"@@報":4268,"@@হ":4269,"@@泉":4270,"@@杏":4271,"@@ɔ":4272,"@@园":4273,"@@街":4274,"@@כ":4275,"@@鋒":4276,"@@绪":4277,"@@迅":4278,"@@身":4279,"@@창":4280,"@@호":4281,"@@サ":4282,"@@詳":4283,"@@建":4284,"@@හ":4285,"@@ዲ":4286,"@@ვ":4287,"@@勢":4288,"@@剥":4289,"@@ɡ":4290,"@@Ш":4291,"@@Ż":4292,"@@速":4293,"@@ִ":4294,"@@丸":4295,"@@姦":4296,"@@奚":4297,"@@吧":4298,"@@況":4299,"@@故":4300,"@@宫":4301,"@@博":4302,"@@院":4303,"@@陵":4304,"@@辛":4305,"@@廣":4306,"@@苑":4307,"@@ャ":4308,"@@痴":4309,"@@谷":4310,"@@喜":4311,"@@प":4312,"@@ु":4313,"@@東":4314,"@@ರ":4315,"@@व":4316,"@@叫":4317,"@@奇":4318,"@@蹟":4319,"@@屋":4320,"@@Ё":4321,"@@ም":4322,"@@ሓ":4323,"@@勝":4324,"@@控":4325,"@@键":4326,"@@转":4327,"@@移":4328,"@@到":4329,"@@耳":4330,"@@コ":4331,"@@ồ":4332,"@@љ":4333,"@@೦":4334,"@@೧":4335,"@@納":4336,"@@呂":4337,"@@ビ":4338,"@@全":4339,"@@将":4340,"@@毁":4341,"@@掉":4342,"@@整":4343,"@@互":4344,"@@联":4345,"@@ब":4346,"@@楽":4347,"@@担":4348,"@@짝":4349,"@@님":4350,"@@献":4351,"@@疗":4352,"@@국":4353,"@@ʿ":4354,"@@ґ":4355,"@@庆":4356,"@@火":4357,"@@车":4358,"@@板":4359,"@@于":4360,"@@კ":4361,"@@千":4362,"@@リ":4363,"@@カ":4364,"@@抜":4365,"@@終":4366,"@@Ğ":4367,"@@ế":4368,"@@細":4369,"@@路":4370,"@@術":4371,"@@举":4372,"@@牌":4373,"@@ワ":4374,"@@Ť":4375,"@@器":4376,"@@找":4377,"@@克":4378,"@@里":4379,"@@吸":4380,"@@إ":4381,"@@集":4382,"@@전":4383,"@@老":4384,"@@ぷ":4385,"@@검":4386,"@@舫":4387,"@@Ľ":4388,"@@悩":4389,"@@珍":4390,"@@选":4391,"@@墟":4392,"@@닌":4393,"@@ज":4394,"@@州":4395,"@@Ŀ":4396,"@@庚":4397,"@@貌":4398,"@@や":4399,"@@冤":4400,"@@瞳":4401,"@@Ź":4402,"@@録":4403,"@@商":4404,"@@標":4405,"@@汤":4406,"@@ђ":4407,"@@ћ":4408,"@@府":4409,"@@누":4410,"@@湾":4411,"@@济":4412,"@@景":4413,"@@最":4414,"@@益":4415,"@@种":4416,"@@浜":4417,"@@モ":4418,"@@ツ":4419,"@@吹":4420,"@@飛":4421,"@@タ":4422,"@@苏":4423,"@@問":4424,"@@題":4425,"@@ೈ":4426,"@@ҡ":4427,"@@照":4428,"@@朗":4429,"@@Ρ":4430,"@@挂":4431,"@@臺":4432,"@@择":4433,"@@你":4434,"@@希":4435,"@@望":4436,"@@这":4437,"@@模":4438,"@@渲":4439,"@@染":4440,"@@遊":4441,"@@璐":4442,"@@Ҳ":4443,"@@ҳ":4444,"@@狗":4445,"@@泥":4446,"@@育":4447,"@@局":4448,"@@負":4449,"@@飲":4450,"@@義":4451,"@@角":4452,"@@ፅ":4453,"@@ዕ":4454,"@@宝":4455,"@@玉":4456,"@@ን":4457,"@@ዓ":4458,"@@ፈ":4459,"@@舩":4460,"@@背":4461,"@@提":4462,"@@前":4463,"@@收":4464,"@@听":4465,"@@乐":4466,"@@称":4467,"@@位":4468,"@@索":4469,"@@Δ":4470,"@@क":4471,"@@黒":4472,"@@纸":4473,"@@始":4474,"@@您":4475,"@@ˇ":4476,"@@李":4477,"@@锋":4478,"@@適":4479,"@@過":4480,"@@ボ":4481,"@@적":4482,"@@彩":4483,"@@奈":4484,"@@ひ":4485,"@@ỳ":4486,"@@䟩":4487,"@@强":4488,"@@ດ":4489,"@@ຖ":4490,"@@ຸ":4491,"@@ມ":4492,"@@ຄ":4493,"@@ई":4494,"@@ү":4495,"@@ә":4496,"@@臓":4497,"@@ⲉ":4498,"@@ⲣ":4499,"@@ⲟ":4500,"@@ⲩ":4501,"@@爆":4502,"@@ド":4503,"@@ム":4504,"@@只":4505,"@@今":4506,"@@ፍ":4507,"@@በ":4508,"@@怪":4509,"@@ぎ":4510,"@@关":4511,"@@村":4512,"@@脑":4513,"@@卖":4514,"@@租":4515,"@@留":4516,"@@客":4517,"@@恢":4518,"@@復":4519,"@@萄":4520,"@@۲":4521,"@@ễ":4522,"@@却":4523,"@@爪":4524,"@@螨":4525,"@@線":4526,"@@八":4527,"@@楼":4528,"@@習":4529,"@@&":4530,"@@鈴":4531,"@@私":4532,"@@季":4533,"@@净":4534,"@@利":4535,"@@万":4536,"@@柱":4537,"@@ử":4538,"@@米":4539,"@@者":4540,"@@态":4541,"@@ฟ":4542,"@@競":4543,"@@技":4544,"@@吉":4545,"@@风":4546,"@@ừ":4547,"@@賢":4548,"@@刚":4549,"@@布":4550,"@@除":4551,"@@依":4552,"@@寤":4553,"@@ღ":4554,"@@າ":4555,"@@ບ":4556,"@@许":4557,"@@损":4558,"@@沙":4559,"@@ـ":4560,"@@灯":4561,"@@滞":4562,"@@備":4563,"@@冊":4564,"@@輪":4565,"@@聖":4566,"@@黷":4567,"@@ɚ":4568,"@@果":4569,"@@भ":4570,"@@赤":4571,"@@京":4572,"@@館":4573,"@@ؤ":4574,"@@孴":4575,"@@ｔ":4576,"@@群":4577,"@@舍":4578,"@@意":4579,"@@ക":4580,"@@ʌ":4581,"@@反":4582,"@@臂":4583,"@@挡":4584,"@@备":4585,"@@伝":4586,"@@ட":4587,"@@ু":4588,"@@९":4589,"@@५":4590,"@@정":4591,"@@ฝ":4592,"@@乙":4593,"@@๑":4594,"@@ῑ":4595,"@@ロ":4596,"@@ோ":4597,"@@ய":4598,"@@ம":4599,"@@寨":4600,"@@ภ":4601,"@@鋞":4602,"@@鷹":4603,"@@拳":4604,"@@巻":4605,"@@間":4606,"@@湖":4607,"@@锦":4608,"@@ɫ":4609,"@@ฮ":4610,"@@慢":4611,"@@ね":4612,"@@佑":4613,"@@超":4614,"@@ろ":4615,"@@氣":4616,"@@圳":4617,"@@钱":4618,"@@华":4619,"@@作":4620,"@@写":4621,"@@颖":4622,"@@些":4623,"@@功":4624,"@@革":4625,"@@韻":4626,"@@余":4627,"@@曌":4628,"@@ầ":4629,"@@虑":4630,"@@线":4631,"@@坊":4632,"@@匡":4633,"@@棲":4634,"@@株":4635,"@@宏":4636,"@@ฑ":4637,"@@暫":4638,"@@応":4639,"@@ฏ":4640,"@@防":4641,"@@掛":4642,"@@권":4643,"@@도":4644,"@@寄":4645,"@@返":4646,"@@ण":4647,"@@প":4648,"@@র":4649,"@@ሊ":4650,"@@ḫ":4651,"@@ๆ":4652,"@@ᓄ":4653,"@@ᒃ":4654,"@@ĸ":4655,"@@屄":4656,"@@ỡ":4657,"@@看":4658,"@@装":4659,"@@潢":4660,"@@很":4661,"@@形":4662,"@@あ":4663,"@@こ":4664,"@@純":4665,"@@躊":4666,"@@高":4667,"@@鐵":4668,"@@Φ":4669,"@@教":4670,"@@ḏ":4671,"@@飞":4672,"@@岡":4673,"@@駅":4674,"@@狭":4675,"@@视":4676,"@@曝":4677,"@@竞":4678,"@@价":4679,"@@歩":4680,"@@პ":4681,"@@Ű":4682,"@@陶":4683,"@@ケ":4684,"@@빛":4685,"@@에":4686,"@@勧":4687,"@@め":4688,"@@伎":4689,"@@町":4690,"@@続":4691,"@@ദ":4692,"@@ἰ":4693,"@@伟":4694,"@@诘":4695,"@@気":4696,"@@摩":4697,"@@什":4698,"@@ሽ":4699,"@@ூ":4700,"@@ர":4701,"@@ɹ":4702,"@@천":4703,"@@鍋":4704,"@@ẩ":4705,"@@告":4706,"@@片":4707,"@@岗":4708,"@@单":4709,"@@キ":4710,"@@グ":4711,"@@必":4712,"@@노":4713,"@@키":4714,"@@오":4715,"@@ゥ":4716,"@@ゲ":4717,"@@ザ":4718,"@@莹":4719,"@@遗":4720,"@@憾":4721,"@@良":4722,"@@陽":4723,"@@惯":4724,"@@ክ":4725,"@@ቶ":4726,"@@Э":4727,"@@仙":4728,"@@致":4729,"@@ც":4730,"@@딩":4731,"@@레":4732,"@@스":4733,"@@庁":4734,"@@嶺":4735,"@@ὶ":4736,"@@二":4737,"@@件":4738,"@@砕":4739,"@@じ":4740,"@@蒋":4741,"@@Υ":4742,"@@打":4743,"@@搅":4744,"@@况":4745,"@@智":4746,"@@旭":4747,"@@ℓ":4748,"@@逸":4749,"@@達":4750,"@@通":4751,"@@桶":4752,"@@ۆ":4753,"@@哈":4754,"@@綺":4755,"@@对":4756,"@@汇":4757,"@@久":4758,"@@殿":4759,"@@Ʀ":4760,"@@Є":4761,"@@ƛ":4762,"@@Ƙ":4763,"@@准":4764,"@@려":4765,"@@皮":4766,"@@ฎ":4767,"@@ټ":4768,"@@ハ":4769,"@@魔":4770,"@@ュ":4771,"@@那":4772,"@@Ǵ":4773,"@@势":4774,"@@胡":4775,"@@处":4776,"@@靳":4777,"@@贊":4778,"@@媛":4779,"@@君":4780,"@@儉":4781,"@@左":4782,"@@ქ":4783,"@@뱅":4784,"@@菱":4785,"@@ி":4786,"@@エ":4787,"@@プ":4788,"@@ズ":4789,"@@温":4790,"@@𐍃":4791,"@@𐌰":4792,"@@𐌽":4793,"@@𐌼":4794,"@@𐌴":4795,"@@𐍉":4796,"@@𐌸":4797,"@@膚":4798,"@@普":4799,"@@拟":4800,"@@据":4801,"@@ǣ":4802,"@@濟":4803,"@@ұ":4804,"@@Γ":4805,"@@洪":4806,"@@乎":4807,"@@求":4808,"@@ΐ":4809,"@@ል":4810,"@@殻":4811,"@@隊":4812,"@@鰃":4813,"@@映":4814,"@@赛":4815,"@@钦":4816,"@@군":4817,"@@주":4818,"@@시":4819,"@@殊":4820,"@@就":4821,"@@尘":4822,"@@夫":4823,"@@垣":4824,"@@#":4825,"@@ヨ":4826,"@@崔":4827,"@@娱":4828,"@@ฤ":4829,"@@点":4830,"@@고":4831,"@@서":4832,"@@는":4833,"@@郷":4834,"@@節":4835,"@@騙":4836,"@@馆":4837,"@@ۇ":4838,"@@干":4839,"@@躍":4840,"@@地":4841,"@@铁":4842,"@@親":4843,"@@先":4844,"@@冷":4845,"@@硬":4846,"@@爱":4847,"@@昇":4848,"@@ጨ":4849,"@@ሻ":4850,"@@葉":4851,"@@財":4852,"@@閥":4853,"@@Π":4854,"@@慶":4855,"@@般":4856,"@@뀌":4857,"@@었":4858,"@@습":4859,"@@니":4860,"@@다":4861,"@@@":4862,"@@鋑":4863,"@@札":4864,"@@ぶ":4865,"@@𧵮":4866,"@@顯":4867,"@@祖":4868,"@@則":4869,"@@亚":4870,"@@康":4871,"@@ச":4872,"@@૦":4873,"@@૧":4874,"@@태":4875,"@@鱲":4876,"@@框":4877,"@@ா":4878,"@@ஷ":4879,"@@ங":4880,"@@壮":4881,"@@族":4882,"@@派":4883,"@@甜":4884,"@@트":4885,"@@번":4886,"@@ੰ":4887,"@@ਡ":4888,"@@ੀ":4889,"@@ਗ":4890,"@@ੜ":4891,"@@烏":4892,"@@Ɩ":4893,"@@Ɲ":4894,"@@Ɠ":4895,"@@Ƭ":4896,"@@Ơ":4897,"@@Ȥ":4898,"@@话":4899,"@@ダ":4900,"@@パ":4901,"@@Ї":4902,"@@茜":4903,"@@ặ":4904,"@@深":4905,"@@灰":4906,"@@ά":4907,"@@較":4908,"@@黮":4909,"@@脖":4910,"@@ῖ":4911,"@@热":4912,"@@耐":4913,"@@ᐃ":4914,"@@ᑦ":4915,"@@瞎":4916,"@@搞":4917,"@@储":4918,"@@容":4919,"@@则":4920,"@@ˡ":4921,"@@한":4922,"@@थ":4923,"@@統":4924,"@@慣":4925,"@@遷":4926,"@@Ẳ":4927,"@@Į":4928,"@@班":4929,"@@樓":4930,"@@劇":4931,"@@途":4932,"@@月":4933,"@@터":4934,"@@倉":4935,"@@仮":4936,"@@ĭ":4937,"@@ོ":4938,"@@ད":4939,"@@素":4940,"@@贞":4941,"@@鰈":4942,"@@查":4943,"@@及":4944,"@@率":4945,"@@倍":4946,"@@流":4947,"@@条":4948,"@@項":4949,"@@朝":4950,"@@浴":4951,"@@幹":4952,"@@翻":4953,"@@译":4954,"@@丨":4955,"@@习":4956,"@@구":4957,"@@胞":4958,"@@灾":4959,"@@祸":4960,"@@程":4961,"@@码":4962,"@@镜":4963,"@@ṣ":4964,"@@ぞ":4965,"@@髄":4966,"@@極":4967,"@@徹":4968,"@@暴":4969,"@@۱":4970,"@@宿":4971,"@@গ":4972,"@@暂":4973,"@@ो":4974,"@@en":4975,"@@er":4976,"@@ch":4977,"@@in":4978,"@@es":4979,"@@on":4980,"th":4981,"@@nd":4982,"@@it":4983,"@@at":4984,"@@ie":4985,"the":4986,"@@or":4987,"@@is":4988,"@@an":4989,"@@ar":4990,"@@st":4991,"@@al":4992,"in":4993,"@@ur":4994,"@@ion":4995,"@@ich":4996,"@@un":4997,"@@el":4998,"@@re":4999,"@@as":5000,"@@ed":5001,"of":5002,"@@ent":5003,"@@om":5004,"@@le":5005,"@@ing":5006,"@@ung":5007,"to":5008,"and":5009,"die":5010,"der":5011,"@@et":5012,"@@ig":5013,"und":5014,"@@us":5015,"@@em":5016,"@@ro":5017,"@@il":5018,"@@ot":5019,"@@ic":5020,"@@ut":5021,"ein":5022,"@@ol":5023,"@@ir":5024,"be":5025,"@@ra":5026,"@@te":5027,"@@ter":5028,"@@eit":5029,"@@ation":5030,"@@ten":5031,"@@os":5032,"@@am":5033,"@@ts":5034,"@@ies":5035,"@@op":5036,"@@ge":5037,"@@hr":5038,"@-":5039,"@-@":5040,"@@ul":5041,"al":5042,"is":5043,"@@id":5044,"@@uf":5045,"@@ber":5046,"@@ct":5047,"zu":5048,"@@lich":5049,"@@iv":5050,"@@den":5051,"re":5052,"for":5053,"@@der":5054,"@@ab":5055,"@@ür":5056,"an":5057,"@@isch":5058,"das":5059,"@@icht":5060,"@@ier":5061,"@@gen":5062,"@@sch":5063,"@@im":5064,"on":5065,"Th":5066,"den":5067,"that":5068,"@@ein":5069,"un":5070,"@@and":5071,"@@ly":5072,"@@omm":5073,"@@ess":5074,"qu":5075,"@@est":5076,"@@ere":5077,"st":5078,"wh":5079,"von":5080,"@@ow":5081,"im":5082,"pro":5083,"@@ach":5084,"@@ce":5085,"@@uch":5086,"ver":5087,"wir":5088,"@@um":5089,"ap":5090,"@@ort":5091,"@@de":5092,"@@ith":5093,"@@ver":5094,"@@kt":5095,"con":5096,"er":5097,"@@urop":5098,"@@ell":5099,"ist":5100,"@@ff":5101,"quot":5102,"auf":5103,"für":5104,"In":5105,"with":5106,"@@ers":5107,"des":5108,"@@ill":5109,"@@ou":5110,"@@iss":5111,"@@ve":5112,"St":5113,"Europ":5114,"mit":5115,"@@ay":5116,"are":5117,"@@eh":5118,"dies":5119,"en":5120,"we":5121,"as":5122,"@@ind":5123,"@@ad":5124,"@@eg":5125,"@@ck":5126,"The":5127,"Ver":5128,"de":5129,"apos":5130,"@@ik":5131,"@@men":5132,"@@ft":5133,"@@ist":5134,"ne":5135,"@@ungen":5136,"@@ischen":5137,"@@und":5138,"@@ust":5139,"@@ag":5140,"@@nen":5141,"@@our":5142,"@@th":5143,"Un":5144,"eine":5145,"@@ment":5146,"@@ib":5147,"als":5148,"@@ant":5149,"this":5150,"dem":5151,"ex":5152,"@@for":5153,"ha":5154,"@@ak":5155,"@@ah":5156,"@@ien":5157,"@@art":5158,"@@pe":5159,"se":5160,"@@ity":5161,"not":5162,"@@ive":5163,"@@ial":5164,"wer":5165,"ge":5166,"or":5167,"nicht":5168,"@@ate":5169,"@@ern":5170,"it":5171,"so":5172,"Sie":5173,"@@ann":5174,"werden":5175,"sich":5176,"@@end":5177,"all":5178,"dass":5179,"@@port":5180,"An":5181,"es":5182,"@@la":5183,"@@00":5184,"@@rom":5185,"have":5186,"@@iel":5187,"@@all":5188,"@@ben":5189,"@@igen":5190,"by":5191,"@@uld":5192,"com":5193,"@@up":5194,"co":5195,"@@igh":5196,"aus":5197,"@@ain":5198,"@@if":5199,"at":5200,"@@ommiss":5201,"Die":5202,"@@oll":5203,"will":5204,"@@tern":5205,"@@ass":5206,"sh":5207,"uns":5208,"@@ug":5209,"über":5210,"Pr":5211,"ab":5212,"@@ub":5213,"@@ungs":5214,"@@we":5215,"@@ions":5216,"Europe":5217,"@@aus":5218,"@@od":5219,"you":5220,"which":5221,"me":5222,"auch":5223,"Sch":5224,"@@pl":5225,"Pro":5226,"@@ommission":5227,"@@ould":5228,"da":5229,"um":5230,"@@ze":5231,"@@ahr":5232,"@@ran":5233,"@@och":5234,"@@uss":5235,"@@qu":5236,"sind":5237,"sch":5238,"@@ast":5239,"from":5240,"@@se":5241,"@@etz":5242,"@@ard":5243,"@@pr":5244,"vor":5245,"hab":5246,"@@ure":5247,"wird":5248,"pr":5249,"was":5250,"@@ident":5251,"@@hal":5252,"@@og":5253,"@@ang":5254,"@@ap":5255,"@@esch":5256,"has":5257,"ch":5258,"@@ert":5259,"Re":5260,"Par":5261,"@@ön":5262,"res":5263,"@@iz":5264,"We":5265,"am":5266,"wor":5267,"@@ische":5268,"@@du":5269,"@@enn":5270,"Er":5271,"wie":5272,"@@ip":5273,"@@err":5274,"@@ens":5275,"@@ament":5276,"ich":5277,"En":5278,"@@ät":5279,"@@ick":5280,"@@age":5281,"@@lie":5282,"@@ud":5283,"@@ous":5284,"@@ss":5285,"European":5286,"le":5287,"@@ok":5288,"hat":5289,"Ar":5290,"@@keit":5291,"@@ost":5292,"@@oc":5293,"@@form":5294,"Be":5295,"@@ise":5296,"@@änd":5297,"@@gr":5298,"@@urch":5299,"@@mer":5300,"@@ine":5301,"can":5302,"sein":5303,"he":5304,"@@tr":5305,"@@eren":5306,"man":5307,"oder":5308,"@@itt":5309,"@@ue":5310,"zur":5311,"haben":5312,"@@beit":5313,"@@ige":5314,"@@ations":5315,"@@heit":5316,"sie":5317,"@@ore":5318,"@@her":5319,"@@ect":5320,"200":5321,"@@ire":5322,"@@me":5323,"our":5324,"@@able":5325,"also":5326,"comp":5327,"@@cc":5328,"@@ational":5329,"@@tsch":5330,"@@olit":5331,"@@ult":5332,"@@lichen":5333,"@@ia":5334,"@@aft":5335,"ad":5336,"@@pt":5337,"@@out":5338,"@@ical":5339,"@@erv":5340,"@@tw":5341,"Ein":5342,"@@ition":5343,"kön":5344,"einer":5345,"Parl":5346,"us":5347,"Wir":5348,"Al":5349,"@@aten":5350,"Aus":5351,"@@ru":5352,"Union":5353,"@@ob":5354,"@@ated":5355,"@@ord":5356,"@@otel":5357,"@@pro":5358,"@@ieren":5359,"@@ember":5360,"Fra":5361,"@@fü":5362,"@@ice":5363,"reg":5364,"@@ement":5365,"@@hen":5366,"@@ome":5367,"unter":5368,"@@ates":5369,"bet":5370,"@@ark":5371,"@@iert":5372,"@@ction":5373,"part":5374,"einen":5375,"@@är":5376,"nach":5377,"Mit":5378,"do":5379,"@@af":5380,"@@ne":5381,"@@ac":5382,"Ich":5383,"bei":5384,"Ber":5385,"its":5386,"@@rat":5387,"@@ight":5388,"@@ish":5389,"@@vel":5390,"@@yst":5391,"EU":5392,"@@cht":5393,"Mr":5394,"Ab":5395,"Vor":5396,"Commission":5397,"@@zen":5398,"ag":5399,"@@ign":5400,"Das":5401,"@@ank":5402,"cont":5403,"@@erm":5404,"gro":5405,"durch":5406,"@@elt":5407,"@@are":5408,"@@äs":5409,"your":5410,"@@oh":5411,"@@oun":5412,"Herr":5413,"dar":5414,"@@ake":5415,"@@ystem":5416,"@@ely":5417,"@@cial":5418,"there":5419,"können":5420,"but":5421,"@@liche":5422,"@@ew":5423,"It":5424,"go":5425,"sp":5426,"@@ear":5427,"@@iff":5428,"@@ary":5429,"@@per":5430,"@@ite":5431,"@@ail":5432,"wur":5433,"@@ger":5434,"mö":5435,"@@ian":5436,"would":5437,"@@ide":5438,"Europä":5439,"@@rie":5440,"@@hre":5441,"@@ör":5442,"@@ose":5443,"@@au":5444,"@@än":5445,"inc":5446,"@@ther":5447,"@@chen":5448,"@@rit":5449,"@@ommen":5450,"@@con":5451,"spe":5452,"@@ble":5453,"off":5454,"more":5455,"@@he":5456,"@@ual":5457,"19":5458,"@@..":5459,"@@chte":5460,"tra":5461,"ind":5462,"&#":5463,"@@ov":5464,"war":5465,"@@ellen":5466,"Gr":5467,"been":5468,"@@onder":5469,"@@ese":5470,"zum":5471,"@@uß":5472,"@@ime":5473,"gen":5474,"@@ance":5475,"te":5476,"einem":5477,"their":5478,"diese":5479,"For":5480,"@@imm":5481,"coun":5482,"@@ram":5483,"@@reat":5484,"fin":5485,"bes":5486,"@@glich":5487,"kann":5488,"comm":5489,"@@anz":5490,"should":5491,"This":5492,"@@ase":5493,"dis":5494,"@@ont":5495,"@@ste":5496,"nur":5497,"@@chn":5498,"@@len":5499,"@@ong":5500,"@@rans":5501,"@@oss":5502,"ar":5503,"@@ück":5504,"@@ht":5505,"acc":5506,"Ch":5507,"@@ution":5508,"Reg":5509,"@@pf":5510,"@@ild":5511,"@@act":5512,"Pres":5513,"alle":5514,"@@üss":5515,"Auf":5516,"one":5517,"@@che":5518,"@@ack":5519,"@@eine":5520,"@@äsident":5521,"@@sten":5522,"Sp":5523,"@@ute":5524,"@@pos":5525,"up":5526,"@@tra":5527,"soll":5528,"work":5529,"@@ierung":5530,"sup":5531,"rel":5532,"De":5533,"@@zu":5534,"dieser":5535,"@@ges":5536,"daß":5537,"countr":5538,"@@ile":5539,"Kommission":5540,"new":5541,"ob":5542,"@@gt":5543,"@@one":5544,"int":5545,"Ge":5546,"Der":5547,"Te":5548,"...":5549,"must":5550,"cl":5551,"@@ike":5552,"@@igkeit":5553,"@@ame":5554,"@@gan":5555,"@@ehmen":5556,"@@ner":5557,"@@hren":5558,"Es":5559,"Jahr":5560,"@@auf":5561,"@@üt":5562,"@@olle":5563,"out":5564,"@@ün":5565,"Le":5566,"jed":5567,"zw":5568,"pl":5569,"Dies":5570,"Hotel":5571,"@@gram":5572,"@@ons":5573,"@@lt":5574,"@@ple":5575,"noch":5576,"@@ree":5577,"@@ktion":5578,"@@schaft":5579,"@@reich":5580,"@@land":5581,"President":5582,"@@be":5583,"pre":5584,"@@ähr":5585,"who":5586,"need":5587,"inter":5588,"@@ient":5589,"@@bar":5590,"@@emein":5591,"weit":5592,"ma":5593,"@@geb":5594,"other":5595,"produ":5596,"pe":5597,"@@ities":5598,"@@ings":5599,"per":5600,"@@ehen":5601,"they":5602,"ber":5603,"@@alt":5604,"polit":5605,"Präsident":5606,"@@av":5607,"ev":5608,"@@ld":5609,"@@glie":5610,"@@ke":5611,"@@formation":5612,"@@üssen":5613,"@@utz":5614,"wenn":5615,"intern":5616,"@@schen":5617,"cons":5618,"very":5619,"@@ms":5620,"year":5621,"@@ces":5622,"@@ink":5623,"mehr":5624,"like":5625,"bec":5626,"aber":5627,"@@ors":5628,"Parlament":5629,"müssen":5630,"wurde":5631,"@@iet":5632,"only":5633,"op":5634,"@@oin":5635,"Mitglie":5636,"@@iament":5637,"Se":5638,"about":5639,"@@ied":5640,"ro":5641,"ste":5642,"@@ren":5643,"time":5644,"@@nah":5645,"eff":5646,"@@leich":5647,"@@velop":5648,"@@ible":5649,"@@ele":5650,"@@olog":5651,"@@uen":5652,"@@assen":5653,"Member":5654,"@@ität":5655,"ent":5656,"@@ater":5657,"ges":5658,"@@xt":5659,"Arbeit":5660,"@@cts":5661,"@@ced":5662,"@@ious":5663,"@@ments":5664,"@@ph":5665,"prov":5666,"any":5667,"@@schl":5668,"sehr":5669,"@@cess":5670,"@@ahl":5671,"unser":5672,"@@ubl":5673,"@@ammen":5674,"sol":5675,"these":5676,"@@aaten":5677,"em":5678,"sow":5679,"@@ally":5680,"@@get":5681,"@@iden":5682,"@@twick":5683,"@@ffen":5684,"Europäischen":5685,"trans":5686,"Men":5687,"diesem":5688,"import":5689,"20":5690,"@@usammen":5691,"@@ring":5692,"@@esent":5693,"rec":5694,"@@fl":5695,"@@arbeit":5696,"no":5697,"@@fore":5698,"@@stit":5699,"@@els":5700,"Parliament":5701,"@@ument":5702,"@@ans":5703,"@@erg":5704,"@@ility":5705,"gegen":5706,"@@dern":5707,"@@wend":5708,"@@fahr":5709,"bis":5710,"@@äh":5711,"dire":5712,"@@entr":5713,"@@ause":5714,"pol":5715,"@@ular":5716,"@@etzt":5717,"develop":5718,"@@eln":5719,"@@ibt":5720,"@@cy":5721,"vie":5722,"ins":5723,"@@igt":5724,"if":5725,"@@ople":5726,"@@fen":5727,"Um":5728,"@@wer":5729,"ihre":5730,"@@oy":5731,"@@ism":5732,"Mitglied":5733,"tr":5734,"@@ßen":5735,"Ma":5736,"@@por":5737,"@@ures":5738,"Unter":5739,"@@atz":5740,"such":5741,"@@hnen":5742,"wel":5743,"conc":5744,"@@als":5745,"@@ook":5746,"report":5747,"@@iven":5748,"@@erung":5749,"@@lin":5750,"@@lung":5751,"serv":5752,"hin":5753,"@@irst":5754,"möchte":5755,"@@ange":5756,"@@ks":5757,"@@ject":5758,"gew":5759,"@@ative":5760,"dec":5761,"@@now":5762,"@@par":5763,"@@acht":5764,"la":5765,"@@erson":5766,"@@itu":5767,"Im":5768,"Zeit":5769,"people":5770,"Ges":5771,"@@ats":5772,"States":5773,"over":5774,"@@führ":5775,"act":5776,"@@fol":5777,"ihr":5778,"As":5779,"@@rol":5780,"@@conom":5781,"best":5782,"@@ett":5783,"@@ific":5784,"my":5785,"@@att":5786,"international":5787,"@@cil":5788,"@@ues":5789,"@@io":5790,"@@ays":5791,"sub":5792,"@@stell":5793,"@@kte":5794,"So":5795,"Coun":5796,"@@uropä":5797,"@@iger":5798,"gr":5799,"@@bs":5800,"@@unden":5801,"into":5802,"@@wn":5803,"@@ken":5804,"bel":5805,"countries":5806,"viel":5807,"@@pre":5808,"@@ler":5809,"sel":5810,"inv":5811,"mark":5812,"@@olitik":5813,"Über":5814,"@@ices":5815,"sa":5816,"system":5817,"what":5818,"@@elle":5819,"@@ale":5820,"12":5821,"use":5822,"@@dition":5823,"@@rei":5824,"@@isten":5825,"some":5826,"hier":5827,"wicht":5828,"Council":5829,"@@zeit":5830,"bas":5831,"polic":5832,"Or":5833,"Mar":5834,"diff":5835,"eines":5836,"europä":5837,"@@ention":5838,"@@je":5839,"@@stüt":5840,"support":5841,"@@fer":5842,"@@ugh":5843,"well":5844,"@@itte":5845,"@@ds":5846,"Menschen":5847,"geh":5848,"partic":5849,"Kon":5850,"@@gest":5851,"econom":5852,"@@über":5853,"@@teil":5854,"eing":5855,"@@ede":5856,"@@ider":5857,"@@wo":5858,"when":5859,"high":5860,"were":5861,"@@ict":5862,"dieses":5863,"dam":5864,"than":5865,"important":5866,"incl":5867,"under":5868,"propos":5869,"Mitgliedst":5870,"Comm":5871,"@@amen":5872,"leg":5873,"Land":5874,"@@sicht":5875,"@@stand":5876,"@@oint":5877,"again":5878,"now":5879,"@@gel":5880,"first":5881,"how":5882,"@@ards":5883,"them":5884,"her":5885,"vom":5886,"@@icher":5887,"@@very":5888,"@@rä":5889,"@@ory":5890,"@@ace":5891,"@@ating":5892,"@@ages":5893,"@@net":5894,"@@ights":5895,"just":5896,"@@ound":5897,"@@äch":5898,"Bericht":5899,"@@ful":5900,"@@ever":5901,"aut":5902,"@@kommen":5903,"@@ry":5904,"@@lo":5905,"Entwick":5906,"sowie":5907,"know":5908,"ele":5909,"@@pect":5910,"@@tschaft":5911,"@@inn":5912,"make":5913,"@@mitt":5914,"lie":5915,"@@ween":5916,"hel":5917,"@@essen":5918,"@@wor":5919,"Verb":5920,"most":5921,"because":5922,"@@enden":5923,"@@kl":5924,"@@halt":5925,"between":5926,"@@halb":5927,"gibt":5928,"@@ließ":5929,"ass":5930,"Fl":5931,"market":5932,"zwischen":5933,"bereit":5934,"@@issen":5935,"@@own":5936,"@@ives":5937,"pla":5938,"Grund":5939,"@@ös":5940,"muss":5941,"@@wir":5942,"national":5943,"many":5944,"requ":5945,"@@str":5946,"techn":5947,"@@lear":5948,"@@blem":5949,"Mitgliedstaaten":5950,"take":5951,"sc":5952,"poss":5953,"kon":5954,"@@halten":5955,"@@zial":5956,"@@ote":5957,"fre":5958,"pos":5959,"@@ural":5960,"@@ublic":5961,"@@nung":5962,"@@atter":5963,"Pl":5964,"@@gh":5965,"his":5966,"@@oth":5967,"@@öglich":5968,"@@vern":5969,"@@tre":5970,"@@bst":5971,"Art":5972,"loc":5973,"@@igung":5974,"cre":5975,"end":5976,"world":5977,"@@ister":5978,"@@abe":5979,"US":5980,"unsere":5981,"@@fin":5982,"Nach":5983,"Me":5984,"He":5985,"Fin":5986,"@@omp":5987,"Europa":5988,"keine":5989,"Intern":5990,"@@cept":5991,"@@rauch":5992,"get":5993,"mein":5994,"@@abl":5995,"@@ware":5996,"rem":5997,"@@rateg":5998,"@@ohl":5999,"@@arm":6000,"@@hand":6001,"Produ":6002,"199":6003,"@@mal":6004,"@@dit":6005,"iss":6006,"mo":6007,"hand":6008,"Zusammen":6009,"Min":6010,"@@achen":6011,"disc":6012,"@@nis":6013,"einz":6014,"fr":6015,"@@ount":6016,"@@ho":6017,"hotel":6018,"par":6019,"@@pen":6020,"@@rough":6021,"verb":6022,"@@eschä":6023,"Länd":6024,"made":6025,"anderen":6026,"@@any":6027,"min":6028,"policy":6029,"@@fe":6030,"@@forder":6031,"@@chten":6032,"Ihre":6033,"@@rag":6034,"ben":6035,"find":6036,"@@ents":6037,"@@ereich":6038,"those":6039,"@@unkt":6040,"10":6041,"where":6042,"Ihnen":6043,"nat":6044,"@@ality":6045,"great":6046,"gl":6047,"information":6048,"av":6049,"@@ständ":6050,"see":6051,"@@ße":6052,"years":6053,"@@ichts":6054,"@@gend":6055,"@@ternehmen":6056,"Her":6057,"@@äm":6058,"@@ünd":6059,"two":6060,"@@ision":6061,"@@fter":6062,"direct":6063,"even":6064,"@@ituation":6065,"way":6066,"Ind":6067,"Wenn":6068,"If":6069,"91":6070,"@@uman":6071,"@@dem":6072,"@@ischer":6073,"93":6074,"every":6075,"@@geben":6076,"good":6077,"Seit":6078,"vers":6079,"@@trag":6080,"@@unity":6081,"weiter":6082,"@@nahmen":6083,"@@uring":6084,"@@ganis":6085,"@@weise":6086,"@@uer":6087,"Bereich":6088,"Haus":6089,"through":6090,"immer":6091,"@@day":6092,"@@ath":6093,"@@dr":6094,"tak":6095,"del":6096,"fe":6097,"@@fr":6098,"@@ellt":6099,"@@ium":6100,"@@chts":6101,"@@ession":6102,"@@air":6103,"order":6104,"diesen":6105,"particular":6106,"dann":6107,"belie":6108,"being":6109,"@@itz":6110,"versch":6111,"appro":6112,"@@urn":6113,"damit":6114,"right":6115,"Frau":6116,"@@edeut":6117,"@@üh":6118,"@@ina":6119,"@@ußer":6120,"Ex":6121,"su":6122,"@@ionen":6123,"@@stru":6124,"@@piel":6125,"@@icherheit":6126,"ke":6127,"@@amil":6128,"ac":6129,"@@ält":6130,"@@ffent":6131,"may":6132,"@@ep":6133,"@@fra":6134,"view":6135,"@@isen":6136,"@@ax":6137,"Rat":6138,"beg":6139,"had":6140,"@@alls":6141,"resp":6142,"@@ower":6143,"deb":6144,"room":6145,"@@stitution":6146,"Wh":6147,"gel":6148,"@@innen":6149,"fact":6150,"@@alen":6151,"gesch":6152,"beste":6153,"@@alten":6154,"@@ited":6155,"wieder":6156,"agre":6157,"@@lick":6158,"wurden":6159,"@@ete":6160,"Des":6161,"Europäische":6162,"@@zie":6163,"@@isse":6164,"@@eration":6165,"All":6166,"There":6167,"program":6168,"Bür":6169,"mon":6170,"@@feren":6171,"num":6172,"@@let":6173,"want":6174,"process":6175,"Gro":6176,"cur":6177,"@@vor":6178,"zwe":6179,"includ":6180,"own":6181,"str":6182,"@@ior":6183,"quest":6184,"political":6185,"gu":6186,"@@ough":6187,"@@äl":6188,"habe":6189,"Hand":6190,"cour":6191,"@@emeins":6192,"@@istr":6193,"@@ieden":6194,"@@enz":6195,"@@ster":6196,"@@aff":6197,"sonder":6198,"gest":6199,"Diese":6200,"@@afts":6201,"@@lar":6202,"Welt":6203,"@@fort":6204,"Entsch":6205,"@@ivers":6206,"sondern":6207,"kein":6208,"@@ital":6209,"@@aut":6210,"On":6211,"@@ows":6212,"@@für":6213,"car":6214,"unserer":6215,"@@itä":6216,"Inter":6217,"@@zeich":6218,"concern":6219,"Con":6220,"clear":6221,"@@stütz":6222,"Zu":6223,"Geb":6224,"economic":6225,"red":6226,"Vorschl":6227,"wür":6228,"At":6229,"stand":6230,"Ihr":6231,"@@read":6232,"human":6233,"rest":6234,"prote":6235,"@@iness":6236,"incre":6237,"jedoch":6238,"@@hne":6239,"public":6240,"here":6241,"real":6242,"@@tegr":6243,"@@sel":6244,"term":6245,"main":6246,"@@nder":6247,"@@ßnahmen":6248,"ser":6249,"@@bens":6250,"@@ys":6251,"@@immer":6252,"att":6253,"sm":6254,"Gen":6255,"@@eth":6256,"@@off":6257,"ful":6258,"ph":6259,"rights":6260,"Kolle":6261,"say":6262,"seine":6263,"heute":6264,"@@gung":6265,"@@öl":6266,"@@ruck":6267,"form":6268,"Mitt":6269,"area":6270,"fü":6271,"possible":6272,"Am":6273,"@@adt":6274,"Information":6275,"@@ktiv":6276,"fund":6277,"System":6278,"@@laub":6279,"@@ved":6280,"development":6281,"@@ently":6282,"@@erk":6283,"@@raft":6284,"Bar":6285,"@@gesch":6286,"neue":6287,"bu":6288,"@@ouse":6289,"Program":6290,"cent":6291,"@@cur":6292,"gut":6293,"@@iti":6294,"@@lagen":6295,"@@upt":6296,"Arbeits":6297,"@@eld":6298,"Unternehmen":6299,"bus":6300,"@@ince":6301,"sim":6302,"europäischen":6303,"contin":6304,"@@ade":6305,"point":6306,"same":6307,"@@mend":6308,"etw":6309,"therefore":6310,"mich":6311,"@@ets":6312,"@@öglichkeit":6313,"Richt":6314,"cr":6315,"You":6316,"bed":6317,"15":6318,"does":6319,"@@ift":6320,"bereits":6321,"@@weit":6322,"against":6323,"Bes":6324,"could":6325,"@@ply":6326,"@@ines":6327,"@@uro":6328,"wen":6329,"@@isk":6330,"fest":6331,"@@richt":6332,"level":6333,"gleich":6334,"wichtig":6335,"@@tens":6336,"201":6337,"place":6338,"det":6339,"ide":6340,"@@ool":6341,"Fre":6342,"exam":6343,"@@ustr":6344,"@@politik":6345,"@@az":6346,"@@plic":6347,"@@wort":6348,"Teil":6349,"@@icult":6350,"@@licher":6351,"@@alk":6352,"est":6353,"@@ix":6354,"sollte":6355,"@@ollen":6356,"Ne":6357,"@@eten":6358,"@@eral":6359,"@@vir":6360,"within":6361,"country":6362,"finan":6363,"@@fach":6364,"@@les":6365,"Wie":6366,"Hin":6367,"number":6368,"@@etzen":6369,"social":6370,"@@utions":6371,"ihrer":6372,"How":6373,"amp":6374,"then":6375,"ger":6376,"@@min":6377,"selbst":6378,"@@aur":6379,"Mon":6380,"@@ittee":6381,"bring":6382,"region":6383,"Vers":6384,"Sicherheit":6385,"Br":6386,"neuen":6387,"Frage":6388,"@@urs":6389,"@@ata":6390,"present":6391,"@@reichen":6392,"@@ploy":6393,"@@agement":6394,"Bürger":6395,"Is":6396,"last":6397,"@@hin":6398,"ganz":6399,"Bed":6400,"Entwicklung":6401,"think":6402,"Bet":6403,"lang":6404,"@@viron":6405,"person":6406,"@@fahren":6407,"@@ulation":6408,"denn":6409,"@@osten":6410,"Kommiss":6411,"@@lage":6412,"@@satz":6413,"call":6414,"@@ierte":6415,"both":6416,"@@round":6417,"ohne":6418,"sign":6419,"@@amp":6420,"Schl":6421,"@@bes":6422,"lar":6423,"@@bew":6424,"@@äre":6425,"meas":6426,"sollten":6427,"Pre":6428,"@@old":6429,"provid":6430,"much":6431,"@@ziel":6432,"andere":6433,"dr":6434,"cert":6435,"Jahren":6436,"gemeins":6437,"mak":6438,"sur":6439,"ange":6440,"@@hip":6441,"val":6442,"@@erent":6443,"govern":6444,"pra":6445,"@@lex":6446,"prof":6447,"denen":6448,"Fran":6449,"ens":6450,"after":6451,"@@ierten":6452,"@@äng":6453,"@@ock":6454,"@@sche":6455,"agreement":6456,"Man":6457,"equ":6458,"@@hn":6459,"And":6460,"@@vironment":6461,"@@immt":6462,"@@its":6463,"med":6464,"@@ond":6465,"avail":6466,"@@ics":6467,"@@plement":6468,"Kont":6469,"Part":6470,"@@line":6471,"exc":6472,"@@obal":6473,"@@nahme":6474,"fun":6475,"group":6476,"@@ically":6477,"@@ivid":6478,"oper":6479,"@@ondere":6480,"without":6481,"eigen":6482,"spec":6483,"Fr":6484,"offer":6485,"still":6486,"help":6487,"@@led":6488,"@@kehr":6489,"@@ope":6490,"zwei":6491,"used":6492,"mod":6493,"@@öß":6494,"ausge":6495,"free":6496,"möglich":6497,"@@over":6498,"@@ood":6499,"@@uture":6500,"@@work":6501,"Ha":6502,"vis":6503,"believe":6504,"Änder":6505,"@@lichkeit":6506,"var":6507,"@@zeug":6508,"@@reit":6509,"@@ilt":6510,"@@ants":6511,"Daten":6512,"hist":6513,"18":6514,"weil":6515,"@@ktur":6516,"@@ftware":6517,"Dem":6518,"@@ationen":6519,"prin":6520,"priv":6521,"00":6522,"@@part":6523,"@@ven":6524,"Ste":6525,"opt":6526,"@@ibility":6527,"play":6528,"@@kun":6529,"long":6530,"Germ":6531,"services":6532,"@@ready":6533,"curr":6534,"ents":6535,"@@gar":6536,"dazu":6537,"Best":6538,"@@ispiel":6539,"able":6540,"@@ux":6541,"@@ma":6542,"@@nte":6543,"future":6544,"consider":6545,"@@ährend":6546,"@@iß":6547,"@@ahmen":6548,"different":6549,"access":6550,"@@hor":6551,"@@udget":6552,"@@ritt":6553,"Stand":6554,"@@ability":6555,"@@affen":6556,"already":6557,"down":6558,"@@ieten":6559,"Maßnahmen":6560,"@@ised":6561,"finden":6562,"effect":6563,"verschieden":6564,"30":6565,"@@yp":6566,"@@itiz":6567,"Ziel":6568,"@@imin":6569,"require":6570,"exper":6571,"darauf":6572,"machen":6573,"exp":6574,"@@ienst":6575,"@@ietet":6576,"@@esse":6577,"@@ollow":6578,"cap":6579,"@@licht":6580,"@@oren":6581,"@@alth":6582,"cann":6583,"@@fern":6584,"Em":6585,"@@aben":6586,"@@ossen":6587,"@@zug":6588,"@@stellen":6589,"allen":6590,"@@ists":6591,"today":6592,"Kl":6593,"jetzt":6594,"@@entral":6595,"@@br":6596,"@@strument":6597,"That":6598,"Person":6599,"prev":6600,"letz":6601,"@@okrat":6602,"Finanz":6603,"Them":6604,"@@aher":6605,"@@äß":6606,"Rahmen":6607,"prom":6608,"cannot":6609,"viele":6610,"But":6611,"fl":6612,"adv":6613,"aller":6614,"@@press":6615,"Mein":6616,"@@elegen":6617,"bin":6618,"back":6619,"bef":6620,"geb":6621,"000":6622,"@@ismus":6623,"@@rand":6624,"@@ize":6625,"124":6626,"gem":6627,"@@atur":6628,"@@stellung":6629,"Verein":6630,"som":6631,"Rechts":6632,"Wor":6633,"environment":6634,"Commissioner":6635,"@@punkt":6636,"Herrn":6637,"@@ness":6638,"respons":6639,"Aut":6640,"pers":6641,"Möglichkeit":6642,"@@curity":6643,"business":6644,"available":6645,"Tra":6646,"@@ungsant":6647,"neg":6648,"@@los":6649,"look":6650,"@@akt":6651,"@@use":6652,"@@vers":6653,"certain":6654,"@@iver":6655,"@@nisse":6656,"Gemein":6657,"char":6658,"@@ron":6659,"before":6660,"Energ":6661,"cor":6662,"@@wert":6663,"@@ude":6664,"@@etzung":6665,"too":6666,"geht":6667,"@@kten":6668,"@@ustom":6669,"@@ving":6670,"@@ER":6671,"@@omen":6672,"@@cond":6673,"Mittel":6674,"Gew":6675,"@@stall":6676,"set":6677,"citiz":6678,"fac":6679,"redu":6680,"@@opt":6681,"course":6682,"Russ":6683,"kle":6684,"mir":6685,"financial":6686,"question":6687,"dafür":6688,"@@ha":6689,"@@eich":6690,"@@ward":6691,"bietet":6692,"@@ves":6693,"@@chie":6694,"@@grund":6695,"bek":6696,"@@ctor":6697,"seiner":6698,"@@olution":6699,"@@iqu":6700,"Med":6701,"regard":6702,"@@ragen":6703,"@@riff":6704,"special":6705,"größ":6706,"Res":6707,"open":6708,"Aussch":6709,"@@klär":6710,"products":6711,"@@ife":6712,"2009":6713,"@@antwort":6714,"@@jor":6715,"invest":6716,"@@angen":6717,"@@ante":6718,"debate":6719,"liegt":6720,"sicher":6721,"proposal":6722,"impro":6723,"implement":6724,"put":6725,"@@leist":6726,"@@ars":6727,"posit":6728,"case":6729,"einige":6730,"@@ether":6731,"Informationen":6732,"@@allen":6733,"@@ichter":6734,"@@operation":6735,"start":6736,"@@erb":6737,"@@annt":6738,"law":6739,"@@way":6740,"@@ders":6741,"@@lungs":6742,"@@aften":6743,"@@ience":6744,"@@ling":6745,"issue":6746,"seit":6747,"schon":6748,"@@iber":6749,"small":6750,"follow":6751,"@@ahre":6752,"@@ential":6753,"integr":6754,"@@ately":6755,"data":6756,"@@esen":6757,"Pol":6758,"einfach":6759,"voll":6760,"@@tend":6761,"@@folg":6762,"@@ified":6763,"Amer":6764,"wo":6765,"@@isierung":6766,"Politik":6767,"meine":6768,"@@ym":6769,"bro":6770,"repr":6771,"achie":6772,"air":6773,"@@wand":6774,"said":6775,"Trans":6776,"@@ultur":6777,"Lage":6778,"@@isl":6779,"energ":6780,"Kommissar":6781,"Parlaments":6782,"@@ätz":6783,"@@ilit":6784,"quality":6785,"rap":6786,"problem":6787,"11":6788,"@@ser":6789,"strateg":6790,"erw":6791,"situation":6792,"@@arten":6793,"@@besondere":6794,"@@yn":6795,"reas":6796,"amend":6797,"design":6798,"Internet":6799,"@@lossen":6800,"@@abei":6801,"stat":6802,"bo":6803,"individ":6804,"nun":6805,"ihren":6806,"service":6807,"allem":6808,"Schw":6809,"@@ica":6810,"@@other":6811,"citizens":6812,"@@heiten":6813,"gef":6814,"würde":6815,"@@eid":6816,"@@ichten":6817,"@@welt":6818,"@@raph":6819,"@@ests":6820,"et":6821,"@@ctions":6822,"@@lungen":6823,"deut":6824,"example":6825,"ref":6826,"@@halts":6827,"saf":6828,"Serv":6829,"@@kunft":6830,"@@olid":6831,"zurück":6832,"ask":6833,"fol":6834,"conf":6835,"adopt":6836,"@@illion":6837,"means":6838,"@@ucht":6839,"@@iving":6840,"wollen":6841,"@@aterial":6842,"Vorschlag":6843,"democ":6844,"far":6845,"Stadt":6846,"Committee":6847,"@@ccess":6848,"Länder":6849,"@@iben":6850,"necess":6851,"art":6852,"major":6853,"@@blems":6854,"@@ually":6855,"common":6856,"besch":6857,"@@ohn":6858,"activ":6859,"@@fass":6860,"@@ished":6861,"@@bt":6862,"@@sen":6863,"control":6864,"entsch":6865,"cost":6866,"@@uchen":6867,"sagen":6868,"@@imes":6869,"@@nov":6870,"@@gress":6871,"@@cing":6872,"Sh":6873,"@@immung":6874,"@@länd":6875,"@@eschäft":6876,"measures":6877,"@@führt":6878,"Form":6879,"zusammen":6880,"Qu":6881,"respect":6882,"sozial":6883,"matter":6884,"compet":6885,"@@pra":6886,"However":6887,"@@ichte":6888,"@@aat":6889,"@@tain":6890,"Jahre":6891,"since":6892,"day":6893,"Auss":6894,"@@ret":6895,"custom":6896,"@@res":6897,"@@iele":6898,"@@cr":6899,"Und":6900,"Ad":6901,"@@ache":6902,"ple":6903,"besonder":6904,"unseren":6905,"Kin":6906,"member":6907,"@@amm":6908,"applic":6909,"@@ktionen":6910,"meet":6911,"@@genommen":6912,"interest":6913,"schw":6914,"To":6915,"budget":6916,"offers":6917,"@@lig":6918,"Lös":6919,"Pal":6920,"@@schr":6921,"@@ums":6922,"tun":6923,"@@linie":6924,"@@lä":6925,"fur":6926,"Unterstütz":6927,"including":6928,"result":6929,"@@agt":6930,"@@vention":6931,"author":6932,"eng":6933,"@@ator":6934,"@@earch":6935,"Bei":6936,"@@gleich":6937,"insbesondere":6938,"Spe":6939,"technolog":6940,"during":6941,"@@ather":6942,"@@ination":6943,"@@bsite":6944,"Euro":6945,"doch":6946,"ret":6947,"power":6948,"discuss":6949,"based":6950,"@@ird":6951,"@@ordnung":6952,"@@racht":6953,"Beh":6954,"@@ways":6955,"grow":6956,"wissen":6957,"vot":6958,"Eine":6959,"rev":6960,"Proje":6961,"employ":6962,"@@omat":6963,"verfü":6964,"@@ily":6965,"energy":6966,"Für":6967,"@@anken":6968,"@@mar":6969,"End":6970,"während":6971,"@@eter":6972,"stehen":6973,"represent":6974,"enth":6975,"Was":6976,"@@öt":6977,"@@porte":6978,"@@inen":6979,"China":6980,"thank":6981,"child":6982,"Problem":6983,"25":6984,"fra":6985,"@@prechen":6986,"Mill":6987,"Ger":6988,"@@ef":6989,"@@ins":6990,"@@ove":6991,"colle":6992,"@@come":6993,"allow":6994,"organis":6995,"Ph":6996,"With":6997,"16":6998,"few":6999,"Gesch":7000,"etwas":7001,"@@ugen":7002,"@@orts":7003,"areas":7004,"pass":7005,"Unterstützung":7006,"give":7007,"ensure":7008,"Als":7009,"öffent":7010,"@@zept":7011,"bre":7012,"taken":7013,"Bild":7014,"@@fts":7015,"@@ürlich":7016,"erm":7017,"@@abil":7018,"@@iew":7019,"Techn":7020,"@@mittel":7021,"@@ott":7022,"establ":7023,"@@ased":7024,"legisl":7025,"each":7026,"@@ains":7027,"@@ließlich":7028,"@@oten":7029,"@@ized":7030,"Zusammenarbeit":7031,"Änderungsant":7032,"terr":7033,"komm":7034,"next":7035,"ur":7036,"Zug":7037,"@@äge":7038,"famil":7039,"Ländern":7040,"found":7041,"@@igten":7042,"Our":7043,"@@ule":7044,"Fall":7045,"@@itor":7046,"Ur":7047,"einmal":7048,"eas":7049,"bedeut":7050,"global":7051,"@@ditions":7052,"object":7053,"three":7054,"@@bed":7055,"hope":7056,"gar":7057,"contr":7058,"@@uge":7059,"Durch":7060,"@@ierungs":7061,"@@iate":7062,"außer":7063,"@@ipl":7064,"@@aum":7065,"14":7066,"begr":7067,"@@legen":7068,"problems":7069,"@@ende":7070,"security":7071,"erhalten":7072,"@@lus":7073,"Tr":7074,"Proble":7075,"Recht":7076,"@@bur":7077,"Eng":7078,"wirtschaft":7079,"provide":7080,"@@ged":7081,"@@pp":7082,"position":7083,"@@falls":7084,"@@ters":7085,"cooperation":7086,"@@ilfe":7087,"princ":7088,"opport":7089,"@@tschafts":7090,"Ang":7091,"Deb":7092,"key":7093,"kommen":7094,"Zimmer":7095,"Markt":7096,"cult":7097,"@@ules":7098,"success":7099,"vote":7100,"2010":7101,"@@zw":7102,"@@itäten":7103,"Wer":7104,"read":7105,"@@örder":7106,"necessary":7107,"further":7108,"Group":7109,"wirk":7110,"Mad":7111,"@@agen":7112,"Bo":7113,"verl":7114,"il":7115,"@@ining":7116,"erst":7117,"@@ites":7118,"@@amer":7119,"rece":7120,"@@utzen":7121,"@@utes":7122,"@@ases":7123,"Go":7124,"@@ahn":7125,"@@ateg":7126,"ans":7127,"@@red":7128,"@@ports":7129,"el":7130,"Qual":7131,"invol":7132,"unterstüt":7133,"health":7134,"@@isation":7135,"Namen":7136,"@@ruct":7137,"geben":7138,"Beit":7139,"@@zt":7140,"Verfü":7141,"why":7142,"bess":7143,"schn":7144,"change":7145,"large":7146,"@@reng":7147,"Dienst":7148,"Ital":7149,"Bel":7150,"addition":7151,"Bl":7152,"che":7153,"modern":7154,"pay":7155,"come":7156,"protection":7157,"@@zahl":7158,"@@ichterst":7159,"50":7160,"given":7161,"Regierung":7162,"abs":7163,"2008":7164,"link":7165,"@@nten":7166,"build":7167,"100":7168,"@@ellschaft":7169,"@@ente":7170,"Deut":7171,"aff":7172,"17":7173,"histor":7174,"@@igkeiten":7175,"besteht":7176,"imm":7177,"pract":7178,"@@gang":7179,"waren":7180,"Community":7181,"@@orgen":7182,"accept":7183,"New":7184,"lassen":7185,"@@neh":7186,"groß":7187,"stud":7188,"verst":7189,"net":7190,"Kollegen":7191,"Spiel":7192,"@@mit":7193,"Stra":7194,"shall":7195,"city":7196,"imp":7197,"@@ises":7198,"@@zieh":7199,"@@führung":7200,"@@orn":7201,"kom":7202,"wäre":7203,"Fragen":7204,"@@altung":7205,"inform":7206,"@@ctive":7207,"@@ald":7208,"@@ising":7209,"beim":7210,"@@text":7211,"du":7212,"@@ettbew":7213,"@@rechte":7214,"@@EN":7215,"ersten":7216,"Besch":7217,"@@cken":7218,"however":7219,"@@schied":7220,"führen":7221,"entwick":7222,"@@arn":7223,"drei":7224,"Vol":7225,"@@ialog":7226,"@@elf":7227,"lead":7228,"Kr":7229,"@@rad":7230,"@@orth":7231,"Gl":7232,"account":7233,"@@ogen":7234,"@@dent":7235,"@@unic":7236,"@@glichen":7237,"Vertrag":7238,"@@hol":7239,"Tag":7240,"@@wendung":7241,"pop":7242,"@@ash":7243,"Bedeut":7244,"action":7245,"second":7246,"Entscheid":7247,"Energie":7248,"@@wards":7249,"bl":7250,"ze":7251,"ander":7252,"tre":7253,"muß":7254,"@@nehmen":7255,"@@prü":7256,"Mrs":7257,"bew":7258,"@@geleg":7259,"@@leg":7260,"consum":7261,"Rest":7262,"United":7263,"Fraktion":7264,"@@ivil":7265,"@@org":7266,"needs":7267,"@@igin":7268,"@@co":7269,"list":7270,"13":7271,"@@gangen":7272,"@@ively":7273,"legal":7274,"Port":7275,"@@asch":7276,"Cl":7277,"Ob":7278,"House":7279,"@@häng":7280,"@@nect":7281,"met":7282,"@@zess":7283,"rooms":7284,"sk":7285,"@@undheit":7286,"@@indet":7287,"Sw":7288,"@@iety":7289,"statt":7290,"@@gem":7291,"Ro":7292,"Da":7293,"wish":7294,"Ben":7295,"@@ek":7296,"@@row":7297,"@@aurant":7298,"La":7299,"letzten":7300,"Bedeutung":7301,"@@AT":7302,"@@enten":7303,"@@bau":7304,"Not":7305,"@@ements":7306,"@@ross":7307,"@@man":7308,"richt":7309,"better":7310,"fav":7311,"@@uff":7312,"@@ätze":7313,"@@ölk":7314,"rapporte":7315,"steht":7316,"Berichterst":7317,"@@ty":7318,"@@urz":7319,"@@fte":7320,"@@sequ":7321,"Dar":7322,"worden":7323,"@@ources":7324,"company":7325,"did":7326,"@@schein":7327,"mult":7328,"@@von":7329,"Staaten":7330,"@@zü":7331,"akt":7332,"defin":7333,"@@schaften":7334,"while":7335,"Lebens":7336,"always":7337,"Geschä":7338,"@@gehen":7339,"Ergeb":7340,"comb":7341,"Seite":7342,"@@ilities":7343,"@@ried":7344,"@@reif":7345,"USA":7346,"@@opp":7347,"nor":7348,"What":7349,"dabei":7350,"@@ingungen":7351,"@@irm":7352,"life":7353,"@@uten":7354,"fil":7355,"Lis":7356,"Schutz":7357,"Fe":7358,"je":7359,"whether":7360,"@@ference":7361,"particularly":7362,"Umwelt":7363,"current":7364,"mus":7365,"@@dress":7366,"@@rop":7367,"trade":7368,"Region":7369,"@@cted":7370,"@@ands":7371,"exist":7372,"reach":7373,"Kunden":7374,"@@kon":7375,"ble":7376,"crit":7377,"seinen":7378,"Sk":7379,"hö":7380,"enter":7381,"@@eign":7382,"@@ordnet":7383,"@@ander":7384,"2007":7385,"@@AN":7386,"@@gew":7387,"@@iation":7388,"@@ify":7389,"@@offe":7390,"Strateg":7391,"terms":7392,"install":7393,"@@joy":7394,"@@fre":7395,"dra":7396,"deren":7397,"Haushalts":7398,"transport":7399,"@@ikan":7400,"@@hält":7401,"24":7402,"add":7403,"They":7404,"rele":7405,"Lin":7406,"fiel":7407,"less":7408,"@@bereich":7409,"gehör":7410,"@@uft":7411,"große":7412,"@@immen":7413,"Programm":7414,"difficult":7415,"@@äd":7416,"@@ustry":7417,"@@ervor":7418,"specific":7419,"notwend":7420,"issues":7421,"großen":7422,"@@ches":7423,"welche":7424,"@@ahlen":7425,"ir":7426,"2000":7427,"inner":7428,"Wirtschafts":7429,"full":7430,"@@blick":7431,"@@zeichnet":7432,"Fol":7433,"hal":7434,"Tur":7435,"working":7436,"men":7437,"tradition":7438,"contrib":7439,"Aber":7440,"Thema":7441,"@@pflicht":7442,"darüber":7443,"politischen":7444,"Mus":7445,"UN":7446,"EUR":7447,"Probleme":7448,"@@zus":7449,"sector":7450,"@@reen":7451,"War":7452,"erforder":7453,"@@ämpf":7454,"Ausschuss":7455,"chang":7456,"@@eiten":7457,"using":7458,"@@iar":7459,"@@iod":7460,"Beispiel":7461,"When":7462,"davon":7463,"@@eite":7464,"making":7465,"Frauen":7466,"@@fang":7467,"clos":7468,"@@markt":7469,"@@kungen":7470,"state":7471,"@@bene":7472,"sing":7473,"unt":7474,"Verfügung":7475,"@@ustrie":7476,"@@ros":7477,"become":7478,"mov":7479,"non":7480,"@@asse":7481,"research":7482,"Rom":7483,"production":7484,"extre":7485,"@@cially":7486,"toget":7487,"@@schafts":7488,"ren":7489,"Famil":7490,"@@iften":7491,"@@reaty":7492,"@@rieden":7493,"together":7494,"daher":7495,"Richtlinie":7496,"These":7497,"Weg":7498,"government":7499,"women":7500,"@@vest":7501,"meiner":7502,"Weise":7503,"klar":7504,"@@itiative":7505,"hervor":7506,"@@eder":7507,"@@adies":7508,"@@ategor":7509,"gegenüber":7510,"Berichterstatter":7511,"könnte":7512,"lim":7513,"stellen":7514,"@@reg":7515,"International":7516,"role":7517,"@@IN":7518,"lea":7519,"unterstützen":7520,"individual":7521,"@@arante":7522,"@@ners":7523,"another":7524,"@@geordnet":7525,"@@hang":7526,"@@isions":7527,"step":7528,"@@cher":7529,"page":7530,"@@obil":7531,"cho":7532,"brauch":7533,"@@rot":7534,"Fun":7535,"whole":7536,"benef":7537,"address":7538,"verw":7539,"@@druck":7540,"@@anies":7541,"conditions":7542,"aim":7543,"@@ikel":7544,"Zukunft":7545,"@@igent":7546,"gent":7547,"ho":7548,"@@ene":7549,"Kinder":7550,"@@iges":7551,"eben":7552,"@@fäh":7553,"negot":7554,"Mark":7555,"col":7556,"sowohl":7557,"wirklich":7558,"tax":7559,"@@gabe":7560,"@@pecially":7561,"Bus":7562,"Situation":7563,"Mal":7564,"@@zuf":7565,"connect":7566,"short":7567,"eigenen":7568,"gener":7569,"@@ünft":7570,"located":7571,"@@yl":7572,"run":7573,"gesam":7574,"speak":7575,"näch":7576,"sl":7577,"@@jects":7578,"mar":7579,"reason":7580,"@@ocument":7581,"Mod":7582,"Beg":7583,"Auch":7584,"guarante":7585,"stay":7586,"Hier":7587,"jeder":7588,"basis":7589,"prior":7590,"ann":7591,"Seiten":7592,"children":7593,"proced":7594,"Wettbew":7595,"@@kauf":7596,"@@ika":7597,"Jun":7598,"reform":7599,"sehen":7600,"@@oung":7601,"Minister":7602,"Viel":7603,"@@ipp":7604,"@@ritte":7605,"Forsch":7606,"natürlich":7607,"systems":7608,"ihnen":7609,"@@ique":7610,"@@imate":7611,"deal":7612,"def":7613,"alles":7614,"@@hof":7615,"care":7616,"industry":7617,"No":7618,"@@ief":7619,"@@ennt":7620,"Mehr":7621,"Stud":7622,"favour":7623,"Service":7624,"pack":7625,"@@asser":7626,"schnell":7627,"gentle":7628,"rapporteur":7629,"@@hö":7630,"El":7631,"@@zust":7632,"Ag":7633,"Chr":7634,"companies":7635,"Rolle":7636,"month":7637,"weitere":7638,"@@rodu":7639,"around":7640,"third":7641,"@@rän":7642,"@@zentr":7643,"@@ence":7644,"@@ipt":7645,"instit":7646,"@@burg":7647,"Ende":7648,"Komp":7649,"Ele":7650,"done":7651,"pres":7652,"@@wirtschaft":7653,"@@unde":7654,"pat":7655,"@@ety":7656,"especially":7657,"various":7658,"show":7659,"@@ünst":7660,"@@gemein":7661,"nie":7662,"@@chan":7663,"@@ckt":7664,"dist":7665,"erreichen":7666,"@@schriften":7667,"Haupt":7668,"Verbrauch":7669,"local":7670,"decision":7671,"Ser":7672,"@@aden":7673,"@@isis":7674,"accord":7675,"ear":7676,"@@iter":7677,"@@plan":7678,"@@bo":7679,"Comp":7680,"@@ritten":7681,"@@ots":7682,"@@ifiz":7683,"@@isches":7684,"Air":7685,"besonders":7686,"zwar":7687,"innerhalb":7688,"San":7689,"@@stimmung":7690,"fast":7691,"approach":7692,"@@kung":7693,"Ihrer":7694,"create":7695,"@@fon":7696,"@@ury":7697,"innov":7698,"Disk":7699,"@@nt":7700,"@@weisen":7701,"@@prache":7702,"bieten":7703,"@@uter":7704,"project":7705,"resolution":7706,"dort":7707,"arbeit":7708,"Grup":7709,"Fahr":7710,"Afr":7711,"Gu":7712,"Zwe":7713,"@@oms":7714,"occ":7715,"soc":7716,"members":7717,"@@mework":7718,"@@ES":7719,"Terr":7720,"@@ails":7721,"@@under":7722,"job":7723,"@@ances":7724,"subject":7725,"@@rechen":7726,"entfern":7727,"million":7728,"internationalen":7729,"crisis":7730,"@@program":7731,"@@xim":7732,"glaub":7733,"tot":7734,"@@anzen":7735,"@@ktor":7736,"@@iple":7737,"directive":7738,"@@ca":7739,"europäische":7740,"water":7741,"verschiedenen":7742,"@@gaben":7743,"@@by":7744,"press":7745,"enjoy":7746,"organ":7747,"gentlemen":7748,"@@icient":7749,"Geschäfts":7750,"@@asing":7751,"old":7752,"programme":7753,"hatte":7754,"@@ably":7755,"@@rael":7756,"@@fül":7757,"@@genden":7758,"really":7759,"distr":7760,"enc":7761,"@@oney":7762,"bestimm":7763,"serious":7764,"@@ething":7765,"continue":7766,"him":7767,"bor":7768,"document":7769,"@@achten":7770,"@@dings":7771,"bar":7772,"Ir":7773,"origin":7774,"@@iations":7775,"ra":7776,"@@ordin":7777,"@@iol":7778,"progress":7779,"appe":7780,"möchten":7781,"dür":7782,"@@achst":7783,"opin":7784,"@@bild":7785,"Alle":7786,"teil":7787,"Software":7788,"Dire":7789,"@@unter":7790,"Entwicklungs":7791,"period":7792,"2006":7793,"@@räge":7794,"beh":7795,"vielen":7796,"Ko":7797,"struct":7798,"@@ksam":7799,"@@wär":7800,"Kar":7801,"@@gricult":7802,"private":7803,"lab":7804,"Meinung":7805,"@@duc":7806,"frien":7807,"@@oment":7808,"general":7809,"site":7810,"streng":7811,"rules":7812,"@@hm":7813,"@@veral":7814,"Produkt":7815,"itself":7816,"@@ishing":7817,"near":7818,"hinaus":7819,"visit":7820,"centre":7821,"br":7822,"@@thing":7823,"@@ufen":7824,"@@ization":7825,"experience":7826,"called":7827,"@@ension":7828,"@@spr":7829,"product":7830,"something":7831,"@@amt":7832,"hoch":7833,"line":7834,"tour":7835,"Uns":7836,"Abgeordnet":7837,"Gesundheit":7838,"relations":7839,"@@ima":7840,"food":7841,"regul":7842,"Ap":7843,"Artikel":7844,"@@atives":7845,"@@ON":7846,"turn":7847,"profession":7848,"@@ativen":7849,"@@ults":7850,"among":7851,"text":7852,"peace":7853,"prop":7854,"@@atte":7855,"Schluss":7856,"Zusammenhang":7857,"Nutz":7858,"single":7859,"anges":7860,"sum":7861,"introdu":7862,"Invest":7863,"@@raum":7864,"recht":7865,"Treaty":7866,"@@ined":7867,"Ent":7868,"gra":7869,"@@ierungen":7870,"Woch":7871,"perform":7872,"Fisch":7873,"Jan":7874,"@@ides":7875,"@@lands":7876,"@@ames":7877,"understand":7878,"Deutsch":7879,"km":7880,"top":7881,"@@auer":7882,"@@ühr":7883,"@@weg":7884,"institutions":7885,"Rück":7886,"Madam":7887,"Tour":7888,"Met":7889,"book":7890,"typ":7891,"least":7892,"@@load":7893,"befindet":7894,"@@ograph":7895,"@@indung":7896,"@@ification":7897,"post":7898,"@@finden":7899,"management":7900,"dou":7901,"@@unehmen":7902,"going":7903,"personal":7904,"finanz":7905,"21":7906,"aid":7907,"mot":7908,"Entschließ":7909,"@@ody":7910,"Kom":7911,"Pat":7912,"Fest":7913,"hät":7914,"express":7915,"@@ican":7916,"Partner":7917,"German":7918,"forward":7919,"Technolog":7920,"entfernt":7921,"@@ians":7922,"Co":7923,"@@ived":7924,"mention":7925,"towards":7926,"@@ting":7927,"@@outh":7928,"Demokrat":7929,"Gleich":7930,"Lösung":7931,"@@idency":7932,"@@ontrol":7933,"recog":7934,"Wind":7935,"milit":7936,"@@less":7937,"@@uc":7938,"Hotels":7939,"agree":7940,"@@zeitig":7941,"following":7942,"einzel":7943,"di":7944,"automat":7945,"dep":7946,"Members":7947,"Komm":7948,"@@oor":7949,"@@AR":7950,"bal":7951,"welcome":7952,"stark":7953,"@@iken":7954,"@@ton":7955,"Verantwort":7956,"Red":7957,"@@stant":7958,"event":7959,"@@ruktur":7960,"Ums":7961,"Nor":7962,"growth":7963,"langu":7964,"Zahl":7965,"begrü":7966,"@@icle":7967,"@@fassung":7968,"@@pekt":7969,"anal":7970,"Präsidentin":7971,"Ihren":7972,"@@ours":7973,"Rates":7974,"Kontrol":7975,"@@ellent":7976,"direkt":7977,"let":7978,"@@ußen":7979,"@@ype":7980,"particip":7981,"Off":7982,"Can":7983,"close":7984,"increase":7985,"Germany":7986,"@@zogen":7987,"once":7988,"@@ec":7989,"often":7990,"ess":7991,"stär":7992,"Rep":7993,"@@kre":7994,"Hilfe":7995,"absol":7996,"several":7997,"@@leicht":7998,"bestehen":7999,"@@roffen":8000,"Zust":8001,"erste":8002,"pur":8003,"material":8004,"@@icial":8005,"@@enzen":8006,"Organis":8007,"positive":8008,"strong":8009,"@@armon":8010,"@@weis":8011,"money":8012,"extrem":8013,"@@fect":8014,"select":8015,"resources":8016,"opportunity":8017,"@@üd":8018,"@@okument":8019,"@@ober":8020,"gesagt":8021,"@@airs":8022,"kind":8023,"Uhr":8024,"@@ämlich":8025,"unterstütz":8026,"My":8027,"communic":8028,"ident":8029,"Kre":8030,"beiden":8031,"@@rifft":8032,"@@ino":8033,"Nov":8034,"pot":8035,"@@itäts":8036,"daran":8037,"Kultur":8038,"@@aps":8039,"bringen":8040,"nämlich":8041,"Bank":8042,"Spra":8043,"@@produ":8044,"verbess":8045,"plan":8046,"@@iesen":8047,"beaut":8048,"things":8049,"@@ferenz":8050,"entsprechen":8051,"mind":8052,"@@amental":8053,"@@erien":8054,"gewähr":8055,"sett":8056,"proposals":8057,"@@gelegt":8058,"Park":8059,"ja":8060,"Sc":8061,"@@ittle":8062,"@@oints":8063,"@@rimin":8064,"@@ließen":8065,"Sozial":8066,"comple":8067,"@@prochen":8068,"@@hing":8069,"Frank":8070,"complet":8071,"behal":8072,"@@gestellt":8073,"amendments":8074,"@@schutz":8075,"@@ächst":8076,"ant":8077,"indem":8078,"home":8079,"behalf":8080,"@@thers":8081,"she":8082,"@@system":8083,"@@ratic":8084,"feel":8085,"zus":8086,"rep":8087,"rather":8088,"kommt":8089,"@@though":8090,"Deshalb":8091,"@@asst":8092,"prepar":8093,"@@inz":8094,"@@teilung":8095,"weniger":8096,"State":8097,"framework":8098,"etc":8099,"@@iere":8100,"@@leistungen":8101,"@@lock":8102,"Span":8103,"software":8104,"Natur":8105,"partners":8106,"stellt":8107,"@@komm":8108,"@@ival":8109,"Europas":8110,"ladies":8111,"@@präsident":8112,"40":8113,"break":8114,"@@ager":8115,"Institution":8116,"@@ücksicht":8117,"dest":8118,"weltw":8119,"Personen":8120,"@@com":8121,"@@erecht":8122,"function":8123,"@@racy":8124,"@@idence":8125,"@@forderungen":8126,"@@elegenheit":8127,"feat":8128,"Lie":8129,"effe":8130,"@@üs":8131,"World":8132,"mean":8133,"Verhand":8134,"keep":8135,"@@äum":8136,"Wirtschaft":8137,"@@voll":8138,"@@äuf":8139,"politische":8140,"unserem":8141,"@@20":8142,"Sel":8143,"Israel":8144,"optim":8145,"@@gän":8146,"@@ocus":8147,"Tats":8148,"name":8149,"@@baren":8150,"@@sk":8151,"@@bon":8152,"Sta":8153,"Leben":8154,"Millionen":8155,"Punkt":8156,"@@wohl":8157,"@@rachten":8158,"seem":8159,"@@beh":8160,"signific":8161,"economy":8162,"@@iberal":8163,"adopted":8164,"land":8165,"sug":8166,"2005":8167,"@@olf":8168,"Aussprache":8169,"@@hör":8170,"Univers":8171,"online":8172,"@@ächlich":8173,"@@frage":8174,"@@ühren":8175,"Text":8176,"@@mäß":8177,"expect":8178,"class":8179,"Dieses":8180,"198":8181,"Kosten":8182,"Produkte":8183,"@@istic":8184,"@@leit":8185,"@@werk":8186,"Ebene":8187,"@@met":8188,"Zugang":8189,"@@völk":8190,"@@CH":8191,"Bezug":8192,"umf":8193,"might":8194,"@@abhäng":8195,"Berlin":8196,"aufge":8197,"@@alität":8198,"price":8199,"transpar":8200,"Gä":8201,"away":8202,"Bas":8203,"@@igungs":8204,"freed":8205,"Gründ":8206,"admin":8207,"@@treten":8208,"fully":8209,"National":8210,"legislation":8211,"@@vent":8212,"yet":8213,"little":8214,"family":8215,"@@IS":8216,"dev":8217,"Jul":8218,"try":8219,"@@rift":8220,"genau":8221,"activities":8222,"strength":8223,"Geld":8224,"safety":8225,"hard":8226,"@@reifen":8227,"until":8228,"essential":8229,"viol":8230,"industr":8231,"sogar":8232,"agricult":8233,"@@ären":8234,"@@liches":8235,"Tür":8236,"@@uellen":8237,"contra":8238,"Ass":8239,"gerade":8240,"quite":8241,"@@word":8242,"@@onger":8243,"@@esten":8244,"opinion":8245,"Fil":8246,"zahl":8247,"excellent":8248,"range":8249,"glaube":8250,"Weit":8251,"educ":8252,"@@atch":8253,"Gemeinschaft":8254,"solution":8255,"Rechte":8256,"@@ission":8257,"@@tt":8258,"@@eless":8259,"führ":8260,"@@annten":8261,"log":8262,"Gegen":8263,"bitte":8264,"policies":8265,"gilt":8266,"@@eits":8267,"empf":8268,"@@rieben":8269,"nehmen":8270,"mitt":8271,"treat":8272,"@@cen":8273,"2004":8274,"@@mb":8275,"Char":8276,"Priv":8277,"bzw":8278,"@@ison":8279,"Cent":8280,"Car":8281,"@@oto":8282,"days":8283,"@@uh":8284,"jeden":8285,"request":8286,"provided":8287,"@@eed":8288,"Sept":8289,"darin":8290,"elect":8291,"etwa":8292,"Date":8293,"qual":8294,"check":8295,"led":8296,"taking":8297,"content":8298,"@@ählen":8299,"costs":8300,"einge":8301,"betre":8302,"darf":8303,"field":8304,"offen":8305,"@@weil":8306,"Instrument":8307,"lo":8308,"Mo":8309,"verbunden":8310,"@@zimmer":8311,"Sup":8312,"@@ommend":8313,"Frei":8314,"Wahl":8315,"besser":8316,"persön":8317,"Regel":8318,"spiel":8319,"kurz":8320,"unterstützt":8321,"effective":8322,"wesent":8323,"ak":8324,"Erfahr":8325,"@@yr":8326,"@@wendet":8327,"Kap":8328,"having":8329,"@@stra":8330,"port":8331,"Beschäft":8332,"@@apan":8333,"@@recht":8334,"gemacht":8335,"past":8336,"Ins":8337,"challen":8338,"@@cel":8339,"@@gn":8340,"@@mos":8341,"Antw":8342,"risk":8343,"remain":8344,"Pak":8345,"schaffen":8346,"kl":8347,"23":8348,"commit":8349,"Per":8350,"September":8351,"value":8352,"Tod":8353,"comfort":8354,"@@itionen":8355,"@@fully":8356,"@@rotz":8357,"derzeit":8358,"@@of":8359,"Abstimmung":8360,"Preis":8361,"Rats":8362,"mach":8363,"@@inge":8364,"nationalen":8365,"concerned":8366,"@@erbs":8367,"apart":8368,"instrument":8369,"Dank":8370,"Verbraucher":8371,"responsibility":8372,"wahr":8373,"öffentlichen":8374,"@@igr":8375,"include":8376,"Sicherheits":8377,"CO":8378,"flex":8379,"erfolg":8380,"Christ":8381,"ebenfalls":8382,"@@reiche":8383,"technology":8384,"situ":8385,"dessen":8386,"Jahres":8387,"context":8388,"@@bet":8389,"@@ense":8390,"programm":8391,"tar":8392,"creat":8393,"importance":8394,"@@ona":8395,"pa":8396,"Prot":8397,"@@itions":8398,"perm":8399,"four":8400,"gehen":8401,"@@reicht":8402,"Gar":8403,"Dieser":8404,"TV":8405,"@@eiden":8406,"@@ustain":8407,"dürfen":8408,"appropr":8409,"Projekt":8410,"bank":8411,"strategy":8412,"@@eil":8413,"Strategie":8414,"@@sweise":8415,"@@ending":8416,"others":8417,"unver":8418,"Verw":8419,"@@wärt":8420,"Sa":8421,"2003":8422,"recommend":8423,"greater":8424,"unterschied":8425,"Kolleg":8426,"focus":8427,"@@erst":8428,"@@fäl":8429,"meisten":8430,"big":8431,"einigen":8432,"fair":8433,"attention":8434,"Fortsch":8435,"sat":8436,"society":8437,"@@zustellen":8438,"Tre":8439,"prevent":8440,"environmental":8441,"points":8442,"betrifft":8443,"town":8444,"One":8445,"@@atten":8446,"Website":8447,"results":8448,"Rei":8449,"@@ai":8450,"@@AS":8451,"Sub":8452,"@@ativ":8453,"Web":8454,"@@aussch":8455,"@@aster":8456,"@@cript":8457,"institution":8458,"@@ingen":8459,"above":8460,"ihn":8461,"@@benso":8462,"brauchen":8463,"@@lau":8464,"@@platz":8465,"@@ethod":8466,"Ort":8467,"projects":8468,"@@inter":8469,"bekannt":8470,"@@ideo":8471,"nichts":8472,"sollen":8473,"application":8474,"light":8475,"@@ales":8476,"left":8477,"Nicht":8478,"moder":8479,"@@ennen":8480,"sens":8481,"test":8482,"@@rang":8483,"@@haus":8484,"Janu":8485,"Mär":8486,"kosten":8487,"makes":8488,"weiterhin":8489,"@@anst":8490,"@@ampf":8491,"tool":8492,"sw":8493,"@@lei":8494,"Son":8495,"Austr":8496,"principle":8497,"@@itzen":8498,"mag":8499,"times":8500,"Just":8501,"2001":8502,"Gesetz":8503,"ihm":8504,"@@iers":8505,"simply":8506,"Verkehr":8507,"@@istan":8508,"attra":8509,"Bem":8510,"@@eller":8511,"@@TO":8512,"Den":8513,"@@nehmer":8514,"Ide":8515,"never":8516,"@@irc":8517,"increasing":8518,"@@fast":8519,"known":8520,"@@ünf":8521,"authorities":8522,"@@aged":8523,"contact":8524,"keinen":8525,"@@genda":8526,"EC":8527,"Qualität":8528,"week":8529,"@@uth":8530,"questions":8531,"Menschenrechte":8532,"parl":8533,"Flug":8534,"groups":8535,"@@iful":8536,"Fund":8537,"@@arch":8538,"@@ught":8539,"terror":8540,"tem":8541,"seinem":8542,"clearly":8543,"@@schließlich":8544,"beispiel":8545,"@@ators":8546,"talk":8547,"@@obe":8548,"Unsere":8549,"ihrem":8550,"location":8551,"@@verkehr":8552,"@@here":8553,"@@ceed":8554,"handelt":8555,"Wel":8556,"review":8557,"gute":8558,"Kü":8559,"@@ziehen":8560,"Bezieh":8561,"@@stellt":8562,"dom":8563,"@@unkte":8564,"@@änder":8565,"@@arian":8566,"@@self":8567,"Demokratie":8568,"After":8569,"constru":8570,"regional":8571,"@@alle":8572,"22":8573,"Leist":8574,"Govern":8575,"along":8576,"fail":8577,"@@arbeiten":8578,"@@frastru":8579,"deutlich":8580,"standards":8581,"@@ppen":8582,"Benutz":8583,"fundamental":8584,"@@örden":8585,"Deutschland":8586,"@@raf":8587,"arch":8588,"provides":8589,"@@aste":8590,"Plan":8591,"Sol":8592,"würden":8593,"employment":8594,"@@isiert":8595,"Dokument":8596,"Akt":8597,"@@iellen":8598,"solche":8599,"@@bour":8600,"words":8601,"Ansicht":8602,"@@ana":8603,"Sitz":8604,"@@unächst":8605,"cover":8606,"erklär":8607,"zusätz":8608,"@@most":8609,"@@ared":8610,"deshalb":8611,"infl":8612,"ideal":8613,"achieve":8614,"@@illa":8615,"Prof":8616,"@@stehen":8617,"proposed":8618,"significant":8619,"staff":8620,"@@side":8621,"sec":8622,"Förder":8623,"bedeutet":8624,"@@ledge":8625,"Umsetzung":8626,"vorgesch":8627,"return":8628,"continu":8629,"Gesellschaft":8630,"gern":8631,"recent":8632,"beach":8633,"@@sichtlich":8634,"mass":8635,"@@wür":8636,"internal":8637,"@@chs":8638,"Buch":8639,"@@oph":8640,"@@unities":8641,"wichtige":8642,"Groß":8643,"young":8644,"nah":8645,"sei":8646,"grund":8647,"Verbess":8648,"standard":8649,"speziel":8650,"Design":8651,"method":8652,"@@jen":8653,"@@ringen":8654,"Ira":8655,"website":8656,"@@züglich":8657,"@@mosph":8658,"demand":8659,"@@itive":8660,"@@stück":8661,"@@gebung":8662,"Angeb":8663,"building":8664,"Wachst":8665,"head":8666,"due":8667,"deliver":8668,"Hö":8669,"hoffe":8670,"Bevölk":8671,"@@gesetzt":8672,"@@utzt":8673,"extra":8674,"@@schluss":8675,"wenig":8676,"@@affung":8677,"@@bereit":8678,"aufgrund":8679,"refer":8680,"@@pects":8681,"@@ichtet":8682,"democracy":8683,"sustain":8684,"charac":8685,"Stat":8686,"interests":8687,"@@frist":8688,"@@na":8689,"total":8690,"@@unst":8691,"pages":8692,"@@ception":8693,"@@ufact":8694,"East":8695,"@@ops":8696,"regulation":8697,"voted":8698,"Absch":8699,"easy":8700,"bit":8701,"@@IT":8702,"Industrie":8703,"Ziele":8704,"Verfahren":8705,"@@ource":8706,"Wasser":8707,"Sl":8708,"moment":8709,"version":8710,"illeg":8711,"regions":8712,"ern":8713,"Pra":8714,"assist":8715,"2002":8716,"Herren":8717,"@@rieg":8718,"Struktur":8719,"demokrat":8720,"Schul":8721,"dig":8722,"@@wirkungen":8723,"prec":8724,"benöt":8725,"Vorschläge":8726,"heart":8727,"meeting":8728,"gemeinsamen":8729,"user":8730,"Verantwortung":8731,"Prozess":8732,"@@haft":8733,"tele":8734,"@@ban":8735,"host":8736,"II":8737,"Feh":8738,"heraus":8739,"beginn":8740,"@@za":8741,"@@verb":8742,"Klima":8743,"technical":8744,"@@ims":8745,"implementation":8746,"macht":8747,"erne":8748,"@@uelle":8749,"Fir":8750,"@@ients":8751,"nächsten":8752,"@@ij":8753,"arr":8754,"rad":8755,"Parte":8756,"distrib":8757,"complete":8758,"civil":8759,"Kons":8760,"flo":8761,"Pos":8762,"Restaurant":8763,"subs":8764,"@@uests":8765,"IT":8766,"@@ellung":8767,"@@liegen":8768,"@@acy":8769,"@@uz":8770,"freedom":8771,"sozialen":8772,"Russia":8773,"fight":8774,"@@aging":8775,"minutes":8776,"required":8777,"Handels":8778,"verein":8779,"road":8780,"establish":8781,"currently":8782,"efforts":8783,"Erweit":8784,"entscheiden":8785,"@@äus":8786,"indep":8787,"Bedingungen":8788,"Grundlage":8789,"expl":8790,"@@zlich":8791,"@@mals":8792,"views":8793,"@@OR":8794,"Anwendung":8795,"@@kämpf":8796,"First":8797,"promot":8798,"responsible":8799,"@@gegen":8800,"vol":8801,"@@heb":8802,"longer":8803,"Windows":8804,"notwendig":8805,"beautiful":8806,"disk":8807,"quick":8808,"@@vert":8809,"@@ided":8810,"reserv":8811,"@@50":8812,"competition":8813,"Japan":8814,"walk":8815,"Frieden":8816,"Richtung":8817,"Debatte":8818,"@@elves":8819,"@@anced":8820,"involved":8821,"Außen":8822,"@@arf":8823,"General":8824,"natural":8825,"perfect":8826,"negotiations":8827,"beispielsweise":8828,"learn":8829,"months":8830,"team":8831,"@@stadt":8832,"vielleicht":8833,"@@ände":8834,"Sal":8835,"nutzen":8836,"erziel":8837,"@@gency":8838,"stre":8839,"besten":8840,"force":8841,"recogn":8842,"maintain":8843,"manufact":8844,"network":8845,"Eur":8846,"Krit":8847,"oft":8848,"training":8849,"Netz":8850,"cla":8851,"capital":8852,"@@ption":8853,"Institutionen":8854,"Gebiet":8855,"Fern":8856,"Str":8857,"November":8858,"parties":8859,"Jahrh":8860,"democratic":8861,"Empf":8862,"interess":8863,"@@setzung":8864,"gegeben":8865,"@@wach":8866,"happen":8867,"needed":8868,"Far":8869,"@@anze":8870,"Apr":8871,"@@drück":8872,"ago":8873,"cultural":8874,"park":8875,"@@ette":8876,"Interesse":8877,"@@ilater":8878,"@@atal":8879,"@@go":8880,"@@haltung":8881,"apply":8882,"thems":8883,"sprechen":8884,"@@linien":8885,"Such":8886,"Dr":8887,"May":8888,"themselves":8889,"@@üssel":8890,"Tages":8891,"solutions":8892,"Druck":8893,"wid":8894,"@@griff":8895,"appl":8896,"dank":8897,"Erklär":8898,"Book":8899,"zie":8900,"@@urf":8901,"related":8902,"@@istischen":8903,"star":8904,"guarantee":8905,"Daher":8906,"@@verständ":8907,"@@AD":8908,"Presidency":8909,"Hinblick":8910,"@@einander":8911,"@@inzip":8912,"central":8913,"foreign":8914,"writ":8915,"oblig":8916,"Reihe":8917,"werde":8918,"vorgeschlagen":8919,"customers":8920,"Ju":8921,"@@isher":8922,"berücksicht":8923,"Früh":8924,"according":8925,"requirements":8926,"@@sp":8927,"circ":8928,"Nä":8929,"@@äter":8930,"@@orr":8931,"enough":8932,"sea":8933,"@@lean":8934,"Wieder":8935,"@@AP":8936,"Will":8937,"Soc":8938,"Pf":8939,"@@bare":8940,"@@cies":8941,"via":8942,"@@chter":8943,"27":8944,"@@öff":8945,"Gäste":8946,"@@äsent":8947,"@@igur":8948,"@@läss":8949,"60":8950,"@@ding":8951,"@@andid":8952,"komple":8953,"allerdings":8954,"@@ume":8955,"@@prech":8956,"@@oug":8957,"Entscheidung":8958,"@@setzen":8959,"@@leben":8960,"Selbst":8961,"Integr":8962,"@@immungen":8963,"@@iting":8964,"directly":8965,"Heraus":8966,"Meer":8967,"Abkommen":8968,"@@ask":8969,"@@vant":8970,"@@hib":8971,"@@onstr":8972,"Dec":8973,"enthalten":8974,"markets":8975,"Damen":8976,"though":8977,"developing":8978,"farm":8979,"@@ieg":8980,"anim":8981,"Mail":8982,"@@ielle":8983,"@@merksam":8984,"@@afen":8985,"Änderungsantrag":8986,"Brit":8987,"Erfolg":8988,"Nord":8989,"könnten":8990,"gemeinsame":8991,"extremely":8992,"Besuch":8993,"Ple":8994,"@@bank":8995,"@@mut":8996,"@@ning":8997,"@@key":8998,"@@öffent":8999,"oppos":9000,"@@amb":9001,"Auswirkungen":9002,"DE":9003,"findet":9004,"@@folgt":9005,"changes":9006,"item":9007,"halten":9008,"@@ither":9009,"@@ean":9010,"Aff":9011,"@@ends":9012,"Mitarbeit":9013,"target":9014,"@@setz":9015,"@@ada":9016,"Betrie":9017,"Kunst":9018,"@@ker":9019,"vier":9020,"@@isc":9021,"@@richtung":9022,"@@änger":9023,"@@oot":9024,"bevor":9025,"nature":9026,"gt":9027,"April":9028,"Verhandlungen":9029,"states":9030,"sure":9031,"gehört":9032,"erfül":9033,"Wort":9034,"schwier":9035,"wide":9036,"upon":9037,"@@ari":9038,"1999":9039,"Möglichkeiten":9040,"AG":9041,"@@fall":9042,"erreicht":9043,"@@ienen":9044,"bath":9045,"cases":9046,"Tatsache":9047,"Aktiv":9048,"@@orm":9049,"works":9050,"events":9051,"caus":9052,"@@atory":9053,"Diskuss":9054,"side":9055,"Regionen":9056,"@@ynam":9057,"@@hens":9058,"euro":9059,"Version":9060,"Einsatz":9061,"wirtschaftlichen":9062,"Do":9063,"developed":9064,"Cour":9065,"@@reib":9066,"@@deut":9067,"Von":9068,"@@unch":9069,"improve":9070,"monitor":9071,"@@äche":9072,"live":9073,"@@ublik":9074,"@@erous":9075,"@@gern":9076,"Abgeordneten":9077,"web":9078,"@@ee":9079,"@@aurants":9080,"son":9081,"emph":9082,"holid":9083,"@@onen":9084,"@@ätzen":9085,"übern":9086,"verwendet":9087,"@@istration":9088,"contain":9089,"mess":9090,"ermöglich":9091,"mount":9092,"@@ehn":9093,"Einz":9094,"schrift":9095,"previous":9096,"funds":9097,"don":9098,"@@jenigen":9099,"encour":9100,"@@auen":9101,"@@zeigt":9102,"Bil":9103,"friend":9104,"akzept":9105,"Ihrem":9106,"education":9107,"Funktion":9108,"Kön":9109,"Wettbewerbs":9110,"Mitglieder":9111,"@@ones":9112,"Ausdruck":9113,"Dam":9114,"dialog":9115,"More":9116,"Binnen":9117,"@@grup":9118,"@@wick":9119,"@@lauf":9120,"cut":9121,"Engl":9122,"soon":9123,"@@berg":9124,"@@uell":9125,"history":9126,"tats":9127,"denke":9128,"jeweil":9129,"@@haps":9130,"Kraft":9131,"climate":9132,"suggest":9133,"low":9134,"@@folgen":9135,"Währ":9136,"@@dam":9137,"@@best":9138,"@@aper":9139,"Staats":9140,"bleiben":9141,"@@ehm":9142,"@@ulate":9143,"comes":9144,"true":9145,"France":9146,"500":9147,"@@gesehen":9148,"kleinen":9149,"minim":9150,"arbeiten":9151,"Zus":9152,"draw":9153,"erforderlich":9154,"Vertre":9155,"protect":9156,"Geschichte":9157,"@@SE":9158,"neu":9159,"amb":9160,"Volks":9161,"fort":9162,"@@irt":9163,"Dienstleistungen":9164,"Rechn":9165,"camp":9166,"@@erseits":9167,"@@ichen":9168,"Außer":9169,"danken":9170,"@@würd":9171,"Wert":9172,"workers":9173,"@@ging":9174,"procedure":9175,"@@nitt":9176,"Änderungsanträge":9177,"@@ländern":9178,"@@ables":9179,"@@ächt":9180,"Schritt":9181,"@@enken":9182,"fünf":9183,"@@bel":9184,"Kolleginnen":9185,"Doch":9186,"indic":9187,"@@teile":9188,"darum":9189,"angenommen":9190,"Ergebnis":9191,"Programme":9192,"@@rechts":9193,"maxim":9194,"Zentr":9195,"share":9196,"@@ought":9197,"Iran":9198,"appropriate":9199,"character":9200,"@@rank":9201,"@@iner":9202,"separ":9203,"Dialog":9204,"date":9205,"@@ißt":9206,"rate":9207,"@@abled":9208,"@@teilen":9209,"@@AL":9210,"Del":9211,"Wissen":9212,"app":9213,"@@rench":9214,"actually":9215,"final":9216,"lack":9217,"Terror":9218,"Tele":9219,"Please":9220,"schein":9221,"wohl":9222,"Raum":9223,"@@kämpfung":9224,"nam":9225,"strengthen":9226,"@@mbH":9227,"please":9228,"@@uk":9229,"Fäl":9230,"allgemein":9231,"@@tended":9232,"@@endent":9233,"either":9234,"thus":9235,"@@undert":9236,"@@fragen":9237,"majority":9238,"weltweit":9239,"file":9240,"Portug":9241,"@@wahl":9242,"corre":9243,"GmbH":9244,"@@atic":9245,"language":9246,"@@orge":9247,"@@ric":9248,"analys":9249,"@@int":9250,"@@change":9251,"idea":9252,"@@imme":9253,"197":9254,"bem":9255,"From":9256,"Beziehungen":9257,"gesamten":9258,"vollständ":9259,"Mont":9260,"Verordnung":9261,"Ant":9262,"Kommun":9263,"Gemeinschafts":9264,"@@oid":9265,"bisher":9266,"@@pression":9267,"@@obile":9268,"@@useum":9269,"Antwort":9270,"@@roso":9271,"Vereinigten":9272,"affect":9273,"immed":9274,"Schlussel":9275,"@@kra":9276,"century":9277,"Nähe":9278,"prices":9279,"@@ipf":9280,"Webs":9281,"@@igte":9282,"emphas":9283,"weiß":9284,"record":9285,"Fischere":9286,"höch":9287,"@@ired":9288,"Musik":9289,"harmon":9290,"created":9291,"By":9292,"@@cke":9293,"colleag":9294,"type":9295,"@@wegen":9296,"äußer":9297,"@@crib":9298,"hoh":9299,"@@isieren":9300,"music":9301,"zeigt":9302,"@@iable":9303,"@@app":9304,"additional":9305,"einzelnen":9306,"ermöglicht":9307,"solid":9308,"@@isf":9309,"Turkey":9310,"extern":9311,"@@öglichen":9312,"Erst":9313,"Team":9314,"Anst":9315,"determ":9316,"@@fert":9317,"@@fähigkeit":9318,"Bereichen":9319,"@@ctors":9320,"@@lauben":9321,"@@ww":9322,"Liste":9323,"eth":9324,"Landes":9325,"South":9326,"lange":9327,"Ris":9328,"behand":9329,"house":9330,"Inform":9331,"Blick":9332,"certainly":9333,"@@ires":9334,"@@schlag":9335,"ebenso":9336,"consult":9337,"seen":9338,"@@barkeit":9339,"@@kei":9340,"concerns":9341,"@@IC":9342,"Vertra":9343,"@@gument":9344,"hon":9345,"verschiedene":9346,"altern":9347,"@@aler":9348,"@@yle":9349,"hatten":9350,"Krise":9351,"erwäh":9352,"@@rab":9353,"Arch":9354,"Bü":9355,"consequ":9356,"schön":9357,"enlar":9358,"CD":9359,"Interessen":9360,"hätte":9361,"living":9362,"facilities":9363,"ground":9364,"funktion":9365,"Hoch":9366,"@@ama":9367,"Kle":9368,"Reform":9369,"parliament":9370,"@@abel":9371,"www":9372,"@@standen":9373,"@@indest":9374,"everything":9375,"Förderung":9376,"relax":9377,"investment":9378,"mer":9379,"Türkei":9380,"Government":9381,"Kos":9382,"@@verfahren":9383,"almost":9384,"lot":9385,"Host":9386,"resol":9387,"Bevölkerung":9388,"Verpflicht":9389,"refle":9390,"@@elling":9391,"French":9392,"publ":9393,"official":9394,"Aug":9395,"@@reiben":9396,"sound":9397,"@@usst":9398,"programmes":9399,"communication":9400,"answer":9401,"night":9402,"Paris":9403,"führt":9404,"@@yc":9405,"@@adurch":9406,"Stabil":9407,"@@igration":9408,"@@dle":9409,"Beitrag":9410,"Platz":9411,"mentioned":9412,"Ans":9413,"@@issions":9414,"receive":9415,"Zw":9416,"American":9417,"gemeinsam":9418,"proper":9419,"@@ester":9420,"Denn":9421,"umfassen":9422,"@@anten":9423,"Com":9424,"@@arity":9425,"@@iance":9426,"@@estern":9427,"beit":9428,"impact":9429,"@@pose":9430,"gegenwärt":9431,"@@länder":9432,"included":9433,"Ausschusses":9434,"@@zent":9435,"potential":9436,"@@teid":9437,"@@unt":9438,"cal":9439,"Führ":9440,"Let":9441,"assoc":9442,"Sport":9443,"guests":9444,"gestimmt":9445,"confl":9446,"knowledge":9447,"mail":9448,"@@pricht":9449,"decisions":9450,"Nie":9451,"held":9452,"@@plätze":9453,"@@stead":9454,"Su":9455,"@@RO":9456,"Apart":9457,"@@ösen":9458,"internationale":9459,"existing":9460,"@@mitteln":9461,"normal":9462,"Forschung":9463,"80":9464,"thing":9465,"absolut":9466,"verfügt":9467,"@@ull":9468,"@@ps":9469,"pict":9470,"@@iten":9471,"@@frei":9472,"doing":9473,"committee":9474,"concerning":9475,"@@aren":9476,"setzen":9477,"Familien":9478,"@@ingt":9479,"@@fortun":9480,"Leit":9481,"@@mark":9482,"@@ips":9483,"agreements":9484,"ausgest":9485,"wind":9486,"erhö":9487,"Kontrolle":9488,"@@ex":9489,"five":9490,"@@oper":9491,"@@arbeitung":9492,"intens":9493,"ca":9494,"Unser":9495,"Rad":9496,"Aufgabe":9497,"mechan":9498,"@@dert":9499,"aware":9500,"@@ri":9501,"@@ommod":9502,"West":9503,"sym":9504,"angem":9505,"happ":9506,"wa":9507,"Gruppe":9508,"Entschließung":9509,"@@attet":9510,"heißt":9511,"01":9512,"joint":9513,"@@eden":9514,"objectives":9515,"Behörden":9516,"@@programm":9517,"@@inden":9518,"assess":9519,"Adr":9520,"Office":9521,"entwickelt":9522,"@@grat":9523,"Außerdem":9524,"Stre":9525,"demonstr":9526,"wichtigen":9527,"meinen":9528,"Lisbon":9529,"@@ählt":9530,"@@ült":9531,"glob":9532,"download":9533,"Vertrags":9534,"commer":9535,"Hol":9536,"gleichzeitig":9537,"@@alu":9538,"join":9539,"zuf":9540,"angeb":9541,"@@formen":9542,"Court":9543,"profit":9544,"initiative":9545,"@@fung":9546,"@@ilar":9547,"Acc":9548,"Steuer":9549,"Kampf":9550,"@@ibr":9551,"Mil":9552,"relig":9553,"keyword":9554,"@@abon":9555,"reasons":9556,"stor":9557,"Luft":9558,"jedem":9559,"@@iens":9560,"looking":9561,"@@EC":9562,"eigent":9563,"@@inner":9564,"Liss":9565,"@@play":9566,"exclus":9567,"Erweiterung":9568,"Cor":9569,"conclus":9570,"helfen":9571,"völ":9572,"stop":9573,"Themen":9574,"Di":9575,"Zum":9576,"@@ured":9577,"@@ane":9578,"users":9579,"@@arbeitet":9580,"@@room":9581,"@@apt":9582,"PC":9583,"weiteren":9584,"gestellt":9585,"throughout":9586,"jobs":9587,"@@iment":9588,"Minuten":9589,"aktiv":9590,"@@ügen":9591,"schwer":9592,"@@ipment":9593,"Cas":9594,"Notwend":9595,"amount":9596,"@@artet":9597,"fam":9598,"@@urt":9599,"univers":9600,"@@ano":9601,"@@aufen":9602,"@@ießen":9603,"erinn":9604,"military":9605,"links":9606,"liegen":9607,"@@IP":9608,"Bau":9609,"@@que":9610,"@@zunehmen":9611,"@@aring":9612,"America":9613,"@@üsse":9614,"Kop":9615,"@@ässt":9616,"Cont":9617,"Prior":9618,"Lissabon":9619,"unique":9620,"writing":9621,"bi":9622,"@@kr":9623,"Werk":9624,"Zur":9625,"@@erra":9626,"draft":9627,"send":9628,"takes":9629,"ever":9630,"@@ovo":9631,"@@zif":9632,"designed":9633,"erg":9634,"across":9635,"@@lack":9636,"community":9637,"folgen":9638,"gelten":9639,"26":9640,"Mot":9641,"agricultural":9642,"@@uren":9643,"values":9644,"Nat":9645,"@@gement":9646,"Du":9647,"propert":9648,"@@führen":9649,"outside":9650,"hinter":9651,"@@nissen":9652,"nothing":9653,"@@äss":9654,"Süd":9655,"Che":9656,"wr":9657,"@@ipped":9658,"objective":9659,"surround":9660,"prakt":9661,"aud":9662,"transl":9663,"Pe":9664,"@@bl":9665,"@@fonds":9666,"@@last":9667,"@@uffer":9668,"model":9669,"cop":9670,"Verbindung":9671,"@@ikation":9672,"sag":9673,"accommod":9674,"divers":9675,"@@cent":9676,"Amend":9677,"28":9678,"emer":9679,"@@uclear":9680,"jede":9681,"cross":9682,"@@stances":9683,"verd":9684,"school":9685,"unseres":9686,"Forder":9687,"later":9688,"situated":9689,"although":9690,"North":9691,"@@lam":9692,"@@bol":9693,"nachhalt":9694,"@@wel":9695,"hinsichtlich":9696,"pool":9697,"Home":9698,"Wohn":9699,"Schaffung":9700,"connection":9701,"jud":9702,"verhin":9703,"practice":9704,"befinden":9705,"@@erc":9706,"wün":9707,"Eff":9708,"Ukra":9709,"IS":9710,"neues":9711,"@@vement":9712,"Verl":9713,"package":9714,"Affairs":9715,"Verbesserung":9716,"professional":9717,"initi":9718,"complex":9719,"@@itted":9720,"parts":9721,"300":9722,"@@ID":9723,"@@ba":9724,"Geh":9725,"Online":9726,"später":9727,"Feb":9728,"media":9729,"verantwort":9730,"Imm":9731,"konnte":9732,"detail":9733,"features":9734,"Lond":9735,"@@richtungen":9736,"@@ava":9737,"Management":9738,"@@istrat":9739,"entire":9740,"@@fs":9741,"@@EL":9742,"@@iples":9743,"basic":9744,"leading":9745,"party":9746,"travel":9747,"@@este":9748,"för":9749,"@@ähl":9750,"@@ush":9751,"established":9752,"completely":9753,"population":9754,"bleibt":9755,"@@fluss":9756,"@@geschlossen":9757,"Pa":9758,"@@ency":9759,"jedes":9760,"regarding":9761,"dialogue":9762,"benefit":9763,"Kern":9764,"Pass":9765,"@@haupt":9766,"@@öst":9767,"richtig":9768,"station":9769,"unabhäng":9770,"reports":9771,"Gewalt":9772,"congrat":9773,"@@bedingungen":9774,"@@gangenen":9775,"@@bildung":9776,"Mag":9777,"@@iveness":9778,"Mor":9779,"@@zeugen":9780,"differen":9781,"August":9782,"@@quis":9783,"Up":9784,"breakfast":9785,"Einzel":9786,"@@uted":9787,"Augen":9788,"Vis":9789,"Schwe":9790,"clean":9791,"cru":9792,"Notwendigkeit":9793,"upd":9794,"Bre":9795,"governments":9796,"lok":9797,"@@ennung":9798,"@@otos":9799,"Frankreich":9800,"poor":9801,"High":9802,"Barcel":9803,"Lösungen":9804,"indeed":9805,"@@just":9806,"@@ließend":9807,"@@vious":9808,"half":9809,"lat":9810,"Vors":9811,"customer":9812,"Lux":9813,"Zentrum":9814,"capac":9815,"took":9816,"@@ändert":9817,"@@vorschriften":9818,"@@obei":9819,"leaders":9820,"Nutzung":9821,"Macht":9822,"border":9823,"@@imension":9824,"Solid":9825,"@@zös":9826,"Gelegenheit":9827,"@@stoff":9828,"move":9829,"@@onds":9830,"hours":9831,"satisf":9832,"@@bahn":9833,"Rel":9834,"Play":9835,"Global":9836,"@@va":9837,"extens":9838,"Finally":9839,"Leg":9840,"restaurant":9841,"London":9842,"ermöglichen":9843,"comprom":9844,"becom":9845,"Anal":9846,"Kir":9847,"@@ikanischen":9848,"bekommen":9849,"card":9850,"Russland":9851,"@@iterran":9852,"advant":9853,"@@nern":9854,"face":9855,"space":9856,"@@brigen":9857,"@@ernen":9858,"Initiative":9859,"performance":9860,"@@zub":9861,"amer":9862,"achieved":9863,"gab":9864,"famous":9865,"@@pite":9866,"Innov":9867,"@@OS":9868,"wobei":9869,"31":9870,"includes":9871,"konkre":9872,"broad":9873,"Now":9874,"Febru":9875,"@@feld":9876,"@@ägt":9877,"@@ological":9878,"Bef":9879,"@@inne":9880,"Link":9881,"vict":9882,"culture":9883,"durchge":9884,"traditional":9885,"Thank":9886,"industrial":9887,"soziale":9888,"wichtigsten":9889,"@@assung":9890,"vill":9891,"integration":9892,"@@ences":9893,"early":9894,"Cons":9895,"amendment":9896,"consumers":9897,"Beschl":9898,"kultur":9899,"@@alter":9900,"Ergebnisse":9901,"condition":9902,"@@kennen":9903,"attack":9904,"enthält":9905,"wegen":9906,"@@ork":9907,"@@orten":9908,"@@üng":9909,"Standard":9910,"verbessern":9911,"seems":9912,"@@ios":9913,"@@orf":9914,"@@jahr":9915,"@@izient":9916,"kleine":9917,"speed":9918,"plann":9919,"Gree":9920,"neben":9921,"Social":9922,"@@ützen":9923,"allows":9924,"@@erweise":9925,"efficient":9926,"@@fordert":9927,"@@minister":9928,"files":9929,"quickly":9930,"@@prozess":9931,"196":9932,"principles":9933,"Since":9934,"search":9935,"einges":9936,"@@ourn":9937,"original":9938,"Überein":9939,"Article":9940,"@@iddle":9941,"..":9942,"Regierungen":9943,"Damit":9944,"zeigen":9945,"@@andlung":9946,"conv":9947,"sense":9948,"@@emb":9949,"hold":9950,"gefähr":9951,"seek":9952,"irgend":9953,"völlig":9954,"contains":9955,"Konferenz":9956,"prim":9957,"leben":9958,"nuclear":9959,"EN":9960,"@@ini":9961,"@@gent":9962,"Fur":9963,"@@orre":9964,"Les":9965,"@@onnen":9966,"simple":9967,"@@erve":9968,"rund":9969,"@@aint":9970,"click":9971,"@@iated":9972,"code":9973,"@@ägen":9974,"Zweit":9975,"@@äst":9976,"@@amera":9977,"fran":9978,"credit":9979,"commitment":9980,"rat":9981,"@@fortunately":9982,"@@ender":9983,"@@arte":9984,"received":9985,"@@rict":9986,"Gipf":9987,"Wochen":9988,"Benutzer":9989,"Debian":9990,"@@ille":9991,"subsid":9992,"künft":9993,"Second":9994,"comfortable":9995,"@@such":9996,"diskut":9997,"Flugh":9998,"fördern":9999,"@@atast":10000,"Install":10001,"@@prise":10002,"@@ED":10003,"@@alien":10004,"überw":10005,"meinem":10006,"@@essour":10007,"90":10008,"@@auber":10009,"below":10010,"body":10011,"Verwendung":10012,"treatment":10013,"@@renz":10014,"@@ätigkeit":10015,"Dritt":10016,"@@AM":10017,"ganzen":10018,"@@utt":10019,"increased":10020,"@@ying":10021,"@@seit":10022,"Sim":10023,"angemessen":10024,"game":10025,"option":10026,"oil":10027,"@@gesamt":10028,"@@onse":10029,"Chin":10030,"recently":10031,"verg":10032,"carry":10033,"Ru":10034,"Last":10035,"spielen":10036,"geschlossen":10037,"@@istische":10038,"@@cer":10039,"agreed":10040,"@@leisten":10041,"Post":10042,"applications":10043,"@@OM":10044,"goods":10045,"dang":10046,"heut":10047,"matters":10048,"Fuß":10049,"Voraus":10050,"@@stellungen":10051,"Darüber":10052,"Mehrheit":10053,"@@ox":10054,"@@ployment":10055,"promote":10056,"@@ET":10057,"perhaps":10058,"Informations":10059,"mehrere":10060,"@@nehm":10061,"categor":10062,"tatsächlich":10063,"@@ole":10064,"Bitte":10065,"built":10066,"ernst":10067,"everyone":10068,"@@ßt":10069,"image":10070,"Konfl":10071,"suppl":10072,"trotz":10073,"Server":10074,"schriftlich":10075,"huge":10076,"ausgezeichnet":10077,"frei":10078,"Maß":10079,"@@AC":10080,"@@esh":10081,"@@icien":10082,"correct":10083,"@@ologie":10084,"Zeitpunkt":10085,"Krieg":10086,"ganze":10087,"@@lud":10088,"scient":10089,"levels":10090,"@@ering":10091,"eindeut":10092,"Stellung":10093,"@@hung":10094,"stress":10095,"choice":10096,"@@okoll":10097,"stage":10098,"@@icles":10099,"self":10100,"@@essourcen":10101,"beein":10102,"@@ka":10103,"Binnenmarkt":10104,"Ober":10105,"geeign":10106,"änd":10107,"@@annte":10108,"@@öhn":10109,"großer":10110,"fa":10111,"Amster":10112,"Änderungen":10113,"verstär":10114,"presented":10115,"Of":10116,"lux":10117,"Anfang":10118,"@@ella":10119,"@@staat":10120,"Stunden":10121,"sustainable":10122,"gerne":10123,"@@face":10124,"verwenden":10125,"note":10126,"garant":10127,"@@hes":10128,"Einführung":10129,"Handel":10130,"@@gef":10131,"herr":10132,"Here":10133,"@@licken":10134,"enable":10135,"Log":10136,"WTO":10137,"Woche":10138,"Linux":10139,"Therefore":10140,"Vereinbar":10141,"IN":10142,"Barcelona":10143,"active":10144,"@@mm":10145,"Agr":10146,"FR":10147,"whose":10148,"Vertr":10149,"@@ature":10150,"@@lang":10151,"@@itness":10152,"block":10153,"computer":10154,"friendly":10155,"@@stre":10156,"June":10157,"29":10158,"@@prechend":10159,"@@ery":10160,"@@ufficient":10161,"Business":10162,"@@eria":10163,"Bekämpfung":10164,"Tat":10165,"gewährleisten":10166,"geführt":10167,"@@hend":10168,"@@ara":10169,"@@iglich":10170,"@@iste":10171,"direction":10172,"veh":10173,"Central":10174,"Develop":10175,"äußerst":10176,"experien":10177,"passen":10178,"prot":10179,"Anzahl":10180,"rates":10181,"purch":10182,"carried":10183,"@@xis":10184,"aspects":10185,"equipment":10186,"wirtschaftliche":10187,"@@mehr":10188,"enlargement":10189,"@@reiten":10190,"Veranst":10191,"@@jähr":10192,"@@ology":10193,"guten":10194,"Mic":10195,"@@rah":10196,"creation":10197,"gleichen":10198,"@@lant":10199,"Organisation":10200,"Booking":10201,"front":10202,"traff":10203,"Komprom":10204,"successful":10205,"sorgen":10206,"warm":10207,"Gast":10208,"transfer":10209,"@@kommens":10210,"Kosovo":10211,"supply":10212,"@@halte":10213,"response":10214,"Mitarbeiter":10215,"avoid":10216,"rein":10217,"Folgen":10218,"@@organis":10219,"@@osen":10220,"verstehen":10221,"attem":10222,"Integration":10223,"Auswahl":10224,"70":10225,"Wahr":10226,"Material":10227,"@@aving":10228,"Bahn":10229,"Kommissarin":10230,"Element":10231,"restrict":10232,"sex":10233,"Koh":10234,"beginning":10235,"Bur":10236,"@@ania":10237,"external":10238,"hous":10239,"Sm":10240,"@@itting":10241,"@@verständlich":10242,"Erachten":10243,"@@hem":10244,"reduce":10245,"added":10246,"häuf":10247,"shown":10248,"gesamte":10249,"Convention":10250,"Erachtens":10251,"Öffent":10252,"zunächst":10253,"Gemeins":10254,"effects":10255,"Position":10256,"higher":10257,"Sum":10258,"@@sterreich":10259,"Sant":10260,"priority":10261,"@@PE":10262,"Belg":10263,"nahe":10264,"Jugend":10265,"@@ees":10266,"Strand":10267,"highly":10268,"Frühstück":10269,"@@ül":10270,"@@scht":10271,"Dez":10272,"feh":10273,"verfügen":10274,"Aufent":10275,"Fortschritte":10276,"@@schw":10277,"tell":10278,"@@oo":10279,"actions":10280,"Fach":10281,"ständ":10282,"meines":10283,"Ukraine":10284,"@@eteil":10285,"Pan":10286,"lik":10287,"@@val":10288,"@@mitted":10289,"Eigen":10290,"@@ills":10291,"opportunities":10292,"dynam":10293,"funding":10294,"ut":10295,"@@rü":10296,"Ham":10297,"inf":10298,"geg":10299,"@@itel":10300,"equipped":10301,"Aspe":10302,"asked":10303,"news":10304,"confirm":10305,"lässt":10306,"internet":10307,"Transpar":10308,"Schiff":10309,"@@ienste":10310,"Mac":10311,"eigene":10312,"Gebä":10313,"relevant":10314,"Freiheit":10315,"Tem":10316,"exchange":10317,"@@altungs":10318,"lediglich":10319,"@@una":10320,"@@ental":10321,"Club":10322,"Män":10323,"@@dom":10324,"Ba":10325,"obtain":10326,"Balk":10327,"verfüg":10328,"wonder":10329,"Pers":10330,"Tage":10331,"gebracht":10332,"Hinter":10333,"holiday":10334,"@@bert":10335,"Lat":10336,"commercial":10337,"@@owers":10338,"Gesundheits":10339,"beteil":10340,"engine":10341,"@@heben":10342,"liberal":10343,"Juni":10344,"Urlaub":10345,"@@eland":10346,"Fehler":10347,"einger":10348,"@@ball":10349,"six":10350,"@@anner":10351,"prepared":10352,"Lauf":10353,"@@zeugt":10354,"pressure":10355,"obwohl":10356,"Aud":10357,"einschließlich":10358,"Verkehrs":10359,"Wachstum":10360,"@@action":10361,"@@statt":10362,"anzu":10363,"@@polit":10364,"@@posed":10365,"possibility":10366,"Berichts":10367,"Angebot":10368,"@@hoben":10369,"@@buch":10370,"@@ierenden":10371,"@@itable":10372,"une":10373,"dring":10374,"@@kraft":10375,"age":10376,"consumer":10377,"Nieder":10378,"Some":10379,"@@atastrop":10380,"former":10381,"shows":10382,"vern":10383,"@@lassen":10384,"rail":10385,"billion":10386,"@@teilt":10387,"thanks":10388,"einzig":10389,"entr":10390,"@@ften":10391,"bestimmte":10392,"Ratspräsident":10393,"Reise":10394,"@@ausch":10395,"@@elegenheiten":10396,"@@gangs":10397,"vorgesehen":10398,"@@iko":10399,"Dinge":10400,"Opt":10401,"35":10402,"Bestimmungen":10403,"fal":10404,"@@therm":10405,"Standpunkt":10406,"reached":10407,"operation":10408,"influen":10409,"capacity":10410,"vorhand":10411,"@@ump":10412,"balance":10413,"Net":10414,"@@steller":10415,"@@omet":10416,"suffer":10417,"innovative":10418,"English":10419,"Volk":10420,"Mich":10421,"reject":10422,"gehören":10423,"ten":10424,"schle":10425,"Africa":10426,"@@ously":10427,"@@fgh":10428,"Anwend":10429,"Get":10430,"@@möglichkeit":10431,"anderer":10432,"König":10433,"@@light":10434,"Col":10435,"DV":10436,"double":10437,"Erklärung":10438,"Rev":10439,"@@maßnahmen":10440,"@@will":10441,"Aktivitäten":10442,"Sicht":10443,"south":10444,"@@ausschuss":10445,"similar":10446,"behind":10447,"@@idel":10448,"betroffen":10449,"sagte":10450,"Term":10451,"Amsterdam":10452,"veröffent":10453,"style":10454,"office":10455,"Mai":10456,"categories":10457,"dre":10458,"@@abor":10459,"zweite":10460,"Eing":10461,"tragen":10462,"@@fält":10463,"considered":10464,"Vorschriften":10465,"assistance":10466,"pros":10467,"decided":10468,"fisher":10469,"closed":10470,"@@arily":10471,"@@ico":10472,"@@klus":10473,"Republic":10474,"spir":10475,"supported":10476,"Systems":10477,"Erfahrung":10478,"@@agn":10479,"@@ibilities":10480,"setting":10481,"Spain":10482,"providing":10483,"scheint":10484,"@@fahrt":10485,"@@undes":10486,"@@reten":10487,"Sil":10488,"@@fghan":10489,"@@ube":10490,"Produktion":10491,"Bul":10492,"miss":10493,"stability":10494,"@@oppel":10495,"Pet":10496,"Entscheidungen":10497,"1998":10498,"entwickeln":10499,"@@ategorien":10500,"grant":10501,"coming":10502,"bestimmten":10503,"@@artige":10504,"versuchen":10505,"Don":10506,"Transport":10507,"Bro":10508,"register":10509,"@@mat":10510,"Medien":10511,"table":10512,"Gefahr":10513,"rout":10514,"Punkte":10515,"@@ags":10516,"@@thermore":10517,"Italy":10518,"@@iedr":10519,"@@füh":10520,"pleas":10521,"death":10522,"solchen":10523,"Beschäftigung":10524,"Dan":10525,"Somm":10526,"Familie":10527,"choose":10528,"@@ierter":10529,"@@IL":10530,"@@örper":10531,"@@selves":10532,"Unterk":10533,"remains":10534,"@@hil":10535,"@@haf":10536,"condu":10537,"series":10538,"ill":10539,"somit":10540,"Höhe":10541,"Während":10542,"leicht":10543,"cause":10544,"@@ritts":10545,"Wein":10546,"@@ason":10547,"hohen":10548,"effizient":10549,"administrat":10550,"Bad":10551,"Sprache":10552,"December":10553,"@@angel":10554,"legislative":10555,"vergangenen":10556,"Insel":10557,"@@cks":10558,"regulations":10559,"Protokoll":10560,"creating":10561,"regards":10562,"@@ave":10563,"@@lace":10564,"neuer":10565,"movement":10566,"City":10567,"elekt":10568,"ähn":10569,"@@istics":10570,"@@merksamkeit":10571,"@@inger":10572,"@@ützt":10573,"@@unsch":10574,"@@aschinen":10575,"erfolgreich":10576,"Ansatz":10577,"compromise":10578,"neigh":10579,"@@put":10580,"Rot":10581,"@@öffnet":10582,"Opf":10583,"allein":10584,"@@oz":10585,"@@ounts":10586,"erheb":10587,"Herzen":10588,"Erzeug":10589,"Alt":10590,"sun":10591,"Aufmerksamkeit":10592,"discussion":10593,"sofort":10594,"@@eff":10595,"@@letz":10596,"@@ias":10597,"erster":10598,"popular":10599,"mal":10600,"Bra":10601,"@@ächen":10602,"Open":10603,"Italien":10604,"@@reign":10605,"pan":10606,"PL":10607,"pleased":10608,"Dabei":10609,"@@icherung":10610,"Ferien":10611,"obs":10612,"size":10613,"erschein":10614,"spac":10615,"@@iciency":10616,"Arbeitnehmer":10617,"rule":10618,"@@industrie":10619,"@@zentrum":10620,"Landwirtschaft":10621,"bestät":10622,"Transparenz":10623,"latest":10624,"Oct":10625,"grundlegen":10626,"@@etary":10627,"independent":10628,"@@orrow":10629,"Präsidenten":10630,"phys":10631,"repe":10632,"@@akter":10633,"Berg":10634,"@@overty":10635,"@@estens":10636,"prob":10637,"green":10638,"concept":10639,"Prü":10640,"Erw":10641,"@@ych":10642,"@@gesellschaft":10643,"erk":10644,"Organ":10645,"lay":10646,"@@gliche":10647,"@@ilden":10648,"obvious":10649,"Market":10650,"Party":10651,"woll":10652,"Det":10653,"@@ängt":10654,"@@ühungen":10655,"que":10656,"@@roat":10657,"Nur":10658,"Dezember":10659,"tom":10660,"procedures":10661,"Mediterran":10662,"foot":10663,"@@iately":10664,"British":10665,"gemäß":10666,"@@uern":10667,"gewor":10668,"@@estellt":10669,"Gruppen":10670,"Rights":10671,"@@ollar":10672,"tro":10673,"außerdem":10674,"center":10675,"Dis":10676,"aufgenommen":10677,"Golf":10678,"came":10679,"gives":10680,"contribution":10681,"materials":10682,"Site":10683,"Well":10684,"@@zer":10685,"@@ürf":10686,"labour":10687,"@@igungen":10688,"dadurch":10689,"virt":10690,"Stär":10691,"@@chsel":10692,"@@ored":10693,"Prinzip":10694,"Stelle":10695,"Empfeh":10696,"Wettbewerb":10697,"@@cl":10698,"digital":10699,"else":10700,"Investitionen":10701,"@@uel":10702,"message":10703,"limit":10704,"Kontakt":10705,"@@rupt":10706,"violence":10707,"deg":10708,"Services":10709,"@@zeuge":10710,"Personal":10711,"vo":10712,"Bereiche":10713,"französ":10714,"floor":10715,"konzentr":10716,"Nationen":10717,"March":10718,"Solidar":10719,"@@ilen":10720,"Western":10721,"partner":10722,"erweit":10723,"@@angt":10724,"announ":10725,"@@pret":10726,"@@ikt":10727,"@@mann":10728,"vertreten":10729,"Grenzen":10730,"einzige":10731,"morgen":10732,"@@wortern":10733,"purpose":10734,"Diskussion":10735,"@@falt":10736,"Öffentlichkeit":10737,"@@lös":10738,"@@iture":10739,"@@ournal":10740,"forms":10741,"Basis":10742,"brought":10743,"Forschungs":10744,"provisions":10745,"europäischer":10746,"limited":10747,"See":10748,"@@illed":10749,"@@ams":10750,"@@OL":10751,"@@unk":10752,"@@ugs":10753,"leisten":10754,"relation":10755,"conflict":10756,"criteria":10757,"Okt":10758,"video":10759,"@@lav":10760,"expla":10761,"kont":10762,"fishing":10763,"easily":10764,"dut":10765,"Unternehmens":10766,"@@ued":10767,"compre":10768,"task":10769,"chem":10770,"Bildung":10771,"@@rief":10772,"Mediterranean":10773,"ext":10774,"@@li":10775,"Preise":10776,"zweiten":10777,"details":10778,"insgesamt":10779,"property":10780,"Zeich":10781,"@@geber":10782,"effort":10783,"Kan":10784,"status":10785,"Regeln":10786,"inst":10787,"Änd":10788,"@@pruch":10789,"transparency":10790,"exec":10791,"Präsidentschaft":10792,"@@resp":10793,"los":10794,"Portugal":10795,"entde":10796,"Umgebung":10797,"@@ón":10798,"furn":10799,"angesichts":10800,"Anforderungen":10801,"fix":10802,"garden":10803,"contract":10804,"Schlusselwortern":10805,"@@räfte":10806,"statement":10807,"@@richten":10808,"source":10809,"@@iete":10810,"regular":10811,"Projekte":10812,"ruh":10813,"instruments":10814,"leave":10815,"medium":10816,"instead":10817,"Down":10818,"@@heim":10819,"thous":10820,"@@ahren":10821,"Metho":10822,"betreffen":10823,"Auffassung":10824,"@@enntnis":10825,"mor":10826,"Iraq":10827,"Meine":10828,"@@letzt":10829,"Development":10830,"zahlreiche":10831,"schließlich":10832,"Ged":10833,"display":10834,"@@ründ":10835,"san":10836,"keiner":10837,"@@osp":10838,"@@yse":10839,"aw":10840,"ändern":10841,"describ":10842,"hohe":10843,"ourselves":10844,"@@mäßig":10845,"agenda":10846,"January":10847,"solidarity":10848,"Cal":10849,"ways":10850,"fig":10851,"bein":10852,"Gra":10853,"Anfrage":10854,"Bürgern":10855,"purs":10856,"@@ühm":10857,"sites":10858,"Oper":10859,"@@unternehmen":10860,"board":10861,"sus":10862,"minor":10863,"Pap":10864,"round":10865,"begrüße":10866,"@@ape":10867,"entw":10868,"halte":10869,"@@opping":10870,"@@where":10871,"Exper":10872,"@@ämt":10873,"Kur":10874,"@@hab":10875,"unem":10876,"@@iles":10877,"Schwier":10878,"mobile":10879,"Tagesordnung":10880,"erhält":10881,"relationship":10882,"@@sh":10883,"threat":10884,"Technologie":10885,"poverty":10886,"@@ibil":10887,"steps":10888,"Dom":10889,"@@prises":10890,"Afghan":10891,"dise":10892,"humanit":10893,"@@front":10894,"jüng":10895,"@@eht":10896,"bez":10897,"elections":10898,"@@egation":10899,"@@reibung":10900,"@@sehen":10901,"@@legung":10902,"@@zusetzen":10903,"declar":10904,"Palest":10905,"Hung":10906,"@@zone":10907,"evalu":10908,"@@yond":10909,"@@inal":10910,"Agrar":10911,"@@IM":10912,"Armut":10913,"genommen":10914,"beschäft":10915,"Mart":10916,"exhib":10917,"@@ley":10918,"ES":10919,"export":10920,"@@med":10921,"Rede":10922,"compl":10923,"@@zuführen":10924,"lic":10925,"ged":10926,"Today":10927,"Untersuch":10928,"Sign":10929,"@@stitute":10930,"giving":10931,"@@nungs":10932,"@@ugg":10933,"legit":10934,"März":10935,"October":10936,"Nr":10937,"Gründen":10938,"@@itzer":10939,"@@eng":10940,"appear":10941,"@@EP":10942,"@@volle":10943,"consequences":10944,"atmosph":10945,"Democ":10946,"@@pts":10947,"wichtiger":10948,"@@page":10949,"@@ellow":10950,"conference":10951,"benefits":10952,"erwarten":10953,"eigentlich":10954,"fall":10955,"Staat":10956,"zunehmen":10957,"@@eleist":10958,"accommodation":10959,"Bemühungen":10960,"bezüglich":10961,"produced":10962,"vorhanden":10963,"@@ja":10964,"@@mod":10965,"beitragen":10966,"mut":10967,"Bew":10968,"@@besch":10969,"rich":10970,"activity":10971,"stra":10972,"@@ieht":10973,"safe":10974,"Spa":10975,"Italian":10976,"challenges":10977,"gelegen":10978,"schl":10979,"@@ieb":10980,"@@imming":10981,"@@ütz":10982,"produce":10983,"@@zusch":10984,"orient":10985,"@@ples":10986,"Agent":10987,"@@stein":10988,"diejenigen":10989,"Schweiz":10990,"leider":10991,"@@ader":10992,"Bürgerinnen":10993,"equal":10994,"eingesetzt":10995,"Sache":10996,"@@porate":10997,"@@frastruct":10998,"Änderung":10999,"Mult":11000,"kannst":11001,"@@stimmen":11002,"damage":11003,"@@forderung":11004,"häufig":11005,"ansch":11006,"brit":11007,"@@ehnt":11008,"Versch":11009,"geworden":11010,"@@emin":11011,"Museum":11012,"@@cement":11013,"@@itect":11014,"Beteil":11015,"Java":11016,"@@ktive":11017,"@@orgung":11018,"@@usion":11019,"discover":11020,"jähr":11021,"bra":11022,"Fed":11023,"weder":11024,"@@drücklich":11025,"@@setzungen":11026,"@@umb":11027,"study":11028,"Ist":11029,"@@vors":11030,"geschaffen":11031,"hol":11032,"sport":11033,"colleagues":11034,"@@ssystem":11035,"alten":11036,"comprehens":11037,"span":11038,"durchgeführt":11039,"pen":11040,"@@ilateral":11041,"@@bei":11042,"Linie":11043,"terrorism":11044,"Tex":11045,"ausgestattet":11046,"distribution":11047,"reading":11048,"@@ls":11049,"dat":11050,"allowed":11051,"Vertreter":11052,"@@ko":11053,"niedr":11054,"Sinne":11055,"construction":11056,"@@ängen":11057,"AL":11058,"Stern":11059,"Real":11060,"@@position":11061,"Ressourcen":11062,"modified":11063,"@@iders":11064,"erfahren":11065,"größten":11066,"illegal":11067,"finally":11068,"1997":11069,"02":11070,"treffen":11071,"documents":11072,"Bulgar":11073,"ihres":11074,"@@oking":11075,"Oktober":11076,"@@ech":11077,"King":11078,"DVD":11079,"@@fordern":11080,"Har":11081,"@@uert":11082,"consist":11083,"Enter":11084,"summer":11085,"@@onom":11086,"firm":11087,"ign":11088,"@@rats":11089,"konnten":11090,"Ev":11091,"tä":11092,"benötigen":11093,"Op":11094,"@@kur":11095,"öffentliche":11096,"früh":11097,"getan":11098,"sufficient":11099,"exact":11100,"reality":11101,"Neben":11102,"loss":11103,"tomorrow":11104,"@@endes":11105,"@@fil":11106,"tw":11107,"Neu":11108,"Loc":11109,"Directive":11110,"Mut":11111,"Sym":11112,"@@pir":11113,"congratulate":11114,"hotels":11115,"grat":11116,"@@ilos":11117,"atmosphere":11118,"Ost":11119,"@@ivity":11120,"ziehen":11121,"@@porary":11122,"@@losen":11123,"terra":11124,"dein":11125,"places":11126,"überprü":11127,"undert":11128,"Bilder":11129,"gain":11130,"sent":11131,"@@ifel":11132,"discrimin":11133,"Juli":11134,"Econom":11135,"Völk":11136,"übrigen":11137,"@@ücht":11138,"@@wise":11139,"stock":11140,"compon":11141,"@@yd":11142,"Jahrhundert":11143,"Int":11144,"Ereign":11145,"erneut":11146,"Mos":11147,"useful":11148,"Also":11149,"curren":11150,"@@itude":11151,"gas":11152,"Grand":11153,"@@entwick":11154,"integrated":11155,"Computer":11156,"gefunden":11157,"vergessen":11158,"saying":11159,"@@orgt":11160,"Film":11161,"interesting":11162,"@@works":11163,"verhindern":11164,"Amendment":11165,"aktuellen":11166,"hätten":11167,"Rechtsvorschriften":11168,"crucial":11169,"launch":11170,"Gal":11171,"pal":11172,"@@ahlt":11173,"@@ienz":11174,"disp":11175,"friends":11176,"Menschenrechts":11177,"Et":11178,"Werte":11179,"Fällen":11180,"@@itial":11181,"Monaten":11182,"Januar":11183,"organisations":11184,"weak":11185,"Furthermore":11186,"@@gegeben":11187,"@@ierende":11188,"@@altet":11189,"genießen":11190,"west":11191,"charge":11192,"wissenschaft":11193,"York":11194,"Spanish":11195,"03":11196,"@@mö":11197,"growing":11198,"Security":11199,"Every":11200,"@@önen":11201,"45":11202,"applied":11203,"word":11204,"Datei":11205,"worth":11206,"@@möglichkeiten":11207,"Initi":11208,"elements":11209,"Gerichts":11210,"tim":11211,"@@és":11212,"alternative":11213,"@@uck":11214,"@@hilfe":11215,"langfrist":11216,"div":11217,"@@rid":11218,"Aufgaben":11219,"renew":11220,"@@scheinlich":11221,"Prov":11222,"@@lück":11223,"@@US":11224,"largest":11225,"infrastruct":11226,"started":11227,"Milliar":11228,"Nachbar":11229,"Terrorismus":11230,"@@gra":11231,"Minder":11232,"@@egt":11233,"monitoring":11234,"Entw":11235,"structure":11236,"@@bezogen":11237,"July":11238,"entsprechenden":11239,"@@iction":11240,"@@RE":11241,"Mess":11242,"implemented":11243,"doubt":11244,"Ke":11245,"@@wertung":11246,"Kommissions":11247,"Abend":11248,"path":11249,"@@lose":11250,"Camp":11251,"regel":11252,"Star":11253,"@@inder":11254,"ban":11255,"urspr":11256,"@@aign":11257,"@@lichkeiten":11258,"Zentral":11259,"@@aking":11260,"unterb":11261,"@@wesen":11262,"@@omb":11263,"@@adem":11264,"Finanzierung":11265,"Cast":11266,"@@ograf":11267,"sieht":11268,"@@etting":11269,"suchen":11270,"requires":11271,"@@ki":11272,"@@imat":11273,"unmittel":11274,"Test":11275,"electron":11276,"@@ero":11277,"constant":11278,"@@ören":11279,"relating":11280,"Republik":11281,"immediately":11282,"@@pan":11283,"krit":11284,"Budget":11285,"mis":11286,"@@frastruktur":11287,"Ra":11288,"@@mand":11289,"island":11290,"@@änderungen":11291,"partnership":11292,"@@erungs":11293,"Städ":11294,"Herz":11295,"32":11296,"defen":11297,"Auftrag":11298,"@@urance":11299,"practical":11300,"behandelt":11301,"@@wide":11302,"Cost":11303,"types":11304,"@@ordination":11305,"@@ya":11306,"wenige":11307,"honour":11308,"Gel":11309,"@@achtung":11310,"@@kosten":11311,"hinzu":11312,"lower":11313,"fordern":11314,"Free":11315,"written":11316,"zentr":11317,"Heute":11318,"analysis":11319,"Sen":11320,"accession":11321,"@@angs":11322,"@@ney":11323,"employees":11324,"@@ades":11325,"reduction":11326,"@@eks":11327,"@@ontroll":11328,"edit":11329,"efficiency":11330,"bringt":11331,"Kredit":11332,"Bundes":11333,"beyond":11334,"@@zeichnung":11335,"Verteid":11336,"Abs":11337,"Wohl":11338,"Einwand":11339,"Beginn":11340,"farmers":11341,"Bot":11342,"@@ehe":11343,"Regierungs":11344,"Hel":11345,"Bedürf":11346,"ersch":11347,"stimmen":11348,"Ho":11349,"processes":11350,"jen":11351,"@@uls":11352,"Public":11353,"ord":11354,"@@view":11355,"eher":11356,"Est":11357,"@@folge":11358,"north":11359,"@@quare":11360,"genannten":11361,"@@wh":11362,"@@ammlung":11363,"Tab":11364,"won":11365,"waste":11366,"transparent":11367,"forces":11368,"base":11369,"@@iveau":11370,"perman":11371,"Bon":11372,"Although":11373,"Human":11374,"warum":11375,"SM":11376,"minimum":11377,"Mand":11378,"@@lines":11379,"Behandlung":11380,"sonst":11381,"Many":11382,"Aspekte":11383,"--":11384,"tools":11385,"@@theless":11386,"entsprechend":11387,"NAT":11388,"plant":11389,"@@ellschaften":11390,"berücksichtigt":11391,"Villa":11392,"@@uis":11393,"@@kret":11394,"kennen":11395,"einheit":11396,"@@izienz":11397,"@@ocol":11398,"Zweitens":11399,"bur":11400,"Beruf":11401,"@@aktion":11402,"voting":11403,"Gott":11404,"verpflicht":11405,"cohes":11406,"Mann":11407,"circum":11408,"Berichterstatterin":11409,"paid":11410,"@@vere":11411,"@@rosoft":11412,"gerecht":11413,"enh":11414,"Angelegenheit":11415,"gek":11416,"Tradition":11417,"versucht":11418,"occas":11419,"befür":11420,"Bi":11421,"@@ony":11422,"depart":11423,"@@abkommen":11424,"@@ellten":11425,"getroffen":11426,"reference":11427,"Angelegenheiten":11428,"Hil":11429,"staat":11430,"gewesen":11431,"Video":11432,"@@stitutional":11433,"erfüllen":11434,"@@pective":11435,"bad":11436,"goes":11437,"Vergangen":11438,"mem":11439,"@@cker":11440,"@@prec":11441,"Your":11442,"@@üg":11443,"variety":11444,"erklärt":11445,"ey":11446,"Lassen":11447,"schützen":11448,"@@elten":11449,"anti":11450,"Dateien":11451,"apartment":11452,"Centre":11453,"lives":11454,"@@estic":11455,"@@ssen":11456,"eleg":11457,"Spezial":11458,"critic":11459,"brand":11460,"Parteien":11461,"@@uffet":11462,"Ed":11463,"Fäh":11464,"Zivil":11465,"recon":11466,"@@ühen":11467,"@@iegen":11468,"section":11469,"Straßen":11470,"zeit":11471,"sectors":11472,"Natürlich":11473,"coast":11474,"Are":11475,"@@ato":11476,"historical":11477,"zehn":11478,"AC":11479,"server":11480,"ideas":11481,"train":11482,"vorher":11483,"@@losigkeit":11484,"mensch":11485,"@@hilfen":11486,"@@raten":11487,"@@ervice":11488,"@@izin":11489,"Produktions":11490,"überhaupt":11491,"@@ils":11492,"verab":11493,"Inhalt":11494,"Saf":11495,"Modell":11496,"meaning":11497,"persons":11498,"Küche":11499,"@@ogle":11500,"zumindest":11501,"zug":11502,"erlaub":11503,"respond":11504,"@@stag":11505,"@@enk":11506,"Erfahrungen":11507,"Room":11508,"Praxis":11509,"Microsoft":11510,"begin":11511,"competit":11512,"@@mp":11513,"Folge":11514,"counter":11515,"Eigent":11516,"hear":11517,"weeks":11518,"architect":11519,"@@iker":11520,"Spanien":11521,"powers":11522,"@@lass":11523,"@@partner":11524,"Vertrauen":11525,"Opfer":11526,"comprehensive":11527,"Tro":11528,"Landwir":11529,"Wunsch":11530,"candid":11531,"@@freund":11532,"Tagen":11533,"renov":11534,"Conference":11535,"@@nungen":11536,"Solidarität":11537,"Aller":11538,"Green":11539,"@@anlage":11540,"kur":11541,"@@cription":11542,"payment":11543,"Cop":11544,"Annahme":11545,"highest":11546,"Schwierigkeiten":11547,"Even":11548,"@@griffen":11549,"ll":11550,"@@oker":11551,"campaign":11552,"exception":11553,"adapt":11554,"komp":11555,"Firma":11556,"berühm":11557,"besondere":11558,"namely":11559,"richtige":11560,"advantage":11561,"Liberal":11562,"Flughafen":11563,"sämt":11564,"Herausforderungen":11565,"Gest":11566,"rapid":11567,"zuständ":11568,"klein":11569,"challenge":11570,"Vergangenheit":11571,"sechs":11572,"@@ena":11573,"businesses":11574,"gemein":11575,"attempt":11576,"extent":11577,"Miss":11578,"Sommer":11579,"Secondly":11580,"@@beg":11581,"Islam":11582,"prü":11583,"ris":11584,"@@umen":11585,"stärker":11586,"deep":11587,"@@scheid":11588,"folgt":11589,"Ak":11590,"spezif":11591,"Center":11592,"Inn":11593,"shar":11594,"verpflichtet":11595,"@@iability":11596,"ko":11597,"numerous":11598,"IP":11599,"@@rengungen":11600,"fear":11601,"wunder":11602,"genu":11603,"somet":11604,"bessere":11605,"verm":11606,"raised":11607,"PH":11608,"nimmt":11609,"@@laden":11610,"1996":11611,"@@öße":11612,"@@ifically":11613,"@@zulegen":11614,"@@EM":11615,"Hinsicht":11616,"@@erkennung":11617,"Verhält":11618,"crimin":11619,"hom":11620,"thought":11621,"van":11622,"technologies":11623,"Schritte":11624,"operating":11625,"anderem":11626,"erinnern":11627,"@@wün":11628,"Ireland":11629,"Arbeitsplätze":11630,"caused":11631,"Dat":11632,"spirit":11633,"NATO":11634,"welcom":11635,"happy":11636,"400":11637,"@@achsen":11638,"@@ücken":11639,"scientific":11640,"länd":11641,"Betrieb":11642,"@@dienst":11643,"Privat":11644,"Acht":11645,"initiatives":11646,"laut":11647,"Gef":11648,"strategic":11649,"Altern":11650,"During":11651,"beginnen":11652,"phot":11653,"Verfassung":11654,"Vergleich":11655,"36":11656,"sales":11657,"@@arge":11658,"ethn":11659,"@@obby":11660,"cohesion":11661,"substant":11662,"drive":11663,"daily":11664,"offiz":11665,"genug":11666,"Bal":11667,"@@ichern":11668,"hil":11669,"Erd":11670,"@@ämpfen":11671,"@@inens":11672,"despite":11673,"Flex":11674,"Bu":11675,"Auto":11676,"@@ischem":11677,"maximum":11678,"Hostels":11679,"@@rants":11680,"ready":11681,"kit":11682,"verk":11683,"@@künft":11684,"@@wind":11685,"initial":11686,"starting":11687,"Wann":11688,"pie":11689,"accordance":11690,"Agenda":11691,"@@ummer":11692,"usw":11693,"@@krise":11694,"teach":11695,"Gespr":11696,"borders":11697,"enorm":11698,"Ausschuß":11699,"paar":11700,"secure":11701,"@@ränkt":11702,"Aufenthalt":11703,"Haushalt":11704,"@@sych":11705,"@@DF":11706,"bald":11707,"innovation":11708,"@@orning":11709,"Sitzung":11710,"Krank":11711,"erfolgt":11712,"Innen":11713,"remov":11714,"absolutely":11715,"argument":11716,"darstellt":11717,"technischen":11718,"begrüßen":11719,"vital":11720,"conven":11721,"@@leistung":11722,"Verpflichtungen":11723,"@@ichert":11724,"@@tragen":11725,"Mass":11726,"distance":11727,"Ta":11728,"außerhalb":11729,"Geg":11730,"TH":11731,"anything":11732,"@@othe":11733,"Berat":11734,"village":11735,"got":11736,"har":11737,"@@ira":11738,"lines":11739,"Austria":11740,"anerk":11741,"accepted":11742,"Kapital":11743,"methods":11744,"Ol":11745,"Afghanistan":11746,"UK":11747,"@@sto":11748,"sometimes":11749,"probably":11750,"@@poses":11751,"@@bezieh":11752,"@@ünstler":11753,"@@igation":11754,"exerc":11755,"@@gy":11756,"annual":11757,"verantwortlich":11758,"remember":11759,"err":11760,"wiederhol":11761,"vollständig":11762,"ehem":11763,"Moreover":11764,"Hal":11765,"wine":11766,"@@äte":11767,"highlight":11768,"wählen":11769,"Ord":11770,"Anstrengungen":11771,"stets":11772,"Tal":11773,"heutigen":11774,"Milliarden":11775,"@@craft":11776,"194":11777,"@@konom":11778,"privaten":11779,"historic":11780,"jeweiligen":11781,"Download":11782,"eindeutig":11783,"präsent":11784,"Nun":11785,"Sonder":11786,"expressed":11787,"@@IA":11788,"bill":11789,"mountain":11790,"Ven":11791,"@@OT":11792,"Versuch":11793,"options":11794,"@@jekt":11795,"@@gruppe":11796,"@@enze":11797,"representatives":11798,"tal":11799,"allgemeinen":11800,"zukünft":11801,"2020":11802,"Ze":11803,"@@phone":11804,"Friedens":11805,"Chinese":11806,"@@uerung":11807,"reforms":11808,"@@reement":11809,"deine":11810,"@@zul":11811,"frequ":11812,"Überwach":11813,"Erstens":11814,"quiet":11815,"unten":11816,"beträ":11817,"unbed":11818,"offered":11819,"kür":11820,"simpl":11821,"@@ilosoph":11822,"calls":11823,"@@stelle":11824,"trying":11825,"offering":11826,"Antrag":11827,"@@rem":11828,"offens":11829,"languages":11830,"verurs":11831,"negative":11832,"@@spruch":11833,"anders":11834,"Kriterien":11835,"nice":11836,"justice":11837,"Konzept":11838,"Prä":11839,"Tier":11840,"@@ulated":11841,"super":11842,"@@mosphäre":11843,"advert":11844,"Mittelme":11845,"Prem":11846,"Google":11847,"Georg":11848,"@@hafte":11849,"Beweg":11850,"dringend":11851,"@@30":11852,"@@son":11853,"buy":11854,"Organisationen":11855,"Allerdings":11856,"tät":11857,"Roma":11858,"restaurants":11859,"@@engen":11860,"Gipfel":11861,"late":11862,"@@itation":11863,"became":11864,"größte":11865,"wrong":11866,"übernehmen":11867,"@@ungsver":11868,"worldwide":11869,"Val":11870,"sav":11871,"While":11872,"dipl":11873,"zahlreichen":11874,"bitten":11875,"Viele":11876,"alone":11877,"@@altungen":11878,"@@akte":11879,"Stock":11880,"@@zwe":11881,"untern":11882,"demands":11883,"Kn":11884,"interested":11885,"Wahlen":11886,"Stellen":11887,"@@afft":11888,"confidence":11889,"@@PS":11890,"remind":11891,"@@isely":11892,"@@gült":11893,"Palestin":11894,"talking":11895,"Kompromiss":11896,"verkauf":11897,"chance":11898,"@@park":11899,"approved":11900,"falls":11901,"@@di":11902,"symbol":11903,"vorlie":11904,"clients":11905,"geleist":11906,"priorities":11907,"ones":11908,"proceed":11909,"vorgelegt":11910,"published":11911,"@@figur":11912,"@@idelines":11913,"apprec":11914,"Liefer":11915,"emissions":11916,"influence":11917,"EG":11918,"Adresse":11919,"guest":11920,"endlich":11921,"blo":11922,"Start":11923,"wanted":11924,"eingeb":11925,"Begriff":11926,"committed":11927,"@@agraph":11928,"beschlossen":11929,"regime":11930,"Arab":11931,"unemployment":11932,"@@icken":11933,"airport":11934,"currency":11935,"zweit":11936,"Partei":11937,"trust":11938,"@@fälle":11939,"@@atform":11940,"adjust":11941,"heard":11942,"@@zeiten":11943,"@@atalog":11944,"@@rogen":11945,"machine":11946,"overall":11947,"scale":11948,"uner":11949,"demokratischen":11950,"Gesamt":11951,"News":11952,"Firmen":11953,"film":11954,"Wand":11955,"@@ördert":11956,"Vereinbarung":11957,"Code":11958,"release":11959,"@@etten":11960,"Gebäude":11961,"@@upts":11962,"sinn":11963,"größer":11964,"valid":11965,"@@ästinens":11966,"gesehen":11967,"structural":11968,"Ents":11969,"reich":11970,"Anerkennung":11971,"Russian":11972,"@@setzt":11973,"@@laus":11974,"Grie":11975,"cou":11976,"@@utive":11977,"conclusion":11978,"Verwaltung":11979,"IM":11980,"coll":11981,"University":11982,"@@änge":11983,"Zustimmung":11984,"Voll":11985,"Prozent":11986,"sal":11987,"Dav":11988,"Obwohl":11989,"@@itten":11990,"reag":11991,"Einige":11992,"Einrichtung":11993,"@@wogen":11994,"größere":11995,"affected":11996,"@@angeb":11997,"@@ais":11998,"Verhalten":11999,"lost":12000,"banks":12001,"150":12002,"historischen":12003,"@@ulations":12004,"eingehen":12005,"Spieler":12006,"seines":12007,"folgenden":12008,"listen":12009,"slow":12010,"persönlichen":12011,"Nations":12012,"spr":12013,"@@SS":12014,"ausschließlich":12015,"Falls":12016,"welches":12017,"erlaubt":12018,"@@ziert":12019,"@@fu":12020,"administrative":12021,"@@gehend":12022,"@@uster":12023,"drink":12024,"@@ienten":12025,"@@verage":12026,"verme":12027,"Jahrhunder":12028,"Dann":12029,"Swiss":12030,"ded":12031,"@@10":12032,"victims":12033,"email":12034,"interpret":12035,"Sektor":12036,"@@izing":12037,"Fischerei":12038,"Einfluss":12039,"Indeed":12040,"gesetz":12041,"circumstances":12042,"morning":12043,"@@öpf":12044,"@@zeichnen":12045,"militär":12046,"überzeugt":12047,"intended":12048,"@@icy":12049,"ensuring":12050,"berücksichtigen":12051,"Dazu":12052,"images":12053,"tabled":12054,"@@bie":12055,"plans":12056,"@@utr":12057,"vertra":12058,"Stabilität":12059,"Wissenschaft":12060,"hor":12061,"Ac":12062,"Aktions":12063,"jem":12064,"sports":12065,"Mitteilung":12066,"@@LA":12067,"@@hagen":12068,"@@date":12069,"Koordin":12070,"Sat":12071,"crime":12072,"Distr":12073,"players":12074,"letzte":12075,"Reformen":12076,"@@handel":12077,"@@wenden":12078,"observ":12079,"kn":12080,"perfe":12081,"Mc":12082,"lies":12083,"@@bourg":12084,"ski":12085,"flexible":12086,"@@ustausch":12087,"italien":12088,"@@head":12089,"apartments":12090,"entgegen":12091,"stabil":12092,"expert":12093,"increasingly":12094,"Währungs":12095,"@@rooms":12096,"cast":12097,"Telefon":12098,"encourage":12099,"institutional":12100,"beide":12101,"Restaurants":12102,"occur":12103,"jung":12104,"Falle":12105,"@@ione":12106,"Generation":12107,"@@cape":12108,"@@uses":12109,"hinweisen":12110,"Entschließungsant":12111,"processing":12112,"contribute":12113,"poll":12114,"Karte":12115,"provision":12116,"Tar":12117,"separate":12118,"Out":12119,"zudem":12120,"coordin":12121,"entschieden":12122,"@@ML":12123,"modernen":12124,"@@oke":12125,"decide":12126,"@@DE":12127,"improved":12128,"Tätigkeit":12129,"@@izes":12130,"gere":12131,"earl":12132,"@@quate":12133,"Ausgaben":12134,"Atmosphäre":12135,"@@bringen":12136,"Schlüssel":12137,"sicherzustellen":12138,"Chan":12139,"@@UR":12140,"Eind":12141,"@@ifying":12142,"@@barer":12143,"agriculture":12144,"Beitritts":12145,"günst":12146,"Erk":12147,"auss":12148,"track":12149,"manufactur":12150,"@@fläche":12151,"Irak":12152,"auszu":12153,"Garant":12154,"@@werte":12155,"bestimmt":12156,"@@staaten":12157,"App":12158,"@@stoffe":12159,"comments":12160,"Unterkategorien":12161,"erwartet":12162,"zusätzliche":12163,"Gem":12164,"danke":12165,"Grunds":12166,"bewusst":12167,"@@anden":12168,"Hoff":12169,"Soll":12170,"@@bre":12171,"prefer":12172,"budgetary":12173,"ehemal":12174,"@@ula":12175,"prem":12176,"effectively":12177,"Systeme":12178,"@@prüfung":12179,"Serb":12180,"@@cia":12181,"@@folger":12182,"sil":12183,"Richtlinien":12184,"Ihres":12185,"Schengen":12186,"Waffen":12187,"concentr":12188,"globalen":12189,"Trotz":12190,"@@gesetz":12191,"Abschluss":12192,"Mex":12193,"Durchführung":12194,"participation":12195,"@@iding":12196,"Nacht":12197,"infrastructure":12198,"@@egu":12199,"@@chnik":12200,"@@kaufs":12201,"gesetzt":12202,"scope":12203,"Cap":12204,"hervorragen":12205,"@@karte":12206,"heav":12207,"natür":12208,"Idee":12209,"Doppel":12210,"@@achtet":12211,"games":12212,"@@hrte":12213,"glauben":12214,"Verfass":12215,"Luxem":12216,"fire":12217,"rise":12218,"erkennen":12219,"@@gruppen":12220,"element":12221,"Österreich":12222,"@@rieb":12223,"@@endence":12224,"Lang":12225,"@@isp":12226,"goal":12227,"Only":12228,"fields":12229,"administration":12230,"reviews":12231,"setzt":12232,"opening":12233,"angesprochen":12234,"changed":12235,"wider":12236,"sort":12237,"@@wirken":12238,"Ja":12239,"alt":12240,"Wettbewerbsfähigkeit":12241,"intell":12242,"Il":12243,"@@ürger":12244,"Mobil":12245,"unbedingt":12246,"@@asc":12247,"Hause":12248,"claim":12249,"fellow":12250,"@@luded":12251,"Bestand":12252,"pictures":12253,"datab":12254,"@@pliz":12255,"gezeigt":12256,"Bud":12257,"reduced":12258,"@@ST":12259,"@@ground":12260,"feed":12261,"competitive":12262,"automatisch":12263,"ol":12264,"extend":12265,"aimed":12266,"nationale":12267,"@@UN":12268,"Waren":12269,"@@arus":12270,"@@leb":12271,"occup":12272,"debt":12273,"mainly":12274,"Sterne":12275,"@@itch":12276,"@@indungen":12277,"Lebensmittel":12278,"Bos":12279,"@@ifizierung":12280,"emb":12281,"@@ufe":12282,"wesentlich":12283,"Bemerk":12284,"elegant":12285,"ability":12286,"akzeptieren":12287,"@@lichung":12288,"Infrastruktur":12289,"Lab":12290,"@@idge":12291,"@@oon":12292,"kam":12293,"Engagement":12294,"People":12295,"Nutzen":12296,"screen":12297,"Anp":12298,"@@ohol":12299,"parking":12300,"selbstverständlich":12301,"@@fühl":12302,".....":12303,"Leute":12304,"Griechen":12305,"Immobil":12306,"@@ola":12307,"Agreement":12308,"Tun":12309,"@@IV":12310,"@@punkte":12311,"specifically":12312,"Öl":12313,"Homepage":12314,"whom":12315,"erzielt":12316,"@@inary":12317,"supports":12318,"mand":12319,"Gold":12320,"Wik":12321,"Christian":12322,"zufrieden":12323,"ergreifen":12324,"@@ibly":12325,"@@ätzlich":12326,"motor":12327,"@@tert":12328,"selection":12329,"discussed":12330,"Nah":12331,"gesprochen":12332,"risks":12333,"Schwer":12334,"genutzt":12335,"entspricht":12336,"laws":12337,"erwähnt":12338,"ehr":12339,"@@QL":12340,"@@ergestellt":12341,"benutzt":12342,"Haltung":12343,"critical":12344,"planning":12345,"@@fahrens":12346,"@@ildet":12347,"Cr":12348,"sources":12349,"@@akes":12350,"@@struktur":12351,"@@endet":12352,"Vorteile":12353,"@@rete":12354,"Reserv":12355,"Regional":12356,"@@iant":12357,"Zeichen":12358,"@@bung":12359,"inn":12360,"finanziellen":12361,"Fakt":12362,"@@itory":12363,"dram":12364,"voraus":12365,"@@schlagen":12366,"bilden":12367,"Nahr":12368,"dan":12369,"east":12370,"Glück":12371,"Osten":12372,"charm":12373,"Airport":12374,"@@äne":12375,"@@aries":12376,"@@üge":12377,"Freiz":12378,"votes":12379,"player":12380,"Ident":12381,"@@orea":12382,"mill":12383,"running":12384,"bestehenden":12385,"fine":12386,"@@bewert":12387,"says":12388,"Tor":12389,"Rand":12390,"syn":12391,"@@lern":12392,"CO2":12393,"began":12394,"discrimination":12395,"rural":12396,"@@icket":12397,"NI":12398,"@@sam":12399,"Mio":12400,"Inc":12401,"worked":12402,"prüfen":12403,"@@zieht":12404,"@@pak":12405,"regret":12406,"möglicherweise":12407,"Technologien":12408,"Dollar":12409,"lands":12410,"comment":12411,"discussions":12412,"hing":12413,"Fonds":12414,"@@änden":12415,"Frankf":12416,"@@anda":12417,"festgelegt":12418,"Beschäftigungs":12419,"@@zeichen":12420,"kaum":12421,"umgesetzt":12422,"freund":12423,"04":12424,"Paket":12425,"precisely":12426,"elektron":12427,"guidelines":12428,"unterschiedlichen":12429,"Standards":12430,"deutschen":12431,"Garten":12432,"competen":12433,"@@In":12434,"Schließlich":12435,"cell":12436,"wahrscheinlich":12437,"@@reiber":12438,"traffic":12439,"Verwaltungs":12440,"sitting":12441,"@@enhagen":12442,"session":12443,"@@vollen":12444,"@@sektor":12445,"Mün":12446,"@@ius":12447,"India":12448,"families":12449,"Sü":12450,"Archite":12451,"territor":12452,"Schla":12453,"Policy":12454,"Hintergrund":12455,"assessment":12456,"She":12457,"ec":12458,"@@äher":12459,"1990":12460,"ursprün":12461,"@@aser":12462,"chann":12463,"hoffen":12464,"quant":12465,"@@abr":12466,"facilit":12467,"Haft":12468,"98":12469,"Sam":12470,"oben":12471,"@@mission":12472,"Anspruch":12473,"kontroll":12474,"@@bin":12475,"entstehen":12476,"1995":12477,"@@cers":12478,"entsprechende":12479,"@@ION":12480,"@@lymp":12481,"immigration":12482,"arrang":12483,"motion":12484,"automatically":12485,"Produkten":12486,"hour":12487,"Ann":12488,"Konz":12489,"manner":12490,"@@iums":12491,"@@ibilität":12492,"@@ielt":12493,"represents":12494,"notwendigen":12495,"@@back":12496,"@@ora":12497,"@@gere":12498,"@@erungen":12499,"appoint":12500,"Control":12501,"placed":12502,"developments":12503,"protected":12504,"God":12505,"Kenntnis":12506,"Chance":12507,"Funktionen":12508,"yourself":12509,"convin":12510,"@@brit":12511,"enterprises":12512,"@@odies":12513,"Liber":12514,"mindestens":12515,"@@gers":12516,"@@quem":12517,"arm":12518,"Autom":12519,"Industr":12520,"Qualitäts":12521,"jene":12522,"@@eitet":12523,"nachdem":12524,"Grundsatz":12525,"Cze":12526,"@@aw":12527,"shopping":12528,"@@tritt":12529,"fish":12530,"geändert":12531,"@@itzt":12532,"measure":12533,"Lam":12534,"minute":12535,"@@tere":12536,"@@ording":12537,"@@rachtet":12538,"ed":12539,"Vorbereit":12540,"Kauf":12541,"autom":12542,"@@ruit":12543,"Zunächst":12544,"@@verläss":12545,"@@used":12546,"nöt":12547,"@@look":12548,"Elekt":12549,"beziehen":12550,"@@ulieren":12551,"jeg":12552,"@@ureau":12553,"aktuelle":12554,"@@nel":12555,"wants":12556,"angeboten":12557,"medic":12558,"improving":12559,"@@haften":12560,"angegeben":12561,"stated":12562,"Amb":12563,"speaking":12564,"@@standing":12565,"@@nde":12566,"box":12567,"@@to":12568,"client":12569,"@@uly":12570,"Schaden":12571,"@@ikations":12572,"freien":12573,"Mer":12574,"lösen":12575,"Card":12576,"@@arz":12577,"Turk":12578,"fisheries":12579,"referred":12580,"Cy":12581,"zuletzt":12582,"dead":12583,"Asia":12584,"Boden":12585,"Slov":12586,"@@ulierung":12587,"Liz":12588,"Zwischen":12589,"IC":12590,"umfang":12591,"forget":12592,"Wachstums":12593,"Belarus":12594,"@@lichten":12595,"@@ampag":12596,"@@unkten":12597,"menu":12598,"@@attle":12599,"@@wes":12600,"@@pool":12601,"powerful":12602,"Sprachen":12603,"AN":12604,"@@aters":12605,"Aufnahme":12606,"@@ologischen":12607,"police":12608,"Licht":12609,"übernachten":12610,"bir":12611,"Status":12612,"introduced":12613,"competitiveness":12614,"income":12615,"@@hood":12616,"@@rahmen":12617,"@@pack":12618,"Sing":12619,"Winter":12620,"@@elte":12621,"wert":12622,"closely":12623,"explo":12624,"@@IF":12625,"genannt":12626,"installation":12627,"@@cell":12628,"Vereinten":12629,"@@ehens":12630,"animals":12631,"Banken":12632,"John":12633,"detailed":12634,"Innovation":12635,"Mitgliedstaat":12636,"ult":12637,"Middle":12638,"schwierig":12639,"print":12640,"@@träge":12641,"mehreren":12642,"Inhalte":12643,"belieb":12644,"Klimawand":12645,"einzu":12646,"@@raw":12647,"Mensch":12648,"Costa":12649,"Bush":12650,"Economic":12651,"electronic":12652,"Forderung":12653,"erfüllt":12654,"bathroom":12655,"Netzwerk":12656,"Ky":12657,"likely":12658,"@@see":12659,"@@ichtlich":12660,"@@ids":12661,"introduction":12662,"swimming":12663,"cities":12664,"Initiativen":12665,"relate":12666,"195":12667,"supporting":12668,"@@des":12669,"Greece":12670,"managed":12671,"herunter":12672,"tourist":12673,"coordination":12674,"mittel":12675,"speech":12676,"visitors":12677,"Besonder":12678,"@@inent":12679,"evening":12680,"empfeh":12681,"@@gelegten":12682,"Dig":12683,"black":12684,"@@artigen":12685,"@@ensions":12686,"@@äden":12687,"vermeiden":12688,"award":12689,"exactly":12690,"@@benen":12691,"touch":12692,"bege":12693,"Plen":12694,"becoming":12695,"les":12696,"betonen":12697,"erzielen":12698,"suitable":12699,"Milit":12700,"@@iell":12701,"amerikanischen":12702,"@@ständen":12703,"siehe":12704,"verfügbar":12705,"remark":12706,"stimme":12707,"spect":12708,"besonderen":12709,"Abschließend":12710,"purposes":12711,"Czech":12712,"verbessert":12713,"hund":12714,"thousands":12715,"htt":12716,"weap":12717,"presidency":12718,"Pack":12719,"EL":12720,"Lib":12721,"Dienste":12722,"belong":12723,"@@umm":12724,"Why":12725,"Its":12726,"gering":12727,"Any":12728,"Kommunikation":12729,"Kind":12730,"Tool":12731,"Instrumente":12732,"@@stimm":12733,"gleiche":12734,"ausreich":12735,"alloc":12736,"sicherlich":12737,"@@ded":12738,"@@gelt":12739,"@@ehalten":12740,"@@atik":12741,"fallen":12742,"@@onym":12743,"stärk":12744,"@@preis":12745,"@@schnitt":12746,"tack":12747,"@@uropa":12748,"Regelung":12749,"Zweck":12750,"@@roh":12751,"networks":12752,"Power":12753,"Prote":12754,"Berichte":12755,"@@rägen":12756,"@@nes":12757,"duty":12758,"@@law":12759,"entry":12760,"@@pft":12761,"verz":12762,"@@gebiet":12763,"decor":12764,"otherwise":12765,"@@kap":12766,"benutzen":12767,"Abgeordnete":12768,"substantial":12769,"Fot":12770,"platform":12771,"@@vision":12772,"@@ferences":12773,"@@aktiv":12774,"paragraph":12775,"Bruss":12776,"@@idents":12777,"functions":12778,"listed":12779,"@@etze":12780,"Bereit":12781,"compar":12782,"@@udem":12783,"@@ktiven":12784,"anderes":12785,"abzu":12786,"ade":12787,"Stimme":12788,"covered":12789,"@@antast":12790,"@@ita":12791,"2011":12792,"verur":12793,"@@freiheit":12794,"Arten":12795,"unters":12796,"gründ":12797,"Ausbildung":12798,"moderne":12799,"@@idential":12800,"street":12801,"@@aming":12802,"club":12803,"considerable":12804,"Währung":12805,"@@räft":12806,"dienen":12807,"@@DP":12808,"erhöhen":12809,"@@haben":12810,"@@werten":12811,"@@wirk":12812,"@@allel":12813,"scr":12814,"stattfinden":12815,"@@isierten":12816,"financing":12817,"summit":12818,"Ratsvors":12819,"angen":12820,"@@enty":12821,"Brussels":12822,"@@öm":12823,"resist":12824,"Fort":12825,"@@lude":12826,"compens":12827,"Sea":12828,"wünschen":12829,"earlier":12830,"feature":12831,"compos":12832,"@@ault":12833,"@@ories":12834,"Sand":12835,"linked":12836,"difficulties":12837,"Entwurf":12838,"refuge":12839,"Zudem":12840,"@@immern":12841,"@@TA":12842,"domin":12843,"75":12844,"@@britann":12845,"@@ads":12846,"Pakistan":12847,"mic":12848,"@@amber":12849,"wären":12850,"absch":12851,"Us":12852,"@@tes":12853,"@@gemeine":12854,"frag":12855,"wood":12856,"Jed":12857,"@@kts":12858,"Olymp":12859,"Mittelmeer":12860,"@@ores":12861,"combat":12862,"Vielfalt":12863,"@@gewöhn":12864,"properly":12865,"tit":12866,"rechts":12867,"serve":12868,"Anwendungen":12869,"kommenden":12870,"extensive":12871,"@@ela":12872,"Einrichtungen":12873,"collection":12874,"Fore":12875,"Beitritt":12876,"hochwert":12877,"widers":12878,"fresh":12879,"moral":12880,"48":12881,"@@lim":12882,"@@hrase":12883,"Installation":12884,"recognis":12885,"criminal":12886,"@@woh":12887,"Angriff":12888,"Rooms":12889,"repla":12890,"kitchen":12891,"@@vements":12892,"@@aschine":12893,"@@mär":12894,"Spr":12895,"@@gencies":12896,"Sinn":12897,"@@legt":12898,"Wege":12899,"delivery":12900,"ries":12901,"fert":12902,"Suche":12903,"@@portion":12904,"Monate":12905,"unc":12906,"understanding":12907,"Never":12908,"SP":12909,"animal":12910,"phone":12911,"@@zieren":12912,"@@SP":12913,"GN":12914,"geeignet":12915,"cyc":12916,"gefordert":12917,"@@board":12918,"@@RA":12919,"lesen":12920,"Then":12921,"Rh":12922,"@@rum":12923,"@@maß":12924,"According":12925,"konkrete":12926,"technische":12927,"@@inc":12928,"Mechan":12929,"Board":12930,"stärken":12931,"darstellen":12932,"dealing":12933,"Vide":12934,"@@union":12935,"braucht":12936,"Körper":12937,"pain":12938,"gekommen":12939,"Research":12940,"Moment":12941,"Holz":12942,"mm":12943,"@@aken":12944,"@@plant":12945,"white":12946,"ausgew":12947,"parliamentary":12948,"@@book":12949,"spread":12950,"submitted":12951,"getting":12952,"freue":12953,"@@fiz":12954,"@@une":12955,"Frem":12956,"@@gl":12957,"chines":12958,"brow":12959,"ausger":12960,"@@itzerland":12961,"http":12962,"@@nden":12963,"@@ingu":12964,"love":12965,"Großbritann":12966,"@@mitglie":12967,"verring":12968,"darunter":12969,"actual":12970,"Assoc":12971,"@@amin":12972,"presen":12973,"Kindern":12974,"chr":12975,"Prioritäten":12976,"February":12977,"expand":12978,"@@icts":12979,"Straße":12980,"@@zeigen":12981,"Guest":12982,"Büro":12983,"Bay":12984,"Dre":12985,"zweif":12986,"authority":12987,"@@vis":12988,"länger":12989,"@@örde":12990,"Veränderungen":12991,"Unabhäng":12992,"defined":12993,"delay":12994,"students":12995,"fragen":12996,"Pla":12997,"Asyl":12998,"komfort":12999,"opposition":13000,"@@bruch":13001,"@@verkehrs":13002,"@@irely":13003,"facing":13004,"Stil":13005,"thinking":13006,"@@ING":13007,"@@ta":13008,"@@either":13009,"gelangen":13010,"Gebieten":13011,"@@issionen":13012,"abgel":13013,"EAD":13014,"hinzuf":13015,"mobil":13016,"Klein":13017,"Bade":13018,"season":13019,"operations":13020,"Zeitraum":13021,"sagt":13022,"@@entlich":13023,"constit":13024,"Einigung":13025,"corresp":13026,"Analyse":13027,"euch":13028,"Grenz":13029,"susp":13030,"PT":13031,"@@wie":13032,"followed":13033,"@@führer":13034,"@@letter":13035,"finanzielle":13036,"@@zy":13037,"expected":13038,"@@werke":13039,"promoting":13040,"Stellungnahme":13041,"Achtung":13042,"freuen":13043,"Dol":13044,"Switzerland":13045,"fäl":13046,"klare":13047,"@@ago":13048,"eingel":13049,"cele":13050,"@@istence":13051,"beant":13052,"entirely":13053,"@@möglich":13054,"humanitarian":13055,"@@hnung":13056,"ausdrücklich":13057,"presence":13058,"hands":13059,"@@vo":13060,"@@parte":13061,"medical":13062,"plus":13063,"mix":13064,"@@icks":13065,"@@atoren":13066,"elimin":13067,"terrace":13068,"@@ras":13069,"@@schreit":13070,"save":13071,"sized":13072,"Katastrop":13073,"Verständ":13074,"Flücht":13075,"Found":13076,"@@leisch":13077,"Programms":13078,"angezeigt":13079,"gewährleist":13080,"anc":13081,"willing":13082,"Lesung":13083,"Anteil":13084,"ständig":13085,"erstellt":13086,"@@seh":13087,"photo":13088,"strict":13089,"füh":13090,"russ":13091,"marketing":13092,"radio":13093,"unternehmen":13094,"electric":13095,"Harmon":13096,"consideration":13097,"@@gewicht":13098,"minister":13099,"@@esterday":13100,"Paul":13101,"Königreich":13102,"centr":13103,"map":13104,"Non":13105,"auth":13106,"propose":13107,"ergän":13108,"programs":13109,"Gemeinsamen":13110,"cos":13111,"Effe":13112,"Hy":13113,"@@erstör":13114,"@@anlagen":13115,"Unfortunately":13116,"entweder":13117,"Wirk":13118,"ISO":13119,"degree":13120,"33":13121,"defence":13122,"experts":13123,"Other":13124,"Wald":13125,"anb":13126,"Sekt":13127,"camera":13128,"Check":13129,"@@preise":13130,"dedic":13131,"komplex":13132,"watch":13133,"Völker":13134,"Charakter":13135,"funktioniert":13136,"@@asks":13137,"cred":13138,"Brüssel":13139,"suc":13140,"organisation":13141,"paper":13142,"Jetzt":13143,"@@IE":13144,"mid":13145,"Absatz":13146,"incor":13147,"@@opol":13148,"Each":13149,"@@atively":13150,"erreich":13151,"iP":13152,"Most":13153,"Anges":13154,"konzentrieren":13155,"clar":13156,"@@bus":13157,"condem":13158,"spend":13159,"@@konferenz":13160,"34":13161,"Environment":13162,"applies":13163,"@@lad":13164,"@@ickets":13165,"flexibility":13166,"@@overy":13167,"erklären":13168,"durchaus":13169,"bear":13170,"gewährleistet":13171,"@@accept":13172,"spra":13173,"@@ikanische":13174,"sold":13175,"37":13176,"@@itors":13177,"Menge":13178,"selected":13179,"handeln":13180,"brief":13181,"adoption":13182,"Zweifel":13183,"NG":13184,"safegu":13185,"rob":13186,"@@isms":13187,"Health":13188,"nieder":13189,"@@MU":13190,"Woh":13191,"bodies":13192,"unaccept":13193,"seriously":13194,"beru":13195,"tourism":13196,"implementing":13197,"@@chmal":13198,"Worte":13199,"Besucher":13200,"Bec":13201,"Einhaltung":13202,"@@cknow":13203,"@@inu":13204,"@@schrift":13205,"aims":13206,"Leistungen":13207,"@@kunfts":13208,"Kenn":13209,"PHP":13210,"zul":13211,"permanent":13212,"Band":13213,"dagegen":13214,"Private":13215,"Stärkung":13216,"gegenseit":13217,"gewün":13218,"wollte":13219,"schem":13220,"Umwel":13221,"practices":13222,"@@ounge":13223,"@@daten":13224,"legen":13225,"entscheid":13226,"@@stände":13227,"Forderungen":13228,"domestic":13229,"Gas":13230,"@@EA":13231,"@@leistungs":13232,"Herausforderung":13233,"withd":13234,"Arbeiten":13235,"Poland":13236,"informed":13237,"ve":13238,"@@gehör":13239,"succeed":13240,"Over":13241,"Wellness":13242,"Leistungs":13243,"geleistet":13244,"rom":13245,"aspect":13246,"speziell":13247,"Nahrungs":13248,"08":13249,"Firstly":13250,"promotion":13251,"acknow":13252,"09":13253,"His":13254,"Apartments":13255,"Rein":13256,"Warum":13257,"gegründ":13258,"@@umän":13259,"@@ellte":13260,"@@ala":13261,"usually":13262,"Sow":13263,"@@bericht":13264,"mil":13265,"@@ado":13266,"@@ickt":13267,"@@fachen":13268,"Kompon":13269,"establishment":13270,"Teile":13271,"stable":13272,"entit":13273,"@@worten":13274,"Entschließungsantrag":13275,"reducing":13276,"monetary":13277,"imposs":13278,"graph":13279,"öff":13280,"Enterprise":13281,"@@wasser":13282,"@@urb":13283,"multi":13284,"06":13285,"diskutieren":13286,"exclusive":13287,"color":13288,"@@ength":13289,"Frankfurt":13290,"verfolgen":13291,"@@aria":13292,"@@eget":13293,"accomp":13294,"Kritik":13295,"Webseite":13296,"....":13297,"jederzeit":13298,"failure":13299,"38":13300,"@@itter":13301,"Kol":13302,"gram":13303,"myself":13304,"Arbeitslosigkeit":13305,"Vielen":13306,"lokalen":13307,"Immobilien":13308,"OS":13309,"@@iertel":13310,"@@iede":13311,"verloren":13312,"Afrika":13313,"Argument":13314,"superv":13315,"played":13316,"@@ünen":13317,"Proz":13318,"@@okraten":13319,"Hauses":13320,"99":13321,"abge":13322,"zentral":13323,"fixed":13324,"informieren":13325,"cooper":13326,"Barroso":13327,"@@schech":13328,"dangerous":13329,"Sorge":13330,"eingesch":13331,"@@iscal":13332,"@@IG":13333,"uses":13334,"EADS":13335,"leist":13336,"acqu":13337,"components":13338,"@@auern":13339,"Sec":13340,"meetings":13341,"Europeans":13342,"breit":13343,"Salz":13344,"volle":13345,"AK":13346,"welcher":13347,"destro":13348,"@@erei":13349,"@@ewiesen":13350,"@@führten":13351,"erfolgen":13352,"bezeichnet":13353,"Bran":13354,"@@ertain":13355,"Ern":13356,"Justice":13357,"feststellen":13358,"@@prinzip":13359,"luxur":13360,"unacceptable":13361,"97":13362,"Aspekt":13363,"@@zeugung":13364,"opened":13365,"average":13366,"politics":13367,"Ratsvorsitz":13368,"@@iano":13369,"Gewähr":13370,"Dennoch":13371,"vehicles":13372,"05":13373,"@@leitung":13374,"signed":13375,"Februar":13376,"07":13377,"metres":13378,"behav":13379,"@@strateg":13380,"@@äg":13381,"teilweise":13382,"abgeschlossen":13383,"Zeiten":13384,"statements":13385,"Diskrimin":13386,"walking":13387,"Roman":13388,"unto":13389,"hot":13390,"Leider":13391,"Eisen":13392,"@@imb":13393,"Schön":13394,"Forum":13395,"founded":13396,"producers":13397,"@@set":13398,"dimension":13399,"@@mack":13400,"Zuständ":13401,"differences":13402,"ging":13403,"@@dere":13404,"sorg":13405,"betrachtet":13406,"peaceful":13407,"hingewiesen":13408,"@@enteil":13409,"Rechnungs":13410,"Bib":13411,"@@embly":13412,"Because":13413,"@@ses":13414,"Justiz":13415,"positions":13416,"Aufbau":13417,"happened":13418,"@@bek":13419,"@@äuser":13420,"Konflik":13421,"Allgemein":13422,"Maschinen":13423,"erforderlichen":13424,"concrete":13425,"temper":13426,"@@arta":13427,"einzus":13428,"Kal":13429,"contem":13430,"format":13431,"Defin":13432,"Lehr":13433,"eingerichtet":13434,"psych":13435,"trägt":13436,"liebe":13437,"recognition":13438,"Van":13439,"bott":13440,"helpf":13441,"Mir":13442,"denken":13443,"Motor":13444,"natur":13445,"Trade":13446,"endgült":13447,"@@icians":13448,"@@club":13449,"Überwachung":13450,"alte":13451,"trag":13452,"nächste":13453,"Texte":13454,"Atlant":13455,"Partnerschaft":13456,"süd":13457,"@@licherweise":13458,"Ban":13459,"geograph":13460,"Irish":13461,"lernen":13462,"playing":13463,"@@oul":13464,"Prag":13465,"@@ifiziert":13466,"Umfang":13467,"bequem":13468,"@@denken":13469,"@@ifik":13470,"vere":13471,"percent":13472,"signal":13473,"@@nam":13474,"positiv":13475,"@@mel":13476,"Zugriff":13477,"Madrid":13478,"Az":13479,"zahlen":13480,"@@pon":13481,"@@ehol":13482,"jur":13483,"ship":13484,"church":13485,"easier":13486,"nennen":13487,"@@cting":13488,"hält":13489,"genuine":13490,"@@po":13491,"unterstütze":13492,"calc":13493,"@@itious":13494,"economies":13495,"telephone":13496,"expend":13497,"2013":13498,"vernünft":13499,"Rec":13500,"purchase":13501,"hop":13502,"jeweils":13503,"wonderful":13504,"@@ugos":13505,"Mitte":13506,"möglichst":13507,"Angaben":13508,"Formen":13509,"Kingdom":13510,"@@künd":13511,"plants":13512,"CH":13513,"Geist":13514,"@@itze":13515,"buildings":13516,"inside":13517,"estate":13518,"Konflikt":13519,"@@inding":13520,"unabhängig":13521,"Jahrz":13522,"Note":13523,"@@II":13524,"@@yright":13525,"@@bewertungen":13526,"coff":13527,"Heil":13528,"benötigt":13529,"@@schung":13530,"@@wurf":13531,"gradu":13532,"calling":13533,"niemand":13534,"agencies":13535,"indire":13536,"@@iente":13537,"kostenlos":13538,"numbers":13539,"@@azz":13540,"dauer":13541,"database":13542,"excess":13543,"ober":13544,"@@vey":13545,"asyl":13546,"dro":13547,"vac":13548,"unfortunately":13549,"Irland":13550,"burden":13551,"erleich":13552,"served":13553,"structures":13554,"Meter":13555,"@@ensus":13556,"erscheint":13557,"@@üher":13558,"@@auftrag":13559,"effektiv":13560,"Wicht":13561,"@@ibet":13562,"@@ameter":13563,"items":13564,"grenz":13565,"@@ael":13566,"Station":13567,"dennoch":13568,"Meiner":13569,"rac":13570,"@@reise":13571,"generally":13572,"gave":13573,"Entwicklungen":13574,"@@ih":13575,"erstellen":13576,"imag":13577,"larger":13578,"ahead":13579,"@@gebaut":13580,"Komfort":13581,"Europäer":13582,"@@jekte":13583,"Drogen":13584,"Großbritannien":13585,"Cre":13586,"@@lying":13587,"asylum":13588,"@@regel":13589,"scen":13590,"neighbour":13591,"höher":13592,"veröffentlicht":13593,"guarantees":13594,"überprüfen":13595,"conce":13596,"@@qualität":13597,"@@uisine":13598,"photograph":13599,"@@bü":13600,"impress":13601,"übertragen":13602,"wirks":13603,"einiger":13604,"vul":13605,"@@IB":13606,"@@ranken":13607,"wenigen":13608,"persönlich":13609,"Angesichts":13610,"Problemen":13611,"becomes":13612,"@@bas":13613,"Herstellung":13614,"Beste":13615,"@@utin":13616,"@@coming":13617,"@@uba":13618,"membership":13619,"@@gestimmt":13620,"immediate":13621,"Risiko":13622,"@@plätzen":13623,"Verpflichtung":13624,"@@instrument":13625,"@@ield":13626,"Priorität":13627,"@@umin":13628,"improvement":13629,"consumption":13630,"@@iat":13631,"ST":13632,"Sach":13633,"Great":13634,"@@ova":13635,"generation":13636,"expens":13637,"trading":13638,"patent":13639,"@@versorgung":13640,"gegenwärtig":13641,"Gerichtshof":13642,"Once":13643,"wundersch":13644,"Bewertung":13645,"Regulation":13646,"Name":13647,"erleben":13648,"establishing":13649,"einsetzen":13650,"politischer":13651,"Patienten":13652,"cas":13653,"@@edly":13654,"@@aves":13655,"Polen":13656,"carefully":13657,"unterschiedliche":13658,"impossible":13659,"unf":13660,"@@äumen":13661,"Fortschritt":13662,"zuvor":13663,"@@house":13664,"voice":13665,"geschehen":13666,"begrenz":13667,"manage":13668,"introduce":13669,"besuchen":13670,"African":13671,"appears":13672,"Appart":13673,"Hard":13674,"@@bit":13675,"regionalen":13676,"@@raucher":13677,"Griechenland":13678,"Prime":13679,"fahren":13680,"evidence":13681,"Ideen":13682,"picture":13683,"@@isierte":13684,"Polize":13685,"Regelungen":13686,"Globalisierung":13687,"@@IR":13688,"mist":13689,"Casino":13690,"Rechnung":13691,"@@ev":13692,"kulturellen":13693,"hören":13694,"Hersteller":13695,"komplett":13696,"@@üst":13697,"Top":13698,"union":13699,"@@ellos":13700,"raise":13701,"@@andidaten":13702,"Weiter":13703,"Chancen":13704,"@@ißen":13705,"@@etic":13706,"transition":13707,"advanced":13708,"associated":13709,"@@arischen":13710,"konstru":13711,"except":13712,"Modern":13713,"trav":13714,"ung":13715,"@@programme":13716,"@@leihen":13717,"@@oring":13718,"instance":13719,"grenzüber":13720,"Fac":13721,"Fen":13722,"aufmerksam":13723,"Gästebewertungen":13724,"@@kontrol":13725,"@@leiten":13726,"@@organisation":13727,"vorliegenden":13728,"strongly":13729,"@@hop":13730,"3D":13731,"95":13732,"Black":13733,"Turkish":13734,"@@igem":13735,"acht":13736,"difference":13737,"Mitteln":13738,"@@ließt":13739,"klicken":13740,"@@illing":13741,"@@cast":13742,"profitieren":13743,"MP":13744,"@@eim":13745,"@@uche":13746,"verlassen":13747,"@@heren":13748,"conclusions":13749,"@@ida":13750,"shared":13751,"kons":13752,"@@lement":13753,"unz":13754,"@@ouver":13755,"Gran":13756,"length":13757,"@@rt":13758,"@@üter":13759,"Inf":13760,"800":13761,"@@ürz":13762,"Kohäs":13763,"@@ode":13764,"richtigen":13765,"Kurz":13766,"Phil":13767,"anyone":13768,"helpful":13769,"@@ometer":13770,"eingeführt":13771,"desire":13772,"@@wachsen":13773,"Verletz":13774,"@@iques":13775,"gegenwärtigen":13776,"Click":13777,"Finn":13778,"Agentur":13779,"told":13780,"balanced":13781,"Verlust":13782,"tut":13783,"@@weist":13784,"isol":13785,"pleasant":13786,"@@mögen":13787,"Verk":13788,"@@umn":13789,"Support":13790,"Mö":13791,"@@ress":13792,"engl":13793,"verfolgt":13794,"Anw":13795,"Wien":13796,"Erhö":13797,"600":13798,"erf":13799,"election":13800,"@@systeme":13801,"Option":13802,"Vorsitzen":13803,"fiscal":13804,"@@asen":13805,"Worten":13806,"Elemente":13807,"PDF":13808,"@@appe":13809,"Beteiligung":13810,"truly":13811,"Palestinian":13812,"PPE":13813,"Erklärungen":13814,"Titel":13815,"ausreichend":13816,"spielt":13817,"@@pannen":13818,"ök":13819,"ID":13820,"legitim":13821,"@@Script":13822,"1994":13823,"weiterer":13824,"@@ologische":13825,"96":13826,"closer":13827,"@@politischen":13828,"attach":13829,"@@ishes":13830,"Bedarf":13831,"urgent":13832,"offensichtlich":13833,"fle":13834,"wishes":13835,"@@öder":13836,"tasks":13837,"miteinander":13838,"A5":13839,"rightly":13840,"machines":13841,"compla":13842,"@@pa":13843,"beds":13844,"verbundenen":13845,"territory":13846,"door":13847,"Maße":13848,"@@etragen":13849,"Main":13850,"@@steht":13851,"commitments":13852,"@@uts":13853,"winter":13854,"rent":13855,"Vill":13856,"continues":13857,"Links":13858,"packages":13859,"Märkte":13860,"collabor":13861,"äl":13862,"participate":13863,"Schlaf":13864,"HT":13865,"Break":13866,"Work":13867,"perspective":13868,"experienced":13869,"figures":13870,"religious":13871,"@@uit":13872,"Geschäftsordnung":13873,"Jahrhunderts":13874,"condemn":13875,"@@istisch":13876,"Origin":13877,"finance":13878,"@@fun":13879,"umfasst":13880,"@@iler":13881,".-":13882,"react":13883,"availability":13884,"Technik":13885,"convinced":13886,"Wall":13887,"beglück":13888,"verabschied":13889,"@@uting":13890,"Bedürfnisse":13891,"@@bad":13892,"typical":13893,"@@heits":13894,"Indien":13895,"@@icking":13896,"Wass":13897,"Av":13898,"fantast":13899,"@@schul":13900,"accur":13901,"intervention":13902,"@@ooth":13903,"organiz":13904,"Vir":13905,"spending":13906,"@@führungen":13907,"tätig":13908,"Strom":13909,"@@ategory":13910,"cuisine":13911,"@@räume":13912,"urban":13913,"Drit":13914,"sensitive":13915,"@@bum":13916,"connected":13917,"models":13918,"Komple":13919,"Kopf":13920,"translation":13921,"honourable":13922,"Beihilfen":13923,"digit":13924,"letzt":13925,"beglückwün":13926,"forest":13927,"@@meld":13928,"@@ema":13929,"geschützt":13930,"Foreign":13931,"Anlagen":13932,"enormous":13933,"@@lösung":13934,"Due":13935,"enfor":13936,"Rezept":13937,"bestätigt":13938,"@@olden":13939,"Sehens":13940,"@@ücke":13941,"beteiligt":13942,"trip":13943,"@@äck":13944,"definition":13945,"ep":13946,"harm":13947,"gemüt":13948,"Gleichzeitig":13949,"ECU":13950,"hosp":13951,"@@brauch":13952,"resort":13953,"@@verstanden":13954,"Pfl":13955,"@@ilst":13956,"unless":13957,"@@erma":13958,"spent":13959,"Admin":13960,"Wiederauf":13961,"Nevertheless":13962,"greatest":13963,"Constitution":13964,"charged":13965,"Association":13966,"went":13967,"wom":13968,"@@erte":13969,"@@edia":13970,"studies":13971,"reasonable":13972,"@@etter":13973,"@@reu":13974,"appeal":13975,"sämtliche":13976,"@@acts":13977,"wesentlichen":13978,"exercise":13979,"@@schläge":13980,"@@band":13981,"ergeben":13982,"Act":13983,"Heimat":13984,"Todes":13985,"@@ashion":13986,"background":13987,"prä":13988,"garantiert":13989,"Media":13990,"announced":13991,"Mitglieds":13992,"instru":13993,"@@gypt":13994,"ausgewogen":13995,"@@asil":13996,"gewinnen":13997,"USB":13998,"vollkommen":13999,"@@sequent":14000,"Aktionen":14001,"fern":14002,"Verhältnis":14003,"delight":14004,"article":14005,"Lizenz":14006,"Stein":14007,"candidate":14008,"französischen":14009,"Democrats":14010,"equality":14011,"spl":14012,"spacious":14013,"@@vorschlag":14014,"allowing":14015,"Vielzahl":14016,"umfassende":14017,"elected":14018,"Urs":14019,"Nether":14020,"Tourismus":14021,"drawn":14022,"klass":14023,"internationaler":14024,"described":14025,"diplomat":14026,"kost":14027,"@@schiede":14028,"stim":14029,"outcome":14030,"@@haltet":14031,"Gründe":14032,"@@erer":14033,"arbeitet":14034,"Terrasse":14035,"Saint":14036,"Beschluss":14037,"ambitious":14038,"@@stands":14039,"@@läuf":14040,"learning":14041,"Kurs":14042,"solcher":14043,"defend":14044,"achieving":14045,"absolute":14046,"Third":14047,"dispos":14048,"@@tenance":14049,"leader":14050,"@@LE":14051,"gestalten":14052,"contrary":14053,"defic":14054,"names":14055,"insurance":14056,"org":14057,"@@igrants":14058,"@@iche":14059,"Roy":14060,"größeren":14061,"Vien":14062,"forth":14063,"@@endum":14064,"täglich":14065,"Gent":14066,"vert":14067,"Verz":14068,"@@aill":14069,"pet":14070,"@@uber":14071,"@@aktionen":14072,"@@handels":14073,"Empfehlungen":14074,"aufzu":14075,"@@ungsk":14076,"keinerlei":14077,"Kil":14078,"sand":14079,"controls":14080,"enor":14081,"@@isierungs":14082,"possibilities":14083,"Leistung":14084,"äuß":14085,"owners":14086,"Street":14087,"combination":14088,"@@qual":14089,"Alban":14090,"@@irms":14091,"Fraktionen":14092,"Quest":14093,"unge":14094,"@@ennis":14095,"@@onia":14096,"colour":14097,"@@schrän":14098,"failed":14099,"colleague":14100,"@@enkt":14101,"@@bere":14102,"liber":14103,"@@ading":14104,"@@ändern":14105,"command":14106,"@@zwischen":14107,"@@management":14108,"@@ürk":14109,"vorliegen":14110,"ausges":14111,"Schn":14112,"weapons":14113,"sides":14114,"@@haber":14115,"Zoll":14116,"Alex":14117,"@@bef":14118,"chair":14119,"Sur":14120,"freie":14121,"Treffen":14122,"@@iode":14123,"Mindest":14124,"@@grad":14125,"42":14126,"@@reens":14127,"Grundrechte":14128,"39":14129,"Santa":14130,"Unabhängigkeit":14131,"160":14132,"Eastern":14133,"bound":14134,"obviously":14135,"Wür":14136,"vision":14137,"yesterday":14138,"Nutzer":14139,"expenditure":14140,"überall":14141,"Digital":14142,"@@olge":14143,"Gebiete":14144,"Eindruck":14145,"Dimension":14146,"configur":14147,"spezielle":14148,"@@AG":14149,"folgende":14150,"Kirche":14151,"continued":14152,"@@äuft":14153,"Hafen":14154,"@@EO":14155,"Roh":14156,"himself":14157,"@@fallen":14158,"earth":14159,"obligations":14160,"@@yer":14161,"Vermitt":14162,"@@erne":14163,"@@body":14164,"satell":14165,"@@ibrary":14166,"Klar":14167,"advance":14168,"district":14169,"prison":14170,"betrachten":14171,"haupts":14172,"Seg":14173,"cards":14174,"formal":14175,"anz":14176,"@@version":14177,"Wün":14178,"müs":14179,"individuals":14180,"@@rüst":14181,"count":14182,"Fel":14183,"expression":14184,"Sound":14185,"disease":14186,"advertising":14187,"Gaz":14188,"fraud":14189,"Grunde":14190,"Som":14191,"@@klang":14192,"Yet":14193,"Militär":14194,"üb":14195,"@@atever":14196,"@@äfen":14197,"quar":14198,"vorgeschlagenen":14199,"Brow":14200,"Mik":14201,"@@mus":14202,"@@iking":14203,"intelle":14204,"compat":14205,"kil":14206,"totally":14207,"shower":14208,"höchst":14209,"Dut":14210,"MEP":14211,"enables":14212,"@@ausschusses":14213,"Botschaft":14214,"Hoffnung":14215,"forced":14216,"ang":14217,"ausführ":14218,"born":14219,"@@leun":14220,"Foundation":14221,"geöffnet":14222,"einfache":14223,"organised":14224,"Flexibilität":14225,"@@oe":14226,"factors":14227,"Beschreibung":14228,"@@ventions":14229,"Ereignisse":14230,"granted":14231,"moving":14232,"jüngsten":14233,"norm":14234,"core":14235,"@@anim":14236,"reprodu":14237,"grunds":14238,"middle":14239,"Zahlen":14240,"roll":14241,"sale":14242,"unable":14243,"Os":14244,"behin":14245,"unternommen":14246,"Netherlands":14247,"@@reck":14248,"@@bieter":14249,"registered":14250,"großes":14251,"193":14252,"Mitgliedern":14253,"@@ua":14254,"@@aby":14255,"steigen":14256,"win":14257,"@@bald":14258,"Hinweis":14259,"Aktion":14260,"diss":14261,"@@ión":14262,"@@ückt":14263,"occasion":14264,"Syr":14265,"@@ismen":14266,"wirksam":14267,"warten":14268,"Künstler":14269,"Liberalisierung":14270,"Mount":14271,"@@nü":14272,"Realität":14273,"Summit":14274,"COM":14275,"booking":14276,"strengthening":14277,"entitled":14278,"@@olz":14279,"prevention":14280,"Verständnis":14281,"Rob":14282,"button":14283,"payments":14284,"SD":14285,"neither":14286,"devices":14287,"attractive":14288,"installed":14289,"exhibition":14290,"danach":14291,"Presse":14292,"garantieren":14293,"überein":14294,"compared":14295,"tief":14296,"Colle":14297,"Freund":14298,"Super":14299,"shop":14300,"governance":14301,"Where":14302,"intention":14303,"laid":14304,"Sonnen":14305,"Mel":14306,"reservation":14307,"@@wachst":14308,"Karten":14309,"Teilnehmer":14310,"@@hören":14311,"@@vereign":14312,"Sehenswürd":14313,"sovereign":14314,"Wi":14315,"woh":14316,"Bek":14317,"@@ehmer":14318,"@@ieben":14319,"schönen":14320,"Niveau":14321,"nationaler":14322,"@@äten":14323,"allgemeine":14324,"vorschlagen":14325,"teilnehmen":14326,"gegründet":14327,"55":14328,"Flor":14329,"combined":14330,"Risiken":14331,"einverstanden":14332,"erhöht":14333,"Poker":14334,"rasch":14335,"Universität":14336,"television":14337,"@@bett":14338,"situations":14339,"mission":14340,"completed":14341,"continuing":14342,"@@iend":14343,"Cypr":14344,"benach":14345,"Politiker":14346,"@@otion":14347,"festgestellt":14348,"sage":14349,"@@schätz":14350,"britischen":14351,"grammat":14352,"@@öse":14353,"ther":14354,"architecture":14355,"Fire":14356,"relativ":14357,"Phase":14358,"Bildungs":14359,"barr":14360,"Croat":14361,"Blog":14362,"Monat":14363,"Relig":14364,"beinhaltet":14365,"recommendations":14366,"nachhaltige":14367,"Live":14368,"Jeder":14369,"Slow":14370,"targets":14371,"@@rak":14372,"Breakfast":14373,"Ca":14374,"Ausgangs":14375,"reliable":14376,"starke":14377,"limits":14378,"independence":14379,"@@viel":14380,"@@peratur":14381,"Agency":14382,"@@CO":14383,"sle":14384,"@@chem":14385,"Ref":14386,"Fotos":14387,"@@lag":14388,"au":14389,"türk":14390,"conver":14391,"skills":14392,"Custom":14393,"betroffenen":14394,"investig":14395,"celebr":14396,"approxim":14397,"Front":14398,"Manager":14399,"außerord":14400,"merely":14401,"erfre":14402,"Methode":14403,"@@ura":14404,"@@lichem":14405,"ow":14406,"kontext":14407,"Hall":14408,"@@wan":14409,"@@afr":14410,"@@St":14411,"Latin":14412,"Tisch":14413,"@@ilot":14414,"Another":14415,"@@cco":14416,"daraus":14417,"korre":14418,"Gesetzgebung":14419,"@@windigkeit":14420,"Beob":14421,"@@karten":14422,"@@älfte":14423,"@@zig":14424,"Koordinierung":14425,"Werb":14426,"meant":14427,"früher":14428,"erneuer":14429,"Datenschutz":14430,"@@ähren":14431,"gelungen":14432,"@@posit":14433,"gemeinschaft":14434,"@@kom":14435,"@@ista":14436,"@@reitung":14437,"asking":14438,"convenient":14439,"Umweltsch":14440,"@@ifest":14441,"Format":14442,"Meeres":14443,"@@yt":14444,"arg":14445,"@@xts":14446,"@@--":14447,"Anlage":14448,"Beif":14449,"@@istik":14450,"pointed":14451,"gewiss":14452,"@@stattung":14453,"@@iest":14454,"Marketing":14455,"Datenbank":14456,"Distrib":14457,"Diskriminierung":14458,"Back":14459,"@@itage":14460,"conclude":14461,"mechanism":14462,"@@chnet":14463,"Greek":14464,"@@reitet":14465,"responsibilities":14466,"motiv":14467,"Gegenteil":14468,"@@elbe":14469,"@@erten":14470,"cars":14471,"Journal":14472,"extended":14473,"Gebrauch":14474,"Betriebs":14475,"passed":14476,"@@allery":14477,"Größe":14478,"Mat":14479,"@@prach":14480,"divid":14481,"unterst":14482,"informiert":14483,"@@attform":14484,"mittl":14485,"besitzt":14486,"@@sicherheit":14487,"@@ibel":14488,"Finan":14489,"geschieht":14490,"Ruhe":14491,"kept":14492,"@@alty":14493,"Erhöhung":14494,"@@fähig":14495,"Sä":14496,"shops":14497,"@@ktivität":14498,"Architektur":14499,"fruit":14500,"goals":14501,"sobald":14502,"@@spiel":14503,"coffee":14504,"@@krat":14505,"Deutsche":14506,"qualit":14507,"pred":14508,"@@tainment":14509,"secret":14510,"Prüfung":14511,"@@kan":14512,"Marken":14513,"memory":14514,"Day":14515,"Klicken":14516,"@@krieg":14517,"Studien":14518,"corporate":14519,"safeguard":14520,"@@ague":14521,"rig":14522,"Überprüfung":14523,"reception":14524,"demokratische":14525,"Dorf":14526,"houses":14527,"@@sence":14528,"44":14529,"@@richtlinie":14530,"Voraussetzungen":14531,"chemical":14532,"möglichen":14533,"consensus":14534,"erfordert":14535,"Gedanken":14536,"Schm":14537,"released":14538,"Ausfl":14539,"RO":14540,"stands":14541,"Akte":14542,"Win":14543,"abhäng":14544,"acceptable":14545,"Brand":14546,"Bern":14547,"po":14548,"Festival":14549,"Nav":14550,"communities":14551,"revolution":14552,"Gegensatz":14553,"appar":14554,"agency":14555,"speziellen":14556,"registr":14557,"seeking":14558,"weight":14559,"@@obility":14560,"courses":14561,"update":14562,"Erwart":14563,"vergleich":14564,"grand":14565,"Experten":14566,"Sehenswürdigkeiten":14567,"earn":14568,"@@sequently":14569,"storage":14570,"@@mittelt":14571,"grie":14572,"@@bring":14573,"@@box":14574,"Player":14575,"compliance":14576,"@@nach":14577,"claims":14578,"@@laufen":14579,"acts":14580,"putting":14581,"territorial":14582,"Mun":14583,"discussing":14584,"@@auso":14585,"Studio":14586,"glass":14587,"Nichtraucher":14588,"Cur":14589,"@@bürger":14590,"@@person":14591,"@@wissen":14592,"Thus":14593,"court":14594,"dir":14595,"@@iro":14596,"Obama":14597,"Effizienz":14598,"Ganz":14599,"notice":14600,"vulner":14601,"eröffnet":14602,"Rome":14603,"ancient":14604,"@@apers":14605,"toler":14606,"@@odurch":14607,"treten":14608,"@@ny":14609,"privile":14610,"Energy":14611,"Vorteil":14612,"contained":14613,"Bosn":14614,"@@abilities":14615,"binding":14616,"tried":14617,"einzigen":14618,"Arbeitsmarkt":14619,"Rumän":14620,"recovery":14621,"besseren":14622,"EP":14623,"@@apter":14624,"Ziff":14625,"AR":14626,"Lo":14627,"advice":14628,"sorgfält":14629,"biggest":14630,"192":14631,"beginnt":14632,"Know":14633,"Wirkung":14634,"delic":14635,"250":14636,"@@no":14637,"@@gesellschaften":14638,"maintenance":14639,"JavaScript":14640,"sogen":14641,"constantly":14642,"Prodi":14643,"bringing":14644,"Martin":14645,"prep":14646,"massive":14647,"Streit":14648,"chosen":14649,"@@mas":14650,"science":14651,"Romania":14652,"diskutiert":14653,"pill":14654,"@@etenz":14655,"zentrale":14656,"wodurch":14657,"Teilen":14658,"Prakt":14659,"gre":14660,"@@hebung":14661,"grenzüberschreit":14662,"A4":14663,"@@ikal":14664,"manchmal":14665,"Austrian":14666,"@@verse":14667,"Niederland":14668,"dedicated":14669,"@@asters":14670,"Special":14671,"Führung":14672,"hauptsächlich":14673,"@@zeß":14674,"@@ador":14675,"Wechsel":14676,"@@enntnisse":14677,"Tel":14678,"beaches":14679,"Fernseh":14680,"@@active":14681,"Pflicht":14682,"blog":14683,"@@eilt":14684,"changing":14685,"Städte":14686,"Repr":14687,"eg":14688,"interface":14689,"@@ée":14690,"corrupt":14691,"Delegation":14692,"Hamburg":14693,"Vienna":14694,"Seine":14695,"@@quar":14696,"wealth":14697,"Charter":14698,"Korea":14699,"consolid":14700,"England":14701,"addressed":14702,"perfectly":14703,"@@eshalb":14704,"angeht":14705,"THE":14706,"Bestandteil":14707,"globale":14708,"Those":14709,"respekt":14710,"Bis":14711,"@@iegel":14712,"@@orte":14713,"@@rochen":14714,"@@deck":14715,"@@holung":14716,"arrival":14717,"@@12":14718,"saw":14719,"@@iov":14720,"Minutes":14721,"Männer":14722,"@@TS":14723,"zusätzlich":14724,"@@issens":14725,"ländlichen":14726,"fuel":14727,"@@reibt":14728,"store":14729,"@@Innen":14730,"Strukturfonds":14731,"@@onial":14732,"@@liothe":14733,"proportion":14734,"Chamber":14735,"gehalten":14736,"Haut":14737,"@@iefer":14738,"ausländ":14739,"successfully":14740,"Klimawandel":14741,"reinfor":14742,"sauber":14743,"empfehlen":14744,"Data":14745,"@@km":14746,"betont":14747,"Willen":14748,"Alliance":14749,"thereby":14750,"@@ifications":14751,"@@üben":14752,"@@icherungs":14753,"hum":14754,"category":14755,"operate":14756,"sn":14757,"sicherstellen":14758,"gutes":14759,"Minderheiten":14760,"@@ohlen":14761,"guaranteed":14762,"teilen":14763,"@@organisationen":14764,"Fischer":14765,"langen":14766,"Internationalen":14767,"causes":14768,"Anpassung":14769,"@@SL":14770,"Fert":14771,"Muse":14772,"dynamic":14773,"@@80":14774,"Ul":14775,"song":14776,"@@ray":14777,"@@änderung":14778,"Teilnahme":14779,"Kyoto":14780,"verteid":14781,"seitens":14782,"attacks":14783,"factor":14784,"reagieren":14785,"ton":14786,"Bol":14787,"@@zwungen":14788,"withdraw":14789,"Kontroll":14790,"Bahnhof":14791,"@@ausende":14792,"convention":14793,"seven":14794,"Berücksicht":14795,"Michael":14796,"MyS":14797,"1992":14798,"Sweden":14799,"@@ris":14800,"@@uchten":14801,"@@jet":14802,"Zustand":14803,"surrounding":14804,"explain":14805,"@@otenzial":14806,"adequate":14807,"unit":14808,"Gut":14809,"Hist":14810,"na":14811,"definit":14812,"correspond":14813,"jungen":14814,"rot":14815,"@@folgerungen":14816,"disch":14817,"@@ränken":14818,"preserv":14819,"@@ermaßen":14820,"@@entscheid":14821,"diesbe":14822,"@@orient":14823,"surface":14824,"Lord":14825,"@@ünden":14826,"unanim":14827,"Fälle":14828,"@@ints":14829,"Jac":14830,"@@istenz":14831,"positiven":14832,"urge":14833,"übernommen":14834,"destroy":14835,"CS":14836,"Peter":14837,"schneller":14838,"mutual":14839,"truth":14840,"match":14841,"leb":14842,"nations":14843,"capable":14844,"Merk":14845,"@@hotel":14846,"spricht":14847,"Reaktion":14848,"Einklang":14849,"talks":14850,"bureau":14851,"@@ungsverfahren":14852,"device":14853,"Welche":14854,"lauf":14855,"someone":14856,"Federal":14857,"@@ammer":14858,"window":14859,"@@atlant":14860,"Methoden":14861,"story":14862,"Instit":14863,"Financial":14864,"@@rich":14865,"dient":14866,"Formular":14867,"taste":14868,"glad":14869,"finde":14870,"Stad":14871,"@@orgnis":14872,"andererseits":14873,"Ebenso":14874,"@@uppen":14875,"verstärkt":14876,"@@stät":14877,"mechanisms":14878,"zone":14879,"@@zahlt":14880,"Anliegen":14881,"@@absicht":14882,"Chem":14883,"Ear":14884,"vieler":14885,"@@zz":14886,"Verfüg":14887,"vehicle":14888,"evaluation":14889,"@@Os":14890,"Under":14891,"Beach":14892,"Bedenken":14893,"akzeptiert":14894,"@@rant":14895,"@@ctual":14896,"gross":14897,"veget":14898,"medizin":14899,"@@ulating":14900,"herzlich":14901,"derzeitigen":14902,"Ausnahme":14903,"@@klusive":14904,"@@steuer":14905,"praktisch":14906,"labor":14907,"sinnvoll":14908,"letter":14909,"hy":14910,"@@äuß":14911,"@@utzung":14912,"fried":14913,"@@det":14914,"Bill":14915,"Wider":14916,"zählen":14917,"@@afe":14918,"@@nahm":14919,"Pool":14920,"planned":14921,"Hälfte":14922,"guter":14923,"afford":14924,"@@ählten":14925,"Korr":14926,"Lag":14927,"sell":14928,"Company":14929,"Vorbereitung":14930,"Institute":14931,"explan":14932,"Kollege":14933,"@@range":14934,"beauty":14935,"@@selben":14936,"wichtigste":14937,"@@wagen":14938,"contents":14939,"mittels":14940,"Leitlinien":14941,"GM":14942,"ergriffen":14943,"@@jährigen":14944,"@@wers":14945,"@@gendes":14946,"Aussicht":14947,"guide":14948,"kürzlich":14949,"kaufen":14950,"@@fel":14951,"Gesetze":14952,"@@grundlage":14953,"Präs":14954,"Feld":14955,"@@aker":14956,"consultation":14957,"Übereinkommen":14958,"physical":14959,"befassen":14960,"Rules":14961,"Veröffent":14962,"@@iertes":14963,"grounds":14964,"@@strategie":14965,"@@TP":14966,"Grundsätze":14967,"fordert":14968,"Dienstleistungs":14969,"@@LAN":14970,"reply":14971,"Fähigkeit":14972,"sichern":14973,"railway":14974,"pun":14975,"@@lechter":14976,"@@ía":14977,"@@ünfte":14978,"aircraft":14979,"bewegen":14980,"@@ection":14981,"examples":14982,"@@produktion":14983,"Fitness":14984,"@@table":14985,"Cam":14986,"Subs":14987,"sched":14988,"meters":14989,"Report":14990,"persönliche":14991,"dealt":14992,"anerkannt":14993,"Eth":14994,"zugleich":14995,"password":14996,"@@gefähr":14997,"webs":14998,"echte":14999,"@@zil":15000,"zustimmen":15001,"@@unsten":15002,"Unterschiede":15003,"micro":15004,"Diskussionen":15005,"beschäftigt":15006,"systemat":15007,"@@ümm":15008,"@@edr":15009,"beob":15010,"gee":15011,"vielmehr":15012,"recognise":15013,"beachten":15014,"Sanktionen":15015,"@@umer":15016,"disposal":15017,"Ausland":15018,"accessible":15019,"sanctions":15020,"assum":15021,"berecht":15022,"@@mlich":15023,"erh":15024,"Urspr":15025,"Fax":15026,"@@aschen":15027,"Vision":15028,"@@geht":15029,"decades":15030,"neighb":15031,"falsch":15032,"Sud":15033,"outstanding":15034,"Express":15035,"43":15036,"Umständen":15037,"outd":15038,"@@ansion":15039,"Flash":15040,"phase":15041,"läng":15042,"Öff":15043,"@@derung":15044,"conduct":15045,"thre":15046,"@@mon":15047,"@@omas":15048,"nochmals":15049,"jemand":15050,"Zuf":15051,"identity":15052,"@@ierend":15053,"registration":15054,"@@orough":15055,"route":15056,"Je":15057,"@@ktions":15058,"investments":15059,"liter":15060,"@@chnologie":15061,"Berücksichtigung":15062,"Time":15063,"imper":15064,"industries":15065,"write":15066,"Erde":15067,"Angel":15068,"nearby":15069,"@@oret":15070,"amt":15071,"weiteres":15072,"Beim":15073,"@@grenzen":15074,"@@gence":15075,"remove":15076,"@@otten":15077,"kommun":15078,"Strategien":15079,"@@ategorie":15080,"@@äufer":15081,"Nachdem":15082,"patients":15083,"fällt":15084,"@@geiz":15085,"surv":15086,"konkreten":15087,"diversity":15088,"af":15089,"Typ":15090,"organization":15091,"emphasise":15092,"resulting":15093,"@@kräfte":15094,"@@bu":15095,"valu":15096,"65":15097,"@@MS":15098,"@@uters":15099,"fehlen":15100,"Beifall":15101,"pension":15102,"brings":15103,"Find":15104,"incorpor":15105,"Skype":15106,"distin":15107,"representative":15108,"@@TE":15109,"leads":15110,"Schulden":15111,"@@ffend":15112,"politisch":15113,"@@eting":15114,"@@mittag":15115,"primarily":15116,"AB":15117,"verlieren":15118,"leiden":15119,"Resort":15120,"@@linge":15121,"Schrift":15122,"aktual":15123,"rejected":15124,"Nik":15125,"trend":15126,"damals":15127,"cheap":15128,"SME":15129,"@@üht":15130,"gewählt":15131,"holidays":15132,"näher":15133,"@@tel":15134,"sam":15135,"@@60":15136,"@@tschaften":15137,"Tibet":15138,"jour":15139,"rul":15140,"NL":15141,"User":15142,"@@ido":15143,"@@amet":15144,"Wegen":15145,"Inseln":15146,"testing":15147,"Dokumente":15148,"association":15149,"sets":15150,"cool":15151,"@@bindung":15152,"reve":15153,"@@lause":15154,"Definition":15155,"@@entwurf":15156,"beig":15157,"artists":15158,"landwirtschaft":15159,"Bewegung":15160,"Farben":15161,"Ordnung":15162,"@@11":15163,"@@irl":15164,"weg":15165,"Gefühl":15166,"Maßnahme":15167,"Verteidigungs":15168,"Perspekt":15169,"A3":15170,"@@can":15171,"@@gänglich":15172,"Süden":15173,"Autor":15174,"Zahlungs":15175,"Landwirte":15176,"approximately":15177,"@@achs":15178,"@@hold":15179,"romant":15180,"satellite":15181,"Unterkunft":15182,"Paper":15183,"@@atures":15184,"@@endung":15185,"Komb":15186,"determined":15187,"Signal":15188,"gewisse":15189,"regelmäßig":15190,"Verbrechen":15191,"spaces":15192,"Dutch":15193,"900":15194,"struktur":15195,"dritten":15196,"@@räger":15197,"@@bereiche":15198,"previously":15199,"repeated":15200,"Krisen":15201,"Verträge":15202,"sieben":15203,"relaxing":15204,"@@pass":15205,"Lim":15206,"fashion":15207,"Beweis":15208,"@@oples":15209,"nar":15210,"surpr":15211,"Verkauf":15212,"@@bal":15213,"qualified":15214,"prosper":15215,"sem":15216,"@@idung":15217,"@@iced":15218,"Argent":15219,"default":15220,"Wo":15221,"waiting":15222,"schlecht":15223,"griech":15224,"leadership":15225,"@@beziehung":15226,"Sun":15227,"obser":15228,"gesellschaft":15229,"dur":15230,"@@mental":15231,"Tai":15232,"beiz":15233,"technological":15234,"49":15235,"Press":15236,"@@fare":15237,"@@ablen":15238,"anbieten":15239,"@@iating":15240,"Patent":15241,"Both":15242,"Tiere":15243,"arms":15244,"selten":15245,"gestern":15246,"begonnen":15247,"exem":15248,"Cult":15249,"dict":15250,"competence":15251,"Joh":15252,"journal":15253,"deiner":15254,"Messe":15255,"@@schieden":15256,"Lake":15257,"Revolution":15258,"Graf":15259,"luxury":15260,"lift":15261,"Laufe":15262,"Empfehlung":15263,"@@oram":15264,"Spiele":15265,"Weitere":15266,"entstanden":15267,"Handeln":15268,"Brazil":15269,"smoking":15270,"behandeln":15271,"existence":15272,"Übern":15273,"flight":15274,"drugs":15275,"Andre":15276,"Pop":15277,"@@iquid":15278,"120":15279,"bedarf":15280,"Antworten":15281,"@@ternen":15282,"Grenze":15283,"@@abilität":15284,"@@üb":15285,"Dubl":15286,"@@wegs":15287,"einzelne":15288,"Garden":15289,"BM":15290,"@@itime":15291,"@@imately":15292,"Amerika":15293,"schließen":15294,"Tit":15295,"subsidiar":15296,"Offen":15297,"slight":15298,"requested":15299,"species":15300,"@@eind":15301,"Class":15302,"Komment":15303,"resolve":15304,"title":15305,"dah":15306,"@@oud":15307,"accounts":15308,"attitude":15309,"Dus":15310,"Syn":15311,"@@stoffen":15312,"Unterschied":15313,"Mehrwert":15314,"parallel":15315,"überzeugen":15316,"Apartment":15317,"keeping":15318,"vorgenommen":15319,"@@nehmern":15320,"@@igerung":15321,"@@ruf":15322,"@@ampagne":15323,"refugees":15324,"gewünsch":15325,"@@alia":15326,"seien":15327,"Straf":15328,"extreme":15329,"junge":15330,"improvements":15331,"kleiner":15332,"III":15333,"starken":15334,"@@road":15335,"@@ando":15336,"umwelt":15337,"@@asts":15338,"manufacturing":15339,
[...]
