. 1
, 1
на 1
и 1
в 1
е 1
от 1
се 1
( 1
) 1
за 1
@-@ 1
с 1
„ 1
“ 1
&quot; 0.500978157075691
да 1
по 1
– 1
са 1
г. 1
като 1
през 1
г 1
си 1
до 1
година 1
През 1
В 1
му 1
а 1
че 1
: 0.933672965457209
не 1
но 1
това 1
към 1
които 1
най 1
при 1
който 1
след 1
или 1
На 1
във 1
; 0.7857443125126377
фон 1
има 1
част 1
време 1
ни 1
която 1
години 1
След 1
което 1
със 1
той 1
ните 1
те 1
град 1
1 1
По 1
ната 1
/ 1
не@@ 1
България 1
около 1
става 1
много 1
век 1
между 1
ски 1
От 1
ска 1
Той 1
село 1
2 1
† 1
може 1
го 1
ѝ 1
един 1
ската 1
където 1
както 1
ския 1
други 1
война 1
също 1
ния 1
под 1
ва 1
им 1
този 1
3 1
започва 1
А@@ 1
пре@@ 1
късно 1
ното 1
ка 1
само 1
Е@@ 1
още 1
ли 1
За 1
души 1
над 1
него 1
ци 1
я 1
една 1
срещу 1
т 1
път 1
4 1
края 1
ско 1
когато 1
така 1
ти 1
I 1
Биография 1
из@@ 1
л 1
вид 1
български 1
началото 1
на@@ 1
няколко 1
всички 1
селото 1
II 1
m 1
km 1
тях 1
10 1
семейство 1
д 1
5 1
река 1
ското 1
за@@ 1
н 1
София 1
ските 1
20 1
та 1
ване 1
две 1
ите 1
ният 1
раз@@ 1
ват 1
м 1
май 1
септември 1
ди 1
ла 1
6 1
заедно 1
ще 1
О@@ 1
Това 1
% 0.5843289614010782
получава 1
място 1
ът 1
тя 1
тази 1
тези 1
града 1
Според 1
дъщеря 1
лен 1
ката 1
ден 1
имат 1
януари 1
ра 1
к 1
намира 1
октомври 1
- 0.6142162105892498
САЩ 1
ви 1
върху 1
е@@ 1
юни 1
у@@ 1
юли 1
името 1
август 1
преди 1
различни 1
Македония 1
бъде 1
ко@@ 1
чрез 1
март 1
то 1
граф 1
област 1
април 1
ка@@ 1
но@@ 1
о 1
ят 1
ноември 1
ците 1
работи 1
декември 1
Ко@@ 1
община 1
ре@@ 1
три 1
син 1
два 1
по@@ 1
р 1
до@@ 1
ването 1
15 1
о@@ 1
История 1
&amp; 0.6872535740700426
Ка@@ 1
ки 1
някои 1
група 1
7 1
често 1
де@@ 1
У@@ 1
С 1
ли@@ 1
ги 1
12 1
8 1
При 1
лите 1
страната 1
Тя 1
ри@@ 1
февруари 1
30 1
С@@ 1
ди@@ 1
ни@@ 1
от@@ 1
език 1
ра@@ 1
нов 1
Те 1
И@@ 1
могат 1
сред 1
жени 1
център 1
а@@ 1
съ@@ 1
пр.н.е. 1
империя 1
вече 1
ти@@ 1
Разпространение 1
Видът 1
повече 1
чен 1
университет 1
Италия 1
с@@ 1
завършва 1
отново 1
прави 1
Северна 1
ките 1
про@@ 1
без 1
Ма@@ 1
използва 1
те@@ 1
лни 1
участва 1
страна 1
9 1
бил 1
000 1
ма 1
ро@@ 1
ският 1
роден 1
По@@ 1
жители 1
ми@@ 1
рите 1
училище 1
части 1
населението 1
височина 1
16 1
Най 1
ле@@ 1
я@@ 1
поради 1
лна 1
световна 1
трябва 1
под@@ 1
нея 1
сезон 1
ри 1
първата 1
ма@@ 1
периода 1
к@@ 1
малко 1
обаче 1
14 1
11 1
ви@@ 1
според 1
води 1
ми 1
18 1
ран 1
&apos; 0.2312090729602952
име 1
дни 1
голяма 1
то@@ 1
III 1
ст 1
ков 1
ко 1
чни 1
Германия 1
19 1
мо@@ 1
ла@@ 1
Франция 1
своя 1
си@@ 1
член 1
Русия 1
в@@ 1
армия 1
би 1
На@@ 1
13 1
ло 1
ш 1
м@@ 1
система 1
умира 1
край 1
Свети 1
ени 1
2010 0.7696242146600082
25 1
били 1
* 1
ник 1
л@@ 1
смъртта 1
при@@ 1
лно 1
17 1
Не@@ 1
км 1
д@@ 1
да@@ 1
Гърция 1
2011 0.8512706646943331
тите 1
та@@ 1
де 1
чна 1
църква 1
рани 1
ван 1
население 1
Иван 1
Европа 1
Георги 1
рат 1
у 1
Въпреки 1
За@@ 1
га@@ 1
ята 1
Де@@ 1
докато 1
би@@ 1
днес 1
Ми@@ 1
ч 1
първи 1
играе 1
ба@@ 1
едно 1
Ви@@ 1
ва@@ 1
пи@@ 1
Мария 1
времето 1
г@@ 1
деца 1
отбор 1
цията 1
Роден 1
групата 1
баща 1
се@@ 1
живот 1
Бо@@ 1
ме@@ 1
тъй 1
печели 1
Ме@@ 1
Населението 1
Из@@ 1
големи 1
Па@@ 1
първия 1
щата 1
нови 1
крал 1
ку@@ 1
период 1
Ра@@ 1
окръг 1
сили 1
ност 1
ш@@ 1
Ба@@ 1
ране 1
остава 1
Южна 1
страни 1
т@@ 1
га 1
х@@ 1
Има 1
провинция 1
рен 1
па@@ 1
нова 1
ло@@ 1
ница 1
ството 1
първите 1
2000 1
21 1
света 1
др 1
войната 1
ници 1
бъдат 1
дава 1
П@@ 1
брат 1
Б@@ 1
во 1
места 1
почти 1
пе@@ 1
начин 1
Ку@@ 1
няма 1
Д@@ 1
2012 0.7559431340424131
2009 0.7796267978151187
ве@@ 1
голям 1
2007 0.832402015778494
Се@@ 1
24 1
вайки 1
2008 0.7761299163910128
пред 1
вани 1
продължава 1
К@@ 1
тен 1
пише 1
филм 1
з@@ 1
22 1
са@@ 1
включва 1
Пре@@ 1
и@@ 1
п 1
ки@@ 1
п@@ 1
Александър 1
известен 1
Първата 1
щи 1
ен 1
2006 0.8297325493151984
й@@ 1
Са@@ 1
ща 1
хора 1
Ха@@ 1
използват 1
ниците 1
двете 1
данни 1
бе@@ 1
ф@@ 1
об@@ 1
зи 1
без@@ 1
ата 1
все 1
цел 1
ността 1
ци@@ 1
работа 1
Си@@ 1
всеки 1
Ре@@ 1
Ди@@ 1
Димитър 1
̀ 1
американски 1
Пе@@ 1
Ро@@ 1
лната 1
семейството 1
бо@@ 1
успява 1
ър 1
н@@ 1
чи@@ 1
со@@ 1
резултат 1
50 1
рия 1
север 1
Ли@@ 1
областта 1
вата 1
същата 1
награда 1
ц 1
море 1
района 1
Ле@@ 1
Фридрих 1
дейност 1
23 1
територията 1
чно 1
император 1
х 1
чев 1
юг 1
била 1
четири 1
Про@@ 1
Мо@@ 1
тът 1
Бе@@ 1
че@@ 1
ция 1
100 1
там 1
нията 1
ман 1
го@@ 1
Втората 1
Ла@@ 1
й 1
Като 1
степен 1
В@@ 1
съюз 1
2013 0.6778430385430348
малки 1
първият 1
Ш@@ 1
отбора 1
зи@@ 1
партия 1
заради 1
Я@@ 1
пъти 1
генерал 1
председател 1
рана 1
своите 1
2014 0.6496982207752282
дори 1
Ал@@ 1
република 1
рано 1
изток 1
сти 1
три@@ 1
албум 1
2005 0.8556435744111934
М@@ 1
вен 1
ващи 1
своята 1
регион 1
въз@@ 1
бу@@ 1
То@@ 1
чната 1
26 1
При@@ 1
площ 1
ру@@ 1
б@@ 1
ф 1
множество 1
мача 1
27 1
преминава 1
су@@ 1
голямата 1
например 1
възраст 1
° 1
обикновено 1
28 1
вите 1
участие 1
църквата 1
живота 1
филма 1
съпруга 1
2001 1
Към 1
управление 1
пред@@ 1
IV 1
Бу@@ 1
А 1
дължина 1
острови 1
разпространен 1
остров 1
лия 1
Т@@ 1
з 1
2015 0.619460296061167
Карл 1
лу@@ 1
излиза 1
Би@@ 1
вал 1
история 1
2004 0.8470593134535134
1944 1
организация 1
близо 1
надморска 1
Република 1
сен 1
40 1
вана 1
Османската 1
До@@ 1
включително 1
До 1
2002 0.9632495493608858
ха@@ 1
лните 1
сто@@ 1
ду@@ 1
Когато 1
общината 1
достига 1
линия 1
ха 1
_ 0.6261133164166114
хи@@ 1
групи 1
кариера 1
съвет 1
Та@@ 1
чните 1
съпругата 1
състои 1
Съ@@ 1
The 0.044840245972255326
особено 1
род 1
ч@@ 1
запад 1
Освен 1
среща 1
министър 1
брой 1
gt 0.9192982419690229
тогава 1
Ри@@ 1
Ру@@ 1
ча@@ 1
йски 1
щ 1
създава 1
вода 1
средата 1
форма 1
власт 1
предимно 1
Те@@ 1
живее 1
География 1
историята 1
хо@@ 1
добре 1
² 1
войски 1
ан@@ 1
Ф@@ 1
избран 1
започват 1
вали 1
З@@ 1
втората 1
жена 1
Ва@@ 1
българи 1
Ню 1
лов 1
пра@@ 1
нието 1
Лу@@ 1
ство 1
вида 1
ца 1
Пи@@ 1
Ки@@ 1
lt 0.9167641106250076
връзка 1
въпреки 1
Ве@@ 1
вероятно 1
силно 1
29 1
Г@@ 1
нарича 1
сти@@ 1
херцог 1
Хайнрих 1
отнася 1
Да@@ 1
гу@@ 1
сл 1
служба 1
нен 1
договор 1
състава 1
e 0.610154121909901
ев 1
1990 1
ново 1
Така 1
чи 1
защото 1
Х@@ 1
тата 1
вия 1
Ар@@ 1
влиза 1
Йохан 1
годишна 1
видове 1
право 1
Никола 1
лата 1
2016 0.5421749844667353
во@@ 1
рането 1
Завършва 1
ба 1
сън 1
№ 1
И 1
Петър 1
Су@@ 1
Мар@@ 1
60 1
застрашен 1
&#93; 0.5121089699938195
било 1
българска 1
ста@@ 1
роля 1
Разпространен 1
б 1
големите 1
Пловдив 1
ено 1
Го@@ 1
&#91; 0.5075721114785912
изчезване 1
ту@@ 1
ако 1
само@@ 1
неговата 1
представлява 1
назначен 1
зо@@ 1
общо 1
2003 0.8279747214586831
Ти@@ 1
па 1
район 1
Га@@ 1
ар@@ 1
хората 1
майка 1
Рим 1
ето 1
тип 1
2017 0.5474946076984136
От@@ 1
повечето 1
Ю@@ 1
песни 1
ин@@ 1
Джон 1
състав 1
Васил 1
свят 1
всяка 1
дена 1
носи 1
ен@@ 1
втори 1
комитет 1
Кар@@ 1
провежда 1
Англия 1
ге@@ 1
тни 1
ше@@ 1
стите 1
академия 1
Раз@@ 1
редица 1
фи@@ 1
човек 1
йки 1
ча 1
държава 1
р@@ 1
мен 1
циите 1
0 0.772735063023826
31 1
ров 1
дите 1
ж@@ 1
милиона 1
Ни@@ 1
ле 1
кът 1
българската 1
му@@ 1
ши@@ 1
Испания 1
он 0.698712327634674
ля@@ 1
свързани 1
учи 1
ги@@ 1
мач 1
графиня 1
гръцки 1
V 1
щите 1
казва 1
руски 1
Нова 1
чо 1
Париж 1
мата 1
Стефан 1
лния 1
ке@@ 1
манастир 1
ж 1
полк 1
Н@@ 1
1912 1
командир 1
Филип 1
ващ 1
живеят 1
80 1
ваща 1
метра 1
пет 1
ста 1
бързо 1
сила 1
Америка 1
пла@@ 1
Великобритания 1
музика 1
жи@@ 1
голямо 1
ява 1
неговите 1
образование 1
друг 1
връх 1
дивизия 1
Китай 1
дени 1
1991 1
разположен 1
Африка 1
развитие 1
политически 1
ника 1
тна 1
Христо 1
полу@@ 1
1945 1
Умира 1
движение 1
друга 1
месеца 1
Со@@ 1
разположени 1
ст@@ 1
приема 1
Ло@@ 1
заема 1
пи 1
театър 1
продължение 1
сът 1
основно 1
ме 1
берг 1
1999 0.7832685148963651
2018 0.457727394825074
реката 1
1913 1
що 1
пр 1
СССР 1
зе@@ 1
правителство 1
ро 1
цар 1
+ 1
То 1
ман@@ 1
произход 1
връща 1
кон@@ 1
държави 1
гимназия 1
Този 1
литература 1
70 1
директор 1
създаването 1
първенство 1
— 0.09400240047204245
Хе@@ 1
лятото 1
Ц@@ 1
ц@@ 1
Япония 1
тън 1
мястото 1
Йорк 1
новата 1
чета 1
останалите 1
английски 1
стил 1
управлението 1
птица 1
ъ@@ 1
известна 1
це@@ 1
= 0.6327256486204049
известни 1
лят 1
of 0.009954161395150735
лъ@@ 1
цялата 1
Първият 1
1992 0.9292112983179812
ша 1
Българската 1
Хо@@ 1
първото 1
точка 1
ля 1
мен@@ 1
1941 1
Му@@ 1
политик 1
1989 1
ок 1
Но@@ 1
Ге@@ 1
Николай 1
книги 1
френски 1
действия 1
пу@@ 1
Вилхелм 1
отношение 1
us 0.6740168765277923
вър@@ 1
центъра 1
чния 1
жи 1
намират 1
Анна 1
1998 0.8085091598635739
рата 1
служи 1
Полша 1
лин 1
Западна 1
XIX 1
Св 1
напуска 1
другите 1
йн 1
Михаил 1
малка 1
двата 1
Някои 1
ел 1
formula 0.5190532733640146
роман 1
Москва 1
правителството 1
същото 1
футболист 1
разположено 1
мите 1
вания 1
C 0.7988562992949998
дьо 1
албума 1
1997 0.8614440608752507
децата 1
ън 1
чка 1
Че@@ 1
ролята 1
бряг 1
епископ 1
едва 1
щати 1
чу@@ 1
Във 1
Тази 1
неговото 1
превръща 1
сина 1
Там 1
! 0.6404157334681086
значение 1
означава 1
Ту@@ 1
1996 0.8465460557180048
Ан@@ 1
Намира 1
последните 1
битката 1
Азия 1
тно 1
Тези 1
Хи@@ 1
военни 1
учител 1
разлика 1
началник 1
200 1
песента 1
лига 1
ю@@ 1
Ин@@ 1
главен 1
ши 1
мм 1
Ду@@ 1
Турция 1
1995 0.8720985497304254
йския 1
Селото 1
княз 1
Кон@@ 1
скоро 1
1994 0.8707767943306493
книга 1
ша@@ 1
дата 1
Поради 1
стават 1
Индия 1
лното 1
напълно 1
фа@@ 1
же@@ 1
ър@@ 1
ан 1
главно 1
изкуство 1
информация 1
течение 1
малък 1
Света 1
издава 1
двамата 1
ер 1
1980 0.916653551834423
Елизабет 1
Описание 1
решава 1
компания 1
кс 1
Сърбия 1
Гу@@ 1
кораба 1
90 1
мъ@@ 1
територия 1
кла@@ 1
кораби 1
лът 1
мо 1
президент 1
ани 1
ал@@ 1
щ@@ 1
въстание 1
влияние 1
изследвания 1
никът 1
Сан 1
Константин 1
Ке@@ 1
Варна 1
поле 1
ск@@ 1
анти@@ 1
развитието 1
следва 1
ред 1
Лудвиг 1
кан@@ 1
събрание 1
Кара@@ 1
кръг 1
градове 1
планина 1
исторически 1
дъ@@ 1
кри@@ 1
защита 1
политика 1
­ 1
Участва 1
писател 1
Австралия 1
опит 1
известно 1
mm 1
производство 1
българските 1
.@@ 1
целия 1
случай 1
професор 1
завръща 1
нски 1
идва 1
изцяло 1
1993 0.8684591103673247
дву@@ 1
членове 1
кра@@ 1
произведения 1
сте@@ 1
шка 1
преброяването 1
неговия 1
Лондон 1
нат 1
успех 1
развива 1
обявява 1
култура 1
Украйна 1
ян 1
лю@@ 1
участват 1
s 0.1878735839328702
Йо@@ 1
ер@@ 1
следващите 1
появява 1
2019 0.40444498641302046
сестра 1
съд 1
музей 1
планината 1
Ша@@ 1
Но 1
кораб 1
села 1
1943 1
първо 1
мир 1
Бразилия 1
тия 1
хе@@ 1
1878 1
състояние 1
йската 1
бата 1
фе@@ 1
Източна 1
рът 1
клуб 1
всичко 1
официално 1
земи 1
първоначално 1
Ор@@ 1
игри 1
над@@ 1
стра@@ 1
вестник 1
годината 1
Бра@@ 1
условия 1
жен 1
вото 1
половина 1
Сред 1
1970 0.916815320795563
br 1
помощта 1
против 1
Гра@@ 1
значително 1
1900 1
Разположено 1
себе 1
кия 1
райони 1
техните 1
Р@@ 1
системи 1
издаден 1
километра 1
езици 1
открива 1
бург 1
годините 1
чното 1
1918 1
флот 1
Фамилия 1
столицата 1
институт 1
ща@@ 1
записва 1
цели 1
ние 1
Кри@@ 1
представител 1
елементи 1
включват 1
разположена 1
пръв 1
българско 1
компанията 1
поли@@ 1
ве 1
Стара 1
Л@@ 1
Марк 1
гра@@ 1
кли@@ 1
едно@@ 1
книгата 1
военен 1
основава 1
селище 1
точки 1
проект 1
позволява 1
смята 1
ско@@ 1
участието 1
близост 1
ден@@ 1
Австрия 1
пътя 1
секретар 1
следващата 1
версия 1
ор@@ 1
шки 1
решение 1
the 0.00441574706572901
макар 1
1960 0.9823589698677954
освен 1
бива 1
лица 1
гола 1
Други 1
обща 1
часа 1
предлага 1
кова 1
средства 1
брак 1
титлата 1
ска@@ 1
толкова 1
Между 1
ръ@@ 1
1940 1
изключително 1
гре@@ 1
кар@@ 1
фо@@ 1
оказва 1
армията 1
ня@@ 1
щайн 1
автор 1
ху@@ 1
вски 1
песен 1
сезона 1
жда 1
лен@@ 1
cm 1
военна 1
сметка 1
работата 1
кръ@@ 1
дело 1
1942 1
езерото 1
Мексико 1
ниво 1
такива 1
процес 1
сни 1
поставя 1
Мак@@ 1
шест 1
Първоначално 1
idae 1
Не 1
заместник 1
филми 1
сигурност 1
втория 1
помощ 1
Унгария 1
добър 1
Ши@@ 1
понякога 1
чески 1
джи@@ 1
губи 1
дер 1
големият 1
показва 1
своето 1
дж@@ 1
Фи@@ 1
2020 0.3811502179351907
температура 1
йска 1
ФК 1
омъжва 1
жа 1
награди 1
водата 1
следните 1
българския 1
сграда 1
дено 1
чин 1
шампион 1
Църквата 1
гр 1
новия 1
Много 1
представя 1
ства 1
мрежа 1
тната 1
Канада 1
възможност 1
зона 1
събития 1
сия 1
ьо@@ 1
1986 0.9169993655160688
500 1
отказва 1
основа 1
острова 1
дружество 1
мът 1
ждат 1
формата 1
Ман@@ 1
вни 1
висока 1
гла@@ 1
Централна 1
правят 1
определя 1
тре@@ 1
тук 1
Още 1
1988 0.837628867289979
Ста@@ 1
проблеми 1
Б 1
списание 1
бра@@ 1
южната 1
Йоан 1
лото 1
тните 1
Кирил 1
ген 1
животни 1
1950 0.9901506171607035
яване 1
съдържа 1
създадена 1
ции 1
достигат 1
М 1
Преди 1
Ай@@ 1
ано 1
позиция 1
... 0.7098978219264217
новите 1
1934 1
властта 1
рамките 1
области 0.9753098290210719
Кра@@ 1
извършва 1
1905 1
опитва 1
тър@@ 1
месец 1
оръдия 1
треньор 1
дали 1
двама 1
Ако 1
стена 1
Фа@@ 1
пар@@ 1
родена 1
Египет 1
културата 1
приток 1
програма 1
същия 1
Бар@@ 1
лски 1
северната 1
къ@@ 1
публикува 1
впоследствие 1
хиляди 1
националния 1
смърт 1
.. 1
извън 1
басейн 1
вала 1
ващите 1
тро@@ 1
границата 1
основните 1
Румъния 1
ну@@ 1
Под@@ 1
Ер@@ 1
бър@@ 1
права 1
ран@@ 1
избори 1
нито 1
футбол 1
попада 1
лка 1
a 0.00901092067619777
ални 1
къщи 1
тан@@ 1
лена 1
наградата 1
доста 1
морски 1
тъ@@ 1
построена 1
консул 1
тялото 1
ител 1
модел 1
1985 0.8739668827220298
вете 1
1920 1
гори 1
установява 1
рок 1
Ча@@ 1
сите 1
принцеса 1
начело 1
поема 1
ус 1
1987 0.8415972759143205
причина 1
ъ 1
ити 1
Името 1
Население 1
срещат 1
изпълнява 1
немски 1
деец 1
Рай@@ 1
създаден 1
вият 1
случаи 1
капитан 1
езеро 1
представители 1
Чи@@ 1
Кор@@ 1
Фе@@ 1
300 1
сега 1
1984 0.856516653323156
фамилията 1
лан@@ 1
кариерата 1
стъ@@ 1
рен@@ 1
получават 1
ек@@ 1
1939 1
Първите 1
кови 1
Ч@@ 1
отношения 1
тон 1
1981 0.9138976630972255
съществува 1
Произход 1
1968 0.9518547496510887
35 1
Во@@ 1
рията 1
Борис 1
национален 1
Берлин 1
офицер 1
дът 1
Виена 1
скорост 1
високо 1
клас 1
основни 1
1974 0.9400089319943534
Д 1
Балканската 1
ствата 1
точно 1
водо@@ 1
статут 1
региона 1
Джеймс 1
пак 1
митрополит 1
тра@@ 1
пара@@ 1
Също 1
войници 1
Баща 1
епархия 1
промени 1
XX 1
много@@ 1
стта 1
негов 1
1979 0.8986780705138835
ген@@ 1
ций 1
ницата 1
гора 1
дия 1
планински 1
план 1
среда 1
нос 1
вер@@ 1
занимава 1
храм 1
производството 1
долината 1
форми 1
1978 0.9240701191836228
Ху@@ 1
1948 1
VI 1
мия 1
ний 1
ари 1
1971 0.9343922649339074
големия 1
западната 1
Хар@@ 1
Административен 1
стен 1
турнира 1
чат 1
посока 1
широко 1
убит 1
1928 1
земя 1
Це@@ 1
нал 1
контрол 1
влизат 1
жа@@ 1
1982 0.8629165986587698
вано 1
електро@@ 1
чки 1
зите 1
1976 0.9052183653336466
отбелязва 1
Разположен 1
вна 1
как 0.333219177374625
дълго 1
местообитание 1
щия 1
победа 1
1946 1
открити 1
иска 1
винаги 1
Левски 1
школа 1
европейски 1
жените 1
сто 1
ше 1
Владимир 1
практика 1
рени 1
проекта 1
италиански 1
войни 1
ръководството 1
1972 0.8608072127429449
ционни 1
сградата 1
вен@@ 1
твърди 1
бен 1
дна 1
столица 1
мост 1
използвани 1
ново@@ 1
момент 1
кан 1
тор 1
ясно 1
местните 1
1930 1
све@@ 1
т.нар. 1
чест 1
бри@@ 1
университета 1
сен@@ 1
Три@@ 1
из 0.18898589647969366
ково 1
мар@@ 1
сло@@ 1
зата 1
т.е. 1
творчество 1
къща 1
остават 1
източната 1
Димитров 1
цялото 1
Градът 1
Всички 1
1975 0.8327624444032773
редактор 1
общество 1
шо@@ 1
присъединява 1
1947 1
океан 1
оби@@ 1
Калифорния 1
бе 1
постепенно 1
Об@@ 1
бар@@ 1
жителите 1
Сто@@ 1
ръководител 1
45 1
свързва 1
тор@@ 1
типа 1
Днес 1
наричат 1
ван@@ 1
вил 1
1969 0.9295651519244804
Солун 1
Ото 1
лер 1
битка 1
Ше@@ 1
1973 0.8792157997171522
Площта 1
организацията 1
рал 1
1983 0.8142047335125412
Започва 1
пер@@ 1
de 0.004775508683625334
ческа 1
ланд 1
отива 1
земята 1
Хай@@ 1
ера 1
дете 1
православна 1
дър@@ 1
заминава 1
1927 1
сон 1
революция 1
трите 1
Югославия 1
полуостров 1
Луи 1
ъл 1
рена 1
Тодор 1
ително 1
сгради 1
дел 1
Саксония 1
1919 1
реките 1
турски 1
йна 1
съответно 1
специално 1
гле@@ 1
държавата 1
бите 1
1923 1
1967 0.9223137121777638
ря@@ 1
Един 1
Бер@@ 1
бивш 1
яват 1
дават 1
различните 1
дом 1
щат 1
Кал@@ 1
Земята 1
трети 1
минава 1
описва 1
изпраща 1
бор@@ 1
актьор 1
енергия 1
българското 1
семейства 1
кратко 1
зу@@ 1
лени 1
говори 1
жението 1
науки 1
издание 1
дворец 1
1962 1
манастира 1
Бургас 1
Павел 1
зен 1
майор 1
отделни 1
Май@@ 1
организира 1
ващо 1
зависимост 1
ня 1
рин 1
актриса 1
основата 1
-@@ 0.5911949553214142
гол 1
Ел@@ 1
граница 1
ита 1
местността 1
1966 0.9436595138268796
подписва 1
ждане 1
военно 1
парк 1
статистиката 1
материали 1
пле@@ 1
положение 1
десет 1
ет@@ 1
пло@@ 1
ре 1
организации 1
ционен 1
кралство 1
крайна 1
открит 1
бро@@ 1
титла 1
сравнително 1
Щ@@ 1
господар 1
йските 1
годишен 1
кре@@ 1
нена 1
лина 1
рода 1
1965 0.9202160209462006
ална 1
вторият 1
БКП 1
системата 1
Георг 1
Община 1
цата 1
1977 0.8536816340666736
когото 1
1959 1
1964 0.9023829554780683
дял 1
Тук 1
четата 1
вла@@ 1
Бре@@ 1
1915 1
лска 1
Жан 1
Уилям 1
епоха 1
управлява 1
Тогава 1
ос@@ 1
южно 1
следващия 1
паметник 1
папа 1
стане 1
1949 1
ителни 1
Работи 1
1938 1
Формула 1
дем 1
2021 0.3651778644602618
Иванов 1
зна@@ 1
подкрепа 1
факултет 1
лният 1
имало 1
мер@@ 1
стър 1
Пу@@ 1
наречен 1
ално 1
първа 1
градът 1
взема 1
лий 1
романа 1
Бър@@ 1
родния 1
градски 1
политическа 1
Т 1
нейната 1
борба 1
1961 0.9880002471702077
територии 1
сла@@ 1
лин@@ 1
ционна 1
Заедно 1
1956 0.9785474275545681
действие 1
зад 1
тира 1
художник 1
Голяма 1
посещава 1
северно 1
К 1
поддържа 1
Гвинея 1
орден 1
обучение 1
1963 0.9409608926863386
вместо 1
Швеция 1
възможно 1
ато@@ 1
ат@@ 1
ск 1
гите 1
миналото 1
теория 1
яването 1
Търново 1
вица 1
маса 1
глава 1
дома 1
стка 1
1958 0.9770160531136888
ителна 1
1000 1
ати 1
ене 1
вена 1
нява 1
бан@@ 1
Скопие 1
долара 1
ати@@ 1
ет 1
източници 1
лев 1
отколкото 1
стойност 1
премества 1
Докато 1
известните 1
со 0.8779910967709772
рис 1
негово 1
средно 1
клуба 1
активно 1
представ@@ 1
1936 1
обект 1
нати 1
тер 1
1924 1
селата 1
свой 1
водят 1
училището 1
разполага 1
турската 1
32 1
Член 1
рядко 1
Ги@@ 1
музиката 1
Константинопол 1
наследство 1
нали 1
Тракия 1
ак@@ 1
режисьор 1
О 1
Ж@@ 1
спо@@ 1
подобни 1
революционер 1
? 0.7306904019226057
Вер@@ 1
стро@@ 1
1926 1
цяло 1
тичен 1
езика 1
никога 1
Кариера 1
Етнография 1
превод 1
успяват 1
гри@@ 1
1903 1
работят 1
римски 1
ос 1
техника 1
Сан@@ 1
добра 1
създават 1
Ен@@ 1
пан@@ 1
Тъй 1
статистика 1
броя 1
носител 1
гата 1
раните 1
он@@ 1
фи 1
използването 1
шко 1
це 1
кото 1
тов 1
лова 1
режисьора 1
млн. 1
Стра@@ 1
продължават 1
Джа@@ 1
връзки 1
крайцери 1
радио@@ 1
достатъчно 1
линии 1
германски 1
ю 1
Пла@@ 1
Дра@@ 1
герой 1
ще@@ 1
определени 1
тото 1
партията 1
мъже 1
чена 1
Швейцария 1
число 1
залив 1
успешно 1
издадена 1
тски 1
последния 1
революционна 1
научни 1
храма 1
високи 1
1935 1
Ак@@ 1
база 1
реки 1
150 1
търговски 1
1952 0.9957353126937996
дълбочина 1
чиято 1
дя@@ 1
1929 1
стига 1
свои 1
1914 1
сингъл 1
Първа 1
йското 1
рий 1
фронт 1
размери 1
мина@@ 1
нин 1
Джордж 1
Елена 1
сна 1
ѐ@@ 1
ООН 1
имена 1
Софийския 1
1925 1
мин@@ 1
гара 1
собственост 1
минути 1
Колумбия 1
мов 1
счита 1
коле@@ 1
административен 1
1921 1
номер 1
ствена 1
използван 1
християни 1
централната 1
Мон@@ 1
спа@@ 1
хан 1
ган 1
ВМОРО 1
цвят 1
Поли@@ 1
т.н. 1
Около 1
птици 1
творби 1
ур@@ 1
въ@@ 1
тяхната 1
седем 1
гли@@ 1
човека 1
400 1
главния 1
икономически 1
довете 1
ностите 1
зия 1
1908 1
Националната 1
1922 1
построен 1
Министерството 1
есента 1
кула 1
Бал@@ 1
американската 1
войвода 1
думи 1
Вла@@ 1
тин 1
споменава 1
финала 1
Пер@@ 1
серия 1
държавен 1
линията 1
Русе 1
Пан@@ 1
брега 1
ьо 1
тона 1
тел 1
1951 1
такъв 1
П 1
кор@@ 1
алната 1
жат 1
стени 1
втора 1
помага 1
продукти 1
Брат 1
комплекс 1
поп 1
шен 1
1953 0.9970329379900605
Г 1
Римската 1
създаване 1
чени 1
1877 1
Велики 1
лан 1
българите 1
вар@@ 1
Белгия 1
1933 0.9755493679206251
игра 1
променя 1
върха 1
код 1
после 0.5678327915749212
тични 1
1957 0.9319674330627243
обратно 1
крайцера 1
Горна 1
ате@@ 1
власти 1
Къ@@ 1
дума 1
Руската 1
пристига 1
провеждат 1
Загора 1
поредица 1
народен 1
защитава 1
Съединените 1
действа 1
Луций 1
дан 1
храна 1
1937 0.9864702722428733
et 0.01978449357952696
структура 1
ал 1
характер 1
Филмът 1
изкуството 1
ит@@ 1
братя 1
1904 1
дълги 1
ред@@ 1
пролетта 1
тика 1
нейните 1
вижда 1
рон 1
Университета 1
вя@@ 1
2@@ 1
Лю@@ 1
склонове 1
хода 1
гер 1
1917 1
Под 1
роли 1
селища 1
лд 1
Пар@@ 1
налага 1
образуват 1
единствено 1
употреба 1
френския 1
направи 1
принц 1
проф 1
чер@@ 1
гъ@@ 1
сту@@ 1
беше 1
затова 1
последната 1
пехотен 1
годишно 1
пари 1
VII 1
именно 1
военните 1
гръцката 1
Мъ@@ 1
Е 1
али@@ 1
пъ@@ 1
гът 1
осъществява 1
Бор@@ 1
Франц 1
футболен 1
дно 1
изключение 1
Една 1
след@@ 1
отряд 1
вът 1
камък 1
фор@@ 1
осем 1
вени 1
наричан 1
Купата 1
взима 1
Сюжет 1
комисия 1
дейността 1
ева 1
йн@@ 1
X 0.654219286884258
1954 0.9167715391539691
Пред@@ 1
американска 1
интерес 1
Зе@@ 1
A 0.09499298095461853
международни 1
ѝ@@ 1
използване 1
растения 1
ален 1
Гай 1
заявява 1
нала 1
намалява 1
дела 1
поста 1
старите 1
Мартин 1
отдел 1
благодарение 1
преподава 1
труд 1
ори 1
заповед 1
Дунав 1
Пет@@ 1
Син@@ 1
появяват 1
микро@@ 1
’ 0.05238325024149186
хайм 1
ком@@ 1
1932 1
местни 1
пост 1
дел@@ 1
основан 1
нещо 1
сведения 1
кмет 1
изпратен 1
чите 1
сви@@ 1
Съюза 1
1910 1
корпус 1
носят 1
Повечето 1
жда@@ 1
цен@@ 1
дените 1
побеждава 1
сме@@ 1
оръжие 1
сериал 1
обекти 1
лската 1
лява 1
Тур@@ 1
тер@@ 1
гър@@ 1
наречена 1
постъпва 1
веднага 1
тин@@ 1
Дже@@ 1
in 0.004692723211609386
Индонезия 1
Робърт 1
телевизия 1
нар@@ 1
Вал@@ 1
идеята 1
шката 1
1955 0.8967915558413309
замък 1
йско 1
Вър@@ 1
крепост 1
наследник 1
командването 1
рин@@ 1
биват 1
добри 1
Фердинанд 1
образува 1
лейтенант 1
лението 1
ЦСКА 1
вър 1
Конрад 1
св 1
i 0.2975883472092738
цяла 1
срещи 1
ителен 1
бер@@ 1
относно 1
просто 1
едновременно 1
режим 1
материал 1
открито 1
Атина 1
ери 1
самия 1
стадион 1
чийто 1
Бан@@ 1
Гер@@ 1
войска 1
тяхното 1
дън 1
северозапад 1
количество 1
раната 1
нер 1
чието 1
между@@ 1
стре@@ 1
училища 1
полета 1
ън@@ 1
пространство 1
тяло 1
Междусъюзническата 1
Мал@@ 1
цки 1
Аржентина 1
произлиза 1
Фу@@ 1
постоянно 1
мин 1
стру@@ 1
Автор 1
Ернст 1
негови 1
алните 1
щаб 1
Албания 1
ези@@ 1
ум 1
Южен 1
полски 1
and 0.005204952055908405
Томас 1
изпълнение 1
прекарва 1
спрямо 1
ждането 1
шу@@ 1
ращи 1
паша 1
квартал 1
стри@@ 1
Тре@@ 1
източно 1
лон 1
ческия 1
Хитлер 1
ев@@ 1
Дъ@@ 1
добрите 1
канал 1
тична 1
Богородица 1
La 0.05670220529219399
зала 1
основен 1
Впоследствие 1
Село 1
играят 1
победата 1
западно 1
бре@@ 1
важна 1
операция 1
голямото 1
президента 1
1931 1
Пол 1
поредицата 1
тема 1
ражда 1
кул@@ 1
мон 1
ок@@ 1
Учи 1
Гор@@ 1
гърци 1
мета@@ 1
Например 1
документи 1
нейния 1
тове 1
програмата 1
сравнение 1
диа@@ 1
Обикновено 1
пада 1
Едуард 1
високата 1
сериала 1
чката 1
зе 1
полковник 1
Мор@@ 1
библиотека 1
кара 1
лис 1
североизток 1
кър@@ 1
дер@@ 1
ем 1
негова 1
руския 1
зов 1
райки 1
чиито 1
йни 1
Става 1
логия 1
лет 0.6592230277187882
дж 1
общини 1
33 1
даден 1
Кан@@ 1
наре@@ 1
ква 1
Ци@@ 1
опа@@ 1
югоизток 1
икономика 1
Хер@@ 1
въпроси 1
ствен 1
Корея 1
кал@@ 1
станция 1
Пра@@ 1
рак 1
високо@@ 1
Чу@@ 1
градовете 1
общност 1
Албрехт 1
турнир 1
Илия 1
класа 1
ръководи 1
1916 1
изградена 1
руската 1
н.в. 1
приет 1
уни@@ 1
устието 1
Бри@@ 1
причини 1
сътрудничество 1
шев 1
конгрес 1
зва 1
вната 1
британски 1
75 1
бя@@ 1
Дейвид 1
сно 1
всяко 1
епи@@ 1
висок 1
нейното 1
разбира 1
Макар 1
1906 1
дре@@ 1
всичките 1
00 1
важни 1
получи 1
дро@@ 1
определен 1
Първото 1
хидро@@ 1
показват 1
контра@@ 1
крепостта 1
пол@@ 1
съществуват 1
гори@@ 1
правото 1
ся@@ 1
Мари@@ 1
Фо@@ 1
ке 0.8707127901658388
еди@@ 1
ческата 1
Родена 1
погребан 1
рова 1
ъл@@ 1
основната 1
разказва 1
Първи 1
учени 1
вец 1
върне 1
дра@@ 1
38 1
ем@@ 1
краля 1
страните 1
запа@@ 1
царство 1
Н 1
км2 1
обхваща 1
полет 1
Ботев 1
приятел 1
изследване 1
йт 1
нар 1
ити@@ 1
философия 1
сцена 1
Кру@@ 1
Иран 1
хи 1
km2 1
поет 1
търговия 1
род@@ 1
фа 1
затвор 1
Кър@@ 1
големина 1
сам 1
фаза 1
лекар 1
щото 1
Август 1
лично 1
Фор@@ 1
въоръжение 1
племена 1
победи 1
Обитава 1
представляват 1
Ек@@ 1
Кур@@ 1
свещеник 1
ческо 1
фу@@ 1
фото@@ 1
Сер@@ 1
кон 1
седмици 1
бригада 1
основана 1
ък 1
вено 1
ствени 1
произвежда 1
син@@ 1
оценка 1
Хр 1
Израел 1
изграждането 1
Двамата 1
бъ@@ 1
проекти 1
лесно 1
източник 1
крайбрежие 1
вина 1
теле@@ 1
зъм 1
поход 1
Национален 1
каза 1
ности 1
селището 1
джа@@ 1
чо@@ 1
нямат 1
предизвиква 1
1911 1
постига 1
Хесен 1
тен@@ 1
осигурява 1
сър@@ 1
ул 1
образованието 1
ин 1
специалност 1
рали 1
ена 1
лар@@ 1
независимост 1
36 1
затвора 1
обявен 1
старо@@ 1
фер@@ 1
тежки 1
събира 1
34 1
Долна 1
коло@@ 1
притежава 1
общ 1
1902 1
Край@@ 1
югозапад 1
друго 1
лки 1
науките 1
Георгиев 1
флота 1
Малко 1
Мюнхен 1
граждани 1
правата 1
Гар@@ 1
Климент 1
руските 1
1907 1
главната 1
завър@@ 1
Хенри 1
ителните 1
машини 1
Нидерландия 1
Христос 1
лице 1
изъм 1
преподавател 1
рина 1
Петров 1
Ф 1
бойни 1
медал 1
убийството 1
членовете 1
мени 1
Адолф 1
рово 1
вич 1
зация 1
вариант 1
улица 1
они 0.9057117229904011
хил. 1
Голямата 1
увеличава 1
Кънчов 1
вин 1
владетел 1
Кръ@@ 1
архитектура 1
открита 1
размер 1
тния 1
ски@@ 1
Гри@@ 1
пен 1
Коста 1
ранните 1
главата 1
1909 1
ващата 1
мира 1
поне 1
няват 1
силата 1
преда@@ 1
зимата 1
amp 0.18139709895371253
сов 1
Вар@@ 1
рио@@ 1
Стоян 1
планини 1
федерация 1
народна 1
олимпийски 1
Вътрешната 1
бизнес 1
зан 1
династията 1
120 1
ширина 1
автори 1
национално 1
свет@@ 1
стар@@ 1
сан 1
Тра@@ 1
ган@@ 1
функции 1
гор@@ 1
инструменти 1
пове@@ 1
войските 1
Част 1
залива 1
стки 1
къщата 1
Милано 1
вно 1
загуби 1
произведен 1
арестуван 1
Португалия 1
преминават 1
Европейския 1
противо@@ 1
зира 1
Словения 1
Кре@@ 1
Въз@@ 1
избухването 1
отборът 1
пръ@@ 1
Атанас 1
запазени 1
Насау 1
дърво 1
култури 1
хра@@ 1
Скоро 1
Гро@@ 1
технически 1
1885 1
пет@@ 1
600 1
дис 1
единственият 1
съдържание 1
так@@ 1
Антон 1
мер 1
ум@@ 1
радио 1
Вол@@ 1
Конго 1
Тан@@ 1
1873 1
Втора 1
Ла 1
смър@@ 1
дин 1
жни 1
нически 1
устройство 1
наблюдава 1
Виктор 1
езера 1
подобно 1
въпрос 1
55 1
бира 1
старата 1
кси@@ 1
тур@@ 1
чужбина 1
ителната 1
Цариград 1
участник 1
бежанци 1
жите 1
гар@@ 1
ческите 1
подготовка 1
целта 1
дей@@ 1
търси 1
бле@@ 1
мар 1
моно@@ 1
пояснение 1
орган 1
поставени 1
Съвета 1
придобива 1
Йе@@ 1
Велико 1
нев 1
Численост 1
тя@@ 1
кралица 1
&#124; 0.43001599670132373
накрая 1
съветник 1
съветски 1
кръст 1
стопанство 1
ей 1
Херман 1
слабо 1
твърде 1
Среща 1
Бавария 1
дебютира 1
закон 1
Анти@@ 1
Майкъл 1
ванията 1
повърхността 1
Ев@@ 1
национални 1
водите 1
турци 1
дейности 1
приемат 1
програми 1
бал@@ 1
кар 1
категория 1
статии 1
ученици 1
македоно 1
жна 1
крайцер 1
щето 1
местен 1
процеса 1
Ирландия 1
Оскар 1
йският 1
Руско 1
единици 1
обществото 1
партии 1
експедиция 1
звезда 1
Кралство 1
начало 1
броят 1
звание 1
лс 1
фестивал 1
журналист 1
медицина 1
онова 1
текст 1
смятат 1
Методий 1
ара 1
в. 1
рос 1
Виетнам 1
национална 1
музикални 1
изо@@ 1
37 1
архиепископ 1
американския 1
рай@@ 1
такава 1
Лос 1
Сти@@ 1
етап 1
любов 1
всъщност 1
ръка 1
тър 1
използвана 1
метод 1
играч 1
нина 1
Уи@@ 1
компании 1
изиграва 1
спи@@ 1
изборите 1
майстор 1
ничен 1
ционните 1
жава 1
малките 1
мили@@ 1
Белград 1
тима 1
ян@@ 1
Националния 1
промяна 1
характеристики 1
зани 1
скали 1
границите 1
дру@@ 1
Стоянов 1
Норвегия 1
Съветския 1
включени 1
бели 1
градче 1
добро 1
Кла@@ 1
Николов 1
ета 1
отделя 1
тори 1
вка 1
водни 1
дължи 1
1901 1
ву@@ 1
предава 1
42 1
времена 1
Чер@@ 1
бо 1
мисия 1
лек@@ 1
мон@@ 1
помощник 1
последният 1
май@@ 1
ляв 1
отбори 1
пуснат 1
турците 1
джа 1
Стан@@ 1
гот@@ 1
анд@@ 1
дове 1
Кали@@ 1
знак 1
ители 1
атака 1
нов@@ 1
разделя 1
второ 1
династия 1
специални 1
250 1
неговият 1
VIII 1
ец 1
Бил 1
вин@@ 1
приблизително 1
Босна 1
сед@@ 1
функция 1
чева 1
десен 1
културно 1
I. 0.932983798467098
Въл@@ 1
ческото 1
ЦК 1
борбата 1
сръбски 1
им@@ 1
новото 1
нас 1
Института 1
едноименния 1
елемент 1
запознава 1
предполага 1
базата 1
въстанието 1
самолети 1
пазар 1
принуден 1
вра@@ 1
гия 1
Жи@@ 1
дения 1
кин 1
сата 1
ваните 1
движението 1
лност 1
убити 1
братята 1
островите 1
работ@@ 1
бах 1
силите 1
Баден 1
бой 1
свързан 1
ход 1
дар@@ 1
пример 1
думата 1
дин@@ 1
изви@@ 1
свързана 1
отговаря 1
управител 1
Окръг 1
конфликт 1
Дж@@ 1
играта 1
изкуства 1
равнина 1
чният 1
Кюстендил 1
изглежда 1
лови 1
Дю@@ 1
кино@@ 1
Бен@@ 1
Х 1
двора 1
сценарий 1
Дей@@ 1
is 0.012641050788215598
ителите 1
световно 1
освободен 1
певица 1
Ран@@ 1
жено 1
повод 1
единица 1
бли@@ 1
избира 1
пти@@ 1
кат 1
Както 1
логи@@ 1
Р 1
Кам@@ 1
прове@@ 1
списък 1
местното 1
нето 1
Ну@@ 1
отбраната 1
слу@@ 1
вало 1
сцената 1
два@@ 1
Асен 1
Кли@@ 1
създадени 1
фен 1
кур@@ 1
писмо 1
замъка 1
Сър@@ 1
пол 1
Же@@ 1
Ам@@ 1
65 0.7139316904351914
епизод 1
спечели 1
Съединени 1
e@@ 0.26088789076127905
Ричард 1
Тър@@ 1
четири@@ 1
Бъ@@ 1
Перу 1
вол@@ 1
тното 1
Джо@@ 1
Шу@@ 1
смисъл 1
новски 1
оставя 1
Списък 1
же 0.38987681337523183
кампания 1
светлина 1
частично 1
клон 1
завръщането 1
чава 1
отговор 1
т. 1
1895 1
западните 1
драма 1
ед@@ 1
морето 1
трудно 1
кове 1
дат 1
публикуван 1
игра@@ 1
нощта 1
църкви 1
Нико@@ 1
ун@@ 1
долина 1
M@@ 0.19219659667489844
пъл@@ 1
Кай@@ 1
лети 1
Андрей 1
основна 1
кло@@ 1
знае 1
лово 1
мини 1
графство 1
дълга 1
мачове 1
мини@@ 1
болница 1
дър 1
чани 1
космически 1
ствено 1
главните 1
пли@@ 1
памет 1
притоци 1
Плевен 1
запазва 1
фамилия 1
Рудолф 1
прием@@ 1
мат@@ 1
покри@@ 1
рено 1
лъчеперка 1
тира@@ 1
офицери 1
изпълняват 1
сберг 1
джи 1
разкази 1
строителството 1
тина 1
дал 1
империята 1
био@@ 1
граници 1
второто 1
физика 1
вещества 1
испански 1
Гла@@ 1
дълго@@ 1
издига 1
пътища 1
френската 1
плани@@ 1
Л 1
възможността 1
народ 1
позиции 1
спе@@ 1
южните 1
дадена 1
мили 1
пя@@ 1
оп@@ 1
Същата 1
пехотна 1
око@@ 1
политиката 1
йл 1
см 1
Област 1
мир@@ 1
Получава 1
борда 1
вре@@ 1
Вашингтон 1
Сен 1
лов@@ 1
екзархия 1
Сейнт 1
нени 1
удар 1
кин@@ 1
традиция 1
1896 1
йо@@ 1
родителите 1
гръ@@ 1
съдове 1
дка 1
Битоля 1
северните 1
E@@ 0.2034836582507492
Петербург 1
приятели 1
Христов 1
кани 1
Габрово 1
доктор 1
веднъж 1
световен 1
сел@@ 1
достъп 1
художествена 1
символ 1
ръцете 1
ца@@ 1
нение 1
инди@@ 1
фелд 1
дже@@ 1
водосборния 1
полза 1
Ана@@ 1
лева 1
ге 1
състезания 1
дните 1
определят 1
държи 1
Българска 1
Кипър 1
диалект 1
мна 1
тежко 1
методи 1
дор 1
Зи@@ 1
тивна 1
изисква 1
бни 1
Пен@@ 1
временно 1
технологии 1
B 0.26688941841384156
нения 1
щият 1
нер@@ 1
стът 1
Тро@@ 1
надпис 1
4@@ 0.6523692057991265
Дания 1
вкарва 1
еми 1
стан@@ 1
вените 1
Луис 1
банка 1
текстове 1
дебют 1
американските 1
природата 1
стари 1
Лин@@ 1
Северен 1
лист 1
нението 1
Групата 1
ар 1
ску@@ 1
нено 1
популярност 1
важен 1
мно 1
лация 1
домакинства 1
ниска 1
двор 1
ВМРО 1
европейските 1
пор@@ 1
събират 1
жанра 1
изпра@@ 1
останали 1
Черна 1
конкурс 1
благо@@ 1
ква@@ 1
Бол@@ 1
опълчение 1
форд 1
Тер@@ 1
горната 1
дол 1
плъ@@ 1
коре@@ 1
ут@@ 1
лагер 1
гау 1
раст@@ 1
дов 1
музикален 1
броне@@ 1
навлиза 1
Гре@@ 1
директно 1
процеси 1
свири 1
чето 1
Венеция 1
Ван@@ 1
кат@@ 1
сле@@ 1
Черно 1
тече 1
1899 1
дан@@ 1
менти 1
двигател 1
трима 1
лечение 1
романи 1
Йосиф 1
Кристиан 1
Малайзия 1
корабите 1
независимо 1
свобода 1
транспорт 1
Ей@@ 1
признава 1
институции 1
пътува 1
курс 1
мести 1
поло@@ 1
Или@@ 1
звезди 1
операции 1
научна 1
Анджелис 1
Често 1
интернет 1
Бел@@ 1
природни 1
рий@@ 1
карта 1
внимание 1
ensis 1
ръководство 1
споразумение 1
лос 1
наука 1
промишленост 1
трябвало 1
тар@@ 1
мент 1
800 1
ae 0.6768535528139127
Санкт 1
археологически 1
криза 1
сови 1
ковски 1
самата 1
ьор 1
У 1
Йордан 1
Тру@@ 1
бур@@ 1
копия 1
лу 1
опити 1
загуба 1
военната 1
какво 1
кули 1
Няколко 1
Йозеф 1
широка 1
разстояние 1
останки 1
стън 1
задача 1
трона 1
японски 1
Кро@@ 1
следи 1
Мен@@ 1
услуги 1
уче@@ 1
млади 1
Римска 1
излъчва 1
инженер 1
Каролина 1
Мер@@ 1
преврат 1
нищо 1
окончателно 1
определена 1
третата 1
ото 1
едни 1
тръ@@ 1
Зо@@ 1
латински 1
огън 1
Сла@@ 1
Сити 1
ради@@ 1
Лан@@ 1
48 0.9702494840926185
мена 1
слав 1
старши 1
джиев 1
C@@ 0.19083979133950196
праз@@ 1
купа 1
Мин@@ 1
кг 1
um 0.11114849356385029
класи@@ 1
насочва 1
реали@@ 1
събор 1
ЕС 1
$ 0.19886057274005695
Агнес 1
Джи@@ 1
наличието 1
сериозно 1
хро@@ 1
Уе@@ 1
идеи 1
чак 1
бъл 1
жп 1
ланд@@ 1
44 0.8563208073581728
1876 1
жка 1
зони 1
Ска@@ 1
жение 1
Вай@@ 1
бан 1
Тайланд 1
Световната 1
пълно@@ 1
финал 1
команд@@ 1
малкото 1
няване 1
силен 1
засе@@ 1
транс@@ 1
мощност 1
она 0.5878638430093422
модели 1
39 1
парламент 1
ата@@ 1
рев@@ 1
съпротива 1
течението 1
ционната 1
граничи 1
климат 1
предаване 1
Само 1
Със 1
рания 1
високите 1
разглежда 1
нарежда 1
влиянието 1
чност 1
мни 1
ител@@ 1
клетки 1
3@@ 0.71609794463256
кият 1
Симеон 1
1894 1
издания 1
сена 1
рак@@ 1
Само@@ 1
Ловеч 1
Шумен 1
x 0.4104486199590398
ващия 1
направени 1
трета 1
Син 1
Сирия 1
лог 1
дружина 1
герои 1
икономиката 1
Шарл 1
газ 1
41 1
омъжена 1
зло@@ 1
участък 1
вци 1
ление 1
бившия 1
мото 1
Анхалт 1
Бур@@ 1
Ля@@ 1
пите 1
Пър@@ 1
кандидат 1
Вен@@ 1
зо 1
Попов 1
иде@@ 1
органи 1
Югоизточна 1
картини 1
земите 1
изграден 1
все@@ 1
основано 1
художници 1
имената 1
самият 1
твър@@ 1
Ханс 1
нин@@ 1
киселина 1
важните 1
анализ 1
третия 1
проблем 1
цо@@ 1
връзката 1
къл 1
обез@@ 1
шър 1
Бело@@ 1
Охридски 1
въл@@ 1
листа 1
тирани 1
продуцент 1
Хърватия 1
бю@@ 1
факта 1
ционния 1
ели@@ 1
V@@ 0.18894652483943666
различен 1
арабски 1
построени 1
стен@@ 1
труда 1
Армения 1
ствените 1
женен 1
наследява 1
лския 1
стар 1
Й@@ 1
Маргарета 1
Дължината 1
гимназията 1
тият 1
връ@@ 1
лира 1
познат 1
послед@@ 1
A@@ 0.1685611929790248
махала 1
обявена 1
писатели 1
стични 1
далеч 1
даде 1
43 1
мати@@ 1
sa 0.10744460344328852
качеството 1
науката 1
стои 1
Ал 1
рас@@ 1
B@@ 0.14222549011040997
въздуха 1
бял 1
цо 1
Бранденбург 1
известния 1
създаде 1
Нор@@ 1
Ангел 1
Танзания 1
населени 1
стват 1
0@@ 1
бреговете 1
мор@@ 1
Вюртемберг 1
научен 1
изградени 1
изве@@ 1
песните 1
1880 1
1898 1
XIV 1
Мадрид 1
Прага 1
мъж 1
Луиза 1
Тай@@ 1
T@@ 0.1458432283760185
посредством 1
приета 1
лено 1
нор@@ 1
пен@@ 1
1897 1
XVIII 1
асоциация 1
Съществуват 1
дски 1
ито 1
градина 1
Битката 1
Вой@@ 1
Заради 1
кти@@ 1
международен 1
съдържат 1
ресурси 1
левия 1
плоча 1
съвместно 1
Ной@@ 1
държавна 1
вътрешните 1
тивни 1
Кле@@ 1
деня 1
щи@@ 1
дъл@@ 1
to 0.005070517531492107
Све@@ 1
осъден 1
поставен 1
мало@@ 1
устройства 1
разпространение 1
външните 1
ент@@ 1
опита 1
8@@ 0.7297041217960036
маркграф 1
някой 1
решават 1
лати@@ 1
Лай@@ 1
мит@@ 1
нео@@ 1
поставят 1
английския 1
годишната 1
основател 1
откриват 1
ун 1
S@@ 0.133258336750038
цът 1
Кол@@ 1
кали@@ 1
Локомотив 1
Основните 1
държавни 1
сната 1
императора 1
47 1
жават 1
закона 1
Сар@@ 1
пис@@ 1
тим 1
коми@@ 1
Македоно 1
сражение 1
Всяка 1
Торино 1
зъ@@ 1
награден 1
синът 1
лидер 1
пропаганда 1
Популацията 1
композитор 1
ляне 1
народи 1
обита@@ 1
калибър 1
турне 1
Виктория 1
тират 1
тегло 1
вните 1
доби@@ 1
Играе 1
ети@@ 1
продава 1
почи@@ 1
създа@@ 1
пилот 1
обя@@ 1
Св. 1
Майка 1
седмица 1
стените 1
приложение 1
възниква 1
одринска 1
последователно 1
подоб@@ 1
алното 1
” 0.1435088492043677
обе@@ 1
стър@@ 1
Ала@@ 1
напрежение 1
прода@@ 1
сва@@ 1
длъжността 1
забра@@ 1
гел 1
Ау@@ 1
цял 1
Пол@@ 1
шат 1
йс 1
пови@@ 1
ьор@@ 1
налягане 1
решения 1
учен 1
десетилетия 1
първенството 1
Али@@ 1
ъгъл 1
бол@@ 1
предмети 1
чичо 1
Сте@@ 1
кара@@ 1
формира 1
тска 1
L@@ 0.13671033064566032
Чехия 1
Черно@@ 1
мал@@ 1
рик 1
тис 1
средната 1
Всеки 1
въоръжени 1
продължи 1
реш@@ 1
йно 1
теми 1
ителят 1
техния 1
Ян 1
включен 1
летище 1
професионален 1
Бай@@ 1
военно@@ 1
артилерийски 1
водещ 1
хан@@ 1
бозайник 1
нива 1
принадлежи 1
отделение 1
вследствие 1
договора 1
линг 1
Лъ@@ 1
самолет 1
пода@@ 1
Ара@@ 1
версии 1
диаметър 1
другата 1
бен@@ 1
нична 1
повърхност 1
покрай 1
допълнително 1
ков@@ 1
контрола 1
стата 1
довежда 1
самолета 1
Средна 1
ане 1
ора 1
тивно 1
оттегля 1
поколение 1
имал 1
лични 1
продъл@@ 1
съобщава 1
горски 1
ителното 1
малката 1
социални 1
бей 1
патриаршия 1
яна 1
край@@ 1
чар@@ 1
подкрепя 1
ефект 1
мет@@ 1
силни 1
ърс 1
atus 1
кино 1
различна 1
пее 1
ниски 1
IX 1
поведение 1
Пал@@ 1
каза@@ 1
1890 1
оказват 1
съществуването 1
Санта 1
стика 1
1500 1
изучава 1
ите@@ 1
излъчване 1
започне 1
рии 1
самото 1
дотогава 1
колкото 1
принцип 1
Международната 1
морска 1
нараства 1
поезия 1
фонд 1
n 0.21527238933192527
митология 1
продукт 1
световното 1
Пор@@ 1
деление 1
опера 1
пуска 1
многобройни 1
Сре@@ 1
дълъг 1
оръжия 1
роман@@ 1
черно@@ 1
Втори 1
теорията 1
гене@@ 1
лицето 1
провинции 1
окръга 1
уда@@ 1
излизат 1
титли 1
Судан 1
пазара 1
хар@@ 1
графски 1
завод 1
1879 1
двореца 1
ду 1
единствен 1
заемат 1
кле@@ 1
ранен 1
състезание 1
четирите 1
1891 1
Дар@@ 1
меди@@ 1
изя@@ 1
64 0.7023596514756881
есте@@ 1
идея 1
свързано 1
Все 1
авто@@ 1
йка 1
рява 1
видео 1
разделят 1
Затова 1
отношенията 1
щава 1
700 1
ническа 1
нят 1
средна 1
търговията 1
XVI 1
Поп@@ 1
шкото 1
командване 1
52 0.9586479188935529
камъни 1
съм 1
янето 1
приключва 1
управля@@ 1
бер 1
гер@@ 1
ръко@@ 1
тиран 1
́ 0.2879948563576569
спира 1
D@@ 0.14171855542140618
зва@@ 1
наслед@@ 1
химия 1
P@@ 0.14131559386991654
Чрез 1
мерки 1
Световното 1
дената 1
липсата 1
собствена 1
тично 1
план@@ 1
тай@@ 1
колек@@ 1
думите 1
ранг 1
лат@@ 1
право@@ 1
ета@@ 1
Херцеговина 1
знаме 1
скоростта 1
kg 1
бар 1
десния 1
Брауншвайг 1
Народно 1
Ръ@@ 1
длъжност 1
индустрия 1
сел 1
Неговият 1
Сливен 1
Хаджи@@ 1
Хан@@ 1
единствената 1
скри@@ 1
Бро@@ 1
Бог 1
етаж 1
Пара@@ 1
наричана 1
широк 1
бори 1
събитие 1
съпруг 1
Тар@@ 1
землището 1
Катарина 1
планините 1
тически 1
Неапол 1
въвежда 1
момента 1
пътна 1
Българското 1
публикувани 1
t 0.16069506997084682
кер@@ 1
отбрана 1
лии 1
нични 1
одринското 1
стката 1
народни 1
оста@@ 1
резултати 1
низи@@ 1
дели 1
икони 1
хал@@ 1
Прусия 1
обръща 1
стария 1
Цезар 1
гнат 1
забележителности 1
Албумът 1
консу@@ 1
пис 1
стартира 1
Мала 1
депутат 1
пристанище 1
Тор@@ 1
интер@@ 1
тиране 1
фигури 1
1870 1
Венецуела 1
ево 1
откриването 1
историк 1
Основната 1
двойки 1
колеж 1
музикална 1
чване 1
фон@@ 1
убива 1
лай@@ 1
лар 1
частни 1
предвид 1
рит 1
варира 1
откри@@ 1
откъдето 1
свойства 1
македонски 1
нато 1
монети 1
падането 1
проте@@ 1
ъри 1
O@@ 0.15941416831652752
вели@@ 1
дъщери 1
Народна 1
Теодор 1
вземат 1
лър 1
местния 1
писателка 1
ил 1
тан 1
тена 1
днешна 1
значителни 1
шни 1
нало@@ 1
средното 1
46 0.9842035960914703
ана 1
научно 1
хаузен 1
o@@ 0.21829582805013908
воде@@ 1
жки 1
световната 1
прие@@ 1
принос 1
Доб@@ 1
архитект 1
жената 1
тежка 1
Освобождението 1
студиен 1
Междувременно 1
фри@@ 1
настоя@@ 1
Вра@@ 1
северозападно 1
тическа 1
успехи 1
Ос@@ 1
ливи 1
златен 1
протежение 1
западния 1
певец 1
тръгва 1
ненията 1
телевизионен 1
седалище 1
яни 1
конференция 1
разделени 1
риа@@ 1
Песента 1
l 0.06831376870753977
самостоятелно 1
Дър@@ 1
девет 1
дървета 1
религиозни 1
търсене 1
85 1
парламента 1
Спартак 1
дорф 1
евреи 1
позна@@ 1
тивен 1
1893 1
раща 1
Следва 1
Василий 1
важно 1
зае@@ 1
отличава 1
Ново@@ 1
купата 1
причи@@ 1
ХХ 1
близки 1
последното 1
класира 1
разви@@ 1
тичната 1
Ню@@ 1
извършват 1
присъ@@ 1
средство 1
центрове 1
Марко 1
дар 1
сер@@ 1
чението 1
любовта 1
нович 1
прото@@ 1
съюз@@ 1
християнски 1
германските 1
решението 1
зацията 1
случая 1
условията 1
9@@ 0.6865574918285224
наречени 1
хо 1
Мишев 1
протича 1
третият 1
фил@@ 1
чево 1
оглавява 1
италианския 1
ращ 1
ствената 1
чан@@ 1
Али 1
бек 1
производ@@ 1
чено 1
1889 1
a@@ 0.30868236072272637
издадени 1
Мит@@ 1
пълна 1
сните 1
Книгата 1
гов 1
пълно 1
ровка 1
гло@@ 1
отделните 1
ад@@ 1
галерия 1
зву@@ 1
кол@@ 1
оркестър 1
СС 1
растение 1
рев 1
Коло@@ 1
мюсюлмани 1
1892 1
кер 1
лей@@ 1
мей@@ 1
секретаря 1
Еквадор 1
дри@@ 1
Хал@@ 1
съвсем 1
лист@@ 1
риба 1
Петко 1
Фло@@ 1
ляват 1
съвременните 1
1886 1
ански 1
сп@@ 1
бор 1
източните 1
лон@@ 1
югозападно 1
бел 1
най@@ 1
опитват 1
появата 1
допълнителни 1
студенти 1
Въ@@ 1
Ол@@ 1
Ян@@ 1
революционен 1
тон@@ 1
C. 0.5107104826340669
живопис 1
басейни 1
задачи 1
издигнат 1
изобраз@@ 1
кам@@ 1
кен@@ 1
концерти 1
ура 1
етата 1
Богородично 1
алния 1
силна 1
предаването 1
ходът 1
малкия 1
мери@@ 1
глас 1
пряко 1
кро@@ 1
списъка 1
тация 1
берт 1
ционно 1
Пфалц 1
кър 1
стоки 1
L 0.26415007848534744
автомобили 1
отбеля@@ 1
подава 1
евро 1
ток 1
анали@@ 1
Български 1
Внук 1
нос@@ 1
патриарх 1
прав@@ 1
теоре@@ 1
живо 1
провинцията 1
Хор@@ 1
зат@@ 1
изследва 1
пояс 1
Последният 1
кръсто@@ 1
сектор 1
служители 1
сне@@ 1
храни 1
ia 0.26096652356127414
общи 1
Демократична 1
Сицилия 1
отне@@ 1
Може 1
напред 1
она@@ 1
подкрепата 1
политическата 1
уд 1
Чили 1
графи@@ 1
капацитет 1
произ@@ 1
1881 1
Гю@@ 1
кру@@ 1
наричани 1
официален 1
уби@@ 1
демокра@@ 1
отхвър@@ 1
културни 1
живе@@ 1
катедралата 1
прави@@ 1
случва 1
изва@@ 1
предизви@@ 1
изпълнението 1
Семейство 1
британската 1
чет@@ 1
недо@@ 1
комедия 1
невро@@ 1
проучвания 1
скъ@@ 1
Полу@@ 1
дале@@ 1
използва@@ 1
опи@@ 1
гро@@ 1
екипа 1
сна@@ 1
XVII 1
Косово 1
кос 1
яр@@ 1
бяга 1
слой 1
g 0.3117686404443048
Кения 1
фло@@ 1
Академията 1
администрация 1
криста@@ 1
сан@@ 1
карти 1
комунистическа 1
7@@ 0.6170161999013684
нис 1
развиват 1
рите@@ 1
УЕФА 1
зависи 1
инвести@@ 1
54 1
графия 1
концерт 1
сцени 1
Видин 1
Холандия 1
пости@@ 1
кана 1
ъм 1
видни 1
льо 1
БАН 1
раждането 1
сума 1
тел@@ 1
76 1
малкият 1
чин@@ 1
състезава 1
тран@@ 1
Улрих 1
котловина 1
K@@ 0.1390122638306677
o 0.07604099873125386
Пиер 1
помежду 1
проявява 1
разгле@@ 1
стер@@ 1
шно 1
германската 1
мъжка 1
напусне 1
дната 1
кате@@ 1
пока@@ 1
съда 1
Кат@@ 1
идват 1
1884 1
Джу@@ 1
Тексас 1
лат 1
мат 1
парка 1
тю@@ 1
грижи 1
дебелина 1
нската 1
паметници 1
воден 1
рисува 1
стин@@ 1
Наполеон 1
вид@@ 1
печелят 1
фрайхер 1
значителна 1
обществени 1
поставена 1
ученик 1
произведение 1
1883 1
обучението 1
разкрива 1
рес 1
термин 1
Две 1
къл@@ 1
нд 1
популярни 1
шкия 1
сар@@ 1
пан 1
наши 1
относително 1
югоизточно 1
Средната 1
дадено 1
метро@@ 1
шампионат 1
вълна 1
Стро@@ 1
56 1
лун@@ 1
пое@@ 1
желание 1
зар 1
преговори 1
специален 1
Фла@@ 1
ема 1
крило 1
пом@@ 1
сор@@ 1
супер@@ 1
йците 1
начина 1
ниско 1
висше 1
състезанието 1
тру@@ 1
чете 1
пена 1
плочи 1
3000 1
Дан@@ 1
мски 1
слава 1
дръ@@ 1
машина 1
спорт 1
дядо 1
представяне 1
Пъ@@ 1
армии 1
51 0.9178940374415288
пър@@ 1
чават 1
написана 1
обем 1
тар 1
ственото 1
on 0.01043874842628631
ителния 1
подобен 1
религия 1
родното 1
североизточно 1
F 0.38938810570315846
6@@ 0.5885752384091849
народа 1
съвременни 1
ров@@ 1
музея 1
цветове 1
Кю@@ 1
ита@@ 1
общата 1
Джовани 1
нг 1
взри@@ 1
рал@@ 1
шоу 1
възможности 1
вят 1
конструкция 1
товете 1
южния 1
глу@@ 1
долната 1
закони 1
османски 1
шите 1
Казахстан 1
просвет@@ 1
Финландия 1
правила 1
Але@@ 1
Ари@@ 1
влива 1
лет@@ 1
асистент 1
забав@@ 1
половината 1
стъп@@ 1
тс 1
Егейска 1
дията 1
присъства 1
предоставя 1
ствения 1
дълбоко 1
документ 1
вяр@@ 1
необходимо 1
тура 1
епизода 1
националната 1
тка 1
95 0.9876208220849635
Windows 1
съгласно 1
1860 1
НАСА 1
започ@@ 1
Френска 1
чисто 1
нивото 1
съвременната 1
базиран 1
мани@@ 1
напред@@ 1
хвър@@ 1
Административно 1
народно 1
човешки 1
творчеството 1
характерни 1
злато 1
посо@@ 1
нан 1
интереси 1
ствието 1
Еле@@ 1
Републикански 1
нския 1
източно@@ 1
Вел@@ 1
пери@@ 1
Река 1
атор 1
гат 1
допълнение 1
млад 1
горното 1
многократно 1
римската 1
ления 1
Грузия 1
противника 1
намаляване 1
щането 1
пристигат 1
удостоен 1
управ@@ 1
Шотландия 1
рих 1
електрически 1
верига 1
свободен 1
фигура 1
72 1
женията 1
итите 1
поро@@ 1
фирма 1
XV 1
играчи 1
създадено 1
гръцките 1
Фри@@ 1
мс 1
пат@@ 1
прило@@ 1
обо@@ 1
Византия 1
площад 1
направен 1
северния 1
бог 1
вди@@ 1
женски 1
представен 1
реакция 1
изда@@ 1
лив 1
липса 1
моби@@ 1
наем 1
ума 1
зен@@ 1
градска 1
Хъ@@ 1
гар 1
дизайн 1
тови 1
Молдова 1
Фил@@ 1
местност 1
нично 1
акт 1
изка@@ 1
сътрудник 1
Уелс 1
лката 1
околната 1
собствени 1
58 1
вали@@ 1
XII 1
Ели@@ 1
продукция 1
кис 1
оръдие 1
привлича 1
централна 1
Population 1
ането 1
шан@@ 1
Добруджа 1
оборудване 1
македонска 1
общински 1
световни 1
турата 1
жката 1
ов@@ 1
стична 1
Мир@@ 1
десетки 1
назначава 1
рей@@ 1
Без@@ 1
Тодоров 1
медицински 1
предлагат 1
вътрешността 1
марка 1
метъл 1
нико@@ 1
од@@ 1
политическите 1
I@@ 0.19700485799419376
активна 1
Лига 1
изразява 1
Гали@@ 1
вой@@ 1
черен 1
Macédoine 1
лей 1
плато 1
агенция 1
благород@@ 1
пълен 1
събитията 1
1,5 1
двигатели 1
люби@@ 1
снати 1
Chrétienne 1
Гру@@ 1
почетен 1
Благоевград 1
Носител 1
дати@@ 1
змът 1
кита@@ 1
площта 1
кт 1
огра@@ 1
1888 1
Вторият 1
корпуса 1
мнение 1
мъжете 1
пад@@ 1
французите 1
гледна 1
сли@@ 1
хор 1
възлиза 1
тела 1
Шан@@ 1
ел@@ 1
епохата 1
боя 1
дон 1
дейци 1
съоръжения 1
Европейската 1
Фер@@ 1
няването 1
предложение 1
шава 1
Смит 1
Шар@@ 1
фестивала 1
49 0.8805195830400587
Тео@@ 1
гориво 1
53 0.9877096068990721
Слънцето 1
собствен 1
тската 1
зма 1
издаването 1
Мей@@ 1
Хари 1
пиано 1
цу@@ 1
Над 1
жен@@ 1
кори@@ 1
публикувана 1
пари@@ 1
стрел@@ 1
читалище 1
Нови 1
оти@@ 1
чаване 1
явява 1
близък 1
четвърти 1
Ана 1
зин@@ 1
известната 1
полицията 1
положението 1
фабрика 1
бин@@ 1
домакин@@ 1
Дом 1
ул@@ 1
екип 1
изпълнители 1
класацията 1
пе 1
уз@@ 1
стила 1
Златен 1
въздух 1
плодове 1
учители 1
Климатът 1
доказателства 1
пит@@ 1
Предполага 1
Спи@@ 1
допъл@@ 1
леко 1
посланик 1
Балканите 1
Мил@@ 1
лец 1
неин 1
мина 1
позицията 1
Григорий 1
ас 1
Голям 1
новият 1
ела 1
ене@@ 1
родо@@ 1
грани@@ 1
каменни 1
печат@@ 1
собственик 1
Ъ@@ 1
морския 1
обиколка 1
бие 1
представена 1
рота 1
Сергей 1
руска 1
5@@ 0.4697276307326613
апарат 1
биха 1
усилия 1
уч@@ 1
Северо@@ 1
свободно 1
нападение 1
червен 1
Золмс 1
Дитрих 1
вод@@ 1
германския 1
държат 1
произвеждат 1
Беларус 1
Рейн 1
защитник 1
непосредствено 1
Рей@@ 1
изграждане 1
нови@@ 1
0,@@ 1
цу 1
понеже 1
частици 1
Бла@@ 1
Благодарение 1
леви 1
достигне 1
мъжки 1
позволяват 1
синте@@ 1
G@@ 0.11828169170161577
Квинт 1
гост 1
d 0.06639939049278407
la 0.0039050796834608423
личности 1
бас 1
инициатива 1
чужди 1
Дру@@ 1
детска 1
нес 1
специална 1
жения 1
коп@@ 1
местната 1
Ган@@ 1
бена 1
мостта 1
Сградата 1
басейна 1
войската 1
низъм 1
претърпява 1
1848 1
популярен 1
сценарист 1
филмът 1
действията 1
зията 1
ъра 1
логията 1
Червената 1
едноименната 1
блок 1
Обединеното 1
ана@@ 1
гражданска 1
предприятия 1
сис 1
строителство 1
южна 1
тем@@ 1
входа 1
напускат 1
телевизионни 1
хла@@ 1
шата 1
Смята 1
автономен 1
XI 1
етите 1
Пиемонт 1
Юлий 1
нове 1
представени 1
поч@@ 1
1882 1
детски 1
Питър 1
бяха 1
контро@@ 1
Мери 1
изображения 1
литературата 1
настъпва 1
считат 1
Върховния 1
Целта 1
Враца 1
отваря 1
кост 1
пило@@ 1
рон@@ 1
сключва 1
наред 1
Бой@@ 1
орбита 1
характеризира 1
албан@@ 1
вска 1
гру@@ 1
структури 1
китара 1
стати@@ 1
аси@@ 1
Горно 1
вниманието 1
златни 1
1871 1
рил 1
68 1
F@@ 0.12263917488499985
врата 1
демо@@ 1
финансови 1
y@@ 0.21778146291619171
брака 1
говорят 1
гръцкия 1
лизъм 1
XIII 1
гър 1
древните 1
Вероятно 1
календар 1
Гвиана 1
еца 1
срав@@ 1
фт 1
Зеландия 1
Флорида 1
енерги@@ 1
нации 1
сериозни 1
ход@@ 1
Сал@@ 1
артилерия 1
вява 1
знание 1
нощ 1
Аделхайд 1
1887 1
Източен 1
ракети 1
57 0.9788998961024674
топ@@ 1
географски 1
издават 1
Адам 1
дово 1
построява 1
N 0.39700085331237894
Киев 1
Личен 1
плу@@ 1
транспор@@ 1
филология 1
шна 1
шест@@ 1
театъра 1
Ирак 1
оставка 1
поко@@ 1
тския 1
екипажа 1
имперски 1
Неговата 1
изго@@ 1
математика 1
нагоре 1
основите 1
свеще@@ 1
1,@@ 0.7390268021622524
Пакистан 1
Пат@@ 1
загива 1
историческа 1
растителност 1
въз 1
червено 1
вземе 1
доброволци 1
Охрид 1
цена 1
аз 1
активни 1
Вит@@ 1
сно@@ 1
Понякога 1
секунди 1
Букурещ 1
Чо@@ 1
беля@@ 1
хер@@ 1
чва 1
кано@@ 1
премина@@ 1
работници 1
рец 1
Дон@@ 1
бащата 1
въпроса 1
държа@@ 1
лагане 1
активност 1
джамия 1
такова 1
жаване 1
низина 1
популярна 1
Ед@@ 1
традиции 1
уре@@ 1
Аб@@ 1
Три 1
римляните 1
цов 1
Ан 1
ту 0.837565624789218
Вил@@ 1
Гал@@ 1
властите 1
издателство 1
Да 1
Пазарджик 1
северна 1
63 1
дължината 1
Дон 1
вли@@ 1
минута 1
добива 1
духовник 1
разширява 1
киното 1
лев@@ 1
плат@@ 1
Гър@@ 1
вам 1
стабилна 1
стран@@ 1
футболна 1
Антонио 1
Спо@@ 1
икономическа 1
пределите 1
Си 1
кой 0.6840487400124923
ку 0.4798160369813002
180 1
вицата 1
изди@@ 1
природа 1
цикъл 1
числа 1
наименование 1
име@@ 1
практически 1
съхранява 1
1875 1
Дисни 1
газо@@ 1
пътуване 1
тиката 1
хай@@ 1
основателите 1
снимки 1
Кьолн 1
гард 1
доброто 1
носа 1
рови 1
Бю@@ 1
чов 1
S 0.36036819402935194
Емил 1
Кьо@@ 1
годишния 1
фин@@ 1
Обе@@ 1
Франк 1
действието 1
морската 1
тил 1
намери 1
ползва 1
трето 1
Основни 1
Холщайн 1
жо@@ 1
последен 1
празник 1
съседните 1
час 1
вар 1
ляни 1
възстановяване 1
температурата 1
Икономика 1
Сел@@ 1
изследовател 1
съл 1
Петков 1
британските 1
разнообразие 1
• 1
Вирджиния 1
братовчед 1
младите 1
формират 1
дол@@ 1
насо@@ 1
Друг 1
гласа 1
ръковод@@ 1
Международния 1
стоя@@ 1
зни 1
Главен 1
Историята 1
турска 1
вал@@ 1
изложби 1
състоя@@ 1
1872 1
инструмент 1
сова 1
строежа 1
гръцка 1
ителя 1
музикант 1
обяснява 1
Шо@@ 1
века 0.6302084789099266
планинска 1
самостоятелна 1
софтуер 1
Куба 1
Теле@@ 1
избор 1
функциона@@ 1
мати 1
полската 1
публиката 1
Хоенлое 1
музиканти 1
приложения 1
студио 1
агент 1
заболявания 1
слага 1
температури 1
лян 1
НАТО 1
връщат 1
действат 1
качества 1
ль@@ 0.5607496729704041
поддръжка 1
отдале@@ 1
съответствие 1
Авто@@ 1
римския 1
търговец 1
Максимилиан 1
независимостта 1
дие 1
източния 1
нататък 1
първо@@ 1
изнася 1
62 1
Злат@@ 1
Спа@@ 1
кап@@ 1
личен 1
название 0.883233243912453
ремонт 1
съставена 1
Кот@@ 1
дисертация 1
рийски 1
чувства 1
Висо@@ 1
кович 1
насам 1
корабо@@ 1
рио 1
посочва 1
построяването 1
хребет 1
лек 1
Боливия 1
ментът 1
фен@@ 1
Вин@@ 1
Пав@@ 1
видна 1
нените 1
помогне 1
H@@ 0.13108985483668303
френските 1
пря@@ 1
експлоатация 1
покрива 1
лична 1
Гло@@ 1
дото 1
извън@@ 1
оце@@ 1
Леополд 1
белите 1
напре@@ 1
племен@@ 1
адвокат 1
покрити 1
предварително 1
сет 1
66 0.9606504164970969
западно@@ 1
шампионата 1
бър 1
ули@@ 1
Рио 1
местности 1
долното 1
псевдонима 1
рам@@ 1
стване 1
участници 1
чане 1
Няма 1
мор 1
основаването 1
лит 1
свободна 1
стан 1
шоуто 1
Серия 1
индивиду@@ 1
приеме 1
фирмата 1
административно 1
ваме 1
нан@@ 1
обработка 1
поражение 1
тора 1
Истанбул 1
Организацията 1
ангажи@@ 1
доб@@ 1
дребни 1
разпространени 1
World 0.10229091000141141
Свет@@ 1
бург@@ 1
губят 1
звук 1
славянски 1
съединения 1
тният 1
Награди 1
Папуа 1
Мианмар 1
Пле@@ 1
обла@@ 1
организират 1
основават 1
почви 1
сията 1
Анри 1
Самият 1
Сен@@ 1
летни 1
спор@@ 1
телевизията 1
китайски 1
личност 1
етнически 1
ръце 1
физи@@ 1
общественик 1
израз@@ 1
доброволец 1
международно 1
полис 1
искат 1
къде 1
немския 1
Хуан 1
подножието 1
подобна 1
стотици 1
функционира 1
Неговите 1
поддържат 1
представят 1
щен 1
сек@@ 1
69 1
загубата 1
изи@@ 1
ия 1
мед 1
Варшава 1
включена 1
онлайн 1
парале@@ 1
You 0.4364516661896197
загиват 1
критика 1
помо@@ 1
торите 1
кот@@ 1
повторно 1
ничка 1
Марица 1
Чарлз 1
заве@@ 1
певицата 1
Юнайтед 1
вечер 1
датира 1
животните 1
изма 1
разделена 1
шките 1
дат@@ 1
ментите 1
поръ@@ 1
Би 1
жертви 1
Барселона 1
Известен 1
130 1
Карлос 1
Североизточна 1
гледа 1
социална 1
съпрово@@ 1
зина 1
леки 1
Михайлов 1
ващото 1
направление 1
срещата 1
изпълня@@ 1
британския 1
официални 1
проучване 1
Пло@@ 1
Хей@@ 1
културен 1
лива 1
намерени 1
състав@@ 1
черни 1
купува 1
рав@@ 1
сестри 1
Заема 1
Кир@@ 1
Мат@@ 1
активен 1
пони@@ 1
списания 1
албуми 1
лика 1
Франческо 1
заглавие 1
пресича 1
Бракът 1
спортни 1
вел 1
особености 1
Нов 1
вач 1
лността 1
службата 1
Дер@@ 1
Фран@@ 1
дра 1
имали 1
мит 1
общото 1
максимална 1
граф@@ 1
пал@@ 1
Войната 1
установяват 1
щение 1
останалата 1
разпространява 1
атаки 1
зване 1
майката 1
султан 1
гон 1
изследователи 1
метър 1
неутра@@ 1
5000 1
ай@@ 1
кто@@ 1
мната 1
простира 1
реч 1
свободата 1
Ломбардия 1
Стивън 1
данните 1
Тръ@@ 1
клубове 1
посветен 1
Публий 1
ам@@ 1
написва 1
номиниран 1
главна 1
книгите 1
лизация 1
заселват 1
коли 1
момиче 1
отраз@@ 1
обеди@@ 1
племе 1
Фили@@ 1
върховенството 1
излъчен 1
масово 1
s@@ 0.11080431225385733
стъл@@ 1
шена 1
Хр. 1
планове 1
присти@@ 1
Даниел 1
палуба 1
82 1
изключ@@ 1
лока@@ 1
реда 1
тво@@ 1
N@@ 0.1170056976578942
избрана 1
централен 1
Монтана 1
външната 1
обекта 1
Тю@@ 1
европейската 1
лежи 1
строй 1
Лазар 1
кари@@ 1
литературен 1
резиденция 1
хор@@ 1
Уилямс 1
съветските 1
хими@@ 1
ata 0.36750137520823845
контакт 1
къси 1
Интер@@ 1
Мел@@ 1
надолу 1
D 0.25663624646807265
комплек@@ 1
християнството 1
нация 1
женитба 1
околните 1
Използва 1
Македонската 1
виден 1
престола 1
Представлява 1
преброяванията 1
светлината 1
старото 1
1869 1
WWE 1
Военно@@ 1
Средновековието 1
войните 1
Народното 1
зана 1
Союз 1
гово 1
доведе 1
ут 1
Лий 1
богат 1
игрален 1
изпъл@@ 1
линген 1
разделен 1
сни@@ 1
‰ 1
1867 1
R@@ 0.11129049880762035
кола 1
научава 1
хите 1
1864 1
защитата 1
способността 1
поток 1
Основан 1
способност 1
фак@@ 1
ценни 1
физически 1
Йерусалим 1
мирен 1
Тихия 1
кв. 1
отве@@ 1
прекра@@ 1
яв@@ 1
обединение 1
пия 1
сии 1
Нем@@ 1
наб@@ 1
Джак 1
бла@@ 1
нет 1
оцен@@ 1
бой@@ 1
вдовица 1
региони 1
Атанасов 1
младия 1
нен@@ 1
разпростра@@ 1
вяват 1
южно@@ 1
Произлиза 1
отразява 1
сово 1
осигури 1
Том 1
външен 1
количества 1
споделя 1
превръщат 1
укреп@@ 1
Австро 1
вино 1
дефини@@ 1
крайцерите 1
приемането 1
убе@@ 1
чан 1
увеличаване 1
Панама 1
Съгласно 1
градския 1
съдбата 1
Изенбург 1
зер 1
съдия 1
110 1
вяра 1
суб@@ 1
съставлява 1
месе@@ 1
уско@@ 1
Уин@@ 1
италианската 1
модела 1
пома@@ 1
88 1
колони 1
сове 1
френска 1
Добрич 1
гон@@ 1
мрежи 1
Деца 1
лян@@ 1
Друга 1
Скот 1
международна 1
зират 1
псевдоним 1
Пише 1
описание 1
докторска 1
изку@@ 1
копи@@ 1
лож@@ 1
обича@@ 1
мандат 1
мащаб 1
морета 1
фактори 1
язовир 1
присъединяват 1
хва@@ 1
мова 1
стихове 1
съгла@@ 1
скала 1
Афганистан 1
Кристоф 1
ател 1
представителите 1
Йотинген 1
независима 1
n@@ 0.1530141222904927
електри@@ 1
племето 1
удъл@@ 1
Терминът 1
бавно 1
неща 1
редки 1
Алън 1
изпълнител 1
концер@@ 1
нама@@ 1
писателя 1
попадат 1
Пирин 1
класиране 1
морско 1
Хасково 1
зад@@ 1
конститу@@ 1
свър@@ 1
ске@@ 1
Закона 1
Словакия 1
бин 1
изчис@@ 1
характеристика 1
Мадагаскар 1
дух 1
конституция 1
чение 1
Успение 1
Флоренция 1
наречено 1
съставен 1
шо 1
очите 1
ката@@ 1
настъпление 1
Долно 1
Кърджали 1
Тайван 1
сърби 1
уме@@ 1
Еберхард 1
Луната 1
месеци 1
Оби@@ 1
батальон 1
горе@@ 1
лага 1
окръ@@ 1
качество 1
Погребан 1
дова 1
бяло 1
живо@@ 1
ливо 1
месо 1
богата 1
зем@@ 1
тическата 1
картина 1
ковци 1
подви@@ 1
жела@@ 1
сърцето 1
куп@@ 1
написан 1
нару@@ 1
Азербайджан 1
Мозамбик 1
Сталин 1
защо 1
лството 1
печат 1
1200 1
бойна 1
гръцкото 1
нец 1
рез@@ 1
Манчестър 1
Ранни 1
оните 1
разши@@ 1
рала 1
тясно 1
Адрианопол 1
Кос@@ 1
лагера 1
нска 1
възпита@@ 1
мора@@ 1
59 0.9381468602540649
i@@ 0.20522791729639697
бяла 1
вока@@ 1
врати 1
академи@@ 1
лият 1
щур@@ 1
160 1
Василев 1
гражданин 1
движения 1
енето 1
900 1
изпада 1
морското 1
психо@@ 1
учениците 1
мино@@ 1
Бей@@ 1
бездетен 1
вор@@ 1
Магдалена 1
периоди 1
предприема 1
p@@ 0.16083849201026576
колони@@ 1
лас 1
майстори 1
су 1
Дебютира 1
Милан 1
компози@@ 1
лета 1
мани 1
хит 1
вай@@ 1
ним 1
служат 1
Де 1
ждани 1
баро@@ 1
рението 1
топ 1
чът 1
бойните 1
желанието 1
събра@@ 1
уеб 1
експедицията 1
колежа 1
Дел@@ 1
Ком@@ 1
Франсоа 1
посветена 1
кция 1
планетата 1
обявено 1
отпечат@@ 1
тово 1
di 0.2910223040598896
тери@@ 1
еро@@ 1
етно@@ 1
записи 1
кет 1
ковите 1
пси@@ 1
свръх@@ 1
турнири 1
внук 1
глави 1
статия 1
h 0.20733630253958948
военното 1
жно 1
нау 1
осъ@@ 1
резултатите 1
схема 1
сце@@ 1
Класи@@ 1
ЮНЕСКО 1
авио@@ 1
пита@@ 1
римска 1
Жак 1
гръцко 1
налите 1
полиция 1
гане 1
гна@@ 1
дов@@ 1
ор 1
тал 1
яне 1
Любомир 1
възела 1
командва 1
избяга 1
ока@@ 1
рица 1
вътрешни 1
домини@@ 1
новете 1
публикации 1
1874 1
Едва 1
адмирал 1
градската 1
жът 1
зале@@ 1
различно 1
школата 1
Кул@@ 1
Пин@@ 1
Тъ@@ 1
дървени 1
милиарда 1
остане 1
отделен 1
славата 1
стрелба 1
кили@@ 1
плаване 1
селски 1
изкуствата 1
публично 1
ринг 1
установка 1
иму@@ 1
спорта 1
трилър 1
законодате@@ 1
срок 1
ѫ@@ 1
1868 1
Кристина 1
шната 1
изпълните@@ 1
йд 1
губернатор 1
конфликти 1
крайбрежието 1
лства 1
обкръ@@ 1
популярните 1
запис 1
мият 1
оба@@ 1
търсят 1
уе@@ 1
Максим 1
аеро@@ 1
денията 1
здраве 1
щението 1
Кен@@ 1
Ул@@ 1
дъното 1
мос 1
никой 1
нове@@ 1
Мари 1
Северозападна 1
вет@@ 1
изпратени 1
иконо@@ 1
прилага 1
званието 1
Именно 1
някога 1
сини 1
беле@@ 1
върнат 1
посе@@ 1
тенис 1
Кер@@ 1
Тем@@ 1
вий 1
67 0.939153299691134
местно 1
папата 1
синовете 1
огъня 1
водач 1
евреите 1
психология 1
1866 0.9216103587325152
Сим@@ 1
сре@@ 1
61 0.9325239302223803
Общата 1
еви 1
западна 1
наблюдават 1
Двете 1
мъжкото 1
сръбската 1
указ 1
Вели@@ 1
Народен 1
мисията 1
78 0.988544903372487
затворен 1
изме@@ 1
ес 1
конкурса 1
сенатор 1
херцо@@ 1
Нигерия 1
индустри@@ 1
ктори 1
приблизителна 1
Варнен@@ 1
Жу@@ 1
едната 1
използвайки 1
колекция 1
лекции 1
ситуация 1
употребата 1
Алберт 1
мел@@ 1
посочено 1
югоизточната 1
96 0.9654310374706693
Инди@@ 1
Макс 1
Френската 1
архив 1
принуждава 1
участия 1
Папа@@ 1
вит@@ 1
лън 1
моли 1
редовно 1
отборите 1
древно@@ 1
мър@@ 1
бул 1
каче@@ 1
лие 1
музикално 1
1861 1
Известни 1
състоянието 1
художника 1
Реал 1
екзархисти 1
нацията 1
Ерик 1
Доротея 1
меха@@ 1
спечелва 1
членки 1
произве@@ 1
сферата 1
разработва 1
същите 1
R 0.2657209029869976
Records 0.333438372114572
Ново 1
възра@@ 1
злат@@ 1
ов 1
Рика 1
литературни 1
полети 1
списанието 1
определено 1
публи@@ 1
Илиев 1
призна@@ 1
велик 1
серията 1
чуждестранни 1
биологи@@ 1
зрители 1
филмите 1
възстановява 1
кват 1
преобразу@@ 1
разположение 1
хов 1
шин@@ 1
вател 1
земеделието 1
отличие 1
съветската 1
2,5 1
Радо@@ 1
дипломат 1
македонския 1
мил 1
види 1
класически 1
проце@@ 1
факт 1
филмов 1
Перник 1
Люксембург 1
очаква 1
жната 1
издате@@ 1
непрекъснато 1
председателя 1
националните 1
разкри@@ 1
сво@@ 1
хия 1
quot 1
Сингапур 1
бани 1
департамент 1
ранени 1
Комисията 1
гео@@ 1
синове 1
крити@@ 1
риите 1
сми@@ 1
ІІ 1
Аз 1
другия 1
емост 1
окупи@@ 1
рас 1
турските 1
ходи 1
близките 1
въоръ@@ 1
основния 1
подготовката 1
днешния 1
историческата 1
немските 1
Имат 1
НС 1
възстановяването 1
двадесет 1
зали@@ 1
Цар@@ 1
отхвърля 1
цвет@@ 1
присъстват 1
щаба 1
Ел 1
социално 1
Кинг 1
избухва 1
стара 1
73 0.998378214625614
притежават 1
Вън@@ 1
гат@@ 1
Ори@@ 1
Стре@@ 1
чети 1
завършват 1
Джо 1
въглища 1
джаз 1
мисли 1
разнообразни 1
ранната 1
сексу@@ 1
щане 1
350 1
86 1
джър 1
мя@@ 1
органи@@ 1
отлич@@ 1
фер 1
Тран@@ 1
жертва 1
неза@@ 1
погре@@ 1
черно 1
княжество 1
крака 1
майки 1
ори@@ 1
дрехи 1
запазена 1
контроли@@ 1
различават 1
чват 1
АД 1
дина 1
написани 1
ническата 1
сков 1
Държавния 1
Едно 1
дълбока 1
Сед@@ 1
поме@@ 1
президентът 1
тията 1
фин 1
Откри@@ 1
истории 0.8060710594688724
писане 1
преводач 1
снима 1
Одрин 1
прието 1
чения 1
Уязвим 1
секс 1
бозайници 1
Ву@@ 1
Естония 1
връщане 1
състезател 1
Романът 1
дове@@ 1
преброяване 1
структурата 1
съеди@@ 1
търговска 1
реформи 1
извърш@@ 1
нич@@ 1
секре@@ 1
Ско@@ 1
баба 1
лека 1
натиск 1
проблемите 1
съзнание 1
Браун 1
Камерун 1
земеделски 1
проек@@ 1
Анге@@ 1
кел 1
лик 1
плен 1
Божи@@ 1
камера 1
пола 1
въгле@@ 1
клю@@ 1
обявяват 1
средно@@ 1
Фин@@ 1
гал 1
Мате@@ 1
обек@@ 1
заслуги 1
признание 1
реша@@ 1
Храмът 1
болести 1
зирани 1
опис@@ 1
служби 1
84 0.9792796967600236
Литва 1
двигателя 1
дели@@ 1
заболяване 1
околностите 1
отправя 1
Кана@@ 1
домакин 1
140 1
d@@ 0.14045100473187003
кана@@ 1
германците 1
разпада 1
твърдят 1
фина@@ 1
1863 1
98 0.9691620692845965
въоръжена 1
тила 1
гражданите 1
живи 1
замест@@ 1
иска@@ 1
Цър@@ 1
аб@@ 1
виждат 1
образ 1
произхожда 1
Лей@@ 1
Средиземно 1
тана 1
флу@@ 1
базилика 1
ней@@ 1
основното 1
пиеси 1
терен 1
цин 1
медии 1
Радио 1
лес 1
Ген@@ 1
бакалавърска 1
унищо@@ 1
водеща 1
наци@@ 1
спу@@ 1
хът 1
чил 1
атаку@@ 1
възвишение 1
лд@@ 1
надесет 1
подготвя 1
чените 1
79 1
Западен 1
грама 1
дълбо@@ 1
хранене 1
замяна 1
ничество 1
Густав 1
Македонски 1
занима@@ 1
родината 1
добавя 1
зването 1
нало 1
рам 1
съкра@@ 1
НО@@ 1
двойка 1
равно@@ 1
разпреде@@ 1
рекорд 1
участниците 1
Давид 1
Шуленбург 1
континента 1
ордена 1
помещения 1
туристически 1
административни 1
нападател 1
югозападната 1
графовете 1
правило 1
принудени 1
Герман@@ 1
Годи@@ 1
Държавната 1
Стар@@ 1
атакува 1
емигрира 1
кръв 1
стая 1
or@@ 0.15196308570681688
Алжир 1
заре@@ 1
лянето 1
посеща@@ 1
1850 1
Ата@@ 1
обединява 1
пистата 1
свързват 1
хърват@@ 1
държавната 1
зар@@ 1
мента 1
подчи@@ 1
станцията 1
Владислав 1
Хил@@ 1
взаимо@@ 1
съвременния 1
хер 1
74 0.9142615820525951
вътрешната 1
йци 1
самостоятелен 1
сва 1
чността 1
годишнината 1
открития 1
Чехословакия 1
дъщерята 1
миш@@ 1
обър@@ 1
полага 1
утвър@@ 1
вън 1
лято 1
нил 1
падат 1
съществу@@ 1
вки 1
графството 1
доцент 1
насекоми 1
прин@@ 1
шен@@ 1
1865 0.9822955902233043
джу@@ 1
комбинация 1
рекла@@ 1
албумът 1
движи 1
моста 1
огромен 1
стойности 1
Хан 1
съгласява 1
възник@@ 1
необходими 1
тат 1
чен@@ 1
заплаха 1
мал 1
отказват 1
продадени 1
Цар 1
английската 1
кучета 1
подход 1
Етиопия 1
преси@@ 1
сингъла 1
следват 1
Влиза 1
променят 1
сложни 1
Служи 1
Стой@@ 1
дипломирането 1
Почти 1
източна 1
естествено 1
линейни 1
свое 1
убийство 1
1830 1
вари@@ 1
повди@@ 1
постижения 1
самостоятелни 1
Драго@@ 1
Живо@@ 1
владения 1
коалиция 1
текста 1
Етнически 1
бележи 1
дере 1
изгражда 1
постоянен 1
търговци 1
Истори@@ 1
бит 1
вате@@ 1
йе@@ 1
мява 1
ника@@ 1
отнасят 1
традиционно 1
Атлантическия 1
исля@@ 1
кел@@ 1
Шарлота 1
гря@@ 1
дови 1
дят 1
поли 1
for 0.007569523672023228
Амалия 1
Епи@@ 1
знач@@ 1
Такива 1
вълни 1
диск 1
истински 1
пети 1
присъствие 1
спира@@ 1
Лен@@ 1
Раковски 1
немската 1
опазване 1
разкопки 1
торът 1
Княжество 1
граждански 1
обсадата 1
ранна 1
строеж 1
сухо@@ 1
херцогиня 1
Ангола 1
Връ@@ 1
Отборът 1
избират 1
топо@@ 1
Чикаго 1
главни 1
гъл 1
1800 1
Сестра 1
еврейски 1
обществено 1
пове 1
специалисти 1
масата 1
отец 1
цент@@ 1
Ямбол 1
североизточната 1
остро@@ 1
шия 1
Коле@@ 1
морските 1
нената 1
възможни 1
мисии 1
османските 1
потвърждава 1
произведени 1
Ден@@ 1
вещество 1
причината 1
психи@@ 1
y 0.0073689232055830275
Негов 1
гията 1
молба 1
туризъм 1
Арабия 1
древни 1
северозападната 1
умения 1
мента@@ 1
определя@@ 1
полузащитник 1
рид 1
успеха 1
цин@@ 1
ническо 1
отгле@@ 1
фентъзи 1
Лука 1
букви 1
завърши 1
международната 1
орът 1
днешно 1
ническия 1
операцията 1
рение 1
тност 1
нейният 1
вер 1
значителен 1
чик 1
ефекти 1
компютри 1
тоест 1
Свещената 1
заменен 1
териториите 1
известният 1
прекъс@@ 1
Зим@@ 1
Купа 1
интензи@@ 1
мпи@@ 1
философ 1
Love 0.44583420611267116
Бран@@ 1
вице@@ 1
идеите 1
измер@@ 1
наблюдение 1
Спор@@ 1
присъствието 1
Стари 1
кос@@ 1
организми 1
точ@@ 1
Барбара 1
Бого@@ 1
Симон 1
Хосе 1
канали 1
копа@@ 1
листи 1
лич@@ 1
сър 1
съществуване 1
in@@ 0.08077889920592547
Делчев 1
адапти@@ 1
визу@@ 1
зна 1
подвод@@ 1
трудо@@ 1
Шри 1
евски 1
корона 1
радика@@ 1
смесено 1
съпер@@ 1
богати 1
закри@@ 1
нс 1
станции 1
b 0.1966746215021075
Държавна 1
Камбоджа 1
завършен 1
ремон@@ 1
Министерство 1
гне 1
лето 1
разработ@@ 1
Представ@@ 1
ис@@ 1
рибо@@ 1
манд@@ 1
позната 1
ънс 1
Франциско 1
деното 1
напада 1
отделно 1
сили@@ 1
Бру@@ 1
Родопи 1
Юго@@ 1
лента 1
разузнаване 1
Готфрид 1
ваната 1
водени 1
електронни 1
лийски 1
листата 1
определяне 1
чество 1
посвещава 1
81 0.9329299903288566
Смо@@ 1
77 0.8895288872414366
бившата 1
военния 1
самите 1
Ербах 1
Кло@@ 1
участъци 1
лището 1
духов@@ 1
извори 1
корени 1
представи 1
ралните 1
хълма 1
векове 1
земни 1
мните 1
вилаетите 1
дението 1
коро@@ 1
Бат@@ 1
категории 1
курфюрст 1
притежа@@ 1
състоят 1
войниците 1
годишни 1
дил 1
мляко 1
подо@@ 1
последно 1
пто@@ 1
тримата 1
трудове 1
Творчество 1
автомати@@ 1
битки 1
вестници 1
мска 1
детето 1
лиев 1
пристигането 1
същевременно 1
технология 1
Хю@@ 1
отделят 1
пато@@ 1
черна 1
Древен 1
Национална 1
Оттогава 1
използвано 1
масло 1
наследници 1
огромни 1
федера@@ 1
Общината 1
Хоен@@ 1
жан@@ 1
кьой 1
облек@@ 1
Джоунс 1
Мета@@ 1
кожата 1
разказ 1
тик 1
c 0.18800058349123666
град@@ 1
средновековна 1
типове 1
торпе@@ 1
Илинденско 1
дю@@ 1
енберг 1
изложба 1
они@@ 1
сбург 1
свидетелства 1
стра 1
отразяваща 1
шън 1
c@@ 0.17210931246105146
ав@@ 1
драматичен 1
емите 1
зали 1
крат@@ 1
форми@@ 1
Нар@@ 1
квар@@ 1
неу@@ 1
побе@@ 1
Брюксел 1
Марс 1
Опера@@ 1
Подобно 1
Сил@@ 1
дружеството 1
иг@@ 1
католически 1
убие 1
зирана 1
кратък 1
нак 1
държавните 1
моти@@ 1
склон 1
общо@@ 1
английска 1
херцогство 1
Алфред 1
върш@@ 1
жу@@ 1
лем 1
политическо 1
ато 1
бът 1
наброява 1
преве@@ 1
Гоце 1
византийски 1
висши 1
публика 1
ралното 1
съдържанието 1
Мом@@ 1
автор@@ 1
дския 1
предмет 1
придоби@@ 1
Ката@@ 1
автомобил 1
лекар@@ 1
лските 1
ляване 1
никакви 1
равнище 1
чина 1
защит@@ 1
коли@@ 1
мотиви 1
ниската 1
черти 1
Бон@@ 1
Фол@@ 1
административна 1
армен@@ 1
допринася 1
естествени 1
катедрала 1
ковете 1
конструкцията 1
лацията 1
майсторство 1
направена 1
селското 1
сри@@ 1
DVD 0.6640317567934902
Македо@@ 1
графска 1
дес 1
нав@@ 1
ристи@@ 1
Монастир 1
отде@@ 1
Марков 1
грамо@@ 1
налата 1
танци 1
разрешение 1
резер@@ 1
градини 1
интервю 1
обществена 1
целите 1
2022 0.3397956667555341
Крис 1
бази@@ 1
републикан@@ 1
легенда 1
нуждите 1
шните 1
азбука 1
вената 1
войводство 1
рения 1
социалните 1
БЗНС 1
Сава 1
люб@@ 1
Близкия 1
Изток 1
Музиката 1
мската 1
хово 1
Бернхард 1
отда@@ 1
Център 1
произведенията 1
целе@@ 1
92 0.9169569815131435
колония 1
османците 1
разде@@ 1
юн@@ 1
Одрин@@ 1
названието 1
операта 1
потоци 1
резерват 1
спор 1
1856 1
71 0.8519484673007228
Търговище 1
гласи 1
изхвър@@ 1
ктор 1
повишен 1
път@@ 1
… 0.2968634208161117
Волфганг 1
въздушни 1
катастрофа 1
червени 1
Петро@@ 1
владе@@ 1
първенства 1
студент 1
цев 0.7868902336732623
водна 1
отблъ@@ 1
сте 1
третото 1
O 0.17092848617774678
изгот@@ 1
кай@@ 1
Премиерата 1
Сай@@ 1
контролира 1
порт 1
Хол@@ 1
има@@ 1
сета 1
ужа@@ 1
83 0.9673701576707293
Ах@@ 1
диригент 1
очаква@@ 1
половин 1
прести@@ 1
тайно 1
успешен 1
alis 0.9973560914831137
Дя@@ 1
дн 1
известност 1
ландски 1
общия 1
отстъпва 1
писма 1
регистър 1
железопътна 1
ителността 1
наградите 1
сайта 1
Дет@@ 1
1862 0.9293071593122854
Екатерина 1
височината 1
новен 1
познати 1
предвижда 1
произхода 1
румънски 1
сътрудничи 1
училищ@@ 1
Так@@ 1
древността 1
екра@@ 1
плодо@@ 1
рицар 1
родители 1
сей 1
Битка 1
болест 1
личността 1
пъту@@ 1
стандар@@ 1
циф@@ 1
практику@@ 1
вход 1
набор 1
понятието 1
прекратява 1
пригот@@ 1
развити 1
тропи@@ 1
критично 1
обра@@ 1
общности 1
откриване 1
разли@@ 1
Кала@@ 1
миро@@ 1
пата 1
съветска 1
хен@@ 1
Салоника 1
минера@@ 1
1859 1
Исус 1
лизацията 1
никата 1
проход 1
руското 1
20@@ 0.8371422025044419
възрастни 1
ждение 1
наблюда@@ 1
ческият 1
ѣ@@ 1
Ю 1
ани@@ 1
завършването 1
запази 1
реду@@ 1
87 0.9456138117532159
Гватемала 1
Елеонора 1
Комнин 1
бна 1
владичество 1
коне 1
ология 1
яйца 1
историческите 1
йните 1
подножие 1
щица 1
ПФК 1
планинските 1
тат@@ 1
термо@@ 1
Големия 1
Щолберг 1
имоти 1
литературна 1
нята 1
лини 1
рира 1
рове 1
Шампионската 1
ник@@ 1
предназначени 1
Герхард 1
минават 1
99 0.7972516678917547
жиз@@ 1
картината 1
Преображенското 1
Форд 1
зеле@@ 1
зова 1
постъп@@ 1
сон@@ 1
хард 1
2,@@ 0.6798555391888006
заме@@ 1
превър@@ 1
формат 1
Либия 1
Прилеп 1
бело@@ 1
вестника 1
дската 1
жните 1
огромна 1
потребителите 1
Ройс 1
застава 1
изображение 1
йната 1
лията 1
поле@@ 1
фла@@ 1
Селището 1
видно 1
включ@@ 1
земеделие 1
отворен 1
цветни 1
Хондурас 1
# 0.3281494638243113
ващият 1
зави@@ 1
ничеството 1
стер 1
съюзници 1
информацията 1
чките 1
Вазов 1
Ур@@ 1
зараз@@ 1
мяна 1
станал 1
тур 1
бит@@ 1
вътре 1
кал 1
маршал 1
неделя 1
организирани 1
работе@@ 1
превземането 1
прину@@ 1
сит@@ 1
стратеги@@ 1
хвърля 1
явайки 1
Липе 1
базирана 1
зоната 1
ните@@ 1
разпространението 1
рида 1
Сту@@ 1
владение 1
родни 1
J@@ 0.12137046862336215
значението 1
нист 1
оси@@ 1
османската 1
Американската 1
взе@@ 1
възрожденска 1
вън@@ 1
външни 1
отличия 1
юрист 1
гли 1
нася@@ 1
отиват 1
Пала@@ 1
наименованието 1
расте 1
Генерал 1
Председател 1
главният 1
западното 1
зон 1
протестан@@ 1
совете 1
Последните 1
дев 1
стената 1
Стру@@ 1
Уганда 1
вярва 1
сол 1
марки 1
мла@@ 1
оло@@ 1
фалши@@ 1
Най@@ 1
Неговото 1
влезе 1
горите 1
ландграф 1
отток 1
разбиране 1
сер 1
Пале@@ 1
генера@@ 1
действителност 1
служител 1
стиката 1
широки 1
защитен 1
Иса@@ 1
Парк 1
гьо@@ 1
закон@@ 1
Централния 1
нейни 1
рини 1
учебни 1
вие 1
генерален 1
документа@@ 1
зин 1
образуването 1
T 0.24553050103545268
опасност 1
поста@@ 1
японската 1
E 0.25633830662455687
W@@ 0.10066719433262555
Вместо 1
валежи 1
държавите 1
отстъп@@ 1
техники 1
Ван 1
благородник 1
жесто@@ 1
крайно 1
тра 1
умират 1
g@@ 0.12335612269768464
Британската 1
Майнц 1
Никарагуа 1
водещи 1
получил 0.4907799484854725
явление 1
Бяла 1
Особено 1
алкохо@@ 1
гражданство 1
задъл@@ 1
изгнание 1
стично 1
удари 1
Тек@@ 1
Тома 1
бло@@ 1
раното 1
бай@@ 1
лагери 1
лега@@ 1
незастрашен 1
пусната 1
фан 1
бъдещия 1
възгледи 1
наказате@@ 1
отпада 1
спортен 1
съхраняват 1
сява 1
варя 1
вя 1
гнати 1
развита 1
рей 1
Атанасий 1
Кате@@ 1
гнали 1
пани 1
Военното 1
вле@@ 1
пиесата 1
софи@@ 1
тари@@ 1
цер 1
Тони 1
земната 1
паметта 1
рьо@@ 1
Нобелова 1
Антоний 1
постоянна 1
Културни 1
Фар@@ 1
арти@@ 1
етническите 1
кампанията 1
мато@@ 1
президент@@ 1
равни 1
случайно 1
събрани 1
Ней@@ 1
номинации 1
останките 1
почет@@ 1
член@@ 1
Силистра 1
богато 1
варианти 1
вкус 1
министерство 1
пап@@ 1
младият 1
обича 1
купи 1
ръкоположен 1
Клавдий 1
Мохамед 1
мах@@ 1
метали 1
могила 1
преработ@@ 1
днев@@ 1
околия 1
поту@@ 1
проведени 1
световния 1
термина 1
трон 1
ica 0.31317823976326425
Дори 1
Зна@@ 1
Коли@@ 1
забеле@@ 1
намиращ 1
насилие 1
ровете 1
89 0.9376597702896438
Ил@@ 1
Ца@@ 1
делят 1
завършена 1
мън 1
подпомага 1
учред@@ 1
чата 1
Гьо@@ 1
Мароко 1
изучаване 1
статистическа 1
хранителни 1
al@@ 0.10967654691248281
Сомалия 1
суфектконсул 1
Останалите 1
историци 1
образ@@ 1
пожар 1
частност 1
графията 1
коремоного 1
терена 1
шават 1
шан 1
Висконти 1
Иван@@ 1
Офици@@ 1
дене 1
знаци 1
хотел 1
шков 1
графа 1
масив 1
нира 1
Прави 1
гаран@@ 1
ковата 1
фал@@ 1
Всичко 1
Холмс 1
нади@@ 1
прочу@@ 1
роби 1
северно@@ 1
спаси 1
шево 1
щатски 1
Хел@@ 1
експло@@ 1
мис@@ 1
руско 1
източното 1
патри@@ 1
предло@@ 1
тома 1
Мехмед 1
зиран 1
мяната 1
рязко 1
храната 1
як 1
Ад@@ 1
бият 1
изпит@@ 1
исляма 1
митрополия 1
новци 1
пристанището 1
тов@@ 1
утвърждава 1
фронта 1
Земя 1
Славия 1
кръвта 1
лак 1
либера@@ 1
Между@@ 1
атмосферата 1
насле@@ 1
фами@@ 1
фре@@ 1
Сяр 1
дивизии 1
низма 1
нужда 1
стин 1
творба 1
щат@@ 1
юр@@ 1
водещите 1
изчезва 1
кожи 1
престол 1
провеждане 1
съчета@@ 1
але@@ 1
дейки 1
ракета 1
чко 1
Тейлър 1
настоява 1
предви@@ 1
румъ@@ 1
състезате@@ 1
тей 1
тивната 1
Вис@@ 1
Произве@@ 1
Сарафов 1
групите 1
прекалено 1
Дор@@ 1
бра 1
магистърска 1
нон 1
постав@@ 1
профе@@ 1
склю@@ 1
Състои 1
вед@@ 1
ствие 1
Коро@@ 1
достав@@ 1
изте@@ 1
испанския 1
спре 1
среща@@ 1
тели 1
актьори 1
жанр 1
задължително 1
колко 1
пишат 1
постигне 1
срещ@@ 1
героите 1
заети 1
иди 1
метри@@ 1
мра@@ 1
символи 1
фикация 1
Разград 1
задачата 1
низация 1
онът 1
рели 1
стия 1
Група 1
Мест@@ 1
магни@@ 1
младежки 1
потвър@@ 1
смесени 1
спорове 1
ук 1
ВМС 1
Якоб 1
Два 1
близко 1
излизането 1
нът 1
разре@@ 1
късните 1
образни 1
ic@@ 0.24978454948353757
запис@@ 1
португа@@ 1
стреми 1
Лар@@ 1
западен 1
честота 1
ежегодно 1
медали 1
съответ@@ 1
Компанията 1
Кръстьо 1
конфликта 1
лище 1
превъз@@ 1
риби 1
фактор 1
борд 1
гове 1
фици@@ 1
единственото 1
женска 1
поляр@@ 1
Костов 1
смя@@ 1
социалистическа 1
събиране 1
церемония 1
изделия 1
лил 1
организа@@ 1
Проектът 1
очи 1
поя@@ 1
служе@@ 1
хт 1
Видове 1
бунт 1
гради@@ 1
дини 1
лед 1
наси@@ 1
нелега@@ 1
рели@@ 1
G 0.2749220436404424
Вардарска 1
лича 1
работил 1
свързва@@ 1
93 0.8775610126319435
Остров 1
колонии 1
турско 1
Есте@@ 1
вку@@ 1
животински 1
инспектор 1
чков 1
4000 1
Емилия 1
Негови 1
Общо 1
аку@@ 1
емо 1
оттам 1
пер 1
преименуван 1
ру 1
храброст 1
хри@@ 1
Маргарита 1
интелекту@@ 1
обслуж@@ 1
писва 1
соленост 1
Фредерик 1
починал 1
ящи 1
Гене@@ 1
Евро@@ 1
Живот 1
дей 1
звайки 1
кли 1
отдава 1
теглото 1
жаването 1
опит@@ 1
тивните 1
звез@@ 1
източен 1
императрица 1
рене 1
бав@@ 1
танкова 1
центри@@ 1
Кин@@ 1
дирек@@ 1
мисъл 1
Монте@@ 1
Охайо 1
гната 1
доклад 1
пота@@ 1
рел 1
цве@@ 1
m@@ 0.17436867751226856
Александ@@ 1
владетели 1
зелени 1
курсове 1
премине 1
бия 1
въоръжените 1
десни 1
Лайнинген 1
летните 1
подгот@@ 1
совата 1
on@@ 0.1362539085154349
Управление 1
гор 1
Джей 1
Дмитрий 1
лер@@ 1
престъпления 1
прибли@@ 1
секция 1
тени 1
Електро@@ 1
т.ч. 1
Интер 1
заглавието 1
1858 1
данъ@@ 1
западни 1
заселници 1
рените 1
собствените 1
среди 0.5563166061341402
събира@@ 1
съм@@ 1
българо 1
различава 1
сар 1
сък 1
Ланка 1
приети 1
снаряди 1
учебната 1
бивша 1
муску@@ 1
православен 1
тогавашния 1
Ама@@ 1
Карло 1
Разположена 1
Троица 1
валежите 1
въста@@ 1
дясната 1
ологи@@ 1
слабо@@ 1
цени 1
бази 1
късната 1
скро@@ 1
стенописи 1
Бала@@ 1
Лам@@ 1
Пон@@ 1
епизоди 1
личе@@ 1
образу@@ 1
оли@@ 1
престъп@@ 1
разполагат 1
Стокхолм 1
к.с. 1
стъпка 1
сутринта 1
Пис@@ 1
Сибир 1
Хен@@ 1
Югозападна 1
гов@@ 1
кулата 1
мнозинство 1
мус 1
пилоти 1
пото@@ 1
Салвадор 1
рису@@ 1
традиционните 1
Брайън 1
завършване 1
кване 1
украински 1
Валтер 1
Дой@@ 1
Уай@@ 1
низ@@ 1
хоро@@ 1
гнал 1
жив 1
зел 1
метал 1
шението 1
t@@ 0.10759626635019219
ta 0.18876408876783848
Бохемия 1
Фре@@ 1
зват 1
импер@@ 1
кореспондент 1
лове 1
продължителност 1
участ@@ 1
Ас@@ 1
Супер@@ 1
белги@@ 1
долу 1
женските 1
зада@@ 1
чия 1
чник 1
Следват 1
вила 1
дира 1
композиция 1
тичните 1
1840 1
кръво@@ 1
общинския 1
техни 1
човешкото 1
Васи@@ 1
десетте 1
младежи 1
сборник 1
Пау@@ 1
Петер 1
гол@@ 1
полския 1
сул@@ 1
формирането 1
97 0.8873654784656697
Добро@@ 1
Мю@@ 1
ТВ 1
високото 1
въвеждането 1
говор 1
отделна 1
присъедини 1
сигнал 1
сма@@ 1
шено 1
Мол@@ 1
Сега 1
боевете 1
вилает 1
пита 1
рист 1
тий 1
труд@@ 1
канала 1
мията 1
принадлежат 1
Ани@@ 1
Джорджия 1
Палестина 1
албански 1
избрани 1
издъл@@ 1
кен 1
куче 1
механизъм 1
определи 1
превземат 1
bTV 1
p 0.1967533984941046
Маха@@ 1
Първо 1
драматург 1
завива 1
зиране 1
зър@@ 1
легендата 1
перси@@ 1
стандарт 1
1300 1
b@@ 0.13846806428871072
Фро@@ 1
пространството 1
сму@@ 1
сражения 1
цио@@ 1
шени 1
Ст@@ 1
бое@@ 1
градуса 1
марки@@ 1
парчета 1
тежък 1
укре@@ 1
успешна 1
кожа 1
маси@@ 1
мския 1
отличават 1
победител 1
рабо@@ 1
фирми 1
91 0.8960492179616318
Ц 1
баня 1
бръ@@ 1
ети 1
истори@@ 1
маси 1
професионални 1
творбите 1
циан 1
Кавказ 1
записани 1
консервати@@ 1
фанта@@ 1
Основният 1
Сло@@ 1
вието 1
производител 1
фийлд 1
Асе@@ 1
Сиера 1
Трета 1
вния 1
заменя 1
смятан 1
тино 1
Искър 1
датират 1
милион 1
Будапеща 1
Динамо 1
Рек@@ 1
застра@@ 1
осигуряване 1
чест@@ 1
Гана 1
Западните 1
Мла@@ 1
видят 1
седем@@ 1
Сала@@ 1
Уол@@ 1
атаката 1
бат@@ 1
непосредствена 1
порта 1
прия@@ 1
равенство 1
ч. 1
ари@@ 1
буквално 1
мел 1
катедра 1
приемане 1
сменя 1
oc@@ 0.24725845796163065
Семейството 1
Уругвай 1
всякакви 1
гърба 1
дже 1
зер@@ 1
терминът 1
успешни 1
Източ@@ 1
лва 1
Броят 1
Главният 1
Корнелий 1
ат 1
проти@@ 1
рото 1
уволнен 1
Алексей 1
избора 1
изисквания 1
комунистически 1
британците 1
дипло@@ 1
ели 1
режима 1
U 0.19825561165533398
възвишения 1
ждайки 1
зан@@ 1
квартала 1
кови@@ 1
мол@@ 1
позволя@@ 1
страници 1
усилията 1
1600 1
Средно@@ 1
бел@@ 1
год@@ 1
изпълнителен 1
израз 1
концерта 1
лигата 1
младши 1
извор 1
редовен 1
съюза 1
човешката 1
Роман 1
Токио 1
лизира 1
похода 1
съединение 1
уха@@ 1
ционното 1
ленията 1
ранни 1
Z@@ 0.11282172214055913
Помпей 1
англичаните 1
гин 1
стина 1
ял 1
450 1
засне@@ 1
комисар 1
Много@@ 1
съгласие 1
Ангелов 1
гравита@@ 1
кръстен 1
лай 1
петро@@ 1
получаване 1
разполо@@ 1
ракетата 1
циона@@ 1
читалището 1
Шварцбург 1
взето 1
компютър 1
параклис 1
пункт 1
алпи@@ 1
дървен 1
отряда 1
укра@@ 1
Военната 1
духовна 1
обеща@@ 1
ползва@@ 1
противопоставя 1
el@@ 0.10595547019587404
бал 1
бюро 1
гари 1
затори 1
Град 1
Нед@@ 1
Сам 1
Сезон 1
изгу@@ 1
мъл@@ 1
ничната 1
слав@@ 1
стой@@ 1
Британска 1
Струма 1
броня 1
годишният 1
назад 1
пресе@@ 1
прили@@ 1
Ирина 1
мито@@ 1
председате@@ 1
сайт 1
сам@@ 1
Ем@@ 1
жаба 1
противник 1
ескадра 1
компи@@ 1
копие 1
народите 1
означа@@ 1
теро@@ 1
ch@@ 0.09625806437700947
лицата 1
препратки 1
темата 1
яйки 1
1849 1
Гил@@ 1
Древна 1
Латвия 1
архитектурно 1
горе 1
мбо@@ 1
организирана 1
посветени 1
следния 1
тайна 1
тици 1
извър@@ 1
мански 1
стичен 1
явления 1
h@@ 0.13051613751351676
Филипини 1
външна 1
изход@@ 1
лови@@ 1
сладководни 1
техниката 1
частен 1
Витгенщайн 1
Нан@@ 1
Редовни 1
корабът 1
независими 1
ничните 1
оръдията 1
подобряване 1
пс 1
слад@@ 1
ВВС 1
Вардар 1
Сю@@ 1
бита 1
градско 1
осем@@ 1
тява 1
ходен 1
Обаче 1
дния 1
празници 1
признат 1
съвременен 1
универса@@ 1
филмова 1
що@@ 1
05 0.9083397693660037
Дружеството 1
гайки 1
дете@@ 1
лации 1
отка@@ 1
реле@@ 1
Сара@@ 1
Спорт 1
зима 1
Кей@@ 1
Пари@@ 1
Юта 1
базирани 1
тео@@ 1
цови 1
чешки 1
23@@ 0.9697598812503814
Ир@@ 1
Северно 1
десетилетие 1
освобождението 1
актрисата 1
реално 1
човешките 1
Архи@@ 1
Графство 1
Лом 1
задължения 1
интерпре@@ 1
ност@@ 1
порно@@ 1
сп 1
Народния 1
даже 0.85965683174033
дипломатически 1
евро@@ 1
експеримента@@ 1
футболисти 1
нско 1
чването 1
Александра 1
изяви 1
кардинал 1
личния 1
нали@@ 1
намеса 1
сени 1
фантастика 1
94 0.8851772687770175
Меди@@ 1
военноморски 1
гласовете 1
критик 1
лошо 1
модул 1
нападения 1
спортна 1
Велес 1
акции 1
мона@@ 1
пър 1
Сара 1
принципи 1
унгарски 1
Региона@@ 1
Хра@@ 1
лища 1
³ 1
Първонача@@ 1
керамика 1
командващ 1
обви@@ 1
тят 1
юго@@ 1
Пру@@ 1
Шлезвиг 1
комуника@@ 1
пин@@ 1
серии 1
Главната 1
Известно 1
Сле@@ 1
Стюарт 1
взимат 1
онези 1
сния 1
сфера 1
Кари@@ 1
Рилски 1
загу@@ 1
интегри@@ 1
фили@@ 1
Образование 1
водно 1
електрическа 1
мб@@ 1
музе@@ 1
навод@@ 1
наме@@ 1
нии 0.5552150159769383
пел 1
1806 1
X@@ 0.285332408048028
изследванията 1
клетъ@@ 1
лива@@ 1
маните 1
око 1
окупация 1
отря@@ 1
сама 1
Google 1
ря 1
свети 1
съхранение 1
26@@ 1
Тех@@ 1
израства 1
погребана 1
полка 1
строи 1
фай@@ 1
M 0.2333402191316662
Андреа 1
Гражданската 1
автомоби@@ 1
вест@@ 1
кора 1
космоса 1
поддържа@@ 1
чици 1
ърът 1
Me 0.4713760062631755
вулка@@ 1
въздействие 1
диференци@@ 1
птиците 1
смо@@ 1
финансова 1
ina 0.1758220903255734
Лайпциг 1
Новият 1
Ради@@ 1
Станислав 1
Тит 1
бърг 1
диви 1
мулти@@ 1
наистина 1
нараст@@ 1
помагат 1
спасява 1
Конституцията 1
бивши 1
благоприя@@ 1
изпис@@ 1
международните 1
поета 1
производители 1
Бя@@ 1
бъдеще 1
защитени 1
Обер@@ 1
Рак@@ 1
архи@@ 1
духа 1
икономическо 1
клубът 1
провеждането 1
уст@@ 1
Саудитска 1
Тунис 1
компоненти 1
населено 1
носни 1
обособ@@ 1
отглеждат 1
рус 1
Лъв 1
Мано@@ 1
варя@@ 1
делото 1
кралски 1
нителен 1
орбит@@ 1
подходящи 1
посещение 1
упо@@ 1
Идеята 1
Матилда 1
зно 1
инженер@@ 1
програмиране 1
учените 1
щаст@@ 1
Изабела 1
небето 1
рисунки 1
римско 1
K 0.27730821373048814
Край 1
Постепенно 1
Четвър@@ 1
тие 1
Георгиос 1
избирате@@ 1
иск@@ 1
мба@@ 1
мощ@@ 1
сигурността 1
хълм 1
цената 1
Наслед@@ 1
избегне 1
ик 1
концентри@@ 1
непо@@ 1
предстоя@@ 1
рецеп@@ 1
страда 1
тев 1
1854 1
Англи@@ 1
Парагвай 1
Сей@@ 1
спече@@ 1
стопански 1
теории 1
New 0.03886775824867633
Трите 1
карто@@ 1
киселини 1
кислород 1
платформа 1
съобщения 1
Дъщеря 1
бру@@ 1
кодът 1
ограничена 1
парите 1
писателите 1
екипаж 1
подкрепят 1
швед@@ 1
ври 1
ждан 1
случаите 1
ства@@ 1
мър 1
предварите@@ 1
1@@ 0.6519717771808287
Замбия 1
Фройд 1
момче 1
подполковник 1
Избран 1
Обеди@@ 1
Остро@@ 1
Санд@@ 1
дадени 1
желязо 1
историческо 1
слоеве 1
тки 1
Запа@@ 1
Малта 1
Над@@ 1
Сардиния 1
Софийската 1
нското 1
обу@@ 1
отношението 1
полска 1
приклю@@ 1
собствено 1
трибун 1
щни 1
Аба@@ 1
Юрий 1
дс 1
ждания 1
ползват 1
рум 1
феновете 1
Ав@@ 1
австрийски 1
здра@@ 1
личната 1
мениджър 1
съответните 1
codice 1
действа@@ 1
забелязва 1
отчасти 1
Интернет 1
запазен 1
казват 1
нато@@ 1
разработен 1
релеф 1
съвременна 1
тизъм 1
Бек@@ 1
Мето@@ 1
Ордена 1
австрали@@ 1
бъдещето 1
гости 1
комуникация 1
номина@@ 1
предавания 1
пру@@ 1
централния 1
Аре@@ 1
класическа 1
мети@@ 1
резерва 1
Гун@@ 1
Пит@@ 1
Съществува 1
археологи@@ 1
енергията 1
еска@@ 1
образец 1
постове 1
специалист 1
четник 1
ьорите 1
Исландия 1
аре@@ 1
место@@ 1
предпочита@@ 1
събота 1
Кита@@ 1
Понастоящем 1
измерване 1
осигуряват 1
предполага@@ 1
пъл 1
учител@@ 1
ъгъл@@ 1
Ник@@ 1
Фон@@ 1
излъч@@ 1
конструи@@ 1
лявата 1
образовате@@ 1
същество 1
учителка 1
Великата 1
Светия 1
постоянни 1
преоблада@@ 1
примери 1
пул@@ 1
Зеле@@ 1
вну@@ 1
италианските 1
насочени 1
фан@@ 1
Валдек 1
Пътят 1
Рам@@ 1
глобус 1
лети@@ 1
пази 1
поведението 1
Култура 1
Смолян 1
Филипините 1
варят 1
изби@@ 1
католическата 1
тическия 1
цифри 1
Мишел 1
Северния 1
върхове 1
записан 1
кит@@ 1
разгро@@ 1
разпадането 1
романът 1
ръката 1
фите 1
виж 1
дри 1
леп@@ 1
мрежата 1
основният 1
потребители 1
превежда 1
професионална 1
Ливърпул 1
буква 1
вярата 1
кралят 1
маща@@ 1
първи@@ 1
Microsoft 0.924494816511379
Френ@@ 1
Хон@@ 1
детай@@ 1
лес@@ 1
могъ@@ 1
почвата 1
Каза@@ 1
Сао 1
девет@@ 1
зор@@ 1
надежд@@ 1
Вернер 1
Независимо 1
Рейн@@ 1
Съвремен@@ 1
датата 1
екологи@@ 1
количеството 1
комунистическата 1
основи 1
продават 1
роди@@ 1
улиците 1
юри 1
1853 1
дор@@ 1
изпитания 1
лани 1
мед@@ 1
ников 0.6779225513683831
премиера 1
Климат 1
нър 1
повре@@ 1
телефонният 1
Евровизия 1
Юлия 1
ид@@ 1
изпращат 1
политическия 1
1857 0.9722790874180076
Европейски 1
библиотеката 1
десе@@ 1
желез@@ 1
рет 1
ряване 1
седми@@ 1
тренира 1
Без 1
Централната 1
връщането 1
летен 1
организиран 1
освобод@@ 1
теат@@ 1
гробище 1
кабинета 1
партизански 1
пълни 1
сражението 1
Мала@@ 1
ада 1
архиепископия 1
морфо@@ 1
убежище 1
An@@ 0.12054367457409146
Атлан@@ 1
магистрала 1
ограничен 1
пътеше@@ 1
равна 1
стойността 1
тропически 1
шница 1
БНТ 1
автономна 1
договори 1
ецът 1
произнася 1
старият 1
турнето 1
Гол@@ 1
Джърси 1
Стария 1
европейска 1
поти@@ 1
фрон@@ 1
Мекленбург 1
Хуго 1
зии 1
научната 1
някаква 1
плана 1
хилядолетие 1
ценности 1
гората 1
опро@@ 1
стана 1
om@@ 0.19736444552353835
Асоциацията 1
Дейвис 1
Димит@@ 1
Ким 1
прости 1
сериали 1
ьори 1
Ня@@ 1
комплекса 1
нишки 1
смяна 1
четирима 1
мандата 1
монах 1
опусто@@ 1
провод@@ 1
разпозна@@ 1
следването 1
циони@@ 1
ella 0.23450424952536753
Йор@@ 1
Самоа 1
бед@@ 1
изпълнена 1
литов@@ 1
организма 1
Свобо@@ 1
гани 1
дим 1
класическата 1
низацията 1
фар@@ 1
видовете 1
манов 1
ровски 1
терапия 1
хранят 1
КНР 1
апарати 1
вара 1
лите@@ 1
младата 1
наблюдения 1
обвинява 1
оре@@ 1
разбира@@ 1
регент 1
рита 1
споменат 1
ствията 1
тес 1
ь@@ 0.559096190476313
Италиан@@ 1
музикалната 1
собствената 1
чие 1
Дрезден 1
архитектурата 1
възел 1
кафяви 1
рие 1
фрагменти 1
заснет 1
премиер 1
принципа 1
ol@@ 0.15354349576233495
op@@ 0.22574379462032726
детството 1
дон@@ 1
експери@@ 1
мери 1
поде@@ 1
представля@@ 1
пче@@ 1
Рим@@ 1
римските 1
Александров 1
икономи@@ 1
катедрата 1
ловци 1
предишните 1
протока 1
разработка 1
разрушен 1
Евгений 1
Костур 1
др. 1
инструмента@@ 1
преместен 1
ращите 1
страх 1
философията 1
Оу@@ 1
Пей@@ 1
квадратни 1
стоят 1
тските 1
ot@@ 0.16805866263931038
ph@@ 0.2819706972333217
вътрешен 1
гана 1
динг 1
оценява 1
реформа 1
urus 1
З 1
Последната 1
Хамбург 1
лате@@ 1
находища 1
предават 1
северо@@ 1
кааза 1
каменна 1
предната 1
режисиран 1
селе@@ 1
Оре@@ 1
Ред@@ 1
Ър@@ 1
германска 1
кратки 1
минало 1
ниско@@ 1
тек@@ 1
вратар 1
отбра@@ 1
подкрепя@@ 1
Сидни 1
Тен@@ 1
стандарти 1
Гай@@ 1
Дани@@ 1
Франкфурт 1
причините 1
спомена@@ 1
ърт 1
жо 1
нарича@@ 1
формацията 1
10@@ 0.4258863062327809
1700 1
валу@@ 1
лидери 1
мис 1
регистрирани 1
усво@@ 1
Демокра@@ 1
болестта 1
експерименти 1
начини 1
парламентарните 1
ar@@ 0.10186797304601698
× 0.5329242320345409
Свищов 1
Север 1
космическа 1
лъчи 1
ляр@@ 1
находки 1
нисък 1
превзема 1
систе@@ 1
токси@@ 1
Прин@@ 1
планира 1
специализира 1
автоматично 1
национа@@ 1
er@@ 0.0769646553097775
Специ@@ 1
дам 1
издигната 1
нападат 1
подписан 1
последователни 1
растеж 1
Хаджи 1
вянето 1
глед 1
леку@@ 1
селяните 1
стор 1
тъмно@@ 1
Местоположение 1
Ску@@ 1
изследователски 1
паза@@ 1
потенци@@ 1
устройството 1
na 0.12462616181843357
Балканския 1
направено 1
ниските 1
носители 1
танка 1
Проду@@ 1
Хоенцолерн 1
извършени 1
изигра@@ 1
лез@@ 1
мозъ@@ 1
обса@@ 1
охрана 1
Джонсън 1
Стефанов 1
портрети 1
стръмни 1
формация 1
Печели 1
бени 1
бун@@ 1
отво@@ 1
подчинение 1
{ 0.59818364012723
Любен 1
Тим@@ 1
брегове 1
долини 1
комбини@@ 1
лед@@ 1
цето 1
Al@@ 0.12707882789340014
Вижте 1
генери@@ 1
мюсюлман@@ 1
предприятие 1
продажба 1
религията 1
Music 0.19388004374248236
Национа@@ 1
гс 1
естествен 1
затор 1
метални 1
сребърен 1
шпи@@ 1
Малък 1
Рей 1
автора 1
данъци 1
млада 1
пост@@ 1
стръ@@ 1
Пос@@ 1
живял 1
сий 1
устрой@@ 1
Гръцката 1
Йохана 1
Медичи 1
контакти 1
опитите 1
скални 1
k@@ 0.12347949492546473
u 0.11457926050896278
консул@@ 1
момичета 1
функцията 1
Рабо@@ 1
нататъ@@ 1
реакции 1
Българския 1
Главните 1
дост 1
симво@@ 1
съще@@ 1
Рождество 1
аспекти 1
гне@@ 1
изработени 1
математи@@ 1
установки 1
x@@ 0.27209152040608564
жертвите 1
оценки 1
попадения 1
раждане 1
ренесан@@ 1
125 1
Бен 1
Непал 1
Отече@@ 1
ау@@ 1
библиоте@@ 1
борби 1
мени@@ 1
мъжките 1
семинария 1
Кот 1
ват@@ 1
иденти@@ 1
османска 1
племенник 1
рика 1
СУ 1
авиация 1
гробница 1
здравето 1
медицинска 1
мет 1
натруп@@ 1
осигур@@ 1
превърне 1
преминаването 1
съюзниците 1
управляват 1
Женева 1
Кем@@ 1
газове 1
мас 1
обгра@@ 1
Сръбско 1
блокове 1
ликвиди@@ 1
реак@@ 1
циви@@ 1
грешка 1
днешните 1
опти@@ 1
разширение 1
синьо 1
Казанлък 1
Катерина 1
ено@@ 1
Цве@@ 1
дани 1
мисле@@ 1
ней 0.5747906319490786
партньор 1
тежките 1
27@@ 1
Нача@@ 1
мената 1
мене@@ 1
телевизионна 1
UTC 1
домашни 1
призовава 1
химик 1
Хри@@ 1
взети 1
види@@ 1
длъж@@ 1
дует 1
лето@@ 1
местата 1
предотвра@@ 1
хомосексу@@ 1
вери@@ 1
живопис@@ 1
Христо@@ 1
днешен 1
стъпки 1
тане 1
тери 1
храмът 1
цка 1
30@@ 0.9325994708167128
Лау@@ 1
военачалник 1
журнали@@ 1
прехвър@@ 1
сат 1
слуш@@ 1
сното 1
унищожени 1
th@@ 0.15361340948176586
Твор@@ 1
включваща 1
държавно 1
зано 1
леги@@ 1
привлечен 1
тури 1
Брай@@ 1
Запад 1
вици 1
демокрация 1
ещи 1
пещерата 1
схайм 1
тера@@ 1
гу 1
нападението 1
настан@@ 1
носе@@ 1
отговорност 1
среден 1
шение 1
шин 1
Архитектура 1
Думата 1
Мансфелд 1
играл 1
медиите 1
поети 1
том 0.1490175800138957
Бир@@ 1
Велика 1
Леон 1
Лотарингия 1
алният 1
алтерна@@ 1
олимпи@@ 1
рацията 1
Генералния 1
Кова@@ 1
Монако 1
блоки@@ 1
обработ@@ 1
червена 1
Бангладеш 1
бран@@ 1
личните 1
логични 1
тирана 1
105 1
Джоузеф 1
Лек@@ 1
Марин 1
Намибия 1
вене@@ 1
водоизместимост 1
пов 1
пораз@@ 1
прово@@ 1
реализира 1
юноше@@ 1
абсолю@@ 1
българският 1
излезе 1
прогон@@ 1
прости@@ 1
фона 1
Александрия 1
Рила 1
Сак@@ 1
ками@@ 1
кира 1
обединени 1
предназначение 1
сами 1
фра@@ 1
des 0.0052982712347908025
Година 1
Кан 1
запозна@@ 1
изпълнения 1
настъп@@ 1
озаглавен 1
отвъд 1
траги@@ 1
окръжен 1
организи@@ 1
пускат 1
сем@@ 1
сил@@ 1
склоновете 1
следователно 1
стихотворения 1
яващи 1
Първия 1
младеж 1
площи 1
разходи 1
тори@@ 1
Бюдинген 1
бомбарди@@ 1
дио@@ 1
множеството 1
надесе@@ 1
свободни 1
сос 1
Богдан 1
Масачузетс 1
Монголия 1
Роберт 1
Софийска 1
болницата 1
електронна 1
кръстоносен 1
лик@@ 1
нефт 1
нит 1
правилата 1
чащи 1
P 0.28930611933782124
Кало@@ 1
гур@@ 1
курор@@ 1
бари@@ 1
гам 1
дал@@ 1
дебюта 1
ограничени 1
приятелски 1
стаи 1
субек@@ 1
театрални 1
as 0.005532913832504604
Алексий 1
Хър@@ 1
гвардей@@ 1
легион 1
освобождава 1
посрещ@@ 1
m3 1
вари 1
география 1
записват 1
избя@@ 1
лагат 1
монаси 1
общините 1
ограничения 1
сърце 1
течения 1
Родопите 1
масови 1
трево@@ 1
бва 1
еванге@@ 1
мък 1
пещера 1
преход 1
проби@@ 1
сяване 1
насят 1
потъ@@ 1
тирането 1
турския 1
уча@@ 1
r@@ 0.1107412827892628
компютърни 1
крайната 1
нави@@ 1
Мисисипи 1
Реги@@ 1
Рьо@@ 1
Сви@@ 1
брази@@ 1
възстанови 1
заси@@ 1
извършено 1
концепция 1
маги@@ 1
нейна 1
покрив 1
преминаване 1
славяни 1
части@@ 1
Включва 1
Роу@@ 1
покрита 1
растенията 1
Роб@@ 1
акту@@ 1
изми@@ 1
краката 1
последва 1
предпа@@ 1
редов@@ 1
ситуацията 1
установи 1
хипер@@ 1
ам 1
египет@@ 1
лието 1
нати@@ 1
нах 1
нка 1
образа 1
тичния 1
университети 1
финанси@@ 1
Ето 1
дебе@@ 1
надесети 1
поз@@ 1
промяната 1
сливането 1
социалната 1
І 1
Лаос 1
кило@@ 1
предаде 1
преподавате@@ 1
прилож@@ 1
уве@@ 1
хме 1
Дре@@ 1
Началото 1
Създаден 1
атакуват 1
бившите 1
изкачва 1
мий 1
недостатъ@@ 1
пазар@@ 1
рази@@ 1
Етимология 1
заливи 1
застъп@@ 1
модер@@ 1
пози@@ 1
сериалът 1
функциони@@ 1
Живее 1
гнез@@ 1
доли@@ 1
културна 1
несени 1
ническите 1
нощ@@ 1
чеството 1
Диего 1
Крал 1
депутати 1
дроб 1
магазин 1
сели@@ 1
шел@@ 1
зя@@ 1
имала 1
критиката 1
обществен 1
разред 1
студиото 1
Дол@@ 1
Изпъл@@ 1
Източната 1
Оли@@ 1
Същевременно 1
петте 1
религиозна 1
съвет@@ 1
Библията 1
Тон@@ 1
гин@@ 1
невъзможно 1
сира 1
условие 1
джан@@ 1
синг 1
тани 1
тическите 1
храмове 1
Новата 1
Резолюция 1
ента@@ 1
изне@@ 1
ителка 1
миналия 1
министъра 1
стов 1
1821 1
H 0.3058919076800929
Западната 1
Училището 1
започнали 1
описани 1
работен 1
сай@@ 1
тско 1
убиват 1
хове 1
художествени 1
170 1
Всъщност 1
капита@@ 1
метода 1
наказание 1
официална 1
пеене 1
Ева 1
вратата 1
дружества 1
заслу@@ 1
кръга 1
кул 1
факти 1
хартия 1
частна 1
Пример 1
екзархията 1
задълбо@@ 1
рево 1
снаряда 1
стилове 1
характерен 1
чист 1
Остава 1
анимационен 1
влизането 1
днешното 1
ефективно 1
комуни@@ 1
мемо@@ 1
ряването 1
фрайин 1
Уч@@ 1
изли@@ 1
побеждават 1
портрет 1
практики 1
разглеждат 1
Брю@@ 1
Крит 1
един@@ 1
китарист 1
линг@@ 1
риболов 1
селяни 1
Диа@@ 1
Емануил 1
Им@@ 1
Крум 1
Трети 1
манастир@@ 1
силните 1
увол@@ 1
Джаксън 1
вац 1
кръгове 1
способен 1
Дат@@ 1
войник 1
заведения 1
зависи@@ 1
осе@@ 1
продажби 1
цивилизация 1
ъс 1
Нари@@ 1
Пъл@@ 1
въпросите 1
доне@@ 1
паметника 1
прехвърля 1
Древ@@ 1
кралицата 1
кратен 1
против@@ 1
тос 1
чар 1
чувство 1
шотланд@@ 1
Мър@@ 1
После 0.2016416129176242
Сандански 1
лското 1
почва 1
тълку@@ 1
човечеството 1
Къщата 1
Ов@@ 1
значимите 1
поръчка 1
преглед 1
сръбските 1
Юж@@ 1
андар@@ 1
богатите 1
гането 1
институция 1
кас 1
македонските 1
полето 1
получат 1
северното 1
101 1
j@@ 0.13816045009302774
Пенсилвания 1
академик 1
дво@@ 1
запла@@ 1
моне@@ 1
проведен 1
бестселъри 1
добив 1
доказва 1
лник 1
направят 1
специфи@@ 1
Проек@@ 1
азиат@@ 1
американците 1
бове 1
варират 1
гражданската 1
инженерство 1
научно@@ 1
предизвикват 1
inus 1
Мур@@ 1
Хам@@ 1
1815 1
главнокомандващ 1
едър 1
побед@@ 1
подписват 1
родени 1
старо 1
физиката 1
In 0.009125156512326772
Ат@@ 1
Жо@@ 1
вили 1
православни 1
съставени 1
Йемен 1
боговете 1
ловата 1
пин 1
приспособ@@ 1
продължа@@ 1
царя 1
Възможно 1
Гюнтер 1
Катрин 1
Чад 1
бу 1
задържа 1
рекор@@ 1
ряват 1
фикси@@ 1
цвета 1
Бак@@ 1
Рав@@ 1
Ранен 1
Теодора 1
бъде@@ 1
взаимно 1
гиган@@ 1
дисциплини 1
канад@@ 1
ниц 1
паси@@ 1
специфични 1
тън@@ 1
v@@ 0.13532706514923348
Българско 1
Върху 1
Нейният 1
Физи@@ 1
възприема 1
зки 1
идентифици@@ 1
1831 1
l@@ 0.10668806928648265
ЗИП 1
дък 1
мле@@ 1
родната 1
фелс 1
фир@@ 1
1812 1
Дължина 1
Ливан 1
вло@@ 1
данък 1
етническа 1
жител 1
подразделения 1
сев 1
z@@ 0.09786001463893709
Водо@@ 1
воля 1
възникват 1
живеещи 1
задвиж@@ 1
рер 1
църковна 1
ьон 1
Августа 1
блат@@ 1
мега@@ 1
ръст 1
чук 1
Води 1
Марина 1
Форт 1
къс@@ 1
почивка 1
манастирът 1
поглед 1
претен@@ 1
1835 1
Ar@@ 0.11923071369400058
Опит@@ 1
Солунската 1
бути@@ 1
зова@@ 1
клетка 1
финансите 1
цит@@ 1
Дупница 1
Уест 1
зор 1
ивица 1
присъеди@@ 1
пустинята 1
способ@@ 1
стаби@@ 1
формации 1
чув@@ 1
Грай@@ 1
МВР 1
адаптация 1
боже@@ 1
взаимодействие 1
многобройните 1
подре@@ 1
строителни 1
Валерий 1
крайните 1
окси@@ 1
осигу@@ 1
това@@ 1
шампиони 1
1829 1
My 0.3857688198395691
Бургундия 1
Ти 1
борн 1
изра@@ 1
подредени 1
еволю@@ 1
лта 1
населя@@ 1
отдавна 1
оттеглят 1
придру@@ 1
съхра@@ 1
тест 1
Хил 1
вното 1
връзките 1
идването 1
ну 0.9412123292454293
родните 1
хърватски 1
щения 1
Все@@ 1
Създа@@ 1
забранява 1
разработването 1
сли 1
стомана 1
туристи 1
Уни@@ 1
акция 1
вката 1
глаго@@ 1
деле@@ 1
еле@@ 1
кю@@ 1
национал@@ 1
Соци@@ 1
Хората 1
намаляваща 1
отглеждане 1
турското 1
Гъ@@ 1
бестселър 1
инцидент 1
лег@@ 1
лодки 1
млрд. 1
пасища 1
програми@@ 1
специализирани 1
чила 1
240 1
Малави 1
Сенегал 1
Ювентус 1
ей@@ 1
изработ@@ 1
липсва 1
нася 1
незабавно 1
нужди 1
хар 1
вериги 1
историческия 1
знания 1
нинг 1
Брон@@ 1
Дармщат 1
Обо@@ 1
Територията 1
изпълнени 1
кад@@ 1
кора@@ 1
целу@@ 1
Лудогорец 1
Мака@@ 1
промените 1
риален 1
спада 1
фикацията 1
бургграф 1
валд 1
гарнизон 1
официалната 1
падане 1
разру@@ 1
родна 1
тракийски 1
ДНК 1
Образу@@ 1
Страсбург 1
външния 1
древногръцката 1
ид 1
лско 1
оръ@@ 1
строго 1
чаването 1
Кирхберг 1
последовате@@ 1
предложението 1
прозра@@ 1
равен 1
разрушена 1
османското 1
подзем@@ 1
присъда 1
риту@@ 1
Ивоар 1
Педро 1
Фернандо 1
арски 1
бронзов 1
изтък@@ 1
крепости 1
пъте@@ 1
хет@@ 1
Кара 1
активи@@ 1
вътрешно 1
змия 1
понятие 1
ство@@ 1
комисията 1
лоя@@ 1
нейно 1
разграни@@ 1
способни 1
1855 0.9067930383581375
anus 0.8841197054525444
запъл@@ 1
лизи@@ 1
превоз@@ 1
съществено 1
04 0.7965015637431425
3,5 1
Исторически 1
Музика@@ 1
въведен 1
горния 1
инфраструктура 1
кцията 1
постоян@@ 1
стова 1
титуляр 1
уси@@ 1
it@@ 0.16183550632788443
АС 1
Накрая 1
народната 1
обръ@@ 1
стигне 1
съвмести@@ 1
цио 1
ядро 1
Сам@@ 1
ез@@ 1
кус 1
мана 1
огромно 1
окол@@ 1
потомци 1
товите 1
Воде@@ 1
Колорадо 1
Фра@@ 1
гос 1
кадри 1
природен 1
рато@@ 1
ром 0.4264978033954434
сватбата 1
кост@@ 1
кости 1
кухня 1
съобраз@@ 1
университе@@ 1
цити@@ 1
Йон@@ 1
знамени@@ 1
комеди@@ 1
плановете 1
пясъ@@ 1
фондация 1
ea 0.3199605712340336
Рен@@ 1
диску@@ 1
защитена 1
насе@@ 1
позициите 1
убеждава 1
артилерията 1
блата 1
ирланд@@ 1
попад@@ 1
разстоянието 1
рация 1
Един@@ 1
Игна@@ 1
Мав@@ 1
градчето 1
дублаж 1
зало@@ 1
мю@@ 1
открие 1
Външни 1
Ланд@@ 1
Цари@@ 1
глобал@@ 1
избягва 1
прекъсва 1
стадиона 1
статус 1
театрална 1
Константинов 1
Съветът 1
Тирол 1
Щип 1
магне@@ 1
намираща 1
цар@@ 1
вътрешна 1
дий 1
ида 1
критици 1
Малки 1
Пери@@ 1
етническата 1
изобщо 1
нача@@ 1
обшир@@ 1
хижа 1
Държавен 1
напр. 1
проведе 1
рифове 1
способности 1
унд 1
църковни 1
Бистрица 1
Рю@@ 1
благотворите@@ 1
държавния 1
екран 1
крайцерът 1
прека@@ 1
разно@@ 1
техническо 1
функциите 1
дска 1
освобождаването 1
убий@@ 1
− 0.5170023542711802
1852 0.9499166359038302
кол 1
лда 1
лево 1
научните 1
отнема 1
предше@@ 1
1845 1
византийския 1
ляването 1
мови 1
посве@@ 1
ралната 1
свети@@ 1
страница 1
шов 1
Херцогство 1
ано@@ 1
емо@@ 1
изследването 1
късния 1
обвинения 1
покривка 1
съзна@@ 1
1828 1
африкан@@ 1
нки 1
обикновен 1
основа@@ 1
фек@@ 1
чита@@ 1
яко@@ 1
28@@ 1
Лимбург 1
великия 1
запазват 1
знанието 1
категори@@ 1
следва@@ 1
спомени 1
съвремен@@ 1
съкратено 1
франк@@ 1
102 1
вета 1
епо@@ 1
измъ@@ 1
концепцията 1
линкори 1
нини 1
роднини 1
съпротивата 1
Каме@@ 1
магазини 1
ориенти@@ 1
стни 1
тическо 1
фолклор 1
icus 1
Илинойс 1
ените 1
лагането 1
нителна 1
предоставят 1
хребета 1
цветовете 1
Арнолд 1
Епир 1
Тради@@ 1
въздушна 1
жъл@@ 1
кутия 1
необходимостта 1
орел 1
смес 1
спътник 1
Флавий 1
вене 1
задово@@ 1
кабинет 1
твърдо 1
ута 1
действ@@ 1
железопътната 1
композиции 1
магистра@@ 1
мото@@ 1
правен 1
преименува 1
разработката 1
тения 1
участвал 1
изгра@@ 1
новска 1
оттогава 1
сдорф 1
стък@@ 1
тясна 1
Кенеди 1
Литекс 1
въздушните 1
ейки 1
отвори 1
повишаване 1
разследване 1
растителни 1
U@@ 0.1142799977657785
Леоне 1
американското 1
животно 1
образци 1
отличен 1
полезни 1
протести 1
регу@@ 1
рек 1
речни 1
стващи 1
характерна 1
Основен 1
Самоков 1
Среден 1
ректор 1
спуска 1
фестивали 1
Веднага 1
Григор 1
Музеят 1
изтла@@ 1
искане 1
обединяват 1
персона@@ 1
платото 1
разпръ@@ 1
чай@@ 1
Африкан@@ 1
Науч@@ 1
висшето 1
жата 1
изтреб@@ 1
лаборатория 1
правени 1
Участ@@ 1
дате@@ 1
женската 1
лага@@ 1
скоро@@ 1
традицията 1
футбо@@ 1
Гей@@ 1
Пай@@ 1
възстановен 1
дското 1
заболяването 1
заповядва 1
овце 1
около@@ 1
полице@@ 1
сро@@ 1
ur@@ 0.15854069118128228
Висшата 1
Трай@@ 1
Фландрия 1
икономическата 1
някакъв 1
оставят 1
фелдмаршал 1
ходите 1
боеве 1
джо 1
пласти@@ 1
поля@@ 1
поручик 1
фогт 1
химични 1
1820 0.8310263986025151
Майк 1
Одеса 1
Централен 1
богатство 1
душ@@ 1
прак@@ 1
различия 1
сформи@@ 1
Аш@@ 1
Звез@@ 1
Изда@@ 1
Ман 1
магистър 1
може@@ 1
опреде@@ 1
почит@@ 1
съпротив@@ 1
Палеолог 1
Роман@@ 1
двойно 1
заседание 1
надписи 1
плаща 1
сие 1
френското 1
Кюстенди@@ 1
обслужва 1
събитието 1
съществувала 1
1837 1
Петка 1
включващ 1
днешната 1
замър@@ 1
занимават 1
истината 1
мачовете 1
намали 1
нк@@ 1
покрит 1
трасето 1
шведски 1
Екс@@ 1
Закон 1
Островът 1
Уилсън 1
рят 1
хран@@ 1
цветя 1
Дал@@ 1
бета 1
грузин@@ 1
назна@@ 1
старта 1
удовлетво@@ 1
атмосфера 1
готите 1
контак@@ 1
напу@@ 1
революцията 1
стките 1
тността 1
фор 1
десан@@ 1
звездите 1
историко 1
т.@@ 1
администрацията 1
законите 1
изграждат 1
охра@@ 1
преговорите 1
добавят 1
лство 1
опозиция 1
отговор@@ 1
1814 1
анима@@ 1
домаш@@ 1
ждана 1
започна 1
ограничава 1
правни 1
строе@@ 1
цъф@@ 1
Клуб 1
арестувани 1
заловен 1
лиан 1
листите 1
нанася 1
освет@@ 1
оформя 1
Операция 1
горните 1
общества 1
свето@@ 1
сио 1
трудности 1
Езерото 1
Общото 1
биографи@@ 1
евич 1
изложени 1
имението 1
мнението 1
опе@@ 1
писа@@ 1
пят 1
товар@@ 1
форт 1
1847 0.976448488695044
STS 1
Ака@@ 1
Боян 1
аресту@@ 1
архитектур@@ 1
древен 1
оне@@ 1
професия 1
ралния 1
степ@@ 1
боли@@ 1
дват 1
интегра@@ 1
класове 1
примирие 1
проблема 1
християнско 1
Анаста@@ 1
Крим 1
Мали 1
дама 1
живели 1
номера 1
отбележи 1
практиката 1
южното 1
ana 0.14353017196089657
Сръбска 1
внучка 1
навлизат 1
образуване 1
хектара 1
an@@ 0.06856558998326802
Гео@@ 1
Павлов 1
критиците 1
монт 1
наложи 1
нея@@ 1
огла@@ 1
сбор@@ 1
1841 1
Сяр@@ 1
бълга@@ 1
вход@@ 1
двой@@ 1
добрата 1
зда@@ 1
изобре@@ 1
линей@@ 1
напад@@ 1
покров@@ 1
средни 1
Алпи 1
Даун 1
Индийския 1
Кири@@ 1
единствения 1
ентите 1
загиналите 1
момчета 1
обстоятелства 1
онен 1
предназначен 1
пренебре@@ 1
шах 1
152 1
220 1
Бела 1
Гос@@ 1
Желез@@ 1
Кукуш 1
автен@@ 1
възстановена 1
декора@@ 1
доказателство 1
завладя@@ 1
мунд 1
поглъ@@ 1
прохода 1
съставено 1
тинг 1
3,@@ 0.6603896030578047
ac@@ 0.1615692888119946
Балтийско 1
гърците 1
задната 1
изменения 1
каф@@ 1
кримина@@ 1
легенди 1
прикри@@ 1
старт 1
Бурга@@ 1
Клубът 1
попъл@@ 1
разказа 1
разпределение 1
ску 1
фолк 1
r 0.20732671691948698
Архангел 1
Бул@@ 1
Сфорца 1
Шьонбург 1
вяване 1
дика 1
комерси@@ 1
мах 1
миси@@ 1
монархия 1
ползване 1
пребива@@ 1
Par@@ 0.17913308485681811
вината 1
захран@@ 1
значими 1
красива 1
международния 1
област@@ 1
поемат 1
помещава 1
представянето 1
прояви 1
танкове 1
тег@@ 1
Вул@@ 1
Коре@@ 1
влак 1
намиращи 1
подобрява 1
ръчно 1
служ@@ 1
Нюрнберг 1
Партията 1
Провинции 1
Третия 1
венециан@@ 1
излиза@@ 1
мисля 1
опашката 1
основание 1
проток 1
юри@@ 1
БСП 1
атрак@@ 1
дява 1
еко@@ 1
класификация 1
лм 1
пускането 1
ранния 1
скулптура 1
спортове 1
Джузепе 1
Опа@@ 1
виде@@ 1
епископ@@ 1
зет 1
кратка 1
рит@@ 1
топло@@ 1
тъл@@ 1
os@@ 0.16691667293620796
Дне@@ 1
Източници 1
Осман@@ 1
враг 1
дит 1
затворени 1
изучаването 1
испанската 1
линкора 1
мените 1
писта 1
рая 1
тесни 1
​ 1
Битол@@ 1
Театър 1
градските 1
композирана 1
кторите 1
нау@@ 1
риск 1
учения 1
шима 1
Алфонсо 1
Висшия 1
Гот@@ 1
Националният 1
възстанов@@ 1
геро@@ 1
испан@@ 1
лея 1
собстве@@ 1
традиционни 1
шения 1
Дъл@@ 1
Тиберий 1
Ща@@ 1
биология 1
осъще@@ 1
партизани 1
посред@@ 1
разби@@ 1
същества 1
турите 1
феода@@ 1
Фило@@ 1
австри@@ 1
изпълни 1
мала@@ 1
марката 1
образи 1
рациона@@ 1
скалите 1
цигани 1
09 0.6777904617752841
Долни 1
Льо@@ 1
Челси 1
идва@@ 1
иран@@ 1
късно@@ 1
сов@@ 1
ур 1
установено 1
физик 1
Голе@@ 1
Морис 1
Побед@@ 1
вателна 1
заку@@ 1
изискванията 1
колона 1
повтар@@ 1
рог 1
стъкло 1
Загреб 1
Монте 1
Ще@@ 1
гю@@ 1
инду@@ 1
сръбска 1
шанс 1
International 0.10296037525526787
Болоня 1
Вселенската 1
Марио 1
ССР 1
ерите 1
икона 1
конституцията 1
предишния 1
слож@@ 1
Бел 1
Габон 1
Копривщица 1
Синът 1
апарата 1
ватели 1
достъпни 1
зът 1
координа@@ 1
критикува 1
лози 1
народното 1
полож@@ 1
славян@@ 1
01 0.6849128075567561
Зай@@ 1
гате@@ 1
деви@@ 1
епархията 1
навсякъде 1
престой 1
топка 1
чини 1
Големият 1
Таймс 1
ловете 1
осу@@ 1
пил 1
постигане 1
професиона@@ 1
тексто@@ 1
църковно 1
юриди@@ 1
Араб@@ 1
Буда 1
Кларк 1
Млади 1
завръщат 1
понастоящем 1
препоръчва 1
приходи 1
продуцент@@ 1
произво@@ 1
скалата 1
унгар@@ 1
Родителите 1
вирту@@ 1
десет@@ 1
кораб@@ 1
обединението 1
обмен 1
пиеса 1
потенциал 1
щети 1
1851 0.8860536116435745
Ваймар 1
догово@@ 1
личното 1
мънд 1
отначало 1
придоб@@ 1
провъзгла@@ 1
раб@@ 1
ственост 1
стопан@@ 1
боен 1
ир 1
марк@@ 1
Московския 1
географската 1
издигат 1
изиск@@ 1
казване 1
поеме 1
сградите 1
съответства 1
търговско 1
Гран 1
автомобила 1
гни@@ 1
гористи 1
добрия 1
преобладават 1
уд@@ 1
японските 1
Добри 1
Праз@@ 1
бюджет 1
душата 1
каз@@ 1
моменти 1
пиро@@ 1
работниците 1
станало 1
съвпада 1
цеп@@ 1
щен@@ 1
дана 1
достига@@ 1
нор 1
оглед 1
руп@@ 1
светилище 1
чината 1
1844 1
Джейн 1
Транспорт 1
дире@@ 1
маг@@ 1
мити@@ 1
натиска 1
оператор 1
периоди@@ 1
следната 1
слънцето 1
улици 1
ядрото 1
врагове 1
завладява 1
поредни 1
продукцията 1
тестове 1
хата 1
хен 1
1846 0.9442216103947887
Примери 1
алкохол 1
братство 1
възрастните 1
деният 1
нидерланд@@ 1
ходни 1
6000 1
Октавиан 1
сборника 1
сложна 1
спре@@ 1
at 0.007186565282205997
eus 1
Златна 1
бела@@ 1
дивизията 1
кса 1
пехота 1
подписването 1
провинци@@ 1
ранното 1
рената 1
рим@@ 1
скулп@@ 1
сме 1
сра@@ 1
360 1
ІІІ 1
Арсенал 1
Артур 1
Уотсън 1
диалек@@ 1
заменени 1
икономическите 1
класифици@@ 1
напояване 1
поражението 1
призе@@ 1
пътуването 1
Смърт 1
купол 1
мето@@ 1
украса 1
чански 1
Армен@@ 1
Септември 1
измест@@ 1
испанците 1
купол@@ 1
лили 1
обвър@@ 1
предпочита 1
театрален 1
чести 1
Сми@@ 1
графи 1
грешки 1
движат 1
депресия 1
континентален 1
популярната 1
четвъртият 1
1836 1
Амстердам 1
Доктор 1
гова 1
ждали 1
каже 1
опла@@ 1
пласт@@ 1
предшественик 1
продуциран 1
резервата 1
финансиране 1
es 0.012144863045612565
Дву@@ 1
МС 1
Наградата 1
копри@@ 1
литра 1
обвинен 1
k 0.11954473180110499
z 0.12766374711388498
Беле@@ 1
Никифор 1
Ферари 1
кали 1
континент 1
пфалцграф 1
разпространена 1
съставя 1
вицепрезидент 1
дебютния 1
жното 1
санд@@ 1
скан@@ 1
08 0.6785850556385548
Команд@@ 1
Нейната 1
ият 1
католическа 1
летището 1
пространства 1
сване 1
теж@@ 1
хоризонта@@ 1
цен 1
Зимбабве 1
Комитета 1
Нил 1
Скопския 1
короната 1
почита@@ 1
прогре@@ 1
студентите 1
чиев 1
Евро 1
Патрик 1
Пламен 1
сват 1
стовете 1
фактически 1
формално 1
чуж@@ 1
Колев 1
Ун@@ 1
зря@@ 1
обявяването 1
фран@@ 1
Live 0.4250074956075372
is@@ 0.1359898291426999
Артър 1
Залм 1
Основ@@ 1
Основна 1
дипломира 1
захар 1
зени@@ 1
зрите@@ 1
ителният 1
композитори 1
меж@@ 1
политици 1
свален 1
семей@@ 1
сил 1
топлина 1
трупа 1
Индиана 1
Нер@@ 1
Орегон 1
гласуване 1
донася 1
индивиди 1
нител 1
спас@@ 1
стратегически 1
сушата 1
часов@@ 1
Вале@@ 1
Здра@@ 1
Зевс 1
водните 1
каса@@ 1
магьос@@ 1
руда 1
сала 1
сребърни 1
строят 1
чувств@@ 1
Анд@@ 1
Мило@@ 1
Узбекистан 1
лак@@ 1
пля@@ 1
фе 1
центра@@ 1
Вет@@ 1
ателите 1
отговорен 1
писан 1
ровите 1
f 0.21407105132419818
Германската 1
Гней 1
Създадена 1
безопасност 1
буди@@ 1
комен@@ 1
планета 1
централните 1
Основно 1
героя 1
журналисти 1
засил@@ 1
изобразява 1
кулите 1
официалното 1
посещават 1
последван 1
съща 1
ядрени 1
Уа@@ 1
кралството 1
къса 1
ляна 1
нещата 1
претор 1
стван 1
Валентин 1
влияте@@ 1
водена 1
започнал 1
максимум 1
обстановка 1
прокурор 1
смет@@ 1
френско 1
цита@@ 1
Благо@@ 1
Гръц@@ 1
ДС 1
армейски 1
илю@@ 1
отсе@@ 1
палу@@ 1
постановки 1
проза 1
Оупън 1
Районът 1
Румелия 1
Сатурн 1
Яко@@ 1
гно@@ 1
едри 1
йм 1
механика 1
пулос 1
четвъртия 1
шум 1
1400 1
Дебър 1
Неврокоп@@ 1
американско 1
играчите 1
индиан@@ 1
камен@@ 1
принадлежност 1
роза 1
студент@@ 1
течност 1
тиците 1
трай@@ 1
численост 1
ьон@@ 1
Второто 1
Чарли 1
зелен 1
изоста@@ 1
изявява 1
категорията 1
конструк@@ 1
поканен 1
получени 1
постройка 1
сана 1
шията 1
Люнебург 1
възраждане 1
тяхна 1
Социалистическа 1
бизнеса 1
дас 1
националното 1
товата 1
1792 1
2500 1
Оператор 1
арт 1
духо@@ 1
източни 1
международното 1
печата 1
посла@@ 1
Почетен 1
готов 1
мърт@@ 1
размера 1
Алек@@ 1
Позна@@ 1
изискват 1
липсват 1
манастири 1
математиката 1
мнозина 1
нявайки 1
отбор@@ 1
пев@@ 1
преживя@@ 1
Есте 1
Сената 1
Тур 1
бои 1
висо@@ 1
италианска 1
катедра@@ 1
лизма 1
пазари 1
посоката 1
разтво@@ 1
сив@@ 1
os 0.07604981602464611
Основното 1
Правителството 1
Твър@@ 1
Фир@@ 1
блус 1
жилищ@@ 1
зовава 1
преселници 1
уроци 1
06 0.7276135177752615
Буш 1
Дим@@ 1
гласове 1
дости@@ 1
запазване 1
накло@@ 1
стве@@ 1
удоб@@ 1
хожда 1
0,5 1
Трен@@ 1
мове 1
наследството 1
патрио@@ 1
подпоручик 1
свещеници 1
стото 1
телефон@@ 1
Бот@@ 1
Висшето 1
Източно@@ 1
Райх@@ 1
длъжности 1
озна@@ 1
океана 1
прах 1
сребро 1
er 0.01079442431709943
Берг 1
Надежда 1
Оста@@ 1
Спас 1
желае 1
журналистика 1
носо@@ 1
оставяйки 1
площадка 1
поди@@ 1
постройки 1
проя@@ 1
унгарския 1
Зон@@ 1
Лет@@ 1
Птолемей 1
възможностите 1
жилища 1
описват 1
проник@@ 1
соли@@ 1
часова 1
29@@ 1
Игра@@ 1
Мед@@ 1
езико@@ 1
изоли@@ 1
интересува 1
пон@@ 1
семена 1
яд@@ 1
ГДР 1
Търгов@@ 1
нината 1
облекло 1
оправ@@ 1
отговарят 1
откло@@ 1
сумата 1
формиран 1
Андроник 1
Източните 1
ветрове 1
енти 1
индустрията 1
обещава 1
откро@@ 1
паркове 1
правител@@ 1
селскостопански 1
фо 1
Ахмед 1
Двата 1
византи@@ 1
държани 1
машино@@ 1
нами@@ 1
последователи 1
преведени 1
пътници 1
юноши 1
влечуго 1
диалекти 1
обществения 1
писмени 1
препоръ@@ 1
роднина 1
тъм@@ 1
Холивуд 1
вятър 1
добитък 1
охла@@ 1
повреди 1
португалски 1
превода@@ 1
сюжета 1
феде@@ 1
Манастирът 1
Маринов 1
Министерския 1
Сайн 1
мане 1
ниче@@ 1
учат 1
хиля@@ 1
язовира 1
Tour 0.200150712063655
жълто 1
правилно 1
програм@@ 1
ролите 1
Вене@@ 1
Венера 1
Еритрея 1
Пекин 1
Персия 1
Шпи@@ 1
вели 1
впечат@@ 1
дието 1
електромагни@@ 1
изчезнал 1
ном 0.1433656939544836
обявени 1
рой 1
романите 1
страда@@ 1
упраж@@ 1
чай 1
Цан@@ 1
впечатля@@ 1
коди@@ 1
плътност 1
подходящ 1
тацията 1
християнска 1
Анастасия 1
британска 1
войводата 1
гей 1
изложение 1
покана 1
правителствени 1
увре@@ 1
футболни 1
Борисов 1
Гон@@ 1
Жъл@@ 1
Йоахим 1
Наум 1
бомби 1
дълбоки 1
кни@@ 1
меч@@ 1
намери@@ 1
съветския 1
телевизионния 1
шаване 1
Волга 1
Вътреш@@ 1
Жана 1
Йордания 1
бърза 1
върхов@@ 1
заряд 1
императорски 1
климати@@ 1
летате@@ 1
радиото 1
рето 1
увеличават 1
целият 1
чино 1
шу 1
Бруно 1
Мало@@ 1
Народната 1
ад 1
европейския 1
кафе 1
психологи@@ 1
пътят 1
християнската 1
al 0.017268330207257557
Действието 1
Яков 1
дарения 1
жния 1
заселени 1
защити 1
лиране 1
насяне 1
премиерата 1
снаб@@ 1
статуя 1
CD 0.29476396577143593
Мустафа 1
Следващата 1
Спе@@ 1
Тау@@ 1
високият 1
представления 1
пускане 1
тун@@ 1
Бога 1
Лихтенщайн 1
Мисури 1
Следователно 1
бъл@@ 1
ваше 1
километър 1
ливост 1
лорд 1
мерно 1
овладя@@ 1
откъс@@ 1
снато 1
стипендия 1
Гълъ@@ 1
дългогодишен 1
излъ@@ 1
изселва 1
могли 1
монумента@@ 1
прене@@ 1
приемник 1
спек@@ 1
ъка 1
Алекс 1
Зем@@ 1
Маркс 1
Рене 1
Юлиана 1
агре@@ 1
единия 1
естествена 1
многото 1
нарко@@ 1
наследен 1
откъм 1
шното 1
07 0.6975314323253407
1839 0.9967522813394444
1843 1
вения 1
задължител@@ 1
използвали 1
крила 1
наследничка 1
уро@@ 1
Западния 1
Ок@@ 1
брони@@ 1
гвардия 1
господството 1
диоксид 1
обсада 1
откаже 1
поколения 1
преименувано 1
разчита 1
руснаците 1
черве@@ 1
Дек@@ 1
Костадин 1
Мара@@ 1
масиви 1
почива 1
регионални 1
сухи 1
БН@@ 1
елементите 1
крале 1
лените 1
мак 1
планиране 1
създател 1
тъкан 1
хоф 1
художествен 1
шести 1
Дебър@@ 1
Женен 1
Тереза 1
бела 1
жре@@ 1
празника 1
ситуации 1
шените 1
Гранд 1
Лацио 1
Републиканската 1
Руска 1
бого@@ 1
вка@@ 1
коно@@ 1
махали 1
нек 1
сръбския 1
строителен 1
Братя 1
Кук 1
Мори@@ 1
бойното 1
гарантира 1
групи@@ 1
признаци 1
режисура 1
тера 1
учение 1
ходя@@ 1
Геминген 1
Източния 1
върви 1
достигнат 1
намаляват 1
позволи 1
ствия 1
сърбите 1
тенберг 1
учре@@ 1
фланг 1
Андре 1
местна 1
украин@@ 1
Изку@@ 1
Тоскана 1
каквито 1
катастро@@ 1
лък 1
любов@@ 1
незакон@@ 1
рея 1
сериозна 1
фундамента@@ 1
Иванова 1
Себастиан 1
дебю@@ 1
завършил 1
обширни 1
претенции 1
Каледония 1
Разработ@@ 1
Суринам 1
етажа 1
жилищни 1
извежда 1
ландската 1
установени 1
втори@@ 1
графската 1
експедиции 1
Берлинския 1
СК 1
жица 1
заета 1
петна 1
преместват 1
професионално 1
Вре@@ 1
Типи@@ 1
видео@@ 1
допълнителна 1
игрите 1
лищ@@ 1
нареждане 1
носен 1
писменост 1
Фрай@@ 1
деноно@@ 1
партизанин 1
причинява 1
Първична 1
Скоп@@ 1
Сол@@ 1
екзеку@@ 1
екзо@@ 1
хва 1
Македонския 1
верен 1
дървена 1
евенту@@ 1
летния 1
намира@@ 1
оцелели 1
раждат 1
Родо@@ 1
Шумен@@ 1
ази@@ 1
атмосфер@@ 1
васа@@ 1
геоло@@ 1
издържа 1
изло@@ 1
пере@@ 0.18049255998928213
седа@@ 1
снимките 1
царица 1
Джен@@ 1
Религии 1
Футбо@@ 1
аристокра@@ 1
артист 1
бла 1
лиценз 1
мово 1
ол@@ 1
риал@@ 1
усъвършен@@ 1
ционният 1
280 1
Австрийска 1
Били 1
очер@@ 1
палата 1
трапе@@ 1
четвъртата 1
чл 1
Грами 1
зал 1
квадра@@ 1
клуб@@ 1
компютърна 1
космо@@ 1
мексикан@@ 1
нел 1
проро@@ 1
републиката 1
симптоми 1
цилиндри@@ 1
Воден 1
Живков 1
Михаел 1
Уо@@ 1
госту@@ 1
дисциплина 1
изследовате@@ 1
къс 1
лам@@ 1
лит@@ 1
медицината 1
походи 1
сате@@ 1
социален 1
цивилни 1
Анто@@ 1
Дамян 1
Страната 1
движе@@ 1
ела@@ 1
емиграция 1
мания 1
минимум 1
нака@@ 1
отиде 1
пати@@ 1
привърженици 1
пръстен 1
стратегия 1
съвмест@@ 1
ся 1
тексти@@ 1
хин 1
шахмат 1
Причината 1
Рено 1
Чин@@ 1
Шекспир 1
ансамбъл 1
вероя@@ 1
дала 1
корей@@ 1
тайни 1
технологи@@ 1
философ@@ 1
дарява 1
дъб 1
зеленчуци 1
интересите 1
колекции 1
лизирани 1
независим 1
повлия@@ 1
съсед@@ 1
фат@@ 1
Гъстотата 1
Манасти@@ 1
Новия 1
делегация 1
долините 1
живя@@ 1
започнат 1
идентичност 1
корен@@ 1
народните 1
Галия 1
кипър@@ 1
ливади 1
монгол@@ 1
поклон@@ 1
профил 1
равнин@@ 1
стрелбата 1
4,@@ 0.6727647143163443
Бундеслига 1
Джими 1
Кастел 1
Опреде@@ 1
Прав@@ 1
заим@@ 1
преко@@ 1
разработена 1
случа@@ 1
One 0.11448158185337835
Бари 1
Сме@@ 1
близка 1
европейското 1
зал@@ 1
плит@@ 1
потом@@ 1
традиционната 1
успешните 1
шил 1
м. 1
охлюв 1
партий@@ 1
серви@@ 1
сман 1
тяването 1
Военна 1
Музей 1
Фул@@ 1
начално 1
съоръжение 1
харесва 1
Работата 1
Франсис 1
еднакви 1
ент 1
завода 1
ис 1
крайбрежията 1
прите@@ 1
тано 1
убийства 1
W 0.30122788575218634
Мани@@ 1
адрес 1
земетресение 1
кръст@@ 1
моду@@ 1
навечерието 1
постижение 1
произведението 1
специализи@@ 1
четници 1
Влива 1
ТКЗС 1
Тесалия 1
Феликс 1
дето 1
емоциона@@ 1
конкурен@@ 1
отдясно 1
оти 1
приятелите 1
спомага 1
унищожава 1
Оде@@ 1
актьорско 1
измисле@@ 1
кология 1
котка 1
минерални 1
новини 1
сигнали 1
увеличи 1
en 0.002422176862066562
Големите 1
дания 1
кс@@ 1
построяване 1
робо@@ 1
хов@@ 1
1818 1
Кау@@ 1
празнува 1
премах@@ 1
пристани@@ 1
тали@@ 1
филмови 1
храсти 1
Джони 1
Мусолини 1
величина 1
годишнина 1
жител@@ 1
монаше@@ 1
обхваща@@ 1
обществените 1
помещение 1
преодо@@ 1
стома@@ 1
съдържащи 1
Апри@@ 1
ит 1
насър@@ 1
персонал 1
преводи 1
1832 0.9729072349886304
TV 0.13203395880840055
Бос@@ 1
Макси@@ 1
Савойски 1
Сли@@ 1
Стив 1
Япон@@ 1
височини 1
възрастта 1
колеги 1
областите 1
огне@@ 1
търсе@@ 1
чеш@@ 1
Антарктида 1
Ленинград 1
МКС 1
Орден 1
изтича 1
наличие 1
освобождение 1
отгоре 1
хляб 1
Къп 1
единство 1
замъкът 1
крак 1
наше@@ 1
покой@@ 1
председателят 1
терми@@ 1
установяването 1
формула 1
царството 1
1838 0.9454801727766086
Костур@@ 1
допуска 1
изстре@@ 1
лителни 1
пленен 1
полицейски 1
прекъсване 1
сезон@@ 1
убеди 1
1834 0.9861589107302614
opus 1
Евре@@ 1
Ени@@ 1
Софийски 1
Теодосий 1
асоции@@ 1
бана@@ 1
волейбол 1
дос 1
обяви 1
съпру@@ 1
Коми@@ 1
Управлението 1
архипелага 1
бягат 1
глад 1
емата 1
зий 1
иници@@ 1
разпределени 1
съвременното 1
талант 1
Дай@@ 1
Нау@@ 1
Провежда 1
Свър@@ 1
Хау@@ 1
департамента 1
дец 1
карти@@ 1
салон 1
създадат 1
5,@@ 0.7514099883311678
Рад@@ 1
Силезия 1
Южния 1
молекули 1
пренася 1
химически 1
Топ 1
Фиджи 1
албанци 1
богове 1
мари@@ 1
обикновени 1
районите 1
рисуване 1
тежи 1
тютю@@ 1
шахмат@@ 1
Констан@@ 1
Радев 1
Ски@@ 1
бота@@ 1
вливат 1
енбург 1
жил 1
корпора@@ 1
минерали 1
мони@@ 1
осъзна@@ 1
продуци@@ 1
риан@@ 1
селско 1
сь@@ 1
тава 1
хитове 1
ширината 1
Киргизстан 1
Клод 1
Паул 1
Ривър 1
гали 1
детайли 1
залата 1
победен 1
радва 1
странични 1
суша 1
тържествено 1
финалите 1
шко@@ 1
Еди@@ 1
Цариградската 1
гени 1
гроб 1
кандидат@@ 1
мечка 1
общин@@ 1
преживява 1
републикански 1
чената 1
Адриан 1
Джъ@@ 1
Румен 1
Светослав 1
Траки@@ 1
бедните 1
всеки@@ 1
изобразен 1
пещери 1
противници 1
стал 0.1720665581505932
творчески 1
трае 1
усе@@ 1
формули@@ 1
частите 1
четите 1
Пир@@ 1
изчисления 1
ила 1
каните 1
красота 1
лю 1
нава 1
намерен 1
отряди 1
сочат 1
централно 1
Антъни 1
Бостън 1
гроба 1
ограничено 1
повишава 1
съобщение 1
750 1
арменски 1
пехотата 1
полуострова 1
ристи 1
став@@ 1
стигат 1
1810 1
Исак 1
Реката 1
ард 1
бившият 1
ждава 1
забранено 1
затворници 1
института 1
класация 1
относ@@ 1
потреб@@ 1
триъгъл@@ 1
цер@@ 1
Продължителността 1
Рос 1
бандата 1
общността 1
потушаването 1
промоция 1
тесен 1
часове 1
Айова 1
Ивайло 1
Мичиган 1
говоре@@ 1
континента@@ 1
максималната 1
нак@@ 1
носи@@ 1
обитават 1
обучава 1
пореден 1
привърженик 1
разгрома 1
световните 1
сив 1
установяване 1
ховете 1
чисти 1
Дж 1
Любо@@ 1
гва 1
знамето 1
коса 1
новено 1
обли@@ 1
счето@@ 1
34,@@ 1
Док@@ 1
Преподава 1
Русен@@ 1
Юн@@ 1
възрастният 1
дупка 1
ентът 1
изв@@ 1
точни 1
Вила 1
Тюрингия 1
вгра@@ 1
заговор 1
изчер@@ 1
летна 1
определение 1
столи@@ 1
1793 1
Йорданов 1
Настоя@@ 1
План@@ 1
ара@@ 1
дубли@@ 1
засяга 1
обуча@@ 1
разпространяват 1
редба 1
рим 1
тит@@ 1
тръгват 1
футбола 1
хармо@@ 1
Волфенбютел 1
аржен@@ 1
класациите 1
линеен 1
мощни 1
мюсюлмански 1
наклон 1
общ@@ 1
пас@@ 1
правителства 1
приятелка 1
продаден 1
члена 1
янов 1
бавар@@ 1
близкото 1
бъдещата 1
дки 1
дъл 1
звучене 1
зон@@ 1
изобразени 1
имо@@ 1
нишка 1
обикновена 1
отзиви 1
цело@@ 1
id@@ 0.14723037318323573
ti 0.2777239986456974
Того 1
Уил@@ 1
валута 1
възло@@ 1
класирането 1
плате@@ 1
техният 1
127 1
Гонзага 1
Обществото 1
гени@@ 1
голе@@ 1
дъно 1
земен 1
наем@@ 1
ова@@ 1
пара 1
преследване 1
разбират 1
1842 0.914982033915678
Бей 1
Бил@@ 1
Камен@@ 1
Християн@@ 1
Цюрих 1
асфал@@ 1
бърз 1
вод 1
годе@@ 1
кала 1
менти@@ 1
придружава 1
пур@@ 1
ВЕЦ 1
Възник@@ 1
Олга 1
академията 1
ждават 1
индо@@ 1
модифици@@ 1
правосъдието 1
редиците 1
съзнанието 1
фенове 1
Влашко 1
Дядо 1
Петрич 1
дякон 1
изма@@ 1
йо 1
камер@@ 1
рън 1
търже@@ 1
фира 1
Царство 1
постави 1
собствеността 1
средствата 1
Червено 1
адре@@ 1
дви@@ 1
дек@@ 1
маршрут 1
насочена 1
ол 1
органични 1
отро@@ 1
поречието 1
стването 1
тюр@@ 1
участвали 1
щават 1
Златната 1
Лерин 1
Поло@@ 1
виц 1
въртя@@ 1
гама 1
дея 1
екземпляри 1
завинаги 1
застрахо@@ 1
конкре@@ 1
летя@@ 1
математически 1
подробно 1
подчер@@ 1
растението 1
сяването 1
ti@@ 0.12988140942027673
Габров@@ 1
Другите 1
Чарлс 1
консерватория 1
натите 1
сион 1
съюзник 1
Генуа 1
Цвайбрюкен 1
просветен 1
терористи@@ 1
og@@ 0.28817112907084486
Апосто@@ 1
спектър 1
стено@@ 1
трибу@@ 1
ховен 1
Боб 1
Европейското 1
Зигфрид 1
Счита 1
гас 1
дии 1
ледник 1
шев@@ 1
вул@@ 1
гимнази@@ 1
екземпляра 1
лингви@@ 1
лищата 1
партизан@@ 1
системите 1
считан 1
сяват 1
1825 1
Аполо 1
Жителите 1
Ленин 1
вто@@ 1
вярват 1
гово@@ 1
драмати@@ 1
еро 1
зато@@ 1
защита@@ 1
крайбре@@ 1
поставянето 1
проже@@ 1
разликата 1
стри 1
Горни 1
Построена 1
Тенеси 1
диско@@ 1
кампании 1
нападате@@ 1
отли@@ 1
сали@@ 1
1100 1
Баба 1
Валдбург 1
гащи 1
мба 1
метри 1
племената 1
сблъсък 1
тематика 1
яния 1
All 0.10382234538294742
Касел 1
Манд@@ 1
включващи 1
забеля@@ 1
критику@@ 1
ора@@ 1
пва 1
пети@@ 1
проявяват 1
собствения 1
спи 1
стови 1
френският 1
Вод@@ 1
Порт 1
анти 1
впечатление 1
далечни 1
кина 1
кош@@ 1
модернизация 1
противополож@@ 1
тман 1
1822 1
Ерих 1
Паисий 1
Присъединява 1
Том@@ 1
Хара@@ 1
Хърват@@ 1
актьора 1
китайската 1
конту@@ 1
н. 0.9234308934504233
оригина@@ 1
състояния 1
характерно 1
шах@@ 1
Ди 1
Злата@@ 1
Международен 1
вай 1
зре@@ 1
кор 1
награ@@ 1
настъплението 1
снат 1
танц@@ 1
шенията 1
190 1
il@@ 0.14022003873112304
Оряховица 1
Политическа 1
ФГ 1
германското 1
жили 1
катаревуса 1
кой@@ 1
конден@@ 1
македонската 1
напуснат 1
особен 1
разширяване 1
Бруней 1
Копа 1
Хенриета 1
ави@@ 1
архитектурни 1
бъбре@@ 1
завладяването 1
оранже@@ 1
осве@@ 1
педагог 1
писите 1
снима@@ 1
тухли 1
финансов 1
флаг 1
хаус 1
чене 1
четвърто 1
Доми@@ 1
автобиографи@@ 1
ала 1
банки 1
вис 1
колата 1
маз@@ 1
могили 1
немска 1
пловдив@@ 1
сегашното 1
1813 1
Арги@@ 1
Димитрова 1
Лигата 1
абатството 1
изпитва 1
навига@@ 1
описан 1
отляво 1
поезията 1
спират 1
човешка 1
Бле@@ 1
Ли 1
Пловдив@@ 1
отделения 1
писана 1
разбива 1
урба@@ 1
чица 1
Икономиче@@ 1
Отново 1
Смъртта 1
Фал@@ 1
автономия 1
илюстра@@ 1
народ@@ 1
неприя@@ 1
повърхност@@ 1
показатели 1
прити@@ 1
св@@ 1
усп@@ 1
чър 1
It 0.01754609375807726
Господне 1
Занимава 1
Съюз 1
Третата 1
апо@@ 1
аторите 1
влади@@ 1
камара 1
погребани 1
съвети 1
Кралската 1
Малка 1
Мориц 1
Принц 1
Южно@@ 1
кий 1
обикаля 1
построи 1
стенописите 1
Ада@@ 1
Сюлейман 1
високия 1
зако@@ 1
кола@@ 1
материал@@ 1
оспор@@ 1
предаден 1
пристанища 1
слън@@ 1
Близо 1
Лили 1
Олденбург 1
Рос@@ 1
Слав@@ 1
Соб@@ 1
Четири@@ 1
британското 1
намерят 1
нските 1
параметри 1
предизвика 1
публични 1
разработени 1
руският 1
ръкописи 1
чака 1
щастие 1
Енер@@ 1
Желяз@@ 1
Шьон@@ 1
онер 1
офанзива 1
парче 1
скандал 1
съдебен 1
техен 1
фур@@ 1
Бръ@@ 1
Кунигунда 1
визия 1
второ@@ 1
ело 1
засилва 1
късни 1
лом@@ 1
ола 1
поддържане 1
принципите 1
стро 1
съществуващите 1
царски 1
Конгреса 1
бр 1
влюбва 1
гото 1
гръбна@@ 1
дио 1
зала@@ 1
кота 1
кули@@ 1
материя 1
сал@@ 1
сребър@@ 1
струк@@ 1
херцога 1
хил 1
шкият 1
Веселин 1
Джим 1
Кралския 1
Крон@@ 1
емигран@@ 1
завод@@ 1
митрополи@@ 1
нила 1
обединена 1
ориентация 1
отдела 1
предотврати 1
Life 0.22077691709492528
вския 1
гърдите 1
отглежда 1
форум 1
булевард 1
преименувана 1
приятел@@ 1
сх@@ 1
употребява 1
централа 1
ченко 1
югослав@@ 1
Айрес 1
Клю@@ 1
Пред 1
Щутгарт 1
африкански 1
извърши 1
прекратяване 1
стове 1
Байерн 1
Кун@@ 1
Оригина@@ 1
бана 1
голмайстор 1
дуин 1
енщайн 1
лекарства 1
средните 1
тока 1
Бисмарк 1
Вален@@ 1
Жорж 1
Злато@@ 1
Каро@@ 1
Кора@@ 1
Лорънс 1
Спасов 1
бойци 1
видните 1
демонстрира 1
императорът 1
картините 1
любовен 1
портре@@ 1
престоя 1
продължително 1
християните 1
Group 0.15452967874890514
Граф 1
Джули@@ 1
Маргарет 1
Неофит 1
Самуил 1
Хиро@@ 1
Центъра 1
голове 1
изпратена 1
итен 1
канцлер 1
колекцията 1
пазят 1
слънце 1
художествено 1
шампионка 1
Пръ@@ 1
вестниците 1
вов 1
дис@@ 1
затруд@@ 1
изчисле@@ 1
оригиналния 1
отглеждането 1
познава 1
стичните 1
тското 1
уле@@ 1
чиста 1
Хро@@ 1
лио 1
наречената 1
получа@@ 1
работник 1
републики 1
риан 1
сей@@ 1
следното 1
станали 1
Витоша 1
Воен@@ 1
Негово 1
Тринидад 1
вира 1
ещ 1
изто@@ 1
лекари 1
освобо@@ 1
публикуват 1
размерите 1
Видин@@ 1
Рон@@ 1
Черни 1
благородници 1
лъв 1
нички 1
сат@@ 1
слаби 1
Бели 1
Секре@@ 1
вас 1
нем@@ 1
неуспешен 1
рай 1
съчи@@ 1
товари 1
точност 1
трикорабна 1
философски 1
Y 0.294398394150044
Игор 1
Окръ@@ 1
Северната 1
Слу@@ 1
бремен@@ 1
вне@@ 1
дили 1
дли@@ 1
издател 1
ковска 1
музикалния 1
нашествие 1
оча@@ 1
плен@@ 1
примити@@ 1
Българ@@ 1
Кампания 1
Сухо@@ 1
аматьор@@ 1
бий 1
бомба 1
меня@@ 1
ниста 1
предприемат 1
Израства 1
гроб@@ 1
жеството 1
максимално 1
мозък 1
Близ@@ 1
Дъглас 1
Род@@ 1
българ@@ 1
звука 1
излъчват 1
майчина 1
мраз@@ 1
нни 1
океани 1
преподаватели 1
проектът 1
редовни 1
религиозните 1
следващото 1
фът 1
Billboard 0.34347967193646567
ys 0.3233910598844947
Пиетро 1
избух@@ 1
краищата 1
крепост@@ 1
очевидно 1
рийската 1
странно 1
териториал@@ 1
Академия 1
Блан@@ 1
Предистория 1
Унгар@@ 1
Хали@@ 1
Цялото 1
дърво@@ 1
кред@@ 1
пова 1
подчертава 1
припис@@ 1
работещи 1
шек 1
Буенос 1
Вилхелмина 1
Ден 1
вяне 1
илюстри@@ 1
македонци 1
направления 1
официалния 1
партнира 1
покаже 1
скоп@@ 1
степени 0.7585740893994346
тетра@@ 1
Les 0.036088406348481615
Аг@@ 1
Балканските 1
Крушево 1
Руанда 1
Създава 1
дирекция 1
заеме 1
пусне 1
разрушени 1
родът 1
черния 1
an 0.005218136505192222
Институт 1
Слън@@ 1
внезапно 1
музикалните 1
персийски 1
сток 1
уа 1
02 0.7160327955005735
V. 0.46485417362030484
Нигер 1
Саарбрюкен 1
Урал 1
вик 1
дворцо@@ 1
езерата 1
менидж@@ 1
нио 1
спечелил 1
финансово 1
фини@@ 1
широко@@ 1
1789 1
f@@ 0.07977249584896391
Дома@@ 1
Леонардо 1
близкия 1
вей 1
обикновените 1
реши 1
свире@@ 1
стието 1
сформира 1
цялостно 1
АС@@ 1
Савоя 1
Хановер 1
блестя@@ 1
вземане 1
времен@@ 1
завою@@ 1
макси@@ 1
повлиян 1
повтаря 1
предимство 1
прилагат 1
пролет 1
стери@@ 1
студена 1
съседни 1
съществувало 1
учението 1
фаши@@ 1
фикации 1
чле@@ 1
Мали@@ 1
Народ@@ 1
Револю@@ 1
Фугер 1
вската 1
изстрела 1
мохамедани 1
промишлеността 1
селек@@ 1
съответната 1
търгу@@ 1
шар@@ 1
щит 1
1795 1
Ханау 1
Юпитер 1
бат 1
възползва 1
инте@@ 1
лиш@@ 1
320 1
as@@ 0.10223274090852325
ВИ@@ 1
Взема 1
Роджър 1
загинали 1
кини 1
модерни 1
мозъка 1
оригиналната 1
предложения 1
пълното 1
тенденция 1
техническа 1
укри@@ 1
Black 0.18323051830249
Тат@@ 1
боеприпаси 1
бокс 1
дли 1
ждащи 1
изключен 1
направил 1
пат 1
рила 1
Кристофър 1
Мати@@ 1
Осо@@ 1
борят 1
географско 1
площада 1
провинциите 1
текстовете 1
церемонията 1
Бащата 1
Жени 1
Майн 1
бързи 1
действащи 1
делата 1
ждал 1
заменена 1
мощ 1
нология 1
разходите 1
строена 1
търсенето 1
фауна 1
чането 1
1803 1
Системата 1
Стъ@@ 1
авторът 1
динами@@ 1
дока@@ 1
конен 1
лизирана 1
начи@@ 1
нома@@ 1
обсъ@@ 1
обяс@@ 1
планинската 1
сериозен 1
en@@ 0.049025038525390044
Хонконг 1
арх@@ 1
биография 1
жаби 1
зово 1
имение 1
коня 1
обвиня@@ 1
рова@@ 1
степента 1
вечерта 1
мали 1
механизми 1
мур 1
нарушения 1
ниан 1
образувания 1
опозицията 1
размен@@ 1
районът 1
ценен 1
АТ@@ 1
ООД 1
Обще@@ 1
Съюзниците 1
древна 1
комитета 1
окупа@@ 1
пшеница 1
Държав@@ 1
Програмата 1
Продължава 1
древния 1
забрана 1
заведение 1
мерите 1
обслужване 1
пала@@ 1
реди@@ 1
религиозен 1
ствола 1
Z 0.35085399267991935
lo@@ 0.16646221054667615
Клет@@ 1
Либерия 1
Румъ@@ 1
Третият 1
Цанков 1
белтъ@@ 1
въведена 1
живява 1
квалификациите 1
размно@@ 1
ствани 1
ственият 1
1797 1
Кит@@ 1
Странджа 1
законодателство 1
захар@@ 1
лоу 1
междин@@ 1
нем 1
олтара 1
совите 1
услугите 1
чува 1
шир 1
ьой 1
Торонто 1
дупки 1
кван@@ 1
красиви 1
лената 1
понти@@ 1
реб@@ 1
следствие 1
съгласни 1
таен 1
фов 1
Банско 1
Лион 1
Наблю@@ 1
Панайот 1
Пуерто 1
Четири 1
аро@@ 1
израв@@ 1
полско 1
привър@@ 1
работни 1
сценари@@ 1
Велико@@ 1
Вермахта 1
джия 1
заха@@ 1
кала@@ 1
конгре@@ 1
наричано 1
осъществяват 1
проверка 1
пропорциона@@ 1
седемте 1
сложен 1
улицата 1
формирана 1
Tr@@ 0.13321322815595768
am@@ 0.10496511225818456
Алабама 1
Гел@@ 1
Режи@@ 1
Участник 1
веригата 1
горска 1
греб@@ 1
етапа 1
ждението 1
изрази 1
напитки 1
немците 1
увеличение 1
цилин@@ 1
школи 1
Barbus 1
Белиз 1
Ред 1
гъби 1
даря 1
дошли 1
есен@@ 1
отворена 1
постигат 1
предназначена 1
разстояния 1
урата 1
църковен 1
четвърта 1
чили 1
230 1
Бон 1
Зак@@ 1
Путин 1
Структура 1
българин 1
книжо@@ 1
кърмата 1
мъжкия 1
напрежението 1
споделят 1
топката 1
чешма 1
широ@@ 1
ul@@ 0.13947599132631092
Андерсън 1
Аристотел 1
Полската 1
дърветата 1
кандидати 1
пече@@ 1
пията 1
разкло@@ 1
сайтове 1
самоубива 1
тет 1
транспорта 1
швейцар@@ 1
1790 1
Награден 1
Оръ@@ 1
Прото@@ 1
Размножаване 1
вален@@ 1
елимини@@ 1
жие 1
изстрел@@ 1
крие 1
освободи 1
осъдени 1
писателката 1
прилича 1
холанд@@ 1
четене 1
4,5 1
Грийн 1
Световния 1
бараба@@ 1
взаим@@ 1
влаж@@ 1
възможна 1
доро@@ 1
еквивален@@ 1
забележителност 1
земе@@ 1
общественото 1
опери@@ 1
поставено 1
призната 1
протест 1
рище 1
триум@@ 1
хе 1
Джумая 1
Лон@@ 1
Окръжния 1
английските 1
изтъ@@ 1
лителна 1
лф 1
свидетелстват 1
уреди 1
фасада 1
orum 0.9117254118755392
Парма 1
бов 1
гла 1
нарису@@ 1
родове 1
тимът 1
файлове 1
фли@@ 1
ops 0.9207597882761837
Дева 1
Нат@@ 1
Обща 1
Уот@@ 1
измежду 1
кода 1
лийския 1
лири@@ 1
мест@@ 1
нара@@ 1
озаглавена 1
отклонява 1
полските 1
разкриват 1
рико 1
уязвим 1
ърд 1
Латинска 1
Оклахома 1
Релефът 1
Старото 1
атоми 1
вършва 1
зака@@ 1
йния 1
клави@@ 1
организирано 1
тинския 1
югоизточна 1
Анастас 1
Кня@@ 1
Лоренцо 1
авиацион@@ 1
завърне 1
изгон@@ 1
изпрати 1
ляво 1
ожени 1
полити@@ 1
пур 1
слаба 1
сътруд@@ 1
хълмове 1
чал 1
Шей@@ 1
аз@@ 1
буря 1
готови 1
джамията 1
комунистите 1
простран@@ 1
сключват 1
тас 1
Изградена 1
Капитан 1
австрийския 1
защитават 1
звездата 1
поява 1
селската 1
шената 1
1819 1
eri 0.5040091761303753
Бли@@ 1
Мигел 1
господство 1
индивида 1
интелигент@@ 1
кръста 1
купу@@ 1
лезли 1
лекси@@ 1
обичаи 1
основате@@ 1
присъединяването 1
разклонения 1
родом 1
японския 1
Монфор 1
Хауърд 1
Юридическия 1
атин@@ 1
допри@@ 1
дъжд 1
единият 1
конвенция 1
пета 1
продук@@ 1
работна 1
стичната 1
ционер 1
Копенхаген 1
НИ@@ 1
болни 1
изработен 1
л. 1
небе@@ 1
поми@@ 1
превърнат 1
странни 1
строене 1
тивите 1
фокуси@@ 1
Краков 1
Пя@@ 1
бежанско 1
гови 1
госпо@@ 1
дванадесет 1
жките 1
използвал 1
компак@@ 1
покритие 1
посмъртно 1
събирането 1
съпругът 1
физическа 1
човешкия 1
Car@@ 0.13445212333575268
In@@ 0.11198535775970749
Rock 0.2612440536280991
Бенин 1
Червен 1
добро@@ 1
зната 1
медала 1
озву@@ 1
предска@@ 1
разновидности 1
Поя@@ 1
Фридерика 1
бодлоперка 1
боснен@@ 1
дести@@ 1
земна 1
извършване 1
йк 1
лах 1
мюсюлманите 1
надлъж@@ 1
наркотици 1
нормално 1
опита@@ 1
писате@@ 1
хорст 1
японците 1
Вид 1
Мис 1
Мно@@ 1
главното 1
изписани 1
изсе@@ 1
интерфейс 1
кине@@ 1
ключо@@ 1
мину@@ 1
насочват 1
ническото 1
носец 1
художникът 1
Моно@@ 1
ОК 1
ака@@ 1
допи@@ 1
мнозинството 1
одобрява 1
технологията 1
хвърлят 1
1833 0.9109665000646949
ec@@ 0.1470993891302577
Британия 1
Камарата 1
разболява 1
ритъм 1
тъкани 1
Клара 1
Тялото 1
Хин@@ 1
лински 1
необходимите 1
отстранен 1
преследва 1
ранно@@ 1
1,2 1
1805 1
Бара@@ 1
Боро@@ 1
Ерне@@ 1
болка 1
зареждане 1
квалификация 1
мила 1
неф@@ 1
оперативно 1
офис 1
тист 1
траки@@ 1
ura 0.32881570137247085
Класификация 1
Клу@@ 1
Робер 1
дент@@ 1
драз@@ 1
единствена 1
лизиран 1
машината 1
ниите 1
нили 1
статуи 1
струва 1
тичното 1
тури@@ 1
тютюн 1
Арена 1
Оман 1
випуск 1
докторат 1
другият 1
затворена 1
изпъ@@ 1
квалифика@@ 1
либе@@ 1
общите 1
построено 1
преди@@ 1
преци@@ 1
чове@@ 1
шведския 1
Веле@@ 1
Националното 1
Траян 1
анг@@ 1
базиликата 1
дано 1
дино 1
дските 1
коко@@ 1
организирането 1
плаването 1
позити@@ 1
пропуска 1
проследява 1
разсъ@@ 1
саксо@@ 1
стиче@@ 1
сърбо@@ 1
творче@@ 1
Бун@@ 1
Жа@@ 1
Средно 1
великите 1
върховете 1
жанрове 1
извира 1
лари 1
отрича 1
пълноводие 1
пътешествие 1
тието 1
хоно@@ 1
Бет@@ 1
Европейска 1
Император@@ 1
Мануел 1
Палау 1
австро 1
дома@@ 1
иконите 1
иту@@ 1
лице@@ 1
освободени 1
подпомагане 1
предоста@@ 1
продукции 1
пътни 1
реги@@ 1
регистри@@ 1
ске 0.7061040918044357
средния 1
укрепления 1
da 0.04074194833113656
абстрак@@ 1
византийската 1
дне@@ 1
краен 1
краища 1
купола 1
линкорите 1
лодка 1
опера@@ 1
певци 1
сирене 1
станат 1
схеми 1
четвърт@@ 1
шаването 1
Wrestling 0.6533040774382025
вале@@ 1
влошава 1
кава 1
музеи 1
пънк 1
разделянето 1
снаряд 1
щайки 1
305 1
ap@@ 0.11133211372493207
Бори@@ 1
Проф 1
СП@@ 1
астро@@ 1
бри 1
версията 1
владенията 1
изданието 1
мес 1
насърчава 1
равнини 1
социали@@ 1
хищ@@ 1
художе@@ 1
Андре@@ 1
Завръща 1
Струмица 1
бните 1
въздействието 1
кеч 1
кралската 1
лята 1
можем 1
подходяща 1
пробле@@ 1
проведена 1
разход@@ 1
сдружение 1
сят 1
Използва@@ 1
Обла@@ 1
Рекърдс 1
Северно@@ 1
астронавт 1
данов 1
експо@@ 1
москов@@ 1
неиз@@ 1
признати 1
природните 1
страху@@ 1
ГЕРБ 1
Излиза 1
Кава@@ 1
Коб@@ 1
Мале@@ 1
Нав@@ 1
Прия@@ 1
Таджикистан 1
въве@@ 1
дългата 1
легендар@@ 1
паро@@ 1
пр@@ 1
li@@ 0.14204626653926078
per 0.09190948964146364
Геро@@ 1
Договорът 1
Касти@@ 1
Кевин 1
Пот@@ 1
вост 1
гей@@ 1
дай@@ 1
извънбра@@ 1
издаване 1
кв 1
намесата 1
неправи@@ 1
отплава 1
химн 1
Java 1
ro@@ 0.1474167331082088
Вюрцбург 1
Играл 1
анархи@@ 1
балет 1
верто@@ 1
вулкана 1
задълженията 1
иконостаса 1
католици 1
признават 1
реставри@@ 1
сингли 1
таун 1
тридесет 1
Арда 1
Понеже 1
Хат@@ 1
бля@@ 1
гнато 1
отстрани 1
подхранване 1
преход@@ 1
прехода 1
промишлени 1
сети 1
сходни 1
съмнение 1
формиране 1
Мантуа 1
Цо@@ 1
изчезна@@ 1
напускането 1
озвучават 1
отвле@@ 1
поща 1
принудена 1
собственото 1
уста@@ 1
Карлово 1
актове 1
гала 1
изкуствено 1
изработва 1
княгиня 1
мовете 1
нар. 1
нашите 1
необходимост 1
подложени 1
преде@@ 1
религии 1
решено 1
ринга 1
титу@@ 1
хибри@@ 1
03 0.6807336147209295
1808 1
u@@ 0.1188509220158216
Алпите 1
Горно@@ 1
Зигмунд 1
Свето@@ 1
абатство 1
бала@@ 1
дора 1
женят 1
компонент 1
организатор 1
охри@@ 1
парти@@ 1
процент 1
разпо@@ 1
сбо@@ 1
седи@@ 1
статута 1
теленовела 1
успе@@ 1
числе@@ 1
широката 1
36@@ 1
Бене@@ 1
Канзас 1
Куманово 1
Льо 1
Начин 1
Нос@@ 1
варианта 1
вълната 1
двигате@@ 1
делегат 1
инста@@ 1
клиенти 1
лита 1
проведено 1
рицари 1
ръководители 1
самолетите 1
цигулка 1
ag@@ 0.10785487015686958
ha 0.0686458318470481
le 0.004075975300033925
Залцбург 1
Фалкенщайн 1
бук@@ 1
веще@@ 1
ефективност 1
жд@@ 1
контекст 1
мита 1
море@@ 1
нева 1
новени 1
подводници 1
претър@@ 1
хит@@ 1
Византи@@ 1
Неделя 1
Старо@@ 1
бук 1
наместник 1
обозна@@ 1
огни@@ 1
отло@@ 1
пътищата 1
услож@@ 1
шич 1
яс 1
ed@@ 0.16339063197269396
Бло@@ 1
Бонд 1
Константинос 1
Факултета 1
енер@@ 1
имену@@ 1
кога 1
математик 1
мезо@@ 1
настъ@@ 1
обхва@@ 1
преврата 1
р.@@ 1
ръб 1
ръб@@ 1
световно@@ 1
служеб@@ 1
or 0.012275416966378981
Археологи@@ 1
НА 1
Потър 1
Русев 1
адвокат@@ 1
зъби 1
космонав@@ 1
кции 1
оператив@@ 1
престава 1
първоначалния 1
сфери 1
таблица 1
услуга 1
характер@@ 1
1816 0.9896497883126817
Диленбург 1
Лонг 1
Оди@@ 1
Сахара 1
Състав 1
екстра@@ 1
животът 1
обширна 1
рока 1
1799 1
Бод@@ 1
Нийл 1
Хасан 1
Чен@@ 1
бърн 1
волята 1
консулство 1
мине 1
ог@@ 1
ожесто@@ 1
потребителя 1
тибе@@ 1
хам@@ 1
чиновник 1
Билборд 1
Джор@@ 1
Екваториална 1
Калабрия 1
Рин@@ 1
вертика@@ 1
гун 1
защитни 1
изписана 1
ляните 1
натри@@ 1
околността 1
регули@@ 1
съответния 1
Чърчил 1
вз@@ 1
композитора 1
логически 1
никаква 1
понятия 1
реше@@ 1
соло 1
сутрин 1
Площ 1
Рем@@ 1
Трябва 1
алността 1
бет 1
йнс 1
мида 1
осъзнава 1
популярно 1
тив@@ 1
Вануату 1
Рико 1
Урсула 1
Франклин 1
гробницата 1
ембле@@ 1
масова 1
присъжда 1
приятелство 1
прозорци 1
събере 1
тяхно 1
ястия 1
1750 1
Соломонови 1
възпа@@ 1
гра 1
екзекутиран 1
официалните 1
прецен@@ 1
ровката 1
териториално 1
Априлското 1
Бурунди 1
Зиг@@ 1
Уайт 1
Хамилтън 1
апосто@@ 1
далечина 1
дерн 1
дик@@ 1
диска 1
изпълнен 1
император@@ 1
индианците 1
лост 1
номинация 1
нта 1
образователни 1
отвор 1
публици@@ 1
Гала@@ 1
Ква@@ 1
Кръстев 1
Лисабон 1
Стар 1
барабани 1
летът 1
лиза@@ 1
мп@@ 1
шият 1
1796 1
Лод@@ 1
Световно 1
авторски 1
видния 1
ере@@ 1
малната 1
мални 1
милиони 1
нисти 1
паз@@ 1
получили 1
светло@@ 1
стя@@ 1
текто@@ 1
Арн@@ 1
СС@@ 1
Скри@@ 1
Троян@@ 1
въобще 1
държав@@ 1
необ@@ 1
обичай@@ 1
обръщат 1
обстрел 1
подпома@@ 1
равнината 1
рски 1
съвета 1
1817 1
ing 0.027128681603286475
Балкан@@ 1
Животът 1
Мадона 1
Новото 1
Осман 1
актьорите 1
вачи 1
географска 1
гъсто 1
използваните 1
концентрация 1
конче 1
напомня 1
ова 1
полкът 1
рибар@@ 1
сват@@ 1
станала 1
тини 1
тическото 1
фабриката 1
Послед@@ 1
Швабия 1
аранжи@@ 1
атели 1
док 1
замества 1
ктор@@ 1
обхват 1
ралд 1
симетри@@ 1
убиец 1
чифлик 1
щет 1
Аляска 1
Ой@@ 1
Сигизмунд 1
външ@@ 1
губерния 1
дина@@ 1
запас 1
зася@@ 1
мъж@@ 1
ориз 1
преселва 1
проуч@@ 1
скла@@ 1
социализма 1
сух 1
тивното 1
Ага@@ 1
Ази@@ 1
Мур 1
Чар@@ 1
алпийски 1
бица 1
бовете 1
министри 1
неизвестни 1
норми 1
проваля 1
снява 1
34@@ 1
der 0.002351778747429531
di@@ 0.10427263460777145
Андрю 1
Вселената 1
Корне@@ 1
Мавриций 1
Присъ@@ 1
добавени 1
дясна 1
напише 1
опожа@@ 1
отразяват 1
правоъгъл@@ 1
фолкло@@ 1
Мизия 1
Процесът 1
Световен 1
Фондация 1
героиня 1
конструкции 1
монтирани 1
подчинени 1
праща 1
синг@@ 1
210 1
Коледа 1
Лип@@ 1
Фак@@ 1
Хенеберг 1
добав@@ 1
конкретно 1
миграция 1
минг 1
полубрат 1
предпочитат 1
противопоставят 1
радиус 1
тените 1
шел 1
шина 1
Постоян@@ 1
Рома 1
едноимен@@ 1
кацане 1
матри@@ 1
оне 1
появи 1
приве@@ 1
сървър@@ 1
115 1
Надморската 1
Ръковод@@ 1
антарк@@ 1
вятъра 1
годишните 1
довеждат 1
елемента 1
инвестиции 1
недалеч 1
полукълбо 1
преслед@@ 1
регистри 1
решенията 1
светци 1
темати@@ 1
1.@@ 0.27316786127955206
Адамс 1
Валденбург 1
Хабсбург 1
жар@@ 1
избро@@ 1
нарушение 1
нинген 1
останал 1
параклиса 1
предво@@ 1
прогно@@ 1
прототип 1
пътуват 1
1826 0.96887509305787
Бремен 1
Бурбон 1
Вестникът 1
Друго 1
Регенсбург 1
Сина@@ 1
Скоро@@ 1
замина@@ 1
затваря 1
зимните 1
изправя 1
населените 1
отри@@ 1
пациенти 1
помогнат 1
разлики 1
сестрите 1
съветското 1
формите 1
чит@@ 1
Следващият 1
Топ@@ 1
астронав@@ 1
вис@@ 1
вожд 1
Красимир 1
Нелсън 1
Подоб@@ 1
Ромео 1
говор@@ 1
гтън 1
демонстри@@ 1
мари 1
нестаби@@ 1
построяват 1
първоначалното 1
стоман@@ 1
тогавашната 1
цир@@ 1
четвърт 1
Аз@@ 1
Иисус 1
Картаген 1
Кел@@ 1
кир@@ 1
легат 1
лус 1
образувана 1
полюс 1
прилагане 1
устойчивост 1
царевица 1
чеви 1
Вследствие 1
Ники 1
Следващите 1
Хол 1
автомобилен 1
бара 1
буржо@@ 1
видеоклип 1
посоки 1
приз@@ 1
реклама 1
свин@@ 1
тръби 1
устата 1
фина 1
шва 1
1801 0.9981690319422055
Ch@@ 0.08497529269197084
et@@ 0.10580036545161009
Габриел 1
Люби@@ 1
Марти@@ 1
Пауло 1
Президентът 1
Туркменистан 1
Цвет@@ 1
замръ@@ 1
лау 1
обогат@@ 1
отча@@ 1
реални 1
сблъсъци 1
совалката 1
товар 1
тува 1
фокусира 1
яма 1
Apple 0.6611797475967527
es@@ 0.08237884868663818
Бояджиев 1
Йоанис 1
Следва@@ 1
Стани@@ 1
бежански 1
библиотеки 1
венти@@ 1
графика 1
изуча@@ 1
кооперация 1
пид 1
пирами@@ 1
предлага@@ 1
прив@@ 1
редици 1
рински 1
розо@@ 1
сор 1
съдебни 1
университетски 1
фоне@@ 1
1807 1
Балкан 1
Дийн 1
Йов@@ 1
Малките 1
Райнхард 1
Филаделфия 1
Цялата 1
гън 1
емигранти 1
образно 1
рка 1
туристическа 1
po@@ 0.15443391417993482
Блу@@ 1
Брен@@ 1
Нерон 1
велики 1
ловски 1
назначение 1
оз@@ 1
разраст@@ 1
разраства 1
родоп@@ 1
творци 1
тински 1
тънки 1
яла 1
Новите 1
Пие@@ 1
Противо@@ 1
бунта 1
кторът 1
лод@@ 1
мека 1
министерството 1
раният 1
светец 1
типичен 1
умерен 1
хипотеза 1
Еди 1
Продъл@@ 1
РМС 1
Сериалът 1
дек 1
индийски 1
ковия 1
оскъ@@ 1
творбата 1
убед@@ 1
Аку@@ 1
Сантяго 1
Шон 1
англ 1
временни 1
външно 1
енд 1
заключ@@ 1
затво@@ 1
изсел@@ 1
личането 1
мун@@ 1
представено 1
промо@@ 1
протести@@ 1
рах 0.9045050676077184
фено@@ 1
Американски 1
Построен 1
вит 1
глата 1
ендо@@ 1
заселва 1
зис 1
комуникации 1
кона 1
обяснение 1
островът 1
офи@@ 1
пка 1
речник 1
цкия 1
Демократическата 1
Ези@@ 1
Иде@@ 1
Лотар 1
Пото@@ 1
вампи@@ 1
дица 1
дунав@@ 1
измен@@ 1
интеграция 1
полуфинал 1
поставяне 1
равно 1
сирий@@ 1
скандина@@ 1
чаща 1
Ере@@ 1
Кап@@ 1
анската 1
вдо@@ 1
въобра@@ 1
вярвания 1
езикова 1
ещите 1
звания 1
излизане 1
лим@@ 1
обществеността 1
постигнат 1
придава 1
рако@@ 1
скулптор 1
султана 1
трени@@ 1
фика@@ 1
хуба@@ 1
художниците 1
ченията 1
Аполон 1
Елзас 1
Чан@@ 1
кафява 1
лири 1
оръдието 1
патру@@ 1
пий 1
писателят 1
препода@@ 1
сани@@ 1
свидетел 1
сол@@ 1
състояща 1
същи 1
търговските 1
БВП 1
Верона 1
Пет 1
Стър@@ 1
Филипи@@ 1
архимандрит 1
единствените 1
кристали 1
летите 1
окончате@@ 1
положителни 1
проб@@ 1
слова@@ 1
телност 1
унгарската 1
aceae 0.6477423540549436
Блек 1
Казимир 1
документален 1
жде@@ 1
меч 1
мостове 1
налягането 1
опашка 1
премест@@ 1
прилагането 1
рито@@ 1
характера 1
чища 1
260 1
EP 0.3280978127785507
Памет 1
Плей@@ 1
Цветовете 1
бронзови 1
документални 1
климата 1
мането 1
обучават 1
плавате@@ 1
привличат 1
средновековен 1
Мун@@ 1
боле@@ 1
детската 1
кръгли 1
налия 1
оттегли 1
скулптури 1
успешния 1
хам 1
югославски 1
Балдуин 1
Бое@@ 1
Клубна 1
бактерии 1
земните 1
икономист 1
коефициент 1
комунистическия 1
обиколки 1
облаци 1
разделяне 1
съпът@@ 1
съчетание 1
550 1
Entertainment 0.36719931777200066
Гур@@ 1
Ери@@ 1
Книга 1
Мери@@ 1
Мини@@ 1
австрийската 1
веков@@ 1
нео 1
посетители 1
силната 1
системати@@ 1
стопанска 1
типично 1
цените 1
1635 1
Аризона 1
Бонапарт 1
Министър 1
Панай@@ 1
Последното 1
Тома@@ 1
Я 0.7052476616853554
автобу@@ 1
бом@@ 1
европейско 1
единични 1
жин@@ 1
какъвто 1
карат 1
лада 1
логично 1
миче@@ 1
резултата 1
рият 1
туберкулоза 1
яро@@ 1
Вертхайм 1
Едгар 1
Наред 1
Фьодор 1
Черноморец 1
дърве@@ 1
ителство 1
оттеглянето 1
преса 1
приказки 1
р. 1
театри 1
химията 1
шване 1
109 1
1648 1
650 1
Вир@@ 1
вярно 1
дес@@ 1
звуци 1
зиму@@ 1
кауза 1
кралска 1
осветена 1
партизанска 1
развит 1
сдру@@ 1
срещне 1
сценария 1
същин@@ 1
Ямайка 1
еже@@ 1
заклю@@ 1
наподобява 1
отбелязват 1
протокол 1
румънската 1
скат 1
транспортни 1
108 1
Британ@@ 1
Дебю@@ 1
Магнус 1
Ниш 1
Фолк@@ 1
Цон@@ 1
али 1
въздушно 1
еднакво 1
късен 1
литературно 1
модерна 1
опасни 1
опози@@ 1
особеност 1
пите@@ 1
превзет 1
предполагат 1
рамка 1
сражава 1
тания 1
установена 1
Бесарабия 1
Вя@@ 1
Дионисий 1
Научна 1
Щра@@ 1
анс 1
вателни 1
дното 1
записите 1
избра@@ 1
каквато 1
някоя 1
пване 1
том@@ 1
щания 1
1804 1
at@@ 0.0865926266707608
Бутан 1
Еги@@ 1
Орга@@ 1
бразилски 1
докос@@ 1
лечението 1
продажбите 1
риско@@ 1
секунда 1
туристи@@ 1
учителя 1
цикъла 1
104 1
Преоблада@@ 1
Световна 1
Сон@@ 1
Срещат 1
идеология 1
испанските 1
италиан@@ 1
малните 1
подразделение 1
първонача@@ 1
релефа 1
сочи 1
ствал 1
ура@@ 1
one 0.015241384719207982
Апостол 1
Гюр@@ 1
Младенов 1
Пробле@@ 1
временен 1
вро@@ 1
деб@@ 1
кинс 1
лила 1
лога 1
минима@@ 1
плюс 1
посолство 1
пътувания 1
35@@ 0.9232028230862727
omys 1
Вестфалия 1
Дън@@ 1
Еври@@ 1
Едновременно 1
Оттук 1
Сена 1
Сибила 1
Староза@@ 1
влизане 1
доза 1
заса@@ 1
конгреса 1
планинско 1
последователност 1
пролом 1
споменават 1
106 1
el 0.003688813785128934
Александер 1
МО@@ 1
баланс 1
две@@ 1
изгар@@ 1
логика 1
ними 0.9583094638695364
отворени 1
партньори 1
Денис 1
Ролите 1
Столицата 1
въоръжен 1
камери 1
негати@@ 1
разделение 1
рес@@ 1
ственици 1
1794 1
Емили@@ 1
Стати@@ 1
бс 1
елита 1
живописта 1
кура@@ 1
кури@@ 1
мирно 1
порода 1
пресата 1
пролет@@ 1
редакти@@ 1
стъра 1
човекът 1
шосе 1
270 1
Съвет@@ 1
агенти 1
административ@@ 1
банов 1
бара@@ 1
запаси 1
заслуга 1
индианци 1
каквото 1
метеоро@@ 1
наимену@@ 1
нуждае 1
нян 1
прибав@@ 1
селска 1
собственици 1
схва@@ 1
умерено 1
Дакота 1
Замъкът 1
Основана 1
Тал@@ 1
анска 1
вътрешния 1
дефинира 1
змии 1
изоби@@ 1
или@@ 1
кони 1
процесът 1
рар@@ 1
спътници 1
физ@@ 1
Брус 1
Завър@@ 1
МиГ 1
Наталия 1
Плани@@ 1
Тобаго 1
вяването 1
идеологи@@ 1
инстали@@ 1
клетката 1
командира 1
комплекси 1
носовата 1
обитава 1
остро 1
осъжда 1
пряк 1
ралният 1
тяват 1
хол@@ 1
Еванге@@ 1
Исля@@ 1
Преминава 1
Славейков 1
Учред@@ 1
Яр@@ 1
взрив 1
запи@@ 1
кация 1
ком 0.27306699640267396
надписа 1
отбелязани 1
писът 1
практикува 1
призо@@ 1
произлизат 1
променя@@ 1
пуснати 1
рион 1
сезони 1
стандарти@@ 1
съкрови@@ 1
фабрики 1
фун@@ 1
язови@@ 1
Американска 1
Бед@@ 1
Вера 1
Гебхард 1
Фюрстенберг 1
ализъм 1
дати 1
костите 1
разстре@@ 1
реклами 1
сключен 1
съгласието 1
съл@@ 1
удостоена 1
функционират 1
Алберто 1
Покри@@ 1
Рот@@ 1
вати 1
денберг 1
достигайки 1
курса 1
неизвестен 1
ничния 1
окупацията 1
работилница 1
религиозно 1
сня@@ 1
ствана 1
стие 1
хията 1
чията 1
Общият 1
Ся@@ 1
визи@@ 1
гския 1
интереса 1
квартали 1
малцинство 1
обединените 1
периодично 1
пили 1
провер@@ 1
пръст 1
съпротивление 1
тинската 1
хон@@ 1
Анди 1
Възнесение 1
Лев 1
Него@@ 1
берг@@ 1
действащ 1
намере@@ 1
нова@@ 1
олтар@@ 1
ото@@ 1
пада@@ 1
int 1
Греъм 1
Параскева 1
Севлиево 1
Сне@@ 1
аристокрация 1
арх 1
бързото 1
внуш@@ 1
гано 1
дизе@@ 1
излож@@ 1
лизат 1
останат 1
пето 1
стна 1
султан@@ 1
състави 1
тум 1
цова 1
шният 1
1791 1
80@@ 1
Истин@@ 1
жкото 1
иначе 1
канадски 1
началника 1
необходима 1
сената 1
тизма 1
ултра@@ 1
фос@@ 1
фро@@ 1
40@@ 0.847489586893898
Виз@@ 1
Рузвелт 1
актьор@@ 1
битките 1
възприемат 1
зограф 1
квалифици@@ 1
подроб@@ 1
стеро@@ 1
съветници 1
съхраня@@ 1
тежката 1
успял 1
Виа 1
Охри@@ 1
абсолютно 1
висш 1
долния 1
загра@@ 1
класическия 1
рун@@ 1
учебно 1
Милър 1
Остин 1
Роберто 1
Съста@@ 1
Тюбинген 1
гване 1
зелено 1
казар@@ 1
класации 1
куку@@ 1
популярността 1
префект 1
работите 1
регент@@ 1
сбли@@ 1
Дин@@ 1
Император 1
Мила@@ 1
Перу@@ 1
Строителството 1
въведени 1
есета 1
изказва 1
изящни 1
младо@@ 1
настояване 1
охлаждане 1
пътешественик 1
сора 1
тации 1
Бобо@@ 1
Лазаров 1
бойната 1
взаимоотношения 1
вокалист 1
домове 1
завърш@@ 1
кау@@ 1
контекста 1
ксе@@ 1
мара 1
мощен 1
мрежо@@ 1
орга@@ 1
представа 1
район@@ 1
селищата 1
спря@@ 1
средновековната 1
успоко@@ 1
шеф 1
шоф@@ 1
Андреас 1
Бълга@@ 1
Венето 1
Икономи@@ 1
Мона@@ 1
бок@@ 1
бронепалу@@ 1
бус 1
декларация 1
заглавия 1
затруднения 1
кинг 1
космическия 1
масива 1
нският 1
публикуването 1
разу@@ 1
103 1
111 1
Арханге@@ 1
Куку@@ 1
Паоло 1
ХV@@ 1
влажни 1
изписва 1
профи@@ 1
разбере 1
рап 1
седми 1
споразумението 1
харду@@ 1
Le 0.01605639269098474
Грант 1
Ната@@ 1
Нормандия 1
Пил@@ 1
Популяр@@ 1
Първо@@ 1
ФА 1
Ш 1
арабите 1
декара 1
етапи 1
кви@@ 1
курорт 1
лял 1
натура@@ 1
неуспешни 1
оке@@ 1
пей@@ 1
публицист 1
смята@@ 1
спиране 1
стъпва 1
танк 1
твърда 1
управлявал 1
Алфа 1
Валенсия 1
Матей 1
Мир 1
Стефа@@ 1
Тол@@ 1
богинята 1
брата 1
дебър@@ 1
есе@@ 1
инг 1
концентра@@ 1
наследствен 1
отпад@@ 1
престъпление 1
състоящ 1
танц 1
1772 1
Голямо 1
Преми@@ 1
Разде@@ 1
Сливен@@ 1
Шенк 1
вет 1
гласуват 1
звуко@@ 1
макро@@ 1
особена 1
отв@@ 1
поражения 1
чаров 1
ченото 1
º 0.9357452976609035
Амадей 1
Ахе@@ 1
Магдебург 1
Модер@@ 1
Състезава 1
Тибет 1
Хаити 1
азбу@@ 1
артисти 1
бените 1
бъри 1
гарата 1
географ@@ 1
експер@@ 1
жество 1
имущество 1
крилата 1
кум 1
маркси@@ 1
мрамор 1
нари@@ 1
некро@@ 1
нна 1
последици 1
премахване 1
продуцира 1
пропаганд@@ 1
ресторант 1
чере@@ 1
Ник 1
Рафа@@ 1
батарея 1
бюдже@@ 1
горещо 1
дълг 1
изоставя 1
лову@@ 1
оксид 1
представителство 1
титуляр@@ 1
тъмни 1
уз 1
шампион@@ 1
Вак@@ 1
Добри@@ 1
Зу@@ 1
Пиро@@ 1
болен 1
бон 1
висшите 1
воюва 1
възпрепят@@ 1
дзи@@ 1
императори 1
клетките 1
оригинални 1
слаб 1
слави@@ 1
типи@@ 1
треска 1
турни 1
1824 0.8961724745324369
33@@ 0.9649427026315004
Великите 1
Вран@@ 1
Дона 1
Изо@@ 1
Кеймбридж 1
вед 1
наречените 1
пос@@ 1
прякора 1
разузнавате@@ 1
сените 1
синхро@@ 1
смисле@@ 1
яно 1
330 1
Академик 1
Виен@@ 1
Димов 1
Университет 1
бей@@ 1
издир@@ 1
изкуствени 1
огром@@ 1
отбелязано 1
поляна 1
съди@@ 1
усил@@ 1
1680 1
Висок 1
Предви@@ 1
Преди@@ 1
Цу@@ 1
балкански 1
дско 1
мишки 1
образувани 1
пано@@ 1
раса 1
съдба 1
съдържащ 1
WWF 1
Име@@ 1
Линкълн 1
Рок@@ 1
Хъл@@ 1
ате 1
афера 1
добрият 1
извършена 1
класират 1
консер@@ 1
разказва@@ 1
решаване 1
хова 1
1576 1
1798 1
J 0.2810815378389716
Бах 1
Дро@@ 1
Мат 1
инфра@@ 1
йерар@@ 1
комунисти 1
лати 1
мярка 1
справи 1
сътрудничеството 1
чества 1
широколистни 1
Барбароса 1
Йоаким 1
Микронезия 1
СА 1
Франсиско 1
Хум@@ 1
аспект 1
есто@@ 1
инструкции 1
кози 1
координати 1
ктът 1
масо@@ 1
мно@@ 1
одобрение 1
паралелно 1
плати 1
ракет@@ 1
символизира 1
съставяща 1
териториални 1
традициите 1
фил 1
Уисконсин 1
блъ@@ 1
дъна 1
зая@@ 1
камбанария 1
корпу@@ 1
кръстоносците 1
лиза 1
маха@@ 1
мура 1
нане@@ 1
нери 1
ниши 1
отрежда 1
почит 1
професионалния 1
работническа 1
тари 1
тено 1
ьол@@ 1
1634 1
1660 1
De 0.0662007464354647
Берое 1
Зат@@ 1
Прова@@ 1
ант 1
аудио 1
вечер@@ 1
взел 1
гна 1
декоративни 1
зания 1
изградено 1
изкопаеми 1
изразено 1
конкурси 1
лук 1
мбах 1
наха 1
отказ 1
попадение 1
североизточна 1
синтез 1
частно 1
шевски 1
.-@@ 1
135 1
1827 0.9658534756776446
Ави@@ 1
Аугсбург 1
Баварски 1
Тин@@ 1
буд@@ 1
взета 1
взи@@ 1
денбург 1
журито 1
карва 1
литературната 1
хип 1
2.@@ 0.23566048457615546
Професиона@@ 1
Стран@@ 1
Фай@@ 1
Шампион 1
гробището 1
експерт 1
кале 1
княже@@ 1
консултант 1
личи 1
пропа@@ 1
разделено 1
региона@@ 1
селските 1
сняват 1
станови@@ 1
уточ@@ 1
цина 1
1823 0.9823227968155679
XXI 1
Валери 1
Гари 1
Рехберг 1
Сула 1
Федерация 1
Щер@@ 1
внася 1
дневно 1
допълнителен 1
конфиску@@ 1
лв 1
лок 1
модернизи@@ 1
монасите 1
мските 1
мското 1
проф@@ 1
процесите 1
разработват 1
строй@@ 1
същност 1
твърдения 1
толо@@ 1
хожда@@ 1
целя@@ 1
112 1
Y@@ 0.09275368570501046
Бог@@ 1
Жанейро 1
Нацистка 1
Работ@@ 1
Състеза@@ 1
близката 1
бърт 1
връчва 1
гии 1
зага@@ 1
изтребител 1
лекува 1
лера 1
насти@@ 1
съюзи 1
типични 1
le@@ 0.10276997192550329
si 0.09605958160256269
Армията 1
Мех@@ 1
Мой@@ 1
Нике@@ 1
Сек@@ 1
Хомбург 1
атлан@@ 1
борите 1
въвеждане 1
въртене 1
другото 1
зах@@ 1
земноводно 1
истинска 1
контин@@ 1
настанени 1
никакъв 1
процента 1
ръкопис 1
слънчеви 1
честот@@ 1
1640 1
Голямото 1
Хабсбургите 1
авари@@ 1
архипелаг 1
дане 1
диапазон 1
лидерите 1
мъртвите 1
нишката 1
някъде 1
писец 1
познания 1
президентските 1
st@@ 0.08707433736234152
Шам@@ 1
архитектурен 1
ирландски 1
кмета 1
начал@@ 1
приходите 1
сгло@@ 1
1688 1
w@@ 0.08867515642219594
Дука 1
Казан@@ 1
Кентъки 1
Осло 1
Отгле@@ 1
Чавдар 1
Юр@@ 1
ваното 1
вация 1
водната 1
дет 1
ист 1
лони 1
направ@@ 1
нински 1
пленени 1
пожар@@ 1
последна 1
предградие 1
простират 1
растат 1
сино@@ 1
строен 1
съществ@@ 1
уважение 1
хоп 1
чис@@ 1
380 1
Cor@@ 0.14896775056388786
No 0.15852356300848247
Земе@@ 1
Нобе@@ 1
Проте@@ 1
СВ 1
Фамилията 1
Хедвиг 1
билото 1
взет 1
дари 1
дискове 1
идите 1
льо@@ 1
мотив 1
оте@@ 1
префектура 1
принуждават 1
професионалната 1
селскостопан@@ 1
споде@@ 1
твърд 1
тост 1
яните 1
1570 1
203 1
37@@ 0.8679964012824781
Албан@@ 1
Гръ@@ 1
Джей@@ 1
Кайро 1
Касте@@ 1
Пап@@ 1
Уста@@ 1
активните 1
докторан@@ 1
петък 1
пилотите 1
първоначалната 1
софтуер@@ 1
спомените 1
стол 1
финалната 1
японска 1
Бенковски 1
Граничи 1
Двой@@ 1
Играта 1
Пий 1
Прилеп@@ 1
Уолтър 1
Франс 1
бързо@@ 1
въздуш@@ 1
гай@@ 1
довело 1
ежеднев@@ 1
запаса 1
зовават 1
институ@@ 1
кратно 1
къщите 1
методите 1
мобилни 1
наема 1
пале@@ 1
погрешно 1
прилежа@@ 1
пълната 1
сваля 1
слебен 1
строенето 1
175 1
АК 1
Крес@@ 1
Фокс 1
Швед@@ 1
вакан@@ 1
историческото 1
крайното 1
кралския 1
насочване 1
отсъ@@ 1
подло@@ 1
получаването 1
традиционен 1
хомо@@ 1
черта 1
1780 1
Cal@@ 0.22742471979713813
Баварска 1
Джер@@ 1
Инте@@ 1
Състезате@@ 1
аро 1
буквата 1
герб 1
доброволно 1
електроника 1
закреп@@ 1
картофи 1
ленд 1
ливите 1
мяват 1
пътека 1
сгъ@@ 1
скон@@ 1
107 1
3D 0.628597780377989
Айлънд 1
Аспару@@ 1
Жен@@ 1
Национално 1
грамати@@ 1
достъп@@ 1
монго@@ 1
него@@ 1
оставката 1
ринг@@ 1
химиче@@ 1
шлем 1
8000 1
Доминикан@@ 1
Забележителности 1
Мет@@ 1
Оси@@ 1
Отначало 1
Патри@@ 1
Самю@@ 1
Слънчевата 1
Хек@@ 1
бъдещите 1
верни 1
зови 1
инженери 1
мислене 1
могъл 1
присъдата 1
прозвището 1
разтвор 1
1530 1
Ботсвана 1
Изгра@@ 1
Маг@@ 1
Майер 1
Мериленд 1
Родът 1
активната 1
излага 1
капе@@ 1
обозначава 1
отлично 1
оцелелите 1
планети 1
предприемач 1
ренията 1
спир@@ 1
фел 1
Месопотамия 1
Райън 1
византийска 1
внимателно 1
добровол@@ 1
еврейско 1
здрави 1
конкретни 1
намерение 1
публикувано 1
реконструкция 1
скок 1
спомагате@@ 1
сюже@@ 1
треньора 1
уи 1
хинген 1
църквите 1
Долината 1
Ками@@ 1
Литератур@@ 1
Оливър 1
Хидро@@ 1
жкия 1
жник 1
зимни 1
лава 1
облик 1
освобождаване 1
отвън 1
оформя@@ 1
тей@@ 1
ърк@@ 1
Company 0.1169199185240431
per@@ 0.11420564975058739
Лас 1
Методи 1
Платон 1
Спарта 1
Уолт 1
бро 1
груповата 1
истинската 1
криминален 1
непре@@ 1
никови 1
оре 1
осъществи 1
отстъпват 1
предадени 1
продължат 1
прослед@@ 1
цигу@@ 1
ale 0.10271335757528989
Каравелов 1
Кума@@ 1
Хелена 1
енец 1
започнала 1
изход 1
подарява 1
свободното 1
сесия 1
1606 1
35,@@ 1
бизнесмен 1
бол 1
намирал 1
настъпват 1
насянето 1
пера 1
потъва 1
премести 1
роу 1
физическо 1
Дос@@ 1
алност 1
ангел 1
звукозапис@@ 1
йони@@ 1
осветление 1
прес 1
съперник 1
съществуващи 1
училищата 1
цит 1
ьов 1
Законът 1
Музея 1
Онтарио 1
Харис 1
гъвка@@ 1
дизайна 1
елит 1
корейски 1
леля 1
неочаквано 1
обърк@@ 1
писи 1
поддържаща 1
пробив 1
прозорец 1
разка@@ 1
своеобраз@@ 1
срещани 1
частта 1
odon 1
Албер@@ 1
Ани 1
Екипът 1
Охридска 1
влияния 1
йв 1
колега 1
лският 1
нашата 1
някогаш@@ 1
отре@@ 1
стически 1
съставляват 1
хим@@ 1
1763 1
Изследовате@@ 1
Клаус 1
Комунистическата 1
Минесота 1
Скала 1
Художествената 1
анекси@@ 1
бир@@ 1
вокал 1
грозде 1
елени 1
енс 1
инер@@ 1
йон 1
лип@@ 1
местообитания 1
навън 1
пейзажи 1
произти@@ 1
развеждат 1
славянските 1
тарен 1
успоредно 1
шестте 1
Кори@@ 1
Хари@@ 1
Чал@@ 1
Янтра 1
арк@@ 1
вероятност 1
завръщане 1
изключения 1
к. 1
котки 1
местоположение 1
надви@@ 1
напа@@ 1
фази 1
і@@ 1
1676 1
1802 0.9733662437371743
Места 1
интересни 1
информа@@ 1
мило@@ 1
нително 1
пътнически 1
сението 1
сите@@ 1
строителна 1
съдеб@@ 1
хек@@ 1
im@@ 0.08688157265115085
Младеж@@ 1
енорийски 1
занаятчи@@ 1
ивици 1
каме@@ 1
кръстонос@@ 1
латин@@ 1
подходящо 1
принци@@ 1
сля@@ 1
стоун 1
учебна 1
12@@ 0.4546675155399745
Култур@@ 1
РО 1
Рафаел 1
англо 1
дого@@ 1
железни 1
интерпретация 1
надежда 1
надесетте 1
нести 1
обем@@ 1
отмъ@@ 1
пора@@ 1
сюжет 1
трайно 1
ува@@ 1
1809 0.9356396486531472
Абу 1
Пелаго@@ 1
Стоун 1
бали@@ 1
въздушен 1
говорите 1
гъл@@ 1
дъга 1
избиран 1
каменен 1
категорично 1
комитети 1
нула 1
ограни@@ 1
фасадата 1
чело 1
Лондон@@ 1
СДС 1
Успехи 1
Феде@@ 1
Франко 1
виз@@ 1
довата 1
дови@@ 1
евакуи@@ 1
лщайн 1
ню@@ 1
пела@@ 1
подложен 1
съгласу@@ 1
сян 1
ула@@ 1
уравнения 1
БНР 1
Кристи@@ 1
ОС 1
Ог@@ 1
адютант 1
варовици 1
възпитание 1
дива 1
жал@@ 1
кината 1
клетва 1
наря@@ 1
обичайно 1
отстоя@@ 1
пно 1
пов@@ 1
положен 1
сблъсква 1
стик 1
украсени 1
яващ 1
Каспийско 1
Младотурската 1
Павия 1
двойката 1
жълт 1
ира 1
конфлик@@ 1
налице 1
обши@@ 1
придобиват 1
разтвори@@ 1
редовна 1
спад 1
сура 1
съседното 1
учебници 1
хълми@@ 1
oides 0.8576722663186904
Мемо@@ 1
Средиземно@@ 1
бора 1
бягство 1
измът 1
младежкия 1
нахлуват 1
нацистите 1
поминък 1
реч@@ 1
северен 1
ферата 1
филмовата 1
черуп@@ 1
114 1
24@@ 0.6423539226057169
Географско 1
Джан@@ 1
Знач@@ 1
Кели 1
Теат@@ 1
Тир@@ 1
Шипка 1
ализация 1
влю@@ 1
декан 1
законо@@ 1
записана 1
индивидуални 1
интензивно 1
качва 1
клан@@ 1
наново 1
остатъци 1
отправят 1
пясък 1
фат 1
хеликоп@@ 1
22@@ 1
Кому@@ 1
Кралят 1
Малката 1
Чудо@@ 1
бина 1
дворцов 1
евре@@ 1
нели 1
продажбата 1
реца 1
сняг 1
Аполо@@ 1
Марта 1
Орфей 1
Примера 1
авторите 1
акти@@ 1
вливаща 1
евата 1
жълти 1
лков 1
ничката 1
няк 1
обнов@@ 1
развито 1
117 1
Балкански 1
Кулата 1
Рок 1
СА@@ 1
Централните 1
Шлай@@ 1
апсида 1
археология 1
видя@@ 1
знаят 1
отсъствие 1
пана 1
патриарше@@ 1
провал 1
редакция 1
социалистически 1
съотбор@@ 1
учредена 1
1650 1
Драм@@ 1
Карпат@@ 1
Лихтенберг 1
Мавритания 1
Нейните 1
Украин@@ 1
вземането 1
духовно 1
качествени 1
месечна 1
пруски 1
реконструи@@ 1
санджак 1
сим@@ 1
спокой@@ 1
уми@@ 1
яваща 1
1623 1
водород 1
грам 1
гран@@ 1
деспо@@ 1
здравеопазването 1
истин@@ 1
кисе@@ 1
ковица 1
кодекс 1
кози@@ 1
лъ 1
надпреварата 1
насил@@ 1
покриват 1
резолюция 1
сара@@ 1
сиво 1
снали 1
традиционна 1
характеризират 1
Дале@@ 1
Доналд 1
Изграден 1
Публикува 1
Развитие 1
Хайделберг 1
атът 1
експерти 1
записано 1
златна 1
кърва@@ 1
нуждата 1
пените 1
смъртни 1
телни 1
федерален 1
Армстронг 1
Бойко 1
Волф 1
Драга@@ 1
Държавно 1
Кастилия 1
Ние 1
Професионална 1
Тунджа 1
включи 1
гел@@ 1
ефек@@ 1
зирането 1
инцидента 1
ителност 1
йезу@@ 1
крайни 1
модели@@ 1
мъжа 1
нити 1
опас@@ 1
премиер@@ 1
прикритие 1
ращо 1
революционната 1
служителите 1
Десау 1
Джери 1
Неврокоп 1
Повече 1
Поле@@ 1
аналоги@@ 1
артилерийска 1
вес 1
вокали 1
вор 1
готовност 1
имигранти 1
мей 1
нната 1
обема 1
обособени 1
отказа 1
произношение 1
сбърг 1
съсе@@ 1
1618 1
Авре@@ 1
брат@@ 1
износ 1
изтребители 1
казано 1
породата 1
предпаз@@ 1
привържениците 1
социалистиче@@ 1
съдилища 1
уеб@@ 1
хървати 1
Война 1
Втория 1
Обществени 1
Парламентар@@ 1
Приз@@ 1
вдъх@@ 1
извършен 1
инструктор 1
македо@@ 1
манипу@@ 1
мероприятия 1
модификации 1
плата 1
силното 1
сне 1
традиционния 1
Долен 1
Еми 1
Царе@@ 1
бунтове 1
вдига 1
дефи@@ 1
доброво@@ 1
еш 1
миграцията 1
наи@@ 1
погле@@ 1
свързващ 1
снимка 1
теч@@ 1
яр 1
.com 0.47819967928054
Сво@@ 1
Тим 1
Трансилвания 1
Фьо@@ 1
бреговата 1
вдясно 1
водът 1
генни 1
завет 1
обществе@@ 1
остави 1
оцелява 1
слиза 1
спора 1
стира 1
тениси@@ 1
тепе 1
технологичен 1
християнските 1
щу@@ 1
Студената 1
Съветската 1
ХІХ 1
Цин@@ 1
анто@@ 1
бната 1
градското 1
джо@@ 1
коте@@ 1
оформят 1
риф 1
светилището 1
сигур@@ 1
сигурно 1
снего@@ 1
тък 1
унищожаване 1
1740 1
ei 0.26106065296919795
Гьор@@ 1
КА 1
Маями 1
Плевен@@ 1
Сараево 1
бедни 1
включване 1
дъждове 1
ефективността 1
изображението 1
кане 1
лицен@@ 1
ложки 1
недоволство 1
пуска@@ 1
разбой@@ 1
рино 1
ставайки 1
ству@@ 1
тивата 1
устро@@ 1
→ 0.9602404435980638
School 0.046506069950535675
pr@@ 0.15806631329833903
Диана 1
Ита@@ 1
Кънектикът 1
административния 1
дейно 1
еволюцията 1
мага@@ 1
пера@@ 1
сякаш 1
топлин@@ 1
трав@@ 1
уникален 1
хумани@@ 1
Калоян 1
Каси@@ 1
Категория 1
Солу@@ 1
Червения 1
атите 1
време@@ 1
гъста 1
заем 1
затвър@@ 1
отнася@@ 1
пави@@ 1
помощ@@ 1
поражда 1
усло@@ 1
хирурги@@ 1
j 0.24481470866039431
Албу@@ 1
Брез@@ 1
Герман 1
Кувейт 1
Партия 1
богиня 1
важ@@ 1
дойде 1
дървото 1
иглолистни 1
изгаря 1
кладенец 1
нард 1
областния 1
преви@@ 1
противоре@@ 1
пруската 1
рийска 1
шния 1
югозападна 1
1787 1
Гарсия 1
Йена 1
Квебек 1
Международна 1
Мястото 1
Срав@@ 1
Студио 1
Хим@@ 1
демократична 1
елимина@@ 1
изолация 1
капитал 1
комунистическите 1
корен 1
матика 1
номе@@ 1
репреси@@ 1
телата 1
търпи 1
128 1
1770 1
38@@ 0.9389279199244344
Айзен@@ 1
Брак 1
Княже@@ 1
Майсен 1
Милев 1
Ора@@ 1
Хънт 1
бег 1
венец 1
електронен 1
зли 1
зърнени 1
мислят 1
молеку@@ 1
пехотни 1
плебе@@ 1
променено 1
таланти 1
точката 1
турнета 1
фактът 1
хуманитар@@ 1
царе 1
Борислав 1
Калифорнийския 1
Крепостта 1
Осе@@ 1
Професор 1
Стри@@ 1
Цветан 1
англо@@ 1
върховен 1
десети 1
допринасят 1
зена 1
лампи 1
лствата 1
мъртъв 1
навлизането 1
нинът 1
ничното 1
номинирана 1
отдих 1
писането 1
предишната 1
свалянето 1
северозападна 1
спечел@@ 1
теленовелата 1
WTA 1
Апе@@ 1
Титлата 1
бери 1
дение 1
етажна 1
зам@@ 1
избягат 1
иконостас 1
невероя@@ 1
промен@@ 1
риз@@ 1
ръководителите 1
самоубийство 1
свирят 1
съавторство 1
харти@@ 1
чита 1
Time 0.2730758721260864
Бертхолд 1
Всяко 1
Изди@@ 1
Простира 1
Разстоянието 1
Тара@@ 1
бря@@ 1
въглероден 1
делтата 1
деспот 1
медия 1
мора 1
необича@@ 1
притежание 1
публику@@ 1
рези@@ 1
синод 1
социалистическия 1
съсредото@@ 1
фата 1
щна 1
Миха@@ 1
Мок@@ 1
Обре@@ 1
Порт@@ 1
амино@@ 1
боро@@ 1
гис 1
жило 1
ленти 1
мръ@@ 1
насочен 1
настав@@ 1
обувки 1
омъжи 1
политическото 1
семействата 1
сфери@@ 1
терапев@@ 1
ru@@ 0.20615517148235735
Драма 1
Кий@@ 1
Конструкция 1
Маршал 1
графове 1
гробища 1
дългите 1
лежа@@ 1
нера@@ 1
правомощия 1
уи@@ 1
университетите 1
фар 1
цик@@ 1
6,@@ 0.6512405601413926
Атлетико 1
Виде@@ 1
Гамбия 1
Глайхен 1
Международни 1
Смя@@ 1
алът 1
веното 1
законен 1
изкачване 1
изселват 1
персонаж 1
провод 1
проектира 1
разрешава 1
числото 1
Mar@@ 0.07381843969362459
v 0.19232786607994923
Георги@@ 1
Картър 1
Леонид 1
Петри@@ 1
Хана 1
влияе 1
екшън 1
изгле@@ 1
консумация 1
неблагоприя@@ 1
отговори 1
отстра@@ 1
пват 1
подразде@@ 1
показва@@ 1
поне@@ 1
рекорда 1
татар@@ 1
узур@@ 1
фрак@@ 1
чове 1
Галеацо 1
Дан 1
Иво 1
Ивреа 1
Лаза@@ 1
Средновековие 1
Срещу 1
Уче@@ 1
аргу@@ 1
графския 1
евентуално 1
записа 1
зрителите 1
коефици@@ 1
конференции 1
организиране 1
организъм 1
османско 1
разда@@ 1
ранглиста 1
туризма 1
1610 1
Зайн 1
Кариб@@ 1
белези 1
възникването 1
гледа@@ 1
дясно 1
жди 1
имен@@ 1
ключови 1
министрите 1
мут 1
нахлува 1
поред@@ 1
пренесени 1
смесен 1
спечелени 1
сраженията 1
стотата 1
теку@@ 1
технологиите 1
no@@ 0.21425122201535662
Клеве 1
Костурско 1
Луиджи 1
Самата 1
Ту 1
барон 1
бойно 1
констан@@ 1
ловите 1
обратна 1
природо@@ 1
1625 1
OS 0.5351549854182894
Българският 1
Види@@ 1
Прак@@ 1
Свободна 1
Сливница 1
бащина 1
безплатно 1
власи 1
дневна 1
дъждов@@ 1
емостта 1
наход@@ 1
осъществяване 1
правителствена 1
прекръстено 1
придвор@@ 1
реагира 1
референдум 1
романи@@ 1
сорт 1
татари 1
тух@@ 1
филд 1
финансира 1
bi@@ 0.10829041245316853
Андреев 1
Горен 1
Росица 1
Сент 1
видите 1
генералния 1
загубва 1
мацията 1
норма@@ 1
поддръжници 1
пострадва 1
самоуправление 1
1632 1
1774 1
ig@@ 0.14031194962341315
Джибути 1
Димо 1
Единственият 1
Карл@@ 1
Квин@@ 1
Киров 1
Резултати 1
Техните 1
Фабри@@ 1
враже@@ 1
дейл 1
лките 1
машин@@ 1
мето 1
напо@@ 1
околийски 1
орка 1
червените 1
щани 1
1768 1
Базел 1
Бела@@ 1
Великото 1
Ети@@ 1
Хава@@ 1
бад 1
банда 1
бови 1
достъпен 1
завеждащ 1
изповя@@ 1
индуст@@ 1
помаци 1
ритуали 1
символизи@@ 1
стаята 1
тенисистка 1
чиците 1
щал 1
Данните 1
Изслед@@ 1
Проуч@@ 1
Цай@@ 1
боля@@ 1
воли 1
еваку@@ 1
зим@@ 1
издръж@@ 1
информационни 1
истина 1
капа@@ 1
нберг 1
популация 1
соли 1
тръба 1
цветен 1
ula 0.4915561854656951
Апо@@ 1
Кастро 1
Солунския 1
Съединението 1
Фей@@ 1
арка 1
зелена 1
ителството 1
кръстена 1
нари 1
нища 1
освободителна 1
печатница 1
психоанали@@ 1
танцу@@ 1
фотография 1
Дани 1
Избра@@ 1
Интере@@ 1
Крал@@ 1
Награда 1
Олимпийските 1
Расте@@ 1
Стенли 1
Шиш@@ 1
Шишман 1
анализа 1
бис 1
включването 1
въпро@@ 1
гил@@ 1
драматур@@ 1
духовен 1
ефективни 1
зайки 1
изворите 1
карбо@@ 1
каро@@ 1
коритото 1
критието 1
племенница 1
подводни 1
потока 1
правна 1
рел@@ 1
рили 1
факултета 1
хара 1
Дире@@ 1
Залата 1
Касанд@@ 1
Полинезия 1
Стамболийски 1
Стандар@@ 1
Сън@@ 1
Ч 1
атия 1
изпък@@ 1
изслед@@ 1
изследователска 1
контузия 1
латори 1
мид 1
навътре 1
онна 1
ориента@@ 1
оста 1
пал 1
стат@@ 1
темпера@@ 1
триъгълник 1
яние 1
Порто 1
СБ@@ 1
Тетово 1
артистите 1
говора 1
композира 1
крайния 1
лищен 1
мазнини 1
миров 1
наподобя@@ 1
нена@@ 1
повете 1
подкрепления 1
подобри 1
премахва 1
процедура 1
сения 1
смес@@ 1
средновековни 1
физиологи@@ 1
юридически 1
явно 1
7000 1
Кейп 1
Крива 1
Купър 1
Петрова 1
Стойчев 1
Хюстън 1
годишното 1
дера 1
дефиниция 1
дългосро@@ 1
каде@@ 1
носещ 1
образуван 1
пиг@@ 1
погребението 1
пряка 1
рито 1
Авъл 1
Батенберг 1
Използването 1
Калу@@ 1
Корабът 1
ваха 1
гарни@@ 1
довите 1
заплашва 1
кризата 1
културните 1
летието 1
ловни 1
обектите 1
плод 1
после@@ 1
построе@@ 1
привлекате@@ 1
разработки 1
слово 1
стор@@ 1
умре 1
1560 1
Братята 1
Еф@@ 1
Издава 1
Камен 1
Кейт 1
Ланча 1
СИ@@ 1
Хън@@ 1
Шаумбург 1
борът 1
г.@@ 1
говете 1
започвайки 1
каква 1
колело 1
кън 1
нужно 1
нци 1
памук 1
писани 1
реалност 1
сатири@@ 1
7,@@ 0.7112114969929076
Васили@@ 1
Голд@@ 1
Каринтия 1
Панчо 1
РИ@@ 1
СТ@@ 1
Сръбската 1
Христово 1
битови 1
вице 1
даването 1
ждащ 1
жива 1
завземат 1
завое@@ 1
заседа@@ 1
мине@@ 1
нт 1
отпадъци 1
отслаб@@ 1
пише@@ 1
сиви 1
телите 1
тъмно 1
урежда 1
Екзархията 1
Пере@@ 0.6801853273810282
Разбиване 1
Свети@@ 1
Теодо@@ 1
археоло@@ 1
ация 1
вей@@ 1
встъп@@ 1
енен 1
мъдро@@ 1
отстранява 1
педагоги@@ 1
тал@@ 1
управляващ 1
1776 1
Архе@@ 1
Вита@@ 1
Жечпосполита 1
Запад@@ 1
Лове@@ 1
вкл. 1
забо@@ 1
значи@@ 1
изява 1
марк 1
натъ@@ 1
пода 1
последвалите 1
природ@@ 1
психологията 1
с.ш. 1
секции 1
сортове 1
сткото 1
транспортен 1
филмо@@ 1
шли 1
южни 1
Антония 1
Главния 1
Директор 1
Зан@@ 1
Юний 1
винов@@ 1
възобнов@@ 1
екс@@ 1
кардина@@ 1
лесо@@ 1
нанасят 1
партньор@@ 1
пие 1
плащат 1
покровител 1
предизвикате@@ 1
разпоред@@ 1
рован 0.942487545895698
скалисти 1
слов@@ 1
стоява 1
точна 1
Алвенслебен 1
Воден@@ 1
Грей@@ 1
Кралски 1
Око@@ 1
Публи@@ 1
Уикипедия 1
Управителния 1
впис@@ 1
възможен 1
въстаниците 1
дара 1
денонощия 1
денти 1
дихате@@ 1
епидемия 1
зрение 1
зър 1
нахлу@@ 1
отражение 1
отрицате@@ 1
притока 1
специфичен 1
съчетава 1
тийнейдж@@ 1
ъгъла 1
1775 1
1811 0.9010674090520531
Администра@@ 1
Филипо@@ 1
Художе@@ 1
Чет@@ 1
геометрия 1
далеко@@ 1
десети@@ 1
йз 1
критики 1
налагат 1
описана 1
основани 1
отчита 1
плаз@@ 1
планинския 1
рь@@ 1
скане 1
събо@@ 1
твор@@ 1
чудови@@ 1
480 1
Ей 1
Леон@@ 1
Монреал 1
вънс 1
датски 1
ескор@@ 1
изразяват 1
логична 1
мбу@@ 1
национал 1
преграда 1
снабдяването 1
споразумения 1
християнство 1
1616 1
Баня 1
Бин@@ 1
Далмация 1
Киев@@ 1
Психо@@ 1
Флора 1
араб@@ 1
дател 1
доставя 1
заводи 1
кано 1
местоположението 1
моги@@ 1
морф@@ 1
надеж@@ 1
отра@@ 1
привилегии 1
революционни 1
регла@@ 1
сбирка 1
симфо@@ 1
слива 1
хумористи@@ 1
€ 0.6170903247904892
Азиат@@ 1
Алтенбург 1
Ару@@ 1
Наме@@ 1
Севиля 1
вак 1
европейците 1
зари 1
изхода 1
ина 1
ово@@ 1
природно 1
ращия 1
рийския 1
съдържа@@ 1
часовник 1
чевски 1
шампиона 1
Bo@@ 0.14478997902040638
del 0.006438963396950539
Катар 1
Коз@@ 1
Свобода 1
експозиция 1
континенталната 1
поетеса 1
предните 1
ръба 1
спокойно 1
статистически 1
уника@@ 1
БРП 1
Кил@@ 1
Контро@@ 1
Латин@@ 1
Образ@@ 1
Отец 1
Стай@@ 1
влакове 1
въплъ@@ 1
доставки 1
известното 1
изгонен 1
командири 1
нима@@ 1
остри 1
ринген 1
риска 1
роб@@ 1
селищ@@ 1
техническите 1
Empire 0.16917597287269195
Вацлав 1
Византийската 1
Възраждането 1
Телевиса 1
Фур@@ 1
Шоуто 1
включено 1
задържат 1
инструк@@ 1
йката 1
подобие 1
признае 1
проектирането 1
северни 1
творец 1
телевизионно 1
фармацев@@ 1
ярко 1
1630 1
Злати@@ 1
Независи@@ 1
Тете@@ 1
бежанците 1
гава 1
глад@@ 1
дистанция 1
душе@@ 1
електроенергия 1
изглеждат 1
изчезват 1
отдели 1
паунда 1
пощен@@ 1
телен 1
хат 1
Con@@ 0.10527865472734345
Географска 1
Глу@@ 1
Стопан@@ 1
Сур@@ 1
Шампионска 1
имаше 1
контролират 1
левски 1
мара@@ 1
нес@@ 1
посещения 1
привлече 1
разполага@@ 1
сериите 1
създавайки 1
тунел 1
Ало@@ 1
Ви 1
Възраждане 1
Движението 1
Кьониг@@ 1
Окта@@ 1
Рига 1
актив@@ 1
бират 1
бърка 1
глу 1
държавното 1
жина 1
излиш@@ 1
нела 1
нителните 1
пие@@ 1
прием 1
тус 1
Амбро@@ 1
Бентхайм 1
Боте@@ 1
Виенския 1
Дио@@ 1
Каса@@ 1
Место@@ 1
Назначен 1
важната 1
обре@@ 1
оръжието 1
пречи@@ 1
сестрата 1
строител 1
удря 1
ad@@ 0.06923944408512203
Оксфорд 1
Черната 1
артилерий@@ 1
изклю@@ 1
приятеля 1
раздели 1
разкрити 1
средиземно@@ 1
стващите 1
упражнява 1
фни 1
чели 1
Два@@ 1
Й 1
Паметникът 1
Прогре@@ 1
Старата 1
Янко 1
бари 1
бово 1
будизма 1
вакси@@ 1
велосипе@@ 1
влакна 1
врага 1
герман@@ 1
гражданско 1
дистрибу@@ 1
езикът 1
неподви@@ 1
османския 1
остар@@ 1
поемата 1
приписва 1
тенето 1
христи@@ 1
1701 1
7,5 1
Вормс 1
ЕЛ@@ 1
ИК 1
Летните 1
Петрович 1
Хайн@@ 1
Центра@@ 1
атент@@ 1
бло 1
възрожден@@ 1
гласува 1
говорен 1
дарен 1
нок@@ 1
пох@@ 1
превозни 1
проектиране 1
пясъчните 1
съществували 1
унищожена 1
ядрена 1
Балти@@ 1
Браунфелс 1
Димитриос 1
Започ@@ 1
Ковачев 1
Рикардо 1
Там@@ 1
Членовете 1
вълк 1
градината 1
гуми 1
домакинските 1
замени 1
коридор 1
кюр@@ 1
матични 1
мие 1
нете 1
прекарват 1
рт 1
сето 1
соци@@ 1
ed 0.02748395487596802
Враня 1
Джулия 1
Йоханес 1
Нами@@ 1
Радомир 1
водене 1
вското 1
измервания 1
опер@@ 1
прилепи 1
противоречи@@ 1
раж 1
разцвет 1
регистрира 1
стълб 1
фик@@ 1
Дейв 1
Зограф 1
Личности 1
Папа 1
Шаранови 1
Шел@@ 1
картата 1
появи@@ 1
преобразува 1
свидетелство 1
славяните 1
съотношение 1
фраз@@ 1
честър 1
American 0.028674627434217285
à@@ 1
Абат@@ 1
Антиох 1
Българските 1
Зад@@ 1
Лит@@ 1
Лов@@ 1
Политбюро 1
Рихард 1
Ря@@ 1
Север@@ 1
Фан@@ 1
агреси@@ 1
вою@@ 1
дет@@ 1
залож@@ 1
заложен 1
инж 1
кавалерията 1
кет@@ 1
клиника 1
майстор@@ 1
нидерландски 1
паланка 1
пресъ@@ 1
ристите 1
с. 1
1598 1
1788 1
Американ@@ 1
Дона@@ 1
Доро@@ 1
Трир 1
банката 1
вода@@ 1
върши 1
граничен 1
докумен@@ 1
игумен 1
кевич 1
лечеб@@ 1
олтар 1
превъзходство 1
предостав@@ 1
прозореца 1
рю@@ 1
сек 1
трафик 1
25@@ 0.6532697641178541
Per@@ 0.11397845433260284
SS 0.28319518533175947
Алеко 1
Големи 1
Иконостасът 1
банк 1
дневен 1
здрав@@ 1
ителски 1
капиту@@ 1
като@@ 1
напр 1
отделянето 1
платинен 1
побеждавайки 1
режисира 1
споменато 1
съществени 1
творческо 1
тивния 1
ястие 1
1627 1
Квар@@ 1
Москов@@ 1
Невада 1
вдъхновение 1
висшата 1
египетски 1
медалист 1
отсъствието 1
руините 1
суро@@ 1
съвместна 1
създателите 1
тенденции 1
шер 1
1683 1
IBM 0.8856105101887121
ar 0.03720584785024903
Деветосептемврийския 1
Лин 1
Пенев 1
Шин@@ 1
блу@@ 1
вой 0.2591654960863432
елементар@@ 1
икономическото 1
керамични 1
лого@@ 1
превърната 1
разположението 1
разузна@@ 1
речта 1
телно 1
унищожаването 1
учеб@@ 1
учителите 1
вертикално 1
дизайнер 1
ждата 1
излъчването 1
интели@@ 1
красив 1
ориен@@ 1
офор@@ 1
патриаршисти 1
присъединяване 1
продуцирана 1
родно 1
скорост@@ 1
странна 1
създате@@ 1
удара 1
форма@@ 1
хевиметъл 1
щината 1
яй@@ 1
ref 0.4184330312710875
Водосборният 1
Дълго@@ 1
Командир 1
Раду@@ 1
атаките 1
избирането 1
кова@@ 1
кур 1
монета 1
написването 1
отвежда 1
повтор@@ 1
погребал@@ 1
понеделник 1
произвеждан 1
софийски 1
стко 1
условно 1
учебен 1
1651 1
to@@ 0.15206419296257281
Бисау 1
Дунавската 1
Законодате@@ 1
Известна 1
Курт 1
Служба 1
Уру@@ 1
венството 1
дзе 1
естествените 1
инвазия 1
иро@@ 1
кореспонденция 1
намерението 1
норвежки 1
нува 1
писа 1
психологически 1
трансфер 1
унищожават 1
фамилии 1
ъгли 1
яз@@ 1
1540 1
Андон 1
Гау@@ 1
Лун@@ 1
Мануил 1
РНК 1
атив@@ 1
генция 1
графско 1
ледници 1
лона 1
междувременно 1
моряци 1
начина@@ 1
нините 1
откритите 1
платформата 1
правнук 1
проектиран 1
противоречия 1
разо@@ 1
сменят 1
ствеността 1
цикло@@ 1
Аби@@ 1
Гале@@ 1
Канад@@ 1
Лой@@ 1
Мурад 1
Хоу@@ 1
Яне 1
водачи 1
дузпи 1
закрита 1
колегия 1
лъж@@ 1
мпе@@ 1
нич 1
обвинение 1
платформи 1
финалния 1
чич 1
ът@@ 1
16@@ 0.4593830704073252
Ватикана 1
Джеф 1
Сир@@ 1
Хонщайн 1
влечуги 1
върти 1
директорите 1
еквато@@ 1
изменение 1
изпове@@ 1
лъка 1
парламентарната 1
подготвят 1
пробива 1
сантиметра 1
товия 1
унищожи 1
Аврелий 1
Айдахо 1
Бар 1
Дит@@ 1
Използват 1
Оттам 1
СИ 1
Юстиниан 1
акула 1
бягане 1
гено@@ 1
долните 1
дона 1
ента 1
летата 1
меанд@@ 1
мели@@ 1
отделяне 1
приложението 1
рд 1
роти 1
спасение 1
трен@@ 1
Антверпен 1
Аси@@ 1
Лейди 1
Цветков 1
Шварценберг 1
бивше 1
въдството 1
йнът 1
кметството 1
ковче@@ 1
кок 1
мния 1
сити 1
словен@@ 1
файл 1
яли 1
14@@ 0.4931600286773006
tus 0.5924424960125393
Католическата 1
Марсилия 1
Постро@@ 1
вкъщи 1
възли 1
жити@@ 1
зните 1
искал 1
лайн 1
латинската 1
линни 1
луксоз@@ 1
напредък 1
никова 1
обновена 1
породи 1
продължителна 1
разговор 1
хот@@ 1
Времен@@ 1
Кръсто@@ 1
Лейк 1
Производството 1
Пти@@ 1
Рат@@ 1
акра 1
възвишението 1
възлага 1
гале@@ 1
двоен 1
дола 1
ждано 1
желязна 1
заба@@ 1
изи 1
китайска 1
кореспон@@ 1
набира 1
надеждата 1
непри@@ 1
нус 1
оперативна 1
оригиналните 1
поддръжката 1
последвалата 1
пратен 1
рна 1
свършва 1
симу@@ 1
тони 1
честотата 1
шисти 1
am 0.01545813690650343
Антантата 1
Двигате@@ 1
Мая 1
Николаос 1
Последва@@ 1
СК@@ 1
СП 1
геометри@@ 1
дигит@@ 1
доктрина 1
донякъде 1
ждения 1
заем@@ 1
земеделско 1
изнасят 1
изчезнали 1
населявано 1
оно@@ 1
преведен 1
ръководена 1
училищна 1
цирку@@ 1
цово 1
1667 1
Днепър 1
КП 1
Лициний 1
Основател 1
Ще 1
душа 1
еписко@@ 1
иза 1
кавър 1
командващия 1
кориги@@ 1
метро 1
ост@@ 1
отклонение 1
партийна 1
петата 1
равновесие 1
резерв 1
сменено 1
толеран@@ 1
уникални 1
118 1
1450 1
1567 1
Hot 0.31405274582552434
Маси@@ 1
Недел@@ 1
Произхожда 1
Традиционно 1
Харт@@ 1
Шах 1
водосбор@@ 1
деж@@ 1
железопътни 1
заминават 1
кне 1
компро@@ 1
метрията 1
наследниците 1
обясни 1
романтична 1
стичния 1
черква 1
ISO 1
ni 0.1097688287761717
Белица 1
Вавилон 1
Гли@@ 1
Конститу@@ 1
Мага@@ 1
Меха@@ 1
Съвременните 1
Узунов 1
Цицерон 1
алд 1
вон 1
възрожденски 1
жлези 1
кварти@@ 1
красотата 1
лаков 1
момчето 1
осми 1
предприема@@ 1
разгра@@ 1
разпространено 1
руд@@ 1
стори 1
торпеда 1
хали@@ 1
цари@@ 1
oph@@ 0.3595685846867994
Андро@@ 1
Вече 1
Експеди@@ 1
Лак@@ 1
Преслав 1
авторите@@ 1
двубой 1
завежда 1
избира@@ 1
ич 1
кла 1
метаболи@@ 1
мнения 1
печелейки 1
плажове 1
преден 1
фотограф 1
царят 1
1638 1
Джордан 1
Зондербург 1
Открит 1
Прове@@ 1
Пьотър 1
Секст 1
Хисар 1
видът 1
допу@@ 1
издигнати 1
локо@@ 1
светски 1
свързване 1
седалището 1
спадат 1
спирка 1
спортно 1
съдействието 1
същ 1
фолклорни 1
1704 1
Mark 0.16896330546192345
Андже@@ 1
Брази@@ 1
Жене@@ 1
Изи@@ 1
Шверин 1
Южната 1
Яна 1
ваш 1
изти@@ 1
итация 1
ключ 1
латви@@ 1
нормати@@ 1
писание 1
прилеп@@ 1
сният 1
унищожен 1
Of 0.2708962860680529
tis 0.3212648506087369
Гота 1
Ж 1
Как 0.5146069568353839
Каф@@ 1
Уейн 1
азиатски 1
базира 1
брауз@@ 1
изкуствен 1
лозя 1
неутро@@ 1
пенсионирането 1
причис@@ 1
разкъс@@ 1
ръкописа 1
славски 1
фора 1
хват@@ 1
5,5 1
Бланкенбург 1
Дем@@ 1
Ибрахим 1
Лимпург 1
Обединените 1
глина 1
добиват 1
дъждовно 1
играчът 1
корабостроител@@ 1
мюзи@@ 1
насочено 1
отмъщение 1
платно 1
показател 1
препра@@ 1
продуктите 1
рители 1
St@@ 0.09276842683095578
Електри@@ 1
Испан@@ 1
Русо 1
Сра@@ 1
гледат 1
достъпна 1
задържи 1
заема@@ 1
коман@@ 1
насла@@ 1
нители 1
ниша 1
одоб@@ 1
онер@@ 1
парт@@ 1
преимену@@ 1
привет@@ 1
рами@@ 1
янието 1
par@@ 0.10758682712568432
Официално 1
Померания 1
Райн@@ 1
Рит@@ 1
астрономия 1
дро 1
ефективна 1
ибн 1
изследват 1
линкор 1
магазина 1
нарушава 1
повреда 1
поп@@ 1
популацията 1
правителствата 1
приготвя 1
римо@@ 1
скор@@ 1
тона@@ 1
упадък 1
хребети 1
честите 1
1550 1
Височината 1
Гуам 1
Дора 1
Принци@@ 1
владее 1
ежегод@@ 1
ерата 1
кета 1
култ 1
магнитно 1
мек 1
направо 1
операциите 1
опери 1
разследването 1
сиите 1
търговската 1
хирургия 1
шедьо@@ 1
1622 1
АН@@ 1
Ами@@ 1
Второ 1
Граф@@ 1
Едно@@ 1
Запада 1
Иг@@ 1
Йоси@@ 1
Македонска 1
Плу@@ 1
Предбал@@ 1
ак 1
алтернатива 1
галерии 1
древната 1
изменя 1
инова@@ 1
платна 1
пожела@@ 1
пълномо@@ 1
сткия 1
уважа@@ 1
ути 1
1605 1
Мексикан@@ 1
Разпростра@@ 1
Столица 1
Янков 1
вията 1
грами 1
гски 1
демон@@ 1
денето 1
динамиката 1
доклади 1
изработват 1
изразен 1
лоши 1
музикалното 1
населе@@ 1
нителни 1
печал@@ 1
пианист 1
потоп@@ 1
статията 1
сънарод@@ 1
шева 1
1526 1
1631 1
1665 1
Гага 1
Дри@@ 1
Издаден 1
Иън 1
КО@@ 1
Ото@@ 1
Скар@@ 1
Съпругата 1
безплат@@ 1
гона 1
город@@ 1
излю@@ 1
камерата 1
камъ@@ 1
кува 1
модерен 1
недостиг 1
преследването 1
сад@@ 1
спуснат 1
стимули@@ 1
титлите 1
южен 1
155 1
Cyprinidae 1
Disney 0.34408487079092187
MHz 1
pe@@ 0.21448117726460167
Ива@@ 1
Ил 1
Карло@@ 1
Лука@@ 1
Макларън 1
Откритото 1
Съюз@@ 1
атом 1
борг 1
въгли@@ 1
двигателите 1
колела 1
ландшаф@@ 1
маро@@ 1
положително 1
тогавашните 1
човешко 1
шат@@ 1
za 0.1774886143701783
Търнов@@ 1
грамота 1
злото 1
изпре@@ 1
източника 1
испанска 1
князе 1
намаля@@ 1
нападнат 1
няко@@ 1
онни 1
офанзи@@ 1
ох@@ 1
посочват 1
пощенски 1
радо@@ 1
рекол@@ 1
успехите 1
хори 1
1585 1
МА 1
Моника 1
гач 1
гръб 1
деи 1
запише 1
кари 1
леднико@@ 1
лятно 1
некропол 1
никовата 1
образна 1
полагат 1
слухове 1
средиземноморски 1
фило@@ 1
1619 1
Бата@@ 1
Груев 1
Луизиана 1
Пикчърс 1
Смър@@ 1
американ@@ 1
дай 1
документите 1
епископи 1
мити 1
неизвестна 1
неното 1
озвучава 1
отговаря@@ 1
пречи 1
репли@@ 1
сегашния 1
теб 1
амбицио@@ 1
бокса 1
джъл 1
жко 1
н.@@ 1
опо@@ 1
открад@@ 1
племенника 1
популяр@@ 1
рад 1
разпределението 1
ряд@@ 1
смени 1
спан@@ 1
точките 1
характерните 1
хорн 1
1783 1
Network 0.3296708068682563
em@@ 0.08377141576768875
Бернбург 1
Боб@@ 1
Герой 1
Мора@@ 1
Симеонов 1
Сребър@@ 1
Тива 1
възраст@@ 1
енко 1
кръгла 1
линейните 1
наброяват 1
написано 1
нарастване 1
обработва@@ 1
пелин 1
плячка 1
ранно 1
редуци@@ 1
рови@@ 1
удо@@ 1
ъци 1
us@@ 0.0976960964667521
Бенедикт 1
Блек@@ 1
Даниела 1
Карадж@@ 1
Краси@@ 1
Нова@@ 1
Од@@ 1
Силвия 1
Чау@@ 1
Червена 1
броненос@@ 1
горския 1
езиково 1
жерт@@ 1
кметство 1
лисица 1
мул@@ 1
намесва 1
офицерите 1
пенсия 1
пивоварната 1
райх 1
склон@@ 1
спътника 1
тара@@ 1
трудни 1
1636 1
Асеновград 1
Бер 1
Берта 1
Ет@@ 1
Крас 1
Фишер 1
Шест@@ 1
вещи 1
вол 1
глена 1
изобразително 1
интелектуалци 1
интервюта 1
открият 1
прекрати 1
прехвърлен 1
разпръснати 1
солени 1
същият 1
уми 1
учи@@ 1
Can@@ 0.24186552609881085
ci@@ 0.18280702205805385
à 0.003479001807384745
Потсдам 1
Прави@@ 1
Шен@@ 1
аромат 1
белия 1
византийците 1
вола 1
електрони 1
завършено 1
лана 1
мически 1
остър 1
посещението 1
рета 1
рун 1
странен 1
студи@@ 1
торпедни 1
янски 1
Боби 1
Ем 1
Каменица 1
Лиеж 1
Листата 1
Павлович 1
Произведенията 1
абсор@@ 1
баланси@@ 1
води@@ 1
гнатите 1
замине 1
картечници 1
коментари 1
мениджмънт 1
надесет@@ 1
неж@@ 1
оборудвани 1
онзи 1
пакт 1
петия 1
печата@@ 1
пина 1
скането 1
федерацията 1
хон 1
1568 1
Автомоби@@ 1
Бахрейн 1
ДПС 1
Едни 1
Кримската 1
Майката 1
Отде@@ 1
Славян@@ 1
Слатина 1
Тяхната 1
вляво 1
гал@@ 1
закрито 1
значи 1
казва@@ 1
котловината 1
лицензи@@ 1
лси 1
нае@@ 1
натото 1
обстрел@@ 1
оръже@@ 1
полуфинала 1
превръщайки 1
прераства 1
съдържаща 1
тираж 1
треньор@@ 1
тюрк@@ 1
ob@@ 0.1414817490306736
tidae 1
Гордън 1
Грей 1
Ис@@ 1
Тонга 1
Троян 1
арест 1
вдовицата 1
вински 1
гина@@ 1
зми@@ 1
измества 1
коне@@ 1
конференцията 1
персонажи 1
строител@@ 1
съседи 1
състеза@@ 1
фабри@@ 1
шествие 1
1620 1
1668 1
Антонов 1
Борусия 1
Лукас 1
Прованс 1
Рон 1
Ръсел 1
Су 1
дз@@ 1
ери@@ 1
заменя@@ 1
кта 1
куби@@ 1
мь@@ 1
начална 1
притеж@@ 1
псевдо@@ 1
разруш@@ 1
саксон@@ 1
съобщават 1
състезатели 1
1711 1
Vi@@ 0.23783046765784405
Бий@@ 1
Бийч 1
Ив 1
Кав@@ 1
СО@@ 1
Сдру@@ 1
второстепен@@ 1
двойна 1
диаман@@ 1
играещ 1
измерва 1
маркетинг 1
маши@@ 1
мъжко 1
отстъпление 1
разновидност 1
разрушителя 1
реност 1
спускат 1
уравнение 1
1666 1
ir@@ 0.09027210362664378
Леонард 1
Шах@@ 1
бъдещият 1
вел@@ 1
вулкан 1
довски 1
забранени 1
зърно 1
изработена 1
имен 1
лее 1
неравно@@ 1
опонен@@ 1
паса@@ 1
плението 1
познато 1
поръчки 1
резбо@@ 1
средище 1
фони 1
1785 1
ax 0.48492933426295015
Австрийската 1
Гари@@ 1
Детройт 1
Егейско 1
Записва 1
Стамболов 1
Ферара 1
войско@@ 1
градо@@ 1
губе@@ 1
джик 1
дисциплината 1
езер@@ 1
изключителна 1
кантон 1
керами@@ 1
лител 1
мам 1
наричали 1
океански 1
публична 1
резерво@@ 1
рисувани 1
рус@@ 1
слер 1
1559 1
qu@@ 0.13338966848409978
ter@@ 0.09684630581129301
Айн@@ 1
Вест@@ 1
Вирджински 1
Кръстител 1
Лопес 1
Сред@@ 1
Уимбълдън 1
Юг 1
бройки 1
гласни 1
голи 1
дент 1
достигнали 1
зачислен 1
изчислява 1
изяс@@ 1
кването 1
кони@@ 1
леп 1
направата 1
обсерватория 1
опазването 1
преминат 1
пресел@@ 1
първоначалните 1
риос 1
рицарите 1
старин@@ 1
стратегическо 1
съставки 1
теза 1
тката 1
хем@@ 1
чана 1
чужденци 1
1569 1
1621 1
1661 1
Доку@@ 1
Ема 1
Железо@@ 1
дивата 1
диктатор 1
застрашени 1
оро@@ 1
повежда 1
пусти@@ 1
скват 1
състезанията 1
Антоан 1
Бад 1
Боя@@ 1
Бяло 1
Душан 1
Йован 1
Ръко@@ 1
Тимо@@ 1
ФИФА 1
ади 1
але 1
артефакти 1
бури 1
варови@@ 1
гони 1
гробници 1
депор@@ 1
жим 1
кве@@ 1
оглавя@@ 1
противниците 1
пу 1
редакцията 1
сертифици@@ 1
установен 1
швейцарски 1
1612 1
1670 1
Ати@@ 1
Бейкър 1
Ботевград 1
Кариерата 1
Мад@@ 1
Политика 1
администратор 1
античността 1
армей@@ 1
богатството 1
гове@@ 1
езиците 1
наследника 1
окис@@ 1
плътно 1
серий@@ 1
социология 1
сред@@ 1
съставна 1
уникална 1
успее 1
1595 1
Linux 0.7957348053886008
Еберщайн 1
Лоб@@ 1
Пушкин 1
Росен 1
Юли@@ 1
атов 1
гласу@@ 1
дипломати@@ 1
дипломатическа 1
екранизиран 1
заплаш@@ 1
зара@@ 1
йното 1
компютъра 1
настоящия 1
натру@@ 1
прате@@ 1
реш 1
сение 1
специализация 1
сянка 1
хин@@ 1
щер@@ 1
du 0.004872195735180473
Денят 1
Западно@@ 1
Олег 1
Стои@@ 1
благороднически 1
възрастен 1
доверие 1
ителства 1
критерии 1
насро@@ 1
неният 1
оле@@ 1
останала 1
патрон 1
прибира 1
спонсо@@ 1
стабилност 1
фео@@ 1
юноша 1
1250 1
ВИТИЗ 1
Пана@@ 1
Темпера@@ 1
бъдещи 1
вове 1
герба 1
дъщерите 1
еволюция 1
експеримент 1
извора 1
канали@@ 1
надясно 1
опере@@ 1
поръчва 1
прели@@ 1
репресии 1
факто 1
ченият 1
12.@@ 0.8945986439058388
Am@@ 0.1409176005382695
Главното 1
Льовенщайн 1
Моравия 1
Последни 1
Ст 1
Фасо 1
базо@@ 1
висша 1
влиятелни 1
гимнастика 1
изпитанията 1
имити@@ 1
клет@@ 1
ког@@ 1
лингтън 1
метра@@ 1
них 0.19216780294182742
преки 1
протичат 1
развали@@ 1
репутация 1
спорт@@ 1
страта 1
суха 1
считано 1
убил 1
умно@@ 1
философи 1
харт 1
1547 1
Буркина 1
Главна 1
Глен 1
Дик@@ 1
Договора 1
Фю@@ 1
Янев 1
влага 1
връх@@ 1
графът 1
динамика 1
ентусиа@@ 1
замисле@@ 1
импу@@ 1
лауреат 1
местят 1
спуска@@ 1
съдии 1
успешната 1
39@@ 0.9257605932857346
Аги@@ 1
Бялата 1
Ленинград@@ 1
Мариана 1
Сали@@ 1
Южно 1
актри@@ 1
библей@@ 1
братовчедка 1
брашно 1
дник 1
договорът 1
дю 1
католиче@@ 1
лери 1
лито@@ 1
лън@@ 1
ментира 1
норма 1
палубата 1
парична 1
предания 1
преду@@ 1
ракетни 1
реализъм 1
серио@@ 1
стиму@@ 1
строени 1
тайната 1
фенберг 1
1536 1
1715 1
ii 0.7226005008667404
Арагон 1
Границите 1
Жозеф 1
Кобург 1
Колек@@ 1
Уор@@ 1
бог@@ 1
временна 1
десетина 1
единна 1
застъпва 1
листо@@ 1
методи@@ 1
някое 1
обвивка 1
променливи 1
руснаци 1
слънчева 1
схемата 1
финансовата 1
художествената 1
ьора 1
1,6 1
1572 1
6,5 1
Man 0.1451751665310701
КС 1
Мара 1
Минск 1
ПВО 1
Роза 1
Хис@@ 1
дъщер@@ 1
животновъдство 1
наречения 1
ноа 1
пауза 1
разработване 1
реализация 1
сок 1
църковните 1
яйце@@ 1
′ 1
Ne@@ 0.15939873713749134
Q@@ 0.14140523818086415
Груп 1
Робин 1
арумъ@@ 1
астрономически 1
бронирани 1
вир@@ 1
домовете 1
земедел@@ 1
либи@@ 1
остра 1
пеят 1
победителя 1
разговори 1
свит@@ 1
спечелен 1
съ 1
трудовете 1
фурт 1
1626 1
1686 1
Год@@ 1
Колидж 1
Резултатът 1
Цихлиди 1
болшеви@@ 1
вливането 1
ефекта 1
изкарва 1
излязъл 1
нителната 1
отделени 1
отхвърлят 1
повлияни 1
пясъчни 1
спът@@ 1
успешното 1
християнското 1
черните 1
1675 1
1784 1
Балчик 1
Право 1
Право@@ 1
Рали 1
Ренесанса 1
анони@@ 1
варяне 1
довели 1
изненад@@ 1
кални 1
корените 1
крайбрежните 1
лам 1
образователна 1
оче@@ 1
пакет 1
патро@@ 1
перфек@@ 1
пиани@@ 1
полез@@ 1
пр.н.е 1
приказ@@ 1
продължения 1
разбирането 1
раздел 1
роди 1
сването 1
служил 0.8341916145632944
съдебната 1
тракийската 1
хел@@ 1
херцогството 1
четиримата 1
1769 1
50@@ 0.6742332205582873
On 0.01951413203434581
te 0.03981580128145366
un@@ 0.02783924524052007
Американския 1
Точно 1
Фър@@ 1
анимационни 1
въпросът 1
дълбок 1
инстру@@ 1
карикату@@ 1
колонията 1
комунизма 1
майстер 1
надхвърля 1
накара 1
партньорство 1
повто@@ 1
пява 1
радост 1
реакцията 1
рич 1
стъпен 1
съседство 1
фър 1
Вли@@ 1
Емилий 1
Излъ@@ 1
Меч@@ 1
Станишев 1
Тимор 1
Чипро@@ 1
баскетбо@@ 1
бити 1
владетеля 1
гри 1
деятел 1
етнографски 1
палестин@@ 1
плато@@ 1
подска@@ 1
преобладава 1
разсей@@ 1
сго@@ 1
холандски 1
челю@@ 1
честта 1
щена 1
1590 1
Re@@ 0.0843172327333663
Зъ@@ 1
Камчия 1
Симо@@ 1
Специализира 1
Хит@@ 1
генберг 1
живите 1
запазено 1
земеделска 1
климатични 1
лих@@ 1
мънт 1
писателската 1
превръщането 1
прикреп@@ 1
сет@@ 1
сицилиан@@ 1
случи 1
ств@@ 1
увреждания 1
употребя@@ 1
финансовите 1
Анато@@ 1
Вагнер 1
Вестербург 1
Джейсън 1
Записал 1
Империята 1
Пам@@ 1
Сръб@@ 1
Хрушчов 1
анек@@ 1
вести@@ 1
гроз@@ 1
докаже 1
изтеглят 1
итер 1
княжески 1
левите 1
надява 1
оби 1
обика@@ 1
проби 1
редни 1
тива 1
току 1
холц 1
централата 1
165 1
bo@@ 0.12430297112215978
it 0.007612861740557757
Дъблин 1
Зал@@ 1
Реюнион 1
Фриц 1
Хун@@ 1
андър 1
анимация 1
започването 1
играча 1
инва@@ 1
кавица 1
лич 1
македон@@ 1
натова@@ 1
падне 1
посреща 1
разт@@ 1
режи@@ 1
религиоз@@ 1
сръбско 1
участъка 1
хумор 1
щър@@ 1
116 1
15@@ 0.45619807924267886
Ален 1
Баку 1
Вътрешна 1
Генера@@ 1
Джан 1
Релеф 1
авторка 1
американският 1
битол@@ 1
ени@@ 1
жително 1
кабе@@ 1
контей@@ 1
лангобар@@ 1
модификация 1
ники 0.3428926818116097
ноафрикан@@ 1
образен 1
органите 1
писмото 1
пори@@ 1
резиденцията 1
сигна@@ 1
синди@@ 1
сценарии 1
тита@@ 1
1521 1
1699 1
aria 0.2461906391145273
Винсент 1
Гьоте 1
Катедрата 1
Матю 1
Сиена 1
английският 1
въдство 1
възпроизве@@ 1
екрана 1
забраната 1
знака 1
кати@@ 1
меда@@ 1
недостатъци 1
опожар@@ 1
перу@@ 1
програмите 1
режись@@ 1
създал 1
телното 1
ху 1
Cichlidae 1
Times 0.17040717342914635
car@@ 0.11910522535024404
Адалберт 1
Бъркли 1
Лав@@ 1
Харт 1
атар 1
батальона 1
борец 1
бур 1
видо@@ 1
денеца 1
забележителни 1
избере 1
континентална 1
модерната 1
нарас@@ 1
планирано 1
сърде@@ 1
трева 1
харес@@ 1
хищници 1
1492 1
Die 0.009121966747446949
Бах@@ 1
Времето 1
Демир 1
Пантелеймон 1
Суматра 1
Турнирът 1
атомна 1
вратите 1
джун@@ 1
електричество 1
електронно 1
епископа 1
изолирани 1
ир@@ 1
ляно 1
месечно 1
мица 1
наименования 1
ним@@ 1
популяри@@ 1
разпоре@@ 1
риат 1
специфична 1
уа@@ 1
фемини@@ 1
фери@@ 1
фия 1
хло@@ 1
централното 1
шеното 1
122 1
} 0.339732244219508
£ 0.222857201681181
Кери 1
Моли@@ 1
Непосредствено 1
Тери 1
въвеждат 1
градина@@ 1
декла@@ 1
дивите 1
доминира 1
завладяват 1
зай@@ 1
изучават 1
обхващат 1
оркестъра 1
парламентарни 1
птън 1
рама 1
санти@@ 1
списанията 1
трофея 1
хълмиста 1
щията 1
яща 1
АР@@ 1
Вернигероде 1
Еу@@ 1
Йънг 1
Канди@@ 1
Начело 1
Неа 1
УНСС 1
ЮАР 1
заобикаля@@ 1
заплата 1
кафяв 1
олимпийските 1
правоъгълна 1
специал@@ 1
съдебна 1
удар@@ 1
финанси 1
хромозо@@ 1
хронологи@@ 1
1538 1
1637 1
1722 1
Un@@ 0.11784355955674174
Дух 1
Раст@@ 1
Съпру@@ 1
Херцо@@ 1
атори 1
депутатите 1
експози@@ 1
ински 1
кои 1
неколкократно 1
областен 1
платен 1
подпис@@ 1
разпад 1
стно 1
хаджи 1
340 1
tr@@ 0.08009069285857791
Боле@@ 1
Гибралтар 1
Карол 1
Нюйорк@@ 1
Он@@ 1
Саймън 1
Сул@@ 1
дневник 1
домашен 1
достъпа 1
жит@@ 1
забелязват 1
заблу@@ 1
инвали@@ 1
кио 1
музи@@ 1
наблю@@ 1
неправилно 1
обратното 1
особени 1
постановка 1
преноси@@ 1
провода 1
рината 1
стремят 1
тактика 1
царските 1
Военно 1
Извън 1
бити@@ 1
бомбардировачи 1
бъдещ 1
вио 1
гълъ@@ 1
диплома 1
епископия 1
подводница 1
предвод@@ 1
спорно 1
типо@@ 1
царе@@ 1
чаните 1
ях@@ 1
1,3 1
Q 0.3394579444046386
Георгиева 1
Защит@@ 1
Кни@@ 1
Оказва 1
астроно@@ 1
атома 1
бул@@ 1
вдъхновен 1
генерал@@ 1
губени 1
дово@@ 1
знаците 1
италианското 1
ключова 1
мощите 1
отговорни 1
пирамида 1
смисъла 1
стел 1
хондри@@ 1
DJ 0.5001982640204862
Дълго 1
Кент 1
Пул@@ 1
Струга 1
Хърбърт 1
газ@@ 1
крипто@@ 1
културния 1
позволено 1
придвижване 1
проводи@@ 1
сим 1
увеличаването 1
централи 1
ябъл@@ 1
1480 1
1577 1
1664 1
Връща 1
Средното 1
Хартман 1
Химлер 1
астроном 1
балкан@@ 1
доставка 1
зу 1
пенсионира 1
фрей@@ 1
Абдул 1
Агиос 1
Зад 1
Коко@@ 1
Морав@@ 1
Олимпийски 1
Пирот 1
Цент@@ 1
Шанхай 1
божество 1
древ@@ 1
императорския 1
овчар@@ 1
осветен 1
перспек@@ 1
плоско@@ 1
полите 1
полупровод@@ 1
пустин@@ 1
рубри@@ 1
сори 1
справя 1
танков 1
хиги@@ 1
читателите 1
Врачан@@ 1
ТА 1
Фау@@ 1
Хофман 1
албанско 1
арки 1
архивни 1
божества 1
бунтовниците 1
временното 1
вулканични 1
горна 1
деми@@ 1
зърна 1
ковец 1
необичайно 1
нишко 1
окаже 1
православната 1
привилеги@@ 1
придвижват 1
съществувал 1
1580 1
m2 1
Великден 1
Добрев 1
Извор 1
Никита 1
Остан@@ 1
Приложение 1
Салм 1
австралийски 1
бомбардировки 1
изгради 1
йони 1
протестите 1
солу@@ 1
титулярен 1
шотландски 1
1757 1
no 0.015921656083170563
tra 0.2361927827198179
Въпро@@ 1
Гренландия 1
Китайската 1
Риб@@ 1
Сиг@@ 1
Хъдсън 1
Щи@@ 1
будистки 1
водачите 1
граждането 1
детство 1
еврейската 1
завзема 1
изре@@ 1
минимална 1
отстраняване 1
промишле@@ 1
увеличена 1
фрид 1
храните@@ 1
червено@@ 1
1690 1
Гин@@ 1
Землището 1
Зор@@ 1
Източно 1
Клеопатра 1
Палермо 1
акциите 1
взвод 1
ганов 1
духовни 1
конкуренция 1
механични 1
нано@@ 1
наро@@ 1
нахлуването 1
нера 1
премахването 1
продължителни 1
рентге@@ 1
сините 1
топене 1
чифли@@ 1
133 1
13@@ 0.4180737545886288
145 1
1603 1
1744 1
1762 1
em 0.10987742710970119
Вапцаров 1
Военен 1
Глав@@ 1
Дво@@ 1
Дунавска 1
Евер@@ 1
Кеч@@ 1
Лерин@@ 1
Мле@@ 1
Морган 1
Сципион 1
библи@@ 1
биз@@ 1
вателя 1
готически 1
движ@@ 1
джии 1
дзян 1
дират 1
казал 1
костенурка 1
културното 1
лом 0.33695695791243374
ломбардски 1
монархията 1
обмен@@ 1
подчерта@@ 1
подял@@ 1
полов 1
съче@@ 1
уса 1
шили 1
1607 1
1689 1
didae 1
Алт@@ 1
Капе@@ 1
Кури@@ 1
Николаев 1
Пловдивския 1
Фина@@ 1
бира@@ 1
вокали@@ 1
демията 1
елен 1
мисълта 1
обсажда 1
ографи@@ 1
одрински 1
специалности 1
стади@@ 1
талант@@ 1
ута@@ 1
феномен 1
чужд 1
яд 1
1649 1
To 0.1352232779893662
Your 0.4293883219038195
Благовещение 1
Вдовицата 1
Лок@@ 1
Манхатън 1
Олимпи@@ 1
Телевизи@@ 1
Хло@@ 1
Юлих 1
архитекти 1
бога 1
жданите 1
ирак@@ 1
кай 1
корупция 1
ницки 1
нуж@@ 1
петият 1
печалба 1
пра 1
рефлек@@ 1
с.@@ 1
сключването 1
скре@@ 1
ствано 1
царуването 1
ьорка 1
Аврамов 1
Бенга@@ 1
Елисавета 1
Лвов 1
Максималната 1
Парижката 1
Препода@@ 1
Юлиан 1
богатата 1
бройни 1
важното 1
виен@@ 1
вирус@@ 1
воз@@ 0.4841111803201517
голо@@ 1
гризачи 1
закупува 1
лдо 1
лондон@@ 1
мистерио@@ 1
намо@@ 1
орто@@ 1
петрол 1
пресичат 1
пруския 1
специ@@ 1
pi@@ 0.17189944317456615
Белене 1
Ка 1
Обикнове@@ 1
Пове@@ 1
Президент 1
Романя 1
Технически 1
активист 1
диалог 1
енорията 1
костенурки 1
култиви@@ 1
лошото 1
мъче@@ 1
назначена 1
неаполитан@@ 1
оба 1
обезпе@@ 1
сделка 1
спрат 1
сътрудници 1
хидрав@@ 1
частица 1
югозападния 1
1453 1
1643 1
1767 1
Сейшели 1
Суперкупата 1
Чанд@@ 1
гви@@ 1
джин@@ 1
късното 1
литературния 1
милан@@ 1
наводнения 1
написал 0.9169296715342162
опъл@@ 1
пай@@ 1
приноси 1
средновековието 1
таш 1
теология 1
тираните 1
управляващата 1
уред@@ 1
ял@@ 1
1778 1
re@@ 0.022889174125207294
Академи@@ 1
Брони@@ 1
Куин@@ 1
Лим@@ 1
Мили@@ 1
Попо@@ 1
асистен@@ 1
балканските 1
була 1
ензи@@ 1
започнало 1
комплект 1
миран 1
ная 0.09268950636824946
носните 1
общу@@ 1
отправ@@ 1
падеж 1
петима 1
попу@@ 1
хетеро@@ 1
членство 1
1633 1
1743 1
Алесандро 1
Антиохия 1
Вит 1
Мах@@ 1
Ортенбург 1
Северни 1
Съдържание 1
Университе@@ 1
Фун@@ 1
Харолд 1
Чере@@ 1
Чита@@ 1
бронзова 1
вековете 1
величе@@ 1
дебела 1
ефика@@ 1
запазят 1
инже@@ 1
искания 1
кав@@ 1
кухина 1
лците 1
народо@@ 1
натовар@@ 1
отварят 1
подземни 1
рат@@ 1
реното 1
студентски 1
10.@@ 0.5642163780765409
ab@@ 0.044063417971585514
Ела@@ 1
Какво 1
Мина 1
Почива 1
Тет@@ 1
болида 1
братовче@@ 1
геоложки 1
дем@@ 1
зле 1
католицизма 1
логичен 1
мините 1
мисте@@ 1
новец 1
нум 1
подобрения 1
разкопките 1
сило@@ 1
склад 1
тъмна 1
удво@@ 1
фини 1
явите 1
ядрено 1
1673 1
1786 1
Аро@@ 1
Драган 1
Иск@@ 1
Ихти@@ 1
Коларов 1
Лусия 1
Острови 1
Португа@@ 1
Светов@@ 1
акцент 1
алумини@@ 1
вният 1
гнала 1
еднокорабна 1
ефективен 1
изпит 1
какви 1
катали@@ 1
контраадмирал 1
молитва 1
плава 1
победени 1
покрайнините 1
рапър@@ 1
скар@@ 1
съчинения 1
co@@ 0.07114326285824173
uridae 1
Дряново 1
Зву@@ 1
НА@@ 1
Нин@@ 1
ПК 1
Строежът 1
Теория 1
ас@@ 1
веца 1
водосборните 1
замож@@ 1
избе@@ 1
костурското 1
мате@@ 1
мирни 1
повторение 1
престо@@ 1
1586 1
1659 1
MTV 0.5525225634875436
chem 1
Григо@@ 1
Лауда 1
Нек@@ 1
Обра@@ 1
Оча@@ 1
Стайлс 1
Сун@@ 1
алите 1
балти@@ 1
бере@@ 1
кандидатира 1
малният 1
нийската 1
отменя 1
парни 1
срещнат 1
финансо@@ 1
финики@@ 1
читане 1
япон@@ 1
126 1
406 1
ri@@ 0.12152642281929947
Кой@@ 1
Морава 1
Рилския 1
Уорнър 1
азербайджан@@ 1
бак@@ 1
виетна@@ 1
зане 1
засегнати 1
извле@@ 1
изписан 1
израст@@ 1
императорската 1
инициативата 1
печатни 1
плащане 1
подчинява 1
почита 1
предложен 1
принадлежа@@ 1
рез 1
стрик@@ 1
юж@@ 1
1702 1
Дженифър 1
Желе@@ 1
Клау@@ 1
Парти@@ 1
Роди@@ 1
влака 1
зинг 1
ктивен 1
небес@@ 1
пани@@ 1
пард 1
придружа@@ 1
свойствата 1
субтропи@@ 1
тство 1
укрепване 1
циан@@ 1
шведската 1
1737 1
Белоград@@ 1
Вал 1
Дарвин 1
Открити 1
СД@@ 1
Херодот 1
датския 1
изоставен 1
космическата 1
наблюдате@@ 1
оръдейни 1
отстъпи 1
самолетоносача 1
славянска 1
срещите 1
1766 1
225 1
lidae 1
Поч@@ 1
Финан@@ 1
Фризия 1
Фрон@@ 1
Христина 1
Целият 1
анато@@ 1
гам@@ 1
диев 1
запал@@ 1
иконата 1
инс 1
лато@@ 1
лината 1
мик@@ 1
ограничаване 1
отчет@@ 1
пустиня 1
разглеждане 1
стрите 1
фит 1
цизъм 1
1,8 1
1663 1
1707 1
9,@@ 0.7393685172819326
è@@ 0.520786232585571
Британските 1
Въве@@ 1
Куро@@ 1
Мен 1
Музика 1
Мута@@ 1
Напуска 1
Нет@@ 1
археолог 1
васал 1
задвижване 1
измина@@ 1
колеба@@ 1
настоящ 1
облож@@ 1
общият 1
пени 1
приключения 1
свалени 1
синтак@@ 1
стара@@ 1
стява 1
1535 1
Бланкен@@ 1
Вегас 1
Дела@@ 1
Проце@@ 1
Такъв 1
Яге@@ 1
албумите 1
атрибу@@ 1
бактери@@ 1
баскетбол 1
болници 1
дискусии 1
забавя 1
изостав@@ 1
изправен 1
капаците@@ 1
катастрофата 1
китайските 1
колиби 1
мерия 1
огъ@@ 1
прогреси@@ 1
публикация 1
реда@@ 1
режисьори 1
сари 1
снабдени 1
умо@@ 1
уязви@@ 1
1503 1
1672 1
Валоа 1
Местните 1
ПП 1
Тбилиси 1
ФС 1
Хабсбург@@ 1
бик 1
водител 1
електрон@@ 1
изваден 1
кърмовата 1
маймуни 1
наоса 1
новосъздадената 1
об 0.2919319284679254
придвижва 1
разрушава 1
сад 1
скъпи 1
тайните 1
тезата 1
тената 1
църковната 1
144 1
1735 1
und 0.002113054967280499
Беатрис 1
Далечния 1
Кралица 1
Литературен 1
Пак@@ 1
Подобни 1
Развитието 1
Светите 1
Уей@@ 1
Фели@@ 1
Човекът 1
анския 1
документа 1
идентифицира 1
иниции@@ 1
машините 1
посочени 1
предприятието 1
сал 1
травма 1
ченето 1
1712 1
45@@ 0.7157808934851632
Адмирал 1
Въоръ@@ 1
Импер@@ 1
Клемен@@ 1
Луна 1
Решението 1
Татяна 1
Тел 1
Яну@@ 1
бате@@ 1
византийските 1
династи@@ 1
драмата 1
електронната 1
инфла@@ 1
ляк 1
малното 1
мологията 1
повърхности 1
приго@@ 1
редак@@ 1
сегашната 1
стрелкови 1
ъгълен 1
113 0.9790754127895704
1563 1
1604 1
1748 1
Hy@@ 0.41189871769051145
NXT 1
Бахам@@ 1
Бив@@ 1
Гости@@ 1
Енрике 1
Луит@@ 1
Мелник 1
Папенхайм 1
Текленбург 1
Хаус 1
генерира 1
композицията 1
латор 1
метърът 1
мония 1
намирало 1
националистиче@@ 1
немското 1
нците 1
няколкостотин 1
пон 1
потомък 1
сектора 1
списъците 1
стълба 1
трил@@ 1
щно 1
1328 1
Айнщайн 1
Върховният 1
Италианската 1
КПСС 1
Към@@ 1
ТМ 1
Трявна 1
Указ 1
вря@@ 1
гати 1
дне 1
дола@@ 1
застре@@ 1
л.@@ 1
лити 1
моделите 1
одобрен 1
получила 0.5348320451189567
румънския 1
сектори 1
тайн@@ 1
убият 1
ферен@@ 1
1760 1
α 0.437038303381774
Бау@@ 1
Княз 1
Лорд 1
автобуси 1
веро@@ 1
изразена 1
концертите 1
краят 1
кучето 1
нище 1
пила 1
предшественици 1
разширена 1
споменаване 1
черке@@ 1
ънк 1
123 1
1656 1
1728 1
ca 0.15012468755550687
ВМ@@ 1
Панагюрище 1
Прадеш 1
Приема 1
Хими@@ 1
апсидата 1
давайки 1
долф 1
дур 1
звено 1
кавалерия 1
комунистическото 1
нахлуване 1
остана 1
папа@@ 1
присво@@ 1
регистрирана 1
риум 1
съветско 1
тоа@@ 1
четат 1
1644 1
199 1
public 0.04791014469249983
Богданов 1
ВМФ 1
Ирак@@ 1
Куинсланд 1
Лора 1
Стей@@ 1
Фрайбург 1
Ява 1
автомобилни 1
ванието 1
ефектив@@ 1
затъ@@ 1
инфекция 1
лително 1
любовни 1
материалите 1
наемници 1
обит@@ 1
пейзаж 1
плуване 1
пребивава 1
преми@@ 1
пристъп@@ 1
реална 1
репортер 1
ръководен 1
специализирана 1
сру@@ 1
страничните 1
турбо@@ 1
фос 1
1541 1
Забра@@ 1
Маршалови 1
Николаус 1
англи@@ 1
белгийски 1
волът 1
доктри@@ 1
дун 1
зем 1
лост@@ 1
набези 1
новената 1
номини@@ 1
останало 1
осъществяването 1
процесор 1
семен@@ 1
сканда@@ 1
такси 1
траките 1
франките 1
1589 1
1596 1
Арканзас 1
Децата 1
Иларион 1
Перси@@ 1
Ролята 1
Самар@@ 1
аф@@ 1
биологични 1
вариации 1
гент@@ 1
глен 1
глени 1
двор@@ 1
десанта 1
домейн 1
дървесина 1
зион@@ 1
игри@@ 1
кварта@@ 1
кологи@@ 1
констру@@ 1
коя 1
надде@@ 1
океан@@ 1
пфалц@@ 1
разнообразна 1
фотографи@@ 1
юк 1
1771 1
Анкара 1
Антарктика 1
Милан@@ 1
Областта 1
акуму@@ 1
всякакъв 1
граматика 1
датирани 1
драта 1
епохи 1
заро 1
зове 1
имения 1
интериора 1
кома 1
красивата 1
мка 1
обращение 1
орски 1
подробности 1
събора 1
съвременно 1
съществена 1
турен 1
ури 1
утро@@ 1
1724 1
oth@@ 0.36906999972369864
АР 1
Вайлбург 1
Гради@@ 1
Добре 1
Дръ@@ 1
Равен@@ 1
Руски 1
Сина 1
Фауст 1
Чове@@ 1
анализи 1
гранични 1
затвори 1
ограниче@@ 1
преработка 1
сексуални 1
тракийско 1
труден 1
шапка 1
ясен 1
1575 1
1652 1
Warner 0.470080381236792
Дагсбург 1
Лотус 1
Мите@@ 1
арабските 1
ветро@@ 1
вита@@ 1
годи@@ 1
грабе@@ 1
действаща 1
ек 1
зависят 1
закрит 1
лион 1
максимален 1
маршрути 1
низирана 1
предишни 1
сборен 1
седмично 1
сливат 1
суми 1
циган@@ 1
1. 0.08351421009520782
1781 1
8,@@ 0.6404728419860757
Кейн 1
Съдържа 1
апе@@ 1
апостол 1
бригаден 1
вето 1
видимо 1
вижда@@ 1
вое@@ 1
гай 1
дебели 1
динска 1
журналистка 1
зеленчу@@ 1
китайския 1
ковската 1
очерта@@ 1
полското 1
пояса 1
правейки 1
православ@@ 1
преместването 1
преместена 1
разгръ@@ 1
ресторанти 1
родина 1
сец 1
смесена 1
стрели 1
субтропичен 1
счу@@ 1
федеративна 1
финланд@@ 1
хилядо@@ 1
четвъртото 1
1519 1
Гад@@ 1
Загива 1
Захари 1
Лоу@@ 1
Събранието 1
базал@@ 1
делник 1
демонстрации 1
заражда 1
имуществото 1
лизират 1
любовна 1
мела 1
млн 0.5529938406327236
намерена 1
отдолу 1
покуп@@ 1
проли@@ 1
проходи@@ 1
скит@@ 1
съзвездието 1
тех@@ 1
1370 1
1756 1
Ag@@ 0.21198490344013055
Лидия 1
Попова 1
Слави 1
Солунски 1
Сопот 1
Съединение 1
барабанист 1
благосло@@ 1
дъх@@ 1
игрални 1
католи@@ 1
колоната 1
кредит@@ 1
мелоди@@ 1
нрав@@ 1
отдалечени 1
отлича@@ 1
порта@@ 1
пук@@ 1
силния 1
турбини 1
турнирите 1
убеждения 1
1444 1
1777 1
`@@ 1
Бож@@ 1
Бьор@@ 1
Велик 1
Въз 1
Евдокия 1
Йеро@@ 1
Михайлов@@ 1
Тене@@ 1
Филипов 1
або@@ 1
валия 1
десант 1
достигане 1
еквивалент 1
емия 1
здравословни 1
източ@@ 1
индивидуално 1
испанското 1
количе@@ 1
масти@@ 1
моя 1
опор@@ 1
постанов@@ 1
пречуп@@ 1
проектирана 1
проконсул 1
районен 1
уния 1
усилено 1
ферма 1
1573 1
1653 1
1720 1
1773 1
Био@@ 1
Бря@@ 1
Капа@@ 1
Тип 1
Тун@@ 1
Църква 1
възхи@@ 1
заб@@ 1
класно 1
нике@@ 1
оригинален 1
популации 1
предприе@@ 1
сква 1
тол@@ 0.7854267207702917
ъгълник 1
1721 1
name 0.03307409403398196
БГ 1
Виш@@ 1
Дончев 1
Райт 1
авторитет 1
американци 1
античния 1
видеото 1
джан 1
зъл 1
импул@@ 1
момичето 1
нака 1
нев@@ 1
опасността 1
потребителски 1
революционери 1
стандарта 1
схо@@ 1
тии 1
тица 1
учителства 1
шевич 1
ьол 1
ans 0.03584150429771756
Барби 1
Вселе@@ 1
Демо@@ 1
Джонатан 1
Доменико 1
Метро@@ 1
Мьор@@ 1
Носи 1
Поста@@ 1
Сало@@ 1
Сър 1
Широ@@ 1
вечеря 1
видими 1
вселе@@ 1
галакти@@ 1
готова 1
грев 1
дебелината 1
изложена 1
каре@@ 1
кините 1
компетент@@ 1
кски 1
курфюр@@ 1
маски@@ 1
молит@@ 1
отрасли 1
развие 1
свободи 1
скъпо@@ 1
стату@@ 1
съди 1
таблицата 1
фраг@@ 1
франка 1
1746 1
ον 1
Атланта 1
Олимпия 1
Пелопонес 1
Рус 1
Яма@@ 1
банкноти 1
близостта 1
британско 1
високосна 1
гранична 1
джин 1
елс 1
етика 1
жете 1
изпревари 1
израе@@ 1
израс@@ 1
материала 1
метеорити 1
покрайнини 1
попа@@ 1
прево@@ 1
просвета 1
ранов 1
решетка 1
северозападния 1
седловина 1
съосновател 1
1260 1
1584 1
1641 1
1658 1
Air 0.09114687512501728
Инокентий 1
Лаубах 1
Марино 1
Предста@@ 1
Теглото 1
грузински 1
достиг@@ 1
екипи@@ 1
завой 1
закръ@@ 1
изобразена 1
изразени 1
кралско 1
мено 1
мощна 1
неуспешно 1
нож 1
подкре@@ 1
пратеник 1
примера 1
регулиране 1
рейн@@ 1
тънка 1
уе 1
уна 1
усещане 1
Ада 1
Варшав@@ 1
Дортмунд 1
Мехтилд 1
Милетич 1
Председате@@ 1
Роналд 1
Томпсън 1
авиа@@ 0.9372890991486763
враговете 1
дир 1
кир 1
клона 1
команди@@ 1
кти 1
лино 1
маршрута 1
момичетата 1
мъка 1
низирани 1
олимпиада 1
партийни 1
перифер@@ 1
пуснал 1
разслед@@ 1
разстройство 1
ращата 1
тежест 1
търго@@ 1
хилд 1
хле@@ 1
швили 1
168 1
Ванкувър 1
Дьо 1
Нютон 1
Сократ 1
археологическите 1
бургския 1
вдъхновява 1
викарий 1
влиятелните 1
гват 1
гма 1
диви@@ 1
засада 1
клип 1
клонове 1
короня@@ 1
литера@@ 1
откритие 1
подпише 1
сено 1
справят 1
стви@@ 1
страниците 1
типична 1
тюркски 1
хун@@ 1
1270 1
1290 1
1739 1
System 0.18832562133698316
si@@ 0.1550275036080318
Гам@@ 1
Нака@@ 1
Сант 1
Севастопол 1
агенции 1
буква@@ 1
волейбо@@ 1
коля@@ 1
обезлю@@ 1
подправки 1
престижната 1
претърпяват 1
сватба 1
сложно 1
1520 1
1592 1
onidae 1
Арте@@ 1
Градище 1
Долната 1
Загу@@ 1
Кюр@@ 1
Моцарт 1
Попово 1
Притежава 1
Роде@@ 1
Роуз 1
Фарнезе 1
Хоб@@ 1
Шумахер 1
алуви@@ 1
бележки 1
воини 1
глежда 1
електрическата 1
конфедерация 1
масовото 1
мексиканска 1
модерните 1
напитка 1
окупира 1
олицетво@@ 1
посетителите 1
прякор 1
психиатри@@ 1
свиква 1
снукър 1
фантастичен 1
францу@@ 1
1741 1
Библиотеката 1
Дамаск 1
Концер@@ 1
Норфолк 1
Предтеча 1
Рой@@ 1
Соломон 1
Учи@@ 1
антични 1
вати@@ 1
вируса 1
възнагра@@ 1
грубо 1
данъчни 1
диагностици@@ 1
загинал 1
изрично 1
индекс 1
кух@@ 1
мишле@@ 1
носещи 1
отпадат 1
отсъства 1
оттук 1
политики 1
равнинен 1
рона 1
самостоя@@ 1
свалят 1
списъци 1
съю@@ 1
тир 1
1190 1
1525 1
1726 1
Co@@ 0.12114172893699261
Античността 1
Горната 1
Драматичен 1
Йорк@@ 1
Найден 1
Начало 1
Сценарият 1
ганите 1
дом@@ 1
дяване 1
езикови 1
заплахи 1
истинско 1
конвенциона@@ 1
линиите 1
майсто@@ 1
меки 1
мъртви 1
някакво 1
организаторите 1
отбранителна 1
плат 1
подписано 1
приел 1
селекция 1
ская 0.09107293858444153
скът 1
слото 1
филхармония 1
чайки 1
чувствата 1
1601 1
1692 1
oma 0.349349610099299
Изуча@@ 1
Лем@@ 1
Модена 1
Нови@@ 1
Планината 1
Средиземноморието 1
Успе@@ 1
арите 1
въже@@ 1
горско 1
задните 1
квартира 1
мюсюлманско 1
недостатъчно 1
популяризира 1
последва@@ 1
постигнато 1
потег@@ 1
предателство 1
преминаващ 1
разоча@@ 1
свързаните 1
скоези@@ 1
съвкупност 1
съвместни 1
убеден 1
фламанд@@ 1
читате@@ 1
1642 1
En@@ 0.11179746029867968
Киевска 1
Кирбург 1
НБА 1
Пак 1
Планът 1
Признание 1
Резер@@ 1
Цветът 1
Цер@@ 1
водопад 1
дад 1
жилище 1
заменят 1
кирилица 1
лявото 1
мозай@@ 1
национализъм 1
небе 1
нима 1
нитет 1
основания 1
плодоро@@ 1
принуд@@ 1
развитите 1
собствениците 1
1558 1
420 1
Di@@ 0.11174290241432747
ex 0.18512442794174455
osus 1
Авгу@@ 1
Вали 1
Кавала 1
Президиума 1
бута@@ 1
древногръцки 1
закупен 1
книго@@ 1
натини 1
обле@@ 1
остри@@ 1
попре@@ 1
посрещнат 1
предходната 1
прекъ@@ 1
проститу@@ 1
растежа 1
сла 1
състезават 1
установ@@ 1
утвърден 1
формирани 1
хоризонтално 1
чудо 1
яван 1
55@@ 0.8815525873790532
Белия 1
Кавказ@@ 1
Фабий 1
бригадата 1
вност 1
възгла@@ 1
измене@@ 1
изстрел 1
имащи 1
клон@@ 1
лци 1
менно 1
мони 1
намиращо 1
основателя 1
поддържането 1
порядъка 1
пренасят 1
скрити 1
твърдение 1
тогавашното 1
чините 1
щате@@ 1
1782 1
Club 0.06278697253973153
Андер@@ 1
Несебър 1
Падуа 1
болез@@ 1
брегова 1
глоба@@ 1
дълбочината 1
закупу@@ 1
зви@@ 1
изключва 1
изненадващо 1
книжар@@ 1
лдс 1
лязла 1
мална 1
мебели 1
награжда@@ 1
окръзи 1
описания 1
подофи@@ 1
правителствените 1
предупреждава 1
пролетно 1
промени@@ 1
разме@@ 1
разширяването 1
сегаш@@ 1
скорости 1
ственик 1
химичен 1
цито@@ 1
124 1
1678 1
1729 1
1738 1
ai 0.09687452420486634
Била 1
Британския 1
Окръгът 1
Племен@@ 1
Ход@@ 1
Янина 1
амби@@ 1
везир 1
външно@@ 1
заявяват 1
избор@@ 1
инти@@ 1
купуват 1
малцинства 1
намаляването 1
пит 1
потвърдено 1
процедури 1
стъплението 1
тонове 1
хотели 1
щатите 1
ядра 1
1420 1
1566 1
ad 0.09685125276962882
Берг@@ 1
Бере@@ 1
Кверфурт 1
Могат 1
Райна 1
Рупрехт 1
боядис@@ 1
вес@@ 1
духове 1
женско 1
имаме 1
ития 1
косата 1
малцин@@ 1
мация 1
определянето 1
осигурят 1
подчинен 1
посет@@ 1
претендент 1
развежда 1
скване 1
стяване 1
1,4 1
Божидар 1
Воло@@ 1
Дали 1
Мра@@ 1
Саксонска 1
Седем@@ 1
Уолис 1
абат 1
бялата 1
възприе@@ 1
диктат@@ 1
достатъ@@ 1
изоставени 1
индустриални 1
коментира 1
лидера 1
наби@@ 1
нераз@@ 1
ници@@ 1
отбранителни 1
повърх@@ 1
подарък 1
произхождат 1
реалността 1
рожден 1
свещението 1
сексуално 1
справедливост 1
същността 1
управлявана 1
ценна 1
шампионската 1
1578 1
1709 1
Бреша 1
Кили@@ 1
бракът 1
вътрешното 1
документи@@ 1
достовер@@ 1
единадесет 1
живеели 1
квалификационен 1
металур@@ 1
наблюдавани 1
пеша 1
пивоварна 1
полезен 1
продукта 1
пясъчници 1
тежестта 1
югозападните 1
with 0.0028886933008331877
Ий@@ 1
Министер@@ 1
Мърфи 1
Неин 1
Форми@@ 1
Хюсеин 1
Южните 1
бронз 1
германско 1
дредно@@ 1
дължат 1
експлоати@@ 1
жиев 1
защитници 1
избягват 1
ироке@@ 1
куп 1
музикантите 1
опове@@ 1
подчинена 1
последвалото 1
пълководец 1
скле@@ 1
структури@@ 1
тно@@ 1
фелд@@ 1
хармония 1
хър@@ 1
1308 1
1554 1
1745 1
Conus 1
oni 0.2497520596089596
Адриатическо 1
Глад@@ 1
Никопол 1
Установява 1
автомобилна 1
атлетика 1
вере@@ 1
горене 1
дион 1
иди@@ 1
кая 0.764326618062897
кви 1
колонизация 1
космос 1
матрица 1
мода 1
наблизо 1
ненски 1
одите 1
пейза@@ 1
писания 1
пли 1
радиация 1
теж 1
тип@@ 1
трибуна 1
упражнения 1
флан@@ 1
хли@@ 1
цистер@@ 1
шести@@ 1
ядрен 1
Вяр@@ 1
Изключ@@ 1
Международният 1
Републиката 1
Струк@@ 1
Съз@@ 1
Участие 1
английското 1
борса 1
буле@@ 1
говорещи 1
дт 1
дъска 1
евангелие 1
извою@@ 1
кало@@ 1
ковския 1
кратер 1
метало@@ 1
оборудването 1
рати 1
устав 1
училищен 1
60@@ 0.7895794927786256
Варшавския 1
Военния 1
Дълбо@@ 1
Постъпва 1
Пъту@@ 1
Съвет 1
Тито 1
Убит 1
Философския 1
болид 1
дека@@ 1
дирижи@@ 1
доклада 1
дребен 1
женото 1
зка 1
икономическия 1
късометражен 1
легендарния 1
лектор 1
лязъл 1
мащабна 1
мембрана 1
мерна 1
обер@@ 1
предходните 1
престижни 1
произхожда@@ 1
променен 1
пун@@ 1
сборници 1
скоп 1
съображения 1
третокласен 1
хипо@@ 1
чински 1
шила 1
1347 1
1350 1
1655 1
208 1
BBC 0.18773868820965112
ani 0.13586050502673222
con@@ 0.08385847570842273
Иванович 0.6190983556971351
Мелбърн 1
Нека 1
Скорпиънс 1
Съвмест@@ 1
Съпротив@@ 1
ализма 1
бере 1
бъла 1
венски 1
въздушната 1
господар@@ 1
засел@@ 1
мечки 1
мяване 1
поте@@ 1
проектите 1
пропуск@@ 1
разказват 1
разнообраз@@ 1
регентството 1
случило 1
социалдемокра@@ 1
стопа@@ 1
театрално 1
тета 1
укрепление 1
хайду@@ 1
яйцата 1
121 1
1340 1
1611 1
1629 1
1708 1
Corporation 0.20723844571044964
Or@@ 0.10486873157188839
Анали@@ 1
Микро@@ 1
Пощен@@ 1
Харков 1
влия@@ 1
водорасли 1
вс 1
вявайки 1
главите 1
грън@@ 1
залежи 1
заобиколен 1
издигането 1
имерн 1
имотите 1
клиентите 1
конна 1
младежта 1
многобро@@ 1
реци@@ 1
синоним 1
сира@@ 1
стващ 1
техническия 1
фута 1
членка 1
чума 1
1614 1
1706 1
850 1
Влади@@ 1
Етро@@ 1
Изпълните@@ 1
Кралското 1
Лиза 1
Пеев 1
Плав@@ 1
Среднове@@ 1
Хелзинки 1
въоръжението 1
действително 1
норве@@ 1
панаир 1
поклонение 1
превземе 1
преце@@ 1
редактира 1
режисирана 1
снежно 1
сухо 1
тивност 1
ците@@ 1
1608 1
1639 1
High 0.07396607086121379
ka 0.08458374748673396
Вале 1
Забеле@@ 1
Козма 1
Кралството 1
Мюлер 1
Паркър 1
Сеул 1
Фрей@@ 1
арит@@ 1
бронзовата 1
вските 1
директора 1
занаяти 1
масла 1
ническият 1
периодични 1
помест@@ 1
постигането 1
правопис 1
приготвяне 1
разрушаването 1
семейни 1
слънчевата 1
студени 1
съобщ@@ 1
твори 1
хранително 1
цла@@ 1
1548 1
1571 1
1593 1
Night 0.2659011541954838
w 0.14891795871482555
Аякс 1
Баро@@ 1
Бенджамин 1
Джесика 1
Дик 1
Мейн 1
НРБ 1
Нанси 1
Созопол 1
Така@@ 1
Фото@@ 1
Яворов 1
белетри@@ 1
гау@@ 1
дог@@ 1
дъбови 1
завещанието 1
зио 1
кмето@@ 1
милиция 1
намирала 1
нормални 1
обработката 1
приорите@@ 1
провъзгласява 1
разширяват 1
регистрирано 1
скал 1
скер 1
смятана 1
цк 1
1371 1
1730 1
\ 0.460433082963264
ini 0.118645674579007
od@@ 0.14156051038686654
ra 0.05170582272034017
Картината 1
Люк 1
Николо 1
Нина 1
Общин@@ 1
Университетът 1
бюджета 1
гена 1
географ 1
доказа@@ 1
еднаква 1
каска@@ 1
лович 1
мотор@@ 1
окото 1
паракли@@ 1
подаване 1
про 1
разни 1
рога 1
руди 1
спасят 1
стили@@ 1
стреля 1
удоволствие 1
финген 1
1562 1
1685 1
me 0.07587044263198721
Кей 1
Колин 1
Моги@@ 1
Пейдж 1
Сват@@ 1
Синве 1
Фрий@@ 1
Цин 1
атентата 1
герои@@ 1
железопътен 1
звал 1
коали@@ 1
мишка 1
наименуван 1
неви@@ 1
пот 1
потвърждават 1
предгра@@ 1
предотвратяване 1
приличат 1
продължител@@ 1
протеини 1
разузнавателна 1
ратифици@@ 1
рок@@ 1
способна 1
събрания 1
съд@@ 1
църковния 1
чешкия 1
1669 1
1733 1
1764 1
ma 0.11239794441755055
Дел 1
Маса@@ 1
Оливети 1
Пиеро 1
СОУ 1
Тримата 1
Франциска 1
Характерно 1
болните 1
духът 1
държа 1
емирства 1
здраво@@ 1
избити 1
използващи 1
индиански 1
календар@@ 1
[...]
