۔ 1107595
کے 1036756
میں 919205
، 848254
کی 791090
ہے 701010
اور 642955
سے 506580
کا 489211
اس 355204
نے 337113
پر 321645
کو 315214
ایک 312856
ہیں 216422
) 208652
( 204095
. 194573
جو 182371
کیا 163926
ان 151199
کہ 146392
یہ 144961
&quot; 143715
تھا 142641
واقع 136912
بھی 132797
کر 115241
وہ 108049
تھے 107290
@-@ 105482
لیے 99227
گیا 95072
و 87330
بعد 83508
: 81598
جس 73931
یا 73386
آبادی 70844
ہو 70385
ساتھ 66963
بن 66919
تھی 66590
نہیں 65012
مجموعی 61820
افراد 61395
کرنے 61174
; 59939
تک 59569
دیا 59158
اپنے 58719
تفصیلات 58629
مشتمل 57690
&amp; 57439
طور 55980
کاؤنٹی 55743
جاتا 54836
ہوئے 53990
تو 52375
آپ 50648
پاکستان 49125
ہی 47697
ہوا 47374
نام 46684
متحدہ 45813
شہر 43106
اللہ 40896
زیادہ 40394
امریکا 40196
ضلع 40081
انہوں 39922
اپنی 39748
گئے 39575
علاقہ 39104
سطح 38774
ریاستہائے 37871
شپ 36960
میٹر 36626
گئی 36613
جب 36511
دی 36078
حاصل 36074
محمد 35844
لیکن 35703
کرتے 35397
دو 35345
مربع 35345
رقبہ 34672
نہ 34582
ہوئی 34476
ٹاؤن 34443
بہت 33536
بلندی 33427
کیلومیٹر 32807
اسے 32633
سب 32374
سال 31487
وقت 31346
کہا 31071
پہلے 30462
ہونے 30437
شامل 30262
ہوتا 30216
والے 29948
کچھ 29939
/ 29549
کسی 29089
gt 28612
رہے 28554
lt 28444
خان 28134
وجہ 26791
آباد 26193
طرح 26087
‘ 25626
حکومت 25405
رہائشی 25380
جنگ 25231
کام 24765
علی 24593
جن 24424
اسی 24321
سی 23796
طرف 23516
سو 23385
سمندر 23033
دور 22920
کوئی 22640
خلاف 22151
لیا 22105
شاہ 22019
استعمال 21854
حضرت 21799
کم 21729
فلم 21493
’ 21464
انہیں 21455
زبان 21021
تعلیم 20971
بھارت 20887
مطابق 20429
شروع 20374
صوبہ 20363
پیدا 20274
دے 20038
زندگی 19860
رہا 19481
پھر 19272
لے 19188
والی 18991
تھیں 18860
تمام 18826
دوران 18653
ہر 18409
صرف 18186
عام 18143
ملک 17979
کرکٹ 17964
مقام 17936
ی@@ 17889
مشہور 17863
یہاں 17747
کتاب 17689
لئے 17672
پ@@ 17666
کیے 17616
کئی 17493
ہوتی 17331
تین 17302
اے 17076
کرنا 17033
کرتا 17000
خود 16997
پیش 16994
لوگوں 16959
اب 16956
مختلف 16865
جہاں 16808
غیر 16754
عبد 16692
موجود 16670
اسلام 16608
تاریخ 16524
حصہ 16385
ک@@ 16349
&#124; 16312
گا 16307
جاتی 16173
دنیا 16065
امام 16015
بے 15921
عمر 15881
فرانسیسی 15818
لا 15741
ہم 15674
قائم 15672
دوسرے 15657
اہم 15653
پہلی 15584
جائے 15413
آف 15367
سینٹ 15319
ابن 15300
ہوائی 15294
احمد 15277
دونوں 15222
ریاست 15195
گ@@ 15114
وفات 14927
&#93; 14925
دریا 14798
اور@@ 14669
اردو 14655
جنوبی 14650
&#91; 14592
بی 14574
علاوہ 14452
ہ@@ 14436
جا 14368
یعنی 14316
ہزار 14291
لی 14253
چ@@ 14225
بڑے 14197
جانے 14193
ای@@ 14156
of 14115
؛ 14095
&apos; 13867
ٹی 13862
می@@ 13803
الدین 13784
فوج 13749
دیگر 13745
بین 13723
فہرست 13677
س@@ 13671
وں 13546
بی@@ 13528
پاس 13501
سی@@ 13443
علیہ 13438
بات 13420
یونیورسٹی 13397
ہ 13368
جیسے 13360
اسٹیشن 13346
بڑا 13297
لوگ 13266
سلطنت 13224
بڑی 13198
ہندوستان 13189
ایران 13140
لی@@ 13122
رہی 13114
- 13108
دن 13087
ہوتے 12981
جبکہ 12979
کی@@ 12975
, 12887
اگر 12884
دار 12883
ڈی 12880
بار 12860
لا@@ 12833
خاندان 12767
سید 12760
ہوں 12739
ن@@ 12719
صدی 12718
خواتین 12702
اڈا 12651
پی 12630
ڈ@@ 12592
علم 12569
ابو 12448
ریلوے 12410
دوسری 12383
قومی 12377
شمالی 12361
ری@@ 12327
و@@ 12235
پور 12197
مگر 12173
ر@@ 12130
ان@@ 12065
صدر 12062
اپنا 12052
ٹ@@ 12037
مغربی 11996
جاری 11937
بارے 11936
ار@@ 11913
عدد 11853
پنجاب 11836
بیان 11811
ابتدائی 11773
درمیان 11738
آئی 11719
کو@@ 11716
تا 11711
لینڈ 11658
خاص 11648
ِ 11637
د@@ 11604
بنا 11593
تعلق 11575
ٹیسٹ 11512
عمل 11469
ب@@ 11468
جسے 11452
آغاز 11439
نی@@ 11410
فرانس 11407
کرتی 11350
تاہم 11339
والد 11331
ج@@ 11318
علاقے 11259
نیو 11185
ش@@ 11176
حسین 11144
آ@@ 11099
جاتے 11072
وی@@ 11050
سر 11021
والا 10967
کردار 10954
ز@@ 10948
کالج 10935
نظر 10880
رو@@ 10871
ے 10869
الاقوامی 10827
ک 10801
وی 10760
تعمیر 10752
چار 10746
امریکی 10745
گی 10671
گاؤں 10646
سیاسی 10633
ٹیم 10629
گھر 10445
گے 10425
عرب 10377
– 10328
انگریزی 10302
گن 10301
صاحب 10293
جگہ 10270
ممالک 10217
تعداد 10189
سکتا 10182
شادی 10178
مسجد 10156
پیدائش 10111
چین 10081
2 10071
کیونکہ 10055
شیخ 10015
مسلم 9997
مکمل 9927
ٹ 9916
کہتے 9836
پی@@ 9814
“ 9803
ل@@ 9783
قریب 9759
لاہور 9743
اسلامی 9741
کار 9693
وزیر 9652
م@@ 9624
حیثیت 9588
سن 9578
تر 9570
یونین 9541
عربی 9458
پر@@ 9449
1 9447
ال@@ 9439
نا 9422
مشرقی 9404
سلطان 9367
قبل 9352
مولانا 9290
ذریعہ 9280
جی 9258
مدد 9233
قدیم 9228
آئے 9215
ھ 9116
الینوائے 9104
رکھا 9092
ایس 9046
قتل 9037
را@@ 9031
نظام 9026
عظیم 9023
شائع 8997
ون 8965
حملہ 8960
س 8922
فرمایا 8883
کل 8875
وہاں 8837
بر@@ 8834
” 8832
رہ 8810
3 8797
بلکہ 8759
علاقوں 8754
واپس 8752
آیا 8736
ذکر 8720
بعض 8661
ختم 8655
کر@@ 8605
ڈی@@ 8586
تحریک 8576
فتح 8564
بنایا 8551
ہو@@ 8541
میچ 8529
شخص 8525
فوجی 8516
قرآن 8493
اختیار 8490
زمین 8443
ت@@ 8378
پہلا 8312
فی 8307
یوں 8306
انی 8305
کوشش 8257
مو@@ 8253
ادا 8247
تقسیم 8229
نو 8220
ف@@ 8214
مزید 8162
دی@@ 8156
برطانوی 8150
پاکستانی 8130
ایم 8127
رسول 8114
انھوں 8111
اس@@ 8100
رنز 8083
ری 8056
جانب 8048
دینے 8043
وغیرہ 8038
لکھا 8033
م 8025
ن 8024
آخری 8014
خدمات 8006
مل 7975
اعظم 7971
اسکول 7947
ہی@@ 7940
تیار 7914
کاونٹی 7903
بھائی 7899
مارچ 7894
ترکی 7886
پانی 7886
ائی 7877
پانچ 7869
كاونٹي 7862
كاؤنٹي 7861
تی 7831
جمہوریہ 7818
بولا 7805
شی@@ 7802
آج 7776
چند 7752
قرار 7748
ا 7745
ور 7714
بنیاد 7686
ایسے 7639
حسن 7625
ی 7624
20 7556
کبھی 7552
4 7549
خیال 7544
کراچی 7542
مسلمانوں 7540
خدا 7532
ین 7510
جان 7485
ام@@ 7482
ترقی 7468
ترین 7460
موجودہ 7452
انجام 7432
مرکزی 7425
این 7416
شمار 7414
متعلق 7404
جی@@ 7403
لو@@ 7382
وا@@ 7366
عالم 7361
من@@ 7342
ڈ 7333
کونسل 7313
آزاد 7301
تحت 7278
10 7277
مینیسوٹا 7260
5 7255
او@@ 7255
سندھ 7254
حدیث 7252
بادشاہ 7234
عالمی 7229
نی 7227
ایسا 7214
آزادی 7210
کرکے 7210
گی@@ 7206
بنیادی 7200
ذیل 7181
یں 7175
اگست 7169
روس 7148
مقامی 7138
قیام 7136
سلسلہ 7120
متعدد 7113
ل 7106
گروپ 7104
پارٹی 7096
سرکاری 7093
اہل 7088
انڈیانا 7084
رکھنے 7064
کس 7046
قانون 7034
رکھتے 7028
جنوری 7017
ادب 7004
سفر 7003
بھ@@ 6993
سنگھ 6990
آخر 6988
حکم 6978
تم 6972
مشی 6953
موت 6952
دیتے 6950
اکتوبر 6887
قسم 6887
مسلمان 6878
دسمبر 6874
قبضہ 6870
دل 6863
ور@@ 6842
دوبارہ 6826
جون 6793
انتخابات 6774
مئی 6757
اصل 6741
ذریعے 6741
بیٹے 6731
سر@@ 6721
ہاتھ 6715
قابل 6700
اعلان 6699
نا@@ 6694
پوری 6677
جدید 6669
ستمبر 6661
شمال 6647
سو@@ 6646
ہند 6645
6 6642
رکن 6642
قوم 6613
ٹی@@ 6610
کھ@@ 6606
بھارتی 6604
جولائی 6592
ز 6585
ا@@ 6584
درجہ 6567
ش 6552
ح@@ 6543
کافی 6516
زیر 6512
نومبر 6507
گئیں 6507
دہلی 6500
لاطینی 6497
ویں 6497
منتخب 6487
آسٹریلیا 6482
ملا 6477
بہترین 6475
سامنے 6469
صورت 6447
مذہبی 6437
عوامی 6434
کیریئر 6432
سکتے 6426
ون@@ 6424
جانا 6422
دین 6412
اکثر 6404
لفظ 6403
جرمنی 6398
لندن 6397
تی@@ 6393
آنے 6380
بنانے 6372
خ@@ 6358
حق 6356
کار@@ 6356
تے 6340
تھ@@ 6330
اسمبلی 6315
شکست 6285
بو@@ 6283
ایسی 6279
ڈاکٹر 6275
جنوب 6268
با@@ 6238
دان 6230
اب@@ 6228
روسی 6228
کیں 6219
اپریل 6218
فارسی 6179
انتقال 6170
مین 6164
برطانیہ 6140
بطور 6136
؟ 6131
ر 6125
کریں 6103
فن 6102
بنائے 6093
آ 6082
سوویت 6080
فروری 6078
مقرر 6078
تقریباً 6070
جامعہ 6064
تحصیل 6043
جنرل 6020
قبول 6018
هٔ 5994
جات 5988
15 5983
کامیاب 5977
فی@@ 5970
سن@@ 5938
کرے 5931
12 5920
تاریخی 5917
دہائی 5908
دیکھا 5903
عہد 5879
ؓ 5869
ٹاون 5841
ظاہر 5837
بچوں 5835
چھ 5834
شاعری 5808
روایت 5804
شام 5775
ہوئیں 5769
چنانچہ 5764
حالات 5751
مرکز 5749
شریف 5735
زی@@ 5731
نئی 5729
شاعر 5709
مذہب 5703
امیر 5697
نو@@ 5684
آئیووا 5676
صلی 5672
السلام 5665
رائے 5664
اندر 5662
ھ@@ 5654
اثر 5652
پسند 5645
گو@@ 5642
7 5640
شکل 5634
خانہ 5632
بھر 5627
8 5625
سیاست 5615
غلام 5614
دھ@@ 5607
چھوٹا 5606
نتیجے 5599
بنی 5588
موقع 5572
مشرق 5565
دیں 5562
بند 5557
سین 5555
فیصد 5552
اسرائیل 5551
جماعت 5546
_ 5534
افغانستان 5522
معلوم 5521
قصبہ 5520
ق@@ 5506
نئے 5500
الگ 5487
حصے 5479
اِس 5470
000 5451
نگ 5440
تاکہ 5435
اگرچہ 5432
یہی 5432
ابی 5428
ما@@ 5405
ۃ 5387
کلومیٹر 5380
اری 5374
سکے 5365
درج 5353
از 5338
دریائے 5337
11 5330
ع@@ 5326
ترک 5320
ائے 5315
لیگ 5310
ٹن 5307
انسان 5292
اول 5289
اُس 5289
فیصلہ 5288
نمبر 5277
انسانی 5276
ہندو 5274
شدہ 5269
19 5261
دس 5256
داخل 5248
مر@@ 5247
اوہائیو 5246
ترجمہ 5227
دو@@ 5222
9 5206
علامت 5195
حقوق 5187
کردیا 5185
انداز 5180
ملی 5179
آر 5174
ولی 5174
پائی 5145
کنساس 5144
مصر 5143
خواجہ 5140
جواب 5137
میر 5126
را 5122
فراہم 5119
چی@@ 5117
کردہ 5112
ایل 5105
میری 5100
وا 5095
والوں 5088
جمع 5086
پ 5086
چھ@@ 5081
او 5079
کتب 5078
رکھی 5077
ہندوستانی 5066
باہر 5063
14 5061
مقصد 5051
اُن 5040
معروف 5038
کمپنی 5038
اداکارہ 5032
حد 5029
سات 5027
زمانے 5019
گ 5019
بہ 5016
وسلم 4999
مراد 4993
رات 4978
شاہی 4975
اں 4969
30 4953
ادارہ 4946
سابق 4936
لگا 4925
اجازت 4922
محل 4920
اک@@ 4918
دوسرا 4918
باوجود 4916
سیریز 4903
جو@@ 4894
من 4887
حال 4885
وسطی 4884
ثابت 4873
سا 4872
قلعہ 4869
مرتبہ 4862
تشکیل 4858
حمایت 4848
چکے 4848
دیے 4841
عوام 4841
ت 4838
اتحاد 4828
باقی 4820
تنظیم 4819
واشنگٹن 4819
حملے 4810
چھوڑ 4809
می 4805
ضرورت 4801
برائے 4799
16 4792
ہونا 4777
بغیر 4775
تعلیمی 4774
ء 4772
مغرب 4764
رنگ 4762
غ@@ 4755
زمانہ 4746
یہودی 4738
مدینہ 4728
ام 4723
13 4722
18 4712
مار@@ 4708
تو@@ 4707
منتقل 4701
کیلیفورنیا 4694
دہ 4680
فٹ 4668
25 4664
پڑا 4663
سمجھا 4656
علامہ 4648
کشمیر 4647
انگلینڈ 4629
کمیون 4619
خدمت 4609
الفاظ 4578
ك@@ 4574
کھیل 4574
کھلاڑی 4567
17 4562
سری 4561
حالت 4558
Saint 4543
انا 4529
خلافت 4522
ق 4521
جڑواں 4508
بغاوت 4499
اعلیٰ 4492
نماز 4486
اد@@ 4479
فلموں 4479
! 4473
میرے 4468
تر@@ 4446
ج 4445
آگے 4430
ال 4430
یورپ 4423
اگ@@ 4419
چھوٹے 4416
رام 4411
ناول 4399
سينٹ 4394
ایف 4381
افواج 4379
اولاد 4377
پس 4375
حلقہ 4373
جلد 4372
تعلقات 4366
حوالے 4365
میدان 4363
پاک 4356
ایوارڈ 4349
طاقت 4348
ہوگا 4342
مقابلہ 4336
کامیابی 4333
ار 4331
سماجی 4330
اپ@@ 4322
رہتے 4321
سکتی 4316
سخت 4314
تبدیل 4313
دیتا 4310
لو 4300
د 4298
نسل 4298
رہنے 4297
بار@@ 4290
متاثر 4290
گر@@ 4289
خاتون 4286
= 4279
دیکھ 4279
انتہائی 4263
نہایت 4259
ٹس 4258
یت 4258
پنسلوانیا 4250
جے 4239
ولادت 4239
پولینڈ 4239
جرمن 4236
سائنس 4234
کن@@ 4228
اضافہ 4223
ادبی 4217
مصنف 4214
باعث 4211
گڑھ 4207
ص@@ 4205
ڈے 4205
جنہوں 4192
ما 4187
مملکت 4187
سنہ 4185
نقل 4182
کہانی 4182
تربیت 4180
عثمانی 4169
ہدایت 4157
لہ 4152
نیشنل 4149
بتایا 4139
ط@@ 4133
لینے 4133
واقعہ 4130
سٹ@@ 4125
انھیں 4122
کن 4120
ذیلی 4118
رو 4118
کپ 4117
بلند 4115
باز 4113
علمی 4113
میل 4109
ٹیلی 4107
ي@@ 4099
نامی 4093
معنی 4092
موسیقی 4087
یو 4083
کلاس 4079
جیسا 4078
چونکہ 4077
بندی 4076
لگے 4073
the 4072
گنتی 4066
چکی 4064
نور 4061
گھ@@ 4056
مثال 4055
خط 4051
یاد 4045
ہلاک 4043
محبت 4040
چینی 4037
وسیع 4035
مالک 4033
انہ 4032
در@@ 4027
سعودی 4023
مابین 4019
بیٹی 4017
انڈیا 4014
Canton 4008
چ 4006
چلے 4001
عراق 4000
منظر 3997
واقعات 3997
لاکھ 3992
ﷺ 3984
روزہ 3976
ہر@@ 3971
محمود 3968
ول@@ 3964
حوالہ 3962
کاری 3960
روز 3959
مت 3955
مہم 3955
اقبال 3944
پہنچ 3944
قدر 3940
بنگلہ 3939
اعزاز 3934
بل@@ 3933
دیش 3932
24 3926
بنے 3918
مسائل 3904
دا 3903
ویسٹ 3903
شریک 3902
ماں 3902
مجھے 3902
1,@@ 3900
اضلاع 3898
پورے 3886
نگ@@ 3885
الی 3880
جارجیا 3878
گر 3874
وری 3872
تسلیم 3868
21 3865
ب 3865
کیوں 3858
ماہ 3857
مکہ 3856
پردیش 3851
عددی 3850
بانی 3845
طویل 3844
ف 3832
قیادت 3832
22 3831
شہروں 3826
نبی 3817
بجائے 3814
ورلڈ 3813
ائ@@ 3810
جزیرہ 3805
جن@@ 3803
ایرانی 3793
ہسپانوی 3791
نیا 3787
واضح 3787
تقریبا 3780
ميں 3780
سردار 3779
پیر 3774
چاہیے 3774
پھ@@ 3771
ذمہ 3770
افریقہ 3767
ای 3766
امن 3759
قبیلہ 3758
23 3752
ٹیکساس 3752
لکھی 3751
عباس 3746
علوم 3746
ہندی 3738
لحاظ 3737
داری 3733
مس@@ 3729
نظاموں 3726
ئ@@ 3719
ٹر 3716
نگار 3712
آل 3711
شہری 3711
پولیس 3707
گو 3706
انتخاب 3703
پایا 3701
ۂ 3699
بلحاظ 3685
خلیفہ 3685
مقابلے 3683
والدہ 3680
مقبول 3676
آٹھ 3671
تحریر 3657
اینڈ 3655
ہائی 3655
نمایاں 3654
کینیڈا 3650
اہمیت 3648
انے 3644
ٹا 3643
فرسٹ 3642
یو@@ 3642
کتابیں 3641
جاپان 3638
وطن 3635
ملکی 3634
محفوظ 3631
جھ@@ 3627
علما 3620
توجہ 3614
ول 3611
اقوام 3608
یورپی 3605
پا 3603
رکھتا 3601
مضامین 3601
چلا 3599
شکار 3598
صوبے 3596
ِ@@ 3594
ریکارڈ 3593
مسیح 3593
وادی 3589
مطلب 3587
فلمی 3586
گروہ 3586
حکمران 3585
ڈگری 3575
رہیں 3569
ایشیا 3559
وسکونسن 3559
بہتر 3555
مقامات 3555
ابھی 3552
لڑائی 3552
صحیح 3549
County 3545
سک@@ 3545
مخصوص 3545
مختار 3544
بچے 3543
زی 3541
رے 3530
آتا 3528
گورنر 3528
پیمانے 3527
حقیقت 3526
تحقیق 3525
شیعہ 3523
ہمیشہ 3520
مہ@@ 3519
راج 3516
کردی 3508
گاہ 3508
زبانوں 3506
معاہدے 3506
ہجرت 3504
بنائی 3502
موسم 3498
بیٹا 3494
کلام 3493
2018 3492
ريلوے 3489
جسم 3485
ابراہیم 3482
اظہار 3482
یوسف 3481
مجموعہ 3473
کل@@ 3473
ماہر 3470
پو@@ 3466
چھوٹی 3465
اش@@ 3460
مار 3456
آتے 3455
وس@@ 3451
اسٹيشن 3446
پورا 3445
اوسط 3442
ضروری 3442
شہرت 3441
صحت 3435
اي@@ 3434
عمارت 3431
انکار 3430
ممتاز 3429
در 3427
بلے 3426
ذاتی 3416
معاہدہ 3416
الم@@ 3407
لائن 3399
پہاڑ 3399
یارک 3392
بن@@ 3389
نواب 3387
کنٹرول 3387
سمیت 3385
.@@ 3380
شی 3380
ي 3380
پیچھے 3376
معلومات 3375
چیز 3374
حیات 3372
26 3370
مختصر 3370
نتیجہ 3369
بال 3367
ات@@ 3364
گرد 3363
عیسوی 3361
قانونی 3361
طریقہ 3359
كے 3359
پروگرام 3359
ورجینیا 3345
مان@@ 3344
مبنی 3344
تباہ 3338
دولت 3337
شخصیت 3335
روڈ 3326
27 3325
زندہ 3324
پنجابی 3322
جنگی 3319
کا@@ 3317
اقتدار 3316
یونانی 3313
بیوی 3310
جہاز 3309
کہیں 3308
آیت 3304
اتی 3301
انقلاب 3300
کتابوں 3297
28 3295
e 3292
ثقافت 3288
باپ 3282
سارے 3282
واحد 3279
الی@@ 3274
ٹو@@ 3260
مل@@ 3256
وار 3253
توں 3247
نصف 3247
انعام 3243
کھیلے 3242
District 3238
نیز 3237
طالب 3232
وال@@ 3230
سعید 3228
دورہ 3226
عرصہ 3218
بینک 3216
شہید 3212
فیلڈ 3207
ذ@@ 3201
فر@@ 3200
نسب 3200
ریاستوں 3199
ٹو 3198
نگر 3195
سلسلے 3191
حافظ 3188
آواز 3187
لیک 3187
عرصے 3181
روانہ 3179
ایچ 3173
ملین 3169
بد@@ 3160
تصور 3159
طرز 3157
ملتا 3154
محکمہ 3152
اف@@ 3144
برس 3144
بیت 3140
جائیں 3137
چکا 3135
كي 3130
اوپر 3127
شرح 3127
لکھتے 3127
پروفیسر 3126
ست@@ 3124
بڑھ 3117
پہنچا 3117
مندرجہ 3114
کھیلا 3113
بر 3112
بننے 3108
وجود 3106
الحکومت 3101
عورت 3099
مطالعہ 3099
ں 3095
عبداللہ 3093
شرکت 3092
آر@@ 3091
منصوبہ 3083
ویب 3081
مرزا 3080
نیوزی 3075
فرماتے 3070
لنکا 3069
بھیجا 3068
نمائندگی 3054
ہمارے 3053
ع 3052
وکٹیں 3052
کمی 3051
ویل 3049
اداکار 3044
تلاش 3042
با 3039
روم 3038
از@@ 3037
سیزن 3035
مہ 3034
بخش 3033
سان 3033
نامہ 3030
معاشی 3029
اصطلاح 3025
پائے 3025
بیعت 3021
حصوں 3015
سربراہ 3014
پار@@ 3014
جاسکتا 3013
مال 3013
مدرسہ 3008
ابتدا 3006
سم@@ 3001
کون@@ 3000
دریافت 2998
انتظام 2997
ثقافتی 2997
ے@@ 2997
سامنا 2993
قبائل 2991
روایات 2989
50 2985
کہنا 2984
29 2983
3@@ 2980
نما 2980
نقصان 2978
استاد 2976
رین 2971
ہاں 2968
ہیپلو 2968
تخت 2966
مشترکہ 2964
شدید 2962
0 2961
تجارت 2961
خصوصی 2961
رہتا 2958
زائد 2956
سبب 2956
امریکہ 2955
2019 2952
الہ 2950
مرد 2950
آدمی 2948
اخبار 2944
روایتی 2942
اُ@@ 2940
ممکن 2940
چی 2933
بیس 2931
پارک 2931
عہدے 2925
سالوں 2924
ترتیب 2922
یل 2922
لگایا 2921
ئی 2918
عملی 2917
عثمان 2914
فقہ 2911
ازاں 2910
درس 2907
ادارے 2905
9@@ 2904
مجبور 2904
یر 2890
اکبر 2887
برقرار 2883
بیشتر 2882
کیرولائنا 2879
زور 2877
ویژن 2874
% 2868
تا@@ 2867
شہنشاہ 2863
قاضی 2863
ناکام 2859
عدالت 2856
نجی 2855
بدھ 2853
قید 2849
اگلے 2847
صوبائی 2846
اننگز 2845
شیر 2844
2013 2842
مضبوط 2841
گرفتار 2839
ؒ 2836
نس 2835
پیشہ 2834
خون 2831
مع@@ 2831
کمیونٹی 2831
کان@@ 2822
دوم 2821
خبر 2819
وے 2818
بلوچستان 2815
in 2814
ڑ 2813
تیز 2811
100 2806
کری@@ 2805
دار@@ 2802
باب 2800
کرکٹر 2800
رضا 2798
نظم 2797
جنسی 2792
کور@@ 2792
رہنما 2791
تجارتی 2789
model 2788
سٹ 2788
حل 2786
اعلی 2785
دہشت 2785
پہنچے 2782
چو@@ 2782
ns 2781
تعریف 2781
رکھ 2781
کمیٹی 2781
فضل 2778
ٹر@@ 2777
کنارے 2774
حالانکہ 2773
سٹی 2773
سل@@ 2772
ه@@ 2772
ژ@@ 2772
مخالف 2771
انٹرنیشنل 2768
ڈو 2768
format 2767
ئے 2766
بہار 2765
contributor 2764
timestamp 2764
مغل 2763
وابستہ 2763
بہ@@ 2761
کوڈ 2758
کوٹ 2756
فوجیوں 2753
ہاتھوں 2753
روں 2749
مش@@ 2743
13@@ 2742
راستے 2740
زمرہ 2737
موضوع 2736
‌ 2736
کانگریس 2734
بری@@ 2732
لکھے 2730
روشنی 2729
تفسیر 2726
ڈھ@@ 2719
نس@@ 2718
ہجری 2718
حکمرانی 2705
ڈا 2703
ملاقات 2702
راہ 2699
پورٹ 2699
کلی@@ 2698
مسوری 2695
نظریہ 2692
مستقل 2691
گل 2687
username 2686
طلبہ 2686
وس 2682
ملے 2679
بہن 2676
سرحد 2674
بنگال 2670
br 2669
نامزد 2669
فیض 2665
رکھتی 2661
راجا 2660
شعبہ 2660
دینا 2654
سابقہ 2652
-@@ 2649
گری@@ 2649
حیدرآباد 2648
عطا 2648
تبدیلی 2647
رضی 2642
باغ 2639
راست 2637
نیچے 2637
ٹری@@ 2636
میچوں 2629
نوازا 2629
برابر 2628
مح@@ 2628
ہوگئے 2628
نوں 2621
7@@ 2619
بحیرہ 2618
جنہیں 2618
اختتام 2616
بارہ 2613
پناہ 2612
دنوں 2611
اعداد 2606
8@@ 2602
اباد 2602
خیبر 2600
2@@ 2599
دینی 2596
اسٹ@@ 2592
نز 2589
یافتہ 2588
40 2587
وار@@ 2587
مبارک 2586
مشکل 2583
نسبت 2583
کرو 2583
انتظامی 2581
سزا 2581
منعقد 2581
پری@@ 2581
ڈو@@ 2579
طے 2571
بل 2569
ہوکر 2569
یمن 2569
وہی 2566
بری 2565
تعالیٰ 2564
دوست 2563
مر 2563
مزار 2563
میاں 2561
گیند 2560
میرا 2559
مد@@ 2558
خوش 2557
ساری 2557
بلدیہ 2555
جیت 2551
کان 2548
2018ء 2547
mtDNA 2546
امور 2546
مالی 2546
نزدیک 2544
است@@ 2543
فری@@ 2543
انگلستان 2542
آئین 2541
بالکل 2541
بنت 2540
نیٹ 2537
خطے 2536
کلب 2533
جھیل 2532
چک 2531
2,@@ 2530
سنی 2527
فلسطین 2527
تیں 2526
معمولی 2526
لہذا 2525
سلیمان 2523
مخالفت 2523
دفاع 2520
آتی 2516
2015 2515
اِ@@ 2515
مندر 2512
2013ء 2507
comment 2502
بورڈ 2501
وسط 2499
2014 2496
جان@@ 2492
6@@ 2491
ارکان 2491
تنقید 2491
محدود 2491
ند@@ 2491
شر@@ 2490
دیتی 2489
ملتان 2489
دعوت 2486
میڈیا 2485
جامع 2484
موسیٰ 2482
راستہ 2479
بازی 2478
تصنیف 2478
مدت 2475
حاضر 2473
لوک 2472
بیگم 2471
پرو@@ 2470
سپ@@ 2469
تھی@@ 2467
وکٹ 2466
دا@@ 2460
آبشار 2457
الزام 2456
بازار 2456
اداکاری 2455
پتہ 2451
اختلاف 2450
دفتر 2450
اشاعت 2449
سنت 2449
مون@@ 2442
اداروں 2441
کارکردگی 2440
مجلس 2439
سعد 2438
کریم 2437
حامل 2436
اوقات 2435
تشدد 2435
اصول 2432
لین 2431
مثلاً 2431
تیسری 2428
دیر 2427
مقدس 2427
جاپانی 2426
مت@@ 2426
سورج 2425
ملتی 2425
العلوم 2422
بحری 2422
شماری 2422
آن 2421
وزارت 2418
ٹھ@@ 2417
عبادت 2411
انگ@@ 2409
تعاون 2408
Gmina 2404
پابندی 2404
ات 2402
ساز 2402
مي@@ 2401
شن 2400
ذات 2396
شخصیات 2395
امی@@ 2393
حضور 2392
کون 2392
31 2390
کشی 2390
جنھوں 2387
اندازہ 2386
ذرائع 2386
اکثریت 2385
لقب 2384
اہ@@ 2382
پیداوار 2379
کمال 2378
شو@@ 2377
مضمون 2375
محسوس 2372
formula 2369
کثیر 2369
اعتبار 2365
فروغ 2364
لشکر 2364
منسلک 2364
مند 2359
چل 2355
کوریا 2352
قوت 2349
خطاب 2348
اقسام 2347
لگ 2345
نٹ 2345
مفتی 2344
مک@@ 2344
سکی 2343
بیرونی 2342
جیسی 2342
تخلیق 2339
سائٹ 2339
بزرگ 2338
فیصل 2335
ثانی 2334
وم@@ 2334
رہ@@ 2333
ري@@ 2331
حقیقی 2321
ولا 2320
شوہر 2318
كا 2316
2008 2315
نائب 2311
کرو@@ 2310
مطالبہ 2304
4@@ 2300
and 2300
رہتی 2299
parentid 2298
دشمن 2298
جزائر 2296
فکر 2296
سکھ 2295
اوائل 2294
ریاستی 2294
تذکرہ 2291
فرق 2291
ملازمت 2291
ووڈ 2291
ہوگی 2291
انگریزوں 2289
درخواست 2288
روک 2287
منٹ 2287
پور@@ 2285
مور@@ 2283
لال 2282
نيو 2281
آب 2279
ڈراما 2278
مردم 2276
نشان 2274
پہاڑی 2273
مسلسل 2271
تہذیب 2270
رقم 2269
انگ 2266
لائے 2266
دفعہ 2264
نک@@ 2263
ایئر 2262
گور@@ 2262
2012 2257
اج@@ 2257
علاقائی 2256
ڈن 2256
ریڈیو 2255
آذربائیجان 2253
شہادت 2253
منظور 2253
آگ 2246
قی@@ 2246
محض 2246
چلی 2246
آرمی 2245
تب 2245
لائ@@ 2244
لیں 2240
لوں 2239
تشریف 2238
والدین 2238
ونگ 2237
ہار@@ 2237
مقیم 2235
وَ@@ 2234
بابا 2233
2010 2232
عبد@@ 2232
ساحل 2231
5@@ 2229
خوبصورت 2227
غازی 2226
برو@@ 2225
باقاعدہ 2224
مان 2224
وو@@ 2224
تجویز 2223
سي@@ 2222
معاشرے 2219
سکا 2218
پشاور 2217
یقین 2214
ڑا 2208
بغداد 2207
عنوان 2206
آسٹریا 2204
لوٹ 2204
عدم 2201
ڈالر 2200
عثمانیہ 2196
وال 2194
آثار 2193
مسیحی 2193
اچھی 2189
معاملات 2189
پل 2188
تہ 2181
تیزی 2175
چیف 2175
زخمی 2174
اکیڈمی 2171
قدم 2171
َ@@ 2171
رد 2170
قبیلے 2170
ڈویژن 2169
2017 2168
انڈین 2168
طریقے 2168
یم 2168
روحانی 2167
کول@@ 2165
پزیر 2162
رہائش 2159
ماؤنٹ 2158
پال 2157
ستان 2156
سہ 2156
صحابہ 2156
2016 2155
آمد 2153
شناخت 2153
ہا 2153
تحفظ 2152
جارج 2148
سامان 2147
شو 2147
چاہتے 2147
ایئرپورٹ 2145
برا@@ 2142
تھ 2139
٪ 2136
صنعت 2134
سونے 2133
میونسپل 2133
ؤ 2129
بالا 2128
شہرستان 2127
شاید 2125
جلال 2124
شمولیت 2123
ریہ 2118
فروخت 2118
سب@@ 2117
نور@@ 2117
پتھر 2117
بخاری 2116
ڑ@@ 2116
الا 2115
لیتے 2111
خالد 2110
الح@@ 2108
نکل 2108
كي@@ 2106
آئیں 2104
دائیں 2104
نسلی 2104
صبح 2103
عمرو 2103
واپسی 2103
بدر 2102
پالیسی 2101
0ء 2097
ورک 2096
ہمیں 2096
دربار 2095
گجرات 2095
دیکھنے 2094
سالہ 2094
بورو 2092
کرا@@ 2090
اطلاع 2089
ایمان 2089
2011 2086
غالب 2085
نشانہ 2085
حرکت 2084
اتر 2082
ہزاروں 2081
فائدہ 2079
ہار 2076
ونی 2075
دارالحکومت 2073
اک 2070
رن 2069
بنو 2068
وان 2068
60 2063
رخ 2062
براہ 2061
بولی 2059
ٹورنامنٹ 2058
ڈیبیو 2058
2008ء 2056
x 2055
شاخ 2055
12@@ 2054
قیمت 2054
مج@@ 2054
نوجوان 2053
بالآخر 2050
الحق 2042
دوں 2037
سازی 2037
ح 2036
فارس 2036
رپورٹ 2034
موجودگی 2034
اسکور 2033
خصوصیات 2033
حروف 2032
سفید 2032
آہستہ 2030
بدل 2029
کے@@ 2028
الرحمن 2026
داخلہ 2026
سا@@ 2026
ض@@ 2024
یکم 2024
وي@@ 2022
4,@@ 2021
ٹاؤنشپ 2020
آؤٹ 2019
تصانیف 2018
برگ 2016
جعفر 2016
ساتھی 2015
غلط 2013
حفاظت 2011
بحر 2009
بچپن 2009
شان 2009
ملکہ 2008
سوال 2007
فلپائن 2007
مردوں 2007
ڈز 2006
ڈائریکٹر 2003
فائز 2000
ائی@@ 1999
ند 1999
وج@@ 1999
ہوگئی 1999
بحث 1997
افغان 1996
ہوگیا 1996
قدرتی 1995
مقدار 1995
کھانے 1995
سرزمین 1993
وفاقی 1993
ئ 1992
انڈیز 1992
متعارف 1992
نیویارک 1992
چہ 1992
ئی@@ 1989
خانے 1989
ممبئی 1989
جر@@ 1987
نوبل 1987
دستخط 1984
رس 1984
کوہ 1984
حج 1983
رفتار 1981
سٹی@@ 1981
مجھ 1981
میکسیکو 1981
جدوجہد 1980
لان@@ 1980
ڈکوٹا 1979
بي@@ 1978
مسیسپی 1977
سمجھتے 1976
خی@@ 1974
سلیم 1973
آئرلینڈ 1972
وہیں 1972
مسلح 1970
پاشا 1970
اسماعیل 1969
اثرات 1968
یہودیوں 1968
اتفاق 1967
بلوچ 1967
خواہش 1967
بکر 1966
دراصل 1966
فو@@ 1965
ماؤنٹین 1965
چرچ 1964
کہہ 1964
شعر 1963
علاج 1962
کپتان 1960
2ء 1959
3,@@ 1959
پہ 1957
بس 1956
وڈ 1954
ڑی 1954
ندی 1953
قہ 1952
یک 1951
سربراہی 1950
قوانین 1950
دورے 1949
تیسرے 1948
رسم 1947
صلاحیت 1947
حملوں 1946
ارا 1945
خاتمہ 1945
اق@@ 1944
مسئلہ 1944
ثبوت 1943
3ء 1941
بہادر 1940
جنس 1938
لي@@ 1937
کمیشن 1936
البتہ 1935
اتنا 1934
منصوبے 1934
الس@@ 1930
ڈال 1929
برصغیر 1928
لایا 1926
شمس 1925
وت@@ 1924
18@@ 1921
2020 1921
غور 1921
متعلقہ 1917
کینٹکی 1917
جانوروں 1916
وب@@ 1916
الع@@ 1915
کولمبیا 1915
انی@@ 1911
دل@@ 1910
کربلا 1910
الب@@ 1909
de 1908
تصویر 1908
خاتمے 1908
قبرص 1908
احادیث 1907
نڈ 1907
بو 1903
ہائے 1901
اسرائیلی 1898
الجزائر 1894
آپریشن 1893
صوفی 1891
ماہرین 1891
مق@@ 1891
کوفہ 1888
سندھی 1887
2009 1886
تکمیل 1885
خ 1881
کرلی 1880
ث@@ 1879
مُ@@ 1879
پختونخوا 1879
پوچھا 1878
پیرس 1878
ڈر 1878
کہ@@ 1877
لاس 1876
ئر 1875
نگرانی 1875
روح 1873
کرایا 1870
ورا 1868
ہل 1868
رب@@ 1867
کارروائی 1867
انگریز 1866
حصول 1864
ـ 1864
مارشل 1862
1ء 1861
2007 1861
مال@@ 1861
کرام 1858
طلب 1857
نیپال 1857
عورتوں 1855
خوف 1854
اَ@@ 1853
دلچسپی 1850
ّ@@ 1850
80 1849
کمپیوٹر 1849
2019ء 1848
ہتھیار 1848
عمران 1847
سالانہ 1846
لان 1845
تاج 1844
ص 1844
منہ 1844
جیل 1843
فاطمہ 1841
لز 1841
قطب 1840
کانفرنس 1840
عرض 1839
14@@ 1838
تیاری 1837
صفحات 1837
تیل 1834
ضد 1834
دفن 1831
گرم 1831
نڈ@@ 1828
یاں 1827
خوب 1825
کام@@ 1825
دعا 1823
اتنی 1821
اشارہ 1820
پیک 1820
5ء 1817
انسٹی 1817
ماضی 1815
پرست 1815
مواد 1814
اٹلی 1813
معیشت 1813
آرکنساس 1812
سرخ 1811
مولوی 1811
ہٹ 1810
فاصلے 1809
پے 1809
کور 1808
ٹے 1806
عنہ 1804
دیوی 1802
بیماری 1801
کاروبار 1801
خارجہ 1800
درست 1799
سوانح 1799
فورڈ 1797
منظم 1796
ٰ 1796
دیو 1795
سینٹر 1794
ٹیکنالوجی 1793
ولی@@ 1791
عزیز 1789
لر 1789
سائنسی 1788
مرتب 1788
4ء 1786
بائیں 1786
عائد 1784
چے 1784
ماحول 1781
6ء 1779
ٹیوٹ 1779
نیبراسکا 1778
200 1777
فرار 1777
اجلاس 1776
چاہتا 1776
یزید 1776
نظریات 1774
رکھے 1773
ك 1773
خاں 1771
La 1770
صاف 1770
پرستی 1770
ئن 1769
لکھنے 1766
ونا 1766
چلتا 1766
مہاراشٹر 1765
سنگ 1764
70 1763
تصدیق 1763
جانی 1763
دستیاب 1763
عروج 1762
قریبی 1761
گیت 1759
رانی 1758
لکھنؤ 1758
15@@ 1757
اح@@ 1757
سرمایہ 1756
قی 1756
وف@@ 1755
کش 1755
غزل 1754
قبضے 1754
ء@@ 1753
ہنگری 1752
اسٹیٹ 1751
انتظامیہ 1751
حاجی 1751
تفصیل 1750
جزیرے 1749
معاویہ 1748
بلا 1747
ریڈ 1747
ہمراہ 1747
وم 1744
خفیہ 1741
ووٹ 1740
آس 1739
ُ@@ 1739
رس@@ 1738
انہی 1735
تیس 1735
رز 1734
سان@@ 1734
کورٹ 1734
کس@@ 1733
35 1732
اص@@ 1732
لگی 1731
عہدہ 1729
حرارت 1727
ى 1727
بجلی 1726
10@@ 1725
ائیں 1725
قاسم 1725
ڈبلیو 1722
اری@@ 1720
ساؤتھ 1720
معاشرتی 1720
آلہ 1718
کال@@ 1717
نقطہ 1716
کھا 1716
اساتذہ 1715
حی@@ 1714
شہریوں 1714
یونان 1714
پرا@@ 1713
ادی 1712
ایسوسی 1712
سار@@ 1712
باشندوں 1711
مارٹن 1711
منسوب 1708
توانائی 1707
وف 1707
16@@ 1706
رومی 1706
مسعود 1704
احتجاج 1703
ایسٹ 1703
لڑکی 1703
دادا 1701
روپے 1701
8ء 1700
انصاف 1700
متحرک 1700
انوں 1699
انیس 1699
نامور 1698
اسلامیہ 1697
ایشن 1696
وو 1696
الق@@ 1694
سربیا 1694
2015ء 1693
زہ 1693
برادری 1692
فلوریڈا 1691
وضاحت 1691
2006 1690
نگاری 1690
پڑے 1690
احساس 1689
نواز 1689
جیتا 1687
موضوعات 1686
2021 1685
امداد 1685
ایا 1685
لباس 1685
لن 1685
بیچ 1684
کھانا 1684
گاندھی 1684
انتخابی 1682
کہلاتا 1682
2016ء 1681
بال@@ 1680
روشن 1678
طالبان 1676
دروازہ 1674
سند 1673
گانے 1673
سنچری 1672
نتائج 1671
ایڈ@@ 1669
لیس 1669
1.@@ 1668
مست@@ 1668
چاند 1666
ہری 1666
وقوع 1664
کائنات 1664
پارلیمنٹ 1662
اٹ@@ 1661
وین 1661
ملنے 1659
نار@@ 1658
لانے 1657
کنگ 1657
الج@@ 1656
اہتمام 1656
نام@@ 1656
ایشیائی 1655
کھیلی 1654
سلوک 1652
آنحضرتﷺ 1650
مصروف 1650
مظاہرہ 1647
2014ء 1646
آئ@@ 1645
حمل 1645
مستقبل 1645
خطرہ 1643
5,@@ 1642
قلعے 1641
كو@@ 1641
کھیلنے 1641
اہ 1640
تھائی 1640
فرائض 1639
مز@@ 1639
وائٹ 1639
سروس 1638
تدریس 1636
حیدر 1635
روکنے 1635
قائد 1635
نٹ@@ 1635
ریلویز 1634
کروڑ 1634
کھلاڑیوں 1633
ؤ@@ 1632
تن@@ 1631
جرسی 1629
گرو@@ 1629
زبردست 1627
صحافی 1626
خیر 1624
ہسپتال 1624
بور@@ 1623
یار 1622
سڑک 1621
معیار 1621
پھیل 1621
گھروں 1621
9ء 1620
کمزور 1620
ریلیز 1619
محافظہ 1619
مَ@@ 1619
​ 1618
7ء 1617
آنحضرت 1617
برج 1616
جنم 1615
ملتے 1615
مٹی 1615
دکھائی 1614
abad 1612
توسیع 1612
ہال 1612
فورس 1611
ادیب 1610
کھیلوں 1610
گردی 1610
ابہام 1609
ﯽ 1609
ظ@@ 1608
گفتگو 1608
گنج 1608
عہ 1607
مہدی 1607
اسد 1605
درد 1604
ادی@@ 1603
دباؤ 1603
کلو 1602
گا@@ 1601
نر 1600
امر 1599
قبرستان 1597
وق@@ 1597
زر@@ 1596
طب 1596
بھیج 1594
راولپنڈی 1593
سیاہ 1593
ویلز 1592
کمیونسٹ 1592
باری 1591
خلیج 1591
سلام 1590
جیکسن 1589
ایوان 1588
بالی 1587
وائ@@ 1587
نکال 1586
منی 1584
ارہ 1582
خواب 1582
کین 1582
اع@@ 1581
طبی 1581
اشعار 1580
تجربہ 1580
آبائی 1578
زید 1578
کمانڈر 1578
شوق 1576
ڈالا 1576
گلی@@ 1576
تِ 1574
شے 1574
ﺎ@@ 1574
کھڑے 1573
تھیٹر 1572
درجے 1571
جناب 1570
حکمت 1570
مناسب 1570
2017ء 1569
ه 1569
2000 1568
شعبے 1568
دم 1567
غریب 1567
500 1566
زبانیں 1565
عقائد 1564
موں 1564
رشتہ 1563
لینا 1563
ين@@ 1562
0@@ 1561
خاطر 1561
اندرونی 1559
قول 1559
ماڈل 1559
کاروں 1559
رجوع 1558
صادق 1558
ین@@ 1557
برٹش 1556
بھاری 1556
درخت 1556
عامر 1556
ریل 1554
پہلو 1553
سوار 1552
عین 1552
کرلیا 1552
خراسان 1551
نافذ 1551
مائ@@ 1550
خیل 1549
گرین 1548
یات 1548
جمال 1547
ظلم 1546
حزب 1544
فل@@ 1544
ائي 1543
دیکھتے 1543
عی@@ 1543
فرد 1542
مہارت 1541
گورنمنٹ 1541
قر@@ 1539
آسان 1537
عموماً 1537
مب@@ 1534
جموں 1533
پندرہ 1532
ہماری 1532
45 1531
کوششوں 1531
اخ@@ 1528
برعکس 1528
اختر 1527
الاباما 1527
زوال 1527
سرگرمیوں 1527
2.@@ 1526
دروازے 1526
عباسی 1525
مارے 1525
یادگار 1525
حکام 1524
شمالي 1524
ؔ 1523
شا 1523
یوم 1523
گھریلو 1521
6,@@ 1520
الت@@ 1520
ني@@ 1518
2011ء 1517
آیات 1515
اد 1515
کٹ 1515
ائیر 1514
بلا@@ 1514
ہاؤس 1514
مارا 1513
ٹوئنٹی 1513
پي@@ 1513
چچا 1512
Z 1511
بولنے 1510
پہنچنے 1510
جا@@ 1509
شریعت 1509
شہزادہ 1509
اسم 1507
کابل 1506
انجمن 1505
بلی@@ 1505
حدود 1505
صدیوں 1504
20@@ 1503
کرنسی 1503
فلمیں 1501
اصلاح 1499
اول@@ 1499
جین 1499
دعویٰ 1498
فارم 1498
اردن 1497
بک 1497
گار@@ 1497
کہنے 1496
سائ@@ 1495
مزاحمت 1495
سال@@ 1493
انقلابی 1492
بند@@ 1492
تمہارے 1492
چر 1492
اتے 1491
حبیب 1491
حکیم 1491
الله 1489
ين 1489
ڑے 1489
فلسفہ 1488
سکول 1487
مراکش 1487
جائزہ 1486
صحابی 1486
پرانے 1486
اقدامات 1485
لي 1484
مصری 1483
چار@@ 1483
جانور 1481
سیرت 1481
سکیں 1480
وک 1480
+ 1479
اسحاق 1479
اپ 1479
بلغاریہ 1479
بھی@@ 1479
تینوں 1479
جہاد 1478
17@@ 1477
اورا@@ 1477
صوبوں 1477
دہی 1476
بشمول 1475
ناتھ 1475
نادر 1475
ارشاد 1474
مجید 1474
نج@@ 1474
تمل 1473
ریاضی 1473
معاون 1473
کاموں 1473
کوچ 1473
بیگ 1470
مہینے 1470
سام@@ 1468
میک 1468
راؤ 1466
ناک 1466
اعتماد 1465
حاکم 1465
واں 1465
دہ@@ 1464
ناصر 1464
نشر 1464
ٰ@@ 1463
سوسائٹی 1462
مص@@ 1461
نیم 1460
کیوبک 1460
کولوراڈو 1459
wiki 1458
استنبول 1458
90 1457
سنسکرت 1456
ٹل 1454
فرمائی 1453
يہ 1453
گل@@ 1453
حر@@ 1452
لينڈ 1452
امید 1450
انڈونیشیا 1450
جسمانی 1449
text 1448
تحقیقی 1448
رون 1448
فار@@ 1446
گیارہ 1446
رسائی 1445
عشق 1445
افسر 1444
فائنل 1444
فرزند 1444
فیصلے 1443
ود 1442
کش@@ 1442
سکندر 1441
نیوز 1440
سين 1439
آسٹریلوی 1438
افریقی 1437
سلی@@ 1437
وکٹوریہ 1437
راس 1435
قبر 1434
تیسرا 1433
خیالات 1433
اصلاحات 1432
حکمرانوں 1432
محنت 1432
مشن 1432
مقاصد 1432
شاندار 1431
عائشہ 1431
1,0@@ 1428
رہنماؤں 1428
قلم 1428
Rural 1427
اسکواڈ 1427
رب 1427
کلا@@ 1427
بیک 1426
شاگرد 1426
پیغام 1426
اکرم 1425
سمجھ 1425
ولیم 1425
پڑھنے 1425
کمار 1425
بِ@@ 1424
نہ@@ 1423
2005 1422
رومانیہ 1422
غرض 1422
نوٹ 1422
بمطابق 1421
نک 1421
يا 1421
کامل 1421
فون 1420
ممکنہ 1420
حساب 1419
اوریگون 1418
رواج 1418
دعوی 1417
ارادہ 1415
سپر 1415
انڈيانا 1413
چر@@ 1413
امیدوار 1412
عزت 1411
سہ@@ 1410
سیر 1410
فرقہ 1410
گان 1410
لائی 1409
لس 1409
محلہ 1408
مہر 1408
جانشین 1407
زا 1407
تعارف 1406
ہیمپشائر 1405
2009ء 1404
شا@@ 1404
وز@@ 1404
ٹینیسی 1404
معاملہ 1403
توڑ 1402
اصحاب 1399
جناح 1399
امتحان 1398
اِن 1397
شاہ@@ 1397
باضابطہ 1396
32 1395
سون@@ 1394
نازل 1394
حوصلہ 1393
محدث 1393
2004 1392
وزن 1392
زیارت 1391
کٹ@@ 1391
رَ@@ 1389
سول 1389
امین 1387
گروہوں 1387
آندھرا 1386
فوری 1386
2012ء 1384
revision 1384
اعتراف 1383
اتا 1382
لکھ 1382
33 1381
wikitext 1381
داس 1381
معاملے 1381
نش@@ 1380
نارتھ 1379
بم 1378
چلنے 1378
ڈیل 1378
3.@@ 1377
پن 1377
یہود 1376
داؤد 1375
سکور 1375
صدیق 1375
1990 1374
اطالوی 1374
ط 1374
لکھ@@ 1374
ٹری 1374
تبلیغ 1373
مقدمہ 1373
ناقابل 1372
پہاڑوں 1372
تقریب 1371
ﻣ@@ 1371
داروں 1370
اؤں 1369
خطوط 1369
شدت 1369
گوئی 1369
رائ@@ 1368
ڈرامے 1367
اوہائيو 1366
علماء 1366
قادری 1366
داد 1365
ارب 1364
دیوار 1364
پیپلز 1363
چا 1362
رقص 1361
کرم 1361
کوم@@ 1361
اچھا 1360
پرورش 1360
اسٹی@@ 1357
عراقی 1357
2020ء 1356
قریش 1356
پڑی 1356
بلدیات 1354
پیری 1354
2007ء 1352
زراعت 1352
تصوف 1351
بان@@ 1350
زر 1350
ندر 1349
اروں 1348
بھگ 1348
پڑتا 1348
اؤ 1347
2010ء 1346
کارکن 1346
27@@ 1345
شرف 1345
T@@ 1344
پانچویں 1344
‎ 1344
300 1343
دي@@ 1343
عبرانی 1343
َ 1343
خاندانی 1341
شک 1341
صنعتی 1341
مساوات 1341
الو@@ 1339
اون@@ 1339
منافع 1339
بنگالی 1338
جرم 1338
عم@@ 1338
مس 1338
پشتو 1338
مداخلت 1337
مشورہ 1337
منصور 1337
گون@@ 1337
ہوگئیں 1337
عبور 1332
لگتا 1332
انصاری 1331
مکان 1331
ڈیزائن 1331
گھنٹے 1331
23@@ 1330
ye 1330
4.@@ 1329
مذاہب 1329
5.@@ 1328
دری 1327
امت 1326
جنت 1326
بوسنیا 1325
township 1324
پار 1324
پریس 1324
کیفیت 1324
زار 1323
اچھے 1321
غزوہ 1321
نبوی 1321
پا@@ 1320
چارلس 1320
گری 1320
ہارون 1320
کروں 1319
ﻮ@@ 1319
نز@@ 1318
ائن 1317
سوی@@ 1317
کوں 1317
انور 1316
انڈ@@ 1316
تم@@ 1316
ملکیت 1316
a 1315
عل@@ 1315
نکاح 1315
بڑھا 1314
ترا@@ 1314
تہران 1314
رک 1314
نیک 1314
مو 1313
36 1312
امارات 1312
حامی 1312
سٹن 1311
وصول 1311
34 1310
ممبر 1309
1@@ 1308
بچ 1308
مول@@ 1308
6.@@ 1307
الن@@ 1307
تار@@ 1307
روزنامہ 1307
دائرہ 1306
ؤں 1305
اك@@ 1305
مونٹانا 1305
گنی 1305
30@@ 1304
وسائل 1304
اٹھایا 1303
* 1302
28@@ 1301
اسٹیڈیم 1301
ریاستیں 1301
مرحوم 1301
فرما 1299
کھو 1299
گھرانے 1299
اقتصادی 1298
کاروباری 1298
زئی 1297
میہ 1297
7,@@ 1296
زون 1296
مری 1296
گرو 1296
1947ء 1295
الينوائے 1295
فہ 1295
ناموں 1295
لَ@@ 1294
آکر 1293
نے@@ 1293
ست 1292
لار@@ 1292
لبنان 1292
جنگل 1290
ساتھیوں 1289
لن@@ 1289
چندر 1289
گوشت 1289
ایل@@ 1287
سادہ 1287
شراکت 1287
عمان 1287
مرض 1287
s 1286
دیہی 1286
ماسٹر 1286
پرچم 1284
سور@@ 1283
عمومی 1283
نوعیت 1283
چالیس 1283
آور 1282
رومن 1282
پرانی 1281
2006ء 1280
اتحادی 1280
سسٹم 1280
كر@@ 1280
ُ 1280
29@@ 1279
مقبرہ 1279
اخلاق 1278
الحسن 1277
باب@@ 1277
پن@@ 1277
پہچان 1277
خراب 1276
سبھا 1276
ماسکو 1276
یقینی 1276
وفد 1275
ٹوں 1275
ہیڈ 1275
خالی 1274
مقبولیت 1274
الف 1273
الف@@ 1273
بحریہ 1273
شائر 1273
فَ@@ 1273
نشین 1271
دمشق 1270
سنا 1270
مانی 1270
بھائیوں 1269
انس@@ 1268
فضائی 1268
امتیاز 1267
امی 1267
برازیل 1267
برقی 1267
رحمہ 1267
پریفیکچر 1267
چاندی 1267
کنیت 1267
کیسے 1267
The 1266
آرٹ 1266
اعزازات 1266
شعرا 1265
ران 1264
طبیعیات 1264
قابو 1263
نر@@ 1262
چینل 1259
فا@@ 1258
پانے 1258
75 1256
دور@@ 1256
مین@@ 1256
تباہی 1255
دکھایا 1255
ویل@@ 1255
چوتھی 1255
کثرت 1254
گرام 1254
گیس 1254
آسانی 1253
اسک@@ 1251
بڑھتی 1251
گن@@ 1251
بائی 1250
گرا@@ 1250
آدم 1249
ترمیم 1249
ماتحت 1249
میڈیکل 1249
کئے 1249
آغا 1248
تش@@ 1248
محاصرہ 1248
وآلہ 1247
یحییٰ 1247
زے 1246
پھی@@ 1246
پیغمبر 1246
رائج 1245
پول@@ 1245
انسانوں 1244
بلیک 1243
دکن 1243
زن 1243
آپس 1242
ازبکستان 1242
جیمز 1242
ضرور 1242
لم 1242
ہند@@ 1242
جمہوری 1241
ڈیم 1241
بچہ 1240
رمضان 1238
مانا 1237
پڑھا 1237
آمدنی 1236
خوشی 1236
کریک 1236
بستی 1235
26@@ 1234
بد 1233
دست 1233
پچاس 1233
گناہ 1233
ہوجاتا 1230
سفیر 1228
شور 1228
وعدہ 1228
یہیں 1228
احترام 1227
عناصر 1227
علمائے 1226
ملا@@ 1226
ٹرز 1226
عقیدہ 1225
مے 1225
نبوت 1225
55 1224
برف 1224
نمائش 1224
بت 1222
سیف 1222
زرعی 1221
گول 1221
38 1220
افریقا 1220
فارغ 1220
فوجوں 1220
مواقع 1220
2003 1218
بازو 1217
جہلم 1217
فر 1217
مسترد 1217
مینار 1217
ٹیکس 1217
2004ء 1216
وجوہات 1216
جنوبي 1215
خطہ 1215
رسالہ 1215
ڈر@@ 1215
الاسلام 1214
جوہر 1214
مستحکم 1214
بھٹو 1213
تَ@@ 1213
انٹرنیٹ 1212
روابط 1212
ٹک 1212
سوا 1211
سپرد 1211
ریس 1210
ویلی 1210
انانکارپوریٹڈ 1208
دودھ 1208
دہلوی 1207
سمت 1206
خو@@ 1205
مجمع 1203
42 1202
اوکلاہوما 1202
یون@@ 1202
بچ@@ 1201
تقریر 1201
رکھنا 1200
عَ@@ 1200
شب 1199
منفرد 1199
کھڑا 1199
بندرگاہ 1198
تنظیموں 1198
یس 1198
سکھوں 1196
ویڈیو 1196
بھاگ 1195
تنازع 1195
ظفر 1195
جنگوں 1194
وت 1194
چن 1194
رحمت 1193
منزل 1193
پارلیمان 1193
آسمان 1192
اشیاء 1192
سوم 1192
سے@@ 1192
یے 1192
بحال 1191
دوسروں 1191
وان@@ 1191
7.@@ 1190
خصوصیت 1190
دیکھیے 1190
اٹھا 1189
تحقیقات 1189
سُ@@ 1189
گائے 1189
حکومتی 1187
کلاسیکی 1187
اسپین 1186
ڈیرہ 1186
an 1185
اف 1185
بادشاہت 1185
رسوخ 1185
فوراً 1185
معیاری 1185
بارش 1184
دیوان 1184
طاقتور 1184
8.@@ 1183
سرگرم 1182
مرا@@ 1182
ایوب 1181
باہمی 1181
معین 1181
ؑ 1180
ایڈیشن 1180
بیرون 1180
رابطہ 1180
8,@@ 1179
37 1178
جانتے 1178
فاتح 1178
پوسٹ 1178
بحالی 1176
نان 1175
یروشلم 1175
کہتا 1174
متن 1173
غم 1172
ہا@@ 1172
ﺑ@@ 1172
خان@@ 1171
عالیہ 1171
پڑھ 1171
ادائیگی 1170
جار@@ 1168
مساجد 1168
وسی 1168
ملکوں 1166
بح@@ 1165
بصرہ 1165
بنانا 1165
دیوبند 1165
سلا@@ 1165
سماج 1165
مورخین 1165
تعلیمات 1164
یوکرین 1164
1990ء 1163
افسانہ 1163
محبوب 1162
ہسپانیہ 1161
2002 1159
پہنچی 1158
کابینہ 1157
تصاویر 1156
فعال 1156
سور 1155
وصال 1155
ٰی 1155
فعل 1154
لکڑی 1154
لگ@@ 1154
اولین 1153
راضی 1153
وش@@ 1152
لائبریری 1151
نق@@ 1151
ولا@@ 1151
2005ء 1150
راج@@ 1150
فری 1150
لڑکے 1150
چودہ 1150
شامی 1149
آب@@ 1148
عصر 1148
لڑکیوں 1148
پاكستان 1148
جغرافیائی 1147
لڑنے 1147
اخذ 1146
تور@@ 1146
جاوید 1146
خواہ 1146
داستان 1146
پلا@@ 1146
1980 1145
اٹھ@@ 1145
مرکوز 1145
پھول 1144
فراہمی 1143
تع@@ 1142
حیرت 1142
پڑ 1142
چکوال 1142
کری 1142
الملک 1141
محاذ 1141
اشرف 1140
صدارتی 1140
قرض 1140
متبادل 1140
24@@ 1139
نشست 1139
چیئرمین 1139
کاس@@ 1139
شار@@ 1137
ماس@@ 1136
گاڑی 1136
بیٹنگ 1135
کاؤنٹیاں 1135
سفیان 1134
عی 1134
فرو@@ 1134
چیت 1134
شہ@@ 1133
صدیقی 1133
طلاق 1133
47 1132
65 1131
وری@@ 1131
گنا 1131
ائمہ 1130
تنگ 1130
جذبات 1130
جل@@ 1130
سنیما 1130
عارضی 1130
رضوی 1129
44 1128
بحرین 1128
لیتا 1128
مشرف 1128
وز 1128
پسندوں 1128
کھی@@ 1128
زیریں 1127
قطر 1127
بون@@ 1126
ربیع 1126
قبائلی 1126
نیل 1126
جگ@@ 1125
تس@@ 1124
راجہ 1124
سعود 1124
منایا 1124
باتیں 1123
عربوں 1123
أَ@@ 1122
بیل 1122
روی 1122
مہیا 1122
کالم 1122
میر@@ 1121
ایکٹ 1120
تنازعات 1120
منصب 1120
منفی 1120
48 1119
52 1119
سلم 1119
شراب 1118
فخر 1118
ﺍ@@ 1118
خشک 1117
موسی 1117
بان 1116
جمعہ 1116
طریقوں 1116
ٹوٹ 1116
حالیہ 1114
ہوجاتی 1114
اٹک 1113
جوہری 1113
ملائیشیا 1112
9,@@ 1111
9.@@ 1111
جوش 1111
فرض 1110
لِ@@ 1110
لگانے 1110
نوا@@ 1110
عمدہ 1109
ومی 1109
39 1108
ڈچ 1108
کپور 1107
گار 1107
پیار 1106
ہیرو 1106
41 1105
آتش 1105
اتحادیوں 1105
محروم 1104
مور 1104
کروایا 1104
گیم 1104
اڈے 1103
زم 1103
0.@@ 1102
زي@@ 1102
فرا@@ 1102
مہاجرین 1102
نکلا 1102
ویتنام 1102
اخبارات 1101
اسلحہ 1101
خاک 1101
خوراک 1101
عقیدت 1101
ہوا@@ 1101
راوی 1100
مشي 1100
ونی@@ 1100
ڈین 1100
فور@@ 1099
پھانسی 1099
حسب 1098
پردہ 1098
بائبل 1097
کوس@@ 1097
دانوں 1095
43 1094
سرور 1094
آرٹس 1093
بہاؤ 1093
تہوار 1093
فوت 1093
لنگ 1093
بمبئی 1092
جنازہ 1092
واٹر 1090
2021ء 1089
واقعے 1089
سمندری 1088
العزیز 1087
خارج 1087
شہ 1087
عبید 1087
وائرس 1087
تیرہ 1086
چاروں 1086
58 1085
الخ@@ 1085
ناٹ 1085
ٹاونشپ 1085
آئینی 1084
بھرپور 1084
علیحدگی 1084
ود@@ 1084
ڈالی 1084
برداشت 1083
برسوں 1083
بٹ 1083
ساتویں 1083
ظاہری 1083
اُسے 1082
جماعتوں 1082
شمسی 1082
فنون 1082
سورت 1081
عسکری 1081
لازمی 1081
پوزیشن 1081
ﺟ@@ 1081
دفاعی 1080
ریت 1080
شن@@ 1080
گلی 1080
حرام 1079
رحمۃ 1079
34@@ 1078
بول@@ 1078
سہولت 1078
تعینات 1077
نعت 1077
شاہراہ 1075
صالح 1075
آلات 1074
اختیارات 1074
ث 1074
مارکیٹ 1074
میوزک 1074
400 1073
منورہ 1073
بحران 1072
ٹي 1072
پان@@ 1072
ڈالنے 1072
احکام 1071
اني 1071
بت@@ 1071
سرے 1071
مپ@@ 1071
گلوکار 1071
ائر 1070
آنکھوں 1069
ریجنل 1069
گزر 1069
ایک@@ 1068
جگہوں 1068
زین 1068
فائ@@ 1068
منظوری 1068
گویا 1068
شاہد 1067
عبدالرحمن 1067
عیسائی 1067
وقف 1067
انت@@ 1066
سوچ 1066
ابشار 1065
بادشاہوں 1065
ناروے 1065
کیمپ 1065
کیو 1065
ایجاد 1064
گرامی 1064
46 1063
سین@@ 1063
ماخذ 1063
نمونہ 1063
پنسلوانيا 1063
1945 1062
حارث 1062
حضرات 1062
سولہ 1062
سٹر 1062
کالونی 1062
صوبهٔ 1061
وہ@@ 1061
2001 1060
محقق 1060
دلیل 1059
پھیلا 1059
صی@@ 1058
طبقے 1058
القرآن 1057
مقابلوں 1057
85 1056
دراز 1056
چیک 1056
33@@ 1055
54 1055
اخلاقی 1055
انِ 1055
ایوارڈز 1054
ایڈیٹر 1053
باشندے 1053
خانقاہ 1053
57 1052
جہ@@ 1052
میوزیم 1052
آصف 1051
ئي 1051
مخ@@ 1051
یعقوب 1051
محرم 1050
ﺳ@@ 1050
سك@@ 1049
ظہور 1049
عجائب 1049
مِ@@ 1049
جرائم 1048
جہازوں 1048
کیلئے 1048
بجے 1047
نسخہ 1046
ٹائ@@ 1046
گاوں 1046
نژاد 1045
جم@@ 1044
کپڑے 1044
پلی@@ 1043
گانا 1043
مفہوم 1042
روپ 1041
سادات 1041
عمر@@ 1041
ہفتہ 1041
الے 1039
خرچ 1039
ریوں 1039
قط@@ 1039
مصنفین 1039
چیزوں 1039
صلح 1038
چاہے 1037
95 1036
ھی 1036
ﺎ 1036
2000ء 1035
جوان 1035
مک 1035
ﻧ@@ 1035
الک@@ 1034
گھوڑے 1034
ref 1033
ریا 1033
في 1033
عبدالعزیز 1032
عصمت 1032
مبتلا 1032
مثبت 1032
پون@@ 1032
پیروی 1032
آفس 1030
ران@@ 1030
رُ@@ 1030
صحافت 1030
جیتنے 1029
رجحان 1029
مادہ 1029
پک@@ 1029
2002ء 1028
انو 1028
بَ@@ 1028
تنازعہ 1028
مراکز 1028
مڈل 1028
وبا 1028
فیروز 1027
مریم 1027
پہ@@ 1026
ارد 1025
شرائط 1025
فطرت 1025
پٹ@@ 1025
ءمیں 1024
زو@@ 1024
عمرؓ 1024
آرمینیائی 1023
ورانہ 1023
بول 1022
سارا 1022
سي 1022
ڈری@@ 1021
انعقاد 1020
راک 1020
سوں 1020
لڑی 1020
کُ@@ 1020
1980ء 1019
کم@@ 1019
ائیوں 1018
تجزیہ 1018
تہ@@ 1018
ریاض 1018
فرمان 1018
مشکلات 1018
مظفر 1018
ٹرافی 1018
ٹنگ 1018
گراؤنڈ 1018
اما 1017
تالیف 1017
سپریم 1017
ماد@@ 1017
ارے 1016
خر@@ 1016
محیط 1016
کاشت 1016
ﯿ@@ 1016
انس 1015
تری@@ 1015
طاقتوں 1015
فار 1015
میساچوسٹس 1015
گریجویشن 1015
انگلش 1014
سویڈن 1014
مون 1014
سپی@@ 1013
ائل 1012
ابوبکر 1012
دلی 1012
سلو@@ 1012
مذکورہ 1012
کوئٹہ 1012
لائنز 1011
کیپ 1011
فلسطینی 1010
تازہ 1009
خاندانوں 1009
ستی 1009
قاری 1009
يو@@ 1009
53 1008
سنچریاں 1008
شری 1008
علی@@ 1008
کرناٹک 1008
کرنل 1008
فاؤنڈیشن 1007
منڈی 1007
نجات 1007
امکان 1006
بلی 1006
کیتھولک 1006
ہول@@ 1006
ہوم 1006
یار@@ 1006
الص@@ 1005
پروڈیوسر 1005
49 1004
ئم 1004
بون 1004
حرف 1004
انڈر 1003
eh 1002
دری@@ 1002
61 1001
انیسویں 1001
تن 1001
... 1000
سبز 1000
to 999
المعروف 999
پسندی 999
کرداروں 999
ایجنسی 997
تک@@ 997
ورا@@ 997
کلکتہ 997
استفادہ 996
ترجیح 996
سینئر 996
قصبے 996
مشاہدہ 996
منگ 996
مينيسوٹا 996
56 995
وٹ 995
اط@@ 994
پیٹ 994
کویت 994
اطراف 993
تیمور 993
جہانگیر 993
راجپوت 993
شعبوں 993
2001ء 992
عوض 992
ہان 992
افسران 991
انگیز 991
رہنمائی 991
سک 991
صلاحیتوں 991
25@@ 990
اقدام 990
مخدوم 990
پل@@ 990
72 989
شعری 989
صفحہ 988
وقار 988
علاحدہ 987
ّ 986
تبادلہ 985
رشید 985
مجموعے 985
لیہ 984
نم@@ 984
وکیل 984
افزائی 983
تیلگو 983
سفارتی 983
طاہر 983
کیچ 983
فنی 982
مذاکرات 982
51 981
اجتماعی 981
باد 981
بوس 981
دیکھی 981
زب@@ 981
مسیحیت 981
چوتھے 981
صد 980
وارث 980
2003ء 979
مرحلے 979
اٹھارہ 978
بروز 978
زمینی 978
سافٹ 978
قیس 978
پورہ 978
دخل 977
رسمی 977
ري 977
ریسرچ 977
اين 976
بدولت 976
فاصلہ 976
ہیلی 976
بیٹھے 975
حکومتوں 975
انفرادی 974
سرحدی 974
لہٰذا 974
بچانے 973
وکٹوں 973
گولی 973
64 972
الر@@ 972
رائل 972
سانتا 972
سون 972
طبقہ 972
بُ@@ 970
ٹیموں 970
پیرو 970
الش@@ 969
برلن 969
بلو@@ 969
ہے- 969
86 968
خرید 968
1970ء 967
بائ@@ 967
بیٹوں 967
زمبابوے 967
ترا 966
ینی 966
سہولیات 965
فتوحات 965
88 964
اضافی 964
مرہ 964
ہائ@@ 964
آرام 963
سورہ 963
انٹرویو 962
دیوتا 962
سرو@@ 962
مغ@@ 962
کوششیں 962
— 962
خیز 961
نائ@@ 961
نگی 961
ہتھیاروں 961
اراکین 960
فورسز 960
عارف 959
دماغ 958
ستر 958
سرا@@ 958
فض@@ 958
قدیمہ 958
ْ@@ 958
آرڈر 957
قسطنطنیہ 957
گیر 957
ہيں 957
اچانک 956
نان@@ 956
احاطہ 955
سعادت 955
فاضل 955
اترپردیش 954
ترکوں 954
شہزادی 954
قرون 954
مرشد 954
پاس@@ 954
1970 953
68 953
87 953
الز@@ 953
L@@ 952
لمبائی 952
لہ@@ 952
مہمان 952
پبلک 951
کٹر 951
حمید 950
ڑہ 950
فاروق 949
درمیانی 948
کشن 948
عجیب 947
درا@@ 946
سفارت 946
عمری 946
پچھلے 946
کات@@ 946
1992 945
66 945
سلمان 945
پاؤں 945
96 944
انکا 944
بالخصوص 944
بیٹھ 944
تلوار 944
دي 944
چشتی 944
1991 943
تناسب 943
جاسکے 943
جغرافیہ 943
جمہوریت 943
سالار 943
لات 943
1948ء 942
1999 942
باؤلنگ 942
باغی 942
بنتا 942
متوفی 942
گیری 942
بوں 941
مظہر 941
ٹاور 941
ورثہ 940
پرویز 940
اتنے 939
اوی@@ 939
جوزف 939
سنائی 939
فقیہ 939
جر 938
ٹور@@ 938
چوٹی 938
چوں 938
کرنی 938
انحصار 937
محمد@@ 937
نیو@@ 937
اء 936
امیہ 936
درہ 936
رنگ@@ 936
شرط 936
آن@@ 935
علي 935
فت@@ 935
موبائل 935
نت@@ 935
اطلاعات 934
زیاد 934
چترال 934
الحدیث 933
سترہ 933
مذکور 933
پکڑ 933
ہاشم 933
یونس 933
ایام 932
سکونت 932
طبع 932
لغت 932
میگزین 932
ٹرو@@ 932
63 931
جاسکتی 930
جسٹس 930
ہندوؤں 930
تخ@@ 929
تعالی 929
داخلی 929
اکی@@ 928
حرم 928
سلامتی 928
کہلاتے 928
منی@@ 927
چلانے 927
قریشی 926
قیامت 926
پڑ@@ 926
آگیا 925
ریٹائرمنٹ 925
عظمت 924
مورخ 924
کہانیاں 924
1960 923
99 923
بہاولپور 923
سل 923
شافعی 923
شیو 923
ﺮ@@ 923
دُ@@ 922
ماہی 922
62 921
تج@@ 921
سیالکوٹ 921
عقل 921
عیسیٰ 921
محسن 921
نوجوانوں 921
تل@@ 920
1950 919
دِ@@ 919
صدارت 919
مدیر 919
92 918
تیر 918
جملہ 918
دان@@ 918
شر 918
ضبط 918
Municipality 917
دست@@ 917
قدرت 917
زمان 916
صنف 916
طوفان 916
عر@@ 916
غزنوی 916
مراٹھی 916
سول@@ 915
بناتے 914
بھال 914
وسكونسن 914
ئیر 913
اوا 913
بیسویں 913
ذہن 913
فرید 913
فضائیہ 913
مزاحیہ 913
آی@@ 912
الخط 912
طی@@ 912
ٹيكساس 912
تری 911
حفظ 911
ہوسکتا 911
67 910
ناظم 910
1947 909
باللہ 909
رت 909
لسانی 909
نہر 909
آنکھ 908
غ 908
فورٹ 908
مزاج 908
پوجا 908
کرد 908
کہاں 908
گرما 908
اغ@@ 907
زیب 907
پال@@ 907
پٹی 907
جائز 906
وارڈ 906
پرانا 906
93 905
قدمی 905
نڈر 905
بدلے 904
تکلیف 904
جام 904
ساخت 904
في@@ 903
لاکھوں 903
میت 903
اسکولوں 902
الغ@@ 902
مدار 902
آرمینیا 901
مسند 901
1999ء 900
ذخیرہ 900
شہاب 900
مبینہ 900
گلگت 900
ایڈاہو 899
جایا 899
فضا 899
نامے 899
ویک 899
گنگا 899
ہل@@ 898
جنگجو 897
دامن 897
زبیر 897
غی@@ 897
150 896
اعمال 896
قیاس 896
77 895
جام@@ 895
جہ 895
رابرٹ 895
سیریل 895
عید 895
اؤ@@ 894
تمہیں 894
دون@@ 894
74 893
بیش 893
سیکرٹری 893
فرینکلن 893
ڈیوڈ 893
گیٹ 893
جارجيا 892
سنی@@ 892
نگاہ 892
وائی 892
پھل 892
ڈراموں 892
73 891
سری@@ 891
پلیٹ 891
کنیکٹیکٹ 890
اجداد 889
مات@@ 889
گزار 889
امان 888
اوراس 888
مرنے 888
راجستھان 887
کلو@@ 887
امراض 886
سیاحت 886
عثمانیوں 886
98 885
۱@@ 885
اڑ@@ 884
ایکشن 883
سرپرستی 883
صفر 883
نصب 883
چیزیں 883
یونٹ 883
59 882
قاہرہ 882
لنکن 882
مغربي 882
نکلے 882
يارك 882
جنگلات 881
سیٹ 881
مصنوعات 881
ڈبلن 881
ہوسکتی 881
الْ@@ 880
بھیجے 880
ضیاء 880
ولہ 880
کہانیوں 880
جنکشن 879
نظامی 879
کارکنوں 879
1998ء 878
97 878
چیمپئن 878
کشتی 878
یر@@ 878
1998 877
ورہ 877
یسوع 877
امہ 876
جون@@ 876
دہائیوں 876
مغلیہ 876
نفس 876
ولید 876
یل@@ 876
اوری@@ 875
حی 875
ورجينيا 874
کشمیری 874
ہوچکی 874
ریو 873
زوں 873
فورا 873
ویئر 873
کلی 873
یکساں 873
1960ء 872
دیہات 872
سرد 872
نت 872
ٹائم 872
کبیر 872
ھا 872
76 871
طر@@ 871
پڑھی 871
ﮐﮯ 871
اصولوں 870
اطالیہ 870
تلامذہ 870
خالص 870
خلیل 870
دِ 870
78 869
اچ@@ 869
متحد 869
ورو 869
وي 869
پتی 869
83 868
اختلافات 868
اخراجات 868
روزانہ 868
نین 868
84 867
تعین 867
جي@@ 867
سمجھنے 867
شین 867
قفقاز 867
کینیا 867
گنبد 867
03 866
Q@@ 866
خراج 866
سلمہ 866
ضروریات 866
ماخوذ 866
پنج@@ 866
کمان 866
خانوں 865
لمبی 865
مرے 865
مفید 865
ں@@ 865
یور@@ 865
» 864
اننگ 864
تب@@ 864
سازش 864
ژاں 864
گلیشیر 864
گہری 864
برا 863
ترو@@ 863
کمپنیوں 862
d 861
باغیوں 861
سرکار 861
لیتی 861
منصوبوں 861
ڈھانچے 861
بقول 860
خام 860
کوی@@ 860
89 859
94 859
نوری 859
کیمیائی 859
تابعین 858
جزوی 858
عرف 858
ٹیک 858
چھٹی 858
گزشتہ 858
گول@@ 858
جوا@@ 857
ماہنامہ 857
آنا 856
خاموش 856
سبھی 856
عمارتوں 856
فل 856
پائ@@ 856
ڈیٹا 856
district 855
دوستی 855
عنصر 855
خطرے 854
سڈنی 854
لسٹ 854
نوآبادیاتی 854
کھیلتے 854
آٹھویں 853
انتہا 853
بچنے 853
ذوق 853
شعور 853
فحش 853
لک 853
موہن 853
پو 853
کوا@@ 853
اصلی 852
بالائی 852
رفتہ 852
عہدوں 852
غالباً 852
لون@@ 852
مط@@ 852
ﻠ@@ 852
ابی@@ 851
سوائے 851
سورۃ 851
معمول 851
نفرت 851
بگ 850
دیئے 850
صلاح 850
عب@@ 850
مربوط 850
لاک 849
کونسلیں 849
گہرا 849
الحال 848
تف@@ 848
رک@@ 848
مِ 848
پرواز 848
مذمت 847
مہینوں 847
ورژن 847
1,4@@ 846
لارڈ 846
نگٹن 846
پشتون 846
انصار 845
فسادات 845
انڈسٹری 844
راز 844
ساحلی 844
سوشل 844
قرارداد 844
ليك 844
پریشان 844
چودھری 844
اہلیہ 843
ریٹائر 843
لگائے 843
1ھ 842
انتداب 842
وین@@ 842
82 841
ذہنی 841
شروعات 841
صارفین 841
کھو@@ 841
ہرات 841
69 840
81 840
ایلن 840
سینکڑوں 840
کیس 840
تاجر 839
تجربات 839
سنگ@@ 839
سپاہی 839
غلطی 839
فیئر 839
71 838
اکائی 838
جلا 838
رن@@ 838
چھوڑنے 838
جہان 837
سَ@@ 837
پوتے 837
کین@@ 837
ئل 836
بلایا 836
دستاویزات 836
علوی 836
قلب 836
کاٹ 836
میڈیسن 835
United 834
ابوال@@ 834
خلائی 834
پھیلی 834
ہنری 834
1989 833
شری@@ 833
آفتاب 832
امامت 832
تلفظ 832
ولے 832
گرانٹ 832
انتظار 831
تحریری 831
تدفین 831
مز 831
پہنچایا 831
چوک 831
1997 830
مشیر 830
نمائندہ 830
ویر 830
یان 830
بسر 829
میزبانی 829
یوگنڈا 829
حتمی 828
شوکت 828
کت@@ 828
تھامس 827
کلارک 827
گلوکارہ 827
ہوچکا 827
ارجنٹائن 826
الزامات 826
بابر 826
رم 826
سرگودھا 826
میجر 826
ہن@@ 826
تي 825
دشمنی 825
اُردو 824
حلقوں 824
واقف 824
گز 824
گھاٹ 824
1,6@@ 823
امارت 823
مدارس 823
پڑھتے 823
کوب@@ 823
تح@@ 822
جج 822
رِ@@ 822
زاد 822
سونا 822
لطف 822
پلے 822
ہرزیگووینا 822
ادھر 821
برآمد 821
بھو@@ 821
توپ 821
باتوں 820
بط@@ 820
جم 820
آئی@@ 819
خزانہ 818
اموات 817
ایلی@@ 817
وچ 817
ٹز 817
پوپ 817
minor 816
ادہ 816
فا 816
ہٹلر 816
ﺭ@@ 816
ابھ@@ 815
جل 815
ﮯ 815
سمجھے 814
چاہئے 814
حلقے 813
ریز 813
ڈنگ 813
1992ء 812
جیفرسن 812
ہفتے 812
1940 811
ایشیاء 811
حیاتیات 811
نصیر 811
یہودیت 811
بھرتی 810
تار 810
تمہاری 810
نَ@@ 810
کالا 810
کالی 810
تقی 809
تھوڑی 809
ستارے 809
معاشیات 809
يَ@@ 809
رہنا 808
پچیس 808
ﻨ@@ 808
1950ء 807
شکر 807
مساوی 807
ٹائمز 807
کھڑی 807
municipality 806
آگاہ 806
احد 806
اسلوب 806
الیہ 806
سمجھی 806
ہاکی 806
اسلم 805
غلامی 805
کرسکتے 805
1996 804
انسانیت 804
جمعیت 804
ويل 804
الدين 803
انجن 803
علا@@ 803
میڈ@@ 803
پیٹر 803
اولمپکس 802
جاؤ 802
دستور 802
يك@@ 802
پرتگالی 802
گان@@ 802
ہمارا 802
این@@ 801
بولتے 801
قائل 801
یک@@ 801
ادوار 800
اپنایا 800
بزرگوں 800
بش@@ 800
رانا 800
فیڈریشن 800
مرکب 800
ناکامی 800
وسعت 800
جوڑے 799
١@@ 799
91 798
A 798
جاکر 798
پت 798
کمرے 798
آز@@ 797
دوستوں 797
1918 796
الیکشن 796
اوس@@ 796
سیل 796
ورزی 796
کینٹ 796
ﻭ@@ 796
بلتستان 795
میزائل 795
ڈي@@ 795
یاب 795
مثالیں 794
يل 794
کرا 794
استحکام 793
اصفہان 793
سز@@ 793
فطری 793
لف@@ 793
مالیاتی 793
ٹرین 793
اثنا 792
رنجیت 792
موسیقار 792
79 791
بوس@@ 791
فیس 791
وما 791
ٹي@@ 791
عنایت 790
لیبیا 790
مائل 790
ہاشمی 790
النہار 789
تاب@@ 789
ریاں 789
نثر 789
ﺮ 789
سم 788
ﮐ@@ 788
انو@@ 787
ڈھاکہ 787
کارپوریشن 787
05 786
دوا 786
رول 786
مسٹر 786
ar 785
بلقان 785
حجر 785
کہلاتی 785
الاسکا 784
الحاق 784
اٹ 784
توقع 784
قیمتی 784
ملوث 784
منتقلی 784
ير 784
ڈاک 784
ہوچکے 784
افضل 783
اڈ@@ 783
اگلی 783
بٹلر 783
موقف 783
گراف 783
تراجم 782
محققین 782
مری@@ 782
نگا 782
کانگ 782
پیرش 781
کرہ 781
گایا 781
ریٹ 780
لک@@ 780
مراحل 780
مسافر 780
چک@@ 780
گرینڈ 780
1997ء 779
رکھ@@ 779
والہ 779
دیکھے 778
پریمیئر 778
اوی 777
تحریروں 777
غلبہ 777
لوئس 777
ندا 777
چون@@ 777
گرجا 777
ہوٹل 777
1993 776
تسلط 776
خطیب 776
داد@@ 776
نذر 776
ٹھیک 776
02 775
الام@@ 775
نظریاتی 775
ڈون@@ 775
آسام 774
اوران 774
بازنطینی 774
جیک 774
ذی 774
عن@@ 774
مارکس 774
مثلا 774
ملت 774
کرمان 774
کلیسیا 774
ترقیاتی 773
دسویں 773
شجرہ 773
ملی@@ 773
يت 773
علامات 772
لکھیں 772
پرائمری 772
چکر 772
تیرے 771
جوڑ 771
روزگار 771
مایا 771
1920 770
بادشاہی 770
مات 770
مینی@@ 770
گیلانی 770
بیر@@ 769
جیو 769
قدامت 769
قص@@ 769
مستعمل 769
موثر 769
کارروائیوں 769
اضافے 768
تیری 768
لارنس 768
موضع 768
وائیومنگ 768
شک@@ 767
مع 767
ولایت 767
آپ@@ 766
خطرناک 766
ساوتھ 766
طارق 766
نصاب 766
کپتانی 766
States 765
امجد 765
اونٹ 765
دیہ 765
مند@@ 765
مچھلی 765
06 764
تخمینہ 764
جلدوں 764
حجاز 764
نمودار 764
واس 764
لیکر 763
کیرئیر 763
گزرنے 763
1993ء 762
Ohio 762
اسی@@ 762
سروے 762
سوڈان 762
قم 762
چند@@ 762
قیدیوں 761
کاک@@ 761
1971ء 760
ایکسپریس 760
شرعی 760
طیارے 760
گرفتاری 760
1996ء 759
انیوں 759
جنگجوؤں 759
قربانی 759
مث@@ 759
نفاذ 759
sur 758
الٰہی 758
بع@@ 758
ستارہ 758
قد 758
مانتے 758
میری@@ 758
نکالا 758
المومنین 757
بحیثیت 757
جدا 757
دیکھیں 757
كو 757
مریض 757
مشغول 757
ناز 757
کارڈ 757
600 756
الان@@ 756
سود 756
مسلک 756
ندہ 756
نقشہ 756
یوٹاہ 756
on 755
تشریح 755
تي@@ 755
وانی 755
دوب@@ 754
دگی 754
ستاروں 754
سیلاب 754
فوجیں 754
ضرب 753
ہوجائے 753
طبقات 752
میٹرک 752
ناڈو 752
اوبلاست 751
دکھ@@ 751
سختی 751
ماجد 751
چوری 751
ڈان 751
07 750
250 750
بخارا 750
بقیہ 750
بي 750
ڈس 750
کرائی 750
کعب 750
08 749
ازیں 749
منع 749
مکتب 749
چا@@ 749
ھے 749
ہمہ 749
جد 748
متعین 748
کنی@@ 748
تکنیکی 747
خصوصاً 747
خلفاء 747
روز@@ 747
1941 746
بالترتیب 746
بوجھ 746
بڑھانے 746
قلمی 746
قو@@ 746
1,3@@ 745
تعالٰی 745
ٹیاں 745
کھول 745
تاجکستان 744
جبل 744
رحیم 744
کلنٹن 744
ﻤ@@ 744
1988ء 743
} 743
تحلیل 743
حامد 743
مدنی 743
مقالہ 743
مکی 743
ہمت 743
ہٹا 743
1,8@@ 742
روا@@ 742
نون 742
ہرا 742
جب@@ 741
رسالت 741
لکھنا 741
مجاہدین 741
کمی@@ 741
افسانے 740
بہتری 740
حمد 740
طریقت 740
فقیر 740
نقش 740
تائید 739
طلباء 739
مسئلے 739
گرا 739
گز@@ 739
باد@@ 738
لمبے 738
مزدور 738
ٹین 738
پایہ 738
800 737
انچ 737
فرنٹ 737
لون 737
کرشن 737
1,7@@ 736
جذبہ 736
كار@@ 736
وابستگی 736
کیمبرج 736
1988 735
جلاوطنی 735
خلیات 735
صاحبزادے 735
کرن 735
کیلی 735
سیا 734
ورنہ 734
کرانے 734
1977ء 733
اصرار 733
بلاک 733
ساٹھ 733
ماری@@ 733
04 732
البم 732
مریخ 732
چوہدری 732
ڈنمارک 732
اورنگ 731
رئیس 731
لیڈر 731
ملازم 731
01 730
شیا 730
فلکیات 730
مسوري 730
ورمونٹ 730
پڑھائی 730
کیٹ 730
گولڈ 730
بز@@ 729
بھر@@ 729
دشمنوں 729
ستم 729
شکایت 729
لاتے 729
نقاد 729
چراغ 729
1,5@@ 728
آئندہ 728
دیو@@ 728
شت 728
نویں 728
نکلنے 728
09 727
1985ء 727
آسٹریلیائی 727
جنگلی 727
حمزہ 727
رش@@ 727
زینب 727
معرکہ 727
نصیب 727
پیچیدہ 727
الاول 726
اوور 726
بتاتے 726
حقائق 726
خی 726
شیعوں 726
وجے 726
پینے 726
کلمہ 726
راہ@@ 725
کلے 725
2ھ 724
امتیازی 724
اُنہوں 724
سرگرمیاں 724
سزائے 724
مفت 724
اسود 723
منسوخ 723
اث@@ 722
جانتا 722
سرائیکی 722
سکریٹری 722
شیطان 722
فائر 722
is 720
غز@@ 720
مائیکل 720
مستند 720
1995ء 719
سیکیورٹی 719
لیو 719
ڈپٹی 719
کاپ@@ 719
بڑھ@@ 718
حنفی 718
خوا@@ 718
سمی@@ 718
سنبھال 718
ض 718
عورتیں 718
قواعد 717
نظمیں 717
پابند 717
پٹ 717
ہوجاتے 717
پارلیمانی 716
پوائنٹ 716
چوبیس 716
کھلے 716
h 715
عد@@ 715
منقسم 715
میلبورن 715
نفسیات 715
وَ 715
باکس 714
عالمگیر 714
اسباب 713
اوب@@ 713
سند@@ 713
صحبت 713
لِ 713
چہرے 713
گروپوں 713
اسٹریٹ 712
رسائل 712
زادہ 712
ڑوں 712
1939 711
بیڑے 711
ستہ 711
فانی 711
مرید 711
ٹکڑے 711
1971 710
y 710
انکشاف 710
دستے 710
رحم 710
ونیا 710
کعبہ 710
1944 709
1982ء 709
خطبہ 709
پیر@@ 709
کسانوں 709
ہزارہ 709
ﮐﯽ 709
فوائد 708
مجدد 708
مف@@ 708
مونٹ 708
ڈرامہ 708
1989ء 707
name 707
سکی@@ 707
گنے 707
ﻋ@@ 707
بزنس 706
جاوا 706
رخصت 706
وصیت 706
وِ@@ 706
الرحمٰن 705
سرائے 705
سنگاپور 705
پروڈکشن 705
کاس 705
گرہن 705
براعظم 704
سرگرمی 704
قمر 704
چوتھا 704
ہیم 704
جوں 703
روپیہ 703
مہاراجا 703
یْ@@ 703
« 702
فرقے 702
کنگ@@ 702
ﮧ 702
اء@@ 701
زو 701
نفسیاتی 701
پین 701
کھل 701
الد@@ 700
دھی 700
مخلوق 700
نازی 700
ير@@ 700
کرائے 700
ہن 700
1995 699
باس@@ 699
بیمار 699
جز 699
لانگ@@ 699
نیدرلینڈز 699
ڈي 699
ﮨ@@ 699
# 698
اوهایو 698
تنقیدی 698
خد@@ 698
فرعون 698
نمونے 698
کھلی 698
کیپر 698
ہانگ 698
الو 697
اُنہیں 697
سس 697
سما@@ 697
شہر@@ 697
وئی 697
ویکیپیڈیا 697
پتا 697
یری 697
الدولہ 696
دیستریک 696
قابض 696
منگول 696
1979ء 695
جھنگ 695
دلچسپ 695
دیسی 695
میٹروپولیٹن 695
ناگ@@ 695
نظریے 695
گریڈ 695
1948 694
ارک 694
اموی 694
قادر 694
لم@@ 694
ڈیلاویئر 694
کانتی 694
93.@@ 693
تنہا 693
راشد 693
رِ 693
سینا 693
سیکنڈ 693
نغمہ 693
ویر@@ 693
گردش 693
ینگ 693
180@@ 692
آگرہ 692
اٹھ 692
اہلِ 692
زد 692
ماحولیاتی 692
موسوم 692
کورس 692
ید 692
ﺩ@@ 692
ابو@@ 691
انت 691
مد 691
درآمد 690
ستانی 690
لہجہ 690
نصر 690
چنا 690
الط@@ 689
امرتسر 689
تیوں 689
قیدی 689
وید 689
ویو 689
کب 689
ایریزونا 688
جائداد 688
دھرم 688
کھلا 688
اغوا 687
تارکین 687
كھ@@ 687
لطیف 687
وک@@ 687
دول@@ 686
سارہ 686
صورتحال 686
قَ@@ 686
مالا 686
مطالعے 686
کھوار 686
120 685
اصطلاحات 685
العلماء 685
بینڈ 685
مائی 685
ناد@@ 685
پیمائش 685
1974ء 684
استحصال 684
بائیس 684
قصہ 684
اسپتال 683
ایتھوپیا 683
رجب 683
زن@@ 683
غار 683
ہے@@ 683
غربت 682
لیٹ 682
مناظر 682
1994 681
ترجمان 681
تل 681
جابر 681
دفاتر 681
رویہ 681
سراج 681
شوں 681
لل@@ 681
مجاہد 681
ندوی 681
چاہتی 681
انج@@ 680
دستاویز 680
عن 680
فے 680
قل@@ 680
مخالفین 680
ویت 680
ٹاپ 680
پورٹو 680
عذاب 679
میزبان 679
پونچھ 679
پڑھ@@ 679
700 678
ارتقا 678
ایکس 678
باقر 678
دھا 678
ٹیوب 678
گوجرانوالہ 678
احسان 677
بظاہر 677
بلین 677
قندھار 677
مطلق 677
وراثت 677
وکالت 677
اپیل 676
تبدیلیاں 676
توحید 676
مرحلہ 676
پروگراموں 676
ہمایوں 676
ملٹری 675
مي 675
اعوان 674
ایڈورڈ 674
دیواروں 674
رکاوٹ 674
بنائیں 673
ذی@@ 673
ریکو 673
زلزلے 673
برتن 672
داعش 672
سکاٹ 672
وري 672
چھت 672
ڈیجیٹل 672
کوئ@@ 672
گرمی 672
بڑھنے 671
خالق 671
سپاہیوں 671
فنڈ 671
نِ 671
وضع 671
کال 671
2022 670
افسوس 670
انٹر 670
بناتا 670
حجاج 670
حَ@@ 670
شي@@ 670
لب 670
ﺗ@@ 670
1984ء 669
village 669
درحقیقت 669
متنازع 669
نذیر 669
وع@@ 669
پاور 669
1930 668
افتتاح 668
بہرائچ 668
بیٹھا 668
سچ 668
ماہ@@ 668
مدھ@@ 668
ورڈ 668
گہرائی 668
2,0@@ 667
آدمیوں 667
غائب 667
نف@@ 667
ّی 667
امرا 666
ایہ 666
بڑھتے 666
داغ 666
ملازمین 666
میں@@ 666
1965ء 665
بہادری 665
تدریسی 665
زبانی 665
قب@@ 665
نعیم 665
چہرہ 665
22@@ 664
سائز 664
ڈیموکریٹک 664
1972ء 663
الہ@@ 663
رل 663
عت 663
كنساس 663
مصطفی 663
پیروکار 663
چیچن 663
کھاتے 663
بردار 662
خوبصورتی 662
عکاسی 662
وارانہ 662
ڈار@@ 662
ہالی 662
بنتی 661
1975ء 660
خور 660
زدہ 660
سوشلسٹ 660
لڑکا 660
مشین 660
الیون 659
فال@@ 659
فن@@ 659
لاش 659
محترم 659
پرتگال 659
چنگ 659
I 658
الا@@ 658
انکی 658
شہریت 658
فلسفی 658
پولی@@ 658
کمانڈ 658
الذکر 657
اواخر 657
جنھیں 657
حہ 657
فاروقی 657
گاڑیوں 657
1000 656
اتھ 656
بھٹی 656
سڑکوں 656
عادل 656
معزول 656
سرداروں 655
متفق 655
میئن 655
چھتیس 655
ارت 654
دینار 654
ربی 654
صحرا 654
لگائی 654
مارک 654
گریجویٹ 654
B@@ 653
تفصیلی 653
يں 653
ڈور 653
کیوبا 653
گاہوں 653
بیری 652
تامل 652
تشیع 652
روسیوں 652
شیں 652
لفظی 652
نزول 652
نسی 652
ٹکٹ 652
کارنامہ 652
آبی 651
اِسی 651
درانی 651
مؤرخ 651
آرتھر 650
بچا 650
زکریا 650
لوزیانا 650
َّ@@ 650
بج@@ 649
بغ@@ 649
سواری 649
قصور 649
مض@@ 649
چاول 649
گلو@@ 649
1984 648
آمادہ 648
الوں 648
خاصی 648
سیارے 648
عقبہ 648
مرضی 648
ہائی@@ 648
10,@@ 647
1986 647
اسٹالن 647
اکی 647
ﺘ@@ 647
ایگزیکٹو 646
بازوں 646
روٹی 646
وجی 646
ّہ 646
1956ء 645
بصری 645
رار 645
نجف 645
الہی 644
سائی@@ 644
موڑ 644
تبریز 643
تہجی 643
خمینی 643
درہم 643
صفائی 643
عزم 643
ہوش 643
ہہ 643
استدلال 642
اندازے 642
جادو 642
دوچار 642
ماننے 642
يس 642
گرافی 642
ﮔ@@ 642
دبئی 641
دع@@ 641
رچرڈ 641
سیال 641
ممالك 641
نسن 641
وروں 641
کسان 641
کھ 641
1979 640
بیل@@ 640
دھماکے 640
فائرنگ 640
لیون 640
الرشید 639
خلاصہ 639
معصوم 639
پڑتی 639
احکامات 638
رسومات 638
پھر@@ 638
1,9@@ 637
اطاعت 637
بے@@ 637
نوح 637
1991ء 636
تعبیر 636
تمغا 636
شاخیں 636
پرنسپل 636
1987ء 635
by 635
تھر@@ 635
جدہ 635
دوڑ 635
لگیں 635
مدھیہ 635
ندیم 635
نیت 635
ونسب 635
کاغذ 635
کلیدی 635
ہدف 635
ہشام 635
1994ء 634
بندر 634
تلاوت 634
تیر@@ 634
ستون 634
شور@@ 634
كيرولائنا 634
لز@@ 634
یا@@ 634
آرتھوڈوکس 633
نقوی 633
وند 633
چو 633
کورونا 633
رہائی 632
ٹھ 632
پودوں 632
چلتے 632
گندم 632
ارڈ 631
افسانوں 631
افسانوی 631
اہی 631
بگ@@ 631
تاہے 631
انجیل 630
اٹھانے 630
اینٹی 630
جشن 630
دلائل 630
جلیل 629
قحط 629
ني 629
ڈل 629
ھر 629
ہدایات 629
en 628
اکیس 628
بابل 628
بنگ@@ 628
عالم@@ 628
لازم 628
ٹرک 628
ڈومیسٹک 628
کشش 628
اعتراض 627
اً 627
ایجوکیشن 627
بشیر 627
سہارا 627
سیدنا 627
مردہ 627
نپولین 627
وارن 627
چلائی 627
بڑ@@ 626
بیٹیاں 626
شاگردوں 626
مجسمہ 626
پلی 626
1985 625
اتھارٹی 625
ضم 625
فتنہ 625
فلی@@ 625
مصنوعی 625
{ 624
اسٹار 624
الاس@@ 624
زیادتی 624
عدی 624
متصل 624
پیشکش 624
گیندوں 624
اندلس 623
تص@@ 623
سجاد 623
كيليفورنيا 623
لوئر 623
چڑھ 623
کمشنر 623
بنتے 622
بولنگ 622
تاجروں 622
سپہ 622
فیشن 622
پہنچانے 622
کیرولینا 622
ہیملٹن 622
اقدار 621
اقوال 621
اکٹھا 621
تق@@ 621
ذ 621
ساڑھے 621
مروان 621
میانمار 621
يو 621
ابلاغ 620
اصغر 620
النجوم 620
بڑھایا 620
واک 620
ٹون@@ 620
D@@ 619
جاتاہے 619
رکھیں 619
نیازی 619
ڈائ@@ 619
1986ء 618
New 618
بنیں 618
عرفان 618
مفادات 618
نامعلوم 618
وائس 618
ﻣﯿﮟ 618
سرپرست 617
نظیر 617
نہرو 617
کیپٹن 617
K@@ 616
آنکھیں 616
بارگاہ 616
عابد 616
مسیحیوں 616
چلتی 616
گم 616
10.@@ 615
1930ء 615
رشتے 615
سوات 615
سینٹرل 615
فراغت 615
وژن 615
ہالینڈ 615
مترجم 614
وول@@ 614
آئس 613
انیہ 613
باؤلر 613
بٹ@@ 613
تون@@ 613
دوری 613
لیوں 613
ماریون 613
ٹون 613
11@@ 612
ایٹمی 612
بانو 612
تبصرہ 612
حتی 612
لام 612
نمائندے 612
ننگ 612
ووڈ@@ 612
کروائی 612
گہرے 612
اونچی 611
جائ@@ 611
جد@@ 611
دید 611
لٹن 611
مقدونیہ 611
ورٹ 611
ہجوم 611
اگر@@ 610
براؤن 610
تعمیرات 610
روکا 610
محی 610
نسواں 610
وحید 610
1987 609
راغب 609
فقہی 609
مؤ@@ 609
چائے 609
گرے 609
ہموار 609
J@@ 608
انٹر@@ 608
بمباری 608
تصادم 608
سیاحوں 608
قوتوں 608
وحی 608
گھنٹہ 608
00 607
1978ء 607
1981ء 607
اسٹاک 607
بنا@@ 607
رومیوں 607
سننے 607
فصل 607
منشی 607
یز 607
اجزاء 606
تقویت 606
جلدی 606
سولہویں 606
مقبرے 606
کیا@@ 606
آزادانہ 605
اخراج 605
اري 605
خود@@ 605
مزاح 605
ٹہ 605
چھوڑا 605
1975 604
36@@ 604
الشان 604
امریکیوں 604
تردید 604
جٹ 604
خط@@ 604
معافی 604
پسندیدہ 604
1919 603
48@@ 603
آل@@ 603
ئس 603
ادھ@@ 603
اطلاق 603
تاب 603
خسرو 603
دیوبندی 603
سخن 603
سنبھالا 603
كس 603
معنوں 603
ندے 603
پاتے 603
کوت@@ 603
کِ@@ 603
گس 603
انجینئری 602
تحسین 602
عار@@ 602
قیصر 602
ڈینس 602
کہے 602
الزبتھ 601
تقویم 601
جوانی 601
شاهٔ 601
لٹ 601
لیاں 601
پتے 601
پشت 601
۲@@ 601
باقیات 600
جَ@@ 600
حجم 600
صف@@ 600
غلاموں 600
مام 600
مکانی 600
چہارم 600
گيا 600
ہلال 600
اتِ 599
اض@@ 599
اچھ@@ 599
تھوڑا 599
حلقهٔ 599
سینٹی 599
غزنی 599
نانا 599
35@@ 598
ایڈی@@ 598
درکار 598
غزوات 598
فین 598
قازقستان 598
وبی 598
179@@ 597
T20 597
بجٹ 597
تبت 597
نویس 597
پذیر 597
پول 597
گنجائش 597
ہری@@ 597
1958ء 596
تسمیہ 596
دَ@@ 596
عامہ 596
لت 596
موزوں 596
نمک 596
پھیلاؤ 596
گارڈ 596
1974 595
آکسفورڈ 595
سرحدوں 595
كان@@ 595
لہر 595
ٹرا@@ 595
پختہ 595
1942 594
زمرے 594
شرما 594
عوامل 594
لیفٹیننٹ 594
مائے 594
مقدمے 594
مگر@@ 594
11,@@ 593
اذ@@ 593
ایبٹ 593
عطیہ 593
تمہارا 592
دیل 592
سہیل 592
مومن 592
ولد 592
ڈكوٹا 592
یونی@@ 592
ﭘ@@ 592
A@@ 591
تختہ 591
رابطے 591
رح@@ 591
سائنسز 591
شاپیل 591
عص@@ 591
پرستوں 591
کیمپس 591
station 590
ایکڑ 590
ترغیب 590
رسالے 590
سوئ@@ 590
پنڈ@@ 590
کوس 590
1982 589
دانی 589
دستاویزی 589
عقیل 589
لیاقت 589
مواصلات 589
٭ 589
چل@@ 589
184@@ 588
1976ء 588
اینگلو 588
بدلہ 588
تسلسل 588
سیر@@ 588
كى 588
ھو 588
1949ء 587
1978 587
بیانات 587
جاننے 587
دھمکی 587
سیل@@ 587
عکس 587
لمبا 587
مختاری 587
ہٹ@@ 587
شاد 586
غوث 586
موری@@ 586
ناب@@ 586
1983 585
M@@ 585
عز@@ 585
معاشرہ 585
منعقدہ 585
منگ@@ 585
مکانات 585
آخرت 584
ارض 584
بِ 584
سار 584
سوالات 584
لمیٹڈ 584
نرم 584
گوا 584
1973ء 583
حالی 583
قسمت 583
پیرا 583
ائیاں 582
بعید 582
تقریبات 582
دھن 582
شاعروں 582
مانے 582
محدثین 582
بنیادوں 581
تخلص 581
سکو 581
شیر@@ 581
لبرل 581
مارنے 581
مسل@@ 581
نیہ 581
کلاں 581
S@@ 580
آبنائے 580
اعلٰی 580
بدن 580
بولے 580
دت 580
دستہ 580
سمتیہ 580
مجرم 580
مشق 580
نظموں 580
گروو 580
اسکاٹ 579
جانسن 579
مرو@@ 579
نکالنے 579
ائیووا 578
الل@@ 578
سنگین 578
شرا@@ 578
قدس 578
مظاہرے 578
آئيووا 577
آفیسر 577
ائيووا 577
افعال 577
فام 577
لارا 577
برز@@ 576
فنکار 576
مگ@@ 576
ناقدین 576
چال 576
گولڈن 576
ہلاکتوں 576
at 575
انقرہ 575
ستائیس 575
عنہا 575
غزہ 575
محافظ 575
معتبر 575
نٹس 575
ڈھانچہ 575
کوش@@ 575
تُ@@ 574
جنگیں 574
رومانوی 574
صفات 574
قوموں 574
لونگ 574
لیز 574
معانی 574
نائٹ 574
عمارتیں 573
قابلِ 573
for 572
lu 572
ایٹ 572
تھو@@ 572
دستوں 572
صلیبی 572
عقیدے 572
فکری 572
ٹیل 572
پولس 572
1946ء 571
1969ء 571
38@@ 571
افتخار 571
باطنی 571
توازن 571
رقبے 571
سراہا 571
شبہ 571
لانا 571
مناسبت 571
نقشبندیہ 571
ہي@@ 571
ۃ@@ 571
اسماء 570
بھیجی 570
جنتا 570
زہر 570
فو 570
قین 570
پریم 570
ہاتھی 570
اٹھائیس 569
بنوں 569
دیشی 569
سف@@ 569
صف 569
فضیلت 569
لڑے 569
مقصود 569
کفر 569
گي@@ 569
1962ء 568
است 568
باغات 568
جمیل 568
مانند 568
ہور@@ 568
1973 567
G@@ 567
آئرش 567
ابواب 567
لاگو 567
محور 567
پنڈت 567
پڑھے 567
سپر@@ 566
يم@@ 566
يْ@@ 566
گوا@@ 566
ہانی 566
1983ء 565
اونچائی 565
اگو 565
تھر 565
جرمنوں 565
خاکہ 565
خت@@ 565
عموما 565
مثل 565
کیرلا 565
اسٹیج 564
بریلوی 564
جارحیت 564
رج@@ 564
سنہری 564
طبیعت 564
عملے 564
فق@@ 564
نل 564
کیہ 564
1917 563
جڑے 563
زاہد 563
ظہیر 563
نال 563
وسی@@ 563
چیلنج 563
ﻗ@@ 563
اناطولیہ 562
لائٹ 562
واس@@ 562
ّت 562
کنی 562
ریور 561
سرفراز 561
ٹرسٹ 561
پین@@ 561
کرسکتا 561
1920ء 560
اکا 560
برپا 560
جبر 560
صفوی 560
مورگن 560
میک@@ 560
نشریات 560
همپشائر 560
ڑیوں 560
1967ء 559
N@@ 559
ئو 559
برما 559
بري@@ 559
تان 559
جاں 559
حیران 559
دھ 559
زبردستی 559
سماعت 559
سوری 559
عاشق 559
قُ@@ 559
مظاہرین 559
ممبروں 559
پارہ 559
گزارا 559
گیمز 559
ﯾ@@ 559
سز 558
محاصرے 558
مدراس 558
٫ 558
کالے 558
کبھار 558
ئرز 557
بنگلور 557
جانچ 557
جي 557
دکان 557
سینے 557
نص@@ 557
نظ@@ 557
ویٹ 557
ﮩ@@ 557
برکت 556
ثانوی 556
جواہر 556
خلق 556
عبارت 556
مجاز 556
وب 556
چلایا 556
چي@@ 556
ڈیا 556
الاح@@ 555
امر@@ 555
تخلیقی 555
حامیوں 555
لُ@@ 555
مدی@@ 555
مضامين 555
1940ء 554
احسن 554
بھوپال 554
شجاع 554
كيرولينا 554
پادری 554
پیرا@@ 554
کاش@@ 554
کاغذی 554
کافر 554
کوف 554
1954ء 553
جگر 553
ربط 553
غذا 553
قرآنی 553
مثنوی 553
پالیسیوں 553
استقبال 552
1956 551
جلاوطن 551
جُ@@ 551
راکٹ 551
پیشے 551
ڈسٹرکٹ 551
کراس 551
افکار 550
المطلب 550
جتنی 550
دعوے 550
سورۂ 550
صفت 550
صفی 550
لور@@ 550
لیت 550
نُ@@ 550
وفاق 550
يونين 550
کفار 550
ہون 550
1967 549
1969 549
اسکالر 549
خطوں 549
درختوں 549
ونگ@@ 549
چھبیس 549
گجراتی 549
ہرے 549
1952ء 548
la 548
اشرافیہ 548
برہمن 548
جھوٹ 548
سانس 548
مزدوروں 548
37@@ 547
اسپی@@ 547
ببر 547
تصنیفات 547
سید@@ 547
لکشمی 547
چن@@ 547
ڈرا 547
انجی@@ 546
بریگیڈ 546
تصورات 546
صح@@ 546
عیسائیوں 546
لینن 546
وش 546
پیروکاروں 546
1972 545
ئر@@ 545
اتھ@@ 545
ازی 545
جیتے 545
راستوں 545
ویانا 545
ویوں 545
يون@@ 545
ڈیڑھ 545
کاربن 545
i 544
ایندھن 544
جنگ@@ 544
سلاطین 544
عسکریت 544
لیل 544
ملیالم 544
ڈاک@@ 544
اتار 543
اعجاز 543
تبدیلیوں 543
پرنس 543
ہفتوں 543
آگئے 542
اند@@ 542
بتیس 542
بڑھے 542
بھیجنے 542
جتنا 542
دائرے 542
روئے 542
رواں 542
زل 542
سالگرہ 542
سرطان 542
سوا@@ 542
متعلقهٔ 542
مڈ@@ 542
پڑنے 542
ہوسکتے 542
باز@@ 541
سکھر 541
مؤثر 541
میسر 541
پڑھیں 541
چونتیس 541
بیچلر 540
حریف 540
درو@@ 540
مذ@@ 540
نعمت 540
پش@@ 540
اشوک 539
ایڈمز 539
سرما 539
سنٹر 539
عدالتی 539
غصہ 539
پاک@@ 539
ہستی 539
ہوجائیں 539
ﺍﻭﺭ 539
11.@@ 538
الثانی 538
سِ@@ 538
ملاحظہ 538
نْ@@ 538
گزاری 538
al 537
الکاہل 537
بتائی 537
جزیروں 537
دیوتاؤں 537
سمجھتا 537
عالی 537
علاء 537
مہمات 537
وفادار 537
… 537
ﺖ 537
1914 536
19@@ 536
تجربے 536
رز@@ 536
متی 536
ٹروں 536
چڑھ@@ 536
گنگ@@ 536
Airport 535
بس@@ 535
تناؤ 535
تہائی 535
جامعات 535
حسینی 535
زیر@@ 535
متوجہ 535
منحصر 535
پتھروں 535
q 534
اسرار 534
اوسی@@ 534
اکتیس 534
بھری 534
خادم 534
صبر 534
عق@@ 534
ٹینک 534
پری 534
پھینک 534
پیدائشی 534
کوارٹر 534
انتیس 533
دانش 533
ضمانت 533
غوری 533
قطع 533
نڈی 533
نگز 533
ویہ 533
پکارا 533
چھپ 533
ڈبل 533
1981 532
40@@ 532
اسٹوڈیو 532
اطمینان 532
بائی@@ 532
توا@@ 532
حادثے 532
فيلڈ 532
لڑ@@ 532
میڈیم 532
يني 532
1955ء 531
II 531
تحریکوں 531
نسلوں 531
کنندہ 531
کول 531
آگئی 530
اسا 530
التحصیل 530
الیاس 530
عمومًا 530
لنگ@@ 530
لوہے 530
مہاجر 530
اسسٹنٹ 529
اولیاء 529
حلف 529
لانگ 529
پرساد 529
کھولا 529
ﺴ@@ 529
12,@@ 528
185@@ 528
ارِ 528
بچھ@@ 528
بہرحال 528
سایہ 528
سفارش 528
سلطنتوں 528
كور@@ 528
متوقع 528
معاش 528
موا@@ 528
نوی@@ 528
واجب 528
وتی 528
ٹیوں 528
گوتم 528
as 527
اہلکار 527
برے 527
خلا@@ 527
دف@@ 527
زاب@@ 527
واقعی 527
یلی 527
یونیورسٹیوں 527
ﺍﻟ@@ 527
آرٹیکل 526
اراضی 526
خبروں 526
دھر@@ 526
عمارات 526
پاپ@@ 526
پروجیکٹ 526
چاہا 526
چھو@@ 526
3ھ 525
International 525
انڈی@@ 525
بین@@ 525
تقلید 525
جاندار 525
خلجی 525
دام@@ 525
دکھائے 525
ذرا 525
قد@@ 525
لڈ 525
متاثرہ 525
ٹار@@ 525
کروز 525
گور 525
ہلاکت 525
Ch@@ 524
بخ@@ 524
تخلیقات 524
تفریح 524
سیاح 524
الي@@ 523
ایشین 523
بیماریوں 523
عطاء 523
فاسو 523
لالہ 523
لغوی 523
مرثیہ 523
مینا 523
گردن 523
ھو@@ 523
باغ@@ 522
فہم 522
ماری 522
مولا 522
میٹرکس 522
ناراض 522
ورس 522
ٹک@@ 522
پہاڑیوں 522
12.@@ 521
اولی@@ 521
سویڈش 521
شواہد 521
عہدِ 521
قے 521
مصنفہ 521
کٹی@@ 521
130 520
اداکاروں 520
رجمنٹ 520
سائی 520
عہدیداروں 520
وْ@@ 520
کسی@@ 520
1968ء 519
ضائع 519
فون@@ 519
لڑکوں 519
چیسٹر 519
39@@ 518
ئیں 518
رفیع 518
رومان@@ 518
سج@@ 518
سنن 518
پڑھنا 518
چھی@@ 518
گواہی 518
ہنگ@@ 518
P@@ 517
رحمان 517
رق@@ 517
نوب@@ 517
نوع 517
ولو 517
ونس 517
ویمن 517
کروا 517
1949 516
1951ء 516
ارجن 516
اسپورٹس 516
الرحمان 516
الٹ 516
تعاقب 516
جوابی 516
رف@@ 516
زیدی 516
نگاروں 516
ورم 516
ٹھی 516
کاسٹ 516
13,@@ 515
بھوک 515
تجدید 515
ضلعی 515
قت 515
لسانیات 515
لیم 515
مشورے 515
نج 515
نیواڈا 515
پہنچ@@ 515
13.@@ 514
اجتماع 514
انجینئر 514
اوورز 514
جال 514
خلا 514
سینہ 514
میئر 514
کمپلیکس 514
1976 513
1977 513
° 513
آگ@@ 513
دریاؤں 513
ذيلي 513
رونما 513
روی@@ 513
عمروبن 513
میا 513
نیاز 513
وشنو 513
ٹھوس 513
پولش 513
پیشوا 513
کھائی 513
1946 512
آرا 512
دلائی 512
ذخائر 512
رکنیت 512
شان@@ 512
طول 512
مدر@@ 512
مشائخ 512
کالی@@ 512
کونے 512
گذشتہ 512
ہیر 512
1964ء 511
آئوٹ 511
انبیا 511
بیورو 511
ریزرو 511
ریں 511
شہزادے 511
ظ 511
ماؤ@@ 511
مای@@ 511
پٹنہ 511
گھنٹوں 511
ہنر 511
؁ 510
اشتراکی 510
بیوہ 510
ترویج 510
تینتیس 510
رورل 510
زلزلہ 510
عیسی 510
لکھتا 510
مقدمات 510
نقصانات 510
urban 509
بلوچی 509
رند 509
زمینوں 509
كينٹكي 509
مدرس 509
مصوری 509
ﮑ@@ 509
حویلی 508
داخلے 508
زند@@ 508
وکمال 508
ٹیز 508
ہیئت 508
110 507
1965 507
List 507
Z@@ 507
افی 507
بااثر 507
تز@@ 507
دارالعلوم 507
درگاہ 507
دھی@@ 507
لاگت 507
معاف 507
موصول 507
کینسر 507
183@@ 506
1958 506
اعزازی 506
بات@@ 506
خار@@ 506
خت 506
خل@@ 506
لہجے 506
موازنہ 506
ولسن 506
ٹیلر 506
پُ@@ 506
کمزوری 506
45@@ 505
اودھ 505
حُ@@ 505
صغیر 505
لائف 505
مودی 505
نم 505
چشم 505
کتابت 505
النساء 504
بٹالین 504
بہرائچی 504
حاضری 504
دادی 504
علیا 504
قابلیت 504
مغلوں 504
مقابل 504
ناممکن 504
وط@@ 504
پائلٹ 504
پڑوسی 504
پکڑنے 504
ہیکل 504
اولمپک 503
اونٹاریو 503
توثیق 503
دوس@@ 503
شیرازی 503
لائی@@ 503
وك@@ 503
کاظم 503
H@@ 502
بارہویں 502
ثانیہ 502
فران@@ 502
كيوبك 502
پوس@@ 502
کپ@@ 502
49@@ 501
زہرہ 501
سين@@ 501
سکون 501
عظمی 501
فِ@@ 501
قات 501
میچز 501
ورتھ 501
کمپ@@ 501
یام@@ 501
Qeshlaq 500
توبہ 500
دستی 500
صنفی 500
پہلوی 500
کچ@@ 500
کہتی 500
گلے 500
1936 499
www.@@ 499
برٹ 499
تھک 499
جلوس 499
جواز 499
خبریں 499
راحت 499
زمیندار 499
سرا 499
غنیمت 499
مخلوط 499
نوم@@ 499
نیس 499
کامیڈی 499
کک 499
کیتھرین 499
راں 498
مظالم 498
نقشبندی 498
نٹی 498
چشمہ 498
کاٹ@@ 498
1962 497
البرٹا 497
جدول 497
حنیف 497
سوم@@ 497
مدفون 497
وینی@@ 497
پیس 497
چانسلر 497
گرفت 497
جاگیر 496
سوس 496
فِ 496
نشینی 496
نمبر@@ 496
ٹرانس@@ 496
کیر 496
یونانیوں 496
65@@ 495
ایرانیوں 495
باندھ 495
تعمیراتی 495
حلال 495
شع@@ 495
شکوہ 495
لاتی 495
مبر 495
مضافات 495
وص@@ 495
پیش@@ 495
ڈیز 495
گھوڑوں 495
ہفت 495
ﺳﮯ 495
امری@@ 494
اکھ@@ 494
راء 494
شاہکار 494
موصوف 494
میموریل 494
or 493
انتقام 493
جڑی 493
سرفہرست 493
كہ 493
مك@@ 493
مونٹگمری 493
میٹرو 493
نچلے 493
کرسکے 493
کولی@@ 493
یال 493
یش 493
ﺷ@@ 493
Province 492
جور@@ 492
جوڑی 492
زخم 492
سمجھ@@ 492
شورش 492
گوہر 492
یی@@ 492
ﻟ@@ 492
اسٹاف 491
جوڑا 491
ذو 491
سحر 491
فائل 491
فقہا 491
لیبر 491
مدرسے 491
کیرول 491
سام 490
سيد 490
فلسفے 490
مالٹا 490
مظاہروں 490
کمپنیاں 490
ہریانہ 490
العاص 489
اینڈ@@ 489
بریلی 489
تیرا 489
قاسمی 489
نما@@ 489
نچ 489
واہ 489
يري 489
چم@@ 489
چھپا 489
یکا 489
● 489
q@@ 488
امپھؤ 488
دلوں 488
ریشم 488
صومالیہ 488
لعل 488
کیر@@ 488
60@@ 487
u 487
اریوں 487
ازم 487
اسلامک 487
بای@@ 487
سکو@@ 487
0,@@ 486
اعظمی 486
بھتیجے 486
بیر 486
تان@@ 486
جمہوريہ 486
حنبل 486
سالم 486
شل 486
غزوۂ 486
پروان 486
چادر 486
کتے 486
کنز 486
یوروپی 486
V@@ 485
ساسانی 485
شفیع 485
ضمن 485
عادت 485
فت 485
هُ 485
پیسے 485
کمائی 485
گزارے 485
900 484
اجرا 484
اہے 484
بہبود 484
خانم 484
ربیعہ 484
ساہیوال 484
سیدہ 484
شمار@@ 484
شماریات 484
لْ@@ 484
نکتہ 484
پھولوں 484
کیف 484
ہاک@@ 484
ﮨﮯ 484
بالغ 483
جعفری 483
سردیوں 483
سنبھالنے 483
فریڈرک 483
لٹل 483
مایوس 483
معزز 483
منیر 483
وسطیٰ 483
ینگ@@ 483
Y@@ 482
اجی 482
احمد@@ 482
ایٹم 482
جاسوسی 482
جونز 482
حد@@ 482
سٹون 482
غیر@@ 482
مادی 482
مونٹ@@ 482
وفا 482
کھی 482
گاہیں 482
ﺒ@@ 482
ﺧ@@ 482
19.@@ 481
Regional 481
اجاگر 481
جعفرآباد 481
حادثہ 481
خور@@ 481
رفت 481
فور 481
پرندوں 481
ڑو 481
گزرے 481
1945ء 480
خلی@@ 480
دنی@@ 480
ربانی 480
زیرِ 480
سیکریٹری 480
لگاتے 480
et 479
آقا 479
اشی 479
برکینا 479
دارا 479
غسل 479
فلاح 479
میدانوں 479
نمائندوں 479
گوگل 479
اکادمی 478
باطل 478
بکثرت 478
تنخواہ 478
جارجیائی 478
خطرات 478
زہد 478
عملہ 478
فنکشن 478
مرمت 478
مسافروں 478
مظاہر 478
کمان@@ 478
کڑی 478
گلاب 478
ارو 477
برآں 477
تول@@ 477
توہین 477
جذب 477
ذہبی 477
سینی@@ 477
سیّد 477
طل@@ 477
قیہ 477
لف 477
مامور 477
مہینہ 477
نسخے 477
واسطہ 477
ڈرا@@ 477
گوی@@ 477
آریائی 476
ائس 476
باقاعدگی 476
حک@@ 476
دیس 476
رین@@ 476
لڑ 476
ماریہ 476
مزدوری 476
منسٹر 476
منگولوں 476
میانوالی 476
نصرت 476
نيبراسكا 476
پوشیدہ 476
کہی 476
گپتا 476
ہالٹ 476
بڑھتا 475
خز@@ 475
سد@@ 475
شعبان 475
قلی 475
مختص 475
مدعو 475
معاہدوں 475
ڈگلس 475
بک@@ 474
جبری 474
جمادی 474
حص@@ 474
حیاتیاتی 474
سیمی 474
لح@@ 474
مکرمہ 474
میز 474
نکات 474
نیکوسیا 474
وای@@ 474
کاظمی 474
ہدایتکار 474
1963ء 473
آفاق 473
اشیا 473
تلے 473
قاتل 473
مادے 473
مسلمہ 473
مینی 473
میٹ@@ 473
چنے 473
کزن 473
گري@@ 473
ھم 473
اسکرین 472
اق 472
القاعدہ 472
انسداد 472
تائیوان 472
حراست 472
حسینؑ 472
دیکھنا 472
عظ@@ 472
نایاب 472
ومن@@ 472
پہل 472
چھوڑ@@ 472
یونیسکو 472
بینٹن 471
رخ@@ 471
شیلڈ 471
لاحق 471
میلہ 471
ہوتاہے 471
ہونی 471
14.@@ 470
أ@@ 470
احوال 470
جاہلیت 470
جک@@ 470
دائ@@ 470
درا 470
راب 470
راسخ 470
زینت 470
سیکھنے 470
مصطفٰی 470
مطالبات 470
ناس@@ 470
نشستیں 470
چٹ@@ 470
چھین 470
ہلز 470
1957 469
1968 469
20.@@ 469
Olya 469
town 469
افتتاحی 469
الي 469
اوس 469
تناظر 469
جوئی 469
خوبی 469
غہ 469
قلیل 469
موومنٹ 469
پنگ 469
کمیت 469
् 469
-دے 468
آنند 468
ایش@@ 468
تقرری 468
درویش 468
شرو@@ 468
فرانسس 468
پاگئے 468
کیری@@ 468
46@@ 467
اﷲ 467
دون 467
رفیق 467
فائیٹ 467
فیسٹیول 467
قادریہ 467
نسی@@ 467
وات 467
وسا 467
پانچواں 467
چارج 467
کارل 467
یاد@@ 467
178@@ 466
ادارت 466
اقلیت 466
اورنج 466
حب 466
قائ@@ 466
قبیلوں 466
مطلع 466
بخشی 465
جاس@@ 465
فورنیا 465
كر 465
وقفے 465
ٹکنالوجی 465
پکوان 465
پیدل 465
کوک 465
18.@@ 464
المقدس 464
باؤ@@ 464
خداوند 464
سست 464
سیوں 464
معرفت 464
منص@@ 464
منگولیا 464
میرزا 464
ڈور@@ 464
کنارہ 464
1964 463
47@@ 463
ODI 463
اسماعیلی 463
اڑ 463
تورات 463
دیکھتا 463
سبزی 463
عیسائیت 463
چور 463
کائ@@ 463
کرشنا 463
آہنگی 462
جونیئر 462
دانت 462
سیلی@@ 462
كين@@ 462
ڈالے 462
ڈن@@ 462
گذر 462
X 461
برباد 461
رتی 461
شام@@ 461
طبیب 461
لائق 461
پہلوؤں 461
ڈیپارٹمنٹ 461
ڑھی 461
1963 460
50@@ 460
اوڈیشا 460
تدوین 460
خطاطی 460
سٹر@@ 460
طلحہ 460
فس@@ 460
لوس 460
متغیر 460
مردان 460
گرنے 460
گین 460
اکابر 459
سجدہ 459
سوریہ 459
فرمائے 459
للہ 459
مہا 459
میڈی@@ 459
ولز 459
ویز 459
آباد@@ 458
جيكسن 458
خاموشی 458
زوجہ 458
ساب@@ 458
ساو@@ 458
سوچا 458
لگنے 458
نشو 458
وسیم 458
پیرو@@ 458
کندہ 458
Sofla 457
ؐ 457
اين@@ 457
اکہ 457
قاصر 457
لس@@ 457
لڑتے 457
مقناطیسی 457
موٹر 457
نوے 457
نیوں 457
ویس 457
چارٹر 457
ہیں- 457
14,@@ 456
ملیشیا 456
ڑیاں 456
گولہ 456
1935 455
city 455
انگا 455
بلیو 455
تھام 455
سبی 455
شنکر 455
شیوخ 455
مونرو 455
نعمان 455
نن 455
پونے 455
ڈوب@@ 455
15,@@ 454
17.@@ 454
180 454
ارٹ 454
ایان 454
برن 454
جیلانی 454
خوشبو 454
داریاں 454
روا 454
عبوری 454
لانی 454
ۓ 454
1961ء 453
https 453
آئینہ 453
بجا 453
جاہ 453
خرا@@ 453
داں 453
لیول 453
مشرکین 453
منڈ 453
میسور 453
نسیم 453
يات 453
پٹھان 453
کمر 453
codice 452
انتشار 452
بالوں 452
جارحانہ 452
راہی 452
سبق 452
سدھ@@ 452
مادری 452
نجم 452
وگ@@ 452
کھیلتا 452
گبول 452
گرمیوں 452
گریز 452
1953ء 451
اورنگزیب 451
اکثریتی 451
دائی 451
دات 451
دھات 451
صحن 451
ضی 451
مائع 451
مشہد 451
ناولوں 451
نوکری 451
ٌ 451
گوس@@ 451
ہِ 451
1943 450
القادر 450
ایتھنز 450
تالاب 450
تحصيل 450
سمرقند 450
لاگ 450
معاوضہ 450
میوں 450
ڑنے 450
140 449
اندرون 449
بدعنوانی 449
بلال 449
خوزستان 449
سلے 449
سکھ@@ 449
شنز 449
ظالم 449
فورم 449
وارد 449
چاہ@@ 449
کانگو 449
W@@ 448
آئل 448
آوروں 448
اش 448
انجینئرنگ 448
تفریحی 448
سمتھ 448
شجاعت 448
صاحبزادہ 448
ضمیر 448
محلے 448
مول 448
گران@@ 448
ہؓ 448
1937ء 447
R@@ 447
تکنیک 447
رگ 447
سلووینیا 447
ملحقہ 447
منانے 447
يل@@ 447
پھوٹ 447
پہنچتا 447
• 447
آندرے 446
اٹھائے 446
بولر 446
بھیڑ 446
تفویض 446
شعیب 446
متاثرین 446
مریضوں 446
.com 445
170 445
بینکوں 445
سنٹرل 445
سوس@@ 445
قوی 445
منتشر 445
مندروں 445
پنے 445
پودے 445
کیل 445
گزارنے 445
گزرا 445
گود 445
16,@@ 444
16.@@ 444
ایکسچینج 444
بش 444
بیدار 444
تاخیر 444
خاک@@ 444
سکوں 444
لینگ@@ 444
مرگ 444
ونٹ 444
ﺪ 444
1935ء 443
البر@@ 443
اللهٔ 443
النبی 443
اندراج 443
اوپن 443
روش 443
عامل 443
فنکاروں 443
پریشانی 443
15.@@ 442
1953 442
1966ء 442
an@@ 442
ازبک 442
بھول 442
بینی 442
شب@@ 442
شق 442
فضائل 442
قرہ 442
ً 442
پرفارمنس 442
ہینری 442
ﻦ 442
آری@@ 441
ارکنساس 441
ایئر@@ 441
بیج 441
جذباتی 441
طیارہ 441
عام@@ 441
ـ@@ 441
لینڈز 441
منور 441
نکلتا 441
ٹیمیں 441
کوو 441
الناس 440
انفنٹری 440
تحری@@ 440
جارہی 440
سینیٹ 440
شوال 440
طیاروں 440
فیئر@@ 440
لال@@ 440
مرجع 440
کروانے 440
کشف 440
شَ@@ 439
عاصم 439
فلپ 439
قبلہ 439
معطل 439
میراث 439
ودی@@ 439
وہب 439
يم 439
ﯼ 439
C 438
اپور 438
ایڈز 438
سٹي 438
شیخوپورہ 438
فوں 438
نسبتا 438
وغ@@ 438
ٹریفک 438
پھیلانے 438
کت 438
ارباب 437
استعفیٰ 437
اسپیکر 437
الیگزینڈر 437
اوقیانوس 437
اہداف 437
باریک 437
تفتیش 437
سامعین 437
شاخوں 437
علاقهٔ 437
مامون 437
معاصر 437
ناجائز 437
پاپوا 437
چي 437
ژو 437
گُ@@ 437
ہرا@@ 437
3,0@@ 436
دیت 436
رحمتہ 436
روانی 436
فلٹن 436
مبی@@ 436
مقبوضہ 436
وح@@ 436
کارٹون 436
کیمیا 436
Central 435
اسامہ 435
برہ@@ 435
تلنگانہ 435
خری@@ 435
دانشور 435
عوف 435
مام@@ 435
منطق 435
ڈھوک 435
کوسٹ 435
گردوں 435
B 434
n 434
آسٹ@@ 434
خیالی 434
سنبھالی 434
صارف 434
گواہ 434
1957ء 433
ترکیب 433
خرابی 433
خریدا 433
دھر 433
رنگین 433
لين@@ 433
مخاطب 433
وتھ 433
کوٹ@@ 433
le 432
اٹھاتے 432
ایجنٹ 432
بوت@@ 432
تض@@ 432
دھوکا 432
شم@@ 432
مرتفع 432
وایا 432
پھیلے 432
چان@@ 432
کریمیا 432
برانچ 431
بق@@ 431
بناتی 431
جتوئی 431
رائٹ 431
رْ@@ 431
سدھنوتی 431
سٹار 431
قلندر 431
مجسمے 431
ملیں 431
ویکی 431
کتنی 431
یب 431
ئین 430
ابدالی 430
ادریس 430
اشخاص 430
البی@@ 430
بخت 430
بھارتیہ 430
تھوڑے 430
حتیٰ 430
داعی 430
روایتوں 430
رچلینڈ 430
سرحدیں 430
صحافیوں 430
صد@@ 430
قلات 430
كلي@@ 430
ورکس 430
وٹ@@ 430
پگھ@@ 430
ہادی 430
160 429
احتمال 429
ادے 429
اقدس 429
برتری 429
تھری 429
جارہا 429
جزو 429
حفاظتی 429
خیمہ 429
دوپہر 429
دھماکا 429
فیکلٹی 429
معی@@ 429
میڈل 429
نسبتاً 429
نقاب 429
وقتی 429
ویلی@@ 429
پتلی 429
پي 429
کنونشن 429
ہنگامی 429
80@@ 428
آمیز 428
ابویوسف 428
القاسم 428
اون 428
ایر@@ 428
باکو 428
ترجمے 428
خا 428
سردی 428
فلا@@ 428
قال 428
لبرٹی 428
لوئیس 428
لگانا 428
مفصل 428
مين@@ 428
نائجیریا 428
کیشن 428
گھاس 428
ﻌ@@ 428
2022ء 427
بعد@@ 427
بہر 427
جوانوں 427
دیہاتوں 427
ریڈ@@ 427
قربان 427
ماس 427
مروی 427
مشتاق 427
وئ@@ 427
ویچ 427
ٔ 427
ٹینس 427
چیر@@ 427
یتیم 427
یکجا 427
1937 426
اع 426
اینڈرسن 426
بھرا 426
تنوع 426
خَ@@ 426
راگ 426
زیل 426
ليے 426
مصدر 426
منا 426
منقطع 426
نشانات 426
کانسی 426
گذر@@ 426
ہیٹ 426
101 425
برک 425
بندہ 425
ربی@@ 425
فرقوں 425
کردستان 425
کرکٹرز 425
گاڑیاں 425
گون 425
1951 424
ائیڈ 424
استونیا 424
انضمام 424
بستیوں 424
خدیجہ 424
طاری 424
كول@@ 424
نوآبادیات 424
du 423
اسکی@@ 423
بوی@@ 423
تشویش 423
جری@@ 423
حلب 423
دیکھو 423
فریم 423
قلعوں 423
ماموں 423
نشستوں 423
يك 423
ﺎﺭ@@ 423
1952 422
68@@ 422
6ھ 422
بنادیا 422
ترکمانستان 422
خزانے 422
خوانی 422
ساس@@ 422
لائیں 422
لارنٹ 422
مقالے 422
مینے 422
نتی@@ 422
ٹین@@ 422
کھدائی 422
کیریبین 422
اجتہاد 421
احتیاط 421
ادیا 421
اعانت 421
دکھ 421
رائی@@ 421
ریپبلکن 421
شفقت 421
کنبہ 421
گانوں 421
1932ء 420
h@@ 420
بين 420
توب@@ 420
خودمختاری 420
سیم 420
نازک 420
ڈیو@@ 420
ہت 420
یہ@@ 420
ﮭ@@ 420
Kh@@ 419
ثم 419
دال@@ 419
ذہانت 419
ریم 419
ستا 419
غیاث 419
قارئین 419
مطبوعہ 419
نصیحت 419
ٹا@@ 419
پام@@ 419
کوالا 419
اندازی 418
انکو 418
تحریریں 418
جز@@ 418
حماد 418
ناد 418
ولر 418
کانوں 418
1959ء 417
350 417
ااور 417
ربہ 417
عليہ 417
قطعی 417
ﮦ 417
ﻧﮯ 417
1912 416
1959 416
Republic 416
ابہ 416
اج 416
املاک 416
تاثر 416
تغلق 416
رض@@ 416
سیکڑوں 416
عبدالقادر 416
نیر 416
ورِ 416
ویسٹ@@ 416
گریٹر 416
گیتوں 416
ہندو@@ 416
ہول 416
1857ء 415
1938 415
E@@ 415
بہرام 415
جرات 415
حنفیہ 415
دہائي 415
رنگوں 415
سمو@@ 415
عون 415
محفل 415
مسی@@ 415
نِ@@ 415
گڈ@@ 415
گیارہویں 415
1944ء 414
63@@ 414
اینجلس 414
تربیتی 414
تفریق 414
ساک@@ 414
سنگم 414
سہرا 414
غان 414
فرانسسکو 414
مثالی 414
مستحق 414
مسکن 414
پوچھ@@ 414
1936ء 413
1961 413
اشتراک 413
حصار 413
سروسز 413
فیڈرل 413
مصور 413
معاذ 413
چوٹ 413
ڈار 413
ہڑتال 413
1938ء 412
20ء 412
بننا 412
حم@@ 412
دئے 412
ذوالفقار 412
سفلی 412
سویں 412
متع@@ 412
مقالات 412
مہی@@ 412
نیند 412
ڈائی@@ 412
کیاں 412
گریٹ 412
یحیی 412
20,@@ 411
آرائی 411
ائ 411
المع@@ 411
جاپانیوں 411
دماغی 411
روٹ 411
فیہ 411
لت@@ 411
مظ@@ 411
وفاداری 411
کھیلتی 411
گراں 411
ہنگامہ 411
۳@@ 411
70@@ 410
O 410
O@@ 410
العابدین 410
رسل 410
سیارہ 410
عدل 410
فریق 410
محترمہ 410
ولن 410
وکی 410
ہمدان 410
یان@@ 410
1933 409
44@@ 409
اوزار 409
ة 409
تیا 409
حسين 409
خودکار 409
سنبھ@@ 409
طہ 409
لوی 409
لڑکیاں 409
لگتے 409
مآخذ 409
ملحق 409
نکولس 409
نگل 409
ونڈ 409
ویسے 409
ٹریک 409
کوری@@ 409
یکے 409
T20I 408
الذ@@ 408
بخوبی 408
بنارس 408
ترکستان 408
جِ@@ 408
سٹو@@ 408
فلک 408
قمری 408
لوی@@ 408
متوسط 408
منقول 408
نط@@ 408
پران 408
ہیریسن 408
198@@ 407
http 407
الطاف 407
ایٹ@@ 407
باہم 407
جملے 407
جینی@@ 407
دستبردار 407
روف 407
سیکھا 407
شاه 407
شخصی 407
قدرے 407
لمپور 407
مہاراجہ 407
میل@@ 407
ناقص 407
پوش 407
ڈانس 407
ڈیوس 407
1954 406
5ھ 406
اسلا@@ 406
اعی 406
البانیا 406
الیا 406
امکانات 406
اہلکاروں 406
تیونس 406
زاویہ 406
سط@@ 406
سوامی 406
سپین 406
علموں 406
فٹ@@ 406
پزیرائی 406
گرمائی 406
گوشہ 406
ﺍ 406
1921 405
اردگرد 405
برو 405
حدیثیں 405
خورشید 405
دش@@ 405
شہباز 405
طبری 405
مؤرخین 405
کاب@@ 405
کیپ@@ 405
یرہ 405
67@@ 404
امریکن 404
اُٹھ@@ 404
بلديہ 404
جلوہ 404
حنیفہ 404
ریٰ 404
ندوں 404
پاتا 404
گوں 404
III 403
تشخیص 403
تنہائی 403
خضر 403
زان 403
سہل 403
شیل 403
عُ@@ 403
قاعدہ 403
مانگ 403
مینڈ@@ 403
ْ 403
پالی 403
ڈاؤن 403
بھاگ@@ 402
توڑنے 402
ثی 402
خارجی 402
خواص 402
علیؓ 402
فنا 402
موصل 402
نٹن 402
واج@@ 402
يور@@ 402
ٹائی 402
پنجم 402
پکڑے 402
کنگز 402
کَ@@ 402
کیمی@@ 402
کیمیاء 402
گرلز 402
اسپ@@ 401
اسکندریہ 401
اعتدال 401
الک 401
ترمذی 401
خوان 401
خوشحالی 401
رال 401
ساہتیہ 401
فساد 401
كركٹ 401
پیسہ 401
55@@ 400
؍ 400
إِ@@ 400
اصلاحی 400
المن@@ 400
بہا 400
داریوں 400
سیستان 400
طی 400
فاط@@ 400
فیملی 400
لینڈ@@ 400
ٹنے 400
کلر 400
کنڈ@@ 400
کیمرون 400
یوری@@ 400
1942ء 399
8ھ 399
amp 399
ارات 399
المبارک 399
انخلا 399
بلاشبہ 399
تد@@ 399
توم@@ 399
خودکشی 399
روش@@ 399
زائرین 399
لوپ 399
نسائیت 399
وینس 399
کلیم 399
کوچنگ 399
کیل@@ 399
ہیل@@ 399
177@@ 398
\ 398
تابع 398
تجھ 398
طیب 398
لکھنوی 398
نانک 398
چارہ 398
گھانا 398
ہڈی 398
انواع 397
ایس@@ 397
بادل 397
جڑ 397
خواندگی 397
فیکٹری 397
قران 397
لوٹ@@ 397
مبر@@ 397
مینجمنٹ 397
نبھایا 397
کتنے 397
گي 397
ہمسایہ 397
یوراگوئے 397
‏ 397
اسٹریٹجک 396
اندرا 396
انفارمیشن 396
اوم@@ 396
تسا 396
شیئر 396
فاسٹ 396
مرو 396
پدم 396
گوئ@@ 396
گیندیں 396
بلخ 395
تال@@ 395
تنظیمیں 395
جائی@@ 395
شرقی 395
مراعات 395
پت@@ 395
کوت 395
Sainte 394
ar@@ 394
آراستہ 394
ثقافتوں 394
حسنی 394
ذبح 394
ذہین 394
فتویٰ 394
قدر@@ 394
لارڈز 394
لوٹا 394
مانچسٹر 394
پيري 394
کتوں 394
گشت 394
گوریلا 394
b 393
d@@ 393
z@@ 393
تحفہ 393
حت@@ 393
سیار@@ 393
میسن 393
ڈاکٹریٹ 393
ڈون 393
ہمالیہ 393
1931ء 392
59@@ 392
j@@ 392
اجرت 392
اسٹو@@ 392
بتاتا 392
ساختہ 392
سرنگ 392
سیس 392
پوٹ@@ 392
گلا@@ 392
۲ 392
176@@ 391
1928ء 391
58@@ 391
خصوصا 391
خوفناک 391
فري@@ 391
فس 391
فلاحی 391
قان 391
معراج 391
ورز 391
ٹھا 391
پردے 391
پروٹسٹنٹ 391
پیدا@@ 391
1966 390
بیلاروس 390
بیہ 390
دریں 390
سائے 390
سروں 390
لوگن 390
ميري 390
نات@@ 390
ٍ 390
پروین 390
ڈزنی 390
ڈیس 390
ڈیوک 390
کاشی 390
کریٹ 390
کوی 390
کھڑ@@ 390
کیش 390
$ 389
ابا 389
اتوار 389
اوصاف 389
بھا 389
جاب@@ 389
حض@@ 389
خریداری 389
خوشگوار 389
روان 389
رویے 389
سینڈ@@ 389
شیراز 389
ضی@@ 389
عط@@ 389
لنگر 389
معاونت 389
یٹ 389
۰ 389
ﻞ 389
23.@@ 388
75@@ 388
البانی 388
بہتا 388
خاصا 388
دیواریں 388
رح 388
سنجیدہ 388
سیراب 388
عصری 388
نجیب 388
ٹرمپ 388
پولی 388
یوکرائن 388
Sh@@ 387
c 387
اظہر 387
اقلیتوں 387
بتوں 387
بذریعہ 387
ترسیل 387
تھل 387
سالی 387
قسمیں 387
منظ@@ 387
نگے 387
ٹور 387
گزرتا 387
ہارڈ 387
ہیری 387
الیک@@ 386
ایڈمرل 386
بابو 386
بتا 386
بھوٹان 386
زگور@@ 386
زیوں 386
سٹیشن 386
شرک 386
صدر@@ 386
ضعیف 386
لیات 386
مسيسپي 386
پرندے 386
کردیتے 386
کرچکے 386
کھایا 386
ہمدانی 386
یلا 386
175@@ 385
بھگوان 385
تارا 385
تقرر 385
خانی 385
خزاں 385
راجن 385
راد 385
سات@@ 385
سادگی 385
محب 385
نارائن 385
ﻮﮞ 385
21.@@ 384
بتاتی 384
بریک 384
بين@@ 384
تند@@ 384
جال@@ 384
جہنم 384
رياست 384
قلت 384
ماء 384
ماہانہ 384
پسماندہ 384
اسمتھ 383
اسٹائل 383
اسپن 383
انیا 383
اوول 383
بدوش 383
تبلیغی 383
نوشتہ 383
ٹیڈ 383
چون 383
کینڈا 383
125 382
1929ء 382
1955 382
199@@ 382
N 382
انعامات 382
بنگ 382
بورن 382
جرنیل 382
دلہن 382
زرخیز 382
زنا 382
سیکولر 382
صدام 382
طرفہ 382
كري@@ 382
لگتی 382
نعرہ 382
واسطے 382
ونڈ@@ 382
ویسٹرن 382
کلچر 382
1921ء 381
1922ء 381
1934ء 381
خیر@@ 381
رود 381
سویل 381
قافلہ 381
قومیت 381
لطیفہ 381
ماننا 381
محصول 381
مطلوبہ 381
منتظم 381
میو 381
پای@@ 381
چشتیہ 381
ڈوب 381
گرمین 381
ہیرو@@ 381
بچایا 380
بہنے 380
ثالث 380
حاتم 380
خودمختار 380
سائیڈ 380
سرکردہ 380
فصیل 380
ٹوکیو 380
پیری@@ 380
ژ 380
ہنس 380
ہولی 380
,@@ 379
4ھ 379
7ھ 379
اتھا 379
اعضاء 379
اناج 379
جبو@@ 379
ذمے 379
لودھی 379
مطمئن 379
مَا 379
نشاندہی 379
نصی@@ 379
نفیس 379
ونڈوز 379
پروڈیوس 379
کرافورڈ 379
یونی 379
۰@@ 379
F@@ 378
القادری 378
بیداری 378
تاشقند 378
جانبدار 378
راش@@ 378
زیشن 378
طلائی 378
طنز 378
فکشن 378
قوں 378
لیث 378
نویسی 378
ورن 378
ورے 378
ویا 378
چنگ@@ 378
کیک 378
گھوڑا 378
یاسر 378
57@@ 377
باس 377
بھگت 377
سنتے 377
منیسوٹا 377
نفوس 377
وزیراعظم 377
چھاپے 377
کتنا 377
کرامت 377
کروائے 377
197@@ 376
آبادیوں 376
ابادی 376
اترا 376
اولڈ 376
اوکاڑہ 376
اینٹوں 376
برخلاف 376
تام@@ 376
تذ@@ 376
توت@@ 376
رتن 376
فرمائیں 376
نمٹنے 376
نیٰ 376
وظیفہ 376
ٹریننگ 376
1919ء 375
1934 375
22.@@ 375
آکسیجن 375
ارتی 375
الکریم 375
دنیاوی 375
شہد 375
كل 375
لاؤ 375
لك@@ 375
لوڈ 375
نظر@@ 375
نوک 375
نگران 375
وسکی 375
ِّ@@ 375
٢@@ 375
ٹرانسپورٹ 375
پائی@@ 375
پچھلی 375
گوری@@ 375
ﺪ@@ 375
105 374
اجسام 374
ادي 374
بشپ 374
دورِ 374
متوازی 374
مرا 374
مين 374
نبھ@@ 374
نقوش 374
کوہ@@ 374
کپڑا 374
186@@ 373
2,8@@ 373
66@@ 373
اتي 373
راجیہ 373
زگ@@ 373
مایوسی 373
وجا 373
گھڑی 373
۵@@ 373
2,5@@ 372
اجر 372
تجھے 372
خوشحال 372
سپاہ 372
سگ@@ 372
شاعرہ 372
عش@@ 372
چھٹے 372
ہوجانے 372
ہیڈ@@ 372
18,@@ 371
24.@@ 371
with 371
اركنساس 371
البانیہ 371
بڑھی 371
بیکر 371
جمشید 371
سیاستدان 371
سیکس 371
فرانسیسیوں 371
وحدت 371
پتھ@@ 371
کاش 371
کڑ@@ 371
ہرن 371
ہیلتھ 371
1924ء 370
1932 370
L 370
بحق 370
خص@@ 370
داماد 370
رسوم 370
رضامندی 370
ستلج 370
سراغ 370
سلسلۂ 370
سماع 370
عباسیہ 370
عروہ 370
مذاق 370
منشیات 370
ً@@ 370
پائیں 370
پلو@@ 370
.. 369
99@@ 369
احمر 369
ادوں 369
اموں 369
اونچا 369
جرسي 369
سائنسدانوں 369
مانی@@ 369
محراب 369
مصطفیٰ 369
ٹیکنیکل 369
پکڑا 369
پہننے 369
ڈول@@ 369
کارا 369
کارنامے 369
کرسمس 369
یع@@ 369
آپؒ 368
استاذ 368
الشیخ 368
برائی 368
جات@@ 368
جماعتیں 368
روانڈا 368
سانحہ 368
سکہ 368
لانڈ@@ 368
متفقہ 368
نحو 368
گیتا 368
ہز@@ 368
ﻓ@@ 368
اتر@@ 367
اریہ 367
المر@@ 367
ترانہ 367
حکومتیں 367
دلکش 367
علیحدہ 367
مفسرین 367
مکتبہ 367
نَ 367
وسٹا 367
ى@@ 367
کشمکش 367
گارڈن 367
گیاں 367
تلقین 366
رف 366
ریڈی 366
صوفیہ 366
غنی 366
نغمے 366
نوا 366
102 365
194@@ 365
بشر 365
بغدادی 365
بیو@@ 365
دوستانہ 365
صفدر 365
ضہ 365
فیئرفیلڈ 365
متضاد 365
نیوٹن 365
هِ 365
وخ@@ 365
ٹیو 365
پلانٹ 365
یز@@ 365
یوتھ 365
یوگوسلاویہ 365
آرا@@ 364
آرمینی 364
آگاہی 364
آہنگ 364
اکرام 364
بارود 364
بمقابلہ 364
بیجنگ 364
تس 364
تعصب 364
دھو@@ 364
دیکھ@@ 364
ساز@@ 364
سفی@@ 364
غیب 364
مانہ 364
مددگار 364
نسائی 364
ٹھے 364
پک 364
l 363
m 363
اہلسنت 363
بندوں 363
تانبے 363
جلا@@ 363
حبشہ 363
حر 363
دشت 363
دلیپ 363
سنگھ@@ 363
شف@@ 363
فرش 363
فقی@@ 363
لڑائیوں 363
مائی@@ 363
معلم 363
ممنوع 363
موتی 363
مہر@@ 363
ناس 363
نظرانداز 363
چیچنیا 363
کبڈی 363
ہینکوک 363
ﭼ@@ 363
آد@@ 362
بطن 362
بہنوں 362
خزرج 362
رچمنڈ 362
صداقت 362
عدالتوں 362
عزی@@ 362
مقررہ 362
نافع 362
نوش 362
نڈا 362
ٹينيسي 362
کلمات 362
کوالیفائر 362
کیمپوں 362
Region 361
اقلیتی 361
الوی 361
بقا 361
جیٹ 361
رجحانات 361
سیدھے 361
قار@@ 361
مثلًا 361
منو@@ 361
میلے 361
نواح 361
وضو 361
ّا 361
کاہ@@ 361
گیر@@ 361
ہیرا 361
ﺯ@@ 361
1926ء 360
ad 360
آدھی 360
بیٹھنے 360
تعظیم 360
دانشوروں 360
سانپ 360
سترہویں 360
سجادہ 360
عبدالملک 360
معمر 360
موسمی 360
ورثے 360
پائن 360
پرائیویٹ 360
ڈھائی 360
یانگ 360
17,@@ 359
1913 359
اؤن@@ 359
برانڈ 359
تزئین 359
توج@@ 359
خوارزم 359
رموز 359
ریزی 359
ریلی 359
زمانۂ 359
سہارنپور 359
سیاحتی 359
سیاروں 359
شاہین 359
صنعتوں 359
ماب@@ 359
متح@@ 359
موہ@@ 359
کیلے 359
گمان 359
یَ@@ 359
۱۹@@ 359
آند@@ 358
امانت 358
بیٹیوں 358
تاتار 358
جتنے 358
خوش@@ 358
دخ@@ 358
سواں 358
عالمي 358
فلو@@ 358
فیر 358
نڈے 358
چناب 358
ادویات 357
اوّل 357
بشارت 357
طلوع 357
لڑا 357
چرا@@ 357
کھنڈ 357
یی 357
kh@@ 356
خودی 356
خوشاب 356
ذرات 356
رام@@ 356
سوئٹزرلینڈ 356
سوئی 356
ندوۃ 356
نیں 356
ٹائٹل 356
چھا 356
کہلائے 356
گال 356
ہارٹ 356
۱ 356
1922 355
1927ء 355
انوار 355
اوک 355
اپر 355
بیٹ@@ 355
جرا@@ 355
خورد 355
خٹک 355
روایتیں 355
شیوں 355
علیہم 355
عِ@@ 355
مشتق 355
معمار 355
ملایا 355
ّے 355
پلاٹ 355
پُر 355
25.@@ 354
C@@ 354
آسٹریلین 354
اذان 354
بہنیں 354
ترے 354
حجاب 354
شادیاں 354
كل@@ 354
مشترک 354
مفاد 354
مقد@@ 354
مندی 354
مِنْ 354
مکرر 354
مہتمم 354
ڈرز 354
کامیابیوں 354
۷@@ 354
1923ء 353
1941ء 353
آنسو 353
ابوالحسن 353
اقرار 353
برادریوں 353
تاً 353
درسگاہ 353
دلانے 353
سیکھ@@ 353
شیائی 353
عظمیٰ 353
فلاں 353
منہاج 353
نعتیہ 353
نوی 353
نیپالی 353
ڈیلٹا 353
کامران 353
۳ 353
90@@ 352
اط 352
امیدواروں 352
انص@@ 352
برق 352
بیڑا 352
جرائد 352
راؤنڈ 352
سہروردی 352
شنل 352
متنوع 352
مہار@@ 352
میگ@@ 352
ٹیلی@@ 352
ﻴ@@ 352
آخ@@ 351
ازدواجی 351
الحسین 351
اوا@@ 351
بھا@@ 351
تھم 351
ثقہ 351
قازق 351
لیڈی 351
نقد 351
نوس 351
پہنچتی 351
ڈویلپمنٹ 351
کولا 351
گھو@@ 351
19,@@ 350
220 350
9ھ 350
آسمانی 350
الٹی 350
جہیز 350
داء 350
زاہ@@ 350
فات 350
قضا 350
قیمتوں 350
مادر 350
ويسٹ 350
چٹان 350
174@@ 349
ادبیات 349
ادیبوں 349
اشارے 349
امتزاج 349
بام@@ 349
تئیس 349
تہذیبی 349
ثر 349
رين 349
زویل 349
سبی@@ 349
سنہ@@ 349
سٹس 349
سیکنڈری 349
عات 349
فرینک 349
فصلوں 349
ناش@@ 349
کوریائی 349
۹@@ 349
اسیر 348
انتظامات 348
اڑا 348
جریدے 348
ذوال@@ 348
ساگر 348
شیواجی 348
فال 348
لغ@@ 348
مانسہرہ 348
منت 348
ولي 348
پھو@@ 348
گھی@@ 348
ہات 348
یوحنا 348
2,6@@ 347
240 347
5000 347
Mazraeh 347
n@@ 347
امدادی 347
اه@@ 347
اڈوں 347
بچی 347
تیرہویں 347
جذبے 347
جلی 347
جمع@@ 347
رستم 347
ستی@@ 347
قدیمی 347
نیٹو 347
چغتائی 347
کاف@@ 347
کاٹنے 347
کھیتی 347
ﮐﺎ 347
1931 346
ارادے 346
اساس 346
ایڈیلیڈ 346
باء 346
تاثیر 346
تعمیل 346
جنیوا 346
عج@@ 346
فیت 346
لار 346
مرہٹہ 346
مشرقي 346
مطابقت 346
مٹ@@ 346
میٹ 346
نثار 346
نڈل 346
2,4@@ 345
43@@ 345
Kandi 345
آرٹسٹ 345
افت 345
بتائے 345
توق@@ 345
جاگ@@ 345
جمعرات 345
سْ@@ 345
فاس@@ 345
مارٹل 345
موج 345
ناگپور 345
ٹم 345
ڈائی 345
ڈنٹ 345
ڑھ 345
کیوبیک 345
گہ 345
۴@@ 345
ﻢ 345
1933ء 344
2,7@@ 344
I@@ 344
JarBot 344
am 344
اعدادوشمار 344
ایتھ@@ 344
خر 344
دانہ 344
سچائی 344
عم 344
لگاتار 344
مجیب 344
مرک@@ 344
نیکی 344
ينا 344
پانڈ@@ 344
پچھ@@ 344
ڈاٹ 344
کات 344
گام@@ 344
آمنہ 343
القدر 343
تال 343
حجت 343
شایع 343
لائسنس 343
لتا 343
ماڈلنگ 343
منگل 343
میامی 343
وور@@ 343
ویدک 343
چوڑائی 343
انک 342
بھرے 342
سوز 342
فوٹو 342
لانچ 342
لیب 342
مانگی 342
کنو 342
گروں 342
ہیومن 342
آرائش 341
انڈے 341
بدقسمتی 341
بندوق 341
راجپوتوں 341
زي 341
سنے 341
شم 341
ضابطہ 341
قرا@@ 341
لیلی 341
مایہ 341
مبلغ 341
مکران 341
واری 341
ٹیبل 341
کرسکتی 341
کھنڈر 341
کیت 341
گنگ 341
یارکشائر 341
ﷲ 341
ah 340
اجل 340
اٹھانا 340
بھٹ 340
ثعلبہ 340
جذ@@ 340
حافظہ 340
حساس 340
خدشہ 340
سلا 340
فیصلوں 340
لوگو 340
مجاہ@@ 340
منڈل 340
نباتات 340
پود@@ 340
پھیلنے 340
پیٹ@@ 340
کتابی 340
کھیلنا 340
ہمدردی 340
ہُ@@ 340
اخلاقیات 339
الرحیم 339
بھکر 339
تھو 339
ستے 339
سپلائی 339
قسط 339
قصیدہ 339
مالی@@ 339
ماچ@@ 339
مجتہد 339
مهٔ 339
وزڈن 339
ووو 339
وینزویلا 339
چینگ 339
ڈومینیکن 339
کررہی 339
1939ء 338
r 338
s@@ 338
تجاویز 338
جسامت 338
صفہ 338
قافلے 338
كون@@ 338
لڑاکا 338
مردانہ 338
ونَ 338
پہنچتے 338
چھاپہ 338
ڈین@@ 338
کلائ@@ 338
کوئینز 338
یونٹوں 338
بوسٹن 337
جالندھر 337
جک 337
جھنڈے 337
دوا@@ 337
فیئرویو 337
قرضوں 337
قصر 337
كام@@ 337
مہلک 337
نَا 337
وارانسی 337
کتا 337
کرسکیں 337
کنڑ 337
گلہ 337
گنیز 337
یونائیٹڈ 337
1929 336
2,9@@ 336
آلو 336
ادراک 336
ارد@@ 336
العین 336
المص@@ 336
حا 336
خوں 336
رسد 336
زیورات 336
كَ 336
كَ@@ 336
مکھی 336
میدانی 336
نستعلیق 336
ڈرامائی 336
کررہا 336
کنو@@ 336
یمنی 336
1914ء 335
27.@@ 335
Iowa 335
استوار 335
البرٹ 335
تھانہ 335
ثناء 335
غصے 335
لنے 335
ناظرین 335
نگو 335
وزراء 335
پان 335
چرچل 335
چمپ@@ 335
ڈونگ 335
کتاب@@ 335
کز@@ 335
ﻝ 335
193@@ 334
California 334
k 334
استع@@ 334
باڈی 334
شہرہ 334
عبدالمطلب 334
علامتی 334
غربی 334
قومي 334
لنک 334
لکیر 334
مشاہدات 334
مضبوطی 334
يُ@@ 334
ٹام 334
کثافت 334
کردیتا 334
108 333
115 333
187@@ 333
اعتراضات 333
اپوزیشن 333
ایشز 333
بالٹک 333
بلو 333
تھے@@ 333
درپیش 333
دنیائے 333
طفیل 333
طیبہ 333
فقط 333
منزلیں 333
مپ 333
مۃ 333
والی@@ 333
پچ@@ 333
ڈھان@@ 333
کاؤ@@ 333
ہدایتکاری 333
ﺕ 333
1917ء 332
U@@ 332
اشتہارات 332
بدنام 332
دروازوں 332
ذر@@ 332
لش@@ 332
نسر 332
نیول 332
پہنا 332
190 331
آلپ 331
افسروں 331
اورحضرت 331
اینی@@ 331
بندوبست 331
تبتی 331
حفیظ 331
رشد 331
سنایا 331
شوگر 331
شکاگو 331
عدنان 331
میٹنگ 331
نڈز 331
کرایہ 331
کردیئے 331
کھجور 331
ہان@@ 331
ہما 331
56@@ 330
Ar@@ 330
ايڈ@@ 330
باڑی 330
جس@@ 330
ریٹائرڈ 330
سچے 330
صوفیا 330
عمیر 330
فریضہ 330
ماریا 330
منصف 330
منہدم 330
والم@@ 330
چائنا 330
چمک@@ 330
کاو@@ 330
گزرتی 330
1925ء 329
· 329
آئرن 329
آركنساس 329
آزمائش 329
اك 329
اٹھارویں 329
تغ@@ 329
تونس 329
جاسکتے 329
حْ@@ 329
دیوں 329
شائ@@ 329
صاحبِ 329
فرخ 329
مالیت 329
میرا@@ 329
نار 329
نبرگ 329
وق 329
ٹریڈ 329
پڑھایا 329
کووڈ 329
South 328
آدھے 328
اظ@@ 328
الرا@@ 328
ايل 328
بخار 328
بصیرت 328
شفیق 328
شکلوں 328
فجر 328
مضافاتی 328
معذور 328
منبر 328
پرتاپ 328
ڈوں 328
کلیئر 328
کماری 328
گراڈ 328
ﺎﻧ@@ 328
1924 327
1943ء 327
امل 327
بایزید 327
بوٹ 327
تشہیر 327
خندق 327
دوڑ@@ 327
دکھانے 327
رضاکارانہ 327
ساہ@@ 327
سیو 327
شوٹنگ 327
شيخ 327
قرطبہ 327
لوا 327
ملتانی 327
میلا 327
نہاد 327
نہيں 327
ينگ 327
پرامن 327
پینل 327
ڈھیر 327
کشیدگی 327
کمونے 327
کوفی 327
ہلکی 327
ہندوستانیوں 327
یقیناً 327
130@@ 326
54@@ 326
D 326
f 326
اسناد 326
اکر 326
برس@@ 326
برفانی 326
تخت@@ 326
حج@@ 326
دوم@@ 326
ذائقہ 326
روزمرہ 326
رینج 326
سامی 326
شعبۂ 326
طبعی 326
عرس 326
لفظوں 326
لیو@@ 326
متنازعہ 326
میتھ@@ 326
ونت 326
پیچھا 326
کھیتوں 326
‍ 326
1500 325
195@@ 325
آداب 325
آراء 325
اصفہانی 325
انگو 325
جریدہ 325
خونی 325
دبانے 325
رونا 325
سٹین 325
فلسطینیوں 325
لکی 325
مترادف 325
مشنری 325
مڈوے 325
104 324
اتباع 324
المعارف 324
امتحانات 324
بز 324
تمغے 324
طائف 324
غل@@ 324
فلوريڈا 324
قض@@ 324
قي 324
معارف 324
میلان 324
ناگ 324
وين@@ 324
کاک 324
کردوں 324
یوٹیوب 324
64@@ 323
E 323
e@@ 323
امیر@@ 323
بارڈر 323
ثقل 323
حاملہ 323
خش@@ 323
غریبوں 323
قرار@@ 323
قصے 323
قل 323
كتاب 323
محكمہ 323
مناف@@ 323
میکس 323
وقفہ 323
ٹیپو 323
پسندانہ 323
ہسپانویوں 323
آرگنائزیشن 322
اوت 322
ایت 322
اینڈریو 322
حارثہ 322
رحمانی 322
ردعمل 322
سائیکل 322
سلی 322
سیالوی 322
سیکشن 322
شیشے 322
طبر@@ 322
فلسفیانہ 322
كُ@@ 322
لب@@ 322
نش 322
پلٹ 322
پہلوان 322
ڈاکٹروں 322
کھینچ 322
کیسل 322
گذ@@ 322
78@@ 321
ارشد 321
اسکے 321
الاع@@ 321
اونچے 321
بدترین 321
جنوں 321
خُ@@ 321
داستانوں 321
رہو 321
ستھ@@ 321
سمجھنا 321
ضیا 321
فرات 321
مطالعات 321
پارے 321
چنگیز 321
ڈال@@ 321
گلستان 321
۶@@ 321
ﻼ@@ 321
👈 321
155 320
1912ء 320
360 320
y@@ 320
آس@@ 320
ائیت 320
ارون 320
جزيرہ 320
حاوی 320
رئ@@ 320
رائٹس 320
رکنی 320
سخی 320
شل@@ 320
شوز 320
لیف@@ 320
مماثلت 320
مورس 320
مہاتما 320
میرٹھ 320
نیلی 320
کمرہ 320
ہور 320
94.@@ 319
اسکو@@ 319
اوپری 319
جعلی 319
خریدنے 319
درستی 319
ریاضت 319
سولو 319
صحرائے 319
عتبہ 319
محمدی 319
مصیبت 319
موم 319
وزی@@ 319
٢ 319
پیشرفت 319
چھٹا 319
گجر 319
114 318
Minnesota 318
افری@@ 318
الحرام 318
الم 318
بیٹ 318
تمیم 318
جیانگ 318
خروج 318
درجنوں 318
رعایا 318
روزے 318
رومانی 318
فرح 318
فول@@ 318
قرب 318
محتاط 318
نامکمل 318
نانی 318
ٹري@@ 318
ٹڈ 318
کاپی 318
گراہم 318
ید@@ 318
235 317
انڈرگراؤنڈ 317
بیٹھ@@ 317
تیزاب 317
جانداروں 317
جین@@ 317
خم 317
دادو 317
دب 317
علالت 317
لنا 317
ليس 317
ماؤ 317
مخت@@ 317
وینا 317
ڈیفنس 317
۵ 317
112 316
الك@@ 316
امپائر 316
اڑیسہ 316
تھلگ 316
دیاں 316
ریکارڈنگ 316
سفر@@ 316
لمحہ 316
مجالس 316
وتوں 316
وج 316
پذیری 316
گذرے 316
گناہوں 316
25,@@ 315
450 315
ایلی 315
برڈ 315
تاتاری 315
تحصیلوں 315
تہذیبوں 315
جلسہ 315
سوراخ 315
شہزاد 315
غذائی 315
لاہوری 315
مملوک 315
پنڈی 315
کث@@ 315
کینی@@ 315
g 314
آبادکاری 314
آپری@@ 314
ائٹ 314
اسٹڈیز 314
السّلام 314
املا 314
انسائیکلوپیڈیا 314
بلوم 314
بچاؤ 314
بیروت 314
حات 314
خالصہ 314
روانگی 314
رکوع 314
سیداں 314
شبلی 314
طوسی 314
عدلیہ 314
كن@@ 314
مبصرین 314
معقول 314
نجد 314
٣@@ 314
پابندیوں 314
پولو 314
گرد@@ 314
یقینا 314
یٰ 314
1918ء 313
آئلینڈ 313
افہ 313
انگلی 313
اگ 313
تعجب 313
خانیوال 313
راشدی 313
رانہ 313
رج 313
شاپ@@ 313
شکلیں 313
پسپا 313
چش@@ 313
چھپی 313
کیری 313
a@@ 312
اندوز 312
انسپکٹر 312
اِسے 312
اٹھے 312
اہلیت 312
بسا 312
بنگلا 312
بور 312
جنید 312
حسد 312
خواہشات 312
دک 312
سپرنگ 312
سیون 312
شیفیلڈ 312
صَ@@ 312
وٹو 312
ٹرائے 312
پہن@@ 312
ڈا@@ 312
کالجوں 312
commune 311
ابنِ 311
اِن@@ 311
ایکسپ@@ 311
تالیفات 311
جید 311
صوتی 311
ممبران 311
پہچانا 311
چاکر 311
کولمبس 311
ہٹانے 311
۸@@ 311
امپیریل 310
اوتار 310
بخود 310
بروک 310
بفیلو 310
جھارکھنڈ 310
جیتی 310
حصّہ 310
صدقہ 310
ملر 310
نفی 310
ٹرانس 310
پرکاش 310
پیا 310
چھوڑے 310
کیلنڈر 310
گرجاگھر 310
ہرگز 310
یاتی 310
106 309
ak 309
اجمیر 309
الحارث 309
الکبیر 309
انچارج 309
به 309
زرداری 309
سمٹ 309
عماد 309
فرڈ 309
قائدین 309
مستعفی 309
منظوم 309
مڈ 309
نریندر 309
ٹنڈ@@ 309
ٹیس 309
پالی@@ 309
پطرس 309
کاتھولک 309
کسر 309
کوہستان 309
گورن@@ 309
گوری 309
ہلیری 309
32@@ 308
t 308
ابِ 308
اسٹر@@ 308
اصناف 308
ایریا 308
برہم 308
بنک 308
تمباکو 308
تنزانیہ 308
توسط 308
جیا 308
صورتوں 308
كرو@@ 308
مدتی 308
مروجہ 308
مہاراج 308
واب 308
ٹھہر@@ 308
پروٹوکول 308
پست 308
پنچ@@ 308
پیارے 308
کرۂ 308
ہنی 308
یئ@@ 308
ﮐﺮ@@ 308
ﻡ 308
1908ء 307
آجائے 307
ارو@@ 307
المح@@ 307
اوكلاہوما 307
اوپننگ 307
تاجک 307
سرب 307
سینما 307
شادیوں 307
ضمنی 307
طباعت 307
طر 307
عقلی 307
محکمے 307
منائی 307
منبع 307
واقفیت 307
وامی 307
وعظ 307
وين 307
ٹومب 307
پس@@ 307
چیمپیئن 307
گلوکاروں 307
یہو@@ 307
1915ء 306
جھنڈا 306
دبا 306
درجن 306
دکھا 306
شیروں 306
فارسٹ 306
فضاء 306
قاجار 306
لاء 306
لعنت 306
ماسٹرز 306
نوٹس 306
نکی 306
وکا 306
يز 306
ٹکڑوں 306
پہن 306
ڈارون 306
کوہاٹ 306
ہوت 306
107 305
اشاریہ 305
باں 305
خراسانی 305
ریشن 305
ریٹ@@ 305
ستر@@ 305
صحیفہ 305
طریق 305
عمار 305
لق@@ 305
لگاؤ 305
مسودہ 305
ملاپ 305
ولوجی 305
پاتی 305
پاپ 305
پیشاب 305
کرک 305
گرل 305
53@@ 304
T 304
are 304
o 304
اپا 304
بتدریج 304
برطرف 304
بستر 304
تمنا 304
دائر 304
سائیں 304
سع@@ 304
شعر@@ 304
عزاداری 304
غزلیں 304
فریقین 304
فہمی 304
لادن 304
نون@@ 304
ها 304
واڑ 304
وُ@@ 304
ٹیں 304
پندرہویں 304
پکا 304
کانپور 304
کوئنز 304
ﺁ@@ 304
ﺣ@@ 304
126 303
3000 303
آئر 303
آبادي 303
الرحمہ 303
بھلا 303
بہاؤالدین 303
بیور 303
تمدن 303
تِ@@ 303
دريا 303
دیپ 303
رشوت 303
سنجر 303
صفین 303
طواف 303
مشابہت 303
منزلہ 303
واٹ 303
ڈھال 303
گلزار 303
گھرا 303
NA 302
افغانی 302
الث@@ 302
اکائیوں 302
تسخیر 302
جنی@@ 302
دال 302
راتی 302
شي 302
عْ@@ 302
مدح 302
مود 302
نوشی 302
پہنے 302
چمک 302
چُ@@ 302
کپڑوں 302
۴ 302
196@@ 301
اسم@@ 301
اسٹیل 301
ايك@@ 301
ایڈ 301
بھگ@@ 301
تشبیہ 301
روزگاری 301
سد 301
سمر 301
سنان 301
طالبات 301
فرضی 301
قرأت 301
مزارات 301
مفسر 301
ممانعت 301
مویشی 301
مویشیوں 301
نامزدگی 301
وریا 301
وفضل 301
ہاک 301
28.@@ 300
b@@ 300
الاش@@ 300
ایلیٹ 300
بنی@@ 300
جمالی 300
جوی@@ 300
دالہ 300
سرب@@ 300
شاعرانہ 300
صابر 300
مشابہ 300
نجر 300
وارسا 300
وبائی 300
وزرائے 300
ووس@@ 300
پنڈ 300
کاتب 300
ہائیڈروجن 300
ہڈسن 300
ہڑ@@ 300
109 299
1915 299
ch@@ 299
p 299
آرزو 299
افادیت 299
تقویٰ 299
رؤ@@ 299
روزویلٹ 299
زہ@@ 299
ساؤ 299
صفیہ 299
صل 299
فالز 299
فرحت 299
مديرية 299
نقشے 299
ورما 299
کلثوم 299
گزین 299
گیلری 299
ﺎﻥ 299
116 298
128 298
21,@@ 298
76@@ 298
79@@ 298
98@@ 298
V 298
احاطے 298
باک 298
جاؤں 298
جمنا 298
درباری 298
سلطانہ 298
سڑکیں 298
عبدالحمید 298
فیچر 298
قبی@@ 298
قطعہ 298
مبارکہ 298
متون 298
مودودی 298
مُ 298
نووی 298
چوتھائی 298
ہوائي 298
29.@@ 297
ICC 297
Mar@@ 297
ادات 297
استعفی 297
الض@@ 297
بیوں 297
جیب 297
خدا@@ 297
روکنا 297
رگ@@ 297
زنگ 297
زنی 297
شانہ 297
على 297
عے 297
غداری 297
فیفا 297
كن 297
لاڑکانہ 297
لیون@@ 297
مٹ 297
نواحی 297
وائے 297
وجوہ 297
ٹوپی 297
پٹن 297
چٹانوں 297
کامرس 297
کھانوں 297
122 296
260 296
G 296
that 296
ئیل 296
احباب 296
ايئر 296
باطن 296
جوار 296
جڑیں 296
حوزہ 296
دھول 296
رانجھا 296
مجوزہ 296
مرہٹوں 296
منٹو 296
منڈے 296
نارتھ@@ 296
کریڈٹ 296
گائوں 296
گھڑ 296
ہڈیوں 296
ﺍﺱ 296
165@@ 295
22,@@ 295
23,@@ 295
اتراکھنڈ 295
بیاہ 295
بیلی 295
تعامل 295
رمز 295
ريس 295
طورپر 295
لهٔ 295
مشاہ@@ 295
ٹیو@@ 295
پابندیاں 295
پارسی 295
چڑیا 295
103 294
اکٹھے 294
بائیکاٹ 294
بزرگوار 294
تحائف 294
تحویل 294
تیاں 294
حاشیہ 294
داود 294
دھوپ 294
رت@@ 294
رپور@@ 294
ریک 294
صوف@@ 294
صوفیانہ 294
عمرہ 294
كولمبيا 294
كُمْ 294
معل@@ 294
ٹران@@ 294
پٹیل 294
پھلوں 294
کھولی 294
کیرو@@ 294
F 293
al@@ 293
برابری 293
برتاؤ 293
بْ@@ 293
جامی 293
حرکات 293
رساں 293
سائبیریا 293
سالم@@ 293
عائ@@ 293
غیرت 293
قری@@ 293
لٹ@@ 293
مقدسہ 293
ملانے 293
واق@@ 293
وفیات 293
ویلنگٹن 293
پومیرانیان 293
کانام 293
گریس 293
گزرتے 293
280 292
74@@ 292
railway 292
آق@@ 292
انیت 292
باش@@ 292
بھ 292
بینی@@ 292
تعلقہ 292
تلا@@ 292
خاصہ 292
دھار 292
سوب@@ 292
شباب 292
ظاہ@@ 292
غارت 292
قِ 292
لوئی 292
مْ@@ 292
نکس 292
وائسرائے 292
پائیدار 292
پروگرامنگ 292
پریری 292
کامی@@ 292
ہیکٹر 292
135 291
88@@ 291
آبا 291
ادر 291
النسل 291
الوجی 291
اھ@@ 291
تدبیر 291
تفہیم 291
حسرت 291
خدائی 291
خرد 291
ساحہ 291
شنوں 291
فتاویٰ 291
فوج@@ 291
منڈ@@ 291
پاکپتن 291
پلس 291
Bar@@ 290
اوت@@ 290
اچی@@ 290
تقاریب 290
تمغہ 290
جعفراباد 290
رش 290
علمِ 290
قزوین 290
مکالمہ 290
میرپور 290
نقطۂ 290
نوائے 290
نڈہ 290
پلان@@ 290
پوک 290
چاہیں 290
چوہان 290
کمالات 290
کھولنے 290
کھین@@ 290
ہیر@@ 290
ہیڈکوارٹر 290
یکجہتی 290
100@@ 289
164@@ 289
افغانوں 289
الاق@@ 289
المسلمین 289
برہان 289
جملوں 289
جولی@@ 289
حس@@ 289
درک 289
روحانیت 289
سقوط 289
قطار 289
وض@@ 289
وفی 289
ولِ 289
يوسف 289
ٹھٹہ 289
کارہ 289
کلیہ 289
ﷺ@@ 289
0,000 288
آث@@ 288
الار@@ 288
اونٹوں 288
بدر@@ 288
بیلجیم 288
جمیکا 288
جوابات 288
خالہ 288
سٹوڈیو 288
شاکر 288
فرشتہ 288
مشاہیر 288
معبود 288
نمو 288
واست@@ 288
پورم 288
پیٹرو@@ 288
کنواں 288
کوٹی 288
کپاس 288
ھویں 288
1857 287
des 287
آشنا 287
ائي@@ 287
ابان 287
ابت 287
ادو 287
اقامت 287
اقتصادیات 287
اندا@@ 287
تصادفی 287
جلتی 287
جڑا 287
سیکٹر 287
شائقین 287
شبیر 287
عینی 287
قبولیت 287
مشتعل 287
مچ@@ 287
نکلتی 287
ونز 287
ونہ 287
پاکیزہ 287
پوں 287
چاڈ 287
یخ 287
175 286
1916 286
26.@@ 286
آستانہ 286
ادیوں 286
بسنے 286
تاکید 286
جرو@@ 286
جریر 286
خبردار 286
دھیان 286
سرسید 286
سواروں 286
صاحبزادی 286
صغ@@ 286
ضل@@ 286
لاز@@ 286
مسرت 286
میرین 286
میز@@ 286
مینٹ 286
وك 286
ٹرا 286
پیٹری@@ 286
ہلاکتیں 286
ﺭ 286
132 285
21@@ 285
g@@ 285
آوری 285
اسپر@@ 285
اوے 285
بکری 285
بیویوں 285
علاؤ 285
ماحولیات 285
واش@@ 285
ڈرائیور 285
گوس 285
گھون@@ 285
210 284
230 284
270 284
29,@@ 284
87@@ 284
العل@@ 284
بمقام 284
تلی 284
جوڑ@@ 284
داڑھی 284
سلط@@ 284
قونصل 284
لیوس 284
مرسر 284
نعرے 284
پاناما 284
پرتھ 284
پیادہ 284
چوان 284
کرانی 284
کرپ@@ 284
گڑھی 284
گھس 284
ہيمپشائر 284
یادو 284
124 283
170@@ 283
18ء 283
1923 283
320 283
ab 283
آپریٹنگ 283
اجمل 283
اربعہ 283
انٹرٹینمنٹ 283
انٹیلی 283
اوور@@ 283
اٹل 283
اپی@@ 283
اگلا 283
ایلس 283
برتنوں 283
بص@@ 283
بلوچوں 283
بندے 283
جلیں 283
زریں 283
شاع@@ 283
طالب@@ 283
متقی 283
موس 283
نابینا 283
ناپید 283
ورت 283
ومن 283
َا 283
پارٹیوں 283
پاگل 283
پکڑ@@ 283
چوکی 283
ءکو 282
آغ@@ 282
اسکالرز 282
الین 282
اولی 282
اچ 282
تعدد 282
تنا 282
تواریخ 282
جبر@@ 282
جھيل 282
حلیف 282
خودکش 282
درود 282
دسترس 282
دشوار 282
سخ@@ 282
سلفی 282
سیب 282
شیریں 282
صاحبز@@ 282
صر 282
فراموش 282
فیاض 282
قالین 282
قربت 282
لائیڈ 282
لبنانی 282
لیلیٰ 282
منسک 282
نافرمانی 282
نکاراگوا 282
نگیں 282
وزیرستان 282
ووٹوں 282
پرستش 282
چول@@ 282
کرافٹ 282
گھٹ@@ 282
ﺠ@@ 282
2.5 281
Ali 281
اکیلے 281
ایشی@@ 281
ایکواڈور 281
توس@@ 281
ثواب 281
حلیم 281
خانیت 281
دورانیہ 281
ریج 281
سازوں 281
سیری@@ 281
صحافتی 281
عوں 281
فتہ 281
قند@@ 281
لوہا 281
ملنا 281
مولی 281
وانگ 281
واٹ@@ 281
وینی 281
ٹائی@@ 281
ٹوبا 281
ٹھنڈا 281
ٹھی@@ 281
پرائ@@ 281
ڈینی@@ 281
ڑھ@@ 281
کِ 281
گولیاں 281
یوروپ 281
129 280
ay 280
اجماع 280
اسکرپٹ 280
اسکوائر 280
الیکٹرک 280
انٹ@@ 280
ایری@@ 280
بدری 280
بیب 280
تیہ 280
جند 280
حفظہ 280
خو 280
رائن 280
رگبی 280
عہدیدار 280
ملالہ 280
مندوں 280
نوابی 280
نواں 280
وبی@@ 280
ولف 280
ولین 280
ٹرینیڈاڈ 280
پڑھانے 280
چٹاگانگ 280
کالونیوں 280
ہاری 280
ہد 280
10ء 279
1926 279
3,5@@ 279
am@@ 279
z 279
اجزا 279
اکمل 279
بارٹن 279
برمنگھم 279
دہندگان 279
رد@@ 279
سنچریوں 279
ظہر 279
عادی 279
قِ@@ 279
محرک 279
معدوم 279
مورا@@ 279
میدی 279
نووا 279
واح@@ 279
پڑھاتے 279
ڈالتے 279
کینیڈین 279
گوپال 279
117 278
160@@ 278
1906ء 278
آلے 278
الاعتقاد 278
انحراف 278
ایوبی 278
بوائے 278
تقدیر 278
جاو@@ 278
جلسے 278
حنبلی 278
روضہ 278
سپرنگز 278
سچ@@ 278
شہی@@ 278
مکھ@@ 278
پبل@@ 278
چیانگ 278
ڈان@@ 278
ڈیو 278
Township 277
was 277
ارتھ 277
الخلافہ 277
اورینٹل 277
ایپ 277
بالی@@ 277
بغاوتوں 277
بوڑھے 277
تاک@@ 277
جلی@@ 277
حي@@ 277
خلل 277
خوفزدہ 277
دیگرے 277
زیرقیادت 277
سرہندی 277
شناسی 277
فریب 277
فعالیت 277
مریدین 277
مظلوم 277
منیلا 277
نیشن 277
ووا 277
ویری 277
پرہیز 277
چپ@@ 277
کنویں 277
گنی@@ 277
ﺩ 277
1900 276
1905ء 276
اراؤنڈڈسمنٹ 276
اللّٰہ 276
ايک 276
بالواسطہ 276
بیا 276
تجاوز 276
ربا 276
ساجد 276
سبکدوش 276
ستار 276
سطحی 276
شکیل 276
فروشی 276
مسو@@ 276
معتدل 276
مناتے 276
ناگزیر 276
وپ@@ 276
کاز@@ 276
کلیسا 276
یزد 276
ﮐﻮ 276
121 275
19ء 275
24,@@ 275
69@@ 275
اترے 275
اینٹی@@ 275
بمعنی 275
تائی 275
جار 275
دنا 275
دونگ 275
راہب 275
رحلت 275
سلجوق 275
سلہٹ 275
طاس 275
فتوی 275
فقدان 275
فیکس 275
قصبوں 275
مجلہ 275
مناف 275
وسیلہ 275
ٹیچر 275
پیکر 275
چڑھائی 275
چھاؤنی 275
ڈرون 275
کمانڈروں 275
ہتھ@@ 275
ہلکے 275
ہود 275
ینہ 275
یورو 275
ﻣﺎ@@ 275
140@@ 274
1913ء 274
3,6@@ 274
3,8@@ 274
Martin 274
el@@ 274
اسلحے 274
اسمِ 274
بنام 274
حاجت 274
دلایا 274
دوس 274
شاذ 274
شنگھائی 274
شیلبی 274
مؤلف 274
مشروط 274
میم 274
نارمن 274
نن@@ 274
ودی 274
وگ 274
پروا 274
پين@@ 274
کاپٹر 274
کرامات 274
کشور 274
کینٹن 274
ﮕ@@ 274
ﮞ 274
111 273
144 273
1911ء 273
1916ء 273
77@@ 273
اتو 273
انھ@@ 273
اوج@@ 273
بدلنے 273
ترک@@ 273
حق@@ 273
خوآن 273
دھو 273
رحم@@ 273
ریف 273
علمیہ 273
نول 273
هم 273
چھڑ@@ 273
کررہے 273
گزینوں 273
گھیر 273
ہماچل 273
۷ 273
الوداع 272
انٹاریو 272
تبصرے 272
تخیل 272
تور 272
جئے 272
جائزے 272
دانتوں 272
ذرہ 272
رضوان 272
سانگ 272
سیت 272
سیو@@ 272
طبع@@ 272
طرابلس 272
لغاری 272
مرمر 272
معتمد 272
معجزہ 272
موافق 272
موسوی 272
میونسپلٹی 272
نات 272
ٹائپ 272
ٹانگ 272
ٹکڑا 272
کشا 272
کناروں 272
کہو 272
گزار@@ 272
گلوکاری 272
ہوپ 272
113 271
118 271
137 271
26ء 271
آؤ 271
الفضل 271
خدشات 271
خرم 271
داران 271
دوروں 271
رتبہ 271
رجال 271
شطرنج 271
عبرت 271
ماؤں 271
مازندران 271
مالکان 271
مشیل 271
ملز 271
پیاس 271
ڈیئر 271
کُل 271
کھیت 271
یہوداہ 271
ﺻ@@ 271
26,@@ 270
t@@ 270
اختصار 270
الحمید 270
برونائی 270
تغیر 270
تیموری 270
جوڑوں 270
شارجہ 270
عي@@ 270
لاپتہ 270
منو 270
نورجہاں 270
نکلتے 270
وزیرِ 270
ٹورنٹو 270
پرو 270
چڑ@@ 270
کائی 270
کھے 270
گامزن 270
گورو 270
گینگ 270
یلو 270
ation 269
آش@@ 269
ابوع@@ 269
المال 269
امِ 269
انڈس 269
انکے 269
بھٹ@@ 269
جاٹ 269
حِ@@ 269
روڈ@@ 269
زمانی 269
سائن 269
سالک 269
سٹوں 269
سیاسیات 269
سیرین 269
سیہ 269
شت@@ 269
شفا 269
غروب 269
مالیہ 269
مراقبہ 269
مصائب 269
موریس 269
مونی 269
وبر@@ 269
چین@@ 269
کنول 269
گلوبل 269
ہارورڈ 269
ہیل 269
138 268
4,0@@ 268
آخرکار 268
ئہ 268
اطلا@@ 268
اُسی 268
بیٹری 268
تاج@@ 268
تسلی 268
حنا 268
دارانہ 268
راؤنڈر 268
ريا 268
سریہ 268
سسیکس 268
سنو 268
سٹک 268
سیلم 268
شوری 268
صبا 268
ضوابط 268
فلورنس 268
فنڈز 268
معدنیات 268
مہمانوں 268
نجوم 268
نشانی 268
هُمْ 268
پرتشدد 268
پولا@@ 268
ڈک 268
کامبیٹ 268
کراتے 268
کردیے 268
کرس 268
کیتھیڈرل 268
131 267
150@@ 267
ائیرلائنز 267
ازواج 267
ایمن 267
ایکس@@ 267
بنوایا 267
تحقیقاتی 267
تمغاجات 267
جھگڑا 267
سلور 267
سیشن 267
شوریٰ 267
غزلوں 267
كرا@@ 267
لنکاشائر 267
لٹویا 267
مؤخر 267
متواتر 267
مشقت 267
ناز@@ 267
ولادیمیر 267
کارناموں 267
کھوج 267
1.5 266
145 266
30ء 266
الکلام 266
اپنانے 266
بریگی@@ 266
تائ@@ 266
ترجمانی 266
حائل 266
حل@@ 266
دیار 266
راتوں 266
سلاسل 266
شکریہ 266
صلیب 266
عاشورا 266
فردوس 266
قصد 266
قي@@ 266
نمونوں 266
نورانی 266
ورنن 266
وہاڑی 266
ڈوم@@ 266
کفالت 266
کھال 266
گرہ 266
گست@@ 266
یوکرینی 266
ing 265
اعتقاد 265
ایسڈ 265
برادران 265
توڑ@@ 265
تھا- 265
حمی@@ 265
خطابت 265
سرشار 265
سیدھا 265
شغف 265
شکن 265
عمال 265
غضب 265
فیروز@@ 265
قز@@ 265
مفکر 265
مقدم 265
مورو 265
مینیجر 265
ٹیج 265
کرز 265
کلیان 265
کوثر 265
کہاجاتا 265
گذرا 265
گوٹھ 265
گھی 265
85@@ 264
community 264
poem 264
آبپاشی 264
آنس 264
ائف 264
احمدیہ 264
اران 264
ازی@@ 264
بسم 264
تسمانیہ 264
تقریبًا 264
دیہاتی 264
رازی 264
رای@@ 264
زرد 264
سبیل 264
سوگ 264
سیری 264
ضا 264
فرم@@ 264
لاو 264
لمحے 264
لیلا 264
مْ 264
نائجر 264
ورسٹی 264
پیمانہ 264
چوب@@ 264
چھوڑی 264
ڈونلڈ 264
کاشتکاری 264
کرسی 264
گوپی 264
گھنے 264
ہب 264
ہمدرد 264
ﮨﯿﮟ 264
ﻘ@@ 264
750 263
North 263
آفریدی 263
اشعری 263
بلدیاتی 263
بینر 263
تاريخ 263
تبع 263
تھن 263
ثالثی 263
جامہ 263
خلفائے 263
رجسٹرڈ 263
شاد@@ 263
شد 263
عثمانؓ 263
فلیٹ 263
مبا 263
مثلث 263
معاشروں 263
منشور 263
موجد 263
نسا 263
نیلے 263
وصف 263
ومہ 263
ونڈسر 263
ٹیگور 263
پرل 263
پینتیس 263
کمک 263
گرافر 263
ہمس@@ 263
19ویں 262
Khan 262
territorial 262
آذری 262
استغ@@ 262
اعلامیہ 262
انجم 262
اکبری 262
بندرگاہوں 262
بھلائی 262
جستجو 262
جھیلوں 262
حت 262
حثیت 262
خرقہ 262
درسی 262
شرم 262
صر@@ 262
طرزِ 262
ناسا 262
يت@@ 262
پٹیالہ 262
کوچک 262
کٹو 262
123 261
142 261
City 261
entity 261
الاب@@ 261
اڈی@@ 261
بانگ 261
تجرباتی 261
خدائے 261
عدہ 261
عشرے 261
غر@@ 261
لغات 261
موج@@ 261
ونو 261
ٖ@@ 261
چھوڑنا 261
کچی 261
ڪ@@ 261
گلیوں 261
ہندومت 261
ہین 261
۶ 261
119 260
27,@@ 260
region 260
آباؤ 260
ازاد 260
الرحمه 260
برطان@@ 260
بیلا 260
تبادلے 260
تمغ@@ 260
جہادی 260
جہد 260
حمام 260
خوار 260
راڈ 260
رضویہ 260
رچ@@ 260
ساحلوں 260
شمع 260
عبدالمجید 260
قح@@ 260
لاناؤ 260
مباحث 260
مخفف 260
مطالبے 260
مغیرہ 260
موروثی 260
مہابھارت 260
ونک 260
يكا 260
ٹوی@@ 260
ٹکرا 260
پائیک 260
پارك 260
پتوں 260
پرجوش 260
پرنٹ 260
ڈراپ 260
کٹھ 260
r@@ 259
آدھا 259
انیان 259
اپن@@ 259
بانیوں 259
بدعت 259
بہاری 259
ختہ 259
داغستان 259
راف 259
رکعت 259
سعد@@ 259
سلجوقی 259
سپورٹ 259
شماریاتی 259
عاش@@ 259
عضو 259
لٹی 259
مجددیہ 259
منصفانہ 259
میس 259
وتر 259
ویبسٹر 259
ٹیا 259
پرندہ 259
پنج 259
پیام 259
پیشانی 259
چڑھا 259
کاراباخ 259
کاری@@ 259
کسویل 259
کوتا@@ 259
گپت 259
گیان 259
ھی@@ 259
133 258
25ء 258
3,7@@ 258
330 258
Al@@ 258
R 258
m@@ 258
آئن 258
ابادي 258
ابتد@@ 258
بدستور 258
بلڈ 258
بیلے 258
تنویر 258
جانشینی 258
جینیاتی 258
جیکب 258
حلیہ 258
ریب 258
ریفرنڈم 258
شکاری 258
شہداء 258
عبیداللہ 258
كی 258
لیٹر 258
محمدیہ 258
مشتبہ 258
نخ@@ 258
نوشت 258
چینیوں 258
کنگسٹن 258
گمراہ 258
گوانگ@@ 258
۲۰@@ 258
134 257
86@@ 257
آزمائی 257
آہ@@ 257
اسکیم 257
ايس 257
به@@ 257
بودھ 257
تاریک 257
جند@@ 257
دهٔ 257
سچا 257
سیکورٹی 257
فشاں 257
فہد 257
منطقی 257
ناپسند 257
نند@@ 257
نچلی 257
نکلی 257
يان 257
پروردگار 257
پسپائی 257
پلان 257
پُر@@ 257
گند@@ 257
ہواں 257
یلغار 257
ﻻ@@ 257
28,@@ 256
3,9@@ 256
ol 256
آتش@@ 256
آوازیں 256
ؤن 256
ئرنگ 256
برداری 256
ثہ 256
جانبداری 256
دائمی 256
زہرا 256
سائڈ 256
سلامت 256
سٹری 256
صدی@@ 256
عربیہ 256
غرناطہ 256
لَّ@@ 256
مخلص 256
نسکی 256
ویک@@ 256
ٹیشن 256
ٹیک@@ 256
پیٹر@@ 256
گمنا 256
ہاربر 256
12ء 255
1878 255
1905 255
201@@ 255
Y 255
sh@@ 255
ارتریا 255
ارتکاب 255
بیگ@@ 255
تاحال 255
شیف 255
كوئ@@ 255
لبریشن 255
مراٹھا 255
مستقیم 255
مسلط 255
مشاورت 255
مشاورتی 255
ولیمز 255
وڈ@@ 255
ویٹ@@ 255
ًا 255
پوتا 255
ڈیلی 255
گورڈن 255
1910 254
1910ء 254
H 254
آبن 254
آجاتا 254
آلودگی 254
ائب 254
اجن@@ 254
بلغ@@ 254
بھرت 254
دب@@ 254
درجات 254
درگا 254
سندھو 254
صدمہ 254
قراقرم 254
مکالمے 254
نائی 254
نٹل 254
ٹائیگر 254
پرا 254
چترالی 254
چرن 254
کمبوڈیا 254
کمیونسٹوں 254
کہکشاں 254
گواتیمالا 254
ھل 254
ہسٹری 254
17ء 253
1925 253
205 253
es 253
باندھ@@ 253
بروس 253
بریڈفورڈ 253
تاثرات 253
جدیدیت 253
جلتے 253
حسان 253
دھماکوں 253
صی 253
طاعون 253
علمبردار 253
لوٹنے 253
مجرمانہ 253
محافظوں 253
معاویہؓ 253
ملو@@ 253
منتظر 253
موجو@@ 253
موٹی 253
ٹینی@@ 253
پاسپورٹ 253
پنا 253
چشمے 253
ڈم 253
ڈویژنوں 253
ژی@@ 253
گلشن 253
ﺮﺍ@@ 253
1901ء 252
from 252
it 252
آمریت 252
اجنبی 252
اختراع 252
بھیم 252
خام@@ 252
دیم 252
رسی 252
رونے 252
ریات 252
سعيد 252
سنکیانگ 252
سوریا 252
شمیم 252
غلہ 252
قسمتی 252
لکھاری 252
لکیری 252
مذہ@@ 252
نح@@ 252
نری@@ 252
نشہ 252
نَّ 252
نکالی 252
نکالے 252
نیلا 252
ٹھہرایا 252
پرس 252
پلیزینٹ 252
پٹنم 252
چين 252
ڈش 252
کٹائی 252
کچل 252
گیورگس 252
ہارس 252
ہندسہ 252
203 251
آذرب@@ 251
ا- 251
ارورا 251
اسلامي 251
افزائش 251
الہند 251
ایاز 251
جنگِ 251
دختر 251
دوار 251
رایا 251
طا 251
عبدالح@@ 251
عبدالرحمٰن 251
ــ 251
فریقوں 251
مانس 251
معر@@ 251
میات 251
ٹیکسٹائل 251
چوپڑا 251
کرنٹ 251
کوڑے 251
کیولری 251
گورنری 251
ہء 251
۸ 251
ﺋ@@ 251
1900ء 250
re@@ 250
احتجاجی 250
اخوان 250
اسو 250
الهٔ 250
انوالہ 250
اہو 250
اینگ@@ 250
ترن 250
تنے 250
تونسوی 250
جنكشن 250
روزی 250
سرز 250
سرچ 250
سلطانی 250
مثالوں 250
محلات 250
مٹھ@@ 250
نرمی 250
وؤں 250
واٹسن 250
ویران 250
ينگ@@ 250
پري@@ 250
پھنس 250
کنبے 250
گیوں 250
ہراساں 250
یتی@@ 250
192 249
1927 249
o@@ 249
آریہ 249
آپکی 249
امام@@ 249
بجھ@@ 249
تحصیلیں 249
تسکین 249
جدت 249
جلدیں 249
داغ@@ 249
ریکارڈز 249
زیور 249
سرہند 249
سنا@@ 249
سیتا 249
سیکھی 249
فرشتے 249
قوس 249
لاتا 249
مپی@@ 249
نازیوں 249
وولگا 249
پچپن 249
پھینکیں 249
چلاتے 249
گیانا 249
1928 248
206 248
232 248
k@@ 248
level 248
الرسول 248
الفقار 248
اٹھارہویں 248
برگ@@ 248
بہو 248
جھڑپوں 248
دعائیں 248
رضاکار 248
رود@@ 248
سویا 248
سينٹر 248
عد 248
عقد 248
كولوراڈو 248
ماتم 248
ماندہ 248
متنبہ 248
مفل@@ 248
ملٹن 248
منجمد 248
نَّ@@ 248
نیلسن 248
وون 248
ٹکس 248
کانہ 248
کز 248
کولکاتا 248
کیاہے 248
ہد@@ 248
ہلا@@ 248
ﺎﺋ@@ 248
136 247
146 247
in@@ 247
ów 247
اورایک 247
اویس 247
ایئ@@ 247
ایتھنول 247
ایمان@@ 247
بلڈنگ 247
بوز@@ 247
بھون 247
تابعی 247
تختی 247
جاسوس 247
جرمانہ 247
جڑ@@ 247
جیو@@ 247
حاضرین 247
حالاں 247
درجهٔ 247
سٹاف 247
شہدائے 247
ضخیم 247
مانیہ 247
مرح@@ 247
نری 247
نْ 247
هَ@@ 247
وادیوں 247
پینتالیس 247
چوڑی 247
ڈیکیٹر 247
کتی 247
کلاؤڈ 247
کلبوں 247
کیرن 247
گوم@@ 247
گھومتی 247
یورو@@ 247
201 246
225 246
India 246
؎ 246
اوکلینڈ 246
اکیسویں 246
جاپ@@ 246
جول@@ 246
درمیانے 246
سیدی 246
شیبہ 246
لتے 246
ماریو 246
مظفر@@ 246
مکاتب 246
ناٹک 246
ندھ@@ 246
نیوی@@ 246
چودہویں 246
ﯿﮟ 246
185 245
94@@ 245
An@@ 245
آخوند 245
احیاء 245
اخباری 245
الائی 245
اکاؤنٹ 245
برد 245
بکتر 245
تلا 245
جلو@@ 245
جیک@@ 245
حیوانات 245
دانش@@ 245
دھکیل 245
سسر 245
سندھ@@ 245
صادر 245
صہ 245
لپیٹ 245
معائنہ 245
مپٹن 245
نمائ@@ 245
نڈر@@ 245
والد@@ 245
ٹرس@@ 245
کالعدم 245
کالہون 245
کشی@@ 245
کوٹلی 245
کھول@@ 245
کیم@@ 245
ہیلی@@ 245
159 244
1908 244
97@@ 244
i@@ 244
اجارہ 244
اسقاط 244
اعشاریہ 244
بولا@@ 244
تھامسن 244
ثق@@ 244
جوتے 244
حصص 244
خیام 244
رئی@@ 244
راویوں 244
رجسٹر 244
مدنظر 244
مرتضیٰ 244
مشاعروں 244
مناقب 244
منگنی 244
مير 244
مکئی 244
میڈیسون 244
نثری 244
وئے 244
وني 244
پہنتے 244
پینا 244
پینٹ 244
چھپے 244
کورین 244
کولکتہ 244
گھرانہ 244
ہم@@ 244
یاف@@ 244
یلے 244
158 243
167 243
1870 243
1911 243
256 243
انڈو 243
ایلک 243
ایچی 243
بالادستی 243
بہاول 243
تلمذ 243
جنگلوں 243
حوض 243
ریفری 243
زہری 243
سعی@@ 243
سونگ 243
سیما 243
صابری 243
طب@@ 243
طف@@ 243
لیونگسٹن 243
ماج@@ 243
مبل 243
مرکبات 243
مشاہدے 243
مشعر 243
مناظرہ 243
مکتوبات 243
نتھ 243
وینیزویلا 243
پرفارم 243
پلا 243
پہچان@@ 243
پیرینے 243
گراس 243
153 242
193 242
650 242
K 242
الحاج 242
اوٹ 242
بکھر 242
جنسیت 242
حمص 242
رقاصہ 242
سونی 242
عبیدہ 242
فلمز 242
لاگ@@ 242
لبیک 242
مبذول 242
ملتوی 242
مکھرجی 242
ناں 242
ندیوں 242
نگار@@ 242
نیوی 242
وکلا 242
يرا 242
يز@@ 242
پارکر 242
ڈس@@ 242
کرسٹل 242
کرگئے 242
ہاپ@@ 242
ہلکا 242
1,000 241
190@@ 241
30.@@ 241
el 241
ur 241
آست@@ 241
احمدی 241
ارسلان 241
الغنی 241
المی@@ 241
بوری 241
بیری@@ 241
تاش 241
تصویریں 241
تھا@@ 241
جنون 241
جھا 241
جھلک 241
دائرۃ 241
دیدہ 241
رافع 241
زِ@@ 241
ششم 241
علت 241
فرنچائز 241
كريك 241
مرات 241
مرتب@@ 241
معاشرت 241
ورکنگ 241
پشتونوں 241
چپ 241
کاست@@ 241
کردیں 241
ہیٹی 241
00@@ 240
184 240
1848 240
1890 240
192@@ 240
Pakistan 240
اجے 240
اشفاق 240
الامام 240
القاب 240
بازاروں 240
بخش@@ 240
برآمدات 240
ذاکر 240
زیڈ 240
سکینہ 240
سیاق 240
شاستری 240
فریمونٹ 240
فوڈ 240
قا 240
لورین 240
ملٹی 240
موز@@ 240
مڈغاسکر 240
نظروں 240
وجی@@ 240
ویکسین 240
پراگ 240
پڑتال 240
پیٹرزبرگ 240
پیٹرک 240
چھپن 240
کیلی@@ 240
کیٹ@@ 240
گٹ 240
گڑھے 240
گھیرے 240
ہج@@ 240
ہرمز 240
ہي 240
ہیروئن 240
یکسر 240
155@@ 239
262 239
Jean 239
العارفین 239
اوکسفرڈ 239
بارباڈوس 239
برائن 239
بسمل 239
جبل@@ 239
دۂ 239
رك@@ 239
ریاضیاتی 239
شیم 239
عفان 239
قومیں 239
مسافت 239
معظمہ 239
مورتی 239
مونٹی 239
نرگس 239
نسوانی 239
واد 239
واکیا 239
يلي 239
ٹھاکر 239
ٹیر 239
پیروں 239
چکن 239
چیری 239
کروا@@ 239
کھر@@ 239
گائ@@ 239
ہام 239
ﮐﮧ 239
ﺸ@@ 239
159@@ 238
1907 238
المدارس 238
تعیناتی 238
خیرپور 238
رائٹر 238
رَ 238
ریان 238
عریض 238
عیت 238
فیل@@ 238
لڑائیاں 238
مجرموں 238
مدمقابل 238
مست 238
مسلموں 238
مصطف@@ 238
موسی@@ 238
وکے 238
١ 238
ٹوباگو 238
پوت@@ 238
پیٹھ 238
چاہ 238
چوراسی 238
کھٹ@@ 238
یُ@@ 238
یگ@@ 238
ﮨﻮ@@ 238
165 237
168@@ 237
1904ء 237
255 237
Air 237
ابتداء 237
اطفال 237
اللطیف 237
اکو 237
برکات 237
تقاریر 237
تواس 237
جوشی 237
دانیال 237
دفتری 237
سلسل@@ 237
عبادات 237
علیٰ 237
عیش 237
فان@@ 237
لائنوں 237
لاً 237
لين 237
متناسب 237
يني@@ 237
ٗ 237
ٹوٹنے 237
پات 237
پرت 237
چھو 237
ڈویژنل 237
کیجئے 237
کیرالہ 237
گاما 237
ﻔ@@ 237
124@@ 236
152 236
186 236
1880 236
top 236
اردو@@ 236
افراط 236
الرزاق 236
السید 236
الڈ 236
اۃ 236
ثروت 236
جرح 236
جلتا 236
درشن 236
دعوٰی 236
راشدین 236
سوت@@ 236
شینا 236
عادات 236
عنوانات 236
لَا 236
مالے 236
محتاج 236
وادئ 236
والٹ 236
پودا 236
پوچھ 236
کمل 236
کچھی 236
گیاہے 236
یاسین 236
129@@ 235
Dar@@ 235
M 235
اردبیل 235
اوٹاوا 235
اژ@@ 235
براڈ 235
ته@@ 235
جنا 235
خاتمی 235
ده 235
رسم@@ 235
رون@@ 235
ریچھ 235
سسٹ@@ 235
شعراء 235
غالبا 235
لائل 235
لاشوں 235
لوویزیانا 235
لیپ 235
مجموعوں 235
مسجد@@ 235
معبد 235
نسٹ 235
نظارہ 235
نظمی 235
ورد 235
پختون 235
کنڈ 235
گریگوری 235
181 234
29ء 234
550 234
x@@ 234
الت 234
ايران 234
تاسیس 234
تکرار 234
جرنل 234
جوبلی 234
حقانی 234
دھارے 234
سح@@ 234
سلاو 234
سلیمانی 234
سوتیلے 234
شرافت 234
صدور 234
طریقۂ 234
قدموں 234
كال@@ 234
مصلح 234
مہربان 234
میعاد 234
نارووال 234
ناٹ@@ 234
نع@@ 234
نوبت 234
وبر 234
وکرم 234
ویٰ 234
يار@@ 234
٣ 234
ڈیر 234
کیتھ@@ 234
کیم 234
کیمسٹری 234
کیڑے 234
گنجان 234
ہیو 234
149 233
163 233
173@@ 233
187 233
ابوحنیفہ 233
اترنے 233
ارم 233
القر@@ 233
بازی@@ 233
بالشویک 233
براڈ@@ 233
بید 233
بیڈ 233
توڑا 233
جرأت 233
جیش 233
دق 233
ذری@@ 233
سیکھ 233
غی 233
فرشتوں 233
لاہ@@ 233
لوٹے 233
لیکچر 233
نسخوں 233
نٹی@@ 233
وراث@@ 233
وقاص 233
ٹاک 233
ٹوم@@ 233
کنعان 233
کیفیات 233
یف 233
156 232
194 232
92.@@ 232
96@@ 232
er@@ 232
اقی 232
الن 232
الیں 232
اوزاعی 232
ایسٹ@@ 232
جراثیم 232
حیا 232
خشکی 232
دیدی 232
ذخیرے 232
ربن 232
روپ@@ 232
رياستيں 232
سرہ 232
صحی@@ 232
طَ@@ 232
كان 232
لینی 232
مالیات 232
مرچ 232
مقننہ 232
ملزم 232
میزان 232
نڈن 232
هن@@ 232
يان@@ 232
پہلو@@ 232
پیما 232
چلو 232
چھاپ@@ 232
ڈوگرہ 232
کارکنان 232
کاریوں 232
کوشاں 232
گانہ 232
گڑ@@ 232
141 231
166@@ 231
84@@ 231
China 231
U 231
آئیوری 231
آبرو 231
آوٹ 231
اخیر 231
اسکا 231
اصولی 231
اوہ@@ 231
اڑتالیس 231
برادر 231
بزم 231
بھوشن 231
تصریح 231
ثن@@ 231
جنوو 231
حنین 231
خلیہ 231
زبور@@ 231
شناختی 231
طاقتیں 231
عبدالحق 231
فہ@@ 231
كوم@@ 231
لبر@@ 231
لونگ@@ 231
لہروں 231
ماتا 231
مزین 231
معاش@@ 231
میلاد 231
نڈو 231
پئی 231
چلائے 231
ڈرو@@ 231
کلیسی@@ 231
کنور 231
کیپلر 231
گنج@@ 231
162 230
183 230
247 230
265 230
D8 230
آغاخان 230
الشام 230
اٹھی 230
بتانے 230
برٹ@@ 230
بلد 230
بلز 230
بہانے 230
بیاں 230
ثی@@ 230
جستر@@ 230
حرب 230
حرمین 230
حیدری 230
دڑو 230
دیرینہ 230
زمیں 230
سرانجام 230
سیمی@@ 230
سیٹلائٹ 230
شِ@@ 230
شہزادوں 230
عقی@@ 230
فق 230
فیلو 230
قاد@@ 230
لوا@@ 230
مائیکروسافٹ 230
مالدیپ 230
مرغ@@ 230
میانداد 230
میشن 230
ندیاں 230
واح 230
واز 230
واہ@@ 230
ٸ@@ 230
پچاسی 230
پیداواری 230
پیغامات 230
چمن 230
کیسا 230
کیشنز 230
ہارا 230
ہوئے@@ 230
یوان 230
171 229
ابدی 229
اتاترک 229
اشتعال 229
ایٹیینے 229
بالعموم 229
بچن 229
بگٹی 229
بھار@@ 229
بیالیس 229
تبر@@ 229
حذیفہ 229
رائی 229
راز@@ 229
زبر 229
سانی 229
سومرو 229
سکر@@ 229
مینز 229
نگوں 229
يش@@ 229
پولیٹیکل 229
چری 229
چینلز 229
گوت 229
ہیوسٹن 229
یاقوت 229
۱۳@@ 229
۱۸@@ 229
221 228
West 228
unincorporated 228
اسپیس 228
الاقوامي 228
العباس 228
العرب 228
الیکٹرانک 228
اند 228
برلنگٹن 228
تعل@@ 228
جبیر 228
جھوٹے 228
دفعات 228
زائ@@ 228
سائٹس 228
ساخت@@ 228
فارمیٹ 228
لداخ 228
لے@@ 228
مبصر 228
منازل 228
منطقہ 228
نیوٹرون 228
پراجیکٹ 228
پڑتے 228
پکار@@ 228
پہر 228
پینٹنگ 228
چھاپ 228
چیل@@ 228
چیپل 228
ڈھونڈ 228
کاوشوں 228
ہاٹ 228
ہیڈلی 228
176 227
23ء 227
3.5 227
ed 227
آم 227
اسٹیفن 227
العلم 227
الوہاب 227
انقلابات 227
انٹرمیڈیٹ 227
اونی 227
باتھ 227
برہما 227
بناکر 227
تجزیے 227
جمل 227
حرمت 227
حس 227
رضاکاروں 227
رقمی 227
روشناس 227
روک@@ 227
رویوں 227
رینی 227
زخموں 227
زور@@ 227
سورتوں 227
سکم 227
صلہ 227
عدن 227
عری@@ 227
فرماں 227
كنيكٹيكٹ 227
مالکی 227
محافظهٔ 227
مصعب 227
مضر 227
ميڈ@@ 227
نوازی 227
نوج@@ 227
وئیر 227
ٹیری 227
پادریوں 227
پوتی 227
پیچ 227
چاک 227
چیئر 227
کف@@ 227
کلیٹن 227
کوئی@@ 227
گزر@@ 227
ہزار@@ 227
148 226
154 226
1860 226
195 226
27ء 226
28ء 226
آکلینڈ 226
ائیہ 226
ابي 226
ادت 226
انوی 226
انٹی@@ 226
اوڈی@@ 226
اوک@@ 226
تلافی 226
جانیں 226
رابعہ 226
سجاوٹ 226
سوتیلی 226
سکار@@ 226
سیٹ@@ 226
غزالی 226
لکھتی 226
لکی@@ 226
مخطوطہ 226
معاملوں 226
معظم 226
نب@@ 226
نوشہرہ 226
واب@@ 226
وافر 226
وست@@ 226
ٓ@@ 226
ٹلی 226
چونسٹھ 226
کاوش 226
گالی@@ 226
یائے 226
۹ 226
ﻭ 226
13ء 225
147 225
156@@ 225
189 225
1909 225
197 225
268 225
World 225
ارسطو 225
اہلیا 225
بئیر 225
باگ@@ 225
براؤ@@ 225
بلان@@ 225
توپوں 225
خلوص 225
دین@@ 225
رعایت 225
رکھو 225
ساکھ 225
سٹری@@ 225
سٹیج 225
قسط@@ 225
مرتضی 225
موریا 225
مچل 225
مہذب 225
وکی@@ 225
٤@@ 225
ٹرو 225
پانڈے 225
پرز 225
پیپر 225
ڈک@@ 225
ژوو 225
کرویئشا 225
کشتیوں 225
کیسی 225
ہائٹس 225
ﺭﺍ@@ 225
204 224
Department 224
Jersey 224
p@@ 224
آبادیاتی 224
ائیے 224
استقلال 224
اسدی 224
الفریڈ 224
المد@@ 224
اوز@@ 224
اینی 224
ایوی 224
ایڈمنسٹریشن 224
باون 224
بھاگنے 224
بیدی 224
تقری@@ 224
حقیق@@ 224
دکانیں 224
رائس 224
رادھا 224
سري@@ 224
سلامی 224
سنگیت 224
سویت 224
فالج 224
فیٹ 224
قر 224
لالچ 224
لین@@ 224
معدن 224
میمن 224
نظامت 224
نظامیہ 224
نیدرلینڈ 224
والٹر 224
وتو 224
ورجن 224
ڈیلاس 224
کتیں 224
کروشیا 224
کلیات 224
کمرشل 224
گالی 224
ہبی 224
139 223
168 223
89@@ 223
Pierre 223
ad@@ 223
اذرب@@ 223
اسیری 223
اشک@@ 223
افت@@ 223
الموت 223
الوج@@ 223
اندرے 223
ایڈن 223
تط@@ 223
دانے 223
دلت 223
دہانی 223
ریاضیات 223
ریکھ 223
شیخ@@ 223
صفا 223
فرن@@ 223
فلمساز 223
لتھووینیا 223
لینڈنگ 223
ماہِ 223
میان 223
نورمنڈی 223
وع 223
پروفی@@ 223
پلاسٹک 223
ڈالنا 223
کتب@@ 223
کرلیتے 223
ہوتیں 223
00ء 222
227 222
275 222
c@@ 222
الزماں 222
ایمی@@ 222
برج@@ 222
بیں 222
تماش@@ 222
ثبت 222
جھڑپیں 222
حقدار 222
خاصیت 222
داً 222
دستبرداری 222
زاری 222
سازشوں 222
سونیا 222
سچی 222
شمارہ 222
شنگ 222
عیاں 222
فوٹو@@ 222
فُ@@ 222
لاری@@ 222
لمی 222
لکس 222
مباحثہ 222
متحدهٔ 222
نکا 222
ویلا 222
پرنسٹن 222
پہون@@ 222
پیج 222
پینسٹھ 222
کود 222
کوٹلہ 222
کَ 222
22ء 221
5,0@@ 221
آبادیات 221
آکسائیڈ 221
ابھر 221
اطہر 221
التا 221
انقلابیوں 221
ایمرجنسی 221
بدھ@@ 221
بست@@ 221
تبسم 221
خلاء 221
رسانی 221
ریجن 221
زمینیں 221
زَ@@ 221
سانگ@@ 221
سنجیدگی 221
سڈ@@ 221
شیما 221
فنکارانہ 221
قرضے 221
لنڈ@@ 221
ممل@@ 221
ناص@@ 221
وارثی 221
واچ 221
ودہ 221
٠ 221
ٹوک 221
پرنس@@ 221
چائلڈ 221
کرائسٹ 221
گلاس 221
ہوشیار 221
15ء 220
166 220
191 220
209 220
259 220
اسکی 220
اقساط 220
بذات 220
بیتی 220
خوارج 220
دنی 220
دھاتی 220
رياستہائے 220
زرا@@ 220
سبا 220
سرہٗ 220
سنگل 220
صنع@@ 220
عتیق 220
غرق 220
غفلت 220
فزکس 220
فصلیں 220
قاب@@ 220
قاصد 220
كاس@@ 220
لوئ@@ 220
لونڈی 220
ملہ 220
نوادرات 220
نوید 220
ورڈی 220
وعدے 220
پرسکون 220
چوالیس 220
چہار 220
کمانے 220
گنتي 220
ہنزہ 220
ﺐ 220
ﺑﺎ@@ 220
207 219
ology 219
اساطیر 219
انا@@ 219
اندھا 219
انسؓ 219
انق@@ 219
ایمی 219
باری@@ 219
بربر 219
جوائنٹ 219
جوڑنے 219
حجۃ 219
رایڈر 219
ساس 219
سعدیہ 219
عاشور 219
علیم 219
عکرمہ 219
لگر 219
مانوں 219
مخطوطات 219
منیجر 219
نعمانی 219
وزیر@@ 219
ٹاس 219
پرتگالیوں 219
پلین 219
پھول@@ 219
پیٹا 219
چنئی 219
ڈلی 219
ڈٹ 219
کاد@@ 219
که 219
گوالیار 219
161 218
164 218
1907ء 218
241 218
24ء 218
domain 218
id 218
no 218
ائز 218
اسٹیشنوں 218
الائنس 218
اللَّهِ 218
المست@@ 218
الیکٹرو@@ 218
اگیا 218
برززننے 218
بیرہ 218
تروں 218
تقاضا 218
تقاضوں 218
تھانوی 218
ثوری 218
جزیہ 218
جست 218
جونپور 218
دام 218
ذاتوں 218
راشدہ 218
ستوں 218
شرکاء 218
شفاف 218
فیض@@ 218
قمی 218
للی 218
مزاحمتی 218
مستفید 218
ملك 218
نامیاتی 218
ناکہ 218
نغمات 218
ٹریٹ 218
ٹنڈو 218
ڈیری 218
کلہو@@ 218
کھرل 218
کھلا@@ 218
گرتا 218
گھر@@ 218
گیل@@ 218
ہیرس 218
یاس@@ 218
182 217
1897 217
253 217
32.@@ 217
bot 217
les 217
é 217
آمی@@ 217
الفر@@ 217
انفرادیت 217
بناوٹ 217
بولتا 217
بیچنے 217
تھام@@ 217
جرگہ 217
جھگڑے 217
حوصلے 217
رہائشیوں 217
ساج@@ 217
سودا 217
سوي@@ 217
سوی 217
سیوطی 217
شمارے 217
عتی 217
فصیح 217
لاج 217
مرتکب 217
میڈرڈ 217
نمیبیا 217
واڑہ 217
پکچرز 217
پہچانے 217
چھی 217
ڈائری 217
ڈیزائنر 217
کسب 217
کلیر 217
کہلایا 217
گائی@@ 217
گوبند 217
گڈ 217
2.2 216
London 216
الاز@@ 216
اوقاف 216
اینٹ@@ 216
باجی 216
باط@@ 216
تاری@@ 216
توس 216
جلانے 216
جیم 216
داز 216
دریا- 216
دیوا 216
رور@@ 216
رہبر 216
زمینداروں 216
ساؤ@@ 216
ستیہ 216
سمین 216
سینٹ@@ 216
شائستہ 216
فلکی 216
لَ 216
مالدووا 216
مخفی 216
ندو 216
نیشابور 216
وردی 216
ٹیکل 216
چتر@@ 216
چمڑے 216
کرسچین 216
کمپیو@@ 216
کمیٹیوں 216
کي 216
کھنہ 216
ہرہ 216
یونگ@@ 216
127 215
1895 215
v@@ 215
ائیل 215
استح@@ 215
اکائیاں 215
اکابرین 215
ایسٹرن 215
اینٹ 215
بانہ 215
بلہ 215
بپتسمہ 215
تات@@ 215
تلخ 215
ثور 215
حری@@ 215
حوی@@ 215
رینا 215
سوچ@@ 215
شارٹ 215
شس 215
شکتی 215
فیم 215
قوالی 215
قوتیں 215
كمپ@@ 215
له 215
مارگریٹ 215
مٹھی 215
نال@@ 215
وطنی 215
ولیا 215
وڑ 215
ُّ@@ 215
پالا 215
پھٹ 215
کارخانے 215
کٹو@@ 215
کھاتا 215
ﻤﺎ@@ 215
178 214
1909ء 214
245 214
305 214
ur@@ 214
آئي 214
آمدورفت 214
الاسد 214
المجید 214
امنی 214
حذف 214
حضرموت 214
حیاتی 214
خریدی 214
خلف 214
دجلہ 214
دوان 214
ستاون 214
سخاوت 214
سرجری 214
سرِ 214
صنعاء 214
عمرانیات 214
فرزند@@ 214
فرماتا 214
قتادہ 214
لاب 214
مابعد 214
مدن 214
مم@@ 214
نتیجتاً 214
نسلیں 214
نگری 214
وظائف 214
ّر 214
ٹھہرے 214
پروٹین 214
پوم@@ 214
ڈوم 214
کرانا 214
کشیدہ 214
کلید 214
212 213
217 213
30,@@ 213
county 213
j 213
آرکی@@ 213
ابت@@ 213
انارکلی 213
ایونٹ 213
بط 213
تلہ 213
تہواروں 213
جك@@ 213
جمال@@ 213
جونی@@ 213
خواہاں 213
رملہ 213
زبر@@ 213
سامراج 213
سرخ@@ 213
شبہات 213
مید 213
نائی@@ 213
ٹرنر 213
پھینکنے 213
چروکی 213
کبار 213
کھوکھر 213
یادداشت 213
یاسمین 213
218 212
272 212
at@@ 212
tube 212
ؒ@@ 212
ابر 212
ابھری 212
اسٹون 212
اکاؤنٹس 212
ایش 212
ایو 212
ایگل 212
بھاشا 212
تنقی@@ 212
جع@@ 212
جنووو 212
جھوٹا 212
خوبیوں 212
خوردہ 212
دوزخ 212
راہیں 212
رع@@ 212
زڈ 212
ستاسی 212
سفار@@ 212
سمندروں 212
سورس 212
صحرائی 212
طاہ@@ 212
طوف@@ 212
لیک@@ 212
ماونٹ 212
مینگ@@ 212
ناگوار 212
نگہداشت 212
٦@@ 212
کشائر 212
کمن@@ 212
کیب 212
ہیون 212
1200 211
120@@ 211
202 211
222 211
254 211
Sea 211
ani 211
آجاتی 211
انتی 211
اڑتیس 211
اہلی 211
اینج@@ 211
بااختیار 211
باگ 211
جنی 211
حز@@ 211
خامنہ 211
رائٹرز 211
راو 211
زت 211
سرسوتی 211
سمر@@ 211
سینتالیس 211
صاح@@ 211
فوقیت 211
مملكت 211
میناروں 211
نجفی 211
١٩@@ 211
پکی 211
چندی 211
چوڑا 211
ڈرہم 211
کمیونزم 211
ہاب@@ 211
ﻬ@@ 211
1876 210
242 210
370 210
4000 210
ءکے 210
آٹو@@ 210
اشکال 210
افق 210
امبیڈکر 210
اکتالیس 210
بالر 210
بیویاں 210
جواد 210
حماس 210
خبر@@ 210
راکھ 210
رواداری 210
ستونوں 210
سعدی 210
سونپی 210
صوب@@ 210
غلا@@ 210
قائداعظم 210
مبالغہ 210
مرویات 210
مفاہمت 210
مَنْ 210
میگھ@@ 210
ويا 210
ٹیکسلا 210
پالتو 210
پربھ@@ 210
پیڈیا 210
چائ@@ 210
چیبا 210
ڈھونڈنے 210
کورسز 210
کیو@@ 210
کیچز 210
یوس@@ 210
ﻲ 210
117@@ 209
11ء 209
38.@@ 209
Qaleh 209
S 209
University 209
ari 209
on@@ 209
ادیان 209
انسٹ@@ 209
اڑی 209
اگے 209
ایمیزون 209
بري 209
بریج 209
بوب@@ 209
جبوتی 209
جیون 209
حبان 209
حدی@@ 209
حفص 209
درو 209
شار 209
عیال 209
لکشمن 209
موسمیاتی 209
مہاج@@ 209
نمائندگان 209
نیاں 209
نیلم 209
ویمنز 209
ّوں 209
٠@@ 209
ٹرن 209
پات@@ 209
پروفیشنل 209
چاب@@ 209
چور@@ 209
چوہتر 209
چھپنے 209
کشتیاں 209
کنفیڈریشن 209
کوٹا 209
169 208
1901 208
? 208
آفندی 208
آپکے 208
اثناء 208
ارتقائی 208
اشی@@ 208
المج@@ 208
الوا@@ 208
برسبین 208
ترکمان 208
ستانوے 208
سٹا 208
سیلون 208
ضلع- 208
عِ 208
لاؤس 208
مؤقف 208
متوازن 208
موریہ 208
میوزیکل 208
نمازِ 208
نمی 208
هر 208
وکٹر 208
چچ@@ 208
گھڑسوار 208
ہروں 208
ﺰ@@ 208
172 207
area 207
ائیرویز 207
اریاں 207
انگور 207
اڑنے 207
بابری 207
باسلام 207
بدلا 207
برسٹل 207
بندش 207
بود 207
بہہ 207
تاریخِ 207
ترج@@ 207
حديث 207
خال@@ 207
دلا@@ 207
دھاتوں 207
روح@@ 207
زیو 207
ساغر 207
سستی 207
سونپ 207
سکولوں 207
شعار 207
شکایات 207
عمل@@ 207
غَ@@ 207
متا@@ 207
مشر@@ 207
مطلوب 207
مہنگی 207
ناکافی 207
نڈوں 207
وائی@@ 207
ویرا 207
چھیالیس 207
ڈائری@@ 207
ڈکنسن 207
کلوگرام 207
کنج@@ 207
کوم 207
کونسلوں 207
گلین 207
گھرانوں 207
ﻥ 207
143 206
21ء 206
284 206
اخلاص 206
اسٹوڈیوز 206
البا@@ 206
القدس 206
امبر 206
اندی@@ 206
اي 206
اٹھاون 206
ایز@@ 206
بدلتے 206
بیلجیئم 206
تبوک 206
رشتوں 206
زاوی@@ 206
زبی@@ 206
ساؤنڈ 206
سمجھتی 206
سویلین 206
سکیورٹی 206
شاپيل 206
شمارندی 206
شِ 206
عَلَ@@ 206
ــ@@ 206
فیل 206
قبروں 206
مبادلہ 206
مسلمان@@ 206
ندگی 206
ندی@@ 206
نفع 206
هُ@@ 206
ویڈیوز 206
پنی 206
پِ@@ 206
پیلے 206
چرچا 206
ڈب 206
ڈوی@@ 206
ڈہ 206
کمروں 206
ے- 206
ﺩﯾ@@ 206
169@@ 205
1880ء 205
196 205
198 205
Japan 205
ab@@ 205
na 205
us 205
ائر@@ 205
اتارا 205
اجا 205
افروز 205
البلا@@ 205
الما 205
اناسی 205
اٹھائی 205
اہل@@ 205
برن@@ 205
برہنہ 205
بوائز 205
بینظیر 205
ترجی@@ 205
حان 205
دريائے 205
دود 205
سازگار 205
سمیع 205
سینتیس 205
شاہجہاں 205
شنا@@ 205
شناس 205
شنبہ 205
فرائ@@ 205
قبریں 205
كوٹ 205
لاح@@ 205
لد 205
لنگٹن 205
لوي 205
مبہم 205
متص@@ 205
متفرق 205
مریخی 205
موز 205
موق@@ 205
ناکھون 205
نووڈ 205
وث@@ 205
ََ 205
پرائز 205
پچانوے 205
ڈریگن 205
ڈیٹ 205
کرلیتا 205
کوئلے 205
کوال@@ 205
کوپر 205
کیمبل 205
ہون@@ 205
یمی 205
ۡ@@ 205
1876ء 204
1906 204
95@@ 204
X@@ 204
اخ 204
استعداد 204
انتالیس 204
انجین@@ 204
اندیشہ 204
انگلیوں 204
اولا@@ 204
ایما 204
ایگزی@@ 204
باش 204
بدایونی 204
تابکاری 204
تاریکی 204
توت 204
تھریس 204
رکاوٹوں 204
رہن 204
زیبا 204
سیلز 204
صحاب@@ 204
صوبیدار 204
طلبا 204
عمو@@ 204
فيئرفيلڈ 204
مالوہ 204
منابع 204
میڈ 204
وسٹ 204
ينَ 204
ٹوبہ 204
پافوس 204
پرہ@@ 204
پڑھتا 204
پیلس 204
پینٹنگز 204
ڈیوٹی 204
ڈیڈ 204
کنندگان 204
کوا 204
کہلانے 204
گاتے 204
گنیش 204
ﺮﯾ@@ 204
145@@ 203
173 203
213 203
244 203
ia 203
اسٹری@@ 203
اسپیشل 203
بران@@ 203
بٹھ@@ 203
بیئر 203
تنبیہ 203
ثنا 203
حسی@@ 203
خلیجی 203
راجندر 203
رغبت 203
سعی 203
سوئس 203
شق@@ 203
عباد 203
فِي 203
كس@@ 203
لاشیں 203
لڑنا 203
مقتول 203
ملن 203
نوس@@ 203
پروشیا 203
پریشانیوں 203
چلاتی 203
چھیاسی 203
کثیر@@ 203
گھوش 203
یوپی 203
14ء 202
177 202
1812 202
1902ء 202
er 202
آٹا 202
انشاء 202
ایف@@ 202
باسی 202
بکھ@@ 202
تہتر 202
جاگیردار 202
دینیہ 202
روئی 202
سائنسدان 202
ساحر 202
ساگ@@ 202
صنم 202
عض@@ 202
عیب 202
لاج@@ 202
لور 202
مائیکرو 202
مکاؤ 202
مکے 202
میگا 202
نوار 202
هملٹن 202
ولوں 202
پروڈ@@ 202
پڑوس 202
کایا 202
کرسچن 202
کند 202
کوالیفائی 202
کوکا 202
گام 202
ھوا 202
139@@ 201
151 201
163@@ 201
1896 201
271 201
310 201
34.@@ 201
آٹو 201
اسپنر 201
العالم 201
بازاری 201
باسٹھ 201
بلاگ 201
بوقت 201
بولتی 201
جنو@@ 201
جوق 201
دند@@ 201
راول 201
رینڈولف 201
زچگی 201
سامراجی 201
سوئی@@ 201
سوچنے 201
سویر 201
سیڈر 201
شاء 201
شکوک 201
فنانس 201
قطبی 201
ملیہ 201
موہڑہ 201
ناکارہ 201
نیکو@@ 201
ويلي 201
پاؤنڈ 201
پیٹرسن 201
ڈيا 201
گروپس 201
گوج@@ 201
ہڈیاں 201
یاس 201
154@@ 200
302 200
36.@@ 200
ئے@@ 200
افرادی 200
العاصؓ 200
انط@@ 200
اوم 200
اٹھاسی 200
اکنامکس 200
اکو@@ 200
بوئ@@ 200
بیاسی 200
تریسٹھ 200
جھون@@ 200
خالص@@ 200
ختی 200
خون@@ 200
دلی@@ 200
دکنی 200
دہے 200
دیدار 200
رسالوں 200
زہیر 200
سباق 200
سمجھوتہ 200
سنٹ 200
شارع 200
شکنی 200
فان 200
فرہنگ 200
قان@@ 200
لاکر 200
موٹ 200
نڈنگ 200
ٹونی 200
پالیسیاں 200
پینٹ@@ 200
چیمبر 200
گارڈز 200
گریہ 200
ہیں@@ 200
158@@ 199
1903ء 199
269 199
299 199
As@@ 199
Se@@ 199
اجتناب 199
الغفار 199
الہی@@ 199
اڈ 199
بیونا 199
تحصی@@ 199
تسے 199
تھیا 199
جرن@@ 199
جسون@@ 199
جعفریہ 199
دہر@@ 199
دہندہ 199
ذلت 199
رض 199
روما 199
زندگیوں 199
شتی 199
صفوں 199
طبیعی 199
عطارد 199
فاعل 199
لوف 199
لٰ@@ 199
ماہرِ 199
معیارات 199
ميكسيكو 199
میٹھے 199
نرس@@ 199
نہی 199
ویدوں 199
ٴ 199
پورٹر 199
چرز 199
چلنا 199
چھیاسٹھ 199
ڈالیں 199
کرین 199
کلیولینڈ 199
گلا 199
ﭘﺮ 199
ﻮ 199
ﻮﺍ@@ 199
ﻮﺭ 199
1- 198
174 198
1877 198
1904 198
199 198
252 198
380 198
39.@@ 198
420 198
ate 198
أُ@@ 198
اسلامیات 198
اضطراب 198
انچاس 198
اولادیں 198
اوہ 198
بهی 198
بوسنیائی 198
بیراج 198
تینتالیس 198
حجرہ 198
حریت 198
دُنیا 198
ذوالحجہ 198
رسیدہ 198
رشی 198
سربوں 198
سٹو 198
سینیٹر 198
صہیونیت 198
عر 198
عرب@@ 198
علیؑ 198
فاطمی 198
فردوسی 198
فرنگی 198
فش 198
فيئرويو 198
فیلڈنگ 198
مولان@@ 198
موٹروے 198
موٹے 198
میانی 198
میٹم 198
واعظ 198
يس@@ 198
ٹوٹ@@ 198
ٹیگ 198
پروں 198
پيداوار 198
چھیانوے 198
کلنگ 198
کولمبو 198
گورباچوف 198
یونگ 198
1898 197
215 197
228 197
249 197
290 197
326 197
340 197
P 197
W 197
اذیت 197
اطی 197
الہام 197
اکہتر 197
ایئرپارک 197
ایری 197
بخارات 197
برنزوک 197
بوج@@ 197
بینکنگ 197
تالی@@ 197
تھری@@ 197
ثاقب 197
جزيرهٔ 197
جزیرهٔ 197
جہت 197
خلائق 197
دؤ@@ 197
دشواری 197
دن@@ 197
رنگت 197
رچرڈسن 197
ریکار@@ 197
سائمن 197
سادھ@@ 197
ساکن 197
ستگی 197
سیاں 197
شال 197
صفوان 197
عرفی 197
عمودی 197
فاش 197
فلکیاتی 197
فواد 197
قامت 197
كا@@ 197
مدفن 197
مروت 197
نالی 197
نعم@@ 197
نیشاپور 197
ولم 197
ویسی 197
يلا 197
ینا 197
2- 196
224 196
Es@@ 196
י@@ 196
آسٹن 196
الاف@@ 196
الصمد 196
ایو@@ 196
بنجر 196
بولو 196
تصفیہ 196
جھے 196
درے 196
دستکاری 196
رم@@ 196
رویل 196
سینی 196
سیک@@ 196
شوٹ 196
عباسیوں 196
فریدی 196
فلمور 196
مادھ@@ 196
مبار@@ 196
مشکوک 196
مقر@@ 196
موسیقاروں 196
مہنگا 196
میٹھا 196
ندي 196
نسق 196
نظریۂ 196
نوف 196
نیزہ 196
ويك 196
وچی 196
يونيورسٹي 196
ٹینکوں 196
پاول 196
پراسرار 196
پہنچانا 196
پہنچیں 196
ڑیا 196
کائناتی 196
کانگ@@ 196
کتبہ 196
کرمانشاہ 196
کند@@ 196
کونکورڈ 196
گرين 196
گندھارا 196
گوئٹے 196
گوادر 196
ہیو@@ 196
157 195
188 195
1895ء 195
216 195
37.@@ 195
Sar@@ 195
ism 195
اسباق 195
اسي 195
الزمان 195
اڑسٹھ 195
اکیاسی 195
بھروسا 195
بھون@@ 195
تصویری 195
تنظیمی 195
توفیق 195
جائیداد 195
حدیبیہ 195
ذا 195
سائل 195
سہی 195
صلیبیوں 195
عشری 195
قوتِ 195
لبلن 195
لوط 195
مب 195
محصولات 195
معالج 195
مودود 195
موشن 195
مہاراشٹرا 195
مہارانی 195
واللہ 195
وزرا 195
ٹرپل 195
پانا 195
چورانوے 195
کڈ@@ 195
گزری 195
ہاتھیوں 195
﴾ 195
16ء 194
273 194
اجیت 194
اسکالرشپ 194
الٹا 194
اٹھانوے 194
باسکٹ 194
تعطیلات 194
تنا@@ 194
تیمیہ 194
جما 194
جمہور 194
جگن 194
خاکی 194
سرکشی 194
سرکل 194
سما 194
سمن@@ 194
كيم@@ 194
لاؤ@@ 194
مباحثے 194
مش 194
مشہور@@ 194
منڈو 194
مچھ@@ 194
ناشر 194
نظامِ 194
وبہ 194
ولس 194
ٰۃ 194
ٹاسک 194
پاؤ 194
پرے 194
پنچ 194
پٹو@@ 194
پیسیفک 194
چنا@@ 194
چنیوٹ 194
ڈوک 194
کٹک 194
کٹی 194
ہاوس 194
ﻮﺭ@@ 194
1800 193
211 193
223 193
239 193
251 193
National 193
ak@@ 193
w@@ 193
آٹھواں 193
احساسات 193
المغ@@ 193
النہر 193
انیاں 193
ایرو@@ 193
بلندیوں 193
بنیادیں 193
بگڑ 193
تاس 193
جبریل 193
جیس 193
زبیدہ 193
ستتر 193
سرکٹ 193
صباح 193
غدر 193
فيصل 193
فیضان 193
كوس@@ 193
لدھیانہ 193
مائکرو@@ 193
محکموں 193
مصلحت 193
معجز@@ 193
نزد 193
نشاۃ 193
نشتر 193
نوحہ 193
وحشی 193
ويل@@ 193
چولا 193
گائیکی 193
گروس 193
گِ@@ 193
گھٹنے 193
یادگاروں 193
277 192
4.5 192
ans 192
da 192
es@@ 192
آسکر 192
أ 192
اح 192
اشک 192
افرا@@ 192
اکے 192
ایی 192
بخشا 192
بنوری 192
تعالٰیٰ 192
تمیز 192
تپ@@ 192
جاننا 192
جرنیلوں 192
جزی@@ 192
جیر@@ 192
حوں 192
دکانوں 192
ذکر@@ 192
روہ@@ 192
زیتون 192
ساتواں 192
سفرنامہ 192
سموئیل 192
سڑسٹھ 192
شُ@@ 192
فاتحین 192
فیر@@ 192
لائیو 192
لڈ@@ 192
ماڑی 192
متصادم 192
نائیڈو 192
نسبی 192
نشریاتی 192
نقیب 192
وه 192
ٹویٹر 192
ٹی20 192
پورٹ@@ 192
پوشی 192
پڑاؤ 192
پھوپھی 192
پیکی@@ 192
چانگ@@ 192
چڑھنے 192
چھتری 192
کروڑوں 192
کلار@@ 192
ہاؤ@@ 192
243 191
291 191
35,@@ 191
Park 191
ir 191
اثاثوں 191
استوائی 191
اشکنازی 191
اقلی@@ 191
انار 191
اوريگون 191
اولمپكس 191
اوں 191
ايم 191
ایجنسیوں 191
بائیو 191
برائٹن 191
بریڈ 191
بونے 191
بہاولنگر 191
بیلی@@ 191
ججوں 191
جنتی 191
خروش 191
خض@@ 191
زبرگ 191
زوج@@ 191
سوز@@ 191
سٹریٹ 191
شہز@@ 191
طور@@ 191
غنم 191
فلپس 191
لط@@ 191
مظلو@@ 191
مولوتوف 191
مونٹینیگرو 191
ناچ 191
وجہہ 191
پٹی@@ 191
پگ 191
کانت 191
کانی 191
کلا 191
کیمڈن 191
کینیڈی 191
گاؤ 191
گرافک 191
گزرگاہ 191
گزی@@ 191
ہیلن 191
ہےـ 191
1.6 190
1899 190
آفاقی 190
ائى 190
ابدال 190
ارسال 190
اشتہار 190
امريكي 190
انتباہ 190
انسٹھ 190
انیتا 190
اوي@@ 190
اٹھنے 190
اکسٹھ 190
بابائے 190
برہمنوں 190
بیسٹ 190
تھال 190
تیئیس 190
حمد@@ 190
خطاط 190
خواجهٔ 190
دہستان 190
زکوٰۃ 190
ساو 190
سرسبز 190
سنگی 190
شیبانی 190
شیل@@ 190
ضے 190
عرفات 190
قیمتیں 190
لابی 190
مشنوں 190
موف 190
نقادوں 190
ولي@@ 190
ينہ 190
پاروں 190
چودھویں 190
چھوٹ 190
ڈاکو 190
کاشف 190
کيا 190
ہُ 190
116@@ 189
2.3 189
208 189
279 189
301 189
ابیلا 189
اتی@@ 189
اسٹور 189
اشت 189
انبوہ 189
اڈہ 189
اکس@@ 189
ایجنٹوں 189
ایرک 189
بولیویا 189
بکھرے 189
بیڈفورڈ 189
بیکٹیریا 189
تسم@@ 189
تقابلی 189
تیاریاں 189
دلو@@ 189
دیال 189
رونِ 189
ستان@@ 189
سجایا 189
سرکوبی 189
سلمی 189
سنجے 189
شیڈول 189
ظہ 189
عالمِ 189
قرضہ 189
مانع 189
محسود 189
معالج@@ 189
میکان@@ 189
نیات 189
وران 189
ویرا@@ 189
يهٔ 189
َّ 189
چيسٹر 189
کارآمد 189
کولن 189
کینز 189
گرنتھ 189
گلوسٹر 189
ہذا 189
1.2 188
233 188
Chapelle 188
aq 188
as@@ 188
un@@ 188
آق 188
آڈیو 188
افري@@ 188
الات@@ 188
اکاون 188
بخار@@ 188
بسایا 188
بہاء 188
ترپن 188
تکیہ 188
جمی 188
جور 188
خاصے 188
دیوالی 188
دیکھتی 188
روتے 188
زاں 188
زنجیر 188
سالی@@ 188
سوٹ 188
عا 188
عبادہ 188
فتح@@ 188
فروش 188
فریاد 188
فزی@@ 188
لازوال 188
لانی@@ 188
لیکچرر 188
مارش 188
محاذوں 188
مراکشی 188
مسمار 188
مسن 188
نشیں 188
هَا 188
وریوں 188
ٹیری@@ 188
پرکشش 188
چاہی 188
چتا 188
ڈیزائ@@ 188
ڈیکلب 188
کاز 188
کاسٹ@@ 188
کاہن 188
کرتاہے 188
کرلے 188
گاری 188
گوب@@ 188
ہرمز@@ 188
ہوگ@@ 188
ﺎﺗ@@ 188
ﻣﯿ@@ 188
231 187
248 187
292 187
430 187
San 187
Tolombeh 187
il@@ 187
الوطنی 187
اندازوں 187
انک@@ 187
ایڈورڈز 187
بابت 187
بختیار 187
تاتاریوں 187
تباد@@ 187
توان 187
جوس 187
جہان@@ 187
دادوں 187
درجۂ 187
ذب 187
رضیہ 187
ساروس 187
سالمات 187
سالماتی 187
سرخی 187
سماوی 187
سگنل 187
سیئ@@ 187
شاگردی 187
صلے 187
صہیونی 187
فائدے 187
فرڈینینڈ 187
كلا@@ 187
محلوں 187
مدافعت 187
مزاری 187
معذرت 187
نائیجیریا 187
نشی@@ 187
واجد 187
واصل 187
واضع 187
وَلَ@@ 187
ٹرانزٹ 187
پالیا 187
پریش 187
پيرش 187
پڑیں 187
پیپ@@ 187
کریمین 187
کمیونل 187
کیساتھ 187
گولیوں 187
ہیرے 187
1890ء 186
un 186
آنرز 186
افیون 186
انفیکشن 186
انڈر@@ 186
اکیانوے 186
تکلف 186
خواں 186
خوری 186
دربارِ 186
دلا 186
دیوم@@ 186
رزمیہ 186
روہ 186
سلمیٰ 186
شکی 186
شیری 186
طوائف 186
قادی@@ 186
لفی 186
مانگا 186
مجتہدین 186
مدین 186
مصادر 186
مہموں 186
نوکر 186
واؤں 186
ورکرز 186
وست 186
وڈا 186
ویژیول 186
پائپ 186
چانگ 186
کٹوں 186
گیئ@@ 186
گیا- 186
ہوس 186
ہینڈ 186
یوکرائنی 186
114@@ 185
214 185
263 185
285 185
286 185
be 185
آشا 185
ابوبکرؓ 185
اتم 185
اسٹونیا 185
الہیات 185
انیائی 185
اوٹر 185
اکیلا 185
بختیاری 185
بڑھانا 185
بینکاری 185
بیٹھتے 185
تائی@@ 185
تعطل 185
تعمیری 185
جما@@ 185
جماع 185
جھڑپ 185
حیان 185
خاوند 185
رجی 185
رفع 185
رہؓ 185
ریز@@ 185
زنجان 185
سیڑھی 185
شملہ 185
صوابی 185
صہی@@ 185
عاب@@ 185
عاشورہ 185
غدیر 185
فصاحت 185
فوجداری 185
فک 185
قلبی 185
كلنٹن 185
لکے 185
مغلوب 185
نسک 185
نواز@@ 185
واڑی 185
وقی 185
پلیس 185
پچہتر 185
پیاز 185
کاغذات 185
کانفرنسوں 185
کلبی 185
کلچرل 185
کھائے 185
کیلا 185
ہين@@ 185
﴿ 185
1893ء 184
234 184
Qarah 184
اسما 184
اسن 184
الواحد 184
الين@@ 184
اگنی 184
بولٹ 184
بوٹ@@ 184
تحفے 184
ثریا 184
جامعهٔ 184
جانوں 184
جمی@@ 184
حاج@@ 184
خانق@@ 184
دورانِ 184
ذِ@@ 184
رپورٹر 184
سرنگوں 184
سیز 184
شیک 184
طاہرہ 184
عزائم 184
عشرت 184
فلپائنی 184
كپ 184
لاتعداد 184
مکروہ 184
ناف 184
ناو 184
نشانیاں 184
وعہ 184
پاگ@@ 184
پرب@@ 184
پیدائ@@ 184
پیٹرز 184
پیچی@@ 184
چھلانگ 184
کارلٹن 184
کامکس 184
کامیابیاں 184
کرچکا 184
کنے 184
گنا@@ 184
ﻳ@@ 184
1830 183
1885ء 183
20ویں 183
283 183
288 183
303 183
33.@@ 183
Pennsylvania 183
f@@ 183
آرکیٹی@@ 183
ائم 183
ابل 183
ابوموسیٰ 183
اثاثہ 183
الحجہ 183
اللَّهُ 183
الور@@ 183
امیگریشن 183
انہتر 183
اوراق 183
بوئنگ 183
بہمنی 183
بیات 183
ترامیم 183
تقسيم 183
تما 183
ثقفی 183
جوئے 183
جیسپر 183
حواس 183
خاکے 183
داخ@@ 183
دھانی 183
رونق 183
زبانيں 183
سیرو 183
سیلسیان 183
سیکی@@ 183
شیکھر 183
صفحے 183
طنزیہ 183
فجی 183
قافیہ 183
لیڈ 183
مرلی 183
مسرور 183
ملاز@@ 183
منظر@@ 183
میسوپوٹیمیا 183
نظری 183
نیش@@ 183
وٹامن 183
ٹھٹھہ 183
چربی 183
ڑي 183
کؤ@@ 183
کنال 183
گارفیلڈ 183
ہچک@@ 183
یکل 183
1897ء 182
33,@@ 182
eh@@ 182
آشوب 182
ابھی@@ 182
اجائے 182
اخباروں 182
افوا@@ 182
انبیاء 182
ایمر@@ 182
بانٹ 182
برخاست 182
بوا 182
تنخوا@@ 182
جھٹ@@ 182
جہانیاں 182
جینا 182
خطی 182
راما 182
رتھ 182
ریڈی@@ 182
ریکا 182
زع@@ 182
زلی 182
سدرن 182
سزوو 182
سلطنتیں 182
طبقوں 182
فرمائش 182
فریڈ 182
قومی@@ 182
لرز 182
لپ@@ 182
لگن 182
مکتوب 182
ناطق 182
وجاہت 182
ٹنٹ 182
پرديش 182
پھیر 182
چھہتر 182
کفن 182
گلو 182
ہڑپہ 182
یادوں 182
149@@ 181
200@@ 181
219 181
35.@@ 181
l@@ 181
آزاد@@ 181
آغوش 181
آفات 181
ائيجان 181
ابوالفضل 181
الناصر 181
الِ@@ 181
اندھیرے 181
اهٔ 181
بادشاہ@@ 181
حسن@@ 181
حواشی 181
دئیے 181
دعویدار 181
رابن 181
راجیو 181
رفی@@ 181
رنج 181
روت 181
سلہ 181
سوفٹ 181
شمر 181
شمشیر 181
شهد 181
علومِ 181
عليا 181
غیبت 181
فاتحہ 181
فرغانہ 181
فرہ 181
فونٹ 181
قلمبند 181
لدھیانوی 181
متِ 181
مرتے 181
مرز@@ 181
مصالحت 181
معاوضے 181
معجزات 181
نالہ 181
نجار 181
نقاط 181
واء 181
وھ@@ 181
ٖ 181
پانیوں 181
پاکر 181
پرتی@@ 181
پريفيكچر 181
پلیئر 181
پیو@@ 181
کامن 181
کرسٹوفر 181
کوریج 181
کوز@@ 181
گانگ@@ 181
گمنام 181
گھو 181
گھٹ 181
ﮬ@@ 181
2.6 180
238 180
ic 180
is@@ 180
اخبار@@ 180
افراتفری 180
البر 180
التر@@ 180
التے 180
الفا 180
انٹلیجنس 180
اوریہ 180
اڈیہ 180
برتھ@@ 180
بسی 180
بونٹ 180
بہائی 180
ترہ 180
تصرف 180
حب@@ 180
خذ@@ 180
خلوت 180
دِل 180
راجو 180
ربیہ 180
زینہ 180
سونپا 180
شعوری 180
شوقین 180
ضر@@ 180
طبقاتی 180
طوالت 180
عباد@@ 180
علیہا 180
فتاوی 180
فراز 180
لاری 180
لتھوانیا 180
لڑیں 180
لیکچرار 180
معرکے 180
مفروضہ 180
نقی 180
ووں 180
وکٹورین 180
يوم 180
٥ 180
ٹیمز 180
پاداش 180
پرتگیزی 180
پلندری 180
ڈائمنڈ 180
ڈارک 180
ڈول 180
ڈھول 180
کدہ 180
کفیل 180
کمب@@ 180
گرینویل 180
گمشدہ 180
گیل 180
ہاسن 180
ﻃ@@ 180
ﻋﻠ@@ 180
1882 179
2.7 179
Par@@ 179
human 179
ئیے 179
احرار 179
احرام 179
اشتیاق 179
الستار 179
المیہ 179
الیس 179
اٹھتر 179
بئی 179
بجانے 179
برائ@@ 179
بزر@@ 179
بھتیجا 179
بینن 179
تفاسیر 179
تون 179
دھرتی 179
رومانٹک 179
سیان 179
سیلواڈور 179
شاف@@ 179
شاپور 179
صاحبہ 179
صالح@@ 179
عبدالکریم 179
فقر 179
لوہار 179
لٹریچر 179
لیبارٹری 179
مانتا 179
معاصرین 179
ندر@@ 179
نوال 179
نوٹوں 179
نيو@@ 179
نٹو 179
ٹرائ@@ 179
پرتھوی 179
پوائنٹس 179
پیل 179
چارے 179
ڈیاں 179
کرسٹ@@ 179
کونی 179
کھر 179
کینٹ@@ 179
کیڈ@@ 179
گرتی 179
گینی 179
125@@ 178
1892 178
257 178
293 178
Ab@@ 178
ah@@ 178
language 178
li 178
us@@ 178
ؓ@@ 178
آرنلڈ 178
ابھرا 178
ارادت 178
انٹیلیجنس 178
انگوٹھی 178
اگروال 178
ایسیکس 178
براستہ 178
بناء 178
بولان 178
بیلٹ 178
بیماریاں 178
بینائی 178
تخمینے 178
جوضلع 178
جھکاؤ 178
حادثات 178
حوال@@ 178
دیوانہ 178
راکی 178
رحی@@ 178
رٹ 178
زہری@@ 178
سویٹزرلینڈ 178
شعب@@ 178
عاجز 178
غازي 178
فارمنگٹن 178
قادین 178
ماگوئنداناؤ 178
مجسٹریٹ 178
منزلت 178
مھ@@ 178
مینڈیٹ 178
نشاط 178
نٹری 178
وائل 178
وتع@@ 178
٧ 178
ٸی 178
ٹائن 178
ٹرم 178
پیشن 178
ڈائجسٹ 178
ڈسن 178
کوسوو 178
گیلی@@ 178
ہمزہ 178
ہیا 178
ﺍﻧ@@ 178
1896ء 177
297 177
ag@@ 177
آبادیاں 177
آرڈیننس 177
آو 177
ابجد 177
ابخاز@@ 177
اماموں 177
اچھو@@ 177
برمی 177
بروئے 177
بکر@@ 177
بھڑک@@ 177
بھیرہ 177
تاؤ 177
تحریف 177
تصویروں 177
تھیوری 177
جانتی 177
جماعتی 177
جنین 177
جوہ@@ 177
حوالوں 177
دد 177
دھان 177
دھڑوں 177
راحیل 177
رفاقت 177
رمے 177
ریپ@@ 177
زادے 177
زنانہ 177
سالٹ 177
سسلی 177
سیرا@@ 177
صدا 177
صل@@ 177
طالبہ 177
عاد@@ 177
عجب 177
فلائٹ 177
موافقت 177
میخائل 177
نث 177
نرز 177
نمبروں 177
نیکا 177
وتری 177
ورائی 177
ولٹ 177
پٹرول 177
پیو 177
چارسدہ 177
چوہ@@ 177
چھاپوں 177
کرسکا 177
کروفٹ 177
کشادہ 177
کفایت 177
کواپ@@ 177
گیج 177
ہجومی 177
1.1 176
246 176
258 176
281 176
295 176
89.@@ 176
Morocco 176
آرک 176
آسیہ 176
آہنی 176
ابوالقاسم 176
ابھرتی 176
اثر@@ 176
ارقم 176
استعفا 176
اعضا 176
افی@@ 176
انگوش 176
اٹلانٹا 176
اپی 176
اہی@@ 176
ایسٹونیا 176
برازیلی 176
بزرگان 176
بسے 176
بلاد 176
تریاسی 176
جول 176
خطبات 176
خیمے 176
دلف@@ 176
دما@@ 176
راست@@ 176
ریڑھ 176
زد@@ 176
سرمائی 176
سکری@@ 176
سیدھی 176
غر 176
فینگ 176
فینیش 176
لٹک@@ 176
لیان 176
مجازی 176
محلول 176
مروج 176
منيسوٹا 176
موقوف 176
موی 176
مہران 176
نف 176
نقاشی 176
نیوکلیئر 176
واٹر@@ 176
ٹن@@ 176
ٹوئ@@ 176
پتر 176
پکانے 176
کارو@@ 176
کافروں 176
کرغیزستان 176
کوئین 176
کوہستانی 176
یات@@ 176
یاک@@ 176
া@@ 176
189@@ 175
2.9 175
226 175
278 175
306 175
307 175
34,@@ 175
Bot 175
آشرم 175
آمر 175
ازدواج 175
اسعد 175
اسنے 175
اظہار@@ 175
التی 175
اللّٰ@@ 175
اکبر@@ 175
ایئرفیلڈ 175
ایجن@@ 175
باندھا 175
بعثت 175
بندگی 175
بیاس 175
تحریکیں 175
تقوی 175
توقعات 175
جھیلیں 175
حالتوں 175
حسنؓ 175
حش@@ 175
خداداد 175
ذر 175
راؤ@@ 175
رائفل 175
رکی 175
ریحان 175
صاب@@ 175
صلى 175
فخ@@ 175
قْ@@ 175
لنکاسٹر 175
مخلوقات 175
مشغلہ 175
مقدر 175
مواصلاتی 175
مِنَ 175
مچھلیاں 175
نیشیا 175
وسط@@ 175
ٹول@@ 175
ٹھہر 175
پورٹلینڈ 175
پون 175
چھے 175
ڈاون 175
گیار@@ 175
گیلو@@ 175
167@@ 174
37,@@ 174
آپﷺ 174
اض 174
الشہ@@ 174
انخلاء 174
اندر@@ 174
انشورنس 174
اوسط@@ 174
اُن@@ 174
ایجادات 174
ایمپائر 174
ایون@@ 174
باف@@ 174
بریڈمین 174
بعہ 174
بلائ@@ 174
بوم@@ 174
بہرہ 174
تریانوے 174
جالندھری 174
جدی@@ 174
حضور@@ 174
خستہ 174
داتا 174
دوہری 174
دینہ 174
روداد 174
ریشمی 174
زیں 174
سبزیوں 174
سنہا 174
سورا@@ 174
سیکریٹریٹ 174
شات 174
شنگ@@ 174
عاتی 174
علا 174
عک@@ 174
غرور 174
قبرصی 174
قریباً 174
قصی 174
لاڈ@@ 174
مائیک 174
متناسق 174
مجددی 174
مرتد 174
مشرک 174
مطبوعات 174
ملامت 174
ملکیوں 174
مماثل 174
وارا 174
وینک@@ 174
وینکوور 174
يون 174
٦ 174
ٹھنڈی 174
پارس 174
پرشیا 174
پچ 174
چندہ 174
کران 174
کٹس 174
کیسپین 174
گرامر 174
گود@@ 174
یْ 174
ﮍ@@ 174
ﺏ 174
179 173
1881 173
1894 173
264 173
آچکا 173
ائع 173
اجناس 173
البحر 173
السلطنت 173
النَّ@@ 173
اندھی@@ 173
ایر 173
ایودھیا 173
بك@@ 173
بکریاں 173
بھوج 173
بیانوے 173
جوہی 173
جہالت 173
جیوں 173
حکومتِ 173
خال 173
درد@@ 173
دوربین 173
دين 173
روبوٹ 173
رُ 173
زاد@@ 173
سلسلوں 173
سیٹھ 173
ظفر@@ 173
عشرہ 173
فاؤنڈ 173
فالی@@ 173
فرمان@@ 173
فرنچ 173
قاتلوں 173
لیڈز 173
مئی@@ 173
مادھو 173
مخالف@@ 173
مونٹی@@ 173
مکھن 173
ناراضی 173
ناظ@@ 173
ناٹنگھم 173
نکھ@@ 173
نیئر 173
وحد@@ 173
وراثہ 173
وسک 173
ویدی 173
ٹاٹا 173
پارا 173
پکار 173
پہاڑیاں 173
پیغمبر@@ 173
ڈھا 173
کوز 173
کیمرا 173
کینٹربری 173
گاس 173
گدھے 173
گلابی 173
ہومز 173
ﻣﺤ@@ 173
2.0 172
266 172
312 172
Airlines 172
ka 172
om@@ 172
آلو@@ 172
آوارہ 172
استعمار 172
اسکائی 172
اكي 172
انگو@@ 172
اورآپ 172
اوستا 172
اویسی 172
ايك 172
اگا 172
بالہ 172
بسا@@ 172
بسمارک 172
تاحیات 172
تربت 172
تعزی@@ 172
ثقاہت 172
جواہرات 172
خرید@@ 172
داستانیں 172
دھوکہ 172
ذلیل 172
راس@@ 172
سبرگ 172
سكي 172
سلجوق@@ 172
سلف 172
سوپر 172
سڈ 172
صومالی 172
عاص@@ 172
عیہ 172
فشانی 172
لیف 172
لیما 172
ملاتی 172
مکی@@ 172
مہلت 172
ناف@@ 172
نيا 172
وانا 172
٨@@ 172
ٹران 172
ٹماٹر 172
پاز 172
چلاتا 172
ڈاج 172
ڈرائی@@ 172
کرچکی 172
کوئے 172
ہیبت 172
1871 171
1889ء 171
1902 171
325 171
Autonomous 171
Kingdom 171
section 171
ابھرے 171
اداكارہ 171
اسٹیٹس 171
انند 171
انگیزی 171
برزے@@ 171
برنسوک 171
بٹھا 171
تجوید 171
تقریباً@@ 171
توضیح 171
تیغ 171
جری 171
حجری 171
دورا@@ 171
رفتاری 171
رینچ 171
زار@@ 171
زلز@@ 171
زنو 171
سدا 171
سرت 171
سفارشات 171
سمن 171
سورة 171
سینیگال 171
سیکا 171
شْ@@ 171
عباسؓ 171
عظيم 171
فیلڈر 171
قیات 171
لائبیریا 171
لوقا 171
ماجہ 171
مبرگ 171
مراٹھ@@ 171
منتر 171
مچھلیوں 171
نٹائن 171
هو@@ 171
وادي 171
وسطي 171
وشی 171
وكے 171
ولک 171
٤ 171
ٹانگوں 171
پد@@ 171
پوٹھوہار 171
چام@@ 171
ڈیویس 171
کاگ@@ 171
کوئنسی 171
کوچی 171
کہکش@@ 171
کیمیکل 171
گریگ 171
ہواؤں 171
10,000 170
157@@ 170
236 170
294 170
31.@@ 170
Bal@@ 170
Voivodeship 170
u@@ 170
v 170
أبو 170
الجن@@ 170
الظ@@ 170
الیوں 170
انانوے 170
انتی@@ 170
اکتساب 170
اکس 170
بجانب 170
بہتے 170
تئیں 170
تاو 170
تاویل 170
تت@@ 170
تغیرات 170
تھیری@@ 170
دردی 170
دستار 170
دستیابی 170
دیکر 170
رر 170
رشک 170
روبی 170
سنسنی 170
سوری@@ 170
سپاہ@@ 170
طرہ 170
طوط@@ 170
فاری@@ 170
لوہ@@ 170
مئو 170
مارکس@@ 170
محرا@@ 170
مرحمت 170
منٹس 170
مچھ 170
نبی@@ 170
نصابی 170
والٹن 170
وقوف 170
ٹیٹ 170
پانچوں 170
پتن 170
پورٹیج 170
پیتے 170
پیڈ@@ 170
کاٹھ@@ 170
کوان 170
کچلنے 170
126@@ 169
46.@@ 169
Kar@@ 169
ai 169
آخر@@ 169
آپریشنل 169
ئى 169
اجتماعات 169
ارنسٹ 169
ازو 169
استقامت 169
اسمارٹ 169
اقتباس 169
المنصور 169
ایشلنڈ 169
ایمسٹرڈیم 169
بلجئیم 169
بندھن 169
بوہول 169
بٹھایا 169
بڈ@@ 169
بگاڑ 169
تانگ 169
تقسی@@ 169
جداگانہ 169
جمعیۃ 169
دانا 169
دز@@ 169
راہل 169
سبحان 169
سطحوں 169
سوشلزم 169
شیرون 169
صدوق 169
طي@@ 169
ــــــــ@@ 169
فیلکس 169
لیوا 169
مئ@@ 169
محافل 169
مداح 169
مشتری 169
ملكي 169
مۂ 169
میراتھن 169
میکی@@ 169
نبات@@ 169
نجن 169
نسخ 169
وولٹیج 169
٧@@ 169
ٹرمینل 169
ٹینا 169
ٹیکا 169
پریکٹس 169
پنگ@@ 169
پہنایا 169
پیالہ 169
چاک@@ 169
چروا@@ 169
چندرا 169
چھکے 169
ڈفورڈ 169
کارروائیاں 169
کیبل 169
گولا 169
ہرزیگوینا 169
10ھ 168
153@@ 168
188@@ 168
1903 168
229 168
267 168
311 168
In 168
ac 168
administrative 168
borough 168
آرمسٹرانگ 168
آلود 168
الجیریا 168
امبی@@ 168
بازیافت 168
باورچی 168
بدسلوکی 168
برمودا 168
بستیاں 168
بکس 168
بھرنے 168
بیسن 168
بیٹھی 168
تحفظات 168
تقدس 168
تلک 168
تکبیر 168
جاتیں 168
جیف 168
حسنین 168
دسواں 168
دھمکیاں 168
دھوم 168
رجسٹریشن 168
رکاوٹیں 168
رہوں 168
ریڈر 168
سازوسامان 168
سٹیٹ 168
سیلی 168
سیول 168
صحابہؓ 168
عرو@@ 168
عکاس 168
فارچون 168
فاض@@ 168
فاکس 168
فریڈم 168
فیظ 168
قیوں 168
كم 168
لائي 168
مرع@@ 168
مزہ 168
مفعول 168
منکر 168
موزمبیق 168
نرسنگ 168
های 168
وبن 168
وریہ 168
ووٹنگ 168
ویزا 168
پولیو 168
پومر@@ 168
پیکار 168
چپکے 168
ڈاف@@ 168
ڈری 168
کزئی 168
کلز 168
کوئلہ 168
کیانی 168
گھاٹی 168
ہلاکو 168
ہیپ@@ 168
1815 167
1887 167
289 167
ang 167
آزما 167
ارنا 167
اسکواڈرن 167
الحکیم 167
العظ@@ 167
اوچ 167
ایوان@@ 167
بحيرہ 167
برنارڈ 167
بلغاریائی 167
بوسہ 167
بھجن 167
بہاماس 167
بیانیہ 167
بیدہ 167
تعلی@@ 167
جمہوری@@ 167
جنازے 167
حلو@@ 167
خاد@@ 167
خزیمہ 167
خیرات 167
خیزی 167
دیوان@@ 167
راہبوں 167
رنجی 167
ساسکچیوان 167
سامانی 167
سچن 167
سینگ 167
عیینہ 167
فارسیوں 167
لوری 167
مارسیل 167
ماورائے 167
ماہر@@ 167
مدینے 167
مردار 167
مستی 167
مسقط 167
مصباح 167
مغفرت 167
ملبوسات 167
میسا 167
نکالنا 167
پرچ@@ 167
پوئ@@ 167
پگ@@ 167
پہنچائی 167
پہنچنا 167
پیراگوئے 167
چھڑی 167
چیتا 167
چیکوسل@@ 167
کاپیاں 167
کندھے 167
ہاش@@ 167
ہندکو 167
ہیہ 167
۱۵@@ 167
1.7 166
1877ء 166
276 166
Ag@@ 166
Kal@@ 166
um 166
اعظ@@ 166
الحمد 166
الخالق 166
المؤمنین 166
النا 166
امو 166
امیتابھ 166
انگی@@ 166
اکسایا 166
اگرا 166
ایتھلی@@ 166
بحی@@ 166
بھیجتے 166
بہانہ 166
بیکار 166
تونسہ 166
جلال@@ 166
جواں 166
جوز@@ 166
حے 166
خاص@@ 166
خلوی 166
دعاؤں 166
دیوانی 166
ذَ@@ 166
زدگی 166
زیاد@@ 166
ساد 166
ستو 166
سك 166
شبنم 166
عاد 166
عصبی 166
عۃ 166
غا 166
فرمای@@ 166
فرو 166
فۃ 166
فیاضی 166
كار 166
لنک@@ 166
مارکسی 166
مخز@@ 166
مکعب 166
میاہ 166
میون@@ 166
نانوتوی 166
نکو@@ 166
نیلامی 166
نینی 166
وند@@ 166
ِل 166
٥@@ 166
پکارتے 166
پیڈ 166
ڈاگ 166
کاندھلوی 166
کرمانی 166
کمیونٹیز 166
کوج@@ 166
گاو 166
گنڈا 166
ہفتم 166
ہوئى 166
ہوی 166
1884ء 165
Deh 165
ו@@ 165
آرٹلری 165
اجز@@ 165
ادیہ 165
الایمان 165
العمل 165
امروہوی 165
اناؤ 165
انتقامی 165
ایکٹر 165
بانس 165
بوا@@ 165
تاریخوں 165
تضاد 165
تنگی 165
جسم@@ 165
جیانگ@@ 165
حفصہ 165
دھڑے 165
راہداری 165
رزق 165
رید 165
ریور@@ 165
زام@@ 165
ساد@@ 165
ساں 165
سرم@@ 165
سفلي 165
سکھایا 165
ماح@@ 165
مارکیٹنگ 165
محصور 165
مطیع 165
معترف 165
معنوی 165
منتظمین 165
ميساچوسٹس 165
میمون 165
نمکین 165
وآ@@ 165
ودا 165
وڑ@@ 165
پارٹ@@ 165
پٹھ@@ 165
پیشتر 165
چائی 165
چیکہ 165
کریگ 165
کنیز 165
کھوئے 165
کیا- 165
ہما@@ 165
ہورہا 165
ہیمپٹن 165
ﻄ@@ 165
1.8 164
1884 164
1898ء 164
1899ء 164
261 164
296 164
365 164
410 164
Chah 164
ki 164
ol@@ 164
ville 164
ءسے 164
آوازوں 164
آڑ 164
استعمالات 164
اسفار 164
الحکم 164
الفق@@ 164
الوقت 164
ايڈاہو 164
اینا 164
بدخشاں 164
برسر 164
بشریات 164
بیع 164
تاتھا 164
جاگیرداروں 164
جھاڑ@@ 164
دبا@@ 164
رمزِ 164
سرٹیفکیٹ 164
شريف 164
شمش@@ 164
شہناز 164
شہنشاہوں 164
طِ 164
عاز@@ 164
فرانز 164
فرمانے 164
فعلیات 164
فوق 164
فْ@@ 164
قاتلانہ 164
مانگنے 164
مجروح 164
محال 164
مغز 164
ملائشیا 164
مورث 164
نااہل 164
نسب@@ 164
نوشی@@ 164
واکر 164
پریڈ 164
پلوں 164
پیئ@@ 164
چارلی 164
چیس 164
ڈيلاويئر 164
کوار@@ 164
ہنس@@ 164
ہیرالڈ 164
298 163
DNA 163
Lower 163
Mal@@ 163
Wisconsin 163
one 163
آمیزش 163
ئیف 163
اتوں 163
احب 163
اشا 163
الشی@@ 163
انتھونی 163
باربرا 163
بدیع 163
برقی@@ 163
برکلے 163
برین 163
بعدازاں 163
بونی 163
تاریخ@@ 163
تخفیف 163
تلسی 163
حبشی 163
خلیے 163
خیراتی 163
دُ 163
دہرایا 163
راجاؤں 163
رقمطراز 163
رنگا 163
زک 163
سوتے 163
شکر@@ 163
شیرانی 163
صحاح 163
صلا@@ 163
فدا 163
قسموں 163
لالی 163
لودھراں 163
لول 163
متروک 163
مثلا@@ 163
مختصراً 163
مریدوں 163
مکس 163
نبویﷺ 163
واج 163
وتربیت 163
وشو 163
ووك@@ 163
ٹیمپل 163
پنیر 163
پھرتے 163
چیوان 163
چیکو 163
کای@@ 163
کمز@@ 163
کنس@@ 163
کیسٹر 163
گورا 163
ھن 163
ہارٹفورڈ 163
ہیوں 163
1.3 162
115@@ 162
237 162
282 162
309 162
England 162
os@@ 162
ادیاں 162
اسٹینڈ 162
اشعث 162
اصطلاحی 162
البیان 162
المق@@ 162
الیکٹرون 162
انات 162
انف@@ 162
اوراپنے 162
ایج 162
ایجوکیشنل 162
ایمپ@@ 162
اینڈی 162
بارودی 162
بالشویکوں 162
بخت@@ 162
بولڈ 162
بھڑک 162
تاوان 162
تعری@@ 162
جولین 162
جہل 162
حار@@ 162
ديا 162
رپورٹس 162
ریکٹر 162
زروی@@ 162
سنانے 162
سوہ@@ 162
صور 162
علانیہ 162
فرينكلن 162
فلائی 162
قدو@@ 162
قَالَ 162
لوزيانا 162
متعدی 162
متھ@@ 162
محر@@ 162
معاہ@@ 162
منوں 162
مہتا 162
نادیہ 162
نیگرو 162
وائلڈ 162
وقائع 162
ومح@@ 162
يڈ 162
ٹھہ 162
ٹھہرا 162
پالنے 162
پسندیدگی 162
چتے 162
چس 162
ڈیوں 162
کارپوریٹ 162
کنفیوشس 162
کنٹری 162
گائی 162
گانی 162
گردے 162
گوار@@ 162
گوجر 162
ہنو@@ 162
ﮐﺮ 162
1.4 161
2.4 161
ir@@ 161
province 161
آمد@@ 161
اعلا@@ 161
الینڈ 161
امینی 161
اوموری 161
اونٹ@@ 161
اکاؤن@@ 161
ایلچی 161
باع@@ 161
بڑ 161
تنگ@@ 161
جبرائیل 161
جرز 161
خطابات 161
خن 161
داک 161
روکے 161
ریلی@@ 161
سغد 161
سلیکٹر 161
سندھیا 161
سوانحی 161
شھ@@ 161
شہابی 161
شیاں 161
شیمپیئن 161
طلعت 161
فہرستیں 161
قطعات 161
لائبری@@ 161
لگاتا 161
لیڈروں 161
مرغ 161
مولف 161
مير@@ 161
مَ 161
مینگل 161
نفےس 161
يوان 161
ّم 161
ٹيم 161
پاد@@ 161
پیشین 161
چمکدار 161
چیخ 161
ڈسک 161
ڈومین 161
کاسٹر 161
کسٹم 161
کوسٹا 161
کولون 161
کینال 161
گای@@ 161
گوارا 161
گوش 161
گھبرا@@ 161
گھوم 161
ھوں 161
ہنور 161
ہونڈوراس 161
ﮮ 161
2.1 160
2.8 160
287 160
36,@@ 160
local 160
ارنے 160
اشرفیہ 160
الازہر 160
امامیہ 160
انڈیکس 160
بیانی 160
ةِ 160
تها 160
جانشینوں 160
جیلان 160
حسام 160
حشر 160
دشمن@@ 160
دیوناگری 160
سبھاش 160
سيل@@ 160
سکس 160
شاست@@ 160
شبیہ 160
شتر 160
شير 160
علامتیں 160
عنہم 160
فرانکو 160
فیوض 160
قدی@@ 160
قلند@@ 160
لاك 160
مدائن 160
مدھو 160
مصالحہ 160
منہ@@ 160
مچ 160
میٹر@@ 160
نظارے 160
نیست 160
وجن 160
ووی@@ 160
ويك@@ 160
ٹھو@@ 160
پورن 160
پیشرو 160
چیچک 160
ڈویل 160
ڈگریاں 160
کشوں 160
کیدار 160
گوو 160
ہائر 160
ہال@@ 160
یادگاریں 160
ﺅں 160
0.7 159
138@@ 159
1879 159
850 159
East 159
Sal@@ 159
ine 159
ابیب 159
الحان 159
الفطر 159
المت@@ 159
انتونیو 159
اوان 159
بریٰ 159
بلبل 159
بمشکل 159
بینگ@@ 159
تبریزی 159
تھے- 159
جسی@@ 159
جلن 159
جمہوريهٔ 159
جمہوریهٔ 159
دائم 159
راہنمائی 159
رقیہ 159
ساقی 159
سبک 159
سلیس 159
سنو@@ 159
سوال@@ 159
سوپ 159
سٹیل 159
سیال@@ 159
سیلا 159
شیوا 159
عباس@@ 159
غاروں 159
قبیلۂ 159
قذافی 159
كوو 159
لاں 159
لسن 159
مالاکنڈ 159
مسز 159
مٹا 159
مڑ 159
ندو@@ 159
نوب 159
نوت@@ 159
والي 159
ولڈ 159
وَأَ@@ 159
پروازیں 159
پیلا 159
پیلی@@ 159
چبو@@ 159
چیمہ 159
ڈالتا 159
کردی@@ 159
کلین 159
کمبرلینڈ 159
کیرئر 159
گردوارہ 159
ھوئے 159
ہارے 159
یۃ 159
ﺤ@@ 159
---- 158
113@@ 158
1882ء 158
274 158
321 158
Le 158
River 158
man 158
آبرن 158
آگہی 158
آں 158
ئرفیلڈ 158
ائیرپورٹ 158
انسٹیٹیوٹ 158
اکلوتی 158
ایجیئن 158
ایڈونچر 158
باج@@ 158
بتا@@ 158
برق@@ 158
بلغراد 158
بیٹن 158
تراش 158
تقریبا@@ 158
توان@@ 158
تُ 158
جوم@@ 158
خانقاہوں 158
خلدون 158
خلي@@ 158
دآباد 158
دریائی 158
دلاور 158
دکھاتا 158
راجر 158
سفارت@@ 158
سوویتوں 158
سٹارک 158
شازیہ 158
شخصی@@ 158
طیف 158
عرق 158
غلطیوں 158
فلوئڈ 158
لیسٹر 158
مصریوں 158
مه@@ 158
مونا 158
وفود 158
وہی@@ 158
يشن 158
ٹیلے 158
پالم@@ 158
پام 158
پریا 158
پریشد 158
ڈسپ@@ 158
ڈیک 158
کاج@@ 158
کلرک 158
کھجور@@ 158
گارڈنر 158
گرز 158
گزارتے 158
گورے 158
ہنوں 158
یونیور@@ 158
یوگا 158
ﺎﻟ@@ 158
ﻣﻨ@@ 158
1870ء 157
8.5 157
has 157
ابوج@@ 157
اشاع@@ 157
البلد 157
البیرونی 157
امار@@ 157
انجری 157
اکر@@ 157
برائیوں 157
بورژ@@ 157
ثنائی 157
جراح 157
حسنہ 157
حفاظ 157
خداوندی 157
خرگوش 157
دعائے 157
رامپور 157
رفعت 157
ریڈنگ 157
زبیرؓ 157
سکرین 157
سیڑھیاں 157
شد@@ 157
شرح@@ 157
شعلہ 157
شید 157
صریح 157
صنعتیں 157
صورتیں 157
ضیاء@@ 157
فیضی 157
قصبات 157
كاري 157
لر@@ 157
مارنا 157
مجنوں 157
مستنصر 157
مشروب 157
مشنریوں 157
مقروض 157
موجب 157
موسٰی 157
مَیں 157
میگنی@@ 157
ناراین 157
يوٹاہ 157
ٹول 157
پند@@ 157
پولے 157
پوٹر 157
پُل 157
چیمپئنز 157
کمیونیکیشن 157
کنواری 157
کینڈی 157
گندھ@@ 157
ہینڈرسن 157
18ویں 156
2500 156
She@@ 156
ana 156
ائٹس 156
ادم 156
اردشیر 156
اصط@@ 156
السل@@ 156
اناجیل 156
انگولا 156
اگوا 156
بادلوں 156
بام 156
تاروں 156
جمن@@ 156
جگہیں 156
حرب@@ 156
حور 156
خوان@@ 156
خي@@ 156
دکھاتے 156
دیواری 156
رچلينڈ 156
رہم 156
زرتشت 156
سرکس 156
سفیروں 156
سنتا 156
سنیل 156
صال 156
علقمہ 156
فائن 156
فع@@ 156
فلور@@ 156
لہریں 156
لینس 156
ماد 156
مبارک@@ 156
مرکزے 156
مشکو@@ 156
منادی 156
مورخہ 156
موقعوں 156
میمی 156
ناء 156
نایا 156
نمازیں 156
نگن 156
هیں 156
واقع@@ 156
ودیا 156
وقتاً 156
يار 156
پاکستانیوں 156
ڈاکٹر@@ 156
ڈیشن 156
ڈینیئل 156
ڑوی 156
کنڈی 156
کواس 156
کیفے 156
کیمرے 156
یؒ 156
یحیٰی 156
1886 155
1891 155
1892ء 155
type 155
מ@@ 155
آلودہ 155
ابراهم 155
اجمعین 155
اسید 155
اشار@@ 155
الخیر 155
الصباح 155
العقیدہ 155
انڈمان 155
اویہ 155
اُٹھ 155
بالاتر 155
بروقت 155
بسٹر 155
بنالیا 155
بورک 155
بھیس 155
تابوت 155
تين 155
جامشورو 155
جگت 155
حسینہ 155
حمایتی 155
خواہ@@ 155
رجعت 155
ریو@@ 155
زحل 155
زخمیوں 155
سبزیاں 155
سربراہان 155
سرجن 155
سوئے 155
شعلے 155
شیام 155
عاص 155
عاطف 155
فاء 155
فائن@@ 155
فرز@@ 155
قضاء 155
ماف@@ 155
متشدد 155
محرکات 155
موری 155
میکسی@@ 155
نای@@ 155
نوعمر 155
نینگ 155
ويت 155
يوك@@ 155
پاؤ@@ 155
پارلی@@ 155
پرنٹنگ 155
پروپیگنڈا 155
پریشر 155
پہنچائے 155
ڑھا 155
کردیتی 155
کروانا 155
کولوم@@ 155
کیرالا 155
گزٹ 155
گوار 155
گڑھ@@ 155
ھیں 155
ہسپان@@ 155
ہَ@@ 155
یڈمز 155
ﺼ@@ 155
11ھ 154
128@@ 154
313 154
460 154
Hose@@ 154
Mohammad 154
az@@ 154
آئیوس 154
ابتدا@@ 154
ارن 154
ازمیر 154
اسلاف 154
اسکندر 154
المط@@ 154
انیکا 154
اونٹنی 154
اوکا@@ 154
برانڈ@@ 154
براہِ 154
بریا 154
بریل 154
بغاوتیں 154
بھیجنا 154
تث@@ 154
تخریج 154
تصغیر 154
تیک 154
جادوئی 154
جلسوں 154
جھوٹی 154
حا@@ 154
خطا 154
خنجر 154
خوشخبری 154
دھماکہ 154
ذیب 154
ريل 154
رُخ 154
ریئ@@ 154
ریپبلک 154
زری 154
زيادہ 154
سوخ 154
شہاد@@ 154
صاحبؒ 154
صحارا 154
عتی@@ 154
فوکس 154
لکسمبرگ 154
لیئے 154
محاورے 154
مرقع 154
مصحف 154
مصدقہ 154
مولی@@ 154
نظرب@@ 154
وري@@ 154
وزیراعلیٰ 154
ويلز 154
وْ 154
ٹوڈ 154
پلہ 154
چشموں 154
چوم@@ 154
چیچ@@ 154
ڈوور 154
ڈیئ@@ 154
کارگو 154
کثیف 154
کرادیا 154
کریز 154
کفارہ 154
کلینک 154
گھا@@ 154
ہستیوں 154
یورپین 154
் 154
333 153
375 153
Islands 153
geographic 153
were 153
آکسائڈ 153
آگسٹا 153
ئیس 153
ائزیشن 153
ابلیس 153
ابوہریرہ 153
ابیوں 153
اريو 153
اشاعتی 153
اشع@@ 153
الواقدی 153
امي 153
اوروہ 153
اکیتین 153
ایگ@@ 153
جھنگ@@ 153
حن@@ 153
دہرا@@ 153
راك 153
رامائن 153
رومان 153
رين@@ 153
ریمنڈ 153
سلطانوں 153
سیرا 153
سیں 153
عیل 153
فاقہ 153
فرہاد 153
فوقتاً 153
لامہ 153
لطی@@ 153
لنڈا 153
ماروں 153
معزولی 153
مفر@@ 153
مینو@@ 153
ناطے 153
ناپاک 153
نلی 153
نوزائیدہ 153
واش 153
ورق 153
يد 153
ٹنا 153
پرائیوٹ 153
پھاڑ 153
چنی 153
کلاب 153
کوری 153
کیون 153
گولے 153
ہبل 153
یادگاری 153
یرغمال 153
یوری 153
134@@ 152
1864 152
329 152
6000 152
People 152
or@@ 152
ء- 152
ابھرنے 152
ادر@@ 152
اریٹیریا 152
اسرائیلیوں 152
اضی 152
الٹنے 152
اندور 152
انوش@@ 152
اوباما 152
اوق@@ 152
ایاں 152
ایڈگر 152
بارک 152
باصلاحیت 152
بحر@@ 152
بود@@ 152
بیجاپور 152
بیرین 152
بیلہ 152
جاز 152
جاگی@@ 152
جیول 152
حساب@@ 152
دھرا 152
دیوالیہ 152
دیول 152
سانچہ 152
سخت@@ 152
شتہ 152
شہریار 152
صاحبان 152
صن@@ 152
ظالمانہ 152
عاملہ 152
عبدالرحمان 152
عبدالرشید 152
عدالتیں 152
فارن 152
فنِ 152
فیری 152
لاب@@ 152
لاد 152
لام@@ 152
مافوق 152
ماڈ@@ 152
متری 152
مطبع 152
معاذؓ 152
معصومہ 152
منحرف 152
نجران 152
نقص 152
نوفل 152
نیپ@@ 152
هْ@@ 152
والو 152
وتدریس 152
ٹیلنٹ 152
پاكستاني 152
پست@@ 152
پھیلایا 152
چنار 152
ڈربی 152
ڈھونڈ@@ 152
کردو 152
کساد 152
کمبل 152
یزیدی 152
0.8 151
109@@ 151
144@@ 151
1856 151
1885 151
Am@@ 151
ra 151
آرامی 151
آف@@ 151
اثبات 151
احناف 151
اداکاراؤں 151
افطار 151
الحسینی 151
الحک@@ 151
الہٰی 151
امپائرنگ 151
بازو@@ 151
بيت 151
بھنگ@@ 151
بھڑ@@ 151
تجسس 151
تولید 151
تھان 151
جاسک@@ 151
جولی 151
جیکی 151
حسینؓ 151
خوبیاں 151
خول 151
دارالحكومت 151
دارفور 151
رحمن 151
رسن 151
رعنا 151
ریڈار 151
زیوس 151
شاہجہان 151
ضعف 151
عطار 151
علما@@ 151
فرماتی 151
فوس@@ 151
فہر@@ 151
لل 151
ماجدہ 151
مانچو 151
مراتب 151
مقناطی@@ 151
ملاقاتیں 151
مٹھن 151
میتھیو 151
میراں 151
ناردرن 151
نصوص 151
نہروں 151
وارنر 151
ویز@@ 151
يرو 151
ٹين 151
ٹھن 151
ٹیل@@ 151
پاکیزگی 151
چارلسٹن 151
کارٹر 151
کارگل 151
کانگرس 151
کرپشن 151
کریئر 151
کلامی 151
کچر 151
گفت 151
گوام 151
گوڈا 151
گھومتے 151
گھومنے 151
ےش 151
ﺑﮭﯽ 151
1813 150
3- 150
308 150
316 150
317 150
334 150
390 150
In@@ 150
Q 150
Qu@@ 150
en@@ 150
ł@@ 150
آئرس 150
آفری@@ 150
آفرین 150
افسر@@ 150
الغفور 150
انچی 150
اولاً 150
باشی 150
برسی 150
تعریفیں 150
تھیو@@ 150
جلایا 150
جوی 150
حكومت 150
خریدے 150
خوب@@ 150
دھند 150
زِ 150
زیہ 150
ساح@@ 150
سرہ@@ 150
شارک 150
عسقلانی 150
عظام 150
عنا@@ 150
عنقریب 150
فلائ@@ 150
قع 150
كھيل 150
لیتھ@@ 150
لیموں 150
ماہو@@ 150
متق@@ 150
محکوم 150
معدہ 150
معذوری 150
مقت@@ 150
ملیر 150
منت@@ 150
مکر@@ 150
نفورڈ 150
واٹرلو 150
پرجاتیوں 150
پروازوں 150
پلٹن 150
پکایا 150
پیمائی 150
ڈرو 150
ڈنگ@@ 150
کابی@@ 150
کاکیشین 150
کعب@@ 150
گاتا 150
گھات 150
ہات@@ 150
ہاروے 150
ہزاری 150
ہلا 150
ہولوکاسٹ 150
ہید 150
ہیری@@ 150
یع 150
146@@ 149
1814 149
324 149
ec@@ 149
احتساب 149
اشتراکیت 149
اكي@@ 149
السَّ@@ 149
اندو@@ 149
انیمیشن 149
اِخت@@ 149
اپس 149
ایم@@ 149
باخبر 149
بساط 149
بندر@@ 149
بیرن 149
تاتارستان 149
تفاعل 149
توزیع 149
حصّے 149
دلالت 149
دوار@@ 149
دھیرے 149
زيد 149
زیمبیا 149
سدو@@ 149
سزائیں 149
سلاوی 149
سواتی 149
سہارے 149
شای@@ 149
طاق 149
طاقم 149
طباطبائی 149
طبی@@ 149
عذر 149
عشر 149
فراق 149
فوف 149
فوک 149
فيئر@@ 149
قاس@@ 149
قریظہ 149
مالدار 149
مبلغین 149
مجد@@ 149
محم@@ 149
محو 149
مدر 149
مندانہ 149
مکالم@@ 149
نه@@ 149
نواسے 149
نوو 149
نیشنلسٹ 149
وجد 149
ولو@@ 149
وه@@ 149
وَالْ@@ 149
ویڈ 149
ویژ@@ 149
يد@@ 149
يش 149
پلانے 149
پولينڈ 149
پیلی 149
پیکا 149
چاریہ 149
چلن 149
ڈریم 149
ڈل@@ 149
کباب 149
کردینا 149
کشت 149
کنڑا 149
کونڈ@@ 149
گبسن 149
گنان 149
گڑ 149
ہاسٹل 149
یرا 149
یری@@ 149
یون 149
۱۲@@ 149
304 148
315 148
Mississippi 148
ed@@ 148
آذربائیجانی 148
ئیم 148
اداس 148
الائ@@ 148
اللہﷺ 148
ایئرفورس 148
برتر 148
بھان@@ 148
بیسارابیہ 148
جبار 148
جہتی 148
جیکل 148
حام 148
داست@@ 148
دْ@@ 148
دگیوں 148
دھرن 148
دھچکا 148
رصدگاہ 148
رومی@@ 148
روہنگیا 148
رہاہے 148
زات 148
زیک 148
سترو@@ 148
ستری 148
سفری 148
سنیوں 148
سگے 148
شاپنگ 148
صاد@@ 148
صالحہ 148
صقلیہ 148
طہ@@ 148
علي@@ 148
غلاف 148
فرمانروا 148
فیو@@ 148
كيا 148
لای@@ 148
لبریز 148
لوسی 148
لُ 148
مارٹی 148
متھرا 148
مخزن 148
مرث@@ 148
ملازمتوں 148
میونخ 148
نانوے 148
نکی@@ 148
هن 148
ووا@@ 148
ویلفیئر 148
يٹ 148
ٔ@@ 148
٨ 148
پاب@@ 148
پاسداری 148
چوکے 148
چیمبر@@ 148
ڑتے 148
کاولی 148
کتبے 148
گیو 148
ہارنے 148
ہندوکش 148
ہوتو 148
یائی 148
یوز@@ 148
148@@ 147
32,@@ 147
Al 147
country 147
this 147
آٹے 147
ابوداؤد 147
اتارنے 147
اتیں 147
ارضیات 147
اعہ 147
الملوک 147
اینکر 147
باً 147
بتانا 147
بصارت 147
بع 147
بمبار 147
بولی@@ 147
بیتھ@@ 147
تھانے 147
جاوی 147
جوا 147
جْ@@ 147
جھل@@ 147
خمیر 147
خیموں 147
دوہرا 147
زئے 147
زیدؓ 147
سعیدہ 147
سوڈانی 147
سٹاک 147
سکائی 147
شبی@@ 147
شوقیہ 147
طہارت 147
عملداری 147
عود 147
قبطی 147
قطر@@ 147
قور@@ 147
كوي@@ 147
لوے 147
لٹکا 147
مادوں 147
مجارستان 147
معمولات 147
مفکرین 147
مملوکوں 147
موس@@ 147
مہنگے 147
میٹرو@@ 147
نانجنگ 147
نکو 147
ونسٹن 147
ووڈلینڈ 147
ووکے 147
وَإِ@@ 147
وکیع 147
٬ 147
ٹھنڈے 147
پروٹو 147
پڑوسیوں 147
پھینکا 147
پہا@@ 147
پینگ@@ 147
چوٹیوں 147
چھان 147
چھپانے 147
ڈگ@@ 147
کبری 147
کردے 147
کي@@ 147
کٹن 147
گرتے 147
گورنروں 147
گیریژن 147
ھار 147
ہتے 147
ہنٹ@@ 147
ۡ 147
ﯿﺎ@@ 147
135@@ 146
16ویں 146
1850 146
1888ء 146
480 146
787 146
AD 146
Germain 146
اسمائے 146
افس@@ 146
الرجال 146
الفقہ 146
النے 146
الْمُ@@ 146
امویوں 146
انشا 146
اُنھوں 146
بئ@@ 146
بئر 146
بالٹیمور 146
باکسنگ 146
بلاغت 146
بني 146
تلگو 146
توا 146
جراحی 146
جمیعت 146
جودھ 146
ره 146
سوزش 146
سٹائل 146
سپرنگفیلڈ 146
شاٹ 146
شوا@@ 146
شیشہ 146
عمارہ 146
غافل 146
مجسموں 146
مصروفیات 146
میدانِ 146
ناؤ 146
ناب 146
نفس@@ 146
نيويارك 146
نگھم 146
نینیانوے 146
ودھ@@ 146
وشال 146
چیل 146
چینائی 146
کرتیں 146
کوئل 146
گرایا 146
گرس 146
ہمی@@ 146
یدہ 146
یکی 146
1886ء 145
1894ء 145
680 145
Shah@@ 145
ong 145
ابوح@@ 145
ادرنہ 145
اریں 145
الخطاب 145
الغ 145
امات 145
انار@@ 145
انفراسٹرکچر 145
انچیف 145
انڈونیشی 145
بوت 145
بہنوئی 145
تاس@@ 145
توصیف 145
خلیوں 145
ذات@@ 145
ذیابیطس 145
رڈ 145
رۂ 145
سوق 145
شیلا 145
طار 145
طرز@@ 145
عاقل 145
عالمگیری 145
غوثیہ 145
فاس 145
فونی@@ 145
قراء 145
قریہ 145
لوح 145
متوالیہ 145
مقبر@@ 145
منز 145
ناروی@@ 145
نث@@ 145
نزار 145
نشے 145
ننجا 145
نہریں 145
ورث@@ 145
ومو 145
وومن 145
ٹریوں 145
ٹیسٹوں 145
پَ@@ 145
پیشگی 145
چینگ@@ 145
ڙ@@ 145
کرن@@ 145
کمتر 145
کمپوز 145
کورو 145
گراف@@ 145
گیلان 145
یش@@ 145
یمان 145
ﺍﭘﻨ@@ 145
0.5 144
1.9 144
520 144
Mor@@ 144
Re@@ 144
di 144
ins 144
́ 144
ؔ@@ 144
آجاتے 144
آسمانوں 144
آفت 144
آہ 144
ئا 144
ابوب@@ 144
ابوسفیان 144
اریا 144
اسمگلنگ 144
اسٹرائی@@ 144
اسٹین 144
اشوکا 144
اعز@@ 144
الاولیاء 144
الشریعہ 144
انرجی 144
انڈا 144
انہدام 144
اوسطا 144
اوپیرا 144
اِرقام 144
اپری@@ 144
ایپل 144
ایڈمن@@ 144
بدامنی 144
برہ 144
بیور@@ 144
بیکانیر 144
تپہ 144
جسٹ 144
جمود 144
جيمز 144
حادثاتی 144
حیدر@@ 144
خار 144
خدایا 144
ده@@ 144
راہِ 144
رباط 144
رنے 144
ریؒ 144
ریئر 144
سکرپٹ 144
سہروردیہ 144
شہدا 144
صدمے 144
فاشسٹ 144
قبر@@ 144
لؤ@@ 144
ليا 144
مارکی@@ 144
مالائی 144
مجلسی 144
مرغی 144
منافقین 144
ناواقف 144
نگراں 144
ٹونٹی 144
ٹیپ 144
پلاؤ 144
چونگ 144
ڈيل 144
کیپیٹل 144
گستاخی 144
ہارٹ@@ 144
ۃً 144
ﮢﻲ 144
ﺣﻤ@@ 144
1889 143
2,000 143
314 143
322 143
323 143
Be@@ 143
Man@@ 143
state 143
ר@@ 143
آباء 143
أبي 143
ائو 143
ائير 143
ارجمند 143
اري@@ 143
اسٹوری 143
اسٹینڈرڈ 143
اقہ 143
الانصاری 143
الدر@@ 143
القابات 143
الوجود 143
اير@@ 143
اھل 143
ایکسی@@ 143
بابی 143
بالڈون 143
برد@@ 143
بلاول 143
بچت 143
تحار@@ 143
تحریکِ 143
تركي 143
تصنی@@ 143
تولیدی 143
جاچکے 143
جمش@@ 143
جھلی 143
جھنج@@ 143
جیفری 143
حضر 143
داس@@ 143
دسیوں 143
دینیات 143
راط 143
رالدین 143
راہنما 143
رور 143
ریگولی@@ 143
سالا 143
سلوواکیہ 143
سليمان 143
سنز 143
سگریٹ 143
شیش 143
شیعیت 143
صدیقہ 143
عتِ 143
عند@@ 143
قادیانی 143
قتیبہ 143
قیص@@ 143
لتی 143
لیے@@ 143
متک@@ 143
محمّد 143
مذید 143
مرق@@ 143
مشینوں 143
مطالب 143
میلوں 143
مینن 143
نض@@ 143
نغموں 143
نکاسی 143
نگورنو 143
نیتی 143
ودھان 143
وصولی 143
ولکر 143
وّ@@ 143
ٹریس 143
ٹوس@@ 143
ٹولی@@ 143
ٹھکانے 143
پاٹ 143
پیرزادہ 143
چوس@@ 143
چھیڑ 143
چیئرپرسن 143
کھانسی 143
گوشے 143
ھُ@@ 143
ہالہ 143
ہدیہ 143
ہیرا@@ 143
۱۷@@ 143
← 143
1860ء 142
1861ء 142
1893 142
39,@@ 142
York 142
im@@ 142
آئ 142
الان 142
البخاری 142
الٰہ 142
اڈو@@ 142
اگی@@ 142
باور 142
تمھیں 142
جمیلہ 142
جکار@@ 142
جیوتی 142
حلیمہ 142
خوابوں 142
دبستان 142
ذکی 142
رافیل 142
رامن 142
رق 142
روائی 142
رَسُ@@ 142
زش 142
سانت@@ 142
سبت 142
سماٹرا 142
سٹرا 142
صیہونیت 142
ضامن 142
فرم 142
فٹی 142
قلمرو 142
كالج 142
لشکر@@ 142
لنكن 142
لۃ 142
لیلہ 142
لیور 142
ماً 142
میزائلوں 142
میکر 142
نڈم 142
وزر 142
پختونخواہ 142
پونہ 142
پوچھنے 142
پیشِ 142
پیچیدگی 142
چارٹ 142
ڈیلا 142
کاؤنٹ 142
کسیوں 142
کنیسہ 142
کچھو@@ 142
گاؤ@@ 142
گرن@@ 142
ہاو@@ 142
ہِ@@ 142
یاترا 142
یهٔ 142
4.2 141
Gol@@ 141
ary 141
han 141
آزمائ@@ 141
ابول@@ 141
ادار@@ 141
ادبا 141
ارتداد 141
اصح@@ 141
اعادہ 141
اعل@@ 141
اغ 141
اقتباسات 141
الرو@@ 141
الرَّ@@ 141
العلی 141
الہامی 141
امد 141
امروہہ 141
انوکھا 141
انوکھی 141
انگري@@ 141
ايشيائي 141
اِست@@ 141
اپون 141
اڑان 141
ایپی 141
برسلز 141
برنی 141
برینڈن 141
بنوائی 141
تہرانی 141
تیت 141
جدائی 141
جسد 141
حالت@@ 141
حوا 141
خوئی 141
داع@@ 141
دباو 141
درویشوں 141
دعو@@ 141
دوش 141
دَ 141
دیانت 141
رحمی 141
روپوش 141
رپورٹنگ 141
رینکنگ 141
زمروں 141
سانہ 141
سوان@@ 141
سہگل 141
شج@@ 141
صار 141
عفت 141
علامتوں 141
قالب 141
قونیہ 141
لیزر 141
ماوراء 141
مبو 141
مصی@@ 141
مطالع@@ 141
موضوع@@ 141
نالے 141
نعی@@ 141
ينے 141
يٹ@@ 141
ٹلینڈ 141
پریفیکچور 141
چلا@@ 141
کالموں 141
کانٹے 141
کرشمہ 141
کروئی 141
کشنز 141
کمایا 141
کولا@@ 141
گھڑ@@ 141
ہمی 141
یادیں 141
ﺍﺳ@@ 141
1867 140
1878ء 140
332 140
Bo@@ 140
State 140
آدتیہ 140
آشوری 140
آکس@@ 140
احتی@@ 140
ادیو 140
اراونڈڈسمنٹ 140
ارجن@@ 140
ارف 140
اسلو@@ 140
اسیا 140
الاص@@ 140
الفتح 140
اللَّ@@ 140
اللہ@@ 140
اليہ 140
اننت 140
انورا@@ 140
انیل 140
اورابن 140
اچی 140
اہواز 140
ایڈم 140
بؤ@@ 140
برگزیدہ 140
بوری@@ 140
بڑوں 140
بہشت 140
بیہقی 140
تفر@@ 140
تنی 140
جیساکہ 140
حقیر 140
حکمراں 140
حین 140
دروس 140
دیاگیا 140
دیوی@@ 140
ذن 140
ساع@@ 140
سكو 140
سمع@@ 140
سٹرا@@ 140
سکردو 140
سیک 140
شاپ 140
شاہانہ 140
شرعیہ 140
شون 140
طائ@@ 140
عجمی 140
عہدی 140
فخر@@ 140
فلاڈیلفیا 140
فنان@@ 140
قانون@@ 140
كميونٹي 140
ماگ@@ 140
مجلسِ 140
مختلط 140
معلوماتی 140
منگو 140
منگیشکر 140
مونی@@ 140
مہیش 140
نجاشی 140
واد@@ 140
ورمان 140
ورکشاپ 140
وْنَ 140
وہیل 140
پنچایت 140
پير 140
ڈومی@@ 140
ڈپلومہ 140
ژوب 140
کارواں 140
کبوتر 140
کسے 140
کنا 140
کوسٹاریکا 140
کووکے 140
ہري 140
ہورہی 140
یانگ@@ 140
یانہ 140
یوگ 140
ﯾﮧ 140
137@@ 139
1888 139
1891ء 139
440 139
ot@@ 139
א@@ 139
آرکٹک 139
آفیشل 139
افواہ 139
الینیوائے 139
امیروں 139
اوز 139
باجوہ 139
برطرفی 139
بستہ 139
بمب@@ 139
بينٹن 139
بہتی 139
بیوکینن 139
ترکی@@ 139
تھرو 139
حریفوں 139
حسی 139
حنظلہ 139
خاقان 139
خونریزی 139
ذَا 139
رباعی 139
رورسائیڈ 139
روزنام@@ 139
روکتا 139
سرائیوو 139
سیمینار 139
شانگ@@ 139
شاہنواز 139
شعاع 139
شمعون 139
عدت 139
عرش 139
فخرالدین 139
قصاص 139
لشکروں 139
لگائیں 139
لگام 139
لیبل 139
لیری 139
محفلوں 139
ملکر 139
موریتانیہ 139
مومنین 139
میانہ 139
میرٹ 139
نغ@@ 139
نند 139
نڈنٹ 139
وعدوں 139
وكا 139
ويں 139
ِن 139
ٹري 139
پدما 139
پرسنل 139
پروانہ 139
پٹھانوں 139
پیسوں 139
ڈسپلے 139
ڈيم 139
ڈين@@ 139
کازان 139
کرب 139
کروزر 139
کوفیوں 139
کولم 139
گرانے 139
ہتھی@@ 139
ﮏ 139
110@@ 138
1867ء 138
1881ء 138
6,0@@ 138
Parish 138
ard 138
bdi 138
government 138
not 138
style 138
آبا@@ 138
اتح@@ 138
اخی@@ 138
البانوی 138
الفطرت 138
القیس 138
الپ 138
امرا@@ 138
انٹار@@ 138
اولیا 138
اوٹو 138
اٹارنی 138
ایوی@@ 138
بامیان 138
بينك 138
ةَ 138
تبلیسی 138
ثیت 138
جلے 138
جوب@@ 138
جولیا 138
جوڑتا 138
حافظ@@ 138
حاک@@ 138
خانان 138
دانستہ 138
دتہ 138
دھمکیوں 138
دہانے 138
راشٹریہ 138
راہول 138
ریزہ 138
زری@@ 138
زماں 138
زنجی@@ 138
زون@@ 138
سفارتخ@@ 138
سکالر 138
شاداب 138
شاہان 138
شیت 138
صلاحیتیں 138
عہدۂ 138
فاص@@ 138
كلارك 138
لوسیا 138
لوکل 138
مالو@@ 138
متمول 138
مثل@@ 138
مقدار@@ 138
ملحوظ 138
منح@@ 138
مہاکاوی 138
میٹک 138
ناپا 138
ناہید 138
وسنت 138
٩ 138
ٹرینوں 138
پروڈی@@ 138
پیوں 138
چاندنی 138
کاؤنٹیوں 138
کریوں 138
کونا 138
کوٹہ 138
کھوسہ 138
کھولے 138
کھوپڑی 138
ہلچل 138
ہوائیں 138
ہوجانا 138
ہولی@@ 138
ہین@@ 138
ﺗﮯ 138
ﺪﺍ@@ 138
1858ء 137
328 137
352 137
40,@@ 137
7.5 137
Mah@@ 137
اخت@@ 137
اسٹاپ 137
اعتکاف 137
افقی 137
الحافظ 137
اوتی 137
اوغلو 137
اپولس 137
ایون 137
باتی 137
بدلی 137
بھکش@@ 137
بھیڑ@@ 137
بیئ@@ 137
تہہ 137
حدیثوں 137
خطۂ 137
دقیق 137
دُور 137
رومال 137
سریانی 137
سرینگر 137
سیکرٹریٹ 137
شرع 137
شوع 137
شہو@@ 137
صفد 137
ضابوا@@ 137
طاؤس 137
ظر 137
فرینڈ 137
فشر 137
فلورایڈا 137
قوم@@ 137
لاشاری 137
لذت 137
لفورڈ 137
لہو 137
محوری 137
مذکر 137
میمہ 137
ناتھن 137
نارا 137
ندن 137
وبت 137
وشا 137
يع@@ 137
يلي@@ 137
يوس 137
ُو 137
ٹکر 137
ٹیکسی 137
پشین 137
پڑھیے 137
چِ@@ 137
ڈھالا 137
ژی 137
کاؤ 137
کاردار 137
کاٹن 137
کشائی 137
کوڑا 137
گئے@@ 137
گاہک 137
گدی 137
ہدایہ 137
ہراسانی 137
ہشتم 137
ہوسکے 137
1700 136
1887ء 136
327 136
40.@@ 136
48.@@ 136
D9 136
Nebraska 136
U.S. 136
آو@@ 136
ئوں 136
ائیجان 136
ابوطالب 136
احترا@@ 136
افلاطون 136
الائیڈ 136
المشائخ 136
المہدی 136
امرت 136
امیرالمؤمنین 136
ایں 136
بالش@@ 136
بربادی 136
بلیغ 136
بوڑھا 136
بوہی@@ 136
بير@@ 136
بھجوا@@ 136
بہم 136
ةً 136
تجرب@@ 136
تسبیح 136
تے@@ 136
ثمر 136
جوئ@@ 136
جوان@@ 136
جھیل- 136
حیفا 136
دين@@ 136
دھنی 136
رابع 136
رسی@@ 136
روض@@ 136
زیات 136
سٹوری 136
سیکول@@ 136
سیکھنا 136
شعاعیں 136
شيا 136
شیطانی 136
عساکر 136
عقب 136
فرج 136
قسطنطین 136
قنوج 136
قیں 136
مباہلہ 136
متب@@ 136
متعہ 136
مرچنٹ 136
مرکزیت 136
مستطیل 136
معالجہ 136
معہ 136
موتھ 136
مونگ 136
مکاں 136
نبیل 136
نزا 136
وصی 136
ولندیزی 136
ویسا 136
ّد 136
پجاری 136
پرسی 136
پستول 136
پھینک@@ 136
چہار@@ 136
ڈرائنگ 136
ڈیموکریٹس 136
کرائیں 136
کى 136
کھڑکی 136
کینی 136
گرانڈ 136
گولا@@ 136
ہنٹنگٹن 136
ہنڈ@@ 136
ہووارڈ 136
ہیگ 136
ﺍﯾﮏ 136
ﻠﮧ 136
1883ء 135
335 135
38,@@ 135
381 135
45.@@ 135
Darreh 135
^ 135
ul@@ 135
آرمینیائیوں 135
ابراہیمی 135
ارطغرل 135
اسکوا@@ 135
الآثار 135
الجھن 135
الشر@@ 135
العزی@@ 135
انطاکیہ 135
اوون 135
اٹا 135
اہیں 135
ایلسورتھ 135
باسفورس 135
بدو 135
بربریت 135
بھاپ 135
بھومی 135
تَ 135
تکالیف 135
جاناں 135
جف@@ 135
جہانگ@@ 135
حراستی 135
حلق 135
حمیدہ 135
دکی 135
دھواں 135
رودبار 135
رونی 135
ریخ 135
سائرس 135
سبقت 135
سدھو 135
سمرسیٹ 135
سپردِ 135
صرا@@ 135
عبدالوہاب 135
عس@@ 135
عقیق 135
غار@@ 135
فورڈشائر 135
كْ@@ 135
لاحقہ 135
لوتھ@@ 135
لوتھر 135
مالك 135
مجبوراً 135
مجسم 135
مم 135
منزلوں 135
ميہ 135
میلکم 135
ننھا 135
والہانہ 135
واہن 135
ولوج@@ 135
وني@@ 135
وودز 135
ٹتے 135
ٹوری 135
ٹیلا 135
پاؤڈر 135
چھوڑیں 135
کوئنزلینڈ 135
کڈ 135
گھن@@ 135
ہام@@ 135
ہٹنے 135
ﭽ@@ 135
ﺩﻭ@@ 135
ﻑ 135
ﻫ@@ 135
0.6 134
ali 134
ā@@ 134
آبدوز 134
آرہی 134
آسودۂ 134
ابرار 134
ابوظ@@ 134
اتفاقی 134
اخوت 134
ادان 134
اراک@@ 134
ارضی 134
اروناچل 134
اسد@@ 134
الجام@@ 134
اُم 134
اٹلانٹک 134
اکنامک 134
اید 134
باگو 134
بسنت 134
بسیں 134
بطلیموس 134
بنسی 134
بڑھیں 134
بینکس 134
تاپ@@ 134
تریپورہ 134
تشریحات 134
تہجد 134
جادو@@ 134
جمنٹ 134
خزر@@ 134
خطبے 134
خیرمقدم 134
رهٔ 134
ريو 134
ریال 134
ساپ@@ 134
سرداری 134
سرینام 134
سنبھل 134
سنکی 134
سکاٹش 134
سکھانے 134
سہار@@ 134
سہولتیں 134
سیمینری 134
شہنش@@ 134
ضَ@@ 134
عبدالحکیم 134
عبدالرحیم 134
عشریہ 134
علاؤالدین 134
عوامي 134
فارمیٹس 134
فروع 134
فورک 134
قریبا 134
قزاقوں 134
لات@@ 134
لامحدود 134
لۂ 134
لیکس 134
معتقد 134
موریسن 134
موچی 134
ننکانہ 134
نٹوں 134
واکیہ 134
ودر@@ 134
وٹا 134
وڈی@@ 134
ٹوو 134
پرسن 134
پرچار 134
پنس@@ 134
پہنچاتے 134
چاقو 134
چہ@@ 134
چہل 134
ڈیل@@ 134
کنانہ 134
کھن@@ 134
کھنڈرات 134
کینڈل 134
گرمائي 134
ہاؤسنگ 134
র@@ 134
ﺩﺍ@@ 134
345 133
372 133
395 133
41.@@ 133
560 133
BC 133
Indian 133
world 133
ارغون 133
استنباط 133
استور 133
اضافیت 133
الباری 133
الوا 133
امیں 133
اولیٰ 133
اُٹھا 133
اہر 133
باہ 133
برونڈی 133
بروک@@ 133
بورا 133
بولیوں 133
بیز 133
تیروں 133
جاب 133
جوناگڑھ 133
حرفی 133
خزر 133
خوشبو@@ 133
خیبرپختونخوا 133
دستِ 133
رابن@@ 133
ربڑ 133
روئ@@ 133
رچ 133
ریزی@@ 133
رینگ@@ 133
سؤ@@ 133
سوفی 133
شاہراہوں 133
عاف@@ 133
عجم 133
عزوجل 133
غذائیت 133
غرب 133
فرما@@ 133
فرنیچر 133
فلاس@@ 133
قاع@@ 133
قلعهٔ 133
لزبن 133
لزم 133
ماڈرن 133
مبا@@ 133
مسع@@ 133
مشرا 133
معرو@@ 133
معن@@ 133
منگٹن 133
موسموں 133
میلی 133
مینیا 133
ناگا 133
نصراللہ 133
نوجوانی 133
نکالتے 133
هَ 133
وریج 133
وولف 133
وڑی 133
ينز 133
ٹیکسوں 133
پبلی 133
پلایماؤت 133
پونڈ 133
پوچھتے 133
پہچانی 133
ڈیزل 133
ڈیموکری@@ 133
کاح@@ 133
کاروان 133
کالنگ 133
کتھ@@ 133
کرغیز 133
کھم 133
کھینچا 133
کہف 133
گلاسگو 133
ں- 133
ﭩ@@ 133
1856ء 132
az 132
ha 132
ous 132
rural 132
آتشیں 132
آپکا 132
اختتامی 132
ادگان 132
اسمبلیوں 132
اغراض 132
افزا 132
الجبار 132
الجبرا 132
اوسطاً 132
اوقیان@@ 132
اوي 132
اکیڈ@@ 132
اگرا@@ 132
ایٹن 132
ایڈوبی 132
ایڈولف 132
باہو 132
برسات 132
بھیجتا 132
تارڑ 132
تدابیر 132
تلو@@ 132
تیاریوں 132
جلنے 132
حشرات 132
حقان@@ 132
خضدار 132
دلیر 132
ذہ 132
رابطوں 132
رضاعت 132
روپیے 132
رکے 132
رہو@@ 132
رہوڈ 132
ریستوران 132
ریسٹ 132
زارا 132
زاویے 132
زمان@@ 132
سدقباد 132
سدھارتھ 132
سري 132
سلیکٹرز 132
سماں 132
سمجھیں 132
سودہ 132
سیڈ@@ 132
شه@@ 132
شوی@@ 132
شیکسپیئر 132
صوت@@ 132
عابدہ 132
عشروں 132
عیاض 132
فائٹر 132
قهٔ 132
كنگ@@ 132
كيرو@@ 132
لاٹھی 132
لیاری 132
محمول 132
مرتض@@ 132
معط@@ 132
ملاح 132
مونٹگمري 132
نب 132
نمائی 132
نہج 132
نینا 132
نیوکلی@@ 132
نیپچون 132
وتا 132
وكٹوريہ 132
ولت 132
ٹانک 132
ٹکراؤ 132
ٹیلیفون 132
پارٹي 132
پھیلتی 132
چھاڑ 132
کاشغر 132
کاشمیری 132
کالجز 132
کرسٹی@@ 132
کنار 132
کنسرٹ 132
کوک@@ 132
کھان 132
کھپت 132
کےلئے 132
گوان 132
گودام 132
گوٹ 132
ہیروشیما 132
یورینس 132
یگانہ 132
318 131
336 131
354 131
44,@@ 131
47.@@ 131
Khan@@ 131
Mon@@ 131
Santa 131
ש@@ 131
آک@@ 131
ارون@@ 131
اساطیری 131
اسکولی 131
الأ@@ 131
المناک 131
الوار@@ 131
اوکی@@ 131
اگن 131
ایرو 131
ایمیٹ 131
بتاریخ 131
بھنج 131
تاز@@ 131
تایا 131
تبی@@ 131
تحمل 131
تفاوت 131
توکل 131
تڑ@@ 131
ثَ@@ 131
حروفِ 131
خانپور 131
خواجگان 131
دوی@@ 131
دھونے 131
دہا 131
دہانہ 131
راجیش 131
رسولوں 131
رصد 131
رضي 131
سبر@@ 131
سردار@@ 131
سوئز 131
سوسائ@@ 131
سویرے 131
سٹائن 131
سیچیلیس 131
شمارندہ 131
ضاب@@ 131
عبدالم@@ 131
عليه 131
غِ 131
فالو 131
فع 131
فیف 131
قرص 131
قیم 131
كوك 131
متمکن 131
محرومی 131
ملو 131
مہات@@ 131
میش 131
میلو@@ 131
مینہ 131
میٹھی 131
ناوا 131
ناپسندیدہ 131
نظامات 131
نمازوں 131
ننگ@@ 131
وادی@@ 131
وتق@@ 131
ومنٹ 131
ونيا 131
ٹزر 131
ٹیکنالوج@@ 131
پاروتی 131
پاپولر 131
پنوں 131
پیکارڈی 131
پیکٹ 131
چلڈرن 131
چینج 131
ڈائریکٹرز 131
کاؤنٹی- 131
کرواتے 131
کندھوں 131
کوبھی 131
کڑا 131
کھلونے 131
گارڈنز 131
گرڈ 131
گنگوہی 131
گھڑت 131
ہاس 131
ہالی@@ 131
ہخامنشی 131
یثرب 131
۰۰ 131
ﮩﺎ@@ 131
1850ء 130
1869ء 130
1879ء 130
338 130
348 130
Gu@@ 130
ay@@ 130
du@@ 130
states 130
ابھرتے 130
اتری 130
اربعین 130
استوا 130
اشاروں 130
اعراب 130
اعمش 130
الجزیرہ 130
المرتضی 130
الپس 130
انبار 130
انڈہ 130
انکل 130
اچاریہ 130
بوٹسوانا 130
بینٹ@@ 130
تانی 130
تحريك 130
ترانے 130
تز 130
تصحیح 130
تعزیت 130
توراۃ 130
توپ@@ 130
تیکا 130
ثقۃ 130
جامعۃ 130
حبش 130
حرکیات 130
ختنہ 130
خطِ 130
خمی@@ 130
دربار@@ 130
دري@@ 130
دوحہ 130
دۃ 130
راولاکوٹ 130
ستیں 130
سناتے 130
صراحت 130
ضاء 130
ضدابہام 130
عبدالرزاق 130
عداوت 130
فارمولا 130
فتوے 130
فلمایا 130
قیوم 130
كام 130
لوری@@ 130
ماخ@@ 130
مالک@@ 130
مانک 130
مبے 130
مجبوری 130
مختص@@ 130
مسلئہ 130
مشروبات 130
مشیروں 130
معجم 130
ملاح@@ 130
منشا 130
منق@@ 130
منگو@@ 130
مينے 130
مڈل@@ 130
نانپارہ 130
نضر 130
نیے 130
هر@@ 130
واردات 130
وانگ@@ 130
وفی@@ 130
ویلو 130
ياتي 130
ياں 130
ٹال 130
ٹاک@@ 130
پختگی 130
پروٹون 130
پریت 130
پلي@@ 130
پوزی@@ 130
پھیپھڑوں 130
پیانو 130
پینی@@ 130
چاؤ 130
چیمپین 130
چیون@@ 130
چیکوسلو@@ 130
ڈرتے 130
کرنا@@ 130
کلئیر 130
کووو 130
گئی@@ 130
گھوٹکی 130
گہوارہ 130
گیسوں 130
ہنومان 130
-- 129
1849 129
20,000 129
339 129
45,@@ 129
College 129
John 129
ne 129
ائوں 129
اختیاری 129
ارز 129
اساسی 129
اعصاب 129
الاسلامیہ 129
الغرض 129
الوحید 129
انڈیپینڈینس 129
ايا 129
بارشوں 129
برٹن 129
بشار 129
بقرہ 129
بولیاں 129
بوک 129
بھوجپوری 129
بھگا 129
بہاد@@ 129
بیریا 129
بیونس 129
تعطیل 129
تلاشی 129
تواتر 129
تولی@@ 129
ثقاف@@ 129
جامع@@ 129
جنجوعہ 129
جنٹ 129
جوہن 129
جکبو@@ 129
حالاتِ 129
خاتم 129
خلف@@ 129
درپے 129
دیود@@ 129
راہوں 129
رحجان 129
روو 129
ريكو 129
ریق 129
ریلے 129
زٹاؤن 129
سالمیت 129
سرو 129
سلوا 129
شریان 129
شریفین 129
شیئرڈن 129
عبداللهٔ 129
عۂ 129
غبار 129
قدامہ 129
قرشی 129
قلہ 129
قن 129
لوب 129
لہسن 129
لیجنڈ 129
مائیں 129
مصرو@@ 129
معاون@@ 129
مکلین 129
مہؓ 129
مہندی 129
میلی@@ 129
میکانی@@ 129
نذرانہ 129
نمونۂ 129
ورر 129
ولیج 129
ٗ@@ 129
ٹوگو 129
پالو 129
پکے 129
چك 129
چورا@@ 129
چھونے 129
کاریں 129
کما 129
کولونیا 129
گم@@ 129
یابی 129
یمامہ 129
31@@ 128
Sa@@ 128
ap@@ 128
ers 128
jeh 128
آرلنگٹن 128
آسامی 128
آپریشنز 128
ائجان 128
ابر@@ 128
احتشام 128
اخوند 128
اصلاً 128
الحکوم@@ 128
الدع@@ 128
الٰ@@ 128
الکو@@ 128
اویلر 128
ایاس 128
ایوانِ 128
ایڈری@@ 128
برادرز 128
بلوں 128
بٹن 128
ة@@ 128
جیر 128
حصین 128
حوثی 128
حیدراباد 128
داب@@ 128
درمیاں 128
دریافتوں 128
راجوری 128
رتِ 128
رشی@@ 128
ريں 128
سانتو 128
سرچشمہ 128
سوائی 128
شائد 128
صدي 128
صیغہ 128
طین 128
علاقائي 128
علاقہ- 128
فتو@@ 128
فقہاء 128
فنک@@ 128
قائمہ 128
قادسیہ 128
قدسیہ 128
قضیہ 128
لیونارڈ 128
مناظ@@ 128
مورتیاں 128
نشا 128
نیروبی 128
وزو 128
وفائی 128
ونے 128
ويس 128
وْا 128
ویٹیکن 128
ٹوٹے 128
ٹيك@@ 128
چونے 128
کاج 128
کافور 128
کاکی@@ 128
کلاسیکل 128
کنگمین 128
کنہیا 128
کیتھ 128
کیلاش 128
گرمين 128
گني 128
ہاروی 128
ہربرٹ 128
ہسپتالوں 128
ہمرکاب 128
ہےاور 128
یوسفی 128
17ویں 127
1858 127
1a 127
357 127
363 127
49.@@ 127
5,000 127
570 127
8000 127
Korea 127
ל@@ 127
آلبیون 127
آپکو 127
ارس 127
اسر@@ 127
اسمعیل 127
اسپار@@ 127
الجامع 127
الجھ@@ 127
انڈونی@@ 127
انگری@@ 127
اوسلو 127
اوگ@@ 127
بورس 127
بڑھاتے 127
بھانجے 127
بھوت 127
بیحہ 127
تذکرے 127
تعليم 127
توپیں 127
توی@@ 127
تھوں 127
جوزی 127
جھک 127
جینس 127
حول 127
حیات@@ 127
خوار@@ 127
دروز 127
دير 127
رالف 127
رط@@ 127
رنس 127
ریری 127
زح@@ 127
زنگی 127
سرورق 127
سمجھانے 127
سننا 127
سیفی 127
شریح 127
صبیح 127
ضحاک 127
طلی@@ 127
عثمان@@ 127
عطیات 127
غل 127
فقرے 127
فینکس 127
قاف 127
كتب 127
لائنیں 127
مالوا 127
مبیا 127
مشی@@ 127
مصنف@@ 127
مفقود 127
ملائی@@ 127
ممنوعہ 127
موا 127
مہمند 127
نرس 127
نص 127
نورزئی 127
نیلوفر 127
نیوپورٹ 127
وارک 127
واپ@@ 127
وبین 127
ولان 127
ونل 127
ونیت 127
پورٹل 127
چنائی 127
کلف@@ 127
کلیئرواٹر 127
کھلایا 127
کہنہ 127
گردانا 127
گزارش 127
گلبرٹ 127
ہرش 127
ہزاروی 127
ہضم 127
یاگ@@ 127
یول@@ 127
ﺍﯾ@@ 127
1840 126
344 126
362 126
540 126
Bolagh 126
aj 126
cities 126
id@@ 126
ְ@@ 126
آسی@@ 126
أن 126
ئت 126
ابلا@@ 126
ابوعبداللہ 126
اترتے 126
اجلاسوں 126
ادائی@@ 126
التجا 126
العصر 126
الور 126
الھ@@ 126
الیکس 126
انچیون 126
اوٹ@@ 126
اہت 126
ایلو@@ 126
برززن@@ 126
برطانویوں 126
بكر 126
بنہ 126
بویہ 126
بچیوں 126
تراشی 126
تعزیرات 126
تقابل 126
تمر 126
تول 126
تیان 126
جھ 126
حام@@ 126
حنی@@ 126
خا@@ 126
خانوا@@ 126
خلفا 126
خْ@@ 126
زرین 126
ساسانیوں 126
سلو 126
سینڈ 126
سیڈجویک 126
شجر@@ 126
شفاعت 126
شیعی 126
طلال 126
عجائبات 126
عزیر 126
عَلَى 126
فص@@ 126
فضلا 126
فوزیہ 126
فولاد 126
قرط@@ 126
كول 126
لامتناہی 126
لمحات 126
لوار 126
لہری 126
لینز 126
مارتے 126
مستثنیٰ 126
مسکرا@@ 126
مصر@@ 126
مورد 126
میکن@@ 126
ناظر 126
نوابوں 126
نگاہوں 126
وائيومنگ 126
وانہ 126
وقتا 126
ولینی 126
ومی@@ 126
وہابی 126
وۃ 126
ٽ@@ 126
پٹسبرگ 126
پیشوں 126
پینانگ 126
کرائ@@ 126
کروائیں 126
کریاں 126
کوکو 126
کوہلی 126
کپل 126
کھنڈ@@ 126
کھونے 126
گرائمر 126
گراد 126
گنبد@@ 126
ہست@@ 126
یاج@@ 126
یارڈ 126
یرے 126
یوز 126
ﯾﺎ 126
0.9 125
1873 125
319 125
331 125
337 125
355 125
5.5 125
59.@@ 125
Ab 125
Laurent 125
chi 125
th@@ 125
yn@@ 125
ère 125
ؑ@@ 125
آرائیں 125
آگئیں 125
اتفاق@@ 125
اثباتی 125
ارتکاز 125
اسب 125
اسکری@@ 125
الیکٹرانکس 125
اگون 125
ایروکواے 125
بٹگرام 125
بھارتي 125
بھنڈ@@ 125
بیون 125
تفری@@ 125
تواضع 125
تھور@@ 125
جلالی 125
جود 125
جیمس 125
خانوادہ 125
دلدل 125
دواؤں 125
دوشی 125
دَور 125
رازم 125
راون 125
راک@@ 125
رجسٹ@@ 125
رفقا 125
زرتش@@ 125
زیرو 125
سرائی 125
سرگر@@ 125
سوئنگ 125
شاہنامہ 125
شبانہ 125
شعبی 125
شما 125
عتاب 125
عیادت 125
عید@@ 125
غدار 125
غير 125
فارمیسی 125
فلو 125
فیڈری@@ 125
قافلوں 125
لالی@@ 125
لانس 125
لدار 125
لگادی 125
لیوری 125
لیکا 125
مآب 125
محمدﷺ 125
مرز 125
مقتل 125
موٹ@@ 125
موی@@ 125
ميٹروپوليٹن 125
مَّ@@ 125
مہربانی 125
میسی 125
ناصری 125
ندرا 125
نوٹ@@ 125
وحدیث 125
وسن 125
ولیت 125
٢٠@@ 125
پرعزم 125
پریزیڈنسی 125
پوتن 125
پوميرانيان 125
پٹھوں 125
پھیلتا 125
ڈرل 125
کندی 125
کوانٹم 125
کونسل@@ 125
کھاد 125
گرین@@ 125
یرموک 125
یوک 125
ਰ@@ 125
ﮐﻮ@@ 125
ﮫ 125
1300 124
147@@ 124
3.3 124
364 124
530 124
Hajji 124
man@@ 124
ni 124
os 124
آئینے 124
آرچ 124
آم@@ 124
ائری 124
ارمینی 124
اشتقاقیات 124
اعلام 124
الصلو@@ 124
امکانی 124
انمول 124
اوو 124
اکرمؐ 124
اگستیہ 124
اینگلز 124
ایکٹن 124
باآسانی 124
باربوڈا 124
بحیرۂ 124
بدایوں 124
بدلتی 124
براعظموں 124
بوتل 124
بھٹائی 124
تك@@ 124
تووہ 124
جبران 124
جینی 124
جینیفر 124
خرافات 124
دجال 124
دنے 124
رجز 124
رقوم 124
ريك@@ 124
زُ@@ 124
سرپسکا 124
سیاہی 124
شانی 124
شخ@@ 124
صدا@@ 124
صدق 124
ضر 124
طغرل 124
عملدرآمد 124
عیاش 124
غور@@ 124
فراست 124
فوق@@ 124
فیلی 124
قبہ 124
كت 124
لئے@@ 124
مانگ@@ 124
مراسم 124
مستقر 124
مصط@@ 124
معد@@ 124
معرض 124
ملازمتیں 124
ملبوس 124
ملفوظات 124
مناس@@ 124
ناانصافی 124
نابالغ 124
ناریل 124
ننگرہار 124
نہم 124
وزنی 124
وود@@ 124
وہم 124
پروپیگنڈے 124
پرہیز@@ 124
پنشن 124
چال@@ 124
چھتوں 124
ڈائر 124
ڈرافٹ 124
کاٹا 124
کٹری 124
کھود 124
کےلیے 124
گئ@@ 124
گاتی 124
گزرنا 124
گیانگ 124
ہیبسبرگ 124
یومِ 124
ﮐﮭ@@ 124
ﺁﭖ 124
ﺎﻡ 124
0.2 123
1840ء 123
1849ء 123
1861 123
1868ء 123
351 123
356 123
Qar@@ 123
Tar@@ 123
Time 123
Ur@@ 123
w 123
آمدی 123
ابراہيم 123
اسٹونین 123
اسٹوڈنٹس 123
الانوار 123
امامہ 123
انوی@@ 123
انٹو 123
اه 123
اوند 123
اکان@@ 123
ایورسٹ 123
بازنطینیوں 123
بالغوں 123
باڑ 123
براہوئی 123
بروں 123
بریٹن 123
بيل 123
تبی 123
تخریب 123
تعی@@ 123
تیلی 123
جھانسی 123
جینوا 123
حسنِ 123
خاران 123
خدوخال 123
درخوا@@ 123
دیپالپور 123
راہو@@ 123
رولز 123
ریستوراں 123
ریوی@@ 123
زمانوں 123
زمين 123
سدھن 123
سندی@@ 123
شگاف 123
صار@@ 123
ضرر 123
عذرا 123
غو@@ 123
فلیچر 123
فۂ 123
قرابت 123
قرامطہ 123
لہر@@ 123
مائیکرو@@ 123
مجھ@@ 123
مراجع 123
مسابقتی 123
مستشرق 123
ملک@@ 123
مناجات 123
منبہ 123
موئانگ 123
مولا@@ 123
مِنْ@@ 123
مچا 123
مہار 123
نالیوں 123
ننگے 123
واپڈا 123
وزہ 123
پھوڑ 123
چچان@@ 123
چیوں 123
ڈنڈی 123
ڈوز 123
ڈپو 123
ڈکشنری 123
ڈیولپمنٹ 123
کاایک 123
کارخانہ 123
کروسٹوفے 123
کلوں 123
کمپیوٹنگ 123
کہا@@ 123
کیز 123
کیمپ@@ 123
کیڈٹ 123
گرافٹن 123
گریناڈا 123
گفت@@ 123
گوجرہ 123
گورنرز 123
ہندسیات 123
یوجین 123
یوگوسلا@@ 123
یوگی@@ 123
ﭘﯿ@@ 123
ﺭﻭ@@ 123
-سر 122
13ھ 122
3.4 122
3.6 122
6.5 122
640 122
del 122
end 122
ic@@ 122
آمنے 122
آچکی 122
ازت 122
اسماعیلیوں 122
اقبالیات 122
امارکا 122
انوس 122
اولمپ@@ 122
اویر 122
ایات 122
ایمنسٹی 122
ایگری@@ 122
اۓ 122
بآسانی 122
بج 122
بحرالکاہل 122
براؤزر 122
بھاگتے 122
بہلول 122
بہو@@ 122
ترنم 122
تعزیہ 122
تےہیں 122
جڑانوالہ 122
جیرہ 122
حیض 122
خصائص 122
خصوص@@ 122
خیرباد 122
دادیں 122
داشتہ 122
دانشور@@ 122
درس@@ 122
دوئی 122
دورۂ 122
رسوا 122
رونالڈ 122
روپڑ 122
ریکھا 122
سڑ@@ 122
سیسی 122
سیمہ 122
شون@@ 122
صائمہ 122
صفاتی 122
عشاء 122
عطا@@ 122
عمار@@ 122
فرحان 122
فرنس 122
فرنی@@ 122
فرینکفرٹ 122
قات@@ 122
قن@@ 122
قیامِ 122
لیکسنگٹن 122
ماو 122
مدون 122
مران 122
مرج 122
مسیب 122
مشعل 122
مضحکہ 122
موروس 122
میلا@@ 122
نذر@@ 122
نصر@@ 122
نگر@@ 122
وسہ 122
ٹرائی 122
ٹھٹوی 122
پامیر 122
پاٹ@@ 122
پرائم 122
پروانس 122
پلاننگ 122
پیپل 122
چھوڑتے 122
چیر 122
ڈسٹ 122
ڈوئ@@ 122
کلاسک 122
کلن 122
کمال@@ 122
کنٹریکٹ 122
کھیر 122
گذرنے 122
گردی@@ 122
گڑھا 122
گیری@@ 122
ہنسی 122
ہیپی 122
یین 122
1875 121
347 121
366 121
396 121
57.@@ 121
Bagh 121
Prefecture 121
ch 121
em@@ 121
ity 121
ּ@@ 121
آپنے 121
اجازہ 121
اداکار@@ 121
ازہر 121
اسدآباد 121
اشتر 121
اص 121
افغ@@ 121
الَّذِ@@ 121
الَّذِينَ 121
الہادی 121
انٹ 121
انڈ 121
انڈسٹریل 121
ایوانوں 121
براون 121
برگنڈی 121
بونڈ 121
بکھری 121
تانگ@@ 121
تصوراتی 121
تعلقی 121
تمثیل 121
تپ 121
جنا@@ 121
حفظ@@ 121
حکی@@ 121
حیدہ 121
خدی@@ 121
دریغ 121
راٹھور 121
رومانیت 121
روچیسٹر 121
زگرو@@ 121
سامری 121
ساکی 121
سلطنتِ 121
شاہدہ 121
شکستہ 121
شیٹی 121
صِ@@ 121
طعن 121
ظن 121
عظم 121
غال 121
غری 121
فیکٹریوں 121
قلع 121
كير@@ 121
لكھ@@ 121
لونی 121
ماقبل 121
محبوبہ 121
مرادآباد 121
مرجانی 121
مزاجی 121
مسابقت 121
موہنجو@@ 121
ناسخ 121
نانپاروی 121
نشوونما 121
نيواڈا 121
وانس@@ 121
وراثی 121
وزار@@ 121
ویٹی 121
ينو 121
يوں 121
ٹانگیں 121
ٹاورز 121
پروویڈنس 121
پنی@@ 121
پوٹھ@@ 121
پویلین 121
پہننا 121
چاہنے 121
چلیں 121
چھڑ 121
چہروں 121
ڈرسن 121
ڈوس 121
ڈینش 121
ڈینٹل 121
ڈینیل 121
کالم@@ 121
کانا 121
کتھا 121
کلیمنٹ 121
کوریو@@ 121
کوش 121
کولمبی@@ 121
کولو 121
گراونڈ 121
گوجران@@ 121
گیٹس 121
ہوئ@@ 121
ہیبس 121
ہیما 121
ہیوران 121
ینگجیہ 121
ﺷﺎ@@ 121
0.3 120
1804 120
490 120
Loire 120
Shuaib 120
ang@@ 120
jan 120
lu@@ 120
object 120
ءِ 120
آغاز@@ 120
آمدید 120
آمرانہ 120
اربابِ 120
اربوں 120
استم@@ 120
اشتہاری 120
اصلیت 120
اناط@@ 120
انجلی 120
اونی@@ 120
اوپنر 120
اينڈ 120
اہِ 120
برہمو 120
بطریق 120
بلانے 120
بورین 120
بینکاک 120
ةٍ 120
تالپور 120
ترتی@@ 120
تْ 120
جای@@ 120
جعفر@@ 120
جیلوں 120
حلقۂ 120
خرو@@ 120
دعوتِ 120
دقت 120
دھڑ 120
رویا 120
زکوۃ 120
سادھو 120
سسی 120
صابن 120
صبغ@@ 120
طراز 120
طنجہ 120
ظت 120
عراقیوں 120
غدود 120
فانہ 120
فریزر 120
فسط@@ 120
فکر@@ 120
قتال 120
كات@@ 120
كراچي 120
لق 120
لمہ 120
محنتی 120
محکم 120
مستعار 120
مشینری 120
منے 120
مہند@@ 120
میان@@ 120
مینوفیکچرنگ 120
نارو 120
نقشبند 120
نورس 120
نکہ 120
نیش 120
والق@@ 120
وسو 120
ويو 120
پارٹنر 120
پرگنہ 120
چغ@@ 120
چندر@@ 120
چڑھایا 120
چیدہ 120
چیپ@@ 120
ڈپلوما 120
کائی@@ 120
کلمین 120
کویتی 120
کیئر 120
گارڈین 120
گولڑہ 120
گیشن 120
ہشت 120
ہوئ 120
ہوانگ 120
ہیت 120
یومیہ 120
ﯿﮧ 120
ﺅ@@ 120
127@@ 119
346 119
367 119
385 119
40ھ 119
48,@@ 119
639 119
Con@@ 119
Mi@@ 119
Shah 119
af@@ 119
au 119
ek 119
il 119
le@@ 119
آجائیں 119
اؤٹ 119
ابرہ@@ 119
استی@@ 119
اسحٰق 119
اسور 119
اعت 119
الارض 119
البي@@ 119
انور@@ 119
اورنہ 119
ايسٹ 119
اں@@ 119
بارسلونا 119
باغی@@ 119
بتی 119
بحیرهٔ 119
بدھا 119
بصورت 119
بڑھاوا 119
بھلے 119
بھورے 119
بۃ 119
بیرو@@ 119
بیضوی 119
ةُ 119
ترو 119
تقاض@@ 119
تقریباََ 119
تقریریں 119
تلواریں 119
جاگ 119
جاگیر@@ 119
جاگیردارانہ 119
جیکٹ 119
جیے 119
حاش@@ 119
داشت 119
درانہ 119
دقیقہ 119
دھام 119
دھوکے 119
دیرپا 119
راشن 119
راقم 119
رسولؐ 119
رسولﷺ 119
ریس@@ 119
ریلیف 119
زرہ 119
سلک 119
سٹیڈیم 119
سہارن@@ 119
سیزر 119
صیہونی 119
عمرو@@ 119
عين 119
فتنے 119
فلاور 119
فہمی@@ 119
قزلباش 119
قصائد 119
قفق@@ 119
كوہ 119
لول@@ 119
لکا 119
لہب 119
لینگ 119
متعل@@ 119
مسودے 119
مقتدر 119
مقص@@ 119
ملیح 119
ملیریا 119
مونہ 119
نيٹ 119
نیابت 119
والس 119
ورزیوں 119
وسان 119
وسیا 119
وکٹوریا 119
ٹين@@ 119
ٹیمپ@@ 119
پارٹ 119
پراکرت 119
پولین 119
پہنتی 119
پیئر 119
پیز 119
چرل 119
چشت 119
ڈانسر 119
کارٹون@@ 119
کسٹن 119
کچا 119
کچے 119
کیلیڈونیا 119
کیٹی@@ 119
گفتار 119
گمراہی 119
گوت@@ 119
گولن 119
ہوئی@@ 119
یونیورسل 119
﻿ 119
1830ء 118
1864ء 118
3.1 118
342 118
343 118
7,0@@ 118
9,0@@ 118
Gar@@ 118
Kand 118
Th@@ 118
ie 118
× 118
آدی 118
آریا 118
آلا@@ 118
آچکے 118
ابراھیم 118
ابھر@@ 118
ادھم 118
اردوئے 118
ارِ@@ 118
اشرفی 118
الحرمین 118
العنان 118
الیکٹریکل 118
انتساب 118
اورال 118
اورکہا 118
ايف 118
اگاوا 118
اہا 118
ایوا 118
باسی@@ 118
بالاجی 118
بجار 118
بحيرهٔ 118
برحق 118
بروجردی 118
بعنوان 118
بونیر 118
بوٹیوں 118
بہا@@ 118
تمھ@@ 118
تُو 118
تکریم 118
ثین 118
جوڈی@@ 118
خلعت 118
خيل 118
دیسائی 118
ذہنیت 118
راجی@@ 118
روج 118
روحوں 118
روس@@ 118
زند 118
زين 118
ساق@@ 118
شتری 118
شش@@ 118
صدف 118
طرا@@ 118
طعام 118
فادر 118
فرانس@@ 118
فري 118
فز@@ 118
قلا@@ 118
لاش@@ 118
لما 118
لند@@ 118
مارس 118
مرثیے 118
مسیسیپی 118
ممتا 118
مٹی@@ 118
میے 118
نشیبی 118
نورا 118
نيشنل 118
نُ 118
نیشا 118
وحشیانہ 118
وزے 118
ٴ@@ 118
ٹیلہ 118
پرور 118
پوکیمون 118
پگڑی 118
پینسلوانیا 118
پینٹر 118
چلانا 118
چھترپتی 118
ڈریک 118
ڈینٹ 118
کانگریسی 118
کومب 118
کونسلر 118
گروندے 118
گوہاٹی 118
ہریش 118
ہنٹر 118
ہوبارٹ 118
ہیز 118
یشن 118
ینی@@ 118
8,0@@ 117
Hajj 117
av@@ 117
آرہا 117
آلِ 117
آنگن 117
ئونگ 117
ائیر@@ 117
ابے 117
ارادوں 117
اروی 117
البغ@@ 117
الخوارزم 117
الطیف 117
ايو@@ 117
اپٹ@@ 117
بدی 117
برکی 117
بشرطیکہ 117
بقاء 117
بلخی 117
بلند@@ 117
بلیئر 117
بورصہ 117
بھیجیں 117
بھینس 117
بیروٹ 117
بیمار@@ 117
تلمی@@ 117
تمھارے 117
تمیمی 117
توف 117
جين@@ 117
جڑوں 117
حضر@@ 117
خلیق 117
خوروں 117
دازور 117
دقی@@ 117
دیث 117
رؓ 117
رتنا@@ 117
رودر 117
رچی 117
رگڑ 117
زلی@@ 117
سراسر 117
سطر 117
سنگر 117
سکند@@ 117
سہن 117
سیریلز 117
سیڈ 117
شنائی 117
عمرنے 117
قبا@@ 117
قدروں 117
قلی@@ 117
قمی@@ 117
كين 117
لچک 117
مجذوب 117
محک@@ 117
مداحوں 117
مرتکز 117
مستونگ 117
منوج 117
مڈلینڈ 117
میلفورڈ 117
میند@@ 117
میو@@ 117
نسل@@ 117
نمائے 117
نیوویل 117
ورزش 117
ورو@@ 117
ووکا 117
وں@@ 117
ویش 117
يہ@@ 117
پبلشنگ 117
پسند@@ 117
پنک@@ 117
پڑھانا 117
پھلی 117
پھٹنے 117
چتور 117
ڈکسن 117
ڈھل 117
ڑتی 117
کارنی@@ 117
کردینے 117
کھوئی 117
کہوٹہ 117
کیفی 117
کیپنگ 117
گدھا 117
گروزنی 117
گورڈو 117
گیلی 117
ہلمند 117
ہوشی@@ 117
ہیمپ@@ 117
ینگی 117
۱۴@@ 117
ﮐﯿﺎ 117
ﺨ@@ 117
1400 116
1839 116
1872 116
349 116
Tal@@ 116
ge@@ 116
hi 116
ئیوں 116
اؤن 116
ابیؓ 116
اسمعی@@ 116
اشاعتوں 116
اقوامِ 116
الاض@@ 116
الصَّ@@ 116
المش@@ 116
انسٹی@@ 116
انٹون@@ 116
اٹیک 116
اپنے@@ 116
اکیتا 116
اگنے 116
ایسپ@@ 116
باط 116
بدنامی 116
بصی@@ 116
بوستان 116
بير 116
بَعْ@@ 116
بڑھاپے 116
بینا 116
تاجپوشی 116
تانا 116
تماشا 116
تنازعے 116
تنصیب 116
ثمینہ 116
ثوں 116
جابجا 116
جسٹن 116
دراوڑ 116
درعیہ 116
دوآب 116
دیا@@ 116
دیجئے 116
ذرے 116
رة 116
رفاہی 116
روق 116
زکات 116
سائٹوں 116
سبزہ 116
سرن 116
سفا@@ 116
سكا 116
سمجھایا 116
سٹل 116
سینگ@@ 116
شرق 116
شنید 116
شکارپور 116
شگفتہ 116
ضابط@@ 116
ظرف 116
عبر@@ 116
عث@@ 116
عہد@@ 116
عیس@@ 116
فارمول@@ 116
فاش@@ 116
فلکس 116
فوربس 116
فوقتا 116
فیلڈز 116
لاما 116
لاہی@@ 116
مدان 116
مسوویاں 116
مسی 116
مشاعرے 116
معز 116
منقولہ 116
مونو 116
نیتا 116
وقتوں 116
ونِ 116
وولٹ 116
ویش@@ 116
يول@@ 116
ِّ 116
ّن 116
ٹائٹ@@ 116
ٹرجی 116
ٹرنٹن 116
ٹوئنٹی20 116
پانگ 116
پذیرائی 116
پوج@@ 116
پیغ@@ 116
چسپی 116
چوو 116
چھٹکارا 116
ڈچی 116
ڈھلوان 116
کرائم 116
کرگیا 116
کریمیائی 116
کلر@@ 116
کومتے 116
کوپ 116
کھلنا 116
کہوں 116
کیڑوں 116
گاروں 116
گوداوری 116
گولکنڈہ 116
گونج 116
ہاورڈ 116
ہمبولٹ 116
ہمدر@@ 116
یتی 116
یوگ@@ 116
یکشاری 116
ﺌﮯ 116
ﺣﻀ@@ 116
ﺮﻭ@@ 116
ﺲ 116
￼ 116
1600 115
369 115
96.@@ 115
99.@@ 115
Lan@@ 115
آسودہ 115
ئون 115
ائیس 115
ابومسلم 115
ارضیاتی 115
اسٹیبلشمنٹ 115
اقب@@ 115
اكا 115
البقیع 115
الحقی@@ 115
اننا 115
انوکی 115
اني@@ 115
ايلن 115
ایشیائے 115
ایور@@ 115
ایونیو 115
باتانگاس 115
بانڈ 115
بروکلین 115
بزدار 115
بسوں 115
بکریوں 115
بیم 115
تسری 115
تفقہ 115
تناس@@ 115
توسی@@ 115
تیراکی 115
حبی@@ 115
حسین@@ 115
حيدر 115
خانات 115
دہم 115
دہند@@ 115
راحمد 115
راض@@ 115
رضاعی 115
روبرو 115
روہی@@ 115
سالئین 115
ساک 115
ستائش 115
سمتوں 115
سنگت 115
سوتی 115
سوج@@ 115
سٹمپ 115
شرق@@ 115
شرمندہ 115
شینگ@@ 115
صول 115
عبار@@ 115
غض@@ 115
فائی@@ 115
فام@@ 115
فرانسی@@ 115
فطر@@ 115
قرآ@@ 115
قرات 115
قربانیاں 115
لمح@@ 115
لپور 115
لکہ 115
لیورپول 115
متلا@@ 115
مركزي 115
مسئ@@ 115
مشاغل 115
منافی 115
منذر 115
منسوخی 115
مپل 115
مکھ 115
نتھ@@ 115
نوافل 115
واسطوں 115
ومر 115
ٹرینٹ 115
ٹك 115
پدر 115
پروٹ@@ 115
پشتوں 115
پورس 115
پوسٹر 115
پوچھے 115
پیارا 115
چان 115
چھولس 115
ڈوبا 115
ڈیگو 115
کارن 115
کاریگروں 115
کاکا 115
کسار 115
کورٹس 115
کٹا 115
کیااور 115
گاہکوں 115
گردانہ 115
گلڈ 115
گنوں 115
گولی@@ 115
گھومتا 115
ہائیر 115
ہوٹلوں 115
یحی@@ 115
ینے 115
یوسفزئی 115
یکطرفہ 115
ﺿ@@ 115
ﻣﻮ@@ 115
1865 114
353 114
359 114
368 114
42.@@ 114
44.@@ 114
9.7 114
Ham@@ 114
It 114
Per@@ 114
Poland 114
system 114
آئتکن 114
آرکائیوز 114
آیتیں 114
ائیات 114
ابراہم 114
اختلاط 114
ارانہ 114
اسٹریلیا 114
افسردگی 114
الاد@@ 114
الاصل 114
الدنیا 114
الفت 114
المقد@@ 114
اماں 114
امتی 114
امراء 114
انجمنوں 114
اودے 114
اکٹن 114
اگوا@@ 114
ایبر@@ 114
ایج@@ 114
ایڈی 114
ایکو@@ 114
بحرینی 114
بلي 114
بيا 114
بیلج@@ 114
بینگ 114
بیکن 114
تدبی@@ 114
تذکروں 114
تکامل 114
تکلم 114
تھمے 114
ثاني 114
جرمانے 114
جوکہ 114
حاطب 114
حبيب 114
حسبِ 114
خدام 114
دیگر@@ 114
راتیں 114
روای@@ 114
رہٹ 114
سائبر 114
سانتی@@ 114
سدوزئ 114
سلواڈور 114
سمہ 114
سنبھالے 114
سنگلز 114
سولیوان 114
سومن@@ 114
شاہو 114
صحابیہ 114
صعوب@@ 114
طاق@@ 114
عقل@@ 114
غیبی 114
قبا 114
لدین 114
لَّا 114
لینکس 114
لیڈیا 114
لیکچرز 114
ماروی 114
ماون@@ 114
مطل@@ 114
مفروضے 114
مقبوضات 114
ملاکا 114
منوا 114
موور 114
مووی 114
نازیہ 114
نفا@@ 114
وام 114
وثوق 114
وسي@@ 114
ونیو 114
ویٹلینڈ 114
پریشن 114
پشاوری 114
پوزیشنوں 114
پھرا 114
پیٹریا@@ 114
پیٹنٹ 114
چانڈیو 114
چرا 114
چوہے 114
چیری@@ 114
ڈائریکٹ 114
ڈرائیو 114
کاروب@@ 114
کالون@@ 114
کامنز 114
کنوں 114
کنٹرو@@ 114
کوب 114
کُمْ 114
کچھ@@ 114
گنر 114
ہاجرہ 114
ہارپر 114
ہٹنا 114
یئے 114
یسار 114
یمین 114
یورپیوں 114
ݨ 114
ਾ@@ 114
་ 114
ﺗﮭ@@ 114
ﻏ@@ 114
ﻱ 114
1839ء 113
1866ء 113
378 113
5.2 113
Ber@@ 113
Russia 113
Sub@@ 113
ac@@ 113
آسمانِ 113
آفی@@ 113
آمین 113
ؤنگ 113
ائین 113
اثاثے 113
اختیار@@ 113
ادا@@ 113
ادویہ 113
الای@@ 113
الیگزینڈ@@ 113
امتیازات 113
انجمن@@ 113
اوزاروں 113
اکث@@ 113
باشندہ 113
بالاکوٹ 113
بشانہ 113
بلائے 113
بنای@@ 113
بوبی 113
بوشہر 113
بچھا 113
بھتی@@ 113
بہانی 113
تبا@@ 113
جزئیات 113
جولو 113
حال@@ 113
حجازی 113
خامیوں 113
خطر 113
خند@@ 113
خوشن@@ 113
درخواستوں 113
دلاتا 113
دنيا 113
دورانیے 113
راماین 113
رباعیات 113
رمیز 113
رنا 113
ریش@@ 113
رینو 113
ریگستان 113
زبور 113
زنگ@@ 113
زوو 113
ساء 113
سائیٹ 113
ساتھ@@ 113
سرائی@@ 113
سمپسن 113
سومرسیٹ 113
سوچتے 113
سيا 113
سٹیڈ 113
سیمنٹ 113
شانتی 113
شیرمین 113
ظل@@ 113
عملاً 113
فاہ 113
فیو 113
قار 113
لاسیل 113
لدھا 113
لرستان 113
لسی 113
لگری 113
مانگتا 113
مسر@@ 113
مصرع 113
معیت 113
ملاقاتوں 113
ملبورن 113
ممالیہ 113
ميڈيسن 113
مکات@@ 113
میٹری 113
ناظرہ 113
نجکاری 113
واصف 113
وبے 113
ورنگ 113
وص 113
ومي 113
ویاس 113
يام@@ 113
ٹارزن 113
ٹیرین 113
پٹرولیم 113
پیئرس 113
پیتل 113
چين@@ 113
ڈونی@@ 113
ڈچوں 113
ڈینیوب 113
کرونا 113
کلانگ 113
کلون 113
کوئس 113
کوے 113
کٹے 113
کھیلیں 113
کیٹی 113
گوڈ@@ 113
گھبرا 113
ہمام 113
ہیئ@@ 113
ہینڈ@@ 113
یاء 113
یق 113
یول 113
ﺅ 113
ﺗﻮ 113
1.0 112
107@@ 112
123@@ 112
386 112
Shahrak 112
آئبیریا 112
آئیے 112
آرم 112
آزر 112
آمدن 112
آوی@@ 112
ادین 112
ارمان 112
اسپتالوں 112
انحطاط 112
اوٹاگو 112
اٰ@@ 112
اکتفا 112
اینڈروئیڈ 112
ایڈمنسٹریٹر 112
ایڈنبرا 112
بالم@@ 112
باہ@@ 112
بدتر 112
بسی@@ 112
بم@@ 112
بنگش 112
بھجوا 112
توحی@@ 112
توریت 112
جادوگر 112
جنات 112
جھگڑوں 112
جینے 112
حیدرآبادی 112
خانگی 112
دبیر 112
دلیری 112
دنیوی 112
دھند@@ 112
روشے 112
روپئے 112
روہیلہ 112
رياست@@ 112
ریلو@@ 112
رینجرز 112
زائل 112
ستار@@ 112
ستارا 112
سدر@@ 112
سرکردگی 112
سوان 112
شش 112
شیو@@ 112
صوفیوں 112
طان@@ 112
ظریف 112
عز 112
عہ@@ 112
فائيٹ 112
فارمز 112
فرصت 112
فریدہ 112
فسانہ 112
فقراء 112
قتل@@ 112
قصیدے 112
لاف 112
لاق 112
لڑکپن 112
ماز@@ 112
مدعا 112
مدعی 112
مدلل 112
مزار@@ 112
مسعود@@ 112
معدنی 112
معمور 112
منصورہ 112
منقبت 112
میتھین 112
میپل 112
نابود 112
نخلستان 112
نشیب 112
وبار 112
ویرو 112
ٸے 112
ٹائر 112
ٹینٹ 112
ٹیوشن 112
پراسیکی@@ 112
پربت 112
پروگرامز 112
پير@@ 112
پیاری 112
پید@@ 112
چناں 112
ڈالٹن 112
ڈومینیکا 112
ڈپارٹمنٹ 112
کالو@@ 112
کمبوہ 112
کمسن 112
کنسل@@ 112
کوآرڈینی@@ 112
کورنگی 112
کووی@@ 112
کھلونا 112
کیات 112
ھر@@ 112
ہوسکیں 112
ہیمبرگ 112
۱۶@@ 112
্ 112
0.1 111
106@@ 111
3,000 111
379 111
403 111
470 111
630 111
999 111
Lab@@ 111
department 111
ri@@ 111
آرو@@ 111
آنگ 111
اتن 111
ارتق@@ 111
ازار 111
السع@@ 111
العظیم 111
القیوم 111
المنان 111
امب 111
امرناتھ 111
امس 111
انجنی@@ 111
انهٔ 111
انڈسٹریز 111
اُستاد 111
اپر@@ 111
باسیوں 111
باو@@ 111
بھاٹ@@ 111
بھو 111
بھوسلے 111
بیڈمنٹن 111
تدبر 111
تعالى 111
تعم@@ 111
تفسی@@ 111
تونگ 111
ثے 111
جاسم 111
جسپر 111
جنڈ 111
جوس@@ 111
جوگی 111
جھرمٹ 111
حو 111
دائرة 111
دولہا 111
رئیل 111
رافت 111
ریگن 111
ساف@@ 111
سجا 111
سریندر 111
سنتوں 111
سوسن 111
سولی@@ 111
سپور 111
شعراء@@ 111
شفا@@ 111
طس 111
ظلہ 111
عقاب 111
عمیق 111
فائی 111
فرا 111
فين@@ 111
فہؒ 111
قصص 111
قطیف 111
كيلي 111
كہ@@ 111
لائبریریوں 111
لارناکا 111
لاہور@@ 111
لسان 111
لڑتا 111
لیسی@@ 111
ماتحتی 111
متو@@ 111
متوں 111
مدا@@ 111
مدارج 111
مذا@@ 111
مستشرقین 111
معائ@@ 111
معلق 111
نسیا 111
نفسی 111
نك@@ 111
نواس 111
وتی@@ 111
ورین 111
وینڈ@@ 111
ينس 111
ٹولی 111
پتلا 111
پوشاک 111
چاغ@@ 111
چندا 111
چود@@ 111
چوکوں 111
چڑھاؤ 111
کالو 111
کشتہ 111
کلائی 111
کوپن 111
کھا@@ 111
کہلائی 111
گاہ@@ 111
گرف@@ 111
گواہوں 111
ھڑ 111
ہاف 111
ہرمن 111
ہمشیرہ 111
ہیتھ 111
یئن 111
یزدانی 111
یونٹس 111
− 111
ﺍٓ@@ 111
15ھ 110
1828 110
1845ء 110
1848ء 110
1859 110
1862 110
1883 110
341 110
393 110
5.4 110
6,000 110
Hasan 110
Mir@@ 110
Un@@ 110
ara 110
ian 110
it@@ 110
its 110
ti@@ 110
ə@@ 110
ءت 110
آبدو@@ 110
آرمینیوں 110
اتالیق 110
ادِ 110
الاعظم 110
التمش 110
امروہی 110
انبالہ 110
انتظامي 110
انسی 110
انڈوں 110
اکتوبر@@ 110
بادام 110
بارنیٹ 110
بجنور 110
برقناطیسی 110
بلي@@ 110
بیمہ 110
بینکر 110
تاوی 110
جٹ@@ 110
حاضرہ 110
حیوان 110
دستک 110
رستہ 110
ریختہ 110
زیز 110
سبط 110
سلوواک 110
سولی 110
سٹي@@ 110
سکوشیا 110
شاہي 110
شاہِ 110
شفٹ 110
صدرالدین 110
عروض 110
فرید@@ 110
فیلو@@ 110
قابیل 110
قبائلیوں 110
قرن 110
قصوں 110
كت@@ 110
ماؤس 110
مارٹر 110
مباحثوں 110
مزبرگ 110
مستحب 110
مطابق@@ 110
مناصب 110
مونس 110
موڈ 110
مگدھ 110
میاو 110
میرو@@ 110
نبھا 110
نخعی 110
نقط@@ 110
نگس 110
نگہ@@ 110
هِ@@ 110
ورع 110
وناتھ 110
وير 110
وٹی 110
وکر@@ 110
ویت@@ 110
يرے 110
يف@@ 110
ُوا 110
٩@@ 110
ٹرائی@@ 110
ٹرانسکاکی@@ 110
ٹوف 110
ٹونک 110
پامال 110
پروسیسنگ 110
پروٹی@@ 110
چاہئیں 110
ڈروم 110
ڈوبنے 110
ڈومینی@@ 110
ڈيو@@ 110
ڈیسک 110
ڈیٹ@@ 110
کلاسوں 110
گرانڈے 110
ہاس@@ 110
ہیوگو 110
ہیوی 110
ہیڈن 110
یافتگان 110
یزی 110
یعقوبی 110
یونین@@ 110
ﮨﻮﺋ@@ 110
ﺎﺭ 110
ﻓﺮ@@ 110
ﻨﺪ@@ 110
1838 109
371 109
376 109
391 109
4- 109
4.0 109
46,@@ 109
88.@@ 109
Far@@ 109
J 109
Lake 109
Peru 109
ant 109
di@@ 109
do 109
ina 109
people 109
ton 109
آرکائیو 109
آشو@@ 109
ئروں 109
ابرا@@ 109
اثیر 109
اجمیری 109
ادارتی 109
ازالہ 109
استعماری 109
اسٹي@@ 109
اسٹیون 109
اقبال@@ 109
الرؤف 109
اللو 109
المهدي 109
الکندی 109
انز@@ 109
انٹارکٹیکا 109
انگلیاں 109
اوساکا 109
ايريزونا 109
اپارٹمنٹ 109
اڑھائی 109
اکشے 109
اینٹیگوا 109
بالمقابل 109
بدعات 109
برض@@ 109
بلوغ 109
بنار@@ 109
بوئی 109
بچانا 109
بچنا 109
تاما 109
تجہیز 109
ترکیبی 109
تلخیص 109
توران 109
جارہے 109
جاٹوں 109
جاہل 109
جمان 109
جمست@@ 109
جیات 109
حبیبہ 109
خمس@@ 109
خوارزمی 109
دایاں 109
درم 109
دروی@@ 109
دسمبر@@ 109
دیباچہ 109
رات@@ 109
رفسن@@ 109
رنزوں 109
رہواں 109
ریحانہ 109
ریسلنگ 109
زمینداری 109
زکی 109
زہریلے 109
سرمائے 109
سفرنامے 109
سلاد 109
سلیکشن 109
سودا@@ 109
سيان 109
سیکرٹ 109
شبیہہ 109
شرز 109
صوت 109
ضین 109
عاجزی 109
فاق 109
فاونڈیشن 109
فلسفی@@ 109
قت@@ 109
كاس 109
كريم 109
لمے 109
لنڈن 109
لچکدار 109
لیبار@@ 109
مائنر 109
مدا 109
مدیحہ 109
مسعودؓ 109
معتزلہ 109
معززین 109
ملائ@@ 109
ممد@@ 109
مندرجات 109
مندوب 109
موجی 109
ميڈيسون 109
مہندر 109
ناحیہ 109
نامناسب 109
نورالدین 109
نیزے 109
واری@@ 109
واسطی 109
وفاقي 109
ولیس 109
ويٹ@@ 109
وڈیو 109
وکو 109
ویکیمیڈیا 109
ٹراٹسکی 109
ٹرینیں 109
ٹھکرا 109
پیتا 109
پیتھی 109
پینگ 109
پیڈرو 109
پیڈی@@ 109
چوڑیاں 109
چوکیوں 109
چھن 109
ڈاؤ 109
ڈینی 109
کنت 109
کنزرویٹو 109
گاں 109
گرفتار@@ 109
ہڈ 109
یادداشتوں 109
یرغ@@ 109
یلی@@ 109
ﯿﺎ 109
136@@ 108
1872ء 108
384 108
Nord 108
UTC 108
آویزاں 108
اده 108
ارام 108
اشرا@@ 108
الآ@@ 108
الثاني 108
الفی@@ 108
المسیح 108
المصنفین 108
الْمَ@@ 108
الکتاب 108
الیکٹ@@ 108
انان 108
انٹرنيشنل 108
ایلومینی@@ 108
بانا 108
بانس@@ 108
بلچ 108
بورڈنگ 108
بھاگے 108
تجزیاتی 108
تحفۃ 108
ترس 108
تزک 108
توجیہ 108
جاد@@ 108
جدی 108
جنکی 108
جيفرسن 108
حیلہ 108
خاور 108
دتا 108
دربھنگ@@ 108
رابرٹس 108
رفاعہ 108
رك 108
روڑ 108
ریشہ 108
زنجبار 108
زیا 108
سرشپ 108
سلنڈر 108
سمرق@@ 108
سونامی 108
سپورٹس 108
سینٹی@@ 108
شاری 108
صندوق 108
طری@@ 108
عرفہ 108
عقب@@ 108
عَلَيْ@@ 108
فضول 108
فکس@@ 108
قيس 108
قیت 108
لتھو@@ 108
لفٹ 108
لنڈسے 108
لینگویج 108
مارہروی 108
مانڈ 108
مدثر 108
مراد@@ 108
مرسل 108
مصداق 108
ملبے 108
ممب@@ 108
منس 108
مِّ@@ 108
میکوپن 108
نادرہ 108
ناقابلِ 108
نباتیات 108
نونگ 108
نکلنا 108
وائرل 108
والسلام 108
وكي 108
ویگو 108
َّا 108
ٹرس 108
ٹریز 108
پادشاہ 108
پانوس 108
پریوں 108
پنک 108
چنوں 108
چوڑ 108
چوکور 108
چڑھے 108
ڈیکسٹر 108
کاؤنٹر 108
کامبریا 108
کاوا@@ 108
کاوشیں 108
کرلو 108
کسوٹی 108
کنش@@ 108
کوہِ 108
کڑھائی 108
گذری 108
گرچہ 108
ہران 108
ہندستان 108
ہولمز 108
ہونگ 108
یمہ 108
یوا@@ 108
یڈ 108
ﺍﻭ@@ 108
ﺘﮯ 108
1832 107
1853 107
50,@@ 107
79.@@ 107
Gen@@ 107
Georges 107
languages 107
their 107
ya 107
ˈ@@ 107
ַ@@ 107
آرائشی 107
احنف 107
اسکر@@ 107
اشتغ@@ 107
اعتمادی 107
المثل 107
الٹر 107
انتون 107
انتھک 107
باشعور 107
بانے 107
بخارسٹ 107
براہمن 107
بردہ 107
بندوقیں 107
بھرو@@ 107
بھول@@ 107
بیبرس 107
تات 107
تري@@ 107
تشبی@@ 107
توش 107
تیار@@ 107
جائی 107
جروں 107
جولا@@ 107
حانہ 107
ذخی@@ 107
رسید 107
رنر 107
ریکن 107
زاک@@ 107
ساسک@@ 107
سسرال 107
سٹرلنگ 107
سہیلی 107
سیّ@@ 107
شجر 107
شعاعوں 107
صحيح 107
صْ@@ 107
عمامہ 107
فرانک 107
فراوانی 107
قدسی 107
قرۃ 107
قناعت 107
قوال 107
لانڈی@@ 107
لاگرتھم 107
لد@@ 107
مائن 107
مانوس 107
متوکل 107
محاورہ 107
مرکزہ 107
مستوی 107
مسخ 107
معدے 107
مغازی 107
منہاس 107
مگین 107
میثاق 107
میرٹھی 107
نعتیں 107
نویوں 107
نکلسن 107
نیال 107
ورچوئل 107
يرہ 107
ٹاڈ 107
ٹوڈے 107
پردادا 107
پروگری@@ 107
پوز@@ 107
چٹنی 107
چھاتی 107
چیرمین 107
ڈسٹ@@ 107
ڈوي@@ 107
کالاش 107
کانیں 107
کاون@@ 107
کرنسیوں 107
کیجیے 107
کینن 107
کیونکر 107
گاڈ 107
گونگ 107
گوکہ 107
ھائی 107
ہارن 107
یٰ@@ 107
ﻒ 107
000@@ 106
143@@ 106
1863 106
1871ء 106
23ھ 106
404 106
5.6 106
54,@@ 106
660 106
960 106
IV 106
geographical 106
have 106
ly 106
lès 106
noinclude 106
ow@@ 106
ב@@ 106
آئر@@ 106
آسٹريليا 106
آسٹری@@ 106
ئير 106
ئینز 106
اجی@@ 106
اختلافی 106
ادھی@@ 106
ادھیائے 106
استعارہ 106
استف@@ 106
افتاء 106
الحاد 106
انتھ@@ 106
انٹرپرائز 106
اوغ@@ 106
اگرام 106
اگی 106
ایثار 106
ایسٹر 106
ایمانی 106
بارہا 106
بخشش 106
برنار@@ 106
بریسٹ 106
بشری 106
بلتی 106
بلوغت 106
بنکی 106
بھانجی 106
تحف@@ 106
تڑپ 106
تھوک 106
جاتیہ 106
جلالت 106
جهٔ 106
جوآن 106
جوتوں 106
حاص@@ 106
حصولِ 106
حلی 106
خوج@@ 106
داہر 106
درباریوں 106
دعووں 106
دِن 106
رامپ@@ 106
زوما 106
ساکا 106
ستمبر@@ 106
ستھ 106
سدوزئی 106
سق@@ 106
سنسد 106
سٹور@@ 106
شیرا@@ 106
صورتِ 106
ضرورتوں 106
عالیشان 106
غذ@@ 106
غنہ 106
فرینک@@ 106
فلوری@@ 106
قاض@@ 106
قديم 106
قوی@@ 106
لابو@@ 106
لاگرینج 106
لبرگ 106
لتوں 106
لوئی@@ 106
لگا@@ 106
مخلص@@ 106
مخیر 106
معصومین 106
مقب@@ 106
مقدونیائی 106
منصفین 106
منط@@ 106
منٹوں 106
مولود 106
مٹر 106
مہتاب 106
مہروں 106
میکڈونلڈ 106
نارڈ 106
ناہ 106
نحوی 106
ندل 106
نوبیل 106
نوروز 106
نویہ 106
والش 106
وتے 106
ورنا 106
وندی 106
وير@@ 106
وَلَا 106
وٹر 106
ویات 106
ویٹر@@ 106
ٹورنام@@ 106
پانگ@@ 106
پرمشتمل 106
پریاگ 106
پوسٹل 106
پيراڈائز 106
پیکج 106
چیرا 106
چیلنجوں 106
چیٹ 106
ڈاكٹر 106
ڈای@@ 106
ڈنکن 106
ڈھون@@ 106
کاشان 106
کاکڑ 106
کذاب 106
کشمی@@ 106
کوٹری 106
کوڈی@@ 106
کویہ 106
کیڈ 106
گت 106
گرینووڈ 106
ہجے 106
ہلزڈیل 106
ہندسی 106
ہوسٹنگ 106
ہیسٹنگز 106
یورینیم 106
یونیورسٹیاں 106
یوکوہاما 106
یکہ 106
-دو 105
1837ء 105
1866 105
398 105
405 105
412 105
5.8 105
610 105
720 105
Har@@ 105
Kor@@ 105
et@@ 105
he 105
آرٹ@@ 105
آنچ 105
ابرا 105
اتسو 105
اتلان@@ 105
اردنی 105
اسٹريليا 105
اشبیلیہ 105
اشچی@@ 105
التفسیر 105
العالمین 105
المتوکل 105
النہرین 105
الیت 105
اورن 105
اپنائی 105
ایغور 105
باربر 105
بعث 105
بليك 105
بولنا 105
بونا 105
بیرسٹر 105
بیلف@@ 105
بیو 105
تاراج 105
تام 105
تاوی@@ 105
تروی@@ 105
تکلی@@ 105
تھیوڈور 105
جامد 105
جہانگیری 105
جیوری 105
حيدر@@ 105
خانهٔ 105
خوا 105
خہ 105
دح@@ 105
دوآب@@ 105
[...]
