. 1
, 0.8927445174156317
&apos; 1
ve 1
&quot; 1
bir 1
) 0.9830447101620484
( 0.9823365060826976
da 1
de 0.4506129734577622
@-@ 0.626318900373671
olarak 1
ile 1
için 1
olan 1
bu 1
’ 1
in 0.26287702496862103
yılında 1
tarafından 1
ın 1
sonra 1
Bu 1
; 1
: 0.9372407728751184
nin 1
nın 1
en 0.43443711387022294
ya 1
daha 1
ilk 1
ise 1
yer 1
un 0.7271892812598109
te 1
a 0.1704251826510544
gibi 1
çok 1
arasında 1
kadar 1
bağlı 1
veya 1
= 1
iki 1
büyük 1
e 1
göre 1
i 1
1 1
oldu 1
bulunan 1
&#124; 1
lar 1
ler 1
2 1
den 0.7106174111776646
Türkiye 1
dan 1
olduğu 1
ı 1
- 1
tarihinde 1
ları 1
leri 1
birlikte 1
nde 1
! 1
alan 1
d 1
km 1
diğer 1
ye 1
4 1
/ 0.9027406633233677
nda 1
an 0.3578485659175721
adı 1
3 1
aynı 1
Türk 1
etti 1
ta 1
lerin 1
daki 1
ların 1
ne 1
adlı 1
align 1
center 1
yeni 1
inin 1
yıl 1
her 1
aldı 1
dir 1
ancak 1
İstanbul 1
karşı 1
Avrupa 1
nun 1
önemli 1
son 0.8679697544364774
Dünya 1
&amp; 1
% 0.8275482864681953
eski 1
başladı 1
u 1
önce 1
ilçesine 1
ini 1
deki 1
eden 1
la 0.08176502501233243
şekilde 1
olduğunu 1
olmuştur 1
yapılan 1
The 0.15414141313145377
ının 1
üzere 1
ası 1
o 1
içinde 1
Üniversitesi 1
üzerine 1
ma 1
vardır 1
Bir 1
ine 1
birçok 1
5 1
kez 1
li 1
ç@@ 1
Mart 1
kabul 1
Ayrıca 1
6 1
sahip 1
Mayıs 1
10 1
na 1
le 0.18946053115634914
devam 1
al@@ 1
Ocak 1
larının 1
ını 1
üç 1
ikinci 1
iyi 1
on 0.1741731050744826
k@@ 1
Kasım 1
gelen 1
2010 1
fazla 1
tüm 1
“ 0.621683870833318
yaptı 1
lere 1
Eylül 1
Ekim 1
” 1
lara 1
el 0.17095784229419428
ardından 1
ilinin 1
esi 1
yüksek 1
Haziran 1
kendi 1
Nisan 1
ABD 1
Osmanlı 1
lik 1
Temmuz 1
ana 1
Daha 1
bazı 1
olmak 1
Ağustos 1
Amerika 1
tek 1
lerini 1
ş@@ 1
Aralık 1
ak@@ 1
larda 1
lerinin 1
hem 1
larını 1
sırasında 1
üzerinde 1
farklı 1
inde 1
olup 1
Ancak 1
ına 1
biri 1
az 1
görev 1
at@@ 1
an@@ 1
lı 1
me 1
zaman 1
K@@ 1
ortaya 1
lerde 1
&#93; 1
yılları 1
İlk 1
Şubat 1
Birleşik 1
&#91; 1
yılı 1
ar 1
colspan 1
çeşitli 1
Savaşı 1
of 0.03482968458444644
bulunmaktadır 1
geri 1
küçük 1
nedeniyle 1
boyunca 1
12 1
il@@ 1
15 1
il 0.5499562547942325
lerine 1
ten 1
ama 1
ün 1
– 0.3122601678410755
yeniden 1
oğlu 1
zamanda 1
y@@ 1
ak 1
20 1
ik 1
7 1
2012 1
2020 1
ar@@ 1
sadece 1
En 0.4938268562728829
at 0.19909742914424575
eler 1
İ@@ 1
yaklaşık 1
2011 1
2009 1
8 1
S@@ 1
larına 1
II 1
edildi 1
in@@ 1
süre 1
genel 1
iler 1
nüfusu 1
T@@ 1
film 1
edilen 1
uzun 1
idi 1
Ş@@ 1
lerden 1
2008 1
su 0.48177601322448677
ay 1
yi 1
2014 1
er 0.27793968680901565
Tarihçe 1
aları 1
merkezine 1
11 1
yerine 1
maya 1
larında 1
Y@@ 1
Almanya 1
rağmen 1
Fransa 1
m 1
2015 1
30 1
enin 1
2013 1
köy 1
onun 1
inden 1
al 0.43190141852082964
eleri 1
et@@ 1
Genel 1
lerinden 1
tan 1
Coğrafya 1
unun 1
mak 1
16 1
yı 1
yaptığı 1
Ç@@ 1
bulunur 1
gün 1
kişi 1
altında 1
2007 1
ır 1
2016 1
ilgili 1
kısa 1
dahil 1
9 1
İngiltere 1
E@@ 1
Alman 1
isi 1
larından 1
lardan 1
beri 1
s@@ 1
D@@ 1
onu 1
ele 1
Güney 1
et 0.10843398839285366
2006 1
ik@@ 1
Ankara 1
ait 1
s 0.5869865252829345
New 0.7125001476341474
genellikle 1
Yeni 1
ayrıca 1
ması 1
ek@@ 1
elde 1
ıl@@ 1
k 1
ki 1
ü 1
özel 1
ad@@ 1
ında 1
edilmiştir 1
t@@ 1
almıştır 1
ek 1
the 0.014406421406233789
ından 1
İngiliz 1
ay@@ 1
doğru 1
lerinde 1
Kuzey 1
Amerikan 1
uzaklıktadır 1
alar 1
ileri 1
kazandı 1
19 1
Rusya 1
B@@ 1
anın 1
başka 1
14 1
dır 1
eder 1
A@@ 1
dört 1
ver@@ 1
13 1
18 1
ol@@ 1
mesi 1
lık 1
merkezi 1
ada 1
Ar@@ 1
2018 1
adıyla 1
una 0.344186166886422
2017 1
l@@ 1
iş 1
takım 1
G@@ 1
Roma 1
tarihi 1
Cumhuriyeti 1
arak 1
özellikle 1
müzik 1
z@@ 1
arasındaki 1
kal@@ 1
17 1
em@@ 1
eli 1
di 1
er@@ 1
yap@@ 1
el@@ 1
ıdır 1
bilinen 1
_ 1
lu 1
tekrar 1
Birliği 1
millî 1
Doğu 1
sahiptir 1
birkaç 1
25 1
d@@ 1
oluşan 1
unu 1
2005 1
sonunda 1
O 1
kullanılan 1
2019 1
Büyük 1
M@@ 1
ayı 1
aya 1
Kupası 1
as@@ 1
2000 1
sırada 1
hakkında 1
İtalya 1
devlet 1
yapan 1
larla 1
şu 1
c@@ 1
verdi 1
mek 1
olması 1
olmayan 1
lerle 1
meye 1
kar@@ 1
am@@ 1
Aynı 1
Fransız 1
Rus 1
çıkan 1
itibaren 1
Al@@ 1
Paşa 1
H@@ 1
oyuncu 1
ım 1
Çin 1
sıra 1
O@@ 1
almaktadır 1
etmiştir 1
m@@ 1
gt 1
im 0.20726078403832038
21 1
en@@ 1
lt 1
alı 1
2004 1
0 1
geldi 1
inşa 1
yol 1
milyon 1
savaş 1
Devletleri 1
P@@ 1
sezonunda 1
tür 1
grup 1
çıktı 1
ı@@ 1
yakın 1
yapmıştır 1
ir@@ 1
tir 1
Film 1
24 1
ni 1
Köy 1
22 1
ev 1
yaz@@ 1
esine 1
aç@@ 1
döneminde 1
etmek 1
I. 1
neden 1
mahalledir 1
26 1
adını 1
takımı 1
A 0.4001498127614302
â@@ 1
C@@ 1
F@@ 1
Partisi 1
Ak@@ 1
man 0.8363464068731927
V@@ 1
verilen 1
az@@ 1
Amerikalı 1
kadın 1
tam 1
iz@@ 1
î 1
it 0.2210083723283132
itibarıyla 1
v@@ 1
N@@ 1
im@@ 1
toplam 1
aş@@ 1
sonucu 1
g@@ 1
dolayı 1
Kar@@ 1
ıyla 1
dışında 1
futbol 1
nüfus 1
n@@ 1
eğitim 1
iy@@ 1
Batı 1
es@@ 1
asını 1
kap@@ 1
Z@@ 1
aldığı 1
23 1
geç@@ 1
ona 1
Ligi 1
yanı 1
alır 1
ur 1
h@@ 1
miş 1
unda 1
sayımına 1
şarkı 1
ısı 1
kariyeri 1
r@@ 1
L@@ 0.8527283285624908
bin 1
dönemde 1
Anadolu 1
esinin 1
yılından 1
üst 1
altı 1
York 0.946700999536264
göster@@ 1
av@@ 1
Ulusal 1
olur 1
İmparatorluğu 1
si 1
ara 1
t 1
Şarkı 1
Ödülü 1
liği 1
gelir 1
nden 1
gel@@ 1
2002 1
temsil 1
sayısı 1
eye 1
di@@ 1
ili 1
yaşında 1
sa 0.6158431836918269
us 1
2021 1
yıllarında 1
27 1
rol 1
1990 1
üçüncü 1
şehir 1
28 1
p 1
Uluslararası 1
karar 1
Bunun 1
ir 1
edilir 1
Orta 1
ıp 1
sezon 1
iş@@ 1
f@@ 1
ü@@ 1
p@@ 1
Ali 1
masını 1
Her 1
insan 1
fakat 1
maktadır 1
2003 1
bul@@ 1
kurulan 1
doğdu 1
ö 1
2001 1
Lig 1
John 0.8011089494548083
ık 1
kalan 1
or@@ 1
katıldı 1
dünya 1
yapımı 1
ul@@ 1
z 1
dı 1
alt 1
isimli 1
teki 1
hemen 1
and 0.019308275783086224
askeri 1
ettiği 1
açık 1
esinde 1
sonraki 1
beraber 1
R@@ 0.8885337694284284
çoğu 1
uluslararası 1
esini 1
ti@@ 1
NGC 1
Azerbaycan 1
mıştır 1
kaldı 1
ünün 1
is 0.057507017022461304
bulun@@ 1
ayında 1
köydür 1
beş 1
futbolcudur 1
ır@@ 1
Parti 1
kon@@ 1
ifade 1
albümü 1
Sovyet 1
edil@@ 1
Er@@ 1
yine 1
filmi 1
bulunduğu 1
oranı 1
l 0.3992642771011772
masına 1
İyi 1
100 1
geniş 1
it@@ 1
eri 1
Şampiyonası 1
Afrika 1
An@@ 1
asyon 1
geçen 1
b@@ 1
ken 1
anlar 1
ilçe 1
yerel 1
düzenlenen 1
biridir 1
29 1
acak 1
Paris 1
pek 1
ede 1
miştir 1
County 0.9891325652689558
eti 1
temel 1
siyasi 1
kullanılır 1
iç 1
is@@ 1
üyesi 1
leriyle 1
on@@ 1
anda 1
ılar 1
31 1
asına 1
Devlet 1
am 0.32819317684649435
burada 1
resmi 1
yıllarda 1
formula 0.8237083983858473
İran 1
transfer 1
dur 1
gol 1
arı 1
indeki 1
kat@@ 1
herhangi 1
kur@@ 1
mesine 1
der@@ 1
.@@ 1
sayıda 1
vardı 1
içerisinde 1
1999 1
ot@@ 1
var 1
mış 1
ti 1
orta 1
erkek 1
yıllık 1
ka 1
oynadı 1
mayı 1
ab@@ 1
grubu 1
sezonu 1
Nüfus 1
1980 1
spor 1
y 0.060009591635078824
televizyon 1
ünü 1
man@@ 1
Bey 1
sistemi 1
İngilizce 1
bütün 1
anlamına 1
haline 1
MÖ 1
lığı 1
kan@@ 1
ünlü 1
Fakat 1
yaşayan 1
Diğer 1
bil@@ 1
eyi 1
öldü 1
um 0.4964891238447483
başarılı 1
baş@@ 1
mücadele 1
ca 1
undan 1
yanında 1
diği 1
erek 1
yan 1
genç 1
girdi 1
Mısır 1
maçta 1
kullan@@ 1
olabilir 1
asının 1
başlayan 1
manın 1
ilan 1
dizi 1
ilerin 1
forma 1
oldukça 1
var@@ 1
ın@@ 1
çalıştı 1
ış@@ 1
asında 1
kol@@ 1
yılına 1
sahibi 1
re@@ 0.4968847797079174
B 1
başına 1
konusunda 1
yüzyılda 1
U@@ 1
izin 1
eyaletinde 1
as 0.05717631095761765
teknik 1
çalış@@ 1
dur@@ 1
ur@@ 1
değil 1
1998 1
ç 1
lan@@ 1
iken 1
1992 1
bunun 1
başkanı 1
çocuk 1
sosyal 1
yarı 1
ıcı 1
se 0.10635385876569542
amp 0.6271511899566454
ev@@ 1
um@@ 1
ülke 1
İkinci 1
günü 1
tespit 1
os 0.91723987192334
İspanya 1
abilir 1
ındaki 1
adan 1
eş@@ 1
ıları 1
deniz 1
dönem 1
belediye 1
sür@@ 1
ül@@ 1
veren 1
ince 1
yapıl@@ 1
mesini 1
amacıyla 1
ılmış 1
hiçbir 1
aların 1
başlamıştır 1
imi 1
taki 1
mektedir 1
metre 1
söz 1
sonucunda 1
Bakanlığı 1
güçlü 1
ılan 1
ılması 1
lama 1
50 1
Japonya 1
katıl@@ 1
ok@@ 1
yazar 1
geçti 1
1996 1
edilmiş 1
albüm 1
uy@@ 1
ndan 1
benzer 1
gör@@ 1
larıyla 1
1991 1
1994 1
1995 1
hareket 1
Fakültesi 1
ederek 1
1993 1
1997 1
de@@ 1
hava 1
ac@@ 1
siz 1
ür 1
ismi 1
hizmet 1
kes@@ 1
değildir 1
yaygın 1
yayınlanan 1
ülkenin 1
alanı 1
o@@ 1
ağı 1
şehrin 1
f 1
Oy 1
Yunan 1
başında 1
par@@ 1
sona 1
önceki 1
ilen 1
nı 1
Brezilya 1
Kur@@ 1
mezun 1
le@@ 1
ortak 1
yana 1
ter@@ 1
etmektedir 1
yar@@ 1
1970 1
id@@ 1
Kal@@ 1
parçası 1
bilim 1
iyle 1
İsrail 1
ulaş@@ 1
iddia 1
şeklinde 1
ah@@ 1
oyun 1
elerin 1
li@@ 1
uygun 1
seçildi 1
Sultan 1
bilgi 1
tamamen 1
bulundu 1
meydana 1
Asya 1
Son 1
nedenle 1
İzmir 1
tı 1
ıldı 1
meyi 1
madan 1
i@@ 1
ış 1
Bazı 1
içeren 1
yalnızca 1
Suriye 1
ş 1
uz@@ 1
br 1
iç@@ 1
1960 1
Baş@@ 1
ayrı 1
a@@ 1
sonrasında 1
yani 1
cm 1
babası 1
Eski 1
say@@ 1
C 1
ulusal 1
un@@ 0.4968950314597406
ö@@ 1
Kaliforniya 1
halk 1
bak@@ 1
Bizans 1
Londra 1
İslam 1
listesi 1
len@@ 1
arası 1
çık@@ 1
Nehri 1
tak@@ 1
ov 1
os@@ 1
Mehmet 1
² 1
ön 1
alarak 1
yüzyılın 1
üzerinden 1
adet 1
J@@ 0.8550150197637538
piyasaya 1
ekonomik 1
ün@@ 1
Ay@@ 1
masının 1
bile 1
Japon 1
ecek 1
ımı 1
leme 1
I 0.376570109810262
düşük 1
te@@ 1
Başkanı 1
İki 1
sık 1
ip 1
üne 1
İtalyan 1
udur 1
gerçek 1
or 0.1521520142885785
sel 1
çek@@ 1
aday 1
Mustafa 1
anı 1
Futbol 1
El@@ 1
masıyla 1
Krallık 1
ed@@ 1
+ 1
oloji 1
bağımsız 1
konuş@@ 1
kontrol 1
yayınlandı 1
kan 1
ıyor 1
bölgesinde 1
çıkar@@ 1
yardım 1
yen@@ 1
verildi 1
dil@@ 1
profesyonel 1
e@@ 0.8296141272479118
luk 1
b 1
Polonya 1
yan@@ 1
Ö@@ 1
TV 1
Millî 1
kay@@ 1
1989 1
h 1
Avusturya 1
kullanıl@@ 1
sonrası 1
kendisine 1
olmasına 1
af@@ 1
kardeşi 1
serbest 1
kariyerine 1
tan@@ 1
40 1
bölge 1
bilinir 1
tip 1
doğal 1
kurulmuştur 1
Yahudi 1
El 0.24081539147404096
yönünde 1
hale 1
Arap 1
birinci 1
ör 1
ırlar 1
kısmı 1
Örneğin 1
yardımcı 1
modern 1
ılır 1
tut@@ 1
Eurovision 1
j@@ 1
bölümü 1
Türkçe 1
bas@@ 1
Sovyetler 1
dünyanın 1
yapıldı 1
Ser@@ 1
kuruldu 1
ğ@@ 1
alın@@ 1
durum 1
ık@@ 1
verdiği 1
maçında 1
çe 1
başlar 1
yon 1
video 1
yak@@ 1
ayrıl@@ 1
erken 1
Buna 1
diz@@ 1
Merkezi 1
Yüksek 1
kor@@ 1
günümüzde 1
oluşur 1
ere 1
tur@@ 1
taş@@ 1
din@@ 1
Yunanistan 1
çalışan 1
uç@@ 1
idir 1
olsa 1
ağ@@ 1
Müzik 1
diye 1
altın 1
tarihli 1
isinin 1
hızlı 1
I@@ 0.8480218277395588
yok 1
bunu 1
sanat 1
ad 1
saat 1
kır@@ 1
satın 1
diğini 1
du 0.07341829328525595
çi 1
defa 1
n 0.7712833653206476
to 0.017168319593426747
alarının 1
ap@@ 1
adına 1
isini 1
ser@@ 1
olmuş 1
ılmıştır 1
Halk 1
Toplam 1
yönetim 1
maları 1
atı 1
ör@@ 1
ön@@ 1
alarını 1
om@@ 1
sak@@ 1
Öz@@ 1
Avustralya 1
ist@@ 1
yerleş@@ 1
kızı 1
Mar@@ 0.9768804088143848
-@@ 1
ağır 1
1988 1
beyaz 1
yle 1
baş 1
kazan@@ 1
göz@@ 1
yapılmıştır 1
iline 1
ia 1
ez@@ 1
alanında 1
r 1
ür@@ 1
Ad@@ 1
savaş@@ 1
maç 1
ali 1
Ödülleri 1
hafta 1
Fenerbahçe 1
çalışmaları 1
saldır@@ 1
yönelik 1
verir 1
türü 1
zorunda 1
ist 0.12258731408359647
kız 1
tem@@ 1
yer@@ 1
? 1
içerir 1
dil 1
şehri 1
Merkez 1
mişti 1
1987 1
hal@@ 1
bir@@ 1
As@@ 1
Bununla 1
muş 1
den@@ 1
u@@ 1
mas@@ 1
dair 1
Galatasaray 1
bağ@@ 1
güç 1
alarda 1
masından 1
od@@ 1
x 1
gir@@ 1
Kanada 1
yapmış 1
Yarışması 1
der 0.025123007560756187
familyasına 1
geliş@@ 1
ey@@ 1
ra 0.8629957840060408
tasar@@ 1
1928 1
yarış@@ 1
bölüm 1
Hayatı 1
yılının 1
para 0.2114253890207329
onları 1
San 0.5919140836958213
üzerindeki 1
sinema 1
Ukrayna 1
ıydı 1
Grup 1
Kıbrıs 1
yas@@ 1
ıkları 1
başkenti 1
şarkıcı 1
döndü 1
Kore 1
yüzyıl 1
1986 1
dünyaya 1
ses 0.4327460202704233
ıyordu 1
karşısında 1
boş 1
kendini 1
III 1
kişinin 1
Köyün 1
geleneksel 1
acı 1
belirli 1
söyledi 1
altına 1
çünkü 1
1950 1
tipi 1
sayesinde 1
edilmektedir 1
yolu 1
yazarı 1
Ordu 1
artık 1
maz 1
Muhammed 1
tar@@ 1
Şehir 1
per@@ 1
oy@@ 1
sayı 1
yayın 1
kurul@@ 1
Hindistan 1
attı 1
görüş@@ 1
lü 1
Hollanda 1
duy@@ 1
ği 1
İsveç 1
düş@@ 1
dış 1
kurdu 1
öl@@ 1
met@@ 1
Or@@ 1
ilik 1
enerji 1
değiş@@ 1
konu 1
Han 1
galaksidir 1
öne 1
elerde 1
William 0.8824602215774725
mak@@ 1
isine 1
1984 1
plan@@ 1
Hay@@ 1
Süper 1
yu 1
Devleti 1
sağ@@ 1
Burada 1
şehirdir 1
mez 1
ıya 1
Kor@@ 1
yayın@@ 1
maçı 1
sen@@ 1
yay@@ 1
destek 1
Windows 1
alarında 1
Gürcistan 1
ani 1
ic@@ 1
şarkısı 1
es 0.09428761411774571
ene 1
single 0.7370163109491791
yerleşim 1
hiç 1
yazdığı 1
şey 1
UEFA 1
1985 1
idari 1
yeri 1
seç@@ 1
takip 1
kas@@ 1
mi 1
elerini 1
eb@@ 1
Bar@@ 1
düşün@@ 1
lam@@ 1
alarına 1
cinstir 1
si@@ 1
Böylece 1
ölçüde 1
Bir@@ 1
1982 1
kuzey 1
sürekli 1
sat@@ 1
yoktur 1
taş 1
kazanmıştır 1
kazanan 1
tarihleri 1
ışık 1
FC 1
öz@@ 1
Tarihi 1
etmeye 1
final 0.596731954163671
tanım@@ 1
dışı 1
oynanan 1
oy 1
Kon@@ 1
çalışma 1
se@@ 1
makta 1
Deniz 1
kara 1
bölgede 1
tur 1
adında 1
Ahmet 1
acaktır 1
tiyatro 1
Irak 1
del@@ 1
aşağıdaki 1
güney 1
ton 1
yerini 1
din 1
kaz@@ 1
mıştı 1
doğrudan 1
dön@@ 1
D 1
mekte 1
yarat@@ 1
ordusu 1
kendisi 1
Eğitim 1
bin@@ 1
kitap 1
alara 1
tek@@ 1
kötü 1
ova 1
git@@ 1
gösteren 1
James 0.901365881210677
... 0.8556766024423174
At@@ 1
geçmektedir 1
resmî 1
yüksel@@ 1
elerinin 1
yazdı 1
ildi 1
popüler 1
aktif 1
hayvan 1
tin 1
taşıyan 1
ilir 1
uyla 1
Sonuçlar 1
kurulmuş 1
ım@@ 1
Bölgesi 1
abil@@ 1
Ol@@ 1
tır 1
1983 1
ıs@@ 1
X 1
Kurulu 1
Özel 1
mesiyle 1
men@@ 1
görevi 1
ırken 1
Kuvvetleri 1
ce 0.38243471940013507
boy@@ 1
yoğun 1
mevcut 1
sar@@ 1
Enstitüsü 1
lanan 1
irler 1
acağı 1
David 0.9510006946770088
iye 1
iz 1
2. 1
ça 1
Birinci 1
v 1
yaş@@ 1
işlem@@ 1
kullanarak 1
usu 1
dönemi 1
Yaz 1
ina 1
Berlin 1
oluştur@@ 1
Ermeni 1
eme 1
İl@@ 1
Har@@ 1
gelmiştir 1
Per@@ 1
ici 1
Şehrin 1
yedi 1
ri@@ 1
halinde 1
yat@@ 1
ız 1
‘ 1
kab@@ 1
yılındaki 1
art@@ 1
Bakanı 1
isinde 1
us@@ 1
meden 1
etmiş 1
iller 1
Cumhuriyet 1
bit@@ 1
ilerinin 1
yaşam 1
Altın 1
Sar@@ 1
19. 1
T 1
ilçesinde 1
çıkmıştır 1
aki 1
bölgesi 1
ke 1
re 0.8836432599124905
Moskova 1
süren 1
kendisini 1
60 1
esinden 1
Profesyonel 1
Ter@@ 1
arlar 1
inç 1
ıların 1
ila 1
veril@@ 1
yık@@ 1
etkisi 1
Av@@ 1
anlat@@ 1
araştırma 1
mesinin 1
ınca 1
Beyaz 1
çift 1
Başkanlığı 1
ci 1
mer@@ 1
madalya 1
hazır@@ 1
öğren@@ 1
grubun 1
bitki 1
yorum@@ 1
1979 1
Par@@ 1
Bal@@ 1
sırasıyla 1
Festivali 1
Kay@@ 1
doğ@@ 1
kaldır@@ 1
Kariyeri 1
Okulu 1
men 0.6170056699979466
ünde 1
Ev@@ 1
enler 1
ilinde 1
açısından 1
getir@@ 1
em 1
yon@@ 1
ük 1
yol@@ 1
yüz@@ 1
Belediye 1
kullanılmaktadır 1
kişilik 1
ai 1
bazen 1
tab@@ 1
elere 1
ol 1
Michael 1
sız 1
şirketi 1
nasıl 1
alt@@ 1
İn@@ 1
Olimpiyatları 1
gösterir 1
öner@@ 1
1981 1
elektrik 1
mesinden 1
La 0.10232540792542003
Müslüman 1
dördüncü 1
bırak@@ 1
bilimsel 1
eğitimi 1
mahalle 1
aş 1
İş@@ 1
alındı 1
masında 1
menin 1
kayıtlarında 1
iler@@ 1
ut@@ 1
gen@@ 1
meleri 1
açıkladı 1
suç@@ 1
göç 1
annesi 1
yapı 1
mu@@ 1
lem@@ 1
şehrinde 1
elerinde 1
2.@@ 1
oyunu 1
Kral 1
kullanılmıştır 1
içer@@ 1
uk@@ 1
cu 1
Ordusu 1
eni 1
yapmaktadır 1
başı 1
yapmak 1
böylece 1
ilmiştir 1
ilmesi 1
üye 1
ılarak 1
verilmiştir 1
Kan@@ 1
bulunmuştur 1
Krallığı 1
batı 1
1974 1
üretilen 1
Yaşamı 1
öncesi 1
etkili 1
ünden 1
200 1
bölümünde 1
çiz@@ 1
K 1
kad@@ 1
başar@@ 1
ılı 1
buna 1
yabancı 1
evi 1
gelmektedir 1
hayatını 1
yoluyla 1
takımyıldızı 1
1978 1
Kö@@ 1
kent 1
Grubu 1
î@@ 1
yıldız 1
acağını 1
ag@@ 0.9082656286534693
g 0.9309562735353173
op@@ 1
ata 1
stüdyo 1
Günümüzde 1
Spor 1
uş@@ 1
takımına 1
1945 0.8065538614100531
sin@@ 1
Hava 1
neredeyse 1
malar 1
san@@ 1
Lisesi 1
Akdeniz 1
sahne 1
çaplı 1
sah@@ 1
undaki 1
mal@@ 1
kin 1
konusu 1
tür@@ 1
dini 1
irken 1
aile 1
W@@ 0.4678285871621899
tarih 1
kitabı 1
liğini 1
Savaş 1
ec@@ 1
parti 1
çocuğu 1
geçirdi 1
Robert 0.8504683337320122
ığı 1
90 1
bi@@ 1
U 0.9975227736180577
izm 1
ku@@ 1
Der@@ 1
1973 1
asyonu 1
ebilir 1
görevini 1
terk 1
geçir@@ 1
1968 1
gönder@@ 1
Beşiktaş 1
nün 1
ov@@ 1
dağ@@ 1
siyasetçi 1
çoğunlukla 1
dizisi 1
gün@@ 1
ilmiş 1
lik@@ 1
arkadaşı 1
futbolcu 1
büyü@@ 1
Kemal 1
kentinde 1
son@@ 1
Bel@@ 1
finalde 1
dikkat 1
yüzden 1
işgal 1
kaç@@ 1
sınırları 1
uyar@@ 1
1972 1
FIFA 1
almış 1
aj@@ 1
sun@@ 1
görün@@ 1
1975 1
dili 1
Tek@@ 1
ne@@ 1
göz 1
vermiştir 1
bek@@ 1
üdür 1
hayatı 1
tamamladı 1
3. 1
bölgesine 1
Kara 1
dol@@ 1
yaklaş@@ 1
Britanya 1
doğu 1
karşılaş@@ 1
filmin 1
keşfedilmiştir 1
lığa 1
gitti 1
üyeleri 1
ilçesi 1
seçim 1
Hristiyan 1
Bursa 1
araya 1
mi@@ 1
giren 1
görülür 1
ortalama 1
ndeki 1
milletvekili 1
1.@@ 1
Küçük 1
1977 1
of@@ 1
Tarih 1
lar@@ 1
1920 1
and@@ 1
lig 1
yapılmış 1
Ber@@ 1
başlarında 1
° 0.8459256406429737
Macaristan 1
sağlar 1
hala 1
sağlayan 1
istem@@ 1
George 0.7694554362754537
kırmızı 1
seçimleri 1
durumu 1
hak 1
alınan 1
Mer@@ 1
takımında 1
yazıl@@ 1
çı 1
osu 1
içindeki 1
yayımlanan 1
Sanat 1
Muharebesi 1
yönetimi 1
sal 1
sor@@ 1
ni@@ 1
kökenli 1
bel@@ 1
başta 1
1976 1
Meclisi 1
lanmış 1
sanatçı 1
savun@@ 1
mevcuttur 1
İsviçre 1
Kulüp 1
sal@@ 1
ıc@@ 1
gi@@ 1
lardır 1
görül@@ 1
kul@@ 1
yaşadığı 1
ğin 1
Kültür 1
kız@@ 1
ilere 1
eşi 1
anlaş@@ 1
bal@@ 1
Güneş 1
Özellikle 1
liğe 1
aktar@@ 1
onların 1
sol 1
Dr. 1
iri 1
olmadığı 1
Tüm 1
üm@@ 1
lerdir 1
1969 1
Kadın 1
merkez 1
tik 1
Derneği 1
puan 1
bi 1
tercih 1
Müzesi 1
1971 1
ordu 1
çıkar 1
sit@@ 1
esidir 1
içine 1
mm 1
oluş@@ 1
bar@@ 1
çevir@@ 1
oynadığı 1
üler 1
Akademisi 1
tr@@ 0.8585447730273529
çapında 1
Portekiz 1
2022 1
belir@@ 1
ular 1
atandı 1
koy@@ 1
City 0.4498129867107924
adır 1
form@@ 1
En@@ 1
Mal@@ 1
Ger@@ 1
iden 1
mar@@ 1
üretim 1
meyen 1
ndaki 1
kuş@@ 1
normal 1
denir 1
bat@@ 1
yayınladı 1
dığı 1
gücü 1
orijinal 1
oz@@ 1
ışı 1
E 1
80 1
derece 1
ette 1
edilmesi 1
tahmin 1
bur@@ 1
fark 1
taşımaktadır 1
asker 1
Ne@@ 1
Yaz@@ 1
Kadınlar 1
Los 0.3884912731332897
ayrıldı 1
göstermektedir 1
R 0.957257517124639
ticari 1
1967 1
lanır 1
söyler 1
Ağ@@ 1
lük 1
j 1
oyuncusu 1
öldür@@ 1
ülkede 1
Bunlar 1
giy@@ 1
pl@@ 1
hatta 1
zor@@ 1
ilgi 1
Hal@@ 1
canlı 1
takımın 1
uk 1
Ab@@ 0.8104541971385064
ölmüştür 1
hav@@ 1
sağ 1
Teknik 1
gördü 1
Be@@ 1
ap 1
Charles 0.74081444554146
Kilisesi 1
Ü@@ 1
elik 1
araştır@@ 1
ut 1
bilinmektedir 1
kim@@ 1
ıldığı 1
açtı 1
hat@@ 1
diler 1
arka 1
elerine 1
durumda 1
Tanrı 1
dek 1
paylaş@@ 1
aklı 1
düzen@@ 1
aca 1
Se@@ 1
isim 1
özellikleri 1
Paul 0.675948372712128
kültürel 1
ecektir 1
belli 1
birleş@@ 1
İlçenin 1
sebebiyle 1
ticaret 1
almak 1
gem@@ 1
nü 1
Su@@ 1
1930 1
ri 1
anlam@@ 1
dem@@ 1
dav@@ 1
insanların 1
kl@@ 1
arada 1
kü@@ 1
dönemin 1
Van 1
duğu 1
Ama 1
takımının 1
olma 1
metal 1
up 0.2228665516071543
adamı 1
yaş 1
kuzeyinde 1
Ana 1
yerde 1
sistem 1
Az@@ 1
c 0.7141449914598006
bes@@ 1
aracılığıyla 1
kesin 1
ziyaret 1
yükseldi 1
kulübünde 1
ime 1
1961 1
ci@@ 1
han 1
Geçersiz 1
anları 1
örnek 1
pozisyonunda 1
ler@@ 1
Tak@@ 1
gece 1
Gün@@ 1
astronom 1
doğum 1
açık@@ 1
çalışmalar 1
kut@@ 1
yıllar 1
id 1
kendine 1
müziği 1
yet@@ 1
nüfusunun 1
etme 1
â 1
amacı 1
dönüş@@ 1
tane 1
olduğuna 1
olmadığını 1
inan@@ 1
sekiz 1
değer 1
70 1
biçimde 1
kem@@ 1
esiyle 1
oluşturan 1
ılık 1
ilerini 1
gözlem@@ 1
kontluğunda 1
Bur@@ 1
may@@ 1
Atatürk 1
teslim 1
ayan 1
parish 1
ük@@ 1
du@@ 1
günlük 1
civil 1
kararı 1
Gül@@ 1
pat@@ 1
ez 1
muştur 1
S 1
1965 1
klasik 1
dür 1
alanda 1
Çok 1
ılara 1
erin 1
uygulam@@ 1
doğan 1
sahipliği 1
van 1
Kaz@@ 1
1966 1
F 0.9969056914286916
örneğin 1
İrlanda 1
İç 1
yum 1
1940 0.9904411222211907
idae 1
ıy@@ 1
35 1
siyah 1
L 0.6400075318769456
Am@@ 1
ane 1
çalışmaya 1
ül 1
fer@@ 1
Aday 1
nu 1
yere 1
û@@ 1
güç@@ 1
Ver@@ 0.611680885013964
luğu 1
ıt@@ 1
ber@@ 1
ot 1
Yine 1
önceleri 1
öğretim 1
Tur@@ 1
1964 1
yasa 1
Sosyal 1
De@@ 0.9939189919681719
umu 1
eceği 1
mişlerdir 1
eleştir@@ 1
aşırı 1
veri 1
yılda 1
anti@@ 1
oluşmaktadır 1
tartış@@ 1
ettiler 1
bey@@ 1
yılın 1
ailesi 1
müş 1
har@@ 1
ki@@ 1
ölümünden 1
üz@@ 1
20. 1
dağıt@@ 1
giriş 1
seçil@@ 1
karşılık 1
anlam 1
layan 1
Te@@ 1
bilgisayar 1
yapmaya 1
toprak 1
Kol@@ 1
Konseyi 1
listesinde 1
etmesi 1
ro@@ 0.9962988868686543
abilen 1
ale 0.7922180121283546
fiziksel 1
iliği 1
İspanyol 1
olojik 1
asından 1
General 0.5998200967440981
Trabzon 1
gelebilir 1
anların 1
sağlık 1
geliştir@@ 1
kaybetti 1
Oyuncu 1
kullanımı 1
lo@@ 1
kalmıştır 1
sivil 1
leştir@@ 1
ans 0.3620052994778057
Tar@@ 1
insanlar 1
M 0.9858524971382834
mek@@ 1
res@@ 1
Arapça 1
türüdür 1
tel@@ 1
uz 1
değerlendir@@ 1
Hasan 1
45 1
lanması 1
ey 1
ah 1
gerekli 1
bazıları 1
filminde 1
leş@@ 1
yıl@@ 1
Meksika 1
Belçika 1
güvenlik 1
yaparak 1
isti@@ 1
TBMM 1
ıma 1
onlar 1
yazı 1
1944 0.8453293041140998
içi 1
dar@@ 1
1963 1
yayımlandı 1
ıl 1
filmde 1
Bulgaristan 1
teleskopla 1
madı 1
Birçok 1
oluşturur 1
yön@@ 1
32 1
Dönem 1
dam@@ 1
Peter 0.8395511413677836
sonradan 1
sözleşme 1
arın 1
sebep 1
tepe 1
şirket 1
merkezli 1
suz 1
ger@@ 1
elem@@ 1
ant@@ 1
henüz 1
olduğundan 1
ing 0.1798107456440968
Karadeniz 1
oluştuğu 1
Katalog 1
uzay 1
çal@@ 1
3.@@ 1
do 0.4218687755999129
ko@@ 1
giriş@@ 1
görülen 1
dolayısıyla 1
Microsoft 1
Fransızca 1
adlandırılan 1
dar 1
mekteydi 1
yandan 1
Gökyüzünde 1
list@@ 1
geçer 1
yüzünden 1
Albüm 1
kaynağı 1
boş@@ 1
dağ 1
İbrahim 1
söz@@ 1
güneyinde 1
yapılır 1
kaya 1
larındaki 1
Arjantin 1
sel@@ 1
1. 0.8089269964510577
sonlarında 1
ödül 1
belirtti 1
sağladı 1
ha 0.4415723091030158
Dış 1
edir 1
eline 1
zengin 1
Tan@@ 1
getirildi 1
Sal@@ 1
ken@@ 1
eğ@@ 1
sayılı 1
4. 1
Adana 1
aklar 1
biy@@ 1
be 0.08144006871242433
kıy@@ 1
ız@@ 1
Efendi 1
alan@@ 1
kir@@ 1
Grand 0.7916093644015723
1941 0.8827427666503872
çift@@ 1
sol@@ 1
destek@@ 1
karşın 1
mümkün 1
Kat@@ 1
eg@@ 1
Jean 0.5992977436664383
maçına 1
za 1
ıyı 1
han@@ 1
sağlamak 1
Federasyonu 1
parti@@ 1
liğin 1
ağır@@ 1
Hukuk 1
ciddi 1
lığını 1
Ardından 1
Angeles 1
aslında 1
1962 1
lisans 1
iydi 1
önünde 1
Babası 1
karış@@ 1
mayan 1
st@@ 0.6171863727820217
ge 1
şöyle 1
rock 1
Kralı 1
asıyla 1
ağa 1
Bölümü 1
1959 1
1956 1
kar 1
programı 1
etkil@@ 1
dal@@ 1
po@@ 1
gerek@@ 1
evlendi 1
alm@@ 1
medi 1
yapısı 1
World 0.2722601591463443
be@@ 0.7078213378795309
bugün 1
mışlardır 1
ilişkin 1
mez@@ 1
Aş@@ 1
kaynak 1
do@@ 1
yavaş 1
500 0.9906529267313614
hükûmet 1
orada 1
üst@@ 1
Hitler 1
kültür 1
ikisi 1
ğe 1
olacak 1
polis 1
Müdürlüğü 1
ısını 1
Eğer 1
eseri 1
okul 1
Dışişleri 1
üretimi 1
antik 1
ortadan 1
tiği 1
Mu@@ 1
tes@@ 1
aksine 1
Süleyman 1
kav@@ 1
yapar 1
babasının 1
ip@@ 1
On@@ 1
ısının 1
kralı 1
ide 1
ker@@ 1
kapat@@ 1
mesinde 1
Kom@@ 1
can 0.23641312939009843
anlamlara 1
kaf@@ 1
kg 1
gösterdi 1
bilin@@ 1
yaşam@@ 1
lay@@ 1
dakika 1
Ermenistan 1
Mas@@ 1
.. 1
hi@@ 1
lideri 1
düz@@ 1
tü@@ 1
Man@@ 1
Hüseyin 1
sil@@ 1
Sel@@ 1
işi 1
Antalya 1
imler 1
dev@@ 1
von 0.038493178009057875
üy@@ 1
yonu 1
elerinden 1
dikleri 1
ko 1
şampiyon@@ 1
cinsel 1
kale 1
kapsamında 1
lanma 1
1946 0.9629130913458681
me@@ 1
karar@@ 1
ıklar 1
lardaki 1
dir@@ 1
kişisel 1
hakkı 1
yağ@@ 1
1958 1
Ham@@ 1
korun@@ 1
sınır@@ 1
Gölü 1
alarından 1
adaki 1
asyon@@ 1
for 0.023400695960634706
çizgi 1
değiştir@@ 1
Sivas 1
ucu 1
gizli 1
karakter 1
giderek 1
Park 0.5731284478688904
Bo@@ 1
gerçekleştirilen 1
Norveç 1
açıl@@ 1
yaşındayken 1
masıdır 1
Üç 1
Gürcü 1
Belediyesi 1
X@@ 1
hızla 1
Es@@ 1
bildir@@ 1
biraz 1
Antik 1
tarım 1
ıklarını 1
Bak@@ 1
değişik 1
sır@@ 1
Kır@@ 1
köyü 1
giden 1
politik 1
Taş@@ 1
bunların 1
dikten 1
hesap@@ 1
getirdi 1
St 1
Erzurum 1
radyo 1
tu@@ 1
çekil@@ 1
NBA 1
Kap@@ 1
ati 1
dü 1
giydi 1
1918 1
başarı 1
sürdür@@ 1
sene 1
ölüm 1
kullanan 1
Hint 1
silah 1
model 1
andı 1
edi 1
geçmiştir 1
sız@@ 1
lanmıştır 1
1957 1
toplamda 1
Basketbol 1
ize 1
yenil@@ 1
IV 1
On 0.15784451658369614
Camii 1
Filmin 1
gen 1
Cumhurbaşkanı 1
ze 1
doğumlu 1
ımları 1
üm 1
mad@@ 1
faaliyet 1
Denizi 1
ul 1
nedeni 1
savunma 1
Konya 1
Sh@@ 0.7744294674380264
ilerden 1
web 1
olay 1
ilerinden 1
yurt 1
Ch@@ 0.5141963198363485
almaya 1
ulaştı 1
Sosyalist 1
Yunanca 1
model@@ 1
Başkan 1
eser 1
alardan 1
endi 1
Re@@ 0.6804658546023231
Venedik 1
1954 1
1955 1
isidir 1
lıkları 1
ye@@ 1
ley@@ 1
ke@@ 1
kişidir 1
katılan 1
tah@@ 1
askerî 1
to@@ 1
tor@@ 1
zi 1
1943 0.8606656904717006
sınır 1
Stadyumu 1
uzak 1
if@@ 1
etnik 1
müştür 1
taşın@@ 1
roman 1
indir@@ 1
akta 1
muhtemelen 1
va 1
V 0.7642380839373462
1948 0.9190734092253231
kıl@@ 1
uğr@@ 1
elerden 1
kullanıldı 1
ölç@@ 1
lidir 1
mü@@ 1
şampiyon 1
finale 1
halkı 1
ite 0.8930964650595745
madde 1
ard@@ 1
Danimarka 1
Henry 0.8618912170482371
Ölümü 1
üsü 1
Adası 1
Adaylık 1
Uzun 1
ks@@ 1
ladı 1
Osman 1
ham@@ 1
çıkış 1
yüz 1
imleri 1
önde 1
başardı 1
gerçekleş@@ 1
oynayan 1
özelliği 1
ıda 1
Thomas 0.6287647671848486
gereken 1
ığına 1
1939 0.8335278877783602
Milletler 1
Kızıl 1
program@@ 1
ses@@ 1
Sey@@ 1
koş@@ 1
Kategori 1
landığı 1
meler 1
tu 1
League 0.33355113135955966
ba 1
ödülü 1
Nazi 1
kuvvetleri 1
şampiyonu 1
Samsun 1
seçimlerinde 1
yen 1
ığından 1
genelde 1
Mehmed 1
tedavi 1
Sırbistan 1
gerektiğini 1
kurum@@ 1
Genç 1
Tiyatrosu 1
ismini 1
merkez@@ 1
birbirine 1
ala 1
girmiştir 1
seçilmiştir 1
örgüt@@ 1
imin 1
değer@@ 1
birisi 1
bo@@ 0.9750278705899905
ağ 1
Mak@@ 1
lamak 1
Say@@ 1
işe 1
Komünist 1
sert 1
Ben 1
ılarının 1
Final 1
müz@@ 1
asıdır 1
Yar@@ 1
kurtar@@ 1
zor 1
İz@@ 1
verilir 1
Tür@@ 1
asker@@ 1
civarında 1
güzel 1
milyar 1
elinde 1
maktaydı 1
hak@@ 1
ımlar 1
arab@@ 1
göl@@ 1
tir@@ 1
yakın@@ 1
adam@@ 1
itibarı 1
durum@@ 1
Richard 0.8240439764780453
yla 1
yazılan 1
bölgeye 1
düzenli 1
lenen 1
end@@ 0.9013942115989638
saha 1
sürdü 1
2@@ 1
Oyunları 1
ılarını 1
yaşadı 1
hafif 1
ıdan 1
kullanılarak 1
oc@@ 0.8302265467969563
Kısa 1
güven@@ 1
liğine 1
dik@@ 1
manı 1
N 0.8845703567124236
emi 1
ob@@ 1
dizisinde 1
yük@@ 1
kam@@ 1
basit 1
maç@@ 1
x@@ 1
eriş@@ 1
kişiler 1
Antlaşması 1
dır@@ 1
çiler 1
iyor 1
eci 1
Washington 0.7233058945777656
birden 1
Ah@@ 1
kanıt@@ 1
tutuk@@ 1
Yönetim 1
kiş@@ 1
gümüş 1
Havalimanı 1
mem@@ 1
noktası 1
oz 1
til@@ 1
vermektedir 1
etler 1
taşındı 1
olay@@ 1
gerçekleşen 1
etki 1
saldırı 1
1942 0.8116137600155816
Genellikle 1
mamış 1
çekildi 1
dayan@@ 1
pop 1
asıllı 1
açıklam@@ 1
günümüze 1
karakter@@ 1
Romanya 1
lıdır 1
ığını 1
sahipti 1
kulüp 1
ans@@ 1
beşinci 1
mam@@ 1
yönetmen 1
dalında 1
gören 1
Kırım 1
lenmiş 1
tamam@@ 1
başkan 1
lak 1
şiir@@ 1
tanınan 1
oyun@@ 1
sonuna 1
United 0.18902889441939502
Car@@ 0.706574388925891
haber 1
Bil@@ 1
ten@@ 0.9662962091557293
1953 0.9996523786505035
Bat@@ 1
diş@@ 1
sev@@ 1
ikler 1
Rusça 1
hukuk 1
1919 1
edilebilir 1
otur@@ 1
bitirdi 1
uc@@ 1
Sam@@ 1
Yap@@ 1
You 1
ağaç 1
atik 1
kullanılabilir 1
yerli 1
malı 1
Bay@@ 1
araç 1
geçiş 1
G 0.8604927946324527
Olimpiyat 1
vi@@ 1
Tr@@ 0.6789417545792727
istifa 1
zarar 1
geçici 1
ino 0.9648748569829757
kent@@ 1
nes@@ 1
silah@@ 1
Saint 0.30029741683932076
vur@@ 1
Katolik 1
albümün 1
Gö@@ 1
başlat@@ 1
Finlandiya 1
Bah@@ 1
Ahmed 1
Doğ@@ 1
ano 0.7975511042728509
hükûmeti 1
emekli 1
çıkardı 1
proj@@ 1
ettir@@ 1
görülmektedir 1
yayınlanmıştır 1
1952 0.9392012367568606
örü 1
çalışır 1
Gal@@ 1
Yüzölçümü 1
diğinde 1
Türk@@ 1
gösterildi 1
Kutsal 1
numaralı 1
Erkekler 1
tutul@@ 1
Dağı 1
şehridir 1
Mem@@ 1
benzeri 1
Milli 1
başlamış 1
andan 1
internet 1
Komitesi 1
amaz 1
üc@@ 1
olumlu 1
landı 1
keşf@@ 1
tahta 1
Viyana 1
dönem@@ 1
önceden 1
ılabilir 1
uygulan@@ 1
öğrenci 1
şey@@ 1
memiş 1
imzaladı 1
ilerine 1
5@@ 0.9664140115218514
yaz 1
babasıdır 1
fil@@ 1
gerçekleştir@@ 1
DNA 1
ter 0.4990026656833414
Şu 1
Almanca 1
pan@@ 1
cı 1
can@@ 1
ton@@ 1
cinsidir 1
top 0.543465836295587
sorumlu 1
katıldığı 1
Meclis 1
zamanlar 1
azalt@@ 1
Fer@@ 1
ailesinin 1
pazar@@ 1
leşme 1
resim 1
demir 1
mes@@ 1
karşıl@@ 1
onlara 1
oldukları 1
üt@@ 1
Diyarbakır 1
ent@@ 0.5838046056516698
geldiği 1
ığında 1
yaşamı 1
Billboard 1
tanın@@ 1
İsa 1
biçim@@ 1
lerindeki 1
liğinin 1
ark@@ 1
sabit 1
sınıf 1
Arnavutluk 1
zamanlarda 1
sefer 1
sim@@ 1
Söz@@ 1
bölgenin 1
ederken 1
olmadan 1
hakları 1
ru@@ 1
koruma 1
isinden 1
Akademi 1
1949 0.8696019487356428
akları 1
Eyaleti 1
Louis 0.6515886050090057
ısına 1
eceğini 1
gerekir 1
por 0.061388600453497026
siz@@ 1
1947 0.880731537695596
altındaki 1
aralarında 1
edildiği 1
aç 1
güneş 1
mağlup 1
sıcak 1
komündür 1
renk 1
ig@@ 0.8670818072888441
hizmet@@ 1
bunlar 1
Can@@ 1
300 1
ayrımı 1
Şampiyonlar 1
1938 0.8541538769107552
elli 1
asıl 1
Di@@ 0.8774936003106347
birliği 1
Erkek 1
Kam@@ 1
parça 1
barış 1
seri 1
lenmesi 1
Adaları 1
başladığı 1
kimyasal 1
iv@@ 1
so@@ 1
yönetmenliğini 1
çalışması 1
eşit 1
Sev@@ 1
ail@@ 1
su@@ 1
ettiğini 1
İnsan 1
St@@ 0.6120043894343262
ımın 1
serisi 1
kom@@ 1
duyurdu 1
Çağ 1
amaçlı 1
başvur@@ 1
yönettiği 1
üyle 1
P 1
Love 1
çarp@@ 1
Mü@@ 1
lenir 1
plan 0.7418738629843088
toplumsal 1
ımını 1
performans 1
kalp 1
siyon 1
attığı 1
böyle 1
rolü 1
Üçüncü 1
Atina 1
kin@@ 1
çöz@@ 1
ib@@ 1
Le@@ 0.7718948536220838
ğinin 1
hedef@@ 1
takım@@ 1
ilerle 1
Latin 1
batısında 1
net 1
yeşil 1
kamu 1
laş@@ 1
öz 1
lıklar 1
Ko@@ 1
bozul@@ 1
yazılmış 1
bileş@@ 1
familyasıdır 1
kurulu 1
uma 1
Modern 1
Martin 0.7637053488492622
Oyun 1
kadınlar 1
are 0.05358565174939815
ğine 1
Records 0.8021494512773729
anlı 1
zamanında 1
aynalı 1
sezonunun 1
Aydın 1
adam 1
gaz 1
ih@@ 1
nak@@ 1
doğusunda 1
Kudüs 1
durumunda 1
kilise 1
kov@@ 1
ayla 1
istedi 1
lığın 1
sap@@ 1
halka 1
iletişim 1
sarı 1
katı 1
vak@@ 1
Fatih 1
Su 0.6852962778480672
anl@@ 1
tır@@ 1
ch@@ 0.2925262626249842
bakımından 1
komut@@ 1
ateş 1
üs 1
has@@ 1
Em@@ 1
Erken 1
aj 1
1925 1
Sağlık 1
alma 1
amadı 1
katkıda 1
eserleri 1
ilerek 1
kendisinin 1
uları 1
Han@@ 1
başlandı 1
kilometre 1
off 0.3674673312783672
ayar@@ 1
nam@@ 1
boyut@@ 1
fir@@ 1
gez@@ 1
dik 1
türleri 1
bölüm@@ 1
kuş 1
ölümü 1
dünyada 1
kalm@@ 1
duvar@@ 1
uydu 1
kil@@ 1
tarih@@ 1
van@@ 1
başlıca 1
yayım@@ 1
Birleşmiş 1
devlet@@ 1
birleştir@@ 1
ran@@ 1
sen 1
sonuçları 1
Güvenlik 1
Yen@@ 1
bağlıdır 1
İs@@ 1
1936 0.8718668321575248
işaret 1
anan 1
Bul@@ 1
uçak 1
mel@@ 1
gü@@ 1
iti@@ 1
başarısız 1
anlamda 1
standart 1
4@@ 0.8749961581380814
Savunma 1
lerdeki 1
Ve 1
kitap@@ 1
Bey@@ 1
Yer@@ 1
Farsça 1
evinde 1
fi 1
kaybet@@ 1
kurtul@@ 1
6@@ 1
üs@@ 1
kr@@ 1
sarmal 1
yakınlarında 1
eylem@@ 1
ok 1
maruz 1
sık@@ 1
leridir 1
numaraya 1
sezonda 1
olog 1
İl 1
Ek@@ 1
Sür@@ 1
Kad@@ 1
kullandığı 1
Mor@@ 0.8338609208255113
1951 0.9426039659121852
5. 1
Tab@@ 1
ed 0.1661338042246145
$ 0.2760585273481539
kı@@ 1
çab@@ 1
çıkart@@ 1
Lee 1
Sırp 1
ekiplerinden 1
1933 0.8765457911923497
kayıt 1
oper@@ 1
yalı 1
ülkeler 1
H 1
1921 1
filmidir 1
yem@@ 1
dijital 1
dalga 1
sa@@ 1
kıs@@ 1
Sin@@ 1
çekti 1
7@@ 1
modeli 1
sem@@ 1
ari 1
kulübü 1
suyu 1
Bab@@ 1
imini 1
mil@@ 1
lığına 1
dile 1
1922 1
Makedonya 1
Var@@ 1
birlikleri 1
mah@@ 1
Tek 1
kat 1
komedi 1
sk@@ 1
elektronik 1
4.@@ 1
adayı 1
renkli 1
mal 1
Adalet 1
artır@@ 1
kilis@@ 1
ef@@ 1
irdi 1
bugünkü 1
üniversite 1
motor 1
Mon@@ 0.8005481952741321
alam@@ 1
Bölge 1
gaz@@ 1
1935 0.9602177155428435
ığın 1
yola 1
Kab@@ 1
ilişkileri 1
lenmiştir 1
ister 1
sürdürdü 1
sınıf@@ 1
şair 1
tü 1
kel@@ 1
Uz@@ 1
Vakfı 1
del 0.03770153239083296
katılmıştır 1
min@@ 1
ep@@ 1
ilerde 1
maça 1
Joseph 0.676477268281512
og@@ 1
sezonun 1
Al 0.5580157138965345
Bundan 1
elerle 1
Tiyatro 1
yal@@ 1
dedi 1
abilecek 1
adığı 1
kullanır 1
sanatçısı 1
abilmektedir 1
MS 1
alık 1
dolar 1
Adam 1
geçmiş 1
kurucusu 1
Google 1
Yerli 1
33 1
halde 1
kuşat@@ 1
edi@@ 1
ang@@ 0.9302510281285602
Bor@@ 1
mezar@@ 1
kür@@ 1
yanlış 1
Apple 1
memiştir 1
dis@@ 0.3907477219409224
Dağları 1
Tem@@ 1
oynamıştır 1
1923 1
arttır@@ 1
ediyor 1
petrol 1
yaşanan 1
yayınlan@@ 1
Hav@@ 1
Demokratik 1
yönetilen 1
3@@ 0.9779466165392986
lüğü 1
ödülünü 1
uygulama 1
Araştırma 1
Mil@@ 1
değeri 1
geçerek 1
ydi 1
bıraktı 1
ilebilir 1
yanına 1
mut@@ 1
erler 1
hayatta 1
liler 1
anlaşma 1
köyün 1
eser@@ 1
buldu 1
karmaşık 1
one 0.07471055094272781
sürede 1
eş 1
konser@@ 1
6. 1
Dev@@ 1
best@@ 1
hastal@@ 1
Kazakistan 1
onay@@ 1
lardı 1
teşvik 1
test 1
takımları 1
Madrid 1
ati@@ 1
ildiği 1
Val@@ 1
ae 0.8859228098013404
rol@@ 1
Kraliyet 1
Parkı 1
ilişkiler 1
okulu 1
idam 1
evlen@@ 1
şiir 1
16. 1
girişim@@ 1
yetiştir@@ 1
alınmıştır 1
Yarı 1
don@@ 1
vermek 1
etleri 1
vad@@ 1
Evli 1
devr@@ 1
Şah 1
val@@ 1
Çanakkale 1
basketbol 1
erdi 1
Katılım 1
görev@@ 1
amaç@@ 1
birim@@ 1
statüsü 1
deney@@ 1
grubunun 1
iştir 1
isteyen 1
min 1
demiryolu 1
kül@@ 1
amı 1
atan 1
eğer 1
ing@@ 0.8700818984856112
aittir 1
ve@@ 1
ıt 1
andır 1
Gür@@ 1
halkın 1
1924 1
arkadaş@@ 1
açıdan 1
no 0.10257848219919434
hareket@@ 1
ürün 1
eğitimini 1
Yılın 1
lu@@ 1
Bosna 1
savaşı 1
malarını 1
lem 1
yöntem@@ 1
miktarda 1
duğunu 1
lider@@ 1
ner 0.5796272871178496
Her@@ 0.9245783756890233
edebiyat 1
görevine 1
hareketi 1
yasal 1
yerleşimi 1
laması 1
Çünkü 1
kod@@ 1
tas@@ 1
adlandırılır 1
ebil@@ 1
tarihsel 1
Den@@ 1
başkanlığı 1
Büyükşehir 1
değildi 1
yeterli 1
üyesidir 1
tığı 1
1937 0.8422458543202055
çevresinde 1
etrafında 1
75 1
Doktor 1
talep 1
küresel 1
Kayseri 1
Seç@@ 1
andığı 1
ailenin 1
derin 1
64 1
kuvvet@@ 1
Kalesi 1
ice 0.8369353671782221
Mahkemesi 1
med@@ 1
mada 1
şunlardır 1
tehdit 1
Bunların 1
luk@@ 1
400 0.9875344155209167
Mel@@ 1
lık@@ 1
yüzde 1
erini 1
kulüplerinde 1
toplum@@ 1
kaçır@@ 1
açılan 1
ğini 1
geçirdiği 1
yönetmeni 1
esas 1
etik 1
inc@@ 1
Aziz 1
Me 1
hayatına 1
Kulübü 1
yemek 1
Eş@@ 1
çalıştır@@ 1
konum@@ 1
Kav@@ 1
eşlik 1
çocuk@@ 1
yönel@@ 1
yüzey@@ 1
artan 1
ge@@ 0.5268147908588469
gemi 1
istler 1
mon@@ 0.755281831974832
İsmail 1
edip 1
ordusunun 1
davet 1
gelişmiş 1
1914 0.9240533908980331
Kir@@ 1
sınırlı 1
açıldı 1
Kürt 1
birer 1
ete 1
makla 1
Müz@@ 1
Tor@@ 1
dokuz 1
ilişki 1
dayanan 1
versiyonu 1
yardımcısı 1
1934 0.9067216105792378
olmakla 1
biriydi 1
bünyesinde 1
karakteri 1
alanları 1
düşünül@@ 1
böl@@ 1
1912 1
Tıp 1
silahlı 1
şek@@ 1
Mersin 1
SS 1
ilk@@ 1
Barış 1
fotoğraf@@ 1
önem 1
yl@@ 1
doldur@@ 1
ders 1
Dağ@@ 1
bay@@ 1
ötürü 1
Kul@@ 1
üre@@ 1
ban@@ 1
unvanını 1
ıklı 1
şarkının 1
Pol@@ 1
sı 1
mavi 1
18. 1
lı@@ 1
not@@ 1
şah@@ 1
Takımı 1
ekibi 1
34 1
Dur@@ 1
Me@@ 1
Sonraki 1
ligi 1
Litvanya 1
edebil@@ 1
mediği 1
Jackson 1
dans 0.04976152823047752
eleme 1
iddi@@ 1
ımına 1
başl@@ 1
mey@@ 1
olmaya 1
Bağ@@ 1
Ma@@ 0.9258268520965441
asa 1
üstü 1
İmparator 1
kapalı 1
sınıflandır@@ 1
larıdır 1
varsay@@ 1
komutanı 1
Star 0.9937264777011727
mamıştır 1
okul@@ 1
Bulgar 1
lat@@ 1
ihtiyaç 1
Ticaret 1
gruba 1
karşılığında 1
gelen@@ 1
oluşturulan 1
kullandı 1
tarafında 1
1917 0.9194184047624494
tarihlerinde 1
yönet@@ 1
One 0.42539742959204746
önüne 1
graf@@ 1
birinin 1
00 1
seçilen 1
ülkelerde 1
sağlam@@ 1
Men@@ 1
ayır@@ 1
etti@@ 1
kıyısında 1
esnasında 1
Sa@@ 1
layarak 1
th@@ 0.4530236234120531
Açık 1
Ömer 1
öldürül@@ 1
bilgiler 1
düşünülmektedir 1
oda 1
takımlarından 1
örnek@@ 1
Mah@@ 1
Hanedanı 1
48 1
baskı 1
medya 1
araç@@ 1
gö@@ 1
tarzı 1
özgü 1
kültür@@ 1
ley 0.5000995023462071
çıktığı 1
ölümüne 1
Sarayı 1
ayrılır 1
Devrimi 1
arda 1
parç@@ 1
üstlendi 1
Dar@@ 1
Video 1
atlar 1
doğrul@@ 1
oluşturduğu 1
bundan 1
spor@@ 1
göç@@ 1
dere 1
oynamaktadır 1
bü@@ 1
ılarına 1
7. 1
Kut@@ 1
bor@@ 1
imza 1
iyet@@ 1
oğulları 1
karşılaştır@@ 1
36 0.9748408613482477
ateş@@ 1
sistemleri 1
Herschel 1
iyordu 1
işlet@@ 1
San@@ 1
hız@@ 1
ill@@ 1
köy@@ 1
süresi 1
yaşamaktadır 1
ika 1
tipik 1
Filistin 1
şark@@ 1
söylem@@ 1
bağlantılar 1
kum@@ 1
hane 1
Murat 1
toplum 1
ücü 1
hay@@ 1
laşma 1
pler 1
uzanan 1
gid@@ 1
Bilim 1
tüm@@ 1
sisteminin 1
kurucu 1
yaptır@@ 1
durumlarda 1
şehirde 1
abilirler 1
Kitap 1
bilim@@ 1
tanr@@ 1
hangi 1
bastır@@ 1
edin@@ 1
Kum@@ 1
Lis@@ 1
WWE 1
ikili 1
ruh@@ 1
gönderildi 1
Yugoslavya 1
kalma 1
lendir@@ 1
Maria 0.8320311227566819
giyen 1
ins@@ 1
geliştirilen 1
lis@@ 1
üyor 1
olduktan 1
nükleer 1
ısıdır 1
dılar 1
sahn@@ 1
çoğunluğu 1
olar 1
yazılmıştır 1
Yıldız 1
1926 0.9561909538231251
aracı 1
uş 1
aller 1
sınıfı 1
takımlar 1
tarihinin 1
tarihte 1
araz@@ 1
iyet 1
Edward 0.9952269473900612
aşam@@ 1
çalışmalarına 1
ayarak 1
açıklandı 1
forması 1
maların 1
toplan@@ 1
görüldü 1
temsilcisi 1
deniz@@ 1
ıştı 1
dayalı 1
ındadır 1
akla 1
hücre 1
mesidir 1
Eskişehir 1
ısından 1
konser 1
pleri 1
hat 0.300747440366649
hayat 1
ifad@@ 1
sıklıkla 1
olabil@@ 1
Selçuklu 1
türlü 1
edeki 1
ığının 1
Ac@@ 1
olacaktır 1
laştır@@ 1
sin 0.5643545908540307
psik@@ 1
canlandır@@ 1
birisidir 1
5.@@ 1
kısmen 1
tanıt@@ 1
Balıkesir 1
1927 0.9513304219135367
makin@@ 1
De 0.3033573197221113
öncesinde 1
küm@@ 1
Latince 1
etin 1
Bakü 1
Mes@@ 1
olmay@@ 1
yıldız@@ 1
Mus@@ 1
by 0.018656279508429685
sanayi 1
My 1
arasına 1
nüfusun 1
Ker@@ 1
direktör 1
sonuç 1
atif 1
olojisi 1
baz@@ 1
göreve 1
ılmaktadır 1
ıç@@ 1
— 0.03514130769885522
tim@@ 1
yazılım 1
dağıl@@ 1
geç 1
Macar 1
saf@@ 1
hakkındaki 1
des 0.014925101482070543
organ@@ 1
ie 0.37680734144705424
taraf@@ 1
adının 1
Yerel 1
Yüz@@ 1
kaydetti 1
ortasında 1
Et@@ 1
aşı 1
Bankası 1
fi@@ 1
Mut@@ 1
Kurtuluş 1
ardı 1
belediyeye 1
gerçek@@ 1
TRT 1
zu 0.057662495818117124
kendilerini 1
Le 0.07140501978377846
West 0.32260654238439346
bakış 1
uzaklıkta 1
yası 1
lak@@ 1
Edirne 1
sağlay@@ 1
ilmektedir 1
çocukları 1
Sem@@ 1
olaylar 1
38 1
incelem@@ 1
göstermiştir 1
Yak@@ 1
kullanım 1
sur@@ 0.9124869198845464
‎ 1
ayrılmıştır 1
yazmıştır 1
çıkmış 1
derecede 1
Güzel 1
Kr@@ 1
halk@@ 1
tiler 1
bölümde 1
çevre 1
soğuk 1
Hak@@ 1
boyu 1
boz@@ 1
55 1
işletim 1
SSCB 1
ıktan 1
Abdullah 1
yapılmaktadır 1
özel@@ 1
hüküm@@ 1
Bugün 1
abileceği 1
düştü 1
acaktı 1
esindeki 1
kö@@ 1
Sen@@ 1
ret@@ 1
Bunlardan 1
duyur@@ 1
üç@@ 1
Kas@@ 1
ederler 1
Takım 1
ita 0.8408781321364209
adlandır@@ 1
likleri 1
om 1
bölgesinin 1
ris@@ 1
gerçekleşti 1
bronz 1
Gazi 1
ade 1
kardeş@@ 1
kolay 1
tav@@ 1
Komünün 1
Askeri 1
Mir@@ 1
abilmek 1
ondan 1
hüküm 1
teor@@ 1
gelmiş 1
Mur@@ 1
Gök@@ 1
Papa 1
yirmi 1
İ 1
Mad@@ 1
Sonra 1
Santa 0.6579939529793911
mit@@ 1
yetkil@@ 1
çağ@@ 1
başlangıçta 1
Q@@ 0.7791010710215261
1929 0.8291201405267004
Rock 1
sıcak@@ 1
kop@@ 1
Prix 1
ğinde 1
Gr@@ 0.7294151506531672
film@@ 1
ji 1
Onun 1
izi 1
tıp 1
8@@ 0.8916702471647119
yenerek 1
Kızıl@@ 1
ağın 1
üz 1
kavram@@ 1
gruplar 1
pol@@ 1
asit 1
donan@@ 1
17. 1
65 0.7440125837892686
Black 0.6896363160896999
ören 1
Ay 1
motor@@ 1
Is@@ 1
kral 1
yayıl@@ 1
birimi 1
sorun@@ 1
dışındaki 1
desteği 1
olmasını 1
Ur@@ 1
Ku@@ 1
gazeteci 1
soy@@ 1
ürünleri 1
devletin 1
atıl@@ 1
aday@@ 1
ırdı 1
düz 1
manyetik 1
mis@@ 1
öldürüldü 1
37 1
Bas@@ 1
ari@@ 1
Ekonomi 1
dedir 1
sonu 1
Başbakan 1
Br@@ 0.6455079492338693
Tokyo 1
Yol@@ 1
lilik 1
bey 1
kh@@ 0.9213131247944346
koşul@@ 1
Selim 1
To@@ 1
kısmını 1
renk@@ 1
teklif 1
üğü 1
Ege 1
Konusu 1
Ok@@ 1
Do@@ 1
topl@@ 1
Cup 0.35826936584417834
Kosova 1
Show 1
zaman@@ 1
itler 1
Dil@@ 1
Karak@@ 1
enc@@ 1
yasak@@ 1
düzey 1
ire 1
hattı 1
organizasyon@@ 1
Gençlik 1
Cephesi 1
Mac@@ 0.9838552305857546
Harry 1
senesinde 1
erde 1
dönüştür@@ 1
gerek 1
mod@@ 1
ılardan 1
lığının 1
1932 0.8499792237589404
kısmında 1
Kastamonu 1
Demokrat 1
Cor@@ 0.6547588094032503
ura 1
Music 0.5088974717575349
ast@@ 1
urlar 1
insanları 1
bölgelerde 1
okudu 1
seyahat 1
landır@@ 1
hedef 1
turda 1
erkekler 1
yerlerde 1
hi 1
erinin 1
ladığı 1
uyor 1
br@@ 0.5591685942744622
tri@@ 1
yerinde 1
mini 1
ker 0.9933397947484599
süreci 1
şehir@@ 1
Manisa 1
alternatif 1
Rus@@ 1
sürüm@@ 1
Afganistan 1
dergisi 1
kuruluş@@ 1
Manchester 1
denilen 1
Sezon 1
otomobil 1
Sak@@ 1
eserler 1
Edebiyat 1
land@@ 1
V. 1
kontrolü 1
yo 1
yok@@ 1
dış@@ 1
Sor@@ 1
ma@@ 1
olumsuz 1
zamanla 1
karısı 1
yapılması 1
Fil@@ 1
dolaş@@ 1
şirket@@ 1
buz 1
bölgesel 1
mede 1
lamaya 1
teknoloj@@ 1
Komutanlığı 1
Kem@@ 1
satış 1
lad@@ 1
feth@@ 1
Ef@@ 1
balık 1
ayr@@ 1
savaşın 1
layık 1
genelinde 1
if 0.3604568694466886
oyunculuk 1
ret 1
kazandığı 1
yansıt@@ 1
çalışmalarını 1
Smith 0.691408739268773
durdur@@ 1
COVID 1
içermektedir 1
ulu 1
giz@@ 1
kenti 1
tabanlı 1
taşı 1
İm@@ 1
Sol@@ 1
ica 0.683182432531578
mev@@ 1
merkezinde 1
All 0.35755173614657637
Din@@ 1
Un@@ 0.6325798865871616
pr@@ 0.716004236102937
terimi 1
işbirliği 1
ilişkili 1
oynam@@ 1
lılar 1
Jack 1
Çoğu 1
yarısında 1
yaşlı 1
karakterini 1
kişiden 1
Don 1
Del@@ 1
alarla 1
proje 1
Boz@@ 1
Pal@@ 1
1931 0.861193211448667
Komisyonu 1
Min@@ 1
çat@@ 1
şart@@ 1
tasarım 1
İdari 1
birini 1
des@@ 0.5005838755083128
Kim 1
sığın@@ 1
başkanlık 1
görevinden 1
Entertainment 1
Aşağıdaki 1
korumak 1
aylarında 1
düşür@@ 1
mant@@ 1
rapor@@ 1
ber 1
işleri 1
kleri 1
ayak 1
Bilimler 1
sürüldü 1
kalır 1
günümüz 1
köş@@ 1
Tah@@ 1
cam@@ 1
esir 1
kamp@@ 1
eller 1
kuzey@@ 1
yaşamış 1
leyici 1
boğ@@ 1
ılarından 1
metr@@ 1
şimdi 1
Mat@@ 1
bu@@ 1
Th@@ 0.5999227271814559
adım 1
işçi 1
haber@@ 1
şe 1
Çek 1
dığını 1
anc@@ 1
imli 1
ledi 1
işlem 1
platform@@ 1
Ro@@ 0.7942569135881754
sanat@@ 1
yapıldığı 1
yazılı 1
çatış@@ 1
km. 1
maz@@ 1
varlığı 1
parlak 1
Ertesi 1
Sim@@ 1
hac@@ 1
ımda 1
üniversit@@ 1
isiyle 1
zar@@ 1
Şirket 1
pap@@ 1
bitir@@ 1
alg@@ 1
Android 1
aktör 1
romanı 1
satışa 1
düğü 1
42 1
çağr@@ 1
A. 0.6740926851942193
ikleri 1
tal@@ 1
In@@ 0.4067585994365572
arken 1
gazet@@ 1
­ 1
Rio 1
lanabilir 1
şampiyonluğu 1
alanlarda 1
komutasındaki 1
Göl@@ 1
aka 1
akademik 1
1915 1
Kurumu 1
hastalığı 1
solo 0.5288699547712521
çö@@ 1
cez@@ 1
çekilen 1
Federal 1
Demir@@ 1
pi@@ 0.9229581741500423
sergil@@ 1
He@@ 0.9037244414560934
iptal 1
üş@@ 1
cinsine 1
kişilerin 1
gösterilmiştir 1
sıcaklık 1
ce@@ 1
zayıf 1
ekte 1
eli@@ 1
kısaca 1
mahall@@ 1
tekrar@@ 1
çak@@ 1
Mez@@ 1
kayb@@ 1
kıt@@ 1
yılların 1
İlçe 1
Ortodoks 1
başarısı 1
ra@@ 1
Ön@@ 1
Frank 0.9783810008644412
gördüğü 1
Balkan 1
insan@@ 1
Arka 1
Haçlı 1
Kuş@@ 1
listesine 1
bölümünü 1
hariç 1
ılmasına 1
je@@ 1
mekle 1
bağlantı 1
bina 1
Po@@ 0.9155410910403666
eh@@ 0.9245262071322113
gider 1
Hot 1
ent 0.2555613750755897
güney@@ 1
* 0.23477556984484366
aileden 1
coğrafi 1
etkileri 1
sayım 1
Silahlı 1
Sayımı 1
Çocuk 1
yük 1
amayan 1
amamıştır 1
ku 1
teorisi 1
Mc@@ 0.6542292852952332
bulundur@@ 1
söy@@ 1
Karl 0.8363106355963248
Sadece 1
idare 1
lerdi 1
götür@@ 1
kaynak@@ 1
İşçi 1
Ebu 1
anması 1
kendilerine 1
Bunu 1
sul@@ 1
insanın 1
oynan@@ 1
sav@@ 1
hazırlanan 1
Pakistan 1
kutsal 1
yatır@@ 1
özellikler 1
lamıştır 1
edilerek 1
let@@ 1
w@@ 0.36151121299087835
iklim 1
muştu 1
ılmasını 1
kanalı 1
Üniversit@@ 1
ceph@@ 1
sayılabilir 1
AB 1
Ge@@ 0.769142329091252
tamamı 1
yapım 1
kayn@@ 1
fark@@ 1
kapsayan 1
kurduğu 1
yörüng@@ 1
rolünü 1
Sır@@ 1
kın@@ 1
sıvı 1
benz@@ 1
yayımladı 1
ortam@@ 1
Şam 1
gök@@ 1
mağ@@ 1
bölgedeki 1
Ke@@ 1
kaleme 1
oğ@@ 1
ese 0.4891689168360428
Dört 1
eki 1
sam@@ 1
üp 1
eddin 1
yum@@ 1
gol@@ 1
yesi 1
hizmete 1
öğ@@ 1
cu@@ 0.991897723974321
day@@ 1
lanarak 1
tep@@ 1
kaldığı 1
özgün 1
Sav@@ 1
aylık 1
çalışmıştır 1
OS 1
köyünde 1
tanınmış 1
gazete 1
kazanarak 1
ell@@ 0.9600803623572751
mec@@ 1
müzisyen 1
bütün@@ 1
tabak@@ 1
anlık 1
dizinin 1
karşıtı 1
dür@@ 1
golünü 1
lemek 1
orman@@ 1
malarına 1
Bütün 1
başlayarak 1
hiss@@ 1
mimari 1
leyen 1
altıncı 1
kitabında 1
idar@@ 1
Bek@@ 1
ella 0.5514429651275902
düzenlen@@ 1
yönlendir@@ 1
süz 1
zaf@@ 1
akt@@ 1
no@@ 0.9284104320547328
1000 1
Gel@@ 1
dönen 1
Yusuf 1
alana 1
bölgelerinde 1
Belediyespor 1
ciler 1
ressam 1
6.@@ 1
Hırvatistan 1
Yan@@ 1
doktora 1
Can 1
Göz@@ 1
istasyon@@ 1
anlamı 1
azi 1
EP 1
malıdır 1
yardımıyla 1
kalın@@ 1
Altı 1
ilç@@ 1
sek@@ 1
ağının 1
gal@@ 1
pu@@ 1
derg@@ 1
iği 1
Pers 1
uğraş@@ 1
dilleri 1
ılarda 1
Kafkasya 1
Play 1
Yaklaşık 1
metin 1
Münih 1
atör 1
yürüt@@ 1
ılarında 1
oyuncular 1
J. 0.6659884418595751
May@@ 1
hatır@@ 1
ja 0.7772939260386537
getiren 1
gönderdi 1
performans@@ 1
Mo@@ 0.8005547048847178
8. 1
Si@@ 1
konul@@ 1
Pro@@ 0.8676893989840476
olası 1
başkan@@ 1
ı.@@ 1
sonuç@@ 1
Kaynakça 1
lenme 1
çilik 1
eleriyle 1
kadınların 1
Has@@ 1
M. 0.8249019497308292
görülmüştür 1
varlığını 1
Sab@@ 1
ant 0.22876092643393933
elen@@ 1
kolon@@ 1
dilinde 1
mac@@ 1
Naz@@ 1
oyunun 1
bar 0.7659882991672186
dağılımı 1
resim@@ 1
savaşa 1
ida 0.697657226270491
Pap@@ 1
oluşturul@@ 1
Zaman 1
Prens 1
ilham 1
kullanıcı 1
King 0.4052283375536667
eyalet 1
Rom@@ 1
çevrel@@ 1
150 1
Albümün 1
emez 1
ikiye 1
kın 1
ulaşan 1
Club 0.33891830806787204
Yas@@ 1
göl 1
ödül@@ 1
derec@@ 1
yazar@@ 1
Ne 1
Res@@ 1
ağına 1
Kâ@@ 1
toplant@@ 1
Uzay 1
Daniel 0.8982896662248542
buluş@@ 1
ikna 1
Pan@@ 1
Gaz@@ 1
plak 1
ılarla 1
Man 0.693944320621777
binlerce 1
far@@ 1
organiz@@ 1
doğmuştur 1
sh@@ 0.382304193124151
gösterime 1
ayaklan@@ 1
dak@@ 1
birlik 1
etkin 1
yüzey 1
üzer@@ 1
​ 1
Buffy 1
Far@@ 1
değişikliğinden 1
sistem@@ 1
lin 1
başladılar 1
rak@@ 1
serv@@ 1
Kış 1
otomatik 1
Alexander 0.7768702738836082
değişiklik 1
oyunları 1
vergi 1
değerli 1
başlattı 1
sefer@@ 1
düzenlendi 1
program 0.5093118703892933
düzenlem@@ 1
indedir 1
ımında 1
For@@ 0.8593913809802963
gec@@ 1
vek@@ 1
siy@@ 1
ulan 1
ıcılar 1
all@@ 1
diren@@ 1
sey@@ 1
ann@@ 1
ardır 1
belirgin 1
ora 1
tepki 1
mikro@@ 1
sebebi 1
temiz@@ 1
gerçekleştirildi 1
madığı 1
Kent 1
enen 1
unvanı 1
Şah@@ 1
organize 1
şer@@ 1
1916 0.9515467993576007
yüzyıldan 1
72 1
mümkündür 1
yaşamını 1
saç@@ 1
Live 1
güçleri 1
onunla 1
Chicago 0.6218310208597562
koleksiyon@@ 1
tanınır 1
anne 1
ulaşım 1
yöntemi 1
dakikada 1
ta@@ 1
İskoçya 1
cihaz@@ 1
üstünde 1
ima 1
Zelanda 1
bulunmaktaydı 1
yaşan@@ 1
olacağını 1
any@@ 1
yerleştir@@ 1
ga 1
şarkıyı 1
değiştirildi 1
temsilc@@ 1
Dal@@ 1
denem@@ 1
ağında 1
bölün@@ 1
gar@@ 1
telefon 1
Alt@@ 1
yü@@ 1
çıkardığı 1
şarkıları 1
18,7 1
ebilen 1
filmleri 1
halkının 1
Mary 0.6329993780919185
Sah@@ 1
dü@@ 1
eği 1
Nobel 1
Yay@@ 1
karşıya 1
oluşturmak 1
Siyasi 1
47,5 1
yaşındaki 1
1908 0.9612877738619506
alması 1
takıma 1
Yıl@@ 1
yaptıkları 1
aşağı 1
bilg@@ 1
eyle 1
hakim 1
sıradan 1
takımda 1
Konstantinopolis 1
Pat@@ 1
sürümü 1
arkadaşları 1
art 0.3065188691125643
bilgisayar@@ 1
ığ@@ 1
Sakarya 1
lise 1
Dol@@ 1
Son@@ 1
tasvir 1
Hanım 1
Vadisi 1
aması 1
endi@@ 1
çı@@ 1
şiddetli 1
araştırmalar 1
kasab@@ 1
vererek 1
dönemlerde 1
seslendir@@ 1
halen 1
Kongresi 1
ağaç@@ 1
suç 1
boyutlu 1
Mev@@ 1
etmeyi 1
hızı 1
Yılmaz 1
Kur 1
kanal@@ 1
Red 0.6146626520594308
kaynakları 1
klip 1
üş 1
hayvan@@ 1
seviy@@ 1
gösterdiği 1
lan 1
alıp 1
açıkça 1
yakalan@@ 1
çisi 1
yarışması 1
Muh@@ 1
olmaktadır 1
uçak@@ 1
9. 1
Sü@@ 1
ilip 1
Baba 1
Bi@@ 0.7660841784641208
istan 1
düşman@@ 1
Kütahya 1
resmen 1
sürül@@ 1
anılan 1
Gu@@ 0.7646758285847446
Voleybol 1
görür 1
toprakları 1
ıcısı 1
bahç@@ 1
yanın 1
Körfezi 1
inci 1
formasını 1
ündeki 1
Mark 0.7361409862056234
uğu 1
Yardımcısı 1
yapma 1
geliştirme 1
sok@@ 1
ülkelerin 1
Savaş@@ 1
Hor@@ 1
ağırlıklı 1
çalıştığı 1
kıyı 1
Çağı 1
Lübnan 1
felsefe 1
kesim@@ 1
Pr@@ 0.7535105700493452
top@@ 1
urken 1
ülkesi 1
ligde 1
Gaziantep 1
lanmaktadır 1
São 1
arasındadır 1
ğ 1
anlatır 1
maktan 1
yükselen 1
savaşta 1
Marmara 1
hapis 1
44 0.8202656818285027
Real 0.9991221535502152
taraf 1
acak@@ 1
lenebilir 1
oloj@@ 1
tam@@ 1
yarım 1
1913 0.8545009334930936
Albert 0.9442579741666979
Nokia 1
ekler 1
ters 0.8592966438169917
koyu 1
nokt@@ 1
• 1
bağış@@ 1
evlilik 1
korum@@ 1
ancı 1
görüntü 1
kabil@@ 1
Williams 0.9120700951718662
maması 1
Tom 0.9809247260096224
emek@@ 1
uzunluğu 1
öğrencisi 1
ısında 1
ilerlem@@ 1
Met@@ 1
Rum 1
ekonomi 1
düşen 1
kalıcı 1
İç@@ 1
Roman 0.585819092687418
albümüdür 1
lendi 1
pal@@ 1
zamana 1
Gar@@ 1
Pasifik 1
büyük@@ 1
International 0.2642497812607475
alarıyla 1
yarış 1
sorunları 1
paşa 1
CD 0.807806438655664
cad@@ 1
inler 1
üyordu 1
cin@@ 1
darbe 1
mezunudur 1
süreli 1
evli 1
karıştır@@ 1
siyon@@ 1
girer 1
gelecek 1
ski 1
asındaki 1
Hem 1
işler 1
beğen@@ 1
Orhan 1
oranda 1
Li@@ 0.9189544002870537
kuvvet 1
play 0.3069708011926833
şehrinin 1
Tam@@ 1
ekonom@@ 1
era 0.1630597525127317
nesil 1
Koleji 1
getiril@@ 1
başlanmıştır 1
yoğun@@ 1
Gü@@ 1
üretil@@ 1
dan@@ 1
irleri 1
gıda 1
ren@@ 0.9578338015019742
üste 1
anında 1
gitar 1
tez@@ 1
devleti 1
Bölgesel 1
Tat@@ 1
Amatör 1
sağlamıştır 1
bakan 1
duruma 1
hükümdar@@ 1
Mik@@ 1
Nüfusu 1
geniş@@ 1
çeken 1
Trabzonspor 1
ırsa 1
ertesi 1
teknoloji 1
39 0.9811108698125665
7.@@ 1
opera 1
sanay@@ 1
0@@ 1
eyaletinin 1
incelen@@ 1
reddet@@ 1
yakınlarındaki 1
baba 1
diğine 1
Â@@ 1
Sanatlar 1
giymektedir 1
Anne 1
Miss 1
harekete 1
tuz@@ 1
öğre@@ 1
harit@@ 1
Allah 1
görüş 1
kuruluş 1
kuruluşu 1
satan 1
isim@@ 1
yetiş@@ 1
Bağdat 1
Big 0.7821061083886174
Dil 1
eti@@ 1
köprü 1
roman@@ 1
şirketin 1
Tour 0.535182540804383
erine 1
9@@ 0.758427556435894
ea 0.7657690557798316
çağdaş 1
ortalarında 1
Örgütü 1
olayları 1
Ag@@ 1
oldular 1
öy 1
dolu 1
kapsamlı 1
meli 1
filmler 1
olu 1
Belarus 1
af 1
bireysel 1
etkilen@@ 1
sik@@ 1
tarz@@ 1
özerk 1
for@@ 0.556556544205344
istik 1
parçasıdır 1
No 0.5737735026351913
şi 1
vurgul@@ 1
gemisi 1
ilçedir 1
95 1
Teksas 1
alınarak 1
ilgilen@@ 1
Rad@@ 1
Sonuç 1
ate 0.18401076208926034
hazır 1
geçerli 1
muh@@ 1
diy@@ 1
konuda 1
niş@@ 1
Üniversite 1
grafik 1
ili@@ 1
ord@@ 1
yönetiminde 1
gücünü 1
ımının 1
Max 1
47 1
isyan 1
düşünce 1
konuşma 1
rip 1
Demografi 1
genç@@ 1
siyaset 1
13. 1
inde@@ 1
Fin@@ 1
enlerin 1
kelime 1
sad@@ 1
isimleri 1
yolcul@@ 1
Tom@@ 1
lider 1
ab 0.21869657738580628
partinin 1
tarihindeki 1
ışlardır 1
Y 0.8768705158319353
sözleri 1
Ul@@ 1
olsun 1
dö@@ 1
Erdoğan 1
Cemiyeti 1
yüzyıla 1
DVD 1
kelimesi 1
ödem@@ 1
berg 0.4867300438743001
düşman 1
Mahallenin 1
ks 0.6053381176393954
çizg@@ 1
41 0.9839375152562175
85 1
Asyalı 1
sizlik 1
cılık 1
hayata 1
la@@ 1
Haz@@ 1
etli 1
ori 1
fikir 1
Çelebi 1
é 0.1741739422506738
albümünü 1
oni 1
ayrılarak 1
beyin 1
kültürü 1
turnuv@@ 1
görsel 1
1910 0.7727816340103136
dersleri 1
Med@@ 1
oluşturmaktadır 1
tılar 1
albümleri 1
etkileş@@ 1
medi@@ 1
Af@@ 1
olmuştu 1
seçimi 1
bölgeleri 1
kısıt@@ 1
ard 0.5598046983259363
def@@ 1
liğinde 1
parçaları 1
Sinema 1
sektör@@ 1
konuk 1
allar 1
tiğini 1
şeyi 1
Hacı 1
kasaba 1
Arabistan 1
av 1
hap@@ 1
kategor@@ 1
doğrultusunda 1
yolcu 1
It 0.05021325195077696
rad@@ 1
uçuş 1
düzey@@ 1
eng@@ 0.8168181465738436
fik@@ 1
zorunlu 1
seçim@@ 1
eyalet@@ 1
paralel 1
Köyü 1
pınar 1
yarar@@ 1
melerine 1
Con@@ 0.4127343602292903
zam@@ 1
Demir 1
bilgileri 1
faaliyet@@ 1
lendiği 1
uru 1
93 1
davranış@@ 1
sayede 1
Devletler 1
Str@@ 0.6660297831721808
demir@@ 1
uç 1
toplama 1
Sil@@ 1
Suudi 1
ers 0.16032592931879983
pozitif 1
asist 1
Anna 1
he@@ 0.9145200664064442
familyasından 1
tapın@@ 1
eler@@ 1
erden 1
İş 1
amb@@ 1
yaşay@@ 1
gerekçesiyle 1
Company 0.41529451902955417
NATO 1
ziyaret@@ 1
her@@ 0.7133217301984525
memesi 1
larken 1
genetik 1
ha@@ 1
intihar 1
neden@@ 1
arasından 1
lig@@ 1
aray@@ 1
ilerleyen 1
nehir 1
Ben@@ 1
Sinan 1
Solanum 1
oran@@ 1
reddetti 1
projesi 1
Biy@@ 1
Düş@@ 1
maktadırlar 1
süt@@ 1
vide@@ 1
Kars 1
toplu 1
ayları 1
yakıt 1
att@@ 1
mektu@@ 1
eyen 1
ürün@@ 1
lamalar 1
mali 1
52 0.9635341197698117
bağlant@@ 1
grupları 1
illi 1
belediyesi 1
lığında 1
versiyon@@ 1
atom@@ 1
ecekti 1
valisi 1
Çeşitli 1
Boy@@ 1
Klasik 1
derin@@ 1
yal 1
asi 1
ayrılan 1
fos@@ 1
Grubun 1
gu 1
In 0.020117292747481454
dergi 1
açılmıştır 1
oyu 1
duğunda 1
klar 1
müsabak@@ 1
dalg@@ 1
yüzü 1
43 0.9989588124870612
isimler 1
Şarkının 1
bah@@ 1
Yaş@@ 1
Hersek 1
bab@@ 1
mil 1
tarihine 1
kuru 1
oyn@@ 1
Artvin 1
ces@@ 1
mimar@@ 1
programında 1
dışına 1
fe@@ 1
dikkate 1
komünist 1
layıcı 1
aba 0.42615263000669173
unca 1
Laz@@ 1
ığa 1
kullanılması 1
tat@@ 1
Özerk 1
Arizona 1
anlatan 1
15. 1
National 0.13995705517547988
ho@@ 0.8501029777615995
yapt@@ 1
600 1
atmıştır 1
fır@@ 1
müzik@@ 1
sonraları 1
BBC 0.9104359339805175
malzem@@ 1
Diy@@ 1
albümde 1
asyonlar 1
ediği 1
fen@@ 1
inşaat 1
mahkem@@ 1
hastalık 1
ımlı 1
ekleri 1
Ho@@ 0.849032465431754
eşit@@ 1
gerçekleştirdi 1
Ali@@ 1
analiz 1
gül@@ 1
sahi@@ 1
tasarımı 1
dönüş 1
şekli 1
dey@@ 1
ell 0.48687787633334284
düzeyde 1
kalmış 1
q 1
toplam@@ 1
Massachusetts 1
Z 1
aştır@@ 1
Royal 0.3589420343080974
sundu 1
10. 1
alin 1
Çay@@ 1
ılığı 1
taşıy@@ 1
vermeye 1
döner 1
kenar@@ 1
maçın 1
uldu 1
Mis@@ 1
güçlendir@@ 1
malzeme 1
Gör@@ 1
imparator@@ 1
oluşuyordu 1
lük@@ 1
kariyerini 1
liğinden 1
davran@@ 1
tarihçi 1
Chris 1
Topluluğu 1
fotoğraf 1
İmparatoru 1
yarışı 1
yor@@ 1
avi 1
azı 1
CHP 1
Sur@@ 1
anti 0.6573567008864266
mor@@ 0.8033933790425366
diğerleri 1
Moğol 1
fizik 1
hepsi 1
vas@@ 1
miş@@ 1
Cem@@ 1
söylemiştir 1
doğa 1
kişiye 1
zengin@@ 1
gelenek@@ 1
Mezarlığı 1
doğuda 1
gösteril@@ 1
aktır 1
ide@@ 1
kamera 1
Birkaç 1
desteklem@@ 1
57 1
engell@@ 1
bildirdi 1
enmiş 1
sözü 1
uzunluğunda 1
Sanayi 1
basın 1
imine 1
bulunuyordu 1
Pierre 0.5592974909368833
binası 1
mo@@ 0.5934614264157883
çev@@ 1
hidro@@ 1
imparator 1
olanak 1
mektedirler 1
üret@@ 1
Malatya 1
örler 1
elle 0.1128575113443272
posta 1
ami 1
uyordu 1
ıştır 1
Jones 0.7901008572216394
Karadağ 1
anus 1
bölgesindeki 1
hizmeti 1
odak@@ 1
İmparatorluk 1
makam@@ 1
ürler 1
krall@@ 1
operasyon@@ 1
dük@@ 1
fon@@ 1
çoğunu 1
vel@@ 1
adi@@ 1
diğinden 1
tekn@@ 1
Ekonomik 1
lü@@ 1
Liga 0.65864195033877
est@@ 0.5746266938782827
Türkler 1
adamları 1
zamanlı 1
ısıyla 1
İçişleri 1
yapımcı 1
çözün@@ 1
Ağa 1
luğunu 1
tören@@ 1
maktır 1
ansı 1
q@@ 1
matematik 1
800 1
birbirinden 1
gan 1
1900 0.7239792422850272
bac@@ 1
kardeş 1
kütüphan@@ 1
nokta 1
eğilim@@ 1
Şili 1
Gor@@ 1
Premier 0.8577281573231511
ılar@@ 1
kimi 1
çözüm@@ 1
Siy@@ 1
akım 1
çeyrek 1
ölü 1
Virginia 0.6314875570374664
Kim@@ 1
ekli 1
mer 0.5607200809711795
terfi 1
yerleşti 1
sın@@ 1
sü@@ 1
kapasit@@ 1
katkı 1
American 0.1069753232126462
ilçesinin 1
uçuş@@ 1
lerken 1
puanla 1
köyde 1
lamaları 1
Sand@@ 1
mesaf@@ 1
yapımcısı 1
aceae 1
Ailesi 1
hazırlık 1
cevap 1
kış 1
1911 0.8073093058413757
ende 0.5692460745547342
bağımsızlığını 1
hız 1
sonlarına 1
Anayasa 1
yüksek@@ 1
ch 0.4059301395131214
larca 1
cilik 1
heykel@@ 1
anya 1
ortak@@ 1
Florida 0.6890551029620704
Tokat 1
tif@@ 1
ind@@ 1
ölen 1
Cel@@ 1
kend@@ 1
rolüyle 1
çeşit 1
8.@@ 1
kış@@ 1
liste 1
Hat@@ 1
ınt@@ 1
analiz@@ 1
Vietnam 1
otorit@@ 1
üstlenmiştir 1
şarkılar 1
9.@@ 1
Francisco 0.5236893653593362
erinde 1
ürken 1
leyerek 1
sunul@@ 1
Kah@@ 1
sözleş@@ 1
ılıp 1
Başlangıçta 1
mat@@ 1
rom@@ 1
Stalin 1
ğu 1
88 1
lıktan 1
orman 1
bed@@ 1
end 0.15567636293368994
Kalkınma 1
Prof. 1
arazi 1
Gru@@ 1
uv@@ 1
Çağ@@ 1
elik@@ 1
nö@@ 1
yerleri 1
Rum@@ 1
46 0.9638451255924122
evine 1
açan 1
canlandırdığı 1
karşılıklı 1
Serbest 1
dayanmaktadır 1
nispeten 1
yalnız 1
Estonya 1
aza 1
Birlik 1
Kıs@@ 1
düğünü 1
gu@@ 0.7312995469058678
fr@@ 0.6824022597771905
Altay 1
Kız 1
Radyo 1
harf@@ 1
Dav@@ 1
kullanıldığı 1
mik 1
insanı 1
14. 1
abilmesi 1
minin 1
Elizabeth 0.9962563556318946
ang 0.6121008285753408
Tu@@ 1
bol@@ 1
zem@@ 1
ilişkisi 1
san 1
suz@@ 1
Arthur 0.9359161069062701
sınırı 1
Büyük@@ 1
Vol@@ 1
Alan 1
yaparken 1
İskender 1
Friedrich 0.6561060626953752
Ir@@ 1
alanlar 1
Il@@ 1
önem@@ 1
ba@@ 0.9904241786294209
enden 0.557362546009338
kâ@@ 1
kanalında 1
Kişisel 1
Life 0.5890769902699872
çılar 1
Uy@@ 1
aşk 1
birim 1
geriye 1
tic@@ 1
nik 1
üyeliği 1
albümünde 1
Başkan@@ 1
forvet 1
hep 1
süper 1
ayn@@ 1
hikâye 1
maçları 1
sağlan@@ 1
standart@@ 1
Çek@@ 1
alfab@@ 1
anlayış@@ 1
atan@@ 1
değişen 1
emesi 1
efsan@@ 1
uların 1
Sch@@ 0.2931466706328903
amatör 1
filminin 1
görülebilir 1
hasar 1
kavramı 1
ebilecek 1
gösterilen 1
meni 1
üd@@ 1
devre 1
gan@@ 1
tıbbi 1
askerleri 1
sistemin 1
batıda 1
oyuna 1
Ban@@ 1
acılık 1
süreçte 1
Koc@@ 1
Top@@ 1
ceza 1
ulur 1
belirlen@@ 1
ölüm@@ 1
galibiyet 1
kolu 1
nitelendir@@ 1
organik 1
pler@@ 1
tik@@ 1
tikleri 1
yapıt@@ 1
uygulamaları 1
yo@@ 1
komşu 1
lılık 1
Kongre 1
edecek 1
iyeti 1
Hol@@ 0.8151756439813749
hâ@@ 1
yağ 1
topluluk@@ 1
Türkç@@ 1
Şark@@ 1
Time 0.939208047813393
Yarımadası 1
serisinin 1
Yıldırım 1
mediğini 1
yaralan@@ 1
12. 1
Dizi 1
Hükûmeti 1
işaret@@ 1
saray 1
sözcüğü 1
asla 1
kler 1
likler 1
yorum 1
sırt@@ 1
tör@@ 1
Güreş 1
ektedir 1
mann 0.49656473496390996
Altın@@ 1
değ@@ 1
ben 1
ro 1
belgel@@ 1
sinin 1
yapılacak 1
profesör 1
Üyeliği 1
başkent 1
cumhurbaşkanı 1
seçilmiş 1
Okyanusu 1
üstlendiği 1
karbon 1
değişiklikler 1
Oscar 1
Scott 0.8459669247052437
bulur 1
ediyordu 1
tar 1
alılar 1
anlara 1
futbol@@ 1
Tel@@ 1
atarak 1
red@@ 1
Formula 1
Millet 1
günde 1
Nes@@ 1
atör@@ 1
bırakıldı 1
gelindiğinde 1
imparatorluk 1
İnternet 1
yedinci 1
üstün 1
üyelerinin 1
Koruma 1
belirtir 1
cami 1
gereği 1
kamer@@ 1
Dönemi 1
anlaşıl@@ 1
sahneye 1
sinir 1
Şeyh 1
Hu@@ 1
belirt@@ 1
bilimi 1
tiyatr@@ 1
vazgeç@@ 1
adi 1
hem@@ 1
ideki 1
çilerin 1
51 0.9496716565798994
Je@@ 1
Rize 1
Sun@@ 1
akar@@ 1
albümünün 1
emedi 1
Grammy 1
etkin@@ 1
rot@@ 1
yoğunluğu 1
birik@@ 1
hükûmet@@ 1
sinem@@ 1
sini 1
bölgeyi 1
geldiğinde 1
ze@@ 1
alar@@ 1
çıkarak 1
Jersey 0.9172220926881428
gi 1
ülü 1
Çer@@ 1
Temel 1
besteci 1
tanış@@ 1
lamış 1
sorgul@@ 1
UNESCO 1
birlik@@ 1
oluşturdu 1
abileceğini 1
boy 1
gin 1
biyolojik 1
sonuçlar 1
topraklarına 1
yapımc@@ 1
İspanyolca 1
hu@@ 1
kentin 1
vaz@@ 1
Cezayir 1
ilik@@ 1
kanun 1
taşır 1
yerleşim@@ 1
54 1
başlangıç 1
Nur@@ 1
işgali 1
olduğunda 1
piyas@@ 1
olmasından 1
yarışma 1
önemlidir 1
alizm 1
belirtmiştir 1
İli 1
düler 1
sporcu 1
Günü 1
cul@@ 1
keş@@ 1
olayı 1
ettikleri 1
tayin 1
önc@@ 1
kullanılmaya 1
Şeh@@ 1
geçiren 1
120 1
Çorum 1
ə@@ 1
Geç@@ 1
Soy@@ 1
diplomatik 1
ücretsiz 1
1@@ 1
eğitim@@ 1
vücut 1
ena 0.7728463615488438
kalın 1
bez@@ 1
alleri 1
rej@@ 1
potansiyel 1
Bölüm 1
sosyalist 1
vi 1
Mardin 1
bölümleri 1
general 0.2344679402481788
performansı 1
çesi 1
ülkeye 1
Musa 1
Dr@@ 0.9482929860775386
parçal@@ 1
denet@@ 1
Caddesi 1
Sek@@ 1
sistemine 1
yönetic@@ 1
başlıklı 1
Erzincan 1
Hastanesi 1
ekran@@ 1
sp@@ 0.48036833587812783
taşım@@ 1
yapılar 1
So@@ 0.8782570125818235
anmış 1
finalinde 1
istediği 1
Sistemi 1
ulaşmıştır 1
Tarım 1
ato 0.75835411026916
56 1
.com 1
lenmektedir 1
algıl@@ 1
ismiyle 1
tarihinden 1
akış@@ 1
ran 0.6112485281537234
böcek 1
kurulması 1
Cumhurbaşkanlığı 1
Parlamentosu 1
izlen@@ 1
ph@@ 0.5159745760847442
tanesi 1
emek 1
karş@@ 1
voleybol 1
yoktu 1
Vel@@ 1
oluşum@@ 1
kadının 1
vermiş 1
yöntem 1
baskın 1
meyve 1
atlı 1
hikây@@ 1
uygulanan 1
det@@ 1
ışın 1
La@@ 0.8906561340182815
etini 1
Gem@@ 1
Times 0.6565299384384701
ilerinde 1
Elazığ 1
11. 1
cılar 1
dizide 1
enleri 1
pozisyon@@ 1
Kanal 1
alanına 1
açar 1
başlam@@ 1
Türkmen 1
arkasında 1
memektedir 1
kok@@ 1
önlemek 1
pul@@ 1
sül@@ 1
akıllı 1
ayak@@ 1
Dik@@ 1
H. 0.8039303215161199
çoğ@@ 1
lamaktadır 1
köl@@ 1
luğuna 1
arama 1
geçmiş@@ 1
müştü 1
şiddet 1
Sp@@ 0.6363418329423768
göv@@ 1
ruh 1
Çift@@ 1
çu 1
ğinden 1
FA 1
Geleneksel 1
adıdır 1
aral@@ 1
Libya 1
doğum@@ 1
melerini 1
dev 1
döneminin 1
saldırıya 1
işlemi 1
yakınında 1
58 1
sistemini 1
gelerek 1
çay 1
ıra 1
iyileştir@@ 1
rast@@ 1
tahmin@@ 1
geril@@ 1
hayran@@ 1
beş@@ 1
saldırısı 1
erle 1
bağlantılı 1
fonksiyon@@ 1
ava 1
örneği 1
alanlarında 1
irse 1
İlçesi 1
alet 1
dayanır 1
eyaletine 1
isten@@ 1
olduklarını 1
pay@@ 1
çalışmaktadır 1
Aşk 1
Ba@@ 1
Şanlıurfa 1
şehirler 1
Tes@@ 1
müş@@ 1
Afrikan 1
North 0.19551264517924447
tığını 1
veda 1
sab@@ 1
elin 1
öğrenc@@ 1
Hollywood 1
Pir@@ 1
atıldı 1
Lo@@ 0.7374932606861032
optik 1
protein@@ 1
yıldır 1
çelik 1
68 1
emir 1
kere 1
korku 1
Brezilyalı 1
Denizli 1
Beş 1
Hab@@ 1
fabrik@@ 1
artış 1
park 0.5926926927294278
şansı 1
Düz@@ 1
Aşağı 1
Tarih@@ 1
denklem@@ 1
çeşit@@ 1
Arnavut 1
Brown 0.6844667181114708
io 0.7110915745513555
Kanunu 1
ilg@@ 1
olmasıdır 1
Qu@@ 0.522563357805929
ders@@ 1
67 1
Konu 1
şarap 1
Annesi 1
Tay@@ 1
land 0.19232948143927706
süreç 1
ılığını 1
kolayca 1
mücadel@@ 1
toplanan 1
tutuklandı 1
with 0.012098934600010417
yerler 1
Ni@@ 1
bölgesinden 1
Halil 1
ziyade 1
10.@@ 1
Co@@ 0.5009259642154628
mesaj@@ 1
vb. 1
Kendisi 1
Carl 0.8557888165898301
girdiği 1
indi@@ 1
mekten 1
dava 1
Kırmızı 1
verilerine 1
04 1
53 1
sözcük@@ 1
bas 1
güreş@@ 1
reklam@@ 1
türler 1
Ti@@ 1
sorun 1
yönetmen@@ 1
Alaska 1
Halep 1
ens@@ 0.4415474648187106
Mahmud 1
Değiş@@ 1
duktan 1
tasarlanmış 1
verimli 1
ülkeleri 1
hâlâ 1
sunuldu 1
becer@@ 1
Eğ@@ 1
kütle 1
lin@@ 1
tük@@ 1
şarkısıyla 1
öğrenimini 1
Koz@@ 1
maddi 1
tim 1
Başka 1
96 1
rakibi 1
zi@@ 1
bulmak 1
etkinlik@@ 1
set@@ 1
Young 0.7400955378670042
güvenli 1
çıkarılan 1
Sat@@ 1
birbirlerine 1
Donanması 1
Ülkenin 1
başkanlığını 1
eder@@ 1
ilişkilendir@@ 1
1909 0.8237886751955082
uygulaması 1
Tanr@@ 1
karanlık 1
rakam@@ 1
kontrol@@ 1
yıldan 1
ahşap 1
isti 1
Kes@@ 1
Marie 0.5626347508390951
Na@@ 1
çağır@@ 1
Doğan 1
Johnson 0.7461848028879126
alıyor 1
sitesi 1
tanındı 1
dim 1
vefat 1
subay 1
klas@@ 1
vb 1
Dam@@ 1
Prusya 1
getirmiştir 1
öğretmen 1
ışını 1
AK 1
derecesi 1
sıraya 1
yapımcılığını 1
99 1
M.Ö. 1
getirilmiştir 1
olmam@@ 1
Osmanlılar 1
kısalt@@ 1
Dor@@ 1
amak 1
çileri 1
ong 0.6586474104613371
Pas@@ 1
inanç@@ 1
minde 1
bet@@ 1
kökeni 1
getirir 1
Ford 1
enko 1
sanatçı@@ 1
Nak@@ 1
dizisinin 1
iklerin 1
Gen@@ 1
eskiden 1
Rek@@ 1
Sicilya 1
depo@@ 1
ân 1
Dünyanın 1
faaliyetleri 1
tren 1
belirlenmiştir 1
kazanmış 1
tamamlamıştır 1
öğretmen@@ 1
Ceza 1
dahi 1
konuşan 1
str@@ 0.5306557288234351
unsur@@ 1
eleştiriler 1
reklam 1
Pe@@ 0.895210990040348
gerçekten 1
eklem@@ 1
Plat@@ 1
fa 1
mekanik 1
Giresun 1
Tep@@ 1
ebilmektedir 1
uzaklaştır@@ 1
Beş@@ 1
aktivit@@ 1
ağını 1
diğeri 1
dişi 1
kapan@@ 1
yolları 1
ayırt 1
canlandırdı 1
kırsal 1
# 0.4763467142277291
bunlardan 1
engel 1
siyasal 1
Mi@@ 0.9875758739210464
malarının 1
Televizyon 1
yoğunlaş@@ 1
bölümler 1
49 0.8913939995462282
ald@@ 1
sembol@@ 1
Um@@ 1
jüri 1
nit@@ 1
alınması 1
Yaşam 1
amıştır 1
iğ@@ 1
lek@@ 1
lular 1
ınlar 1
ō 1
Iş@@ 1
Milletvekilliği 1
gelişen 1
geliştirilmiş 1
attan 1
İh@@ 1
tanı@@ 1
ayının 1
gelişme 1
Cal@@ 0.6711753877262564
Kraliçe 1
yayımlanmıştır 1
Gre@@ 1
başk@@ 1
rapor 1
62 1
arac@@ 1
diş 1
yapay 1
üstüne 1
kaynaklar 1
kadrosuna 1
section 0.4455592869968219
Kendi 1
Resmi 1
açıklama 1
mahallesi 1
âr@@ 1
92 1
çarpış@@ 1
Ta@@ 1
Bu@@ 1
olmayı 1
Kel@@ 1
ou 0.08336470197514781
cezası 1
federal 0.7597063226076577
kuantum 1
problem@@ 1
ulus@@ 1
Hey@@ 1
fırlat@@ 1
1907 0.7751240492403023
süre@@ 1
ülkeden 1
aşa 1
ekran 1
ira 1
vir@@ 1
hip 1
hizmetleri 1
takımıyla 1
VI 1
kalk@@ 1
şeker 1
kadrosunda 1
asyona 1
edici 1
görünür 1
şiş@@ 1
bek 1
Sir@@ 1
eserinde 1
kapı 1
oları 1
vatandaş@@ 1
geti@@ 1
kariyerinin 1
turizm 1
bol 1
sanc@@ 1
Okul@@ 1
deng@@ 1
hastan@@ 1
süper@@ 1
sınav@@ 1
noktada 1
vard@@ 1
dirler 1
kte 1
liman@@ 1
popül@@ 1
sezon@@ 1
tirir 1
İbn 1
Yayın 1
buraya 1
çılık 1
şüph@@ 1
onik 1
süs@@ 1
zaten 1
görevinde 1
sıv@@ 1
iminin 1
terim 1
girerek 1
düzenledi 1
lo 0.11540977334753179
süreç@@ 1
atıfta 1
eten 1
çekilmiştir 1
gönderil@@ 1
ladılar 1
Üç@@ 1
Yozgat 1
bit 1
kuram@@ 1
pa 1
tamamlayan 1
çocuklar 1
gazetesi 1
Tam 1
tarihten 1
94 1
bulunması 1
lediği 1
Hall 0.37919538778770034
ıld@@ 1
satış@@ 1
1905 0.7011722675397191
Bay 0.5355716524041062
Hareketi 1
250 0.9825347544019299
özgür 1
Raw 1
bilgisi 1
kopya 1
63 1
Tunus 1
özellik@@ 1
biçiminde 1
ülen 1
gider@@ 1
müzikal 1
nik@@ 1
arla 1
nüfuslu 1
Yahudiler 1
uygul@@ 1
sebe@@ 1
Yani 1
haned@@ 1
Ayr@@ 1
klibi 1
lim@@ 1
ys@@ 1
ırı 1
Hem@@ 1
görevden 1
» 0.0191119070153788
uğ@@ 1
Malta 1
ajı 1
bunları 1
birine 1
yonun 1
lığından 1
Ülke 1
yüksekliği 1
kuvvetlerinin 1
çalışırken 1
çıkış@@ 1
Nar@@ 1
bağlan@@ 1
imiz 1
Öte 1
koz@@ 1
pro@@ 0.7744694075649421
ven@@ 1
düğ@@ 1
işini 1
Abdül@@ 1
Küba 1
ence 0.6151124215595964
Samsung 1
Joe 0.8213706110706727
aldılar 1
yıldızı 1
çevrimiçi 1
anak@@ 1
yürürlüğe 1
66 1
kit@@ 1
milli 1
şampiyonluk 1
bağımsızlık 1
ıkların 1
kanın 1
ulmuş 1
š@@ 1
ei 0.7819468899945086
protest@@ 1
Turu 1
küme 1
yukarı 1
bulunmuş 1
eceğine 1
sının 1
rem@@ 1
gerilim 1
atları 1
ben@@ 1
pos@@ 1
annesinin 1
FK 1
tip@@ 1
yargıl@@ 1
kart 1
üreten 1
College 0.1950679880317302
Yarış@@ 1
onya 1
atom 1
kaynaklarda 1
planı 1
Selanik 1
yaşar 1
Yağ@@ 1
dönemine 1
kim 1
sesi 1
özellik 1
formasıyla 1
gun 1
örleri 1
ıktır 1
98 1
Şehirdeki 1
stil@@ 1
Hir@@ 1
Mit@@ 1
kahverengi 1
oymağına 1
1,@@ 0.7518063968502992
genişlet@@ 1
destekleyen 1
şehre 1
1878 1
MTV 1
kanat 1
kre@@ 1
gerektiği 1
mekaniz@@ 1
Tal@@ 1
dek@@ 1
çerçevesinde 1
iyileş@@ 1
Du@@ 0.8207857094526805
geçtiği 1
yararlan@@ 1
Hel@@ 1
ilişkil@@ 1
rede 1
Gürcüce 1
Ra@@ 1
oynay@@ 1
drama 0.8990062323438475
dönüştü 1
neticesinde 1
uzun@@ 1
ayın 1
değişir 1
oyuncul@@ 1
izlem@@ 1
pe@@ 0.7068015177962025
yiy@@ 1
86 1
bağlandı 1
cam 1
ülk@@ 1
SK 1
buradan 1
ilaç 1
ekip 1
Ap@@ 1
mevkiinde 1
şunları 1
77 1
sunuc@@ 1
uyum@@ 1
ıştır@@ 1
76 1
atın 1
Mec@@ 1
anma 1
engel@@ 1
yönetti 1
şimdiki 1
saf 1
Yor@@ 1
bay 0.894487831393833
olmasının 1
krizi 1
Top 0.7038256403978085
asit@@ 1
değişim 1
konular@@ 1
melidir 1
Angel 1
rik 1
mağaz@@ 1
sayıları 1
1902 0.837675501140981
Yer 1
diplom@@ 1
Bol@@ 1
Hong 0.8688166540355232
Merkez@@ 1
10@@ 0.7015317488210797
Maz@@ 1
ecek@@ 1
port@@ 1
rekabet 1
sonuçlandı 1
Kiev 1
Savaşları 1
Yukarı 1
hiz@@ 1
çar@@ 1
Lig@@ 1
geliştiril@@ 1
gerekmektedir 1
Muğla 1
Def@@ 1
kategorisinde 1
Ölüm 1
andır@@ 1
tabl@@ 1
zamanı 1
kelim@@ 1
mimar 1
müdahale 1
suyun 1
Dan@@ 1
Endonezya 1
Uç@@ 1
elektron 1
Sanatçı 1
görüntü@@ 1
yanıt 1
orlar 1
tanıştı 1
Şirketi 1
algorit@@ 1
ıldığını 1
eksik@@ 1
kıyasla 1
müze 1
yakından 1
Vladimir 1
olursa 1
Aydın@@ 1
Bin@@ 1
olacağı 1
84 1
elidir 1
kanun@@ 1
olanlar 1
gereksin@@ 1
kariyerinde 1
sisteminde 1
w 0.5790397467859302
saygı 1
alınmış 1
kadın@@ 1
kişiyi 1
likle 1
arkeolojik 1
kalabalık 1
yazan 1
yaşta 1
Turizm 1
arlı 1
kus@@ 1
Cen@@ 1
gelişimi 1
Listesi 1
Siyasal 1
« 0.01834384303155955
İr@@ 1
ışın@@ 1
Go@@ 0.7537111730240101
José 0.436401874412555
Taylor 0.9072171630952887
tanın 1
Madonna 1
indeydi 1
pik 1
87 1
Hâ@@ 1
W 0.6349871687266914
Yeşil 1
Yönetimi 1
layıp 1
politika 1
Lewis 1
şarkısını 1
isindeki 1
09 1
enti 1
kiralık 1
tay@@ 1
Kamp@@ 1
Belgrad 1
asal 1
bilinmemektedir 1
mobil 1
tamamlan@@ 1
yarışmada 1
Mag@@ 0.728747990680306
Aile 1
katılmış 1
pi 1
Bilgi 1
dayanarak 1
girmiş 1
kart@@ 1
tesis@@ 1
uçağı 1
eceğ@@ 1
iti 1
merkezidir 1
ola 1
sayısının 1
servis 1
Güneydoğu 1
Polonyalı 1
Koreli 1
görmüştür 1
kurgusal 1
zamandan 1
Deniz@@ 1
gönderilen 1
Fr@@ 0.6754943749107445
birinde 1
müdürü 1
yönde 1
abe 1
dıkları 1
etkisiyle 1
gruptan 1
listelerinde 1
oynamaya 1
sürmüştür 1
isteği 1
Antonio 0.6243289838455818
Col@@ 0.5366226957209705
getirilen 1
kı 1
saniye 1
78 1
Bob 0.9373709473148749
Doğal 1
Karolina 1
anılır 1
ludur 1
yönetici 1
etkiler 1
politik@@ 1
tık@@ 1
Konferansı 1
getirdiği 1
ts@@ 0.6572425985411113
üleri 1
Aslında 1
Nev@@ 1
eşleş@@ 1
Sonunda 1
kraliyet 1
Nor@@ 0.9412138752377878
askerler 1
illeri 1
yapım@@ 1
Carlos 0.6173696835130619
görevlisi 1
Cr@@ 0.7026540951266396
dıktan 1
hir 1
met 0.3818327784502994
Aç@@ 1
ahi 1
nitelik@@ 1
Mirası 1
emin 1
eri@@ 1
eva 1
Çam@@ 1
şampiyonluğunu 1
1886 1
dünyadaki 1
okum@@ 1
içinden 1
kanser@@ 1
psikolojik 1
Şey@@ 1
dadır 1
Karab@@ 1
Tok@@ 1
sun 1
aktan 1
içeriyordu 1
ışma 1
alist 1
kullanmıştır 1
lev@@ 1
pazar 1
tilen 1
Kamu 1
asyonun 1
tif 1
özelliklerini 1
ırk@@ 1
71 1
Ken@@ 1
liydi 1
ımdan 1
maddeler 1
taç 1
direktörü 1
saat@@ 1
uşu 1
Kanadalı 1
anına 1
ore 0.5945177378126605
gri 1
ა@@ 1
programları 1
tatlı 1
ıldığında 1
hazırlan@@ 1
ikli 1
kod 1
türdür 1
günümüzdeki 1
üt 1
başbakan 1
işti 1
çök@@ 1
Paulo 1
Wilhelm 0.683195389149406
baz 1
macer@@ 1
olmalıdır 1
sürdürmektedir 1
Sony 1
bağımsız@@ 1
ello 0.7708202211941891
kazandır@@ 1
km2 1
ac 0.7117021211230038
basınç 1
oğludur 1
Group 0.34126779048047473
gelip 1
malarda 1
süt 1
yatırım 1
Başbakanı 1
Ren@@ 1
Kocaeli 1
protein 1
açıklamıştır 1
Biyografi 1
Mek@@ 1
ster@@ 1
Yasası 1
oradan 1
doğur@@ 1
etmişti 1
tank 1
Trakya 1
geliştirdi 1
hit 0.5825751208786752
uf@@ 1
Yal@@ 1
69 1
73 1
Liverpool 1
kısım@@ 1
por@@ 1
Ed@@ 1
Kit@@ 1
yazında 1
erişim 1
nadir 1
Boston 0.6413433797372518
aktadır 1
oluşmuştur 1
pak@@ 1
Yahudilerin 1
anayas@@ 1
Çev@@ 1
Karabağ 1
eğlence 1
hayal 1
tanımlan@@ 1
gayet 1
ust@@ 1
sub@@ 0.30637134152160783
traf@@ 1
Napolyon 1
School 0.12988582620116515
yöneticisi 1
74 1
beklen@@ 1
çekim 1
81 1
bağ 1
Hollandalı 1
Böl@@ 1
aşık 1
bulut@@ 1
manlar 1
olağanüstü 1
prens@@ 1
çıkması 1
Köprüsü 1
açılış 1
kitapları 1
miktarı 1
R. 0.742671632754383
Zey@@ 1
au 0.028790157083337233
hast@@ 1
hücrel@@ 1
protesto 1
verilmektedir 1
anının 1
anlaşması 1
değiştirdi 1
Pro 0.9848684279490598
meclis 1
yurt@@ 1
eve 1
İstasyonu 1
dem 0.028099433246882122
dikkatini 1
dir.@@ 1
iktir 1
iliyor 1
benzer@@ 1
stratejik 1
Sir 0.5478539696878262
doktor 1
oya 1
politikası 1
tartışma 1
Ağrı 1
aha 1
halklardan 1
Ada 1
büyüme 1
eklen@@ 1
konuşulan 1
önemi 1
Emir 1
rengi 1
İslami 1
Portekizce 1
bellek 1
birimleri 1
sahip@@ 1
imha 1
yür@@ 1
lis 1
Nec@@ 1
büyüdü 1
izler 1
minden 1
Lenin 1
sosy@@ 1
Amasya 1
Timur 1
biçimi 1
Kür@@ 1
97 1
Diz@@ 1
Metin 1
sak 1
Kilise 1
maksimum 1
DC 0.96265037638709
Mavi 1
madığını 1
piyano 1
doktor@@ 1
geldiğini 1
turu 1
uyum 1
antlaş@@ 1
örnekleri 1
bölümünün 1
isiydi 1
kurmuştur 1
yang@@ 1
yanlısı 1
Tiflis 1
fikri 1
ii 1
ka@@ 1
kalıntıları 1
komuta 1
sıralam@@ 1
Mihail 1
ayrılmış 1
etmişlerdir 1
sir@@ 1
yakal@@ 1
Ang@@ 1
Harp 1
okun@@ 1
Özbekistan 1
Özgür 1
çevresindeki 1
ras@@ 1
Ey@@ 1
kanal 1
çekimi 1
İzlanda 1
grubuna 1
kendisinden 1
sever 1
özü 1
61 1
olurken 1
taht@@ 1
dans@@ 1
denize 1
sorunlar 1
deneysel 1
Çalışma 1
Disney 1
osen 1
uzat@@ 1
konumu 1
zırhlı 1
Hükümeti 1
yat 1
çözül@@ 1
0,1 1
Mars 1
kuzeyde 1
kıyaf@@ 1
motoru 1
tepel@@ 1
toprak@@ 1
yard@@ 1
zul@@ 1
Sibirya 1
barındır@@ 1
belirlemek 1
pe 0.6624836580285918
araba 1
cumhurbaşkanlığı 1
amp@@ 1
bet 1
haklarını 1
hali 1
sorunu 1
aşkın 1
dergisinde 1
gibidir 1
maddel@@ 1
inae 1
raf@@ 1
Meydanı 1
Seferi 1
matematiksel 1
Simon 0.8617211464083199
Cem 1
golle 1
güneyde 1
yoluna 1
cezasına 1
ülkeyi 1
Day 0.541704928179458
Saray 1
geride 1
Super 0.5891765211264994
etmesini 1
kaydet@@ 1
sos@@ 1
kullanmak 1
makale 1
gönüllü 1
Dairesi 1
Kong 0.7863919414202578
denk 1
kısım 1
Ly@@ 1
kaçın@@ 1
miktar@@ 1
rec@@ 0.48602223803469036
Yaş 1
est 0.014173367419090088
yuv@@ 1
Gi@@ 0.9333045195848164
İşleri 1
82 1
düzenlenmiştir 1
sekizinci 1
hayatının 1
ısal 1
Yavuz 1
tanımlanan 1
tanımlanır 1
dukları 1
göre@@ 1
hasta 0.20026015834748967
anlamında 1
usa 1
yarısı 1
malarında 1
Rıza 1
asyonları 1
lerce 1
rekab@@ 1
kaldırıldı 1
karışık 1
oranında 1
sonlandır@@ 1
08 1
ville 0.16632590972398917
Hamilton 1
final@@ 1
hükümeti 1
İst@@ 1
Hatta 1
şah 1
ud@@ 1
İnsan@@ 1
Air 0.31599006844663097
Ka@@ 1
kurum 1
mezar 1
pas@@ 1
oyunlar 1
pil@@ 1
tiğinde 1
Fox 0.9436897501482296
akıl 1
lah 1
yazmaya 1
bugüne 1
süredir 1
Bit@@ 1
keşif 1
kitabın 1
topraklarında 1
Vir@@ 1
nüfusa 1
yarışmasında 1
yeti 1
J 0.7102739536478714
imzalanan 1
Bolu 1
endiş@@ 1
sinde 1
uzaklaş@@ 1
memur@@ 1
olabileceği 1
türe@@ 1
Victoria 0.6525132546270719
tanrı 1
teklifi 1
Dolayısıyla 1
karak@@ 1
700 1
Konservatuvarı 1
başrol 1
köle 1
Teknoloji 1
fe 1
lüğünü 1
olabileceğini 1
makal@@ 1
mı 1
yükselmiştir 1
müşter@@ 1
Hill 0.48142407032136486
PKK 1
işleme 1
bölgeler 1
kaynaklanan 1
seslendirilen 1
animasyon 1
belki 1
luğa 1
sıkı 1
çok@@ 1
deri 1
söylenir 1
1906 0.6809572669472338
Linux 1
Tuna 1
dönemlerinde 1
Gez@@ 1
Steve 0.8906673482847912
edebiyat@@ 1
irli 1
liman 1
şehristanı 1
all 0.062026054388641096
Mod@@ 1
gecik@@ 1
rakip 1
tedav@@ 1
ışt@@ 1
Mağ@@ 1
Yah@@ 1
sunulan 1
bö@@ 1
83 1
E. 0.6377471671115467
Juan 0.3898990135041887
seçimlerde 1
tre 1
bilimkurgu 1
istediğini 1
kulü@@ 1
şub@@ 1
düzenlediği 1
şif@@ 1
Sol 1
devir@@ 1
gömül@@ 1
kurban@@ 1
ufak 1
vokal 1
yazarlar 1
alli 1
atöl@@ 1
devamı 1
imde 1
nüfus@@ 1
hâlen 1
öncelikle 1
belgesel 1
düşer 1
Bill 0.6682567322286075
eğit@@ 1
otik 1
açmıştır 1
haftalık 1
kurmak 1
söylen@@ 1
gil 1
Tri@@ 0.8047483787549732
duvar 1
ürünü 1
fl@@ 0.6506229229021692
gr@@ 0.4475931355902303
recek 1
Ön 1
ürünler 1
ıkta 1
Eğitimi 1
Kafkas 1
ağırlık 1
cık 1
gençlik 1
sağlamaktadır 1
ihtiyacı 1
BM 1
Bundesliga 1
nör@@ 1
ılığa 1
59 0.9760782070204992
farklıdır 1
sattı 1
Mahmut 1
Yahud@@ 1
verilmiş 1
Not 1
Tony 0.9795846237101837
aktris 1
kesiminde 1
lukları 1
Seçimleri 1
kalınt@@ 1
France 0.11493467425597198
Galler 1
Seri 1
erinden 1
içeri@@ 1
yaşına 1
kaleci 1
katılımcı 1
meyd@@ 1
ordunun 1
urdu 1
Keş@@ 1
yumuşak 1
Sam 1
bölümden 1
teşkil 1
Şi@@ 1
toplumun 1
yapması 1
sürecinde 1
Q 1
başarıyla 1
ordusunu 1
Pop 1
Ros@@ 0.6285934799563485
anır 1
gelmesi 1
meydan 1
soy 1
parçalar 1
adındaki 1
gazetesinde 1
çocukların 1
Christian 0.34341712553866743
elendi 1
kullanmaya 1
Sezar 1
oto@@ 1
kayı@@ 1
insanlara 1
temas 1
zm 1
Kahire 1
Rey 1
Yardımcı 1
görevlendir@@ 1
oh@@ 0.9923864421414026
12@@ 1
Mühendisliği 1
Bilgiler 1
sanatı 1
siyasetçidir 1
1890 0.8011863606632255
döneminden 1
verme 1
kök@@ 1
reform@@ 1
tuz 1
kalar 1
uzak@@ 1
yüzölçümüne 1
birincil 1
ır.@@ 1
aylar 1
ekonomisi 1
onar@@ 1
va@@ 1
vat@@ 1
Ek 1
emektedir 1
ford 0.5854383257306138
verg@@ 1
almayı 1
grupta 1
İtalyanca 1
görünen 1
plastik 1
uğradı 1
İsveçli 1
Dom@@ 1
aman 1
atta 1
görevleri 1
güreş 1
ham 1
siyaset@@ 1
üb@@ 1
öngör@@ 1
Kahramanmaraş 1
Seçim 1
kaybol@@ 1
kuvveti 1
sağlam 1
semt@@ 1
desi 1
filmlerinde 1
tehlikeli 1
yapımında 1
Ör@@ 1
Kupa 1
hayat@@ 1
İskoç 1
etmesine 1
YouTube 1
figür@@ 1
soğ@@ 1
Boğazı 1
Gerçek 1
alanının 1
birey@@ 1
ius 1
tad@@ 1
François 0.6683421685430558
Kütüphanesi 1
iktidar@@ 1
onda 1
çocuğ@@ 1
evde 1
numara 1
91 1
uda 1
çıkarıldı 1
ray@@ 1
Ru@@ 0.8968056504581595
bilinmeyen 1
sanatçının 1
Cengiz 1
diklerini 1
katlı 1
negatif 1
usunda 1
Ruslar 1
akan 1
tasarlanmıştır 1
ıca 1
araçları 1
kare 1
und@@ 0.8141119847445427
topladı 1
ımcı 1
Pazar 1
Polis 1
aksiyon 1
cezalandır@@ 1
diğ@@ 1
bakanı 1
Geç 1
Hakları 1
Murad 1
Tut@@ 1
giymiştir 1
taşıma 1
ulaştır@@ 1
yapının 1
11.@@ 1
White 0.398533404940688
hidrojen 1
seyir@@ 1
Yakın 1
test@@ 1
Çayı 1
Kale 1
plak@@ 1
ulmuştur 1
adları 1
umun 1
Söz 1
elektr@@ 1
ografi 1
direktör@@ 1
fa@@ 1
yapılandır@@ 1
Cer@@ 1
Yol 1
abad 1
dair@@ 1
Fas 1
Türkçeye 1
betim@@ 1
kampany@@ 1
Kup@@ 1
aldıktan 1
icra 1
mükemmel 1
1876 1
Walter 0.6772503994641396
boya 1
ileriyle 1
Dem@@ 1
hisar 1
kapsar 1
muş@@ 1
köpek@@ 1
yumurta 1
Hakkında 1
balığı 1
Mahallesi 1
adlandırıl@@ 1
alama 1
tekli 1
verdiler 1
dest@@ 1
sand@@ 1
Sultan@@ 1
koordin@@ 1
çap@@ 1
üstlen@@ 1
hükümdarı 1
keskin 1
stadyum@@ 1
öğrenciler 1
Finali 1
alınır 1
döng@@ 1
Bazen 1
bulunmamaktadır 1
has 0.030351047144757635
yenilen@@ 1
1877 1
ile@@ 1
otlar 1
kimlik 1
Atletizm 1
evren@@ 1
İbranice 1
01 1
2,@@ 0.8136215485169234
etten 1
lenerek 1
AP 1
Antakya 1
Madalyası 1
bayrağı 1
önlem@@ 1
tiy@@ 1
Ri@@ 0.6466723465330533
ayrıntılı 1
ört@@ 1
Yabancı 1
köken@@ 1
liliği 1
mektup 1
tom@@ 1
almasına 1
je 0.44883443240854615
çalın@@ 1
çerçev@@ 1
Müdürü 1
maliyet@@ 1
yendi 1
Cam@@ 1
yenin 1
GB 1
dost@@ 1
tanımlanmıştır 1
89 1
1896 0.8260658643423426
Oğuz 1
Bahç@@ 1
Mam@@ 1
Nas@@ 1
almakta 1
sk 1
University 0.07641697030841554
geliştirilmiştir 1
hiper@@ 1
olmasıyla 1
yarışmaya 1
Nik@@ 1
alıdır 1
ettikten 1
ikincisi 1
ıtlar 1
1904 0.6767441098567467
Lord 0.538469712449392
Recep 1
leştirme 1
ıklarında 1
atılan 1
orta@@ 1
Night 0.9103271089253423
Orijinal 1
ardaki 1
serg@@ 1
Yayınları 1
eyaleti 1
ğlu 1
merkezinin 1
alım 1
hal 1
müdahal@@ 1
olar@@ 1
Hatay 1
pilot 1
Bölüm@@ 1
demokratik 1
koruy@@ 1
telef@@ 1
Wilson 0.7723148763006529
defans 1
farklıl@@ 1
ressam@@ 1
Ürdün 1
eliği 1
kisi 1
milyondan 1
yayımlan@@ 1
gerçekleştirilmiştir 1
mensup 1
leştirilmiş 1
metin@@ 1
İngiliz@@ 1
incel@@ 1
makine 1
sayısını 1
uyumlu 1
bombal@@ 1
yardımc@@ 1
Küre 1
dokun@@ 1
havz@@ 1
kli@@ 1
fü@@ 1
Cas@@ 0.7190260229264182
adığını 1
rı 1
süz@@ 1
SC 0.97996643236183
kimya 1
konularda 1
resi 1
îler 1
Şahin 1
bağlayan 1
enerjisi 1
istasyonu 1
Barcelona 0.8278513044809193
inus 1
olan@@ 1
yürüttü 1
Şampiyon 1
bağlantısı 1
molekül@@ 1
mus@@ 1
uyuşturucu 1
İsk@@ 1
ıysa 1
Sinop 1
Team 0.3788388606130288
amay@@ 1
demektir 1
çiçek 1
Arena 1
afa 1
hayvanlar 1
şov@@ 1
Por@@ 0.7788873216099895
Varşova 1
takma 1
alırken 1
balık@@ 1
lir 1
Lev@@ 1
aşma 1
sendromu 1
Şampiyon@@ 1
cinsiyet 1
cü 1
mahkeme 1
sayf@@ 1
Mike 0.7699071293776616
Milano 1
boşalt@@ 1
kas 1
zamanın 1
çevr@@ 1
Andrew 0.8183723854656433
C. 0.37549715684005075
çözüm 1
direkt 1
hazırladığı 1
Şehri 1
ask@@ 1
bank@@ 1
ittifak 1
işlev@@ 1
mekte@@ 1
ales 0.2998591261233741
dinamik 1
Dördüncü 1
baskısı 1
çubuklu 1
üsünün 1
House 0.2020678211872563
lah@@ 1
teorik 1
ela 0.8230492552537696
go 0.3618780175442348
tabi 1
Brian 1
ayet@@ 1
Yapım 1
buhar@@ 1
uygulamalar 1
ი@@ 1
Dizinin 1
Stephen 0.9070379333277222
fal@@ 1
katman@@ 1
luğunda 1
mesafe 1
ula 1
işgal@@ 1
alanın 1
atanmıştır 1
Yıl 1
ges@@ 0.9441933365185803
gövde 1
düşünces@@ 1
emri 1
gösterilir 1
katılmaya 1
kaza 1
not 0.038307134870003055
anıl@@ 1
edebi 1
indi 1
zehir@@ 1
ıyorlardı 1
Gur@@ 1
Ulu@@ 1
amam@@ 1
kaynaklı 1
mesel@@ 1
senarist 1
Tim@@ 1
anmıştır 1
allı 1
enn@@ 0.8476377014985804
likte 1
olmaması 1
79 1
D. 0.6498090952423045
Kurt 1
20@@ 0.9660948975378828
Aslan 1
Oblastı 1
anahtar 1
oyunda 1
Komutanı 1
fikir@@ 1
fonksiyonu 1
öğrenim 1
Buenos 0.8447339844628985
Komis@@ 1
belges@@ 1
Önce 1
benzeyen 1
fakül@@ 1
geçmişi 1
huzur@@ 1
karşılaştı 1
lıkla 1
meslek@@ 1
1901 0.7139874949109081
Corporation 0.6876567207184071
marka 1
B. 0.33051291753360845
S. 0.5333034337337784
parlament@@ 1
Hazar 1
seviye 1
öldüğü 1
Bülent 1
Oxford 0.8039227577975173
Sul@@ 1
bayrak 1
hisse@@ 1
partisi 1
tank@@ 1
Aires 0.8411043046085859
Kuy@@ 1
Ord@@ 1
ilgisi 1
pen@@ 0.813045520943534
tanımlamak 1
coğraf@@ 1
düşünülen 1
ion 0.8193457498518522
gesi 1
kral@@ 1
stüd@@ 1
-- 1
07 1
rel@@ 0.9206659976966763
Bon@@ 0.9271196437213299
Chi@@ 0.8091125689940546
Holding 1
dergisinin 1
görmüş 1
luğunun 1
tutan 1
çekici 1
ć 1
Büyü@@ 1
içe 1
lek 1
oyuncudur 1
topluluk 1
Özellikleri 1
üreticisi 1
Os@@ 1
prensi@@ 1
Çevre 1
Kaya 1
kaybeden 1
pları 1
turn@@ 1
yetersiz 1
yor 1
Kıy@@ 1
Tav@@ 1
etkisini 1
gerektir@@ 1
ish@@ 0.8415280867343035
köpr@@ 1
döneme 1
çektiği 1
Gir@@ 1
Tümeni 1
getirmek 1
kuzeybatısında 1
12.@@ 1
Elektrik 1
farkı 1
ket 1
Onur 1
ortamda 1
piyade 1
finansal 1
yazıları 1
yönetim@@ 1
çısı 1
Pi@@ 0.6636576118192791
arc@@ 1
bun@@ 1
ilin 1
ub@@ 1
Çift 1
şeyin 1
Napoli 1
bulan 1
endüstriyel 1
görüntül@@ 1
santr@@ 1
ülkedeki 1
Fir@@ 1
las@@ 1
ota 1
sus@@ 1
topu 1
Hans 0.5793912692064187
Yat@@ 1
ef 1
çeş@@ 1
çıkıp 1
isyan@@ 1
ıtları 1
Ner@@ 1
ე@@ 1
Zam@@ 1
belediyedir 1
görünüm@@ 1
olduğ@@ 1
ā@@ 0.7097561997940454
Anti@@ 1
Championship 0.29415233610065755
ath@@ 0.7144339250076159
açıklamada 1
Çince 1
Sez@@ 1
cev@@ 1
firması 1
kol 1
örümcek 1
kaydedilmiştir 1
seyirci 1
sky 0.8002244461437081
çekim@@ 1
füz@@ 1
gın 1
sebeple 1
tec@@ 1
Batman 1
Hareket 1
Jacques 0.6659318703000399
bırakarak 1
ic 0.27040270614732836
ister@@ 1
tul@@ 1
Maliye 1
başından 1
ony@@ 1
sürüc@@ 1
endir@@ 1
per 0.18746402368696133
Bank 0.4995124578480065
tedavisi 1
yaygındır 1
hakkını 1
vol@@ 0.8149926130884558
Şim@@ 1
Kül@@ 1
Kız@@ 1
kant@@ 1
koydu 1
mühendislik 1
Örnek 1
hâline 1
Gece 1
Haf@@ 1
kayıt@@ 1
topluluğu 1
idaresi 1
prot@@ 1
ullah 1
yerleşik 1
Sın@@ 1
edilmesini 1
pencer@@ 1
lemesi 1
yapıya 1
RNA 1
Who 1
field 0.20510293039873456
olayların 1
oma 1
vatandaşı 1
çatışmalar 1
10.000 1
East 0.231135703491491
yerden 1
çatışma 1
şeh@@ 1
kitapta 1
Ünlü 1
Grande 0.7535810385490206
Emre 1
adres@@ 1
ayakta 1
ayda 1
açtığı 1
hareketleri 1
luluk 1
yarattı 1
zafer 1
Don@@ 1
Sad@@ 1
ast 0.8915366504489574
senaryosunu 1
trafik 1
fu@@ 1
görevlerinde 1
his@@ 1
Ö 1
işle@@ 1
sil 1
yüzlerce 1
ıcılık 1
Küçük@@ 1
depolama 1
taşı@@ 1
yete 1
Harek@@ 1
Mey@@ 1
Sarı 1
hep@@ 1
leşmiş 1
üyesiydi 1
Alt 1
bakınız 1
isi@@ 1
jen@@ 1
yeterince 1
Pre@@ 0.6201793102455109
arının 1
başlayıp 1
hapishan@@ 1
meşhur 1
istedi@@ 1
kesi 1
name 0.10142315965126635
belirlenen 1
elen 1
maddesi 1
yaşad@@ 1
zemin 1
baskı@@ 1
fiy@@ 1
Cemal 1
isimlendir@@ 1
ym@@ 1
Mac 1
cins@@ 1
ike 1
sayıl@@ 1
semtinde 1
Çalış@@ 1
imzal@@ 1
konusundaki 1
Çat@@ 1
Pensilvanya 1
galip 1
geçiril@@ 1
girişimi 1
olmasa 1
Avrupalı 1
gazetec@@ 1
rul@@ 1
şeyler 1
Ann@@ 1
Letonya 1
dağılımının 1
eğin 1
gin@@ 1
yöntemleri 1
devrim@@ 1
elinden 1
müd@@ 1
tis 0.8511572184740999
töreni 1
şa 1
05 1
Fe@@ 1
formül@@ 1
konsol@@ 1
çili@@ 1
eğitimine 1
lili@@ 1
Stone 0.9910706371787685
ener 0.8027673150447816
istihbarat 1
yiyecek 1
dağlık 1
landığını 1
rebil@@ 1
tarafı 1
vermesi 1
İoannis 1
ıç 1
Charlie 1
bağlanmıştır 1
enz@@ 0.8668788874541077
ilçenin 1
malara 1
tablo 1
ıf 1
Benzer 1
atin 1
festiv@@ 1
plana 1
Kı@@ 1
kup@@ 1
uri 1
Art 0.24078573185157914
edebiyatı 1
menler 1
poli@@ 1
takımdan 1
yaşamıştır 1
Askerî 1
Kitabı 1
amış 1
etkinlik 1
kuran 1
130 1
Tunç 1
atr@@ 1
üme 1
bilimci 1
ilgisini 1
lit@@ 1
meş@@ 1
muhalefet 1
Güney@@ 1
Sonrasında 1
Yolu 1
bank 0.5757917155024922
katılım 1
kayıp 1
Çinli 1
ılma 1
uygar@@ 1
ımından 1
0.@@ 0.7392931157093355
hata 1
kavuş@@ 1
kum 1
likten 1
dam 1
politikacı 1
öğretmeni 1
AS@@ 1
abildi 1
dışarı 1
bakım 1
bulmuştur 1
gül 1
Had@@ 1
Of 0.7090835711383529
Genelkurmay 1
birliklerinin 1
değiştirilmiştir 1
hır@@ 1
haftasında 1
istek@@ 1
lıkların 1
üydü 1
ılığına 1
4,@@ 1
Ki@@ 1
ole 0.9553604158816265
Newton 1
başbakanı 1
len 0.8829343206092868
Ses@@ 1
listede 1
yayınladığı 1
eleştirmen@@ 1
gerçekleştiril@@ 1
ai@@ 1
orum 1
dokuzuncu 1
tamamlandı 1
zek@@ 1
ıtı 1
Valisi 1
beden@@ 1
soyundan 1
tasarlanan 1
yedek 1
Kil@@ 1
Maç@@ 1
edebilir 1
yasama 1
1903 0.6652626382368788
Web 1
güneybatısında 1
sö@@ 1
Hristiyan@@ 1
Rumeli 1
Tatar 1
icat 1
parlamento 1
Filmde 1
Romalılar 1
adılar 1
değiştiril@@ 1
tahrip 1
tarihe 1
yağmal@@ 1
ışlar 1
cer@@ 0.9304247782306792
Rak@@ 1
aram@@ 1
emeyen 1
sabah 1
zade 1
şem@@ 1
diğer@@ 1
sürgün 1
diyerek 1
hikâ@@ 1
iciler 1
tırman@@ 1
Fırat 1
bağl@@ 1
tedir 1
yam@@ 1
Oper@@ 1
Saf@@ 1
Swift 1
tanımlar 1
tohum@@ 1
Yeşil@@ 1
izledi 1
kahraman@@ 1
köpek 1
sakat@@ 1
yayla 1
herkes 1
karakterler 1
meclis@@ 1
oviç 1
ebe 1
komis@@ 1
senar@@ 1
değerleri 1
erk@@ 1
gerçekleşmiştir 1
mühendisliği 1
Gazete 1
rütbesine 1
Üst 1
giller 1
miye 1
müzaker@@ 1
yazma 1
Galaxy 1
Od@@ 1
iOS 1
karbon@@ 1
sahte 1
avukat 1
denen 0.4769570475011081
osunda 1
şair@@ 1
ayet 1
og 1
Floransa 1
akademisyen 1
sanatçılar 1
Alfred 0.8571995754138557
Ev 1
eklendi 1
kanıt 1
meslek 1
ortalam@@ 1
PC 1
ulması 1
Program@@ 1
anısına 1
eta 0.6211856602700513
gı 1
ng@@ 1
seviyesi 1
uta 1
şehrine 1
etiketiyle 1
turnuva 1
ımc@@ 1
açıklan@@ 1
demiştir 1
ug@@ 0.9473667926439298
Ardahan 1
fan@@ 1
gay@@ 1
inen 1
kulübün 1
pel@@ 1
yarg@@ 1
borç@@ 1
erg@@ 1
faz@@ 1
ney 0.8082076767137788
profesörü 1
× 0.6986540471405063
dor@@ 1
Almanyası 1
rolünde 1
ınar 1
sürülmüştür 1
cumhur@@ 1
taraftan 1
HD 1
Kanun 1
direktörlük 1
sanal 1
siyonu 1
sürülen 1
zırh@@ 1
Gün 1
Kazak 1
Müş@@ 1
Alice 1
Green 0.4982618538581512
Orkestrası 1
buz@@ 1
romantik 1
çoklu 1
anim@@ 1
kaybı 1
06 1
elenen 1
yeraltı 1
çalışmak 1
komün@@ 1
kısmının 1
ser 0.16336744558848815
yenilgiye 1
Girit 1
Yedi 1
iliyordu 1
ümü 1
ema 1
harek@@ 1
Projesi 1
duygusal 1
ölçü@@ 1
Pl@@ 0.7543957976036768
ailesine 1
görevde 1
kah@@ 1
kütle@@ 1
viz@@ 1
Bitlis 1
planlanan 1
Tur 1
co@@ 0.20085619364564974
grubudur 1
aff@@ 1
mik@@ 1
ıf@@ 1
1880 0.7911208209934776
Pin@@ 0.9217546594931376
arını 1
bat 1
atörü 1
devrimci 1
erkek@@ 1
melerin 1
modelleri 1
mühendis@@ 1
çam@@ 1
göze 1
lıların 1
öyk@@ 1
Bes@@ 1
aldığını 1
mahkûm 1
salonu 1
Halk@@ 1
fot@@ 1
ou@@ 0.3571042158741131
takımını 1
yarattığı 1
öğrencileri 1
şeklindedir 1
Orta@@ 1
Football 0.33217797180207137
etmekte 1
ihraç 1
verilmesi 1
Meryem 1
ali@@ 0.885525710423558
başkanlığına 1
faktör@@ 1
farklılık 1
sezonunu 1
sistemler 1
ıcıları 1
azından 1
durumuna 1
Vi@@ 0.6199379746453185
analizi 1
deneyim@@ 1
ladığını 1
oynandı 1
time 0.04802972604148107
çıkmaya 1
aşan 1
dönüştürül@@ 1
oyuncuları 1
hel@@ 1
tı@@ 1
Enerji 1
Sudan 1
melere 1
Little 0.6299318378997913
Selçuk 1
döv@@ 1
ölçüm@@ 1
açığa 1
yapmayı 1
öğreti@@ 1
luğun 1
okulda 1
oluşturulmuştur 1
uyu 1
Ohio 0.5542295640801999
emiş 1
Pot@@ 1
ain 0.601042271273427
bask@@ 1
düzlem@@ 1
haftada 1
toz 1
desteğini 1
kullanılmış 1
Yapılan 1
aydın@@ 1
ilde 1
ban 0.6129961448014049
gelişmeler 1
had@@ 1
liderliğindeki 1
savundu 1
alay@@ 1
gözük@@ 1
he 0.016217167998836022
Orada 1
Pel@@ 1
akrab@@ 1
maçlar 1
yemek@@ 1
üretildi 1
Eric 1
ito 0.6479779865819142
kâr 1
ülkelerinde 1
Hoca 1
Hükûmet 1
Island 0.29424372029304097
Salonu 1
içerik 1
lige 1
sonuçlanan 1
Est@@ 1
Kurul@@ 1
Parlamento 1
Vali 1
Babil 1
olanak@@ 1
timi 1
topraklarını 1
Columbia 0.5658630079176515
hızlandır@@ 1
çekirdek 1
Lim@@ 1
Saldır@@ 1
duyar@@ 1
mutlak 1
hab@@ 1
ılığın 1
Maine 1
Piyade 1
hukuk@@ 1
Şampiyonu 1
belirtilmiştir 1
imz@@ 1
ticaret@@ 1
Yazar 1
etinin 1
patlam@@ 1
talar 1
öf@@ 1
üğ@@ 1
Hakan 1
soruştur@@ 1
sürer 1
Sit@@ 1
itleri 1
kli 1
mektir 1
110 1
oyuncunun 1
Atlas 1
Heinrich 0.6134348069360005
koşulları 1
Mimar 1
Yapı 1
aşağıda 1
kural@@ 1
lediler 1
numarası 1
âh@@ 1
Şirketin 1
Kevin 1
Kh@@ 0.6114614059340996
amaç 1
düzenleme 1
geçirmek 1
seçti 1
verileri 1
bırakmıştır 1
od 1
öldürür 1
başlamıştı 1
grubunu 1
Eng@@ 1
Euro 0.870721839182743
Türkleri 1
kiye 1
kuşu 1
riye 1
başarmıştır 1
egemen 1
bölümün 1
edilmesine 1
gerçekleştirdiği 1
katılmak 1
lıyor 1
ılmasıyla 1
Etimoloji 1
ark 1
bizzat 1
değişikliği 1
evler 1
öncü 1
Ha@@ 0.8308408537912129
haz@@ 1
maddenin 1
öyle 1
Konstantin 1
Orman 1
düzelt@@ 1
evden 1
yaşamaya 1
Savaşın 1
Uşak 1
aras@@ 1
ass@@ 0.4797332672718353
dire@@ 1
iyice 1
köşe 1
sinyal@@ 1
ung@@ 0.6016121606294137
Illinois 0.5925246188406122
yaya 1
yse 1
Öl@@ 1
çiç@@ 1
ıldıktan 1
Niz@@ 1
hükûmetin 1
kodu 1
okuma 1
net@@ 1
portr@@ 1
Alex 1
Artık 1
Center 0.2886179960291323
Eserleri 1
yel@@ 1
Des@@ 0.5287575095003855
ediler 1
ülkesinde 1
olmaları 1
vez@@ 1
bulunabilir 1
fiz@@ 1
üşü 1
Şampiyonluğu 1
SB@@ 1
doğduğu 1
naz@@ 1
çalışmalarının 1
öykü 1
cil@@ 1
değin 1
yağış 1
Albümde 1
Uzun@@ 1
bakır 1
organı 1
yolunu 1
Prag 1
sıkça 1
İk@@ 1
kanı 1
katılma 1
kemer 1
miktar 1
savunan 1
tahmini 1
Bask@@ 1
Sistem@@ 1
muşlardır 1
yn@@ 1
W. 0.5783349370625702
iliğe 1
les 0.013111823601016013
pilot@@ 1
eşcinsel 1
haf@@ 1
rek 1
ızı 1
Zonguldak 1
caz 1
cilt 1
hil@@ 1
izleyic@@ 1
kurban 1
köyüne 1
saldırıları 1
yaklaşım 1
öğret@@ 1
şarkıcısı 1
Ez@@ 1
olmad@@ 1
rahatsız 1
yaygın@@ 1
Dili 1
Kara@@ 1
enfeksiyon@@ 1
yazılar 1
Anayasası 1
doğmuş 1
Bağımsız 1
Opera 1
kritik 1
örgütü 1
Kayn@@ 1
acağına 1
ağız@@ 1
Yav@@ 1
deydi 1
kaçtı 1
kten 1
tt@@ 1
öv@@ 1
Türklerin 1
duyuruldu 1
numaradan 1
Adnan 1
Devlet@@ 1
anayasa 1
değişken@@ 1
eren 0.6011940720816356
kocası 1
yeteneği 1
muharebe 1
salın@@ 1
AC 0.8150349193971649
Fen@@ 1
altyapısında 1
cısı 1
tuğu 1
üzüm 1
Adolf 1
Mektebi 1
gar 1
kupa 1
türün 1
yöneten 1
İmparator@@ 1
ıza 1
Oğ@@ 1
Pale@@ 1
arkadaş 1
emir@@ 1
etle 1
gemileri 1
olurlar 1
yükselt@@ 1
Bayr@@ 1
buy@@ 1
kayda 1
çü 1
Ry@@ 1
eus 1
Ph@@ 0.6832034284750836
rahi@@ 1
tanıtıldı 1
şir@@ 1
geliştirmek 1
kullanıc@@ 1
ımla 1
Bilimleri 1
Cambridge 0.820363439537752
albüm@@ 1
alkol 1
inti@@ 1
Blue 0.5730805709225117
Einstein 1
Emin 1
güneydoğusunda 1
lehç@@ 1
sur 0.034247661115388274
op 1
bölgeden 1
chi 0.4534272115540832
filme 1
kontrolünü 1
maçlarını 1
sayg@@ 1
şeklindeki 1
Böyle 1
belediyesine 1
gelişim 1
kaplı 1
savaştan 1
Araç 1
bunlara 1
inter@@ 0.22999343551217236
lıkta 1
oluşturuldu 1
ost@@ 0.7756234534749714
İklim 1
Cami 1
alanındaki 1
yazısı 1
kitab@@ 1
saldırdı 1
etkinliği 1
ft 0.9085645086172845
Porto 1
araştırmac@@ 1
hr@@ 1
ilim@@ 1
Fel@@ 1
Philadelphia 0.7679593939368694
anahtar@@ 1
araçlar 1
bik 1
esiz 1
soyadı 1
vok@@ 1
Michigan 0.5838248831642829
Türkçesi 1
filmlerde 1
seslendirdi 1
sömür@@ 1
âh 1
öykü@@ 1
görmek 1
güncell@@ 1
luklar 1
Harekâtı 1
Hırvat 1
Pekin 1
Salih 1
ebileceği 1
konuları 1
sy@@ 1
entegre 1
ilki 1
iner 1
kaydı 1
mevsim@@ 1
moda 1
çet@@ 1
1870 0.7201153950558874
Francis 0.6788424636905356
Seb@@ 1
bilen 1
haricinde 1
hük@@ 1
ram@@ 1
sergilen@@ 1
yn 1
Slovenya 1
büyüyen 1
dünyasında 1
Fizik 1
Malezya 1
ağacı 1
birinc@@ 1
köye 1
ordusuna 1
Oyunun 1
fes@@ 1
Baş 1
Num@@ 1
Otto 0.7867402856634715
inanc@@ 1
verim@@ 1
ılarıyla 1
döndür@@ 1
oksijen 1
vize 1
şehirleri 1
Anthony 0.940663472748873
Dergisi 1
Ot@@ 1
eserin 1
idin 1
uluk 1
Şek@@ 1
içeriği 1
mand@@ 1
mesle@@ 1
sti@@ 0.8570010105933441
und 0.00571243325576789
üçlü 1
Karşıyaka 1
Kulesi 1
eke 1
güreşçi 1
heykel 1
iktidar 1
Chelsea 1
Off 1
kazanır 1
rom 1
grubunda 1
uygulamaya 1
amadığı 1
ağan 1
car@@ 0.3055510900252647
ilaç@@ 1
kimse 1
sürdüren 1
enerj@@ 1
yaptıktan 1
gitmek 1
hedefi 1
uğa 1
hayvanların 1
taarruz 1
yetişkin 1
İletişim 1
Cev@@ 1
Futbolculuk 1
Peru 1
maçını 1
uzanır 1
üstün@@ 1
1897 0.7017829742541764
ayrım 1
düğünde 1
kemeri 1
mutlu 1
şirketinin 1
Albay 1
Dükü 1
fer 0.5387019245330251
lağ@@ 1
aci@@ 1
beyaz@@ 1
parmak 1
Önemli 1
öden@@ 1
danışman@@ 1
desteğiyle 1
topraklarının 1
örgüt 1
1500 1
bahar 1
etine 1
yüklü 1
ahı 1
sunucu 1
Farklı 1
Meslek 1
No@@ 0.7637204365417292
adlandırıldı 1
feder@@ 1
gittiği 1
Jon 1
Ram@@ 0.8008540904606155
enek@@ 1
yalar 1
Ermenice 1
PlayStation 1
elektron@@ 1
mark@@ 1
yev 1
rekoru 1
Yorkshire 1
Yör@@ 1
anlığı 1
başarısız@@ 1
iliş@@ 1
kullanmaktadır 1
lul@@ 1
masa 1
Pen@@ 1
kesiş@@ 1
besin 1
ty 0.360077239895173
duruş@@ 1
tura 1
anos 0.807038721977645
eğini 1
mış@@ 1
ımız 1
1899 0.6854293974718012
Lu@@ 0.8187894443303219
Uygur 1
anlamıyla 1
etlerin 1
ger 0.5711862163971059
sayılan 1
çocuğun 1
ი 1
Bed@@ 1
mitolojisinde 1
oyunudur 1
türünde 1
ımların 1
Barajı 1
Yemen 1
barındıran 1
kt@@ 1
pişir@@ 1
Şir@@ 1
ecekleri 1
futbolu 1
teri 1
Cad@@ 1
epe 1
karşılığı 1
ograf@@ 1
Hac@@ 1
Harvard 1
Kadıköy 1
aklık 1
biten 1
imzalan@@ 1
şarkıyla 1
değişiklik@@ 1
eliptik 1
felsefi 1
istey@@ 1
ittif@@ 1
pir@@ 1
rek@@ 1
uzman 1
F. 0.6445428824490453
Panzer 1
Romalı 1
eki@@ 1
işletme 1
ortam 1
İnönü 1
Eyalet 1
Vil@@ 1
düşmüştür 1
gidip 1
göstermek 1
isminin 1
person@@ 1
personel 1
televizyon@@ 1
zincir@@ 1
Sub@@ 0.6764354181613623
blo@@ 1
kilisenin 1
Çekoslovakya 1
Görün@@ 1
arında 1
bl@@ 0.36674463115325906
beklem@@ 1
birbirleriyle 1
kapsam@@ 1
sağlığı 1
senaryo 1
Kiş@@ 1
Red@@ 0.9320304745923749
avantaj@@ 1
lanmıştı 1
izleyen 1
mana 1
ondur 1
st 0.49022102021790626
azın@@ 1
dönmüştür 1
gözden 1
undadır 1
Kolombiya 1
Milletvekili 1
Tayland 1
ardan 1
emiştir 1
eserlerini 1
landırma 1
taraftar@@ 1
tavsiye 1
tekni@@ 1
aret 1
dolarlık 1
his 0.012813506177840316
Baz@@ 1
Samsunspor 1
tra 0.6084907580967502
çıl@@ 1
Street 0.2072626175587585
ağırlığı 1
bulunuyor 1
Giovanni 1
Afyonkarahisar 1
DJ 1
Ren 1
dersler 1
ölçül@@ 1
belirtilen 1
kahraman 1
set 0.15091211564389603
almıştı 1
iliğini 1
muhareb@@ 1
NASA 1
durumun 1
Manastırı 1
Müslüman@@ 1
anıt 1
aşamasında 1
soyl@@ 1
torunu 1
Okul 1
adanın 1
kurulduğu 1
Noel 1
Siyah 1
cinsi 1
da@@ 1
log@@ 1
düzeni 1
günden 1
Çiç@@ 1
benze@@ 1
elleri 1
ort@@ 1
oru 1
а@@ 0.4608675251387504
dr@@ 0.45986606208345976
şirketleri 1
Frankfurt 0.9107168244412378
Nih@@ 1
edem@@ 1
korunması 1
sahibidir 1
VII 1
hakk@@ 1
markası 1
tis@@ 1
Adıyaman 1
Cav@@ 1
vin@@ 1
AN@@ 1
yayınlanmış 1
ıklık 1
Koç@@ 1
Mekke 1
komutan 1
sabit@@ 1
sunar 1
Üsküdar 1
ümlü 1
andığını 1
kayd@@ 1
çıkarılmıştır 1
desteklemek 1
kök 1
faaliyetlerini 1
iro 1
kalı@@ 1
cihaz 1
iPhone 1
atının 1
gösteri 1
hüc@@ 1
alığı 1
ağından 1
hid@@ 1
kuzeydoğusunda 1
reaksiyon@@ 1
teori 1
Fır@@ 1
alıyordu 1
görevli 1
plerini 1
akl@@ 1
etkileyen 1
görünüş@@ 1
tahliye 1
uyandır@@ 1
Alman@@ 1
acil 1
hükümet 1
zir@@ 1
çevresi 1
şarkısının 1
Go 1
disipl@@ 1
olayın 1
ticareti 1
trik 1
yö@@ 1
yönlü 1
Is 0.8705210538437005
lıklarını 1
tüken@@ 1
1864 0.8689398964490218
ekip@@ 1
saray@@ 1
verici 1
yonlar 1
á@@ 0.5061469236044489
Arab@@ 1
Fin 1
ilgilidir 1
di.@@ 1
ikinc@@ 1
sözleşmesi 1
topluluğ@@ 1
yönetimine 1
zen 0.8518460804835474
Sağ@@ 1
moleküler 1
uzman@@ 1
yüzünde 1
California 0.20605743130115298
Rick 1
Çalışmaları 1
defnedildi 1
yangın 1
yona 1
Kariyer 1
arttı 1
bildirildi 1
değişti@@ 1
kömür 1
söyley@@ 1
yağmur 1
gerçekleşir 1
olun@@ 1
sadık 1
yazıldı 1
Ül@@ 1
Psik@@ 1
gerektirir 1
sonucuna 1
Ermen@@ 1
Oto@@ 1
nehri 1
Arslan 1
Yardımcılığı 1
sürük@@ 1
taleb@@ 1
şef@@ 1
aydı 1
Hur@@ 1
belirten 1
isler 1
kiler 1
Çocuk@@ 1
Universe 1
Hikmet 1
başa 1
na@@ 1
pratik 1
sokak 1
Nişanı 1
ayıp 1
talim@@ 1
Yerleş@@ 1
bileşen@@ 1
girişi 1
mill@@ 1
Sarı@@ 1
başlay@@ 1
öre 1
Pek 1
bilir 1
bölümünden 1
dakik@@ 1
görevlerini 1
sine 1
söyleyerek 1
Hayat 1
Com@@ 0.3731273717785726
Devrim 1
Muş 1
Villa 0.8005731708927598
Yaşar 1
lif@@ 1
suikast 1
yapıları 1
Oy@@ 1
bitiren 1
kurdular 1
zorla 1
Üniversitesinde 1
3,@@ 0.8988608946401359
Bavyera 1
Gaga 1
Kaç@@ 1
Milan 1
fikrini 1
kariyer 1
nadiren 1
yar 1
çalışmalarında 1
ölçekli 1
Mimarlık 1
patlak 1
yüzölçümü 1
ımıyla 1
Akadem@@ 1
Ex@@ 0.38508437002753976
Japonca 1
Arjantinli 1
kün@@ 1
ligin 1
seslendirme 1
yardımı 1
şefi 1
1895 0.6762086563429881
Atlantik 1
P. 0.5775254603342006
Ziya 1
dizisidir 1
Samuel 0.7831489345015831
kati@@ 1
üçte 1
Gümüşhane 1
anlaştı 1
oluşturulmuş 1
ödülüne 1
ıklarının 1
atma 1
müzisyen@@ 1
1885 0.7461765233860395
Nuri 1
Serie 0.5432593999931117
batıya 1
ece 1
gitarist 1
ifadesi 1
kemik 1
meclisi 1
sessiz 1
sıfır 1
Bot@@ 1
erleri 1
gününde 1
kalit@@ 1
olo@@ 1
plar 1
örtüsü 1
Lit@@ 1
Saat 1
elektrikli 1
yazarın 1
İnşaat 1
geçer@@ 1
ikincil 1
rekt@@ 1
uzaklığı 1
yeter@@ 1
çekmiştir 1
Görev@@ 1
Teh@@ 1
kayıtları 1
söyle@@ 1
takiben 1
tamamladıktan 1
cular 1
ense 0.8396162155893231
otuz 1
wood 0.3736249478734743
Sami 1
okula 1
sonsuz 1
usta 1
1,2 1
Game 0.6308490935046608
Cin@@ 1
Kenan 1
püskür@@ 1
sayılar 1
akşam 1
anlaşılmaktadır 1
bot@@ 1
değişken 1
flor@@ 1
gezegen@@ 1
urlu 1
Tasarım 1
asist@@ 1
farklılıklar 1
testi 1
trans@@ 0.44056685949695357
Vilayeti 1
aye 1
dos@@ 1
edildiğini 1
madır 1
sentez@@ 1
uzay@@ 1
varlık 1
ayrınt@@ 1
berabere 1
destekledi 1
kolaylaştır@@ 1
muhalef@@ 1
ödüller 1
Gençler 1
altfamilyasına 1
let 0.6847280114598747
oj@@ 1
röportajda 1
şekil@@ 1
Aleksandr 1
Boğaziçi 1
Kimya 1
dinî 1
macı 1
tersine 1
yargı 1
€ 1
Asteraceae 1
South 0.10103239206253489
mıştır.@@ 1
yaralandı 1
üretic@@ 1
alacak 1
beyi 1
gayr@@ 1
lüğüne 1
yos@@ 1
Çak@@ 1
kümesi 1
orkestra 1
park@@ 1
misyon@@ 1
temelini 1
aliz@@ 1
tarzında 1
Hamburg 0.6795258750010437
Karaman 1
Türkçede 1
tıkları 1
Arsenal 1
ebilirler 1
evi@@ 1
mater@@ 1
tap@@ 1
yayılan 1
örnekler 1
Geliş@@ 1
Kaş@@ 1
L. 0.6149807517272095
parçacık 1
yör@@ 1
ıd@@ 1
Kuv@@ 1
bayr@@ 1
kriz@@ 1
takdirde 1
Eser@@ 1
Odası 1
turunda 1
1,5 1
arm@@ 1
binanın 1
genişlem@@ 1
geçmesi 1
ick 0.6251611992694245
yüzyıllarda 1
Ray 0.9538908540806416
miştir.@@ 1
şekil 1
sinir@@ 1
uyarınca 1
edilmişti 1
gündeme 1
halif@@ 1
sı@@ 1
şan 1
Hugo 1
uh@@ 1
bisiklet 1
evrensel 1
çoğunun 1
ülük 1
açıklanmıştır 1
kurma 1
şekildedir 1
ayg@@ 1
hazırladı 1
telif 1
veriler 1
Sen 1
frekans@@ 1
katılır 1
vizyona 1
Ajansı 1
Kolordu 1
ekledi 1
eğine 1
tikten 1
Şen@@ 1
Doctor 0.956139023266431
belediy@@ 1
varsa 1
birleşik 1
endüstr@@ 1
çor@@ 1
Bö@@ 1
eceklerini 1
fre@@ 0.781957110496361
mir@@ 1
plat@@ 1
risk 0.9033502816300334
Amsterdam 1
Bad 0.7199670942862496
Model 1
Piy@@ 1
kuşatma 1
lamayı 1
ojen 1
1898 0.6309398829949123
Film@@ 0.8398322464817336
listesidir 1
rit@@ 1
Büyükelçisi 1
genel@@ 1
programlama 1
tel 0.773066019679153
yaptılar 1
Hi@@ 1
dom@@ 1
sığ@@ 1
1889 0.7212441887764505
freguesia 1
vet@@ 1
Moğol@@ 1
inli 1
topçu 1
önemini 1
Kaptan 1
Mobile 1
içerisindeki 1
oluşumu 1
5,@@ 1
anlama 1
başlaması 1
eksen@@ 1
güneye 1
işin 1
Radio 0.3482671899111561
Yön@@ 1
atılmıştır 1
aşaması 1
olog@@ 1
sahil 1
Bisiklet 1
fiyat@@ 1
günlerde 1
ilginç 1
yeş@@ 1
önderliğinde 1
ıklığı 1
ılmaya 1
Mol@@ 0.7782655823997795
element@@ 1
Hacı@@ 1
iklim@@ 1
imkânı 1
istlerin 1
sunmaktadır 1
formu 1
okulun 1
terör 1
öncülük 1
Dest@@ 1
Rönesans 1
ach@@ 0.30779531651407455
geçmişte 1
hoş@@ 1
iklimi 1
rekorunu 1
yaptığını 1
Tro@@ 0.8355203563091328
aradan 1
yayına 1
olmaktan 1
oyuncuların 1
toplay@@ 1
uzu 1
yıldızlar 1
kanser 1
canl@@ 1
liberal 1
ori@@ 1
kuz@@ 1
uzmanı 1
Baltık 1
Evi 1
başlangıcı 1
devamlı 1
gerekse 1
sert@@ 1
şid@@ 1
Gençlerbirliği 1
ens 0.17437467662568745
stat@@ 1
Jan 0.8363890968905704
belirlenir 1
Lige 1
Normal 1
Türkmenistan 1
altyap@@ 1
tekniği 1
Budapeşte 1
Soğ@@ 1
abilir@@ 1
işlemleri 1
konular 1
sıralan@@ 1
Işık 1
Turnuv@@ 1
Ten@@ 1
bestec@@ 1
güzellik 1
inceleme 1
biti@@ 1
sürece 1
up@@ 0.4966537285987556
eğe 1
sın 1
yaşama 1
geler 1
ros@@ 0.9806383925234445
900 1
Kend@@ 1
Kent@@ 1
Sun 0.6443061636095629
ff@@ 0.521757151398917
kork@@ 1
verilebilir 1
ğr@@ 1
adası 1
ao 0.6978787847282321
dosya 1
girmesi 1
maden 1
oku@@ 1
ıkla 1
14.@@ 1
kesinlikle 1
orduları 1
sızlık 1
tanrısı 1
uğun 1
bakıldığında 1
referans 1
rir 1
Ödül@@ 1
Adı 1
Fen 1
Lady 0.6553570126925243
liye 1
pomp@@ 1
uca 1
17.@@ 1
Dağ 1
Dis@@ 0.48961829114480726
Georgia 0.5432481266032952
Sezonu 1
Up 0.9298813939903002
dis 1
kalb@@ 1
tici 1
yun@@ 1
Gol@@ 0.9260865716513912
iksel 1
kaybetmiştir 1
sembolü 1
jen 1
kullanıma 1
sayısız 1
yuvarlak 1
Tel 1
aylı 1
eden@@ 1
illa 0.6174251436482032
tehlik@@ 1
İlişkiler 1
ıntı 1
danışmanı 1
enti@@ 0.7038698826946502
sens@@ 1
yalılar 1
örlük 1
Balkanlar 1
Bun@@ 1
Mario 1
ılmasından 1
Hastal@@ 1
hikâyesi 1
lim 1
Bursaspor 1
Society 0.263058646010602
kanseri 1
kapasitesi 1
mayla 1
vali 1
çıkma 1
Kaf@@ 1
Patrick 0.7280009239760524
baraj@@ 1
co 0.17378202324000874
lileri 1
nek@@ 1
plerin 1
yolunda 1
astr@@ 1
büyüklüğ@@ 1
kafa 1
Alanı 1
anlarının 1
türünün 1
Azeri 1
Said 1
kitaplar 1
lam 1
sitesinde 1
Edebiyatı 1
davranış 1
rap 1
Henri 0.6624986191161678
ancılar 1
andaki 1
evrim@@ 1
fan 1
kov 1
sırayı 1
zan 1
İkili 1
Kü@@ 1
Leon 1
Maç 1
Osman@@ 1
aracın 1
dığında 1
etinde 1
güncel 1
km@@ 1
merceksi 1
teknolojisi 1
tiz@@ 1
Abbas 1
Sekreteri 1
delik 1
eter@@ 1
mişlerdi 1
so 0.0646726954960025
öğrenir 1
Köln 1
dilde 1
popüler@@ 1
Ep@@ 1
Mezopotamya 1
benim 1
durumunu 1
tarihini 1
Association 0.1976716325397203
Bingöl 1
Metal 1
belirlem@@ 1
elenmiştir 1
yıla 1
şöyledir 1
Dok@@ 1
Moldova 1
başlad@@ 1
düzel@@ 1
görevlendirildi 1
oyuncusudur 1
birlikler 1
buradaki 1
kayde@@ 1
sayılır 1
Bilimsel 1
Moğolistan 1
tanımı 1
virüs@@ 1
360 1
başlı 1
kul 1
merkezleri 1
Luis 0.5064644163995848
iktidara 1
sıralarda 1
üsünü 1
Rose 0.8073686120500958
anlardan 1
Profesör 1
süvari 1
Franz 0.6249032990621076
doğrusal 1
kombin@@ 1
viç 1
yapısal 1
Çin@@ 1
özelliğini 1
ınd@@ 1
Şer@@ 1
ago 0.7080609996771154
landığında 1
üslu@@ 1
kullanma 1
kuralları 1
kurtarmak 1
− 0.6374745732941876
yoksa 1
şim@@ 1
Tekirdağ 1
ami@@ 1
baskıs@@ 1
gelir@@ 1
hareketinin 1
kırmız@@ 1
temeli 1
unvan@@ 1
Avustralyalı 1
Bakanlar 1
Sos@@ 1
amaçlayan 1
anlay@@ 1
bölümüne 1
ej@@ 1
lilerin 1
taşları 1
zamanki 1
çevresel 1
çıkışı 1
ödeme 1
Programı 1
gizlice 1
post@@ 0.8970424190035136
yöneti@@ 1
çıkarmıştır 1
Din 1
Gazetesi 1
genin 1
yönetimindeki 1
³ 1
Kant@@ 1
Zeki 1
ağz@@ 1
Asker@@ 1
Karşıl@@ 1
değişimi 1
görevler 1
hassas 1
ışığın 1
Bilgisayar 1
hoc@@ 1
inşası 1
mamaktadır 1
Victor 0.8007032936930072
kurt 1
yağı 1
acaklarını 1
görüldüğü 1
qu@@ 0.29612174842917316
çıkışlı 1
Nur 1
bulunmakta 1
hop 1
Allen 0.8664265111835235
Die 0.020889150303042035
askerlik 1
direniş 1
manları 1
ović 1
şirketidir 1
Filipinler 1
Horasan 1
bununla 1
yatay 1
Anderson 0.8492104856086693
Twitter 1
geliştirilmesi 1
kimliği 1
vatandaşları 1
yetenek@@ 1
üretilmiştir 1
asi@@ 1
bayrağ@@ 1
osunun 1
süresince 1
Jr 0.7585036908754484
Müd@@ 1
kumand@@ 1
vücud@@ 1
Çağdaş 1
100.000 1
ayrılmaktadır 1
deneme 1
dikey 1
oğlunun 1
Hy@@ 1
Ses 0.8612936613821025
bağı 1
suçlu 1
tiyle 1
trav@@ 1
Miller 0.7779127114571791
ando 0.19340241186452314
ikamet 1
kub@@ 1
plar@@ 1
sürdürmüştür 1
Düzen@@ 1
birçoğu 1
numar@@ 1
Media 0.5143648519758044
dâhil 1
ici@@ 1
kadro 1
Beni 1
Yeniden 1
usuna 1
yasası 1
G. 0.6523642347230357
Lincoln 0.8259845181464206
boyun 1
duran 1
lendirme 1
nesne 1
turnuvada 1
yolunun 1
öğrendi 1
Senato 1
dular 1
kileri 1
olacaktı 1
raki@@ 1
yöne@@ 1
ahl@@ 1
artması 1
sesli 1
ulaşır 1
aret@@ 1
kurarak 1
Önceki 1
á 0.4328796973038708
düşmesi 1
ebeveyn@@ 1
işç@@ 1
karşısına 1
çalışt@@ 1
ölümünün 1
ıklara 1
Del 1
My@@ 0.9099057936935943
Roger 0.7533546167173701
araştırmaları 1
ınız 1
şarkıc@@ 1
Tuğ@@ 1
aktaydı 1
denin 1
geçirmiştir 1
pay 0.6887625798648707
Jim 0.7012178393917776
Kartal 1
Key@@ 1
Studios 0.8529311277094711
Town 0.45009171755043853
güvenilir 1
lisi 1
Göster@@ 1
Tas@@ 1
Teşkilatı 1
milliyetçi 1
göğ@@ 1
paylaştığı 1
teknik@@ 1
turnuvaya 1
Avusturyalı 1
Diego 0.6312011806534785
burg 0.5171479700552073
geçirildi 1
mercekli 1
sanatsal 1
söylediği 1
üreme 1
Bayezid 1
ertel@@ 1
finali 1
iniz 1
kalması 1
Venezuela 0.7899303495914165
Yun@@ 1
ator 0.31258724091874285
eşliğinde 1
serinin 1
suçlam@@ 1
Üy@@ 1
Medya 1
Olimpiyat@@ 1
Sk@@ 0.8927605453992472
Tayvan 1
aga 0.9689471804414732
aktiv@@ 1
koc@@ 1
çeker 1
Yönetmen 1
avcı 1
yamaç@@ 1
ısıt@@ 1
ansal 1
yede 1
1860 0.7209427144685037
Ertuğrul 1
düzeyi 1
güvenliği 1
ner@@ 0.8616387144601811
sever@@ 1
Adams 1
desteklenen 1
disk 1
isimdir 1
lerek 1
verdikleri 1
önerdi 1
Jane 0.9724833491559207
üvey 1
Marcus 1
Stockholm 1
duyul@@ 1
miz@@ 1
Slovakya 1
düzeyinde 1
liber@@ 1
yapılabilir 1
çıkmaktadır 1
başarısını 1
buğday 1
tuş@@ 1
vey@@ 1
İrlandalı 1
kaş@@ 1
türk@@ 1
vet 1
yaygınlaş@@ 1
Müslümanlar 1
amik 1
belirtil@@ 1
duyduğu 1
güne 1
hücreleri 1
yüzüne 1
Benjamin 1
ame 0.8846915749195565
mimarlık 1
rem 1
rüt@@ 1
ys 0.48609353428455204
İslam@@ 1
ılmıştı 1
AR@@ 0.9020996608622619
Kurucu 1
Kılıç 1
işlevi 1
satılan 1
3000 1
ian 0.521351243504353
işine 1
baraj 1
günleri 1
milit@@ 1
modül@@ 1
tarif 1
yüksektir 1
sıkıştır@@ 1
Koç 1
dinsel 1
harekât@@ 1
kıvr@@ 1
tanınmıştır 1
çıkarmak 1
Vas@@ 1
Yıldız@@ 1
ailesiyle 1
grupların 1
hukuku 1
ith@@ 1
memel@@ 1
zamanların 1
öğrencilerin 1
Lüksemburg 1
aban 0.3909045094409065
yaşıyordu 1
Eleme 1
cins 1
dönerek 1
finanse 1
harcam@@ 1
unut@@ 1
ver 0.585197890077809
üf@@ 1
ST@@ 1
gücünün 1
Haned@@ 1
yarımad@@ 1
1894 0.6883398345693671
Cenevre 1
aldıkları 1
başlatılan 1
gerç@@ 1
kal 1
metal@@ 1
metredir 1
pazarı 1
Mevcut 1
üsünde 1
ıkça 1
Halen 1
Paz@@ 1
Xbox 1
birleşerek 1
ond@@ 1
zihinsel 1
hapse 1
The@@ 1
key@@ 1
keşfedildi 1
lehine 1
parlak@@ 1
takip@@ 1
Girl 1
Kaynak 1
elini 1
isin 1
uvar@@ 1
yazarları 1
Christopher 1
Dan 0.9959173078689328
alçak 1
doğuya 1
usunun 1
21. 0.8142736795613522
Dead 1
Uygulam@@ 1
kron@@ 1
yitir@@ 1
yüzyıl@@ 1
ödüllendir@@ 1
ölümcül 1
ışığı 1
ezi 1
filozof 1
iniş 1
solunum 1
ısın@@ 1
dal 1
ee 0.47028533792184873
enstit@@ 1
İzmit 1
stil 1
ünce 1
Demiryolu 1
Deresi 1
Norman 1
motorlu 1
tün@@ 1
yerek 1
13@@ 0.9531097130296783
Karay@@ 1
anlaşmaz@@ 1
bütç@@ 1
sahipleri 1
suzluk 1
türündeki 1
A.@@ 1
Köy@@ 1
suya 1
telefon@@ 1
Aksu 1
Franklin 1
beden 1
hitap 1
kabul@@ 1
kule 1
bulaş@@ 1
müziğ@@ 1
sürüm 1
A.Ş. 1
Bağımsızlık 1
Sahne 1
gezegen 1
hor@@ 0.821667174483203
İdare 1
Fo@@ 1
bal 1
enj@@ 1
Özgün 1
İmam 1
Douglas 0.7838591574746103
benimsem@@ 1
evleri 1
gun@@ 1
gur@@ 1
kelimesinden 1
korudu 1
manastır@@ 1
üldü 1
başkent@@ 1
cep 1
eyerek 1
noktas@@ 1
Fre@@ 0.6985737311038722
Haç@@ 1
açıklar 1
taarruz@@ 1
çalışmış 1
03 1
beraber@@ 1
eklenmiştir 1
işlerdir 1
satıldı 1
5.000 1
Mühendislik 1
hacmi 1
une 0.01533900030352957
yetenekli 1
önder@@ 1
şirketler 1
Johann 0.3906043425702855
Nitekim 1
Soğuk 1
Your 0.9760574235786099
adal@@ 1
reç@@ 1
Atab@@ 1
Davis 0.6088737275717541
Super@@ 0.6036746798905149
beklenen 1
belge 1
felsefesi 1
kişilere 1
otel 1
seks 1
seslendirdiği 1
çıkt@@ 1
Siv@@ 1
açısı 1
ettirdi 1
ket@@ 1
sunulmuştur 1
üyeliğine 1
Kulüpler 1
Müs@@ 1
Sivil 1
Vak@@ 1
abildiği 1
katkı@@ 1
anki 1
bağır@@ 1
kurumu 1
obj@@ 1
amaya 1
başkanlığında 1
ensis 0.5651900069638041
görüşü 1
Parti@@ 1
Tunceli 1
bırakır 1
entr@@ 0.6183818269449141
sayfa 1
simgel@@ 1
suda 1
Hakkı 1
ned@@ 1
orik 1
tartışmalı 1
sall@@ 1
termin@@ 1
Ayak@@ 1
Turgut 1
hastanede 1
belirsiz 1
futbola 1
oluşturmuştur 1
ıklarına 1
Haber 1
atlet 1
emey@@ 1
etkilenen 1
küçük@@ 1
sağladığı 1
tuğ@@ 1
umi 1
vasıtasıyla 1
Ail@@ 1
MP 0.8490454991243112
acakları 1
amaktadır 1
mine 0.8668071433105914
Üyesi 1
Almanlar 1
ebilir@@ 1
evr@@ 1
nem 1
polimer@@ 1
6,@@ 1
Hürriyet 1
kentsel 1
yukar@@ 1
Aster 1
Toprak 1
dağı 1
fik 1
oti@@ 1
Bro@@ 0.7968143364218075
Isparta 1
apa 1
günün 1
vis@@ 1
yaprak 1
devletler 1
fesh@@ 1
kararlı 1
kültürünün 1
İşletme 1
… 0.25073342936467835
uni 1
Bre@@ 0.5294930094877937
Connecticut 0.9863761472060177
bebek 1
dikil@@ 1
ensel 1
eç@@ 1
undur 1
Uruguay 1
gereklidir 1
kuyu 1
riv@@ 1
ucunda 1
180 1
Div@@ 1
bitkil@@ 1
tutar 1
Hun@@ 1
Meg@@ 1
Rem@@ 0.8922790035249478
SmackDown 1
anından 1
olojinin 1
tasvir@@ 1
ud 1
yayınlamıştır 1
Turnuvası 1
başlığı 1
miras 1
yeğeni 1
1893 0.6588929575080598
Network 0.6830565548395839
ichi 1
ky 0.5695743308236768
kılıç 1
Facebook 1
kemerini 1
nic@@ 1
sözlü 1
şar 1
eylem 1
fak@@ 1
nd@@ 1
sürgüne 1
unlu 1
Babasının 1
burun 1
ulaşmak 1
Hiz@@ 1
IP 1
gök 1
özdeş@@ 1
ceza@@ 1
dram 1
mahallenin 1
sayısal 1
ücret@@ 1
ülkelere 1
bakanl@@ 1
kuşlar 1
sevdiği 1
yollar 1
vs 1
İngilizler 1
Kin@@ 0.916365664208402
avc@@ 1
les@@ 0.8267788154046889
müşlerdir 1
radikal 1
th 0.22727334076592562
yaratıcı 1
şarap@@ 1
gösteriyor 1
karakterdir 1
karakterleri 1
komş@@ 1
stadyum 1
Slav 1
Tir@@ 1
biyograf@@ 1
fen 1
kaynaklara 1
koruyucu 1
rin 1
sekreteri 1
ındaydı 1
Halife 1
Lake 0.2715358767144791
akış 1
ilave 1
zorun@@ 1
Boy 1
dünyayı 1
iliğin 1
lerindendir 1
odası 1
ting 0.20314973179063292
yakalam@@ 1
ülkesinin 1
elemeleri 1
liderleri 1
rastgele 1
za@@ 1
Çankırı 1
14@@ 0.9844157798558618
Ryan 0.9467175247189689
kuy@@ 1
üyelerinden 1
Mahkeme 1
bine 1
eksikliği 1
erdir@@ 1
mız@@ 1
öyküsü 1
Festival 0.236029837795852
Kri@@ 1
Yayın@@ 1
gökada 1
kasabadır 1
tarımsal 1
unları 1
yarışmanın 1
olmadı 1
rel 1
tarihî 1
ts 0.12915237443059008
Arif 1
akımı 1
alışveriş 1
beyli 1
bölgesini 1
kutu@@ 1
resept@@ 1
göçmen 1
hareketli 1
1800 0.993918994092244
Song 0.5202607729307277
bel 1
kamp 1
rak 1
Nijerya 1
bireylerin 1
evin 1
tamamlayarak 1
Ağır 1
Cannes 1
Sofya 1
Tarihsel 1
kör@@ 1
stratej@@ 1
Genelde 1
Ty@@ 1
yayımladığı 1
Dağlık 1
Kazan 1
blok 1
dad@@ 1
geminin 1
kullanıcıların 1
rebilir 1
yarıştı 1
üretmek 1
0,@@ 0.6275363062381643
Sto@@ 1
tale@@ 1
yarışan 1
Gine 1
Jo@@ 0.7523781955700771
basam@@ 1
d.@@ 1
potansiy@@ 1
Bâ@@ 1
başlanan 1
deye 1
iko 1
kri@@ 1
tanımladı 1
tavsiy@@ 1
tül@@ 1
İsmet 1
Ari@@ 1
Güzel@@ 1
Prenses 1
katliam@@ 1
teklif@@ 1
ıklarından 1
Lise 1
alırlar 1
arına 1
duygul@@ 1
videosu 1
CEO 1
Ziraat 1
gittikçe 1
inanç 1
toprağa 1
Kazak@@ 1
Zer@@ 1
emis@@ 1
ksel 1
02 1
Dön@@ 1
Kuşatması 1
askerlerin 1
teşkil@@ 1
ular@@ 1
1882 0.7585355694229592
Oyuncular 1
kabiliy@@ 1
parçac@@ 1
sıralama 1
Fiz@@ 1
Kartaca 1
belirlendi 1
ribaund 1
zih@@ 1
üreti@@ 1
Emmy 1
anını 1
çaba 1
çekimleri 1
Hitit 1
etkileşim 1
katılarak 1
mücadelesi 1
tahttan 1
çür@@ 1
ürettiği 1
Lawrence 0.9518360593747103
Minnesota 0.6336555373402155
haberi 1
politikac@@ 1
Çelik 1
Ateş@@ 1
Devrimci 1
Tü@@ 1
imparatoru 1
liy@@ 1
Kuz@@ 1
1892 0.6518440232515076
Bl@@ 0.5299756956809419
sahiptirler 1
sunan 1
ân@@ 1
30@@ 0.9694841739477817
Geri 1
Pis@@ 1
derecesini 1
ets 0.24738329272289727
herkesin 1
ilmez 1
soyu 1
yayınlanmaya 1
İçin 1
Michel 0.6151060934272973
Mücadele 1
Sistem 1
eleştiri 1
kapısı 1
organizasyon 1
restore 1
semptom@@ 1
Lak@@ 1
Nintendo 1
Ziy@@ 1
ebilmesi 1
kanıtlar 1
oto 1
DP 1
VIII 1
durumdadır 1
engi 1
hikay@@ 1
odaklan@@ 1
yapısını 1
yöntemler 1
çıplak 1
ediğini 1
fin@@ 0.5954215069236565
from 0.009431622888043539
sayımı 1
sertifik@@ 1
yetkilileri 1
ündedir 1
1881 0.7382897588670606
ibi 1
iskel@@ 1
işkence 1
tanı 1
ıyorum 1
Araştır@@ 1
High 0.17674583670046493
Turan 1
Ukraynalı 1
batısındaki 1
ico 0.4516186738095907
Şar@@ 1
Kürtçe 1
iste 0.4595343316520318
uğunu 1
Ovası 1
We 0.4648102634403283
dök@@ 1
etiket@@ 1
kuvvetler 1
uklu 1
Şem@@ 1
Erk@@ 1
düzenlenmiş 1
lamasına 1
Pictures 1
engellen@@ 1
gl@@ 0.6753193229587121
golü 1
jener@@ 1
mezheb@@ 1
roket 1
yr@@ 0.9002419994561949
alanan 1
form 0.1349063038413812
leyic@@ 1
ps 0.5203999727657063
sahada 1
č@@ 0.9240253746935106
ıcının 1
Plan@@ 1
Temsilciler 1
bulunduğunu 1
geliştirildi 1
kalesi 1
tüke@@ 1
akışı 1
dağılım 1
vahşi 1
yans@@ 1
otu 1
sig@@ 1
Ateş 1
daş@@ 1
müst@@ 1
yürütülmektedir 1
arz@@ 1
komit@@ 1
uzaktan 1
Da@@ 1
Gazet@@ 1
Rah@@ 1
SA 0.7875764065830012
araştırmacı 1
hediye 1
iyon@@ 1
mezun@@ 1
sayısına 1
sıcaklığı 1
Best 0.2770198415314174
Uğur 1
büyüktür 1
koşullar 1
oran 1
soylu 1
yapıp 1
AL@@ 1
Tahran 1
büyüklüğü 1
kavram 1
madal@@ 1
yavaş@@ 1
İdaresi 1
Motor 0.9269238438966461
culuk 1
ly 0.17035167121082953
oynamış 1
sergi 1
AM@@ 1
Sap@@ 1
ator@@ 1
bahar@@ 1
doları 1
kesin@@ 1
meden@@ 1
nihai 1
sağlıklı 1
Öğrenc@@ 1
donanım 1
uyarlanan 1
yoloji 1
Oğuz@@ 1
ich 0.3455774413918883
uştur@@ 1
Ölüm@@ 1
çalışmalara 1
ıoğlu 1
don 0.4285737371010846
ling 0.35168393145855953
Çerkes 1
Bekir 1
Kov@@ 1
Metro 0.9853582036364318
Pay@@ 1
albümünden 1
emeye 1
uyarlaması 1
ödüllendirildi 1
üstfamilyasına 1
Augustus 1
Emir@@ 1
Ras@@ 1
arg@@ 1
göstererek 1
hükûmetinin 1
imkân@@ 1
niyet@@ 1
olmuşlardır 1
üretilmiş 1
Dönemin 1
Gerçek@@ 1
adel@@ 1
dia 0.9063124543094265
fel@@ 1
Böylelikle 1
anz@@ 0.6451144561672827
evlenmiştir 1
kaçan 1
Ark@@ 1
Jan@@ 0.8206741532234713
Toronto 0.5193757044742171
alfabesi 1
gelecekte 1
ilidir 1
ularını 1
yenildi 1
yumurt@@ 1
yürütülen 1
Lefkoşa 1
Müze 1
bil 1
doktorasını 1
düşüncel@@ 1
ologlar 1
sinyal 1
tecrü@@ 1
uzan@@ 1
yolculuk 1
İstatistikleri 1
Singapur 1
Zafer 1
aro 0.9839378659518527
komutasında 1
tac@@ 1
Sy@@ 0.8941267701772221
kaldılar 1
topo@@ 1
şiiri 1
Ayşe 1
Cl@@ 0.6270201626381074
Yurt@@ 1
acık 1
cü@@ 1
enk@@ 1
masıydı 1
yd@@ 1
ücret 1
19.@@ 1
eğinde 1
iliğine 1
muhafaza 1
oş@@ 1
yaparlar 1
yeler 1
yet 0.6127287905758898
yönetil@@ 1
Kongo 1
büyüm@@ 1
katılımc@@ 1
şarkıdır 1
Bölgede 1
Yunus 1
itesi 1
tarafta 1
şap@@ 1
Buz 1
Gül 1
hareketin 1
mimarisi 1
ven 1
çıları 1
Š@@ 1
Bush 1
Ruh@@ 1
cumhuriyet@@ 1
kalarak 1
otomob@@ 1
protokol@@ 1
Cumhuriyetçi 1
bölgelere 1
diyal@@ 1
liderlik 1
Senatosu 1
Taş 1
ach 0.3442735406752831
ettin 1
fin 0.16701897664480148
geliyordu 1
gözlem 1
olaydan 1
rastlan@@ 1
rüzgâr 1
tarak 1
yayı 1
Ermeniler 1
Kl@@ 0.8061848660160271
enstrü@@ 1
kitabını 1
noktasına 1
oyununda 1
piskopos@@ 1
sıç@@ 1
turnuvanın 1
Dün@@ 1
Gazze 1
Zeus 1
oluşmuş 1
sözcük 1
üretim@@ 1
Müttefik 1
değişik@@ 1
döndükten 1
görme 1
yollarını 1
çağrıldı 1
ağız 1
kilisesi 1
kuzeyindeki 1
nefret 1
tıpkı 1
́ 0.13813242774085358
ho 1
iter 1
tren@@ 1
ülkelerden 1
Adını 1
Mektu@@ 1
River 0.13321796198881944
beldeye 1
hesab@@ 1
kayıtlı 1
matik 1
volkanik 1
ett 0.4884875782632923
geçmeden 1
ladıkları 1
ülerek 1
ımsı 1
Cum@@ 1
Yaylası 1
arşiv@@ 1
felsef@@ 1
kuvvetli 1
kısımları 1
öğrenme 1
Games 0.3336705491411091
Kuzey@@ 1
Sarah 0.8962168628617873
Vincent 0.9597381058162826
ikte 1
Akademik 1
Etiyopya 1
cusu 1
tanınmaktadır 1
Britanyalı 1
elektromanyetik 1
etrafındaki 1
işareti 1
1891 0.6406570418294901
Dep@@ 1
Hil@@ 1
aspor 1
nis@@ 1
adlandırılmıştır 1
imlerini 1
İlç@@ 1
Tibet 1
sokak@@ 1
Eri@@ 1
Futbola 1
Warner 1
civar@@ 1
pahalı 1
programının 1
kadrosu 1
ulus 1
16@@ 0.8658866185714298
Feder@@ 1
ede@@ 1
tere 1
şans@@ 1
Krall@@ 1
adından 1
evrenin 1
mesaj 1
uygun@@ 1
üyü 1
Antarktika 1
gelecekteki 1
kapasiteli 1
seçkin 1
yerleşen 1
zirveye 1
Matt 1
alındığında 1
klinik 1
kurşun 1
seferi 1
Cih@@ 1
Oc@@ 1
adamın 1
boyutu 1
cilerin 1
ebileceğini 1
halini 1
kuzeye 1
usul@@ 1
yayını 1
ımlarını 1
Fran@@ 1
Pet@@ 1
Schleswig 1
atını 1
dalı 1
ortalaması 1
basılan 1
imlerin 1
kırdı 1
Mahkem@@ 1
Vah@@ 1
daire 1
dökül@@ 1
gözaltına 1
kadını 1
tutum@@ 1
13.@@ 1
Abhazya 1
Kırgızistan 1
UCI 1
buzul@@ 1
nas@@ 1
yürütül@@ 1
Resmî 1
araştırmacılar 1
başaran 1
dok@@ 1
indiği 1
sed@@ 1
sek 1
özgürlük 1
ırt@@ 1
Lor@@ 0.9082398216474664
Zor@@ 1
cenaze 1
liğiyle 1
reye 1
deyişle 1
mühendis 1
1835 1
Tre@@ 0.6941136328689917
au@@ 0.29741155099968813
aykırı 1
kır 1
tutmak 1
Güç@@ 1
mülk@@ 1
salon@@ 1
yüzyıllar 1
Niş@@ 1
akıl@@ 1
arş@@ 1
ort 0.8593661028604008
programını 1
tatil 1
Eser 1
amaz@@ 1
bebek@@ 1
faydalan@@ 1
giderken 1
malzemeler 1
mür@@ 1
vin 1
çekirdeğ@@ 1
London 0.12135165168213168
Nov@@ 0.9405657316616399
bilmektedir 1
ilişkilerini 1
yönü 1
Efes 1
adaya 1
fazladır 1
izole 1
metro 1
resimleri 1
seviyede 1
tarafına 1
uncu 1
SA@@ 1
Sabah 1
Brüksel 1
Ticari 1
beslen@@ 1
zar 1
Ödüller 1
Kağan 1
ation 0.07401522068810851
dağıtım 1
güçlerini 1
Abdülhamid 1
Ale@@ 1
Popüler 1
awa 1
başlarına 1
oksi@@ 1
Havaalanı 1
Kürdistan 1
amayacağını 1
defter@@ 1
kısm@@ 1
ão 1
arları 1
bucaktır 1
dönüm 1
imidir 1
Be 1
Bölgenin 1
Matematik 1
20.@@ 1
Boğaz@@ 1
Ferdinand 0.9121383222962881
cephe 1
güneybatı 1
Felsefe 1
abı 1
ilmesine 1
kayıtlarda 1
tümü 1
çekiş@@ 1
Beledi@@ 1
amaçla 1
kanat@@ 1
ste@@ 0.602863768610864
zon@@ 1
İskenderiye 1
Lam@@ 0.8357240082599857
kolay@@ 1
kullanımını 1
piş@@ 1
tari@@ 1
tarz 1
özelliklere 1
gönderdiği 1
tarihçiler 1
Elektronik 1
Vikipedi 1
bon@@ 1
işlemci 1
yetişkin@@ 1
şarkıların 1
atış@@ 1
fiye 1
ington 0.7347232601347498
suretiyle 1
sıralamasında 1
İd@@ 1
İnsanlar 1
Coğrafi 1
filtr@@ 1
sağlanır 1
yaşadıkları 1
şekillendir@@ 1
ilmesini 1
kupayı 1
DE@@ 1
Karah@@ 1
Ky@@ 1
Minas 1
korsan@@ 1
kütlesi 1
sans@@ 1
yasını 1
yenilg@@ 1
ök@@ 1
AS 0.901034195973062
Jay 1
ayrıldıktan 1
düzgün 1
klerini 1
kü 1
ölür 1
Etkin@@ 1
Siirt 1
hazin@@ 1
Üst@@ 1
British 0.09668617478800902
Cu@@ 0.7192971365594402
Kürt@@ 1
Resim 1
devletinin 1
dilin 1
sahnede 1
yaşı 1
zayıf@@ 1
Enver 1
Spor@@ 1
Türkistan 1
amcası 1
davası 1
mim@@ 1
âr 1
Leo 1
Ste@@ 0.5238953970363237
düzensiz 1
egemenliği 1
kanlı 1
kazası 1
ciye 1
kitabının 1
sektöründe 1
yolla 1
FM 0.503561918324438
age 0.06520828318395808
bahseder 1
devrim 1
emriyle 1
tamamını 1
temiz 1
Ona 1
cüm@@ 1
mühendisi 1
koruyan 1
sezonudur 1
takımlarında 1
Proje 1
dövüş 1
gelişmiştir 1
grupl@@ 1
gömüldü 1
ihlal 1
karma 1
terek 1
Charlotte 0.9055834713511333
Hristiyanlık 1
çalg@@ 1
öğretmenlik 1
azaltmak 1
bitirmiştir 1
eter 0.6998676392578249
İranlı 1
Ferrari 1
kuyruklu 1
modelidir 1
nehir@@ 1
rastlanır 1
rekor@@ 1
toplantı 1
Asıl 1
Jason 1
ani@@ 1
gil@@ 1
çekilmiş 1
K. 0.7743422297468456
destekler 1
esin@@ 1
etmesiyle 1
girişim 1
programına 1
Arnavut@@ 1
Prensi 1
belirti@@ 1
bireyin 1
subay@@ 1
usunu 1
çıkaran 1
Marx 1
Silah@@ 1
gecesi 1
oranla 1
reng@@ 1
sunucusu 1
Bernard 0.7439722732929172
Kızılderili 1
TO@@ 1
Yeş@@ 1
anta 1
azınlık 1
fosil 1
konferans 1
lıklara 1
çıkarıl@@ 1
0,6 1
anime 1
kıyılarında 1
onlyinclude 0.7419959654734862
ES@@ 1
Hacettepe 1
Yu@@ 1
anlamlı 1
fırsatı 1
altyapı 1
bitkiler 1
ucuz 1
Doğa 1
içeri 1
kendileri 1
tehlike 1
uçağın 1
sular@@ 1
umda 1
İktisat 1
Wrestling 0.9144969165885329
Yahudileri 1
doğr@@ 1
hükümdar 1
irin 1
kuyruk 1
yönetiminin 1
1.000 1
Bruce 0.8883573936832981
Lin@@ 0.7322354935558338
Miami 0.7479022445855429
Mül@@ 1
Zeynep 1
abi 1
bağlar 1
etta 1
iktidarı 1
patlama 1
pirinç 1
sinemaya 1
Dokuz 1
Havacılık 1
Kılıç@@ 1
gelişmesi 1
kabin@@ 1
ous 0.18137339634756044
çıkarma 1
Aşağıda 1
atar 1
düşürül@@ 1
esin 1
kalenin 1
rahat 1
üniversitede 1
şaş@@ 1
23@@ 0.8484345381667985
bant 1
ememiştir 1
esir@@ 1
sayımında 1
yaprak@@ 1
Patr@@ 1
SSC 1
restor@@ 1
well 0.05710558613325468
Andrea 1
Ca@@ 0.9299360156383855
Howard 0.6893714069938135
arya 1
asyonunu 1
erkeklerin 1
formayı 1
hin@@ 0.7179242591884909
silahlar 1
sunduğu 1
sıkınt@@ 1
tesis 1
özgürlüğü 1
1848 0.6664841090183018
Standart 1
dönüşür 1
geliştiric@@ 1
lus@@ 1
mî 1
oylama 1
Holstein 1
Kelly 0.8999600911561791
Philip 0.7720506689109493
iğe 1
kiralandı 1
otobüs 1
sayımlarına 1
yesinde 1
Bell 0.7812098601506181
bulunmayan 1
cinayet 1
deplas@@ 1
hatları 1
payı 1
penalt@@ 1
çır@@ 1
başlatıldı 1
duyulan 1
kelimesinin 1
konum 1
kütüphane 1
Tarsus 1
maçlarda 1
Çoğunlukla 1
ack 0.6805515522252236
amac@@ 1
atus 0.7325481774355963
binalar 1
buzul 1
tartışmalar 1
ularının 1
Çık@@ 1
çak 1
şöh@@ 1
America 0.18253535076135857
artar 1
ediliyor 1
giyi 1
kaydedilen 1
sayısında 1
öldürdü 1
Geçici 1
Post@@ 0.7562812225630924
ayrılıp 1
dövüş@@ 1
Bad@@ 0.9087573623074882
Endülüs 1
Paş@@ 1
Petersburg 1
himay@@ 1
tadır 1
Şimdi 1
Long 0.43019583160158237
amad@@ 1
doğusundaki 1
dönüşüm@@ 1
fonksiyon 1
hazırlanmış 1
spektr@@ 1
Dance 0.920201489959603
Göztepe 1
Hanlığı 1
Mali 1
Müdür 1
Post 0.4523112395356141
Sincan 1
aydınlat@@ 1
geliyor 1
ilçeye 1
sonuçlarına 1
çevreleyen 1
Gordon 0.7679872901120106
donanması 1
enci 1
işlerini 1
kahve 1
kaliteli 1
söyleyen 1
yolda 1
yorumlar 1
HP 1
Haş@@ 1
fırsat@@ 1
go@@ 0.5233490574173536
Mesih 1
krallık 1
maçlarında 1
yıllara 1
Bakanl@@ 1
cisi 1
nel 1
sü 1
yaşandı 1
engellemek 1
etkiley@@ 1
gerektiren 1
hek@@ 1
kararıyla 1
köyleri 1
larlar 1
materyal@@ 1
Özellikler 1
1867 0.709718195594004
1888 0.6246670401608264
Meş@@ 1
Ulaşım 1
teklisi 1
Alp 1
Janeiro 1
Rumen 1
aat 1
cel@@ 0.897788206151607
fabrikası 1
fo@@ 0.7180699411035556
kullanılmak 1
köyünün 1
olojide 1
pres@@ 0.6795814556957018
Cap@@ 0.5580410845254316
anlatılır 1
destekli 1
ero 0.37486818776746655
hipo@@ 1
mezler 1
soruşturma 1
Üre@@ 1
1884 0.6659743133141702
banka 1
filos@@ 1
gösterilebilir 1
inf@@ 0.5865941300516965
oynadıktan 1
performansını 1
Helsinki 1
denge 1
efi 1
eman 0.7427128280902447
konularında 1
koyun 1
rekor 1
salgını 1
Buradaki 1
Nil 1
bana 1
düşüş@@ 1
filmdir 1
konumundadır 1
las 0.019667535196665493
tüy@@ 1
çıkmasına 1
Manuel 0.5112365852229669
Nikolay 1
anlaşmaya 1
aw@@ 0.3421577610573042
bitirdikten 1
che 0.33867871357029417
gönül@@ 1
hatt@@ 1
maktı 1
mitoloj@@ 1
Cuma 1
Indiana 0.6605960702514696
Marvel 1
koalisyon 1
liliğini 1
seviyesinden 1
Menderes 1
Mr 1
begin 0.7380370658869824
belediyenin 1
ediyor@@ 1
güzel@@ 1
hit@@ 1
ilkel 1
işletil@@ 1
metrelik 1
miner@@ 1
sulama 1
tamamlanan 1
teknikleri 1
önü 1
ısıydı 1
List@@ 1
Nez@@ 1
This 0.04508707035974667
faaliyete 1
kristal 1
noktal@@ 1
oter@@ 1
söylenti@@ 1
transfer@@ 1
turistik 1
Benim 1
Bryan 1
gide 1
ıdaki 1
Tevfik 1
akı 1
katılımıyla 1
türlerinin 1
Özgürlük 1
çeliş@@ 1
Savaştan 1
ebe@@ 1
ong@@ 0.7396247764669582
sürmektedir 1
yükse@@ 1
Arap@@ 1
los 0.012161054923664563
sınırında 1
yerinden 1
Basın 1
Las 0.15261945069893856
aman@@ 1
bini 1
kurmaya 1
ref@@ 1
terim@@ 1
yıllardan 1
Gl@@ 0.7290021175765796
konserler 1
manda 1
yürü@@ 1
Russell 0.8887597868551648
Sus@@ 1
faaliyetlerine 1
ortağı 1
20.000 1
cal@@ 0.5125949344126703
kadem@@ 1
kazanmak 1
kurulmasına 1
verdiğini 1
eh 1
görüşleri 1
güneydoğu 1
kis@@ 1
neh@@ 1
sta 1
tanıtım 1
tüccar@@ 1
yazarıdır 1
çocukluk 1
Phone 1
eğinin 1
itiraf 1
karşılaşmasında 1
kitl@@ 1
orkestr@@ 1
toplantısında 1
{ 0.5517009302567913
AM 0.6916664992208044
cami@@ 1
cem@@ 1
grafi 1
iletken@@ 1
sez@@ 1
çağ 1
çoğun@@ 1
Karşı 1
ebilmek 1
felak@@ 1
genişliği 1
uçakları 1
7,@@ 1
atanan 1
psikoloji 1
sevg@@ 1
tropikal 1
uli 1
Şehirde 1
aver@@ 1
bakter@@ 1
değiştirilmiş 1
gerçekleştirmiştir 1
onlarla 1
söyl@@ 1
takımların 1
Sankt 1
Tümen 1
Yargıtay 1
iner@@ 1
platformu 1
sipariş 1
ziy@@ 1
Zürih 1
elerdir 1
etraf@@ 1
olasılığı 1
yürüyüş@@ 1
zo 0.810369840367922
Çerkes@@ 1
kralın 1
rim 1
çoğunda 1
ō@@ 1
Bayanlar 1
Liv@@ 1
fırsat 1
ibe 1
özgürlüğ@@ 1
Beyoğlu 1
Fa@@ 1
Steven 1
alıların 1
bağlamda 1
sivil@@ 1
unc@@ 1
urt 1
âm 0.9256566951716754
ât@@ 1
güçlerinin 1
mav@@ 1
tanımlayan 1
Erol 1
15.@@ 1
Bizans@@ 1
Ortak 1
akciğer 1
azlar 1
boru 1
lukta 1
ru 1
Til@@ 1
asız 1
aynıdır 1
değiştirme 1
dilinin 1
kâğıt 1
lerler 1
orduya 1
sisteme 1
tenis 1
çalışmasını 1
Mari@@ 0.6464528654209004
ağabeyi 1
harfi 1
izasyon 1
malardan 1
mağar@@ 1
mişler 1
1865 0.6774278877703508
Rihanna 1
devletleri 1
kadınlara 1
kahramanı 1
kapatıldı 1
lediğini 1
vuruş@@ 1
yeye 1
ž@@ 0.973315301574919
Out 0.743528092453243
ayıran 1
bulundukları 1
fizikçi 1
gücüne 1
kıyısı 1
maddes@@ 1
üretimine 1
Houston 0.7286126131595246
Müslümanların 1
Pa@@ 0.8774859696411275
Sok@@ 1
Tos@@ 1
anlarından 1
deleg@@ 1
isleri 1
parmak@@ 1
Doktor@@ 1
dayanık@@ 1
hastaneye 1
tanıttı 1
´ 1
İlk@@ 1
taklit 1
Burak 1
Fi@@ 0.7736953686689122
biyoloji 1
kazı 1
olunca 1
tekin 1
Ödül 1
ât 1
Günümüz 1
Müziği 1
dakikalık 1
işlemc@@ 1
mag@@ 0.7767320967633857
sözlerini 1
sürdüğü 1
yken 1
Sanat@@ 1
aat@@ 1
babasını 1
desteğ@@ 1
eserlerinin 1
fizik@@ 1
kurak 1
mâ@@ 1
rapçi 1
topraklar 1
Fernando 0.6979344089290928
Hattı 1
altındadır 1
kartı 1
ung 0.12920558333428134
unutul@@ 1
üretiminde 1
Ludwig 0.564585207333493
Tayyip 1
Tim 0.9274939707255176
140 1
Ces@@ 1
Fl@@ 0.5993777021796688
ME@@ 1
Mercedes 1
azdır 1
bis@@ 1
obi 1
Bilecik 1
Margaret 0.8179652446846747
aa 1
kullanımına 1
num@@ 1
sergiledi 1
takviye 1
tasarlandı 1
ülkesine 1
Afrikalı 1
Binası 1
Marshall 0.9644262910085072
başarıları 1
malarından 1
yönetimini 1
Ağır@@ 1
doku 1
ivi 1
yüzme 1
ıtın 1
Şerif 1
Guy 0.9935778887369076
Pedro 0.47081841721984363
cumhuriyet 1
davul@@ 1
derek 1
havada 1
ine@@ 1
kadroya 1
konusudur 1
mit 0.013269246188483989
Ci@@ 0.9247372256823861
Jandarma 1
Nem@@ 1
donanma 1
hayvancılık 1
kasabasında 1
küre@@ 1
Hidro@@ 1
Nag@@ 0.9370128227962573
başlamadan 1
belirlenmiş 1
cerrahi 1
oluşturma 1
sistemde 1
yenilerek 1
Bayan 1
Elem@@ 1
diplomat 1
etiyle 1
kaldıktan 1
kurumsal 1
oid 1
ukları 1
27@@ 1
Anlaşması 1
Liber@@ 1
Mih@@ 1
kaydedildi 1
rahatsız@@ 1
16.@@ 1
Duy@@ 1
Kennedy 0.8517083079366429
News 0.45001213090861075
festival@@ 1
inşaat@@ 1
nedenlerle 1
onuruna 1
uygulanır 1
yoğ@@ 1
125 1
28@@ 1
Reis 1
alis 0.7264485607237235
ektif 1
hol@@ 0.7990586932775765
sevgilisi 1
tahsis 1
tr 1
Ü 1
ölmüş 1
Marksist 1
Potter 1
Yüksel@@ 1
boyunda 1
riz@@ 1
Antalyaspor 1
Demokrasi 1
Kurum@@ 1
Sultanı 1
buçuk 1
imzalam@@ 1
1887 0.6313185163069798
Bolşevik 1
Futbol@@ 1
Som@@ 1
oni@@ 0.9694822824780225
rahip 1
sistematik 1
çatı 1
1871 0.6176256588453807
2.000 1
Drama 1
Yo@@ 1
haft@@ 1
ihtim@@ 1
kaptan@@ 1
krist@@ 1
küt@@ 1
oyunc@@ 1
yordu 1
Dönem@@ 1
Mark@@ 1
Tol@@ 1
Yurdu 1
bahşı 1
bölgelerinden 1
evinin 1
iade 1
karakterin 1
olmaz 1
Pil@@ 0.8921612900787093
Tren 1
bireyler 1
ilişkilidir 1
indendir 1
kuramı 1
pist@@ 1
düşünür 1
kil 1
kredi 1
çeşitleri 1
gag@@ 1
geçirerek 1
intikam 1
mantar 1
oraya 1
tey@@ 1
yada 1
yetkililer 1
özet@@ 1
ürü 1
şun@@ 1
Boeing 1
antropo@@ 1
edilip 1
geometrik 1
ilim 1
imzalandı 1
lamanın 1
olasılıkla 1
İsyanı 1
Halkın 1
Milliyetçi 1
lıyordu 1
operasyon 1
tümüyle 1
29@@ 1
Hizmet 1
Mun@@ 0.8973409931081591
Sasani 1
branş@@ 1
düzenlenmektedir 1
endüstrisi 1
fırtın@@ 1
kuzeni 1
mısır 1
piyasa 1
stein 0.36617734258059464
İslâm 1
Hum@@ 1
IŞİD 1
Kub@@ 1
işbir@@ 1
kaybederek 1
key 0.3416639411921703
yy 1
Çı@@ 1
çalışmalarıyla 1
İznik 1
160 1
Alb@@ 1
alay 1
asyonunun 1
gidir 1
götürül@@ 1
kilit@@ 1
leyecek 1
tuttu 1
yukarıda 1
mün@@ 1
ondaki 1
takımla 1
temin 1
yapısına 1
ıyor@@ 1
Terim 1
aşamada 1
belle@@ 1
giys@@ 1
inal 1
lıydı 1
Erivan 1
Gec@@ 1
Pey@@ 1
oyla 1
teknolojik 1
zan@@ 1
har 1
makam 1
First 0.19983836040776853
Queen 0.37353965794474836
SE@@ 0.8954533908466202
hayal@@ 1
zarfında 1
ülebil@@ 1
İstihbarat 1
Düzce 1
Fakül@@ 1
Harris 0.8395960956428594
Hatun 1
Yam@@ 1
ailesinden 1
alanıdır 1
saldırılar 1
yabanc@@ 1
şarkılarını 1
Kültürel 1
adıkları 1
gerekiyordu 1
oranları 1
oynanmıştır 1
takımıdır 1
yur@@ 1
Beh@@ 1
Eb@@ 1
Gabriel 0.820532362222325
Sc@@ 0.7479788503835982
deprem@@ 1
kalıp 1
okyanus 1
101 1
18.@@ 1
Aleksios 1
Diş@@ 1
Gümüş@@ 1
Hampshire 1
Topl@@ 1
laz@@ 1
mermer 1
ığımız 1
Ernst 0.6493730033681698
Küresel 1
Les 0.04457775646648823
Lisa 1
bize 1
ideal 1
yazmış 1
şiddet@@ 1
Ak 1
Yazılım 1
pembe 1
í@@ 0.39261825246797893
Sidney 1
T. 0.5755433955063816
Will 0.952232758034606
güneyindeki 1
kaydır@@ 1
oğul@@ 1
çi@@ 1
Barselona 1
duyan 1
kırk 1
yazılımı 1
yaşamın 1
üzeri 1
Rusların 1
Tun@@ 1
Yahya 1
anlayışı 1
bombardıman 1
canlandırmıştır 1
deprem 1
kesme 1
liyor 1
Aviv 1
LGBT 1
Medine 1
Op@@ 0.8096020268910146
kontr@@ 1
kurmuş 1
noktaları 1
noktaya 1
sistemidir 1
site 0.12746930552514732
tüf@@ 1
ötesinde 1
1850 0.6710950671477306
Balık@@ 1
Fiziksel 1
RAM 1
alanını 1
benzerlik 1
hücum 1
kenarında 1
muhalif 1
neyi 1
ülasyon 1
İsy@@ 1
Meh@@ 1
başlık 1
kaplıdır 1
çuk 1
eserini 1
yıldızın 1
Mand@@ 0.8645579431841278
Mid@@ 1
antlaşma 1
düşt@@ 1
hasılat 1
ikat 1
maddelerin 1
nesn@@ 1
bölüme 1
istil@@ 1
kızları 1
sezonuna 1
ağr@@ 1
belirleyen 1
düşmanı 1
lıca 1
Üretim 1
Şehzade 1
edindi 1
modeller 1
müttefik@@ 1
Başbakanlık 1
göm@@ 1
ons 0.1501696392111358
Fransız@@ 1
Moore 0.7383618610354772
Niğde 1
cihazlar 1
gerçekleşti@@ 1
namesi 1
sorumludur 1
çekmek 1
Katedrali 1
aşağı@@ 1
efsanevi 1
hastalığın 1
ides 0.41226190941838003
nemli 1
vil@@ 1
üretilir 1
Karakter@@ 1
Oyn@@ 1
Trans@@ 0.6322045688455862
dir. 1
kentinin 1
sep@@ 1
unlar 1
öldürülmüştür 1
His@@ 1
Intel 1
eci@@ 1
görüşler 1
idi@@ 1
yaban 1
üsüne 1
Yakup 1
beklenti@@ 1
devam@@ 1
hâlinde 1
skorla 1
takson@@ 1
temelli 1
2,5 1
Türkmen@@ 1
ayaklanma 1
blok@@ 1
bulduğu 1
jin 1
Değ@@ 1
Konuş@@ 1
Polat 1
keli 1
konuşul@@ 1
serbest@@ 1
ucu@@ 1
çer@@ 1
İttifak 1
ılacak 1
ıştan 1
Bud@@ 1
Dark 1
To 0.2520700048994939
başkanları 1
büt@@ 1
hur@@ 1
ikle 1
kopar@@ 1
kullanıcının 1
leyip 1
oynar 1
yılını 1
Nick 0.8894054247364584
biye 1
dikdörtgen 1
eksiyon 1
kasabası 1
kazanılan 1
landıktan 1
ped@@ 1
polar@@ 1
reden 1
yerlerinde 1
çen@@ 1
Emniyet 1
inş@@ 1
izmin 1
zordur 1
arom@@ 1
devlete 1
gerçekçi 1
lej@@ 1
yetkili 1
çevrili 1
26@@ 1
3D 0.9261470092188967
Kuvvet@@ 1
Lizbon 1
Osmanlıların 1
doğus@@ 1
ermiştir 1
gerekti@@ 1
lüks 1
sorumlul@@ 1
Köyde 1
ca@@ 1
güc@@ 1
inleri 1
kruvaz@@ 1
laşması 1
ortamı 1
pre@@ 0.21562956937074254
taşınmıştır 1
Kre@@ 0.935594249804598
bahse@@ 1
kabile 1
Program 0.8766106601146708
Shakespeare 1
düet 1
line 0.09500287936842407
uçur@@ 1
yay 1
Belçikalı 1
Petr@@ 1
demokrasi 1
iletken 1
lav@@ 1
manken 1
olasılık 1
pilotu 1
yapıyor 1
yerleştiril@@ 1
yetişen 1
Claude 0.7012328055656535
kurtarma 1
sis@@ 1
çalışmalarda 1
İşbirliği 1
Hemen 1
M.@@ 1
bilişsel 1
serisinde 1
tehdit@@ 1
tutulan 1
Asur 1
Belir@@ 1
Jimmy 0.842478033935549
Morgan 0.8072042020917728
filozof@@ 1
ons@@ 0.6291860058311601
türlerin 1
vit@@ 1
yerlere 1
şin 1
1883 0.661878583085193
Ze@@ 0.8822589080285033
ayrıcal@@ 1
kaba 1
karakterize 1
lası 1
oi 1
okulunda 1
sandalye 1
BB 1
Fri@@ 1
Lisans 1
ayrılması 1
belirterek 1
kurgu 1
kıyas@@ 1
sergilenmektedir 1
ıştığı 1
Aj@@ 1
Char@@ 0.4734443786704291
Death 0.5533407940398025
amer@@ 1
biliniyordu 1
dua 1
rahat@@ 1
ted@@ 1
İspanyol@@ 1
Göl 1
Kilis@@ 1
giydiği 1
leşen 1
Robin 1
apo@@ 1
büy@@ 1
eserlerin 1
hom@@ 0.5924772438623793
kaydedil@@ 1
tâ@@ 1
Fuat 1
Nükleer 1
heykeli 1
istenen 1
kenar 1
tablosu 1
ydiler 1
çıkışını 1
Sefer@@ 1
Wil@@ 0.5246353817625043
onom@@ 1
tef@@ 1
zararlı 1
çiliği 1
Slav@@ 1
State 0.08569169442834901
TL 1
karşıt@@ 1
Final@@ 1
Gil@@ 0.8740490857198004
Lü@@ 1
US 0.07949529785644106
bahset@@ 1
edeceğini 1
karşılamak 1
manlı 1
რ@@ 1
Donald 0.7835270765339067
fet@@ 1
firma 1
işlen@@ 1
taşıdı 1
yürütme 1
bomba 1
hakimiyeti 1
yumuş@@ 1
Eğiti@@ 1
dayanıklı 1
ekmek 1
frekans 1
ibad@@ 1
kullanıcılar 1
onurlandır@@ 1
âl 1
Bos@@ 0.792947707184433
Girls 0.9020619428630884
armış 1
geçmek 1
imzalamıştır 1
kararlaştır@@ 1
ografik 1
romanından 1
ruk 1
yaşarlar 1
ı. 1
Şam@@ 1
Avrasya 1
Broadway 0.7877414324534407
Jeff 1
Kitap@@ 1
Kot@@ 1
Nadir 1
ate@@ 1
devletlerin 1
dört@@ 1
ecekler 1
emretti 1
eserlerinde 1
geleneği 1
geçerlidir 1
iliy@@ 1
kalı 1
prati@@ 1
şarj 1
350 0.9801905178301498
Arts 0.2425325710344299
bisiklet@@ 1
bölgelerine 1
eleştirel 1
görmektedir 1
paket@@ 1
şifrel@@ 1
Cat@@ 0.6546183255434895
Do 0.7079234871423411
ateşi 1
döş@@ 1
iliye 1
jür@@ 1
kot@@ 1
kötü@@ 1
puanı 1
tepe@@ 1
2.0 1
Sık@@ 1
fon 1
görülebil@@ 1
Great 0.2423381393550173
Netflix 1
adaylığı 1
cemaat@@ 1
fabrika 1
parametr@@ 1
sular 1
taraflı 1
yapıların 1
yasak 1
Şiir 1
Kolordusu 1
açılmış 1
bo 0.9005348695706005
dairesel 1
iklik 1
kurumları 1
makinesi 1
suy@@ 1
şimdiye 1
Kun@@ 1
Sz@@ 0.9620538896791867
eğr@@ 1
çanak 1
alini 1
bakteri 1
dükten 1
füze 1
kuzeybatı 1
sinden 1
yakaladı 1
şans 1
Serdar 1
Takımlar 1
güd@@ 1
havayolu 1
irlik 1
olduğunun 1
olmuş@@ 1
Miy@@ 1
dizileri 1
istila 1
yardımcılığı 1
Aşağı@@ 1
Bag@@ 1
Hid@@ 1
Konstantinos 1
Universal 0.9216746839229194
filmindeki 1
hafif@@ 1
lamada 1
büyükel@@ 1
grubundan 1
hattının 1
hus@@ 1
sağlayacak 1
zorundadır 1
ımıdır 1
atmosfer@@ 1
başladığında 1
cik 1
dramatik 1
rezer@@ 1
ılmasında 1
boks@@ 1
fol@@ 1
gerçekte 1
geçit 1
jo 0.6354051782716748
performansıyla 1
Onlar 1
başarılar 1
gölü 1
iTunes 1
işte 1
uklar 1
1863 0.6439199293516518
Manhattan 1
Oğlu 1
Prot@@ 0.9341956263493166
adada 1
ahan 1
cihazın 1
dünyas@@ 1
ess@@ 0.6467218059266988
ıyorlar 1
tarihlenen 1
üretir 1
ო@@ 1
Bell@@ 1
Dijital 1
Kus@@ 1
depart@@ 1
ikil@@ 1
ikisinin 1
komün 1
oidea 1
renkleri 1
satranç 1
Araplar 1
Hazır@@ 1
devrinde 1
fas@@ 1
faz 1
fazlası 1
izni 1
kazandılar 1
planları 1
çay@@ 1
üğünü 1
ılıyor 1
baskın@@ 1
beslenme 1
birincisi 1
onlardan 1
Oliver 0.9501071808587992
emp@@ 0.6950261200830554
hareketini 1
hikâyesini 1
ikan@@ 1
kala 1
lukla 1
Başlıca 1
Boris 1
bakımdan 1
bâ@@ 1
monte 1
siyona 1
tadan 1
şeklini 1
Hikâ@@ 1
yonları 1
Üzerine 1
1.5 1
Nam@@ 1
helikopter@@ 1
iminde 1
izleri 1
ısır@@ 1
Fili@@ 1
Fu@@ 1
Herhangi 1
Veli 1
denizalt@@ 1
kendinden 1
küre 1
malzemeleri 1
uygulanması 1
çeşidi 1
Uçak 1
Way 0.9078435307066429
anıdır 1
jet 1
periy@@ 1
Cermen 1
Good 0.7879626387497467
cas@@ 0.5095786596864155
kuruc@@ 1
müzikleri 1
olabilecek 1
tidir 1
yürütmüştür 1
çapraz 1
İsviçreli 1
ılmasının 1
Gürc@@ 1
Ross 0.7729247699547668
Sedat 1
ish 0.28184057276835683
isyanı 1
manevi 1
yayıldı 1
£ 0.39173052478841575
ılığının 1
Gogh 1
Haçlılar 1
güçler 1
mayın 1
platform 0.5728535782944885
sizliği 1
tem 0.8473143645394217
105 1
cinayet@@ 1
inger 0.38783100131322706
maddeleri 1
tercüme 1
Bildir@@ 1
Hayvan@@ 1
Yetiş@@ 1
döndüğünde 1
kısmına 1
radyasyon 1
teş@@ 1
yörünge 1
0,3 1
Bayburt 1
Protestan 1
kadrol@@ 1
kötül@@ 1
15@@ 0.7965183796894235
Kapısı 1
Karaca 1
aktör@@ 1
geçip 1
kardeşleri 1
köyl@@ 1
osa 0.4127751574342924
KP 1
Onu 1
Wayne 1
lanıp 1
semp@@ 1
soru 1
tüfek 1
uzakta 1
yaşından 1
İktisadi 1
Ant@@ 1
IX 0.8721363855459219
Studio 0.7402385556855542
artırmak 1
bağlıydı 1
etmedi 1
kazandırdı 1
oksit 1
üretti 1
Lost 1
ameliy@@ 1
belirtilmektedir 1
engelli 1
finans@@ 1
itlerin 1
keleri 1
mur@@ 1
Cena 1
ağıdır 1
bağlanır 1
etmeleri 1
işlev 1
kardeşler 1
liğidir 1
Abdul@@ 1
Hür@@ 1
Kok@@ 1
Liberal 0.7361715102996124
ekt@@ 1
gelmişti 1
hafız@@ 1
hayvanları 1
konut 1
lüğe 1
saatlik 1
tanımlanmış 1
Gökç@@ 1
Hüsrev 1
suları 1
vermeyi 1
Kate 1
Siyaset 1
Terakki 1
mar 0.5335282285144173
sokul@@ 1
yalıt@@ 1
yön 1
Kardeş 1
özgürlük@@ 1
Aks@@ 1
Bayern 0.753972235500727
Kuruluş 1
Mora 1
anlarda 1
şehrini 1
1875 0.6480352383260823
Yarg@@ 1
yerin 1
.Bu 1
alacağı 1
ansa 1
arca 1
atası 1
aşiret@@ 1
bahçe 1
eceğinden 1
etken@@ 1
güz@@ 1
havacılık 1
şekillerde 1
alb@@ 0.6823537719953483
yükseklikte 1
zad@@ 1
Not@@ 0.5401830444751828
detaylı 1
fazl@@ 1
gençler 1
ins 0.13144681719416332
kalite 1
sekreter@@ 1
sevk 1
yazıp 1
Çor@@ 1
Esk@@ 1
Fars 1
Hikâye 1
Office 0.4029749833318414
Tiyatroları 1
War@@ 0.4453159911676874
Yazar@@ 1
açılması 1
geleri 1
pik@@ 1
politikaları 1
sanatçıların 1
yanındaki 1
ülerin 1
şehirlerde 1
An 0.13626166245181218
Dublin 0.7629103771054785
Lombardiya 1
elden 1
gitmiştir 1
itli 1
kararını 1
matematikçi 1
tiş@@ 1
Gökhan 1
Johnny 0.8201561632786265
Katol@@ 1
Pek@@ 1
imden 1
kapsamaktadır 1
siniz 1
1873 0.6458277624398995
Yunanlar 1
eksik 1
det 1
olmaksızın 1
sınırlandır@@ 1
ımcılar 1
AD@@ 1
Göç@@ 1
alaş@@ 1
öldürmek 1
Bazıları 1
Bran@@ 0.9322660830699437
Genç@@ 1
Miguel 0.5730465338338349
beli 1
doçent 1
gergin@@ 1
riski 1
tın@@ 1
Özet 1
ğidir 1
ışına 1
akadem@@ 1
akın@@ 1
birtakım 1
memnun 1
tarihçisi 1
yemin 1
ûn 1
ımdır 1
Amerik@@ 1
Burdur 1
Cez@@ 1
SO@@ 1
ilişkis@@ 1
lanmasına 1
müziğe 1
sahil@@ 1
1830 0.7616308670792906
All@@ 0.7289733675155577
Jordan 0.7848875625170512
Ligue 0.6348707255530129
istihdam 1
müh@@ 1
Division 0.13134905936500602
amamış 1
www.@@ 1
çabaları 1
öneme 1
ABC 0.7161565642861784
Kırşehir 1
anca 1
konferans@@ 1
konumuna 1
tablos@@ 1
23.@@ 1
A2 1
aksi 1
motif@@ 1
yaralı 1
yarışmayı 1
Ahit 1
Alev@@ 1
DS@@ 1
acağ@@ 1
eo 0.5614717417122138
fık@@ 1
karg@@ 1
müsabakaları 1
türk 1
ıtma 1
Ayaklanması 1
Buz@@ 1
Dir@@ 1
akarsu 1
amın 1
askerlerinin 1
müte@@ 1
Budist 1
Uluslar 1
Uygulama 1
We@@ 0.43664313958817397
albümden 1
aslı 1
birbiriyle 1
eleştirmenler 1
hukuki 1
hücreler 1
pazarlama 1
savunuc@@ 1
sigara 1
Ün@@ 1
Barbara 0.8398026032997623
abilme 1
cin 1
okuy@@ 1
yazarlığı 1
İliş@@ 1
ER@@ 1
Pur@@ 0.735153128618103
edecektir 1
iran 1
lemi 1
pil 1
verildiği 1
yumur@@ 1
Öğretim 1
öldürülmesi 1
Biz 1
karışımı 1
meyvel@@ 1
sezonundan 1
ë 1
Amazon 1
Beyliği 1
Fik@@ 1
Kullan@@ 1
aşk@@ 1
değir@@ 1
riyor 1
uyuş@@ 1
CIA 1
Kan 1
Last 0.908831424384733
değiştirerek 1
kadarki 1
masraf@@ 1
zy@@ 1
ımsal 1
Win@@ 0.7440861733316956
cisim 1
kentine 1
kümesidir 1
liv@@ 1
merc@@ 1
subayı 1
töreninde 1
Cur@@ 0.6131360939346249
Kardeş@@ 1
Missouri 0.5620115604325802
ayıcı 1
esnada 1
kendisiyle 1
matemati@@ 1
müttefik 1
noktasında 1
saç 1
Store 1
bahs@@ 1
luca 1
melerinin 1
ularak 1
İncil 1
I.@@ 1
Ligde 1
Müsteş@@ 1
Star@@ 0.6486292295554168
bozukluğu 1
toz@@ 1
tum 1
öncesine 1
örne@@ 1
AT@@ 0.9592972056736537
Sig@@ 1
altından 1
başkanıdır 1
baştan 1
bül@@ 1
girip 1
inceleyen 1
vücut@@ 1
yetkisi 1
Çetin 1
çevirdi 1
ahlaki 1
iller@@ 1
ilmesiyle 1
yayımlanmış 1
Şırnak 1
Geliştirme 1
parçasıydı 1
ıyan 1
64,0 1
Akhisar 1
Bis@@ 1
Helen 1
Iğdır 1
oluştururlar 1
öng@@ 1
Channel 0.5921978626489667
Flor@@ 1
Jerry 1
Körfez 1
açı 1
hâkim@@ 1
iddiaları 1
özelliklerine 1
ırk 1
33,0 1
Hom@@ 0.8325643794693468
Jonathan 0.9522939012735264
Kuveyt 1
edebiyatının 1
elerindeki 1
meşru 1
sınırlarını 1
İskandinav 1
abilmiştir 1
felsefes@@ 1
gü 1
kısmi 1
lebilir 1
İdman 1
İvan 1
ailesini 1
beğeni 1
diller 1
gelişti 1
mül@@ 1
teması 1
tesisleri 1
yazması 1
çarptırıldı 1
Beşinci 1
alim@@ 1
siyah@@ 1
sözde 1
vaka 1
Ankaragücü 1
Pop@@ 1
gelenek 1
güven 1
kulak 1
olo 0.8953321734410525
seçimler 1
tarzda 1
İpek 1
Aksaray 1
Carlo 1
Tepe 1
ates 0.13900683095870264
dos 0.08334066148227944
lıklı 1
İsti@@ 1
bürokr@@ 1
durumlar 1
gazı 1
giymiş 1
maf@@ 1
sınırına 1
talebi 1
tepkim@@ 1
Kitabın 1
Seattle 0.796505090441291
Torino 1
barın@@ 1
heter@@ 1
kurucuları 1
odaklı 1
onuncu 1
türemiştir 1
Öztürk 1
Julia 1
nitelendirdi 1
odak 1
İlçede 1
1868 0.629516878440557
Dede 1
anlatmaktadır 1
ağları 1
ilçeleri 1
kedi 1
kulu 1
seviyesinde 1
yazılır 1
İlerleyen 1
ısız 1
dünyasının 1
gir 1
halefi 1
hizmetler 1
som@@ 0.9863790216512448
yansı@@ 1
1834 1
Danimarkalı 1
aniden 1
hayatında 1
torun@@ 1
Para 0.40357334282015855
SP@@ 0.729744969320164
bakanlığı 1
ihanet 1
kavg@@ 1
olmamasına 1
ometr@@ 1
onia 0.746613045492069
peygamber@@ 1
yenen 1
çevrilidir 1
şiirleri 1
Dek@@ 1
Lyon 0.674418176868744
Ven@@ 0.7699437387138086
bira 1
değişiklikleri 1
dönüşüm 1
fakir 1
kaldırılması 1
osunu 1
referand@@ 1
sanatç@@ 1
Ülk@@ 1
Frederick 0.6889418819385229
Kopenhag 1
akat 1
bağımlı 1
hakkına 1
profesör@@ 1
programda 1
renin 1
saltan@@ 1
şehrindeki 1
Kırklareli 1
Lar@@ 0.7828166975864875
Yard@@ 1
etk@@ 1
hoş 1
karşılaşmada 1
yaşamına 1
İlin 1
FIBA 1
Hü@@ 1
hücres@@ 1
kurucularından 1
oli 0.8638556893945734
pozisyon 1
sahası 1
seler 1
üçünc@@ 1
Başkanlık 1
Jüpiter 1
alde 1
avuk@@ 1
dönme 1
etkilerini 1
milliyet@@ 1
rey@@ 1
yin@@ 1
İlhan 1
İsrailli 1
ater@@ 1
görünmektedir 1
Batılı 1
eşittir 1
memuru 1
uki 1
Cab@@ 0.975685331171151
Hul@@ 1
Leyla 1
Limanı 1
Oyun@@ 1
Yugoslav 1
anatom@@ 1
edilmesiyle 1
küçül@@ 1
ortamında 1
toplamı 1
umlar 1
yolun 1
Çal@@ 1
Dür@@ 1
azar 1
depres@@ 1
dolara 1
gereğince 1
giyim 1
idea 0.31900789683037056
kamusal 1
komedyen 1
koç@@ 1
Tart@@ 1
açıktır 1
beraberlik 1
ilerleme 1
keman 1
konsantr@@ 1
kuruluşundan 1
Büyükelçiliği 1
Junior 0.5050304528181006
Saray@@ 1
ase 0.32268347815200676
ert 0.2706071008510121
ispat@@ 1
sistemlerinin 1
tanımlam@@ 1
1861 0.5832428602552403
S0 1
arr@@ 0.5796570075694564
başlarlar 1
düğüm@@ 1
göğüs 1
karakteristik 1
meme 1
çalar 1
önemlisi 1
Ceph@@ 1
Yüksekokulu 1
bağışıklık 1
kapak 1
konsolos@@ 1
lerarası 1
liklerini 1
üçü 1
ılış 1
Araştırmaları 1
Atlanta 0.6919620535794305
Santos 1
deyken 1
eriyle 1
uyd@@ 1
verirler 1
1879 0.6008004035429623
bağlam@@ 1
benzersiz 1
hamile 1
karşılandı 1
zayıfl@@ 1
çıkarır 1
Karaç@@ 1
askere 1
bomb@@ 1
bucak 1
ilerdir 1
işli 1
karakterlerin 1
kızın 1
luğ@@ 1
Li 0.7507284033399819
dillerinde 1
out 0.040623468076344954
programlar 1
türüne 1
André 0.592771459457012
Tapınağı 1
almasını 1
birleşme 1
bürokrat 1
elindeki 1
havaya 1
uçuşu 1
çam 1
çember@@ 1
ötesi 1
hatırlat@@ 1
temelinde 1
zin@@ 1
Şap@@ 1
Celal 1
Sparta 1
Tennessee 0.5837352804661061
belde 1
ormanlık 1
politi@@ 1
statüsüne 1
süreyle 1
türev@@ 1
umut@@ 1
Bükreş 1
antal 1
temsilcileri 1
yazmaktadır 1
Fey@@ 1
Luc@@ 0.8904359207235066
Norveçli 1
lum 1
nerede 1
çıkmak 1
Yıllık 1
bozuk@@ 1
dram@@ 1
görece 1
ileride 1
köklü 1
ren 1
ülebilir 1
Ivan 1
Raymond 0.91697135753538
Yerleşim 1
dolaylı 1
kaydetmiştir 1
macera 1
oların 1
taşıdığı 1
yönünden 1
Çarşamba 1
1872 0.6267496365089179
Bin 1
Bina 1
Leningrad 1
Nat@@ 1
That 0.3316339270712246
ateşkes 1
band@@ 1
isimlerle 1
soyut 1
statik 1
Efsan@@ 1
benimsen@@ 1
hayali 1
ich@@ 0.3775167279810362
saldırgan@@ 1
sir 1
PS 0.5786262293003858
Petrol 1
aktadırlar 1
gazetesinin 1
port 0.25672560927300747
tus 0.9001710288744589
uyarlam@@ 1
Aleksand@@ 1
Gemi 1
Gıda 1
Konsey 1
Ya 1
bulgul@@ 1
gev@@ 1
hâle 1
kulübüdür 1
listelenmiştir 1
peyn@@ 1
Evren 1
Oyunculuk 1
ado 0.08281243868894617
belirlenmesi 1
etkinlikleri 1
nedenlerden 1
pin 1
roket@@ 1
söylenen 1
} 0.5593658862284541
öldürülen 1
Katıl@@ 1
Sezonun 1
Vek@@ 1
die 0.004414851119347
nahiyesine 1
tekstil 1
yu@@ 1
36@@ 1
atış 1
dig@@ 0.88311920720057
ener@@ 1
gemiler 1
giye 1
kahram@@ 1
mağara 1
yapımlar 1
40@@ 1
Ceb@@ 1
con@@ 0.15440664839649107
edit@@ 1
filosu 1
mışlardı 1
taht 1
Şehir@@ 1
Heart 0.8341467015281204
Wright 0.8286155880751755
eklenir 1
isa 1
kuzeydoğu 1
mutfağı 1
rev@@ 0.9946477258882143
ves@@ 1
Haydar 1
dahildir 1
geçtikten 1
harf 1
planlan@@ 1
yıllarca 1
ıncı 1
Hoc@@ 1
adalet 1
doğası 1
fiyat 1
iman 1
köylü 1
yelpaz@@ 1
şartları 1
Ast@@ 1
Giray 1
ağac@@ 1
hakem 1
ildir 1
ly@@ 0.6648825633403573
mang@@ 1
oynuyor 1
renkte 1
tecavüz 1
Avrupal@@ 1
Rayonu 1
Sancağı 1
Yarışma 1
day 0.08351776102701877
derginin 1
jeolojik 1
kaleyi 1
lebil@@ 1
plerinin 1
tro@@ 0.7504758211159674
varyas@@ 1
AG 0.4781350965284304
Gümüş 1
Mill@@ 1
argü@@ 1
dünyasına 1
düzen 1
eydi 1
hayır 1
inç@@ 1
izleme 1
kardeşinin 1
kızıl 1
sömürge 1
Eskiden 1
Tepesi 1
abl@@ 1
arcık 1
ife 1
limanı 1
ster 0.41944657580618333
suikast@@ 1
thi@@ 0.8626710460880707
tol@@ 1
uyarlanmıştır 1
3.000 1
adem@@ 1
atadı 1
entin 1
http 1
ikon 1
kilit 1
kırıl@@ 1
müfre@@ 1
sizdir 1
tili@@ 1
Fabrikası 1
Oyuncul@@ 1
Valiliği 1
What 0.6399514283162494
burnu 1
işley@@ 1
metik 1
sponsor@@ 1
tral 1
Muk@@ 1
Mul@@ 0.6144931662323936
areti 1
ju 1
wa 0.2004417204439405
çan 1
üniversitesi 1
Müh@@ 1
TE@@ 1
deş@@ 1
etkisiz 1
kuruluşları 1
meyeceğini 1
sermaye 1
sivri 1
yürüten 1
denizden 1
karaya 1
karşılan@@ 1
larsa 1
Ümit 1
Maya 1
esinlenerek 1
inşaatı 1
kulesi 1
mekti 1
oba 1
oku 1
pol 1
rüzgar@@ 1
yerleşmiştir 1
ışla 1
1874 0.6120964028766481
Mant@@ 1
Marino 1
Osmaniye 1
görüntüleri 1
kılın@@ 1
lav 1
rî 1
yıkıldı 1
çocuklara 1
Home 0.43110062992756415
elbis@@ 1
ender 0.45490177797357334
etkinlikler 1
saatlerinde 1
Divan 1
Meydan 1
bilgiye 1
bulunarak 1
dönemden 1
girmeyi 1
ilgilenen 1
platin 1
yargılan@@ 1
çalışarak 1
çoğunluk 1
ülkelerinin 1
1840 0.704424554699459
Bürosu 1
Meksikalı 1
Pu@@ 0.8180869828479875
addır 1
defalarca 1
gösterimi 1
ity 0.16487427252296133
planda 1
Santiago 0.5174122309963433
hesap 1
undaydı 1
Anıtı 1
Lav@@ 0.994631586192145
ayev 1
etmez 1
für 0.016913971654837705
linin 1
menleri 1
süreliğine 1
üniversitenin 1
Doğum 1
Roman@@ 1
arkaya 1
düzenleyen 1
haş@@ 1
tali@@ 1
yüzeyi 1
Cemil 1
Shin@@ 1
fiilen 1
padişah 1
ref 0.6158950873388489
yıldızların 1
zamandır 1
Çöz@@ 1
Boys 0.72881808060156
ET@@ 1
Golden 0.47119821556940333
Sün@@ 1
ceye 1
genişle@@ 1
muhtemel 1
satarak 1
Arş@@ 1
Austin 0.7849841306369095
Dave 0.783135391228117
Faruk 1
Fon@@ 1
Perry 1
bölümlerinde 1
desteklen@@ 1
este 0.09442358483424225
finans 1
hayran 1
kitle 1
ordu@@ 1
tal 0.3977740584393294
tica 0.6908481974121483
50@@ 1
Buc@@ 1
Eyaletin 1
Maçı 1
Sağ 1
aslen 1
astronomi 1
asıl@@ 1
beni 1
boğa 1
keşif@@ 1
partiler 1
sahasında 1
yükselme 1
Justin 1
Poe 1
Rolling 1
canlandırılmış 1
dallarında 1
dilini 1
küç@@ 1
mu 1
problem 0.5242225467934143
tia 0.689591265545428
bırakıp 1
itiraz 1
köşesinde 1
pah@@ 1
seyahat@@ 1
ünlüdür 1
о@@ 0.2560133641050254
Viz@@ 1
inanılır 1
jan@@ 1
monarş@@ 1
yapılarak 1
BAL 1
Mareşal 1
Portekizli 1
bazlı 1
dec@@ 0.33421431605547247
div@@ 1
eklerin 1
gul@@ 1
jan 1
stan@@ 1
sında 1
umlu 1
Öğ@@ 1
Astr@@ 1
Josef 0.8118657933449246
Kadın@@ 1
barındırır 1
deli 1
eserlerinden 1
hastalıkları 1
mo 0.8284546185392884
savaşan 1
vo 0.9240126603681726
şiddetle 1
Arkeoloji 1
Demirel 1
anılmaktadır 1
değerini 1
fayd@@ 1
isminde 1
lüsü 1
tarihç@@ 1
ğiyle 1
Alayı 1
Family 0.4655480295827415
Katar 1
derhal 1
evlilikten 1
ileştir@@ 1
olanı 1
owski 0.9046594217991539
yerleşmiş 1
Çeyrek 1
Kardeşler 1
Wal@@ 0.36859644316078866
beta 1
cinsinden 1
görevlerde 1
hanede 1
ry 0.3895015603773445
yağlı 1
Akh@@ 1
Arkad@@ 1
Taarru@@ 1
UK 0.1920543928289333
dinoz@@ 1
disi 1
dönüşü 1
gular 1
kamplar@@ 1
karşılaştığı 1
reddedil@@ 1
termo@@ 1
tre@@ 0.6912739313529318
çin 1
128 1
33@@ 1
Eflak 1
Kimi 1
atık 1
endiler 1
estetik 1
fres@@ 1
pların 1
yenilik@@ 1
deb@@ 1
kont@@ 1
mot@@ 0.8153764243590553
obu 1
plaz@@ 1
rezerv@@ 1
TCDD 1
Zamanla 1
akın 1
belirler 1
ekti 1
kurs@@ 1
metrajlı 1
muhalif@@ 1
oluşu 1
sağlanan 1
Levent 1
Road 0.17232536324516506
basit@@ 1
ein 0.016715938202448224
istiyordu 1
kıta 1
ray 0.9254317001366953
yapmakta 1
Açık@@ 1
Inc 1
Korece 1
Pazar@@ 1
Vor@@ 0.20191193296961354
Yıllar 1
aster@@ 1
batır@@ 1
buhar 1
iten 0.8442552873273186
kası 1
kullanırlar 1
yayınlar 1
şifreleme 1
Bitki 1
elektro@@ 1
milletvek@@ 1
po 0.9330211881988506
sön@@ 1
ındandır 1
Billy 0.7724650444685189
Hamdi 1
Reich 0.7059182857853319
Stefan 1
hükümetinin 1
ij@@ 1
macılar 1
maksızın 1
ow@@ 0.4135583898448748
ty@@ 0.7537683891548634
yapılmasını 1
yeyi 1
Cre@@ 0.4928614213556647
istemiştir 1
sodyum 1
uzunluğundaki 1
üle 1
anik@@ 1
lığ@@ 1
tahıl 1
temel@@ 1
Şehr@@ 1
Airlines 0.9738923452483762
Baas 1
Bartın 1
Cola 1
Otomobil 1
ektir 1
fil 1
gönderir 1
katkısı 1
koymuştur 1
ordusunda 1
ularına 1
ışlardı 1
25@@ 0.9408513791318132
Abdülaziz 1
Bangladeş 1
ansız 1
atların 1
duğundan 1
dönük 1
ecisi 1
geçirir 1
kabaca 1
okuluna 1
süslem@@ 1
tedbir@@ 1
ıs 1
Abdurrahman 1
Amy 1
Hot@@ 1
Sanc@@ 1
albüme 1
amin@@ 1
birliklerini 1
kentindeki 1
lit 0.7975839554388197
manında 1
ure 0.288541064189427
urg@@ 1
yetkis@@ 1
üzerindedir 1
Cerr@@ 1
GSYİH 1
başarıya 1
bizim 1
dostu 1
konulu 1
oca 1
sürdürül@@ 1
çiftlik 1
Geçidi 1
atmış 1
değerler 1
espor 1
konumda 1
undu 1
Reh@@ 1
ania 0.8653635489029086
domuz 1
fantastik 1
kriz 1
lia 0.9748240933489819
oturan 1
yasaları 1
çevrilmiştir 1
AT 0.9297364921602145
Lap@@ 1
Old 0.3061557169243804
Single 0.800094894731329
artmıştır 1
danışmanlık 1
daydı 1
endişe 1
mir 1
oyların 1
çıkard@@ 1
Julius 1
TP 1
alıcı 1
cılığı 1
imsel 1
iğin 1
manga 1
pta 1
Pul@@ 1
Rag@@ 1
böbrek 1
getirilmiş 1
geçirmiş 1
kişileri 1
saptan@@ 1
sağlanması 1
skaya 1
sonras@@ 1
tör 1
Matthew 0.8844747769178954
birey 1
derleme 1
laboratuvar@@ 1
tarafsız 1
teoremi 1
toplumu 1
vilayet@@ 1
yitirdi 1
8,@@ 1
War 0.0758713276256574
aton 1
düşünülür 1
elenmiş 1
istis@@ 1
kel 0.7872625663021445
Ülkede 1
İng 1
24@@ 0.8397704489230718
Motor@@ 1
cüce 1
endüstri 1
kaplayan 1
polis@@ 1
çöl@@ 1
Giorgi 1
Koy@@ 1
US@@ 0.5992669908383785
duvarları 1
dığına 1
kapit@@ 1
tanık 1
türetilmiştir 1
çeşitlilik 1
1866 0.4901606404224235
And 0.5363776346447262
Sag@@ 1
alanların 1
hun 1
merdiven@@ 1
ografisi 1
uzlaş@@ 1
Nav@@ 1
Nö@@ 1
alkol@@ 1
atlama 1
edilecek 1
old 0.10659761332383601
tamamlanmıştır 1
verecek 1
yöneldi 1
Brooklyn 0.8000777236649197
Kansas 0.48541563520237313
alik 1
bilimleri 1
etmem@@ 1
geçişi 1
imal 1
konsey@@ 1
kıv@@ 1
lon 1
metrosu 1
rüy@@ 1
Catherine 0.7399670805115919
Gizli 1
Tebriz 1
dönemdeki 1
edildiğinde 1
gezeg@@ 1
koleksiyonu 1
sözleşmesini 1
çevrildi 1
Marc 0.7185083118535301
bahsedil@@ 1
ecz@@ 1
gizemli 1
kalmaya 1
törü 1
Kanalı 1
Okyanus 1
Union 0.11361725667600274
Utah 0.842620024981236
açılır 1
beklenmedik 1
filmiyle 1
Moğollar 1
Süt@@ 1
dale 0.7714532308283609
filmlerin 1
iss@@ 0.4728683562823766
kızıdır 1
kızıl@@ 1
ū@@ 0.9438109158248108
Copa 0.4188944660811104
Renault 1
Rev@@ 0.9541237845803902
Sonic 1
Taraf@@ 1
bıraktığı 1
gener@@ 0.7570779823413123
klor@@ 1
pes 0.8393547745282096
tin@@ 0.9573390549726476
usi 1
çikolata 1
Aliyev 1
Eur@@ 1
Veri 1
dönüşmüştür 1
hastane 1
kalmayı 1
kör 1
ışları 1
Clark 0.6070244817229329
Eleştiriler 1
Fort 0.31927756532879187
Güç 1
Harbiye 1
arz 1
dosy@@ 1
ileş@@ 1
çalı 1
Dream 1
Mimar@@ 1
Port 0.4063644788550145
alındığı 1
dahili 1
güvence 1
haklar 1
imal@@ 1
irad@@ 1
sis 1
tepkiler 1
yakalandı 1
Cruz 0.5826346630492157
Teş@@ 1
aja 1
alık@@ 1
benin 1
bulunmak 1
geni 1
göstermiş 1
gın@@ 1
hocası 1
ildiğinde 1
imparatorluğun 1
şarkıya 1
Hes@@ 1
bilginin 1
gelince 1
ibn 1
karasal 1
yavr@@ 1
çoğunluğunu 1
ödülleri 1
ვ@@ 1
Oklahoma 0.6853395142081222
alarındaki 1
almaktaydı 1
fırlatma 1
gruplara 1
karşılaşır 1
konumunda 1
kuvvetlerini 1
propaganda 1
é@@ 0.14965303712202901
eleridir 1
ürünlerin 1
Albümü 1
Bizanslılar 1
Nehir 1
Nis@@ 1
evliliği 1
karışık@@ 1
kayaç@@ 1
maliyeti 1
mantık 1
paylaştı 1
programın 1
yararlı 1
çağda 1
İlkokulu 1
bec@@ 1
bilimler 1
tema 0.8215078967386432
terimdir 1
toplamak 1
Şevket 1
Cey@@ 1
Kıl@@ 1
belirtmektedir 1
kampanya 1
kusur@@ 1
lığıyla 1
yarışmasına 1
İleri 1
M.S. 1
alize 1
asyonuna 1
başrollerinde 1
dolay@@ 1
fu 1
gam@@ 1
lakab@@ 1
laşmış 1
luy@@ 1
oluk 1
âde 1
17@@ 0.7684874166184028
Dallas 0.762591229889122
afi 1
aran@@ 1
dalda 1
olmadığından 1
reform 0.7468177620286813
yuvar@@ 1
ī@@ 0.8533933196222153
ışa 1
dez@@ 1
dî 1
eridir 1
gönderme 1
ibadet 1
icilik 1
katılımı 1
plerine 1
salg@@ 1
yürüyüş 1
Üsküp 1
çapta 1
çeviri 1
üçgen 1
Kontrol 1
Toplamda 1
biz 1
otom@@ 1
yaral@@ 1
çaldı 1
Parç@@ 1
kararla 1
mazlar 1
semt 1
sim 1
zinciri 1
Fatma 1
Performansı 1
Power 0.4917772226422443
görüşlerini 1
huku@@ 1
ikan 1
kald@@ 1
mun 1
yaklaşımı 1
yiz 1
çığ@@ 1
Fransızlar 1
Maked@@ 1
birbirini 1
okuldan 1
rat 0.5309943777029728
sürecini 1
takvim@@ 1
tükenmiş 1
‭ 1
Nic@@ 1
Toplum 1
cı@@ 1
nok@@ 1
sunmuştur 1
Ian 0.9024091091339268
Karag@@ 1
Oluş@@ 1
Ortalama 1
Phoenix 0.9862870092079655
Series 0.28410769780041395
UN@@ 0.7266843768878899
coğrafya 1
disiplin@@ 1
hen@@ 1
kaybettiği 1
sözler 1
süvar@@ 1
toplayan 1
Apollo 1
Digital 0.8274019721515298
Lan@@ 0.8109140560861515
gah@@ 1
ny@@ 0.8750951633767797
saatte 1
çiftler 1
çubu@@ 1
Cy@@ 0.9782869069047778
Kane 1
NXT 1
Salon 1
basıldı 1
erdir 1
evrim 1
maçtan 1
savaşçı 1
tz 1
ısındaki 1
Bulgar@@ 1
aydın 1
dy@@ 1
fat 1
koruması 1
uğuna 1
1869 0.6116537621735139
Gary 0.8365783728364808
Grek 1
biç@@ 1
entelektüel 1
gelmesiyle 1
gerçekleştiren 1
him 0.04051328348733947
ji@@ 1
ua 0.5894537181525469
zon 1
üyeler 1
ımlarının 1
Darwin 1
Mirza 1
Nan@@ 1
ain@@ 0.5291560972706633
hava@@ 1
hum@@ 0.9011807000899325
konus@@ 1
korkunç 1
olanları 1
saati 1
yanl@@ 1
yıllığına 1
ölümüyle 1
Kadir 1
ake 0.7387620830555209
bilgisay@@ 1
bulgular 1
bulut 1
duyla 1
nek 1
seçimde 1
Andy 0.8195670837788792
Ed 1
Fikret 1
Nova 0.8850524683321169
Sw@@ 0.616289570322083
bert 0.5752896602273756
dükleri 1
ettiğinde 1
konuma 1
Bayramı 1
Beach 0.45149652505329874
Co 0.4307582110908904
Ort@@ 1
Tıva 1
ilişkilerin 1
ilişkiye 1
lanmasını 1
melerde 1
ovo 1
projeleri 1
Zar@@ 1
cid@@ 1
dah@@ 1
geliştirmeye 1
icus 1
meşe 1
opo@@ 1
sığ 1
urt@@ 1
Kli@@ 1
Sean 1
Van@@ 1
anna 1
ars 0.33508633815281147
ayına 1
deney 1
eroz@@ 1
eşya 1
konak 1
manastır 1
parçalan@@ 1
seramik 1
yatan 1
yayılmış 1
zo@@ 0.894845625065654
zırh 1
Öğretmen 1
İler@@ 1
Kati@@ 1
basketbolcu 1
enfekte 1
izley@@ 1
ya@@ 1
ördür 1
Philippe 0.5824438559678214
Pon@@ 0.7589767561156315
Tul@@ 1
görebil@@ 1
muharebe@@ 1
tanıma 1
yenler 1
ödüle 1
İttihat 1
1200 1
Bou@@ 0.48911267907078965
Like 0.49240137818379703
Platon 1
daima 1
doğruladı 1
egemenliğine 1
geliştirdiği 1
kimsenin 1
kuvvetlerine 1
psikiy@@ 1
sesini 1
yapacak 1
şeye 1
Ayı 1
Finalde 1
Jap@@ 1
Luke 1
ayd@@ 1
başlangıc@@ 1
bölgesidir 1
davranışları 1
düşüktür 1
ente 0.23988610732516233
gram 1
nihayet 1
normalde 1
savaştı 1
LE@@ 1
baharında 1
diyor 1
dondur@@ 1
ecilik 1
havalimanı 1
lac@@ 1
laştırma 1
oluşum 1
sch@@ 0.12153432688308251
âşık 1
ürlük@@ 1
Şii 1
ISO 1
KKTC 1
Karam@@ 1
Peş@@ 1
Tev@@ 1
dokul@@ 1
kentte 1
sanatları 1
savaşlar 1
tabloda 1
İşte 1
Dinamo 1
Peterburg 1
Ramazan 1
ary@@ 1
besi 1
elinin 1
fün@@ 1
günlerinde 1
hastalıklar 1
zin 1
Got@@ 1
Gul@@ 1
Tün@@ 1
bağlanan 1
başbakanlık 1
cismin 1
dışarıdan 1
hanedanı 1
lisans@@ 1
makineli 1
milletvekilliği 1
mutfağ@@ 1
sendik@@ 1
Colorado 0.5012271438929053
Hızlı 1
Lag@@ 0.9586596894120181
bilgilerin 1
bölgedir 1
ekstr@@ 1
glik@@ 1
mikro 1
pos 1
Seul 1
basıncı 1
kurallar 1
otomobil@@ 1
yükü 1
Dean 0.7618124348241997
Eleştir@@ 1
Giriş@@ 1
Valley 0.281454887449472
Zel@@ 1
doktoru 1
eklenen 1
masız 1
yapmıştı 1
Rab@@ 0.969910457328512
akların 1
değin@@ 1
kun@@ 1
simetr@@ 1
taya 1
termal 1
450 1
Avcı 1
Katliamı 1
Kentin 1
ats@@ 1
farkl@@ 1
saldırgan 1
uydur@@ 1
vo@@ 0.638069376025223
yayıncı 1
şarkısıdır 1
Donanma 1
Dünyada 1
Journal 0.4043542393660982
Karabük 1
Kons@@ 1
Mot@@ 0.8203700911627421
cidir 1
geldiler 1
kampanyası 1
kavga 1
müziğin 1
soğut@@ 1
tıktan 1
ulaşıl@@ 1
utul@@ 1
ლ@@ 1
Olay 1
Toyota 1
atmak 1
irti@@ 1
kıyısındaki 1
pandemisi 1
tanıştığı 1
tarif@@ 1
tiyatro@@ 1
yg@@ 1
öl 1
Akç@@ 1
Biz@@ 1
Kiril 1
Sadrazam 1
Tig@@ 1
ash@@ 0.5814570474724492
durumdan 1
dünyası 1
gene 0.6942142274909001
kalanı 1
olabilirler 1
uli@@ 0.9535240911334074
Amiral 1
Demirspor 1
Kayserispor 1
Nah@@ 1
Yalnızca 1
değişmektedir 1
escu 1
geçirilen 1
içerdiği 1
markas@@ 1
sanılmaktadır 1
yasadışı 1
çöküş@@ 1
ülkesini 1
üsüdür 1
şirketine 1
Engin 1
Toplul@@ 1
aralığında 1
dönemini 1
esiydi 1
izmi 1
içme 1
yönden 1
9,@@ 1
Kos@@ 0.9514260802688268
MA 0.7706435468394619
Madison 1
Mısırlı 1
Yel@@ 1
dostluk 1
etkiye 1
istasyon 1
istikr@@ 1
kurumlar 1
milletvekilleri 1
planlı 1
türde 1
yakınındaki 1
yönündeki 1
ıldılar 1
Kont 1
MHP 1
Milliyet 1
Sanatları 1
alis@@ 1
istleri 1
prim@@ 0.8950398747906952
tapınak 1
uf 1
Öğrenci 1
Sünni 1
emez@@ 1
komplo 1
konumunu 1
kuts@@ 1
olitik 1
tedarik 1
terci@@ 1
üre 1
21.@@ 1
Pav@@ 1
Serisi 1
Yok@@ 1
amiral 1
pa@@ 0.9352915521889
rejimi 1
Görev 1
Homer 1
Poly@@ 0.9343237734052439
alış@@ 1
bağları 1
bilinç@@ 1
erli 1
eğitime 1
izleyici 1
kalmıştı 1
küçüktür 1
luğundan 1
müziğini 1
Beyrut 1
amayacağı 1
arist@@ 1
edilmeye 1
feminist 1
milyonlarca 1
à 0.004945600242582904
B.@@ 1
Cleveland 0.6938409083355953
Jacob 0.7179387066323912
Kenya 0.9925649222779345
Makedon 1
Sekiz 1
Tipik 1
edildikten 1
emr@@ 1
futbolcul@@ 1
içerisine 1
muz@@ 1
müdür 1
seçilerek 1
sidir 1
çarş@@ 1
Eyal@@ 1
Gam@@ 1
Tang 1
Tatar@@ 1
anlamak 1
boyut 1
danış@@ 1
das 0.013341346146453662
futbolculuk 1
geçerken 1
kül 1
ruhsal 1
sadrazam@@ 1
seviyesine 1
üğün 1
18@@ 0.9680909627645862
Internet 0.4161071097046616
dönemindeki 1
ilikle 1
kolları 1
okullarda 1
organizasyonu 1
teli 1
turist 1
ülüğ@@ 1
şehirden 1
170 1
Geniş 1
Maden 1
Papalık 1
adasında 1
amin 1
endisi 1
kinin 1
ların@@ 1
lâ@@ 1
lüdür 1
otonom 1
puan@@ 1
tarihlerde 1
virüs 1
Gerais 1
Im@@ 0.41801462699522457
Leipzig 0.542636133994793
Meclis@@ 1
Trump 0.726565609830775
dergilerde 1
etmekle 1
işlemler 1
kaybetmiş 1
metni 1
muz 1
ojen@@ 1
punk 1
öğrenimi 1
Kolej 1
Mimari 1
Pak@@ 1
artışı 1
göçebe 1
ier 0.3498761148112712
kadardır 1
sevi@@ 1
şebek@@ 1
Dim@@ 1
Harbi 1
Operasyonu 1
amlar 1
kuralı 1
sefere 1
topraklarda 1
İstiklal 1
Carter 0.7620953710904385
Detroit 0.6327424480643955
Hic@@ 1
SS@@ 1
Yang@@ 1
ahat 1
aleti 1
cüml@@ 1
etab@@ 1
eğiti@@ 1
güce 1
kazand@@ 1
ros 1
simgesi 1
tasarımcısı 1
türden 1
yaratan 1
zil@@ 1
Ajax 1
Esen@@ 1
Hawaii 0.9610036753108511
Pan 0.9042320540810147
Sümer 1
ateşli 1
bırakan 1
faaliyetler 1
girmek 1
görünt@@ 1
müziğinin 1
nar@@ 0.9389294357332728
radyas@@ 1
sî 1
Eg@@ 0.9745007075585993
Fur@@ 1
Mi 1
bolu 1
egemen@@ 1
iminden 1
kullandıkları 1
paket 1
seçilir 1
ue 0.2961804651284392
üyeli@@ 1
Başrol@@ 1
Bilinen 1
Bolivya 1
Esad 1
Story 0.8567745782776643
Vatan 1
`@@ 1
birliktel@@ 1
eyaletin 1
karmaş@@ 1
penaltı 1
yılan 1
Üz@@ 1
Dü@@ 1
alüminyum 1
başvuru 1
bre@@ 0.40867805157925147
civarındadır 1
görmeye 1
liyordu 1
sembolik 1
ticar@@ 1
Sul 1
mesafede 1
uvarı 1
Çukurova 1
Müc@@ 1
arl@@ 1
bulunurlar 1
cevap@@ 1
getirerek 1
harc@@ 1
katılması 1
yanıl@@ 1
yükselir 1
zaferi 1
zeytin 1
zira 1
Ash@@ 0.6897922743967875
Enstit@@ 1
Ortadoğu 1
Radyosu 1
Roberto 1
atörler 1
değiştirmek 1
infaz 1
içindedir 1
klem@@ 1
madeni 1
oksit@@ 1
savaşları 1
sırt 1
ıkçı 1
Ebû 1
Sınır 1
Zek@@ 1
benim@@ 1
mezarı 1
prov@@ 1
reaksiyon 1
satışı 1
sermay@@ 1
stili 1
Blo@@ 1
Darbesi 1
Meb@@ 1
Rachel 1
aviye 1
emekliye 1
görüntüler 1
kıdemli 1
oyunlarında 1
özelliğine 1
ımlara 1
Dun@@ 0.6805841761771816
Lah@@ 1
Lang@@ 0.43564756448677416
Styles 1
aren@@ 1
direnç 1
ekolojik 1
eliler 1
geçim 1
omur@@ 1
şok 1
AD 0.5904919736882569
Başar@@ 1
Erdem 1
Hag@@ 1
Sovyet@@ 1
alp 1
asyonda 1
cay@@ 1
ekle 1
hormon@@ 1
projenin 1
röportaj@@ 1
yav@@ 1
yetenek 1
Anim@@ 1
Senfoni 1
başlan@@ 1
değişti 1
ikiz 1
reddin 1
uğunun 1
çevirisi 1
ıman 1
Bunlara 1
ömür 1
ır. 1
At 0.07215161121043974
Boks 1
açıklaması 1
böylelikle 1
kardeşidir 1
kidir 1
los@@ 1
luların 1
maktadır.@@ 1
oid@@ 1
shi 1
Batt@@ 1
amaçlar 1
dayandır@@ 1
enerjinin 1
enmiştir 1
kütl@@ 1
organ 1
roğlu 1
sakin@@ 1
usal 1
yaşamaktaydı 1
Canlı 1
Faz@@ 1
Sho@@ 0.8092755438473829
pozisyonu 1
toplar 1
yaratmak 1
Çankaya 1
AŞ 1
Miz@@ 1
adli 1
başrollerini 1
lez@@ 1
matr@@ 1
sark@@ 1
televizyonda 1
yükseklik@@ 1
çekmektedir 1
Eskişehirspor 1
Festiv@@ 1
TÜ@@ 1
Yurt 1
amaması 1
caminin 1
kuvve@@ 1
öldüğünü 1
Batum 1
Danıştay 1
Franco 0.8612283962311476
Heyeti 1
eleştirdi 1
ilikte 1
toplulukları 1
tuk@@ 1
Jüri 1
Kaymakam@@ 1
Kuzeybatı 1
Oslo 1
alarıdır 1
bırakmak 1
ex 0.29795474005828937
eşcinsel@@ 1
iyye 1
konfer@@ 1
ps@@ 1
radyol@@ 1
sün@@ 1
yab@@ 1
Ölümünden 1
şansını 1
antrenör 1
açısal 1
filmlerinin 1
karikatür@@ 1
oynayarak 1
senaryosu 1
zev@@ 1
5000 0.9488223696708681
Pic@@ 0.822635625022268
Taliban 1
amadan 1
belirtildi 1
tes 0.14513561941651582
titreş@@ 1
çalışmaların 1
İTÜ 1
Gey@@ 1
Mos@@ 0.6103489234425563
Sis@@ 1
Sözleşmesi 1
bağlantıları 1
düşünen 1
ester 0.7962833819130676
hang@@ 1
yatak 1
yeden 1
yoksun 1
Cooper 0.8499400093756335
Emma 1
Light 0.5838777704053678
atletizm 1
biyle 1
eviz@@ 1
gre@@ 0.8088723686004321
havalim@@ 1
ill 0.3180655196193877
kadınları 1
muhab@@ 1
oph@@ 0.4852788849482162
stan 1
unsurları 1
çıktıktan 1
‬ 1
22.@@ 1
Ara 1
Hakkâri 1
Silva 1
Spike 1
almışlardır 1
ashi 1
ayrımc@@ 1
cada 0.23956071695634965
denetim@@ 1
deplasmanda 1
nefes 1
rat@@ 1
sığır 1
ucusu 1
Şükrü 1
Başarıları 1
balin@@ 1
başlattığı 1
birbirlerini 1
fed@@ 1
kaynaklarında 1
manlık 1
plazma 1
siyas@@ 1
tamir 1
yeğ@@ 1
Geçmiş 1
Rob@@ 0.8502015385640153
avi@@ 0.767115867279276
boşluk 1
düşmüş 1
düşünc@@ 1
itik 1
lemeye 1
oynama 1
reg@@ 0.3993354677388049
tablo@@ 1
çalışmada 1
ömrü 1
İhsan 1
şek 1
Fuarı 1
beraberinde 1
elverişli 1
eşitlik 1
iliyor@@ 1
medir 1
tarl@@ 1
yükseltil@@ 1
şubesi 1
Down 0.8803710276594556
Georges 0.5561696972291089
Juventus 1
ODTÜ 1
etlerini 1
ilhak 1
ium 0.5572178548163268
işleyen 1
kura 1
oranına 1
orijin@@ 1
yaratılan 1
ükl@@ 1
EuroLeague 1
Eyü@@ 1
Jennifer 1
Lej@@ 1
Reg@@ 0.4467898885710706
TV@@ 1
cileri 1
keşfedilen 1
kolaylıkla 1
metreye 1
olmamıştır 1
sıralaması 1
çekilmesi 1
çekirdeği 1
ıklardan 1
duvarı 1
iciye 1
söylenebilir 1
tirler 1
zorlu 1
AK@@ 1
Doğru 1
Senaryo 1
Seyyid 1
alandaki 1
ax 0.6757007838642174
açıklayan 1
devreye 1
direk@@ 1
halkları 1
lendirir 1
ulara 1
Çıkış 1
Tuva 1
akustik 1
bölümüdür 1
daimi 1
dakikasında 1
gösterilmektedir 1
göstermeye 1
lüler 1
sınırlarına 1
Partinin 1
Yaygın 1
arkadaşlarının 1
düşüş 1
ilçede 1
leşti 1
tanımlandı 1
uğrayan 1
çıkınt@@ 1
Prensliği 1
gelişimini 1
ram 1
tığında 1
yönetildi 1
Özbek 1
Hermann 0.5993720305788606
apart@@ 1
chi@@ 0.5404573014940928
deneyimi 1
genişliğinde 1
ilerley@@ 1
popülar@@ 1
tun@@ 1
yarıda 1
Şeytan 1
CO@@ 0.5941935398847427
Küt@@ 1
Moon 0.7854669443101749
Yalçın 1
acılar 1
ag 0.7250672663748502
amino 1
aniye 1
gözet@@ 1
gözleri 1
halkına 1
heykeltıraş 1
itici 1
karşılaştırıldığında 1
mekanizması 1
toplayarak 1
Anti 1
Deney@@ 1
Değir@@ 1
Hüküm@@ 1
Moh@@ 1
\ 0.7522526870878505
als 0.012373727422331827
kazasında 1
tesisi 1
tüketi@@ 1
uğramış 1
yapıda 1
şi@@ 1
მ@@ 1
4.000 1
Kahraman 1
Lat@@ 0.8668097503827253
Saksonya 1
göründü 1
laboratuvar 1
olamadı 1
sürecinin 1
ülkes@@ 1
Daire 1
For 0.09225770971798694
Tuz@@ 1
Tı@@ 1
Var 1
evlidir 1
ilişkiyi 1
madde@@ 1
propagand@@ 1
taze 1
toplandı 1
yetin 1
Alberto 0.8296029511990124
Mang@@ 0.921082146970915
Ofisi 1
RA@@ 0.9770980706167139
Vermont 1
aşıl@@ 1
dâ@@ 1
sakinleri 1
tahtına 1
çözmek 1
Şubesi 1
Dicle 1
Ereğli 1
Open@@ 1
Tank 1
andığında 1
birleştiren 1
boğaz@@ 1
caz@@ 1
dit 0.3157703601858664
oyuncu@@ 1
Basra 1
Kasabanın 1
Museum 0.1577344082181426
Musul 1
Tommy 1
adadır 1
apar@@ 1
belirtmek 1
göndererek 1
ulaşmış 1
yayınları 1
yemeği 1
1862 0.5149241757209786
Kurmay 1
Oyunda 1
cihazları 1
harekât 1
hid 1
leşmesi 1
saniyede 1
yc@@ 0.8085434517296609
Ş 1
Magic 1
Rec@@ 0.6156825521535234
baharda 1
birleşmesi 1
cuk 1
kristal@@ 1
kuruluşlar 1
ölüme 1
İnş@@ 1
ındayken 1
Bart 1
Jefferson 1
Wisconsin 0.47579384113978995
air 0.14766233351629027
ank@@ 1
başlangıcında 1
değerlendirme 1
git 1
kalmak 1
onur 1
örnektir 1
üretiminin 1
Lucas 0.9216859416437984
ikon@@ 1
indeyken 1
rar@@ 1
yaşamının 1
Alternatif 1
Central 0.13850417936098885
Suffolk 1
Tit@@ 1
ayete 1
eşy@@ 1
galibiyet@@ 1
kategoride 1
metod@@ 1
onca 1
parçasını 1
tasavv@@ 1
çalan 1
üretilmektedir 1
ırlı 1
0.000 1
Best@@ 1
Muharebe 1
Spar@@ 1
Stanley 0.6766941215095729
Willow 1
adaları 1
cuya 1
inos 0.7167329988063436
kural 1
yaklaşan 1
Albüm@@ 1
Arapç@@ 1
Dubai 1
Irmağı 1
Nu@@ 0.9129333779674482
Server 1
Yüz 1
abiliyordu 1
biyografik 1
dede 1
dikkat@@ 1
ecik 1
etkiledi 1
göze@@ 1
robot@@ 1
sanatının 1
sebze 1
sürmüş 1
taz@@ 1
zehirli 1
Fal@@ 0.7849640716817089
Git@@ 1
IS@@ 0.7057050583566534
Ny@@ 0.8728333105546761
Point 0.43370570225761745
cher 0.3056240155512651
denetim 1
eyaletindeki 1
eylemleri 1
ikal@@ 1
koloni 1
literatür@@ 1
mahallesinde 1
paraz@@ 1
tamamlay@@ 1
Aconitum 1
Dans 0.14026025228658898
Gelibolu 1
May 0.05675490750851363
Taksim 1
WrestleMania 1
alttakımına 1
faktörler 1
sus 0.047032030991680664
versiyon 1
yazardır 1
Ozan 1
enf@@ 0.5076197671403995
isimlerinden 1
kararg@@ 1
karın 1
ont@@ 0.9469594328978427
reti 1
utu 1
yetenekleri 1
İttifakı 1
ATP 0.9238865801249574
Afr@@ 1
Zagreb 1
alak@@ 1
arke@@ 1
ağzı 1
elçi 1
görüntüleme 1
günler 1
medyada 1
mültec@@ 1
takdir 1
yapısının 1
yapıyordu 1
Cihaz 1
SD@@ 1
cir 1
dahilinde 1
demokras@@ 1
görüşmeler 1
kaldırılmıştır 1
kazandıkları 1
misafir 1
miyordu 1
ışlı 1
Bonn 1
Norfolk 1
aleyhine 1
asıydı 1
atmos@@ 1
başkanının 1
etkilenmiştir 1
gelirler 1
kriter@@ 1
luluğu 1
mor 1
oksid@@ 1
pencere 1
problemi 1
sıfır@@ 1
zamanlarında 1
Atak@@ 1
Ontario 0.3803225660061486
denizaltı 1
hayvanc@@ 1
kronik 1
modelinin 1
yerdir 1
Hastan@@ 1
Kontu 1
değerlendiril@@ 1
kavş@@ 1
kilo 1
kulübüne 1
Thompson 0.6904199757309009
atf@@ 1
borç 1
ihl@@ 1
kadir 1
lıklarına 1
mekan 1
mukav@@ 1
nat@@ 1
oğlunu 1
silahı 1
çıkarken 1
Mississippi 0.6112242683239475
Pavlus 1
alizmin 1
gruplarının 1
imkân 1
kalitesi 1
off@@ 0.5364893519390446
plerinden 1
Marco 0.9403053159413213
Mikro@@ 1
Nelson 0.6524220963685399
anlattığı 1
bant@@ 1
cinin 1
insani 1
mağlubiyet 1
ulaştığı 1
varisi 1
yöneticileri 1
Hek@@ 1
Ma 0.8939618641334973
atanmış 1
galak@@ 1
kavramını 1
kaç 1
saldırısına 1
öngörül@@ 1
Harez@@ 1
Prince 0.284012189253286
Roy 0.65751246366167
Sierra 0.6426452848093702
Somali 1
alanlarının 1
atında 1
cihazı 1
kaptan 1
mahallede 1
meclise 1
modi@@ 1
neye 1
prefektör@@ 1
serisidir 1
sevilen 1
sten 0.3998827280535148
vadeli 1
yönetmenlik 1
Tip 1
arayüz@@ 1
bağlıyken 1
evliliğinden 1
iks 1
nedenleri 1
reddedildi 1
Çok@@ 1
Comics 0.8169823099261769
Dış@@ 1
Ga@@ 0.811251865058299
Uzak 1
Yazarlar 1
adil 1
amayacak 1
aşama 1
doz@@ 1
ilerledi 1
mevcuttu 1
sağlayarak 1
çidir 1
önerilen 1
anık 1
filmdeki 1
had 0.013094018979579684
keşfi 1
muhaf@@ 1
nesli 1
ovski 1
tarihin 1
örd@@ 1
İşlet@@ 1
şiirler 1
Harun 1
Komit@@ 1
Portakal 1
Sum@@ 0.9446841858369678
Va@@ 1
arlığı 1
dalıdır 1
duyarlı 1
ilahi 1
jik 1
kademeli 1
ogen@@ 1
uzant@@ 1
Cumhuriy@@ 1
Ekrem 1
elektriksel 1
kaplar 1
kağ@@ 1
sistemlerinde 1
yoksul 1
თ@@ 1
AR 0.9580471130780521
alim 1
bağıml@@ 1
edilemez 1
ff 0.4523110729928881
ihtiyaç@@ 1
otobüs@@ 1
rivayet 1
transferi 1
Öyle 1
Arp 1
Manastır 1
Palm 1
adamlarının 1
bitiş@@ 1
krallığı 1
ortalarına 1
rest@@ 1
zer@@ 0.7074186075845803
Ann 0.7167765185190673
Birmingham 0.7255430665449847
Osetya 1
SV 0.8316188336991601
ais 0.3302614500436306
filmini 1
idze 1
nü@@ 1
rod@@ 1
seçimlere 1
ê 1
ölçüm 1
Budizm 1
Hap@@ 1
Mahalle 1
Robinson 0.7035151439757421
geliştirmiştir 1
kalesini 1
mezhe@@ 1
peynir 1
tanım 1
çalışanı 1
çalışırlar 1
ülkelerine 1
İdil 1
1828 0.9447671903168235
Buradan 1
Güven@@ 1
Kırıkkale 1
Lloyd 0.8692267987810901
Vit@@ 1
alya 1
aşın@@ 1
konak@@ 1
köğren@@ 1
nehrin 1
sürücü 1
yürütmektedir 1
çağın 1
Albümdeki 1
Anlaş@@ 1
Bodrum 1
Nevşehir 1
Oktay 1
ailede 1
dışından 1
servisi 1
tersi 1
yaşant@@ 1
çözümü 1
öncel@@ 1
Adalı 1
Danny 1
Open 0.22869114730315102
Sergey 1
anlatılmaktadır 1
estr@@ 0.6203206624364233
milyon@@ 1
sözcüğ@@ 1
tutuldu 1
35@@ 0.9792219512166335
Karar@@ 1
alışkan@@ 1
aracılığı 1
araştırmaya 1
döngüsü 1
eng 0.5570287244352696
hiyerarş@@ 1
kimliğini 1
kültüründe 1
larındandır 1
merkezinden 1
üssü 1
CA@@ 0.5658623654641709
amları 1
festival 0.3130009795302611
gay 0.9220116549939347
kapsay@@ 1
katkıları 1
kaçmak 1
Güçlü 1
Kost@@ 1
düny@@ 1
keşfetti 1
konumlandır@@ 1
maca 1
muhafazakâr 1
sesleri 1
turnuvası 1
yansıtan 1
başkentidir 1
eth 0.9376331086006018
fikirleri 1
gökad@@ 1
hanedir 1
lerince 1
plara 1
tanıyan 1
ürlük 1
Şişli 1
Gold 0.36597427436842206
büyüklük@@ 1
edince 1
harita 1
kenin 1
müzesi 1
unvanına 1
Dalı 1
Gro@@ 0.6559072151404223
Höyük 1
Muhafız 1
dediği 1
denklemi 1
dul 1
dy 0.49969702744949546
getirilmesi 1
izlenen 1
metli 1
omu 1
uvar 1
yapımına 1
yenilgi 1
Şarkısı 1
Fire 0.6096208163477138
Geçmişi 1
geçirdiler 1
ihracat 1
okullar 1
çeşme 1
Atlético 1
Bon 1
Bruno 0.9114658514015761
Göktürk 1
Men 0.3197528236283086
Ortaçağ 1
Stuttgart 0.6986973512636562
ary 0.16959346556465776
esinlen@@ 1
iştir@@ 1
komşudur 1
merkezî 1
pus@@ 1
sevgi 1
sic@@ 1
telefonu 1
ucak 1
yoldan 1
ë@@ 1
Bod@@ 0.7798405056404123
Global 0.6048089428607989
Rodos 1
Sports 0.3450897257753065
air@@ 0.42252737249569505
que 0.005085214160823798
talan 1
30.000 1
Düny@@ 1
Kimyasal 1
ille 0.4436133036515386
lıktır 1
sendrom@@ 1
taşınan 1
teklifini 1
Başkent 1
Kentucky 0.5471295768763199
Vatikan 1
Yaprak@@ 1
açlık 1
bozun@@ 1
mab@@ 1
olaylara 1
pasaport 1
sayıdaki 1
sektörü 1
teşhis 1
örgütlen@@ 1
İy@@ 1
Kari@@ 1
Mısır@@ 1
Sonradan 1
arkasındaki 1
görünce 1
görünümü 1
isimlerin 1
kaps@@ 1
malarla 1
mamak 1
milletvekil@@ 1
more 0.029764961952898968
yapılan@@ 1
ıh 1
ılım 1
Yarışmanın 1
dönmüş 1
heyet@@ 1
kışın 1
lenin 1
madalyanın 1
manzar@@ 1
tören 1
yazıt@@ 1
yüzünün 1
çifti 1
Danış@@ 1
Dum@@ 1
Laz 1
Osaka 1
Vegas 0.8891128395697073
acağından 1
aranj@@ 1
ağlar 1
bölünmüş 1
düğün 1
menlerin 1
olanağı 1
öğretmenliği 1
Büyükel@@ 1
Parker 0.7994080685721993
aralığı 1
ensi@@ 1
ern@@ 0.5008618151826932
eth@@ 0.6681969660690247
house 0.09759950638774187
lisansını 1
mevki@@ 1
tarzını 1
tiyor 1
vik 1
öm@@ 1
Hükümet 1
Koca 1
Neolitik 1
Orton 1
Safevi 1
bulmaya 1
editörü 1
erkeklerde 1
esnek 1
inancı 1
karakteriyle 1
mermi 1
onay 1
Il 0.022376531112508286
Kanuni 1
Muhareb@@ 1
Servisi 1
aray 1
askıya 1
düştüğü 1
etmekteydi 1
hizmetine 1
itin 1
içki 1
ris 1
yanlışlıkla 1
yanıt@@ 1
Angola 1
Kong@@ 1
Plan 0.5841349377083622
alet@@ 1
amet 1
belgeler 1
hafıza 1
ilişkisini 1
kelimenin 1
personeli 1
rolleri 1
sürdürdüğü 1
sürtün@@ 1
urun 1
yasaklandı 1
zik@@ 1
örgütün 1
ıh@@ 1
26.@@ 1
AV@@ 1
Karanlık 1
basketbol@@ 1
bulunduran 1
bölgelerin 1
diklerinde 1
gayri 1
geleceği 1
hareketine 1
ilaçlar 1
kaptanı 1
lanmaya 1
nova 1
raz@@ 1
ska 1
vermişti 1
Çiçek 1
Fas@@ 1
ace 0.46279252501537965
anlatıyor 1
basınc@@ 1
galer@@ 1
ilkesi 1
kullanımının 1
lılığı 1
memeli 1
paketi 1
seti 1
slogan@@ 1
yönetmenliğinde 1
çalışıyordu 1
Coca 1
karşıt 1
mezunu 1
nihayetinde 1
oa 0.6888011771668288
sanatçıları 1
toplumda 1
vektör 1
yazarlık 1
yetki 1
ılırken 1
Başta 1
Der 0.025182480849234502
Usta 1
ameliyat 1
anayasal 1
format@@ 1
ithal 1
müs@@ 1
olana 1
sar 1
takımlarının 1
çağırdı 1
Triple 1
bahsedilen 1
dedi@@ 1
eserinin 1
kaynakların 1
lag@@ 0.6557180214766195
DS 0.866705647983338
Dakota 0.775123051855385
avı 1
dönmek 1
garip 1
mese 1
oluştu 1
yanından 1
yerleşme 1
çıların 1
İstasyon 1
Şev@@ 1
Hekim@@ 1
deh@@ 1
kayg@@ 1
kaçar 1
koltuğ@@ 1
kong@@ 1
müşteri 1
ric@@ 1
seferleri 1
silahları 1
yüksekliğinde 1
ılıman 1
1.0@@ 1
3,5 1
Adil 1
Doğr@@ 1
Reş@@ 1
andıktan 1
bilgiyi 1
binin 1
harap 1
oluyordu 1
sütun 1
sınıfının 1
tanımlanabilir 1
′ 1
Konak 1
Zo@@ 0.895518668406632
alc@@ 1
bilgilere 1
depos@@ 1
komed@@ 1
paz@@ 1
ush@@ 0.906528024440817
İşler 1
Osmanlıca 1
Ron 1
Texas 0.1684109114002582
Yem@@ 1
Yur@@ 1
bilgilendir@@ 1
düşüncesi 1
hekim@@ 1
lat 1
masaüstü 1
mol@@ 0.5298311588279206
müziklerini 1
rey 0.33936759237649844
savunur 1
Öğren@@ 1
çek 1
ığıyla 1
Java 0.9691915173961785
bot 1
dum@@ 1
havuz@@ 1
koyduğu 1
led@@ 1
lıklarının 1
temsilci 1
uti 1
yazın 1
~ 0.9719637763988112
şar@@ 1
Institute 0.15458512906584007
Kak@@ 1
Konfederasyonu 1
Space 0.5434325321860639
cinsiyet@@ 1
hareketle 1
kesil@@ 1
olabilmektedir 1
siyasete 1
söylenmektedir 1
tedavisinde 1
tütün 1
yas 1
yüzeye 1
S.@@ 0.7574766842629341
System 0.2778077758641325
USB 1
arkasından 1
biber 1
iletişim@@ 1
luktan 1
merkeze 1
pamuk 1
paralı 1
çabuk 1
çekilmek 1
çekirdek@@ 1
çökel@@ 1
Balkan@@ 1
Francesco 1
Kurtlar 1
akat@@ 1
aks 1
isten 0.44113793897023723
minimum 0.7620370442169316
sağlandı 1
takımından 1
verirken 1
çarptır@@ 1
37@@ 0.9426362135032403
AB@@ 0.9992375298026885
Alabama 0.5635894009259896
Long@@ 0.5706579138478716
Mağarası 1
Protest@@ 1
Rod@@ 0.8934725380419613
eserde 1
spesifik 1
vekili 1
üretimini 1
2.5 0.9898656413262474
Dec@@ 0.47865948431957867
Hat 1
Type 0.786457757785701
aria 0.3301595309520144
bildirir 1
ire@@ 1
kanunu 1
lamıştı 1
soluk 1
suyla 1
yakındır 1
yerleştirildi 1
ödüllü 1
ʿ@@ 1
Grant 0.6365474778064872
Maryland 0.4931943500648938
Mini 1
dönmesi 1
gus@@ 1
mid@@ 0.7360410427058766
oğlan 1
parçanın 1
Nicolas 0.6035827886565549
birimidir 1
gerisinde 1
istasyonları 1
isyanc@@ 1
sorumluluk 1
tanımlamıştır 1
yazarların 1
efsane 1
kuşağı 1
ledil@@ 1
lezz@@ 1
muhafız@@ 1
och@@ 0.4950739056916586
Duv@@ 1
Graham 0.712125544629979
Solo 1
dul@@ 1
haberler 1
kabine 1
mektubu 1
oyuncularından 1
sınıflandırma 1
önderliğindeki 1
Anton 0.7432993095488747
Cenazesi 1
Just 0.722888038827126
Sebastian 1
Yakası 1
Yarış 1
asları 1
basılmıştır 1
elt@@ 1
hekim 1
romanın 1
tezi 1
Edge 1
Nürnberg 1
akınt@@ 1
başlarda 1
duğ@@ 1
geb@@ 0.5804891091830691
kaldırmak 1
osman@@ 1
parçacıklar 1
pli 1
rim@@ 1
riyordu 1
Diren@@ 1
Serinin 1
Tapınak 1
diktatör@@ 1
etmenin 1
ihtil@@ 1
mobil@@ 1
ondo 1
ortada 1
tartışmalara 1
törenle 1
60@@ 1
Ala@@ 1
Herbert 0.6451076601874215
Kop@@ 1
albümdeki 1
asta 1
binden 1
gelişmekte 1
gitmeye 1
hayv@@ 1
kurt@@ 1
kurulmasını 1
rütbesi 1
tazminat 1
tutuklu 1
çinin 1
Şampiyonasında 1
Academy 0.16439473350485825
Adriyatik 1
Planı 1
Zira 1
esel 1
kazasına 1
olmalarına 1
seslendirilmiştir 1
strateji 1
vr@@ 1
ılarıdır 1
AN 1
ath 0.42920266346238795
devasa 1
entegras@@ 1
gey 1
izde 1
tahri@@ 1
şehirdeki 1
135 1
Azerice 1
Dah@@ 1
Faik 1
Ju@@ 0.5821559101185247
ksal 1
makaleler 1
mineral 1
serileri 1
tamamlanmış 1
varlığına 1
yağmur@@ 1
yığ@@ 1
ıcıların 1
AFC 1
Ball@@ 0.6625321361438461
Clara 1
Rey@@ 1
Sof@@ 1
TH@@ 1
Toprak@@ 1
Yab@@ 1
başlanmış 1
eleştirmeni 1
iyon 1
kesinti@@ 1
nakliye 1
rejim 1
salon 1
vektör@@ 1
versiyonunu 1
öt@@ 1
Georg 0.39648032328539723
etkisinin 1
gazetenin 1
kaçmaya 1
mide 1
stüdyol@@ 1
yıllardır 1
Baron 0.6152662720827146
New@@ 0.5819500197254011
Truva 1
demli 1
etidir 1
işçiler 1
Altyapı 1
Artistik 1
Ortak@@ 1
Tör@@ 1
adanmış 1
alanlara 1
devrel@@ 1
eksiyon@@ 1
nem@@ 1
sürecine 1
tesi 1
varan 1
yayılmıştır 1
ürünün 1
şekilleri 1
Burg@@ 0.8192631924703061
Fred 0.727002866211551
X. 1
cunun 1
hakem@@ 1
katılımını 1
listeye 1
loji 1
olgul@@ 1
pot@@ 0.8094780139778796
sürpriz 1
çatısı 1
Madde 1
Melek 1
Shane 1
Stewart 0.6483100326353654
anlaşılır 1
ason 1
bitkilerin 1
büyükelçi 1
farkına 1
içeriyor 1
karşılay@@ 1
sif 1
verilerin 1
öp@@ 1
üni@@ 1
Akçak@@ 1
Ork@@ 1
aliy@@ 1
aşağıl@@ 1
davul 1
edilmesinden 1
ellen@@ 1
hareketler 1
icidir 1
lazer 1
lerse 1
makineleri 1
prosedür@@ 1
vaftiz 1
yarısını 1
şartlar 1
şen 1
Denizlispor 1
Fiat 1
Nok@@ 1
dün@@ 1
işlerine 1
konuyu 1
ron@@ 1
tabaka 1
tabanı 1
temalı 1
şen@@ 1
Gençliği 1
Harold 0.9246246482980741
Nin@@ 1
Saldırı 1
ceh@@ 1
inceye 1
kapasitesine 1
low 0.1462515151039036
sabahı 1
tron@@ 1
yapısında 1
çıktığında 1
özür 1
Big@@ 1
Iowa 0.49767676965252006
Marka 1
Yönet@@ 1
ekibinin 1
evrimsel 1
gündüz 1
kabl@@ 1
medres@@ 1
mesleki 1
vücudun 1
İnce 1
Endeksi 1
Monte 0.7313974010720481
UTC 1
Yamaç 1
bileşik 1
boz 1
formülü 1
genişleme 1
him@@ 1
ihtimali 1
ingen 0.3096759773801529
int@@ 0.5452643004098865
itme 1
okyan@@ 1
reh@@ 1
sef@@ 1
sürec@@ 1
yarı@@ 1
în 1
Araştırmalar 1
Arg@@ 1
Bana 1
End 0.6670387768501269
Magazine 0.5083403661878712
didae 1
galaks@@ 1
istatisti@@ 1
ligden 1
övgü@@ 1
şüpheli 1
750 1
Dragon 0.9906408151473767
Ec@@ 1
Laura 0.8960919024706592
daş 1
karara 1
sonuçlarını 1
sırayla 1
zinc@@ 1
Çarş@@ 1
çalmaya 1
İtalyan@@ 1
Görevleri 1
Mexico 0.22776390684401465
Neil 0.9191710094491286
Sevilla 1
aralarındaki 1
fizi@@ 1
kaynaklardan 1
memur 1
ny 0.48231589840707756
part@@ 1
taşıyıcı 1
tev@@ 1
yasının 1
án 0.21223684959918848
Kud@@ 1
Master 0.37590555225926675
akımının 1
eka 1
ellik 1
gitaristi 1
https 1
kek@@ 1
kıran 1
malzemesi 1
mutfak 1
sonbaharında 1
tarafın 1
ömürlü 1
ılardır 1
Gag@@ 1
Tunc@@ 1
Vakıf@@ 1
bire@@ 1
desteklemektedir 1
dinin 1
istatistiksel 1
patlayıcı 1
teh@@ 1
uzanmaktadır 1
Andreas 0.7990995867962308
Bulvarı 1
Hok@@ 1
Net@@ 1
Oregon 0.5162703142935295
Pri@@ 0.6469648748796769
Venüs 1
Vis@@ 0.7605897425975191
ess 0.2833492775255684
güncellem@@ 1
illerin 1
işgaline 1
korumaya 1
tur.@@ 1
zer 0.5923208745878499
Aristoteles 1
Başarılı 1
Evrensel 1
Iron 0.7310642025558678
Vide@@ 1
akar 1
aktivist 1
aşağıya 1
finin 1
imm@@ 1
ipu@@ 1
kendiliğinden 1
kuruluşunun 1
ocu 1
tler 1
tutarlı 1
vili 1
ıtım 1
α 0.6073568920675233
Inter@@ 0.2299208548540738
Komedi 1
asti@@ 1
fay@@ 1
uçan 1
veriyor 1
worth 0.36910891207268626
Önceleri 1
şöval@@ 1
Diyar@@ 1
Luk@@ 1
Memlû@@ 1
başlamasıyla 1
dünyaca 1
gede 1
halife 1
işten 1
üstünlük 1
103 1
Düşük 1
IC 0.7289317942371687
alları 1
ayrılmak 1
enter@@ 1
etap 1
menaj@@ 1
nh@@ 0.5193283308719548
omurg@@ 1
oriye 1
oshi 1
ustası 1
Afgan 1
Fame 0.5327546831366164
Kırgız 1
astronom@@ 1
biçimleri 1
eylemi 1
gerçeği 1
hayatın 1
kayalık 1
oluşmaktaydı 1
oynad@@ 1
topladığı 1
uyan 1
uyguladığı 1
yeten@@ 1
II.@@ 1
Koordin@@ 1
Leonardo 1
Maurice 0.5560637296760901
Morris 0.7302709245936192
Süper@@ 1
Tarık 1
Thymus 1
aer@@ 0.8542888522917232
gözle 1
hiç@@ 1
kariyer@@ 1
oluşturulması 1
org@@ 1
yönetmiştir 1
Çiz@@ 1
ó 0.08378374677433824
1856 0.5899448939738446
Abraham 0.8227991333765147
Pink 1
Raz@@ 1
binaları 1
biçim 1
femin@@ 1
haç 1
hektarlık 1
ih 1
kanalları 1
kos 1
lamb@@ 1
onlarca 1
piskoposu 1
tarafındaki 1
vakıf 1
üyor@@ 1
İncel@@ 1
Adam@@ 1
Bilge 1
Dergi 1
MB 1
Shi@@ 0.7384493026901058
Yener 1
bkz 1
elemelerinde 1
enlere 1
gruplardan 1
pasaport@@ 1
tutun@@ 1
ulaşımı 1
usulü 1
çlar 1
öğrencilere 1
1,1 1
Galiçya 1
Hus@@ 0.9518810149723638
Paraguay 1
Salvador 0.6983557286763248
aht 1
bulunmaz 1
evcil 1
geçirmeye 1
neş@@ 1
oe 0.9269120052148963
pas 0.050535446963485685
sahaya 1
sem 1
yapılmasına 1
yeteneğini 1
ıştır.@@ 1
Day@@ 1
Hon@@ 0.7523075678864843
Hristiyanlar 1
istisn@@ 1
karakterinin 1
lor@@ 1
miyor 1
poz@@ 1
yerlerinden 1
Aston 1
Ray@@ 1
Ural 1
alla 1
düzenlemesi 1
ekibin 1
iklere 1
korunan 1
ock 0.5230667996565815
peş@@ 1
zeka 1
çekmeye 1
çocuklarının 1
Bet@@ 0.8010433900194434
Hotel 0.4046900272876216
Rocky 1
atür@@ 1
düzenlenir 1
edebiyatında 1
eşdeğer 1
kazanması 1
nük@@ 1
resimler 1
tanışır 1
Art@@ 1
Bus@@ 0.6206062702624301
Güncel 1
Justinianus 1
Karaman@@ 1
Panama 1
Stein@@ 0.3780899522132475
Warren 0.7817012663528006
aşları 1
cek@@ 1
eledi 1
girişimleri 1
ideoloj@@ 1
ojik 1
uyku 1
çil@@ 1
öldürülür 1
Bahçesi 1
Galerisi 1
Güven 1
Punk 1
Sic@@ 1
atas@@ 1
bası 1
dip 1
götürür 1
ihmal 1
imsi 1
kalkınma 1
onayladı 1
Özdemir 1
çuk@@ 1
1784 1
Kullanım 1
Kıbrıslı 1
Lozan 1
Parlament@@ 1
arayüzü 1
bütçe 1
cor@@ 0.1814763993186669
garanti 1
olojiye 1
tüz@@ 1
yardım@@ 1
İb@@ 1
AG@@ 1
anoğlu 1
bilgisayarlar 1
harika 1
hül@@ 1
okulları 1
olgun@@ 1
yetmezliği 1
zorladı 1
öğüt@@ 1
Emirlikleri 1
Om@@ 1
aramaya 1
asim@@ 1
bitti 1
bölgelerini 1
dat@@ 1
dillerde 1
işletilen 1
kayıplar 1
kurallarına 1
oth@@ 0.5097176360192323
tor 0.34359795413899014
yerleştirilmiş 1
BMW 1
CBS 0.6619937220873158
Kötü 1
aur@@ 0.6454302166139807
dağıldı 1
dedek@@ 1
dekor@@ 1
edilirken 1
faktör 1
formatında 1
gerilim@@ 1
iat 1
kültürünü 1
mevz@@ 1
motorları 1
pasaportu 1
pros@@ 1
Çar 1
çekerek 1
çiftin 1
Cook 0.8212195705691114
NBC 0.7213496920579213
analitik 1
anov 1
hanesi 1
inski 1
kadına 1
kayıtlara 1
kemer@@ 1
sahneleri 1
soyg@@ 1
tos 0.431967804168592
zı 1
çıktılar 1
Geliştir@@ 1
Uyg@@ 1
Yarışmada 1
amo@@ 0.9023436960989972
başını 1
hatalı 1
istenilen 1
kuşak 1
ledildi 1
makamı 1
teorisinin 1
topluluklar 1
yapabil@@ 1
çalışmalarından 1
Alay 1
Kraliçesi 1
emper@@ 1
itz 0.34551542327690526
kali@@ 1
kulüpler@@ 1
kurutul@@ 1
köpeği 1
malarıyla 1
omor@@ 1
organları 1
perspek@@ 1
sırası 1
çekimsel 1
Bergama 1
Glenn 1
Jar@@ 0.8562507654306356
eşinin 1
gerçekleştirmek 1
girmeye 1
oyunlarda 1
parkı 1
tiz 1
uhan 1
yaşlarında 1
yıllarını 1
BK 1
Kamil 1
Sv@@ 1
Tekn@@ 1
arius 1
attaki 1
kült 1
zorluk@@ 1
ა 1
Giz@@ 1
haliyle 1
karaciğer 1
kararlar 1
konut@@ 1
yürüttüğü 1
But@@ 0.9483623848833226
Kayıt 1
Toh@@ 1
Türbesi 1
Zaman@@ 1
afet 1
ateşe 1
attılar 1
aşlar 1
etkinliğinde 1
genişletil@@ 1
kavramının 1
kişiliği 1
kongre 1
köğretim 1
madaly@@ 1
matematik@@ 1
oyunlu 1
Nilüfer 1
hesaplama 1
hızını 1
içecek 1
kuvvetlerin 1
okut@@ 1
olmanın 1
omi 1
yabani 1
ance 0.18641236287923574
araştırması 1
gerçekleştiği 1
komplik@@ 1
mışlar 1
okuyan 1
oro 0.4135150023888158
sipar@@ 1
ığıdır 1
30.@@ 1
Baden 0.5519992693132567
Carey 1
Press 0.4031795495155771
attır 1
bulunurken 1
gündem@@ 1
kubbe 1
mahalle@@ 1
sonuçlan@@ 1
sson 0.8761613635418808
sürümleri 1
sınırlarında 1
ölçü 1
Şube 1
Baby 0.953408370369397
Yahudilere 1
Yücel 1
anlattı 1
ble 0.5404433318791827
engeller 1
kayıtlar 1
koalis@@ 1
kütles@@ 1
röportaj 1
sınırlıdır 1
çıkarılması 1
Dawn 1
Fak@@ 1
Hizmet@@ 1
Science 0.2275861991820116
aslan 1
eliyle 1
herkese 1
hipotez@@ 1
kazasının 1
redde@@ 1
sınırını 1
taşlar 1
çalıştığını 1
ünit@@ 1
İlyas 1
Biliş@@ 1
Brothers 0.6387907993934466
Dört@@ 1
Mehdi 1
Melik@@ 1
Nus@@ 1
Teşkil@@ 1
Ulus 1
Umut 1
Yum@@ 1
anet 1
darı 1
kastedilmiş 1
kültürüne 1
115 1
Ayhan 1
Eyüp 1
Gana 1
Hart 1
birimler 1
madalyası 1
maçının 1
otop@@ 1
projeler 1
sistemlerin 1
temelleri 1
1859 0.5282943937806889
Lid@@ 1
Riv@@ 1
SM 1
Sınıf 1
adeta 1
belirgin@@ 1
detay@@ 1
değil@@ 1
ediliyordu 1
etkilendi 1
fid@@ 1
futbolcusu 1
ipi 1
kasabanın 1
kop 1
numarada 1
soğutma 1
უ@@ 1
Halit 1
Komite 1
açıklanan 1
böcek@@ 1
ekrana 1
gözü 1
Pokémon 1
asil 1
bitirerek 1
dereceye 1
evlili@@ 1
kargo 1
kopy@@ 1
rah@@ 1
tra@@ 0.6984499468029212
öncelikli 1
Dig@@ 1
Gök 1
avar@@ 1
familyadır 1
kurbağ@@ 1
parçacıkların 1
seride 1
side 0.0747934036482785
yayınlanmaktadır 1
çözel@@ 1
Ağaç@@ 1
bale 1
figür 1
hediy@@ 1
istasyonudur 1
lip@@ 1
polisi 1
profes@@ 1
AIDS 1
Albümden 1
Elektr@@ 1
Gaziantepspor 1
Liste 0.18708868752124325
dağları 1
latma 1
tarafa 1
vakit 1
îyye 1
özgür@@ 1
Sınıflandırma 1
ağrı 1
ink@@ 1
işlerinde 1
jet@@ 1
leşir 1
olaya 1
potansiyeli 1
savaşmak 1
sertifika 1
tüsü 1
uya 1
yatak@@ 1
öldükten 1
ışık@@ 1
Güng@@ 1
Hiçbir 1
anlılar 1
bırakıl@@ 1
görüşünü 1
kaybeder 1
kurulmasıyla 1
mü 1
prodük@@ 1
seven 0.16465835514873908
sıfat@@ 1
tamamlamış 1
turuncu 1
zat 1
ıyorsa 1
Elena 1
Kron@@ 1
Two 0.194001118554309
adalar 1
elesi 1
eteklerinde 1
etkileyici 1
kablo 1
memişti 1
ormanları 1
Güre@@ 1
Haber@@ 1
Holmes 1
Lehistan 1
Urfa 1
aze 1
bus 0.28751169589632314
diken@@ 1
dizilerinde 1
esk 1
gazi 1
jin@@ 1
kaldırdı 1
kazanırken 1
korunmuş 1
kut 1
kökenlidir 1
moza@@ 1
ney@@ 1
odasında 1
uzunluğundadır 1
yarısından 1
yasalar 1
örgü@@ 1
Gücü 1
Habsburg 1
N. 0.6801387042498769
Zen@@ 1
dağlar 1
ep 1
filo 1
görevlileri 1
heyeti 1
insana 1
salgın@@ 1
seçeneği 1
Alanya 1
Da 0.24750237446474294
Gay@@ 1
Stadı 1
bulunmam@@ 1
cası 1
diğimiz 1
eliğin 1
kullanmayı 1
mülteci 1
prof@@ 1
çlı 1
İlköğretim 1
Krist@@ 1
Slayer 1
Stüd@@ 1
antrenörü 1
arma 1
azalır 1
elma 1
kâr@@ 1
leh@@ 1
muhas@@ 1
ortaklaşa 1
çerçeve 1
üretime 1
Č@@ 0.9943060120681397
ğimiz 1
Johannes 0.44346770778011807
Koh@@ 1
akç@@ 1
ante@@ 1
antrenör@@ 1
bileşenleri 1
birliklerine 1
dinlen@@ 1
etkis@@ 1
ifa 1
isimle 1
liğ@@ 1
maymun@@ 1
ment 0.18080116830716594
temsil@@ 1
vurgu 1
özelliklerinden 1
ø@@ 0.7580210949939689
ă@@ 0.7584794879411421
1.2 1
Eli@@ 1
Gari@@ 1
atıcı 1
coş@@ 1
kadros@@ 1
kadınlarda 1
problemleri 1
teorisini 1
Abbasi 1
Nicholas 0.7496156510462475
atına 1
avar 1
imle 1
nev@@ 1
niteliği 1
çapı 1
ısrar 1
Başsav@@ 1
Sky 0.7380483506388458
Tapın@@ 1
alakalı 1
iliydi 1
kaynaklarının 1
klavye 1
leştiril@@ 1
nesneler 1
ortaklık 1
partilerin 1
parçaların 1
sporcular 1
şampiyonluğa 1
Aktif 1
Cinay@@ 1
Organiz@@ 1
dönüp 1
luklu 1
mene 1
seçme 1
unvan 1
varsayılan 1
yaptırılmıştır 1
yüklem@@ 1
çapındaki 1
öncüsü 1
önündeki 1
ürünlerinin 1
şarkıda 1
August 0.03828402025247016
Belirli 1
Dortmund 1
Sivasspor 1
dernek 1
elerdeki 1
hip@@ 1
hissel@@ 1
inda 1
kılav@@ 1
lüğünde 1
m. 0.8714400696211634
onaylandı 1
vadi 1
üstlenen 1
ē@@ 1
Bahar 1
Homo 1
Women 0.16713838202214454
Yenişehir 1
başarıyı 1
büyükelçisi 1
eciler 1
giyle 1
iPad 1
incelemek 1
kaydedilmiş 1
müddet 1
normal@@ 1
senaryol@@ 1
sevgil@@ 1
sezonlarında 1
yüzeyinde 1
İshak 1
Awards 0.15785300441744857
Bar 0.7084121001726638
Gümrük 1
Kariyerine 1
Lind@@ 0.8693174579893875
Toplumsal 1
değiştirmiştir 1
teker@@ 1
transkrip@@ 1
yerçekimi 1
000 0.18025652468685033
Beylerbeyi 1
Forest 0.4280598793372035
Let 0.8803548767188084
Theatre 0.2746176796904889
Volga 1
Wehrmacht 1
Yüce 1
dizel 1
iklerinin 1
komut 1
koyar 1
kurar 1
taban 1
tanır 1
toprağı 1
çömlek 1
Back 0.710439174248008
Gan@@ 0.9997173349828008
Hep@@ 1
Phil@@ 0.80088133759375
Sahra 1
Songs 0.5419232933824221
buluntul@@ 1
cil 1
hiçbiri 1
leyebilir 1
otor@@ 1
oyunculuğa 1
ruhu 1
tanrıç@@ 1
uğraşan 1
zamanının 1
Eriş@@ 1
Vampire 1
dışişleri 1
esasen 1
gazetecilik 1
isimlerini 1
lıdere 1
savunması 1
sını 1
türünden 1
çizel@@ 1
ölünce 1
şirketlerin 1
IBM 0.9999451974057622
Kontluğu 1
Konyaspor 1
Maj@@ 0.7666224830184627
Otom@@ 1
Sri 0.4672194643294315
ağrısı 1
bitişik 1
boks 1
dat 1
eyal@@ 1
fazlasını 1
köyler 1
liderliğinde 1
mensubu 1
osaurus 1
yeleri 1
Doğan@@ 1
Sürekli 1
azal@@ 1
kalmasına 1
komik 1
reli 1
vesi 1
yayınlandığı 1
yıldızdır 1
zay@@ 1
zincir 1
çalışmasına 1
İtilaf 1
Kürtler 1
Meşrutiyet 1
Süre@@ 1
görünüm 1
saldırıda 1
tabakası 1
Bayrak 1
Kasab@@ 1
Minsk 1
Stat@@ 1
Tap@@ 1
durumları 1
grev@@ 1
lab@@ 0.8773224746614872
merkezlerinden 1
seçmek 1
tutum 1
50.000 1
Akın 1
Eddie 0.9129634990706471
Sait 1
com@@ 0.21859829117123813
ester@@ 1
gürül@@ 1
ilti@@ 1
mülk 1
sınıfına 1
vokal@@ 1
yayl@@ 1
çıkarlar 1
İng@@ 1
ımızın 1
104 1
45@@ 0.9334450304192641
Klas@@ 1
binasının 1
boyn@@ 1
dansçı 1
ideolojik 1
ido 0.29357767459240597
isp@@ 1
karn@@ 1
minar@@ 1
mutlaka 1
omer@@ 1
yapıdır 1
Çoban 1
Öykü 1
çağrısında 1
Berkeley 0.9186504512867916
Ecevit 1
Galata 1
Jin 1
Kendisine 1
Montreal 0.5638210051131767
Nevada 0.8138806812315243
Yaşlı 1
edenler 1
ismin 1
manast@@ 1
topar@@ 1
uygulay@@ 1
yeridir 1
Çet@@ 1
Hentbol 1
Neb@@ 1
Pres@@ 0.46103700058514197
Saraybosna 1
arından 1
ayetler 1
etmektedirler 1
ihtiyaçlarını 1
isar 1
kompleks 1
kullanılmasına 1
sayının 1
ığım 1
ışında 1
Anah@@ 1
Gav@@ 1
Helenistik 1
Hills 0.616166378049566
Him@@ 1
Rudolf 0.6498383565698419
adlarıyla 1
cover 0.24007747758891307
dedesi 1
kazananı 1
yaşıyor 1
çıktığını 1
örün 1
CP 0.981293176605515
Fazıl 1
Kob@@ 1
RT@@ 1
^ 1
antren@@ 1
giderler 1
görüntüsü 1
kadroda 1
olmas@@ 1
salar 1
umu@@ 1
vec@@ 1
yıldızları 1
Edinburgh 0.6041684201242784
Galya 1
Güneş@@ 1
Raf@@ 1
Turner 0.7411912305168495
anlaşmazlık 1
derecesiyle 1
erişimi 1
fotoğrafları 1
gelişmesine 1
gönderilmiştir 1
kelimeler 1
kutup 1
mektedir.@@ 1
opi 1
oyununun 1
yarım@@ 1
yasağı 1
şik@@ 1
Bologna 1
Kurult@@ 1
Yuri 1
gönderilir 1
inanılan 1
katil 1
odaklanan 1
prensi 1
takas 1
uzmanlaş@@ 1
yorlardı 1
çatışmaya 1
1857 0.5513985758768327
Hazine 1
Pos@@ 0.7939402447734732
belirtilir 1
görüşe 1
iğine 1
kesim 1
post 0.14907899534499516
İran@@ 1
34@@ 0.9773878035198029
Henüz 1
Hül@@ 1
faydalı 1
havadan 1
konuyla 1
krom@@ 1
oth 0.939046232662557
prömi@@ 1
sporcul@@ 1
uzayda 1
veli@@ 1
çuluk 1
1849 0.5857553201443075
Barok 1
Italia 0.43392902303540276
Lumia 1
Solomon 1
Topkapı 1
aşır@@ 1
bre 1
ikisini 1
koku 1
kışkırt@@ 1
okuyuc@@ 1
sürekl@@ 1
sıf@@ 1
ularından 1
yiti@@ 1
üzüm@@ 1
antlaşması 1
atri 1
açıklamak 1
başladığını 1
gitmiş 1
karayolu 1
like 0.07145578358820873
moment@@ 1
sit 1
terap@@ 1
yakında 1
yorg@@ 1
240 1
Afyon 1
alışver@@ 1
ayağı 1
boynuz@@ 1
hastanın 1
yapış@@ 1
yendikleri 1
ürete@@ 1
Dak@@ 1
Kitab@@ 1
Lab@@ 0.7460248639708087
Maxwell 1
Peh@@ 1
Sezen 1
Tekin 1
bazılarının 1
devredil@@ 1
edral 1
efekt@@ 1
etmeden 1
haklarının 1
hoşlan@@ 1
ofis 1
pan 1
sakin 1
salgıl@@ 1
seslendirmiştir 1
öldüğünde 1
1831 0.767996866632468
38@@ 0.973517609949638
Dini 1
Nihat 1
Stand@@ 1
Tacikistan 1
ayakkab@@ 1
deneyler 1
değiştiren 1
dişleri 1
evlerinde 1
halindeki 1
kanatlı 1
kötüye 1
liginde 1
uygundur 1
zen@@ 0.8145678001233052
Çarp@@ 1
öğrenen 1
Borussia 1
Hand@@ 0.6346617073813965
Nancy 0.7875683590814092
Sı@@ 1
bestelem@@ 1
cir@@ 1
evlat 1
güneş@@ 1
ilkokul 1
nastik 1
rakam 1
resm@@ 1
toprakların 1
yapabilir 1
Temsilc@@ 1
almadan 1
dağıtımı 1
ende@@ 1
gerektiğine 1
ipek 1
irüs 1
orantılı 1
sağlamaya 1
sebepten 1
sevin@@ 1
şeref@@ 1
Arnold 0.7239254890251081
abiliyor 1
aller@@ 1
codice 0.6368045045574612
grupla 1
ilikleri 1
laborat@@ 1
nov@@ 1
patates 1
îlik 1
Almanların 1
Deli 1
Devrim@@ 1
Filmi 1
Grönland 1
Gönül@@ 1
liderliği 1
nes 0.3803019682525315
otob@@ 1
planlama 1
yenik 1
109 1
1785 1
Fat@@ 1
Ken 0.8675564525465793
able 0.05267076409216875
ağaçları 1
başrol@@ 1
etse 1
kayın@@ 1
oynamak 1
planlanmaktadır 1
yüklen@@ 1
çalışmayı 1
IN@@ 0.5551863904087228
Kasımpaşa 1
Sabri 1
civarı 1
doğru@@ 1
gösterildiği 1
ihtiva 1
ikat@@ 1
imzalayarak 1
leşti@@ 1
receği 1
sancak 1
sürecek 1
yaşanmıştır 1
zıt 1
Gab@@ 0.936256573448744
Giriş 1
Hen@@ 0.757371802484103
Hükû@@ 1
Koş@@ 1
Sonrası 1
ayrış@@ 1
dizisindeki 1
gey@@ 1
gösterileri 1
götürdü 1
indirgen@@ 1
ismidir 1
kalkan 1
kalsiyum 1
olsalar 1
otomotiv 1
sergiler 1
yapacağı 1
ırım 1
ızlık 1
1826 0.8610038149142716
Ruh 1
birliklerin 1
eleştirmen 1
eğinden 1
hakimiyet@@ 1
kaynaklanmaktadır 1
korur 1
lisansı 1
memek 1
meyecek 1
sözleriyle 1
yeteneğine 1
şirketini 1
Hukuku 1
Kazım 1
Ted@@ 1
anj@@ 1
anıt@@ 1
artesi 1
birleşti 1
duğuna 1
enfeksiyon 1
hedefleri 1
nazaran 1
ometrik 1
par 0.0106509144531394
reddeder 1
suçu 1
sızdır 1
İskenderun 1
Baraj 1
GM 1
GPS 1
Gustav 0.7893583256720605
Kalan 1
Kaplan 1
Rok@@ 1
Ted 1
Ulu 1
anılmaya 1
arkasına 1
boyutları 1
ematik 1
gerekirse 1
hukukçu 1
kompleksi 1
parayı 1
prömiyeri 1
yayınc@@ 1
çalışmanın 1
ī 0.9029032719610425
Acı@@ 1
Baker 0.6713805601521199
Eşi 1
Get 1
Hiti@@ 1
Jericho 1
Nice 1
Tedavi 1
dükkân@@ 1
evren 1
gezi 1
gibiydi 1
heyec@@ 1
ith 0.6273734122311417
kazanma 1
rah 1
versiyonları 1
yürürlük@@ 1
çant@@ 1
Cape 0.4560294557846323
Earth 0.31881560823340116
Melbourne 0.4041192280429275
Touch 1
balıkçılık 1
büyüğü 1
dinleyic@@ 1
gösterirler 1
ihtiyacını 1
kaydettiği 1
kiyi 1
medrese 1
1600 1
Churchill 1
Eva 1
Kuran 1
Now 0.598427883171894
Yükse@@ 1
birbirlerinden 1
hazırlandı 1
keş 1
kur 1
memleketi 1
mutfağında 1
ordusuyla 1
ırg@@ 1
Lynch 1
abon@@ 1
devraldı 1
dillerinin 1
ehr 1
indiril@@ 1
sıkış@@ 1
tion 0.2089242340499947
özelliklerinin 1
6.000 1
Ard@@ 1
Haliç 1
Toplant@@ 1
attığını 1
dayken 1
elçisi 1
evliliğini 1
getirilir 1
olurdu 1
taşınması 1
tüketic@@ 1
yaprakları 1
1855 0.56881934880978
CF 1
Eu@@ 1
Gelec@@ 1
Kırk@@ 1
düşündüğü 1
fakt@@ 1
farkında 1
ilgil@@ 1
kaynağıdır 1
kompleks@@ 1
nos 0.4690057792428375
oka 1
seçimlerine 1
talık 1
Çocuklar 1
çel@@ 1
şahıs 1
Acil 1
Alfa 1
Kuruluş@@ 1
Kızı 1
Oda 1
hükümdarlığı 1
liğindedir 1
sözcüğünden 1
varyant@@ 1
yazarak 1
yürüdü 1
çevrilmiş 1
ó@@ 0.28048910864073995
1854 0.5663413101036375
Volkswagen 1
Zeytin@@ 1
anlarını 1
bıç@@ 1
eşsiz 1
itiraz@@ 1
lakabı 1
ors 0.1481983214734113
seçime 1
versiyonunda 1
İly@@ 1
Bakan 1
Barry 0.7120540578834637
Holokost 1
Shield 1
Ve@@ 1
asyonunda 1
direktörlüğünü 1
gördüğünü 1
kaynaklanır 1
köylerinden 1
lisidir 1
menz@@ 1
noktadan 1
olanların 1
otro@@ 1
yayılması 1
çiğ@@ 1
Carol 1
Kuş 1
Ng@@ 0.9343692231690183
Prodük@@ 1
Tenis 1
açmak 1
dalar 1
meyle 1
sarayı 1
temelde 1
çıkacak 1
çıkarmaya 1
Benz 1
Bri@@ 0.5382323459320584
Hell 1
Newcastle 0.9082747310486643
Sur 0.234892301045266
Yö@@ 1
bom@@ 1
doğudan 1
etkilemiştir 1
etmesinden 1
geçirdikten 1
hattında 1
konuldu 1
muazzam 1
oluyor 1
plasti@@ 1
sam 1
traj@@ 1
türünü 1
yavru 1
ışının 1
Bug@@ 1
Cand@@ 1
Devri 1
Diplom@@ 1
Wimbledon 1
aralıklarla 1
girişiminde 1
gücün 1
iddiasıyla 1
ifi 1
ings 0.13979399027176595
insanlık 1
kanunla 1
kesimi 1
kine 1
mizah 1
olas@@ 1
uçaklar 1
çekilmeye 1
birincilik 1
bürün@@ 1
ciz@@ 1
dubl@@ 1
emeyeceğini 1
eron 0.6476593852585514
girebil@@ 1
halef@@ 1
ime@@ 1
isteğiyle 1
kimyas@@ 1
ktü 1
nesnelerin 1
ordur 1
turnuvayı 1
yazmak 1
ılıdır 1
Orange 0.6301589524672326
aktaki 1
alo@@ 1
başarır 1
hükümetin 1
kraliçesi 1
kun 1
kısımda 1
rakibini 1
saniy@@ 1
sey 0.682513922440267
tme 1
yapraklı 1
ziyarete 1
çöl 1
Darül@@ 1
Takımın 1
Yenice 1
Yez@@ 1
adze 1
anam@@ 1
cisim@@ 1
esk@@ 1
landılar 1
lerdendir 1
mensuplar@@ 1
motorlar 1
promos@@ 1
tutulur 1
Collins 0.7671255858231004
Isaac 0.8932506507406175
Mür@@ 1
Sardinya 1
So 0.16991523920402166
Walker 0.5384275887266969
Yüzbaşı 1
def 1
denklem 1
enir 1
kalmaktadır 1
kullanıcıları 1
kulüpleri 1
vizyon@@ 1
yerlerine 1
Çeç@@ 1
BA 0.7247977301668111
BC 0.3064388859620134
Cevdet 1
Sâ@@ 1
Telekom 1
abilirdi 1
atur@@ 1
biliniyor 1
hastalığa 1
kalem 1
kast@@ 1
lir@@ 1
the@@ 0.4355268772021078
yararlanarak 1
ılıkla 1
Bakırköy 1
Ciz@@ 1
Gran@@ 0.5702350682530328
Hayvan 1
Masters 0.6989751321289818
Politi@@ 1
Tarihçi 1
alli@@ 1
anal@@ 1
birliğini 1
bunda 1
imzalı 1
kutu 1
old@@ 1
partisinin 1
verip 1
zirve@@ 1
Hass@@ 1
Nüfusun 1
Ulaştırma 1
Wood 0.594699578428987
adaylık 1
alıntı 1
arayan 1
atılmış 1
durduruldu 1
edilmesinin 1
esel@@ 1
füzyon 1
geçirip 1
hadis 1
meb@@ 1
ory 0.31954567301956743
osuna 1
parçaya 1
restorasyon 1
sorar 1
yapmasını 1
Şirket@@ 1
Deb@@ 0.783652296581658
Fethi 1
Gh@@ 0.7961717408663017
Neo 1
Nero 1
Satranç 1
Whit@@ 0.6035172914693938
bitkisel 1
eğilimi 1
marş@@ 1
taraftarları 1
teşhisi 1
tine 1
Çarlık 1
Bez@@ 1
Ortaköy 1
Sanatçısı 1
Uçuş 1
bakıl@@ 1
bağlamında 1
belirledi 1
belirleyici 1
geometr@@ 1
gor@@ 1
ileti@@ 1
mama 1
neler 1
ortası 1
yıkıl@@ 1
öteki 1
İzzet 1
200@@ 1
E.@@ 0.927934456695962
FI@@ 0.7416382168480496
GNU 1
Karaca@@ 1
Orlando 1
Yalova 1
Ye@@ 1
bacak@@ 1
başlayınca 1
dönüşen 1
endemik 1
ir.@@ 1
kabuğu 1
pon@@ 0.6186970836585157
projesinin 1
uyor@@ 1
Organ@@ 1
Piskopos@@ 1
Taşkent 1
batak@@ 1
dine 1
düzenlenmesi 1
göreceli 1
işlenen 1
kayıtlarına 1
raporu 1
sağlanmaktadır 1
soğan 1
tekerlekli 1
tiv@@ 0.6888456686016221
Çeçen 1
şarkılarının 1
Fi 1
Sahili 1
aktivite 1
aldat@@ 1
aşkı 1
binaların 1
cilt@@ 1
dergide 1
diğerine 1
kaldığını 1
mekani@@ 1
somut 1
tüketici 1
way 0.07507268810468279
İngilizlerin 1
BP 1
Claudius 1
Daimi 1
RT 1
Yılı 1
bölgelerden 1
denetimi 1
düşündü 1
edin 1
evrel@@ 1
okur@@ 1
sade 1
satır@@ 1
voleybol@@ 1
zey@@ 1
zyum 1
çifte 1
Abbas@@ 1
Hind@@ 1
Len@@ 0.899711617305165
Murphy 0.8769447152603057
damar@@ 1
edeceği 1
ers@@ 0.7502174057212413
glu@@ 1
ilçesidir 1
işçilerin 1
klin@@ 1
lif 1
mazsa 1
muhteşem 1
onius 1
pin@@ 0.6148178327356102
prestijli 1
satıl@@ 1
š 1
Halif@@ 1
Ing@@ 0.6128983374093419
açılışı 1
bahş@@ 1
deler 1
ebildi 1
haklı 1
savaşında 1
uka 1
yüzünü 1
çalma 1
Buda 1
Laboratuvarı 1
Medi@@ 0.6535084634246652
Muzaffer 1
Viktor 1
adiye 1
ajans@@ 1
alabilir 1
aran 0.7324219889823682
danışman 1
dönüşümü 1
koro 1
lö@@ 1
non 0.06229847961476067
ulardan 1
vergisi 1
şovunda 1
Tez@@ 1
Yardım 1
emrini 1
etno@@ 1
gerilla 1
gözlemlen@@ 1
hücrelerin 1
kente 1
mindeki 1
yazdır@@ 1
önlemler 1
şeker@@ 1
şeyden 1
Ash 1
Azer@@ 1
KA 1
Sina 1
Vin@@ 0.7793273534012842
devret@@ 1
garnizon@@ 1
hic@@ 1
lesi 1
nan 1
oranının 1
pek@@ 1
seçenek@@ 1
simül@@ 1
tart@@ 1
çilere 1
üyelerine 1
As 0.04552886335974578
Eyy@@ 1
Kütüphan@@ 1
Planck 1
Tiyatr@@ 1
akş@@ 1
alanlarına 1
bombası 1
limit@@ 1
sola 1
ükler 1
Onların 1
Sadık 1
Sarıyer 1
Sonuçta 1
andi 1
aydan 1
birkaç@@ 1
bölünmüştür 1
geceleri 1
geometri 1
ism@@ 1
kitabıdır 1
kullanması 1
kulüpte 1
olmadığına 1
sağlanmıştır 1
teorem@@ 1
uyarı 1
yollarla 1
şerit 1
Akşam 1
Bilimi 1
Koyu 1
Ment@@ 1
benzemektedir 1
bileşeni 1
deneyim 1
divan 1
erkeğin 1
kablosuz 1
kaleye 1
kapağı 1
lob@@ 1
reak@@ 1
roller 1
simetrik 1
yazıldığı 1
yöntemiyle 1
1839 0.6907732429011184
PA 0.5064027282828762
Ton@@ 0.5209671355267476
Ust@@ 1
aline 1
birinden 1
eau 0.15134127167656003
hastalarda 1
kafatası 1
klav@@ 1
koltuk 1
kontrolüne 1
kos@@ 1
leyen@@ 1
nan@@ 1
silin@@ 1
uzaya 1
Bizim 1
Cihazın 1
Jorge 0.5667826401589146
Komşu 1
Ob@@ 0.5856797401443977
ayından 1
işinde 1
kızılötesi 1
miktarlarda 1
sigorta 1
sonuca 1
stad@@ 1
tabur@@ 1
yaşamak 1
Çağatay 1
üretmeye 1
ıdırlar 1
Band 0.1629860643175509
Başlangıç 1
Dağıstan 1
Kardeşi 1
Ladin 1
Seyhan 1
bilinçli 1
iletim 1
izme 1
kurmay 1
mahalleden 1
maçlarına 1
sandal@@ 1
yerleştirilmiştir 1
çalışmasında 1
AL 0.9424490772822871
HIV 1
Kurtar@@ 1
Mozart 1
gezegenin 1
nesnenin 1
olaylardan 1
teşkilatı 1
yöres@@ 1
ziyareti 1
şaşır@@ 1
şüphe 1
1789 0.8775590288716231
Bobby 0.8180144596241081
Part 0.7713915270443937
damar 1
idaresinde 1
istikrarlı 1
kitlesel 1
kore@@ 1
ledikleri 1
oranını 1
söylüyor 1
tanıtılan 1
tuğunu 1
öldürmeye 1
Adapazarı 1
Ensti@@ 1
God 0.28570144880075066
Naziler 1
basketbolcudur 1
olağan 1
ometre 1
renkler 1
toplantıda 1
tutar@@ 1
tüccar 1
yoğunluk 1
Çol@@ 1
̣ 1
Hizmetleri 1
Kuzeydoğu 1
Ordular 1
Rafael 0.7113740585699452
Rizespor 1
Tag 0.36787152160679476
Zaten 1
beler 1
gösteriler 1
isel 1
odun 1
piram@@ 1
yaşlarda 1
şüphelen@@ 1
Bulut 1
HTC 1
Kar 1
Maçın 1
ahmet 1
arasındaydı 1
bür@@ 1
düşünerek 1
nir 1
ocak 1
suçlandı 1
ğer 1
Danışma 1
Gas@@ 0.5451512986470738
Gray 0.7909149374952508
Hük@@ 1
Kalp 1
Lem@@ 0.7084457102203846
Mesela 1
Money 1
Posta 1
Rüş@@ 1
Sö@@ 1
Sümer@@ 1
altyapısı 1
ilkes@@ 1
istatistik@@ 1
kumaş 1
ote 0.3836717924630996
tuttuğu 1
KO@@ 1
Marmar@@ 1
Maur@@ 1
Spears 1
T.@@ 1
adlar 1
arması 1
açıklığı 1
eğitil@@ 1
kay 1
nai@@ 1
sürü 1
vid@@ 1
Madagaskar 1
Oyunu 1
abiliriz 1
aşvili 1
dalgalan@@ 1
eno 0.6836573256390124
gelişti@@ 1
güzer@@ 1
modu 1
ortamlarda 1
sonuçta 1
tüketim 1
çekme 1
ú@@ 0.5974938122602882
102 0.9159399077327435
25.@@ 1
Kuantum 1
Pit@@ 0.8057647809761456
Slam 1
Söy@@ 1
ceği 1
ellik@@ 1
eman@@ 1
günah@@ 1
hibe 1
kabuk 1
keçi 1
koç 1
rağ@@ 1
ılmaz 1
Demirci 1
Hunter 0.7409893059722048
Sed@@ 1
ave@@ 1
azalma 1
back 0.0573986983677443
kampı 1
kararları 1
merid@@ 1
okumak 1
oo 0.7805331355725684
sağlama 1
ılığ@@ 1
е@@ 0.30016125192371834
Clinton 0.7252064018071737
Kolon@@ 1
Louisiana 0.569141413184204
Volkan 1
Wolf 0.6568750136806804
ayırmak 1
bebe@@ 1
elerce 1
geliştiren 1
hali@@ 1
meşgul 1
soykırım 1
tarikat@@ 1
24.@@ 1
Akk@@ 1
Berg@@ 0.32428281321099894
Bugünkü 1
Og@@ 1
Pom@@ 1
Selçuk@@ 1
Sport 0.4078465502993523
Stadyum 1
acaklardır 1
davranışı 1
dikçe 1
duygu 1
egz@@ 1
fırtına 1
hesaplam@@ 1
hisse 1
karın@@ 1
kayak 1
kesintisiz 1
kolej@@ 1
renklidir 1
vurul@@ 1
106 1
Cumhuriyetin 1
Mesut 1
Yeşilyurt 1
bağlantılıdır 1
biyot@@ 1
dalgası 1
desinin 1
merkezindeki 1
morfol@@ 1
oylam@@ 1
ston 0.6249059091652701
Üssü 1
İçinde 1
Erdal 1
Hır@@ 1
Let@@ 1
NE@@ 0.7448315110329383
adağ 1
amaçları 1
dak 1
erer 1
evlendir@@ 1
evî 1
fahri 1
gran@@ 0.8819837035062217
kalıntılar 1
kilere 1
kutupl@@ 1
lağı 1
loj@@ 1
ome 0.47820117664022355
puanlar 1
sezona 1
teknolojileri 1
vic@@ 0.7509454855525367
yaptırılan 1
yerleşimin 1
Ürün@@ 1
Emek 1
Müzikal 1
Radikal 1
andalı 1
asistanı 1
dre@@ 0.5456720100396297
enberg 0.36164009389440277
hara 1
hâkim 1
hücresi 1
ilke 1
konuşlandır@@ 1
kökleri 1
mağı 1
segment@@ 1
temsilen 1
temsili 1
tuzlu 1
üyelik 1
1858 0.5374288272518005
Davud 1
Topçu 1
aracının 1
ardında 1
gemilerin 1
gerçekleştirilir 1
ón 0.1575250497341659
üzün@@ 1
Cil@@ 1
People 0.24204214526792006
Ran@@ 0.5610556756886214
Rot@@ 0.46920483685755987
Venedikl@@ 1
dakiler 1
değişikliğe 1
gerçeklik 1
imizi 1
içerikli 1
kaptır@@ 1
masındaki 1
norm@@ 1
piyanist 1
taştan 1
use 0.04731285975042222
uğram@@ 1
çarpışma 1
üncü 1
Erkan 1
Mayer 1
Us@@ 1
büyümesi 1
dansı 1
dönüm@@ 1
istatistik 1
içerebilir 1
mahkûm@@ 1
mücadeleye 1
nu@@ 0.7328825151536046
olimpiyat 1
oyunların 1
sadrazam 1
sırasındaki 1
çekimler 1
çizgisi 1
107 1
Olayı 1
Seçmeleri 1
avantajı 1
döviz 1
ekten 1
gelmesini 1
istatistikleri 1
kaz 1
kaçmayı 1
prodüksiyon@@ 1
remedi 1
sultan@@ 1
taarruzu 1
vis 0.8353211319169682
vurdu 1
yönünü 1
zirv@@ 1
ılıkta 1
Adem 1
Bahreyn 1
Departamento 0.9650092826964054
Hasan@@ 1
Montgomery 1
Teor@@ 1
Tugayı 1
Tır@@ 1
alınıp 1
anç 1
direktördür 1
eğitimci 1
istifas@@ 1
katında 1
kullanılıyordu 1
mahalleleri 1
orduyu 1
tüketimi 1
Öz 1
çağı 1
çıkabilir 1
öldürüldüğü 1
Ğ@@ 1
ısrar@@ 1
ışta 1
Havzası 1
MC 0.7050285354736487
Sara 1
bağırsak 1
hil 1
kandır@@ 1
kes 1
kuşları 1
malzemenin 1
mitolojik 1
taktik 1
yapılanma 1
yırt@@ 1
çıkmıştı 1
Şanghay 1
Kn@@ 0.511405067449129
Kolej@@ 1
MP@@ 0.9696903078180995
Vila 1
abart@@ 1
gömülü 1
heavy 0.28522218240932873
maden@@ 1
nehrinin 1
onal 0.544520542501202
patr@@ 1
reyi 1
salgın 1
unla 1
uzmanlaşmış 1
Örgüt@@ 1
Baykal 1
Caminin 1
Hamza 1
Hilmi 1
Karat@@ 1
Rez@@ 1
Selahaddin 1
Sokak 1
Somerset 1
Valencia 0.6859255980091935
annesini 1
değiştirir 1
enta 0.5551406793821081
familyası 1
harici 1
kıyafet 1
mayacak 1
mürettebat@@ 1
romanları 1
verilerek 1
Bayram 1
Bölges@@ 1
Köş@@ 1
Samanyolu 1
XI 0.6201583277722399
ayetin 1
barış@@ 1
bulamadı 1
dalgaları 1
duyar 1
döngü 1
eşitliği 1
madenc@@ 1
oylaması 1
periyodik 1
Özer 1
çalıştılar 1
îr 1
500.000 1
Petrus 1
Yalnız 1
Yan 1
aileler 1
düşünüyordu 1
fiili 1
geliri 1
kek 1
mamıştı 1
rekorları 1
saltanatı 1
suçladı 1
şehirlerinde 1
Book 0.34782178194587837
IC@@ 0.5848402261189534
Kilisenin 1
Tot@@ 0.9794329398971193
alanlarını 1
arit@@ 1
bilinc@@ 1
faşist 1
kedil@@ 1
kitles@@ 1
kor 1
lilik@@ 1
lon@@ 1
saldırıyı 1
taşımak 1
Filosu 1
Gri@@ 0.8364745059180814
Mülkiye 1
Simpson 0.9944057221619031
Tac@@ 1
Varlık 1
albümlerini 1
boyan@@ 1
cuma 1
editör 1
gütmeyen 1
komutanlığı 1
oluşturulur 1
sahneler 1
suçlar 1
teydi 1
uğunda 1
çekilme 1
ł@@ 0.5508040857011771
Antlaş@@ 1
Aşık 1
Bugüne 1
Challenge 0.6348563398766227
Taner 1
araçların 1
hastaların 1
inanan 1
işkenc@@ 1
kanlar 1
kanıtı 1
kaynaklan@@ 1
merkezini 1
row 0.3239455601991858
röportajında 1
tramvay 1
yut@@ 1
yöntemlerle 1
zap@@ 1
ülmüş 1
Beyaz@@ 1
Dünyası 1
Gin@@ 1
God@@ 0.8730096533004427
Köpr@@ 1
Lincolnshire 1
Molla 1
Stadyum@@ 1
alit@@ 1
beye 1
ihracat@@ 1
kuzeyden 1
lil@@ 1
mut 1
müdürlüğü 1
mülkiyet 1
patlaması 1
üstünlüğü 1
1836 0.654337151295653
550 1
DA 0.8091943788116733
Drive 0.8024064482340701
Giuseppe 1
Serg@@ 1
ae@@ 1
başlamışlardır 1
büyü 1
evlenen 1
katına 1
koşullarda 1
kuşların 1
leştirmek 1
olarda 1
style 0.08947502074152043
taşınabilir 1
topluma 1
usun 1
çeşididir 1
Belediyenin 1
Kilikya 1
Lazio 1
Osmanl@@ 1
Peygamber 1
Yolları 1
anlarla 1
açıklamaya 1
geçersiz 1
ikten 1
insanlarda 1
melerinde 1
sürdürülebilir 1
Ülke@@ 1
İnegöl 1
şö@@ 1
1853 0.5750033894950769
4000 1
6360 1
Edgar 0.9861260619174246
Mesleki 1
Putin 1
asın 1
belgeleri 1
cha 0.2577534166926018
kızını 1
liz@@ 1
marşı 1
radar 0.853755634367697
seçimlerin 1
söylemektedir 1
tamamıyla 1
çevresine 1
öldüren 1
0.1 1
46@@ 1
acımasız 1
akraba 1
ango 1
bellek@@ 1
edilmedi 1
kiloda 1
markasıdır 1
olmayıp 1
seçiminde 1
takvi@@ 1
Şeref 1
17,@@ 1
Endüstri 1
Filistinli 1
Gev@@ 1
Micro@@ 0.869589059903075
Silver 0.621461021593545
astronomik 1
aşmış 1
babasına 1
fikirlerini 1
gölün 1
görüşme 1
imparatorun 1
kozmik 1
kısaltması 1
listelerde 1
litre 1
telaffuz 1
tilmesi 1
ölçek@@ 1
öğrenmek 1
Honda 1
Nepal 0.8511296744336802
Oysa 1
Oyuncusu 1
Yok 1
banliy@@ 1
beslenir 1
biriktir@@ 1
cüsü 1
evres@@ 1
iser 0.524836390667076
kıyılarına 1
lie 0.3483223990299789
nm 1
olimpiyat@@ 1
oyundan 1
söylemek 1
tetikle@@ 1
örneğidir 1
üretici 1
Şehit@@ 1
39@@ 1
Bebek 1
Bros 1
CE@@ 0.5935051122785674
Sabancı 1
Tet@@ 1
Yapısı 1
bahçesi 1
depre@@ 1
düzenlemeler 1
editör@@ 1
hıza 1
olgunlaş@@ 1
online 0.3224930419327102
radyo@@ 1
taşıyordu 1
Çölü 1
Buğ@@ 1
Castro 0.8514969046885449
Denis 0.6977468701719898
Federasyon 1
Geçmişte 1
Kasaba 1
Larry 0.827687580716325
Marsilya 1
Pablo 0.5805020222890619
Roberts 0.7598742154181614
TA 0.6938202188968859
adlarını 1
anlamını 1
ayi 1
nezdinde 1
sanki 1
yaratıl@@ 1
yıkıcı 1
80@@ 0.8892118831483736
Bül@@ 1
Büt@@ 1
Nahçıvan 1
Nog@@ 1
amalar 1
anlarına 1
büyüklüğünde 1
cesaret@@ 1
eba 1
ettiklerini 1
fayda 1
katılacak 1
kocasının 1
restoran 1
tir.@@ 1
Özkan 1
ürk 1
Aslan@@ 1
Business 0.33917115239472156
Carolina 0.21141362514454548
Diana 1
Ernest 0.7469283383297587
Keskin 1
Rekorlar 1
adis 1
albümle 1
aoğlu 1
atlat@@ 1
hanlı 1
kanadı 1
larınca 1
s. 0.7833553067903016
siyahi 1
sultan 1
topluluğun 1
Ödülünü 1
→ 0.9015587040393704
Boğaz 1
Fos@@ 1
Orleans 0.6263913373047689
Project 0.3856824525796903
Tahir 1
Turnuva 1
abat 1
başındaki 1
damg@@ 1
ekim 1
elek@@ 1
elç@@ 1
gelişmeye 1
inanıyordu 1
oluşması 1
partiden 1
tuhaf 1
yonunun 1
zayıflat@@ 1
şit 1
220 0.9065051463416789
Dö@@ 1
Rosa 0.6528863307506868
Sokağı 1
adlandırılmaktadır 1
asil@@ 1
etçi 1
figürü 1
hücrelerinin 1
kısıtlı 1
sihir@@ 1
silahların 1
ursa 1
yazısında 1
Are 1
Arist@@ 1
Eve 1
Harekât 1
Hun 1
Pers@@ 1
Tyler 1
alinin 1
başlamasından 1
bittikten 1
denizde 1
direnç@@ 1
düşünceleri 1
esi@@ 1
karşısındaki 1
kızının 1
oynarken 1
pekiştir@@ 1
yoda 1
ımızda 1
Beyin 1
Calabria 1
Kulü@@ 1
Kulübün 1
Suy@@ 1
araştırmalarda 1
bırakt@@ 1
durdurul@@ 1
eleştirildi 1
imizin 1
kulland@@ 1
master 0.24808148216439888
mesiydi 1
mg 1
muay@@ 1
pornografik 1
seferde 1
sosyoloji 1
tepkis@@ 1
vurg@@ 1
yarayan 1
200.000 1
Chart 0.5832688616240395
Depart@@ 1
Doktora 1
Reigns 1
Senar@@ 1
Yumur@@ 1
alidir 1
aliyet@@ 1
ante 0.08635331448573844
cemaat 1
derlem@@ 1
dolandır@@ 1
durdurmak 1
liğindeki 1
muhafazak@@ 1
perakende 1
saklan@@ 1
suik@@ 1
tuğla 1
umuz 1
yoksul@@ 1
zur 0.032279060924575095
çene 1
ხ@@ 1
108 0.9655234695333942
1851 0.548862963390251
Lorenzo 0.8987344881737669
Yunanc@@ 1
Zir@@ 1
aygıt@@ 1
balina 1
barışçıl 1
duk 1
durdu 1
dönüştürüldü 1
dışa 1
grup@@ 1
hikâyeler 1
hiye 1
köyünden 1
sane 1
yye 1
zorluk 1
ücreti 1
ბ@@ 1
1845 0.5972024253414572
Avni 1
CONCACAF 1
Herodot 1
Muhtemelen 1
Roosevelt 0.8391404110573658
asistan 1
düğünden 1
els 0.15400752176609192
haberdar 1
kromozom@@ 1
kurtarır 1
otorite 1
planlar 1
rüzgâr@@ 1
turuna 1
türe 1
çağrılan 1
ürünlerini 1
Blood 0.969161219407344
Sky@@ 0.9787863472022065
Za@@ 1
amazlar 1
andılar 1
avantaj 1
bakımı 1
beton 1
birleşmesiyle 1
devri 1
dinlenme 1
ekseni 1
gelenler 1
geçmişe 1
kullanılacak 1
olduk@@ 1
orant@@ 1
sanatlar 1
yalan 1
yorumu 1
çalışıyor 1
çizim 1
İnsanların 1
Fahri 1
Fonu 1
Hafız 1
Monica 1
Müdürlüğ@@ 1
azaldı 1
diyagr@@ 1
evinden 1
farkla 1
hakaret 1
hazırlanmıştır 1
ihtiyac@@ 1
ilav@@ 1
kele 1
nahi@@ 1
olmamakla 1
savunmak 1
Çukur@@ 1
Bog@@ 0.7453799535072803
Hırvat@@ 1
Miz 1
anlatılan 1
açarak 1
canlandıran 1
deneyimini 1
kaynaklarına 1
mazlık 1
mevcu@@ 1
oldu@@ 1
tasarladı 1
tehdidi 1
çiftinin 1
Flash 1
Kuvvetler 1
Tv 1
bilimciler 1
bölgelerinin 1
dığından 1
elemanları 1
gelişir 1
görelilik 1
güvenliğini 1
güçlen@@ 1
insel 1
iyetin 1
kasıtlı 1
kân 1
oynat@@ 1
çik@@ 1
özg@@ 1
Elif 1
Eminem 1
Guatemala 0.7344161206750854
Görüş@@ 1
Jung 1
Karap@@ 1
Maarif 1
Mich@@ 0.7965035808896896
Miras 1
Online 0.7999701863364701
Rotterdam 1
Yüzyıl 1
ars@@ 1
boyları 1
cephesinde 1
col@@ 0.23307054345100564
dost 1
doğar 1
etinden 1
kıtasında 1
metropol@@ 1
mitolojisi 1
sahnelen@@ 1
sahnesinde 1
vil 1
yönetmenliği 1
çağrısı 1
şiddeti 1
Beykoz 1
Heykel 1
Jessica 1
Kurul 1
Lik@@ 1
Pontus 1
Total 1
Walt 1
bağlanmış 1
cesur 1
derinlik@@ 1
hakimiyetine 1
inn@@ 0.4941283770689706
istin 1
iyen 1
mun@@ 1
piyad@@ 1
zorlaştır@@ 1
örneklerinden 1
Şeker 1
Daily 0.5735730160260961
Karş@@ 1
MKE 1
Ober@@ 0.14693566796546365
Rap 1
TC 0.642513842255238
cio 0.6475720605721906
koz 1
nav@@ 1
our 0.16025606775164575
put@@ 1
uman 1
Cumartesi 1
Express 0.4751251673931697
Hüsnü 1
Ocağı 1
boğaz 1
card 0.4162839349626804
ehir@@ 1
gruplardandır 1
gözlerini 1
kariyerindeki 1
kullandılar 1
mesajı 1
mücev@@ 1
talı 1
vermeden 1
yapıldığını 1
ს@@ 1
Giy@@ 1
ME 1
Mezarı 1
Yelken 1
anket@@ 1
arkadaşlarıyla 1
bombardı@@ 1
dizayn 1
hassas@@ 1
kavramları 1
köprü@@ 1
niteliğinde 1
oluşturarak 1
paş@@ 1
tanksavar 1
til 1
yaşandığı 1
ნ@@ 1
5,2 1
Aram@@ 1
Born 0.33276867852052977
Kosta 1
adla 1
alia 0.7004380997331159
ayrıldığı 1
açabilir 1
ech 0.5641905702637192
günümüz@@ 1
işlenmiş 1
kullanılmasını 1
leşmiştir 1
oria 0.8571388170640537
ow 0.2795456311963201
seviyesinin 1
tahkim@@ 1
uğramıştır 1
önces@@ 1
şekline 1
1847 0.5812322575638995
Ata 1
By@@ 0.8943877414068698
Cameron 0.9318670769663276
Diğerleri 1
Emek@@ 1
Hardy 1
Kızılderil@@ 1
Ris@@ 1
acı@@ 1
adın 1
delege 1
elemanı 1
lılara 1
şof@@ 1
111 0.9730610828590834
Hudson 0.6836537449156617
Joan 0.7353243059846302
Mahallede 1
Malazgirt 1
Owens 1
Satürn 1
Sov@@ 1
arasını 1
atri@@ 1
bard@@ 1
başrolde 1
doğada 1
kabart@@ 1
mektupta 1
nete 1
parçalarını 1
ple 1
silindir 1
öyküsünü 1
üyelerini 1
Şiir@@ 1
Di 0.940453810590588
[...]
