de 55018533
, 39493961
. 29796496
la 25714249
en 21702645
el 18960477
y 18309738
&quot; 12766760
a 11855753
que 11346398
del 9643224
los 8848109
se 7497015
por 6580263
un 6569157
con 6087678
una 5985860
) 5707209
( 5697634
las 5530767
su 5144073
es 4116951
como 3908915
para 3864042
al 3821547
El 3554535
En 3062469
fue 3002609
@-@ 2987256
La 2848150
más 2159799
: 2103453
o 2026800
no 1874956
sus 1673661
lo 1648112
; 1414736
entre 1261254
dos 1078216
también 1054160
años 1052265
ado 1050737
Los 1048792
era 1021633
año 918715
hasta 909792
son 902168
este 892195
parte 883413
pero 882449
sobre 878146
ada 877226
le 869553
donde 856284
« 848264
» 847520
ha 818967
ó 818849
desde 793310
ser 788553
ados 776293
Se 752386
ar 738242
as 737618
durante 715148
esta 705227
% 703290
A 694439
ciudad 664329
adas 652722
ando 637183
&apos; 632809
os 627217
Las 611469
primera 606170
después 600830
había 597590
está 590002
e 586087
ya 583513
fueron 570584
San 552068
/ 547250
cuando 546439
primer 542679
Su 541293
nombre 527259
otros 519953
1 516752
tiene 510254
an 508030
sin 507712
uno 506900
ación 504209
mismo 504087
aba 503876
población 499161
aron 493708
vez 485789
antes 478682
tres 476911
2 472807
gran 471929
eran 471438
puede 469502
&#93; 469092
&#91; 467656
Fue 467173
cual 465239
re@@ 449718
forma 444899
encuentra 444433
muy 433295
así 433017
lugar 430737
familia 423865
contra 423734
sido 417987
km 414857
ante 414522
Es 413496
des@@ 407301
equipo 395888
Estados 394881
siglo 391356
3 386948
in@@ 385828
ía 384036
tiempo 380509
Unidos 378465
embargo 377752
junto 374532
The 372883
grupo 371511
mayor 368584
han 367852
ese 364961
bajo 361326
todo 358188
serie 356875
estado 356228
- 354591
solo 350391
ón 346541
España 345355
Universidad 344414
estaba 343724
cada 342889
quien 341115
De 340069
otras 339342
Nacional 334742
siendo 328829
También 328402
personas 326010
4 325605
municipio 324785
aunque 322096
mientras 321999
todos 317170
tanto 316380
Por 315432
vida 314095
nuevo 312585
tras 312407
Al 310723
país 308991
aban 307126
temporada 305469
hacia 304812
final 301897
gobierno 295733
álbum 291588
general 290574
mayo 290297
Juan 287958
ales 287421
2010 287173
si 287169
enero 286581
marzo 286041
octubre 284740
día 284217
tuvo 283898
septiembre 283882
5 282699
Sin 282088
historia 281335
² 280859
película 280517
— 280512
julio 280373
total 280087
varios 279642
” 278023
“ 277700
10 277122
junio 276091
arse 275123
cuatro 274172
Historia 273965
tenía 273699
él 273620
región 273338
aciones 272827
&amp; 272450
sur 272368
diciembre 272001
da 271748
habitantes 270993
6 270256
abril 270191
Este 269419
agosto 269195
José 267759
ella 265226
ador 265202
partido 264910
número 264043
entonces 263777
debido 263045
noviembre 261163
obra 259563
Durante 259168
algunos 258315
pueden 256915
río 255639
especie 255361
mundo 254402
luego 253288
ano 251429
través 249635
principal 246287
además 245080
al@@ 244938
Según 244874
sistema 244594
estos 244579
norte 243494
febrero 241866
banda 240879
Esta 239989
ina 237309
México 236102
ida 235735
otro 235360
of 234347
segundo 234285
20 232487
hizo 231969
provincia 230672
guerra 230569
trabajo 229593
agua 228612
tarde 228123
unos 227179
zona 226793
ellos 224341
esa 224250
canción 223742
están 223657
cuenta 223119
siguiente 222581
Para 222102
segunda 220018
7 219976
partir 219804
estadounidense 218215
largo 217735
ana 217367
nacional 217106
Con 216564
dentro 215263
A@@ 214812
Santa 214289
2011 214067
ían 213330
Nueva 213079
L@@ 211868
T@@ 211780
presidente 211545
conocido 211259
carrera 211022
15 210179
Después 209900
s 209764
muerte 209619
María 209424
ista 209251
an@@ 208900
Un 208840
Además 208539
C@@ 208080
8 207259
centro 206049
varias 205588
Una 205290
momento 204740
to 204376
– 203913
12 202919
Guerra 202849
I 202731
tipo 201991
Mundial 200212
Desde 200005
Tras 198865
obras 198620
género 198496
español 198429
época 198128
muchos 197911
grandes 197042
nueva 196504
P@@ 196203
hay 195895
án 195400
hijo 195341
bien 195080
menos 194957
comenzó 194340
adores 193673
poco 193431
2012 193282
último 193174
medio 193078
título 193040
les 192809
No 192544
mayoría 192119
misma 191742
m 191501
uso 191493
30 191222
otra 191114
hace 190864
según 189935
en@@ 189588
ar@@ 189432
ara 188631
2014 188102
días 188100
ia 188099
importante 188095
ac@@ 187947
cerca 187746
2015 187693
rey 186995
música 186993
padre 186984
Entre 186226
casa 185952
2008 185878
ido 185792
poder 185320
O@@ 185289
diferentes 185055
ario 184778
manera 184661
2016 184373
localidad 183797
ero 183734
Madrid 183572
2013 183538
0 183512
línea 181869
Estado 181549
Carlos 181274
mejor 181175
hecho 180944
nivel 180915
Francia 180380
2009 180363
primeros 180191
frente 179928
ones 179580
millones 179479
política 179477
estas 178935
2007 177960
programa 177589
República 176764
Argentina 176761
pueblo 176755
dio 176467
producción 176413
18 175943
16 175914
S@@ 175910
convirtió 175480
caso 175198
í@@ 175073
2000 174862
llamado 174717
II 174280
the 174229
9 173733
ejemplo 173466
11 173453
esto 172932
tienen 172348
M@@ 171521
haber 171495
cargo 170993
versión 170680
algunas 170442
ente 169580
cinco 169424
distrito 169223
veces 168981
Como 168945
in 168768
ismo 167764
2006 167652
or@@ 167049
todas 166859
2018 166545
á 166297
capital 166231
F@@ 165860
club 165847
ándose 165803
miembros 165701
14 165534
cuales 165339
década 165320
istas 165318
aría 165259
finales 165082
desarrollo 164687
p@@ 164325
habían 164034
punto 163915
ita 163913
mujeres 163611
13 163258
metros 162556
25 162079
lado 161917
puesto 161831
ino 161464
c@@ 161311
construcción 161272
hacer 161130
17 161040
Biografía 160477
Luis 160466
as@@ 159727
2017 159609
ico 159443
pesar 159390
base 159213
ó@@ 158959
director 158914
con@@ 158794
actual 158726
E@@ 158173
19 157874
ubicado 157119
partidos 156661
estudio 156563
co@@ 156144
orden 155924
siguientes 155918
toda 155906
Francisco 155553
principales 155334
o@@ 154779
estudios 154752
edad 154570
ica 154531
casi 154506
Al@@ 153966
B@@ 153857
Europa 153785
miembro 153415
V@@ 153118
Chile 152686
juego 152408
Copa 152016
inglés 151589
do 151588
condado 151431
es@@ 151154
2019 151146
llegó 151049
éxito 151009
fútbol 150976
proyecto 150819
Ar@@ 150786
hombres 150586
área 150363
G@@ 150179
Cuando 150093
Campeonato 150044
amiento 149660
per@@ 149038
oso 148694
puntos 148570
tan 148547
mediante 148440
i 147838
R@@ 147538
posición 147470
países 147460
cualquier 147383
televisión 146890
ad@@ 146818
estilo 146676
especies 146641
at@@ 146622
Club 146385
2005 146044
acuerdo 145890
_ 145634
fuera 145137
ato 144730
idos 144694
tener 144524
Partido 143881
tierra 143735
24 143141
C. 142972
isla 142659
origen 141778
libro 141592
D@@ 141052
York 140528
21 140520
anos 140390
equipos 140119
el@@ 139833
sub@@ 139503
ello 139217
militar 139199
papel 138981
u@@ 138838
ex@@ 138695
porque 138388
$ 138107
recibió 138071
á@@ 138035
ta 137342
conocida 136794
edificio 136465
22 136428
Antonio 135833
Alemania 135413
Pedro 134901
grupos 134825
u 134703
v@@ 134517
ch@@ 134509
l@@ 134145
entes 134122
Sus 133916
color 133832
Real 133543
fin 133376
encia 133208
alrededor 133047
2020 133043
ni 133029
última 133028
ab@@ 132973
ec@@ 132973
estuvo 132762
am@@ 132553
Gran 132498
pre@@ 132493
encuentran 132370
2004 132318
oficial 132039
N@@ 131993
ambos 131856
est@@ 131789
on@@ 131728
proceso 131492
principalmente 130846
relación 130773
idas 130744
elecciones 130701
público 130379
estación 130343
superficie 130301
iglesia 130078
canciones 130014
im@@ 129800
División 129619
23 129541
General 129290
Con@@ 129231
osa 129091
ganó 129080
principios 128985
mucho 128901
empresa 128869
servicio 128641
incluso 128582
estaban 128476
edición 128453
territorio 128165
cambio 127928
oeste 127820
ley 127562
io 127154
disco 127069
meses 127002
sería 126826
importantes 126761
sino 126669
arte 126649
er@@ 126571
llamada 126488
Reino 126120
on 126027
f@@ 124967
is 124744
cabo 124611
able 124606
cor@@ 124395
propio 124085
pasó 123904
político 123886
América 123785
seis 123709
t@@ 123450
or 123410
J@@ 123015
ol@@ 122857
Unión 122853
internacional 122840
campo 122673
H@@ 122650
ejército 122539
car@@ 122516
finalmente 122217
I@@ 122172
arios 121905
término 121800
muchas 121716
and 121298
original 121196
s@@ 121141
Primera 120881
i@@ 120769
Liga 120756
medios 120751
densidad 120616
Norte 120610
amente 120205
musical 120161
idad 120005
Segunda 119993
eta 119627
Buenos 119507
j@@ 119386
conjunto 119328
amp 119304
n@@ 118929
cuerpo 118895
debe 118581
aria 118555
Aires 118435
John 118190
sede 118164
icos 118043
Mar@@ 117753
siempre 117700
inter@@ 117658
departamento 117174
28 117147
mar 117047
Internacional 116445
ic@@ 116400
francés 116344
e@@ 116326
g@@ 116146
madre 116073
oro 116059
movimiento 115924
tal 115916
2003 115899
obtuvo 115834
Aunque 115780
sólo 115773
° 115553
27 115440
Manuel 115165
compañía 115104
tos 115099
posteriormente 114850
mujer 114803
ito 114514
eros 114506
Sur 114400
100 114398
ciones 114014
26 113804
hijos 113768
Iglesia 113456
realizó 113282
d@@ 113152
adora 113145
Italia 113127
primero 113106
categoría 112981
alto 112839
di@@ 112663
cu@@ 112590
nombrado 112471
ías 112392
ap@@ 112320
igual 112231
Esto 112093
central 111977
aún 111862
va 111849
especialmente 111335
B 111189
d 110755
ín 110755
2001 110717
anterior 110509
ir 110442
Z@@ 110275
fuerzas 110273
social 110242
publicado 110111
sí 110085
hija 110022
local 109876
Ciudad 109851
hoy 109645
española 109330
único 109329
os@@ 108861
í 108752
An@@ 108696
Car@@ 108544
ubicada 108487
2002 108371
batalla 108328
estar 108270
Barcelona 107942
resultado 107888
unas 107858
resto 107789
Instituto 107693
ot@@ 107686
período 107632
hermano 107624
dirección 107576
control 107539
lista 107367
U@@ 107344
r@@ 107270
ag@@ 106997
Santiago 106994
z@@ 106963
il@@ 106847
París 106845
incluyendo 106508
C 106357
profesional 106183
er 106038
ores 106022
ción 105465
ver 105451
escuela 105327
sencillo 105309
dice 105306
Geografía 105249
tema 105240
et 105230
alta 104957
investigación 104706
us 104464
ona 104458
revista 104348
b@@ 103972
hombre 103809
organización 103662
de@@ 103546
modo 103272
media 103264
1990 103140
fecha 102985
torneo 102896
llegar 102786
icas 102663
29 102573
2021 102535
par@@ 102307
ellas 101834
almente 101748
! 101599
antiguo 101525
ará 101402
actividad 101400
apoyo 101391
Juegos 101374
censo 101232
1999 101149
formula 101051
oc@@ 101051
datos 101031
tr@@ 101012
formación 100806
francesa 100717
af@@ 100609
actualmente 100486
llevó 100413
nació 100406
sea 100287
K@@ 100280
decir 100276
... 99929
ata 99814
Perú 99735
popular 99685
illa 99429
ahora 99426
modelo 99376
50 99343
espacio 99337
superior 99256
a@@ 99205
pues 98985
Y@@ 98982
jugador 98957
qu@@ 98845
Luego 98801
servicios 98752
derecho 98721
Miguel 98453
personal 98041
ciudades 97991
joven 97938
problemas 97887
paso 97539
participó 97394
ti@@ 97033
situada 97024
interior 96977
su@@ 96785
posible 96686
creación 96524
cine 96383
ir@@ 96347
personaje 96010
información 95930
rec@@ 95800
Ch@@ 95794
Centro 95587
Gobierno 95548
Si 95510
acción 95510
primeras 95438
-@@ 95252
propia 95028
Museo 94888
Unido 94885
é 94867
diseño 94755
ci@@ 94750
menor 94696
cantante 94630
anunció 94412
logró 94377
In@@ 94365
Río 94340
aproximadamente 94207
dijo 93612
Consejo 93319
ca 93222
victoria 93130
ena 93056
Premio 92961
Escuela 92931
comunidad 92864
ería 92705
situación 92616
nunca 92471
1998 92426
Inglaterra 92424
Demografía 92328
objetivo 92315
calle 92214
ología 92210
et@@ 92194
elegido 92173
publicó 92149
Más 92146
nuevos 92139
mes 92060
real 92004
is@@ 91951
ur@@ 91828
Japón 91791
aparece 91710
za 91684
Re@@ 91672
temas 91573
única 91522
natural 91493
Brasil 91488
común 91390
alemán 91385
Pero 91267
allí 91182
volvió 90861
anas 90810
autor 90795
cantidad 90739
y@@ 90609
Colombia 90598
partes 90549
tenían 90512
principio 90455
China 90444
especial 90185
Cor@@ 90082
tercer 90081
co 90074
división 89879
pequeño 89835
cultura 89813
trata 89579
elementos 89538
III 89531
Ejército 89382
diversos 89350
bi@@ 89338
últimos 89294
capacidad 89291
1980 89285
decidió 89280
Londres 89079
ra 88983
Está 88917
escribió 88712
ora 88698
periodo 88610
inas 88499
fuerza 88366
selección 88288
campaña 88278
altura 88229
endo 88196
Distribución 88114
muestra 88114
derechos 87715
grande 87691
Fernando 87679
situado 87653
esposa 87638
tropas 87504
antigua 87475
actividades 87434
planta 87353
1996 87309
it@@ 86980
participación 86909
eo 86908
n 86739
na 86516
presencia 86422
Así 86294
zonas 86294
incluye 86223
nuevas 86080
Bar@@ 85998
h@@ 85848
31 85622
estructura 85563
libre 85361
te 85315
dis@@ 85228
m@@ 85189
Censo 85115
l 85070
longitud 84990
1997 84977
clase 84789
sitio 84784
Per@@ 84521
dicho 84442
profesor 84371
1995 84345
Carrera 84315
av@@ 84228
películas 84214
algo 84161
arlo 83964
compuesto 83932
40 83747
comuna 83673
O 83599
siete 83579
1992 83544
casos 83398
mon@@ 83314
ent@@ 83285
dar 83271
novela 83263
Y 83137
osos 83137
causa 83132
tercera 83034
jefe 82789
gu@@ 82681
teatro 82650
id@@ 82610
persona 82409
ares 82383
imagen 82378
costa 82303
referencia 82280
sociedad 82269
ayuda 82248
campeón 82238
cuyo 82089
om@@ 82038
000 81958
1994 81834
actor 81766
California 81748
tamaño 81656
aje 81553
quienes 81519
XIX 81463
mitad 81377
personajes 81313
fuerte 81275
noche 81269
lucha 81218
menudo 81200
dado 81127
= 81093
és 81059
similar 80845
un@@ 80631
perteneciente 80537
Estos 80491
matrimonio 80464
León 80432
podría 80400
niños 80319
gracias 80231
pudo 80195
luz 80153
Mientras 80152
mercado 80010
Central 79980
realizar 79883
ja 79860
pequeña 79730
ocasiones 79699
ro@@ 79689
te@@ 79620
quedó 79454
1970 79394
mediados 79267
Imperio 79260
Posteriormente 79223
das 79137
diversas 79068
ables 78980
presenta 78974
García 78653
libros 78602
medida 78595
actualidad 78467
XX 78447
1991 78180
can@@ 78100
premio 78096
ocho 78079
mor@@ 78011
interés 77926
función 77907
educación 77841
z 77836
osas 77799
vi@@ 77756
idea 77686
Actualmente 77651
ver@@ 77634
Tiene 77561
inos 77401
cal@@ 77378
plantas 77281
artistas 77275
diferencia 77220
Fútbol 77199
ministro 77108
X 76945
ense 76926
.@@ 76854
mando 76825
ul@@ 76790
trabajos 76741
Venezuela 76675
Des@@ 76626
gt 76584
episodio 76514
ela 76464
En@@ 76442
Ha 76405
mundial 76384
David 76367
op@@ 76232
ea 76219
Congreso 76189
cm 76095
etapa 76068
murió 76007
prueba 75987
horas 75889
Cruz 75798
lanzado 75752
Roma 75730
1993 75612
V 75519
medalla 75461
x 75401
jugó 75285
gobernador 75256
Festival 75217
Com@@ 75215
mar@@ 75129
nos 75032
az@@ 75031
man 74984
ve 74924
º 74808
mejores 74795
energía 74559
honor 74472
vio 74411
ataque 74366
geográfica 74306
cuya 74082
anti@@ 74019
Oficina 73989
col@@ 73963
um 73887
Rusia 73871
lleva 73853
gira 73836
razas 73805
Cal@@ 73778
eso 73758
valor 73754
em@@ 73677
defensa 73504
Tr@@ 73477
permite 73470
canal 73322
presentó 73299
bar@@ 73198
’ 73168
cabeza 73167
características 73144
lugares 73073
Del 72959
plaza 72923
ri@@ 72918
dirigida 72912
relaciones 72896
influencia 72890
kilómetros 72890
actriz 72871
baja 72866
barrio 72710
tales 72698
formar 72685
lt 72639
fase 72623
significa 72519
Academia 72490
red 72375
armas 72177
propiedad 72104
frontera 72082
aire 71956
eron 71949
distancia 71724
importancia 71642
incluyen 71620
us@@ 71593
ñ@@ 71560
dejó 71546
br@@ 71381
formó 71334
1989 71233
Casa 71184
ura 71147
etc. 71119
verano 71037
Tierra 71002
tierras 70994
jugadores 70960
illo 70949
material 70869
mano 70814
super@@ 70748
Jorge 70744
diez 70736
inició 70601
trabajó 70551
jo 70445
camino 70424
respecto 70407
terminó 70314
sociales 70179
dicha 70059
contr@@ 69998
sector 69972
New 69959
Mon@@ 69899
+ 69858
le@@ 69845
condiciones 69790
generalmente 69737
comercial 69736
mil 69697
&#124; 69535
debut 69533
alidad 69498
Saint 69384
minutos 69374
carácter 69285
1960 69270
entrada 69232
calidad 69222
mal@@ 69183
h 69174
aguas 69129
N 69076
me 69013
blanco 68920
sistemas 68915
escritor 68819
considerado 68637
locales 68487
cas@@ 68464
sal@@ 68355
arias 68278
ob@@ 68189
manos 68172
W@@ 68153
enc@@ 68124
acceso 68111
combate 68096
t 67852
parque 67599
lanzó 67568
trabajar 67515
grado 67489
artista 67473
pr@@ 67447
productos 67352
marca 67344
todavía 67320
Par@@ 67309
semana 67262
Es@@ 67218
mm 67108
juegos 67084
seguridad 67021
Algunos 67010
rock 66947
60 66903
Or@@ 66891
sentido 66857
realidad 66848
tica 66813
militares 66762
Mor@@ 66683
consiguió 66662
municipal 66575
Australia 66566
nuevamente 66440
sa 66402
fines 66400
crear 66398
ala 66363
apareció 66238
eras 66065
descrita 66030
radio 65848
1988 65831
Ley 65812
Enrique 65796
coordenadas 65757
pública 65741
humanos 65713
pas@@ 65699
van 65658
civil 65645
Martín 65635
ter@@ 65635
creó 65605
tor@@ 65572
sigue 65535
voz 65467
India 65440
ov@@ 65403
líder 65366
Grupo 65211
contrato 65176
itas 65146
? 65100
restos 65070
formas 65018
áreas 64985
lanzamiento 64958
produjo 64904
Gu@@ 64834
empezó 64800
conoce 64729
ambas 64657
ant@@ 64653
at 64640
vista 64564
empresas 64528
li@@ 64489
Pablo 64461
ativo 64400
Asociación 64116
realizado 64115
cantón 64111
escrito 64108
italiano 64096
Jesús 64080
Puerto 64074
unidades 64058
Di@@ 64053
idades 64036
programas 64005
teoría 63990
ticos 63987
jóvenes 63973
campeonato 63970
1985 63940
Costa 63892
encontrar 63879
goles 63833
ú@@ 63816
usa 63636
1987 63622
cuarto 63615
utiliza 63615
velocidad 63609
1986 63567
mayores 63540
Ministerio 63492
numerosos 63473
islas 63315
cultural 63235
enta 63149
aj@@ 63085
des 63064
vuelta 63046
Col@@ 62932
Debido 62846
obtener 62791
formado 62693
Pacífico 62683
x@@ 62662
creado 62622
comienza 62619
Descripción 62552
lengua 62514
IV 62490
vía 62365
Finalmente 62337
acciones 62329
1.@@ 62290
80 62245
com@@ 62210
ru@@ 62195
dec@@ 62194
Castilla 62096
amor 62082
plata 62070
figura 61911
hermanos 61809
favor 61806
existe 61782
industria 61776
comunicación 61712
padres 61641
liga 61631
encias 61541
ed@@ 61524
particular 61522
líneas 61491
posee 61442
resultados 61405
ningún 61328
Estas 61311
utilizado 61229
and@@ 61221
án@@ 61191
cambios 61171
Presidente 61099
pueblos 61085
soldados 61082
administración 61023
1984 60818
pasado 60793
Teatro 60784
1982 60767
gente 60753
blancos 60748
anteriores 60714
tuvieron 60681
D 60656
res@@ 60582
Man@@ 60549
África 60499
López 60473
dólares 60468
ingresos 60366
1983 60362
internacionales 60357
histórico 60304
tas 60283
ma 60279
unidad 60141
pequeños 60132
considera 60073
oficiales 60014
falta 59916
inicio 59901
pi@@ 59886
jugar 59869
Hay 59777
posterior 59744
contiene 59578
Co@@ 59564
of@@ 59550
evitar 59522
animales 59425
tivo 59349
agu@@ 59347
motor 59282
podía 59279
Le 59151
viaje 59128
raza 59058
etas 58974
bronce 58934
Dios 58796
argentino 58777
británico 58771
palabra 58759
poblacional 58679
Ac@@ 58665
Sociedad 58638
esas 58519
alización 58515
pos@@ 58486
aran 58294
evento 58291
tipos 58288
ig@@ 58275
200 58204
madera 58199
demás 58147
tico 58140
James 58126
nacionales 58104
As@@ 58034
presente 58013
existen 58005
L 57918
buena 57846
ª 57839
efecto 57830
crítica 57719
salud 57649
man@@ 57630
cómo 57496
economía 57476
Valencia 57454
pocos 57439
piedra 57434
tradicional 57434
funciones 57414
amos 57410
mi 57384
unió 57320
cuanto 57289
encontraba 57287
políticas 57194
existencia 57178
izquierda 57165
edificios 57157
políticos 57057
Otros 57053
illas 57029
po@@ 57013
Trayectoria 56981
palabras 56920
puerto 56818
nacido 56768
llegada 56701
familias 56684
eno 56643
representa 56634
1979 56616
temporadas 56591
alcanzó 56587
ninguna 56580
castillo 56561
templo 56556
X@@ 56547
occidental 56545
Su@@ 56471
mantuvo 56462
numerosas 56406
Canadá 56398
pres@@ 56386
completo 56374
to@@ 56344
pe@@ 56335
regiones 56309
tomó 56296
González 56251
trans@@ 56243
haciendo 56237
ase 56206
Comisión 56187
1976 56177
Le@@ 56159
atención 56121
tradición 56103
versiones 56002
será 55991
oficialmente 55966
colección 55952
Felipe 55938
E 55891
70 55812
ganar 55804
crecimiento 55802
ativa 55798
Santo 55792
suelo 55773
Selección 55756
90 55738
Córdoba 55734
Olímpicos 55723
policía 55717
eto 55608
Hu@@ 55604
españoles 55558
Artes 55557
ol 55456
referirse 55384
alismo 55342
pruebas 55309
independiente 55259
inc@@ 55171
1950 55127
ama 55057
alcanzar 55043
William 55014
ae 55013
Cas@@ 54973
construido 54950
c 54936
hicieron 54920
k@@ 54914
ronda 54911
económica 54871
clasificación 54856
1978 54708
Te@@ 54699
probablemente 54623
distintos 54589
tu@@ 54548
1973 54457
Sal@@ 54448
votos 54398
artículo 54396
emperador 54365
Paul 54364
eg@@ 54358
re 54356
gol 54351
Departamento 54330
Robert 54330
continuó 54315
1981 54314
práctica 54307
entrenador 54250
pasar 54242
toma 54186
proyectos 54176
derecha 54141
negro 54120
transporte 54120
estudiantes 54107
ático 54055
obstante 54042
parece 54037
casó 54026
fuente 53973
Val@@ 53966
Vida 53936
Mal@@ 53889
futbolista 53832
Don 53816
estados 53784
Provincia 53740
tiempos 53682
dinero 53610
du@@ 53605
fr@@ 53600
carretera 53566
1975 53525
cre@@ 53518
fuentes 53444
0,@@ 53429
b 53427
amigo 53375
tiva 53319
Ciencias 53318
hubo 53302
cur@@ 53232
ota 53217
fondo 53191
Virgen 53181
algún 53176
web 53173
Rey 53124
qué 53120
entos 53054
declaró 53047
esos 52991
Cu@@ 52962
Diego 52954
escena 52862
realiza 52851
dan 52836
estableció 52830
cha 52805
autoridades 52750
ay@@ 52727
ú 52727
é@@ 52631
doble 52620
pequeñas 52517
plan 52512
regresó 52482
fundó 52470
Fernández 52449
autores 52412
Rodríguez 52410
alguna 52394
títulos 52394
ari@@ 52217
aquel 52207
di 52203
r 52196
lago 52116
M 52098
distribución 52087
1977 52079
der 52052
ización 52041
Orden 51982
mantener 51918
análisis 51908
decisión 51894
Distrito 51817
escrita 51789
hermana 51767
elección 51759
objeto 51735
George 51678
presión 51678
efectos 51656
valle 51654
for@@ 51632
distintas 51597
publicación 51568
dirigido 51542
nada 51526
R 51524
pal@@ 51518
naturaleza 51489
sección 51458
ex 51448
futuro 51341
cadena 51266
originalmente 51265
Tor@@ 51213
llega 51194
1974 51143
siglos 51135
directamente 51113
consecuencia 51088
hab 51078
larga 51060
fundada 50913
gr@@ 50905
ento 50884
Bal@@ 50863
enfermedad 50819
problema 50813
texto 50787
literatura 50783
k 50768
ña 50741
Nuevo 50675
ad 50661
El@@ 50629
Era 50595
Alfonso 50575
conde 50572
libertad 50565
reg@@ 50545
ruso 50545
vol@@ 50534
ticas 50524
tores 50501
imágenes 50477
Federación 50447
recursos 50441
obispo 50400
artículos 50394
ten@@ 50392
pintura 50358
1972 50311
tomar 50263
experiencia 50262
clima 50255
Villa 50253
aparición 50240
técnica 50212
variedad 50167
bastante 50113
exterior 50088
concepto 50004
rápidamente 50001
misión 49943
FC 49928
nombres 49900
si@@ 49868
perdió 49852
arquitectura 49848
permitió 49827
pl@@ 49825
1968 49821
arían 49794
sonido 49768
Educación 49740
fundado 49730
Jean 49707
Sh@@ 49702
zo 49557
ro 49542
Ber@@ 49538
capitán 49537
peso 49465
actuación 49449
Portugal 49391
corte 49364
Ma@@ 49355
Alberto 49335
arr@@ 49315
encuentro 49310
casas 49282
esp@@ 49274
De@@ 49245
salida 49224
ancia 49188
corresponden 49178
reino 49148
Est@@ 49146
inferior 49140
ónico 49139
ólogo 49105
ini 49076
eventos 49064
generación 49056
mo@@ 49010
ete 48990
fundación 48976
operaciones 48968
crisis 48966
universidad 48944
ka 48920
titular 48917
Ese 48906
um@@ 48897
Lo 48882
Qu@@ 48873
A. 48846
ola 48831
Pérez 48827
independencia 48813
semanas 48801
Vi@@ 48798
Ángeles 48754
World 48712
bal@@ 48677
Popular 48642
productor 48611
clases 48599
contaba 48576
griego 48569
debajo 48509
g 48465
produce 48450
estadio 48412
Inter@@ 48399
razón 48379
Am@@ 48363
derrota 48346
Salvador 48314
venta 48313
itos 48305
máxima 48276
XVIII 48270
Son 48236
fuego 48188
par 48182
san@@ 48179
respuesta 48169
Dos 48143
men@@ 48136
adi@@ 48130
Uruguay 48101
Can@@ 48080
reconocimiento 48074
gestión 48070
representación 48047
500 48019
puso 48005
T 47949
Lima 47946
Valle 47930
altitud 47883
tar@@ 47844
ne@@ 47837
deben 47831
so 47799
cosas 47778
Radio 47740
ño 47725
máximo 47712
S 47702
firme 47697
vivo 47688
comercio 47653
1969 47627
participar 47613
llevar 47611
ónica 47512
1930 47481
antiguos 47442
il 47396
ío 47365
Sevilla 47324
ay 47317
dirigió 47241
piezas 47232
Palacio 47202
adelante 47153
tenido 47137
nueve 47113
completamente 47104
pareja 47074
acerca 47044
Rafael 47010
cara 46999
trasladó 46996
atr@@ 46944
ciencia 46934
producto 46912
arla 46904
am 46864
puente 46852
Civil 46826
colaboración 46769
curso 46769
aquellos 46745
promedio 46743
Michael 46719
regreso 46686
atos 46677
Asia 46673
comenzaron 46664
Ex@@ 46655
anteriormente 46637
amientos 46632
términos 46577
1940 46531
municipios 46494
materiales 46458
Her@@ 46446
lo@@ 46440
museo 46431
ga 46424
Parque 46414
F 46407
diario 46347
flores 46318
hu@@ 46292
respectivamente 46285
0.@@ 46274
1971 46214
llegaron 46197
siguió 46176
dieron 46161
amigos 46150
ati@@ 46132
candidato 46117
alcalde 46115
video 46108
oriental 46105
temperatura 46104
conocer 46092
prensa 46077
mat@@ 46071
pasa 46045
villa 46022
Comité 46021
entró 46020
ua 45993
Records 45947
entr@@ 45885
conflicto 45871
mi@@ 45820
mal 45818
periodista 45813
musicales 45810
objetos 45808
titulado 45718
juega 45691
ática 45691
1945 45680
Plaza 45675
iba 45675
conocimiento 45662
Federal 45661
Martínez 45657
torre 45636
Características 45621
extremo 45621
ajes 45595
35 45554
mismos 45542
motivo 45532
generales 45466
pronto 45456
sol@@ 45451
2.@@ 45450
hacen 45445
1967 45438
creada 45431
Eduardo 45367
Constitución 45363
TV 45348
Estadio 45344
City 45343
modelos 45331
continuación 45300
posteriores 45287
rojo 45284
XVI 45267
cer@@ 45191
verde 45188
Municipio 45163
extensión 45126
menores 45122
Sol 45113
end@@ 45074
construir 45068
rango 45051
paz 45042
ev@@ 45040
acto 45039
niveles 45025
noroeste 45004
forman 44964
Washington 44936
construyó 44935
1936 44915
calles 44870
Ab@@ 44855
Colegio 44855
régimen 44850
oposición 44840
Asamblea 44822
ár@@ 44805
Española 44727
incluido 44696
Austria 44675
torno 44653
decide 44608
protección 44599
hora 44577
hojas 44563
Plata 44496
premios 44476
League 44461
llama 44457
institución 44432
Mar 44369
inicialmente 44367
estrella 44346
aca 44320
frecuencia 44294
basada 44288
irse 44281
iz@@ 44276
Arte 44255
ruta 44212
llegando 44181
Sol@@ 44180
ganado 44122
alemana 44120
Ecuador 44078
conocidos 44078
cos 44051
Alejandro 44049
Charles 44038
compositor 44036
per 44031
contenido 44005
mol@@ 43973
hogar 43965
producido 43957
von 43953
firmó 43927
Bo@@ 43924
clubes 43911
1964 43904
Po@@ 43890
cio 43823
carga 43802
Ver@@ 43716
estadounidenses 43716
estrenó 43697
figuras 43685
sala 43676
Derecho 43672
Tour 43648
económico 43621
ira 43591
Ganó 43585
Polonia 43553
latinos 43551
ríos 43546
abilidad 43537
idioma 43521
sin@@ 43520
disputó 43482
secretario 43477
encontró 43469
terreno 43445
desarrolló 43439
formato 43439
médico 43366
usar 43360
Sierra 43287
maestro 43250
ascenso 43238
1966 43226
aga 43226
gen@@ 43197
bu@@ 43194
cab@@ 43160
comandante 43153
Antes 43131
bas@@ 43126
Cultura 43121
necesidad 43072
Junta 43066
ba 43043
Gal@@ 43042
Categoría 43035
visto 43021
buen 43013
competición 42997
tivos 42985
tratamiento 42947
británica 42944
val@@ 42907
Ella 42894
habría 42867
resistencia 42867
Br@@ 42849
Fundación 42832
ancho 42799
se@@ 42783
mer@@ 42709
instalaciones 42671
suele 42665
basado 42662
Torneo 42661
provincias 42652
posibilidad 42622
estr@@ 42581
ér@@ 42581
similares 42523
reina 42496
Daniel 42489
Cataluña 42445
queda 42388
hechos 42384
Media 42366
mezcla 42357
Ana 42356
asa 42353
aplicación 42350
Thomas 42342
anc@@ 42341
críticas 42287
intento 42275
Isabel 42269
detrás 42269
p 42261
composición 42248
mexicano 42238
ber@@ 42193
convertirse 42180
utilizar 42171
1965 42164
adoras 42132
vuelve 42126
bo@@ 42059
recibe 42052
contacto 42038
ios 42019
tecnología 42013
tri@@ 42008
compuesta 41989
interpretó 41970
Mundo 41940
Ser@@ 41925
min@@ 41905
Gr@@ 41892
1920 41888
Uno 41814
ular 41808
marcha 41804
Deportivo 41775
instituciones 41772
colores 41724
carta 41675
método 41672
territorios 41634
fundador 41594
32 41521
Ri@@ 41502
Israel 41486
Mayor 41468
cree 41464
eña 41463
cho 41459
Hasta 41439
ing 41436
ai 41427
pu@@ 41389
elo 41380
Cuba 41349
humano 41336
metal 41298
ni@@ 41293
aumento 41273
ach@@ 41251
arán 41251
diferente 41239
pista 41182
desarrollado 41155
necesario 41154
escuelas 41151
actos 41136
Guillermo 41132
pintor 41129
poeta 41128
solamente 41107
Cámara 41101
vuelo 41100
1962 41090
debía 41069
Paz 41000
publicada 40991
visión 40990
arquitecto 40989
45 40981
propios 40977
dando 40975
memoria 40955
auto@@ 40945
sola 40914
og@@ 40867
capaz 40794
én 40791
carreras 40786
Peter 40784
naturales 40767
one 40764
ce 40761
eb@@ 40741
Andrés 40725
periódico 40714
décadas 40706
ás 40696
ate 40679
niño 40662
denominado 40648
her@@ 40623
1963 40614
parroquia 40601
Guatemala 40593
gal@@ 40569
Berlín 40522
1939 40505
Edad 40490
Europeo 40477
órdenes 40466
Facultad 40451
comienzo 40413
Revolución 40407
convierte 40407
ideas 40396
volver 40384
sobre@@ 40374
japonés 40313
hispanos 40311
avión 40292
ut@@ 40263
Cada 40186
medi@@ 40151
debutó 40149
Ángel 40122
técnicas 40083
ser@@ 40073
príncipe 40056
eño 40049
difícil 40023
Pr@@ 39983
complejo 39974
tratado 39972
Julio 39960
centros 39909
Desarrollo 39900
eca 39894
realizada 39873
F. 39868
# 39866
ativas 39833
ah@@ 39828
diputado 39817
nave 39814
¿ 39814
comerciales 39806
residiendo 39779
palacio 39755
pertenece 39737
estudió 39736
puerta 39722
Vicente 39704
inicial 39672
mu@@ 39623
Sánchez 39614
ambiente 39613
Castillo 39579
firma 39533
ens@@ 39531
azul 39509
fer@@ 39498
puestos 39474
exposición 39469
Asimismo 39459
Pre@@ 39458
designado 39445
Domingo 39425
simplemente 39375
alemanes 39338
eses 39297
activo 39252
Ramón 39223
ani 39214
lu@@ 39214
conciertos 39200
cambió 39171
aves 39165
conseguir 39157
católica 39150
directo 39140
tel@@ 39140
Mat@@ 39130
pel@@ 39091
populares 39084
ton 39077
ofrece 39073
habla 39071
Corea 39065
pie 39040
imiento 39009
cas 38999
Bolivia 38997
dominio 38996
fil@@ 38961
1,@@ 38951
medallas 38949
pa 38947
Music 38944
1958 38936
sello 38898
destaca 38891
U 38868
bandas 38863
Cristo 38840
pro@@ 38835
Allí 38812
estatal 38795
cierto 38767
trabajadores 38737
Otras 38705
deportiva 38697
ey 38687
científicamente 38686
aviones 38640
destacan 38631
tras@@ 38609
teniendo 38597
seguir 38571
Grande 38570
pérdida 38562
presidencia 38553
pasando 38540
Pal@@ 38533
ie 38528
ici@@ 38526
azo 38525
considerada 38520
Naciones 38504
vo 38482
capilla 38468
Ro@@ 38463
cámara 38425
deportista 38425
duque 38416
células 38413
iría 38408
Aragón 38405
Ya 38383
organizaciones 38378
ez 38372
comunidades 38363
ali@@ 38352
Ur@@ 38325
1944 38314
taron 38313
árabe 38298
leyes 38257
bosques 38250
apertura 38235
campos 38212
caída 38131
aco 38120
completa 38105
pop 38087
Soviética 37995
ao 37984
cuenca 37982
península 37970
amplia 37966
nacimiento 37966
D. 37962
salió 37945
falleció 37927
italiana 37924
oportunidad 37911
Martin 37899
famoso 37899
valores 37868
1941 37849
estrellas 37847
responsable 37844
múltiples 37835
papa 37811
series 37808
movimientos 37776
física 37755
por@@ 37750
golpe 37732
hacía 37719
st@@ 37704
1956 37686
hábitat 37664
Pro@@ 37629
Banco 37619
Richard 37579
tar 37561
1948 37515
números 37506
od@@ 37498
clave 37497
1961 37491
histórica 37462
indica 37451
competencia 37435
gas 37398
vecinos 37395
gener@@ 37378
ti 37363
Poco 37347
don 37310
tur@@ 37286
Algunas 37285
Todos 37271
vino 37263
compr@@ 37215
sab@@ 37207
montaña 37203
ocupó 37199
refiere 37166
gan@@ 37150
unión 37121
posiciones 37100
Ad@@ 37098
ang@@ 37079
alista 37073
grabación 37057
indígenas 37026
br 37022
concierto 37017
300 37012
ge@@ 37003
usado 36993
sabe 36972
aza 36971
técnico 36968
lenguas 36954
XVII 36947
Pol@@ 36938
dic@@ 36919
abierto 36878
peces 36875
dejar 36871
humana 36866
J. 36832
escala 36825
qui@@ 36820
operación 36819
formada 36813
Bel@@ 36809
Ne@@ 36808
Maria 36799
escenario 36779
concurso 36753
escribir 36705
contrario 36695
sufrió 36678
gar@@ 36673
compitió 36659
cargos 36626
sangre 36620
guitarra 36611
Justicia 36607
aspecto 36577
for 36572
ias 36567
ámbito 36556
esc@@ 36529
aparecen 36510
franceses 36506
cuarta 36486
Cr@@ 36482
Isla 36478
Victoria 36473
Batalla 36456
estaciones 36456
totalmente 36455
prisión 36447
Irlanda 36411
permaneció 36405
3.@@ 36403
recibido 36403
interpretación 36401
yo 36398
consiste 36394
busca 36389
ila 36356
mo 36353
CD 36322
expresión 36322
medidas 36305
Red 36298
código 36298
utilizando 36298
recién 36296
ell 36292
Nuestra 36279
Rica 36278
aya 36270
anual 36268
judíos 36257
núcleo 36244
Me 36232
intención 36229
puertas 36217
sur@@ 36186
Pi@@ 36184
noreste 36125
Él 36114
íes 36082
rom@@ 36071
4@@ 36058
ib@@ 36018
denominada 36007
límite 35982
industrial 35979
Gómez 35972
ne 35957
episodios 35952
resultó 35952
descubierto 35938
don@@ 35932
1959 35895
au@@ 35895
llamó 35894
Premios 35885
Se@@ 35842
desempeñó 35836
electoral 35831
ocasión 35830
ines 35823
ataques 35818
You 35799
tes 35791
condición 35783
Dr. 35776
aquí 35776
pat@@ 35770
Avenida 35759
1957 35736
Mag@@ 35700
podían 35700
Islas 35683
altas 35680
expedición 35677
fiesta 35668
Cre@@ 35651
có 35624
Nació 35623
asociación 35618
1955 35600
propuesta 35568
romano 35564
den 35537
For@@ 35526
zar 35525
fi@@ 35522
coc@@ 35495
Granada 35479
asiáticos 35476
letras 35476
culturales 35464
pies 35455
vivir 35454
Park 35439
encima 35436
1943 35433
identidad 35417
participantes 35406
piloto 35406
Oro 35383
dejando 35365
Az@@ 35359
Países 35354
sexual 35343
estudiar 35336
San@@ 35324
Ricardo 35301
comienzos 35300
masa 35294
Municipal 35277
Egipto 35276
‘ 35266
pol@@ 35244
Suecia 35240
asesinato 35222
2@@ 35221
Sub@@ 35209
iendo 35195
oto 35178
33 35170
corto 35165
marco 35161
vivió 35159
únicamente 35126
1942 35120
Mac@@ 35099
Región 35085
Ben@@ 35072
accidente 35025
discos 35015
construida 35011
Estación 35009
urbano 34979
invierno 34968
Estudios 34946
actores 34940
abogado 34931
Alto 34903
ordenó 34898
Gar@@ 34892
P 34890
Cer@@ 34883
une 34879
idae 34877
ión 34870
VI 34859
Bor@@ 34857
escudo 34854
recibir 34851
poblaciones 34845
Por@@ 34844
tor 34831
plano 34830
Mo@@ 34826
az 34809
regional 34809
demasiado 34798
f 34795
utilizan 34792
reconocido 34790
apenas 34787
encontrado 34766
Grecia 34733
denominación 34691
hi@@ 34665
últimas 34658
ven@@ 34633
ganador 34609
ferrocarril 34600
conoció 34588
visita 34579
Díaz 34571
Man 34512
árboles 34483
producir 34476
ide@@ 34432
tem@@ 34410
Atlético 34408
icio 34403
listas 34395
ética 34389
cap@@ 34387
argentina 34364
Ros@@ 34360
salir 34340
ciudadanos 34329
Er@@ 34324
Mario 34302
afroamericanos 34278
ist@@ 34277
Texas 34254
radi@@ 34245
especiales 34219
Canal 34195
vídeo 34181
Tar@@ 34175
1946 34170
autoridad 34163
vir@@ 34158
hospital 34157
plataforma 34157
Nicolás 34156
labor 34142
comunes 34122
entrar 34090
St@@ 34085
natal 34082
Tur@@ 34067
do@@ 34063
Economía 34060
Social 34056
jas 34053
bandera 34023
femenino 33994
cierta 33980
cel@@ 33965
ing@@ 33961
ayudar 33944
1952 33941
Señora 33938
fuertes 33936
1949 33922
claro 33908
estimada 33906
Hospital 33904
quinto 33888
ahí 33847
doce 33840
coronel 33834
son@@ 33816
Sistema 33811
lenguaje 33810
arco 33803
tí@@ 33796
sureste 33787
describe 33780
procesos 33779
convertido 33778
coleóptero 33774
Parlamento 33759
propias 33751
propiedades 33748
destino 33744
bol@@ 33730
del@@ 33724
religión 33723
oma 33722
estándar 33694
récord 33691
lograr 33669
Vill@@ 33632
letra 33601
ins@@ 33600
vehículos 33590
vías 33579
pen@@ 33539
usando 33532
directa 33526
regular 33526
juicio 33525
ológico 33488
pasajeros 33483
arle 33478
Federico 33469
1954 33442
bajas 33435
moderna 33432
públicos 33432
romana 33429
ístico 33428
Mil@@ 33424
G 33388
reinado 33377
Europea 33351
port@@ 33311
tom@@ 33306
búsqueda 33288
hor@@ 33286
emp@@ 33274
1938 33270
K 33269
Be@@ 33252
reunión 33235
Ter@@ 33214
teniente 33209
Cab@@ 33200
ej@@ 33196
enci@@ 33142
Suiza 33137
1937 33135
violencia 33134
ari 33125
protagonista 33125
Superior 33124
retiró 33115
1947 33114
ill@@ 33110
Taxonomía 33103
géneros 33102
illos 33102
1953 33100
catedral 33086
filosofía 33080
acu@@ 33072
che 33059
tradicionales 33049
aspectos 33045
Mas@@ 33028
Bajo 33011
mas@@ 32988
copias 32979
corazón 32960
profesionales 32948
trabajando 32919
viene 32918
señor 32885
raíz 32878
potencia 32874
Serie 32858
convirtiéndose 32856
bur@@ 32843
suelen 32823
ud@@ 32818
ventas 32818
Dis@@ 32817
00 32814
ojos 32814
cat@@ 32805
baloncesto 32800
entorno 32795
contó 32778
Ol@@ 32769
inicios 32769
Ministro 32763
Love 32761
mantiene 32761
aqu@@ 32760
categorías 32736
cion@@ 32734
diócesis 32732
ema 32729
36 32718
Roberto 32716
Javier 32709
compañeros 32707
reforma 32691
Rock 32683
clásico 32675
Chicago 32669
presentan 32651
Compañía 32632
centr@@ 32623
cul@@ 32623
Otro 32605
relacionados 32602
Cine 32596
abrió 32588
Fuerza 32565
Organización 32563
álbumes 32556
American 32552
amerindios 32535
poesía 32524
planeta 32517
ulares 32509
Reg@@ 32492
Florida 32488
Zaragoza 32477
corriente 32471
Men@@ 32452
documentos 32445
fachada 32445
Paraguay 32420
materia 32390
segundos 32378
arlos 32372
establecer 32366
Bretaña 32353
artes 32351
invasión 32331
Occidental 32314
Mer@@ 32295
elemento 32288
2,@@ 32287
Pres@@ 32284
Lee 32274
Existen 32250
poca 32243
aquella 32230
simple 32226
envió 32214
Sebastián 32209
cant@@ 32203
Henry 32195
no@@ 32190
tropical 32185
volumen 32159
iones 32158
allá 32148
impacto 32142
civiles 32136
agricultura 32132
músico 32130
vive 32122
bosque 32103
barco 32099
leg@@ 32088
B. 32080
ió 32078
secundaria 32071
Música 32069
montañas 32066
cuadro 32057
bor@@ 32043
suroeste 32033
Rosario 32011
familiar 32009
promoción 32004
recorrido 31996
orio 31992
escenas 31975
Corte 31940
latín 31933
pe 31933
pidió 31932
estructuras 31915
3@@ 31908
2022 31907
34 31902
descrito 31902
sh@@ 31899
Frente 31895
grabado 31888
cambiar 31885
llevado 31885
Bur@@ 31863
Comunidad 31847
ran@@ 31844
du 31840
localidades 31837
pon@@ 31822
pieza 31806
abr@@ 31803
página 31795
lados 31794
acional 31780
sirvió 31766
ficción 31734
corta 31731
alizado 31729
mente 31724
ote 31714
quería 31700
oper@@ 31695
uc@@ 31691
puesta 31678
duración 31676
1931 31670
plan@@ 31655
disponible 31652
evolución 31646
Joseph 31645
historiador 31631
Santos 31629
be@@ 31618
Smith 31614
europeos 31600
monasterio 31591
expansión 31590
400 31587
Cap@@ 31577
riesgo 31562
muerto 31559
dios 31541
apar@@ 31539
College 31528
dedicó 31504
dedicado 31503
Del@@ 31491
textos 31490
Ayuntamiento 31485
Unidas 31459
adamente 31457
formando 31450
EE 31449
ística 31446
fondos 31442
ografía 31437
uras 31422
incluida 31391
añ@@ 31390
aeropuerto 31378
1933 31370
Moscú 31370
ov 31364
Tres 31359
residencia 31354
poner 31349
seguido 31320
Bajos 31301
privada 31300
chino 31298
editorial 31294
diseñado 31268
Pin@@ 31258
mexicana 31244
sión 31239
ín@@ 31210
reales 31209
Fe 31207
der@@ 31199
federal 31158
gran@@ 31146
sub 31145
Participó 31143
én@@ 31129
ur 31115
Muchos 31111
pan@@ 31097
neg@@ 31077
contexto 31076
Cat@@ 31075
iro 31073
decreto 31069
redes 31065
piano 31056
árbol 31050
tir@@ 31012
Rec@@ 31006
Carmen 30987
XIII 30981
Torre 30978
S. 30939
normalmente 30933
dur@@ 30915
5@@ 30913
usuarios 30900
celebró 30882
Bi@@ 30873
terminar 30862
llevaron 30819
Cuenta 30804
ece 30796
crítico 30795
haya 30792
cubierta 30788
cola 30786
entrevista 30779
ros@@ 30744
incluyó 30723
juntos 30708
públicas 30699
presentación 30689
Panamá 30687
tura 30683
au 30676
nombró 30660
Rosa 30654
ago 30651
uta 30631
desarrollar 30628
utilizó 30595
Junto 30593
H 30587
diferencias 30580
Lo@@ 30560
particularmente 30545
ún 30543
deja 30540
so@@ 30538
Du@@ 30537
británicos 30525
comarca 30519
mandato 30510
presentado 30507
ak 30504
atorio 30498
planes 30494
38 30493
marcó 30473
iva 30469
Sar@@ 30465
antiguas 30465
Otra 30445
ónicas 30430
aro 30374
ubicación 30373
Á@@ 30371
ativos 30367
1934 30366
dedicada 30366
pertenecían 30364
logra 30360
dura 30358
pocas 30354
1951 30350
Q@@ 30342
tora 30342
reacción 30339
llamados 30332
w@@ 30330
Pas@@ 30327
americano 30320
incluía 30312
mand@@ 30306
Castro 30293
objetivos 30293
altos 30279
artístico 30274
trono 30268
cam@@ 30267
tero 30267
Monte 30243
publicaciones 30240
actuales 30239
¡ 30218
relativamente 30214
historias 30208
representante 30203
festival 30199
producida 30197
tramo 30197
tabla 30163
pobreza 30158
entidad 30154
ocupa 30127
corresponde 30125
acion 30115
consumo 30086
flota 30057
cr@@ 30039
breve 30027
religiosa 30026
cercano 30024
Min@@ 30020
blanca 30008
anes 29996
Chi@@ 29992
etes 29991
originales 29980
transmisión 29979
Oriental 29975
revolución 29975
homenaje 29969
icamente 29966
externos 29956
músicos 29955
lin@@ 29942
Administración 29923
popularidad 29923
aci@@ 29909
espacios 29899
destacar 29897
Bas@@ 29890
activa 29884
Mejor 29876
provincial 29869
propósito 29858
razones 29858
expres@@ 29850
poderes 29848
ko 29847
ram@@ 29844
Har@@ 29843
investigaciones 29830
public@@ 29824
prop@@ 29815
ficación 29794
científico 29789
constante 29784
protagonizada 29775
comedia 29760
ine 29741
ter 29738
tesis 29737
ándolo 29724
ciclo 29720
históricos 29720
mañana 29714
límites 29706
precio 29702
1935 29696
bienes 29695
motivos 29695
ocupación 29695
sol 29682
característica 29662
ensis 29660
St 29645
cabecera 29627
not@@ 29602
muestran 29586
ch 29578
compañero 29540
líderes 29539
éndose 29526
Esp@@ 29512
School 29508
registro 29505
marido 29463
anza 29450
1929 29449
conservación 29447
sem@@ 29444
All 29443
críticos 29442
cri@@ 29438
adaptación 29433
muertos 29429
enviado 29419
cá@@ 29412
ediciones 29411
opinión 29408
elli 29399
afirmó 29383
podrían 29380
revistas 29371
abandonó 29365
1932 29360
conquista 29359
diámetro 29354
fal@@ 29342
mejorar 29318
me@@ 29316
chileno 29303
motores 29277
entrega 29250
rot@@ 29250
it 29234
tren 29232
moderno 29229
fábrica 29208
75 29190
etos 29190
ner 29190
65 29188
Pan@@ 29188
áticos 29181
quedando 29180
ik@@ 29174
ac 29172
femenina 29164
1918 29148
quién 29134
ades 29124
turas 29122
suficiente 29118
cuyos 29105
europeo 29105
machos 29085
VII 29082
regresar 29075
utilizada 29072
pul@@ 29059
bases 29054
Tribunal 29046
EP 29035
7@@ 29030
barcos 29020
Defensa 29001
dinastía 28993
má@@ 28991
instrumentos 28989
éste 28984
Toledo 28941
Mi@@ 28934
Billboard 28931
obteniendo 28920
notable 28915
digital 28907
víctimas 28874
sectores 28872
42 28860
ost@@ 28851
Armada 28832
elenco 28826
agr@@ 28814
Marina 28790
inmediatamente 28790
dido 28786
comportamiento 28784
ingeniero 28781
métodos 28778
fe 28772
aña 28770
conserva 28766
ju@@ 28766
Estudió 28725
imp@@ 28715
go 28711
Ag@@ 28709
ers 28708
.. 28700
rápido 28697
cuerpos 28655
corona 28648
th@@ 28629
establecido 28626
César 28621
audiencia 28610
8@@ 28605
M. 28596
afirma 28595
Biblioteca 28582
Oriente 28582
fusión 28566
Catedral 28563
prácticamente 28563
micro@@ 28549
quiere 28521
victorias 28518
Navarra 28508
artística 28502
mismas 28502
sac@@ 28495
provocó 28490
inferiores 28469
ger@@ 28444
Bélgica 28430
1928 28424
Aeropuerto 28419
documental 28419
gi@@ 28413
atrás 28404
realizaron 28389
veinte 28369
pinturas 28365
siguiendo 28362
ler 28355
hierro 28337
Hor@@ 28333
superiores 28318
ieron 28315
profundidad 28307
ingreso 28305
Royal 28304
Louis 28296
informe 28279
msnm 28211
pag@@ 28195
domin@@ 28192
dia 28185
Primer 28180
oras 28178
Campo 28177
abajo 28165
señal 28153
64 28144
pantalla 28098
ón@@ 28096
liber@@ 28093
inf@@ 28071
científicos 28067
tasa 28061
espectadores 28059
Franco 28053
Gabriel 28049
National 28048
dr@@ 28033
sil@@ 28026
Lorenzo 28013
ilo 28004
Mel@@ 28001
excepción 27998
isa 27963
intentó 27961
habitual 27952
lar@@ 27942
eles 27940
Mc@@ 27939
destacado 27932
edo 27919
ak@@ 27915
química 27912
alimentos 27904
cultivo 27896
extr@@ 27896
tra@@ 27891
pin@@ 27873
Tratado 27861
compañías 27860
enseñanza 27828
37 27817
demanda 27812
tra 27811
asc@@ 27810
excepto 27810
tráfico 27773
ór@@ 27751
ba@@ 27747
ciertos 27742
Movimiento 27741
noticias 27726
monumento 27720
ológica 27717
Internet 27711
fic@@ 27699
escritos 27685
atoria 27680
be 27662
viviendas 27658
ingresó 27657
actuaciones 27653
grados 27651
vas 27627
* 27626
presentes 27622
distritos 27576
mel@@ 27575
justo 27570
Ci@@ 27557
Cultural 27546
amplio 27529
Joaquín 27511
Ger@@ 27506
serían 27506
software 27500
Sur@@ 27491
ición 27486
trayectoria 27472
XV 27458
Carolina 27439
tis 27431
Th@@ 27429
sum@@ 27429
eng@@ 27427
legal 27426
caza 27421
pone 27418
factores 27414
miles 27412
negocios 27379
Doctor 27374
permanente 27365
1914 27356
deportivo 27333
graduó 27332
jardín 27316
King 27308
Condado 27307
proviene 27306
ep@@ 27292
So@@ 27289
oni 27288
piel 27288
cita 27286
símbolo 27286
finalizó 27281
ard@@ 27271
titulada 27268
conocidas 27258
treinta 27251
cont@@ 27249
termina 27241
Black 27240
multi@@ 27240
entemente 27239
constitu@@ 27234
1000 27227
West 27214
ceremonia 27214
dej@@ 27188
justicia 27182
batería 27174
Li@@ 27170
zar@@ 27136
ques 27127
éxitos 27125
ale 27112
Mad@@ 27110
guion 27105
estreno 27086
posiblemente 27079
Bellas 27073
55 27070
XII 27053
Cur@@ 27050
1919 27049
ópera 27044
Militar 27039
interna 27031
consta 27028
dió 27028
describió 27022
encontraban 27020
familiares 27017
solar 27008
4.@@ 27003
alar@@ 27002
enas 26995
cumplir 26990
global 26989
ega 26988
culto 26987
Hungría 26984
realmente 26981
asumió 26974
48 26969
Viena 26967
ave 26965
v 26952
ecer 26951
irá 26930
intervención 26924
em 26922
Ignacio 26916
sitios 26897
ubica 26892
Street 26883
Bu@@ 26880
Salud 26870
enemigo 26864
informó 26864
Un@@ 26860
funcionamiento 26860
pic@@ 26852
escritura 26849
viven 26843
ampliamente 26834
eje 26834
orquesta 26817
1910 26811
sel@@ 26793
disputa 26787
Mes@@ 26750
eti@@ 26750
abandonar 26747
metro 26731
met@@ 26726
Televisión 26691
municipales 26691
44 26677
Luna 26672
intereses 26669
Concepción 26663
peligro 26659
1924 26648
recientemente 26648
fiestas 26638
E. 26635
colonia 26614
participaron 26613
ot 26607
llegado 26606
1917 26604
consejo 26602
extranjero 26593
by 26588
primavera 26576
representantes 26571
Ir@@ 26566
japonesa 26562
documento 26561
52 26528
Ge@@ 26520
Tri@@ 26519
mas 26515
Dentro 26505
sec@@ 26459
Habita 26446
Cam@@ 26435
onda 26431
sean 26416
arriba 26414
deriva 26407
jug@@ 26402
buscar 26388
continuar 26379
ayo 26374
poblado 26373
eléctrica 26362
jos 26362
Tercera 26361
cin@@ 26357
Tel@@ 26346
evidencia 26336
6@@ 26331
posibles 26320
Noruega 26308
Rico 26304
ed 26303
ganando 26301
tadas 26296
Fr@@ 26291
Católica 26286
biblioteca 26286
nación 26274
Sobre 26258
agente 26256
Tomás 26251
Comenzó 26247
NBA 26235
Atlántico 26227
retirada 26219
Me@@ 26216
fama 26213
International 26209
Reyes 26201
cristianos 26199
pueda 26187
ende 26173
oria 26172
Senado 26159
Agustín 26150
emos 26148
ah 26144
debió 26110
ológicas 26100
canales 26096
etapas 26094
organizado 26067
all@@ 26066
dad 26057
Jack 26055
actuó 26040
dulce 26038
dictadura 26034
iniciativa 26034
có@@ 26020
incluidos 26014
vehículo 26010
momentos 26005
medicina 26001
ma@@ 25990
vieron 25966
poli@@ 25963
clásica 25951
componentes 25948
Super@@ 25923
igu@@ 25919
terrenos 25913
empleados 25912
basa 25898
Company 25896
alizada 25890
dev@@ 25887
cápita 25875
esfuerzos 25872
individual 25870
cau@@ 25864
1925 25860
programación 25860
cl@@ 25848
go@@ 25831
solución 25825
triunfo 25822
enfrentó 25816
papeles 25813
reciente 25795
acabó 25786
tivas 25759
9@@ 25757
atas 25757
cercana 25757
Ruta 25755
asesinado 25753
establece 25723
actu@@ 25719
Torres 25711
enfermedades 25705
jugando 25703
1927 25690
tamente 25685
Sab@@ 25673
Montevideo 25668
pes@@ 25665
negra 25653
Seguridad 25615
finalizar 25597
Bogotá 25583
convento 25583
Ucrania 25581
Ti@@ 25575
alianza 25575
igo 25557
abierta 25554
ego 25537
DVD 25529
fin@@ 25520
trabaja 25518
científica 25517
compar@@ 25515
Cl@@ 25506
normal 25504
sirve 25504
cosa 25501
reserva 25493
Escocia 25491
deporte 25479
ál@@ 25473
alter@@ 25465
Rom@@ 25462
continente 25458
margen 25441
saber 25429
órgano 25417
europea 25414
ológicos 25410
guitarrista 25401
Álvarez 25384
daños 25382
Mendoza 25381
1912 25359
Super 25355
ra@@ 25342
Sub 25333
novelas 25332
isleños 25329
extranjeros 25320
1922 25301
tia 25294
rural 25281
celebra 25279
R. 25275
onia 25275
individuos 25273
inform@@ 25272
ciertas 25268
úa 25256
mes@@ 25249
oy@@ 25238
fundamental 25234
0@@ 25232
infantil 25224
carne 25204
correspondiente 25190
delante 25190
flor@@ 25188
inglesa 25173
ejecución 25167
Res@@ 25159
rol 25159
Medio 25158
amarillo 25152
Mur@@ 25146
ejemplos 25137
colegio 25130
pasaron 25128
perder 25128
llam@@ 25120
religioso 25117
Andalucía 25116
mostró 25104
hacerse 25099
j 25093
inicia 25084
grafía 25076
Argumento 25073
comisión 25054
rama 25052
crea 25042
definición 25039
divide 25037
ere 25025
Independencia 25018
declarado 25017
editor 25009
je 25008
39 25005
piso 24974
berg 24949
1926 24939
monte 24931
ell@@ 24930
Lu@@ 24918
Ay@@ 24917
enfrent@@ 24906
Mary 24901
cartas 24897
significado 24884
Mir@@ 24883
osis 24881
diciendo 24878
insecto 24871
leyenda 24862
confirmó 24860
Servicio 24851
ides 24845
descubrió 24840
Sch@@ 24837
lan@@ 24837
Star 24836
activos 24835
romanos 24829
aplicaciones 24828
perdido 24824
alumnos 24815
chas 24805
n.º 24803
cero 24802
actuar 24786
ue 24779
alas 24778
prec@@ 24775
1923 24771
Galicia 24769
ético 24768
hablar 24766
conexión 24760
pur@@ 24758
iv@@ 24753
País 24738
ang 24738
cientos 24738
Lista 24723
extiende 24714
Zelanda 24702
desarrolla 24696
totalidad 24687
41 24678
fechas 24675
Alonso 24673
enorme 24668
tic@@ 24661
mucha 24659
grabó 24644
ind@@ 24634
Director 24632
acer@@ 24621
espectáculo 24621
establecimiento 24615
ite 24611
logrando 24606
encuentros 24602
concentración 24598
ácido 24595
iglesias 24588
Jaime 24585
encargado 24585
posesión 24571
loc@@ 24565
presentar 24561
infancia 24541
rendimiento 24539
43 24528
onal 24511
portada 24500
Sudáfrica 24495
tratar 24491
Brown 24489
espec@@ 24474
asuntos 24471
sacerdote 24463
formaron 24461
negocio 24454
resolución 24450
enemigos 24446
pacientes 24446
ca@@ 24445
absoluta 24444
show 24439
adultos 24437
económicos 24437
llev@@ 24423
hielo 24420
alizar 24407
det@@ 24405
sitúa 24392
organizó 24384
lar 24383
Alianza 24371
apa 24370
Tom@@ 24369
Is@@ 24368
Van 24361
vin@@ 24361
Oeste 24359
ausencia 24357
columnas 24335
lic@@ 24325
cáncer 24324
Investigación 24314
oa 24309
150 24300
económicas 24300
• 24298
representan 24296
animal 24289
hon@@ 24279
ren@@ 24277
Sin@@ 24276
erse 24270
cuestión 24264
Negro 24258
ez@@ 24255
san 24254
regionales 24246
eza 24237
1900 24232
din@@ 24224
inici@@ 24224
ula 24220
Todo 24219
resulta 24200
divisiones 24199
intenta 24197
aplic@@ 24193
P. 24186
participado 24178
continúa 24177
ác@@ 24177
hidro@@ 24173
Hoy 24162
menciona 24159
tap@@ 24159
Regional 24153
adquirió 24153
ou 24153
llevan 24127
universidades 24117
físico 24109
prot@@ 24105
religiosas 24096
comparación 24082
Miss 24081
constituye 24080
estuvieron 24080
utilizados 24080
ciencias 24078
la@@ 24072
unirse 24071
temprana 24068
oscuro 24063
Pierre 24055
Camp@@ 24048
pensamiento 24045
celebración 24040
elas 24035
Go@@ 24026
presidencial 24017
pico 24015
vos 23998
Reina 23995
47 23994
encontraron 23992
dada 23983
Sa@@ 23980
oficinas 23971
bo 23969
Alrededor 23958
Hugo 23954
At@@ 23928
ene 23926
Em@@ 23922
sexo 23917
secreto 23912
à 23905
Enlaces 23902
Ca@@ 23898
tocar 23895
ejemplares 23894
ras@@ 23882
emb@@ 23879
Honduras 23874
char@@ 23870
cayó 23857
playa 23856
coalición 23855
arma 23852
consideran 23848
gir@@ 23848
esfuerzo 23846
Caracas 23838
quer@@ 23835
aldea 23832
edi@@ 23828
once 23827
pez 23819
1921 23800
borde 23794
fon@@ 23765
lejos 23765
My 23764
eco 23750
atura 23746
Gor@@ 23744
áticas 23733
viol@@ 23723
individuales 23721
espera 23719
plazo 23714
rusa 23707
verdadero 23706
famosa 23705
iga 23703
Ru@@ 23701
bar 23698
Socialista 23690
oides 23687
siguen 23686
XIV 23683
denomina 23683
adero 23675
iciones 23670
capítulo 23669
Asturias 23651
É@@ 23651
Relaciones 23648
Línea 23646
destacados 23646
fabricación 23636
rebotes 23631
judicial 23618
empate 23617
renta 23614
comida 23603
Fuerzas 23598
Ambos 23597
Dinamarca 23595
Aérea 23587
combinación 23586
vic@@ 23578
difusión 23570
realización 23570
bl@@ 23569
quinta 23568
completar 23567
griega 23555
ocurrió 23550
acia 23537
viajó 23527
tercero 23518
minuto 23504
contar 23503
derrotó 23499
Bat@@ 23481
viento 23477
duró 23466
comp@@ 23462
laterales 23459
opción 23459
anim@@ 23454
existentes 23450
Política 23442
sonora 23440
esper@@ 23434
amenaza 23425
Turquía 23424
Guardia 23413
isión 23402
Málaga 23401
Patrimonio 23398
realizan 23379
avance 23377
eos 23374
Caribe 23372
United 23367
descar@@ 23365
viajes 23361
destrucción 23352
51 23344
barrios 23333
Latina 23324
disposición 23324
previamente 23314
ich 23309
discurso 23305
caracteriza 23301
May@@ 23298
bahía 23292
integrantes 23285
Frank 23273
determinar 23269
Dor@@ 23265
diputados 23264
quem@@ 23264
sencillos 23262
po 23259
conten@@ 23256
lat@@ 23242
territorial 23240
rosa 23236
ban@@ 23235
seres 23231
46 23229
dica 23223
ificación 23222
Víctor 23203
Mark 23194
estudiante 23194
Tom 23189
Jones 23184
São 23184
voto 23181
ligeramente 23175
potencial 23167
incorporó 23166
aprobación 23161
data 23161
Obras 23153
Blanca 23151
fotografía 23133
imperio 23125
Cuerpo 23121
usan 23115
exclusivamente 23111
fortaleza 23105
Esc@@ 23094
alistas 23085
recuperar 23080
ejecutivo 23078
Bol@@ 23074
religiosos 23070
baj@@ 23061
directora 23051
Cant@@ 23048
confi@@ 23044
lograron 23042
Antecedentes 23041
aun 23038
ki 23037
ho@@ 23036
entrenamiento 23035
compra 23007
amb@@ 23005
Marcos 23002
oles 23000
ven 22986
restauración 22983
tó 22977
llamadas 22974
esti@@ 22966
capit@@ 22963
aumentar 22951
Mont@@ 22950
empieza 22937
reducir 22937
Marco 22936
grave 22934
Pueblo 22931
err@@ 22926
escultura 22923
espacial 22916
entado 22886
oficina 22886
One 22885
tam@@ 22878
pago 22866
disponibles 22859
To@@ 22845
quedaron 22837
conserv@@ 22835
ta@@ 22833
lanzada 22829
ésta 22825
Nor@@ 22812
cursos 22782
esposo 22781
Autónoma 22779
ü@@ 22773
descubrimiento 22766
fenómeno 22764
habilidades 22764
partida 22745
comúnmente 22743
Fil@@ 22740
Nación 22738
Provincial 22735
organismo 22734
amo 22733
Vol@@ 22726
Mu@@ 22722
viejo 22708
favor@@ 22691
ivo 22687
juez 22683
escritores 22681
permiten 22679
practic@@ 22673
tarea 22664
observ@@ 22660
filas 22655
ville 22653
juventud 22651
dientes 22649
administrativa 22647
Georgia 22633
fot@@ 22630
alej@@ 22621
consigue 22618
mad@@ 22616
concentr@@ 22605
orilla 22604
personales 22604
derrotado 22595
tin@@ 22594
Mol@@ 22591
quit@@ 22580
eños 22579
integrado 22578
moda 22577
1913 22574
Alta 22567
Ruiz 22563
eció 22559
privado 22555
océano 22552
relacionadas 22552
instalación 22549
Valladolid 22547
participa 22545
izar 22542
independientes 22540
consideró 22522
traducción 22519
ye 22518
rep@@ 22511
Grand 22510
definitivamente 22502
masculino 22495
verse 22493
tendría 22492
trenes 22485
verdad 22482
Hernández 22476
US 22470
reyes 22453
ri 22449
cuartos 22441
columna 22440
solitario 22435
urbana 22432
alb@@ 22431
fácil 22429
Dirección 22428
gobiernos 22426
Scott 22425
Jackson 22417
invitado 22417
ayud@@ 22414
descenso 22412
caballo 22410
Vil@@ 22408
prácticas 22407
probable 22406
chi@@ 22403
interpretado 22387
ans 22373
res 22372
semifinales 22371
gen 22369
alizó 22368
licencia 22366
til 22366
lig@@ 22363
usuario 22359
ech@@ 22352
aliados 22342
elos 22337
baile 22335
declaración 22335
podemos 22326
Paulo 22322
den@@ 22322
aliz@@ 22320
ke 22320
descripción 22319
95 22318
onales 22303
Teresa 22300
elegida 22296
L. 22293
emitió 22284
ens 22271
patrimonio 22271
apo@@ 22268
Pública 22265
hab@@ 22264
sent@@ 22263
Día 22255
pudieron 22255
vicepresidente 22239
obtiene 22234
buque 22230
rival 22214
Disney 22207
medieval 22199
coche 22192
constitución 22192
propuso 22192
sucesor 22191
explotación 22186
rod@@ 22184
emente 22183
poemas 22180
psic@@ 22168
Virginia 22163
600 22161
realizadas 22158
Primeros 22153
olo 22141
videojuego 22135
ramas 22128
castellano 22127
onía 22124
Williams 22123
ós 22113
cad@@ 22104
sexto 22092
cruz 22088
agentes 22086
Solo 22084
cinta 22078
usos 22077
Dec@@ 22074
IN@@ 22074
mantenimiento 22073
49 22069
He@@ 22057
ólogos 22029
XI 22020
Filipinas 22019
empleo 22007
5.@@ 22003
termin@@ 22003
Baja 21997
Big 21997
dimensiones 21995
capa 21984
Flores 21974
Times 21966
dem@@ 21961
lam@@ 21961
separación 21961
seguidores 21958
til@@ 21956
pelea 21950
iles 21936
suma 21930
vel@@ 21930
anotó 21925
pos 21925
mudó 21924
ándole 21917
Cir@@ 21911
introducción 21911
circuito 21909
dor@@ 21906
requiere 21903
Av@@ 21902
negó 21899
Entertainment 21891
relacionado 21881
pistas 21879
tendencia 21879
Cerro 21875
otorgó 21874
deseo 21871
ge 21865
recientes 21858
conferencia 21854
pasos 21854
Hacia 21846
portugués 21846
responsabilidad 21846
asociado 21843
asistencia 21838
proteger 21821
amistad 21818
Elecciones 21812
Tuvo 21807
Plan 21806
Tokio 21806
Blanco 21805
investigadores 21802
ulación 21802
Corona 21800
vas@@ 21800
hacerlo 21796
doctor 21784
Falleció 21775
cierre 21771
Mari@@ 21762
destacó 21757
disputar 21755
ocurre 21734
Pe@@ 21727
Guadalajara 21726
oferta 21725
cit@@ 21724
Far@@ 21720
egu@@ 21716
oz@@ 21712
orígenes 21687
figur@@ 21684
buques 21671
empresario 21662
inauguró 21661
eda 21660
1911 21659
conduc@@ 21659
hel@@ 21657
Moreno 21653
detalles 21653
estrenada 21653
pan 21652
ayudó 21643
imperial 21640
ard 21639
descubre 21634
gol@@ 21626
recuper@@ 21625
jar 21623
Ho@@ 21618
euros 21618
órbita 21612
combustible 21611
reclam@@ 21600
lanz@@ 21599
escapar 21595
delantero 21592
ster 21587
instrumento 21583
Estatal 21569
funcionarios 21568
No@@ 21567
tro 21567
Pel@@ 21566
deportes 21563
1916 21559
dot@@ 21559
54 21544
3,@@ 21539
Il@@ 21529
hubiera 21528
frecuentemente 21522
cambi@@ 21519
fund@@ 21507
Bolívar 21489
canadiense 21489
espíritu 21489
DC 21488
dificultades 21482
art 21480
necesidades 21477
alcance 21466
estima 21463
torneos 21463
Vega 21461
sus@@ 21460
Kar@@ 21457
explica 21457
teatral 21455
modernos 21448
uro 21440
bordo 21435
tu 21433
libres 21428
decidieron 21417
Secretario 21413
enses 21411
juvenil 21407
candidatos 21402
belleza 21397
Final 21392
colombiano 21388
primaria 21387
nor@@ 21385
Bon@@ 21383
izado 21380
Char@@ 21379
800 21374
VIII 21371
debían 21371
roja 21370
Os@@ 21368
entra 21360
1915 21359
ce@@ 21353
aur@@ 21340
ped@@ 21339
alla 21334
inaugurado 21317
anz@@ 21315
registros 21314
ritmo 21308
levant@@ 21292
hectáreas 21290
itación 21290
misiones 21290
turismo 21289
personalidad 21281
alcanza 21269
colonial 21262
fueran 21250
aprobó 21246
tono 21243
car 21238
fácilmente 21229
profesora 21227
avenida 21217
Puente 21210
sale 21198
estilos 21197
Atenas 21194
Burgos 21192
páginas 21191
tareas 21191
bot@@ 21190
origin@@ 21181
banco 21179
Señor 21164
ofreció 21160
Hall 21149
if@@ 21144
duda 21117
ingeniería 21112
cristiana 21110
250 21105
House 21101
autónoma 21089
enes 21084
Jefe 21076
ori@@ 21066
decoración 21065
izquierdo 21056
pertenecientes 21053
85 21045
nuestra 21038
Max 21037
CO@@ 21033
form@@ 21028
Im@@ 21027
mil@@ 21025
confianza 21018
mensaje 21003
atribu@@ 21001
ong 20998
regul@@ 20997
var@@ 20995
Mariano 20992
aliment@@ 20991
cementerio 20990
fica 20990
Año 20988
conflictos 20985
transición 20983
cuyas 20974
acompañado 20973
Aut@@ 20970
botánico 20966
debate 20966
Años 20964
Decreto 20962
Ven@@ 20959
bio 20958
prisioneros 20951
sucedió 20948
Murcia 20946
patrón 20943
chi 20938
reconocida 20932
literaria 20931
56 20926
máquina 20920
producen 20907
artillería 20895
omas 20892
raíces 20892
exposiciones 20888
mann 20887
bat@@ 20873
Si@@ 20866
Recepción 20863
indi@@ 20860
constitucional 20850
obligado 20850
tado 20846
Hollywood 20838
ficado 20838
aceptó 20832
aus@@ 20832
representar 20832
define 20828
reglas 20826
pese 20825
Comunista 20822
jer@@ 20818
sesión 20807
inal 20802
campañas 20782
consideraba 20781
IX 20779
Cádiz 20776
surgió 20774
temperaturas 20774
guerras 20769
americana 20763
lí@@ 20758
Young 20739
españolas 20729
Clasificación 20725
creciente 20722
Policía 20719
tío 20719
Pap@@ 20717
destinado 20715
princesa 20715
Deportes 20708
flujo 20706
pir@@ 20704
peruano 20700
brasileño 20691
enfoque 20691
Zona 20689
reducción 20688
nuestro 20686
Center 20685
permitir 20671
Vasco 20657
Derechos 20656
casado 20641
im 20637
abarca 20632
53 20628
Príncipe 20615
aniversario 20610
dirige 20597
factor 20597
Sim@@ 20596
junta 20596
ñas 20588
izada 20587
Sor@@ 20578
Sp@@ 20578
tido 20569
Salamanca 20561
cocina 20557
li 20555
videojuegos 20555
emisión 20546
lateral 20540
genes 20533
residentes 20531
vendió 20525
organismos 20512
asentamiento 20508
debería 20504
ale@@ 20501
otoño 20501
fir@@ 20500
I. 20486
senador 20486
Alexander 20478
astr@@ 20469
esclavos 20449
57 20443
idiomas 20440
rápida 20425
pagar 20423
ADN 20420
Pu@@ 20419
adicionales 20418
chilena 20418
clasific@@ 20411
lit@@ 20400
1908 20399
casco 20399
coro 20398
desplaz@@ 20395
compone 20389
Pl@@ 20387
Milán 20386
sen@@ 20381
q@@ 20379
Joe 20375
Libro 20375
acontecimientos 20369
ō 20365
Dem@@ 20364
mag@@ 20355
virus 20350
int@@ 20337
prepar@@ 20336
tienda 20327
gar 20322
In 20319
magnitud 20319
Sinopsis 20312
ónicos 20310
trat@@ 20308
recinto 20307
Calle 20306
agrícola 20298
secciones 20296
ili@@ 20295
producciones 20286
ania 20282
tal@@ 20275
inteligencia 20273
trabajado 20260
ski 20242
guard@@ 20239
introdujo 20235
1905 20234
caja 20232
petición 20231
usó 20231
Salón 20227
Ba@@ 20219
igualmente 20210
asistió 20205
Chris 20199
caballos 20199
gráfico 20198
sierra 20198
candidatura 20197
dil@@ 20195
existente 20190
Guinea 20186
Live 20186
apreci@@ 20186
olas 20186
land 20184
edor 20183
uma 20174
72 20168
plante@@ 20168
Walter 20163
It 20162
niña 20160
investig@@ 20159
cañones 20151
naves 20149
fruto 20141
10@@ 20137
inversión 20136
cañón 20131
ion@@ 20129
realiz@@ 20127
recuperación 20126
H. 20109
s. 20106
ich@@ 20102
White 20101
propietario 20098
Ford 20089
influencias 20089
soci@@ 20085
arc@@ 20079
pudiera 20079
ayuntamiento 20078
Producción 20072
ani@@ 20069
58 20065
Boston 20065
La@@ 20065
techo 20063
estancia 20057
ocupar 20043
Ang@@ 20036
cielo 20031
jado 20025
Top 20008
Hábitat 19992
agreg@@ 19992
habiendo 19983
trató 19973
Puebla 19971
paredes 19965
rocas 19963
aliza 19957
cincuenta 19955
rebeldes 19955
J 19953
Augusto 19948
rutas 19947
calor 19946
íos 19944
médicos 19941
hecha 19933
lesión 19924
volúmenes 19922
Sam@@ 19913
reemplazado 19912
Gracias 19909
arm@@ 19906
jur@@ 19905
jurisdicción 19902
UU 19901
atacar 19899
moral 19890
Hot 19879
punta 19879
Entonces 19868
liberación 19868
tampoco 19864
lanza 19855
ub@@ 19854
avi@@ 19851
temporal 19848
indios 19839
vegetación 19838
Alfredo 19837
quince 19831
gio 19825
llevaba 19817
Colonia 19816
Cortes 19815
canto 19814
ventaja 19811
promover 19807
acceder 19802
buenas 19801
modalidad 19800
pide 19793
mot@@ 19790
notables 19790
estrategia 19788
intentos 19786
aparecer 19782
universo 19781
verso 19781
reformas 19776
hotel 19774
controlar 19766
alguien 19762
arro@@ 19760
regresa 19756
Ju@@ 19742
Todas 19738
rel@@ 19738
Johnson 19735
ejerció 19733
off 19730
matar 19726
acero 19724
Debutó 19717
ecido 19717
poseen 19716
pisos 19715
Esteban 19711
ropa 19707
causas 19705
ear 19699
nadie 19698
ace@@ 19691
W 19690
corr@@ 19690
específicamente 19687
Venecia 19682
Luc@@ 19679
comerci@@ 19679
Hijo 19675
Ten@@ 19675
Comercio 19669
entas 19665
Jose 19659
trataba 19658
Sudamérica 19651
naciones 19650
celebrado 19647
mercados 19644
oca 19635
Servicios 19631
productores 19624
Football 19619
orden@@ 19616
otas 19615
creció 19608
nombrada 19604
Bot@@ 19600
Jerusalén 19600
Str@@ 19599
estando 19598
llegan 19592
mesa 19592
cuentan 19586
jazz 19575
equivalente 19573
salv@@ 19571
daba 19561
66 19559
musulmanes 19551
68 19549
Edward 19548
carbono 19544
que@@ 19541
dirigir 19535
ten 19535
grabaciones 19528
ciento 19517
Cel@@ 19514
desaparición 19493
mala 19493
poema 19490
rea 19480
reparto 19478
catalán 19473
paisaje 19466
considerar 19464
etti 19463
Ríos 19462
Trabajo 19457
apellido 19454
grabar 19454
Cristóbal 19448
umbral 19438
cárcel 19431
alternativa 19424
Lucas 19423
Gi@@ 19410
toneladas 19409
fiscal 19408
historiadores 19408
ice 19406
rebelión 19403
error 19402
transport@@ 19400
Vietnam 19394
normas 19394
escal@@ 19384
ava 19380
Arturo 19379
Gales 19365
comprende 19359
comenzar 19352
interpretar 19350
fun@@ 19347
ova 19340
fórmula 19336
narr@@ 19336
mencionado 19334
ces@@ 19331
Rojo 19329
obtenido 19315
a.@@ 19313
nace 19313
ates 19308
luchar 19307
uela 19305
Familia 19293
Les 19289
revela 19286
proteínas 19283
manga 19281
har@@ 19276
cuadrados 19272
Show 19269
negros 19269
Murió 19267
Medicina 19266
voluntad 19266
democracia 19264
cultiv@@ 19259
dúo 19255
millas 19254
graves 19249
nota 19248
preparación 19248
Marie 19245
entidades 19244
escritora 19243
Ferrocarril 19241
anta 19232
edores 19229
próximo 19228
asistente 19224
arra 19218
china 19213
Conde 19212
Fox 19211
Mos@@ 19206
incluir 19205
variedades 19203
morir 19201
encarg@@ 19197
hom@@ 19194
ono 19191
secuencia 19183
oh@@ 19182
vac@@ 19171
hipótesis 19169
dividido 19168
tomando 19168
Orquesta 19166
Cuatro 19165
útil 19158
sueño 19143
1906 19141
Columbia 19140
fa 19136
1909 19131
entales 19129
Gustavo 19122
realizados 19120
salas 19117
… 19108
nuclear 19099
Fin@@ 19098
drama 19098
organiz@@ 19098
boca 19094
ocupado 19092
mac@@ 19089
árabes 19088
publica 19084
dispar@@ 19082
siguieron 19080
mit@@ 19079
Emilio 19069
itar 19064
Bahía 19062
nacida 19058
compromiso 19056
marcas 19054
arena 19052
mir@@ 19045
Ban@@ 19043
endémica 19042
atus 19036
voces 19036
compuestos 19035
tensión 19024
apariencia 19021
aver@@ 19018
archivos 19014
ima 19008
equ@@ 19003
pesca 19000
sor@@ 18994
ejercicio 18992
apun@@ 18988
claramente 18987
fundadores 18981
SS 18979
Universal 18979
conocen 18975
reveló 18972
acas 18971
Hill 18970
continental 18964
telenovela 18964
estim@@ 18961
ette 18958
bel@@ 18946
diendo 18946
retirarse 18946
1907 18940
dolor 18940
63 18935
Raúl 18935
Profesional 18932
renuncia 18928
tab@@ 18922
definitiva 18921
Campeones 18919
periódicos 18915
frecuente 18910
CE@@ 18909
mostrar 18908
pap@@ 18905
representado 18901
endido 18895
ísticos 18894
derrotar 18893
embajador 18883
liberal 18882
Gutiérrez 18871
Mediterráneo 18869
complet@@ 18864
Ni@@ 18854
educ@@ 18851
convirtieron 18849
mos 18838
doctorado 18832
mos@@ 18827
ton@@ 18827
supone 18823
Interior 18822
arzobispo 18822
Irán 18819
pilotos 18819
recibieron 18819
teras 18812
publicados 18811
ane 18803
salvo 18801
74 18799
depende 18798
exilio 18787
encargó 18780
tripulación 18780
Sergio 18773
ek 18759
mínimo 18759
Argentino 18758
sugiere 18756
Finlandia 18753
Pro 18747
dir 18736
altar 18734
dañ@@ 18733
ef@@ 18731
clientes 18730
relato 18728
equilibrio 18727
descendientes 18724
Tanto 18722
Nov@@ 18719
costas 18714
ret@@ 18714
ás@@ 18712
Ben 18709
logrado 18706
ug@@ 18698
herramientas 18697
dibujos 18693
62 18690
acompañ@@ 18689
agrupación 18686
tiendas 18683
ís 18683
aprendizaje 18675
azar 18671
café 18664
enlace 18664
impuestos 18661
domingo 18651
Sil@@ 18647
Windows 18643
neur@@ 18643
ras 18632
ógrafo 18630
tormenta 18629
cinturón 18628
hijas 18625
otes 18621
98 18619
lev@@ 18619
cuarenta 18617
trama 18614
Silva 18611
vendido 18607
noticia 18602
Metro 18588
rico 18588
pad@@ 18587
Anna 18585
editado 18579
inmigrantes 18578
88 18577
alrededores 18572
cons@@ 18572
Township 18561
cost@@ 18554
pens@@ 18553
Grandes 18551
isiones 18550
pas 18550
adicional 18543
empleado 18538
estrecho 18538
comunas 18536
perdiendo 18532
Bernardo 18531
tir 18527
estatus 18521
cos@@ 18519
enti@@ 18514
Democrática 18505
abuelo 18498
asalto 18498
1904 18485
cion 18483
gana 18481
jornada 18481
vapor 18479
red@@ 18470
encontr@@ 18467
moneda 18467
empezaron 18465
99 18463
suerte 18450
Secretaría 18443
difun@@ 18436
ecas 18435
reunió 18435
Exteriores 18433
Illinois 18432
distribu@@ 18432
integró 18432
fl@@ 18431
ojo 18427
afluente 18412
académico 18409
millón 18409
visitantes 18409
ame 18402
reproduc@@ 18398
continua 18395
Peña 18394
University 18392
aquellas 18391
caballería 18386
terrestre 18380
tomado 18377
proporcion@@ 18369
salto 18369
6.@@ 18367
trá@@ 18364
establecieron 18361
italianos 18361
fuese 18357
pudiendo 18354
ángulo 18354
Mike 18352
identific@@ 18351
endas 18350
oni@@ 18350
interpretada 18348
instituto 18341
lá@@ 18326
electrónica 18325
Bob 18320
Albert 18318
1890 18308
naval 18305
River 18301
Janeiro 18294
fuertemente 18294
siones 18294
Z 18289
arcos 18286
costo 18274
tros 18274
Sala 18270
Rodrigo 18265
hogares 18262
colecciones 18251
discográfica 18250
Wilson 18249
heridos 18249
recuerda 18243
apariciones 18240
estatua 18239
Lar@@ 18233
integrada 18233
all 18229
causó 18227
elegir 18227
décimo 18226
Referencias 18224
ándola 18217
Bilbao 18212
UN@@ 18208
danza 18207
creando 18201
Jiménez 18192
incendio 18192
Team 18186
anillo 18186
intercambio 18186
taller 18182
Cabo 18172
ax@@ 18168
dispositivos 18165
monedas 18165
decisiones 18164
Vel@@ 18162
chos 18162
Time 18157
verdadera 18151
Ramírez 18142
organizar 18142
ender@@ 18141
enos 18138
negociaciones 18138
brillante 18135
hal@@ 18129
Rivera 18120
ubic@@ 18118
calendario 18108
soporte 18108
parti@@ 18107
Santander 18100
are 18096
oblig@@ 18094
terminal 18094
semillas 18091
Confederación 18089
Arquitectura 18083
murieron 18083
amar@@ 18075
ou@@ 18074
enterrado 18073
tradiciones 18069
restantes 18060
tan@@ 18048
contienen 18045
asegur@@ 18044
colonias 18043
inmediato 18036
escri@@ 18034
fallecido 18031
iti@@ 18030
proporciona 18029
cionales 18028
capaces 18027
sexuales 18021
ph@@ 18019
entación 18015
Ante 18014
Sen@@ 18014
Oscar 18010
ler@@ 18008
78 18007
alma 18006
existía 18004
realizando 18002
cambia 18000
instaló 17997
Nacido 17991
Gobernador 17989
Gen@@ 17986
onen 17985
Jugó 17983
Vic@@ 17980
alberga 17980
120 17979
tumba 17969
Pensilvania 17968
llen@@ 17967
lav@@ 17966
perspectiva 17965
Christian 17962
comité 17962
Hal@@ 17960
Operación 17951
tribu 17951
apoyar 17948
conferencias 17944
Trans@@ 17940
pec@@ 17940
colaboró 17932
Miami 17931
ul 17931
servir 17926
Conferencia 17923
Morfología 17920
infantería 17920
aces 17914
59 17913
ble 17912
idor 17911
Español 17907
observar 17906
presupuesto 17905
ati 17903
procedentes 17903
otorg@@ 17902
84 17900
autor@@ 17891
qued@@ 17889
gris 17888
Wrestling 17887
Kim 17883
tida 17881
eléctrico 17879
Verde 17875
1903 17872
Hol@@ 17869
cru@@ 17869
físicas 17864
construyeron 17863
Unidad 17861
escultor 17859
ección 17855
estudi@@ 17852
Art 17845
centrales 17841
proces@@ 17840
Fer@@ 17839
Joan 17839
torres 17838
Capitán 17834
aéreo 17831
habilidad 17831
96 17828
zación 17826
dispositivo 17825
Croacia 17824
Siria 17824
67 17820
occidentales 17816
Libertad 17815
eleg@@ 17815
Tony 17814
Medi@@ 17806
solista 17801
Padre 17798
enda 17791
cuello 17790
mecanismo 17790
Marruecos 17786
autonomía 17784
clara 17783
Nav@@ 17782
inv@@ 17778
escribe 17762
puedan 17756
76 17755
Catalina 17753
héroe 17751
cias 17724
ali 17722
je@@ 17716
petróleo 17710
far@@ 17706
acionales 17705
frase 17705
Pese 17703
Herrera 17694
huevos 17694
Ob@@ 17691
amento 17686
Población 17685
Transporte 17685
pared 17685
CA@@ 17684
mejora 17680
república 17676
Nicaragua 17665
20@@ 17663
icia 17656
señaló 17656
BBC 17651
quin@@ 17650
socialista 17649
bles 17643
ore 17642
firmado 17639
ofensiva 17628
aja 17626
uales 17620
Barr@@ 17611
Ul@@ 17606
otr@@ 17606
asign@@ 17604
ben@@ 17604
soviético 17601
largas 17595
variante 17594
pesos 17588
europeas 17585
oportunidades 17583
G. 17579
Formación 17578
departamentos 17576
Siglo 17572
parcialmente 17572
Brian 17569
UEFA 17567
ey@@ 17563
brazo 17561
limitada 17559
actitud 17558
q 17557
fracaso 17553
fol@@ 17550
61 17549
defender 17548
sion@@ 17548
XXI 17540
ei 17539
individuo 17539
Gregorio 17538
lectura 17535
habitación 17534
japoneses 17534
chica 17533
máquinas 17524
itario 17521
vocalista 17521
Zamora 17511
aer@@ 17504
predic@@ 17504
supuso 17504
ejo 17501
nombr@@ 17501
ā@@ 17501
Filosofía 17498
usada 17497
minas 17494
riqueza 17494
aleg@@ 17491
Hitler 17489
elaboración 17488
rein@@ 17488
Steve 17486
ingleses 17475
tomaron 17465
regres@@ 17460
92 17455
señala 17453
conservan 17449
compró 17434
agencia 17430
diseños 17428
dependiendo 17427
añas 17426
caminos 17425
competiciones 17425
Pir@@ 17418
tec@@ 17418
partió 17417
cordillera 17413
intr@@ 17413
localizado 17411
volvieron 17410
alia 17407
aparte 17399
vuelos 17397
alt@@ 17391
Tre@@ 17384
Asunción 17360
w 17359
óp@@ 17359
1902 17356
maestros 17349
Tal@@ 17348
clásicos 17339
alcanz@@ 17336
Bill 17331
mis@@ 17331
osamente 17331
pun@@ 17331
siglas 17326
ría 17323
áceas 17322
versos 17321
record@@ 17316
votación 17315
administr@@ 17313
cantidades 17311
Regimiento 17306
ys 17304
anto 17303
noble 17299
Harry 17298
coloc@@ 17296
latino 17296
comunic@@ 17282
americanos 17281
otorgado 17280
concedió 17278
parecer 17278
dividida 17273
Mujeres 17272
disciplina 17272
organizada 17261
informes 17255
tribus 17253
vit@@ 17250
Ohio 17249
cerámica 17249
Bautista 17244
completó 17237
encontrarse 17233
entó 17233
Programa 17232
tro@@ 17232
1880 17231
situaciones 17231
aérea 17230
Fueron 17229
eri 17228
77 17221
piedras 17219
ker 17218
Latinoamérica 17211
ces 17208
mina 17207
onio 17204
Mi 17201
Guerrero 17198
frío 17198
nativos 17197
aceite 17191
dispone 17191
marcado 17188
vidas 17188
fallecimiento 17183
Life 17182
ánica 17180
círculo 17175
roc@@ 17174
aki 17172
ango 17170
visit@@ 17170
complement@@ 17164
Pat@@ 17162
celebr@@ 17157
placa 17149
herencia 17147
ible 17147
Kong 17145
Independiente 17144
Kr@@ 17142
esperanza 17141
ect@@ 17137
campeonatos 17135
indígena 17133
iniciar 17132
halla 17126
muros 17125
atac@@ 17124
seguro 17124
universal 17120
Libre 17110
Imperial 17108
eri@@ 17107
determinado 17103
urban@@ 17103
amp@@ 17101
fotografías 17100
órica 17096
benefici@@ 17090
fauna 17090
eliminar 17086
necesaria 17086
tarse 17083
Carl 17081
itarios 17080
competir 17079
serán 17075
Colón 17074
jardines 17074
hermanas 17071
Med@@ 17070
separ@@ 17065
Bre@@ 17064
eado 17064
High 17062
integr@@ 17061
circunstancias 17059
Nar@@ 17058
acta 17058
vis@@ 17054
71 17045
86 17044
Checa 17043
entreg@@ 17042
daño 17038
polaco 17038
eja 17036
orillas 17024
Dur@@ 17021
cop@@ 17019
desp@@ 17019
genérico 17014
Supremo 17013
seleccionado 17012
parecen 17005
formal 17002
retrato 17002
ruedas 17000
variable 16997
69 16994
roca 16993
estatales 16992
protestas 16990
vender 16990
elevado 16989
fall@@ 16984
reduc@@ 16984
sup@@ 16983
vers@@ 16981
Mercedes 16979
considerable 16971
alimentación 16970
Gran@@ 16967
culturas 16955
capítulos 16952
atorias 16947
precios 16945
griegos 16942
portuguesa 16942
filme 16936
On@@ 16929
bajos 16926
82 16921
sal 16921
referencias 16916
nu@@ 16915
auto 16908
Fu@@ 16901
superar 16899
Félix 16895
calific@@ 16894
present@@ 16894
conciencia 16892
animación 16888
bin@@ 16886
ji 16883
imos 16882
católico 16881
patio 16880
Ko@@ 16855
sa@@ 16851
Morales 16848
Turismo 16847
cuentos 16841
explic@@ 16836
cal 16827
bul@@ 16818
conf@@ 16817
pena 16814
bloque 16810
Inicialmente 16808
productora 16808
itaria 16805
cerro 16803
tropicales 16803
ox@@ 16801
― 16798
administrativo 16793
orr@@ 16785
ótica 16783
largos 16781
eliminado 16780
jurado 16776
Papa 16773
zado 16771
sar@@ 16770
aldo 16769
fabric@@ 16761
Lin@@ 16754
ivos 16754
separado 16751
intentar 16744
reclut@@ 16741
inscripción 16738
yendo 16737
depresión 16735
saga 16735
notas 16734
Óscar 16732
Observatorio 16723
infraestructura 16719
Taylor 16718
implica 16716
zo@@ 16716
asen 16714
exfutbolista 16712
revel@@ 16709
rusos 16709
och@@ 16707
udi@@ 16706
consecuencias 16704
exitosa 16702
rurales 16701
teorías 16696
dicas 16694
integración 16694
nav@@ 16687
Green 16677
Álvaro 16674
cuidado 16671
vig@@ 16671
Racing 16668
gl@@ 16665
cultivos 16662
Air 16659
gui@@ 16659
guionista 16656
especialista 16655
1898 16651
Hotel 16649
sen 16649
human@@ 16643
rasgos 16641
Fórmula 16638
Karl 16638
endi@@ 16628
cia 16625
rode@@ 16625
anda 16612
Andes 16605
Apertura 16604
Dominicana 16604
particulares 16604
resolver 16603
transformación 16600
víctima 16600
comentó 16592
haberse 16592
Palma 16591
into 16591
73 16589
Fun@@ 16588
pleno 16586
cuadr@@ 16576
parejas 16574
quedan 16574
AR@@ 16569
partículas 16565
up@@ 16561
profesores 16560
edit@@ 16555
def@@ 16554
marcador 16554
judía 16548
índice 16548
North 16546
éticas 16546
Flor@@ 16544
cent@@ 16544
construcciones 16543
vivían 16543
consum@@ 16542
logr@@ 16542
Romero 16541
dejado 16538
marqués 16521
considerados 16520
seno 16515
ablemente 16513
sir@@ 16512
desambiguación 16503
automóvil 16501
filial 16498
Society 16489
cámaras 16482
concluyó 16481
1870 16470
Segundo 16467
ventanas 16463
asent@@ 16458
Ernesto 16456
atorios 16456
ecto 16456
Temporada 16455
situ@@ 16448
duro 16444
incidente 16440
ensayos 16439
orientación 16437
gama 16432
bra 16426
Nápoles 16422
arg@@ 16417
81 16411
Habana 16411
alm@@ 16411
permitía 16411
93 16405
oral 16403
Hum@@ 16399
cima 16392
caer 16385
exten@@ 16368
Muerte 16366
dida 16366
representada 16366
ruinas 16354
qui 16353
profunda 16352
sucesión 16350
fichó 16349
acusado 16346
vivienda 16344
vencer 16342
oría 16337
Fi@@ 16332
Medina 16330
beneficios 16318
program@@ 16314
Tab@@ 16309
kh@@ 16307
rechazó 16305
color@@ 16295
ignor@@ 16289
anismo 16286
mont@@ 16286
itado 16281
Existe 16279
Muchas 16275
comunista 16266
diferenci@@ 16266
Canarias 16265
privadas 16260
gest@@ 16259
encial 16256
preten@@ 16256
fac@@ 16253
forme 16252
produc@@ 16243
fu@@ 16242
dicos 16241
laboratorio 16236
ardo 16231
Cul@@ 16230
publicar 16227
retiro 16227
ecimiento 16216
allo 16214
Asuntos 16213
he 16207
1@@ 16206
presidenciales 16206
lanzar 16205
Trinidad 16202
matemáticas 16201
voc@@ 16201
legado 16198
crearon 16193
parcial 16187
83 16184
fera 16183
person@@ 16183
gió 16178
Blue 16175
acabar 16175
influ@@ 16175
enfrentamiento 16174
Island 16173
ninguno 16173
ejércitos 16170
vivía 16165
sueco 16161
sesiones 16158
Mus@@ 16157
COVID 16151
eliminación 16149
acab@@ 16146
cinematográfica 16146
interno 16141
acuerdos 16138
prim@@ 16134
Magdalena 16130
dar@@ 16129
ão 16129
reuniones 16121
Arthur 16119
persecución 16116
blancas 16113
Tenía 16112
orient@@ 16111
Jo@@ 16107
aut@@ 16107
America 16106
aloj@@ 16106
1901 16105
docente 16105
pertenecía 16105
Hacienda 16102
séptimo 16100
eli@@ 16099
muestras 16094
som@@ 16090
iban 16089
específico 16088
secundarios 16086
dioses 16084
proporcionar 16084
plazas 16080
liderazgo 16079
argumento 16076
reconstrucción 16076
anti 16075
universitario 16074
Roger 16064
archivo 16063
iso 16061
formes 16060
homónimo 16059
Guzmán 16058
cuestiones 16057
libr@@ 16056
esperaba 16055
aparentemente 16051
Davis 16049
pobres 16049
porcentaje 16048
cercanos 16047
Sec@@ 16044
Red@@ 16043
gobern@@ 16043
tismo 16041
literario 16040
íp@@ 16040
naveg@@ 16038
87 16037
utilización 16035
ment@@ 16027
lluvias 16026
exc@@ 16023
diversidad 16021
circular 16019
corrientes 16018
Pen@@ 16015
Gonzalo 16014
invitados 16014
venció 16011
Juana 16007
vistas 16007
T. 16004
Cristina 15997
isi@@ 15995
Puede 15994
decía 15994
South 15988
continuaron 15987
ferroviaria 15985
Ram@@ 15981
Rojas 15974
pertenecen 15972
omo 15971
detenido 15964
ip@@ 15959
escaños 15957
cir@@ 15955
intelectual 15955
renunció 15954
cráter 15948
arqu@@ 15947
ast@@ 15946
Múnich 15945
primo 15945
abandon@@ 15944
gráficos 15944
Viejo 15933
1895 15932
circulación 15918
anime 15909
ben 15907
ermita 15903
extinción 15903
inae 15901
cristianismo 15899
elegidos 15898
interpretando 15898
presa 15896
nov@@ 15893
dibujo 15890
Acción 15874
imposible 15873
limit@@ 15873
Cuenca 15867
órganos 15867
Dom@@ 15856
oración 15843
kg 15841
reo 15841
fronteras 15838
perdieron 15837
Dr@@ 15834
antigüedad 15834
agrícolas 15833
famosos 15832
prov@@ 15832
supuesto 15832
explot@@ 15831
dueño 15829
97 15825
muro 15823
automóviles 15819
presentaron 15817
conocimientos 15815
Cartagena 15812
79 15811
industriales 15808
Fuente 15807
ices 15806
Hel@@ 15803
solicitó 15802
Indonesia 15798
alcanzando 15798
ensayo 15791
rá@@ 15766
intensidad 15765
zas 15765
tol@@ 15761
aparecido 15760
presidenta 15758
alguno 15755
vocal 15752
insectos 15751
serv@@ 15747
SA 15744
Posee 15741
asegurar 15741
talleres 15741
combates 15740
abrir 15732
retirado 15727
fen@@ 15726
representaciones 15725
Hong 15724
Serbia 15724
Suprema 15724
multitud 15721
crimen 15717
abre 15714
Ren@@ 15712
retablo 15712
frecuentes 15711
Sant@@ 15708
ond@@ 15706
Nic@@ 15705
quir@@ 15705
ve@@ 15702
AC 15701
herido 15701
coches 15689
Night 15687
W. 15687
escap@@ 15687
reducido 15682
Lam@@ 15680
ambiental 15680
Bus@@ 15664
hiper@@ 15663
91 15661
Series 15661
comentarios 15657
estrecha 15654
liberales 15654
buenos 15651
Jersey 15650
ford 15650
electo 15648
médica 15644
composiciones 15643
salvar 15642
Juventud 15639
ide 15633
monarca 15631
buscando 15628
conclu@@ 15624
Simón 15623
ricos 15620
captura 15619
dichos 15619
limita 15615
académica 15613
Bl@@ 15612
ciclista 15606
enfoc@@ 15603
extendió 15596
proteína 15591
rica 15589
Plan@@ 15586
continu@@ 15586
campamento 15584
encar@@ 15583
trabajaba 15583
Varios 15582
deuda 15582
orado 15579
89 15578
apr@@ 15578
ach 15577
conceptos 15577
1899 15566
elle 15558
habit@@ 15558
Stone 15554
Lisboa 15552
dig@@ 15548
700 15547
7.@@ 15545
asimismo 15539
ific@@ 15536
Héctor 15535
Miranda 15535
tes@@ 15532
Especies 15529
católicos 15528
marina 15527
jugado 15524
Tro@@ 15520
enf@@ 15518
trece 15514
produjeron 15511
Jardín 15506
ai@@ 15499
creía 15497
azúcar 15495
copa 15495
electr@@ 15493
control@@ 15490
vientos 15487
humanidad 15482
provoc@@ 15479
arri@@ 15478
autora 15477
uf@@ 15477
comprar 15474
Proyecto 15470
experiencias 15467
implic@@ 15467
nacionalidad 15466
Elena 15465
protagonistas 15463
Obra 15459
pregunta 15456
09 15454
flora 15450
acus@@ 15449
adoptó 15449
maíz 15445
disput@@ 15442
drogas 15433
nobleza 15433
señ@@ 15433
interpreta 15428
Samuel 15426
originaria 15425
permiso 15425
bil@@ 15424
clasificado 15423
Arizona 15420
exclu@@ 15414
odi@@ 15410
relieve 15409
aso 15407
terremoto 15406
variantes 15404
4,@@ 15397
comienzan 15396
lluvia 15396
Suárez 15393
neo 15393
nobles 15392
condenado 15391
seguía 15391
compite 15389
Incluso 15387
Irak 15386
pio 15383
concejo 15381
nieto 15381
Don@@ 15379
Diputados 15378
94 15376
eres 15375
sesenta 15375
Ingeniería 15364
Rio 15359
fe@@ 15359
Rugby 15358
eas 15355
inspiración 15355
marrón 15345
especializado 15343
síntomas 15342
éticos 15340
comand@@ 15336
Ali@@ 15334
ótico 15332
Marvel 15331
retir@@ 15330
aumentó 15329
azgo 15324
ts 15319
provenientes 15315
Do@@ 15313
tidos 15310
Vis@@ 15309
escu@@ 15305
ev 15304
ion 15304
Kal@@ 15301
tendrá 15301
Group 15299
relatos 15296
cen@@ 15293
tribunal 15291
Sajonia 15288
uco 15286
mant@@ 15285
darle 15283
ches 15281
bon@@ 15278
Capital 15276
signific@@ 15273
poseía 15268
Alicante 15267
plena 15266
Tu@@ 15264
entregó 15259
Margarita 15258
emple@@ 15258
perro 15254
extra@@ 15249
cualquiera 15241
colonos 15240
Laguna 15237
comunicaciones 15230
visitó 15224
Claudio 15217
leche 15215
hoja 15213
WWE 15212
expan@@ 15209
AM 15206
aceptar 15202
carreteras 15202
generar 15201
1897 15197
Sem@@ 15196
Jacques 15195
Chrysomelidae 15194
S.@@ 15193
ofrecer 15191
rio 15187
Pon@@ 15186
Quito 15185
ante@@ 15183
disolución 15183
lab@@ 15182
pron@@ 15182
bir 15181
Lim@@ 15180
LP 15175
cuadros 15175
ganadería 15175
cional 15174
santo 15172
ví@@ 15172
establecida 15169
gusto 15168
incremento 15163
presentaciones 15160
cien 15154
und@@ 15154
viajar 15152
costumbres 15151
orios 15151
señales 15151
heredero 15149
kin 15149
hembras 15148
manifestaciones 15146
Lake 15145
dol@@ 15142
Ó@@ 15138
onado 15134
convocado 15133
archipiélago 15132
excelente 15125
Ciencia 15120
oj@@ 15118
cuestion@@ 15115
envi@@ 15111
tim@@ 15110
Mis@@ 15106
inauguración 15105
ocupada 15099
anuales 15094
sp@@ 15094
talento 15091
erías 15082
conjuntos 15081
citado 15080
orqu@@ 15079
1896 15077
Ejecutivo 15077
contratado 15075
Cos@@ 15069
icios 15066
Semana 15064
undo 15063
oci@@ 15058
cabe 15055
propuestas 15048
israelí 15047
Uni@@ 15045
aventuras 15045
olímpico 15040
plant@@ 15033
Benito 15031
ismos 15031
ican 15030
relacionada 15026
introduc@@ 15024
obligó 15024
satélite 15017
profesión 15013
Pic@@ 15007
demostrado 15003
Florencia 14998
Hidalgo 14997
asi@@ 14997
brazos 14996
ant 14994
Centr@@ 14993
Barrio 14991
ee 14991
dobles 14989
Universitario 14978
corrupción 14978
negativa 14976
Libertadores 14974
reun@@ 14973
Poder 14964
Maz@@ 14963
condujo 14962
ideal 14959
Estuvo 14955
1860 14953
belga 14949
homónima 14946
cardenal 14943
mero 14939
igualdad 14938
acion@@ 14937
definir 14936
mide 14933
visual 14932
eligió 14930
ab 14928
idamente 14927
ros 14927
Histórico 14922
recu@@ 14920
escritas 14918
respet@@ 14913
espiritual 14908
reci@@ 14900
combin@@ 14897
sociedades 14896
Norteamérica 14895
Gol@@ 14894
ép@@ 14890
consider@@ 14889
cooperación 14887
partidarios 14887
sobrino 14884
8.@@ 14878
Duque 14876
icidad 14875
cifra 14874
radical 14872
seco 14872
paciente 14871
Simon 14870
yeron 14870
ade 14869
ami 14868
Kur@@ 14861
Premier 14858
Rev@@ 14856
campeones 14856
metropolitana 14855
ic 14854
típico 14851
batallas 14848
Molina 14847
necesita 14846
Muñoz 14842
abor@@ 14840
Alpes 14833
indican 14832
culmin@@ 14828
Medalla 14826
asteroide 14823
publicidad 14823
ús@@ 14823
retorno 14821
FIFA 14820
humor 14820
gabinete 14819
ile 14819
ilar 14812
1889 14811
mul@@ 14810
ord@@ 14809
osaurus 14809
Fl@@ 14808
Realizó 14808
12@@ 14807
chinos 14807
Mayo 14804
escenarios 14801
profundo 14799
anunci@@ 14798
Lewis 14795
mitología 14794
móvil 14793
adura 14792
Cabe 14789
únicos 14788
asociados 14782
llevando 14782
PC 14778
desaparecido 14775
migr@@ 14772
Gil 14771
demostró 14771
venc@@ 14771
Baviera 14769
Agu@@ 14767
rev@@ 14767
Juega 14765
cobertura 14761
esculturas 14759
Massachusetts 14757
cortos 14755
jugaba 14755
Fre@@ 14754
cobre 14753
transform@@ 14751
aparecieron 14742
parecía 14739
sexta 14734
Hizo 14733
denunci@@ 14733
terror 14733
ent 14728
desierto 14726
Mé@@ 14724
rumbo 14723
prefer@@ 14722
mecánica 14716
jefes 14709
ejecut@@ 14707
Vargas 14706
tradicionalmente 14704
SE@@ 14702
muere 14699
reconoció 14698
repres@@ 14698
oz 14697
Origen 14690
bomba 14685
bir@@ 14682
unieron 14682
cercanías 14680
entender 14679
Aquí 14678
id 14678
parlamento 14675
semi@@ 14673
especializada 14672
penal 14671
secu@@ 14670
puertos 14664
bos@@ 14663
posibilidades 14663
revisión 14663
planos 14659
Colorado 14654
Vir@@ 14654
tiv@@ 14650
ibles 14647
Lord 14646
plat@@ 14642
históricas 14640
ger 14637
llamar 14634
teros 14631
ganaron 14630
08 14623
nes 14622
salón 14620
Fe@@ 14618
lin 14617
esquina 14616
judío 14610
próxima 14609
Var@@ 14606
Cup 14605
actúa 14605
1891 14600
soldado 14600
cerrado 14599
reconoce 14598
ean 14593
Lago 14592
propietarios 14589
constituyen 14587
eva 14586
novia 14585
declar@@ 14582
expertos 14581
Giovanni 14575
basados 14570
pares 14565
creador 14564
pensar 14564
alcanzado 14561
Código 14560
Microsoft 14555
Rein@@ 14553
procedimiento 14553
reforz@@ 14546
Alex 14540
construidos 14540
Recibió 14538
efectu@@ 14536
Literatura 14534
Originalmente 14533
preci@@ 14533
cula 14530
Day 14526
revis@@ 14526
Vall@@ 14524
cubre 14524
eci@@ 14524
ty 14521
consegu@@ 14520
bis@@ 14518
anal@@ 14508
puntuación 14507
eria 14506
fósiles 14506
asteroides 14505
tre 14496
hacían 14495
Gre@@ 14494
almirante 14493
UCI 14486
procedente 14483
ampli@@ 14474
incluidas 14468
rap@@ 14467
propuesto 14465
viuda 14465
proclam@@ 14463
tecnologías 14463
Dar@@ 14451
sustituido 14451
visible 14448
intensi@@ 14447
contraste 14445
precisamente 14443
Azul 14441
ecía 14440
sta 14440
adop@@ 14437
aficionados 14437
amiga 14434
Bulgaria 14432
cristiano 14432
zó 14432
entradas 14431
siente 14431
campesinos 14430
derri@@ 14430
ífico 14430
nia 14429
armada 14426
extensa 14422
acha 14421
cerebro 14417
subfamilia 14417
iniciales 14416
guar@@ 14415
Honor 14411
Información 14411
asociaciones 14410
llevada 14408
representó 14407
Lor@@ 14405
06 14399
localiza 14398
Diario 14396
´ 14395
Elizabeth 14394
Antiguo 14393
frutos 14393
compuso 14389
plataformas 14389
masas 14388
activ@@ 14387
emas 14387
conseguido 14386
reloj 14383
legales 14381
01 14380
guía 14377
atmósfera 14376
ain 14374
arreg@@ 14373
funciona 14373
consiguiendo 14372
cubierto 14367
Championship 14365
bando 14363
nuestros 14359
renov@@ 14356
Navidad 14349
sonidos 14347
cedido 14346
espectáculos 14345
Af@@ 14342
continuidad 14337
V. 14332
1888 14330
sentencia 14329
viviendo 14326
abandonado 14322
centra 14318
parecido 14317
dejaron 14315
dirigentes 14311
federales 14305
Hans 14304
correspondientes 14304
Oficial 14302
inst@@ 14300
plane@@ 14299
Esa 14294
libras 14293
Apo@@ 14288
eder@@ 14288
lio 14288
Humanos 14283
paralelo 14283
arlas 14282
simples 14280
ori 14277
cercanas 14274
usados 14270
coment@@ 14266
aten@@ 14263
Veracruz 14257
Camino 14253
instancia 14252
disputado 14251
celular 14248
colabor@@ 14246
ajo 14245
cionado 14245
realista 14243
endió 14242
Laura 14239
Mah@@ 14237
deportivos 14233
eñas 14233
nombramiento 14231
Medellín 14230
miedo 14229
sucedido 14229
carbón 14227
gencia 14221
extremadamente 14219
asentamientos 14218
× 14215
esqu@@ 14212
lanzaron 14205
Pur@@ 14202
suficientemente 14201
impresión 14200
Yo 14197
catorce 14196
descubrir 14196
anzas 14191
can 14191
.com 14189
ástica 14188
Dado 14187
aceae 14186
destacando 14185
Gan@@ 14183
protagonizó 14183
Union 14175
Kor@@ 14174
concreto 14174
sí@@ 14174
reemplazo 14173
venezolano 14167
ons 14165
segu@@ 14164
fur@@ 14163
vari@@ 14161
técnicos 14160
Ap@@ 14159
previa 14159
ofrec@@ 14158
limitado 14155
Association 14151
obr@@ 14150
Prado 14148
enden 14147
tilla 14143
wood 14131
ele 14125
éndole 14119
gráfica 14118
localizada 14118
leer 14117
field 14116
mari@@ 14110
embar@@ 14108
imagin@@ 14107
CI@@ 14106
und 14103
AN@@ 14102
Oviedo 14101
convoc@@ 14101
temática 14101
post@@ 14099
Seg@@ 14095
ust@@ 14094
positivo 14092
bancos 14091
terminado 14091
Área 14090
Adam 14087
Adolfo 14087
ezas 14085
alis 14083
refugio 14083
protesta 14082
tenga 14079
ofici@@ 14078
Mauricio 14077
bre@@ 14075
med@@ 14074
respondió 14068
Paso 14067
Archivo 14066
Little 14066
punk 14064
Congo 14061
Coruña 14061
apoyó 14061
dat@@ 14059
gobernante 14059
laboral 14055
nazi 14051
oxígeno 14049
clan 14048
tenis 14047
edades 14046
escolar 14044
tiro 14043
Aer@@ 14042
inclinación 14040
Napoleón 14038
vidrio 14031
festivales 14023
responsables 14023
conforman 14021
rodaje 14018
directores 14017
cadenas 14015
ocupando 14011
dónde 14008
ún@@ 14007
5,@@ 14004
elevada 14001
pasan 13999
transfer@@ 13999
mejor@@ 13996
François 13995
Ortiz 13993
lia 13993
facilit@@ 13990
ky 13988
asignado 13987
socio 13986
espada 13982
latina 13979
contenidos 13976
sujeto 13976
usualmente 13975
contribuyó 13972
Tam@@ 13970
coron@@ 13970
admir@@ 13968
desempeña 13968
destac@@ 13968
asistencias 13967
let@@ 13965
Liberal 13964
Hon@@ 13963
onista 13963
necesarios 13956
utilizadas 13953
virtud 13953
amante 13952
quizás 13945
Sir 13944
lag@@ 13939
aprobado 13938
pobladores 13938
emitido 13936
discográfico 13935
exp@@ 13934
ial 13934
fundamentalmente 13929
crucero 13927
garanti@@ 13927
destruir 13923
éndolo 13923
Boys 13919
Ta@@ 13917
Bru@@ 13916
Mexicana 13913
1893 13912
Sam 13912
Administr@@ 13905
Agr@@ 13905
anuncio 13902
prestigio 13898
francesas 13897
tratados 13897
reproducción 13896
1500 13894
cambiado 13892
ejercer 13885
varía 13885
convertiría 13883
renovación 13881
Tiempo 13879
permanece 13877
13@@ 13876
hac@@ 13876
exig@@ 13874
fases 13871
Trabajó 13870
armado 13868
mus@@ 13868
experiment@@ 13867
Madre 13866
dichas 13862
dificultad 13862
ísticas 13861
altamente 13860
calificación 13859
rem@@ 13859
Pos@@ 13857
copia 13856
incorporación 13856
trazado 13855
Mancha 13853
soberanía 13852
Letras 13851
inaugurada 13850
tent@@ 13835
ets 13829
investigador 13829
identes 13825
East 13823
mental 13820
conver@@ 13818
formalmente 13816
visitar 13816
aspir@@ 13815
Ham@@ 13798
contemporánea 13795
implement@@ 13789
respeto 13789
inspirado 13788
caballero 13787
acred@@ 13785
Nu@@ 13783
º@@ 13783
Eric 13781
Forma 13781
Revista 13779
top 13776
radiación 13775
descri@@ 13774
artificial 13773
diarios 13772
Romano 13771
beneficio 13771
Wil@@ 13765
amenaz@@ 13757
Mateo 13756
aumenta 13756
defin@@ 13755
oli 13754
Awards 13752
participando 13751
Estr@@ 13749
ologías 13748
habilit@@ 13747
comunistas 13744
consistía 13744
Canción 13742
precisión 13742
unido 13736
recibiendo 13735
emergencia 13734
Convención 13730
Indias 13728
doctrina 13728
ascendido 13727
débil 13721
componente 13719
emisiones 13715
destacada 13711
pérdidas 13709
absoluto 13707
entan 13707
masculina 13705
Pil@@ 13704
Nintendo 13702
15@@ 13695
aw@@ 13694
Brigada 13693
bus@@ 13693
certamen 13693
dico 13693
Ha@@ 13692
nea 13688
Kir@@ 13683
tanques 13680
tió 13680
fan@@ 13676
enviar 13674
adecuado 13670
Valparaíso 13669
mamíferos 13669
Francesa 13664
sufrido 13663
c. 13662
pandemia 13662
decor@@ 13660
plas@@ 13659
sabor 13656
ascendencia 13651
obispos 13651
with 13648
Campos 13647
AC@@ 13639
Natural 13634
pierde 13633
Había 13632
ais 13630
permitiendo 13630
Met@@ 13627
diseñada 13622
Agencia 13621
mención 13620
seguida 13620
Tan@@ 13617
accion@@ 13617
competencias 13611
identificación 13609
ños 13608
digitales 13606
exitoso 13606
gigante 13605
jó 13605
huir 13604
1892 13599
Paraná 13599
reform@@ 13599
ampliación 13597
mapa 13597
contenía 13594
1800 13593
matriz 13593
monumentos 13593
soviética 13593
estaría 13591
positiva 13590
trasladado 13588
Soci@@ 13586
1868 13585
neas 13585
proteg@@ 13581
navegación 13579
1885 13577
peruana 13565
clasificó 13564
competi@@ 13564
líquido 13564
Pa@@ 13561
peor 13555
cae 13549
retratos 13549
entar 13548
selecciones 13548
sim@@ 13546
Bri@@ 13545
rugby 13545
ext@@ 13541
núcleos 13541
MTV 13539
fel@@ 13539
pil@@ 13539
errores 13537
Astr@@ 13530
sostiene 13530
idi@@ 13525
Luisa 13524
utiliz@@ 13523
tocó 13520
Son@@ 13505
fo 13503
Cru@@ 13502
increm@@ 13494
pecho 13493
fieles 13492
meteor@@ 13492
Alan 13491
05 13489
uniforme 13483
préstamo 13481
diver@@ 13479
ochenta 13479
AL@@ 13473
concesión 13472
Roja 13471
delegación 13470
Praga 13468
Cantabria 13466
Ray 13466
refleja 13466
Aun 13465
arroyo 13465
visitas 13463
Exposición 13461
clasificados 13452
tus 13451
traje 13449
cúpula 13447
Banda 13442
cantar 13442
setenta 13442
emplea 13441
uni@@ 13441
previsto 13438
Pamplona 13436
clav@@ 13435
incluían 13434
símbolos 13434
académicos 13433
itarias 13433
mostr@@ 13433
exteriores 13432
enseñ@@ 13430
Friedrich 13429
Sir@@ 13424
1894 13423
1886 13422
seleccion@@ 13421
04 13420
modificaciones 13419
gado 13418
trato 13417
02 13414
conclusión 13410
fragmentos 13409
Ahora 13405
Guadalupe 13403
Sony 13403
adquisición 13403
allas 13399
legislación 13396
nac@@ 13392
talla 13392
Vuelta 13384
asistir 13383
argum@@ 13382
boda 13376
incorpor@@ 13376
preocupación 13376
š@@ 13375
anualmente 13374
regla 13374
Sport 13373
Metropolitana 13372
enfrentarse 13366
acos 13365
iden 13365
omb@@ 13365
minerales 13359
act@@ 13356
Game 13354
perfil 13352
suspensión 13341
estable 13339
Punta 13338
burgo 13337
órico 13337
Rel@@ 13335
Not@@ 13332
07 13330
iniciaron 13330
celebrar 13328
períodos 13326
suelos 13325
fundamentales 13324
rió 13315
Atlanta 13313
Reserva 13309
americanas 13309
llamarse 13308
aka 13307
olvid@@ 13303
verdes 13302
ES@@ 13301
operativo 13301
diplomático 13297
Han 13295
ish@@ 13292
Infantería 13291
PSOE 13291
pedido 13291
ho 13288
viernes 13287
Presidencia 13285
epíteto 13285
acumul@@ 13281
prom@@ 13280
distinción 13279
Chil@@ 13278
Antigua 13276
conductor 13276
rob@@ 13276
Toronto 13275
Mallorca 13274
Patr@@ 13267
Tucumán 13267
octavo 13267
rayos 13267
vent@@ 13267
ud 13262
valles 13262
esté 13259
Sel@@ 13255
rab@@ 13253
defensor 13251
participan 13250
asedio 13249
aventura 13248
acept@@ 13246
galería 13246
Má@@ 13245
manejo 13244
extremos 13243
privados 13243
Mot@@ 13233
Sede 13232
encargada 13229
ple@@ 13229
ly 13226
casarse 13224
esen 13221
vacío 13221
ecuación 13220
poderoso 13219
ahu@@ 13216
Bes@@ 13212
Corporation 13212
Jim 13209
rector 13209
ticamente 13209
zos 13206
OS 13205
Kansas 13204
zi 13203
alemanas 13202
franquicia 13202
inspir@@ 13202
soviéticos 13200
comenzado 13199
épocas 13195
Diseño 13192
Cañ@@ 13188
rati@@ 13185
observa 13184
YouTube 13182
Kan@@ 13181
sudeste 13180
configuración 13179
contempl@@ 13179
explosión 13179
uch@@ 13175
Sofía 13168
tima 13166
obten@@ 13164
jun@@ 13160
Lara 13159
sacerdotes 13155
aparec@@ 13153
publicaron 13152
Fal@@ 13149
AS@@ 13146
capturado 13141
conform@@ 13141
reconocer 13138
ut 13137
sustitución 13135
cruce 13134
identificar 13129
asunto 13127
Douglas 13123
electrónico 13122
erá 13113
agot@@ 13112
dosis 13110
ng@@ 13109
Ke@@ 13107
mejoras 13105
tantos 13105
var. 13105
financiera 13104
1884 13103
Coronel 13103
tejido 13101
ett 13100
Jan 13099
manteniendo 13099
didos 13097
supuestamente 13094
Templo 13085
negras 13085
parroquial 13085
registrado 13085
Anderson 13084
Yugoslavia 13083
ariz@@ 13083
film 13083
mecanismos 13081
desarrollada 13080
Dolores 13076
oriente 13076
Tenerife 13070
bajista 13068
Caballero 13065
indic@@ 13065
escasa 13064
heridas 13062
misa 13062
reputación 13062
inclin@@ 13059
egos 13054
marchó 13053
detener 13052
mov@@ 13051
Som@@ 13049
diera 13047
Reforma 13045
{ 13045
ibérica 13041
vertical 13041
ocurrido 13037
vieja 13037
campus 13036
ABC 13034
celebrada 13031
vali@@ 13030
traslado 13028
Monumento 13027
1879 13025
ución 13025
alfabetización 13021
uli@@ 13020
flu@@ 13018
esperar 13017
istán 13017
orbital 13016
conocía 13009
biendo 13004
compositores 12999
est 12999
prof@@ 12999
Rob@@ 12998
comun@@ 12997
represión 12997
Sr. 12995
iz 12995
Oxford 12994
Q 12994
Stephen 12992
gem@@ 12992
ofrecen 12992
03 12991
sig@@ 12990
mm. 12989
proclamó 12987
iana 12986
Spider 12984
cuerdas 12982
prest@@ 12982
socios 12981
electorales 12979
otorga 12979
obtuvieron 12977
ika 12976
DE 12975
monarquía 12973
transferencia 12972
Tim@@ 12971
dir@@ 12966
Tem@@ 12965
las@@ 12965
mp@@ 12965
Studios 12963
Beach 12961
utilizaron 12953
AS 12951
S.A. 12950
Belgrano 12949
adquirido 12949
atleta 12948
remonta 12948
dal@@ 12945
conduce 12944
taría 12943
14@@ 12937
periodistas 12927
espalda 12925
ok 12924
repertorio 12924
separados 12924
habitualmente 12922
lé@@ 12917
uruguayo 12917
Jr 12915
universitaria 12914
sentimientos 12913
Hab@@ 12912
ariamente 12912
lares 12912
visitante 12911
santuario 12909
acercarse 12908
Petr@@ 12904
gada 12904
ts@@ 12902
lán 12901
quedar 12901
inga 12898
mármol 12895
AP 12894
flot@@ 12893
lógica 12893
tando 12893
sorpresa 12891
filósofo 12889
teléfono 12889
barroco 12888
registró 12888
discusión 12887
rostro 12885
ám@@ 12883
Sant 12876
conversión 12876
uz@@ 12871
ificar 12867
Broadway 12865
arroz 12865
sosten@@ 12864
explor@@ 12863
Clara 12859
fijo 12859
relativa 12859
templos 12859
conden@@ 12857
describir 12856
neos 12853
observación 12849
rodeado 12845
Minnesota 12843
generaciones 12843
1887 12842
atacó 12841
demostrar 12841
cuartel 12840
Mun@@ 12839
opera 12838
viendo 12836
adquirir 12835
onas 12831
activamente 12825
URSS 12823
entren@@ 12822
ks 12822
urbanos 12822
Boca 12820
modos 12819
mínima 12819
Armenia 12817
Ev@@ 12817
Juárez 12814
encontramos 12813
marino 12810
personalidades 12810
básicos 12809
Bos@@ 12808
formaba 12807
variaciones 12804
republicano 12801
Lincoln 12799
9.@@ 12796
regimiento 12795
Sun 12793
isco 12793
recepción 12793
asociada 12792
Comun@@ 12791
Justo 12789
caron 12789
colocó 12789
refer@@ 12788
requer@@ 12788
Marcelo 12786
previo 12786
intelectuales 12784
dula 12783
disminución 12781
Andrea 12779
vecino 12779
Francis 12773
edr@@ 12768
bus 12767
actuando 12763
ax 12763
enfrentaron 12763
desconocido 12760
entrevistas 12757
representando 12757
ográfico 12756
Biblia 12754
amina 12746
rescate 12746
dependiente 12743
Constantinopla 12737
pudieran 12737
créditos 12730
surge 12730
integrante 12729
recre@@ 12729
retr@@ 12729
Pun@@ 12728
conoc@@ 12728
irlo 12727
ok@@ 12727
enfrentamientos 12725
ick 12724
brevemente 12722
característico 12720
controversia 12719
electricidad 12719
diente 12714
Gir@@ 12707
úr@@ 12707
Johann 12706
Yucatán 12706
Afganistán 12702
Jar@@ 12702
concre@@ 12702
formaciones 12701
Deb@@ 12694
procede 12694
Andrew 12693
AM@@ 12691
modernas 12689
Der@@ 12685
ecta 12685
colina 12680
distribuye 12680
ecen 12679
flor 12679
Anti@@ 12678
Bartolomé 12678
Maestro 12678
permanecer 12678
ógica 12677
sc@@ 12673
alg@@ 12671
comerciantes 12671
complejos 12671
Pío 12670
presentada 12665
mer 12664
Ávila 12664
conc@@ 12661
declaraciones 12661
luch@@ 12659
plantilla 12658
Bay@@ 12656
secundario 12656
variables 12654
On 12652
significativa 12650
alizados 12649
confes@@ 12648
pros@@ 12646
1850 12645
suc@@ 12642
distingu@@ 12640
erra 12640
log@@ 12640
dobl@@ 12637
laguna 12633
azón 12632
capas 12631
efectivo 12627
Loc@@ 12624
Flora 12622
motiv@@ 12621
1881 12616
Cot@@ 12616
ek@@ 12615
iguales 12615
16@@ 12612
incorpora 12611
interes@@ 12610
favorable 12608
dominante 12606
desempeño 12605
compil@@ 12604
Pakistán 12600
bes@@ 12600
Obtuvo 12599
Deportiva 12597
1876 12595
consul@@ 12594
específicos 12594
ik 12594
coordin@@ 12592
restaurante 12592
contrajo 12591
lac@@ 12591
dinámica 12590
emin@@ 12589
torio 12579
empu@@ 12577
contemporáneo 12575
gor@@ 12573
Indiana 12571
promedió 12569
centímetros 12567
hechas 12560
Tailandia 12559
lesiones 12553
Ing@@ 12552
subcampeón 12552
deci@@ 12550
dese@@ 12549
firmar 12545
postul@@ 12544
duras 12542
ganadora 12542
lunes 12542
FM 12537
Iván 12537
Taiwán 12533
mencionar 12533
ventana 12532
audi@@ 12531
británicas 12523
acaba 12522
abol@@ 12521
barr@@ 12520
ómica 12520
adu@@ 12516
asumir 12516
asesor 12515
determin@@ 12514
Fort 12511
Tir@@ 12511
evidente 12510
ingres@@ 12510
colectivo 12507
gravedad 12507
Electoral 12503
ental 12502
critic@@ 12501
tela 12501
cuento 12500
parada 12500
unda 12495
costumbre 12494
perros 12494
Capilla 12490
financiero 12490
Lav@@ 12489
bic@@ 12489
Leonardo 12488
azos 12487
1871 12486
cable 12486
Palestina 12485
ordenado 12485
Anteriormente 12484
impulso 12482
crímenes 12480
Emperador 12479
Leg@@ 12474
Ramos 12474
ual 12474
bres 12471
he@@ 12471
ingresar 12471
explicar 12469
opciones 12469
estabilidad 12468
Ret@@ 12466
Road 12463
Mérida 12460
varones 12460
yó 12460
miento 12458
arquitectos 12457
iza 12453
Alfred 12451
bóveda 12451
ilustr@@ 12450
reservas 12449
rotación 12449
tuviera 12449
equip@@ 12448
acepta 12445
Campeón 12439
secuestr@@ 12438
Clausura 12435
camar@@ 12435
cura 12435
atrap@@ 12430
Dan@@ 12429
Nelson 12426
temprano 12426
criterios 12425
900 12422
Kat@@ 12422
saque@@ 12421
Kevin 12420
Miller 12420
cerró 12419
circul@@ 12418
Estudiantes 12415
Galería 12412
uo 12412
infr@@ 12408
irían 12408
ónimos 12408
ecu@@ 12400
sorpr@@ 12398
Ra@@ 12396
rescat@@ 12395
labores 12391
als 12389
Johnny 12388
Sicilia 12388
Eva 12386
alcohol 12385
coste 12385
lleno 12383
suyo 12383
bloques 12378
rivales 12377
cliente 12373
N.º 12371
solicit@@ 12371
traduc@@ 12371
dedica 12370
gan 12370
Tal 12369
huesos 12368
Occidente 12367
interiores 12367
hi 12364
arro 12362
financi@@ 12360
IC@@ 12359
Michel 12358
patas 12357
jar@@ 12351
top@@ 12350
cantantes 12348
calcul@@ 12346
ator 12345
Liber@@ 12344
Bruce 12340
Naval 12339
ásticas 12338
adap@@ 12337
empr@@ 12333
Nick 12331
mantienen 12328
Míchigan 12327
reciben 12327
nativa 12324
oceno 12324
lider@@ 12323
videos 12321
diseñó 12318
Video 12316
alizadas 12315
tercio 12315
Niño 12314
Rose 12314
ideología 12314
típica 12312
Mul@@ 12311
anot@@ 12307
lleg@@ 12307
conservador 12300
atraviesa 12297
constantemente 12295
cueva 12295
1878 12288
ganadores 12285
llamaba 12284
reconoci@@ 12284
Editorial 12282
Junior 12281
ong@@ 12281
turístico 12281
gótico 12279
abundante 12277
Bou@@ 12276
cerr@@ 12276
onte 12275
quedado 12273
tig@@ 12273
Rally 12271
Victor 12271
ubicados 12270
escuchar 12269
Warner 12265
pre 12264
tiendo 12262
orum 12260
internas 12259
almacenamiento 12258
Howard 12256
Pekín 12253
uri 12249
Fuentes 12246
contemporáneos 12244
Jimmy 12243
jamás 12241
1882 12236
propone 12236
combatir 12235
conmemor@@ 12229
industrias 12226
conecta 12220
bió 12218
congreso 12216
Siendo 12213
suministr@@ 12212
onga 12210
procesión 12208
iluminación 12201
capacidades 12200
Cic@@ 12199
pobre 12196
tera 12195
State 12193
declarada 12192
Verano 12185
enterr@@ 12184
Julián 12183
Long 12181
pelo 12179
anga 12175
darse 12171
ificado 12171
sky 12168
cumbre 12165
aturas 12164
cito 12164
destruido 12159
LA 12155
atribuye 12154
culo 12152
humanas 12152
Golfo 12151
interacción 12149
Azerbaiyán 12147
1864 12142
Etimología 12142
audio 12142
conformado 12142
regulares 12142
ruptura 12142
Allen 12140
fich@@ 12139
Marta 12136
Hom@@ 12134
estética 12132
finalidad 12127
reinos 12127
ficas 12123
pronunci@@ 12120
desempeñ@@ 12114
real@@ 12113
refugiados 12113
integral 12112
persa 12111
pot@@ 12111
denomin@@ 12110
jo@@ 12108
orientales 12108
uca 12108
1883 12107
Estonia 12106
eh@@ 12106
aceptadas 12104
luchó 12104
ándolos 12104
cí@@ 12103
delito 12102
rac@@ 12102
tratando 12087
km. 12086
básica 12084
cabezas 12084
rueda 12083
herramienta 12078
ure 12075
caus@@ 12074
Maj@@ 12073
grabada 12072
hem@@ 12072
poniendo 12071
facilitar 12069
muertes 12066
ánico 12066
cot@@ 12065
discu@@ 12064
definido 12063
húngaro 12063
Boy 12062
dama 12062
CF 12060
deportivas 12060
añadió 12059
permitido 12057
Alc@@ 12056
forz@@ 12056
tránsito 12053
banc@@ 12050
Produc@@ 12041
generó 12039
marcada 12037
Armadas 12035
regularmente 12035
indio 12034
Madonna 12029
síntesis 12023
genética 12021
laron 12019
Arts 12016
mezcl@@ 12016
comenzando 12015
Anthony 12013
Hermandad 12012
consejero 12012
Base 12010
ól@@ 12010
Ali 12007
Roc@@ 12007
ede 12007
impuso 12007
Monasterio 12006
caracteres 12005
discre@@ 12005
ical 12003
desapareció 11995
1865 11994
Argelia 11992
gubernamentales 11990
isti@@ 11990
Bul@@ 11988
Pot@@ 11988
set 11986
Femenino 11984
placas 11981
nominado 11976
delitos 11968
ieran 11967
Alcalá 11964
pase 11964
significativo 11961
Especial 11959
aport@@ 11959
puestas 11956
traslad@@ 11956
elimin@@ 11954
liberado 11954
Tak@@ 11953
radic@@ 11952
expresa 11950
encu@@ 11948
ins 11947
tada 11946
célebre 11945
incluyeron 11943
suprim@@ 11942
existían 11939
postura 11938
tran@@ 11937
recuperó 11936
adecuada 11935
mata 11933
Malasia 11932
colombiana 11930
instrucciones 11927
adolescente 11926
3000 11925
alimento 11925
literalmente 11924
experimental 11923
CA 11920
abandono 11920
crédito 11920
otomano 11920
respon@@ 11918
Entr@@ 11915
maestra 11910
gastos 11908
ondas 11908
polémica 11908
jada 11907
alias 11903
giras 11903
Clima 11899
rechaz@@ 11899
químico 11898
1830 11896
fabricante 11896
pera 11895
imientos 11893
continuo 11892
elev@@ 11892
niñas 11892
tin 11892
1848 11891
internet 11889
tramos 11887
tividad 11885
post 11882
pusieron 11882
Monterrey 11878
exactamente 11875
plato 11874
mantenido 11873
ole@@ 11873
marinos 11872
Bell 11869
patrones 11869
responde 11869
ulado 11869
reconocidos 11868
sobres@@ 11867
ingo 11865
genera 11864
podido 11863
iano 11862
probabilidad 11862
Rem@@ 11861
Vera 11860
nad@@ 11860
André 11858
Kepler 11858
añadi@@ 11857
boc@@ 11856
Sá@@ 11855
activista 11854
creencia 11853
Paris 11852
Mujer 11851
disfr@@ 11851
funer@@ 11851
th 11851
pasión 11850
porta 11848
30@@ 11846
Han@@ 11845
golfo 11844
Guar@@ 11843
ectos 11841
proporción 11840
bits 11838
móviles 11838
bio@@ 11837
rechazo 11837
ministros 11833
ball@@ 11832
patri@@ 11831
sufrir 11831
decim@@ 11828
CV 11827
grabados 11826
levantamiento 11826
caudal 11823
Guayaquil 11822
curva 11820
ester@@ 11818
Arena 11815
específica 11815
1840 11814
represent@@ 11809
realistas 11807
comenz@@ 11806
gestion@@ 11804
identificado 11804
uros 11804
Estaba 11802
Navarro 11801
Ari@@ 11799
mam@@ 11797
Lady 11796
Pilar 11795
Prusia 11794
aprobada 11793
turco 11791
amistoso 11789
puentes 11788
logros 11787
paisajes 11786
camp@@ 11785
Gl@@ 11784
determinada 11782
mur@@ 11782
suficientes 11782
vamente 11782
fortuna 11781
1867 11780
revuelta 11777
gráficas 11775
presion@@ 11773
ámica 11773
contando 11771
montes 11771
cú@@ 11770
Comics 11769
extra 11764
impuesto 11761
moviliz@@ 11761
K. 11759
Ed@@ 11758
ladrillo 11758
amas 11757
casada 11756
huelga 11751
quiso 11750
aprender 11749
armados 11749
fij@@ 11747
tad@@ 11745
Plat@@ 11744
London 11743
cionalmente 11743
luna 11743
import@@ 11742
isl@@ 11742
prefectura 11740
Rodolfo 11738
dirigente 11735
hil@@ 11729
Josep 11727
caracteriz@@ 11726
bloque@@ 11723
repeti@@ 11722
Tran@@ 11720
asamblea 11720
vor@@ 11720
xa 11719
progreso 11716
1873 11715
Cambridge 11715
ligas 11715
cuerda 11713
enfrentar 11712
Composición 11707
arqueológicos 11703
disol@@ 11702
escar@@ 11699
experimentos 11697
meta 11694
Agricultura 11691
efectiva 11691
ont@@ 11691
nieve 11690
exhibición 11689
ais@@ 11688
udo 11686
smo 11682
aceler@@ 11680
ficar 11680
requisitos 11678
organiza 11675
tira 11675
Hy@@ 11674
cubrir 11674
Mam@@ 11670
asientos 11670
moder@@ 11668
ace 11667
anus 11667
lis 11666
romper 11664
éc@@ 11664
brasileña 11661
tis@@ 11660
aplica 11657
ocul@@ 11656
universitarios 11656
cerrada 11654
iniciado 11654
australiano 11652
à@@ 11651
posicion@@ 11649
Fon@@ 11645
Universo 11642
soluciones 11641
vot@@ 11640
ine@@ 11639
ánea 11637
entera 11634
externa 11634
llanura 11630
mensajes 11628
6,@@ 11627
1861 11626
asesino 11626
Limita 11623
C.@@ 11622
rara 11622
Valenciana 11621
restaurantes 11621
fanes 11611
difíciles 11610
emisora 11607
tubo 11607
interesante 11605
itó 11603
desembocadura 11601
INE 11600
desarrollaron 11598
graf@@ 11597
Bruselas 11596
Morgan 11593
misiles 11588
meridional 11587
evaluación 11586
pianista 11584
ús 11583
Británica 11580
Go 11580
presentaba 11580
23@@ 11577
magn@@ 11576
designación 11575
esquema 11575
haría 11575
Long@@ 11572
periodos 11572
Puerta 11571
destacadas 11570
lagos 11570
esencial 11567
depósitos 11566
considerablemente 11564
creencias 11564
dero 11563
expresó 11559
veía 11555
Perón 11553
Cad@@ 11552
Film 11551
túnel 11547
Dev@@ 11546
Zar@@ 11543
constituyó 11543
1875 11542
Trujillo 11541
documentación 11541
cron@@ 11538
Moore 11535
agres@@ 11535
alumno 11535
pulgadas 11535
cc 11534
deriv@@ 11533
ciendo 11527
poetas 11524
reacciones 11524
ligero 11523
Prim@@ 11521
anunciado 11521
bueno 11520
Lab@@ 11518
derivados 11517
migración 11516
Rioja 11513
mis 11513
toros 11512
consiguieron 11511
Cáceres 11508
sever@@ 11508
1872 11507
kg. 11506
Google 11505
concretamente 11505
vestido 11505
pedir 11504
ish 11502
públicamente 11501
UU. 11499
dedicarse 11499
mundiales 11498
redacción 11498
separadas 11496
inser@@ 11493
Is 11489
1869 11488
contribución 11488
Americana 11481
mantuvieron 11481
descanso 11480
esperado 11479
oy 11477
secuela 11476
anía 11475
esia 11475
Sig@@ 11473
despleg@@ 11473
ilidad 11473
polo 11469
recopil@@ 11469
temporalmente 11468
beca 11466
Danubio 11464
tocando 11464
BA 11463
ber 11461
Mec@@ 11460
Orleans 11460
Pertenece 11454
enviados 11454
hall@@ 11454
escuch@@ 11453
Tes@@ 11452
ambientales 11450
corpor@@ 11449
PlayStation 11445
Vía 11443
provoca 11443
Ortega 11441
aceptación 11440
científicas 11440
diálogo 11439
camiseta 11438
arti@@ 11435
ear@@ 11434
Pá@@ 11432
Núñez 11428
110 11427
tranqu@@ 11426
brado 11425
cifras 11425
Cantón 11424
uer@@ 11423
Rab@@ 11419
Julia 11416
emer@@ 11413
sufre 11413
ventajas 11412
Jane 11410
Obispo 11407
recomend@@ 11407
Bank 11406
Up 11405
ATP 11402
tador 11401
licenciatura 11399
Fondo 11397
narra 11397
trajo 11396
Industrial 11394
Tecnología 11394
hidrógeno 11394
provisional 11394
vigor 11394
atraves@@ 11393
óf@@ 11390
apropi@@ 11389
aparato 11388
integra 11388
conducta 11385
lim@@ 11385
apoyado 11383
prototipo 11379
áb@@ 11378
Houston 11377
futura 11376
apareciendo 11375
castig@@ 11375
norma 11374
lineal 11372
positivas 11371
químicos 11371
depos@@ 11370
asoci@@ 11366
perci@@ 11365
pintores 11365
bombas 11364
Pop 11362
confun@@ 11361
facultad 11359
catalog@@ 11358
Prot@@ 11356
computadora 11356
garantizar 11356
defensores 11353
prima 11352
diosa 11348
izo 11347
ulo 11346
Que 11342
erlo 11341
vigilancia 11341
estre 11339
1863 11335
Digital 11333
ling 11332
1874 11331
Ryan 11330
pes 11330
Audiencia 11329
Pod@@ 11329
vuelto 11328
emia 11327
ís@@ 11326
Isidro 11325
Your 11325
élite 11324
aí@@ 11323
dieta 11322
Henri 11321
Salv@@ 11320
demuestra 11320
editó 11320
terminaron 11320
www.@@ 11319
7,@@ 11318
construc@@ 11318
Sídney 11317
Fus@@ 11316
creen 11316
ógico 11316
3D 11311
Clubes 11311
tejidos 11311
uda 11309
ográfica 11308
selva 11308
simultáneamente 11308
Corazón 11305
afueras 11305
induc@@ 11305
turistas 11304
Eurovisión 11302
descendencia 11302
célula 11301
adr@@ 11300
comparti@@ 11299
crist@@ 11298
dibu@@ 11297
guardia 11297
tenemos 11295
Et@@ 11294
desarroll@@ 11294
estren@@ 11293
stein 11292
cuentas 11289
baterista 11286
deciden 11283
Men 11280
investigar 11279
rectangular 11277
News 11275
ascendió 11275
escol@@ 11269
estructur@@ 11269
terrestres 11269
Misuri 11267
intensa 11267
ernos 11266
amentos 11265
Sand@@ 11264
mencionada 11264
rar 11264
Bell@@ 11262
Cabrera 11262
condi@@ 11262
Cin@@ 11261
Soto 11261
alab@@ 11261
Gab@@ 11258
chicas 11258
ólica 11257
cañ@@ 11255
pino 11254
convertir 11253
produciendo 11252
ísimo 11252
Blan@@ 11250
Clark 11250
Cop@@ 11248
Segovia 11245
juveniles 11245
Batallón 11244
estrechamente 11244
comput@@ 11232
mec@@ 11232
recurso 11232
abreviado 11231
consolid@@ 11231
entretenimiento 11229
fotos 11229
correspon@@ 11227
abl@@ 11226
frontal 11225
Petersburgo 11224
transcurso 11223
ron@@ 11222
crito 11221
sá@@ 11220
om 11216
financieros 11214
frustr@@ 11214
secre@@ 11214
auge 11213
duc@@ 11213
horario 11211
segmento 11209
a. 11205
uelo 11205
Ball@@ 11204
exploración 11200
aterrizaje 11199
refle@@ 11197
Radi@@ 11194
Bay 11191
invitada 11191
configur@@ 11190
lujo 11189
internos 11187
educativo 11186
ejos 11186
museos 11185
velocidades 11185
virrey 11184
Ka@@ 11181
aviación 11181
ecida 11181
Iglesias 11179
ayudante 11178
vivos 11178
meros 11177
periodismo 11177
potencias 11174
Hi@@ 11172
ualmente 11169
Meg@@ 11168
ambi@@ 11164
march@@ 11162
trabaj@@ 11162
Baloncesto 11161
relevancia 11161
Colo 11160
disfrut@@ 11158
nas 11158
derivado 11157
Matt 11156
les@@ 11154
pretendía 11154
existir 11153
Lag@@ 11151
solicitud 11149
separa 11146
ung@@ 11145
alizaciones 11142
Laur@@ 11141
fre@@ 11139
endida 11137
ánicas 11137
perteneció 11136
siva 11134
parques 11133
variación 11133
guarnición 11132
voluntarios 11131
testimonio 11130
triunf@@ 11129
dirigidos 11127
Fase 11123
Vázquez 11120
suave 11120
Llegó 11119
hun@@ 11119
ilio 11119
sintetiz@@ 11116
entero 11114
prolong@@ 11114
Harvard 11113
O. 11113
elabor@@ 11112
ney 11111
olog@@ 11109
acio 11108
ital 11106
EE.UU. 11105
ry 11104
arran@@ 11098
ONU 11097
ativamente 11097
imo 11096
crece 11094
definitivo 11094
recur@@ 11094
Esqu@@ 11093
directiva 11093
anchura 11090
IS@@ 11087
Velasco 11087
culos 11087
Varsovia 11085
aud@@ 11084
ministerio 11084
contribuciones 11081
sk@@ 11081
bizantino 11080
mati@@ 11080
odo 11079
cep@@ 11077
fos 11077
llena 11076
masiva 11074
Lev@@ 11071
yen 11070
1857 11068
alo 11068
Ga@@ 11067
encargo 11064
ivas 11064
Resultados 11063
fisi@@ 11063
originario 11063
descendiente 11062
seca 11062
Billy 11061
centrocampista 11061
signos 11061
1866 11060
encontrados 11060
aderos 11058
basadas 11057
Din@@ 11056
avances 11055
Sociales 11054
dieciséis 11052
cuad@@ 11050
hembra 11050
age 11049
cráneo 11049
básico 11048
escribiendo 11048
bi 11047
localización 11047
mineral 11045
Journal 11044
contra@@ 11043
fiel 11042
Open 11039
componen 11037
corteza 11036
trasera 11034
Filadelfia 11033
Kh@@ 11033
ki@@ 11031
rebel@@ 11030
130 11029
var 11029
reúne 11028
ites 11027
Integr@@ 11026
Star@@ 11025
goleador 11024
pregun@@ 11024
Jaén 11023
óticos 11022
colonización 11021
inger 11020
Na@@ 11019
Rin 11019
agrad@@ 11019
Vas@@ 11016
trigo 11015
Bro@@ 11012
condados 11011
impuls@@ 11011
Conservatorio 11010
facto 11009
causar 11008
intérprete 11008
Lucía 11007
hipot@@ 11007
Mand@@ 11004
vigente 11004
revolucionario 11003
Charlie 11002
nosotros 11001
Nacionales 10999
Tol@@ 10997
alu@@ 10997
ástico 10997
idez 10996
Wal@@ 10994
vs 10994
xi@@ 10994
registr@@ 10993
geográfico 10987
Sav@@ 10986
referente 10985
Gri@@ 10984
arbitr@@ 10983
peg@@ 10981
paseo 10978
neerlandés 10976
uel@@ 10975
valor@@ 10974
lana 10973
ecieron 10970
trin@@ 10970
Rod@@ 10969
idente 10966
Investigaciones 10965
olla 10961
situados 10960
Detroit 10959
venganza 10959
esi@@ 10958
Feria 10954
convertir@@ 10952
Franklin 10950
Ambas 10949
convencional 10947
operar 10944
ticismo 10944
funcionar 10943
1877 10941
geografía 10941
sábado 10941
culpa 10940
lema 10938
testigo 10937
Holanda 10935
Luz 10935
\ 10933
tonos 10933
alternativo 10932
vegetales 10931
Rolling 10930
ejes 10930
resultaron 10929
Prom@@ 10928
Olímpico 10926
geométr@@ 10926
suministro 10926
detención 10922
juntas 10920
necesit@@ 10920
Ámsterdam 10919
Alb@@ 10918
Rot@@ 10918
Cá@@ 10917
sabía 10916
escuadra 10914
ui@@ 10913
diagnóstico 10912
Kon@@ 10909
Hombre 10906
pro 10906
sensación 10904
ain@@ 10903
presentarse 10901
únicas 10901
autobuses 10900
1862 10899
Anne 10898
It@@ 10897
Pav@@ 10897
ash@@ 10897
iko 10896
cier@@ 10895
izos 10895
Roca 10894
correo 10893
lus@@ 10890
dependencia 10889
ciudadanía 10888
FI@@ 10885
diseñador 10885
articul@@ 10884
laje 10883
Dan 10882
institu@@ 10882
kov 10882
Cub@@ 10881
Jerónimo 10881
hacienda 10881
dirig@@ 10879
ópolis 10879
ranking 10877
Bern@@ 10875
comer 10875
sucesos 10872
Chávez 10867
sustancias 10864
asta 10862
estro 10860
terminando 10860
cán@@ 10854
ze 10852
Calderón 10851
Demócrata 10851
separada 10851
usaba 10851
quedarse 10846
extrema 10844
profundamente 10844
Jan@@ 10843
Ori@@ 10841
Ner@@ 10840
Zo@@ 10839
ases@@ 10838
diseñ@@ 10838
neutr@@ 10838
Iowa 10836
inmun@@ 10835
prol@@ 10835
marav@@ 10834
1,5 10833
elevación 10832
destinada 10831
Actu@@ 10830
ilegal 10830
proveniente 10830
acho 10828
sintió 10828
catálogo 10826
modific@@ 10825
ídos 10821
cómic 10819
Girl 10817
carg@@ 10816
habrían 10816
cortas 10813
Ku@@ 10812
ha@@ 10812
concepción 10811
Kennedy 10802
filtr@@ 10802
vocales 10802
Gordon 10801
alc@@ 10801
git@@ 10801
conforme 10797
Cav@@ 10796
amor@@ 10796
delic@@ 10796
Apple 10795
mic@@ 10795
Oliver 10792
Democrático 10788
Eugenio 10788
Ph@@ 10785
deo 10785
mito 10785
Tex@@ 10783
foc@@ 10783
desconoce 10776
redujo 10776
sombra 10776
AP@@ 10774
estu@@ 10773
traducido 10773
tanque 10771
tendencias 10771
priv@@ 10770
Cali 10765
Vin@@ 10765
osidad 10763
Dakota 10760
hayan 10760
recoge 10760
Amor 10759
dispuesto 10758
estros 10756
eli 10753
Agua 10751
Patri@@ 10750
regulación 10750
provinciales 10749
wa 10747
estabiliz@@ 10744
Patrick 10743
bord@@ 10743
Nigeria 10741
unen 10741
relevantes 10740
poblada 10739
polvo 10738
eciendo 10737
gubernamental 10736
Diputación 10734
apos@@ 10734
lida 10732
asesinatos 10730
proyección 10730
Grab@@ 10729
cómics 10729
cirugía 10728
giro 10724
Constitucional 10721
himno 10721
fos@@ 10720
fábricas 10719
Monte@@ 10718
deb@@ 10716
Dicho 10714
Comandante 10713
AD@@ 10711
encio 10711
asesinados 10707
gus@@ 10706
endiendo 10705
publicadas 10702
timo 10701
sacar 10696
excav@@ 10695
receptor 10695
Creek 10694
conducción 10694
manej@@ 10692
secos 10692
Oaxaca 10691
aliado 10691
expulsión 10690
inclusión 10690
opiniones 10690
ji@@ 10689
medir 10687
etta 10685
Inicios 10684
Lan@@ 10684
calificó 10682
Almería 10681
sson 10680
yacimiento 10680
tara 10677
cooper@@ 10676
riz@@ 10675
repar@@ 10673
ibn 10669
dimensión 10668
desarrollan 10666
uto 10663
psicología 10659
A.@@ 10657
yentes 10657
ander@@ 10656
jueces 10656
constantes 10655
moléculas 10654
planificación 10654
Ak@@ 10653
humedad 10653
ográficos 10650
tric@@ 10650
hid@@ 10649
sch@@ 10649
} 10649
Extremadura 10647
debil@@ 10642
entrevist@@ 10642
metales 10638
Salta 10635
milit@@ 10634
permanec@@ 10634
cancha 10633
esis 10633
Jor@@ 10632
Rumania 10628
playas 10627
naranja 10625
aplicar 10624
apodo 10624
rum@@ 10621
fus@@ 10620
N. 10619
endieron 10618
Marte 10617
Montes 10617
well 10617
Dicha 10616
land@@ 10616
Parte 10615
detenidos 10613
Reb@@ 10609
afirmando 10608
War@@ 10607
Dol@@ 10605
mató 10605
federado 10601
ocasionalmente 10600
décima 10597
expresidente 10595
ológicamente 10595
Div@@ 10592
Renacimiento 10592
document@@ 10590
hispan@@ 10590
considerarse 10589
eus 10587
potente 10587
umb@@ 10586
oscura 10585
desaf@@ 10584
alidades 10579
men 10578
distinto 10577
icias 10576
anch@@ 10574
1810 10572
irlandés 10572
derrotas 10571
retras@@ 10571
Datos 10566
Cortés 10565
construidas 10565
necesarias 10564
Sk@@ 10563
biología 10562
húmedo 10562
Leopoldo 10558
restricciones 10558
egas 10556
http 10555
mez@@ 10555
emblem@@ 10553
dominios 10551
inspiró 10551
significativamente 10551
socialistas 10550
medias 10549
1820 10547
dramática 10547
caliente 10545
Hamburgo 10544
argentinos 10543
dicen 10543
rosas 10543
26@@ 10541
llaman 10541
tul@@ 10541
conexiones 10538
producidos 10538
manzana 10537
volcán 10535
és@@ 10534
Sag@@ 10533
fo@@ 10531
rano 10531
Industria 10530
demostr@@ 10529
bati@@ 10528
caras 10527
formaban 10526
cubiertas 10525
conservadores 10523
protec@@ 10523
Home 10518
jera 10518
refin@@ 10518
ciales 10517
frutas 10517
multiplic@@ 10515
rito 10514
solía 10513
Sarah 10511
penetr@@ 10509
manifestación 10508
mentos 10508
aldeas 10506
elles 10506
tieron 10506
zap@@ 10506
ampa 10502
mostrando 10502
Montreal 10501
intenso 10500
comunicado 10499
lis@@ 10498
relacion@@ 10498
cruzar 10497
prohibición 10497
uy@@ 10497
podrá 10496
Otto 10492
armadas 10492
transit@@ 10491
Capit@@ 10490
introducido 10489
ída 10489
Manhattan 10487
aclar@@ 10486
alejarse 10485
Kelly 10483
policial 10483
ini@@ 10482
Días 10480
Sporting 10480
ocasion@@ 10479
financiación 10477
franja 10476
popularmente 10474
vuelven 10474
Vegas 10473
pac@@ 10473
sufr@@ 10473
Ubicación 10471
béisbol 10469
emitida 10468
marqu@@ 10468
Den@@ 10465
encerr@@ 10464
macho 10462
ache 10459
ci 10458
fenómenos 10457
Borbón 10456
Russell 10455
nominada 10452
cumplimiento 10447
heter@@ 10447
Cinco 10446
fundar 10445
Clar@@ 10443
combinado 10443
cálculo 10443
Liberación 10439
Abu 10438
ingenieros 10438
enza 10437
capturar 10436
zan 10435
ciudadano 10434
ff@@ 10434
síndrome 10432
rad@@ 10431
ciona 10429
zada 10427
excavaciones 10426
hablan 10426
hol@@ 10425
adoptado 10424
ído 10424
ografías 10423
entraron 10421
preguntas 10421
colaboradores 10420
irregular 10416
kar@@ 10416
los@@ 10415
ánicos 10415
10.@@ 10408
orbitales 10407
Británico 10404
cruz@@ 10401
frag@@ 10401
abundantes 10399
mí 10399
ort@@ 10399
delimit@@ 10398
odio 10397
Bravo 10395
corre 10395
enfrenta 10395
Í@@ 10395
play 10394
transmi@@ 10394
beta 10393
gases 10393
Ker@@ 10385
Wisconsin 10384
acusaciones 10383
silencio 10383
orial 10380
franco 10379
Minas 10374
progres@@ 10374
requieren 10373
desembar@@ 10371
descubierta 10370
len@@ 10369
Ginebra 10368
empezar 10368
Oc@@ 10366
Técnica 10364
polí@@ 10363
consist@@ 10362
evangel@@ 10361
aseguró 10360
Cri@@ 10359
gerente 10356
destruida 10355
Albacete 10354
armamento 10352
específicas 10352
pretende 10352
agrup@@ 10351
favorables 10351
p. 10351
Estadística 10350
restaur@@ 10347
Bohemia 10345
Rubén 10344
Aguirre 10342
Bandera 10342
Sc@@ 10342
PP 10340
Iz@@ 10338
sirven 10338
probar 10336
NA 10334
UE 10334
bilidad 10333
Network 10332
Queen 10332
Ale@@ 10331
Ped@@ 10329
RE@@ 10329
Pis@@ 10327
Ross 10327
improvis@@ 10325
Christopher 10324
condena 10323
FA 10320
tit@@ 10320
escalera 10319
maestría 10315
tados 10313
ih@@ 10312
sucede 10312
ij@@ 10311
· 10311
embalse 10310
inales 10305
monjes 10305
eléctricos 10304
Vélez 10303
imit@@ 10302
irán 10302
clar@@ 10300
gos 10299
bia 10298
contaminación 10298
fico 10298
Hubo 10297
Tit@@ 10297
té 10297
galardonado 10294
1833 10293
Arabia 10293
liderado 10293
1812 10292
avanzada 10292
ileg@@ 10290
Negra 10289
Mesa 10286
depósito 10285
eu 10284
Old 10283
glob@@ 10281
primarias 10281
Público 10276
parroquias 10276
portal 10276
Pictures 10274
comprensión 10274
blan@@ 10273
Singapur 10272
habitaciones 10272
mexicanos 10271
énfasis 10271
ólico 10271
legislatura 10268
comparte 10265
conservado 10263
barra 10261
hum@@ 10261
buscaba 10260
fusion@@ 10259
membrana 10259
derrotados 10257
Casas 10255
matemático 10255
Ste@@ 10253
Seminario 10251
planetas 10251
evolucion@@ 10246
almacen@@ 10245
USA 10244
suizo 10244
aceptado 10243
izados 10243
ámicas 10243
cría 10242
Estocolmo 10240
examen 10238
didas 10237
Pirineos 10235
1821 10234
lingü@@ 10234
campeona 10232
gam@@ 10232
observaciones 10232
subordin@@ 10232
tron@@ 10231
dest@@ 10229
Gas@@ 10227
confirmado 10226
culp@@ 10226
estándares 10226
conquist@@ 10225
camin@@ 10222
Die 10216
razon@@ 10214
Ciudad@@ 10212
dist@@ 10212
permiti@@ 10212
Apar@@ 10211
D.@@ 10210
deportistas 10210
reemplazar 10210
vener@@ 10210
cargas 10209
muralla 10209
Vizcaya 10207
dividió 10206
France 10203
implementación 10203
Contr@@ 10201
corredor 10198
procedimientos 10195
Sección 10194
accede 10193
ectiva 10193
DJ 10192
Gloria 10188
encarga 10188
Cro@@ 10185
via 10184
Ú@@ 10183
cuadrado 10180
desarrollando 10179
Mr 10176
provocando 10174
abadía 10172
ficos 10172
embajada 10171
export@@ 10171
Alba 10170
extracción 10167
crónica 10166
siquiera 10166
divi@@ 10164
Alicia 10162
Mak@@ 10162
Rad@@ 10160
acuñ@@ 10160
maneras 10159
censura 10158
fili@@ 10156
interpretaciones 10156
jugaron 10154
valió 10154
Hamilton 10150
arca 10150
úl@@ 10148
ísmo 10144
piensa 10143
profes@@ 10142
nominación 10141
australiana 10140
Registro 10138
Wilhelm 10136
bert 10134
reco@@ 10133
We 10132
quet 10132
Comunicación 10130
artes@@ 10129
notablemente 10128
pendiente 10127
redonde@@ 10127
ie@@ 10126
180 10125
tería 10123
abuela 10122
transmitir 10121
permitieron 10120
animada 10119
virtual 10118
pró@@ 10117
anex@@ 10116
udos 10116
trabajan 10114
Bosnia 10113
ung 10113
amenazas 10112
funcionario 10112
chico 10111
cinematográfico 10111
facilidad 10110
abiertos 10109
iste 10109
realismo 10109
agregó 10108
Hen@@ 10106
preparar 10105
Jac@@ 10103
demand@@ 10103
Cementerio 10102
protegida 10102
lan 10099
manuscrito 10099
utilizaba 10098
causando 10096
supervis@@ 10096
Institute 10095
luces 10094
congel@@ 10093
rompió 10091
acep@@ 10090
mig@@ 10088
iner@@ 10087
ance 10086
1859 10085
celebran 10085
US@@ 10081
violación 10081
Grammy 10079
acc@@ 10076
apro@@ 10076
aument@@ 10076
clasificar 10076
mapas 10076
poblados 10076
Angel 10073
litros 10073
afro@@ 10071
republicanos 10071
avanzar 10070
Nevada 10069
ate@@ 10067
atractivo 10064
René 10063
cambiando 10062
ancha 10059
artísticas 10059
berto 10059
reserv@@ 10059
reseñas 10059
ísima 10059
8,@@ 10058
Franz 10058
Lleg@@ 10058
premi@@ 10057
Legislatura 10056
ult@@ 10055
ecos 10054
séptima 10054
anuncia 10052
quedaba 10051
Mit@@ 10050
Will 10048
Playa 10046
apel@@ 10046
pis@@ 10046
Hir@@ 10043
Estructura 10042
reduce 10041
tari@@ 10041
caballeros 10037
torado 10037
teología 10036
Eur@@ 10035
pensó 10035
hebreo 10032
conjunta 10027
Kam@@ 10026
Power 10026
emiti@@ 10026
burg 10024
pasaba 10023
ador@@ 10022
odos 10022
golpe@@ 10021
Arn@@ 10020
Pale@@ 10020
Song 10020
aconse@@ 10020
arquitectónico 10020
fina 10019
aparente 10016
bloqueo 10016
cic@@ 10015
uk@@ 10015
direcciones 10013
Can 10012
Juniors 10011
alum@@ 10009
obreros 10009
mut@@ 10008
íaca 10008
Toro 10007
perfor@@ 10007
Sólo 10006
Territorio 10006
cátedra 10006
nazis 10006
Carter 10005
sindic@@ 10003
destinados 10001
oga 10001
señores 10001
ónimo 10001
protegido 10000
tablas 10000
televisiva 10000
mayoritariamente 9998
datan 9995
lingüística 9995
vil@@ 9994
distinta 9993
dea 9988
Arroyo 9987
ficó 9985
academia 9984
electrones 9983
infección 9981
Lagos 9979
surgieron 9979
cios 9977
obtenidos 9976
Nat@@ 9975
sust@@ 9975
sti@@ 9974
itada 9971
platos 9970
autas 9969
cav@@ 9968
We@@ 9967
adolescentes 9967
elaborado 9966
ill 9966
negoci@@ 9966
recuerdo 9962
arrestado 9961
Jason 9958
impres@@ 9957
signo 9956
jurídica 9955
edific@@ 9953
héroes 9949
óloga 9949
Túnez 9947
Land@@ 9946
Aguilar 9945
esco 9945
Aparte 9944
Jun@@ 9943
fundaron 9943
plic@@ 9941
catedrático 9940
euc@@ 9936
obligados 9936
Villanueva 9935
yacimientos 9935
atentado 9934
baño 9934
magia 9934
rivalidad 9934
Mach@@ 9933
Simpson 9932
latitud 9929
intentaron 9928
bieron 9925
quot 9924
Andy 9923
taba 9921
finca 9920
sepul@@ 9920
versi@@ 9918
civilización 9917
explicación 9917
Universitaria 9916
desplazamiento 9916
acor@@ 9915
portugueses 9915
bautizado 9914
alz@@ 9913
reunir 9912
defendió 9910
crita 9909
aerolínea 9908
bordes 9908
especialidad 9908
propaganda 9908
ciclismo 9906
situadas 9906
Fuego 9905
estacion@@ 9903
Austin 9902
carbon@@ 9900
feminista 9900
daría 9899
Ferr@@ 9898
mercancías 9898
oide 9896
Bab@@ 9895
intens@@ 9894
violín 9893
Diana 9892
relevante 9891
tarjeta 9888
impresion@@ 9887
inmigración 9887
videoclip 9887
Estrella 9883
oniendo 9883
yr@@ 9883
inus 9882
estatura 9881
Ly@@ 9880
IC 9879
arqueológico 9878
Control 9877
cubano 9876
Hierro 9874
llevaban 9873
turcos 9873
Bárbara 9872
enga 9871
Estadísticas 9870
expulsado 9870
Donald 9868
Primero 9868
octava 9868
uciones 9868
contrat@@ 9867
ferroviario 9867
eventualmente 9866
próximos 9865
And@@ 9863
350 9860
Corrientes 9860
juicios 9860
sentimiento 9860
sustancia 9860
occidente 9857
Valley 9855
criminal 9855
eléctricas 9854
³ 9853
Athletic 9851
Macedonia 9849
arist@@ 9849
robo 9849
asume 9848
AR 9844
listado 9844
Toponimia 9843
ñón 9843
ricas 9841
trac@@ 9841
min 9840
disparo 9839
27@@ 9837
Diócesis 9837
gadas 9834
sia 9832
Who 9831
gradualmente 9831
Ellos 9830
cristal 9829
amateur 9827
ejecutado 9826
intendente 9825
rever@@ 9824
sugirió 9823
albergar 9820
instaur@@ 9820
indicar 9819
sat@@ 9819
Lac@@ 9816
Equipo 9815
posesiones 9815
lidas 9814
pá@@ 9810
Océano 9809
Lic@@ 9808
Lyon 9808
Pascual 9807
instalado 9806
simpli@@ 9803
Jalisco 9799
Do 9798
concer@@ 9797
Sac@@ 9795
clínica 9795
TC 9793
noventa 9790
certificado 9788
cóm@@ 9788
epí@@ 9786
danés 9785
constituido 9784
Tito 9783
a- 9781
vienen 9781
aprovech@@ 9779
nacionalista 9776
bail@@ 9775
Direc@@ 9773
conjuntamente 9773
fija 9772
prove@@ 9772
1858 9770
designó 9770
reducida 9770
Física 9765
humor@@ 9764
detalle 9763
nativo 9762
Adams 9761
altern@@ 9761
organ@@ 9759
exclusiva 9758
gia 9758
lad@@ 9758
abiertas 9756
equi@@ 9756
Eslovaquia 9754
Twitter 9754
luchas 9753
cilindros 9752
compartir 9751
extranjeras 9748
creados 9747
mantenía 9745
platino 9745
involucr@@ 9744
ix@@ 9744
1856 9743
dispuso 9743
asiático 9740
correspondencia 9740
Da@@ 9737
Feder@@ 9737
ator@@ 9736
adorn@@ 9735
ichi 9735
enamor@@ 9734
IM@@ 9733
destin@@ 9733
resol@@ 9731
bacterias 9730
Op@@ 9728
Pit@@ 9728
gico 9728
funcional 9723
urbanas 9722
atracción 9721
bola 9721
conformada 9721
noches 9720
Parroquia 9716
manipul@@ 9716
agas 9714
usi@@ 9714
Paralímpicos 9711
Esperanza 9709
hospit@@ 9709
santos 9707
dedicados 9706
doc@@ 9706
Abraham 9701
margin@@ 9700
largometraje 9699
pilares 9697
vo@@ 9697
Bruno 9691
nodo 9691
consideradas 9689
tratan 9689
SP@@ 9688
plac@@ 9688
cabello 9687
British 9686
Paula 9682
Sum@@ 9681
batallón 9680
supervivencia 9679
SA@@ 9678
supl@@ 9678
ingen@@ 9676
véase 9676
Frontera 9675
Out 9675
anticip@@ 9675
estelar 9672
tomada 9670
ligera 9669
Pet@@ 9666
pesado 9666
existió 9665
denominados 9664
manual 9664
biografía 9662
ME@@ 9661
amplió 9660
Soria 9659
nica 9659
Profesor 9658
Sudamericana 9658
ficticio 9658
funda 9656
cobr@@ 9655
reglam@@ 9653
9,@@ 9651
op 9650
érica 9648
baron 9647
extendido 9646
Fiestas 9645
vinos 9644
did@@ 9643
conquistar 9641
buscó 9638
electrónicos 9635
uelve 9635
Coc@@ 9634
funcion@@ 9634
viajeros 9634
cones 9633
plástico 9633
venía 9631
soc@@ 9630
portero 9629
aeronaves 9628
correr 9628
emo@@ 9627
marcando 9627
descarga 9625
precipitaciones 9624
adelant@@ 9622
captur@@ 9622
Miembro 9621
Públicas 9621
honor@@ 9621
tend@@ 9621
codific@@ 9620
Isaac 9617
ajust@@ 9615
tiros 9614
fuga 9613
manifiesto 9611
pacto 9611
Theatre 9610
nic@@ 9609
manuscritos 9608
novio 9607
Batman 9604
hueso 9603
luchador 9603
instrucción 9601
Igualmente 9600
áneo 9600
Draft 9599
astron@@ 9595
cuar@@ 9594
espectro 9593
ole 9592
Tras@@ 9589
Mercado 9584
ilustraciones 9584
éstos 9584
patr@@ 9583
ensamb@@ 9582
modificación 9582
Rick 9580
patrocin@@ 9576
restabl@@ 9575
reos 9573
Raw 9572
1854 9569
costos 9569
aluminio 9567
Rosas 9564
nar@@ 9563
volvería 9563
Lituania 9561
ran 9561
victori@@ 9561
bíbl@@ 9558
censada 9558
puntu@@ 9558
seudónimo 9558
entregado 9557
explicó 9556
DE@@ 9555
acompañada 9555
fri@@ 9554
habituales 9554
Roque 9552
aline@@ 9552
significó 9551
Pri@@ 9550
procesamiento 9550
rodeada 9550
ánimo 9548
music@@ 9547
Tec@@ 9546
engañ@@ 9545
oxid@@ 9545
viva 9545
Designación 9544
trío 9543
porción 9541
compuestas 9538
abord@@ 9537
agos 9537
demócrata 9537
lento 9537
banqu@@ 9536
contactos 9536
representaba 9536
RA 9535
1814 9534
exportación 9534
norm@@ 9534
Sonora 9533
Bad 9529
básicamente 9528
sobrevivir 9528
Kol@@ 9527
embri@@ 9527
const@@ 9526
Siete 9525
Walker 9525
achi 9525
oficio 9524
militantes 9523
report@@ 9523
bombardeo 9521
disparos 9521
descritas 9520
gica 9520
Fol@@ 9517
Alice 9514
Clemente 9514
escándalo 9514
fila 9514
Sancho 9513
reunieron 9513
125 9512
Escudo 9511
itan 9510
noveno 9510
enz@@ 9509
sk 9509
1855 9508
Post 9507
crecer 9507
ign@@ 9505
vinculado 9504
inundaciones 9502
usiones 9501
HD 9500
eficiencia 9496
queso 9495
endr@@ 9493
singular 9493
descu@@ 9492
huracán 9491
respectivos 9491
ads@@ 9490
encomend@@ 9490
señorío 9489
Alaska 9488
cerebral 9488
penales 9488
Salazar 9487
es.@@ 9487
materias 9486
mera 9483
acordó 9480
contratos 9480
habido 9480
Ebro 9479
consistente 9478
17@@ 9477
comparten 9477
Casi 9475
salieron 9475
volver@@ 9472
austr@@ 9469
160 9467
Brooklyn 9466
Il 9464
recol@@ 9464
fit@@ 9462
determinó 9459
expresiones 9459
Agrilus 9458
Vit@@ 9457
pent@@ 9457
Band 9455
cónsul 9454
fusil@@ 9454
catalana 9450
cono 9450
Airlines 9449
Izquierda 9448
Cob@@ 9447
Bernard 9446
relata 9443
Fiesta 9442
querían 9441
inteligente 9440
Kiev 9438
from 9436
institucional 9436
consecutivos 9434
colaborador 9433
Castell@@ 9429
Badajoz 9427
Constitu@@ 9426
Lau@@ 9425
Oper@@ 9424
interpre@@ 9423
profundas 9422
renunci@@ 9422
desemboc@@ 9421
ajas 9420
Channel 9419
esencialmente 9415
Lisa 9414
testigos 9414
28@@ 9413
Arch@@ 9413
toca 9413
Escribió 9412
formarse 9412
adulto 9411
Emp@@ 9408
reparti@@ 9408
vid@@ 9408
esca 9407
abil@@ 9406
Villar@@ 9405
Form@@ 9403
ban 9402
señora 9402
awa 9400
compleja 9400
autopista 9399
contrató 9397
decidido 9397
tributo 9396
disciplinas 9393
ier 9390
reaccion@@ 9389
Cum@@ 9386
iki 9386
uza 9386
Sara 9384
bro 9384
Vid@@ 9383
acompañó 9381
vec@@ 9381
marcar 9379
gato 9377
die 9376
realizaba 9376
Aqu@@ 9375
escondi@@ 9375
mán 9375
Energía 9374
murallas 9374
Jonathan 9372
mostrado 9371
justific@@ 9370
fresco 9368
quis@@ 9368
transferido 9368
vecina 9368
coordinación 9365
firmaron 9365
ponen 9365
presos 9364
Chipre 9362
entino 9360
fracas@@ 9360
causado 9359
materi@@ 9359
Marc 9357
estra 9357
Benjamin 9356
plantel 9354
Nec@@ 9353
Francesco 9350
Lang@@ 9350
abast@@ 9349
Basílica 9348
alberg@@ 9347
enriqu@@ 9345
Sports 9344
evalu@@ 9343
aumentando 9342
prisionero 9342
basándose 9340
franquista 9340
Dance 9337
Malvinas 9337
tot@@ 9337
edía 9336
ángulos 9335
ajedrez 9334
mod@@ 9334
itz 9332
informa 9329
ógrafos 9329
ans@@ 9327
Roy 9325
Liverpool 9324
contener 9324
físicos 9324
aren@@ 9323
etnia 9320
Ñ@@ 9320
Líbano 9319
Jer@@ 9318
subir 9316
Harris 9314
resultando 9311
Tim 9310
Dave 9309
ons@@ 9309
quieren 9309
Turín 9308
crom@@ 9308
invent@@ 9308
enso 9307
arrastr@@ 9304
presentador 9304
transformó 9302
Edificio 9300
inmediata 9300
perfecto 9300
Quebec 9299
niega 9299
toman 9299
promovido 9296
africana 9293
alturas 9293
Liceo 9290
ramal 9289
Arias 9287
superando 9287
lectores 9285
eficiente 9283
o.@@ 9283
presas 9282
conversaciones 9281
ny@@ 9278
radicales 9277
vela 9274
delantera 9273
nomin@@ 9272
denominó 9271
reconocen 9271
promo@@ 9270
Radical 9269
defensas 9269
PS@@ 9266
ruido 9265
brigada 9264
escasez 9264
Domin@@ 9262
ō@@ 9259
alcanzaron 9258
huer@@ 9257
pionero 9257
Acuerdo 9254
óm@@ 9253
meseta 9251
templ@@ 9250
hormigón 9249
Gil@@ 9248
MA 9248
refugi@@ 9248
Lorena 9244
Clase 9243
viaja 9242
evacu@@ 9241
fug@@ 9241
list@@ 9241
lealtad 9240
mandó 9238
necesitaba 9238
típicos 9237
descans@@ 9235
abad 9234
Viv@@ 9232
intent@@ 9232
típicamente 9232
ern@@ 9231
ny 9231
tía 9230
Carlo 9229
CBS 9228
jornadas 9228
comando 9225
superficial 9225
teatrales 9224
brind@@ 9223
oe 9222
pará@@ 9221
tidas 9220
extenso 9219
vital 9219
denuncia 9217
25@@ 9216
afecta 9216
señalar 9214
Chihuahua 9213
molecular 9213
escasos 9212
quilla 9212
extrem@@ 9209
colinas 9208
sens@@ 9208
Mut@@ 9206
consigo 9206
óleo 9206
Sus@@ 9204
transmitido 9203
enseñó 9202
caí@@ 9201
esclavitud 9200
5000 9199
nucleares 9198
Rib@@ 9197
crip@@ 9197
ré@@ 9195
necesitan 9193
Alt@@ 9192
1851 9189
Rus@@ 9189
subespecie 9189
sugieren 9189
tumbas 9189
convocatoria 9188
narrativa 9188
atacaron 9187
idores 9185
cionó 9183
empresarial 9183
ria 9181
ilumin@@ 9180
renunciar 9180
Unos 9179
presentando 9179
Jon 9174
complejidad 9173
experto 9171
may@@ 9171
volar 9171
dudas 9169
up 9169
udes 9165
Marqués 9164
impedir 9164
mira 9164
editada 9162
ert 9162
ste@@ 9162
sólido 9162
Bet@@ 9159
consenso 9158
Asoci@@ 9156
Sau@@ 9155
ogr@@ 9155
Ran@@ 9153
cial 9153
istió 9153
Parker 9152
Escu@@ 9150
tru@@ 9150
declara 9149
firm@@ 9149
veinti@@ 9149
afectados 9148
bañ@@ 9148
compañera 9146
140 9144
predomin@@ 9142
prohib@@ 9142
Méndez 9139
desarrollados 9138
inclu@@ 9138
poderosa 9138
Amazonas 9137
pose@@ 9137
Hawái 9136
2,5 9135
asión 9135
coral 9134
montaje 9134
1842 9133
Lem@@ 9133
aeronave 9132
nas@@ 9132
superado 9131
Dic@@ 9130
yn 9130
íamos 9128
1835 9127
asi 9124
nio 9124
dos@@ 9122
sam@@ 9122
extraño 9120
ional 9120
UTC 9118
Peñ@@ 9116
Of 9115
sueca 9115
autoría 9111
icul@@ 9110
conducir 9108
ejecutar 9108
reside 9107
jan 9106
desastre 9105
silla 9104
armente 9103
ocasi@@ 9103
convocó 9102
ejemplar 9102
ritmos 9102
direc@@ 9099
sufrag@@ 9099
AT 9096
Humanidad 9096
feliz 9094
confusión 9090
utilidad 9090
Dead 9089
personalmente 9089
patria 9088
pri@@ 9085
inéd@@ 9084
Serrano 9083
estatuas 9083
Claude 9082
Sy@@ 9082
Wayne 9080
africanos 9080
clor@@ 9080
Co 9079
seg@@ 9078
supo 9077
Mora 9076
bol 9075
imprim@@ 9074
sultán 9074
ubicadas 9072
endidos 9069
flam@@ 9069
Marshall 9068
fotógrafo 9068
anci@@ 9067
itados 9067
autobús 9061
memorias 9060
rado 9060
Award 9058
recor@@ 9058
Got@@ 9057
Les@@ 9057
Jacob 9055
Lat@@ 9054
colegios 9053
od 9053
Robin 9052
esfera 9049
afectado 9048
inversiones 9047
Gur@@ 9044
cantando 9044
grueso 9043
respaldo 9042
suger@@ 9042
Dallas 9040
Pontificia 9040
29@@ 9038
concejales 9038
parlamentarias 9038
granja 9037
afirman 9034
edificación 9034
oi 9034
tango 9034
Jeff 9030
Bil@@ 9028
gradu@@ 9028
fortific@@ 9026
africano 9023
tarjetas 9023
Modelo 9022
Angeles 9021
Coordin@@ 9021
Femenina 9021
definida 9021
él@@ 9021
cho@@ 9020
remol@@ 9020
integrar 9019
To 9016
atlón 9016
core@@ 9015
tón 9015
1825 9014
iy@@ 9014
orgánica 9014
band@@ 9013
24@@ 9011
conducido 9011
Amar@@ 9010
Fab@@ 9009
fant@@ 9009
titul@@ 9008
Alber@@ 9007
ous 9006
natur@@ 9005
determinación 9004
tif@@ 9003
imper@@ 9001
nó 9001
costera 8999
mento 8998
sencilla 8997
unidos 8997
Campeonatos 8996
Carta 8995
destinos 8995
éndola 8995
Li 8994
contamin@@ 8994
comprometi@@ 8993
óg@@ 8991
terrorista 8990
Pob@@ 8989
Press 8988
sio 8988
radios 8987
Representantes 8986
auxiliar 8986
icus 8986
nat@@ 8983
polaca 8981
círculos 8980
bis 8978
ái 8978
Trabajadores 8977
Armando 8973
Campaña 8973
parámetros 8973
Fund@@ 8970
crec@@ 8970
históricamente 8968
tasas 8968
tible 8968
mayormente 8967
reemplazó 8967
cedió 8966
sufrieron 8966
ográficas 8964
vencedor 8964
Represent@@ 8962
eficaz 8962
Islandia 8961
Revolucionario 8957
Sarmiento 8956
deberían 8955
falt@@ 8954
SO@@ 8951
mostraron 8951
Di 8950
Georges 8950
Habsburgo 8948
fracción 8948
pist@@ 8948
abundancia 8947
dirigidas 8946
aler@@ 8945
consciente 8945
excentricidad 8945
superficies 8943
receptores 8942
adición 8941
ornam@@ 8941
ps 8941
secreta 8940
independientemente 8939
provisionalmente 8938
sustitu@@ 8938
diseñados 8937
gravemente 8936
NASA 8935
Polo 8935
proy@@ 8935
útiles 8934
bebé 8933
presidentes 8932
Wright 8931
fabricantes 8930
propiamente 8930
astas 8929
1853 8928
necesariamente 8928
ondo 8928
Canaria 8926
Úl@@ 8926
estand@@ 8925
delegado 8924
levantó 8924
horizontal 8923
ificada 8923
inspirada 8923
Pequ@@ 8922
Zagreb 8922
bre 8922
quel 8921
tribunales 8920
Lucha 8919
cim@@ 8919
minoría 8918
impidió 8917
tram@@ 8917
azar@@ 8916
etr@@ 8916
ath@@ 8912
castigo 8910
dependencias 8910
sali@@ 8909
Be 8908
intos 8908
Orígenes 8907
Cervantes 8905
alfabeto 8905
sujetos 8902
tracción 8902
Beatriz 8901
Bis@@ 8901
suicidio 8899
Protección 8895
Gibraltar 8894
ire 8894
Linux 8892
consideración 8892
quizá 8891
Ray@@ 8890
Women 8890
sep@@ 8890
Golden 8889
hallazgos 8887
entada 8886
paquete 8885
parlamentario 8885
recurrente 8885
Fac@@ 8884
TA 8882
a.C. 8881
ilia 8881
inver@@ 8881
santa 8880
individu@@ 8879
Antioquia 8878
Omar 8878
algodón 8876
argumentos 8876
jab@@ 8875
llegaría 8875
vegetal 8875
Normandía 8874
cumpli@@ 8874
evit@@ 8874
formar@@ 8874
lentamente 8874
hallaba 8873
Comunicaciones 8870
entregar 8869
acidad 8867
dirse 8867
bina 8866
map@@ 8866
pidieron 8866
Inf@@ 8865
Nobel 8865
literarias 8865
judiciales 8864
tín 8864
complic@@ 8863
enia 8863
ongo 8863
asco 8862
reunirse 8862
vendidos 8862
Orlando 8861
Pronto 8861
luchando 8861
Avi@@ 8860
Suc@@ 8860
estratégica 8859
consola 8856
olítico 8856
RA@@ 8855
mercad@@ 8854
Magazine 8852
óricas 8852
ocuparon 8851
ordenador 8850
Bien 8848
dorsal 8848
hospitales 8847
ć 8844
acog@@ 8843
eba 8843
sedes 8843
tienden 8843
ès 8843
Global 8841
feria 8841
Raj@@ 8840
Fran@@ 8839
emitir 8837
hered@@ 8836
Inició 8835
Leo 8835
Nova 8835
els 8834
amarilla 8833
asiento 8831
viejos 8831
Teoría 8830
desempeñaba 8830
adaptado 8829
percepción 8829
cortes 8828
guerreros 8828
tall@@ 8827
Hernán 8826
Barry 8824
bienestar 8823
solares 8823
deser@@ 8821
Muy 8820
básicas 8820
cerrar 8819
seguimiento 8819
apoy@@ 8815
E.@@ 8814
decenas 8813
olí@@ 8813
Vigo 8812
expuls@@ 8812
secuencias 8811
superó 8811
Biz@@ 8810
agn@@ 8810
st 8809
Montaña 8807
teatros 8806
cuadrada 8803
Alemán 8802
etc 8801
instrumental 8801
detall@@ 8800
reconocimientos 8799
recta 8799
My@@ 8798
contradic@@ 8798
AT@@ 8797
arreglos 8797
aprendió 8796
ocupaba 8796
plumas 8796
leyendas 8795
Khan 8794
Mozart 8794
abandona 8792
frac@@ 8792
opuesto 8791
venezolana 8791
Organiz@@ 8790
Potosí 8788
Sun@@ 8788
varían 8788
SC 8787
acar@@ 8786
Us@@ 8785
Principado 8782
constituida 8782
mática 8782
ado@@ 8778
clandest@@ 8777
sic@@ 8777
subespecies 8773
abar@@ 8772
invit@@ 8771
considerando 8770
expediciones 8769
poseer 8769
facultades 8767
rumores 8765
disco@@ 8763
vídeos 8763
cig@@ 8762
fantasía 8762
aproximada 8759
legislativo 8758
construye 8757
Trabaj@@ 8756
antiguamente 8756
deliber@@ 8756
Centroamérica 8754
bula 8754
Leon@@ 8753
Luxemburgo 8753
componer 8753
Borgoña 8752
bella 8751
reemplaz@@ 8747
aper@@ 8746
Inc 8745
Lugo 8743
dor 8741
Constantino 8740
consecutivas 8739
involucrado 8739
alcanzan 8737
melodía 8737
ebre 8736
cantó 8735
iliz@@ 8735
vacaciones 8733
Las@@ 8732
Metal 8732
matemática 8732
ector 8731
apoya 8730
escon@@ 8730
gobernación 8730
Ras@@ 8729
dy 8729
nom@@ 8729
1845 8728
Jug@@ 8728
suces@@ 8728
azules 8726
Santuario 8725
colaborar 8725
gicos 8724
hin@@ 8724
invitación 8724
sistem@@ 8724
Equipos 8723
Square 8722
str@@ 8722
Xavier 8720
introducir 8720
comprom@@ 8719
vul@@ 8719
foro 8718
provocar 8718
Lig@@ 8716
íl@@ 8716
derrot@@ 8715
distinguir 8715
č@@ 8715
inar 8714
ág@@ 8714
Best 8712
But@@ 8712
ambul@@ 8712
Gijón 8711
avanz@@ 8710
negativo 8709
roman@@ 8709
ST@@ 8708
envía 8708
1847 8707
administrador 8707
expl@@ 8707
perfectamente 8707
colocar 8705
especi@@ 8705
lucro 8705
out 8705
tista 8705
1834 8704
Varias 8704
alternativas 8704
ii 8704
semifinal 8703
aislamiento 8702
bibli@@ 8700
compartió 8699
renacentista 8698
UK 8697
zu@@ 8697
40@@ 8696
triple 8696
bit@@ 8695
duelo 8694
umi 8694
histori@@ 8693
vincul@@ 8691
admi@@ 8690
donación 8690
sensibilidad 8689
1852 8688
Baden 8688
haber@@ 8688
mico 8688
PS 8686
Ponce 8686
https 8684
suya 8684
caz@@ 8682
dici@@ 8682
azado 8681
divis@@ 8681
Estudio 8680
Mod@@ 8677
art@@ 8676
lava 8673
Juvenil 8672
supervisión 8672
Corporación 8671
ficada 8671
viz@@ 8671
adver@@ 8670
portavoz 8669
romance 8669
éstas 8669
recuerdos 8667
enlaces 8666
sing@@ 8665
Delgado 8664
Good 8664
culpable 8663
óxido 8663
consideraban 8662
dorado 8662
persist@@ 8661
ampliar 8660
republicana 8659
tiende 8659
metr@@ 8658
paneles 8658
nombrar 8654
egro 8653
Heinrich 8651
caña 8651
alit@@ 8650
exacta 8650
inscripciones 8648
canta 8646
autorización 8643
abuso 8642
elogi@@ 8641
mático 8641
septentrional 8640
Barrios 8639
habita 8638
Comprende 8637
fallo 8636
alar 8635
distingue 8635
incendios 8635
Convento 8633
discriminación 8633
ER@@ 8632
Siempre 8632
rojos 8632
Je@@ 8631
ation 8631
Grant 8630
ní@@ 8629
circun@@ 8628
coloca 8627
derrotando 8627
musulmana 8625
proporcionó 8625
Dark 8623
mill@@ 8622
pedi@@ 8622
toro 8622
bac@@ 8621
eira 8618
operador 8618
empresarios 8616
Tercer 8613
documentales 8613
mostraba 8612
Beatles 8611
gi 8609
recorre 8609
Eg@@ 8607
ami@@ 8607
servidor 8606
design@@ 8605
discípulo 8603
psico@@ 8603
Emma 8600
Museum 8599
eter@@ 8599
bolsa 8596
iler@@ 8596
usadas 8596
arru@@ 8595
concejal 8595
chicos 8593
conspiración 8592
ster@@ 8592
tensiones 8592
especialistas 8591
Mac 8590
emite 8588
futuros 8588
1849 8587
prob@@ 8587
Concilio 8586
Games 8586
aproxim@@ 8585
masacre 8585
comprender 8584
dific@@ 8583
encuesta 8583
Pul@@ 8582
org@@ 8582
Jordan 8581
unir 8580
Pom@@ 8579
Venus 8577
infin@@ 8577
R.@@ 8576
experimento 8576
litoral 8576
Mik@@ 8575
gas@@ 8575
Lawrence 8574
acusó 8572
estimación 8572
áculo 8571
50@@ 8569
ric@@ 8569
ejerce 8568
Cordillera 8564
anunciaron 8564
químicas 8564
ref 8564
inaugur@@ 8563
protocolo 8563
Hispanoamérica 8561
predec@@ 8561
interino 8559
policías 8557
tengan 8556
Fir@@ 8555
corredores 8555
jesuitas 8555
interfaz 8553
sumó 8552
Lí@@ 8551
famosas 8551
aceptada 8548
obispado 8546
bios 8545
educativa 8545
AL 8544
suplente 8542
aux 8539
convención 8539
oscil@@ 8539
Inés 8538
This 8538
abe 8537
creer 8535
determinados 8534
tác@@ 8534
Kas@@ 8533
caf@@ 8532
Gobernación 8531
tribut@@ 8530
quera 8529
Tarragona 8526
navales 8525
divorci@@ 8524
plasma 8524
positivos 8524
extranjera 8522
adquiere 8521
oll@@ 8520
Qué 8518
andal@@ 8516
Bir@@ 8515
certific@@ 8514
conci@@ 8514
diplomáticas 8514
Canc@@ 8513
Chap@@ 8513
Espec@@ 8512
poli 8512
empat@@ 8511
ope 8510
Antártida 8509
riendo 8508
ódromo 8507
Legión 8506
estad 8504
referéndum 8504
cens@@ 8503
11.@@ 8501
Lit@@ 8501
villas 8501
asesin@@ 8498
Diccionario 8496
Paseo 8496
infantiles 8496
nik 8496
Te 8494
jería 8494
preval@@ 8493
Girls 8491
nominaciones 8491
esencia 8490
Jud@@ 8489
decidir 8489
pendientes 8489
Ligas 8488
Port 8487
señal@@ 8487
mantenerse 8486
opuso 8483
establecimientos 8481
AD 8480
CN@@ 8480
ensos 8480
consulta 8479
submarino 8479
nacionalistas 8478
traslada 8477
estrategias 8476
males 8474
Concejo 8473
abstr@@ 8473
adolescencia 8473
amaz@@ 8473
ibilidad 8472
propici@@ 8472
suborden 8472
impulsó 8466
colocado 8465
evo 8465
Tin@@ 8464
anés 8464
yn@@ 8464
Carretera 8463
Jazz 8463
Vig@@ 8461
Boeing 8458
soport@@ 8458
Seis 8457
Academy 8456
alusión 8456
hop 8456
Charlotte 8454
ucraniano 8454
registrada 8453
Fel@@ 8452
gru@@ 8451
dispers@@ 8450
dándole 8449
1824 8448
dirigía 8447
ff 8447
externo 8446
originó 8444
1836 8443
refuerzos 8443
vera 8443
citas 8441
salt@@ 8441
tallos 8441
Regresó 8439
vein@@ 8439
Interés 8436
atletismo 8436
atacado 8435
Bau@@ 8434
Vieja 8434
mientos 8434
intermedi@@ 8430
ítica 8430
espinas 8429
territoriales 8429
socialismo 8428
añade 8427
Pasó 8426
reta 8424
Robinson 8423
recordar 8422
contienda 8421
medicamentos 8421
encant@@ 8418
Cooper 8417
Teniente 8417
adopción 8416
Manchester 8415
Renault 8414
ficha 8413
Igu@@ 8412
hero@@ 8411
algoritmo 8409
esión 8408
dedicadas 8407
autóc@@ 8406
cadáver 8406
hambre 8404
estallido 8402
aprovechando 8401
proc@@ 8401
cm. 8400
respuestas 8397
gratuita 8396
Palmas 8394
suministros 8394
rol@@ 8392
Apolo 8391
araña 8390
candidata 8389
elia 8389
corrió 8388
Obr@@ 8387
indicó 8386
Ib@@ 8385
celebraron 8385
vial 8385
vertiente 8383
hierba 8382
dería 8378
hipo@@ 8378
anca 8377
endría 8377
nd@@ 8377
our 8375
Caja 8374
añadir 8374
iss@@ 8374
Crimea 8373
inn@@ 8369
PA 8368
villano 8367
fibra 8363
interrog@@ 8362
Albania 8361
Lengua 8361
dedos 8361
Patria 8360
Vent@@ 8358
riz 8358
Misión 8357
Sea 8357
habitan 8357
ian 8357
360 8356
maz@@ 8356
natación 8356
trop@@ 8356
memor@@ 8355
esqueleto 8354
101 8352
cerveza 8352
licenci@@ 8351
Atletismo 8350
atraer 8350
capac@@ 8350
descripciones 8350
riesgos 8349
edas 8348
cumple 8347
Invierno 8346
ui 8346
pelota 8345
cortometraje 8344
Jamaica 8343
controlado 8343
fes@@ 8343
secretaria 8342
Horacio 8341
jurídico 8341
consagr@@ 8340
engo 8340
terapia 8339
1823 8338
basílica 8337
Soledad 8336
identifica 8336
colectiva 8334
adi 8330
disputaron 8328
Bec@@ 8327
Hermanos 8327
Point 8327
abrevi@@ 8326
filogen@@ 8326
afluentes 8325
trascend@@ 8325
Chiapas 8323
huyó 8322
mencionó 8322
sueños 8321
efectivos 8320
Municipalidad 8319
giendo 8319
plaz@@ 8318
estudiosos 8317
enfer@@ 8316
limpieza 8316
ámicos 8316
12.@@ 8315
cilíndr@@ 8315
ducado 8315
cumpleaños 8314
declive 8314
asistentes 8312
Misiones 8311
ume 8311
visibles 8311
Alcalde 8309
cualidades 8309
Ambiente 8306
Caz@@ 8306
caj@@ 8305
enciales 8305
golpes 8302
Dal@@ 8301
Harrison 8300
Ot@@ 8300
Pop@@ 8300
Adi@@ 8298
cionamiento 8298
Particip@@ 8296
bebida 8296
dieciocho 8296
Crítica 8295
fanáticos 8294
perfec@@ 8294
separó 8293
1846 8291
absorb@@ 8290
apreciar 8290
dan@@ 8289
kilómetro 8288
residuos 8287
grab@@ 8286
Alemana 8284
Profes@@ 8284
pobl@@ 8284
alcaldía 8283
mencionados 8283
abandonaron 8281
dis 8281
1837 8280
1839 8278
compet@@ 8278
ses@@ 8277
HMS 8275
consejos 8275
pidiendo 8275
ífica 8275
despr@@ 8274
conservar 8273
pa@@ 8272
Lucio 8271
normales 8271
sm@@ 8271
Fo@@ 8269
examin@@ 8269
érico 8269
acomod@@ 8268
egres@@ 8267
conson@@ 8266
respectivas 8266
rse 8266
expresar 8264
madrugada 8264
educativos 8262
innovación 8261
mixtas 8259
vanguardia 8258
criticó 8257
minim@@ 8256
clero 8255
crónicas 8255
rodea 8255
uti@@ 8254
Democracia 8253
cantera 8253
enio 8253
mortalidad 8252
vuel@@ 8252
Constituyente 8250
Neg@@ 8249
distancias 8249
optó 8249
ocur@@ 8248
agudo 8247
ferrocarriles 8246
fría 8246
Ric@@ 8245
gobernantes 8244
cumplió 8242
hidrául@@ 8242
Java 8241
Kin@@ 8241
Ópera 8241
administrativas 8240
brinda 8240
húmedos 8240
ats 8239
ómico 8239
cabina 8238
Usos 8237
quebr@@ 8236
Alabama 8235
Etiopía 8234
rechazado 8234
manchas 8233
rehabilitación 8233
llevados 8231
mansión 8231
marinas 8231
Chu@@ 8228
Maurice 8228
Way 8228
much@@ 8226
estrenado 8223
femeninas 8223
bau@@ 8222
Iber@@ 8221
infante 8221
numer@@ 8221
usaban 8221
Bad@@ 8220
Ejemplos 8220
Philip 8220
UFC 8220
centró 8220
actas 8218
definió 8218
pescado 8217
CC@@ 8215
Gary 8215
actúan 8215
ys@@ 8215
comerciante 8214
Señ@@ 8213
liberar 8213
distr@@ 8212
incorporado 8211
salen 8211
iri 8210
antas 8209
tina 8207
traición 8205
iar 8204
recibir@@ 8204
sentía 8204
botánica 8203
procur@@ 8202
Steven 8201
mortal 8201
Empezó 8200
Salinas 8200
servido 8200
Cy@@ 8198
oce@@ 8198
Cerca 8197
Play 8196
Nan@@ 8195
estadísticas 8194
aprob@@ 8193
bas 8193
habló 8193
house 8192
precipitación 8192
encabezado 8191
arroyos 8190
establecidos 8190
exclusivo 8190
isto 8189
misterio 8188
resultante 8188
RI@@ 8187
formul@@ 8185
ectivo 8183
manifestantes 8183
sex@@ 8180
observado 8179
Jerez 8178
Prec@@ 8177
distribuidos 8177
garr@@ 8177
convenciones 8176
Malta 8175
System 8175
cambiaron 8175
obtención 8173
religiones 8173
Fur@@ 8172
Palencia 8171
controlada 8171
solic@@ 8171
virtu@@ 8171
eficacia 8169
fragment@@ 8168
peri@@ 8168
Riv@@ 8167
enseñanzas 8167
model@@ 8167
bibliotecas 8165
huevo 8162
viaj@@ 8162
baterías 8161
pale@@ 8161
Magallanes 8160
NBC 8157
adquirida 8157
Cecilia 8156
activas 8156
eñ@@ 8154
penas 8154
Herr@@ 8153
Homer 8153
Montenegro 8153
gast@@ 8153
intersección 8153
tax@@ 8153
della 8149
blues 8148
licenciado 8147
colapso 8146
Down 8145
permanencia 8145
Ef@@ 8143
eur@@ 8143
pabellón 8143
regente 8143
suel@@ 8142
desesper@@ 8141
m. 8141
perif@@ 8138
patente 8137
Alvarado 8136
segmentos 8136
ž@@ 8135
exceso 8134
Armas 8133
colaboraciones 8133
Consider@@ 8132
Stanley 8131
caracterizado 8131
antic@@ 8129
celebraciones 8129
croata 8129
ique 8129
adoptar 8128
Ep@@ 8126
residente 8125
ivamente 8124
plana 8124
uk 8124
1844 8122
nutr@@ 8122
visu@@ 8122
cir 8120
romántica 8118
Micro@@ 8116
ganancias 8116
Gig@@ 8113
gall@@ 8113
Andr@@ 8111
Ton@@ 8111
utas 8111
1815 8110
segura 8108
revolucionarios 8107
tel 8107
tragedia 8107
enderse 8106
ritual 8106
alba 8105
criticado 8104
arles 8103
cesión 8103
lor@@ 8103
norteamericano 8103
omor@@ 8103
Matías 8102
apo 8102
asum@@ 8102
congregación 8102
ponerse 8102
rebelde 8102
Ning@@ 8101
erla 8101
ix 8101
univers@@ 8100
apoder@@ 8099
sustituyó 8098
Ed 8097
Log@@ 8097
ater@@ 8096
enzima 8096
formados 8096
capitales 8095
corporal 8095
ome 8095
salvaje 8095
despedido 8094
soberano 8093
dedic@@ 8090
Círculo 8088
pasaje 8088
inda 8087
lector 8087
vice@@ 8087
eces 8086
gusta 8084
Superman 8083
clásicas 8083
esperando 8083
Crisis 8082
hiciera 8082
pó@@ 8082
Say@@ 8081
yan 8081
áneamente 8081
Metropolitano 8080
ensi@@ 8080
hip 8080
sud@@ 8080
ítico 8078
buscan 8077
terroristas 8077
vención 8075
circuitos 8074
disturbios 8073
Palmarés 8072
Patricia 8069
linaje 8069
presiones 8069
asociadas 8068
eal 8068
ómicos 8066
Giuseppe 8064
encabezada 8064
nacion@@ 8064
Garden 8062
prevenir 8062
simul@@ 8062
encabez@@ 8061
aclam@@ 8060
vill@@ 8059
cajas 8057
OTAN 8055
destruyó 8055
aproximación 8054
enviada 8054
reflej@@ 8054
ríg@@ 8054
Germán 8053
afectada 8052
geográficas 8051
evidencias 8050
750 8049
eni 8049
encarcelado 8048
Iron 8047
Ministros 8044
balón 8044
cionada 8044
llamaron 8044
2.000 8043
Murray 8043
Perry 8043
numér@@ 8041
televisivo 8041
transportar 8041
Memorial 8040
Fron@@ 8039
ocult@@ 8039
uga 8038
masivo 8037
polin@@ 8034
iniciativas 8033
ush@@ 8032
Már@@ 8031
acontecimiento 8031
desvi@@ 8031
Triple 8030
entrando 8030
haci@@ 8030
cintas 8029
ham 8029
ocu@@ 8028
Sudamericano 8027
adyacentes 8026
alada 8026
tronco 8025
maya 8024
serbio 8024
Ast@@ 8022
ity 8022
sinónimo 8022
usaron 8022
accidentes 8021
duplic@@ 8020
imperi@@ 8020
álogo 8019
Ry@@ 8018
UNAM 8018
deberá 8017
dramaturgo 8017
marítimo 8017
Huesca 8016
reivindic@@ 8016
cuevas 8015
ecuaciones 8015
desencaden@@ 8014
influyente 8014
astrónomo 8013
Huelva 8012
vínculo 8011
correcta 8010
holandés 8010
abogados 8007
roles 8006
temor 8005
iera 8004
ácidos 8004
Generalmente 8003
UC@@ 8003
eclesiástica 8003
rojas 8002
ath 8001
generado 8001
Ce@@ 8000
alina 8000
feder@@ 7999
permanecieron 7999
vend@@ 7999
Fuerte 7998
Seattle 7998
toc@@ 7998
tre@@ 7996
Eng@@ 7995
áticamente 7993
comisiones 7992
levantar 7992
prohibido 7992
Gerardo 7991
minería 7991
Doc@@ 7990
imi@@ 7990
Domínguez 7989
Emplea 7988
submarinos 7988
yer@@ 7987
I.@@ 7986
visuales 7986
viviente 7985
War 7984
salsa 7984
combina 7982
laderas 7981
pensaba 7981
trasladaron 7981
ash 7980
orías 7980
capturados 7979
icon@@ 7979
Moon 7978
Chaco 7977
conect@@ 7977
demol@@ 7976
utos 7976
Figueroa 7975
puro 7975
Great 7974
TE@@ 7973
llegaba 7972
1811 7971
aque 7970
conven@@ 7970
cometi@@ 7969
titu@@ 7969
cruza 7968
1838 7967
Madison 7967
participaciones 7966
Jay 7965
Valdivia 7965
Graham 7963
Qui@@ 7961
ig 7960
basó 7958
cher@@ 7958
Quintana 7957
derrotaron 7957
nec@@ 7955
protestantes 7955
ancias 7954
cercanía 7954
diplom@@ 7954
hir@@ 7954
amba 7953
All@@ 7952
Generalidad 7950
Docum@@ 7948
petrol@@ 7948
Bac@@ 7946
Internacionales 7945
frescos 7945
Quir@@ 7944
Town 7944
elec@@ 7944
icismo 7944
Gro@@ 7943
constru@@ 7943
ovich 7943
Eurocopa 7942
demandas 7942
dom@@ 7941
hockey 7939
Callao 7938
combatientes 7938
ington 7937
contaban 7936
sis 7936
Llan@@ 7934
New@@ 7934
Š@@ 7934
nido 7932
concursos 7931
enormes 7929
amo@@ 7928
legi@@ 7928
Trump 7927
cama 7927
ille 7926
pozo 7925
consiguiente 7922
ses 7922
deport@@ 7920
Congregación 7919
automáticamente 7919
criterio 7919
mirada 7919
Kaz@@ 7918
Uso 7918
ack 7918
adera 7918
Mich@@ 7917
comunica 7917
Hil@@ 7916
What 7916
escocés 7916
Aten@@ 7915
cuid@@ 7914
ciclos 7913
Ash@@ 7912
Catal@@ 7909
Flandes 7908
ting 7906
incendi@@ 7904
transmisiones 7903
venir 7902
Ind@@ 7901
metal@@ 7901
deseos 7900
Valdés 7899
Arequipa 7897
Kent 7897
honores 7897
piernas 7897
Tul@@ 7896
umo 7896
guarda 7893
responder 7893
1200 7890
rí@@ 7890
Cost@@ 7888
MI@@ 7888
Nag@@ 7888
eau 7888
Parti@@ 7887
Thompson 7887
agencias 7887
Ronda 7886
capillas 7885
imb@@ 7885
masculinos 7885
ubicó 7884
vínculos 7884
Mant@@ 7883
aéreas 7880
desea 7880
Buc@@ 7879
IA 7879
remat@@ 7879
televis@@ 7879
Higgins 7877
culminó 7876
volante 7876
Hay@@ 7875
Tennessee 7875
producidas 7875
antecedentes 7874
mica 7874
trayecto 7874
Sinfónica 7873
creciendo 7873
radial 7873
sufragio 7873
bro@@ 7871
ner@@ 7871
malos 7869
obed@@ 7869
geometría 7868
Heart 7867
Nicolas 7865
Políticas 7865
1841 7862
modificado 7862
rendición 7862
testamento 7861
sed@@ 7860
embre 7859
suceso 7859
Vila 7858
ordena 7858
escolares 7857
Ibn 7856
bala 7856
vivido 7856
CIA 7855
ambientes 7854
artísticos 7854
poética 7854
caracterizan 7853
liderada 7853
analiz@@ 7852
remodel@@ 7852
Tap@@ 7850
sos 7849
EN@@ 7848
ideales 7848
ko@@ 7847
fum@@ 7845
noruego 7845
Diez 7844
Rep@@ 7844
Atlas 7843
Fiat 7841
cano 7841
afirmación 7840
Toda 7838
intenciones 7837
sentir 7837
disolvió 7834
Darío 7831
choque 7831
ír@@ 7831
Clinton 7830
Pardo 7830
detuvo 7830
precis@@ 7829
declin@@ 7828
Facebook 7827
dialecto 7826
patrocinio 7825
avo 7824
afectó 7823
arbustos 7823
Campbell 7821
lante 7820
monumental 7820
1822 7819
€ 7818
ender 7817
ist 7817
usieron 7817
redact@@ 7816
fabricado 7815
Bag@@ 7814
intervino 7814
rituales 7814
átomos 7814
Science 7813
zi@@ 7813
equipado 7812
determina 7810
Patricio 7809
opo 7809
tallo 7809
ógicas 7809
entaba 7806
incapaz 7806
ascender 7805
computadoras 7805
barro 7804
Cand@@ 7803
Television 7803
ass@@ 7803
desper@@ 7801
opsis 7801
promocional 7801
Bosque 7800
transmite 7799
Tienen 7797
espaciales 7796
Studio 7794
Orange 7793
enfermo 7793
facción 7793
reconocidas 7793
Penal 7792
internacionalmente 7792
ántico 7791
ópodos 7790
Division 7789
aj 7789
interesado 7789
Arri@@ 7788
Vivienda 7788
conspir@@ 7788
estudiantil 7788
alegando 7787
literarios 7787
mariscal 7787
agü@@ 7786
cari@@ 7786
merc@@ 7786
Presenta 7785
aina 7785
confluencia 7785
disparar 7785
Kenia 7784
legislativas 7784
Lugares 7782
polacos 7782
DS 7780
Seúl 7779
influyentes 7779
arización 7778
describen 7778
homosexuales 7778
telef@@ 7778
ebr@@ 7777
turno 7777
extinto 7774
cuál 7773
dorada 7773
ingredientes 7771
Margaret 7770
barrera 7769
árbitro 7769
Fray 7768
conquistó 7768
marciales 7767
logran 7766
tas@@ 7766
Ian 7765
donó 7765
Oklahoma 7764
afición 7764
detectar 7763
traer 7763
Comp@@ 7762
Win@@ 7762
anfitrión 7762
trom@@ 7762
Card@@ 7761
Edgar 7760
Dublín 7759
Pacheco 7759
agon@@ 7759
zón 7759
hoteles 7758
entistas 7757
guardias 7756
romanas 7756
sun@@ 7755
temporales 7752
inusual 7751
eman 7750
militante 7750
desambiguacion 7749
informática 7749
ision@@ 7748
privilegios 7748
vocación 7748
Nunca 7746
lumin@@ 7745
Educ@@ 7743
aporte 7743
Hudson 7742
Testamento 7742
shows 7740
TVE 7739
Arg@@ 7737
Turner 7737
dividen 7737
tej@@ 7737
Fen@@ 7736
Av. 7735
figuran 7735
onom@@ 7735
sé@@ 7735
1843 7734
circunscripción 7734
permanentes 7734
vi 7734
tempr@@ 7733
ap 7732
Situación 7731
remodelación 7731
toque 7729
áceo 7729
relativo 7727
preparado 7726
estere@@ 7725
graduarse 7724
pistola 7724
anales 7723
colegas 7723
convierten 7722
favorito 7722
descubrieron 7721
Noche 7719
exjugador 7719
parlamentaria 7719
Mexicano 7718
ingen 7718
labr@@ 7718
saliendo 7718
Jerry 7716
materna 7715
organizados 7715
prominente 7714
Eli@@ 7713
falso 7713
formatos 7713
gallego 7712
pí@@ 7712
incursiones 7711
innov@@ 7711
muebles 7711
Bach@@ 7710
anuncios 7710
climático 7710
fiebre 7708
Asi@@ 7707
Cárdenas 7707
vasco 7707
Stalin 7706
grafo 7706
designar 7705
emocional 7705
autom@@ 7703
embaj@@ 7702
vag@@ 7701
Ech@@ 7700
desconocida 7700
divididos 7700
chilenos 7699
analizar 7698
Goya 7697
estará 7697
Ribera 7696
Stewart 7696
iniciada 7695
uz 7695
Chal@@ 7694
doña 7694
picos 7694
Natación 7691
cubana 7691
medievales 7691
ensa 7690
ll@@ 7690
quisi@@ 7690
rana 7689
Prensa 7687
agradable 7686
ím@@ 7686
hongos 7685
interrump@@ 7684
Jos@@ 7683
Sudán 7683
abiertamente 7683
dragón 7680
espejo 7680
continúan 7679
nacionalismo 7679
Vincent 7676
Shi@@ 7673
tos@@ 7673
kur@@ 7672
acondi@@ 7670
DA 7669
falla 7669
fom@@ 7669
alimenta 7668
jus@@ 7668
orias 7667
ulas 7667
guitarras 7665
chu@@ 7664
Madagascar 7663
embarazo 7663
promesa 7663
directos 7662
igi@@ 7662
márgenes 7662
puntas 7662
abog@@ 7661
conversación 7661
EA 7660
agan 7660
cancel@@ 7659
vet@@ 7659
CE 7658
Sw@@ 7658
discurre 7658
intentando 7658
dispuestos 7657
constancia 7656
convencionales 7656
unci@@ 7656
dram@@ 7655
Económica 7653
Terry 7653
satélites 7653
cón 7652
estén 7652
tour 7652
Gerona 7650
Porto 7650
critos 7649
Carab@@ 7648
Gam@@ 7648
Oli@@ 7648
estan@@ 7648
nucle@@ 7648
dro@@ 7647
naturalista 7647
Opera 7645
Sat@@ 7645
combati@@ 7645
enfermos 7644
estableciendo 7644
predecesor 7644
bos 7643
presidido 7643
cavidad 7641
Republicano 7640
perfecta 7640
Fama 7639
garganta 7639
ies 7639
misioneros 7639
tarios 7639
escape 7637
acopl@@ 7636
disposiciones 7636
1808 7635
alimentan 7635
distin@@ 7635
juegan 7630
105 7629
quil@@ 7628
feudo 7627
Libia 7626
adel@@ 7626
devoción 7626
pasaría 7626
pétalos 7625
estimado 7624
1813 7623
gon@@ 7623
Cé@@ 7622
foto 7622
mezquita 7622
Menor 7621
ence 7621
turca 7620
Sho@@ 7619
Tot@@ 7619
colaborado 7619
determinadas 7618
azados 7617
Ludwig 7616
Saboya 7616
budismo 7616
embarcaciones 7616
Melbourne 7615
tripul@@ 7615
Declaración 7614
flamenco 7614
alqu@@ 7612
supervivientes 7612
Ediciones 7609
Maryland 7609
ann@@ 7609
inund@@ 7609
Stadium 7608
falsa 7608
ril 7607
Alejandría 7606
estuviera 7606
testimonios 7606
Ár@@ 7606
Shakespeare 7605
león 7605
norte@@ 7605
presentadora 7604
astro 7603
abandonada 7601
ceremonias 7601
nam@@ 7597
Designado 7596
equipamiento 7595
tea 7595
piratas 7594
Vidal 7593
estudiado 7593
investigadora 7592
ken 7592
ofr@@ 7591
Castellón 7589
anal 7589
ier@@ 7589
baños 7587
Arkansas 7586
Quinta 7585
finalización 7585
representados 7585
Pér@@ 7584
serio 7584
ortodoxa 7583
Márquez 7582
posguerra 7582
ámbitos 7582
Jefferson 7581
angu@@ 7581
pict@@ 7579
suponía 7579
trastorno 7579
electro@@ 7578
lideró 7578
pierna 7578
úes 7578
cuero 7577
cuer@@ 7576
obligación 7576
Joven 7575
Eddie 7573
previos 7573
ículo 7573
norteamericana 7572
dejan 7571
olo@@ 7571
Phoenix 7569
manifestó 7569
afr@@ 7568
agricultores 7568
soy 7568
estalló 7566
segreg@@ 7566
Vive 7565
Continental 7563
reparación 7563
IT@@ 7562
Vista 7562
daban 7561
meg@@ 7561
prohibió 7561
activación 7560
residencial 7560
Brothers 7559
centrado 7559
gay 7559
topónimo 7559
acusados 7558
practicar 7558
tardío 7558
Cron@@ 7555
sugerido 7555
Cleveland 7553
ech 7553
podio 7553
Gü@@ 7552
embarazada 7552
Baby 7551
Pru@@ 7548
divin@@ 7547
acr@@ 7546
costado 7546
divorcio 7546
LE@@ 7544
Mass@@ 7544
suiza 7544
sustituir 7544
paro 7543
exili@@ 7542
Entren@@ 7537
salario 7537
recorr@@ 7536
Dylan 7535
rog@@ 7533
terminada 7533
concedido 7532
aplast@@ 7531
Death 7529
Formó 7528
espont@@ 7528
teorema 7528
condesa 7527
oco 7526
ome@@ 7526
terrorismo 7525
curr@@ 7524
icion@@ 7523
recopilatorio 7523
van@@ 7523
cometido 7522
sobrevivientes 7522
turística 7522
Cár@@ 7521
Hip@@ 7521
Mix@@ 7521
Van@@ 7520
diseñar 7520
vendidas 7520
visig@@ 7520
herman@@ 7518
ū@@ 7518
inero 7517
Espíritu 7516
accesible 7516
eti 7516
soportar 7516
use 7516
11@@ 7515
Consul@@ 7515
Copenhague 7515
Honda 7514
cun@@ 7511
radar 7511
colg@@ 7510
encarcel@@ 7510
compitieron 7505
eng 7503
especímenes 7503
influenciado 7503
Kil@@ 7502
RO@@ 7501
Ty@@ 7501
decadencia 7501
MO@@ 7500
anillos 7499
sellos 7498
mó 7497
seguros 7497
Guy 7496
mandos 7496
coreano 7495
secuestro 7495
triángulo 7495
N.@@ 7494
sindicatos 7493
hábitats 7492
Có@@ 7491
Sky 7490
Abierto 7487
Flota 7487
superfamilia 7487
tación 7487
NE@@ 7486
arrend@@ 7485
Chic@@ 7484
Lérida 7484
dría 7484
ró@@ 7482
Haití 7481
mang@@ 7481
semestre 7481
rodean 7480
dedi@@ 7479
exhib@@ 7478
compl@@ 7476
Challenger 7473
ticul@@ 7473
Bibliografía 7472
panel 7472
reflexión 7471
Local 7470
asio 7469
choc@@ 7469
respirat@@ 7469
observó 7468
sudoeste 7467
unc@@ 7466
debut@@ 7465
tesoro 7465
cerdo 7464
Terr@@ 7463
leon@@ 7463
1600 7462
llevaría 7460
fundadora 7458
itis 7458
ius 7458
proximidad 7458
Ferrocarriles 7457
Nombre 7455
populariz@@ 7453
protagoniz@@ 7453
Siguiendo 7452
emplazamiento 7452
inmediaciones 7452
templado 7452
ópico 7451
more 7450
Onthophagus 7449
olímpica 7449
sometido 7449
yo@@ 7449
afirmar 7448
reforzar 7448
malas 7447
invitó 7445
sobrevivió 7445
Cau@@ 7444
Ducado 7444
alis@@ 7444
habitada 7442
lazos 7442
paralela 7442
Especi@@ 7441
Tipo 7441
elíp@@ 7441
algas 7439
semi 7439
empleada 7438
hablantes 7437
realizarse 7437
Maldonado 7436
concurr@@ 7436
dueños 7436
limitaciones 7436
ós@@ 7436
plomo 7435
cum@@ 7434
nocturno 7434
amenazada 7433
miniserie 7433
1826 7432
Utah 7432
estructural 7432
ary 7431
Baleares 7430
Tecn@@ 7430
Gimnasia 7429
octavos 7429
Bush 7428
aparatos 7428
dí@@ 7428
hablando 7427
incen@@ 7427
ow@@ 7427
cines 7426
Cook 7424
Ferrari 7424
ium 7419
M.@@ 7418
Cartago 7417
israelíes 7417
denominaciones 7415
cultivar 7414
Cent@@ 7413
asistieron 7413
alí 7412
bebidas 7410
carr@@ 7409
entina 7408
claves 7407
moción 7407
opat@@ 7407
Influ@@ 7405
Orden@@ 7405
polar@@ 7404
jerarquía 7403
mó@@ 7402
pit@@ 7402
parec@@ 7401
As 7400
permanecen 7400
sú@@ 7400
Sz@@ 7399
hubiese 7399
Pacto 7397
crean 7397
Ferrer 7395
busc@@ 7395
5.000 7393
roso 7393
fren@@ 7392
pura 7392
distribuido 7391
amin@@ 7390
serpiente 7390
Od@@ 7389
métr@@ 7389
eó 7386
franc@@ 7386
bí@@ 7385
especul@@ 7385
diéndose 7384
Conservación 7382
onada 7381
ock 7380
pesados 7380
tará 7380
Ann 7377
impon@@ 7377
onios 7377
jam@@ 7375
Claudia 7374
Mom@@ 7374
hábitos 7374
lienzo 7374
Bach 7373
enberg 7373
gados 7373
35@@ 7372
macizo 7372
milicias 7372
ásticos 7372
penit@@ 7371
Pan 7370
india 7370
pastor 7369
revesti@@ 7369
Budapest 7368
aéreos 7368
resid@@ 7368
economista 7367
protag@@ 7367
otti 7366
Jesucristo 7364
Júpiter 7363
Construcción 7362
USS 7362
afect@@ 7361
griegas 7360
pec 7360
ajus@@ 7359
eliminados 7358
way 7357
Apr@@ 7356
logro 7356
Norman 7355
Pepe 7355
explorar 7354
raci@@ 7354
tio 7353
Análisis 7351
sucesivamente 7351
toras 7351
acabado 7350
cedi@@ 7349
cohete 7349
polit@@ 7349
eliminó 7348
ecuatoriano 7347
Nancy 7346
oda 7346
refieren 7346
Ky@@ 7345
ayos 7345
Def@@ 7344
incidentes 7344
chan 7343
eiro 7343
pesc@@ 7342
trasladarse 7342
pintado 7341
enfrentan 7338
filmes 7338
cayeron 7337
fraude 7337
Cueva 7336
custodia 7336
insignia 7336
simbol@@ 7335
Gav@@ 7334
arresto 7334
supuesta 7334
trastornos 7334
Mónica 7333
avanzado 7333
derivada 7333
esquí 7332
ino@@ 7332
especializados 7331
Vitoria 7330
carece 7329
Tabasco 7328
relaciona 7328
Hem@@ 7327
egipcio 7327
entando 7327
bias 7326
citada 7326
escudos 7326
estratég@@ 7326
Luisiana 7325
castillos 7325
aut 7324
bailarina 7324
tut@@ 7323
Evans 7322
Gestión 7322
desliz@@ 7322
narración 7322
actualización 7321
conveniente 7321
emo 7321
Aviación 7320
aborto 7320
Det@@ 7319
Ontario 7319
vik@@ 7319
armonía 7318
card@@ 7318
aduras 7317
cer 7317
anías 7316
manifest@@ 7316
Juego 7315
Gilbert 7314
Sound 7313
cartel 7313
Pereira 7311
Angola 7310
Morelos 7310
autoriz@@ 7310
provocado 7310
sar 7310
transmitida 7310
intérpretes 7309
rez 7309
venido 7309
disfrutar 7308
traspasado 7308
Inteligencia 7306
Urban@@ 7306
Vaticano 7306
Inmaculada 7305
brillantes 7305
cac@@ 7303
invern@@ 7303
subió 7303
Pac@@ 7302
bulo 7302
Estilo 7301
delegados 7300
ballet 7299
cogni@@ 7299
consagró 7297
pedag@@ 7297
tubos 7297
Comando 7296
Sucre 7296
rit@@ 7296
ald@@ 7295
antrop@@ 7295
escuadrón 7295
particip@@ 7295
Estrada 7294
air@@ 7294
abastecimiento 7293
jueves 7293
proyec@@ 7292
Songs 7291
billetes 7291
hará 7291
atum 7290
aa 7289
Delta 7288
diputada 7288
vivieron 7288
ribera 7285
sanguí@@ 7285
perf@@ 7284
ī@@ 7284
Kate 7283
acogida 7283
pi 7283
amar 7282
turísticos 7282
Foro 7279
utilizaban 7279
escaleras 7278
fis@@ 7278
femeninos 7277
ocup@@ 7276
descubr@@ 7275
gastronomía 7275
seguían 7275
parientes 7274
perdida 7274
retroc@@ 7274
ógicos 7274
Express 7273
Jacobo 7273
estudia 7273
preguntó 7273
administrativos 7272
ancio 7272
sirvi@@ 7270
lee 7269
sostienen 7269
Last 7267
óptica 7267
PO@@ 7265
docencia 7265
frecuencias 7265
novena 7265
Bran@@ 7264
activistas 7263
1829 7262
Cabildo 7262
aprovechar 7262
económicamente 7260
ops 7260
fono 7259
palo 7258
Manz@@ 7257
sober@@ 7257
iny@@ 7256
gén@@ 7254
lesion@@ 7254
stas 7254
Latino@@ 7253
atender 7252
lobo 7252
imas 7251
Art@@ 7250
armadura 7250
Calvo 7249
acústica 7249
resp@@ 7249
siti@@ 7249
retiraron 7248
alien@@ 7246
Conse@@ 7245
Chart 7244
ados@@ 7244
escul@@ 7244
BC 7243
apartamento 7243
entran 7242
inten@@ 7242
adilla 7241
dam@@ 7241
200@@ 7239
Rumanía 7238
plantaciones 7238
Fred 7237
dictador 7237
leve 7236
prevención 7236
radiof@@ 7236
causada 7235
Catalunya 7233
disciplin@@ 7233
Fot@@ 7232
IP 7230
Judicial 7230
sinf@@ 7230
bec@@ 7229
diaria 7229
ásica 7229
Cen@@ 7227
correcto 7227
ció 7226
gobernó 7225
empez@@ 7223
laborales 7223
reflexi@@ 7223
jurí@@ 7221
Cairo 7220
Fig@@ 7219
gicas 7219
Circuito 7218
barras 7217
Ces@@ 7214
ligado 7214
riego 7214
valenciano 7214
semanal 7213
13.@@ 7212
funeral 7211
primarios 7211
yan@@ 7211
CC 7210
agrupaciones 7210
Checoslovaquia 7209
azas 7208
desemboca 7208
distribuida 7208
1831 7207
Guipúzcoa 7207
ofrecía 7207
conectado 7204
AG 7203
acuar@@ 7203
cineasta 7203
fres@@ 7203
veneci@@ 7203
Sacro 7201
codice 7200
manten@@ 7200
sacrificio 7200
14.@@ 7199
Loira 7199
fabricar 7198
matando 7198
desafío 7197
Au@@ 7195
escaso 7195
áneos 7194
otomanos 7193
Américas 7192
hardware 7192
inaugural 7192
provienen 7192
teórico 7192
anotando 7190
County 7189
Lon@@ 7186
rante 7186
Béisbol 7185
Botánico 7184
Laboratorio 7182
príncipes 7182
Kom@@ 7181
acompaña 7180
experimentó 7180
Marx 7179
Sud@@ 7179
mentación 7179
empiezan 7178
Elías 7177
Resistencia 7177
USD 7176
Empresa 7174
apres@@ 7171
uni 7171
Leonor 7170
costeras 7170
Ernst 7169
opositores 7169
Sitio 7168
n. 7168
nit@@ 7168
aprendi@@ 7167
franqu@@ 7167
tabaco 7167
bier@@ 7165
nacidos 7165
1828 7163
Adolf 7163
Reich 7163
balonmano 7163
450 7161
bombarde@@ 7161
cálido 7161
episcopal 7161
olor 7161
concluir 7160
señalado 7160
destinadas 7159
mono@@ 7156
folcl@@ 7155
rumano 7155
Pant@@ 7154
Sex@@ 7154
oponente 7152
Latin 7151
MS 7151
vueltas 7150
francos 7149
homosexualidad 7149
uncia 7149
urbanización 7147
enseñar 7146
constelación 7145
Tales 7144
Danny 7143
Viña 7139
LGBT 7138
progresivo 7137
Port@@ 7136
cuencas 7136
mediano 7136
alcal@@ 7132
egr@@ 7131
lagunas 7131
mixto 7131
Morris 7130
mani@@ 7130
sell@@ 7128
mánager 7127
diecisiete 7123
cher 7122
mortales 7121
denominadas 7120
modificar 7120
Huracán 7119
ON@@ 7119
dé@@ 7119
ocupan 7119
seri@@ 7118
reelección 7117
1832 7116
Bond 7115
Naturales 7115
Georg 7114
terci@@ 7114
excepcional 7113
grabaron 7112
its 7112
artificiales 7111
idencia 7111
Cuer@@ 7110
Herbert 7110
cristianas 7110
helicóptero 7110
nombra 7109
servía 7108
Musical 7107
emplear 7106
comprob@@ 7105
ds 7105
preservar 7105
otom@@ 7104
restante 7104
terminales 7103
cosecha 7102
marc@@ 7102
protestante 7102
futbol@@ 7101
continuamente 7100
inia 7100
P.@@ 7098
CO 7097
Ober@@ 7097
Viol@@ 7096
correctamente 7096
Génova 7095
gala 7093
mecánico 7093
agregado 7092
compartido 7091
nacieron 7091
ífero 7091
1º 7090
Humberto 7090
libreto 7090
meras 7090
afili@@ 7089
secundarias 7088
alizando 7086
atrajo 7086
dez 7085
He 7084
è@@ 7084
Bobby 7082
forestal 7082
maquinaria 7082
obligada 7081
etto 7080
galerías 7079
fruta 7078
MC 7077
festividad 7077
financieras 7077
meridi@@ 7077
nieta 7076
rap 7076
hermosa 7075
debutar 7074
Bundesliga 7072
Research 7071
controles 7071
negativos 7070
gigantes 7069
Bielorrusia 7068
deseaba 7068
negociar 7068
curv@@ 7067
implant@@ 7065
recibida 7065
ulan 7065
2º 7064
Baker 7064
Kentucky 7064
Quer@@ 7063
emisoras 7063
inidad 7060
previas 7060
aco@@ 7057
apodado 7055
ángel 7055
Matrimonio 7054
Wagner 7054
desc@@ 7053
edora 7053
islam 7052
módulo 7052
ocar@@ 7052
secretos 7052
cár@@ 7051
sitúan 7051
atista 7048
proporcionan 7048
Zel@@ 7047
Boc@@ 7046
hr@@ 7046
Japan 7045
creadas 7044
mé@@ 7043
próximas 7042
cubiertos 7041
Doña 7039
Santísima 7039
infer@@ 7039
llor@@ 7039
sostenible 7039
Pens@@ 7038
instalaron 7038
Ibáñez 7037
Personajes 7036
fluvial 7036
regresaron 7035
00@@ 7033
umen 7033
Xbox 7032
completado 7032
disponía 7031
Ant@@ 7030
Peso 7030
mueve 7030
panorama 7030
reas 7030
recoger 7030
Sid@@ 7029
NO@@ 7027
nado 7027
zano 7027
comis@@ 7026
For 7024
instalar 7024
aristas 7023
convencer 7023
efectivamente 7023
involucrados 7023
despe@@ 7021
italianas 7021
taquilla 7021
teléfonos 7021
Dun@@ 7020
iria 7018
That 7017
madurez 7017
primitiva 7017
Light 7016
hallan 7016
Nebraska 7015
coros 7015
farmacéu@@ 7015
usarse 7014
Supercopa 7013
aud 7013
egui 7013
bri@@ 7011
iller 7011
releg@@ 7011
alado 7009
Ma 7008
plenamente 7008
Baj@@ 7005
Michelle 7005
Post@@ 7005
fomentar 7005
intermedio 7005
ð@@ 7003
Netflix 7002
unida 7002
defensiva 7001
ándoles 7001
Rum@@ 7000
empl@@ 7000
Palermo 6999
Warren 6999
expuesto 6999
Salas 6998
grec@@ 6998
oterapia 6997
concedi@@ 6995
Muhammad 6994
dedores 6994
evaluar 6994
experimentado 6994
Zúrich 6993
licenció 6992
zam@@ 6992
solían 6991
Gold 6990
navío 6990
dijeron 6989
An 6988
absorción 6988
tillas 6987
irlandesa 6986
yi 6986
volviendo 6985
Noroeste 6984
inhib@@ 6983
intentan 6983
traducciones 6983
Vancouver 6981
Legado 6980
avos 6978
s.@@ 6978
orros 6977
Transportes 6976
satisfac@@ 6976
Rap@@ 6975
caría 6975
expone 6975
lido 6975
Deporte 6974
observatorio 6974
clasificaciones 6973
congreg@@ 6973
aniz@@ 6972
lera 6971
cursó 6970
introduce 6968
novelista 6967
refriger@@ 6967
Masters 6966
estad@@ 6965
potenci@@ 6965
escen@@ 6963
First 6962
explí@@ 6962
ángeles 6962
automática 6961
intervenciones 6961
valid@@ 6961
automático 6959
senadores 6958
Contiene 6957
Guido 6957
Helena 6957
Buprestidae 6955
fest@@ 6953
Cuar@@ 6952
canciller 6952
neum@@ 6952
Ciclismo 6951
Kurt 6950
Altos 6949
Ví@@ 6949
ferencia 6949
Back 6948
Neil 6948
him@@ 6948
Adicionalmente 6947
movilidad 6947
Localización 6946
46@@ 6944
prepara 6944
irla 6941
quinteto 6941
ker@@ 6940
Aurora 6939
carn@@ 6939
precisa 6939
democrá@@ 6938
pila 6938
Belgrado 6937
imprenta 6937
libremente 6937
domicilio 6936
Compostela 6934
esco@@ 6932
primario 6932
regalo 6932
acán 6931
ecidos 6929
itiner@@ 6929
sostuvo 6929
chim@@ 6928
Pay@@ 6926
dados 6925
musulmán 6925
recordado 6925
comercialización 6923
Cooperación 6921
coincide 6921
elef@@ 6921
Fomento 6920
Tommy 6920
consideraron 6920
votantes 6920
mitos 6918
tomadas 6918
anco 6917
condenados 6917
ábside 6917
águila 6917
convirtiendo 6916
Ki@@ 6915
gencias 6915
entrenar 6914
Brun@@ 6913
fortal@@ 6913
oth@@ 6913
degrad@@ 6912
dibujante 6912
primitivo 6912
votar 6912
Connecticut 6911
Grace 6911
Química 6911
fino 6911
senc@@ 6911
surg@@ 6911
Phil 6909
Solar 6908
ener@@ 6908
ige 6908
F.C. 6907
donaciones 6907
finaliz@@ 6907
Rat@@ 6906
promovió 6906
Dam@@ 6905
máscara 6905
establecidas 6904
cabec@@ 6903
impl@@ 6903
instancias 6903
milenio 6902
japonesas 6900
esenciales 6899
Cientí@@ 6898
Escobar 6898
Mérito 6898
desfile 6898
ésimo 6898
Piedra 6897
Régimen 6897
camiones 6896
oph@@ 6895
abrieron 6894
só@@ 6894
funcionó 6893
X. 6892
fibras 6892
ape@@ 6890
establecerse 6890
andés 6889
envol@@ 6889
mara 6889
regidor 6889
37@@ 6888
itz@@ 6888
aumentado 6887
Arnold 6886
Ken@@ 6886
erte 6885
port 6884
detección 6883
escolta 6883
Princesa 6882
Chin@@ 6881
propuls@@ 6880
confirma 6879
deterioro 6879
mens@@ 6879
restaurar 6879
forzado 6876
protegidas 6876
andra 6874
Román 6873
Roland 6872
Palacios 6871
Generales 6869
cuándo 6869
calcular 6868
demostración 6868
Normalmente 6867
Dean 6866
entiende 6866
óticas 6866
May 6864
caliza 6864
iscos 6864
escaño 6863
oscuridad 6863
resc@@ 6863
Secre@@ 6862
promocionar 6862
rin@@ 6862
CON@@ 6860
emis@@ 6860
ectiv@@ 6858
Chir@@ 6857
quedaban 6856
úrgica 6856
nan 6855
Tu 6853
isc@@ 6853
confir@@ 6852
criminales 6852
33@@ 6851
Concurso 6850
patrona 6850
minera 6849
Arsenal 6848
textura 6848
imento 6847
lina 6847
viv@@ 6847
deudas 6846
enviaron 6846
partía 6846
sustan@@ 6846
cina 6845
pig@@ 6845
20.@@ 6844
consumidores 6844
modernización 6844
hemos 6842
mover 6842
pintó 6840
seda 6840
ues 6840
Alg@@ 6839
Lis@@ 6839
cena 6839
protagonizado 6839
Web 6838
diplomática 6837
escén@@ 6837
fiscales 6837
macro@@ 6836
Gim@@ 6835
liz@@ 6835
izquier@@ 6833
recolección 6833
significativos 6833
Dragon 6832
Véase 6831
Gall@@ 6829
Hills 6829
satisfacer 6829
Caballeros 6828
Destaca 6828
Gaspar 6828
Master 6828
Ach@@ 6827
SmackDown 6827
3.000 6826
hidrográfica 6824
old 6824
muer@@ 6823
Últimos 6823
IBM 6822
accedió 6822
ofensivo 6821
Atl@@ 6819
Eus@@ 6819
óstico 6819
ars 6818
obligaciones 6818
worth 6818
búlgaro 6817
trabajaron 6817
Like 6815
limpi@@ 6815
lot 6815
Contin@@ 6814
Sob@@ 6813
osc@@ 6813
transforma 6813
Cretácico 6811
Line 6810
ciclistas 6809
disminuir 6809
curvas 6808
deten@@ 6808
Anim@@ 6807
Story 6806
seleccionada 6806
Avenue 6805
chinas 6805
asegura 6804
diagnostic@@ 6804
Bak@@ 6803
arga 6803
campanario 6803
surgido 6801
Pico 6800
códigos 6800
lun@@ 6800
acres 6798
eciera 6798
pagos 6798
sublev@@ 6797
zor@@ 6797
extendida 6796
firmas 6796
Promoción 6795
impos@@ 6795
34@@ 6794
Segura 6793
decoraciones 6793
organizaron 6793
Larry 6791
Concacaf 6790
Arc@@ 6788
aprovechó 6788
fragmento 6788
gü@@ 6787
mej@@ 6787
God@@ 6786
Provincias 6786
dividir 6786
− 6786
Bella 6785
envío 6785
disputas 6784
poderosos 6784
Consecuencias 6783
convirti@@ 6783
cabildo 6782
ectar 6782
bach 6781
contribu@@ 6781
influenci@@ 6780
tox@@ 6780
Belén 6779
amplias 6779
cortes@@ 6779
duquesa 6779
espectador 6778
zaba 6778
Obrero 6777
procesador 6776
tillo 6774
Estatuto 6773
opl@@ 6772
36@@ 6771
ejerc@@ 6771
Salomón 6770
nervioso 6770
vir 6770
201@@ 6769
animados 6768
Hur@@ 6766
escarabajo 6766
onario 6766
18@@ 6765
solicitar 6765
cip@@ 6764
Ja@@ 6763
caracterizó 6763
adaptada 6762
étnicos 6762
Eje 6761
Escuelas 6761
astronomía 6761
Cambio 6760
Jam@@ 6760
democrática 6760
Carrillo 6758
gasolina 6758
eler@@ 6757
haga 6757
olos 6757
repos@@ 6757
CD@@ 6754
Maine 6754
lanzamientos 6753
chor@@ 6752
ritos 6752
Allende 6751
trilogía 6751
brut@@ 6748
comprado 6748
eliminatoria 6748
costarricense 6747
Lec@@ 6746
Tun@@ 6746
etiqueta 6746
federación 6746
ifica 6746
áneas 6746
granos 6744
len 6743
agrav@@ 6742
zur@@ 6742
democrático 6740
Pach@@ 6739
chin@@ 6739
preciso 6739
Amberes 6737
registrados 6737
Evolución 6736
popul@@ 6736
Newton 6735
revoc@@ 6735
autos 6734
explorador 6733
fusil 6733
Aristóteles 6732
Báltico 6732
asim@@ 6732
Tipos 6731
Bob@@ 6727
cay@@ 6726
Matthew 6725
UNESCO 6725
joyas 6725
Dim@@ 6724
precedentes 6724
Colección 6723
Sri 6722
portu@@ 6722
tortur@@ 6722
Cofradía 6719
Harold 6719
skaya 6719
racial 6718
adquir@@ 6716
instal@@ 6716
gin@@ 6715
icación 6715
She@@ 6714
Leon 6713
cresta 6713
coloniales 6710
ovi@@ 6710
3,5 6709
Localidades 6708
denominan 6708
owski 6708
percusión 6708
sas 6708
Blas 6707
ES 6705
Financi@@ 6705
Normal 6705
encontrada 6705
ga@@ 6705
negativas 6704
obia 6703
incorporar 6701
Superliga 6700
Paco 6699
frecu@@ 6699
inflación 6699
estimó 6698
Jordi 6697
relieves 6697
Eso 6696
Stars 6696
erna 6696
noc@@ 6695
complicaciones 6694
desaparec@@ 6694
Walt 6693
alza 6693
fra@@ 6693
ise 6693
lem@@ 6692
paquetes 6692
verticales 6691
viese 6691
ólicas 6690
Berg@@ 6689
Dream 6688
Civ@@ 6687
adapt@@ 6687
rej@@ 6687
rut@@ 6687
tz@@ 6686
hablado 6685
finanzas 6683
ith 6683
pesada 6681
tendrían 6681
hispano 6679
dato 6678
Sou@@ 6677
osaur@@ 6677
remontan 6677
monasterios 6676
programado 6676
rondas 6676
Lázaro 6675
acom@@ 6675
distribuyen 6674
ecosistemas 6674
guiones 6674
logo 6674
Destac@@ 6673
Force 6673
sincron@@ 6673
ska 6673
Nas@@ 6672
proporciones 6672
interacciones 6671
Sonic 6670
any 6670
Autoridad 6669
izas 6668
comicios 6667
anfibios 6665
Recientemente 6663
my 6663
ă@@ 6662
emplean 6661
futbolistas 6661
presu@@ 6661
vibr@@ 6661
Rivadavia 6660
Whit@@ 6660
emigró 6660
monje 6660
participar@@ 6659
renombre 6659
coma 6658
similitudes 6657
Building 6653
onal@@ 6653
muñ@@ 6652
Siberia 6651
claustro 6651
inge 6651
iros 6650
anglosaj@@ 6649
renombrado 6649
acumulación 6647
incursión 6647
mach@@ 6647
manifiesta 6647
vientre 6647
yc@@ 6647
Mariana 6646
muerta 6645
Perciformes 6644
Antoine 6643
Hin@@ 6643
Mic@@ 6643
Parece 6643
mia 6643
60@@ 6642
Península 6642
ilan 6642
period@@ 6642
bierta 6641
cayendo 6641
zu 6641
Zu@@ 6640
contact@@ 6640
estudiando 6640
faro 6640
herida 6640
contribuir 6639
oleta 6639
pelos 6638
envenen@@ 6636
agin@@ 6635
préstamos 6635
exces@@ 6634
finalista 6634
vena 6634
Da 6632
Ball 6631
Cáucaso 6631
convenio 6631
jubil@@ 6631
erupción 6630
nacional@@ 6630
reprim@@ 6630
ku@@ 6629
Kit@@ 6628
MP@@ 6628
Plate 6628
Ná@@ 6627
net 6627
oneta 6627
molécula 6626
AB@@ 6625
tortura 6625
1816 6624
banca 6623
da@@ 6623
subterrá@@ 6623
ARN 6622
Santi@@ 6622
arcilla 6622
leo 6622
mencion@@ 6622
Sebastian 6621
persu@@ 6621
ticidad 6620
romántico 6618
Actividades 6617
Teruel 6617
Rivas 6616
Permanente 6615
emociones 6615
acusación 6614
ère 6614
Carr@@ 6613
Horas 6613
afectadas 6613
dob@@ 6613
estil@@ 6613
fer 6613
nordeste 6613
encargados 6612
obliga 6611
simétr@@ 6611
Cerr@@ 6609
ejer@@ 6609
chasis 6608
desaparece 6608
Films 6607
futuras 6607
Ascenso 6606
centenario 6606
kan@@ 6606
otos 6606
RS 6605
Mov@@ 6604
Wood 6604
izadas 6603
Bronce 6602
atletas 6602
bano 6602
indicando 6602
éricos 6602
Cher@@ 6601
Jur@@ 6601
Maximiliano 6601
hito 6600
registra 6600
seleccionados 6600
1817 6598
aug@@ 6598
expedi@@ 6598
prosa 6597
Nú@@ 6596
Birmania 6595
intercambi@@ 6595
oamericano 6595
elogió 6594
Dante 6593
quiera 6593
tha 6593
debates 6592
dulces 6592
ápice 6592
cotidiana 6591
enl@@ 6591
criaturas 6590
itor 6590
semejante 6590
vigil@@ 6590
ø@@ 6590
consolidación 6588
finalizando 6588
inmobili@@ 6588
chil@@ 6587
grano 6587
trabajador 6587
Duero 6586
cortar 6586
cach@@ 6585
avanzó 6584
J.@@ 6582
dale 6581
Baltimore 6580
dignidad 6579
Serena 6578
comunismo 6578
malv@@ 6577
Respecto 6576
asignó 6576
Miles 6575
coronado 6574
edificaciones 6574
silvestre 6574
ásico 6574
ken@@ 6573
legalmente 6573
rescatar 6573
Raymond 6572
Vo@@ 6572
bay@@ 6571
bajar 6570
tiz@@ 6570
desaparecer 6569
demonio 6568
lenta 6568
pár@@ 6568
Prepar@@ 6567
grabadas 6566
trofeo 6566
Kot@@ 6565
Top@@ 6565
sólida 6565
Sean 6564
empar@@ 6564
Tag@@ 6563
Velázquez 6563
biológica 6563
gua 6563
castellana 6562
invención 6562
replic@@ 6562
Proceso 6561
aguda 6561
harina 6561
Segu@@ 6560
oba 6560
playoffs 6560
consecutiva 6558
culares 6558
nombrados 6558
Hermann 6556
Proc@@ 6556
crio 6556
ess 6556
terminan 6556
odato 6555
coincidiendo 6554
gios 6554
realizaban 6554
Sali@@ 6553
cotidi@@ 6553
Land 6552
Tan 6552
Bail@@ 6551
Correa 6551
Hércules 6551
Poesía 6549
erosión 6549
Evangelio 6548
ópodo 6548
mineros 6547
Camboya 6546
escucha 6546
martes 6546
adulta 6545
mont 6545
vasos 6545
ezca 6544
let 6543
Dest@@ 6540
bin 6540
catedr@@ 6539
prometi@@ 6539
Torre@@ 6538
quita 6538
Caso 6537
Marsella 6537
PIB 6537
ataca 6536
EL@@ 6534
cruci@@ 6534
Cí@@ 6533
eck 6532
exportaciones 6531
foros 6531
Bog@@ 6529
Teología 6529
Mongolia 6528
Patagonia 6528
blemente 6528
románico 6527
Camerún 6526
Rita 6526
anotar 6526
distor@@ 6526
Conference 6525
lunar 6525
odon 6525
Ny@@ 6524
pertenecer 6524
alizas 6523
deg@@ 6523
sey 6522
generando 6521
mutación 6521
olar 6521
igual@@ 6519
progresivamente 6518
artesanos 6517
1819 6516
ocurrir 6516
uva 6516
Amigos 6514
Aníbal 6514
poder@@ 6514
áceos 6514
caído 6513
chic@@ 6513
oculta 6513
15.@@ 6512
inca 6512
izó 6512
Bolonia 6511
estratégico 6510
mentales 6510
aficionado 6509
euskera 6509
delta 6508
efectividad 6508
ejecutiva 6508
supremo 6508
salm@@ 6507
Huerta 6506
apasi@@ 6506
operado 6506
reúnen 6506
Baz@@ 6505
arom@@ 6505
carbur@@ 6505
térmica 6504
Estero 6503
rusas 6502
apartado 6501
Mediante 6500
significaba 6500
uria 6500
Almirante 6498
cionar 6498
elaborar 6498
quej@@ 6498
alles 6497
Mitchell 6496
luchadores 6495
Mill@@ 6494
etón 6494
lez 6494
basan 6493
llave 6493
ísta 6493
Jal@@ 6490
Lane 6490
dal 6490
proporcional 6490
efic@@ 6489
ificó 6489
o- 6489
Termin@@ 6488
Michoacán 6487
prioridad 6487
termo@@ 6487
Unesco 6486
amplios 6486
irle 6485
isten 6485
Eslovenia 6483
colectivos 6483
disponibilidad 6483
expulsados 6482
AI@@ 6481
Pietro 6481
ogen@@ 6481
sucesivas 6481
Ze@@ 6480
mediterráneo 6480
presidió 6480
pasada 6479
tropa 6479
construyendo 6478
paraje 6478
Prieto 6477
añadido 6477
hallado 6477
Ayala 6476
rapero 6476
Inca 6475
preocup@@ 6475
vacante 6475
colectiv@@ 6474
placer 6474
ólicos 6474
Soccer 6473
declarar 6472
virgen 6472
oli@@ 6469
oo 6469
trajes 6469
ake 6468
amado 6468
Mancomunidad 6467
Martha 6467
defici@@ 6466
arre@@ 6465
afa 6464
alber@@ 6464
negociación 6464
orn@@ 6464
patriarca 6464
ausp@@ 6463
boliviano 6463
educativas 6463
eter 6463
asis 6462
seminario 6462
gri@@ 6461
rodilla 6461
alegría 6460
pardo 6460
Fire 6459
expectativas 6459
Cinemat@@ 6458
Complutense 6457
Family 6457
Shin@@ 6457
fragata 6457
tó@@ 6457
IP@@ 6456
aplicado 6456
Cauca 6455
Pich@@ 6455
iraní 6455
ETA 6454
Estambul 6454
prel@@ 6454
Susan 6452
Luigi 6451
noción 6451
destro@@ 6450
islámica 6450
láser 6450
ontes 6450
filmación 6449
Amy 6448
Café 6448
narrador 6448
Levante 6447
jon@@ 6447
aris 6446
foco 6446
util@@ 6446
típicas 6445
atri@@ 6444
recopilación 6444
Leipzig 6443
ters 6443
violenta 6443
alo@@ 6442
fec@@ 6442
ici 6442
mun@@ 6442
Herzegovina 6441
Pand@@ 6441
Pep@@ 6441
Hesse 6439
Rubio 6439
compositora 6438
transmitió 6438
operadores 6437
dependen 6436
estamp@@ 6436
hierbas 6435
Arenas 6434
locomotoras 6434
oamericana 6434
Bart 6433
afirmaba 6433
revi@@ 6433
creci@@ 6432
juzgado 6432
ly@@ 6432
170 6431
Sainte 6431
catolicismo 6431
recuperado 6431
send@@ 6431
indu@@ 6430
nacer 6430
UE@@ 6429
Yar@@ 6429
consistió 6429
terceros 6429
lanzados 6428
cohetes 6427
estri@@ 6426
comprendido 6425
desarrolladores 6425
ég@@ 6425
CS@@ 6424
alist@@ 6424
plantea 6424
sacó 6424
Orientales 6423
levanta 6423
talentos 6422
tácticas 6422
estimaciones 6421
compresión 6420
triz 6420
aleta 6418
calibre 6418
eves 6418
sagrado 6417
F.@@ 6416
impact@@ 6416
rompe 6416
Cívica 6415
interesantes 6414
bares 6413
pioneros 6413
Período 6412
asignación 6411
16.@@ 6410
raión 6409
Ken 6408
inaria 6408
João 6407
mac 6407
recompens@@ 6406
Lloyd 6405
Mitre 6405
Adel@@ 6404
planeado 6404
usión 6404
End 6403
Pau@@ 6403
decisivo 6403
vinilo 6403
Ann@@ 6402
Dich@@ 6402
dominación 6402
esfér@@ 6402
bom@@ 6401
cado 6401
denunció 6401
elige 6401
gasto 6400
VI@@ 6399
gieron 6398
recorrer 6398
Tradi@@ 6396
gobernadores 6396
aní 6395
arácnido 6395
ueras 6395
ordinario 6394
resumen 6394
sombr@@ 6394
Escrit@@ 6393
Lanz@@ 6393
cables 6393
supera 6393
Aj@@ 6392
convenció 6392
ucos 6392
Gh@@ 6390
cuán@@ 6390
arreglo 6389
complejas 6389
bero 6388
Marín 6387
anna 6386
variar 6386
completos 6385
conectar 6385
Urbano 6384
insul@@ 6384
Volvió 6383
anterioridad 6383
náu@@ 6383
Space 6382
lidos 6381
acabaron 6380
Barbara 6378
Blues 6378
fantasma 6378
ory 6377
partiendo 6377
desa 6376
consecu@@ 6375
adjunto 6373
Camilo 6372
iller@@ 6372
Edimburgo 6371
regimientos 6371
Roosevelt 6370
comprim@@ 6370
arroj@@ 6369
coinci@@ 6369
caos 6368
1809 6367
Número 6366
ogo 6366
surgen 6366
agujero 6364
acias 6363
che@@ 6363
dul@@ 6363
Técnico 6362
cribe 6361
disputada 6361
rig@@ 6360
sensible 6360
aparecía 6359
carros 6359
Crónica 6357
obtienen 6357
Continuó 6356
cubren 6356
granito 6356
silenci@@ 6356
teclado 6356
Actividad 6354
Krasnodar 6354
estrictamente 6354
Acosta 6353
80@@ 6352
xico 6352
album 6351
finaliza 6351
paralel@@ 6351
Mog@@ 6350
ots 6349
ecología 6348
acostumbr@@ 6347
inio 6347
banderas 6346
Two 6345
creadores 6345
sand@@ 6344
heb@@ 6343
inquiet@@ 6343
raro 6343
Yan@@ 6342
referido 6342
inmer@@ 6340
eada 6339
sirvieron 6339
Pinto 6338
side 6337
tiras 6337
férrea 6336
comi@@ 6335
evitando 6335
ques@@ 6335
refu@@ 6335
Ron@@ 6334
concluye 6334
hormon@@ 6334
recogida 6334
38@@ 6332
prestigi@@ 6332
sonda 6332
Islam 6331
académicas 6331
nev@@ 6331
dens@@ 6329
country 6328
defensivo 6328
sorteo 6328
ò@@ 6328
1827 6327
responsabilidades 6327
criatura 6326
Edwards 6325
asimil@@ 6325
bandos 6324
aventur@@ 6323
oscop@@ 6323
someti@@ 6323
Americano 6322
Campus 6322
Espacio 6322
ancianos 6322
quero 6322
surgimiento 6322
ashi 6321
financiar 6321
medio@@ 6321
epidemia 6320
hablaba 6320
mensual 6320
Querétaro 6319
sudafric@@ 6319
Lorca 6317
ović 6317
Cross 6316
Pizarro 6316
oter@@ 6316
tang@@ 6316
Contexto 6315
organizadas 6315
característicos 6314
Marino 6313
recomienda 6313
conservadora 6310
eando 6310
lej@@ 6310
miden 6310
manejar 6309
Gel@@ 6308
Rub@@ 6308
aun@@ 6308
manto 6308
paseriforme 6308
cuanti@@ 6307
ílico 6307
Summer 6306
Frederick 6305
larvas 6305
presidida 6305
sodio 6305
Dub@@ 6304
LO@@ 6304
recibía 6304
fluido 6303
sindicato 6303
asesinar 6302
umin@@ 6302
you 6302
SE 6301
UC 6301
ausente 6299
eamiento 6299
emblema 6298
helicópteros 6296
Mó@@ 6295
designada 6295
Helsinki 6294
vestuario 6293
18.@@ 6292
sirviendo 6291
notici@@ 6290
parecida 6290
significativas 6289
Pag@@ 6287
integran 6286
2.0 6285
afectan 6285
llan@@ 6285
peligroso 6285
Daily 6284
Rol@@ 6284
Wi@@ 6284
ecciones 6284
tivamente 6284
verb@@ 6284
barón 6282
Letonia 6281
imperiales 6281
producirse 6281
glaciar 6280
milímetros 6279
tele@@ 6279
empezando 6277
iche 6277
Europe 6276
inesper@@ 6276
sit@@ 6276
textil 6274
ym@@ 6274
Chac@@ 6273
ien 6272
obligatorio 6271
alp@@ 6270
Linares 6269
especializadas 6269
repercusión 6269
calcio 6268
resul@@ 6267
Lun@@ 6266
estadística 6266
pseud@@ 6266
B.@@ 6265
encabezó 6265
envej@@ 6265
prudencia 6265
Publicaciones 6264
comentario 6264
condens@@ 6264
entusiasmo 6264
Ermita 6263
uj@@ 6263
Medios 6260
enfri@@ 6260
medición 6260
Hat@@ 6259
éticamente 6259
Linda 6258
decorado 6258
digit@@ 6258
preserv@@ 6258
confin@@ 6256
discursos 6256
refuerzo 6256
Prince 6255
extraordinario 6255
trasladados 6254
Ariel 6253
Lap@@ 6253
Shanghái 6253
doméstico 6252
emprendió 6252
incorrec@@ 6252
dramático 6251
editores 6250
iniciando 6250
letr@@ 6250
Ballet 6249
vá@@ 6249
Dick 6248
Mej@@ 6248
cazadores 6248
desembarco 6248
instant@@ 6248
isp@@ 6248
miércoles 6248
tú 6248
Libertador 6246
ecían 6246
ring 6246
edió 6245
ingresa 6244
tuvieran 6244
Ingenieros 6243
Mang@@ 6243
borr@@ 6243
cándose 6243
herederos 6242
cans@@ 6241
descendi@@ 6241
esores 6241
Pueden 6240
confeder@@ 6240
corporación 6240
luc@@ 6240
umbr@@ 6240
sombrero 6239
transmit@@ 6238
Bros 6237
derr@@ 6237
ego@@ 6237
ubican 6237
descubrimientos 6236
respald@@ 6235
eliminatorias 6234
preliminar 6234
Viz@@ 6233
almacén 6233
ayudado 6233
Olga 6232
impulsar 6232
rojizo 6232
ógeno 6232
erg@@ 6231
rechaza 6231
Moderna 6230
frases 6230
confer@@ 6229
rápidos 6229
Operaciones 6228
Rachel 6228
extraordin@@ 6227
simetría 6227
Meridional 6226
Rogers 6226
Vicepresidente 6226
operativos 6226
yl@@ 6226
asia 6225
nativas 6225
4000 6224
Trofeo 6224
dinosaurios 6224
misil 6224
obstáculos 6223
Aire 6222
Hid@@ 6222
estal 6222
evolu@@ 6222
maf@@ 6222
Thor@@ 6221
boxeo 6221
fusionó 6221
otipo 6221
reanud@@ 6220
Cay@@ 6218
perten@@ 6218
ck 6217
fortificaciones 6216
invas@@ 6216
coleccion@@ 6214
Bom@@ 6213
.En 6211
Estacion 6211
unificación 6209
Chico 6208
requería 6208
vecinas 6208
Denis 6207
Collins 6206
presta 6206
titularidad 6206
Salto 6205
asciende 6205
ofreciendo 6205
sexualidad 6205
Sul@@ 6204
bras 6204
preferencia 6204
Parra 6203
correc@@ 6203
grav@@ 6203
vano 6202
ée 6202
Project 6201
Woman 6201
ariado 6201
Alimentación 6199
morales 6197
retom@@ 6197
demócratas 6196
ely 6196
time 6196
Cán@@ 6195
tula 6195
vector 6195
aragon@@ 6193
interesó 6193
exige 6192
plur@@ 6192
trag@@ 6192
Val 6190
alli 6190
traicion@@ 6190
Toc@@ 6189
inski 6189
montañosa 6189
palestinos 6189
tepec 6189
Aren@@ 6188
bailes 6188
nariz 6188
oscuras 6188
acudió 6187
blas@@ 6187
Chelsea 6186
oído 6186
triangular 6186
enter@@ 6185
marítima 6185
45@@ 6184
Arm@@ 6184
fracasó 6184
ocupados 6184
pasajes 6183
100.000 6182
ículos 6182
Sak@@ 6180
calcula 6180
perió@@ 6180
Cali@@ 6178
Num@@ 6178
arquidiócesis 6178
esi 6177
fruc@@ 6177
but@@ 6176
Creación 6175
privilegi@@ 6175
callej@@ 6174
Proces@@ 6173
eleva 6173
puls@@ 6173
electos 6172
ineros 6172
ister@@ 6172
matricul@@ 6172
ulos 6172
cristales 6171
ke@@ 6171
1.000 6170
17.@@ 6170
Yudo 6170
inflam@@ 6170
acompañados 6169
angular 6169
moverse 6169
tablero 6168
viñ@@ 6168
Ron 6167
sustituyendo 6167
Restauración 6166
ili 6166
mini 6165
agros 6164
Teodoro 6163
añadiendo 6163
heim 6162
ariana 6161
paraguayo 6161
Jennifer 6160
diversi@@ 6160
usti@@ 6160
revolucionaria 6159
salud@@ 6159
Nuestro 6158
discípulos 6158
extraña 6158
nubes 6158
vinieron 6158
Sang@@ 6157
atina 6157
tomo 6157
inmueble 6156
verti@@ 6155
Ralph 6154
jal@@ 6153
pertenec@@ 6153
descend@@ 6152
olig@@ 6152
Buena 6151
Polí@@ 6151
entrado 6151
máximos 6151
1818 6150
Romeo 6150
cón@@ 6150
amer@@ 6149
desciende 6149
mixta 6149
raramente 6148
AN 6147
Máximo 6147
diésel 6147
facciones 6146
recompensa 6146
servidores 6145
Heredia 6144
tario 6144
porte 6143
vinculada 6143
marcados 6142
paisaj@@ 6141
fascista 6139
retornó 6139
Guevara 6137
privilegio 6135
trasero 6135
Donde 6134
enn@@ 6134
indefin@@ 6134
orada 6134
desempeñado 6133
impulsado 6133
Ah@@ 6132
mb@@ 6132
Centre 6131
Guerras 6131
dent@@ 6131
fusiles 6131
heredó 6131
podrán 6131
Aún 6130
Wang 6129
diá@@ 6127
Arzobispo 6125
estructurales 6125
óperas 6125
Sad@@ 6124
dimensional 6123
suyos 6123
People 6122
ofilia 6122
hex@@ 6121
difundir 6119
ley@@ 6119
obo@@ 6119
agón 6118
impresionante 6118
notar 6118
retor@@ 6118
sín@@ 6118
1.5 6117
Voz 6117
ciano 6117
mensaj@@ 6117
Álava 6117
Rangers 6114
ascend@@ 6114
carrocería 6114
tratamientos 6114
condes 6113
puertorriqu@@ 6113
púrpura 6113
exitosos 6112
inminente 6110
20,@@ 6109
Bryan 6109
Cli@@ 6108
extender 6108
mulos 6108
carro@@ 6107
consentimiento 6107
tér@@ 6107
Emilia 6106
excelencia 6106
orientada 6106
Anton 6105
Cou@@ 6104
Dist@@ 6104
Uribe 6104
adhesión 6104
aló 6104
rar@@ 6104
sobrina 6104
Inv@@ 6103
bóvedas 6103
infect@@ 6101
moderado 6101
galardón 6099
impul@@ 6099
Monumentos 6098
MP 6097
labor@@ 6097
Iv@@ 6096
env@@ 6096
párroco 6096
promotor 6095
ejercicios 6094
hep@@ 6094
mite 6094
namente 6094
sucesivos 6094
Arquit@@ 6093
Garcia 6093
distinguen 6093
mascar@@ 6093
Centenario 6091
jeros 6091
hídr@@ 6090
Luke 6088
ferroviarios 6087
gloria 6087
muelle 6087
notación 6087
pora 6087
rechazada 6087
Escal@@ 6086
Oro@@ 6086
amantes 6086
ovski 6086
relev@@ 6086
viéndose 6086
Ful@@ 6085
acercamiento 6083
back 6081
concili@@ 6081
20.000 6080
factor@@ 6080
ordenadas 6080
centrada 6079
declararon 6079
prevista 6079
Sier@@ 6078
iTunes 6078
Caj@@ 6077
cosech@@ 6077
Oh 6076
monárqu@@ 6076
uano 6076
Fantas@@ 6075
extraordinaria 6075
Época 6075
fluye 6074
reten@@ 6074
unidas 6074
Personal 6073
dimisión 6073
infiltr@@ 6073
lara 6073
Clásico 6072
Comercial 6072
asist@@ 6072
fil 6072
bachillerato 6071
cuá@@ 6070
ors 6069
renacimiento 6068
ordin@@ 6067
ambre 6064
Band@@ 6063
tendrán 6063
tormentas 6063
monstruo 6062
tac@@ 6061
Republicana 6060
Singles 6059
escult@@ 6059
Gracia 6058
cantautor 6058
uv@@ 6058
Discografía 6056
achos 6056
sospecha 6056
esporá@@ 6055
soviéticas 6054
colabora 6053
equivalentes 6053
NFL 6051
balada 6051
lavado 6051
entro 6050
trabajaban 6050
ódico 6050
Foundation 6049
Paralelamente 6049
espaldas 6049
ioso 6049
tomas 6049
19.@@ 6048
dialectos 6048
lea 6048
lie 6048
compatible 6047
cuántica 6047
Cayo 6046
Podemos 6046
decisiva 6046
e.@@ 6046
Primo 6045
espécimen 6045
positi@@ 6044
prominentes 6044
Portland 6043
Susana 6043
Wild 6043
aid@@ 6043
pet@@ 6043
Oceanía 6042
cerros 6042
fa@@ 6042
posgrado 6042
bru@@ 6041
disponer 6041
SU@@ 6040
concentraciones 6040
emperatriz 6039
47@@ 6038
obrero 6038
vinculados 6038
Party 6037
aula 6037
endía 6037
Virreinato 6036
acum@@ 6036
establecen 6036
sobr@@ 6036
Varela 6034
bolas 6034
gh@@ 6034
morfol@@ 6034
Aur@@ 6033
hueco 6033
pescadores 6033
Ronald 6032
Tang@@ 6032
partidario 6031
exager@@ 6030
misteri@@ 6030
Voc@@ 6029
Arco 6028
bá@@ 6028
redactor 6028
produ@@ 6027
trasladada 6027
cereales 6026
estipul@@ 6026
gul@@ 6026
Dro@@ 6025
descubren 6025
vestidos 6025
exhi@@ 6023
Pista 6022
persas 6020
Farm@@ 6019
Tecnológico 6019
magnético 6019
umba 6019
alizaron 6018
gris@@ 6018
hubieran 6018
ograma 6018
orientado 6018
áculos 6018
TO@@ 6017
cruzada 6017
lap@@ 6017
Directiva 6016
débiles 6016
habitado 6015
nitrógeno 6015
Que@@ 6014
auxiliares 6014
mio 6014
reality 6014
íferos 6013
alquil@@ 6012
milita 6012
Philippe 6011
Vor@@ 6011
erle 6011
esclav@@ 6011
acerc@@ 6010
bizantinos 6010
habrá 6010
illado 6010
batallones 6009
disminuye 6009
intervenir 6009
proced@@ 6009
tocado 6008
ítima 6008
arros 6007
llevadas 6007
trof@@ 6007
bicicleta 6006
cierra 6006
eadores 6006
eren 6006
guera 6006
provocaron 6006
Europ@@ 6005
fér@@ 6005
tardía 6005
Gau@@ 6004
enko 6004
pesetas 6004
incrementar 6003
nuestras 6003
crema 6002
polar 6002
onz@@ 6001
parto 6001
vestigios 6001
estrés 6000
caudillo 5999
ceb@@ 5999
ec 5999
idén@@ 5999
vende 5999
Compar@@ 5998
ISO 5998
Manila 5998
liquid@@ 5998
1806 5997
oqu@@ 5997
paleont@@ 5997
Prix 5995
estables 5995
ícula 5995
coronación 5994
llanuras 5994
Lad@@ 5993
iten 5993
bern@@ 5992
torn@@ 5992
humo 5991
políticamente 5991
alan@@ 5990
dias 5990
end 5990
felicidad 5990
net@@ 5990
asocia 5987
Gabinete 5986
PE@@ 5986
instalada 5986
Hunter 5985
dará 5985
Liter@@ 5984
Roberts 5982
mones 5982
tradujo 5982
Francisca 5981
legend@@ 5981
ves@@ 5981
amon@@ 5980
guardi@@ 5980
metaf@@ 5980
cauce 5979
hábito 5979
ilegales 5979
colocación 5978
nº 5978
pintar 5977
breves 5976
homosexual 5976
Johannes 5975
carp@@ 5975
otipos 5975
Ghana 5974
arqueológicas 5974
atur@@ 5974
veterano 5974
heavy 5973
Francés 5972
Gin@@ 5972
Naturaleza 5972
predominante 5970
Ór@@ 5970
UA 5969
pleg@@ 5969
Ivan 5968
intermedia 5968
Selec@@ 5967
mencionan 5967
Darwin 5966
Software 5965
fichaje 5964
piscina 5964
étnico 5964
afi@@ 5963
oidea 5963
Jr. 5962
identificados 5962
revelación 5962
documentado 5961
fachadas 5961
pelig@@ 5961
Birmingham 5960
FBI 5960
embr@@ 5960
sant@@ 5960
Montana 5959
devast@@ 5959
pinos 5959
blo@@ 5958
llamas 5958
infraestructuras 5957
ostr@@ 5957
21.@@ 5956
crecen 5956
bené@@ 5955
estes 5955
restaurado 5955
Tanzania 5954
Wolf 5954
berger 5954
abusos 5953
calif@@ 5953
excelentes 5953
PC@@ 5952
certificación 5952
óblast 5952
checo 5951
coloración 5951
nitr@@ 5951
Ernest 5950
comparado 5949
α 5949
ína 5948
Incluye 5946
mejoró 5946
Coalición 5945
capitalismo 5945
caro 5945
1700 5944
long@@ 5944
Keith 5943
asisti@@ 5943
retirar 5943
estadios 5942
alen 5941
Linneo 5940
idal 5940
cis@@ 5939
perturb@@ 5939
potable 5939
potenciales 5939
autónomo 5938
maqu@@ 5938
veteranos 5935
enterrada 5933
Motor 5932
clasifica 5932
galard@@ 5932
ingu@@ 5932
montar 5932
peculiar 5932
Tah@@ 5931
alicio 5931
conceb@@ 5930
invoc@@ 5930
oamericanos 5930
Bé@@ 5929
Renania 5929
costes 5929
Aplic@@ 5927
dirigiendo 5927
pariente 5927
preocupaciones 5927
Dennis 5926
bran@@ 5926
sofistic@@ 5926
gratu@@ 5925
Diputado 5924
oux 5924
Silver 5923
atesti@@ 5923
Pastor 5921
adaptaciones 5921
arrest@@ 5921
fluor@@ 5921
rastro 5920
laboratorios 5919
Clas@@ 5918
Fuera 5917
Shu@@ 5917
amplitud 5917
conjun@@ 5917
hemisferio 5917
vil 5917
Expedición 5916
dem 5916
miel 5916
póst@@ 5916
ahog@@ 5915
expuso 5915
integridad 5915
pájaros 5915
Misisipi 5914
aia 5913
D.C. 5912
GT 5912
Etapa 5911
ag 5911
anj@@ 5911
cálculos 5911
parodia 5911
Ródano 5909
fat@@ 5909
ings 5909
Ultimate 5908
bury 5907
descendió 5906
iti 5906
ligada 5906
Marcel 5905
paradas 5905
preven@@ 5905
Cier@@ 5904
deber 5904
Guanajuato 5903
[...]
