ya 420497
. 410749
na 310525
, 300891
wa 291384
katika 123455
kwa 114425
ni 107370
&quot; 96989
) 84269
( 84121
la 81994
za 64755
mwaka 42311
cha 41888
kama 41404
yake 38623
@-@ 38001
kuwa 31848
nchini 28672
: 27603
au 22269
kutoka 21150
kwenye 20178
lugha 19223
pia 19086
zaidi 18897
vya 18777
watu 18559
&#91; 17132
&#93; 17076
mji 16781
wake 16496
kati 16345
; 16275
alikuwa 16231
Mto 15849
kwanza 14316
mwa 14293
Kwa 14030
nchi 14010
hii 13961
Tanzania 13766
pamoja 13396
hadi 13194
wakazi 13178
miaka 13049
Mwaka 12965
jina 12617
&apos; 12525
Afrika 12463
wakati 12446
juu 12149
Kenya 11966
lakini 11675
ilikuwa 11601
huko 11581
tarehe 11339
moja 11193
kata 11181
mto 10867
mara 10679
hiyo 10503
ndani 10479
mnamo 10478
kazi 10257
ku@@ 10195
ambayo 10189
Bahari 10082
idadi 9886
Mkoa 9448
Katika 9361
Kati 9254
M@@ 9227
sana 9174
Maji 9138
sehemu 9133
eneo 9092
hatimaye 9088
nyingi 8881
baada 8749
mkoa 8659
kwamba 8654
yao 8530
kundi 8300
kubwa 8251
Marekani 8227
Wilaya 8178
ambao 7978
ili 7966
chini 7946
unapatikana 7831
iko 7794
hasa 7783
hivyo 7721
Kusini 7650
huo 7575
mkuu 7439
tu 7364
Ki@@ 7221
yanaishia 7054
kawaida 6939
sensa 6939
sababu 6933
U@@ 6895
hu@@ 6835
mbalimbali 6815
Baada 6763
- 6538
Uganda 6512
wasemaji 6433
huu 6365
namba 6319
Mashariki 6273
kaskazini 6267
u@@ 6223
yenye 6210
wengi 6147
wilaya 6143
timu 6126
kila 6111
kaunti 6057
ali@@ 6038
KK 5910
vile 5910
maji 5894
alizaliwa 5892
wali@@ 5884
1 5809
uli@@ 5773
m@@ 5720
bahari 5696
2 5670
ambaye 5645
Kufuatana 5616
wapatao 5551
uainishaji 5537
lake 5530
Wakati 5526
kabla 5512
Mungu 5485
iliyofanyika 5445
2012 5434
Mnamo 5410
magharibi 5362
/ 5329
Kanisa 5327
ki@@ 5290
Kristo 5285
siku 5285
yote 5267
kuna 5251
inayozungumzwa 5244
upande 5227
Ni 5211
ina 5203
karne 5191
mbili 5168
ambapo 5163
Uingereza 5161
kusini 5150
njia 5065
muziki 5058
imehesabiwa 5057
dhidi 5008
Naili 4992
ili@@ 4947
tena 4946
karibu 4908
aina 4905
inahusu 4858
hali 4854
taifa 4842
ajili 4838
Papa 4831
i 4823
jimbo 4815
akiwa 4802
muda 4785
N@@ 4770
filamu 4760
wenye 4747
sasa 4723
zake 4720
mtu 4702
Makala 4691
nyingine 4679
ak@@ 4678
tofauti 4653
hata 4625
tangu 4559
wote 4549
– 4544
mmoja 4535
serikali 4501
kadhaa 4469
mashariki 4453
kutokana 4442
humo 4426
hivi 4419
wao 4413
nafasi 4404
3 4395
u 4383
Kaskazini 4380
ana 4349
ani 4340
wengine 4337
kuliko 4334
hilo 4299
Tangu 4248
Kongo 4246
maisha 4227
pili 4222
&amp; 4214
&#124; 4186
Chuo 4173
tatu 4118
Mji 4103
kuhusu 4076
hili 4011
chake 4001
baadaye 3991
duniani 3988
ziwa 3985
leo 3984
K@@ 3956
Sikukuu 3956
mujibu 3952
o 3945
maeneo 3928
si 3918
kum@@ 3893
oni 3870
Ulaya 3849
ik@@ 3833
mkubwa 3830
Kiingereza 3790
Ufaransa 3784
“ 3773
asili 3765
nje 3754
shule 3743
Pia 3741
mchezaji 3740
walikuwa 3696
muhimu 3681
bila 3679
Hindi 3675
kufanya 3673
kale 3645
ia 3632
4 3623
5 3617
Ujerumani 3615
mjini 3611
maarufu 3600
Eneo 3593
watoto 3589
yaani 3586
Magharibi 3584
zote 3584
familia 3574
pekee 3554
kupitia 3550
” 3544
ini 3540
of 3532
am@@ 3486
Kik@@ 3476
wanawake 3448
zamani 3436
% 3427
kabisa 3424
The 3417
20 3416
imani 3370
Januari 3369
an@@ 3363
wak@@ 3360
Mei 3337
klabu 3336
kutumia 3321
Kim@@ 3318
wimbo 3312
habari 3307
vita 3300
anga 3285
Ali@@ 3282
un@@ 3281
Wakristo 3275
a@@ 3272
mwisho 3263
we 3259
kuu 3257
huwa 3231
a 3224
uk@@ 3206
maana 3205
mtakatifu 3204
Oktoba 3198
una 3196
Japani 3195
aji 3194
awali 3190
10 3184
Italia 3161
elimu 3146
bora 3138
ikiwa 3134
mita 3131
bunge 3129
mpya 3129
kipindi 3128
mengine 3115
Kikuu 3112
albamu 3102
Julai 3091
hizi 3091
Roma 3090
BK 3089
de 3084
Juni 3080
ambazo 3062
aa 3047
kupata 3040
kuanzia 3030
mpira 3021
um@@ 3019
Novemba 3015
Burundi 3012
waishio 3006
ut@@ 2975
mito 2967
umri 2962
19 2960
W@@ 2952
6 2945
Machi 2944
hayo 2942
biashara 2937
milioni 2932
Desemba 2927
Agosti 2918
I@@ 2912
Septemba 2910
2000 2900
ika 2899
ali 2894
Maisha 2892
Aprili 2876
huadhimishwa 2875
km 2874
jamii 2873
mfano 2868
Historia 2864
New 2854
Kis@@ 2847
in@@ 2833
takriban 2826
dunia 2825
w@@ 2824
usawa 2818
2014 2802
12 2793
miguu 2781
Kib@@ 2773
kifo 2770
nguvu 2761
kimataifa 2759
Nigeria 2758
kiasi 2751
nyimbo 2747
Kuna 2746
2007 2741
at@@ 2728
makuu 2721
msingi 2719
ari 2716
15 2715
isha 2704
7 2700
ama 2700
Februari 2689
Yesu 2689
dini 2682
matumizi 2679
Tuzo 2667
T@@ 2664
as@@ 2646
kisiwa 2637
mrefu 2637
Dunia 2636
amezaliwa 2627
michezo 2624
us@@ 2610
binadamu 2604
Hata 2589
Jamhuri 2587
mwenye 2581
hapo 2578
zao 2575
mengi 2555
historia 2554
oa 2546
aka 2544
hizo 2522
im@@ 2517
ua 2514
kampuni 2513
wan@@ 2512
Katoliki 2507
Idadi 2501
2008 2489
2009 2483
m 2474
it@@ 2470
mechi 2470
18 2466
fulani 2466
x 2465
ambalo 2463
the 2456
mpaka 2454
uwezo 2454
alicheza 2436
mtoto 2434
baadhi 2429
rasmi 2427
mfumo 2414
zili@@ 2414
o@@ 2413
2006 2410
Misri 2405
kwenda 2397
sheria 2396
inaweza 2393
Wak@@ 2372
11 2370
9 2365
2011 2362
kus@@ 2362
ulikuwa 2362
Lakini 2351
Jina 2347
i@@ 2347
mwandishi 2341
al@@ 2331
haki 2330
kiwango 2325
al 2322
’ 2320
16 2318
nne 2317
ita 2311
8 2309
damu 2307
mwingine 2294
s 2289
Kazi 2276
tuzo 2275
O@@ 2272
2015 2270
ang@@ 2269
k@@ 2269
13 2268
Kit@@ 2268
mwili 2262
30 2259
utawala 2255
vi@@ 2246
17 2244
Marejeo 2240
rangi 2231
ugonjwa 2223
af@@ 2210
yeye 2202
chama 2201
y@@ 2201
jumla 2195
A@@ 2191
G@@ 2189
ab@@ 2186
Ziwa 2183
om@@ 2180
ona 2176
unga 2176
kucheza 2172
in 2169
kutoa 2167
wa@@ 2166
14 2163
ala 2161
ndege 2158
neno 2151
alipo@@ 2150
asilimia 2139
ur@@ 2139
D@@ 2138
shirika 2137
Umoja 2128
ambako 2117
ndio 2117
j@@ 2115
B@@ 2112
wana@@ 2112
sita 2106
mahali 2104
iki 2102
kumi 2100
ar@@ 2078
chuo 2077
nyota 2075
S@@ 2074
hapa 2074
es 2073
Tanganyika 2058
mfalme 2057
ok@@ 2052
Mkuu 2050
ai 2049
halafu 2048
uhuru 2048
Uturuki 2046
uwanja 2040
wanyama 2037
Amerika 2031
wana 2030
bado 2026
idi 2018
lili@@ 2018
mambo 2016
mwezi 2012
ag@@ 2008
2005 2007
ah@@ 2001
mdogo 1993
una@@ 1993
asi 1992
jeshi 1989
Wa@@ 1986
ingawa 1974
ul@@ 1971
wat@@ 1962
is@@ 1959
asilia 1958
katikati 1958
uchaguzi 1954
aw@@ 1950
ata 1949
21 1948
Jimbo 1943
II 1939
il@@ 1938
I 1937
mama 1937
L@@ 1936
mazingira 1934
kikuu 1932
chakula 1931
Wakatoliki 1928
d 1925
ndogo 1925
pa 1920
Uwanja 1918
Rais 1915
25 1914
z@@ 1911
Atlantiki 1909
n@@ 1907
2002 1898
² 1898
mwenyewe 1895
2010 1890
Kil@@ 1890
kijiji 1883
kwake 1881
sawa 1877
zile 1875
Guinea 1874
Hii 1873
dawa 1872
huelekea 1872
hao 1869
E@@ 1861
ile 1858
Alikuwa 1854
Baadaye 1854
ishi 1854
Kin@@ 1852
nyumbani 1850
24 1838
ma@@ 1836
askofu 1833
Yeye 1832
and 1831
jinsi 1831
mw@@ 1830
aki@@ 1829
makubwa 1824
Mia 1818
namna 1818
Tarafa 1811
Kiarabu 1809
an 1808
ung@@ 1808
= 1805
Mara 1794
kim@@ 1793
eni 1791
Waorthodoksi 1787
Kifaransa 1786
Was@@ 1783
visiwa 1783
F@@ 1780
wanaoishi 1777
rais 1775
Kama 1774
Ukristo 1772
Ghana 1771
on@@ 1771
ch@@ 1765
mbali 1762
yali@@ 1761
zin@@ 1759
pwani 1755
lilikuwa 1754
.@@ 1750
aliye@@ 1749
kisiasa 1749
Z@@ 1748
hatari 1747
Vita 1742
Watu 1741
urefu 1741
baba 1738
ila 1736
ir@@ 1732
ara 1728
2016 1726
matokeo 1724
Yohane 1723
alianza 1720
ka 1718
anaheshimiwa 1716
huduma 1714
kulingana 1714
tano 1713
A 1708
Mpya 1706
ap@@ 1702
kidogo 1702
ule 1698
ati 1697
Ny@@ 1693
saba 1688
2018 1681
Orodha 1681
Mas@@ 1680
P@@ 1680
kitabu 1680
walio@@ 1680
Tarehe 1677
or@@ 1667
Paulo 1666
22 1664
uma 1662
nyumba 1659
spishi 1657
mlima 1654
huku 1652
watakatifu 1652
Jamii 1648
hewa 1648
anda 1645
aj@@ 1642
Urusi 1639
picha 1637
vitabu 1637
Dar 1636
Mak@@ 1635
maneno 1634
haya 1633
Ku@@ 1630
p@@ 1630
bali 1627
mi@@ 1626
mwigizaji 1625
joto 1624
miji 1624
Ch@@ 1622
Kuu 1622
Dola 1620
upo 1619
wawili 1617
wenyewe 1617
ishwa 1615
yan@@ 1613
ing@@ 1612
2017 1608
kanda 1608
Hispania 1607
up@@ 1606
vijana 1603
Kilatini 1597
2013 1596
mojawapo 1592
milima 1585
ot@@ 1585
Kig@@ 1584
binafsi 1582
h@@ 1582
eli 1581
korongo 1576
mak@@ 1570
Australia 1568
uni 1568
Kid@@ 1567
2020 1563
makao 1561
gt 1558
Kiswahili 1555
shughuli 1554
masomo 1550
23 1548
hicho 1546
hiki 1540
2019 1539
postikodi 1539
uka 1536
sauti 1535
moyo 1534
majina 1533
msimu 1531
Biblia 1527
lt 1527
mbele 1525
ol@@ 1525
! 1524
hatua 1523
J@@ 1512
Mar@@ 1512
kilomita 1512
Hivyo 1510
Y@@ 1510
Asia 1509
oma 1508
kut@@ 1507
ima 1506
ndiyo 1506
ambacho 1505
Ethiopia 1504
kin@@ 1500
Bonde 1497
amba 1496
2003 1495
oka 1495
anza 1490
York 1489
2001 1488
iliyo@@ 1487
H@@ 1486
Shule 1486
isi 1485
wale 1485
alifariki 1484
John 1482
ano 1481
awa 1481
linalopatikana 1479
mwimbaji 1479
vyake 1478
100 1475
weza 1473
ina@@ 1470
okea 1470
iti 1463
mabadiliko 1458
1990 1457
utamaduni 1457
Salaam 1456
t@@ 1455
27 1454
28 1453
kote 1453
2004 1450
on 1450
ek@@ 1449
ema 1449
sh@@ 1449
ardhi 1445
mu@@ 1442
di 1439
ongo 1439
alim@@ 1435
Uhindi 1434
wala 1434
az@@ 1431
inga 1431
yako 1426
ao 1425
utafiti 1421
mwanachama 1419
mfululizo 1418
maendeleo 1417
os@@ 1417
olewa 1416
26 1415
Kibantu 1414
kituo 1414
mwanamke 1411
umia 1411
e@@ 1410
China 1409
ziliz@@ 1407
kitaifa 1404
kufikia 1397
Zanzibar 1395
eti 1395
el@@ 1393
.. 1392
kisasa 1389
zi 1389
soka 1387
endelea 1380
zinaz@@ 1378
n.k. 1376
walio 1375
em@@ 1374
amu 1372
enda 1371
majimbo 1370
posta 1370
tu@@ 1370
naye 1368
vizuri 1368
alipata 1366
iri 1365
halisi 1364
ig@@ 1362
haraka 1360
Waislamu 1357
In@@ 1356
Kigiriki 1355
B 1353
ad@@ 1353
kifupi 1352
ana@@ 1351
Ufa 1349
umbo 1349
v@@ 1348
ach@@ 1344
inayo@@ 1338
V@@ 1335
kiongozi 1335
kikubwa 1332
onyesha 1332
Chama 1330
e 1329
Wan@@ 1328
29 1323
Mat@@ 1322
lin@@ 1322
umiwa 1318
R@@ 1316
alifanya 1315
miwili 1314
matatizo 1313
enga 1310
Ma@@ 1305
Kale 1304
Ng@@ 1304
g@@ 1303
kun@@ 1303
upendo 1301
An@@ 1298
Maria 1298
Kirumi 1297
ime@@ 1297
tabia 1293
ungwa 1293
hakuna 1291
kisha 1289
sanaa 1289
mwanzo 1288
ambo 1286
Makao 1285
azi 1285
Nairobi 1282
unda 1278
kamili 1277
kuishi 1275
Mlima 1274
ish@@ 1274
Lugha 1273
mashindano 1271
siasa 1271
ungu 1270
matibabu 1266
Mw@@ 1264
wenzake 1261
Mataifa 1260
Wam@@ 1257
kusababisha 1255
imu 1253
msanii 1253
ame@@ 1250
og@@ 1250
ha 1249
afya 1248
kali 1246
kina 1246
ub@@ 1246
am 1244
hut@@ 1244
kuingia 1244
ndiye 1241
nyuma 1239
Kiaustronesia 1238
huitwa 1238
inay@@ 1237
Wimbo 1235
kili@@ 1235
wiki 1235
s@@ 1233
ji 1231
mwanasiasa 1229
onekana 1227
vifaa 1226
da 1225
sifa 1222
ny@@ 1219
orodha 1217
Turkana 1216
kike 1215
wanafunzi 1215
bara 1214
iki@@ 1213
eka 1211
kabila 1211
kuj@@ 1208
Kimataifa 1205
kilimo 1205
mshindi 1203
seli 1203
ale 1202
ang 1201
ug@@ 1201
kijamii 1200
itwa 1199
kup@@ 1199
uchumi 1199
rekodi 1197
dalili 1194
eza 1194
aja 1193
1999 1191
akawa 1190
yanay@@ 1190
ukubwa 1188
kushinda 1186
umba 1184
Kikristo 1181
huru 1178
mkono 1177
tarakimu 1174
Kombe 1172
id@@ 1172
mchezo 1171
31 1170
Bwana 1170
lenye 1168
maalumu 1168
Kiafrika 1167
Shirika 1166
bendi 1159
alit@@ 1157
umeme 1157
Indonesia 1156
inayofuata 1156
mafuta 1154
ane 1153
mingi 1151
alijiunga 1150
ki 1150
umma 1149
lazima 1148
Hapo 1146
Wat@@ 1146
kweli 1146
olojia 1145
amani 1143
en@@ 1142
yo 1142
to 1139
uko 1139
amb@@ 1138
wi 1138
kik@@ 1137
iwa 1136
kit@@ 1136
zenye 1136
akili 1135
kumbukumbu 1133
Kir@@ 1130
uhusiano 1130
amp 1127
kura 1127
ea 1124
kuzuia 1124
walioishi 1122
iga 1120
1991 1117
Siku 1116
ba 1116
ndugu 1116
er@@ 1115
Kijerumani 1114
mab@@ 1114
mapema 1114
tasa 1113
vijiji 1113
wafiadini 1113
f@@ 1111
ja 1111
mamlaka 1111
Albamu 1110
maziwa 1110
mbinu 1109
nusu 1109
badala 1108
kulikuwa 1107
watumwa 1107
heshima 1105
ikia 1105
vitu 1103
imba 1102
ko 1100
miezi 1099
isho 1098
kikundi 1097
mat@@ 1096
yoyote 1096
and@@ 1094
hadithi 1093
unaweza 1093
tayari 1092
jiji 1091
shahada 1089
b@@ 1088
bidhaa 1086
miongoni 1086
tar 1086
Sh@@ 1085
Sudan 1085
aka@@ 1085
kuf@@ 1085
kitu 1082
kutangulia 1081
1995 1077
-------- 1076
ingia 1076
vingine 1076
wal@@ 1076
inayoandikwa 1075
Baba 1074
mafanikio 1070
moto 1069
Ingawa 1068
alik@@ 1068
hawa 1068
jua 1067
y 1067
aliy@@ 1066
ela 1066
Wab@@ 1065
1994 1064
barabara 1064
ewa 1064
safari 1064
Wal@@ 1063
aliwa 1063
ar 1062
alama 1061
zinaweza 1060
huyo 1058
nane 1058
wanaweza 1057
Sehemu 1056
? 1055
if@@ 1055
iliy@@ 1053
tisa 1053
uta 1053
kuanzisha 1052
anacheza 1051
ayo 1051
wanaume 1051
Ivoire 1050
karibuni 1050
Hasa 1048
usi 1047
Kisiwa 1046
Miaka 1046
aliyekuwa 1046
uf@@ 1045
was@@ 1045
ha@@ 1043
ongoza 1042
mawili 1041
1993 1040
50 1040
Al@@ 1040
mimea 1040
Al 1039
us 1039
wasanii 1037
mkataba 1036
makabila 1034
1997 1033
kichwa 1031
hak@@ 1030
Wayahudi 1029
Waziri 1027
40 1026
msaada 1026
Kal@@ 1025
li@@ 1024
asa 1023
yak@@ 1023
Aliwahi 1022
acha 1021
elekea 1021
kuzaliwa 1021
Baadhi 1020
d@@ 1020
umika 1020
kimo 1019
mashuhuri 1019
kuz@@ 1018
1998 1017
Un@@ 1015
ay@@ 1015
Elimu 1014
Nchi 1013
ta 1012
vin@@ 1010
wam@@ 1009
aki 1007
maalum 1007
wazi 1006
Mtakatifu 1004
zilikuwa 1004
Kiniger 1003
aga 1003
wadogo 1003
Israeli 1002
ombe 1002
kutengeneza 1001
ulimwengu 1001
alishinda 1000
cheo 1000
London 999
programu 998
uri 996
Kidemokrasia 994
yalikuwa 992
1996 991
po@@ 991
Cote 990
h 990
1980 989
kijeshi 989
1970 988
vingi 988
Pamoja 987
kutokea 987
safu 985
okana 984
Papua 983
op@@ 981
video 980
viongozi 978
1992 977
eta 977
fuata 977
ich@@ 977
Tana 975
ajwa 975
kuanza 974
mpango 974
hai 972
usiku 972
kuunda 971
Nyanza 969
City 966
uch@@ 966
uliwa 965
dola 964
jambo 964
jirani 964
uso 963
mwanamuziki 962
kuto@@ 961
kuelekea 960
United 957
televisheni 956
virusi 956
fedha 955
pande 955
athari 954
lina 954
aba 953
ji@@ 953
Uislamu 952
Leo 951
adi 951
kufa 951
kuchukua 950
oro 950
masuala 949
at 948
ira 948
kanuni 948
kujenga 946
California 945
kanisa 945
makazi 945
pale 945
iz@@ 944
umu 944
kupunguza 942
mwanzilishi 942
Kabla 941
Ak@@ 940
uli 940
Korea 939
aliz@@ 939
kujiunga 939
koloni 938
mfiadini 938
ambavyo 937
aya 936
Waarabu 934
Brazil 933
Nobel 933
baridi 930
Muziki 929
fanya 929
eg@@ 928
• 928
ada 926
ishaji 926
mapokeo 925
sala 925
uliopo 925
Mu@@ 924
ng 922
ah 921
kwani 921
mfupi 921
io 920
kuch@@ 920
magonjwa 919
Hapa 915
av@@ 914
egemea 914
chati 913
kuji@@ 913
mataifa 913
uz@@ 912
kushika 911
mtandao 911
of@@ 910
yaliyo@@ 910
dhuluma 909
ing 908
kurudi 908
meli 907
ilianzishwa 906
lengo 906
viwango 906
walit@@ 906
kadiri 905
vilevile 905
lilil@@ 904
ngozi 904
Kih@@ 903
nao 902
Injili 901
chache 901
mikoa 901
Ligi 900
abu 899
vyombo 899
ati@@ 898
ulioko 898
kuendelea 897
ob@@ 897
Mal@@ 896
is 896
kilikuwa 896
kusoma 896
mtindo 896
uru 896
Taifa 895
Arusha 892
anajulikana 892
mawasiliano 892
et 891
Bunge 889
roho 888
kis@@ 886
mbio 886
mraba 886
hutumika 885
mbaya 884
zina 884
Kuanzia 883
ash@@ 883
hau@@ 883
Tanga 882
Vigawo 882
et@@ 882
ilit@@ 882
any@@ 881
maambukizi 881
makundi 881
anaweza 880
1988 879
matukio 879
mvua 879
kando 878
1960 877
omba 877
saa 877
amia 876
kuongeza 876
Kiy@@ 875
Ali 874
umbali 874
awe 873
kuona 873
mali 873
Mag@@ 871
Vijijini 871
angaza 871
ngazi 870
Kas@@ 869
basi 869
Vietnam 868
angalia 868
Kanada 867
chanzo 867
mbunge 867
muundo 867
ibada 866
kutaja 866
kw@@ 864
onga 864
Msimbo 863
tun@@ 863
ie 862
ov@@ 862
vyote 861
wadudu 861
el 860
mwanzoni 860
vili@@ 860
julikana 859
C@@ 858
mwalimu 857
wananchi 857
amini 856
ndoa 856
enea 854
yale 853
uongozi 851
esha 850
taasisi 850
Kitabu 849
Kutokana 849
ib@@ 849
miti 849
ud@@ 849
sekondari 848
hi 847
kuli@@ 846
zilizo@@ 846
200 845
ong 845
padri 845
wakiwa 845
Mjini 844
ma 844
ae 843
kufika 842
Sheria 840
alia 839
kompyuta 839
yetu 839
askari 838
Kam@@ 837
Morogoro 837
angwa 837
kutumika 837
kul@@ 836
wame@@ 835
Ar@@ 834
Hali 834
b 834
linal@@ 834
maj@@ 834
wah@@ 834
ele 831
zingine 831
inat@@ 830
kusaidia 828
Serikali 826
atia 826
wastani 826
heri 825
uzi 825
dhahabu 824
mmojawapo 823
taarifa 822
Wanawake 821
samaki 821
Kwanza 818
Rwanda 818
Ab@@ 817
maonyesho 817
1989 816
‘ 816
ikwa 815
hifadhi 814
lililo 814
Am@@ 813
imekuwa 813
r@@ 813
1987 810
juhudi 810
ujenzi 810
Waingereza 808
ow@@ 808
Botswana 807
Filamu 807
Uholanzi 807
ezi 807
gazeti 807
kinach@@ 807
oko 807
ori 807
ufalme 807
ate 806
mas@@ 806
silaha 806
wingi 806
ez@@ 805
mp@@ 805
es@@ 804
mtunzi 804
Mab@@ 803
barani 803
isi@@ 803
ligi 803
oti 803
zinazo@@ 802
do 801
Na 800
kasi 799
po 799
ito 798
hutumia 797
kiuchumi 797
utaratibu 797
kuandika 796
ubongo 795
sayansi 794
umaarufu 794
ti@@ 791
ushindi 791
baina 789
é 788
maadili 787
ye 787
India 786
oto 786
ilianza 785
ura 785
Akiwa 784
Dodoma 783
um 783
tarafa 782
wako 782
Zimbabwe 781
ishia 781
wenyeji 780
kuw@@ 779
mke 779
ota 779
as 778
oh@@ 778
Wakazi 777
kupiga 777
mafundisho 777
maumivu 777
pengine 777
0 776
lik@@ 776
2021 775
Bar@@ 775
Kiislamu 775
Paris 775
afuta 775
iliopo 774
mabao 774
od@@ 774
iliyokuwa 773
mafunzo 773
pombe 773
Fransisko 772
ari@@ 772
mwishoni 772
Angola 771
nzuri 771
upya 771
zo 771
La 770
isipokuwa 770
maandishi 769
ogo 769
Alizaliwa 768
Sahara 768
iliyo 768
kur@@ 768
kuwepo 768
mwendo 768
uchunguzi 768
Kip@@ 767
kiume 766
waki@@ 766
aliandika 765
inda 765
jukumu 764
l@@ 764
pesa 764
Mtume 763
hus@@ 763
kuonekana 763
mchanganyiko 763
madhehebu 761
osa 760
Kila 759
West 759
alihamia 759
uj@@ 757
raia 755
umoja 755
eng@@ 754
B.K. 753
Kar@@ 753
andikwa 753
kil@@ 753
lao 753
mkutano 753
Vi@@ 752
oli 752
wataalamu 752
yaliy@@ 752
apo@@ 751
eb@@ 750
mashirika 750
4,@@ 749
bakteria 749
barua 749
mno 749
wazazi 749
au@@ 748
teknolojia 748
alisema 747
harakati 747
binti 746
kudumu 746
yanaweza 746
Kamerun 745
enzi 744
kesi 744
Michael 743
iliyot@@ 743
kilich@@ 743
toleo 743
Hakuna 742
ai@@ 742
ambuliwa 742
faida 742
Ili@@ 740
ango 740
wanachama 740
ou@@ 739
Kif@@ 738
ilik@@ 738
wasi@@ 737
ukoloni 735
Yerusalemu 734
ke 734
kwao 734
wafuasi 734
Sanaa 733
aza 733
gari 733
ongozwa 733
reli 733
Asili 732
waliokuwa 732
Mad@@ 731
Man@@ 731
mb@@ 731
zim@@ 731
Mbeya 730
ania 730
mimba 729
lil@@ 728
Upande 727
Ureno 727
undwa 726
wakubwa 726
ofisi 725
uwezekano 725
III 724
Mwan@@ 723
mradi 723
kushiriki 722
upinzani 722
Spishi 721
daraja 721
vipindi 721
Olimpiki 720
Uchina 720
ong@@ 719
hutokea 718
kufuata 718
mag@@ 718
° 718
Maj@@ 717
kaisari 717
Ugiriki 716
madogo 716
Cape 715
James 715
dhambi 715
hutumiwa 715
alitoa 714
br 714
Wajerumani 713
embe 713
for 713
kuweka 713
alianzisha 712
awala 712
riwaya 712
Wali@@ 711
macho 711
ulio@@ 711
Kab@@ 710
era 710
Wasifu 709
kumaliza 709
kuwa@@ 708
monasteri 708
ak 707
Aina 706
Visiwa 706
ungua 706
wagonjwa 706
yenyewe 706
4@@ 705
hi@@ 705
kikosi 705
ti 705
Algeria 704
Neno 704
Roho 704
ikawa 704
kihistoria 704
kutolewa 704
viwanda 704
Nyumba 701
uki@@ 701
Kampuni 699
andika 699
bandari 699
studio 699
izi 698
C 697
Aleksandria 696
ine 696
ed@@ 695
kuonyesha 695
ujumla 695
Agano 694
ishara 694
mch@@ 694
Kitaifa 693
eo 693
fu 692
redio 691
weka 691
Mchezaji 689
Waafrika 689
ambua 689
apa 689
kuja 689
mauaji 689
uza 689
soko 688
1982 687
Africa 687
di@@ 687
kutafuta 687
Kigoma 686
Muungano 686
Mkristo 685
alipokuwa 685
jenasi 685
k 685
ulit@@ 685
anam@@ 684
kuk@@ 683
kinga 682
ula 682
1981 681
Baraza 681
Shirikisho 681
Wah@@ 681
unganisha 681
1986 679
awi 679
walipo@@ 679
zil@@ 679
imet@@ 678
ukweli 678
African 677
Wag@@ 677
yam@@ 677
uzito 675
t 674
usha 674
Mb@@ 673
fu@@ 673
mapinduzi 673
Petro 672
alichaguliwa 671
makala 671
Mtwara 670
Somalia 669
tukio 669
Milima 668
amri 668
iv@@ 668
alipokea 667
bu@@ 667
majaribio 666
Ubelgiji 665
Ufalme 664
mtayarishaji 664
omo 664
hop 663
iliyopita 663
jeni 663
VVU 662
ino 662
kiungo 662
si@@ 662
th@@ 662
Galana 661
elewa 661
map@@ 661
akam@@ 660
inayot@@ 660
yal@@ 660
yanayo@@ 660
1985 658
As@@ 658
Mfalme 658
polisi 658
1984 657
El 656
FIFA 656
Pius 656
katiba 656
kua 656
udi 656
anzisha 655
kupokea 655
mitatu 654
nakala 654
one 654
wap@@ 654
Austria 652
angani 652
uti 652
waliouawa 652
William 651
fupi 651
mawe 651
pata 651
uzazi 651
aribu 649
wanaheshimiwa 649
ezwa 648
Habari 647
Kilimanjaro 647
ilim@@ 647
mayai 647
vikundi 647
vit@@ 647
wanao@@ 647
5@@ 646
Hadi 646
ei 646
herufi 646
wanajeshi 646
du 645
ene 645
or 645
wach@@ 645
engwa 644
mbegu 644
ole 644
Mama 643
end@@ 643
oz@@ 643
sherehe 642
George 641
g 641
wezesha 641
Athi 640
hip 640
simu 640
Kut@@ 639
hawak@@ 639
kula 639
kinyume 638
Kaisari 636
Msumbiji 636
pokea 636
usimamizi 636
wachache 636
2@@ 635
Paul 635
sura 635
60 634
man 634
mt@@ 634
walim@@ 634
wafanyakazi 633
en 632
osi 632
unao@@ 632
iliyopo 631
baharini 630
FC 629
Joseph 629
Unguja 629
hat@@ 629
mawazo 629
Jua 628
Jeshi 627
l 627
vituo 627
gesi 626
Utafiti 625
Alianza 624
tiba 623
Kaunti 622
chombo 622
wakilisha 622
watatu 622
waziri 622
Chini 621
Zambia 620
waka@@ 620
Iko 619
ep@@ 619
ilitolewa 619
mirefu 619
toka 619
wani 619
* 618
Ame@@ 618
Malcolm 618
amua 618
jijini 618
kisayansi 618
Taasisi 617
Uchaguzi 617
kijijini 617
ng@@ 617
osh@@ 617
kutosha 616
sayari 616
Mi@@ 615
bi@@ 615
ih@@ 614
siri 614
waliot@@ 614
vil@@ 613
500 612
ike 612
kuongezeka 612
ume@@ 612
K.K. 611
Sabaki 611
Th@@ 610
huyu 610
vikuu 610
mashairi 609
eri 608
majira 608
neema 608
asi@@ 607
matunda 607
National 606
kutambua 606
Uswidi 605
n 605
iriki 604
kuv@@ 604
nia 604
z 604
eh@@ 603
ishirini 603
R 602
mifumo 602
nadharia 602
zina@@ 602
CCM 601
wachezaji 601
1,@@ 600
lime@@ 600
misitu 600
oga 600
shida 600
Wap@@ 599
kumu@@ 599
mik@@ 599
ora 599
ou 599
ra 599
ujuzi 599
mwana 597
nguo 597
ush@@ 596
viungo 596
6@@ 595
Hatimaye 595
Saint 595
anay@@ 595
ilikadiriwa 595
80 594
eleza 594
nzima 594
Mah@@ 593
hospitali 593
kuleta 593
mikubwa 593
mwanaharakati 593
unguza 593
X 592
un 592
Kan@@ 591
esi 591
kidini 591
kuenea 591
nini 591
alfabeti 590
6,@@ 589
kupatikana 589
ulia 589
East 588
haj@@ 588
mapigano 588
walianza 588
1964 587
Jiografia 587
ere 587
milki 587
7,@@ 586
Bora 586
Robert 586
kaka 586
majani 586
waf@@ 586
walik@@ 586
Awards 585
rahisi 585
5,@@ 584
Lu@@ 584
alis@@ 584
aliwahi 584
nayo 584
are 583
kusema 583
uzalishaji 583
ge 582
indwa 582
kiroho 582
mikono 582
unganishwa 582
Matumizi 581
zik@@ 581
UKIMWI 580
amo 580
nyeupe 580
Charles 579
er 579
kuhamia 579
nishati 579
vifo 579
Kituo 577
avu 577
ulimwenguni 577
ushirikiano 577
vyama 577
pewa 576
ungo 576
gharama 575
ilipo@@ 575
kundinyota 575
le 575
zinazot@@ 574
1950 572
Benki 572
mal@@ 572
peke 572
South 571
Uajemi 571
uh@@ 571
amp@@ 570
dogo 570
kiko 570
alisoma 569
kui@@ 569
mingine 569
San 568
dakika 568
ena 568
fika 568
kilometa 568
madini 568
Nile 567
afu 567
bu 567
chuma 567
endesha 567
msh@@ 567
ngoma 567
uliot@@ 567
David 566
sa 566
3,@@ 565
mipango 565
70 564
mpangilio 564
uny@@ 564
viwili 564
+ 563
Tabora 563
umuhimu 562
300 561
International 561
elementi 561
ongezeka 561
Kagera 560
amekuwa 560
milele 560
ndefu 560
Di@@ 559
je 559
kab@@ 559
kutoweka 559
Jumuiya 558
chenye 558
kimoja 558
mkurugenzi 558
single 558
usalama 558
amet@@ 557
mia 557
sahihi 557
Kisha 556
kub@@ 556
ulinzi 556
yanaelekea 556
yangu 556
# 555
aliweza 555
kar@@ 555
nyama 555
Ag@@ 554
apo 554
ham@@ 554
iitwayo 554
kufuatana 554
mahitaji 554
3@@ 553
Njia 553
Viungo 553
lote 553
maskini 553
ume 553
war@@ 553
eshwa 552
medali 552
Nam@@ 551
Records 551
ip@@ 551
ukiwa 551
ukoo 551
90 550
aliendelea 550
alipewa 550
lina@@ 550
bo@@ 549
fasihi 549
vyuo 549
Kwenye 548
benki 548
jadi 548
majengo 548
mzuri 548
viumbe 548
Lindi 547
kush@@ 547
nyekundu 547
och@@ 547
r 547
tatizo 547
Senegal 546
aliyet@@ 546
athiriwa 546
row 546
Mpaka 545
North 545
imo 545
ushahidi 545
Guthrie 544
Sayansi 544
esh@@ 544
wanamuziki 544
waj@@ 543
akit@@ 542
aliteuliwa 542
ola 542
aye 541
eng 541
thamani 541
vipimo 541
1979 540
falsafa 540
400 539
Manchester 539
kile 539
mwanafunzi 539
ongezeko 539
yat@@ 539
aha 538
ilia 538
inap@@ 538
isiyo 538
Kihindi 537
Maendeleo 537
Ru@@ 537
ofanya 537
Mwezi 536
ende 536
huweza 536
kuimba 536
1977 535
ad 535
Peter 534
Mwanza 533
Ndugu 533
du@@ 533
kitovu 533
1978 532
Huko 532
Jackson 532
kijana 532
os 532
School 531
akat@@ 531
1983 530
TV 530
kupita 530
zinat@@ 530
Biashara 529
Mfano 529
kisheria 529
mit@@ 529
adi@@ 528
we@@ 528
Mtaguso 527
kuacha 527
zilit@@ 527
zwa 527
kitamaduni 526
1975 525
Mapinduzi 525
imara 525
mashamba 525
olo 525
World 524
aliza 524
athiri 524
Jersey 523
unguka 523
10,000 522
Kiebrania 522
Pili 522
fainali 522
King@@ 521
akifunga 521
be 521
kukaa 521
kuongoza 521
onyeshwa 521
risasi 521
unat@@ 521
Hifadhi 520
Mkoani 520
Pwani 520
Ut@@ 520
har@@ 520
ingi 520
Kutoka 519
maelezo 519
q@@ 519
shinikizo 519
Muhammad 518
Wazungu 518
hal@@ 518
ujumbe 518
Map@@ 517
Michezo 517
a.@@ 517
atwa 517
husika 517
Wad@@ 516
it 516
mapafu 516
waandishi 516
... 515
Gregori 514
afanya 514
mtaalamu 514
Alit@@ 513
ato 513
engenezwa 513
hisia 513
osha 513
uo 513
usafiri 513
zilizot@@ 513
Ad@@ 512
Kundi 512
daktari 512
kufuatia 512
mchakato 512
ungana 512
usu 512
vilivy@@ 512
1969 511
jangwani 511
magari 511
mazao 511
taratibu 511
uu 511
Mis@@ 510
utu 510
zime@@ 510
ndipo 509
nyakati 509
uzwa 509
1976 508
Ruvuma 508
inajulikana 508
-@@ 507
ilipata 507
wanak@@ 507
Basi 506
Music 506
anyika 506
1963 505
Mali 505
maoni 505
mipaka 505
sera 505
ulu 505
umb@@ 505
Mombasa 504
lilit@@ 504
takribani 504
8,@@ 503
Mus@@ 503
apata 503
mazoezi 503
wenzao 503
Argentina 502
bin 502
ej@@ 502
kisiwani 502
kuuza 502
li 502
vidogo 502
Alipata 501
Kirusi 501
hesabu 501
minne 501
tawi 501
unaot@@ 501
zi@@ 501
alo 500
ubali 500
wowote 500
Sous 499
inak@@ 499
kujitawala 499
mapenzi 499
gani 498
kukuza 498
mah@@ 498
mstari 498
ri 498
usa 498
Utawala 497
ajabu 497
barafu 497
hupatikana 497
kavu 497
préfecture 497
upasuaji 497
yana 496
1972 495
azo 495
bi 495
scope 495
vim@@ 495
bei 494
dada 494
kibiashara 494
ukuaji 494
angazwa 493
umwa 493
anya 492
hutoa 492
ilhali 492
kud@@ 492
mwenyekiti 492
to@@ 492
ubaguzi 492
ulianza 492
hufanya 491
kukua 491
suala 491
Kich@@ 490
w 490
Askofu 489
War@@ 489
Wikipedia 489
ami 489
IV 488
Kat@@ 488
kich@@ 488
usi@@ 488
Chi@@ 487
inayoitwa 487
mashine 487
mwanga 487
1961 486
1974 486
Hu@@ 486
Town 486
Uchumi 486
wanat@@ 486
kalenda 485
mar@@ 485
mzima 485
ulianzishwa 485
ya@@ 485
Juu 484
Ko@@ 484
Uswisi 484
ambia 484
kuondoka 484
kushindwa 484
Kivuka 483
You 483
ibu 483
iku@@ 483
jinsia 483
kij@@ 483
vy@@ 483
2,@@ 482
Iringa 482
huj@@ 482
injini 482
matatu 482
muungano 482
Is@@ 481
Kulingana 481
Singida 481
Vilevile 481
akuwa 481
yana@@ 481
yeyote 481
Ndege 480
elezea 480
iliwa 480
upana 480
waz@@ 480
9,@@ 479
Nyerere 479
alichunguza 479
alikua 479
etea 479
ev@@ 479
hula 479
ida 479
O 478
akana 478
asidi 478
huenda 478
tovuti 478
Malawi 477
Pakistan 477
kid@@ 477
1973 476
Kioseaniki 476
Nak@@ 476
Ndiyo 476
ath@@ 476
kubali 476
alimtangaza 475
chumvi 475
emba 475
mti 475
wasichana 475
El@@ 474
V 474
mk@@ 474
mkali 474
rafiki 474
1967 473
alish@@ 473
mis@@ 473
polepole 473
Ilikuwa 472
angi 472
hur@@ 472
ni@@ 472
protini 472
sumu 471
data 470
udongo 470
ukua 470
urithi 470
Urefu 469
bo 469
utendaji 469
wazo 469
alitumia 468
haw@@ 468
kurekodi 468
kutu@@ 468
ge@@ 467
iro 467
kampeni 467
marufuku 467
Washington 466
azama 466
ifu 466
jengo 466
madhara 466
mpiga 466
runinga 466
Har@@ 465
mshairi 465
watawala 465
Kinapatikana 464
Mt@@ 464
Tofauti 464
aidia 464
ho@@ 464
husababisha 464
msimbo 464
ngumu 464
ui 464
dhana 463
iwe 463
mapya 463
Kihispania 462
Kitui 462
Ndani 462
desturi 462
kujua 461
uandishi 461
uv@@ 461
Bo@@ 460
oo 460
wasio 460
yanat@@ 460
1965 459
Kur@@ 459
isa 459
safi 459
wageni 459
Duniani 458
alishiriki 458
kuuawa 458
man@@ 458
Anatolia 457
abati 457
alifunga 457
eke 457
ipo 457
wakuu 457
Mt 456
alirudi 456
kombe 456
mwan@@ 456
ncha 456
Mambo 455
hati 455
kukubali 454
nasaba 454
vik@@ 454
zifuatazo 454
Mkutano 453
umi 453
yanayot@@ 453
anayejulikana 452
bilioni 452
Wengine 451
anak@@ 451
anap@@ 451
ilivyo 451
mwingi 451
aweza 450
hum@@ 450
majukumu 450
wetu 450
Ina 449
Moroko 449
emb@@ 449
iliyop@@ 449
mapato 449
metali 449
neva 449
oj@@ 449
sio 449
ako 448
homa 448
35 447
Haki 447
1971 446
andaa 446
kipimo 446
kizazi 446
mgongo 446
Billboard 445
N 445
emi 445
ono 445
p 445
Afya 444
Sababu 444
matendo 444
ote 444
sa@@ 444
waamini 444
aanisha 443
kutumiwa 443
zilizo 443
Zaidi 442
anat@@ 442
bao 442
su@@ 442
uba 442
wakimbizi 442
kk 441
kubadilisha 441
labda 441
mzunguko 441
vyakula 441
yi 441
ingo 440
mchanga 440
mdomo 440
Ka@@ 439
Mp@@ 439
Uhuru 439
anzishwa 439
be@@ 439
chi 439
kiini 439
ko@@ 439
vipande 439
1962 438
Richard 438
ee 438
kan@@ 438
kuendeleza 438
kuondoa 438
nuru 438
ain@@ 437
hup@@ 437
kibinafsi 437
mitano 437
Kata 436
makampuni 436
mitindo 436
uia 436
undisha 436
wanaj@@ 436
angulia 435
jamhuri 435
sugu 435
ue 435
wakifuata 435
Kap@@ 434
Mahakama 434
Mor@@ 434
River 434
dia 434
undi 434
wenda 434
Kisovyeti 433
akim@@ 433
mtawala 433
Awali 432
Ufilipino 432
University 432
kujitegemea 432
msimamo 432
ongeza 432
pembe 432
uhai 432
1945 431
Mtu 431
Timu 431
jumuisha 431
kibinadamu 431
kuitwa 431
kuwat@@ 431
ago 430
linaloitwa 430
se@@ 430
ukosefu 430
Tunisia 429
haswa 429
mad@@ 429
michuano 429
mmonaki 429
Black 428
Wagiriki 428
Waj@@ 428
lililo@@ 428
lim@@ 428
maaskofu 428
mi 428
Denmark 427
inapatikana 427
kufunga 427
kuigiza 427
wazima 427
ziko 427
Q@@ 426
Si@@ 426
haku@@ 426
ingatia 426
kupanda 426
miradi 426
sekta 426
wen@@ 426
Mg@@ 425
Mtanzania 425
Nchini 425
makanisa 425
Familia 424
Kish@@ 424
awishi 424
kug@@ 424
madaraka 424
nyeusi 424
ta@@ 424
wewe 424
Bikira 423
nafsi 423
wahi 423
Nd@@ 422
haz@@ 422
kufundisha 422
ru@@ 422
32 421
Thomas 421
daima 421
hakika 421
E 420
anywa 420
ika@@ 420
kulia 420
madawa 420
Jiji 419
Poland 419
tamaduni 419
alil@@ 418
de@@ 418
hinda 418
kuboresha 418
kudhibiti 418
uzima 418
wakulima 418
wokovu 418
yaliyot@@ 418
Hivi 417
U 417
haina 417
ifanya 417
kulevya 417
kupewa 417
kutawala 417
ung 417
1966 416
Massachusetts 416
esabiwa 416
oy@@ 416
Mit@@ 415
Tibeti 415
ajiri 415
ay 415
elfu 415
taa 415
Ili 414
Mashindano 414
kuongea 414
vilivyo@@ 414
Kiyahudi 413
Martin 413
Park 413
gitaa 413
ikiwemo 413
ind@@ 413
kupinga 413
mnyama 413
osababisha 413
pi 413
1968 412
Bay 412
Chanzo 412
inaf@@ 412
lile 412
pan@@ 412
uku 412
Mfumo 411
Mkurugenzi 411
jarida 411
jo 411
ol 411
tawimto 411
Kup@@ 410
Pasifiki 410
ahidi 410
ilish@@ 410
kuzingatia 410
oksijeni 410
urahisi 410
D 409
Mbali 409
UEFA 409
Nyam@@ 408
aliishi 408
mwilini 408
uhusu 408
Kisino 407
Lagos 407
Ok@@ 407
T 407
mahakama 407
mungu 407
ukuliwa 407
weusi 407
Sal@@ 406
alif@@ 406
euliwa 406
mtazamo 406
sha 406
vu 406
watumiaji 406
aliamua 405
ir 405
iti@@ 405
kal@@ 405
shirikisho 405
ukia 405
Par@@ 404
Waf@@ 404
baadae 404
idae 404
meno 404
vinavyo@@ 404
profesa 403
utambuzi 403
Bur@@ 402
Uk@@ 402
kujifunza 402
linalo@@ 402
sikukuu 402
tamthilia 402
uharibifu 402
Kiz@@ 401
aji@@ 401
nywele 401
ombo 401
uigizaji 401
yule 401
ga 400
kuanzishwa 400
kuta 400
tamasha 400
wanaishi 400
Mer@@ 399
endo 399
kiz@@ 399
umo 399
wali 399
ze 399
Shahada 398
chukua 398
engeneza 398
ij@@ 398
kifaa 398
ondoa 398
utumwa 398
yame@@ 398
Sam@@ 397
ba@@ 397
bonde 397
hawana 397
inayopatikana 397
kiti 397
muongo 397
… 397
34 396
Kamati 396
Kiroma 396
Maeneo 396
Tiba 396
ajali 396
aliye 396
kam@@ 396
madai 396
chochote 395
em 395
iny@@ 395
kule 395
ondo 395
Mazingira 394
Mur@@ 394
aliyem@@ 394
iy@@ 394
kisanii 394
tajiri 394
vipengele 394
Mwanzoni 393
Wizara 393
adhabu 393
aliyezaliwa 393
mateso 393
mz@@ 393
homoni 392
jipya 392
malaria 392
undo 392
wafanyabiashara 392
huz@@ 391
irikiana 391
marafiki 391
taaluma 391
wezi 391
eko 390
hujulikana 390
kon@@ 390
kuweza 390
mbinguni 390
Kiv@@ 389
M 389
Nyota 389
hisi 389
kuhitimu 389
kupanga 389
kutekeleza 389
malengo 389
Teknolojia 388
endeleza 388
kemikali 388
ulio 388
600 387
En@@ 387
Katibu 387
inayojulikana 387
kuzaa 387
magazeti 387
rasi 387
saratani 387
takatifu 387
wash@@ 387
Kor@@ 386
Tun@@ 386
hay@@ 386
ikit@@ 386
inaitwa 386
kumaanisha 386
msaidizi 386
yu 386
Love 385
Up@@ 385
aliyo@@ 385
huohuo 385
jangwa 385
kilele 385
wasiwasi 385
Bara 384
kuku 384
sinema 384
tumbo 384
uhusiwa 384
Berlin 383
awiwa 383
orodheshwa 383
1,000 382
Mik@@ 382
Ol@@ 382
angalau 382
iliyoko 382
jit@@ 382
linat@@ 382
pu@@ 382
Kw@@ 381
ishe 381
kas@@ 381
kushirikiana 381
mahusiano 381
kifalme 380
vinavy@@ 380
800 379
ew@@ 379
mshambuliaji 379
okuwa 379
penda 379
unza 379
ushwa 379
$ 378
Anajulikana 378
Baringo 378
iliyofuata 378
mbadala 378
wamisionari 378
Konstantinopoli 377
Nyimbo 377
mbwa 377
ondoka 377
upepo 377
adili 376
awa@@ 376
kufu@@ 376
makosa 376
son 376
taji 376
unja 376
7@@ 375
Namibia 375
Watoto 375
mchana 375
1000 374
Jipya 374
King 374
Una 374
atikana 374
awamu 374
endeshwa 374
idara 374
igwa 374
volkeno 374
wanaot@@ 374
Hadithi 373
oda 373
wajibu 373
wangu 373
1958 372
Bu@@ 372
Kon@@ 372
Nj@@ 372
evu 372
furaha 372
ju@@ 372
kikoloni 372
mabaki 372
wazee 372
1959 371
33 371
Miji 371
Party 371
afisa 371
atu 371
yalit@@ 371
yaliyo 371
Coast 370
Ireland 370
Kipama 370
Li@@ 370
Mon@@ 370
Rasi 370
afiri 370
akia 370
angu 370
mwelekeo 370
ovu 370
te 370
zinabaki 370
11,@@ 369
Johannesburg 369
Narok 369
kat@@ 369
kibao 369
kubeba 369
ikilia 368
kamati 368
koo 368
kuunganisha 368
mabaya 368
ond@@ 368
opatikana 368
sin@@ 368
Eritrea 367
Mach@@ 367
Viktoria 367
ameichezea 367
anzia 367
zit@@ 367
Bal@@ 366
DJ 366
Madrid 366
irika 366
kigeni 366
shaba 366
uhandisi 366
uishe 366
upungufu 366
utengenezaji 366
yo@@ 366
Il@@ 365
Kanda 365
Kimarekani 365
Kiw@@ 365
Sar@@ 365
alij@@ 365
endi 365
ezea 365
ilis@@ 365
mhusika 365
ungumza 365
urais 365
1930 364
Kij@@ 364
ake 364
andaliwa 364
anzi 364
ilo 364
kupungua 364
mila 364
ngono 364
ubora 364
von 364
ziara 364
zisizo 364
Jean 363
Wareno 363
huadhimisha 363
hul@@ 363
udhibiti 363
wekwa 363
Alimfuata 362
Kipindi 362
angavu 362
c 362
kutetea 362
lahaja 362
maafisa 362
st@@ 362
tafsiri 362
uga 362
Central 361
Mo@@ 361
agua 361
aliuawa 361
aulu 361
jumuiya 361
kikamilifu 361
kom@@ 361
kuelewa 361
ofu 361
pen@@ 361
vis@@ 361
wafalme 361
Ana 360
Huduma 360
Kiroho 360
Rufiji 360
Sultani 360
Vijana 360
alivy@@ 360
imb@@ 360
inataja 360
lit@@ 360
patikana 360
8,000 359
Bi@@ 359
Kichina 359
Malaysia 359
Ni@@ 359
ahamika 359
chumba 359
fikia 359
iliyotolewa 359
jumba 359
liko 359
sanamu 359
uwepo 359
36 358
Chad 358
Mohamed 358
aguliwa 358
bar@@ 358
by 358
haiku@@ 358
linaweza 358
maarifa 358
Los 357
awaliwa 357
bia 357
eleka 357
jiunga 357
magadi 357
uku@@ 357
upili 357
Henry 356
Ky@@ 356
Mil@@ 356
Msingi 356
ani@@ 356
j 356
kadhalika 356
kana 356
5,000 355
Alipo@@ 355
Amani 355
beba 355
hakuwa 355
hoteli 355
mash@@ 355
ore 355
uki 355
vyenye 355
Hungaria 354
Takwimu 354
Ub@@ 354
chao 354
indi 354
omu 354
pasipo 354
Arsenal 353
Karne 353
Musa 353
Mzee 353
Uko 353
anz@@ 353
kia 353
matawi 353
mifano 353
unap@@ 353
é@@ 353
0,000 352
Mwishoni 352
Shinyanga 352
ambaa 352
apishwa 352
hisa 352
kuchangia 352
kushoto 352
kusudi 352
penye 352
10,@@ 351
Julius 351
Mwana 351
adilisha 351
hav@@ 351
mimi 351
oi 351
Or@@ 350
Waz@@ 350
inaadhimishwa 350
kambi 350
liturujia 350
tasnia 350
ubu 350
vyanzo 350
zaa 350
Mwalimu 349
Postikodi 349
azamwa 349
kish@@ 349
mtangazaji 349
ony@@ 349
thelathini 349
1957 348
20@@ 348
Louis 348
Waliozaliwa 348
aria 348
bodi 348
haja 348
imbi 348
karatasi 348
min@@ 348
Nakuru 347
Ta@@ 347
Tabia 347
adiriwa 347
ambamo 347
andi 347
hamu 347
mwamba 347
tar@@ 347
und@@ 347
walis@@ 347
Far@@ 346
anaye@@ 346
lia 346
waliuawa 346
Mediteranea 345
Mitume 345
Nyungan 345
ey@@ 345
ezaji 345
mada 345
mume 345
embelea 344
kip@@ 344
makumbusho 344
uamuzi 344
undu 344
Ham@@ 343
Kumbe 343
VI 343
Wadogo 343
chanjo 343
hisabati 343
mishipa 343
takwimu 343
usika 343
wanas@@ 343
watawa 343
1940 342
K 342
Ser@@ 342
iba 342
mgonjwa 342
mkoani 342
pas@@ 342
uhusika 342
ukumbi 342
wakit@@ 342
wanne 342
Kufikia 341
anas@@ 341
ataa 341
elea 341
hofu 341
iliendelea 341
iliyoitwa 341
im 341
maandiko 341
mabawa 341
makali 341
onge 341
8@@ 340
akifanya 340
laini 340
mahindi 340
onesha 340
par@@ 340
waliop@@ 340
ziada 340
Toleo 339
ame 339
azidi 339
ek 339
hewani 339
kh@@ 339
linatokana 339
ripoti 339
taka 339
tia 339
walifariki 339
TANU 338
Ur@@ 338
hadhi 338
inaonekana 338
ku 338
teolojia 338
Me 337
Se@@ 337
f 337
hana 337
jumuia 337
kutibu 337
mwake 337
panya 337
tendo 337
tut@@ 337
45 336
Her@@ 336
Kadiri 336
Syria 336
beki 336
fun@@ 336
hali@@ 336
sadaka 336
walimu 336
Gu@@ 335
Man 335
St@@ 335
Utamaduni 335
XIII 335
kuandaa 335
misingi 335
visa 335
1948 334
Milki 334
Ruyigi 334
alionekana 334
jenga 334
maradhi 334
pop 334
ugu 334
ushawishi 334
wanam@@ 334
ye@@ 334
1956 333
Nje 333
ambulika 333
mhandisi 333
salama 333
Benin 332
Kol@@ 332
Te@@ 332
isitiza 332
vibaya 332
walish@@ 332
1954 331
Matokeo 331
Palestina 331
baraza 331
duni 331
ilich@@ 331
kukimbia 331
kulinda 331
ufanisi 331
33@@ 330
Wengi 330
XII 330
alitangaza 330
gavana 330
iliyozungumzwa 330
kipekee 330
mauzo 330
mkusanyiko 330
Alifanya 329
Kh@@ 329
angia 329
ed 329
inapo@@ 329
inas@@ 329
lolote 329
mema 329
mfanyabiashara 329
pot@@ 329
sik@@ 329
waliweza 329
1949 328
Makueni 328
Maz@@ 328
Pemba 328
UB 328
alisha 328
ando 328
he 328
mwenzake 328
uy@@ 328
waliz@@ 328
yasiyo 328
Ghuba 327
Mary 327
Mug@@ 327
enti 327
kimsingi 327
kinacho@@ 327
kuendesha 327
lingine 327
mach@@ 327
miundo 327
mkia 327
700 326
Amechaguliwa 326
May@@ 326
aliitwa 326
ambulia 326
isim@@ 326
kiasili 326
kuit@@ 326
ome 326
X@@ 325
edi 325
ho 325
kupambana 325
kuua 325
mikutano 325
mkopo 325
sisi 325
Waswahili 324
kijani 324
kitengo 324
olea 324
rapa 324
walitumia 324
Kiny@@ 323
Meru 323
Nyeusi 323
Su@@ 323
Yosefu 323
do@@ 323
engo 323
esa 323
imep@@ 323
kaboni 323
kujit@@ 323
kumt@@ 323
malipo 323
mapadri 323
pe@@ 323
Ber@@ 322
F.C. 322
Hassan 322
Maana 322
Mahali 322
Mexico 322
Video 322
aro 322
ete 322
kutunga 322
mitaa 322
tishu 322
vigumu 322
Klabu 321
Kun@@ 321
Mkataba 321
jaribio 321
kipya 321
miungu 321
ur 321
vinaweza 321
yon@@ 321
Award 320
Benedikto 320
G 320
Moshi 320
Wataalamu 320
fani 320
imwa 320
malkia 320
michache 320
Kus@@ 319
L 319
Mifano 319
Ofisi 319
Way@@ 319
arajiwa 319
il 319
kukosa 319
1920 318
1@@ 318
Jazz 318
Kiulaya 318
Manyara 318
Mwisho 318
Real 318
Sa@@ 318
achia 318
alipot@@ 318
chan@@ 318
elezwa 318
ero 318
inde 318
kodi 318
magumu 318
moshi 318
ofaa 318
onda 318
uw@@ 318
wahusika 318
1947 317
De@@ 317
Georgia 317
Idara 317
My 317
akis@@ 317
imbia 317
ingi@@ 317
kukusanya 317
mo@@ 317
ungi 317
kir@@ 316
shindano 316
tazama 316
2,000 315
37 315
Anaheshimiwa 315
Az@@ 315
Daniel 315
Dawa 315
Gitega 315
Homa 315
Iran 315
hamsini 315
huishi 315
kig@@ 315
kuruka 315
mazuri 315
nyuklia 315
pi@@ 315
vikubwa 315
Car@@ 314
St. 314
itumia 314
kahawa 314
mchango 314
mmea 314
uliza 314
Afghanistan 313
Alicheza 313
Edward 313
Maelezo 313
Maf@@ 313
enge 313
kupoteza 313
mpakani 313
ubunifu 313
waliendelea 313
Kampala 312
alikufa 312
fa 312
hifadhiwa 312
maduka 312
no 312
ofanywa 312
wahamiaji 312
1918 311
23@@ 311
Ang@@ 311
Angeles 311
Brown 311
Pulitzer 311
alimu@@ 311
funguvisiwa 311
miz@@ 311
sm 311
uvamizi 311
Ay@@ 310
Be@@ 310
ambulisha 310
ezo 310
ikana 310
kupima 310
meneja 310
utia 310
wanap@@ 310
1955 309
Alisoma 309
Ikiwa 309
aminika 309
kina@@ 309
maf@@ 309
mavazi 309
re@@ 309
ri@@ 309
vikosi 309
wito 309
100,000 308
3,000 308
Hospitali 308
Kajiado 308
Kiasia 308
abaki 308
eba 308
hekalu 308
imekaribia 308
kujiua 308
lenyewe 308
ro 308
wanadamu 308
20,000 307
Le@@ 307
Simba 307
ahitaji 307
ambi 307
halijoto 307
ishiwa 307
jen@@ 307
masaa 307
zimet@@ 307
DNA 306
Karibi 306
Min@@ 306
Muda 306
Wafiadini 306
Wang@@ 306
endwa 306
kor@@ 306
likiwa 306
molekuli 306
nyoka 306
— 306
1952 305
Dalili 305
Sheikh 305
alichukua 305
anayet@@ 305
balozi 305
mapatano 305
mtaa 305
ok 305
tamaa 305
Academy 304
Bas@@ 304
Karibu 304
ic@@ 304
iliana 304
izwa 304
jengwa 304
kifedha 304
kutunza 304
lililot@@ 304
linalot@@ 304
Elizabeth 303
Kum@@ 303
Mut@@ 303
asubuhi 303
azwa 303
ef@@ 303
iliyoanzishwa 303
jitokeza 303
la@@ 303
mgombea 303
ofautiana 303
peleka 303
Albert 302
Bongo 302
Daudi 302
One 302
Waisraeli 302
Waroma 302
igiza 302
imbwa 302
kilicho@@ 302
kusafiri 302
makoloni 302
matangazo 302
nyuzi 302
vyao 302
wamet@@ 302
Lo@@ 301
Nyak@@ 301
Smith 301
Ugonjwa 301
Wash@@ 301
afuata 301
alip@@ 301
ayarishwa 301
x@@ 301
12,@@ 300
Mich@@ 300
State 300
ghafla 300
gi@@ 300
masharti 300
miamba 300
47 299
Ha@@ 299
Victoria 299
ache 299
adilika 299
amiwa 299
fuatwa 299
halali 299
mifugo 299
mifupa 299
pana 299
shamba 299
tak@@ 299
vijijini 299
vipaji 299
County 298
kumw@@ 298
walifanya 298
Bus@@ 297
Halafu 297
Jumba 297
Ms@@ 297
ey 297
imbo 297
mg@@ 297
misuli 297
mitandao 297
mwenyeji 297
oidi 297
ot 297
pos@@ 297
Barcelona 296
De 296
Mbinu 296
Muundo 296
Na@@ 296
Nyeri 296
Tume 296
Wav@@ 296
anaj@@ 296
ant@@ 296
anti 296
kifodini 296
lilianzishwa 296
sekunde 296
uliofuata 296
umbe 296
umet@@ 296
Jubba 295
Lee 295
Wafaransa 295
a. 295
arobaini 295
bure 295
id 295
ingana 295
isti 295
manispaa 295
mashabiki 295
wab@@ 295
Alishinda 294
It 294
Kiitalia 294
Zealand 294
ainishwa 294
aliv@@ 294
amizi 294
asema 294
kinachot@@ 294
kutangaza 294
mkojo 294
ukuta 294
Ben@@ 293
Jambo 293
Kenyatta 293
Sekondari 293
Us@@ 293
Wany@@ 293
Yakobo 293
ajulikana 293
anah@@ 293
hariri 293
kadi 293
kimwili 293
kuungana 293
lo 293
mjumbe 293
usafi 293
1900 292
Geita 292
Ig@@ 292
Me@@ 292
Norwei 292
ekwa 292
giza 292
kuchaguliwa 292
kuhakikisha 292
kuwapa 292
mwanariadha 292
njaa 292
sigara 292
uteuzi 292
uzoefu 292
35@@ 291
Sasa 291
Watakatifu 291
bahati 291
kikapu 291
kosa 291
maili 291
misaada 291
om 291
ist@@ 290
kuzalisha 290
msichana 290
onia 290
tabaka 290
fursa 289
irikisha 289
kuamua 289
kuzi@@ 289
mkondo 289
mzee 289
sim@@ 289
so@@ 289
tambarare 289
wapinzani 289
1946 288
Hot 288
Uz@@ 288
ambukizwa 288
br@@ 288
mf@@ 288
ondolewa 288
ongezwa 288
uasi 288
Niger 287
Times 287
aliongoza 287
anapo@@ 287
haik@@ 287
majeraha 287
mumewe 287
ro@@ 287
sal@@ 287
watano 287
150 286
1953 286
Ba@@ 286
Kireno 286
Sim@@ 286
Texas 286
astronomia 286
athira 286
farasi 286
kamwe 286
kuchunguza 286
udumu 286
Mwanzo 285
achukua 285
biwa 285
bwana 285
kirefu 285
lebo 285
utalii 285
wachanga 285
zinapatikana 285
Kiambu 284
Kikatoliki 284
Kimungu 284
Pangani 284
Tak@@ 284
eki 284
elekeza 284
eshi 284
haikuwa 284
hiari 284
kiwa 284
le@@ 284
tim@@ 284
13,@@ 283
At@@ 283
Msh@@ 283
Njombe 283
Wana@@ 283
alihitimu 283
chembe 283
digrii 283
ehe 283
kukutana 283
marefu 283
okoa 283
ozi 283
weze 283
zilizokuwa 283
Foundation 282
Mabadiliko 282
abiria 282
anguka 282
fizikia 282
mlango 282
ne 282
njano 282
ramani 282
tr@@ 282
ufafanuzi 282
uke 282
usanya 282
wag@@ 282
Ir@@ 281
Khan 281
Kom@@ 281
Lin@@ 281
Muk@@ 281
ahi 281
akaendelea 281
alishwa 281
chu@@ 281
ese 281
hait@@ 281
kuzunguka 281
Buk@@ 280
Tam@@ 280
Wote 280
kijivu 280
uk 280
ushauri 280
wanapo@@ 280
yasiy@@ 280
Mun@@ 279
aliona 279
athirika 279
bendera 279
hukumu 279
indana 279
ishinda 279
jaribu 279
kubaliwa 279
tarakilishi 279
ubi 279
Karthago 278
Ti@@ 278
Wanyama 278
Ya 278
adui 278
aminiwa 278
awanyika 278
egem@@ 278
kitaaluma 278
kununua 278
kutana 278
maandamano 278
ms@@ 278
utajiri 278
weni 278
Juma 277
Kanuni 277
Matibabu 277
Serbia 277
Van 277
atomu 277
itia 277
kinat@@ 277
mshauri 277
mwangaza 277
mweusi 277
te@@ 277
unah@@ 277
upa 277
Bou@@ 276
Elfu 276
San@@ 276
Yoh 276
afa 276
alivyo@@ 276
anach@@ 276
ech@@ 276
ik 276
kuy@@ 276
lo@@ 276
mlipuko 276
opewa 276
tan@@ 276
utana 276
wapo 276
0@@ 275
900 275
J. 275
S 275
amuzi 275
huonekana 275
itaji 275
k.m. 275
ke@@ 275
kupumua 275
vyo@@ 275
49 274
Bururi 274
Kemia 274
Kifo 274
Kilele 274
Kiorthodoksi 274
avyo 274
babu 274
ichi 274
ilishinda 274
kilit@@ 274
kingine 274
ogopa 274
omwa 274
saini 274
sukari 274
ungumzia 274
uvuvi 274
washiriki 274
39 273
Kilimo 273
Lengo 273
Mz@@ 273
afaa 273
akafuatwa 273
akas@@ 273
ch 273
kuimarisha 273
kuny@@ 273
makamu 273
mikononi 273
mwanafizikia 273
nak@@ 273
vitendo 273
wakiwemo 273
zawadi 273
zima 273
1939 272
42 272
Chelsea 272
Fizikia 272
Takriban 272
avy@@ 272
elek@@ 272
haij@@ 272
igo 272
ivu 272
kahawia 272
kutaka 272
oe 272
pa@@ 272
usambazaji 272
utwa 272
vyema 272
yafuatayo 272
Du@@ 271
Rangi 271
Re@@ 271
Wana 271
ajira 271
alitaka 271
faa 271
ilivy@@ 271
imef@@ 271
kutenda 271
osababishwa 271
udisha 271
Aj@@ 270
Im@@ 270
Picha 270
ab 270
afu@@ 270
alikubali 270
hotuba 270
ishughulisha 270
masi 270
mbao 270
shu@@ 270
shuleni 270
uhamisho 270
wez@@ 270
wezekana 270
Mwenyekiti 269
Tatu 269
afsiriwa 269
bibi 269
etwa 269
huch@@ 269
ohusiana 269
usio 269
ustawi 269
Katiba 268
Libya 268
Mexiko 268
alikwenda 268
anikiwa 268
gu@@ 268
jamaa 268
kiafya 268
makundinyota 268
mhariri 268
1888 267
Bor@@ 267
E. 267
Kilwa 267
Uchunguzi 267
Vitabu 267
Wahispania 267
anaishi 267
ashiria 267
eno 267
huruma 267
iliz@@ 267
kuangalia 267
vid@@ 267
Andrea 266
Kak@@ 266
Said 266
UNESCO 266
Union 266
ganda 266
hawaj@@ 266
hazina 266
hekima 266
iriwa 266
ka@@ 266
ley 266
mazungumzo 266
mizigo 266
nyasi 266
pin@@ 266
ushirika 266
45@@ 265
Cha 265
Licha 265
Mwenyezi 265
Nepal 265
Sp@@ 265
_ 265
alir@@ 265
anaf@@ 265
bidii 265
inaz@@ 265
itisha 265
kunywa 265
ombea 265
pe 265
sabini 265
shabaha 265
vilivyo 265
1886 264
250 264
All 264
Mk@@ 264
Mpango 264
Mtoto 264
Mul@@ 264
Ngozi 264
burudani 264
gh@@ 264
mapambano 264
udia 264
ukanda 264
utakatifu 264
vina@@ 264
waji 264
waliok@@ 264
wanda 264
48 263
Kiti@@ 263
Moja 263
Per@@ 263
Sin@@ 263
hitimu 263
hoja 263
ihusisha 263
inaonyesha 263
kocha 263
kupo@@ 263
majadiliano 263
marehemu 263
ongwa 263
opata 263
uwa 263
14,@@ 262
Dini 262
Fasihi 262
Florida 262
Pasaka 262
Sak@@ 262
achwa 262
ami@@ 262
anafanya 262
c@@ 262
eto 262
ilihesabiwa 262
ilip@@ 262
majini 262
nyanda 262
petroli 262
unaopatikana 262
Bi 261
Ina@@ 261
Liberia 261
Togo 261
kadha 261
maumbile 261
nik@@ 261
yapo 261
38 260
Ime@@ 260
P. 260
Zamani 260
aje 260
kiny@@ 260
maelfu 260
omi 260
ser@@ 260
ufugaji 260
utiwa 260
Mdo 259
Soka 259
dansi 259
huanza 259
iliki 259
kandanda 259
kujulikana 259
kurudisha 259
land 259
manne 259
opo 259
uhakika 259
unuliwa 259
usishwa 259
uti@@ 259
utume 259
75 258
Alitokea 258
Bug@@ 258
IX 258
atak@@ 258
elezo 258
kamusi 258
liki@@ 258
mguu 258
mtendaji 258
osema 258
ubao 258
vina 258
viv@@ 258
Machakos 257
adilishwa 257
asia 257
ega 257
far@@ 257
hutegemea 257
misimu 257
ukamilifu 257
vikali 257
wad@@ 257
wanah@@ 257
Don 256
Sel@@ 256
Wach@@ 256
adil@@ 256
eshimiwa 256
hai@@ 256
kilichot@@ 256
mbuga 256
unguzwa 256
Jumapili 255
Kipapua 255
Moi 255
Muh@@ 255
Sala 255
aguzi 255
dutu 255
imi 255
matamshi 255
mitambo 255
nahodha 255
vilikuwa 255
55 254
Ger@@ 254
Hatua 254
Society 254
Ug@@ 254
inam@@ 254
jiwe 254
kuwas@@ 254
nafaka 254
oza 254
pelekea 254
re 254
tumaini 254
15,@@ 253
41 253
Abu 253
Armenia 253
Bah@@ 253
Rukwa 253
ele@@ 253
huf@@ 253
imes@@ 253
mahojiano 253
maigizo 253
mistari 253
nadra 253
ukawa 253
uzamili 253
wafanyikazi 253
waka 253
wema 253
American 252
FA 252
Simiyu 252
akij@@ 252
hitaji 252
kunako 252
mtaguso 252
waliona 252
zisiz@@ 252
1951 251
Chicago 251
La@@ 251
Mch@@ 251
Meksiko 251
Msimu 251
Tu@@ 251
dhaifu 251
inae 251
ingine 251
ingiza 251
ishika 251
jike 251
kijinsia 251
mv@@ 251
q 251
se 251
unene 251
zikiwa 251
Alexander 250
Alipokuwa 250
Mradi 250
anus 250
bunduki 250
don@@ 250
itajika 250
ite 250
ut 250
Mash@@ 249
Songwe 249
elo 249
kiwanda 249
mboga 249
pua 249
umekuwa 249
za@@ 249
9@@ 248
Binadamu 248
Gal@@ 248
Manisipaa 248
Sam 248
Uch@@ 248
age 248
ajiliwa 248
aliingia 248
fan@@ 248
kifua 248
kukataa 248
onyesho 248
sitini 248
sp@@ 248
tani 248
tisini 248
undua 248
Group 247
Imam 247
League 247
Romanum 247
akaanza 247
akaf@@ 247
ambatana 247
inawezekana 247
kueneza 247
kuishia 247
kupigwa 247
kuwekwa 247
muigizaji 247
ohusika 247
okaa 247
ufa 247
uliokuwa 247
watalii 247
ziki@@ 247
0.@@ 246
Ana@@ 246
Jones 246
Kinyume 246
M. 246
Rus@@ 246
Tena 246
aru 246
changamoto 246
darasa 246
hafla 246
iliyof@@ 246
ini@@ 246
kugundua 246
kuhifadhi 246
kuhusiana 246
limetokana 246
opita 246
utekelezaji 246
1.@@ 245
1941 245
Dar@@ 245
Hut@@ 245
Lyon 245
hawaku@@ 245
hutofautiana 245
inah@@ 245
iwapo 245
kumbe 245
maabara 245
maadui 245
makubaliano 245
ufundi 245
wizara 245
Democratic 244
Makamu 244
Waprotestanti 244
amej@@ 244
aweka 244
malezi 244
manyoya 244
ra@@ 244
ugumu 244
ukali 244
umbu@@ 244
zilizopo 244
1500 243
1914 243
C. 243
Gabon 243
Makamba 243
Martyrologium 243
P 243
Sifa 243
aliyefia 243
aribia 243
bas@@ 243
fahamu 243
kuvuta 243
mawaziri 243
mwanakemia 243
oba 243
obaki 243
waliom@@ 243
wamekuwa 243
wamonaki 243
1936 242
Barabara 242
College 242
Grammy 242
Madagaska 242
To@@ 242
apokuwa 242
des 242
hibiti 242
kujali 242
mtawa 242
nabii 242
ufu@@ 242
ungaji 242
wamebaki 242
watazamaji 242
wau@@ 242
1917 241
Kim 241
Kufuatia 241
Le 241
Tr@@ 241
Uyahudi 241
angazia 241
hayajulikani 241
kimbari 241
kufanikiwa 241
kutegemea 241
ladha 241
manufaa 241
na@@ 241
zidi 241
1944 240
B. 240
High 240
Imani 240
Kiajemi 240
Majina 240
Makumbusho 240
Sw@@ 240
afanana 240
akik@@ 240
anasema 240
dhati 240
has@@ 240
hud@@ 240
kiumbe 240
kudai 240
pon@@ 240
usisha 240
walipaswa 240
1933 239
Bel@@ 239
Kag@@ 239
Kijiji 239
Mabingwa 239
Majimbo 239
Ram@@ 239
Star 239
Um@@ 239
afi 239
amesh@@ 239
anja 239
bustani 239
fanikiwa 239
ibuka 239
kiowevu 239
mig@@ 239
niaba 239
ofanana 239
owahi 239
ubiri 239
wasomi 239
CD 238
Grand 238
Ilianzishwa 238
Kinaga 238
Kisumu 238
Sul@@ 238
Williams 238
alimaliza 238
atomi 238
der 238
eshaji 238
eze 238
inach@@ 238
kinapatikana 238
kitawa 238
unas@@ 238
unzwa 238
utoaji 238
Chakula 237
Gr@@ 237
Ho@@ 237
Kibo@@ 237
Sab@@ 237
ange 237
ava 237
hawezi 237
hin@@ 237
ibn 237
jukwaa 237
miili 237
mwen@@ 237
nyembamba 237
sam@@ 237
so 237
unua 237
utano 237
wakfu 237
43 236
44 236
Af@@ 236
Bon@@ 236
Island 236
Samburu 236
alimw@@ 236
aswa 236
baya 236
emekana 236
imegawanywa 236
jioni 236
kudumisha 236
kuvutia 236
limet@@ 236
sanifu 236
sia 236
utashi 236
walowezi 236
waumini 236
52 235
Mnara 235
Radio 235
Vit@@ 235
alikutana 235
emo 235
jozi 235
k.mf. 235
kitendo 235
kuwasaidia 235
maswali 235
mkononi 235
sk@@ 235
themanini 235
Daraja 234
Shughuli 234
akina 234
amef@@ 234
inayoh@@ 234
ingwa 234
kemia 234
kufanywa 234
kusimamia 234
licha 234
lishe 234
mabaharia 234
mizizi 234
vitatu 234
Aki@@ 233
Babeli 233
Jo@@ 233
Tar@@ 233
Tazama 233
Upili 233
Vienna 233
Wahindi 233
aliwa@@ 233
ardhini 233
fa@@ 233
haijulikani 233
hutolewa 233
kiserikali 233
mm 233
ndoto 233
obo 233
rasilimali 233
ten@@ 233
thi 233
waimbaji 233
wer@@ 233
3000 232
30@@ 232
House 232
Jack 232
Kiwango 232
Lamu 232
Moscow 232
Wiki 232
amka 232
asisi 232
fur@@ 232
hatarini 232
janga 232
kupelekwa 232
mshiriki 232
viumbehai 232
wasifu 232
zana 232
Antiokia 231
Association 231
Hip 231
Muyinga 231
aidiwa 231
akaj@@ 231
kuingiza 231
kutembea 231
mawimbi 231
msimamizi 231
umaskini 231
unapo@@ 231
van 231
£ 231
Bun@@ 230
Chile 230
Go 230
Kuhusu 230
adai 230
enya 230
ilisha 230
malaika 230
ujauzito 230
unu 230
uvimbe 230
wabunge 230
wateja 230
Alitangazwa 229
Bujumbura 229
Carey 229
Kiongozi 229
Ng 229
Safari 229
ababishwa 229
ahadi 229
ajumuisha 229
alipos@@ 229
ambu@@ 229
bikira 229
elektroni 229
hupata 229
ikilinganishwa 229
ilijulikana 229
ilisababisha 229
itikadi 229
kusikia 229
mu 229
osim@@ 229
somo 229
uaji 229
walil@@ 229
65 228
Es@@ 228
Huu 228
Ji@@ 228
alich@@ 228
azamiwa 228
kufungwa 228
kunaweza 228
kuvunja 228
kuwap@@ 228
tam@@ 228
tum@@ 228
unaf@@ 228
uwiano 228
waliishi 228
wanaf@@ 228
wi@@ 228
85 227
Hill 227
Kibaki 227
Maw@@ 227
Michigan 227
Programu 227
Tamasha 227
akiolojia 227
ande 227
asha 227
département 227
kuathiri 227
lu@@ 227
vyumba 227
Math 226
Mawasiliano 226
Mh@@ 226
Msalaba 226
Uli@@ 226
achana 226
aku@@ 226
alikataa 226
baki 226
epata 226
ista 226
kipande 226
kuelezea 226
kukata 226
kumpa 226
maktaba 226
maua 226
mchekeshaji 226
mwandiko 226
sakramenti 226
ukuu 226
ulo 226
vij@@ 226
walipata 226
Burkina 225
Cor@@ 225
Johnson 225
Ke@@ 225
abo 225
ashi 225
awahi 225
ido 225
izo 225
kilichopo 225
kujaribu 225
michoro 225
mvuke 225
olenga 225
pokuwa 225
shimo 225
6,000 224
Ahmed 224
CC@@ 224
Club 224
Lug@@ 224
Mam@@ 224
ames@@ 224
hani 224
inayop@@ 224
kushambulia 224
kuu@@ 224
kuundwa 224
maamuzi 224
nazo 224
owekwa 224
ul 224
upanuzi 224
zama 224
Er@@ 223
Mikoa 223
Milano 223
Qu@@ 223
St 223
Women 223
anisha 223
ard 223
gerezani 223
hasi 223
jam@@ 223
kutazama 223
msitu 223
umbi 223
umep@@ 223
wakat@@ 223
Madola 222
agiza 222
aini 222
alihudhuria 222
anafahamika 222
eria 222
fumbo 222
go 222
hawakuwa 222
idai 222
isikia 222
kinaweza 222
kuhubiri 222
kujitolea 222
kulipa 222
kutambuliwa 222
ling@@ 222
masoko 222
mkewe 222
ofanyika 222
pak@@ 222
pembeni 222
saidia 222
unyenyekevu 222
zetu 222
Hitler 221
Jay 221
So@@ 221
anaitwa 221
bal@@ 221
ez 221
kati@@ 221
kujipatia 221
kupigana 221
mich@@ 221
robo 221
sambamba 221
ubaliwa 221
ungukwa 221
utotoni 221
v 221
walei 221
10@@ 220
46 220
Athari 220
Mand@@ 220
Ngu@@ 220
Rutana 220
agi 220
az 220
kozi 220
kubaki 220
kuchagua 220
msalaba 220
mwanasheria 220
ohitajika 220
pol@@ 220
sultani 220
ukombozi 220
viti 220
walifika 220
« 220
4,000 219
Go@@ 219
Marmara 219
Mtandao 219
Ulinzi 219
akisema 219
assa 219
atomia 219
fin@@ 219
hab@@ 219
ilio 219
iliyok@@ 219
jela 219
kibali 219
kupindukia 219
kutia 219
simba 219
unak@@ 219
viatu 219
zikiwemo 219
» 219
Imepakana 218
Kwale 218
Mandela 218
Pokot 218
Tan@@ 218
afikia 218
apatikana 218
biolojia 218
del 218
ekelezwa 218
geza 218
je@@ 218
jitihada 218
kubuni 218
kumfanya 218
kuwaf@@ 218
ongea 218
unge 218
vi 218
waanzilishi 218
wakawa 218
wany@@ 218
Disemba 217
Google 217
Kinilo 217
Malkia 217
Mbunge 217
Sierra 217
Uskoti 217
Young 217
amt@@ 217
anganya 217
iliundwa 217
ion@@ 217
kol@@ 217
kuwafanya 217
milango 217
mwanamume 217
ph@@ 217
waa 217
waw@@ 217
1934 216
Accra 216
FM 216
Kr@@ 216
Maandishi 216
Soko 216
ac@@ 216
adhi 216
aliigiza 216
buluu 216
kuh@@ 216
kuomba 216
madarakani 216
maswala 216
oshiriki 216
pitia 216
utata 216
wawakilishi 216
1922 215
1925 215
1929 215
BBC 215
Bul@@ 215
Santa 215
Wales 215
White 215
akap@@ 215
amem@@ 215
ekuwa 215
imama 215
nit@@ 215
pake 215
1942 214
Cankuzo 214
Em@@ 214
Katavi 214
Leone 214
Media 214
On@@ 214
Stars 214
akapata 214
aliyeuawa 214
ata@@ 214
dea 214
die 214
eme 214
ige 214
ilig@@ 214
ilivyo@@ 214
mamalia 214
tamthiliya 214
umi@@ 214
upe 214
5000 213
Alik@@ 213
Company 213
F 213
XI 213
ahamu 213
amo@@ 213
atika 213
azimishwa 213
bon@@ 213
ein@@ 213
futi 213
ilir@@ 213
ju 213
kueleza 213
ne@@ 213
pelekwa 213
vinavyot@@ 213
waya 213
0,@@ 212
1885 212
Dubai 212
Kou@@ 212
Kuk@@ 212
afanua 212
atibu 212
bea 212
bingwa 212
duara 212
fik@@ 212
iliweza 212
kif@@ 212
madola 212
mwambao 212
ombi 212
tawala 212
tropiki 212
uhamishoni 212
upatikanaji 212
usanifu 212
visiwani 212
wafungwa 212
walihamia 212
wawe 212
1943 211
Bendi 211
Bizanti 211
Canada 211
Dan@@ 211
Francis 211
Hula 211
Kaizari 211
Maneno 211
Siasa 211
Utawa 211
atiwa 211
ekea 211
ent@@ 211
husaidia 211
inaj@@ 211
jibu 211
kikemia 211
kitenzi 211
mpenzi 211
udiwa 211
vurugu 211
wepo 211
16,@@ 210
2.@@ 210
Ukraine 210
Ush@@ 210
aliondoka 210
amech@@ 210
anyiwa 210
est@@ 210
fiwa 210
fuka 210
ic 210
inajumuisha 210
makaa 210
nani 210
uni@@ 210
ute 210
vyo 210
14@@ 209
1926 209
54 209
95 209
Aliendelea 209
Bungoma 209
aham@@ 209
alijulikana 209
eri@@ 209
ilionekana 209
inab@@ 209
kujik@@ 209
lika 209
magoli 209
ngano 209
rap 209
ufukara 209
urekebisho 209
vilabu 209
walianzisha 209
25@@ 208
Aliandika 208
Band 208
Japan 208
Ken@@ 208
Miongoni 208
Si 208
Waturuki 208
aitwaye 208
kuifanya 208
kujengwa 208
kuwah@@ 208
majirani 208
mchoraji 208
ndilo 208
ngome 208
onya 208
shaka 208
udishwa 208
wengineo 208
13@@ 207
1890 207
Kituruki 207
Long@@ 207
Myanmar 207
News 207
Oblast 207
Patrick 207
Umbali 207
Yo@@ 207
akicheza 207
amana 207
isaidia 207
kansa 207
kijiografia 207
kimatibabu 207
makadirio 207
mzaliwa 207
Hal@@ 206
Miz@@ 206
avyo@@ 206
ens@@ 206
kurasa 206
mauti 206
ukuma 206
upigaji 206
ushindani 206
Aidha 205
Mjerumani 205
Prussia 205
Waw@@ 205
ajiriwa 205
alifaulu 205
amek@@ 205
amino 205
ans@@ 205
che 205
hasara 205
ikulu 205
imetoweka 205
itakuwa 205
jia 205
kuang@@ 205
mish@@ 205
mwanam@@ 205
nyanja 205
odi 205
ongwe 205
shi 205
shingo 205
ukurasa 205
yen@@ 205
Mc@@ 204
Sen@@ 204
Urithi 204
aibu 204
berg 204
ileta 204
kipenyo 204
kuti@@ 204
osoaji 204
per@@ 204
ustaarabu 204
wel@@ 204
zilianza 204
Augustino 203
DC 203
Katikati 203
Port 203
Reli 203
Sauti 203
Y 203
adha 203
avi 203
aweze 203
dume 203
ekeleza 203
eleweka 203
hasira 203
imek@@ 203
inaendelea 203
inavyo@@ 203
jeraha 203
kitongoji 203
kondoo 203
kuvuka 203
mfereji 203
mzazi 203
toba 203
120 202
Ben 202
Cher@@ 202
Rose 202
Ujenzi 202
Uropa 202
akab@@ 202
aliacha 202
angahewa 202
azimio 202
elekwa 202
ers 202
imej@@ 202
jahazi 202
mafuriko 202
mtume 202
ton 202
zia 202
1,0@@ 201
116 201
15@@ 201
30,000 201
88 201
Gambia 201
Pro@@ 201
Sik@@ 201
Uhandisi 201
adhili 201
aendelea 201
busara 201
chi@@ 201
ichezea 201
ifuatavyo 201
inayoweza 201
isiyo@@ 201
kuruhusu 201
kusimama 201
kuwash@@ 201
mlinzi 201
mmisionari 201
pita 201
uhaba 201
umbwa 201
unaingia 201
wav@@ 201
yaliyokuwa 201
65@@ 200
Faso 200
Hili 200
Kifilipino 200
Miss 200
Ndiye 200
Og@@ 200
Scott 200
Tab@@ 200
Wazazi 200
akak@@ 200
aliji@@ 200
anuwai 200
emia 200
ende@@ 200
huzuni 200
ikat@@ 200
ikweta 200
imarisha 200
katuni 200
lililokuwa 200
manabii 200
mikataba 200
mwao 200
parokia 200
umbuka 200
unikwa 200
wakili 200
39@@ 199
56 199
Hak@@ 199
Kimb@@ 199
MTV 199
Marie 199
Sir 199
Taylor 199
Wa 199
abi 199
amilika 199
ebaki 199
elekeo 199
huria 199
inaanza 199
inamaanisha 199
ish 199
kukabiliana 199
kukatwa 199
kupanua 199
letu 199
mababu 199
men@@ 199
mtandaoni 199
mwakilishi 199
oshi 199
sab@@ 199
tuli@@ 199
ulipo@@ 199
umikia 199
ushi 199
ville 199
vimelea 199
waigizaji 199
zinah@@ 199
18,@@ 198
1910 198
1937 198
67 198
Alifariki 198
Chris 198
Has@@ 198
Kilifi 198
Mohammed 198
afsiri 198
alijaribu 198
alijit@@ 198
ege 198
he@@ 198
himaya 198
ipoti 198
mashtaka 198
mkaapweke 198
sampuli 198
theluji 198
unzi 198
utani 198
utoto 198
wisha 198
Bagamoyo 197
Christian 197
Dr. 197
Kul@@ 197
Luka 197
Mos@@ 197
Ndio 197
Ter@@ 197
Z 197
demokrasia 197
elle 197
gen@@ 197
kupeleka 197
kuwal@@ 197
lisilo 197
makini 197
manowari 197
mon@@ 197
nambari 197
sindano 197
tofautitofauti 197
uka@@ 197
uzuri 197
zuia 197
1938 196
Anafahamika 196
Inasemekana 196
Kakamega 196
Ker@@ 196
Mbar@@ 196
Migori 196
Mtendaji 196
Mv@@ 196
Profesa 196
Simon 196
Verde 196
XVI 196
akaw@@ 196
akaz@@ 196
amishwa 196
auri 196
chanya 196
endel@@ 196
haiwezi 196
ilitangaza 196
inatoa 196
ipata 196
irikishwa 196
kima@@ 196
kufanana 196
kutuma 196
kuwak@@ 196
lipo 196
milia 196
nafuu 196
nzito 196
17,@@ 195
1905 195
Anthony 195
Bendera 195
Mwandishi 195
Mwingereza 195
SA@@ 195
Tenno 195
Walakini 195
bur@@ 195
duka 195
hek@@ 195
kujiuzulu 195
kuku@@ 195
liwa 195
mata 195
mchungaji 195
mwanamitindo 195
ozidi 195
tiwa 195
uhalifu 195
utumbo 195
A. 194
Bab@@ 194
Dam@@ 194
Mamlaka 194
Sek@@ 194
YouTube 194
amuru 194
hara 194
ikua 194
ilitoa 194
karama 194
kasoro 194
kutokuwa 194
matoleo 194
otea 194
ubatizo 194
usaidizi 194
viwanja 194
wakala 194
walau 194
wanasayansi 194
Alish@@ 193
Big 193
Kichadiki 193
Kikundi 193
Life 193
Mark 193
Nik@@ 193
Rhodesia 193
Tur@@ 193
VIII 193
ababisha 193
alikamatwa 193
alisaini 193
alishindwa 193
apot@@ 193
ber@@ 193
kubadilika 193
kulinganisha 193
met@@ 193
mwanadamu 193
ner 193
rej@@ 193
shauri 193
uleule 193
undishwa 193
uraia 193
64 192
67@@ 192
Best 192
Inat@@ 192
Kari@@ 192
Kong 192
Matatizo 192
Mau@@ 192
Westlife 192
ach 192
ajua 192
asim@@ 192
atokea 192
bak@@ 192
cheza 192
esheni 192
goli 192
husu 192
ilib@@ 192
katibu 192
kuteka 192
kuzungumza 192
leseni 192
mam@@ 192
mmiliki 192
osisi 192
san@@ 192
Bak@@ 191
Bw 191
Nadharia 191
Ne@@ 191
Nyanda 191
Pan@@ 191
Royal 191
ambana 191
amisha 191
arini 191
faulu 191
figo 191
hawawezi 191
idh@@ 191
iliyom@@ 191
imech@@ 191
kaburi 191
kipaji 191
kipengele 191
kufuzu 191
makaburi 191
udhaifu 191
ulich@@ 191
utukufu 191
wanamgambo 191
wil@@ 191
yap@@ 191
zinazoendelea 191
1919 190
Busia 190
Category 190
Kiaryan 190
Kibu@@ 190
Pengine 190
Ubangi 190
ajit@@ 190
akif@@ 190
alimt@@ 190
ase 190
ii 190
iw@@ 190
kielelezo 190
kuchang@@ 190
kukulia 190
nukta 190
omb@@ 190
oweka 190
sarafu 190
unaonyesha 190
vema 190
yuko 190
zipo 190
1923 189
7,000 189
Barua 189
British 189
Con@@ 189
Da@@ 189
In 189
Kayanza 189
Northern 189
Os@@ 189
People 189
Sha@@ 189
Usimamizi 189
achi 189
akish@@ 189
anash@@ 189
ap 189
domo 189
ford 189
itishwa 189
kuambukizwa 189
kutembelea 189
majibu 189
ongo@@ 189
pr@@ 189
wajumbe 189
yas@@ 189
12@@ 188
1931 188
2022 188
Abdallah 188
Anglikana 188
Columbia 188
Congress 188
Hab@@ 188
Kinshasa 188
Kitai 188
Pal@@ 188
Torati 188
Umma 188
anishwa 188
anyi 188
apaswa 188
bah@@ 188
hudumia 188
hufanyika 188
hufanywa 188
inayotumika 188
isababisha 188
izaji 188
kitaalamu 188
kutimiza 188
mashambulio 188
theluthi 188
uchoraji 188
ufi 188
wakoloni 188
Alich@@ 187
Illinois 187
KANU 187
Kijapani 187
Mf@@ 187
Sir@@ 187
Waanglikana 187
Yugoslavia 187
ais@@ 187
amer@@ 187
andi@@ 187
anye 187
chukuliwa 187
endana 187
ingizwa 187
mkate 187
nyara 187
son@@ 187
uenezi 187
1912 186
Ash@@ 186
Bila 186
But@@ 186
Gavana 186
Israel 186
Mr@@ 186
Nas@@ 186
Pr@@ 186
anaz@@ 186
haniwa 186
ingatiwa 186
ire 186
kisukari 186
kupigania 186
kurekebisha 186
kuza 186
me@@ 186
nusufamilia 186
ori@@ 186
ter@@ 186
ushuru 186
1927 185
58 185
Bukoba 185
Entertainment 185
Hizi 185
Mimi 185
UK 185
aliyeitwa 185
bamba 185
bandia 185
falme 185
hujumuisha 185
ikuwepo 185
iliyos@@ 185
iliyoundwa 185
mwishowe 185
ohitaji 185
ufahamu 185
ufunuo 185
zaji 185
26@@ 184
50,000 184
Fedha 184
Ge@@ 184
Makerere 184
Men@@ 184
Mito 184
Mtindo 184
Nyar@@ 184
Wamarekani 184
akaenda 184
alitunga 184
aliyes@@ 184
apos@@ 184
avyot@@ 184
ebe 184
embo 184
haramu 184
ilivyokuwa 184
kime@@ 184
kuanguka 184
kuthibitisha 184
lat@@ 184
mwenza 184
tek@@ 184
umati 184
wanasiasa 184
with 184
yewe 184
zilizop@@ 184
180 183
61 183
Kisi@@ 183
Kuba 183
Luther 183
Queen 183
Ro@@ 183
Watutsi 183
aliweka 183
amefanya 183
api 183
ass@@ 183
fr@@ 183
fundisha 183
hush@@ 183
icha 183
imbaji 183
kufungua 183
kuharibu 183
lilim@@ 183
marekebisho 183
ografia 183
oke 183
unajulikana 183
wanaz@@ 183
wapya 183
304 182
Carl 182
Don@@ 182
Hong 182
Kie@@ 182
Kiholanzi 182
UN@@ 182
Uthai 182
Zambezi 182
ado 182
alig@@ 182
dh@@ 182
hughulikia 182
inganishwa 182
kiburi 182
mashambulizi 182
omea 182
sumaku 182
wavulana 182
zimep@@ 182
53 181
99 181
Alama 181
Badala 181
Hawa 181
Istanbul 181
Jumla 181
Msanii 181
Pierre 181
ain 181
amba@@ 181
anti@@ 181
fi 181
iliitwa 181
indi@@ 181
kikabila 181
kuchapishwa 181
kuondolewa 181
maudhui 181
nguzo 181
ofautisha 181
riadha 181
tafiti 181
tembo 181
uliendelea 181
uzani 181
{ 181
102 180
Bandari 180
Eire 180
Euro 180
Mafunzo 180
Mir@@ 180
Uarabuni 180
abor@@ 180
afanuliwa 180
akishirikiana 180
aliyep@@ 180
amepata 180
anaendelea 180
darubini 180
huv@@ 180
jik@@ 180
kiakili 180
oea 180
ruhusu 180
shina 180
umbukwa 180
ure 180
wambia 180
51 179
Jike 179
Kalenda 179
Makanisa 179
Marsabit 179
Mchezo 179
Nelson 179
Usalama 179
Ver@@ 179
Yordani 179
akarudi 179
alikuja 179
alin@@ 179
amu@@ 179
apokea 179
embea 179
ensi 179
hutengenezwa 179
iliyoongozwa 179
iria 179
julikani 179
kilabu 179
kilicho 179
kingamwili 179
kiraia 179
kufanyika 179
maagizo 179
machache 179
masimulizi 179
mnara 179
ope 179
treni 179
ufanya 179
uria 179
viazi 179
wanatumia 179
wapa 179
zu 179
.com 178
Kroatia 178
Mafanikio 178
Met@@ 178
Rock 178
UM 178
VII 178
Vol@@ 178
Yuda 178
chap@@ 178
embamba 178
hospitalini 178
ifunza 178
ikamana 178
ikisha 178
kib@@ 178
lava 178
lilianza 178
mny@@ 178
mwandamizi 178
nyepesi 178
uchapishaji 178
vilivyot@@ 178
waliamua 178
ā@@ 178
Air 177
Alichaguliwa 177
Alishiriki 177
Fr@@ 177
Hop 177
Hoteli 177
Mwen@@ 177
Mwili 177
Nyasa 177
Shamu 177
Sydney 177
Ul@@ 177
Wao 177
adh@@ 177
ambiwa 177
andikia 177
awas@@ 177
bichi 177
endekeza 177
fi@@ 177
jumuishwa 177
kipo 177
kuhama 177
kulenga 177
kupotea 177
lililopo 177
makusudi 177
mnururisho 177
ororo 177
shirikisha 177
thabiti 177
vibao 177
3.@@ 176
Bag@@ 176
Dh@@ 176
Francisco 176
Hor@@ 176
May 176
Q 176
Raj@@ 176
Rekodi 176
Sil@@ 176
Sol@@ 176
Wanafunzi 176
asababisha 176
auti 176
chang@@ 176
heshimu 176
hio 176
ica 176
ileile 176
ith@@ 176
kutofautisha 176
miongo 176
mtumishi 176
oleta 176
pamba 176
shairi 176
tumbaku 176
tunda 176
upimaji 176
uro 176
wavuti 176
16@@ 175
1928 175
27@@ 175
303 175
66 175
Ah@@ 175
Ath@@ 175
Cal@@ 175
Diokletian 175
Gi@@ 175
J 175
Jamaika 175
Kabila 175
Liverpool 175
Masasi 175
Polisi 175
Rio 175
Southern 175
aidi 175
akiba 175
alb@@ 175
alidai 175
ell 175
iana 175
intaneti 175
kap@@ 175
kuachana 175
kubalika 175
kuhudhuria 175
mabara 175
mtumiaji 175
ondo@@ 175
piga 175
wakam@@ 175
yol@@ 175
1889 174
Br@@ 174
Frank 174
Ivory 174
Joe 174
Kaz@@ 174
Nyab@@ 174
Patriarki 174
S. 174
Single 174
afsi 174
akatifu 174
ilitokea 174
kuten@@ 174
linamaanisha 174
madaktari 174
maombi 174
mbunifu 174
me 174
mo 174
ov 174
tom@@ 174
uchungu 174
unaishia 174
walijaribu 174
wanach@@ 174
Co@@ 173
Dor@@ 173
For@@ 173
Kisii 173
Mac@@ 173
Mol@@ 173
Por@@ 173
Sura 173
Televisheni 173
Thoma 173
Western 173
aliunda 173
bele 173
e.@@ 173
elekezwa 173
endelevu 173
jumlisha 173
kani 173
khalifa 173
kidato 173
madhumuni 173
ref 173
udaktari 173
umbuzi 173
va 173
vilit@@ 173
wakim@@ 173
} 173
Aljeria 172
Anatokea 172
Anna 172
Asilimia 172
Kay@@ 172
Nab@@ 172
XX@@ 172
chaguo 172
changia 172
chapa 172
endelezwa 172
esho 172
gea 172
hadharani 172
kuuzwa 172
kuwezesha 172
o.@@ 172
pel@@ 172
rowspan 172
ulemavu 172
unaoitwa 172
unia 172
urafiki 172
walishindwa 172
wanasema 172
yakiwa 172
Arthur 171
Carlos 171
Cross 171
Dk 171
H 171
Huyu 171
Iraq 171
Klementi 171
Mig@@ 171
Omar 171
ambwa 171
azimika 171
dio 171
ec@@ 171
efanya 171
hatia 171
indani 171
kitambaa 171
kiutawala 171
kulala 171
matakwa 171
ous 171
udi@@ 171
usiana 171
utulivu 171
zinazoweza 171
‎ 171
119 170
Adam 170
Aw@@ 170
Bodi 170
Dj@@ 170
Ijumaa 170
Ik@@ 170
Kiku@@ 170
Knowles 170
Kuf@@ 170
Mel@@ 170
Mesopotamia 170
Odinga 170
Pol@@ 170
Ros@@ 170
W 170
alii@@ 170
alitangazwa 170
asiy@@ 170
azimisha 170
beri 170
engen@@ 170
inash@@ 170
isiy@@ 170
iva 170
kuko@@ 170
kurejea 170
lilik@@ 170
mbuzi 170
mgeni 170
mus@@ 170
shujaa 170
yai 170
15,000 169
1903 169
1916 169
Cas@@ 169
Diamond 169
Halmashauri 169
Kaisarea 169
Mathayo 169
Mkwawa 169
Munich 169
Natal 169
Ri@@ 169
Zama 169
ambazwa 169
ambi@@ 169
andishi 169
ekundu 169
ella 169
kusali 169
mag 169
mapambo 169
mijini 169
okot@@ 169
potiwa 169
shwa 169
tupu 169
ushiriki 169
walikufa 169
zinazoz@@ 169
Ford 168
Gor@@ 168
I. 168
Karl 168
Kiing 168
Luk@@ 168
Ly@@ 168
Mmoja 168
Nar@@ 168
Ufini 168
Upendo 168
Vis@@ 168
Waandishi 168
abiri 168
aur@@ 168
babake 168
fil@@ 168
ikuwa 168
ishwe 168
kichwani 168
kushuka 168
kutisha 168
mpana 168
mwitu 168
ndivyo 168
unatumika 168
wanay@@ 168
Amet@@ 167
Ban@@ 167
Do@@ 167
Isiolo 167
Majengo 167
Nandi 167
Teresa 167
Tumaini 167
Virginia 167
ahili 167
deni 167
ego 167
ige@@ 167
imiza 167
kisaikolojia 167
kuandikwa 167
kubadili 167
kuchapisha 167
kusim@@ 167
maiti 167
masafa 167
maumbo 167
plastiki 167
takiwa 167
ulifanyika 167
unika 167
wanaamini 167
yanachangia 167
yanafikia 167
Asizi 166
Heshima 166
No@@ 166
Tony 166
Vipimo 166
Wilson 166
aliolewa 166
dis@@ 166
ejulikana 166
ikab@@ 166
imp@@ 166
jum@@ 166
kukamatwa 166
kwaya 166
mafumbo 166
mgumu 166
mtiririko 166
thibitisha 166
umef@@ 166
umek@@ 166
unaoonekana 166
weupe 166
zinap@@ 166
zinazopatikana 166
Bangladesh 165
Golden 165
Juba 165
Limited 165
Tokyo 165
Usafiri 165
Viv@@ 165
Wenyeji 165
ade 165
akajiunga 165
dharura 165
hama 165
iku 165
ilikua 165
irik@@ 165
kot@@ 165
kupenda 165
majeshi 165
matajiri 165
mgogoro 165
mitume 165
ojengwa 165
uimbaji 165
ukame 165
unguliwa 165
vikwazo 165
wang@@ 165
1935 164
Bis@@ 164
Harvard 164
Karuzi 164
Kulikuwa 164
Maaskofu 164
Matendo 164
Samuel 164
Yemen 164
akash@@ 164
ans 164
eny@@ 164
jicho 164
mamia 164
oni@@ 164
pori 164
shemasi 164
simulizi 164
ty 164
udumia 164
unduliwa 164
unjika 164
unjwa 164
utarakilishi 164
vinat@@ 164
19,@@ 163
1932 163
Aleksanda 163
Alijiunga 163
Kimar@@ 163
Nor@@ 163
Tarakilishi 163
alizika 163
apisha 163
atakay@@ 163
ban@@ 163
bapa 163
ekodiwa 163
eneza 163
kushindana 163
kushughulikia 163
kuteuliwa 163
ler 163
onde 163
otaka 163
pendekeza 163
pigwa 163
rock 163
saikolojia 163
sem@@ 163
sentimita 163
uaminifu 163
vichekesho 163
walig@@ 163
walij@@ 163
walitoa 163
17@@ 162
1908 162
1913 162
36@@ 162
Aktiki 162
Cairo 162
Fatima 162
Kuz@@ 162
Lam@@ 162
alisafiri 162
hudumu 162
huhesabiwa 162
igaji 162
ilishwa 162
imepakana 162
inayotumiwa 162
kaa 162
ker 162
kimojawapo 162
kuteswa 162
kuvu 162
kuwasiliana 162
mani 162
maz@@ 162
opa 162
otumia 162
qu@@ 162
sel@@ 162
ugwa 162
ujana 162
umbua 162
uongo 162
usafirishaji 162
uzushi 162
wakis@@ 162
yalianza 162
yamet@@ 162
1896 161
1906 161
20,@@ 161
Delta 161
Mot@@ 161
Mwafrika 161
Rub@@ 161
Studio 161
Super 161
Vid@@ 161
W. 161
Walutheri 161
amata 161
ameh@@ 161
andikisha 161
boma 161
chaji 161
her@@ 161
ipa 161
lip@@ 161
mek@@ 161
mpunga 161
op 161
ost@@ 161
tus@@ 161
ulisababisha 161
utendakazi 161
vidonda 161
walivyo@@ 161
1.5 160
Bulgaria 160
Hao 160
Kolombia 160
Mukono 160
Omani 160
Queensland 160
Stefano 160
Tom@@ 160
agizwa 160
ainiwa 160
alifika 160
elew@@ 160
emp@@ 160
hazi@@ 160
inus 160
kikomunisti 160
kinyesi 160
kiutamaduni 160
kuharibika 160
kuni 160
kupas@@ 160
kusambaza 160
lam@@ 160
linapatikana 160
our 160
oweza 160
uel@@ 160
uhamiaji 160
umbu 160
ve 160
wakilishi 160
walivy@@ 160
wek@@ 160
zo@@ 160
€ 160
Bad 159
Kabarole 159
Maambukizi 159
Ud@@ 159
Vik@@ 159
Walter 159
arudi 159
auka 159
elezewa 159
esia 159
halmashauri 159
hap@@ 159
him@@ 159
ilifanya 159
iliyoandikwa 159
inj@@ 159
kinywa 159
kuchora 159
kuolewa 159
kuvaa 159
papa 159
sho@@ 159
sul@@ 159
tunaweza 159
viwandani 159
waasi 159
win@@ 159
wo 159
73 158
98 158
AK@@ 158
Murang 158
Nany@@ 158
Uj@@ 158
Viongozi 158
aanza 158
akip@@ 158
alikaa 158
alionyesha 158
aliyeh@@ 158
amil@@ 158
ash 158
harusi 158
inatumika 158
japo 158
karibia 158
kukom@@ 158
ly 158
maandalizi 158
matumaini 158
milenia 158
mot@@ 158
mwenendo 158
seti 158
swali 158
vish@@ 158
wamej@@ 158
yanah@@ 158
yenu 158
1870 157
72 157
Andrew 157
Bill 157
Falsafa 157
Gat@@ 157
Hat@@ 157
Hiyo 157
Jam@@ 157
Kiadamawa 157
Mchang@@ 157
Nguvu 157
No 157
Ptolemaio 157
R. 157
ainisha 157
akati 157
amin@@ 157
ekaristi 157
eso 157
gu 157
huka 157
ilianzisha 157
iliv@@ 157
kr@@ 157
kufun@@ 157
mazishi 157
nyinginezo 157
obiti 157
osho 157
pend@@ 157
unyanyasaji 157
wanga 157
wo@@ 157
yan 157
Green 156
Hall 156
Mj@@ 156
Mwa 156
Rhine 156
Shu@@ 156
Sok@@ 156
Star@@ 156
Wamasai 156
abar@@ 156
afiti 156
agwa 156
anar@@ 156
ant 156
antibiotiki 156
avi@@ 156
chai 156
dhahiri 156
gimba 156
hafifu 156
hudhuria 156
hufuata 156
inayos@@ 156
kuambukiza 156
kuki@@ 156
kupitisha 156
matamasha 156
pendelea 156
swala 156
tel@@ 156
uchi 156
ulitolewa 156
vyeo 156
waliof@@ 156
α 156
000,000 155
350 155
Bibi 155
Bl@@ 155
Boston 155
Carolina 155
It@@ 155
Kah@@ 155
Kichin 155
Kiko 155
Moyo 155
WWE 155
Weusi 155
akitumia 155
akuja 155
ambae 155
bor@@ 155
futwa 155
inafanya 155
jazz 155
kwisha 155
lilich@@ 155
manga 155
mikuu 155
mpinzani 155
nae 155
nim@@ 155
olingana 155
ukumwa 155
umbuliwa 155
vig@@ 155
vinywaji 155
washindi 155
zilich@@ 155
1860 154
200,000 154
Aegean 154
Benjamin 154
Center 154
Geneva 154
Jum@@ 154
Kimal@@ 154
Lk 154
Magonjwa 154
Maziwa 154
Mpira 154
Theod@@ 154
Vyama 154
Wil@@ 154
achama 154
amano 154
endekezwa 154
huonyesha 154
huyataga 154
icho 154
idhi 154
inavy@@ 154
iru 154
kaimu 154
kasoko 154
kulipwa 154
kupelekea 154
mamilioni 154
nd@@ 154
ochapishwa 154
pat@@ 154
pati@@ 154
uchambuzi 154
uuzaji 154
uwe 154
wir@@ 154
1902 153
57 153
62 153
Alfa 153
Alpi 153
Av@@ 153
Fu@@ 153
Ibrahim 153
Jangwa 153
Marko 153
Mati@@ 153
Mwanamalundi 153
Pe@@ 153
Time 153
Wafransisko 153
Waliofariki 153
adiki 153
aleta 153
anaonekana 153
apu 153
binamu 153
divai 153
for@@ 153
ghasia 153
hibitiwa 153
jwa 153
kiitwacho 153
kukamilisha 153
kung 153
kutengenezwa 153
matope 153
mwongozaji 153
nyongeza 153
usia 153
wanashirika 153
zam@@ 153
zimekuwa 153
zuri 153
2.5 152
Anat@@ 152
Antonio 152
Dom@@ 152
Ek@@ 152
Han@@ 152
Mipango 152
Nyan@@ 152
Red 152
Siberia 152
Uzamili 152
Vincent 152
Waosmani 152
alisomea 152
enganisha 152
hodari 152
ikaji 152
ikali 152
ikika 152
jo@@ 152
kienyeji 152
kilichokuwa 152
kiw@@ 152
kop@@ 152
kumuua 152
kusik@@ 152
miujiza 152
mvuto 152
mweupe 152
uji 152
ulevi 152
umisionari 152
utawa 152
vidole 152
walipewa 152
wanaharakati 152
yanayohusiana 152
zaliwa 152
1907 151
59@@ 151
AM@@ 151
Eli@@ 151
Hil@@ 151
Kumbukumbu 151
Namba 151
Oxford 151
Show 151
Uhusiano 151
Utambuzi 151
Wahehe 151
alikulia 151
ambazaji 151
ayarisha 151
bin@@ 151
boa 151
des@@ 151
eth@@ 151
igizaji 151
inad@@ 151
kad@@ 151
kea 151
kusafisha 151
maishani 151
mandhari 151
mbu 151
mer@@ 151
mtama 151
mwema 151
njema 151
sela 151
sw@@ 151
tezi 151
vitani 151
1924 150
1Kor 150
Amin 150
Christopher 150
Id@@ 150
Jinsi 150
Kiba@@ 150
Nafasi 150
Nyoka 150
Prince 150
Wahutu 150
adiliwa 150
anthropolojia 150
anyia 150
bezi 150
ejea 150
ikim@@ 150
kamba 150
kuogelea 150
kuokoa 150
kuvamia 150
midogo 150
miundombinu 150
mpito 150
msomi 150
mtetezi 150
nadhiri 150
opo@@ 150
oua 150
pepe 150
sen 150
wawindaji 150
yar@@ 150
zilizoendelea 150
Day 149
Gazeti 149
Harakati 149
Jarida 149
Laos 149
Liga 149
Mkubwa 149
Napoli 149
Old 149
Otto 149
Peru 149
Steve 149
Tom 149
Ushirikiano 149
aman@@ 149
anj@@ 149
arusi 149
barabarani 149
cho@@ 149
eti@@ 149
ilif@@ 149
inayof@@ 149
jeruhiwa 149
migogoro 149
nus@@ 149
punda 149
sare 149
siyo 149
ungan@@ 149
wakaanza 149
zinazofanana 149
zipatazo 149
1800 148
29@@ 148
Ach@@ 148
Disney 148
Kamusi 148
Takatifu 148
Up 148
Waraka 148
amep@@ 148
anayeitwa 148
anyo 148
delta 148
dik@@ 148
dikteta 148
fungwa 148
ikuta 148
isheni 148
kinanda 148
kuchezea 148
linafuata 148
liz@@ 148
maono 148
mil@@ 148
msikiti 148
mta@@ 148
mtumwa 148
ndizo 148
njiani 148
refu 148
sur@@ 148
ubaliana 148
utunzaji 148
vizazi 148
1625 147
200@@ 147
Alihitimu 147
Azimio 147
Bayer 147
Buh@@ 147
Gar@@ 147
Hamburg 147
Jer@@ 147
Matukio 147
Mdogo 147
Mmarekani 147
Ngoma 147
Osmani 147
Songea 147
Vil@@ 147
Wanah@@ 147
aidha 147
akus@@ 147
alifanikiwa 147
aliyewahi 147
arab@@ 147
esab@@ 147
ess@@ 147
huongea 147
husababishwa 147
kutak@@ 147
manjano 147
naibu 147
tika 147
viini 147
walios@@ 147
was 147
waweze 147
yanaingia 147
zinaonyesha 147
י@@ 147
40,000 146
Anti@@ 146
Bob 146
Fel@@ 146
Lus@@ 146
Naibu 146
Om@@ 146
Ras@@ 146
Sou@@ 146
Wamisri 146
air@@ 146
akar@@ 146
aliyek@@ 146
ange@@ 146
baraka 146
bir@@ 146
esababisha 146
fidia 146
hakuweza 146
huongeza 146
hutokana 146
isiwa 146
jiografia 146
kok@@ 146
kufuatilia 146
kuiga 146
kukomesha 146
mj@@ 146
msukumo 146
mwanafalsafa 146
paka 146
sikio 146
upeo 146
ushairi 146
waliingia 146
winga 146
wood 146
yanayopatikana 146
yer@@ 146
1836 145
71 145
Asiatiki 145
Col@@ 145
Frederick 145
Kiaustro 145
Kuch@@ 145
Mau 145
Mn@@ 145
Moh@@ 145
ODM 145
Yoshua 145
afirishwa 145
anataka 145
esabu 145
hawaorodheshwi 145
katoliki 145
kete 145
madoa 145
mageuzi 145
no@@ 145
onge@@ 145
tuna@@ 145
uelewa 145
wamep@@ 145
yalif@@ 145
1911 144
79 144
Eu@@ 144
Hur@@ 144
Kihistoria 144
Krismasi 144
Masedonia 144
Pennsylvania 144
Pretoria 144
Sum@@ 144
Tukio 144
Vifaa 144
Wavandali 144
aku 144
alienda 144
asai 144
boko 144
fanyika 144
fumbatio 144
hupunguza 144
iya 144
jaji 144
kaz@@ 144
kubadilishwa 144
kufariki 144
kujumuisha 144
kwetu 144
oku@@ 144
tha 144
ufu 144
uliofanywa 144
vol@@ 144
wamek@@ 144
www.@@ 144
zu@@ 144
1880 143
1921 143
63 143
America 143
CD@@ 143
DCC@@ 143
Hay@@ 143
José 143
Kany@@ 143
LA 143
Maandiko 143
Mari@@ 143
Mwanga 143
O.@@ 143
Siaya 143
Song@@ 143
Taarifa 143
Tours 143
US 143
Uv@@ 143
Virusi 143
akua 143
anyiko 143
chifu 143
embelewa 143
fujo 143
idhika 143
insha 143
jitahidi 143
kuhani 143
kupu@@ 143
migodi 143
ndizi 143
oc@@ 143
pendekezwa 143
ugo 143
uliop@@ 143
uwekezaji 143
vip@@ 143
wapi 143
04 142
25,@@ 142
59 142
83 142
AN@@ 142
Amekuwa 142
Baadae 142
Fer@@ 142
Hatari 142
Jordan 142
Kimalay 142
Kupitia 142
Lok@@ 142
Mang@@ 142
Maonyesho 142
Masomo 142
Nah@@ 142
Sch@@ 142
Wafalme 142
Waindio 142
abari 142
ahara 142
aiwa 142
almasi 142
chuki 142
http 142
jenerali 142
kaya 142
kibiolojia 142
kioo 142
kuchukuliwa 142
kufaa 142
kuhudumia 142
lak@@ 142
lisil@@ 142
mzigo 142
obi 142
oria 142
thibitishwa 142
uendeshaji 142
ulipata 142
upot@@ 142
vitamini 142
wafugaji 142
wakij@@ 142
wakik@@ 142
walir@@ 142
zinazop@@ 142
ˈ@@ 142
​ 142
110 141
Alianzisha 141
Cibitoke 141
Der@@ 141
Ilhali 141
Inosenti 141
Jengo 141
Kind@@ 141
Mr. 141
Orchestra 141
Ukom@@ 141
aona 141
baa 141
ben@@ 141
chor@@ 141
fung@@ 141
hu 141
itikia 141
kelewa 141
kuepuka 141
kustaafu 141
kutumbuiza 141
mabingwa 141
matano 141
nywila 141
oleo 141
piano 141
usoni 141
vir@@ 141
wane 141
wapiganaji 141
37@@ 140
96 140
Antoni 140
Bos@@ 140
Boy 140
Filipo 140
Hai@@ 140
K. 140
Khalifa 140
Lebanoni 140
Mav@@ 140
Mike 140
Norway 140
Nyandarua 140
Ontario 140
SC 140
Scotland 140
Sem@@ 140
Shab@@ 140
São 140
Thi@@ 140
anaw@@ 140
arabu 140
atakuwa 140
awanywa 140
chapishwa 140
engine 140
funga 140
fuvu 140
hari@@ 140
hidrojeni 140
hil@@ 140
huchangia 140
ilichukua 140
imamia 140
kidole 140
kilianzishwa 140
kimya 140
kulima 140
lem@@ 140
len@@ 140
limekuwa 140
mabamba 140
michango 140
misafara 140
pl@@ 140
por@@ 140
porini 140
ruhusa 140
sea 140
sur 140
walichukua 140
,000 139
1,4@@ 139
12,000 139
1884 139
1887 139
1904 139
Afro 139
Astronomia 139
Falme 139
Hus@@ 139
Kiar@@ 139
Kic@@ 139
Lincoln 139
Ma 139
Riwaya 139
Sun 139
Viwango 139
all 139
any 139
asiye 139
atu@@ 139
aw 139
beseni 139
eswa 139
golikipa 139
gr@@ 139
han 139
hazik@@ 139
huchukua 139
husisha 139
iliyotengenezwa 139
jal@@ 139
kamata 139
mark 139
misheni 139
mtihani 139
nusu@@ 139
nyaya 139
pokezi 139
tabianchi 139
ulizwa 139
umbile 139
utayarishaji 139
zinazohusiana 139
68 138
Beach 138
Chang@@ 138
Ilit@@ 138
Institute 138
Jumamosi 138
Kad@@ 138
Kand@@ 138
Kiinjili 138
Peters 138
Po@@ 138
Rad@@ 138
Ripoti 138
Saba 138
The@@ 138
Utaratibu 138
Warusi 138
We@@ 138
aikolojia 138
alenga 138
anua 138
anwa 138
ask@@ 138
bungeni 138
buni 138
from 138
hawa@@ 138
inka 138
ipotiwa 138
king@@ 138
kisasi 138
km2 138
kuwakilisha 138
linafanana 138
lio 138
ndicho 138
pal@@ 138
saf@@ 138
su 138
uham@@ 138
utumishi 138
uzaji 138
1899 137
Ally 137
Bat@@ 137
Blue 137
Durban 137
Majira 137
NBC 137
Ra@@ 137
Ruaha 137
Ulimwengu 137
Utatu 137
ajiunga 137
alimu 137
ampa 137
ation 137
dar@@ 137
ham 137
jaa 137
mabomu 137
milimita 137
msongamano 137
mviringo 137
sakafu 137
toa 137
umishi 137
unaojulikana 137
upata 137
vumbi 137
wimbi 137
yalitokea 137
07 136
Ari@@ 136
CO@@ 136
Great 136
Laikipia 136
Lazio 136
Nus@@ 136
Pat@@ 136
Qaeda 136
Sultan 136
Tabianchi 136
Tor@@ 136
adiria 136
alilelewa 136
badilishwa 136
hayak@@ 136
hiwa 136
huathiri 136
ikita 136
inasemekana 136
injili 136
kaf@@ 136
kuwahi 136
likawa 136
manyasi 136
marejeo 136
mgawanyiko 136
nalo 136
nyuki 136
oli@@ 136
rutuba 136
tago 136
unaj@@ 136
unam@@ 136
vazi 136
vinne 136
wamef@@ 136
1891 135
53@@ 135
69 135
Kikanisa 135
Kiprotestanti 135
Peace 135
Ph@@ 135
Sweden 135
Territory 135
Ufundi 135
Waitalia 135
Yas@@ 135
Zu@@ 135
abab@@ 135
amilisha 135
anifu 135
anwani 135
aumu 135
ca 135
ekodi 135
fia 135
igi 135
ilini 135
ilipewa 135
ilitangazwa 135
imeh@@ 135
inategemea 135
kifu@@ 135
kimapenzi 135
kisababishi 135
kuingilia 135
kujitokeza 135
kushikilia 135
makambi 135
matabaka 135
mtemi 135
mwongozo 135
ofa 135
onyo 135
oso 135
puka 135
sit@@ 135
uitwao 135
ukatili 135
umbani 135
1898 134
24@@ 134
89 134
Britania 134
Eng@@ 134
Gaza 134
Gold 134
Haf@@ 134
Haw@@ 134
Kikan@@ 134
Kirinyaga 134
MA 134
Mashirika 134
Mwam@@ 134
Ndipo 134
Nim@@ 134
Road 134
Trans 134
Tupac 134
Uasi 134
Uhispania 134
Uwezo 134
Wachina 134
afiki 134
age@@ 134
aliwas@@ 134
aribiwa 134
aruhusu 134
beta 134
dai 134
etiki 134
eva 134
hedhi 134
ist 134
kifungo 134
kuadhimisha 134
kubadilishana 134
kufik@@ 134
kutangazwa 134
kwan@@ 134
mashimo 134
miakanuru 134
mwanasayansi 134
odumu 134
ofika 134
ohusu 134
owa@@ 134
unaotumika 134
utambulisho 134
utumiaji 134
walinzi 134
yabisi 134
160 133
57@@ 133
97 133
Abrahamu 133
Alis@@ 133
Bin 133
Frankfurt 133
Ibn 133
Ila 133
Ish@@ 133
Jr 133
Kiasi 133
Margaret 133
Mbu@@ 133
Som@@ 133
Urafiki 133
Vanuatu 133
Walikuwa 133
`@@ 133
akahamia 133
alipaswa 133
anta 133
co 133
elezi 133
ensis 133
fueli 133
ikan@@ 133
iliongezeka 133
indua 133
kubaliana 133
kutafakari 133
kutatua 133
lindwa 133
machungwa 133
majimaji 133
mitazamo 133
mkab@@ 133
mwanahistoria 133
owe 133
utando 133
uvumbuzi 133
vime@@ 133
vitengo 133
yanakwenda 133
yanayoweza 133
4.@@ 132
Can@@ 132
Fort 132
Kel@@ 132
Kiam@@ 132
Kimsingi 132
Marakwet 132
Mariah 132
Mbuga 132
Ndogo 132
Romania 132
Umbo 132
acho 132
ariki 132
bwawa 132
diwa 132
ens 132
go@@ 132
imi@@ 132
jinai 132
kong@@ 132
kuongozwa 132
liv@@ 132
majike 132
mapendekezo 132
mer 132
mwetu 132
njama 132
oya 132
pap@@ 132
rekodiwa 132
sentensi 132
solo 132
uadilifu 132
ubingwa 132
ugomvi 132
uhu 132
ulip@@ 132
unach@@ 132
upu 132
yupo 132
ze@@ 132
í@@ 132
09 131
1,6@@ 131
Abdul@@ 131
Anne 131
Buganda 131
CL@@ 131
Inawezekana 131
Jen@@ 131
Kaw@@ 131
Kot@@ 131
Lag@@ 131
Makka 131
Masindi 131
Ml@@ 131
Nag@@ 131
Nu@@ 131
Rug@@ 131
abudu 131
agizo 131
ahau 131
alid@@ 131
ameshinda 131
chagua 131
dengi 131
efu 131
egawanyika 131
endelee 131
fal@@ 131
funguliwa 131
gamba 131
igana 131
ikiriwa 131
kandokando 131
kujif@@ 131
kumbu@@ 131
kumsaidia 131
kuru 131
kurudia 131
kuzama 131
mahiri 131
maporomoko 131
matakatifu 131
mavuno 131
moyoni 131
mrithi 131
panda 131
pindi 131
sok@@ 131
tab@@ 131
uenezaji 131
ujio 131
ulis@@ 131
unaitwa 131
unde 131
walikamatwa 131
wames@@ 131
wapenzi 131
yaki@@ 131
zinazotumika 131
1791 130
1839 130
1915 130
22,@@ 130
76 130
AS@@ 130
Abba 130
Andes 130
Baltiki 130
Brazili 130
Bubanza 130
D. 130
Fil@@ 130
Huku 130
Ing@@ 130
Kikosi 130
Makazi 130
Mapema 130
Mawaziri 130
Roger 130
Serengeti 130
Toyota 130
Ushairi 130
Vin@@ 130
Wakimbizi 130
abe 130
akach@@ 130
aliham@@ 130
badilisha 130
dy 130
faru 130
haf@@ 130
hug@@ 130
hughulika 130
huk@@ 130
ilenga 130
ilitoweka 130
inatokana 130
iyo 130
kara 130
kimaumbile 130
kimet@@ 130
kuunga 130
mafupi 130
mang 130
meninjitisi 130
mfadhaiko 130
mfanyakazi 130
mjasiriamali 130
mlimani 130
ndi@@ 130
obe 130
okeza 130
panga 130
pofu 130
tor@@ 130
ugawaji 130
ukw@@ 130
unyevu 130
1897 129
1901 129
91 129
Alex 129
Antaktiki 129
Bad@@ 129
Bay@@ 129
Brian 129
Char@@ 129
Day@@ 129
Is 129
Nin@@ 129
Pen@@ 129
Russia 129
SA 129
Solomon 129
Ste@@ 129
Ucheki 129
Vikta 129
Viwanda 129
Vyombo 129
XIV 129
Yus@@ 129
afanywa 129
afutwa 129
alichezea 129
alihudumu 129
amerika 129
anal@@ 129
bil@@ 129
doa 129
edonia 129
idhinishwa 129
kuhamasisha 129
kutwaa 129
lima 129
maslahi 129
non 129
oyo 129
popote 129
ras@@ 129
uja 129
unategemea 129
undani 129
ungia 129
upofu 129
walijenga 129
wan 129
140 128
Amb@@ 128
Bot@@ 128
Bre@@ 128
Film 128
Hisa 128
Orange 128
Sand@@ 128
Sk@@ 128
Taaluma 128
Uandishi 128
Vipengele 128
Waajemi 128
akaa 128
akiz@@ 128
alijifunza 128
alimfuata 128
aliyeishi 128
angeweza 128
aribika 128
azia 128
dawamfadhaiko 128
hawat@@ 128
hukaa 128
ilipot@@ 128
indo 128
kuchanganya 128
kukamilika 128
kuliwa 128
maambukizo 128
mfuasi 128
mn@@ 128
nidhamu 128
pitisha 128
poteza 128
sahili 128
umbuiza 128
unukiwa 128
utak@@ 128
utiifu 128
yamekuwa 128
47@@ 127
500,000 127
60,000 127
86 127
Baden 127
Com@@ 127
Cu@@ 127
Davis 127
Embu 127
Gh@@ 127
Hen@@ 127
His@@ 127
Huru 127
Kesi 127
Kinga 127
Klara 127
Makabila 127
Wapare 127
Wilhelm 127
alisaidia 127
alitengeneza 127
ambe 127
anayeh@@ 127
chaguliwa 127
elli 127
gi 127
imesh@@ 127
itoa 127
ius 127
kipa 127
kuchimba 127
kung@@ 127
mbo@@ 127
my@@ 127
nimonia 127
odai 127
ongozaji 127
paa 127
pom@@ 127
tishwa 127
tw@@ 127
ualimu 127
ufadhili 127
uliofanyika 127
umu@@ 127
utetezi 127
wadhifa 127
waliowahi 127
walitangazwa 127
wanyamapori 127
washirika 127
wasomaji 127
109 126
1866 126
5.@@ 126
77 126
9,000 126
Addis 126
Bil@@ 126
Cambridge 126
Dal@@ 126
Emmanuel 126
France 126
Gabriel 126
Hesse 126
Hippo 126
IA 126
Kina 126
Mauaji 126
Misa 126
Movement 126
Obama 126
Ou@@ 126
Panama 126
Sor@@ 126
Street 126
Ujapani 126
abibu 126
alendo 126
alirekodi 126
aliyeanzisha 126
bozi 126
ebu 126
ette 126
idi@@ 126
inatumia 126
kuhamisha 126
ohusisha 126
pende@@ 126
sho 126
ubia 126
ulifutwa 126
umiliki 126
unaendelea 126
uoni 126
uwindaji 126
waliofia 126
yalisababisha 126
yamep@@ 126
yok@@ 126
81 125
ANC 125
Arts 125
Free 125
Ikweta 125
Inaweza 125
Kairo 125
Kericho 125
Nisea 125
Ob@@ 125
Steven 125
Tal@@ 125
ahawa 125
aliyoy@@ 125
atikani 125
fua 125
hem@@ 125
iliamua 125
inahitaji 125
inatumiwa 125
itikio 125
kikiwa 125
kiufundi 125
kofia 125
kondomu 125
les 125
masista 125
matarajio 125
vilima 125
waliunda 125
wanaop@@ 125
wili 125
130 124
Bank 124
Dakar 124
Goguryeo 124
Hir@@ 124
Hollywood 124
Kibin@@ 124
Kumi 124
Mashairi 124
Mass@@ 124
Post 124
Seg@@ 124
Shakur 124
Sherehe 124
Sis@@ 124
Viti 124
agano 124
akaunti 124
alichapisha 124
alifundisha 124
alimpa 124
alitajwa 124
amewahi 124
anapaswa 124
anze 124
ary 124
asaidia 124
ayansi 124
bun@@ 124
der@@ 124
dr@@ 124
fanywa 124
fikra 124
huleta 124
imbilia 124
irizi 124
isimu 124
ithi 124
jifunza 124
kamji 124
kinachoitwa 124
kos@@ 124
ongozo 124
opera 124
pendwa 124
pumzi 124
tata 124
udu 124
ui@@ 124
usahihi 124
walitaka 124
waliv@@ 124
wanash@@ 124
watumishi 124
wor@@ 124
zilizofuata 124
1892 123
23,@@ 123
27,@@ 123
Alipewa 123
Beijing 123
Cap@@ 123
Del@@ 123
Dioklesyano 123
Earth 123
England 123
Grace 123
Hom@@ 123
Howard 123
Hussein 123
Jibuti 123
Ju@@ 123
Lil 123
MC 123
Malindi 123
Mwekundu 123
Rashid 123
Sur@@ 123
Ujiji 123
Vatikano 123
Venezuela 123
Wanakadiriwa 123
ac 123
aligundua 123
amiliki 123
ast@@ 123
cheti 123
dayosisi 123
eon@@ 123
fon@@ 123
hihirisha 123
hiyohiyo 123
hutoka 123
ian 123
ilijengwa 123
ingereza 123
isiti@@ 123
kazini 123
ken@@ 123
kiangazi 123
kidemokrasia 123
kirafiki 123
kuchomwa 123
kufikiria 123
kujihusisha 123
linalomaanisha 123
madume 123
mwanawe 123
my 123
pitishwa 123
pu 123
shambulio 123
sou 123
tamu 123
tangazo 123
thi@@ 123
uchezaji 123
udhamini 123
unguzi 123
unj@@ 123
upenda 123
viny@@ 123
vua 123
74 122
A.@@ 122
Be 122
Bomet 122
Centre 122
Chem@@ 122
Des@@ 122
Development 122
EP 122
Jomo 122
Kuku 122
Mababu 122
Nz@@ 122
Qatar 122
Ross 122
Saudia 122
Tatizo 122
Tovuti 122
aafu 122
aso 122
bio 122
bomba 122
bomu 122
che@@ 122
chemchemi 122
chote 122
diwani 122
eket@@ 122
elem@@ 122
enia 122
hamia 122
idhini 122
ifiwa 122
imia 122
inayom@@ 122
inayoz@@ 122
jukwaani 122
kampaundi 122
kardinali 122
kutoroka 122
mahar@@ 122
media 122
oth@@ 122
raga 122
sak@@ 122
tume 122
ufufuko 122
wakitumia 122
wanapaswa 122
„ 122
1895 121
24,@@ 121
28@@ 121
AS 121
Alfred 121
Alimaliza 121
Dũng 121
Ellen 121
Haya 121
Hol@@ 121
Iceland 121
Isaac 121
Isaya 121
Jab@@ 121
Juventus 121
Kiarmenia 121
Mwanamke 121
Mwenye 121
Mwokozi 121
Myahudi 121
On 121
Press 121
Taiwan 121
Tamb@@ 121
UK@@ 121
Ufu@@ 121
Uhusika 121
Vyuo 121
Waliobaki 121
We 121
achiliwa 121
aliimba 121
arr@@ 121
dem@@ 121
ello 121
fundishwa 121
gar@@ 121
hazij@@ 121
ichezo 121
ikip@@ 121
ilifanyika 121
iliona 121
ilitengenezwa 121
ishindwa 121
itaka 121
its 121
izi@@ 121
kiza 121
kuham@@ 121
kuif@@ 121
miiba 121
mitholojia 121
tiketi 121
ulim@@ 121
ungufu 121
vizuizi 121
vuguvugu 121
walihesabiwa 121
yalik@@ 121
zuka 121
101 120
4000 120
6.@@ 120
78 120
87 120
92 120
Bir@@ 120
Bosnia 120
Brothers 120
Cel@@ 120
Fox 120
G. 120
Hati 120
Karolo 120
Kiasili 120
L. 120
Live 120
Lạc 120
Main 120
Mimea 120
Mwigizaji 120
Napoleon 120
Nyeupe 120
Nzoia 120
Pin@@ 120
Tut@@ 120
Umuhimu 120
Ven@@ 120
Vy@@ 120
Wamisionari 120
XV 120
Zi@@ 120
Zin@@ 120
adamu 120
adhiliwa 120
alipofariki 120
alipopata 120
alitawala 120
aliwaunganisha 120
andamana 120
araka 120
asasi 120
awanya 120
eji 120
farakano 120
ful@@ 120
ghuba 120
haziku@@ 120
hogo 120
hupewa 120
inaw@@ 120
inayotokana 120
ingekuwa 120
iwezekanavyo 120
kauli 120
kukubaliwa 120
kuvunjika 120
kuzidi 120
linap@@ 120
linatumika 120
magimba 120
majarida 120
matini 120
mikakati 120
msamaha 120
mwana@@ 120
obadilika 120
ocheza 120
orwa 120
pacha 120
protoni 120
que 120
umech@@ 120
uundaji 120
wakip@@ 120
yaliyomo 120
34@@ 119
Aliteuliwa 119
Daily 119
Die 119
H. 119
Haiti 119
Hoima 119
Kahama 119
Kilutheri 119
Kok@@ 119
Laden 119
Math@@ 119
Mfaransa 119
Now 119
Pi@@ 119
Ufafanuzi 119
WHO 119
Wafanyakazi 119
Wanas@@ 119
akaanzisha 119
akapewa 119
all@@ 119
anayeishi 119
angam@@ 119
asimulia 119
atengenezwa 119
aus@@ 119
awaz@@ 119
ekewa 119
enyi 119
huhudia 119
huhusishwa 119
ikie 119
ikijumuisha 119
jui 119
koni 119
kustawi 119
maradufu 119
mfuko 119
nomino 119
takataka 119
unatiririka 119
visababishi 119
vizio 119
walikutana 119
2Pac 118
360 118
94 118
Ahmad 118
Canterbury 118
Chanjo 118
Cr@@ 118
Foreign 118
Global 118
IS@@ 118
Kidravidi 118
Kweneng 118
Mafuta 118
Mny@@ 118
Nabii 118
Nk@@ 118
Pot@@ 118
Rungwe 118
Sicilia 118
Uongozi 118
Vyanzo 118
Wakapuchini 118
Wananchi 118
Wanatajwa 118
adhimishwa 118
alitunukiwa 118
amar@@ 118
angazaji 118
athi 118
ebi 118
eshe 118
haba 118
ick 118
igania 118
inar@@ 118
ingeweza 118
iri@@ 118
jili 118
jumu@@ 118
kucha 118
kufukuzwa 118
lako 118
lami 118
lich@@ 118
mabonde 118
miliki 118
ndovu 118
nin@@ 118
ongofu 118
rushwa 118
tete 118
tis 118
une 118
ungum@@ 118
urembo 118
walipokea 118
wengu 118
yaliyof@@ 118
1200 117
1861 117
1871 117
93 117
Allen 117
Dhahabu 117
Dun@@ 117
Kang@@ 117
Kikal@@ 117
Lake 117
Mchungaji 117
Nehemia 117
Sayyid 117
Stanley 117
Wamor@@ 117
Washia 117
anuka 117
ayi 117
bl@@ 117
densi 117
hubeba 117
huendelea 117
ifuata 117
iliyor@@ 117
inakadiriwa 117
ja@@ 117
jipatia 117
koli 117
kuongezea 117
kupatwa 117
mbo 117
mitaani 117
msituni 117
raisi 117
sen@@ 117
tiri 117
tungo 117
ukeketaji 117
ukumu 117
uth@@ 117
walishinda 117
waliwatangaza 117
watafiti 117
wepesi 117
wizi 117
ys 117
1,8@@ 116
82 116
Alitoa 116
Bidhaa 116
CNN 116
F.C 116
Felisi 116
Gas@@ 116
Hills 116
Jaji 116
Kelly 116
Lim@@ 116
Muramvya 116
Nishati 116
Qur 116
Rom@@ 116
Sav@@ 116
Uy@@ 116
Wachezaji 116
Wajir 116
Wakomunisti 116
adimu 116
alikwa 116
anachezea 116
andwa 116
asali 116
atan@@ 116
chembechembe 116
dugu 116
elim@@ 116
etu 116
fukara 116
ifu@@ 116
ikuja 116
ime 116
ingu 116
jer@@ 116
kimb@@ 116
kujitenga 116
kumiliki 116
minyoo 116
mzingo 116
onea 116
ozunguka 116
poli@@ 116
tish@@ 116
uchafu 116
umisha 116
unganika 116
utabiri 116
utangazaji 116
utio 116
wanaotumia 116
yanapatikana 116
1,9@@ 115
1893 115
26,@@ 115
84 115
AL@@ 115
Algiers 115
Allah 115
Alliance 115
Alzeima 115
Gishu 115
Heri 115
Hi@@ 115
Humo 115
IN@@ 115
Kikur@@ 115
Kompyuta 115
Kong@@ 115
Masuala 115
Mifumo 115
Mtemi 115
Muhtasari 115
Mwanam@@ 115
Qurani 115
Saf@@ 115
Taratibu 115
Uasin 115
Wabantu 115
Warumi 115
Zaire 115
aksi 115
alishirikiana 115
alla 115
amecheza 115
amfetamini 115
bera 115
den 115
eli@@ 115
ilishaji 115
inatokea 115
itu 115
kamera 115
kinywaji 115
kufuta 115
kugombea 115
kuhisi 115
kujitoa 115
kukamata 115
kumekuwa 115
kutumikia 115
kwe 115
meza 115
mshirika 115
ns 115
ova 115
pole 115
sy@@ 115
ter 115
upole 115
utegemezi 115
vena 115
wakaao 115
walikataa 115
walipot@@ 115
25,000 114
Ashanti 114
Bundesliga 114
Che@@ 114
Dameski 114
Diego 114
Harris 114
Isi@@ 114
Kiman@@ 114
Kondoa 114
Long 114
Max 114
Oy@@ 114
Raila 114
Saksonia 114
Santos 114
Suez 114
Tim 114
Vig@@ 114
Villa 114
Wau@@ 114
airi 114
akata 114
aliomba 114
amatwa 114
atiza 114
fas@@ 114
ger@@ 114
harufu 114
hub@@ 114
huwekwa 114
ikiliza 114
ilitoka 114
iliwahi 114
inasim@@ 114
ity 114
kizuizi 114
kliniki 114
kumalizika 114
kumpenda 114
kumsh@@ 114
kusikiliza 114
lu 114
matengenezo 114
maungano 114
mshtuko 114
mwanae 114
nyani 114
orodhesha 114
oteza 114
pakubwa 114
patana 114
tiki 114
ukit@@ 114
vidonge 114
visivyo 114
wahudumu 114
wakilishwa 114
wanaofanya 114
wanja 114
zisizo@@ 114
1894 113
450 113
Ababa 113
Alpha 113
Atlanta 113
Claire 113
Da 113
Eric 113
He@@ 113
Kaf@@ 113
Krist@@ 113
Ltd 113
Luis 113
Merika 113
Musoma 113
Ohio 113
Ony@@ 113
Orleans 113
Pan 113
Tek@@ 113
Wale 113
West@@ 113
ahiri 113
akal@@ 113
ametoa 113
angaziwa 113
aq 113
awia 113
ce 113
cho 113
dhoruba 113
edi@@ 113
elektroniki 113
fimbo 113
hasibu 113
hayaj@@ 113
hibitishwa 113
ich 113
ilifikia 113
ilitumika 113
imamu 113
imeb@@ 113
inafaa 113
inasema 113
indik@@ 113
ing. 113
ith 113
itiwa 113
jiita 113
juma 113
kanisani 113
kivita 113
kivuli 113
ks 113
mtangulizi 113
oki 113
otiki 113
talaka 113
unaop@@ 113
unatokana 113
val@@ 113
wacha 113
wanatokea 113
wona 113
zee 113
zinaitwa 113
ô@@ 113
ː 113
170 112
1840 112
43@@ 112
Adamu 112
Ankara 112
Bayern 112
Dioecesis 112
Girls 112
Hek@@ 112
Ishara 112
Kazakhstan 112
Kifupi 112
Lesotho 112
Microsoft 112
Mkatoliki 112
Mwin@@ 112
Od@@ 112
Pale 112
Sag@@ 112
Serie 112
Stephen 112
Sulawesi 112
Theatre 112
Vile 112
Wand@@ 112
ambukiza 112
ameonekana 112
arifu 112
atizwa 112
bai 112
bain@@ 112
bua 112
eh 112
eu 112
ewekwa 112
fadhili 112
hubiri 112
idisha 112
ikiza 112
inayok@@ 112
itakay@@ 112
jini 112
kipaumbele 112
kiv@@ 112
kromosomu 112
kuamini 112
kuchochea 112
kumfuata 112
kupendeza 112
kuporomoka 112
kupumzika 112
kusomea 112
kuwan@@ 112
kuwasilisha 112
machafuko 112
michakato 112
nusutufe 112
ogani 112
ons 112
pari 112
shukrani 112
til@@ 112
uguzi 112
uzamivu 112
war 112
wasio@@ 112
yor@@ 112
zinazojulikana 112
01 111
21,@@ 111
Adolf 111
Anderson 111
Arabia 111
C.@@ 111
Cup 111
Darfur 111
Ezra 111
Fur@@ 111
Kurani 111
Lem@@ 111
Magufuli 111
Mapapa 111
Maungano 111
Mbwa 111
Mog@@ 111
Mwislamu 111
Sinai 111
Taveta 111
Tus@@ 111
Utalii 111
achangia 111
agu@@ 111
akaja 111
akwa 111
alisisitiza 111
aliyejulikana 111
alizia 111
anatajwa 111
astahili 111
band@@ 111
bee 111
bol@@ 111
buibui 111
da@@ 111
dijitali 111
ekaji 111
enyo 111
ga@@ 111
ghali 111
gia 111
huchukuliwa 111
hy@@ 111
ias 111
ikiri 111
ins 111
kez@@ 111
kuinua 111
kujibu 111
kurusha 111
kusonga 111
matiti 111
mfupa 111
msalabani 111
nembo 111
osoa 111
ostawi 111
tilia 111
ufunguzi 111
ultani 111
umonaki 111
usingizi 111
vipya 111
wafu 111
wakap@@ 111
waliwa 111
wea 111
yn 111
zinduliwa 111
00 110
201@@ 110
Alitumia 110
Baby 110
Buy@@ 110
Dennis 110
Front 110
Hans 110
Harare 110
Harry 110
Isichanganywe 110
Kibar@@ 110
Kipimo 110
Kos@@ 110
Kub@@ 110
Lil@@ 110
M.@@ 110
Mapigano 110
Marcus 110
Missions 110
Mke 110
Morocco 110
Prot@@ 110
RA 110
Shah 110
Silva 110
Soul 110
Tas@@ 110
Trier 110
Youth 110
Ze@@ 110
alieleza 110
alifuata 110
alingana 110
amas@@ 110
anayes@@ 110
angaliwa 110
bad@@ 110
hari 110
ikiria 110
inakuwa 110
inaruhusu 110
ioni 110
iza 110
kewa 110
kikombe 110
kusisitiza 110
mabasi 110
meupe 110
mifereji 110
mlezi 110
mzizi 110
nam@@ 110
ninyi 110
odha 110
otokea 110
pembetatu 110
pepo 110
pig@@ 110
ry 110
sifu 110
soni 110
tamka 110
udikteta 110
ulijengwa 110
unapita 110
ungulia 110
upanga 110
upendeleo 110
ust@@ 110
utunzi 110
ver@@ 110
vigezo 110
waliondoka 110
weha 110
zinak@@ 110
Art 109
Buikwe 109
Kili@@ 109
Kisal 109
Lang@@ 109
Malengo 109
Manispaa 109
Rap 109
Same 109
Seoul 109
Sit@@ 109
Tharaka 109
Tuk@@ 109
Udhibiti 109
^ 109
adala 109
adhimisha 109
ajitokeza 109
akah@@ 109
alijibu 109
andisi 109
atiririka 109
bar 109
biu 109
eja 109
esti 109
field 109
hitajika 109
hor@@ 109
imez@@ 109
kuashiria 109
kuchoma 109
kufikisha 109
kutot@@ 109
majumba 109
md@@ 109
mkim@@ 109
mlo 109
mtengenezaji 109
njozi 109
nyaraka 109
nyongo 109
sanduku 109
som@@ 109
talanta 109
tas@@ 109
upangaji 109
wanataka 109
zilik@@ 109
ć 109
08 108
103 108
8.@@ 108
Amina 108
Bamba 108
Barbara 108
Bustani 108
Chan@@ 108
Denis 108
F. 108
Gb@@ 108
Houston 108
Ij@@ 108
Jin@@ 108
Kasulu 108
Kipal@@ 108
Kl@@ 108
Lawrence 108
Meli 108
Milan 108
Mum@@ 108
Nap@@ 108
Nat@@ 108
Pap@@ 108
Queens 108
She@@ 108
Song 108
Tsh@@ 108
Usiku 108
Valley 108
Victor 108
Wallace 108
abidhiwa 108
aliajiriwa 108
alitumwa 108
amiaji 108
asiriamali 108
fo 108
fuat@@ 108
fuatia 108
gereza 108
graviti 108
haip@@ 108
iliyotoka 108
islamu 108
ism 108
kampasi 108
kenya 108
kg 108
kilima 108
kipato 108
kufaulu 108
kugawa 108
kukus@@ 108
kustah@@ 108
kutajwa 108
kwangu 108
mabishano 108
madeni 108
mataji 108
mganga 108
mijusi 108
mtaani 108
mwingiliano 108
mwinuko 108
od 108
ougou 108
owa 108
pigana 108
pil@@ 108
sharti 108
uhifadhi 108
ukaji 108
umaji 108
usurika 108
uwongo 108
volikano 108
waga 108
walioh@@ 108
waliyo@@ 108
wanaona 108
yang@@ 108
yot@@ 108
,@@ 107
1,7@@ 107
2,0@@ 107
7.@@ 107
Alisomea 107
CHADEMA 107
Ca@@ 107
Cheche 107
Country 107
Demokrasia 107
Ex@@ 107
Flava 107
Je@@ 107
Koloni 107
Kuh@@ 107
Majaribio 107
Mbinga 107
Minnesota 107
Mississippi 107
Nan@@ 107
Nation 107
Sarah 107
Shar@@ 107
Slovenia 107
Tim@@ 107
Timor 107
Tw@@ 107
Uruguay 107
Usambara 107
Wair@@ 107
Wasichana 107
abr@@ 107
alishika 107
apar@@ 107
arajia 107
chui 107
ci 107
ff@@ 107
huliwa 107
ilihamia 107
ilil@@ 107
imili 107
inamu 107
itak@@ 107
kilianza 107
mahakamani 107
marudio 107
meth@@ 107
mh@@ 107
mikopo 107
mmenyuko 107
mpelelezi 107
nyenzo 107
shauku 107
taki 107
ukat@@ 107
unaz@@ 107
unni 107
upwekeni 107
walidhulumiwa 107
wanaojulikana 107
wanaok@@ 107
zilizof@@ 107
105 106
ABC 106
Abdul 106
Amsterdam 106
Can 106
Damu 106
Dhana 106
Dr@@ 106
Ed@@ 106
Had@@ 106
Juan 106
Kikomunisti 106
Krioli 106
Lewis 106
Mafundisho 106
Mbegu 106
Pembe 106
Polandi 106
Ray 106
Sun@@ 106
Tag@@ 106
Tororo 106
Ushirika 106
Vikuu 106
ahaba 106
aia 106
akasema 106
alipelekwa 106
alipoanza 106
buniwa 106
ech 106
engi 106
hadhira 106
haikut@@ 106
huandikwa 106
hucheza 106
hukumiwa 106
ifia 106
itika 106
jan@@ 106
jin@@ 106
kilim@@ 106
kufafanua 106
kujadili 106
mabinti 106
maelekezo 106
maovu 106
masikio 106
mhadhiri 106
mjukuu 106
msafara 106
msamiati 106
ohusishwa 106
okus@@ 106
pro@@ 106
tari 106
tathmini 106
tisi 106
tuki@@ 106
tunay@@ 106
umilia 106
vitano 106
zikit@@ 106
1881 105
Abdullah 105
Balkani 105
Cordoba 105
District 105
ES@@ 105
Efeso 105
Girl 105
Gol@@ 105
Hesabu 105
Joseon 105
Kem@@ 105
Mafia 105
Mandera 105
Mwaro 105
Ndoa 105
Pu@@ 105
Ruk@@ 105
Salum 105
Sig@@ 105
Sports 105
Suleiman 105
Taita 105
Ufunuo 105
Wafuasi 105
Wahindu 105
akiwemo 105
alitoka 105
ejelea 105
elti 105
eshimu 105
hakut@@ 105
hori 105
ilitumia 105
ker@@ 105
kifupisho 105
kipen@@ 105
kitropiki 105
kufunika 105
kuing@@ 105
kulit@@ 105
kupanuka 105
kuratibu 105
lan@@ 105
mapumziko 105
matofali 105
mchele 105
mkazo 105
mtafiti 105
ojeni 105
ojit@@ 105
opendekezwa 105
oshika 105
pop@@ 105
sil@@ 105
taswira 105
th 105
tishio 105
tundu 105
uliof@@ 105
ulisha 105
viko 105
vitongoji 105
viw@@ 105
zinazotumiwa 105
zing@@ 105
06 104
Banda 104
Brooklyn 104
Cham@@ 104
Dis@@ 104
Donald 104
Hem@@ 104
Jumanne 104
Kennedy 104
Kior@@ 104
Kislavoni 104
Kitanzania 104
Kitivo 104
Konstantino 104
Lamwo 104
Linapatikana 104
Mapatano 104
My@@ 104
Oscar 104
Rah@@ 104
Str@@ 104
Uten@@ 104
Wanatokea 104
Wawili 104
adia 104
afutia 104
aiti 104
alithibitisha 104
anakumbukwa 104
ataka 104
bani 104
bert 104
dirisha 104
ehemu 104
elewana 104
heshimiwa 104
igh@@ 104
ikap@@ 104
ikira 104
ilipokea 104
ise 104
ishiriki 104
jusi 104
kuam@@ 104
kupe@@ 104
kupitishwa 104
kwen@@ 104
mapigo 104
mjane 104
mvulana 104
ndogondogo 104
ombwa 104
ongoka 104
oud 104
para 104
raha 104
satelaiti 104
seminari 104
stahili 104
steroidi 104
teri 104
tisha 104
uchafuzi 104
uchimbaji 104
ufisadi 104
uno 104
uoto 104
upadrisho 104
wavu 104
wele 104
yaliyop@@ 104
zinatokea 104
zinazoonekana 104
zozote 104
市 104
290 103
38@@ 103
Amri 103
Bernard 103
Bol@@ 103
COVID 103
Chati 103
Corps 103
Felix 103
Fl@@ 103
Gen@@ 103
Iti@@ 103
Jacob 103
Je 103
Kikonfusyo 103
Kilombero 103
Kimi@@ 103
Korogwe 103
Marais 103
Mbatizaji 103
Nature 103
Porto 103
Shia 103
Township 103
Ulimwenguni 103
Ung@@ 103
Waholanzi 103
Wakuu 103
Wasanii 103
Wenger 103
afika 103
alielezea 103
anatumia 103
aran@@ 103
ard@@ 103
ate@@ 103
atie 103
bus@@ 103
chin@@ 103
dereva 103
diko 103
emu 103
eonekana 103
esh 103
hazit@@ 103
hukua 103
ikaendelea 103
ikam@@ 103
kingono 103
kro 103
kwako 103
lands 103
mahubiri 103
mazoea 103
mwanajeshi 103
ogoro 103
okusudiwa 103
onek@@ 103
radidia 103
tokea 103
tra 103
umizi 103
und 103
walich@@ 103
waliwahi 103
wara 103
wavuvi 103
yatima 103
1,3@@ 102
3,0@@ 102
Bro@@ 102
Colorado 102
Copa 102
Emmy 102
Fi@@ 102
Isaka 102
Juliani 102
Kiang@@ 102
Kijamii 102
Little 102
Lombardia 102
Mauretania 102
Med@@ 102
Mongolia 102
Mpanda 102
Mta@@ 102
Nana 102
Network 102
Shindano 102
Sho@@ 102
Skandinavia 102
T. 102
Wabenedikto 102
Yo 102
aalam 102
afanyika 102
akiishi 102
alicho@@ 102
ambaza 102
ameandika 102
anavyo@@ 102
anif@@ 102
ateri 102
athmini 102
bra 102
chen@@ 102
eaji 102
eingia 102
haa 102
hun@@ 102
ikuu 102
iliingia 102
inapakana 102
inayoonekana 102
inz@@ 102
kah@@ 102
kilogramu 102
kiwanja 102
kusafirisha 102
kuvimba 102
lililoitwa 102
maanani 102
machifu 102
mdomoni 102
mjomba 102
nas@@ 102
nene 102
obuniwa 102
ongezewa 102
our@@ 102
tivo 102
ts@@ 102
ubini 102
ugunduzi 102
ulioitwa 102
ungumzwa 102
unguz@@ 102
up 102
utaji 102
utaka 102
utakaso 102
uzinduzi 102
vur@@ 102
walipokuwa 102
waza 102
1830 101
1850 101
Alaska 101
Alihamia 101
Anga 101
Bolivia 101
Boys 101
Brooks 101
Council 101
Dominiko 101
Elgeyo 101
Enugu 101
Game 101
Helen 101
Jaribio 101
Kichwa 101
Kirundo 101
Makaburu 101
Maryland 101
Mkondo 101
Mom@@ 101
Mwai 101
Pak@@ 101
Pop 101
Raf@@ 101
Rut@@ 101
Tafsiri 101
Tang@@ 101
Uh@@ 101
Ukerewe 101
Uzalishaji 101
Val@@ 101
ador 101
aliyepata 101
asteroidi 101
atisha 101
bebwa 101
chochea 101
department 101
gezwa 101
hubadilika 101
ilileta 101
itat@@ 101
kari@@ 101
kibayolojia 101
kilo 101
kufanyiwa 101
kuhesabu 101
kukimbilia 101
kutayarisha 101
kuwaua 101
kuyat@@ 101
magurudumu 101
mshipa 101
ngeli 101
nguruwe 101
olo@@ 101
orushwa 101
pete 101
sifuri 101
tah@@ 101
tan 101
the@@ 101
thumb 101
ty@@ 101
uan@@ 101
uda 101
ulitumika 101
ulizi 101
umakini 101
umej@@ 101
walisema 101
wanafanya 101
wano 101
wazalendo 101
yaliyotokea 101
zimef@@ 101
zinaonekana 101
000 100
106 100
1600 100
1700 100
1909 100
28,@@ 100
Ap@@ 100
Binti 100
Bush 100
Business 100
Church 100
Corporation 100
Dre 100
Fat@@ 100
Forbes 100
Gur@@ 100
Kamb@@ 100
Kawaida 100
Kubwa 100
Leopold 100
Livingstone 100
Lom@@ 100
Lup@@ 100
Namb@@ 100
Polinesia 100
Rak@@ 100
Redio 100
Saturninus 100
WA 100
Wadudu 100
Yak@@ 100
ahama 100
alipenda 100
ambuzi 100
ameolewa 100
apishaji 100
asani 100
biana 100
ewe 100
giz@@ 100
halik@@ 100
hauna 100
hauri 100
ichukua 100
iliyojulikana 100
inav@@ 100
ine@@ 100
inge@@ 100
ita@@ 100
kongwe 100
kukumbuka 100
kuut@@ 100
kuwar@@ 100
lililoanzishwa 100
mawindo 100
mchoro 100
mkongwe 100
mwekundu 100
mzito 100
orum 100
stesheni 100
tunaona 100
ujiza 100
umem@@ 100
use 100
uvutaji 100
wada 100
wanaunda 100
1869 99
320 99
9.@@ 99
Afisa 99
Aires 99
Anachezea 99
Ann 99
Azerbaijan 99
BC 99
Bavaria 99
Bell 99
Bunilizi 99
Den@@ 99
Fun@@ 99
Haji 99
Ian 99
Kiaw@@ 99
Kiwar@@ 99
Lady 99
Luanda 99
Mario 99
Masista 99
Mlango 99
Ngorongoro 99
Oliver 99
Seb@@ 99
Thailand 99
Tottenham 99
Ukimwi 99
Usangu 99
Walimu 99
Wamar@@ 99
ais 99
akawa@@ 99
alifu 99
ante 99
arab 99
ator 99
atus 99
bos@@ 99
burg 99
co@@ 99
diski 99
engana 99
engele 99
eongezeka 99
faraja 99
finyanzi 99
ghorofa 99
haribiwa 99
haukuwa 99
hep@@ 99
huingia 99
iani 99
ice 99
ilin@@ 99
inafanana 99
inapaswa 99
inzani 99
isia 99
iso 99
itahidi 99
kari 99
koti 99
ks@@ 99
kuitumia 99
kukwepa 99
kumiminiwa 99
kuzi 99
likana 99
lilipo@@ 99
linam@@ 99
machapisho 99
minane 99
msemaji 99
nyanya 99
onaki 99
oroka 99
ria 99
sivyo 99
skizofrenia 99
tung@@ 99
unyofu 99
uto 99
wachungaji 99
wapiga 99
yonza 99
zilizos@@ 99
1,5@@ 98
107 98
270 98
75@@ 98
Albania 98
Askari 98
Athens 98
Bahrain 98
Bom@@ 98
Buenos 98
Cabo 98
Cer@@ 98
Chifu 98
FDA 98
Firenze 98
Henri 98
Heroes 98
Kiborneo 98
Kijana 98
Kilosa 98
Kipo@@ 98
Kisepik 98
Koreshi 98
Lebanon 98
Lor@@ 98
Ludwig 98
Morisi 98
Nasaba 98
Nzega 98
S.@@ 98
SS 98
Sera 98
Shi@@ 98
Tennessee 98
Ukuta 98
Upinzani 98
Valencia 98
Wakal@@ 98
Wall 98
aliyesh@@ 98
ayan 98
badilika 98
biaji 98
chungu 98
dharau 98
din 98
doo 98
eman 98
est 98
feri 98
fup@@ 98
gandunia 98
gl@@ 98
huhitaji 98
ifuatwa 98
imepata 98
julikan@@ 98
kuheshimu 98
kulazimishwa 98
kurahisisha 98
kuzwa 98
liitwalo 98
mabwana 98
mashambani 98
milimani 98
mr@@ 98
mwanas@@ 98
ngao 98
nyati 98
ogea 98
omu@@ 98
punde 98
tamko 98
tufe 98
u.@@ 98
ukuku 98
ukumbusho 98
uwazi 98
wameanza 98
wita 98
300,000 97
550 97
Alifunga 97
Beta 97
Cam@@ 97
Chim@@ 97
Cl@@ 97
Decius 97
Fo@@ 97
Gordon 97
Kampeni 97
Luteni 97
Mok@@ 97
NARC 97
Naj@@ 97
Namna 97
Pas@@ 97
Pel@@ 97
Plateau 97
Rob@@ 97
Rom 97
USA 97
Ukubwa 97
Vir@@ 97
Wapagani 97
Windows 97
Württemberg 97
XL@@ 97
afan@@ 97
akaamua 97
alam@@ 97
alipendekeza 97
aliwat@@ 97
alizi 97
aminifu 97
amkwa 97
angamiza 97
aribishwa 97
ariri 97
ashika 97
atana 97
atar@@ 97
besi 97
bou@@ 97
ei@@ 97
etti 97
fuatano 97
fuatiwa 97
huhuri 97
hupenda 97
ikif@@ 97
ilichukuliwa 97
ilifika 97
ilinganisha 97
ington 97
ion 97
ize 97
kieneo 97
kisich@@ 97
kuoa 97
kutafsiri 97
kuunganishwa 97
leri 97
lilitokana 97
mahususi 97
mati@@ 97
meusi 97
mjadala 97
more 97
mwembamba 97
nyangumi 97
otara 97
oué 97
radi 97
sum@@ 97
taz 97
tishia 97
ujao 97
ujazo 97
umwagiliaji 97
watunzi 97
ão 97
150,000 96
1882 96
AI@@ 96
Alijulikana 96
Bruce 96
Bruno 96
Cole 96
Daktari 96
Daw@@ 96
Ee 96
Garissa 96
Gary 96
Hawaii 96
Joyce 96
Lucas 96
Madina 96
Mahdi 96
Maktaba 96
Movie 96
Muheza 96
Mzaliwa 96
Patr@@ 96
Philip 96
Pon@@ 96
Rab@@ 96
Sy@@ 96
US@@ 96
Uprotestanti 96
akion@@ 96
akula 96
aliaga 96
aliamini 96
alie 96
alijitahidi 96
atumika 96
awati 96
bangi 96
dhamira 96
dir@@ 96
giwa 96
hutajwa 96
ifuatayo 96
ilibaki 96
ilika 96
ilitumiwa 96
inal@@ 96
inasababisha 96
indu 96
inge 96
jingine 96
kimuziki 96
kuabudu 96
kuheshimiwa 96
kuin@@ 96
kumeza 96
kupan@@ 96
kupona 96
kuvi@@ 96
kuzidisha 96
mate 96
mionzi 96
mitihani 96
miwa 96
mkakati 96
nami 96
ongoni 96
pare 96
tof@@ 96
tumboni 96
uanz@@ 96
udanganyifu 96
unaonekana 96
uumbaji 96
vinginevyo 96
vo 96
wanahitaji 96
yey@@ 96
zako 96
ziwe 96
50@@ 95
Alisema 95
Ardhi 95
Clinton 95
DA 95
Douglas 95
Guyana 95
Hayo 95
Irak 95
Jonathan 95
Juhudi 95
Kaimu 95
Kigur 95
Kinil@@ 95
Komori 95
Lik@@ 95
Majani 95
Malaika 95
Mwendo 95
Puerto 95
Rico 95
Run@@ 95
Shir@@ 95
Standard 95
ace 95
ait@@ 95
aita 95
ajiwa 95
ambishi 95
amez@@ 95
amoto 95
anajaribu 95
ekolojia 95
eksirei 95
endelezo 95
ent 95
eru 95
galaksi 95
hitimisha 95
hulikia 95
iliyochapishwa 95
ingilia 95
jar@@ 95
kukabidhi 95
kumbi 95
kusukuma 95
kuwinda 95
kuya@@ 95
kuzu@@ 95
lea 95
lei 95
lika@@ 95
likizo 95
mahari 95
majuzi 95
mand@@ 95
milipuko 95
mir@@ 95
mtaalam 95
mwako 95
operesheni 95
ose 95
palikuwa 95
pele 95
pengi 95
per 95
plat@@ 95
silabi 95
tukufu 95
unaanza 95
usim@@ 95
vitisho 95
wafanya 95
wamiliki 95
wasik@@ 95
wasilishwa 95
wilayani 95
yanap@@ 95
yaweza 95
zinaa 95
zinajulikana 95
zinazoitwa 95
AC 94
Ames@@ 94
Cool 94
Dem@@ 94
Facebook 94
Family 94
Johannes 94
Junior 94
Khartoum 94
Kigermanik 94
Kikor@@ 94
Mauritania 94
Mchakato 94
Mfululizo 94
NBA 94
Nithi 94
Nkrumah 94
Ot@@ 94
Pentekoste 94
PhD 94
RT 94
Ruvubu 94
Sas@@ 94
Sher@@ 94
Shi 94
TKUU 94
That 94
Tum@@ 94
Ukoloni 94
Var@@ 94
Volta 94
Wanaume 94
Watanzania 94
Zel@@ 94
akatoa 94
aliwakilisha 94
anag@@ 94
assi 94
asso 94
auf@@ 94
badiliko 94
egemezi 94
enz@@ 94
fuzu 94
gluteni 94
haih@@ 94
hufikia 94
huzuia 94
ide 94
igu 94
ilionyesha 94
iliza 94
imarishwa 94
induliwa 94
ingiliano 94
inia 94
irisha 94
isiyot@@ 94
jimboni 94
karanga 94
kaswende 94
kataa 94
kipandauso 94
kufunguliwa 94
kuonesha 94
lat 94
lita 94
mazito 94
mba@@ 94
mteja 94
name 94
ofi 94
ologia 94
ondoo 94
ongozana 94
poromoka 94
poti 94
sentigredi 94
tur@@ 94
ubiwa 94
ufupi 94
umiaji 94
undu@@ 94
upwa 94
uthibitisho 94
wakaj@@ 94
wakil@@ 94
walifaulu 94
yamef@@ 94
1883 93
63@@ 93
Bakteria 93
Fad@@ 93
Greenland 93
Hai 93
Hel@@ 93
Kiber@@ 93
Kiser@@ 93
KwaZulu 93
Ligue 93
Magdalena 93
Mif@@ 93
Nathan 93
Newala 93
Nur@@ 93
Saudi 93
Singles 93
Toronto 93
Wachagga 93
Wais@@ 93
Wamer@@ 93
Wasafwa 93
Wayne 93
alikimbia 93
alishaji 93
anayej@@ 93
art 93
emaji 93
geni 93
gun@@ 93
hamishwa 93
hosa 93
ien@@ 93
ilid@@ 93
imaji 93
isema 93
jih@@ 93
kielimu 93
kona 93
kuhusisha 93
kuingizwa 93
kuonyeshwa 93
kupand@@ 93
kusisimua 93
mann 93
mor@@ 93
mzio 93
nj@@ 93
omin@@ 93
ongezea 93
opot@@ 93
pandishwa 93
sarufi 93
sumakuumeme 93
tii 93
tokeo 93
tri@@ 93
unabii 93
ungumzaji 93
utakuwa 93
vichaka 93
vinav@@ 93
vyovyote 93
wei 93
wima 93
yonge 93
zinazof@@ 93
zito 93
zw@@ 93
05 92
305 92
Akwino 92
Aleksander 92
BA 92
Bakari 92
Barani 92
Bologna 92
Claude 92
Eg@@ 92
European 92
Faida 92
For 92
Friedrich 92
Jane 92
Kupro 92
Mfereji 92
Mwishowe 92
Ndi@@ 92
Pil@@ 92
Satur@@ 92
Somaliland 92
Studios 92
Tou@@ 92
Uainishaji 92
Usultani 92
Wakikuyu 92
Wakopti 92
Wanaweza 92
Warner 92
Yan@@ 92
aan 92
akamu@@ 92
alii 92
anatakiwa 92
ank@@ 92
asik@@ 92
auliwa 92
buka 92
changa 92
dewa 92
eda 92
epa 92
etikia 92
huamini 92
igizo 92
ilandi 92
ilikuja 92
inayofanana 92
inganisha 92
kuhusika 92
kukabili 92
kuta@@ 92
maharagwe 92
mau@@ 92
mes@@ 92
mgawanyo 92
mgongoni 92
muktadha 92
owas@@ 92
panua 92
pasi 92
raundi 92
tunat@@ 92
uhya 92
ulionyesha 92
upelelezi 92
usanyaji 92
utum@@ 92
visi@@ 92
vo@@ 92
wakiishi 92
wameh@@ 92
wang 92
zilizopita 92
zimes@@ 92
én@@ 92
β 92
112 91
750 91
Alikua 91
Aliyemfuata 91
Anam@@ 91
Angela 91
Back 91
Bang@@ 91
Dada 91
F.@@ 91
Franklin 91
Herode 91
Himalaya 91
Hot@@ 91
Ice 91
Jan@@ 91
Jennifer 91
Jumatatu 91
Kevin 91
Kibi@@ 91
Klaudio 91
Maalum 91
Mazao 91
Mechi 91
New@@ 91
Quebec 91
Reg@@ 91
Rouge 91
Sara 91
Seli 91
Soweto 91
Top 91
Wakiso 91
Wanamuziki 91
Wasukuma 91
Zan@@ 91
aani 91
aik@@ 91
akich@@ 91
akih@@ 91
alivyot@@ 91
aloi 91
amev@@ 91
anav@@ 91
andikishwa 91
apenda 91
apye 91
ashinda 91
atiba 91
azam@@ 91
bah 91
bawe 91
chuoni 91
chupa 91
dozi 91
eseka 91
estr@@ 91
gal@@ 91
gumu 91
hadhara 91
haif@@ 91
hakuf@@ 91
hua 91
ikiliwa 91
ilipatikana 91
ilishindwa 91
kibete 91
kirahisi 91
kujitetea 91
kutabiri 91
kutambulika 91
kutekelezwa 91
leng@@ 91
lililoko 91
limes@@ 91
linah@@ 91
makuhani 91
mip@@ 91
nz@@ 91
ofautishwa 91
opi 91
ouzwa 91
porudi 91
roketi 91
tauni 91
ubinadamu 91
uchungaji 91
udani 91
wanaos@@ 91
wataka@@ 91
yakiwemo 91
108 90
2,9@@ 90
Alihudhuria 90
Baf@@ 90
Chik@@ 90
Emilia 90
Fe@@ 90
Festival 90
Gallia 90
Inaonekana 90
Iz@@ 90
Kali@@ 90
Kikwa 90
Kingwi 90
Kivu 90
Labda 90
Liturujia 90
Marvel 90
Mirihi 90
Mr 90
Msitu 90
Pl@@ 90
Sabri 90
Southampton 90
Tet@@ 90
Viz@@ 90
Wazo 90
Wit@@ 90
ajia 90
akataa 90
akin@@ 90
alijenga 90
als 90
ambulizi 90
amilia 90
anatoka 90
angak@@ 90
ansi 90
bizi 90
bom@@ 90
ekana 90
emasi 90
fahamika 90
gan@@ 90
haiwezekani 90
hakik@@ 90
halisia 90
himiza 90
hoofisha 90
if 90
imeanza 90
inayomilikiwa 90
inzi 90
jani 90
kelele 90
kuathiriwa 90
kuibuka 90
kuik@@ 90
kujaza 90
kutibiwa 90
kwa@@ 90
low 90
mbuai 90
mfu@@ 90
msi@@ 90
mwanasoka 90
nun@@ 90
nyika 90
olimpiki 90
onyezo 90
pinga 90
pul@@ 90
pur@@ 90
sahani 90
tunapaswa 90
ulitokea 90
umlisha 90
upishi 90
utaalamu 90
vilele 90
waliopo 90
watak@@ 90
well 90
zilim@@ 90
zimej@@ 90
zinas@@ 90
zindua 90
1865 89
AF@@ 89
Agostino 89
Alihudumu 89
Campania 89
Chake 89
Cuba 89
God 89
Huenda 89
Injini 89
Intanet 89
Iwapo 89
Karagwe 89
Kenneth 89
Kiaramu 89
Kibaha 89
Kibe@@ 89
Kiini 89
Kura 89
Mbozi 89
Nyekundu 89
Op@@ 89
Raymond 89
Ruh@@ 89
Shabaha 89
Ton@@ 89
Ty@@ 89
Wanam@@ 89
Wewe 89
Wol@@ 89
Yeremia 89
achiwa 89
ahu 89
aktiki 89
alu 89
angany@@ 89
ann@@ 89
aum@@ 89
bel@@ 89
blogu 89
bron@@ 89
chukulia 89
ci@@ 89
ein 89
fariki 89
gee 89
godi 89
gramu 89
hir 89
hisani 89
imeg@@ 89
into 89
jumbe 89
key 89
kimazingira 89
kitambo 89
kuachiliwa 89
kuhitaji 89
kusaini 89
kutayarishwa 89
kuugua 89
lilijengwa 89
linaitwa 89
linalojulikana 89
majuma 89
mamake 89
marais 89
mhimili 89
mkulima 89
mratibu 89
mwaminifu 89
nasi 89
nch@@ 89
o. 89
ojitokeza 89
oshwa 89
paswa 89
pp. 89
ran@@ 89
taw@@ 89
tus 89
tusi@@ 89
ugua 89
ukim@@ 89
ulioanzishwa 89
vichwa 89
vinavyopatikana 89
wagombea 89
wai 89
waliobaki 89
wanajulikana 89
zilitolewa 89
210 88
240 88
6000 88
650 88
Akon 88
Akw@@ 88
Anach@@ 88
Angel 88
Arab 88
Bin@@ 88
Charlotte 88
Eldoret 88
Gre@@ 88
Jimmy 88
Joshua 88
Jukumu 88
Kadai 88
Kibur@@ 88
Kigali 88
Kima@@ 88
Kitam@@ 88
Las 88
Leb@@ 88
Luxemburg 88
Miezi 88
Mtumishi 88
Nachingwea 88
Nakas@@ 88
Newton 88
OS 88
Pader 88
Paraguay 88
Ramani 88
Sirili 88
Sunni 88
Uzbekistan 88
Waklara 88
Westfalia 88
abiliwa 88
afadhali 88
amasi 88
ambaratika 88
ance 88
anganywa 88
angekuwa 88
ark@@ 88
atibiwa 88
bot@@ 88
dhiki 88
dhul@@ 88
epo 88
fomu 88
gel@@ 88
gundua 88
huli@@ 88
hupitia 88
iliyoch@@ 88
ilizidi 88
inafuata 88
inapita 88
inavyot@@ 88
ishana 88
jino 88
kashfa 88
kidunia 88
kikanda 88
kuhar@@ 88
kumwua 88
kupika 88
linak@@ 88
mabwawa 88
matam@@ 88
mej@@ 88
mioyo 88
mstaafu 88
mwitikio 88
nyur@@ 88
ogi 88
pitish@@ 88
potea 88
rekeb@@ 88
uchawi 88
uguru 88
ujasiri 88
ukom@@ 88
umegawanyika 88
umes@@ 88
ununuzi 88
unya 88
vich@@ 88
walia 88
waliotaka 88
wanapatikana 88
wanavyo@@ 88
yaliendelea 88
yalim@@ 88
zio 88
1857 87
AR 87
Alexandria 87
Bado 87
Channel 87
Chiba 87
Din 87
Europa 87
Good 87
Haile 87
Kau@@ 87
Kikar@@ 87
Kiph@@ 87
Kisomali 87
Kiuk@@ 87
Kuzuia 87
Lah@@ 87
Les 87
Les@@ 87
Many@@ 87
Marshall 87
Matunda 87
Maurice 87
Nyumbani 87
Opera 87
Salvador 87
Santiago 87
Secondary 87
Simeoni 87
Sumbawanga 87
Umaarufu 87
Uzazi 87
Vihiga 87
Waash@@ 87
Wanachama 87
Warangi 87
Wawakilishi 87
Wen@@ 87
aan@@ 87
agaji 87
ajengwa 87
akaji@@ 87
akiwi 87
alaba 87
aliyefanya 87
ambu 87
apate 87
atanisha 87
awekwa 87
awiya 87
baji 87
ber 87
dos 87
ds 87
eleta 87
endeshaji 87
fahari 87
feleji 87
futa 87
habiki 87
hayana 87
huhusisha 87
hwa 87
ikifuatiwa 87
iliongozwa 87
inalenga 87
inayotumia 87
ionekani 87
iss@@ 87
jotoridi 87
kak@@ 87
kiingereza 87
kima 87
kisa 87
konventi 87
kriketi 87
kuzit@@ 87
linaunda 87
lis 87
maazimio 87
mafundi 87
mipya 87
nzi 87
oana 87
oge 87
ombol@@ 87
penya 87
ratiba 87
ten 87
unafikia 87
wakifanya 87
yaliyofanyika 87
yanak@@ 87
zilizok@@ 87
1838 86
1867 86
Alan 86
Alil@@ 86
Alionekana 86
Boma 86
CA@@ 86
FORD 86
ICRC 86
Ikulu 86
Inap@@ 86
Inter@@ 86
Kikwete 86
Kosovo 86
Kud@@ 86
Leon 86
Master 86
Mkon@@ 86
Montenegro 86
Mount 86
Mwenyewe 86
Republican 86
Safu 86
Tandahimba 86
To 86
Tri@@ 86
Ukweli 86
Ushahidi 86
Ushindi 86
Vladimir 86
Wahusika 86
Yam@@ 86
achukuliwa 86
alifia 86
alihusika 86
alijua 86
ambulishwa 86
amilifu 86
amilishwa 86
amuliwa 86
anapata 86
andamizwa 86
arg@@ 86
aume 86
choo 86
epu@@ 86
fe 86
hakiki 86
han@@ 86
hand@@ 86
haorodheshwi 86
hufun@@ 86
ilikiwa 86
imeendelea 86
imeundwa 86
ipatia 86
jari 86
jitu 86
kiharusi 86
kilichoitwa 86
kinyuklia 86
kuchem@@ 86
kuelekeza 86
kufanikisha 86
kugeuza 86
kuhusishwa 86
kuki 86
kuvumilia 86
life 86
madaraja 86
mlolongo 86
mmojawao 86
nacho 86
ogania 86
oun 86
pah@@ 86
pembezoni 86
polio 86
rejea 86
spektra 86
sun@@ 86
terem@@ 86
teua 86
ud 86
undaji 86
unganishi 86
wanafanana 86
wanal@@ 86
way 86
yaliyok@@ 86
yanayotokana 86
ziliendelea 86
03 85
1.2 85
113 85
260 85
325 85
Abitinae 85
Abo@@ 85
Ac@@ 85
Apple 85
Bernardo 85
Bumbuli 85
Chin@@ 85
Fin@@ 85
Handeni 85
Hekalu 85
Hewa 85
Jan 85
Khmer 85
Kikorea 85
Kizhuang 85
Law 85
Lit@@ 85
Mapokeo 85
Mih@@ 85
Missouri 85
Mshtarii 85
Mwimbaji 85
Ne 85
Oman 85
Pep@@ 85
Saa 85
Ses@@ 85
Uenezi 85
Unit 85
Utendaji 85
Vilima 85
Wamongolia 85
Zaburi 85
abiriwa 85
afishwa 85
akashinda 85
alibadilisha 85
alijiuzulu 85
alitambua 85
ampenda 85
anasa 85
anayefanya 85
bainisha 85
changanywa 85
choch@@ 85
ekwisha 85
hadubini 85
has 85
hawap@@ 85
hukadiriwa 85
huongezeka 85
hupokea 85
hutaga 85
ie@@ 85
inamilikiwa 85
inayomaanisha 85
itum@@ 85
jiolojia 85
jitenga 85
kikatili 85
kivutio 85
kizu@@ 85
kumuona 85
kutegemeana 85
matumbo 85
mawingu 85
mhubiri 85
midundo 85
mkufunzi 85
msu@@ 85
mtoni 85
pakana 85
pindua 85
pingili 85
riziki 85
rufaa 85
sinodi 85
ugi 85
uhi 85
uma@@ 85
unaotokana 85
usajili 85
uwanjani 85
wamini 85
wasafiri 85
wende 85
ī@@ 85
1,500 84
1815 84
1856 84
220 84
230 84
280 84
313 84
Abe@@ 84
Adams 84
Alice 84
Alipokea 84
Bell@@ 84
Bethlehemu 84
Bé@@ 84
CE@@ 84
Chal@@ 84
Chil@@ 84
Din@@ 84
Football 84
Giovanni 84
Gul@@ 84
Ho 84
Hos@@ 84
Ib@@ 84
Irene 84
Isa 84
Kho@@ 84
Lab@@ 84
Laga 84
Madhara 84
Miami 84
Mvua 84
Mwak@@ 84
Mwangaza 84
Neg@@ 84
Pre@@ 84
Rem@@ 84
Rum@@ 84
Samweli 84
Trento 84
Ujumbe 84
Wain@@ 84
Walipo@@ 84
Yi 84
abisha 84
adini 84
afirisha 84
agha 84
alimteua 84
aman 84
anana 84
anoni 84
asio 84
atima 84
atoa 84
auzwa 84
baiskeli 84
chapisha 84
fah@@ 84
gol@@ 84
goti 84
hambuliwa 84
haribu 84
hindi 84
ibika 84
ifa 84
ijayo 84
ilibadilishwa 84
inazidi 84
jif@@ 84
jul@@ 84
katek@@ 84
kiki@@ 84
kuichezea 84
kumbuka 84
kupot@@ 84
kusababishwa 84
maada 84
madhubuti 84
manisipaa 84
mashahidi 84
ngamia 84
nor@@ 84
olewe 84
omp@@ 84
ongokea 84
oth 84
papo 84
rudisha 84
ucheshi 84
ulioimbwa 84
unaosababishwa 84
uniwa 84
uovu 84
uru@@ 84
ushuhuda 84
vitambaa 84
wahili 84
walitoka 84
walitokea 84
wanaof@@ 84
yoy@@ 84
zoezi 84
1864 83
400,000 83
Aksum 83
Alfabeti 83
Bismarck 83
Bunda 83
Chep@@ 83
DVD 83
Ernest 83
Eus@@ 83
Ferdinand 83
Florence 83
Git@@ 83
Grant 83
Hag@@ 83
Hakika 83
Haz@@ 83
Jacques 83
Johann 83
Kameruni 83
Katerina 83
Kati@@ 83
Kiturki 83
Len@@ 83
Lisbon 83
Lushoto 83
Miller 83
Moses 83
Mpangilio 83
Mub@@ 83
Nani 83
Nikola 83
Nyakati 83
Power 83
Sad@@ 83
Sat@@ 83
Sevilla 83
Shil@@ 83
Slovakia 83
Sykes 83
Uso 83
Wafinisia 83
Walt 83
Will 83
XVII 83
` 83
ail@@ 83
aliou@@ 83
alist@@ 83
ambazi 83
amen@@ 83
anayep@@ 83
anayo 83
andaaji 83
aniwa 83
ario 83
ax@@ 83
bab@@ 83
del@@ 83
dhehebu 83
dioksidi 83
egwa 83
ekebishwa 83
enganishwa 83
hihirika 83
hol@@ 83
hr@@ 83
huunda 83
ilifu 83
inasimulia 83
inatakiwa 83
inchi 83
istilahi 83
jasho 83
kilichoanzishwa 83
kinataja 83
kinatakiwa 83
kufahamu 83
kujiandaa 83
kukiwa 83
kutokwa 83
lar@@ 83
lin 83
ling 83
mageuko 83
marekani 83
miza 83
mpevu 83
mpokeaji 83
naf@@ 83
ney 83
nili@@ 83
nk 83
nururifu 83
onjo 83
ouza 83
reh@@ 83
sti 83
teni 83
tin 83
tulivu 83
ufa@@ 83
uhisho 83
ump@@ 83
upadri 83
upi 83
usik@@ 83
uvu 83
uziki 83
wakak@@ 83
wakish@@ 83
waliofanya 83
waliozaliwa 83
wanahistoria 83
wanaitwa 83
wanariadha 83
wapate 83
wasilisha 83
wemo 83
wenzi 83
were 83
ו@@ 83
1863 82
3,7@@ 82
310 82
Adi@@ 82
Arizona 82
Babati 82
Bes@@ 82
Buvuma 82
Community 82
Dublin 82
Gharama 82
Heinrich 82
Indiana 82
Jenerali 82
Kach@@ 82
Kalimantan 82
Kash@@ 82
Kimalay@@ 82
Kisem@@ 82
Kiuchumi 82
Leeds 82
Makundi 82
Mod@@ 82
Nyamira 82
Ryan 82
Salim 82
Sekta 82
Sinema 82
Susan 82
Tre@@ 82
Trinidad 82
Tsavo 82
Ubora 82
Wakenya 82
Yoh@@ 82
abara 82
abo@@ 82
afanikiwa 82
ag 82
akasi 82
alam 82
alika 82
alitokea 82
aliyechaguliwa 82
ambat@@ 82
andamizaji 82
andiko 82
api@@ 82
arra 82
atengeneza 82
auza 82
bira 82
dal@@ 82
dopamini 82
dur@@ 82
eland 82
enye 82
fukuza 82
gizwa 82
had@@ 82
hea 82
her 82
hist@@ 82
hom@@ 82
house 82
hufanana 82
hughu@@ 82
huri 82
idhiwa 82
igwe 82
ikolojia 82
inadai 82
inayotolewa 82
indikana 82
irikina 82
kamilifu 82
kha 82
kinaitwa 82
kinap@@ 82
kisicho 82
kubatizwa 82
kufanyia 82
kurudishwa 82
kuyeyuka 82
mafua 82
mapana 82
misikiti 82
mun@@ 82
nta 82
pango 82
pokewa 82
pum@@ 82
shilingi 82
ski 82
sy 82
tabibu 82
ts 82
ube@@ 82
ugali 82
uge 82
umaku 82
urani 82
uwez@@ 82
vitanda 82
walishiriki 82
wanaendelea 82
widi 82
yany@@ 82
zwe 82
ː@@ 82
א@@ 82
104 81
115 81
1300 81
Binafsi 81
Chek@@ 81
Combs 81
Ez@@ 81
Finland 81
Force 81
Gel@@ 81
Gis@@ 81
Haram 81
Herzegovina 81
Ilala 81
Inaaminika 81
Jinsia 81
Kardinali 81
Kiwanda 81
Kut 81
Lut@@ 81
Matt 81
Meneja 81
Mikaeli 81
Milo 81
Mkom@@ 81
Nang@@ 81
Sah@@ 81
Sony 81
Taliban 81
Television 81
Tik@@ 81
Uchambuzi 81
ababishi 81
abila 81
akazi 81
aliko 81
alo@@ 81
anayem@@ 81
andu 81
anim@@ 81
ashiki 81
asu 81
badili 81
bajeti 81
beti 81
etemeko 81
fo@@ 81
fuatana 81
fundo 81
geg@@ 81
gus@@ 81
hiji 81
hir@@ 81
huki@@ 81
huny@@ 81
husema 81
huzungumzwa 81
ibu@@ 81
ifika 81
ilitambuliwa 81
ilitawaliwa 81
inaaminika 81
italia 81
jedwali 81
kel@@ 81
king 81
kujis@@ 81
kulitokea 81
linajulikana 81
lori 81
mali@@ 81
metaboli 81
mez@@ 81
mihogo 81
mmen@@ 81
mnyororo 81
mtazamaji 81
mwanateolojia 81
mwang@@ 81
nar@@ 81
navyo 81
nyadhifa 81
ofisa 81
okolewa 81
oph@@ 81
oster@@ 81
pepeo 81
riba 81
rid@@ 81
sis 81
skrini 81
staili 81
theolojia 81
tiririka 81
tul@@ 81
ukingo 81
ulienea 81
uliitwa 81
ulik@@ 81
ulikua 81
vifuatavyo 81
vipawa 81
wakich@@ 81
walioambukizwa 81
walirudi 81
wamesh@@ 81
wasaidizi 81
wati 81
yalifanyika 81
zinapo@@ 81
zinazos@@ 81
ziwani 81
ā 81
02 80
11,000 80
1862 80
330 80
380 80
Alberto 80
Apo@@ 80
Aston 80
Baltimore 80
Bok@@ 80
Boushaki 80
Costa 80
Dance 80
Do 80
Emb@@ 80
Fre@@ 80
Hope 80
Julia 80
Kix@@ 80
Kizito 80
Mbulu 80
Muleba 80
Nations 80
Petersburg 80
Ramadhani 80
Ry@@ 80
Sib@@ 80
Sri 80
Stone 80
Tig@@ 80
Tung@@ 80
Ume@@ 80
Walit@@ 80
akafanya 80
akaji 80
akamt@@ 80
akimshirikisha 80
alibaki 80
alishindana 80
amehe 80
amilikiwa 80
anavy@@ 80
ashindwa 80
atr@@ 80
bayana 80
bie 80
bongo 80
bury 80
ef 80
egundua 80
ep 80
hojiwa 80
i.@@ 80
idhani 80
imana 80
inflamesheni 80
inuko 80
ituni 80
iweka 80
kigaidi 80
kiutu 80
kl@@ 80
kubaini 80
letea 80
linalofanana 80
makabaila 80
mfungwa 80
mwanaume 80
née 80
off 80
oi@@ 80
osoma 80
ow 80
pikipiki 80
ram@@ 80
sar@@ 80
serikalini 80
sungura 80
tolea 80
uliom@@ 80
unatoka 80
unguu 80
urah@@ 80
utaifa 80
waliamini 80
wanavy@@ 80
watetezi 80
yonyesha 80
zilizotolewa 80
ī 80
́ 80
ְ@@ 80
ָ@@ 80
211 79
Abd 79
Bremen 79
Caesar 79
Dominika 79
Duma 79
EC 79
ECMO 79
Education 79
Fiji 79
Franco 79
Gauteng 79
Gil@@ 79
Hadith 79
Home 79
Hotel 79
IC@@ 79
Kifransisko 79
Kigu@@ 79
Kuwait 79
Kweli 79
Maadili 79
Masoko 79
Mauritius 79
Meng@@ 79
Michelle 79
Miguu 79
Mk 79
Mugabe 79
Mwamba 79
Mzungu 79
Ngara 79
RC 79
Ruvu 79
Shabaab 79
Tarime 79
Ubuddha 79
Vienne 79
Way 79
What 79
Wu 79
Yanga 79
Your 79
aila 79
aliagiza 79
alipouawa 79
ambano 79
anaji 79
angaji 79
angao 79
atta 79
dika 79
dokeza 79
elia 79
esi@@ 79
etta 79
evi 79
gur@@ 79
haziwezi 79
hususan 79
ico 79
ides 79
igunduliwa 79
ilitawala 79
inahusisha 79
ishna 79
isti@@ 79
kanzu 79
kar 79
kiafrika 79
kikao 79
kinah@@ 79
kiunzi 79
kufungana 79
kuisha 79
kundu 79
kuorodhesha 79
kurejesha 79
kusambaa 79
kutapika 79
kutengwa 79
kutofautiana 79
kuwach@@ 79
lam 79
langa 79
liliundwa 79
maajabu 79
maangamizi 79
may@@ 79
mdudu 79
motokaa 79
mseto 79
nu@@ 79
omero 79
onja 79
otoa 79
pinduliwa 79
prot@@ 79
ros@@ 79
sah@@ 79
saruji 79
senati 79
shia 79
stashahada 79
uchovu 79
ufikia 79
ulifanywa 79
uliopita 79
uliv@@ 79
umini 79
unguo 79
upumuaji 79
utenzi 79
walikuja 79
waliow@@ 79
wanaastronomia 79
wasikilizaji 79
watayarishaji 79
yaliyopo 79
zika@@ 79
13,000 78
1858 78
1879 78
2500 78
340 78
AD 78
Aliz@@ 78
Anak@@ 78
Baghdad 78
Basili 78
Bingwa 78
Bit@@ 78
Bonif@@ 78
Breweries 78
Bwawa 78
CUF 78
Congo 78
Connecticut 78
Côte 78
Div@@ 78
Elia 78
Eva 78
Franz 78
Grande 78
Helena 78
Herbert 78
ISBN 78
Inter 78
Kano 78
Kansas 78
Kasese 78
Kith@@ 78
Kitu@@ 78
Lina 78
Lord 78
Men 78
Mpwapwa 78
NASA 78
Nde@@ 78
Project 78
Riadha 78
Siri 78
Sisi 78
Stadium 78
Stewart 78
Tawi 78
This 78
Tok@@ 78
Toka 78
Umeme 78
Watawala 78
Yale 78
Zoh@@ 78
Zulu 78
aanga 78
abili 78
ack 78
adiliana 78
aid@@ 78
akichukua 78
aliyokuwa 78
anje 78
ations 78
ayar@@ 78
azim@@ 78
bima 78
dhamiri 78
engenezaji 78
epusha 78
esta 78
estrojeni 78
iliyoendelea 78
iliyopatikana 78
ilizinduliwa 78
inahitajika 78
inyima 78
jekundu 78
kifungu 78
kijumla 78
kika 78
kiuno 78
kizio 78
kizuri 78
konokono 78
kukaribia 78
kukielewa 78
kulisha 78
kupangwa 78
kuthibitishwa 78
kuyap@@ 78
lazimisha 78
likim@@ 78
lilitolewa 78
magofu 78
mbingu 78
neur@@ 78
oletwa 78
opende@@ 78
oug@@ 78
ozaliwa 78
pendekezo 78
pointi 78
rad@@ 78
ru 78
sch@@ 78
shayiri 78
sokoni 78
soukous 78
ste@@ 78
tahajia 78
tetemeko 78
tol@@ 78
ukarabati 78
unavyo@@ 78
urahia 78
usaidia 78
uzo 78
vif@@ 78
wamez@@ 78
washauri 78
yakit@@ 78
117 77
1873 77
34,@@ 77
420 77
AM 77
Abraham 77
Aliishi 77
Atanasi 77
Awamu 77
Birmingham 77
Bond 77
Cav@@ 77
D.@@ 77
Ev@@ 77
General 77
God@@ 77
Headies 77
Kemal 77
Kimak@@ 77
Kinondoni 77
Kizungu 77
Magazeti 77
Magic 77
Mojawapo 77
Monte 77
NA 77
Pa@@ 77
Petr@@ 77
Princess 77
Sing@@ 77
Tel@@ 77
Tro@@ 77
Usanifu 77
Vituo 77
Wamal@@ 77
Woman 77
abudiwa 77
ahiriwa 77
akiimba 77
alamu 77
alifukuzwa 77
aliichezea 77
aliku@@ 77
alirejea 77
alizindua 77
anatokea 77
anayeweza 77
ao@@ 77
aram@@ 77
arubaini 77
asemekana 77
atil@@ 77
aut@@ 77
bat@@ 77
bro@@ 77
ester@@ 77
fikisha 77
furahia 77
heria 77
hibitisha 77
hid 77
igu@@ 77
ikiz@@ 77
ilichapishwa 77
iliyojengwa 77
imoto 77
ingilio 77
istawi 77
jitolea 77
kuficha 77
kumpatia 77
kutengenezea 77
kutuliza 77
kuwawezesha 77
latitudo 77
mah 77
manii 77
mgomo 77
mikondo 77
mwam@@ 77
nawe 77
oja 77
oksidi 77
okuja 77
ology 77
opl@@ 77
oshalisti 77
ostahili 77
path@@ 77
shirik@@ 77
silika 77
tabu 77
tic 77
uam@@ 77
uawa 77
ukomunisti 77
ulinganifu 77
umbusha 77
unwa 77
ustadi 77
uthi 77
wajukuu 77
walidai 77
walifuata 77
waliofika 77
wanaoj@@ 77
yalis@@ 77
zinafanana 77
ב@@ 77
125 76
2,6@@ 76
29,@@ 76
Ale@@ 76
An 76
As 76
Aziz 76
Beng@@ 76
Dab@@ 76
Emir 76
Hamilton 76
Igunga 76
Jam 76
Jun@@ 76
Kalangala 76
Kiak@@ 76
Kisar@@ 76
Kuwa 76
Lav@@ 76
Lava 76
Leon@@ 76
Lub@@ 76
Misitu 76
Mtazamo 76
Mwinyi 76
Pijini 76
SI 76
Saikolojia 76
Sau@@ 76
Sekai 76
Shaykh 76
Shim@@ 76
Sudani 76
Tuamotu 76
Uhindu 76
Ukumbi 76
Una@@ 76
Wabunge 76
adogo 76
agazi 76
ahani 76
aika 76
akadiriwa 76
akafa 76
akan@@ 76
akijiji 76
akipata 76
akiwakilisha 76
album 76
alichagua 76
alipigwa 76
anao 76
anayecheza 76
ataliwa 76
atam@@ 76
car@@ 76
dol@@ 76
engelenge 76
erem@@ 76
eye 76
fukuzwa 76
fundi 76
halifu 76
hambu@@ 76
hazikuwa 76
hoofika 76
huiangalia 76
iliandikwa 76
ilifanikiwa 76
ilifunguliwa 76
ill@@ 76
illa 76
imarika 76
inaelezea 76
irudia 76
ishwaji 76
kach@@ 76
kem@@ 76
kuganda 76
kugunduliwa 76
kukiri 76
kulik@@ 76
kutunukiwa 76
kuwaz@@ 76
malighafi 76
mashauri 76
mashua 76
mengineyo 76
mhudumu 76
mkusanyo 76
muhtasari 76
mwanabiolojia 76
mwonekano 76
mzozo 76
nyayo 76
ochea 76
ombwe 76
opokea 76
pumu 76
radi@@ 76
sabuni 76
she 76
shi@@ 76
sig@@ 76
taafu 76
taya 76
town 76
tuko 76
tunzi 76
ufasaha 76
ukulia 76
ukuzaji 76
ulijulikana 76
ulish@@ 76
unani 76
unisti 76
utumizi 76
uzia 76
vimet@@ 76
walijiunga 76
walikimbia 76
walivamia 76
wamech@@ 76
wanapata 76
yalianzishwa 76
yaliz@@ 76
yawe 76
114 75
1400 75
1878 75
3.5 75
Ajax 75
CB 75
Cambodia 75
Cameroon 75
Dan 75
Dr 75
IP@@ 75
Inc. 75
Isitoshe 75
Kaj@@ 75
Kando 75
Madini 75
Mahusiano 75
Mfuko 75
Morgan 75
Morris 75
Nikomedia 75
Philadelphia 75
Pombe 75
Runinga 75
Saratani 75
Shane 75
So 75
Sus@@ 75
Thel@@ 75
Tunduru 75
Urban 75
Vel@@ 75
Wakiwa 75
Wasangu 75
Watumishi 75
able 75
aca 75
adhibu 75
adumu 75
akachaguliwa 75
akiendelea 75
alamika 75
alivyo 75
amel@@ 75
anayek@@ 75
arak@@ 75
asana 75
asishaji 75
atini 75
aun@@ 75
awana 75
azini 75
eana 75
ede 75
edo 75
ell@@ 75
ft 75
gun 75
hakukuwa 75
husishwa 75
ibia 75
idge 75
ien 75
ikw@@ 75
iliyotumiwa 75
iliyowekwa 75
inayosababisha 75
ingani 75
injilisha 75
irikia 75
itu@@ 75
jap@@ 75
karamu 75
kesho 75
kiapo 75
kibofu 75
kifahari 75
kinachotumika 75
kukataza 75
kusambazwa 75
kusimamisha 75
kutaga 75
kutathmini 75
kutawaliwa 75
kutazamwa 75
kuth@@ 75
kutofau@@ 75
kuzaliana 75
ky 75
lango 75
lilijulikana 75
mamba 75
mjao 75
motisha 75
mpiganaji 75
okuwepo 75
oloni 75
ondei 75
patakatifu 75
pokelewa 75
rah@@ 75
shinda 75
sk 75
tera 75
tin@@ 75
tri 75
uita 75
uwakilishi 75
vichache 75
viunzi 75
wakiongozwa 75
walikubali 75
waliochaguliwa 75
wanaoz@@ 75
wand@@ 75
zabibu 75
zinazotumia 75
ə@@ 75
1.3 74
1100 74
1859 74
2,4@@ 74
AB@@ 74
Amer@@ 74
Bet@@ 74
Bud@@ 74
Cheo 74
Cle@@ 74
Danieli 74
Diana 74
Down 74
Duke 74
Face 74
Fon@@ 74
Gandhi 74
Hasan 74
Iliundwa 74
Java 74
Just 74
Kabaka 74
Kiay@@ 74
Kikushi 74
Kimande 74
Manabii 74
Martha 74
Mask@@ 74
Out 74
Patricia 74
Pembetatu 74
Point 74
Sang@@ 74
Sawa 74
Sayari 74
Stockholm 74
Tah@@ 74
Uswizi 74
Uta@@ 74
Waha 74
Wajesuiti 74
Wamb@@ 74
Wanajeshi 74
Win@@ 74
aende 74
ahih@@ 74
akamw@@ 74
ales 74
alipiga 74
ally 74
amiati 74
anaa 74
anab@@ 74
angaa 74
anzo 74
ashiriki 74
asimama 74
atem@@ 74
aua 74
aushwa 74
diploma 74
eb 74
endea 74
fungua 74
gez@@ 74
hoa 74
hui 74
hushiriki 74
hutengeneza 74
ilikubali 74
ilionyeshwa 74
ilipungua 74
iliyoz@@ 74
inaeleza 74
inayozunguka 74
ipot@@ 74
isionari 74
istoria 74
kilichoandikwa 74
kimaadili 74
kinadharia 74
kisomwe 74
kou 74
kro@@ 74
kueleweka 74
kugeuka 74
kuhukumiwa 74
kujifungua 74
kujihami 74
kutengan@@ 74
kuwajibika 74
kuzikwa 74
lie 74
linaloweza 74
mashapo 74
mfanya 74
misimamo 74
mwafaka 74
osom@@ 74
tes 74
thiri 74
tis@@ 74
tunavyo@@ 74
uchongaji 74
uhudia 74
uvi 74
vamia 74
wafany@@ 74
wajawazito 74
wakurugenzi 74
walifukuzwa 74
waliov@@ 74
walitawala 74
yasiyo@@ 74
yatak@@ 74
zangu 74
zilianzishwa 74
× 74
137 73
1837 73
1844 73
1876 73
250,000 73
35,@@ 73
451 73
540 73
70,000 73
74@@ 73
80,000 73
AD@@ 73
AZ@@ 73
Abbas 73
Afr@@ 73
Armstrong 73
B.@@ 73
Bennet 73
Boko 73
Brazzaville 73
CIA 73
Campbell 73
Funguvisiwa 73
Huwa 73
Ivan 73
Jal@@ 73
Kiafrikaans 73
Kiev 73
Kike 73
Kizazi 73
Kurudi 73
Lis@@ 73
Marley 73
Marseille 73
Miradi 73
Moravian 73
Nad@@ 73
Nne 73
Norman 73
Omari 73
Palm 73
Rhodes 73
Roberto 73
Rosa 73
Ruge 73
Ruth 73
Sanamu 73
Schleswig 73
Shel@@ 73
Tafiti 73
Tanakh 73
Tem@@ 73
Temeke 73
Toscana 73
UN 73
Uario 73
Uvuvi 73
V. 73
Wakonventuali 73
Wasunni 73
Wenye 73
Zam@@ 73
achishwa 73
af 73
afisha 73
akir@@ 73
alio@@ 73
alitembelea 73
alituma 73
alitumbuiza 73
amab@@ 73
apanda 73
bay@@ 73
biskuti 73
chimbuko 73
chipukizi 73
eleweki 73
ento 73
huji@@ 73
huona 73
husiana 73
hususani 73
ichua 73
ichwa 73
ikamano 73
ilioni 73
inayoendelea 73
induzi 73
itudo 73
jali 73
jojo 73
kane 73
kano 73
karib@@ 73
kee 73
keza 73
kilichop@@ 73
kitanda 73
kuelimisha 73
kujilisha 73
kukum@@ 73
kutamka 73
kutiwa 73
law@@ 73
long@@ 73
mahekalu 73
mashujaa 73
ogom@@ 73
ogwe 73
ongel@@ 73
pengo 73
reggae 73
sawasawa 73
sei 73
shangazi 73
sklerosisi 73
sol@@ 73
tem@@ 73
thu@@ 73
ting 73
ubalozi 73
ubwa 73
ugen@@ 73
ulimi 73
usudia 73
utovu 73
uyu 73
var@@ 73
walibaki 73
wanapenda 73
washambuliaji 73
wur@@ 73
yanapo@@ 73
zilizotengenezwa 73
· 73
ē@@ 73
1.6 72
1875 72
212 72
520 72
Ade@@ 72
Aliolewa 72
Aliongoza 72
Austin 72
Babu 72
Balozi 72
Buch@@ 72
Burma 72
CM@@ 72
Chamwino 72
Child 72
Dag@@ 72
Dahomey 72
Dob@@ 72
Enzi 72
Eugene 72
Fernando 72
Future 72
Hau@@ 72
Jap@@ 72
Jeromu 72
Jose 72
Kaka 72
Kalifornia 72
Kaukazi 72
Kgalagadi 72
Kilom@@ 72
Lanka 72
Lili@@ 72
Louisiana 72
Lucy 72
Maumivu 72
Mid@@ 72
Money 72
Msikiti 72
Nebbi 72
Ngome 72
Numidia 72
Nyag@@ 72
Of 72
Plat@@ 72
SE@@ 72
SP@@ 72
Sean 72
Service 72
Shaka 72
Siria 72
Taf@@ 72
Thesalonike 72
Tibet 72
Trans@@ 72
Ubunifu 72
Ushauri 72
Venezia 72
Voice 72
Waamuzi 72
Yaani 72
achilia 72
adokeza 72
aidiana 72
aingiza 72
aju 72
akan 72
aliwak@@ 72
aluni 72
amad@@ 72
anakuwa 72
andoa 72
angan 72
anis@@ 72
antijeni 72
aren 72
aribisha 72
bes@@ 72
bika 72
dad@@ 72
ets 72
fam@@ 72
film 72
hambulia 72
herehekea 72
hukutana 72
imem@@ 72
imesababisha 72
inayofanya 72
isimamia 72
jihusisha 72
jug@@ 72
kan 72
kielektroniki 72
kinachojulikana 72
kinas@@ 72
klor@@ 72
kuagiza 72
kukadiria 72
kusubiri 72
kutekwa 72
land@@ 72
liza 72
madarasa 72
mafukara 72
magamba 72
matone 72
mchongaji 72
mikahawa 72
miondoko 72
mipira 72
mtaji 72
muonekano 72
ndiko 72
ochaguliwa 72
otho 72
otoka 72
out 72
pendeza 72
rejareja 72
tahadhari 72
taja 72
tal@@ 72
tambua 72
ubunge 72
ukaguzi 72
ukarimu 72
ulileta 72
uliweza 72
umaini 72
umbwi 72
umungu 72
unajumuisha 72
unaoendelea 72
uswa 72
vijiti 72
wakaja 72
walikuwepo 72
wapevu 72
washairi 72
wasia 72
weleza 72
wingu 72
yonyaji 72
1.4 71
1874 71
3,6@@ 71
39,@@ 71
480 71
850 71
AA 71
Alirudi 71
Aliuawa 71
Aliweza 71
Amez@@ 71
Bih@@ 71
Chit@@ 71
Chombo 71
D.C. 71
Dallas 71
Dul@@ 71
Elizabeti 71
Everton 71
Fred 71
Get 71
Gray 71
Hy@@ 71
Kambarage 71
Kanumba 71
Kikain@@ 71
Kipun@@ 71
Korintho 71
Kro@@ 71
Lum@@ 71
Makadirio 71
Mapenzi 71
Mariamu 71
Mes@@ 71
Mipaka 71
Mshindi 71
Mwanae 71
Night 71
Nollywood 71
Pic@@ 71
RNA 71
Raisi 71
Ran@@ 71
Robin 71
Sergio 71
She 71
Stellenbosch 71
Story 71
Suala 71
Toledo 71
Uham@@ 71
Utangulizi 71
Utoto 71
Vikundi 71
aal@@ 71
abak@@ 71
abul@@ 71
ahi@@ 71
akauawa 71
alichangia 71
aliwekwa 71
ambara 71
amesema 71
anaona 71
angala 71
anishi 71
ape 71
asiri 71
ateolojia 71
baruti 71
bete 71
chachu 71
chem@@ 71
cher@@ 71
chozi 71
egawanywa 71
ekumeni 71
endeza 71
eshimika 71
ess 71
eua 71
fit@@ 71
fremu 71
fuko 71
furah@@ 71
fuwele 71
hakimu 71
haramia 71
haribifu 71
haut@@ 71
hitim@@ 71
humaanisha 71
ifikapo 71
iji 71
imekadiriwa 71
imulia 71
inayotoa 71
ingie 71
inua 71
islam 71
itw@@ 71
japokuwa 71
kamanda 71
kijiyai 71
kin 71
kiteknolojia 71
kiumbehai 71
kubor@@ 71
kumwambia 71
kuna@@ 71
kuripoti 71
lang@@ 71
lov@@ 71
mbu@@ 71
mid@@ 71
mij@@ 71
miziki 71
mlangobahari 71
mwanak@@ 71
ndu@@ 71
odia 71
olim@@ 71
omoto 71
onwa 71
pand@@ 71
pinzani 71
sky 71
tai 71
ton@@ 71
u. 71
uchu 71
udhi 71
ugaidi 71
ujamaa 71
umeonyesha 71
unaoweza 71
utangulizi 71
utaw@@ 71
viel@@ 71
wafu@@ 71
walipiga 71
wanadai 71
wasaidia 71
wasim@@ 71
wigo 71
yalipo@@ 71
yanas@@ 71
zen@@ 71
zie 71
111 70
135 70
1841 70
2,5@@ 70
251 70
30,@@ 70
302 70
32,@@ 70
36,@@ 70
370 70
40@@ 70
46@@ 70
Afro@@ 70
Aman@@ 70
Ambrosi 70
Anast@@ 70
Anay@@ 70
Beseni 70
Brussels 70
CP 70
Catherine 70
Dream 70
Falls 70
Gang@@ 70
Good@@ 70
Han 70
Harrison 70
Heart 70
IAAF 70
IP 70
Jumuia 70
Kampasi 70
Kima 70
Kolumbus 70
Law@@ 70
Liko 70
Lol@@ 70
Manafwa 70
Manuel 70
Masi 70
Nicolas 70
Nubia 70
PA 70
Panya 70
Pop@@ 70
Rombo 70
Rup@@ 70
Santo 70
Sensa 70
Sheffield 70
Shin@@ 70
Sid@@ 70
Singapore 70
Son@@ 70
Timotheo 70
Tol@@ 70
Tour 70
Wanj@@ 70
Wuhan 70
Zah@@ 70
Zen@@ 70
adhibi@@ 70
akitoa 70
alitia 70
angulizi 70
apewa 70
arudia 70
atuzi 70
auliza 70
azunguka 70
batizwa 70
bweni 70
dan 70
den@@ 70
ekesha 70
enne 70
etezi 70
ett 70
ger 70
hakuj@@ 70
hauwezi 70
hie 70
hukus@@ 70
idhin@@ 70
idogo 70
ihi 70
inasaidia 70
inaundwa 70
inayoongoza 70
inayor@@ 70
ishug@@ 70
isiyojulikana 70
kifung@@ 70
kijen@@ 70
kimarekani 70
kimila 70
kufikiwa 70
kuhamishwa 70
kukan@@ 70
kulazimisha 70
kulisababisha 70
kurejelea 70
kusahau 70
kuumwa 70
lif@@ 70
lilitumika 70
mahala 70
makavu 70
masik@@ 70
mcheza 70
mfungaji 70
muhusika 70
nyutroni 70
ome@@ 70
onyaji 70
osheleza 70
osia 70
osolewa 70
ran 70
salaam 70
shati 70
ubadilishaji 70
ubalika 70
unjo 70
ushujaa 70
uvumi 70
viz@@ 70
vutia 70
vyokuwa 70
waandamizi 70
waliotawala 70
wapo@@ 70
wasi 70
wazungu 70
yab@@ 70
yanayohusu 70
ym@@ 70
á 70
ʿ@@ 70
0.5 69
1.8 69
1820 69
2,7@@ 69
311 69
33,@@ 69
35,000 69
Abd@@ 69
Austr@@ 69
Bakr 69
Barack 69
Bisau 69
Bonhoeffer 69
Boyz 69
Duncan 69
Elementi 69
Fal 69
Fame 69
Fol@@ 69
Got 69
Gro@@ 69
Guinness 69
Hij@@ 69
Hon@@ 69
IL@@ 69
Ibadan 69
Igulu 69
Ilitolewa 69
Inakadiriwa 69
Jason 69
Kapadokia 69
Kial@@ 69
Kikh@@ 69
Kung@@ 69
Kuv@@ 69
Kwame 69
Lak@@ 69
Makampuni 69
Mbo@@ 69
Mili@@ 69
Mission 69
Mitindo 69
Mkapa 69
Msaidizi 69
Mwanasheria 69
Palmer 69
Pasha 69
Ras 69
Sea 69
Seattle 69
Stalin 69
States 69
Stella 69
Tembo 69
Ulikuwa 69
Waarmenia 69
Waethiopia 69
Wagermanik 69
Water@@ 69
Wayao 69
With 69
Zo@@ 69
alio 69
alioa 69
alis 69
aliteswa 69
ameanza 69
amekufa 69
anahitaji 69
anayech@@ 69
andik@@ 69
aq@@ 69
asho 69
atani 69
atilia 69
austr@@ 69
changamano 69
diplomasia 69
emikali 69
enezwa 69
eus 69
fran@@ 69
hakina 69
halabu 69
hihir@@ 69
hon@@ 69
hudhurungi 69
humu 69
ikiana 69
iligunduliwa 69
ilivamiwa 69
iliyov@@ 69
inalingana 69
inger 69
inger@@ 69
ipasavyo 69
ispania 69
izini 69
jana 69
jongo 69
kudh@@ 69
kukinga 69
kupunguzwa 69
kushangaza 69
kushirikisha 69
kutupwa 69
kuwav@@ 69
lav@@ 69
linalotumika 69
maadhimisho 69
malalamiko 69
mitaguso 69
mizinga 69
mmomonyoko 69
mundu 69
mwak@@ 69
nyotamkia 69
odo 69
olwa 69
omaji 69
onyeshi 69
opaswa 69
opta 69
ory 69
sey 69
shetani 69
side 69
sintetiki 69
sos@@ 69
tiko 69
tunak@@ 69
uangavu 69
ulivyo 69
unuzi 69
usiani 69
usumbufu 69
uta@@ 69
uzembe 69
wanaofuata 69
weri 69
zikawa 69
ר@@ 69
ḥ@@ 69
10.@@ 68
16,000 68
1846 68
306 68
410 68
430 68
560 68
Abuja 68
Adrian 68
Afric@@ 68
Alabama 68
Castro 68
Chap@@ 68
DSM 68
Dak@@ 68
Dubu 68
Eb 68
Elgon 68
Fortun@@ 68
Fund@@ 68
Galilaya 68
Graham 68
Gun@@ 68
Hermann 68
Hid@@ 68
Huyo 68
Iowa 68
Jac@@ 68
Karume 68
Kent 68
Ket@@ 68
Kifalme 68
Kii@@ 68
Kikopti 68
Kimalagasy 68
Kisa@@ 68
Lar@@ 68
Leg@@ 68
Limpopo 68
Madawa 68
Madi@@ 68
Mali@@ 68
Mbio 68
Mek@@ 68
Mkusanyiko 68
Mli@@ 68
Msaf@@ 68
Mtama 68
Mtawala 68
Muhimu 68
Nash 68
Ndivyo 68
O. 68
P.@@ 68
Saleh 68
Samaki 68
Sc@@ 68
Science 68
Shig@@ 68
Sofia 68
Sung@@ 68
Swahili 68
TE@@ 68
Tamthiliya 68
U.S. 68
Upasuaji 68
Vatikani 68
Wath@@ 68
XIX 68
Yetu 68
Yote 68
Zuhura 68
Zuma 68
abidhi 68
adhani 68
afanye 68
afrika 68
ahamia 68
akafariki 68
amiza 68
anyakazi 68
ashirikisha 68
ated 68
atiliwa 68
bainifu 68
barafuto 68
boo 68
boti 68
dam@@ 68
dor@@ 68
een 68
enter@@ 68
fikiria 68
fisi 68
fuatilia 68
habeshi 68
hayat@@ 68
hupungua 68
ibadilisha 68
igawa 68
iha 68
ikazi 68
ikis@@ 68
ilipopitishwa 68
iliuza 68
ill 68
imar@@ 68
imeandikwa 68
indaji 68
int@@ 68
itindo 68
itolea 68
kand@@ 68
kipawa 68
kipeo 68
kitambulisho 68
kose@@ 68
kufurahia 68
kuhara 68
kuhimiza 68
kuip@@ 68
kukam@@ 68
kulipiza 68
kuma 68
kumwaga 68
kupendekeza 68
laki 68
lies 68
lililop@@ 68
linda 68
liwe 68
mabavu 68
mabomba 68
mapacha 68
mbel@@ 68
mpwa 68
nondo 68
nususpishi 68
odougou 68
ofauti 68
oh 68
ohesabiwa 68
omilikiwa 68
oraji 68
pato 68
patwa 68
pigania 68
posh@@ 68
pri@@ 68
rija 68
run@@ 68
str@@ 68
teki 68
that 68
uangalizi 68
ufuko 68
ukta 68
ulgaria 68
ulitoka 68
umaa 68
ungano 68
vikombe 68
wakaf@@ 68
watendaji 68
watuhumiwa 68
zinatumika 68
1847 67
1848 67
1868 67
1877 67
203 67
309 67
Agnes 67
Amefanya 67
Ani@@ 67
Auxerre 67
Banks 67
Bantu 67
Blackburn 67
Carter 67
Cruz 67
Dave 67
Dur@@ 67
First 67
Ghost 67
Grassfields 67
Hugo 67
Hun@@ 67
I.@@ 67
Jolie 67
Kabale 67
Kitag@@ 67
Kitengo 67
Kiurdu 67
Kusinimashariki 67
Kusudi 67
Kyela 67
Melbourne 67
Monica 67
Mwanzilishi 67
NATO 67
Naz@@ 67
Ongezeko 67
Organization 67
Platnumz 67
Pope 67
Posta 67
RI@@ 67
Reb@@ 67
Ronald 67
SS@@ 67
Sengerema 67
Shida 67
Sidi 67
XVIII 67
aceae 67
afunzi 67
agara 67
agundua 67
aharia 67
aim@@ 67
air 67
aj 67
ajaribu 67
akajit@@ 67
akihudumu 67
akiki 67
alifungwa 67
aluo 67
amiana 67
andaji 67
arm@@ 67
ashahada 67
avana 67
chaguzi 67
cio 67
dij@@ 67
diz@@ 67
e. 67
eher@@ 67
emwa 67
endeleo 67
enta 67
ente 67
ern@@ 67
fe@@ 67
fom@@ 67
hatarisha 67
hatuwezi 67
hid@@ 67
himili 67
hupendelea 67
ificha 67
ijulikanayo 67
ilitokana 67
iminika 67
inayounganisha 67
insulini 67
isheli 67
ison 67
itifaki 67
kei 67
kitabia 67
kukat@@ 67
kupatana 67
kurushwa 67
kutungwa 67
lambo 67
mabal@@ 67
machafu 67
mashoga 67
men 67
mienendo 67
mkon@@ 67
ml@@ 67
mwanahabari 67
nam 67
odisha 67
ojia 67
omia 67
ongano 67
osimamiwa 67
othi 67
ovi@@ 67
pagani 67
pala 67
pigo 67
rekebisha 67
sing@@ 67
tayarishaji 67
uc@@ 67
uhusiwi 67
uiaji 67
uiwa 67
ukari 67
ulikuja 67
uliyo@@ 67
unyungu 67
unze 67
useja 67
utaka@@ 67
vipokezi 67
virutubisho 67
vyura 67
wafuatao 67
wagugunaji 67
walihukumiwa 67
waliokufa 67
wamem@@ 67
wapelelezi 67
weng@@ 67
wivu 67
yaliyol@@ 67
yanaonyesha 67
zimeandikwa 67
zimech@@ 67
ō@@ 67
מ@@ 67
127 66
190 66
215 66
314 66
4,0@@ 66
680 66
7000 66
Abdel 66
Airport 66
Aliporudi 66
All@@ 66
Asi@@ 66
Bamb@@ 66
Bob@@ 66
Bog@@ 66
Championship 66
Colombia 66
Edgar 66
Ekaristi 66
Ernst 66
Ga@@ 66
Gl@@ 66
Globe 66
Homo 66
Ilianza 66
Internet 66
Kanaani 66
Katanga 66
Kiagta 66
Kias@@ 66
Kipol@@ 66
Kisasa 66
Kizulu 66
Magellan 66
Makete 66
Makuu 66
Maua 66
Mikindani 66
Monduli 66
Mu 66
Museveni 66
Naivasha 66
Ncha 66
Noah 66
Nwoya 66
Ol 66
Orlando 66
Pant@@ 66
Parimatch 66
Prize 66
SPD 66
Sabato 66
Seneti 66
Ten@@ 66
Ting@@ 66
Tito 66
Ukuaji 66
Ust@@ 66
Utumwa 66
Viti@@ 66
Waario 66
Wabelgiji 66
Warren 66
Wi@@ 66
Wikimedia 66
Witwatersrand 66
Yos@@ 66
abadi 66
abesi 66
aboni 66
adri 66
adudu 66
ahidiwa 66
airo 66
alaya 66
alilazimika 66
alimshinda 66
aliyeandika 66
ambani 66
anaanza 66
anduku 66
angan@@ 66
anika 66
art@@ 66
ates 66
atha 66
atir@@ 66
aura 66
bati 66
cm 66
dhamana 66
dimb@@ 66
ebo 66
ekezaji 66
enyekevu 66
etaboli 66
fanyia 66
fol@@ 66
format 66
gom@@ 66
harau 66
idia 66
ilienea 66
ilimfanya 66
iliyog@@ 66
imegawanyika 66
isotopi 66
itokeza 66
kimekuwa 66
kipofu 66
kudhaminiwa 66
kujiondoa 66
kukab@@ 66
kumshinda 66
kuwafukuza 66
linahusiana 66
line 66
lini 66
midomo 66
mnasaba 66
mtaala 66
nanyi 66
nat@@ 66
ocha 66
okusanywa 66
ombezi 66
ondolea 66
opath@@ 66
opwa 66
oti@@ 66
oy 66
punje 66
rom@@ 66
sang@@ 66
sini 66
taf@@ 66
tes@@ 66
ukhalifa 66
ulana 66
ulionekana 66
umez@@ 66
umuishwa 66
umzika 66
unachukua 66
ungwi 66
uona 66
usimbishaji 66
virefu 66
visivy@@ 66
waadilifu 66
waki 66
walitangaza 66
wanafuata 66
wanaokalia 66
wasili 66
wazushi 66
weo 66
wit@@ 66
wodi 66
yaf@@ 66
yaz@@ 66
yoka 66
ys@@ 66
ziliandikwa 66
zilitengenezwa 66
1.7 65
157 65
204 65
209 65
3,8@@ 65
AR@@ 65
Abidjan 65
Amesh@@ 65
Arkansas 65
Aur@@ 65
Azam 65
Beg@@ 65
Beth@@ 65
CH@@ 65
Cologne 65
DO@@ 65
Dami@@ 65
Dev@@ 65
Diskografia 65
Emirates 65
Farao 65
Flor@@ 65
Gloria 65
Haku@@ 65
Him@@ 65
IM@@ 65
Ibada 65
Independent 65
Intaneti 65
Kalou 65
Kamboja 65
Karen 65
Ki 65
Kibao 65
Kifini 65
Kigh@@ 65
Kitahiti 65
Kitorricelli 65
Kundinyota 65
Leonard 65
Litu@@ 65
Maporomoko 65
Marche 65
Meya 65
Mkongwe 65
Mlipuko 65
Mwana@@ 65
Mwarabu 65
Neema 65
Red@@ 65
Rifles 65
Roy 65
Sahel 65
Solom@@ 65
Ubalozi 65
Uf@@ 65
Ugunduzi 65
Ujamaa 65
Ukanda 65
Waang@@ 65
Wakor@@ 65
Wanyam@@ 65
Wati@@ 65
Welisi 65
Wissmann 65
Wright 65
aburi 65
alialikwa 65
alifanywa 65
aliongeza 65
alipoteza 65
alizidi 65
alizo@@ 65
anajua 65
anakuja 65
anatoa 65
anii 65
antu 65
anyike 65
ardinali 65
ataza 65
athibi@@ 65
bakia 65
beck 65
bela 65
biri 65
boresha 65
changanya 65
dak@@ 65
dhamini 65
dish 65
don 65
ean 65
emani 65
ff 65
form@@ 65
fundisho 65
grafia 65
haliku@@ 65
hel@@ 65
hij@@ 65
hudhuriwa 65
ibi 65
ikich@@ 65
ilifanywa 65
ilimb@@ 65
ilinunua 65
ilithibitishwa 65
iliyosh@@ 65
imepungua 65
inayoch@@ 65
ipi 65
isimama 65
isto 65
itz 65
jib@@ 65
kibwagizo 65
kisu 65
kuimbwa 65
kuita 65
kujikinga 65
kukandamiza 65
kumtumikia 65
kurekodiwa 65
kusogea 65
lig@@ 65
mabaka 65
mafarakano 65
mahakimu 65
majaribu 65
mchuano 65
mli@@ 65
msum@@ 65
oaji 65
obor@@ 65
odaiwa 65
okaliwa 65
olong 65
ongana 65
ops 65
other@@ 65
oye 65
ozi@@ 65
pandwa 65
port 65
proj@@ 65
puto 65
radio 65
raf@@ 65
rah 65
reg@@ 65
starehe 65
tanzu 65
tapo 65
taro 65
tola 65
ukavu 65
ukuza 65
ulaya 65
ulichezwa 65
uliundwa 65
undi@@ 65
ungam@@ 65
unge@@ 65
upweke 65
usiwa 65
usonji 65
uvuk@@ 65
wakaendelea 65
wal 65
waliita 65
wamo 65
wenge 65
weno 65
wera 65
yaliyos@@ 65
yc@@ 65
yem@@ 65
zahanati 65
zilis@@ 65
ա@@ 65
1852 64
307 64
4.5 64
600,000 64
640 64
66@@ 64
8000 64
AT@@ 64
Alig@@ 64
Amazon 64
Bass@@ 64
Bishop 64
Carson 64
Ep@@ 64
Farasi 64
Fas@@ 64
File 64
François 64
Ge 64
Gn@@ 64
Holstein 64
Hospital 64
Hup@@ 64
If 64
Ilif@@ 64
Irani 64
Joto 64
Kentucky 64
Kiafr@@ 64
Kiatlantiki 64
Kibondo 64
Kicelebiki 64
Kihmong 64
Kilindi 64
Lad@@ 64
Lunda 64
Marathon 64
Mobutu 64
Mzunguko 64
Nig@@ 64
Niki 64
Pande 64
Path@@ 64
Penisilini 64
Portland 64
Productions 64
Rita 64
Sa 64
Sauli 64
Singapuri 64
Sokoto 64
Taa 64
Tamaduni 64
Tarak@@ 64
Technology 64
There 64
Transvaal 64
Vich@@ 64
Vitu 64
Viwandani 64
Waar@@ 64
Ziara 64
abadilika 64
adhimisho 64
afir@@ 64
aguru 64
ahis@@ 64
aiki 64
aisari 64
akikisha 64
aliandaa 64
alivyokuwa 64
anayef@@ 64
anganyiko 64
angilio 64
angiwa 64
awi@@ 64
blu@@ 64
duru 64
eaux 64
egere 64
eleo 64
enn@@ 64
had 64
haija@@ 64
hapakuwa 64
hofia 64
huvaa 64
idumu 64
iliripotiwa 64
iliyoandaliwa 64
iliyoanza 64
iliyowahi 64
imbili 64
inaorodhesha 64
inatoka 64
inya 64
irani 64
ishano 64
kikristo 64
kilis@@ 64
kubainisha 64
kuhifadhiwa 64
kukomboa 64
kunguni 64
kupaa 64
kupig@@ 64
kutokuwepo 64
maafa 64
mantiki 64
many@@ 64
marathoni 64
matawimto 64
med@@ 64
mhitimu 64
mifupi 64
mwanadiplomasia 64
ny 64
ofia 64
okota 64
onjwa 64
orongo 64
ouk 64
ple@@ 64
rem@@ 64
rundiko 64
semi 64
shambani 64
stadi 64
tic@@ 64
timi@@ 64
tini 64
tot@@ 64
uaskofu 64
uboreshaji 64
uhu@@ 64
ulitungwa 64
unatumiwa 64
usio@@ 64
utafutaji 64
uvumilivu 64
vinavyoweza 64
wakali 64
waliotumia 64
yani 64
yek@@ 64
zenyewe 64
zijazo 64
zinaf@@ 64
zunguka 64
ê@@ 64
נ@@ 64
129 63
1854 63
1872 63
199@@ 63
201 63
206 63
214 63
3,5@@ 63
365 63
431 63
470 63
48@@ 63
5,0@@ 63
Ada 63
Akh@@ 63
Allan 63
Bac@@ 63
Bamako 63
Barn@@ 63
Biz@@ 63
CBS 63
Chemba 63
Chi 63
Chum@@ 63
Curtis 63
Dee 63
Delhi 63
Dol@@ 63
Eastern 63
End 63
Gab@@ 63
Hatuwezi 63
Janet 63
Johnny 63
Jukwaa 63
Kant@@ 63
Kilim@@ 63
Lou@@ 63
MS 63
Maarufu 63
Mabaki 63
Mac 63
Mada 63
Maoni 63
Mariam 63
Masimo 63
Meg@@ 63
Mercy 63
Michel 63
Mob@@ 63
Moy@@ 63
Msa@@ 63
Mti 63
Mweusi 63
Nis@@ 63
Nusu 63
Olu@@ 63
Palace 63
Ray@@ 63
Res@@ 63
Rika 63
Shak@@ 63
Sham@@ 63
Shimo 63
Shinikizo 63
Simoni 63
Simpson 63
Siti 63
Sm@@ 63
Space 63
Uki@@ 63
Vim@@ 63
Waberber 63
Wafanyabiashara 63
Walker 63
XXIII 63
adu 63
agana 63
akisi 63
alipom@@ 63
andamiza 63
anzania 63
asir@@ 63
ath 63
athibitisha 63
aumiwa 63
azi@@ 63
banda 63
bet@@ 63
bul@@ 63
div@@ 63
dom@@ 63
ebobea 63
eck 63
ekeza 63
enjin 63
ghala 63
halina 63
hamini 63
hang@@ 63
hip@@ 63
hoga 63
ihu 63
ikom@@ 63
ilinda 63
ilipaswa 63
inag@@ 63
injilisti 63
inunua 63
italiano 63
janja 63
jaw@@ 63
jiuzulu 63
kidhi 63
kikohozi 63
kini 63
kubom@@ 63
kuenda 63
kugusa 63
kujitahidi 63
kulea 63
kumwag@@ 63
kuoza 63
kupendwa 63
kutan@@ 63
kutang@@ 63
kutos@@ 63
kutwa 63
kuyey@@ 63
lilibadilishwa 63
lilifanyika 63
majaji 63
matamu 63
miraba 63
model 63
net 63
ofikia 63
omaa 63
ons@@ 63
oozeshwa 63
openda 63
pendo 63
pora 63
puko 63
rohoni 63
sim 63
tunapo@@ 63
uangalifu 63
ungu@@ 63
ungwe 63
uya 63
vidubini 63
vinapatikana 63
viowevu 63
walipofika 63
wanafalsafa 63
wanaoendelea 63
wari 63
wazawa 63
weru 63
yaliyom@@ 63
yay@@ 63
yonya 63
yuni 63
zilitumika 63
zinatofautiana 63
ū@@ 63
′ 63
00@@ 62
11.@@ 62
1853 62
312 62
37,@@ 62
440 62
ARA 62
Alvarez 62
Bauer 62
Cab@@ 62
Children 62
Dham@@ 62
Dim@@ 62
EL@@ 62
Et@@ 62
Fran@@ 62
Gama 62
Gir@@ 62
Hotspur 62
How 62
Iganga 62
Jakaya 62
Jim 62
Juli@@ 62
KT 62
Kaduna 62
Kath@@ 62
Kiba 62
Kibal@@ 62
Kisababishi 62
Kofi 62
Kongamano 62
Konya 62
Kwa@@ 62
Laura 62
Lazaro 62
Lloyd 62
Lob@@ 62
Lost 62
Lumumba 62
Madonna 62
Manga 62
Manyoya 62
Matam@@ 62
Max@@ 62
Mbe@@ 62
Mboya 62
Mem@@ 62
Mola 62
Mtaa 62
Mwang@@ 62
Nav@@ 62
Naye 62
Newcastle 62
Pir@@ 62
Plato 62
Powell 62
Rid@@ 62
Salzburg 62
Schutztruppe 62
Sep@@ 62
Silv@@ 62
TAN@@ 62
Tanzani@@ 62
Tch@@ 62
Ukraina 62
Universal 62
Venice 62
Versailles 62
Wete 62
When 62
Wor@@ 62
Year 62
Yule 62
aban 62
agani 62
agwe 62
aire 62
akai@@ 62
alijitokeza 62
alipinga 62
aliti 62
aliyoi@@ 62
ambarau 62
andao 62
anzilishi 62
asab@@ 62
asimamiwa 62
asisha 62
asiye@@ 62
atano 62
athe@@ 62
aug@@ 62
bel 62
but@@ 62
choka 62
ex 62
eyuka 62
fer@@ 62
geuka 62
hakum@@ 62
hauriwa 62
hayakuwa 62
hayawezi 62
hela 62
helik@@ 62
heni 62
huchaguliwa 62
igi@@ 62
ikiitwa 62
ilipigwa 62
iliunda 62
imeonekana 62
inahusiana 62
inayohusu 62
itok@@ 62
kikali 62
kivolkeno 62
koa 62
kt 62
kuepukana 62
kuiba 62
kujificha 62
kulazwa 62
kumtangaza 62
kutaf@@ 62
kuufanya 62
kuvuruga 62
kuziba 62
log@@ 62
maonesho 62
mavi 62
mem@@ 62
msom@@ 62
mtelemko 62
ning@@ 62
ofisini 62
okozi 62
ondi 62
onekani 62
ors 62
osis 62
pet@@ 62
pungua 62
put@@ 62
rasa 62
res@@ 62
rubani 62
rud@@ 62
savana 62
shanga 62
tetekuwanga 62
thibi@@ 62
twiga 62
ukwaa 62
uliongezeka 62
umetayarishwa 62
umimi 62
unahitaji 62
ungukiwa 62
uri@@ 62
usanisi 62
usanywa 62
ventr@@ 62
vibanda 62
vikiwa 62
vini 62
walikwenda 62
walipoteza 62
wanamaji 62
wik@@ 62
winda 62
yakula 62
zuku 62
193 61
530 61
AC@@ 61
Agency 61
Air@@ 61
Anah@@ 61
Ann@@ 61
Bao 61
Bariadi 61
Boy@@ 61
Buddha 61
Choice 61
Dav@@ 61
Dig@@ 61
G.@@ 61
Gal 61
Garcia 61
Glasgow 61
Haley 61
Huo 61
Isid@@ 61
Kipi@@ 61
Kitang@@ 61
Kiyoruba 61
Kor 61
Land 61
MO@@ 61
Maimamu 61
Maswa 61
Monaco 61
Moore 61
Mud@@ 61
Nam 61
Nancy 61
Nevada 61
Off 61
Polepole 61
Puglia 61
Ror@@ 61
ST@@ 61
Sar 61
Sassandra 61
Shet@@ 61
Sound 61
Sr. 61
Tigray 61
Uteuzi 61
Vif@@ 61
Vodacom 61
Wall@@ 61
YA 61
Yer@@ 61
Zim@@ 61
aci@@ 61
adari 61
ado@@ 61
adr@@ 61
alishtakiwa 61
amepewa 61
anaharakati 61
andisha 61
aph@@ 61
ashwa 61
ataw@@ 61
auch@@ 61
ausha 61
ban 61
chir 61
country 61
dira 61
eku 61
empa 61
epe 61
fen@@ 61
fuo 61
gluk@@ 61
hati@@ 61
hia 61
huvaliwa 61
ikol 61
iona 61
ishani 61
kau@@ 61
ken 61
kt@@ 61
kufaidika 61
kuipa 61
kulipia 61
kumchagua 61
kuuliza 61
langu 61
lis@@ 61
malipizi 61
matem@@ 61
matum@@ 61
mel@@ 61
mwadilifu 61
mwenzi 61
nan@@ 61
nis@@ 61
omboa 61
otini 61
ozwa 61
panuka 61
platinum 61
posa 61
s.@@ 61
thropodi 61
tua 61
ugavi 61
ukue 61
ulifikia 61
unay@@ 61
urya 61
vib@@ 61
wajib@@ 61
walioitwa 61
waliou@@ 61
walipinga 61
yanayoitwa 61
you 61
yr@@ 61
ziliweza 61
à 61
ש@@ 61
田 61
118 60
139 60
14,000 60
18,000 60
202 60
216 60
301 60
308 60
361 60
460 60
49@@ 60
Alham@@ 60
Atlas 60
Cat@@ 60
Chaguo 60
Co 60
DE@@ 60
Death 60
Def 60
Delgado 60
Derby 60
Forum 60
Gari 60
Goma 60
Gon@@ 60
Gum@@ 60
ICC 60
Ilunga 60
Indus 60
Innocent 60
Jerome 60
Kosta 60
Kyen@@ 60
Ladies 60
Laur@@ 60
Laurenti 60
Lemb@@ 60
Ler@@ 60
Liber@@ 60
Mogadishu 60
Nom@@ 60
Not@@ 60
Ow@@ 60
Pauli 60
Pedro 60
Pictures 60
Premier 60
S.C. 60
Say@@ 60
Sto@@ 60
Uvinza 60
Uzam@@ 60
Village 60
Vipindi 60
Visa 60
Waos@@ 60
Wapo@@ 60
ZANU 60
adir 60
amepokea 60
andamano 60
anna 60
araza 60
ardi 60
arn@@ 60
asiasa 60
azamaji 60
baini 60
bega 60
dua 60
gam@@ 60
gua 60
hairi 60
har 60
ijapokuwa 60
ililenga 60
iniwa 60
itap@@ 60
jab@@ 60
kadirio 60
koma 60
kugawanywa 60
kunde 60
kwak@@ 60
lib@@ 60
magma 60
makisio 60
moni 60
obo@@ 60
ofili 60
okula 60
omba@@ 60
ongoro 60
ovich 60
popo 60
school 60
serotonini 60
sina 60
subira 60
tele 60
traf@@ 60
ubal@@ 60
umbia 60
umeb@@ 60
uzulu 60
wanaom@@ 60
wangeweza 60
wira 60
wol@@ 60
zuru 60
ּ@@ 60
1.1 59
155 59
1789 59
1814 59
18@@ 59
19.@@ 59
2,8@@ 59
223 59
Abdi 59
Are 59
Area 59
Baz@@ 59
Brunei 59
Buti@@ 59
CA 59
CT 59
Cameron 59
Chel@@ 59
Chunya 59
Craig 59
Dogg 59
Dou@@ 59
Fund 59
Germain 59
Gram 59
Guatemala 59
Guy 59
Gw@@ 59
Hali@@ 59
Head 59
J.@@ 59
Jackie 59
Jah@@ 59
Kadi 59
Kambi 59
Kasi 59
Kop@@ 59
Kush@@ 59
Kwaresima 59
Masai 59
Mish@@ 59
Miti 59
Mkw@@ 59
Moto 59
Padri 59
Pascal 59
Pavia 59
Pay@@ 59
Pol 59
Rod@@ 59
Ruz@@ 59
Sao 59
Sita 59
Stanford 59
Swaziland 59
Tajikistan 59
Thika 59
Tobago 59
Usi@@ 59
Vins@@ 59
Wrestling 59
Yusuf 59
aden@@ 59
aisi 59
aké 59
angwe 59
ast 59
atur@@ 59
dee 59
donia 59
eimani 59
etus 59
fich@@ 59
gio 59
hakikisha 59
hala 59
huma 59
igbo 59
indika 59
isini 59
iye 59
kutu 59
maw@@ 59
molek@@ 59
obu 59
odi@@ 59
ofariki 59
okwe 59
ongozi 59
osta 59
otom@@ 59
out@@ 59
pamp@@ 59
pili@@ 59
piramidi 59
qi@@ 59
shab@@ 59
shing@@ 59
ted 59
tig@@ 59
tro@@ 59
ufuatiliaji 59
ukwu 59
umbufu 59
ungaria 59
uwe@@ 59
ven@@ 59
vijidudu 59
vito 59
vyeti 59
world 59
yang 59
éd@@ 59
− 59
.jpg 58
100m 58
229 58
316 58
381 58
390 58
Act 58
Avon 58
Basilika 58
Beyoncé 58
Bohemia 58
Bong@@ 58
Bran@@ 58
Bush@@ 58
By@@ 58
Calvin 58
Cro@@ 58
Cur@@ 58
Georg 58
Hiro 58
ICP 58
Igbo 58
Kav@@ 58
Kimo 58
Krapf 58
Laterano 58
Leonardo 58
Lot@@ 58
Manda 58
Mills 58
Mitchell 58
Mozart 58
Mtem@@ 58
Nih@@ 58
Nkomo 58
O.S.B. 58
Obi 58
Pearl 58
Phoenix 58
Pit@@ 58
Reggae 58
Ronaldo 58
Siena 58
Stade 58
Sumatra 58
Super@@ 58
Tul@@ 58
Wesley 58
Wing@@ 58
Wolfsburg 58
YHWH 58
aitw@@ 58
altar@@ 58
ameth@@ 58
amii 58
andalizi 58
andam@@ 58
andar@@ 58
ano@@ 58
apartheid 58
apweke 58
asko 58
atat@@ 58
aud@@ 58
awat@@ 58
ax 58
ayu 58
chura 58
contributor 58
dale 58
dibu@@ 58
eini 58
ekeb@@ 58
engenezo 58
erv@@ 58
estini 58
etse 58
gen 58
hija 58
him 58
ikano 58
ingir@@ 58
isu 58
itio 58
kato 58
kay@@ 58
keo 58
kiu 58
kuhari@@ 58
mar 58
mat 58
mikro@@ 58
misi@@ 58
mte@@ 58
mwanaf@@ 58
mye@@ 58
oksa 58
onesho 58
ont@@ 58
patia 58
tamani 58
tif@@ 58
trans@@ 58
uali 58
ube 58
ulikani 58
waid@@ 58
weke 58
yeza 58
yg@@ 58
³ 58
æ@@ 58
ès 58
122 57
182 57
1821 57
225 57
630 57
80@@ 57
99@@ 57
ATA 57
AU 57
Aga 57
Amar@@ 57
Atletico 57
Augusto 57
Betty 57
Bh@@ 57
Bissau 57
Break 57
Brit@@ 57
Champions 57
Chief 57
Cleveland 57
Come 57
Deb@@ 57
Digital 57
Dong@@ 57
Emma 57
Estonia 57
Giza 57
Hampshire 57
Hits 57
IG@@ 57
Janeiro 57
Jumeirah 57
K.@@ 57
Kali 57
Kiur@@ 57
Lacaille 57
Macho 57
Magazine 57
Mahabharata 57
Mbale 57
Moon 57
Naf@@ 57
Nas 57
Nguyen 57
Nike 57
Peak 57
Pesa 57
Piemonte 57
Pro 57
RIAA 57
Rainbow 57
Retrieved 57
Richards 57
Sabata 57
Sof@@ 57
Sweet 57
System 57
Tand@@ 57
Thebe 57
Tos@@ 57
UC@@ 57
Vor@@ 57
Wasi@@ 57
Whitney 57
Yor@@ 57
Yu@@ 57
ZA 57
aam 57
afuatwa 57
aldo 57
amsha 57
anau@@ 57
aniki 57
ass 57
atal@@ 57
auawa 57
awanyiko 57
bihi 57
buti 57
con@@ 57
das 57
edai 57
ehebu 57
faili 57
habu 57
hat 57
hatar@@ 57
humuni 57
izikia 57
jabi 57
karani 57
leta 57
makus@@ 57
mea 57
mili@@ 57
nanga 57
noti 57
ogelea 57
oho 57
oksid@@ 57
optera 57
pH 57
ster 57
tie 57
tuka 57
ubali@@ 57
ubin@@ 57
uruwe 57
wakiz@@ 57
weta 57
yl@@ 57
ï 57
1517 56
175 56
1810 56
207 56
208 56
213 56
22@@ 56
323 56
André 56
Army 56
Auto 56
BH@@ 56
Bering 56
CO 56
Cant@@ 56
Cecil 56
Edinburgh 56
Fos@@ 56
Gates 56
Ghaz@@ 56
Hilo 56
Hudson 56
Id 56
Iren@@ 56
Ith@@ 56
Kikuyu 56
Kinor@@ 56
Kwan@@ 56
Laz@@ 56
Lip@@ 56
Manhattan 56
Miti@@ 56
Moravia 56
Nept@@ 56
Next 56
Nov@@ 56
O.P. 56
PNU 56
Pakistani 56
Pepe 56
Pieter@@ 56
Poly@@ 56
Pri@@ 56
Prison 56
Ra 56
Ravenna 56
Romagna 56
Samb@@ 56
Shang@@ 56
Son 56
Tay@@ 56
Terg@@ 56
Tib@@ 56
Til@@ 56
Travis 56
Uni@@ 56
Usaf@@ 56
Volume 56
Who 56
ZAPU 56
agga 56
ahim@@ 56
ahisisha 56
aili 56
akav@@ 56
aliana 56
anad@@ 56
angaz@@ 56
astr@@ 56
awan 56
cher 56
cu@@ 56
dera 56
ekel@@ 56
emavu 56
enberg 56
gat@@ 56
hibi@@ 56
hiri 56
huhu@@ 56
ikani 56
iking 56
inza 56
iran@@ 56
isri 56
iss 56
ksi 56
lah 56
lus@@ 56
mba 56
ment 56
miendo 56
nom@@ 56
ob 56
och 56
odini 56
oglob@@ 56
onzo 56
ossa 56
ozo@@ 56
rik 56
sah 56
san 56
sou@@ 56
stad 56
tend@@ 56
tengen@@ 56
ters 56
throm@@ 56
thu 56
timestamp 56
ubaliano 56
ulani 56
unk@@ 56
unta 56
uter@@ 56
ve@@ 56
via 56
viet@@ 56
wawa 56
wish@@ 56
yasa 56
121 55
124 55
2.4 55
205 55
256 55
406 55
44@@ 55
Abi@@ 55
Afrique 55
Age 55
Ain 55
Album 55
Alois 55
Anap@@ 55
Apartheid 55
Band@@ 55
Bern@@ 55
Bonaventura 55
Cent 55
Cook 55
Cot@@ 55
Cou@@ 55
Dec@@ 55
Diploma 55
Elias 55
Fal@@ 55
Flores 55
Gam@@ 55
Ghulam 55
Gregory 55
Gulu 55
He 55
ISO 55
Ignas 55
Imo 55
Isa@@ 55
Ismail 55
Jed@@ 55
Joel 55
Journal 55
Kre@@ 55
Lig@@ 55
Log@@ 55
Main@@ 55
Malta 55
Mst@@ 55
Muhamad 55
Mung@@ 55
Mustafa 55
Nazar@@ 55
Ong@@ 55
Oregon 55
Plan@@ 55
Randy 55
Reh@@ 55
Roosevelt 55
Sac@@ 55
Sandra 55
Seine 55
Tot@@ 55
Trade 55
Triangle 55
Tripoli 55
Wisconsin 55
adang 55
adilishana 55
adj@@ 55
akani 55
aky@@ 55
anc@@ 55
anji 55
anum 55
cor@@ 55
dari 55
dum@@ 55
ekom@@ 55
fuch@@ 55
ges@@ 55
guano 55
heli 55
hesabiwa 55
iliani 55
inn@@ 55
isan 55
jip@@ 55
kuba 55
kutor@@ 55
mane 55
meg@@ 55
misa 55
num@@ 55
ogon 55
omania 55
ous@@ 55
owe@@ 55
pemb@@ 55
pende 55
robot@@ 55
sti@@ 55
tengenezaji 55
tenisi 55
uen@@ 55
unab@@ 55
username 55
way@@ 55
yet@@ 55
zon@@ 55
â@@ 55
š@@ 55
ַ@@ 55
17,000 54
1835 54
218 54
222 54
227 54
335 54
AP@@ 54
Abdel@@ 54
About 54
Almag@@ 54
Atlantic 54
Au 54
BS 54
Bahr 54
Belarus 54
Brescia 54
Brook 54
Bub@@ 54
Christina 54
Chui 54
Daddy 54
Danny 54
E.@@ 54
Ele@@ 54
Euti@@ 54
Faith 54
Fati@@ 54
Fulani 54
Gan@@ 54
Garden 54
Gombe 54
Jinja 54
Kass@@ 54
Kiag@@ 54
Kingston 54
Lel@@ 54
Li 54
Lul@@ 54
Lun@@ 54
Lusaka 54
ME@@ 54
Madagascar 54
Malaria 54
Menelik 54
Miguel 54
Mong@@ 54
More 54
Museum 54
Nicholas 54
Nick 54
Nikol@@ 54
Oper@@ 54
Or 54
Pak 54
Palermo 54
Paula 54
Perry 54
Pet 54
Ponta 54
Pradesh 54
Primary 54
Rog@@ 54
Ruf@@ 54
Sahrawi 54
Sev@@ 54
Shah@@ 54
Spice 54
Sud@@ 54
Sug@@ 54
Torres 54
Upan@@ 54
Utah 54
Vib@@ 54
Vip@@ 54
Vul@@ 54
Ya@@ 54
agawa 54
alar@@ 54
alfa 54
alum@@ 54
amal@@ 54
ambul@@ 54
ander 54
angu@@ 54
anth@@ 54
anu@@ 54
atinga 54
bilia 54
chlor@@ 54
col@@ 54
doka 54
estina 54
ex@@ 54
falciparum 54
ibwa 54
ichika 54
ikh 54
ikii 54
imin@@ 54
ings 54
inze 54
isani 54
ium 54
kanaji 54
kupi@@ 54
kutegem@@ 54
laxis 54
levi 54
los 54
mes 54
mwanah@@ 54
nah@@ 54
ness 54
ock 54
onekano 54
ongola 54
onko 54
oon 54
ord@@ 54
parentid 54
pepti@@ 54
pros@@ 54
ps 54
rika 54
sh 54
sup@@ 54
tang@@ 54
ukar@@ 54
usu@@ 54
utom@@ 54
weg@@ 54
worth 54
yn@@ 54
è@@ 54
-- 53
10,0@@ 53
181 53
1832 53
1849 53
185 53
1851 53
199 53
264 53
3,9@@ 53
354 53
38,@@ 53
AT 53
Aba 53
Aka@@ 53
Appi@@ 53
August 53
Bali 53
Bar 53
Bau@@ 53
Berkeley 53
Broadcasting 53
CAF 53
Capital 53
Convention 53
Davies 53
Destiny 53
Dir@@ 53
Epi@@ 53
Equ@@ 53
Ere@@ 53
Fa@@ 53
Farisi 53
Fili@@ 53
Greatest 53
Guardian 53
Ile@@ 53
Jem@@ 53
Khamis 53
Kikon@@ 53
LP 53
Latin 53
Lithuania 53
Lorenzo 53
Luc@@ 53
Maputo 53
Minneapolis 53
Montreal 53
Netflix 53
Obote 53
Oc@@ 53
Olo@@ 53
Out@@ 53
Pittsburgh 53
Prim@@ 53
Public 53
Rap@@ 53
Remix 53
Rolling 53
Selassie 53
Sot@@ 53
Strath@@ 53
Sunday 53
Thompson 53
Thriller 53
Tin@@ 53
Vista 53
Waber@@ 53
War 53
Wolfgang 53
Zab@@ 53
Zak@@ 53
abl@@ 53
afakari 53
agala 53
aktari 53
amf@@ 53
amoja 53
angal@@ 53
ann 53
antini 53
ape@@ 53
asta 53
aten@@ 53
ator@@ 53
bana 53
bre@@ 53
burn 53
deka 53
eter 53
gyo 53
hidro@@ 53
ics 53
ishan@@ 53
itisi 53
jue 53
k.@@ 53
kateg@@ 53
kulu 53
linus 53
mango 53
meya 53
music 53
nan 53
nde@@ 53
ocho 53
oki@@ 53
olog@@ 53
ometria 53
ose@@ 53
pens@@ 53
remix 53
roskop@@ 53
sat@@ 53
ser 53
thai 53
uan 53
unav@@ 53
uvio 53
van@@ 53
vin 53
viol@@ 53
wandani 53
weli 53
won 53
yaj@@ 53
yanyas@@ 53
ó@@ 53
İzmir 53
136 52
145 52
151 52
1521 52
165 52
177 52
179 52
1831 52
226 52
23.@@ 52
283 52
397 52
3D 52
401 52
55@@ 52
7.5 52
8,0@@ 52
Am 52
Amazonas 52
Antak@@ 52
BET 52
Ba 52
Barry 52
Basel 52
Bashir 52
Benz 52
Book 52
Britain 52
Calabria 52
Cre@@ 52
Di 52
Dog@@ 52
Dut@@ 52
EN@@ 52
Edwin 52
English 52
Foster 52
Godfrey 52
Granada 52
Holland 52
Honduras 52
Hugh 52
Indian 52
Jamaica 52
Jaz@@ 52
Jazeera 52
Keith 52
Khal@@ 52
Kris@@ 52
LL 52
Line 52
Medical 52
Milton 52
Minh 52
Nal@@ 52
Negus 52
Nish@@ 52
PO@@ 52
Peninsula 52
Phil@@ 52
Punjab 52
Rudolf 52
Samu@@ 52
Sankt 52
Sardinia 52
Sky 52
Sugar 52
Tad@@ 52
Too 52
Trump 52
Trust 52
Umbria 52
ahari 52
aland 52
ambuli@@ 52
amotu 52
atio 52
band 52
biti 52
bon 52
dan@@ 52
day@@ 52
doni 52
elini 52
ence 52
ere@@ 52
faransa 52
gy 52
iche 52
idizi 52
ink@@ 52
itwayo 52
iz 52
kov@@ 52
kute@@ 52
leen 52
lug@@ 52
mm@@ 52
nitro@@ 52
okia 52
okok@@ 52
ox@@ 52
pho 52
ping@@ 52
rithi 52
seg@@ 52
shar@@ 52
sir@@ 52
st 52
sus@@ 52
ubadil@@ 52
ungumzo 52
utane 52
western 52
xi 52
yah 52
yos@@ 52
zus@@ 52
ה@@ 52
ṣ@@ 52
131 51
144 51
167 51
20.@@ 51
402 51
56@@ 51
6.5 51
711 51
Abit@@ 51
Adam@@ 51
Amon@@ 51
Aristotle 51
Ast@@ 51
Biko 51
Billy 51
Bordeaux 51
Butler 51
Chen 51
Ci@@ 51
Data 51
Detroit 51
Es 51
Ey@@ 51
Fabaceae 51
Fak@@ 51
Faus@@ 51
Garang 51
Harold 51
Haut 51
Heights 51
IBM 51
IF@@ 51
IT 51
Jor@@ 51
Jubilee 51
Krai 51
Lopez 51
ML@@ 51
Madh@@ 51
Marc 51
Marco 51
Matthew 51
Maximi@@ 51
Mith@@ 51
Mountain 51
Muf@@ 51
Nest@@ 51
Our 51
Over 51
PR@@ 51
Pand@@ 51
Pasi@@ 51
Pico 51
Province 51
Pur@@ 51
Ricardo 51
Rovers 51
Russell 51
Simone 51
Timbuktu 51
Tong@@ 51
Upper 51
Ving@@ 51
W.@@ 51
Wake 51
Zeus 51
aada 51
abii 51
adren@@ 51
afr@@ 51
afuzi 51
aishi 51
alf@@ 51
ambukizo 51
amine 51
arare 51
ave 51
char@@ 51
gan 51
gar 51
gon@@ 51
gul@@ 51
halika 51
haya@@ 51
hayati 51
hulumiwa 51
ikar@@ 51
imulizi 51
ines 51
inevyo 51
ins@@ 51
irmi 51
jerumani 51
kuyu 51
mana 51
mashu@@ 51
min 51
moj@@ 51
mor 51
okovu 51
omaanisha 51
ony 51
ott 51
pok@@ 51
sian 51
tako 51
text 51
ubu@@ 51
umii 51
ustan 51
veer 51
vokali 51
wayo 51
yum@@ 51
zis@@ 51
ō 51
ɛ@@ 51
ɪ@@ 51
123 50
146 50
1845 50
195 50
2.2 50
217 50
224 50
233 50
24.@@ 50
257 50
258 50
331 50
407 50
49,@@ 50
490 50
510 50
610 50
700,000 50
710 50
800,000 50
90,000 50
970 50
AIDS 50
Ama@@ 50
Angelina 50
Antoine 50
Any@@ 50
Ass@@ 50
Bond@@ 50
CN@@ 50
Cassidy 50
Dead 50
Dion@@ 50
Dum@@ 50
Fah@@ 50
Ferguson 50
Fly 50
Freedom 50
Gamma 50
Haj@@ 50
Hilton 50
Human 50
Instagram 50
Jeff 50
Jerry 50
Jos@@ 50
Justin 50
Key@@ 50
Kumasi 50
Mamba 50
Mariana 50
Ministry 50
Murphy 50
Nazi 50
Nes@@ 50
Nickelodeon 50
Nit@@ 50
Nkurunziza 50
Owen 50
Pres@@ 50
Prix 50
Renaissance 50
SE 50
Samia 50
Sent@@ 50
Snoop 50
Sophia 50
Suzuki 50
Theodore 50
UNICEF 50
Watur@@ 50
Wel@@ 50
Wer@@ 50
Without 50
abil@@ 50
ades 50
adhi@@ 50
adilifu 50
agonjwa 50
ahan 50
aid 50
alala 50
ameb@@ 50
apti@@ 50
arifa 50
ausa 50
azeri 50
azu 50
bio@@ 50
buy@@ 50
dal 50
devu 50
dub@@ 50
ely 50
emin@@ 50
enburg 50
engere 50
ering 50
finy@@ 50
fir@@ 50
gule 50
hakim@@ 50
hifad@@ 50
his@@ 50
ikil@@ 50
ikuyu 50
marathon 50
mur@@ 50
oforo 50
okom@@ 50
oliki 50
oslov@@ 50
pro 50
rag@@ 50
stadt 50
tao 50
uddha 50
umer@@ 50
unguko 50
utam@@ 50
virutub@@ 50
ó 50
بن 50
1227 49
149 49
153 49
163 49
2.6 49
275 49
60@@ 49
670 49
AG 49
Aaron 49
Alexandra 49
Alf@@ 49
Amp@@ 49
Anglo 49
Apollo 49
Bridge 49
CE 49
CP@@ 49
Camp@@ 49
Caroline 49
Chad@@ 49
Chak@@ 49
Change 49
Climate 49
Comics 49
Corona 49
Cy@@ 49
Dakota 49
Deng 49
Dok@@ 49
Du 49
EU 49
End@@ 49
Evans 49
Ezek@@ 49
Fresh 49
Gabrieli 49
Gardens 49
Gibraltar 49
Gran@@ 49
Gustav 49
Hannah 49
Huli@@ 49
Ich@@ 49
Islands 49
Kamp@@ 49
Keb@@ 49
LO@@ 49
Last 49
Latifah 49
Lives 49
Lynn 49
Magadi 49
Mao 49
Mars 49
Meno 49
Monte@@ 49
Mumbai 49
Muslim 49
N. 49
NL 49
Ner@@ 49
Never 49
Osama 49
Plata 49
Play 49
Pom@@ 49
Pos@@ 49
Raphael 49
Republic 49
Research 49
Rouen 49
SM@@ 49
Series 49
Shakespeare 49
Social 49
Square 49
Ster@@ 49
Surinam 49
Suz@@ 49
Sz@@ 49
Tar 49
Two 49
Vancouver 49
Werner 49
XX 49
Yeh@@ 49
Zakaria 49
abi@@ 49
abiashara 49
adiliano 49
ae@@ 49
agi@@ 49
agon@@ 49
ajibika 49
aly 49
ambuk@@ 49
ambulisho 49
anani 49
anchi 49
anes 49
anik@@ 49
arasi 49
athy 49
atii 49
ats@@ 49
aul@@ 49
bata 49
cer@@ 49
com@@ 49
ege@@ 49
eha 49
face 49
handisi 49
haribi 49
ies 49
ilahi 49
ille 49
inan@@ 49
inje 49
iwi 49
jeli 49
jem@@ 49
jer 49
kala 49
lizi 49
lock 49
lojia 49
magazine 49
maxi 49
mol@@ 49
nazi 49
oine 49
omali 49
omeo 49
ometri 49
onz@@ 49
penalti 49
qa 49
raine 49
sharia 49
soul 49
stown 49
tir@@ 49
toni 49
tup@@ 49
uhak@@ 49
ulig@@ 49
ulima 49
vu@@ 49
walid@@ 49
water 49
yoo 49
É@@ 49
ï@@ 49
ד@@ 49
ל@@ 49
1250 48
126 48
133 48
138 48
168 48
178 48
1806 48
1855 48
192 48
253 48
259 48
286 48
30.@@ 48
315 48
345 48
377 48
525 48
6,0@@ 48
720 48
980 48
Abubakar 48
Anj@@ 48
Augustine 48
Axum 48
Bei 48
Bello 48
Bird 48
Bung@@ 48
Byrne 48
Byz@@ 48
Camp 48
Celtic 48
Chiefs 48
Dro@@ 48
Edmund 48
Ef@@ 48
Empire 48
Express 48
FBI 48
Fab@@ 48
Fall 48
Fernández 48
Flora 48
Francesco 48
From 48
Goldman 48
Hul@@ 48
Hull 48
Hum@@ 48
Ile 48
Islam 48
Khalid 48
Lang 48
Lettow 48
Lev@@ 48
Level 48
Lon@@ 48
Louise 48
Lulu 48
Marrakesh 48
Maud@@ 48
Mba@@ 48
Mikron@@ 48
Mila 48
Mita 48
Miy@@ 48
Muy@@ 48
N.@@ 48
Ngao 48
Nice 48
PS 48
Pet@@ 48
Provence 48
R.@@ 48
RA@@ 48
Rabat 48
Ren@@ 48
Région 48
Sap@@ 48
Sec@@ 48
Still 48
Sub@@ 48
Tir@@ 48
Tisa 48
Tommy 48
Tsar 48
Tund@@ 48
Umar 48
Vasco 48
Vol 48
Wadi 48
Web@@ 48
Wood@@ 48
Yorkshire 48
Zab 48
adhali 48
agia 48
ald@@ 48
also 48
amaz@@ 48
amm@@ 48
arap 48
asis 48
astani 48
atan 48
ativus 48
barak@@ 48
bud@@ 48
didae 48
ekoste 48
end 48
entia 48
etti@@ 48
formula 48
gli@@ 48
gor@@ 48
his 48
igia 48
inho 48
itar@@ 48
jan 48
jas@@ 48
jog@@ 48
kund@@ 48
lab@@ 48
mifu@@ 48
oku 48
old 48
omber@@ 48
oula 48
oum 48
pag@@ 48
paz@@ 48
pio 48
redi@@ 48
ron 48
see 48
soya 48
stein 48
tag@@ 48
ther@@ 48
thul@@ 48
tum 48
tuna 48
tuz@@ 48
ustino 48
wenz@@ 48
yam 48
128 47
1492 47
169 47
1750 47
221 47
241 47
285 47
321 47
332 47
362 47
404 47
587 47
780 47
870 47
960 47
Aisha 47
Akam@@ 47
Arch@@ 47
Aswan 47
Ati@@ 47
BM@@ 47
Baraka 47
Bash@@ 47
Bed@@ 47
Boris 47
Cardiff 47
Comoé 47
Constantine 47
Crystal 47
DC@@ 47
DD 47
Ellis 47
Fatma 47
Floyd 47
Gamb@@ 47
Gemma 47
Georges 47
Herald 47
Hey@@ 47
Hizo 47
Hoja 47
Il 47
Issa 47
Ja@@ 47
Josephine 47
Kids 47
Kora 47
Königsberg 47
Lat@@ 47
Latvia 47
Lima 47
Lisa 47
Malin@@ 47
Martino 47
Medi@@ 47
Micro@@ 47
Miriam 47
Mo 47
Mpumalanga 47
Muz@@ 47
Mwanas@@ 47
NSDAP 47
Nagasaki 47
Nina 47
Pacific 47
Panther 47
Pato 47
Pieter 47
Platinum 47
Qaida 47
Raw 47
Reading 47
Ris@@ 47
Robinson 47
Run 47
Réunion 47
Sanc@@ 47
Sine 47
Springs 47
Stuttgart 47
Sufi 47
Tamth@@ 47
Tip 47
Tuki@@ 47
Us 47
Weimar 47
Wili@@ 47
Youtube 47
Zou@@ 47
abato 47
agraha 47
alg@@ 47
anatom@@ 47
apr@@ 47
aris@@ 47
arki 47
aus 47
awaida 47
chora 47
cius 47
dens@@ 47
dis 47
dok@@ 47
eem 47
elius 47
ezaliwa 47
fan 47
furia 47
hit 47
ight 47
ikiwe 47
iliaji 47
imer@@ 47
inder 47
ishi@@ 47
itis 47
jat@@ 47
jil@@ 47
juli@@ 47
koro 47
langobahari 47
ler@@ 47
log 47
län 47
mit 47
mle 47
n.@@ 47
nad@@ 47
nyan@@ 47
obi@@ 47
okol@@ 47
opi@@ 47
ores 47
rup@@ 47
sta 47
tirir@@ 47
top@@ 47
umuisha 47
ving@@ 47
wagizo 47
yand@@ 47
ע@@ 47
Ἀ@@ 47
134 46
147 46
1597 46
1807 46
1824 46
1843 46
235 46
24,000 46
248 46
249 46
252 46
269 46
333 46
334 46
344 46
347 46
366 46
395 46
40,@@ 46
405 46
660 46
AFC 46
AK 46
Albion 46
Arabic 46
Arg@@ 46
Arles 46
Arnold 46
Babar 46
Beirut 46
Bobby 46
Buny@@ 46
CSE 46
CX@@ 46
Centauri 46
Charlie 46
Conference 46
DF 46
Dad@@ 46
Darwin 46
Dorothy 46
Emeritus 46
Eminem 46
Epidemi@@ 46
GT 46
Gom@@ 46
Hed@@ 46
Hydro@@ 46
ID 46
Jacqueline 46
Jay@@ 46
Jesus 46
Joan 46
Julian 46
Kasai 46
Khadi@@ 46
Kres@@ 46
Larry 46
Laurent 46
León 46
Like 46
Mad 46
Mai 46
Mamb@@ 46
Mann@@ 46
Marina 46
Mason 46
Mediter@@ 46
Metro 46
Metz 46
Mill@@ 46
Mont@@ 46
Nai@@ 46
Nath@@ 46
Nh@@ 46
Nia 46
Nixon 46
Not 46
Nova 46
Number 46
Olivia 46
Order 46
Pang@@ 46
Pot 46
RO@@ 46
RT@@ 46
Rights 46
Rock@@ 46
Rodney 46
Shafi 46
Singh 46
Strait 46
Summer 46
Tanaka 46
Theodosius 46
Tunis 46
Twitter 46
UAE 46
Vij@@ 46
Vivian 46
Wala 46
Wanat@@ 46
Zaw@@ 46
adha@@ 46
afe 46
ahera 46
akini 46
anjo 46
anne 46
anon 46
apir@@ 46
arani 46
azar@@ 46
bag@@ 46
betr@@ 46
boli 46
bula 46
chel@@ 46
chum@@ 46
dell 46
dos@@ 46
edu 46
egu 46
ekebisho 46
ekw@@ 46
eledi 46
etem@@ 46
eth 46
fanana 46
far 46
fis@@ 46
foni 46
fre@@ 46
hif@@ 46
ibe 46
ilizi 46
illo 46
imbali 46
init@@ 46
ipir@@ 46
itt 46
kitaal@@ 46
lau@@ 46
laz@@ 46
leng 46
migu@@ 46
mina 46
msim@@ 46
okee 46
oland 46
ones 46
ostr@@ 46
owat@@ 46
poa 46
prop@@ 46
ram 46
rot@@ 46
sisko 46
songa 46
ubio 46
uge@@ 46
wadi 46
yah@@ 46
yony@@ 46
á@@ 46
éré 46
ś@@ 46
ş@@ 46
ן 46
120,000 45
152 45
1540 45
166 45
176 45
1813 45
1818 45
1842 45
197 45
238 45
263 45
287 45
32.@@ 45
329 45
348 45
379 45
409 45
413 45
44,@@ 45
538 45
642 45
787 45
86@@ 45
9000 45
AB 45
AG@@ 45
Aba@@ 45
Akit@@ 45
Alb@@ 45
Alfonso 45
Andalusia 45
Apen@@ 45
Bab 45
Boh@@ 45
Bradley 45
Chess 45
Collins 45
Dang@@ 45
Dest@@ 45
Duffy 45
Edo 45
Emily 45
Entebbe 45
Estr@@ 45
Evra 45
Fir@@ 45
GSM 45
Galileo 45
Gra@@ 45
Guru 45
Haute 45
Hood 45
IT@@ 45
Isabel 45
Jon 45
Kara 45
Kingdom 45
Koo 45
L.@@ 45
Lane 45
Leicester 45
Llor@@ 45
Lopes 45
MI@@ 45
Madison 45
Management 45
Matter 45
McDonald 45
Md@@ 45
Memphis 45
Middle 45
Mé@@ 45
Nero 45
Oklahoma 45
Oth@@ 45
PC 45
Petrus 45
Powers 45
Rangers 45
Rav@@ 45
Rej@@ 45
Rey 45
Roberts 45
SOS 45
Saad@@ 45
Schalke 45
Schuyler 45
Sever@@ 45
TA 45
Tedesco 45
Toulouse 45
Tran@@ 45
Viktor@@ 45
Vision 45
Wiki@@ 45
Xbox 45
Yal@@ 45
Zag@@ 45
Zor@@ 45
adu@@ 45
adufu 45
akt@@ 45
al- 45
ambaz@@ 45
andamizi 45
angep@@ 45
angi@@ 45
anu 45
apani 45
aste 45
asuaji 45
atili 45
atizo 45
aup@@ 45
avia 45
awany@@ 45
awo 45
city 45
comment 45
dei 45
diyya 45
ekani 45
epesi 45
eule 45
euzi 45
ewski 45
fiche 45
fri@@ 45
hadi@@ 45
haini 45
hot@@ 45
idro@@ 45
iho 45
ilimali 45
india 45
isoma 45
iyya 45
kuge@@ 45
mchang@@ 45
nav@@ 45
ogr@@ 45
omani 45
ongi 45
otr@@ 45
rat 45
ris@@ 45
ska 45
sub@@ 45
taz@@ 45
uano 45
uska 45
vera 45
wer 45
yama 45
ç@@ 45
è 45
132 44
1825 44
1828 44
183 44
187 44
188 44
198@@ 44
22,000 44
23,000 44
282 44
29.@@ 44
317 44
337 44
3500 44
384 44
411 44
417 44
45,000 44
453 44
483 44
54@@ 44
570 44
590 44
790 44
Aberdare 44
Abu@@ 44
Action 44
Aden 44
Ala 44
Ank@@ 44
Au@@ 44
Augsburg 44
Aya 44
Baker 44
Belize 44
Blake 44
Bomb@@ 44
Bonn 44
Bronx 44
Bryan 44
CI 44
Cha@@ 44
Chand@@ 44
Chang 44
Clar@@ 44
Clermont 44
Cola 44
Cos@@ 44
DL@@ 44
Dz@@ 44
Evening 44
Fan@@ 44
Federal 44
Frum@@ 44
GR 44
Gou@@ 44
Grey 44
Hamad 44
Health 44
IB@@ 44
Iberia 44
Industry 44
Ip@@ 44
Keita 44
Kiel@@ 44
Kond@@ 44
LDP 44
Laf@@ 44
Lal@@ 44
Lap@@ 44
MIT 44
MV 44
Make 44
Marino 44
Marne 44
Messi 44
Mkus@@ 44
Mou@@ 44
Nic@@ 44
Perugia 44
PlayStation 44
Pé@@ 44
RE@@ 44
RPF 44
Rogers 44
Rot@@ 44
Rotterdam 44
Ruby 44
Say 44
Seng@@ 44
Septuaginta 44
Shek@@ 44
Sud 44
T.@@ 44
Tat@@ 44
Tend@@ 44
Thu@@ 44
Tog@@ 44
Tsu@@ 44
Tyler 44
Usher 44
Va@@ 44
Van@@ 44
Vegas 44
Waal@@ 44
Wimp@@ 44
Wo@@ 44
Yak 44
Zar@@ 44
aff 44
afwa 44
akano 44
ambala 44
andro@@ 44
ardo 44
arib@@ 44
asit@@ 44
bay 44
bis@@ 44
boy 44
bridge 44
can 44
cha@@ 44
chun@@ 44
ck 44
dag@@ 44
dig@@ 44
diki 44
dizi 44
ekee 44
elimisha 44
enza 44
ester 44
eter@@ 44
gana 44
hee 44
iksi 44
ilu 44
ino@@ 44
isso 44
mas 44
nataka 44
nes 44
neutr@@ 44
nh@@ 44
ojen@@ 44
one@@ 44
opoli 44
otro@@ 44
oui 44
oul@@ 44
ovo 44
pes@@ 44
swana 44
telegr@@ 44
tion 44
tisho 44
tumb@@ 44
uang@@ 44
uela 44
vali 44
windo 44
wini 44
yon 44
zor@@ 44
ég@@ 44
ος 44
大@@ 44
1795 43
1799 43
1822 43
1829 43
21.@@ 43
228 43
244 43
262 43
268 43
341 43
342 43
375 43
429 43
509 43
605 43
760 43
ADN 43
AMA 43
Adel@@ 43
Agata 43
Alo@@ 43
América 43
Ant@@ 43
Authority 43
Bach@@ 43
Bakh@@ 43
Beat 43
Bik@@ 43
Bw@@ 43
CDU 43
Chu@@ 43
Clark 43
Curie 43
Dand@@ 43
Democracy 43
Dik@@ 43
Domin@@ 43
Dortmund 43
Edith 43
Edwards 43
Feldman 43
Fischer 43
Flam@@ 43
Fom@@ 43
Fraser 43
Gate 43
Geor@@ 43
Gilbert 43
Greenwich 43
Hannover 43
Hev@@ 43
Hori 43
Huh@@ 43
Hunter 43
Ibrah@@ 43
Ih@@ 43
Jar@@ 43
Justice 43
KW@@ 43
Khum@@ 43
Lionel 43
Living 43
Lov@@ 43
Mae 43
Mahal@@ 43
Maine 43
Meyer 43
Montana 43
Nach@@ 43
Nao 43
Neb@@ 43
Non@@ 43
Perpetua 43
Pete 43
Polisario 43
Pun@@ 43
Rivers 43
SMS 43
Sanders 43
Schrödinger 43
Semb@@ 43
Seram 43
Severus 43
Shan@@ 43
Spencer 43
Tano 43
True 43
Vic@@ 43
Voi 43
Waik@@ 43
a- 43
aff@@ 43
aine 43
andaman@@ 43
azak@@ 43
buko 43
bura 43
bus 43
dolar 43
dudu 43
ekebisha 43
fak@@ 43
hoof@@ 43
ibo 43
ikwe 43
ilivu 43
intho 43
isii 43
jong 43
kimap@@ 43
kufu 43
ll 43
mende 43
mon 43
msem@@ 43
neli 43
nge 43
og 43
ohozi 43
oji 43
onom@@ 43
otop@@ 43
ović 43
pea 43
pek@@ 43
pisho 43
ret@@ 43
riwa 43
seva 43
sle@@ 43
ston 43
tara 43
tik@@ 43
tori 43
tuk@@ 43
umani 43
uriana 43
urn@@ 43
usho 43
uyi 43
wy 43
yul@@ 43
zer 43
県 43
143 42
148 42
1520 42
1572 42
161 42
184 42
194 42
2.3 42
232 42
288 42
318 42
336 42
339 42
346 42
355 42
356 42
357 42
422 42
50,@@ 42
515 42
55,000 42
580 42
58@@ 42
604 42
622 42
625 42
7,0@@ 42
Alim@@ 42
Amy 42
Anton@@ 42
Arap 42
Atlético 42
Avenue 42
Bati@@ 42
Batista 42
Bec@@ 42
Bib@@ 42
Black@@ 42
Broadway 42
Buffalo 42
Burger 42
CTU 42
Caes@@ 42
Chopra 42
Cir@@ 42
Coca 42
Como 42
DVT 42
Didi@@ 42
Djib@@ 42
Département 42
EC@@ 42
ER 42
ESA 42
Eul@@ 42
Five 42
Fland@@ 42
Forest 42
Fou@@ 42
Games 42
Gran 42
Grim@@ 42
Hap@@ 42
Hopkins 42
Iy@@ 42
Jeremy 42
Karat@@ 42
Km 42
Knight 42
Land@@ 42
Leipzig 42
Lib@@ 42
MB 42
Manu@@ 42
Marx 42
Monako 42
Morning 42
Moss 42
Motown 42
Nakamura 42
Neo 42
Oranje 42
Original 42
Oyo 42
Pall@@ 42
Pam@@ 42
Pter@@ 42
Rh@@ 42
Rice 42
Sabah 42
Salama 42
Sales 42
Samba 42
Shay@@ 42
Sind@@ 42
Tao 42
Turner 42
Veneto 42
VfL 42
Web 42
Winston 42
XC@@ 42
Yvonne 42
agan 42
agu 42
ainia 42
alan@@ 42
apia 42
asoma 42
assé 42
att@@ 42
awimto 42
ays 42
bac@@ 42
bank 42
dar 42
dii 42
dominico 42
eca 42
eia 42
ense 42
entr@@ 42
eraha 42
fet@@ 42
gil 42
hib@@ 42
high 42
holanzi 42
hom 42
ide@@ 42
ig 42
iman 42
kno@@ 42
kopo 42
lamu 42
language 42
las@@ 42
less 42
ly@@ 42
million 42
new 42
onj@@ 42
otti 42
pan 42
poda 42
rani 42
sson 42
tawa 42
tit@@ 42
tor 42
tz 42
ude 42
ugaji 42
uhusi@@ 42
ulus 42
undombinu 42
unz@@ 42
uok@@ 42
urini 42
utaf@@ 42
uyo 42
v. 42
wanza 42
wepa 42
yd@@ 42
zy 42
محمد 42
∘ 42
1,200 41
11@@ 41
162 41
173 41
1809 41
1812 41
1834 41
191 41
254 41
26.@@ 41
276 41
36.@@ 41
373 41
386 41
609 41
632 41
649 41
8.5 41
9,0@@ 41
950 41
98@@ 41
Acc@@ 41
Ado@@ 41
Airbus 41
Airways 41
Andre 41
Android 41
Apol@@ 41
Bahamas 41
Beau@@ 41
Big@@ 41
Blood 41
Bra@@ 41
Brahim 41
Bundestag 41
CCC@@ 41
Capua 41
Chart 41
Chip@@ 41
Ciudad 41
DO 41
Dep@@ 41
Fac@@ 41
Fil 41
Forever 41
Gao 41
Geb@@ 41
Geoffrey 41
Gib@@ 41
Gö@@ 41
Hanse 41
Harcourt 41
Hard 41
Hin@@ 41
Hou@@ 41
Isma@@ 41
Jul@@ 41
Kai@@ 41
Karakoram 41
Köln 41
Lahore 41
Lubumbashi 41
MRI 41
Mar 41
Mary@@ 41
Ming 41
NE@@ 41
Nasser 41
Nez@@ 41
Okon@@ 41
Pompe@@ 41
Rahman 41
Rama 41
Rodriguez 41
SO@@ 41
SWOT 41
Saw@@ 41
Secret 41
Seneg@@ 41
Seven 41
Sheraton 41
Sixtus 41
Stoke 41
Stuart 41
Sé@@ 41
Takri@@ 41
Tang 41
Taw@@ 41
Traoré 41
Troyes 41
Uran@@ 41
Usw@@ 41
VI@@ 41
Wang 41
Whit@@ 41
Wolf 41
Ye@@ 41
Yek@@ 41
abaila 41
agar 41
ahir@@ 41
alisi@@ 41
anini 41
ataba 41
atak 41
ater@@ 41
avian 41
awan@@ 41
bish@@ 41
blues 41
day 41
devi@@ 41
dit 41
dro 41
ebra 41
eksi 41
embu 41
ener@@ 41
enge@@ 41
enti@@ 41
ert 41
ghas@@ 41
habit@@ 41
head 41
heim 41
hiyo@@ 41
hou 41
ids 41
ier 41
itihada 41
itzburg 41
izia 41
jee 41
kum 41
kutw@@ 41
lai 41
lan 41
lisi@@ 41
mano 41
mg 41
nina 41
ole@@ 41
pos 41
pres@@ 41
rie 41
stil@@ 41
taj@@ 41
tasni@@ 41
trek@@ 41
tria 41
uling@@ 41
uva 41
vivax 41
wu 41
zoni 41
1519 40
159 40
1802 40
1811 40
1833 40
292 40
327 40
387 40
476 40
484 40
69@@ 40
730 40
79@@ 40
Again 40
Agr@@ 40
Airlines 40
Amhara 40
Amos 40
Andorra 40
Athletic 40
BO@@ 40
Batman 40
Biafra 40
Bonaparte 40
Borussia 40
Bukh@@ 40
CC 40
Captain 40
Clouds 40
Deutsche 40
Diz@@ 40
Doha 40
ESPN 40
Economic 40
Eduardo 40
Eff@@ 40
Elisha 40
Four 40
Freeman 40
Ful@@ 40
Gem@@ 40
Get@@ 40
Giuseppe 40
Gué@@ 40
Halley 40
Hass@@ 40
Hippo@@ 40
Hiroshima 40
History 40
Iv@@ 40
Iw@@ 40
Joh@@ 40
Jorge 40
Kaya 40
Khe@@ 40
Kid 40
Koch 40
LE@@ 40
Lakes 40
Let 40
Liberation 40
Linda 40
Maq@@ 40
Marrakech 40
Maya 40
Mist@@ 40
Mountains 40
Mwar@@ 40
Nikon 40
Nottingham 40
OFM 40
Ober@@ 40
Osh@@ 40
Pain 40
Phillips 40
Pluto 40
Pointe 40
Quincy 40
Region 40
Reims 40
Rig@@ 40
Río 40
SH@@ 40
Sali@@ 40
Samoa 40
Samp@@ 40
Samsung 40
Sharon 40
Sob@@ 40
Sog@@ 40
Talib 40
Ted 40
Teod@@ 40
Theodor 40
Torino 40
Touré 40
Trabzon 40
Tula 40
Vanessa 40
View 40
Wai@@ 40
Winnie 40
XXII 40
Yahya 40
Zidane 40
abur@@ 40
adan 40
adv@@ 40
aea 40
aise 40
alsafa 40
anen 40
arian 40
ars 40
atas@@ 40
aten 40
atol@@ 40
aze 40
bais@@ 40
bal 40
bati@@ 40
bek 40
bomb@@ 40
ce@@ 40
changany@@ 40
codice 40
cr@@ 40
dancehall 40
della 40
dy@@ 40
elgiji 40
ement 40
etto 40
eu@@ 40
gum 40
gum@@ 40
hiv@@ 40
ical 40
icom 40
igua 40
imbe 40
indonesia 40
ingira 40
inti 40
irili 40
iso@@ 40
isterre 40
kong 40
kupel@@ 40
kuti 40
lad@@ 40
las 40
len 40
long 40
mbing@@ 40
mel 40
meng@@ 40
mere 40
number 40
opar@@ 40
ornis 40
oshel@@ 40
owo 40
pera 40
plas@@ 40
px 40
ry@@ 40
sc@@ 40
sev@@ 40
sinap@@ 40
tap@@ 40
thia 40
tima 40
ubo@@ 40
uguvugu 40
umbaji 40
uze 40
vertebr@@ 40
wezekani 40
zab@@ 40
ën@@ 40
☉ 40
0.3 39
12.@@ 39
130,000 39
141 39
142 39
1816 39
19,000 39
198 39
2.7 39
2.8 39
219 39
245 39
246 39
28,000 39
293 39
295 39
298 39
319 39
322 39
324 39
349 39
374 39
378 39
382 39
391 39
408 39
419 39
432 39
445 39
449 39
535@@ 39
56,@@ 39
616 39
620 39
88@@ 39
AP 39
Aiken 39
Alberta 39
Animation 39
Baj@@ 39
Bam@@ 39
Bant@@ 39
Beni 39
Bermuda 39
Boc@@ 39
Bulawayo 39
CDC 39
CML@@ 39
Canis 39
Challenge 39
Chir@@ 39
Classic 39
Clement 39
Columbus 39
Connor 39
Creek 39
Dap@@ 39
Denizli 39
Dit@@ 39
Eddy 39
Eswatini 39
FI@@ 39
Federation 39
Fire 39
Gad@@ 39
Galilei 39
German 39
Gri@@ 39
Gulf 39
Gutenberg 39
Ham 39
Harlem 39
Honey 39
Jamal 39
Jang@@ 39
Jesse 39
Jessica 39
Joy@@ 39
João 39
Kar 39
Karim 39
Kay 39
Kelvin 39
Kings 39
LXX@@ 39
Labrador 39
Lan@@ 39
Lati@@ 39
Lay@@ 39
Lenin 39
Loc@@ 39
Loire 39
Lud@@ 39
Ludov@@ 39
Luigi 39
Manz@@ 39
Mbeki 39
Metropolitan 39
Mix@@ 39
Moldova 39
Nand@@ 39
Nass@@ 39
Naw@@ 39
Oceania 39
Paolo 39
Parker 39
Place 39
Poitiers 39
Portsmouth 39
Python 39
Rash@@ 39
Recording 39
Reunion 39
Ring 39
Row 39
Semin@@ 39
Shik@@ 39
Siy@@ 39
Small 39
Soden 39
Sos@@ 39
Sylar 39
Talent 39
Tribune 39
Trinity 39
UT@@ 39
Vieira 39
Vodafone 39
Vu@@ 39
Ward 39
Water 39
Winfrey 39
aburu 39
adiliko 39
adre 39
ager 39
aguso 39
ait 39
ajara 39
akato 39
akh@@ 39
alay 39
alini 39
alm@@ 39
angazo 39
anos 39
anyaji 39
arama 39
arius 39
atari 39
atoliki 39
awesi 39
bey 39
bid@@ 39
cat@@ 39
chu 39
cin@@ 39
con 39
cy 39
deb@@ 39
eau 39
elez@@ 39
endok@@ 39
eni@@ 39
entina 39
ezile 39
gezi 39
hair@@ 39
iano 39
iganaji 39
inf@@ 39
ingham 39
issen@@ 39
jak@@ 39
jou@@ 39
kamb@@ 39
karo 39
katili 39
keno 39
leot@@ 39
let 39
let@@ 39
mamb@@ 39
mbal@@ 39
mfany@@ 39
mith@@ 39
mont 39
msaf@@ 39
mut@@ 39
nying@@ 39
oefu 39
omy@@ 39
onzi 39
oper@@ 39
osem@@ 39
otor@@ 39
ouma 39
pam@@ 39
plazma 39
pour 39
rania 39
sella 39
shut@@ 39
stati@@ 39
tham 39
tok 39
try 39
unzo 39
upan@@ 39
urus 39
wino 39
zai 39
zif@@ 39
ú@@ 39
† 39
000@@ 38
1610 38
1780 38
1801 38
1803 38
189 38
2,500 38
2.0 38
2.1 38
21,000 38
236 38
239 38
243 38
265 38
274 38
343 38
363 38
4.3 38
403 38
444 38
46,@@ 38
60,@@ 38
668 38
690 38
70@@ 38
820 38
90@@ 38
910 38
AO@@ 38
Abel 38
Against 38
Akar@@ 38
Akira 38
Alpes 38
Anita 38
Antalya 38
Australian 38
Bhutan 38
Bosco 38
Bru@@ 38
Buli@@ 38
Bursa 38
Burton 38
Carlo 38
Cit@@ 38
Commercial 38
Cul@@ 38
Davie 38
Design 38
Dong 38
Drake 38
Eb@@ 38
Ed 38
Enrique 38
Est@@ 38
Exchange 38
Farid 38
Freetown 38
Funk 38
Galia 38
Garner 38
Gau@@ 38
Ghetto 38
Gont@@ 38
Gy@@ 38
Have 38
Her 38
Hez@@ 38
Hier@@ 38
High@@ 38
Hindu 38
Honor@@ 38
Idi 38
Imperial 38
Kai 38
Kaizer 38
Kashmir 38
Ken 38
Khaled 38
Kisov@@ 38
Korn@@ 38
Lilian 38
Logan 38
Maktoum 38
Mbeg@@ 38
Mensah 38
Meth@@ 38
Mim@@ 38
Mine 38
Moreno 38
NPR 38
Negro 38
Northumbria 38
Num@@ 38
Nyasaland 38
PC@@ 38
PE@@ 38
Pate 38
Pent@@ 38
Phil 38
Rag@@ 38
Rebecca 38
Record 38
Rihanna 38
Rud@@ 38
SU@@ 38
Sc 38
Severino 38
Shanghai 38
Sisters 38
Songs 38
Spe@@ 38
Spider 38
Sul 38
Sutherland 38
Terry 38
Text 38
Things 38
Tob@@ 38
Tonight 38
Top@@ 38
WT@@ 38
X. 38
Yon@@ 38
Za@@ 38
abol@@ 38
abu@@ 38
afari 38
agh 38
ahewa 38
ants 38
apisho 38
ariadha 38
atom@@ 38
bik@@ 38
biom@@ 38
bok 38
dida 38
digit@@ 38
din@@ 38
dinosaur@@ 38
ekeshaji 38
elan@@ 38
emir@@ 38
emr@@ 38
enje 38
ensi@@ 38
etab@@ 38
etani 38
eton 38
gil@@ 38
glutam@@ 38
graf@@ 38
hik@@ 38
hujaa 38
ibor 38
ija 38
ilian 38
imen@@ 38
irini 38
jewa 38
kri@@ 38
kujih@@ 38
ké 38
lahi 38
lavoni 38
les@@ 38
leu 38
mchu@@ 38
nin 38
nm 38
oba@@ 38
odoro 38
oji@@ 38
ort 38
ouf 38
plan@@ 38
plant 38
quot 38
rai 38
rema 38
sie 38
tari@@ 38
tey 38
tib@@ 38
time 38
tou 38
tuliv@@ 38
uhiwa 38
ux 38
zika 38
ח@@ 38
כ@@ 38
0,0@@ 37
1220 37
158 37
1622 37
164 37
1648 37
1826 37
186 37
247 37
266 37
271 37
3.2 37
368 37
455 37
475 37
507 37
54,@@ 37
597 37
608 37
612 37
615 37
628 37
68@@ 37
705 37
880 37
Abay 37
Adu@@ 37
Amir 37
And 37
Andy 37
Angel@@ 37
Arena 37
Arn@@ 37
At 37
Aurelius 37
Ball@@ 37
Barr@@ 37
Brig@@ 37
Calabar 37
Cass@@ 37
Castle 37
Ces@@ 37
Chaka 37
Christ 37
Christmas 37
Crazy 37
Cube 37
DP 37
DR 37
DRC 37
DS 37
Damian 37
Desmond 37
Deutsch 37
Dib@@ 37
Dj 37
EAC 37
Ej@@ 37
Eli 37
Esther 37
FDD 37
Fat 37
Flav@@ 37
Frances 37
Frig@@ 37
Fro@@ 37
Fus@@ 37
Gand@@ 37
Gath@@ 37
Genova 37
Gerard 37
Gob@@ 37
Hb@@ 37
IMF 37
Jel@@ 37
Juliana 37
Kalle 37
Kate 37
Kerala 37
Kier@@ 37
Kitur@@ 37
Kol 37
Kuj@@ 37
LM 37
Lau@@ 37
Light 37
Lille 37
Liu 37
Lop@@ 37
Mainz 37
Majid 37
Meh@@ 37
Mercury 37
Methodist 37
Molly 37
Muzik 37
NCAA 37
Nashville 37
Nord 37
PL@@ 37
Pat 37
Pelé 37
Princeton 37
RETScreen 37
RI 37
Range 37
Rat@@ 37
Rein@@ 37
Rich 37
Roz@@ 37
Rugby 37
Ruiz 37
S.J. 37
Sivas 37
Sporting 37
Talk 37
Tau@@ 37
Ther@@ 37
Thomson 37
Toni 37
UT 37
Ua 37
Uthman 37
Utrecht 37
Valeri@@ 37
Walsh 37
Wikim@@ 37
ace@@ 37
aco 37
ady 37
ala@@ 37
alle 37
ama@@ 37
anisi 37
ara@@ 37
aver 37
awadi 37
back 37
born 37
buk@@ 37
cal@@ 37
didi@@ 37
duliwa 37
enko 37
esif@@ 37
esis 37
euro 37
formes 37
hab 37
ifuat@@ 37
ifuatazo 37
indu@@ 37
ineyo 37
inezo 37
inisia 37
ix 37
kang@@ 37
ket@@ 37
kezo 37
kitab@@ 37
laf@@ 37
lier 37
lon 37
lut@@ 37
ms 37
muj@@ 37
nil@@ 37
né@@ 37
ojo 37
oman 37
onyi 37
orea 37
osefu 37
ots 37
phon@@ 37
pre@@ 37
raeli 37
rak@@ 37
rina 37
rut@@ 37
sist@@ 37
tet@@ 37
umen 37
unt 37
uruga 37
usun 37
vul@@ 37
wete 37
wezo 37
zak@@ 37
zeit@@ 37
ɡ@@ 37
ִ@@ 37
ܝ@@ 37
0.4 36
1.9 36
13.@@ 36
154 36
1792 36
1804 36
1817 36
196@@ 36
2030 36
255 36
277 36
291 36
296 36
3.7 36
33.@@ 36
39.@@ 36
393 36
399 36
415 36
421 36
5.5 36
559 36
619 36
629 36
64@@ 36
704 36
740 36
751 36
869 36
Abi 36
Adan 36
Agu@@ 36
Ahmad@@ 36
Ama 36
Ando 36
Andri@@ 36
Anton 36
April 36
Aristot@@ 36
Asante 36
Asu@@ 36
Augustus 36
Ball 36
Berger 36
Blaise 36
Boeing 36
Bolton 36
Boniface 36
Booth 36
Bretagne 36
Bri@@ 36
Burnley 36
Ceuta 36
Computer 36
Crew 36
Cru@@ 36
Czech 36
Dion 36
Djibouti 36
Dub@@ 36
Emil 36
Erik 36
Feder@@ 36
Field 36
Friends 36
García 36
Glenn 36
Gui@@ 36
HA 36
Hann@@ 36
Hav@@ 36
Hayward 36
Herman 36
Holy 36
Hutu 36
Idol 36
Inc 36
Iron 36
Jana 36
Jefferson 36
Josef 36
Joy 36
Jude 36
Judith 36
KCB 36
KK@@ 36
Kagame 36
Kair@@ 36
Kani 36
Kayseri 36
Kn@@ 36
Kob@@ 36
Kug@@ 36
Lep@@ 36
Let@@ 36
Lif@@ 36
Liv@@ 36
MD 36
MTN 36
Macbeth 36
Marath@@ 36
María 36
McCarthy 36
Meza 36
Mof@@ 36
Monaster@@ 36
Muhammed 36
Murray 36
Napole@@ 36
Nev@@ 36
Norte 36
Ocean 36
Only 36
Orig@@ 36
Oslo 36
Palatino 36
Parma 36
Pek@@ 36
Pereira 36
RS 36
Rev@@ 36
Ricky 36
Roc@@ 36
Roman 36
Romano 36
Rome 36
Sport 36
Station 36
Strasbourg 36
Tarso 36
Teb@@ 36
Theft 36
Tina 36
Tochigi 36
Tower 36
Turkmenistan 36
UB@@ 36
Universe 36
Valent@@ 36
Verona 36
Vicente 36
Virgin 36
Weekly 36
Wonder 36
Xi 36
Yah@@ 36
Zer@@ 36
aden 36
adhari 36
aer@@ 36
afak@@ 36
ahu@@ 36
akala 36
alan 36
amapori 36
amburu 36
amiri 36
anikisha 36
antena 36
ariensis 36
arya 36
atiz@@ 36
atua 36
aung 36
ayat 36
azingira 36
biza 36
bola 36
can@@ 36
cas 36
dic@@ 36
doksi 36
duzi 36
edr@@ 36
esim@@ 36
etia 36
ful 36
fum@@ 36
fungi 36
hemor@@ 36
hero@@ 36
hit@@ 36
horn 36
https 36
hukum@@ 36
hul 36
i. 36
ifuatiwa 36
ingen 36
iné 36
kewe 36
krit 36
leigh 36
lers 36
ley@@ 36
monaster@@ 36
mos@@ 36
mson@@ 36
norepine@@ 36
not 36
nova 36
nu 36
olini 36
osu 36
oto@@ 36
otrans@@ 36
pes 36
pha 36
pik 36
prim@@ 36
qui@@ 36
ramenti 36
ret 36
sburg 36
sek 36
set 36
stone 36
super@@ 36
tamb@@ 36
tel 36
tim 36
tiv@@ 36
tre 36
tula 36
udis@@ 36
ug 36
ulata 36
wila 36
zz@@ 36
ān 36
ր@@ 36
1221 35
1453 35
171 35
1740 35
1787 35
1808 35
1827 35
196 35
25.@@ 35
27,000 35
279 35
299 35
3.4 35
350,000 35
383 35
396 35
492 35
496 35
502 35
512 35
514 35
516 35
534 35
555 35
634 35
661 35
75,000 35
ACT 35
Agap@@ 35
Allison 35
And@@ 35
Andrews 35
Athene 35
Aus@@ 35
Baja 35
Balıkesir 35
Beatrice 35
Benfica 35
Bia 35
Billie 35
Borneo 35
Braun 35
Budapest 35
CF 35
CO2 35
Canal 35
Chau@@ 35
Cheb@@ 35
Ching@@ 35
Chlor@@ 35
Cho@@ 35
Colin 35
Crosby 35
Cyril 35
DH 35
Dean 35
Dil@@ 35
Dominic 35
Double 35
Dove 35
Ebony 35
Eun@@ 35
Faustina 35
Fisher 35
Flight 35
Fuj@@ 35
GM 35
Greater 35
Hamas 35
Hamb@@ 35
Henderson 35
Hispaniola 35
Huch@@ 35
Hug@@ 35
Hughes 35
ID@@ 35
Idi@@ 35
Iglesias 35
Image 35
Interscope 35
Jensen 35
KA 35
Keyser 35
Khar@@ 35
Krim 35
Kule 35
Liza 35
Low@@ 35
Lydia 35
Lyn@@ 35
Martin@@ 35
Micah 35
Mussolini 35
Nazi@@ 35
Net@@ 35
Norwich 35
Novgorod 35
Oprah 35
Oran 35
Pad@@ 35
Pamela 35
Pask@@ 35
Persia 35
Ph.D. 35
Piram@@ 35
Pitt 35
Prague 35
Praha 35
Pride 35
Rast@@ 35
Reserve 35
Rica 35
Right 35
Robespierre 35
Ron 35
Rong@@ 35
Ruanda 35
Saud 35
Sed@@ 35
Set@@ 35
Shakira 35
Shor@@ 35
Siri@@ 35
South@@ 35
Spaghetti 35
Special 35
Suk@@ 35
Ségu@@ 35
TP 35
TR 35
Tap@@ 35
Taz@@ 35
Tehran 35
Theresa 35
Titan 35
Today 35
Tub@@ 35
Tuf@@ 35
Tutu 35
Umu@@ 35
Umw@@ 35
Under 35
Wanna 35
Watson 35
Wik@@ 35
Will@@ 35
Willem 35
Wing 35
Yar@@ 35
Yaz@@ 35
Zürich 35
afro@@ 35
aft@@ 35
akura 35
amus 35
andin@@ 35
aran 35
ashara 35
atic 35
atori 35
automati@@ 35
avo 35
bab 35
beat 35
bet 35
bibli@@ 35
black 35
borg 35
chembe@@ 35
dogma 35
dou 35
duk@@ 35
eit@@ 35
ekan@@ 35
eki@@ 35
els 35
ents 35
evo 35
fid@@ 35
fos@@ 35
fosf@@ 35
fut@@ 35
gang@@ 35
gei 35
haifu 35
harti 35
hn@@ 35
huang 35
ici 35
int 35
inter@@ 35
issa 35
ister@@ 35
izo@@ 35
jaz@@ 35
jera 35
jur@@ 35
kers 35
kio 35
madh@@ 35
mang@@ 35
mao 35
mav@@ 35
modeli 35
mun 35
nig@@ 35
nji@@ 35
ongaji 35
onou 35
orn 35
oruba 35
oyle 35
pedia 35
rep@@ 35
reti 35
rey 35
rh@@ 35
rik@@ 35
rugby 35
sept@@ 35
series 35
show 35
spir@@ 35
spora 35
stad@@ 35
tenga 35
tiririko 35
tro 35
tuy@@ 35
uriko 35
ustani 35
wikipedia 35
yesi 35
å@@ 35
í 35
ə 35
ե@@ 35
0.2 34
0.7 34
1054 34
14.@@ 34
174 34
1760 34
1770 34
1775 34
1783 34
1793 34
1797 34
18.@@ 34
231 34
242 34
267 34
281 34
289 34
3.3 34
35.@@ 34
353 34
359 34
438 34
45,@@ 34
458 34
479 34
529 34
533 34
535 34
539 34
541 34
57,@@ 34
58,@@ 34
606 34
613 34
618 34
623 34
722 34
732 34
76,@@ 34
810 34
85@@ 34
Adelaide 34
Africans 34
Agi@@ 34
Amu 34
Anaf@@ 34
Andromeda 34
Annan 34
Autun 34
Aï@@ 34
Ballon 34
Bois 34
Bollywood 34
Born 34
CMA 34
Calgary 34
Call 34
Cheikh 34
Chuk@@ 34
Clara 34
Coalition 34
Commission 34
Cooper 34
Copenhagen 34
Critics 34
Culture 34
Deuter@@ 34
Did@@ 34
Donati 34
Doris 34
EMI 34
Eddie 34
Ella 34
Elvis 34
Erzurum 34
Flavius 34
Flying 34
Frauen 34
Ga 34
Gerald 34
Hayes 34
Helgoland 34
Hof@@ 34
IH@@ 34
Ind@@ 34
KU@@ 34
Ka 34
Khomeini 34
Kiss 34
Kurt 34
Luna 34
Machine 34
Madeira 34
Maliki 34
Mikhail 34
Mohammad 34
Mubarak 34
Nay@@ 34
Nec@@ 34
Newfoundland 34
Nikaragua 34
Nissan 34
Nol@@ 34
Ogooué 34
Own 34
PD 34
Park@@ 34
Patrice 34
Pau@@ 34
Penny 34
Phillip 34
Pik@@ 34
Pru@@ 34
Pum@@ 34
Rang@@ 34
Rawlings 34
Rov@@ 34
SSRI 34
Sana 34
Schopenhauer 34
Senior 34
Services 34
Simpl@@ 34
Soy@@ 34
Stop 34
Sucre 34
Taur@@ 34
Them@@ 34
Toba 34
VA 34
Veronica 34
Watanabe 34
Yamaguchi 34
Yang@@ 34
Yuri 34
Zaragoza 34
adougou 34
ago@@ 34
agr@@ 34
ague 34
aleg@@ 34
aly@@ 34
ambukizi 34
angamizi 34
att 34
aux 34
azamo 34
azar 34
baw@@ 34
bir 34
biz@@ 34
brand 34
cel@@ 34
chak@@ 34
edikto 34
egen@@ 34
elekezo 34
enna 34
fl@@ 34
fug@@ 34
fululizo 34
fus@@ 34
gram 34
het 34
ibor@@ 34
idie 34
igan 34
ikal@@ 34
ikio 34
inc@@ 34
ind 34
influenza 34
istan 34
itas 34
kask@@ 34
kimbilia 34
kle@@ 34
lag@@ 34
lang 34
left 34
love 34
mio 34
mul@@ 34
nur@@ 34
ometri@@ 34
onji 34
otok@@ 34
pei 34
pep@@ 34
prom@@ 34
puk@@ 34
rap@@ 34
ray 34
red 34
rek@@ 34
reni 34
say@@ 34
shin@@ 34
skul@@ 34
system 34
tath@@ 34
thiopia 34
tica 34
ukur@@ 34
uleni 34
utub@@ 34
wait@@ 34
wes@@ 34
yav@@ 34
yezi 34
yya 34
ʻ@@ 34
1550 33
1640 33
1650 33
1690 33
172 33
1776 33
1798 33
1805 33
1819 33
22.@@ 33
237 33
272 33
326 33
338 33
37,000 33
37.@@ 33
371 33
4.2 33
4.8 33
412 33
414 33
423 33
425 33
446 33
4500 33
461 33
472 33
505 33
55,@@ 33
614 33
698 33
701 33
747 33
830 33
840 33
920 33
930 33
999 33
AW@@ 33
Adama 33
Addo 33
Alab@@ 33
Alto 33
Ambrose 33
Angels 33
Ans@@ 33
Antelope 33
Apolo 33
Aug@@ 33
Aul@@ 33
Bahn 33
Bailey 33
Bani 33
Barg@@ 33
Bata 33
Bees 33
Bek@@ 33
Benson 33
Bovidae 33
Bristol 33
Brosnan 33
CK 33
Cann@@ 33
Cartoon 33
Charity 33
Civil 33
Commonwealth 33
Contemporary 33
Cub@@ 33
DL 33
Das 33
Diallo 33
Drama 33
Dy@@ 33
EM@@ 33
Emer@@ 33
Everest 33
Fashion 33
Fau@@ 33
Fid@@ 33
Fransis@@ 33
French 33
Gang 33
Gospel 33
Greta 33
Hanoi 33
Herrnh@@ 33
Hiti@@ 33
Hud@@ 33
IC 33
II@@ 33
Indio 33
Internationale 33
Joey 33
Jon@@ 33
Julio 33
Jupiter 33
Karak@@ 33
Kle@@ 33
Know 33
Konstanz 33
Kuiper 33
Kütahya 33
Limoges 33
Lind@@ 33
Lion 33
Luh@@ 33
Manisa 33
Memorial 33
Mendel 33
Müller 33
Nair@@ 33
Nantes 33
Nem@@ 33
Norbert 33
Nothing 33
Of@@ 33
Ordu 33
PP@@ 33
Palma 33
Patriotic 33
Pisa 33
Plain 33
Polytechnic 33
Praia 33
Predator 33
Price 33
Professor 33
Ralph 33
Rhein 33
Rhythm 33
Rich@@ 33
Samo@@ 33
Scor@@ 33
Shield 33
Sidney 33
Sif@@ 33
Sn@@ 33
Sol 33
Starr 33
Sti@@ 33
Sunshine 33
Swal@@ 33
Swansea 33
Sánchez 33
Tenochtitlan 33
Thunberg 33
Tipp@@ 33
Tit@@ 33
Trafford 33
Trevor 33
Valerian 33
Volga 33
Wagner 33
Want 33
Yach@@ 33
Yen@@ 33
Yong@@ 33
Yud@@ 33
Zero 33
Zub@@ 33
aal 33
agio 33
agno@@ 33
agus 33
ahe 33
allah 33
alta 33
amali 33
amie 33
anka 33
areg 33
aris 33
ariya 33
asya 33
auli@@ 33
azz@@ 33
baad@@ 33
ball 33
beu 33
bot 33
buya 33
dog@@ 33
dé@@ 33
ebr@@ 33
efa 33
eig@@ 33
ender 33
enger@@ 33
entista 33
erie 33
erini 33
esperanto 33
gin@@ 33
guan 33
have 33
ib 33
igr@@ 33
igula 33
ikir@@ 33
ilizaji 33
illi 33
injitisi 33
iny 33
ists 33
kaza 33
kid 33
kun 33
like 33
meridi@@ 33
micro@@ 33
mim@@ 33
mini 33
naj@@ 33
oru 33
ouan 33
pem@@ 33
pers 33
pon 33
pp@@ 33
pupa 33
rapper 33
risto 33
ron@@ 33
seh@@ 33
sichana 33
sis@@ 33
ster@@ 33
tabiri 33
thal@@ 33
titi 33
ukad@@ 33
uman 33
ura@@ 33
ush 33
usul@@ 33
utar@@ 33
va@@ 33
vers 33
waja 33
wald 33
walo 33
wh@@ 33
wick 33
work 33
year 33
zy@@ 33
~ 33
École 33
à@@ 33
él@@ 33
ë 33
ía 33
ɾ@@ 33
ṭ@@ 33
0.1 32
0.9 32
1560 32
1591 32
160,000 32
17.@@ 32
1790 32
3.1 32
328 32
351 32
358 32
367 32
385 32
416 32
427 32
435 32
443 32
477 32
521 32
527 32
536 32
547 32
563 32
601 32
602 32
603 32
664 32
669 32
741 32
76@@ 32
969 32
AZ 32
Abas@@ 32
Abe 32
Adeb@@ 32
Adri@@ 32
Ago@@ 32
Aku@@ 32
Antibiot@@ 32
Are@@ 32
Asha 32
Asmara 32
Auckland 32
Bella 32
Bergen 32
Bloemfontein 32
Bod@@ 32
Bourges 32
Brandenburg 32
Bum@@ 32
Buz@@ 32
Casablanca 32
Christ@@ 32
Cic@@ 32
Conrad 32
Cornell 32
Croatia 32
Cuban 32
Cushing 32
Cynthia 32
Daj@@ 32
Danc@@ 32
Dek@@ 32
Derrick 32
Doctor 32
Einstein 32
Eleu@@ 32
Elisabeth 32
Engineering 32
Eskişehir 32
Fair 32
Freiburg 32
Fuk@@ 32
Fulham 32
Félix 32
Gig@@ 32
Gilgamesh 32
Gladys 32
HTML 32
Hash@@ 32
Heath 32
Heritage 32
Honorius 32
Hubert 32
Huk@@ 32
Hunt 32
Information 32
Internazionale 32
Ja 32
Jammeh 32
Jong 32
Jules 32
KO@@ 32
Kalahari 32
Kant 32
Kastamonu 32
Klerk 32
Klin@@ 32
Klose 32
Ko 32
Kraków 32
Krishna 32
Lec@@ 32
Lek@@ 32
Lid@@ 32
Ling@@ 32
Lo 32
Lou 32
Lower 32
Luiz 32
ME 32
MP@@ 32
Mang 32
Mann 32
March 32
Matrix 32
Maur@@ 32
McQueen 32
Mecklenburg 32
Mip@@ 32
Mori@@ 32
Morton 32
Myra 32
NS@@ 32
Neal 32
Nebraska 32
Nil@@ 32
Nord@@ 32
Nou@@ 32
Novo 32
Oakland 32
Odi@@ 32
Oti@@ 32
Ov@@ 32
Padua 32
Part 32
Pio 32
Plasmodium 32
Polynesia 32
Porter 32
Pris@@ 32
Radi@@ 32
Rho@@ 32
Richardson 32
Ridge 32
Rodrigues 32
Rosario 32
Salisbury 32
Samsun 32
Sasha 32
Save 32
Seti 32
Seymour 32
Shirley 32
TC 32
Tanz@@ 32
Tay 32
Tema 32
UM@@ 32
Urbano 32
Usu@@ 32
Watch 32
Yemeni 32
Zaf@@ 32
Zhang 32
aar 32
abar 32
adol@@ 32
alp@@ 32
andarua 32
angel@@ 32
aqu@@ 32
asti@@ 32
atiki 32
ats 32
ault 32
auso 32
awal 32
awara 32
away 32
ayn@@ 32
bang@@ 32
bil 32
biot@@ 32
brook 32
cl@@ 32
corona 32
dom 32
egi 32
ehekea 32
ehu@@ 32
endorf 32
eor@@ 32
ev 32
gig@@ 32
haria 32
heli@@ 32
hiba 32
hil 32
huel@@ 32
icus 32
ign@@ 32
ily 32
imaj@@ 32
inha 32
inini 32
inja 32
irie 32
istra 32
iten@@ 32
ites 32
itude 32
iyang 32
jpg 32
juz@@ 32
kal 32
kê 32
leaf 32
low@@ 32
mbile 32
nau@@ 32
nitr@@ 32
oha 32
ord 32
otu 32
oud@@ 32
ovir@@ 32
pali@@ 32
pandemia 32
par 32
patri@@ 32
right 32
rung 32
shik@@ 32
sl@@ 32
stan 32
ström 32
suf 32
tendaji 32
this 32
thon 32
tsunami 32
uf 32
uhumiwa 32
unzaji 32
urugenzi 32
usiano 32
wai@@ 32
web@@ 32
wig@@ 32
yir@@ 32
yl 32
zani 32
zig@@ 32
zur@@ 32
Île 32
ça 32
ֶ@@ 32
ה 32
.C. 31
0.8 31
1. 31
1516 31
1535 31
1598 31
197@@ 31
234 31
26,000 31
261 31
273 31
28.@@ 31
284 31
364 31
433 31
463 31
467 31
47,@@ 31
482 31
506 31
518 31
519 31
532 31
546 31
551 31
553 31
599 31
65,000 31
681 31
70,@@ 31
77@@ 31
786 31
806 31
978 31
990 31
ARC 31
Adriano 31
Ahma@@ 31
Alber@@ 31
Alc@@ 31
Alessandro 31
Aliye 31
Almeida 31
Amin@@ 31
Amun 31
Aqu@@ 31
Bang 31
Berg@@ 31
Board 31
Boas 31
Bonn@@ 31
Books 31
Box 31
Brad 31
Brun@@ 31
Burgundy 31
CI@@ 31
Cartagena 31
Cec@@ 31
Chase 31
Clarke 31
Cluny 31
Coc@@ 31
Córdoba 31
DI 31
Dei 31
Dho@@ 31
Diab@@ 31
Douala 31
ER@@ 31
East@@ 31
Emir@@ 31
Esta 31
Fe 31
Filem@@ 31
Fior@@ 31
Fit@@ 31
Food 31
Fri@@ 31
GER@@ 31
Gertrude 31
Girolamo 31
Gupta 31
Habib 31
Hip@@ 31
Hubble 31
Hubei 31
IB 31
Ikon@@ 31
Indianapolis 31
Initiative 31
Iso@@ 31
Jalisco 31
Jaw@@ 31
Jungle 31
Katak@@ 31
Kent@@ 31
Kuomintang 31
Kyoto 31
Ké@@ 31
Latina 31
Lauren 31
Lena 31
Loyola 31
Lw@@ 31
MPLA 31
Mayotte 31
McG@@ 31
Miles 31
Mona 31
Monroe 31
Moussa 31
München 31
NAACP 31
Nadia 31
Nami@@ 31
Nokia 31
Northwest 31
Oak 31
Ole 31
Omb@@ 31
Other 31
Penguin 31
Pirates 31
Ponto 31
Pra@@ 31
Production 31
Railways 31
Review 31
Ron@@ 31
SI@@ 31
Sanga 31
Sebastian 31
September 31
Serena 31
Shaw 31
Sinclair 31
Somali 31
Sophie 31
Squad 31
Sung 31
Symphony 31
TV@@ 31
Tech 31
Teen 31
Telec@@ 31
Tenerife 31
Thing 31
Thum@@ 31
Timothy 31
Training 31
Trof@@ 31
Ubud@@ 31
Val 31
Vill@@ 31
Visi@@ 31
Vo@@ 31
Vogue 31
Von 31
Wallonia 31
Wanderers 31
Warriors 31
Watt 31
Woods 31
Worcester 31
Y. 31
Zek@@ 31
Zot@@ 31
ads 31
agog@@ 31
alem@@ 31
alt@@ 31
ambuliaji 31
amis 31
anemia 31
anime 31
arakati 31
aren@@ 31
asco 31
atiliaji 31
ating 31
bass 31
benzodiazep@@ 31
cam@@ 31
cus 31
dhah@@ 31
duda 31
ebo@@ 31
eed 31
elik@@ 31
faidika 31
fer 31
first 31
fot@@ 31
harik@@ 31
irikisho 31
izu 31
kes@@ 31
keti 31
kisi@@ 31
koh@@ 31
kola 31
lane 31
lev@@ 31
litz 31
loc@@ 31
mader@@ 31
ment@@ 31
muh@@ 31
neb@@ 31
nov@@ 31
nuk@@ 31
obia 31
olip@@ 31
omeni 31
ongez@@ 31
ongoji 31
ore@@ 31
oub 31
piza 31
plasma 31
plus 31
program 31
qui 31
rae 31
red@@ 31
rol@@ 31
rop@@ 31
silik@@ 31
soma 31
song 31
sui 31
sv@@ 31
thar@@ 31
tili@@ 31
tius 31
udio 31
ufun@@ 31
unc@@ 31
upe@@ 31
usii 31
uss@@ 31
yenyekevu 31
yk@@ 31
yu@@ 31
zum@@ 31
émon 31
ð@@ 31
ö@@ 31
ı@@ 31
ũ@@ 31
γ 31
ת 31
--- 30
000,@@ 30
1210 30
1498 30
156 30
1675 30
34,000 30
372 30
388 30
392 30
426 30
428 30
439 30
462 30
465 30
503 30
508 30
513 30
523 30
624 30
626 30
639 30
676 30
679 30
715 30
717 30
718 30
752 30
78@@ 30
917 30
96@@ 30
975 30
Adana 30
Anselm 30
Archimedes 30
Arist@@ 30
Atatürk 30
Bais@@ 30
Base 30
Batt@@ 30
Bayt 30
Bee 30
Belle 30
Beverly 30
Biennale 30
Braz@@ 30
Brenda 30
Bros. 30
Brunswick 30
By 30
Capitol 30
Caribbean 30
Chamberlain 30
Comedy 30
Cortez 30
Cunningham 30
Cyprus 30
DA@@ 30
Daisy 30
Dangerous 30
Dark@@ 30
Dhar@@ 30
Diddy 30
Ebola 30
Environmental 30
FK 30
Fle@@ 30
Gant@@ 30
Gaulle 30
Gene 30
Goa 30
H.@@ 30
HIV 30
Hart 30
Havana 30
Hawkins 30
Head@@ 30
Hell 30
Helsinki 30
Homer 30
Humber 30
IMA 30
Ill@@ 30
Iman 30
Jung 30
KO 30
Kenn@@ 30
Kimberley 30
Kios@@ 30
Konrad 30
Look 30
Lucia 30
Lucky 30
Lur@@ 30
MR 30
Mahmoud 30
Malatya 30
Malay 30
Manchuria 30
Mayo 30
Mind@@ 30
Monrovia 30
Mose 30
NDP 30
NO@@ 30
Name 30
Nel@@ 30
Nen@@ 30
Niagara 30
Norfolk 30
Nunavut 30
Omo 30
Open 30
Orth@@ 30
Osaka 30
Over@@ 30
Padova 30
Paz 30
Railway 30
Rel@@ 30
Resistance 30
Rhode 30
Rib@@ 30
Ring@@ 30
Riv@@ 30
Ruv@@ 30
Saga 30
Salome 30
Savage 30
Seville 30
Shingo 30
Siddhar@@ 30
Sina 30
Springfield 30
Stevenson 30
Studies 30
Sussex 30
Syl@@ 30
Syn@@ 30
TO@@ 30
Tabu 30
Theof@@ 30
Titus 30
Tome 30
Tu 30
Uen@@ 30
Usag@@ 30
Viet@@ 30
Week 30
Wet@@ 30
Wood 30
XXI 30
You@@ 30
Yous@@ 30
Zanz@@ 30
Zem@@ 30
Zos@@ 30
ack@@ 30
adio 30
afuko 30
aho 30
ale@@ 30
aleja 30
alu@@ 30
anasi 30
anati 30
arak 30
asil@@ 30
bach 30
beg@@ 30
bit@@ 30
book 30
bri 30
coli 30
cuits 30
diya 30
dorf 30
down 30
eless 30
entino 30
entius 30
epine@@ 30
erere 30
ery 30
eum 30
ew 30
flam@@ 30
fori 30
fungi@@ 30
gas@@ 30
gem@@ 30
gir@@ 30
harika 30
hifa 30
hoe 30
huy@@ 30
ici@@ 30
icillin 30
idu 30
idun 30
iger 30
ignan 30
ikizo 30
ilie 30
indano 30
inski 30
inta 30
invertebr@@ 30
ip 30
ishon@@ 30
isimua 30
itas@@ 30
izer 30
kakao 30
kes 30
kod@@ 30
leh 30
lian 30
lid 30
lop 30
los@@ 30
lot@@ 30
lun@@ 30
melan@@ 30
mith 30
mka@@ 30
msa@@ 30
nai@@ 30
nay@@ 30
ngu 30
odo@@ 30
oidea 30
opus 30
orith@@ 30
otra 30
ping 30
pir@@ 30
prin@@ 30
priv@@ 30
ref@@ 30
reno 30
seng 30
sentim@@ 30
simo 30
song@@ 30
sons 30
ther 30
tidae 30
tila 30
tona 30
tone 30
tos 30
tras@@ 30
ub 30
uji@@ 30
untu 30
urs 30
urum@@ 30
vizu@@ 30
wais@@ 30
wel 30
wet 30
wiano 30
win 30
wing@@ 30
xen 30
xi@@ 30
yeti 30
zan@@ 30
zer@@ 30
ée 30
élé 30
én 30
ž@@ 30
ʁ@@ 30
י 30
ם 30
פ@@ 30
् 30
ἀ@@ 30
.org 29
0.6 29
1,000,000 29
1.0 29
1050 29
1215 29
1547 29
1555 29
1580 29
1730 29
1762 29
180,000 29
1823 29
27.@@ 29
278 29
297 29
36,000 29
369 29
389 29
418 29
442 29
448 29
456 29
457 29
487 29
528 29
572 29
578 29
635 29
638 29
67,@@ 29
708 29
719 29
721 29
737 29
774 29
796 29
815 29
832 29
860 29
87@@ 29
94@@ 29
972 29
974 29
ABL 29
ACTH 29
AF 29
ATP 29
Akin@@ 29
Anas@@ 29
Anth@@ 29
Aquileia 29
Aydın 29
Baha 29
Barnard 29
Basil@@ 29
Benedict 29
Bengali 29
Benito 29
Bing@@ 29
Blues 29
Botha 29
Bou 29
Burning 29
Carol 29
Carrillo 29
Chai 29
Chamb@@ 29
Chan 29
Ches@@ 29
Chong 29
Chong@@ 29
Circle 29
Citrus 29
Cohen 29
Commons 29
Covid 29
Dani@@ 29
Dario 29
Dhabi 29
Dios@@ 29
Donato 29
Dylan 29
Ecuador 29
Eisenhower 29
Estates 29
Eugenio 29
Europe 29
Evelyn 29
Eye 29
Fair@@ 29
Ferrari 29
Fidel 29
Gem 29
Germany 29
Guadalajara 29
Guangdong 29
HP 29
Habsburg 29
Harmon@@ 29
Harriet 29
Haruna 29
Haydn 29
Hep@@ 29
Hill@@ 29
Hit@@ 29
Idaho 29
Indochina 29
Ingolstadt 29
Inka 29
Jib@@ 29
Jo 29
Johns 29
Julie 29
Karachi 29
Klaus 29
Kobe 29
Kuli@@ 29
Kush 29
Lama 29
Leslie 29
Licinius 29
Lorraine 29
Louisville 29
MB@@ 29
MG 29
MT@@ 29
Mahar@@ 29
Major 29
Maxwell 29
Medici 29
Melissa 29
Midlands 29
Morrison 29
NET 29
NGO 29
Nacional 29
Nau@@ 29
Neil 29
Ngo@@ 29
No. 29
Notorious 29
Oda 29
Ori@@ 29
PDF 29
PLO 29
PSG 29
Pablo 29
Pac@@ 29
Palmas 29
Patterson 29
Paulina 29
Ped@@ 29
Pig@@ 29
Rapa 29
Regina 29
Reynolds 29
Rutherford 29
SN@@ 29
SV 29
Salah 29
Sant 29
See 29
Septimius 29
Shen@@ 29
Siracusa 29
Sl@@ 29
Soccer 29
Sparta 29
Stand@@ 29
Sv@@ 29
TH@@ 29
Take 29
Tes@@ 29
Turkey 29
Té@@ 29
Ulu@@ 29
Ural 29
Wac@@ 29
Wafany@@ 29
Wailers 29
Wh@@ 29
Willie 29
Willis 29
Wiz@@ 29
Yang 29
Zeb@@ 29
abus 29
acena 29
aidizi 29
aio 29
alop@@ 29
alus 29
analo@@ 29
anas 29
ander@@ 29
anger@@ 29
aspir@@ 29
athini 29
awaji 29
bant@@ 29
ben 29
bero 29
bulu 29
ca@@ 29
cap@@ 29
cas@@ 29
cia 29
cis 29
cy@@ 29
dau 29
dem 29
eder@@ 29
eich@@ 29
ekum@@ 29
ety 29
fish 29
ges 29
gri 29
hiko 29
hill 29
icia 29
idan 29
inv@@ 29
isio 29
ital@@ 29
ix@@ 29
jah@@ 29
joo 29
kam 29
kangaroo 29
kn@@ 29
lor@@ 29
lou 29
makam@@ 29
milli@@ 29
news 29
nururisho 29
ogu 29
oides 29
olic 29
oll 29
omus 29
ongoz@@ 29
oplas@@ 29
osp@@ 29
oura 29
owski 29
phen@@ 29
poin@@ 29
point 29
programming 29
propaganda 29
qi 29
quin@@ 29
quis 29
revision 29
rio 29
rod@@ 29
roy 29
sant@@ 29
sep@@ 29
she@@ 29
sin 29
sulfur@@ 29
sum 29
suni 29
sus 29
tarak@@ 29
tere 29
thibitisho 29
thro@@ 29
tion@@ 29
toro 29
trof@@ 29
tru@@ 29
urg@@ 29
utan@@ 29
ver 29
viringo 29
wena 29
wikitext 29
yat 29
yne 29
zib@@ 29
är@@ 29
ú 29
č 29
ħ@@ 29
Š@@ 29
الله 29
100@@ 28
110,000 28
1219 28
1450 28
1507 28
1530 28
1536 28
16.@@ 28
1603 28
1620 28
1670 28
1774 28
193@@ 28
19@@ 28
2. 28
2.9 28
294 28
3. 28
3.0 28
352 28
394 28
4.4 28
424 28
434 28
485 28
486 28
5. 28
511 28
531 28
542 28
591 28
598 28
607 28
646 28
687 28
707 28
743 28
754 28
770 28
775 28
824 28
835 28
89@@ 28
97@@ 28
988 28
992 28
ALA 28
AY@@ 28
Abbey 28
Afyonkarahisar 28
Alba 28
Andreas 28
Angelo 28
Anti 28
Arab@@ 28
Baby@@ 28
Baptiste 28
Barbados 28
Beatles 28
Bennett 28
Bish@@ 28
Bli@@ 28
Boul@@ 28
Bromwich 28
Bureau 28
CS@@ 28
Camer@@ 28
Cash 28
Cena 28
Certificate 28
Chapman 28
Chr@@ 28
Clairvaux 28
Clifford 28
Cob@@ 28
Coll@@ 28
Court 28
Coward 28
Cry 28
DDT 28
DN@@ 28
Dalmatia 28
Del 28
Dias 28
Dollars 28
Díaz 28
Echo 28
Elliott 28
Era 28
Essex 28
Estate 28
Eth@@ 28
Eye@@ 28
Freud 28
Fritz 28
GA 28
Generation 28
Giresun 28
Gone 28
Government 28
Hanover 28
Haven 28
Hong@@ 28
Husayn 28
IF 28
IU@@ 28
Idris 28
Institut 28
Islamic 28
Isparta 28
Jau@@ 28
Jeanne 28
Jihad 28
KU 28
Kenny 28
Killer 28
Lali@@ 28
Latitude 28
Linux 28
MI 28
MSNBC 28
Madan 28
Magnus 28
Mahatma 28
Mak 28
Mant@@ 28
Maritime 28
Maximilian 28
Maynard 28
Mende 28
Mi 28
Minor 28
Molek@@ 28
Morse 28
Neck 28
Newman 28
Nicole 28
Ninja 28
Nob@@ 28
Odessa 28
Oli@@ 28
Oz@@ 28
Paradise 28
Philippe 28
Pi 28
Prom@@ 28
Rachel 28
Rafael 28
Ramon 28
Raw@@ 28
Región 28
Rowland 28
Rubin 28
SD 28
SK 28
Sahi@@ 28
Sark@@ 28
Scot@@ 28
Serge 28
Severo 28
Simmons 28
Sister 28
Stan@@ 28
Stranger 28
TCP 28
TR@@ 28
TU 28
Team 28
Telegraph 28
Tonga 28
Treni 28
Tumb@@ 28
Ube@@ 28
Unity 28
Valentine 28
Vall@@ 28
Vermont 28
Vie@@ 28
Vivi@@ 28
WS 28
Willy 28
Yaoundé 28
Yun@@ 28
Zurich 28
abia 28
adiplomasia 28
afanuzi 28
afia 28
agar@@ 28
akama 28
alim 28
ambulio 28
anaki 28
anan 28
ante@@ 28
anto@@ 28
aras@@ 28
aru@@ 28
arufu 28
assi@@ 28
aton 28
atra 28
awak@@ 28
awanyo 28
bala 28
bergen 28
boi 28
code 28
company 28
cur@@ 28
dama 28
dani 28
dian 28
echea 28
edio 28
eer 28
ency 28
esin@@ 28
essa 28
esse 28
estra 28
ezy 28
fif@@ 28
got 28
hand 28
haup@@ 28
[...]
