् 8669031
के 1662596
। 1546065
में 1258194
, 1226825
है 1085862
प 810296
की 772845
और 690486
़ 656794
से 609680
का 582015
स 570586
को 491116
एक 453416
य 393696
) 387192
( 385418
हैं 373996
&quot; 332340
पर 320219
क 302788
@-@ 274189
. 271658
त 265745
ट 260016
ने 256389
व 251285
र 250287
किया 241476
द 238406
था 228783
लिए 225826
भी 202862
यह 190775
इस 179975
गया 178847
कर 164433
कि 160308
या 159420
न 142792
रूप 141646
वर 141225
म 140672
जो 131411
उन 130929
ग 129795
जाता 125218
ध 120967
साथ 117304
करने 115682
ही 115537
कार 114418
उत 112411
हो 109288
ज 108701
वारा 107481
थे 104567
&apos; 102958
फ 102513
भारत 101648
: 101376
नहीं 100235
ड 99722
राज 99627
ष 99110
तक 95701
श 92934
बाद 91012
निर 90897
तर 89478
अन 88733
तथा 86774
अपने 84981
ब 84146
थी 83729
दिया 80400
री 80145
षेत 76360
यक 75594
वह 75356
होंने 74573
ति 73768
ी 73425
होता 72228
पूर 69144
हुआ 65614
ण 63605
थित 63530
जा 63109
वे 62755
दी 62281
ा 61854
कुछ 59681
इन 59479
हें 58033
नाम 57469
विश 56926
सर 56722
राष 56551
थ 56374
रीय 56181
सम 55696
करते 54291
हुए 53613
तो 53126
गाँव 52994
समय 52188
इसके 51274
एवं 50970
ता 50846
होने 50029
कई 49377
उनके 49272
संस 48391
षा 48242
; 48076
दर 47594
- 47567
भारतीय 47133
अधिक 46933
वाले 46272
बड 45138
सबसे 45118
े 44822
च 44812
कारण 44805
अपनी 44513
करता 44377
होती 44225
रा 43989
पहले 43722
मुख 43659
कम 43277
थान 43114
गए 43078
दो 42663
ली 42373
सकता 41932
अर 41677
रकार 41484
फिल 41181
किसी 40978
मार 40948
जन 40856
&#93; 40456
जब 40447
गई 40309
&#91; 40299
पत 39583
कहा 39249
लेकिन 38596
सन 38530
‍ 38393
रदेश 38348
राप 38065
जाती 37345
हुई 37289
बहुत 37039
शामिल 36859
रों 36841
जैसे 35415
ये 35264
ल 35259
देश 34942
होते 34920
लिया 34706
टी 34618
जिले 34545
/ 34375
र@@ 34099
बन 34065
दक 33909
यों 33573
टर 33547
रहे 33491
रक 32654
भाषा 32628
म@@ 32465
उनकी 32293
बर 31915
उस 31887
अ@@ 31879
यालय 31653
जी 31345
शन 31337
विद 31328
बीच 31257
षण 31193
उसके 31143
जाने 31107
ती 31062
रहा 31024
सभी 30951
रम 30851
तरह 30673
उद 30589
जिसमें 30586
पश 30348
गत 30258
इसे 30132
वास 30053
वी 29784
इसका 29716
रह 29587
अनुसार 29398
आर 29378
धर 29158
तहसील 28994
भाग 28732
रस 28709
सा 28592
रमुख 28499
करना 28396
मा 28373
तान 28164
काम 28024
बार 28007
माण 27813
उसे 27696
अध 27669
कोई 27527
लोगों 27496
रत 27427
अक 27204
महत 27194
व@@ 26980
न@@ 26839
पड 26836
बढ 26749
ञान 26719
उपयोग 26562
चित 26455
यात 26428
ले 26420
क@@ 26385
हिन 26366
मण 26336
वाली 26254
पार 26218
ना 25996
मन 25722
जीवन 25715
रिया 25712
स@@ 25605
शिक 25563
जाते 25521
ला 25338
&#124; 25310
दोनों 25174
आदि 25112
अल 25044
य@@ 24993
वि@@ 24804
रा@@ 24635
मक 24548
शब 24547
भ 24542
मध 24470
लगभग 24406
नी 24291
शहर 24258
रयोग 24219
लिये 24205
दौरान 24186
राम 24168
यहाँ 24054
प@@ 23947
मूल 23775
साहित 23741
अंग 23626
रो@@ 23606
ब@@ 23584
ओर 23494
सरकार 23298
ते 23232
सिंह 23195
अब 23120
तीन 23085
त@@ 23048
रेस 22980
शुरू 22915
फिर 22847
ख 22774
सी 22772
डल 22750
ई 22666
% 22547
िल 22524
षिण 22486
जिसे 22445
अलग 22320
विकास 22223
चार 22085
मान 22030
लोग 21861
करती 21602
पास 21426
ऑफ 21377
1 21265
ए@@ 21204
विज 21111
ल@@ 21046
रि@@ 21038
नगर 20963
केवल 20931
अंतर 20907
जिन 20825
ना@@ 20712
काल 20686
आ@@ 20641
रिकेट 20614
सकते 20563
विशेष 20477
मंदिर 20444
इसकी 20427
बल 20376
को@@ 20208
जाना 20131
ट@@ 20024
रे@@ 19996
&amp; 19926
युद 19852
ए 19777
सिद 19731
शक 19661
कभी 19576
लक 19541
पद 19512
का@@ 19485
उनका 19334
विभिन 19323
विस 19319
सदस 19317
टीम 19312
मे 19229
यान 19184
इतिहास 19127
दिन 19090
योंकि 18953
उच 18904
इसमें 18898
सु@@ 18895
यम 18743
मा@@ 18634
वपूर 18531
माना 18498
वस 18491
अपना 18422
इसी 18378
साल 18336
राजा 18320
कहते 18274
तु 18211
हालांकि 18211
थिति 18176
रही 18131
ला@@ 18003
नदी 17998
हिस 17922
ड@@ 17911
किए 17888
रदर 17842
वार 17791
पन 17645
रसिद 17645
दिल 17610
ग@@ 17595
संख 17556
गर 17520
रथम 17501
डी 17473
मी 17433
नि@@ 17362
वाला 17346
द@@ 17341
री@@ 17313
॰ 17310
तब 17301
वविद 17241
पहली 17220
2 17178
आवश 17031
हर 16936
सि@@ 16934
पुरस 16893
ठ 16875
अस 16862
योग 16648
रिय 16604
वा@@ 16598
बना 16542
संयुक 16450
रदान 16446
सत 16439
कुल 16418
दूसरे 16332
जिसके 16319
या@@ 16288
अमेरिका 16276
चर 16226
ज@@ 16203
केंद 16185
ह@@ 16147
थापित 16023
रित 15930
ओ@@ 15855
टेशन 15807
बा@@ 15804
तन 15722
तमान 15711
उसकी 15697
यू@@ 15685
लो@@ 15622
जबकि 15591
सामान 15575
उल 15564
यहां 15544
पा@@ 15459
तत 15443
मे@@ 15425
सा@@ 15395
जल 15371
सं@@ 15325
रण 15323
जिसका 15289
ले@@ 15220
अप 15209
पाकिस 15194
बच 15158
लड 15140
इ@@ 15123
आज 15060
जर 15025
कृत 15014
षित 14941
माध 14879
थापना 14832
भर 14776
पुर 14746
िले 14708
बे@@ 14681
धि 14601
’ 14563
रति 14540
कल 14520
अत 14466
‘ 14432
पिता 14423
यता 14288
गयी 14276
बी 14227
बनाया 14220
नामक 14196
अनेक 14180
च@@ 14179
मात 14160
समर 14154
आधार 14151
कु@@ 14148
ता@@ 14100
यास 14010
बारे 13992
संग 13992
यवस 13991
सभा 13961
पक 13956
उसने 13954
रता 13942
तौर 13906
सक 13899
पुस 13845
श@@ 13814
टि 13794
रखा 13784
कृष 13771
रन 13755
दे 13753
चाहिए 13749
देने 13748
बात 13707
कोड 13689
घर 13683
आम 13670
परिवार 13612
मंत 13585
मृत 13569
ययन 13548
समूह 13546
आ 13540
3 13519
के@@ 13480
संगीत 13457
लि@@ 13450
बिहार 13448
सेवा 13401
उपलब 13391
यू 13376
से@@ 13332
ऐसा 13243
सेना 13231
ों 13218
मो@@ 13191
विक 13184
कन 13178
अच 13166
यु 13117
उ@@ 13086
सकती 13057
ह 13022
मिक 13011
रभाव 12901
मित 12889
राचीन 12885
गो@@ 12856
दृष 12851
जारी 12845
ऐसे 12836
वे@@ 12793
महिला 12778
देशों 12711
बनाने 12709
ं@@ 12686
जिला 12686
चिम 12676
परिवर 12633
थीं 12631
एल 12630
जहां 12611
अलावा 12607
छोड 12604
केन 12565
मों 12555
तियों 12492
सी@@ 12452
बि@@ 12448
अफ 12400
ति@@ 12367
देता 12365
तार 12344
भूमिका 12305
मैच 12271
करके 12270
दुर 12209
माता 12203
पुत 12181
तराखण 12170
जुड 12154
20 12134
निम 12128
टन 12127
वा 12114
जिससे 12095
येक 12083
खिलाफ 12075
षों 12069
ऑस 12020
यदि 12019
ने@@ 11968
वतंत 11961
रिक 11942
वन 11926
कंपनी 11922
ई@@ 11847
काफी 11842
हार 11842
नर 11819
सामाजिक 11814
षक 11769
दुनिया 11747
मि@@ 11727
लेकर 11704
चुनाव 11645
उसका 11629
ध@@ 11606
रोग 11515
कप 11477
चिकित 11455
नई 11449
ियों 11440
शताब 11402
रिटिश 11354
एस 11352
पहला 11348
करण 11336
दूर 11333
जोड 11331
गये 11319
परीक 11310
रु@@ 11302
सार 11288
अथवा 11273
टे@@ 11257
गढ 11213
धार 11204
पानी 11194
समस 11183
खेल 11167
दा@@ 11137
ा@@ 11137
पता 11121
यु@@ 11119
इसलिए 11057
किये 11054
10 11026
शुरुआत 11015
दू 11002
तों 10988
आगे 10963
अमेरिकी 10958
कूल 10955
छोटे 10949
रो 10939
बो@@ 10933
टा 10912
मस 10904
– 10895
4 10893
सुरक 10886
तेमाल 10880
रणाली 10870
वरूप 10869
उम 10867
कों 10862
= 10857
लेख 10850
आधारित 10828
लैंड 10822
सो@@ 10822
कला 10783
टो@@ 10775
फ@@ 10723
रकाशित 10691
वीप 10678
वत 10637
5 10622
पी 10614
चक 10598
उदाहरण 10591
लगा 10535
जहाँ 10531
ख@@ 10524
ली@@ 10483
साम 10473
रेलवे 10472
समान 10464
जनवरी 10456
मु@@ 10450
समाज 10424
पूरी 10407
इससे 10394
राजस 10390
जा@@ 10382
टि@@ 10364
डा 10361
रान 10355
बाहर 10345
ंग 10330
इनके 10325
पादन 10324
अंत 10306
तरी 10274
नियंत 10258
विकसित 10210
नो@@ 10197
पी@@ 10186
होगा 10181
वो 10168
गांव 10157
तित 10152
मुक 10108
वक 10108
पे@@ 10074
रेज 10056
पदार 10054
टी@@ 10040
इंग 10019
जिस 10015
रहता 9979
भगवान 9971
हम 9948
थ@@ 9939
दशक 9939
कृति 9929
रेणी 9900
महा@@ 9889
बने 9887
आन 9858
कि@@ 9822
6 9803
सब 9803
आत 9797
देते 9797
जिनमें 9783
रहते 9773
मद 9757
लाल 9714
अतिरिक 9710
आधुनिक 9705
! 9701
होकर 9689
गा@@ 9681
मुद 9657
बनी 9645
अधिकांश 9639
लोक 9632
शासन 9630
रे 9620
मर 9613
मई 9592
रृंखला 9587
शरीर 9580
रमण 9575
रेजी 9520
रेन 9519
gt 9500
थल 9494
लोकप 9479
अगस 9438
नए 9420
देखा 9396
बु@@ 9359
जी@@ 9323
दस 9314
यादा 9306
बांग 9268
संक 9249
टूबर 9234
कै@@ 9228
भ@@ 9205
दा 9204
शास 9156
अधिकार 9139
गु@@ 9138
रंग 9127
lt 9121
मानव 9115
उसी 9113
थिक 9079
वित 9063
दूसरी 9059
विभाग 9056
वाद 9054
संघ 9050
धन 9044
भिन 9043
रैल 9037
आई 9025
लम 9025
णन 9010
पो@@ 8997
फर 8994
वी@@ 8992
बी@@ 8986
आप 8981
वाचन 8979
संबंध 8976
जून 8970
वाल 8953
मै@@ 8934
जगह 8931
the 8917
हे@@ 8913
राजधानी 8907
जुलाई 8900
पूरा 8888
हा@@ 8885
शीर 8882
ऊपर 8877
चिमी 8825
जे@@ 8795
दों 8784
राजनीतिक 8753
टा@@ 8745
विचार 8743
पष 8740
चन 8725
तैयार 8723
मिल 8714
पि@@ 8710
विषय 8705
बिना 8702
मत 8701
of 8698
चीन 8696
सप 8686
ाई 8655
अग 8643
भा@@ 8623
सीमा 8618
देवी 8603
डि@@ 8596
हि@@ 8557
किन 8556
विधानसभा 8554
लेने 8551
बस 8529
रचना 8526
उप@@ 8501
रोत 8500
ञानिक 8487
नों 8479
युत 8479
पृथ 8474
वयं 8467
अंतिम 8458
खिलाड 8453
रात 8450
लिखा 8442
शर 8436
राज@@ 8423
सूची 8421
छा 8409
चों 8404
.@@ 8401
जनसंख 8388
आकर 8381
मिश 8380
थानीय 8360
युग 8355
रपति 8333
एम 8323
वृद 8316
हस 8305
उर 8301
रास 8294
समुद 8294
सहायता 8291
योजना 8280
राय 8280
डे 8270
टूर 8269
डे@@ 8260
यार 8254
दार 8250
आने 8241
नीचे 8238
रू@@ 8238
तव 8165
ष@@ 8153
मल 8149
यापक 8142
चे 8127
ऐसी 8105
संगठन 8100
कहानी 8099
लों 8088
होना 8082
मानित 8080
ञ 8076
समाप 8074
सिस 8073
हिंदी 8065
टेस 8058
नी@@ 8052
पढ 8046
भूमि 8039
छात 8029
१ 8021
अभी 8019
पाया 8010
तुलना 8007
कॉलेज 8004
रहने 8004
बा 8000
तु@@ 7981
रकाश 7978
ण@@ 7976
कड 7969
आक 7936
रवेश 7928
मिला 7906
नाटक 7873
पर@@ 7873
भाई 7871
वान 7866
ार 7866
जो@@ 7865
डा@@ 7864
कोर 7851
ं 7843
मीटर 7832
ओ 7828
वितीय 7820
किलोमीटर 7814
पूरे 7810
चात 7801
विशिष 7787
पति 7786
डी@@ 7782
रभावित 7780
-@@ 7774
सहित 7766
षमता 7757
अवधि 7735
शा@@ 7715
शैली 7712
ि@@ 7708
अवस 7689
तम 7689
संबंधित 7672
पहाड 7648
एंड 7637
9 7614
सूर 7614
रयास 7611
थन 7609
मूर 7598
लगे 7586
2008 7585
आबादी 7571
किमी 7561
वैज 7561
कुमाऊँ 7553
विधि 7547
15 7531
ऐतिहासिक 7527
ियाँ 7514
मिलता 7510
मुस 7509
मैं 7501
वहाँ 7496
यकता 7481
सिर 7480
वीं 7472
जीत 7471
खान 7459
चि@@ 7459
इनमें 7456
निष 7456
रीका 7444
रिस 7416
दे@@ 7412
8 7410
एन 7405
डर 7401
7 7389
चा@@ 7367
रेष 7348
चा 7345
पु@@ 7343
बै@@ 7339
२ 7333
तहत 7328
घोषणा 7323
यापार 7317
12 7316
रहती 7310
शि@@ 7309
लीग 7289
2007 7286
तुत 7268
वीकार 7266
आकार 7262
दूरी 7261
दिए 7259
विधान 7252
बुद 7241
है@@ 7239
आता 7235
लिम 7223
पुरुष 7220
यन 7217
दूसरा 7215
सदी 7215
जनगणना 7198
आते 7188
रियों 7181
आयोजित 7169
कांग 7167
सके 7166
गा 7158
िया 7141
रै@@ 7138
हाथ 7124
युक 7118
उड 7111
मी@@ 7099
गति 7093
ऊर 7083
यंत 7083
पात 7079
निश 7077
दि@@ 7076
मदद 7067
रेलिया 7065
जन@@ 7045
बौद 7038
जिसने 7025
दु@@ 7025
हो@@ 7011
सल 7010
लादेश 7009
टिक 7002
चंद 6997
बनाए 6997
इनका 6980
दिखाई 6977
विवाह 6957
2018 6947
2019 6909
देव 6897
गीत 6895
थात 6884
ताओं 6877
लु@@ 6871
आया 6839
यो@@ 6835
एशिया 6834
जाति 6831
काव 6828
हल 6817
2009 6808
नामेंट 6802
हेतु 6800
ो 6800
धांत 6783
जु@@ 6767
रखने 6758
याय 6752
तंत 6746
तुम 6745
ंग@@ 6741
बताया 6731
सामने 6726
अंतरराष 6723
धा 6716
शादी 6706
डो@@ 6695
बैंक 6695
थानों 6694
महिलाओं 6682
बम 6672
रारंभिक 6670
ु@@ 6652
दल 6643
उपन 6631
पांच 6629
लर 6611
राह 6601
साक 6598
रप 6592
नियुक 6585
धान 6580
पुलिस 6580
सूत 6579
अनु@@ 6572
रशिक 6570
कश 6567
बाल 6558
पल 6551
ी@@ 6540
नेतृत 6531
पुनर 6520
ान 6515
जि@@ 6513
पा 6506
कुमार 6504
बे 6495
े@@ 6494
30 6493
हवाई 6477
वंश 6474
‌ 6472
रेल 6471
लो 6454
अम 6437
19 6425
वश 6409
ऐ@@ 6403
भक 6398
घटना 6396
सांस 6377
रिका 6373
फरवरी 6359
बोर 6355
रिकॉर 6355
सफल 6355
बंद 6349
लेखक 6347
पैदा 6346
राकृतिक 6346
मास 6333
लिंग 6327
संरक 6326
हत 6315
डॉ 6309
11 6296
कर@@ 6296
मिली 6295
वेस 6294
छत 6289
बंगाल 6277
मनुष 6276
मिलियन 6274
अरब 6261
परि@@ 6249
फि@@ 6248
यवहार 6247
नाथ 6238
नृत 6235
सितंबर 6223
रव 6216
णा 6209
जानकारी 6201
वापस 6201
वामी 6198
जाए 6190
राम@@ 6189
खड 6177
2006 6176
चला 6175
जनता 6170
थर 6170
आश 6161
लाभ 6160
परिषद 6158
छ@@ 6144
नो 6141
षिणी 6141
कवि 6140
टम 6135
वजनिक 6132
रति@@ 6128
दिनों 6104
छोटी 6099
पै@@ 6099
सैन 6098
दिशा 6085
निया 6070
समुदाय 6065
यूरोप 6057
सड 6040
वै@@ 6023
भीतर 6009
हासिल 6006
पुष 6004
पित 6002
सात 5986
ते@@ 5972
पोर 5967
कानून 5952
षी 5940
दास 5937
इनकी 5921
नक 5921
खोज 5917
रेट 5913
आमतौर 5911
की@@ 5903
अगर 5901
बजे 5891
देती 5886
धीरे 5880
सरकारी 5880
तो@@ 5879
छी 5878
मीर 5877
खा@@ 5875
सामग 5874
हे 5874
पहचान 5857
राजमार 5853
नियम 5845
गुप 5831
पीछे 5829
इलेक 5822
दृश 5819
भू@@ 5818
कृतिक 5815
रतिशत 5804
जिम 5801
18 5788
0 5787
अं@@ 5786
2010 5781
जे 5771
उपस 5767
कृषि 5758
सर@@ 5758
जिसकी 5756
तरफ 5747
लास 5741
मिस 5734
हों 5734
था@@ 5722
सम@@ 5711
समिति 5707
कब 5703
लब 5697
किस 5691
पाठ 5691
कक 5687
दिसंबर 5682
वों 5675
परिणाम 5670
लगता 5668
सागर 5665
यही 5663
शिव 5656
? 5648
रहण 5644
हा 5627
जैसा 5624
सहायक 5623
अभिनय 5619
नवंबर 5617
सिटी 5599
डिग 5596
गैर 5595
चीनी 5593
लाख 5586
महान 5585
अनुसंधान 5583
ईसा 5581
३ 5574
मनी 5572
मौजूद 5571
16 5559
ो@@ 5556
रौद 5548
सेंट 5546
14 5541
कमी 5541
दी@@ 5541
नलिखित 5538
25 5537
पंजाब 5535
खुद 5534
ञात 5526
लाम 5523
तिगत 5509
फे@@ 5507
ठ@@ 5505
डन 5501
अकादमी 5499
ताकि 5499
जीता 5493
जैन 5487
वजह 5475
गोल 5465
अपेक 5464
नन 5460
आधिकारिक 5455
यतः 5454
तीर 5438
निजी 5436
विन 5430
पाद 5426
अड 5421
रांस 5401
ंड 5387
हाल 5374
रिलीज 5371
बदल 5358
औसत 5353
याप 5350
धारित 5349
देव@@ 5347
रेम 5346
जाएगा 5340
एकल 5337
आंदोलन 5335
योगदान 5335
नेपाल 5333
बाहरी 5328
रेड 5327
यूरोपीय 5324
विशाल 5324
पिक 5322
उससे 5318
िला 5310
चरण 5309
बाजार 5305
सिक 5300
कस 5294
शाह 5293
सू@@ 5290
कालीन 5289
यूटर 5287
एन@@ 5283
चल 5274
अनुमति 5270
शी 5262
उनमें 5256
कथा 5255
वहां 5254
वेल 5254
दिर 5251
टीवी 5246
दन 5242
पृष 5240
जैसी 5230
मुंबई 5228
फा@@ 5220
टार 5217
रद 5216
किंतु 5213
अभि@@ 5206
गुरु 5204
अली 5202
चु@@ 5201
2014 5200
लिक 5198
सूचना 5197
विष 5194
पूजा 5192
षिक 5190
भाषाओं 5188
2011 5186
थों 5181
2016 5180
ठीक 5164
णय 5156
ईस 5152
रबंधन 5143
_ 5139
विजय 5139
शित 5139
2017 5138
चुके 5131
तानी 5129
वल 5119
संचालित 5106
रधान 5104
संदर 5103
देखने 5093
विरोध 5092
कविता 5088
यद 5085
वें 5085
रांत 5084
५ 5080
गि@@ 5077
आसपास 5076
अनुवाद 5075
किंग 5072
आस 5065
रतियोगिता 5065
2005 5064
ंस 5058
निक 5050
17 5049
रानी 5042
लागू 5034
लगाया 5022
लिन 5018
अप@@ 5016
मामले 5012
बिल 5006
मेल 5001
टे 4998
सुधार 4958
नेटवर 4954
करें 4951
शासक 4945
चलता 4944
यिक 4943
and 4942
सों 4940
गी 4936
पण 4933
नीति 4929
पटना 4921
दो@@ 4917
राव 4913
महीने 4911
+ 4910
लै@@ 4907
गे@@ 4904
संघर 4902
वृत 4899
इंडिया 4898
भोजन 4898
गन 4891
सीमित 4887
योगिकी 4882
हु@@ 4879
पट 4870
मैन 4865
एम@@ 4864
इत 4861
शो 4861
महाराष 4859
21 4856
चे@@ 4853
बावजूद 4853
जॉन 4844
मिलती 4841
शुक 4838
ची 4835
बनाई 4834
13 4832
आई@@ 4829
नया 4828
कारों 4824
मोड 4818
कार@@ 4817
लू@@ 4810
तविक 4803
2012 4798
घंटे 4796
अव@@ 4777
नल 4773
हाइड 4771
जापान 4770
षम 4770
परन 4761
पाए 4760
वादी 4758
रिटेन 4756
टिंग 4752
तर@@ 4748
अधिनियम 4746
कहीं 4742
यत 4733
षर 4733
चरित 4732
सुन 4732
फोर 4726
संबंधी 4724
आए 4722
धारा 4720
मॉडल 4713
रयुक 4709
छह 4705
घ@@ 4704
अभिनेता 4699
याख 4679
तमिल 4677
गठन 4671
2000 4670
संकेत 4660
तीय 4658
दान 4652
मिट 4649
सै@@ 4647
झील 4646
परम 4646
ठा 4643
सफलता 4643
तुर 4642
४ 4633
पेन 4630
2020 4629
मिनट 4607
परंतु 4606
टेक 4604
हिंदू 4602
करोड 4601
लाइन 4601
नस 4594
चौ@@ 4590
कोशिश 4582
उपचार 4581
रिपोर 4579
परिचय 4572
ित 4569
गों 4568
संरचना 4568
वती 4566
आरम 4562
रतिनिधित 4562
टै@@ 4560
विवरण 4560
परियोजना 4559
माँ 4554
कं@@ 4548
वज 4547
धारण 4544
सिन 4543
बैंड 4541
रूस 4537
वीर 4533
वेद 4528
छोटा 4527
मामलों 4523
ंट 4519
० 4511
कंप 4510
डब 4508
होगी 4506
मानते 4499
चले 4498
मील 4498
रसाद 4484
लन 4483
50 4478
टों 4474
शे@@ 4472
तट 4470
मुरादाबाद 4470
तृत 4468
नेता 4467
रतिक 4463
लेखन 4461
विपरीत 4455
तेज 4449
2015 4443
अधिकारी 4441
भारी 4420
ओं 4416
धा@@ 4412
लिस 4411
संविधान 4409
पालन 4405
100 4400
अभियान 4395
दीन 4395
सही 4395
भागों 4394
जित 4393
रेक 4392
गार 4390
ू 4390
ः 4385
रेखा 4383
2004 4379
पू@@ 4379
देना 4377
अन@@ 4374
तल 4373
जल@@ 4370
आयोजन 4363
पुराने 4363
रकाशन 4355
लेषण 4354
ँ@@ 4352
अनुभव 4346
मीडिया 4337
ऑक 4335
रतिष 4332
रकृति 4330
आईसीसी 4328
अगले 4326
सेल 4325
याओं 4321
बिन 4306
साधारण 4306
धी 4304
लू 4302
नि 4296
आचार 4291
पीड 4290
रिज 4290
घोषित 4289
डॉलर 4286
सह@@ 4285
यर 4282
लगातार 4273
सेन 4269
इच 4266
लेते 4265
चुका 4260
24 4257
मुहम 4250
विधायक 4245
पदक 4243
गंगा 4241
भविष 4240
रोड 4236
वीडियो 4236
तेल 4235
2013 4234
बद 4234
शाखा 4232
रश 4227
ओलंपिक 4221
संसद 4221
आयु 4217
बर@@ 4217
लंदन 4211
रतिस 4208
पाल 4204
बनने 4201
रचित 4199
रल 4196
गुण 4195
रि 4188
कॉ@@ 4185
गांधी 4182
समीक 4181
अतः 4177
2021 4176
घरेलू 4171
भाव 4167
णु 4165
राट 4165
उसमें 4158
विभाजित 4158
पिछले 4153
विदेशी 4152
ि 4147
करीब 4143
खेलों 4134
लगी 4133
आर@@ 4127
रंथ 4123
रशासनिक 4123
रोक 4122
नामित 4121
टो 4120
राजनीति 4116
गुजरात 4115
यादि 4112
वायु 4112
अज 4110
णी 4110
षेप 4107
जम 4100
कता 4097
मं@@ 4092
यस 4092
रज 4092
किनारे 4090
इसने 4087
बोली 4086
निकट 4085
बहु@@ 4085
आदेश 4081
रखते 4080
पना 4079
३@@ 4076
जिनके 4075
लाह 4074
तुओं 4071
शेष 4069
पेट 4068
“ 4067
डिजाइन 4065
सहयोग 4062
$ 4061
पकड 4061
ियां 4053
युवा 4052
सूक 4052
लग 4050
जीव 4042
संभव 4041
यायालय 4039
दौरा 4028
इलाहाबाद 4022
गै@@ 4014
आठ 4009
22 4000
रचलित 4000
सुविधा 4000
डिंग 3999
मेट 3999
पवित 3996
फल 3995
यूज 3993
उपकरण 3992
मिलकर 3992
मानक 3983
चुना 3982
माइक 3980
परिणामस 3979
थायी 3978
नु@@ 3972
थोड 3971
ंद 3966
आती 3966
” 3966
पारंपरिक 3965
हमारे 3965
बिक 3960
रम@@ 3956
६ 3954
ताव 3953
ताक 3952
पाई 3952
माल 3951
in 3948
तस 3941
अनुमान 3940
मैचों 3935
चिन 3933
भवन 3932
लेट 3929
ढ@@ 3922
खो@@ 3921
अभिनेत 3920
तरीके 3920
वाधिक 3920
a 3915
रारंभ 3915
सारे 3915
यपि 3905
खेला 3904
लस 3904
औद 3898
चेन 3898
शो@@ 3898
दिसम 3895
रॉ@@ 3895
आदर 3894
वप 3892
दावा 3890
​ 3886
लिखी 3880
नौ@@ 3878
पाँच 3874
छ 3867
रख 3867
है- 3867
१८@@ 3862
यवसाय 3858
एस@@ 3856
यादातर 3856
एफ 3850
रीलंका 3840
भावना 3838
महल 3838
गैस 3833
वृक 3831
आगरा 3824
अभ 3818
समाचार 3815
निवास 3812
आग 3810
राथमिक 3807
नै@@ 3804
विकेट 3803
विख 3799
चैनल 3795
टिन 3794
मौत 3794
भव 3793
नवम 3791
नागरिक 3790
नातक 3786
रह@@ 3778
लेखनीय 3778
षा@@ 3777
बजाय 3774
अधीन 3771
रतीक 3768
2003 3756
रिश 3754
बाज 3749
23 3747
संपर 3743
रुप 3738
टल 3737
कलाकार 3732
बेल 3728
डिस 3726
रवर 3723
झ@@ 3722
रेरित 3722
अवसर 3721
बाई 3719
दोस 3718
वो@@ 3718
रचार 3713
2002 3709
फो@@ 3709
शोध 3709
साइड 3709
2001 3708
लेता 3708
सॉफ 3705
माने 3699
ू@@ 3698
नता 3697
ु 3696
आरंभ 3693
यधिक 3689
सामना 3689
नाइट 3683
अद 3680
रामीण 3675
योगिक 3672
फाइनल 3669
जान 3667
वैश 3665
दु 3664
वाक 3660
मिलते 3659
हमेशा 3659
घाटी 3658
चारों 3656
26 3655
रार 3645
नारायण 3644
विवाद 3643
शुद 3643
मंडल 3641
थितियों 3640
शल 3640
खाद 3636
उप 3633
ईश 3631
पुनः 3631
एल@@ 3629
ंक 3628
रशासन 3625
फै@@ 3620
शा 3620
समा@@ 3615
छे 3612
1990 3609
मैदान 3609
तिक 3608
टेट 3606
रैक 3605
जॉर 3603
नष 3599
तीसगढ 3598
जनरल 3595
पेश 3590
ये@@ 3590
एकमात 3588
देशक 3587
रीन 3586
जिनका 3579
जीवित 3575
रमा 3575
२@@ 3574
फॉर 3572
परिस 3569
नेशनल 3568
रधानमंत 3567
मैक 3561
मान@@ 3559
खे@@ 3558
नव@@ 3550
रमों 3545
ऊ@@ 3539
दत 3539
कनाडा 3538
कॉर 3537
तीसरे 3536
मू@@ 3536
धति 3535
परमाणु 3533
रु 3530
ोर 3526
पेड 3524
चाहते 3518
अंतरिक 3513
ताप 3510
हर@@ 3508
40 3504
अधिकतर 3504
ै@@ 3497
रेडियो 3494
थि@@ 3493
हीं 3487
लॉ@@ 3483
जू@@ 3482
रू 3482
ंड@@ 3481
जै@@ 3481
दू@@ 3477
यो 3476
सेट 3476
१० 3475
मन@@ 3472
आलोचना 3469
जांच 3469
िया@@ 3469
राइ@@ 3467
खंड 3462
मेन 3461
ाने 3456
मिले 3455
बेटे 3454
ंगा 3451
बत 3447
नियमित 3441
पुरुषों 3435
गेम 3434
सव 3434
बेहतर 3432
नत 3430
यमान 3429
रकट 3425
तियाँ 3422
रिकेटर 3420
चढ 3416
चुकी 3416
अधि@@ 3415
रारम 3406
इं@@ 3404
इंजन 3404
तापमान 3404
वां 3403
वाड 3403
षणों 3403
करियर 3399
पताल 3398
याद 3398
केरल 3397
डु@@ 3397
परिक 3396
परंपरा 3392
मांग 3388
ईसाई 3384
जिद 3384
एच@@ 3383
भट 3378
रोह 3374
णित 3372
णा@@ 3369
बराबर 3369
धि@@ 3367
मानी 3367
लंबे 3367
िक 3367
टवेयर 3365
महासागर 3355
रिंग 3355
समारोह 3349
लिखित 3346
शहरों 3340
खु@@ 3339
अंदर 3334
संचालन 3334
... 3332
टाइम 3332
धित 3332
मेलन 3330
मोर 3330
हालाँकि 3330
१७@@ 3329
कू@@ 3324
यी 3321
लें 3319
27 3316
रासायनिक 3316
तीव 3314
विमान 3314
लाया 3311
लिपि 3311
गंभीर 3302
छा@@ 3302
टिकोण 3302
वहीं 3300
९ 3300
मिलित 3292
मू 3292
भिक 3291
नम 3289
वालों 3288
विषयों 3288
मौसम 3283
८ 3283
थे@@ 3282
28 3281
उनसे 3280
यावरण 3279
लगाने 3279
ें 3278
विल 3275
लाई 3269
देख 3268
मां 3265
रांति 3263
आयोग 3259
विलियम 3259
रालय 3255
रोम 3254
अरबी 3253
बंधित 3253
तथ 3250
थापक 3245
to 3244
जड 3243
भौतिक 3243
शारीरिक 3243
इतना 3239
देखें 3237
यूट 3235
महाराज 3233
रायः 3233
घटनाओं 3230
वर@@ 3229
थव 3227
कान 3225
डिज 3225
लागत 3223
सितम 3223
रण@@ 3221
ञा 3211
लिखे 3211
समूहों 3210
हमला 3210
किले 3209
तोड 3208
हैं- 3205
बेटी 3193
वाणिज 3193
कारी 3191
शान 3191
सुल 3185
ार@@ 3184
यकार 3181
हाउस 3180
कपड 3178
वही 3178
ारी 3177
धों 3176
तकनीक 3175
परिसर 3174
संप 3174
सीधे 3171
अंक 3170
टू 3170
कपूर 3164
विकल 3164
विरोधी 3164
टर@@ 3163
ीय 3162
०@@ 3160
एं 3159
ताह 3159
फुटबॉल 3159
विभाजन 3158
दिखाया 3157
दुल 3156
वार@@ 3156
अधिकारियों 3155
मिलने 3153
नज 3151
सच 3150
षीय 3148
बू@@ 3147
भेद 3143
वोच 3143
ती@@ 3142
जेल 3141
गो 3140
हवा 3139
कौ@@ 3137
निभाई 3137
रियाओं 3137
लोकसभा 3136
रहालय 3131
चलने 3130
दौर 3130
तेजी 3127
निकल 3123
राशि 3120
यप 3119
देशित 3115
शंकर 3112
ची@@ 3110
कैरियर 3109
सभ 3109
एक@@ 3108
गणित 3108
टिस 3108
टु@@ 3108
रोमन 3108
जय@@ 3107
रिया@@ 3106
गम 3105
रूसी 3104
1980 3102
कैसे 3101
मुझे 3101
राजवंश 3100
सह 3099
इन@@ 3098
नार 3092
सतह 3092
षात 3091
बं@@ 3089
विरुद 3086
अश 3084
पहुंच 3084
घाट 3082
याग 3079
विचारों 3079
अलीगढ 3075
दि 3074
यूक 3073
तकों 3072
1999 3068
तकनीकी 3066
सैनिक 3065
सेवाओं 3061
२० 3060
षत 3058
भेजा 3057
सोवियत 3055
भि@@ 3051
इ 3048
थो@@ 3045
रखता 3045
संपत 3045
॥ 3045
लेन 3044
देखते 3042
गी@@ 3041
चट 3041
चिह 3041
दिवस 3041
भुगतान 3040
उपाधि 3038
वेंटी 3036
यावसायिक 3035
ॅ@@ 3035
७ 3032
पाने 3029
लेक 3028
कोट 3024
भार 3018
खण 3015
नैनीताल 3014
खर 3013
शिष 3012
डो 3007
जोखिम 3004
देवता 3001
एशियाई 2999
चतुर 2998
देशन 2998
दौरे 2998
आये 2996
घ 2995
तिब 2995
रं@@ 2994
लंबी 2992
लता 2991
इब 2989
रवृत 2989
यमंत 2988
पुराण 2986
सेक 2985
वातावरण 2984
सरल 2984
डॉक 2981
यज 2981
उचित 2979
रभावी 2976
विशेषज 2975
अंततः 2973
लैक 2972
संभावना 2970
गाने 2969
धातु 2967
संचार 2965
जलवायु 2963
तिष 2962
ताल 2959
जिसमे 2958
करेगा 2957
थिर 2955
नियमों 2955
एच 2952
कोलकाता 2952
सौ@@ 2952
पुरा 2947
कण 2944
टीमों 2942
इंस 2940
डों 2939
रोजन 2938
विजेता 2934
ञा@@ 2932
शाही 2932
यटन 2928
चलते 2927
जेम 2926
यूजीलैंड 2925
वानों 2924
गवर 2922
s 2918
जापानी 2914
चो@@ 2910
1998 2908
मोहम 2907
इकाई 2903
गतिविधियों 2902
भु@@ 2902
कारक 2901
हज 2900
हड 2900
साइ@@ 2899
लि 2898
आइ@@ 2895
कल@@ 2894
कंपनियों 2889
यकाल 2889
एँ 2888
सब@@ 2888
शु@@ 2884
रमाण 2881
गद 2880
ढ 2876
मानना 2875
इंडियन 2874
formula 2873
शैक 2870
चैम 2869
लाने 2869
दबाव 2868
५@@ 2868
टस 2867
वोल 2867
मजबूत 2866
निवेश 2859
फैसला 2856
रिप 2856
पैमाने 2854
यौगिक 2854
कराया 2853
टेलीविजन 2852
दोलन 2848
कैंसर 2844
पुराना 2835
थाओं 2832
पसंद 2829
उपयोगकर 2828
शायद 2825
रिम 2824
सिल 2824
रॉक 2819
सीरीज 2819
चयन 2810
पे 2809
शिव@@ 2808
भित 2807
रेजों 2807
आरोप 2806
नान 2803
यूयॉर 2798
उनको 2795
मार@@ 2795
१@@ 2795
सीजन 2794
रां@@ 2793
परिवहन 2791
यालयों 2789
वेक 2789
इज 2788
हमें 2787
लौ@@ 2786
नेट 2785
लार 2785
यूनाइटेड 2782
29 2780
रसारण 2780
वनि 2777
इक 2776
पुरी 2775
रोज 2773
विशेषता 2773
आवाज 2771
फुट 2771
यूनिवर 2770
शांति 2764
४@@ 2760
उपयुक 2756
जंक 2756
टेडियम 2755
जानी 2754
डाला 2754
तियां 2753
गौ@@ 2752
मतलब 2752
पोस 2750
पं@@ 2748
रंग@@ 2748
रदाय 2747
शिकार 2742
मह@@ 2741
ँ 2740
निवासी 2739
मानसिक 2739
लग@@ 2739
असम 2738
कट 2738
वेब 2738
ही@@ 2737
मेरे 2736
31 2733
खाने 2732
खा 2727
गृह 2722
औ@@ 2721
खेती 2720
ढंग 2719
रोल 2717
शी@@ 2715
हद 2713
लामी 2711
सीज 2711
राय@@ 2709
सैनिकों 2709
° 2706
रिय@@ 2705
घा@@ 2704
पुरानी 2704
बॉक 2703
लाइ@@ 2702
किल 2700
बहन 2700
इंटरनेट 2689
सस 2687
तीसरी 2686
जुन 2682
रॉफी 2682
ौ@@ 2680
चली 2679
अनुप 2675
शत 2675
गईं 2673
ञापन 2673
राफ 2673
एफ@@ 2672
रखी 2671
मनो@@ 2669
संत 2666
जगत 2665
रवाह 2663
विविध 2662
उष 2661
ईरान 2653
वाहन 2653
ावा 2652
वैदिक 2651
रफल 2650
हिल 2650
गूगल 2648
यकर 2647
1996 2643
बिंदु 2643
मज 2643
नायक 2641
पों 2640
लकड 2640
सुंदर 2639
संसार 2638
थशास 2635
वेन 2635
समझ 2635
आपूर 2626
बनिक 2622
दर@@ 2621
निंग 2621
फोन 2620
करे 2619
कॉन 2618
चुने 2618
नही 2618
लेना 2618
निधन 2616
गिर 2615
बिजली 2614
जीन 2609
षकों 2609
लेस 2608
वामित 2608
केट 2606
कहना 2604
परिभाषित 2603
विदेश 2602
हरियाणा 2602
गिरफ 2599
नॉर 2599
आय 2598
अनंतपुर 2595
करी 2595
घु@@ 2593
खेले 2592
लघु 2592
इटली 2591
रसार 2591
संधि 2591
चम 2590
पशु 2587
लोक@@ 2587
लखनऊ 2585
१५ 2584
गणराज 2583
सौ 2581
भो@@ 2580
हजार 2579
रुखाबाद 2578
हास 2578
१५@@ 2578
अपराध 2577
तात 2577
बीमारी 2574
फु@@ 2569
1970 2564
सारी 2561
६@@ 2558
सिया 2554
मृति 2553
कानूनी 2551
दिये 2550
नित 2550
बाबा 2550
ऑ@@ 2549
आसानी 2548
खि@@ 2547
थक 2546
महाभारत 2543
ीन 2543
लिमिटेड 2539
कहलाता 2537
कारणों 2536
पीढ 2534
मियों 2534
I 2532
अनिवार 2532
आंतरिक 2531
आंकड 2527
पौड 2527
साबित 2526
आयरलैंड 2525
कला@@ 2523
तारा 2522
झा@@ 2521
दिक 2520
1997 2519
टिप 2518
राक 2518
खास 2517
हृदय 2516
अति@@ 2515
अवार 2515
एयर 2515
नौ 2515
रीकी 2513
हरा 2512
तय 2511
देकर 2509
षिप 2508
नियों 2507
वितरण 2507
उपग 2506
दीर 2505
पार@@ 2504
मिशन 2504
सफ 2504
जोर 2502
महाराजा 2502
चारण 2499
टिव 2499
चौड 2497
कत 2494
एड 2493
सदर 2488
वोत 2487
गुणवत 2486
मेंट 2485
हैदराबाद 2484
डेटा 2483
एकत 2482
कठिन 2480
जमीन 2480
हित 2480
निगम 2479
यें 2479
दिवसीय 2478
होटल 2477
रीक 2475
मो 2474
रॉन 2474
ठा@@ 2473
गंज 2472
नुकसान 2472
काशी 2471
अभिव 2468
गाड 2466
समझा 2465
जाकर 2463
गल 2461
पहुँच 2461
शिया 2460
हाई 2458
बचपन 2457
ठी 2456
यानी 2450
60 2449
महसूस 2447
मौ@@ 2447
आपको 2446
नंबर 2446
साफ 2446
दम 2444
दें 2444
१६@@ 2444
३० 2444
The 2442
ऋषि 2442
तिशाली 2442
संज 2441
१२ 2439
रोकने 2438
डिया 2435
बैक 2433
किरदार 2432
सिंग 2430
वनडे 2422
मनाया 2419
मोबाइल 2417
रंथों 2417
करा 2416
वनस 2414
कोरिया 2412
चाहता 2412
रेय 2411
रौ@@ 2411
शकों 2411
रेलियाई 2410
तीनों 2407
धु@@ 2404
बाह 2404
मुगल 2400
ंडी 2399
रियता 2399
ऊंचाई 2398
हमले 2397
निस 2396
टू@@ 2395
हॉ@@ 2395
एं@@ 2392
जय 2392
लॉक 2392
पनी 2391
कीर 2389
सेंटर 2388
ंगी 2385
साथी 2384
आनंद 2383
साधन 2382
अ 2381
फीट 2377
मुश 2377
खेलने 2375
राजाओं 2374
1992 2370
इंजीनियरिंग 2367
उपज 2363
जहाज 2363
रुद 2360
तृतीय 2359
यिकी 2358
अनुपात 2355
जयपुर 2355
समृद 2354
धारावाहिक 2352
बेस 2352
— 2351
पादों 2350
होंगे 2349
अहमद 2347
वॉ@@ 2347
रायगढ 2345
छेद 2344
फी@@ 2344
गड 2343
निदेशक 2343
रीष 2343
दूध 2342
८@@ 2341
कृ@@ 2339
परा 2338
टता 2337
रॉनिक 2337
रीट 2336
जिनकी 2335
चूंकि 2334
टक 2332
टुकड 2332
नूलु 2331
षता 2330
1994 2329
रोगी 2329
ारों 2328
ंत 2327
यानि 2327
मंच 2326
बंगाली 2325
रय 2325
जरूरत 2324
रसारित 2324
बनाये 2322
मिलाकर 2318
गायक 2317
खत 2316
तुरंत 2315
हराया 2314
किला 2313
बन@@ 2313
तभी 2312
1960 2311
इलाज 2309
भौगोलिक 2309
टेड 2307
गणना 2306
पियनशिप 2306
शुल 2306
रीमियर 2305
टॉ@@ 2303
तें 2303
चीज 2299
ठित 2299
तू@@ 2299
आं@@ 2296
मेरी 2295
गण 2292
1991 2291
गुज 2290
भूगोल 2289
पुल 2287
मोहन 2286
औपचारिक 2280
जनसांख 2279
रोस 2279
सान 2279
रवरी 2278
रियन 2278
काली 2277
काफ 2274
1995 2273
कुर 2273
टोन 2270
भागलपुर 2270
हाथों 2270
नौज 2268
09 2265
गुड 2265
कदम 2264
संपूर 2264
अधिकतम 2262
आध 2262
भाषाएँ 2262
अर@@ 2261
संबद 2261
1993 2260
कलाकारों 2260
ऑर 2259
नेस 2259
बोल 2259
रतिनिधि 2258
कोशिकाओं 2257
is 2254
रग 2254
सौर 2253
हरि@@ 2252
उपकरणों 2247
करेंगे 2247
पेक 2245
-- 2242
रहित 2242
मिर 2241
सिनेमा 2241
पॉ@@ 2240
200 2238
तीसरा 2237
बदलाव 2237
ारा 2235
उपयोगी 2232
बीज 2232
दियों 2231
महाविद 2231
गेंद 2228
बाकी 2228
७@@ 2227
पौधों 2226
चय 2222
रांसीसी 2221
मारक 2217
देवताओं 2216
अल@@ 2214
शै@@ 2214
आदमी 2213
धारी 2212
पंचायत 2211
उज 2210
परिभाषा 2207
फूल 2205
मराठी 2200
राल 2200
ऊँचाई 2198
घाटन 2196
बनाकर 2196
रेरणा 2195
समझने 2195
बनाता 2192
माह 2192
अम@@ 2191
हिमालय 2188
अति 2187
इण 2184
रूपों 2183
हूँ 2183
कह 2182
धता 2182
लॉन 2181
१०@@ 2181
अवधारणा 2180
रहस 2180
शुरुआती 2177
निहित 2176
टाइ@@ 2175
कां@@ 2173
टूडियो 2173
अंश 2172
वेत 2171
९@@ 2171
दीक 2170
भी@@ 2168
सचिव 2167
सफेद 2167
डिजिटल 2165
हटा 2165
इमारत 2162
जीतने 2162
रीम 2162
लौट 2159
सिं@@ 2158
पंक 2157
पथ 2157
थानांतरित 2155
बल@@ 2155
सीट 2155
दैनिक 2154
मुसलमानों 2154
ीं 2154
बनाते 2152
मारे 2152
कास 2151
गीकरण 2151
मचारियों 2148
जटिल 2147
फलस 2147
किंगडम 2145
रॉयल 2144
सरस 2143
पंच@@ 2142
तू 2141
यौन 2141
लिखने 2141
जों 2140
पेशेवर 2137
रशंसा 2137
बाग 2134
अधिकारों 2132
मोटर 2132
इंटरनेशनल 2130
खाड 2130
उपभोक 2129
नें 2128
संबंधों 2128
आयुर 2125
यातायात 2125
भूषण 2123
कोशिका 2120
डार 2120
कच 2118
ै 2118
चुनावों 2116
महात 2115
खो 2113
रसायन 2113
षाकृत 2113
ूर 2113
फैला 2112
काम@@ 2109
नॉ@@ 2109
x 2108
रतीत 2108
यकारी 2107
लियों 2106
गे 2105
तै@@ 2105
बार@@ 2104
रुचि 2103
मचारी 2102
डेन 2101
अमरीका 2100
पेस 2100
शराब 2099
शृंखला 2099
डाल 2098
नपुर 2098
सार@@ 2097
इलाकों 2095
बई 2095
उ 2094
कौशल 2094
जीवनी 2094
नाग@@ 2094
लभ 2093
सुपर 2093
डेविड 2092
A 2091
घोड 2090
परा@@ 2089
इस@@ 2088
काउंटी 2087
लैण 2086
लंबाई 2085
षियों 2085
अशोक 2084
कोश 2084
रष 2083
राजनैतिक 2080
याण 2077
सो 2075
कोल 2073
वरी 2073
फार 2072
पंजाबी 2070
१४ 2070
अमेरिकन 2068
ियो 2067
इतनी 2063
सलाह 2062
रखना 2060
वन@@ 2060
ठभूमि 2059
पृथक 2059
अभाव 2058
संगठनों 2058
रिन 2057
ठोस 2056
नड 2056
लं@@ 2055
पौराणिक 2054
बनता 2054
रवा@@ 2052
काल@@ 2051
रगति 2051
कराने 2050
कृतियों 2050
ङ 2049
देश@@ 2049
षरता 2048
समीप 2047
मशीन 2046
गेट 2045
जातियों 2045
डॉ@@ 2045
सेस 2044
शों 2043
संहिता 2043
लय 2042
बां@@ 2040
ऋण 2039
यपाल 2039
िय@@ 2038
समानता 2036
आविष 2034
मेदार 2034
चलती 2033
लगती 2033
मिथ 2030
ऊपरी 2027
बनाना 2025
महाद 2025
डेल 2023
रोटीन 2023
नीय 2022
रोफेसर 2022
ऊ 2021
चू@@ 2019
छि@@ 2018
सुबह 2015
फी 2012
बास 2012
वचा 2012
गलत 2010
जंगल 2010
रांड 2010
80 2008
तता 2008
रणी 2008
रेगोरी 2007
शिल 2007
अना@@ 2006
बसा 2006
वतन 2006
किताब 2005
यांकन 2005
काले 2001
नू@@ 2001
माइकल 1999
कॉम 1997
माया 1996
रेंच 1996
जमा 1995
नेत 1995
विरासत 1995
सुर 1995
जस 1994
बॉलीवुड 1994
वाचित 1994
इंच 1993
पहुंचती 1993
शनिक 1993
मिन 1992
सकारात 1991
नये 1990
पंडित 1990
तकालय 1989
राजनीतिज 1989
सुनिश 1987
रमशः 1986
समाधान 1985
हन 1985
षि 1984
समन 1984
सुझाव 1984
कुं@@ 1980
थियों 1980
शिखर 1980
नदियों 1979
वैसे 1979
ंगे 1978
मृ@@ 1978
जीवों 1974
दवा 1972
लेती 1972
मीद 1969
जवाब 1968
टरों 1966
मेला 1965
टॉक 1962
रुपये 1962
२५ 1962
नाट 1961
एसोसिएशन 1960
कम@@ 1960
शून 1957
निकाला 1956
2@@ 1954
रच@@ 1953
सका 1952
1989 1950
पुन 1950
फील 1946
थलों 1944
धो@@ 1944
वायरस 1944
११ 1944
राउंड 1943
वयस 1943
झु@@ 1942
रजातियों 1942
संभावित 1942
करवाया 1937
बुक 1937
रखण 1936
तिथि 1935
कैलंडर 1934
गुणों 1933
शीघ 1933
35 1931
बीमा 1931
मंदिरों 1931
ॉर 1930
अकबर 1929
टेनिस 1929
मना 1927
समझौते 1927
पारी 1924
शेयर 1924
१६ 1924
देखकर 1923
सुप 1923
1950 1922
संकट 1922
एप 1918
ऑन 1917
चाहे 1917
कियों 1916
घरों 1916
ंडा 1915
वरिष 1914
खाना 1911
विलय 1911
किम 1910
मगध 1909
वानी 1909
हॉल 1908
कुत 1907
तारे 1907
कौन 1905
टियों 1905
यथा 1905
यहीं 1904
रेखांश 1903
वंद 1902
साइट 1902
खराब 1900
खी 1900
विच 1900
ाया 1899
पौधे 1897
लेखकों 1897
70 1895
जीते 1895
परस 1895
रसन 1895
निय@@ 1894
सिख 1894
ऑनलाइन 1893
खेलते 1893
ञानिकों 1893
णों 1893
मालिक 1893
जाये 1891
बॉ@@ 1891
दोष 1890
रभु 1889
हू@@ 1889
होल 1889
कहता 1888
चार@@ 1887
ठाकुर 1886
२०११ 1886
बदले 1885
बैठक 1885
निरंतर 1883
चौधरी 1882
लाहौर 1882
आंध 1881
रखे 1881
डू@@ 1880
आउट 1879
ऐल 1876
जग@@ 1876
५० 1876
कीय 1875
संसाधन 1875
सकें 1875
वाँ 1873
हुये 1873
बाब 1872
धांतों 1869
रका@@ 1869
सांसद 1869
पट@@ 1867
इल 1866
में@@ 1865
यहूदी 1865
टैक 1864
लान 1864
संदेश 1864
यूब 1863
रपुर 1861
यापारिक 1859
मना@@ 1858
लगते 1858
आहार 1857
दौड 1855
शहरी 1855
कवर 1854
चोट 1853
तार@@ 1853
राणी 1853
टेन 1851
पारित 1851
यूनानी 1851
रहों 1850
लेबाज 1850
B@@ 1849
बुनियादी 1849
हाइ@@ 1849
कलकत 1848
हेनरी 1848
दीवार 1847
रियल 1847
वात 1847
छवि 1846
ोन 1846
नियन 1845
बिस 1844
जिलों 1843
थना 1843
शस 1843
धार@@ 1841
फा 1840
भू 1840
तमिलनाडु 1839
मनोविज 1839
मल@@ 1839
रोगों 1839
कोष 1838
जैक 1838
१४@@ 1837
देखभाल 1836
वं@@ 1836
१३ 1836
डबल 1835
रॉस 1835
शुरूआत 1835
अनुबंध 1833
संशोधन 1832
1947 1831
नैतिक 1831
रथा 1830
पह@@ 1828
संकल 1825
यंजन 1824
याज 1823
यायाधीश 1823
यादव 1822
२०१४ 1821
1986 1819
नौकरी 1819
पद@@ 1819
पनिक 1819
बहादुर 1819
निकाल 1818
रस@@ 1818
कैथोलिक 1815
बेगूसराय 1814
यांत 1814
रिकी 1810
45 1809
औरंगाबाद 1809
धक 1809
लिय@@ 1809
समकालीन 1809
रतिद 1807
मनोरंजन 1806
संयोजन 1806
यल 1805
गान 1803
नामों 1801
ंस@@ 1800
सेवन 1798
राफी 1797
ऑफिस 1796
गीतों 1795
रॉबर 1795
1988 1794
अष 1794
किसान 1794
शील 1794
इंद 1793
यि@@ 1793
यंग 1791
आपके 1788
रबंध 1787
कोच 1785
मैक@@ 1784
देर 1783
रयासों 1782
धरती 1780
हजारों 1780
छूटती 1779
नेहरू 1778
अफगानिस 1777
लाइट 1777
सां@@ 1777
जातीय 1776
शासकों 1775
सिंगापुर 1775
1984 1774
नेल 1774
बागेश 1774
रयत 1774
याकरण 1772
राग 1771
बोस 1769
अपनाया 1768
अंग@@ 1766
देखी 1765
बोध 1763
हम@@ 1763
अदालत 1762
हिट 1761
500 1760
पाण 1760
पीटर 1760
गुर 1759
यय 1759
नेताओं 1757
निदान 1754
रताप 1754
कॉटलैंड 1752
राजपूत 1751
तकें 1750
लव 1750
शाम 1750
करा@@ 1748
पुणे 1748
माइ@@ 1748
बालक 1747
मीन 1746
षाओं 1746
मय 1745
जैव 1743
90 1740
भे@@ 1740
वेबसाइट 1740
षणिक 1740
इम 1739
कीमत 1739
राजकुमार 1739
२४ 1739
भूत 1738
भौतिकी 1738
कैप 1737
जरी 1736
बेन 1736
टीन 1733
रवाई 1733
हिमाचल 1732
नवीन 1731
गुना 1730
पादक 1729
विविधता 1728
मुर 1727
मौजूदा 1727
पदों 1726
* 1725
अस@@ 1725
तरीय 1725
ंज 1724
भरी 1724
धिक 1723
रमा@@ 1723
अवश 1722
मकालीन 1722
रचनाओं 1722
कमाई 1721
तनाव 1721
यरत 1721
वापसी 1720
बचाने 1719
रुव 1718
वैकल 1717
रोगियों 1716
असफल 1715
गू@@ 1714
रामायण 1714
पहुंचा 1713
पैर 1713
सन@@ 1713
जनजाति 1711
कोण 1709
चमोली 1709
नास 1709
निवासियों 1709
रतिमा 1709
सेवाएं 1709
1985 1707
आकाश 1706
आवृत 1705
हुसैन 1705
सामूहिक 1702
डिवीजन 1701
रभावशाली 1701
आजकल 1699
मॉ@@ 1699
१८ 1699
अनुकूल 1698
कठोर 1698
कैम 1698
गण@@ 1698
बनाती 1698
पसंख 1696
सुविधाओं 1696
इसको 1695
पेरिस 1695
पस 1693
गोली 1691
रहना 1691
लने 1691
br 1690
अनुरूप 1690
हिंसा 1690
लिप 1688
याय@@ 1687
• 1687
करनी 1686
पन@@ 1685
बंदी 1685
अनुक 1684
पतन 1681
बंदरगाह 1681
सजा 1681
तराधिकारी 1680
135 1679
होम 1679
नोट 1678
संघीय 1678
ाइन 1677
सद 1676
तरल 1675
बक 1675
रैंक 1675
गोस 1674
णु@@ 1673
नकर 1673
खिताब 1672
तरों 1672
घो@@ 1671
पौडी 1671
रमित 1671
विपणन 1671
खाते 1670
माला 1670
दरबार 1669
बेहद 1667
1987 1665
चतम 1665
घटक 1664
बताते 1664
फू@@ 1663
रबन 1662
संभवतः 1662
लपुर 1661
हमारी 1661
खोला 1660
डस 1660
मेक 1660
चुम 1657
मछली 1657
वि 1657
सालों 1657
1962 1656
देखे 1656
षय 1656
1971 1655
तप 1654
मठ 1654
उपजिला 1653
चालक 1653
मौलिक 1653
वजन 1653
आवास 1652
आंशिक 1651
शुरु 1651
ओवर 1650
पॉल 1649
तथापि 1648
रीज 1648
वच 1646
बिया 1645
मंगल 1645
मुम 1645
रीति 1645
संसदीय 1644
बचाव 1643
मेरा 1643
दशा 1642
समझौता 1639
राहक 1637
शासनकाल 1637
बिलियन 1636
मेडिकल 1636
जिक 1635
पोषण 1634
मजबूर 1632
लोगो 1632
हार@@ 1631
कट@@ 1630
ढा@@ 1630
लकर 1630
बो 1628
1972 1627
1967 1625
यथार 1625
जेन 1623
सांख 1623
२०१० 1623
मारा 1622
टाचार 1621
आगमन 1620
बातचीत 1620
मंड@@ 1620
राजनेता 1620
ंद@@ 1619
आपने 1619
मोन 1619
रहीं 1619
शायर 1619
नयी 1618
बांध 1618
हेल 1618
अधिग 1617
तुकला 1617
रियासत 1617
डिक 1616
मारने 1616
योग@@ 1616
चलाने 1615
मुताबिक 1613
सोने 1613
जानते 1612
हरी 1612
कहानियों 1611
पिन 1611
भीड 1611
विचारधारा 1611
सें@@ 1611
रथ 1610
वाह 1609
जानवरों 1608
यटक 1608
रजनन 1608
लैटिन 1608
रयोगों 1607
टरी 1606
वाई 1606
मनोवैज 1605
1952 1604
टेज 1602
बंध 1602
१३@@ 1602
लॉस 1601
धारणा 1600
डाइ@@ 1599
डै@@ 1599
महीनों 1597
चै@@ 1596
तरा@@ 1596
बदला 1596
हरे 1596
ऊष 1595
घायल 1595
गं@@ 1594
तारों 1593
बों 1592
कागज 1591
चौथे 1591
ओपन 1590
मूत 1590
सहयोगी 1588
ुदा 1588
जू 1587
रोजगार 1587
राण 1584
गिनी 1583
मौखिक 1583
हानि 1583
पीठ 1582
लंबा 1582
विशेषकर 1582
२००९ 1582
32 1581
कुश 1581
मिनल 1580
नर@@ 1579
बुल 1579
पटकथा 1578
रारूप 1577
रामक 1575
वाइ@@ 1575
अमरीकी 1574
फारसी 1574
संपादक 1572
१२@@ 1572
तिम 1571
रतिबंध 1571
लियन 1569
रतिभा 1568
अदिलाबादु 1567
एड@@ 1567
हूं 1567
हनुमान 1566
तं@@ 1565
# 1564
याम 1564
नेवाले 1563
मलयालम 1563
3@@ 1562
आपस 1562
रावण 1559
नागरिकों 1558
लीन 1558
संयंत 1557
लिश 1556
कमल 1555
लाइव 1554
बदलने 1553
ौर 1553
इंटर@@ 1552
बचने 1552
जाया 1551
दृढ 1551
माल@@ 1551
रयाग 1551
गठबंधन 1549
डोर 1549
इतने 1548
सरदार 1548
रशांत 1547
उदय 1546
भरा 1546
राहकों 1546
कवियों 1545
कुशल 1545
समेत 1545
चेतना 1544
टोरिया 1543
पाइ@@ 1543
रमिक 1542
पेशकश 1541
हीन 1539
१९ 1539
रुक 1538
तरीकों 1537
धियों 1537
रपात 1537
विट 1537
चावल 1536
रत@@ 1536
महादेव 1535
रिचर 1535
१७ 1535
गोवा 1533
महर 1532
रेशन 1532
उपनाम 1531
तनों 1531
नाम@@ 1531
भद 1531
एण 1530
भागीदारी 1530
दिव 1529
मुसलमान 1528
णता 1527
लोन 1527
किसानों 1526
जनक 1525
ईंधन 1524
एकीकृत 1524
विंग 1524
काओं 1523
अंचल 1522
अवतार 1522
टेल 1522
वय 1522
जोकि 1521
ढाका 1521
इनकार 1520
लु 1519
घड 1518
तावित 1518
दंड 1518
थापन 1516
रिड 1516
C 1515
हुईं 1515
किट 1514
गेंदबाज 1514
वंशज 1514
सारा 1514
1977 1513
1982 1513
भेज 1513
बद@@ 1512
गहराई 1511
जार 1511
फसल 1511
मशहूर 1511
पहुंचने 1508
दूसरों 1507
मलेशिया 1507
ॉ@@ 1507
इतिहासकार 1506
इलाके 1506
पशुओं 1506
मानवीय 1506
4@@ 1505
अमीर 1505
7@@ 1504
आखिरी 1504
ऑल 1504
एका@@ 1503
घनत 1503
नग@@ 1503
बलों 1503
उपाध 1502
संपन 1502
ील 1501
ओड 1500
परंपरागत 1500
गुरु@@ 1498
विपक 1498
नमक 1497
राइट 1497
तः 1496
कोस 1494
नति 1494
जाय 1493
रजाति 1493
रोतों 1493
ियन 1493
पाता 1492
संगम 1492
सेवानिवृत 1492
मैंने 1491
गठित 1490
शासित 1490
उपर 1489
भार@@ 1489
भाषण 1489
षे@@ 1489
रणालियों 1488
दुष 1487
वालीफायर 1487
२१ 1487
5@@ 1486
नेपाली 1486
वाराणसी 1486
गीकृत 1485
जाएगी 1485
जोधपुर 1485
ठान 1485
बना@@ 1484
यवाद 1484
ेन 1484
साझा 1483
एट 1482
ऐ 1482
यावहारिक 1481
वीपों 1481
चना 1480
लीय 1480
रीस 1479
खुले 1477
नंद 1477
पराजित 1477
पाते 1477
रोन 1477
कडप 1476
दाब 1476
सूरज 1476
काला 1475
चौथी 1475
जंगली 1475
उसको 1474
चाहिये 1474
जितना 1474
थाई 1474
परिवारों 1474
केल 1473
गीता 1473
यटकों 1473
विकार 1473
वेश 1473
जनपद 1470
शाह@@ 1470
महाकाव 1469
आशा 1468
गतिविधि 1468
सज 1468
जैविक 1467
नात 1467
गरीब 1466
बिग 1463
मर@@ 1463
तुति 1462
बारह 1462
तरीका 1461
बताता 1461
परत 1460
सवाल 1460
पादित 1459
परामर 1456
आदिवासी 1455
कमजोर 1455
अगली 1453
ऋ@@ 1453
पाली 1453
नार@@ 1452
बह@@ 1452
बाढ 1452
गदर 1450
भारती 1450
दण 1449
नील 1449
विमानक 1449
अखिल 1448
लेयर 1448
साय@@ 1447
दवाओं 1446
पिंग 1446
निज 1445
1975 1444
पणी 1441
बायो@@ 1441
मेजबानी 1441
नामकरण 1440
यौ@@ 1440
समीकरण 1440
हाथी 1440
.. 1439
अमर 1439
डाय@@ 1439
फोट 1439
चैंपियनशिप 1437
वॉल 1437
गणेश 1436
एजेंसी 1435
यमिक 1435
राई 1435
बहती 1434
लित 1434
बेटा 1433
यूरो@@ 1433
चलाया 1431
आरंभिक 1429
ऍ@@ 1429
रज@@ 1429
सहज 1429
आसान 1428
सृष 1428
रियो 1427
हान 1426
कुल@@ 1425
मि 1425
रूप@@ 1425
संगीतकार 1424
२२ 1423
कथाओं 1422
यापारी 1422
विंडोज 1422
दीप 1421
1973 1420
चुनौती 1420
रखती 1420
1979 1419
योगों 1419
राओं 1418
इसीलिए 1416
उपाय 1416
झारखंड 1416
हाइट 1416
खतरा 1415
नव 1415
नाडु 1414
यताओं 1414
आलोचकों 1413
करणों 1413
शांत 1413
कहने 1412
1948 1411
डाक 1411
पब 1411
मगर 1411
सिम 1411
अनुरोध 1410
गिल 1410
रभा@@ 1410
वायत 1410
कुम 1409
गल@@ 1409
याल 1409
कैलिफोर 1407
मपुर 1407
हक 1407
ंच@@ 1406
आना 1406
ञों 1406
शीतकालीन 1406
गिरजाघर 1405
पैसे 1405
समग 1405
कुण 1404
नाक 1404
मुंगेर 1404
राणा 1404
ऋतु 1403
निन 1403
मां@@ 1403
सूचीबद 1403
२००८ 1403
सदन 1402
दिष 1401
लिंक 1401
सिको 1401
४० 1401
यूनतम 1400
षि@@ 1400
आय@@ 1399
लिखते 1399
उपा@@ 1398
जक 1398
रतिरोध 1398
खरीद 1396
किशोर 1394
कूलों 1394
घिरा 1394
छः 1394
पू 1394
पौ@@ 1394
काट 1393
1930 1391
अयोध 1391
करो 1391
गिरावट 1391
चलकर 1391
चिंता 1391
बोलने 1390
समुदायों 1390
1983 1389
कथित 1389
धी@@ 1389
1956 1388
मैग 1388
सुख 1388
दुश 1387
0@@ 1385
अवशेष 1385
बरी 1385
शतक 1385
संदेह 1384
300 1383
हथियार 1383
मांस 1382
तपस 1381
इट 1380
नजर 1380
पिथोरागढ 1380
ंगल 1379
आनन 1378
बती 1378
इराक 1377
इसलिये 1377
नकारात 1375
पाती 1375
लगने 1375
ौ 1375
तिरु@@ 1374
तह@@ 1372
मेदारी 1372
रेम@@ 1372
संपादित 1372
सोसाइटी 1372
1957 1371
भाँति 1371
for 1368
सहमति 1368
N@@ 1367
उक 1367
वली 1367
वालियर 1367
शेख 1367
षांश 1367
वाभाविक 1366
शेर 1366
आमंत 1365
ऑपरेशन 1365
चरणों 1365
हारे 1365
१९०@@ 1365
मरण 1364
योतिष 1364
ंडर 1363
झ 1363
शाब 1363
शे 1363
यूनियन 1362
8@@ 1361
बाल@@ 1360
रेटर 1360
विकिरण 1360
सहमत 1360
कमरे 1359
बसे 1359
मासिक 1359
निकाय 1358
यकताओं 1358
यूरो 1358
हट 1358
वैद 1357
रूढ 1355
संगठित 1355
असामान 1354
मुल 1354
योद 1354
सलाहकार 1354
२०१३ 1354
गाना 1352
ऊँचा 1351
सीन 1351
एकता 1350
वाय@@ 1349
कारकों 1348
संसाधनों 1348
टाउन 1347
सीता 1347
डच 1345
नौसेना 1345
,००० 1344
n 1344
दुस 1344
मुग 1344
रदेशों 1344
आधे 1343
गुफा 1343
धाम 1343
नाग 1343
निकालने 1343
बारी 1343
खनिज 1342
मीदवार 1342
गुजराती 1341
फेस 1341
गॉ@@ 1340
षति 1340
पाल@@ 1339
आजादी 1338
खन 1338
रथ@@ 1338
रामपुर 1338
२००६ 1338
पान 1337
फाइ@@ 1337
भोपाल 1337
रयोगशाला 1337
रिकाओं 1337
ंसी 1336
एडवर 1336
वैष 1336
वृ@@ 1334
नूर 1333
मुनि 1333
रख@@ 1333
लह@@ 1333
आरक 1331
साहब 1331
विफल 1330
तैयारी 1329
सत@@ 1329
मिया 1327
वाष 1327
वीकृति 1327
संवाद 1327
अमीरात 1326
1978 1325
मथुरा 1325
दोनो 1324
नवाब 1324
निगरानी 1324
1965 1322
B 1322
निकलने 1321
गाँधी 1320
टीट 1320
बजट 1320
बुलाया 1320
माताओं 1320
रंगों 1320
संशोधित 1320
1981 1318
टोक 1317
धूम 1316
कही 1315
टिकट 1315
मोक 1315
शुष 1315
ंब@@ 1314
जातियाँ 1314
निरीक 1314
नू 1314
वायु@@ 1314
वासी 1314
जाल 1313
पायी 1313
कानपुर 1312
मौका 1312
शरण 1312
संवत 1312
कोरियाई 1311
छोर 1311
जाँच 1311
भय 1311
1976 1310
सिविल 1310
हमने 1310
नामांकन 1309
रेमी 1309
नीदरलैंड 1308
लेज 1308
शती 1307
or 1305
टोर 1305
मेले 1304
मोदी 1304
लॉर 1304
33 1303
दायित 1303
मेर 1303
रजा@@ 1303
सबूत 1303
रचनाएँ 1302
डाटा 1301
देन 1301
कह@@ 1300
ञानी 1300
75 1299
लंघन 1299
वेग 1299
अनुमानित 1298
गाया 1297
टइंडीज 1297
मिंग 1297
amp 1296
गहरा 1296
२००७ 1296
पुरातत 1295
ञान@@ 1294
नं@@ 1294
नाइ@@ 1294
शानदार 1294
रीकरण 1293
पाये 1292
पोल 1292
बहुमत 1292
मिनी 1292
राणियों 1291
लाइसेंस 1291
संकलन 1290
आकृति 1289
पटेल 1289
महामारी 1289
यून 1289
वास@@ 1289
1969 1288
1974 1288
जान@@ 1288
फैल 1288
भुत 1288
राधा 1288
रकारों 1287
as 1286
हिंदुस 1286
नगरों 1285
शाया 1285
तावेज 1284
लाल@@ 1284
अनुसरण 1283
दशकों 1283
मानचित 1283
सौंदर 1283
भूमिकाओं 1282
कृतियाँ 1281
टीका 1281
तन@@ 1281
तेलुगु 1281
दित 1281
माप 1281
शनों 1281
कॉमिक 1280
जनों 1280
बाड 1280
रॉय 1280
अनुष 1279
जिनसे 1279
पाक 1279
बली 1278
गायन 1277
मादा 1277
अकेले 1276
छु@@ 1276
ारसी 1274
पावत 1273
वु@@ 1273
एलबम 1272
तंभ 1272
हारी 1271
36 1270
G@@ 1270
मणि 1270
वकील 1270
D@@ 1269
बनते 1268
वुड 1268
होनी 1268
नोबेल 1267
शाता 1267
गरम 1266
गहरी 1266
मापन 1266
लेखों 1266
निचले 1265
बख 1265
मद@@ 1264
सदा 1264
सीखने 1264
उठाया 1263
जोन 1263
नवा@@ 1263
१.@@ 1263
II 1262
यमुना 1262
यापन 1262
समझी 1262
सहारा 1262
दाता 1261
निकटतम 1259
मोटे 1258
शिशु 1258
6@@ 1257
पठार 1257
गीय 1256
गोपाल 1256
चं@@ 1256
नाथ@@ 1256
वभाव 1256
भंग 1255
विधियों 1255
ळ@@ 1254
नरेश 1253
जाय@@ 1251
डिप 1251
निकलती 1251
बातों 1251
विशेषताओं 1251
साहिब 1251
सिंहासन 1251
सियस 1250
रामा 1249
रायद 1249
ईरानी 1248
उग 1248
एकड 1248
भाव@@ 1248
टिकल 1247
पहल 1247
केस 1246
फिक 1246
लेश 1246
अचानक 1244
अनन 1244
डियन 1244
तुल 1244
खेत 1243
धन@@ 1243
रमश 1243
२०@@ 1243
कॉमेडी 1242
रांतिकारी 1242
हेक 1241
मंग@@ 1240
गौतम 1239
ताज 1239
२३ 1239
अभयारण 1238
शू@@ 1238
इतालवी 1237
डक 1237
विनिर 1237
कने 1236
माई 1236
यां 1236
शह@@ 1235
पल@@ 1234
हंडिया 1234
ंडे@@ 1233
भाजपा 1233
AM 1232
on 1232
असमर 1232
आँ@@ 1232
यर@@ 1232
संवैधानिक 1232
सल@@ 1232
सुपर@@ 1232
सूचित 1232
सैद 1232
चाई 1231
नाटकों 1231
बहु 1231
भूमध 1231
दलों 1230
गाय 1229
रभावों 1229
साधना 1228
दावली 1226
जिया 1225
ियो@@ 1225
मौर 1224
रमंडल 1224
संग@@ 1224
कांस 1222
गोत 1222
मतदान 1222
सख 1222
२०१६ 1222
वयन 1221
अंकित 1220
बचा 1220
रतिरक 1220
आदि@@ 1219
डम 1219
वीन 1219
सोच 1219
६० 1219
55 1218
इकट 1218
युगल 1218
रीकृष 1218
हॉकी 1218
२०१२ 1218
कैल 1217
पारिवारिक 1216
सक@@ 1216
सापेक 1216
बनती 1215
रबंधक 1215
उपमहाद 1214
जायेगा 1214
तरार 1213
नहर 1213
बीस 1213
वध 1213
सटीक 1213
२६ 1213
कंट 1212
नागपुर 1212
निधि 1212
रकारिता 1212
डि 1211
याति 1211
रचनात 1211
लगाए 1211
रेणियों 1210
वल@@ 1210
चरम 1209
टाटा 1208
झा 1207
फाउंडेशन 1207
J@@ 1206
असली 1206
खाली 1206
लाज 1206
पहुंचे 1205
मधु@@ 1205
शूटिंग 1205
खुला 1204
महारानी 1204
यव@@ 1204
हराकर 1204
9@@ 1203
अला@@ 1203
सीमाओं 1203
टूट 1202
खून 1201
नींव 1201
लते 1201
तख 1200
जानने 1199
पुरम 1199
२००० 1199
असर 1198
रवासी 1198
समाजवादी 1197
अवैध 1196
सैयद 1196
अंडर 1195
टेबल 1195
तालाब 1195
बहस 1195
तल@@ 1194
राण@@ 1194
२७ 1194
मैरी 1192
रफ 1192
विकिपीडिया 1192
हैरी 1192
छे@@ 1191
M@@ 1190
रोध 1189
टान 1188
बुरी 1188
महिलाएं 1188
सफलतापूर 1188
सहस 1188
गयीं 1187
चाल 1187
उठा 1186
चौथा 1186
चौहान 1186
1920 1185
जरूरी 1185
थॉमस 1185
मूलतः 1185
बोलते 1184
रिकार 1183
सियों 1183
H@@ 1182
कोटा 1182
दादा 1182
नाल 1182
फास 1182
यवादी 1182
P@@ 1181
२०१५ 1181
गज 1180
नीतियों 1180
बौ@@ 1180
लाक 1180
T@@ 1179
ंप@@ 1179
टने 1179
रांसिस 1179
पूंजी 1178
बनवाया 1178
1968 1177
खतरे 1177
बाध 1177
बाबू 1177
खे 1176
परिणामों 1176
https 1175
तापूर 1175
अनुच 1174
खाता 1174
रतिवर 1174
1964 1173
रखकर 1173
रबल 1173
हिसाब 1173
दरी 1171
देगा 1170
रोडक 1170
लोहे 1170
छो@@ 1169
चेहरे 1168
माँ@@ 1168
चिड 1167
संतुलन 1167
1966 1166
थि 1166
बाँ@@ 1166
बातें 1166
मैसूर 1166
रव@@ 1166
सवार 1166
िम 1166
मक@@ 1165
रेत 1165
भाषी 1164
37 1163
1000 1162
इर 1162
उद@@ 1162
खंड@@ 1162
रतिदिन 1162
रमाणित 1161
शनी 1161
घास 1160
टॉप 1160
पाय@@ 1160
भरे 1160
मुखर 1160
रणनीति 1160
परियोजनाओं 1159
फिलिप 1159
दारी 1158
बाधा 1158
रोसॉफ 1158
सू 1158
तलाश 1157
वचन 1157
W@@ 1156
तरण 1155
लाना 1155
रगुप 1154
गौरव 1153
ोसी 1152
an 1151
रजत 1150
लाखों 1150
संपादन 1150
अफ@@ 1149
तटीय 1149
लोर 1148
20@@ 1147
रजा 1147
कालेज 1146
तकर 1146
दूरदर 1146
भग@@ 1146
लिका 1146
सुल@@ 1146
ऐक 1145
भाषा@@ 1145
जानवर 1144
देशी 1144
रनों 1144
लाइफ 1144
घूर 1143
सूरा 1143
मुकाबले 1142
रब 1142
गानों 1141
जीवन@@ 1140
बदलकर 1140
रवादी 1140
लेंस 1140
विभक 1140
आवासीय 1139
ऋग 1139
गणितीय 1139
टाइल 1139
पीछा 1139
यमकेश 1139
चि 1138
सिंचाई 1138
जीती 1137
वाहक 1137
38 1136
छन 1136
हितों 1136
होली 1135
ाव 1135
ठे 1134
ञ@@ 1133
२८ 1133
खूबसूरत 1132
छिद 1132
टेम 1132
बान 1132
कायम 1131
कैन 1131
भावनाओं 1131
वें@@ 1131
संतान 1131
वाणी 1130
करों 1128
युनिस 1128
राधिकरण 1128
शुभ 1128
लेबाजी 1127
विया 1127
गिरि 1126
नातकोत 1125
पिल 1125
वीकृत 1125
समक 1125
सशस 1125
अबू 1123
जाट 1123
रूज 1123
लना 1123
हफ 1123
अण 1122
पीने 1122
हल@@ 1122
जिंग 1121
थम 1121
by 1120
यम@@ 1120
वयुद 1120
वारी 1120
1.@@ 1119
400 1119
एज 1119
कथन 1119
तारीख 1119
रिसर 1119
अनुसूचित 1118
डू 1118
फैशन 1118
कुन 1117
तीस 1117
रहमान 1117
सॉ@@ 1117
पो 1116
i 1115
इंदिरा 1115
मामला 1115
रदूषण 1115
लॉजी 1115
ंगर 1113
अंगों 1113
पुरा@@ 1113
PM 1112
मराठा 1112
सैकड 1112
हसन 1112
तालिका 1111
राजकीय 1111
रीमती 1111
19वीं 1110
जेट 1110
भा 1110
रिपब 1110
विहार 1110
मुख@@ 1109
गुण@@ 1108
सोनी 1108
अखबार 1107
मिल@@ 1107
१०० 1107
नेवाला 1106
लिट 1106
गिर@@ 1105
थी@@ 1105
भाष 1105
आपकी 1104
पारिस 1104
विभागों 1104
इंजीनियर 1103
एयरलाइन 1103
शोधकर 1103
सिया@@ 1103
तौ@@ 1102
मुफ 1102
रेटिंग 1102
षेपण 1102
चाय 1101
दीवारों 1101
डित 1100
34 1099
S@@ 1099
चाहती 1099
विध 1098
तक@@ 1097
दपुर 1096
बकीय 1095
राहुल 1095
रैंड 1095
एर 1094
वागत 1094
उन@@ 1093
जला@@ 1093
यापी 1093
रोजेक 1093
जिब 1092
थिएटर 1092
पहुँचने 1092
बादशाह 1092
इनसे 1091
रिल 1091
लत 1091
1940 1090
अहमदाबाद 1090
गहरे 1090
यं@@ 1090
काउंसिल 1089
जीर 1089
दुओं 1089
चुंबकीय 1088
टाइप 1088
भर@@ 1088
मैट 1088
बयान 1087
भास 1087
अकाल 1086
तांत 1086
मेवाड 1086
सरकारों 1086
हिप 1086
उदयपुर 1085
णकटिबंधीय 1085
रनाथ 1085
भले 1084
टी20ई 1083
फोटोग 1083
टील 1082
लेफ 1080
वाकर 1080
िन 1080
कालिक 1079
खनन 1079
देह 1079
रचलन 1079
शिवाजी 1079
एडि@@ 1078
रवाल 1078
कविताओं 1077
काइ@@ 1077
बारिश 1077
एपिसोड 1076
लोराइड 1076
उल@@ 1075
सोलहवीं 1075
एकदिवसीय 1074
कहलाते 1074
D 1073
O@@ 1073
गंगा@@ 1073
नली 1073
बंग@@ 1073
रती 1073
1961 1072
छाया 1072
ई० 1071
एसिड 1071
फूलपुर 1071
जीव@@ 1069
धू@@ 1069
65 1068
चैंपियन 1068
णव 1067
फैक 1067
यायिक 1067
सीधा 1067
N.Z.A. 1066
निक@@ 1066
लिफ 1066
अतीत 1065
कटिक 1065
वेज 1065
that 1064
जंगलों 1064
थिरता 1064
रेगिस 1064
वाहनों 1064
10@@ 1063
पेय 1063
मेजर 1063
हटाने 1063
१,@@ 1063
1963 1062
बॉम 1062
याँ 1062
वाना 1062
कहलाती 1061
केप 1061
V@@ 1060
परिचित 1060
C@@ 1059
कथानक 1059
कनेक 1059
भूकंप 1059
वादियों 1059
विभा@@ 1059
२००१ 1059
८० 1059
उतना 1058
गुरुत 1058
बिट 1058
राइव 1058
शाखाओं 1058
पॉप 1057
बू 1057
सुविधाएं 1057
ेद 1057
अणु 1056
औषधि 1056
औसतन 1056
कुरान 1056
पतियों 1056
पहुँचा 1056
पाश 1056
योगी 1056
रैंकिंग 1056
शय 1056
R 1055
सेनाओं 1055
साहन 1053
अव 1052
कीं 1052
घात 1052
वरों 1052
जूनियर 1051
तरराष 1051
निकला 1051
विनाश 1051
रवाद 1050
लेशन 1050
षु 1050
de 1049
जियम 1049
अनुयायी 1048
कॉल 1048
दोषी 1048
बुर 1048
रूम 1048
वसा 1048
कलात 1047
साउथ 1047
वितरित 1046
काँ@@ 1045
घा 1045
परिकल 1045
योहार 1045
हरा@@ 1045
ुक 1045
गले 1044
पंद 1044
लियो@@ 1044
48 1043
गेंदबाजी 1043
ताएं 1043
फॉ@@ 1043
मीरी 1043
अनेकों 1042
बिहारी 1042
मानने 1042
राजा@@ 1042
लौटने 1042
वोट 1042
एंटी@@ 1041
खोल 1041
टेलीविज 1041
महावीर 1041
मानकों 1041
आधा 1040
इकाइयों 1040
णि 1040
वसन 1040
सास 1040
तकनीकों 1039
तिया 1039
वासन 1039
विं@@ 1039
E 1038
देहरादून 1038
भोज 1038
मुलाकात 1038
पैदल 1037
वेतन 1037
150 1036
यार@@ 1036
१९@@ 1036
इंडोनेशिया 1035
इलाक 1034
कणों 1034
निशान 1034
पुराणों 1034
बॉल 1034
टिका 1033
लखीसराय 1033
लाए 1033
शं@@ 1033
काण 1032
पोरेट 1032
1955 1031
पाठक 1031
रेडिट 1031
शहीद 1031
2.@@ 1030
ंच 1030
टेंट 1030
तिका 1030
षरों 1030
अपील 1029
गोल@@ 1029
दार@@ 1029
फेफड 1029
आप@@ 1028
जागरण 1028
रूर 1028
वां@@ 1028
१८९@@ 1028
अवसरों 1027
ताम 1027
घातक 1026
रेंज 1026
वीपसमूह 1026
दिग 1025
नाना 1025
सिग 1025
सीरिया 1025
पिस 1024
रर 1024
रांतीय 1024
शिलालेख 1024
ोस 1024
जं@@ 1023
एव@@ 1022
कोटि 1022
होनें 1022
52 1020
डालने 1020
तरिक 1020
नगरी 1020
असाधारण 1019
परे 1019
रवास 1019
T 1018
पारस 1018
भाइयों 1018
भारतीयों 1018
गति@@ 1017
जगहों 1017
मानता 1017
यवर 1017
राजील 1017
संलग 1017
इंदौर 1016
रावधान 1016
वेदों 1016
ंक@@ 1015
खबर 1015
अनुयाई 1014
रोग@@ 1014
हिम 1014
गोविन 1013
णक 1013
पाउंड 1013
रूपांतरण 1013
ास 1013
1949 1012
किक 1012
विवेचन 1012
षु@@ 1012
बहुसंख 1011
२००५ 1011
,@@ 1009
छुट 1009
ई.पू. 1008
बाला 1008
आल 1007
इमारतों 1007
भेजने 1007
मिसाइल 1007
लेखा 1007
पैरा@@ 1006
रविष 1006
अनाज 1005
कहती 1005
जनित 1005
मच 1005
राइड 1005
एलेक 1004
किर 1003
तगाली 1003
महाराणा 1003
सकी 1003
जोशी 1002
पावर 1002
कहे 1001
राजकुमारी 1001
संश 1001
M 1000
अंडे 1000
धु 1000
रहें 1000
वरुप 1000
गहन 999
समापन 999
1945 998
कू 998
पत@@ 998
ीसा 998
टिया 997
थानी 997
रियर 996
अज@@ 995
अध@@ 995
रें 995
42 994
हमलों 994
A@@ 993
अंतर@@ 993
कोप 993
फेट 993
विलुप 993
टीज 992
तराखंड 992
याएं 992
योजनाओं 992
ववर 992
पिछली 991
सोडियम 991
ाना 991
अनुपस 990
गणतंत 990
नाटकीय 990
पहलुओं 990
पोरेशन 990
रहेगा 990
ॉन 990
आवेदन 989
नाय@@ 989
याह 989
राव@@ 989
वनों 989
L@@ 988
घि@@ 988
नेवाली 988
लिया@@ 988
शोषण 988
२००४ 988
भेड 987
मुखी 987
रहकर 987
आख 986
खुदाई 986
बैंकों 986
सेकंड 986
चिल 985
मांकन 985
मोडा 985
राजीव 985
64 984
I@@ 984
शन@@ 984
al 983
कारोबार 983
डिय@@ 983
रतिबंधित 983
l 982
गांवों 982
फैले 982
मग 982
मेज 981
यूके 981
येष 981
समाजशास 981
1954 980
सिंध 980
उपदेश 979
रभुत 979
विटामिन 979
विषाणु 979
शनीय 979
हमारा 979
.com 978
m 978
नैदानिक 978
मोनो@@ 978
निकलता 977
फूलों 977
रियम 977
सांरगढ 977
जगन 976
पंजीकृत 976
पोप 976
षिणपूर 976
ाइल 976
दिलचस 975
वियतनाम 975
समझ@@ 975
अभिक 974
आराम 974
कबीर 974
जलप 974
टु 974
1946 973
गुज@@ 973
मापी 973
खगोलीय 972
पेनिश 972
बनकर 972
शौ@@ 972
आध@@ 971
बैंकिंग 971
लेड 971
इला@@ 970
गायत 970
चालू 970
लगाकर 970
सबर 970
कष 969
टॉम 969
धे 969
योर 969
अंटार 968
औपनिवेशिक 968
जात 968
विनिमय 968
चलचित 967
थता 967
लीज 967
लैश 967
इयों 966
काला@@ 966
छंद 966
राउन 966
लाकर 966
सती 966
सदैव 966
छिक 965
ठों 965
लामिक 965
वालामुखी 965
तरंग 963
दै@@ 963
नाश 963
बैठे 963
मोल 963
केश 962
रोकार 962
सतत 962
यूएस 961
आंग 960
साई 960
आवर 959
डेमोक 959
लती 959
२०१७ 959
खर@@ 958
पूछा 958
बेडकर 958
रकला 958
उठाने 957
लिंग@@ 956
अलेक 955
टकर 955
इंड@@ 954
भीम 954
यॉर 954
K@@ 952
उपरांत 952
एजेंट 951
तपुर 951
थै@@ 951
नुक 951
लघु@@ 951
लॉग 951
विष@@ 951
सिंह@@ 951
1958 950
उपासना 950
दारों 950
कॉट 949
थाईलैंड 949
रवाहित 949
७० 949
किरण 947
F 946
इनको 946
कोलंबिया 946
गोरखपुर 946
बनाम 946
बहने 946
मिला@@ 946
रवि 946
आदित 945
बॉन 945
लोबल 945
पहलू 944
फंड 944
माँग 944
लोकतंत 944
सीक 944
थु@@ 943
मुकाबला 943
ऊँची 942
चोटी 942
फाल 942
साथियों 942
कुंड 941
तलाक 941
बिलकुल 941
मुकदमा 941
सूचक 941
२०१८ 941
1951 940
चेतावनी 940
पेज 940
फैली 940
ारे 940
ओलम 939
रंगमंच 939
खासकर 938
गिरी 938
टेयर 938
सेनानी 938
दुबई 937
मणिपुर 937
रें@@ 937
हिम@@ 937
करार 936
करे@@ 936
घोष 936
मूल@@ 936
यथा@@ 936
रिफ 936
ंडि@@ 935
खतरनाक 935
बँ@@ 935
बाघ 935
मरी 935
महोत 935
राहत 934
ओल 933
तेलंगाना 933
दिखाने 933
नुसार 933
मिन@@ 933
1959 932
गौड 932
भाषाई 932
ारि@@ 932
यौगिकों 931
शिप 931
हू 931
थापत 930
मॉन 930
साइंस 930
सामुदायिक 930
रक@@ 929
राफिक 929
सं 929
काई 928
नगरपालिका 928
अंतराल 927
कुमार@@ 927
बीकानेर 927
हांगकांग 927
07 926
08 926
ऊंची 926
चोरी 926
जावा 926
डाउन 925
धातुओं 925
पिथौरागढ 925
लॉ 925
चल@@ 924
जॉ@@ 924
दूत 924
नज@@ 924
नाओं 924
मानव@@ 924
06 923
जीवाश 923
टेली@@ 923
बुल@@ 923
५०० 923
c 922
ंदर 922
मरा@@ 922
सकल 922
करेगी 921
देखता 921
पारम 921
रोही 921
कैद 920
फलन 920
सदियों 920
ईसवी 919
गुरू 919
निया@@ 919
बनावट 919
सऊदी 919
सचेंज 919
ईं 918
मतभेद 918
वनाथ 918
E@@ 917
कीट 917
जिल 917
नाज 917
वदेशी 917
सोल 917
पूरक 916
बाँध 916
महि@@ 916
मातृभाषा 916
यासों 916
चमक 915
जिनमे 915
भूटान 915
लीला 915
सृजन 915
इतिहासकारों 914
पहचाना 914
मुन 914
आयात 913
ठे@@ 913
तिन 913
51 912
दमन 912
वादा 912
इंटर 911
इंडीज 911
ऑव 911
तमाम 911
निकटता 911
सें 911
ंडों 910
तेलुगू 910
रॉ 910
टार@@ 909
डीसी 909
ययनों 909
वतों 909
झिल 908
मदर 908
पंथ 907
संगत 907
R@@ 906
गां@@ 906
टी20आई 906
दाय@@ 906
पैरों 906
वहन 906
मंजूरी 905
राब 905
साझेदारी 905
२००३ 905
भाग@@ 904
समतल 904
बेचने 902
लुक 902
सेनापति 902
47 901
अजय 901
खारिज 901
बचे 901
संजय 901
२९ 901
05 900
बेड 900
लौह 900
हरि 900
रीब 899
सीसी 898
with 897
एकीकरण 897
छूट 897
पिछड 897
फायर 897
मालवा 897
लव@@ 897
वैध 897
उपनिषद 896
डेस 896
परेशान 896
लुप 896
वसनीय 896
बचा@@ 895
साप 895
44 894
जरिए 894
नेक 894
शंस 894
जानता 893
टीरिया 893
नाड 893
रकरण 893
अटलांटिक 892
लॆ 892
अकार 891
कलन 891
कें 891
टाई 891
दय 891
दाएं 891
निबंध 891
परास 891
संन 891
कित 890
दौ@@ 890
धृत 890
बानी 890
रायन 890
साधनों 890
साह@@ 890
S 889
was 889
रोशनी 889
संघ@@ 889
चमत 888
तनत 888
निकी 888
रघु@@ 888
वाज 888
विधेयक 888
N 887
नेन 887
मिलन 887
यूनि@@ 887
टियाँ 886
तारित 886
तिस 886
देरी 886
चौक 885
तृ@@ 885
रपान 885
सीधी 885
सु 885
तुलनात 884
लगाना 884
en 883
गुस 883
धांतिक 883
महमूद 883
रेरी 883
शिवलिंग 883
अतिथि 882
ऊतक 882
घट 882
भागवत 882
वैन 882
1@@ 881
नामांकित 881
पहुँचे 881
फलों 881
अग@@ 880
आसन 880
तैनात 880
पं 880
पाप 880
मलिक 880
सिरे 880
डीज 879
ताई 879
समाधि 879
अभिप 878
मनु 878
मिलान 878
F@@ 877
खी@@ 877
बंध@@ 877
बेच 877
यकृत 877
शम 877
टमेंट 876
पैक 876
भै@@ 876
राही 876
षस 876
99 875
आवागमन 875
टाइन 875
तरा 875
नु 875
लेख@@ 875
सुनाई 875
ऊँचे 874
भण 874
अनिश 873
डीएनए 873
धारक 873
विदेशों 873
वेर 873
शोथ 873
कथा@@ 872
करनेवाले 872
कांत 872
तिहाई 872
थरों 872
पैलेस 872
लगाते 872
सशक 872
95 871
जीवाणु 871
तावाद 871
परिष 871
ंडो 870
तारामंडल 870
रामा@@ 870
लेबल 870
कमा@@ 869
खुश 869
सोसायटी 869
दश@@ 868
०० 868
कमान 867
कोयला 867
खरीदने 867
णिया 867
पुण 867
राइल 867
रियाई 867
लिं@@ 867
संबोधित 867
आपसी 866
कहकर 866
णिमा 866
सौंप 866
हं@@ 866
हथियारों 866
झारखण 865
मोह@@ 865
ुद 865
तिलक 864
देखना 864
बग 864
बलि 864
लेम 864
संवर 864
ढांचे 863
विधा 863
वीडन 863
गलती 862
पिट 862
बी.@@ 862
रुवीय 862
ंडा@@ 861
कठिनाई 861
मत@@ 861
रभाग 861
शिकायत 861
X 860
नाव 860
यां@@ 860
कु 859
खों 859
मुड 859
रतिबद 859
वरन 859
1857 858
चाचा 858
जाम 858
भंडार 858
शिकागो 858
सफर 858
हि 858
अधिकृत 857
तुतः 857
बृहस 857
सकर 857
b 856
बरा@@ 856
बहा@@ 856
मानस 856
रोफ 856
सकों 856
ोत 856
३१ 856
1942 855
आयी 855
चस 855
जितनी 855
नारी 855
विवादास 855
सांप 855
जंग 854
रशस 854
घटित 853
दिखने 853
रसा@@ 853
आतंकवादी 852
आपका 852
कैबिनेट 852
टेशनों 852
ढा 852
यौहार 852
डेक 851
नेर 851
वासियों 851
सफ@@ 851
२.@@ 851
39 850
are 850
तीफा 850
पैटर 850
१९९० 850
अंकों 849
थो 849
वतीय 849
एलि@@ 848
खूब 848
चेस 848
टना 848
टें 848
वेद@@ 848
शैलियों 848
कना@@ 847
खुशी 847
पवन 847
भेंट 847
ओमान 846
गोर 846
तिमान 846
रतियोगिताओं 846
सुनकर 846
हिं@@ 846
अपूर 845
जाएँ 845
तां@@ 845
नियाँ 845
बनायी 845
यकालीन 845
षड 845
सोर 845
टी20 844
बाजी 844
भिकियासैण 844
रामिंग 844
वचालित 844
धनी 843
पैसा 843
बताती 843
मेयर 843
राजशाही 843
रधानमन 842
लाव 842
सिंड 842
ंत@@ 841
एग 841
ङ@@ 841
निभाया 841
बेक 841
उपनिषदों 840
गरीबी 840
टैग 840
मकता 840
रूण 840
२०० 840
अपहरण 839
आयरिश 839
हेड 839
04 838
गायिका 838
तलवार 838
पीले 838
पॉलि@@ 838
वीपीय 838
III 837
एंजिल 837
एयरलाइंस 837
नाई 837
बाग@@ 837
1953 836
अवलोकन 836
आनुवंशिक 836
घन 836
पसंदीदा 836
मरने 836
महेश 836
संवेदनशील 836
होस 836
अपर 835
इड 835
ओन 835
गुल@@ 835
जिसको 835
नग 835
मै 835
राजदूत 835
2022 834
43 834
46 834
पियन 834
भाप 834
मौलाना 834
लोस 834
षण@@ 834
सुख@@ 834
41 833
थियेटर 833
दल@@ 833
रखंड 833
रेंस 833
लाइब 833
संकाय 833
साह 833
L 832
कली 832
बनारस 832
संयोग 832
सिफारिश 832
कितना 831
भावी 831
वंशी 831
हिंसक 831
कवि@@ 830
कोइल 830
भों 830
मांड 830
मॉर 830
राजनयिक 830
वायर 830
कायमगंज 829
कैं@@ 829
चंडीगढ 829
चेक 829
ञता 829
पेटेंट 829
भरत 829
मारी 829
रोप 829
षार 829
संकेतों 829
ठहराया 828
दाई 828
शनल 828
सोशल 828
परिचालन 827
फौ@@ 827
बता 827
रसूल 827
at 826
पुरातात 826
बंधन 826
भेजे 826
कुमारी 825
तीं 825
यानों 825
राद 825
रोकथाम 825
ियाई 825
चूँकि 824
पें@@ 824
वकालत 824
डेड 822
ताहिक 822
सवारी 822
टानों 821
तारी 821
बादल 821
लोकतांत 821
शॉट 821
सेमी 821
y 820
किलो 820
V 819
ंगो 819
अपवाद 819
गिटार 819
देवनागरी 819
बेहतरीन 819
बोले 819
यमन 819
85 818
कैलेंडर 818
दगी 818
बाएं 818
यवाही 818
सुन@@ 818
हारा 818
रियाँ 817
खुली 816
चेरी 816
मेजबान 816
योनि 816
सिडनी 816
कमीशन 815
जीवी 815
बस@@ 815
मुंह 815
उतर@@ 814
फार@@ 814
मणों 814
वीराज 814
उपेक 813
जेक 813
धात 813
रूचि 813
हानिकारक 813
टीमें 812
महासचिव 812
रसंग 812
सौंपा 812
िवादी 812
२००२ 812
धड 811
रजातियां 811
पोशाक 810
भौ@@ 810
लिख 810
वाशिंगटन 810
3.@@ 809
अजमेर 809
आईटी 809
घी 809
फल@@ 809
विजय@@ 809
सेतु 809
ref 808
कितनी 808
यापारियों 808
दाख 807
दूतावास 807
परिपथ 807
भेदभाव 807
अनुदान 806
आजाद 806
चिप@@ 806
नदियाँ 806
लीफ 806
१८८@@ 806
एडम 805
तूफान 805
पूल 805
सरी 805
कहानियाँ 804
चारी 804
जना 804
रोटोकॉल 804
संभाला 804
ंट@@ 803
बलात 803
मेगा@@ 803
समावेश 803
०३ 803
आपराधिक 802
खाई 802
रानीखेत 802
हैम 802
अपितु 801
ओडिशा 801
जेस 801
बेरी 801
चूर 800
जहाजों 800
डियों 800
बेर 800
भांति 800
मरीज 800
साध 800
53 799
56 799
अपराधी 799
धीमी 799
पिंड 799
बीसवीं 799
लेग 799
शपथ 799
सिंधु 799
ेगा 799
विमानों 798
सीटों 798
उपहार 797
जोसेफ 797
डु 797
धरोहर 797
पायलट 797
वतमाला 797
अका@@ 796
अदा 796
आलोचक 796
कोने 796
यश 796
रशंसकों 796
रीनगर 796
वट 796
शियल 796
िस 796
1936 795
अहम 795
उपक 795
एलन 795
ओम 795
दुकान 795
फैसले 795
बेगम 795
संभल 795
हॉलीवुड 795
ंगे@@ 794
घे@@ 794
राजेश 794
रिं@@ 794
लां@@ 794
वीय 794
साँ@@ 794
अवध 793
जरिये 793
निकले 793
भूल 793
यतीत 793
०२ 793
नंद@@ 792
बीबीसी 792
रमिकों 792
उपरोक 791
ओस 791
डॉन 791
थानिक 791
मती 791
संभवत 791
ानिस 791
ः@@ 790
ईयों 790
गामी 790
थकों 790
नृ@@ 790
फसलों 790
हब 790
गुलाम 789
तने 789
निभाने 789
फीचर 789
यशास 789
अवकाश 788
गिरि@@ 788
छल 788
मरम 788
लद 788
लानी 788
विकासशील 788
एम.@@ 787
ऑपरेटिंग 787
टीव 787
ताएँ 787
देंगे 787
सीय 787
इसपर 786
खुर 786
खोजने 786
गामा 786
रिट 786
मेहता 785
सुना 785
ारी@@ 785
1,@@ 784
गणितज 784
भुज 784
मालूम 784
वेट 784
संतुष 784
सफोर 784
ेक 784
हिंदुओं 783
दया@@ 782
01 781
ऑप 781
खाँ 781
झाड 781
तुएँ 781
रंगीन 781
रतिकूल 780
ियम 780
अभिलेख 779
नोलॉजी 779
पसन 779
परागत 778
समकक 778
सुदूर 778
बैटरी 777
शरीफ 777
परंपराओं 776
बीमार 776
युनाइटेड 776
http 775
डोमेन 775
नैतिकता 775
सोचा 775
अख 774
तूर 774
रवार 774
वत@@ 774
हदीस 774
00 773
किं@@ 773
जातक 773
ठि@@ 773
रीड 773
रुपए 773
समझते 773
ंगों 772
झू@@ 772
दांत 772
मानों 772
शिमला 772
साधु 772
नमाज 771
सेना@@ 771
भरता 770
वाण 770
ॆ@@ 770
अभियांत 769
गमन 769
बरकरार 769
शेक 769
साइक 769
सूरत 769
ीकरण 769
1939 768
चोपड 768
फुल 768
माली 768
रेनी 768
ाते 768
ाम 768
विवेक 767
h 766
आतंकवाद 766
खुलासा 766
राथमिकता 766
72 764
एवम 764
णि@@ 764
नियत 764
सोम 764
आचरण 763
आम@@ 763
उजागर 763
कमांडर 763
टिनेंट 763
ठंडा 763
डेनमार 763
दबा@@ 763
वाग 763
ंश 762
एंग 762
तना 762
ताकत 762
धे@@ 762
वेयर 762
शोर 762
हालत 762
26@@ 761
शनि 761
ौली 761
गुन 760
भड 760
रहार 760
रेरक 760
शियन 760
सुनने 760
600 759
अररिया 759
नीले 759
रेता 759
चीजों 758
टाइगर 758
णायक 758
नाते 758
रतिपादन 758
हवेली 758
49 757
अलंकार 757
खंडों 757
विधि@@ 757
०.@@ 757
उपनिवेश 756
छड 756
निको@@ 756
रोशन 756
लीप 756
सेज 756
54 755
आगामी 755
डिब 755
धनुष 755
पेनी 755
रंथि 755
लाई@@ 755
वू@@ 755
गुल 754
भयंकर 754
रुत 754
समु@@ 754
कंपनियां 753
३५ 753
यारह 752
ोल 752
जागरूकता 751
टोनी 751
तराधिकार 751
देखरेख 751
नमूने 751
रविवार 751
इंगित 750
तिवारी 750
बैंगलोर 750
भूमिगत 750
वायुमंडल 750
ोड 750
आदान 749
खपत 749
खेड 749
झो@@ 749
डीन 749
दायर 749
मनाने 749
समुच 749
1941 748
आवरण 748
कानूनों 748
दीपक 748
नरेन 748
परिदृश 748
पोषक 748
मजदूर 748
मणि@@ 748
लुई 748
विफलता 748
हावड 748
मेघालय 747
मेह@@ 747
1937 746
कीन 746
बालों 746
बोला 746
युवाओं 746
रगतिशील 746
रीन@@ 746
लख@@ 746
९० 746
d@@ 745
अपनाने 745
कराची 744
खरीदा 744
गने 744
नोकिया 744
रिजर 744
अभिनीत 743
उपयोगिता 743
दलित 743
परिमाण 743
मैत 743
लगाई 743
लिज 743
दरों 742
फिन 742
सरलता 742
U@@ 741
परक 741
लीड 741
40@@ 740
p 740
ऑटो@@ 740
करवा@@ 740
डली 740
दोपहर 740
संकलित 740
सोना 740
1900 739
काटने 739
पां@@ 739
मानकर 739
मिता 739
यक@@ 739
रेसिंग 739
विशेषताएं 739
सूच@@ 739
from 738
अपना@@ 738
डांस 738
दाल 738
रधा@@ 738
वादक 738
1919 737
एयर@@ 737
छठी 737
तविकता 737
दं@@ 737
रणा@@ 737
राइस 737
शेखर 737
सेप 737
ियाना 737
कोल@@ 736
जाइ@@ 736
तम@@ 736
बाइ@@ 736
मामूली 736
यवाणी 736
यावरणीय 736
रोधी 736
सराय 736
आस@@ 735
कद 735
कारखाने 735
काली@@ 735
गली 735
थलीसैंण 735
भरने 735
विशेषताएँ 735
आह 734
घट@@ 734
तनी 734
मकान 734
लूज 734
लैम 734
आईसी@@ 733
इंडस 733
कितने 733
घुड 733
चैत 733
निंदा 733
नियोजित 733
राइज 733
राकृत 733
वसंत 733
web 732
अय 732
गिरने 732
परिपक 732
रजिस 732
O 731
US 731
ंडल 731
अतएव 731
अमृतसर 731
कैमरा 731
पूजन 731
वीज 731
सीढ 731
अरुण 730
आउट@@ 730
ईसापूर 730
गिन 730
चिंतन 730
छू@@ 730
रकाश@@ 730
वराज 730
250 729
www.@@ 729
केबल 729
गीतकार 729
तरित 729
बिलारी 729
रंश 729
रविड 729
सीता@@ 729
िये 729
ेश 729
ॉ 729
G 728
टीकरण 728
डाली 728
मदा 728
वाहि@@ 728
सिम@@ 728
हॉट 728
नाद 727
राई@@ 727
शव 727
सफाई 727
ूल 727
ए.@@ 726
पुट 726
मिमी 726
मूलभूत 726
रयोजन 726
रूद 726
1932 725
तगाल 725
बिज 725
माधव 725
मुजफ 725
विलयन 725
हिंद 725
ऐंड 724
टिम 724
डिया@@ 724
डेब 724
ढो@@ 724
धूप 724
रिंस 724
रेसि@@ 724
करन 723
दयाल 723
पाठ@@ 723
शिविर 723
ंदा 722
ऐं@@ 722
गुं@@ 722
डोल 722
नुमा 722
मूलन 722
राजेन 722
लगा@@ 722
लेप 722
िर 722
००० 722
अंड@@ 721
ओक 721
कटिका 721
काएँ 721
घटकों 721
जाएंगे 721
पारि@@ 721
बीर 721
मुँह 721
राचार 721
सिकन 721
षो 720
सद@@ 720
सने 720
हरिद 720
ऊंचा 719
बहिष 719
बुरा 719
विग 719
सूचकांक 719
57 718
आयुक 718
टून 718
वान@@ 718
एयरपोर 717
यायाम 717
वेदी 717
समे@@ 717
सैक 717
खिड 716
पृ@@ 716
पैट 716
मेघ@@ 716
ञापनों 715
थयात 715
यूम 715
वांछित 715
सूफी 715
50@@ 714
66 714
d 714
आशय 714
खेली 714
घंटा 714
बनना 714
रांतों 714
ेस 714
web.archive.org 713
उमर 713
कृपा 713
टग 713
मता 713
यूजिक 713
यूनिट 713
रेटिक 713
विज@@ 713
सहा@@ 713
अवयव 712
औरंगजेब 712
दिखता 712
बरा 712
भालू 712
ललित 712
आँखों 711
देल 711
मति 711
रता@@ 711
वैक 711
घने 710
झूठ 710
टिल 710
बिशप 710
यवेक 710
0.@@ 709
आंखों 709
एससी 709
कंप@@ 709
कपास 709
जवान 709
जुर 709
णिक 709
तरां 709
यूं 709
लोरिडा 709
िशा 709
ंडे 708
नरी 708
भूतपूर 708
मण@@ 708
माउंट 708
याव@@ 708
वाइरस 708
वाटर 708
सरो@@ 708
हिरण 708
ीलैंड 708
अमे@@ 707
एचआईवी 707
ऐन 707
कात 707
नीसवीं 707
मिड@@ 707
वेषण 707
शीत@@ 707
हराने 707
120 706
अनौपचारिक 706
पोत 706
रवि@@ 706
रियां 706
संध 706
समी@@ 706
U 705
ंची 705
चमड 705
भोजपुरी 705
यिकीय 705
योति 705
सरे 705
कांड 704
नाबाद 704
यूल 704
रेग 704
लंका 704
सिकंदर 704
सेवा@@ 704
सैमसंग 704
28@@ 703
58 703
गिनती 703
टावर 703
सपना 703
हंस 703
कन@@ 702
गुलाब 702
जज 702
तिर@@ 702
बताने 702
बाय@@ 702
लाद 702
लासिक 702
ई.@@ 701
एगा 701
जवाहरलाल 701
बरेली 701
याएँ 701
रुस 701
शुरूआती 701
62 700
टैंक 700
दोबारा 700
भट@@ 700
मों@@ 700
रशा@@ 700
रियाएं 700
वव 700
वाया 700
ing 699
गोद 699
दरवाजे 699
दुसरे 699
परमेश 699
पीपल 699
बेल@@ 699
योगि@@ 699
रूपी 699
आशीर 698
गज@@ 698
जादू 698
जिन@@ 698
तावादी 698
बिजनेस 698
रिंट 698
सित 698
सीए 698
{ 697
आखिरकार 697
इमाम 697
गायब 697
घूमने 697
छाप 697
रणजी 697
राइवर 697
लिखना 697
सौन 697
णतः 696
धमकी 696
धियाँ 696
नासा 696
बलिदान 696
मेरठ 696
याचार 696
राध 696
लील 696
विला@@ 696
समानांतर 696
३.@@ 696
68 695
गेन 695
चुन 695
जहा@@ 695
टॉवर 695
पतली 695
भावस 695
यूटन 695
रिटी 695
कारा 694
जला 694
पंचांग 694
पि 694
बनीं 694
रिपुरा 694
सिय@@ 694
20वीं 693
23@@ 693
इश 693
उतनी 693
गेज 693
भीतरी 693
यांग 693
रदा@@ 693
सुभाष 693
४५ 693
अट@@ 692
निरपेक 692
मॉल 692
यायन 692
राहम 692
संरचनाओं 692
800 691
am 691
कहाँ 691
काना 691
काश 691
पीपुल 691
मला 691
यूशन 691
षी@@ 691
सकने 691
साम@@ 691
जनन 690
थगित 690
शंकराचार 690
शां@@ 690
सैम 690
१९८० 690
गंगोलीहाट 689
ताना 689
नवीनतम 689
रायपुर 689
लियाँ 689
सोन 689
आईएस@@ 688
उपायों 688
ऊन 688
कूद 688
घू@@ 688
दिमाग 688
भाशय 688
ियान 688
आल@@ 687
झगड 687
तोत 687
दूरसंचार 687
नींद 687
पशु@@ 687
मीमांसा 687
रिए@@ 687
वड 687
आरो@@ 686
कटौती 686
गृ@@ 686
लोब 686
शु 686
समि@@ 686
P 685
अमी@@ 685
नीज 685
रचयिता 685
संभा@@ 685
अनंत 684
कूली 684
लेगा 684
वरित 684
वॉ 684
उतार 683
एसी 683
किताबें 683
बेट 683
भव@@ 683
विधा@@ 683
०,००० 683
15@@ 682
अनुयायियों 682
बजाए 682
लोहा 682
वय@@ 682
विषयक 682
खगोल 681
टाफ 681
पिघ@@ 681
भारतवर 681
यसभा 681
यीय 681
रोका 681
विचार@@ 681
कामना 680
डीवीडी 680
शीत 680
हेम@@ 680
E0 679
यूनेस 679
हौ@@ 679
इंक 678
एथलीटों 678
टेलर 678
डेट 678
णप 678
तचाप 678
मशीनों 678
मेश 678
यामिति 678
रमेय 678
आकलन 677
गाह 677
गौरी 677
चांदी 677
मैनचेस 677
लाला 677
साहस 677
सुरंग 677
सूखे 677
1928 676
जब@@ 676
झड 676
निका 676
भरपूर 676
मकथा 676
राजू 676
लायक 676
साध@@ 676
सुब 676
63 675
कारावास 675
छिड 675
तेन 675
पौधा 675
मतों 675
रेश 675
सुना@@ 675
हण 675
इधर 674
एलिज 674
ओं@@ 674
झे@@ 674
डियम 674
तारा@@ 674
दानव 674
दिल@@ 674
पीसी 674
फिलिस 674
बसने 674
बाजारों 674
भगत 674
यवान 674
रने 674
करीबी 673
घंटों 673
टिवल 673
नियर 673
वाइन 673
वारे 673
समुचित 673
ऊँ@@ 672
काने 672
जितने 672
पला@@ 672
बाबर 672
विनोद 672
12@@ 671
गैलेक 671
जियों 671
लवण 671
लिकन 671
विवेदी 671
s@@ 670
असंभव 670
कोहल 670
चिप 670
तटस 670
पुजारी 670
बिलबोर 670
भस 670
राजन 670
वारों 670
सेवक 670
१८७@@ 670
उदार 669
कामयाब 669
थली 669
नबी 669
पेपर 669
मोटी 669
वरुण 669
षमा 669
जबलपुर 668
मंद 668
यूबा 668
सूट 668
1931 667
इंटेल 667
उनपर 667
जवा@@ 667
जेंडर 667
तब@@ 667
परिवेश 667
फिट 667
बीन 667
बैं@@ 667
भवती 667
रियान 667
रोहित 667
सीडी 667
आघात 666
चालित 666
जयंती 666
नजदीक 666
ाद 666
‎ 666
03 665
h@@ 665
ंगु@@ 665
अनुकरण 665
पहने 665
बैठा 665
मियामी 665
रकर 665
रभ@@ 665
हीरो 665
आयाम 664
थितिकी 664
दावे 664
दिखा@@ 664
दीं 664
नेशन 664
परम@@ 664
फॉक 664
बीमारियों 664
मिज 664
लैक@@ 664
शार 664
सट 664
सारणी 664
सीटें 664
02 663
अरु@@ 663
कुट 663
थाइ@@ 663
पति@@ 663
मधुमेह 663
रचुर 663
रवण 663
रसंस 663
राह@@ 663
सूजन 663
हाई@@ 663
असमिया 662
कोन 662
तिल 662
अपार 661
जिंदगी 661
पांच@@ 661
फोटो 661
विवा@@ 661
चम@@ 660
नजदीकी 660
पथ@@ 660
भावनात 660
राउ@@ 660
शियम 660
सरा 660
सवाई 660
अनि@@ 659
अमृत 659
कॉस 659
टोरी 659
दरा 659
पम 659
परशुराम 659
मैदानों 659
रजभाषा 659
शेल 659
1935 658
Z 658
model 658
अंदाज 658
एरिक 658
खं@@ 658
गंतव 658
नेश 658
मिथिला 658
मुगलों 658
रॉकेट 658
वरण 658
सीकर 658
एना@@ 657
केटिंग 657
निभा 657
युगांडा 657
राचीनतम 657
वीरता 657
b@@ 656
अवि@@ 656
आद 656
कमेटी 656
खगड 656
बाण 656
आजीवन 655
चिंग 655
दुबारा 655
रेजिमेंट 655
लहर 655
शाला 655
अट 654
टेप 654
पदोन 654
महाप 654
योक 654
विमर 654
1934 653
£ 653
करवा 653
घाव 653
छिबरामऊ 653
ञानात 653
पाँच@@ 653
बांटा 653
बाला@@ 653
भंडारण 653
रुख 653
शरी@@ 653
सरोवर 653
ात 653
25@@ 652
णीय 652
नबर 652
भाषाएं 652
मुखिया 652
ाकर 652
ंगो@@ 651
टाल 651
नाभिकीय 651
बॉर 651
भोग 651
मारिया 651
विरूद 651
सराहना 651
होत 651
1921 650
} 650
अभिन 650
अरुणाचल 650
आग@@ 650
ऑटो 650
कटि@@ 650
गंध 650
डीह 650
बॉस 650
मज@@ 650
रांस@@ 650
रूट 650
1924 649
ar 649
खरीद@@ 649
टें@@ 649
पंच 649
पोलैंड 649
फेल 649
बेचा 649
मदीना 649
ns 648
कोट@@ 648
छठे 648
थल@@ 648
भाषाओँ 648
लेटर 648
ॅ 648
1918 647
1944 647
कोविड 647
धूल 647
मश 647
ं- 646
थेरेपी 646
नोर 646
पचास 646
पाठकों 646
पाना 646
बहुधा 646
रेड@@ 646
लाह@@ 646
वंचित 646
शरणार 646
शिवा@@ 646
खुदरा 645
जमा@@ 645
नियो@@ 645
निरूपण 645
परे@@ 645
लेजर 645
विघटन 645
अनुशासन 644
आँख 644
उपभोग 644
एकदम 644
ताइवान 644
रथाओं 644
विदों 644
ुरआन 644
ंटी 643
आँकड 643
खींच@@ 643
रजी 643
शाक 643
संरचनात 643
ॉक 643
1938 642
g@@ 642
गाथा 642
छेड 642
पिया 642
रेशम 642
ation 641
t 641
घटनाएं 641
चीफ 641
भीषण 641
मनी@@ 641
रामाणिक 641
घोर 640
टोस 640
नरसंहार 640
पाइन 640
पैन 640
रखरखाव 640
रीराम 640
27@@ 639
अतरौली 639
अनुचित 639
खै@@ 639
भूख 639
वाई@@ 639
शिला 639
सुविधाएँ 639
61 638
इंडि@@ 638
थाएं 638
दाहिने 638
पहचा@@ 638
बाद@@ 638
रावल 638
सुनील 638
j@@ 637
जेने@@ 637
टियां 637
पेश@@ 637
मेटा@@ 637
यूर 637
रदाता 637
वाद@@ 637
वॉन 637
वॉर 637
o 636
कलाओं 636
कालिदास 636
कोली 636
गाँ@@ 636
जीववैज 636
माहौल 636
ृ@@ 636
कुवैत 635
नामीबिया 635
बाक 635
भूमि@@ 635
रूपरेखा 635
सूरी 635
हंगरी 635
अनुभूति 634
अपमान 634
ऊंचे 634
तुलसी 634
बगल 634
वरक 634
सांता 634
सुसज 634
it 633
आई.@@ 633
एथलेटिक 633
चला@@ 633
तूप 633
भूरे 633
रोमांटिक 633
शाल 633
सहयोगियों 633
१९९८ 633
1,000 632
तरदायी 632
रकाशक 632
विजयी 632
२०१९ 632
71 631
कुशलता 631
चाप 631
पंजीकरण 631
बंबई 631
बेच@@ 631
भागने 631
ाइ@@ 631
अली@@ 630
तेश 630
पाकर 630
विम 630
आपदा 629
निशा@@ 629
रते 629
रायोजित 629
रीवा 629
रैन 629
अभ@@ 628
टेलीफोन 628
तिर 628
थराली 628
भजन 628
मम 628
29@@ 627
अपशिष 627
खां 627
गुट 627
सदृश 627
सियम 627
सैं@@ 627
H 626
गेंदों 626
बुन 626
मंगोल 626
मारवाड 626
रामचंद 626
वजों 626
संतुलित 626
सनी 626
चौबटाखाल 625
तला@@ 625
तून 625
मोह 625
यधारा 625
विषाक 625
षमताओं 625
A4 624
National 624
k 624
कौर 624
जैव@@ 624
णतया 624
तीकरण 624
पने 624
पाट 624
यपूर 624
यूनान 624
रामकृष 624
रिसमस 624
षतिग 624
६५ 624
उसपर 623
कराना 623
पारा 623
बैठ 623
मधु 623
अनिल 622
इंकार 622
इनपुट 622
गु 622
जिसपर 622
दैत 622
बरो 622
भावों 622
यकों 622
लीटर 622
षाएं 622
ानून 622
contributor 621
आधारभूत 621
उधर 621
गला 621
गाव 621
नमूना 621
भील 621
रहा@@ 621
शरद 621
सहन 621
timestamp 620
चिट 620
डाई 620
देशभक 620
यान@@ 620
रॉल 620
लिपियों 620
ॊ@@ 620
नाशक 619
बचत 619
बाधित 619
बृ@@ 619
सिंगल 619
सेवाएँ 619
ॅन 619
१९४७ 619
ंडिंग 618
अह@@ 618
आधी 618
जिनको 618
निमित 618
पहनने 618
येन 618
77 617
एहसास 617
गतिशील 617
चक@@ 617
टलैंड 617
दरगाह 617
दरभंगा 617
नाभिक 617
नामी 617
निपटने 617
मीना 617
सोमवार 617
हुक 617
96 616
घेरे 616
तचित 616
मधुर 616
n@@ 615
अफगान 615
इरादा 615
धिकार 615
नागरिकता 615
बताई 615
बदलते 615
सेमीफाइनल 615
4.@@ 614
बहाल 614
मलेरिया 614
यासी 614
रोटी 614
सीईओ 614
2,@@ 613
अणुओं 613
नोग 613
पंख 613
युनि@@ 613
लियर 613
वाट 613
सला@@ 613
ुर 613
नीला 612
वासों 612
संकीर 612
4,@@ 611
कराता 611
काबुल 611
जीवनकाल 611
मप 611
रियाएँ 611
लिटी 611
लूर 611
लेंगे 611
लोड 611
षद 611
सुलभ 611
18वीं 610
चाह@@ 610
रबर 610
रेल@@ 610
शनिवार 610
२,@@ 610
केरी 609
गाई 609
चश 609
णमाला 609
दायक 609
निभा@@ 609
बेरीनाग 609
रेलमार 609
वाचक 609
साहेब 609
३२ 609
1943 608
Y 608
असं@@ 608
खुल 608
जलीय 608
टनी 608
मानवता 608
लिनी 608
समारोहों 608
साइन 608
1912 607
`@@ 607
format 607
झि@@ 607
डायरेक 607
थाएँ 607
पाद@@ 607
बैठने 607
रतिनिधियों 607
सबके 607
सहकारी 607
१९९९ 607
88 606
जाज 606
डिन 606
नामा 606
पेशवा 606
बुखार 606
महानगर 606
मिति 606
लाभदायक 606
वंस 606
वाने 606
संदिग 606
सुधारों 606
73 605
98 605
ंडी@@ 605
ओवर@@ 605
काशी@@ 605
जोकी 605
पालक 605
मानु@@ 605
रवक 605
लियां 605
ियर 605
एजेंसियों 604
एनिमेटेड 604
तराई 604
महो@@ 604
मानसून 604
राइवेट 604
शोधन 604
समझना 604
सीना 604
अभियानों 603
पीला 603
फिया 603
सुदृढ 603
डॉग 602
विक@@ 602
जैसे- 601
देशीय 601
निरन 601
पाध 601
बाइबिल 601
रतापगढ 601
रवात 601
समान@@ 601
ाबेथ 601
ीक 601
ृत 601
१९९१ 601
86 600
अमिताभ 600
काॅ@@ 600
बढ@@ 600
रशासित 600
अवसाद 599
करू@@ 599
केशन 599
खोलने 599
गाँवों 599
टी.@@ 599
दिशाओं 599
फायदा 599
बिगड 599
मंडी 599
मोस 599
रमण@@ 599
लैंगिक 599
ैर 599
₹ 599
अनुभवों 598
पादप 598
पारदर 598
पीएचडी 598
पुर@@ 598
मीरा 598
लेबर 598
वायुसेना 598
वैत 598
एकादशी 597
कज 597
जाएं 597
दात 597
पुं@@ 597
बज 597
मशास 597
रामनगर 597
रॉबिन 597
लियो 597
विशेष@@ 597
शोध@@ 597
ेशन 597
छी@@ 596
णी@@ 596
दूर@@ 596
नायिका 596
पटल 596
परमार 596
फेर 596
भारत@@ 596
भीर 596
यं 596
रनवे 596
रहवीं 596
रिपल 596
साई@@ 596
1922 595
1929 595
67 595
84 595
आयतन 595
कोमल 595
डेंट 595
नयन 595
पारसी 595
यहूदियों 595
लेखा@@ 595
सदा@@ 595
ून 595
74 594
be 594
कड@@ 594
डसन 594
रचना@@ 594
लोमा 594
विलास 594
कारियों 593
खाया 593
गंग@@ 593
परमात 593
पी.@@ 593
बियों 593
वाह@@ 593
अधिवेशन 592
आलू 592
गिरा 592
डवेयर 592
दानों 592
बडी 592
भं@@ 592
विधिक 592
शैल 592
शैव 592
हेल@@ 592
१९६० 592
७५ 592
10,000 591
कीड 591
कुमा@@ 591
कैस 591
मला@@ 591
राइफल 591
लाओं 591
सात@@ 591
उपरान 590
ऊतकों 590
थेन 590
पांडे 590
बतौर 590
बह 590
रावत 590
रैं@@ 590
शाखाएँ 590
अंत@@ 589
उठा@@ 589
घटनाएँ 589
घम 589
जियो@@ 589
बाली 589
बोन 589
া@@ 589
76 588
अपभ 588
कोक 588
देवा@@ 588
धरण 588
पहु@@ 588
बुरे 588
मांसपेशियों 588
रया@@ 588
लाते 588
लाभकारी 588
विचित 588
सरण 588
− 588
13@@ 587
1933 587
एमए 587
केटबॉल 587
चैनलों 587
तुएं 587
भवनों 587
मेमोरी 587
रियस 587
e@@ 586
अद@@ 586
जिज 586
देसाई 586
रदीप 586
रसू@@ 586
लांट 586
लीस 586
लुईस 586
लैस 586
हजारे 586
1925 585
username 585
आरती 585
दादी 585
दाम 585
पांचवें 585
राजभाषा 585
रोसेसर 585
संचरण 585
कॉटिश 584
तावेजों 584
मोशन 584
यावर 584
योन 584
रायल 584
साइकिल 584
सुर@@ 584
एथलीट 583
कैलाश 583
फं@@ 583
भयानक 583
लैप 583
छुक 582
निग@@ 582
पते 582
परिश 582
यतन 582
रमादित 582
विय@@ 582
सले 582
सांद 582
सातवें 582
ॐ 582
0,000 581
अँ@@ 581
आंत 581
डोज 581
पीस 581
मैदानी 581
रियो@@ 581
1914 580
59 580
एटा 580
ठाकुरद 580
तया 580
रेंड 580
सभा@@ 580
सामयिक 580
४८ 580
कांडा 579
खेतों 579
चैंपियंस 579
जनजातियों 579
थस 579
नियोजन 579
पुन@@ 579
रदायिक 579
p@@ 578
करो@@ 578
किण 578
कोर@@ 578
मानो 578
रशंसक 578
समायोजित 578
ीर 578
एलिजाबेथ 577
ऑडियो 577
गुवाहाटी 577
पैनल 577
बीटा 577
रतिपादित 577
वतः 577
समाज@@ 577
सोलह 577
5,@@ 576
काएं 576
खैर 576
गोलार 576
धौ@@ 576
मांग@@ 576
सेदारी 576
चलन 575
वैशाली 575
सुत 575
1917 574
India 574
फारस 574
फीफा 574
मनोहर 574
रतिज 574
सवादी 574
सुंदरता 574
ारो@@ 574
K 573
टेन@@ 573
नरेंद 573
निवारण 573
बैल 573
चयनित 572
परवर 572
फीति 572
यंजनों 572
रचनाकाल 572
रयोक 572
सनातन 572
1926 571
चीजें 571
धाओं 571
मलय 571
मैथिली 571
राजी 571
रिपाठी 571
700 570
अक@@ 570
अयस 570
कमर 570
गैसों 570
तिल@@ 570
मंदी 570
मूला 570
रखें 570
सोम@@ 570
खान@@ 569
गाए 569
गुहा 569
टिट 569
दुकानों 569
बच@@ 569
योत 569
रकूट 569
रन@@ 569
विराजमान 569
३६ 569
कराई 568
चारित 568
नक@@ 568
फे 568
भरोसा 568
याया@@ 568
लौटे 568
शिकारी 568
सिने@@ 568
होर 568
ऑब 567
कहानियां 567
धम 567
रोचक 567
रोटो@@ 567
रोलियम 567
लें@@ 567
वभौमिक 567
आउटपुट 566
आयन 566
आवेश 566
एंडरसन 566
खुराक 566
नाएं 566
बता@@ 566
बहरहाल 566
बृहत 566
यन@@ 566
लाता 566
वरदान 566
81 565
अनुकूलन 565
अनुसन 565
आंदोलनों 565
कुड 565
कोशिकाएं 565
खलीफा 565
गेहूँ 565
चैन 565
नसी@@ 565
भुवनेश 565
मदन 565
लूट 565
3,@@ 564
ऐश 564
कलर 564
कुक 564
कूट 564
टरेट 564
फेसबुक 564
रना 564
लोज 564
इंजीनियरी 563
कविताएँ 563
जेंटीना 563
मकबरा 563
मातृ@@ 563
मिने@@ 563
मोत 563
रसर 563
रिमंडल 563
चुअल 562
तना@@ 562
पाषाण 562
रमुखतः 562
लेनदेन 562
वेनिया 562
१९७० 562
ई0 561
उदाहरणार 561
कतर 561
कथ@@ 561
चुनी 561
जौ@@ 561
दीवान 561
नेपोलियन 561
मानवाधिकार 561
यतया 561
याशित 561
लेखिका 561
लेव 561
वयं@@ 561
वेब@@ 561
सिका 561
सितारों 561
आईपी@@ 560
आरोपों 560
कानों 560
नोल 560
बंदर 560
बूल 560
महिमा 560
ययुगीन 560
रुटि 560
रोजर 560
सातवीं 560
अंगु@@ 559
उपनगर 559
गुच 559
तौड 559
बें@@ 559
भली 559
लियम 559
विराम 559
ुल 559
किशन 558
कोयले 558
पालिका 558
फलक 558
बसाया 558
मोज 558
विटी 558
वीरों 558
हाट 558
92 557
a@@ 557
अलगाव 557
आंख 557
आफ 557
ईमान 557
उपजाऊ 557
जेफ 557
डं@@ 557
दाद 557
बीए 557
रिहा 557
वच@@ 557
24@@ 556
नाइजीरिया 556
पहलवान 556
युधिष 556
रिए 556
वरा 556
विका@@ 556
वीर@@ 556
2.5 555
अंपायर 555
नीकरण 555
बैडमिंटन 555
मदिन 555
यासकार 555
रीलंकाई 555
सिखों 555
१८६@@ 555
97 554
ओब 554
काज 554
किलोग 554
झी 554
नवजात 554
बैनर 554
भगवती 554
माइल 554
मीनार 554
यी@@ 554
वयंसेवक 554
विशुद 554
ऐप 553
ढाल 553
फुट@@ 553
यमों 553
सुरेश 553
६.@@ 553
कें@@ 552
घकालिक 552
निकलकर 552
फर@@ 552
भूभाग 552
मनों 552
मुना@@ 552
f 551
जग 551
बिर@@ 551
समू@@ 551
हुयी 551
इंसान 550
ईट 550
कुश@@ 550
ठो@@ 550
ताप@@ 550
फाय@@ 550
वादों 550
.सी. 549
which 549
आखिर 549
कथाएँ 549
परगना 549
बट 549
रुति 549
विकृत 549
सतपुली 549
१९९६ 549
1.5 548
उस@@ 548
तिकारी 548
दहन 548
धारा@@ 548
लगीं 548
विजयनगर 548
विप 548
ाज 548
१९९२ 548
14@@ 547
78 547
82 547
इसमे 547
किताबों 547
खम 547
छावनी 547
पलायन 547
माओं 547
रोटेस 547
विधियाँ 547
िलाफ 547
गेल 546
दिखा 546
भंड@@ 546
मॉडलिंग 546
रवासियों 546
रिये 546
शार@@ 546
एट@@ 545
घनिष 545
छद 545
जयसिंह 545
दुःख 545
नीत 545
मानद 545
वांग 545
सिलि@@ 545
ँग 544
अवशिष 544
एंटरटेनमेंट 544
कना 544
जीतकर 544
नकल 544
परिधि 544
विषम 544
शाते 544
सना 544
अंगू@@ 543
उदय@@ 543
एंगे 543
गुम 543
डें@@ 543
दकोश 543
याद@@ 543
हैंड@@ 543
ेल 543
अरबों 542
अविश 542
आकस 542
उधार 542
कती 542
ताड 542
दान@@ 542
निकलते 542
निभाते 542
मेड 542
वाकांक 542
ाकू 542
१८५@@ 542
16@@ 541
ंचल 541
असंख 541
धातु@@ 541
बियाई 541
बॉय 541
युवक 541
लैब 541
वंश@@ 541
विधवा 541
समलैंगिक 541
०४ 541
87 540
किरणों 540
गोविंद 540
झीलों 540
रंट 540
रभाव@@ 540
रासंगिक 540
विचारक 540
1927 539
गुणा 539
जि 539
ठता 539
डाउनलोड 539
नाएँ 539
रचालन 539
राँ@@ 539
लोजी 539
सुई 539
सौदे 539
ईमेल 538
काक 538
कालांतर 538
गठ@@ 538
ढी@@ 538
थानांतरण 538
निरा@@ 538
मफेयर 538
मैड 538
यूरे@@ 538
201@@ 537
अनुभवी 537
उम@@ 537
गौर 537
घं@@ 537
माध@@ 537
लेडी 537
सहारे 537
साउंडट 537
हेन 537
इमारतें 536
उदाहरणों 536
घराने 536
दया 536
निकोबार 536
पापुआ 536
पैड 536
मछलियों 536
मांड@@ 536
विवादों 536
शाकाहारी 536
साड 536
ाता 536
आपत 535
खू@@ 535
तेरे 535
धुरी 535
परिपूर 535
पालतू 535
बूत 535
मंगोलिया 535
योति@@ 535
षुद 535
ीज 535
उभरा 534
एपि@@ 534
कते 534
केदार 534
खाल 534
छाया@@ 534
जोकर 534
फेडरेशन 534
बज@@ 534
मोती 534
वकर 534
अभिषेक 533
अलौकिक 533
आलोचनात 533
इंडियाना 533
छता 533
डालते 533
तरदायित 533
फांसी 533
सलमान 533
सलाम 533
इग 532
एमएस 532
टियर 532
ताने 532
धमनी 532
पॉली@@ 532
रेखा@@ 532
वेच 532
चेष 531
तंग 531
धाराओं 531
रेडियो@@ 531
वाल@@ 531
सोशलिस 531
िज 531
१९८९ 531
30@@ 530
कवच 530
ताल@@ 530
दायरे 530
पहुंचा@@ 530
मजदूरों 530
मेस 530
रंखला 530
रदायों 530
वंत 530
वादन 530
शाती 530
सीखा 530
हैं@@ 530
m@@ 529
अकेला 529
अरस 529
अवक 529
कराते 529
गीर 529
चैतन 529
टली 529
डियो@@ 529
नारियल 529
परित 529
पहना 529
पितृ@@ 529
बाकू 529
रकारी 529
राने 529
वथा 529
1908 528
83 528
k@@ 528
गुर@@ 528
ठिर 528
डालता 528
दिला@@ 528
नेह 528
पहुँचा@@ 528
बिताया 528
यांश 528
रतियोगी 528
शाप 528
ारपुर 528
pur 527
x@@ 527
काउं@@ 527
काया 527
कैथरीन 527
कॉफी 527
गस 527
तथाकथित 527
धम@@ 527
बहुतायत 527
मधुमक 527
लीकरण 527
वितीयक 527
1910 526
ईंट 526
जरलैंड 526
जु 526
टीना 526
तिहा@@ 526
धतियों 526
पहुंचाने 526
बीज@@ 526
रवा 526
राना 526
रिस@@ 526
वाही 526
शिंग 526
सुस 526
· 525
इष 525
एंटी 525
कॉमन 525
गुणसूत 525
जिकल 525
पंचम 525
मंजिल 525
मग@@ 525
मुहा@@ 525
वालीफाई 525
शिकी 525
षैतिज 525
g 524
v 524
ईन 524
तला 524
धालु 524
निकटवर 524
पेंटिंग 524
रकोप 524
राजपूतों 524
विता 524
१९५० 524
69 523
चेल 523
चेहरा 523
दाह 523
बियन 523
याम@@ 523
विवर 523
शरा@@ 523
सुंद@@ 523
सुश 523
अपराधों 522
अमूर 522
आनंद@@ 522
कूट@@ 522
गाते 522
टैंड 522
ढाई 522
नवाज 522
फेयर 522
विले 522
षिण@@ 522
खियों 521
यमय 521
रमन 521
विवे@@ 521
सुक 521
हाँ 521
गोलाकार 520
जीने 520
डमैन 520
डेय 520
बैटमैन 520
रमेश 520
रीयता 520
हारों 520
आराधना 519
कामों 519
तकी 519
तले 519
दिलाने 519
निकली 519
निषेध 519
भीम@@ 519
मसूत 519
ादी 519
ॉल 519
१९७१ 519
1905 518
1923 518
एलिस 518
चोर 518
जनी 518
जेन@@ 518
झलक 518
धीन 518
नवी@@ 518
नियाई 518
पिच 518
यवसायों 518
संभालने 518
सालाना 518
हरित 518
comment 517
आदत 517
कवरेज 517
ठानों 517
पुरूष 517
फेंक 517
बिलासपुर 517
यजीव 517
रीकृत 517
रेषण 517
लट@@ 517
लिब 517
an@@ 516
× 516
अवशोषण 516
औषधीय 516
गार@@ 516
जीवा@@ 516
ढी 516
निका@@ 516
निवेशकों 516
परजीवी 516
बोलचाल 516
विसर 516
सीकरण 516
1911 515
आयामी 515
चो 515
डीए 515
नाराज 515
राहिम 515
रेखाओं 515
शॉर 515
३०० 515
t@@ 514
ंगटन 514
केशव 514
गह@@ 514
पालि 514
फाइड 514
बलिया 514
महासभा 514
यग 514
साधारणतया 514
सिंग@@ 514
४२ 514
कलेक 513
काठ@@ 513
कीटों 513
कैन@@ 513
चालुक 513
तज 513
नकली 513
पेशे 513
बहुविकल 513
भैरव 513
राख 513
हीरा 513
३७ 513
ंप 512
अवरोध 512
चालीस 512
चौदह 512
मापने 512
मापा 512
लोदी 512
लोप 512
वेशन 512
शोक 512
सरों 512
सामरिक 512
5.@@ 511
ईसी@@ 511
जलाशय 511
नारद 511
पीयर 511
बुध 511
बुला 511
मीदवारों 511
मूलक 511
लेखांकन 511
विलक 511
सील 511
१९८४ 511
अभिनेताओं 510
गरी 510
धियां 510
निलंबित 510
पैतृक 510
पौत 510
बाज@@ 510
याचिका 510
लिपि@@ 510
वाराहाट 510
सबको 510
समाहित 510
२५@@ 510
३३ 510
तुकार 509
पॉट 509
फाइबर 509
बदलती 509
बालाजी 509
रहेंगे 509
अपरि@@ 508
असल 508
पदा 508
लॉट 508
हेम 508
r@@ 507
अलंकृत 507
अवयवों 507
एनएस@@ 507
गारंटी 507
चिमोत 507
जॉनसन 507
तरंगों 507
धांजलि 507
धिकारी 507
बदलता 507
मराठों 507
राइम 507
रिएक 507
संतों 507
अमर@@ 506
आठवीं 506
कोणीय 506
कोहली 506
गंभीरता 506
चियन 506
दाखिला 506
दिलीप 506
पच 506
रगढ 506
वनी 506
विन@@ 506
ितों 506
३,@@ 506
कीज 505
केक 505
चिली 505
थार 505
नायर 505
नैशनल 505
परावर 505
पीकर 505
बुजुर 505
महानगरीय 505
मेहनत 505
विकृति 505
शेयरों 505
शोभा 505
हेड@@ 505
किटेक 504
खुफिया 504
डिफ 504
वियर 504
वैसा 504
शीलता 504
एनबीसी 503
कंक 503
कोलम 503
डेविस 503
परेशानी 503
पिण 503
बारह@@ 503
यजनक 503
लोकों 503
हथ@@ 503
अथर 502
औष@@ 502
कुंजी 502
कोड@@ 502
खातों 502
गिना 502
गेहूं 502
गोले 502
डेढ 502
ताद 502
तेजित 502
दिखाए 502
पोलिस 502
भेजी 502
लिनक 502
सकीय 502
सानी 502
his 501
ंकि 501
एकजुट 501
चंदौसी 501
चोल 501
महा 501
वालि@@ 501
हजरत 501
हिटलर 501
३४ 501
कलम 500
गिरोह 500
गैलरी 500
घण 500
जीवविज 500
मतदाता 500
मनिरपेक 500
यूस 500
रवाना 500
रियात 500
लज 500
वांग@@ 500
विवादित 500
अलाउद 499
आद@@ 499
आनु@@ 499
गृहयुद 499
झुकाव 499
नशील 499
पड@@ 499
मीय 499
राफर 499
सामा@@ 499
ानों 499
X@@ 498
ँगा 498
कमला 498
खंडन 498
खिला@@ 498
गाम 498
तालुका 498
तृप 498
पुरोहित 498
बॉब 498
मरुस 498
धरा 497
पराजय 497
फौज 497
यश@@ 497
वाधीनता 497
शांति@@ 497
एपी@@ 496
कांच 496
खगोलशास 496
गोन 496
टोग 496
डेली 496
धोखा 496
नवरात 496
नोक 496
मैकमोहन 496
रयो@@ 496
रिवाज 496
लाइनों 496
संगमरमर 496
संचित 496
समाजवाद 496
सांग 496
साधक 496
सेम 496
आलम 495
ऋषियों 495
एसी@@ 495
तह 495
पीएस 495
मरीजों 495
माद 495
रमी 495
लाय@@ 495
वला 495
1916 494
आधिपत 494
इनमे 494
काष 494
किर@@ 494
पण@@ 494
बंधों 494
साद 494
अगला 493
आपातकालीन 493
कैम@@ 493
टीसी 493
ढे 493
नागौर 493
पुनरावृत 493
भरतपुर 493
मसमर 493
मीकि 493
मेगावाट 493
रयान 493
रहे@@ 493
रेमिका 493
साउंड 493
सेवी 493
हेस 493
१९९५ 493
.एस. 492
अरा@@ 492
चर@@ 492
जायेगी 492
जियन 492
दिनांक 492
सपने 492
सुझा@@ 492
सोन@@ 492
अंतः@@ 491
अकादमिक 491
अलवर 491
उपवास 491
जरा 491
पोलि@@ 491
बहनों 491
मुज 491
यिकीक 491
राजेंद 491
रिब 491
रेडरिक 491
वांटम 491
हॉस 491
२०२० 491
८.@@ 491
अवशोषित 490
इंजेक 490
थियो@@ 490
दरअसल 490
पाचन 490
पाम 490
पेप 490
बसें 490
मिलना 490
रामचन 490
रिवर 490
विकारों 490
ारक 490
… 490
91 489
In 489
कठ@@ 489
करी@@ 489
गुजरती 489
घटा@@ 489
दफ 489
नाह 489
पेन@@ 489
बंगलौर 489
माफ 489
रेसी 489
ऽ@@ 489
उतर 488
जानेवाले 488
तूबर 488
पांड@@ 488
बेला 488
महेंद 488
मूसा 488
मॉस 488
यूटिंग 488
यूसुफ 488
रतिबन 488
वाजपेयी 488
हवाला 488
93 487
DVD 487
आयरन 487
कुलपति 487
गोदावरी 487
टास 487
थीम 487
दाबाद 487
पोषित 487
यूमर 487
लोम 487
साउ@@ 487
सारांश 487
सेर 487
हता@@ 487
अवतरित 486
आवा@@ 486
कव@@ 486
किन@@ 486
खार@@ 486
घेर 486
परिसंपत 486
बचाया 486
बादी 486
मृदा 486
रिभुज 486
लगढ 486
लिकाओं 486
वीक 486
सौदा 486
हरण 486
अवधी 485
काजी 485
कॉलेजों 485
डाइऑक 485
बॉडी 485
भीष 485
मेमोरियल 485
रीव 485
रुप@@ 485
रॉड 485
विराट 485
सावधानी 485
सि 485
सीमेंट 485
35@@ 484
6,@@ 484
काटकर 484
गाढ 484
जना@@ 484
टीफन 484
नाईट 484
निकाली 484
पठ@@ 484
बियर 484
मानती 484
यमी 484
योधन 484
रभुता 484
विध@@ 484
5000 483
णे 483
तेरह 483
दाँत 483
निचली 483
पुरं 483
पेल 483
मुकुट 483
राएँ 483
लौकिक 483
वता 483
समझाने 483
सीनियर 483
उपराष 482
एफसी 482
चेतन 482
छिन 482
डीडीहाट 482
दांतों 482
नाटककार 482
पादरी 482
फॉल 482
मिलि@@ 482
यायों 482
यूरोपियन 482
सीम 482
ंडो@@ 481
आईपीएल 481
कॅ@@ 481
डोमि@@ 481
दिख@@ 481
नमस 481
नागर 481
मऊ 481
मजदूरी 481
अनुपम 480
उ०@@ 480
एनि@@ 480
गैरसैण 480
चूना 480
टमैन 480
ढक 480
तरक 480
बाव@@ 480
बैक@@ 480
रयू 480
सीर 480
१९७५ 480
i@@ 479
one 479
r 479
चाँद 479
जैसलमेर 479
तिकरण 479
दंत 479
पाटी 479
भाषाविज 479
याल@@ 479
रचारक 479
रीश 479
१९९४ 479
ए. 478
औरत 478
टते 478
टोल 478
दड 478
निकाले 478
नियो 478
राउज 478
रैप 478
रोबोट 478
लाइड 478
अलं@@ 477
आशंका 477
जरूरतों 477
भग 477
भन 477
लाउ@@ 477
वीरें 477
शेफ 477
ृ 477
जर@@ 476
दही 476
पैगंबर 476
बेसिन 476
यजुर 476
यवसायी 476
रशेखर 476
रिलर 476
सँ@@ 476
समाजों 476
सरत 476
सीबीएस 476
सुनवाई 476
हंस@@ 476
--@@ 475
e 475
इजरायल 475
किनारों 475
लेपन 475
विदा 475
साजिश 475
१९८५ 475
y@@ 474
आदिवासियों 474
केर 474
छवियों 474
निराश 474
फरपुर 474
१९७२ 474
गुरुकुल 473
गुरुद 473
चने 473
टकराव 473
टमी 473
दोहरा@@ 473
धुन 473
नीस 473
मड 473
रतियां 473
राधा@@ 473
सेठ 473
हनी 473
१९९७ 473
c@@ 472
इर@@ 472
ताइ@@ 472
दूरबीन 472
दूरस 472
नानी 472
नोन 472
फोटक 472
बिंदुओं 472
रजापति 472
रेषित 472
रोधित 472
हवाईअड 472
ाबाद 472
०१ 472
टोपी 471
पुरु@@ 471
पॉटर 471
मस@@ 471
महेन 471
रमुखता 471
रूरी 471
लबों 471
लोरो@@ 471
वीकरण 471
होगन 471
89 470
करवाने 470
थू@@ 470
धरातल 470
पहुंच@@ 470
बटालियन 470
बारा@@ 470
मिलाया 470
रिकल 470
रीनाथ 470
रैखिक 470
लिटिल 470
वैयक 470
वोक 470
शंकु 470
शूट 470
समितियों 470
०५ 470
WWE 469
अहिंसा 469
ऐं 469
ओवरों 469
चाँदी 469
झरने 469
डिजाइनर 469
पनडुब 469
मनाते 469
वेंट 469
सिपाही 469
होतीं 469
Windows 468
अपराधियों 468
आशा@@ 468
कृतियां 468
गें 468
चट@@ 468
फिलीपींस 468
मानन 468
यूनी@@ 468
रोहियों 468
लावा 468
शुभ@@ 468
ेट 468
४४ 468
94 467
कद@@ 467
चूड 467
नमः 467
नां@@ 467
पायर 467
मालिकों 467
लेह 467
वेष 467
वोटों 467
शतरंज 467
सपुर 467
सौंप@@ 467
u 466
अनुमोदन 466
इरादे 466
ऐनी 466
कमज 466
खरी@@ 466
गाइड 466
निरूपित 466
परवाह 466
बालू 466
मैनेजमेंट 466
मॉड 466
विवाहित 466
साइटों 466
हिर 466
ईयर 465
कौटिल 465
चलाते 465
डालकर 465
ततः 465
दश 465
नॉट 465
बडे 465
मट 465
रदत 465
होंगी 465
ाक 465
जाग@@ 464
नंदा 464
पेंशन 464
बंदूक 464
मिनस 464
मुरा@@ 464
रेलगाड 464
सेफ 464
la 463
कॉलोनी 463
टिया@@ 463
डेटाबेस 463
नोई 463
पख 463
पहुंची 463
बैठ@@ 463
रती@@ 463
शीतल 463
सिल@@ 463
सीख 463
हाड 463
बहुमूल 462
बेंज 462
मंडप 462
मुकदमे 462
याँकुटोली 462
याक 462
रूक 462
लौटा 462
ळ 462
संत@@ 462
सजीव 462
िंग 462
79 461
जंतुओं 461
डॉल 461
णत 461
दोहरी 461
भपात 461
सोमेश 461
कनिष 460
कैट@@ 460
खेलना 460
तः@@ 460
तिया@@ 460
नरसिंह 460
नोस 460
रतन 460
रामगढ 460
रोम@@ 460
लिग 460
1915 459
कटाई 459
गृहस 459
जाह 459
डाले 459
थवाद 459
पियर 459
फाइल 459
मनोज 459
माव@@ 459
मिशेल 459
रसेल 459
हॉर 459
१९८६ 459
गुफाओं 458
गेश 458
पेशल 458
फैलने 458
रूपये 458
लेटफॉर 458
शीट 458
सामंजस 458
हैमिल 458
८८ 458
ic 457
कोरो@@ 457
गर@@ 457
गोरखा 457
डर@@ 457
नरम 457
नागार 457
पैग 457
महिलाएँ 457
मेटिक 457
यूरी 457
अब@@ 456
खलनायक 456
चौखुटिया 456
टित 456
दामोदर 456
देहांत 456
मिलेगा 456
मैथ 456
लेबनान 456
विकि@@ 456
सकेगा 456
१९६२ 456
कोला 455
डेज 455
तानों 455
नाथन 455
निकासी 455
पिं@@ 455
साबुन 455
ैल 455
कारी@@ 454
गोला 454
चैलेंज 454
दिखाते 454
मीट 454
रैगन 454
समझाया 454
९९ 454
1906 453
ंकी 453
एयरवेज 453
जमाने 453
जमैका 453
डेथ 453
ढांचा 453
नगर@@ 453
पादकता 453
बटन 453
यवंशी 453
रतिरोधी 453
शासी 453
१००० 453
1500 452
o@@ 452
आयत 452
ऑपरे@@ 452
कठिनाइयों 452
कतिपय 452
धिमान 452
रौढ 452
लादेशी 452
लामा 452
वेदा@@ 452
सिनेमाघरों 452
णिका 451
पहचानने 451
पाउडर 451
पोते 451
यहा 451
यूईएफए 451
हृ@@ 451
५५ 451
1901 450
इनो@@ 450
उपनगरीय 450
उभय@@ 450
कैमरे 450
कोलो@@ 450
गोपनीयता 450
नतीजतन 450
निकोलस 450
निद 450
निषे@@ 450
पहनते 450
रीढ 450
शेन 450
ed 449
एजे@@ 449
खासी 449
चौथाई 449
धं@@ 449
बमों 449
माण@@ 449
याण@@ 449
यारे 449
लाये 449
लिख@@ 449
विरोधियों 449
वेदान 449
parentid 448
आतंकवादियों 448
इंट@@ 448
उठ 448
एय@@ 448
जरूर 448
जॉनी 448
नियामक 448
पिय@@ 448
मिकता 448
मॅ@@ 448
रणनीतिक 448
रहीत 448
शारदा 448
सामर 448
सुविधाजनक 448
१९९३ 448
Y@@ 447
गुआ 447
जनमत 447
जूते 447
दिरों 447
नागरी 447
निजाम 447
फोड 447
बिं@@ 447
रूपक 447
रेंट 447
लियोन 447
लैन 447
हैदर 447
४३ 447
16वीं 446
इलाका 446
खने 446
जवाहर 446
थानान 446
दिखाता 446
देख@@ 446
निं@@ 446
निवृत 446
निशाना 446
राइन 446
लिप@@ 446
लैं@@ 446
सियन 446
7,@@ 445
कप@@ 445
कोठ@@ 445
टरबाइन 445
दाताओं 445
फें@@ 445
यूरेनियम 445
रमे@@ 445
गवाह 444
गुलाबी 444
तड 444
नील@@ 444
परमाणुओं 444
फैलाव 444
योजन 444
रिकोणीय 444
रूरत 444
रों@@ 444
लगाये 444
वाइस 444
सुविधा@@ 444
सैट 444
सौराष 444
१९४८ 444
17वीं 443
कोम 443
खट 443
टेलि@@ 443
तेदार 443
निवे@@ 443
यूटी 443
रामों 443
रेसीडेंसी 443
संहार 443
सूडान 443
४.@@ 443
্ 443
17@@ 442
अनियमित 442
काय 442
जेंट 442
तद@@ 442
तिवाद 442
नमी 442
निवल 442
बोल@@ 442
मादक 442
माय@@ 442
रकम 442
लिखकर 442
संपदा 442
सली 442
ॅर 442
ur 441
कंद 441
कुष 441
चिंतित 441
चिक 441
जटिलता 441
परिप 441
पीर 441
मंड 441
मुत 441
लगाता 441
वैचारिक 441
शाली 441
अयोग 440
आरा 440
कबीले 440
चय@@ 440
डिवाइस 440
ताजा 440
दलीय 440
दुख 440
पंत 440
यांमार 440
वाली@@ 440
शेड 440
कफ 439
चिं@@ 439
नॉन 439
मानिया 439
मौके 439
रयोगात 439
रोनाल 439
वाइल 439
विनय 439
सरा@@ 439
सुनाया 439
000 438
आपातकाल 438
इंजनों 438
एडिनबर 438
एन.@@ 438
काठमांडू 438
चतर 438
थंकर 438
थाना 438
दुग 438
धब 438
पैकेज 438
पॉइंट 438
रमणों 438
रायोगिक 438
लापुर 438
लौर 438
षष 438
सूरज@@ 438
ियस 438
ुट 438
इगलास 437
उपनिवेशों 437
एडी@@ 437
गतिविधियां 437
चरों 437
छाड 437
णात 437
देशा@@ 437
नब 437
पु 437
बोलियों 437
रांसिसी 437
लिमों 437
वारि@@ 437
आरएनए 436
कपुर 436
करु@@ 436
गेस 436
नवी 436
पाड 436
पोखरी 436
मांगी 436
मिले@@ 436
रजातियाँ 436
रोसिस 436
१९८३ 436
் 436
अणु@@ 435
कलाम 435
टनर 435
दरवाजा 435
नुस 435
पती 435
बाप 435
भनोली 435
भूति 435
मामा 435
रावस 435
रैया 435
वासित 435
वुल 435
साही 435
सितारा 435
ाय@@ 435
नोड 434
बढा@@ 434
मंद@@ 434
रेने@@ 434
वज@@ 434
सलीम 434
हटाकर 434
आदिम 433
उठाकर 433
एंजे@@ 433
कीमतों 433
खुश@@ 433
चाणक 433
बला 433
भूकम 433
रबैजान 433
रूपांतरित 433
लिखीं 433
विनियमन 433
सॉन 433
180 432
1904 432
कियां 432
केविन 432
जुल 432
तं 432
तवर 432
तिय@@ 432
देशांक 432
नारा 432
पेशी 432
रतिबिंबित 432
रतिरूप 432
रयोग@@ 432
२६@@ 432
l@@ 431
अनुकूलित 431
अनुभाग 431
अभिनव 431
अवशेषों 431
घोल 431
नियोक 431
बैग 431
रचा 431
रतिभागियों 431
रसेन 431
षीण 431
संवेदनशीलता 431
सहारनपुर 431
सोनिया 431
१९७७ 431
al@@ 430
उदर 430
करण@@ 430
कोशों 430
जां@@ 430
जौनपुर 430
बसा@@ 430
बाजीराव 430
रियासतों 430
रॉम 430
जेंड 429
ठंडे 429
डीजल 429
दराज 429
नट 429
बिली 429
मेल@@ 429
रतीकात 429
रशासक 429
शंकर@@ 429
सितारे 429
सुहा@@ 429
160 428
45@@ 428
अनुवादक 428
कारि@@ 428
गोवर 428
चतुष 428
ठन 428
डेवलपमेंट 428
तांतरण 428
थकान 428
दारा 428
पांडु@@ 428
पाणिनि 428
पियों 428
पोलिश 428
बनर 428
यूडब 428
रीवास 428
लियस 428
विमानन 428
शेर@@ 428
षेपित 428
संगठनात 428
सना@@ 428
सूअर 428
होनेवाले 428
१९वीं 428
ंडन 427
इंट 427
एकेडमी 427
कुलीन 427
छीन 427
जाहिर 427
तिथियाँ 427
पीन 427
पेरू 427
बोइंग 427
मकबरे 427
यकारों 427
रधानता 427
रयागराज 427
लोत 427
सावित 427
आठवें 426
गतिशीलता 426
चरल 426
चलाता 426
जंतु 426
जत 426
टैगोर 426
ढु@@ 426
नगला 426
पाडु 426
मालदीव 426
मून 426
यापीठ 426
रांची 426
रीम@@ 426
विशेषण 426
सपियर 426
सला 426
अमो@@ 425
पागल 425
फॉस 425
माम@@ 425
मिका 425
मूवी 425
रीत 425
विल@@ 425
शू 425
हुड 425
1896 424
अंगूर 424
काच 424
कारखानों 424
चाइना 424
छादित 424
टाई@@ 424
निकायों 424
फतेहपुर 424
बताए 424
बांध@@ 424
बोझ 424
भूवैज 424
महज 424
हता 424
1909 423
अधिकांशतः 423
कुलम 423
खलन 423
थागत 423
पराक 423
पुरातन 423
माया@@ 423
मोहित 423
यशो@@ 423
ेयर 423
v@@ 422
असेंबली 422
कंधे 422
कारिता 422
जयन 422
झी@@ 422
तुलसीदास 422
नांक 422
नाली 422
रसव 422
षान 422
सामं@@ 422
सी.@@ 422
सूखा 422
३९ 422
४६ 422
७२ 422
1913 421
अजी@@ 421
अजीब 421
कंस 421
दाने 421
बुश 421
मफ 421
रामेश 421
विनी 421
संकर 421
संयम 421
सैंड@@ 421
१९८२ 421
अटल 420
अभिलेखों 420
उदाहरण@@ 420
गृह@@ 420
डम@@ 420
तकरीबन 420
तहसी@@ 420
तुरन 420
नंदन 420
पैनिश 420
याधिक 420
रेडि@@ 420
लिकेशन 420
समीकरणों 420
१९८८ 420
५.@@ 420
Microsoft 419
आइलैंड 419
आईपी 419
एसि@@ 419
काय@@ 419
किलों 419
जाओ 419
तेजस 419
नाई@@ 419
पूज 419
बूढ 419
भूत@@ 419
माजी 419
मेनन 419
यारी 419
यूनिक 419
वापिस 419
ियाघर 419
खिलजी 418
खुलना 418
गुनी 418
चौकी 418
ठंड 418
मपुत 418
याभिषेक 418
लाती 418
लेटफार 418
वामी@@ 418
सीएस@@ 418
सीनेट 418
हावर 418
350 417
उठाए 417
कांगो 417
ढेर 417
तनु 417
दंगों 417
नारंगी 417
फुल@@ 417
रतिभा@@ 417
रांग 417
लेष 417
विषु@@ 417
सचिन 417
सुमन 417
१९५६ 417
१९६५ 417
४७ 417
५२ 417
W 416
have 416
आकांक 416
कुंडली 416
चालन 416
जरुरत 416
डी.@@ 416
ढे@@ 416
तेहाबाद 416
निमंत 416
बैठकर 416
माक 416
मेटल 416
रौली 416
सजावट 416
wiki 415
इरा@@ 415
करनेवाला 415
खरी 415
टवुड 415
ठंडी 415
तरीक 415
तालिबान 415
नं 415
नारायण@@ 415
नीम 415
मरणोपरांत 415
रोवर 415
वाए 415
सीख@@ 415
.डी. 414
ar@@ 414
काँग 414
कोला@@ 414
ठहरा@@ 414
तरी@@ 414
बीड 414
मॉडलों 414
राबाद 414
वीडिश 414
शख 414
शिय@@ 414
संगीतकारों 414
सवर 414
साज 414
हिब 414
अधिवर 413
औषधियों 413
कांठ 413
कॉमर 413
छाती 413
जानना 413
तुर@@ 413
तेजना 413
दशरथ 413
पंड@@ 413
पुनरावर 413
मसलन 413
मैग@@ 413
मैनेजर 413
ॅक 413
उठाते 412
किया@@ 412
जबरदस 412
तली 412
निग 412
फेक 412
बाई@@ 412
मिलाने 412
रहेगी 412
राकेश 412
रैली 412
लीवर 412
UK 411
आइसो@@ 411
आज@@ 411
एएस 411
घूम 411
टॉन 411
पंचमी 411
बरों 411
मनमोहन 411
माइन 411
मीठे 411
मैसाचुसेट 411
यादृच 411
विंध 411
शाहजहाँ 411
सुधार@@ 411
आइंस 410
उठता 410
एशन 410
कहा- 410
केयर 410
खगोल@@ 410
गुला@@ 410
टूटने 410
डमान 410
तनीय 410
पूरब 410
यूएस@@ 410
रीमद 410
लेनी 410
लैट 410
समझे 410
ate 409
इज@@ 409
डोनाल 409
तोमर 409
देवी@@ 409
नियां 409
लेखित 409
विशा@@ 409
वेल@@ 409
शत@@ 409
शौक 409
सीने 409
་ 409
8,@@ 408
IV 408
किराए 408
थिय@@ 408
दानी 408
धोखाधड 408
पुनरुत 408
भुजा 408
रिसेप 408
लेन@@ 408
वशिष 408
सिवाय 408
सूखी 408
सेंसर 408
1907 407
अवधारणाओं 407
कराती 407
काउ@@ 407
गरुड 407
जायेंगे 407
दुर@@ 407
धना@@ 407
पशुपालन 407
फाई 407
मेन@@ 407
युवावस 407
रोट 407
विधान@@ 407
शांतिपूर 407
सजाया 407
सीआई@@ 407
अंगूठी 406
अधीनस 406
आवंटित 406
एनी@@ 406
खानों 406
खेलती 406
गिज 406
घाटियों 406
चलाई 406
जश 406
पादकों 406
भाड 406
भारद 406
लोहाघाट 406
सौभाग 406
हटा@@ 406
३८ 406
४९ 406
110 405
align 405
as@@ 405
एटी@@ 405
औजार 405
घूमती 405
जमु@@ 405
टरनेट 405
टियम 405
नय 405
बहाव 405
मसीह 405
माला@@ 405
मैन@@ 405
रोद 405
लंब 405
हला@@ 405
हों@@ 405
अनुमोदित 404
अशुद 404
आभूषण 404
आर.@@ 404
कालि@@ 404
खल@@ 404
जाए@@ 404
जागीर 404
टती 404
तंतु 404
नकद 404
भोज@@ 404
मनोचिकित 404
मुं@@ 404
शाने 404
संभोग 404
आला 403
कीव 403
घाना 403
टेलिविज 403
दिस 403
परेड 403
बहिर 403
बीएस@@ 403
बोहाइड 403
रदय 403
लेट@@ 403
षरण 403
सुगंधित 403
हाइपर@@ 403
ारे@@ 403
अजीत 402
आकाशगंगा 402
एंव 402
कपिल 402
कृति@@ 402
छेदन 402
जंग@@ 402
जमींदार 402
दिखती 402
धानों 402
नलिका 402
नोत 402
पहुँचाने 402
मारकर 402
रोमांस 402
रोसे@@ 402
वं 402
वारका 402
समो@@ 402
साग@@ 402
४०० 402
८५ 402
Ch@@ 401
thumb 401
एब 401
केदारनाथ 401
खोजा 401
चान 401
तीनी 401
दुरुपयोग 401
नती 401
नल@@ 401
निपटान 401
परमा@@ 401
पुंज 401
भौतिक@@ 401
मिठाई 401
रिका@@ 401
रौपदी 401
लैंग 401
लैंड@@ 401
वानुमान 401
संबन 401
HIV 400
he 400
अनावश 400
एगी 400
कीइंग 400
चलाए 400
जेशन 400
टाय@@ 400
तेरा 400
दाओं 400
पाइप 400
पाला 400
बुंदेलखंड 400
यवसायिक 400
रेप 400
वकोश 400
सिखाया 400
2,000 399
अमरेली 399
अहीर 399
एंड@@ 399
कारखाना 399
गुजर 399
टैनफोर 399
ताओ 399
निभाता 399
बाहु 399
मीणा 399
रं 399
रेखीय 399
रैम 399
वैली 399
शिता 399
शिर 399
सिंधिया 399
2.0 398
um 398
अलास 398
आणविक 398
कमाल 398
गौण 398
टीके 398
थवादी 398
दोहरे 398
नासिक 398
पक@@ 398
पावन 398
बीजिंग 398
बीट 398
बीबी 398
रिक@@ 398
विकलांग 398
शिला@@ 398
ad@@ 397
th@@ 397
us 397
अनु 397
अमित 397
आवे@@ 397
एंटीबायोटिक 397
गपुर 397
नशे 397
नागा 397
परी 397
पी. 397
बिका 397
बोधन 397
मकर 397
योगिकियों 397
लोट 397
ारस 397
130 396
80@@ 396
ंकर 396
आईं 396
आभासी 396
आसमान 396
एरिया 396
एव 396
कनाडाई 396
गाज 396
जीवाणुओं 396
जेरिको 396
णो 396
दुः@@ 396
पतले 396
बंधक 396
मिया@@ 396
ललि@@ 396
वाडा 396
सचिवालय 396
1890 395
उँ@@ 395
खनिजों 395
घृणा 395
चड 395
चू 395
जाग 395
जीवंत 395
तंभों 395
तिमा 395
तैराकी 395
थलीय 395
दिता 395
दोषों 395
पैथी 395
फिस 395
माफी 395
मुलायम 395
मेडिसिन 395
यड 395
युज 395
रकों 395
राठौड 395
विषा@@ 395
संवे@@ 395
सिन@@ 395
सुव 395
हीरा@@ 395
not 394
कुरुक 394
चचेरे 394
पतिक 394
पीय 394
रयी 394
वानस 394
शहद 394
सिगरेट 394
सेन@@ 394
कैपिटल 393
खरा 393
गात 393
दूषित 393
नमेंट 393
निवेशक 393
पहुँचती 393
पोक 393
फैलाने 393
बमबारी 393
मंगलवार 393
यूड 393
रिवे@@ 393
रेन@@ 393
वतारो@@ 393
वद 393
शिन 393
सहानुभूति 393
सिफ 393
हावी 393
हीरे 393
हॉप 393
ेब 393
900 392
has 392
एमएल 392
जानबूझकर 392
दीपिका 392
नौका 392
पॉवर 392
मिग 392
रेख 392
वासुदेव 392
साइप 392
3000 391
6.@@ 391
अपवर 391
आँखें 391
केबाजी 391
घन@@ 391
चिंताओं 391
चुनने 391
टीय 391
नीलामी 391
पूँजी@@ 391
बंगला 391
लरी 391
लाट 391
वृन 391
समाचारपत 391
NBC 390
in@@ 390
आलेख 390
आलोच@@ 390
कालक 390
खारी 390
घरघोडा 390
चलना 390
टिज 390
पंप 390
फोटो@@ 390
बेचे 390
माघ 390
लीक 390
लॉज 390
लॉजिकल 390
समीर 390
सुदर 390
असत 389
इको@@ 389
कैमरून 389
गना 389
गवाही 389
थाप@@ 389
थितिक 389
नूतन 389
नोवा 389
बोट 389
मुठभेड 389
मेसो@@ 389
यायाधीशों 389
रास@@ 389
विचलन 389
विजेताओं 389
शिका 389
संगणक 389
समय@@ 389
सुधारक 389
७.@@ 389
कुंवर 388
कैदियों 388
छाल 388
धनात 388
बले 388
मोम 388
मोरक 388
येय 388
रिटर 388
अनुपालन 387
आइस 387
उभर 387
कोत 387
खस 387
गतिकी 387
चालकों 387
डेवलपर 387
पकाने 387
पतालों 387
पहा@@ 387
फरी@@ 387
बाँटा 387
बेसबॉल 387
भतीजे 387
भूमिकाएं 387
मरे 387
मिसाल 387
मेंस 387
मेडल 387
रोव 387
विनो@@ 387
सघन 387
34@@ 386
ch@@ 386
काँच 386
किरा@@ 386
चांद 386
टोरंटो 386
ताहांत 386
दाग 386
देगी 386
दोहराया 386
मनिर 386
रोक@@ 386
शॉ@@ 386
सिंधी 386
सिर@@ 386
100,000 385
12वीं 385
आईटी@@ 385
आठ@@ 385
आपेक 385
ओएस 385
कंद@@ 385
किड 385
गोपा@@ 385
घना 385
घूमते 385
दोष@@ 385
निराशा 385
पंचा@@ 385
फिलहाल 385
बलूचिस 385
राणु 385
रॉफ 385
साढ 385
सूबेदार 385
हटाया 385
हाथियों 385
११@@ 385
५१ 385
९८ 385
अधिकता 384
अबुल 384
अभूतपूर 384
अवरुद 384
चाहा 384
तुक 384
पदा@@ 384
पनियों 384
बगैर 384
बराबरी 384
बसु 384
बालिका 384
माड 384
मोटाई 384
मौजूदगी 384
रिकोण 384
वाजा 384
संब@@ 384
सिडीज 384
सिवा 384
सुधारने 384
हाफ 384
असम@@ 383
किलो@@ 383
केबाज 383
खींच 383
चरण@@ 383
चूक 383
जगदीश 383
देशकों 383
धमान 383
पिटल 383
पीटरसन 383
फिजी 383
बडा 383
बहुराष 383
55@@ 382
8.@@ 382
center 382
जुलता 382
दबाने 382
पासवर 382
मूलत 382
मोटा 382
मौसमी 382
रभ 382
लुम 382
वंशजों 382
वरम 382
विनाशकारी 382
सतर 382
सैल 382
अंकन 381
अंजाम 381
अधो@@ 381
अपनाई 381
अभियो@@ 381
ओलिंपिक 381
गुजरता 381
णयों 381
परंपरा@@ 381
बग@@ 381
बहू 381
बिकने 381
बिड 381
भूविज 381
मंजिला 381
मानवों 381
याशी 381
लेशियर 381
साठ 381
सुखोई 381
सुग 381
१९८७ 381
140 380
अने@@ 380
एनरॉन 380
कलि@@ 380
कॉक 380
दसवीं 380
मैके@@ 380
यूजी@@ 380
रयोजनों 380
रलैंड 380
राधिकार 380
वंशावली 380
संचालक 380
text 379
ओष@@ 379
चंद@@ 379
जासूसी 379
जीएस@@ 379
टीबी 379
धू 379
निकालकर 379
बाउ@@ 379
बिता@@ 379
रबंधित 379
रभारी 379
रिंग@@ 379
रेटेड 379
वसु@@ 379
वाइड 379
वियों 379
ंका 378
इंटरफेस 378
कोश@@ 378
टूल 378
नते 378
निःशुल 378
नॉल 378
फूट 378
मजात 378
विहीन 378
वेली 378
साख 378
ेज 378
108 377
also 377
f@@ 377
ओपेरा 377
कैल@@ 377
गाये 377
ठु@@ 377
फेन 377
भवानी 377
मभूमि 377
महिला@@ 377
मौद 377
यभार 377
योतिर 377
राजतंत 377
रैंकफर 377
वृहत 377
शेट 377
इंतजार 376
ओज 376
कपि@@ 376
गरीबों 376
दीकी 376
दृ@@ 376
नदियां 376
पतंजलि 376
बु 376
महासंघ 376
मिना 376
मुलाक 376
लाउड 376
वस@@ 376
विर 376
वैधानिक 376
वैवाहिक 376
शनशास 376
ैक 376
--- 375
3.5 375
अदा@@ 375
उतने 375
ओबामा 375
कीपर 375
कॉफ 375
घिरे 375
चुनौतियों 375
जापुर 375
डालर 375
धरमजयगढ 375
निकालना 375
पंथी 375
मसाला 375
यारा 375
रपत 375
रानी@@ 375
लिसिस 375
वाहिनी 375
सरसों 375
सहिष 375
साइमन 375
सारस 375
हित@@ 375
१९७६ 375
४,@@ 375
.प 374
1902 374
meridian 374
ंचा 374
अनू@@ 374
आड 374
ईर 374
ताकार 374
निकास 374
बीएस 374
महाकवि 374
मेलनों 374
रवीन 374
लांग 374
विधायिका 374
शनरी 374
संचय 374
संतृप 374
समझता 374
सौम 374
am@@ 373
अंदरूनी 373
अनावरण 373
असमानता 373
आभास 373
ऊँ 373
एस.@@ 373
कारा@@ 373
गरुङ 373
तापलट 373
तिकला 373
दिखते 373
धीश 373
पटियाला 373
पतला 373
परिलक 373
पांडवों 373
पूंछ 373
मसा@@ 373
युवराज 373
योतक 373
रचनाएं 373
रिच 373
वानु@@ 373
विवश 373
शिवजी 373
हाना 373
१९७३ 373
7.@@ 372
उतरने 372
कुंड@@ 372
घुटने 372
ठल 372
तिज 372
दिखायी 372
दीपावली 372
नह@@ 372
बेकिस 372
यायालयों 372
रंजन 372
रेनों 372
रेमचंद 372
रोमानिया 372
लॉयड 372
वृति 372
सभापति 372
हिमा@@ 372
िताब 372
ियंस 372
१९३० 372
४१ 372
इवेंट 371
ऋणात 371
केला 371
गॉर 371
जौहर 371
डूब 371
डेबिट 371
तरंगदैर 371
ताब 371
बतला@@ 371
यातना 371
रंथ@@ 371
रहवी 371
रोध@@ 371
लबर 371
लात 371
संयोजक 371
सींग 371
िकता 371
०६ 371
५३ 371
५६ 371
name 370
अदृश 370
आंग@@ 370
ईद 370
खतरों 370
घेराबंदी 370
झरना 370
तोप 370
नाकाम 370
नानक 370
नाया 370
पों@@ 370
मणिपुरी 370
मृग 370
मौन 370
यूएसए 370
योहारों 370
वॉशिंगटन 370
९५ 370
00721 369
5,000 369
इमामगंज 369
उदहारण 369
एंट 369
एआई 369
एशियन 369
एसटी@@ 369
कहा@@ 369
कारो@@ 369
कृत@@ 369
जेड 369
टानी 369
धव 369
निरस 369
बोनेट 369
रणों 369
रसं@@ 369
वरीयता 369
वारिस 369
वैच 369
सगाई 369
सवाना 369
सोफ 369
er@@ 368
w@@ 368
कंग@@ 368
कृपा@@ 368
खाती 368
गोड 368
जस@@ 368
जौ 368
डियर 368
तटों 368
देखती 368
मसाले 368
ययंत 368
रायण 368
रीति@@ 368
लट 368
विका 368
हज@@ 368
अधिवक 367
असुर 367
कोव 367
छू 367
टाना 367
टीले 367
ढूँ@@ 367
तदनुसार 367
दिनी 367
दील 367
धनबाद 367
नदी@@ 367
पढाई 367
पेशावर 367
बिम 367
बीजापुर 367
रचारित 367
राधाकृष 367
रोकना 367
लोबिन 367
सुशील 367
ौदा 367
असुरक 366
कांट 366
काउंटर 366
किशोरावस 366
गांधी@@ 366
चादर 366
थाईलैण 366
दां@@ 366
देनी 366
पहुँचते 366
पिशाच 366
पुकारा 366
बसों 366
भि 366
लगाव 366
लभ@@ 366
विंड@@ 366
विधायी 366
सईद 366
सीरियाई 366
सुम 366
Indian 365
उखाड 365
ऑटोमोबाइल 365
खरीदारी 365
गोबर 365
जने@@ 365
ताक@@ 365
धनों 365
धेश 365
नम@@ 365
माधोपुर 365
ललिता 365
विचारकों 365
वेधशाला 365
शिशुओं 365
संभाल 365
ाख 365
१९७४ 365
आव@@ 364
ईसाइयों 364
गुरू@@ 364
डौ@@ 364
तोप@@ 364
थिंग 364
नाप 364
पौष 364
बाधाओं 364
बीटल 364
मंज 364
महलों 364
मीठा 364
रतिभागी 364
रियाशील 364
वाधर 364
विशेषाधिकार 364
शासकीय 364
अपरिवर 363
आगम 363
एमी 363
ऐड 363
जिये 363
टी. 363
टेरी 363
तेजक 363
तोली 363
दबा 363
पूछताछ 363
बिय@@ 363
महानिदेशक 363
मेनिया 363
यारोपण 363
यीशु 363
वनियों 363
विला 363
वी. 363
वेदिक 363
सांसारिक 363
ंदे 362
एसोसिएट 362
कहां 362
कारो 362
कासन 362
कि.मी. 362
खिलाडी 362
गोरि@@ 362
देवों 362
मने 362
रतिभाशाली 362
रावधानों 362
लाप 362
वृहद 362
षाएँ 362
1880 361
60@@ 361
एयरबस 361
गाय@@ 361
पराओं 361
पीट 361
फिनलैंड 361
बाएँ 361
महावृत 361
रभाषा 361
रवै@@ 361
विधाओं 361
षतिपूर 361
समा 361
ोला 361
आमिर 360
कासित 360
जादुई 360
जुलती 360
देस 360
निः@@ 360
निवेदन 360
पुलि@@ 360
बहरीन 360
मांगा 360
रोलिंग 360
लजी 360
संवेद@@ 360
ारण 360
Q@@ 359
आजीविका 359
आतंक 359
इसरो 359
कलिंग 359
चप@@ 359
छपाई 359
छित 359
टिक@@ 359
दावों 359
निपुण 359
रुम 359
रूख 359
रेश@@ 359
रोकता 359
सभाओं 359
इराकी 358
ओलंप@@ 358
चांद@@ 358
डियो 358
फूड 358
भगृह 358
मिलर 358
यायी 358
रग@@ 358
रावास 358
लूकोज 358
लेरी 358
वसम 358
विटर 358
शौकिया 358
संकुचन 358
सराहा 358
हिरासत 358
१९६३ 358
६४ 358
70@@ 357
अभिकल 357
ओवल 357
ओवेन 357
गिने 357
गिलगित 357
जटिलताओं 357
जासूस 357
जीरा 357
टकरा@@ 357
टायर 357
ताना@@ 357
ताली 357
तिपूर 357
दम@@ 357
दिलाई 357
देहा@@ 357
धारियों 357
नने 357
नमूनों 357
बॉबी 357
मशाला 357
माधुरी 357
ya 356
अमीन 356
असफलता 356
कारिक 356
गियर 356
जनसंघ 356
जोल 356
टेरा 356
णुओं 356
तुमने 356
दिनेश 356
धारकों 356
पंखों 356
बनों 356
बेह@@ 356
यूनिकोड 356
लड@@ 356
लाइज 356
सीमा@@ 356
हरी@@ 356
उदार@@ 355
केश@@ 355
गतिविधियाँ 355
जनवादी 355
डायरी 355
डेरा 355
दाना 355
पुरुषोत 355
मालि@@ 355
मोग 355
रमबद 355
रीना 355
रेरणा@@ 355
रेस@@ 355
लून 355
सरो 355
साहि@@ 355
सीमाएं 355
हाली 355
ेगी 355
ंचे 354
अहम@@ 354
करि@@ 354
काग 354
खोली 354
छुटकारा 354
जीरिया 354
झंडा 354
डव 354
थितियां 354
नाकर 354
नैन 354
पडा 354
पहुंचते 354
पिंक 354
फोरस 354
बकरी 354
भागीदार 354
मातृ 354
यायपालिका 354
युम 354
वीजा 354
व० 354
शेरशाह 354
साईट 354
हिया 354
१९७९ 354
२९@@ 354
ईसा@@ 353
कवक 353
के.@@ 353
जेरी 353
तानपुर 353
थोक 353
दास@@ 353
निरोधक 353
बालकों 353
मली 353
मारकों 353
मुकेश 353
सोचने 353
इनस 352
उठाना 352
एथेंस 352
एलसी 352
गोरी 352
चंदा 352
जाड 352
झांसी 352
तेरी 352
दने 352
दफनाया 352
दिरा 352
नान@@ 352
नानुसार 352
पूछ@@ 352
बिश 352
भूरा 352
यव 352
वैसी 352
शॉपिंग 352
शौर 352
षुओं 352
ियोग 352
ag@@ 351
अंश@@ 351
उठे 351
कलाकृतियों 351
कलाप 351
कैरि@@ 351
गुम@@ 351
चुनावी 351
डैम 351
परतों 351
बेग 351
मेम 351
युगों 351
विधिवत 351
शाखाएं 351
सरदारों 351
सीमाएँ 351
सेंटीमीटर 351
१९६९ 351
9,@@ 350
bdi 350
जिमी 350
फू 350
बुराई 350
भैंस 350
रतियों 350
रतीकों 350
राएं 350
लल 350
लूरु 350
लेर 350
वायुयान 350
विशेषतः 350
शियाई 350
षगांठ 350
सतीश 350
०७ 350
1800 349
1899 349
50,000 349
ism 349
ंतर 349
अंतत 349
अपोलो 349
आधुनिक@@ 349
इथियोपिया 349
एलजी 349
कूर 349
गन@@ 349
घेरा 349
टाइड 349
नांकित 349
पूंजी@@ 349
बीजों 349
मानदंड 349
मिनि@@ 349
यामितीय 349
रॉइड 349
वाडोर 349
विनियमित 349
वियना 349
शाश 349
समायोजन 349
साइबेरिया 349
सीपी@@ 349
सुलझाने 349
सूचनाओं 349
सेरा 349
Rousseau 348
j 348
ंख@@ 348
इया 348
कपकोट 348
करौली 348
किरौली 348
घटनाक 348
जप 348
टडीज 348
टोफर 348
तान@@ 348
मंचन 348
याई 348
शैवाल 348
समूचे 348
सहाय 348
हृद@@ 348
होन 348
६०० 348
20,000 347
3,000 347
आनुवांशिक 347
एकाग 347
ऐस 347
कछ@@ 347
कमजोरी 347
कैलिफ 347
गुरुआ 347
चटर 347
जिदों 347
तरंग@@ 347
पहुँची 347
पीए 347
बजाया 347
महे@@ 347
मिलेगी 347
मोहन@@ 347
यमु@@ 347
रभु@@ 347
रांग@@ 347
रेंद 347
लई 347
वाय 347
वीणा 347
अंडरटेकर 346
अथ@@ 346
किग 346
गिस 346
नना 346
नाजी 346
नाटो 346
पहुंचता 346
फोकस 346
बेकर 346
बैठकों 346
बॉयज 346
भत 346
मनोरंजक 346
याकुमारी 346
सामी 346
हँ@@ 346
हेर 346
हैंड 346
ोरम 346
un@@ 345
ईल 345
एली@@ 345
कशायर 345
चलाना 345
टियन 345
टीकाकरण 345
टॉर 345
डिजा@@ 345
ताश 345
दरबारी 345
मुंडा 345
रब@@ 345
शैतान 345
संभाव 345
सय 345
साहसिक 345
सूफ 345
सैनी 345
हारने 345
re@@ 344
आइस@@ 344
करनेवाली 344
गिरती 344
घरा 344
चयापचय 344
जहा 344
जोस 344
तेज@@ 344
पहुँचता 344
पानीपत 344
फली 344
मनोनीत 344
माज 344
यूटरों 344
यूयार 344
रवी@@ 344
रितानी 344
रेताओं 344
शिलालेखों 344
सामन 344
०I 344
एसयू 343
कृषक 343
खंडित 343
गोंड 343
चतु@@ 343
छाओं 343
णुता 343
पैं@@ 343
मिथक 343
यः 343
रीमियम 343
रुओं 343
लयों 343
षिका 343
१९६७ 343
et 342
अरविन 342
एंजाइम 342
एजुकेशन 342
कमांड 342
कुओं 342
केर@@ 342
गभाना 342
नट@@ 342
नीति@@ 342
पठन 342
बीघा 342
बेकार 342
मंगल@@ 342
मंडली 342
यू.एस. 342
राजन@@ 342
रायो@@ 342
लची@@ 342
वायुमंडलीय 342
वेगास 342
सीडी@@ 342
६६ 342
codice 341
अचल 341
इशारा 341
एडी 341
कायस 341
गम@@ 341
गिंग 341
जता 341
डिटेक 341
डिपार 341
दरिया 341
दह@@ 341
पहचाने 341
बगी@@ 341
बाइट 341
बारूद 341
मढ 341
मुण 341
रहीम 341
रांट 341
रिनिदाद 341
रीनिवास 341
रीफ 341
वेंक@@ 341
संतोष 341
सांग@@ 341
सॉल 341
६१ 341
kh@@ 340
this 340
अनुभव@@ 340
अमेज 340
आकाशवाणी 340
ऑर@@ 340
गांधीजी 340
गोपाल@@ 340
जहर 340
तवाद 340
नवो@@ 340
नाराय@@ 340
पितृवंश 340
पिरामिड 340
बृह@@ 340
माणाधीन 340
मातृवंश 340
रियलिटी 340
वेशभूषा 340
सीमांत 340
सेटिंग 340
हिसार 340
हैँ 340
हैट 340
ारू@@ 340
125 339
अखाड 339
अभय 339
उग@@ 339
कठोरता 339
कोशिकीय 339
जिलिंग 339
तांग 339
परिणत 339
फेंकने 339
मेय 339
रुव@@ 339
रोफोन 339
विदर 339
संके@@ 339
सिग@@ 339
ौल 339
00720 338
1895 338
ˈ@@ 338
अवतरण 338
असेम 338
एमि@@ 338
खैरागढ 338
गाजीपुर 338
ञप 338
डान 338
तनिक 338
दुखी 338
पिटक 338
मजबूती 338
मटी20आई 338
महानतम 338
रतिहार 338
रामन 338
रीमेक 338
वीट 338
सिलसिला 338
१९८१ 338
५४ 338
1903 337
IN@@ 337
उंड 337
कमाने 337
कुला 337
जामा 337
जार@@ 337
नफ 337
नाइड 337
परदे 337
बुधवार 337
बेज 337
बैच 337
भरण 337
रचनाकार 337
रिंसिपल 337
रेशों 337
रोह@@ 337
लेंट 337
समता 337
१९६१ 337
१९६४ 337
किमी@@ 336
डास 336
तीक 336
दौला 336
धारावाहिकों 336
बाना 336
भूगर 336
यनाथ 336
लेटो 336
वैल 336
संघों 336
संयोजित 336
साँस 336
साव@@ 336
सीखना 336
सीबी@@ 336
ine 335
अके@@ 335
ऑनर 335
गुजरने 335
घुमा@@ 335
चण 335
जम@@ 335
जानेवाली 335
जोशीमठ 335
डवों 335
तापीय 335
तुशिल 335
थापा 335
निदेशालय 335
बराम@@ 335
बिंग 335
मगरमच 335
मदन@@ 335
लिवर 335
संबंध@@ 335
सिंक 335
सिलसिले 335
हवें 335
१९६६ 335
अफसर 334
आया@@ 334
इजराइल 334
उभरते 334
एसएस 334
केली 334
जोश 334
टीवर 334
धीमा 334
पाव@@ 334
बहार 334
बित 334
रकृति@@ 334
रघुनाथ 334
रागैतिहासिक 334
रिव 334
रुश 334
रूड 334
लूप 334
लॉरेंस 334
वही@@ 334
वामन 334
वेव 334
शुभारंभ 334
शृंगार 334
1860 333
es 333
ology 333
इम@@ 333
कुआ@@ 333
कोंकणी 333
गड@@ 333
जीनिया 333
जें@@ 333
टमिंस 333
निभायी 333
निमोनिया 333
परिणा@@ 333
पिज 333
भारतेन 333
रिगेड 333
रेनिंग 333
शंघाई 333
शटल 333
शॉन 333
षाविद 333
सिलोना 333
हाला@@ 333
ानें 333
1898 332
Highway 332
अनुराग 332
आगंतुकों 332
कुख 332
कोलेस 332
खंडहर 332
खोले 332
डायना@@ 332
डॉट 332
दवाएं 332
दाँ@@ 332
पकर 332
पांड 332
पूँछ 332
मख@@ 332
यादगार 332
यूजियम 332
राशि@@ 332
रिलायंस 332
रिले 332
लुइस 332
वादिष 332
साइबर 332
सिनी 332
हरिश 332
हवाओं 332
होटेल 332
747 331
आलोक 331
किश 331
जिला@@ 331
जें 331
डीआर@@ 331
डैनियल 331
तिरवा 331
पली 331
पांचवीं 331
पाठशाला 331
याना 331
यारण 331
युत@@ 331
रद@@ 331
रेडमार 331
लेनिन 331
वायरलेस 331
विद@@ 331
१९७८ 331
1858 330
अठारह 330
उदारवादी 330
एडवेंचर 330
कलश 330
तीया 330
दिया@@ 330
पोन 330
रिहाई 330
लीं 330
वाहा 330
शंख 330
हवा@@ 330
२७@@ 330
अनिच 329
आईएसओ 329
उपनदी 329
ऑयल 329
कबी@@ 329
कसम 329
केड 329
कोशि@@ 329
खरा@@ 329
गारिया 329
चारो 329
जली 329
ठियों 329
डेनिस 329
तूरी 329
पदवी 329
पोज 329
बंधु 329
बदलना 329
बिताए 329
बीजा@@ 329
रूपता 329
शिलांग 329
सदिश 329
समोआ 329
अंतरा@@ 328
आईओसी 328
आदेशों 328
इका@@ 328
ईसी 328
उषा 328
ओलि@@ 328
कंबोडिया 328
कोशिकाएँ 328
टेने@@ 328
डिएगो 328
तिकर 328
तुगलक 328
नियस 328
पनिषद 328
पुड 328
पूँजी 328
यानु@@ 328
युलर 328
यूटी@@ 328
रशंसित 328
रोमांचक 328
१९४० 328
1889 327
अँग 327
इटावा 327
इवान 327
एनीमेशन 327
करिश 327
कशे@@ 327
गोमती 327
गोलीबारी 327
जानकर 327
जे.@@ 327
टेश 327
ताजिकिस 327
दुकानें 327
नवाचार 327
नायकों 327
पणियों 327
परो@@ 327
फंस 327
बची 327
भगवद 327
मय@@ 327
मैथुन 327
यूँ 327
लंकार 327
विनि@@ 327
वैभव 327
शाहरुख 327
ेंगे 327
१९५७ 327
1870 326
ap@@ 326
ंके 326
आईबीएम 326
आसीन 326
इकबाल 326
एल.@@ 326
केतु 326
कॉप 326
जाम@@ 326
डगलस 326
तिमाही 326
पेंट 326
बगीचे 326
बदा@@ 326
बारा 326
मारि@@ 326
मेष 326
रानिक 326
रेरण 326
लांच 326
लोशिप 326
वाइंट 326
वायरल 326
विनम 326
शुदा 326
संजीव 326
संभाली 326
हीमोग 326
ेसर 326
ia 325
अमीनो 325
अवर 325
इफ 325
ऋष@@ 325
कावेरी 325
कूप 325
टियो@@ 325
डार@@ 325
तद 325
दशी 325
धमा@@ 325
फड 325
भाद 325
रिद 325
रेव 325
वसूली 325
सीस 325
हिमानी 325
ॅल 325
15वीं 324
ँसी 324
अधिष 324
ईथर 324
कछु@@ 324
कॊ@@ 324
खेलता 324
गनी 324
जैज 324
णांक 324
धनराशि 324
नेम 324
पेंडे@@ 324
फैन 324
ममता 324
यकतानुसार 324
योदय 324
राँची 324
रीडर 324
हाइपो@@ 324
८४ 324
22@@ 323
ous 323
अदालतों 323
ऑपरेटर 323
चितता 323
छठा 323
जाति@@ 323
जेसन 323
झे 323
दिलाया 323
बरसात 323
मेंटल 323
रांतिकारियों 323
लिवरपूल 323
सलामी 323
साधारणत 323
सिरों 323
हील 323
१८५७ 323
1885 322
ंगा@@ 322
उपसर 322
एसए 322
कभार 322
गिक 322
जमी@@ 322
जातीं 322
डफ 322
थितियाँ 322
धालुओं 322
नेचर 322
फान 322
बजाने 322
भयभीत 322
मुहैया 322
यवहार@@ 322
रृ@@ 322
रोटोटाइप 322
लियाई 322
विसेज 322
सहे@@ 322
सावधान 322
१५० 322
1891 321
at@@ 321
² 321
अहमदनगर 321
आईएल 321
छुड 321
टीग 321
डेशन 321
निरं@@ 321
नोएडा 321
फीसदी 321
बंग 321
बत@@ 321
बांस 321
बाईं 321
मिशनरी 321
मेशन 321
याग@@ 321
लोरीन 321
वाटर@@ 321
विजुअल 321
विडियो 321
विशालकाय 321
वू 321
वेदांत 321
शनिकों 321
हां 321
00719 320
1887 320
IS@@ 320
Z@@ 320
उभरे 320
एकाधिकार 320
करतीं 320
करम 320
जनजातीय 320
जानकी 320
जिप 320
ढने 320
नवमी 320
बफ 320
बेथ 320
मोहक 320
शिरा 320
सामंत 320
सिज 320
हीनता 320
१९२० 320
८२ 320
अंध@@ 319
अधिकाधिक 319
अनगिनत 319
आधुनिकीकरण 319
एमटीवी 319
एवेन 319
कुरआन 319
घोंस@@ 319
घोटाले 319
तरप 319
तांबे 319
दकर 319
दलितों 319
दसवें 319
नद@@ 319
पीतल 319
भूम 319
महापौर 319
मानसिंह 319
यूंकि 319
रचे 319
रृंखलाओं 319
वॉकी 319
सहकर 319
हिज 319
हुकूमत 319
१९६८ 319
11@@ 318
di@@ 318
आच 318
उतारा 318
औरंगज 318
झाँसी 318
झीलें 318
तनधारी 318
था- 318
दीवारें 318
पाँ@@ 318
पाटिल 318
फोरम 318
बाराकोट 318
बारीक 318
बीजगणित 318
बेटों 318
भेजता 318
मता@@ 318
मोटर@@ 318
रांगण 318
सुनी 318
ईक 317
काप 317
कारगर 317
जावेद 317
जी.@@ 317
दना 317
दयानन 317
धवन 317
फो 317
बलराम 317
रभार 317
लमैन 317
लीला@@ 317
शहा@@ 317
सिव 317
िरोज 317
র@@ 317
11वीं 316
33@@ 316
z 316
अंजलि 316
एबरडीन 316
एह@@ 316
ओरे@@ 316
काग@@ 316
खाप 316
गणों 316
गूढ 316
जुटाने 316
टिना 316
थूल 316
धीर 316
निषिद 316
फुफ 316
बेड@@ 316
मजिस 316
मायने 316
रंगपुर 316
रणजीत 316
रतिबंधों 316
लाईट 316
संहिताओं 316
सिलिकॉन 316
हुगली 316
६३ 316
ak@@ 315
ईमानदारी 315
एंटीबॉडी 315
एर@@ 315
दाएँ 315
बवत 315
मजाक 315
मिली@@ 315
मुंशी 315
य- 315
यायमूर 315
शीला 315
साँप 315
हमलावर 315
ियल 315
.एस.@@ 314
105 314
ंचा@@ 314
अरावली 314
आरेख 314
इमरान 314
एकाधिक 314
कान@@ 314
कुशीनगर 314
टुअर 314
ढाँचे 314
तकालयों 314
नगरीय 314
पिंडों 314
मरी@@ 314
लायंस 314
लोहिया 314
वैधता 314
शें 314
समांतर 314
सुखद 314
हनुमान@@ 314
हाइब 314
अनुसूची 313
एटर 313
काशीपुर 313
गिब 313
चैप 313
जुलूस 313
पहुंचाया 313
पाउ@@ 313
बाबू@@ 313
भुजाओं 313
मछ@@ 313
राइक 313
राचीनकाल 313
रावणकोर 313
वुर 313
षितिज 313
सतही 313
सिकुड 313
हिजरी 313
ोतरी 313
q 312
revision 312
अनजाने 312
असंतोष 312
ईंटों 312
कंपन 312
कालान 312
कासिम 312
किंवदंती 312
कुली 312
खोजों 312
गरिमा 312
जबड 312
ठण 312
तगालियों 312
तवा 312
पिका 312
बीता 312
मैगज 312
यूएफ 312
रशं@@ 312
रुपया 312
रुल 312
लिना 312
वसनीयता 312
शासन@@ 312
सीपी 312
सोस 312
०८ 312
०९ 312
१९४९ 312
६८ 312
Q 311
ai 311
अमेरिकियों 311
इंडेक 311
इयर 311
एवरेस 311
एसपी@@ 311
और@@ 311
कमेनिस 311
गुणांक 311
जेनिक 311
डेविल 311
तमी 311
नारीवादी 311
पूना 311
फैलता 311
बाहु@@ 311
बेने@@ 311
रंगी 311
रिष 311
रुधिर 311
रोश 311
वरीय 311
ाँ 311
अंशों 310
अगु@@ 310
आसवन 310
ऋषिकेश 310
कुलर 310
गुंबद 310
टॉल 310
थिती 310
दफन 310
नतीजा 310
परांत 310
फाइट 310
येल 310
रको@@ 310
रभा 310
रहम 310
रेजि@@ 310
रोफाइल 310
लेषक 310
लैंडिंग 310
वानर 310
समैन 310
सीटी 310
हबी@@ 310
1897 309
उकसा@@ 309
कठपुतली 309
कुला@@ 309
कूपर 309
चंपारण 309
देवरिया 309
नप 309
नागा@@ 309
नॅ@@ 309
पदभार 309
पुदु@@ 309
बराक 309
बेरोजगारी 309
भाला 309
मविश 309
महंगा 309
मातृभूमि 309
मिड 309
मोहल 309
यति 309
यदु@@ 309
यभि@@ 309
रिटिक 309
लगांव 309
विवरणों 309
हाँ@@ 309
५८ 309
५९ 309
101 308
River 308
इनर 308
काटा 308
गढ@@ 308
गरेट 308
छिपे 308
जाल@@ 308
जीनोम 308
टीका@@ 308
तमा@@ 308
देशांतर 308
पांचवां 308
पितामह 308
पैदावार 308
फिलाडेल 308
बदली 308
बेंग@@ 308
बेली 308
मालाबार 308
मूक 308
रच 308
रागी 308
रुत@@ 308
रोमो@@ 308
लिच 308
विनायक 308
विफ 308
विभव 308
विलायक 308
वृंदावन 308
वेरी 308
सीआर@@ 308
सीबीआई 308
सेकेंड 308
हाजी 308
ंडर@@ 307
आगंतुक 307
चुप 307
चेर 307
छंदों 307
डकर 307
डेम 307
देहान 307
नालंदा 307
नुकी@@ 307
पेशियों 307
फसलें 307
बोत 307
भलाई 307
राधि@@ 307
रिके@@ 307
लॉजिक 307
लोवाकिया 307
शशि 307
ॉस 307
system 306
अनुकू@@ 306
अभिजात 306
अवॉर 306
इकाइयाँ 306
एलेन 306
ओरि@@ 306
कहला@@ 306
कारगिल 306
कोपी 306
कोह@@ 306
खार 306
खोपड 306
गायों 306
गीत@@ 306
नीतिशास 306
नेज 306
नेवालों 306
पीली 306
बाथ 306
बैरी 306
मताधिकार 306
मिकी 306
रसायनों 306
रिनि@@ 306
लॉक@@ 306
वशक 306
वेनिस 306
षारीय 306
हापुर 306
७४ 306
९६ 306
104 305
1894 305
अपरा@@ 305
अरि@@ 305
अवगत 305
आतंरिक 305
ऑल@@ 305
ककर 305
कटॉप 305
कसंगत 305
किंस 305
कुप 305
कों@@ 305
खल 305
चारे 305
जादूगर 305
बिनी 305
मारना 305
रामर 305
रावी 305
रॅ@@ 305
रोगा@@ 305
लाश 305
लीबिया 305
वेंशन 305
सबका 305
अंडमान 304
अनूठी 304
अमृतपुर 304
आईआईटी 304
इनाम 304
किनी 304
कोकेन 304
कोले@@ 304
खींचा 304
खेर 304
गुयाना 304
गुरा@@ 304
टेलीग 304
तनधारियों 304
दरवाज 304
दाश 304
दुआ 304
दुरी 304
देह@@ 304
दोहा 304
नकदी 304
पच@@ 304
पाशा 304
फोल 304
बसंत 304
बारबाडोस 304
महीन 304
मैटिक 304
रलय 304
रूपान 304
वियतनामी 304
सुनते 304
ोली 304
१९५९ 304
TV 303
आदम 303
आयो@@ 303
आव 303
कनी 303
कहलगाँव 303
कुरु 303
कोलंबो 303
चेयर 303
जया 303
जागृत 303
तरोत 303
थिल 303
दूक 303
दोहरा 303
धैर 303
नशीली 303
नाट@@ 303
बरसा@@ 303
बिखरे 303
मिथुन 303
मिलीमीटर 303
मॉरीशस 303
मोरी 303
यशाला 303
रमांक 303
रसि@@ 303
रारूपों 303
रेडिंग 303
रॉप 303
रोब 303
सीई 303
सुपरहीरो 303
िलों 303
१९४५ 303
१९५५ 303
५७ 303
८१ 303
८३ 303
OS 302
er 302
उभरी 302
एंडी 302
एए 302
कले 302
कॉपीराइट 302
खें 302
गुरुवार 302
गैंग 302
चमकदार 302
चिंता@@ 302
जाँ@@ 302
तबाह 302
दंड@@ 302
दरार 302
नवीनीकरण 302
फलत 302
फस 302
बीसी 302
भरकर 302
यरिंग 302
याही 302
लंबित 302
लक@@ 302
लाइसे@@ 302
विट@@ 302
हेन@@ 302
६७ 302
1888 301
अनजान 301
इयान 301
उलट 301
खरीदी 301
छिपा 301
जलन 301
जीभ 301
टैन 301
टोज 301
डप 301
तिरुपति 301
तुम@@ 301
दयालु 301
नफरत 301
पराशर 301
परोक 301
बंदरगाहों 301
बीटी 301
युनिवर 301
रवी 301
रशासकीय 301
राड 301
रायोजक 301
लिहाज 301
लेषणात 301
लोकमान 301
वुड@@ 301
शूद 301
शेयरधारकों 301
संपी@@ 301
1,0@@ 300
360 300
right 300
ंडेड 300
उभ@@ 300
कालाढूगी 300
केम 300
खालसा 300
जरुरी 300
जुलते 300
जोली 300
भूस 300
मचर 300
मानदंडों 300
मोट@@ 300
सुद 300
ौरी 300
८०० 300
00PM 299
J 299
अंसारी 299
अपडेट 299
आईसी 299
उनमे 299
दिश 299
निगमों 299
निबन 299
पापों 299
पेशा 299
बंधी 299
बगदाद 299
रबंध@@ 299
राथ@@ 299
रानों 299
रीनिंग 299
रुझान 299
रेखाएँ 299
लफ 299
लेमिंग 299
वांछनीय 299
विथ 299
विव@@ 299
वेबसाइटों 299
संपीड 299
सपाट 299
सिपाहियों 299
230 298
ab@@ 298
ंपल 298
अमरावती 298
उलूम 298
कथाकार 298
कदाचित 298
कशास 298
काबू 298
केंट 298
खोजी 298
खोने 298
चिश 298
जिट 298
पाणि@@ 298
फिकेशन 298
बेहोश 298
भैं@@ 298
माननीय 298
माही 298
मुट 298
यूह 298
रतन@@ 298
रायश 298
रैफिक 298
रोहि@@ 298
लेटों 298
वाहों 298
विकास@@ 298
संकेतक 298
13वीं 297
1882 297
ंब 297
अतुल 297
अपमानजनक 297
उगाया 297
उपनिवेशवाद 297
एरि@@ 297
खजूर 297
खला 297
चिकन 297
डां@@ 297
णकालिक 297
धरा@@ 297
धांत@@ 297
नंदिनी 297
नरों 297
पिताजी 297
फिज 297
बंधु@@ 297
बैठते 297
मुआव@@ 297
मुनियों 297
याणी 297
रतियोगियों 297
राघव 297
राजपुर 297
रिटि@@ 297
षो@@ 297
संवेग 297
६२ 297
७६ 297
14वीं 296
An@@ 296
WWF 296
अनिर 296
आमेर 296
इंजीनियरों 296
एनी 296
किरणें 296
कोण@@ 296
खजाने 296
गगन@@ 296
गुदा 296
गैरी 296
चिंत@@ 296
चेम 296
नेताजी 296
नौसैनिक 296
पुनः@@ 296
फँ@@ 296
बिलिटी 296
भेदों 296
माओ@@ 296
रतिबिंब 296
रयोगशालाओं 296
लैंग@@ 296
लोचन 296
विशेषत 296
शिं@@ 296
सबी 296
सहभागिता 296
साइंसेज 296
सुधा@@ 296
सुपरमैन 296
सुवर 296
सेवारत 296
सोचते 296
ारिका 296
िश 296
१९५२ 296
00@@ 295
18@@ 295
NA 295
le@@ 295
उसमे 295
एफबीआई 295
एशेज 295
कमिश 295
कीमती 295
गोदाम 295
चिकनी 295
जूनागढ 295
झटके 295
टवर 295
ढूंढ 295
नंदी 295
नसन 295
निर@@ 295
पुल@@ 295
पॉन 295
फाइने@@ 295
बाउल 295
मांस@@ 295
यूलर 295
रतिरोधक 295
रमो@@ 295
राच 295
रेडियोधर 295
रेलर 295
विचरण 295
शैल@@ 295
सावन 295
.सी.@@ 294
आइ 294
आटा 294
उदा@@ 294
औचित 294
कॅरियर 294
जमशेदपुर 294
जोरदार 294
झार@@ 294
टप 294
डायोड 294
तट@@ 294
थें 294
दीप@@ 294
धां@@ 294
नेय 294
पकवान 294
परिधान 294
फन 294
फाँसी 294
फायदे 294
बाय 294
भृ@@ 294
मवाद 294
महंगे 294
राजनय 294
रिवाजों 294
रेजी@@ 294
लहरी 294
लाओ 294
वैंकूवर 294
सपोर 294
हैलो@@ 294
१८वीं 294
१९४२ 294
१९५४ 294
wikitext 293
अंतरिम 293
इंडो 293
उठ@@ 293
कुर@@ 293
केने@@ 293
कैट 293
कोज 293
गाल 293
जनसँख 293
जैकी 293
ञाता 293
टल@@ 293
तंबाकू 293
तोता 293
दन@@ 293
पिड 293
बहराइच 293
बहुवचन 293
यिन 293
रणाम 293
राइमरी 293
रीप 293
शमन 293
संकुचित 293
सिड 293
५,@@ 293
In@@ 292
अभिगम 292
अश@@ 292
इकलौ@@ 292
एएम@@ 292
एथ@@ 292
किशन@@ 292
कीकरण 292
गंगाधर 292
घनी 292
जलि 292
टोप 292
तावों 292
तौल 292
दशा@@ 292
नाए 292
नायडू 292
नियमन 292
परोसा 292
बिच 292
बिताने 292
बीसीसीआई 292
मेडि@@ 292
योगा@@ 292
रूपा@@ 292
रेशे 292
लॉजिस 292
हीर 292
1886 291
can 291
कहलाने 291
कामकाज 291
खले 291
गायकों 291
जेज 291
जॉब 291
टीपू 291
टॉमी 291
डिम 291
बहुल 291
बाघों 291
मेघ 291
यास@@ 291
र- 291
रूपा 291
लोको@@ 291
वोर 291
सई 291
सोमनाथ 291
हु 291
अमूल 290
आईआर@@ 290
आतंकी 290
इकाइयां 290
ईं@@ 290
एनिमेशन 290
एलर 290
ऑडिशन 290
खाकर 290
गास 290
गोलियों 290
चोटों 290
जिका 290
जुआ 290
जुडी 290
दजी 290
धिकरण 290
नीपुर 290
पें 290
फादर 290
मधुबनी 290
यूरॉन 290
रमाणपत 290
रमुखों 290
राशियों 290
रूल 290
लाओस 290
विविध@@ 290
समझकर 290
सोलोमन 290
हीलियम 290
होनेवाली 290
200@@ 289
ISO 289
ha 289
अख@@ 289
असहयोग 289
इक@@ 289
खजुराहो 289
गोविंद@@ 289
चिर@@ 289
छक 289
छर 289
डबर 289
डागास 289
तपेदिक 289
तूनख 289
नेह@@ 289
पञ 289
बाराबंकी 289
मुहर 289
रेखांकित 289
लाबाद 289
संदेशों 289
सुमित 289
ूड 289
21@@ 288
47@@ 288
MS 288
sh@@ 288
अनेकानेक 288
इलि@@ 288
उठी 288
केज 288
गलियों 288
चेयरमैन 288
जागरूक 288
डोनेशिया 288
तूफ 288
तृ 288
दशाओं 288
बीवी 288
बैठा@@ 288
मतानुसार 288
मॉरिसन 288
रतिमान 288
वांचल 288
संभावनाओं 288
संशो@@ 288
साल@@ 288
७८ 288
on@@ 287
ंदु 287
आयकर 287
ईमानदार 287
कमरों 287
कील 287
कुलों 287
छतर@@ 287
जियो 287
टका 287
टकों 287
डाई@@ 287
डोन 287
तशिल 287
नारी@@ 287
बतलाया 287
बलि@@ 287
बुं@@ 287
बोध@@ 287
मनोरम 287
यूथ 287
रणवीर 287
रतल 287
रायड 287
रेब 287
विदित 287
शिया@@ 287
शॉप 287
सनल 287
होज 287
७,@@ 287
1892 286
DC 286
अवै@@ 286
उठने 286
एनसी@@ 286
कियाँ 286
चीस 286
डीपी 286
तलहटी 286
तलों 286
दाहिनी 286
नीली 286
फेडरल 286
बायर 286
बिज@@ 286
बेयर 286
बोलता 286
महादेवी 286
मुकु@@ 286
रणो@@ 286
रनगर 286
रवृति 286
रादेशिक 286
रेनें 286
रेमियों 286
रोधक 286
रोनिक 286
वंशीय 286
वृष 286
सचमुच 286
साहसी 286
सीरियल 286
सुगम 286
सेले@@ 286
२०वीं 286
७७ 286
\ 285
अंधेरे 285
अमा@@ 285
आण 285
कोहॉल 285
चूहे 285
जहांगीर 285
टफ 285
तालाप 285
थाल 285
बलुआ 285
बहादुरी 285
बिर 285
मरियम 285
मिशिगन 285
मोद 285
रवाड 285
राजमहल 285
रुटियों 285
लारा 285
लैटिनम 285
लौटते 285
विप@@ 285
सुज 285
4,000 284
ंगि@@ 284
अधिगम 284
ईथेन 284
कैच 284
कोरियोग 284
छों 284
जेनि@@ 284
टनों 284
तुतियों 284
दिख 284
देय 284
निल 284
पियानो 284
पेशेवरों 284
बारहवीं 284
बीसी@@ 284
भगवन 284
भेज@@ 284
मंगो@@ 284
मतदाताओं 284
मरा 284
यवन 284
यवा@@ 284
यूरिक 284
रबंधकों 284
रमणीय 284
रामीणों 284
वई 284
वारी@@ 284
शाकम 284
समालोचना 284
सेने@@ 284
हिमनद 284
ाब 284
1893 283
Re@@ 283
is@@ 283
अतिक 283
आरा@@ 283
ईगल 283
एच.@@ 283
कंच@@ 283
कैदी 283
कॉरपोरेशन 283
चारा 283
चौबीस 283
जाटों 283
दारुल 283
धिमत 283
न- 283
बला@@ 283
बाजरा 283
याता 283
याप@@ 283
रची 283
रिज@@ 283
लपे@@ 283
सारा@@ 283
७३ 283
९१ 283
अंकु@@ 282
अनुग 282
अमावस 282
कालों 282
तफ 282
थाली 282
दवा@@ 282
दुत 282
नौकर 282
पहुँचकर 282
बाँस 282
भवतः 282
मेक@@ 282
मेरि@@ 282
रखे@@ 282
रतिफल 282
लम@@ 282
लिंकन 282
लोव 282
वटी 282
शिशु@@ 282
संकोच 282
संवेदना 282
सूती 282
36@@ 281
9.@@ 281
time 281
ँगी 281
अदिति 281
अहि@@ 281
आईडी 281
आटे 281
केमिकल 281
कैनेडी 281
गांगुली 281
चाइल 281
जताई 281
जबरन 281
तीपुर 281
थियाँ 281
नाच 281
फाउ@@ 281
बंदू@@ 281
मुझसे 281
यरों 281
युग@@ 281
युन 281
लिड 281
वना 281
विदेशियों 281
संविदा 281
ি@@ 281
its 280
ra 280
आनिया 280
कॉन@@ 280
जिया@@ 280
जीवियों 280
टांग 280
टुडे 280
टेंशन 280
डेप 280
ढलान 280
तिपीठ 280
देशो 280
नेटिक 280
नौकरियों 280
पवर 280
बताये 280
बेशक 280
बोतल 280
मही@@ 280
रदाताओं 280
राखी 280
रादुर 280
रोता 280
रोली 280
लापता 280
लाभप 280
लेगी 280
वसी@@ 280
विंस 280
वेने@@ 280
शि 280
सवों 280
सीमान 280
८७ 280
Al@@ 279
ad 279
ana 279
or@@ 279
th 279
their 279
ंगस 279
इसीलिये 279
कंठ 279
कीट@@ 279
चैपल 279
जिं@@ 279
डयन 279
डायमंड 279
तुमसे 279
नांग 279
पुश 279
पेंसिल 279
बाइबल 279
भगवानपुर 279
भोजपुर 279
मरु@@ 279
मानंद 279
यनारायण 279
रेला 279
संगीत@@ 279
सरकारें 279
िलिपीन 279
९२ 279
U.S. 278
ंडक 278
खुलने 278
गुजरते 278
गुड@@ 278
गेर 278
जोनाथन 278
निकोल 278
पकालिक 278
परहेज 278
बिष 278
बूझ 278
बेंजामिन 278
मेरु@@ 278
रताप@@ 278
रेटरी 278
रोलर 278
लाइंट 278
सवाद 278
सेव 278
ीत 278
1.2 277
750 277
आरआई 277
आवंटन 277
एसएस@@ 277
कैफीन 277
छूत 277
जोहान 277
दिशा@@ 277
धावा 277
नेगी 277
पुरे 277
फेम 277
बांड 277
बादलों 277
मगही 277
महानदी 277
माउ@@ 277
मालवीय 277
रपद 277
रावती 277
रिग 277
सटे 277
सनहौला 277
हटकर 277
हटने 277
िंदगी 277
७९ 277
अनंत@@ 276
आधुनिकता 276
कामुक 276
केसरी 276
खींचने 276
गिरता 276
चांसलर 276
जलाने 276
टिं@@ 276
दंगे 276
पलट 276
फरी 276
मौतों 276
राणा@@ 276
वाभि@@ 276
वु 276
समतुल 276
सिप 276
सुंदरी 276
^ 275
अनुरक 275
अमोनिया 275
आरण 275
एजी 275
ऑफिसर 275
कच@@ 275
कराए 275
कामयाबी 275
कैरी 275
घटा 275
चूहों 275
जोएल 275
टंकी 275
टनम 275
टीक 275
णिकता 275
तरे 275
ताला@@ 275
तुग 275
तुष 275
तोर 275
थाय@@ 275
थे- 275
नामोत 275
पहिया 275
बृहद 275
मुकद@@ 275
मुमताज 275
रंगा 275
रहो 275
राटों 275
रेंचाइज 275
होप 275
ाती 275
ारू 275
AT 274
Kh@@ 274
अवसा@@ 274
असीम 274
किशोरों 274
कीबोर 274
चुरा 274
तकनी@@ 274
धागे 274
नद 274
निराला 274
पासपोर 274
प० 274
बूट 274
बेसिक 274
यांक 274
यामा 274
रकाशनों 274
राणायाम 274
रिशूल 274
रेक@@ 274
वनि@@ 274
विड 274
शिवालिक 274
संगति 274
ेलो 274
२३@@ 274
1884 273
38@@ 273
two 273
अखबारों 273
आएगा 273
आयताकार 273
इमर 273
ओलिवर 273
जहाँगीर 273
जीज 273
टेक@@ 273
डाकू 273
डालना 273
तावना 273
तृतीयक 273
नागालैंड 273
नेफ 273
बैले 273
मांसपेशी 273
मीकरण 273
राची@@ 273
रृंगार 273
वदेश 273
वेनेजुएला 273
शिरोमणि 273
हारि@@ 273
1200 272
अवज 272
असमान 272
आयर@@ 272
इंडोनेशियाई 272
कटक 272
कैमरों 272
खरसीया 272
गों@@ 272
छंद@@ 272
छापा 272
टैं@@ 272
णोद 272
तराल 272
दावन 272
नां 272
नाममात 272
नोव 272
पनामा 272
परोपकारी 272
पिप 272
बरि@@ 272
मंजरी 272
मलेशियाई 272
रमाणन 272
रिभु@@ 272
रेलियन 272
लगाम 272
लटका 272
वग 272
वदा 272
सांसदों 272
सेमी@@ 272
हरिवंश 272
हालात 272
८९ 272
05@@ 271
CO@@ 271
अनुज 271
आकृतियों 271
उपलक 271
कंकाल 271
केसर 271
खली 271
ठी@@ 271
धो 271
नाडा 271
पेर 271
मठों 271
महाकल 271
मिलीं 271
मुबारक 271
मैल 271
मोटरसाइकिल 271
रणालियां 271
रांज 271
लियोनार 271
सिलेंडर 271
िणी 271
102 270
अनुवादित 270
अमान 270
आओ 270
उदात 270
एसीसी 270
कगार 270
करेंगी 270
कुरु@@ 270
खूबसूरती 270
गिद 270
गुणात 270
गू 270
घे 270
चंदन 270
छप 270
जातियां 270
टिगोचर 270
तारी@@ 270
दग 270
नरक 270
नवाजा 270
बैंगनी 270
रशी@@ 270
रेकिंग 270
लिथु@@ 270
लीकेशन 270
वतार 270
हालिया 270
ाह 270
१९५८ 270
el@@ 269
अविष 269
आयोजनों 269
इंटरफ 269
ओबे@@ 269
करवाई 269
गव 269
घुस 269
जगदीशपुर 269
जवाब@@ 269
जाएँगे 269
जीविका 269
जुली 269
जूल 269
ञासा 269
टीवन 269
ठक 269
ठुकरा 269
डकी 269
तरुण 269
थला@@ 269
दिवंगत 269
देशमुख 269
नागालैण 269
नीचर 269
पदानुक 269
पहुँ@@ 269
पैकेट 269
बूँ@@ 269
मदुरै 269
माइग 269
माइट 269
मिसौरी 269
रतिमा@@ 269
राया 269
रिअर 269
रुकी 269
विकी 269
शूर 269
षिणा 269
सचेत 269
समर@@ 269
सावरकर 269
सियत 269
सेंटीग 269
हैपलोग 269
हैरिस 269
ॆं 269
ॠ@@ 269
अनुप@@ 268
कैथ@@ 268
कोंच 268
घुसपैठ 268
जता@@ 268
तिकता 268
तिग 268
दशहरा 268
दाखिल 268
धाबी 268
निचला 268
पना@@ 268
पहुँचाया 268
पाटलिपुत 268
पेरि@@ 268
बने@@ 268
बोर@@ 268
महंत 268
मैनुअल 268
यदेव 268
यभट 268
यायशास 268
यूपी 268
रखा@@ 268
रेफरी 268
लाभांश 268
लीम 268
संवाददाता 268
साकार 268
सीआई 268
सोच@@ 268
हाउस@@ 268
हिक 268
ियत 268
90@@ 267
ंता 267
अधर 267
आपात 267
ईज 267
उदासीन 267
उमा 267
कैसा 267
गोंडा 267
दुल@@ 267
देही 267
नवाल 267
पाइडर 267
बपतिस 267
बुनाई 267
बेटियों 267
भान 267
मदार 267
यूसन 267
राघ@@ 267
रामदास 267
रीद 267
लहरों 267
लाभों 267
37@@ 266
आबाद 266
आरोपित 266
एनर 266
कहें 266
छपी 266
झल@@ 266
डेर 266
तपोषण 266
थिया 266
दवाइ@@ 266
दशमलव 266
नाइन 266
पोर@@ 266
बांसुरी 266
बानिया 266
बोलती 266
येगा 266
राजवंशों 266
राशय 266
रुकावट 266
लोधी 266
सैय 266
सोची 266
२०२१ 266
~ 265
अगुवाई 265
अनवर 265
अनूठा 265
आधारशिला 265
उपासक 265
कानी 265
कैथेड 265
कैलगरी 265
कोरर 265
कोह 265
गौरी@@ 265
चौथ 265
जाक 265
टिफ 265
तपो@@ 265
तसिंह 265
तीत 265
थु 265
दंतक@@ 265
दस@@ 265
फंक 265
मदरसा 265
मापक 265
मिंघम 265
मियाँ 265
यावस 265
रबुद 265
रभाकर 265
रहर 265
विकलांगता 265
वेंचर 265
संगीतमय 265
सपनों 265
हरेक 265
km 264
इमेजिंग 264
एमआईटी 264
एसई 264
कमो@@ 264
किय 264
कैसल 264
झुंड 264
थं@@ 264
धुंध@@ 264
निकालते 264
निजामुद 264
नेल@@ 264
पाई@@ 264
पिंड@@ 264
महायान 264
माता@@ 264
रजन 264
रनी 264
रीनहाउस 264
लिली 264
विभ@@ 264
सरी@@ 264
सिखाने 264
सीतापुर 264
सुधा 264
सेलिब 264
सोनिक 264
हवाले 264
Institute 263
all 263
ऋण@@ 263
ऎ@@ 263
ओटा@@ 263
घटती 263
जवानों 263
जिनपर 263
टाने 263
टेरॉयड 263
डिने@@ 263
थापकों 263
देखो 263
नोटिस 263
फिरोज 263
बचाता 263
भीमराव 263
मकसद 263
यूसी@@ 263
रमाणों 263
रांसफ@@ 263
रिसाव 263
रूपण 263
लगि@@ 263
विवेकानन 263
शमी 263
संचा@@ 263
सदाबहार 263
सावधा@@ 263
सैफ 263
हवन 263
६,@@ 263
७१ 263
८६ 263
ंती 262
अनूदित 262
एनजी@@ 262
केत 262
खद 262
घटना@@ 262
चमगादड 262
डले 262
देशिका 262
दौलत 262
नपूर 262
निरोध 262
भरतनाट 262
मांगने 262
मुहाने 262
मेव 262
रणीय 262
रतिशोध 262
रभावशीलता 262
राजपरिवार 262
रायोजन 262
लोरर 262
वंडर 262
वाडी 262
विजन 262
विधायकों 262
शिश 262
सूरीनाम 262
िता 262
ैसला 262
१९३६ 262
1850 261
1881 261
अधीक 261
एडमिरल 261
कचरे 261
करुणा 261
कापुर 261
कारागार 261
कोडिंग 261
कोरोना 261
छाई 261
जयप 261
जलने 261
डोम 261
ढोल 261
तेह 261
दायी 261
निको 261
पाटन 261
पेरी 261
फेलो 261
बसपा 261
भे 261
मनुस 261
यशवं@@ 261
युवकों 261
राता 261
रेसलिंग 261
वाता@@ 261
सिगार 261
सिनो@@ 261
सीनेटर 261
सेंजर 261
सॉर 261
सोचता 261
हेयर 261
हैप 261
ओसी 260
औषध 260
कमी@@ 260
जलमार 260
जैक@@ 260
झं@@ 260
डीडी 260
बिया@@ 260
बुआ 260
बैरल 260
बोक 260
मुन@@ 260
यवहारिक 260
रगड 260
रणालियाँ 260
रदू@@ 260
रवीण 260
रेंकलिन 260
लीडर 260
वलित 260
वाइट 260
विमान@@ 260
सीओ@@ 260
सृ@@ 260
हैसियत 260
4000 259
अचार 259
अलीगंज 259
उबा@@ 259
एशिया@@ 259
कास@@ 259
कैला@@ 259
गारो 259
तनशील 259
देवगन 259
नियल 259
निरंतरता 259
नौकरशाही 259
मैनपुरी 259
यांग@@ 259
यीकरण 259
योजनाएं 259
रंथियों 259
रोताओं 259
लिय 259
विकर 259
सटन 259
सुनहरे 259
सेनानियों 259
हमे 259
६९ 259
0.5 258
id 258
more 258
were 258
आति@@ 258
एबीसी 258
काजल 258
गंधक 258
गें@@ 258
घूमता 258
चॉ@@ 258
छापा@@ 258
टिविटी 258
टेर 258
डाए 258
डीप 258
डेटिंग 258
तरफा 258
दिशानिर 258
नता@@ 258
नशीलता 258
पैरालिंपिक 258
फिकल 258
बाँध@@ 258
मसालों 258
महायुद 258
रशीद 258
राइटर 258
लका 258
लाज@@ 258
लोकन 258
वभर 258
सीपीयू 258
हस@@ 258
१९३१ 258
३००० 258
७०० 258
1867 257
अमृ@@ 257
इसे@@ 257
एफए 257
कविता@@ 257
कसौटी 257
कॉमनवेल 257
खदेड 257
चरि@@ 257
दुबे 257
पंकज 257
पिया@@ 257
पीपी@@ 257
पैगम 257
बटा@@ 257
भेद@@ 257
मबर 257
माथुर 257
मॉनमाउथ 257
यीं 257
योजना@@ 257
रसित 257
राजे 257
लामाबाद 257
वण 257
विगत 257
विलेय 257
विश@@ 257
षसों 257
सजावटी 257
सुमे@@ 257
सुलेमान 257
ाल 257
िन@@ 257
अराजकता 256
आविर 256
एएस@@ 256
एमएस@@ 256
गाजर 256
चरक 256
चें 256
जीकरण 256
टिहरी 256
ठाणे 256
ढका 256
णो@@ 256
तेदारों 256
थायित 256
दरा@@ 256
देसी 256
निशा 256
परोप@@ 256
फिटनेस 256
बसी 256
बहुमुखी 256
बेव@@ 256
माउंटेन 256
मानकीकरण 256
मिठा@@ 256
मुरलीधरन 256
मेगा 256
योजनाबद 256
रेखाचित 256
लिबरेशन 256
लैंडर 256
शाला@@ 256
शालाओं 256
साईं 256
सालय 256
हिरा 256
106 255
ite 255
अपघटन 255
अशांति 255
आइवी 255
आमाशय 255
ऑगस 255
काउंट 255
कॉलम 255
गाथाओं 255
गॉन 255
चाह 255
टाया 255
डिलीवरी 255
डोना 255
तादाद 255
नाविक 255
पॆ@@ 255
फट 255
बैचलर 255
भूमियों 255
मनाई 255
माइड 255
मुराद 255
मेहरा 255
ररक 255
रांसपोर 255
राजनी@@ 255
राजनेताओं 255
रामजी 255
रोष 255
लेनि@@ 255
ववेद 255
हरों 255
होलकर 255
अमृता 254
आयामों 254
इंटेलिजेंस 254
उट 254
उतार@@ 254
उदा 254
कलां 254
केले 254
कैरेबियन 254
गिरते 254
चांग 254
टनकपुर 254
टमाटर 254
डमी 254
तीफ 254
नाभि 254
निवारक 254
पवार 254
पाताल 254
बि 254
मसौदा 254
मुरु@@ 254
यताएं 254
युध 254
युरो@@ 254
राति@@ 254
लुस 254
वाम@@ 254
वेदव 254
वेरा 254
वॉकर 254
हाद@@ 254
१६वीं 254
് 254
450 253
अकेली 253
अठारहवीं 253
आईएस 253
एलवी 253
कटो@@ 253
कलाकृति 253
कलियुग 253
काई@@ 253
कुटु@@ 253
कोका 253
गंगोत 253
गुणधर 253
ञानों 253
टंडन 253
डेन@@ 253
डैन 253
तंजानिया 253
दैवी 253
निटी 253
नीकृत 253
बागान 253
भाई@@ 253
मुखौ@@ 253
मेण 253
रवादियों 253
रामदेव 253
रायंट 253
लकी 253
वाङ 253
विशद 253
वेन@@ 253
वॉक 253
सवालों 253
सूप 253
हासन 253
ियार 253
10.@@ 252
1872 252
1876 252
ae 252
ity 252
α 252
अनाथ 252
इड@@ 252
उथ@@ 252
एनएच@@ 252
एरो@@ 252
चित@@ 252
चौं@@ 252
जठ@@ 252
तथा@@ 252
ताजमहल 252
तारण 252
दरें 252
नारे 252
पराग 252
पिनांग 252
पीएच@@ 252
फूर 252
बगंज 252
मनु@@ 252
मयी 252
मराज 252
महीना 252
मानविकी 252
यचिकित 252
यवाहक 252
रहन 252
रिंटिंग 252
रेकर 252
लेटिन 252
वेंकटेश 252
संगी@@ 252
ारो 252
९.@@ 252
first 251
ka 251
number 251
अंक@@ 251
अय@@ 251
उछाल 251
ओझा 251
घाटे 251
चाक 251
जिंदा 251
टिनम 251
टेंस 251
टैंडर 251
डालती 251
धचालक 251
नीतियां 251
नैना 251
परवरदिगार 251
पिकनिक 251
बरौनी 251
मलेन 251
मिनियम 251
मृतक 251
मोर@@ 251
यवहारों 251
यागी 251
युतीय 251
रतिकृति 251
रमर 251
रीकन 251
वायर@@ 251
शाहिद 251
सीएन@@ 251
सुचार@@ 251
होड 251
115 250
27.@@ 250
30PM 250
but 250
आब 250
आमदनी 250
ए- 250
एजेंटों 250
कांगड 250
कारें 250
खांसी 250
चाकू 250
जद 250
डेनियल 250
तारूढ 250
दखल 250
नाव@@ 250
नौर 250
परिच 250
पांचा@@ 250
पिरिन 250
पीएच 250
फिश 250
फेज 250
बरमूडा 250
बाइन 250
मधुबाला 250
मेसोपोटामिया 250
यित 250
योजकों 250
रंजक 250
राइडर 250
रुआ 250
रेफ 250
लीना 250
लोपीडिया 250
ववाद 250
वाव@@ 250
वासु@@ 250
सतहों 250
ुस 250
००@@ 250
1883 249
अंपाय@@ 249
अहंकार 249
आजमगढ 249
आनेवाले 249
उलझ@@ 249
कजा@@ 249
कैफ 249
गहने 249
जैंती 249
टिनो 249
टोली 249
डोगरी 249
तुंग 249
दीन@@ 249
दुम 249
दौल@@ 249
धोनी 249
पिन@@ 249
पीएस@@ 249
पेंसर 249
फेरारी 249
बेखम 249
मश@@ 249
महंगी 249
मावली 249
मुहल 249
युआन 249
यूनिख 249
यूमन 249
रभात 249
राफ@@ 249
वासा 249
सिलिका 249
सेमिन@@ 249
हन@@ 249
९४ 249
0,@@ 248
190@@ 248
48@@ 248
अंधे@@ 248
आंद 248
आदमियों 248
एंजेल 248
चूने 248
जुद 248
झटका 248
टाउन@@ 248
डिफे@@ 248
तकलीफ 248
दिखाती 248
धनु@@ 248
निपट@@ 248
परवरिश 248
पहना@@ 248
पालों 248
पास@@ 248
फोस 248
बलडन 248
मंथन 248
मनि@@ 248
माग@@ 248
योकि 248
राहीम 248
रेणियाँ 248
लंग 248
लोंग 248
वायसराय 248
विखंडन 248
संदीप 248
सवी 248
साहनी 248
सेंस 248
सेण 248
सोपान 248
हेलि@@ 248
१९५१ 248
ur@@ 247
अनुबंधित 247
उपप 247
एमआई 247
कं 247
काकर 247
कुंभ 247
कौल 247
धशतक 247
नोज 247
फलतः 247
बहाने 247
बॉण 247
बोली@@ 247
मंडलों 247
योरी 247
रांति@@ 247
वामपंथी 247
विधियां 247
विलो@@ 247
शॉ 247
सुशोभित 247
सौंपी 247
other 246
अमृत@@ 246
अलगा@@ 246
असंगत 246
इजाजत 246
ऍफ 246
एनालॉग 246
एमबीए 246
एवी 246
कि- 246
कोमा 246
खाना@@ 246
खिज 246
गणे@@ 246
गोप@@ 246
जमींदारों 246
झंडे 246
टरपंथी 246
डेयरी 246
डैनी 246
थिति@@ 246
धोखे 246
नस@@ 246
पहि@@ 246
पैरालंपिक 246
पोली 246
बब 246
बुरहा@@ 246
बोज 246
भानु@@ 246
रवींद 246
रीमिंग 246
रेंचाइजी 246
रेजो 246
रैमी 246
लाइट@@ 246
वरं 246
विवेचना 246
विषयवस 246
संगीतज 246
संगोष 246
साया 246
सिंहपुर 246
ीदार 246
१९५३ 246
103 245
Google 245
MTV 245
ated 245
hi 245
अपो@@ 245
अभिमन 245
आकारों 245
आयुध 245
आराम@@ 245
एएफ 245
ओशि@@ 245
के. 245
गानिस 245
घराना 245
जगद 245
थाना@@ 245
दिन@@ 245
नतम 245
नहरों 245
नाला 245
निट 245
पप 245
पॉर 245
पोटा@@ 245
बीमार@@ 245
बुज 245
बुढ 245
मरणीय 245
मानवाधिकारों 245
माय 245
मियां 245
मिसाइलों 245
मैरीलैंड 245
मोहिनी 245
यमित 245
यारो@@ 245
योगपति 245
योजक 245
रासं@@ 245
रुता 245
वाच 245
विरोधाभास 245
शीश 245
हुल 245
हॉवर 245
१९३५ 245
→ 245
10,@@ 244
This 244
World 244
had 244
ंगत 244
ंगरी 244
असुरों 244
उपद 244
चोंच 244
डराव@@ 244
तराव 244
धोने 244
पाँव 244
मदर@@ 244
रतिभूति 244
रेट@@ 244
रोहिणी 244
समष 244
सले@@ 244
हमीरपुर 244
1848 243
1878 243
ंगड 243
ंचाई 243
अपमानित 243
अपा@@ 243
आइटम 243
केशव@@ 243
कोचीन 243
गणपति 243
गया@@ 243
चरम@@ 243
चैरिटी 243
जाली 243
टारबक 243
टिड 243
तमाल 243
धाराएँ 243
धिकृत 243
धुर 243
पीना 243
पुनरुद 243
पोटैशियम 243
बिजनौर 243
बेदी 243
बोधित 243
मावती 243
मिलीग 243
मेनियाई 243
लिंगी 243
लूटो 243
वाती 243
विरल 243
सॉसेज 243
हनी@@ 243
हीरोज 243
ेला 243
१९२१ 243
८,@@ 243
65@@ 242
9वीं 242
As 242
अमेरि@@ 242
इल@@ 242
गुरुओं 242
गोला@@ 242
जपुर 242
जमीनी 242
जयदेव 242
नाइज 242
नौकर@@ 242
परियोजनाएं 242
बाबा@@ 242
बीत 242
मवेशी 242
मैराथन 242
रडार 242
रहनेवाले 242
रियास 242
रेती@@ 242
लल@@ 242
विदिशा 242
वी.@@ 242
शेष@@ 242
ससुराल 242
सारण 242
सिंहा@@ 242
सिकंदराबाद 242
सेब 242
सौतेले 242
हानी 242
CD 241
been 241
अनोखा 241
एवि@@ 241
कीचड 241
कुतु@@ 241
छठ@@ 241
डीओ 241
दासी 241
नेटस 241
बलो@@ 241
बालकृष 241
बीले 241
बेस@@ 241
मंसूर 241
मिनिस 241
मैडोना 241
यपुस 241
याणकारी 241
रकाशीय 241
राजसी 241
लियट 241
वाटसन 241
वाम 241
विवेकानंद 241
विषम@@ 241
वैराग 241
शियों 241
संक@@ 241
संवेदी 241
सको 241
साइं@@ 241
सिरा 241
सीसा 241
हलके 241
हॉक 241
होम@@ 241
ैबर 241
.-@@ 240
00722 240
1700 240
It 240
अटक@@ 240
आमने 240
कंडक 240
कदा@@ 240
कपाल 240
किशोरी 240
गिराया 240
ठिकाना 240
तिकेय 240
दलाल 240
दाली 240
देवा 240
दोहन 240
निरर 240
पतवार 240
पहियों 240
फलित 240
बसन 240
बाँट 240
बॉय@@ 240
यपालिका 240
यागपत 240
युतचुम 240
यूपंक 240
रतिमाओं 240
रय@@ 240
रसो@@ 240
राॅ@@ 240
रिमोट 240
रूपांतर 240
वरा@@ 240
वशी 240
विचलित 240
शकु@@ 240
शाफ 240
शिविरों 240
सिंघा@@ 240
सिना@@ 240
सुमात 240
सैटेलाइट 240
ম@@ 240
ers 239
अमरनाथ 239
इंसुलिन 239
कृमि 239
कोत@@ 239
गिनीज 239
घटनाग 239
घुलनशील 239
टअप 239
टायसन 239
दरता 239
दांव 239
नजर@@ 239
नीशियम 239
पहाडी 239
पोतों 239
फॉण 239
बेतालघाट 239
भावुक 239
मांसाहारी 239
मौलवी 239
यवती 239
याधुनिक 239
यापित 239
यू.@@ 239
यूएई 239
रखर 239
रचक 239
रतिभूतियों 239
रुनेई 239
लापन 239
वैट 239
सटीकता 239
समाविष 239
९७ 239
1871 238
ari 238
अगा@@ 238
अनो@@ 238
अरविंद 238
अलंकरण 238
अलक@@ 238
एपी 238
कमे@@ 238
कारणवश 238
कोचिंग 238
गुटों 238
गॉड 238
गोपनीय 238
चॉकलेट 238
डेव 238
तिनापुर 238
दशहर 238
दूतों 238
धारणाओं 238
नमकीन 238
नेट@@ 238
नेहा 238
पेण 238
पैसों 238
मतभेदों 238
मले@@ 238
मारता 238
मुल@@ 238
मौक 238
यंजना 238
रहाट 238
रामानु@@ 238
राश 238
रैकिंग 238
लैंलूगा 238
वंशानुगत 238
सीताराम 238
सीनो 238
सुरेन 238
ानूनी 238
१९३९ 238
30,000 237
अंडा 237
अंडाकार 237
अंतरण 237
इंटरनैशनल 237
एथिलीन 237
कंटेनर 237
कमला@@ 237
कैंप 237
खली@@ 237
जायें 237
जिए 237
जियांग 237
ठहरने 237
तेंदुलकर 237
देओल 237
पनीर 237
पहेली 237
पालीगंज 237
पॉड 237
पॉलिसी 237
फिशर 237
फूल@@ 237
बकर 237
बैश 237
मदिरा 237
यकारिणी 237
याशा 237
यूई 237
रतों 237
रमानुसार 237
रवासन 237
रानियों 237
रिकोण@@ 237
रिची 237
रीतम 237
लुधियाना 237
वातंत 237
सिट 237
सुगंध 237
सैर 237
१९२८ 237
00AM 236
1865 236
Man@@ 236
da 236
आकाश@@ 236
ऋषि@@ 236
कोबेन 236
खरीदे 236
खालिद 236
चाम 236
जेब 236
जैम 236
टिकाऊ 236
टोड 236
डुमरिया 236
डेनिश 236
तलियों 236
दमिश 236
देलखण 236
दैर 236
नवीकरण 236
बंधे 236
बघे@@ 236
बचना 236
बिद 236
बेबी 236
माउस 236
लिबरल 236
वंशा@@ 236
वभौम 236
शेंगेन 236
109 235
22.@@ 235
Sh@@ 235
ँक 235
अनोखी 235
आइज 235
एएफसी 235
एटीएम 235
ओट 235
औ 235
कोशिका@@ 235
खुराना 235
जने 235
टफोलियो 235
टाइटल 235
डेमॉर 235
दली 235
नीलम 235
पारा@@ 235
बहनें 235
बील 235
बोवी 235
भुट 235
मछलियाँ 235
मापदंड 235
रणनीतियों 235
रुचि@@ 235
रेंजर 235
लौटकर 235
वनिक 235
विर@@ 235
सउदी 235
सुक@@ 235
हमलावरों 235
हिंग@@ 235
हुत 235
हैः 235
होशिय@@ 235
ाहिर 235
19@@ 234
21.@@ 234
इसराइल 234
ऑकलैंड 234
कामु@@ 234
गंधर 234
गोष 234
चाँ@@ 234
चीता 234
जनल 234
जलाकर 234
टूडियोज 234
टौ@@ 234
डायना 234
डाया@@ 234
तटवर 234
दूल 234
देला 234
निप@@ 234
पकार 234
पारे@@ 234
पेंगुइन 234
बछ@@ 234
बेनोइट 234
बैठता 234
महतो 234
मुजा@@ 234
मेदारियों 234
मैंगनीज 234
रोहतक 234
लेआउट 234
वियो@@ 234
षिणा@@ 234
सकेंगे 234
समरूप 234
सानों 234
सिंहली 234
सीड 234
सीमावर 234
ौज 234
€ 234
KM 233
आरसी 233
इंगलैंड 233
इसी@@ 233
उपनिवेश@@ 233
कथाएं 233
कवयित 233
कि.मी 233
कुँ@@ 233
खादी 233
गापुर 233
घटाने 233
चुंब@@ 233
टापू 233
णम 233
तालि@@ 233
तिरुवनंतपुरम 233
थमा 233
धनरूआ 233
नाइजर 233
निहाल 233
नेपालके 233
पातिक 233
पोलो 233
बपुर 233
बहादु@@ 233
बादाम 233
बोधिसत 233
मरते 233
माताजी 233
यूरिंग 233
रवचन 233
रसिया 233
रसोई 233
रेनाइट 233
रैट 233
रोड@@ 233
लार@@ 233
लैया 233
लोकपाल 233
लोरी 233
विघटित 233
विभूषित 233
सिमु@@ 233
हजारी@@ 233
हाशि@@ 233
हुमायूँ 233
ाए 233
220 232
Ar@@ 232
University 232
il@@ 232
than 232
ंबल@@ 232
अपस 232
ऐड@@ 232
कथावस 232
काले@@ 232
काहिरा 232
कीटा@@ 232
कॉपी 232
कॉलिन 232
खोरी 232
चोड 232
छतरी 232
जिनेवा 232
झुं@@ 232
ञवल 232
टोबैगो 232
निसान 232
पंचवर 232
परिसंचरण 232
बेन@@ 232
मसू@@ 232
रंजीत 232
रीडम 232
रेण@@ 232
रोमे@@ 232
वफादार 232
षट 232
सैमु@@ 232
१९३८ 232
11.@@ 231
1868 231
International 231
ator 231
ic@@ 231
ंकन 231
कथक 231
कराटे 231
गतिज 231
गिटारवादक 231
घंटी 231
चमकी@@ 231
चौदहवीं 231
छलांग 231
छानुसार 231
टालिन 231
तुल@@ 231
दादा@@ 231
नापुर 231
बड@@ 231
बेलन 231
मशी@@ 231
मोटा@@ 231
यण 231
रामप 231
लगन 231
लनी 231
लाइको@@ 231
लाइनें 231
लाम@@ 231
लीकृत 231
लोरा 231
वम 231
विरो@@ 231
षदों 231
षिणपश 231
संचारित 231
सिरदर 231
सूद 231
हाबाद 231
हेपेटाइटिस 231
१९३७ 231
1861 230
AS@@ 230
ol@@ 230
कांतिमान 230
किराया 230
खिलौने 230
खोर 230
चलाये 230
चुं@@ 230
जमालपुर 230
डेंसी 230
दिगम 230
दोर 230
नवनिर 230
नीक 230
पलक 230
पले 230
बताना 230
भवा@@ 230
मशीनें 230
मीत 230
यूएचओ 230
रदूत 230
रॉडबैंड 230
रोफे@@ 230
लाइक 230
लोपेज 230
लोमड 230
लौटता 230
वरूपों 230
शिवा 230
संलयन 230
साओ 230
सीरम 230
सुइट 230
सुपरस 230
सोडा 230
१९४६ 230
1875 229
6,000 229
अरोड 229
आदिल 229
आनुवंशिकी 229
एबी@@ 229
किंवदं@@ 229
कुमाऊं 229
गाजियाबाद 229
गेंदबाजों 229
छुपा 229
जुनून 229
टन@@ 229
डाकघर 229
तैमूर 229
थॉमसन 229
देली 229
नजी@@ 229
निजा@@ 229
पीक 229
फिंग 229
फेंका 229
मेलबर 229
रनर 229
रसाल 229
रामलीला 229
रिगे@@ 229
रूपए 229
लिखता 229
वेशी 229
शपुर 229
संघटन 229
संरचना@@ 229
समझौतों 229
हुर 229
१९१९ 229
९३ 229
1873 228
na 228
ँग@@ 228
आपरेशन 228
इंटरकांटिनेंटल 228
इमेज 228
उजा@@ 228
एनडी@@ 228
ओर@@ 228
कलाई 228
कीस 228
कुआँ 228
कॉर@@ 228
कोसी 228
कोहि@@ 228
गौ 228
जादू@@ 228
झूठे 228
दनाक 228
नसे 228
पहन 228
फैजाबाद 228
बरदस 228
रंगा@@ 228
रतापूर 228
रायबरेली 228
रीतियों 228
रीयकरण 228
रैंकलिन 228
रैंचाइज 228
रैड 228
लेबाजों 228
लोकगीत 228
वती@@ 228
शर@@ 228
षेपास 228
से.मी. 228
हरदोई 228
िका 228
ैन 228
1877 227
अछू@@ 227
अत@@ 227
आतं@@ 227
उठाई 227
कहानी@@ 227
काराकोरम 227
केटर 227
खुदा 227
चाड 227
जटा@@ 227
जीए 227
जेनेटिक 227
डाटाबेस 227
णियों 227
नकार 227
नाचार 227
पीते 227
बूटी 227
मलबे 227
मवेशियों 227
महिषा@@ 227
मुसी@@ 227
युवती 227
रतिजैविक 227
रतिनिधिमंडल 227
लादिमीर 227
लाहि@@ 227
लेषित 227
लोरिक 227
वाला@@ 227
विभूषण 227
संधि@@ 227
सटर 227
सवीं 227
हाईस 227
ौम 227
१९२९ 227
ंडु@@ 226
अंधविश 226
अनुस 226
आदी 226
आधार@@ 226
इतिहास@@ 226
इलेवन 226
ओप@@ 226
कमि@@ 226
काटे 226
खारे 226
जालस 226
ञेय 226
टलीय 226
ढूंढ@@ 226
दिलाता 226
देवराज 226
नासिर 226
नॉक 226
पंडितों 226
पकाया 226
पतंग 226
पथों 226
फीस 226
बंट@@ 226
बासी 226
भानु 226
भाष@@ 226
मनोरोग 226
माईस 226
मिटाने 226
यरेखा 226
यापकता 226
रंक 226
रेमवर 226
लिपियाँ 226
लॉइड 226
विपुल 226
संसाधित 226
साब 226
सोनपुर 226
हकदार 226
हरियाली 226
हीट 226
్ 226
ंगें 225
एतमादपुर 225
गैला@@ 225
गोकुल 225
चाहें 225
चैलेंजर 225
डैविल 225
तोपों 225
देखे@@ 225
नगण 225
नाकुलम 225
नैनो@@ 225
नोबल 225
नौवें 225
परमहंस 225
परिचायक 225
परिसीमन 225
पशुधन 225
बजाते 225
बावड 225
बैड 225
मु 225
यगढा 225
यते 225
रतिबिम 225
रयोगकर 225
राजगंज 225
राजगुरु 225
रियंका 225
रूपां@@ 225
रूफ 225
लिष 225
वनवास 225
विपत 225
शम@@ 225
शुमार 225
शृ@@ 225
शौचालय 225
षरित 225
संचिका 225
सवेल 225
ेन@@ 225
0.1 224
CA@@ 224
FA 224
law 224
अधीनता 224
अपलोड 224
अहसास 224
आराध 224
कमाया 224
काफलीगैर 224
कुतुब 224
कून 224
खूनी 224
गूं@@ 224
चां@@ 224
जमानत 224
जीबी 224
जेडी 224
टानें 224
डेम@@ 224
थर@@ 224
दंश 224
नाश@@ 224
नेहरु 224
पालि@@ 224
पाली@@ 224
पिट@@ 224
पूछे 224
फोरेंसिक 224
बोनस 224
महासागरों 224
रामचरितमानस 224
रॉयड 224
लिंटन 224
लिट@@ 224
वंशों 224
विच@@ 224
शाद 224
शिथि@@ 224
शिरो@@ 224
सचे@@ 224
सबकी 224
समकोण 224
सूल 224
हाय@@ 224
ौफ 224
.jpg 223
AC 223
u@@ 223
एटी 223
एलए 223
काबा 223
कैटरीना 223
कैरो@@ 223
खिंचाव 223
गोपी 223
ठिकाने 223
डकोटा 223
तंजा@@ 223
दहेज 223
दाजी 223
दाढ 223
देवेन 223
धूमकेतु 223
नदार 223
नया@@ 223
नीलगिरी 223
नूरु 223
पांडुलिपि 223
फायदेमंद 223
मोहि@@ 223
रोचेस 223
लिसा 223
लुन 223
लेखनी 223
वालामुखीय 223
वेंजर 223
शकुन 223
समालो@@ 223
सरयू 223
सरि@@ 223
सिले@@ 223
ीट 223
.in 222
107 222
DNA 222
el 222
es@@ 222
ंगार 222
अनुपयुक 222
अमल 222
अविवाहित 222
ओजोन 222
ओसा@@ 222
कचरा 222
केट@@ 222
चिंग@@ 222
चुक 222
टोना 222
डोली 222
ताजे 222
तिनी 222
नवत 222
नवादा 222
निकेतन 222
निप 222
नेगर 222
नौबतपुर 222
पेंटा@@ 222
बिएन 222
मजी@@ 222
मानवतावादी 222
मॉन@@ 222
रतलाम 222
रतियोगिताएं 222
रमाण@@ 222
रासो 222
रीमान 222
रॉय@@ 222
लगेगा 222
विण 222
साइटो@@ 222
१७वीं 222
ক@@ 222
-20 221
170 221
se 221
अनशन 221
आंबेडकर 221
ऐत@@ 221
किता 221
कोरोनावायरस 221
जीना 221
जीनों 221
जैन@@ 221
डाउन@@ 221
तलिखित 221
तांतरित 221
थरा 221
थैली 221
पाट@@ 221
पान@@ 221
पियरे 221
फाइंग 221
बायीं 221
मह 221
मिजोरम 221
रचारिणी 221
रवे@@ 221
रसा 221
लश 221
लूम 221
वोपरि 221
शिफ 221
संतोषजनक 221
सबक 221
सियोल 221
ारोपण 221
ुलाम 221
१९३२ 221
1.3 220
1.6 220
100@@ 220
1879 220
Th@@ 220
w 220
अंडों 220
अहिल 220
औरतों 220
औऱ 220
कढ 220
कबीलों 220
काउट 220
कुपोषण 220
चौद@@ 220
जमात 220
जैकब 220
टतम 220
टारियो 220
टेटर 220
टैबलेट 220
थान@@ 220
दानापुर 220
दौली 220
नावली 220
परेशा@@ 220
बेंगलुरु 220
बेरिया 220
बोलना 220
भारती@@ 220
महासागरीय 220
मिशनरियों 220
रसायन@@ 220
रसों 220
रागों 220
रिंटर 220
रृंख@@ 220
लेदार 220
वनाम 220
वैशाख 220
सिलेट 220
हिमाल@@ 220
able 219
en@@ 219
अनार 219
अनियंत 219
अभिभावक 219
इकोनॉमिक 219
ईशा 219
एंडो@@ 219
एना 219
एमसी 219
कैलि@@ 219
जांच@@ 219
टिग 219
टेनली 219
डेंस 219
डेवि@@ 219
तिप 219
तुला 219
दाऊद 219
दिखलाई 219
नलि@@ 219
निखिल 219
नीयता 219
नेविगेशन 219
पाँचवीं 219
पेरा@@ 219
पॉलिन 219
बीना 219
म- 219
मरीन 219
मलि@@ 219
मशीनरी 219
मसन 219
मैडिसन 219
यकताएं 219
राग@@ 219
राश@@ 219
रेसलमेनिया 219
लवाड 219
लिव 219
वहा@@ 219
विलीन 219
वेदना 219
वॉट 219
षणा 219
षशिला 219
होय@@ 219
್ 219
1856 218
46@@ 218
FDA 218
IC@@ 218
poem 218
used 218
who 218
अशो@@ 218
असहमति 218
आंगन 218
एके@@ 218
किशो@@ 218
केन@@ 218
चॅक 218
छठ 218
जलविद 218
झोपड 218
टंट 218
तरबंद 218
दफ@@ 218
दासता 218
दौरों 218
धीय 218
निरुक 218
पहनना 218
पीकरण 218
बशर 218
बांदा 218
बापू 218
बोधि@@ 218
मुह@@ 218
मैप 218
यूट@@ 218
राइली 218
रातः 218
वीरगति 218
संकटग 218
सिरोही 218
सेरी 218
हथेली 218
हाउ@@ 218
हेली@@ 218
हेलीकॉप 218
हॉरर 218
२५० 218
ল@@ 218
1600 217
1859 217
CE 217
SE@@ 217
अपवाह 217
अरे@@ 217
आभा 217
उपोष 217
उभार 217
ऍक 217
कटु 217
करीम 217
कैनर 217
खोजे 217
गाइ@@ 217
जहरी@@ 217
टोंक 217
देयता 217
दोलन@@ 217
माउंटबेटन 217
माओ 217
मानकीकृत 217
मालिनी 217
मुगल@@ 217
मोतीलाल 217
राजद 217
रैंक@@ 217
रैकेट 217
रॉस@@ 217
रोपण 217
लाभान 217
लुरु 217
लेसनर 217
लैंस 217
सीखी 217
सूख 217
सेल@@ 217
हिणी 217
1830 216
pr@@ 216
अपर@@ 216
आवेद@@ 216
इंतेरेस 216
इफेक 216
उतारने 216
एआई@@ 216
खानी 216
गाजी 216
चरवा@@ 216
जारों 216
जिनी 216
झेलम 216
टैंट 216
डिनल 216
ढाँचा 216
तुझे 216
दंत@@ 216
दला@@ 216
नेंद 216
पठा@@ 216
पराबैंगनी 216
पीयू@@ 216
पेरु@@ 216
फव 216
बक@@ 216
बाइक 216
बोहरा 216
मति@@ 216
मांगों 216
मानसिकता 216
मिष 216
मेलों 216
मोटिव 216
रायली 216
रासदी 216
रीधर 216
रैपर 216
लिनिक 216
वृष@@ 216
शीन 216
सूचियों 216
सेनी 216
सेबी 216
हानि@@ 216
हिं 216
ेर 216
ोरी 216
1840 215
4.5 215
id@@ 215
अनुशंसा 215
अवहेलना 215
उमा@@ 215
कैंटरबरी 215
गैसें 215
चाइ@@ 215
जमाव 215
जागीरदार 215
टाध 215
टूनिस 215
टोयोटा 215
डीएस 215
दलदल 215
नांद@@ 215
पिरिट 215
फनी 215
फेंक@@ 215
बीयर 215
मौतें 215
यकला 215
युगीन 215
रचु@@ 215
रहीय 215
रां 215
रुग 215
लहर@@ 215
लाग@@ 215
लासगो 215
वाध 215
वुमन 215
वूल 215
वेलिंगटन 215
शिंदे 215
संपादकीय 215
सदनों 215
सरल@@ 215
हेगेल 215
हेरो@@ 215
हैक 215
१२वीं 215
२४@@ 215
1.1 214
56@@ 214
WCW 214
ul@@ 214
ंडरों 214
ंदी 214
अधिकारिक 214
अफवाह 214
खाए 214
गलियारे 214
गाती 214
गाली 214
गुणा@@ 214
गोरस 214
जकड 214
जवाबी 214
जानती 214
जुक 214
तानगंज 214
तीश 214
नाशी 214
पृ 214
फला 214
फाइन@@ 214
बहि@@ 214
भावना@@ 214
मघाती 214
मुरैना 214
मोनिका 214
यादेश 214
रसायनज 214
रावली 214
रिंगस 214
रिकाएँ 214
रियाकलापों 214
रॉकी 214
लाईन 214
लाग 214
लायन 214
लाविया 214
ववादी 214
वाइस@@ 214
सते 214
सहभा@@ 214
साना 214
साली 214
सिएटल 214
सुगमता 214
सौतेली 214
हुआ@@ 214
ुटबॉल 214
१९३४ 214
अनूप 213
आकृष 213
इति 213
ईकाई 213
एएल 213
कलाँ 213
कामा 213
कैफे 213
कॉलर 213
गुलामी 213
गैर@@ 213
गोबिंद 213
गोरखनाथ 213
घकालीन 213
चिता 213
जादा 213
जुडा 213
जैस 213
झूठा 213
ठेठ 213
डायजे@@ 213
णागिरी 213
तानसेन 213
तुलनीय 213
तेरहवीं 213
तेहरान 213
दोलनों 213
नदिया 213
निजीकरण 213
पुथल 213
भला 213
भागीरथी 213
भीमसेन 213
माने@@ 213
मुद@@ 213
मुहाफ 213
मॉनिटर 213
राइंग 213
राणि@@ 213
रिपरिषद 213
रिलियन 213
रिसन 213
रोणाचार 213
रोमियम 213
लटन 213
वालो 213
विकासात 213
वींसलैंड 213
वेदन 213
शिथिल 213
शीतला 213
साइज 213
साग 213
सिष 213
सोमालिया 213
हांडी 213
हीम 213
हैरान 213
१९२२ 213
.NET 212
114 212
1866 212
2500 212
HD 212
अवतारों 212
इंटरसिटी 212
एडो@@ 212
एबी 212
एवर 212
कीमो@@ 212
कोना 212
खदान 212
गोंड@@ 212
जिहाद 212
जूरी 212
जोखिमों 212
टीपी 212
डिफेंस 212
निराशाजनक 212
नैनोट 212
पदाधिकारी 212
पूछने 212
फाड 212
बिठा@@ 212
मनास 212
मिटा 212
मिसिसिपी 212
मूवमेंट 212
यशील 212
यिका 212
योरेंस 212
रजनी@@ 212
रवांडा 212
राईट 212
राजधा@@ 212
रोमा 212
रोसेसिंग 212
वापर 212
वेंद 212
वेत@@ 212
सेंचुरी 212
हदी@@ 212
हान@@ 212
ीलैण 212
१२० 212
१९२५ 212
le 211
अधिका@@ 211
असंतुष 211
आइसलैंड 211
आहु@@ 211
एंथोनी 211
ऑडि@@ 211
कामदेव 211
खजाना 211
खरे 211
खिलाफत 211
खींची 211
खुर@@ 211
गारों 211
चीड 211
चुपके 211
ञानपीठ 211
ढूंढने 211
तकनीकें 211
तनम 211
ताग 211
दमा 211
निभाती 211
पोलियो 211
फिर@@ 211
बारीकी 211
भिड 211
भूमिकाएँ 211
मरक 211
मोंट 211
मोहब 211
लगाती 211
लय@@ 211
लाइंग 211
लोअर 211
वलन 211
वैशेषिक 211
शनकारियों 211
शिकायतों 211
शिवरात 211
साधुओं 211
हिज@@ 211
हृदय@@ 211
िनी 211
ेड 211
१९१८ 211
de@@ 210
ot@@ 210
अजन@@ 210
अथक 210
इंजि@@ 210
उठकर 210
कटा 210
कटे 210
करनेवालों 210
कुणाल 210
घाटा 210
घुमावदार 210
चमकीले 210
चारा@@ 210
चाल@@ 210
जामिया 210
झूठी 210
डिपो 210
तालमेल 210
दंब@@ 210
पंचायतों 210
पटी 210
पादु@@ 210
पूछता 210
पैरा 210
बहता 210
बाइनरी 210
बिल@@ 210
बीबी@@ 210
बूंदी 210
माणिक 210
यचकित 210
यभूमि 210
यापति 210
रहालयों 210
राली 210
रूरता 210
रॉनों 210
लकों 210
लूट@@ 210
संधियों 210
सङ 210
सवा 210
सिरसा 210
सून 210
ব@@ 210
1863 209
RFID 209
अलि@@ 209
आउ@@ 209
आखरी 209
आसिफ 209
कमरा 209
काक@@ 209
किंगफिशर 209
किनारा 209
कीटनाशक 209
कुंडा 209
चंपा 209
चावला 209
चुला 209
चोटियों 209
जिह 209
टफोन 209
टाइटन 209
टेरि@@ 209
डोस 209
तांबुल 209
दिखाना 209
दीवानी 209
नियतांक 209
निशाने@@ 209
पठान 209
परिसरों 209
पांडव 209
पून 209
पोकैम 209
फफू@@ 209
फैं@@ 209
बौने 209
मछुआ@@ 209
महबू@@ 209
मितीय 209
मीनाक 209
मैनहटन 209
मोरा@@ 209
रशा 209
राइविंग 209
रोमांच 209
वमान 209
विनोबा 209
विमोचन 209
सहकुंड 209
सिडी 209
सुखी 209
हठ@@ 209
7.5 208
Per@@ 208
ala 208
function 208
ir@@ 208
अभीष 208
अमि@@ 208
आर. 208
एकांकी 208
कहावत 208
कुन@@ 208
कूच 208
गाता 208
जालंधर 208
टह@@ 208
टोरेंट 208
टोला 208
डोक 208
दामाद 208
धना 208
नितांत 208
पांडेय 208
पृश 208
फाइव 208
बेची 208
बेटियां 208
बेलनाकार 208
बेलारूस 208
भुग@@ 208
यरूशलेम 208
रदेव 208
रावलपिंडी 208
रुड 208
रुन 208
रेडी 208
लप 208
लाड 208
लिविंग 208
लुभा@@ 208
वसूल 208
वाओं 208
विभे@@ 208
शटलकॉक 208
शमशेर 208
शाखा@@ 208
षवर 208
संभाग 208
संहि@@ 208
सिए@@ 208
सूरदास 208
१९२४ 208
१९२७ 208
15PM 207
LS 207
ND@@ 207
et@@ 207
west 207
ंगन 207
अनीता 207
अनुवर 207
उंगली 207
उभरने 207
एमपी@@ 207
काऊ 207
कौं@@ 207
कौरवों 207
चमक@@ 207
चिरा@@ 207
चुनिंदा 207
चैंबर 207
जीत@@ 207
जोत 207
डिवीजनों 207
तनु@@ 207
दंपति 207
दासों 207
देवर 207
धानी 207
नाइट@@ 207
निवर 207
परान 207
पोला 207
फतेह@@ 207
फरनगर 207
फुर 207
बट@@ 207
बम@@ 207
बरत@@ 207
भावनाएँ 207
भृगु 207
मापद@@ 207
माहिर 207
माहेश 207
मुरली 207
यूए@@ 207
रट 207
रभाष 207
रसाधन 207
रोमानी 207
लगना 207
वरु@@ 207
सरीसृप 207
सिंहल 207
सोफिया 207
हकी@@ 207
१९२३ 207
া 207
1,4@@ 206
112 206
126 206
q@@ 206
आयतों 206
उठती 206
उपनिवे@@ 206
एंटरप 206
एफआई@@ 206
एफएस 206
कुब 206
कुम@@ 206
कैरोलिना 206
गारी 206
गॉल 206
घटकर 206
जरू@@ 206
जागी@@ 206
जीडीपी 206
जीप 206
टब 206
तरपूर 206
दांते 206
देवकी 206
धमनियों 206
धावस 206
धौलपुर 206
नैनो 206
पनाओं 206
पाइवेयर 206
पीसी@@ 206
पैराशूट 206
बैंग@@ 206
भाभी 206
मंजूर 206
मजबू@@ 206
मटर 206
मयू@@ 206
मिटटी 206
मोना 206
याध 206
युनिटी 206
यूनानियों 206
रतिलिपि 206
राहट 206
रिकेटरों 206
रेणुका 206
रॉडकास 206
रोएशिया 206
रोच 206
रोहतास 206
लिंगानुपात 206
लोका@@ 206
वंदना 206
वह@@ 206
विजयवाड 206
वैलेंटाइन 206
सजातीय 206
सता 206
समानु@@ 206
सिंगर 206
सीकृत 206
सोयाबीन 206
हैवीवेट 206
१९४३ 206
128 205
44@@ 205
ec@@ 205
अवांछित 205
आकाशीय 205
आयोडाइड 205
इंग@@ 205
उंगलियों 205
कआउट 205
कुंज 205
गोरक 205
गोवि@@ 205
घृ@@ 205
चलाती 205
टडी 205
ठं@@ 205
डिश 205
तपोषित 205
ताँबा 205
तैल 205
थिव 205
दय@@ 205
नागराज 205
पुरो@@ 205
पोली@@ 205
बलदेव 205
बलू@@ 205
बाहुल 205
बियो@@ 205
भोर 205
मेधा@@ 205
यूरिया 205
योगीकरण 205
रतिमाएँ 205
रवों 205
रेशमी 205
रोज@@ 205
लंका@@ 205
वकीलों 205
वोन 205
शायरी 205
सफे@@ 205
सरपंच 205
सैला@@ 205
हिमालयी 205
ान@@ 205
ोव 205
ISBN 204
ंगेल 204
अखण 204
अनैतिक 204
एम. 204
एसडी@@ 204
कहलाया 204
काका 204
किराये 204
कोणों 204
गोंद 204
गोपीनाथ 204
गौर@@ 204
जीनस 204
टाला 204
टॉस 204
णनात 204
दरिया@@ 204
धनुर 204
नाच@@ 204
पमेंट 204
बनेगा 204
बाम 204
बैलिस 204
भाधान 204
मका@@ 204
मकों 204
मानियाई 204
मिनेसोटा 204
लसी@@ 204
लासिकल 204
लिंडा 204
लूथर 204
लेवर 204
वयंसेवकों 204
विकासवादी 204
शिख@@ 204
सकतीं 204
सवैगन 204
सामंती 204
सामानों 204
हाज 204
हाथरस 204
हिंद@@ 204
ন 204
-1 203
43@@ 203
ik@@ 203
ā@@ 203
अनुसं@@ 203
इमा@@ 203
कतार 203
कहेंगे 203
काड 203
खमीर 203
खुशबू 203
गाँठ 203
जलसन 203
जीराव 203
जुट 203
ञानियों 203
टीला 203
तबाही 203
थनी 203
धरम@@ 203
धरहरा 203
निध 203
बप 203
बीहता 203
भेष@@ 203
मं 203
मनन 203
मसौढी 203
मानुसार 203
माबाद 203
मैया 203
योटो 203
रंजित 203
रांजिस 203
राशन 203
रेजुएट 203
लखीमपुर 203
लगान 203
लेसर 203
शेखा@@ 203
षन 203
संता@@ 203
सिंघ@@ 203
10वीं 202
116 202
1818 202
AL@@ 202
SP@@ 202
z@@ 202
ंजन 202
अधिकार@@ 202
असीमित 202
आयतें 202
ऊनी 202
एडमिनिस 202
एनटी@@ 202
कुषाण 202
कैंडि@@ 202
खाँ@@ 202
गणक 202
घावों 202
चटनी 202
चाँदनी 202
चिमांचल 202
जबर 202
डाउनटाउन 202
दरवा@@ 202
दह 202
दून 202
धृतराष 202
नकोट 202
नवप 202
नूर@@ 202
पारिभाषिक 202
बदनाम 202
बहाली 202
बारों 202
मसूद 202
मसूरी 202
यका 202
रतियाँ 202
राजभवन 202
राहु 202
रिवेंद 202
रील 202
रुकने 202
ऱ@@ 202
लिंगों 202
लिओ@@ 202
लुकास 202
लूक 202
विलिस 202
विषैले 202
शालाएं 202
शाहजहां 202
सतलुज 202
सोते 202
हमसे 202
िरसराय 202
॒ 202
०मनि@@ 202
00718 201
1.8 201
1854 201
1874 201
Bar@@ 201
ary 201
ath@@ 201
east 201
ंगुल 201
अनुमानों 201
अमास 201
इंश 201
एचएस@@ 201
एमे@@ 201
करीना 201
काए 201
कृतज 201
खुजली 201
खेल@@ 201
गट 201
गुइ@@ 201
गुणक 201
चॆ@@ 201
जख 201
जूर 201
डनर 201
डनी 201
डिंभ 201
तारकीय 201
थालय 201
धीकरण 201
नलों 201
नशी@@ 201
नाइल 201
पीठों 201
पूंजीवादी 201
पैरो 201
भरत@@ 201
भल 201
मेलबोर 201
मेहर@@ 201
यूगोस 201
रमाणीकरण 201
रेर@@ 201
रॉब 201
रोणी 201
रोपो@@ 201
लके 201
लोह 201
शाहजहाँपुर 201
समयावधि 201
सिंथेटिक 201
सुफ 201
सेवकों 201
१९०० 201
१९४४ 201
CD@@ 200
PC 200
av@@ 200
no 200
आरोपी 200
इंपीरियल 200
ऋणों 200
एला 200
एसो@@ 200
कामा@@ 200
कोनों 200
कोशी 200
घिरी 200
चन@@ 200
चरा@@ 200
चेचक 200
टक@@ 200
टाग 200
डोगरा 200
तवी 200
तां 200
तिकार 200
तोष 200
थॉम 200
दरम 200
दिगंबर 200
नतीजे 200
परिभाषाओं 200
पेयजल 200
फटिक 200
फाइलों 200
बाण@@ 200
बैंक@@ 200
भयावह 200
भाषिक 200
मशरूम 200
मसात 200
माई@@ 200
मानसरोवर 200
मिहिर 200
यूपी@@ 200
रणबीर 200
राठौर 200
रातों 200
राबर 200
लालच 200
लॅ@@ 200
वले 200
वाटी 200
शहीदों 200
सफलताओं 200
साधारणतः 200
साब@@ 200
सुअर 200
सुनामी 200
हेर@@ 200
190 199
File 199
ke 199
value 199
ंचर 199
अधूरा 199
आंखें 199
आउटसोर 199
आयनों 199
उठते 199
एकांत 199
एफएम 199
एमबी@@ 199
करणीय 199
कराये 199
कैंपस 199
कॉकस 199
खता 199
खासतौर 199
गंध@@ 199
गणि@@ 199
गिग 199
गुफाएं 199
छिंद@@ 199
जकों 199
जनीय 199
जिंक 199
तफ@@ 199
तारक 199
थियन 199
दं 199
दिनचर 199
निला 199
पचा@@ 199
पथरी 199
परिमित 199
परिरक 199
पहे@@ 199
पुलों 199
बकाया 199
बूटियों 199
बोलियाँ 199
मझ@@ 199
मददगार 199
महाशक 199
माइनर 199
मेरिल 199
यथे@@ 199
यायवाची 199
रभावकारी 199
राजपूताना 199
रेसवे 199
लायी 199
लैला 199
वायुमण 199
वेटिव 199
शराबी 199
शादी@@ 199
शेयरधारक 199
संरचनाएं 199
सांकेतिक 199
सिफारिशों 199
हने 199
हुमा@@ 199
१९४१ 199
1.4 198
111 198
12.@@ 198
GE 198
type 198
अफीम 198
असद 198
अहोम 198
उपचारों 198
ऑफ@@ 198
ओफ 198
कलापों 198
कुरैशी 198
कैलोरी 198
गोलियां 198
जैकेट 198
टिफि@@ 198
डायो@@ 198
डील 198
डोनिया 198
ताँबे 198
तानाशाही 198
तारापुर 198
तासी 198
तिमोर 198
तुन 198
धारे 198
नवाद 198
नीच 198
परलोक 198
परिशुद 198
पहलवानों 198
पाइप@@ 198
पीढी 198
पेनिसि@@ 198
पॉलिटन 198
पोटेंशिअल 198
पौंड 198
बढाने 198
बिता 198
बी. 198
भीत 198
माकर 198
यकरण 198
यारहवीं 198
रणेता 198
रमणकारियों 198
राजकोट 198
राणों 198
रेणियां 198
रोफेशनल 198
रोमा@@ 198
लिखती 198
लुद 198
शेखावत 198
षधर 198
षिकता 198
सातवाहन 198
सादगी 198
सिएरा 198
सेकेण 198
हिला 198
हुन 198
ाइनल 198
20.@@ 197
63@@ 197
BBC 197
CO2 197
ac@@ 197
s.@@ 197
अटलांटा 197
अनवरत 197
अनी@@ 197
अशरफ 197
आयुष 197
आवेग 197
एत 197
कपा 197
करनाल 197
कराल 197
कोठी 197
खोज@@ 197
गजे@@ 197
गुब 197
चौरा@@ 197
छीना 197
जापा@@ 197
जिय@@ 197
जीएम 197
जुडे 197
जेय 197
टीर 197
तिकारियों 197
तीज 197
तेर 197
दीपन 197
नहा@@ 197
निलंबन 197
नौकायन 197
पकने 197
परिहार 197
परी@@ 197
पात@@ 197
पेलोड 197
बदतर 197
बारबरा 197
बेनि@@ 197
बेबी@@ 197
माहात 197
मिनी@@ 197
मुर@@ 197
मूला@@ 197
मैकडॉनल 197
यजी 197
यूसर 197
रंगहीन 197
राधिका 197
रेडिय@@ 197
विषै@@ 197
वीरा 197
वै 197
शाहपुर 197
शिराज 197
षाघात 197
समलैंग@@ 197
सलाद 197
हलचल 197
हैन 197
ीड 197
1869 196
om@@ 196
अबतक 196
अवरो@@ 196
एम.ए. 196
ओहियो 196
कारीगरी 196
काॅमिक 196
कुँवर 196
कोंकण 196
कोको 196
खानपान 196
गीज 196
चेव 196
छान@@ 196
जनसाधारण 196
डिविजन 196
तियार 196
देखि@@ 196
देशभर 196
नीचा 196
पुकार@@ 196
बरस 196
बुलाने 196
बोडिया 196
भेजना 196
महारत 196
मासू@@ 196
मीज 196
मोचन 196
मौकों 196
यामत 196
योतिषी 196
रखाव 196
रचा@@ 196
रजीत 196
रिगर 196
रोटीनों 196
लाएँ 196
लोकतान 196
विशाखापट 196
शाहों 196
शियस 196
१९२६ 196
19.@@ 195
49@@ 195
@ 195
BC 195
haplogroup 195
it@@ 195
such 195
इमार@@ 195
काउण 195
कीम 195
कैनिंग 195
कोयंब@@ 195
खोजकर 195
गुजरना 195
गोथिक 195
घुल 195
घों@@ 195
घोषणापत 195
चुंबक 195
छूने 195
जूलिया 195
टज 195
टूटे 195
डिवी@@ 195
डिस@@ 195
दाज 195
दैट 195
धकेल 195
धिया 195
नाले 195
नीची 195
नौवीं 195
पीडी 195
पैसिफिक 195
फोर@@ 195
बंटा 195
बलता 195
बानो 195
बीम 195
बोलिक 195
भगवत 195
भागीदारों 195
यताएँ 195
यूसीएलए 195
रधार 195
रवेशद 195
रैंड@@ 195
रोकते 195
रोण 195
रोमियो 195
रोमीटर 195
लैलम 195
वातानुकू@@ 195
विकेटकीपर 195
विशे@@ 195
संतो@@ 195
हील@@ 195
240 194
30AM 194
New 194
man 194
parallel 194
ंदों 194
अभिला@@ 194
अवकल 194
आभू@@ 194
एमपी 194
ऐम 194
ऐसीटिलीन 194
कटाव 194
कराकर 194
कवाद 194
केटों 194
कौशिक 194
गेट@@ 194
गोरिथ 194
चरी 194
जूद 194
झर 194
टव 194
दिका 194
नाने 194
पणी@@ 194
फैस@@ 194
बैट 194
भटनागर 194
मातरम 194
माथे 194
मेरु 194
मेला@@ 194
याचल 194
याहू 194
यूचर 194
यूमिनियम 194
रतट 194
रतिजन 194
रभुख 194
रसायनिक 194
रुवी 194
रोपे@@ 194
रोहन 194
लिस@@ 194
वरी@@ 194
वसुदेव 194
विशाखा@@ 194
शेख@@ 194
सगरमाथा 194
समशीतोष 194
सरगुजा 194
साझे@@ 194
सिली@@ 194
सुभद 194
हेरिटेज 194
ारित 194
23.@@ 193
aj@@ 193
ed@@ 193
me 193
ph@@ 193
आईएनएस 193
आलावा 193
आवेशित 193
इकठ 193
उथल 193
उरुग 193
ऋतु@@ 193
ऑरेंज 193
कहो 193
कूटनीति 193
कोंडा 193
डारण 193
डेंगू 193
तरंगें 193
तिन@@ 193
तेंदुआ 193
देड 193
पादपों 193
पिका@@ 193
पुरुस 193
फुटेज 193
फोनों 193
बलोचिस 193
बीर@@ 193
मचा@@ 193
माम 193
मेहमान 193
यकीन 193
ययुग 193
रोटॉन 193
लाब 193
लैडी@@ 193
लैरी 193
वि.@@ 193
वेम 193
शरीर@@ 193
शला@@ 193
शियर 193
शुरुवात 193
सीएसए 193
सुनीता 193
सेनिक 193
सोया 193
1815 192
8,000 192
ant 192
ma 192
अंकीय 192
अंडाशय 192
अनिय@@ 192
अपनाते 192
अ०@@ 192
आयोडीन 192
उपरी 192
उपास 192
एयरोस 192
काउन 192
कृपया 192
गौरवशाली 192
छौ@@ 192
जुआन 192
डीएस@@ 192
डीलर 192
तरण@@ 192
तीरंदाजी 192
देवल@@ 192
धत 192
धुंध 192
निरंकुश 192
पहल@@ 192
पीलबर 192
पोरा 192
बछड 192
बांट 192
बैंडविड 192
भोग@@ 192
मुहूर 192
रबी 192
राइयों 192
रोप@@ 192
लीमा 192
लोककथाओं 192
वहारा 192
वाहिकाओं 192
संगृहीत 192
संजना 192
सलाह@@ 192
सिंधु@@ 192
सीला 192
सीलोन 192
हनु@@ 192
हरीश 192
हाथी@@ 192
ांज 192
ारिस 192
1,5@@ 191
25.@@ 191
VI 191
ish@@ 191
they 191
अदरक 191
अनुशीलन 191
अभियुक 191
अरी 191
आबू 191
आयु@@ 191
उपमा 191
उभरती 191
एबर 191
कटा@@ 191
कमांडो 191
कहलाए 191
केशंस 191
गुफाएँ 191
गोबिन 191
छापे 191
छिप 191
जलोढ 191
जियां 191
टोनिया 191
डने 191
ढला@@ 191
तरजीविता 191
तराष 191
दीया 191
नवीकरणीय 191
नेप 191
पंथियों 191
पागलपन 191
पेंच 191
बीजेपी 191
बुख 191
बेचना 191
बोधि 191
भाषित 191
महालक 191
यूएन@@ 191
रदूषित 191
राइडे 191
रामानंद 191
रालयों 191
रुशलम 191
रेख@@ 191
लाठी 191
लेवा 191
वधू 191
वरवाद 191
वारियर 191
शुंग 191
शोषित 191
सीई@@ 191
ু@@ 191
Iglas 190
अनुवांशिक 190
अभिग 190
असिमोव 190
इमे@@ 190
इसाबेला 190
एमसी@@ 190
एसिटिक 190
ओटो@@ 190
कवित 190
किय@@ 190
कैश 190
गुरुदेव 190
घटी 190
चुप@@ 190
जागृ@@ 190
जूझ@@ 190
तीफे 190
तुमको 190
तूल 190
दावे@@ 190
दुनिया@@ 190
नाईटेड 190
नीलगिरि 190
नेवी 190
पालने 190
फिरो@@ 190
फैमिली 190
बढती 190
बदौलत 190
बहते 190
बुलाते 190
बैन 190
मपत 190
मारी@@ 190
मीठी 190
मेसी 190
मैकडाउन 190
यानुसार 190
रामाउंट 190
रिको 190
रिसीवर 190
वंय 190
वदर 190
वमे@@ 190
वैस 190
सहजता 190
सियर 190
122 189
14.@@ 189
39@@ 189
WHO 189
ंगुर 189
अंगद 189
अकबर@@ 189
अभिरुचि 189
आडवाणी 189
आदतों 189
आषाढ 189
उपदेशों 189
उपहास 189
उपाधियाँ 189
एनेस 189
कलीसिया 189
कसा@@ 189
कुफ 189
खैबर 189
गुआर 189
चांग@@ 189
जाप 189
टीस 189
टेढ 189
टैंकों 189
ठप 189
णकटि@@ 189
तारीफ 189
तिय 189
दिवा@@ 189
दुन 189
धर@@ 189
धृ@@ 189
नजारा 189
नाइक 189
नौवहन 189
पहनती 189
पारगमन 189
पुकारते 189
फकीर 189
फिरोज@@ 189
भाटिया 189
भेजते 189
मकाल 189
मधे@@ 189
मनाली 189
मेसन 189
राघवन 189
रिटायर 189
रियार 189
लनों 189
लोरेंस 189
वलय 189
विशेषांक 189
शाई 189
शिर@@ 189
सफा@@ 189
सांभर 189
होश 189
ुशी 189
ेड@@ 189
র 189
1864 188
2.4 188
45PM 188
500,000 188
pH 188
आयीं 188
उगते 188
उतरा 188
उदारता 188
एंटोनियो 188
एनो@@ 188
ओडिसी 188
कारीगरों 188
खि 188
घरेलु 188
डिजाइनों 188
तेंदु@@ 188
तैरते 188
थोर 188
परिधीय 188
पीएल 188
पैरो@@ 188
यशाली 188
याचारों 188
रघु 188
रांडों 188
राउंडर 188
रिसोर 188
रुज 188
लिबर 188
लूएंजा 188
वयंवर 188
वासघात 188
वीरेन 188
शिलाओं 188
शृंख@@ 188
षम@@ 188
सटा 188
सरहद 188
साकी 188
सारनाथ 188
सियां 188
हाजीपुर 188
होंडा 188
ोक 188
१९३३ 188
.एस@@ 187
144 187
English 187
Par@@ 187
energy 187
ro@@ 187
ting 187
ंगम 187
ंन 187
अनुपलब 187
अभिकर 187
अभिभाव@@ 187
आंक@@ 187
इनडोर 187
इलियट 187
उपयोगि@@ 187
एँगे 187
एमिली 187
एश 187
कंसोल 187
कविताएं 187
काता 187
कुरै@@ 187
कुलकर 187
कॉनकॉर 187
कोइ 187
खारा 187
गिरा@@ 187
जिगर 187
जीनो@@ 187
टीमीडिया 187
टूटी 187
टेला 187
तदु@@ 187
तनपान 187
देहात 187
नाबा@@ 187
नीलकंठ 187
नेचु@@ 187
परिशिष 187
पिंग@@ 187
पुजारियों 187
पेत 187
बजाना 187
बलपूर 187
बहाई 187
मलावी 187
मारुति 187
मिडिल 187
मिनो@@ 187
मैनहट 187
मोहनलाल 187
यावरण@@ 187
रमोद 187
रांकन 187
राजकुमारों 187
रुपद 187
रेती 187
रेना 187
लिथिक 187
वसु 187
वांस 187
वालिया 187
वासना 187
वॉयस 187
संभव@@ 187
संयोजी 187
सतारा 187
सनीय 187
सिलिंडर 187
हटाना 187
हामिद 187
ोसियों 187
३०@@ 187
1820 186
AD 186
He 186
US@@ 186
use 186
war 186
ंजी 186
अंतरंग 186
अधिकरण 186
अधिकां@@ 186
अनदेखी 186
इटालियन 186
उपभाषा 186
कंड@@ 186
कठि@@ 186
कलंक 186
कव 186
कासल 186
कैले@@ 186
खतना 186
गिरे 186
गैंगस 186
चमे@@ 186
चालकता 186
छपरा 186
जातीयता 186
जायज 186
जियाई 186
जुताई 186
झोऊ 186
टाइट 186
टोरियन 186
ठिया 186
तापक 186
दंडित 186
निराकरण 186
निषाद 186
नीरो 186
पहनी 186
बकर@@ 186
बजाज 186
बटलर 186
बैंकॉक 186
बौना 186
मारते 186
रकीर 186
रफुल 186
रिख 186
रियाशीलता 186
रीनि@@ 186
रोमाइड 186
लीवुड 186
लौंग 186
ल०@@ 186
वाचस 186
विनियामक 186
शिका@@ 186
सागरीय 186
सामवेद 186
साला 186
सिटा@@ 186
सियो@@ 186
सिरि@@ 186
सृजनात 186
सोलंकी 186
हरिहर 186
हिद 186
HTML 185
ara 185
ata 185
co@@ 185
har@@ 185
β 185
अता@@ 185
आभार 185
आरपी 185
एतिहासिक 185
ओरिएंटल 185
काकोरी 185
कीथ 185
कुबेर 185
कैसी 185
गुरुग 185
चेट 185
जमकर 185
जलाल 185
जीवनशैली 185
ठाकरे 185
डबलिन 185
तास 185
तिपरक 185
तृण@@ 185
थड 185
थिस 185
दशमी 185
देवदार 185
नाविकों 185
नैक 185
नैश 185
पटन 185
पारद 185
बतायी 185
बिंद 185
बुलन 185
भात 185
भाषायी 185
मकाण 185
महाशिवरात 185
महुआ 185
मायनों 185
मीडिएट 185
यदा 185
यादों 185
रमि@@ 185
रांसमिशन 185
राजप 185
रिवेदी 185
लाजी 185
वाच@@ 185
शिखा 185
सदाशिव 185
सरंच@@ 185
सराहनीय 185
सहकारिता 185
सीरिज 185
सुनहरा 185
हंटर 185
हाईवे 185
हुवा 185
ॄ@@ 185
ोप@@ 185
117 184
138 184
7,000 184
point 184
अतिश@@ 184
असंतुलन 184
आईएम 184
आयर 184
इश@@ 184
करवाना 184
काब@@ 184
किम@@ 184
खिलौ@@ 184
गैन 184
गोपी@@ 184
घटने 184
चौरासी 184
जीवि@@ 184
झुनू 184
टूडेंट 184
टॉकहोम 184
टॉड 184
तचर 184
तफा 184
तापन 184
थप 184
नशा 184
निहोत 184
नेशिया 184
पैरिस 184
बधाई 184
बनवा@@ 184
बिछा@@ 184
बूर 184
भाषावैज 184
मलया@@ 184
मुदी 184
मूंगफली 184
यवश 184
यूमीनियम 184
रहवें 184
रोजाना 184
रोजी 184
लंबन 184
लकोट 184
लूई 184
लेस@@ 184
वरे 184
वादे 184
वेषक 184
सबवे 184
सेड 184
हेज 184
11,@@ 183
1855 183
CI@@ 183
ki 183
ta 183
अनै@@ 183
उमय 183
एडमंड 183
काब 183
कैंडी 183
खरगोश 183
खिलाडियों 183
गरमी 183
गलिय@@ 183
गिरवी 183
गोपालगंज 183
चलो 183
णिम 183
तपुरम 183
तमिलों 183
तांक 183
तैनाती 183
देशज 183
निकलना 183
नै 183
परिण@@ 183
पादरियों 183
पिछला 183
पीत 183
पैंथर 183
फलनों 183
बगा@@ 183
बाधा@@ 183
येंगे 183
रामानुजन 183
रेणु 183
रोदय 183
लिखा@@ 183
लुंग 183
लुर 183
लै 183
शेव@@ 183
हमी 183
हलवा 183
हेगन 183
ारिन 183
१९१० 183
650 182
Am@@ 182
IP 182
between 182
sub@@ 182
us@@ 182
­ 182
ंचन 182
अजातशत 182
अटूट 182
अपनाए 182
अभियोग 182
असहाय 182
एकरूपता 182
कलेज 182
चायुक 182
चेकोस 182
चौकोर 182
छिपाने 182
जाई 182
जाफ 182
जिस@@ 182
डियां 182
तराधिकारियों 182
तितली 182
थीसिस 182
दोगुना 182
दोहे 182
धीमे 182
धूमधाम 182
पके 182
पता@@ 182
पुरूषों 182
बनें 182
बरें 182
भावात 182
मंगेशकर 182
मेंं 182
यति@@ 182
यह@@ 182
यूजर 182
योजनाएँ 182
रमार 182
रेणी@@ 182
वादकों 182
वारा@@ 182
विजि@@ 182
शृंग@@ 182
शैलों 182
सिलाई 182
सुनता 182
सेकेंडरी 182
हकीम 182
हाम 182
हैंक 182
होटलों 182
ाइनर 182
१९११ 182
118 181
124 181
8वीं 181
Mah@@ 181
into 181
अनुसंधा@@ 181
ऋतिक 181
एडवांस 181
कंज 181
करुण 181
कालका 181
काव@@ 181
कीला 181
खुलती 181
गरा 181
ङा 181
चुनौती@@ 181
चौराहे 181
जई 181
टच 181
टिकोणों 181
णवी 181
ताज@@ 181
नौली 181
परिसंघ 181
पावेल 181
पिनर 181
बनवाई 181
बांद 181
मकार 181
मट@@ 181
मिक@@ 181
मोनो 181
मौला 181
यादित 181
येर 181
यै 181
रतिरूपण 181
रिकोणी 181
रेसर 181
लचीला 181
लीजिए 181
लोद 181
वसान 181
वहा 181
विभेदन 181
वेड 181
वोस 181
शकीरा 181
शाली@@ 181
शिपिंग 181
शिवपुरी 181
षोभ 181
संचलन 181
सादे 181
ियाल 181
ीबार 181
1803 180
6000 180
als 180
ative 180
ent 180
theory 180
ंटा 180
ंपों 180
अंडर@@ 180
अखंड 180
अथॉरिटी 180
अभियंता 180
उपखंड 180
कलित 180
किपलिंग 180
कीमतें 180
कैनेडियन 180
गाकर 180
घटता 180
घूम@@ 180
जमींद@@ 180
जाद 180
जैविकी 180
ठीय 180
तकाल 180
दियाँ 180
निकालता 180
नौकाओं 180
पीरपैंती 180
पुनपुन 180
भूमीय 180
महाभियोग 180
मेग 180
मेटा 180
रकानूनी 180
रशाह 180
राजनितिक 180
रॉडवे 180
लंगूर 180
वॉटसन 180
षीकरण 180
सं. 180
सरित 180
हयात 180
१९१७ 180
113 179
12,@@ 179
25,000 179
AP 179
CA 179
ID 179
PA 179
ali 179
ang@@ 179
par@@ 179
po@@ 179
अलैहिस 179
उपविजेता 179
काठियावाड 179
कुएं 179
खुलता 179
खूबी 179
गुणनफल 179
गोरा 179
जसवंत 179
जुम 179
टसन 179
टाँ@@ 179
टीकाएँ 179
ठार@@ 179
डौन 179
ढके 179
तकियों 179
दैहिक 179
नताओं 179
नरभक 179
नहार 179
नाब 179
नीतिक 179
पंचायती 179
पटरी 179
पीआर 179
पैकेजिंग 179
पैच 179
बंजारा 179
बिखर 179
बुनिया@@ 179
भतीजी 179
यवहृत 179
यष 179
यामा@@ 179
रदार 179
रोबोटिक 179
वॉच@@ 179
शूल 179
शैली@@ 179
संकेतन 179
संस@@ 179
सहगल 179
सुधीर 179
सेशन 179
सौहार 179
१९१२ 179
९,@@ 179
1.0 178
320 178
jpg 178
अधूरी 178
आतिथ 178
आधि@@ 178
आरोग 178
उदास 178
एले@@ 178
कालोनी 178
कुचल 178
खीर 178
घोटाला 178
चुरी 178
जनम 178
जानकार 178
टंक@@ 178
तराय 178
थाने 178
थिरांक 178
दोबस 178
नाओ 178
नापने 178
नीतियाँ 178
नीहारिका 178
पला 178
पोटेशियम 178
फीड 178
फुस 178
बकी 178
भरती 178
भुक 178
भूकंप@@ 178
मजा 178
मणी 178
मिणी 178
मैंग@@ 178
यूरिख 178
राडीह 178
वमेंट 178
विचारधाराओं 178
वीकली 178
वेंस 178
शवादी 178
संतानों 178
सता@@ 178
समेकित 178
सरिया 178
साय 178
सिता 178
सोप 178
हायर 178
हिता 178
िरी 178
ॉप 178
1- 177
145 177
IM@@ 177
lo@@ 177
ti 177
up 177
अखंडता 177
अपक 177
अराजक@@ 177
अलैहि 177
आनी 177
एलएम 177
कठिनाइ@@ 177
कपा@@ 177
कमलेश 177
कियो 177
कोलोराडो 177
गदा 177
चकित 177
चबूतरे 177
जरी@@ 177
जाबाद 177
टकरा 177
टेरेसा 177
डकैती 177
तांड@@ 177
दीपुर 177
धातुएँ 177
नाहर 177
परिणामी 177
पूंजीवाद 177
पैरवी 177
बंदियों 177
बाबाजी 177
बीएमडब 177
भधारण 177
मंगोलों 177
मनस 177
मॉडर 177
मोना@@ 177
यशालाओं 177
याकू@@ 177
रहीन 177
रूमानी 177
लगायी 177
लवी 177
लुटे@@ 177
वसू@@ 177
विंड 177
विघ 177
ससेक 177
सिसो@@ 177
सेलुलर 177
ॆ 177
१०,००० 177
1बी 176
hai 176
op@@ 176
अंधा 176
अकसर 176
अचेतन 176
अजित 176
आन@@ 176
इंडो@@ 176
इरा 176
उदारीकरण 176
उपयोगों 176
एसएमएस 176
ओगे 176
कबूतर 176
कोबरा 176
कोयम 176
गंग 176
गुलबर 176
चपेट 176
चाहे@@ 176
चैट 176
छुआ 176
जगाने 176
ताला 176
तीतर 176
तेना@@ 176
तोल 176
दमन@@ 176
दिवालिया 176
निकल@@ 176
पग 176
पटा@@ 176
पलामू 176
पीलिया 176
पॅ@@ 176
बदलावों 176
बारी@@ 176
भां@@ 176
भांग 176
भूतियों 176
मिनि 176
यवधान 176
यवादियों 176
रवित 176
राउजर 176
रामगंगा 176
रेनॉल 176
रोजमर 176
लचीलापन 176
लपल 176
लात@@ 176
लातीनी 176
लिकता 176
लेऑफ 176
वीकार@@ 176
सवें 176
सीआईए 176
सुखा@@ 176
हियों 176
हीथ 176
1400 175
language 175
अंतःक 175
ईमान@@ 175
औप@@ 175
घवृत 175
चंप@@ 175
जानन 175
जुरा@@ 175
झाने 175
थैतिक 175
नलियों 175
नश 175
नेटफ 175
पंजा@@ 175
पीरियल 175
पीसीबी 175
भाटा 175
मकड 175
मांतरण 175
मृतकों 175
यभाषा 175
यसागरीय 175
यापकों 175
याश 175
रका 175
रगान 175
रपट 175
रांसमी@@ 175
रेचर 175
लगंज 175
वनियाँ 175
वावधान 175
विकि 175
शीकरण 175
संयोज@@ 175
सायन 175
सृजित 175
सेठी 175
हैा 175
ates 174
ol 174
ओरछा 174
करायी 174
किश@@ 174
कोडेक 174
खोया 174
गेटर 174
जानकार@@ 174
ठाकु@@ 174
दोंग 174
धमाके 174
नख 174
पुरुषार 174
फॉरेस 174
बदोश 174
बहुजन 174
बामा 174
बैठकें 174
भाल 174
भैया 174
मानत 174
मिलाप 174
मुग@@ 174
रधर 174
रूसो 174
रैश 174
लाइ 174
लेवी 174
सादृश 174
सूई 174
हथौड 174
हरिजन 174
ादा 174
ालिब 174
1851 173
CP 173
æ@@ 173
ंं 173
अपरिहार 173
अरण 173
आशुतोष 173
उठाये 173
उपत 173
ऍन 173
चंगेज 173
चिराग 173
जफर 173
जहाँ@@ 173
टेल@@ 173
थॉ@@ 173
दिखे 173
निपु@@ 173
नेंट 173
मनीष 173
महार@@ 173
मिथ@@ 173
मूड 173
मेहराब 173
रीमिया 173
लंगर 173
लेवल 173
विसंग@@ 173
शाख 173
सपो@@ 173
ে@@ 173
.org 172
000,000 172
121 172
123 172
13.@@ 172
14,@@ 172
550 172
GB 172
ay@@ 172
ch 172
ː@@ 172
ंगु 172
अभिज 172
अवधारणा@@ 172
अविद 172
असहम@@ 172
इटा@@ 172
इनक 172
एकेश 172
एमई 172
ओडे@@ 172
ओह 172
कलैंड 172
किरण@@ 172
कोलंबस 172
जूतों 172
टिकन 172
टोनियम 172
तका@@ 172
ताजी 172
तेजा@@ 172
नापसंद 172
नींबू 172
पंखु@@ 172
फरीदाबाद 172
फुसीय 172
भती@@ 172
यूकैसल 172
रकाशकों 172
रामस 172
रीडिंग 172
लिथियम 172
संभावनाएं 172
सकेगी 172
सपा 172
1845 171
2.3 171
210 171
IQ 171
John 171
SO@@ 171
ical 171
left 171
line 171
power 171
ɪ@@ 171
अखरोट 171
किंडरगार 171
तावे@@ 171
दुका@@ 171
नेशियाई 171
परिचालित 171
मनसा 171
महिम 171
मेहमानों 171
मोती@@ 171
लिंच 171
संभ@@ 171
ूक 171
१९१५ 171
132 170
1835 170
1853 170
ach@@ 170
ations 170
आशीष 170
गैली@@ 170
टीएस 170
टेनमेंट 170
धारणा@@ 170
धिकारियों 170
नामदेव 170
पटरियों 170
पहिए 170
फिली@@ 170
फॉरवर 170
बरे 170
बारात 170
मशीनी 170
माधवराव 170
रिको@@ 170
लखन@@ 170
लूनी 170
वियन 170
हेलेन 170
18.@@ 169
75@@ 169
AD@@ 169
CC@@ 169
COVID 169
CT 169
ino 169
languages 169
अता 169
आई. 169
ओडीआई 169
कुस 169
कूड 169
कोरी 169
चुट@@ 169
चूका 169
जगत@@ 169
जनी@@ 169
तीनो 169
दलाई 169
फत 169
मोटापे 169
शप 169
सेलि@@ 169
सोसिएशन 169
2.2 168
26.@@ 168
57@@ 168
S.@@ 168
` 168
ans 168
ating 168
ti@@ 168
अवन 168
एंजाइ@@ 168
कानू@@ 168
तैरने 168
थेम 168
मीटिंग 168
सचि@@ 168
सेहत 168
2.1 167
2023 167
66@@ 167
Kal@@ 167
most 167
गोप 167
घर@@ 167
जेंस 167
टिने@@ 167
बिताते 167
मिं@@ 167
रंथकार 167
रसार@@ 167
शंका 167
सूची@@ 167
हीरों 167
हैद@@ 167
13,@@ 166
BS 166
CO 166
MA 166
Mar@@ 166
em@@ 166
sp@@ 166
where 166
ंव 166
कायदा 166
कोनी 166
फिन@@ 166
मगढ 166
वफा@@ 166
शव@@ 166
िजी 166
1,500 165
15,@@ 165
ST@@ 165
im@@ 165
ut@@ 165
will 165
उदासी@@ 165
एजेंस@@ 165
एनए 165
गेशन 165
चिस 165
दीव 165
पुरू@@ 165
माइटो@@ 165
माधव@@ 165
लिमि@@ 165
ाइलों 165
1,8@@ 164
1819 164
2- 164
24.@@ 164
AB@@ 164
AP@@ 164
IT 164
no@@ 164
कैसेट 164
बाधक 164
मिथि@@ 164
मैने@@ 164
यूकेमिया 164
रून 164
लगाड 164
वथ@@ 164
স@@ 164
12,000 163
1817 163
5.5 163
BE 163
dis@@ 163
ene 163
only 163
आईबी@@ 163
आका@@ 163
ईपी 163
कांची@@ 163
नेपाल@@ 163
बिला@@ 163
वेबर 163
शः 163
षार@@ 163
सतपु@@ 163
सिसि@@ 163
USB 162
ani 162
ation@@ 162
bi@@ 162
बादा@@ 162
विरोधा@@ 162
ोइक 162
1,6@@ 161
40,000 161
BMW 161
IP@@ 161
SD@@ 161
United 161
and@@ 161
colspan 161
osis 161
px 161
ंदगी 161
कॉले@@ 161
ताराम@@ 161
तिक@@ 161
निकों 161
पिछ@@ 161
रारी 161
शाका@@ 161
शीतोष 161
शुभार@@ 161
ौद 161
॑ 161
দ@@ 161
1843 160
380 160
DivX 160
ERP 160
Open 160
SC 160
ə@@ 160
किता@@ 160
पदी 160
बिंब 160
मीमां@@ 160
वकों 160
141 159
15,000 159
280 159
32@@ 159
78@@ 159
CL@@ 159
MSN 159
SI 159
ha@@ 159
state 159
भावनाएं 159
राजे@@ 159
हेब 159
29.@@ 158
AC@@ 158
On 158
age 158
html 158
to@@ 158
ँगे 158
गियों 158
गोलीय 158
चुनौ@@ 158
लाभ@@ 158
सिकल 158
850 157
IC 157
ak 157
current 157
if 157
man@@ 157
over 157
so 157
ओडि@@ 157
कहे@@ 157
जबा@@ 157
जरु@@ 157
दीना 157
फेड@@ 157
मीद@@ 157
योजित 157
यौगि@@ 157
165 156
AM@@ 156
HWH 156
RA 156
e.@@ 156
tic 156
tr@@ 156
water 156
π 156
कावट 156
खिल 156
गोरख@@ 156
जेपी 156
फिल@@ 156
भरते 156
हैया 156
ி@@ 156
201 155
SQL 155
may 155
́ 155
डका 155
थेरे@@ 155
मुकाब@@ 155
मुम@@ 155
1847 154
A5 154
ing@@ 154
os 154
st@@ 154
um@@ 154
धरी 154
लूस 154
सिकंद@@ 154
ृंग@@ 154
1.7 153
16,@@ 153
175 153
67@@ 153
USA 153
when 153
ँच 153
कमजो@@ 153
गांठ 153
जटिल@@ 153
टेकर 153
माउथ 153
मुला@@ 153
सुरी 153
हात 153
ா@@ 153
1862 152
200,000 152
270 152
AI@@ 152
GDP 152
Raj@@ 152
TC 152
ii 152
नून 152
ন@@ 152
.मी. 151
CE@@ 151
Cs 151
OH 151
SE 151
body 151
form 151
series 151
world 151
कठपु@@ 151
पेरा 151
ऽ 151
ूद 151
1844 150
C2@@ 150
RS 150
li@@ 150
os@@ 150
चिका 150
तालु@@ 150
तीस@@ 150
नाभि@@ 150
मंगे@@ 150
राजी@@ 150
विशाल@@ 150
सच@@ 150
131 149
133 149
15.@@ 149
1839 149
3.1 149
59@@ 149
some 149
ढू@@ 149
बीआई 149
मसी@@ 149
लोहा@@ 149
सफल@@ 149
142 148
CEO 148
a.@@ 148
apur 148
गृहीत 148
दोन 148
नाटक@@ 148
परियोज@@ 148
पिक@@ 148
पिशा@@ 148
मोली 148
रधान@@ 148
148 147
SA 147
SP 147
कैंप@@ 147
मेहरा@@ 147
शारी@@ 147
सरह@@ 147
हरिया@@ 147
0.2 146
ah 146
him 146
style 146
इतिहा@@ 146
जाघर 146
सोल@@ 146
় 146
】 146
136 145
1849 145
330 145
6.5 145
8.5 145
AA 145
Hindi 145
end 145
force 145
kar@@ 145
अनुशं@@ 145
उंट 145
कोलं@@ 145
जाये@@ 145
नेटर 145
रदास 145
लाफ 145
विराज@@ 145
Al 144
SAP 144
उपनि@@ 144
गंगो@@ 144
मथु@@ 144
राती 144
【 144
1789 143
1838 143
8000 143
Con@@ 143
South 143
St@@ 143
agar 143
पाठी 143
रही@@ 143
रेजु@@ 143
विशेषा@@ 143
सजा@@ 143
हराई 143
हिमन@@ 143
ত@@ 143
க@@ 143
53@@ 142
76@@ 142
De@@ 142
O2 142
Research 142
after 142
her 142
out 142
per@@ 142
ts 142
घुस@@ 142
तमि@@ 142
तिरुवन@@ 142
धिकारों 142
भासी 142
मोव 142
यूके@@ 142
लास@@ 142
सके@@ 142
सिकता 142
1100 141
137 141
146 141
152 141
1837 141
AN@@ 141
American 141
MS@@ 141
System 141
many 141
ओँ 141
खोई 141
दाय 141
ऩ@@ 141
लंग@@ 141
लोनी 141
शनि@@ 141
संकट@@ 141
127 140
1832 140
1842 140
185 140
300@@ 140
AOL 140
DA 140
M.@@ 140
SS 140
abad 140
data 140
ics 140
per 140
tion 140
well 140
पुरुष@@ 140
भुजा@@ 140
रागढ 140
ా@@ 140
154 139
155 139
17,@@ 139
59.5 139
928 139
Ph@@ 139
anti@@ 139
इंत@@ 139
किंग@@ 139
टरियों 139
रेली 139
लसा 139
1300 138
134 138
153 138
3.0 138
58@@ 138
Bal@@ 138
IF@@ 138
IS 138
Kar@@ 138
RNA 138
SA@@ 138
UEFA 138
der 138
li 138
light 138
set 138
up@@ 138
गरी@@ 138
गाहों 138
तानुसार 138
तें@@ 138
नीपत 138
पंचाय@@ 138
परि 138
सिफारि@@ 138
1770 137
1801 137
1805 137
199@@ 137
260 137
54@@ 137
CC 137
Nag@@ 137
any 137
hi@@ 137
sa 137
same 137
´ 137
खुला@@ 137
तिकी 137
रैना 137
हिष 137
119 136
225 136
3.2 136
For 136
alism 136
एयरलाइ@@ 136
भागी@@ 136
मदुर@@ 136
मानजनक 136
मूली 136
मेर@@ 136
रियास@@ 136
ऱ 136
वाज@@ 136
हिए 136
157 135
68@@ 135
74@@ 135
HSV 135
NH 135
V6 135
YouTube 135
ea 135
ist 135
ons 135
psychology 135
title 135
we 135
इंजी@@ 135
कंदर 135
कॉमे@@ 135
जमेंट 135
टिश 135
निकाल@@ 135
परव@@ 135
पोलियन 135
यनों 135
यरी 135
यादा@@ 135
रेसी@@ 135
ர@@ 135
1,3@@ 134
16.@@ 134
86@@ 134
888 134
Act 134
First 134
GSM 134
Oracle 134
RFC 134
do 134
mass 134
ऐसी@@ 134
घोषणा@@ 134
टलों 134
तुलसी@@ 134
रतिनि@@ 134
सामू@@ 134
सैंण 134
1824 133
3D 133
Sar@@ 133
ge@@ 133
mm 133
ore 133
आलो@@ 133
देशां@@ 133
मैनु@@ 133
रतियोगि@@ 133
लेय 133
सिफ@@ 133
ूत 133
য 133
1846 132
98@@ 132
CP@@ 132
MI@@ 132
NS@@ 132
about 132
ंने 132
चेता@@ 132
निराशा@@ 132
ো@@ 132
129 131
143 131
149 131
166 131
ABC 131
Kan@@ 131
ep@@ 131
od@@ 131
इसा@@ 131
जारा 131
नुक@@ 131
मैरी@@ 131
रूनी 131
विजे@@ 131
शिकाय@@ 131
ारिणी 131
॓ 131
1707 130
235 130
B.@@ 130
Group 130
IATA 130
IBM 130
ICAO 130
RA@@ 130
bar@@ 130
eg@@ 130
ists 130
non 130
ī@@ 130
गरों 130
तरु@@ 130
देशिक 130
वभौ@@ 130
001 129
151 129
1799 129
1833 129
1841 129
202 129
Mal@@ 129
ance 129
people 129
एथे@@ 129
ऑन@@ 129
जमशे@@ 129
टाइटिस 129
दिव@@ 129
बंगा@@ 129
मैथि@@ 129
युगा@@ 129
1,9@@ 128
182 128
2,0@@ 128
3.3 128
ISDN 128
La 128
Lee 128
Mas@@ 128
NT 128
Ram@@ 128
Rh@@ 128
इजा@@ 128
इनल 128
कबू@@ 128
कलं@@ 128
कैथो@@ 128
डकै@@ 128
नोली 128
फीन 128
बायोटिक 128
भाँ@@ 128
हवाई@@ 128
156 127
1826 127
205 127
SAT 127
Sam@@ 127
Sammart@@ 127
TS 127
based 127
electric 127
og@@ 127
ura 127
इमाम@@ 127
ओल@@ 127
तगा@@ 127
यूना@@ 127
लेंडर 127
वेध@@ 127
-2 126
158 126
64@@ 126
MAS 126
field 126
through 126
अधिक@@ 126
आत@@ 126
ओरिएं@@ 126
कठो@@ 126
जनात 126
नशिप 126
मदनी 126
मेदार@@ 126
159 125
1775 125
1806 125
1814 125
7000 125
AG 125
AI 125
CH@@ 125
DNS 125
SI@@ 125
Un@@ 125
called 125
ho@@ 125
oc@@ 125
three 125
गोचर 125
धुं@@ 125
नीहारि@@ 125
मोनिया 125
.डी@@ 124
17.@@ 124
18,@@ 124
AT@@ 124
Technology 124
ang 124
des 124
wa 124
केदार@@ 124
घाती 124
रॉड@@ 124
वजन@@ 124
हाद 124
A. 123
EMI 123
Ge@@ 123
IR@@ 123
XP 123
bo@@ 123
br@@ 123
color 123
era 123
gr@@ 123
known 123
process 123
second 123
कोय@@ 123
नीर 123
बीएम@@ 123
मुसल@@ 123
28.@@ 122
4.2 122
978 122
IT@@ 122
ni 122
there 122
would 122
ंबर 122
सोलह@@ 122
-19 121
1,7@@ 121
163 121
1750 121
1852 121
370 121
Di@@ 121
HLA 121
ST 121
ng 121
se@@ 121
tis 121
नेवि@@ 121
मोट 121
लुआ 121
139 120
1825 120
9,000 120
ter 120
डीवी@@ 120
भिषेक 120
माधो@@ 120
मीरपुर 120
मुँ@@ 120
राजपू@@ 120
रोबो@@ 120
सीमन 120
172 119
340 119
640 119
AR@@ 119
Car@@ 119
Pakistan 119
Singh 119
UMTS 119
atic 119
ex@@ 119
ri@@ 119
te 119
º 119
अहं@@ 119
आशु@@ 119
इनरी 119
चबू@@ 119
टलर 119
नात@@ 119
निरू@@ 119
बाजों 119
शेयर@@ 119
′ 119
164 118
1793 118
211 118
AN 118
Dis@@ 118
En@@ 118
MP 118
PN@@ 118
RE@@ 118
SOA 118
aon 118
ati 118
each 118
film 118
garh 118
name@@ 118
½ 118
डिजि@@ 118
णाल 118
लोना 118
1834 117
2.7 117
A.@@ 117
Ad@@ 117
DL@@ 117
F1 117
San 117
di 117
hy@@ 117
indi@@ 117
si@@ 117
ंभ 117
नीता 117
नुभूति 117
पसं@@ 117
मारु@@ 117
सेक@@ 117
த@@ 117
1761 116
1836 116
2,500 116
400@@ 116
73.@@ 116
An 116
Corporation 116
MC 116
UN@@ 116
WALL 116
du 116
like 116
ठहर@@ 116
डब@@ 116
बेदार 116
महमू@@ 116
ర@@ 116
192 115
EF@@ 115
NZ@@ 115
har 115
ina 115
ji 115
कराचार 115
कैरे@@ 115
दिमा@@ 115
पटिया@@ 115
मुरली@@ 115
मौसम@@ 115
यहू@@ 115
वीवेट 115
် 115
0.4 114
0.7 114
147 114
195 114
20,@@ 114
256 114
500@@ 114
79@@ 114
DS 114
IB@@ 114
My@@ 114
PO@@ 114
ac 114
amp@@ 114
con@@ 114
re 114
ve 114
width 114
ंडिया 114
डिजाइ@@ 114
डीडी@@ 114
नाती 114
भय@@ 114
আ@@ 114
0.6 113
168 113
169 113
1776 113
1783 113
1821 113
1831 113
3- 113
3.4 113
3.6 113
AB 113
CS@@ 113
Ex@@ 113
Mo@@ 113
Na@@ 113
TV@@ 113
angle 113
both 113
distance 113
new 113
ozoic 113
एंटो@@ 113
एसोसिए@@ 113
कारिणी 113
गरि@@ 113
गोश 113
पनि@@ 113
बंधीय 113
शकर 113
सुले@@ 113
প@@ 113
1792 112
1829 112
212 112
77@@ 112
9000 112
99@@ 112
Ab@@ 112
MHz 112
MP@@ 112
Ma@@ 112
NH@@ 112
Ne@@ 112
State 112
during 112
ig@@ 112
ins 112
अलै@@ 112
टके 112
दिति 112
बुध@@ 112
बें 112
लुओं 112
000@@ 111
1.9 111
161 111
BA 111
Inc. 111
Me@@ 111
RO@@ 111
Se@@ 111
ah@@ 111
ter@@ 111
these 111
ו@@ 111
टैन@@ 111
0.3 110
167 110
1765 110
188 110
19,@@ 110
203 110
206 110
3G 110
4- 110
999 110
LA 110
Po@@ 110
Qu@@ 110
arg@@ 110
common 110
ms 110
ted 110
आईएन@@ 110
चयाप@@ 110
जात@@ 110
ढूं@@ 110
युवा@@ 110
लंधर 110
सवै@@ 110
1526 109
1772 109
30.@@ 109
4.0 109
As@@ 109
CBS 109
Co@@ 109
IA 109
Last 109
Ro@@ 109
XI 109
air 109
car@@ 109
esh 109
अधू@@ 109
नीदर@@ 109
पेनि@@ 109
लन@@ 109
ारिज 109
● 109
150@@ 108
1804 108
1827 108
1828 108
2.8 108
Apple 108
CDMA 108
Cl 108
Iglesia 108
MV 108
VO@@ 108
complex 108
eb@@ 108
esh@@ 108
hal@@ 108
method 108
news 108
nm 108
गुंब@@ 108
धरन 108
मिकल 108
मुझ@@ 108
मोबा@@ 108
सोड 108
1773 107
1812 107
300,000 107
480 107
84@@ 107
Pal@@ 107
SS@@ 107
Samsung 107
code 107
ner 107
ora 107
then 107
year 107
σ 107
नॉमिक 107
विंद 107
1823 106
365 106
60,000 106
Be@@ 106
CH4 106
Or@@ 106
Temple 106
ants 106
oph@@ 106
order 106
under 106
work 106
± 106
काफ@@ 106
कैने@@ 106
थौ@@ 106
भरो@@ 106
विकला@@ 106
सहम@@ 106
ு@@ 106
162 105
1764 105
1788 105
1816 105
204 105
420 105
Sony 105
States 105
ath 105
aur 105
az@@ 105
circuit 105
em 105
idae 105
kar 105
land 105
mal@@ 105
pal@@ 105
ra@@ 105
י@@ 105
डीआई 105
थिये@@ 105
पेयी 105
रोमां@@ 105
रोमांच@@ 105
विटा@@ 105
सामु@@ 105
सिपल 105
हाटी 105
জ@@ 105
1780 104
1790 104
1798 104
250,000 104
85@@ 104
87@@ 104
College 104
II@@ 104
Inter@@ 104
Khan 104
One 104
PS 104
RI@@ 104
STM 104
constant 104
ob@@ 104
ri 104
नती@@ 104
मुबार@@ 104
विदेश@@ 104
विधे@@ 104
वेश@@ 104
হ@@ 104
ಾ@@ 104
1,200 103
1774 103
2.6 103
AIDS 103
Av@@ 103
Category 103
Har@@ 103
Pr@@ 103
ally 103
aw@@ 103
cr@@ 103
end@@ 103
ica 103
inter@@ 103
years 103
ंगता 103
टिनेंटल 103
धिर 103
बूझकर 103
वालामुख@@ 103
� 103
22,@@ 102
39.@@ 102
4.1 102
5.0 102
6.2 102
DM 102
DR 102
E. 102
GA 102
LP 102
North 102
Te@@ 102
il 102
mo@@ 102
ne 102
period 102
south 102
wave 102
بن 102
दाहि@@ 102
धूम@@ 102
यरू@@ 102
वीप@@ 102
संगठ@@ 102
हथिय@@ 102
ਾ@@ 102
1757 101
1784 101
181 101
9001 101
LAN 101
NE@@ 101
NO@@ 101
NTSC 101
ROM 101
TA 101
action 101
ada 101
ari@@ 101
high 101
north 101
numbers 101
public@@ 101
uri 101
using 101
अधी@@ 101
कांक 101
पय 101
रमुख@@ 101
रेंसिक 101
संकु@@ 101
संवाद@@ 101
￼ 101
38.@@ 100
75.@@ 100
Association 100
GP@@ 100
H6 100
ICC 100
PH@@ 100
area 100
arh 100
pe@@ 100
tive 100
गोदा@@ 100
थेटिक 100
नामां@@ 100
पैठ 100
लोरि@@ 100
ാ@@ 100
178 99
1795 99
245 99
AR 99
By 99
Central 99
ME@@ 99
SR@@ 99
San@@ 99
Sp@@ 99
VII 99
Web 99
ability 99
day 99
ian 99
less 99
oh@@ 99
pro@@ 99
te@@ 99
अंडा@@ 99
असु@@ 99
कारण@@ 99
चंडी@@ 99
दौसी 99
षै@@ 99
-3 98
0.8 98
183 98
215 98
37.@@ 98
88@@ 98
All 98
J. 98
R.@@ 98
TE@@ 98
son 98
un 98
पिता@@ 98
लिंगटन 98
सरीसृ@@ 98
0,0@@ 97
3.7 97
4.4 97
CR@@ 97
SO4 97
Sal@@ 97
Society 97
book@@ 97
cu@@ 97
int 97
list 97
mon@@ 97
ong 97
ov@@ 97
unit 97
war@@ 97
θ 97
ईसाइ@@ 97
उंग@@ 97
ओह@@ 97
तेह@@ 97
दूरों 97
मिसाइ@@ 97
मुज@@ 97
शुरु@@ 97
110@@ 96
1556 96
177 96
1802 96
184 96
193@@ 96
4.3 96
Co 96
DE@@ 96
EC 96
For@@ 96
LC 96
MPEG 96
Mad@@ 96
PS@@ 96
RAM 96
ab 96
cor@@ 96
ent@@ 96
ging 96
ko 96
कली@@ 96
खूब@@ 96
तमिल@@ 96
सिनेमा@@ 96
सेलु@@ 96
हटन 96
हाथ@@ 96
1760 95
221 95
28,@@ 95
5.2 95
C3H@@ 95
CF@@ 95
ME 95
XX@@ 95
del 95
heat 95
me@@ 95
minor 95
ni@@ 95
super@@ 95
them 95
ר@@ 95
कैथे@@ 95
पसी 95
रलाल 95
रांक 95
विकता 95
सदों 95
ம@@ 95
1822 94
195@@ 94
3500 94
6.0 94
BD 94
BMI 94
GP 94
LO@@ 94
M. 94
Pro@@ 94
RT@@ 94
School 94
Siemens 94
T. 94
ai@@ 94
change 94
equation 94
istic 94
pre@@ 94
pressure 94
ster 94
ंदार 94
अंद@@ 94
अहमद@@ 94
जयगढ 94
धारण@@ 94
पहर 94
पिरा@@ 94
पैदा@@ 94
यापार@@ 94
ల@@ 94
ರ@@ 94
192@@ 93
193 93
23,@@ 93
232 93
310 93
RI 93
Sa@@ 93
V8 93
ash@@ 93
back 93
cell 93
ium 93
made 93
mi 93
so@@ 93
ud@@ 93
γ 93
इजी 93
खिला 93
गित 93
डुम@@ 93
पोटै@@ 93
लिद 93
सैम@@ 93
हमे@@ 93
----@@ 92
171 92
176 92
1787 92
2,8@@ 92
25,@@ 92
265 92
CN@@ 92
Cal@@ 92
Col@@ 92
Council 92
Development 92
Great 92
H.@@ 92
PET 92
Social 92
ir 92
oid 92
ors 92
pa 92
« 92
तिके@@ 92
थली@@ 92
देल@@ 92
मचार@@ 92
रिसा@@ 92
लुज 92
संपाद@@ 92
सऊ@@ 92
हृत 92
ौती 92
179 91
26,@@ 91
275 91
3,0@@ 91
5.6 91
74.@@ 91
99.@@ 91
EP 91
EU 91
Hu@@ 91
IX 91
MO@@ 91
PT@@ 91
S. 91
William 91
das 91
district 91
do@@ 91
eh@@ 91
est@@ 91
iv@@ 91
les 91
pur@@ 91
ंडरी 91
अकाद@@ 91
आनुवं@@ 91
ञे@@ 91
दनी 91
योजनों 91
लिंगा@@ 91
२००@@ 91
2,5@@ 90
227 90
48.@@ 90
720 90
80,000 90
95@@ 90
ALS 90
CI 90
Company 90
FI@@ 90
FIFA 90
Go@@ 90
MB 90
Pan@@ 90
Tar@@ 90
acid 90
ane 90
ca 90
my 90
res@@ 90
अठार@@ 90
ऋ 90
फस@@ 90
भुव@@ 90
मेह 90
रसाय@@ 90
साउंड@@ 90
বা@@ 90
1813 89
24,@@ 89
3.8 89
325 89
66.@@ 89
69@@ 89
AF 89
AS 89
BO@@ 89
Br@@ 89
Com@@ 89
DR@@ 89
EM@@ 89
I.@@ 89
NT@@ 89
adi 89
aya 89
being 89
dh@@ 89
ee 89
est 89
group 89
ma@@ 89
ment 89
ंटल 89
छुआ@@ 89
जलो@@ 89
पीडिया 89
पुआ 89
पोटे@@ 89
मिंस 89
मेमो@@ 89
योगियों 89
सैण 89
ి@@ 89
1540 88
173 88
250@@ 88
3,7@@ 88
35.@@ 88
404 88
5.1 88
DS@@ 88
FO@@ 88
General 88
Ma 88
PR 88
asa 88
ational 88
ding 88
given 88
he@@ 88
itis 88
life 88
log@@ 88
lu@@ 88
א@@ 88
जोशी@@ 88
डाक@@ 88
पैके@@ 88
बिनेट 88
बीका@@ 88
वरणों 88
ச@@ 88
ക@@ 88
1550 87
1763 87
1785 87
5.4 87
Bo@@ 87
C. 87
Cl@@ 87
ES@@ 87
GNU 87
H2O 87
Rajasthan 87
Science 87
Si@@ 87
West 87
be@@ 87
development 87
ip@@ 87
km2 87
ly 87
mu@@ 87
ne@@ 87
ometer 87
place 87
product 87
prot@@ 87
qu@@ 87
ँकि 87
उदी 87
करीबन 87
दूता@@ 87
फिट@@ 87
मॉड@@ 87
ী 87
ப@@ 87
1620 86
174 86
1807 86
1809 86
194 86
196@@ 86
2,9@@ 86
226 86
400,000 86
DP 86
Gar@@ 86
Is@@ 86
London 86
R. 86
cc 86
ci@@ 86
company 86
ess 86
ets 86
example 86
following 86
hu@@ 86
tri@@ 86
जैसे@@ 86
फिला@@ 86
बाघ@@ 86
मुच 86
ऴ 86
शतः 86
ॊ 86
ા@@ 86
ར@@ 86
,000 85
10000 85
1756 85
1810 85
208 85
222 85
4.6 85
5- 85
CL 85
Chinese 85
GR@@ 85
LLC 85
Pattaya 85
SMS 85
Server 85
Tr@@ 85
a.com 85
ant@@ 85
class 85
dar 85
ind@@ 85
systems 85
tic@@ 85
खनि@@ 85
टरसन 85
मुता@@ 85
वाभा@@ 85
वारें 85
ਸ@@ 85
07@@ 84
1782 84
199 84
239 84
290 84
B. 84
BP 84
DI 84
Dev@@ 84
ECW 84
El@@ 84
Gan@@ 84
History 84
LE@@ 84
Linux 84
Nar@@ 84
Pre@@ 84
Year 84
ganj 84
ization 84
ty 84
uk@@ 84
अनुया@@ 84
अभिय@@ 84
कसौ@@ 84
घोटा@@ 84
12.5 83
2.9 83
243 83
630 83
Ac@@ 83
CS 83
GH@@ 83
Longchamp 83
Ser@@ 83
Union 83
anti 83
effect 83
for@@ 83
gi@@ 83
han 83
later 83
ological 83
pat@@ 83
section 83
space 83
ton 83
ver@@ 83
you 83
एजु@@ 83
मंडलीय 83
यावसा@@ 83
राठ@@ 83
रोटी@@ 83
वैं@@ 83
शेषों 83
षणात 83
■ 83
0.9 82
1660 82
194@@ 82
29,@@ 82
47.@@ 82
5.3 82
AH 82
Dynasty 82
EC@@ 82
ER 82
East 82
Life 82
Sanctuary 82
TT 82
UTC 82
Ver@@ 82
XML 82
aceae 82
ay 82
book 82
free 82
human 82
ib@@ 82
im 82
kg 82
long 82
phase 82
small 82
tem@@ 82
tics 82
vi@@ 82
while 82
टेनर 82
माउं@@ 82
सिफिक 82
শ@@ 82
1748 81
1791 81
1794 81
191 81
217 81
27,@@ 81
305 81
32.@@ 81
42@@ 81
5,0@@ 81
59.@@ 81
6.1 81
Ag@@ 81
BL 81
China 81
ES 81
SBC 81
Sub@@ 81
TE 81
base 81
cells 81
ents 81
google@@ 81
ling 81
men 81
near 81
part 81
real 81
sam@@ 81
ste@@ 81
surface 81
table 81
tag@@ 81
ɛ@@ 81
ंगू 81
ऊं 81
एनिमे@@ 81
औपनिवे@@ 81
बेलारू@@ 81
सागरों 81
দ 81
৷ 81
130@@ 80
1536 80
196 80
530 80
7.4 80
70,000 80
Air 80
Bas@@ 80
DB@@ 80
Day 80
FM 80
Health 80
High 80
Law 80
MT@@ 80
NSA 80
P. 80
Su@@ 80
att@@ 80
ell@@ 80
gas 80
hin@@ 80
iii 80
kr@@ 80
sc@@ 80
way 80
ā 80
ंतु@@ 80
आरं@@ 80
गरु@@ 80
घोष@@ 80
जमै@@ 80
दामो@@ 80
लेंटाइन 80
ਰ@@ 80
வ@@ 80
150,000 79
207 79
228 79
238 79
302 79
4,0@@ 79
560 79
950 79
API 79
Bi@@ 79
CPU 79
Cl2 79
D. 79
DT 79
ED@@ 79
James 79
King 79
ML@@ 79
NTFS 79
RCA 79
Res@@ 79
SH@@ 79
WA 79
You 79
all@@ 79
ba@@ 79
city 79
dr@@ 79
phy@@ 79
s2 79
side 79
va 79
कि.@@ 79
टबॉल 79
नामी@@ 79
पुनरा@@ 79
मानवा@@ 79
रामी@@ 79
विकों 79
शलम 79
सोश@@ 79
हथे@@ 79
গ@@ 79
ര@@ 79
1605 78
1739 78
198@@ 78
21,@@ 78
214 78
233 78
3.9 78
301 78
303 78
96@@ 78
Ban@@ 78
Black 78
Music 78
Ni@@ 78
Santa 78
century 78
control 78
ence 78
functions 78
go@@ 78
ides 78
led 78
ota 78
our 78
ran@@ 78
science 78
sin 78
source 78
tion@@ 78
इथियो@@ 78
किंव@@ 78
गंभी@@ 78
गौरव@@ 78
छुट@@ 78
दैव 78
रतिनिधि@@ 78
ਿ@@ 78
ി@@ 78
1740 77
189 77
198 77
2,7@@ 77
20000 77
234 77
72.@@ 77
Book 77
ER@@ 77
GH 77
GHz 77
HT@@ 77
Island 77
Kingdom 77
PLC 77
SB 77
Ta@@ 77
VI@@ 77
ase 77
ba 77
cy@@ 77
different 77
han@@ 77
mi@@ 77
ness 77
self 77
ढांच@@ 77
ताभ 77
मॉनि@@ 77
यावधि 77
राडो 77
साधु@@ 77
हवीं 77
ে 77
.सी@@ 76
197 76
2030 76
218 76
375 76
AMG 76
Ca@@ 76
DOS 76
H. 76
H2@@ 76
K. 76
NET 76
SW@@ 76
TH@@ 76
case 76
chromosome 76
ens 76
eth@@ 76
her@@ 76
ids 76
ile 76
ish 76
mg 76
page 76
ps 76
public 76
ru@@ 76
si 76
social 76
sources 76
str@@ 76
temperature 76
ua 76
ंडेशन 76
ढाँ@@ 76
तैरा@@ 76
वारिक 76
सौते@@ 76
চ@@ 76
31@@ 75
7.2 75
Do@@ 75
Ep 75
RT 75
SEC 75
Sah@@ 75
ZA 75
ales 75
bl@@ 75
electron 75
found 75
include 75
key 75
ong@@ 75
red 75
st 75
very 75
» 75
מ@@ 75
ंगेन 75
ंटों 75
असि@@ 75
एथि@@ 75
भूषा 75
याँ@@ 75
षाद 75
ང 75
1768 74
1778 74
216 74
241 74
244 74
At 74
Cor@@ 74
H.264 74
IO@@ 74
LAS@@ 74
Le@@ 74
Mand@@ 74
OR@@ 74
SL@@ 74
ati@@ 74
au 74
col@@ 74
cycle 74
du@@ 74
ean 74
ini 74
pi@@ 74
pl@@ 74
tical 74
tu@@ 74
ug@@ 74
yan@@ 74
ə 74
अराज@@ 74
इले@@ 74
ऍ 74
टेलाइट 74
पनों 74
मिद 74
यिता 74
लिब@@ 74
शौचा@@ 74
ன 74
ు@@ 74
ོ@@ 74
0.0@@ 73
1786 73
1797 73
1808 73
186 73
2,6@@ 73
209 73
237 73
273 73
660 73
737 73
8.1 73
Foundation 73
George 73
He@@ 73
KP 73
N.@@ 73
Power 73
Pur@@ 73
Ti@@ 73
To 73
amb@@ 73
analysis 73
ap 73
com@@ 73
ef@@ 73
ek 73
en.wikipedia.org 73
ie 73
kbit 73
m2 73
mtDNA 73
nagar 73
off 73
ot 73
points 73
return 73
standard 73
tha 73
आमा@@ 73
उपजा@@ 73
कोरम 73
चेयर@@ 73
शही@@ 73
साजि@@ 73
ী@@ 73
.html 72
120@@ 72
1530 72
187 72
1st 72
223 72
251 72
286 72
307 72
322 72
33.@@ 72
4.9 72
5.8 72
777 72
89@@ 72
97@@ 72
Aj@@ 72
BM@@ 72
C6H@@ 72
Fe@@ 72
GT 72
Medical 72
NBA 72
Sir 72
Tri@@ 72
XX 72
background 72
ella 72
family 72
information 72
raj@@ 72
region 72
sa@@ 72
su@@ 72
असे@@ 72
आड@@ 72
गोली@@ 72
दाऊ@@ 72
निवार@@ 72
रासाय@@ 72
शुरू@@ 72
सटी@@ 72
ি 72
ಿ@@ 72
124@@ 71
248 71
44.@@ 71
540 71
8- 71
AL 71
AV@@ 71
CAM 71
DB 71
David 71
Framework 71
HCV 71
Lo@@ 71
Mac@@ 71
Mor@@ 71
Prot@@ 71
Sanskrit 71
ain 71
gh@@ 71
iy@@ 71
ole 71
oma 71
ory 71
und 71
und@@ 71
ve@@ 71
wara 71
word 71
é 71
कांच@@ 71
ताँ@@ 71
परिव@@ 71
मनोरं@@ 71
रांसि@@ 71
सोमा@@ 71
ত 71
180@@ 70
7- 70
79.@@ 70
94@@ 70
ANC 70
ASP.NET 70
Ap@@ 70
Bhar@@ 70
CMOS 70
Centre 70
Cl3 70
E.@@ 70
GO@@ 70
Is 70
MIT 70
NYSE 70
Robert 70
SM@@ 70
So@@ 70
TP 70
alme 70
atr@@ 70
des@@ 70
hat 70
identity 70
ocene 70
pan@@ 70
ratio 70
single 70
those 70
tions 70
x86 70
अनुभ@@ 70
ऑफि@@ 70
कदार 70
तीरं@@ 70
पंजी@@ 70
बात@@ 70
रावण@@ 70
18,000 69
224 69
2nd 69
309 69
Ba@@ 69
Cr@@ 69
District 69
Earth 69
Fe 69
House 69
However 69
IE@@ 69
IL 69
Information 69
MA@@ 69
Man 69
Mur@@ 69
N. 69
Pradesh 69
TP@@ 69
UL@@ 69
WW@@ 69
adi@@ 69
af@@ 69
aj 69
cl@@ 69
india 69
kHz 69
ks 69
level 69
motion 69
onic 69
position 69
radi@@ 69
reaction 69
run 69
tar@@ 69
ung 69
محمد 69
अयो@@ 69
खाबाद 69
बैड@@ 69
योज@@ 69
‚ 69
1.25 68
1658 68
1689 68
1699 68
1759 68
1767 68
219 68
236 68
264 68
266 68
3,500 68
410 68
430 68
6,0@@ 68
69.@@ 68
978@@ 68
AG@@ 68
Ak@@ 68
CR 68
CT@@ 68
EE 68
List 68
MGM 68
NS 68
No 68
PL@@ 68
PR@@ 68
See 68
Wildlife 68
ell 68
ies 68
ings 68
ist@@ 68
my@@ 68
out@@ 68
rule 68
sing@@ 68
ung@@ 68
voltage 68
wan@@ 68
ंतु 68
कुमारों 68
टॉक@@ 68
नुष 68
योजी 68
राचीन@@ 68
षजनक 68
য@@ 68
--------@@ 67
1720 67
1769 67
2100 67
213 67
231 67
247 67
262 67
356 67
36,@@ 67
36.@@ 67
570 67
6.6 67
610 67
78.@@ 67
CIA 67
City 67
Delhi 67
Dr. 67
EPA 67
H2 67
Kam@@ 67
Mi@@ 67
Mon@@ 67
Office 67
Open@@ 67
P.@@ 67
Park 67
Some 67
Trans@@ 67
UFC 67
VH1 67
WD 67
ale 67
before 67
down 67
ena 67
esis 67
ev@@ 67
frequency 67
gaon 67
ized 67
lan@@ 67
linear 67
micro@@ 67
much 67
properties 67
river 67
trans@@ 67
ul 67
الله 67
अदाल@@ 67
चीत 67
थियम 67
पींस 67
पेटाइटिस 67
सनिक 67
మ@@ 67
မ@@ 67
1545 66
1680 66
1729 66
1752 66
1766 66
252 66
35,@@ 66
510 66
625 66
A1 66
BD@@ 66
Bur@@ 66
COM 66
CRM 66
Charles 66
DO 66
ET 66
England 66
GN@@ 66
HP 66
Le 66
Mc@@ 66
SPF 66
Sur@@ 66
Ter@@ 66
aria 66
chi 66
device 66
duc@@ 66
e.g. 66
electrons 66
head 66
ll 66
neur@@ 66
root 66
she 66
test 66
uk 66
एंटर@@ 66
भया@@ 66
साधारण@@ 66
सोसाइ@@ 66
ृह 66
100000 65
1008 65
1690 65
1781 65
30,@@ 65
34.@@ 65
520 65
600,000 65
7.3 65
CN 65
ERS 65
FC 65
Hol@@ 65
IK 65
Live 65
Ltd 65
O3 65
Pro 65
RC 65
Service 65
cos@@ 65
hindi 65
how 65
magnetic 65
ography 65
ori 65
ov 65
pi 65
political 65
scale 65
star 65
tan@@ 65
the@@ 65
ulation 65
ure 65
yo@@ 65
चुना@@ 65
जवाह@@ 65
धानिक 65
पौर 65
सीवर 65
.1 64
1650 64
1779 64
1811 64
285 64
304 64
333 64
335 64
4.8 64
6.7 64
68.@@ 64
7.1 64
AF@@ 64
Army 64
C.@@ 64
D.@@ 64
FIA 64
French 64
Human 64
PC@@ 64
She 64
TO@@ 64
These 64
Tit@@ 64
chemical 64
ek@@ 64
ga 64
ge 64
history 64
log 64
sive 64
tra 64
true 64
ye 64
इग@@ 64
ऑ 64
घुल@@ 64
जिने@@ 64
जोखि@@ 64
धिष 64
ऩ 64
परिचा@@ 64
विभू@@ 64
सहार@@ 64
सिपा@@ 64
ৰ@@ 64
ಕ@@ 64
‏ 64
13,000 63
1520 63
1580 63
1670 63
259 63
271 63
276 63
321 63
334 63
440 63
45.@@ 63
632 63
960 63
BAFTA 63
BI 63
CPA 63
Code 63
EP@@ 63
FF 63
Global 63
HB@@ 63
HR 63
Hal@@ 63
ID@@ 63
Jag@@ 63
Joseph 63
MG 63
MI 63
Name 63
Nap@@ 63
Network 63
Republic 63
Sea 63
Space 63
Xbox 63
above 63
ax 63
could 63
ey 63
factor 63
fl@@ 63
ja 63
ly@@ 63
major 63
negative 63
particles 63
what 63
yl@@ 63
ל@@ 63
अटलां@@ 63
थाई@@ 63
निके@@ 63
मिट@@ 63
लेबना@@ 63
वसीय 63
सिलसि@@ 63
ল 63
ు 63
1610 62
1710 62
1728 62
1755 62
255 62
268 62
39,@@ 62
49.@@ 62
543 62
At@@ 62
Bel@@ 62
CM 62
Center 62
EL@@ 62
EN@@ 62
HA 62
HPV 62
His 62
IEC 62
Language 62
Nagar 62
Road 62
SWAT 62
Systems 62
Time 62
alis 62
ast 62
charge 62
gu@@ 62
ika 62
inal 62
king 62
large 62
low 62
mes@@ 62
nam 62
often 62
phot@@ 62
result 62
sur@@ 62
ta@@ 62
una 62
vi 62
ה@@ 62
डियोज 62
बरौ@@ 62
मांडू 62
रांश 62
रेंचा@@ 62
वियत 62
ു@@ 62
.gov@@ 61
.मी@@ 61
1192 61
1527 61
1618 61
1724 61
1730 61
2050 61
229 61
323 61
326 61
460 61
911 61
ADI 61
BN@@ 61
Cap@@ 61
DSM 61
Dhar@@ 61
IIT 61
IUCN 61
Mag@@ 61
No@@ 61
PE@@ 61
Qo@@ 61
RE 61
RN@@ 61
Red 61
Sc@@ 61
Shah@@ 61
Theory 61
There 61
Var@@ 61
ama 61
another 61
au@@ 61
axis 61
books 61
ce@@ 61
co 61
dead 61
ds 61
due 61
edi@@ 61
emia 61
ery 61
four 61
great 61
ita 61
oli 61
plat@@ 61
positive 61
several 61
since 61
ula 61
village 61
ysis 61
ī 61
ɑ@@ 61
ंडेय 61
अभिया@@ 61
कीरा 61
डिसन 61
दशह@@ 61
मेघा@@ 61
रेसल@@ 61
ृद 61
ి 61
― 61
-4 60
0.25 60
1,000,000 60
242 60
31.@@ 60
319 60
324 60
5.9 60
6.8 60
75,000 60
B2 60
CH3 60
De 60
EST 60
European 60
Ga@@ 60
Government 60
HS 60
Kumar 60
Limited 60
Me 60
Nu@@ 60
PP@@ 60
Ran@@ 60
USD 60
VIII 60
War 60
acy 60
ain@@ 60
air@@ 60
cap@@ 60
es.@@ 60
government 60
home 60
international 60
iz@@ 60
ker@@ 60
ler 60
nu 60
total 60
، 60
ऒ@@ 60
कलेट 60
रबै@@ 60
वाची 60
सग@@ 60
सुगं@@ 60
ੰ@@ 60
ం@@ 60
త@@ 60
---@@ 59
1250 59
1688 59
1749 59
1753 59
249 59
278 59
282 59
293 59
46.@@ 59
490 59
52@@ 59
6.3 59
6.4 59
BF 59
CLC 59
CV@@ 59
Commission 59
DH@@ 59
Energy 59
Engineering 59
FS 59
Ford 59
From 59
Gu@@ 59
Indi@@ 59
Jump 59
MRI 59
Mak@@ 59
March 59
N95 59
NSA@@ 59
PI 59
Pat@@ 59
RIAA 59
RO 59
SM 59
Sir@@ 59
TR@@ 59
Tal@@ 59
Ur@@ 59
VC 59
White 59
ans@@ 59
atus 59
because 59
country 59
den 59
general 59
has@@ 59
ion 59
loc@@ 59
m.@@ 59
main 59
mar@@ 59
material 59
music 59
now 59
ola 59
ona 59
osa 59
ox@@ 59
pol@@ 59
pura 59
see 59
structure 59
tia 59
wan 59
ंबली 59
आधु@@ 59
कोंक@@ 59
चैंप@@ 59
टोबै@@ 59
पूं@@ 59
बलेट 59
विवेका@@ 59
11,000 58
1534 58
1703 58
1754 58
1796 58
2025 58
281 58
295 58
3,5@@ 58
3,6@@ 58
311 58
32,@@ 58
57.@@ 58
680 58
7.6 58
77.@@ 58
BCE 58
BR 58
BSD 58
British 58
C1 58
CM@@ 58
Chi@@ 58
DD 58
G. 58
Gov@@ 58
Hy@@ 58
IG@@ 58
K.@@ 58
Ko@@ 58
MH 58
ML 58
N2 58
SR 58
Thomas 58
ann@@ 58
app@@ 58
around 58
art 58
bu@@ 58
early 58
final 58
ice 58
including 58
oil 58
ok@@ 58
ond@@ 58
open 58
plane 58
rate 58
research 58
software 58
sol@@ 58
tw@@ 58
तरता 58
दंती 58
पेशे@@ 58
मरणो@@ 58
मॉरी@@ 58
ुग 58
മ@@ 58
★ 58
1,600 57
125@@ 57
1665 57
1758 57
246 57
257 57
258 57
294 57
312 57
328 57
355 57
415 57
525 57
6- 57
6.9 57
624 57
880 57
AE@@ 57
America 57
Chand@@ 57
Education 57
Er@@ 57
HCl 57
Hem@@ 57
June 57
MR 57
Media 57
NR@@ 57
Paul 57
Publ@@ 57
RM 57
W. 57
ators 57
cat@@ 57
chi@@ 57
ential 57
ere 57
eri 57
ff@@ 57
ki@@ 57
les@@ 57
mah@@ 57
must 57
nuclear 57
object 57
physical 57
pu@@ 57
rec@@ 57
should 57
sum 57
sw@@ 57
tar 57
ular 57
version 57
won 57
ē@@ 57
अनुयाय@@ 57
एंथो@@ 57
एकरू@@ 57
णाचार 57
धपुर 57
नांतर 57
नाकार 57
बैंड@@ 57
रथी 57
लादि@@ 57
संतु@@ 57
ਨ@@ 57
ட@@ 57
ల 57
10.5 56
14,000 56
1603 56
1627 56
274 56
306 56
313 56
345 56
35,000 56
384 56
386 56
4.7 56
470 56
760 56
980 56
Airport 56
Bil@@ 56
Da@@ 56
Ericsson 56
Games 56
HO@@ 56
Han@@ 56
Intel 56
Lad@@ 56
MK 56
Public 56
SU@@ 56
Sim@@ 56
Tir@@ 56
UI 56
UR@@ 56
Yamato 56
against 56
black 56
box 56
forces 56
fr@@ 56
ial 56
ida 56
inc@@ 56
industry 56
ke@@ 56
mer@@ 56
modern 56
natural 56
ng@@ 56
non@@ 56
od 56
onlyinclude 56
potential 56
states 56
tric 56
ub@@ 56
v2.@@ 56
variable 56
without 56
ū@@ 56
ʲ@@ 56
उपो@@ 56
जहांग@@ 56
जासू@@ 56
डेवल@@ 56
नागरि@@ 56
फलता 56
रारं@@ 56
लोमन 56
ਹ@@ 56
క@@ 56
ಮ@@ 56
007 55
129@@ 55
1325 55
1517 55
1533 55
1648 55
1704 55
1713 55
188@@ 55
308 55
390 55
4500 55
9.5 55
AST 55
BT 55
Business 55
DO@@ 55
DVI 55
Ed@@ 55
Facebook 55
Green 55
HBO 55
HTTP 55
Ho@@ 55
Kat@@ 55
Kot@@ 55
L. 55
Management 55
Mes@@ 55
My 55
PL 55
SN@@ 55
Series 55
Visual 55
aka 55
ality 55
alization 55
anga 55
cal@@ 55
disease 55
education 55
eter 55
gen@@ 55
hr@@ 55
io 55
ites 55
kal@@ 55
lin@@ 55
mis@@ 55
net 55
ode 55
old 55
range 55
search 55
term 55
therapy 55
ut 55
vector 55
ys 55
अनौ@@ 55
उदाह@@ 55
गुणन@@ 55
गुफा@@ 55
जाइम 55
तिहासिक 55
नमू@@ 55
सीया 55
हांग@@ 55
୍ 55
న@@ 55
བ@@ 55
0.01 54
115@@ 54
1531 54
1542 54
1555 54
1630 54
1708 54
1725 54
254 54
283 54
287 54
327 54
61.@@ 54
840 54
August 54
Bh@@ 54
Bor@@ 54
Cu@@ 54
EX@@ 54
Gr@@ 54
If 54
InternetArchiveBot 54
LG@@ 54
Long 54
Mul@@ 54
NASA 54
Plus 54
Raw@@ 54
Royal 54
URL 54
UT@@ 54
Western 54
ag 54
ax@@ 54
bank 54
cm 54
cur@@ 54
even 54
him@@ 54
last 54
mean 54
mo 54
nature 54
nbsp 54
sin@@ 54
tal@@ 54
thi 54
women 54
yu 54
і@@ 54
इंसु@@ 54
चचे@@ 54
नेई 54
नौका@@ 54
ক 54
ம 54
ல@@ 54
ས@@ 54
ṭ@@ 54
1316 53
15000 53
1518 53
2024 53
253 53
263 53
272 53
288 53
2O 53
331 53
343 53
368 53
580 53
620 53
88.@@ 53
ASR 53
April 53
Aztec@@ 53
B1 53
Bah@@ 53
Can@@ 53
DE 53
DN 53
EIC 53
EVE 53
GPRS 53
Gang@@ 53
IABot 53
IN 53
Jean 53
Ke@@ 53
MW 53
Mac 53
Mer@@ 53
Middle 53
NA@@ 53
Project 53
Records 53
Region 53
T.@@ 53
Web@@ 53
active 53
alli 53
ats 53
com 53
cross 53
d.@@ 53
ection 53
gam@@ 53
house 53
ili@@ 53
iv 53
min@@ 53
nic@@ 53
om 53
oth@@ 53
property 53
rpm 53
ser@@ 53
sp 53
species 53
team 53
tel@@ 53
terms 53
tube 53
uses 53
wari 53
ye@@ 53
à@@ 53
æ 53
ð 53
आण@@ 53
एडा 53
कारात 53
णाचल 53
दमी 53
बेटन 53
मनवेल 53
મ@@ 53
ய@@ 53
గ@@ 53
ನ@@ 53
1564 52
16,000 52
1640 52
1659 52
1751 52
1777 52
197@@ 52
3,8@@ 52
58.@@ 52
600@@ 52
Academy 52
BW 52
CoV 52
Court 52
ED 52
ETS 52
Edward 52
France 52
Gal@@ 52
ISA 52
Khar@@ 52
Lake 52
Mbit 52
Micro@@ 52
Mu@@ 52
OP 52
Other 52
Ps 52
Ros@@ 52
SD 52
Standard 52
Vista 52
ali@@ 52
among 52
andi 52
atomic 52
go 52
had@@ 52
hav@@ 52
hu 52
ide 52
index 52
kan@@ 52
mium 52
over@@ 52
own 52
pp@@ 52
published 52
said 52
stage 52
support 52
technology 52
top 52
ts@@ 52
uli 52
¤ 52
§ 52
दोई 52
मुंगे@@ 52
ప@@ 52
ག@@ 52
″ 52
1,300 51
1320 51
1450 51
1528 51
1543 51
1598 51
1612 51
1743 51
1762 51
2,4@@ 51
2200 51
292 51
344 51
352 51
50.@@ 51
67.@@ 51
7.7 51
870 51
9.2 51
90,000 51
CB@@ 51
EN 51
FD@@ 51
Force 51
Gor@@ 51
Hydro@@ 51
July 51
Kur@@ 51
Met@@ 51
Na 51
OR 51
PE 51
Pa@@ 51
Pu@@ 51
Sch@@ 51
UN 51
UNE 51
URI 51
Value 51
Vi@@ 51
XIV 51
XV 51
anus 51
average 51
best 51
ce 51
cer@@ 51
ema 51
endra 51
ft 51
hem@@ 51
hyper@@ 51
ius 51
ks@@ 51
lam@@ 51
ley 51
make 51
met@@ 51
metal 51
path@@ 51
physics 51
present 51
sine 51
specific 51
wal 51
ε 51
ב@@ 51
अतर@@ 51
एंजा 51
जीविता 51
पिथो@@ 51
षेक 51
ম 51
ਮ@@ 51
√ 51
▪ 51
000000 50
12000 50
1492 50
1661 50
1702 50
1771 50
2O3 50
3,9@@ 50
37,@@ 50
377 50
5.7 50
628 50
670 50
82.@@ 50
AX 50
Bad@@ 50
Bank 50
Brah@@ 50
C2 50
CH 50
Catedral 50
EA 50
F. 50
Far@@ 50
IV@@ 50
Im@@ 50
Internet 50
JPG 50
Kol@@ 50
La@@ 50
PLM 50
PO 50
Plan@@ 50
Por@@ 50
Ref@@ 50
Sciences 50
Studies 50
Super 50
TCP 50
To@@ 50
Vol@@ 50
a.org 50
ams 50
dia 50
did 50
eshwar 50
expon@@ 50
fe@@ 50
features 50
hum@@ 50
important 50
ku@@ 50
lab@@ 50
learning 50
ny@@ 50
of@@ 50
otic 50
row 50
rut@@ 50
short 50
times 50
ush@@ 50
von 50
कॉपी@@ 50
पागल@@ 50
बेरी@@ 50
सबुक 50
ধ@@ 50
ভ@@ 50
ವ@@ 50
.p@@ 49
1,400 49
1505 49
1506 49
1541 49
1631 49
17,000 49
1715 49
1719 49
1722 49
1727 49
261 49
279 49
284 49
2G 49
34,@@ 49
354 49
512 49
622 49
661 49
7.8 49
787 49
9- 49
918 49
AND 49
Ali 49
Android 49
Az@@ 49
BR@@ 49
Canada 49
Cavendish 49
Char@@ 49
DX 49
Des@@ 49
Detail 49
Dig@@ 49
GT@@ 49
German 49
IEEE 49
Jo@@ 49
KF 49
Kor@@ 49
Land 49
Li@@ 49
MT 49
October 49
Of 49
Old 49
Sab@@ 49
The@@ 49
Ul@@ 49
VT 49
War@@ 49
aa 49
beam 49
c.@@ 49
computer 49
double 49
equ@@ 49
equal 49
etic 49
eus 49
ex 49
fact 49
igh@@ 49
inae 49
inf@@ 49
ion@@ 49
mp@@ 49
mus@@ 49
phone 49
principle 49
radiation 49
san@@ 49
square 49
study 49
van@@ 49
vol@@ 49
white 49
ð@@ 49
І 49
נ@@ 49
गिलग@@ 49
घाई 49
झान 49
तरीन 49
दूस@@ 49
रैंचा@@ 49
वरत 49
ौड 49
ಿ 49
ು@@ 49
വ@@ 49
ས 49
း@@ 49
09@@ 48
10,0@@ 48
1638 48
1666 48
1672 48
189@@ 48
297 48
405 48
411 48
50,@@ 48
505 48
627 48
780 48
800@@ 48
930 48
970 48
Board 48
CGI 48
CSI 48
CY@@ 48
Cer@@ 48
Egypt 48
FF@@ 48
Gur@@ 48
Henry 48
I. 48
ICT 48
IR 48
IST 48
Kas@@ 48
Nam@@ 48
Net@@ 48
PM@@ 48
Pe@@ 48
Pi@@ 48
R2 48
SK@@ 48
Station 48
VA 48
act 48
aha 48
ao 48
asis 48
bar 48
ber@@ 48
course 48
dec@@ 48
direct 48
ency 48
enti@@ 48
forms 48
ham 48
hat@@ 48
imped@@ 48
ines 48
lat@@ 48
lo 48
mmHg 48
och@@ 48
sar@@ 48
third 48
tor@@ 48
values 48
ताजि@@ 48
रोजग@@ 48
वानपुर 48
समे 48
सुग@@ 48
सूस 48
ेता 48
ੀ 48
ி 48
జ@@ 48
ိ@@ 48
ြ@@ 48
1010 47
1350 47
1453 47
1572 47
1576 47
1632 47
1718 47
184@@ 47
267 47
291 47
315 47
353 47
403 47
656 47
711 47
740 47
AK@@ 47
Ar 47
BBS 47
BH@@ 47
Bag@@ 47
Bud@@ 47
CF 47
CID 47
ET@@ 47
Hor@@ 47
Jam@@ 47
January 47
Kad@@ 47
Krish@@ 47
L2 47
Location 47
Louis 47
MR@@ 47
Non 47
Pakistani 47
Pale@@ 47
RNAs 47
SF 47
SV@@ 47
Sin@@ 47
Sudan 47
Tam@@ 47
Test 47
V. 47
When 47
ach 47
allo@@ 47
alpur 47
ass 47
below 47
business 47
come 47
diff@@ 47
ey@@ 47
food 47
ger@@ 47
half 47
ils 47
ira 47
ise 47
mag@@ 47
mer 47
oni 47
organic 47
others 47
output 47
particle 47
quantum 47
que 47
ray 47
s.com 47
take 47
took 47
tree 47
ue 47
vis@@ 47
we@@ 47
yl 47
zero 47
ō 47
ɔ@@ 47
ɡ@@ 47
ʁ@@ 47
Δ 47
י 47
आईवी 47
कायम@@ 47
तबा@@ 47
रतियो@@ 47
लखी@@ 47
ོ 47
1504 46
1535 46
1628 46
1642 46
1652 46
1667 46
1734 46
1744 46
20th 46
2600 46
269 46
289 46
2A 46
336 46
342 46
544 46
7,0@@ 46
700,000 46
8.4 46
814 46
ADB 46
AE 46
After 46
Asia 46
Ds 46
E9E9E9 46
IPL 46
Library 46
MD 46
Mobile 46
NH3 46
People 46
Pol@@ 46
SARS 46
STD 46
Sang@@ 46
Sat@@ 46
Services 46
She@@ 46
Sil@@ 46
TD 46
Tel@@ 46
We@@ 46
ampur 46
anda 46
ard 46
aries 46
article 46
astic 46
blood 46
born 46
bridge 46
centr@@ 46
cre@@ 46
del@@ 46
eli 46
engineering 46
gen 46
having 46
htm 46
iPhone 46
ih@@ 46
kW 46
management 46
million 46
mot@@ 46
motor 46
nucleus 46
ody@@ 46
population 46
quot 46
symbol 46
tor 46
yp@@ 46
ω 46
ंसलर 46
इंटेलि@@ 46
उपभो@@ 46
गेंद@@ 46
टेरे@@ 46
नवं@@ 46
नागढ 46
यिकी@@ 46
लेखि@@ 46
सोसिए@@ 46
ॿ@@ 46
ਤ@@ 46
ர 46
ಂ@@ 46
ུ@@ 46
1451 45
1558 45
1560 45
1606 45
170@@ 45
1716 45
1745 45
200px 45
298 45
332 45
395 45
51.@@ 45
62@@ 45
89.@@ 45
ACS 45
Ber@@ 45
CG 45
CJ 45
CO3 45
CSF 45
Church 45
Cy@@ 45
Economic 45
FP 45
God 45
HI 45
Ha@@ 45
Her@@ 45
IPA 45
Index 45
Ki@@ 45
Lord 45
MY@@ 45
Mel@@ 45
NWA 45
ODI 45
PD 45
REM 45
RF 45
Richard 45
Sing@@ 45
Tamil 45
Tor@@ 45
Wylie 45
York 45
ami 45
anth@@ 45
aur@@ 45
bal@@ 45
bi 45
design 45
dy 45
dys@@ 45
eng@@ 45
engine 45
ens@@ 45
eta 45
full 45
idea 45
input 45
ker 45
lines 45
magnitude 45
mor@@ 45
na@@ 45
nam@@ 45
national 45
ok 45
onal 45
ote 45
ou@@ 45
rot@@ 45
ten 45
tim@@ 45
trade 45
umb@@ 45
within 45
ying 45
ʊ@@ 45
области 45
ש@@ 45
जगदी@@ 45
पहुँच@@ 45
बधा@@ 45
लेंज 45
ং@@ 45
వ@@ 45
1,100 44
116@@ 44
1303 44
1596 44
1597 44
1611 44
1624 44
1644 44
1671 44
1709 44
1717 44
317 44
391 44
501 44
565 44
590 44
8,0@@ 44
8.6 44
8.8 44
80.@@ 44
ATM 44
Also 44
Award 44
Dr@@ 44
El 44
Euler 44
Hume 44
IF 44
JP 44
Jal@@ 44
Journal 44
Ka@@ 44
LV 44
Les 44
MO 44
NH2 44
RB 44
RD 44
Security 44
Sri 44
Super@@ 44
TER@@ 44
UV 44
Us 44
Ven@@ 44
W3C 44
WH@@ 44
WY@@ 44
Water 44
YG 44
ace 44
ages 44
ani@@ 44
atti 44
bul@@ 44
condition 44
critical 44
defined 44
dy@@ 44
electro@@ 44
elements 44
event 44
ho 44
ich@@ 44
int@@ 44
je@@ 44
ju@@ 44
length 44
map 44
mathematical 44
matter 44
medium 44
oo 44
orr@@ 44
ou 44
phon@@ 44
products 44
quadr@@ 44
ry 44
ses 44
sh 44
sion 44
size 44
tom@@ 44
एगो 44
जाती@@ 44
थानां@@ 44
पोटें@@ 44
बंदर@@ 44
लगाँव 44
शिवि@@ 44
हेरि@@ 44
শ 44
ਜ@@ 44
ದ@@ 44
≤ 44
-10 43
0.0 43
002 43
1509 43
1512 43
1582 43
1685 43
1705 43
1712 43
1714 43
1726 43
1746 43
299 43
318 43
366 43
52.@@ 43
629 43
65,000 43
7.0 43
800,000 43
9.8 43
BM 43
CB 43
CBE 43
CIS 43
Class 43
Control 43
Dar@@ 43
Department 43
ENIAC 43
End 43
Fer@@ 43
Jan@@ 43
MK@@ 43
MM 43
María 43
May 43
Mir@@ 43
Ner@@ 43
Period 43
RGB 43
RS@@ 43
Redmi 43
Shar@@ 43
Son@@ 43
They 43
Thir@@ 43
Val@@ 43
Yol@@ 43
ars 43
atory 43
block 43
cin@@ 43
circle 43
compound 43
countries 43
dic@@ 43
dir 43
does 43
element 43
ering 43
ese 43
fer@@ 43
fication 43
graphy 43
i.e. 43
ik 43
image 43
independent 43
mas@@ 43
media 43
medicine 43
memory 43
ml 43
mph 43
nav@@ 43
operating 43
psych@@ 43
rap@@ 43
spectrum 43
stone 43
story 43
tivity 43
until 43
wikipedia.org 43
wood 43
written 43
ƒ 43
ɾ@@ 43
ʃ@@ 43
ְ@@ 43
गिता 43
दंडों 43
नूनी 43
रकां@@ 43
लेटिक 43
हेश 43
ನ 43
പ@@ 43
င 43
↑ 43
-6 42
1024 42
140@@ 42
1565 42
1568 42
1575 42
1616 42
1622 42
1653 42
1731 42
2400 42
316 42
339 42
350@@ 42
361 42
364 42
3rd 42
49,@@ 42
50000 42
7.9 42
770 42
820 42
9.3 42
AO@@ 42
AVC 42
And 42
Ash@@ 42
BB@@ 42
Bir@@ 42
DJ 42
Del@@ 42
Division 42
Dur@@ 42
Equ@@ 42
Gh@@ 42
Grand 42
IDE 42
IJ@@ 42
IM 42
Industrial 42
Kun@@ 42
Malaysia 42
Men@@ 42
News 42
Paris 42
Poly@@ 42
Post 42
Shiv@@ 42
XII 42
alg@@ 42
ass@@ 42
back@@ 42
became 42
chemistry 42
[...]
