, 40381954
. 38613089
в 22828937
и 15655468
@-@ 9276523
) 8384807
( 8361292
на 8023252
— 7948827
« 7199178
» 7195185
с 5875334
В 5802854
года 4636101
&quot; 4295802
году 3503865
по 3403071
из 2841662
не 2539999
: 2446409
к 2425716
был 2309278
что 2067177
от 2030859
а 1882112
за 1753776
для 1708347
его 1675314
как 1645773
; 1590221
до 1463972
он 1395155
у 1281496
но 1234387
о 1207627
также 1132669
С 1073806
была 1037984
были 1020883
было 979426
время 953158
во 865863
1 865729
при 862860
или 858513
ной 831857
́ 829146
не@@ 800583
том 780832
й 774207
же 773853
2 746777
после 746740
ского 742106
ных 726016
ный 705518
ные 703804
На 699814
то 672951
ном 672535
ский 672533
ки 657548
под 655232
По 649031
ного 644876
м 644448
области 634561
ли 629897
/ 616565
их 611254
% 609914
ка 607480
ской 601811
я 599452
ная 597044
где 596875
ным 595231
её 593368
км 587323
3 585413
который 584417
г 574472
ская 569140
е 568602
ла 567524
лет 563042
После 556700
ное 542864
год 540449
это 539877
со 532782
х 530641
у@@ 529612
стал 528430
более 521708
на@@ 520507
пере@@ 520081
за@@ 518403
России 514420
ском 512563
А 508936
4 500447
того 489548
вы@@ 485063
так 477055
А@@ 473555
т 472426
является 471081
человек 469253
она 465263
состав 464536
&amp; 446722
по@@ 442945
л 437157
Э@@ 435899
про@@ 433756
де 433681
5 432846
которые 432763
ских 428487
при@@ 427630
с@@ 427508
только 427296
города 416868
О@@ 415604
ке 415368
са 413959
ную 413096
ны 412584
10 411446
н 410430
го 409863
ты 408288
до@@ 408185
ю 406918
со@@ 404587
ли@@ 404471
ко@@ 403719
СССР 403387
ку 403143
та 401654
ы 400659
войны 395790
У@@ 387388
ными 383908
6 383840
этого 381858
ре@@ 379541
они 379343
годах 379250
в@@ 374414
этом 374251
ские 368782
ское 365507
США 363950
района 363014
История 362848
между 358478
ков 356050
Биография 354393
т@@ 353315
И 353311
составе 352310
д 351497
ль 350159
да 349383
но@@ 348207
те 346965
р 346605
Он 344866
ни@@ 344458
когда 339554
ль@@ 338029
части 337620
реки 337602
против 337398
К 335841
ш@@ 335451
ро@@ 335296
И@@ 330667
8 329145
С@@ 328984
которых 328888
лись 327388
ским 327154
от@@ 327000
чтобы 325195
ра@@ 324078
о@@ 323552
7 322918
января 322155
годы 322068
ка@@ 319425
ма@@ 317521
под@@ 317341
около 317259
ло 316790
20 316346
д@@ 315701
мая 314534
15 310467
районе 309500
лся 308825
мира 308550
июля 306885
все 306139
ди@@ 305317
По@@ 305040
них 304674
я@@ 303798
века 303205
ни 301337
к@@ 300849
населения 299779
Ко@@ 299250
место 299103
тов 299084
12 295612
ти@@ 295569
Ка@@ 295324
скую 293472
несколько 291908
э@@ 291735
через 290804
декабря 290401
лась 290270
ещё 290159
мо@@ 289602
уже 288900
получил 288594
2010 288462
ма 286593
ле 285970
часть 285755
м@@ 285644
марта 285207
которая 284694
ве@@ 284518
та@@ 284010
августа 283351
кой 282925
цы 282844
над 281548
сентября 281172
которой 280620
октября 279817
территории 279666
а@@ 279479
г@@ 279333
да@@ 279226
де@@ 278816
апреля 278588
им 277545
своей 277427
га@@ 276892
га 275899
п@@ 274743
июня 274408
два 273223
может 273202
го@@ 273008
ком 271699
№ 271477
один 270806
9 270365
и@@ 268495
ри@@ 267985
ла@@ 266493
ему 266129
М 266010
ра 264485
других 263283
затем 262906
то@@ 262561
си@@ 262514
30 261963
качестве 259741
ноября 258798
Население 257393
В@@ 256995
ми@@ 256969
группы 256732
находится 254714
ей 254167
ром 253595
вместе 252172
мы 251746
ва@@ 251648
ров 251462
18 251071
ло@@ 249124
февраля 248693
район 248682
дом 246965
К@@ 246721
11 245848
_ 244913
л@@ 244168
ме@@ 244033
ку@@ 243996
нов 243961
Однако 243825
вой 242397
льной 242286
однако 241670
среди 241658
участие 240677
ви@@ 240334
х@@ 239642
П@@ 239038
16 238758
Ма@@ 238518
составляет 238237
&#93; 237539
&#91; 237321
ба@@ 235673
ь 235287
которого 234291
чем 234171
па@@ 234073
ками 233478
ет 233437
всех 233417
з 233251
бе@@ 232673
бы 232469
ля 232399
14 232162
ту 232008
г. 231871
период 231725
числе 231129
б@@ 230417
За@@ 229014
нии 228864
са@@ 228798
двух 228797
Не@@ 228640
свою 227511
скому 227403
25 227186
- 226737
бо@@ 226313
Са@@ 226281
те@@ 225274
ру@@ 225147
быть 223993
ному 223578
стала 223576
ды 223499
вая 223483
годов 223014
лось 222212
ть 222192
этой 221471
жизни 221410
су@@ 221345
себя 221012
льный 220962
городе 220723
13 220347
льных 220013
Н 219874
Ш@@ 219768
город 219458
ж@@ 218899
ле@@ 218798
него 218244
ют 217949
н@@ 216899
ва 216307
17 216264
армии 215582
ки@@ 215321
своего 215278
ь@@ 215176
ры 215001
название 214901
На@@ 214379
есть 214259
ч@@ 214185
ние 213938
об@@ 213841
данным 213728
За 213367
начале 212978
раз@@ 212720
времени 212559
льные 212000
вых 211902
чи@@ 211667
три 210997
во@@ 210517
Г@@ 210367
вать 210153
ить 209583
ко 209342
без 209269
всего 209112
работал 208817
При 208629
вал 207793
Это 206529
ность 206490
имени 206000
конце 205938
работы 205814
село 205648
гу@@ 205341
Ку@@ 205273
й@@ 204389
деревня 204292
человека 204159
ней 203914
се@@ 203753
Т@@ 203313
2011 202759
раз 202173
Во 201818
ф@@ 201567
з@@ 201125
2012 200629
ется 200628
нию 200223
сто@@ 200188
истории 200111
I 199934
19 199655
льного 199024
ду@@ 198584
там 198185
formula 197491
р@@ 196681
2008 196558
лы 195830
пи@@ 195474
2014 195350
2009 195228
первый 194691
жи@@ 194201
gt 193511
ев 193198
Также 192373
пе@@ 191959
имеет 191947
этот 191778
ги 191465
Ба@@ 191440
ний 190684
связи 190122
ги@@ 189961
се 189300
вые 189280
Ра@@ 188896
ности 188510
хо@@ 188350
2007 188331
II 187992
lt 187919
цев 186922
2013 186885
можно 186869
2015 186619
об 186192
Ли@@ 186161
М@@ 186073
тем 186033
рас@@ 186009
При@@ 184772
второй 184064
° 183754
ду 183099
Про@@ 182905
2006 182247
24 181865
ник 181195
ников 181178
ту@@ 181022
У 180667
21 180565
е@@ 180350
2002 180002
ются 179777
Я@@ 179760
22 179203
мм 178604
ца 178011
ках 177359
П 177205
ше@@ 177050
це@@ 176959
переписи 176883
сом 176322
Его 175938
своих 175779
би@@ 175601
2016 175435
лов 175367
му 175291
образом 174658
2000 174637
другие 174043
э 173898
стали 173293
сельского 173213
п 172823
чего 172681
бу@@ 172461
Б@@ 172315
вого 172079
б 171197
результате 171020
О 170769
Су@@ 170283
собой 169895
котором 169839
одной 169233
Ле@@ 168791
Ф@@ 168581
Се@@ 168551
Со@@ 168006
ре 167559
100 167490
ники 167286
течение 166891
… 166879
Д@@ 166547
23 166133
вали 166018
лом 165985
одним 165942
лишь 165939
ем 165889
² 165802
Ре@@ 165624
нием 165316
Украины 164921
род 164615
ан@@ 164610
Для 164298
че@@ 163877
Бу@@ 163816
Си@@ 163614
льная 163432
очень 163069
ме 163012
поселения 162905
ним 162803
му@@ 162279
2017 161987
Па@@ 161932
ди 161556
Ю@@ 161196
день 161082
начала 160997
Бе@@ 160575
страны 160506
область 160394
26 160360
ля@@ 160209
юго 159892
Российской 159641
ми 159529
сборной 159469
центра 159399
2005 159222
The 158576
цию 158041
ге@@ 157461
фильм 157342
той 157097
смерти 156488
северо 156472
28 156445
лу@@ 156388
кон@@ 156133
Александр 155792
2018 155510
2004 155202
Согласно 155157
начал 154796
Ми@@ 154319
Ро@@ 154026
же@@ 153870
роль 153761
округа 153691
Ме@@ 153466
вер@@ 153349
27 152853
ши@@ 152848
Бо@@ 152534
1941 150615
ти 150249
2001 149936
ю@@ 149723
свой 149591
пре@@ 149154
ш 149026
даже 148993
команды 148866
Республики 148134
C 147989
назначен 147789
Ла@@ 147398
1990 147329
первой 147251
нами 147176
Мо@@ 147116
Ар@@ 147019
ча@@ 146828
2019 146676
вым 146650
тами 146556
центр 146350
дов 146232
ье 146127
скими 146084
могут 145378
льное 145290
Р@@ 145221
вает 144900
церкви 144826
’ 144474
ха@@ 144442
ри 144304
Кар@@ 144045
стороны 143957
ц@@ 143944
ст 143785
ста@@ 143335
чный 143203
ства 142739
две 142654
Та@@ 142581
наук 142321
университета 141904
свои 141407
зо@@ 141214
Из 140963
ния 140960
50 140934
ге 140882
этих 140724
цией 140496
партии 140334
клуб 140201
будет 139916
Га@@ 139683
Ви@@ 139553
ве 139542
Мар@@ 139457
Г 139425
рами 139424
Ки@@ 138988
вом 138819
сы 138739
являются 138616
пу@@ 138433
впервые 138394
лу 138141
ха 138114
1944 138092
ходе 137999
льно 137943
менее 137856
Му@@ 137784
ника 137479
География 137408
ё@@ 137292
Де@@ 137203
ч 137155
вы 136753
Но 136638
метров 136484
29 136394
Ва@@ 135684
например 135451
льным 135196
зи@@ 134946
родился 134797
тот 134270
Кроме 134020
ческой 133683
семье 133666
чемпионате 133497
чной 132797
сезона 132601
Франции 132086
Л@@ 132083
ы@@ 132062
З@@ 131853
группа 131538
ст@@ 131523
либо 131515
Ру@@ 131384
ци@@ 131238
ша@@ 131155
лей 131030
компании 130968
Совета 130927
Европы 130662
2020 130478
берегу 130359
количество 130249
! 130232
жителей 130038
Лу@@ 129769
ья 129440
из@@ 129437
ман@@ 129415
если 128858
ющих 128747
женщин 128625
ческие 128529
1999 128503
вый 128214
села 127901
br 127846
– 127766
системы 127043
1945 126963
Го@@ 126795
одного 126712
часто 126393
чных 126261
Н@@ 126095
31 125960
Ха@@ 125478
Родился 125148
всё 125115
ин@@ 125059
школы 124984
1943 124846
Входит 124549
Вы@@ 124386
окончил 124251
селе 124119
Ф 123871
кова 123832
вший 123774
ба 123634
Х@@ 123573
сов 123455
перед 123339
альбом 123244
Ве@@ 122965
2003 122796
образования 122702
Германии 122560
ныне 122311
которое 122201
мов 122154
почти 121816
До 121713
40 121525
детей 121348
Санкт 121210
ющий 121166
жа@@ 120818
вновь 120796
Ц@@ 120496
Ч@@ 120484
дней 120098
власти 120004
хотя 119939
культуры 119908
сам 119775
игры 119751
жизнь 119473
ск 119219
Федерации 119185
ц 119142
нова 119071
Как 119021
честь 118919
фи@@ 118852
ша 118695
чемпионата 118603
Москве 118583
площадь 118353
больше 118246
полу@@ 118149
ровать 118047
имя 117910
вала 117788
су 117696
Она 117666
губернии 117580
много 117507
Пе@@ 117505
типа 117429
настоящее 117377
ями 117346
частности 117110
ющие 117069
ман 116888
ну 116772
ры@@ 116766
людей 116721
сон 116674
пред@@ 116581
эти 116032
Ша@@ 115829
клуба 115472
До@@ 115470
генерал 115436
сти@@ 115169
Е@@ 115130
Гу@@ 115094
организации 115023
воз@@ 114950
Д 114807
Ту@@ 114793
гу 114789
ях 114674
мом 114573
стало 114516
ске 114454
рода 114342
1980 114238
си 114198
ции 113952
кар@@ 113835
ста 113798
ать 113120
деятельность 113107
момент 113048
1991 113014
Ан@@ 112943
ар@@ 112862
1992 112675
степени 112472
членом 112448
“ 112175
чные 112165
наиболее 111987
ство 111965
основном 111917
работу 111760
Л 111751
мировой 111699
различных 111627
сезоне 111596
хи@@ 111579
дивизии 110978
То@@ 110884
чного 110696
ру 110565
ческий 110453
XIX 110392
должность 110318
входит 110299
1942 110204
вается 110116
Великой 110074
первого 110072
кам 110059
совета 109946
матче 109909
теле@@ 109746
+ 109182
1960 108940
нескольких 108937
Отечественной 108924
сло@@ 108853
здесь 108807
управления 108663
Ти@@ 108536
ряд 108527
таких 108520
1970 108485
зы 108319
своим 108169
тысяч 107956
Так 107766
ться 107750
вен@@ 107744
станции 107656
Да@@ 107545
пла@@ 107494
электро@@ 107327
0 107269
кино@@ 107166
своё 107078
ление 107073
бы@@ 106930
ческих 106905
моря 106842
многих 106542
ска 106395
стов 106305
Ри@@ 106265
Я 106074
примерно 106071
ций 106026
месте 105906
новой 105903
лю@@ 105899
советский 105896
цами 105757
рии 105691
линии 105622
войск 105589
вался 105585
тах 105183
„ 104925
гор@@ 104843
вания 104728
первым 104713
йского 104585
1998 104413
участвовал 104386
дома 104371
ью 103913
анти@@ 103891
ско 103637
тан@@ 103497
самого 103208
трёх 103197
цкий 103037
серии 103030
названием 102955
ж 102906
вают 102792
число 102792
Союза 102372
1930 102339
1994 102338
полка 102206
нет 102194
Нью 102165
лен@@ 102125
ством 102081
новый 102018
новых 101907
1997 101871
сть 101796
которую 101778
возрасте 101776
Пи@@ 101757
ско@@ 101564
Владимир 101500
вших 101500
1996 101404
тер@@ 101340
позже 101306
Ду@@ 101305
лен 101193
Аль@@ 101176
1995 101166
стро@@ 101161
Ло@@ 101123
Николай 101072
получила 101026
2021 101022
виде 100999
of 100938
ником 100915
вид 100873
принял 100857
вышел 100773
нах 100664
ну@@ 100538
ска@@ 100527
Бар@@ 100399
фильма 100378
Кон@@ 100243
полностью 100014
сын 99976
1920 99779
лем 99602
па 99416
деятельности 99212
игр 99179
кор@@ 99090
деревни 99031
III 98827
вернулся 98797
образование 98708
ева 98576
чи 98503
1993 98488
Б 98213
ке@@ 97956
вание 97761
гг 97721
случае 97704
ческого 97654
йский 97591
ранее 97394
три@@ 97390
ческая 97361
льную 97315
йской 97300
значения 97290
член 97249
первых 97214
фа@@ 97160
см 97094
Т 96965
ен@@ 96959
права 96956
ран@@ 96327
городского 96314
многие 96309
000 96263
XX 96192
млн 96127
Второй 96098
Был 96064
ф 96053
тон 96024
альбома 95945
поло@@ 95943
общества 95937
чная 95930
сты 95890
мужчин 95825
&apos; 95824
сил 95824
вое 95706
провёл 95701
ниях 95617
ровал 95588
н. 95518
уезда 95506
Пере@@ 95383
Ди@@ 95284
мы@@ 95209
пер@@ 95094
Когда 95071
Они 95032
1989 94857
четыре 94826
места 94819
ак@@ 94797
империи 94718
Ни@@ 94473
гов 94473
вались 94384
решение 94350
руководством 94265
себе 94207
вский 94192
1950 94093
ван 93857
нового 93846
Би@@ 93530
нам 93503
Олимпийских 93428
некоторые 93406
тому 93288
ро 93229
Но@@ 93221
1940 93119
Ор@@ 93084
льном 93000
Те@@ 92996
некоторых 92961
чу@@ 92905
мен@@ 92889
помощью 92595
ющая 92330
кра@@ 92257
население 92174
песни 92134
тор@@ 91993
основе 91965
тных 91905
ностью 91838
рия 91794
ды@@ 91708
60 91633
= 91629
видов 91183
много@@ 91103
Среди 91081
церковь 91017
развития 90965
сти 90926
зу@@ 90917
поскольку 90888
сельсовета 90694
кино 90657
др 90642
государственного 90378
Ново@@ 90336
Иван 90159
работ 90148
вос@@ 90143
нём 90123
удалось 89970
включая 89802
само@@ 89779
рамках 89749
Кор@@ 89705
тогда 89667
тный 89633
лё@@ 89359
ления 89017
одна 88830
гом 88807
языка 88798
тной 88793
1918 88791
авто@@ 88616
играх 88607
Пре@@ 88604
ат@@ 88540
1939 88422
зе@@ 88402
Ж@@ 88384
версии 88365
имеют 88302
ск@@ 88259
академии 88185
пло@@ 88153
ден@@ 88085
Затем 88056
сте@@ 88046
окончания 87849
ча 87799
другой 87717
Во@@ 87671
льского 87636
фо@@ 87636
веке 87546
ши 87529
ССР 87513
деревне 87465
ция 87456
фе@@ 87428
Мак@@ 87350
кин 87347
такие 87248
ющей 87080
самых 86915
мой 86840
конца 86616
обычно 86578
уда@@ 86472
стве 86443
ор@@ 86295
института 86266
иться 86132
войска 86109
благодаря 85898
тех 85857
ски 85833
река 85692
поли@@ 85306
тыс. 85267
? 85258
цкого 85257
ву 84959
Бер@@ 84943
Хо@@ 84926
университете 84876
лин 84762
рах 84630
поэтому 84265
которым 84262
Ин@@ 84009
школу 83678
мире 83617
выступал 83608
работе 83435
школе 83352
большой 83260
роли 83232
нее 83195
ческое 83127
перешёл 83053
выми 82981
шей 82933
.@@ 82746
провинции 82519
Ал@@ 82330
самым 82310
движения 82275
чным 82246
Ге@@ 82172
поле 82107
компания 82037
национальной 81990
вшие 81937
тные 81893
Первый 81688
главным 81673
чное 81639
ня 81517
края 81459
льский 81424
Иванович 81377
языке 81338
рой 81278
вую 81247
ница 81234
1917 81131
команда 81023
согласно 80925
обра@@ 80885
искусства 80847
земли 80773
одно@@ 80619
производства 80581
жа 80483
лы@@ 80421
поселение 80407
фон 80228
Пу@@ 80220
ниями 80193
впоследствии 80154
кре@@ 80145
должен 80132
частью 80068
Е 79963
новые 79892
российский 79790
дел 79698
вшись 79684
происходит 79680
сы@@ 79646
бер@@ 79599
сентябре 79352
жены 79315
ис@@ 79263
От@@ 79074
мнению 79051
кий 79012
язык 79008
ван@@ 78982
рен@@ 78942
Михаил 78810
полк 78800
создания 78708
кли@@ 78654
стран 78552
1988 78525
вского 78503
звание 78329
мае 78269
волости 78236
200 78183
всей 78167
завод 78166
карьеру 78161
ня@@ 78126
рования 78042
− 78020
другими 78011
ними 77987
Верховного 77960
сами 77950
состоит 77800
неё 77770
избран 77767
январе 77743
составляло 77720
щие 77709
Кур@@ 77638
данных 77619
театра 77601
должности 77542
лями 77506
особенно 77361
целью 77333
профессор 77309
зе 77289
жил 77221
имел 77203
Ак@@ 77198
сме@@ 77116
Р 76932
марте 76894
бой 76863
деятель 76763
кан@@ 76677
Сергей 76663
the 76598
це 76594
мана 76589
воды 76550
кто 76522
чел 76491
вскоре 76318
тро@@ 76307
бор@@ 76292
пар@@ 76229
коммуны 76216
именно 76131
температура 76082
сыграл 76017
Москва 75976
гре@@ 75957
Ке@@ 75940
расположен 75830
дня 75782
тре@@ 75710
лла 75652
посёлок 75584
никами 75552
октябре 75546
короля 75541
Че@@ 75526
занял 75507
РСФСР 75473
фильме 75464
государства 75462
первом 75447
августе 75418
Сан 75380
декабре 75260
Италии 75215
ров@@ 75208
действия 75185
снова 75150
институт 75112
семьи 75041
кри@@ 75031
нович 74711
отношения 74711
возможность 74704
относится 74603
вшего 74574
противника 74401
Ста@@ 74347
яр@@ 74288
ён 74279
этим 74208
тся 74180
бан@@ 74136
умер 74109
округ 74056
Этот 74050
уз@@ 73939
команду 73923
расстоянии 73921
ству 73831
фа 73823
первые 73771
обо@@ 73754
лена 73680
женщины 73629
ям 73604
Под@@ 73565
зна@@ 73540
ще@@ 73523
1938 73496
Все 73454
находился 73431
хи 73341
мир 73332
1937 73302
двумя 73297
контракт 73286
книги 73234
востоку 73217
отца 73145
положение 73114
играл 73098
няя 73024
сборную 72901
пле@@ 72898
Несмотря 72875
представляет 72773
ья@@ 72764
спорта 72754
нов@@ 72729
лл 72683
ря@@ 72665
долларов 72657
тного 72600
1986 72581
ств 72540
середине 72484
эн@@ 72471
службу 72465
уровнем 72400
Александра 72359
июле 72354
острова 72338
Ши@@ 72210
школа 72173
премии 72160
корпуса 72050
стом 71986
силы 71970
западу 71923
лю 71864
1987 71822
ур@@ 71711
Ай@@ 71692
кладбище 71685
1919 71627
лан@@ 71614
проекта 71559
жена 71418
би 71371
1985 71292
льными 71276
1946 71264
70 71256
отец 71227
рует 71176
совет 71076
ваются 71061
нок 71054
бе 71037
Описание 71030
80 71007
дебютировал 70947
ху@@ 70864
жи 70826
своём 70806
службы 70747
чер@@ 70731
род@@ 70717
радио@@ 70663
эту 70564
разных 70547
валась 70502
университет 70381
проект 70350
име@@ 70298
первую 70288
рок 70242
мар@@ 70238
система 70225
июне 70185
рам 70077
ёт 70046
Если 70003
&#124; 69984
лин@@ 69969
ген@@ 69953
работать 69946
Кубка 69925
бу 69904
призна@@ 69782
1965 69772
пы 69717
поступил 69685
РФ 69627
шие 69596
помощи 69558
Гор@@ 69525
служил 69488
тон@@ 69438
мер@@ 69434
Ше@@ 69353
апреле 69326
таким 69323
Ман@@ 69298
используется 69192
другим 69184
становится 69166
операции 69155
пол@@ 69060
Тем 69050
цу 69020
титул 69003
дороги 68978
сер@@ 68931
центром 68914
ноябре 68913
рован 68826
ком@@ 68758
ваться 68712
здание 68694
т. 68630
пор 68574
право 68564
гг. 68536
1984 68531
Через 68474
месяца 68473
должны 68437
позиции 68415
штат 68366
Вер@@ 68312
ты@@ 68258
1979 68143
пять 68111
пути 68096
бар@@ 68059
Великобритании 67911
вка 67876
1966 67873
ющего 67845
лами 67807
Московской 67780
иногда 67778
35 67747
ший 67746
тен@@ 67615
ган@@ 67596
дами 67493
дер@@ 67476
1968 67459
ницы 67458
Лю@@ 67447
стра@@ 67438
1975 67407
шки 67370
льской 67328
тол@@ 67318
1926 67207
ордена 67187
русские 67154
щих 67082
Джон 67003
лении 66941
феврале 66935
кру@@ 66877
1948 66850
щий 66840
ших 66805
кроме 66763
кая 66673
государственный 66628
рование 66583
жения 66550
обороны 66525
тра@@ 66516
востоке 66439
Ги@@ 66398
Фа@@ 66384
здания 66372
дочь 66352
станция 66171
1963 66163
итоге 66154
комитета 66144
1973 66137
забил 66133
бра@@ 66124
училище 66106
протяжении 66087
1976 66031
вод@@ 66010
второго 65982
вышла 65980
войне 65964
ясь 65952
практически 65934
чка 65872
класса 65843
эк@@ 65820
коло@@ 65725
отличие 65713
начало 65678
Кри@@ 65677
ше 65676
1959 65649
Москвы 65622
правительства 65530
нь 65496
1972 65486
матчей 65484
ниям 65481
этому 65427
нем 65327
тела 65269
рядом 65197
Фе@@ 65055
фронта 65009
президента 64992
друг 64944
1971 64851
ера 64836
1958 64818
1956 64797
расположена 64773
Ча@@ 64690
Климат 64635
составляли 64598
1982 64547
дер 64505
дал 64459
сезон 64293
Пер@@ 64270
состоянию 64216
сына 64169
ковский 64045
1974 63934
гла@@ 63934
мать 63924
ос@@ 63847
стране 63844
1929 63750
состава 63731
дой 63725
лах 63675
сразу 63643
членов 63630
ющим 63589
карьера 63578
вместо 63560
чно 63509
1983 63481
1978 63447
Член 63429
кро@@ 63401
программы 63343
1981 63244
награждён 63232
словам 63227
улица 63152
военного 63132
вин@@ 63127
1967 63121
щение 63111
результатам 63104
центре 62927
кур@@ 62921
позднее 62904
Хи@@ 62900
ёр@@ 62885
семейства 62832
улицы 62830
ян@@ 62830
эта 62778
1954 62666
1964 62652
люди 62638
1957 62601
жение 62584
Кара@@ 62431
городской 62356
шу@@ 62345
шего 62320
тя@@ 62315
1962 62253
писал 62240
кла@@ 62180
1949 62124
безопасности 62096
Шу@@ 61987
ян 61981
внимание 61961
завода 61945
Англии 61920
пы@@ 61871
очередь 61829
мо 61815
Японии 61784
слова 61772
турнира 61726
мог 61715
журнала 61670
Фи@@ 61607
ер@@ 61583
1936 61563
45 61535
1961 61478
без@@ 61477
сельское 61367
ток 61339
Раз@@ 61336
значение 61293
Первой 61231
ан 61132
XVIII 61055
90 61006
1977 60957
восточной 60947
главе 60878
главного 60859
пост 60857
кры@@ 60837
шая 60785
кого 60743
западе 60736
исследования 60719
западной 60714
фер@@ 60691
вич 60661
IV 60638
спустя 60620
военных 60590
написал 60545
летом 60506
500 60476
строительство 60465
Код 60448
лиги 60430
1947 60390
фор@@ 60354
соответствии 60345
получили 60274
одновременно 60271
s 60245
Кан@@ 60186
Таким 60136
ал@@ 60109
одном 59939
1969 59924
пара@@ 59882
штаба 59815
Гер@@ 59814
1935 59777
сс 59749
ково 59713
че 59662
лли@@ 59626
сельсовет 59616
зов 59602
американский 59585
общей 59560
щей 59473
ческим 59459
чки 59456
Позже 59408
научных 59335
строительства 59311
кие 59274
четырёх 59216
площади 59186
кина 59160
населённых 59160
развитие 59157
сси@@ 59144
хорошо 59031
Россия 59010
руется 58991
футболист 58903
чей 58898
32 58878
лина 58826
Мор@@ 58772
соответственно 58691
формы 58689
правления 58654
Северной 58650
новым 58642
статус 58628
всегда 58558
разде@@ 58548
начали 58535
Испании 58524
выше 58515
тая 58486
являлся 58482
ряда 58471
революции 58364
сона 58324
автор 58288
проходит 58277
турнире 58251
тай@@ 58236
начальника 58213
дивизия 58186
спи@@ 58186
гру@@ 58182
влияние 58143
нин 58142
он@@ 58135
тно 58131
лено 58122
обще@@ 58083
флота 58066
Мария 57990
рованных 57979
точки 57926
заявил 57896
бро@@ 57850
водного 57834
множество 57791
емых 57767
кое 57765
1924 57741
стер@@ 57739
боевых 57701
одно 57692
пока 57598
выиграл 57552
правительство 57540
оп@@ 57530
Советского 57498
йн 57478
хом 57474
мест 57409
нике 57386
ново@@ 57299
1921 57283
Вол@@ 57272
ющее 57258
Не 57250
Чи@@ 57245
километров 57237
вов 57206
лов@@ 57162
возможно 57156
шим 57110
V 57105
Сюжет 56993
Всего 56975
Эр@@ 56964
микро@@ 56945
гар@@ 56937
главный 56905
периода 56902
мин@@ 56849
все@@ 56846
список 56844
считается 56819
озера 56793
ческом 56747
Чу@@ 56717
ким 56631
орденом 56630
ится 56629
ган 56601
ву@@ 56562
мор@@ 56560
известно 56552
стать 56552
хов 56546
зрения 56502
находятся 56469
шка 56469
Карьера 56461
относительно 56402
поро@@ 56396
гра@@ 56336
вшей 56321
большинство 56312
известный 56308
1922 56289
группу 56281
русский 56280
реке 56250
музыки 56218
медали 56216
Джа@@ 56170
состоя@@ 56133
Ху@@ 56118
щ@@ 56088
Длина 56054
граф 56021
условиях 55966
имели 55961
им@@ 55955
Ленина 55922
мон@@ 55917
авиа@@ 55914
1953 55880
зу 55849
сла@@ 55823
одну 55801
рей 55800
Алексей 55774
Мон@@ 55770
вар@@ 55762
правило 55741
ческую 55736
Эта 55683
военной 55678
группе 55666
пове@@ 55652
нему 55637
2@@ 55631
тру@@ 55627
тер 55592
несмотря 55589
создан 55536
1928 55528
закры@@ 55492
которому 55481
графа 55431
лены 55428
категории 55417
самой 55406
Пар@@ 55382
0@@ 55319
вшийся 55299
совместно 55298
пункт 55282
цов 55269
состоялась 55265
дворов 55220
тин@@ 55220
тия 55214
использовать 55213
победу 55187
шоу 55180
достаточно 55150
Окончил 55129
различные 55087
Список 55085
1955 55073
рий 55051
Эти 55037
ски@@ 55025
1934 54925
могли 54875
ённой 54855
следующие 54837
зи 54804
мет@@ 54804
Занимает 54786
1952 54762
Вскоре 54689
щи@@ 54683
ковского 54606
оно 54594
научно 54593
пор@@ 54498
-@@ 54450
основной 54450
A 54438
двух@@ 54425
матч 54423
команд 54412
стре@@ 54396
сильно 54395
занимался 54386
код 54375
теории 54357
цам 54347
цвета 54341
1932 54324
над@@ 54313
Европе 54303
Май@@ 54301
названия 54245
Сер@@ 54235
1933 54218
прямой 54175
Чер@@ 54126
тным 54125
учился 54084
Деревня 54083
аль 54072
вол@@ 54033
рин 54033
Андрей 54031
щего 53983
информации 53970
исследований 53898
ены 53894
месяцев 53859
ул 53855
уровне 53844
рин@@ 53791
министра 53784
целом 53767
йском 53759
кс 53753
посёлка 53730
дальнейшем 53715
чение 53712
песен 53679
1931 53643
право@@ 53618
1923 53593
такой 53587
Некоторые 53572
потому 53532
тических 53500
дар@@ 53487
участок 53484
лиге 53476
Её 53471
ционного 53454
нения 53452
пунктов 53380
вице 53367
гидро@@ 53361
брат 53346
ровали 53343
поме@@ 53337
штата 53335
значительно 53295
пе 53284
ственные 53278
игре 53217
принимал 53215
Московского 53198
вокруг 53196
состоялся 53193
све@@ 53164
лова 53120
тона 53084
ённые 53051
вшая 53030
син@@ 53010
щая 52986
щения 52945
числа 52922
включает 52901
работает 52887
Красной 52873
представителей 52872
сь 52837
смог 52732
ё 52713
быстро 52703
Название 52617
гер@@ 52602
действий 52582
выра@@ 52581
факультет 52581
нику 52555
цем 52551
дж@@ 52500
муниципального 52469
Василий 52466
выборах 52457
Сан@@ 52454
мало@@ 52448
Воз@@ 52447
рез@@ 52437
промышленности 52408
бри@@ 52400
фото@@ 52327
откры@@ 52296
тная 52296
мя@@ 52256
участник 52256
ок@@ 52237
известен 52236
свя@@ 52228
ате@@ 52222
Азии 52217
русского 52148
производство 52116
прекра@@ 52099
ённый 52096
команде 52080
науки 52077
тые 52065
дела 52033
военно 52021
мужчины 52002
вана 51991
странах 51948
лия 51937
летних 51921
Александрович 51886
сле@@ 51850
песня 51832
Административный 51821
воздуха 51819
Хар@@ 51779
1951 51765
300 51740
большое 51735
зоне 51720
чемпионат 51710
Николаевич 51705
русской 51672
президент 51667
Э 51619
тические 51619
административного 51594
Жи@@ 51585
1927 51583
счёт 51523
системе 51515
дра@@ 51475
лучших 51449
рова 51433
Южной 51406
рав@@ 51386
рованы 51360
Гар@@ 51356
искусств 51336
тё@@ 51327
движение 51316
просто 51307
стан@@ 51200
записи 51155
доме 51145
мере 51142
ден 51124
первое 51111
границы 51106
войсками 51093
1925 51075
сни@@ 51042
дочери 51006
суда 50996
зом 50987
последний 50987
первая 50974
сначала 50971
Академии 50943
следует 50908
сан@@ 50876
хозяйства 50829
ционных 50791
преимущественно 50770
водо@@ 50762
жной 50746
вида 50732
лением 50705
чную 50696
65 50685
чик 50651
Тай@@ 50611
1914 50590
Автор 50550
Под 50531
каждый 50531
официально 50522
музей 50448
начальник 50426
произведения 50402
цкой 50387
матча 50374
ностей 50373
медаль 50361
работа 50350
отношении 50348
тый 50280
зации 50235
пра@@ 50220
диа@@ 50208
тической 50206
своими 50188
лей@@ 50110
бо 50099
X 50074
ционный 50042
армия 50041
заместитель 50037
ниже 50025
следующий 50016
регионе 50010
структуре 49984
данные 49972
Бело@@ 49935
Ю 49922
работала 49895
старший 49842
Здесь 49771
нер 49755
Умер 49750
историю 49730
всю 49722
вшим 49694
книг 49647
улице 49607
солдат 49605
сторону 49595
нить 49556
базе 49530
храм 49528
ер 49525
сса 49515
бес@@ 49507
нского 49472
меж@@ 49456
русских 49439
дах 49427
мер 49404
ённых 49375
Помимо 49356
еди@@ 49342
власть 49240
реестра 49232
ску 49228
64 49204
мах 49150
большую 49135
хе@@ 49132
ят 49100
активно 49086
позволяет 49082
Об@@ 49074
железной 49041
вании 49020
лица 49015
море 48975
Тор@@ 48970
занимал 48956
стами 48933
Виктор 48928
округе 48926
циях 48926
Президиума 48892
интер@@ 48812
половине 48808
военный 48768
ющихся 48765
4@@ 48704
часов 48692
моло@@ 48628
Хотя 48588
евич 48586
лии 48581
лые 48563
разме@@ 48563
общего 48536
фамилия 48536
государственной 48534
вича 48513
Дмитрий 48450
1905 48439
36 48377
amp 48363
.. 48345
рию 48343
ковых 48342
гон@@ 48333
запре@@ 48325
литературы 48284
жен 48271
средств 48191
укра@@ 48165
бригады 48140
пяти 48107
ся 48088
ждение 48085
жении 48062
кг 48054
XVII 48041
городов 48024
будут 47973
йских 47969
дело 47961
стороне 47955
лям 47922
руют 47917
бур@@ 47886
существует 47876
происхождения 47846
пяти@@ 47846
Село 47805
and 47769
прежде 47760
шем 47732
сен@@ 47698
нский 47651
пан@@ 47643
лли 47642
сту@@ 47629
отдела 47615
тор 47607
ху 47582
уче@@ 47503
ато@@ 47501
книге 47476
директор 47444
зан@@ 47444
тренер 47433
33 47422
Мин@@ 47420
районного 47396
раза 47355
ковой 47336
дать 47326
поэ@@ 47267
храма 47246
ченко 47217
вской 47204
ём 47153
уровня 47145
пов 47104
форме 47066
административно 47013
длиной 47006
средней 46988
йская 46964
ющую 46953
степень 46929
заме@@ 46921
втором 46857
йн@@ 46848
ровка 46846
уч@@ 46830
вет@@ 46816
новский 46794
Чемпионат 46793
газеты 46770
проживало 46758
местного 46753
всем 46748
большая 46743
процесс 46739
вало 46702
кими 46699
жу@@ 46696
B 46685
звания 46684
техники 46631
каз@@ 46610
Фо@@ 46589
ённого 46581
рублей 46545
фильмов 46533
мед@@ 46531
Кра@@ 46523
мат@@ 46508
ственное 46450
стар@@ 46416
путь 46410
логии 46390
музея 46361
защиты 46356
ход 46347
война 46336
так@@ 46327
дия 46322
итогам 46312
основных 46264
ье@@ 46253
Наиболее 46236
37 46218
Гра@@ 46210
возможности 46187
пункты 46166
эн 46156
модели 46137
ви 46093
сте 46088
гами 46057
вступил 46031
ков@@ 46026
состав@@ 46026
международных 45984
последние 45984
зависимости 45977
шен@@ 45949
командира 45945
ана 45934
ев@@ 45921
художник 45900
помощь 45891
5@@ 45883
Эн@@ 45878
жением 45875
a 45847
отделения 45842
38 45828
34 45793
кол@@ 45792
средства 45765
рё@@ 45749
мин 45740
вошёл 45739
лению 45737
должна 45700
сен 45695
политической 45690
зем@@ 45678
довольно 45665
возвра@@ 45653
гол 45637
известных 45611
Ры@@ 45589
тического 45586
версия 45569
вшихся 45547
1915 45539
самом 45530
ственных 45529
ство@@ 45528
нение 45470
подписал 45442
З 45428
крупных 45425
высота 45391
расположены 45371
боях 45349
дам 45335
местных 45333
Петербурге 45331
жей 45331
вра@@ 45323
ственный 45289
кин@@ 45273
теперь 45255
нил 45250
рей@@ 45233
пода@@ 45228
комиссии 45211
эй@@ 45196
изда@@ 45194
председатель 45165
поч@@ 45005
ЦК 44995
Пётр 44972
Семья 44952
председателем 44942
карьеры 44938
партия 44921
жского 44916
Первая 44910
свет@@ 44896
лер 44859
дали 44803
Святого 44796
Тро@@ 44776
частей 44766
путём 44762
бал@@ 44738
выступил 44723
Васильевич 44712
евский 44675
став@@ 44674
трёх@@ 44652
суд 44651
рова@@ 44646
центральной 44638
ща@@ 44615
дро@@ 44611
вки 44606
чемпионом 44581
решил 44570
вшиеся 44529
ум 44477
шее 44462
запис@@ 44457
корпус 44453
футболу 44441
Юрий 44433
Впервые 44421
вошли 44413
тический 44410
аль@@ 44389
ати@@ 44331
Из@@ 44330
скры@@ 44261
ющими 44227
компанией 44219
рована 44205
среднем 44183
групп 44156
de 44120
потом 44114
сети 44102
никогда 44081
ьи 44075
национального 44061
эта@@ 44058
производ@@ 44053
вя@@ 44049
стиле 44049
обы@@ 44038
стер 44033
ляет 43993
решения 43973
3@@ 43964
миллионов 43950
КПСС 43945
севере 43944
использования 43919
хан@@ 43907
Бор@@ 43878
гри@@ 43863
ата@@ 43854
острове 43842
шесть 43841
говорит 43814
животных 43800
яв@@ 43796
юге 43790
Вместе 43784
Бур@@ 43746
спа@@ 43730
­ 43725
Один 43722
рованный 43717
бывший 43693
восток 43683
летний 43641
сель@@ 43622
ита 43609
вз@@ 43589
цкая 43560
рев@@ 43559
растений 43556
именем 43533
чными 43531
входила 43520
0,@@ 43515
получить 43472
председателя 43472
ун@@ 43452
став 43443
отде@@ 43411
Гри@@ 43397
Мат@@ 43397
республики 43388
Михайлович 43371
зер@@ 43360
ссо@@ 43358
основан 43355
in 43352
иностранных 43340
превра@@ 43316
Павел 43313
нас 43304
дважды 43293
шан@@ 43251
уезд 43239
систем 43228
произошло 43209
ционной 43205
ран 43200
стоя@@ 43190
нина 43159
построен 43143
лет@@ 43141
жен@@ 43106
дан@@ 43097
направлении 43097
итель 43077
родилась 43075
Аб@@ 43065
Пра@@ 43048
емые 43027
своему 43018
временем 43012
присвоено 43008
Париже 43006
Хан@@ 42998
лой 42966
игра 42951
коммуна 42910
мского 42900
принято 42879
борьбы 42875
депутатов 42871
изменения 42857
7@@ 42854
вне@@ 42827
Указом 42775
дель@@ 42760
участия 42744
рабочих 42732
400 42725
министр 42713
счётом 42656
наи@@ 42651
ровала 42645
Площадь 42636
участников 42625
рина 42607
представ@@ 42606
осадков 42604
командир 42599
проведения 42587
современной 42573
Эй@@ 42569
выхода 42557
Ли 42529
ленный 42508
поддержку 42507
гро@@ 42502
вплоть 42498
Америки 42496
сделать 42481
командованием 42469
Бел@@ 42468
ть@@ 42448
ит@@ 42446
приблизительно 42414
работали 42367
премьер 42366
Например 42361
вед@@ 42346
князя 42334
началось 42334
расши@@ 42333
тное 42307
никам 42292
высоте 42276
ковые 42260
управление 42252
Первые 42251
бывшего 42242
Вар@@ 42164
следующем 42163
спе@@ 42143
борьбе 42142
началась 42125
призёр 42101
окончании 42089
ванию 42081
выпущен 42055
рованные 42055
Мари@@ 42040
1912 42029
ственного 42027
директором 42024
мен 42009
входят 41992
тепло@@ 41986
отправ@@ 41985
фу@@ 41981
Красно@@ 41930
остров 41924
нен@@ 41917
Большой 41914
монастыря 41897
составляла 41891
рай@@ 41890
матери 41886
чном 41877
ара 41842
возглавил 41829
чен@@ 41807
матчах 41786
чены 41780
Кру@@ 41777
бле@@ 41764
сделал 41742
морской 41732
1913 41721
упоминается 41720
6@@ 41688
вной 41683
императора 41670
каза@@ 41662
ен 41633
прошёл 41632
Вен@@ 41626
Австралии 41624
паро@@ 41605
ссе@@ 41585
Армии 41583
лек@@ 41573
диссертацию 41572
нар@@ 41559
Бре@@ 41547
лях 41536
широко 41536
Николая 41526
тии 41513
XVI 41493
АССР 41486
ённая 41449
валось 41436
1910 41434
От 41433
щим 41426
протекает 41396
некоторое 41392
куль@@ 41391
президентом 41375
хе 41360
Карл 41345
противо@@ 41341
директора 41332
произведений 41323
Бра@@ 41316
Средняя 41292
направ@@ 41248
низ@@ 41223
проблемы 41207
Ещё 41202
жили 41194
поля 41181
лка 41177
песню 41177
ее 41108
пределах 41084
заняла 41074
король 41065
новую 41060
правом 41048
обеспечи@@ 41040
мета@@ 41021
ново 41021
рованной 41014
институте 40999
региона 40993
сказал 40987
писатель 40985
Летом 40966
жители 40963
Гре@@ 40921
переехал 40915
расположено 40899
лок 40898
друга 40894
язы@@ 40888
вшейся 40859
лиц 40857
советской 40803
режиссёра 40797
история 40775
сной 40764
минут 40707
южной 40705
циями 40699
хан 40688
ред@@ 40659
44 40652
мами 40641
нару@@ 40615
прави@@ 40589
занимает 40588
ческими 40583
армию 40581
создание 40566
представители 40563
функции 40554
Бен@@ 40525
Находится 40514
Коло@@ 40511
чин@@ 40456
Коро@@ 40439
генерала 40401
метра 40395
ся@@ 40390
аться 40371
рождения 40365
постоянно 40361
весь 40351
Кол@@ 40338
силу 40336
голо@@ 40331
оказался 40329
Индии 40327
42 40301
вор@@ 40289
чемпион 40289
прав@@ 40260
прода@@ 40258
советских 40253
жный 40252
вдоль 40246
цен@@ 40240
вопрос 40220
начальником 40216
Их 40214
новое 40172
главной 40154
театре 40148
назад 40145
Бри@@ 40134
Герой 40113
ницей 40107
Лин@@ 40101
ых 40098
ус 40094
вин 40072
1916 40068
ленной 40059
умеренно 40059
стью 40057
появился 40029
общество 39975
систему 39975
150 39966
театр 39955
пришлось 39947
Тар@@ 39932
занима@@ 39897
Похоронен 39885
зы@@ 39878
Тогда 39861
выда@@ 39858
выборов 39850
имеется 39845
цвет@@ 39823
группой 39802
запад 39791
играть 39784
переда@@ 39779
деле 39773
закон@@ 39765
нес@@ 39763
Является 39755
ких 39740
кую 39731
тики 39688
емый 39686
озеро 39677
назна@@ 39660
приняли 39644
коро@@ 39634
дол@@ 39611
поверхности 39605
создании 39596
отделение 39594
ционные 39579
моно@@ 39504
началом 39499
дии 39464
форму 39454
Бай@@ 39433
ленных 39406
книга 39383
75 39380
Тер@@ 39371
семья 39370
евского 39360
финале 39336
ничего 39334
профессора 39326
пря@@ 39325
появились 39320
осу@@ 39306
находились 39285
тель@@ 39281
ней@@ 39257
сня@@ 39249
боя 39224
успешно 39224
хро@@ 39216
встре@@ 39196
брата 39166
Кро@@ 39145
ённым 39145
студии 39112
Впоследствии 39083
убе@@ 39010
$ 39007
появилась 38996
основании 38979
чески 38972
Рей@@ 38964
тора 38953
гвардии 38940
Ян@@ 38932
французский 38932
художника 38907
событий 38890
картины 38864
ено 38853
народа 38853
тура 38840
новая 38787
тского 38773
льда 38767
эр@@ 38751
Фер@@ 38741
ваны 38739
благо@@ 38701
Город 38687
коллек@@ 38680
Западной 38654
имела 38647
док 38637
Восточной 38620
Министерства 38608
северной 38591
союза 38568
дил 38557
большим 38528
комплекс 38464
чен 38457
емой 38435
Сы@@ 38399
каждой 38398
ску@@ 38392
Марии 38363
экономики 38345
пя@@ 38340
приток 38314
языков 38314
называют 38307
клубе 38306
Рас@@ 38295
ленные 38293
главных 38287
фин@@ 38268
тым 38257
народов 38222
зар@@ 38216
нин@@ 38212
тем@@ 38189
Дже@@ 38188
подо@@ 38184
Кубок 38181
сельский 38174
проходил 38171
Северо 38153
воро@@ 38122
атов 38119
Кам@@ 38094
местности 38063
стрелковой 38056
секретарь 38053
фак@@ 38047
памятник 38033
игру 38024
куда 38019
книгу 38006
доктор 37999
Бы@@ 37988
шо@@ 37981
чика 37971
предприятия 37963
оба 37962
политики 37950
Три@@ 37934
фон@@ 37929
турнир 37905
вшегося 37899
заводе 37898
кара@@ 37896
современного 37881
39 37880
тоже 37865
Многие 37856
ственной 37826
ванием 37815
кат@@ 37781
Борис 37780
льному 37747
вероятно 37729
данный 37721
Рай@@ 37716
дорога 37702
создал 37691
сс@@ 37687
концу 37685
обучения 37681
роман 37662
факультета 37657
гой 37647
M@@ 37639
покинул 37627
Основные 37590
рения 37589
щены 37571
земле 37569
создана 37564
дин 37551
памяти 37542
данной 37540
Бал@@ 37525
зимой 37525
Благодаря 37518
Гро@@ 37512
победы 37497
Пред@@ 37496
утвер@@ 37487
состоял 37473
Йорк 37466
Об 37448
ляется 37440
ответ@@ 37436
созда@@ 37422
войну 37412
труда 37407
Белоруссии 37389
актёр 37389
начинает 37367
немецкий 37350
отправился 37310
льская 37225
парк 37225
ано 37219
заместителем 37215
Динамо 37208
отряд 37202
чения 37196
явля@@ 37195
гер 37190
тых 37185
уго@@ 37185
построена 37183
Владимира 37159
члены 37158
Х 37154
ровался 37115
третий 37076
внутри 37069
находилась 37066
открыт 37063
Кли@@ 37057
Национальный 37027
весьма 36990
Петербург 36988
Фу@@ 36962
уровень 36962
1900 36960
сеть 36941
окру@@ 36939
тренером 36939
уби@@ 36933
момента 36932
ню 36924
шу 36903
кому 36886
вина 36857
виды 36853
сейчас 36853
сты@@ 36851
территория 36840
жить 36822
высоко@@ 36817
тера 36796
мена 36787
рек 36747
Нико@@ 36734
00 36730
издания 36728
встречается 36725
8@@ 36719
отношений 36719
эт@@ 36712
йские 36698
основания 36697
вынужден 36693
входил 36656
дат@@ 36650
каждого 36635
цвет 36620
бою 36613
вская 36604
тие 36561
жных 36541
вели@@ 36537
Москву 36533
монастырь 36533
Ган@@ 36505
художников 36487
использование 36474
ый 36458
ые 36451
времена 36446
округу 36443
вошла 36424
боль@@ 36421
Лондоне 36416
Ос@@ 36414
стри@@ 36411
1911 36408
передачи 36393
Государственной 36386
дин@@ 36384
способ@@ 36379
другом 36376
территорию 36370
дон@@ 36369
1907 36357
используются 36352
Там 36348
югу 36341
аны 36330
жан@@ 36304
нер@@ 36300
премию 36297
тов@@ 36293
цо@@ 36292
ющиеся 36291
внутренних 36252
1906 36235
55 36224
ины 36224
ёнными 36206
начинается 36187
вами 36183
льском 36174
Пан@@ 36173
Хай@@ 36170
млрд 36161
Хе@@ 36145
привело 36145
щен@@ 36116
воло@@ 36086
оружия 36078
Поли@@ 36063
класси@@ 36056
Мер@@ 36050
1000 36024
Героя 36017
покры@@ 35979
броне@@ 35938
неоднократно 35925
районов 35919
новского 35909
тар@@ 35894
побе@@ 35863
епархии 35858
женился 35848
отда@@ 35835
шко@@ 35799
стка 35790
прав 35787
Польши 35782
Мэ@@ 35769
приня@@ 35737
состоянии 35720
чу 35718
Евгений 35710
лле@@ 35660
общины 35654
ального 35648
большей 35641
Казахстана 35637
слишком 35632
попал 35630
предложил 35622
1908 35590
найти 35575
Эль@@ 35571
российских 35556
интервью 35536
Все@@ 35534
подготовки 35531
тип 35492
Лан@@ 35486
сов@@ 35475
составил 35464
американской 35461
причём 35449
лян@@ 35442
чий 35433
ровки 35424
альные 35421
ённое 35410
нюю 35403
сия 35402
дан 35400
слов 35400
Новый 35385
лейтенант 35374
объектов 35362
сли@@ 35360
чена 35359
лучшим 35330
сии 35327
сингл 35302
горы 35299
русском 35284
Позднее 35282
сто 35269
бит@@ 35246
жные 35233
называется 35231
остро@@ 35227
Мен@@ 35225
небольшой 35221
АН 35215
джа@@ 35202
Петрович 35200
назвал 35187
мир@@ 35183
меня 35168
скончался 35153
Украине 35124
руются 35124
ВВС 35115
Поэтому 35112
Расстояние 35108
Анна 35107
журнал 35099
домов 35076
относятся 35074
Александ@@ 35036
Экономика 35035
шения 35031
Петра 35029
Тур@@ 35029
ца@@ 34999
содержит 34976
означает 34974
государств 34973
ровского 34962
48 34945
дву@@ 34939
меньше 34928
нови@@ 34907
Первоначально 34892
B@@ 34888
жению 34875
Зе@@ 34854
Син@@ 34851
кер 34846
фактически 34826
бере@@ 34824
сан 34813
Данные 34806
издание 34806
город@@ 34782
ителя 34731
свет 34726
соревнованиях 34722
Отец 34714
43 34698
связь 34698
вести 34689
ночь 34683
философии 34682
самый 34654
VI 34638
щена 34636
заниматься 34624
сне@@ 34618
ительно 34602
кораблей 34590
численность 34585
ковым 34584
кафедры 34582
Сте@@ 34555
йским 34553
41 34541
фронт 34518
леса 34517
изо@@ 34512
остался 34505
характер 34498
Ла 34496
постав@@ 34496
Сто@@ 34495
Бат@@ 34488
сокра@@ 34484
Работал 34465
состояние 34421
зоны 34416
управля@@ 34410
10@@ 34390
объявил 34382
c 34377
транс@@ 34364
Це@@ 34350
тен 34337
постепенно 34322
Роберт 34319
дный 34309
Эк@@ 34295
комплек@@ 34282
старше 34280
берг 34263
зло@@ 34258
даль@@ 34246
чь 34242
Маль@@ 34227
джи@@ 34226
вок 34213
командиром 34210
исклю@@ 34208
Фор@@ 34206
архитектуры 34203
план 34189
Сар@@ 34184
Ара@@ 34178
второе 34176
взаимо@@ 34157
Лос 34155
городах 34147
био@@ 34146
Ци@@ 34140
большие 34140
Воло@@ 34138
Нор@@ 34128
Кла@@ 34126
события 34124
порядка 34100
ительной 34092
Фильм 34081
чё@@ 34061
клубом 34045
материалов 34041
народного 34041
международного 34038
сах 34035
очков 33985
зм 33966
плани@@ 33965
Института 33964
Тан@@ 33938
Лей@@ 33931
разру@@ 33931
кости 33925
вер 33914
чность 33910
этапе 33910
слу@@ 33893
графи@@ 33890
сь@@ 33883
1904 33875
Ам@@ 33869
отдельных 33855
иты 33849
льд 33827
S@@ 33823
стой 33821
работа@@ 33818
ствах 33796
современных 33780
действие 33776
принят 33772
политических 33771
вёл 33770
отставку 33768
одино@@ 33758
рованного 33751
необходимо 33750
тонн 33735
заклю@@ 33731
курс 33728
шение 33715
вклад 33706
индекс 33691
начиная 33667
ыми 33664
будучи 33643
получения 33643
Новой 33625
2022 33588
игроком 33582
ью@@ 33573
сравнению 33570
организаций 33565
дают 33559
абсолютный 33556
чиков 33514
тки 33505
ими 33495
создать 33476
такого 33456
защи@@ 33400
режиссёр 33363
золотой 33361
бассейна 33360
испол@@ 33356
результат 33351
1,5 33340
новка 33340
разви@@ 33340
игроков 33333
пен@@ 33305
рон 33303
игрок 33298
вопросам 33292
ет@@ 33292
щее 33289
частично 33276
46 33263
актриса 33255
ственная 33246
отряда 33228
защитил 33221
сериала 33207
альной 33200
Новая 33188
сведения 33177
результаты 33160
организация 33156
Ген@@ 33155
Ах@@ 33150
слово 33135
ительного 33124
контроль 33123
объекта 33119
уры 33118
эль 33118
государственном 33086
май@@ 33059
замуж 33057
Дани@@ 33049
семей 33048
завоевал 33042
линия 33039
тской 33033
непосредственно 33024
P@@ 33019
высокой 33013
обеспечения 32999
атом 32985
лам 32984
образ 32973
пишет 32968
D@@ 32959
располагается 32958
представля@@ 32953
добав@@ 32947
бен@@ 32936
гене@@ 32901
Нар@@ 32896
рен 32894
ителем 32878
местах 32878
битве 32874
част@@ 32858
цве@@ 32856
емого 32826
модель 32808
ато 32769
парка 32767
52 32758
мский 32747
чаще 32735
Участник 32729
семь 32715
решением 32705
1909 32697
польского 32696
стен@@ 32692
цар@@ 32692
ево 32691
Тру@@ 32689
Сен 32687
доро@@ 32687
Жу@@ 32675
веков 32664
нице 32642
продолжил 32629
командой 32624
лан 32623
отказался 32623
нос@@ 32594
Заслуженный 32591
оби@@ 32580
тю@@ 32571
союз 32564
минимум 32552
дов@@ 32551
фом 32551
изобра@@ 32546
ительный 32540
ванных 32533
еще 32529
иметь 32528
корабля 32528
шта@@ 32528
зии 32521
исторических 32519
сса@@ 32516
рий@@ 32511
і@@ 32497
удостоен 32481
ут@@ 32478
машины 32469
электри@@ 32428
совершил 32411
люби@@ 32403
Сам@@ 32395
глубо@@ 32382
зал 32371
ровский 32366
ез@@ 32365
километрах 32365
капитан 32357
шин 32333
автором 32315
жила 32297
проблем 32276
ственно 32276
ён@@ 32264
лон@@ 32260
фы 32255
назван 32253
мость 32247
поражение 32246
47 32238
высшей 32236
бассейн 32235
сек@@ 32233
мати@@ 32231
термин 32215
данного 32195
дети 32183
Джона 32172
случаях 32160
плат@@ 32140
бой@@ 32130
лки 32122
тическая 32122
континентальный 32116
тин 32097
уни@@ 32096
реку 32094
Бразилии 32093
Группа 32079
шести 32075
епископ 32074
островов 32073
ствами 32073
Али@@ 32066
выпуск 32064
дороге 32064
жу 32052
образован 32045
Тре@@ 32042
каче@@ 32037
лый 32024
последнего 32024
сков 32019
руки 32016
возглавлял 32008
штаб 31988
американского 31982
прошли 31965
евреев 31957
конференции 31957
подтвер@@ 31955
северу 31944
приводит 31942
Дж@@ 31920
польский 31916
направлен 31867
хоро@@ 31840
сыном 31839
обучение 31824
бин@@ 31817
левом 31804
дского 31791
вторым 31788
носит 31751
шены 31751
характеризуется 31750
лых 31743
длина 31741
корабль 31726
стру@@ 31718
органов 31716
установ@@ 31686
больших 31684
шен 31676
кле@@ 31649
рис 31649
пом 31647
кам@@ 31644
установлены 31639
встречаются 31638
Константин 31635
клю@@ 31635
кового 31626
процессе 31625
ще 31622
ляют 31615
това 31604
гин@@ 31596
доктора 31592
бре@@ 31580
ката@@ 31570
ственным 31554
батальона 31542
Большая 31524
лий 31500
лес@@ 31489
отме@@ 31479
лично 31475
полиции 31475
Михаила 31472
хар@@ 31461
деньги 31460
царя 31459
руководство 31451
эпохи 31439
Дом 31435
мастер 31431
голосов 31402
Гал@@ 31394
Карла 31392
L@@ 31378
ходу 31378
Иль@@ 31374
пу 31373
принадлежит 31351
Ну@@ 31341
далее 31324
ительные 31315
Оль@@ 31310
единственный 31310
память 31308
нен 31302
мых 31293
Уже 31286
лять 31273
вода 31272
T@@ 31263
нец 31260
Кре@@ 31245
политический 31211
отлич@@ 31207
вод 31203
стые 31200
связано 31194
ход@@ 31194
восстания 31188
вском 31179
ам@@ 31177
ум@@ 31165
тое 31158
продолжал 31143
уси@@ 31133
ительных 31126
тский 31114
Ала@@ 31112
Совет 31099
Перед 31085
Греции 31083
ителей 31078
комплекса 31078
видео 31067
майор 31051
Же@@ 31049
традиции 31019
крепости 31014
включа@@ 31004
научной 30998
Бан@@ 30992
основана 30992
Швеции 30989
Труда 30953
лич@@ 30953
успех 30950
1897 30925
государственных 30924
срок 30914
ниц 30910
Ивана 30904
архи@@ 30894
сви@@ 30880
итель@@ 30866
ане 30848
исключением 30841
ётся 30839
F@@ 30814
дви@@ 30789
сные 30789
коне@@ 30782
51 30781
древне@@ 30778
зен@@ 30777
составила 30776
основал 30768
голов 30759
гли@@ 30756
ита@@ 30756
статьи 30748
дает 30738
тур 30733
Сын 30715
C@@ 30712
журнале 30704
коле@@ 30696
мент 30693
сборная 30684
меня@@ 30681
представлены 30675
романа 30665
тренера 30656
технологии 30654
литературе 30640
Дю@@ 30573
погиб 30572
чности 30544
арестован 30540
природы 30536
обе@@ 30534
возраста 30527
вариант 30520
скорость 30520
хозяйств 30515
Первым 30510
принять 30494
кер@@ 30492
резер@@ 30492
выступает 30489
кано@@ 30488
зин@@ 30484
глу@@ 30472
Сент 30468
альных 30466
Награды 30444
Украина 30440
финала 30440
ворота 30415
Жан 30397
отве@@ 30395
содержа@@ 30394
дной 30393
замок 30385
смо@@ 30373
9@@ 30361
R@@ 30357
описание 30342
пользу 30335
заяв@@ 30334
финал 30334
кампании 30310
рио@@ 30305
уде@@ 30295
ин 30267
K@@ 30247
ради@@ 30244
важ@@ 30236
военные 30227
бед@@ 30225
раунде 30221
кси@@ 30215
транспорта 30213
нера 30207
чая 30200
известного 30198
ющийся 30195
дор@@ 30192
распростра@@ 30182
раст@@ 30170
форма 30151
торы 30148
Джеймс 30147
офицеров 30135
элементов 30119
цом 30118
гах 30097
тур@@ 30086
пригла@@ 30085
Русской 30068
середины 30055
пат@@ 30045
сво@@ 30044
английский 30042
жного 30027
анд@@ 30026
сли 30026
цах 30026
объединения 30017
стрелкового 30017
муниципальное 30013
пти@@ 30013
газо@@ 30007
кто@@ 29996
сад 29977
щем 29972
Национальной 29965
какой 29963
династии 29962
сила 29958
никах 29956
юг 29956
120 29950
экспедиции 29950
нской 29944
запа@@ 29940
Зо@@ 29938
дель 29932
мого 29925
получает 29924
Лен@@ 29922
льность 29914
пли@@ 29913
Большинство 29905
шими 29901
младший 29896
силами 29890
особенности 29857
компаний 29854
Более 29850
ны@@ 29850
студентов 29844
обязанности 29833
евре@@ 29832
предприятий 29830
Китая 29822
цком 29818
соеди@@ 29813
болезни 29812
форми@@ 29810
крупнейших 29799
Известные 29797
Стра@@ 29797
сцене 29796
Валь@@ 29792
немецких 29789
Уильям 29775
администрации 29775
дели@@ 29773
нили 29768
гражданской 29766
жает 29765
авиации 29758
Полу@@ 29750
нео@@ 29748
российской 29746
Церковь 29734
ец 29733
разные 29732
V@@ 29696
вано 29689
всему 29641
ведения 29628
радио 29620
мые 29616
ствовал 29609
нении 29605
Венгрии 29598
N@@ 29597
собора 29596
древ@@ 29581
звезды 29581
ответ 29577
сих 29575
направления 29570
жда@@ 29569
близ 29568
Владимирович 29566
Уэ@@ 29565
54 29564
емая 29554
Советской 29547
созыва 29543
свыше 29541
руководитель 29538
последних 29532
дных 29530
вари@@ 29529
замет@@ 29519
сный 29504
ительное 29487
полковник 29485
нением 29481
ницу 29481
суще@@ 29481
отра@@ 29461
ловский 29452
довой 29439
аре@@ 29433
Америке 29422
Поскольку 29420
входили 29416
игрока 29413
Именно 29400
считает 29400
шек 29394
фронте 29390
дж 29373
православной 29371
князь 29365
Кубке 29360
участием 29360
1890 29345
роман@@ 29324
формирования 29303
произведён 29297
преподавал 29287
переименован 29281
ванный 29279
программе 29272
птиц 29262
циям 29255
изготов@@ 29249
посёлке 29240
умень@@ 29240
раб@@ 29237
посе@@ 29235
наряду 29231
рабо@@ 29226
уэ@@ 29221
появляется 29220
получив 29208
ъ@@ 29207
ил 29206
основным 29193
щен 29193
серия 29192
Социалистического 29186
руководил 29172
тело 29172
Дан@@ 29171
1,@@ 29167
специальности 29167
хо 29154
достижения 29153
Пет@@ 29137
элементы 29136
Джи@@ 29105
миру 29094
образ@@ 29075
мина 29072
двой@@ 29065
стандар@@ 29060
СМИ 29052
дей@@ 29049
мато@@ 29047
плен 29037
РАН 29035
спо@@ 29035
музыку 29032
секре@@ 29025
× 29017
мне 29013
чин 28989
командовал 28977
пункта 28966
мост 28964
здании 28949
главы 28947
Анатолий 28936
чики 28922
депутатом 28917
совер@@ 28913
фри@@ 28895
контра@@ 28894
ровано 28894
законодате@@ 28893
ора 28879
стоит 28870
Пав@@ 28864
писателей 28857
Игорь 28854
собрания 28846
товой 28835
лож@@ 28821
чено 28821
нический 28814
бело@@ 28809
установлен 28808
Со 28794
роваться 28789
статей 28787
49 28783
большого 28781
бли@@ 28772
первоначально 28767
Париж 28758
иде@@ 28756
Дар@@ 28753
взял 28752
G@@ 28749
рус@@ 28737
хозяйство 28737
Первое 28732
мото@@ 28719
Records 28717
подготов@@ 28710
58 28689
лье 28679
нача@@ 28667
композиции 28666
существования 28639
Вин@@ 28637
опубликовал 28631
пят@@ 28631
представлен 28623
оны 28619
осна@@ 28614
лай@@ 28602
ата 28589
дни 28587
R 28581
выпуска@@ 28579
морских 28579
утра@@ 28576
мова 28564
совершен@@ 28558
Франция 28548
городом 28538
осуществля@@ 28537
кан 28534
мень@@ 28526
ителями 28521
даёт 28519
Кер@@ 28511
Почтовый 28509
Австрии 28507
э. 28496
щает 28494
Дер@@ 28486
бло@@ 28474
ым 28465
1903 28457
самолётов 28447
поэт 28442
Кал@@ 28434
крупные 28424
чиком 28422
многочисленные 28418
училища 28415
моби@@ 28413
соревнований 28413
сных 28411
XV 28401
тную 28401
ченных 28399
Гру@@ 28397
прибыл 28395
европейских 28375
должно 28371
Географическое 28361
номер 28358
раскры@@ 28358
вшаяся 28353
йское 28339
состоялось 28328
опы@@ 28310
Кай@@ 28307
физи@@ 28303
наступление 28296
фильмах 28281
исключительно 28272
предназна@@ 28270
устройства 28269
мини 28267
времён 28265
Ур@@ 28260
знак 28257
Тал@@ 28245
подви@@ 28233
согла@@ 28227
Союз 28223
1902 28216
лог 28213
десяти 28206
N 28205
рон@@ 28188
Кат@@ 28181
выступления 28181
Юго 28180
меха@@ 28173
стых 28169
проекту 28168
шоссе 28166
дри@@ 28164
гин 28163
пору@@ 28163
вернуться 28157
ленд 28155
похоронен 28149
Рос@@ 28139
Фран@@ 28137
назначения 28133
федера@@ 28128
вате@@ 28126
сё@@ 28121
считал 28114
писателя 28105
конец 28091
щиков 28084
строй 28082
ленного 28080
поддержке 28080
E@@ 28076
жная 28054
сайте 28049
преступ@@ 28046
сце@@ 28029
лизации 28020
стат@@ 28020
рик 28014
единственным 28006
дно 27988
Участвовал 27981
остальные 27979
половины 27974
Азербайджана 27970
районах 27967
французского 27962
Турции 27957
чил 27956
S 27949
ани 27943
Земли 27941
американских 27936
женой 27936
прошла 27933
Зи@@ 27926
ото@@ 27924
карьере 27914
приняла 27906
рэ@@ 27903
D 27899
жал 27895
мым 27895
Генри 27891
Гон@@ 27880
евка 27865
хана 27862
Хэ@@ 27858
контро@@ 27823
граждан 27817
мало 27804
ждения 27801
рил 27800
похо@@ 27784
Зу@@ 27765
живописи 27764
вое@@ 27759
победил 27751
Вла@@ 27750
населённые 27746
выходит 27737
спу@@ 27732
Пал@@ 27725
мон 27721
владе@@ 27712
делает 27711
воду 27705
Воль@@ 27703
окончательно 27696
шую 27694
L 27682
молодых 27675
летнего 27670
53 27664
Стро@@ 27660
левой 27658
средняя 27655
недо@@ 27653
профессором 27649
Германия 27645
инженер 27644
областного 27625
сту 27620
бом 27613
Сам 27609
концер@@ 27609
рованная 27593
Пла@@ 27590
Скончался 27582
щик 27580
ООН 27574
отвер@@ 27570
чув@@ 27561
мый 27554
машин 27553
600 27546
вышли 27532
вшее 27524
жать 27508
идеи 27507
используют 27506
разо@@ 27501
мской 27494
кни@@ 27488
Эл@@ 27474
основные 27469
месяц 27457
бай@@ 27437
бер 27425
продукции 27419
любой 27418
Виль@@ 27396
игра@@ 27386
Личная 27383
56 27361
XIV 27356
сда@@ 27352
вид@@ 27349
кло@@ 27349
бригада 27342
лат@@ 27342
персонажей 27340
250 27339
языках 27334
которыми 27327
РККА 27322
Хол@@ 27316
смер@@ 27305
положения 27300
Кэ@@ 27285
Московский 27284
офф 27281
реформы 27271
известна 27256
голов@@ 27255
тика 27253
критиков 27251
Высо@@ 27249
ВКП 27247
недалеко 27241
сор@@ 27228
окра@@ 27225
объек@@ 27223
Петербурга 27209
оставался 27201
количества 27200
святого 27193
учёный 27193
брю@@ 27184
автора 27176
Средний 27172
третьего 27166
лег@@ 27162
российского 27154
свободы 27146
Ван@@ 27141
курсы 27136
зданий 27130
нной 27129
стая 27122
успеха 27120
ванные 27114
ща 27113
Финляндии 27110
57 27104
земель 27104
крайне 27104
днев@@ 27090
чет@@ 27087
самолёта 27077
us 27076
канала 27075
проживали 27075
запу@@ 27074
логи@@ 27056
чить 27047
карте 27045
ционная 27043
дже@@ 27035
нужно 27034
помимо 27030
йна 27026
технических 27022
Великого 27019
туре 27018
энергии 27018
условия 27017
лая 27008
пытается 27007
Кир@@ 26983
ем@@ 26978
ити@@ 26976
ав@@ 26970
енко 26970
нические 26969
потери 26959
Канады 26958
дь@@ 26958
опублико@@ 26955
ченный 26952
F 26940
Чтобы 26931
переме@@ 26929
чают 26928
чением 26906
Марк 26904
известные 26902
бат@@ 26890
сок 26890
следующих 26889
процесса 26882
VII 26870
провод@@ 26867
Гла@@ 26865
изначально 26862
авторов 26849
нений 26844
имеются 26843
Национального 26838
герцога 26833
Бак@@ 26832
лым 26828
кен@@ 26825
семей@@ 26816
Военно 26807
Гос@@ 26806
ленная 26802
тему 26802
Дей@@ 26800
раньше 26783
ассоциации 26778
сей 26776
Ев@@ 26772
усили@@ 26766
повре@@ 26765
вру@@ 26762
Болгарии 26757
дные 26754
кость 26754
вре@@ 26751
Мы 26750
фе 26747
сборник 26743
следующим 26741
1901 26738
i 26738
ляции 26729
немецкой 26727
сегодня 26719
определя@@ 26718
списке 26717
Другие 26714
зада@@ 26705
крат@@ 26705
пото@@ 26688
изм 26686
роди@@ 26686
ём@@ 26682
W@@ 26673
Вос@@ 26671
край 26669
номина@@ 26663
XIII 26651
коп@@ 26651
улуч@@ 26639
льских 26633
футбольный 26609
ват@@ 26601
боло@@ 26600
пис@@ 26584
сторон 26577
выиграла 26571
библиотека 26561
ченные 26544
дением 26538
дорож@@ 26528
поддержки 26522
звезда 26521
доб@@ 26520
Грузии 26512
Ком@@ 26508
мыш@@ 26503
принимает 26502
жесто@@ 26499
тили 26496
интерес 26491
фина@@ 26487
тина 26484
Одновременно 26472
2,@@ 26469
стам 26464
кского 26447
Ирландии 26425
тивных 26424
закон 26419
попа@@ 26413
ловского 26400
армией 26398
нове@@ 26397
Центр 26393
Григорий 26384
Томас 26384
лья 26383
музее 26381
проте@@ 26375
Йорке 26372
тую 26372
вследствие 26360
культуре 26360
освобождения 26356
Йо@@ 26346
Брю@@ 26342
подня@@ 26339
химии 26333
Общая 26322
впадения 26320
ед@@ 26312
составляют 26308
нич@@ 26304
резко 26303
бюро 26298
грани@@ 26298
могла 26291
историк 26285
паль@@ 26285
самостоятель@@ 26283
прото@@ 26268
Ву@@ 26266
щую 26265
Сити 26259
охот@@ 26257
хотел 26257
номером 26254
Телефонный 26248
советского 26222
дя@@ 26214
инди@@ 26206
наслед@@ 26202
пит@@ 26183
цели 26169
Стар@@ 26161
численности 26146
разработки 26141
XII 26133
ходы 26132
отличается 26130
Всероссийской 26129
меры 26127
щика 26102
проходили 26093
порт 26091
участвовала 26091
Георгий 26090
конструкции 26083
нан@@ 26076
свер@@ 26055
поль@@ 26050
тном 26047
2,5 26046
стиль 26041
анали@@ 26040
вле@@ 26035
эпи@@ 26028
сова 26025
печат@@ 26016
немного 26012
оста@@ 26010
дили 26003
привле@@ 26003
сфере 26001
лён 25998
дав@@ 25982
мое 25978
играет 25974
заня@@ 25960
тран@@ 25953
последней 25950
зя@@ 25943
отсутствие 25943
Вя@@ 25941
коль@@ 25937
дистанции 25933
независимости 25921
позицию 25921
Джо@@ 25914
85 25904
выборы 25904
делам 25901
вах 25899
попытки 25895
немецкого 25893
использованием 25892
нау@@ 25891
Красного 25886
теоре@@ 25882
воде 25881
зами 25873
супер@@ 25868
выде@@ 25866
рост 25865
Центральной 25858
Фри@@ 25856
рос@@ 25854
бурга 25853
возле 25852
A@@ 25849
бази@@ 25844
жской 25840
зия 25838
совершенно 25830
своем 25827
никова 25792
сопровожда@@ 25787
слож@@ 25786
женат 25772
торговли 25771
видео@@ 25770
Старо@@ 25768
емым 25768
улиц 25767
начались 25760
проек@@ 25754
национальных 25743
Церкви 25734
M 25732
вшими 25727
норма@@ 25713
нных 25710
являлась 25705
скорости 25701
опис@@ 25700
редко 25699
текст 25696
сформирова@@ 25694
активных 25691
боевой 25690
Пор@@ 25685
поражения 25681
чек 25674
открытия 25666
сложности 25664
Главный 25658
испан@@ 25657
Авто@@ 25656
Ис@@ 25652
судов 25643
руя 25638
оказались 25637
позволило 25632
вных 25624
холодного 25622
кса 25614
рая 25609
присоединился 25603
щими 25569
ковской 25562
мия 25561
идёт 25556
тысячи 25556
гну@@ 25555
уро@@ 25552
выпуска 25544
летней 25531
бов 25528
откуда 25526
устья 25526
Тю@@ 25516
форма@@ 25511
ведение 25505
Нью@@ 25501
шах@@ 25495
Армении 25492
95 25487
кост@@ 25486
районы 25483
предло@@ 25482
городских 25481
Кле@@ 25480
размер 25480
применения 25473
огонь 25457
век 25436
сама 25436
света 25434
поста@@ 25425
сверх@@ 25425
этап 25414
Й@@ 25413
Святой 25406
тическое 25398
польской 25387
Дон@@ 25381
произ@@ 25377
материалы 25373
национальный 25372
границе 25367
физики 25363
носи@@ 25357
кон 25356
ранен 25355
Евро@@ 25353
вторая 25347
мора@@ 25346
проектов 25335
ун 25334
научный 25331
дар 25328
фре@@ 25328
владения 25326
канал 25326
Ау@@ 25323
Пен@@ 25312
родо@@ 25299
вил 25293
заключ@@ 25287
оборо@@ 25286
ственном 25278
измен@@ 25275
забо@@ 25274
взя@@ 25262
основу 25262
альный 25255
награ@@ 25255
двора 25253
шин@@ 25246
деление 25244
гам 25232
распреде@@ 25231
Круп@@ 25221
1896 25215
глава 25212
марки 25208
составлял 25205
сыновей 25203
уча@@ 25197
жало@@ 25194
обоих 25186
стера 25186
государство 25184
письмо 25184
1880 25177
дина 25175
жено 25167
крестьян 25162
ственную 25162
Али 25161
приходится 25138
образо@@ 25133
лью 25129
сно@@ 25125
результатом 25113
Бого@@ 25111
считают 25110
уничто@@ 25106
кантона 25101
награды 25099
Поло@@ 25098
смерть 25098
Вал@@ 25091
доступ@@ 25089
гор 25072
Щ@@ 25069
действует 25067
комитет 25066
банка 25058
хода 25055
эй 25055
вне 25052
Гали@@ 25050
ВС 25049
Шар@@ 25045
оружие 25043
мощ@@ 25036
королев@@ 25035
ек@@ 25030
газете 25029
поле@@ 25025
берга 25020
гло@@ 25015
нё@@ 25013
министром 25011
O@@ 25010
езд 25009
искус@@ 25008
Эд@@ 25000
психо@@ 24999
ген 24997
восемь 24989
расстре@@ 24976
лист 24971
представляют 24970
соб@@ 24970
нией 24962
французской 24962
Россию 24959
влия@@ 24950
нена 24949
человеком 24946
1899 24937
метод 24933
личе@@ 24922
ляются 24922
источников 24914
говорил 24911
вопросы 24899
пер 24893
женщина 24892
тыми 24892
такими 24889
1898 24887
вен 24872
автомоби@@ 24869
неуда@@ 24862
щён 24859
люб@@ 24857
to 24854
активности 24847
ссия 24844
Пара@@ 24843
Песня 24843
гото@@ 24841
опера@@ 24841
старшего 24838
речной 24832
флот 24822
лес 24812
известны 24795
назва@@ 24793
открыта 24792
стрел@@ 24787
дли@@ 24781
Между 24778
ар 24774
работой 24773
зрителей 24761
лений 24752
пру@@ 24731
использовались 24726
народных 24725
завер@@ 24719
призван 24712
x 24710
поводу 24704
длитель@@ 24703
сена 24702
самолёт 24698
сного 24697
пи 24674
уника@@ 24673
Алексеевич 24665
пары 24663
нало@@ 24659
реш@@ 24653
губернатора 24650
Фёдорович 24646
ствам 24639
существование 24637
оставил 24627
зер 24610
ситуации 24609
дати@@ 24603
Сю@@ 24602
вызва@@ 24590
ежегодно 24587
медалью 24586
йки 24585
программа 24585
ляр@@ 24577
Абсолютная 24572
расска@@ 24571
высотой 24569
вому 24561
звёзд 24558
тремя 24558
Расположена 24556
76 24552
бек 24542
стей 24533
военную 24532
влиянием 24529
среды 24529
эти@@ 24529
62 24528
побережье 24523
предприятие 24516
Клубная 24511
убит 24511
сар@@ 24509
Северная 24502
использует 24501
использовал 24498
исполня@@ 24497
вообще 24492
кафедрой 24487
дзе 24483
лон 24479
дский 24478
носители 24478
тка 24471
известным 24462
Государственного 24461
Тол@@ 24458
боро@@ 24451
рисо@@ 24440
пило@@ 24438
Ян 24428
лья@@ 24421
статье 24418
ьев 24409
Доктор 24407
изображения 24407
Гран 24393
другого 24389
индивиду@@ 24380
отметил 24372
изучения 24365
чемпиона 24364
железнодорожной 24354
выступать 24352
допол@@ 24351
льности 24351
фу 24344
ляли 24340
джи 24338
известность 24331
задачи 24328
1870 24324
ёл 24324
Елена 24321
нического 24319
состояния 24319
1@@ 24312
Лиги 24312
прибли@@ 24310
лока@@ 24301
ющейся 24296
Распространение 24293
руководителем 24293
1860 24290
куп@@ 24289
способности 24285
сп@@ 24283
сей@@ 24280
маном 24278
четырёх@@ 24276
плав@@ 24264
смогли 24263
старшим 24259
жений 24256
причинам 24255
тию 24249
доход 24248
бель 24246
социальной 24230
причине 24219
лесо@@ 24216
ственными 24215
72 24213
север 24212
представлена 24197
промышлен@@ 24196
нес 24195
такое 24195
льское 24194
повы@@ 24184
H@@ 24180
АО 24180
рас 24172
ряде 24169
домо@@ 24163
мей@@ 24159
n 24157
бами 24157
оне 24146
Джордж 24144
плей 24136
суб@@ 24136
лучше 24131
плане 24130
Состав 24122
лово 24121
ую 24120
Сло@@ 24117
форд 24113
творчества 24112
приобре@@ 24106
годами 24103
Транспорт 24100
командование 24096
устанавли@@ 24096
Швейцарии 24080
стены 24080
службе 24078
внеш@@ 24075
оказалась 24072
миро@@ 24070
шёл 24070
генера@@ 24069
реали@@ 24069
общественной 24061
начина@@ 24056
договор 24055
греб@@ 24051
представитель 24051
устройство 24051
онов 24049
Тра@@ 24047
наследия 24045
аналоги@@ 24038
любви 24034
1895 24030
G 24023
тивной 24020
исто@@ 24019
сумел 24005
дорог 24004
дре@@ 24002
капитана 24001
ительная 23997
лечения 23997
напа@@ 23996
причиной 23991
чере@@ 23989
дного 23975
регули@@ 23967
партию 23956
рат 23956
опреде@@ 23938
меди@@ 23937
вили 23936
скорее 23934
ай@@ 23931
объ@@ 23925
Север@@ 23924
дру@@ 23922
участвовали 23917
нос 23913
Уол@@ 23908
л. 23906
тил 23903
выска@@ 23897
необходимости 23895
класс 23894
неу@@ 23887
столицы 23885
программ 23874
верхней 23872
переехала 23867
академию 23862
дской 23859
специально 23858
лучший 23850
чита@@ 23848
Альбом 23843
оборудования 23843
прибы@@ 23842
домашних 23839
сериал 23828
автомати@@ 23827
жёст@@ 23826
годам 23820
подвер@@ 23818
обла@@ 23813
обре@@ 23812
остаётся 23806
пола 23788
охраны 23780
успе@@ 23779
пры@@ 23778
большинства 23777
крови 23771
Большого 23760
в. 23754
бах 23753
распространение 23752
Вит@@ 23740
рит 23740
легко 23739
Мей@@ 23734
случаев 23734
цу@@ 23728
нор@@ 23726
базы 23704
участии 23702
бассейновому 23698
расположенный 23691
сили 23691
энерге@@ 23678
вблизи 23675
сообщения 23674
отношению 23673
Петро@@ 23671
необы@@ 23670
виде@@ 23669
епископа 23669
товых 23669
морского 23662
вей@@ 23639
гимназии 23633
выполня@@ 23632
обратно 23632
ковый 23625
Обо@@ 23617
сюже@@ 23614
жо@@ 23612
учи@@ 23609
третьей 23608
хол@@ 23608
демокра@@ 23599
800 23593
Андре@@ 23587
организо@@ 23578
Институт 23572
y 23568
чемпионов 23568
рекорд 23567
селе@@ 23564
отношение 23561
Киеве 23557
муж@@ 23556
программу 23556
всеми 23547
Ц 23546
ался 23545
Пол@@ 23543
аэропорт 23540
щиком 23540
одному 23539
встречи 23537
труд@@ 23533
парламента 23526
плана 23525
дове@@ 23521
Бей@@ 23507
подряд 23501
дон 23497
восто@@ 23496
стихи 23486
технологий 23486
деятельностью 23481
нями 23476
волость 23473
школ 23471
женных 23469
собор 23469
чар@@ 23467
включён 23466
Киев 23465
неделю 23461
чами 23459
Кры@@ 23453
сторон@@ 23451
дова 23439
качества 23437
превы@@ 23429
спец@@ 23427
рассказывает 23426
герман@@ 23423
жела@@ 23421
Израиля 23412
мента 23407
развитию 23400
тивные 23400
Дэ@@ 23399
фоне 23396
Луи 23388
регулярно 23380
щением 23379
роты 23369
сбор@@ 23369
тив 23362
населённый 23360
защит@@ 23359
тив@@ 23354
братом 23351
Начиная 23350
реша@@ 23350
комму@@ 23347
подпис@@ 23345
языки 23329
муниципальных 23328
использу@@ 23319
нис 23317
правитель@@ 23317
временно 23307
шена 23304
сел 23301
женные 23300
дивизиона 23299
фикации 23297
предложение 23296
Ван 23295
применение 23295
Президента 23291
объеди@@ 23289
шает 23289
проводи@@ 23286
отдельные 23278
заслуги 23276
автор@@ 23273
стадии 23271
руб@@ 23267
семи 23267
нный 23260
ходит 23257
заведующий 23252
дне@@ 23251
сохраня@@ 23251
Кин@@ 23250
зная 23247
Мир@@ 23246
рить 23244
чие 23241
инициативе 23231
герба 23230
выпустил 23228
Петр 23223
конкурса 23220
63 23217
Сал@@ 23214
выступа@@ 23208
местной 23208
тво@@ 23208
артиллерии 23197
цей 23191
классов 23190
ау@@ 23189
дена 23170
Было 23169
постройки 23163
специализи@@ 23160
Дэвид 23155
призёром 23148
начался 23147
будущего 23137
трех 23135
контроля 23130
американская 23129
схо@@ 23120
торов 23120
недели 23114
крепость 23111
m 23110
тными 23091
героя 23090
ГУ 23070
ана@@ 23064
развед@@ 23054
щается 23054
сотрудников 23042
автомобилей 23033
началь@@ 23033
сестра 23033
СС 23032
информацию 23031
шла 23030
Камен@@ 23028
началу 23021
Африки 23005
пой@@ 23003
Алексе@@ 23002
сообщил 22992
бир@@ 22990
голланд@@ 22990
картина 22986
лию 22978
ремон@@ 22977
1859 22965
Китае 22965
знамени@@ 22965
ждении 22962
Фёдор 22958
музыкальных 22958
вертика@@ 22956
Польше 22955
ковая 22955
уса 22952
ОАО 22951
E 22941
поезда 22940
учебных 22927
стр 22925
опыт 22917
тором 22915
осуществляется 22909
ительным 22905
ители 22903
переведён 22899
льник 22889
Анны 22888
неактивными 22883
выход@@ 22877
серию 22877
завершения 22876
стран@@ 22874
порядке 22867
выступала 22862
оцени@@ 22861
высшего 22860
муниципалитет 22854
производи@@ 22850
братьев 22849
многочисленных 22846
земле@@ 22844
жский 22843
сообщение 22841
гает 22836
убийства 22835
собра@@ 22831
Олег 22824
рана 22821
минера@@ 22815
Пат@@ 22810
джа 22808
празд@@ 22806
филь@@ 22805
вии 22801
принима@@ 22797
едино@@ 22795
батальон 22793
йных 22789
Бон@@ 22778
информация 22776
# 22768
NGC 22765
объявлено 22764
рово 22763
побережья 22762
местом 22761
решили 22758
Сергеевич 22754
чает 22748
годом 22731
Мал@@ 22729
единица 22722
тель 22711
Интер@@ 22709
памятника 22709
наконец 22705
емое 22697
обе 22697
сотрудник 22696
VIII 22695
зма 22694
хра@@ 22691
тёплого 22684
герой 22682
изма 22676
ила 22666
отцом 22662
цы@@ 22661
59 22660
старо@@ 22653
ума 22652
среднего 22647
зву@@ 22642
тить 22638
продолж@@ 22634
ракет@@ 22629
МГУ 22627
Крым 22626
61 22623
ожи@@ 22612
погибли 22611
Музей 22610
пытался 22609
известной 22604
1892 22599
дела@@ 22598
оценки 22594
русская 22585
британ@@ 22584
выйти 22582
t 22581
редактор 22580
водохозяйственный 22578
Анти@@ 22572
продуктов 22563
наде@@ 22562
лизо@@ 22558
Бала@@ 22557
ок 22552
юр@@ 22552
прямо 22549
изуча@@ 22548
Кен@@ 22545
дра 22545
Риме 22544
хин 22544
сохрани@@ 22526
стый 22526
закона 22525
символ 22525
мнение 22524
стской 22516
Стре@@ 22514
свойства 22510
признан 22505
графии 22504
слав@@ 22499
украинский 22498
дворе 22497
фи 22488
вия 22487
структуры 22483
соглашение 22482
выпадает 22481
факт 22479
ровая 22476
принимать 22475
заве@@ 22470
показал 22468
технологи@@ 22468
оса@@ 22466
мной 22465
Около 22463
редактором 22463
вся@@ 22452
66 22438
УССР 22434
ушёл 22424
кович 22417
лял 22405
Одним 22403
Последний 22402
Шо@@ 22398
дера 22398
орудия 22398
зав@@ 22395
шли 22394
Роман 22388
лесов 22384
последнее 22375
форм 22371
мович 22368
Улица 22360
ятся 22354
гать 22341
сериале 22340
Нача@@ 22339
дво@@ 22339
моста 22335
строительстве 22329
брак 22325
выступлений 22322
рассчит@@ 22315
Сай@@ 22314
новом 22306
осуществ@@ 22306
объект 22304
Была 22303
гии 22302
брака 22298
Ива@@ 22293
подразделения 22289
ходят 22282
битвы 22281
Берлине 22280
T 22275
библиотеки 22267
достиг 22267
лез@@ 22264
проходят 22264
слова@@ 22264
20@@ 22263
Образование 22263
Только 22259
оперы 22248
ровании 22244
английского 22243
позволя@@ 22239
домой 22236
New 22231
Латвии 22230
выпустила 22227
туда 22227
ровалась 22224
Пло@@ 22210
царь 22210
посту 22208
ллы 22207
Ката@@ 22206
зато@@ 22200
применя@@ 22199
кну@@ 22197
нико@@ 22196
ально 22194
Существует 22187
собира@@ 22187
горо@@ 22185
ровались 22184
ённую 22184
лист@@ 22183
поль 22181
зин 22180
лета 22163
вооруж@@ 22159
шев 22159
сосед@@ 22145
берега 22144
диалек@@ 22144
орудий 22143
логия 22137
жд@@ 22128
объедин@@ 22124
Вторая 22116
мужа 22115
али@@ 22114
вся 22114
фов 22113
угро@@ 22102
миллиона 22099
командования 22084
тием 22084
Ран@@ 22082
вера 22082
блю@@ 22081
вес 22071
68 22065
Зем@@ 22064
жая 22063
жным 22052
держа@@ 22044
либера@@ 22044
били 22036
общественного 22021
Сви@@ 22015
десан@@ 22003
общественных 22002
НКВД 22001
землю 22001
ориенти@@ 22000
Казахстан 21997
линского 21994
1885 21992
ловой 21991
нению 21989
пля@@ 21984
храни@@ 21984
Речной 21982
сай@@ 21980
пришёл 21973
най@@ 21960
созданы 21960
око@@ 21957
Категория 21956
возвращения 21956
специалистов 21954
год@@ 21946
Шотландии 21942
заместителя 21942
местные 21941
композитор 21928
дь 21917
ждением 21917
Иоанна 21910
дить 21900
атаки 21898
ната 21894
ресурсов 21894
запись 21893
Юр@@ 21891
Остро@@ 21888
ренко 21886
пара 21874
первенстве 21867
газета 21856
музыкальной 21854
связанных 21852
точ@@ 21852
сро@@ 21847
Крыма 21846
типи@@ 21846
ид@@ 21843
ведёт 21835
кали@@ 21835
денег 21826
Ир@@ 21823
служи@@ 21823
лод@@ 21821
прикры@@ 21818
типов 21818
Бро@@ 21814
альбоме 21813
способность 21811
образований 21797
Выступал 21785
международной 21785
император 21781
пользовате@@ 21780
каждом 21778
ющаяся 21765
правил 21762
пато@@ 21755
евро 21754
железнодорожная 21751
проиграл 21749
мам 21745
большинстве 21744
Гам@@ 21742
Китай 21738
стиля 21735
од@@ 21733
полной 21733
стен 21730
максимум 21726
бин 21725
собрание 21725
наличие 21724
Сти@@ 21721
грузо@@ 21717
сочи@@ 21717
ёв 21712
отобра@@ 21711
ряды 21708
покров@@ 21696
военное 21694
данном 21692
Ок@@ 21682
... 21678
Аль 21662
Бара@@ 21659
Часть 21651
Расположен 21650
ситуация 21642
актёр@@ 21631
Лит@@ 21615
молодой 21615
йскую 21599
вели 21594
низи@@ 21594
67 21592
стой@@ 21587
сообщества 21585
рена 21583
Том@@ 21578
людьми 21578
подру@@ 21577
упомина@@ 21577
Billboard 21567
тяже@@ 21567
ад@@ 21566
копи@@ 21563
участке 21558
головы 21554
рос 21549
фар@@ 21540
кандидата 21539
Изначально 21535
лев 21527
психологи@@ 21527
130 21524
ённом 21520
атель 21517
ходя@@ 21516
открыл 21512
1894 21505
рович 21505
Золотой 21503
королём 21503
наград 21496
Эм@@ 21495
исла@@ 21494
Санта 21492
десять 21489
занимается 21486
установки 21484
летия 21482
препят@@ 21477
вай@@ 21476
оры 21476
ходить 21476
средний 21475
выход 21472
установлена 21467
шко 21467
остав@@ 21462
четвер@@ 21461
* 21458
1889 21453
сам@@ 21452
тс 21449
пов@@ 21447
скло@@ 21447
радика@@ 21443
кита@@ 21442
ствие 21440
лам@@ 21437
вам 21435
независимость 21434
значи@@ 21431
тивный 21431
дел@@ 21424
приказ 21422
Португалии 21419
империя 21411
Учился 21405
Далее 21398
Филип@@ 21394
использовался 21392
ьер 21391
общем 21389
целях 21389
штате 21389
освобо@@ 21388
on 21387
колони@@ 21377
лик 21375
Округ 21374
ческому 21374
гора 21372
учеников 21369
IX 21365
режиссёром 21364
подбассейн 21359
1893 21357
лейтенанта 21354
дей 21353
минима@@ 21353
называли 21347
социальных 21342
двое 21332
сток 21323
женный 21317
поддержи@@ 21314
орденами 21311
раство@@ 21309
чила 21309
кана@@ 21304
иностран@@ 21293
настоя@@ 21293
чай@@ 21291
Ско@@ 21288
альтерна@@ 21288
технического 21288
Родилась 21286
соору@@ 21275
родной 21274
про 21268
Баку 21266
Моло@@ 21264
чемпионатов 21264
изображение 21256
показатель 21255
74 21253
Майкл 21247
нены 21246
обуча@@ 21245
том@@ 21245
Генрих 21238
решает 21234
коммер@@ 21225
щ 21224
мар 21217
няется 21213
престол 21212
методы 21211
редакции 21211
Шах@@ 21209
ент@@ 21203
ибн 21203
кский 21203
пари@@ 21201
перво@@ 21199
вит@@ 21195
кисло@@ 21195
Нового 21194
пределами 21189
припис@@ 21174
восстание 21171
сыграла 21171
J@@ 21170
Эстонии 21165
чуть 21164
Св 21159
соединения 21153
сцены 21146
высоких 21143
поко@@ 21131
танков 21131
1878 21130
1891 21129
цин@@ 21125
правах 21119
шему 21116
разработке 21111
ваясь 21108
тила 21103
бит 21099
жают 21098
укреп@@ 21095
изучал 21094
союз@@ 21092
весной 21086
дор 21081
упомяну@@ 21080
пора@@ 21075
Гей@@ 21072
обнов@@ 21068
публи@@ 21063
рика 21061
зим@@ 21059
Андреевич 21050
дене@@ 21049
направление 21049
Спи@@ 21047
наци@@ 21044
лев@@ 21040
атив@@ 21039
департамента 21038
использовали 21038
интернет 21034
соединение 21031
d 21025
метри@@ 21025
оригина@@ 21025
захват@@ 21024
недель 21016
матчи 21011
клубов 21009
бое@@ 21008
нической 21008
умерла 21004
ура@@ 20994
World 20993
офи@@ 20991
научного 20982
риа@@ 20976
стил 20973
увеличи@@ 20968
тыся@@ 20966
полно@@ 20965
провести 20965
переговоры 20963
Устье 20957
ствовать 20954
гораздо 20948
возглавля@@ 20944
обладает 20943
ирланд@@ 20939
роста 20937
Государственный 20931
крестьянской 20931
эпоху 20930
участники 20921
ству@@ 20920
азербайджан@@ 20919
судеб@@ 20917
бота@@ 20909
ющем 20902
вец 20898
Законом 20890
дано 20890
Ат@@ 20881
Республике 20874
источниках 20869
соответствует 20864
рение 20862
самые 20861
кратный 20860
фло@@ 20860
доста@@ 20854
тическим 20852
музыка 20851
памятников 20848
оказывается 20846
часа 20837
12@@ 20836
ведущих 20835
настолько 20831
хор@@ 20828
номинации 20825
одержал 20825
горя@@ 20818
Славы 20814
насчитывалось 20814
мии 20813
лагерь 20809
Павлович 20808
мся 20806
вернулась 20798
каса@@ 20789
понима@@ 20788
связан@@ 20787
мости 20778
участка 20776
точно 20775
ванная 20774
Теле@@ 20771
гвардейской 20767
никаких 20765
Павла 20763
метро 20762
XI 20761
операций 20761
эффектив@@ 20756
делать 20751
ыш@@ 20747
массо@@ 20746
помощником 20746
обслужи@@ 20744
приходилось 20741
евна 20739
формирова@@ 20737
масштаб@@ 20735
ква@@ 20729
Красный 20723
нашей 20721
партизан@@ 20721
зывали 20717
лс 20713
сражении 20711
дя 20697
режима 20697
син 20693
обу@@ 20690
тации 20686
декора@@ 20680
построено 20678
ьер@@ 20676
I@@ 20669
Сибири 20665
частных 20665
мина@@ 20662
принимали 20660
милли@@ 20656
зва@@ 20655
обязате@@ 20655
Ер@@ 20653
участ@@ 20652
гена 20650
дала 20649
мяг@@ 20648
орга@@ 20647
рал 20637
Дру@@ 20634
физической 20632
зам@@ 20631
считать 20630
Ря@@ 20626
йный 20626
столь 20625
высокого 20624
площадью 20614
Григорьевич 20607
пин@@ 20606
Фин@@ 20605
основного 20598
транспор@@ 20590
сем@@ 20588
Спустя 20584
96 20583
плотность 20582
разли@@ 20582
ющегося 20576
Украинской 20572
истреб@@ 20572
йскому 20564
ссии 20559
зарегистри@@ 20545
работников 20544
вно 20543
газа 20543
определения 20539
Совет@@ 20529
девя@@ 20529
боевые 20528
Ари@@ 20525
ссон 20524
измени@@ 20522
остались 20520
паралле@@ 20514
Фридрих 20509
опер@@ 20507
вернуть 20503
поня@@ 20503
чат@@ 20502
ежегод@@ 20498
средне@@ 20493
заняли 20489
Официальный 20484
самостоятельно 20484
Сезон 20482
концов 20482
Силь@@ 20474
Будучи 20472
заключения 20465
опас@@ 20465
лёгкой 20456
располага@@ 20456
поколения 20453
третье 20453
Обще@@ 20452
99 20449
Два 20448
пери@@ 20445
Ранее 20443
перешла 20443
Ля@@ 20442
Жа@@ 20440
завоевала 20439
конкурсе 20439
пост@@ 20439
ито@@ 20437
реализации 20432
Псковской 20430
существуют 20430
распа@@ 20429
хочет 20428
собственной 20427
банк 20425
71 20422
фан@@ 20421
распространя@@ 20411
един@@ 20407
образовате@@ 20406
Бру@@ 20398
ока@@ 20387
мери@@ 20383
связаны 20383
вклю@@ 20382
81 20380
1886 20378
руководства 20375
тан 20374
гибели 20370
организовал 20366
чества 20364
последующие 20361
Происхождение 20357
няет 20352
пока@@ 20351
Каль@@ 20350
1864 20342
бурге 20340
общим 20340
созданию 20340
агре@@ 20339
вшую 20332
благотворитель@@ 20328
сексу@@ 20324
Поль@@ 20323
духов@@ 20318
яна 20317
действительно 20314
маги@@ 20314
экономического 20314
предоставля@@ 20311
1862 20310
помо@@ 20309
выпуск@@ 20307
анализа 20303
составля@@ 20299
остальных 20294
экономической 20294
шина 20293
чему 20292
хозяй@@ 20290
110 20289
корабли 20289
построены 20288
ек 20285
менты 20282
восточнее 20275
высоты 20271
вшимся 20268
скла@@ 20267
Северного 20266
выпущена 20264
мел@@ 20263
губерния 20262
мера 20260
ланд@@ 20254
зависит 20249
искусство 20240
метро@@ 20238
700 20231
защитник 20231
Российская 20229
Уи@@ 20229
Сен@@ 20226
обозна@@ 20224
дана 20221
ковском 20220
военным 20217
нив 20217
гля@@ 20209
шел 20207
автодороги 20204
Пле@@ 20199
получи@@ 20197
профессиональный 20197
Соло@@ 20193
Италия 20190
Республика 20186
Соб@@ 20185
Валерий 20181
холодной 20180
Никола@@ 20179
Юнайтед 20179
1887 20178
художественный 20176
U 20163
майора 20162
включают 20156
бывшей 20153
ря 20147
удар 20143
бил 20139
фонда 20139
поэта 20136
вел 20135
чку 20135
Беларусь 20128
западнее 20128
минуте 20122
общее 20120
дворец 20119
69 20117
ленным 20116
составили 20116
Черно@@ 20112
Премьер 20109
Лондон 20106
пехоты 20100
краси@@ 20099
тел 20091
выставки 20090
регион 20089
Ричард 20087
проводились 20081
экологи@@ 20080
1877 20076
архитектор 20075
Мол@@ 20071
82 20069
нные 20067
церемонии 20066
ствен@@ 20065
гера 20062
печати 20062
знаком@@ 20060
представлял 20059
марок 20058
стки 20058
ограничен@@ 20057
личного 20049
долго 20047
отправлен 20047
выдвину@@ 20046
Само@@ 20044
вла@@ 20044
Рабо@@ 20042
мани@@ 20042
рю@@ 20042
Бель@@ 20041
доби@@ 20040
версию 20036
лера 20035
маль@@ 20035
кот@@ 20031
Кали@@ 20029
Хер@@ 20029
материала 20028
чёт@@ 20022
нижней 20018
линский 20016
после@@ 20014
жем 20009
фильмы 20008
экипажа 20006
цель 19998
партий 19997
португа@@ 19992
условий 19992
подготовке 19990
альбомов 19989
окон@@ 19982
этапа 19976
Супер@@ 19974
победителем 19972
сельских 19968
ствовала 19962
самое 19960
состояла 19958
жки 19954
ранних 19952
она@@ 19950
нических 19949
прожи@@ 19949
пресс 19944
1812 19943
правление 19938
1861 19932
секретаря 19926
обозначения 19924
полный 19914
гар 19910
дила 19906
длину 19903
эксперимента@@ 19902
чан@@ 19898
98 19895
компанию 19891
Сергея 19888
тивного 19887
1500 19885
теку@@ 19883
осенью 19872
шением 19870
возраст 19866
баш@@ 19864
письма 19862
этно@@ 19861
лыми 19858
личности 19854
бои 19853
Румынии 19851
виду 19839
КОАТУУ 19835
рем 19834
геро@@ 19833
альная 19831
крупный 19830
семью 19829
связанные 19826
результатов 19824
существенно 19820
станций 19817
нная 19816
Ав@@ 19815
Кос@@ 19813
героев 19810
78 19809
стон 19803
Гражданской 19793
оформ@@ 19793
облада@@ 19789
смогла 19789
ванной 19785
японской 19785
Пя@@ 19784
окончила 19783
знания 19782
княже@@ 19780
дит 19779
связана 19778
88 19775
обсу@@ 19773
Верхняя 19771
Леонид 19768
област@@ 19764
российская 19755
архитектора 19750
учре@@ 19750
вавших 19747
башни 19740
чал 19738
Память 19733
соревнования 19733
развитии 19732
кторов 19730
P 19728
лом@@ 19726
1884 19724
ыва@@ 19724
водных 19723
закончил 19721
щено 19721
замка 19720
св 19719
делу 19718
находи@@ 19715
удоб@@ 19710
мыми 19706
единиц 19705
вве@@ 19696
австрали@@ 19695
нефте@@ 19694
Мартин 19690
оказалось 19681
1863 19680
здоровья 19673
Осенью 19669
фф 19668
ссу 19666
канад@@ 19658
границ 19655
находилось 19655
конечном 19654
гей@@ 19650
награду 19649
рев 19647
наме@@ 19645
обшир@@ 19640
потенци@@ 19631
моде@@ 19628
щина 19628
зат@@ 19627
преде@@ 19625
влияния 19624
властей 19618
ывает 19612
близ@@ 19611
Парижа 19607
Инфраструктура 19606
оккупации 19601
Windows 19598
здравоохранения 19594
лидеров 19591
содержание 19585
водой 19581
рак@@ 19581
стин@@ 19576
взры@@ 19574
окрестностях 19573
освя@@ 19572
Бере@@ 19571
указывает 19571
исследовате@@ 19570
вполне 19569
нат 19567
фестиваля 19566
артиллерий@@ 19563
конститу@@ 19560
Дра@@ 19558
зре@@ 19557
побед 19557
капита@@ 19555
возвращается 19553
гран@@ 19551
час 19547
употреб@@ 19546
Пин@@ 19545
сад@@ 19544
лекции 19543
судо@@ 19537
силь@@ 19536
Хосе 19533
мента@@ 19531
десяти@@ 19526
факультете 19526
руках 19518
методи@@ 19516
поп 19516
правительством 19515
простран@@ 19503
камен@@ 19500
родов 19499
языком 19498
физико 19490
приказал 19488
Ольга 19486
прошлом 19485
K 19480
гонке 19479
сохранились 19479
Золо@@ 19471
яд@@ 19471
трудо@@ 19467
задач 19465
останов@@ 19456
питания 19455
несколькими 19453
мини@@ 19449
лаборатории 19448
73 19447
You 19446
сва@@ 19443
отмечает 19440
туре@@ 19439
Югославии 19437
Доро@@ 19436
итальянский 19436
полковника 19435
рата 19435
истин@@ 19430
мп@@ 19428
Лев 19427
Королев@@ 19422
ас 19422
посвя@@ 19411
публикации 19411
жается 19410
ссе 19410
действиях 19409
страну 19409
получа@@ 19408
Бельгии 19407
лэ@@ 19406
Фар@@ 19403
стана 19399
Есть 19394
Music 19392
изменений 19389
шло 19387
сная 19382
участвовать 19380
зала 19377
колхоза 19374
популярность 19373
переводе 19363
канале 19360
Среднегодовая 19348
O 19346
рованным 19346
зуб@@ 19345
Оси@@ 19343
слы@@ 19340
вось@@ 19334
щи 19334
функциона@@ 19330
полку 19326
претен@@ 19326
предполага@@ 19309
автодороге 19307
77 19305
Сара@@ 19305
бизнес 19304
любовь 19302
автомобиль 19296
ствовали 19295
1888 19290
вные 19289
Демография 19287
Василь@@ 19285
небольших 19283
городском 19274
священ@@ 19274
конфликта 19270
мит@@ 19260
МВД 19255
документов 19253
классификации 19250
депутат 19247
одина@@ 19244
Строительство 19241
растения 19232
высо@@ 19231
экономических 19231
достигает 19226
ребёнка 19224
зало@@ 19221
аресто@@ 19212
23@@ 19201
Международной 19197
шению 19195
Несколько 19194
имена 19194
британский 19193
льство 19193
византи@@ 19192
цеп@@ 19186
окончате@@ 19184
гана 19183
причи@@ 19178
миссии 19177
целей 19174
Западного 19171
вила 19169
глаза 19167
поединке 19165
лицо 19162
наблю@@ 19162
Вой@@ 19160
води@@ 19156
мест@@ 19155
Инди@@ 19153
гео@@ 19153
ура 19147
клады@@ 19144
бить 19143
договора 19139
вив 19138
продолжает 19132
туры 19132
секретарём 19129
Численность 19128
ООО 19117
являлись 19111
политика 19104
опро@@ 19100
Эри@@ 19099
рь 19099
двигателя 19094
84 19091
контроли@@ 19091
критики 19082
кад@@ 19081
лови@@ 19079
Андрея 19077
герцо@@ 19073
министров 19072
ФК 19069
издате@@ 19068
длины 19061
учёных 19060
жёл@@ 19056
названа 19055
маши@@ 19053
гиган@@ 19052
провел 19049
музыкальный 19048
Три 19046
старин@@ 19046
ште@@ 19045
границу 19042
покуп@@ 19042
Гай@@ 19040
главой 19034
гли 19034
звании 19034
Компания 19033
колхоз 19031
трени@@ 19031
болгар@@ 19027
бор 19027
Миро@@ 19024
командующего 19024
борьбу 19023
снима@@ 19021
долгое 19019
йцев 19019
уме@@ 19017
порядок 19011
есте@@ 19008
Красную 19006
коллекции 19001
Бек@@ 19000
Ст@@ 18995
происхождение 18991
университе@@ 18990
лиш@@ 18985
пита@@ 18981
святой 18981
темы 18981
пассажиров 18980
различными 18980
помочь 18975
британской 18974
дворца 18972
системой 18970
называ@@ 18961
обществе 18961
жден@@ 18956
журналист 18954
Калифорния 18953
Росси@@ 18953
труд 18952
надцать 18951
думы 18943
СП@@ 18942
ходил 18938
тропи@@ 18936
рес 18934
Кот@@ 18931
руко@@ 18929
КНР 18926
ад 18926
Творчество 18919
Екатерина 18917
снят 18917
Михайлов@@ 18916
устраи@@ 18911
столице 18909
уволен 18909
говорить 18908
белых 18907
губер@@ 18904
ментом 18896
пространства 18895
очи@@ 18892
персона@@ 18891
речь 18887
Были 18884
процессов 18884
Хор@@ 18883
английском 18883
стить 18879
дипло@@ 18878
цкое 18874
Бол@@ 18873
памят@@ 18873
уру 18872
воору@@ 18869
якобы 18866
фестиваль 18862
инструмента@@ 18859
кафедре 18857
линг 18857
перевод 18857
Усть 18853
кустар@@ 18849
кирпи@@ 18844
писа@@ 18842
побед@@ 18839
Влади@@ 18838
Откры@@ 18838
Норвегии 18837
Комитета 18836
внимания 18830
слава 18830
мастера 18829
Федера@@ 18826
избе@@ 18821
материаль@@ 18818
92 18817
ланд 18812
А.@@ 18799
премьера 18798
ваний 18795
зах 18793
экра@@ 18793
ровской 18790
церков@@ 18790
Основной 18789
обнару@@ 18779
поставил 18779
нском 18773
двор 18771
воспит@@ 18769
поста 18757
заслуженный 18751
ожида@@ 18751
переход 18751
температуры 18751
водном 18745
e 18744
дебю@@ 18741
86 18739
ссы@@ 18737
материал 18736
ступен@@ 18731
демо@@ 18727
Каждый 18722
1879 18719
Международного 18717
ань 18717
цева 18717
эксплуатацию 18717
предлага@@ 18716
Иногда 18710
последним 18707
политического 18705
исход@@ 18702
Имеет 18696
открыто 18695
специалист 18695
Георгия 18690
главную 18690
рея 18688
план@@ 18687
живёт 18685
соединя@@ 18685
вного 18681
объём 18680
мол@@ 18678
Центрального 18671
постанов@@ 18664
подвод@@ 18662
рабочего 18660
октябрь 18659
пересе@@ 18657
революцион@@ 18656
1873 18655
белые 18653
родителей 18653
австри@@ 18648
жали 18645
контр@@ 18641
нарко@@ 18637
взять 18634
Среднегодовое 18633
выполнение 18631
румы@@ 18626
перемен@@ 18625
щении 18624
дания 18623
отсутствует 18621
писать 18621
b 18620
вну@@ 18617
повторя@@ 18615
произведение 18612
Ден@@ 18610
мощностью 18607
женского 18605
избран@@ 18605
штат@@ 18601
Воро@@ 18600
используя 18600
документа@@ 18584
стратеги@@ 18582
ровку 18581
Але@@ 18579
Брай@@ 18578
Флаг 18576
защиту 18576
Крас@@ 18570
Ленин@@ 18570
консерватории 18567
деления 18563
1882 18562
известная 18552
формирование 18552
вет 18550
требует 18550
Ссылки 18548
бывших 18548
лович 18547
великого 18546
методов 18546
среде 18546
цо 18546
вооружение 18540
вока@@ 18539
обеих 18538
Свя@@ 18535
герцог 18532
речи 18532
вери@@ 18530
создано 18523
оном 18514
ьями 18512
реестре 18511
Одна 18508
зда@@ 18508
Голу@@ 18506
мую 18506
пами 18506
ждению 18504
альное 18502
органи@@ 18501
зен 18497
значительной 18497
Верх@@ 18492
Нидерландов 18489
студен@@ 18487
шести@@ 18487
провинцию 18485
йной 18482
географи@@ 18481
тана 18480
эр 18480
Международный 18478
Звезда 18476
Мать 18476
существова@@ 18476
дении 18472
магни@@ 18468
оборудо@@ 18468
социально 18467
городу 18466
Весной 18462
активное 18459
quot 18458
проводится 18458
гате@@ 18454
назначил 18453
лец 18450
акций 18449
персонажа 18448
женной 18447
Каза@@ 18446
передан 18443
День 18442
пони@@ 18442
Цар@@ 18440
тт 18438
войн 18437
кской 18437
меся@@ 18435
Ио@@ 18432
шается 18432
ник@@ 18427
рых 18425
цким 18424
бас 18421
нг 18420
тий 18416
распространения 18411
ющему 18410
хло@@ 18407
ино@@ 18401
присут@@ 18399
выращи@@ 18394
вой@@ 18386
помог 18382
види@@ 18380
нного 18380
педагог 18380
шил 18378
кандидатов 18372
разведки 18372
ПВО 18368
оборудование 18362
мело@@ 18360
политик 18360
востока 18349
проявля@@ 18349
образует 18338
Анто@@ 18334
Антонио 18329
Ле 18327
передал 18327
убий@@ 18326
ителям 18323
Здание 18319
запада 18317
97 18314
кти@@ 18314
Бир@@ 18311
воин@@ 18305
мет 18305
Мари 18302
мона 18300
продажи 18295
Вай@@ 18290
начать 18290
культурного 18288
тировал 18287
исторической 18283
учителем 18282
докторскую 18281
наблюда@@ 18280
строения 18278
команди@@ 18275
ёр 18275
шириной 18273
монастыре 18272
дию 18268
Слу@@ 18260
будди@@ 18260
зон 18255
театра@@ 18253
угле@@ 18252
Де 18250
сопер@@ 18249
биологи@@ 18248
полное 18248
провела 18246
текста 18244
творчество 18238
Мя@@ 18237
последовате@@ 18236
восстанов@@ 18233
работах 18233
члена 18230
экземпляров 18227
Дмитриевич 18225
дата 18220
Роди@@ 18212
черты 18207
вавший 18206
фирмы 18203
пос@@ 18194
подозре@@ 18193
льские 18192
включены 18186
предлагает 18186
длится 18183
штейн 18183
залива 18180
полож@@ 18180
цикл 18180
выставке 18179
вшееся 18177
мель@@ 18177
нит 18177
фестивале 18177
Дол@@ 18176
Лауреат 18175
работают 18173
стя@@ 18173
прежнему 18172
Пау@@ 18168
дивизионе 18167
Северный 18166
манов 18160
мени@@ 18159
прихода 18155
Центра@@ 18154
³ 18150
чук 18149
Иса@@ 18146
спортивной 18146
Основная 18145
Ленинградской 18144
голову 18142
заинтересо@@ 18140
учреждения 18138
попол@@ 18136
отзывы 18134
1881 18131
зо 18124
парке 18117
путей 18117
хов@@ 18117
родствен@@ 18116
анализ 18113
выжи@@ 18109
прису@@ 18106
режим 18106
Ранние 18103
далеко 18096
способ 18092
распростран@@ 18091
членами 18089
объекты 18087
тическую 18086
1871 18079
дут 18079
Нан@@ 18071
сумму 18071
очеред@@ 18068
пропа@@ 18068
художественной 18068
сыгра@@ 18067
Ему 18066
носить 18054
исправ@@ 18050
покинуть 18044
Тара@@ 18040
немцев 18040
огра@@ 18039
хокке@@ 18038
достато@@ 18037
сержант 18037
йт 18036
вли@@ 18035
участником 18029
внешней 18028
успехом 18028
жив 18024
1876 18019
Ана@@ 18011
юн@@ 18011
медицинских 18007
круг 18003
посетил 18003
вооружённых 18002
альным 18000
подготовку 17999
случа@@ 17999
Джо 17998
нился 17998
откло@@ 17997
общая 17996
областей 17992
стадионе 17992
территорий 17992
выпол@@ 17990
надо 17990
et 17988
Георги@@ 17987
Лы@@ 17986
3,@@ 17985
жизнен@@ 17982
консуль@@ 17982
линию 17979
дора 17978
лялись 17978
управлением 17978
заказ@@ 17968
прибыли 17961
граждан@@ 17956
первонача@@ 17956
автономного 17954
студийный 17951
Оста@@ 17947
большеви@@ 17947
горизонта@@ 17946
край@@ 17946
христиан@@ 17939
деревню 17937
тирова@@ 17937
Критика 17936
источники 17936
аэро@@ 17935
западном 17935
бежал 17932
лагеря 17932
танковой 17928
документы 17926
лёв 17926
бума@@ 17925
браке 17909
гун@@ 17909
специфи@@ 17909
арти@@ 17904
Проект 17900
надцати 17895
использоваться 17893
скорост@@ 17891
любитель@@ 17889
международный 17887
Главного 17881
Мы@@ 17881
Сталин@@ 17880
левый 17880
тек@@ 17880
долго@@ 17874
невозможно 17869
стра 17863
Пол 17862
Хал@@ 17860
моне@@ 17860
реб@@ 17859
тут 17859
вар 17858
классе 17858
обви@@ 17849
Эли@@ 17848
медицинской 17847
росси@@ 17845
олимпи@@ 17843
потеря@@ 17839
южнее 17839
соблю@@ 17836
потерял 17831
гия 17827
дению 17823
Ярослав@@ 17820
возобнов@@ 17815
европей@@ 17815
рынке 17811
избира@@ 17809
ждать 17805
дка 17804
Дж 17803
друзей 17799
хин@@ 17794
Результаты 17782
ловка 17780
нельзя 17778
87 17777
сочета@@ 17777
целе@@ 17776
привели 17775
компози@@ 17774
никто 17772
номера 17769
Пру@@ 17768
перешли 17765
народной 17762
Филипп 17761
Мед@@ 17755
Великобритания 17751
аппара@@ 17750
лак@@ 17749
ена 17743
X@@ 17742
атмосферных 17737
восьми 17737
нападающий 17735
Посёлок 17730
режи@@ 17730
Департамент 17728
проводит 17727
Ура@@ 17712
Государ@@ 17711
боя@@ 17709
пережи@@ 17707
скон@@ 17706
Министерство 17705
устро@@ 17702
появления 17699
нужда@@ 17698
чём 17696
Питер 17688
автомобиля 17682
фонд 17680
апосто@@ 17678
ци 17677
новна 17673
домини@@ 17671
Университет 17670
массы 17668
характера 17668
Московском 17666
литов@@ 17661
ностями 17661
Русский 17659
завершил 17659
Архи@@ 17657
93 17655
опе@@ 17653
связан 17647
автобу@@ 17645
Ад@@ 17643
блоки@@ 17643
щению 17640
золото 17635
ванного 17634
1883 17631
шиф@@ 17630
Оскар 17629
Плотность 17626
небольшие 17626
организацию 17626
рынка 17623
инженер@@ 17622
чке 17620
жное 17619
Сей@@ 17617
замену 17616
исторического 17610
могло 17606
служить 17601
Вей@@ 17598
гола 17598
поход 17597
U@@ 17596
Шан@@ 17595
семи@@ 17592
добы@@ 17590
Роберта 17584
меч@@ 17579
ченной 17579
певица 17577
провозгла@@ 17575
ься 17572
веду@@ 17570
получило 17570
равно 17567
нередко 17566
Что 17564
прошед@@ 17564
лета@@ 17563
сообщает 17562
83 17557
посредством 17555
Сав@@ 17553
Балти@@ 17550
Вет@@ 17550
Неме@@ 17550
опере@@ 17544
административный 17541
аб@@ 17539
челове@@ 17538
духовной 17537
исследование 17534
3,5 17533
еты 17532
Z@@ 17529
эксплуатации 17525
принимала 17524
фотографии 17524
Оли@@ 17520
ллер 17519
Ска@@ 17513
Тихо@@ 17511
славы 17510
шку 17509
голь@@ 17508
жениями 17506
Ада@@ 17505
Руси 17504
идея 17502
населением 17497
наших 17494
горных 17492
обнаружены 17491
нефти 17488
Сол@@ 17480
борту 17480
бка 17479
курса 17479
зво@@ 17477
Вильгельм 17473
сложи@@ 17473
княжества 17470
нила 17469
строя 17467
принята 17465
e@@ 17464
Чикаго 17463
сообще@@ 17463
ухода 17461
тал 17459
показывает 17454
КП 17453
низм 17453
провинция 17453
русским 17453
работан@@ 17452
действовать 17451
рым 17447
москов@@ 17446
евой 17444
напротив 17441
лис 17437
пин 17437
уголов@@ 17435
удар@@ 17433
сопротивление 17430
1865 17425
телем 17422
вторую 17421
визу@@ 17420
внутри@@ 17419
абсолю@@ 17417
горе@@ 17417
торже@@ 17416
телевидения 17415
артист 17409
некоторым 17409
математи@@ 17408
выбира@@ 17407
утверждает 17404
Электро@@ 17403
обвиня@@ 17403
узна@@ 17400
особо 17399
дная 17392
политику 17391
ширина 17390
Уил@@ 17389
ленное 17388
колонии 17384
международном 17383
убийство 17381
собственные 17378
совсем 17378
ари 17375
вышед@@ 17375
Общества 17374
Африке 17369
Президент 17368
шер@@ 17368
устра@@ 17365
чении 17363
научным 17359
философ@@ 17355
бург 17354
шь 17351
Востока 17350
Голо@@ 17346
движении 17345
пусты@@ 17342
пространство 17339
левого 17337
юноше@@ 17333
жителя 17327
лун@@ 17327
мино@@ 17325
наименование 17322
is 17321
Мэри 17321
древних 17321
храме 17321
Британ@@ 17319
Вил@@ 17318
чился 17312
дий 17308
открытие 17308
платформы 17307
хутор 17306
говорят 17303
высокие 17302
дальше 17301
иг@@ 17299
познакомился 17299
Пос@@ 17297
бюдже@@ 17295
91 17293
ывается 17283
мас@@ 17282
пребывания 17280
утверждён 17280
1867 17279
врач 17277
расстояние 17276
um 17274
вещества 17273
жё@@ 17273
другое 17272
теория 17265
указом 17258
перси@@ 17256
говой 17253
окружающей 17253
КП@@ 17252
научные 17252
реакции 17252
нима@@ 17248
жин@@ 17246
забро@@ 17246
океана 17244
Солнца 17236
следо@@ 17234
Премьера 17233
нитель@@ 17233
игровой 17232
нейтра@@ 17229
отделом 17227
противополож@@ 17227
Род@@ 17217
отрицате@@ 17215
Рим 17211
Дании 17206
приказу 17206
Возможно 17204
Книга 17203
вызыва@@ 17202
доступ 17201
культура 17200
НБА 17199
тта 17199
американ@@ 17195
рано 17195
конфликт 17186
зона 17184
слав 17184
инского 17183
Фло@@ 17179
Ленинград 17177
профессиона@@ 17177
политике 17171
Вид 17170
выступила 17168
щики 17166
ограни@@ 17165
соборе 17165
НИ@@ 17163
стики 17163
музыкального 17159
нейро@@ 17159
наступления 17153
медицины 17152
ствует 17151
служба 17149
Хей@@ 17146
берег 17145
полузащитник 17144
путеше@@ 17141
историко 17137
станет 17137
служит 17131
Всё 17129
видит 17128
чался 17127
внутренней 17126
ывают 17123
случай 17121
Город@@ 17116
79 17115
сада 17111
c@@ 17109
родину 17109
конструк@@ 17108
ваемых 17106
кома 17106
политические 17102
суль@@ 17102
цикла 17101
Нижегородской 17099
входило 17097
каждые 17097
Крымской 17091
дивизион 17090
вере 17085
турнирах 17085
итальян@@ 17079
рак 17078
максима@@ 17075
орган 17070
предположительно 17064
Древ@@ 17057
победитель 17056
осталось 17055
защите 17054
утверждал 17054
1868 17046
мексикан@@ 17046
фамилии 17043
Гиль@@ 17039
зация 17038
вшему 17035
телефон@@ 17034
пах 17033
следующее 17033
йного 17028
Татьяна 17027
фрон@@ 17027
шотланд@@ 17027
1850 17026
уезде 17022
веществ 17019
архитектур@@ 17017
моги@@ 17017
Сербии 17006
верхов@@ 17003
падения 17001
живопис@@ 16999
объявила 16999
органы 16997
городская 16995
женской 16994
вела 16993
родители 16993
сет@@ 16993
мный 16991
шали 16991
ара@@ 16989
определяется 16989
носят 16988
чемпион@@ 16987
натура@@ 16986
собственности 16986
евской 16985
третьем 16985
дета@@ 16983
метр 16981
Знамени 16980
музыке 16979
лую 16978
89 16975
Василия 16975
Фон@@ 16972
жени@@ 16972
Ней@@ 16971
народ 16971
ментов 16967
Ас@@ 16964
детства 16963
гая 16961
94 16960
колле@@ 16960
туру 16958
ходили 16958
плен@@ 16957
Рио 16951
гат@@ 16951
каль@@ 16949
исполнение 16947
ите@@ 16946
Иоанн 16942
товари@@ 16926
гипер@@ 16922
тёплым 16922
Генриха 16919
издал 16915
ощу@@ 16913
уско@@ 16913
епископом 16912
пласти@@ 16910
гонки 16909
практике 16909
сингла 16909
следующего 16908
ительную 16904
причин 16901
подчи@@ 16899
фотографи@@ 16898
зале 16897
пто@@ 16896
среднюю 16894
Ленинградского 16891
1869 16886
сведениям 16886
сным 16881
умерен@@ 16879
характер@@ 16879
Мель@@ 16877
правой 16877
муниципалитета 16874
Игра 16869
находит 16868
тей 16866
кет@@ 16864
энерго@@ 16856
играла 16851
лежит 16849
листо@@ 16847
езда 16846
12.@@ 16844
отдыха 16843
исполнения 16841
поэзии 16839
Токио 16836
баро@@ 16835
ули@@ 16835
высшее 16834
голе@@ 16833
признание 16832
хот@@ 16830
тельных 16827
демонстри@@ 16826
смысле 16826
отношениях 16825
работ@@ 16824
Семё@@ 16821
приходит 16821
Ленинграде 16818
производству 16818
решено 16814
интенсив@@ 16813
правила 16808
ступ@@ 16807
Доб@@ 16804
програм@@ 16804
молодёжи 16803
Тем@@ 16802
Яр@@ 16802
дения 16801
мал 16799
Чёр@@ 16798
нова@@ 16798
Канаде 16794
Октябрьской 16791
Франсуа 16791
Начало 16790
ждений 16788
оте@@ 16785
сооружения 16785
услуг 16785
закреп@@ 16781
остатки 16777
официальным 16777
мелких 16772
окружа@@ 16772
ктор 16769
корей@@ 16767
египет@@ 16764
центра@@ 16756
широ@@ 16755
01 16750
Францию 16749
чается 16746
Христа 16742
1866 16741
ническая 16740
1830 16739
дович 16738
реализо@@ 16736
линей@@ 16735
картин 16732
реконструкции 16732
вна 16731
вручением 16728
Петербургской 16727
распада 16726
решению 16726
впадает 16719
комеди@@ 16716
вело@@ 16711
объединение 16710
1848 16709
сре@@ 16708
бина 16707
отсутствия 16707
подобных 16707
количестве 16701
Гур@@ 16700
точка 16700
добился 16699
запол@@ 16698
футбола 16698
они@@ 16697
Зна@@ 16695
Система 16691
Хам@@ 16690
Южная 16685
видом 16682
сить 16682
лона 16677
советские 16677
зон@@ 16676
осталась 16676
Пуш@@ 16675
Ага@@ 16670
Мало@@ 16666
исполнении 16661
преступления 16661
Ближайшие 16660
сезонов 16660
НИИ 16659
клеток 16658
каких 16649
трое 16649
Кун@@ 16648
мощность 16648
евича 16647
религии 16646
Смит 16643
охран@@ 16640
квалификации 16637
теря@@ 16633
провед@@ 16631
стаби@@ 16631
фили@@ 16628
шир 16620
хта 16618
Абра@@ 16616
мозга 16616
ляция 16607
королевства 16604
сное 16593
рус 16589
письмен@@ 16588
фф@@ 16588
Институте 16587
высокий 16583
мб@@ 16583
явления 16583
выбор 16578
предостав@@ 16578
рассматри@@ 16577
крестьян@@ 16575
ключе@@ 16573
жие 16572
изданий 16572
двигатель 16571
сражения 16571
детстве 16564
специальных 16563
Атлан@@ 16562
Group 16561
Ш 16561
интерес@@ 16555
характеристики 16552
потом@@ 16548
незакон@@ 16547
ина 16546
препода@@ 16546
значительное 16541
Храм 16539
жанре 16538
грузин@@ 16537
дочерью 16537
низма 16537
протестан@@ 16537
щенко 16534
существу@@ 16533
Курской 16529
жар@@ 16527
числилось 16526
рово@@ 16523
тности 16519
гина 16514
перевод@@ 16513
проживает 16509
Аре@@ 16503
проходи@@ 16503
персонаж 16502
призва@@ 16502
свето@@ 16501
учё@@ 16501
опор@@ 16499
извест@@ 16498
проекты 16498
ГЭС 16496
выполнен@@ 16496
гов@@ 16490
носили 16485
флаг 16485
торпе@@ 16480
важным 16479
ссы 16479
завод@@ 16476
поверхность 16476
лениями 16473
ради 16472
Иванов@@ 16471
УЕФА 16471
губернатор 16470
общественный 16468
народ@@ 16467
советское 16467
железнодорож@@ 16466
соном 16464
пой 16461
нял 16458
рией 16457
ограничи@@ 16456
ост@@ 16453
кандидат 16452
Эль 16449
гово@@ 16449
истори@@ 16449
служ@@ 16449
кар 16443
основано 16439
вит 16433
Рома@@ 16432
общий 16432
Сала@@ 16430
кресто@@ 16429
тинский 16424
Ред@@ 16418
эффект 16418
ракеты 16416
сайта 16414
Лав@@ 16412
дт 16411
йс 16410
возник@@ 16407
восточном 16405
оказа@@ 16404
ДНК 16402
погло@@ 16401
ене@@ 16395
слабо@@ 16394
чались 16393
Научная 16392
преследо@@ 16392
правый 16389
дона 16388
напомина@@ 16386
рим@@ 16383
огнём 16382
епархия 16379
Абу 16378
стоимость 16377
Сначала 16374
функций 16374
установлено 16370
чине 16367
стара@@ 16362
глад@@ 16360
1856 16355
топлива 16351
клетки 16347
станцию 16347
израи@@ 16346
рона 16346
Лай@@ 16337
режиме 16337
официальных 16331
чок 16331
многом 16330
Высота 16328
Дор@@ 16328
Парк 16325
ходов 16325
верх@@ 16322
верну@@ 16321
Шер@@ 16320
посвящен@@ 16320
ционным 16318
учреждений 16307
рь@@ 16306
щу@@ 16305
серб@@ 16304
серий@@ 16304
русско 16303
космо@@ 16301
1872 16300
учред@@ 16299
for 16297
сел@@ 16297
Университета 16296
магазин 16296
Коль@@ 16294
ГИ@@ 16291
пришли 16290
Васи@@ 16288
Памятник 16287
Алексея 16284
испыта@@ 16282
людям 16282
группи@@ 16281
собственных 16280
кай@@ 16279
командующий 16279
самая 16279
азиат@@ 16276
Ё@@ 16274
взрослых 16274
основателей 16271
высоко 16268
свидетель@@ 16266
цкие 16263
чле@@ 16262
Золотая 16258
колледж 16256
совмест@@ 16255
частях 16253
хова 16249
спор@@ 16248
Мит@@ 16241
врага 16237
называет 16235
Уор@@ 16232
мужество 16232
севера 16230
французских 16227
Калинин@@ 16226
огня 16215
планы 16208
изменя@@ 16206
снаб@@ 16206
стол@@ 16206
шении 16204
подоб@@ 16202
мужского 16198
достав@@ 16193
держ@@ 16192
ьян@@ 16192
гского 16189
проводятся 16189
дс 16187
рук 16185
стое 16185
дным 16178
поляр@@ 16176
ёт@@ 16176
Кита@@ 16175
160 16173
кови@@ 16172
полуострова 16172
нская 16169
ченного 16168
ъ 16168
вызывает 16167
явление 16162
оло@@ 16159
швили 16156
штурмо@@ 16155
исторический 16154
Южного 16152
братья 16152
креп@@ 16152
община 16148
высоту 16146
шают 16141
чо 16139
течению 16137
листов 16136
присоеди@@ 16134
универса@@ 16132
увидеть 16131
переданы 16130
лежа@@ 16128
множества 16128
1875 16124
личные 16123
представления 16123
предусматри@@ 16120
размера 16119
дере@@ 16116
району 16116
чев 16116
популярных 16112
порта 16111
ул@@ 16107
уехал 16106
надёж@@ 16102
копий 16096
объя@@ 16092
проводил 16090
татар@@ 16090
областях 16086
свободу 16086
выполнения 16082
k 16078
Рус@@ 16076
Миха@@ 16072
АТ@@ 16068
Ты@@ 16068
надц@@ 16068
занималась 16067
британского 16064
нист 16064
регионов 16062
возвращении 16061
значительные 16058
матерью 16058
восстановления 16053
руд@@ 16052
дворян@@ 16051
генерального 16049
лит@@ 16049
сбо@@ 16049
Глу@@ 16047
экспер@@ 16045
латин@@ 16043
начинают 16042
областной 16041
описан 16041
перехода 16039
свое 16033
плохо 16029
появилось 16029
йцы 16028
примеру 16028
обеспечить 16025
Кузь@@ 16019
крайней 16018
прочих 16018
воль@@ 16017
ьях 16017
партий@@ 16016
Чили 16015
черно@@ 16013
становятся 16011
Бах@@ 16009
положении 16009
продюсер 16006
монеты 16005
гря@@ 15999
живых 15998
отло@@ 15998
территориального 15998
учениками 15997
вик 15996
зова 15995
Кло@@ 15993
Наи@@ 15993
предпринимате@@ 15992
считали 15992
недостато@@ 15991
Жена 15989
возраст@@ 15989
европейской 15987
ленную 15985
металличе@@ 15985
Кей@@ 15984
ене 15982
эсте@@ 15970
мун@@ 15969
Дени@@ 15968
применяется 15968
Дмит@@ 15967
рованное 15961
силой 15957
западных 15956
140 15953
Федорович 15951
Бет@@ 15950
живо@@ 15950
необходи@@ 15948
Чехии 15947
ранга 15944
Ол@@ 15942
передач 15942
потреб@@ 15936
съ@@ 15936
съезда 15926
производстве 15925
пуль@@ 15924
организацией 15921
Гол@@ 15920
деревьев 15916
кислоты 15915
сотни 15915
высших 15914
веках 15913
личный 15912
воздушных 15911
скор@@ 15904
показали 15903
набра@@ 15902
граф@@ 15899
прод@@ 15896
Последние 15895
мак 15891
рый 15891
шал 15888
Мур@@ 15883
нуть 15882
принятия 15882
буль@@ 15876
Израиль 15875
пера 15875
м. 15874
0,5 15872
Богородицы 15872
швед@@ 15867
реаль@@ 15866
конкурен@@ 15862
нки 15859
носил 15858
скан@@ 15855
хай@@ 15855
вный 15852
долине 15851
ликвиди@@ 15851
структура 15851
Чарльз 15850
крест 15850
ностям 15847
Лучший 15845
поставля@@ 15841
тическом 15835
появляются 15834
типо@@ 15833
Так@@ 15823
рующие 15817
Мака@@ 15815
содержания 15815
добиться 15810
берт 15809
лея 15808
тик 15808
лидером 15807
структуру 15807
тяну@@ 15807
написана 15803
принца 15802
любов@@ 15800
отправил 15799
оценку 15797
девять 15794
Оле@@ 15792
Саль@@ 15791
юриди@@ 15791
труды 15790
числу 15787
Великий 15784
наре@@ 15784
информа@@ 15781
размере 15781
раунда 15779
Игна@@ 15778
йдя 15777
клубы 15777
посы@@ 15775
темати@@ 15775
Наталья 15774
отдел 15774
пом@@ 15772
штур@@ 15770
ьян 15762
активными 15761
ухуд@@ 15760
чина 15760
блок 15755
сер 15752
жав@@ 15751
льским 15751
ющимся 15751
10.@@ 15750
линий 15748
регуляр@@ 15746
брази@@ 15744
Рядом 15741
студентами 15741
крыла 15738
показате@@ 15736
проце@@ 15732
1874 15731
емую 15731
Эдуард 15729
родного 15729
глав 15728
островах 15728
спут@@ 15728
мные 15724
рынок 15720
РК 15715
стрелковая 15714
испытания 15712
XXI 15711
мском 15710
Степа@@ 15699
белый 15698
нападения 15697
раунд 15697
1840 15696
статистиче@@ 15692
вали@@ 15681
исполнял 15681
понятие 15681
зарубе@@ 15678
прямоуго@@ 15678
каждая 15676
Обычно 15672
мину@@ 15672
тоне 15668
Оно 15666
Джор@@ 15664
обработки 15664
лился 15661
округов 15661
ряду 15661
днем 15657
парламент 15657
зки 15652
читал 15648
чемпионатах 15646
созна@@ 15645
лидер 15643
премия 15643
военном 15642
зина 15642
Австри@@ 15640
оркестра 15640
упа@@ 15636
библиоте@@ 15634
владение 15633
танка 15629
глоба@@ 15628
жид@@ 15627
издан 15627
атор 15625
шля@@ 15625
Сэ@@ 15619
авторы 15610
оборону 15610
ровке 15607
независи@@ 15606
аппарата 15605
региона@@ 15599
владель@@ 15598
поездов 15598
связ@@ 15596
Киевской 15590
установить 15590
поя@@ 15589
экономически 15588
против@@ 15582
кал 15578
полёта 15578
третьим 15577
шке 15576
убить 15575
операция 15574
la 15573
будущем 15571
больных 15568
переимено@@ 15564
обратился 15563
признал 15562
вызвало 15561
Время 15557
возбу@@ 15556
Жизнь 15555
бел@@ 15555
разведывате@@ 15553
ктов 15552
покров 15552
весе 15551
зан 15551
объединя@@ 15551
поднима@@ 15550
пси@@ 15550
финанси@@ 15547
стым 15545
лил 15544
воздуш@@ 15542
неприя@@ 15541
департамент 15540
прак@@ 15539
сестры 15538
мяч 15535
сравни@@ 15535
International 15534
обез@@ 15533
Пари@@ 15529
психи@@ 15526
форси@@ 15520
ционное 15519
тит@@ 15518
товарище@@ 15517
миль 15515
преподавателем 15515
тари@@ 15515
Константи@@ 15514
Макси@@ 15514
фла@@ 15514
счет 15513
мужем 15512
Кова@@ 15510
требования 15505
статусом 15504
гвардейского 15501
разряде 15499
фунтов 15496
избежать 15488
аку@@ 15487
o 15485
сского 15481
треуго@@ 15480
композиций 15479
отлича@@ 15479
аренду 15476
май 15476
рели@@ 15474
нка 15471
испыты@@ 15470
музыкантов 15470
пограни@@ 15469
жно 15465
зывал 15465
фици@@ 15463
сменил 15462
фай@@ 15462
ните@@ 15461
святых 15453
ённости 15451
действ@@ 15448
неза@@ 15446
герб 15443
рующих 15443
вест@@ 15441
ведь 15440
решений 15440
сколько 15438
ночью 15437
бки 15436
чили 15436
кала 15434
основы 15433
листа 15431
голосо@@ 15429
180 15425
Считается 15424
лло 15420
живут 15419
своеобраз@@ 15418
административным 15414
стоял 15413
детский 15410
образу@@ 15410
пар 15409
Бэ@@ 15408
республикан@@ 15408
преподаватель 15406
филд 15405
ходом 15405
ровском 15400
Отде@@ 15398
управлению 15398
ир@@ 15393
произво@@ 15393
равно@@ 15392
лодки 15382
намере@@ 15382
лингви@@ 15380
стадион 15374
p 15372
пон@@ 15368
разработан 15368
очередной 15367
стиче@@ 15367
Йе@@ 15366
евым 15364
художником 15364
моду@@ 15358
Высшей 15356
реши@@ 15354
Римской 15351
дес 15351
ковом 15351
валь@@ 15350
зако@@ 15350
ительность 15347
Абду@@ 15346
Най@@ 15345
кубка 15344
тером 15344
Награждён 15340
Льво@@ 15339
продолжительной 15336
ностях 15331
сопротивления 15331
обмен 15330
давления 15329
зави@@ 15328
мусульман@@ 15327
осе@@ 15327
чалась 15325
балета 15322
корреспондент 15322
товые 15322
упро@@ 15321
Дем@@ 15320
концерт 15318
эсто@@ 15317
Европей@@ 15316
карты 15315
аэропорта 15314
Литвы 15310
классической 15310
погибших 15310
ог@@ 15308
священника 15308
сохранить 15305
мё@@ 15304
старых 15304
Генерального 15302
тском 15302
хит 15302
Тех@@ 15301
промы@@ 15288
заключается 15285
организован 15285
имея 15284
ковую 15282
массовой 15280
устойчи@@ 15280
транспорт 15279
хими@@ 15278
Андре 15277
сторонников 15270
Буд@@ 15268
фантастиче@@ 15266
чению 15265
Давид 15260
Максим 15260
попере@@ 15260
провели 15260
музе@@ 15259
играли 15257
последующих 15257
зени@@ 15251
проводить 15249
Гло@@ 15248
интересов 15245
иран@@ 15243
полного 15240
Зеландии 15239
заплани@@ 15239
Река 15238
регионального 15236
отметить 15234
официальный 15234
H 15233
основой 15233
приз@@ 15233
графом 15231
знал 15231
разве@@ 15231
медалей 15230
нон 15230
3000 15221
боёв 15221
критик 15219
дю@@ 15216
вав 15214
чений 15213
Тран@@ 15212
акции 15206
уг@@ 15205
деся@@ 15203
созданный 15199
фра@@ 15199
вспомогате@@ 15197
магистра@@ 15197
останавли@@ 15195
нях 15194
дение 15192
собственную 15192
шай@@ 15191
требо@@ 15189
перед@@ 15188
требу@@ 15188
маршру@@ 15185
гона 15181
рованию 15177
источником 15174
рекла@@ 15173
эпизод 15170
l 15169
x@@ 15169
Университете 15169
телевидении 15168
Известно 15166
ведом@@ 15166
соедин@@ 15166
реже 15163
лёг@@ 15162
Герб 15158
Международная 15156
сками 15155
В.@@ 15154
йка 15154
дифференци@@ 15152
смотре@@ 15143
a@@ 15142
важную 15141
удержи@@ 15140
установил 15140
действовал 15137
спас@@ 15135
клеточ@@ 15133
круга 15133
личной 15132
Уильяма 15131
выступление 15129
коллектив 15129
топо@@ 15127
лёт 15126
Джу@@ 15125
ённому 15124
ликвидации 15121
рованием 15121
выяв@@ 15120
показа@@ 15117
оправ@@ 15113
Ч 15111
вверх 15110
восточных 15107
половину 15101
активи@@ 15100
певицы 15096
Председатель 15095
исследователи 15094
станов@@ 15094
офицер 15093
параллельно 15093
аты 15092
таком 15092
придвор@@ 15091
экипаж 15091
акти@@ 15088
сна 15088
летию 15087
образова@@ 15086
менте 15083
выбран 15082
пуска@@ 15081
Дон 15076
дет@@ 15076
лат 15076
Народный 15074
охраня@@ 15074
пройти 15074
радо@@ 15070
чество 15070
советник 15066
тяжело 15064
Получил 15063
созвездии 15063
квадра@@ 15057
отличаются 15055
фортепиано 15055
атами 15053
кт 15051
ывать 15048
собственный 15046
масса 15043
товаров 15043
квар@@ 15039
красный 15038
спортсменов 15038
лигу 15037
розо@@ 15030
Покров@@ 15027
коллектива 15026
полез@@ 15021
бла@@ 15019
высоким 15019
свой@@ 15018
рабочей 15015
женного 15011
соглашения 15011
ске@@ 15009
маршрут 15008
лку 15006
вынуждены 15005
планеты 15005
берёт 15001
бан 14996
― 14996
московского 14995
бран@@ 14990
двига@@ 14984
руководителя 14981
эпо@@ 14981
инвести@@ 14979
дом@@ 14978
всём 14977
Боб@@ 14974
входя@@ 14972
новыми 14972
национальную 14968
прово@@ 14968
скре@@ 14968
тра 14968
отличием 14965
специального 14965
фигур@@ 14964
графия 14963
веры 14960
выя@@ 14959
продол@@ 14956
догово@@ 14955
стату@@ 14953
чив 14953
Сур@@ 14952
готов@@ 14949
собственного 14948
камер@@ 14947
отсутствуют 14942
зимних 14933
йскими 14933
трек 14928
Иванов 14926
чарте 14926
попала 14925
трижды 14924
совхоза 14923
стского 14923
бронзовую 14917
обеспечивает 14917
исполнитель@@ 14916
Сла@@ 14915
зыва@@ 14914
Смо@@ 14911
заведующим 14911
комиссия 14910
пау@@ 14909
швейцар@@ 14909
оси 14906
ары 14905
травмы 14904
гау@@ 14902
риаль@@ 14901
восточного 14896
общин 14896
сельской 14896
сюжет 14896
медицинского 14895
секунд 14894
принадлежа@@ 14893
гости@@ 14892
трансли@@ 14892
Пот@@ 14889
Уль@@ 14887
крупным 14883
разработан@@ 14881
Правительства 14880
волны 14879
ноги 14877
ГДР 14876
рака 14876
щины 14876
вающих 14875
золотую 14873
количеством 14873
Пит@@ 14870
греческого 14870
кции 14867
разгро@@ 14867
тока 14867
тат@@ 14861
птицы 14859
медалями 14857
придержи@@ 14854
ссу@@ 14854
новича 14853
Чере@@ 14852
вертолё@@ 14852
гон 14852
многими 14849
дуб@@ 14847
разно@@ 14846
проживал 14843
сценари@@ 14843
Кала@@ 14840
привы@@ 14838
см. 14837
оригинальной 14835
фронтах 14835
требуется 14833
Элизабет 14831
Ап@@ 14830
​ 14830
Вологодской 14828
звёз@@ 14826
страхо@@ 14826
Аба@@ 14825
Рязан@@ 14825
емости 14825
мячей 14825
пище@@ 14825
победа 14824
наблюдения 14823
жка 14818
набор 14815
описывает 14815
Сирии 14811
Нов@@ 14810
Антон 14809
вопросов 14809
произошёл 14807
включена 14805
отдельный 14805
имело 14803
детьми 14802
необходимость 14802
разрешение 14800
сайт 14798
Оба 14795
Башкортостан 14792
Яков 14792
лучшие 14791
Территория 14783
набрал 14782
постоянного 14782
евском 14780
чать 14777
тел@@ 14773
давно 14772
отли@@ 14770
рассмотре@@ 14768
зор@@ 14762
проведена 14762
первенства 14761
геологи@@ 14760
примени@@ 14759
рецеп@@ 14751
капе@@ 14749
чеш@@ 14748
видимому 14745
впа@@ 14745
интеллекту@@ 14745
ковская 14742
Объедин@@ 14741
опу@@ 14739
негатив@@ 14738
Awards 14736
младшего 14735
центров 14735
гали 14733
Коз@@ 14732
жилых 14726
повышения 14726
Тони 14725
Подо@@ 14724
Цин@@ 14722
ворот 14722
последнем 14718
i@@ 14717
вопло@@ 14717
колледже 14717
Сейчас 14716
полосы 14715
насы@@ 14712
одежды 14711
лауреат 14710
родном 14708
случайно 14707
каде@@ 14703
советская 14702
цких 14702
Мос@@ 14700
вооружения 14700
зелё@@ 14699
ванным 14698
новому 14697
щать 14694
токси@@ 14693
какие 14692
ьо 14692
ждены 14689
Зим@@ 14687
пенсию 14685
суток 14685
видел 14683
оде@@ 14683
почто@@ 14682
рубежом 14680
муж 14679
передана 14679
войско 14677
столетия 14677
молодёж@@ 14674
асси@@ 14673
КО@@ 14672
вот 14672
нали@@ 14670
Большое 14669
мощности 14669
тивы 14669
Бёр@@ 14666
теля 14666
Киевского 14665
сотрудником 14665
Берлин 14664
депо 14664
моделей 14664
журнали@@ 14661
тность 14661
сения 14660
построил 14658
твер@@ 14657
достигну@@ 14656
роз@@ 14653
проходила 14652
Управления 14651
выступле@@ 14651
полноцен@@ 14651
гай@@ 14650
прояв@@ 14650
обращения 14647
картину 14646
парт@@ 14646
погру@@ 14646
психологии 14646
йти 14644
сторона 14644
рыб 14643
украинского 14640
вышло 14637
синте@@ 14637
технической 14635
привод@@ 14634
сси 14634
семейство 14631
тюр@@ 14625
садо@@ 14624
чьи 14623
Нем@@ 14622
зию 14622
проведение 14621
Хью@@ 14620
Дет@@ 14619
туристи@@ 14619
годи@@ 14618
иска@@ 14615
атая 14614
уез@@ 14613
нейшие 14612
больницы 14608
1858 14605
вернулись 14601
выступили 14600
прия@@ 14600
украинской 14598
относ@@ 14595
глаз 14594
Росто@@ 14593
сосредото@@ 14592
вино@@ 14591
лест@@ 14591
описал 14580
орден 14579
заверши@@ 14576
переименована 14576
казни 14573
Артур 14572
Ирина 14572
отмечал 14570
католической 14568
мирового 14563
участвует 14562
дены 14558
Германию 14557
дерева 14557
грам@@ 14554
племени 14553
сотрудничества 14551
юга 14549
тюрьме 14548
огне@@ 14547
деревень 14546
квалифика@@ 14542
Рен@@ 14541
хоккею 14539
исследователей 14537
Сор@@ 14536
вперёд 14533
переход@@ 14532
фт 14531
судна 14528
масси@@ 14527
чков 14527
разъ@@ 14525
Улья@@ 14524
получают 14523
Самар@@ 14520
квалифици@@ 14520
Алекса 14519
уступив 14517
пьесы 14515
предше@@ 14513
пись 14511
• 14506
Каре@@ 14505
пространстве 14505
религиозных 14502
дском 14501
гно@@ 14500
похода 14500
ничество 14498
DVD 14497
обладателем 14496
То 14494
властями 14492
математики 14492
ae 14489
Волы@@ 14487
циони@@ 14481
концепции 14479
корпора@@ 14478
актёра 14477
турниров 14475
опира@@ 14473
занимались 14471
Илья 14469
30@@ 14468
Яковлевич 14468
использовании 14468
удовлетво@@ 14468
гна@@ 14466
пев@@ 14466
избиратель@@ 14465
теме 14465
личных 14464
125 14463
Египта 14462
важных 14457
Сим@@ 14452
Дону 14451
шева 14449
эли@@ 14446
зай@@ 14445
енты 14444
захватил 14443
страи@@ 14443
знаком 14442
завое@@ 14440
Политическая 14439
независимо 14438
смы@@ 14436
сотрудничество 14436
называлась 14433
стихов 14433
терро@@ 14432
изделий 14431
помещения 14431
официальной 14428
продук@@ 14427
сказать 14427
рабочий 14426
сочинений 14426
ТВ 14425
Никола 14424
занятия 14423
серебряную 14422
кримина@@ 14419
успеш@@ 14418
союзников 14417
приве@@ 14415
академик 14413
стади@@ 14413
Love 14408
недавно 14408
педагоги@@ 14407
вниз 14405
севернее 14403
мужской 14397
Работа 14395
украин@@ 14395
реак@@ 14392
атах 14390
база 14387
словами 14387
финансов 14387
кают 14386
вающий 14385
видные 14383
похоро@@ 14378
выступали 14377
Красная 14376
цент@@ 14374
хорват@@ 14372
картине 14369
немедленно 14367
эстафете 14367
самоуправления 14361
Деятельность 14360
улицу 14360
Пьер 14359
архиепископ 14359
литератур@@ 14354
тинского 14354
вро@@ 14353
шед@@ 14353
Дети 14351
стин 14349
дки 14348
дека@@ 14347
съёмки 14345
ване 14344
подразде@@ 14344
Евгения 14342
уничтожил 14342
чо@@ 14341
аренды 14340
судно 14340
фабри@@ 14339
ати 14338
лого@@ 14338
другу 14335
эм@@ 14335
деятелей 14327
сооружений 14327
фил@@ 14324
лика 14320
Глав@@ 14319
враже@@ 14310
достигла 14309
350 14307
ель 14307
встрече 14305
ринг 14305
луч@@ 14302
выраз@@ 14301
услуги 14301
СК@@ 14299
предметов 14298
литера@@ 14295
ролей 14292
цова 14291
чих 14291
арте@@ 14290
трудов 14287
бун@@ 14285
Средне@@ 14278
вед 14278
собрал 14275
академиче@@ 14274
представителем 14274
учителя 14274
чкой 14273
жителями 14271
опубликован 14271
семинарии 14270
душ 14267
губернатором 14266
нала@@ 14264
поведение 14261
1800 14260
количеству 14260
граница 14258
инструментов 14255
лке 14254
крупней@@ 14248
Зак@@ 14247
тради@@ 14245
блока 14244
рато@@ 14243
сторо@@ 14242
Закон 14241
Пале@@ 14241
такая 14240
заду@@ 14239
ящи@@ 14239
захва@@ 14238
немцы 14238
являлось 14238
обя@@ 14237
офицер@@ 14237
тских 14236
упразднён 14236
комедии 14234
романе 14234
непри@@ 14231
крупного 14229
обвинения 14228
d@@ 14226
Обла@@ 14225
подве@@ 14225
родом 14225
Вашингтон 14224
Смоленской 14221
трибу@@ 14221
использовалась 14216
Производство 14212
кера 14212
преобразован 14211
прош@@ 14210
аристокра@@ 14209
Бос@@ 14208
ставший 14208
Много@@ 14207
ближе 14207
зам 14207
кову 14206
Даль@@ 14202
источник 14202
учёбы 14201
существовала 14197
дание 14194
основатель 14192
Доне@@ 14191
мероприятия 14191
разрешения 14191
построить 14190
фильму 14189
предваритель@@ 14187
готов 14185
рые 14184
рит@@ 14183
Восточно 14178
левых 14178
руковод@@ 14175
границах 14174
семьёй 14173
гель@@ 14170
Боль@@ 14168
дено 14168
Команда 14167
Центральный 14167
возникла 14167
возвышенности 14166
рассе@@ 14165
холод@@ 14164
шё@@ 14163
желание 14162
Дмитрия 14161
приобрёл 14161
эля 14161
контак@@ 14160
собственно 14160
Вооружённых 14157
белого 14157
инженера 14155
Пушкина 14153
водохранилища 14153
хищ@@ 14152
появление 14151
числен@@ 14150
допуска@@ 14147
статья 14145
взвода 14144
границей 14144
системати@@ 14143
части@@ 14143
композитора 14141
портрет 14139
Смерть 14137
ждает 14137
льства 14137
INSEE 14136
выбор@@ 14136
культур 14136
Екатерины 14133
Виктора 14132
говых 14132
заканчи@@ 14132
молодого 14131
шт@@ 14125
горах 14124
игро@@ 14124
рейтинге 14123
бизнеса 14122
обл 14119
современные 14119
зачёте 14118
кс@@ 14118
Нижний 14117
повести 14116
переулок 14115
золота 14111
идею 14110
действуют 14109
конкурс 14109
имущества 14106
ллера 14106
s@@ 14104
традицион@@ 14104
приз 14103
гал 14102
поселений 14102
присутствует 14100
Бори@@ 14098
Польша 14098
чах 14098
мысли 14097
заслу@@ 14094
фундамента@@ 14092
девушка 14091
Коб@@ 14087
задача 14085
обеспечение 14083
основы@@ 14075
ал 14074
Казани 14070
мени 14068
произошла 14068
статуса 14066
малых 14065
тельные 14064
альбомом 14062
турецкой 14062
Гарри 14058
низации 14055
Тверской 14050
времен@@ 14048
церквей 14043
Эле@@ 14041
Меж@@ 14039
Им@@ 14037
тис 14035
версий 14033
коми@@ 14032
адмирала 14031
аро@@ 14030
борьба 14030
становился 14029
двигателей 14028
подроб@@ 14028
представителями 14028
непреры@@ 14022
сценарий 14022
Мала@@ 14021
дное 14021
льскую 14018
специальные 14018
уста@@ 14018
страда@@ 14015
Олимпи@@ 14014
рассказ 14014
цио@@ 14012
губ@@ 14011
голосования 14009
ари@@ 14008
сосе@@ 14008
удив@@ 14005
держать 14003
федерального 14002
непосред@@ 14001
дерев@@ 14000
плати@@ 14000
привести 13998
капитаном 13997
лига 13995
ВМС 13994
блестя@@ 13992
масшта@@ 13991
бя@@ 13989
хвосто@@ 13989
Вод@@ 13988
крае 13988
консервати@@ 13987
сина 13984
тёмно 13984
Гоме@@ 13982
морф@@ 13979
королевы 13978
строй@@ 13978
нибудь 13976
согласо@@ 13975
1857 13974
Желез@@ 13974
неров 13974
аниме 13973
Вз@@ 13971
моз@@ 13970
чник 13968
строен@@ 13967
Сегодня 13966
образуют 13965
другую 13964
бей@@ 13961
социального 13961
систе@@ 13954
гоно@@ 13953
топоним 13953
риту@@ 13951
o@@ 13947
управлении 13945
художественного 13943
щаются 13943
чья 13942
новской 13938
диска 13934
сделали 13934
сочинения 13934
моменту 13932
флага 13932
творчестве 13928
Южный 13925
определить 13924
тью 13923
арх@@ 13921
фир@@ 13921
термо@@ 13920
яро@@ 13918
n@@ 13917
числи@@ 13917
лз 13913
образована 13913
иконы 13912
ресто@@ 13910
природе 13909
Казан@@ 13908
Пон@@ 13906
средних 13905
фикси@@ 13904
предметы 13903
федерации 13899
опять 13897
пам 13890
отряды 13888
попытался 13887
окси@@ 13885
воинов 13884
Трои@@ 13882
две@@ 13881
Иосиф 13877
обучался 13877
инский 13873
Име@@ 13872
рациона@@ 13872
щал 13872
профессионального 13871
шать 13870
команд@@ 13869
мыс@@ 13867
обеща@@ 13867
повстан@@ 13866
костью 13863
формой 13863
шат@@ 13862
техника 13861
трак@@ 13861
приду@@ 13858
чемпионка 13858
ут 13856
дальней@@ 13852
ведущий 13847
авиацион@@ 13846
подход 13846
сколь@@ 13845
почита@@ 13844
ука@@ 13844
Без@@ 13843
Перу 13843
Саха@@ 13843
ковыми 13842
мужчина 13842
ждена 13841
музыкант 13838
надпись 13838
лар 13837
изучению 13835
шала 13834
ввиду 13833
зону 13833
неожиданно 13833
гено@@ 13830
современный 13828
занять 13825
Мастер 13822
сю@@ 13822
емыми 13821
отрица@@ 13821
бук@@ 13818
граничит 13818
матри@@ 13814
культур@@ 13813
местном 13813
боле@@ 13812
интересы 13811
кров@@ 13811
кандидат@@ 13810
аппарат 13808
диск 13806
тюрьму 13806
упоминание 13804
жениях 13799
описания 13797
похи@@ 13795
ужа@@ 13795
сение 13793
стрем@@ 13791
тели 13789
вез@@ 13786
ею 13784
мастеров 13783
властью 13782
водил 13782
посмертно 13782
ент 13781
мат 13780
художественных 13775
жит 13772
промежуточ@@ 13772
яко@@ 13772
Станция 13767
подлин@@ 13766
располагался 13762
Фла@@ 13761
нд 13760
ол@@ 13759
ночи 13758
ьям 13754
градского 13753
09 13750
произошед@@ 13750
Иркут@@ 13748
рес@@ 13748
Национа@@ 13745
серебряный 13743
разби@@ 13741
дополнительные 13735
ктором 13732
пого@@ 13732
тюрьмы 13731
левому 13728
лидера 13728
немецкие 13726
папа 13726
терми@@ 13725
Z 13722
еры 13718
24@@ 13715
пользо@@ 13713
длин@@ 13708
исторические 13708
очка 13707
прилега@@ 13706
опубликована 13705
передо@@ 13705
генеральный 13702
лана 13700
населённого 13700
Такие 13697
помощник 13697
Фра@@ 13695
нации 13694
Нижняя 13693
Hot 13692
тяжёлой 13691
Анджелесе 13690
Да 13690
неизвестно 13690
клуб@@ 13688
центрального 13685
зали 13683
стан 13682
Фро@@ 13680
соединений 13678
идей 13677
беспо@@ 13674
ап@@ 13673
ченным 13672
але 13670
исчез@@ 13667
еврейской 13660
рио 13660
сбли@@ 13658
осман@@ 13655
хранения 13655
изучение 13654
выпущенный 13652
Первого 13651
пози@@ 13651
женная 13646
национальном 13645
дебютный 13642
мари@@ 13642
пок 13642
состоят 13642
веб 13636
Работы 13634
предложения 13634
март 13632
перевоз@@ 13630
странами 13630
лле 13629
Луис 13628
смешан@@ 13627
создали 13625
гори@@ 13623
зывая 13623
законов 13622
Конститу@@ 13621
Азербайджанской 13620
переговоров 13620
Тен@@ 13618
бомбардиров@@ 13618
сфе@@ 13618
селения 13614
Статус 13611
писате@@ 13611
современ@@ 13611
археологи@@ 13608
жном 13607
игроки 13605
отро@@ 13604
чёв 13604
бю@@ 13600
менко 13600
базо@@ 13599
способом 13599
импуль@@ 13598
музыканты 13597
мская 13596
Конституции 13591
оказыва@@ 13591
шах 13589
данная 13585
ционную 13583
растение 13581
Каме@@ 13578
другая 13577
хва@@ 13573
запас 13570
1855 13569
позиций 13568
раннего 13565
Узбекистана 13562
Русского 13561
заря@@ 13558
льд@@ 13558
Третий 13557
алкого@@ 13556
дорогу 13556
езде 13556
гель 13551
довал 13551
армей@@ 13550
искусстве 13550
Думы 13548
ВМФ 13547
Востоке 13546
ническим 13546
успехи 13546
щё@@ 13546
стры 13545
Ск@@ 13543
Диа@@ 13541
рядо@@ 13541
кавалерий@@ 13540
иначе 13538
продолжали 13538
обнаружил 13533
динамиче@@ 13532
науч@@ 13532
четвёртый 13532
град@@ 13528
проявленные 13528
бесплат@@ 13527
лизи@@ 13524
средневе@@ 13521
сезон@@ 13519
рейтин@@ 13518
Серге@@ 13517
гиб@@ 13517
африкан@@ 13515
ност@@ 13515
район@@ 13512
возве@@ 13509
дзи 13509
земля 13508
испытаний 13507
оружием 13506
жел@@ 13504
поряд@@ 13504
участки 13502
венгер@@ 13498
ссию 13498
шей@@ 13495
ос 13493
япон@@ 13493
Дай@@ 13490
Иоганн 13489
пки 13488
пришла 13487
лав@@ 13484
опубликованы 13484
сон@@ 13484
воздушной 13483
графов 13483
сели@@ 13483
Ама@@ 13481
связей 13479
Бога 13475
Калу@@ 13470
англ 13468
Архангель@@ 13464
зачастую 13464
отдельной 13464
Од@@ 13462
105 13461
иденти@@ 13460
художеств 13458
коди@@ 13457
Гот@@ 13456
гром@@ 13456
неве@@ 13455
испанский 13454
Министров 13453
пожар@@ 13452
держится 13451
найдены 13450
Генерал 13447
гур@@ 13445
нк@@ 13443
министерства 13442
удаётся 13441
ыр@@ 13437
критике 13436
запи@@ 13435
Мир 13430
цена 13430
Англи@@ 13428
жанра 13424
административному 13423
Хорватии 13421
бол@@ 13419
командующим 13417
адрес 13413
йл 13413
ывали 13408
государством 13407
обру@@ 13407
атаку 13406
ветви 13406
строение 13406
двину@@ 13405
добро@@ 13405
ляя 13402
Грин@@ 13401
ити 13400
мона@@ 13398
Бориса 13397
вырос 13397
ленко 13394
зали@@ 13393
ниче@@ 13392
Постановлением 13390
фини@@ 13390
ствующих 13389
Маха@@ 13387
Ход@@ 13387
кратер 13387
пехот@@ 13387
Николаев@@ 13386
доне@@ 13386
летнем 13383
Entertainment 13381
китайской 13378
Канада 13373
11.@@ 13372
p@@ 13371
Нижне@@ 13371
07 13370
текстов 13370
указа@@ 13370
Жо@@ 13368
зафикси@@ 13367
нено 13366
потребо@@ 13365
1849 13360
Человек 13359
скро@@ 13359
Спартак 13358
породы 13358
пова 13357
шахмат@@ 13357
1829 13356
бру@@ 13355
высокую 13355
промышленных 13355
боже@@ 13353
определение 13353
военнослужащих 13352
поведения 13352
просит 13348
Me 13347
плы@@ 13347
девушки 13345
сыну 13345
факты 13345
Марка 13342
пусти@@ 13340
чатые 13340
взаимодействия 13338
ительности 13334
традиционно 13333
давление 13331
пытались 13331
разработал 13331
принадлежал 13329
точек 13329
плодо@@ 13328
жён 13323
поте@@ 13319
батареи 13318
Уай@@ 13317
митрополит 13315
преем@@ 13310
смертью 13309
бар 13308
попытка 13307
тские 13307
отличия 13303
нуж@@ 13300
выгля@@ 13299
y@@ 13297
позво@@ 13297
тракто@@ 13293
выставка 13292
тема 13292
фер 13292
атой 13288
принадлежав@@ 13286
вку 13284
уступил 13283
грун@@ 13282
нашли 13282
уйти 13282
эвакуи@@ 13279
Бю@@ 13275
чали 13273
арен@@ 13268
ткани 13268
четвёр@@ 13264
Пресвятой 13263
кадров 13262
Дву@@ 13261
исполнил 13259
Вели@@ 13258
водя@@ 13256
организа@@ 13256
прор@@ 13256
функция 13254
Горо@@ 13253
коммунистиче@@ 13253
лошадей 13251
жертв 13250
представление 13250
производится 13250
ПК 13248
заняв 13246
течения 13246
Бла@@ 13241
мал@@ 13241
сделан@@ 13240
Чемпион 13238
подал 13237
Управление 13236
инской 13231
красного 13231
обитания 13231
ологии 13231
мотивам 13228
мных 13224
Вене 13222
изменение 13221
друже@@ 13220
дет 13218
Мил@@ 13216
Новые 13215
мс 13209
Принимал 13208
Динамика 13203
оставить 13201
немецкими 13200
выстав@@ 13199
крепост@@ 13199
кандидатскую 13195
вная 13194
испытате@@ 13194
хой 13194
единицы 13186
парламен@@ 13185
жих 13184
Художе@@ 13176
работник 13176
письме 13175
регионах 13175
Петербургского 13172
перекры@@ 13172
полага@@ 13172
буд@@ 13171
вило 13171
Ирана 13170
гомосексу@@ 13170
представляли 13168
снабжения 13163
Мексики 13162
Верхне@@ 13159
трав@@ 13159
изгна@@ 13154
мара 13154
студи@@ 13154
codice 13152
мероприятий 13149
лите@@ 13148
продемонстри@@ 13148
сравнительно 13146
ЕС 13145
тури@@ 13145
морфо@@ 13143
дополнитель@@ 13141
жала 13137
логических 13137
05 13135
увле@@ 13135
запро@@ 13133
индустри@@ 13133
армий 13129
Хуан 13128
лага@@ 13128
Йор@@ 13124
Леон@@ 13124
закрыт 13123
перви@@ 13123
финансо@@ 13119
эле@@ 13119
ори 13118
Новгородской 13117
ремонт 13113
водство 13110
дис 13110
ющееся 13108
Александром 13107
облег@@ 13107
Днепр 13105
лири@@ 13103
Нау@@ 13102
сотрудничестве 13102
учёбу 13098
ждён 13096
найден@@ 13096
обслуживания 13096
священник 13096
Лет@@ 13095
заданий 13093
химиче@@ 13093
Чехословакии 13091
палаты 13090
столицу 13090
Классификация 13089
жском 13088
сход@@ 13086
поддерживает 13085
Британской 13084
Кап@@ 13084
сский 13083
сть@@ 13082
отказаться 13081
нологии 13080
редак@@ 13080
Y@@ 13079
вещи 13079
топли@@ 13078
обращение 13073
строить 13072
тивная 13071
торами 13071
Особ@@ 13070
опыта 13070
заболевания 13069
хина 13069
башня 13067
ционном 13066
4,5 13065
Отто 13064
Сталина 13061
этими 13061
Народной 13060
сохранилось 13058
единственной 13056
аторов 13054
даты 13049
Победы 13046
актёров 13046
душ@@ 13046
президент@@ 13042
Ниж@@ 13041
больнице 13041
штейна 13039
Шевченко 13038
суде 13038
торго@@ 13037
оставив 13036
рам@@ 13034
900 13031
Рима 13030
сердца 13030
желез@@ 13029
Times 13027
британских 13026
учётом 13026
указан@@ 13025
любого 13024
Брэ@@ 13023
него@@ 13023
Соревнования 13022
милиции 13022
пребы@@ 13021
цветов 13018
сферы 13014
хами 13013
муниципалите@@ 13011
называемый 13004
сове@@ 13003
заметно 13002
превышает 13002
предыдущих 13001
La 13000
Юрия 13000
песней 12999
трех@@ 12999
гун 12997
страна 12995
щаться 12995
усилия 12992
Вален@@ 12991
реч@@ 12989
уве@@ 12988
машина 12987
вечер@@ 12985
законом 12985
поезд 12985
расположенных 12985
холо@@ 12985
отсут@@ 12984
Куль@@ 12983
влаж@@ 12982
наблюдается 12982
оппозиции 12982
ренный 12982
телевизион@@ 12982
дёт 12979
Патри@@ 12978
Том 12978
ателей 12977
расширя@@ 12974
зритель@@ 12970
распоря@@ 12970
Выбор@@ 12969
железная 12968
лесах 12966
функциони@@ 12966
перево@@ 12965
лесу 12964
позволяют 12964
чрезвычайно 12964
емом 12960
втор@@ 12959
Двор@@ 12955
моти@@ 12953
1854 12952
группами 12952
мба@@ 12952
особого 12951
чувств@@ 12950
Француз@@ 12949
конкур@@ 12948
Новое 12946
табли@@ 12946
кир@@ 12945
крае@@ 12945
слуш@@ 12945
патрио@@ 12944
снял 12943
школах 12941
глав@@ 12940
Кем@@ 12938
щался 12937
Джорджа 12933
гражданских 12933
бека 12932
государственные 12928
упор@@ 12927
дина@@ 12925
племян@@ 12925
французском 12925
душу 12923
планировалось 12923
привела 12921
глубине 12920
выходил 12917
1853 12916
вдо@@ 12914
Суще@@ 12911
вара 12911
метода 12910
тена 12910
АС@@ 12909
суд@@ 12909
Восток 12908
авиационный 12908
гражданского 12908
приём@@ 12908
яви@@ 12907
конкре@@ 12906
выигра@@ 12905
красо@@ 12903
Специ@@ 12901
ковое 12901
сум@@ 12901
тексты 12901
партнё@@ 12899
тренер@@ 12897
сим@@ 12892
ванное 12891
изготавли@@ 12890
существовало 12890
захватили 12888
рот 12884
бок@@ 12883
скри@@ 12882
Джан@@ 12881
голу@@ 12881
согласился 12881
терапии 12881
тар 12879
насекомых 12878
творче@@ 12877
футбольной 12877
дови@@ 12876
очер@@ 12875
общих 12873
американским 12870
мэ@@ 12870
обыкновен@@ 12868
гвардей@@ 12867
чала 12867
дая 12866
задачей 12864
вторжения 12862
оценке 12861
цк 12859
Вместо 12856
старого 12856
винов@@ 12854
итальянского 12853
подразделений 12853
выпущено 12850
града 12849
Аргентины 12848
Кана@@ 12845
Внутрен@@ 12842
автоном@@ 12842
бежать 12842
тивное 12842
правому 12840
ровок 12840
летняя 12839
отправляется 12837
Лё@@ 12836
молекуляр@@ 12836
чёр@@ 12836
обороне 12835
Ель@@ 12833
образованием 12833
трассе 12831
украинских 12830
вытяну@@ 12828
тового 12826
поддержа@@ 12825
щают 12822
документах 12820
кевич 12820
ув@@ 12820
горе 12815
детских 12815
преоблада@@ 12814
Дал@@ 12812
Фридриха 12812
считался 12809
Татар@@ 12808
соответству@@ 12808
строе@@ 12808
компьютер@@ 12807
Джей@@ 12806
инженером 12806
заявила 12805
жную 12804
заседании 12803
назначение 12803
Выс@@ 12801
Свобо@@ 12798
Колумбии 12793
весовой 12789
справа 12789
земля@@ 12788
ВО 12786
решила 12783
попытку 12780
английской 12779
ито 12777
сердце 12769
существовал 12768
рядах 12767
приез@@ 12765
использо@@ 12764
дело@@ 12761
щались 12757
лизма 12756
ьевич 12756
вающие 12755
срока 12753
диссертации 12751
изи@@ 12749
постоянной 12749
разработку 12748
Количество 12747
возможных 12747
укры@@ 12747
.-@@ 12746
сбора 12745
голоса 12743
молодёжной 12743
пожертво@@ 12743
08 12742
офицера 12740
коно@@ 12739
особ@@ 12739
подобные 12739
Константина 12733
Центральная 12733
доля 12733
Джен@@ 12731
Советов 12730
тех@@ 12729
рал@@ 12726
северо@@ 12726
американцев 12724
Англия 12722
Бюро 12721
действу@@ 12721
строен 12718
ьо@@ 12718
Великая 12717
заключил 12716
железных 12713
лучшую 12712
военная 12710
старто@@ 12709
Викторович 12707
Евре@@ 12706
образовании 12705
принадлежат 12705
сож@@ 12705
выиграть 12703
расположение 12703
симметри@@ 12702
План@@ 12700
королевской 12700
попадает 12699
основная 12698
француз@@ 12697
надеж@@ 12696
едва 12694
минуты 12693
просьбой 12693
безопас@@ 12692
выбро@@ 12691
мастерской 12691
бесконе@@ 12689
периоди@@ 12687
Западная 12686
Россией 12686
Симферо@@ 12686
ничества 12686
посеща@@ 12682
Сборная 12680
CD 12678
анных 12678
Сту@@ 12677
юниоров 12677
газ 12674
рили 12673
переходит 12672
распространены 12672
подчиня@@ 12670
клет@@ 12664
шенных 12664
Вячеслав 12663
практики 12663
напол@@ 12661
дипломати@@ 12660
попали 12660
эволю@@ 12657
пожа@@ 12656
Советский 12654
представил 12654
лицом 12652
монго@@ 12650
врача 12649
серий 12649
спасти 12649
u 12648
Вале@@ 12648
гаран@@ 12648
степ@@ 12646
иных 12645
Жен@@ 12644
Япон@@ 12644
рский 12641
псевдонимом 12638
троллейбу@@ 12633
солдаты 12631
почему 12628
Виктория 12627
ническое 12624
Битва 12623
сегодняшний 12623
значительную 12622
выве@@ 12621
говая 12619
лого 12619
ствием 12618
частями 12618
сентябрь 12617
Матери 12616
беге 12616
ракет 12616
тей@@ 12616
действовали 12615
развитием 12614
пад@@ 12613
трон 12613
общую 12612
учёные 12611
домаш@@ 12609
меньшей 12609
базу 12608
ближай@@ 12607
ствий 12607
выйдя 12606
прер@@ 12606
вавшие 12603
хам 12603
ФРГ 12599
известными 12599
мульт@@ 12599
пассажи@@ 12599
руководителей 12599
Спа@@ 12594
класс@@ 12593
Минск 12590
возникает 12589
шев@@ 12588
сражение 12584
Дома 12582
авиационной 12581
выстре@@ 12580
мор 12580
нане@@ 12580
чёрный 12580
водом 12579
Рок@@ 12577
содержат 12570
классу 12569
Виталий 12567
экономи@@ 12567
захватить 12566
Гё@@ 12565
Пис@@ 12565
лейбле 12565
зывать 12563
успел 12563
камень 12562
скота 12562
наты 12561
основанный 12559
лега@@ 12557
голос 12555
корен@@ 12554
подразделение 12554
журналистов 12550
жская 12549
предпоч@@ 12549
поля@@ 12548
праве 12548
метал 12546
ведя 12545
принц 12545
28@@ 12544
Старший 12544
перспек@@ 12544
визи@@ 12543
сат@@ 12543
слабы@@ 12539
забра@@ 12538
возник 12537
Им 12535
улицей 12534
Малая 12533
онлайн 12533
передать 12531
Османской 12530
5000 12527
мето@@ 12526
старой 12525
серебро 12521
учиться 12521
ia 12520
портре@@ 12519
нета 12517
тино 12516
Япония 12515
загряз@@ 12515
общине 12515
серебряным 12514
отказались 12510
сма@@ 12510
Административное 12507
одноимённого 12507
происходя@@ 12507
группировки 12504
журналов 12504
старей@@ 12504
цир@@ 12504
ват 12503
народный 12503
Московская 12501
Иоан@@ 12499
скоростью 12497
Велико@@ 12496
эмоциона@@ 12496
совых 12495
ани@@ 12494
польских 12494
зад@@ 12493
помогает 12493
ьей 12493
жюри 12490
уво@@ 12488
бронзовый 12487
оккупа@@ 12487
стыми 12487
27@@ 12485
принцип 12485
Англию 12484
мра@@ 12484
рейтинг 12484
уходит 12483
эпизодов 12481
богат@@ 12478
сознания 12478
Джеймса 12476
ответственность 12475
заявление 12474
W 12472
линг@@ 12472
Ленинграда 12471
гастро@@ 12471
АЗ 12470
Ште@@ 12469
рованными 12469
слева 12468
Скотт 12467
изло@@ 12467
композиция 12467
деви@@ 12466
ави@@ 12465
главные 12465
Жю@@ 12464
баталь@@ 12464
городское 12464
мили@@ 12464
платы 12464
ющимися 12464
души 12463
Сель@@ 12462
популярной 12460
обладают 12457
виль 12456
публикаций 12454
статистический 12453
усло@@ 12452
лечеб@@ 12450
играют 12449
1852 12447
равна 12442
сахар@@ 12442
учреждение 12440
описа@@ 12437
фильмом 12437
японский 12437
спортивных 12436
изы 12434
символом 12434
фракции 12432
1.@@ 12431
оре 12431
продукты 12430
исполнителей 12429
директоров 12428
сверху 12428
лондон@@ 12425
Расположено 12424
1820 12422
акту@@ 12422
вуд 12422
императором 12421
разным 12421
бойцов 12420
секции 12420
неактивных 12419
журналах 12416
сосредоточ@@ 12415
хим 12415
взяли 12414
магистра 12414
сохранения 12412
одиночном 12406
самолёты 12406
ствующие 12406
Теперь 12403
немецком 12403
1842 12400
жаются 12400
оппози@@ 12398
фабрики 12398
евская 12397
клави@@ 12397
привёл 12397
Бран@@ 12393
вас 12392
машино@@ 12392
славян@@ 12392
ленном 12390
посвящ@@ 12390
свободного 12389
03 12388
повто@@ 12387
тение 12385
ковка 12381
Объ@@ 12377
служеб@@ 12377
Викто@@ 12375
дта 12373
место@@ 12373
царства 12373
отдельно 12371
варьи@@ 12369
лор@@ 12369
чит@@ 12369
Y 12368
июль 12368
нынеш@@ 12368
изображением 12365
лер@@ 12365
сно 12365
ённость 12364
выдающиеся 12361
сельском 12360
сках 12360
нять 12359
истока 12355
ховского 12355
выну@@ 12349
заменя@@ 12348
назывался 12345
взаим@@ 12343
делится 12343
немецким 12343
поступила 12343
юри@@ 12343
качество 12342
Род 12341
Сак@@ 12340
шкин 12339
торгов@@ 12337
Кировской 12336
нефтя@@ 12336
песне 12336
Звезды 12335
Всемир@@ 12334
Коман@@ 12334
диаметром 12333
пина 12333
определ@@ 12331
дз@@ 12330
рации 12329
Джованни 12327
пут@@ 12327
лекси@@ 12326
мнения 12325
взгля@@ 12323
льт@@ 12322
назвали 12322
рыбы 12322
баллов 12320
кинского 12320
располагались 12320
американцы 12319
Ере@@ 12318
сути 12318
двою@@ 12317
шпи@@ 12316
04 12315
оча@@ 12315
Ким 12314
льна 12314
бира@@ 12313
симфо@@ 12312
ительном 12310
серде@@ 12310
Структура 12309
подав@@ 12309
десятков 12308
рун@@ 12306
Остров 12305
игрой 12301
z 12299
ляться 12299
теорию 12299
титула 12299
ьё@@ 12299
верши@@ 12295
дерево 12295
b@@ 12294
поддерживал 12294
министер@@ 12293
видеть 12292
стских 12291
шка@@ 12290
пород 12289
современном 12288
прозвище 12287
ур 12286
Джонс 12285
Имя 12285
Франциско 12285
нино 12285
чному 12284
кури@@ 12283
рыв 12283
подполь@@ 12282
Общие 12278
хво@@ 12278
намного 12277
заимство@@ 12276
чисел 12276
представителя 12274
освобождён 12273
пенсионерами 12272
ниж@@ 12271
h@@ 12270
официального 12268
хозя@@ 12268
приказом 12267
пал 12266
1834 12264
отры@@ 12264
рян@@ 12260
избирателей 12259
оттуда 12259
Роб@@ 12258
колё@@ 12255
фаса@@ 12255
Горького 12254
тун@@ 12254
первыми 12253
любо@@ 12252
легендар@@ 12251
нарушения 12249
Кю@@ 12248
тенни@@ 12248
новская 12247
образованию 12247
послан@@ 12247
вои@@ 12245
кристаллы 12244
обладате@@ 12244
учеб@@ 12244
контролем 12243
нала 12243
Алма 12240
пример 12240
объясня@@ 12239
ярко 12239
фигуры 12236
политическая 12235
промышленность 12234
00@@ 12229
мбо@@ 12229
лёт@@ 12227
размеров 12226
лить 12224
прошлого 12224
футболь@@ 12223
Гаври@@ 12221
прида@@ 12219
наши 12217
четырьмя 12217
отказ 12215
частной 12215
Корне@@ 12214
итальянской 12213
ровой 12212
слой 12212
клад@@ 12211
органа 12210
исследо@@ 12209
свин@@ 12207
лице 12205
Молдавии 12204
обеспе@@ 12203
широкое 12203
костю@@ 12201
оранже@@ 12201
Король 12200
крестьянских 12200
пка 12199
железнодорожного 12198
насел@@ 12198
Microsoft 12196
Анато@@ 12195
призы@@ 12195
НХЛ 12191
ЮАР 12191
иной 12190
чаются 12189
посред@@ 12186
бен 12185
дворце 12185
нс 12185
образца 12183
170 12182
Испания 12182
оглы 12182
вещание 12181
Крыму 12180
напоминает 12179
одноим@@ 12179
оце@@ 12179
ждается 12177
купил 12177
Продол@@ 12176
рец 12176
дис@@ 12172
полуфинале 12171
круг@@ 12169
мов@@ 12167
чечен@@ 12166
местность 12165
тину 12162
останови@@ 12160
рийского 12159
населе@@ 12158
колон@@ 12157
Комсомо@@ 12155
Company 12154
профессиональной 12151
чай 12151
вке 12145
десятилетия 12145
емость 12145
формате 12145
всемир@@ 12144
сюжета 12143
химических 12142
Свято@@ 12141
сельскохозяйственных 12141
фен@@ 12140
множе@@ 12139
написаны 12138
Серги@@ 12137
Уча@@ 12137
СНГ 12131
князей 12131
1814 12130
Сле@@ 12130
эт 12129
Западном 12126
мони@@ 12125
постоян@@ 12125
тике 12125
каким 12123
супруги 12123
районом 12122
римского 12122
хождение 12120
См. 12119
скульптуры 12119
собствен@@ 12119
бывшая 12118
технике 12118
кризиса 12117
чим 12117
полномочия 12116
спорт 12115
биологии 12114
вку@@ 12114
Киева 12112
проходя@@ 12111
ослож@@ 12110
получивший 12105
человече@@ 12105
землях 12104
казах@@ 12102
драмати@@ 12101
Образо@@ 12099
бывает 12099
местный 12099
1,2 12097
Геннадий 12097
раско@@ 12097
Ивановна 12095
Край@@ 12095
лос 12095
эквивален@@ 12093
ядер@@ 12092
02 12091
личным 12090
напря@@ 12084
отрасли 12082
командо@@ 12081
ночных 12081
пет@@ 12081
ника@@ 12080
подчин@@ 12080
оркестр 12079
таки 12077
металлов 12076
еврейского 12075
сило@@ 12072
Джек 12071
преж@@ 12071
политическим 12070
Ж 12069
поступа@@ 12069
восстановить 12068
технический 12068
Твер@@ 12066
гос@@ 12065
объединены 12065
One 12062
Примор@@ 12062
Спор@@ 12062
одноимённой 12062
устройств 12057
процессы 12056
восьми@@ 12055
искусство@@ 12055
яния 12054
ждал 12053
эры 12053
менти@@ 12052
отдал 12050
пехотной 12050
турой 12050
делал 12049
мёрт@@ 12046
доли@@ 12044
механизи@@ 12044
Семёнович 12043
наси@@ 12042
низация 12042
йся 12040
пересели@@ 12040
рын@@ 12040
допу@@ 12039
юж@@ 12038
вшемся 12036
частиц 12036
принимают 12035
торговых 12035
колоколь@@ 12033
Филиппа 12032
змом 12032
вшем 12031
молодым 12031
двадцать 12030
Александровна 12028
пациентов 12028
Запоро@@ 12027
вным 12026
бок 12024
Лиге 12023
Шве@@ 12022
мотор@@ 12020
солне@@ 12020
1831 12019
значительный 12019
католиче@@ 12016
Восто@@ 12014
жий 12013
индей@@ 12013
зор 12012
алы 12010
юстиции 12009
лагере 12008
вагонов 12007
кас@@ 12005
паре 12005
Генера@@ 12003
поселе@@ 12003
зой 12002
армян@@ 11999
носите@@ 11999
советника 11999
Европу 11997
урожен@@ 11996
танцева@@ 11993
нером 11990
твёр@@ 11990
рассказов 11987
быстро@@ 11986
линской 11984
цин 11983
атлетике 11982
обмена 11980
чешу@@ 11980
Дебютировал 11979
ставки 11979
женский 11978
лла@@ 11978
inae 11976
Мю@@ 11971
бельги@@ 11965
драмы 11965
национа@@ 11965
рованную 11965
тогдаш@@ 11965
учебного 11964
4,@@ 11961
пии 11961
Свердловской 11959
Часто 11959
бера 11959
водит 11956
штра@@ 11956
характеристи@@ 11954
каналов 11953
велосипе@@ 11952
TV 11951
объектом 11950
Прав@@ 11947
йо@@ 11947
Особенно 11946
меняется 11945
пригород@@ 11945
певец 11943
активной 11940
судей 11939
широколиственных 11939
субъек@@ 11936
безу@@ 11934
высокая 11934
подклю@@ 11934
встретился 11933
оккупи@@ 11928
Сибирского 11926
Ростовской 11925
проектирова@@ 11925
элементами 11925
атам 11924
Тобо@@ 11923
рока 11922
проекте 11921
проведены 11920
26@@ 11919
создавать 11919
авари@@ 11917
Клю@@ 11916
лосо@@ 11916
сот@@ 11916
руку 11915
настоящего 11913
НО@@ 11911
шенный 11910
ята 11907
мах@@ 11906
ону 11906
правительстве 11906
чрезвычай@@ 11905
прозра@@ 11904
захвата 11901
Баль@@ 11900
Спас@@ 11899
кафедру 11899
самцов 11898
марка 11897
жными 11895
1838 11893
импер@@ 11893
коричне@@ 11893
элемент 11893
основа@@ 11892
Анджелес 11889
соответ@@ 11888
тивно 11888
входи@@ 11887
консу@@ 11887
Вернувшись 11886
набе@@ 11886
ёж@@ 11884
писала 11883
мпи@@ 11882
14@@ 11878
оставалась 11877
вершины 11876
сборных 11876
тилась 11876
восстановлен 11873
Гидро@@ 11872
зажи@@ 11870
палу@@ 11870
приспособ@@ 11869
понятия 11867
широкой 11867
бии 11866
декабрь 11865
снаря@@ 11864
приобрела 11863
Наконец 11862
Дель@@ 11861
40@@ 11860
Владимир@@ 11858
европейского 11857
кой@@ 11857
построен@@ 11857
вдохнов@@ 11856
дочер@@ 11856
25@@ 11855
Свет@@ 11854
веща@@ 11853
небольшая 11853
ствуют 11852
рующий 11850
Шта@@ 11848
отдельного 11848
жин 11847
цен 11846
Начал 11845
берта 11845
знает 11845
выез@@ 11844
тормо@@ 11843
Действие 11841
десят@@ 11841
экспеди@@ 11841
зака@@ 11839
Казах@@ 11838
веще@@ 11838
Ом@@ 11835
разрабаты@@ 11834
инициати@@ 11833
топ@@ 11832
Ун@@ 11827
реда@@ 11825
брат@@ 11824
эл 11824
наказания 11823
Юж@@ 11821
подсемейства 11817
считая 11817
заканчивается 11812
Ата@@ 11809
съёмок 11808
эро@@ 11807
баев 11806
чер 11805
РО@@ 11804
действительности 11804
Зар@@ 11803
данное 11803
помощника 11803
Главным 11800
позиция 11800
специальной 11797
Казань 11796
нул 11796
назвать 11795
ану 11794
видно 11794
проло@@ 11793
расположенная 11791
Гил@@ 11790
специальный 11790
прогре@@ 11789
стона 11789
дебютировала 11787
татар 11785
составило 11784
генов 11783
ждённых 11781
состоялись 11780
относят 11778
06 11777
региональных 11777
полномочий 11776
окна 11772
Знач@@ 11770
Пир@@ 11767
заводов 11763
НАТО 11761
решить 11761
1836 11759
нем@@ 11759
авиационного 11758
голова 11758
находясь 11758
долины 11755
прин@@ 11755
хребта 11755
Степанович 11754
западного 11753
лизм 11750
Использование 11748
сильным 11745
январь 11745
благород@@ 11744
мусульман 11744
широкий 11742
продюсером 11741
повтор@@ 11740
ПО 11739
анный 11739
Каз@@ 11738
Давы@@ 11737
почет@@ 11737
леты 11733
варианты 11732
политическую 11732
Бен 11731
Станислав 11731
My 11730
мене@@ 11730
наблюдате@@ 11730
СТ@@ 11729
надцати@@ 11725
Верхов@@ 11724
избра@@ 11724
точку 11724
J 11721
коммен@@ 11718
возра@@ 11717
спла@@ 11716
t@@ 11715
алов 11715
мелкие 11715
ленными 11714
обита@@ 11714
экстра@@ 11713
35@@ 11712
ждено 11712
моро@@ 11707
статусе 11707
владелец 11706
Лар@@ 11705
кии 11704
дало 11703
шель@@ 11703
Российского 11702
выса@@ 11701
след@@ 11701
воспитан@@ 11698
поисках 11696
кате@@ 11694
веро@@ 11693
жах 11693
дже 11692
вилл 11689
кает 11689
подчёрки@@ 11689
дился 11688
z@@ 11687
Солне@@ 11686
Оре@@ 11685
Кё@@ 11684
фабрика 11682
льо 11680
взят 11679
предыду@@ 11679
медицинский 11676
походе 11675
эмиграции 11675
владельцем 11674
миче@@ 11674
прися@@ 11674
Основным 11673
вывод 11672
сра@@ 11672
жек 11671
Челябин@@ 11670
Горь@@ 11669
практи@@ 11669
нач@@ 11664
чан 11664
Однажды 11663
праздник 11663
выте@@ 11662
двор@@ 11662
горского 11661
кла 11660
лак 11659
попро@@ 11656
расширения 11655
фельд@@ 11654
Джон@@ 11653
наций 11650
доступа 11648
владений 11644
нрав@@ 11644
дому 11643
кольцо 11643
ответственности 11643
хон@@ 11643
ЦСКА 11642
кации 11641
убивает 11641
большом 11640
стрель@@ 11640
5,@@ 11639
говорится 11639
коллегии 11637
лева 11637
рабочие 11637
Томаса 11632
королю 11632
считаются 11629
территориальная 11628
Советская 11627
кня@@ 11626
учения 11625
Коммуна 11624
1813 11623
полномо@@ 11621
укрепления 11621
селение 11619
длине 11618
брен@@ 11617
величина 11617
мно 11615
петербург@@ 11614
проигры@@ 11612
Йорка 11611
срав@@ 11610
бом@@ 11609
малень@@ 11609
неправи@@ 11609
течёт 11608
увидел 11608
кен 11607
слов@@ 11605
электронной 11605
лас 11603
фик@@ 11603
западно@@ 11600
идеологи@@ 11600
лое 11600
обли@@ 11600
хирурги@@ 11600
добави@@ 11599
ченная 11598
1846 11595
типы 11595
восстановление 11593
овладе@@ 11591
оттен@@ 11589
проф@@ 11589
мульти@@ 11588
занимают 11587
лённых 11587
Ставро@@ 11585
водосборного 11585
кратера 11584
науке 11583
озере 11583
женным 11582
изме@@ 11582
Вероятно 11580
тически 11580
заболеваний 11579
Эдвард 11578
съезде 11575
целый 11574
Брян@@ 11573
ГО@@ 11571
видами 11571
вме@@ 11571
следования 11569
кап@@ 11566
Ави@@ 11565
Саратов@@ 11563
культурных 11563
нашёл 11562
настоящий 11561
уте@@ 11560
Западный 11559
Воскресен@@ 11558
Фили@@ 11557
араб@@ 11556
лизация 11556
трудно 11556
училась 11552
филиал 11552
дополнительных 11551
правда 11551
шной 11551
Аг@@ 11550
местным 11549
подзем@@ 11548
отпу@@ 11547
парово@@ 11547
реги@@ 11547
будто 11545
определяет 11543
домохозяйств 11542
комсомо@@ 11541
берг@@ 11540
тивным 11540
Юлия 11537
возму@@ 11537
размером 11537
вершине 11536
взгляды 11536
грамо@@ 11536
вызвал 11533
образа 11533
тельно 11532
активность 11531
дизай@@ 11531
соста@@ 11531
упраздн@@ 11528
Григорь@@ 11524
Италию 11523
Рэ@@ 11523
говое 11523
град 11522
руб 11522
сможет 11522
мате@@ 11521
племен@@ 11521
казаков 11520
листиче@@ 11520
некоторыми 11519
пас@@ 11519
половина 11516
гих 11515
правого 11514
ряд@@ 11513
зеле@@ 11512
концертов 11512
тская 11511
рация 11510
ственность 11508
Таврической 11507
ГК 11506
дели 11505
шасси 11504
коротким 11503
албан@@ 11501
защищать 11501
лённый 11499
получал 11498
американские 11496
гне@@ 11496
касается 11495
стили 11495
Вильгельма 11494
валю@@ 11494
обстре@@ 11494
имуще@@ 11491
шкой 11491
биографи@@ 11489
феода@@ 11489
индустрии 11488
чны 11487
отре@@ 11486
последняя 11483
навод@@ 11481
Тере@@ 11480
r 11479
помещении 11479
А. 11478
Секре@@ 11476
мная 11475
Па 11474
выполнять 11474
Рим@@ 11473
новском 11473
окраине 11469
увеличение 11469
войскам 11468
приехал 11468
ядра 11468
Таган@@ 11467
артиллерийского 11466
различным 11465
Достижения 11462
большими 11462
принци@@ 11462
ствовало 11461
существовали 11459
Дво@@ 11458
континента@@ 11456
посвятил 11456
популярности 11455
открытый 11454
сены 11454
покинули 11453
гле@@ 11451
тесно 11447
ответил 11446
бул@@ 11445
ьи@@ 11445
юк 11445
структур@@ 11442
ходила 11441
сий 11439
Существуют 11437
различия 11437
анные 11433
официальном 11433
французским 11433
поездки 11431
миром 11428
прошло 11426
Самый 11425
строительных 11424
Браун 11423
внутреннего 11423
пределы 11423
Жан@@ 11422
задачу 11418
фанта@@ 11418
била 11416
вокзала 11416
супруга 11415
удосто@@ 11415
атели 11414
приняло 11412
тельный 11412
явно 11411
мара@@ 11410
тельной 11409
Ка 11407
фан 11407
каме@@ 11406
оцен@@ 11406
увеличения 11403
химической 11402
бак@@ 11401
Достопримечательности 11399
выводу 11399
перебро@@ 11399
скульп@@ 11399
педагогического 11398
молит@@ 11397
расследо@@ 11397
Ль@@ 11394
бронзовым 11394
пострада@@ 11393
15@@ 11392
Фре@@ 11391
расы 11389
1851 11388
соли@@ 11388
свидетельствует 11387
освобождении 11386
вину 11385
Вра@@ 11384
бакалавра 11383
профессиональных 11383
риса 11383
кари@@ 11382
вское 11381
золотые 11381
реформ 11379
говые 11378
полном 11378
вступ@@ 11377
зарубежных 11377
располагалась 11376
МО 11375
Тома@@ 11375
като@@ 11373
рито@@ 11367
Брод@@ 11366
Уин@@ 11366
Яна 11364
Клуб 11362
рийский 11360
тоном 11360
450 11356
това@@ 11356
ситуацию 11355
течении 11355
берегах 11354
находяще@@ 11353
Феодо@@ 11352
говоря 11352
ологи@@ 11352
Зай@@ 11349
Кни@@ 11349
Рах@@ 11349
командном 11348
1802 11346
Валентин 11346
пира@@ 11346
тович 11346
Правительство 11345
законы 11345
лем@@ 11345
совету 11345
анский 11344
баль@@ 11344
строительного 11344
Виш@@ 11343
кило@@ 11343
иллюстра@@ 11342
шар@@ 11342
позна@@ 11341
получение 11341
38@@ 11339
благоприя@@ 11339
католи@@ 11339
рении 11339
1839 11337
владел 11337
выиграв 11337
открытым 11337
бей 11336
вопросу 11335
лье@@ 11335
риан@@ 11335
Служил 11334
образовано 11333
кольца 11332
лодок 11332
наступа@@ 11331
нашего 11331
деревян@@ 11327
Рабоче 11325
стане 11325
патриар@@ 11324
измерения 11322
перевозки 11322
Вера 11321
дея@@ 11321
Ассоциации 11319
Созда@@ 11319
звуча@@ 11319
кавале@@ 11317
полным 11317
убил 11317
инду@@ 11316
преобразо@@ 11316
остановить 11314
прило@@ 11313
разобра@@ 11313
СК 11312
лучшей 11311
Тон@@ 11310
Бой@@ 11309
основание 11309
Эрик 11308
йд 11308
изготовления 11307
выдели@@ 11306
называться 11306
попасть 11306
Дмитри@@ 11304
Создание 11303
пое@@ 11303
зана 11300
снялась 11299
американском 11298
чника 11298
впечатление 11295
аном 11293
крем@@ 11293
лога 11293
Балтийского 11292
российские 11291
После@@ 11287
Олимпиаде 11285
бесе@@ 11285
убийстве 11285
греческой 11284
религиоз@@ 11283
Чар@@ 11282
пушки 11282
еву 11281
роду 11281
101 11279
Калифорнии 11278
вдох@@ 11278
Истори@@ 11277
социалистиче@@ 11275
idae 11273
безработных 11272
оборонитель@@ 11269
детской 11268
изви@@ 11268
сложных 11267
настаи@@ 11266
излучения 11265
Украин@@ 11262
пользователей 11262
астро@@ 11259
выполнил 11259
яние 11259
лине 11256
лечение 11254
шины 11254
1847 11253
немецкая 11253
японских 11252
гала 11251
ографи@@ 11251
топ 11250
продолжить 11249
митрополита 11248
1837 11247
Муниципалитет 11247
хар 11246
Лебе@@ 11244
плена 11244
аре 11243
шов 11243
Литератур@@ 11241
отделении 11239
свобод@@ 11238
эпизоде 11238
пс 11236
врачей 11235
альпи@@ 11233
йном 11233
наоборот 11233
k@@ 11231
действием 11231
доцент 11229
проник@@ 11229
уверен@@ 11229
Ие@@ 11225
кожи 11225
июнь 11222
равнины 11221
Офици@@ 11219
Участники 11219
1828 11217
оператив@@ 11217
спир@@ 11217
ит 11216
нан 11214
сестрой 11212
Рю@@ 11211
ссом 11211
хромо@@ 11211
Воспитанник 11210
мифологии 11209
плаз@@ 11208
социал 11208
сценарист 11208
Манчестер 11207
госпита@@ 11207
август 11203
даны 11203
факторов 11202
Благо@@ 11201
циона@@ 11200
дополнение 11199
Владимирской 11198
апрель 11198
ителю 11195
какое 11195
собран@@ 11195
эфи@@ 11195
дебют 11193
кол 11193
Преображен@@ 11192
проживают 11192
сведений 11187
Торонто 11186
недостаточно 11186
очевид@@ 11186
сбро@@ 11186
Варшав@@ 11185
Сочи 11182
мут 11179
вовсе 11178
Саратовской 11176
докла@@ 11176
кантон 11176
Европейской 11175
мети@@ 11172
осве@@ 11172
Смолен@@ 11169
редактора 11169
машину 11167
разу 11167
двум 11165
простой 11165
опасности 11164
ствуя 11164
Екатери@@ 11162
лив 11160
поток 11160
спорту 11160
статью 11155
вица 11153
имущество 11152
ор 11152
размеры 11151
астроно@@ 11149
ЭС 11148
лар@@ 11148
кафедра@@ 11147
камеры 11144
чтения 11144
Хра@@ 11143
Джоном 11142
винского 11142
гипоте@@ 11140
продолжение 11140
вию 11139
мок 11138
собрании 11138
постановлением 11134
полиция 11133
сутки 11133
Куйбы@@ 11132
поворо@@ 11132
дай@@ 11125
авторите@@ 11123
будущий 11122
приме@@ 11122
слом 11122
угля 11122
Аш@@ 11121
уна 11121
перейти 11118
пр 11117
инфра@@ 11116
контин@@ 11116
утром 11116
чом 11116
сибир@@ 11113
достига@@ 11111
колледжа 11111
присутствии 11110
лекар@@ 11107
природных 11107
записал 11104
звуко@@ 11104
нормати@@ 11104
Тбилиси 11103
Другой 11102
квартира 11102
тились 11102
возника@@ 11101
госте@@ 11101
мэр 11100
координа@@ 11099
говорили 11098
крупной 11098
поддержал 11098
буду@@ 11097
означать 11097
залив 11096
земного 11095
ительными 11095
крестьяне 11095
Гю@@ 11093
Роман@@ 11093
операцию 11091
р. 11091
ывал 11091
ограничения 11090
Константинович 11088
издана 11088
совме@@ 11088
Ще@@ 11087
продаж 11087
Малой 11085
груди 11085
Продолжительность 11084
буквально 11083
Профессор 11081
давлением 11081
вирту@@ 11080
дислоци@@ 11080
живу@@ 11080
at 11078
совой 11078
Николаевна 11077
мемориаль@@ 11077
мса 11077
Водо@@ 11076
крово@@ 11075
монет 11075
осла@@ 11075
отличился 11075
правителем 11075
Народ@@ 11073
инженеров 11073
ровало 11072
разными 11071
Чан@@ 11070
возмож@@ 11070
уничтожить 11070
пои@@ 11069
обнаружи@@ 11068
Кино@@ 11065
столько 11063
монд 11062
чия 11061
яще@@ 11060
вшуюся 11059
монастыр@@ 11059
случаи 11058
врагов 11057
гара 11057
описыва@@ 11054
мора 11053
1826 11049
уточ@@ 11049
Ново 11048
принадлежала 11048
драма 11047
опа@@ 11047
писали 11045
1845 11044
значит 11044
небольшое 11044
нев 11043
пел 11043
держав@@ 11042
космиче@@ 11041
рет 11041
Число 11040
гнез@@ 11040
победой 11039
Жил 11038
Новгород 11038
кристал@@ 11038
протя@@ 11037
Бое@@ 11030
груз@@ 11030
стина 11030
включал 11029
нёс 11028
Стани@@ 11027
Хен@@ 11027
местами 11027
обнаружено 11025
создате@@ 11024
веса 11023
фран@@ 11023
Яко@@ 11022
Ту 11021
читать 11021
Общество 11020
Рек@@ 11020
критика 11020
Район 11019
комбинат 11019
сж@@ 11018
дских 11017
утра 11016
жилой 11015
рази@@ 11015
хал@@ 11015
плу@@ 11014
13@@ 11011
совмести@@ 11011
женских 11010
происходят 11009
Украинского 11008
владельца 11008
Андер@@ 11007
Местный 11005
Адам 11002
Тэ@@ 11002
бомбарди@@ 11002
муниципальный 11002
участков 10999
Клин@@ 10998
Мати@@ 10998
годо@@ 10994
противоре@@ 10994
мяча 10992
ране 10992
Герман 10991
Средней 10991
строитель@@ 10991
учёного 10991
зар 10990
удара 10990
Основными 10988
методом 10988
Федор 10986
лато@@ 10984
промышленного 10984
ведущим 10983
выпущены 10983
Порт 10982
сской 10982
тамо@@ 10982
Альберт 10981
ционно 10980
Стивен 10979
ату 10978
выше@@ 10978
Медве@@ 10977
Октябрь@@ 10977
КБ 10976
самок 10976
11@@ 10975
СО@@ 10971
имеющих 10969
стической 10969
ленин@@ 10966
мя 10966
кат 10965
оставались 10965
отрав@@ 10964
der 10961
выбра@@ 10961
энь 10961
Рязанской 10960
мно@@ 10959
серьёз@@ 10959
Елизавета 10956
учен@@ 10956
приняты 10951
регистра@@ 10951
Хру@@ 10950
дене 10949
убиты 10949
гс 10947
возникновения 10946
жену 10946
воздухе 10944
Констан@@ 10943
шлю@@ 10943
представляла 10941
присутствуют 10941
проектом 10940
Коре@@ 10939
al 10937
Широ@@ 10937
нениями 10937
шенные 10936
граммати@@ 10933
отрядов 10932
Главной 10931
само 10931
земе@@ 10930
техникум 10930
однажды 10929
прессе 10926
сков@@ 10926
событиях 10925
основную 10924
посвящена 10923
предстоя@@ 10923
отвечает 10922
исключ@@ 10921
иды 10920
подписан 10920
указано 10919
Яку@@ 10918
Марти@@ 10917
девяти 10917
источника 10916
вей 10915
подходя@@ 10913
Лишь 10911
нарушение 10911
Энн 10910
остаются 10910
гнут 10907
матери@@ 10907
Анри 10906
Право@@ 10906
Северном 10906
Рам@@ 10905
стике 10904
ландшаф@@ 10902
ел 10901
ховский 10901
шире 10901
академия 10900
Варшаве 10898
смотри@@ 10898
Применение 10897
Кня@@ 10895
городок 10895
англи@@ 10894
хау@@ 10893
возвы@@ 10892
пол 10892
формально 10892
бая 10890
пиани@@ 10890
южном 10890
зара@@ 10889
зму 10888
путе@@ 10887
механизм 10886
Войска 10885
образуется 10885
предо@@ 10884
Расположение 10883
никакого 10883
Впрочем 10882
Снежный 10882
бь@@ 10882
использованы 10882
просвещения 10882
туристов 10882
СА@@ 10881
служа@@ 10881
основан@@ 10880
восстанавли@@ 10879
платформа 10879
Данный 10878
краю 10878
115 10875
лялся 10875
заведений 10874
предпочита@@ 10874
математических 10873
притоков 10873
реаги@@ 10872
архиепископа 10871
эндо@@ 10869
кинский 10868
напрямую 10867
символиче@@ 10867
революционной 10865
сово 10865
крейсера 10864
посещал 10864
Закавказ@@ 10863
популярным 10863
ценности 10863
g 10861
Американ@@ 10860
многочислен@@ 10860
говоры 10858
сюда 10858
инстру@@ 10857
засе@@ 10856
позволили 10855
Верховный 10853
хотели 10852
отцу 10850
кона 10849
установка 10849
заво@@ 10847
программи@@ 10846
Орден 10845
Бли@@ 10843
объявили 10842
понимает 10842
цит@@ 10842
вариантов 10841
зачислен 10840
разор@@ 10840
вошло 10837
ственному 10836
основное 10835
пропаганди@@ 10835
чников 10835
положительные 10833
барон 10830
личном 10829
осозна@@ 10827
жим 10826
изделия 10826
сой 10826
сос@@ 10826
Фрей@@ 10824
гендерной 10824
евское 10824
Беларуси 10819
г.@@ 10819
слен@@ 10819
монаше@@ 10818
тье 10818
пожало@@ 10817
скрип@@ 10817
главная 10816
показать 10814
Шам@@ 10812
общения 10812
разработка 10812
ствование 10811
студия 10809
установления 10809
ровская 10808
сотрудничал 10808
пожара 10807
an 10801
океа@@ 10801
написан@@ 10798
исте@@ 10796
отмечается 10795
литература 10794
ловых 10794
угрозой 10794
учит@@ 10794
жья 10793
оба@@ 10792
приводи@@ 10792
заметил 10789
ассоции@@ 10787
деревянная 10785
трамвай@@ 10784
Семи@@ 10783
утвержда@@ 10782
головой 10781
дух 10781
траги@@ 10781
тря@@ 10781
городские 10780
медицин@@ 10780
Лондона 10779
Щер@@ 10779
перевода 10779
провинци@@ 10779
соседних 10779
столицей 10779
проли@@ 10778
Мира 10776
Одной 10774
Юн@@ 10773
Берлин@@ 10772
Людовика 10772
собственное 10772
взор@@ 10771
оценкам 10771
сотрудники 10770
Кавказ@@ 10769
ас@@ 10768
ковское 10768
хвойно 10768
Место 10767
почтовых 10766
полком 10765
берегов 10762
сет 10761
аргу@@ 10760
Белорусского 10759
правителя 10759
худож@@ 10757
издании 10756
лёгких 10755
туризма 10752
тёплый 10750
анима@@ 10749
глубина 10749
император@@ 10749
ТУ 10748
этаже 10746
ясно 10745
муче@@ 10743
понять 10743
Чернигов@@ 10742
Энтони 10740
графство 10739
1844 10738
поки@@ 10738
Air 10737
введения 10737
сборника 10736
немецко 10735
Эндрю 10734
Наряду 10733
квартире 10733
Моги@@ 10731
гал@@ 10731
располагаются 10731
обыгра@@ 10730
Борисович 10729
пару@@ 10729
барона 10728
Каспи@@ 10727
идти 10727
хер@@ 10726
Современное 10724
кажется 10724
шков 10724
полков 10722
получать 10722
месту 10720
темпера@@ 10720
Ник@@ 10719
судьба 10719
малой 10718
могуще@@ 10718
турне 10718
Кирил@@ 10717
официальное 10717
знаки 10716
масс 10715
попытке 10715
Андро@@ 10714
талантли@@ 10714
Паль@@ 10713
гового 10713
циф@@ 10706
экономике 10705
16@@ 10701
здоро@@ 10701
экономико 10699
Генри@@ 10698
церковью 10698
общи@@ 10695
Ани@@ 10694
продолжала 10693
финансовых 10693
ролях 10691
кандидатом 10689
тыс 10689
ьем 10689
показан 10688
Австро 10687
льт 10686
национальности 10686
сар 10686
Хро@@ 10685
гражданин 10685
защитника 10685
аспирантуру 10684
христиан 10684
Хат@@ 10683
физических 10683
вино 10681
фрак@@ 10681
актрисы 10680
тти 10680
обозначение 10679
Примечания 10678
Известен 10677
километра 10677
работами 10675
несла 10674
Центра 10673
связыва@@ 10673
АМ@@ 10672
щений 10672
осад@@ 10671
Примерно 10670
слегка 10668
повышение 10667
врачом 10666
Рак@@ 10660
мейстер 10660
знаний 10659
проез@@ 10659
астрономиче@@ 10658
ьц@@ 10657
коре@@ 10654
шевский 10653
государственным 10652
последовательно 10652
Сат@@ 10651
остаться 10651
Кореи 10650
белой 10650
ринского 10650
запад@@ 10648
опровер@@ 10648
зоо@@ 10646
объявлен 10646
указыва@@ 10646
МВт 10645
Южно 10643
получали 10643
музыкой 10642
Обу@@ 10641
Финал 10641
ритель@@ 10641
тору 10641
лето 10640
способны 10640
Земля 10639
сдела@@ 10639
Итальян@@ 10637
выбора 10637
занялся 10636
нову 10635
создаёт 10635
сохранилась 10634
проведении 10633
броса@@ 10632
надписью 10632
Успен@@ 10631
узлов 10631
вил@@ 10630
хая 10630
заняв@@ 10629
кормо@@ 10629
ктора 10629
дорогой 10627
Республикан@@ 10626
предполагалось 10626
международным 10623
опухо@@ 10623
рист 10622
Отече@@ 10621
80@@ 10618
Вита@@ 10617
историка 10617
северных 10616
сумма 10615
греческий 10614
строительный 10613
1835 10609
зался 10609
Премия 10608
Тей@@ 10607
собственность 10607
1796 10606
дья@@ 10606
агент@@ 10605
организовать 10605
великий 10604
следующей 10604
выступая 10603
Журнал 10601
контракта 10601
Западно 10598
дизайн 10598
таблице 10598
горной 10597
небольшим 10597
освобождение 10597
самим 10596
спро@@ 10595
характеризу@@ 10593
Моисе@@ 10588
вье 10586
наличии 10586
младшим 10585
племён 10583
Пермского 10582
рубеже 10582
фо 10582
Нидерланды 10580
07.@@ 10578
рены 10575
Федо@@ 10574
Вто@@ 10573
Су 10572
детали 10572
числом 10571
бывшие 10570
Олимпиады 10569
нато@@ 10569
снялся 10568
стика 10568
Кузне@@ 10566
вон@@ 10566
продоволь@@ 10566
центри@@ 10566
подводных 10565
пик 10563
собственным 10563
цик@@ 10563
гет@@ 10562
живой 10562
протеста 10560
сумме 10559
Основан 10557
гры@@ 10554
станцией 10552
занимала 10551
стах 10550
Семён 10549
кура@@ 10549
летнее 10548
мур@@ 10548
географии 10547
рабаты@@ 10547
Ричарда 10546
креста 10546
прести@@ 10546
издательства 10544
сильный 10544
Днепропетро@@ 10542
актив@@ 10542
монографий 10542
вань 10541
Воронежской 10540
енных 10539
лит 10536
│ 10536
раста@@ 10535
финской 10534
маро@@ 10533
пригласил 10533
дате@@ 10532
проблема 10531
твор@@ 10531
выпустили 10530
ьера 10530
воевал 10529
гуманитар@@ 10528
бух@@ 10527
графических 10527
книгах 10527
посо@@ 10526
присоединения 10526
прохождения 10526
телеканале 10526
тетра@@ 10526
экипа@@ 10526
Перси@@ 10525
записей 10525
нным 10525
обсерватории 10525
полёт 10525
ала 10524
расположен@@ 10524
стати@@ 10523
склады@@ 10522
Земле 10521
колхозе 10521
АН@@ 10520
Ниже 10520
предполагает 10520
гимназию 10519
сцену 10519
Ца@@ 10515
адмирал 10515
карт 10515
мед 10513
футбол 10512
космических 10510
смысл 10510
тя 10510
Крис 10509
Первую 10509
КГБ 10508
концерты 10508
фун@@ 10508
предшествен@@ 10507
рядов 10507
АП@@ 10506
Предыстория 10506
Петров@@ 10505
серд@@ 10505
зме@@ 10503
посад@@ 10503
вулка@@ 10501
озёр 10498
сделано 10498
аф@@ 10497
выру@@ 10497
лян 10496
Ко 10495
Ивановича 10494
нились 10493
ида 10492
гий 10489
Музыка 10486
сну@@ 10486
сельскохозяй@@ 10484
Бит@@ 10482
сении 10482
мура 10481
ресур@@ 10481
динами@@ 10480
льством 10480
памятники 10480
композиторов 10476
берге 10475
дочерей 10475
спло@@ 10472
тировать 10471
Даже 10470
Брен@@ 10469
стических 10469
1806 10468
лесной 10467
1832 10465
Австралия 10464
яйца 10464
замке 10462
отвагу 10462
звук 10460
Народного 10459
Лек@@ 10455
оне@@ 10452
ьева 10452
ёс 10452
действующей 10448
золотых 10447
1200 10446
Сино@@ 10446
Депутат 10445
переве@@ 10445
слияния 10445
воздух 10443
Ефи@@ 10440
Почти 10440
ути@@ 10439
стого 10438
построенный 10437
1825 10436
Военной 10436
евро@@ 10431
иннова@@ 10431
ццо 10430
102 10427
Гель@@ 10426
Матч 10426
Пове@@ 10426
парном 10426
премий 10426
Джозеф 10425
балет@@ 10424
эфире 10424
японского 10423
административных 10422
выбо@@ 10422
Кок@@ 10421
просьбе 10421
передаче 10420
учитель 10420
06.@@ 10418
температуре 10418
Плани@@ 10416
кви@@ 10416
адресу 10415
гский 10415
Кавказа 10414
тно@@ 10414
ленда 10413
орна@@ 10413
ывался 10412
южных 10411
АЭС 10409
Хали@@ 10408
расчё@@ 10408
ступил 10406
путешествие 10405
пластин@@ 10403
РНК 10401
интерпре@@ 10401
снять 10401
бель@@ 10400
литературной 10399
литературного 10398
шений 10398
образных 10396
Степан 10395
1815 10389
студию 10389
эксплуати@@ 10389
генеральным 10387
объяв@@ 10385
шино 10384
сла 10382
перечисленных 10381
рыб@@ 10381
ьма 10381
откро@@ 10379
свадь@@ 10377
Восточного 10376
Кази@@ 10374
Леон 10374
выпущен@@ 10374
Движение 10373
Исла@@ 10369
мировых 10369
партийной 10368
самолё@@ 10366
траве 10366
мины 10363
Божией 10362
пошёл 10359
Внеш@@ 10358
Тамбо@@ 10358
Тихоокеан@@ 10358
бург@@ 10358
захоро@@ 10358
ведут 10357
гат 10357
кризис 10357
ринга 10356
Вор@@ 10355
Сухо@@ 10355
Тя@@ 10352
Ната@@ 10351
городке 10351
присво@@ 10351
Публи@@ 10350
кругло@@ 10350
культурной 10350
des 10349
Хил@@ 10348
дизе@@ 10347
М.@@ 10346
судьи 10346
ГУ@@ 10344
ады 10344
кас 10344
дивизию 10341
буквы 10340
вступления 10340
Две 10336
расту@@ 10336
больница 10335
архитектором 10334
цево 10331
втори@@ 10330
кардина@@ 10327
польском 10327
1817 10326
2.@@ 10326
трево@@ 10325
ходя 10324
пятый 10323
лицензи@@ 10322
кафе 10321
ключ@@ 10321
руемых 10321
тира@@ 10321
епархи@@ 10320
какого 10320
пару 10320
двигателем 10319
Подчиняется 10317
расследования 10317
насилия 10316
m@@ 10315
движением 10315
владельцев 10314
военнослужа@@ 10314
замужем 10313
Кау@@ 10312
корпу@@ 10312
вное 10311
Бог 10310
кола 10310
слабо 10310
вариан@@ 10309
сыграв 10309
чест@@ 10309
Кристиан 10308
Театр 10308
достой@@ 10308
пан 10308
арт 10306
фия 10306
долю 10305
мировом 10304
няка 10304
вёр@@ 10303
квартиры 10303
педаго@@ 10303
установили 10303
извле@@ 10302
Законодате@@ 10301
металла 10301
ссий 10300
поколение 10299
долж@@ 10298
римской 10298
телеканала 10298
Литература 10297
теров 10297
Юрь@@ 10296
делают 10296
мастер@@ 10296
рассказал 10295
случай@@ 10294
приговорён 10292
Монголии 10291
князем 10291
комисса@@ 10291
кварта@@ 10290
низкой 10290
делом 10288
прочего 10287
Одес@@ 10285
выделены 10285
советско 10285
фора 10285
руководя@@ 10284
фигури@@ 10282
отказыва@@ 10279
ширины 10279
санитар@@ 10278
er 10276
Почётный 10276
рассказыва@@ 10276
демократической 10275
рите@@ 10273
рованном 10273
возведён 10272
вичем 10270
греческих 10270
МИ@@ 10269
короткометра@@ 10269
пл@@ 10269
комбината 10266
бус 10265
Август 10264
работки 10263
точке 10263
альном 10261
1841 10259
названы 10259
кавказ@@ 10258
кули@@ 10258
Ниже@@ 10257
Чай@@ 10257
альную 10257
хэ@@ 10257
Египет 10256
Иг@@ 10256
Комиссии 10256
сбор 10256
фона@@ 10256
библиотеке 10255
зания 10255
Культура 10254
220 10253
записан 10252
партией 10251
скопи@@ 10251
сформи@@ 10250
Мали@@ 10248
вавшего 10248
льф 10248
ребёнком 10248
вероя@@ 10247
въ@@ 10247
ристи@@ 10246
согласия 10246
называл 10245
такую 10244
террористи@@ 10243
цов@@ 10243
чам 10242
правительству 10240
рассказы 10238
футбольного 10238
длинные 10237
еся 10236
собак 10236
искать 10235
морские 10235
месторождения 10231
Спе@@ 10230
крас@@ 10230
палом@@ 10230
тово 10228
посвящены 10226
анского 10224
закрытия 10222
способен 10220
ительностью 10219
вышедший 10218
событие 10218
клубу 10217
ренных 10216
Основ@@ 10215
мг 10215
поз@@ 10215
традиционных 10215
Све@@ 10213
Обь 10210
Валентина 10209
чжоу 10209
Православной 10208
закончился 10208
стую 10208
называемые 10207
иллюстри@@ 10206
лённые 10206
Русская 10205
числе@@ 10203
шок 10203
несли 10202
поиска 10202
свете 10202
вичи 10201
возро@@ 10201
беженцев 10200
Европейского 10197
стройка 10197
тьев 10197
курсов 10195
следу@@ 10195
эстра@@ 10195
камня 10194
рота 10194
традиционной 10194
атое 10193
разработана 10193
Американской 10192
Словакии 10192
воздействия 10192
казан@@ 10192
зя 10191
готови@@ 10190
атаку@@ 10188
чёрного 10188
Мура@@ 10187
гот@@ 10187
зрите@@ 10186
выигры@@ 10185
красной 10185
кнул 10184
стрельбы 10184
дур@@ 10183
09.@@ 10182
эффективности 10181
дино 10179
действовала 10176
струк@@ 10176
добычи 10175
распоряжение 10175
Белый 10174
135 10171
Пруссии 10171
различ@@ 10170
Дви@@ 10169
банд@@ 10169
Аки@@ 10168
контрак@@ 10168
съём@@ 10167
04.@@ 10166
Волго@@ 10166
интегра@@ 10166
незадолго 10166
посел@@ 10166
Соединённых 10165
ноябрь 10165
противников 10165
жан 10164
поддержкой 10164
вере@@ 10163
борт 10161
g@@ 10160
тация 10159
50@@ 10158
тическими 10158
жами 10156
источникам 10156
Жанейро 10155
десятки 10155
рила 10153
Малый 10152
Фан@@ 10152
углу 10151
фера 10151
кораб@@ 10150
забив 10149
сном 10149
потерпел 10148
экономический 10148
1810 10146
данными 10146
одо@@ 10142
романов 10142
22@@ 10141
Люди 10139
девушек 10139
системах 10139
строена 10139
физ@@ 10139
хав@@ 10139
попросил 10137
жизнью 10134
воеводства 10133
природ@@ 10131
Индонезии 10129
левский 10129
заказу 10128
открыты 10128
дец 10127
Свято 10126
мэра 10126
вичу 10125
і 10125
Испол@@ 10124
кор 10122
обнаружили 10121
In 10120
реальности 10120
служили 10120
разнообраз@@ 10119
Авгу@@ 10118
афро@@ 10118
тёр 10115
Ори@@ 10114
матов 10113
родила 10112
серьёзно 10112
Олимпийские 10111
Вед@@ 10110
Нур@@ 10110
Q@@ 10109
введена 10109
агентства 10108
гам@@ 10108
ническом 10108
Уильямс 10106
нар 10104
оркестром 10104
семина@@ 10104
кается 10103
ознаме@@ 10102
1843 10101
появи@@ 10098
Ордена 10097
местными 10096
It 10093
затруд@@ 10093
музыкальные 10092
признания 10092
сом@@ 10092
списка 10091
эфир 10090
Пря@@ 10088
Научно 10087
дном 10087
султана 10087
встретил 10086
Стюарт 10085
корреспондентом 10084
кампанию 10082
механики 10082
короткий 10081
фро@@ 10081
Шуль@@ 10080
Black 10079
АК 10079
Армию 10078
поса@@ 10078
1833 10077
Партия 10077
полную 10076
причины 10076
боли@@ 10075
Рейн@@ 10074
йные 10074
подверга@@ 10074
исследователь 10072
сектора 10072
уст@@ 10072
Гин@@ 10071
ж. 10070
имение 10070
лети@@ 10070
1821 10065
рат@@ 10065
Яро@@ 10064
сознание 10064
короткие 10063
6,@@ 10062
обвинению 10061
ганд@@ 10060
российском 10060
особой 10059
шили 10059
волост@@ 10057
жества 10057
разное 10054
перешел 10053
Мартина 10049
строительству 10049
Стан@@ 10047
вспоминал 10047
насчит@@ 10047
сирий@@ 10047
операциях 10046
строго 10046
Испан@@ 10045
Владислав 10044
рисун@@ 10044
чувства 10044
вечером 10043
летнюю 10043
рабочим 10043
Гле@@ 10042
русскими 10042
1805 10041
древнего 10041
красно@@ 10041
Над 10040
Аз@@ 10038
бек@@ 10038
скле@@ 10038
предска@@ 10037
принципы 10036
Зан@@ 10032
горный 10032
кля@@ 10029
княжество 10029
ом 10028
en 10027
бронзо@@ 10026
просто@@ 10024
Зелё@@ 10023
приё@@ 10023
северном 10021
участниками 10021
жье 10019
Буэнос 10018
водится 10017
двери 10017
льм 10016
постановление 10015
Война 10014
достовер@@ 10014
Лок@@ 10013
возможным 10012
продо@@ 10012
фика@@ 10011
ова@@ 10010
Луган@@ 10008
Диего 10003
четыр@@ 10003
Анатольевич 10002
ждённый 10002
Любовь 10001
Прин@@ 10001
действо@@ 10001
Мел@@ 10000
успехов 10000
Сво@@ 9999
Соедин@@ 9998
Императорского 9997
накоп@@ 9997
дорф 9996
сообщ@@ 9995
Дочь 9994
Орловской 9992
десятин 9992
завя@@ 9992
ённо 9992
труп@@ 9991
яне 9991
лодка 9990
тило 9989
ид 9988
жест@@ 9986
Коста 9985
престола 9985
стоимости 9985
Волга 9984
зве@@ 9984
мали 9984
стская 9984
введён 9983
пр@@ 9983
институ@@ 9982
нель 9979
Жана 9978
Матве@@ 9978
регистрации 9978
товая 9978
бета 9976
Коми 9975
Первомай@@ 9975
Шен@@ 9975
взгляд 9975
изоли@@ 9975
обмен@@ 9975
разре@@ 9975
социали@@ 9975
господ@@ 9972
дара 9972
времен 9970
унаследовал 9968
фос@@ 9968
церковной 9968
заключённых 9966
сена@@ 9966
следствие 9966
Георг 9965
тения 9965
ано@@ 9964
детям 9964
ночной 9964
женщиной 9962
7,@@ 9961
Ма 9957
выходят 9956
заведения 9956
йско 9956
нную 9956
споры 9956
чиками 9955
щему 9955
Си 9954
учителей 9954
Этимология 9953
Звёз@@ 9952
h 9951
охране 9951
патри@@ 9951
православ@@ 9949
марк@@ 9948
Старый 9947
цикло@@ 9947
чатый 9947
Москов@@ 9946
написала 9946
Дальне@@ 9945
Цве@@ 9944
анонси@@ 9943
нилась 9942
цити@@ 9942
структур 9941
учитель@@ 9941
героизм 9939
религи@@ 9939
чёрные 9939
млекопитающих 9937
чёва 9937
релиз 9936
секунды 9936
нских 9934
рением 9934
АС 9932
Авиа@@ 9932
Юрьевич 9931
авиакомпании 9931
повышен@@ 9929
v@@ 9928
религиозной 9928
МО@@ 9927
колхоз@@ 9927
ченное 9925
ите 9924
реконструи@@ 9924
няк 9919
отрядом 9918
хранится 9918
двер@@ 9916
рован@@ 9916
гитарист 9915
Рат@@ 9914
Софии 9913
волшеб@@ 9912
Восточная 9911
Он@@ 9911
ента@@ 9911
узнаёт 9910
кия 9909
экспор@@ 9909
нелега@@ 9906
степенью 9904
технические 9904
взлё@@ 9902
риф@@ 9902
широко@@ 9900
свободно 9899
трудом 9899
Дис@@ 9898
одоб@@ 9898
столкну@@ 9898
южно@@ 9897
геоло@@ 9894
акт 9893
зависи@@ 9893
спря@@ 9893
Приказом 9892
геля 9892
изданиях 9892
климат 9892
проводился 9892
уполномо@@ 9892
брон@@ 9890
металлурги@@ 9889
рих 9889
уд 9889
член@@ 9889
противотан@@ 9888
выбран@@ 9887
ВО@@ 9886
Краснодар@@ 9886
Постоян@@ 9886
Соро@@ 9885
Занимался 9884
Цу@@ 9884
бого@@ 9884
сана 9883
коалиции 9880
передней 9880
беспоряд@@ 9879
судом 9879
седь@@ 9878
Кр@@ 9876
Над@@ 9876
крупнейшим 9876
новское 9876
особенностей 9874
Берлина 9873
столкновения 9873
Сохрани@@ 9871
подтвердил 9871
доктор@@ 9870
льстве 9870
Молот 9869
Чо@@ 9869
Вадим 9868
печата@@ 9868
Дя@@ 9867
пыта@@ 9867
Демократической 9865
Иисуса 9863
присоединились 9863
проби@@ 9863
кладбища 9862
направлений 9862
центральный 9862
жден 9861
хт 9861
символизирует 9859
York 9858
Наполеона 9858
среднее 9858
щав@@ 9858
принце@@ 9857
форму@@ 9857
кур 9856
родителями 9856
Сё@@ 9855
педагогический 9855
Голи@@ 9853
ентов 9852
Архангельской 9851
специаль@@ 9851
товский 9851
ковод@@ 9850
обязательно 9850
двадцати 9846
поэтов 9846
08.@@ 9845
Железнодорож@@ 9843
Сибирь 9840
див 9840
поклон@@ 9840
поддерживать 9839
сете@@ 9838
термина@@ 9838
победила 9836
спортив@@ 9836
крыльев 9835
историков 9833
медленно 9833
гию 9832
Соз@@ 9831
полито@@ 9830
предусмотре@@ 9830
лати@@ 9828
заменил 9827
кут@@ 9826
Македонии 9825
выле@@ 9824
почвы 9824
Live 9823
Болгар@@ 9823
Сун@@ 9823
дожд@@ 9823
многим 9823
Нер@@ 9820
ени 9819
друзья 9818
шестой 9818
щалась 9818
Мате@@ 9817
Элли@@ 9816
английским 9813
кл 9813
лину 9813
Трам@@ 9812
основанная 9812
здоровье 9811
выполнял 9810
исполняет 9808
Стру@@ 9807
должностях 9807
ниться 9807
тат 9807
вовле@@ 9806
жилые 9806
щенных 9806
градо@@ 9805
сою@@ 9805
Рыбин@@ 9804
площадки 9804
расте@@ 9802
рель@@ 9802
нью 9800
коммента@@ 9799
называть 9799
29@@ 9798
Бло@@ 9798
виру@@ 9798
аппаратов 9797
анало@@ 9796
Берн@@ 9795
национальные 9794
вступила 9793
Неа@@ 9792
войной 9790
лд 9790
Касти@@ 9784
влюб@@ 9784
инфек@@ 9781
насо@@ 9781
раке@@ 9781
Рау@@ 9778
допро@@ 9778
Гви@@ 9777
Тот 9777
эффек@@ 9777
бара@@ 9775
ваемые 9775
последовательности 9775
Мюнхене 9774
результатив@@ 9774
ЮНЕСКО 9771
показывают 9771
Сразу 9770
плоско@@ 9770
парашю@@ 9769
сыграли 9769
встречает 9768
Национальная 9767
продолжа@@ 9767
Термин 9765
пулемёт@@ 9765
Дне@@ 9764
включ@@ 9764
концентра@@ 9763
прямо@@ 9763
сун@@ 9763
Заха@@ 9762
городским 9762
воен@@ 9761
парламентских 9761
состоящий 9761
внес@@ 9760
заявили 9760
культурно 9760
Донба@@ 9759
Пье@@ 9759
агро@@ 9759
делению 9758
значительных 9758
леп@@ 9757
Краснояр@@ 9756
выиграли 9755
массовых 9755
преимуще@@ 9753
убы@@ 9753
Кирилл 9752
логические 9752
уэр 9751
ери 9750
жур@@ 9750
Лам@@ 9749
нера@@ 9748
пости@@ 9746
администра@@ 9745
сио 9745
ствия 9745
учеником 9745
ровалось 9744
судья 9744
Любо@@ 9743
открытых 9743
дивизий 9742
цеха 9742
особое 9741
Казанского 9740
корпусе 9740
содержится 9740
будущее 9739
дальнейшего 9738
перебрался 9737
вации 9736
достижение 9736
молодые 9735
Восточный 9734
шенной 9734
административном 9733
Стефан 9732
возобнови@@ 9731
катастрофы 9730
адъю@@ 9729
попу@@ 9727
диплом 9724
Алек@@ 9723
кно@@ 9723
календар@@ 9722
посвящён 9722
входа 9721
зывает 9721
кван@@ 9721
колхо@@ 9721
погибло 9721
спортивный 9721
форм@@ 9721
шиеся 9721
публика@@ 9719
1795 9717
госпо@@ 9716
товского 9715
мечеть 9714
часы 9714
градской 9713
Камчат@@ 9710
Одессе 9709
1807 9708
иду@@ 9708
метрополитена 9708
дуэ@@ 9707
лером 9706
пользовался 9706
спокой@@ 9706
льника 9705
съезд 9705
арене 9702
зий 9702
конферен@@ 9701
имен@@ 9700
количе@@ 9698
цкому 9698
рева 9697
правитель 9695
Рафа@@ 9694
Джерси 9691
Марокко 9691
Ряд 9691
меров 9691
мным 9691
104 9690
проиграла 9690
34@@ 9689
гие 9689
идут 9689
собрать 9689
предыдущего 9688
Георгиевич 9687
подчинения 9687
реше@@ 9687
следовате@@ 9687
оболо@@ 9686
Псков@@ 9683
шест@@ 9683
динг 9682
гусе@@ 9680
зель 9680
снятый 9680
Кавказе 9679
каталога 9679
родине 9679
раздел 9678
чского 9678
1809 9677
зать 9677
вес@@ 9676
Джейн 9674
Макс 9674
переводчик 9674
деталей 9672
лины 9672
виз@@ 9671
называются 9670
Штатов 9669
римский 9669
эффективность 9668
дивизи@@ 9667
завершении 9661
схемы 9661
стадиона 9660
бери 9659
созданием 9659
соперника 9659
герои@@ 9658
Сон@@ 9657
отне@@ 9657
Населённые 9656
храмов 9656
задней 9655
крипто@@ 9654
Мах@@ 9653
вошед@@ 9653
преодоле@@ 9653
опол@@ 9651
любителей 9650
общественности 9648
конструкция 9647
бывшим 9646
президентских 9646
держал 9645
усадьбы 9645
уступа@@ 9644
переворота 9643
другому 9638
крупными 9637
начальной 9637
норвеж@@ 9637
полуострове 9637
псевдо@@ 9637
написан 9636
Виды 9635
зане@@ 9635
дивизией 9634
высказыва@@ 9632
конституции 9632
собирается 9632
Ни 9631
этапов 9631
сильное 9630
символов 9630
старые 9630
тированы 9630
прыж@@ 9629
Женат 9628
Казахстане 9628
железа 9628
Крю@@ 9627
допусти@@ 9627
Порт@@ 9626
Сил 9626
Посполитой 9625
All 9623
Мишель 9623
37@@ 9622
Тек@@ 9621
плате@@ 9618
поселился 9618
тинг 9618
глубоко 9616
приём 9616
Плато@@ 9615
жило 9615
персонажи 9615
В. 9612
Франц 9612
климата 9611
аспиран@@ 9610
набрав 9610
сохранился 9610
чками 9610
техническим 9609
величины 9608
гвардейский 9606
мило@@ 9605
театров 9605
ренной 9604
забы@@ 9603
написанная 9603
открыли 9602
болезней 9600
сборные 9599
Мун@@ 9598
имеющие 9598
маш 9598
оставаться 9598
пехотного 9598
мифо@@ 9597
букв 9596
ремонта 9596
сигнал 9596
ансамбль 9595
оставля@@ 9595
четвёртого 9595
китайских 9594
типом 9594
сот 9593
татары 9593
45@@ 9592
изменить 9591
испанского 9591
Надежда 9590
Тамбовской 9589
Техас 9589
продажу 9589
ранней 9588
отчасти 9587
братьями 9586
уре 9586
кори@@ 9585
танк 9585
герои 9584
купа@@ 9583
Вест@@ 9582
постоянным 9582
профе@@ 9582
угол 9582
функцию 9582
дево@@ 9581
космической 9581
стрит 9581
шинского 9581
эвакуации 9581
вий 9580
линга 9579
созданная 9579
вокали@@ 9577
замы@@ 9577
рассматривается 9575
Серп 9574
популяр@@ 9574
дией 9573
носо@@ 9573
Педро 9572
захватчиками 9569
05.@@ 9568
кана 9567
ох@@ 9566
сюр 9566
Кандидат 9565
С.@@ 9565
встреча 9564
кВт 9563
оборот 9563
центральных 9563
привет@@ 9562
императорской 9561
катало@@ 9561
льно@@ 9561
тельного 9561
Рад@@ 9559
ранние 9559
зме 9558
провинций 9557
экономические 9557
крылья 9556
Ворон@@ 9554
Украину 9553
дзу@@ 9552
осуществляет 9551
трассы 9551
решении 9549
мастером 9548
федеральной 9548
важные 9546
112 9543
Меди@@ 9540
Тим@@ 9540
древней 9539
светло 9539
примером 9538
академика 9537
лениях 9537
Деми@@ 9536
активным 9535
возникли 9535
Ива 9533
плавания 9533
построек 9533
Дро@@ 9532
ошибки 9532
пластинки 9532
курор@@ 9531
ателем 9530
прекратил 9530
сессии 9530
СО 9529
надписи 9529
умер@@ 9529
109 9528
взрыва 9527
забасто@@ 9527
отече@@ 9525
спек@@ 9525
суды 9524
фли@@ 9523
организаторов 9522
фру@@ 9522
экране 9522
каз 9520
клу@@ 9519
ландию 9519
противником 9519
хен@@ 9519
единого 9516
оператор 9516
Озеро 9515
уничтожения 9515
рыболов@@ 9514
шенко 9513
литературных 9512
написано 9512
возможностей 9511
Ан 9510
И.@@ 9510
профессиональном 9510
Королевского 9508
изобраз@@ 9508
1811 9507
бай 9506
увеличить 9506
композицию 9505
вещания 9504
запрет 9504
издательство 9504
исполнила 9504
государственную 9503
мечети 9503
es 9502
бия 9501
сетей 9501
оценка 9500
гова 9499
неж@@ 9499
Афинах 9497
автомобили 9496
принёс 9496
Гэ@@ 9495
зацию 9495
югослав@@ 9495
Татарстан 9492
Ири@@ 9490
счит@@ 9490
проспекта 9489
Науч@@ 9488
захвати@@ 9488
лиса 9486
последо@@ 9486
грузов 9485
Вильню@@ 9484
заболо@@ 9484
льностью 9483
Смир@@ 9481
любит 9481
узнал 9479
бюджета 9478
торе 9478
PlayStation 9477
нано@@ 9476
ближ@@ 9475
вернул 9475
цла@@ 9475
направил 9474
Дона@@ 9473
тяжёлых 9473
зая@@ 9472
Пяти@@ 9469
созданной 9468
спира@@ 9468
летние 9467
брига@@ 9465
случаю 9464
тери@@ 9464
автомобильной 9463
государственная 9463
разруш@@ 9463
суф@@ 9463
полуфина@@ 9462
Финлян@@ 9461
серебра 9459
Эпи@@ 9458
кровь 9458
показатели 9457
путешествия 9457
обнаружен 9456
Глава 9454
основными 9454
рукописи 9453
обыча@@ 9452
плоскости 9452
фикация 9452
енные 9450
сёла 9450
расширение 9449
тику 9449
стров 9448
предположение 9446
жок 9445
общественно 9445
щали 9445
Албании 9444
февраль 9444
бедности 9443
экзо@@ 9443
Григория 9441
писание 9441
onlyinclude 9440
Фрунзе 9440
пович 9440
шево 9440
популяри@@ 9439
родным 9439
следовательно 9439
роско@@ 9438
Оренбургской 9437
угло@@ 9437
Джонни 9436
международные 9436
социальные 9436
хоккеист 9436
произошли 9435
рийской 9435
Аф@@ 9434
Германией 9434
r@@ 9433
грузови@@ 9433
ово@@ 9433
кос 9432
Губер@@ 9431
гибри@@ 9431
объёма 9431
тенниси@@ 9431
позити@@ 9430
преследования 9429
средствами 9427
ущерб 9427
городами 9426
цина 9426
108 9425
American 9424
ТО@@ 9424
скульптор 9422
отмечено 9421
французов 9421
фин 9420
Минске 9419
падение 9419
компьютерных 9418
Сало@@ 9416
маршала 9416
двухэта@@ 9415
робо@@ 9414
гим@@ 9413
подра@@ 9411
серебря@@ 9409
временной 9407
быст@@ 9405
основателем 9405
сотен 9405
Апол@@ 9404
общие 9404
особен@@ 9404
законо@@ 9403
Кули@@ 9402
Дело 9401
вынуждена 9401
лютеран@@ 9401
тео@@ 9401
хоть 9401
Индия 9400
Цзин@@ 9399
модификации 9399
ног 9399
форт 9399
внутрен@@ 9398
домом 9397
взяла 9396
старый 9396
Речи 9395
посла@@ 9394
дие 9393
антен@@ 9391
повреждения 9390
чание 9390
вло@@ 9389
относилась 9389
цифро@@ 9389
мас 9387
серебряные 9385
Квин@@ 9384
Пекине 9384
близких 9384
нениях 9384
васса@@ 9383
1,3 9382
ология 9382
1827 9381
Император@@ 9381
позволил 9381
Белорусской 9380
ветеранов 9380
расследование 9379
заны 9378
территориях 9378
имелось 9377
ровкой 9376
сигна@@ 9376
Демокра@@ 9375
Эдуарда 9375
Некоторое 9374
бургского 9374
Ареал 9373
Крем@@ 9373
пищи 9373
родились 9373
тенден@@ 9372
иту@@ 9371
финансовой 9371
льевич 9370
пожизнен@@ 9370
бора 9368
осени 9368
ребёнок 9367
еру 9363
Коллек@@ 9362
Мило@@ 9362
вал@@ 9362
атором 9360
ареста 9359
учение 9359
хих 9357
экраны 9357
7,5 9356
Отзывы 9356
иза 9356
модер@@ 9356
энерги@@ 9356
закрыта 9355
рекой 9353
риях 9353
ринский 9352
огромное 9351
проблемам 9350
языками 9350
Симо@@ 9347
лице@@ 9347
провер@@ 9347
Мексике 9346
Чин@@ 9346
говоров 9345
Гад@@ 9344
Харьков 9343
достигли 9343
нм 9343
чева 9343
Кари@@ 9342
опо@@ 9342
советником 9342
Краснодарского 9341
ревизии 9341
производством 9340
тиви@@ 9340
усадьба 9340
Костро@@ 9336
ню@@ 9336
раны 9336
самки 9336
турах 9336
ходи@@ 9336
образцов 9335
один@@ 9332
чит 9332
классифици@@ 9331
рского 9331
иск 9330
крейсер 9330
проспект 9330
точкой 9329
транспортных 9328
км2 9327
Волги 9325
Цы@@ 9324
плато 9324
Светлана 9321
Миннесота 9320
расположи@@ 9320
юниор@@ 9320
иниции@@ 9319
рита 9318
кавалерии 9317
лль 9317
листьев 9316
Спо@@ 9314
Эт@@ 9313
Интернет 9312
Мани@@ 9312
устье 9304
йну 9303
решёт@@ 9300
свойств 9300
Брайан 9299
столкнове@@ 9299
Относится 9298
последствия 9298
характеристика 9298
Обе@@ 9297
метрах 9297
папы 9297
публико@@ 9296
выражение 9295
Гат@@ 9294
голове 9294
продолжается 9293
разработ@@ 9293
поставлен 9292
36@@ 9291
Каро@@ 9290
зур@@ 9290
Играл 9289
доходов 9289
Тело 9284
Life 9283
бра 9283
слуша@@ 9282
Знак 9281
коммуника@@ 9280
корпорации 9280
ат 9279
логического 9278
сед@@ 9278
снежной 9277
Хок@@ 9276
замкну@@ 9276
французская 9275
поддержка 9273
логической 9272
половиной 9270
родных 9270
Лат@@ 9269
кварти@@ 9269
открыть 9269
выполнении 9267
распределения 9267
Израи@@ 9264
кторы 9264
вопроса 9263
горного 9263
145 9262
выполнены 9262
пада@@ 9261
Музыка@@ 9260
говоря@@ 9260
зрение 9260
подобно 9260
сигнала 9260
химического 9260
Станислава 9258
Вот 9257
вслед 9256
нор 9256
Герман@@ 9255
Победитель 9255
двигате@@ 9255
лик@@ 9255
предполо@@ 9253
сроком 9253
участках 9252
Константино@@ 9251
смен@@ 9251
водоро@@ 9248
кве@@ 9248
Венгрия 9247
Оп@@ 9246
Развитие 9246
факульте@@ 9246
Оксфор@@ 9245
лкой 9245
перифе@@ 9245
рующей 9244
Южном 9243
совпа@@ 9243
фаль@@ 9243
военачальник 9242
ректор 9242
краевед@@ 9241
Дэвида 9240
меда 9240
сжи@@ 9237
этапах 9237
потерпе@@ 9235
дио@@ 9234
счита@@ 9234
тному 9233
естественных 9232
оставалось 9232
очевидно 9231
настав@@ 9230
сэ@@ 9230
успешным 9229
Хри@@ 9228
следы 9228
рар@@ 9227
турок 9227
Комму@@ 9226
Чж@@ 9226
джу@@ 9225
коллеги@@ 9225
Севасто@@ 9224
фамилию 9223
временного 9222
Бот@@ 9221
Вир@@ 9221
гроб@@ 9221
пети@@ 9221
снижение 9221
1816 9220
Комитет 9220
артиллерийской 9220
компак@@ 9220
нагруз@@ 9220
перепи@@ 9220
Казанской 9219
лёва 9218
Хоро@@ 9217
занимали 9217
физического 9215
Вознесен@@ 9214
посадо@@ 9214
актёром 9213
Воронеж@@ 9211
появ@@ 9211
In@@ 9210
Слово 9210
вр 9210
исче@@ 9210
анализи@@ 9209
Школа 9208
красных 9208
нижнем 9208
жина 9207
предметом 9207
что@@ 9207
BBC 9206
Ди 9206
служб 9206
1808 9205
эше@@ 9203
возникнове@@ 9201
автобиографи@@ 9199
Ради@@ 9198
Льва 9196
Белого 9194
1793 9193
Калужской 9193
Санд@@ 9192
достичь 9192
составу 9192
Дебю@@ 9191
Съ@@ 9191
фрей@@ 9191
особых 9190
православных 9190
стический 9190
j@@ 9189
эллип@@ 9189
королевского 9188
Time 9187
чна 9187
написа@@ 9186
Родо@@ 9185
ханов 9185
Франческо 9184
друзьями 9184
Маго@@ 9181
кото@@ 9181
Больше@@ 9180
развивается 9180
знач@@ 9179
диаметр 9178
энд 9178
эпизода 9178
формули@@ 9177
Очень 9176
материа@@ 9176
образцы 9176
сделан 9175
тр 9175
чко 9175
отстра@@ 9172
подготовка 9172
вращения 9171
заново 9171
Литов@@ 9170
партизан 9168
Людмила 9167
осмо@@ 9167
яйце@@ 9167
единственная 9166
нином 9166
подробно 9165
коллекция 9164
размещения 9164
шан 9164
дирижёр 9162
днём 9162
застройки 9162
организована 9162
культуру 9161
манд@@ 9161
городский 9160
заключении 9160
переселе@@ 9160
Получив 9158
ману@@ 9158
тировали 9158
инфраструктуры 9157
мели@@ 9155
скоро@@ 9155
дворян 9154
представить 9153
внутренние 9152
действующих 9152
прекратить 9151
университетов 9151
интегри@@ 9150
жениям 9149
распу@@ 9149
стви@@ 9149
Апосто@@ 9147
Йохан@@ 9147
Листья 9147
убед@@ 9147
Живо@@ 9146
знать 9146
двусторон@@ 9144
ранения 9144
эскад@@ 9144
Мировой 9143
отказа@@ 9143
почёт@@ 9143
фона 9143
свобо@@ 9142
000@@ 9141
Донецкой 9140
пови@@ 9140
частные 9140
кал@@ 9139
мисси@@ 9139
сделала 9139
Франко 9137
стилем 9137
ударов 9137
ВЦИК 9136
АР@@ 9135
уме 9135
ica 9134
трудоспособного 9134
Черкас@@ 9133
гетто 9133
ассоциа@@ 9132
кабе@@ 9132
типу 9131
Александру 9130
тиражом 9130
аудитории 9129
33@@ 9128
эволюции 9128
обсужда@@ 9127
Пензенской 9126
гонках 9125
состояли 9125
хождения 9125
жай@@ 9124
иезу@@ 9124
отказалась 9124
чёрной 9124
защита 9123
алгорит@@ 9121
Нина 9120
Научные 9119
совет@@ 9119
Витеб@@ 9118
прове@@ 9116
происходило 9116
лили 9115
ывая 9115
колонны 9113
площад@@ 9112
Полта@@ 9111
немец@@ 9111
отрас@@ 9111
цены 9111
привез@@ 9110
ьч@@ 9110
Архитектура 9109
администрация 9107
англо 9107
световых 9107
новей@@ 9106
1,6 9105
шве@@ 9105
товым 9104
Закон@@ 9103
103 9102
Конструкция 9102
неизвестна 9102
сино@@ 9102
Брон@@ 9100
Эдуар@@ 9100
пьесе 9100
Всемирной 9099
любом 9099
накануне 9099
Разработка 9097
изображён 9097
мысль 9095
отставке 9095
соответствующих 9095
Лод@@ 9094
показала 9094
1824 9093
Австрия 9093
горский 9092
завершить 9092
катов 9092
простых 9091
on@@ 9089
Лип@@ 9089
киностудии 9089
стене 9089
повесть 9088
испо@@ 9087
популяции 9087
YouTube 9086
приглашён 9086
ющуюся 9086
Джей 9085
Шат@@ 9085
Костромской 9084
СУ 9084
ванном 9084
преда@@ 9084
центру 9084
диагно@@ 9083
зена 9083
360 9082
Джексон 9082
младше 9082
чертой 9082
Дин 9081
доска 9081
жерт@@ 9081
территориаль@@ 9081
двигаться 9079
переведен 9079
Египте 9078
льти@@ 9078
ing 9077
Пана@@ 9077
Патриар@@ 9077
мезо@@ 9074
футболиста 9074
шведский 9074
статистики 9073
особый 9072
инве@@ 9069
произведениях 9069
Марина 9068
планируется 9068
неодно@@ 9067
превос@@ 9067
музыканта 9066
Боснии 9064
вокзал 9062
преемником 9062
юридических 9062
агента 9061
бригаду 9061
согласи@@ 9061
тины 9056
Королевской 9054
чно@@ 9052
ассистентом 9051
водах 9051
воспита@@ 9051
пояса 9051
сценария 9051
Мора@@ 9050
величине 9050
расположенные 9050
хии 9050
цка 9050
монумента@@ 9049
Августа 9048
сохран@@ 9048
Rock 9046
зь 9046
космического 9045
Каждая 9044
Праге 9044
122 9043
осады 9043
Киргизии 9042
спор 9042
воли 9041
полит@@ 9041
лейблом 9039
гнуть 9038
двадц@@ 9038
дование 9037
литературный 9037
нейшим 9037
пиро@@ 9037
ренные 9037
травму 9037
женскую 9034
стические 9034
Беля@@ 9033
→ 9033
проголосо@@ 9032
Большую 9031
жды 9031
Исто@@ 9030
Самарской 9030
отсутствием 9030
периодически 9030
произо@@ 9030
рассматривать 9030
Стер@@ 9029
продвину@@ 9029
стрелковый 9029
Корея 9028
смену 9028
сухо@@ 9028
Такая 9026
север@@ 9026
Представители 9025
собо@@ 9025
средство 9025
боевого 9024
волж@@ 9024
тинской 9024
выглядит 9021
лее 9020
мальчика 9020
гражда@@ 9018
дзи@@ 9018
небольшого 9018
аграр@@ 9017
игнори@@ 9016
современным 9016
национальным 9015
территорией 9015
скоро 9014
И. 9013
вшимися 9012
джу 9012
продолжать 9012
говор@@ 9011
значительным 9011
увелич@@ 9010
вещей 9008
ког@@ 9008
символизи@@ 9008
главное 9007
будущей 9006
листья 9006
ванную 9005
рест@@ 9005
считалось 9005
смены 9004
приход@@ 9002
низко@@ 9001
древности 9000
Коп@@ 8998
Универси@@ 8996
Священ@@ 8995
вокал 8995
носится 8995
1792 8993
проводят 8993
республи@@ 8993
Кто 8991
Специальный 8991
варианта 8991
f 8990
отказывается 8990
лесостепной 8988
Венгер@@ 8987
многолетняя 8987
применяются 8986
106 8985
Marvel 8985
Союз@@ 8985
преры@@ 8985
проро@@ 8985
вто@@ 8984
открытом 8984
чувство 8983
примен@@ 8982
привлекате@@ 8981
Поля@@ 8980
услы@@ 8979
пала 8978
правилам 8976
формат@@ 8976
резиден@@ 8975
ксе@@ 8974
Фай@@ 8973
драгоцен@@ 8973
хор 8973
Прибалти@@ 8972
Уфи@@ 8972
гек@@ 8970
демонстра@@ 8970
нидерланд@@ 8970
111 8968
кредит@@ 8967
ствии 8967
графства 8966
площадке 8966
РА@@ 8965
иници@@ 8964
мировая 8964
сильные 8964
пап@@ 8963
побо@@ 8963
насе@@ 8961
окружения 8961
задейство@@ 8960
обуслов@@ 8960
переправ@@ 8960
Красноярского 8959
бана 8959
винский 8959
ординар@@ 8959
Вест 8958
открылся 8958
распределение 8958
привед@@ 8957
ционными 8956
КА 8955
внесён 8955
заявив 8955
ора@@ 8955
свое@@ 8955
щённых 8955
крупнейший 8954
страш@@ 8954
ёк 8954
бон@@ 8952
ненави@@ 8952
труб@@ 8952
48@@ 8951
дек@@ 8951
квадратных 8950
носа 8949
поселении 8949
5,5 8948
выделяют 8948
цын 8948
метал@@ 8947
супру@@ 8947
Мет@@ 8946
возвращение 8946
льон 8946
роды 8946
историки 8945
движению 8944
тера@@ 8943
привержен@@ 8942
относя@@ 8941
спектакль 8940
Мест@@ 8938
Сме@@ 8938
газет 8938
предложили 8937
платить 8936
чими 8934
Рот@@ 8932
полити@@ 8932
Пай@@ 8931
образцовое 8931
Донского 8930
подполковник 8930
склон@@ 8930
Шей@@ 8929
испанской 8929
реме@@ 8929
силе 8929
хлоп@@ 8929
потока 8927
бронзу 8925
нака@@ 8925
послал 8925
слави@@ 8923
выяснилось 8922
раса 8921
академи@@ 8920
плату 8920
противостоя@@ 8920
Киев@@ 8919
Майк 8919
коче@@ 8919
следование 8919
возвышен@@ 8918
многочисленными 8918
родственников 8918
гвардейская 8917
моря@@ 8917
обстоятель@@ 8917
китайский 8916
участво@@ 8916
попада@@ 8915
фами 8915
Еванге@@ 8914
приход 8914
знаков 8912
Ныне 8911
вавшей 8911
документ 8911
барокко 8910
галереи 8910
заливе 8910
Дек@@ 8909
уа 8909
падает 8907
китайского 8906
организовы@@ 8906
называемой 8904
формировании 8904
личность 8903
делами 8901
последствий 8901
СП 8900
гравита@@ 8900
танкового 8900
уроки 8899
Вяче@@ 8898
цко 8898
челю@@ 8898
Новосибир@@ 8897
биографии 8896
передачу 8896
звука 8894
НИИ@@ 8893
творческой 8893
Гран@@ 8890
радиостанции 8890
проры@@ 8889
трапе@@ 8889
шных 8889
Коно@@ 8888
головного 8888
финансирования 8888
церковно 8888
Шарль 8887
Фур@@ 8886
кине@@ 8886
пуше@@ 8884
уголовного 8884
ваемый 8883
ственности 8883
повстанцев 8882
художники 8882
Олимпиа@@ 8881
вымышлен@@ 8881
Гера@@ 8880
Там@@ 8880
раздела 8880
режиссёр@@ 8880
Добро@@ 8879
соль 8879
титу@@ 8879
ковы 8878
примыкает 8878
Мэн@@ 8873
абсолютно 8873
практику 8873
Мурман@@ 8872
проверки 8872
Харьковской 8871
расстояния 8870
Джонсон 8869
лениям 8869
селу 8868
эффекты 8868
Люби@@ 8867
видных 8867
гни@@ 8867
тант 8867
ЖД 8866
остается 8866
построили 8866
бр 8865
Безморозный 8863
СМ 8863
выпускает 8862
пане@@ 8862
престо@@ 8861
хун@@ 8861
археологии 8860
гы@@ 8859
костей 8859
покон@@ 8859
тай 8859
церковных 8859
лейб 8858
польская 8858
физике 8858
Баш@@ 8857
инструменты 8856
публици@@ 8856
упоминает 8856
экс 8856
кинемато@@ 8854
переул@@ 8854
Хельсинки 8853
историческом 8852
каза 8852
Людвиг 8851
шные 8851
ницкий 8850
128 8848
выполнен 8847
пирами@@ 8847
историей 8846
электроэнергии 8845
фина 8843
шихся 8842
видо@@ 8841
улучшения 8840
заму@@ 8837
начато 8837
организма 8837
железнодорожных 8836
прочие 8836
дент@@ 8835
Израиле 8834
русское 8834
хранятся 8834
бога 8833
прибре@@ 8833
Дэй@@ 8832
кише@@ 8831
корабле 8831
Теха@@ 8830
Чело@@ 8830
коммуна@@ 8829
цер 8829
ведётся 8828
заведующего 8827
прось@@ 8827
чисто 8827
дская 8826
молодежи 8826
прие@@ 8826
гла 8825
причем 8825
завоё@@ 8824
порно@@ 8824
плот@@ 8823
современное 8823
аэродром 8822
огром@@ 8822
завершился 8821
отражает 8820
правовой 8820
цке 8820
евреи 8819
поверхност@@ 8818
стреми@@ 8818
чивается 8818
английских 8816
ленты 8816
разделения 8816
российским 8816
союзных 8816
хозяйстве 8816
Северо@@ 8815
хозяйственной 8815
ссан@@ 8813
съез@@ 8813
населенных 8811
107 8810
производителей 8810
балло@@ 8808
итальянских 8808
кок@@ 8808
синглом 8808
средние 8806
ветра 8805
гостей 8804
обычных 8804
Рождества 8803
Фё@@ 8803
вающей 8802
Центральном 8801
Кирова 8800
вающего 8800
являясь 8800
ПП 8798
вечера 8798
находящихся 8798
сопротив@@ 8796
популярностью 8795
дед 8794
красные 8794
ситуа@@ 8794
леги@@ 8793
одноимен@@ 8793
поступ@@ 8793
славу 8793
команду@@ 8792
четверти 8792
Стэнли 8791
особей 8791
техническом 8791
тиков 8791
комбина@@ 8790
Бр@@ 8789
Чарли 8789
вход@@ 8789
концерта 8789
крыло 8789
маршруты 8789
показано 8789
щами 8789
.ru 8786
Зимой 8786
1803 8785
240 8785
Карлос 8785
мигра@@ 8785
определённых 8784
повторно 8784
целиком 8782
болез@@ 8781
подхода 8780
смешанных 8780
ывались 8780
Главные 8779
активного 8779
1823 8778
пуш@@ 8775
констру@@ 8774
поче@@ 8773
пур@@ 8772
Французской 8771
счёте 8771
условиям 8771
Уни@@ 8768
обособ@@ 8768
белая 8767
заключение 8767
жет 8766
дений 8764
Соци@@ 8763
Лучшая 8762
наступательной 8762
попыток 8762
преступлений 8762
богосло@@ 8761
ням 8761
цепи 8761
отсы@@ 8760
петро@@ 8760
психиатри@@ 8760
талан@@ 8760
Картина 8759
кубок 8759
стной 8759
объё@@ 8758
оставшиеся 8758
потеряли 8758
Организация 8756
вель@@ 8756
разв@@ 8755
ставка 8755
магазинов 8754
потребовал 8754
автоматически 8753
договори@@ 8753
находят 8753
1790 8751
Венеции 8751
попыт@@ 8751
Тат@@ 8748
внешних 8748
летним 8748
соискание 8748
ганов 8746
диско@@ 8746
зка 8746
локо@@ 8746
весом 8745
наём@@ 8745
заранее 8744
маг@@ 8744
основателя 8744
пенси@@ 8744
куб@@ 8743
гали@@ 8742
чинский 8742
домашнего 8740
Анастасия 8739
Моро@@ 8739
Ной@@ 8739
офицеры 8739
запуска 8738
перебра@@ 8738
травяни@@ 8738
Всемирного 8737
Максимальная 8737
разрушения 8736
активную 8734
мских 8734
оценил 8734
шир@@ 8734
Сью@@ 8733
корабе@@ 8733
войско@@ 8730
родный 8730
Америка 8729
йная 8729
Стран@@ 8728
быстрее 8727
серебряной 8727
Промышлен@@ 8726
зит 8726
ливо 8726
сян 8726
03.@@ 8725
признать 8725
Лау@@ 8724
Хан 8723
выделить 8719
защитить 8719
наход@@ 8719
v 8718
Мухаммад 8718
аде 8718
больницу 8718
брь@@ 8718
указ 8718
Еле@@ 8716
бесс@@ 8716
государ@@ 8715
разделена 8715
самому 8714
нагре@@ 8713
иные 8712
Такой 8710
ансамбля 8710
значительная 8710
оре@@ 8709
экс@@ 8709
выступавший 8708
важно 8707
душев@@ 8707
имелись 8707
Впадает 8706
Сре@@ 8706
введены 8706
представлено 8706
французские 8706
хара 8705
Америку 8704
Корее 8704
восста@@ 8704
равни@@ 8704
Иосифа 8703
манн 8702
чский 8700
названий 8699
синтеза 8699
близко 8698
магистрали 8698
рови@@ 8698
точной 8698
кет 8696
уре@@ 8696
Мид@@ 8694
носителей 8694
Док@@ 8693
республике 8691
свети@@ 8690
Фонд 8688
продаже 8688
дило 8687
Кири@@ 8686
Яков@@ 8685
вена 8685
киным 8685
задержа@@ 8684
лужи@@ 8684
крупно@@ 8682
графстве 8681
вяз@@ 8679
преобразования 8679
переведены 8678
проработал 8678
Степ@@ 8677
городка 8677
БССР 8676
картофе@@ 8676
продли@@ 8676
152 8675
варианте 8675
медиа 8674
худ@@ 8674
ента 8673
дизайна 8672
доступны 8672
Бед@@ 8671
друж@@ 8671
назем@@ 8671
Шир@@ 8670
посетителей 8670
Рон@@ 8669
ката 8669
Маргарет 8668
Граф 8666
подобного 8666
оставшихся 8665
третья 8665
Постоянное 8664
немало 8664
Марко 8663
вооружении 8663
Минской 8662
Мёр@@ 8661
фур@@ 8661
юрист 8661
повлия@@ 8660
произраста@@ 8659
парламенте 8658
сохра@@ 8658
вита@@ 8657
медицине 8657
полице@@ 8657
постановки 8657
строительной 8656
битва 8655
чиновников 8655
экспедиция 8655
Астрахан@@ 8653
принадлежали 8652
конгре@@ 8651
параметры 8651
Луны 8650
выставля@@ 8650
привлек@@ 8649
старообряд@@ 8648
племена 8647
разреша@@ 8647
созывов 8647
коммунистов 8646
золо@@ 8645
линском 8645
национальная 8644
8,@@ 8643
Образ 8643
лиза@@ 8643
одни 8643
формах 8643
широкую 8643
хреб@@ 8641
башкир@@ 8640
немногих 8640
подписали 8640
Елизаветы 8639
Являлся 8639
бат 8639
Учё@@ 8636
написания 8636
нное 8636
Уч@@ 8635
командирован 8635
напечат@@ 8635
сную 8635
замены 8634
Иор@@ 8632
трудности 8632
увен@@ 8632
Период 8629
годов@@ 8629
изби@@ 8629
квартиру 8629
кове@@ 8629
Ква@@ 8628
монт 8628
f@@ 8627
классы 8627
полученных 8627
греко 8625
удоволь@@ 8625
указывают 8625
произве@@ 8624
HD 8623
гармо@@ 8622
человеку 8622
возникло 8621
ере 8621
опера 8621
султа@@ 8621
София 8620
независимой 8620
приглаш@@ 8620
разло@@ 8620
Сельское 8619
ступени 8619
цито@@ 8619
Яв@@ 8618
воспитания 8618
1818 8616
выходить 8616
Последняя 8614
рождение 8614
Голь@@ 8613
спортивного 8613
ете 8612
1797 8611
заводы 8611
Google 8610
органами 8610
1822 8609
группах 8608
стари@@ 8608
Петер@@ 8607
царство 8606
Чемпион@@ 8604
обладатель 8604
приступил 8604
Стри@@ 8603
коэффици@@ 8602
музыкальном 8602
избирался 8601
начинал 8601
рекор@@ 8601
Ся@@ 8600
аварии 8600
останки 8600
Шоу 8599
менского 8599
Казахской 8597
лел 8597
следующими 8597
лище 8596
обязан@@ 8594
рению 8594
сформирован 8594
гской 8593
укре@@ 8593
завоевания 8591
1,8 8590
опубликовано 8590
существ@@ 8590
поднялся 8589
паци@@ 8588
сочетании 8588
Серебря@@ 8587
образец 8587
управлять 8587
ждали 8586
подчер@@ 8586
.com 8584
Представ@@ 8584
выражения 8584
1784 8582
подрост@@ 8582
королева 8581
профессиональную 8581
штраф@@ 8581
вычисли@@ 8580
нологи@@ 8580
проживания 8579
штатов 8579
дово 8578
вале 8577
офицером 8577
противоречи@@ 8577
рези@@ 8577
Фонда 8576
промышленной 8574
шийся 8574
близости 8573
выдающихся 8573
руководи@@ 8573
театрах 8573
Поч@@ 8572
говый 8571
признана 8571
иск@@ 8570
экземпля@@ 8570
Сиг@@ 8569
заявку 8568
игру@@ 8568
окруж@@ 8568
регби 8568
ненный 8566
Голов@@ 8565
армян 8565
ступи@@ 8565
Правда 8564
выделен 8564
ист@@ 8564
направлению 8564
поез@@ 8564
симпто@@ 8564
ref 8562
движу@@ 8562
зной 8562
неподалёку 8562
отъ@@ 8562
фигу@@ 8561
шаг 8561
яиц 8561
ското@@ 8560
1819 8559
Федерального 8559
желая 8559
отличался 8559
заготов@@ 8557
спасения 8557
Хилл 8555
фигур 8555
заведение 8554
собраны 8553
шского 8553
обнаруживает 8552
подъ@@ 8552
производит 8552
веру 8551
маны 8551
работка 8551
центральная 8548
ствующий 8547
кис 8546
коренных 8546
Гора 8545
взрос@@ 8544
комиксов 8544
опи@@ 8544
силах 8544
геометри@@ 8543
уд@@ 8541
ину 8540
Адольф 8539
Оде@@ 8539
Урал 8539
Хаба@@ 8539
торговые 8539
Улицы 8538
заверш@@ 8538
принуд@@ 8538
сидя@@ 8538
внезапно 8537
монасты@@ 8537
полки 8537
философ 8537
1780 8536
дожде@@ 8535
открытой 8535
ученик 8535
Монте@@ 8534
озвучи@@ 8534
сис 8534
тяжё@@ 8534
выгод@@ 8533
вв 8531
драматического 8531
литературу 8530
Гун@@ 8529
попеч@@ 8528
выпуске 8527
Софи@@ 8525
пояс 8525
волн 8521
годовой 8521
лём 8520
установлении 8520
Q 8519
воздушного 8519
схеме 8519
Альбер@@ 8518
Параллельно 8518
” 8518
Карло 8517
пытаясь 8517
ьё 8517
Колумбия 8515
бак 8515
ателя 8514
яче@@ 8514
Жак 8513
Гет@@ 8512
Пото@@ 8510
благосло@@ 8510
соавторстве 8509
публики 8508
пыталась 8505
Программа 8503
нским 8503
опере 8503
тельная 8503
ресурсы 8502
бронзовые 8500
суммы 8499
юридический 8498
Дуб@@ 8497
диску@@ 8497
технология 8497
духе 8496
раздра@@ 8496
обоснова@@ 8494
задерж@@ 8493
рующим 8493
воспа@@ 8491
передано 8491
уровней 8491
Иван@@ 8490
Палаты 8490
береговой 8490
детского 8490
идет 8488
разры@@ 8488
реставрации 8487
территориальных 8487
114 8486
муниципа@@ 8486
Четыре 8485
агентство 8485
Форт 8484
выставок 8483
дошёл 8483
отмечен 8483
высшем 8482
исследовательский 8482
армя@@ 8481
музыкальное 8480
проезд 8479
йство 8478
максимально 8478
сделаны 8478
Меха@@ 8477
Хмельни@@ 8477
Остальные 8474
впечат@@ 8474
вход 8474
днее 8474
понрави@@ 8474
репресси@@ 8474
сбе@@ 8474
Ы@@ 8473
трека 8473
закрепи@@ 8472
меди 8472
стоне 8472
l@@ 8471
житель 8470
Амур@@ 8469
учебно 8469
фолькло@@ 8469
Арханге@@ 8468
Съёмки 8468
делах 8468
лишения 8468
исследовательского 8467
Паулу 8466
Объек@@ 8465
напряж@@ 8465
признаки 8465
конструкций 8464
официальные 8464
биологических 8463
добыва@@ 8463
жке 8463
серви@@ 8462
старшей 8462
1801 8461
Билли 8461
бам 8461
ледо@@ 8461
рино 8461
сму@@ 8460
фор 8459
взро@@ 8458
логов 8458
нат@@ 8458
ниста 8458
общину 8456
хие 8456
бассейны 8455
ницами 8454
тяжёлые 8454
раненых 8453
узел 8453
Люб@@ 8452
трас@@ 8452
тюрк@@ 8452
клип 8451
крым@@ 8451
сложные 8451
кос@@ 8450
органом 8450
венно 8449
сенко 8449
вражеских 8448
кратная 8448
750 8446
Собор 8446
Солов@@ 8441
предотвра@@ 8441
упразд@@ 8441
Румы@@ 8440
размести@@ 8440
трети 8440
Азербайджан@@ 8439
поиск 8439
человеческого 8439
сохранил 8438
северного 8436
встреча@@ 8435
сит@@ 8435
Келли 8434
ам 8434
яй@@ 8434
слухи 8433
Стив 8432
библи@@ 8431
соответствующие 8431
важнейших 8429
заби@@ 8429
воспринима@@ 8428
вот@@ 8428
полнометра@@ 8428
равнин@@ 8428
рейсы 8428
тонов 8428
1,4 8427
ренного 8426
независимых 8425
эскадрильи 8425
зов@@ 8424
пытаются 8424
языку 8424
сформули@@ 8423
младен@@ 8422
птица 8422
Фак@@ 8421
гаты 8421
калибра 8421
маршрута 8421
финиши@@ 8421
Мэй@@ 8420
созданного 8420
мил@@ 8419
чь@@ 8419
Брат 8418
оказал 8417
тился 8417
Собрания 8416
рс 8416
Епархия 8415
удостоена 8415
Сибир@@ 8414
альными 8414
ис 8410
щённый 8410
Мок@@ 8409
шут@@ 8409
золотом 8408
компонентов 8408
отступ@@ 8408
воспоминаниям 8407
ир 8407
сроки 8407
рующего 8406
технику 8406
кун@@ 8404
наве@@ 8404
сельскохозяйственной 8404
сив 8403
Дун@@ 8402
преподавателей 8402
кода 8401
ступлением 8401
Мето@@ 8400
потерь 8400
несён 8399
хирургии 8399
Потом 8398
Такое 8398
танковая 8398
Гале@@ 8397
Галь@@ 8395
театральный 8395
закону 8394
раннем 8394
хвати@@ 8394
Петров 8392
влады@@ 8392
индейцев 8392
няли 8391
as 8390
Кызы@@ 8389
полтора 8389
постоянных 8389
страной 8389
эскадры 8389
Локомотив 8388
демократии 8388
довский 8388
приготов@@ 8388
чемпионкой 8388
3.@@ 8387
любых 8387
слобо@@ 8387
снизи@@ 8387
насчитывается 8386
удлин@@ 8386
уязви@@ 8386
Духов@@ 8385
Идея 8384
банкро@@ 8384
[...]
