， 21332614
的 13185044
。 12382365
、 4786949
年 4279284
在 3880950
（ 3213067
） 3208600
是 2940785
. 2189355
和 2161115
月 2009808
了 1813936
於 1659610
為 1407190
日 1255526
》 1222109
《 1222093
· 1214147
人 1212082
有 1205789
为 1136080
中 1110378
- 1106459
他 1018633
被 1007206
： 936914
「 929291
」 929151
與 857443
“ 840666
” 838685
也 836874
上 794884
後 777343
而 757214
由 743121
以 686728
及 665262
等 646975
1 645790
到 593679
" 585596
； 570130
与 538585
) 533521
于 531333
( 528140
但 520322
2 515982
, 493702
大@@ 488114
至 482218
3 475892
一个 454876
其 445449
都 442677
4 410142
會 401932
或 398228
后 393574
5 380659
之 379396
對 374474
來 368662
地 367445
時 365083
位 361448
10 358717
站 358321
不 357895
下 357574
6 347113
可以 346299
并 344208
中@@ 334016
一@@ 329161
7 325806
8 325525
中国 323156
日本 319845
12 315505
長 314359
使用 313850
子 300040
第 299296
所 298801
9 298229
香港 296786
; 292152
包括 286563
以及 286017
大 285455
者 282992
她 282824
米 282776
曾 281216
其中 280286
前 277501
一個 274944
就 274916
11 270311
州 269666
名 268376
将 267971
人口 266586
/ 266543
不@@ 265748
: 260833
軍 260586
新 260565
时 259685
道 258650
山 257831
主要 257345
公司 253978
对 253951
向 253107
性 250440
馬 243982
西@@ 243952
三@@ 241781
多 241684
省 241164
政府 231143
又 230955
出 228601
小@@ 228048
用 226901
市 226416
新@@ 225041
區 224022
之@@ 223332
县 223301
里 221234
德 219655
高@@ 217875
区 216452
阿@@ 216369
該 215809
南@@ 215147
其他 213059
该 211221
亦 210589
李@@ 207171
平方公里 206456
它 206437
王@@ 204983
臺 203658
家 203067
因此 203060
美國 202361
路 202265
以@@ 202074
作 200869
位于 200581
成 199461
金@@ 199312
最 198061
世界 196689
內 196286
会 195448
個 195347
線 193051
從 192767
可 192325
縣 192273
因 189394
人@@ 188408
地区 186038
已 185262
並 185173
城 184223
多@@ 183938
科 182846
更 182767
製 182688
德@@ 181944
化 181435
自己 181161
安@@ 179962
斯 178109
拉@@ 176152
美国 175190
文@@ 174594
中心 174434
法 174282
並@@ 172807
成立 172520
海@@ 172384
可能 171911
政治 171718
將 171560
研究 170706
工作 170207
約 169497
部 169261
能 169251
从 168114
國 168084
天@@ 167766
特@@ 167569
日@@ 167003
一 166106
式 166051
市镇 165769
自@@ 165170
稱 164894
20 164769
斯@@ 164668
代表 164305
比 163711
河 162937
& 162294
个 161763
起 161762
克 161383
表示 160566
分 160312
特 160226
上@@ 160209
号 159927
開始 158773
之一 158627
自 158418
任 157510
水@@ 157029
高 155656
村 154812
有@@ 154763
北@@ 154674
此 154067
西 153980
生 153379
即 152812
說 152209
使 151166
四@@ 149823
型 149635
要 148777
國@@ 148223
不同 148204
其@@ 147704
文 147284
— 147219
則 146821
由@@ 146335
卡@@ 146309
部分 145974
法国 144827
镇 144773
_ 144637
五@@ 143860
二@@ 143129
作品 142329
小 141201
林@@ 141077
开始 140381
本@@ 140335
公里 139994
这 139792
中國 138492
进行 138153
台灣 138141
副 138061
利@@ 137235
国家 137096
一些 137070
達 137059
大学 136833
年代 136535
克@@ 136465
事 136180
台 134672
加@@ 134595
局 134315
巴@@ 134218
正式 133601
15 132809
提供 132616
成为 132500
指 131613
科@@ 131582
外 131415
進行 131285
王 131129
行政 131123
南 131037
30 130999
所有 130622
把 130490
派 130160
他們 130086
马@@ 129786
地區 128915
羅 128830
内 128155
軍@@ 127652
外@@ 127613
度 127087
將@@ 126796
成為 126228
爾 126080
氏 124986
入 124614
文化 124588
地@@ 124460
第一 124112
公@@ 124006
車 123848
可@@ 123837
2010 123123
得 123116
全@@ 122789
東 122544
拉 122335
號 121909
城市 121687
年@@ 121583
法@@ 120991
白@@ 120678
本 120415
出@@ 119710
还 119584
山@@ 119453
获得 119373
分@@ 119315
大學 119156
美@@ 118960
力 118933
東@@ 118716
水 117788
以下 117779
则 117608
亞@@ 117532
處 116804
下@@ 116744
古@@ 116716
来 116492
属 116413
因為 116038
formula 115923
石@@ 115681
人物 115550
行 115237
明@@ 115221
國家 115150
林 114921
军 114677
面積 114526
没有 114376
他们 114114
座 113940
如 113916
利 113902
生活 113755
事件 113573
尼@@ 113447
我 113330
認為 113093
成@@ 112937
才 112529
主@@ 112368
16 111190
電影 110795
通过 110693
目前 110438
屬 110401
历史 110212
伊@@ 110211
18 110208
當時 109139
為@@ 109019
均 108377
去 108313
正@@ 108312
21 108261
2019 107995
但是 107700
海 107422
原@@ 107321
2011 107308
天 106955
足球 106461
面 106433
2009 106377
隊 105925
平@@ 105802
次 105793
名@@ 105423
陳 105356
明 105254
2016 105036
前@@ 104729
19 104700
因@@ 104519
管理 104185
光 103979
卡 103592
认为 103564
14 103534
东@@ 103487
加入 103440
尔 103192
同年 103176
兩@@ 103143
所@@ 102972
布@@ 102595
歷史 102554
2018 102330
重@@ 102233
格@@ 102210
讓 102177
重要 102169
基@@ 101834
再 101805
較 101701
手 101687
而@@ 101593
线 101142
2012 101113
郡 100939
13 100647
爾@@ 100278
同@@ 100166
下辖 100153
2013 99839
尼 99828
時間 99817
無@@ 99383
著 99277
間 99273
需要 99258
開@@ 99107
支持 99098
2017 99062
制 99024
约 99009
武@@ 98833
2014 98741
沙@@ 98625
罗@@ 98393
原 98313
和@@ 98132
建立 98125
生平 98106
2015 98087
17 97476
元 97285
期 97054
地方 96892
{ 96855
獲得 96636
女 96523
後@@ 96422
家@@ 96265
北 96014
八@@ 95624
要求 95407
格 95391
zh 95080
完成 94960
作为 94636
此@@ 94589
內@@ 94201
過 94169
2008 94021
同時 93943
黃 93847
仍 93834
哈@@ 93752
长 93397
} 93363
口 93360
學 93323
由于 93198
夫 93175
車站 93150
量 93136
府 93103
2020 93004
教育 92981
单位 92970
金 92965
清@@ 92958
六@@ 92587
例如 92443
25 92239
光@@ 92154
便 92105
国 91977
铁路 91823
比@@ 91756
系 91149
] 91095
島 91034
[ 90956
成功 90811
主 90739
普@@ 90644
方式 90634
得到 90226
受到 90097
張@@ 90080
第二 89821
很 89771
塔 89759
這@@ 89714
乡 89564
時@@ 89564
上海 89095
版 88938
基 88925
發展 88876
分布 88857
工程 88767
街 88691
一般 88664
器 88554
會@@ 88232
死 88214
参加 88199
两@@ 88054
委员会 87864
人民 87760
復 87693
集 87375
雷@@ 87355
周@@ 87303
安 87223
中央 86986
每 86950
通常 86942
存在 86918
歲 86855
合@@ 86798
波@@ 86676
前往 86653
花 86595
場 86445
加 86380
賽 86173
且 86162
一種 85598
之后 85456
张@@ 85233
定 85184
發現 84974
系統 84943
2001 84939
神@@ 84906
受 84821
行@@ 84723
24 84650
通@@ 84374
相@@ 84365
人口密度 84282
只 83943
称 83894
2007 83776
另 83710
任@@ 83700
无@@ 83661
子@@ 83613
方面 83397
字 83317
關 83310
機 83294
－ 83233
今 83046
史 82935
民@@ 82828
就是 82767
官 82676
然而 82671
華@@ 82564
發 82558
十@@ 82503
提出 82486
江 82324
黑@@ 82276
亞 82245
花@@ 82040
生@@ 81959
發@@ 81811
建@@ 81736
形成 81614
三 81597
系统 81596
另外 81384
兵 81111
木@@ 81033
22 80952
族 80922
語 80830
尔@@ 80742
担任 80624
心 80587
黨 80420
最大 80237
2006 80214
国@@ 79911
段 79895
非 79891
具有 79867
说 79689
达 79687
反@@ 79626
一名 79403
着 79396
令 79278
门 78907
學@@ 78706
主席 78677
佈 78552
國際 78496
共 78444
长@@ 78414
塔@@ 78392
及@@ 78375
率 78363
灣 78317
宣布 78302
北京 78297
伯@@ 78291
各@@ 78271
艾@@ 78207
石 78178
港 78120
只有 78082
最高 78067
队 78009
一种 77871
球 77720
田@@ 77575
吉@@ 77572
英國 77463
士 77379
體 77352
擔任 77319
龍 77206
同时 77169
作@@ 77086
點 77037
故事 76904
頭 76890
洛@@ 76848
根據 76809
系列 76687
合作 76470
遊戲 76341
室 76187
语 76184
所以 75990
23 75979
一位 75921
接受 75911
2021 75780
学名 75665
未 75487
例 75476
此外 75440
出現 75251
组织 75245
平 75189
係 75158
首次 75105
做 74912
学 74855
好 74817
gt 74688
附近 74654
卻 74609
= 74587
这些 74481
九@@ 74257
小行星 74027
門 73941
瓦@@ 73893
當@@ 73853
造成 73655
太@@ 73612
角色 73435
正 73402
内@@ 73319
萬 73275
比賽 73264
印度 73234
片 73185
学院 73077
发展 73063
七@@ 73035
像 73001
圣@@ 72920
2000 72901
回 72805
属于 72785
影響 72783
一直 72768
发现 72757
同 72702
2005 72620
处 72574
江@@ 72440
合 72353
這些 72317
里@@ 72260
專輯 72248
美 72248
方 72207
元@@ 72185
自由 72021
湖 72005
物 71948
一座 71931
打@@ 71912
萬@@ 71857
博@@ 71796
女性 71781
帶 71667
姆 71589
管 71561
车 71491
時期 71422
寺 71398
黄@@ 71351
取得 71318
森 71312
增加 71254
28 71186
如@@ 71170
北部 70975
歌曲 70844
世@@ 70764
經@@ 70720
設計 70683
世纪 70680
这个 70520
案 70284
數 70205
恩 70189
中华人民共和国 70136
奧@@ 70102
lt 70076
方@@ 70044
过 70001
亚@@ 69958
老@@ 69950
刘@@ 69922
重 69916
這個 69880
立@@ 69878
永@@ 69868
开@@ 69866
活動 69865
羅@@ 69864
百@@ 69845
沒有 69827
沒 69810
社會 69806
游戏 69799
命名 69675
星 69659
德国 69620
之間 69534
任何 69439
如果 69393
回@@ 69376
社 69349
戰 69344
心@@ 69270
当时 69255
勒 69035
書 68997
给 68834
共有 68725
神 68652
堂 68581
场 68418
代@@ 68345
海拔高度 68317
劉@@ 68139
字@@ 68027
国际 68021
迪@@ 67980
田 67867
街道 67845
政@@ 67738
進 67717
除了 67705
意 67682
26 67546
不是 67506
学校 67488
受@@ 67482
莫@@ 67479
改@@ 67413
轄 67390
种 67300
控制 67298
布 67289
根据 67168
设计 67165
信 67146
音 67140
福@@ 67105
梅@@ 67046
万@@ 67016
英@@ 67008
角 66998
一次 66982
車@@ 66947
岁 66908
學校 66701
發行 66450
米@@ 66417
波 66415
0 66214
常@@ 66094
皆 66003
數@@ 65978
杜@@ 65934
陈@@ 65915
000 65610
台@@ 65586
該@@ 65548
期间 65405
版本 65403
' 65375
首@@ 65339
电影 65290
朱@@ 65133
27 65024
之前 65008
問題 64987
纳 64958
% 64923
城@@ 64890
英国 64806
維@@ 64793
機@@ 64682
獎 64646
南部 64624
A 64590
電@@ 64527
節目 64476
平均 64316
点 64271
因为 64270
大量 64203
屆 64133
號@@ 64087
唐@@ 64031
体 64019
埃@@ 63910
館 63866
教@@ 63789
胡@@ 63789
立 63719
马 63683
奇 63616
时期 63610
出版 63586
開 63581
們 63418
院 63402
級 63398
轉@@ 63365
岛 63317
商@@ 63230
品 63192
入@@ 63161
經 63133
灣@@ 63130
目 63104
维@@ 63061
曲 63021
地理 63001
發生 62865
河@@ 62861
見 62805
聖@@ 62787
青@@ 62692
保@@ 62686
建筑 62546
權 62494
非常 62487
女@@ 62423
界 62408
31 62375
塞@@ 62359
比赛 62220
直接 62048
達@@ 62037
时间 62027
無 61996
流 61917
商 61907
之间 61906
2004 61696
流@@ 61674
手@@ 61671
組織 61579
宗 61450
全国 61448
冠 61444
民 61388
问题 61373
色 61354
形 61346
影响 61317
納@@ 61299
各 61241
鄉 61178
推出 61174
作為 61120
期間 61119
泰@@ 61109
已经 61031
有限公司 61027
植物 61018
方法 60872
级 60799
为@@ 60679
一起 60523
設 60429
動 60308
員 60214
重新 60153
让 60092
甚至 60066
該國 60060
帝 60058
電視 60049
著名 60048
風@@ 59890
教授 59848
公 59846
奥@@ 59843
29 59783
师 59744
川 59673
皮@@ 59590
100 59561
總@@ 59359
進入 59349
雖然 59304
工@@ 59180
千@@ 59155
半@@ 59119
區@@ 59103
列 59093
| 59053
過@@ 59015
直@@ 58964
包含 58913
女子 58907
经济 58835
出现 58741
帕@@ 58741
愛@@ 58703
车站 58582
发生 58486
航空 58484
最佳 58447
机 58441
利用 58381
龍@@ 58288
西班牙 58282
信@@ 58256
形式 58171
播出 58156
称为 58142
列@@ 58087
師 58085
接@@ 58030
馬@@ 57950
两个 57889
位置 57738
定@@ 57683
蘭@@ 57538
第三 57461
主任 57454
船 57285
希@@ 57251
进入 57195
史@@ 57144
通 57051
身 57014
直到 56889
东 56794
對@@ 56791
用@@ 56788
代 56600
列表 56565
英 56506
戰@@ 56335
舉行 56221
班 56168
電 56162
面积 56119
每@@ 56080
行政区划 56009
完全 55948
並且 55843
头 55830
50 55766
火@@ 55764
市@@ 55750
寫 55747
蘇@@ 55736
最終 55671
of 55650
漢@@ 55649
共同 55642
單@@ 55627
源 55621
巴 55585
活动 55477
話 55473
成員 55472
托@@ 55393
出生 55356
士@@ 55330
不能 55324
雙@@ 55271
連@@ 55231
男子 55167
造 55143
总面积 55129
交@@ 55115
奇@@ 55030
還@@ 54951
路@@ 54896
分別 54865
章 54823
參加 54787
苏@@ 54779
一部分 54774
首 54768
达@@ 54761
音樂 54723
再次 54722
演出 54643
计划 54571
家族 54497
指@@ 54471
先@@ 54434
龙@@ 54407
康@@ 54387
2003 54381
后来 54381
當 54255
提@@ 54235
置 54191
情 54143
赫@@ 54140
土@@ 54127
共@@ 54072
值 54069
類 54067
家庭 54042
這 54009
民主 53993
選舉 53986
桥 53911
跟 53880
战争 53874
霍@@ 53871
二 53850
獲 53841
決定 53820
不過 53682
大陆 53653
居民 53623
星@@ 53588
低 53576
月台 53562
希望 53559
能力 53487
瓦 53473
義@@ 53459
非@@ 53449
共和 53378
那 53330
群 53291
索@@ 53175
总@@ 53169
意大利 53159
魚 53107
许多 53078
言 53056
时@@ 52991
最@@ 52980
殺 52943
莱@@ 52905
至@@ 52887
罗 52881
巴士 52768
取 52704
斯特 52687
伊 52561
早期 52527
华@@ 52520
后@@ 52496
而且 52494
服務 52462
給 52443
恩@@ 52430
通過 52345
发@@ 52338
種 52228
嘉@@ 52188
節 52156
房 52153
汉@@ 52083
根 52057
納 52014
當地 51953
性@@ 51937
真@@ 51914
部@@ 51840
政 51777
宗@@ 51751
總 51747
交通 51740
纳@@ 51704
曼 51656
圖 51629
西部 51604
人士 51502
技术 51485
最终 51485
收@@ 51483
你 51434
政策 51365
紅@@ 51353
往 51295
该@@ 51043
宋@@ 51036
委員會 51030
当 51000
安全 50978
以上 50977
平方千米 50949
沃@@ 50949
近 50926
歐洲 50924
初@@ 50915
深@@ 50818
2002 50765
堡 50715
大部分 50673
戰爭 50646
經濟 50606
視 50600
關@@ 50437
木 50384
報 50196
官@@ 50132
學院 50130
若 50089
在@@ 50038
法律 50019
運動 49982
the 49815
世 49772
萨@@ 49726
功能 49640
未@@ 49423
學生 49368
方向 49362
風 49266
蘭 49265
经 49228
許多 49227
C 49216
鲁@@ 49212
使得 49180
音@@ 49179
中華民國 49172
道@@ 49162
模式 49159
已經 49119
红@@ 49050
吳@@ 48933
司 48879
朝 48811
富@@ 48808
龙 48803
书 48795
军@@ 48794
化@@ 48791
… 48763
B 48730
但@@ 48722
面@@ 48691
張 48662
双@@ 48635
万 48607
决定 48583
計劃 48542
托 48483
票 48469
峰 48291
数 48255
特別 48246
最初 48204
去世 48130
原因 48118
中共 48109
薩@@ 48084
世紀 48070
40 48037
指出 48010
加拿大 48009
力@@ 47984
應 47950
常 47925
运动 47900
組 47898
業 47897
间 47875
修@@ 47869
先 47855
口@@ 47839
拍 47816
甲@@ 47799
迪 47759
超@@ 47679
何@@ 47657
草 47651
生涯 47639
空@@ 47526
想 47483
店 47461
奖 47421
傳 47411
密@@ 47356
目@@ 47312
反 47299
打 47268
官方 47256
仍然 47247
很多 47226
架 47225
松@@ 47196
男 47192
體@@ 47180
事@@ 47148
描述 47146
玉@@ 47090
進@@ 47080
兩個 47071
更@@ 47056
清 47044
走 47024
赛 46999
景@@ 46977
雅@@ 46959
的@@ 46927
徐@@ 46917
道路 46856
選@@ 46828
死亡 46821
諾@@ 46755
團 46749
現 46715
裡 46704
聯賽 46664
宮 46662
团 46650
則@@ 46633
相關 46630
华 46592
丁@@ 46586
志@@ 46586
廳 46552
威@@ 46531
电@@ 46526
总人口 46504
兰 46500
集@@ 46473
起@@ 46448
情况 46382
年度 46363
負責管 46349
理 46155
革命 46100
除 46086
类 46075
关系 46070
奧 46069
党 46061
夏@@ 46018
目的 45997
組成 45978
建 45930
寶@@ 45925
登 45814
兼 45787
唯一 45733
居 45722
亚 45691
社会 45618
会议 45601
瑞@@ 45596
門@@ 45575
蒂@@ 45572
权 45560
庄 45470
野@@ 45455
梁@@ 45452
端 45424
擁有 45387
聲 45346
全球 45345
失@@ 45314
杨@@ 45296
民族 45278
相 45259
学@@ 45205
1990 45187
教 45186
曼@@ 45150
球隊 45140
板 45133
得@@ 45075
结构 45055
带 45020
表 45000
諾 44959
图 44951
貝@@ 44828
娜 44825
火 44812
左@@ 44809
相同 44807
魯@@ 44716
佛@@ 44698
資料 44617
机构 44607
理@@ 44580
應@@ 44560
那@@ 44555
全部 44536
住 44509
解@@ 44483
阳 44446
封@@ 44417
全 44410
領@@ 44362
第一次 44330
賽@@ 44327
男性 44324
萊@@ 44246
溪 44244
夫@@ 44231
無法 44215
分别 44195
勒@@ 44185
併 44140
實@@ 44137
華 44079
省份 44067
結果 44056
单@@ 44051
施@@ 44032
来自 44023
作用 43979
病 43975
这种 43969
+ 43937
成员 43910
公路 43908
頓 43791
登@@ 43721
低@@ 43712
季 43711
工 43693
署 43683
制@@ 43658
推@@ 43652
法國 43643
精@@ 43618
路線 43617
主义 43616
大型 43588
雷 43588
总统 43587
盃 43558
邦 43527
班@@ 43513
组成 43450
门@@ 43435
修 43399
佩@@ 43344
最后 43341
樂@@ 43312
发 43310
師@@ 43308
程 43282
獨立 43192
樓 43123
初 43107
設有 43099
層 43031
京@@ 42995
結束 42958
及其 42925
报 42918
志 42896
项目 42883
情況 42801
聯@@ 42787
古 42715
每年 42689
三年 42674
制度 42671
食 42642
楊@@ 42626
總統 42617
鐵@@ 42523
一部 42496
普 42450
建築 42397
身@@ 42353
不久 42333
或者 42305
德國 42301
或@@ 42281
1999 42262
学生 42208
傳@@ 42195
! 42156
演唱 42145
町 42054
超過 42050
夏季 41973
楼 41951
1998 41911
蒙@@ 41822
演@@ 41791
第一@@ 41790
校 41786
美元 41779
用于 41659
思@@ 41608
列車 41600
時代 41549
名字 41524
朝@@ 41508
采用 41479
部队 41407
參 41330
导致 41320
頭@@ 41300
穆@@ 41297
建设 41237
明朝 41230
对@@ 41155
为了 41144
生于 41054
牌 40968
繼續 40963
季@@ 40952
拥有 40888
他@@ 40836
当地 40815
毕业 40736
查@@ 40696
遭到 40672
望 40653
歌 40645
條 40619
列车 40609
教堂 40568
透過 40565
尾 40542
层 40522
境内 40498
曾@@ 40475
员 40468
建造 40453
防@@ 40446
並在 40442
独立 40436
背景 40427
〉 40389
并且 40378
副@@ 40367
〈 40348
兒 40341
核@@ 40326
今@@ 40325
吉 40303
复@@ 40283
然 40255
洛 40246
兵@@ 40234
集团 40218
广@@ 40190
茨 40114
最後@@ 40112
土地 40092
玩家 40086
1980 40062
西北 40018
卷 39977
白 39970
佔 39964
州@@ 39959
皮 39948
吴@@ 39942
公園 39896
占 39873
展 39868
一年 39859
集團 39852
毛@@ 39848
宣@@ 39833
送 39802
藏 39800
欧洲 39777
产生 39771
风@@ 39747
接壤 39705
兰@@ 39674
專@@ 39656
战 39619
贝@@ 39554
宗教 39516
青年 39496
索 39480
素 39472
弗@@ 39460
生物 39431
中国@@ 39368
省@@ 39303
地球 39299
转@@ 39269
空 39248
沙 39246
回到 39212
引起 39205
较 39197
香@@ 39187
著@@ 39174
举行 39170
承@@ 39153
音乐 39144
第二@@ 39123
组 39115
治 39097
松 39088
余@@ 39064
机场 39060
甲 39055
故 39029
1997 39028
最早 39019
清朝 39017
进@@ 39008
傳統 38996
動@@ 38944
越 38924
野 38908
五 38899
条 38867
守@@ 38852
命 38831
熱@@ 38815
地位 38811
採用 38730
氣 38727
阿 38702
苏联 38700
單位 38654
熱帶 38637
角@@ 38598
基本 38558
母@@ 38510
越南 38510
这@@ 38493
春@@ 38487
選 38425
作家 38424
速度 38410
支 38403
身份 38372
改 38346
诺 38304
语言 38164
經過 38143
会@@ 38125
停@@ 38104
克斯 38088
劇 38076
影片 38051
元年 38034
摩@@ 37968
再@@ 37966
導致 37920
親@@ 37849
落 37820
興@@ 37797
強 37787
校@@ 37774
郭@@ 37770
升 37749
四 37730
整@@ 37714
畢業 37699
果 37683
管@@ 37670
制作 37668
取代 37637
近@@ 37628
月@@ 37624
底 37605
機場 37603
中部 37567
自然 37538
仁@@ 37500
論 37448
少@@ 37442
出身 37398
解 37392
– 37387
歐@@ 37383
廣@@ 37381
圖@@ 37376
塞 37333
服务 37333
不少 37329
讀 37306
公尺 37254
！ 37243
主持 37236
200 37229
任命 37206
地面 37200
天主教 37168
丁 37139
发行 37079
伯 37049
境 37005
福 36941
加上 36932
M@@ 36895
数@@ 36891
組@@ 36889
歌手 36884
热@@ 36875
军队 36874
還 36867
放@@ 36847
書@@ 36828
改革 36797
取@@ 36746
反应 36741
請 36736
延@@ 36727
增@@ 36715
雪@@ 36707
聯 36686
客 36675
60 36639
技術 36614
橋 36582
出任 36548
邊 36541
诺@@ 36540
治@@ 36534
参与 36523
鐵路 36517
乌@@ 36506
俄罗斯 36464
西南 36458
行動 36453
卢@@ 36445
分析 36382
动 36374
立法 36356
The 36346
洪@@ 36322
內容 36319
義 36301
戈@@ 36290
只是 36286
維 36267
烏@@ 36246
留@@ 36231
聯盟 36183
机@@ 36164
皇帝 36124
這種 36107
毫米 36096
真 36069
蒂 36058
葉@@ 36052
基地 36035
设 36020
1996 35998
草@@ 35973
原本 35944
向@@ 35942
地下 35922
还有 35899
球@@ 35858
关于 35854
谷 35852
酒 35838
負責 35835
至今 35741
臣 35737
圈 35725
表演 35723
雲@@ 35698
看 35680
旧 35673
耶@@ 35663
车@@ 35615
韓國 35607
少 35582
包@@ 35567
骨 35564
仅 35541
馆 35531
平台 35500
主教 35497
一定 35471
人员 35461
过程 35397
T 35360
X 35354
鎮 35340
结束 35336
生产 35327
款 35325
秀@@ 35305
情@@ 35303
父親 35296
祖@@ 35291
縣@@ 35285
極@@ 35279
D@@ 35243
曲@@ 35204
左右 35180
获 35177
桑@@ 35176
英文 35163
日至 35127
步 35127
期@@ 35088
运动员 35074
母 35072
发布 35047
具 35030
届 35029
居住 34994
封 34941
樂 34929
唱片 34903
警@@ 34858
守 34833
惠@@ 34818
新加坡 34772
單曲 34761
同意 34733
半 34731
大多 34729
500 34712
湖@@ 34673
個@@ 34668
形@@ 34597
武 34561
限制 34561
短@@ 34546
部长 34546
？ 34542
概念 34537
辦 34536
1994 34535
日起 34521
現@@ 34490
血@@ 34487
來@@ 34462
一家 34459
公共 34415
南京 34415
輪 34408
被@@ 34399
接 34395
必須 34317
抗@@ 34316
宣 34305
有些 34300
之後@@ 34296
川@@ 34274
梅 34242
團體 34196
病@@ 34174
戴@@ 34155
武器 34151
魏@@ 34134
表@@ 34123
越@@ 34115
业 34114
s 34097
即@@ 34083
社@@ 34055
经过 34001
獲@@ 33973
随后 33965
城区 33958
人口普查 33936
节 33933
產生 33929
支@@ 33910
投@@ 33878
聖 33866
澳門 33859
罪 33851
1992 33817
線@@ 33803
好@@ 33799
鄭@@ 33799
警察 33795
兄弟 33783
1995 33781
切@@ 33757
離@@ 33715
屋 33709
差 33677
乡镇级 33670
br 33662
故@@ 33659
继续 33640
我们 33623
隆 33614
厂 33597
初期 33590
S 33582
委 33575
联赛 33544
藏@@ 33538
委员 33482
場@@ 33472
图@@ 33464
科技 33455
從@@ 33397
学习 33377
進士 33320
变化 33305
号线 33303
油@@ 33284
篇 33267
中華 33254
產@@ 33252
负责 33248
多次 33238
元素 33229
港@@ 33228
什@@ 33198
烏克蘭 33191
複 33188
丹@@ 33187
开发 33185
呈 33151
动@@ 33140
战@@ 33131
媒體 33129
酸 33104
會議 33079
需 33071
造@@ 33062
忠@@ 33055
單 33044
仁 33039
變 33029
議員 33008
這是 33001
鐵 32999
紀錄 32997
T@@ 32962
微@@ 32951
曾任 32919
二世 32916
使@@ 32908
相关 32898
传@@ 32882
虽然 32874
能@@ 32865
隨@@ 32851
叶@@ 32845
位@@ 32807
藝術 32806
擊 32801
康 32791
赵@@ 32791
菲@@ 32786
飾 32785
第二次 32780
力量 32768
节目 32737
感@@ 32719
1993 32707
排@@ 32701
有人 32668
計畫 32665
尾@@ 32614
泰 32602
辛@@ 32592
巴西 32577
廠 32568
盧@@ 32560
球队 32548
老 32544
詞 32537
飛@@ 32519
凱@@ 32518
追@@ 32511
若@@ 32501
研究所 32492
00 32490
份 32487
宫 32444
K@@ 32440
边 32440
联盟 32438
公布 32431
G@@ 32403
威 32397
对于 32397
綫 32384
足 32362
區域 32349
海拔 32349
1991 32347
亞洲 32324
倫@@ 32316
短 32316
中学 32314
柯@@ 32283
人員 32274
演員 32246
流域 32234
巴黎 32218
宁 32200
它们 32199
顯示 32185
轉 32182
次@@ 32163
姓 32162
現時 32100
森@@ 32082
有關 32080
據 32074
早 32074
戶 32050
王朝 32037
超过 32014
槍 32004
信息 31982
範圍 31964
氣@@ 31944
調 31924
美國@@ 31905
或是 31890
質 31881
引@@ 31875
首都 31832
殿 31819
所属 31808
海军 31772
客@@ 31764
达到 31746
遠 31744
島@@ 31742
流行 31722
保 31710
籍 31689
浙江 31679
部隊 31667
连@@ 31661
已@@ 31655
男@@ 31610
麥@@ 31578
隆@@ 31556
營 31540
公园 31523
却 31517
父 31501
文物保护 31491
強@@ 31490
結構 31490
調@@ 31480
語@@ 31479
1950 31438
一世 31421
居@@ 31421
医院 31407
实@@ 31377
景 31364
M 31362
厅 31359
过@@ 31326
土 31308
驻 31294
感 31266
伦 31249
創作 31248
皇@@ 31233
是否 31218
園 31201
開發 31183
舊 31176
服 31164
新聞 31163
妻子 31150
始建 31129
标准 31129
保持 31108
调@@ 31106
環境 31092
意@@ 31072
父亲 31066
觀 31053
当@@ 31025
色@@ 31016
興 30958
冠军 30956
圣 30943
a 30939
運@@ 30935
返回 30911
甘@@ 30900
動物 30893
区域 30878
进 30874
市場 30850
旗 30809
二年 30788
经@@ 30780
蔡@@ 30776
宝@@ 30774
第三@@ 30771
如下 30744
B@@ 30716
結@@ 30701
D 30684
叶 30679
網 30644
調查 30642
廟 30616
领导 30599
機構 30588
1949 30572
救@@ 30564
症 30560
第四 30550
李 30542
动物 30525
程度 30489
朗 30483
變@@ 30473
佐@@ 30463
们 30443
专@@ 30439
榜 30436
棲息 30411
過程 30410
勝 30347
批准 30311
落@@ 30294
分子 30291
周 30269
哥 30259
传统 30232
排名 30231
80 30216
相當 30214
物@@ 30198
博士 30190
看@@ 30188
爲 30176
1988 30151
依@@ 30145
十分 30139
F 30123
學家 30121
公分 30116
俱乐部 30107
兹 30107
丹 30099
游@@ 30078
1970 30068
内容 30056
体@@ 30047
考@@ 30046
君 30030
牛@@ 30020
影 30019
我們 30017
根@@ 29995
重建 29985
職 29951
配@@ 29946
彈 29944
授 29922
营 29913
名稱 29904
E 29903
別 29879
麻@@ 29845
下午 29840
洲 29837
秦@@ 29815
竹@@ 29790
求@@ 29764
企业 29763
I 29736
食@@ 29729
舉辦 29722
成績 29719
當中 29710
2@@ 29699
人類 29691
科学 29666
按 29657
雅 29651
风 29619
象 29618
選擇 29617
水域 29566
改為 29557
范围 29553
印@@ 29550
不再 29504
錄 29482
报告 29465
数据 29464
银行 29464
環@@ 29461
協會 29451
因而 29446
』 29437
職業 29435
『 29427
知道 29411
接近 29407
设立 29396
社区 29392
兴@@ 29385
域 29369
距離 29360
皇家 29354
料 29328
1989 29315
0.@@ 29313
泉 29306
小时 29279
这一 29269
更名 29265
联@@ 29254
動畫 29253
勢 29253
理论 29246
昌 29230
关@@ 29221
时代 29219
尚@@ 29215
大臣 29191
陽 29169
正在 29151
還有 29151
方案 29149
爱@@ 29140
改为 29132
and 29121
降@@ 29113
姆@@ 29112
上映 29109
无 29102
聯合 29095
表現 29095
偏@@ 29079
右@@ 29073
四川 29057
张 29048
柏@@ 29040
保护 29022
什 28991
太平洋 28980
歌@@ 28975
主演 28960
切 28936
1945 28903
截至 28897
G 28878
职 28876
業@@ 28859
而是 28859
衛@@ 28857
密 28856
支援 28850
设有 28850
提名 28848
毛 28845
點@@ 28843
现在 28808
书记 28797
专业 28715
头@@ 28699
网 28694
岩 28693
令@@ 28689
標準 28681
质 28655
工业 28653
著作 28646
青 28643
良 28609
非洲 28603
结果 28580
倫 28573
職@@ 28570
包 28554
取消 28492
特别 28472
費@@ 28454
论 28437
未能 28398
35 28391
枚 28365
强 28364
法院 28360
库@@ 28328
查 28321
稱@@ 28292
彭@@ 28291
勝@@ 28279
保留 28267
韦@@ 28247
交流 28226
写 28222
良@@ 28214
快 28195
攻擊 28195
給@@ 28183
直至 28168
70 28162
知 28156
孫@@ 28155
溫@@ 28141
剧 28128
等@@ 28112
庫 28088
艺术 28085
昌@@ 28078
1960 28062
旗下 28047
干@@ 28009
警方 27989
招@@ 27985
冰@@ 27982
振@@ 27977
眼 27950
深 27949
村@@ 27930
作者 27909
2022 27900
停止 27896
病毒 27891
材料 27868
其它 27867
欧@@ 27861
云@@ 27856
各地 27846
看到 27833
韩国 27831
巨@@ 27813
十年 27792
逝世 27792
扎@@ 27781
45 27776
思想 27759
速 27750
新增 27736
高中 27729
二十@@ 27719
六 27707
倍 27697
佛 27695
于@@ 27683
一樣 27678
赛季 27673
词 27648
盛@@ 27639
離 27620
快速 27614
智@@ 27610
赴 27605
项 27598
太 27577
又名 27574
可達 27573
见 27567
建成 27564
园 27561
铁@@ 27547
電子 27537
州市 27531
存 27523
坑 27507
親 27476
億 27470
特殊 27464
任务 27459
紅 27428
声 27416
博物馆 27412
黨@@ 27411
牛 27393
雄 27343
和平 27342
网络 27322
媒体 27318
威廉 27291
記 27291
四年 27282
西方 27280
东北 27271
投票 27262
总 27253
省级 27241
发表 27240
私@@ 27239
鎮區 27223
艦 27185
賽事 27173
再度 27161
能夠 27154
R 27153
船@@ 27151
藍@@ 27149
軍隊 27145
300 27140
編@@ 27125
遂 27124
派@@ 27110
据 27109
乐@@ 27108
兩 27108
顿 27105
統@@ 27095
隨著 27094
柱 27078
只能 27066
報@@ 27039
农@@ 27026
年间 27020
油 27017
孩子 27009
告@@ 27008
90 27004
村落 26998
无法 26993
联合 26988
帝国 26983
行动 26981
視@@ 26973
瑪@@ 26966
許@@ 26953
陵 26919
尚未 26911
1985 26908
易@@ 26898
帝國 26893
4@@ 26892
俄羅斯 26864
公民 26862
天津 26860
豐@@ 26831
超 26794
改名 26791
件 26771
韋@@ 26771
交 26763
n 26762
協助 26756
照 26743
舰 26735
營@@ 26725
收入 26722
孙@@ 26708
朋友 26708
32 26703
設立 26699
尤其 26698
產 26697
之外 26684
知@@ 26676
  26675
莉 26671
群@@ 26646
福建 26634
曆 26626
擊@@ 26624
中學 26594
文件 26594
務 26566
公主 26551
～ 26549
預@@ 26545
春 26536
京 26522
早年 26508
命令 26507
末 26506
公開 26504
紫@@ 26502
功 26498
曹@@ 26487
以前 26485
1984 26466
先生 26457
文章 26457
当选 26450
暴@@ 26446
項 26446
维 26435
艘 26427
齐@@ 26425
播放 26419
決賽 26410
寧@@ 26401
阿尔@@ 26399
名称 26397
僅 26378
茲 26357
井 26354
蒙 26352
蒙古 26347
极@@ 26335
項目 26332
簡稱 26312
擊敗 26310
多年 26298
現在 26297
裔 26295
模型 26259
普通 26257
洞 26239
愛 26213
地震 26199
射@@ 26199
大樓 26184
1986 26179
不會 26175
L 26171
連 26163
五年 26162
尤@@ 26148
环境 26115
節@@ 26111
優@@ 26108
安排 26100
局@@ 26099
P@@ 26092
畫 26088
军事 26075
狀 26062
赛@@ 26061
退@@ 26058
协会 26004
條@@ 26004
集中 26001
設@@ 25989
H@@ 25985
士兵 25976
E@@ 25971
都@@ 25971
提高 25968
兩人 25931
仙@@ 25923
麗@@ 25923
參與 25910
广场 25907
台北 25903
赤@@ 25897
瑞 25893
努@@ 25892
选举 25890
鎮@@ 25885
眾 25862
發表 25833
以外 25831
联邦 25817
員@@ 25815
議會 25799
失去 25797
变@@ 25783
葉 25782
略 25776
沃 25765
远 25762
气@@ 25758
陸 25747
許 25745
奥 25712
范@@ 25712
持續 25699
大道 25690
1987 25689
翼 25689
气 25688
漫畫 25680
程序 25678
这是 25673
移民 25664
全國 25660
拿 25656
除@@ 25653
佛教 25648
孟@@ 25646
0@@ 25640
此后 25638
至少 25623
市民 25601
醫院 25590
生產 25584
保護 25579
創@@ 25575
in 25568
選區 25546
突@@ 25539
久 25537
孔@@ 25535
引擎 25535
費 25522
不明 25514
掉 25505
户 25498
河南 25497
有关 25489
探@@ 25479
以来 25475
載 25441
語言 25428
三个 25422
党@@ 25422
潘@@ 25413
謝@@ 25381
默@@ 25364
股份 25349
往@@ 25347
伦@@ 25338
规定 25328
銀行 25327
球員 25324
供 25311
樂團 25289
群島 25285
裝@@ 25282
軍事 25266
类似 25262
表面 25262
中文 25249
時候 25243
实现 25242
年間 25229
线路 25229
酒店 25222
射 25203
菜 25191
义 25190
避免 25188
基础 25183
机车 25175
这样 25175
思 25171
共和国 25170
團@@ 25162
隻 25161
休@@ 25159
以來 25154
某些 25139
要@@ 25138
之下 25137
海岸 25136
国王 25120
陽@@ 25117
2.@@ 25105
中国共产党 25083
U 25069
随着 25054
畫@@ 25052
航 25048
友 25047
兼@@ 25044
投入 25037
眼@@ 25012
C@@ 24987
提 24985
海域 24967
书@@ 24963
屬@@ 24963
牠 24960
高度 24933
镇@@ 24930
主題 24912
K 24901
3@@ 24894
農@@ 24889
有效 24884
申@@ 24879
靈@@ 24879
杯 24878
各種 24874
郎 24859
1982 24853
湾 24853
距 24851
希 24849
韓@@ 24847
設施 24845
處理 24837
物理 24828
前身 24825
基金 24812
本地 24811
一同 24807
善 24786
L@@ 24781
行为 24779
執行 24773
健康 24754
孝@@ 24744
得以 24738
温@@ 24738
N@@ 24725
如此 24713
舊@@ 24709
时候 24707
拜 24706
基督教 24699
消息 24699
兴 24679
院@@ 24666
从@@ 24664
黎@@ 24657
核 24641
影@@ 24635
创作 24629
直 24597
云 24596
核心 24563
选择 24562
P 24551
瑞典 24551
運動員 24532
盛 24528
三個 24522
致@@ 24518
编码 24505
庫@@ 24499
凯@@ 24494
權@@ 24494
禁止 24494
排 24481
標 24481
護@@ 24480
同一 24462
處@@ 24462
运行 24440
部份 24436
十二 24426
破@@ 24426
忠 24422
喜@@ 24414
几@@ 24410
隧道 24406
不过 24403
瑞士 24395
广州 24392
鱼 24388
出口 24384
河流 24384
物种 24362
迴 24360
博 24335
杰@@ 24335
曾經 24334
澤@@ 24326
右 24312
樹@@ 24311
1.@@ 24306
逐漸 24299
裝 24293
合并 24276
分为 24263
恢复 24253
澳洲 24253
黑 24248
沈@@ 24243
1983 24241
散 24229
反对 24219
議 24199
宁@@ 24177
特色 24166
强@@ 24165
羽毛球 24145
務@@ 24133
归@@ 24133
S@@ 24131
夏 24129
嚴重 24126
卫@@ 24117
宮@@ 24114
一系列 24105
南方 24102
之中 24076
薩 24073
年底 24070
作出 24063
僅@@ 24059
文字 24051
编@@ 24027
英語 24027
莫 24024
隊@@ 24009
尽管 23982
乘客 23971
收 23947
找到 23943
空間 23941
救 23938
大区 23931
效力 23922
香 23921
荷@@ 23913
开 23912
炮 23902
乙@@ 23893
坦@@ 23887
渡@@ 23887
跨@@ 23862
赫 23849
源@@ 23837
唐 23831
善@@ 23825
述 23825
中國@@ 23822
演 23809
个人 23794
一条 23774
必须 23771
學習 23766
本身 23755
異@@ 23742
升@@ 23733
距离 23713
属下 23650
酒@@ 23649
圓@@ 23625
指定 23624
hans 23615
哈 23605
耶 23603
美国@@ 23592
英尺 23588
片@@ 23586
战役 23585
知名 23575
一段 23573
資 23566
趙 23558
于是 23540
征@@ 23537
崇@@ 23521
联 23507
东部 23489
獨@@ 23487
散@@ 23477
數據 23476
一颗 23466
先后 23462
F@@ 23456
1979 23452
坊 23450
专辑 23446
冷@@ 23444
虎 23440
以色列 23423
谢@@ 23421
快@@ 23414
提升 23410
精神 23397
容易 23392
司@@ 23391
遷 23385
约翰 23370
尼亚 23362
導@@ 23360
调查 23360
A@@ 23359
产品 23351
市场 23346
股 23330
氏@@ 23324
津@@ 23318
执行 23310
能够 23304
　 23296
朗@@ 23293
記者 23271
儿子 23270
卿 23261
證 23261
遠@@ 23254
7@@ 23248
激@@ 23245
統 23245
8@@ 23234
杀 23225
秒 23217
體長 23207
北京@@ 23200
互@@ 23190
巡@@ 23170
临@@ 23166
地铁 23146
空间 23144
部门 23125
國立 23099
电 23094
震@@ 23093
基礎 23092
哥@@ 23087
城鎮 23069
萨 23059
夜 23025
樹 23018
选 23016
运营 23010
魔@@ 23005
廣播 23003
傑 23001
父@@ 22995
齊@@ 22991
大使 22976
幾@@ 22974
字母 22968
特定 22961
學者 22959
理論 22958
砲 22950
国际@@ 22944
亮 22918
雲 22916
輕@@ 22906
輕 22891
早@@ 22874
假@@ 22872
入侵 22872
持 22867
生命 22863
劇@@ 22855
產品 22850
库 22848
迅速 22848
人口数量 22844
程@@ 22840
邨 22826
套 22821
应用 22797
现代 22779
俄@@ 22769
柳@@ 22760
配合 22756
血 22753
遭 22753
1978 22750
一度 22749
實際 22744
盤 22741
乐 22738
6@@ 22723
功@@ 22720
大西洋 22715
相似 22715
離開 22711
攻 22706
衣 22705
莱 22699
導演 22692
邮政编码 22691
皇后 22684
秀 22680
失 22676
航@@ 22676
应 22674
雜誌 22672
轮 22670
駐 22665
郑@@ 22659
放 22643
難 22633
報告 22627
中央@@ 22623
九 22602
还是 22592
帝@@ 22581
魚@@ 22581
5@@ 22572
聲@@ 22572
叫 22567
運動會 22567
乘@@ 22563
果@@ 22560
旅@@ 22553
批 22547
目標 22542
領 22540
选区 22530
产 22529
刀 22528
終@@ 22526
台湾 22504
O@@ 22492
森林 22477
攝 22472
等等 22465
種@@ 22461
部落 22447
寬 22446
奈@@ 22444
麦@@ 22443
運 22440
J@@ 22438
禮@@ 22436
H 22435
商業 22435
定义 22426
勞@@ 22406
轨道 22405
古代 22400
主義 22395
同樣 22389
感到 22369
按照 22366
禮 22360
留 22359
諸@@ 22357
銀@@ 22353
漢 22340
應用 22333
祖父 22328
小時 22305
死@@ 22280
连接 22280
旅客 22275
父母 22270
议会 22270
人们 22261
葛@@ 22260
生长 22256
壁 22254
備 22246
县@@ 22242
品牌 22232
韩@@ 22230
予 22227
交易 22212
儘 22203
編號 22200
岩@@ 22188
溪@@ 22187
远@@ 22181
费@@ 22161
鐵道 22148
電視劇 22135
席 22125
孔 22124
设置 22121
考 22120
举办 22100
第五 22099
歸@@ 22098
小说 22088
阳@@ 22086
房@@ 22083
計@@ 22079
调 22069
颱 22057
帮助 22037
病例 22035
衛 22026
人类 22024
超級 22018
树 22006
才能 21990
类型 21983
表明 21982
始 21970
橫@@ 21970
墓 21969
宽 21933
很大 21926
骨@@ 21918
语@@ 21907
參@@ 21899
如何 21895
1981 21889
英雄 21879
電視台 21873
营@@ 21872
附@@ 21854
巨大 21852
攻@@ 21849
晚上 21842
选@@ 21837
tw 21834
普遍 21831
經營 21828
旁 21821
母親 21821
一样 21815
兒子 21814
° 21812
本站 21800
亭 21795
活@@ 21792
傷 21789
展@@ 21789
仍@@ 21775
背@@ 21767
各种 21760
輪@@ 21734
記載 21728
民國 21727
白色 21724
N 21709
朝鲜 21705
授予 21702
豪@@ 21702
井@@ 21697
紀念 21687
离开 21686
意思 21678
底@@ 21673
谷@@ 21659
案件 21650
首府 21646
改變 21633
卫 21624
护@@ 21619
評@@ 21609
侯@@ 21608
訓練 21605
设备 21601
七 21579
amp 21562
疾病 21562
北方 21549
東部 21548
V@@ 21541
與@@ 21530
％ 21517
高速公路 21506
V 21504
事故 21501
严重 21496
简称 21494
董事 21490
電腦 21485
委員 21461
改造 21454
東京 21449
味 21437
飞机 21435
菲 21434
夫人 21433
禁@@ 21425
400 21424
罗马 21421
涅@@ 21395
亲@@ 21389
言@@ 21387
榮 21386
建議 21372
街@@ 21371
处理 21369
新闻 21365
舒@@ 21357
效果 21356
陸@@ 21342
階段 21339
异@@ 21328
雄@@ 21326
出席 21317
逐渐 21312
試@@ 21311
传 21305
银@@ 21301
導 21291
因素 21275
太阳 21275
我@@ 21259
絲 21257
报道 21238
冠@@ 21237
全面 21226
助@@ 21205
规划 21204
函数 21203
48 21200
佳@@ 21188
小型 21181
海外 21181
雨 21180
行為 21176
主角 21151
文物 21150
工人 21143
应@@ 21142
变 21138
hk 21125
物種 21124
國際@@ 21117
水平 21107
京都 21089
x 21079
i 21066
移@@ 21053
é 21048
侯 21046
来@@ 21045
供@@ 21044
順@@ 21041
缺乏 21030
反應 21026
离@@ 21026
價 21017
幼@@ 21008
36 21006
圍 21005
崔@@ 20996
建制 20971
這樣 20967
33 20954
容 20953
額 20949
雪 20947
环@@ 20934
飛機 20926
本土 20924
记载 20919
台灣@@ 20912
未來 20904
细胞 20900
到@@ 20898
坎@@ 20882
法案 20878
機會 20847
企業 20845
足@@ 20842
摩 20840
不足 20831
科學 20813
實 20812
很快 20796
更加 20796
O 20782
管理@@ 20779
規定 20769
菌 20756
办 20744
显示 20744
马来西亚 20744
结@@ 20743
9@@ 20737
維持 20734
线@@ 20732
整个 20718
充@@ 20710
祖 20707
被迫 20703
印 20697
状 20692
唱 20684
参@@ 20673
西亞 20668
降 20664
梁 20650
提到 20649
戈 20617
完整 20598
HD 20596
察@@ 20594
将军 20579
收錄 20579
素@@ 20573
它們 20568
为主 20563
傑@@ 20561
聽 20561
分鐘 20542
仲@@ 20535
玉 20519
需求 20495
高速 20482
爆发 20472
庙 20469
陰@@ 20466
儿 20455
尚 20450
／ 20442
遗址 20416
领域 20416
涉及 20413
能量 20411
律 20392
1946 20386
J 20377
Windows 20371
詩@@ 20371
稱為 20365
餘@@ 20354
34 20334
而成 20323
浦@@ 20317
戰役 20292
人工 20272
个@@ 20267
杰 20248
延伸 20239
遊@@ 20225
頂 20216
自治 20215
旅 20200
住宅 20189
分類 20181
沉@@ 20175
画 20175
宇宙 20172
改善 20170
陶@@ 20166
义@@ 20165
別@@ 20164
大戰 20153
走@@ 20153
倒 20149
西藏 20143
38 20141
友@@ 20141
干 20127
舉 20122
一切 20109
續 20104
夜@@ 20089
易 20081
爱 20076
条件 20071
工業 20070
统治 20063
1958 20051
句 20040
然后 20038
耳@@ 20027
江西 20025
風格 20016
1948 20010
帕 20006
信仰 19999
R@@ 19993
主義@@ 19971
細@@ 19951
风格 19934
葡萄牙 19932
品@@ 19924
国家@@ 19918
秋@@ 19918
战斗 19914
滿 19905
喀@@ 19900
措施 19880
問@@ 19872
敗 19872
退出 19868
并@@ 19867
学者 19866
滿@@ 19847
左 19840
操作 19840
报@@ 19836
隸屬 19835
爭議 19834
楚@@ 19827
独@@ 19827
轻@@ 19816
电视 19801
大學@@ 19800
晚@@ 19782
随@@ 19777
整個 19770
晋@@ 19766
天文 19759
治療 19740
劇情 19736
吕@@ 19735
必@@ 19733
簡@@ 19717
網路 19712
埃 19701
修改 19698
滑@@ 19696
职业 19695
留下 19693
广东 19689
博物 19683
学家 19679
典 19670
犯 19670
是@@ 19668
敬@@ 19664
警 19657
琳 19655
降低 19655
埃及 19651
大約 19642
频道 19633
槍@@ 19631
军区 19629
原名 19626
燕@@ 19622
陆@@ 19618
量@@ 19614
撤销 19611
活 19602
帶@@ 19591
拉斯 19582
假 19576
塊 19575
吸引 19574
用户 19567
照片 19562
明治 19559
組合 19559
急@@ 19550
尼亞 19544
只@@ 19539
连 19525
一帶 19524
大小 19523
正常 19492
一支 19483
加盟 19483
象@@ 19476
健@@ 19471
跑 19469
m 19467
1920 19465
過去 19465
國民 19462
八 19458
W@@ 19452
大约 19449
注意 19445
关 19433
糖 19420
保存 19419
約翰 19418
牧@@ 19414
时区 19408
肉 19408
协议 19402
涅 19402
一條 19400
待 19373
照@@ 19365
變化 19359
投资 19358
伊斯 19356
湖南 19352
站@@ 19350
連續 19349
童@@ 19348
表现 19346
舞 19337
1940 19331
虎@@ 19330
興建 19323
鳥 19318
敏 19315
批評 19292
倒@@ 19282
西北部 19282
de 19274
慶@@ 19250
不可 19242
真正 19239
第一个 19234
蛇 19230
舞台 19229
患者 19220
夏令时 19219
话 19213
云南 19201
奉@@ 19198
即使 19191
人民政府 19184
少年 19180
賓@@ 19180
1976 19178
朝鮮 19169
洋@@ 19166
魚綱 19166
亦@@ 19165
國民黨 19165
紀 19163
莎 19155
目标 19149
INSEE 19139
汉 19137
退 19124
飛 19122
展示 19112
比例 19112
存@@ 19105
相信 19102
呼@@ 19101
上午 19087
浮@@ 19083
車輛 19078
出演 19076
装@@ 19076
之子 19067
1975 19066
潮 19065
那些 19064
綠@@ 19047
制造 19046
基因 19040
墨西哥 19038
西南部 19034
輻鰭 19026
形象 19020
土耳其 19012
吃 19010
食物 18992
热 18987
山东 18986
事務 18977
转 18977
完@@ 18966
富 18966
确诊 18964
步@@ 18954
观@@ 18948
首先 18926
容@@ 18902
網@@ 18901
宜@@ 18897
記@@ 18894
冬季 18885
檢@@ 18882
合成 18878
求 18877
运 18876
任務 18874
1972 18867
狀況 18866
河畔 18865
庆@@ 18862
異 18862
戰鬥 18849
* 18833
破 18825
音樂@@ 18824
遺@@ 18821
連接 18820
工具 18815
匈牙利 18809
度@@ 18808
桂@@ 18807
铁 18802
感染 18800
官员 18793
指挥 18783
观 18771
六年 18766
聚@@ 18733
1930 18730
两 18729
幾乎 18718
扎 18710
修建 18703
平方米 18699
艇 18685
树@@ 18679
設置 18634
澳大利亚 18629
一步 18624
多个 18622
球季 18620
预@@ 18605
装 18604
智 18603
珠 18603
1956 18599
茶 18590
報導 18576
池 18569
私人 18560
賣 18554
记 18548
磁@@ 18545
久@@ 18542
計 18540
今日 18536
陳@@ 18531
榮@@ 18529
狀態 18520
领@@ 18518
堅@@ 18517
恢 18516
中国人民解放军 18506
内部 18505
拜@@ 18501
阶段 18501
丽@@ 18500
投降 18494
版@@ 18494
國王 18488
減少 18486
一所 18483
环 18478
兼任 18470
溫 18461
得知 18449
錢 18438
幕 18435
服@@ 18427
固定 18409
配音 18408
每个 18404
票房 18398
比如 18392
沿@@ 18390
37 18385
昭@@ 18385
刺 18383
借@@ 18380
繼@@ 18376
依 18369
二人 18366
資訊 18364
迷@@ 18352
寧 18343
1937 18341
伊朗 18341
相比 18328
球會 18325
亨利 18319
塘 18319
播 18315
母亲 18306
其後@@ 18302
經歷 18301
教區 18296
记录 18295
演员 18291
优@@ 18290
冊 18290
大陸 18289
3.@@ 18287
次年 18287
穿 18268
琴 18266
用作 18264
金牌 18255
红 18250
註 18234
斷 18229
橋@@ 18226
章@@ 18222
大致 18220
系@@ 18216
JR 18202
址 18191
原始 18186
祥 18184
重点 18181
雨@@ 18175
东南 18172
盟 18167
家人 18163
符合 18154
秘密 18152
中國大陸 18148
例子 18146
灵@@ 18142
芳 18136
1947 18128
解放 18124
乾隆 18119
宝 18116
路口 18104
上述 18103
國會 18096
民国 18088
玛@@ 18085
击 18079
含 18064
靈 18064
列入 18056
了解 18052
用途 18049
北京市 18048
现 18046
称@@ 18046
蓋 18045
觀@@ 18042
護 18025
1941 18023
黑色 18021
年初 18014
网站 18014
载 18014
通道 18006
声@@ 17996
齊 17984
方言 17982
約@@ 17981
隔 17967
需@@ 17961
拒絕 17955
逢 17954
細胞 17953
舰队 17953
南北 17950
莉@@ 17927
一份 17923
仔 17916
厚 17913
突然 17900
莫斯科 17899
熱 17896
深度 17895
幫助 17894
鲁 17884
廣場 17880
下降 17877
告 17874
尊@@ 17874
狄@@ 17860
舍 17858
重大 17850
茲@@ 17849
国会 17842
微 17841
捷 17840
殘@@ 17839
仔@@ 17823
藤@@ 17818
波兰 17817
袁@@ 17813
箱 17810
烈 17807
总理 17801
尖@@ 17800
英格蘭 17796
分為 17786
爆發 17783
止 17772
極 17759
茶@@ 17758
1952 17756
杂志 17754
候 17745
曾经 17744
津 17742
有所 17731
处@@ 17729
支流 17727
座@@ 17724
廷@@ 17717
術 17713
进攻 17707
蘇聯 17705
資@@ 17699
奥林匹克运动会 17696
1000 17695
山西 17680
1968 17673
喜 17670
55 17663
頻道 17660
点@@ 17654
日期 17653
新疆 17646
制定 17639
1973 17637
協@@ 17634
淡水 17634
醫@@ 17628
退休 17616
暗@@ 17612
類@@ 17607
64 17602
卒 17599
团@@ 17592
攝@@ 17590
自行 17588
養 17584
特征 17578
規@@ 17576
端@@ 17574
零@@ 17574
辖 17572
柏林 17567
确定 17567
芬 17567
彈@@ 17564
蛋白 17546
坦克 17541
维尔 17540
倫敦 17527
擔 17527
很@@ 17524
建設 17523
办事处 17515
42 17509
46 17507
硬@@ 17502
分钟 17498
权@@ 17498
獎@@ 17491
呂@@ 17480
亂 17472
占领 17471
條件 17470
疫情 17470
国务院 17468
源自 17462
汽車 17459
準備 17458
to 17456
大会 17453
竹 17453
娛樂 17450
教會 17449
藝@@ 17448
代码 17438
边@@ 17438
化石 17436
化合物 17435
董@@ 17435
三世 17433
丙@@ 17431
黃@@ 17424
几乎 17417
網站 17405
劳@@ 17399
妮 17398
这里 17393
赢得 17391
旧@@ 17369
飞@@ 17359
W 17353
文学 17353
状态 17352
统一 17351
嘉 17348
廷 17346
击@@ 17343
助 17343
模@@ 17340
策 17340
嚴@@ 17338
藩 17332
汽车 17331
X@@ 17328
不斷 17327
數量 17314
横@@ 17313
灰@@ 17311
印尼 17297
电子 17293
混合 17292
膜 17291
务 17283
分配 17282
区@@ 17281
覺 17273
妃 17264
1977 17261
节@@ 17261
公元 17257
貿易 17256
防 17255
每個 17248
跳@@ 17245
遜 17237
聯邦 17236
還是 17232
纪念 17213
補@@ 17213
眾@@ 17204
具@@ 17203
圆@@ 17200
准备 17199
外交 17191
城堡 17188
最近 17187
占@@ 17186
週@@ 17182
喬@@ 17176
弱 17162
行星 17161
課程 17160
现@@ 17159
导@@ 17146
醫療 17135
解散 17131
授@@ 17127
作战 17126
引入 17119
腳 17118
业务 17117
拿@@ 17116
盘 17105
攻击 17104
程式 17104
海洋 17103
而言 17102
建于 17098
旗@@ 17098
始@@ 17074
宏@@ 17073
側 17072
司令 17072
珠@@ 17072
英语 17068
獸 17065
宇 17061
基于 17058
的關 17055
卓@@ 17050
岭 17049
變成 17044
机关 17032
混@@ 17031
牙@@ 17028
家中 17025
徒 17021
七年 17020
舉@@ 17019
块 17012
慈@@ 17005
太子 16984
此次 16984
1955 16962
广泛 16960
佐 16950
以后 16944
1964 16940
實施 16934
立即 16928
粉 16927
顺@@ 16924
洋 16922
態 16892
1974 16890
上海市 16889
资源 16885
麗 16882
持续 16880
1966 16875
退役 16849
依然 16845
人們 16842
1938 16841
晚 16841
題 16836
开放 16834
坡 16828
一致 16820
运@@ 16817
發出 16815
舞@@ 16810
决赛 16807
女兒 16807
譯 16806
已有 16797
坦 16796
少女 16793
年前 16784
致 16784
带@@ 16783
渡 16783
胜 16781
导演 16777
商业 16776
做出 16775
平原 16765
不到 16764
允许 16763
標@@ 16755
須 16753
結婚 16740
半島 16734
冲@@ 16728
逮捕 16728
统计 16725
殖民地 16718
鼠 16714
丘@@ 16709
發售 16695
序 16691
按@@ 16690
緣 16682
肉@@ 16679
自由@@ 16678
固@@ 16675
儀 16669
经常 16669
金融 16666
小說 16662
藥 16658
数量 16656
600 16654
丰@@ 16644
同样 16627
阻@@ 16620
Z@@ 16619
役 16614
票@@ 16613
步兵 16606
觀眾 16605
戲@@ 16604
努力 16600
吸@@ 16591
此時 16591
都市 16589
食品 16573
拍摄 16561
論@@ 16560
千 16559
環 16556
39 16553
征 16548
相对 16544
劑 16539
服務@@ 16537
严@@ 16533
反對 16528
送@@ 16527
人次 16517
第四@@ 16516
农业 16500
一場 16495
遊 16492
廣告 16490
業務 16486
葬 16484
今天 16476
選手 16475
U@@ 16472
深圳 16463
評價 16459
詩 16456
撤@@ 16455
1939 16454
臨@@ 16448
民眾 16443
紐約 16423
隨後@@ 16423
1954 16416
成本 16416
1944 16406
亚洲 16398
持@@ 16396
議@@ 16391
不会 16384
管辖 16383
庄@@ 16365
75 16364
心理 16361
弟 16358
哲@@ 16357
公爵 16354
坪 16353
酶 16349
政治@@ 16343
群岛 16330
派遣 16328
比较 16326
施 16321
詞@@ 16320
软件 16314
將會 16310
1971 16297
奪 16290
天皇 16281
建议 16281
陆军 16272
下令 16265
备 16252
拒绝 16246
城镇 16242
录 16240
百 16236
朝廷 16234
犯罪 16231
資格 16231
奏 16230
創立 16216
房屋 16213
找 16211
鹿@@ 16209
调整 16203
鄉@@ 16195
球場 16192
多個 16182
本人 16172
钱 16169
65 16167
齒 16167
洗@@ 16165
現場 16164
办公室 16159
击败 16158
列出 16155
10@@ 16154
內部 16153
贏得 16149
自身 16148
山脈 16146
水库 16144
王國 16144
往往 16138
文學 16134
巡 16129
从而 16127
昂 16123
挪威 16120
撒@@ 16117
德语 16114
随 16111
顯@@ 16104
伯特 16085
露 16084
雙 16079
絕@@ 16076
領域 16072
1965 16067
走向 16066
便@@ 16063
刺史 16063
徵@@ 16062
結 16062
藥@@ 16061
蓋@@ 16060
簡介 16056
证明 16049
習性 16048
更新 16046
記錄 16042
軌道 16042
阴@@ 16041
额 16037
自動 16034
身體 16030
婚 16028
御@@ 16026
师@@ 16019
命@@ 16016
44 16015
圍@@ 16015
設備 16001
茂@@ 16000
评价 15998
宪法 15997
換@@ 15992
壓 15991
乘 15990
近年 15988
經常 15987
專業 15981
剂 15978
召开 15969
讀@@ 15963
奈 15961
劍 15960
歐 15960
避@@ 15953
800 15951
社區 15951
積@@ 15950
歸 15944
蕭@@ 15944
费 15943
消@@ 15941
试@@ 15940
斗 15939
济@@ 15938
惠 15937
采@@ 15937
b 15936
1969 15926
管理局 15925
设施 15925
鼓@@ 15925
某 15911
北美 15900
名為 15889
傷@@ 15883
苏 15876
原子 15874
乔@@ 15873
事業 15871
胜@@ 15871
国内 15862
毁 15856
炎 15840
限 15840
解釋 15833
迎@@ 15833
1959 15830
俊@@ 15827
团体 15827
由此 15822
150 15819
昂@@ 15815
生成 15812
阻止 15811
诗 15806
助理 15803
经历 15799
日军 15782
代理 15781
c 15776
药 15765
類似 15762
太陽 15759
荒@@ 15759
介@@ 15754
大會 15754
锡@@ 15752
丈夫 15743
简@@ 15740
衣@@ 15735
廣泛 15731
培@@ 15721
41 15714
認@@ 15710
某@@ 15708
诸@@ 15702
怀@@ 15698
標為 15689
阿拉伯 15687
顶 15685
伏@@ 15682
Y@@ 15676
廢@@ 15675
毒 15673
瑟@@ 15673
─ 15671
營運 15666
太空 15665
決@@ 15665
登上 15653
繁@@ 15646
出版社 15644
起源 15643
同盟 15641
绿@@ 15640
規劃 15635
光緒 15632
1942 15629
名为 15627
鏡 15625
電台 15622
态 15614
到达 15612
盖 15612
庭 15611
毒@@ 15606
获@@ 15602
利益 15600
写@@ 15599
算 15594
邊@@ 15594
视 15583
九年 15579
鄧@@ 15573
省委 15564
服役 15561
靠 15556
升格 15546
1957 15544
浙江省 15540
益 15534
轮@@ 15526
蘇 15525
刻 15523
桑 15522
1953 15521
兒童 15513
英國@@ 15513
火箭 15506
認 15503
現代 15501
举@@ 15496
破壞 15496
十 15495
改制 15494
刻@@ 15491
錫@@ 15491
1936 15486
參賽 15482
虫 15479
第六 15478
创@@ 15460
理事 15460
图书馆 15458
高級 15458
佳 15453
批@@ 15452
养@@ 15451
折@@ 15450
中期 15448
示 15446
陣 15442
敌 15439
價值 15437
終 15429
含@@ 15428
经济@@ 15428
1967 15424
5.@@ 15415
离 15415
昆@@ 15412
咸@@ 15409
翁 15405
进一步 15404
大利 15403
昭和 15388
甚@@ 15388
43 15363
鳳@@ 15361
弟弟 15358
遗@@ 15358
改变 15339
弹@@ 15336
託 15333
批评 15324
协@@ 15317
价 15310
派出 15307
給予 15306
一天 15304
化学 15302
監 15302
背 15297
玄@@ 15291
討論 15290
湘@@ 15288
君主 15284
大區 15273
冬@@ 15269
唐朝 15260
賽季 15260
未知 15258
大多数 15257
婚@@ 15238
站台 15236
上市 15230
投 15230
魔 15229
彼得 15222
47 15220
拆除 15216
主力 15212
賴@@ 15212
事情 15209
贸易 15208
礼@@ 15206
星系 15203
以南 15201
伦敦 15197
證@@ 15196
創 15190
播@@ 15183
湖北 15179
孫 15177
岸 15175
羽 15164
市政府 15163
王子 15163
棒球 15157
许@@ 15151
实施 15149
破坏 15147
江苏 15145
察 15140
王国 15138
改編 15129
中共中央 15111
後來 15107
药@@ 15106
打算 15095
1962 15093
駐@@ 15093
山峰 15092
承 15092
伊利 15085
琴@@ 15085
講@@ 15082
辦@@ 15070
1943 15069
養@@ 15067
薛@@ 15048
灵 15038
戴 15028
申請 15028
计算 15028
番 15027
樣 15026
奉 15014
52 15013
嶺 15012
宇@@ 15005
庆 15004
约@@ 15002
貨@@ 14998
业@@ 14997
万人 14995
來源 14990
釋 14988
阮@@ 14988
桃@@ 14987
t 14986
姚@@ 14986
指揮 14975
順 14972
争议 14966
1961 14963
1951 14962
原住民 14955
狗 14954
彩@@ 14942
从事 14940
君@@ 14933
以北 14930
餐 14923
岳@@ 14922
规模 14920
則是 14919
體系 14913
1963 14909
質@@ 14896
作戰 14895
标@@ 14894
靠近 14893
卫星 14884
种@@ 14876
寮 14874
齐 14866
有限 14864
外部 14861
末@@ 14859
视@@ 14858
减少 14857
Y 14852
盖@@ 14851
岡@@ 14850
广东省 14850
週 14850
人數 14844
成都 14843
懷@@ 14842
殺@@ 14839
泽@@ 14838
默 14838
火山 14837
公开 14836
公元前 14834
鄉試 14828
審@@ 14824
沿海 14815
原有 14814
p 14809
三十@@ 14808
遇到 14803
1935 14802
談 14801
積 14796
胜利 14796
貴 14794
啟@@ 14790
特性 14785
錦標賽 14784
此时 14783
单 14781
替 14779
遭@@ 14778
联系 14776
勤 14769
差@@ 14769
艦隊 14758
51 14756
開放 14755
满@@ 14753
山东省 14751
採@@ 14748
敏@@ 14748
墨@@ 14744
讚 14744
資源 14741
on 14733
移 14726
正面 14721
含有 14717
实际 14709
詹姆斯 14707
试图 14706
斗@@ 14702
試 14698
历任 14697
组@@ 14693
襲 14691
阿爾@@ 14688
脈 14683
婚姻 14680
急 14679
器@@ 14673
讷 14672
各自 14671
栽培 14663
計算 14661
概要 14660
監@@ 14658
残@@ 14649
成員@@ 14645
靜@@ 14643
突破 14642
舍@@ 14637
创建 14633
市长 14628
厘米 14627
協議 14625
世界@@ 14624
捕@@ 14623
组建 14615
纪@@ 14609
統治 14604
配 14603
分裂 14600
6.@@ 14598
收到 14598
市区 14589
弗 14589
產業 14589
司令部 14586
’ 14583
五月 14583
穆斯林 14582
务@@ 14579
浩@@ 14572
审@@ 14568
温 14567
长期 14565
四川省 14564
地名 14553
酸@@ 14551
南非 14545
任教 14543
斯特@@ 14542
飓风 14542
執@@ 14540
學位 14540
本線 14537
首播 14529
首席 14525
研@@ 14523
羽@@ 14515
加州 14511
候@@ 14507
另@@ 14504
參考 14497
雙方 14486
鄰 14484
羊@@ 14483
暴力 14478
淡@@ 14472
爆炸 14471
乃 14457
月球 14453
空军 14453
尊 14449
成绩 14449
得名 14444
買 14444
主持人 14439
养 14439
珍@@ 14435
大廈 14429
厄@@ 14427
嘉靖 14415
波斯 14413
尔斯 14410
全長 14404
刺@@ 14391
負@@ 14386
進攻 14386
頓@@ 14386
乾@@ 14383
断@@ 14377
領導 14371
扮演 14369
一款 14366
夢 14365
晉@@ 14363
主張 14360
憑 14360
測試 14360
輝 14357
接替 14355
・ 14352
起来 14343
憲@@ 14338
廣 14324
坐@@ 14322
解決 14318
減@@ 14317
耳 14315
奥地利 14314
乃@@ 14311
实 14311
裏 14310
持有 14308
介 14302
难 14293
部門 14288
插@@ 14284
漫@@ 14276
臨 14276
卡尔 14275
钱@@ 14274
不断 14273
柴@@ 14271
髮 14269
意外 14250
抽@@ 14241
財@@ 14235
雷斯 14232
欲 14229
爭 14224
II 14221
豪 14220
訪 14218
萧@@ 14214
屬於@@ 14213
两人 14212
4.@@ 14211
俱樂部 14208
啟用 14198
泽 14198
風暴 14197
肯 14195
反映 14190
康熙 14189
中山 14188
教育部 14177
見@@ 14168
沿 14160
十三 14154
农村 14151
凡 14147
傅@@ 14145
惡@@ 14144
牙 14142
斯基 14138
× 14135
市中心 14135
又称 14133
统@@ 14133
阿根廷 14131
席@@ 14130
质量 14129
揚 14128
首相 14128
商人 14124
典@@ 14123
20@@ 14104
賀@@ 14104
解决 14095
萊 14094
NBA 14082
济 14081
电视台 14080
理解 14078
空中 14075
同名 14072
解释 14070
细@@ 14064
投資 14059
免 14055
刑@@ 14054
然後@@ 14052
女儿 14049
衝突 14049
良好 14047
紀@@ 14045
注 14041
十六 14038
裂 14038
稿 14036
茨@@ 14033
圖書館 14025
河北 14022
双方 14017
壓@@ 14016
弘@@ 14016
發動 14012
承认 14011
图示 14006
害 13999
曰 13992
恆星 13987
满 13983
運作 13982
移動 13978
沖 13975
豆 13975
植@@ 13972
礼 13972
杭州 13968
戲 13967
孤@@ 13966
资格 13966
所在 13963
丘 13960
訊 13949
廣東 13945
八年 13944
性能 13942
产@@ 13941
童 13939
喜歡 13933
构成 13932
文明 13929
飾演 13926
民間 13917
准@@ 13910
锦标赛 13910
乳@@ 13909
出售 13908
实验 13905
耀@@ 13905
共产党 13903
評論 13901
气候 13900
~ 13898
指示 13897
河道 13895
保障 13884
團隊 13883
隱@@ 13875
互相 13871
視為 13871
肯@@ 13866
输入 13847
只要 13846
荷蘭 13844
高等 13844
职务 13841
幣 13840
本作 13838
训练 13838
幅 13832
露@@ 13831
实行 13829
奥运会 13827
人民@@ 13825
学会 13823
熙 13821
日治 13820
特徵 13818
指控 13816
d 13812
偶像 13810
显@@ 13809
第十@@ 13809
冠軍@@ 13797
測@@ 13796
氣象 13791
袭击 13785
几个 13784
雜@@ 13784
沒@@ 13783
瓜@@ 13780
备@@ 13779
卡拉 13776
莊@@ 13774
邦@@ 13774
幸@@ 13772
益@@ 13772
瑟 13764
俄 13758
分类 13753
桥@@ 13753
勢力 13752
在位 13742
消失 13740
永 13739
禁 13738
完工 13735
方便 13735
甫 13730
九龍 13724
物质 13722
社会主义 13721
未有 13712
略@@ 13711
為止 13710
汗 13709
蓝@@ 13705
浪@@ 13694
敵 13692
每天 13688
寄@@ 13672
总部 13671
接收 13666
固 13663
四十@@ 13650
崎@@ 13650
追 13649
孙 13646
余 13644
静@@ 13633
熊@@ 13630
執導 13624
此站 13618
重庆 13615
y 13614
分支 13614
应该 13608
斯坦 13608
压@@ 13607
上海@@ 13601
枝 13597
记@@ 13594
就@@ 13589
規模 13584
警告 13578
南極洲 13574
旅游 13569
架@@ 13569
自然@@ 13567
证 13563
農 13562
考慮 13555
54 13554
结合 13549
檔 13547
聽@@ 13543
芬@@ 13541
法庭 13534
最多 13533
速@@ 13532
条约 13523
狀@@ 13522
留在 13519
浦 13515
唱@@ 13509
珍 13508
请 13505
澳@@ 13504
球员 13504
泥@@ 13501
军事@@ 13498
爆@@ 13497
難@@ 13496
強烈 13493
汪@@ 13493
創辦 13491
燈 13491
防止 13489
育 13480
響 13473
穩定 13467
價@@ 13465
秋 13462
毀 13460
访问 13438
I@@ 13436
资@@ 13433
绝@@ 13432
1933 13430
敦@@ 13430
園@@ 13426
臨時 13424
治疗 13415
120 13413
专家 13409
杀@@ 13408
確定 13407
上升 13406
屋@@ 13401
拿下 13400
苦@@ 13392
扬 13391
伤 13387
1928 13386
小学 13382
歷@@ 13382
天文台 13380
每日 13378
01 13376
常見 13372
地點 13367
第五@@ 13366
潮@@ 13361
尼斯 13349
政权 13348
主题 13347
港口 13344
勇 13342
以此 13340
司法 13331
典型 13330
议员 13330
官員 13329
現象 13323
外交部 13320
巴赫 13319
河南省 13318
1% 13316
用来 13315
桃園 13312
教会 13309
石油 13308
發布 13306
诗@@ 13305
注@@ 13295
身上 13293
地利 13290
毛泽东 13290
斯克 13289
問 13284
所屬 13284
延 13279
别@@ 13278
粉@@ 13265
形目 13263
仙 13262
常用 13259
法官 13256
寶 13252
機關 13249
辰 13249
不得 13247
另一方面 13241
氧化 13241
截@@ 13239
奧林匹克 13238
画@@ 13236
濟 13232
迁 13232
質量 13226
事务 13225
接任 13222
产业 13216
辛 13216
飛行 13216
中华民国 13214
抵@@ 13208
當選 13202
判@@ 13200
育@@ 13200
中式 13196
爵 13195
樓@@ 13191
身分 13183
材 13178
任期 13177
增长 13172
行政院 13172
cn 13170
56 13167
盡 13165
悲@@ 13163
并于 13159
平面 13156
特有 13153
武汉 13152
周年 13149
實驗 13144
伍@@ 13143
召@@ 13141
被捕 13141
艾 13139
笑 13136
围@@ 13127
出来 13126
慶 13126
使用者 13125
一场 13123
网@@ 13119
烈@@ 13117
第七 13113
輯 13113
科夫 13109
想@@ 13105
支付 13102
構造 13102
絲@@ 13098
農業 13098
念 13097
錦@@ 13097
焦@@ 13091
玛 13091
體育 13091
1931 13082
這次 13082
弹 13080
矿@@ 13076
四个 13073
賢 13073
冲突 13069
手段 13066
美洲 13065
二十 13060
凌晨 13059
h 13058
編 13051
西安 13051
贾@@ 13047
藝 13046
1932 13045
同日 13045
並非 13043
选手 13042
權力 13039
地形 13036
第一位 13035
该省 13034
銷售 13032
那里 13025
息 13024
刑 13019
少數 13018
o 13012
運輸 13003
codice 13001
路段 12995
1927 12994
考虑 12990
設定 12990
整 12989
场@@ 12988
碼 12988
羅馬 12983
炮@@ 12982
魯 12982
萬人 12981
移动 12980
读 12971
收集 12969
控@@ 12968
大賽 12967
49 12962
社会@@ 12962
广西 12961
极 12961
證明 12961
记者 12961
麥 12957
生存 12948
难@@ 12947
鼻@@ 12944
53 12943
艦@@ 12942
欧元 12941
58 12937
潭 12937
所在地 12932
物質 12929
坚@@ 12927
性质 12921
補 12921
准 12919
领导人 12914
计@@ 12912
恒星 12910
成就 12910
應該 12906
海上 12905
泉@@ 12902
準 12902
不要 12901
承認 12901
惡 12896
藝人 12896
合約 12895
返@@ 12895
凤@@ 12893
政黨 12892
做@@ 12888
股@@ 12887
冰 12885
澤 12885
坐标 12880
运输 12878
通知 12877
放棄 12875
标 12874
首位 12874
负@@ 12870
明顯 12864
继@@ 12864
刊 12856
鬼 12854
宋 12853
失敗 12852
一項 12851
未来 12851
旅行 12850
掌 12847
升任 12843
控 12841
邁@@ 12834
集合 12834
旺@@ 12828
开通 12827
周邊 12824
偷@@ 12821
壘 12821
池@@ 12819
顺 12818
新闻@@ 12806
許多@@ 12805
广播 12800
訂 12800
名单 12792
小學 12790
议@@ 12789
游泳 12788
蟲 12787
並將 12786
is 12779
提及 12777
金属 12777
棒 12774
700 12769
意义 12767
柱@@ 12767
商品 12766
墓@@ 12764
早上 12763
何 12761
拍@@ 12759
獎項 12757
亿元 12756
硬 12752
邀 12752
潛@@ 12750
终@@ 12743
墙 12737
驻@@ 12734
糖@@ 12733
能源 12733
苑 12733
當年 12732
湯@@ 12729
后者 12723
有时 12722
两种 12721
絕 12719
寫@@ 12717
利亞 12715
必要 12711
四個 12709
律@@ 12707
歡迎 12705
淘汰 12705
殼 12703
连续 12703
席位 12696
民主@@ 12696
一级 12695
式@@ 12692
既 12681
大幅 12675
部長 12672
透@@ 12667
落成 12663
翻@@ 12655
演奏 12640
紅色 12635
稳定 12634
夢@@ 12632
乡@@ 12631
敵@@ 12629
軟體 12629
完 12628
登場 12628
下属 12623
纽约 12623
德拉 12616
鮮@@ 12616
院长 12615
盐@@ 12614
壽@@ 12607
数学 12604
1934 12599
定居 12591
儿童 12588
腹@@ 12582
增 12580
食用 12574
数字 12572
堂@@ 12561
商店 12557
江苏省 12557
苦 12555
题 12555
貝 12553
即位 12550
出道 12533
邓@@ 12526
安徽 12519
东临 12518
荷兰 12518
古老 12516
大夫 12513
贝 12512
餘 12512
大桥 12505
俊 12501
宣傳 12499
希臘 12499
狂@@ 12495
车辆 12494
十一 12489
工厂 12488
乱 12486
介紹 12484
廊 12484
脫@@ 12477
填@@ 12475
公斤 12470
抗日 12466
东西 12465
侍@@ 12461
跡 12454
视频 12451
另有 12447
模 12443
湖泊 12442
见@@ 12439
縮 12437
祠 12435
說法 12434
劇集 12430
论@@ 12429
享年 12426
輛 12426
贝尔 12424
72 12421
脂 12421
筆 12419
液 12418
纪 12418
体育 12417
杂@@ 12415
乐队 12400
粒子 12392
压 12391
发动 12387
賈@@ 12382
改建 12380
較@@ 12377
最低 12376
金屬 12366
似 12365
货@@ 12363
裝置 12357
来说 12356
术 12349
識 12348
观点 12345
兹@@ 12342
交通@@ 12340
十八 12340
引发 12340
赞@@ 12338
令人 12333
舞蹈 12333
彩 12332
57 12328
原先 12328
火星 12327
本片 12324
冯@@ 12322
捷@@ 12322
廣州 12318
儀式 12314
评论 12312
爵士 12311
直播 12309
起义 12308
校长 12304
搜@@ 12303
隔@@ 12297
撰 12290
當局 12283
碑 12282
大家 12279
发射 12272
理想 12272
負 12265
吸收 12264
恰@@ 12263
1@@ 12262
宣传 12262
综合 12262
疑 12258
这次 12256
逃@@ 12255
规则 12252
廖@@ 12251
一人 12249
创办 12249
教宗 12245
枪@@ 12245
峰@@ 12242
理由 12238
下列 12237
陕西 12237
翔 12236
汝@@ 12233
沟 12231
蹟 12229
丸 12227
鱼@@ 12225
輔@@ 12220
临时 12219
高雄市 12216
推動 12209
類型 12209
乔治 12207
飞 12202
侵@@ 12199
饰 12195
里斯 12191
祭@@ 12189
億@@ 12183
打破 12183
词@@ 12183
兄 12170
1929 12160
‘ 12155
针对 12154
東北 12149
出入口 12147
壓力 12145
抵抗 12145
十四 12133
现象 12133
不滿 12131
鍾 12127
偉@@ 12123
监@@ 12122
學名 12121
國內 12120
电视剧 12116
测@@ 12113
兒@@ 12106
12@@ 12101
归 12100
店@@ 12094
迈@@ 12092
配置 12089
奎@@ 12079
學會 12077
置@@ 12077
疑@@ 12075
举 12072
宅 12068
北海道 12065
千米 12065
CD 12055
姜@@ 12055
叛@@ 12052
貴@@ 12048
复 12046
發射 12041
明显 12040
ー 12039
汉族 12039
势 12037
號線 12034
e 12027
統計 12023
基督 12019
飞行 12015
扶@@ 12013
將其 12012
失败 12011
發起 12011
一百@@ 12009
麵 12007
慧@@ 12001
已知 12000
一项 11997
戶@@ 11997
蹤 11996
零 11996
英格兰 11995
通用 11990
妻 11989
人数 11988
援助 11985
網絡 11984
隐@@ 11980
玻璃 11979
契@@ 11972
游 11969
似乎 11967
祭 11967
兩年 11959
计 11958
螺 11950
g 11949
兩種 11947
2% 11941
時任 11935
毫@@ 11931
上下 11926
宫@@ 11923
权力 11921
界@@ 11916
表達 11915
杜 11905
市區 11904
k 11903
多數 11903
牆 11894
撤退 11893
形容 11891
族@@ 11891
斑 11885
子女 11884
宜 11884
常见 11880
督@@ 11879
决@@ 11874
1918 11869
型@@ 11869
青岛 11868
譜 11866
鲍@@ 11866
並以 11865
布朗 11864
丝 11862
陷入 11862
经营 11861
处于 11858
领 11852
比利 11850
1912 11846
徽 11846
惟@@ 11846
波蘭 11840
冰川 11838
乌克兰 11831
健 11828
彌@@ 11820
质@@ 11816
引种 11814
贵 11810
出來 11809
肥@@ 11803
板@@ 11800
观众 11798
在内 11792
示@@ 11789
列为 11784
洪 11784
讨论 11778
尼克 11777
天下 11775
疫苗 11775
13@@ 11771
屈@@ 11769
規則 11768
办理 11765
for 11760
免@@ 11760
辽@@ 11758
泰國 11752
液@@ 11752
並沒有 11751
最好 11751
风暴 11750
逃 11748
大街 11743
憲法 11739
当年 11738
幕@@ 11732
精 11726
23@@ 11725
76 11724
耐@@ 11723
展開 11722
練 11722
福建省 11721
围绕 11720
莎@@ 11720
大楼 11718
聯合國 11716
積為 11708
脱@@ 11708
暨 11706
汇@@ 11705
痛 11705
非法 11705
匯@@ 11704
85 11703
加利福尼 11703
結合 11700
关注 11699
斑@@ 11698
邵@@ 11695
十字 11693
地圖 11692
聚落 11692
上帝 11691
凡@@ 11691
成長 11685
の 11680
补@@ 11677
威脅 11676
中有 11673
安娜 11671
魔法 11669
历@@ 11667
翌年 11667
过去 11665
较@@ 11664
影像 11650
维奇 11647
女王 11646
剪@@ 11645
教师 11642
平衡 11640
尋@@ 11635
来到 11635
资料 11635
遭受 11633
61 11630
收購 11629
议 11629
62 11627
展开 11627
課 11623
望@@ 11622
床 11619
首歌 11617
通信 11616
透露 11614
历 11612
抵达 11609
瓜 11607
腔 11601
委@@ 11596
实际上 11593
测试 11590
此地 11589
聚 11589
此事 11587
众 11585
萬元 11585
第八 11583
紋 11576
文化@@ 11574
辆 11573
内陆 11571
66 11570
針 11568
國東 11566
税 11566
經驗 11566
16@@ 11563
一首 11563
住@@ 11562
起初 11562
掌@@ 11560
59 11556
率领 11556
德里 11553
購 11548
... 11541
贵@@ 11541
作曲 11540
商場 11540
浪 11540
第六@@ 11537
援 11536
鬼@@ 11536
碧@@ 11535
操@@ 11533
并入 11532
停靠 11531
換 11528
陸續 11528
一半 11526
冷 11526
決 11523
穿@@ 11520
泛@@ 11518
朴@@ 11515
鹿 11515
重量 11510
想要 11507
三人 11505
勇@@ 11502
估計 11483
抗 11479
历史@@ 11470
异 11470
没 11467
63 11465
r 11464
辭 11464
问 11454
戀 11448
hant 11442
双 11442
荣@@ 11438
以便 11433
河北省 11426
角度 11426
亡 11425
定期 11423
間@@ 11419
启@@ 11418
總理 11418
带来 11416
粗@@ 11412
危@@ 11407
蟹 11403
女孩 11399
→ 11397
引發 11397
內閣 11395
演化 11394
工作室 11392
95 11389
客运 11387
标志 11383
88 11382
薄@@ 11376
融合 11371
通往 11369
鋼@@ 11369
价值 11357
學系 11355
月底 11355
明星 11353
相反 11353
菌@@ 11352
準@@ 11347
以西 11344
很少 11342
段@@ 11341
瑪 11340
更是 11335
同性 11332
袭 11331
朱 11327
聚集 11323
计算机 11321
一枚 11318
联合会 11316
兆@@ 11315
策略 11311
功率 11310
译 11307
銀 11307
了@@ 11304
常常 11299
側@@ 11298
伊州 11297
十五 11297
遭遇 11290
黄 11286
院士 11281
多名 11280
姬 11279
编辑 11276
绝对 11272
旺 11271
信號 11270
衍生 11269
申 11268
四月 11264
奥运 11263
新建 11263
羊 11256
疏@@ 11251
引 11250
燕 11250
希腊 11247
开展 11247
1919 11245
尽@@ 11244
套@@ 11243
中共@@ 11241
尼亞@@ 11241
信号 11240
斯塔 11240
鸟 11240
TV 11234
港元 11232
總部 11232
胸@@ 11232
現代@@ 11227
呎 11225
贡献 11225
锦@@ 11223
编 11222
西亚 11220
台北市 11219
沿岸 11219
剛@@ 11217
权利 11213
州府 11212
市委 11211
途中 11207
項@@ 11205
達成 11204
1924 11199
時段 11194
旋@@ 11190
公眾 11189
連結 11188
俗 11180
判 11177
頂@@ 11175
热带 11174
说法 11174
敦 11171
遇 11171
佩 11169
籌@@ 11169
衝@@ 11168
介绍 11158
评@@ 11156
綱 11155
關注 11155
导 11152
密度 11151
訓 11150
念@@ 11147
滅 11147
租@@ 11145
鳥@@ 11145
娃 11144
情形 11142
效率 11140
展出 11135
高级 11135
讲@@ 11132
柴油机 11125
简单 11125
驚@@ 11122
青少年 11120
探 11119
案@@ 11112
组合 11111
凌@@ 11108
政党 11104
開設 11103
航班 11101
賞 11099
搬 11097
冬 11094
半岛 11092
南美洲 11092
逆@@ 11086
華人 11084
主流 11076
接觸 11076
撒 11072
有着 11064
花園 11063
天体 11059
大规模 11058
硫@@ 11058
參選 11056
先後@@ 11055
隨即 11054
对象 11053
幻@@ 11051
邀請 11051
丽 11049
歷 11038
肺炎 11031
序列 11027
赛事 11024
伏 11021
主打 11019
末期 11019
伊拉克 11016
繫 11010
奪得 11004
累@@ 11004
衛生 11003
检@@ 10999
凱 10996
新界 10992
执@@ 10989
算@@ 10989
燃料 10988
立陶宛 10987
参赛 10983
古典 10982
构@@ 10981
继承 10981
餐@@ 10978
安装 10974
道德 10971
玩@@ 10970
簡單 10967
腳@@ 10967
26@@ 10961
利亚 10961
整合 10960
代替 10959
島嶼 10958
政權 10958
賓 10958
淮@@ 10954
裡@@ 10950
校区 10949
兩者 10948
氣旋 10945
剛 10944
芳@@ 10943
霸 10936
自我 10933
數位 10932
Q@@ 10931
克拉 10927
第@@ 10927
Z 10926
霸@@ 10926
听@@ 10919
昇 10918
確@@ 10918
控股 10917
l 10915
差異 10915
肖@@ 10915
晓@@ 10913
陷 10911
圓 10909
巴基斯坦 10908
救援 10908
偶@@ 10907
分成 10904
年齡 10904
恐怖 10904
时任 10904
许 10901
人生 10900
月初 10899
奪@@ 10893
来源 10888
鹽 10888
熊 10884
14@@ 10878
罪@@ 10874
清代 10873
動力 10868
效 10867
盡@@ 10865
1925 10864
其實 10858
國民@@ 10857
迹 10855
楼@@ 10854
犹太人 10843
跨 10840
麟 10839
援@@ 10835
设@@ 10835
魚類 10835
陣@@ 10834
新型 10833
菲律賓 10832
小组 10831
伯爵 10830
妹 10828
答 10826
時代@@ 10823
棋 10823
玩 10821
動作 10820
確 10817
像是 10809
常委 10808
爭@@ 10807
埔@@ 10806
限@@ 10803
仪式 10802
備@@ 10801
68 10799
莊 10797
受傷 10796
条@@ 10796
條例 10794
1917 10793
单曲 10793
捐@@ 10785
運行 10780
勝利 10779
1926 10777
引用 10772
癌 10770
拍攝 10769
分校 10765
大学@@ 10765
Google 10755
换@@ 10752
純@@ 10752
原理 10750
折 10749
1914 10747
燃@@ 10746
劇場 10745
倉 10742
皇 10741
誤@@ 10741
DVD 10738
區的 10738
厚@@ 10737
卢瓦尔 10735
亞州 10733
尖 10733
柔@@ 10733
筆@@ 10733
km 10731
资 10731
屯 10730
去@@ 10727
翻译 10727
吨 10726
協 10723
新竹 10722
签署 10722
八月 10718
30@@ 10717
结婚 10717
超级 10716
电子@@ 10714
幾個 10712
公众 10711
7.@@ 10696
体系 10695
跳 10691
争@@ 10690
挑戰 10690
貌 10689
現今 10688
主管 10682
晉 10675
艺术@@ 10670
壇 10669
胡 10669
興趣 10668
收藏 10666
传播 10664
安裝 10660
航空@@ 10656
事實 10653
样 10650
轨 10650
支持者 10645
25@@ 10642
冀@@ 10640
格式 10638
澳大利 10631
拆@@ 10627
参数 10626
稅 10625
攻打 10624
涉@@ 10624
us 10621
創造 10621
如今 10621
宽@@ 10617
售@@ 10615
万美元 10614
实验室 10613
儒@@ 10609
貓 10601
北市 10600
民族@@ 10594
回應 10592
維爾 10580
请求 10580
坐 10578
競爭 10578
机会 10576
洲@@ 10575
寿@@ 10572
柏 10570
耗@@ 10570
濟@@ 10565
十二@@ 10564
f 10553
福州 10550
遷@@ 10543
安徽省 10540
天然 10538
考古 10536
評 10533
匹 10531
干部 10530
信徒 10528
十月 10525
醇 10522
卡斯 10517
曾祖 10517
蔣@@ 10517
近代 10506
别 10504
动画 10504
行政@@ 10503
大聯盟 10500
鄂@@ 10500
針對 10498
溫度 10495
邑 10491
27@@ 10490
农 10490
起來 10490
顶@@ 10490
南海 10489
党员 10485
恶@@ 10485
蒲@@ 10482
證據 10480
采取 10480
威胁 10479
依照 10478
菜@@ 10477
休 10476
哲学 10473
亨 10472
此前 10471
入境 10470
1922 10468
荣 10467
潜@@ 10461
教育@@ 10460
載@@ 10458
相互 10457
蛋 10455
愛爾蘭 10449
麻 10448
亨@@ 10437
罗斯 10435
充 10434
崖 10432
高原 10426
他人 10425
相当 10422
想法 10420
太平 10418
超越 10416
侧 10413
翠@@ 10412
联合国 10411
七月 10409
允許 10409
毅 10409
顏色 10406
依據 10404
众多 10403
聞 10402
適@@ 10402
纽@@ 10396
湖南省 10395
裂@@ 10395
专门 10393
廉@@ 10393
视为 10390
全长 10389
率@@ 10383
成分 10382
财@@ 10382
二月 10381
俠 10376
逐@@ 10370
特点 10368
拉克 10364
迪士尼 10364
意識 10363
縱@@ 10363
三角 10361
99 10360
卖 10360
赖@@ 10360
装置 10358
族群 10356
格勒 10353
隨 10353
至於 10351
放在 10350
編劇 10350
裁@@ 10343
壽 10341
拳 10341
突出 10339
67 10338
技术@@ 10338
死刑 10338
機器 10337
上方 10336
裕 10336
工业@@ 10330
工作@@ 10329
洞@@ 10329
狼 10327
均@@ 10322
e@@ 10321
研究院 10321
艺 10319
澳 10317
学科 10316
階@@ 10316
設計@@ 10313
馮@@ 10312
採取 10311
構 10311
部署 10309
尔德 10303
序@@ 10303
征服 10303
医学 10301
郵@@ 10301
停 10299
女主角 10298
並未 10294
什麼 10294
伸@@ 10292
剧@@ 10292
万元 10290
领袖 10288
沿革 10280
布魯@@ 10279
習 10272
拓@@ 10271
學術 10268
扩大 10262
全国政协 10261
范 10256
牌@@ 10253
主場 10246
德國@@ 10244
豆@@ 10243
柄 10240
函數 10237
划归 10233
海峡 10233
多种 10228
烟@@ 10228
那么 10225
技@@ 10221
放弃 10219
銷量 10214
岡 10213
一带 10212
寨 10206
原來 10205
範@@ 10205
创造 10204
高雄 10204
堪@@ 10202
德斯 10201
氣候 10201
星等 10199
犬 10199
碳 10199
克里@@ 10198
定理 10197
物品 10197
班次 10196
邱@@ 10196
紹@@ 10193
邊界 10193
閣 10193
尔特 10187
大眾 10185
宾@@ 10182
发起 10181
积@@ 10180
窗 10180
78 10178
阿富汗 10176
六月 10173
庭@@ 10170
掌握 10170
宿 10168
仪 10167
号@@ 10166
病逝 10165
藤 10164
抗議 10158
說@@ 10156
岩石 10155
红色 10144
平等 10143
付 10141
埔 10141
束 10135
聘 10135
芒 10135
十九 10134
缘 10133
危機 10132
屯@@ 10131
山地 10130
损失 10130
牵引 10126
上面 10125
成熟 10119
一共 10117
内战 10117
國家隊 10117
巷 10117
胶@@ 10117
地点 10116
教徒 10116
用以 10115
屏 10113
上陣 10110
成人 10105
藉 10101
祝@@ 10100
医@@ 10094
貼 10092
鷹 10092
自动 10090
原則 10088
阿里 10088
流量 10086
逊 10084
铜@@ 10084
平民 10083
涉嫌 10081
自此 10079
宿@@ 10076
表达 10076
戒@@ 10075
山区 10074
武装 10071
性質 10070
館@@ 10066
关闭 10064
71 10062
代表团 10061
盟@@ 10061
磨@@ 10061
替代 10060
250 10059
相對 10058
声称 10056
現任 10054
噴@@ 10050
首度 10050
航空公司 10047
传说 10042
出色 10040
币 10037
地上 10036
討@@ 10036
隨後 10031
吻 10027
镜 10027
襲擊 10023
轴 10023
岳 10019
泡 10019
祿 10019
控制@@ 10018
贵族 10016
殖民 10015
购买 10014
三月 10013
生產@@ 10013
謀 10009
議員@@ 10009
an 10005
敬 10005
民众 10002
紐@@ 10001
電車 9998
变成 9997
积 9997
兵团 9996
傳說 9994
陵@@ 9993
革@@ 9990
一套 9989
改编 9989
道光 9988
山西省 9980
销售 9980
清楚 9976
理念 9972
74 9971
怪 9969
转移 9968
阳市 9967
顧@@ 9963
1921 9962
公共@@ 9961
唯@@ 9958
喷@@ 9958
推行 9958
仿@@ 9957
鄰近 9957
银 9956
邀请 9954
MV 9948
哥哥 9948
芝加哥 9946
反而 9939
$ 9937
書院 9935
中間 9933
迷你 9933
一方 9932
袋 9929
婦 9928
珊 9928
幫 9927
8.@@ 9926
试验 9925
方程 9924
行走 9923
四大 9921
28@@ 9920
省政府 9917
鼓 9915
格拉 9914
英国@@ 9913
路易 9913
委任 9910
居民点 9910
大阪 9908
棘 9905
该市 9905
类@@ 9904
入选 9903
具体 9901
成年 9899
海軍@@ 9897
勃@@ 9895
詹@@ 9894
排行榜 9893
知識 9890
名單 9889
選出 9889
工廠 9886
泰勒 9884
排列 9883
旋 9883
将@@ 9882
聲音 9882
御史 9881
合同 9880
73 9879
可用 9876
願 9876
券 9873
年轻 9870
谢 9863
加以 9862
环形山 9862
载@@ 9861
教練 9859
钢@@ 9858
比較 9855
化學 9854
现任 9847
西班牙语 9847
晶@@ 9846
断 9843
抵達 9841
86 9837
人大代表 9833
榮譽 9832
醒 9832
周边 9830
减@@ 9824
阿拉 9824
77 9822
史密斯 9822
陨石坑 9822
電影@@ 9820
夫斯基 9819
示威 9819
装备 9819
震 9819
座位 9818
做法 9815
觀測 9812
下方 9811
隊伍 9809
校長 9804
妹妹 9801
废@@ 9801
典禮 9799
满足 9799
領袖 9798
丰 9796
长江 9793
塞尔 9792
1.5 9790
棋@@ 9788
通车 9788
81 9787
待@@ 9786
69 9785
任天堂 9784
俄国 9783
調整 9782
一間 9781
路上 9781
团队 9780
周围 9779
連載 9778
矛盾 9773
不得不 9768
值@@ 9768
強調 9768
碼頭 9765
杨 9764
进士 9763
濱@@ 9759
西接 9759
山市 9756
两次 9755
创立 9755
与@@ 9753
晚期 9751
尋找 9748
82 9747
認識 9746
神社 9743
遇@@ 9743
測量 9733
化学@@ 9731
構@@ 9730
測 9729
天使 9727
藥物 9725
ン 9722
編輯 9720
賢@@ 9720
螺@@ 9719
保守 9718
緊 9712
獨 9711
部位 9709
貢@@ 9702
3000 9700
奔@@ 9699
全世界 9696
電話 9696
韦 9695
蛛 9693
世界杯 9691
5% 9688
刀@@ 9687
訪問 9681
鯉 9680
1913 9678
1911 9677
囊 9676
手中 9676
軌 9674
策@@ 9671
謝 9671
水深 9669
蕨 9668
偉 9666
缺@@ 9665
婆 9663
拖@@ 9662
種族 9662
估计 9660
織 9660
1923 9659
管制 9659
作曲家 9658
斯坦@@ 9657
蓮@@ 9657
音乐@@ 9656
生態 9652
公交 9651
说@@ 9651
多利 9648
胎 9647
劍@@ 9646
污染 9644
傳播 9643
激烈 9642
淑@@ 9639
课程 9639
租界 9633
可是 9627
队伍 9627
劃 9624
知縣 9624
湖北省 9620
复杂 9618
当局 9615
正是 9612
对应 9611
暴 9610
规@@ 9609
政治家 9605
法國@@ 9605
顾@@ 9603
05 9601
欧 9601
荷 9597
寬@@ 9596
绍@@ 9594
逐步 9593
剩下 9592
積極 9592
嘗試 9589
斜@@ 9589
87 9588
尹@@ 9588
如同 9585
蘇格蘭 9585
徵 9584
獻@@ 9581
談@@ 9580
℃ 9576
戰後@@ 9576
入口 9573
整體 9568
錄@@ 9564
售 9562
經典 9562
行人 9560
领土 9558
胺 9557
事业 9556
十大 9556
观察 9553
荣誉 9552
巫@@ 9550
3% 9546
貫 9546
試圖 9545
勞 9542
意見 9541
路线 9539
連任 9539
全新 9537
捕 9536
导弹 9533
藉由 9533
恒@@ 9531
藍 9530
課@@ 9530
翻譯 9529
色彩 9529
重返 9527
主张 9525
天津市 9525
疏 9523
奴 9522
检测 9517
特拉 9510
廢除 9509
靜 9508
输@@ 9504
運用 9504
u 9499
新聞@@ 9499
泰国 9499
女人 9498
总督 9498
15@@ 9493
合法 9493
嚴 9492
四世 9491
方程式 9491
施工 9491
蔡 9491
軍團 9491
艺@@ 9489
α 9488
贡 9487
卢 9486
職務 9484
众@@ 9483
劫 9481
中间 9475
國際賽 9475
進步 9474
一生 9466
延長 9465
琉球 9464
黑人 9463
三名 9462
马尔@@ 9462
剑 9460
兵力 9458
大批 9457
发动机 9454
堆 9454
戀@@ 9449
资金 9441
彥 9439
推翻 9437
劳 9436
小組 9435
桃 9433
第一部 9433
北面 9431
醫學 9431
撞 9424
鮑@@ 9424
壁@@ 9419
座堂 9416
1900 9414
韋 9414
佔領 9413
并未 9411
什么 9408
芬兰 9408
琪 9405
东北部 9404
首任 9404
權利 9402
隶属于 9401
東西 9399
98 9395
舰@@ 9394
动力 9391
拔@@ 9389
修道院 9386
勃 9386
岸@@ 9386
覆盖 9385
秘书长 9382
原型 9381
长度 9378
醫生 9376
祥@@ 9374
旨在 9369
示威者 9368
符 9368
最小 9367
答@@ 9367
101 9361
賴 9359
之戰 9358
當中陸 9358
一篇 9356
广 9356
左翼 9353
楚 9353
努 9352
燈@@ 9351
沙田 9343
29@@ 9341
修正 9340
全国人民代表大会 9340
三次 9339
汤@@ 9338
並不@@ 9337
氢@@ 9335
江南 9333
氧 9331
彰化 9329
筒 9329
84 9328
卷@@ 9327
地中海 9327
人才 9326
人民币 9324
顧問 9324
樂隊 9321
研究生 9321
槽 9318
92 9317
實現 9316
沉 9313
尚书 9311
衛星 9311
紧@@ 9306
買@@ 9306
献@@ 9304
商业@@ 9303
境外 9303
男女 9303
笔 9301
9.@@ 9299
粒 9298
贈 9297
質疑 9296
虛@@ 9292
賣@@ 9291
中正 9290
探索 9289
交易所 9288
誠@@ 9285
貢獻 9285
第三次 9284
之上 9281
預計 9281
頁 9279
顯 9274
據@@ 9272
鬥 9269
海南 9268
96 9265
其餘 9265
宏 9265
紙 9264
慕尼黑 9262
24@@ 9258
翼@@ 9258
迷 9258
衡 9255
意见 9252
宾 9248
法令 9247
帶來 9242
吧 9241
同步 9239
错误 9235
腿 9234
英里 9234
賜 9234
后期 9230
錦 9220
星期 9219
接触 9217
曲目 9217
觀點 9212
錯誤 9212
斷@@ 9207
医生 9202
民進 9199
減 9199
首個 9198
新城 9197
曉@@ 9193
誤 9193
奏@@ 9189
北平 9188
捷克 9188
厝 9187
泥 9186
戰士 9182
视星等 9179
东方 9177
妮@@ 9177
郡@@ 9177
录@@ 9176
工程师 9174
旁@@ 9170
武裝 9168
事務@@ 9164
確認 9164
途 9164
才@@ 9163
亿 9162
铁路局 9160
保險 9155
觉 9150
鐘@@ 9149
贡@@ 9148
簽署 9144
79 9142
雜 9140
室@@ 9136
解除 9133
哲 9130
迫使 9130
納州 9129
DNA 9128
禄 9127
定義 9125
武帝 9123
丝@@ 9120
根本 9115
# 9110
读@@ 9110
階 9107
百姓 9106
洛夫 9105
公室 9103
柬埔寨 9103
上游 9100
光绪 9100
肯定 9100
德意志 9093
機械 9093
现场 9093
軸@@ 9091
问@@ 9088
顧 9085
大部份 9084
銷 9082
炸@@ 9079
百年 9079
多人 9077
比利时 9075
變得 9075
模特 9070
藩@@ 9063
教学 9062
薇 9060
拼@@ 9059
提交 9059
放送 9058
東方 9057
出场 9055
盐 9055
先前 9047
好友 9047
暖 9047
阁 9047
卜@@ 9046
綠色 9045
枪 9044
中原 9040
裝備 9040
顾问 9040
鬥@@ 9037
冲 9036
算法 9031
坝 9026
欣@@ 9025
下来 9022
十二年 9020
83 9019
齡 9017
盾 9016
漁@@ 9014
王位 9014
凝@@ 9012
布尔 9009
籃球 9008
杆 9005
侧@@ 9004
剧情 9000
秦 9000
容量 8997
生物@@ 8992
诚 8990
亿美元 8987
强度 8987
風險 8987
灌@@ 8986
民主党 8984
篮球 8981
院校 8979
本名 8977
请@@ 8976
听 8975
除此之外 8974
宪@@ 8961
‧ 8959
私立 8958
保安 8957
1909 8954
蓬@@ 8953
訪@@ 8951
量子 8951
陈 8950
mm 8947
關閉 8947
定位 8943
映 8943
教師 8942
洛杉磯 8941
鄰@@ 8940
高地 8940
110 8939
鐘 8939
九月 8938
加强 8938
欣 8938
知府 8938
08 8936
譽 8936
货运 8936
銅@@ 8935
压力 8933
神秘 8932
電視@@ 8929
叫做 8926
社交 8921
发出 8918
园@@ 8916
魏 8916
坛 8915
巢 8914
歌唱 8914
請@@ 8912
勤@@ 8911
z 8910
舟 8910
總督 8906
间@@ 8905
校舍 8904
金山 8904
仇 8902
華盛頓 8902
嗣 8901
崎 8901
儀@@ 8900
划@@ 8900
氧@@ 8895
亞歷 8891
續@@ 8891
拱@@ 8889
89 8887
蒙特 8883
裁判 8881
其余 8879
梯@@ 8879
结 8879
确认 8878
补 8875
边界 8873
洛克 8872
級@@ 8870
吹@@ 8861
違@@ 8860
町@@ 8858
接管 8856
大公 8853
农民 8848
市長 8848
耀 8847
属@@ 8844
加利 8843
丹尼 8842
加工 8840
株 8838
災 8837
玲 8837
公告 8836
布拉@@ 8833
國家@@ 8832
蔣 8830
两年 8826
一群 8824
纪录 8824
侍郎 8823
敗@@ 8819
對象 8816
祭祀 8815
古巴 8814
福利 8813
繼承 8813
德尔 8812
錢@@ 8812
仅@@ 8810
学术 8810
伤@@ 8809
印刷 8804
对此 8804
建築物 8803
奶@@ 8802
较大 8802
獵@@ 8800
一批 8797
繪 8796
這裡 8796
噶@@ 8795
太守 8793
南面 8792
生長 8791
每次 8788
子公司 8786
覆@@ 8782
十一年 8781
锡 8780
竣工 8777
布里@@ 8776
觸@@ 8776
论文 8775
矿 8773
以往 8770
寺@@ 8770
永久 8770
布里 8766
領土 8758
政治部 8754
阿拉@@ 8753
碳@@ 8749
战略 8748
恭@@ 8747
06 8746
喜欢 8744
患 8744
高架 8743
35@@ 8741
93 8738
蛇@@ 8735
钟@@ 8732
頻 8729
遊行 8722
筹@@ 8721
败 8720
劃@@ 8718
陀 8718
接著 8717
大字 8716
初年 8715
证据 8714
丰富 8712
滩 8709
豐 8704
日報 8702
妇女 8701
弦 8701
繼 8701
揭@@ 8699
祖先 8698
億元 8695
缅甸 8693
气旋 8692
宣言 8691
山脉 8689
晶 8687
標誌 8687
900 8686
移居 8686
91 8684
第九 8683
贵州 8680
煙@@ 8678
亲 8676
前者 8676
郊 8676
反抗 8673
恆@@ 8670
白人 8669
是因为 8667
译@@ 8667
即可 8666
召 8665
架構 8664
軌@@ 8663
带有 8662
入球 8658
自治区 8658
滑 8656
智慧 8655
小姐 8653
己@@ 8651
敌@@ 8651
启用 8650
解放军 8650
徑 8649
定性 8647
慢 8647
戲劇 8646
有意 8646
年任 8644
较为 8644
al 8641
謀@@ 8636
1916 8633
榜@@ 8633
怪@@ 8630
离子 8629
暫@@ 8628
對方 8626
合唱 8624
勝出 8623
最新 8623
山口 8621
顏@@ 8620
礦@@ 8619
推 8618
指令 8612
兩名 8607
擁@@ 8607
吐@@ 8603
第七@@ 8603
顆 8602
棟 8600
魂 8600
HR 8598
飯 8598
吾 8591
律師 8590
温度 8590
汀 8589
高校 8589
押 8587
利斯 8586
外界 8584
韓國@@ 8583
甜@@ 8580
貞@@ 8579
便是 8575
强烈 8575
医 8574
掩@@ 8574
册 8571
價格 8570
壳 8570
印地安 8569
期刊 8569
其父 8568
圈@@ 8567
穆罕默德 8563
罰 8563
斯托 8562
知县 8560
實行 8559
不仅 8556
还@@ 8555
芝 8554
說明 8554
智利 8551
講述 8551
国家队 8550
喬治 8549
确@@ 8549
豫@@ 8545
律师 8541
料@@ 8540
嘴 8539
遮@@ 8539
奖项 8538
老師 8538
十二月 8535
任職 8533
愿 8533
原来 8528
国立 8527
送到 8527
元朝 8526
释放 8526
阿爾 8524
消 8520
丹麦 8519
训 8518
蒋@@ 8517
學士 8515
演員@@ 8515
自殺 8515
球场 8514
迫@@ 8513
齿 8513
芒@@ 8512
1910 8511
多種 8509
谱 8508
女神 8506
蝶 8506
靖@@ 8504
09 8503
拉丁 8501
潜艇 8499
襄@@ 8499
登陸 8495
畔 8492
误@@ 8492
回答 8489
九龍@@ 8488
协助 8487
取自 8487
访 8486
堤 8485
年時 8484
得分 8481
迫 8481
机械 8479
变得 8476
彼此 8473
息@@ 8472
附 8471
东南部 8470
爱尔兰 8470
1915 8467
扩展 8467
旅遊 8462
拉姆 8460
价格 8459
十三年 8459
競@@ 8458
飛彈 8457
劇本 8456
可見 8453
似@@ 8451
議題 8450
困 8448
專門 8448
九州 8447
責任 8447
三位 8445
總站 8445
路易斯 8445
至此 8443
般 8442
官至 8440
挑@@ 8438
僧@@ 8436
日本@@ 8434
批判 8426
江戶 8426
东北@@ 8425
損失 8423
受伤 8422
牧 8422
有名 8418
陀@@ 8418
工程@@ 8416
寒@@ 8414
府@@ 8413
布拉 8411
肇@@ 8411
马克 8406
铺 8405
層@@ 8403
遣 8400
黑暗 8399
斗争 8396
吃@@ 8394
豹 8392
恐@@ 8391
97 8388
書籍 8388
紙@@ 8388
之名 8385
杀死 8385
電力 8385
祐 8383
事物 8382
刺激 8380
贺@@ 8378
弱@@ 8374
向量 8372
立場 8372
頗 8371
鹽@@ 8371
難以 8369
题@@ 8368
安全@@ 8366
指导 8366
獄 8366
明代 8364
兩次 8361
社群 8360
染@@ 8358
莱茵 8358
分解 8357
注入 8357
兩位 8353
站房 8352
番@@ 8348
加強 8345
灯 8344
该地 8342
叙利亚 8340
御 8340
势力 8338
專 8338
克里 8334
i@@ 8329
07 8328
多数 8328
迦@@ 8328
通車 8323
Q 8321
貝爾@@ 8321
福特 8319
辭@@ 8318
公式 8317
亞目 8316
滕@@ 8316
更改 8312
а 8310
啟 8304
爾頓 8301
维持 8300
貴族 8300
一旦 8297
茂 8294
寿 8292
新人 8291
昭 8289
頒獎 8289
十七 8287
態度 8284
煤@@ 8283
金融@@ 8281
突厥 8280
裕@@ 8280
搭 8278
地址 8277
各國 8274
萨尔 8274
戰車 8273
主辦 8272
姓氏 8272
畢@@ 8272
列為 8271
逾 8271
垂直 8267
尺寸 8267
04 8265
坂@@ 8265
盆地 8264
各类 8263
日报 8262
太后 8255
構成 8255
礁 8252
脚@@ 8251
教区 8245
運動@@ 8245
东京 8244
累计 8244
刊@@ 8243
龜 8243
编号 8242
芝@@ 8240
爾斯 8238
打擊 8236
南極條 8234
晉級 8233
更好 8233
收购 8232
内阁 8231
服务@@ 8229
楊 8229
滨@@ 8225
男孩 8222
公署 8219
閉@@ 8218
福音 8215
阻 8215
鲜@@ 8215
金曲 8210
波特 8209
电视@@ 8206
簽約 8202
猛@@ 8198
国民政府 8197
二次 8195
停留 8189
研 8189
本科 8186
本屆 8183
轉換 8183
建有 8180
所謂 8180
幕府 8179
用戶 8177
這項 8177
印象 8174
刚 8173
平行 8173
体育@@ 8172
大獎 8172
现有 8171
召開 8168
墨 8163
穿越 8163
米尔 8161
键 8160
迁@@ 8159
性格 8158
數字 8158
签订 8157
勋章 8156
幽@@ 8156
轴@@ 8156
伴@@ 8154
妙 8154
議席 8154
宣告 8153
搜索 8152
總會 8150
技巧 8147
提前 8137
赤經 8137
申请 8136
大帝 8134
多尔 8131
文化大革命 8130
研發 8130
这颗 8130
滨海 8125
等待 8124
旧址 8123
鰭 8122
种子 8121
正月 8120
證實 8119
高達 8118
作業 8116
布雷 8115
氧化@@ 8115
公转 8112
特里 8111
錯 8111
騎 8111
它@@ 8110
排名第 8109
詢 8106
僧 8105
盘@@ 8104
简介 8104
誠 8104
綜合 8103
大埔 8101
次日 8100
追求 8099
優勢 8098
免費 8095
最高法院 8093
世界各地 8092
40@@ 8091
讲述 8089
登陆 8088
密切 8086
投手 8085
防守 8084
當天 8083
造型 8082
天府 8080
平成 8080
月份 8077
漫画 8077
抢@@ 8076
通行 8075
細 8074
哲學 8072
揚@@ 8072
生产@@ 8071
整体 8070
海峽 8070
愛情 8069
不可@@ 8068
兽 8068
秘@@ 8068
函@@ 8067
聲明 8066
2.5 8062
員工 8062
燒@@ 8061
02 8060
该国 8060
懷 8058
储@@ 8055
選人 8055
r@@ 8052
科学@@ 8052
騎士 8052
困@@ 8051
塘@@ 8050
军官 8049
叔@@ 8049
大衛 8047
中华 8046
启动 8046
危机 8044
菲律宾 8044
药物 8043
这座 8042
革命@@ 8042
临 8035
宿舍 8034
SAO 8031
参谋长 8031
首批 8031
少将 8030
阳县 8029
意识 8027
機制 8027
威爾@@ 8026
丹麥 8025
姊妹 8024
基本上 8022
其子 8020
條約 8020
该党 8020
出自 8015
测量 8015
澎湖 8014
夏天 8013
身体 8013
垂@@ 8011
霞 8010
对手 8009
骑兵 8009
擬@@ 8008
高山 8007
文献 8006
鐸 8006
剧院 8002
就任 8002
惊@@ 8002
大选 8001
濃@@ 8001
伯格 7999
说明 7998
1901 7997
琉@@ 7997
5000 7995
下游 7992
病人 7992
颜色 7989
第八@@ 7988
乾 7986
加速 7986
幹 7986
王室 7986
三甲 7984
蒸@@ 7982
鼎@@ 7981
移交 7979
赤緯 7979
際 7977
彼@@ 7976
华人 7975
科学院 7974
话@@ 7973
真實 7972
隋@@ 7972
割@@ 7971
新北市 7969
元音 7968
因應 7967
乙 7966
党委 7966
冈@@ 7964
男人 7964
行政区 7962
运用 7960
醫 7960
坚持 7959
貫@@ 7957
境@@ 7954
产地 7949
卑@@ 7949
其后 7948
簽訂 7947
错 7947
两侧 7946
碩士 7945
陕西省 7942
桂 7941
灾 7940
雀 7938
壞 7933
付@@ 7932
基督徒 7931
珀 7928
截止 7927
褐色 7925
科学家 7923
UTC 7921
谋@@ 7921
酮 7921
买@@ 7920
呈@@ 7916
孝 7916
互联网 7913
弟子 7913
十一月 7912
纹 7912
洪水 7911
n@@ 7910
办@@ 7910
時會 7907
检查 7906
腐@@ 7905
优势 7904
改称 7904
有時 7904
笔@@ 7904
草案 7903
軟@@ 7903
巴斯 7901
一艘 7899
骑@@ 7894
衡@@ 7892
博士学位 7891
一詞 7889
出戰 7889
也@@ 7888
儲@@ 7885
1905 7884
瓶 7883
码 7883
豐富 7883
譯@@ 7882
同志 7881
抗日战争 7881
不但 7880
克林 7879
蘋果 7879
贤 7879
as 7878
騎@@ 7876
南斯拉夫 7875
乌 7874
茅@@ 7872
一架 7871
违@@ 7870
94 7869
像@@ 7868
這場 7868
加斯 7867
17@@ 7866
告訴 7864
真的 7864
称号 7864
鴻@@ 7864
一片 7860
碟 7859
猪笼草 7858
候选人 7855
咖啡 7855
誌 7855
声明 7852
村民 7848
注册 7848
原则 7847
東南 7844
趕@@ 7843
将领 7842
幫@@ 7842
缸 7841
霖 7837
人員@@ 7834
發表@@ 7831
长沙 7831
剑@@ 7830
负 7830
给予 7829
銀經 7829
鼓勵 7829
评为 7827
願@@ 7827
公寓 7826
叔 7826
添加 7825
清真寺 7825
翁@@ 7822
外国 7821
脫 7821
偶 7818
邮@@ 7818
整理 7816
娱乐 7812
遺址 7812
勳 7811
斌 7811
涵 7811
强调 7808
娘 7806
閃@@ 7806
00@@ 7801
丞 7800
坎 7800
銀緯 7800
考察 7799
冒@@ 7794
课 7790
盧 7788
名叫 7787
梯 7783
秩序 7779
安德@@ 7777
搬@@ 7777
怒 7775
欺@@ 7774
中華@@ 7773
種類 7773
B1900.0 7772
兴建 7772
积极 7772
面向 7772
谈判 7771
不僅 7770
平定 7768
谈 7767
晋 7763
乘坐 7760
弄 7760
拉特 7758
监 7758
软@@ 7755
種子 7754
雖@@ 7754
名人 7752
文学@@ 7752
陶 7752
成果 7750
瓦尔 7749
車隊 7749
行业 7748
請求 7747
YouTube 7746
粵語 7745
这部 7745
风险 7743
山東 7735
效@@ 7735
层@@ 7734
雌@@ 7732
广告 7730
x@@ 7728
一本 7727
中心@@ 7727
回合 7727
鬆 7724
者@@ 7719
3D 7718
嗣@@ 7718
秘书 7718
困難 7717
治所 7717
画家 7717
美軍@@ 7716
公開賽 7715
130 7713
状况 7713
希特勒 7712
知识 7712
轨道交通 7712
一面 7708
仰@@ 7708
然@@ 7706
頒 7704
亿@@ 7702
郎中 7702
． 7702
人權 7701
纵@@ 7701
一日 7697
信息@@ 7697
身亡 7697
當日 7695
陸軍@@ 7694
03 7693
出土 7693
吊@@ 7693
抗议 7692
酯 7692
花园 7690
深入 7686
医疗 7685
披@@ 7685
菊@@ 7683
33@@ 7682
庵 7682
梦@@ 7681
符号 7680
戰鬥機 7679
纪念@@ 7679
屆@@ 7677
愛的 7677
慈善 7677
國語 7676
稍@@ 7675
裸@@ 7675
格林 7674
弥@@ 7672
霍 7671
戰隊 7669
拳@@ 7669
钟 7669
促进 7665
大同 7661
幸 7658
John 7654
於@@ 7654
围 7652
升級 7651
人群 7650
吏部 7650
潘 7646
稅@@ 7644
購@@ 7644
任意 7642
罗伯特 7642
回国 7641
劫@@ 7640
徒@@ 7640
二级 7639
艺术家 7638
眼睛 7636
尊重 7634
窗@@ 7634
緊@@ 7634
建築@@ 7633
苏格兰 7633
透 7633
庚@@ 7632
生效 7632
卡特 7631
戒 7631
苗@@ 7630
軸 7630
伟 7628
一路 7623
护 7622
數學 7615
會員 7612
柳 7612
機車 7610
开工 7608
抚@@ 7606
東京@@ 7605
供奉 7604
职@@ 7604
优秀 7601
鱸 7600
地域 7599
院長 7597
感情 7596
审查 7594
捲 7594
國道 7593
v 7592
鑑 7589
降雨量 7588
相应 7587
適合 7585
主唱 7584
纯@@ 7584
旨 7583
租 7583
名义 7578
慈 7578
杭@@ 7576
藍色 7576
晚年 7574
殿@@ 7573
十五年 7572
河口 7568
西斯 7567
乎 7566
這也 7565
坑@@ 7564
棄 7564
太陽@@ 7563
舉人 7563
費用 7563
兄@@ 7562
會長 7562
节度使 7562
語言@@ 7561
电力机车 7555
危 7553
37@@ 7552
不满 7552
精神@@ 7552
报纸 7551
á 7550
選為 7549
维护 7547
適 7547
雖 7545
審 7543
明确 7542
com 7539
讲 7537
样@@ 7535
圆 7534
大規模 7533
悬@@ 7533
娶 7532
纲 7532
扬@@ 7530
政委 7528
第一名 7528
少量 7526
主体 7525
把@@ 7525
中以 7519
手法 7515
達到 7515
回家 7514
采访 7512
回歸 7511
綱@@ 7511
稻@@ 7509
縮@@ 7506
岗 7505
拔 7504
都督 7504
階級 7504
第二次世界大战 7502
可能性 7500
闭@@ 7500
殷@@ 7499
鐵路車 7499
教學 7497
北魏 7494
中将 7493
告诉 7492
い 7491
哪@@ 7491
看法 7489
交界 7488
分享 7488
穆 7487
娅 7484
拜占庭 7481
立法院 7481
当天 7479
跑道 7479
培 7473
刘 7472
旦 7472
科技@@ 7472
火车站 7466
冈 7463
岛@@ 7463
诗人 7463
雞 7463
攀@@ 7462
空气 7462
裴@@ 7462
监狱 7461
片段 7459
嘴@@ 7458
等级 7458
经验 7456
己 7455
神父 7455
考试 7455
濱 7453
基金会 7452
短期 7450
链 7450
二战 7448
檢查 7445
縣人 7443
藻 7443
改良 7442
盤@@ 7442
購買 7440
予以 7438
手机 7438
例@@ 7437
困难 7437
赏 7437
34@@ 7436
廢 7436
空氣 7435
負責@@ 7435
又@@ 7434
1903 7430
赞 7430
直径 7428
饰演 7427
据@@ 7426
开设 7425
亮相 7419
無線 7416
撞击 7415
十四年 7413
地鐵 7412
習@@ 7412
考入 7411
貝爾 7411
本次 7410
腦@@ 7410
一处 7403
特區 7402
任职 7401
纯 7400
脑@@ 7399
抵 7398
沙漠 7398
稍 7397
体育场 7396
卵@@ 7396
哀@@ 7396
抓@@ 7396
换乘 7395
得主 7392
振 7392
克里斯 7391
情感 7391
族人 7389
覺@@ 7386
手機 7385
無論 7385
赤 7383
奧運 7382
兩國 7380
其他人 7378
麦 7377
並與 7376
之战 7376
一級 7374
灯@@ 7373
符號 7373
亚历山大 7372
厂@@ 7371
暫 7371
忍 7368
一顆 7363
苏州 7363
關鍵 7363
id 7362
第一代 7362
考試 7362
懷疑 7361
臣@@ 7361
隶属 7361
这场 7358
抱 7357
耕@@ 7357
形態 7356
日語 7356
证@@ 7356
桓@@ 7355
购@@ 7355
海水 7352
OS 7351
尤 7345
企@@ 7344
升级 7342
大都 7342
恐龍 7342
瑜 7341
1500 7339
殺害 7336
下面 7335
华盛顿 7335
恨 7335
换 7334
靖 7334
須@@ 7334
廉 7332
保羅 7331
修复 7327
并非 7326
餐廳 7326
氯@@ 7325
串@@ 7324
增長 7324
蜂 7324
太郎 7321
燒 7320
狼@@ 7320
感染者 7317
稱作 7314
防空 7314
呈現 7313
薄 7312
跟@@ 7310
曹操 7308
180 7307
1908 7306
寒 7305
亡@@ 7304
附加 7303
国民 7301
五世 7300
崙 7299
内蒙古 7296
军团 7296
噸 7295
封面 7295
符@@ 7295
耶穌 7295
年期 7293
評估 7290
税@@ 7288
PlayStation 7287
美國人 7287
聘@@ 7280
伴 7278
克拉@@ 7278
闽@@ 7278
苯@@ 7277
各国 7276
檔案 7276
触@@ 7274
驅@@ 7272
往返 7269
虚@@ 7269
斯堡 7267
婆@@ 7266
巧@@ 7264
覆蓋 7263
中国科学院 7261
南昌 7260
鼠@@ 7259
太原 7258
定律 7258
為主 7258
所谓 7256
北宋 7254
腦 7253
级@@ 7249
包圍 7248
謂 7248
培养 7247
巡洋舰 7246
秉@@ 7246
依靠 7245
浩 7245
保证 7244
緩 7244
覆 7244
脉 7243
腺@@ 7243
壮@@ 7240
声音 7240
南下 7239
边境 7238
二十年 7237
舱 7237
總裁 7236
美國海 7235
尺 7231
丑 7230
危險 7229
帽 7228
о 7227
南宋 7225
法语 7224
這一@@ 7224
南端 7222
亲王 7221
城墙 7220
西侧 7220
世代 7219
一期 7217
at 7212
翰@@ 7212
五個 7211
些 7211
ISTAT 7207
戰場 7207
爆 7206
播映 7205
午 7201
懸@@ 7201
嫁 7200
河谷 7200
堅持 7199
忘@@ 7199
亩 7196
在于 7196
国民党 7191
佑 7190
甘 7188
議院 7188
里昂 7188
style 7186
周圍 7185
衝 7183
脚 7182
铁路@@ 7182
Category 7181
日常 7179
队长 7179
动车组 7178
影展 7177
拥@@ 7175
带领 7172
職位 7171
北美洲 7169
夷 7169
江西省 7169
神話 7169
舌@@ 7169
矩 7168
南路 7167
次列车 7167
享@@ 7166
作物 7164
解放@@ 7164
球迷 7162
驗 7158
云南省 7157
言論 7157
160 7156
蜜@@ 7156
憲 7154
车队 7154
刊登 7153
牽@@ 7153
中市 7152
繁殖 7150
責管 7150
香港@@ 7150
範 7149
主义者 7145
床@@ 7143
36@@ 7142
亦可 7140
猎@@ 7140
慕@@ 7138
融@@ 7135
暫時 7132
匹@@ 7127
草原 7127
遼@@ 7127
勘@@ 7126
通訊 7125
共计 7124
奴@@ 7123
机制 7122
戰略 7121
威尼斯 7119
冠状病毒 7117
尼西 7116
销 7116
告知 7115
庸 7115
酷 7115
静 7115
灭 7108
恩斯 7107
沈阳 7107
朝鲜@@ 7106
黛@@ 7106
抑制 7105
科學@@ 7105
爭取 7102
暗 7101
溶液 7101
少数 7099
校園 7098
元朗 7096
遵@@ 7094
一職 7092
南市 7092
推动 7092
之意 7089
灰 7087
合理 7086
划分 7083
鼎 7081
y@@ 7076
模仿 7076
邪 7074
民间 7073
繼承@@ 7072
風警報 7071
星期一 7070
春秋 7068
譚@@ 7068
续@@ 7067
射擊 7066
苏丹 7066
增強 7064
排除 7064
外國 7063
徽@@ 7062
稱呼 7061
浸@@ 7059
兵部 7058
电力 7056
忽@@ 7055
敵人 7053
运动会 7053
坡@@ 7052
1906 7051
格里 7051
一張 7049
逆 7049
傳媒 7048
电话 7048
NGC 7047
俄羅斯@@ 7047
1907 7046
防部 7046
寻找 7043
第一批 7043
自主 7043
align 7040
中华@@ 7040
儿@@ 7040
全国@@ 7039
因子 7039
泛 7039
衰@@ 7039
宁波 7038
道歉 7038
滕 7037
足夠 7037
沪 7034
棚 7033
喜劇 7031
堡@@ 7031
倉@@ 7029
洪武 7026
十六年 7025
賀 7024
信任 7023
赐 7021
全國@@ 7020
地質 7018
土壤 7017
山坡 7017
继 7013
甘肃 7010
工作者 7008
綠 7006
立委 7004
原定 7003
周期 7002
铜牌 7002
弘 7001
歐盟 7001
促使 7000
被告 7000
黨籍 6999
红军 6997
万历 6996
手槍 6994
款@@ 6991
熟@@ 6991
装饰 6990
痛@@ 6989
达成 6989
阶 6982
尝试 6978
飲@@ 6978
扇 6977
娛樂@@ 6976
堆@@ 6971
炎@@ 6971
人大 6970
保罗 6970
分离 6968
第十三届 6968
卫生 6965
責 6965
賊 6965
首歌曲 6965
社會@@ 6963
国军 6962
尽 6961
克莱@@ 6960
怕 6957
美军 6957
郎@@ 6957
男主角 6950
順利 6950
象征 6949
梦 6946
文獻 6944
观测 6944
清水 6943
烷 6943
之處 6940
师范大学 6939
图像 6932
大连 6932
操 6932
完美 6929
废除 6928
犯@@ 6928
额@@ 6927
山县 6923
放置 6923
技能 6922
辨@@ 6920
樑 6917
幢 6915
訊息 6915
刚@@ 6912
宣稱 6910
貓@@ 6910
1904 6909
闻 6908
厄尔 6906
兩岸 6905
天空 6903
坤 6902
主權 6901
蕾 6901
没@@ 6900
伍 6897
富士 6897
專家 6895
鸡@@ 6895
享有 6894
份@@ 6893
公共交通 6893
氣體 6893
雅典 6893
III 6892
祀 6891
中共中央@@ 6888
亲自 6888
前方 6887
宴 6887
差距 6884
经济学 6884
鋒 6884
colspan 6883
上任 6882
局长 6882
屏@@ 6882
校友 6880
渠 6880
打造 6879
搭配 6878
霧 6878
窄 6876
罕 6875
厄 6870
排行 6870
概述 6870
廿@@ 6868
鋼 6868
雕 6868
逸@@ 6867
陕@@ 6864
訴 6858
伊斯兰 6856
用來 6856
電視動畫 6855
一角 6853
前后 6853
替@@ 6852
d@@ 6848
货物 6848
冯 6847
辉 6847
测 6846
參加@@ 6845
沟@@ 6845
专区 6842
毕@@ 6842
最为 6841
簡歷 6840
斯顿 6839
經濟@@ 6839
姐妹 6837
自稱 6834
公立 6833
臂 6832
p@@ 6831
釋@@ 6831
初步 6828
競賽 6828
香港政府 6828
昆明 6825
吉林 6822
免费 6818
蟲@@ 6818
废 6816
玛丽 6816
焚@@ 6815
敌人 6813
框架 6812
排球 6809
场所 6805
推进 6805
坐落 6804
习@@ 6803
频率 6803
各个 6801
感覺 6801
艙 6801
熟 6797
电影@@ 6797
低氣壓 6796
史上 6796
代表性 6795
140 6794
尚書 6793
滑雪 6793
适@@ 6793
各级 6792
園區 6792
缩写 6790
立刻 6782
薪@@ 6781
科學家 6778
蛙 6778
蜀 6776
經紀 6775
採 6774
勒斯 6773
里克 6773
各個 6770
钦@@ 6770
新冠 6768
全年 6767
籤 6767
索尼 6767
呼 6766
屯門 6766
強度 6766
錫 6766
區劃 6763
对外 6763
故障 6763
资产 6763
火力 6761
促進 6760
龐@@ 6759
为此 6758
性別 6755
耶夫 6755
拉德 6749
缺 6749
航行 6749
終點 6747
伐 6746
受害者 6741
況 6739
年末 6738
幸福 6737
客车 6736
汽@@ 6735
新区 6734
本部 6725
櫻@@ 6723
邪@@ 6723
率領 6722
年龄 6721
王后 6721
效应 6719
總教區 6719
西亞@@ 6718
移至 6717
奖@@ 6716
千年 6715
夺得 6715
比亞 6715
消防 6712
枢纽 6710
催@@ 6709
绕 6709
区别 6705
绿色 6704
銘 6704
訂@@ 6702
教练 6699
肺@@ 6698
淺@@ 6697
贊@@ 6697
片中 6696
状@@ 6695
歌詞 6694
刑事 6693
並不 6691
貧@@ 6691
市立 6686
托马斯 6685
妻@@ 6684
职位 6684
火炮 6683
職棒 6683
攻入 6682
翌日 6679
\ 6675
威尔 6674
神經 6674
回应 6673
廠@@ 6671
唐代 6669
植 6669
融 6668
五十 6667
國的 6667
着@@ 6667
差异 6662
辅@@ 6662
血液 6659
BD 6658
單元 6658
摄@@ 6657
政协 6654
市政 6651
la 6650
涛 6649
仪@@ 6648
访@@ 6646
贫@@ 6646
卡爾 6643
否 6642
周恩来 6642
福德 6642
認定 6641
障礙 6641
道教 6640
户@@ 6638
流行@@ 6638
地图 6635
平安 6632
财政 6631
采 6630
城际 6628
意味着 6628
绥@@ 6628
疾 6623
樣@@ 6622
代表作 6621
蓮 6621
授權 6620
監督 6619
肩@@ 6618
冠狀 6616
发售 6614
提案 6614
潭@@ 6614
银牌 6614
緬甸 6613
口岸 6609
辽宁省 6609
喬 6608
牟@@ 6608
扩@@ 6606
维亚 6605
东侧 6604
卵 6603
苯 6600
裝甲 6599
45@@ 6597
埠 6597
沼@@ 6596
識@@ 6596
炳@@ 6595
違反 6595
統治@@ 6594
擴展 6593
爐 6593
货币 6592
战后 6591
突 6591
波音 6590
輸 6590
克羅@@ 6588
駕駛 6588
該片 6583
督府 6582
擔@@ 6579
輛@@ 6579
面对 6579
五个 6577
手術 6577
末年 6577
夷@@ 6576
登記 6576
创新 6574
总局 6574
支部 6574
消除 6574
80@@ 6573
交換 6573
爺 6571
首个 6571
開幕 6570
首張 6570
實驗室 6569
第二季 6565
軍官 6565
北起 6564
中世纪 6563
肝@@ 6563
寺院 6562
被判 6562
形态 6559
第九@@ 6558
减 6557
同治 6557
委會 6555
葬@@ 6555
指導 6554
侵犯 6553
辞职 6553
簽@@ 6552
闊 6551
現實 6548
? 6546
奎 6546
主義者 6544
国民@@ 6542
巨人 6542
司馬@@ 6541
網球 6541
腹 6541
6% 6539
统 6539
吴 6538
查理 6538
雕像 6538
科會試 6537
諮 6537
名義@@ 6536
胞@@ 6534
疆@@ 6533
烏 6531
那裡 6530
截 6526
荷蘭@@ 6525
当中 6524
既@@ 6523
似的 6522
50@@ 6521
記憶 6521
這段 6518
運輸@@ 6518
月刊 6517
Linux 6516
岗@@ 6515
綜藝 6515
两名 6514
区间 6513
劉 6510
授权 6510
傾向 6509
4% 6507
庶 6507
摧毁 6507
编剧 6507
兆 6506
越来越 6506
38@@ 6505
得出 6505
吉他 6504
虹@@ 6504
執 6502
犹太 6502
適用 6502
涂@@ 6501
高峰 6501
事宜 6499
認證 6498
漢字 6496
住房 6493
漫 6493
搶 6492
技 6491
运河 6491
大橋 6484
繁忙 6482
39@@ 6481
et 6480
悉 6480
安置 6478
允 6475
扭@@ 6475
防御 6474
頻@@ 6472
主義的 6470
仅仅 6470
十七年 6469
附属 6468
s@@ 6466
日舉行 6466
不利 6465
汉语 6465
洛斯 6464
叫@@ 6462
罩 6462
阵 6462
电台 6460
经典 6460
同月 6459
二戰 6458
尉 6457
徐 6457
一点 6455
英寸 6455
卡爾@@ 6446
閘@@ 6446
房子 6445
崇拜 6444
柯 6444
公社 6442
午@@ 6442
吹 6441
原料 6440
骑 6440
重視 6439
東區 6438
责任 6436
打击 6435
负责人 6434
凸@@ 6433
慘@@ 6433
礦 6433
駛@@ 6432
重要性 6425
岛屿 6424
鄭 6424
拯救 6423
隊長 6423
单独 6421
科幻 6420
一台 6418
文革 6418
面前 6418
鸿@@ 6418
武装@@ 6417
韩 6417
誰 6416
弟@@ 6415
会员 6414
魁 6414
扫@@ 6413
行政区域 6413
跨越 6410
铜 6410
恒 6409
洗 6408
360 6406
上校 6405
辽宁 6405
資金 6404
感受 6403
斐@@ 6402
ing 6401
函 6400
太祖 6399
翰林院 6399
共享 6398
鹰 6398
審查 6396
普及 6395
强大 6393
這部 6393
格斯 6392
貨 6392
台幣 6391
姬@@ 6390
短片 6390
改稱 6389
共产主义 6387
群众 6385
c@@ 6383
罗马尼亚 6383
or 6381
谈@@ 6381
施行 6379
海姆 6378
欧洲@@ 6376
增强 6374
拒 6374
写作 6373
溶@@ 6372
订@@ 6371
雕塑 6370
老人 6369
頻率 6369
三大 6368
假設 6368
硬币 6368
私 6368
哈拉 6367
终于 6367
底層 6365
保護@@ 6364
攻占 6363
um 6362
戏剧 6362
十八年 6361
贴 6361
配備 6361
民主派 6360
將軍@@ 6359
规 6359
夏威夷 6355
乌斯 6354
淺 6354
領地 6354
仿 6353
国家级 6353
蓄@@ 6353
background 6351
审 6349
人文 6348
獨特 6348
要塞 6348
一小 6344
途@@ 6343
须 6343
污@@ 6342
山大 6337
談判 6336
卜 6335
攝影 6334
β 6332
一代 6331
扣@@ 6331
日子 6331
症狀 6331
城县 6330
戌 6330
印度尼西亚 6329
吉林省 6329
监督 6328
修訂 6327
原址 6327
週期 6324
电脑 6323
栋 6322
鳳 6322
大卫 6321
影響力 6321
货 6321
若干 6319
扩建 6318
收費 6317
蓝色 6314
蜂@@ 6314
另一@@ 6313
普通@@ 6313
来源于 6311
義的 6311
全市 6309
呼籲 6309
沿用 6309
軒 6309
逻辑 6308
次子 6307
站名 6307
− 6306
格尔 6306
醫師 6306
愈@@ 6305
禧 6305
纵队 6303
姆斯 6300
燃 6300
勋 6299
第二代 6299
公車 6296
大厦 6296
定義@@ 6296
認同 6296
改进 6295
附屬 6295
癌症 6294
繞 6292
德勒 6290
龄 6287
擁 6286
汶@@ 6286
不佳 6285
境內 6285
核酸 6285
四名 6284
材@@ 6284
冒險 6283
格雷 6282
医学院 6281
台南 6278
布政使 6277
紀念@@ 6277
边缘 6277
險@@ 6277
桌@@ 6274
参议院 6272
唇 6272
局長 6272
贯 6272
俗@@ 6271
и 6270
人均 6270
建筑面积 6270
穴 6270
仓 6268
掠 6268
罪名 6268
災@@ 6267
奧運會 6266
煤 6266
对抗 6265
彬 6265
戏@@ 6265
斯塔@@ 6264
盜@@ 6264
充分 6263
中旬 6260
法定 6260
锋 6260
三角形 6259
夾@@ 6259
朵 6258
畫面 6258
皆@@ 6258
不知 6257
天體 6256
彙 6256
卖@@ 6254
率先 6254
钢 6253
一道 6251
帖 6251
签@@ 6251
口徑 6250
员@@ 6250
重修 6250
豬 6249
成化 6248
射击 6246
农场 6243
尋求 6243
北路 6242
時報 6242
觀光 6242
劳动@@ 6241
三十 6240
试 6240
山區 6237
烧@@ 6234
堅 6233
更为 6233
逼 6233
儒 6232
卫视 6232
售票 6232
勾@@ 6230
箭 6229
镜头 6227
枝@@ 6226
並由 6222
缩@@ 6222
爱德华 6221
的话 6221
聯合@@ 6221
350 6219
动作 6219
迫害 6219
斥 6218
欲@@ 6217
紐 6217
宋朝 6216
地帶 6215
青春 6214
死去 6213
现存 6213
講 6212
西路 6210
蘇聯@@ 6209
利物浦 6208
设在 6208
国防@@ 6206
接到 6206
淡 6206
關於 6202
出兵 6201
報道 6200
輝@@ 6200
濕@@ 6196
碑@@ 6196
尿@@ 6195
秘魯 6194
克萊@@ 6193
聖經 6193
稀@@ 6192
芙@@ 6192
陨坑 6191
8% 6189
借 6186
尼古拉 6186
真实 6186
约瑟夫 6186
伪@@ 6184
狱 6183
埃尔@@ 6182
悠久 6182
全美 6181
瑞克 6181
讯 6180
宅@@ 6179
掛@@ 6179
死者 6179
PC 6177
决议 6176
潤 6175
民籍 6174
相較 6174
黏@@ 6174
10.@@ 6173
数据@@ 6173
萨克 6172
力学 6171
第十 6171
龍科 6171
完善 6170
生前 6168
馆@@ 6168
出发 6166
東北@@ 6166
插 6165
释 6165
提议 6164
缓@@ 6162
不如 6161
手下 6161
态度 6160
決議 6158
斯拉夫 6157
束@@ 6156
顿@@ 6155
齒@@ 6152
隔离 6149
出賽 6146
广州市 6146
循@@ 6143
桥梁 6141
给出 6141
品質 6140
机械@@ 6140
书院 6139
收录 6139
限定 6139
維護 6138
60@@ 6137
center 6136
充滿 6135
变种 6135
垣 6134
推荐 6134
採訪 6133
名古屋 6130
戏 6130
董事长 6130
怡 6129
煙 6129
狭@@ 6129
滿足 6128
浮 6125
郑州 6125
鍵 6125
交换 6124
洛杉矶 6124
粤@@ 6123
掠@@ 6122
发明 6121
杀害 6121
損 6120
黄河 6120
大队 6119
客家 6118
纸 6118
信奉 6116
景区 6116
梨 6116
拟@@ 6115
联合@@ 6115
貨幣 6115
介入 6114
島式 6114
傷害 6113
碼@@ 6113
觀察 6113
使者 6112
吳 6112
洛特 6112
盜 6111
中央军委 6109
彗星 6109
右翼 6107
渔@@ 6106
薩爾@@ 6106
寄生 6105
概@@ 6105
趁@@ 6104
蜜 6103
協定 6102
CO@@ 6100
惑 6098
7% 6097
预计 6092
竞争 6091
股票 6091
腺 6091
仕@@ 6089
轉移 6087
交通部 6086
涌 6086
创始人 6083
一件 6082
生意 6082
运转 6082
1898 6081
马丁 6081
實力 6080
徹 6080
縱 6079
创 6078
期望 6078
藝術@@ 6078
惟 6076
戰術 6076
輸出 6075
夫卡 6074
独特 6074
磅 6074
下旬 6073
呼吸 6072
恶 6071
灰色 6071
黄色 6070
畫家 6069
体现 6067
北侧 6067
大師 6066
氢 6066
輸@@ 6064
早已 6061
叉 6060
後期 6056
占据 6054
黑龙江省 6054
漂@@ 6053
現為 6053
轄@@ 6053
並獲 6052
女歌手 6052
帆 6052
意義 6052
正確 6052
輔 6050
重點 6047
鎊 6047
镇压 6046
晚間 6044
資產 6044
越南@@ 6042
穗 6041
匪 6040
祖籍 6040
划 6039
圆形 6038
獻 6037
color 6036
盒 6036
认识 6036
城市@@ 6035
標本 6035
胎@@ 6035
员工 6033
猫 6033
促@@ 6032
犬@@ 6032
与其 6031
勁 6031
邻@@ 6031
105 6030
壯@@ 6030
規 6030
集团军 6030
甲基 6029
黄金 6028
团长 6027
改由 6027
治理 6027
案例 6026
葡萄牙语 6026
领地 6024
混凝土 6023
游客 6022
慧 6019
是从 6019
邀@@ 6018
独立@@ 6015
阔 6015
ST@@ 6014
从此 6013
委会 6013
慎 6013
粘@@ 6013
推广 6012
理学 6011
繪@@ 6011
避 6010
資助 6008
喪@@ 6005
建筑物 6005
域名 6004
前期 6003
剧本 6002
天氣 5999
承担 5999
1902 5998
駕駛@@ 5997
逃亡 5996
递@@ 5996
休息 5995
忘 5995
神话 5993
全程 5992
該校 5992
首部 5992
檢測 5991
局部 5990
貨物 5990
TO@@ 5989
克拉克 5988
新教 5988
为止 5983
里亚 5982
交付 5980
啦 5979
邊境 5979
多位 5977
樂器 5977
獲得@@ 5977
墙@@ 5975
改任 5974
鯉@@ 5974
卫生@@ 5972
开发区 5971
认定 5971
篇@@ 5969
姐姐 5968
皇室 5966
研发 5966
迎 5966
雍正 5966
鞋 5966
甘肃省 5965
築 5965
滨 5963
肌肉 5962
人民法院 5961
武力 5957
觉得 5957
隙 5957
欽@@ 5956
长子 5954
北京大学 5953
变量 5953
改用 5952
马恩省 5952
严格 5951
寇 5951
平方 5951
明確 5950
a@@ 5948
俘 5947
身高 5947
業者 5946
緣@@ 5946
外觀 5944
豬@@ 5944
颶風 5944
导师 5943
前任 5941
亮@@ 5940
發明 5940
訊號 5940
随即 5937
无症状 5936
最高@@ 5935
甸 5935
小孩 5934
赶@@ 5934
劳动 5932
形狀 5932
影响力 5932
教士 5931
割 5930
宰相 5929
赖 5929
浅@@ 5926
卓 5924
妥@@ 5924
送往 5924
惨@@ 5922
最為 5922
ia 5921
疾@@ 5912
輸入 5912
积分 5908
無人 5907
陆续 5907
凯 5905
危险 5905
洁 5905
姐 5904
觸 5900
不幸 5899
紹 5898
雍@@ 5897
形状 5895
徐州 5895
致力 5895
t@@ 5894
依据 5894
出發 5894
舌 5894
text 5891
出局 5891
文本 5891
梨@@ 5890
转向 5889
只好 5885
哈利 5885
此後@@ 5885
安妮 5883
干涉 5882
擴張 5880
斯科 5880
標賽 5878
降落 5878
孕@@ 5877
昆 5877
赵 5873
一词 5869
止@@ 5869
術@@ 5867
越來 5867
法人 5866
這一 5865
研制 5864
藝術家 5862
公投 5861
扩张 5861
推薦 5861
故此 5861
並有 5860
覽 5860
第一届 5859
矩阵 5858
銜 5858
害@@ 5857
治安 5852
防禦 5852
页 5852
企圖 5851
射入 5851
弓@@ 5851
科進士 5851
批复 5849
遺產 5849
1895 5848
不敢 5848
奥尔@@ 5848
歡 5848
IN@@ 5847
享受 5847
十五@@ 5847
器官 5847
帶領 5847
擬 5846
累積 5846
鶴@@ 5846
一大 5844
by 5843
居委会 5842
水中 5839
巴拉 5838
贊助 5838
乘車 5837
桐@@ 5837
梵@@ 5837
确保 5837
罪行 5837
佛羅里 5836
地处 5835
暂@@ 5835
出战 5834
本來 5833
印度洋 5830
印度@@ 5829
两位 5828
败@@ 5828
写道 5827
对方 5827
任內 5826
网络@@ 5826
足以 5826
忌 5825
總監 5824
足够 5824
布萊@@ 5823
緊急 5823
勇士 5822
含量 5822
將領 5822
各有 5821
好評 5820
相当于 5820
遵守 5819
学堂 5818
汁 5818
樂園 5817
水上 5817
西站 5817
數個 5816
達州 5816
戰時 5815
爾特 5814
熔@@ 5813
蝶@@ 5813
西元 5813
太阳@@ 5811
低于 5809
显著 5809
级别 5809
預測 5808
书籍 5807
利亞@@ 5807
契 5807
í 5806
允@@ 5805
玄 5804
竞选 5803
收視 5802
四人 5801
65@@ 5800
耶路撒冷 5800
22@@ 5798
措 5798
首映 5798
角逐 5797
讷@@ 5797
墟 5796
統一 5796
er 5795
險 5795
吞@@ 5793
疆 5793
真相 5793
颁发 5793
摩尔 5792
拘捕 5791
决 5788
活性 5788
南站 5787
半部 5785
挑战 5785
體育館 5784
鏡@@ 5783
判決 5782
第十一届 5782
第一季 5780
東亞 5779
猶太人 5777
贝格 5777
這類 5777
三種 5775
同學 5775
摧毀 5775
接下 5773
人稱 5772
接下来 5772
薪 5772
姓名 5771
殉@@ 5771
思考 5769
衣服 5769
相近 5768
鳴@@ 5768
黎明 5768
周刊 5767
敘述 5767
基本@@ 5766
流通 5766
屠@@ 5764
扣 5764
水面 5764
同期 5763
葛 5762
走廊 5762
南侧 5761
吾@@ 5761
生日 5758
州长 5757
该站 5757
军衔 5755
環球 5754
腰 5751
偽@@ 5749
免疫 5749
辖区 5749
引進 5747
沃尔@@ 5746
兔 5743
逸 5742
障 5740
交往 5739
砂@@ 5737
重力 5737
用地 5736
蒙德 5735
鋪 5735
圣母 5734
面對 5734
予@@ 5733
偏 5733
太平@@ 5732
流亡 5732
富有 5731
穿著 5730
試驗 5729
循环 5727
甚 5727
等級 5727
之際 5726
仲 5724
滋@@ 5724
撞@@ 5722
伐@@ 5721
警員 5721
审判 5720
研究员 5720
ü 5718
潔 5718
人力 5717
分歧 5717
超人 5717
将会 5716
斯大林 5716
添@@ 5716
不用 5715
南至 5711
地质 5711
喇嘛 5710
押@@ 5710
開放@@ 5709
原作 5708
坚 5708
爾德 5708
办公厅 5706
直徑 5706
物體 5705
盲@@ 5705
SO@@ 5704
自杀 5703
j 5701
公平 5699
巴克 5698
鯨 5698
標題 5697
相连 5696
視覺 5696
认@@ 5696
野生 5695
發動機 5694
鸡 5694
叙@@ 5693
规范 5693
日益 5692
骸 5691
膠@@ 5690
职业生涯 5686
軍人 5686
多斯 5685
构造 5685
本魚 5684
職員 5683
俗稱 5681
鱗@@ 5681
伽 5680
情報 5679
马拉@@ 5679
帳@@ 5678
碎 5678
证实 5678
宣称 5677
監獄 5677
凭借 5676
执导 5676
癸@@ 5676
延續 5675
指數 5675
法律@@ 5675
One 5670
影集 5670
禾 5668
猜@@ 5666
真菌 5666
群体 5666
夫斯 5665
地表 5664
し 5663
泉州 5662
瓦拉 5662
海底 5661
訓@@ 5661
苗 5660
卡區 5659
Love 5658
責@@ 5658
塗@@ 5657
鏈 5657
岛上 5655
青山 5655
傅 5654
味@@ 5653
熟悉 5653
那麼 5653
洛阳 5652
培训 5651
相邻 5651
讨 5649
共產黨 5647
o@@ 5646
闻@@ 5645
心率 5644
專用 5643
财产 5641
神经@@ 5640
營業 5639
直隶 5639
必 5638
火車 5638
辐射 5638
AT@@ 5636
历史学家 5635
直通 5635
延安 5633
星期六 5632
第二天 5632
盗@@ 5631
凹@@ 5630
分離 5630
彻底 5629
菲利普 5629
天津@@ 5628
雞@@ 5628
主教练 5627
刊物 5627
寻@@ 5627
慮 5626
建筑师 5624
納入 5624
前夕 5623
怀 5623
欧盟 5622
中午 5621
流浪 5621
之地 5620
保育 5619
分局 5619
建筑@@ 5619
足協 5619
劇院 5618
局面 5618
嶼 5616
所得 5616
烯 5615
微博 5614
最具 5613
侦@@ 5612
曹 5612
第一任 5610
血管 5610
高等教育 5610
ス 5609
各省 5609
漢語 5609
籍@@ 5609
純 5608
理器 5607
缩 5607
亚军 5606
イ 5605
岭@@ 5604
山谷 5603
筑 5603
学位 5601
设计@@ 5601
联军 5600
德克 5599
跟随 5599
姑@@ 5598
轉乘 5598
修正案 5597
伽@@ 5596
机器 5594
一行 5592
宗教@@ 5591
恭 5591
肌@@ 5590
幹線 5589
济南 5588
同事 5587
多夫 5586
桶 5586
重播 5586
分區 5585
裁定 5585
山上 5584
巴勒斯坦 5584
倍@@ 5583
硕士 5583
事实上 5581
繩@@ 5581
貞 5580
暫停 5579
包围 5578
肉食性 5578
DC 5576
傳奇 5576
驅 5576
哈德 5575
村庄 5575
行列 5574
邻 5574
蒙特@@ 5573
ā 5570
入圍 5570
恐怖@@ 5570
墩 5569
3.5 5568
忍@@ 5566
航線 5565
革 5564
鴨 5564
箭@@ 5563
主動 5562
習慣 5562
4000 5561
本劇 5559
騎兵 5559
更大 5557
战胜 5556
涉 5556
不及 5555
乔 5555
拋@@ 5555
官兵 5554
诺夫 5554
日出 5553
靠@@ 5553
主人 5551
抱@@ 5551
诉 5551
西州 5549
9% 5548
促 5548
願意 5548
彰 5547
資本 5547
高雄@@ 5547
以东 5546
圓形 5544
娘@@ 5540
窟 5539
英超 5539
友好 5538
情节 5538
it 5535
行駛 5534
难以 5533
校园 5532
达尔 5532
BBC 5531
呢 5531
库尔 5531
貪@@ 5531
中国人民@@ 5529
戰鬥@@ 5529
司马 5528
勸 5527
种族 5526
青年@@ 5526
北端 5525
气体 5525
眠 5525
黎 5524
十八@@ 5523
綜合@@ 5523
韻@@ 5523
黑龙江 5523
每月 5520
聯絡 5520
卯 5519
有線 5518
光明 5517
彦@@ 5517
開啟 5517
大使馆 5516
德军 5516
车厢 5516
正德 5515
贝尔@@ 5515
離子 5514
冥@@ 5513
体制 5512
学术@@ 5512
日文 5512
僅次 5509
優 5509
旋律 5509
郭 5509
笑@@ 5508
棕@@ 5507
理性 5506
龜@@ 5505
传媒 5504
大將 5504
搭乘 5504
大城市 5503
耶稣 5501
价@@ 5500
發揮 5500
轉變 5498
东风 5497
栖息 5497
態@@ 5496
肢 5496
十年代 5495
型號 5495
延长 5495
下去 5493
內戰 5493
召集 5493
脊 5492
47@@ 5491
雀@@ 5491
啟動 5490
娥 5490
秘書長 5490
十六@@ 5489
阿斯 5489
漏 5488
並止 5487
詳@@ 5486
挺 5485
蓝 5484
維奇 5483
质疑 5482
ん 5481
真人 5480
Facebook 5479
苏维埃 5478
針@@ 5478
展覽 5477
理查德 5477
砂 5477
服务器 5476
翻新 5476
吋 5475
World 5474
多元 5474
婦女 5473
气象@@ 5473
产物 5472
螺旋 5472
希臘@@ 5471
辅助 5470
与此同时 5469
新生 5468
兩側 5467
尚有 5467
腓特烈 5467
管道 5466
一事 5465
公頃 5465
島上 5465
日晚 5465
安县 5464
AS@@ 5463
人权 5462
分散 5460
尹 5459
徙 5459
撰写 5459
工會 5458
攻擊@@ 5458
齋 5457
战士 5456
财政@@ 5456
法蘭@@ 5455
進行@@ 5455
SP@@ 5453
聲稱 5453
刑部 5452
輔助 5451
见于 5450
勳章 5448
多少 5448
巴尔@@ 5448
戰艦 5448
星期日 5447
这时 5443
自治@@ 5442
е 5440
鯰 5440
幻 5439
影帶 5437
奉命 5436
48@@ 5435
分割 5435
合金 5434
改成 5431
18@@ 5430
农业@@ 5430
拉尔 5430
智能 5430
英格蘭@@ 5430
贤@@ 5430
提倡 5429
六個 5428
勃艮第 5428
g@@ 5427
种类 5426
市鎮 5425
恆 5425
会长 5421
录制 5421
斯蒂@@ 5421
-- 5420
誘@@ 5420
陆 5420
斯科@@ 5419
档 5416
特點 5416
西德 5416
新西兰 5415
札@@ 5415
重新@@ 5414
體育場 5414
寫作 5412
建设@@ 5412
偷 5409
討 5409
基隆 5408
摘@@ 5408
桐 5408
这项 5406
b@@ 5405
從事 5405
染 5404
沿線 5404
練@@ 5404
县城 5403
滅絕 5402
歸類 5399
觀察@@ 5399
淨@@ 5398
现实 5398
【 5396
】 5396
项@@ 5395
粒@@ 5394
闪@@ 5393
幹@@ 5392
開辦 5391
弃 5389
构 5388
眾多 5388
大選 5387
奧爾@@ 5387
赠 5386
面临 5386
55@@ 5385
军人 5383
适用 5383
關於@@ 5382
哈尔滨 5381
布局 5381
场景 5379
背面 5379
透明 5378
圣经 5377
所知 5377
效應 5376
潔@@ 5376
菊 5376
績 5375
叛乱 5373
氮 5373
誉 5372
這時 5371
闻名 5371
慰@@ 5370
穩 5369
Microsoft 5366
倾向 5365
幾 5365
掃@@ 5365
ó 5364
公演 5363
罗马帝国 5363
普鲁士 5361
布鲁@@ 5360
北上 5358
磨 5357
舖 5357
踏@@ 5357
史料 5355
秋季 5355
买 5354
协定 5354
地带 5354
纸@@ 5354
撞擊 5353
模拟 5353
愛德華 5352
戊@@ 5351
集會 5351
元件 5349
物体 5347
政变 5345
特区 5345
颜@@ 5345
北站 5344
弓 5344
碰@@ 5344
網上 5343
遍 5342
移植 5341
美術 5341
苗栗 5341
亞科 5340
背鰭 5340
轉為 5339
例外 5338
匯 5338
帅 5338
一职 5337
強大 5337
图案 5336
鳴 5336
庆祝 5334
利亚@@ 5333
反射 5333
忙 5333
牵@@ 5333
近似 5333
制备 5331
展览 5331
緩@@ 5331
众议院 5330
卸任 5328
獅 5328
宗座 5327
編成 5327
SE@@ 5326
en 5326
襲@@ 5325
进步 5325
适合 5325
塚 5323
el 5322
with 5322
以为 5322
啤酒 5322
棘@@ 5321
金星 5321
链接 5321
北伐 5320
欢@@ 5320
芬蘭 5320
主播 5319
н 5318
※ 5318
兩條 5318
颁布 5318
故意 5317
现为 5317
遣@@ 5317
公顷 5316
1896 5315
發音 5315
衍 5314
證券 5314
和平@@ 5313
俞@@ 5311
珀@@ 5311
交由 5310
草地 5310
晨@@ 5309
棄@@ 5309
妙@@ 5308
1890 5307
加利福尼亚州 5306
协调 5305
怀疑 5304
广播电台 5303
招募 5303
搭@@ 5303
装甲 5303
具體 5302
文學@@ 5302
该校 5301
输出 5301
酒精 5301
清廷 5299
詔@@ 5299
旅遊@@ 5298
裝甲@@ 5298
半年 5296
理事会 5295
轄區 5294
布斯 5293
抗战 5292
贾 5292
恩省 5291
一方面 5290
以至 5289
爪 5289
蝙蝠 5289
新村 5288
話@@ 5288
乐团 5287
栏 5287
六世 5286
喊 5286
模擬 5286
春季 5285
踢 5284
课@@ 5283
械 5282
維爾@@ 5282
蓬 5280
诏 5280
46@@ 5279
埃尔 5279
中國共產黨 5278
罕@@ 5277
暴露 5276
麓 5276
即將 5274
蛋白质 5274
慕容 5273
波士 5273
終止 5273
行使 5273
頒發 5270
缺陷 5268
麥克 5268
中華民國@@ 5267
先进 5267
巧 5266
餅 5266
挖@@ 5265
氯 5265
開業 5265
互動 5264
推進 5264
情緒 5262
浙@@ 5262
仕 5261
遊客 5261
外交官 5260
特尔 5259
筑@@ 5259
下來 5258
评估 5258
活跃 5257
麦克@@ 5257
慶祝 5256
札 5256
怡@@ 5255
发射@@ 5254
誕生 5253
绕@@ 5251
硕士学位 5250
里奥 5250
仗 5249
操作系统 5249
第一次世界大战 5249
内地 5247
特徵@@ 5246
署@@ 5246
工作人员 5244
德利 5244
淨 5244
斯山 5243
侵略 5241
自称 5241
韶@@ 5239
主導 5238
精英 5238
龍類 5238
廟@@ 5237
瀑布 5237
汇 5234
名列 5232
蒂斯 5232
鳥類 5232
战场 5231
音樂錄 5231
領隊 5230
愈 5229
南投 5228
巴尔 5228
中等 5227
傾@@ 5227
參與@@ 5225
收回 5224
深刻 5222
斯科特 5221
預定 5221
鼻 5221
section 5220
多家 5220
位居 5219
支队 5217
ensis 5216
斬 5216
伊斯兰教 5215
前面 5215
参考 5214
斯卡 5214
晴@@ 5214
垃圾 5213
論文 5213
宪 5212
督 5211
北岸 5210
火车 5210
映@@ 5209
种植 5207
橡@@ 5206
跑@@ 5205
瀨@@ 5203
擴大 5202
詳細 5202
路易@@ 5202
主场 5200
預算 5200
丘陵 5199
助攻 5199
辯@@ 5199
青海 5198
寅 5197
驻地 5197
大堂 5196
文帝 5195
斜 5195
有机 5195
New 5193
h@@ 5193
威爾 5192
故居 5192
棉@@ 5192
演讲 5191
玩具 5191
鄂 5191
嚴格 5190
護照 5190
AR@@ 5187
多部 5187
伊夫 5186
相继 5186
雙打 5186
假设 5184
偵@@ 5184
孔子 5184
德川 5184
船只 5184
全數 5182
遊戲@@ 5182
104 5181
1897 5181
組賽 5181
钦 5180
吉斯 5179
篮@@ 5179
评 5179
鴻 5179
佩斯 5177
杏@@ 5176
歡@@ 5176
東南亞 5174
優秀 5173
斋 5173
荒 5173
迈克尔 5173
贏 5172
中央委员会 5171
化学式 5169
最少 5169
行者 5169
m@@ 5167
工部 5167
西岸 5167
丈 5166
埋 5166
神经 5166
进程 5166
た 5165
杉 5165
深受 5165
逝 5165
維亞 5163
览 5163
搞 5160
奇幻 5159
回收 5158
頭部 5158
炸彈 5157
連續劇 5157
擔心 5155
脫離 5154
108 5153
裁 5153
飲 5153
列斯 5152
翰 5152
莲@@ 5152
宰 5151
提議 5151
規範 5150
鼓励 5150
发挥 5149
克林@@ 5146
塞尔维亚 5146
玫瑰 5145
櫃 5144
辞@@ 5144
橫 5143
打入 5140
曾祖父 5140
谋 5140
鱼类 5140
漸漸 5139
克雷@@ 5138
70@@ 5137
收視率 5137
辦法 5137
单元 5136
重庆市 5134
个人@@ 5131
极大 5131
錯@@ 5131
Live 5130
事实 5130
绍 5129
诸 5128
待遇 5127
穀 5127
墨西哥@@ 5126
從此 5126
位列 5125
AKB48 5123
幻想 5123
桿 5121
码头 5121
蓉 5121
判决 5119
安德烈 5118
杉@@ 5118
释@@ 5118
布置 5117
认可 5112
寡@@ 5111
當作 5110
葡萄 5110
辦理 5110
溝通 5109
痛苦 5109
登堡 5109
饮@@ 5109
削@@ 5108
報紙 5108
柔 5105
色情 5105
通勤 5105
以東 5104
拿破仑 5103
深圳市 5102
原子@@ 5101
彰@@ 5101
米兰 5101
百科 5099
斐 5098
估@@ 5097
呼吁 5097
清末 5097
纂 5096
总经理 5095
立场 5095
週年 5095
在場 5093
孟加拉 5093
短暂 5093
那样 5093
开行 5092
纪念碑 5092
巨星 5089
总额 5089
科尔 5087
罗讷 5084
圭@@ 5082
高宗 5082
暗示 5081
中南部 5080
地下@@ 5080
驱@@ 5078
ar 5077
植物@@ 5076
源于 5076
猪 5076
財 5076
49@@ 5075
北海 5075
上空 5074
ル 5073
之用 5073
創建 5073
十名 5073
哈尔 5072
她们 5071
浪漫 5071
区分 5070
各界 5070
為期 5070
调任 5069
最快 5068
清华大学 5068
溝 5068
經常@@ 5068
部下 5067
障碍 5067
拿到 5066
方形 5066
编制 5066
愛荷華州 5065
獅@@ 5065
更換 5062
设定 5062
里奇 5062
委員@@ 5058
弗雷 5058
物理学 5058
賽車 5058
三十年 5057
協調 5057
大火 5057
猛 5056
科斯 5056
指挥官 5055
最長 5055
蝦 5055
增設 5053
掛 5053
攻勢 5051
累 5051
遙@@ 5050
串 5049
消滅 5049
漸@@ 5049
郊@@ 5046
閱讀 5046
僅有 5045
净@@ 5045
前进 5045
彭 5044
辞 5044
撫@@ 5043
几年 5042
而已 5042
11.@@ 5041
一個區 5040
爾斯@@ 5039
甲板 5039
公子 5038
损 5037
攝影@@ 5037
創下 5035
墓地 5035
帥 5035
识 5035
长春 5035
炮兵 5034
租借 5034
紫 5034
翅 5034
驗@@ 5034
兴趣 5031
崇禎 5031
迦 5031
天地 5030
滅@@ 5030
生态 5030
以後@@ 5029
殖 5029
高層 5029
初中 5028
日耳曼 5028
正确 5028
瘤 5027
納粹 5027
终 5027
林斯 5026
特急 5024
一层 5023
個案 5023
被俘 5023
競選 5021
底部 5019
う 5018
抄@@ 5018
診斷 5018
引力 5017
母艦 5017
遇上 5017
判定 5015
泡@@ 5015
短篇 5015
辭職 5015
錦標 5015
万平方米 5014
加龙省 5013
炉 5013
匈奴 5012
萍 5011
觉@@ 5011
辟 5010
供應 5008
壩 5008
行程 5008
11@@ 5006
匠 5006
工艺 5004
违反 5004
102 5003
儲存 5003
步行 5003
留学 5003
首领 5003
古城 5002
屠殺 5001
担心 5001
指挥@@ 5000
慢@@ 4998
庞@@ 4996
竟 4996
帮 4995
庶@@ 4995
贈@@ 4995
宗室 4994
專案 4994
弘治 4993
擅長 4993
全民 4992
抑@@ 4992
睡 4992
葵 4992
蜀@@ 4992
直升 4991
中立 4990
总裁 4990
球員@@ 4989
轟炸機 4989
指数 4988
縮寫 4988
黎巴嫩 4988
三种 4986
队@@ 4986
魚科 4986
l@@ 4984
不論 4981
剩 4981
客戶 4981
灣的 4981
猴 4981
軟 4981
場景 4980
繳@@ 4980
可靠 4979
棠 4978
险@@ 4978
绝 4975
中場 4974
家乡 4974
巴特 4974
扁 4974
蕾@@ 4974
身為 4974
拉夫 4973
激素 4973
經費 4973
句@@ 4972
數目 4972
胡同 4972
蒋介石 4972
他于 4971
查理@@ 4971
特朗普 4971
转换 4970
括 4969
比利牛斯 4969
鎖 4969
推廣 4968
澄@@ 4968
悟 4965
中途 4964
俱@@ 4964
大名 4964
活動@@ 4964
乃至 4962
蜥 4962
通讯 4962
MO@@ 4961
參賽者 4961
委托 4960
宋代 4960
比亞@@ 4958
费用 4958
党委书记 4957
弗里@@ 4957
季後賽 4956
习 4954
伊尔 4954
卫队 4953
輻射 4953
长安 4953
翡翠台 4952
比亚 4951
AM@@ 4950
想到 4950
欽 4950
矢@@ 4950
行省 4950
意志 4949
姿@@ 4948
当代 4948
樂壇 4948
省道 4948
子彈 4947
上訴 4946
俄罗斯联邦 4946
北大 4944
牙齒 4944
尔顿 4943
民兵 4943
南京@@ 4941
党组 4937
纳德 4937
綁 4935
You 4934
1200 4933
对阵 4933
扰 4933
煌 4933
103 4932
研究@@ 4932
一開始 4930
塔尼 4930
小巴 4930
犹@@ 4930
紋@@ 4930
東側 4929
融入 4929
錄音 4929
中央政府 4927
三天 4926
同位素 4926
普拉 4926
瓶@@ 4926
峻 4925
悉尼 4925
親王 4925
顯著 4924
布莱@@ 4923
棒@@ 4923
喝@@ 4921
铺@@ 4921
且@@ 4920
兰州 4919
穿过 4919
编组 4919
搖滾 4918
部件 4918
k@@ 4916
港澳 4915
荡 4913
瓦爾@@ 4912
碎@@ 4912
诗歌 4912
玻@@ 4911
44@@ 4910
空軍@@ 4910
不良 4909
湯 4909
第二名 4909
170 4907
歷任 4907
有趣 4906
害怕 4905
滑冰 4905
拓跋 4904
码@@ 4902
蘿@@ 4902
實體 4901
木材 4901
代號 4900
司机 4900
鮮 4900
夫妇 4899
閱 4899
1899 4897
内蒙古自治区 4897
湘 4897
顾 4897
嵌 4896
帕拉 4896
攻陷 4896
深夜 4896
萬張 4896
人大常委会 4895
流程 4895
LO@@ 4894
凉@@ 4894
崛起 4894
東南@@ 4894
争 4893
展現 4893
谭@@ 4893
19.@@ 4892
該區 4892
夹@@ 4891
日本政府 4891
武昌 4891
三星 4890
淮 4890
余人 4889
就读于 4887
磷@@ 4887
赴@@ 4886
途径 4885
面上 4885
窗口 4884
指责 4883
論壇 4883
研究者 4882
AC 4881
维也纳 4881
郁@@ 4881
意為 4880
办公 4879
菲尔德 4879
精靈 4878
顺时针 4878
西面 4876
化工 4875
繪畫 4875
脱离 4875
葡@@ 4875
歇@@ 4873
溪流 4873
鉴 4873
大陸@@ 4871
撤回 4871
耿@@ 4871
茎 4870
這座 4870
驱动 4870
夫妻 4869
有力 4869
第二个 4869
讀者 4869
一邊 4868
俯@@ 4868
莲 4868
上演 4867
哺乳 4867
尼夫 4867
財政 4866
辱 4865
鸟@@ 4865
大地 4864
所用 4864
恰 4863
打敗 4863
找@@ 4863
受欢迎 4862
流放 4862
般的 4862
乞@@ 4861
加密 4861
旭@@ 4861
蒸汽 4861
一號 4860
喜剧 4860
盈@@ 4859
侍 4858
擴@@ 4855
鏡頭 4855
前作 4854
磁 4853
0.5 4851
Android 4850
亂@@ 4850
哈特 4848
爵位 4848
履@@ 4846
Ch@@ 4845
参 4845
飲食 4845
50% 4844
共用 4843
查尔斯 4843
砖@@ 4842
国道 4841
惜 4841
巡演 4840
活躍 4839
西北@@ 4839
戰國 4837
混淆 4837
社團 4837
资助 4837
水系 4836
昔日 4835
孕 4834
稱號 4834
识别 4834
UA 4833
轉向 4833
2.0 4832
公所 4832
林肯 4832
矮 4832
其次 4831
速率 4830
陪@@ 4829
募@@ 4828
取名 4828
酬 4828
信長 4825
转变 4824
一個@@ 4823
椅 4823
误 4823
處長 4822
运作 4822
擋 4821
民政 4821
集体 4821
柴油 4820
温带 4820
黃色 4820
攻下 4819
辉@@ 4819
夺@@ 4818
司令员 4817
股權 4817
韻 4817
虞@@ 4816
奠定 4815
羽球 4815
區間 4814
新任 4814
自行车 4814
Music 4813
两者 4813
交給 4813
一等 4812
各項 4812
明尼@@ 4812
125 4811
穩@@ 4811
大师 4810
珊瑚 4810
f@@ 4809
童年 4809
西側 4809
軍事@@ 4809
妇@@ 4808
挂 4808
水道 4807
危害 4805
混亂 4805
AL@@ 4804
候選人 4804
元帅 4804
办法 4804
攻克 4804
碰撞 4804
紐西蘭 4804
狹@@ 4803
一集 4802
塞纳 4802
倪@@ 4801
RO@@ 4798
NHK 4797
泳 4797
仇@@ 4796
政府@@ 4795
簡 4795
經理 4795
消耗 4794
术语 4793
積分 4793
筋 4793
政治委员 4792
四周 4791
汕@@ 4791
主编 4788
摩斯 4788
吉隆坡 4787
對此 4787
平坦 4787
日以 4787
虛構 4787
崩 4786
应当 4786
疫 4786
二层 4784
国旗 4784
鬚 4783
喇@@ 4782
细 4782
1.2 4781
一张 4781
發電廠 4780
称之为 4779
女士 4778
波蘭@@ 4777
烟 4777
重型 4777
106 4773
原為 4773
起兵 4773
開通 4772
交给 4771
培養 4771
額@@ 4770
12.@@ 4769
禅@@ 4769
頭銜 4769
鱷 4769
裝飾 4768
识字率 4768
躍@@ 4768
放映 4767
荆@@ 4767
不想 4766
三国 4764
尼亚@@ 4764
协 4763
銅 4763
夺取 4762
生理 4762
显 4761
媒@@ 4760
芽 4759
р 4757
析 4757
证券 4757
指揮官 4756
讨@@ 4756
迁至 4756
隋朝 4756
推測 4755
天后 4754
眉 4754
猶太@@ 4753
毗邻 4752
酒吧 4750
end 4748
前去 4748
承諾 4747
AC@@ 4746
永遠 4745
烯@@ 4745
训@@ 4745
密集 4744
考量 4744
全壘 4743
工委 4743
热带风暴 4743
獵 4743
裡面 4743
德州 4742
逼@@ 4742
on@@ 4741
20.@@ 4740
戚 4740
排序 4740
109 4739
安打 4739
致使 4739
と 4738
执政 4738
界面 4738
诞生 4737
雕刻 4737
靈魂 4737
占地 4736
捐款 4736
毒性 4736
牛津 4736
制服 4735
被选为 4735
10% 4734
队员 4734
冒 4733
希尔 4733
目的地 4733
鹏 4733
则@@ 4730
嘉義@@ 4730
年份 4730
怪物 4730
招 4730
築@@ 4730
詢@@ 4729
婉@@ 4728
1889 4727
后续 4727
央@@ 4727
外交@@ 4726
廣東省 4726
末端 4726
泳@@ 4726
阜@@ 4726
烹@@ 4725
哥倫比亞 4724
暖@@ 4723
进球 4723
可追溯 4722
宴@@ 4722
準決賽 4721
敏感 4720
绘画 4720
巢@@ 4719
直属 4719
TE@@ 4717
am 4716
過度 4716
叛亂 4715
醉 4715
電池 4715
线性 4714
金斯 4714
些@@ 4713
撤出 4713
接手 4712
乒乓球 4711
掃 4711
榆@@ 4710
物资 4709
Al@@ 4708
出去 4708
暴雨 4708
第十一 4708
菲律 4707
学士 4706
补充 4706
具備 4704
电影节 4704
聞@@ 4704
制裁 4703
怎@@ 4702
本书 4702
政部 4701
文斯 4701
该片 4701
趣 4701
既有 4700
江市 4699
爾州 4699
现代@@ 4699
阿塞拜疆 4698
則為 4697
化物 4697
县级 4697
科研 4697
華語 4696
或稱 4695
盛行 4695
中將 4694
僱@@ 4694
在线 4694
氫 4694
鹤@@ 4694
就此 4693
公安@@ 4692
衍@@ 4690
合共 4689
驚 4689
马里 4688
silver 4687
培訓 4687
地產 4686
元首 4685
勞動 4685
映射 4684
枢@@ 4682
喉@@ 4681
字符 4681
次數 4681
酷@@ 4681
man 4680
处长 4680
浓@@ 4680
IC@@ 4679
School 4679
主权 4679
挽@@ 4679
曝光 4679
FC 4677
行車 4677
ラ 4676
客串 4676
崩@@ 4676
获取 4675
不受 4674
葡萄酒 4673
一周 4672
错@@ 4672
ö 4670
伟大 4670
伍德 4669
瑪麗 4668
葵@@ 4668
怒@@ 4667
規格 4667
公益 4666
疊@@ 4666
判斷 4665
清晨 4665
壬@@ 4664
法語 4664
贏@@ 4664
父子 4662
碎片 4662
閩@@ 4662
顛@@ 4662
騙 4662
奧斯@@ 4661
拟 4661
高清 4661
感觉 4660
擲 4660
普里 4658
一千@@ 4657
物業 4657
从未 4655
重视 4655
耗 4654
響@@ 4654
驱逐 4654
• 4653
参议员 4651
省会 4651
阿尔卑斯 4650
党人 4649
推理 4649
否定 4648
销量 4646
南岸 4645
房间 4645
驾驶 4645
中国人民解放军@@ 4644
順序 4644
v@@ 4643
盟友 4643
贵州省 4643
韓 4643
促成 4641
循環 4641
除非 4641
倡@@ 4640
投入使用 4638
四位 4637
區負 4636
銘@@ 4636
主體 4635
返 4635
增至 4633
一块 4632
舟@@ 4632
猶@@ 4631
始于 4630
患有 4630
旺角 4629
锁 4629
蘇丹 4628
在外 4627
司職 4626
松山 4626
即将 4625
杖 4624
铁道 4624
武士 4623
涌@@ 4622
预测 4622
南京市 4621
寻求 4621
比尔 4621
全境 4620
大獎賽 4620
預期 4620
比起 4619
出入 4618
情报 4618
严 4616
向前 4616
洋基 4616
行業 4616
妇 4615
用品 4615
搶@@ 4614
眉@@ 4614
夸@@ 4612
奔 4612
熙@@ 4612
腹部 4612
塑@@ 4611
起訴 4611
膠 4609
挖掘 4608
迎接 4607
鸟类 4607
安定 4606
海洋@@ 4606
骨骼 4606
115 4605
中日 4605
电路 4605
禪@@ 4605
服裝 4604
告示牌 4603
尔曼 4603
当前 4603
产量 4602
最受 4602
一只 4601
單打 4601
和解 4600
回归 4600
少数民族 4600
庇@@ 4599
描@@ 4599
格雷@@ 4599
屍體 4598
日後@@ 4598
腰@@ 4598
其頓 4597
國防 4597
CA@@ 4596
囊@@ 4596
大大 4596
愿意 4596
狗@@ 4596
か 4595
繩 4595
综合@@ 4595
覺得 4595
w 4593
琳娜 4593
木星 4592
移除 4592
擺@@ 4591
起點 4591
顆@@ 4591
奮@@ 4589
陷@@ 4589
团结 4588
桑那州 4588
劇團 4587
第三代 4587
轰炸 4586
購入 4585
暂时 4584
並於@@ 4583
頸 4583
假日 4582
适应 4582
全省 4579
描寫 4579
騰 4579
引进 4578
標示 4576
馮 4576
斯洛伐克 4575
标本 4575
維修 4575
總經理 4575
南北朝 4574
編碼 4574
頒@@ 4574
停車場 4573
淳 4573
碗 4573
尸体 4571
浴@@ 4571
恋@@ 4568
而來 4568
可汗 4567
描 4566
波士顿 4566
藉此 4566
争取 4564
氟@@ 4563
64@@ 4562
並被 4562
教学@@ 4562
在家 4561
俄國 4560
配备 4560
雄性 4560
开发@@ 4559
笛 4559
所有人 4558
天橋 4557
拼音 4557
21.@@ 4556
女友 4555
娜@@ 4555
希伯@@ 4555
粮@@ 4555
斯托@@ 4554
航线 4554
中文@@ 4553
可惜 4553
領導@@ 4553
孚 4551
金剛 4551
離婚 4551
MS 4550
平日 4550
镜@@ 4550
型号 4549
廚@@ 4548
會將 4548
穎 4548
一點 4547
前鋒 4547
原創 4547
損@@ 4547
NE@@ 4545
題材 4545
勞工 4542
塞爾@@ 4542
爛 4542
亞的 4541
其实 4539
外观 4539
107 4538
型態 4538
赤道 4538
支出 4537
翻唱 4537
航天 4537
訓練@@ 4537
事变 4536
值得 4536
加勒比海 4536
戎 4536
节点 4536
升降 4535
弧@@ 4535
数据库 4535
下載 4534
制成 4533
助手 4533
影視 4533
氨酸 4533
BO@@ 4532
出于 4532
猴@@ 4532
111 4530
三國 4530
漆 4528
艺人 4528
莖 4528
存储 4527
鎖@@ 4527
彦 4525
購物 4525
赛会 4525
客運 4523
帆船 4522
攜帶 4522
人體 4521
參演 4521
脱 4521
al@@ 4520
纹@@ 4519
克西 4518
称呼 4518
竞@@ 4517
天主@@ 4515
有用 4513
璋 4513
痕 4512
砖 4512
老师 4512
两座 4511
南朝 4511
天气 4511
帝國@@ 4511
生物学 4511
硫 4511
究 4511
箱@@ 4511
一班 4510
卧@@ 4510
总书记 4510
全线 4509
哈里 4509
嗎 4509
塞爾維亞 4509
崗@@ 4508
90@@ 4507
零售 4507
貢 4506
入選 4505
慢慢 4505
老虎 4505
抵制 4504
獲勝 4504
克利 4503
发音 4503
數碼 4503
軟條 4503
主事 4502
标记 4501
大众 4500
派系 4500
IC 4499
投資@@ 4499
教友 4499
东站 4498
品种 4498
絕對 4497
钻@@ 4497
假期 4495
出境 4495
面臨 4495
驱逐舰 4495
奧斯卡 4494
足球@@ 4494
塔克 4493
説 4493
哭 4492
借用 4491
粵@@ 4491
否則 4489
比分 4489
管轄 4489
es 4488
公正 4488
灾@@ 4488
遵循 4488
卡尔@@ 4487
流入 4487
哥伦比亚 4486
人民共和国 4485
简 4485
大正 4484
中止 4483
教室 4483
郝@@ 4483
高等法院 4482
遞@@ 4480
占地面积 4479
灭绝 4479
英军 4478
跌@@ 4478
房間 4477
奶 4476
搭載 4476
烧 4476
光年 4475
大法官 4475
姑 4474
賭@@ 4474
之所以 4473
議長 4473
其餘@@ 4472
轻 4472
並無@@ 4471
67@@ 4470
上将 4470
污 4470
流傳 4470
狐@@ 4470
编写 4470
43@@ 4469
丛@@ 4468
共和党 4468
卢瓦尔河 4468
設計師 4468
险 4468
庙@@ 4467
史蒂芬 4466
屋苑 4466
墜@@ 4465
中华人民共和国@@ 4464
咸 4464
德語 4461
近期 4461
ID 4460
巴登 4460
伙 4459
塔尔 4459
財產 4459
金額 4459
针 4459
中方 4458
據點 4457
昆蟲 4457
吉尔@@ 4456
支線 4456
伟@@ 4455
宗旨 4455
彩虹 4455
椎@@ 4455
毅@@ 4455
氟 4455
EP 4453
大概 4453
檢 4453
诱@@ 4452
這張 4452
仓@@ 4451
出場 4451
丞相 4449
省人民政府 4449
称赞 4449
淋@@ 4447
射手 4446
業務@@ 4446
ch@@ 4445
奴隶 4445
指揮@@ 4445
接着 4445
炭 4445
烈士 4445
楠 4444
有利 4442
铁道部 4442
權益 4441
吏 4440
疲@@ 4440
长轴 4440
GB 4438
全線 4438
慕 4438
相机 4438
額外 4438
分部 4436
千人 4436
颗 4436
共識 4435
高达 4435
携带 4434
设计师 4434
輯@@ 4434
一类 4433
田径 4433
藤原 4433
強制 4432
抓 4432
禍 4432
途經 4432
邊緣 4432
籌備 4430
分店 4429
向东 4429
99@@ 4428
表演@@ 4428
夏朗德 4427
直隸 4427
棲@@ 4426
220 4425
腐 4425
生育 4424
千瓦 4423
強化 4423
瓦斯 4423
領先 4423
华北 4422
巴德 4422
粮食 4422
賈 4422
喙 4421
に 4420
坂 4420
自動@@ 4420
18.@@ 4419
1860 4417
支线 4417
以致 4416
有期徒刑 4415
相互作用 4415
骑士 4415
之時 4414
认证 4414
世宗 4413
敢 4413
地质@@ 4412
弗里 4412
硝@@ 4412
环境@@ 4411
监察 4411
紛紛 4411
流传 4410
知名度 4410
结论 4410
空降 4409
福克 4406
称作 4406
cm 4405
夫婦 4405
聯會 4405
中北部 4403
招生 4403
雷達 4403
旅游@@ 4402
22.@@ 4401
关键 4400
點為 4400
赣@@ 4397
個體 4396
敘@@ 4396
群眾 4396
南美 4394
叠 4393
麦克 4393
中子 4391
承诺 4391
理工 4391
滾@@ 4390
硬件 4390
1880 4389
五大 4389
圖案 4389
恋 4389
长官 4388
妖@@ 4386
摩洛哥 4386
谁 4385
中路 4384
桂林 4384
阵@@ 4384
零件 4383
格里@@ 4382
涼@@ 4382
鵬 4382
轉型 4381
关联 4380
潛 4380
現有 4380
阶@@ 4379
亞利 4378
加词 4378
沪@@ 4378
资本 4378
歧义 4377
妾 4374
政局 4374
徹底 4373
三日 4372
力學 4372
容器 4372
布拉格 4372
长江@@ 4372
死后 4371
皮膚 4371
開播 4371
乳 4370
平均@@ 4370
里程 4370
釋放 4369
陇@@ 4369
东路 4368
交叉 4368
匣 4368
米勒 4368
.@@ 4367
AN 4367
祁@@ 4367
an@@ 4366
​ 4366
全體 4366
平方英里 4366
題@@ 4366
睡@@ 4365
辦事處 4365
伊丽莎白 4364
毒品 4364
屏幕 4363
摩根 4363
步枪 4363
每小時 4362
额外 4362
鰭@@ 4362
出品 4361
削弱 4361
溫泉 4361
暂停 4360
最先 4360
汤 4360
反对派 4358
注重 4358
生母 4358
1600 4357
飞行员 4357
450 4356
國籍 4356
集體 4355
20% 4354
距@@ 4354
巴伐利 4353
接待 4353
纳入 4351
虹 4351
应对 4350
托勒密 4350
曾多次 4350
国共 4349
國旗 4349
路德 4349
一句 4348
一百 4348
廣東@@ 4347
接口 4347
职责 4347
DS 4346
影院 4346
當初 4346
职工 4346
謙 4346
凶@@ 4345
學科 4345
清晰 4345
泰山 4344
致命 4344
第三名 4343
组成部分 4343
AV 4342
le 4342
な 4342
邢@@ 4342
凤 4341
陰 4341
誓@@ 4340
翅@@ 4339
两条 4338
清理 4338
世纪末 4337
歌词 4337
翻 4337
前提 4336
廣島 4336
潮州 4336
凌 4335
传教士 4334
本属 4334
68@@ 4333
登進士 4333
青海省 4333
鱂 4333
星球 4331
看見 4331
西洋 4331
道具 4331
网球 4330
代表@@ 4329
公墓 4329
雌性 4329
潛艇 4328
言论 4327
誕@@ 4327
旋转 4326
縣長 4326
美術館 4325
預備 4325
AN@@ 4323
社長 4323
樊@@ 4322
趾 4322
圣殿 4321
检察@@ 4321
民生 4320
致力于 4320
詩人 4320
繪入 4319
240 4318
其為 4318
大力 4318
役@@ 4317
肥 4317
RE@@ 4316
CR@@ 4315
打出 4315
地主 4314
興建@@ 4314
航天@@ 4314
銷@@ 4314
公安 4313
水果 4313
閉 4313
1800 4312
国防 4312
軟件 4312
主办 4311
代数 4311
司法@@ 4311
書記 4311
水泥 4310
織@@ 4310
並成 4309
乡村 4309
受损 4309
咖啡@@ 4309
彼得@@ 4309
雁@@ 4309
福斯 4308
嫡@@ 4307
La 4306
公约 4306
1894 4304
秘書 4303
14.@@ 4301
头衔 4300
繞@@ 4300
追溯到 4300
情節 4299
伤亡 4298
聊@@ 4298
逃往 4298
馬來 4298
112 4297
診@@ 4297
Ar@@ 4296
巴爾@@ 4296
胃@@ 4296
作客 4295
外形 4295
奋@@ 4295
奥斯@@ 4295
详细 4295
亚热带 4294
口罩 4294
當時@@ 4294
高级@@ 4294
in@@ 4293
任務@@ 4293
法兰西 4292
画面 4291
萨尔@@ 4291
Me 4290
十九年 4290
極為 4290
′ 4289
人氣 4289
左派 4289
嘉賓 4288
煽@@ 4288
球衣 4288
读者 4288
不詳 4287
年區 4287
ト 4286
理查 4286
要素 4286
參見 4285
探險隊 4285
顺序 4284
一時 4283
万吨 4283
建国 4283
谱@@ 4283
针@@ 4283
变换 4282
1871 4280
混乱 4280
58@@ 4279
脊@@ 4279
る 4278
美食 4278
司徒 4277
八路军 4275
指挥部 4275
蟻 4275
TVB 4274
不變 4274
孙中山 4274
布列塔尼 4274
希腊@@ 4274
德堡 4274
描绘 4274
时速 4274
生态@@ 4274
赠@@ 4274
工会 4273
老挝 4273
英文名 4273
1870 4272
逐 4272
醛 4272
发生@@ 4271
撤銷 4270
信心 4269
咒 4269
缀 4269
西邊 4269
監察 4268
週刊 4267
物理学家 4266
兰德 4264
症状 4264
高铁 4264
並為 4263
失望 4262
比特 4262
定为 4261
实践 4261
脈@@ 4261
各方 4260
紧急 4260
造船 4260
别名 4259
佔@@ 4258
可分 4258
所有@@ 4258
里尼 4256
4.5 4255
保加利亚 4255
献 4255
铭 4255
南邊 4254
党校 4253
辽 4253
图尔 4252
宣傳@@ 4252
唇@@ 4251
埋@@ 4251
弼 4251
盟军 4251
三重 4250
傑克 4250
餐厅 4250
高于 4250
叢@@ 4249
B型 4248
第一期 4248
文中 4247
台湾@@ 4246
现代化 4246
維亞@@ 4246
之路 4245
回憶 4245
微软 4245
悅 4245
渭@@ 4245
绿 4245
int 4244
处理器 4243
甄@@ 4243
56@@ 4242
哩 4242
夕 4242
莱斯 4242
輩 4239
Xbox 4238
屍@@ 4238
撫 4238
更换 4238
郊区 4238
仆@@ 4237
廢止 4237
數值 4237
牧師 4237
0.0@@ 4236
出家 4236
樟@@ 4236
欠@@ 4236
哥伦比亚@@ 4235
荃灣 4235
染色 4234
战区 4233
拱 4233
罵 4233
缺少 4232
船舶 4232
对称 4231
新疆维吾尔自治区 4231
23.@@ 4230
瑟夫 4230
传输 4229
谴责 4228
克尔 4227
政變 4227
栗@@ 4227
機動 4227
阶级 4226
向北 4225
平县 4225
二百@@ 4224
校方 4224
David 4223
意味著 4223
q 4222
供应 4221
新疆@@ 4221
24.@@ 4220
消費者 4220
轟炸 4220
反派 4219
涵蓋 4219
碱@@ 4218
衙@@ 4218
西西里 4218
明清 4217
贊 4217
文藝 4216
有所不同 4216
大将军 4215
开办 4215
鎮壓 4215
手术 4214
流經 4214
建築師 4213
签约 4213
峙 4212
斯汀 4212
杯@@ 4212
欢迎 4212
13.@@ 4211
丛 4210
安市 4210
作詞 4209
赏@@ 4208
巡撫 4207
漿 4207
莱昂 4207
后裔 4206
纪录片 4206
签 4205
達爾@@ 4204
丟@@ 4203
纳粹 4203
賞@@ 4203
這兩個 4203
验@@ 4203
当日 4202
體制 4201
利夫 4200
數的 4200
论坛 4200
照顧 4199
彈藥 4198
抽 4198
57@@ 4197
预算 4197
依次 4196
政事 4196
炮台 4196
古典@@ 4195
克勒 4194
向南 4194
紮 4194
陣容 4194
俗称 4193
初次 4193
吐蕃 4193
练 4193
克鲁@@ 4192
春天 4192
虽 4192
審判 4191
假名 4190
下半@@ 4189
外籍 4189
一个@@ 4188
发掘 4188
條款 4188
贞 4188
鋼琴 4188
土地@@ 4186
吉士 4185
幾年 4185
销@@ 4184
南洋 4182
特斯 4182
维修 4182
料理 4181
音室 4181
物件 4180
生活@@ 4180
A型 4177
卡洛斯 4177
立面 4177
集結 4177
心中 4176
資訊@@ 4175
夜間 4174
現存 4174
统治者 4174
三分之一 4173
曲线 4173
北側 4172
晋级 4172
體型 4172
削 4171
卡斯蒂利亚 4171
觀音 4170
天堂 4169
憂@@ 4169
西南@@ 4169
五百 4168
屬下 4168
最长 4168
特拉@@ 4168
安葬 4166
满洲 4166
科隆 4166
舰只 4166
定名 4165
诏@@ 4165
一组 4164
勢@@ 4164
塞尔@@ 4164
婦@@ 4164
米爾@@ 4164
流動 4163
委书记 4162
駕@@ 4162
西藏自治区 4161
领导@@ 4161
不願 4160
其为 4160
衝擊 4160
战列舰 4159
处决 4158
美术@@ 4158
朝日 4157
芭@@ 4157
举人 4156
宣誓 4156
晋升 4156
贪@@ 4156
阿基坦 4156
one 4155
區別 4155
拘留 4155
胸 4155
失利 4153
IS@@ 4152
贸易@@ 4152
观看 4151
客量 4150
障@@ 4150
二甲 4149
发展@@ 4149
海关 4149
站位 4149
嘉慶 4148
打擊率 4148
萌@@ 4148
蔬菜 4148
SH@@ 4147
回忆 4147
拓展 4147
活佛 4147
兔@@ 4146
实体 4145
寓@@ 4145
龐大 4145
è 4144
人事 4144
毁@@ 4144
颇@@ 4144
名录 4143
德罗 4143
畏 4143
執政 4142
婷 4142
宦官 4142
中層 4141
剿 4141
挺@@ 4141
脑 4141
起草 4141
星期@@ 4139
隔年 4139
售出 4138
International 4137
都御史 4137
University 4136
多瓦 4136
阅读 4136
工商 4135
斯州 4135
词汇 4135
学系 4134
颇 4133
漳@@ 4132
里面 4132
In 4131
袍 4131
觀念 4131
金像 4131
敘利亞 4130
蘆@@ 4130
漫畫家 4128
阅 4128
拘@@ 4127
依法 4126
图书 4126
深水 4126
贞@@ 4126
大氣 4125
扬州 4125
還在 4124
配套 4123
循 4122
瓣 4122
還要 4122
98@@ 4121
RNA 4121
法国@@ 4121
傷亡 4120
場比賽 4120
中国政府 4119
共同@@ 4119
衷 4119
一中 4118
中西部 4117
口號 4117
径@@ 4116
倫敦@@ 4115
饶@@ 4115
露出 4114
該庄 4113
黨員 4113
稳@@ 4112
天水 4111
殊@@ 4111
闆 4111
發生@@ 4110
野战军 4110
充满 4109
摄影 4109
敲@@ 4109
通报 4109
全球@@ 4108
幾何 4108
及後@@ 4107
壯 4107
庄村 4107
抛@@ 4106
旋轉 4106
扳@@ 4105
起到 4105
注射 4104
您 4103
第二位 4102
薯 4102
豫 4101
劇中 4100
卡拉@@ 4100
干线 4100
忽略 4100
日食 4100
連同 4100
碱 4099
具备 4098
捷運 4098
公安局 4096
遂@@ 4096
容纳 4095
寇@@ 4095
編入 4095
卡羅@@ 4094
藝名 4094
尋 4092
船上 4092
频@@ 4092
年春 4091
熱門 4091
赐@@ 4090
鱼雷 4090
亚美尼亚 4089
哈佛 4088
国外 4087
戰敗 4086
游行 4086
遥@@ 4086
厅长 4085
所作 4085
指南 4085
掌管 4084
周末 4083
承受 4083
外科 4082
書店 4082
拉丁文 4081
朔@@ 4081
每秒 4081
屍 4080
径 4080
15.@@ 4079
几何 4079
可见 4079
里尔 4078
第十二届 4077
一員 4076
拉萨 4076
獲獎 4075
藻@@ 4075
不详 4074
改進 4074
虜 4074
剝@@ 4072
名舉 4072
学员 4072
琦 4071
留守 4071
态@@ 4069
检 4069
此处 4069
年均 4066
支配 4066
清政府 4066
车体 4066
性别 4064
担当 4064
水利@@ 4064
細節 4064
被称作 4064
車型 4064
琳@@ 4063
大人 4062
润@@ 4062
簽下 4062
簽證 4061
虐待 4061
巴里 4060
粮 4060
插入 4059
步槍 4059
轉會 4059
中断 4058
喬治亞州 4058
一对 4057
埃爾 4057
衰落 4057
三十四年 4055
情报@@ 4055
群體 4055
30% 4054
曼谷 4054
缅@@ 4054
保护@@ 4052
則在 4052
太宗 4052
希特 4052
登记 4051
先行 4050
阿布@@ 4050
保险 4049
朋@@ 4048
經由 4048
蒙古@@ 4048
贝克 4048
с 4047
包裹 4047
表彰 4047
异常 4046
戰機 4046
每周 4046
向西 4045
多倫多 4044
军长 4043
天王 4043
駿 4043
台上 4042
el@@ 4041
响应 4041
狐 4041
该剧 4041
網頁 4040
軍方 4040
6000 4039
实力 4039
年亞洲 4039
总司令 4039
懂 4039
臀鰭 4039
中學@@ 4038
企图 4038
創始 4038
第一座 4038
哈爾 4037
往來 4037
微軟 4037
细节 4037
经理 4037
普斯 4036
中型 4035
有助 4035
水利 4035
胤 4035
進口 4035
人口@@ 4034
催化 4034
比斯 4034
水手 4034
財政@@ 4034
转会 4032
認知 4031
元帥 4028
大王 4027
情人 4027
1885 4026
一段时间 4026
拾 4026
市委书记 4025
进口 4025
南側 4024
彩色 4024
忍者 4024
毀@@ 4024
訴訟 4023
重复 4023
同知 4022
哥本哈根 4022
工黨 4022
騰@@ 4022
交汇 4021
出名 4021
殖@@ 4020
闖@@ 4020
衞 4019
读书 4019
17.@@ 4018
户部 4018
矣 4018
磡 4018
UN@@ 4016
先發 4016
同行 4015
幣@@ 4015
銳 4015
势@@ 4014
酉 4014
摩泽尔 4013
相等 4013
制品 4012
笠 4012
第四次 4012
行李 4012
適當 4012
有著 4011
约翰逊 4011
放射性 4010
斥@@ 4010
訊@@ 4010
聯合會 4009
估 4008
捐 4008
湾@@ 4008
广西壮族自治区 4007
鮋 4007
上行 4006
遗迹 4006
校區 4005
沿途 4005
狂 4005
山东@@ 4004
控制器 4004
編寫 4004
88@@ 4002
一女 4002
厦门 4002
清除 4002
駁 4002
东南亚 4001
六个 4001
其种 4000
演藝 4000
交戰 3998
劝@@ 3998
巴布 3998
廓 3998
成名 3997
渤海 3997
统计@@ 3997
东汉 3996
外表 3996
繼位 3996
肖 3996
卑 3995
滅亡 3995
甲级联赛 3995
运输@@ 3995
市内 3994
消歧義 3994
閱@@ 3994
科目 3993
重组 3992
变为 3991
所长 3991
民意 3991
簿 3991
纷纷 3990
获胜 3990
林中 3989
中毒 3988
人知 3988
基本法 3988
撤 3988
201 3987
份子 3987
存放 3987
延期 3987
負面 3987
前线 3986
分行 3985
续 3985
肌 3985
背部 3985
陆地 3985
雇@@ 3985
非裔 3985
唱歌 3984
數為 3984
東海 3984
結局 3984
迪克 3984
當晚 3983
單獨 3982
獅子 3982
卓越 3981
岛式 3981
轟 3981
分子@@ 3980
改裝 3980
英軍@@ 3980
嘉義縣 3978
时段 3978
廣西 3977
慰 3977
辖@@ 3977
乱@@ 3976
年成 3976
田徑 3976
雲南 3975
隱 3974
在校 3973
潤@@ 3973
组长 3973
85@@ 3972
三级 3972
創意 3972
埼 3972
奥古@@ 3972
畿 3972
ER 3971
便利 3971
昏@@ 3971
體驗 3971
撲 3970
波尔@@ 3970
爬@@ 3970
粟@@ 3970
自治市 3970
補充 3970
芦@@ 3969
斯克@@ 3968
杰克逊 3968
甲組 3968
传递 3967
珠海 3967
確實 3967
坐在 3966
应用程序 3966
投资@@ 3966
矮@@ 3966
適應 3966
逃走 3965
聂@@ 3964
谓 3964
25.@@ 3963
公約 3963
主动 3962
兄長 3962
卡通 3962
转向架 3962
宛@@ 3961
流派 3961
记忆 3961
仅次于 3959
蝴蝶 3959
期待 3958
阿尔 3958
罷@@ 3957
公国 3956
白金 3956
真理 3956
警察局 3956
隊員 3955
缘@@ 3954
選票 3954
喀 3953
增援 3953
這兩@@ 3953
禄@@ 3952
参见 3951
反攻 3951
尼泊尔 3951
車廂 3951
山镇 3950
抄 3950
钢琴 3950
旱@@ 3948
保證 3947
演技 3947
上車 3946
挖 3946
电池 3946
延续 3945
法军 3945
本季 3944
翠 3944
車身 3944
鈴@@ 3944
海面 3943
孟 3942
扁@@ 3942
诉讼 3942
名词 3941
坪@@ 3940
账@@ 3940
星光 3939
河川 3938
落敗 3938
兩人@@ 3937
參議院 3937
发达 3937
天正 3937
拒@@ 3937
時刻 3937
棕色 3937
迪斯 3937
家协会 3935
除外 3934
培育 3932
塔拉 3932
科尔@@ 3932
腸 3932
發電 3931
祖母 3931
類別 3931
地鐵@@ 3930
横 3930
研究室 3930
謠 3930
金門 3930
夺 3929
照明 3929
各式 3928
中山@@ 3927
回來 3927
水晶 3927
法学院 3927
张家@@ 3926
炸弹 3926
財務 3925
大战 3924
招收 3924
奉天 3922
神像 3921
阎@@ 3921
堵 3920
见到 3920
某个 3919
武汉市 3919
西山 3919
佩尔 3918
兰人 3918
個國家 3914
臭@@ 3914
選中 3914
灘 3912
电动机 3912
碧 3912
編曲 3912
IP 3911
字体 3910
坏 3909
發行@@ 3909
侠 3908
兵器 3908
判处 3908
墓葬 3908
塞爾 3907
臉@@ 3907
氫@@ 3906
澳门 3905
鯛 3905
全港 3904
打开 3904
数百@@ 3904
汶 3904
聖母 3904
认 3904
鞭@@ 3904
揭露 3903
暹@@ 3903
澄 3903
韵@@ 3903
Team 3902
已于 3902
推廣@@ 3902
消灭 3902
阴 3902
制动 3901
后代 3901
成长 3901
z@@ 3900
交響 3900
135 3899
280 3898
佛罗里达州 3898
地方@@ 3898
德国@@ 3898
溝@@ 3898
今年 3897
罢@@ 3897
上诉 3896
已成 3896
組織@@ 3896
邓小平 3896
条例 3895
网友 3895
阿列 3895
台中市 3894
契丹 3894
指向 3894
斯特拉 3894
美术 3894
搖@@ 3893
灭亡 3893
爱情 3893
土著 3892
膽 3892
德里@@ 3891
蛤@@ 3891
AT 3890
芙 3890
郁 3890
饼 3890
幼年 3889
接力 3889
际 3889
垂 3888
总体 3888
柴 3888
标准@@ 3888
漏@@ 3888
降格 3888
230 3887
薇@@ 3887
冲击 3886
斯卡@@ 3886
日公 3886
爽 3885
高丽 3885
Re@@ 3884
立方米 3884
冬天 3883
始终 3883
总是 3883
羽毛 3883
洞穴 3882
陪同 3882
湛@@ 3881
制造@@ 3880
好评 3880
家臣 3880
結論 3880
罕見 3880
守備 3879
拓 3879
歧視 3879
籌 3879
配角 3879
In@@ 3878
選拔 3878
嬰兒 3877
封锁 3877
尾巴 3876
蛋@@ 3876
囚犯 3875
教派 3875
迄今 3875
東縣 3874
嫌@@ 3873
中西 3872
統治者 3872
爆炸@@ 3871
勸@@ 3870
蘭教 3870
113 3869
抬@@ 3869
焦 3869
立方 3869
虛擬 3869
牆@@ 3868
情绪 3867
城内 3866
四十 3865
文集 3865
阿肯色州 3865
联络 3864
蛾 3864
ME@@ 3862
等于 3862
66@@ 3861
多爾@@ 3860
隔離 3860
新宿 3859
1.6 3858
明白 3858
簧 3858
食性 3858
加大 3857
過世 3857
詠 3856
加里 3855
醉@@ 3855
LE@@ 3854
ク 3854
给@@ 3854
ref 3853
景点 3853
磷酸 3853
删除 3852
宫殿 3852
屈 3852
ア 3851
五名 3851
那个 3851
人格 3850
东亚 3848
成年人 3848
收益 3848
本科@@ 3848
練習 3848
Saint 3847
慾 3847
提醒 3847
本書 3847
氏族 3847
氣象局 3847
流经 3847
只得 3845
新秀 3844
深海 3844
细菌 3844
選秀 3844
频 3844
路徑 3843
三部曲 3842
俘虏 3842
物理@@ 3842
魁@@ 3842
創新 3841
罚@@ 3841
语法 3841
辑 3841
59@@ 3840
国防部 3840
海灣 3840
16.@@ 3839
番茄 3839
超市 3839
隨著@@ 3839
鸣 3839
概率 3838
衔 3838
驾@@ 3837
一线 3836
化成 3836
验 3836
排放 3835
濤 3835
加快 3834
淵 3833
特勒 3833
系统@@ 3833
组织部 3833
自立 3833
十一@@ 3831
桿@@ 3831
倒塌 3829
參觀 3829
啊 3829
有效@@ 3829
聞名 3829
90% 3828
〜 3828
梓@@ 3828
際@@ 3828
190 3827
二十三年 3827
緯 3827
大厅 3826
影業 3826
文化遗产 3826
維基 3826
諾夫 3826
輻鰭魚 3826
合肥 3825
复兴 3825
心臟 3825
铸币 3824
塾 3823
捷克斯洛伐克 3823
減弱 3823
缓 3823
两国 3822
俄亥俄州 3822
君士坦丁堡 3822
宣传部 3822
战斗机 3822
發射@@ 3822
病疫情 3821
贺 3820
保健 3819
看作 3819
迁移 3819
分公司 3818
分出 3818
橘@@ 3817
田中 3817
初始 3815
描繪 3815
车手 3815
各州 3814
爬 3814
现今 3814
般@@ 3814
80% 3813
隊友 3813
ä 3812
修订 3812
回族 3812
富豪 3812
航站楼 3812
電流 3812
大赛 3811
披露 3811
海地 3810
任何人 3809
绵@@ 3809
菩薩 3809
角色扮演 3809
保持@@ 3807
正好 3807
痕@@ 3807
負擔 3807
挂@@ 3806
泊@@ 3806
管轄@@ 3806
128 3805
世紀@@ 3805
名義 3805
孜@@ 3805
白俄 3805
1.8 3803
乏 3803
煮 3803
道格拉斯 3803
慎@@ 3802
極大 3802
財團 3802
企劃 3801
國務院 3801
堵@@ 3801
拆卸 3801
组织@@ 3801
逃跑 3801
中文版 3799
向上 3799
转化 3798
高加索 3798
26.@@ 3797
数学家 3797
驻扎 3797
毓@@ 3796
邏輯 3796
7.5 3795
り 3795
彎@@ 3795
战术 3795
桓 3795
述@@ 3795
關聯 3795
防疫 3794
阿瑟 3794
喝 3793
遞 3793
PS 3791
日元 3791
现已 3791
女生 3790
登山 3790
宵 3789
晴 3787
刻有 3786
牧师 3786
音樂會 3786
但後來 3785
旭 3785
维多利亚 3784
美麗 3784
脉@@ 3784
吞 3783
弗拉@@ 3783
贼 3783
有机@@ 3782
賦 3782
Twitter 3781
販售 3781
龍屬 3781
湿@@ 3780
竞赛 3780
系主任 3780
郡王 3780
意指 3779
陝西 3779
侨@@ 3778
外圍 3777
人称 3776
方面军 3776
此劇 3776
爵@@ 3776
訴@@ 3776
贸 3776
分泌 3775
普尔 3775
青岛市 3775
憂 3774
用法 3774
伺服器 3772
機率 3772
謙@@ 3772
日前 3771
非常@@ 3771
僵@@ 3770
洛克@@ 3770
吉爾 3769
文化部 3768
晓 3768
遗产 3768
都城 3768
т 3767
リ 3767
沛 3767
美丽 3767
鸣@@ 3767
据说 3766
開發@@ 3765
威力 3764
涵盖 3764
砌 3764
總計 3764
之稱 3763
國人 3763
景观 3763
埃纳 3762
民国@@ 3762
大綱 3761
水準 3761
站上 3761
華納 3761
多項 3760
鬥爭 3760
奥斯卡 3759
米蘭 3759
习惯 3758
匙 3758
履行 3758
標記 3758
综@@ 3757
趙@@ 3757
遜@@ 3757
地理位置 3756
场地 3756
特種 3756
疼痛 3756
三等 3755
室内 3755
興起 3755
軍艦 3755
家長 3754
雯 3754
不敵 3753
分手 3753
斯拉 3753
決策 3753
一分 3752
劃分 3751
否认 3751
登基 3751
人心 3750
教育局 3750
此類 3750
1892 3749
之役 3749
臥@@ 3749
街頭 3749
領導人 3749
副教授 3748
對手 3748
米哈@@ 3748
下行 3747
植被 3747
ER@@ 3746
阿波罗 3745
驅動 3745
不好 3744
港府 3744
马德里 3744
三层 3743
党组书记 3743
美金 3743
二等 3742
前進 3742
链@@ 3742
77@@ 3741
得票率 3741
蓄 3741
ar@@ 3740
上台 3738
欄 3738
淳@@ 3738
迈 3738
通稱 3737
科下 3736
鵝@@ 3736
氰@@ 3735
0.00 3734
優惠 3734
多樣 3734
很小 3734
煤炭 3734
閩 3734
基尔 3732
科索沃 3732
肩 3732
媽 3730
此舉 3730
40% 3729
神圣 3729
機槍 3728
牢@@ 3728
金色 3728
電壓 3728
俘@@ 3727
键@@ 3727
雷达 3727
29.@@ 3726
县委 3726
灭@@ 3725
获奖 3725
My 3724
總長 3724
1893 3723
内斯 3723
战队 3723
記憶體 3723
阵线 3723
IV 3722
模糊 3722
水扁 3722
沈 3721
非正式 3721
斯图@@ 3720
分數 3719
戰事 3719
混 3719
蕃 3719
道夫 3719
马力 3719
Mac 3718
受邀 3718
日到 3718
极端 3718
炮塔 3718
绘 3718
迭@@ 3718
姿 3717
邸 3716
不應 3715
立法@@ 3715
框 3714
特曼 3714
舒 3714
AP@@ 3713
土司 3712
教育家 3712
斩@@ 3712
民航 3712
諸 3712
高潮 3712
ae 3711
呈现 3711
專屬 3711
懿 3711
指標 3711
男爵 3711
州立 3709
締@@ 3709
臉 3709
富裕 3708
泗@@ 3707
灣省 3707
种族@@ 3707
脊椎 3707
os 3706
取景 3706
帮@@ 3706
织@@ 3706
东南@@ 3705
中世紀 3705
到底 3705
条款 3705
细胞@@ 3705
SS 3704
惡化 3704
转任 3704
迪南 3704
广播公司 3703
榴彈 3703
率部 3703
抽象 3702
无线电 3702
最有 3702
肯塔基州 3702
27.@@ 3701
不列颠 3701
布羅@@ 3701
滇@@ 3701
蒼@@ 3701
竞争@@ 3700
麥克@@ 3700
賜@@ 3699
奖章 3698
联邦@@ 3698
背叛 3697
只會 3696
氮@@ 3696
空襲 3696
疑似 3695
は 3694
腾 3694
發展@@ 3693
擾 3691
殊 3691
粉絲 3691
一幅 3690
紧张 3690
练@@ 3690
胡安 3690
ata 3689
崇 3689
進而 3689
憤怒 3688
瑞拉 3688
ai 3687
新年 3687
不管 3686
扮 3686
率兵 3686
使命 3685
友人 3685
字形 3685
摔角 3685
特人 3685
諭 3685
阿克 3685
114 3684
that 3684
淚 3684
捍@@ 3683
钠 3683
28.@@ 3682
琛 3681
许可 3681
起诉 3681
胆@@ 3680
Type 3679
埃爾@@ 3679
斯克州 3679
雕@@ 3679
RA@@ 3676
一輛 3676
操控 3676
常务@@ 3675
那個 3675
届@@ 3674
廈 3674
煉 3674
69@@ 3673
崇祯 3673
肃@@ 3673
趨勢 3673
遲@@ 3673
擠 3672
有轨电车 3672
杰出 3672
纤维 3672
卡塔 3671
膜@@ 3671
乐器 3670
前線 3670
岑@@ 3670
直升机 3670
認可 3670
订 3670
海军@@ 3669
1884 3668
拆 3668
相遇 3668
褒@@ 3668
低气压 3667
實踐 3667
那不勒斯 3667
高等@@ 3667
w@@ 3666
就读 3666
槍管 3666
车次 3666
Pro 3665
收取 3665
消防@@ 3665
衛視 3665
努斯 3664
人为 3663
悔 3663
耶尔 3663
邁 3663
洛林 3662
七世 3661
之星 3661
塑 3661
巴伐利亚 3661
海盜 3661
公使 3660
潟 3660
二氧化碳 3659
得票 3659
辞去 3659
陞 3659
冰原 3658
剩余 3658
瑙 3658
福克斯 3658
裡的 3658
1887 3657
分化 3657
判断 3657
年後@@ 3657
悠@@ 3657
景點 3657
篇小说 3657
事後@@ 3656
侣 3655
政治局 3655
1886 3654
210 3654
RI@@ 3654
戲院 3654
阵地 3653
一塊 3652
客機 3652
路面 3652
不安 3651
戈尔 3651
等同 3651
而後@@ 3651
赋 3651
封為 3649
當代 3649
當然 3649
蕊 3649
邻近 3649
ch 3648
哉 3648
鳞@@ 3648
停泊 3647
十九@@ 3647
对话 3647
54@@ 3646
建國 3646
之初 3645
伦堡 3645
四方 3645
傑出 3644
動工 3644
抚 3644
之亂 3643
玩法 3643
衰退 3643
伊德 3642
响 3642
啓 3642
民建 3642
西區 3642
愚@@ 3641
沙皇 3641
CH@@ 3640
体操 3640
工学院 3640
博士生 3639
大阪府 3639
打開 3639
找出 3639
撤离 3639
資深 3639
可作 3638
囚禁 3638
or@@ 3637
传教 3637
iOS 3636
握 3635
适 3635
西域 3634
集成 3634
题材 3634
專注 3633
两岸 3632
代表大会 3632
電氣 3632
提起 3631
李氏 3631
理工大学 3631
賠償 3631
水源 3630
渊 3630
衛斯理 3630
錶 3630
j@@ 3629
三角洲 3629
刃 3629
南越 3629
車手 3629
南山 3628
合一 3628
崗 3628
文件@@ 3628
盗 3628
繼任 3628
區內 3627
意圖 3627
液体 3627
堯 3626
总监 3626
濃度 3626
農民 3626
阔@@ 3626
William 3625
一号 3625
嫁给 3625
硅@@ 3624
預告 3624
三座 3623
巾 3623
吐 3622
編組 3622
運送 3622
駕 3622
118 3621
奥斯曼帝国 3621
年幼 3621
級賽 3621
终止 3621
晶片 3620
有功 3620
相隔 3620
稜 3620
第一家 3620
脂@@ 3620
美國國家 3619
陣營 3619
53@@ 3618
椎 3618
品種 3617
眾議院 3617
紫色 3617
堤@@ 3616
廳@@ 3616
正教 3616
治愈 3616
重組 3616
僧人 3614
永安 3614
客運@@ 3612
伯里 3611
生命@@ 3611
加拉 3610
开辟 3610
第二年 3610
趕 3610
雅克 3610
Game 3609
漫威 3609
进军 3609
都尉 3609
握@@ 3608
牺牲 3608
困境 3607
堀@@ 3607
塞克斯 3607
巡洋艦 3607
籃@@ 3607
醒@@ 3607
偏西 3606
1888 3605
像素 3605
was 3604
北非 3603
拖 3603
整修 3603
無關 3603
诺贝尔@@ 3601
高速铁路 3601
含义 3600
書中 3600
杭州市 3600
前来 3599
巡抚 3599
臨床 3599
中隊 3598
五人 3598
原聲 3598
地獄 3598
奢@@ 3598
必然 3598
斤 3598
特鲁@@ 3598
顺利 3598
瓊@@ 3597
园区 3596
橢@@ 3596
育有 3596
手持 3594
地势 3593
神奈川 3593
學界 3592
封鎖 3592
碘 3592
松江 3591
浓度 3591
首長 3591
全身 3589
小學@@ 3589
住所 3588
殼@@ 3588
禪 3588
罪犯 3588
譴責 3588
傘 3587
UB 3586
淵@@ 3586
聰 3586
電路 3586
魅力 3585
杰克 3584
加勒@@ 3583
沧@@ 3583
印第安 3582
夥伴 3582
工事 3582
叉@@ 3580
女演员 3580
守護 3580
纲@@ 3580
臟 3580
电子游戏 3579
皮埃尔 3579
遲 3579
117 3578
寫成 3578
按察使 3578
楚国 3578
比克 3578
海口 3578
AR 3577
James 3577
怨 3577
吕 3576
腸@@ 3576
一組 3575
中斷 3575
科学技术 3575
750 3574
古希腊 3574
射程 3574
尼奥 3573
雅各 3573
依舊 3572
不合 3571
伪 3571
指派 3571
纪委 3571
譜@@ 3571
责@@ 3571
单一 3570
敲出 3569
长约 3569
日間 3568
赛车 3568
为首 3567
發言人 3567
集会 3567
强制 3566
後方 3566
盈 3565
维莱 3565
ana 3564
下台 3564
學家@@ 3564
挪@@ 3564
景觀 3564
百萬 3564
亮度 3563
冕 3563
巴林 3563
日常生活 3563
典礼 3562
变更 3562
哲学家 3562
正統 3562
汉字 3562
真空 3562
评选 3562
浅 3560
Group 3559
團長 3559
小米 3559
此處 3559
苍@@ 3559
防線 3559
电气化 3558
长城 3558
冊@@ 3557
尖沙咀 3557
屋顶 3557
手指 3557
描写 3557
搭载 3557
诊断 3557
酸盐 3557
大片 3556
疏散 3556
下载 3555
同学 3555
期限 3555
中環 3554
合物 3554
滴 3554
破裂 3553
祈@@ 3553
语系 3553
雜的 3553
全力 3552
網友 3552
个体 3551
五代 3551
恐懼 3551
塌 3550
工党 3550
王公 3550
1861 3549
中東 3549
漸 3549
-& 3548
座椅 3548
担@@ 3548
債 3547
巴爾 3547
缴@@ 3547
體積 3547
再也 3546
吉他手 3546
在此期间 3546
大屠杀 3546
拉丁美洲 3546
旗帜 3546
運算 3546
里夫 3546
以免 3544
緩慢 3544
四次 3543
埃德@@ 3543
服装 3543
肅@@ 3543
航海 3543
悬挂 3542
棍 3542
广州@@ 3541
德軍@@ 3541
產量 3540
程序@@ 3540
75@@ 3539
from 3539
檔@@ 3539
护照 3538
泊 3538
狄 3538
確診 3538
茅 3538
里德 3538
en@@ 3537
漢人 3537
環繞 3537
饭 3537
高斯 3537
5.5 3536
78@@ 3536
习近平 3536
緯@@ 3536
農場 3536
填海 3535
存活 3535
展覽@@ 3535
弊 3535
賦予 3535
书写 3534
幕式 3534
六十 3533
塵 3533
幽默 3533
手上 3533
米德 3533
阿布 3533
依賴 3532
倭@@ 3532
分隔 3532
大革命 3532
德曼 3532
前來 3531
年时 3531
损@@ 3531
枯@@ 3531
陣亡 3531
勉@@ 3530
嘲@@ 3530
她@@ 3530
机器人 3530
瓦解 3530
始祖 3529
年级 3529
獨立@@ 3529
л 3527
信件 3527
旅程 3527
明亮 3527
癒 3527
穷 3527
補助 3527
选秀 3527
塔斯 3526
紐約市 3526
1876 3525
吉尔 3525
家庭@@ 3525
蔽 3525
116 3524
2500 3524
銅鑼灣 3524
er@@ 3523
一說 3523
克特 3523
廣為 3523
逼近 3523
胞 3522
基斯 3521
法師 3521
火焰 3521
琼@@ 3521
赛艇 3521
本届 3520
橄榄@@ 3520
眾人 3520
舞曲 3520
茄 3520
总共 3519
淹@@ 3519
韵 3519
三菱 3518
旧金山 3518
術語 3518
配有 3518
灌溉 3517
異常 3517
教材 3516
第二任 3516
水庫 3515
肺 3515
122 3514
AM 3514
玻璃@@ 3514
薦 3514
上場 3513
會社 3513
清军 3512
營運@@ 3512
督察 3512
第二部 3512
算是 3512
二十一年 3511
宁县 3511
心理@@ 3511
天才 3510
尺度 3510
朴 3510
東方@@ 3509
檐 3509
留學 3509
閣@@ 3509
冠军@@ 3508
胆 3508
哨 3507
違 3507
坠@@ 3506
誓 3506
愿@@ 3505
维埃纳 3505
茱@@ 3505
修斯 3504
不变 3503
旱 3503
最強 3503
特别@@ 3503
直隸@@ 3503
腾@@ 3503
開展 3503
发源 3502
所述 3502
架构 3502
羅馬@@ 3502
味道 3501
水下 3501
奪取 3499
栖@@ 3499
預 3499
转为 3498
一處 3496
奴隸 3496
宣传@@ 3496
巴士站 3496
科长 3496
100@@ 3495
京城 3495
册@@ 3495
太保 3494
梧@@ 3494
看出 3494
缺席 3494
肢@@ 3494
伯恩 3493
亭@@ 3492
俄语 3492
公會 3492
理工学院 3492
總統府 3492
條目 3491
醫學院 3491
禹 3490
鑽 3490
锋@@ 3490
拜仁 3489
盆 3489
髓 3489
一至 3488
大奖赛 3488
領銜 3488
属性 3487
正值 3487
股東 3487
争夺 3486
ic@@ 3485
各大 3485
捨 3485
阅@@ 3485
債@@ 3484
发送 3484
总管 3484
托斯 3484
沿着 3484
神明 3484
途徑 3483
判官 3482
擒 3482
經濟學 3482
閒@@ 3482
十七@@ 3481
同性恋 3481
内存 3480
交战 3479
螢幕 3479
同進士 3478
视觉 3478
诸多 3478
之後在 3477
保定 3477
則有 3477
医学@@ 3477
瞄準 3477
薩克 3477
劣@@ 3476
锐 3476
奕 3475
改组 3475
救出 3475
最终幻想 3475
概况 3475
в 3474
不易 3474
诸如 3474
ISO 3473
屠杀 3473
義務 3473
該劇 3473
际@@ 3473
一把 3472
兩座 3472
單一 3472
塔恩 3472
婚禮 3472
安德森 3472
气温 3472
百貨 3471
動態 3470
命運 3470
歌剧 3470
疊 3470
磁場 3470
ol@@ 3469
纪念馆 3469
缓慢 3469
儀器 3468
威尔士 3468
畏@@ 3468
之女 3467
共計 3467
少將 3467
建交 3467
維斯 3467
名詞 3466
壁画 3466
最後在 3466
港鐵 3466
踢@@ 3466
提供@@ 3465
殿試 3465
過往 3465
風力 3465
总结 3464
魂@@ 3464
氧化物 3463
絡 3463
犧牲 3462
签证 3462
天子 3461
绩 3461
音符 3461
上限 3459
安全性 3458
藏族 3458
將在 3457
观察@@ 3457
阿曼 3457
IG@@ 3456
祂 3456
第三季 3456
個性 3455
围攻 3454
珊@@ 3454
紡@@ 3454
其间 3453
李克@@ 3453
江县 3453
辯論 3453
准确 3452
正如 3452
职能 3452
001 3451
79@@ 3451
剧场 3451
擔當 3451
铎 3451
后任 3450
抒@@ 3450
霹@@ 3450
三百 3449
发言人 3449
地方法院 3449
多半 3449
大奖 3449
就要 3449
拉丁语 3449
诚@@ 3449
階層 3449
1.3 3448
會面 3448
現代化 3448
生子 3448
刑事@@ 3447
普罗旺斯 3447
淀@@ 3447
祕 3447
A1 3446
投影 3446
星座 3446
時區 3446
主义@@ 3445
学士学位 3444
调查@@ 3444
127 3443
二級 3443
客户 3443
海市 3443
調查局 3443
選民 3443
同為 3442
寺庙 3442
若望 3442
藏品 3442
if 3441
第十二 3441
选民 3441
伤害 3440
消費 3440
iPhone 3439
廟宇 3439
陪 3439
外型 3438
已故 3437
政務@@ 3437
相連 3437
超出 3436
马克思主义 3436
德森 3435
清治 3435
硫酸 3435
1891 3434
代碼 3434
擴大@@ 3433
習俗 3433
衫 3433
北區 3432
An@@ 3431
成像 3431
队友 3430
馨 3430
孤立 3429
这位 3429
在此之前 3428
散文 3428
樞機 3428
淘@@ 3428
霞@@ 3428
高祖 3428
格羅@@ 3427
男友 3427
歐元 3426
犀@@ 3426
統一@@ 3426
过渡 3426
阵亡 3426
前後@@ 3425
к 3424
並稱 3424
內設 3423
动态 3423
米爾 3423
電信 3423
全书 3422
让@@ 3422
ed 3421
影视 3421
會堂 3421
纳斯 3421
擢 3420
西大區 3420
平壤 3419
121 3418
右手 3418
倾@@ 3417
受損 3417
301 3416
奧克@@ 3416
市场@@ 3416
公民@@ 3415
天文学家 3415
庐@@ 3415
普魯士 3415
职业@@ 3415
频繁 3415
左岸 3414
憑@@ 3414
染病 3414
確保 3414
轰炸机 3414
马尔 3414
一辆 3413
甲級 3413
123 3412
細菌 3412
未曾 3411
讨伐 3411
76@@ 3410
放出 3410
漲 3410
獸@@ 3410
200@@ 3409
寂 3409
布爾@@ 3409
猛烈 3409
跃@@ 3408
之际 3407
傳遞 3407
固体 3407
土星 3407
专用 3406
发电机 3406
奠@@ 3406
蒿 3406
讲话 3406
工商@@ 3405
香山 3405
克莱 3404
宁夏 3404
莱尔 3404
财富 3404
局势 3403
落入 3403
吸血鬼 3401
混血 3401
董事会 3401
调节 3401
大气 3400
業界 3400
銀牌 3400
修行 3399
全家 3399
后方 3399
多德 3399
潮流 3399
驅逐艦 3399
上法蘭 3398
澄清 3398
皮肤 3398
指引 3397
不便 3396
儲 3396
白天 3396
详@@ 3396
副局长 3395
右岸 3395
晨 3395
某種 3395
爪哇 3395
咨询 3394
坝@@ 3394
瑾 3393
範疇 3393
嚇 3392
崑 3392
边区 3392
鄒@@ 3392
青衣 3392
叠@@ 3391
柔道 3391
襪 3390
家屬 3389
无锡 3389
肅 3389
閘 3389
弗洛@@ 3388
毗@@ 3388
端的 3388
〔 3387
勳@@ 3387
偉大 3386
钾 3386
〕 3384
江湖 3384
罚 3384
剌 3383
遺跡 3383
260 3382
公務員 3382
媽@@ 3382
歌迷 3381
級別 3381
苏军 3381
党派 3380
完結 3380
根据地 3380
酿@@ 3380
are 3379
城中 3379
新式 3379
梅克@@ 3379
民俗 3379
總教練 3379
岐@@ 3378
布雷@@ 3378
玉米 3378
稽 3378
頌 3378
AP 3377
人造 3377
仪器 3377
奧運@@ 3377
答案 3377
贷款 3377
下水 3376
主导 3376
國外 3376
峽 3376
圭 3375
尼拉 3375
是非 3375
遺體 3375
1850 3374
斯巴@@ 3374
水位 3374
射器 3373
日本海 3373
釜山 3373
厚度 3372
威爾斯 3372
棱@@ 3372
識別 3372
1.1 3371
二者 3371
傍晚 3371
蹄@@ 3371
am@@ 3370
駒 3370
di 3369
介面 3369
撕@@ 3369
红旗 3369
脂肪 3369
填 3368
實質 3368
对比 3368
運營 3368
上尉 3367
六四 3367
銅牌 3367
號碼 3366
演變 3365
石刻 3365
緻 3365
板块 3364
警察@@ 3364
辛格 3364
捉@@ 3363
下设 3362
商务@@ 3362
大门 3362
朱元璋 3362
登场 3362
确立 3362
西克 3362
全台 3361
领导小组 3361
猪@@ 3360
心理学 3359
菲利@@ 3359
还原 3359
高出 3359
Robert 3358
分開 3358
山顶 3358
便宜 3357
帕克 3357
禧@@ 3357
經營@@ 3357
街区 3357
三千 3355
曾一度 3355
梅斯 3355
線性 3355
不足以 3354
火灾 3354
烤 3354
百合 3354
鑄@@ 3354
光譜 3353
弄@@ 3353
名譽 3352
掌控 3352
图形 3351
改設 3351
浙 3351
竞技 3351
順治 3351
拉尼 3350
浆 3350
物流 3350
電梯 3350
鰍 3350
无论 3349
牌照 3349
的士 3349
武術 3348
滤@@ 3348
1883 3346
地區@@ 3346
存者 3346
晶体 3346
考古@@ 3346
中国国民党 3345
探测器 3345
正義@@ 3345
爾曼 3345
確立 3344
EN@@ 3343
圍賽 3343
夫區 3343
西湖 3343
争论 3342
原著 3341
常规 3341
璧 3341
醬 3341
Paul 3340
世界排名 3340
大隊 3340
洋行 3340
鑑@@ 3340
阿拉伯@@ 3340
同情 3339
永远 3339
節度 3339
菇 3339
血統 3339
顶部 3339
格局 3338
车型 3338
AL 3337
IT 3337
停车场 3337
名人堂 3337
弦@@ 3337
江蘇 3337
當選@@ 3337
马拉 3337
1862 3336
停車 3336
多姆 3336
档案 3336
卑斯山 3335
是羅馬尼亞 3335
獎金 3335
交涉 3334
歷史@@ 3334
辩论 3334
炸 3333
縫 3333
澳門@@ 3332
过于 3331
盔 3330
緬@@ 3330
魯斯 3330
夜晚 3329
总会 3328
明市 3328
职员 3328
民用 3327
焦點 3327
編制 3327
德甲 3326
版權 3326
號的 3326
釋出 3326
中視 3325
临床 3325
比率 3325
爸爸 3325
贬@@ 3325
卡利 3324
原文 3324
媽媽 3323
岱 3323
游击队 3323
郑 3323
IBM 3322
朗德 3322
半徑 3321
商船 3321
英镑 3321
陝@@ 3321
刑法 3320
封闭 3320
族自治州 3320
查爾斯 3320
精度 3320
運會 3320
奏曲 3319
峡@@ 3319
軍籍 3319
閥 3319
交會 3318
你们 3318
四等 3318
二十二年 3317
新世 3317
易名 3317
自幼 3317
荃 3317
鞍@@ 3317
ina 3316
會員@@ 3316
淪@@ 3316
董 3316
客运@@ 3315
总长 3315
提督 3315
皇太后 3315
鞍山 3315
對外 3314
漆@@ 3314
氯化 3313
空調 3313
绍兴 3313
评论家 3313
阿拉伯人 3313
工业部 3312
曼聯 3312
二十四年 3311
哈尔@@ 3311
策划 3311
一連串 3310
密歇@@ 3310
拉里 3310
百分@@ 3310
1868 3309
官方@@ 3308
语音 3308
金錢 3308
鈞 3308
香港中文 3308
为期 3307
導彈 3307
悉@@ 3307
辩@@ 3307
雙方@@ 3307
二十九年 3306
原市 3306
后面 3306
投訴 3306
早晨 3306
此曲 3306
纽约市 3306
菲爾德 3306
刻意 3305
勒姆 3305
南道 3305
各類 3305
建安 3305
急性 3305
週末 3305
ッ 3304
波尔 3304
西蒙 3304
大殿 3303
电压 3303
語的 3303
谢尔省 3303
使用@@ 3302
保守派 3302
出版@@ 3302
长达 3302
籃 3301
巡回@@ 3300
新竹市 3300
汉堡 3300
船员 3300
鱸@@ 3300
Java 3299
依赖 3299
曲線 3299
格利 3299
雾 3299
五位 3298
be 3297
棉花 3297
玛丽亚 3297
分类法 3296
叛 3296
大海 3296
神奇 3296
琼斯 3295
英屬 3295
燃燒 3294
74@@ 3293
SU@@ 3293
军舰 3293
听到 3293
城邦 3293
第二批 3293
Mar@@ 3292
日语 3292
檀@@ 3292
渠@@ 3291
升至 3290
生下 3290
佩里 3289
化身 3289
参观 3289
桌 3289
欠 3289
歇 3289
艰@@ 3289
灌木 3288
诺曼底 3288
专利 3287
保有 3287
加特 3287
安哥拉 3287
山城 3287
等奖 3287
办公@@ 3286
相鄰 3286
身邊 3286
鄉村 3286
共產@@ 3285
形势 3285
相繼 3285
侍中 3284
喻 3284
新世界 3284
净 3283
菱@@ 3283
追加 3283
重心 3283
紛@@ 3282
神祇 3281
荣获 3281
随之 3281
ac@@ 3280
上將 3280
乡镇 3280
光学 3280
半球 3280
商業@@ 3280
崔 3280
斯普@@ 3280
甲烷 3280
发电 3279
四分之一 3279
膏 3279
首領 3279
龙省 3279
北角 3278
国主义 3278
窑 3278
US 3277
交通局 3277
使徒 3277
和尚 3277
国务@@ 3277
委內 3277
糧食 3277
资本主义 3277
车道 3277
办学 3276
汽油 3276
狮 3276
Apple 3275
标题 3275
矢 3275
逃出 3275
驳 3275
兰语 3274
常有 3274
降水 3274
分院 3273
波德 3273
討伐 3273
ica 3272
北洋 3272
就算 3272
雲林縣 3272
之歌 3271
埋葬 3271
齿@@ 3271
体育馆 3270
费尔@@ 3270
转入 3270
ま 3269
弗朗@@ 3269
随机 3269
μ 3268
一个月 3268
汗@@ 3268
絡@@ 3268
萨克森 3268
关键@@ 3267
炼 3267
貿 3267
CA 3266
微生物 3266
替换 3266
欣賞 3266
风速 3266
拉瓦 3265
滲@@ 3265
失踪 3264
干擾 3264
日治@@ 3264
石碑 3264
AD@@ 3263
开播 3263
全能 3262
綜@@ 3262
即便 3261
客人 3261
帽子 3261
旗幟 3261
金鐘 3261
兩地 3260
发育 3260
颜 3260
饱@@ 3260
兴起 3259
民事 3259
纽约州 3259
舜@@ 3259
弃@@ 3258
探討 3258
闸 3258
Michael 3257
Super 3257
學園 3257
底下 3257
证书 3257
飞船 3257
@ 3256
主人公 3256
塑料 3256
1867 3255
凉 3255
总数 3255
奥林匹克 3254
東邊 3254
宫廷 3252
攜@@ 3252
苹果 3252
li 3251
不必 3251
中央人民政府 3251
寄 3251
川县 3251
簡化 3251
繁荣 3251
MI@@ 3250
分析@@ 3250
嘎@@ 3250
演講 3250
砍@@ 3250
さ 3249
喉 3249
布蘭@@ 3249
磷 3249
as@@ 3248
主委 3248
地貌 3248
布什 3248
帳 3248
逐出 3248
da 3247
大洋洲 3247
福德@@ 3247
精确 3247
頂點 3247
小镇 3246
平反 3246
混合@@ 3246
三級 3245
重点@@ 3245
一書 3244
瓷 3244
离婚 3244
光子 3243
內外 3243
综合性 3243
耕 3243
觀看 3243
一一 3242
人工@@ 3242
加尔@@ 3242
預防 3242
优 3241
峡 3241
浴 3241
专科学校 3240
五千 3240
二期 3239
伊斯@@ 3239
優先 3239
压缩 3239
沙特阿拉伯 3239
体验 3238
懷孕 3238
毛澤東 3238
瑛 3238
肖像 3238
ang 3237
世俗 3237
医疗@@ 3237
神學 3237
世家 3236
侏@@ 3236
充足 3236
寒冷 3236
电流 3236
蜿蜒 3236
運河 3236
长大 3236
僅僅 3235
陸地 3235
古建筑 3234
开启 3234
联邦政府 3234
选出 3233
出院 3231
宇航员 3231
阿姆斯特丹 3231
体积 3230
花費 3230
悦 3229
聯邦@@ 3229
海平面 3228
粗體 3228
評為 3228
動機 3227
清洗 3227
準確 3227
凍 3226
凭 3226
合格 3225
餘人 3225
平息 3224
捕捉 3224
轟@@ 3224
代号 3223
塞特 3223
撤離 3223
時常 3223
渝 3223
迁往 3223
俗名 3222
干燥 3222
電影節 3222
验证 3222
側式 3221
用到 3221
加热 3220
哈萨克斯坦 3220
教導 3220
哈利@@ 3219
马来@@ 3219
剧团 3218
弗雷德里克 3218
茹 3218
550 3217
IS 3217
罐 3217
遠鏡 3217
² 3216
后于 3216
負責人 3216
巨型 3215
时刻 3215
偶然 3214
是屬 3214
應付 3213
毛利 3213
米特 3213
椭@@ 3212
穿過 3212
供电 3211
剧集 3211
德米特里 3211
起源于 3211
推测 3210
珍珠 3210
做到 3209
盆@@ 3209
奥弗涅 3208
搜查 3208
普查 3208
湧@@ 3208
纠@@ 3208
貼@@ 3208
1848 3207
趁 3207
後續 3206
此案 3206
近年来 3206
宁市 3205
河水 3205
音乐学院 3205
1873 3204
淹 3204
耶和@@ 3204
蜘蛛 3204
貸款 3204
陶瓷 3204
搬迁 3203
小提琴 3202
猿 3202
经由 3202
致敬 3202
1878 3201
专 3201
晉升 3201
機械@@ 3201
此类 3201
導師 3200
提取 3200
殺手 3200
膛 3199
襄 3199
320 3198
先是 3197
瑪麗亞 3197
胡志@@ 3197
辅 3197
70% 3196
ا 3196
篡@@ 3196
罕见 3196
金正@@ 3196
服用 3195
法蘭 3195
一層 3194
基础设施 3194
溶 3194
禹@@ 3194
策劃 3194
鞋@@ 3194
體育@@ 3194
が 3193
種植 3193
124 3192
大理 3192
总决赛 3192
新四军 3192
氣溫 3192
业余 3191
发行@@ 3191
夜间 3191
大于 3191
白俄罗斯 3191
隨機 3191
て 3190
基部 3190
运算 3190
僑@@ 3189
十字@@ 3189
堪薩斯州 3189
注目 3189
猎 3189
考生 3189
145 3188
朔 3188
紀念碑 3188
梭 3187
涼 3187
DJ 3186
出使 3186
汪 3186
游泳池 3186
制片人 3185
力士 3185
安德尔 3185
该书 3185
魔戒 3185
威廉斯 3184
手工 3184
浸 3184
联合国@@ 3184
Oricon 3183
愛爾蘭@@ 3183
沿线 3183
系数 3183
丧@@ 3182
师范学校 3182
机务段 3182
法规 3182
老鼠 3182
克里斯蒂安 3181
擺 3181
諡 3181
难民 3181
建筑群 3180
笼 3180
糾@@ 3180
National 3179
u@@ 3178
一郎 3178
加冕 3178
區議會 3178
州人 3178
皇子 3178
1864 3177
1879 3177
书中 3177
悼 3177
撰@@ 3177
望远镜 3177
碩@@ 3177
並對 3176
原创 3176
战败 3176
暗中 3176
看台 3176
1.4 3175
四川@@ 3175
摆@@ 3175
率军 3175
章程 3175
诉@@ 3175
关押 3174
利安 3174
年生 3174
探测 3174
時空 3174
物資 3174
oc@@ 3173
歐洲@@ 3172
牢 3172
翔@@ 3172
锁@@ 3172
本质 3171
西太平洋 3171
餘下 3171
ATP 3170
中尉 3170
GDP 3169
SA@@ 3169
多为 3169
甸@@ 3169
钩 3169
防衛 3169
不了 3168
中美洲 3168
华侨 3168
地板 3168
戰績 3168
1877 3167
笼@@ 3167
缝 3167
莽 3167
限于 3167
性行 3166
县长 3165
实验@@ 3165
き 3164
克服 3164
官吏 3164
專欄 3164
打败 3164
合稱 3163
出版物 3162
湿地 3162
發達 3162
壽命 3161
苔 3161
辛亥革命 3161
首爾@@ 3161
一個種 3160
事先 3160
巴哈 3160
穷@@ 3160
羞@@ 3160
袋@@ 3160
銀河 3160
96@@ 3159
共产@@ 3159
原版 3159
封閉 3159
屋頂 3159
直流 3159
一说 3158
停播 3158
可供 3158
子弟 3158
波斯@@ 3158
療 3158
内外 3157
多面 3157
最佳@@ 3157
累計 3157
节日 3156
還會 3155
饭店 3155
Sh@@ 3154
剖@@ 3154
樞@@ 3154
甜 3154
犯罪@@ 3153
抓住 3152
會產生 3152
遷移 3152
二十六年 3151
反擊 3151
彎 3150
擴建 3150
爭論 3150
跌 3150
執法 3149
少卿 3149
右派 3148
日后 3148
窩 3148
終於@@ 3148
训练@@ 3148
SM 3147
狸 3147
一体 3146
丧生 3146
动画@@ 3146
域@@ 3146
摇@@ 3146
產物 3146
拉曼 3145
病患 3145
迅@@ 3145
ate 3144
刪除 3144
莱德 3144
蕩 3144
该堂 3144
CPU 3143
作法 3143
丢@@ 3142
屡@@ 3142
源地 3142
畅@@ 3142
自從 3142
伊凡 3141
制造商 3141
影音 3141
斯蒂 3141
旁边 3141
虞 3141
受体 3140
弗拉 3140
顺治 3140
CD@@ 3139
岐 3139
損害 3139
6.5 3138
三號 3138
取决于 3138
推移 3138
示器 3138
禁令 3138
继任 3138
伊特 3137
司马@@ 3137
网上 3137
内有 3136
富山 3136
ot@@ 3135
原生 3135
否認 3135
蒙古族 3135
8000 3134
伙@@ 3134
出生@@ 3134
ES@@ 3133
克劳@@ 3133
普法尔茨 3133
皖@@ 3133
禽 3133
山村 3132
差別 3132
芜@@ 3131
輕人 3131
不丹 3130
剛果 3130
泄@@ 3130
測器 3130
滿洲 3129
激 3129
綴 3129
BS 3128
老院 3128
轉播 3128
DE@@ 3127
委员长 3127
泵 3127
购 3127
動詞 3126
弗朗什 3126
手球 3126
用水 3126
米格 3126
中位 3125
奈良 3125
段落 3125
计算机@@ 3125
邮件 3125
雖然@@ 3125
年秋 3123
强化 3123
师长 3122
內政部 3121
方位 3121
法学 3121
肯尼迪 3121
北周 3120
旁邊 3120
美少女 3120
韦尔 3120
专业@@ 3119
匡@@ 3119
国民革命军 3119
每週 3119
瓦兹省 3119
光度 3118
始終 3118
對立 3118
幼 3118
行政村 3118
大连@@ 3117
掉@@ 3117
收获 3117
胶 3117
琅 3116
中队 3115
土耳其@@ 3115
奖励 3115
山路 3115
股东 3115
自家 3115
芯 3115
蔚@@ 3115
证券@@ 3115
逃離 3115
外借 3114
欢 3114
去年 3113
反对@@ 3113
日軍@@ 3113
格魯@@ 3113
首支 3113
庚 3112
曾效力 3112
短缺 3112
希德 3111
比爾 3111
相接 3111
识@@ 3111
斯洛文@@ 3110
黑洞 3110
冠名 3109
清初 3109
溢@@ 3109
电气 3109
頂級 3109
人性 3108
小心 3108
版权 3108
C++ 3107
TV@@ 3107
公安部 3107
隱藏 3107
1875 3106
事务所 3106
米亚 3106
肃 3106
度假 3105
稻 3105
東路 3104
罹患 3104
高等学校 3104
卡片 3103
宿主 3103
榜首 3103
由該 3103
新娘 3102
Co@@ 3101
乡试 3101
加尔 3101
编程 3101
回國 3100
執政@@ 3100
體重 3100
元代 3099
提早 3099
活躍@@ 3099
650 3098
传奇 3098
正規 3098
釐 3098
1865 3097
刷 3096
反叛 3096
辦公@@ 3096
亚斯 3095
及第 3095
涨 3095
籠 3095
這位 3095
效益 3094
永樂 3094
1882 3093
杭 3093
City 3092
七個 3092
值得注意 3092
意義@@ 3092
收费 3092
第三方 3092
恶化 3091
榴@@ 3091
所著 3090
武田@@ 3090
肠 3090
艾伦 3090
SM@@ 3088
尼尔 3088
本質 3088
永康 3088
王家 3088
32@@ 3087
圍繞 3087
上马 3086
剪 3086
將來 3086
戰中 3086
日記 3086
假面 3085
区内 3084
奉行 3084
美國陸 3084
酵 3084
前锋 3083
島峰 3083
歧视 3083
車廠 3083
召回 3082
宰@@ 3082
一律 3081
塑造 3081
近海 3081
並由@@ 3080
付出 3080
议长 3080
霍尔 3080
129 3079
1881 3079
廂 3079
挡 3079
瓦特 3079
第四名 3079
降水量 3079
债务 3078
目脂 3078
茜 3078
动机 3077
存有 3077
效忠 3077
至元 3077
宜蘭 3076
根據@@ 3076
漳州 3076
等式 3076
IM@@ 3075
发布会 3075
天主教徒 3075
巡航 3075
荊@@ 3075
趋势 3075
躲避 3075
伴随 3074
入伍 3073
磚@@ 3073
首尔 3073
口号 3072
司职 3072
海滩 3072
糧 3072
进展 3072
罢工 3071
联络@@ 3071
莫里斯 3071
伊勒 3070
單車 3070
攻破 3070
秘 3070
第十三 3070
綿@@ 3070
霧@@ 3070
折返 3069
民族主义 3069
聲優 3069
分治 3068
广播电视 3068
某個 3068
终身 3068
鬧 3068
伴奏 3067
冤@@ 3067
匹配 3067
國中 3067
幼稚 3067
托利 3067
第二期 3067
音乐会 3067
傲 3066
帕尔@@ 3066
所示 3066
仑 3065
尼日利亚 3065
摄影@@ 3065
纵 3065
美的 3065
鸿 3065
滴@@ 3064
监管 3064
配樂 3064
不見 3063
别墅 3063
歷經 3063
社会党 3063
胰@@ 3063
保卫 3062
安南 3062
鰓 3062
戰前 3061
營養 3061
F1 3060
墳 3060
李登輝 3060
菲尔 3060
表述 3060
傳出 3059
华东@@ 3059
常數 3059
詮釋 3059
變動 3059
酵@@ 3059
窦@@ 3058
虐 3058
半决赛 3057
海道 3057
淮南 3057
發電@@ 3057
不起 3056
哈爾@@ 3056
沿著 3056
终点 3055
來往 3054
台大 3053
村级 3053
樸 3053
邹@@ 3052
汽 3051
飞行@@ 3051
三家 3050
做好 3050
等到 3050
Go 3049
凤凰 3049
特省 3049
赋予 3049
可行 3048
媒介 3048
石川 3048
西汉 3048
多重 3047
手稿 3047
政府军 3047
退伍 3047
利沃夫 3046
登錄 3046
礁@@ 3046
onlyinclude 3045
名誉 3045
嘉庆 3045
国会议员 3045
岁@@ 3045
戚@@ 3045
旅客列车 3045
绝大多数 3045
八世 3044
回去 3044
萨斯 3044
175 3043
之心 3043
幾內亞 3043
梓 3043
無人車 3043
趋@@ 3043
兵團 3042
女皇 3042
岑 3042
汉口 3042
販@@ 3042
传动 3041
先進 3041
动车 3041
墮@@ 3041
2.2 3040
保护区 3040
孵@@ 3040
展现 3040
猶 3040
評級 3040
博士@@ 3039
樓宇 3039
處理@@ 3039
一子 3038
人家 3038
小鎮 3038
愛知 3038
计划@@ 3038
运会 3038
迟@@ 3038
Par@@ 3037
喻@@ 3037
獎牌 3037
126 3036
60% 3036
飛行員 3036
一时期 3035
邱 3035
AB@@ 3034
MP@@ 3034
因病 3034
汾@@ 3034
呂 3033
轨@@ 3033
堡垒 3032
曉 3032
滚@@ 3032
特快 3032
玉山 3032
总公司 3031
日圓 3031
診 3031
貢士 3031
重慶 3031
為界 3030
中小 3029
受命 3029
山本 3029
棵 3029
尼克斯 3028
总统@@ 3028
感謝 3028
慣@@ 3028
濕 3028
鹤 3028
HK@@ 3027
佛山 3027
索姆省 3027
衛隊 3027
东方@@ 3026
姜 3026
梅里 3026
橫濱 3026
起点 3026
鍊 3026
宠@@ 3025
擴充 3025
水流 3025
绘@@ 3025
菸 3025
兼容 3024
流域面积 3024
海豚 3024
梅尔 3023
空中@@ 3023
索恩 3023
继位 3023
詹姆士 3023
連線 3023
鰕 3023
定向 3022
以示 3021
反共 3021
節奏 3021
縣名 3020
聚合物 3020
並向 3019
挫@@ 3019
捐赠 3019
敷 3019
钧 3019
回歸@@ 3018
指責 3018
終身 3018
启 3017
四日 3017
秀吉 3017
陽光 3017
驾驶@@ 3017
Th@@ 3016
倫斯 3016
勇敢 3016
弗里德里希 3016
罗马@@ 3016
金陵 3016
马里@@ 3016
鹅 3016
动词 3015
士官 3015
MTV 3014
name 3014
底特律 3014
軍在 3014
扇@@ 3013
贴@@ 3013
王氏 3012
失效 3011
新石器 3011
棲性 3011
莉亞 3011
155 3010
博物院 3010
东德 3009
互动 3009
有限责任 3009
GO@@ 3008
师团 3008
聖殿 3008
輿論 3008
SS@@ 3007
一是 3007
卢森堡 3007
里斯本 3007
at@@ 3006
冶@@ 3006
埗 3006
特殊@@ 3006
語音 3006
辈 3006
黜 3006
人体 3005
巴拉圭 3005
趨 3005
科普 3004
卡斯特 3003
參數 3003
不肯 3002
世祖 3002
叔叔 3002
暴動 3002
船厂 3002
亞馬遜 3001
奸@@ 3001
肿瘤 3001
莓 3001
87@@ 3000
可达 3000
會議員 3000
續集 3000
區分 2999
喜爱 2999
蚌@@ 2999
部族 2999
鑒 2999
並曾 2998
文艺 2998
朝鲜半岛 2998
烏斯 2998
蔭@@ 2998
1874 2997
命运 2997
獲取 2997
腐败 2997
陽縣 2997
Entertainment 2996
un@@ 2996
波羅@@ 2996
彻 2995
潜在 2995
成都市 2994
投身 2994
羅德 2994
来看 2993
魁北克 2993
63@@ 2992
半径 2992
喬治@@ 2992
na 2991
全名 2991
勞動@@ 2991
巴哈@@ 2991
會區 2991
ation 2990
十字架 2990
武功 2990
裙 2990
觀塘 2990
躲@@ 2990
豪斯 2989
道奇 2989
噪音 2988
斯泰因 2988
頜 2988
30.@@ 2987
大大@@ 2987
推迟 2987
時至 2987
CP 2986
渴望 2986
炼@@ 2986
瑞斯 2986
连任 2986
下滑 2984
變為 2984
阿仙奴 2984
黑山 2984
YO@@ 2983
及时 2983
目录 2983
东海 2982
斯洛@@ 2982
朝鮮@@ 2982
石油@@ 2982
變換 2982
首演 2982
119 2981
企 2981
奧斯曼 2981
明帝 2981
流电 2981
观念 2981
De@@ 2980
四季 2980
鄉道 2980
领先 2980
1840 2979
丁目 2979
伙伴 2979
兩項 2979
打進 2979
技術@@ 2979
时报 2979
超新星 2979
1863 2978
一根 2978
共振 2978
冰球 2978
水量 2978
苻 2978
詐 2978
諧 2978
面具 2978
專利 2977
摩托@@ 2977
站点 2977
譯名 2977
次郎 2976
民居 2976
电视节目 2976
一文 2975
生素 2975
科大 2975
飾@@ 2975
os@@ 2974
岬 2974
效能 2974
es@@ 2973
ら 2973
出租 2973
大军 2973
株@@ 2973
港台 2973
緊張 2973
虫@@ 2973
魔鬼 2973
THE 2972
说服 2972
选中 2972
音源 2972
蕨@@ 2971
傳入 2970
攔@@ 2970
新一代 2970
议席 2970
太空@@ 2969
奪冠 2968
篤 2968
投票@@ 2967
方针 2967
一番 2966
乌鲁木齐 2966
去除 2966
叙 2966
附有 2966
25% 2965
英国人 2965
7000 2964
冒险 2964
润 2964
底質 2963
法典 2963
烃 2963
飯店 2963
シ 2962
千里 2962
天文@@ 2962
山下 2962
擊隊 2962
演唱会 2962
演藝@@ 2962
矮星 2962
确实 2962
秘鲁 2962
第五次 2962
美术馆 2962
蕭 2962
长时间 2962
Netflix 2961
冷却 2961
喪 2961
永乐 2961
矛@@ 2961
优化 2960
师范 2960
瞄@@ 2960
亞視 2959
偽 2959
剧中 2959
司機 2959
否则 2959
数值 2959
療@@ 2959
諸葛@@ 2959
谦 2959
霸王 2959
图片 2958
校址 2958
万立方米 2957
当晚 2957
所生 2957
西夏 2957
发电@@ 2956
株式 2956
喪失 2955
月亮 2955
1872 2954
ap@@ 2954
不停 2954
城门 2954
懸掛 2954
睡眠 2954
袁 2954
共和@@ 2953
巴比 2953
级市 2953
维斯 2953
斬@@ 2952
渠道 2952
解体 2952
趨@@ 2952
US@@ 2951
並開始 2951
勇者 2951
無法@@ 2951
特工 2951
轄下 2951
豪森 2950
Car@@ 2949
大東部 2949
此種 2949
聯盟@@ 2949
System 2948
do 2948
放大 2948
Open@@ 2947
件@@ 2947
地底 2947
密西西比@@ 2947
科特 2947
86@@ 2946
接種 2946
檢驗 2946
箕 2946
中性 2945
希腊语 2945
意识形态 2945
纤@@ 2945
陣線 2945
HK 2944
專員 2944
文法 2944
陡@@ 2944
將於 2943
被誉为 2943
解析 2943
跳舞 2943
进化 2943
阿德 2943
卸@@ 2942
名额 2942
样本 2942
动工 2941
地委 2941
塞拉 2941
拉格 2941
本来 2941
霜 2941
270 2939
補給 2939
认同 2939
中南 2938
動物@@ 2938
安东尼 2938
皇太子 2938
納德 2938
晋国 2937
相應 2937
成员国 2936
阿波@@ 2936
之内 2935
情片 2935
艱@@ 2935
鸭@@ 2935
修女 2934
诺尔 2934
屢@@ 2933
昏 2933
构建 2933
爾德@@ 2933
現已 2933
繼承人 2933
腎@@ 2933
分区 2932
厭@@ 2932
車票 2932
達爾 2932
雷德 2932
交出 2931
填詞 2931
干扰 2931
精確 2931
總署 2931
HO@@ 2930
駛 2930
功臣 2929
太陽系 2929
派兵 2929
降级 2929
侵入 2928
出面 2928
澀 2928
糧@@ 2928
光碟 2927
印度教 2927
杂 2927
貶@@ 2927
台南市 2926
太太 2926
客运专线 2926
西端 2926
關東 2926
围棋 2925
文艺复兴 2925
紧 2925
起義 2925
身穿 2925
偏南 2924
基區 2924
決心 2924
羌 2924
布尔@@ 2923
灵感 2923
現行 2923
觀賞 2923
這麼 2923
骗 2923
之位 2922
和弦 2922
塔爾@@ 2921
帝王 2921
意图 2921
印第安人 2920
穿着 2920
族自治县 2919
聶@@ 2919
氟化 2918
窮 2918
你@@ 2917
写成 2917
胞胎 2917
酚 2917
营业 2916
辛普森 2916
千名 2915
在世 2915
芹 2915
評論家 2915
阿爾及 2915
上线 2914
省立 2914
警署 2914
遗体 2914
鸦@@ 2914
保守@@ 2913
內容@@ 2913
台风 2913
哀 2913
撥@@ 2913
两台 2912
沙特 2912
腓@@ 2912
帛 2911
戏剧@@ 2911
极为 2911
估算 2910
專線 2910
文档 2910
条目 2910
消散 2910
綽號 2910
西伯利亚 2910
場所 2909
大清 2909
巳 2909
谋杀 2909
奖牌 2908
结构@@ 2908
逃到 2908
加爾@@ 2907
奸 2907
媒 2907
权威 2907
農村 2907
降雨 2907
鹰@@ 2907
巧克力 2906
祿@@ 2906
北邊 2905
強迫 2905
泰晤@@ 2905
讷省 2905
令人@@ 2904
哭@@ 2904
外面 2904
州大学 2903
某种 2903
放入 2902
相機 2902
碘@@ 2902
聖誕@@ 2902
北区 2900
工程学院 2900
有化 2900
畢 2900
花费 2900
被控 2900
鰻 2900
山縣 2899
扶 2899
鶴 2898
复制 2897
親自 2897
一股 2896
华盛顿@@ 2896
礙 2895
行動@@ 2895
露天 2894
將軍 2893
遇难 2893
FI@@ 2892
尼爾 2892
类别 2892
维特 2892
街市 2892
人間 2891
动员 2891
喀什 2891
審議 2891
屑 2891
总队 2891
總數 2891
隸 2891
不得@@ 2890
勵 2890
場合 2890
电信 2890
重大@@ 2890
霍夫 2890
It 2889
切爾@@ 2889
影評 2889
法例 2889
一屬 2888
保羅@@ 2888
空袭 2888
西班牙人 2888
Unicode 2887
临近 2887
延遲 2887
汀@@ 2887
牛奶 2887
IP@@ 2886
王妃 2886
89@@ 2885
八個 2885
吉林@@ 2885
后卫 2885
希爾 2885
库尔@@ 2885
煤矿 2885
稽@@ 2885
同伴 2884
少校 2884
楠@@ 2884
企業@@ 2883
光學 2883
沦@@ 2883
铝 2883
升高 2882
射線 2882
普遍@@ 2882
炒@@ 2882
利尔 2881
二百 2880
堪 2880
犯人 2880
除去 2880
St 2879
之作 2879
事項 2879
暢銷 2879
一隊 2878
咬@@ 2878
團結 2878
巴拉@@ 2878
师范学院 2878
扭曲 2878
村莊 2878
海战 2878
遠征 2878
闸@@ 2878
湯姆 2877
娟 2876
進展 2876
况 2875
呼吸@@ 2875
孜 2875
涵@@ 2875
首場 2875
鼓手 2875
寸 2874
緒 2874
虑 2874
鋒@@ 2874
152 2873
上部 2873
华东 2873
器材 2873
年入 2873
提示 2873
现状 2873
盪 2873
目睹 2873
软件@@ 2873
飲料 2873
唯一一 2872
增设 2872
就業 2872
消费者 2872
遺 2872
先知 2871
利人 2871
午夜 2871
贝拉 2871
三大@@ 2870
之夜 2870
同胞 2870
太和 2870
盲 2870
礼部 2870
行驶 2870
嵩 2869
广义 2869
月號 2869
椰@@ 2869
話題 2869
阮福@@ 2869
多条 2868
新港 2868
Metacritic 2867
之王 2867
企业家 2867
反击 2867
普林@@ 2867
篷 2867
All 2866
到来 2866
南區 2866
數次 2866
George 2865
亞人 2865
壓縮 2865
梳@@ 2865
闡@@ 2865
饒 2865
山丘 2864
晚会 2864
神戶 2864
经费 2864
頌@@ 2864
ah 2863
弗兰克 2863
流动 2863
濒 2863
爾縣 2863
环球 2863
羅斯 2863
萼 2862
音樂劇 2862
CO 2861
嘉定 2861
增多 2861
大将 2861
巴布@@ 2861
服飾 2861
第十四 2861
芯片 2861
逃离 2861
上市公司 2860
俠@@ 2860
弹药 2860
活力 2860
場地 2858
當前 2858
耶维奇 2858
各部 2857
昆士@@ 2857
獨自 2857
儒家 2856
分之一 2856
壹 2856
嫌 2856
西里 2856
该寺 2856
begin 2855
之父 2855
副作用 2855
机枪 2855
禮部 2855
苏联@@ 2855
く 2854
神宗 2854
债@@ 2853
学历 2853
宗教信仰 2853
退化 2853
轩 2852
麾下 2852
宜蘭縣 2851
隆頭 2851
万人次 2850
八大 2850
几天 2850
命中 2850
員會 2850
斯頓 2850
森林@@ 2850
禅 2850
舰艇 2850
还要 2850
古埃及 2849
官邸 2849
接駁 2849
珊瑚礁 2849
簽 2849
茹@@ 2849
中书 2848
外地 2848
後衛 2848
祭司 2848
將他 2847
衔@@ 2847
调用 2847
39.@@ 2846
媛 2846
支撑 2846
格林@@ 2846
為名 2846
菊科 2846
吉姆 2845
大事 2845
琼 2845
相望 2845
種種 2845
OVA 2844
三段 2844
击沉 2844
溶于 2844
琴家 2844
袁世凯 2844
轉任 2844
駿@@ 2844
齋@@ 2844
二十五年 2843
橙@@ 2843
玲@@ 2843
首发 2843
2.4 2842
信用 2842
基隆市 2842
石頭 2841
表格 2841
變形 2841
一千 2840
亥 2840
冰島 2840
加拿@@ 2840
北洋政府 2840
尔克 2840
巴利 2840
幹部 2840
成為@@ 2840
監禁 2840
相傳 2840
貿易@@ 2840
阿尔巴尼亚 2840
中校 2838
射箭 2838
投靠 2838
厦门@@ 2837
大乘 2837
所致 2837
分拆 2836
南宁 2836
施政 2836
醚 2836
交替 2835
屏東 2835
鬱 2835
鹹 2835
137 2834
SA 2834
發掘 2834
竟然 2834
商务 2833
阿尔卑斯省 2833
飛行@@ 2833
中书@@ 2832
最常見 2832
流失 2832
缺點 2832
英文@@ 2832
费城 2832
埃德 2831
惠州 2831
耶律@@ 2831
外星人 2830
夥 2830
宽度 2830
电站 2830
酪 2830
100% 2829
卡罗@@ 2829
孤 2829
撰寫 2829
灌丛 2829
獎勵 2829
萨拉 2829
克洛@@ 2828
卢瓦 2828
约翰@@ 2828
绥 2828
再生 2827
简化 2827
下半年 2826
ara 2825
並設 2825
乃是 2825
乔治@@ 2825
密切@@ 2825
徽章 2825
慢性 2825
赫尔@@ 2825
上班 2824
事后 2823
捐贈 2823
浚 2823
被視 2823
度过 2822
筹建 2822
追擊 2822
錄影 2822
kg 2821
万余 2821
后世 2821
攻势 2821
演变 2821
节奏 2821
兽@@ 2820
博客 2820
竟@@ 2820
韦尔@@ 2820
指标 2819
昔@@ 2818
波利 2818
湛 2818
配偶 2818
開始@@ 2818
飯@@ 2818
居住@@ 2817
毕业生 2817
钓@@ 2817
剩餘 2816
希爾@@ 2816
次数 2816
汗国 2816
皋 2816
减弱 2815
妨@@ 2815
艾倫 2815
花序 2815
过度 2815
165 2814
兰特 2814
制式 2814
袭@@ 2814
觀賞魚 2814
鱷@@ 2814
を 2813
信念 2813
務局 2813
台視 2813
寵@@ 2813
封建 2813
激光 2813
票价 2813
筹备 2813
賺 2813
默尔 2813
CE 2812
会见 2812
李宗@@ 2812
为什么 2811
人為 2811
外出 2811
施加 2811
百万 2811
阵容 2811
幡 2810
發言 2810
th@@ 2809
干预 2809
特雷@@ 2809
84@@ 2808
三子 2808
北道 2808
巴塞罗那 2808
瘋狂 2808
健身 2807
收复 2807
舅@@ 2807
起始 2807
om@@ 2806
格拉斯哥 2806
淫 2806
溫帶 2806
19@@ 2805
季度 2805
带到 2805
应急 2805
析@@ 2805
波器 2805
王府 2805
趣@@ 2805
四國 2804
大敗 2804
山姆 2804
LE 2803
der 2803
吉安 2803
國民小學 2803
奥斯曼 2803
核武器 2803
濾@@ 2803
南昌@@ 2802
密码 2802
括@@ 2802
流感 2802
薩斯州 2802
Club 2801
坏@@ 2801
大学生 2801
Office 2800
家属 2800
满洲国 2800
病情 2800
開出 2800
两层 2799
尉@@ 2799
帖@@ 2799
知事 2799
首届 2799
市郊 2798
文人 2798
温州 2798
禾本科 2798
膨脹 2798
装甲@@ 2798
量子@@ 2798
公路@@ 2797
擔任@@ 2797
本區 2797
漏洞 2797
上层 2796
世子 2796
司令官 2796
抗爭 2796
曙@@ 2796
贯@@ 2796
全体 2795
叙述 2795
愤怒 2795
萬英 2795
選秀@@ 2795
足协 2794
DO@@ 2793
勝利@@ 2793
彝@@ 2793
公國 2792
南港 2792
厌@@ 2792
跋@@ 2792
快樂 2791
鵝 2791
COVID 2790
淑 2790
滙 2790
财政部 2790
先锋 2789
漠 2789
衰 2789
EM@@ 2788
中飾演 2788
参考@@ 2788
快速@@ 2788
树木 2788
锅@@ 2788
ad@@ 2787
怨@@ 2786
数十@@ 2786
檢討 2786
講師 2786
住院 2785
千葉@@ 2785
官員@@ 2785
敗給 2785
盎@@ 2785
體的 2785
会上 2784
活塞 2784
漠@@ 2784
許多人 2784
評審 2784
天然气 2783
提拔 2783
省长 2783
釀@@ 2783
位元 2782
路易斯安那州 2782
中信 2781
引爆 2781
財富 2781
酰@@ 2781
龟 2781
公理 2780
反复 2780
每集 2780
131 2779
劳工 2779
反应堆 2779
大賞 2779
陵墓 2779
高句丽 2779
鲜 2779
中全会 2778
侵 2778
做成 2778
历史沿革 2778
显然 2778
窮@@ 2778
傳輸 2777
埃里克 2777
嫩 2777
摩擦 2777
灣大學 2777
葫@@ 2777
1869 2776
参谋 2776
赋@@ 2776
偏向 2775
商标 2775
巨 2775
无限 2775
粗 2775
辯 2775
一间 2774
徑@@ 2774
沃爾@@ 2774
籃板 2774
腾讯 2774
97@@ 2773
博览会 2773
婚礼 2773
鄉份 2773
之处 2772
学派 2772
斯河 2772
舍人 2772
騷@@ 2772
劉備 2771
妖 2771
傘@@ 2770
傲@@ 2770
尸 2770
庄园 2770
开发者 2770
波爾 2770
甫@@ 2770
結業 2770
继承人 2770
駐守 2770
强迫 2769
is@@ 2768
sh@@ 2768
工業@@ 2768
拉蒙 2768
教科@@ 2768
歷山大 2768
莎拉 2768
ie 2767
偵探 2767
处罚 2767
奥多 2767
意大@@ 2767
最後一個 2767
有別 2767
磚 2767
Time 2766
共分 2766
必需 2766
恐 2766
罗斯福 2766
阿拉斯加 2766
前端 2765
圳 2765
奕@@ 2765
張個 2765
薩摩@@ 2765
驶@@ 2765
扎克 2764
日時 2764
预防 2764
自古 2763
钢铁 2763
1866 2762
Se@@ 2762
氯化@@ 2762
瑶@@ 2762
Mark 2761
叔父 2761
回来 2761
武將 2761
途经 2761
音樂家 2761
告片 2760
头部 2760
師範@@ 2760
聚会 2759
首要 2759
des 2758
卡里 2758
縣治 2758
橙色 2757
注意力 2757
Con@@ 2756
カ 2756
匈@@ 2756
羌@@ 2756
运送 2756
並無 2755
擦@@ 2755
收看 2755
新高 2755
瓦夫 2755
依旧 2754
剿@@ 2754
檢察官 2754
管治 2754
维尔@@ 2754
路径 2754
1300 2753
15% 2753
ine 2753
刷新 2753
士林 2753
鯨@@ 2753
ad 2752
四十二年 2752
地理@@ 2752
戟 2752
绘制 2752
舆论 2752
例行 2751
利比亚 2751
陶器 2751
こ 2750
渗@@ 2750
龚@@ 2750
契約 2749
女婿 2749
聯隊 2749
中国中央电视台 2748
差不多 2748
庞大 2748
弗拉基米尔 2748
閻@@ 2748
塵@@ 2747
徵召 2747
丧 2746
報章 2746
大學生 2746
寻 2746
尧 2746
消费 2746
蠻 2746
電動 2746
傑克@@ 2745
师从 2745
意甲 2745
溴@@ 2745
燃烧 2745
關節 2745
史前 2744
壶 2744
客户端 2744
海灘 2744
膽@@ 2744
偏北 2743
哈布斯堡 2743
弗朗索瓦 2742
精通 2742
军方 2741
国籍 2741
河系 2741
福島 2741
重申 2741
一书 2740
辣 2740
预备@@ 2740
γ 2739
学部 2739
稀少 2739
ta 2738
司法部 2738
德文 2738
闵@@ 2738
掘@@ 2737
刚刚 2736
王星 2736
NET 2735
width 2735
列宁 2735
常数 2735
恕 2735
法兰克福 2735
神庙 2735
萬年 2735
蜥@@ 2735
铸@@ 2735
日记 2734
软 2734
三省 2733
剌@@ 2733
打死 2733
On 2732
丙 2732
作业 2732
利文 2732
峨@@ 2732
白堊紀 2732
米拉 2732
最後一@@ 2731
毀滅 2731
菲斯 2731
重回 2731
高尔@@ 2731
基辅 2730
妈 2730
紳 2730
鈴 2730
僕 2729
州区 2729
粉丝 2729
贿@@ 2729
储 2728
可行@@ 2728
整数 2728
頜@@ 2728
黑白 2728
手臂 2727
损害 2727
模块 2727
立體 2727
他將 2726
夫特 2726
威斯康@@ 2726
小于 2726
弧 2726
737 2725
影视@@ 2725
哈斯 2724
崁 2724
萬名 2724
圖片 2723
财 2723
鯰科 2723
已婚 2722
捷運@@ 2722
一下 2721
偵測 2721
納爾@@ 2721
後者 2720
星期五 2720
蝕 2720
晃 2719
浏览器 2719
訴求 2719
錐@@ 2719
预期 2719
Center 2718
Co 2718
對應 2718
小区 2718
鎌 2718
132 2717
保险@@ 2717
環節 2717
好莱坞 2716
CC 2715
CI@@ 2715
丹尼尔 2715
多处 2715
帶有 2715
當他 2715
組別 2715
205 2714
Show 2714
八一 2714
特別@@ 2714
臀@@ 2714
鯰形 2714
假如 2713
广播@@ 2713
政司 2713
歇尔 2713
股权 2713
赌@@ 2713
軍中 2713
不大 2712
冕@@ 2712
拦@@ 2712
汝拉省 2712
满族 2712
生化 2712
追击 2712
党内 2711
山水 2711
汉朝 2711
而聞名 2711
奮 2710
碩 2710
野外 2710
佩戴 2709
无人 2709
汞 2709
無限 2709
燃油 2709
严重@@ 2708
全書 2708
北约 2707
文獻@@ 2707
气象 2707
湖南@@ 2707
男歌手 2707
兩度 2706
卻@@ 2706
文教 2706
渊@@ 2706
责 2706
揮@@ 2705
速器 2705
洽 2704
隐 2704
一站 2703
两项 2703
政法@@ 2703
浪潮 2703
肾@@ 2703
金字塔 2703
ON 2702
姑娘 2702
海南省 2702
逢@@ 2702
军政 2701
农历 2701
暴动 2701
無效 2701
硬體 2701
AI 2700
主攻 2700
得獎 2700
核心@@ 2700
沁@@ 2700
統計@@ 2700
み 2699
奥布省 2699
峇 2699
改革开放 2699
獎章 2699
直轄市 2699
難度 2699
鷹@@ 2699
交匯處 2697
斯人 2697
特利 2697
雨量 2697
其間 2696
出资 2696
莆@@ 2696
靈感 2696
两艘 2695
拉拉 2695
旅館 2695
蔓延 2695
交通工具 2694
托夫 2694
副校长 2693
將軍澳 2693
溴 2693
哥倫 2692
四面 2692
學生@@ 2692
晶體 2692
東面 2692
西伯 2692
进制 2692
阮 2692
馬拉@@ 2692
38.@@ 2691
0% 2690
St@@ 2690
台語 2690
波爾@@ 2690
這件 2690
Park 2689
介石 2689
濒@@ 2689
秋天 2689
講座 2689
酋 2689
中外 2688
关系@@ 2688
切尔 2688
长春@@ 2688
電鐵 2688
成員國 2687
引述 2686
根州 2686
副会长 2685
引致 2685
桨 2685
AK@@ 2684
两天 2684
多项式 2684
密院 2684
步兵@@ 2684
至上 2684
1.7 2683
主修 2683
古生物 2683
尾部 2683
普雷@@ 2683
私下 2683
袖@@ 2683
138 2682
144 2682
三面 2682
当然 2682
son 2681
咸豐 2681
姚 2681
宮崎@@ 2681
德福 2681
清河 2681
集中@@ 2681
巨蛋 2680
所產生 2680
托尔 2680
AI@@ 2679
光谱 2679
懋@@ 2679
普京 2679
望遠鏡 2679
汇入 2679
萱 2679
历代 2678
西尔 2678
1400 2677
Games 2677
Star 2677
勿 2677
客场 2677
并称 2677
會合 2677
聰@@ 2677
转而 2677
都督府 2677
阶层 2677
隅 2677
re 2676
正义 2676
不錯 2675
代數 2675
列夫 2675
开国 2675
糖尿病 2675
CE@@ 2674
一般@@ 2674
兩天 2674
石头 2674
全食 2673
共青团 2673
副省长 2673
塞纳省 2673
BL@@ 2672
仓库 2672
化学家 2672
地層 2672
摔跤 2672
环绕 2672
者則 2672
遣使 2672
驅逐 2672
世界遗产 2671
中國人 2671
伊莎@@ 2671
剩@@ 2671
勉 2671
四強 2671
城南 2671
大理石 2671
タ 2670
分开 2670
划入 2670
央视 2670
採購 2670
擊出 2670
早前 2670
重用 2670
武德 2669
美好 2669
薩克@@ 2669
一向 2668
爱好者 2668
那时 2668
铸造 2668
亞洲@@ 2667
全国人大 2667
容許 2667
殖民者 2667
33.@@ 2666
夸克 2666
歼 2666
莱特 2666
梭@@ 2665
此举 2665
苷 2665
兩場 2664
控告 2664
克斯坦 2663
往来 2663
網民 2663
ng 2662
南韓 2662
茅斯 2662
荔枝 2662
追捕 2662
斯通 2661
競選@@ 2661
蘇格蘭@@ 2661
费尔德 2661
列宁@@ 2660
地段 2660
塞斯 2660
拉斯@@ 2660
敷@@ 2660
繁 2660
编辑@@ 2660
阿勒@@ 2660
BC 2659
乙酸 2659
克罗地亚 2659
共生 2659
IT@@ 2658
中是 2658
懲@@ 2658
添 2658
第六次 2658
耆 2658
藉@@ 2658
佛像 2657
索馬@@ 2657
览@@ 2657
赫拉 2657
ABC 2656
乾隆帝 2656
修理 2656
可容納 2656
華視 2656
號班機 2656
七个 2655
传记 2655
安大略省 2655
敢@@ 2655
无效 2655
蔡依林 2655
見面 2655
化學@@ 2654
守護@@ 2654
植物种 2654
灾害 2654
电车 2654
专员 2653
逃避 2653
ka 2652
中亚 2652
修士 2652
北纬 2652
大碟 2652
掀起 2652
落實 2652
首屆 2652
七十 2651
录音 2651
航母 2651
防治 2651
改革@@ 2650
第一书记 2650
肝 2650
遗传 2650
更為 2649
為何 2649
索尔 2649
蟾 2649
伊泽尔 2648
克利@@ 2648
南开大学 2648
塞浦路斯 2648
妥 2648
巖 2648
挥@@ 2648
生殖 2648
API 2647
层次 2647
韓民國 2647
场合 2646
虚构 2646
大受 2645
格鲁吉亚 2645
米亞 2645
Charles 2644
佐藤 2644
夏洛特 2644
退位 2644
双向 2643
地震@@ 2643
辨 2643
〇 2642
內地 2642
哈佛大学 2642
增大 2642
戴维斯 2642
監察@@ 2642
句子 2641
帕斯 2641
盾@@ 2641
之神 2640
佛寺 2640
場館 2640
家用 2640
狙@@ 2640
总量 2639
渐@@ 2639
瀕@@ 2639
販賣 2639
贩@@ 2639
高温 2639
体内 2638
支持率 2638
栓 2638
茨堡 2638
飽 2638
歌舞 2637
阿拉伯语 2637
大阪市 2636
寵物 2635
楼梯 2635
補選 2635
通訊@@ 2635
Thomas 2634
京师 2634
仁宗 2634
修筑 2634
决策 2634
啶 2634
火災 2634
相對@@ 2634
睿 2634
机组 2633
虎尾 2633
连续@@ 2633
阻礙 2633
之弟 2632
光滑 2632
官僚 2632
將其@@ 2632
新浪 2632
百度 2632
辣@@ 2632
一月 2631
二十八年 2631
今屬 2631
切割 2631
山頂 2631
颂 2631
普特 2630
靈頓 2630
一九@@ 2629
投奔 2629
科罗@@ 2629
究竟 2629
第二届 2629
足球队 2629
ロ 2628
吉爾@@ 2628
咬 2628
嵩@@ 2628
波利斯 2628
莫斯 2628
詔 2628
陛下 2628
舷 2627
荔@@ 2627
騎士@@ 2627
2.3 2626
AS 2626
协商 2626
封为 2626
百名 2626
體育會 2626
奥尔良 2625
小隊 2625
平地 2625
氣氛 2625
二十世纪 2624
度量 2624
有者 2624
落后 2624
公職 2623
免疫@@ 2622
則會 2622
和谐 2622
在建 2622
普利 2622
演算法 2622
上半 2621
兄弟@@ 2620
南北向 2620
哪 2620
奥德 2620
森特 2620
灣區 2620
繁榮 2620
线索 2620
藓 2620
配件 2620
另一名 2619
膨胀 2619
蒸汽@@ 2619
向下 2618
最高峰 2618
网民 2618
id@@ 2617
医科大学 2617
彤 2617
泰坦 2617
爱国 2617
起因 2617
门外 2617
亚历山@@ 2616
住宿 2616
匿名 2616
堰 2616
沂@@ 2616
驳@@ 2616
EX@@ 2615
IN 2615
好萊塢 2615
小林 2615
川崎 2615
未經 2615
由來 2615
上層 2614
剥夺 2614
宁波市 2614
星际 2614
特效 2614
中文系 2613
名次 2613
太多 2613
御史@@ 2613
腹足 2613
136 2612
154 2612
五十@@ 2612
匿 2612
壮 2612
局勢 2612
滥@@ 2612
筆名 2612
處決 2612
輸給 2612
送回 2612
曾于 2611
电影院 2611
聪@@ 2611
弹劾 2610
深圳@@ 2610
休斯 2609
委員會委員 2609
平市 2609
引导 2609
怀特 2609
缩短 2609
口市 2608
可知 2608
調節 2608
山田 2607
嵌@@ 2607
网页 2607
走出 2607
鋸@@ 2607
伊本 2606
副司令员 2606
妖怪 2606
瓊 2606
衛生@@ 2606
佐夫 2605
兀@@ 2605
改版 2605
比重 2605
熹 2605
第一款 2605
膝@@ 2605
NO@@ 2604
下跌 2604
巴巴 2604
战略@@ 2604
纽约时报 2604
美国政府 2604
讀書 2604
帕爾@@ 2603
成份 2603
腕 2603
自从 2603
选票 2603
东面 2602
圣马@@ 2602
多尼 2602
多项 2602
搞笑 2602
橘 2602
機隊 2602
匈牙利语 2601
挑戰@@ 2601
新政府 2601
灵魂 2601
耶律 2601
末日 2600
浙江@@ 2600
科羅@@ 2600
还会 2600
高考 2600
TBS 2599
主机 2599
其名 2599
奇怪 2599
運載 2599
翻译@@ 2598
进而 2598
上旬 2597
两端 2597
發育 2597
紧急@@ 2597
罗夫 2597
虚拟 2597
頒布 2597
風速 2597
Li@@ 2596
差别 2596
损坏 2596
新版 2596
科研@@ 2596
那樣 2596
餓 2596
三代 2595
中段 2595
北縣 2595
梅花 2595
轉化 2595
瑪麗@@ 2594
首爾 2594
動員 2593
單式 2593
季節 2593
寶石 2593
灣總 2593
硅 2593
腓力 2593
跳水 2593
VI@@ 2592
一边 2592
而后 2592
修缮 2591
加油 2591
孙子 2591
曲棍球 2591
沸@@ 2591
英宗 2591
鯊 2591
鴨@@ 2591
TS 2590
僕@@ 2590
尼克松 2590
悼@@ 2590
或称 2590
薩斯@@ 2590
侄子 2589
右側 2589
想起 2589
擴散 2589
泣 2589
di@@ 2588
哈里森 2588
战斗@@ 2588
阁@@ 2588
十字军 2587
沟通 2587
科學院 2587
编入 2587
州政府 2586
归属 2586
硝酸 2586
科拉 2586
死後@@ 2585
辖境 2585
ra 2584
個堂區 2584
单词 2584
激活 2584
埃斯 2583
建構 2583
德国人 2583
戮 2583
措@@ 2583
液體 2583
激進 2583
il@@ 2582
對面 2582
执教 2582
犯下 2582
科舉 2582
饰@@ 2582
世人 2581
产业@@ 2581
加泰罗尼亚 2581
字幕 2581
廈門 2580
彻@@ 2580
数码 2580
法家 2580
爭奪 2580
觀光@@ 2580
撲@@ 2579
棲 2579
狮@@ 2579
軍用 2579
不夠 2578
交代 2578
信義@@ 2578
多芬 2578
惯例 2578
難民 2578
算子 2577
茨基 2577
CS 2576
奥尔 2576
恐慌 2576
愉@@ 2576
无关 2576
永和 2576
阳性 2576
185 2575
八十 2575
新民 2575
珍妮 2575
这张 2575
吸引力 2574
嘉義市 2574
淫@@ 2574
阻力 2574
阿道夫 2574
168 2573
书法 2573
公开赛 2573
总站 2573
日及 2573
浮雕 2573
組建 2573
送给 2573
顧客 2573
工资 2572
饮 2572
公開@@ 2571
廠商 2571
軍陸 2571
达尔@@ 2571
飼養 2571
婭 2570
惹 2570
以為 2569
分会 2569
排水量 2569
监禁 2569
积极@@ 2569
1.0 2568
古斯塔夫 2568
嘉宾 2568
機身 2568
沃克 2568
书记处 2567
炭@@ 2567
烷@@ 2567
上司 2566
仰 2566
占有 2566
好像 2566
诺维奇 2566
141 2565
滿意 2565
砍 2565
あ 2564
不堪 2564
並列 2564
參議員 2564
弗雷德 2564
替补 2564
杜鹃 2564
區議 2563
埠@@ 2563
检验 2563
苣 2563
預賽 2563
亞斯 2562
侦察 2562
召集人 2562
大部 2562
妍 2562
橫跨 2562
ma 2561
几种 2561
加利@@ 2561
擾動 2561
蔚 2561
褐@@ 2561
高空 2561
其一 2560
學部 2560
巴洛克 2560
梗 2560
毗鄰 2560
社团 2560
街上 2560
電磁@@ 2560
书店 2559
眷@@ 2559
耕地 2559
匾 2558
同等 2558
审理 2558
心情 2558
摩爾 2558
日才 2558
看起来 2558
臟@@ 2558
一丁 2557
判刑 2557
大仙 2557
弗吉尼亚州 2557
瞬@@ 2557
釣魚 2557
主题曲 2556
亚种 2556
偵察@@ 2556
傣@@ 2556
官職 2556
手枪 2556
肋@@ 2556
行动@@ 2556
事迹 2555
壞@@ 2555
核准 2555
病毒@@ 2555
聖公會 2555
ec@@ 2554
停刊 2554
終於 2554
邦政府 2554
151 2553
AG@@ 2553
三分之二 2553
之事 2553
塔吉@@ 2553
多米@@ 2553
恩河 2553
朝向 2553
荀@@ 2553
零售@@ 2553
字典 2552
惡劣 2552
楷 2552
麟@@ 2552
黔@@ 2552
墳@@ 2551
格鲁@@ 2551
ジ 2550
劇組 2550
家里 2550
鉴定 2550
吗 2549
大安 2549
掩护 2549
樱@@ 2549
滇 2549
人民检察院 2548
修讀 2548
咸丰 2548
烂 2548
翅膀 2548
音节 2548
九江 2547
印第安@@ 2547
感知 2547
行事 2547
陷阱 2547
兩部 2546
母公司 2546
焰 2546
知识@@ 2546
社会科学 2546
論述 2546
1830 2545
一族 2545
嶽 2545
明德 2545
星際@@ 2545
蛤 2545
遷往 2545
霄 2545
习俗 2544
有如 2544
海防 2544
演奏@@ 2544
糊@@ 2544
32.@@ 2543
槍械 2543
溜@@ 2543
狹窄 2543
販 2543
雷恩 2543
两部 2542
夕@@ 2542
患上 2542
糕 2542
伸 2541
八个 2541
化名 2541
尊敬 2541
對戰 2541
巴勒@@ 2541
所说 2541
擇 2541
で 2540
取向 2540
牛肉 2540
肆 2540
156 2539
亞美尼亞 2539
山省 2539
巩固 2539
權威 2539
防控 2539
高层 2539
MA 2538
上去 2538
倚@@ 2538
口径 2538
员外郎 2538
托米 2538
新興 2538
機體 2538
芬蘭@@ 2538
赔偿 2538
頻繁 2538
侶 2537
信中 2537
硒 2537
舅 2537
杆@@ 2535
死亡率 2535
每位 2535
烤@@ 2535
畿@@ 2535
貴州 2535
重工 2535
2.8 2534
反革命 2534
取而代之 2534
废弃 2534
意味 2534
祸 2534
隶 2534
Street 2533
博覽會 2533
男子@@ 2533
立法局 2533
罐@@ 2533
表示@@ 2533
讓@@ 2533
乙烯 2532
全国人大常委会 2532
史蒂@@ 2532
后勤@@ 2532
尼亞州 2532
歌舞@@ 2532
琪@@ 2532
瓦爾 2532
竊 2532
133 2531
三分 2531
二號 2531
惊 2531
文科 2531
致死 2531
Peter 2530
一季 2530
一般而言 2530
战线 2530
改正 2530
沛@@ 2530
监督@@ 2530
鑽@@ 2530
东西@@ 2529
倆 2529
医药 2529
新兴 2529
潜 2529
相差 2529
OK 2528
佔據 2528
學派 2528
当作 2528
林彪 2528
自动@@ 2528
自然保护区 2528
交易@@ 2527
包裝 2527
司长 2527
生产总值 2527
葵涌 2527
赞助 2527
這條 2527
隕石 2527
唯 2526
波多黎各 2526
泽尔 2526
護理 2526
一國 2525
之乱 2525
崩潰 2525
ya 2524
二度 2524
全日制 2524
南極 2524
埕 2524
州長 2524
无锡@@ 2524
早就 2524
Media 2523
德兰 2523
矛 2523
艾哈@@ 2523
谢尔@@ 2523
进驻 2523
人及 2522
波羅 2522
第三位 2522
蚤 2522
不愿 2521
利比 2521
線上 2521
總共 2521
謎 2521
0.3 2520
158 2520
High 2520
帶動 2520
开业 2520
扰@@ 2520
會選舉 2520
極端 2520
著称 2520
吉米 2519
同一个 2519
爪@@ 2519
美獎 2519
舵 2519
风景 2519
College 2518
揭幕 2518
棕 2518
細胞@@ 2518
三部 2517
交配 2517
提斯 2517
里亞 2517
1853 2516
吊 2516
山中 2516
眼鏡 2516
鶯 2516
事館 2515
刺客 2515
友谊 2514
封信 2514
尼加拉瓜 2514
席次 2514
戎@@ 2514
橄欖@@ 2514
河内 2514
災難 2514
高壓 2514
ul@@ 2513
曼恩 2513
榕 2513
索引 2513
著手 2513
补给 2513
丧失 2512
中东 2512
北北@@ 2512
執行長 2512
广东@@ 2512
搭档 2512
支撐 2512
交所 2511
付费 2511
击退 2511
戀愛@@ 2511
物語 2511
西甲 2511
誅 2511
逃犯 2511
魨 2511
吡@@ 2510
年僅 2510
顶级 2510
颈@@ 2510
Web 2509
全县 2509
卫生部 2509
比喻 2509
Wii 2508
一任 2508
懼 2508
環保 2508
發性 2508
追封 2508
Br@@ 2507
Life 2507
台山 2507
处死 2507
奧林匹克@@ 2507
慕容@@ 2507
沼 2507
衛冕 2507
Red 2506
ic 2506
北韓 2506
威廉姆斯 2506
駁@@ 2506
公会 2505
大河 2505
拆解 2505
村镇 2505
枕@@ 2505
糟糕 2505
英美 2505
雨水 2505
下文 2504
否@@ 2504
租用 2504
組件 2504
酰 2504
干事 2503
生死 2503
瘦@@ 2503
襄阳 2503
一封 2502
學業 2502
怎麼 2502
整數 2502
独 2502
给定 2502
虔@@ 2502
行銷 2502
郵件 2502
颖 2502
0.1 2501
乾燥 2501
太空船 2501
氛@@ 2501
语言@@ 2501
雨林 2501
佛陀 2500
库容 2500
湖广 2500
償 2499
复旦大学 2499
标识 2499
榮獲 2499
茵河 2499
理事长 2498
第二轮 2498
藏传佛教 2498
觀察到 2498
139 2497
1700 2497
1858 2497
五次 2497
栖息地 2497
法蘭克 2497
试验@@ 2497
不同于 2496
假定 2496
四種 2496
警戒 2496
造像 2496
闭 2496
山東@@ 2495
慨 2495
時尚 2495
祖国 2495
競爭@@ 2495
自由泳 2495
舞者 2495
警務處 2495
须@@ 2495
ers 2494
π 2494
南区 2494
安平 2494
活化 2494
總督@@ 2494
二段 2493
廁所 2493
LED 2492
执法 2492
斯省 2492
水河 2492
该州 2492
亚科 2491
吉利 2491
国有 2491
字型 2491
西安市 2491
贸@@ 2491
起降 2491
到場 2490
協會@@ 2490
悲 2490
選擇@@ 2490
领事馆 2490
合适 2489
摺 2489
普森 2489
水池 2489
總兵 2489
阿卡 2489
霉@@ 2489
馬場 2489
骆@@ 2489
148 2488
安德鲁 2488
战时 2488
英冠 2488
謹 2488
黎加 2488
南阳 2487
微博@@ 2487
蒙古人 2487
參謀 2486
大怒 2486
尼基 2486
拉罕 2486
擢@@ 2486
白石 2486
竖@@ 2486
雙層 2486
法治 2485
總統@@ 2485
金属@@ 2485
ur@@ 2484
会馆 2484
无需 2484
片尾曲 2484
美女 2484
變數 2484
亞種 2483
全国代表大会 2483
城池 2483
摩托 2483
不太@@ 2482
二二八 2482
峯 2482
幅@@ 2482
推力 2482
暗杀 2482
重傷 2482
保護區 2481
文物@@ 2481
晏@@ 2481
爱沙尼亚 2481
環保@@ 2481
赴美 2481
集团公司 2481
左手 2480
幫忙 2480
探測 2480
炳 2480
翟@@ 2480
三十六年 2479
古希臘 2479
塗 2479
擴 2479
收视率 2479
遗传@@ 2479
36.@@ 2478
DA 2478
保密 2478
少年@@ 2478
德爾 2478
星星 2478
無限@@ 2478
獲選為 2478
系列@@ 2478
务员 2477
巷@@ 2477
樂曲 2477
焉 2477
睦 2477
結盟 2477
赦免 2476
邏@@ 2476
量化 2476
House 2475
現址 2475
華裔 2475
鑫 2475
马来亚 2475
响@@ 2474
子弹 2474
自旋 2474
TA 2473
克拉斯 2473
司空 2473
电动 2473
结局 2473
遺傳 2473
右侍郎 2472
城外 2472
度假@@ 2472
译作 2472
體內 2472
储存 2471
參謀長 2471
咪 2471
寂@@ 2471
年出 2471
懿@@ 2471
过来 2471
底层 2470
志愿军 2470
汤姆 2470
肠@@ 2470
褲 2470
长征 2470
屬名 2469
港區 2469
牡丹 2469
SD@@ 2468
中央研究院 2468
停用 2468
夫曼 2468
拉赫 2468
克森 2467
天上 2467
微分 2467
恩斯特 2467
武汉大学 2467
現況 2467
笛@@ 2467
1100 2466
SBS 2466
牌子 2466
科医生 2466
330 2465
布利 2465
福尔 2465
科殿試 2465
窑@@ 2465
精彩 2465
邮政 2465
1859 2464
FM 2464
客家人 2464
拨@@ 2464
雛@@ 2464
音譯 2463
2.1 2462
un 2462
上表 2462
啟發 2462
林根 2462
金刚 2462
星期二 2461
米尔@@ 2461
脸 2461
表情 2461
金朝 2461
鑲@@ 2461
出征 2460
執照 2460
ella 2459
安提@@ 2459
磁场 2459
罷 2459
考取 2459
BA 2458
三十二年 2458
恪 2458
抹 2458
跆拳道 2458
RS 2457
me 2457
法拉利 2457
目錄 2457
这么 2457
音樂節 2457
ド 2456
乙级 2456
娃娃 2456
小子 2456
撥 2456
湖区 2456
评论@@ 2456
工業區 2455
币@@ 2455
派出所 2455
紀錄片 2455
違法 2455
镶@@ 2455
非政府 2455
ab@@ 2454
お 2454
后人 2454
天生 2454
家村 2454
想像 2454
施泰因 2454
語系 2454
マ 2453
便利@@ 2453
致仕 2453
蝠 2453
運轉 2453
134 2452
Man 2452
勋@@ 2452
撰文 2452
极限 2452
调查局 2452
49.@@ 2451
MP 2451
不列 2451
實業 2451
数目 2451
煩 2451
胃 2451
讽刺 2451
一派 2450
分数 2450
戰線 2450
西省 2450
211 2449
Big 2449
三条 2449
厦 2449
塔瓦 2449
搖滾@@ 2449
特克 2449
谦@@ 2449
MBC 2448
出血 2448
參選@@ 2448
报社 2448
第四代 2448
维克@@ 2448
華僑 2448
軒@@ 2448
千克 2447
彪 2447
适当 2447
atus 2446
义务 2446
人會 2446
諷 2446
ak 2445
故事@@ 2445
整编 2445
斯德哥@@ 2445
死因 2445
烏克蘭@@ 2445
竞技@@ 2445
倖@@ 2444
标注 2444
校名 2444
甲第 2444
苗族 2444
跃 2444
並擔 2443
古罗马 2443
安迪 2443
年轻人 2443
監督@@ 2443
亚洲@@ 2442
成效 2442
緊密 2442
詢問 2442
關心 2442
院系 2442
厨@@ 2441
古迹 2441
因其 2441
擅长 2441
格蘭@@ 2441
满意 2441
漁業 2441
迁徙 2441
閩南@@ 2441
齡@@ 2441
GO 2440
國土 2440
地被 2440
大廳 2440
沉没 2440
法西斯 2440
越野 2440
阿登 2440
壟斷 2439
季节 2439
疗@@ 2439
票口 2439
鈉 2439
0.2 2438
三條 2438
多功能 2438
有機 2438
洛陽 2438
Per@@ 2437
大門 2437
故鄉 2437
蒙古国 2437
血统 2437
该区 2437
诺斯 2437
PS@@ 2436
不知@@ 2436
人來 2436
堂区 2436
定居@@ 2436
平均水平 2436
明天 2436
殷 2436
相當@@ 2436
ME 2435
侖 2435
分界 2435
博格 2435
原屬 2435
小熊 2435
水力 2435
猩猩 2435
四十年 2434
布鲁克 2434
数字@@ 2434
203 2433
380 2433
傾斜 2433
其弟 2433
家具 2433
术@@ 2433
波罗的海 2433
解剖 2433
钥 2433
一战 2432
克里米亚 2432
南華 2432
印刷@@ 2432
常住人口 2432
會試 2432
极其 2432
烧毁 2432
韓語 2432
僑 2431
必定 2431
机型 2431
歷年 2431
相交 2431
答應 2431
蘭州 2431
党中央 2430
困擾 2430
妓 2430
姓@@ 2430
完好 2430
承擔 2430
教廷 2430
稍微 2430
胡椒 2430
倉庫 2429
外交政策 2429
寶可夢 2429
斯里蘭卡 2429
缓解 2429
而来 2429
遼 2429
互通 2428
动力学 2428
對陣 2428
巴伐利亚州 2428
其後在 2427
大氣層 2427
插曲 2427
症候群 2427
花蓮 2427
英法 2427
陌@@ 2427
1854 2426
借助 2426
询问 2426
貝克 2426
傳染 2425
反响 2425
色素 2425
ph@@ 2424
开幕 2424
誦 2424
1857 2423
克魯@@ 2423
华裔 2423
峡谷 2423
東漢 2423
棉 2423
主任委员 2422
大嶼 2422
影子 2422
恢@@ 2422
正選 2422
準則 2422
集中营 2422
高棉 2422
俄勒@@ 2421
固醇 2421
聚會 2421
脏 2421
诸侯 2421
賽馬會 2421
れ 2420
事略 2420
協商 2420
卡車 2420
拉丁字母 2420
歌劇 2420
監視 2420
李世@@ 2419
瓦西里 2419
至于 2419
装有 2419
中飾 2418
亚当斯 2418
什省 2418
吉祥物 2418
尿 2418
攻城 2418
新北 2418
計算@@ 2418
Ex@@ 2417
决心 2417
大脑 2417
對付 2417
詠@@ 2417
鯉科 2417
EN 2416
创下 2416
q@@ 2415
不像 2415
利润 2415
路士 2415
转播 2415
騎師 2415
ol 2414
三振 2414
夠 2414
星團 2414
三郎 2413
大英 2413
時裝 2413
波美拉 2413
胸部 2413
衰竭 2413
要么 2413
间隔 2413
嫁給 2412
物理系 2412
珍珠@@ 2412
闲@@ 2412
一類 2411
孩童 2411
就业 2411
市辖区 2411
庇護 2411
曦 2411
水县 2411
渦輪 2411
等候 2411
黨部 2411
ea 2410
太尉 2410
德克萨斯州 2410
新店 2410
櫃@@ 2410
瑩 2410
路軌 2410
202 2409
King 2409
No 2409
兵庫 2409
奖金 2409
娄@@ 2409
峽@@ 2409
辅音 2409
僚 2408
拼 2408
捉 2408
春日 2408
爷 2408
西临 2408
電廠 2408
大麻 2407
失控 2407
客流 2407
小田@@ 2407
日内瓦 2407
知识分子 2407
那年 2407
夺冠 2406
栗 2406
衡量 2406
資格賽 2406
布勒 2405
棺@@ 2405
毯 2405
河岸 2405
矩@@ 2405
裝有 2405
進球 2405
高大 2405
因在 2404
文艺@@ 2404
机车车辆 2404
諸多 2404
起用 2404
会战 2403
巴塞 2403
摇滚 2403
破产 2403
的則 2402
算符 2402
解體 2402
里士@@ 2402
主機 2401
取得@@ 2401
屢 2401
武漢 2401
海港 2401
皓 2400
羚 2400
侮辱 2399
衆 2399
電子@@ 2399
圣彼得堡 2398
常侍 2398
晋升为 2398
滯 2398
鞘 2398
CL@@ 2397
之家 2397
全都 2397
各樣 2397
崩溃 2397
金日成 2397
op@@ 2396
县委书记 2396
大雨 2396
費爾@@ 2396
ag@@ 2395
可靠性 2395
对待 2395
巴拿馬 2395
紀元 2395
自小 2395
虛 2395
西非 2395
遷入 2395
倖 2394
參與者 2394
吉拉 2394
年版 2394
流出 2394
炒 2394
Tr@@ 2393
任内 2393
军阀 2393
国歌 2393
城巴 2393
大明 2393
學上 2393
暨@@ 2393
泾@@ 2393
身心 2393
颁奖典礼 2393
平交道 2392
若瑟 2392
虽@@ 2392
下部 2391
為例 2391
璃 2391
科爾@@ 2391
莉莉 2391
莞@@ 2391
詩歌 2391
諡@@ 2391
吻@@ 2390
尼茨基 2390
过后 2390
魔王 2390
動畫@@ 2389
哈里斯 2389
携@@ 2389
梗@@ 2389
煮@@ 2389
看似 2389
蝶屬 2389
配乐 2389
Richard 2388
伯明翰 2388
各项 2388
天神 2388
春秋@@ 2388
第三部 2388
納斯 2388
進修 2388
阿卜杜勒 2388
上野 2387
作畫 2387
英國倫敦 2387
陰謀 2387
音乐家 2387
黔 2387
□ 2386
到期 2386
华南 2386
噬 2386
左側 2386
祝 2386
遠離 2386
采集 2386
亿立方米 2385
别人 2385
喜好 2385
屬性 2385
師長 2385
揭示 2385
甚麼 2385
窝 2385
組合@@ 2385
蛮 2385
辰@@ 2385
NASA 2384
伴侶 2384
儿童@@ 2384
北京市@@ 2384
糾紛 2384
警報 2384
远东 2384
Intel 2383
一时 2383
各站 2383
美人 2383
代谢 2382
会谈 2382
军校 2382
升為 2382
塔利班 2382
布爾 2382
排水 2382
衝鋒 2381
谥号 2381
透过 2381
革新 2381
EL@@ 2380
九巴 2380
套件 2380
宇文@@ 2380
排斥 2380
換成 2380
正统 2380
石器 2380
矽@@ 2380
科威特 2380
秘書@@ 2380
阿方索 2380
三司 2379
安東尼 2379
数次 2379
租金 2379
艦艇 2379
莉絲 2379
行道 2379
一轮 2378
体重 2378
分打點 2378
所指 2378
賄@@ 2378
仙台 2377
击剑 2377
唯有 2377
寿命 2377
普羅@@ 2377
考克 2377
诊@@ 2377
34.@@ 2376
伞@@ 2376
學中 2376
纳粹德国 2376
改以 2375
昆虫 2375
电梯 2375
组件 2375
钟楼 2375
長@@ 2375
上海市@@ 2374
印有 2374
教皇 2374
新罗 2374
日方 2374
毘 2374
瓦尔@@ 2374
用語 2374
秋田 2374
第三届 2374
事务@@ 2373
互聯網 2373
受到@@ 2373
文昌 2373
橡胶 2373
铝@@ 2373
94@@ 2372
克里夫 2372
六名 2372
托克 2372
渣@@ 2372
铃@@ 2372
並把 2371
任者 2371
凍@@ 2371
合法@@ 2371
報名 2371
打进 2371
樺 2371
Mo@@ 2370
丕 2370
唐玄宗 2370
格拉@@ 2370
碑文 2370
空军@@ 2370
終結 2370
誼@@ 2370
進黨 2370
鹿港 2370
1856 2369
抹@@ 2369
曜 2369
金馬獎 2369
En@@ 2368
ed@@ 2368
债 2368
優異 2367
北方@@ 2367
孢子 2367
沙巴 2367
涂 2367
绳 2367
Limited 2366
TC 2366
傳聞 2366
妹@@ 2366
景泰 2366
盒@@ 2366
總共@@ 2366
营地 2366
レ 2365
人選 2365
军分区 2365
参考文献 2365
哥斯@@ 2365
大成 2365
室外 2365
东区 2364
之手 2364
冰岛 2364
基亚 2364
宇文 2364
心脏 2364
混合物 2364
玉环 2364
秦国 2364
配属 2364
卤@@ 2363
瓦利 2363
聚焦 2363
起飛 2363
全明星 2362
學金 2362
密碼 2362
握把 2362
电报 2362
领事 2362
獵物 2361
看来 2361
睿@@ 2361
老大 2361
賓夕 2361
饶 2361
交叉口 2360
大山 2360
天山 2360
矿物 2360
編為 2360
聘请 2360
腿@@ 2360
谣 2360
默兹省 2360
入法 2359
奥会 2359
愛國 2359
损伤 2359
躲 2359
剥@@ 2358
大本@@ 2358
徵收 2358
曹魏 2358
规格 2358
俱 2357
商務 2357
子集 2357
斯利 2357
曲面 2357
毫無@@ 2357
蛋糕 2357
起飞 2357
切爾尼@@ 2356
紧密 2356
San 2355
交匯 2355
清华 2355
青森 2355
华为 2354
即為 2354
患@@ 2354
玻利@@ 2354
聯同 2354
遠東 2354
原子核 2353
巴馬州 2353
志願 2353
磺@@ 2353
里州 2353
马其顿 2353
Le@@ 2352
達斯 2352
俄罗斯@@ 2351
基督@@ 2351
梵蒂@@ 2351
沐@@ 2351
鍵@@ 2351
主線 2350
孟加拉国 2350
日夜 2350
會場 2350
炮弹 2350
狩獵 2350
许可证 2350
车辆段 2350
運動場 2350
頭顱 2350
顎 2350
俄军 2349
友好城市 2349
國軍@@ 2349
安省 2349
忽 2349
殘 2349
笨@@ 2349
走私 2349
义军 2348
加来 2348
央 2348
嫩@@ 2348
守军 2348
库斯 2348
战国 2348
當中@@ 2348
矩陣 2348
葡萄@@ 2348
足球联赛 2348
直線 2347
訥 2347
身为 2347
低音 2346
工部@@ 2346
愛沙尼亞 2346
纜 2346
先鋒 2345
功夫 2345
块@@ 2345
居士 2345
德里克 2345
架空 2345
螢@@ 2345
人选 2344
匪@@ 2344
宾馆 2344
成吉思汗 2344
江陵 2344
稿@@ 2344
鉤 2344
225 2343
万名 2343
利率 2343
康德 2343
弗朗西斯 2343
披 2343
茨克 2343
集结 2343
153 2342
會用 2342
每人 2342
祺@@ 2342
鄉民 2342
阿什 2342
齐国 2342
疹 2341
结识 2341
誼 2341
钙 2341
顯得 2341
146 2340
λ 2340
享 2340
内核 2340
吏@@ 2340
常州 2340
斯蒂芬 2340
有罪 2340
綏@@ 2340
维拉 2340
鈴木 2340
鱗 2340
分发 2339
山麓 2339
崖@@ 2339
救助 2339
祝福 2339
SK@@ 2338
二十七年 2338
原籍 2338
叱@@ 2338
新西蘭 2338
旋即 2338
泰尔 2338
淚@@ 2338
瑞典@@ 2338
航道 2338
騷擾 2338
商標 2337
摸 2337
硕@@ 2337
升班 2336
快乐 2336
田站 2336
置于 2336
諒 2336
鹅@@ 2336
优先 2335
侯爵 2335
au 2334
下車 2334
助教 2334
叛军 2334
大典 2334
毆 2334
西里@@ 2334
铸 2334
235 2333
256 2333
310 2333
光芒 2333
克爾 2333
參戰 2333
开封 2333
饲@@ 2333
鴉片 2333
中山路 2332
中縣 2332
今属 2332
墓碑 2332
市政厅 2332
証 2332
阿瓦 2332
影评人 2331
操纵 2331
改隸屬 2331
直线 2331
起事 2331
鏈@@ 2331
集數 2331
3.2 2330
公交线路 2330
房地产 2330
拉斐@@ 2330
阿里@@ 2330
雙重 2330
鸚鵡 2330
均衡 2329
法兰克 2329
癌@@ 2329
總是 2329
而行 2329
通告 2329
遍@@ 2329
阳区 2329
陈列 2329
143 2328
中级 2328
市级 2328
氦 2328
鄧 2328
镇江 2328
其母 2327
巴塞隆 2327
施塔特 2327
毒素 2327
漢堡 2327
猶太 2327
球賽 2327
點位 2327
Company 2326
書法 2326
生病 2326
百人 2326
EF@@ 2325
信用@@ 2325
居民区 2325
帐@@ 2325
幾種 2325
扩散 2325
Ver@@ 2324
出行 2324
劣 2324
北約 2324
等价 2324
花蓮縣 2324
和约 2323
晖 2323
法文 2323
草本植物 2323
1851 2322
AG 2321
南县 2321
河西 2321
焚 2321
瑞安 2321
穹@@ 2321
迁入 2321
逻@@ 2321
鍋 2321
隼 2321
Project 2320
上線 2320
攬 2320
最高人民法院 2320
東岸 2320
石化 2320
鐵路線 2320
8.5 2319
單一@@ 2319
對決 2319
棋手 2319
混音 2319
畢業@@ 2319
蔣經國 2319
釘 2319
上下行 2318
中古 2318
中央委员 2318
帕特 2318
撥款 2318
水星 2318
河南@@ 2318
禽@@ 2318
虚 2318
鄞@@ 2318
Studio 2317
二個 2317
值得一提的是 2317
合計 2317
層面 2317
纬@@ 2317
過的 2317
AK 2316
不定 2316
中国民主@@ 2316
国务院@@ 2316
戈里 2316
氨@@ 2316
江苏@@ 2316
遇害 2316
马克@@ 2316
人民代表大会常务委员会 2315
显得 2315
舉例 2315
隨時 2315
KBS 2314
一员 2314
商會 2314
山脊 2314
時將 2314
曼哈頓 2314
未经 2314
没收 2314
資產@@ 2314
2.6 2313
3.0 2313
PL@@ 2313
內陸 2313
摩西 2313
林地 2313
歷程 2313
視頻 2313
郑州市 2313
靼 2313
口味 2312
施瓦@@ 2312
○ 2311
將近 2311
益格 2311
麗魚 2311
147 2310
一侧 2310
挑戰賽 2310
查看 2310
民间@@ 2310
爾諾 2310
病死 2310
罷工 2310
雷特 2310
ps 2309
圖形 2309
實用 2309
廣義@@ 2309
特首 2309
籠@@ 2309
西区 2309
Bar@@ 2308
妄@@ 2308
湄@@ 2308
肚 2308
銳@@ 2308
阴谋 2308
传入 2307
最多@@ 2307
聯手 2307
裸 2307
類動物 2307
仁川 2306
凡尔@@ 2306
时间@@ 2306
电气@@ 2306
節日 2306
馬克 2306
162 2305
75% 2305
入住 2305
多為 2305
奴隶@@ 2305
有所@@ 2305
民用@@ 2305
溶解 2305
車款 2305
鳳凰@@ 2305
之久 2304
對抗 2304
自願 2304
表达式 2304
le@@ 2303
女排 2303
婴儿 2303
定義為 2303
所部 2303
执 2303
當代@@ 2303
第一所 2303
一夜 2302
分隊 2302
太古 2302
懲罰 2302
有權 2302
有毒 2302
渡河 2302
苔@@ 2302
0.8 2301
ち 2301
中央电视台 2301
井上 2301
姊姊 2301
嬪 2301
情景 2301
歐陽@@ 2301
畝 2301
車門 2301
间谍 2301
月食 2300
椒 2300
沈阳@@ 2300
皇族 2300
防护 2300
临时政府 2299
倫州 2299
基座 2299
少有 2299
弗吉尼亚 2299
明珠 2299
村委会 2299
虾 2299
其範圍 2298
旅行@@ 2298
熊本 2298
皖 2298
腳類 2298
ED@@ 2297
TH@@ 2297
UT@@ 2297
二十四 2297
參議 2297
女巫 2297
萝@@ 2297
追溯 2297
市內 2296
散布 2296
日照 2296
海戰 2296
畜@@ 2296
脏@@ 2296
菩提 2296
麻省@@ 2296
宣判 2295
淮河 2295
能否 2295
高音 2295
五日 2294
励 2294
夫勒省 2294
石家庄 2294
采纳 2294
214 2293
一流 2293
戶部 2293
颈 2293
列克 2292
报刊 2292
索菲@@ 2292
分辨 2291
溺@@ 2291
白宫 2291
破產 2291
营运 2291
諷刺 2291
return 2290
侵蚀 2290
處分 2290
CBS 2289
VO@@ 2289
两大 2289
卡普@@ 2289
湯瑪@@ 2289
阪 2289
不下 2288
車道 2288
車體 2288
辜 2288
雷射 2288
中區 2287
缆 2287
腊 2287
固有 2286
报复 2286
it@@ 2285
一具 2285
中国工程院 2285
庄隸屬 2285
第十六 2285
選舉區 2285
哈密 2284
坤@@ 2284
山西@@ 2284
演习 2284
辖市 2284
阿爾巴尼亞 2284
場面 2283
接納 2283
祚 2283
走上 2283
鈾 2283
奥利@@ 2282
日向 2282
深造 2282
统一@@ 2282
軼@@ 2282
附属@@ 2282
附設 2282
参演 2281
本市 2281
江口 2281
演習 2281
都柏林 2281
馬克@@ 2281
則以 2280
君王 2280
崙@@ 2280
莊園 2280
轰@@ 2280
隆慶 2280
Mk 2279
分辨率 2279
幼儿园 2279
憩 2279
米斯 2279
胖 2279
高手 2279
乍@@ 2278
偶尔 2278
分段 2278
工商管理 2278
幸存 2278
氨 2278
減輕 2278
35.@@ 2277
China 2277
re@@ 2277
ti@@ 2277
藔 2277
露西 2277
供水 2276
孚日 2276
庭院 2276
廣州@@ 2276
忒 2276
毙 2276
禮儀 2276
穗@@ 2276
臻 2276
傀儡 2275
唐太宗 2275
巡逻 2275
溶剂 2275
篮 2275
踏 2275
劝 2274
参与者 2274
潮汐 2274
濁 2274
蛙@@ 2274
隊史 2274
Me@@ 2273
Un@@ 2273
du 2273
两家 2273
可怕 2273
合成@@ 2273
吉祥 2273
学生@@ 2273
汇报 2273
瘟疫 2273
范畴 2273
評分 2273
马赛 2273
专注 2272
东岸 2272
供应@@ 2272
傭@@ 2272
否決 2272
奥斯卡@@ 2272
敕@@ 2272
泉水 2272
聯軍@@ 2272
荐 2272
譬如 2272
起步 2272
0.4 2271
募 2271
合作社 2271
武官 2271
稠@@ 2271
公司@@ 2270
其妻 2270
咨@@ 2270
字樣 2270
孫權 2270
抗戰 2270
現役 2270
皈依 2270
辩 2270
ο 2269
不准 2269
American 2268
ay 2268
坍@@ 2268
拉多 2268
神学 2268
该镇 2268
康熙帝 2267
建筑风格 2267
总计 2267
部副 2267
GNU 2266
ç 2266
伊藤@@ 2266
增建 2266
德爾@@ 2266
拷@@ 2266
熟知 2266
第五届 2266
一曲 2265
内尔 2265
商学院 2265
青年团 2265
排出 2264
時速 2264
标签 2264
校尉 2264
江蘇@@ 2264
洛伊 2264
職責 2264
庾@@ 2263
無人@@ 2263
田市 2263
西元前 2263
輕軌 2263
夏令 2262
始发 2262
政务 2262
生代 2262
肛@@ 2262
Air 2261
GUNDAM 2261
亚人 2261
人則 2261
優點 2261
外交关系 2261
奉祀 2261
文化局 2261
犁@@ 2261
纸币 2261
英皇 2261
org 2260
損壞 2260
教科 2260
水稻 2260
無力 2260
聚合 2260
壺 2259
昏迷 2259
牌坊 2259
符腾堡 2259
话题 2259
201@@ 2258
住戶 2258
年號 2258
手套 2258
畫作 2258
21@@ 2257
企業家 2257
學術@@ 2257
布尔什维克 2257
決定@@ 2257
特兰 2257
限期 2257
www 2256
師團 2256
母語 2256
理论@@ 2256
股份@@ 2256
计算@@ 2256
風球 2256
142 2255
新月 2255
滾 2255
瓷@@ 2255
諫 2255
加爾 2254
坚决 2254
署理 2254
鸦 2254
区段 2253
和田 2253
埃塞俄比亚 2253
本州 2253
歇爾 2253
畜 2253
辽东 2253
魔女 2253
ICE 2252
之称 2252
卡河 2252
機能 2252
緝 2252
罷免 2252
48.@@ 2251
劃入 2251
單純 2251
天文学 2251
補償 2251
車室 2251
195 2250
乌兹别@@ 2250
偏好 2250
惩罚 2250
打倒 2250
抗原 2250
沒有@@ 2250
海關 2250
音效 2250
GA 2249
人名 2249
廈@@ 2249
斧 2249
欄@@ 2249
相位 2249
索恩省 2249
豎@@ 2249
隸@@ 2249
頂部 2249
北齐 2248
文庫 2248
謹@@ 2248
議案 2248
订购 2248
赛道 2248
間諜 2248
Ge@@ 2247
一體 2247
参谋部 2247
啟德 2247
外星 2247
德林 2247
更具 2247
正方形 2247
駱@@ 2247
type 2246
中国社会@@ 2246
使馆 2246
图斯 2246
师师长 2246
平方公尺 2246
据点 2246
沮@@ 2246
制止 2245
大败 2245
媽祖 2245
宮廷 2245
臘 2245
諧@@ 2245
趟 2245
重生 2245
大主教 2244
暉 2244
李文@@ 2244
滬@@ 2244
页面 2244
風波 2244
Ne@@ 2243
四處 2243
彈劾 2243
纽 2243
PO@@ 2242
事人 2242
击中 2242
春节 2242
生人 2242
白沙 2242
监测 2242
社长 2242
ION 2241
人質 2241
猫@@ 2241
美方 2241
辛基 2241
選定 2241
步骤 2240
當成 2240
亚州 2239
史蒂夫 2239
時間@@ 2239
晉身 2239
渲染 2239
禮物 2239
亞當 2238
尤里 2238
改编自 2238
波及 2238
测定 2238
珠江 2238
相距 2238
37.@@ 2237
伊犁 2237
君士坦丁 2237
溃@@ 2237
监控 2237
规律 2237
汴@@ 2236
湿 2236
瓦多 2236
福爾 2236
稻田 2236
警官 2236
宜蘭@@ 2235
揆 2235
樓梯 2235
磊 2235
落地 2235
伊莉莎白 2234
停站 2234
安东尼奥 2234
屏東縣 2234
敖德@@ 2234
瓷器 2234
界限 2234
财务 2234
et@@ 2233
希臘語 2233
忌@@ 2233
拓扑 2233
結識 2233
雍 2233
东经 2232
輕型 2232
都察院 2232
丸@@ 2231
伊利诺@@ 2231
合约 2231
客車 2231
云南@@ 2230
後備 2230
斯泰尔 2230
洩@@ 2230
瓜分 2230
华沙 2229
土木工程 2229
如來 2229
延至 2229
民歌 2229
王者 2229
硼@@ 2229
諾州 2229
Day 2228
何塞 2228
內心 2228
勘 2228
委員長 2228
尽管如此 2228
敦煌 2228
熔岩 2228
藥品 2228
道士 2228
一门 2227
券@@ 2227
同源 2227
微小 2227
鞏固 2227
佛罗伦萨 2226
层面 2226
朝阳 2226
溫哥華 2226
自治州 2226
苓 2226
休闲 2225
們@@ 2225
探险@@ 2225
李家 2225
窝@@ 2225
筹 2225
顶点 2225
名錄 2224
張學@@ 2224
思潮 2224
相容 2224
腫瘤 2224
評論@@ 2223
AV@@ 2222
± 2222
乙醇 2222
奥托 2222
姿態 2222
尼爾@@ 2222
氨基酸 2222
沉默 2222
空缺 2222
考核 2222
财经@@ 2222
连接@@ 2222
mo 2221
代言人 2221
八強 2221
彈頭 2221
窃 2221
葬礼 2221
鉴@@ 2221
鍋@@ 2221
锦 2221
难度 2221
骚@@ 2221
平章 2220
据称 2220
不時 2219
哈里@@ 2219
居留 2219
平均气温 2219
鉴于 2219
包装 2218
法規 2218
米歇尔 2218
身边 2218
501 2217
im@@ 2217
一列 2217
災害 2217
踏入 2217
中曾 2216
外貌 2216
戰勝 2216
投出 2216
海湾 2216
特拉斯 2216
颁@@ 2216
之類 2215
化市 2215
坐落于 2215
拿出 2215
機組 2215
霜@@ 2215
香蕉 2215
0.6 2214
208 2214
取決 2214
哥特式 2214
夠@@ 2214
淤@@ 2214
隐藏 2214
1855 2213
抄本 2213
机动 2213
樹林 2213
盈利 2213
蒲 2213
代價 2212
哨@@ 2212
支柱 2212
普通话 2212
約定 2212
聚居 2212
花蓮@@ 2212
這顆 2212
閃 2212
阳光 2212
驻军 2212
高橋 2212
嗜@@ 2211
改装 2211
汗國 2211
签名 2211
舜 2211
菩薩@@ 2211
香料 2211
三路 2210
不够 2210
塔利 2210
大幅度 2210
成因 2210
敛 2210
方針 2210
热尔省 2210
爆發@@ 2210
甲酸 2210
监视 2210
营销 2210
高鐵 2210
Bo@@ 2209
PA 2209
停辦 2209
囚 2209
基底 2209
尔比 2209
尚書@@ 2209
山寺 2209
年國際 2209
激进 2209
示范 2209
筒@@ 2209
纺织 2209
谕 2209
黑海 2209
旅长 2208
时尚 2208
濾 2208
總體 2208
LIVE 2207
不設 2207
人道 2207
建康 2207
斃 2207
昊 2207
月間 2207
绪@@ 2207
菁@@ 2207
赫尔 2207
並認 2206
榜单 2206
特蘭 2206
症@@ 2206
蒂尔 2206
产权 2205
失誤 2205
心靈 2205
楓 2205
蔷@@ 2205
试剂 2205
龄@@ 2205
八達 2204
半导体 2204
奥委会 2204
姻@@ 2204
揮 2204
暑假 2204
溥@@ 2204
珂 2204
謝爾@@ 2204
前述 2203
南縣 2203
實習 2203
寨@@ 2203
脱贫 2203
醜聞 2203
頸@@ 2203
休閒 2202
君子 2202
攤@@ 2202
湊 2202
裁撤 2202
賦@@ 2202
锌 2202
青铜@@ 2202
前途 2201
听说 2201
外国人 2201
熱情 2201
阿利 2201
三十八年 2200
因斯 2200
外行星 2200
格陵@@ 2200
第一副 2200
经济学家 2200
诺克 2200
204 2199
MB 2199
工程系 2199
渐渐 2199
狙擊@@ 2199
至正 2199
酸性 2199
â 2198
不出 2198
偿@@ 2198
抑 2198
漕@@ 2198
间接 2198
伊勢 2197
傳媒@@ 2197
复杂@@ 2197
药品 2197
远程 2197
ED 2196
ton 2196
可可 2196
斯皮@@ 2196
生出 2196
貿@@ 2196
惯@@ 2195
现出 2195
生殖@@ 2195
茜@@ 2195
食品@@ 2195
饒@@ 2195
ON@@ 2194
之声 2194
以作 2194
布萊恩 2194
數十@@ 2194
泛指 2194
淄@@ 2194
獅子@@ 2194
船員 2194
象棋 2194
退回 2194
预选赛 2194
伞 2193
珪 2193
祭典 2193
荊州 2193
逊@@ 2193
重整 2193
850 2192
http 2192
iTunes 2192
主炮 2192
公信 2192
孔雀 2192
故而 2192
沈阳市 2192
缔@@ 2192
高中生 2192
鱈 2192
乘降 2191
搜集 2191
日因 2191
环节 2191
組長 2191
證書 2191
選項 2191
Al 2190
兩隊 2190
咒@@ 2190
暴力@@ 2190
自衛隊 2190
輻@@ 2190
1847 2189
報導@@ 2189
寬度 2189
布袋 2189
愛上 2189
本集 2189
轉到 2189
卡德 2188
百分之@@ 2188
研究会 2188
魚雷 2188
专用@@ 2187
中间@@ 2187
兩邊 2187
冻@@ 2187
加藤 2187
最大@@ 2187
羟基 2187
觀塘@@ 2187
鯛科 2187
淞@@ 2186
罰款 2186
性命 2185
时空 2185
連鎖 2185
城門 2184
按察司 2184
狱@@ 2184
落差 2184
认知 2184
Inc 2183
一門 2183
中叶 2183
入狱 2183
戰區 2183
招待 2183
擊落 2183
斯敦 2183
朱德 2183
男生 2183
百萬@@ 2183
ONE 2182
lo@@ 2182
創作@@ 2182
實際上 2182
联队 2182
赫梅利 2182
送給 2182
206 2181
NBC 2181
保險@@ 2181
判處 2181
古墳 2181
年史 2181
恐龙 2181
戴維斯 2181
肆@@ 2181
剂@@ 2180
动物园 2180
建校 2180
数个 2180
蜥蜴 2180
傳送 2179
兩層 2179
总工会 2179
純粹 2179
附中 2179
1841 2178
ST 2178
嫁@@ 2178
巴斯克 2178
第三个 2178
面貌 2178
亞州@@ 2177
卡洛 2177
小屋 2177
户籍 2177
為主題 2177
环路 2177
瓦尔德 2177
税收 2177
谷地 2177
401 2176
磯 2176
精神病 2176
肽 2176
苏州市 2176
門票 2176
順位 2176
制片厂 2175
合作@@ 2175
同屬 2175
地球@@ 2175
屿 2175
平常 2175
开除 2175
毋@@ 2175
狮子 2175
王國@@ 2175
航速 2175
几次 2174
罗德 2174
螺旋@@ 2174
遍布 2174
雇主 2174
207 2173
伊斯坦@@ 2173
对立 2173
懂@@ 2173
第四季 2173
而定 2173
AD 2172
MC 2172
他現 2172
兵役 2172
家庄 2172
很难 2172
明日 2172
異性 2172
两国@@ 2171
定罪 2171
模范 2171
次要 2171
玉祥 2171
立下 2171
反之 2170
未必 2170
榕@@ 2170
迄@@ 2170
大為 2169
布宜@@ 2169
所處 2169
指導@@ 2169
语言学 2169
傳教 2168
冠軍賽 2168
园林 2168
多瑙河 2168
正中 2168
編修 2168
邦德 2168
霍普@@ 2168
瑞士@@ 2167
善良 2166
王牌 2166
管控 2166
雅各布 2166
顏 2166
三藏 2165
亚尔 2165
克勞@@ 2165
六日 2165
奋 2165
特質 2165
销售@@ 2165
首秀 2165
相似@@ 2164
福州市 2164
笔名 2164
解决方案 2164
贝里 2164
As@@ 2163
约合 2163
饮食 2163
馬路 2163
九世 2162
字體 2162
年紀 2162
游击 2162
經由@@ 2162
背后 2162
血腥 2162
一口 2161
之道 2161
变形 2161
弊@@ 2161
斯多夫 2161
氨基 2161
珀斯 2161
罹@@ 2161
乞 2160
合力 2160
四座 2160
大師賽 2160
猜想 2160
稳定性 2160
纖維@@ 2160
练习 2160
资格赛 2160
录取 2159
換取 2159
極限 2159
渐 2159
電訊 2159
预言 2159
167 2158
保卫@@ 2158
取出 2158
戰死 2158
總局 2158
157 2157
Boy 2157
DOS 2157
仇恨 2157
家督 2157
将来 2157
着手 2157
终结 2157
缺失 2157
ú 2156
为名 2156
司馬 2156
建置 2156
放射 2156
淀 2156
當選為 2156
银行@@ 2156
192 2155
del 2155
三百@@ 2155
攻读 2155
斯里兰卡 2155
示范@@ 2155
も 2154
尧@@ 2154
希姆 2154
礼堂 2154
维耶 2154
伏尔@@ 2153
區區 2153
反恐 2153
周边@@ 2153
槳 2153
Girls 2152
多元化 2152
德尼 2152
捧 2152
斯曼 2152
湿润 2152
紀念館 2152
峭 2151
廣大 2151
意即 2151
歼灭 2151
沉重 2151
繡 2151
莲花 2151
著重 2151
銜@@ 2151
149 2150
420 2150
卢瓦雷 2150
地球物理 2150
推崇 2150
照顾 2150
El@@ 2149
Road 2149
ak@@ 2149
列車@@ 2149
司長 2149
挂牌 2149
有害 2149
理会 2149
纬 2149
阿拉斯加州 2149
三台 2148
君主制 2148
國共@@ 2148
感兴趣 2148
托尼 2148
林下 2148
给事中 2148
艾森@@ 2148
霍华德 2148
li@@ 2147
侄@@ 2147
史稱 2147
廢棄 2147
核能 2147
停运 2146
搭建 2146
洁@@ 2146
電荷 2146
頭角 2146
魚亞 2146
人工智能 2145
斷層 2145
火山@@ 2145
維克@@ 2145
4.2 2144
all 2144
三期 2144
前一天 2144
蚀 2144
1852 2143
一圈 2143
人类@@ 2143
普勒 2143
織田 2143
一卷 2142
托馬斯 2142
报导 2142
无人@@ 2142
汪精@@ 2142
潮湿 2142
议会@@ 2142
龔@@ 2142
亚克 2141
冀 2141
愛好者 2141
有权 2141
温和 2141
第一轮 2141
網民@@ 2141
螺科 2141
重伤 2141
馳 2141
st@@ 2140
中游 2140
愚 2140
抱怨 2140
漂亮 2140
爾夫 2140
獲准 2140
田径@@ 2140
厘 2139
只限 2139
極度 2139
概 2139
神經@@ 2139
鋁 2139
173 2138
ne 2138
us@@ 2138
全州 2138
刺杀 2138
后果 2138
法屬 2138
绳@@ 2138
嘎 2137
城隍 2137
彈性 2137
沫@@ 2137
銷售量 2137
铅@@ 2137
高溫 2137
鴉 2137
CC@@ 2136
不符 2136
伦特 2136
侃 2136
坑壁 2136
存款 2136
年將 2136
札幌 2136
波里 2136
火炬 2136
約克@@ 2136
萊斯 2136
藝員 2136
陪伴 2136
高麗 2136
介乎 2135
宙@@ 2135
樞 2135
納粹德國 2135
Or@@ 2134
亞區 2134
厉 2134
會導致 2134
有個 2134
氣壓 2134
沙河 2134
誉@@ 2134
赫爾@@ 2134
初級 2133
務部 2133
半衰期 2133
孔泰大區 2133
幅度 2133
張錄 2133
温泉 2133
耶稣会 2133
速箱 2133
鳞 2133
中山大学 2132
却是 2132
周日 2132
多伦多 2132
尘 2132
斯托克 2132
瞭解 2132
纏 2132
不服 2131
坊@@ 2131
流星 2131
浑@@ 2131
港人 2131
燒毀 2131
維新 2131
苹果@@ 2131
誕 2131
費城 2131
電腦@@ 2131
163 2130
Ltd 2130
乌兰@@ 2130
圃 2130
大港 2130
广大 2130
当地人 2130
暗殺 2130
林寺 2130
肚@@ 2130
哲學家 2129
地盤 2129
天台 2129
放到 2129
數年 2129
新泽@@ 2129
火箭@@ 2129
鹼 2129
上架 2128
拜堂 2128
是將 2128
樣子 2128
登陸@@ 2128
祺 2128
這對 2128
雪山 2128
馬爾 2128
Di@@ 2127
地铁站 2127
奖学金 2127
富蘭@@ 2127
歷屆 2127
磁性 2127
老化 2127
荣誉@@ 2127
高低 2127
仇者 2126
偏食 2126
切尔@@ 2126
成品 2126
瓊斯 2126
莒@@ 2126
行至 2126
驗證 2126
匾@@ 2125
姊 2125
布罗@@ 2125
延迟 2125
开采 2125
数年 2125
砂拉越 2125
空難 2125
靶@@ 2125
上古 2124
並從 2124
其下 2124
出版商 2124
哥特 2124
开源 2124
扮@@ 2124
揭發 2124
濬 2124
電機 2124
ING 2123
中州 2123
折磨 2123
神聖@@ 2123
迁居 2123
市府 2122
老街 2122
违法 2122
2.7 2121
class 2121
丹尼斯 2121
唤 2121
壹@@ 2121
字节 2121
快车 2121
控股@@ 2121
搖 2121
維也納 2121
NT 2120
乙未 2120
地下室 2120
塑像 2120
大勝 2120
太大 2120
椅@@ 2120
湖南卫视 2120
潰@@ 2120
邓 2120
ax 2119
创刊 2119
厲@@ 2119
哈尔滨市 2119
微信 2119
疫@@ 2119
稳 2119
膝 2119
臧@@ 2119
邯@@ 2119
骚乱 2119
166 2118
370 2118
住持 2118
城北 2118
帽@@ 2118
残疾人 2118
水文 2118
深厚 2118
聯車 2118
血型 2118
轉往 2118
new 2117
克兰 2117
拉巴 2117
清潔 2117
贊成 2117
主編 2116
年制 2116
投資者 2116
石山 2116
繆@@ 2116
該黨 2116
预警 2116
马哈迪 2116
东正教 2115
右侧 2115
扯 2115
機上 2115
琰 2115
747 2114
RT 2114
平時 2114
新政 2114
歉 2114
流體 2114
爾人 2114
留言 2114
福田 2114
花生 2114
衍生物 2114
000@@ 2113
党籍 2113
华语 2113
左侧 2113
截面 2113
立方@@ 2113
荷尔 2113
谥 2113
雷霆 2113
霍爾@@ 2113
光線 2112
層級 2112
探讨 2112
梦想 2112
电机 2112
縣市 2112
行署 2112
龟@@ 2112
オ 2111
创意 2111
完畢 2111
引導 2111
文武 2111
進會 2111
交界处 2110
合法性 2110
宣德 2110
專訪 2110
敌军 2110
日式 2110
當地@@ 2110
穿梭 2110
芭蕾@@ 2110
萨拉@@ 2110
誇@@ 2110
諱 2110
阿米 2110
不已 2109
减轻 2109
劍橋 2109
城區 2109
斯艾利斯 2109
英勇 2109
謠@@ 2109
黨團 2109
不高 2108
公學校 2108
動式 2108
北極 2108
直屬 2108
美分 2108
艷@@ 2108
莫拉 2108
马萨诸塞州 2108
鲁迅 2108
不當 2107
明末 2107
條文 2107
漁港 2107
獵人 2107
绵 2107
茵 2107
1849 2106
3.6 2106
ong 2106
四肢 2106
曼城 2106
牛顿 2106
球菌 2106
马克思 2106
匈 2105
启发 2105
國聯 2105
敦促 2105
綿 2105
繼母 2105
電源 2105
敕 2104
每逢 2104
脆弱 2104
財經 2104
边形 2104
通商 2104
人民日报 2103
基層 2103
多年生 2103
学界 2103
持久 2103
會以 2103
眼中 2103
诞 2103
邯郸 2103
高级中学 2103
3.3 2102
人人 2102
棋子 2102
锐@@ 2102
阿尔代什 2102
出海 2101
單行本 2101
國鐵 2101
宗派 2101
帆@@ 2101
忧@@ 2101
翼龍 2101
食者 2101
首座 2101
創業 2100
拜登 2100
粉絲@@ 2100
通州 2100
铅 2100
韋爾@@ 2100
吉斯@@ 2099
拾@@ 2099
港島 2099
筛@@ 2099
譯為 2099
輕微 2099
LGBT 2098
以求 2098
发放 2098
威斯特 2098
师生 2098
桌面 2098
画作 2098
畢業生 2098
粗糙 2098
ir@@ 2097
入獄 2097
变体 2097
存取 2097
將此 2097
干流 2097
廊@@ 2097
打冠 2097
禦 2097
95@@ 2096
執教 2096
大洋 2096
悼念 2096
战俘 2096
参政 2095
腎 2095
萨瓦省 2095
魚亞目 2095
債務 2094
奥巴马 2094
妝@@ 2094
正殿 2094
流亡@@ 2094
港督 2094
進駐 2094
鑽石 2094
敖@@ 2093
教官 2093
闯@@ 2093
首家 2093
急速 2092
提琴 2092
河东 2092
祈禱 2092
華特 2092
马上 2092
鲸 2092
参军 2091
史丹@@ 2091
溥 2091
笙 2091
郊區 2091
野生@@ 2091
阻碍 2091
柜 2090
次序 2090
跟踪 2090
遇見 2090
鳩 2090
他成 2089
劑@@ 2089
商用 2089
小吃 2089
朝政 2089
格蘭 2089
远离 2089
附件 2089
保安@@ 2088
妈@@ 2088
就职 2088
蜘蛛@@ 2088
高度@@ 2088
佛法 2087
倾斜 2087
展商 2087
炮击 2087
职人员 2087
西蒙@@ 2087
赞成 2087
骑士团 2087
GP@@ 2086
亿年 2086
國有 2086
增添 2086
澳大@@ 2086
硬幣 2086
脸@@ 2086
通讯@@ 2086
Be@@ 2085
à 2085
安徽@@ 2085
摩天 2085
監管 2085
突击 2085
翻譯@@ 2085
落实 2085
铀 2085
フ 2084
也就是说 2084
同類 2084
尸@@ 2084
嶺@@ 2084
新加坡@@ 2084
日漸 2084
福建@@ 2084
自民黨 2084
锂 2084
161 2083
博尔@@ 2083
山形 2083
法制 2083
用力 2083
發放 2083
西海岸 2083
養子 2083
183 2082
商场 2082
大肆 2082
學及 2082
府城 2082
歧@@ 2082
玛格丽特 2082
美麗@@ 2082
郵 2082
1.9 2081
2023 2081
开元 2081
开放@@ 2081
彎曲 2081
急救 2081
旦@@ 2081
用性 2081
耦合 2081
胚胎 2081
習生 2080
贞观 2080
迪斯@@ 2080
1815 2079
口中 2079
基輔 2079
恶劣 2079
林市 2079
縣道 2079
舊址 2079
進出 2079
金币 2079
号召 2078
廂@@ 2078
拨款 2078
眷 2078
蠟@@ 2078
進度 2078
OH 2077
八號 2077
川市 2077
蒂安 2077
这份 2077
麥可 2077
1846 2076
σ 2076
尼古拉斯 2076
年少 2076
果實 2076
防禦率 2076
von 2075
初一 2075
本屬 2075
沁 2075
特务 2075
相互@@ 2075
芽@@ 2075
188 2074
三度 2074
之旅 2074
华中 2074
南明 2074
團員 2074
平凡 2074
永久性 2074
污水 2074
組為 2074
选择@@ 2074
世锦赛 2073
厭 2073
壓制 2073
大腦 2073
庄為 2073
蕴@@ 2073
迪亚 2073
马耶讷 2073
伦西亚 2072
威尔@@ 2072
岡市 2072
潰 2072
瀛 2072
猜 2072
171 2071
209 2071
内特 2071
冶金 2071
在一起 2071
度過 2071
拖延 2071
西九龍 2071
許可 2071
Am@@ 2070
七日 2070
圻 2070
塞夫 2070
將該 2070
拉普@@ 2070
樹木 2070
颗粒 2070
颠@@ 2070
女優 2069
浙江大学 2069
老板 2069
SARS 2068
im 2068
众人 2068
开皇 2068
彝族 2068
株式会社 2068
腔@@ 2068
諾曼 2068
近乎 2068
酋長 2068
商圈 2067
斑點 2067
灾难 2067
赶 2067
221 2066
嚴厲 2066
摘 2066
泌@@ 2066
縣立 2066
选拔 2066
陸上 2066
拜訪 2065
海地区 2065
音樂人 2065
鸭 2065
184 2064
TR@@ 2064
不具 2064
凯尔 2064
姐@@ 2064
市政局 2064
採集 2064
無緣 2064
王世@@ 2064
3.7 2063
A2 2063
у 2063
之後他 2063
兜@@ 2063
兩家 2063
總值 2063
蚊@@ 2063
表现@@ 2063
西貢 2063
谊@@ 2063
集镇 2063
预定 2063
鼬 2063
USB 2062
十三@@ 2062
档案@@ 2062
第十八 2062
M1 2061
勛 2061
記述 2061
質素 2061
Col@@ 2060
Hall 2060
IA 2060
SE 2060
二元 2060
剧组 2060
安東尼@@ 2060
影业 2060
戍@@ 2060
有助于 2060
泸@@ 2060
精選 2060
世紀末 2059
中華民國國 2059
意大利语 2059
汲@@ 2059
這款 2059
阜 2059
阿尔及利亚 2059
下级 2058
原住 2058
常务委员 2058
开头 2058
戀者 2058
突擊 2058
中华人民共和国政府 2057
人事@@ 2057
匡 2057
檢察@@ 2057
潼@@ 2057
焊接 2057
蘇維埃 2057
象徵@@ 2057
鞭 2057
也许 2056
多克 2056
慶長 2056
挑 2056
智能@@ 2056
現出 2056
贫困 2056
農民@@ 2056
一樓 2055
史学家 2055
官职 2055
法兰@@ 2055
相传 2055
空间站 2055
阿基@@ 2055
ε 2054
叡 2054
嘆 2054
專科@@ 2054
横跨 2054
福井 2054
部长@@ 2054
д 2053
不住 2053
代牧區 2053
夥@@ 2053
娱乐@@ 2053
引退 2053
民營 2053
瓦勒 2053
紐約州 2053
迅 2053
O2 2052
乳房 2052
催化剂 2052
口音 2052
同居 2052
大軍@@ 2052
就會 2052
恐惧 2052
想象 2052
泡沫 2052
海軍陸 2052
ang@@ 2051
刷@@ 2051
南通 2051
埃米 2051
定型 2051
尼日@@ 2051
居多 2051
島的 2051
李光@@ 2051
白河 2051
翰林 2051
艾爾@@ 2051
距今 2051
元老 2050
外線 2050
染色体 2050
求助 2050
漢族 2050
鹼@@ 2050
ley 2049
一致@@ 2049
卡卡 2049
喜剧@@ 2049
港鐵@@ 2049
神廟 2049
绒 2049
花岗@@ 2049
該處 2049
豆科 2049
倫理 2048
儂 2048
开创 2048
瑜伽 2048
真人秀 2048
赞扬 2048
近郊 2048
追踪 2048
追逐 2048
過渡 2048
會會長 2047
歌仔 2047
瑪格@@ 2047
綱脂 2047
航程 2047
莫里 2047
該次 2047
防线 2047
159 2046
中央政治局 2046
垄断 2046
增长@@ 2046
幹事 2046
科爾 2046
而產生 2046
Cor@@ 2045
万年 2045
三十一年 2045
世紀時 2045
幹道 2045
操作@@ 2045
東晉 2045
滿分 2045
甘肅 2045
總面 2045
耳朵 2045
自信 2045
闊@@ 2045
主席团 2044
入伙 2044
告牌 2044
有利于 2044
概況 2044
比數 2044
絮 2044
豁免 2044
赶到 2044
追究 2044
頒授 2044
事變 2043
傳記 2043
圖曼 2043
地层 2043
易斯 2043
民調 2043
水塘 2043
穎@@ 2043
第一支 2043
谷歌 2043
ρ 2042
志愿者 2042
ل 2041
← 2041
愛麗@@ 2041
構想 2041
沙丘 2041
确 2041
裘@@ 2041
二号 2040
外围 2040
暢 2040
栏目 2040
禎 2040
花卉 2040
莫夫 2040
譯本 2040
金华 2040
1820 2039
NA 2039
Ro@@ 2039
下一代 2039
出走 2039
型式 2039
夏威夷@@ 2039
万亩 2038
体化 2038
党组织 2038
名額 2038
垦 2038
城縣 2038
庇 2038
悔@@ 2038
流形 2038
簡易 2038
侠@@ 2037
創刊 2037
喚 2037
对流 2037
法蘭西 2037
衢@@ 2037
赣 2037
阿特 2037
入場 2036
军委 2036
扑@@ 2036
摆脱 2036
播音 2036
烘@@ 2036
玻利維亞 2036
畸@@ 2036
皮卡@@ 2036
稱之為 2036
輩@@ 2036
击者 2035
區位 2035
性化 2035
换成 2035
本国 2035
活动家 2035
療法 2035
联合国教科文组织 2035
贯通 2035
驚人 2035
CCTV 2034
三方 2034
台州 2034
固定@@ 2034
文書 2034
来往 2034
汉密尔顿 2034
畜牧 2034
百强 2034
纳尔@@ 2034
說家 2034
连同 2034
道理 2034
高爾夫 2034
佑@@ 2033
倫堡 2033
公报 2033
励@@ 2033
原为 2033
字样 2033
平方@@ 2033
永平 2033
爱因斯坦 2033
界線 2033
紳@@ 2033
重庆@@ 2033
鉛 2033
集群 2033
一字 2032
分流 2032
多間 2032
老城 2032
肋 2032
船長 2032
萎@@ 2032
222 2031
ES 2031
多尔@@ 2031
尔省 2031
帥@@ 2031
悚@@ 2031
时常 2031
特洛伊 2031
结盟 2031
重疊 2031
金城 2031
面部 2031
三項 2030
京都府 2030
噪@@ 2030
寓意 2030
尔森 2030
巡防 2030
秦王 2030
蘿 2030
1845 2029
南极 2029
持股 2029
海報 2029
瞿@@ 2029
第一条 2029
第五名 2029
警備 2029
Server 2028
塑膠 2028
大湖 2028
巫師 2028
會館 2028
突尼斯 2028
自动化 2028
164 2027
下分 2027
利克 2027
壬辰 2027
孢@@ 2027
曲榜 2027
沂 2027
送入 2027
鯊@@ 2027
178 2026
290 2026
交响@@ 2026
多样性 2026
客机 2026
惹@@ 2026
资产阶级 2026
215 2025
側線 2025
内务@@ 2025
厉@@ 2025
合資 2025
对外开放 2025
康乃@@ 2025
格罗 2025
检查@@ 2025
營造 2025
現身 2025
荆州 2025
阿克@@ 2025
霰@@ 2025
176 2024
chem 2024
中華職 2024
二字 2024
出手 2024
隔天 2024
隨後在 2024
飢@@ 2024
马来 2024
双打 2023
同盟会 2023
審理 2023
新安 2023
景色 2023
漢地 2023
1844 2022
AMD 2022
丹佛 2022
侵害 2022
各級 2022
安东 2022
宝石 2022
宾夕法尼亚州 2022
正交 2022
溯 2022
特委 2022
白旗 2022
別墅 2021
圖書 2021
失落 2021
悖@@ 2021
突袭 2021
Go@@ 2020
余年 2020
地下水 2020
封印 2020
果然 2020
绑架 2020
South 2019
官司 2019
宮殿 2019
幕僚 2019
扶手 2019
改組 2019
昧 2019
科雷兹省 2019
麻雀 2019
Galaxy 2018
MHz 2018
信号@@ 2018
金像奖 2018
委内瑞拉 2017
审议 2017
指导@@ 2017
收容 2017
白山 2017
讲师 2017
基人 2016
巴格 2016
庄镇 2016
稷 2016
第七批 2016
素材 2016
聚居@@ 2016
開創 2016
time 2015
中為 2015
傳承 2015
加裝 2015
弯@@ 2015
維斯@@ 2015
英吉@@ 2015
英國人 2015
覆盖@@ 2015
開頭 2015
my@@ 2014
无机@@ 2014
晤 2014
標語 2014
照射 2014
祈祷 2014
sa 2013
传感器 2013
有线@@ 2013
當場 2013
迹@@ 2013
夹 2012
巴黎@@ 2012
常年 2012
為準 2012
一手 2011
候补委员 2011
充当 2011
女配角 2011
慈善@@ 2011
级数 2011
艾迪 2011
靴 2011
182 2010
一届 2010
戊戌 2010
林业@@ 2010
呼和浩@@ 2009
威尔逊 2009
嫌疑人 2009
德比 2009
河北@@ 2009
行军 2009
逾@@ 2009
Instagram 2008
上书 2008
圣诞@@ 2008
奈特 2008
有點 2008
红十字@@ 2008
魔術 2008
Association 2007
Records 2007
占用 2007
卫星@@ 2007
西卡 2007
运动@@ 2007
马克斯 2007
XP 2006
付款 2006
会合 2006
小丑 2006
投球 2006
指代 2006
浏@@ 2006
男双 2006
革命党 2006
騙@@ 2006
MS@@ 2005
公認 2005
性交 2005
恤 2005
礦物 2005
ter 2004
É 2004
一再 2004
下议院 2004
不清 2004
出示 2004
加斯@@ 2004
局局长 2004
特权 2004
纖維 2004
舍尔 2004
1A 2003
二樓 2003
保祿 2003
克朗 2003
公交@@ 2003
國小 2003
工人@@ 2003
抑制@@ 2003
收藏@@ 2003
栽@@ 2003
礼仪 2003
祈求 2003
競技 2003
表揚 2003
高中@@ 2003
172 2002
ν 2002
以供 2002
在职 2002
推举 2002
板橋 2002
约克 2002
辜@@ 2002
飘@@ 2002
代尔 2001
北投 2001
百老 2001
绎 2001
輔音 2001
酷刑 2001
顯然 2001
首张 2001
一球 2000
人民代表大会 2000
初選 2000
替換 2000
縣治@@ 2000
英九 2000
諸如 2000
181 1999
代言 1999
依附 1999
容納 1999
布鲁斯 1999
影版 1999
有史 1999
民法 1999
电荷 1999
福岡縣 1999
西周 1999
鄭月 1999
CT 1998
中华人民共和国国务院 1998
乏@@ 1998
外來 1998
施泰@@ 1998
智力 1998
瞬間 1998
谈话 1998
開闢 1998
95% 1997
破碎 1997
舉動 1997
變遷 1997
鈣 1997
鑿 1997
齣 1997
三人@@ 1996
動脈 1996
因為@@ 1996
重金 1996
骨架 1996
凭@@ 1995
吟 1995
損傷 1995
歡樂 1995
远征 1995
阿里山 1995
顺位 1995
印地安人 1994
对面 1994
干預 1994
织 1994
钱币 1994
參照 1993
吸 1993
接入 1993
现时 1993
CEO 1992
Te@@ 1992
傑克森 1992
入學 1992
劲 1992
川家康 1992
布吕@@ 1992
廣域 1992
形勢 1992
斯威夫特 1992
樞紐 1992
解救 1992
邑@@ 1992
康拉德 1991
教导 1991
海事 1991
立案 1991
譚 1991
踏上 1991
单打 1990
官话 1990
巴托 1990
积累 1990
腊@@ 1990
至尊 1990
苷@@ 1990
頑@@ 1990
微波 1989
患病 1989
看待 1989
矿业 1989
維拉 1989
貨車 1989
靡 1989
196 1988
Ad@@ 1988
北歐 1988
省略 1988
第十七 1988
萨克森州 1988
隨着 1988
三國@@ 1987
品质 1987
圣公会 1987
天竺 1987
帶著 1987
常務@@ 1987
看见 1987
科羅拉多州 1987
缩小 1987
菁 1987
侵蝕 1986
初级@@ 1986
命中@@ 1986
布兰@@ 1986
擱@@ 1986
本剧 1986
橡膠 1986
燦@@ 1986
社会学 1986
解密 1986
人以 1985
凱文 1985
友誼 1985
发言 1985
專門@@ 1985
怎么 1985
搏@@ 1985
朝鲜战争 1985
越過 1985
下放 1984
关税 1984
即時 1984
国有@@ 1984
多达 1984
梁振英 1984
海路 1984
老年人 1984
芮@@ 1984
莫尔 1984
蒙大@@ 1984
警員@@ 1984
遙 1984
Store 1983
す 1983
分站 1983
辩护 1983
代史 1982
兴市 1982
姪 1982
岔 1982
建物 1982
惱 1982
時則 1982
簧@@ 1982
说话 1982
馈 1982
上半年 1981
乘法 1981
凯瑟琳 1981
拳击 1981
新华社 1981
空调 1981
茉@@ 1981
交通大学 1980
历时 1980
压器 1980
微弱 1980
月面 1980
維克 1980
480 1979
垒 1979
定制 1979
尼科 1979
普罗@@ 1979
正當 1979
造就 1979
入学 1978
吟@@ 1978
唐山 1978
解析@@ 1978
0.7 1977
ts 1977
況@@ 1977
遵 1977
锥@@ 1977
212 1976
not 1976
周六 1976
大气@@ 1976
大田 1976
枫@@ 1976
碳酸 1976
薩斯 1976
词典 1976
部首 1976
驰 1976
单个 1975
大坝 1975
布洛@@ 1975
海因里希 1975
總結 1975
切断 1974
國務@@ 1974
發電機 1974
驻守 1974
189 1973
仲裁 1973
传承 1973
克隆 1973
太平洋@@ 1973
家康 1973
法老 1973
警隊 1973
陷落 1973
‰ 1972
大城 1972
提速 1972
歷代 1972
运载火箭 1972
三维 1971
彈匣 1971
敘 1971
海盗 1971
统称 1971
达州 1971
Ph@@ 1970
Play 1970
二是 1970
回忆@@ 1970
学说 1970
打工 1970
方可 1970
煉@@ 1970
球形 1970
磐@@ 1970
萊特 1970
任用 1969
协调@@ 1969
反覆 1969
幾天 1969
强奸 1969
油田 1969
焦点 1969
競技場 1969
芝加哥@@ 1969
虧@@ 1969
身長 1969
遊樂場 1969
高昂 1969
300@@ 1968
被困 1968
詞語 1968
輔導 1968
陆军@@ 1968
骨頭 1968
IGN 1967
MO 1967
位處 1967
妓女 1967
居所 1967
棺 1967
馳@@ 1967
一属 1966
此為 1966
死神 1966
濠 1966
熱烈 1966
玄武@@ 1966
萧 1966
计算机科学 1966
遴@@ 1966
選舉@@ 1966
10000 1965
三十五年 1965
交接 1965
無數 1965
看守 1965
职权 1965
親自@@ 1965
修院 1964
别的 1964
和歌 1964
甦 1964
考证 1964
街头 1964
鐘獎 1964
北港 1963
吞吐量 1963
多爾 1963
已經@@ 1963
後才 1963
擅自 1963
生性 1963
生會 1963
短短 1963
音節 1963
切斯 1962
劳伦斯 1962
劾 1962
完毕 1962
微分方程 1962
最年 1962
碉@@ 1962
te 1961
you 1961
夺回 1961
庸@@ 1961
晶体@@ 1961
科維奇 1961
蘭德 1961
限度 1961
麒麟 1961
45.@@ 1960
North 1960
免去 1960
加利福@@ 1960
小说@@ 1960
权益 1960
殲@@ 1960
沙灘 1960
海里 1960
現金 1960
第十五 1960
纠纷 1960
表中 1960
覽@@ 1960
電器 1960
238 1959
之內 1959
嘉義 1959
擅@@ 1959
禁忌 1959
第一百 1959
聰明 1959
音频 1959
ini 1958
十四@@ 1958
瓦河 1958
脊椎@@ 1958
調任 1958
颖@@ 1958
BL 1957
Qu@@ 1957
三元 1957
吞并 1957
嘻@@ 1957
微型 1957
撃 1957
结尾 1957
骂 1957
鬍 1957
鲤@@ 1957
事发 1956
亞裔 1956
無罪 1956
瓦兹 1956
突襲 1956
線路 1956
聪 1956
︰ 1956
340 1955
PE@@ 1955
军事委员会 1955
咀 1955
委派 1955
此片 1955
濮@@ 1955
界別 1955
逼迫 1955
音乐节 1955
Best 1954
Le 1954
元旦 1954
动物@@ 1954
基因组 1954
岡縣 1954
楷@@ 1954
濁@@ 1954
瑤 1954
甲午 1954
終極 1954
纳州 1954
語族 1954
1812 1953
EST 1953
卡西@@ 1953
暱 1953
産 1953
石勒苏 1953
考官 1953
賽場 1953
DE 1952
じ 1952
咽@@ 1952
審團 1952
杆菌 1952
纳米 1952
陋 1952
亞瑟 1951
分級 1951
尔河 1951
正義 1951
法則 1951
混双 1951
薰 1951
进会 1951
93.@@ 1950
噸@@ 1950
情境 1950
武警 1950
署名 1950
XX 1949
买下 1949
外海 1949
推官 1949
百大 1949
3.1 1948
分明 1948
卡塔尔 1948
摇滚@@ 1948
杜省 1948
环线 1948
皇位 1948
Black 1947
兼职 1947
样式 1947
牛頓 1947
迎娶 1947
酋@@ 1947
Mr 1946
工匠 1946
櫻 1946
正线 1946
中舉 1945
免受 1945
坑底 1945
朽 1945
蒋 1945
電氣@@ 1945
99.@@ 1944
北段 1944
却@@ 1944
尼古@@ 1944
座落 1944
恰好 1944
放下 1944
无产阶级 1944
殖民@@ 1944
別名 1943
卢瓦省 1943
哺乳动物 1943
归类 1943
第六届 1943
譯作 1943
阿勒 1943
1843 1942
产值 1942
各大@@ 1942
坟@@ 1942
多處 1942
夢想 1942
察院 1942
布瓦 1942
视角 1942
兩大@@ 1941
回憶@@ 1941
埃斯特 1941
瀏覽器 1941
臘@@ 1941
Max 1940
之类 1940
乌尔@@ 1940
渦@@ 1940
祠堂 1940
风波 1940
一次@@ 1939
佔地 1939
勒索 1939
千歲 1939
外援 1939
激起 1939
青州 1939
傾 1938
女作 1938
橄欖球 1938
毫 1938
种群 1938
七名 1937
共识 1937
大象 1937
實際@@ 1937
小麦 1937
尼察@@ 1937
建武 1937
此一 1937
管弦 1937
葛拉@@ 1937
衰變 1937
骨灰 1937
中称 1936
南京大学 1936
引人@@ 1936
栏@@ 1936
法国人 1936
變體 1936
較長 1936
並會 1935
中等@@ 1935
佛羅@@ 1935
击落 1935
梅森 1935
自然界 1935
补助 1935
Sony 1934
安达@@ 1934
征伐 1934
海尔 1934
先祖 1933
区域性 1933
尼泊爾 1933
岡山 1933
指稱 1933
旁白 1933
贵阳 1933
WWE 1932
几 1932
反感 1932
否决 1932
平板 1932
汉斯 1932
this 1931
侬 1931
停办 1931
礙@@ 1931
祭拜 1931
纜@@ 1931
臭 1931
进出 1931
勁歌 1930
环保 1930
纳尔 1930
達尼@@ 1930
鈕 1930
KO@@ 1929
交汇处 1929
仅存 1929
以至于 1929
入围 1929
利特 1929
南段 1929
執行@@ 1929
搬到 1929
濃 1929
知州 1929
砂岩 1929
绣 1929
维利 1929
西魏 1929
GT@@ 1928
梅州 1928
糯@@ 1928
錄片 1928
預計@@ 1928
實驗@@ 1927
根源 1927
气压 1927
水路 1927
江北 1927
海岸线 1927
精密 1927
1814 1926
Mc@@ 1926
关心 1926
典籍 1926
岐阜 1926
布莱恩 1926
氧气 1926
浦东 1926
特技 1926
用户@@ 1926
223 1925
em@@ 1925
交互@@ 1925
传达 1925
国家足球队 1925
學員 1925
性感 1925
约束 1925
車頭 1925
鄉鎮 1925
MVP 1924
佣 1924
候車 1924
先驱 1924
南太平洋 1924
工場 1924
整车 1924
曼努@@ 1924
曼哈顿 1924
西門 1924
僱 1923
全国性 1923
小组赛 1923
崇德 1923
戴维 1923
泰國@@ 1923
浜 1923
答应 1923
菩萨 1923
野心 1923
两地 1922
四种 1922
柯南 1922
貧窮 1922
鳳凰 1922
吉布@@ 1921
外国语 1921
搞@@ 1921
松本 1921
海濱 1921
航天局 1921
1842 1920
上级 1920
全体会议 1920
分入 1920
同時@@ 1920
塔爾 1920
感動 1920
永昌 1920
海德 1920
濫用 1920
玛利亚 1920
門檻 1920
冷战 1919
州立大学 1919
渥@@ 1919
相片 1919
空地 1919
谨@@ 1919
名家 1918
楔@@ 1918
潞@@ 1918
百科@@ 1918
相对论 1918
計師 1918
铃 1918
Lee 1917
山林 1917
憤 1917
摄政 1917
柳州 1917
比利亚 1917
直系 1917
第一台 1917
脆 1917
變星 1917
酬@@ 1917
187 1916
克里斯托弗 1916
古今 1916
離職 1916
RT@@ 1915
ity 1915
所長 1915
罰@@ 1915
蒸 1915
薹 1915
警报 1915
po@@ 1914
伊朗@@ 1914
北越 1914
同一天 1914
多种@@ 1914
女座 1914
極高 1914
煥 1914
給出 1914
维基百科 1914
缺点 1914
罗斯@@ 1914
自愿 1914
重慶市 1914
鑲 1914
601 1913
不宜 1913
小野 1913
平均值 1913
棱 1913
減低 1913
略有 1913
直达 1913
總部設 1913
類學 1913
X射线 1912
举重 1912
加重 1912
容积 1912
Com@@ 1911
东晋 1911
京劇 1911
前景 1911
卡罗来纳州 1911
尺@@ 1911
峽谷 1911
條紋 1911
機型 1911
烟台 1911
航运 1911
較少 1911
凸 1910
古斯 1910
外郎 1910
層次 1910
布林 1910
当今 1910
近现代 1910
邮票 1910
防衛@@ 1910
Pro@@ 1909
俄語 1909
則由 1909
嵌入 1909
接收@@ 1909
精力 1909
精美 1909
紗@@ 1909
纖@@ 1909
长沙市 1909
首脑 1909
驾 1909
47.@@ 1908
多月 1908
故乡 1908
水电站 1908
汉武帝 1908
经营@@ 1908
萌 1908
雁 1908
九個 1907
加之 1907
国营 1907
扁平 1907
无论是 1907
逃生 1907
雇员 1907
預算@@ 1907
177 1906
no 1906
免除 1906
召喚 1906
埃拉 1906
希拉 1906
新聞台 1906
海豹 1906
獻給 1906
芷@@ 1906
起義@@ 1906
避難 1906
阿格 1906
CH 1905
李自成 1905
自由党 1905
铭@@ 1905
ROM 1904
一戰 1904
克爾@@ 1904
国内外 1904
成祖 1904
文宗 1904
Don 1903
之妻 1903
最低@@ 1903
枣@@ 1903
试点 1903
陵园 1903
ã 1902
东莞 1902
侨 1902
國民大會 1902
大洲 1902
慣例 1902
法王 1902
绒@@ 1902
转型 1902
造反 1902
务局 1901
女演員 1901
抗生素 1901
新星 1901
科院 1901
si@@ 1900
一刻 1900
上杉@@ 1900
会面 1900
区长 1900
徹@@ 1900
狩猎 1900
盧森堡 1900
降級 1900
不算 1899
台地 1899
弗兰@@ 1899
托爾金 1899
第一本 1899
隔日 1899
ô 1898
两支 1898
之變 1898
佣@@ 1898
半導體 1898
参议 1898
售票@@ 1898
太傅 1898
存储@@ 1898
模組 1898
湖水 1898
牲畜 1898
皇太@@ 1898
第十届 1898
co@@ 1897
大同@@ 1897
小聯盟 1897
軍長 1897
逃脫 1897
高效 1897
197 1896
430 1896
キ 1896
三十六 1896
从中 1896
兇@@ 1896
工藝 1896
独自 1896
石灰岩 1896
羧@@ 1896
410 1895
Kong 1895
ator 1895
丹娜 1895
夜市 1895
居家 1895
德意志@@ 1895
抨擊 1895
水解 1895
紀律 1895
覓 1895
174 1894
反坦克 1894
專頁 1894
年老 1894
弯曲 1894
灌 1894
蔓@@ 1894
重奏 1894
世上 1893
伽利略 1893
倡議 1893
加德 1893
升入 1893
半數 1893
吉亞 1893
回覆 1893
大戰@@ 1893
強行 1893
洪都拉斯 1893
瞻@@ 1893
西村 1893
面体 1893
UE 1892
冷戰 1892
希斯 1892
弈 1892
汕 1892
起伏 1892
起火 1892
To 1891
刪@@ 1891
复活 1891
港幣 1891
特蘭大 1891
荣耀 1891
解雇 1891
語法 1891
預警 1891
不屬 1890
执行官 1890
盾牌 1890
续集 1890
遍及 1890
首週 1890
Henry 1889
Jean 1889
RAM 1889
Su@@ 1889
ur 1889
忽必烈 1889
郵政 1889
vs 1888
升空 1888
嬰 1888
拉脱维亚 1888
涅夫 1888
湖廣 1888
玉縣 1888
监察@@ 1888
緬甸@@ 1888
SP 1887
光线 1887
哈赤 1887
处分 1887
散射 1887
海邊 1887
特地 1887
评审 1887
诞@@ 1887
之力 1886
低下 1886
佛教@@ 1886
挑選 1886
演藝圈 1886
一個屬 1885
佬 1885
外交部长 1885
該島 1885
迪瓦 1885
那時 1885
京都市 1884
兴县 1884
墨爾@@ 1884
委員會@@ 1884
戈斯 1884
扶梯 1884
消化@@ 1884
重臣 1884
開墾 1884
Internet 1883
出租车 1883
剑桥大学 1883
十個 1883
國歌 1883
板球 1883
縣份 1883
这条 1883
逃脱 1883
隘 1883
代理人 1882
史记 1882
圣保罗 1882
安德魯 1882
猷 1882
空白 1882
籃球隊 1882
統稱 1882
該鎮 1882
连载 1882
228 1881
DB 1881
中會 1881
傳達 1881
光源 1881
墊 1881
威克 1881
尼亞人 1881
征收 1881
斡@@ 1881
果实 1881
水分 1881
第一首 1881
義為 1881
羲 1881
讯@@ 1881
迪亞 1881
遏@@ 1881
風季 1881
城牆 1880
大业 1880
烦 1880
甘蔗 1880
租賃 1880
羅斯@@ 1880
裳 1880
鳍 1880
120@@ 1879
UC@@ 1879
尘@@ 1879
幼蟲 1879
施密特 1879
由美國 1879
說服 1879
Envir@@ 1878
交互 1878
卵形 1878
反對@@ 1878
塢 1878
年來 1878
校董 1878
首輪 1878
Mac@@ 1877
ha 1877
参选 1877
史书 1877
承建 1877
搁@@ 1877
死于 1877
皂 1877
305 1876
乔木 1876
分量 1876
卫兵 1876
完整@@ 1876
瑙@@ 1876
福爾@@ 1876
莫尔@@ 1876
设想 1876
饥荒 1876
tr@@ 1875
っ 1875
么 1875
五星 1875
史考特 1875
夭@@ 1875
膺 1875
駝 1875
de@@ 1874
中场 1874
之命 1874
人將 1874
哆 1874
大哥 1874
尼昂 1874
明史 1874
朋 1874
江泽民 1874
稀有 1874
網際 1874
通航 1874
閔@@ 1874
非洲@@ 1874
首日 1874
169 1873
My@@ 1873
則稱 1873
德市 1873
會有 1873
洛桑 1873
狸藻 1873
萊茵 1873
關卡 1873
鲁豫 1873
ro@@ 1872
利奥 1872
大修 1872
清華大學 1872
滋 1872
预留 1872
凹 1871
加里@@ 1871
安门 1871
幽州 1871
德温 1871
本影 1871
薩克森 1871
饮料 1871
3A 1870
不慎 1870
亨特 1870
人民公社 1870
充分@@ 1870
南岛 1870
改元 1870
日落 1870
机关@@ 1870
杀人 1870
着陆 1870
逗留 1870
大炮 1869
屬的 1869
废止 1869
戰鬥中 1869
扔 1869
辦公 1869
還原 1869
互 1868
国际象棋 1868
建新 1868
悟空 1868
橙 1868
此人 1868
浑 1868
訂定 1868
跡@@ 1868
路德维希 1868
馬爾@@ 1868
bi@@ 1867
ler 1867
to@@ 1867
优点 1867
册封 1867
國安@@ 1867
日舉 1867
胺@@ 1867
隊成員 1867
共产国际 1866
凤凰@@ 1866
國子@@ 1866
團的 1866
岔@@ 1866
战死 1866
爺@@ 1866
福布斯 1866
葡萄糖 1866
历经 1865
磺 1865
诊 1865
财政收入 1865
越国 1865
高官 1865
低成本 1864
保送 1864
阮朝 1864
IX 1863
副处长 1863
受限 1863
屯門@@ 1863
晟 1863
檀 1863
氛 1863
生物学家 1863
磐 1863
绰@@ 1863
获得者 1863
葡萄牙人 1863
ans 1862
佔轄區 1862
保住 1862
大溪 1862
奚@@ 1862
持续@@ 1862
皇冠 1862
维吾尔族 1862
裝設 1862
賞識 1862
Steam 1861
亲属 1861
处在 1861
宁夏回族自治区 1861
栖 1861
沼泽 1861
票數 1861
粉碎 1861
袖 1861
下层 1860
更高 1860
球面 1860
粵 1860
苑@@ 1860
英國國會 1860
計算機 1860
辣椒 1860
逵 1860
驕@@ 1860
六大 1859
协同 1859
花瓣 1859
之母 1858
以防 1858
前部 1858
实例 1858
德島 1858
畅 1858
缅 1858
评分 1858
貸 1858
區議員 1857
友善 1857
土城 1857
城下 1857
安第@@ 1857
格朗 1857
滄@@ 1857
番禺 1857
身材 1857
不一 1856
人文@@ 1856
倡导 1856
小島 1856
苟@@ 1856
つ 1855
不料 1855
功效 1855
国公 1855
威利 1855
纺织@@ 1855
詹 1855
金時 1855
孫子 1854
彼得堡 1854
械@@ 1854
济南市 1854
蜡@@ 1854
HBO 1853
United 1853
ViuTV 1853
並用 1853
乡级 1853
亞太@@ 1853
倦 1853
古籍 1853
史記 1853
国人 1853
服从 1853
第四届 1853
约国 1853
茄@@ 1853
著名@@ 1853
進化 1853
阿尔伯特 1853
193 1852
м 1852
一街庄 1852
加泰@@ 1852
旅游业 1852
莫桑@@ 1852
触 1852
里安 1852
金球 1852
SI@@ 1851
吸入 1851
愛丁堡 1851
接續 1851
欧拉 1851
虚拟@@ 1851
訂購 1851
ミ 1850
人民党 1850
代价 1850
国民议会 1850
地標 1850
塞勒 1850
威爾斯@@ 1850
燮 1850
貝拉 1850
青藏@@ 1850
44.@@ 1849
Cl@@ 1849
保全 1849
斯特拉斯堡 1849
留学生 1849
盛大 1849
罗伯@@ 1849
美聯 1849
這使 1849
ISBN 1848
PP@@ 1848
三河 1848
卧 1848
受體 1848
女童 1848
帕特里克 1848
足联 1848
隨之 1848
0.9 1847
多以 1847
布达@@ 1847
捕食 1847
灵顿 1847
阪神 1847
體現 1847
佩德 1846
媒体报道 1846
江区 1846
海王星 1846
秘书@@ 1846
近親 1846
馆长 1846
AB 1845
亚特兰@@ 1845
从小 1845
会堂 1845
偕 1845
冻 1845
埃塞 1845
奇妙 1845
民党 1845
經濟部 1845
遺憾 1845
金额 1845
CS@@ 1844
Up 1844
二氧化@@ 1844
地勢 1844
女真 1844
芸 1844
西岛 1844
距離@@ 1844
中常 1843
伊万 1843
周遭 1843
廣播劇 1843
朱利安 1843
科恩 1843
911 1842
Girl 1842
天宝 1842
康斯坦丁 1842
挫 1842
探險@@ 1842
注释 1842
烏爾@@ 1842
玩笑 1842
警示 1842
高压 1842
ti 1841
交通运输 1841
人中 1841
地牙哥 1841
界线 1841
破解 1841
科西@@ 1841
锅 1841
代理@@ 1840
巴拿@@ 1840
录音室 1840
戈登 1840
投射 1840
挤 1840
推舉 1840
正模 1840
淘汰@@ 1840
运营商 1840
逆轉 1840
這份 1840
這年 1840
過海 1840
兑@@ 1839
抵達@@ 1839
本田 1839
蘇州 1839
We 1838
串流 1838
国际足联 1838
土木 1838
摄像@@ 1838
有不同 1838
歌剧院 1838
歷時 1838
递 1838
钊 1838
下屬 1837
巫 1837
干旱 1837
并不@@ 1837
樵 1837
沙拉 1837
深化 1837
自由式 1837
Unix 1836
主线 1836
族裔 1836
此書 1836
犹太教 1836
論點 1836
飛往 1836
马赫 1836
46.@@ 1835
城乡 1835
山羊 1835
歲@@ 1835
理科 1835
自動車 1835
译名 1835
贿 1835
3.8 1834
DD 1834
兇手 1834
复合 1834
寅@@ 1834
弗利 1834
托洛@@ 1834
東非 1834
欠缺 1834
江縣 1834
灣道 1834
疯狂 1834
载人 1834
錄得 1834
冶 1833
大理寺 1833
擦音 1833
滞@@ 1833
煞@@ 1833
聲援 1833
裁决 1833
西雅圖 1833
高科技 1833
400@@ 1832
Ac@@ 1832
Joseph 1832
亚特 1832
滤 1832
璽 1832
阿密 1832
创业 1831
北欧 1831
博爾@@ 1831
喪生 1831
四角 1831
國安法 1831
毁灭 1831
游戏机 1831
瀋 1831
自助 1831
自行@@ 1831
西南面 1831
213 1830
δ 1830
人隊 1830
新設 1830
波長 1830
等国 1830
索夫 1830
蹄 1830
轮渡 1830
面世 1830
南南西 1829
器具 1829
存器 1829
汐@@ 1829
特赦 1829
脂肪@@ 1829
賭場 1829
Martin 1828
別人 1828
字符串 1828
抵御 1828
福利@@ 1828
购物 1828
骨折 1828
具体@@ 1827
安息 1827
悟@@ 1827
斐濟 1827
新华@@ 1827
曾孙 1827
电阻 1827
北斗 1826
大都会 1826
山站 1826
潛力 1826
芭芭拉 1826
馬力 1826
佳績 1825
兇 1825
德宗 1825
渣 1825
研究成果 1825
耐 1825
認為@@ 1825
贝尔福 1825
阵营 1825
コ 1824
体长 1824
強風 1824
拉塔 1824
是繼 1824
泄露 1824
纳斯@@ 1824
醫藥 1824
τ 1823
侵略@@ 1823
保管 1823
吨@@ 1823
東西@@ 1823
特意 1823
证人 1823
門將 1823
防御@@ 1823
全日 1822
加速度 1822
壓區 1822
无线 1822
步驟 1822
爬行 1822
门口 1822
齿轮 1822
八旗 1821
叢 1821
奠基 1821
婆羅@@ 1821
宣帝 1821
富含 1821
戏曲 1821
留有 1821
移到 1821
稚@@ 1821
約旦 1821
获得@@ 1821
中国共产@@ 1820
公交车 1820
坞 1820
山南 1820
承接 1820
整治 1820
热门 1820
秦始皇 1820
結尾 1820
镍 1820
Mon@@ 1819
中国人民政治协商会议 1819
主板 1819
城西 1819
完全相同 1819
甥 1819
萃 1819
西斯@@ 1819
事业@@ 1818
侗@@ 1818
僧侶 1818
接連 1818
歷來 1818
爱国@@ 1818
監控 1818
表決 1818
談話 1818
Bi@@ 1817
会议@@ 1817
前秦 1817
噴射 1817
德尔@@ 1817
拍照 1817
溪县 1817
濂 1817
皮划艇 1817
被害@@ 1817
贯穿 1817
防護 1817
小項 1816
指揮部 1816
水雷 1816
研討@@ 1816
竿 1816
躺 1816
218 1815
Win@@ 1815
ve 1815
巴比@@ 1815
昨@@ 1815
迟 1815
酸钠 1815
179 1814
公认 1814
卷入 1814
壕 1814
尼卡 1814
獨家 1814
研究生院 1814
编译 1814
高新@@ 1814
引來 1813
新幹線 1813
泰安 1813
科学研究 1813
而將 1813
鋼鐵 1813
NT@@ 1812
凶 1812
四十四年 1812
濫@@ 1812
而出 1812
靂 1812
食邑 1812
下落 1811
亚当 1811
俾斯@@ 1811
光速 1811
区委 1811
呆 1811
島市 1811
粉嶺 1811
臉書 1811
蒐集 1811
近地 1811
選民@@ 1811
合適 1810
平和 1810
有序 1810
消化 1810
納州@@ 1810
鬱@@ 1810
哥罗德 1809
战事 1809
条纹 1809
首周 1809
年級 1808
林家 1808
簽名 1808
约旦 1808
藏有 1808
配方 1808
阐述 1808
鰻@@ 1808
EC@@ 1807
勐@@ 1807
厄瓜 1807
四十一年 1807
壢 1807
学业 1807
恒大 1807
扣押 1807
教練@@ 1807
普朗克 1807
海底隧道 1807
男演员 1807
终点站 1807
继承@@ 1807
屏障 1806
慶典 1806
豐田 1806
阿萨@@ 1806
50.@@ 1805
依赖于 1805
克里克 1805
水球 1805
特产 1805
绑 1805
谟 1805
醫學@@ 1805
乐园 1804
偵查 1804
区划 1804
可夫 1804
墨尔@@ 1804
大學士 1804
晋察@@ 1804
普敦 1804
謨 1804
诗集 1804
都统 1804
麥隆 1804
天花 1803
汽车@@ 1803
獎禮 1803
西欧 1803
千余 1802
基因@@ 1802
境界 1802
學生會 1802
寰 1802
小小 1802
普頓 1802
迪亞@@ 1802
铭文 1802
ing@@ 1801
伊拉 1801
列寧 1801
募集 1801
和歌山 1801
埋伏 1801
大力@@ 1801
完全@@ 1801
密西@@ 1801
投放 1801
投稿 1801
比爾@@ 1801
礦業 1801
突擊@@ 1801
公務@@ 1800
喬治亞 1800
文书 1800
肯特 1800
饥@@ 1800
鲨@@ 1800
BB 1799
代管 1799
停火 1799
发表声明 1799
建中 1799
洙 1799
菅@@ 1799
二十一 1798
全場 1798
市委常委 1798
愉快 1798
掘 1798
潑 1798
瞻 1798
顽@@ 1798
佚 1797
八卦 1797
子孙 1797
归国 1797
无线@@ 1797
槟城 1797
毛里@@ 1797
特聘 1797
谐@@ 1797
軍營 1797
达赖 1797
采购 1797
医师 1796
噪 1796
外野手 1796
帐 1796
航海@@ 1796
三立 1795
兩間 1795
声母 1795
实时 1795
導入 1795
战机 1795
数千 1795
沃斯 1795
港区 1795
潍@@ 1795
牛津大学 1795
禪師 1795
軍將 1795
零星 1795
埃罗 1794
堇 1794
學堂 1794
星空 1794
河县 1794
现名 1794
航天器 1794
衣物 1794
鎖定 1794
鑑定 1794
陈述 1794
下达 1793
刚果 1793
文史 1793
有過 1793
槃 1793
猿@@ 1793
论证 1793
饋 1793
三间 1792
但此 1792
学院@@ 1792
思想家 1792
瓦克 1792
篩@@ 1792
船队 1792
鋁@@ 1792
雕塑@@ 1792
頸部 1792
CP@@ 1791
Grand 1791
IUCN 1791
你們 1791
克威尔 1791
教學@@ 1791
貨運 1791
号码 1790
哪些 1790
堂區 1790
多方 1790
护卫@@ 1790
普顿 1790
校歌 1790
英雄@@ 1790
首名 1790
高速@@ 1790
Do@@ 1789
Hello 1789
彻斯特 1789
查询 1789
疗法 1789
第一集 1789
营业@@ 1789
一對 1788
三者 1788
世界纪录 1788
乙丑 1788
关卡 1788
军政府 1788
懸 1788
時事 1788
梵文 1788
特許 1788
自達 1788
輕小說 1788
Hong 1787
丰县 1787
众议员 1787
兰科 1787
景象 1787
橇 1787
池塘 1787
隋文帝 1787
1789 1786
1832 1786
三角@@ 1786
攻略 1786
斋@@ 1786
涡轮 1786
留校 1786
護士 1786
賣給 1786
216 1785
☆ 1785
冗@@ 1785
南接 1785
夔 1785
天啟 1785
总领事馆 1785
擦 1785
轉而 1785
辑@@ 1785
黄金@@ 1785
伊恩 1784
征战 1784
教员 1784
现实主义 1784
窩@@ 1784
西行 1784
詛咒 1784
轉動 1784
里程碑 1784
og@@ 1783
奇特 1783
強姦 1783
撈 1783
中興 1782
微笑 1782
會戰 1782
Dis@@ 1781
冉@@ 1781
几位 1781
只用 1781
合肥@@ 1781
声调 1781
嫻 1781
徒刑 1781
概括 1781
炮火 1781
阿拉巴马州 1781
難者 1781
雲林 1781
B1 1780
在野 1780
季后@@ 1780
开来 1780
歸屬 1780
里加 1780
sur 1779
一個羅馬 1779
东至 1779
切斯特 1779
担忧 1779
非官方 1779
303 1778
九一@@ 1778
出台 1778
大公国 1778
尼亚语 1778
尼托 1778
拉邦 1778
段时间 1778
赦 1778
食材 1778
186 1777
^ 1777
able 1777
up 1777
国土 1777
柑@@ 1777
獲選 1777
美國空 1777
美籍 1777
聖誕 1777
許可@@ 1777
超自然 1777
限量 1777
陵县 1777
se 1776
一小部分 1776
兖@@ 1776
動量 1776
古拉 1776
暑@@ 1776
澜 1776
發表聲明 1776
芋 1776
融资 1776
裁決 1776
言中 1776
開支 1776
陨@@ 1776
青铜 1776
制得 1775
同化 1775
尔茨 1775
理工大 1775
省市 1775
並不會 1774
官府 1774
弗朗西斯科 1774
超音速 1774
River 1773
咖@@ 1773
宣宗 1773
戒指 1773
抗衡 1773
芥@@ 1773
通報 1773
餉 1773
加纳 1772
宣统 1772
家园 1772
常規 1772
德雷@@ 1772
涡@@ 1772
电力@@ 1772
砸 1772
親衛隊 1772
迦太基 1772
澈 1771
荃@@ 1771
蠕@@ 1771
si 1770
兩國@@ 1770
十分@@ 1770
多媒体 1770
将近 1770
并用 1770
旬 1770
大中 1769
推遲 1769
政界 1769
豪華 1769
IE@@ 1768
二日 1768
供给 1768
刮@@ 1768
合资 1768
挑战@@ 1768
深深 1768
然不同 1768
禾@@ 1768
維吉尼亞州 1768
赛区 1768
鲨 1768
中港 1767
介于 1767
伊麗莎白 1767
公共汽车 1767
战绩 1767
王安@@ 1767
睦@@ 1767
草属 1767
补偿 1767
达科他州 1767
金花 1767
門口 1767
電視節 1767
飞往 1767
Video 1766
克羅地亞 1766
孛 1766
枫 1766
海省 1766
艾滋病 1766
薛 1766
迈阿密 1766
通俗 1766
东欧 1765
劲@@ 1765
四天 1765
格爾@@ 1765
止步 1765
爐@@ 1765
益州 1765
第三期 1765
事前 1764
位移 1764
搏 1764
电器 1764
總冠 1764
臂@@ 1764
遣返 1764
敞@@ 1763
爵夫人 1763
琮 1763
粵劇 1763
纷@@ 1763
鈴木@@ 1763
預言 1763
华北@@ 1762
反向 1762
暴行 1762
江山 1762
濫 1762
結合@@ 1762
维克 1762
衡阳 1762
贷 1762
262 1761
噶尔 1761
安慰 1761
宪章 1761
新田 1761
緬 1761
蝙蝠侠 1761
赔@@ 1761
ok 1760
体型 1760
多拉 1760
[...]
